{"[UNK]":0,"!":1,"\"":2,"#":3,"$":4,"%":5,"&":6,"'":7,"(":8,")":9,"*":10,"+":11,",":12,"-":13,".":14,"/":15,"0":16,"1":17,"2":18,"3":19,"4":20,"5":21,"6":22,"7":23,"8":24,"9":25,":":26,";":27,"<":28,"=":29,">":30,"?":31,"@":32,"A":33,"B":34,"C":35,"D":36,"E":37,"F":38,"G":39,"H":40,"I":41,"J":42,"K":43,"L":44,"M":45,"N":46,"O":47,"P":48,"Q":49,"R":50,"S":51,"T":52,"U":53,"V":54,"W":55,"X":56,"Y":57,"Z":58,"[":59,"\\":60,"]":61,"^":62,"_":63,"`":64,"a":65,"b":66,"c":67,"d":68,"e":69,"f":70,"g":71,"h":72,"i":73,"j":74,"k":75,"l":76,"m":77,"n":78,"o":79,"p":80,"q":81,"r":82,"s":83,"t":84,"u":85,"v":86,"w":87,"x":88,"y":89,"z":90,"{":91,"|":92,"}":93,"~":94,"¡":95,"¢":96,"£":97,"¤":98,"¥":99,"¦":100,"§":101,"¨":102,"©":103,"ª":104,"«":105,"¬":106,"®":107,"¯":108,"°":109,"±":110,"²":111,"³":112,"´":113,"µ":114,"¶":115,"·":116,"¸":117,"¹":118,"º":119,"»":120,"¼":121,"½":122,"¾":123,"¿":124,"Â":125,"Ã":126,"Ä":127,"Å":128,"Æ":129,"Ç":130,"È":131,"É":132,"Ê":133,"Ë":134,"Ì":135,"Í":136,"Î":137,"Ï":138,"Ð":139,"Ñ":140,"Ò":141,"Ó":142,"Ô":143,"Õ":144,"Ö":145,"×":146,"Ø":147,"Ù":148,"Ú":149,"Û":150,"Ü":151,"Ý":152,"Þ":153,"ß":154,"à":155,"á":156,"â":157,"ã":158,"ä":159,"å":160,"æ":161,"ç":162,"è":163,"é":164,"ê":165,"ë":166,"ì":167,"í":168,"î":169,"ï":170,"ð":171,"ñ":172,"ò":173,"ó":174,"ô":175,"Ā":176,"ā":177,"Ă":178,"ă":179,"Ą":180,"ą":181,"Ć":182,"ć":183,"Ĉ":184,"ĉ":185,"Ċ":186,"ċ":187,"Č":188,"č":189,"Ď":190,"ď":191,"Đ":192,"đ":193,"Ē":194,"ē":195,"Ĕ":196,"ĕ":197,"Ė":198,"ė":199,"Ę":200,"ę":201,"Ě":202,"ě":203,"Ĝ":204,"ĝ":205,"Ğ":206,"ğ":207,"Ġ":208,"ġ":209,"Ģ":210,"ģ":211,"Ĥ":212,"ĥ":213,"Ħ":214,"ħ":215,"Ĩ":216,"ĩ":217,"Ī":218,"ī":219,"Ĭ":220,"ĭ":221,"Į":222,"į":223,"İ":224,"ı":225,"Ĳ":226,"ĳ":227,"Ĵ":228,"ĵ":229,"Ķ":230,"ķ":231,"ĸ":232,"Ĺ":233,"ĺ":234,"Ļ":235,"ļ":236,"Ľ":237,"ľ":238,"Ŀ":239,"ŀ":240,"Ł":241,"ł":242,"Ń":243,"ĠĠ":244,"ĠĠĠĠ":245,"in":246,"Ġt":247,"on":248,"er":249,"at":250,"re":251,"he":252,"Ġa":253,"en":254,"ĠĠĠ":255,"or":256,"ĠĠĠĠĠĠĠĠ":257,"st":258,"al":259,"Ġthe":260,"ion":261,"le":262,"it":263,"Ġc":264,"ar":265,"se":266,"an":267,"is":268,"Ġf":269,"de":270,"Ġo":271,"ct":272,"ro":273,"Ġs":274,"me":275,"Ġp":276,"ing":277,"ic":278,"Ġ\\":279,"Ġw":280,"Ġ$":281,"Ġb":282,"Ġin":283,"ed":284,"ent":285,"es":286,"ĠĠĠĠĠĠĠ":287,"nd":288,"Ġof":289,"Ġ=":290,"ur":291,"et":292,"as":293,"Ġn":294,"ig":295,"ĉĉ":296,"Ġre":297,"ut":298,"Ġ(":299,"ac":300,"Ġth":301,"Ġm":302,"Ġto":303,"el":304,"ation":305,"Ġ{":306,"il":307,");":308,"Ġand":309,"Ġd":310,"ex":311,"ol":312,"mp":313,"ot":314,"ul":315,"un":316,"if":317,"ra":318,"Ġ<":319,"id":320,"lo":321,"Ġh":322,"--":323,"čĊ":324,"Ġ*":325,"iv":326,"Ġis":327,"ce":328,"_{":329,"qu":330,"ab":331,"Ġv":332,"th":333,"ĠĠĠĠĠĠĠĠĠĠĠ":334,"=\"":335,"pe":336,"//":337,"ction":338,"ĠT":339,"ag":340,"ate":341,"ame":342,"um":343,"</":344,"Ġ}":345,"ĠS":346,"Ġfor":347,"ad":348,"tr":349,"Ġg":350,"ter":351,"Ġst":352,"Ġe":353,"Ġl":354,"us":355,"ch":356,"end":357,"am":358,"Ġcon":359,"co":360,"im":361,"ath":362,"{\\":363,"pt":364,"ht":365,"ss":366,"ly":367,"ĠC":368,"ver":369,"Ġde":370,"ith":371,"ass":372,"ĠA":373,"Ġco":374,"ue":375,"ist":376,"ub":377,"Ġbe":378,"Ġ&":379,"ext":380,"In":381,"Ġse":382,"Ġ$\\":383,"ĠĠĠĠĠ":384,"ri":385,"ĠĠĠĠĠĠĠĠĠĠĠĠĠĠĠĠ":386,"Ġon":387,"ap":388,"ow":389,"ta":390,"**":391,"em":392,"up":393,"Ġthat":394,"urn":395,"Ġ\"":396,"()":397,"sp":398,"ect":399,"\">":400,"ew":401,"est":402,"av":403,"math":404,"ir":405,"od":406,"lass":407,"ref":408,"ay":409,"ure":410,"Ġpro":411,"ine":412,"turn":413,"age":414,"ode":415,"Ġthis":416,"ype":417,"ort":418,"Ġwith":419,"and":420,"==":421,"eg":422,"iz":423,"ight":424,"ph":425,"ĠĊ":426,"ma":427,"ase":428,"Ġan":429,"ĠM":430,"ment":431,"Ġif":432,"able":433,"li":434,"ult":435,"cal":436,"}\\":437,"ĠP":438,"Ġal":439,"to":440,"ers":441,"Ġ'":442,"int":443,"----":444,"^{":445,"}$":446,"00":447,"con":448,"ity":449,"art":450,"ĠF":451,"ĠI":452,"per":453,"ite":454,"Ġex":455,"ĠR":456,"Ġas":457,"Ġwe":458,"unction":459,"get":460,"ack":461,"ere":462,"Ġwh":463,"ĠD":464,"ĠB":465,"ial":466,"rom":467,"ime":468,"ĠĠĠĠĠĠĠĠĠĠĠĠĠĠĠ":469,"ption":470,"ang":471,"our":472,"Ġby":473,"ĠThe":474,"lic":475,"ore":476,"Ġor":477,"und":478,"ke":479,"ĠL":480,"Ġit":481,"ata":482,"ile":483,"Ġare":484,"..":485,"ck":486,"Ġ-":487,"Ġ//":488,"om":489,"orm":490,"pro":491,"ĠN":492,"Ġclass":493,"text":494,"ft":495,"ĠE":496,"}}":497,"ive":498,"alue":499,"(\\":500,"âĢ":501,"Ġreturn":502,"ĠH":503,"Ġme":504,"imp":505,"Ġr":506,"Ġ+":507,"ff":508,"use":509,"ject":510,"ĠG":511,"ace":512,"20":513,"egin":514,"ĉĉĉĉ":515,"ĠW":516,"ant":517,"ans":518,"begin":519,"res":520,"os":521,"Ġ@":522,"equ":523,"ies":524,"->":525,"Ġat":526,"ess":527,"ib":528,"all":529,"ition":530,"str":531,"ps":532,"set":533,"Ġtr":534,"_{\\":535,")$":536,"),":537,"lu":538,"Ġfrom":539,"Ġfunction":540,"ho":541,"::":542,"are":543,"ign":544,"Con":545,").":546,"},":547,"ve":548,"bo":549,"eq":550,"op":551,"ber":552,"ary":553,"fig":554,"Ġnot":555,"ill":556,"par":557,"oc":558,"Ġ[":559,"low":560,"ind":561,"sc":562,"fr":563,"}{":564,"abel":565,"ĠO":566,"Ġy":567,"ated":568,"act":569,"Ġres":570,"\",":571,"ide":572,"Ġ</":573,"Ġ/":574,"frac":575,"ire":576,"ize":577,"ens":578,"ave":579,"ray":580,"ord":581,"();":582,"The":583,"row":584,"Ġcan":585,"Ġcomp":586,"ser":587,"right":588,"ource":589,"Ġle":590,"(\"":591,"',":592,"Ġch":593,"og":594,"Ġ*/":595,"ical":596,"St":597,"ener":598,"cite":599,"nt":600,"bject":601,"form":602,"Ġnew":603,"ublic":604,"ast":605,"ge":606,"ip":607,"ull":608,"Ġvar":609,"ich":610,"ome":611,"label":612,"ations":613,"def":614,"ell":615,"ence":616,"err":617,"Ġ:":618,"Ġname":619,"../":620,"--------":621,"lf":622,"the":623,"lement":624,"put":625,"Ġlo":626,"****":627,"ance":628,"name":629,"dd":630,"te":631,"tring":632,"this":633,"Ġstr":634,"ert":635,"iel":636,"ĉĉĉ":637,"ug":638,"ml":639,"ĠIn":640,"ice":641,"Ex":642,"Ġsh":643,"ĠU":644,"Ġun":645,"ator":646,"ield":647,"di":648,"Name":649,"du":650,"vent":651,"))":652,"mathb":653,"odel":654,"$.":655,"cc":656,"out":657,"$,":658,"rm":659,"Ġdef":660,"line":661,"pp":662,"tain":663,"('":664,"====":665,",\\":666,"left":667,"ork":668,"ach":669,"pl":670,"ĠĠĠĠĠĠĠĠĠĠĠĠĠĠĠĠĠĠĠ":671,"Ġ_":672,"Ġar":673,"ty":674,"ĠĠĠĠĠĠĠĠĠ":675,"10":676,"})":677,"ong":678,"Ġhave":679,"ak":680,"equation":681,"Ġj":682,"ard":683,"Ġset":684,"eta":685,"fer":686,"ild":687,"Ġuse":688,"pect":689,"Re":690,"import":691,"amp":692,"port":693,"}.":694,"Ġ.":695,"var":696,"div":697,"Pro":698,"Ġhe":699,"ost":700,"mathcal":701,"Ġ|":702,"Ġwhich":703,"ory":704,"return":705,"yst":706,"Ġint":707,"so":708,"ĠTh":709,"ust":710,"com":711,"oid":712,"one":713,"19":714,"></":715,"span":716,"unt":717,"uld":718,"ER":719,"dex":720,"Ġk":721,"Ġus":722,"ok":723,"Ġdo":724,"Ġi":725,"}(":726,"ll":727,"param":728,"ress":729,"col":730,"Ġpublic":731,"Ġvalue":732,"Type":733,"ĠJ":734,"ystem":735,"of":736,"ĠV":737,"Ġwas":738,"umber":739,"lect":740,"clu":741,"ec":742,"da":743,"key":744,"}^":745,"Ġhas":746,"ix":747,"ther":748,"sum":749,"><":750,"oint":751,"~\\":752,"pha":753,"les":754,"}_":755,"iew":756,"Ġ!":757,"ution":758,"eng":759,"own":760,"Ġall":761,"Ġbo":762,"we":763,"scri":764,"alse":765,"Ġtype":766,"201":767,"alpha":768,"mb":769,"ga":770,"val":771,"Ġqu":772,"ded":773,"hen":774,"ree":775,"old":776,"idth":777,"Ġget":778,"IN":779,"String":780,"âĢĻ":781,"type":782,"ON":783,"Ġdata":784,"app":785,"roup":786,"ssage":787,"sub":788,"io":789,"amb":790,"Ġma":791,"ents":792,"mo":793,"Ġconst":794,"dot":795,"Ġwill":796,"che":797,"fo":798,"ink":799,"ou":800,"inal":801,"sh":802,"../../":803,"sed":804,"Ġinter":805,"uct":806,"Ġresult":807,"Co":808,"code":809,"cre":810,"ual":811,"Ġ#":812,"html":813,"pec":814,"pi":815,")\\":816,"ambda":817,"Id":818,"atch":819,"ery":820,"ef":821,"Ġsu":822,"$\\":823,"Ġpar":824,"Ġob":825,"Ġass":826,"Ġdis":827,"ates":828,"yn":829,"Ġerr":830,"Ġ`":831,"Ġout":832,"ics":833,"riv":834,"til":835,"irst":836,"Ġel":837,"Ġone":838,"Ġhref":839,"Ġcont":840,"amma":841,"ĠK":842,"arg":843,"RE":844,"Ġtime":845,"ault":846,"atic":847,"ces":848,"ange":849,"Ġsp":850,"ined":851,"ST":852,"Ġpl":853,"vel":854,"bar":855,"'s":856,"erm":857,"emp":858,"lock":859,"ep":860,"mu":861,"Ġcom":862,"12":863,"ache":864,"_\\":865,"ength":866,"Ġpart":867,"ptions":868,"lation":869,"Ġcase":870,"td":871,"ute":872,"trans":873,"Ġx":874,"ark":875,"=\\":876,"thod":877,"Res":878,"Ġ=>":879,"source":880,"vice":881,"ular":882,"Ġself":883,"Ġ\\\\":884,"message":885,"Ġ==":886,"led":887,"time":888,"Th":889,"Ġen":890,"Ġne":891,"Ġcol":892,"clude":893,"Ġ>":894,"ameter":895,"oth":896,"Ġpre":897,"Ġnull":898,"ses":899,"wo":900,"add":901,"Ġup":902,"rr":903,"urre":904,"Ġline":905,"}_{":906,"}^{":907,"__":908,"igma":909,"Ġmodel":910,"over":911,"Ġval":912,"ule":913,"raph":914,"mathbb":915,"item":916,"ions":917,"space":918,"ors":919,"-\\":920,"List":921,"for":922,"AT":923,"phi":924,"Ġso":925,"string":926,"ature":927,"ception":928,"ca":929,"ne":930,"not":931,"Ġform":932,"^{\\":933,"Ġvoid":934,"trib":935,"ud":936,"Ġrequ":937,"To":938,"200":939,"Ġ)":940,"Ġtrue":941,"back":942,"Ġid":943,"ues":944,"der":945,"spon":946,"ative":947,"tt":948,"._":949,"Ġ{\\":950,"lambda":951,"ely":952,"ollow":953,"ĠWe":954,"section":955,"ific":956,"ys":957,"Ġro":958,"class":959,"ĠThis":960,"Ġsub":961,"Ġfalse":962,"Ġ&&":963,"/>":964,"));":965,"://":966,"Ġstring":967,"##":968,"Ar":969,"ifi":970,"tern":971,"Ch":972,"osition":973,"ia":974,"bf":975,"array":976,"LE":977,"Ġbut":978,"Ġper":979,"min":980,"ĠĠĠĠĠĠĠĠĠĠĠĠĠĠĠĠĠĠĠĠĠĠĠĠĠĠĠĠĠĠĠĠ":981,"let":982,"********":983,"igh":984,"Ġelse":985,"cent":986,"Ġdif":987,"ob":988,"OR":989,"Ġover":990,"data":991,"Ġalso":992,"urrent":993,"ise":994,"lem":995,"Ġany":996,"ĠâĢ":997,"ry":998,"uild":999,"ader":1000,"ail":1001,"Ġyou":1002,"comp":1003,"ument":1004,"hat":1005,"We":1006,"Value":1007,"arch":1008,"Ġtrans":1009,"\"/>":1010,"Data":1011,"////":1012,"Ġimp":1013,"Ġsup":1014,"AR":1015,"ose":1016,"];":1017,"rit":1018,"ider":1019,"ID":1020,"Ġexp":1021,"Ġtwo":1022,"----------------":1023,"Ġwhen":1024,"ont":1025,"orre":1026,"Ġfollow":1027,"Ġadd":1028,"ings":1029,"ĠĠĠĠĠĠ":1030,"round":1031,"work":1032,"value":1033,"part":1034,"Ġonly":1035,"la":1036,"yle":1037,"Ġgener":1038,"read":1039,"16":1040,"ugh":1041,"EN":1042,"Ġthere":1043,"Ġend":1044,"ilon":1045,"ton":1046,"AL":1047,"\");":1048,"ole":1049,"):":1050,"Ġequ":1051,"align":1052,"psilon":1053,"del":1054,"ie":1055,"Ġother":1056,"Ġ/**":1057,"ask":1058,"self":1059,"its":1060,"Ġmore":1061,"Ġour":1062,"wh":1063,"htt":1064,"perty":1065,"Ġap":1066,"beta":1067,"log":1068,"Ġreg":1069,"Ġtest":1070,"resent":1071,"cess":1072,"ĠĠĠĠĠĠĠĠĠĠĠĠĠĠĠĠĠĠĠĠĠĠĠ":1073,"\\\\":1074,"mathbf":1075,"file":1076,"sigma":1077,"Ġapp":1078,"Ġ(\\":1079,"ample":1080,"width":1081,"Ġno":1082,"Ġinst":1083,"11":1084,"rivate":1085,"angle":1086,"Ġabo":1087,"ian":1088,"loc":1089,"function":1090,"^{-":1091,"========":1092,"Err":1093,"ĠĠĠĠĠĠĠĠĠĠĠĠĠ":1094,"lection":1095,"rame":1096,"ible":1097,"under":1098,"Ġwhere":1099,"ility":1100,"arget":1101,"Set":1102,"Ġnumber":1103,"Ser":1104,"Ġmethod":1105,"Tr":1106,"tilde":1107,"Ġext":1108,"Ġobject":1109,"Ġdist":1110,"}{\\":1111,"sion":1112,"pre":1113,"ved":1114,"Col":1115,"Ġsome":1116,"Ġthen":1117,"date":1118,"En":1119,"pend":1120,"Ġfirst":1121,"Ġsuch":1122,"itle":1123,"son":1124,"translation":1125,"SS":1126,"')":1127,"box":1128,"\"><":1129,"ax":1130,"Ġser":1131,"Object":1132,"ey":1133,"Ġgiv":1134,"32":1135,"new":1136,"Ġbet":1137,"($":1138,"enc":1139,"hould":1140,"pr":1141,"lient":1142,"Ġfield":1143,"cond":1144,"],":1145,"Ġcons":1146,"ick":1147,"Ġ||":1148,"Ġ!=":1149,"Ġused":1150,"gamma":1151,"ding":1152,"figure":1153,"Ġdiffer":1154,"cl":1155,"+\\":1156,"mary":1157,"umn":1158,"\")":1159,"ating":1160,"ann":1161,"als":1162,"*}":1163,"px":1164,"unc":1165,"Ġeach":1166,"delta":1167,"ash":1168,"irect":1169,"Ġthan":1170,"uff":1171,"};":1172,"Ġad":1173,"Se":1174,"ms":1175,"Exception":1176,"Ġshow":1177,"Ġcorre":1178,"Comp":1179,"mathrm":1180,"Ġstate":1181,"ound":1182,"br":1183,"ized":1184,"struct":1185,"size":1186,"Ġspec":1187,"');":1188,"^\\":1189,"cri":1190,"theta":1191,"olution":1192,"ages":1193,"Ġ--":1194,"Ġtheir":1195,"Ġwork":1196,"ization":1197,"face":1198,"heck":1199,"include":1200,"ĠY":1201,"]{":1202,"15":1203,"fter":1204,"Ġits":1205,"rho":1206,"requ":1207,"arent":1208,"tau":1209,"action":1210,"Par":1211,"Ġusing":1212,"yp":1213,"Ġkey":1214,"Error":1215,"Test":1216,"Ġpoint":1217,"ins":1218,"ccess":1219,"odule":1220,"Ġph":1221,")}":1222,"It":1223,"DE":1224,"ĠSt":1225,"Ġfile":1226,"IT":1227,"Ġmat":1228,"ween":1229,"ava":1230,"mon":1231,"ld":1232,"Ġ%":1233,"Ġmo":1234,"ream":1235,"test":1236,"Get":1237,"$-":1238,"ui":1239,"try":1240,"Ġman":1241,"SE":1242,"ince":1243,"Ġrel":1244,"Ġorg":1245,"be":1246,"ĠX":1247,"Ġinto":1248,"Ġsystem":1249,"uth":1250,"ote":1251,"CT":1252,"times":1253,"ices":1254,"Ġstatic":1255,"Ġ///":1256,"dots":1257,"reate":1258,"25":1259,"fore":1260,"leq":1261,"play":1262,"Ġbeen":1263,"atus":1264,"Ġchar":1265,"For":1266,"Ġim":1267,"ffect":1268,"ilter":1269,"ear":1270,"dis":1271,"ĉĉĉĉĉ":1272,"Node":1273,"mall":1274,"summary":1275,"}$,":1276,"cont":1277,"onent":1278,"ract":1279,"}$.":1280,"mand":1281,"ning":1282,"ased":1283,"18":1284,"Del":1285,"().":1286,"Ġz":1287,"Ġra":1288,"big":1289,"By":1290,"roll":1291,"ish":1292,"Element":1293,"length":1294,"Ġnon":1295,"ger":1296,"Ġrep":1297,"ĠString":1298,"}(\\":1299,"table":1300,"ng":1301,"nu":1302,"script":1303,"Ġarg":1304,"Cont":1305,"());":1306,"ody":1307,"ume":1308,"arrow":1309,"Ġbetween":1310,"Ġgiven":1311,"ify":1312,"Ġfinal":1313,"ious":1314,"Ġthey":1315,"Ġthese":1316,"Event":1317,"Ġparameter":1318,"Ġprob":1319,"Ġoper":1320,"Un":1321,"org":1322,"At":1323,"Ġu":1324,"Ġmay":1325,"nb":1326,"Ġunder":1327,"view":1328,"indow":1329,"Ġback":1330,"ersion":1331,"partial":1332,"/**":1333,"File":1334,"ension":1335,"ities":1336,"Key":1337,"Ġerror":1338,"ous":1339,"ler":1340,"inter":1341,"Ġelement":1342,"rite":1343,"Ġcall":1344,"ced":1345,"Ġcal":1346,"100":1347,"ĠRe":1348,"ĠCon":1349,"order":1350,"13":1351,"eqn":1352,"ĠQ":1353,"pm":1354,"index":1355,"Ġprov":1356,"rc":1357,"Time":1358,"14":1359,"AN":1360,"gy":1361,"ner":1362,"mber":1363,"Ġgo":1364,"Ġwere":1365,"hed":1366,"lete":1367,"omega":1368,"ĠIt":1369,"aw":1370,"eqref":1371,"ĠCh":1372,"Ġtra":1373,"go":1374,"ays":1375,"Ġ===":1376,"top":1377,"cale":1378,"Ġab":1379,"ĠFor":1380,"red":1381,"Ġnode":1382,"Ġli":1383,"ME":1384,"rib":1385,"vert":1386,"Ġlist":1387,"Ġ:=":1388,"rix":1389,"nbsp":1390,"De":1391,"rt":1392,"].":1393,"gra":1394,"Ġ?":1395,"Ġdifferent":1396,"url":1397,"no":1398,"ector":1399,"Ġ);":1400,"Ġevent":1401,"link":1402,"late":1403,"node":1404,"fty":1405,"ĠIf":1406,"net":1407,"Ġprivate":1408,"ified":1409,"ĠPro":1410,"Requ":1411,"imit":1412,"Delta":1413,"Ġent":1414,"Ġshould":1415,"ymb":1416,"infty":1417,"dition":1418,"ĠSe":1419,"Ġev":1420,"['":1421,"itial":1422,"Ġact":1423,"ĠCo":1424,"...":1425,"Ġ},":1426,"py":1427,"Ġhigh":1428,"ymbol":1429,"ain":1430,"ocument":1431,"UL":1432,"Ġ/*":1433,"ĠĠĠĠĠĠĠĠĠĠĠĠ":1434,"util":1435,"sec":1436,"Ġpo":1437,"\";":1438,"Class":1439,"Ġ$(":1440,"Index":1441,"Lo":1442,"\\,":1443,"ake":1444,"ient":1445,"ater":1446,"count":1447,"location":1448,"const":1449,"Ġorder":1450,"ww":1451,"Ġappro":1452,"tot":1453,"(),":1454,"Ġsame":1455,"uffer":1456,"Ġarray":1457,"pen":1458,"ym":1459,"main":1460,"list":1461,"ally":1462,"CO":1463,"\":":1464,"uration":1465,"formation":1466,"|\\":1467,"ments":1468,"sq":1469,"âĢĿ":1470,"/*":1471,"State":1472,"Ġfe":1473,"load":1474,"raw":1475,"path":1476,"64":1477,"Ġcontain":1478,"ground":1479,"Ġexpect":1480,"js":1481,"rol":1482,"Ġsign":1483,".</":1484,"Ġsize":1485,"sign":1486,"roid":1487,"olog":1488,"View":1489,"reak":1490,"Ġvari":1491,"lob":1492,"ired":1493,"pert":1494,"cle":1495,"Array":1496,"$$":1497,"ically":1498,"center":1499,"ting":1500,"quad":1501,"RO":1502,"ĠĠĊ":1503,"ĠEx":1504,"Ġac":1505,"by":1506,"PE":1507,"field":1508,"Ġpr":1509,"Ġvalues":1510,"very":1511,"xi":1512,"Ġcurrent":1513,"Ġstruct":1514,"PI":1515,"He":1516,"Ġhis":1517,"']":1518,"Ġterm":1519,"umer":1520,"tab":1521,"As":1522,"Ġwo":1523,"olean":1524,"Ġ(!":1525,"Ġresults":1526,"air":1527,"ctions":1528,"anag":1529,"void":1530,"po":1531,"Ġfact":1532,"TE":1533,"ines":1534,"reg":1535,"Ġsim":1536,"Int":1537,"Ġabout":1538,"cript":1539,"ons":1540,"http":1541,"group":1542,"Ġstart":1543,"mit":1544,"Ġoff":1545,"Ġfollowing":1546,"Path":1547,"where":1548,"Ġmin":1549,"inst":1550,"map":1551,"eqnarray":1552,"public":1553,"Ġsc":1554,"xim":1555,"tribute":1556,"}}\\":1557,"':":1558,"Ġgroup":1559,"graph":1560,"Ġassert":1561,"Ġpol":1562,"An":1563,"Ġ});":1564,"Def":1565,"Ġhand":1566,"pack":1567,"ency":1568,"ential":1569,"Equ":1570,"ense":1571,"Ġobser":1572,"}[":1573,"Ġpartic":1574,"30":1575,"Text":1576,"Ġwould":1577,"cdot":1578,"lay":1579,"define":1580,")$.":1581,"Request":1582,"Ġ/>":1583,"Info":1584,"olds":1585,"ever":1586,"ists":1587,"ush":1588,"color":1589,"ride":1590,"Qu":1591,"orem":1592,"Ġobtain":1593,"17":1594,"Sh":1595,"TR":1596,"Met":1597,"ION":1598,"Ph":1599,"Ġsee":1600,"rap":1601,"cm":1602,"Ġconsider":1603,"cept":1604,"++":1605,"\"></":1606,"ormal":1607,"her":1608,"gor":1609,"ability":1610,"utton":1611,"';":1612,"result":1613,"uch":1614,"Ġthrow":1615,"ected":1616,"Ġest":1617,"System":1618,"call":1619,"50":1620,"duct":1621,"Ġ};":1622,"AC":1623,"psi":1624,"epsilon":1625,"With":1626,"asure":1627,"Map":1628,"``":1629,"Context":1630,"ively":1631,"see":1632,"que":1633,"ift":1634,"ression":1635,"Ġte":1636,"ational":1637,"Add":1638,"())":1639,"Ġnil":1640,"mer":1641,"lose":1642,"ĠUn":1643,"do":1644,"Code":1645,"ward":1646,"Item":1647,"sing":1648,"lex":1649,"ster":1650,"member":1651,"Field":1652,"Ġinv":1653,"ared":1654,"}_{\\":1655,"Config":1656,"Com":1657,"Ġkn":1658,"mega":1659,"Ġmap":1660,"nav":1661,"Ġtemp":1662,"LA":1663,"ily":1664,"This":1665,"Ġdoes":1666,"24":1667,"ffic":1668,"etwork":1669,"fra":1670,"////////":1671,"ĠĠĠĠĠĠĠĠĠĠĠĠĠĠĠĠĠĠĠĠĠĠĠĠĠĠĠ":1672,"Ġeffect":1673,"perties":1674,"api":1675,"Ġdistrib":1676,"IC":1677,"ov":1678,"Ġacc":1679,"Ġboth":1680,"ĠZ":1681,"Omega":1682,"ement":1683,"****************":1684,"Ġwhile":1685,"ĠčĊ":1686,"^*":1687,"Ġlow":1688,"Ġafter":1689,"Ġdescri":1690,"Ġlong":1691,"Ġprovide":1692,"Ġpath":1693,"Ġanal":1694,"Ġdefault":1695,"Ġrequest":1696,"Gamma":1697,"max":1698,"sim":1699,"ern":1700,"tom":1701,"arge":1702,"object":1703,"wide":1704,"\"\"":1705,"ank":1706,"Ġwell":1707,"input":1708,"user":1709,"sponse":1710,"Ġ__":1711,"move":1712,"Ġyour":1713,"ling":1714,"ĠFig":1715,"Of":1716,"ars":1717,"Ġinput":1718,"ron":1719,"Size":1720,"Ġindex":1721,"Ġlocal":1722,"sqrt":1723,"inition":1724,"Ġneed":1725,"Ġhow":1726,")$,":1727,"point":1728,"Ġright":1729,"rid":1730,"Ġimport":1731,"ful":1732,"valid":1733,"ternal":1734,"default":1735,"fin":1736,"UR":1737,"Ġmult":1738,"Ġcondition":1739,"Service":1740,"asses":1741,"Ġmost":1742,"sk":1743,"Ġbound":1744,"'t":1745,"Ġfind":1746,"true":1747,"Ġed":1748,"On":1749,"ports":1750,"Hand":1751,"Ġmod":1752,"Ġoptions":1753,"ower":1754,"att":1755,"ĠGet":1756,"temp":1757,"Bo":1758,"non":1759,"ttp":1760,"Ġtarget":1761,"ral":1762,"lag":1763,"rough":1764,"create":1765,"21":1766,"Al":1767,"energy":1768,"Ġopt":1769,"Ġcode":1770,"caption":1771,"ished":1772,"ĠâĢľ":1773,"textbf":1774,"search":1775,"subsection":1776,"eturn":1777,"af":1778,"Over":1779,"Ġread":1780,"Val":1781,"Form":1782,"essage":1783,"word":1784,"ump":1785,"Ġthem":1786,"ference":1787,"uto":1788,"sup":1789,"ync":1790,"Ġcheck":1791,"!--":1792,"config":1793,"Ġinstance":1794,"Ġ${\\":1795,"with":1796,"bm":1797,"uilder":1798,"cope":1799,"Ġtext":1800,"}=":1801,"Ġ,":1802,"lication":1803,"less":1804,"MA":1805,"LO":1806,"[]":1807,"pd":1808,"Ġsur":1809,"^{(":1810,"Ġspace":1811,"apache":1812,"=\"../../":1813,"22":1814,"ogle":1815,"ĠAs":1816,"from":1817,"gin":1818,"199":1819,"model":1820,"33":1821,"ero":1822,"vare":1823,"oci":1824,"abled":1825,"Ġcorrespon":1826,"cord":1827,"func":1828,"pri":1829,"Ġsmall":1830,"Ġnow":1831,"pon":1832,"varepsilon":1833,"Ġpe":1834,"ane":1835,"assert":1836,"UT":1837,"med":1838,"totype":1839,"tainer":1840,"ision":1841,"osit":1842,"ism":1843,"Ġrepresent":1844,"Ġrun":1845,"Ġdirect":1846,"position":1847,"loat":1848,"000":1849,"Ġsing":1850,"other":1851,"Ġprocess":1852,"anager":1853,"Or":1854,"Ġ\\,":1855,"Ġtop":1856,"error":1857,"irc":1858,"Im":1859,"icon":1860,"ister":1861,"graphics":1862,"ification":1863,"Ġmeasure":1864,"}^{\\":1865,"style":1866,"lang":1867,"ality":1868,"ik":1869,"options":1870,"gg":1871,"Ġdefined":1872,".,":1873,"ĠAn":1874,"hod":1875,"Ġmust":1876,"state":1877,"ves":1878,"Result":1879,"Ġsecond":1880,"rangle":1881,"tric":1882,"ĠĠĠĠĊ":1883,"Ġsimp":1884,"ĉĉĉĉĉĉ":1885,"rightarrow":1886,"gorith":1887,"cho":1888,"start":1889,"Ġproblem":1890,"ough":1891,"Ġconfig":1892,"Not":1893,"Model":1894,"iter":1895,"Ġcontext":1896,"Ġsource":1897,"enu":1898,")=":1899,"utes":1900,"Ġuser":1901,"depend":1902,"Ġinteg":1903,"event":1904,"Ġbase":1905,"cul":1906,"mark":1907,"Ġtitle":1908,"ĉĠĠĠ":1909,"Ġlet":1910,"Ġhad":1911,"Ġfound":1912,"Ġrespect":1913,"exp":1914,"ilar":1915,"40":1916,"Ġstud":1917,"vious":1918,"Ġlike":1919,"lobal":1920,"ML":1921,"ants":1922,"annel":1923,"mod":1924,"ixed":1925,"Le":1926,"ren":1927,"ams":1928,"ĠTr":1929,"Ġdi":1930,"AD":1931,"Inst":1932,"uring":1933,"https":1934,"anc":1935,"Ġyear":1936,"ffset":1937,"oo":1938,"mis":1939,"Ġinformation":1940,"ynam":1941,"bl":1942,"version":1943,"Ġallow":1944,"Ġevery":1945,"itor":1946,"includegraphics":1947,"Des":1948,"core":1949,"ED":1950,"itu":1951,"FF":1952,"Ġ($":1953,"Query":1954,"ock":1955,"Ġdepend":1956,"Ġmass":1957,"defined":1958,"Ġcur":1959,"ross":1960,"block":1961,"ten":1962,"ustom":1963,"Ġsupport":1964,"ĠAl":1965,"Ġmake":1966,"Message":1967,"ĠDe":1968,"oper":1969,"mm":1970,"================":1971,"dt":1972,"Ġlast":1973,"ences":1974,"Ġsolution":1975,"Ġcl":1976,"Inter":1977,"Ġthrough":1978,"ures":1979,"varphi":1980,"nection":1981,"MP":1982,"bit":1983,"Ġwho":1984,"cause":1985,"IS":1986,"Ġpresent":1987,"=\"+":1988,"Ġtyp":1989,"''":1990,"Ġdisc":1991,"Ġsol":1992,"base":1993,"CH":1994,"Ġref":1995,"Ġident":1996,"select":1997,"~~":1998,"Ġenergy":1999,"ULL":2000,"uments":2001,"body":2002,"tail":2003,"Ġbel":2004,"tings":2005,"next":2006,"Out":2007,".~\\":2008,"IG":2009,"Ġcent":2010,"Ġca":2011,"='":2012,"ends":2013,"uf":2014,"imension":2015,"Ġbecause":2016,"method":2017,"prototype":2018,"Ġinitial":2019,"Is":2020,"Ġjust":2021,"Ġbreak":2022,"Ġcontin":2023,"--------------------------------":2024,"check":2025,"Ġcontent":2026,")(":2027,"vec":2028,"Group":2029,"ts":2030,"Ġleft":2031,"uble":2032,"web":2033,"title":2034,"cur":2035,"geq":2036,"bug":2037,"emph":2038,"mes":2039,"si":2040,"Property":2041,"Big":2042,"Ġdistribution":2043,"mult":2044,"wit":2045,"}).":2046,"md":2047,"Log":2048,"sl":2049,"Ġind":2050,"aces":2051,"Ġabove":2052,"ET":2053,"Ġfin":2054,"quot":2055,"ottom":2056,"chi":2057,"Ġblock":2058,"Up":2059,"Ġperform":2060,"ables":2061,"80":2062,"andom":2063,"ĠAr":2064,"ponse":2065,"ING":2066,"nder":2067,"From":2068,"ining":2069,"overline":2070,"roller":2071,"Ġmy":2072,"lp":2073,"Ġlimit":2074,"App":2075,"vari":2076,"ensure":2077,"Ġitem":2078,"Ġq":2079,"element":2080,"ases":2081,"Ġestim":2082,"Ġposs":2083,"Ġcreate":2084,"####":2085,"mpty":2086,"[\\":2087,"ĠHe":2088,"Ġparameters":2089,".}":2090,"Ġbefore":2091,"light":2092,"ape":2093,"lear":2094,"Ġexample":2095,"tal":2096,"Ġcould":2097,"AB":2098,"Ġnext":2099,"Ġsince":2100,"ources":2101,"acter":2102,"tes":2103,"Ġlog":2104,"au":2105,"23":2106,"ĠSet":2107,"uthor":2108,"ru":2109,"irt":2110,"Call":2111,"Ġincre":2112,"Ġher":2113,"Ġlarge":2114,"oken":2115,"atrix":2116,"ĠĠĠĠĠĠĠĠĠĠ":2117,"Ġjava":2118,"Reg":2119,"info":2120,"&\\":2121,"Ġhere":2122,"Ġexper":2123,"Ġ-->":2124,"proof":2125,"head":2126,"Ġposition":2127,"any":2128,"Ġlevel":2129,"Count":2130,"Ġbackground":2131,"New":2132,"Ġfeature":2133,"uted":2134,"ensity":2135,"ier":2136,"Ġgeneral":2137,"Ġreal":2138,"ators":2139,"){":2140,"UN":2141,"ken":2142,"Client":2143,"DO":2144,"false":2145,"Ġwidth":2146,"60":2147,"},\\":2148,"medi":2149,"Ġshe":2150,"ifier":2151,"Ġthree":2152,"duction":2153,"has":2154,"iled":2155,"side":2156,"Ġnetwork":2157,"Ġdec":2158,"doc":2159,"])":2160,"Arg":2161,"imes":2162,"Ġbool":2163,"Table":2164,"Ġ()":2165,"Ġdat":2166,"context":2167,")^":2168,"Trans":2169,"hline":2170,"ĉĊ":2171,"wn":2172,"ivity":2173,"idd":2174,"Dis":2175,"ymme":2176,"Ġquant":2177,"Manager":2178,"content":2179,"Ġden":2180,"ES":2181,"Ġversion":2182,"Ġrange":2183,"tected":2184,"ted":2185,"ansp":2186,"orld":2187,"Ġeven":2188,"option":2189,"Ġmodels":2190,"andard":2191,"ĠNew":2192,"current":2193,"tn":2194,"Ġwhat":2195,"Lambda":2196,"ysis":2197,"Ġsat":2198,"Ġselect":2199,"Ġvery":2200,"Input":2201,"Ġmain":2202,"Method":2203,"ason":2204,"az":2205,"AS":2206,"duced":2207,"Ġspect":2208,"rag":2209,"Ġorig":2210,"bolds":2211,"Color":2212,"aid":2213,"Response":2214,"langle":2215,"Ġsuper":2216,"Ġatt":2217,"Ġview":2218,"Ġoutput":2219,"ulation":2220,"boldsymbol":2221,"atter":2222,"((":2223,"Ġag":2224,"ds":2225,"Ġsrc":2226,"Ġcre":2227,"}}$":2228,"Ġbeing":2229,"](":2230,"frak":2231,"gorithm":2232,"idget":2233,"arn":2234,"owever":2235,"ĠâĢĵ":2236,"99":2237,"Ġlength":2238,"dio":2239,".\\":2240,"appa":2241,"image":2242,"ĠGL":2243,"ĠSystem":2244,"Ġshown":2245,"Ġvis":2246,"Ġrequire":2247,"Ġgra":2248,"ration":2249,"Ġet":2250,"ait":2251,"eps":2252,"lt":2253,"gt":2254,"ĠTo":2255,"ENT":2256,"man":2257,"ailable":2258,"Let":2259,"Phi":2260,"mbox":2261,"ident":2262,"Ġimage":2263,"kappa":2264,"Ġmon":2265,"using":2266,"Ġ``":2267,"Ġexist":2268,"Ġtak":2269,"module":2270,"ayer":2271,"term":2272,"ural":2273,"velop":2274,"bed":2275,"Exp":2276,"anel":2277,"ats":2278,"ari":2279,"Ġfollows":2280,"ename":2281,"Ġbl":2282,"GL":2283,"Ġaga":2284,"ior":2285,"Ġmany":2286,"}),":2287,"Token":2288,"button":2289,"xy":2290,"ldots":2291,"Fact":2292,"riter":2293,"Ġsection":2294,"Ġway":2295,"TH":2296,"User":2297,"Ġbased":2298,"ules":2299,"Ġ<<":2300,"static":2301,"End":2302,"leg":2303,"Ġmag":2304,"db":2305,"Ġmessage":2306,"Override":2307,"Ġcalcul":2308,"ithub":2309,"iver":2310,"package":2311,"attern":2312,"raint":2313,"({":2314,"irtual":2315,"Status":2316,"cap":2317,"All":2318,"Ġproperty":2319,"Ġtry":2320,"Stream":2321,"ness":2322,"ology":2323,"Options":2324,"jo":2325,"ee":2326,"Ġcolor":2327,"urther":2328,"icy":2329,"imal":2330,"EX":2331,"ination":2332,"query":2333,"Util":2334,"rop":2335,"Ġsum":2336,"aper":2337,"ender":2338,"0000":2339,">(":2340,"Ġfunctions":2341,"Ġvalid":2342,"If":2343,"duce":2344,"lick":2345,"Ġstd":2346,"Cell":2347,"orph":2348,"rict":2349,"ving":2350,"27":2351,"ique":2352,"umb":2353,"Ġav":2354,"45":2355,"Ġimplement":2356,"opt":2357,"isf":2358,"lim":2359,"Ġmode":2360,"css":2361,"Ġinclude":2362,"ather":2363,"www":2364,"mathfrak":2365,"height":2366,"nab":2367,"amples":2368,"argin":2369,"ople":2370,"lib":2371,"Ġlead":2372,"namespace":2373,"inary":2374,";&":2375,"Ġ+=":2376,"olume":2377,"quence":2378,"Sub":2379,"ually":2380,"github":2381,"Ġinclu":2382,"Ġ!==":2383,"Ġsingle":2384,"Ref":2385,"Ġaddition":2386,"OT":2387,">&":2388,"citep":2389,"ramework":2390,"hand":2391,"stru":2392,"cor":2393,"valu":2394,"ateg":2395,"ij":2396,"refer":2397,"IP":2398,"Ġmatrix":2399,"chn":2400,"IL":2401,"Ġexpected":2402,"null":2403,"Ġsimilar":2404,"gener":2405,"ived":2406,"Ġmatch":2407,"ĠSh":2408,"Ġaction":2409,"75":2410,"uage":2411,"ĠNULL":2412,"nabla":2413,"ware":2414,"lease":2415,"Ġterms":2416,"US":2417,"ited":2418,"mun":2419,"vices":2420,"sf":2421,"nonumber":2422,"tx":2423,"google":2424,"Ġbr":2425,"Builder":2426,"Ġcho":2427,"reat":2428,".$":2429,"Image":2430,"ches":2431,"textit":2432,"Ġresponse":2433,"java":2434,"Ġrest":2435,"ivers":2436,"arning":2437,"ival":2438,"Date":2439,"otimes":2440,"place":2441,"Ġder":2442,"Ġboolean":2443,"Ġclo":2444,"*/":2445,"Ġdocument":2446,"Ġtable":2447,"CE":2448,"AME":2449,"subset":2450,"ene":2451,"ns":2452,"Ġthose":2453,"Ġloc":2454,"dir":2455,"spec":2456,"ets":2457,"ĠAss":2458,"TD":2459,"Ġstyle":2460,"})$":2461,"scription":2462,"Ġmultip":2463,"28":2464,"vers":2465,"display":2466,"Ġopen":2467,"Ġknow":2468,"uss":2469,"Ġvert":2470,"01":2471,"Ġsche":2472,"iss":2473,"2020":2474,"ĠĠĠĠĠĠĠĠĠĠĠĠĠĠĠĠĠ":2475,"ĠComp":2476,"Instance":2477,"ĠĠĠĠĠĠĠĠĠĠĠĠĠĠĠĠĠĠĠĠĠĠĠĠĠĠĠĠĠĠĠ":2478,"Ġcalled":2479,"And":2480,"Ġstructure":2481,"=\"../../../../":2482,"ĠOn":2483,"/\\":2484,"request":2485,"Base":2486,"Ġparticular":2487,"YPE":2488,"NS":2489,"hav":2490,"ven":2491,"Imp":2492,"lat":2493,"ĉĠ":2494,"Parameter":2495,"ready":2496,"child":2497,"Null":2498,"Ġwithout":2499,"client":2500,"66":2501,"Ġchild":2502,"inc":2503,"push":2504,"otential":2505,"sw":2506,"iron":2507,"ĠRes":2508,"erson":2509,"Ġcallback":2510,"ĠThere":2511,"page":2512,"acy":2513,"bra":2514,"90":2515,"ek":2516,"ret":2517,"Ġpossible":2518,"init":2519,"tic":2520,"ric":2521,"\\%":2522,"Handler":2523,"way":2524,"args":2525,"Block":2526,"my":2527,"luster":2528,"Ġfil":2529,"icro":2530,"Sigma":2531,"day":2532,"Ġgraph":2533,"Ġassoci":2534,"Ġchang":2535,"flow":2536,"ĠThen":2537,"pose":2538,"Ġmodule":2539,"target":2540,"case":2541,"ither":2542,"Ġpoints":2543,"Ġscal":2544,"Ġelect":2545,"orage":2546,"Ġsaid":2547,"Function":2548,"draw":2549,"Ġwithin":2550,"sol":2551,"Ob":2552,"OO":2553,"Str":2554,"Ġsatisf":2555,"AA":2556,"Attribute":2557,"ead":2558,"android":2559,"small":2560,"\\[":2561,"returns":2562,"append":2563,"local":2564,"signed":2565,"Ġpres":2566,"Ġpass":2567,"loy":2568,"});":2569,"ci":2570,"Ad":2571,"}}{":2572,"lin":2573,"Source":2574,"Buffer":2575,"adding":2576,"Ġdue":2577,"Ġchange":2578,"\\|":2579,"Default":2580,"itude":2581,"ocus":2582,"Ġproperties":2583,"35":2584,"Ġprevious":2585,"foot":2586,"iod":2587,"ĠTest":2588,"ives":2589,"Equal":2590,"Component":2591,"Ġhttp":2592,"26":2593,"Ġaut":2594,"Ġmethods":2595,";</":2596,"Line":2597,"parent":2598,"tag":2599,"Resource":2600,"print":2601,"ĠReturn":2602,"Ġproject":2603,"Gener":2604,"rows":2605,"Content":2606,"Style":2607,"ances":2608,"Ġdown":2609,"Ġcorresponding":2610,"verage":2611,"Ġtotal":2612,"Ġcolumn":2613,"ptr":2614,"icense":2615,"Ġlink":2616,"ĠĠĠĠĠĠĠĠĠĠĠĠĠĠ":2617,"Select":2618,"wise":2619,"down":2620,"active":2621,"tributes":2622,"Ġlook":2623,"Ġcount":2624,"onents":2625,"adata":2626,"istic":2627,"ensuremath":2628,"abase":2629,"Ġmark":2630,"Ġassume":2631,"amily":2632,"DI":2633,"pc":2634,"Ġlabel":2635,"Ġlinear":2636,"Ġconstant":2637,"nect":2638,"rl":2639,"ĠObject":2640,"Ð°":2641,"png":2642,"Ġocc":2643,"Ext":2644,"Ġurl":2645,"ĠCol":2646,"Ġcharacter":2647,"verse":2648,"=\"#":2649,"Sp":2650,"34":2651,"rel":2652,"Ġpower":2653,"Ġdensity":2654,"lit":2655,"Child":2656,"Ġbuild":2657,"Ġborder":2658,"Ġdefine":2659,"05":2660,"expect":2661,"obj":2662,"gram":2663,"Ġparent":2664,"lugin":2665,"Filter":2666,"ĠCom":2667,"Ġshows":2668,"oot":2669,"opy":2670,"Ġtask":2671,"=\"../":2672,"Ġcontrol":2673,"HT":2674,"dependent":2675,"witch":2676,"lies":2677,"ensor":2678,"Do":2679,"Ġobtained":2680,"viron":2681,"unter":2682,"Ed":2683,"SP":2684,"ayout":2685,"ii":2686,"Oper":2687,"Ġ((":2688,"reen":2689,"char":2690,"Ġequation":2691,"Version":2692,"soft":2693,"OP":2694,"cit":2695,"resh":2696,"circ":2697,"Ġexperim":2698,"ately":2699,"Ð¾":2700,"\\!":2701,"widetilde":2702,"Ġduring":2703,"ove":2704,"Be":2705,"pol":2706,"endif":2707,"older":2708,"Ġplay":2709,"}-":2710,"Ġwrit":2711,"ibility":2712,"fficient":2713,"{-":2714,"izer":2715,"29":2716,"Ġindic":2717,"Ġrequired":2718,"Ġpeople":2719,"Ġelements":2720,"Ġnormal":2721,"Bar":2722,"prime":2723,"Start":2724,"Act":2725,"Ass":2726,"CK":2727,"property":2728,"semb":2729,"Ġobserv":2730,"write":2731,"ways":2732,"ĠHowever":2733,"undle":2734,"dict":2735,"php":2736,"prop":2737,"]);":2738,"][":2739,"btn":2740,"Fig":2741,"mission":2742,"Ġdevelop":2743,"len":2744,"last":2745,"Ġmean":2746,"Ġmaxim":2747,"struction":2748,"gn":2749,"ember":2750,"IM":2751,"cast":2752,"Ġintern":2753,"json":2754,"Ġmuch":2755,"Ġpost":2756,"2017":2757,"filter":2758,"cer":2759,"Ġvector":2760,"Ġwant":2761,"ategory":2762,"UE":2763,"Ġflu":2764,"header":2765,"Ġappe":2766,"attr":2767,"Ġ\"\"\"":2768,"skip":2769,"ATE":2770,"lied":2771,"server":2772,"igger":2773,")</":2774,"licit":2775,"Ġpotential":2776,"Ġpair":2777,"clus":2778,"sor":2779,"ONT":2780,"ĠLet":2781,"HE":2782,"FI":2783,"centering":2784,"hes":2785,"src":2786,"Ġpop":2787,"OS":2788,"rary":2789,"Equals":2790,"Ġtake":2791,";\\":2792,"Ġstates":2793,"Ġavailable":2794,"55":2795,"ram":2796,"fe":2797,"Ġregion":2798,"hether":2799,"2019":2800,"Ġcomput":2801,"scale":2802,"thing":2803,"Number":2804,"ĠList":2805,"Ġrandom":2806,"vi":2807,"sert":2808,"Ġstill":2809,"\\]":2810,"Row":2811,"Ġ&=":2812,"remove":2813,"Ġ->":2814,"tabular":2815,"Ġ{@":2816,"AP":2817,"Factory":2818,"++)":2819,"first":2820,"Ġgu":2821,"Window":2822,"2018":2823,"Ġmax":2824,"ots":2825,"efore":2826,"ĠSer":2827,"can":2828,"su":2829,"lags":2830,"Collection":2831,"Action":2832,"Ġrece":2833,"run":2834,"Ġconstruct":2835,"find":2836,"Ġstudy":2837,"Ġconf":2838,"Ġtheory":2839,"Ġcell":2840,"Spec":2841,"Ġheight":2842,"number":2843,"ordin":2844,"tocol":2845,"ison":2846,"Ġdisplay":2847,"pos":2848,"column":2849,"lish":2850,"cell":2851,"Ġphase":2852,"ĠBy":2853,"ĠEq":2854,"sg":2855,"eger":2856,"Ġintro":2857,"}+":2858,"Ġapproxim":2859,"ERT":2860,"Ġandroid":2861,"vider":2862,"uck":2863,"irection":2864,"Point":2865,"Ġho":2866,"70":2867,"bottom":2868,"come":2869,"Ġpaper":2870,"ched":2871,"Ġfull":2872,"Ġclear":2873,"Ġexec":2874,"PRO":2875,"Ġspecified":2876,"Ðµ":2877,"open":2878,"ols":2879,"Ġstrong":2880,"kn":2881,"Read":2882,"Ġbas":2883,"Ġlarg":2884,"Ġoperator":2885,"Ġfields":2886,")]":2887,"Length":2888,"Create":2889,"No":2890,"xml":2891,"Ġwindow":2892,"ositive":2893,"Ġanalysis":2894,"refix":2895,"gress":2896,"[\"":2897,"Ġcomplex":2898,"AG":2899,"Ġam":2900,"host":2901,"ĉĠĠĠĠĠĠĠ":2902,"Task":2903,"Pr":2904,"Ġtri":2905,"Const":2906,"Po":2907,"ĠIN":2908,"sm":2909,"<!--":2910,"alk":2911,"Ġcomb":2912,"Pre":2913,"Ġfa":2914,"bs":2915,"////////////////":2916,"INT":2917,"Hel":2918,"erature":2919,"\\{":2920,"Ġfilter":2921,"Ġscale":2922,"Tag":2923,"EE":2924,"ĠBo":2925,"Ġzero":2926,"vis":2927,"private":2928,"2016":2929,"Ġdetail":2930,"ĠÐ":2931,"ĠĠĠĠĠĠĠĠĊ":2932,"cy":2933,"Ġstandard":2934,"ialog":2935,"Ġhelp":2936,"Ġobj":2937,"alth":2938,"Ġupdate":2939,"Ġ[]":2940,"(_":2941,"ĠAdd":2942,"Ġinterest":2943,"Part":2944,"update":2945,"48":2946,"Ġalready":2947,"Ġsk":2948,"Ġaccess":2949,"Ġexists":2950,"Ġdynam":2951,"Ġquery":2952,"39":2953,"Ġside":2954,"ensions":2955,"Ġcar":2956,"land":2957,"Ġ]":2958,"zeta":2959,"Ġcontinu":2960,"used":2961,"Ġoriginal":2962,"rowser":2963,"Ġrate":2964,"Ġgood":2965,"Ġmade":2966,"command":2967,"Ġclose":2968,"untime":2969,"Ġrespectively":2970,"EL":2971,"uint":2972,"strong":2973,"AM":2974,"SC":2975,"ife":2976,"mt":2977,"Ġclient":2978,"Ġthrows":2979,"build":2980,"status":2981,"Ġproduct":2982,"36":2983,"Ġmak":2984,")=\\":2985,"posed":2986,"Sup":2987,"2015":2988,"ending":2989,"ges":2990,"gest":2991,"ERR":2992,"Format":2993,"(&":2994,"Ġcomponent":2995,"Ġiter":2996,"Ġword":2997,"split":2998,"True":2999,"$)":3000,"Ġapproach":3001,"Ġyears":3002,"Cache":3003,"Ġtechn":3004,"}=\\":3005,"Ġsuccess":3006,"Command":3007,"imary":3008,"Ġang":3009,"require":3010,"Ġeither":3011,"lip":3012,"Ġfree":3013,"Check":3014,"ssion":3015,"Ġlen":3016,"parameter":3017,"Web":3018,"Ġlower":3019,"Ġalgorithm":3020,"ah":3021,"Ġdon":3022,"Ġcoup":3023,"Ġwrite":3024,"Ġpage":3025,"Ġaround":3026,"ported":3027,"font":3028,"uture":3029,"je":3030,"ideo":3031,"Ġservice":3032,"./":3033,"ĠApp":3034,"Ġdid":3035,"Ġproof":3036,"ental":3037,"Ġenco":3038,"Ġsymme":3039,"apping":3040,"vironment":3041,"emma":3042,"urity":3043,"{}":3044,"Ġuint":3045,"{(":3046,"Label":3047,"description":3048,"_.":3049,"Ġassociated":3050,"Ġred":3051,"Ġoption":3052,"parse":3053,"Width":3054,")}\\":3055,"Ġbest":3056,"Listener":3057,"Link":3058,"ially":3059,"Ġfour":3060,"Ġradi":3061,"Ġpack":3062,"container":3063,"ict":3064,"ypes":3065,"ĠTheorem":3066,"orth":3067,"SON":3068,"ond":3069,"which":3070,"ention":3071,"ĠAnd":3072,"Psi":3073,"Ġdiag":3074,".\"":3075,")^{":3076,"Ġke":3077,"num":3078,"CC":3079,"URL":3080,"Ġconditions":3081,"Ġown":3082,"Ġprotected":3083,":\"":3084,"38":3085,"Ġdefinition":3086,"buf":3087,"istory":3088,"Nav":3089,"serv":3090,"Ġextends":3091,"heet":3092,"ony":3093,"params":3094,"Ġsequence":3095,"omorph":3096,"Ġpri":3097,"Ġeas":3098,"Ġsimple":3099,"Ġperformance":3100,"2014":3101,"44":3102,"Ġbehav":3103,"alax":3104,"post":3105,"Ġhim":3106,"Mode":3107,"Ġknown":3108,"\"]":3109,"offset":3110,"Ġge":3111,"change":3112,"istent":3113,"ording":3114,"format":3115,"Ġlang":3116,"lying":3117,"Valid":3118,"Ġaddress":3119,"Ġdeterm":3120,"Output":3121,"}]":3122,"Ġalong":3123,"Ġbelow":3124,"thm":3125,"TO":3126,"ABLE":3127,"Page":3128,"dat":3129,"level":3130,"TYPE":3131,"cdots":3132,"iff":3133,"Ġcases":3134,"Ġarguments":3135,"Ġfinite":3136,"book":3137,"mat":3138,"Pol":3139,"jav":3140,"meta":3141,"long":3142,"Ġgame":3143,"Ġweight":3144,"unded":3145,"alle":3146,"operator":3147,"dl":3148,"lap":3149,"{{\\":3150,"Ġcopy":3151,"31":3152,"FA":3153,"Ġcommand":3154,"oto":3155,".~":3156,"ĠDef":3157,"ĠSection":3158,"}_\\":3159,"sole":3160,"Ġcontrib":3161,"${":3162,"Ġop":3163,"Ġemp":3164,">>":3165,"Dec":3166,"Ġlines":3167,"ocation":3168,"ĠĠĠĠĠĠĠĠĠĠĠĠĊ":3169,"Ġimportant":3170,"37":3171,"arm":3172,"Ġgr":3173,"yles":3174,"Ã©":3175,"}|":3176,"mount":3177,"Ġcontains":3178,"VER":3179,"Controller":3180,"menu":3181,"88":3182,"Ġincluding":3183,"ession":3184,"Ġleast":3185,"stream":3186,"unk":3187,"gebra":3188,"mail":3189,"ored":3190,"gl":3191,"Ġundefined":3192,"Ġargs":3193,"Ġdiff":3194,"Ġfail":3195,"finished":3196,"^+":3197,"umpt":3198,"Ġsignific":3199,"II":3200,"cos":3201,"urb":3202,"Ġresource":3203,"MO":3204,"UI":3205,"Ġsearch":3206,"process":3207,"stract":3208,"ĠYou":3209,"exports":3210,"Ġfactor":3211,"appro":3212,"Ġwhether":3213,"Ġtag":3214,"Ġanother":3215,"(-":3216,"ĠEX":3217,"Ġminim":3218,"Button":3219,"Ġaccount":3220,"Container":3221,"ĠNone":3222,"Fe":3223,"indent":3224,"ĠSo":3225,"Ġless":3226,"equiv":3227,"Ġcompar":3228,"Ġglobal":3229,"ql":3230,"Ġmedi":3231,"uk":3232,"Ġear":3233,"Ġhy":3234,"ĠPar":3235,"idden":3236,"Ġsever":3237,"Ġsystems":3238,"imensional":3239,"Ġbro":3240,"}/":3241,"Column":3242,"unit":3243,"Ġfixed":3244,"ĉĉĉĉĉĉĉĉ":3245,"Ġneg":3246,"\"),":3247,"Ġsepar":3248,"aster":3249,"})\\":3250,"Ġtransition":3251,"response":3252,"Ġes":3253,"Ġchannel":3254,"Ġtemperature":3255,"}^\\":3256,"Ġphys":3257,"ended":3258,"}\\,":3259,"olve":3260,"now":3261,"CON":3262,"04":3263,"lev":3264,"Ġcomplet":3265,"Ġhigher":3266,"kit":3267,"example":3268,"Case":3269,"TP":3270,"ĠInt":3271,"Ġframe":3272,"Frame":3273,"ĠEn":3274,"Return":3275,"LASS":3276,"Update":3277,"\").":3278,"Ġport":3279,"Ġevalu":3280,"close":3281,"asing":3282,"Ġlight":3283,"Ġhead":3284,"Ġinternal":3285,"expected":3286,"known":3287,"ring":3288,"CD":3289,"ev":3290,"Ġimpro":3291,"ung":3292,"widehat":3293,"else":3294,"Ġret":3295,"std":3296,"Json":3297,"02":3298,"SI":3299,"Ġfurther":3300,"Ġinterface":3301,"Ġevents":3302,"&=":3303,"ĠAPI":3304,"apter":3305,"Ġide":3306,"ĠLo":3307,"Ġpositive":3308,"Ġobjects":3309,"Ġoffset":3310,"qquad":3311,"actions":3312,"Ġsets":3313,",-":3314,"dist":3315,"ĠReg":3316,"BU":3317,"ĠAd":3318,"bb":3319,"amil":3320,"oriz":3321,"Sche":3322,"img":3323,"ĠAll":3324,"Vert":3325,"********************************":3326,"normal":3327,"clo":3328,"project":3329,"ĠCO":3330,"Dep":3331,"Ġold":3332,"pdf":3333,"REF":3334,"cs":3335,"CL":3336,"match":3337,"empty":3338,"off":3339,"NO":3340,"Ġtimes":3341,"ories":3342,"lemma":3343,"Ġvia":3344,"Ġcommun":3345,"Ġshort":3346,"idual":3347,"Ġprovided":3348,"Box":3349,"anch":3350,"MM":3351,"Ġalways":3352,"Ġdiv":3353,"iler":3354,"Offset":3355,"netic":3356,"Ġanaly":3357,"Ġstep":3358,"').":3359,"textwidth":3360,"alf":3361,"ĠArray":3362,"Ġserver":3363,"Ġformat":3364,"Ġmeans":3365,"ital":3366,"ĠJo":3367,"([":3368,"Url":3369,"lice":3370,"âĢľ":3371,"Ð¸":3372,"ires":3373,"Ġver":3374,"cache":3375,"ale":3376,"07":3377,"Ġmoment":3378,"bind":3379,"acity":3380,"Ġnear":3381,"Ġmargin":3382,"atio":3383,"tact":3384,"08":3385,"Ġinf":3386,"Ġrow":3387,"rapper":3388,"output":3389,"orn":3390,"unfinished":3391,"Ġexpl":3392,"First":3393,"float":3394,"Ġperiod":3395,"Ġspecific":3396,"entry":3397,"DB":3398,"gen":3399,"Ġcap":3400,"Ġequival":3401,"Ġsample":3402,"Ġspe":3403,"rum":3404,"cat":3405,"template":3406,"Ġworld":3407,"ĠPh":3408,"Ġmem":3409,"Ġauto":3410,"Ġreturns":3411,"window":3412,"Ġmot":3413,"Rem":3414,"stack":3415,"Interface":3416,"Run":3417,"Ġfeatures":3418,"ĠLicense":3419,"rep":3420,"ĠAt":3421,"Ġcatch":3422,"///":3423,"aving":3424,"show":3425,"Ġload":3426,"uc":3427,"Ġ\\{":3428,"ught":3429,"ĠFigure":3430,"Mod":3431,"ĠLe":3432,"Sec":3433,"meric":3434,"ctx":3435,"Ġroot":3436,"ood":3437,"06":3438,"Ġobserved":3439,"rypt":3440,"gr":3441,"note":3442,"({\\":3443,"ĠReturns":3444,"2013":3445,"values":3446,"ÑĤ":3447,"frame":3448,"navbar":3449,"Sto":3450,"fill":3451,"Callback":3452,"Ġequal":3453,"95":3454,"Ġfrequ":3455,"Temp":3456,"scope":3457,"ĠDo":3458,"sin":3459,"}^{(":3460,"plac":3461,"Server":3462,"Ġconstraint":3463,"service":3464,"MS":3465,"Ġtransp":3466,"clear":3467,"uggest":3468,"Ġdep":3469,"Ġcollection":3470,"Layout":3471,".âĢĿ":3472,"mid":3473,"Range":3474,"Sc":3475,"Ġtransform":3476,"notation":3477,"imation":3478,"Ġrecord":3479,"tra":3480,"Ġprobability":3481,"common":3482,"Ġdone":3483,"root":3484,"instance":3485,"Ġnumer":3486,"Next":3487,"Ġstatus":3488,"aset":3489,"Target":3490,"sche":3491,"Ġunit":3492,"izing":3493,"IO":3494,"Ġplace":3495,"ecess":3496,"Ġsignificant":3497,"variant":3498,"Types":3499,"67":3500,"Ġthus":3501,"Ġgenerated":3502,"Ġdiscus":3503,"jor":3504,"ĠThese":3505,"dro":3506,"Height":3507,"ln":3508,"Rep":3509,"aut":3510,"Ġturn":3511,"ressed":3512,"ĠWh":3513,"arr":3514,"ixel":3515,"ird":3516,"iform":3517,"ula":3518,"Ġquantum":3519,"Ġtypes":3520,"ped":3521,"aded":3522,"SU":3523,"Ġgalax":3524,"Ġcache":3525,"izes":3526,"Ġflow":3527,"igation":3528,"'),":3529,"oll":3530,"Ġrefer":3531,"Ġexact":3532,"Ġstream":3533,"ĠID":3534,"hip":3535,"}:":3536,"Ġperm":3537,"API":3538,"Ġhost":3539,"chan":3540,"eloc":3541,"Ġvirtual":3542,"Ġfit":3543,"Ġseries":3544,"should":3545,"duc":3546,"nected":3547,"ĠHT":3548,"based":3549,"cup":3550,"exec":3551,"<?":3552,"NAME":3553,"only":3554,"radi":3555,"Ġcannot":3556,"Ġtraining":3557,"igen":3558,"Ġ$(\\":3559,"Ġcross":3560,"Ġdistance":3561,"65":3562,"âĢĵ":3563,"Ġdouble":3564,"Ġcluster":3565,"ai":3566,"river":3567,"Ġinvest":3568,"Provider":3569,"Char":3570,"that":3571,"Max":3572,"ium":3573,"laim":3574,"Ġfont":3575,"ients":3576,"ety":3577,"Ġlib":3578,"}\\\\":3579,"FONT":3580,"Ġdeg":3581,"linear":3582,"198":3583,"layout":3584,"rs":3585,"ymp":3586,"Ġcustom":3587,"ĠType":3588,"Per":3589,"mut":3590,"Cl":3591,"df":3592,"PO":3593,"afe":3594,"Ġbetter":3595,"dev":3596,"Ġfew":3597,"Last":3598,"ological":3599,"eV":3600,",\"":3601,"Ġoperation":3602,"ĉĠĠĠĠĠĠĠĠĠĠĠ":3603,"cription":3604,"Ġagainst":3605,"onal":3606,"03":3607,"pes":3608,"&&":3609,"icle":3610,"ĠOr":3611,"Ġbuffer":3612,"Write":3613,"Ð½":3614,"Ġnone":3615,"Ġ>=":3616,"Pl":3617,"Tree":3618,"iversity":3619,"lished":3620,"}}(":3621,"Ġspin":3622,"ometry":3623,"tree":3624,"sets":3625,"Ġinstead":3626,"omin":3627,"{{":3628,"tect":3629,"ĠNo":3630,"proto":3631,"?:":3632,"Header":3633,"Ġdel":3634,"Ġbody":3635,"ites":3636,"Entry":3637,"formed":3638,"Di":3639,"ĠLemma":3640,"PC":3641,"hspace":3642,"There":3643,"stro":3644,"tle":3645,"Ġ&\\":3646,"ĉĉĉĉĉĉĉ":3647,"Ġrot":3648,"2012":3649,"Vis":3650,"citet":3651,"Ġ**":3652,"images":3653,"overn":3654,"ascript":3655,"edge":3656,"imple":3657,"Ġseveral":3658,"Ġsay":3659,"buffer":3660,"sembly":3661,"enumer":3662,"Ġrecent":3663,"Ġremove":3664,"Ġquest":3665,"QL":3666,"Configuration":3667,"lug":3668,"Top":3669,"Module":3670,"ĠNote":3671,"Position":3672,"77":3673,"tax":3674,"Ġ~":3675,"Ġlaw":3676,"Ġmight":3677,"RL":3678,"bool":3679,"Ġjo":3680,"ably":3681,"Ġ{}":3682,"ĠSince":3683,"reference":3684,"FT":3685,"stand":3686,"raction":3687,"Ġcy":3688,"rem":3689,"Ġsurface":3690,"'$":3691,"|^":3692,"Ġrepresentation":3693,"fa":3694,"Ġboundary":3695,"Ġproposed":3696,"Ġconsidered":3697,"alt":3698,"break":3699,"Ġreference":3700,"foo":3701,"Ġpur":3702,"Ġss":3703,"Ġrelative":3704,"09":3705,"Back":3706,"udio":3707,"Ġindependent":3708,"Ġprint":3709,"eded":3710,"utils":3711,"mode":3712,"anged":3713,"Ġvariable":3714,"icrosoft":3715,"Ġoptim":3716,"Ġmultiple":3717,"Ġfore":3718,"ication":3719,"ĠAssert":3720,"second":3721,"]$":3722,"ience":3723,"Ġadditional":3724,"SD":3725,"Ġconfiguration":3726,"Ġaverage":3727,"ouse":3728,")-":3729,"star":3730,"ctor":3731,"ters":3732,"jection":3733,"Ġargument":3734,"Ġequations":3735,"Ġ...":3736,"ĠWhen":3737,"2011":3738,"Ġcenter":3739,"Address":3740,"Ġvariables":3741,":(":3742,"Ġdescribed":3743,"Ġgive":3744,"system":3745,"like":3746,"atist":3747,"document":3748,"Hash":3749,"ograph":3750,"Min":3751,"Ġiss":3752,"xis":3753,"```":3754,"iven":3755,"Access":3756,"ftware":3757,"xspace":3758,"Ġprop":3759,"scr":3760,"Ġtrack":3761,"}}{\\":3762,"ands":3763,"Ġexpression":3764,"ntity":3765,"Ġedge":3766,"ux":3767,"Ġsem":3768,"ĠĠĠĠĠĠĠĠĠĠĠĠĠĠĠĠĠĠĠĠĠĠĠĠĠĠĠĠĠĠĠĠĠĠĠ":3769,"Wh":3770,"ulations":3771,"icol":3772,"ifact":3773,"Ġ<!--":3774,"iness":3775,"hn":3776,"Ġapplication":3777,"Ġreco":3778,"Ġcontribution":3779,"Unit":3780,"}+\\":3781,"Ġspecial":3782,"SO":3783,"erial":3784,"Ġnodes":3785,"()->":3786,"Ġcommon":3787,"Ġtoo":3788,"Ġveloc":3789,"gether":3790,"Ġrelated":3791,"ĠFile":3792,"bound":3793,"ĠIs":3794,"ND":3795,"mathsf":3796,"abil":3797,"ULT":3798,"ĠErr":3799,"Ġdate":3800,"oke":3801,"Ġseen":3802,"gment":3803,"Widget":3804,"Ġapi":3805,"\\\"":3806,"outh":3807,"Ġcorrect":3808,"shift":3809,"Ġmanag":3810,"2010":3811,"ls":3812,"49":3813,"most":3814,"ĉĠĠĠĠĠ":3815,"Ġagain":3816,"Ġ-\\":3817,"noindent":3818,"Ġput":3819,"Ġtree":3820,"Utils":3821,"chie":3822,"Match":3823,"SA":3824,"inner":3825,"plit":3826,"PECT":3827,"ĠTable":3828,"Dat":3829,"Document":3830,"ART":3831,"Ġmis":3832,"Ġrole":3833,"background":3834,"Ġla":3835,"Ġphot":3836,"Ġrelation":3837,"neq":3838,"Ġdenote":3839,"ĠSup":3840,"ernel":3841,"romise":3842,"Ġcoordin":3843,"ado":3844,"Ġrender":3845,"Ġreason":3846,"Ġ{};":3847,"Ġnecess":3848,"ĠNot":3849,"Ġbit":3850,"Ġaccur":3851,"ĠGener":3852,"rule":3853,"ĠOF":3854,"chool":3855,"Ġstar":3856,"era":3857,"Open":3858,"tains":3859,"cr":3860,"ĠMore":3861,"Ġlearning":3862,"Ġchanges":3863,"mar":3864,"ategy":3865,"Ġdesign":3866,"termin":3867,"patch":3868,"Ġmer":3869,"Ġconnection":3870,"Ġnote":3871,"Ġdetails":3872,"ertain":3873,"bin":3874,"COL":3875,"PP":3876,"ĠCreate":3877,"Ġempty":3878,"ĠCheck":3879,"istry":3880,"}-\\":3881,"Ġrelations":3882,"Ġlarger":3883,"Ġcor":3884,"47":3885,"Ġsupp":3886,"Ġmaximum":3887,"Params":3888,"author":3889,"Ġfloat":3890,"ĠThus":3891,"ba":3892,"cd":3893,"ging":3894,"68":3895,"Ġcomponents":3896,"VE":3897,"$(":3898,"Ġ;":3899,"Ġtemplate":3900,"Net":3901,"Option":3902,"wards":3903,"Level":3904,"Pack":3905,"ĠBut":3906,"ze":3907,"\\,\\":3908,"KE":3909,"resource":3910,"Expression":3911,"STR":3912,"Ġparams":3913,"Ġemb":3914,"VAL":3915,"ĠData":3916,"Ġfiles":3917,"untry":3918,"dep":3919,"javascript":3920,"ĠAmeric":3921,"ks":3922,"ĠFe":3923,"dient":3924,"ino":3925,"assword":3926,"Ġmove":3927,"Ġnat":3928,"Empty":3929,"Ġbi":3930,"dag":3931,"2021":3932,"tml":3933,"omial":3934,"structor":3935,"SH":3936,"Ptr":3937,"Ġcour":3938,"final":3939,"more":3940,"Ġremo":3941,"Control":3942,"Ġarea":3943,"Ġperson":3944,"fl":3945,"umbers":3946,"astic":3947,")}{":3948,"encies":3949,"copy":3950,"Ġfl":3951,"ÑĢ":3952,"Bundle":3953,"Ġcr":3954,"Ġimages":3955,"Ġxml":3956,"Ġsuggest":3957,"ĠCLASS":3958,"Ġhandle":3959,"One":3960,"Ġlater":3961,"Ġcoe":3962,"DF":3963,"ctionary":3964,"uary":3965,"ĠSp":3966,"Ġcost":3967,"Ġcomplete":3968,"itive":3969,"fs":3970,"EQ":3971,"pture":3972,"Ġinit":3973,"Ġblack":3974,"Ġfamily":3975,"Ġgives":3976,"Ident":3977,"layer":3978,"olt":3979,"abs":3980,"ied":3981,"enumerate":3982,"tex":3983,"task":3984,"ilt":3985,"byte":3986,"Ġcreated":3987,"Search":3988,"%%":3989,"\".":3990,"operatorname":3991,"rest":3992,"Thread":3993,"itemize":3994,"ĠĠĠĠĠĠĠĠĠĠĠĠĠĠĠĠĠĠĠĠĠ":3995,"Ġentry":3996,"aint":3997,"ries":3998,"urs":3999,"Ġhard":4000,"pher":4001,"Ġlocation":4002,"Ġachie":4003,"debug":4004,"mem":4005,"aly":4006,"CODE":4007,"ĠMet":4008,"42":4009,"ĠSee":4010,"vas":4011,"yntax":4012,"Ġthink":4013,"Ġdoc":4014,"Ġattribute":4015,"ently":4016,"sv":4017,"vspace":4018,"================================":4019,"ATION":4020,"]\\":4021,"Ġconver":4022,"omic":4023,"Ġweak":4024,"Dir":4025,"though":4026,"theorem":4027,"transform":4028,"Ġ*)":4029,"Ġloss":4030,"ĠRo":4031,"Ġpattern":4032,"olved":4033,"typeof":4034,"\"))":4035,"ged":4036,"Mem":4037,"Local":4038,"Pi":4039,"ĠHREF":4040,"Ġyield":4041,"join":4042,"Ġregular":4043,"TI":4044,"Serial":4045,")}$":4046,"hash":4047,"Ġday":4048,":</":4049,"tadata":4050,"Ġapplic":4051,"$}":4052,"Obj":4053,"comes":4054,"Ġimplies":4055,"LI":4056,"Ġunique":4057,"Http":4058,"board":4059,"CR":4060,"Ġdomain":4061,"ORT":4062,"sequ":4063,"files":4064,"ĠClass":4065,"incip":4066,"Ġhome":4067,"85":4068,"ircle":4069,"ĠInd":4070,"Ġapply":4071,"Ġlayer":4072,"dimensional":4073,"Ġdenot":4074,"Direct":4075,"Right":4076,"Ġins":4077,"Connection":4078,"ZE":4079,"tection":4080,"Ġtoken":4081,"ritical":4082,"Ġhapp":4083,"Ġdescription":4084,"Left":4085,"ĠThey":4086,"Ġsetting":4087,"edia":4088,"Ġprogram":4089,"Process":4090,"Ġadded":4091,"Ġuntil":4092,"ause":4093,"umption":4094,"Iter":4095,"ĠGo":4096,"Ġselected":4097,"omen":4098,"nce":4099,"Ġsolutions":4100,"Ġerrors":4101,"Ġtre":4102,"Ġlik":4103,"Exec":4104,"Ġdirection":4105,"Ð¾Ð":4106,"Ac":4107,"range":4108,"Ġpadding":4109,"pop":4110,"idence":4111,"ĠCan":4112,"Ġupd":4113,"ttps":4114,"ĠEXPECT":4115,"ĠDis":4116,"Copy":4117,"mooth":4118,"Core":4119,"cel":4120,"pped":4121,"Ġcontainer":4122,"acing":4123,"Ġprec":4124,"ina":4125,"UM":4126,"uid":4127,"etch":4128,"equal":4129,"allet":4130,"webkit":4131,"ighb":4132,"multicol":4133,")+":4134,"Ġgl":4135,"Ġnamespace":4136,"Ġindiv":4137,"Ġoverride":4138,"ips":4139,"Store":4140,"multicolumn":4141,"then":4142,"conf":4143,"Change":4144,"imer":4145,"render":4146,"token":4147,"ĠDes":4148,"Ġ_{":4149,"Ġalign":4150,"Ġbus":4151,"callback":4152,"iqu":4153,"ĠInst":4154,"aries":4155,"approx":4156,"aml":4157,"aves":4158,"ĠName":4159,"Kind":4160,"ĠWith":4161,"Ġhash":4162,"ĠTe":4163,"des":4164,"():":4165,"control":4166,"Render":4167,"mpl":4168,"Ġsignal":4169,"NN":4170,"fn":4171,"assed":4172,"Ġplan":4173,"Settings":4174,"msg":4175,"Ġeffective":4176,"Ġdimension":4177,"uman":4178,"Ġparse":4179,"Ġtherefore":4180,"Ġfuture":4181,"Ġexplicit":4182,"ĠSub":4183,"atform":4184,"Work":4185,"Ġassign":4186,"Ġhttps":4187,"########":4188,"iddle":4189,"before":4190,"Ġenough":4191,"\\'":4192,"FO":4193,")/":4194,">,":4195,"PR":4196,"Ġsolid":4197,"vector":4198,"Ġcref":4199,"Ġconv":4200,"ãģ":4201,"ĠRem":4202,"styles":4203,"Ġeffects":4204,"PT":4205,"nap":4206,"^-":4207,"ube":4208,"ĉĉĊ":4209,"Load":4210,"lus":4211,"quare":4212,"Ġdr":4213,"dim":4214,"Ġalgebra":4215,"Location":4216,"\"));":4217,"ĠCont":4218,"Ġbox":4219,"aterial":4220,"Ab":4221,"Op":4222,"43":4223,"Script":4224,"ĠNS":4225,"Ġgrow":4226,"Ġvolume":4227,"~~~~":4228,"Ġpay":4229,"Ġbook":4230,"Properties":4231,"fil":4232,"Rel":4233,"rief":4234,"Ġdifference":4235,"Handle":4236,"illi":4237,"req":4238,"udi":4239,"delete":4240,"engine":4241,"ĠMar":4242,"Ġlanguage":4243,"Ġholds":4244,"Mult":4245,"Port":4246,"Que":4247,"ALL":4248,"Ġstore":4249,"Operation":4250,"corre":4251,"Ġamount":4252,"46":4253,"Can":4254,"Ġbehavior":4255,"hent":4256,"Ġappear":4257,"sd":4258,"Entity":4259,"arp":4260,"Ġpredict":4261,"Ġart":4262,"âĢ¦":4263,"xx":4264,"solute":4265,"98":4266,"Ġstrict":4267,"Note":4268,"cf":4269,"Ġable":4270,"\\}$":4271,"Ġprior":4272,"Parameters":4273,"ocial":4274,"(*":4275,"ACK":4276,"={":4277,"Ġcirc":4278,"Ġopp":4279,"Ġvelocity":4280,"Ġvarious":4281,"ops":4282,"}}}":4283,"Since":4284,"Ġdirectly":4285,"Ġrespon":4286,"Ġkeep":4287,"Ġmagnetic":4288,"None":4289,"Ġpanel":4290,"IGN":4291,"---":4292,"enter":4293,"96":4294,"super":4295,"Ġscope":4296,"Current":4297,"Ġapplied":4298,"aa":4299,"Ġque":4300,"reed":4301,"adow":4302,"Meta":4303,"auto":4304,"ros":4305,"Ġadv":4306,"ĠTO":4307,"Ġbu":4308,"Ġprove":4309,"mbers":4310,"inally":4311,"Record":4312,"Ġbegin":4313,"CP":4314,"border":4315,"allel":4316,"Ġgroups":4317,"97":4318,",âĢĿ":4319,"ository":4320,"Ġtogether":4321,"orizont":4322,"gs":4323,"Ġ['":4324,"Ġstars":4325,"ising":4326,"ised":4327,"make":4328,"creen":4329,"Ġaccording":4330,"}}_":4331,"2009":4332,"Ġwave":4333,"irm":4334,"Host":4335,"HO":4336,"Ġspectrum":4337,"Ġmemory":4338,"Font":4339,"GET":4340,"`.":4341,"%;":4342,"wait":4343,"sel":4344,"Then":4345,"Ġhowever":4346,"IR":4347,"Ġcertain":4348,"internal":4349,"na":4350,"Ġmechan":4351,"Ġcontinue":4352,"thon":4353,"Ġsupported":4354,"Ġfar":4355,"Ñģ":4356,"SL":4357,"Session":4358,"legate":4359,"Ġshift":4360,"Ġprom":4361,"ĠQu":4362,"ERROR":4363,"hel":4364,"icker":4365,"Ġindividual":4366,"classes":4367,"replace":4368,"Ġallows":4369,"ours":4370,"stamp":4371,"Ġactive":4372,"Ġpat":4373,"Ġwritten":4374,"handle":4375,"ĠBe":4376,"Ġ[];":4377,"Ġ$.":4378,"Theta":4379,"AND":4380,"Ġresearch":4381,"Ġweek":4382,"Ġeigen":4383,"Ġonce":4384,"Ġacross":4385,"Ġreturned":4386,"EXT":4387,"Bytes":4388,"cp":4389,"just":4390,"Invalid":4391,"ynch":4392,"aging":4393,"dr":4394,"ĠĠĠĠĠĠĠĠĠĠĠĠĠĠĠĠĠĠĠĠ":4395,"boolean":4396,"Ġupper":4397,"fact":4398,"ĠOR":4399,"after":4400,"Ġselection":4401,"lean":4402,"orig":4403,"}'":4404,"usic":4405,"Ġcompared":4406,"ĠTherefore":4407,"toString":4408,"enum":4409,"Ġneut":4410,"free":4411,"~$":4412,"tries":4413,"Ġprovides":4414,"icons":4415,"Ġclosed":4416,"dx":4417,"Ġwhose":4418,"Ġestimate":4419,"Ġenvironment":4420,"Assert":4421,"Async":4422,"dom":4423,"ley":4424,"__(":4425,"DD":4426,"asic":4427,"ĠâĢĺ":4428,"Helper":4429,"prod":4430,"Pos":4431,"Ġorgan":4432,"ĠMath":4433,"Ġtaken":4434,"ĠĠĠĊ":4435,"Ġkind":4436,"ĠOne":4437,"Ġexcept":4438,"mains":4439,"_;":4440,"Ġ\\;":4441,"Ġfig":4442,"Ġmetric":4443,"types":4444,"orizontal":4445,"ĠException":4446,"Ġdraw":4447,"Reference":4448,"Ġsent":4449,"Impl":4450,"Ġworks":4451,"interface":4452,"Reader":4453,"uple":4454,"ides":4455,"Ġevolution":4456,"models":4457,"Ġauthor":4458,"atal":4459,"Ġ::":4460,"ĠLog":4461,"Rect":4462,"andid":4463,"Ġnav":4464,"ussian":4465,"ĠError":4466,"{$":4467,"Ġpub":4468,"achine":4469,"255":4470,"Ġratio":4471,"Ke":4472,"Ġhom":4473,"Project":4474,"Names":4475,"Ġil":4476,"clusion":4477,"gence":4478,"ĠUp":4479,"Body":4480,"coder":4481,"Ġ\\|":4482,"<\\":4483,"Integer":4484,"Menu":4485,"57":4486,"Sign":4487,"ĠCal":4488,"atively":4489,"Ġnever":4490,"CS":4491,"Ġnum":4492,"Ġsatisfy":4493,"ĠTrans":4494,"87":4495,"=\"_":4496,"Rout":4497,"strap":4498,"duces":4499,"Ġchildren":4500,"Ġmonth":4501,"definition":4502,"ĠDE":4503,"Ġequivalent":4504,"ĠCar":4505,"widget":4506,"ĠUniversity":4507,"Ġben":4508,"Schema":4509,"Ġstop":4510,"Ġdevice":4511,"texttt":4512,"norm":4513,"inding":4514,"Ġswitch":4515,"underline":4516,"'],":4517,"Stack":4518,"Ġmatter":4519,"Ġsure":4520,"Values":4521,")|":4522,"prec":4523,"anges":4524,"Ġneeded":4525,"Ġclasses":4526,"Ġdataset":4527,"Args":4528,"disabled":4529,"Ġign":4530,"ĠEng":4531,"ĠUS":4532,"Ġband":4533,"}},":4534,"}^{-":4535,"lines":4536,"mathscr":4537,"weight":4538,"Ġmaterial":4539,"rain":4540,"ORD":4541,"ulated":4542,"Ġpract":4543,"ynomial":4544,"=(":4545,"une":4546,"env":4547,"ils":4548,"Ġsettings":4549,"ĠRef":4550,"Policy":4551,"reshold":4552,"pdown":4553,"Ġinfo":4554,"Parent":4555,"Ġextension":4556,"uses":4557,"uro":4558,"minus":4559,"Ġderiv":4560,"Ġexplo":4561,"Ġotherwise":4562,"Ġinterval":4563,"step":4564,"ĠâĢĶ":4565,"Ġgas":4566,"Ġ$|":4567,"footnote":4568,"500":4569,"Ġremain":4570,"Ġarch":4571,"RA":4572,"Ġrather":4573,"`,":4574,"ECT":4575,"apply":4576,"XX":4577,"PL":4578,"Down":4579,"2008":4580,"Timeout":4581,"imate":4582,"boot":4583,"zz":4584,"Ġcoll":4585,"hover":4586,"Ġbasis":4587,"Ġjob":4588,"grid":4589,"Ġstack":4590,"ĠST":4591,"Ġlife":4592,"coding":4593,"aj":4594,"Vector":4595,"Ġactual":4596,"condition":4597,"ggle":4598,"ws":4599,"Storage":4600,"Ġ('":4601,"Now":4602,"Order":4603,"agn":4604,"Ġbytes":4605,"anced":4606,"Ġdelete":4607,"detail":4608,"global":4609,"component":4610,"Ġinteger":4611,"56":4612,"CA":4613,"$_":4614,"Ġ<=":4615,"Ġembed":4616,"high":4617,"device":4618,"=\"../../../../../":4619,"PRE":4620,"Ġ$\\{":4621,"Ġaccept":4622,"trm":4623,"bul":4624,"ittle":4625,"resents":4626,"PS":4627,"Aut":4628,"ĠMon":4629,"IF":4630,"Ġfrequency":4631,"Ġunderstand":4632,"Ġ++":4633,"Ġflux":4634,"Description":4635,"Mon":4636,"ĠInter":4637,"ached":4638,"lier":4639,"ĠCl":4640,"hood":4641,"Ġbyte":4642,"Ġintegr":4643,"Ġsort":4644,"Ġleg":4645,"Ġitems":4646,"aches":4647,"Boolean":4648,"Ġexception":4649,"click":4650,"Ġuses":4651,"ĠIm":4652,"auge":4653,"Ġdescribe":4654,"Template":4655,"lugins":4656,"Parser":4657,"Ġpresented":4658,"Ġsmaller":4659,"attice":4660,"Ġpassed":4661,"pict":4662,"auth":4663,"Ġcover":4664,"1000":4665,"Ġ(*":4666,"Ġwords":4667,"ided":4668,"LS":4669,"textrm":4670,"_+":4671,"Each":4672,"ury":4673,"ids":4674,"iding":4675,"scal":4676,"Ġshape":4677,"remark":4678,"Ġpos":4679,"ceed":4680,"ynamic":4681,"Ġmajor":4682,"artifact":4683,"Ġ\"\\":4684,"Ġproces":4685,"focus":4686,"settings":4687,"ional":4688,"Ġdegree":4689,"Ġexpress":4690,"^{-\\":4691,"Ġsymbol":4692,"SET":4693,"Prop":4694,"ota":4695,"Ġsens":4696,"Ġheader":4697,"Ġoften":4698,"Ġ($\\":4699,"Ġautom":4700,"2006":4701,"Ġgoing":4702,"gent":4703,"Definition":4704,"Ġ${":4705,"86":4706,"each":4707,"direct":4708,"deed":4709,"subseteq":4710,"=-":4711,"ĠSk":4712,"=\"-":4713,"Ġcontinuous":4714,"Ġsl":4715,"Ġhold":4716,"Doc":4717,"Ġ})":4718,"Ġbar":4719,"Ġinstanceof":4720,"ĠPr":4721,"Ġnumbers":4722,"INE":4723,"ems":4724,"Ġreport":4725,"Ġvertex":4726,"Ġrule":4727,"(:":4728,"Ġtheorem":4729,"Us":4730,"Ġfund":4731,"Ġregister":4732,"lide":4733,"Ġdetermin":4734,"Ġdecre":4735,"ĠJan":4736,"Ġmakes":4737,"hr":4738,"Ġamong":4739,"ĠMay":4740,"Ġexisting":4741,"Ġfix":4742,"Ġsources":4743,"Head":4744,"TER":4745,"2007":4746,"COLOR":4747,"Ġoperators":4748,"ĠDate":4749,"Ġsubject":4750,"atures":4751,"Ġsite":4752,"rist":4753,"Delete":4754,"ble":4755,"ully":4756,"Ġgenerate":4757,"Writer":4758,"Ġpredi":4759,"41":4760,"ĠCON":4761,"ewidth":4762,":\\":4763,"Ġampl":4764,"ĠRE":4765,"Ġground":4766,"ĠPol":4767,"Ġliter":4768,"sort":4769,"Ġhaving":4770,"\"`":4771,"etime":4772,"ĠPl":4773,"Ġgovern":4774,"After":4775,"ĠState":4776,"Ġnatural":4777,"ĠassertEquals":4778,"ones":4779,"dagger":4780,"ĠMap":4781,"taint":4782,"ĠSec":4783,"allow":4784,"results":4785,"Ġrunning":4786,"When":4787,"Ġdoesn":4788,"Ġnu":4789,"OM":4790,"card":4791,"ASS":4792,"mitted":4793,"Ġbecome":4794,"Ġelem":4795,"_{(":4796,"store":4797,"keys":4798,"inf":4799,"ynchron":4800,"Ġestab":4801,"Ġphysical":4802,"uler":4803,"ĠĠĠĠĠĠĠĠĠĠĠĠĠĠĠĠĠĠĠĠĠĠĠĠĠĠĠĠĠĠĠĠĠĠĠĠĠĠĠĠĠĠĠĠĠĠĠĠĠĠĠĠĠĠĠĠĠĠĠĠĠĠĠĠ":4804,"session":4805,"Ġscen":4806,"webpack":4807,"Ġchoice":4808,"ario":4809,"limits":4810,"pg":4811,"cons":4812,"2000":4813,"comm":4814,"Ġgreat":4815,"ĠEnd":4816,"ATA":4817,"Ġbecomes":4818,"Ġstre":4819,"Argument":4820,"zero":4821,"\\}":4822,"Ġsho":4823,"Ġframework":4824,"Ġinfin":4825,"Ġcare":4826,"Vari":4827,"umin":4828,"Scope":4829,"Ġant":4830,"ledge":4831,"Ġnames":4832,"Ġplot":4833,"Sk":4834,"False":4835,"crete":4836,"Ġcompute":4837,"sto":4838,"cket":4839,"URE":4840,"send":4841,"Ġneeds":4842,"Metadata":4843,"Ġ(-":4844,"aring":4845,"Ġconvert":4846,"Ġmulti":4847,"Ġsymmetry":4848,"Root":4849,"Ġcontaining":4850,"Ġcurve":4851,"equals":4852,"Ġkeys":4853,"ĠWeb":4854,"rupt":4855,"Ġinstall":4856,"alysis":4857,"ĠĠĠĠĠĠĠĠĠĠĠĠĠĠĠĠĠĠ":4858,"ansion":4859,"Graph":4860,"Ġinteraction":4861,"GE":4862,"TEST":4863,"ä¸":4864,"Ġnoise":4865,"_,":4866,"ĠPo":4867,"*{":4868,"ĠGa":4869,"}%":4870,"Ġemploy":4871,"tical":4872,"LL":4873,"Ġdatabase":4874,"Ġneighb":4875,"Cal":4876,"}}_{":4877,"Ġtypeof":4878,"MD":4879,"Ġthread":4880,"Ġtakes":4881,"'))":4882,"Ġsession":4883,"Ġnegative":4884,"docs":4885,"cover":4886,"ĠIS":4887,"....":4888,"59":4889,"Ġfac":4890,"Ġproblems":4891,"Ġpolicy":4892,"insert":4893,"Ġconnected":4894,"58":4895,"isk":4896,"illion":4897,"That":4898,"amilton":4899,"raft":4900,"edit":4901,"Ġnecessary":4902,"Ġstatist":4903,"Ġcompact":4904,"JS":4905,"Ġteam":4906,"ssages":4907,"oplus":4908,"Jo":4909,"Ġgauge":4910,"Byte":4911,"black":4912,"Ġpert":4913,"angular":4914,"wedge":4915,"Ġgalaxies":4916,"address":4917,"Ġdetermined":4918,"Ġ$-":4919,"matrix":4920,"ering":4921,"ĠJSON":4922,"RI":4923,"Ġfilename":4924,"Ġincluded":4925,"ada":4926,"Ġyet":4927,"Ġsamples":4928,"ffff":4929,"Ġdim":4930,"ĠTime":4931,"utor":4932,"Ġche":4933,"Ġreview":4934,"pk":4935,"----------------------------------------------------------------":4936,"LP":4937,"Ġimplementation":4938,"bert":4939,"Ġlearn":4940,"Ġsend":4941,"Ġradius":4942,"Ġunsigned":4943,"plugin":4944,"Ġreally":4945,"rec":4946,"register":4947,"UB":4948,"Ġquestion":4949,"Descript":4950,"osen":4951,"Ġconsistent":4952,"points":4953,"2005":4954,"Ġminimum":4955,"Ind":4956,"Ġreplac":4957,"Ġsmooth":4958,"ãĥ":4959,"stroy":4960,"omorphism":4961,"Ġ$[":4962,"setminus":4963,"Ġincrease":4964,"78":4965,"Device":4966,"Ġfunc":4967,"Func":4968,"DIR":4969,"Bound":4970,"Su":4971,"unch":4972,"modal":4973,"Ġfocus":4974,"Ġobservations":4975,"Ġtw":4976,"hib":4977,"initial":4978,"uting":4979,"amera":4980,"Symbol":4981,"inder":4982,"ategor":4983,"Ġarbit":4984,"napsh":4985,"usion":4986,"Ġbinary":4987,"Ġparticle":4988,"iving":4989,"Ġgre":4990,"ĠEvent":4991,"linewidth":4992,"Ġsplit":4993,"Ġpolynomial":4994,"ĠFr":4995,"Ġhandler":4996,"El":4997,"access":4998,"Ġhyper":4999,"media":5000,"Ġdest":5001,"ĠValue":5002,"ha":5003,"ket":5004,"Ġgrav":5005,"Ġforce":5006,"Ġcome":5007,"panel":5008,"Enabled":5009,"iol":5010,"Ġemission":5011,"âĢĶ":5012,"Ġcentral":5013,"GB":5014,"ORM":5015,"Ġmedia":5016,"cedure":5017,"utable":5018,")\">":5019,"ĠÂ":5020,"Ġcut":5021,"ifies":5022,"Ġchain":5023,"ĠRep":5024,"Ġrequires":5025,"Ġrank":5026,"ipel":5027,"Ġformula":5028,"Ġsays":5029,"Ġthird":5030,"connect":5031,"ĠAct":5032,"AV":5033,"Ġscheme":5034,"Ġgot":5035,"Ġmaps":5036,"scroll":5037,"Ġloop":5038,"Ġelectron":5039,"Ġdemon":5040,"fields":5041,">.":5042,"artifactId":5043,"tool":5044,"icult":5045,"HTML":5046,"\",\"":5047,"ade":5048,"abor":5049,"Ġaffect":5050,"Ġmix":5051,"Ġparticles":5052,"uri":5053,"leted":5054,"framework":5055,"'\\":5056,"Ġmembers":5057,"vm":5058,"Ġparts":5059,"Ġallowed":5060,"Ġpress":5061,"EM":5062,"Ġearly":5063,"Ġdecl":5064,"Ġuncer":5065,"Ġcritical":5066,"Api":5067,"*)":5068,"Ġhalf":5069,"Ġcore":5070,"Ġregions":5071,"ulate":5072,"Ġuniform":5073,"ĠSte":5074,"Ġentire":5075,"levant":5076,"itect":5077,"Ġbutton":5078,"lustr":5079,"ropy":5080,"Track":5081,"Ġwait":5082,"Ġscatter":5083,"ellar":5084,"ission":5085,"Ġarr":5086,"icate":5087,"Ġdistributed":5088,"Long":5089,"uter":5090,"Ġsufficient":5091,"Ġfailed":5092,"Ġinside":5093,"Ġtensor":5094,"Ġusers":5095,"76":5096,"Ġalmost":5097,"Ġsuccessful":5098,"Eq":5099,"Ġmsg":5100,"Has":5101,"short":5102,"TEX":5103,"ĠFrom":5104,"Ġhence":5105,"fit":5106,"ĠFunction":5107,"ball":5108,"Tra":5109,"loor":5110,"So":5111,"Ġfr":5112,"ĠGr":5113,"Selector":5114,"Ġcomparison":5115,"ragment":5116,"Ġ),":5117,"Ġsw":5118,"yl":5119,"full":5120,"ectors":5121,"ĠShe":5122,"ĠMin":5123,"Ġapproximation":5124,"Ġlate":5125,"Ġscalar":5126,".__":5127,"Debug":5128,"Ġuseful":5129,"Mock":5130,"BC":5131,"Ap":5132,"ĠURL":5133,"subfigure":5134,"ansport":5135,"Ġdirectory":5136,"Network":5137,"aligned":5138,"rees":5139,"ĠSc":5140,"ĠTra":5141,"Ġdetermine":5142,"success":5143,"Ver":5144,"Ġinline":5145,"ales":5146,"Ġbottom":5147,"ĠMo":5148,"anner":5149,"imits":5150,"Param":5151,"Ġderived":5152,"cret":5153,"Ġitself":5154,",\\,":5155,"Ġprincip":5156,"Results":5157,"rome":5158,"ĠCor":5159,"sters":5160,"Ġaxis":5161,"Non":5162,"Ġauth":5163,"ynt":5164,"osed":5165,"Xml":5166,"export":5167,"Ġavoid":5168,"custom":5169,"hs":5170,"Ġcoupling":5171,"thers":5172,"Ġextra":5173,"por":5174,"faces":5175,"Ġprofile":5176,"erved":5177,"double":5178,"Decl":5179,"Queue":5180,"Ġcollect":5181,"Ġperformed":5182,"groupId":5183,"ĠIO":5184,"sql":5185,"items":5186,"Pod":5187,"Ġvideo":5188,"ements":5189,"ĠGe":5190,"END":5191,"),\\":5192,"Ġbounded":5193,"Ġcompare":5194,"Ġdes":5195,"bits":5196,"Fields":5197,"Var":5198,"ĠHere":5199,"ãĤ":5200,"ĠHTML":5201,"padding":5202,"Ġproper":5203,"PH":5204,"Ġthough":5205,"Rule":5206,"Ġconnect":5207,"Ġextract":5208,"mediate":5209,"ĠĠĠĠĠĠĠĠĠĠĠĠĠĠĠĠĠĠĠĠĠĠĠĠĠĠĠĠĠĠĠĠĠĠĠĠĠĠĠ":5210,"UP":5211,"OD":5212,"_*":5213,"&#":5214,"Ġos":5215,"Ġmaking":5216,"record":5217,"Ġhistory":5218,"Ġweb":5219,"exception":5220,"Title":5221,"Ġmomentum":5222,"Ġ'/":5223,"ĠTrue":5224,"Ġ|\\":5225,"Mark":5226,">();":5227,"Application":5228,"Pattern":5229,")\\,":5230,"atically":5231,"mic":5232,"Ġleading":5233,"Ġwon":5234,"inv":5235,"Build":5236,"Ġsimply":5237,"NG":5238,"sequence":5239,"impl":5240,".)":5241,"Ġ}\\":5242,"Ġconstraints":5243,"toggle":5244,"Ġpartition":5245,"ivial":5246,"Use":5247,"Dialog":5248,"Ġbig":5249,"Ġdemonstr":5250,"attribute":5251,"Num":5252,"stylesheet":5253,"Ġdeep":5254,"Ġhealth":5255,"ĠNOT":5256,"ike":5257,"ashed":5258,"special":5259,"aven":5260,"Ġdiscuss":5261,"){\\":5262,"Ġdays":5263,"shape":5264,"Ġresulting":5265,"Init":5266,"ĠPart":5267,"Ġmanif":5268,"Ġattack":5269,"Ġvers":5270,"SION":5271,"ĠNe":5272,"Ġtests":5273,"sive":5274,"Ġrepresents":5275,"arily":5276,"ĠMark":5277,"ĠGu":5278,"acters":5279,"More":5280,"Extension":5281,"fficients":5282,"atial":5283,"ĠOur":5284,"Ġpers":5285,"typedef":5286,"ĠPer":5287,"ĠOb":5288,"Ġsoftware":5289,"Ġpeak":5290,"MC":5291,"Ġactiv":5292,"Deta":5293,"Ġinterpre":5294,"ker":5295,"CTION":5296,"margin":5297,"ĠThat":5298,"Ġjson":5299,"Ġamplitude":5300,"Ġrob":5301,"limit":5302,"_{{\\":5303,"Ġinvestig":5304,"inline":5305,"Channel":5306,"channel":5307,"54":5308,"Ġoperations":5309,"radius":5310,"Ġvan":5311,"king":5312,"ĠEd":5313,"Volume":5314,"ĠFirst":5315,"Database":5316,"gu":5317,"Ġtreat":5318,"ĠAb":5319,"=\"../../../../../../":5320,"kind":5321,"Ġdiscussed":5322,"72":5323,"adoop":5324,"Ġnumerical":5325,"NavBar":5326,"TC":5327,"deg":5328,"colon":5329,"Post":5330,"ollary":5331,"ĠBG":5332,"_{-":5333,"oom":5334,"Ġgrid":5335,"structure":5336,"serial":5337,"Ġsm":5338,"ATH":5339,"Active":5340,"ĠUse":5341,"ĠDefault":5342,"Tests":5343,"Ġ(\"":5344,"Only":5345,"}\"":5346,")))":5347,"OK":5348,"51":5349,"Ġ\"/":5350,"79":5351,"_->":5352,"Ġincreasing":5353,"###":5354,"Ġtaking":5355,"Ġorigin":5356,"Ġsense":5357,"istration":5358,"Here":5359,"Found":5360,"JSON":5361,"ĠMe":5362,"ITY":5363,"Ġclaim":5364,"ucket":5365,"events":5366,"help":5367,"anagement":5368,"89":5369,"comment":5370,"Windows":5371,"isting":5372,"Ġsomething":5373,"Ġdynamics":5374,"Ġsitu":5375,"trigger":5376,"Are":5377,"'>":5378,"Ġactually":5379,"language":5380,"Ġcounter":5381,"Ġconstruction":5382,"400":5383,"Ġfri":5384,"ĠLO":5385,"aged":5386,"ertific":5387,"ĠSpec":5388,"ymf":5389,"You":5390,"Ġmotion":5391,"Ġir":5392,"ymfony":5393,"Ġinner":5394,"primary":5395,"Edit":5396,"category":5397,"Ġcontra":5398,"Iterator":5399,"ĠBl":5400,"admin":5401,"ĠVal":5402,"ĠNode":5403,"Ġsatisfies":5404,"vision":5405,"selected":5406,"Ge":5407,"Ġspeed":5408,"atory":5409,"'_":5410,"stop":5411,"Descriptor":5412,"Ġdepends":5413,"->_":5414,"ocket":5415,"real":5416,"Ġproduction":5417,"abilities":5418,"KEY":5419,"vey":5420,")),":5421,")}(":5422,"Ġdisk":5423,"oring":5424,"Ġensure":5425,"Ġ&=&":5426,"Ġsimulations":5427,"Clo":5428,"bigg":5429,"osite":5430,"unsigned":5431,"Ġshall":5432,"Ġlittle":5433,"ĠRequ":5434,"Ġdifficult":5435,"FR":5436,"ĠProposition":5437,"ifying":5438,"Ġuncertaint":5439,"queue":5440,"Cre":5441,"Ġexperiments":5442,"Ġaway":5443,"ĠTHE":5444,"Ġwide":5445,"ipeline":5446,"rip":5447,"MB":5448,"Ġscript":5449,"gorithms":5450,"Ġoptimal":5451,"cmd":5452,"Ġcorresponds":5453,"application":5454,"Ġpixel":5455,"52":5456,"]]":5457,"neg":5458,"Ġattr":5459,"Lock":5460,"Click":5461,"Ġdomin":5462,"va":5463,"Ġjav":5464,"endar":5465,"300":5466,"dropdown":5467,"Ġctx":5468,"ĠRec":5469,"\\!\\!":5470,"Ġfall":5471,"Me":5472,"Ġhuman":5473,"ancel":5474,"Ġspectral":5475,"ggreg":5476,"Ġlinks":5477,"aps":5478,"Ġcomputed":5479,"rate":5480,"Custom":5481,"Ġ^":5482,"Ġincludes":5483,"Ġvertices":5484,"Ġlattice":5485,"_(":5486,"Ġ\\(":5487,"ana":5488,"mock":5489,"Ġfraction":5490,"Ġchoose":5491,"256":5492,"}}(\\":5493,"Ġcharge":5494,"Ġperturb":5495,"Ġcalculated":5496,"bi":5497,"Ġattemp":5498,"ĉĠĠĠĠ":5499,"Ġgen":5500,"CHE":5501,"uly":5502,"Items":5503,"ĠJohn":5504,"Security":5505,"Initial":5506,"Ġangle":5507,"ACE":5508,"aff":5509,"[$":5510,"Transform":5511,"2004":5512,"support":5513,"ĠRead":5514,"herit":5515,"Ð°Ð":5516,"Send":5517,"ĠForm":5518,"ĠĠĠĠĠĠĠĠĠĠĠĠĠĠĠĠĠĠĠĠĠĠĠĠĠ":5519,"Ġdecay":5520,"Go":5521,"sect":5522,"Msg":5523,"olver":5524,"Ġpast":5525,"Ġmember":5526,"Ġraise":5527,"ometric":5528,"lapse":5529,"came":5530,"collection":5531,"Changed":5532,"Ġ+\\":5533,"ĠMy":5534,"wrap":5535,"ĠImp":5536,"Ġprimary":5537,"dapt":5538,"ĠSch":5539,"Ġwhole":5540,"53":5541,"Ġmeasured":5542,"blue":5543,"Ġreported":5544,"Ġintroduced":5545,"Ġinvariant":5546,"Ġchall":5547,"Ġclassical":5548,"fix":5549,"dest":5550,"props":5551,"bold":5552,"Cur":5553,";->":5554,"Keys":5555,"here":5556,"ĠGets":5557,"Display":5558,"ica":5559,"Ġmagn":5560,"FAULT":5561,"Ġecho":5562,"Ġresolution":5563,"car":5564,"WE":5565,"war":5566,"ieve":5567,"urren":5568,"Ġtransfer":5569,"Ġhtml":5570,"Ġcourse":5571,"NE":5572,"equality":5573,"69":5574,"Ġworking":5575,"year":5576,"Ġstatement":5577,"Matrix":5578,"ards":5579,")_{":5580,"Ġnet":5581,"Ġdb":5582,"Ġcurrently":5583,"ortun":5584,"newcommand":5585,"Job":5586,"wner":5587,"Ġartic":5588,"Ġmov":5589,"Ġreceived":5590,"Ġpackage":5591,"peat":5592,"bullet":5593,"Ġfn":5594,"axis":5595,"////////////////////////////////":5596,".~(\\":5597,"Ġabsolute":5598,"ĠCopy":5599,"'re":5600,"ĠCre":5601,"Ġdig":5602,"Ġwater":5603,"Classes":5604,"sime":5605,"ĠStr":5606,"sur":5607,"avor":5608,"hy":5609,"Ġdetection":5610,"Ġhyp":5611,"Ġconc":5612,"Ġface":5613,"holder":5614,"hadoop":5615,"spect":5616,"Ġsubst":5617,"Ġpopulation":5618,"simeq":5619,"perp":5620,"annotation":5621,"Ġaccuracy":5622,"ening":5623,"ĠPy":5624,"ĠHamilton":5625,"Ġdevelopment":5626,"Ġlikely":5627,"ĠHence":5628,"Ġaltern":5629,"TED":5630,"Tab":5631,"{$\\":5632,"multi":5633,"ĠAmerican":5634,"ayers":5635,"ship":5636,"Ġpolar":5637,"Internal":5638,"}$-":5639,"Ġpointer":5640,"Ġexamples":5641,"Draw":5642,"Ġstudies":5643,"TRY":5644,"region":5645,"ĠSD":5646,"Ġattributes":5647,"Ġimpact":5648,"ĠSim":5649,"ulture":5650,"ried":5651,"tmp":5652,"force":5653,"Events":5654,"SR":5655,"ĠĠĠĠĠĠĠĠĠĠĠĠĠĠĠĠĠĠĠĠĠĠ":5656,"Ġtherm":5657,"Ġedges":5658,"Struct":5659,"Bl":5660,"ously":5661,"\"\"\"":5662,"FILE":5663,"white":5664,"(!":5665,"Ġissue":5666,"Ġcorrespond":5667,"napshot":5668,"Ġserial":5669,"Ġappend":5670,"rices":5671,"Ġpartial":5672,"subsubsection":5673,"Ġess":5674,"$^{-":5675,"Ġmention":5676,"inct":5677,"Ġplane":5678,"elli":5679,")_":5680,"++;":5681,"Ġkernel":5682,"iterator":5683,"aser":5684,"ested":5685,"contin":5686,"Ġcategory":5687,"AGE":5688,"prob":5689,"theme":5690,"cloud":5691,"Ġcoefficients":5692,"ĠBGCOLOR":5693,"Ġeq":5694,"74":5695,"ĠDep":5696,"cases":5697,"Ġnorm":5698,"ka":5699,"Namespace":5700,"cut":5701,"ĠNov":5702,"atives":5703,"Ġthings":5704,"Ġdecomp":5705,"ymptot":5706,"External":5707,"VID":5708,"Ġillustr":5709,"NotNull":5710,"'}":5711,"assertEquals":5712,"parameters":5713,"[:":5714,"desc":5715,"Ġutil":5716,"lyph":5717,"Ne":5718,"Ġfive":5719,"ott":5720,"Elements":5721,"Proxy":5722,"sider":5723,"writ":5724,"cker":5725,"oung":5726,"Ġrem":5727,"forall":5728,"Props":5729,"Ġeasy":5730,"licity":5731,"ians":5732,"Ġappropri":5733,")^{\\":5734,"Ġinteresting":5735,"Fail":5736,"Ġrules":5737,"eting":5738,"Ġcorrelation":5739,"Ġcandid":5740,"maz":5741,"textsc":5742,"Section":5743,"Ġvac":5744,"gan":5745,"ham":5746,"IB":5747,"Ġfun":5748,"iny":5749,"Our":5750,"Ġexactly":5751,"ping":5752,"Red":5753,"rown":5754,"ĠOpen":5755,"Ġsteps":5756,"orter":5757,"children":5758,"connection":5759,"ecause":5760,")).":5761,"coming":5762,"Ġintegral":5763,"lor":5764,"pub":5765,"Ġsequ":5766,"onic":5767,"Runtime":5768,"Ġlonger":5769,"ĠUnited":5770,"important":5771,"ĠModel":5772,"Ġmask":5773,"Ġtransaction":5774,"Lib":5775,"Ġleads":5776,"bootstrap":5777,"82":5778,"addr":5779,"den":5780,"ĠOut":5781,"Ġexponent":5782,"Ġwhy":5783,"Ġoffic":5784,"Float":5785,"Constraint":5786,"ein":5787,"84":5788,"Ġidentity":5789,"$).":5790,"Ġsamp":5791,"vs":5792,"Ġsegment":5793,"Ġexpansion":5794,"depth":5795,"Ġmeta":5796,"Ġnetworks":5797,"Ġage":5798,"iffer":5799,"ilation":5800,"Ġprocesses":5801,"Ġoffer":5802,"Ġarbitrary":5803,"Ġbasic":5804,"à¤":5805,"Ġassumption":5806,"ĠVAL":5807,"Ġchosen":5808,"Ca":5809,"ĠĠĠĠĠĠĠĠĠĠĠĠĠĠĠĠĠĠĠĠĠĠĠĠ":5810,"isation":5811,"Member":5812,"eler":5813,")^{-":5814,"ĠNational":5815,"WS":5816,"=\"../../../":5817,"eh":5818,"sess":5819,"ingle":5820,"Ġdepth":5821,"Pointer":5822,"Ġorbit":5823,"Ġ\"\"":5824,"anded":5825,"undefined":5826,"ĠTODO":5827,"Ġpairs":5828,"Ġconsole":5829,"Ġstarting":5830,"ords":5831,"ĠAfter":5832,"Ġfigure":5833,"cade":5834,"trics":5835,"footer":5836,"pic":5837,"DC":5838,"Ġflag":5839,"Ġdeal":5840,"128":5841,"SQL":5842,"Ġpresence":5843,"hom":5844,"Attributes":5845,"Âł":5846,"bytes":5847,"Before":5848,"Ġcompany":5849,"agraph":5850,"Ġangular":5851,"Ġeasily":5852,"Ġhar":5853,"Ġexperimental":5854,"Bit":5855,"ĠDi":5856,"Figure":5857,"Ġchanged":5858,"(__":5859,"Close":5860,"seud":5861,"Auth":5862,"Ġaff":5863,"Ġ$$":5864,"miss":5865,"63":5866,"argument":5867,"ali":5868,"modules":5869,"Ġtrigger":5870,"Ġsco":5871,"Ġ(_":5872,"cb":5873,"DS":5874,"isms":5875,";<":5876,"Sim":5877,"Ġdetect":5878,"domain":5879,"pa":5880,"Account":5881,"Second":5882,"ĠNow":5883,"Ġio":5884,"Flags":5885,"Mo":5886,"Ġmeasurements":5887,"oney":5888,"SIZE":5889,"Ġrelevant":5890,"Loader":5891,"Parse":5892,"Ġexternal":5893,"indexOf":5894,"Ġremoved":5895,"Ġapplications":5896,"Ġwin":5897,"Icon":5898,"Ġtheore":5899,"Ġclu":5900,"Ġprocedure":5901,"Ġwhite":5902,"oms":5903,"^{+":5904,"ought":5905,"Ġfully":5906,"ĠMethod":5907,"Ġreduced":5908,"track":5909,"Ġdistributions":5910,"Ġspaces":5911,"ĠBase":5912,"Ġlock":5913,"udied":5914,"construct":5915,"witter":5916,"PAR":5917,"mi":5918,"Ġcontact":5919,"-->":5920,"(){":5921,"ĠSome":5922,"Dist":5923,"Ġencoding":5924,"forms":5925,"flags":5926,"Ġsimulation":5927,"MAX":5928,"Ġcomment":5929,")));":5930,"ribution":5931,"=\"\"":5932,"coin":5933,"pare":5934,"enn":5935,"Layer":5936,"Tool":5937,"Ġsuff":5938,"email":5939,"exists":5940,"odot":5941,"press":5942,"och":5943,"~$\\":5944,"62":5945,"Ġconduct":5946,"Ret":5947,"Ġinequality":5948,"Ġetc":5949,"Ġtypename":5950,"roduction":5951,"hentication":5952,"urthermore":5953,"total":5954,"Lin":5955,"Scroll":5956,"UID":5957,"save":5958,"Ġstrategy":5959,"Ġinvoke":5960,"txt":5961,"while":5962,"Ġcoordinates":5963,"73":5964,"Register":5965,"ĠOct":5966,"TS":5967,"agnost":5968,"JECT":5969,"dependency":5970,"Ġrelease":5971,"Ġord":5972,"ĠBOO":5973,"product":5974,"ĠNO":5975,"2001":5976,"GS":5977,"Ġbusiness":5978,"printf":5979,"ĠĠĠĠĠĠĊ":5980,"Attr":5981,"Ġforward":5982,"alo":5983,"pid":5984,"onical":5985,"Ġng":5986,"Ġmodes":5987,"Ġeff":5988,"Ġfilm":5989,"$$\\":5990,"Ġreflect":5991,"Ġwriting":5992,"Ġalt":5993,"Condition":5994,"ngth":5995,"'.":5996,"SY":5997,"thread":5998,"Ġmock":5999,"pping":6000,"Ġansw":6001,"Ġexperiment":6002,"schema":6003,"Ġcharacters":6004,"Sum":6005,"Microsoft":6006,"BR":6007,"Show":6008,"network":6009,"=>":6010,"94":6011,"reement":6012,"However":6013,"tri":6014,"password":6015,"ox":6016,"Ġtransport":6017,"eff":6018,"plugins":6019,"93":6020,"BA":6021,"Nodes":6022,"Ġsocial":6023,"Ġalloc":6024,"Ġfeel":6025,"LIC":6026,"chart":6027,"91":6028,"Scale":6029,"Ġothers":6030,"LOG":6031,"dec":6032,"Ġbounds":6033,"ĠMoreover":6034,"loop":6035,"Ġinvalid":6036,"ĠWorld":6037,"Ġdependence":6038,"DU":6039,"ĠAug":6040,"properties":6041,"Ġlevels":6042,"Ġclean":6043,"Ġcurves":6044,"Ġmatching":6045,"Ġsetup":6046,"picker":6047,"\\_":6048,"aws":6049,"okie":6050,"Ġdual":6051,"Ġpropag":6052,"Ġ=\\":6053,"Ġservices":6054,"ailed":6055,"none":6056,"picture":6057,"Cluster":6058,"Auto":6059,"2003":6060,"Ġones":6061,"ĠMan":6062,"rf":6063,"Ġdark":6064,"ilib":6065,"antic":6066,"Ġhidden":6067,"\")]":6068,"IE":6069,"material":6070,"ority":6071,"Ġmusic":6072,"ĠUser":6073,"ads":6074,"ĠPre":6075,"utf":6076,"oks":6077,"Ġplatform":6078,"Ġfill":6079,"sure":6080,"=\"/":6081,"ĉĠĠĠĠĠĠĠĠĠĠĠĠĠĠĠ":6082,"handler":6083,"ture":6084,"Ġonline":6085,"Te":6086,"brief":6087,"Ġvisit":6088,"FN":6089,"ĉĠĠĠĠĠĠĠĠ":6090,"Package":6091,"band":6092,"Ġprotocol":6093,"Ġbuilt":6094,"resses":6095,"Br":6096,"multip":6097,"decl":6098,"alloc":6099,"eners":6100,"ĠArt":6101,"rise":6102,"Ġdenotes":6103,"controller":6104,"mas":6105,")}{\\":6106,"ogene":6107,"Eng":6108,"Any":6109,"iki":6110,"Ġstrings":6111,"win":6112,"ĠAp":6113,"area":6114,"Ġslow":6115,"Ġdriv":6116,"Ġcommunity":6117,"switch":6118,"rot":6119,"92":6120,"Ġreq":6121,"Ġtasks":6122,"scribe":6123,"bon":6124,"det":6125,"ĠWork":6126,"urope":6127,"ĠJanuary":6128,"Ġsix":6129,"}}^":6130,"Ġextended":6131,"Ġoutside":6132,"hesis":6133,"||":6134,"perim":6135,"ĠRed":6136,"Wrapper":6137,"PORT":6138,"complete":6139,"Ã¡":6140,"reme":6141,"ustr":6142,"@\"":6143,"Ġmagnitude":6144,"Ġspectra":6145,"sumer":6146,"GR":6147,"ios":6148,"ĠjQuery":6149,"Ġsecur":6150,".*":6151,"Ġpercent":6152,"{\"":6153,"Generic":6154,"boost":6155,"izations":6156,"Transaction":6157,"plot":6158,"bes":6159,"Ġstructures":6160,"Media":6161,"ĠGoogle":6162,"ducing":6163,"Expect":6164,"Ġalgorithms":6165,"fail":6166,";/":6167,"DR":6168,"123":6169,"effect":6170,"Ġquas":6171,"Ġscreen":6172,"pers":6173,"oral":6174,"adr":6175,"Plugin":6176,"ategories":6177,"Ġresources":6178,"unty":6179,"mask":6180,"Ġviol":6181,"MENT":6182,"arant":6183,"Ġengine":6184,"Ġsymmetric":6185,"Ġprevent":6186,"VERSION":6187,"ĠAN":6188,"since":6189,"Ġquality":6190,"Ġprecise":6191,"Pool":6192,"aced":6193,"My":6194,"Ġstudied":6195,"virtual":6196,"Ġcity":6197,"IX":6198,"generate":6199,")$-":6200,"Ġrele":6201,"Ġ[],":6202,"Ġquark":6203,"ained":6204,"$~":6205,"Logger":6206,"Ġland":6207,"Ġblue":6208,"Perm":6209,"Ġsingular":6210,"ĠChar":6211,"Ġfeed":6212,"Ġrad":6213,"obile":6214,"()));":6215,"})$.":6216,"Ġhist":6217,"Ġcomes":6218,"ctu":6219,"ĠKey":6220,"Ġfast":6221,"okup":6222,"notations":6223,"Ġdesc":6224,"Ġlibrary":6225,"Ġfactors":6226,"numer":6227,"Ġbeh":6228,"CF":6229,"Ġpul":6230,"Ġstorage":6231,"Prefix":6232,"Rest":6233,"pmatrix":6234,"Ġgovernment":6235,"Arr":6236,"entity":6237,"Inv":6238,"Ġbelong":6239,"Thus":6240,"Ġupdated":6241,"keyword":6242,"ertificate":6243,"ĠReact":6244,"çļ":6245,"Remove":6246,"transition":6247,"Ġdir":6248,"160":6249,"çļĦ":6250,"ITE":6251,"atible":6252,"71":6253,"Directory":6254,"ames":6255,"Ġvertical":6256,"Ġask":6257,"Protocol":6258,"svg":6259,"safe":6260,"prefix":6261,"_-":6262,"metadata":6263,"Ġbroad":6264,"Statement":6265,"Ġqueue":6266,"DA":6267,"zer":6268,"Ġrect":6269,"uby":6270,"RR":6271,"Collections":6272,"Ġtell":6273,"hidden":6274,"Ġidea":6275,"ered":6276,"Ġarchitect":6277,"ĠCall":6278,"fect":6279,"Framework":6280,"()).":6281,"Ġcalls":6282,"para":6283,"Ġer":6284,"Ġintroduce":6285,"ccording":6286,"Ġsubset":6287,"Ġremains":6288,"Ġair":6289,"Ġstory":6290,"Ġschool":6291,"Enum":6292,"ured":6293,"Ġformation":6294,"ToString":6295,"CHECK":6296,"ierarch":6297,"ĠText":6298,")\\\\":6299,"mc":6300,"Ġprefix":6301,"avy":6302,"Ġcomputation":6303,"ares":6304,"hbox":6305,"Ġregard":6306,"ĠIP":6307,"protobuf":6308,"Ġreach":6309,"Ġrecogn":6310,"mapsto":6311,"sheet":6312,"Grid":6313,"diff":6314,"Import":6315,"ĠÃ":6316,"Ġstellar":6317,"Ġstage":6318,"ENTRY":6319,"Editor":6320,"Ġmatrices":6321,"attributes":6322,"Ġtool":6323,"61":6324,"Ġconstructor":6325,"Rece":6326,"legal":6327,"assertEqual":6328,"Ġoptional":6329,"hbar":6330,"yes":6331,"rong":6332,"izable":6333,"Ġconcept":6334,"Feature":6335,"[(":6336,"gradient":6337,"expr":6338,"StyleID":6339,"ĠSci":6340,"ARY":6341,"Ġknowledge":6342,"Ġtransparent":6343,"coded":6344,"Ġpod":6345,"forward":6346,"Av":6347,"anguage":6348,"Ġinflu":6349,"Ġshared":6350,"ĠWest":6351,"NULL":6352,"Ġcapture":6353,"'));":6354,"Desc":6355,"Ġappropriate":6356,"Ġrights":6357,"Ġincreases":6358,"ĠInitial":6359,"Ġfinally":6360,"ĠOption":6361,"Dictionary":6362,"ĠService":6363,"OF":6364,"Ġlot":6365,"Ġsecurity":6366,"but":6367,"'(":6368,"ĠChrist":6369,"contains":6370,"Ġstarted":6371,"Ġupon":6372,"ights":6373,"}^*":6374,"Ġadapt":6375,"Ġspatial":6376,"Ġasync":6377,"aking":6378,"Profile":6379,"Using":6380,"ĠApr":6381,"Ġthreshold":6382,"Ġtransformation":6383,"spir":6384,"83":6385,"Len":6386,"itution":6387,"Ġcloud":6388,"throws":6389,"ĠII":6390,"ĠFalse":6391,"Ġrestrict":6392,"Ġquite":6393,"\\|_{":6394,"dy":6395,"otal":6396,"Ġ'<":6397,"Ġfront":6398,"Print":6399,"urrency":6400,"chain":6401,"zone":6402,"\">&":6403,"dule":6404,"Ġtesting":6405,"ĠTH":6406,"Ġlatter":6407,"EC":6408,"extend":6409,"Ġdeveloped":6410,"letion":6411,"Panel":6412,"Ġep":6413,"Ġimplements":6414,"Selection":6415,"Ġexports":6416,"ĠCode":6417,"Ġjavax":6418,"Adapter":6419,"ĠGaussian":6420,"tailed":6421,"install":6422,"Own":6423,"SM":6424,"imum":6425,")},":6426,"ĠGroup":6427,"Mar":6428,"Att":6429,"Ġforms":6430,"joint":6431,"when":6432,"bers":6433,"random":6434,"iders":6435,"bum":6436,"UTF":6437,"omorphic":6438,"oltip":6439,"ifdef":6440,"AAAA":6441,"urnal":6442,"Ġprogress":6443,"Theorem":6444,"\\{\\":6445,"hing":6446,"olec":6447,"Ġyields":6448,"ĠSO":6449,"Ġpolit":6450,"XML":6451,"pecially":6452,"Ġstra":6453,"Ġreduce":6454,"ĠExt":6455,"Ġcountry":6456,"Opt":6457,"Ġmapping":6458,"idx":6459,"]:":6460,"ĠOther":6461,"Ġcharg":6462,"iency":6463,"Socket":6464,"ĠUpdate":6465,"Memory":6466,"ĠVersion":6467,"Ġessential":6468,"berg":6469,"lias":6470,"ills":6471,"editor":6472,"Ġslight":6473,"nil":6474,"ĉĉĉĊ":6475,"Ġdet":6476,"iverse":6477,"Identifier":6478,"bal":6479,"ĠWindow":6480,"riteria":6481,"reset":6482,"Ġcause":6483,"erve":6484,"hout":6485,"Ġmodified":6486,"Ġbal":6487,"ulk":6488,"Ġseason":6489,"$;":6490,"Ġnamed":6491,"WA":6492,"hide":6493,"SER":6494,"Ġrates":6495,"Ġfoot":6496,"Ġindicates":6497,"Gr":6498,"Ġcorrel":6499,"Ġcontrast":6500,"ney":6501,"Ġusually":6502,"ĠHamiltonian":6503,"Ġmeasurement":6504,"eder":6505,"Ġopts":6506,"eries":6507,"alg":6508,"Ġicon":6509,"Ġbuilder":6510,"slice":6511,"abbr":6512,"dash":6513,"Ġinteractions":6514,"Ġvectors":6515,"Ġexperience":6516,"Ġasymptot":6517,"Sync":6518,"scill":6519,"ĠStates":6520,"ĠIOException":6521,"gle":6522,"ĠMc":6523,"shadow":6524,"ains":6525,"proposition":6526,"contrib":6527,"itable":6528,"libr":6529,"spring":6530,"ilibri":6531,"Ġmet":6532,"TEXT":6533,"Ġdebug":6534,"nections":6535,"RAN":6536,"Step":6537,"ifications":6538,"anning":6539,"Ġgreater":6540,"Ġdiagram":6541,"Ġhel":6542,"Compar":6543,"Ġissues":6544,"Ġstable":6545,"site":6546,"Fix":6547,"ĠYork":6548,"lers":6549,"loyment":6550,"ae":6551,"gments":6552,"STAT":6553,",$":6554,"security":6555,"ao":6556,"}}^{":6557,"ober":6558,"&=&":6559,"What":6560,"Ġcontroller":6561,"iques":6562,"Ġbranch":6563,"STATE":6564,"ĠPublic":6565,"oman":6566,"asets":6567,">::":6568,"Ġconclude":6569,"Main":6570,"Ġsignificantly":6571,"blockList":6572,"ĠAL":6573,"Ġdimensions":6574,"lax":6575,"diag":6576,"81":6577,"Ġunits":6578,"Ġmut":6579,"Global":6580,"nowled":6581,"ONE":6582,"'])":6583,"redential":6584,"ndef":6585,"Ġobserve":6586,"aration":6587,"Ġblocks":6588,"ensive":6589,"ĠBr":6590,"Ġremaining":6591,"conv":6592,"Full":6593,"ĠIntern":6594,"ancy":6595,"two":6596,"tools":6597,"Ġtmp":6598,"Ġformer":6599,"Ġapproaches":6600,"prev":6601,"ROM":6602,"Ġscattering":6603,"Ġexistence":6604,"Term":6605,"Ð»":6606,"Ġestimates":6607,"ĠÎ":6608,"Ġproduced":6609,"covery":6610,"Ġgalaxy":6611,"Ġentity":6612,"manager":6613,"displaystyle":6614,"Ġround":6615,"stable":6616,"Ġnative":6617,"profile":6618,"ridge":6619,"home":6620,"Ġ>>>":6621,"Ġ[[":6622,"Ġlimited":6623,"Ġadopt":6624,"('.":6625,"2002":6626,"Ġpressure":6627,"uit":6628,"Ġvisible":6629,"ni":6630,"uming":6631,"symbol":6632,"eli":6633,"Headers":6634,"aved":6635,"Ġretr":6636,"iles":6637,"Ġactions":6638,"Ġcamp":6639,"Ġestimated":6640,"Ġbrowser":6641,"Ġgoal":6642,"Ġmasses":6643,"Ġenabled":6644,"Ġwalk":6645,"components":6646,"Ġtab":6647,"Ġefficient":6648,"Ġemail":6649,"Ġoccur":6650,"Ġassumed":6651,"Ġmed":6652,"Named":6653,"fi":6654,"Ġbad":6655,"Enumer":6656,"fd":6657,"See":6658,"rad":6659,"ĠEqu":6660,"Ġdrop":6661,"master":6662,"ili":6663,"Ġbuilding":6664,"ĠHigh":6665,"Ġinvol":6666,"Conf":6667,"ALSE":6668,"Ġmicro":6669,"Det":6670,"ners":6671,"Ġthought":6672,"mediately":6673,"Ġorient":6674,"Errorf":6675,"Ġcosm":6676,"ĠAND":6677,"Ġ_.":6678,"Ġradio":6679,">\\":6680,"Ġgeometry":6681,"ĠAlso":6682,")[":6683,"AX":6684,"anger":6685,"Ġbits":6686,"NR":6687,"hest":6688,"resp":6689,"ById":6690,"Ġlistener":6691,"Double":6692,"cluster":6693,"FIG":6694,"bur":6695,"Ġ],":6696,"selector":6697,"apped":6698,"ĠOver":6699,"sys":6700,"Ġverify":6701,"screen":6702,"notes":6703,"OUT":6704,"Rad":6705,"alled":6706,"scriptor":6707,"mouse":6708,"Files":6709,"BOO":6710,"Ġcalculate":6711,"Ġexport":6712,"BUG":6713,"issions":6714,"Ġrotation":6715,"dp":6716,"cape":6717,"ĠTask":6718,"EventListener":6719,"Ġprops":6720,"Ġsave":6721,"ango":6722,"ĠAR":6723,"cember":6724,"variance":6725,"Browser":6726,"cccc":6727,"itute":6728,"isions":6729,"enabled":6730,"Ġplayer":6731,"READ":6732,"Ġpick":6733,"kens":6734,"Ġconsists":6735,"crypt":6736,"PU":6737,"Ġstrength":6738,"pass":6739,"errors":6740,"Ġmessages":6741,"protocol":6742,"Ġmetadata":6743,"ï¼":6744,"ĠWhile":6745,"drop":6746,"mix":6747,"Ġfmt":6748,"Ġsound":6749,"Ġappears":6750,"ifndef":6751,"ĠMarch":6752,"Activity":6753,"ened":6754,"ishing":6755,"Ġinsert":6756,"____":6757,"PA":6758,"Ġproduce":6759,"Ġanalog":6760,"filename":6761,"These":6762,"Ġpaths":6763,"Ġprogra":6764,"fg":6765,"ymmetric":6766,"ror":6767,"GC":6768,"browser":6769,"Ġbenef":6770,"Domain":6771,"FLA":6772,"Ġcolumns":6773,"$/":6774,"Ġconstants":6775,"Ġmatches":6776,"ĠRegister":6777,"Ġparticip":6778,"Sl":6779,"nn":6780,"Ġindu":6781,"imin":6782,"fixed":6783,"Ġsquare":6784,"mma":6785,"testing":6786,"TABLE":6787,"unn":6788,"}&":6789,"some":6790,"Ġoscill":6791,"Ġdiscussion":6792,"ĠĠĠĠĠĠĠĠĠĠĠĠĠĠĠĠĠĠĠĠĠĠĠĠĠĠ":6793,"=\"@":6794,"Ġreader":6795,"osity":6796,"Ġrec":6797,"Mapping":6798,"identifier":6799,"Proto":6800,"DL":6801,"Ġconvergence":6802,"Ġnotation":6803,"Ġrequests":6804,"Ġfib":6805,"roug":6806,"ilit":6807,"olic":6808,"ĠCity":6809,"Seg":6810,"iet":6811,"stats":6812,"------------":6813,"ĠSU":6814,"Ñĥ":6815,"HTTP":6816,"PATH":6817,"}{|":6818,"Ġgrowth":6819,"ĠWhat":6820,"Ġcontributions":6821,"ĠConfig":6822,"Ġmar":6823,"ĠHand":6824,"roughout":6825,"ĠEurope":6826,"Ġenable":6827,"large":6828,"Ġqual":6829,"Duration":6830,"tw":6831,"Ġentries":6832,"Ġgradient":6833,"vo":6834,"Ġrecently":6835,"%%%%":6836,"resolve":6837,"Ġcame":6838,"BE":6839,"lg":6840,"Ġunless":6841,"progress":6842,"Ġabstract":6843,"omy":6844,"ilibrium":6845,"family":6846,"Ġok":6847,"ĠĠĠĠĠĠĠĠĠĠĠĠĠĠĠĠĠĠĠĠĠĠĠĠĠĠĠĠĠ":6848,"Ġclassification":6849,"INS":6850,"unique":6851,"Ġespecially":6852,"Ġattention":6853,"IST":6854,"1999":6855,"elf":6856,"ament":6857,"ued":6858,"moz":6859,"ĠCopyright":6860,"Ġnothing":6861,"enced":6862,"Ġdynamic":6863,"Depend":6864,"Cap":6865,"Dest":6866,"tik":6867,"ĠBar":6868,"bsite":6869,"flu":6870,"wrapper":6871,"Ġdifferential":6872,"Ġpure":6873,"account":6874,"atalog":6875,"mass":6876,"pattern":6877,"Ġraw":6878,"Syntax":6879,"Ġunderlying":6880,"Ġdro":6881,"Ġmiddle":6882,"BP":6883,"Ġunknown":6884,"ĉĉĉĉĉĉĉĉĉ":6885,"Ġtowards":6886,"Ġauthors":6887,"Ġvisual":6888,"Ġ_,":6889,"Ġseems":6890,"ptember":6891,"URI":6892,"esian":6893,"Ġflat":6894,"iteral":6895,"timeout":6896,"}</":6897,"ĠHel":6898,"IND":6899,"Ġlayers":6900,"Ġrg":6901,"OB":6902,"Ġlive":6903,"NV":6904,"Ġextend":6905,"ĠOper":6906,"Ġproducts":6907,"Ġlabels":6908,"ĠMod":6909,"Ġoptimization":6910,"pkg":6911,"jquery":6912,"ipage":6913,"Ġoptical":6914,"Ġmillion":6915,"Ġlat":6916,"Ġdelay":6917,"Ġdevi":6918,"job":6919,":=":6920,"Ġmechanism":6921,"Ġflags":6922,")}_{":6923,"icture":6924,"ĠVer":6925,"Ġclusters":6926,"kw":6927,"Ġpromise":6928,"Ġbin":6929,"vc":6930,"ĠDr":6931,"inger":6932,"Ġcalculation":6933,"Ġscroll":6934,"minipage":6935,"getName":6936,"Man":6937,"urch":6938,"}}$,":6939,"ferences":6940,"cpp":6941,"Ġparallel":6942,"Constants":6943,"Ġwor":6944,")+\\":6945,"Generator":6946,"Ġwatch":6947,"Ġpreviously":6948,"Ġclick":6949,"Ġagent":6950,"uge":6951,"ĠUsing":6952,"flag":6953,"OL":6954,"Ġvol":6955,"elem":6956,"Ġskip":6957,"Ġselector":6958,"Limit":6959,"amental":6960,"-$":6961,"sample":6962,"Ġgeneration":6963,"headers":6964,"Ø§":6965,"ellow":6966,"iral":6967,"ĠField":6968,"Ġreplace":6969,"}$)":6970,"Ġstation":6971,"}}$.":6972,"ustral":6973,"ele":6974,"$),":6975,"lates":6976,"Ġlumin":6977,"})$,":6978,"aul":6979,"ille":6980,"Ġrisk":6981,"storage":6982,"echo":6983,"Hz":6984,"Ġgap":6985,"ius":6986,"endix":6987,"jpg":6988,"Ġoverall":6989,"Ġquick":6990,"Ġ{{":6991,"IMP":6992,"Ġprediction":6993,"git":6994,"ĠInteger":6995,"volume":6996,"Ġcalculations":6997,"ĠNumber":6998,"HR":6999,"Ġmissing":7000,"}({\\":7001,"nes":7002,"Ġnature":7003,"pay":7004,"Pop":7005,"TRUE":7006,"ifiers":7007,"Ġenh":7008,"Children":7009,"sy":7010,"Ġtimeout":7011,"Ġeffic":7012,"Ġcombination":7013,"|_{":7014,"loader":7015,"Ġmorph":7016,"Ġmachine":7017,"ĠEach":7018,"Ġdetailed":7019,"Ġcells":7020,"IV":7021,"','":7022,"icles":7023,"Ġneutr":7024,"Failed":7025,"Newton":7026,"Ġtrace":7027,"Ġmolec":7028,"names":7029,")\"":7030,"Ġinstances":7031,"Ġcoordinate":7032,"NT":7033,"Ġarticle":7034,"ĠView":7035,"ĠSouth":7036,"VALUE":7037,"ĠEl":7038,"MR":7039,"Ġrows":7040,"ibly":7041,"!<":7042,"selves":7043,"1998":7044,"enable":7045,"Ġreson":7046,"Pe":7047,"reet":7048,"Interval":7049,"Ã³":7050,"Ġimprove":7051,"Ġignore":7052,"Ġreve":7053,"arguments":7054,"Introduction":7055,"Ġfailure":7056,"ishes":7057,"ĠSto":7058,"Ġmarket":7059,"Ġbehavi":7060,"ĠNews":7061,"ua":7062,"WR":7063,"Ġidentify":7064,"Ġcontract":7065,"Ġcompletely":7066,"yg":7067,"Space":7068,"acro":7069,"Ġkin":7070,"ĠLa":7071,"Shared":7072,"Ġgets":7073,"bel":7074,"Ġshare":7075,"cial":7076,"Ġabsor":7077,"FS":7078,"rew":7079,"LOCK":7080,"done":7081,")->":7082,":}":7083,"Ġidentified":7084,"mazon":7085,"Ġinc":7086,"]}":7087,"Ġscaling":7088,"lege":7089,"Ġspan":7090,"Math":7091,"Ġalthough":7092,"EV":7093,"tikz":7094,"ĠJune":7095,"ĠMicrosoft":7096,"Scal":7097,"cong":7098,"green":7099,"Fn":7100,"Author":7101,"equence":7102,"Ġprocessing":7103,"Ġredshift":7104,"Ġwaves":7105,"Ġtalk":7106,"SV":7107,"Route":7108,"Ġ];":7109,"bad":7110,"Ġstudents":7111,"Ġlocated":7112,"ĠIE":7113,"Ġ\",":7114,"rb":7115,"Ġquadr":7116,"urations":7117,"ĠĠĠĠĠĠĠĠĠĠĠĠĠĠĠĠĠĠĠĠĠĠĠĠĠĠĠĠĠĠĠĠĠĠĠĠĠĠĠĠĠĠĠ":7118,"ĠSchool":7119,"bing":7120,"Ġ%}":7121,"Ġsizeof":7122,"iling":7123,"Mat":7124,"Ġstraight":7125,"Promise":7126,"circle":7127,"Ġimmediately":7128,"uest":7129,"Ġrecomm":7130,"Comment":7131,"ĠPres":7132,"Ġhot":7133,".'":7134,"Ġindicate":7135,")-\\":7136,"hi":7137,"leep":7138,"Ġmetal":7139,"Ġsituation":7140,"Ġagreement":7141,"invalid":7142,"Abstract":7143,"Ġguarant":7144,"called":7145,"groups":7146,"she":7147,"Ġgenerally":7148,"extern":7149,"Ġ$|\\":7150,"))$":7151,"ĠDec":7152,"======":7153,"ĠApril":7154,"Ġparam":7155,"Ġheaders":7156,"ĠĠĠĠĠĠĠĠĠĠĠĠĠĠĠĠĠĠĠĠĠĠĠĠĠĠĠĠ":7157,"precated":7158,"Trace":7159,"Common":7160,"Ġ\"-":7161,"Registry":7162,"assign":7163,"Ġdistinct":7164,"TIME":7165,"}{(":7166,"Ġui":7167,"![":7168,"constructor":7169,"PROC":7170,"erman":7171,"Ġactivity":7172,"configuration":7173,"Ġever":7174,"Ġsus":7175,"Ġecon":7176,"NOT":7177,":[":7178,"Ġ>>":7179,"Ġthing":7180,"Ġlove":7181,"tags":7182,"ACT":7183,"Ġtranslate":7184,"ĠFound":7185,"Ġanno":7186,"sat":7187,"Ġchart":7188,"Ġoccurs":7189,"Ġinfinite":7190,"Ġnotice":7191,"MT":7192,"ĠExp":7193,"Uri":7194,"LINE":7195,"uber":7196,"conn":7197,"Ġ{'":7198,"leton":7199,"anks":7200,"spe":7201,"Simple":7202,"ĠSQL":7203,"Ġem":7204,"Java":7205,"ĠWar":7206,"Ġfactory":7207,"ama":7208,"Progress":7209,"logger":7210,"Ġvary":7211,"Flow":7212,"Ġevidence":7213,"Expr":7214,"Ġhypot":7215,"Loc":7216,"Ġreceive":7217,"ogeneous":7218,"brid":7219,"ifically":7220,"Binary":7221,"Agent":7222,"Ġ\"<":7223,"eter":7224,"tabs":7225,"Ġpush":7226,"USE":7227,"Ġhole":7228,"ĠJava":7229,"phys":7230,"dialog":7231,"Ġexplicitly":7232,"ouch":7233,"ĠDist":7234,"Ġtook":7235,"ano":7236,"itional":7237,"enses":7238,"Role":7239,"Ġcircle":7240,"Ġ[\\":7241,"FC":7242,"checkbox":7243,"Ġtoday":7244,"Ġexit":7245,"Ġprof":7246,"Success":7247,"DOM":7248,"Ġnews":7249,"Ġadmin":7250,"ĠHash":7251,"mag":7252,"Pair":7253,"ĠNorth":7254,"ĠASS":7255,"ĠJuly":7256,"Ġfluctu":7257,"Ġformal":7258,"rift":7259,"Ġring":7260,"Ġenum":7261,"Ġobservation":7262,"Ġprefer":7263,"ĠOctober":7264,"etic":7265,"Ġscore":7266,"Symfony":7267,"ĠDecember":7268,"chor":7269,"ench":7270,"ography":7271,"(@":7272,"Ġreject":7273,"Endpoint":7274,"Ġbuf":7275,"fx":7276,"Ġtechniques":7277,"servable":7278,"Ġminimal":7279,"Ġeditor":7280,"shal":7281,"ĠResult":7282,"FUN":7283,"Ġxmlns":7284,"found":7285,"Ġbtn":7286,"Ġpy":7287,"Ġ).":7288,"protected":7289,"sequently":7290,"Ġrepresented":7291,"ynthe":7292,"Ġcompet":7293,"bt":7294,"Ġgeneric":7295,"FE":7296,"illa":7297,"NA":7298,"Ġhours":7299,"Ġdeath":7300,"Ġwallet":7301,"Ġfire":7302,"Ġinduced":7303,"rics":7304,"Ġimplemented":7305,"Ho":7306,"pu":7307,"otion":7308,"Therefore":7309,"throw":7310,"anti":7311,"ENSE":7312,"Single":7313,"execute":7314,"Ġ[\"":7315,"Ġdesired":7316,"Ġpassword":7317,"lict":7318,"Orig":7319,"details":7320,"spaces":7321,"REG":7322,"road":7323,"Ġ'';":7324,"parser":7325,"ingu":7326,"odes":7327,"ighest":7328,"ĠAugust":7329,"phan":7330,"Ġplugin":7331,"Ġhouse":7332,"Ġcla":7333,"rd":7334,"CESS":7335,"Ġcompan":7336,"Ġgames":7337,"Finally":7338,"contain":7339,"Ġdidn":7340,"grad":7341,"FL":7342,"Ġregime":7343,"ĠProject":7344,"Ġbey":7345,"Ġstrongly":7346,"Ġ\"$":7347,"Ġlargest":7348,"Ġmeaning":7349,"embed":7350,"ading":7351,"Ġcommit":7352,"lesssim":7353,"eness":7354,"checked":7355,"Ġ\\&":7356,"Delegate":7357,"views":7358,"Ġbeyond":7359,"ĠHTTP":7360,"extension":7361,"Ġdoing":7362,"constant":7363,"Ġdetected":7364,"Ġvalidation":7365,"peated":7366,"els":7367,"$_{":7368,"Resources":7369,"Ljava":7370,"Ġener":7371,"junit":7372,"Ġrestri":7373,"Ġautomatically":7374,"orest":7375,"################":7376,"nodes":7377,"ĠNovember":7378,"vention":7379,"\\;":7380,"Ġprojection":7381,"Ġinverse":7382,"Ġevaluate":7383,"Ġweights":7384,"uous":7385,"ĠUI":7386,"pair":7387,"Ġvs":7388,"^*$":7389,"iggs":7390,"Services":7391,"proxy":7392,"counter":7393,"Engine":7394,"Cor":7395,"Product":7396,"icator":7397,"Ġscenario":7398,"ĠSw":7399,"algorithm":7400,"omb":7401,"Ġtreatment":7402,"typen":7403,"Multi":7404,"Repository":7405,"150":7406,"Ġion":7407,"Ġresolve":7408,"Ġgraphs":7409,"ĠSeptember":7410,"builder":7411,"Ġforeach":7412,"Ġvo":7413,"Ġfo":7414,"\"/":7415,"Ġreduction":7416,"ĠMed":7417,"Ġduration":7418,"cref":7419,"Ġproxy":7420,"DateTime":7421,"ĠIndex":7422,"Ġfamil":7423,"Ġdecision":7424,"tc":7425,"bigl":7426,"3333":7427,"ĠCent":7428,"PUT":7429,"COMP":7430,"zure":7431,"Ġpublished":7432,"optional":7433,"opts":7434,"Ġscales":7435,"ria":7436,"Ġsignature":7437,"Ġ'\\":7438,"ĠDirect":7439,",\\,\\":7440,"ICE":7441,"Ġtrain":7442,"CI":7443,"external":7444,"Ġbundle":7445,"Ġcontained":7446,"ĠPath":7447,"platform":7448,"ief":7449,"ĠMax":7450,"Ġodd":7451,"Ġproto":7452,"osing":7453,"Ġlooking":7454,"/(":7455,"iversal":7456,"cus":7457,"Ġchunk":7458,"rams":7459,"Variable":7460,"Shape":7461,"Vertex":7462,"Ġexecution":7463,"ĠStart":7464,"typename":7465,"Ġcm":7466,"IPT":7467,"issues":7468,"Ġemer":7469,"Off":7470,"ĠRun":7471,"ãĢ":7472,"library":7473,"Ġawait":7474,"$:":7475,"Ġ([":7476,"ITION":7477,"Ġtheoretical":7478,"van":7479,"trace":7480,"Ġareas":7481,"ĠMa":7482,"ĠLib":7483,"HER":7484,"Ġmeasures":7485,"Ġmentioned":7486,"Ġparser":7487,"such":7488,"icket":7489,"Ġonto":7490,"ĠBoolean":7491,"Details":7492,"WORD":7493,"Ðº":7494,"Ġexhib":7495,"ĠFinally":7496,"rie":7497,"horizontal":7498,"ĠDOM":7499,"generated":7500,"emon":7501,"Ġclearly":7502,"Ġearlier":7503,"Ġlimits":7504,"Ġexcit":7505,"Selected":7506,"Mouse":7507,"Password":7508,"Word":7509,">:":7510,"ini":7511,"Ġphen":7512,"asons":7513,"ILE":7514,"Ġnucle":7515,"RES":7516,")}}":7517,"ĠMessage":7518,"Sort":7519,"Ġbeam":7520,"shall":7521,"ĠImage":7522,"latform":7523,"Ġtraject":7524,"Ġcli":7525,"DT":7526,"Ġreleased":7527,"tty":7528,"ĠWAR":7529,"120":7530,"gies":7531,"Ġslightly":7532,"ĠConst":7533,"ĠId":7534,"Ġconcent":7535,"Ġpseud":7536,"Ġsong":7537,"Ġfunctional":7538,"aign":7539,"activ":7540,"Db":7541,"Ġexam":7542,"plus":7543,"Ġfoc":7544,"ĠBrit":7545,"))\\":7546,"Ġcoefficient":7547,"Ġtradition":7548,"Ġentropy":7549,"Ġevaluation":7550,"DM":7551,"Ġhit":7552,"Ġdepending":7553,"Ġjoin":7554,"ĠBuild":7555,"Ġsections":7556,"ĠHow":7557,"Py":7558,"!!":7559,"Ġmenu":7560,"required":7561,"imitive":7562,"Ġtrip":7563,"ssible":7564,"[-":7565,"well":7566,"IVE":7567,"Ġchalleng":7568,"Ġliterature":7569,"ĠPe":7570,"Ġstored":7571,"Region":7572,"Ġexecute":7573,"Ġconcern":7574,"VM":7575,"rase":7576,"bigr":7577,"runtime":7578,"pool":7579,"bc":7580,"Ġruns":7581,".\");":7582,"Ġ{$":7583,"DP":7584,"ensed":7585,"Ġreset":7586,"Ġhighly":7587,"Ġrelationship":7588,"ĠValid":7589,"Ġperfect":7590,"Ġthick":7591,"Ġquot":7592,"jango":7593,"coq":7594,"Ġmixed":7595,"tor":7596,"Ġremark":7597,"High":7598,"Ġuncertainty":7599,"Pri":7600,"Sw":7601,"original":7602,"ĠRequest":7603,"single":7604,"Ġconstructed":7605,"Ġtor":7606,"ĠPost":7607,"hop":7608,"ris":7609,"Methods":7610,"Ã¤":7611,"Mask":7612,"ipher":7613,"async":7614,"abe":7615,"aching":7616,"umptions":7617,"ĠAc":7618,"Ġlemma":7619,"{%":7620,"TT":7621,"Native":7622,"LECT":7623,"Ġdatasets":7624,"loaded":7625,";\\;\\":7626,"integ":7627,"Ġdecomposition":7628,"Ġeffort":7629,"ises":7630,"Ġdiscrete":7631,"agr":7632,"****************************************************************":7633,"grade":7634,"ĠASSERT":7635,"Ġideal":7636,"Ġball":7637,"PER":7638,"ĠCollection":7639,"rier":7640,"functions":7641,"defer":7642,"intelli":7643,"Ġcomplexity":7644,"ĠHo":7645,"ĠCounty":7646,"utation":7647,"SSL":7648,"NavBarCell":7649,"Ġfollowed":7650,"Ġwomen":7651,"Ġthermal":7652,"Ġrelatively":7653,"Ġsaf":7654,"}})":7655,"FORM":7656,"Texture":7657,"Ġprobably":7658,"ollowing":7659,"Ġrespons":7660,"Ġut":7661,"intellij":7662,"INFO":7663,"BS":7664,"Ġconvex":7665,"Ġadding":7666,"Span":7667,"ĠBit":7668,"Gen":7669,"ico":7670,"avid":7671,"rial":7672,"Ġabs":7673,"Ġcancel":7674,"Ġextreme":7675,"bp":7676,"Ġdifferences":7677,"La":7678,"ĠBOOST":7679,"Ġtypical":7680,"Ġbos":7681,"Animation":7682,"Ñı":7683,"Ġarm":7684,"words":7685,"bruary":7686,"Ġboost":7687,"console":7688,"But":7689,"ADD":7690,"Ġpurpose":7691,"ĠAustral":7692,"ceptions":7693,"Ġcmd":7694,"ilities":7695,"enge":7696,"Ġexpand":7697,"Stats":7698,"themes":7699,"${\\":7700,"lia":7701,"__)":7702,"related":7703,"mann":7704,"forEach":7705,"Lower":7706,"icode":7707,"Ġways":7708,"Ġproport":7709,"Ġdenoted":7710,"pod":7711,"Ġlayout":7712,"Ġferm":7713,"}\\,\\":7714,"vised":7715,"prov":7716,"bu":7717,"ĠANY":7718,"WN":7719,"rons":7720,"href":7721,"gging":7722,"Ġgrant":7723,"uum":7724,"Pay":7725,"react":7726,"ilarly":7727,"Ġ{},":7728,"bot":7729,"Ġpractice":7730,"zy":7731,"Ġexchange":7732,"Ġdesigned":7733,"ĠSan":7734,"simple":7735,"sidebar":7736,"socket":7737,"brace":7738,"ĠResearch":7739,"assets":7740,"Ġadjust":7741,"IGHT":7742,"Upd":7743,"REE":7744,"Ġcycle":7745,"Ġtx":7746,"Ġbind":7747,"Ġisn":7748,"ĠHttp":7749,"vement":7750,"While":7751,".\",":7752,"Ġsimpl":7753,"clusions":7754,"mpt":7755,"ying":7756,"itz":7757,"Ġaim":7758,"REQ":7759,"Ġmetrics":7760,"FNGL":7761,"Ġdot":7762,"Ġtypedef":7763,"algebra":7764,"ĠIR":7765,"mical":7766,"Ġchannels":7767,"Ġ\\]":7768,"=\"\">":7769,"Ġindices":7770,"trim":7771,"Ġmen":7772,"Ġsolve":7773,"role":7774,"Ġroute":7775,"Ġschema":7776,"emit":7777,"CM":7778,"Ġhighlight":7779,"Newtonsoft":7780,"Ġnovel":7781,"upload":7782,"Bind":7783,"Ġadvant":7784,"Ġharmon":7785,"Î¿":7786,"METH":7787,"Ġ^{":7788,"Ġintegration":7789,",{\\":7790,"Ġda":7791,"phone":7792,"Ġdx":7793,"BO":7794,"ulator":7795,"uel":7796,"lower":7797,"Ġconsidering":7798,"have":7799,"destroy":7800,"resize":7801,"Ġcombined":7802,"Ġol":7803,"paragraph":7804,"pag":7805,"\"],":7806,"Ġquestions":7807,"Operator":7808,"plan":7809,"Ġplayers":7810,"supported":7811,"services":7812,"attle":7813,"ĠInc":7814,"sn":7815,"/***/":7816,"illing":7817,"achment":7818,"clone":7819,"Ġinject":7820,"'];":7821,"Ġsoft":7822,"FFFF":7823,"cluded":7824,"Ġgravit":7825,"Ign":7826,"setup":7827,"Ġexplain":7828,"bout":7829,"Ġproved":7830,"jQuery":7831,"spin":7832,"Category":7833,"Ġbehind":7834,"longrightarrow":7835,"ocr":7836,"Ġspecify":7837,"Some":7838,"Ġste":7839,"andra":7840,"ech":7841,"utive":7842,"avel":7843,"atomic":7844,"arc":7845,"åı":7846,"ubble":7847,"provider":7848,"ĠPark":7849,"gers":7850,"Ġmid":7851,"series":7852,"Ġrecall":7853,"clusive":7854,"clip":7855,"ĠLOG":7856,"jac":7857,"ĠMult":7858,"Find":7859,"orary":7860,"CRE":7861,"ĠMake":7862,"Clear":7863,"liance":7864,"Ġrobust":7865,"Ġsummary":7866,"strument":7867,"RT":7868,"()</":7869,"iting":7870,"driver":7871,"TestCase":7872,"]$.":7873,"radio":7874,"Ġsatisfying":7875,"ĠDet":7876,")}_":7877,"Ġanything":7878,"har":7879,"Ġacceler":7880,"\\}$.":7881,"elements":7882,"Ġmonths":7883,"oting":7884,"ĠXML":7885,"Ġpopular":7886,"Ġfundamental":7887,"elastic":7888,"shared":7889,"ĠWindows":7890,"Ġsupports":7891,"Ġyoung":7892,"Ġaspect":7893,"Ġrgba":7894,"han":7895,"Tx":7896,"How":7897,"Ġcreating":7898,"bd":7899,"MI":7900,"cknowled":7901,"lood":7902,"Ġcursor":7903,"Visible":7904,"uplic":7905,"Ġvariety":7906,"Ġjoint":7907,"-(":7908,"Ġmanager":7909,"reedom":7910,"stry":7911,"Ġanswer":7912,"etween":7913,",\\\\":7914,"clean":7915,"ĠFurthermore":7916,"Ġmodules":7917,"\\)":7918,"pull":7919,"Ġsec":7920,"ĠHar":7921,"Total":7922,"tained":7923,"tensor":7924,"Example":7925,"Ġpriv":7926,"resources":7927,"Ġstand":7928,"Ġdriver":7929,"Ġexpressed":7930,"Ġseparate":7931,"mathop":7932,"Pers":7933,"othing":7934,"mn":7935,"Ġpositions":7936,"ko":7937,"}[\\":7938,"Ġestablished":7939,"phase":7940,"ĠInput":7941,"month":7942,"INTER":7943,"Ġefficiency":7944,"@{":7945,"Ro":7946,"Ġreading":7947,"scss":7948,"dfrac":7949,"Ġeduc":7950,"Linq":7951,"Ġtypically":7952,"Ġax":7953,"Ġshowed":7954,"ĠNetwork":7955,"separ":7956,"verb":7957,"Ġconfigure":7958,"icks":7959,"Ġ/*!<":7960,"ateway":7961,"Ġ''":7962,"Ġgetting":7963,"References":7964,"kin":7965,"Ġ\"\",":7966,"Ġnight":7967,"Ġgoes":7968,"Ġund":7969,"ymmetry":7970,"ague":7971,"ÃŃ":7972,"Ġrepresentations":7973,"article":7974,"rab":7975,"ĠPH":7976,"POST":7977,"formance":7978,"Background":7979,"ĠNAME":7980,"ancial":7981,"resentation":7982,"Ġmanagement":7983,"ĠRemove":7984,"Ġinterpret":7985,"Ġmind":7986,"!\\":7987,"Ġdev":7988,"oked":7989,"tests":7990,"acket":7991,"})}":7992,"Ġdisabled":7993,"hl":7994,"akes":7995,"Ġsynchron":7996,"SK":7997,"ees":7998,"commit":7999,"Ġneighbor":8000,"Ġseconds":8001,"Ġcanonical":8002,"ĠHouse":8003,"Ġconven":8004,"inn":8005,"Ġinvolved":8006,"Ġmassive":8007,"aker":8008,"Ġreplaced":8009,"Ġvalidate":8010,"Ġobvious":8011,"Ġlif":8012,"formal":8013,"GN":8014,"Ġhighest":8015,"Î±":8016,"ondon":8017,"Ġlogger":8018,"mk":8019,"Ġbecame":8020,"isted":8021,"Constructor":8022,"ye":8023,"Sequence":8024,"Ġachieve":8025,"Move":8026,"Ġphenomen":8027,"stat":8028,"zip":8029,"Normal":8030,"ĠKe":8031,"gi":8032,"#{":8033,"Ġusual":8034,"Ġphysics":8035,"Gu":8036,"ĠFoundation":8037,"DEFAULT":8038,"ida":8039,"HS":8040,"usiness":8041,"Ġshowing":8042,"igration":8043,"feature":8044,"Nullable":8045,"Ġpool":8046,"Admin":8047,"helper":8048,"ĠLandroid":8049,"Ġopacity":8050,"ĠĠĠĠĠĠĠĠĠĠĠĠĠĠĠĠĠĠĠĠĠĠĠĠĠĠĠĠĠĠ":8051,"artment":8052,"ĠCa":8053,"Ġpred":8054,"itivity":8055,"Ġconj":8056,"Driver":8057,"Rev":8058,"Ġveh":8059,"Ġelectric":8060,"wp":8061,"Ġloaded":8062,"llegal":8063,"dere":8064,"Ġsql":8065,"Tags":8066,"veloper":8067,"arnings":8068,":`":8069,"iota":8070,"MODE":8071,"ĠGeneral":8072,"ĠLong":8073,"ki":8074,"Ġpatients":8075,"Ġflex":8076,"warning":8077,"ociation":8078,"eds":8079,"seq":8080,"Ġestimation":8081,"ĠOnly":8082,"Div":8083,"Ġsampling":8084,"Flag":8085,"METHOD":8086,"ĠConvert":8087,"CG":8088,"Ġwrong":8089,"ande":8090,"Ġreli":8091,"Ġouter":8092,"Ġrecur":8093,"collapse":8094,";}":8095,"duration":8096,"wt":8097,"Ġreferences":8098,"fc":8099,"OwnProperty":8100,"what":8101,"Private":8102,"emptyset":8103,"('#":8104,"itch":8105,"Ġvalign":8106,"yr":8107,"quant":8108,"Mer":8109,"ĠRel":8110,"('/":8111,"Ġdestroy":8112,"connected":8113,"Ġbatch":8114,"ĠResource":8115,"Ġestablish":8116,"ĠHealth":8117,"Diagnost":8118,"istics":8119,"aled":8120,"}~":8121,"ajax":8122,"Ġpull":8123,"Car":8124,"factory":8125,"Ġwall":8126,"]$,":8127,"TA":8128,"ĠFour":8129,"ĠExec":8130,"ĠCR":8131,"dig":8132,"ya":8133,"Ġexpressions":8134,"vature":8135,"Ġgreen":8136,"Ġimag":8137,"Ġalbum":8138,"ington":8139,"BIT":8140,"redentials":8141,"Pub":8142,"Ġprev":8143,"Ġsizes":8144,"rect":8145,"ĠScience":8146,"ĠSI":8147,"ĠTR":8148,"ĠKing":8149,"Required":8150,"Identity":8151,"Ġcapacity":8152,"irth":8153,"rg":8154,"Ġacqu":8155,"001":8156,"_);":8157,"Ġlicense":8158,"Ġneural":8159,"Ġanimation":8160,"correct":8161,"}}.":8162,"Ġbeginning":8163,"icies":8164,"Ġbias":8165,"elect":8166,"Ġthroughout":8167,"Mess":8168,"Ġago":8169,"jar":8170,"(/":8171,"fmt":8172,"GLE":8173,"}}_{\\":8174,"()))":8175,"assembly":8176,"ĠMem":8177,"ORTED":8178,"Ġnor":8179,"Axis":8180,"$};":8181,"Year":8182,"Ġwebsite":8183,"}_{-":8184,"Ġruntime":8185,"pto":8186,"ĠAny":8187,"ĠPRO":8188,"Ġtouch":8189,"Ġwriter":8190,"Ġinputs":8191,"urable":8192,"Ġmaster":8193,"Ġincreased":8194,"ĠOf":8195,"animation":8196,"ĠEnglish":8197,"Ġtrained":8198,"username":8199,"Ġready":8200,"compare":8201,"ji":8202,"iring":8203,"})=":8204,"Ġâ":8205,"Ġroom":8206,"istence":8207,"Ġenv":8208,"History":8209,"rank":8210,">;":8211,"tk":8212,"Ġability":8213,"inherit":8214,"Ġlack":8215,"sig":8216,"Fin":8217,"ummy":8218,"parallel":8219,"Ġcomments":8220,"irror":8221,"ĠSche":8222,"video":8223,"trivial":8224,"Ġapplying":8225,"ĠAction":8226,"upd":8227,"ĠClo":8228,"Ġsil":8229,"DEF":8230,"cluding":8231,"sa":8232,"lings":8233,"Ġeng":8234,"ĠAppendix":8235,"Ġmoving":8236,"ationToken":8237,"sb":8238,"glyph":8239,"yy":8240,"respon":8241,"scriptsize":8242,"route":8243,"Ġsummar":8244,"ĠEar":8245,"?>":8246,"km":8247,"ĠIsl":8248,"general":8249,"tiny":8250,"ĠAir":8251,"Summary":8252,"Ġdevices":8253,"triangle":8254,"className":8255,"ena":8256,"Ġvariation":8257,"Ġcoming":8258,"validate":8259,"structions":8260,"ĠFebruary":8261,"Require":8262,"Align":8263,"CHAR":8264,"Ġalternative":8265,"once":8266,"ASSERT":8267,"hemat":8268,"Ġhol":8269,"CALL":8270,"******":8271,"sync":8272,"Ġdegrees":8273,"Fl":8274,"ĠExample":8275,"endor":8276,"Ġtools":8277,"Ġmodul":8278,"áĥ":8279,"Ġprice":8280,"Ġequilibrium":8281,"Join":8282,"Area":8283,"']['":8284,"Ġfriend":8285,"displayName":8286,"Ġdiagonal":8287,"ctr":8288,"ĠArg":8289,"Ġhydro":8290,"=\"${":8291,"\"},":8292,"transp":8293,"ipp":8294,"ensities":8295,"ĠCour":8296,"Ġstatistical":8297,"Ġexc":8298,"Ġsufficiently":8299,"vee":8300,"Ġbring":8301,"Ġ?>":8302,"Ġapplicable":8303,"Basic":8304,"Ġbulk":8305,"Ġrepro":8306,"acle":8307,"Sch":8308,"Ġgenerator":8309,"unced":8310,"icated":8311,"ifferent":8312,"ĠSm":8313,"Ids":8314,"createElement":8315,"Ġbelieve":8316,"merge":8317,"Ġcru":8318,"Ġpredicted":8319,"ĠOff":8320,"Ġanti":8321,"ĠassertThat":8322,"Validation":8323,"Ġopportun":8324,"tfrac":8325,"olar":8326,"trl":8327,"apis":8328,"})^":8329,"Ġ..":8330,"Ġwar":8331,"Ġremote":8332,"login":8333,"irmed":8334,"Ġbright":8335,"Ġsqu":8336,"|}{":8337,"Serializer":8338,"Wait":8339,"Sql":8340,"Ġleave":8341,"Ġcompleted":8342,"Ġconversion":8343,"bras":8344,"ĠĠĠĠĠĠĠĠĠĠĠĠĠĠĠĠĊ":8345,"Ġcontents":8346,"selection":8347,"tbody":8348,"slash":8349,"ologies":8350,"Ġintr":8351,"NC":8352,"ĠSets":8353,"ĠLocal":8354,"ssl":8355,"Support":8356,"Public":8357,"jet":8358,"Ġdust":8359,"ĠJust":8360,"Ġaggreg":8361,"ĠGreen":8362,"QU":8363,"iece":8364,"(\"/":8365,"Ġspecies":8366,"ford":8367,"Proof":8368,"seconds":8369,"Ġusage":8370,"Ġirre":8371,"Ġcommunication":8372,"Ġcalling":8373,"Ġsubgroup":8374,"Make":8375,"$&":8376,"ĠWrite":8377,"Ġpersonal":8378,"Ġnp":8379,"Ġfine":8380,"np":8381,"Ġowner":8382,"lications":8383,"'ll":8384,"phere":8385,"\\/":8386,"Ġmanifold":8387,"bmatrix":8388,"Ġanim":8389,"Effect":8390,"changed":8391,"PY":8392,"flat":8393,"users":8394,"Ġcandidate":8395,"DEBUG":8396,"Ġarchitecture":8397,"ANT":8398,"herited":8399,"ducer":8400,"180":8401,"Ġpi":8402,"Ġcast":8403,"ĠSM":8404,"za":8405,"Ġheavy":8406,"Ġtechnology":8407,"ĠHis":8408,"verter":8409,"apes":8410,"Ġmerge":8411,"Ġmaximal":8412,"ĠOptional":8413,"Ġrecords":8414,"urred":8415,"LR":8416,"Ġtranslation":8417,"servation":8418,"Ġsequences":8419,",...":8420,"origin":8421,"ĉĠĠ":8422,"DATA":8423,"Ġprecision":8424,"Ġip":8425,"eth":8426,"Ġtechnique":8427,"Ġsemi":8428,"ĠLie":8429,"Ġwind":8430,"Ġasymptotic":8431,"Ġsafe":8432,"Ġversions":8433,"compiler":8434,"Ġ=========":8435,"Ġheld":8436,"ĠCenter":8437,"sphere":8438,"actor":8439,"met":8440,"Ġpredictions":8441,"Ġembedding":8442,"power":8443,"Other":8444,"phot":8445,"amaz":8446,"Ġ{\"":8447,"nov":8448,"Returns":8449,"Ag":8450,"Strategy":8451,"Ġcard":8452,"square":8453,"ĠUK":8454,"ĠDel":8455,"ĠAS":8456,"Ġparticularly":8457,"quote":8458,"Ġenergies":8459,"ĠSoftware":8460,"vertical":8461,"visible":8462,"icip":8463,"Ġderivative":8464,"Renderer":8465,"Transport":8466,"redit":8467,"ĠCOVID":8468,"ming":8469,"tsd":8470,"ĠChe":8471,"Ġ'',":8472,"bg":8473,"LOC":8474,"1997":8475,"Ġachieved":8476,"springframework":8477,"<!":8478,"dc":8479,"Ġdisp":8480,"MODU":8481,"docker":8482,"Language":8483,"ĠDim":8484,"MODULE":8485,"Ġlatest":8486,"Ġnormalized":8487,"Ġsys":8488,"Ġfragment":8489,"+(":8490,"Ġwent":8491,"ĠDO":8492,"ups":8493,"VALID":8494,"fire":8495,"fold":8496,"~~~~~~~~":8497,"Ġlost":8498,"ĠMat":8499,"Ġten":8500,"Ġtrivial":8501,"ĠDir":8502,"Ġcomposition":8503,"ael":8504,"Ġprinciple":8505,"Cho":8506,"Player":8507,"rev":8508,"Ġassumptions":8509,"Library":8510,"rapped":8511,"Ġkm":8512,"Ġindeed":8513,"slant":8514,"gebras":8515,"Ġsatisfied":8516,"unce":8517,"irus":8518,"SG":8519,"Ġabund":8520,"Short":8521,"]))":8522,"Phys":8523,"there":8524,"Ġisol":8525,"('./":8526,"Conn":8527,"Ġtravel":8528,"omite":8529,"ette":8530,"Ġapproximately":8531,"Ġul":8532,"Ġrepresenting":8533,"orizon":8534,"ĠAre":8535,"objects":8536,"Rec":8537,"ura":8538,"ĠVis":8539,"uv":8540,"ĠDon":8541,";\">":8542,"Ġstability":8543,"Google":8544,"800":8545,"ArgumentException":8546,"multirow":8547,"getValue":8548,"Audio":8549,"Ġ---":8550,"Notification":8551,"going":8552,"cline":8553,"Addr":8554,"Ġunderstanding":8555,"Ġlocally":8556,"Ġmodify":8557,"Ġmoney":8558,"ĠCreates":8559,"110":8560,"BB":8561,"Ġeverything":8562,"STRING":8563,"ership":8564,"Ġshock":8565,"}}^{\\":8566,"Analysis":8567,"corded":8568,"disable":8569,"}))":8570,"Ġstri":8571,"ĠAfr":8572,"ĠHer":8573,"Ġwhereas":8574,"Convert":8575,">'":8576,"Report":8577,"Ġofficial":8578,"|}":8579,"lementation":8580,"ÏĦ":8581,"negative":8582,"Ġfair":8583,"ĠPort":8584,"Ġwidget":8585,"manif":8586,"ĠBay":8587,"compile":8588,"watch":8589,"omitempty":8590,"convert":8591,"vol":8592,"Ġsector":8593,"Ġendpoint":8594,"Ġcop":8595,"ĠGiven":8596,"=[":8597,"Sharp":8598,"Ġ×":8599,"ĠArrayList":8600,"ĠParameter":8601,"Ġattempt":8602,"sem":8603,"illed":8604,"Ġluminosity":8605,"DIS":8606,"Ġcharset":8607,"Pass":8608,"scriptstyle":8609,"Ġiteration":8610,"mutable":8611,"ĠVector":8612,"loading":8613,"angian":8614,"neut":8615,"ĠGeV":8616,"operation":8617,"Ġcyc":8618,"ĠPromise":8619,"ĠSV":8620,"Ġdemand":8621,"Unknown":8622,"fully":8623,"ĠProperty":8624,"owner":8625,"uncil":8626,"Ġnamely":8627,"ĠBlack":8628,"Ġnavigation":8629,"Ġradiation":8630,"Ġphoton":8631,"Ġconsequence":8632,"Ġderive":8633,"itions":8634,"Ġrapid":8635,"Ġstatistics":8636,"Ġstarts":8637,"variable":8638,"Ġradial":8639,"\\}\\":8640,"Ġtown":8641,"corpor":8642,"Ġhope":8643,"ky":8644,"Allow":8645,"RAY":8646,"Ġ\\(\\":8647,"Complete":8648,"Ġrecover":8649,"anging":8650,"Fragment":8651,"Ġcharacteristic":8652,"Lemma":8653,"dereq":8654,"ĠBlock":8655,"Ġtax":8656,"basic":8657,"policy":8658,"Ġpages":8659,"Failure":8660,"Ġbrief":8661,"BY":8662,"Ġprovider":8663,"Ġminutes":8664,"lets":8665,"ĠMock":8666,"Ġcamera":8667,"figures":8668,"world":8669,"Should":8670,"ĠTemp":8671,"Ġfood":8672,"Ġdialog":8673,"cribe":8674,"ĠTrump":8675,"Ġaudio":8676,"FFER":8677,"ĠAccording":8678,"Help":8679,"moment":8680,"python":8681,"ociety":8682,"hook":8683,"MIN":8684,"}}}\\":8685,"hold":8686,"Ġelli":8687,"netes":8688,"UD":8689,"ĠDat":8690,"Ġpatterns":8691,"ubernetes":8692,"Ġsuitable":8693,".<":8694,"UES":8695,"Ġ}}":8696,"Ġnonlinear":8697,"Ġdocumentation":8698,"kes":8699,"Ġtrying":8700,"Ġ({\\":8701,"Edge":8702,"Skip":8703,"Border":8704,"Ġcoun":8705,"addClass":8706,"CB":8707,"Ġled":8708,"=\"$":8709,"ja":8710,"ĠMich":8711,"NET":8712,"getElement":8713,"Throw":8714,"icensed":8715,"colLast":8716,"Ġ$,":8717,"ANCE":8718,"istr":8719,"GER":8720,"1996":8721,"eto":8722,"ATTR":8723,"finite":8724,"Ġassigned":8725,"^{*":8726,"Ġamb":8727,"][]{":8728,"Ġbehaviour":8729,"Ġindustry":8730,"Batch":8731,"Ġvariance":8732,"heta":8733,"Ġcomputer":8734,"wd":8735,"Ġdiver":8736,"ycle":8737,"Ġshell":8738,"}}=":8739,"ĠHiggs":8740,"'ve":8741,"amazon":8742,"Binding":8743,"Ġdefines":8744,"ĠLine":8745,"Html":8746,"rained":8747,"Ġemit":8748,"scape":8749,"columnwidth":8750,"Ġbench":8751,"Execution":8752,"ierarchy":8753,"fly":8754,"Ġgravity":8755,"Ġheart":8756,"Ġsurvey":8757,"standard":8758,"Ġdynamical":8759,"^{(\\":8760,"INSERT":8761,"Ġproviding":8762,"Ġspher":8763,"vertex":8764,"ATCH":8765,"Ġcoinc":8766,"CONT":8767,"accept":8768,"Ġaccurate":8769,"asy":8770,"Ġiterator":8771,"istency":8772,"Two":8773,"Ġaver":8774,"Given":8775,"Ġ@\"":8776,"xs":8777,"Ġworth":8778,"She":8779,"copic":8780,"isEmpty":8781,"Ġreadonly":8782,"Generated":8783,"ptic":8784,"125":8785,"Ġenumer":8786,"Ġproceed":8787,"ti":8788,"colFirst":8789,"Ġrat":8790,"ĠLondon":8791,"ĠZend":8792,"extra":8793,"lated":8794,"ito":8795,">)":8796,"Ġenter":8797,"ĠProcess":8798,"signature":8799,"ĠMag":8800,"oration":8801,"ÐµÐ":8802,"Ġ-=":8803,"Ġdoub":8804,"ARB":8805,"Rows":8806,"Ġ\\!":8807,"care":8808,"poses":8809,"Ã¼":8810,"mean":8811,"dk":8812,"Ġ}{":8813,"NSString":8814,"Ġspread":8815,"Ġconnections":8816,"Ġtail":8817,"Ġdimensional":8818,"%,":8819,"Ġorth":8820,"vart":8821,"250":8822,"pective":8823,"Ġintersection":8824,"bib":8825,"Append":8826,"cursor":8827,"Ġcool":8828,"Video":8829,"Ġrelax":8830,"IDTH":8831,"actic":8832,"ĠIndeed":8833,"acebook":8834,"Ġ'.":8835,"ĠLL":8836,"Ġreserved":8837,"ĉčĊ":8838,"Hence":8839,"TF":8840,"Ġbinding":8841,"placement":8842,"Ġseem":8843,"ĠTechn":8844,"Ġ\"%":8845,"Ġdict":8846,"=.":8847,"analy":8848,"ski":8849,"Ġcomputing":8850,"Ġcaused":8851,"Ġcorrections":8852,"acc":8853,"Env":8854,"Ġ\"\";":8855,"ãĢĤ":8856,"Ġtopological":8857,"Ġheat":8858,"']);":8859,"pear":8860,"Ġdiscover":8861,"Compiler":8862,"Ġtold":8863,"maven":8864,"fast":8865,"Ġmouse":8866,"alias":8867,"Ġdistingu":8868,"ĠAmerica":8869,")&":8870,"Ġsoon":8871,"Annotation":8872,"methods":8873,"states":8874,"hol":8875,"ĠDem":8876,"Ġfinding":8877,"Ġdashed":8878,"irections":8879,"concat":8880,"avelength":8881,"Enter":8882,"Ġsuccessfully":8883,"munity":8884,"Ġgeneralized":8885,"elihood":8886,"will":8887,"ĠTop":8888,"lan":8889,"\\}$,":8890,"Ġthemselves":8891,"Ġplease":8892,"memory":8893,"LOW":8894,"arith":8895,"}|\\":8896,"Ġparty":8897,"InputStream":8898,"itative":8899,"Ġdense":8900,"USER":8901,"åĪ":8902,"Ġjs":8903,"velopment":8904,"Sample":8905,"ORY":8906,"Ġ'%":8907,"Raw":8908,"Loop":8909,"ĠEast":8910,"Ġscene":8911,"canvas":8912,"expand":8913,"Ġjump":8914,"roy":8915,"Observer":8916,"Ġinfluence":8917,"Ġinterested":8918,"Free":8919,"ĠFROM":8920,"Ġcb":8921,"Ġfluid":8922,"(.":8923,"ropic":8924,"deep":8925,"Save":8926,"Ġquasi":8927,"Ġnational":8928,"ĠPresident":8929,"ĠElement":8930,"pres":8931,"Home":8932,"poch":8933,"000000":8934,"ĠJap":8935,"sass":8936,"ĠWARRAN":8937,"ĠInternational":8938,"Consider":8939,"Idx":8940,"]{\\":8941,"mob":8942,"relative":8943,"anned":8944,"/{":8945,"ĠAlthough":8946,"Cursor":8947,"ATED":8948,"ĠBig":8949,"Ġdestination":8950,"Ġsync":8951,"Ġnearly":8952,"Ġcodes":8953,"Ġupdates":8954,"LY":8955,"flex":8956,"\"><!--":8957,"ĠUN":8958,")})":8959,"tan":8960,"ĠCH":8961,"Arguments":8962,"Ġevaluated":8963,"Ġpixels":8964,"requency":8965,"Cmd":8966,"Ġhappen":8967,"ĠAg":8968,"Bean":8969,"Ġmeet":8970,"measure":8971,"mf":8972,"GroupName":8973,"IAL":8974,"samp":8975,")--":8976,"CTYPE":8977,"Sur":8978,"las":8979,"available":8980,"ĠPFNGL":8981,"MAP":8982,"Ġpicture":8983,"rypto":8984,"ĠLaw":8985,"construction":8986,"isset":8987,"Mis":8988,"Multip":8989,"lig":8990,"highlight":8991,"subsec":8992,"Assign":8993,"ĠBack":8994,"oking":8995,"Ġdescriptor":8996,"Ġencode":8997,"ara":8998,"Environment":8999,"goog":9000,"Ġcurvature":9001,"Ġjet":9002,"ONG":9003,"agrangian":9004,"Install":9005,"Ġthank":9006,"\\%$":9007,"ĠSource":9008,"release":9009,"Errors":9010,"batch":9011,"ĠAm":9012,"Ġchecked":9013,"blank":9014,"]+":9015,"Objects":9016,"Acc":9017,"integer":9018,"Ġbur":9019,"Ġdt":9020,"BAR":9021,"Ġcreation":9022,"Ġpen":9023,"ultane":9024,"Ġfreedom":9025,"Plan":9026,"Ġprecisely":9027,"Ġtopic":9028,"'m":9029,"direction":9030,"Remote":9031,"Ġpropose":9032,"oted":9033,"even":9034,"boldmath":9035,"ĠApache":9036,"pf":9037,"aming":9038,"orient":9039,"Ġequality":9040,"ÑĮ":9041,"ĉĉĠĠĠ":9042,"ĠSE":9043,"ĠCSS":9044,"ĠImm":9045,"Ġresp":9046,"touch":9047,"rench":9048,"Focus":9049,"arios":9050,"Ġstrateg":9051,"Ġguide":9052,"Ġformed":9053,"game":9054,"ĠWIT":9055,"Ġisomorphism":9056,"CLASS":9057,"NotFound":9058,"Ġperiodic":9059,"vartheta":9060,"Ġmonitor":9061,"Ġmotiv":9062,")>":9063,"catch":9064,"pb":9065,"}$}":9066,"anchor":9067,"native":9068,"Ġplayed":9069,"front":9070,"Ġcompatible":9071,"Play":9072,"ĠOp":9073,"Ġcomputational":9074,"Same":9075,"cli":9076,"report":9077,"\"].":9078,"Ġsites":9079,"ELD":9080,"Ġrequirements":9081,"ogonal":9082,"Ġtags":9083,"Dom":9084,"Ġ\\\"":9085,"contents":9086,"specific":9087,"ĠĠčĊ":9088,"ruby":9089,"law":9090,"Ġ|=":9091,"bose":9092,"Ġrise":9093,"exit":9094,"Character":9095,"ĠĠĠĠĠĠĠĠĠĠĠĠĠĠĠĠĠĠĠĠĠĠĠĠĠĠĠĠĠĠĠĠĠ":9096,"ĠStud":9097,"Ġslo":9098,"medskip":9099,"tf":9100,"Ġann":9101,"ĠHAL":9102,"Ġ=======":9103,"ĠLink":9104,"Ġconvolution":9105,"Counter":9106,"Ġsymp":9107,"Ġmd":9108,"ran":9109,"Enumerable":9110,"localhost":9111,"Timer":9112,"Ġstat":9113,"Ġgain":9114,"intro":9115,"SF":9116,"unct":9117,"expression":9118,"ĠPage":9119,"lik":9120,"coup":9121,"Ġnullptr":9122,"udget":9123,"ĠTV":9124,"Ġfluctuations":9125,"Ġsignals":9126,"plane":9127,"Ġult":9128,"Ġquantity":9129,"equations":9130,"Ġobjective":9131,"calcul":9132,"Ġinstalled":9133,"ĠCustom":9134,"ĠSur":9135,"Ġquantities":9136,"Ġtheories":9137,"ryption":9138,"Ġtrade":9139,"Folder":9140,"Validator":9141,":=\\":9142,"Ġconfigurations":9143,"kt":9144,"»¿":9145,"anaged":9146,"Ñĭ":9147,"Ġzone":9148,"Ġapproximate":9149,"Cloud":9150,"println":9151,"erry":9152,"Ġdependent":9153,"abeled":9154,"pointer":9155,"Ġ'\"":9156,"ferred":9157,"ASE":9158,"EEEE":9159,"ducible":9160,"ĠJS":9161,"ĠClient":9162,"ï»¿":9163,"ĠPhil":9164,"rv":9165,"ĠAut":9166,"strings":9167,"Ġstoch":9168,"Ġdefinitions":9169,"pending":9170,"Resolver":9171,"ivery":9172,"ĠIter":9173,"Bounds":9174,"Ms":9175,"ita":9176,"Mapper":9177,"ancell":9178,"Ġ\\,\\":9179,"Constant":9180,"cancel":9181,"chunk":9182,"Ġarriv":9183,"Îµ":9184,"uffers":9185,"Ġidentifier":9186,"ä»":9187,"ctrine":9188,"Connect":9189,"Ġgiving":9190,"SELECT":9191,"Groups":9192,"Members":9193,"=}":9194,"600":9195,"Î¹":9196,"BL":9197,"IOException":9198,"DOCTYPE":9199,"asis":9200,"Email":9201,"Ġsb":9202,"Ġexplan":9203,"Ġconfirm":9204,"Ġdescribes":9205,"Ġequip":9206,"ĠFind":9207,"Ġwire":9208,"Bal":9209,"ĠShow":9210,"semble":9211,"dynamic":9212,"ordinate":9213,"ĠDocument":9214,"ĠStatus":9215,"ÐµÐ½":9216,"rated":9217,"ĠPoint":9218,"popup":9219,"Ġinvestigate":9220,"ĠSuch":9221,"Ġassuming":9222,"Watch":9223,"Ġprime":9224,"Static":9225,"Ġdie":9226,"ĠPri":9227,"Ġidx":9228,"Ġreached":9229,"lipse":9230,"elt":9231,"interval":9232,"Ġhorizontal":9233,"101":9234,"agnetic":9235,"sep":9236,"ĠSum":9237,"Expected":9238,"wall":9239,"Ġidentical":9240,"Begin":9241,"repeat":9242,"1995":9243,"BUFFER":9244,"VAR":9245,"Ġpoly":9246,"Ġdetector":9247,"()),":9248,"Ġspac":9249,"Book":9250,"roke":9251,"Ġconn":9252,"ĠSelect":9253,"adv":9254,"Ġlisted":9255,"toBe":9256,"herent":9257,"Ġbug":9258,"Ġcorrection":9259,"Warning":9260,"Ġcommut":9261,"Ġviews":9262,"mathit":9263,"zen":9264,"Screen":9265,"Suppose":9266,"ĠAmazon":9267,"constraint":9268,"ĠPaul":9269,"Ġcancell":9270,"grav":9271,"Ġassembly":9272,"cross":9273,"SCR":9274,"Ġrough":9275,"Ġwarning":9276,"Ġsurv":9277,"Ġinteract":9278,"ĠGod":9279,"mac":9280,"Stop":9281,"Emit":9282,"Ġpermissions":9283,"Encoding":9284,"Metrics":9285,"Ġdead":9286,"1994":9287,"Arch":9288,"=$":9289,"Ġdelta":9290,"Zone":9291,"Ġdam":9292,"DEX":9293,"yal":9294,"ilbert":9295,"loss":9296,"collect":9297,"Ġhypothesis":9298,"ðŁ":9299,";)":9300,"Usage":9301,"navList":9302,"ignore":9303,"aste":9304,"haps":9305,"ĠYour":9306,"hpp":9307,"rece":9308,"textcolor":9309,"ï¼Į":9310,"tikzpicture":9311,"aily":9312,"agent":9313,"Ġcombin":9314,"parts":9315,"Ġmedium":9316,"OPT":9317,"assertTrue":9318,".$$":9319,"Ġhistor":9320,"Activ":9321,"uning":9322,"~(\\":9323,"Ġclock":9324,"ani":9325,"rtl":9326,"Xi":9327,"ĠDay":9328,"^*(":9329,"Ġequivalence":9330,"Ġfi":9331,"Ġplus":9332,"Ġpolitical":9333,"hard":9334,"eval":9335,"Thelia":9336,"Ġclone":9337,"WIN":9338,"Ġstay":9339,"Ġadvantage":9340,"Ġ\".":9341,"dispatch":9342,"\\|\\":9343,"PM":9344,"period":9345,"Dependency":9346,"Insert":9347,"EXPORT":9348,"ĠMedia":9349,"Ġrequested":9350,"Contains":9351,"Ġtd":9352,"goto":9353,"Alloc":9354,"Ġens":9355,"oser":9356,"fol":9357,"serve":9358,"Ġtermin":9359,"Messages":9360,"phantom":9361,"Nd":9362,"ĠINTO":9363,"Ġcompanies":9364,"insic":9365,"}{*":9366,"sequent":9367,"Ġnuclear":9368,"ĠWilli":9369,"Ġ,\\":9370,"Real":9371,"Ġoccup":9372,"ĠColor":9373,"Month":9374,"ancer":9375,"oph":9376,"outer":9377,"artesian":9378,"Ġdise":9379,"Bool":9380,"Ġintensity":9381,"wild":9382,"ĠPDF":9383,"Ġexplained":9384,"ĠAT":9385,"Ġvacuum":9386,"allclasses":9387,"database":9388,"riend":9389,"Ġperturbation":9390,"wood":9391,"isot":9392,"rian":9393,"facebook":9394,"UND":9395,"toolbar":9396,"ĠPat":9397,"Pixel":9398,"Ġhalo":9399,"asm":9400,"maps":9401,"Ġglu":9402,"distribution":9403,"Ġgravitational":9404,"iii":9405,"HEAD":9406,"wave":9407,"Ġ----------------------------------------------------------------":9408,"Ġneutrino":9409,"Ang":9410,"FLAG":9411,"duled":9412,"Ġcategories":9413,"Ġprofiles":9414,"ĠSIZE":9415,"Ġdependencies":9416,"Ġreasons":9417,"ĠChina":9418,"Ġ```":9419,"ĠUtil":9420,"ĠBer":9421,"ĠGR":9422,"uages":9423,"Ġnoted":9424,"NUM":9425,"Ġmagnet":9426,"Ġdesp":9427,"Ġ\"'":9428,"Ġunion":9429,"inject":9430,"/\"":9431,"Bits":9432,"Ġstochastic":9433,"ogram":9434,"CONFIG":9435,"Ġtokens":9436,"aver":9437,"Ġforces":9438,"tics":9439,"gain":9440,"Ġfrag":9441,"Program":9442,"Ġsocket":9443,"Ġtrend":9444,"_)":9445,"remarks":9446,"decor":9447,"Rate":9448,"Ġresid":9449,".\"\"\"":9450,"download":9451,"ĠMer":9452,"Ġmodern":9453,"Ġcalib":9454,"ufact":9455,"IA":9456,"=\\\"":9457,"alog":9458,"player":9459,"Management":9460,"Ġintermediate":9461,"gre":9462,"Landroid":9463,"Bottom":9464,"asc":9465,"Ġphases":9466,"encode":9467,"Ġextensions":9468,"abc":9469,"GP":9470,"Ġenjo":9471,"isson":9472,"previous":9473,"comb":9474,"Ġeigenvalues":9475,"also":9476,"Î½":9477,"ĠMor":9478,"Ġimproved":9479,"iem":9480,"ager":9481,"Ġchanging":9482,"ĠÐ¿":9483,"ĠSecond":9484,"Timestamp":9485,"compute":9486,"ĠLeg":9487,"fff":9488,"Ġprojects":9489,"Ġmixing":9490,"Ġ$\\{\\":9491,"Ġexponential":9492,"riterion":9493,"ĠDB":9494,"Chunk":9495,"Segment":9496,"Columns":9497,"Ġloading":9498,"inity":9499,"Ġelection":9500,"hasOwnProperty":9501,"PHP":9502,"Ġgenerating":9503,"Ġcommands":9504,"havior":9505,"ĠDelete":9506,"complex":9507,"!]":9508,"RESULT":9509,"Chain":9510,"Ġphoto":9511,"Moreover":9512,"iming":9513,"ĠRet":9514,"Ġbaseline":9515,"loating":9516,"gather":9517,"validation":9518,"Virtual":9519,"ĠCollege":9520,"TY":9521,"ĠFOR":9522,"Ġcarry":9523,"HC":9524,"(\"%":9525,"Ð²":9526,"Mix":9527,".\\\\":9528,"Ġbegan":9529,"Ġpacket":9530,"Ġĉ":9531,"ĠAbstract":9532,"ĠHol":9533,"iar":9534,"ĠCEL":9535,"2022":9536,"ĠPhys":9537,"iforn":9538,"Day":9539,"thrift":9540,"Ġfeedback":9541,"AUT":9542,"Ġpatch":9543,"ĠSat":9544,"EEEEFF":9545,"Ġpayload":9546,"INST":9547,"footnotes":9548,"Ġtruth":9549,"Ġinitialize":9550,"ĠAssembly":9551,"alert":9552,"Ġdocuments":9553,"ny":9554,"room":9555,"Ġindicating":9556,"ĠParse":9557,"amo":9558,")^\\":9559,",.":9560,"Ġcorrectly":9561,"FIX":9562,"Ġorders":9563,"Ġsecret":9564,"ĠVALUES":9565,"Information":9566,"Ġsolar":9567,"ĠIndia":9568,"ĠNext":9569,"ĠFix":9570,"Ġlogic":9571,"ĠDefinition":9572,"(-\\":9573,"ĠUs":9574,"otic":9575,"fake":9576,"notag":9577,"Ġordered":9578,"^*\\":9579,"^^":9580,"utdown":9581,"Ġparame":9582,"ĠON":9583,"Users":9584,"assandra":9585,"Ã§":9586,"AST":9587,"ĠEND":9588,"Visual":9589,"Ġmoved":9590,"Ġimplicit":9591,"Ġpossibility":9592,"stackrel":9593,"Ġtraditional":9594,"Ġfails":9595,"Ġsuggests":9596,"Capture":9597,"ĠDavid":9598,"xhtml":9599,"Ġstress":9600,"ĠGra":9601,"FALSE":9602,"aur":9603,"alactic":9604,"kwargs":9605,"Ġfamilies":9606,"Ġhappens":9607,"ĠBritish":9608,"design":9609,"messages":9610,"Ġcampaign":9611,"thick":9612,"Declaration":9613,"submit":9614,"Points":9615,"MF":9616,"apers":9617,"Ġmaterials":9618,"Ġrational":9619,"ĠStreet":9620,"tp":9621,"spher":9622,"Ġoverflow":9623,"SW":9624,"Ġfavor":9625,"================================================================":9626,"ynthetic":9627,"çĶ":9628,"Ġsex":9629,"downarrow":9630,"delay":9631,"blob":9632,"ĠSimple":9633,"ĠDepartment":9634,"Canvas":9635,"Ġdeliver":9636,"ĠBecause":9637,"Ġdiagn":9638,",'":9639,"Ġcolors":9640,"Ġchemical":9641,"ORDER":9642,"Cancel":9643,"Ga":9644,"mous":9645,"Contact":9646,"Dynamic":9647,"columns":9648,"ĠSign":9649,"heel":9650,"ceil":9651,"regular":9652,"ancing":9653,"invariant":9654,"Ġturns":9655,"Touch":9656,"raise":9657,"ragma":9658,"...</":9659,"ĠAndroid":9660,"Many":9661,"Ġcarried":9662,"ILD":9663,"Ġassess":9664,"reader":9665,"Release":9666,"127":9667,"Ġsn":9668,"Ġ$_":9669,"mits":9670,"footnotesize":9671,"ĠProgram":9672,"warn":9673,"urally":9674,"ĠCommand":9675,"ongo":9676,"audio":9677,"calendar":9678,"Under":9679,"Ġepis":9680,"mapping":9681,"ĠConsider":9682,"ĠclassName":9683,"esh":9684,"ARN":9685,")}.":9686,"ĠPO":9687,"Ġtrust":9688,"Ġparsed":9689,"Ġattract":9690,"Fil":9691,"atibility":9692,"Ġobservable":9693,"fb":9694,"Ġimg":9695,"Ġquickly":9696,"Contents":9697,"Ã¶":9698,"Ġplanet":9699,"azy":9700,"rich":9701,"Ġpoor":9702,"orge":9703,"ĠOutput":9704,"problem":9705,"ĉĉĉĉĉĉĊ":9706,"Ġmarked":9707,"ifornia":9708,"uzz":9709,"'_{":9710,"GeV":9711,"&=&\\":9712,"Ġinterpol":9713,"kl":9714,"<<":9715,"Ġasked":9716,"Ġtimestamp":9717,"ARD":9718,"|$":9719,">\"":9720,"actual":9721,"missions":9722,"Ġedit":9723,"SN":9724,"weak":9725,"Ġhon":9726,"closed":9727,"Depth":9728,"NavBarFont":9729,"stein":9730,"tract":9731,"cogn":9732,"analysis":9733,"arded":9734,"'d":9735,"Ġpublish":9736,"ĠControl":9737,"ĠMain":9738,"arter":9739,":@\"":9740,"Ġaccomp":9741,"ĠQue":9742,"Ġpiece":9743,"Ġprim":9744,"flush":9745,"Ġtopology":9746,"cfg":9747,"Signature":9748,"Med":9749,"Platform":9750,"pace":9751,"Ġframes":9752,"Diagnostics":9753,"æľ":9754,"Ġmaintain":9755,"å®":9756,"ATOR":9757,"Ġdom":9758,"ĠUnder":9759,"transparent":9760,"ANG":9761,"Ġexpert":9762,"Ġboard":9763,"ĠSen":9764,"rob":9765,"Ġpaint":9766,"Diff":9767,"/.":9768,"licated":9769,"Ġincorpor":9770,"ĠWil":9771,"hang":9772,"Wallet":9773,"Ġcoupled":9774,"Ġlowest":9775,"VICE":9776,"paper":9777,"Ġsometimes":9778,"Ġretrie":9779,"Ġpseudo":9780,"Ġstaff":9781,"Ġproperly":9782,"Reset":9783,"corollary":9784,"IDE":9785,"etal":9786,"atistics":9787,">$":9788,"$.}":9789,"Ġdisable":9790,"$'":9791,"Ġtransitions":9792,"Ġsimultane":9793,"tooltip":9794,"/*!":9795,"Ġplaced":9796,"Ġregistered":9797,"6666":9798,"\"/></":9799,"Ġliving":9800,"FOR":9801,"owers":9802,"upper":9803,"Ġsigned":9804,"ĠTwo":9805,"ĠArch":9806,"pan":9807,"labels":9808,"ĠQuery":9809,"ARRAY":9810,"Ġlocations":9811,"Exists":9812,"LT":9813,"ivil":9814,"cred":9815,"1024":9816,"Ġbalance":9817,"ackson":9818,"Fr":9819,"arse":9820,"('<":9821,"ĠMac":9822,"RGB":9823,"erc":9824,"encoding":9825,"Transition":9826,"}\\|":9827,"Ġanalyz":9828,"isters":9829,"Ġdip":9830,"ĠGovern":9831,"Ġlimitations":9832,"organ":9833,")(\\":9834,"ĠPlease":9835,"license":9836,"Navigation":9837,"ĠRad":9838,"Ġanom":9839,"ĠAng":9840,"topic":9841,"ova":9842,"ĉĠĠĠĠĠĠĠĠĠĠĠĠ":9843,"promise":9844,"ĠFin":9845,"Ġ'-":9846,"Ġfake":9847,"person":9848,"ĠSuppose":9849,"EST":9850,"Ġrestriction":9851,"hu":9852,"ubic":9853,")}(\\":9854,"pages":9855,"Random":9856,"propto":9857,"Ġsymbols":9858,"Ġrev":9859,"deprecated":9860,":'":9861,"writer":9862,"Ġtemperatures":9863,"shell":9864,"ĠCG":9865,"blog":9866,"vlet":9867,"Ġimportance":9868,"Ġinfra":9869,"ĠSuper":9870,"quest":9871,"Ġatoms":9872,"imed":9873,"Ġelif":9874,"ynamics":9875,"Ġfem":9876,"Ġneighborhood":9877,"camel":9878,"created":9879,"ĠPub":9880,"Tasks":9881,"rable":9882,"ĠSu":9883,"Ġvm":9884,"ĠTho":9885,"Labels":9886,"ago":9887,"directory":9888,"$-$":9889,"PD":9890,"sch":9891,"ĠEV":9892,"Ġfaster":9893,"}/\\":9894,"Ġresolved":9895,"ĠResponse":9896,"ĠCommon":9897,"feed":9898,"AE":9899,"Ġreduces":9900,"hips":9901,"PROJECT":9902,"RC":9903,"Ġpolarization":9904,"Dispatch":9905,"fetch":9906,"Ġrepeated":9907,"mal":9908,"Ġallowing":9909,"priv":9910,"ĠRemark":9911,"Ġ_{\\":9912,"Ġfinished":9913,"Ġsomeone":9914,"Ġnecessarily":9915,"Dig":9916,"density":9917,"Processor":9918,"ĠAnt":9919,"/_":9920,"particle":9921,"ĠSearch":9922,"Ġmanner":9923,"Ġhor":9924,"okies":9925,"ĠALIGN":9926,"ĠĠĠĠĠĠĠĠĠĠĠĠĠĠĠĠĠĠĠĠĠĠĠĠĠĠĠĠĠĠĠĠĠĠĠĠĠĠĠĠĠĠĠĠĠĠĠ":9927,"foreach":9928,"Serialization":9929,"ILITY":9930,"Ġfinancial":9931,"Ġsched":9932,"Ġstyles":9933,"ĠClear":9934,"cert":9935,"Ġrig":9936,"AF":9937,"Ġcached":9938,"IMIT":9939,"examples":9940,"ĠStream":9941,"Ġreports":9942,"React":9943,"ĠByte":9944,"Ġpretty":9945,"Extensions":9946,"Ġlies":9947,"Ġstated":9948,"Drag":9949,"Ġrotate":9950,"NODE":9951,"Split":9952,"overview":9953,"Verify":9954,"hfill":9955,"extensions":9956,"Ġsell":9957,"ederal":9958,"UST":9959,"backslash":9960,"numerus":9961,"subject":9962,"LIST":9963,"ĠĠĠĠĠĠĠĠĠĠĠĠĠĠĠĠĠĠĠĠĠĠĠĠĠĠĠĠĠĠĠĠĠĠ":9964,"numerusform":9965,"incre":9966,"Sem":9967,"Prov":9968,"Ġdeviation":9969,"ilitary":9970,"Spe":9971,"Cast":9972,"awa":9973,"Ġtreated":9974,"Ġcontinuum":9975,"ĠIllegal":9976,"Ġexperi":9977,"Ġuniformly":9978,"%\"":9979,"ĠInv":9980,"bundle":9981,"Ġsaw":9982,"Center":9983,"esome":9984,"cdn":9985,"Ġfs":9986,"Li":9987,"ĠEuropean":9988,"blem":9989,"Ġdra":9990,"Ġsafety":9991,"Ġexpectation":9992,"Ġ'_":9993,"Ġfilters":9994,"Game":9995,"Ġcharged":9996,"ĠStandard":9997,"ican":9998,"Ġsuppose":9999,"'].":10000,"ĠAtt":10001,"Ġpipeline":10002,"IZ":10003,"NdEx":10004,"ato":10005,"Ġresponsible":10006,"ĠPsi":10007,"Ġacts":10008,"Ġdensities":10009,"\\!\\":10010,"Light":10011,"{|":10012,"Ġcanvas":10013,"ĠSH":10014,"itation":10015,"Ġprograms":10016,"Delay":10017,"Ġmodal":10018,"RED":10019,"Converter":10020,"Ġmainly":10021,"Ġpriority":10022,"Supported":10023,"ĠLagrangian":10024,"Ġdirections":10025,"Ġequals":10026,"uniform":10027,"ĠFacebook":10028,"Ġprofession":10029,"ĠConfiguration":10030,"Ġignored":10031,"served":10032,"metric":10033,"declare":10034,"compar":10035,"Material":10036,"locale":10037,"ENABLE":10038,"nol":10039,"Console":10040,"Ġmatched":10041,"vect":10042,"Ġcreates":10043,"Standard":10044,"bre":10045,"Runner":10046,"Graphics":10047,"Ġcountries":10048,"rint":10049,"Ġlooks":10050,"ĠContent":10051,"tee":10052,"Ġmobile":10053,"{(\\":10054,"ĠFourier":10055,"jecture":10056,"ĠNor":10057,"LICENSE":10058,"Ġabsorption":10059,"character":10060,"Ġuncertainties":10061,"Na":10062,"rations":10063,"åĲ":10064,"Hub":10065,"Ġnotion":10066,"Scalar":10067,"Ġaddresses":10068,"TIES":10069,"ighter":10070,"distance":10071,"rules":10072,"Writ":10073,"Ġescape":10074,"atar":10075,"ĠBel":10076,"esting":10077,"*\\":10078,"factor":10079,"ea":10080,"Snapshot":10081,"spacing":10082,"Ġimplied":10083,"ĠStep":10084,"agg":10085,"Ġconjug":10086,"Ġ<-":10087,"Ġtexture":10088,"Ġencoded":10089,"Shader":10090,"about":10091,"Comparison":10092,"ĠCase":10093,"Ġwanted":10094,"Ġaffected":10095,"Ġcriteria":10096,"Ġ'./":10097,"ĠMr":10098,"Ġtested":10099,"itely":10100,"Upload":10101,"Ready":10102,"Ġcatalog":10103,"Ġtrees":10104,"Ġqueries":10105,"BPACK":10106,"elebr":10107,"Ġepoch":10108,"jax":10109,"cls":10110,"ĠThread":10111,"Ġisot":10112,"ĠRepublic":10113,"rises":10114,"Ġuniversal":10115,"Ġagreed":10116,"Ïĥ":10117,"Ġdemonstrate":10118,"Inf":10119,"Ġplaying":10120,"$^":10121,"istance":10122,"uparrow":10123,"Ġtheme":10124,"spital":10125,"1990":10126,"activity":10127,"irit":10128,"ĠServer":10129,"Ġopposite":10130,"|^{":10131,"ĠBoth":10132,"Ġtransmission":10133,"tl":10134,"Ġtransverse":10135,"ĠArm":10136,"Ġoffers":10137,"ĠWARRANTIES":10138,"Ġwavelength":10139,"\"];":10140,"Ġorientation":10141,"Ġplas":10142,"ĉĉĉĉĉĉĉĉĉĉ":10143,"World":10144,"transaction":10145,"PG":10146,"Export":10147,"chools":10148,"}>":10149,"Ġdisplayed":10150,"Ġapparent":10151,")\",":10152,"OC":10153,"ÑģÑĤ":10154,"cussion":10155,"twitter":10156,"Once":10157,"Ġscenarios":10158,"_{+":10159,"transport":10160,"Ġglob":10161,"Weight":10162,"proc":10163,"LSP":10164,"Rules":10165,"cycle":10166,"appendChild":10167,"&&\\":10168,"UV":10169,"experim":10170,"umul":10171,"iation":10172,"Ġbands":10173,"Ġ\\[":10174,"burg":10175,"Ġalias":10176,"ĠGlobal":10177,"licenses":10178,"dark":10179,"Ġsubstant":10180,"Ġtro":10181,"ĠBro":10182,"weet":10183,"Ġcandidates":10184,"spirit":10185,"textnormal":10186,"serialize":10187,"Ġagree":10188,"contact":10189,"ĠMost":10190,"Ġletter":10191,"oday":10192,"fp":10193,"Ġproportional":10194,"kernel":10195,"HERE":10196,"Blob":10197,"Ġquadratic":10198,"STATUS":10199,"pixel":10200,"Ġbenchmark":10201,"ACH":10202,"Ġbreaking":10203,"Ġsensitive":10204,"{},":10205,"ĠHome":10206,"ĠBuffer":10207,"erv":10208,"Permission":10209,"ald":10210,"ygon":10211,"park":10212,"conduct":10213,"Ġease":10214,"]->":10215,"Ġindicated":10216,"Ġregarding":10217,"NamedCell":10218,"Ġreverse":10219,"RPC":10220,"ĠCanada":10221,"Ġdrive":10222,"uplicate":10223,"ĠInstitute":10224,"Ġson":10225,"YY":10226,"ĠNet":10227,"Ġcompletion":10228,"Packet":10229,"Ġdecrease":10230,"Buf":10231,"arity":10232,"LD":10233,"isArray":10234,"ĠPlan":10235,"jacent":10236,"Ġsuggested":10237,"currency":10238,"Cref":10239,"Ġagents":10240,"BM":10241,"west":10242,"imated":10243,"Ġpassing":10244,"Ġconfidence":10245,"Ġ\"${":10246,"Switch":10247,"BOOL":10248,"Ġrema":10249,"Ġjud":10250,"EP":10251,"timestamp":10252,"Ġwrapper":10253,"ĠCap":10254,"Ġdst":10255,"Lookup":10256,"leftarrow":10257,"refs":10258,"Ġdispersion":10259,"Drop":10260,"1993":10261,"]=":10262,"apos":10263,"cmp":10264,"Assembly":10265,"ivistic":10266,"Priority":10267,"*}[":10268,"ensus":10269,"ĠContext":10270,"ĠCouncil":10271,"commons":10272,"Ġcrit":10273,"Ġinser":10274,"Ġmount":10275,"Ġarc":10276,"icular":10277,"ĠFree":10278,"ĠDescription":10279,"swarm":10280,"Ġdelegate":10281,"eb":10282,"Holder":10283,"ĠNon":10284,"LETE":10285,"iveness":10286,"Partition":10287,"ĠHandle":10288,"present":10289,"ĠERR":10290,"ĠassertTrue":10291,"coll":10292,"Ġpending":10293,"ĠGraph":10294,"Tuple":10295,"Ġclip":10296,"ĠPHP":10297,"Ġstraightforward":10298,"Ġgeometric":10299,"Ġatomic":10300,"00000000":10301,"ope":10302,"Ġpurposes":10303,"Ġdu":10304,"Enable":10305,"Ġresidual":10306,"Ġcontrols":10307,"Ġanalytic":10308,"ĠInformation":10309,"COMM":10310,"Ġpossibly":10311,"Literal":10312,"Ġfoo":10313,"Ð°Ð½":10314,"FilterDatabase":10315,"ĠApplication":10316,"ĠVari":10317,"Fixed":10318,"HAL":10319,"ĠBra":10320,"Ġlogging":10321,"Ġalone":10322,"Ġprotect":10323,"irical":10324,"Ġextracted":10325,"Ġcryst":10326,"Ġfitting":10327,"Ġplaces":10328,"iner":10329,"stone":10330,"Ġcollabor":10331,"Ġinternational":10332,"ARG":10333,"SPACE":10334,"ĠPack":10335,"recated":10336,"CN":10337,"Ġdefaults":10338,"getElementById":10339,"lds":10340,"Future":10341,"izers":10342,"Ctx":10343,"Ġhorizon":10344,"allery":10345,"Ġroad":10346,"Aggreg":10347,"binary":10348,"ĠWhite":10349,"SCRIPT":10350,"&=\\":10351,"$\\\\":10352,"rote":10353,"sun":10354,"kubernetes":10355,"Ġsending":10356,"retch":10357,"ĠIL":10358,"Ġcomplement":10359,"ĠDEFAULT":10360,"ugment":10361,"GLA":10362,"Ġessentially":10363,"Zero":10364,"Optional":10365,"cheduler":10366,"Ġsensitivity":10367,"TypeDef":10368,"attrs":10369,"Ġelectrons":10370,"pad":10371,"ĠPR":10372,"Ð¼":10373,"Ġstats":10374,"Ġlegal":10375,"Ġorbital":10376,"dependence":10377,"Ġseparation":10378,"Ġconvent":10379,"ĠGLint":10380,"Ġoccurred":10381,"Azure":10382,"(['":10383,"kg":10384,"ellig":10385,"ĠAccess":10386,"Ġannounced":10387,"Ġformulation":10388,"ERS":10389,"Ġhomogeneous":10390,"Ġsecondary":10391,"Ġmeas":10392,"elasticsearch":10393,"Ġcouple":10394,"pred":10395,"ĠBu":10396,"Ġdiffusion":10397,"Ġoffice":10398,"Accept":10399,"FIELD":10400,"bounds":10401,"Qual":10402,"$\\,":10403,"=%":10404,"ĠPal":10405,"iller":10406,"listener":10407,"navigation":10408,"Contain":10409,"ĠLi":10410,"Ġfrequencies":10411,"Features":10412,"Ġmostly":10413,"written":10414,"Spr":10415,"Ġdownload":10416,"Ġtrunc":10417,"Ġscient":10418,"ĠCalifornia":10419,"LowerCase":10420,"COUN":10421,"Ġclub":10422,"Est":10423,"ĠRich":10424,"Ġembedded":10425,"æĸ":10426,"Ġoutputs":10427,"Ġgave":10428,"Ġsubsequent":10429,"Ġeventually":10430,"instein":10431,"Tok":10432,"textsf":10433,"Setting":10434,"Ġentang":10435,"Ġintegrated":10436,"Ġdictionary":10437,"obs":10438,"plain":10439,"Available":10440,"lint":10441,"omas":10442,"Ġapplies":10443,"=\\{":10444,"otes":10445,"Ġtemporal":10446,"Ġchoices":10447,"Ġdigital":10448,"Ġtend":10449,"Ġrecommend":10450,"]^":10451,"Ġtang":10452,"Ġsolving":10453,"Ġteach":10454,"Ġstrictly":10455,"mming":10456,"ĠBen":10457,"Ġpolynomials":10458,"Ġcosts":10459,"Ġhimself":10460,"mathtt":10461,"Ġ~\\":10462,"ĠOtherwise":10463,"ĠDM":10464,"Based":10465,"urrence":10466,">()":10467,"tar":10468,"Ġcollision":10469,"ĠUV":10470,"Linear":10471,"middle":10472,"inos":10473,"Ġinterrupt":10474,"correspon":10475,"Separ":10476,"Ġconditional":10477,"ĠMAX":10478,"URCE":10479,"getInstance":10480,"Ġbroken":10481,"chen":10482,"ĠOS":10483,"tended":10484,"Ġdiagrams":10485,"Ġinstruction":10486,"Ġ$^{":10487,"lr":10488,"ander":10489,"ĠOrder":10490,"matches":10491,"PROP":10492,"Ġcopies":10493,"Ġhop":10494,"(\"#":10495,"Ġconflict":10496,"conditions":10497,"texture":10498,"Ma":10499,"Ġlaunch":10500,"Ġexecuted":10501,"Ġscience":10502,"hd":10503,"ĠRest":10504,"}.}":10505,"Ġpolice":10506,"prot":10507,"Ġhide":10508,"Ñĩ":10509,"arest":10510,"Ġlearned":10511,"stra":10512,"Ġsky":10513,"Ġsupers":10514,"jd":10515,"Ġobserver":10516,"{.":10517,"Ġcoverage":10518,"Detail":10519,"sr":10520,"Ġroll":10521,"512":10522,"ĠCore":10523,"Constraints":10524,"Ġreads":10525,"ĠOrig":10526,"Ø±":10527,"Analy":10528,"Ġdecreases":10529,"remote":10530,"failed":10531,"LEMENT":10532,"Ġsaved":10533,"ographic":10534,"nail":10535,"ampion":10536,"Ignore":10537,"Locale":10538,"$^{":10539,"agram":10540,"WEBPACK":10541,"Ġcoq":10542,"Lat":10543,"setAttribute":10544,"Ġslice":10545,"Ġseparated":10546,"RECT":10547,"may":10548,"}^{+":10549,"Ġmarg":10550,"ĠEven":10551,"ĠSun":10552,"pn":10553,"ami":10554,"cour":10555,"$}}":10556,"reason":10557,"containers":10558,"supp":10559,"Ġweighted":10560,"Ġexplore":10561,"parentNode":10562,"Ġtargets":10563,"Ġposter":10564,"binding":10565,"Ġderivatives":10566,"retion":10567,"getType":10568,",...,":10569,")*":10570,"Ġgir":10571,"gray":10572,"************************************************************************":10573,"dual":10574,"TX":10575,"verify":10576,"uuid":10577,"etc":10578,"Kit":10579,"Ġalert":10580,"ĠSN":10581,"}^+":10582,"cv":10583,"Ġcareer":10584,"Consumer":10585,"Ġns":10586,"varrho":10587,"Ġorthogonal":10588,"nm":10589,"newline":10590,"ensitive":10591,"ĠHall":10592,"Ġuniqu":10593,"Authentication":10594,"}$\\":10595,"ĠPop":10596,"Ġvarying":10597,"Tile":10598,"multline":10599,"Ġalgebraic":10600,"Ġrace":10601,"Ġprincipal":10602,"Chart":10603,"})^{":10604,"Certificate":10605,"Ġvariations":10606,"Ġenhance":10607,"GEN":10608,"Ġexceed":10609,"ocker":10610,"Ġcorrelations":10611,"ĠAlgorithm":10612,"Ġalpha":10613,"******/":10614,"Rot":10615,"Ġ'#":10616,"Prev":10617,"ĠCr":10618,"Hom":10619,"Ġexplanation":10620,"ĉĠĠĠĠĠĠĠĠĠ":10621,"Ġdispatch":10622,"Ġatmo":10623,"Ġpermission":10624,"Ġeight":10625,"identity":10626,"ceeded":10627,"Theme":10628,"Phaser":10629,"tright":10630,"Ġencounter":10631,"Ġchallenge":10632,"ĠBook":10633,"Ġworked":10634,"Ġtuple":10635,"sey":10636,"Ġfol":10637,"Ġfermion":10638,"License":10639,"ĠBY":10640,"Ġworkers":10641,"igate":10642,"ĠCP":10643,"Ġextent":10644,"Login":10645,"sip":10646,"TAG":10647,"Ġhandling":10648,"between":10649,"elling":10650,"XY":10651,"ĠDen":10652,"allest":10653,"........":10654,"Ġinterpretation":10655,"Ġbelongs":10656,"Ġcentury":10657,"Ġintegers":10658,"Site":10659,"ermi":10660,"aling":10661,"ona":10662,"Ġfetch":10663,"atural":10664,"yer":10665,".*;":10666,"geo":10667,"Ġbeg":10668,"Ġculture":10669,"wildfly":10670,"ĠAv":10671,"ä½":10672,"iemann":10673,"ronic":10674,"gif":10675,"Art":10676,"Ġwish":10677,"rink":10678,"Ïģ":10679,"continue":10680,"ĠAustralia":10681,"Trigger":10682,"CV":10683,"Ġmajority":10684,"Ġnarrow":10685,"ĠNAV":10686,"Master":10687,"ĠLin":10688,"Ġstudent":10689,"umbnail":10690,"lookup":10691,"ĠComponent":10692,"Direction":10693,"Ġopened":10694,"ĠCloud":10695,"Ġbeaut":10696,"Numer":10697,"AI":10698,"Stat":10699,"Ġ}).":10700,"Ġtechnical":10701,"Ġsphere":10702,"Ġds":10703,"Ġmathemat":10704,"EO":10705,"ĠChild":10706,"ordered":10707,"ĠProv":10708,"Ġsimulated":10709,"smallskip":10710,"textup":10711,"istor":10712,"ĠImmutable":10713,"strip":10714,"updated":10715,"Ġchecks":10716,"Ġopening":10717,"Ġoverlap":10718,"edu":10719,"Ġmolecular":10720,"Ġship":10721,"Ġregression":10722,"Formatter":10723,"RESS":10724,"ĠRob":10725,"Ġinvolving":10726,"slide":10727,"ĠCurrent":10728,"Ġcapt":10729,"Ġends":10730,"ĠJames":10731,"1992":10732,"sym":10733,"Ġtables":10734,"Ġeducation":10735,"romagnetic":10736,"Ġcollected":10737,"history":10738,"midrule":10739,"ville":10740,"Ġ'$":10741,"Ġemphas":10742,"Ġaccretion":10743,"ĠMO":10744,"Ġanalyze":10745,"ĠPython":10746,"EVENT":10747,"Ġwrap":10748,"Ġturned":10749,"Ġvict":10750,"refresh":10751,"stood":10752,"dings":10753,"links":10754,"standing":10755,"ĠĠĠĠĠĠĠĠĠĠĠĠĠĠĠĠĠĠĠĠĠĠĠĠĠĠĠĠĠĠĠĠĠĠĠĠ":10756,"aren":10757,"Ġreasonable":10758,"Ġadopted":10759,"OutputStream":10760,"Ġinclusion":10761,"Missing":10762,"Ġconclusion":10763,"Ġfriends":10764,"nob":10765,"([]":10766,"Ġcompiler":10767,":#":10768,"Decimal":10769,"Ġnorth":10770,"Ġrecorded":10771,"ection":10772,"igator":10773,"Ġreceiver":10774,"Inner":10775,"Ġphone":10776,"ĠEarth":10777,"Ġbirth":10778,"ibling":10779,"ĠLoad":10780,"Ġmedical":10781,"Ġliteral":10782,"Ġpropos":10783,"good":10784,"Contract":10785,"Ġdepart":10786,"trightarrow":10787,"Ġimprovement":10788,"ĠSy":10789,"=&":10790,"=\"../../../../../../../":10791,"solution":10792,"Ġrestricted":10793,"usr":10794,"CSS":10795,"Ġreaction":10796,"Phone":10797,"ĠCorollary":10798,"ĠWhether":10799,"heading":10800,"Ġ{*}":10801,"Ġeffectively":10802,"Ġrenormal":10803,"Ġreferred":10804,"Ġneutral":10805,"valuation":10806,"iable":10807,"Ġhelper":10808,"Ġsubspace":10809,"bro":10810,"CUR":10811,"mobile":10812,"features":10813,"Ġdiscr":10814,"annotations":10815,"Ġrock":10816,"quid":10817,"Ġorganization":10818,"Ġcond":10819,"pragma":10820,"sky":10821,"bx":10822,"/\">":10823,"Ġserve":10824,"Ġdomains":10825,"ĠPolicy":10826,"\\},":10827,"dm":10828,"Ġschemes":10829,"HOUT":10830,"Ġ&$":10831,"timer":10832,"independent":10833,"Leg":10834,"Ġstatements":10835,"Ġfocused":10836,"ĠMart":10837,"ints":10838,"cha":10839,"Ġstrategies":10840,"'+":10841,"Ġfits":10842,"drag":10843,"ĠFl":10844,"lm":10845,"invert":10846,"country":10847,"ĠBi":10848,"odd":10849,"\\[\\":10850,"Ġperforming":10851,"Ġattrs":10852,"onymous":10853,"Dr":10854,"Ġweeks":10855,"åħ":10856,"Ġmoments":10857,"Ġbooks":10858,"Bucket":10859,"ĠWIDTH":10860,"interpre":10861,"Copyright":10862,"Put":10863,"Proposition":10864,"Ġgoto":10865,"Reason":10866,"getId":10867,"Ġtraffic":10868,"Ġtransformations":10869,"LIN":10870,"Ġgover":10871,"Ġsurfaces":10872,"dst":10873,"They":10874,"binom":10875,"Ġsal":10876,"unnel":10877,"Ġwaiting":10878,"Ġeveryone":10879,"toLowerCase":10880,"ocaml":10881,"Ġrandomly":10882,"HashMap":10883,"Ġenjoy":10884,"ĠDebug":10885,"repository":10886,"Ġpolicies":10887,"Ġdefining":10888,"Ġminor":10889,"generator":10890,"uffix":10891,"Attrib":10892,"Ġseed":10893,"Ġill":10894,"Ġactivities":10895,"Ġindividuals":10896,"*,":10897,"Owner":10898,"Ġremember":10899,"Ġuri":10900,"Americ":10901,"runner":10902,"ifference":10903,"ĠSupport":10904,"gz":10905,"Secret":10906,"Ġchiral":10907,"ailability":10908,"ĠIndian":10909,"xygen":10910,"Ġdrag":10911,"Card":10912,"Ġcomm":10913,"Ġfight":10914,"Ġatom":10915,"anes":10916,"lapsed":10917,"Ġdeleted":10918,"Marker":10919,"Ġideas":10920,"FP":10921,"Ġflight":10922,"ĠSecurity":10923,"EY":10924,"Ġpermit":10925,"pat":10926,"General":10927,"router":10928,"frag":10929,"ĉĠĠĠĠĠĠĠĠĠĠĠĠĠĠĠĠĠĠĠ":10930,"UInt":10931,"ĠĠĠĠĠĠĠĠĠĠĠĠĠĠĠĠĠĠĠĠĠĠĠĠĠĠĠĠĠĠĠĠĠĠĠĠĠ":10932,"scriptscriptstyle":10933,"CDATA":10934,"}{}":10935,"ArrayList":10936,"Ġinitially":10937,"ĠCourt":10938,"Ġiterations":10939,"Family":10940,"ĠSerial":10941,"ĠServices":10942,"IMPORTED":10943,"ashington":10944,"ĠMal":10945,"wa":10946,"scheme":10947,".(\\":10948,"ysql":10949,"ĠManagement":10950,"decode":10951,"Ġanchor":10952,"Ġpurch":10953,";\"":10954,"lab":10955,"medium":10956,"Ġsyn":10957,"Ġhour":10958,"BASE":10959,"Ġratios":10960,"Dim":10961,"aus":10962,"Ġfather":10963,"Ġversus":10964,"Ġsit":10965,"logging":10966,"eces":10967,"bus":10968,"igu":10969,"ĠAlex":10970,"0001":10971,"Ġsparse":10972,"ashion":10973,"ĠFrench":10974,"aph":10975,"Ġconverted":10976,"_[":10977,"physical":10978,"Dev":10979,"neutral":10980,"ccc":10981,"iden":10982,"execution":10983,"ENV":10984,"GLAPI":10985,"About":10986,"Sta":10987,"Ġcharacteristics":10988,"Ġcauses":10989,"inese":10990,"prise":10991,"Ġlie":10992,"Instruction":10993,"\\,{\\":10994,"Cons":10995,"Ġmanaged":10996,"ĠJson":10997,"Ġcosmological":10998,"logo":10999,"defn":11000,"Ġcaref":11001,"TRAN":11002,"DataType":11003,"ĠColumn":11004,"dients":11005,"Ġdefer":11006,"Ġ',":11007,"ĠDan":11008,"cryption":11009,"Ġdominant":11010,"ilevel":11011,"wer":11012,"how":11013,"citealt":11014,"Bigg":11015,"Ġextremely":11016,"ĠallClasses":11017,"%%%%%%%%":11018,"Ġdirected":11019,"leqslant":11020,"Ġparents":11021,"ĠDouble":11022,"translate":11023,"ĠQCD":11024,"Ġmonot":11025,"respect":11026,"ĠLife":11027,"ĠTABLE":11028,"house":11029,"Ġ\\{\\":11030,"Ġtot":11031,"cn":11032,"Ġranges":11033,"Ġsystematic":11034,"tb":11035,"Ġgenerates":11036,"Ġinstant":11037,"substring":11038,"Ġbre":11039,"surface":11040,"wik":11041,"Ġiniti":11042,"ctors":11043,"\\|_":11044,"\\}.":11045,"ĠModule":11046,"Uniform":11047,"atted":11048,"ĠEqs":11049,"Ġdistances":11050,"CCESS":11051,"ĠallClassesLink":11052,"ĠVerify":11053,"Ġsides":11054,"urbul":11055,"DITION":11056,"repo":11057,"Ġplaceholder":11058,"phrase":11059,"vironments":11060,"viewport":11061,"olf":11062,"LOAD":11063,"Ġcompliance":11064,"===":11065,"Ġwrote":11066,"Period":11067,"Ġlives":11068,"Ġabsence":11069,"Ġcapital":11070,"Comb":11071,"Country":11072,"Ġhum":11073,"ĠAuthor":11074,"ĠPM":11075,"Ġchance":11076,"ĠBusiness":11077,"ĠCA":11078,"poly":11079,"Ġwest":11080,"ĠGame":11081,"Bad":11082,"agger":11083,"Ġcontrolled":11084,"ĠUsed":11085,"Ġsimilarly":11086,"ĠNAVBAR":11087,"Ġreflection":11088,"Ġboundaries":11089,"slds":11090,"Another":11091,"given":11092,"Deep":11093,"GIN":11094,"hyper":11095,"Ġms":11096,"illis":11097,"lica":11098,"Pa":11099,"Ġwild":11100,"UEST":11101,"reduce":11102,"ĠCHE":11103,"Ġinference":11104,"Tw":11105,"Actions":11106,"Seconds":11107,"glew":11108,"Ġrelat":11109,"Ġsupplied":11110,"ĠHilbert":11111,"three":11112,"}\",":11113,")}$.":11114,"Ġcovered":11115,"Ġmac":11116,"ultural":11117,")_{\\":11118,"elian":11119,"Ġirreducible":11120,"apl":11121,"(\"\\":11122,"ĠFilter":11123,"Ġslope":11124,"Sm":11125,"sz":11126,"amer":11127,"Ġspot":11128,"acob":11129,"Ġinstrument":11130,"ortunately":11131,"Ġmor":11132,"Ġinherit":11133,"Ġtick":11134,"Ġmodeling":11135,"Ġbelie":11136,";\\;":11137,"Ġtrajectory":11138,"dimension":11139,"xff":11140,"mercial":11141,"above":11142,"Ġdepict":11143,"tures":11144,"ĠVirtual":11145,"ĠEngland":11146,"ĠInvalid":11147,"Ġfinish":11148,"bor":11149,"Matcher":11150,"Self":11151,"Ġamplitudes":11152,"ĉĉĉĉĊ":11153,"Loading":11154,"eper":11155,"Ġdrug":11156,"Ġupload":11157,"COM":11158,"Ġrepeat":11159,"Ġexcess":11160,"Ġrout":11161,"Scheme":11162,"HAND":11163,"fragment":11164,"...)":11165,"iline":11166,"lemented":11167,"Bbb":11168,"compact":11169,"Ġthin":11170,"Ġlists":11171,"Lite":11172,"escape":11173,"ipe":11174,"Ġmaybe":11175,"DMA":11176,"libs":11177,"cx":11178,"Ġencour":11179,"MPL":11180,"Ð´":11181,"ĠMichael":11182,"ĠBE":11183,"Ġrepository":11184,"django":11185,"Ġcouplings":11186,"removeClass":11187,"Ġrare":11188,"Ġspent":11189,"theless":11190,"dashed":11191,"ĠURI":11192,"Ġserious":11193,"velope":11194,"DATE":11195,"cing":11196,"Ġattached":11197,"Ġintervals":11198,"Ġdependency":11199,"ĠSimilarly":11200,"ogen":11201,"ĠNav":11202,"uclide":11203,"lands":11204,"Contin":11205,"Ġimply":11206,"ĠYear":11207,"Executor":11208,"spired":11209,"ĠStruct":11210,"opacity":11211,"hole":11212,"defaults":11213,"}[!":11214,"aux":11215,"Ġlogarith":11216,"111":11217,"Ġproduces":11218,"Ġtoward":11219,"Fore":11220,"ĠEmp":11221,"referred":11222,".',":11223,"ymer":11224,"Ġcas":11225,"Ä±":11226,"orders":11227,"Ġconto":11228,"Ġcontribute":11229,"Ġsuc":11230,"Ġrich":11231,"datepicker":11232,"pared":11233,"Ġuniverse":11234,"Ġestimator":11235,"9999":11236,"Ġpanels":11237,"}\\;":11238,"adapter":11239,"was":11240,"Ġpowerful":11241,"Ġvisibility":11242,"nolimits":11243,"segment":11244,"}{{\\":11245,"Ġinvert":11246,"learning":11247,"FAIL":11248,"Ġsimplicity":11249,"Ġ{$\\":11250,"Ġarrays":11251,"abric":11252,"Ġconfirmed":11253,"Ġvalu":11254,"Ġalgebras":11255,"Ġlens":11256,"ĠReference":11257,"bigcup":11258,"ĠEngine":11259,"ono":11260,"Although":11261,"ira":11262,"Ġtour":11263,"Ġ#{":11264,"avour":11265,"ĠHy":11266,"endpoint":11267,"æķ":11268,"Forms":11269,"Collect":11270,"Ġconvers":11271,"Ð¾Ð²":11272,"Geometry":11273,"Ġassignment":11274,"production":11275,"})=\\":11276,"Ġkept":11277,"subequations":11278,"FileName":11279,"Bitmap":11280,"geometry":11281,"dump":11282,"Ġdivis":11283,"Ġadvers":11284,"ĠCF":11285,"ĠEquation":11286,"secondary":11287,"Ġscores":11288,"Ġmovement":11289,"Ġii":11290,"Commit":11291,"Ġlift":11292,"ĠÐ²":11293,"Ġproton":11294,"Alias":11295,"Ġsolved":11296,"Ġseven":11297,"ĠĠĠĠĠĠĠĠĠĠĊ":11298,"Ġmorphism":11299,"Ġlikelihood":11300,"Ġdespite":11301,"ĠSVG":11302,"Did":11303,"Ġgoog":11304,"//!":11305,"ĠNE":11306,"Ġconvenient":11307,"Metric":11308,"uclidean":11309,"|-":11310,"Ġwhenever":11311,"Super":11312,"ĠAuto":11313,"Modified":11314,"ĠChange":11315,"ĠTOP":11316,"Ġsegments":11317,"Ġgenerators":11318,"frames":11319,"Ġexpanded":11320,"StatusCode":11321,"Ġpractical":11322,"Ġcircuit":11323,"Ġindent":11324,"gged":11325,"Ġdem":11326,"aco":11327,"Ġfunctor":11328,"BD":11329,"Like":11330,"ĠTwitter":11331,"tbl":11332,"TIM":11333,"undred":11334,"iro":11335,"ĠSyntax":11336,"TV":11337,"ĠLicensed":11338,"Ctrl":11339,"iger":11340,"ĠShould":11341,"below":11342,"ĠDeep":11343,"optim":11344,"Ġolder":11345,"Ġfolder":11346,"AU":11347,"Origin":11348,"fac":11349,"ĠGLenum":11350,"Ġcollapse":11351,"Cs":11352,"ĠGold":11353,"ClassName":11354,"maxim":11355,"ressions":11356,"Ġcomparing":11357,"ĠSSL":11358,"Ġ}),":11359,"Ġmus":11360,"ĠĠĠĠĠĠĠĠĠĠĠĠĠĠĠĠĠĠĠĠĊ":11361,"ĠBest":11362,"same":11363,"Den":11364,"erg":11365,"ĠRiver":11366,"ĠVALIGN":11367,"Quant":11368,"named":11369,"vin":11370,"Ġopportunity":11371,"Ġmovie":11372,"Ġgrowing":11373,"lb":11374,"Ġ\\}":11375,"pin":11376,"stage":11377,"Ġsyntax":11378,"OFF":11379,"Ġconformal":11380,"potential":11381,"UAL":11382,"qq":11383,"Cannot":11384,"jk":11385,"Ġdriving":11386,"cassandra":11387,"Ġcrucial":11388,"ÛĮ":11389,"Break":11390,"Ġresonance":11391,"Ġinj":11392,"Ġlos":11393,"Ġbank":11394,"yan":11395,"Previous":11396,"angles":11397,"Reflection":11398,"score":11399,"forming":11400,"ĠWITHOUT":11401,"Ġclients":11402,"ĠFALSE":11403,"Stub":11404,"Person":11405,"folder":11406,"ĠðŁ":11407,"lations":11408,"former":11409,"----------":11410,"Drawing":11411,"Validate":11412,"Ġphotons":11413,"Ġbary":11414,"Ġscan":11415,"Ġemployed":11416,"glyphicon":11417,"Overview":11418,"photon":11419,"})(":11420,"processing":11421,"ĠRender":11422,"scala":11423,"ughter":11424,"Ġrequirement":11425,"ĠØ":11426,"Ġsouth":11427,"ĠReview":11428,"anese":11429,"eady":11430,"Ġgoverning":11431,"aui":11432,"Ġcourt":11433,"10000":11434,"Will":11435,"Ġleaves":11436,"Series":11437,"Ġ!!":11438,"ivari":11439,"Ġplays":11440,"Ġcopyright":11441,"ĠRuntime":11442,"getAttribute":11443,"Ġdrawn":11444,"issue":11445,"Ġattacks":11446,"buttonElement":11447,"appings":11448,"Ġspeak":11449,"lain":11450,"delegate":11451,"usal":11452,"Pred":11453,"IME":11454,"decomp":11455,"ideos":11456,"(()":11457,"Ġvehicle":11458,"Ġray":11459,"notify":11460,"Amount":11461,"\\}_{":11462,"getString":11463,"Ġcorner":11464,"POS":11465,"Ġdy":11466,"ĠWrit":11467,"bean":11468,"ĠSW":11469,"ĠPress":11470,"ĠDemocr":11471,"Ġdisease":11472,"KS":11473,"unknown":11474,"________":11475,"dn":11476,"Disk":11477,"ĠIts":11478,"ĠChannel":11479,"icates":11480,"sizei":11481,"112":11482,"pet":11483,"Ġnaturally":11484,"Ġwoman":11485,"Ġnested":11486,"Ġsmart":11487,"Gui":11488,"ĠAM":11489,"iso":11490,"ĠDefine":11491,"Where":11492,"Ġprocessed":11493,"Final":11494,"Ġcontinued":11495,"useum":11496,"Ġproposition":11497,"Ġbucket":11498,"[]{":11499,"prepare":11500,"Ġdescribing":11501,"Ġaccum":11502,"Ġfinds":11503,"DED":11504,"SHA":11505,"Ġelimin":11506,"ĠLogger":11507,"Ġkinetic":11508,"odies":11509,"Ġvort":11510,"Distance":11511,"Ġcelebr":11512,"ĠPlay":11513,"Push":11514,"defineProperty":11515,"ĠFil":11516,"bounded":11517,"Ġordering":11518,"Ġmedian":11519,"Ġconsisting":11520,"overflow":11521,"ducation":11522,"|_":11523,"__,":11524,"Ġunderstood":11525,"Paths":11526,"abstract":11527,"ĠTag":11528,"ĠSend":11529,"LAY":11530,"Ġalignment":11531,"ĠHistory":11532,"Ġlookup":11533,"hern":11534,"ĠCho":11535,"elcome":11536,"Ġprepar":11537,"Ġspecifically":11538,"ders":11539,"Ġincident":11540,"uling":11541,"Created":11542,"nof":11543,"ĠBrown":11544,"III":11545,"ĠCur":11546,"ĠInstead":11547,")}$,":11548,"Ġfourth":11549,"/******/":11550,"äº":11551,"1991":11552,"ributed":11553,"ĠSeries":11554,"ora":11555,"ĠDCHECK":11556,"amount":11557,"Fetch":11558,"Ġutils":11559,"Ġsubsection":11560,"Deprecated":11561,"Ġinvestigated":11562,"awiki":11563,"Ġperspective":11564,"ĠRout":11565,"Uint":11566,"ĠCHECK":11567,"Ġful":11568,"130":11569,"Ġdemonstrated":11570,"Ġstationary":11571,"Machine":11572,"Ġfilled":11573,"inx":11574,"ĠKEY":11575,"\":\"":11576,"}~\\":11577,"vable":11578,"Also":11579,"Safe":11580,"CREATE":11581,"RS":11582,"\">(":11583,"Done":11584,"}},\\":11585,"mediawiki":11586,"Ġsaying":11587,"ĠUnit":11588,"Ġeigenvalue":11589,"ĠAGN":11590,"Ġmoves":11591,"Ġwonder":11592,"Ġsorted":11593,"Ġcss":11594,"Ġ\\|\\":11595,"extends":11596,"Ġeasier":11597,"quark":11598,"sharp":11599,"Ġpm":11600,"Ġpotentially":11601,"Ġboot":11602,"Ġsemantic":11603,"indu":11604,"Ġcounts":11605,"Models":11606,"ĠAssume":11607,"Ġmeeting":11608,"BACK":11609,"levision":11610,"According":11611,"ulating":11612,"Ġtransactions":11613,"lef":11614,"udit":11615,"TL":11616,"509":11617,"Ġnormalization":11618,"ĠEvery":11619,"approxim":11620,"SOURCE":11621,"Ġbg":11622,"Ġexpr":11623,"Ġpng":11624,"ĠNSString":11625,"ErrorCode":11626,"Ġgradu":11627,"Ġ(%":11628,"cu":11629,"Ġneutron":11630,"ĠStar":11631,"è¿":11632,"Ġoperating":11633,"APP":11634,"May":11635,"Ġsurround":11636,"ĠIII":11637,"airs":11638,"Ġsensor":11639,"Ġsmallest":11640,"HOME":11641,"ĠShort":11642,"itespace":11643,"ubb":11644,"ratio":11645,"scan":11646,"ĠOP":11647,"Ġangles":11648,"'=>":11649,"ÏĢ":11650,"Ġclin":11651,"Recall":11652,"Ġthanks":11653,"Ġbrought":11654,"Download":11655,"Ġaspects":11656,"Controls":11657,"ĠLcom":11658,"ĠHas":11659,"RUN":11660,"Ġbroadcast":11661,"ĠLand":11662,"}{*}{":11663,"Ġimm":11664,"Ġanisot":11665,"ala":11666,"BUILD":11667,"Ġintended":11668,"itt":11669,"ĠĠĠĠĠĊ":11670,"iser":11671,"Ġspirit":11672,"ĠCS":11673,"ĠTerm":11674,"ĠSol":11675,"Dem":11676,"bucket":11677,"Ġcomparable":11678,"subscribe":11679,"ĠPet":11680,"ĠGuide":11681,"Ġplasma":11682,"Ġ{%":11683,"Ġrespective":11684,"gradle":11685,"Ġmanufact":11686,"Ġscoped":11687,"Ġpreser":11688,"Ã£":11689,"override":11690,"without":11691,"hot":11692,"Ġ'''":11693,"addEventListener":11694,"Mac":11695,"solid":11696,"Ġ(!(":11697,"undles":11698,"Ġreconstruction":11699,"Cla":11700,"generic":11701,"Ġcls":11702,"Ġ\">":11703,"HD":11704,"substr":11705,"`)":11706,"ounds":11707,"Ġing":11708,"Fake":11709,"consistent":11710,"WARE":11711,"aria":11712,"ĠActive":11713,"Ġpropagation":11714,"Mutable":11715,"Android":11716,"Ġclustering":11717,"oned":11718,"istan":11719,"Ġapilevel":11720,"tomic":11721,"Tick":11722,"Ġ'')":11723,"Ġeconomic":11724,"apt":11725,"700":11726,"ĠĠĠĠĠĠĠĠĠĠĠĠĠĠĠĠĠĠĠĠĠĠĠĠĠĠĠĠĠĠĠĠĠĠĠĠĠĠ":11727,"Without":11728,"samples":11729,"INIT":11730,"Extra":11731,"INVALID":11732,"Lines":11733,")--(":11734,"Ġbenefit":11735,"Ġimpo":11736,"^+$":11737,"Ġpp":11738,"Ġschedule":11739,"Ġunitary":11740,"Ġna":11741,"Ã³n":11742,"Mount":11743,"Observable":11744,"Ġconverges":11745,"\\,,":11746,"Ġdominated":11747,"Ġtwice":11748,"members":11749,"andemic":11750,"ĠMusic":11751,"ĠZe":11752,"sdk":11753,"Ġroughly":11754,"RET":11755,"incipal":11756,"Loaded":11757,"ĠKIND":11758,".');":11759,"amin":11760,"Vec":11761,"ĠNull":11762,"Ġprobabilities":11763,"Sprintf":11764,"filters":11765,"sched":11766,"Ġencoder":11767,"datetime":11768,"wiki":11769,"Servlet":11770,"omorphisms":11771,"men":11772,"MAGE":11773,"ecycle":11774,"keep":11775,"NONE":11776,"Ġpa":11777,"Corre":11778,"Ġplans":11779,"prevent":11780,"Ġannotation":11781,"spi":11782,"ĠReport":11783,"Ġthrown":11784,"APIENTRY":11785,"Ġmarker":11786,"Ġsimilarity":11787,"^*_":11788,"lie":11789,"concurrent":11790,"ĠUSA":11791,"ications":11792,"Ġvill":11793,"Ġig":11794,"Please":11795,"Ġwidely":11796,"Ġadds":11797,"Ġgeneralization":11798,"Ġtsd":11799,"ĠLy":11800,"Furthermore":11801,"istant":11802,"linux":11803,"Ġqq":11804,"attach":11805,"Ġdivided":11806,"iggers":11807,"Bigl":11808,"Ġtimer":11809,"Ġmm":11810,"_{-\\":11811,"Ġinduction":11812,"URN":11813,"=-\\":11814,"|_{\\":11815,"Ġmother":11816,"ĠGerman":11817,"Worker":11818,"Ġcomplicated":11819,"Tex":11820,"ĠSC":11821,"paths":11822,"Been":11823,"Codec":11824,"Ġplotted":11825,"Changes":11826,"Unmar":11827,"codec":11828,"Ġpartners":11829,"ĉĉĠ":11830,"relation":11831,"Disabled":11832,"Ġsplitting":11833,"Ġpartially":11834,"ĠLI":11835,"Ġaccepted":11836,"osh":11837,"Typ":11838,"illiseconds":11839,"onav":11840,"vdots":11841,"}],":11842,"Ġsnapshot":11843,"Ġlinked":11844,"aylor":11845,"scriber":11846,"Ġappearance":11847,"outhern":11848,"Ġdefect":11849,"thern":11850,"ĠToken":11851,"Ġinvolves":11852,"ĠLast":11853,"inction":11854,"valued":11855,"stor":11856,"GLenum":11857,"metic":11858,"BT":11859,"Ġshadow":11860,"Ġneglect":11861,"Ġtracking":11862,"acement":11863,"ĠTheir":11864,"share":11865,"fort":11866,"getMessage":11867,"ĠSpecial":11868,"Ġcentre":11869,"Ġmanifest":11870,"Ġdetermines":11871,"references":11872,"Ġpresident":11873,"LAB":11874,"è¯":11875,"Persistent":11876,"ĠPower":11877,"Ġworker":11878,"ĠTYPE":11879,"Radius":11880,"ĠOffice":11881,"conc":11882,"Ġslot":11883,"uer":11884,"Ġroots":11885,"ĠExpression":11886,"itar":11887,"Ġusername":11888,"Ġsin":11889,"Ġdeploy":11890,"Execute":11891,"}<":11892,"Ġretrieve":11893,"Ġsimultaneously":11894,"Ġorbits":11895,"ĠDuring":11896,"Ġacting":11897,"'$.":11898,"Ġjournal":11899,"Ġpin":11900,"through":11901,"Ġwasn":11902,"ATURE":11903,"Mov":11904,"Ġeast":11905,"__.":11906,"Experim":11907,"Ġidentification":11908,"andbox":11909,"ĠBuilder":11910,"Ġgeodes":11911,"reject":11912,"Ġharmonic":11913,"AMP":11914,"Ġholes":11915,"ĠOC":11916,"Side":11917,"Ġelectronic":11918,"ĠTex":11919,"Ġteams":11920,"ĠDiv":11921,"Pipeline":11922,"Ġcat":11923,"percent":11924,"MMARY":11925,"_{[":11926,"Ġillustrated":11927,"aneous":11928,"Ġloader":11929,"ĠWashington":11930,"Ġchallenges":11931,"Ġposterior":11932,"Merge":11933,"Algorithm":11934,"eclipse":11935,"ĠMIT":11936,"onomy":11937,"dv":11938,"Frames":11939,"ĠFoot":11940,"Ġperhaps":11941,"ĠDirac":11942,"Ġvoice":11943,"ĠSize":11944,"çĶ¨":11945,"Ġtight":11946,"Der":11947,"ĠWill":11948,"ĠPoisson":11949,"'},":11950,"[_":11951,"Listeners":11952,"Ġflows":11953,"THER":11954,"Ġadjacent":11955,"Suite":11956,"raries":11957,"ĠCommit":11958,"AAAAAAAA":11959,"dataset":11960,"Ġstronger":11961,"Bu":11962,"cost":11963,"ĠJul":11964,"Completed":11965,"rollers":11966,"Sol":11967,"Ġnavbar":11968,"BI":11969,"Hook":11970,"\\|^":11971,"Gra":11972,"kern":11973,"ste":11974,"Ġwants":11975,"Have":11976,"sell":11977,"Ġmesh":11978,"retval":11979,"Ġfra":11980,"Ġdecreasing":11981,"Elem":11982,"Ġinvoked":11983,"earning":11984,"fall":11985,"Ġraised":11986,"HM":11987,"Ġleader":11988,"Ġinitialized":11989,"ĠLjava":11990,"Ġcircular":11991,"Padding":11992,"Power":11993,"reci":11994,"ĠArgument":11995,"ermany":11996,"sco":11997,"payload":11998,"Bigr":11999,"ĠSpr":12000,"ĠAddress":12001,"Ġsheet":12002,"Ġstories":12003,"Ġexcited":12004,"ĠÂ£":12005,"~(":12006,"Wrap":12007,"Running":12008,"Ġspherical":12009,"Ġprivacy":12010,"Cr":12011,"ĠFermi":12012,"INDEX":12013,"ĠReal":12014,"×ķ":12015,"notification":12016,"ĠDown":12017,"STM":12018,"Pending":12019,"Scheduler":12020,"Ġclosure":12021,"ĠLeague":12022,"awn":12023,"describe":12024,"resolution":12025,"frequency":12026,".(":12027,"Ġprobe":12028,"GLuint":12029,"driv":12030,"ĠTree":12031,"mathds":12032,"Bg":12033,"Ġdecided":12034,"ĠTom":12035,"ĠPrint":12036,"dz":12037,"venue":12038,"reflect":12039,"}}=\\":12040,"hex":12041,"Press":12042,"cached":12043,"UBLIC":12044,"mime":12045,"[],":12046,"Ġdiagnost":12047,"Compare":12048,"Ġdecays":12049,"Ġresponses":12050,"GO":12051,"entries":12052,"Cut":12053,"ĠCompany":12054,"claim":12055,"Ġstabil":12056,"ĠMil":12057,"ĠLore":12058,"Ġserved":12059,"Ġ.=":12060,"Ġpresents":12061,"mr":12062,"ApJ":12063,"itionally":12064,"Ġfan":12065,"ĠCC":12066,"onald":12067,"1980":12068,"Ġ\"_":12069,"Ġinterior":12070,"Ġ\"#":12071,"ĠRoad":12072,"GT":12073,"Sets":12074,"Src":12075,"jq":12076,"Ġcharacterized":12077,"ĠSi":12078,"Ġgoogle":12079,"processor":12080,"ĠAssociation":12081,"Ġspacetime":12082,"Ġlabeled":12083,"Ġmodification":12084,"ICATION":12085,",(":12086,"FilePath":12087,"Ġcompression":12088,"Fat":12089,"Ġconsistency":12090,"Ġvanishes":12091,"Ġded":12092,"ĠGrid":12093,"Ġlept":12094,"Ġforeign":12095,"Ġdirector":12096,"vid":12097,"Ġpref":12098,"half":12099,"versal":12100,"Ġdiscussions":12101,"bone":12102,"Fac":12103,"vg":12104,"Acknowled":12105,"lux":12106,"Ġwarn":12107,"program":12108,"Primary":12109,"Ġclaims":12110,"GM":12111,"Ġcloser":12112,"Ġaware":12113,"Ġexcell":12114,"Ġimmediate":12115,"START":12116,"cpu":12117,"ĠLibrary":12118,"Ġclosely":12119,"Ġbuy":12120,"Ġtrajectories":12121,"Ġcolour":12122,"?âĢĿ":12123,"ĠEnable":12124,"registry":12125,"Ġsatell":12126,"bench":12127,"publish":12128,"icity":12129,"Ġmanip":12130,"Ġcompile":12131,"Ġintrinsic":12132,"Ġaux":12133,"ĠCNN":12134,"than":12135,"Linked":12136,"Prototype":12137,"Fill":12138,"ĠSP":12139,"metrics":12140,"]*":12141,"ĠRiemann":12142,"Encoded":12143,"antics":12144,"Ġthous":12145,"140":12146,"à¸":12147,"onavirus":12148,"asible":12149,"Ġconcentration":12150,";|":12151,"Ġple":12152,"ĠGood":12153,"ima":12154,"riday":12155,"AtA":12156,"Ġconfigured":12157,"Ġcharges":12158,"osure":12159,"ociated":12160,"vements":12161,"Ġbold":12162,"Ġcircum":12163,"Ġhuge":12164,"MASK":12165,"BH":12166,"Ġabundance":12167,"notin":12168,"Ġtracks":12169,"Ġanyone":12170,"Ã£o":12171,"getClass":12172,"Ġjobs":12173,"ĠVir":12174,"Ġempirical":12175,"Ġaugment":12176,"Mut":12177,"Ġinvestigation":12178,"Ġisomorphic":12179,"Camera":12180,"reek":12181,"sources":12182,"Decoder":12183,"Best":12184,"Slice":12185,"Monitor":12186,"Ġappeared":12187,"Ġprote":12188,"Try":12189,"AK":12190,"swing":12191,"192":12192,"Ġfilms":12193,"ĠRobert":12194,"Ġhex":12195,"ĠWed":12196,"Integ":12197,"ĠUnion":12198,"$_{\\":12199,"enty":12200,"slider":12201,"Ġvariant":12202,"Ġlocale":12203,"{})":12204,"radiction":12205,"kins":12206,"zoom":12207,"Suppress":12208,"Ġmu":12209,"Ġborn":12210,"lam":12211,"Ġposit":12212,"Operations":12213,"ĠSpe":12214,"sock":12215,"tically":12216,"lements":12217,"estival":12218,"360":12219,"ĠGen":12220,"Ġlisteners":12221,"Replace":12222,"esides":12223,"stic":12224,"Ġts":12225,"Ġchecking":12226,"Into":12227,"Ġgold":12228,"aug":12229,"rupted":12230,"Unexpected":12231,"nowledge":12232,"atched":12233,"Win":12234,"rpc":12235,"Ġoutcome":12236,"Ġautorest":12237,"oidal":12238,"TableRow":12239,"theory":12240,"]).":12241,"unday":12242,"Î·":12243,"Foundation":12244,"configure":12245,"Mixin":12246,"]['":12247,"placeholder":12248,"NECT":12249,"linked":12250,"bolic":12251,"qual":12252,"itors":12253,"homology":12254,"Ġ$<":12255,"Ġcovariance":12256,"Ġperforms":12257,"Ġfootball":12258,"GRO":12259,"disk":12260,"extract":12261,"ĠRow":12262,"ĠÑģ":12263,"ĠDesign":12264,"ĠMov":12265,"Updated":12266,"ĠSymbol":12267,"ulas":12268,"Sig":12269,"Used":12270,"Ġnotification":12271,"must":12272,"hal":12273,"hello":12274,"iment":12275,"Ġplots":12276,"Upsilon":12277,"ĠNa":12278,"Ġparametr":12279,"setting":12280,"ĠInitialize":12281,"Ġlanguages":12282,"oltage":12283,"Visitor":12284,"ola":12285,"Completion":12286,"Ġmilitary":12287,"Ġintersect":12288,"Relative":12289,"Feed":12290,"<>();":12291,"]),":12292,"Ġlaser":12293,"ĠParameters":12294,"Ġter":12295,"tuple":12296,"arial":12297,"volution":12298,"Ġkinem":12299,"Ġcollisions":12300,"temperature":12301,"ĠProf":12302,"Ġlocalized":12303,"ĠSing":12304,"including":12305,"Coll":12306,"ĠDateTime":12307,"vendor":12308,"HAS":12309,"aaaa":12310,"Alpha":12311,")}_{\\":12312,"ĠProp":12313,"WRITE":12314,"Special":12315,"Ġhardware":12316,"utors":12317,"BER":12318,"Ġcold":12319,"NI":12320,"MLE":12321,"Ġcubic":12322,"roadcast":12323,"Must":12324,"Ġhelps":12325,"ntz":12326,"ĠAli":12327,"Ġperturbations":12328,"Ġwx":12329,"Keyword":12330,"except":12331,"Functions":12332,"SSION":12333,"ĠGeorge":12334,"Ġreconstruct":12335,"Ġcomposed":12336,"Ġincrement":12337,"Neg":12338,"ensors":12339,"Factor":12340,"different":12341,"Ġintroduction":12342,"Ġpapers":12343,"ĠFlor":12344,"Ġdistinguish":12345,"ISE":12346,"Ð°ÑĤ":12347,"Ġpatient":12348,"Ġrecognition":12349,"unlock":12350,"Ġpowers":12351,"Ġensemble":12352,"Foo":12353,"Ġschools":12354,"hist":12355,"Ġmechanisms":12356,"Ġhundred":12357,"starts":12358,"Encode":12359,"Ġcustomers":12360,"prising":12361,"rehen":12362,"Ġaffine":12363,"steps":12364,"}})$":12365,"Ġsomewhat":12366,"Assume":12367,"ABILITY":12368,"SUPP":12369,"matic":12370,"ĠAcc":12371,"ĠOnce":12372,"Ġbra":12373,"Ñĸ":12374,"DTD":12375,"Apply":12376,"FORMAT":12377,"utoff":12378,"VO":12379,"Tracker":12380,"iced":12381,"rient":12382,"eros":12383,"ĠDA":12384,"ĠLat":12385,"Ġaria":12386,"Ġfirm":12387,"å¤":12388,"vskip":12389,"Asset":12390,"Ġplanning":12391,"Ġefforts":12392,"vp":12393,"Ġcolspan":12394,"atern":12395,"charts":12396,"Ġvacc":12397,"partition":12398,"Ġbudget":12399,"territ":12400,"ERN":12401,",~":12402,"Ġturbul":12403,"ĠMonte":12404,"æĺ":12405,"Ð¿":12406,"Ġreturning":12407,"Ġfigures":12408,"Ġmeson":12409,"ĠCache":12410,"ancellationToken":12411,"Ġcovering":12412,"ĠSymfony":12413,"ĠPerson":12414,"|=":12415,"Ġtriangle":12416,"folio":12417,"ĠSUMMARY":12418,"102":12419,"tokens":12420,"ĠRO":12421,"signal":12422,"Ġstock":12423,"pipe":12424,"Ġredirect":12425,"Ġlaws":12426,"ĠMarkov":12427,"&$":12428,"ĠMC":12429,"latest":12430,"ĠtoString":12431,"------------------------------------------------":12432,"aby":12433,"Ġblog":12434,"inverse":12435,"ĠĠĠĠĠĠĠĠĠĠĠĠĠĠĠĠĠĠĠĠĠĠĠĠĠĠĠĠĠĠĠĠĠĠĠĠĠĠĠĠ":12436,"Destroy":12437,"Ġtrim":12438,"grpc":12439,"BF":12440,"Ġhybrid":12441,"Styles":12442,"Ġdeclare":12443,"Ġutility":12444,"nc":12445,"Ġelectro":12446,"renderer":12447,"Upper":12448,"tile":12449,"MEM":12450,"Exit":12451,"fluid":12452,"Ġdeb":12453,"?(":12454,"Ġur":12455,"%\"><":12456,"Place":12457,"Ġaw":12458,"BYTE":12459,"ĠInternal":12460,"substack":12461,"Received":12462,"Kernel":12463,"vars":12464,"Ġtrial":12465,"><!--":12466,"LU":12467,"Ġsegmentation":12468,"finement":12469,"Modifier":12470,"Ġaddr":12471,"fun":12472,"exclude":12473,"ĠTor":12474,"Ġstuff":12475,"amazonaws":12476,"Ġcriterion":12477,"speed":12478,"Ps":12479,"iful":12480,"Ġoriginally":12481,"ĠChinese":12482,"gets":12483,"ĠBasic":12484,"ligible":12485,"onom":12486,"ventory":12487,".},":12488,"ffffff":12489,"ĠAnother":12490,"Ent":12491,"ORK":12492,"Ġpulse":12493,"Setup":12494,"territory":12495,"Ġissu":12496,"shaller":12497,"Calendar":12498,"ctree":12499,"ĠGenerate":12500,"tempt":12501,"Ġentirely":12502,"ĠResults":12503,"Ġcone":12504,"ĠEner":12505,"into":12506,"sent":12507,"Ġce":12508,"Ġinterpreted":12509,"lined":12510,"Ġ*,":12511,"ĠLanguage":12512,"')$":12513,"ĠMS":12514,"XXXX":12515,"ĠCD":12516,"Ġnewly":12517,"dra":12518,"Ġ'</":12519,"valueOf":12520,"scripts":12521,"~{\\":12522,"changes":12523,"ĠFact":12524,"ĠâĢ¦":12525,"ĠConsole":12526,"ĠTRUE":12527,"ĠGLuint":12528,"rintf":12529,"Ġliquid":12530,"ObjectMeta":12531,"ĠOptions":12532,"odo":12533,"Ġrelig":12534,"Ġsecure":12535,"veloc":12536,"ctrl":12537,"TM":12538,"indices":12539,"Ġcit":12540,"Ġvec":12541,"Ġindependently":12542,"Ġplant":12543,"strict":12544,".}\\":12545,"Ġalter":12546,"Transfer":12547,"Ġmath":12548,"Ġsharp":12549,"ĠLu":12550,"ĠAdmin":12551,"Credentials":12552,"ĠCarlo":12553,">`":12554,"gate":12555,"105":12556,"Bus":12557,"ĠSpace":12558,"amond":12559,"(\".":12560,"best":12561,"roscopic":12562,"Ġconventional":12563,"allowed":12564,"nih":12565,"both":12566,"NGTH":12567,"pite":12568,":-":12569,"servative":12570,"Ġauthentication":12571,"atile":12572,"ĠItem":12573,"spark":12574,"Describe":12575,"ĠWilliam":12576,"COUNT":12577,"Ġconducted":12578,"Ġnice":12579,"FileSystem":12580,"Ġvelocities":12581,">%":12582,"ĠDevelopment":12583,"Inline":12584,"ĠSTART":12585,"Present":12586,"Pane":12587,"initialize":12588,"Ġpredicate":12589,"resolved":12590,"oun":12591,"Ġinitialization":12592,"Ġguarantee":12593,"RM":12594,"ĠFrance":12595,"ĠClasses":12596,"Ġcommonly":12597,";|&":12598,"')->":12599,"Ġ\")":12600,"'',":12601,"anches":12602,"Ġconsumer":12603,"terms":12604,"Ġseparately":12605,"Accessor":12606,"ĠFILE":12607,"Ġrepresentative":12608,"%)":12609,"Ġrobot":12610,"Fit":12611,"FUNCTION":12612,"clock":12613,"fortunately":12614,"nl":12615,"Ġaudi":12616,"sequences":12617,"Ġfiber":12618,"ĠĠĠĠĠĠĠĠĠĠĠĠĠĠĠĠĠĠĠĠĠĠĠĠĠĠĠĠĠĠĠĠĠĠĠĠĠĠĠĠĠĠĠĠĠĠĠĠĠĠĠ":12619,"mbed":12620,"gravity":12621,"altColor":12622,"ĠParty":12623,"ĠMatch":12624,"Ġexclude":12625,"Ġopin":12626,"sych":12627,"Ġcontradiction":12628,"Ġdriven":12629,"days":12630,"Ġgate":12631,"gp":12632,"ĠDistrict":12633,"TEXTURE":12634,"SPE":12635,"multiple":12636,"amous":12637,"built":12638,"Hy":12639,"ĠSocial":12640,"Ġbenefits":12641,"syn":12642,"Subscription":12643,"archive":12644,"ĠSmith":12645,"OBJECT":12646,"noise":12647,"EEE":12648,"ĠAfrica":12649,"Ġiterate":12650,"Ġisinstance":12651,"ĠMethods":12652,"ĠSaf":12653,"ĠÐ½":12654,"Ġleaving":12655,"Ġcustomer":12656,"ĠMatrix":12657,"LC":12658,"ĠTry":12659,"Ġdistrict":12660,"Ġprototype":12661,"nown":12662,"ĠContainer":12663,"argv":12664,"Ġ'[":12665,"FTWARE":12666,"wallet":12667,"Si":12668,"eral":12669,"ĠRight":12670,"ĠSal":12671,"toEqual":12672,"ordinates":12673,"})_{":12674,"Fi":12675,"hskip":12676,"ynchronous":12677,"Ġspeech":12678,"'$,":12679,"=(\\":12680,"Ġspecifies":12681,"AVE":12682,"Ġpreferred":12683,"Rightarrow":12684,"Ġcertificate":12685,"Bi":12686,"ĠInit":12687,"Ġconcat":12688,"Ġcert":12689,"Ġ--></":12690,"Ġweakly":12691,"Ġcav":12692,"Ġenables":12693,"ĠChurch":12694,"Ins":12695,"news":12696,"Old":12697,"()[":12698,"Ġflush":12699,"enario":12700,"Such":12701,"ĠPrivate":12702,"Ġrectangle":12703,")=(":12704,"Ġali":12705,"mutex":12706,"Ġdied":12707,")|^":12708,"ston":12709,"ĠCamp":12710,"Injection":12711,"Ġcycles":12712,"danger":12713,"urer":12714,"Proc":12715,"ÙĨ":12716,"Ġnonzero":12717,"BLOCK":12718,"ĠXml":12719,"Paint":12720,"sts":12721,"Ġdisjoint":12722,"'}\\":12723,"filled":12724,"MenuItem":12725,"javax":12726,"Ġstructural":12727,"tasks":12728,"olo":12729,"Parts":12730,"rand":12731,"/)":12732,"iliary":12733,"YP":12734,"leave":12735,"reverse":12736,"Ġkw":12737,"centerline":12738,"Ġgrand":12739,"--;":12740,"Ġ}{\\":12741,"splice":12742,"Ġactivation":12743,"overlay":12744,"Ġsun":12745,"determin":12746,"Ġrefers":12747,")|\\":12748,"Ip":12749,"Ġepisode":12750,"Ġreward":12751,"Receive":12752,"aton":12753,"Ġenvironments":12754,"ĠUnless":12755,"SUCCESS":12756,"equival":12757,"agnostic":12758,"Anchor":12759,"maml":12760,"Ġsentence":12761,"Ġdiscovered":12762,"exact":12763,"Dict":12764,"âĢĿ.":12765,"Ġjoined":12766,"packet":12767,"Phase":12768,"Ġapart":12769,"ĠCondition":12770,"timeline":12771,"Arrays":12772,"Culture":12773,"NON":12774,"animate":12775,"jections":12776,"Ġsen":12777,"Ġinnov":12778,"EOF":12779,"ĠForce":12780,"Blocks":12781,"Ġassociation":12782,"Fixture":12783,"Tensor":12784,"1970":12785,"Tools":12786,"\\-":12787,"atever":12788,"Ġgeome":12789,"Ġdeprecated":12790,"Ġkeeping":12791,"Ġdraft":12792,"Std":12793,"ÙĦ":12794,"esture":12795,"104":12796,"Compat":12797,"ĠBur":12798,"stud":12799,"Ġdiscrimin":12800,"Ġblob":12801,"Ġsupply":12802,">(<":12803,"Ġrefresh":12804,"ĠGovernment":12805,"Ġterminal":12806,"Blockly":12807,"Ġfru":12808,"Ġlogin":12809,"Ġchallenging":12810,"classic":12811,"eed":12812,"SSAGE":12813,"inite":12814,"ÐµÑĢ":12815,"////////////////////////////////////////////////////////////////":12816,"Ġ&#":12817,"ĠPass":12818,"Ġreplacement":12819,"1989":12820,"*>(":12821,"Ġ'@":12822,"PARAM":12823,"pagination":12824,"Ġmapped":12825,"!=":12826,"Ġlinearly":12827,"Ġgi":12828,"Popup":12829,"SDL":12830,"andidate":12831,"Ġpeer":12832,"Topic":12833,"nos":12834,"rey":12835,"lee":12836,"Ġanalytical":12837,"ĠDMA":12838,"Ġthreat":12839,"empl":12840,"Backend":12841,"ibilities":12842,"running":12843,"attery":12844,"{[":12845,"Ġpandemic":12846,"GA":12847,"chrome":12848,"cookie":12849,"ĠBAS":12850,"Ġendif":12851,"Clean":12852,"Ġlengths":12853,"$--":12854,"ester":12855,"Ġshot":12856,"Ġ}.":12857,"()`":12858,"Anim":12859,"Ġtried":12860,"got":12861,"mathbbm":12862,"Zoom":12863,"includes":12864,"Ġsubsets":12865,"Da":12866,"meter":12867,"Seq":12868,"descriptor":12869,"Ġsea":12870,"Ġallocation":12871,"Ġincorrect":12872,"116":12873,"acer":12874,"ustain":12875,"PB":12876,"Ġmacro":12877,"Immutable":12878,"ĠĠĠĠčĊ":12879,"ntil":12880,"Ġcellpadding":12881,"ĠFurther":12882,"STRU":12883,"Ġarise":12884,"Ġcorrespondence":12885,"ĠConstructor":12886,"005":12887,"ĠEducation":12888,"Ġdwar":12889,"Ġtransmit":12890,"Ġlaun":12891,"ĠTechnology":12892,"à¥":12893,"ĠOriginal":12894,"rical":12895,"})-":12896,"ICAg":12897,"ĠAttribute":12898,"future":12899,"separator":12900,"Ġcontinues":12901,"Ġtile":12902,"Hello":12903,"ĠSty":12904,"Defined":12905,"ĠNGC":12906,"]^{":12907,"ati":12908,"overset":12909,"icing":12910,"oggle":12911,"PDF":12912,"Supp":12913,"tick":12914,"Ġconstrained":12915,"Ġencrypt":12916,"Doctrine":12917,"precision":12918,"Surface":12919,"ĠDig":12920,"APIENTRYP":12921,"acl":12922,"indicator":12923,"stri":12924,"EventArgs":12925,"ceptor":12926,"ĠStore":12927,"Ġdaily":12928,"Ġuintptr":12929,"Ġanalogous":12930,"ĠPut":12931,"Ġadvance":12932,"LEV":12933,"solr":12934,"Ġrc":12935,"FW":12936,"ĠSam":12937,"Ġsy":12938,"REAM":12939,"redirect":12940,"Traits":12941,"SERVER":12942,"packages":12943,"ĠDeta":12944,"ĠClub":12945,"adoc":12946,"codes":12947,"Ġportion":12948,"otent":12949,"Health":12950,"Retry":12951,"Nil":12952,"Ġrecovery":12953,"WARN":12954,"ims":12955,"environment":12956,"ĠIllegalArgumentException":12957,"Ġ^{\\":12958,"Ġpeaks":12959,"ifer":12960,"Fatalf":12961,"\"}":12962,"FIL":12963,"ĠBob":12964,"ĠTimes":12965,"æĪ":12966,"Ġboson":12967,"×ķ×":12968,"CHAN":12969,"Ġå":12970,"Ġhandled":12971,"ando":12972,"Ġcommunities":12973,"MetaData":12974,"ĠCPU":12975,"Ratio":12976,"213":12977,"Ġprepare":12978,"POINT":12979,"Components":12980,"pus":12981,"+$":12982,"added":12983,"ĠEnergy":12984,"smooth":12985,"ĠBoard":12986,"Ġsett":12987,"Ġnation":12988,"Ġinfinity":12989,"Testing":12990,"Ġremoving":12991,"Mag":12992,"RIGHT":12993,"ĠJournal":12994,"protect":12995,"Ġsubscription":12996,"æķ°":12997,"Threshold":12998,"Views":12999,"Ġhomot":13000,"Scan":13001,">[":13002,"002":13003,"Ġsleep":13004,"take":13005,"essor":13006,"ĠVol":13007,"Ġintegrals":13008,"ĠGLsizei":13009,"FRAME":13010,"Ġpara":13011,"ARGET":13012,"recur":13013,"ĠConstruct":13014,"ĠJer":13015,"Annotations":13016,"lectic":13017,"ĠAllow":13018,"Multiple":13019,"Ġdissip":13020,"invoke":13021,"pref":13022,"LOB":13023,"Ġ[{":13024,"Ġunstable":13025,"herence":13026,"}_{(":13027,"because":13028,"satisf":13029,"Ġsender":13030,"typ":13031,"ĠJavaScript":13032,"Ġpayment":13033,"ĠExpect":13034,"Ġprintf":13035,"Ok":13036,"Ġsteady":13037,"Ġparticipants":13038,"Ġabort":13039,"icient":13040,"Translation":13041,"Ġfee":13042,"pur":13043,"](#":13044,"ĠEntity":13045,"lfloor":13046,"¿½":13047,"Ġperiods":13048,"stderr":13049,"Ġadvert":13050,"Ġentities":13051,"Ġcfg":13052,"ĠNever":13053,"Measure":13054,"ROOT":13055,"Ġ$[\\":13056,"Separator":13057,"Ġcaptured":13058,"Ġaccounts":13059,"train":13060,"Slot":13061,"Ġrevealed":13062,"Related":13063,"(\"./":13064,"REQUEST":13065,"Lang":13066,"marker":13067,"adian":13068,"Zend":13069,"Ġ\");":13070,"rotate":13071,"Sel":13072,"ails":13073,"tre":13074,"priority":13075,"ĠBank":13076,"ĠLabel":13077,"antly":13078,"ĠGermany":13079,"IES":13080,"Ġattrib":13081,"Ġbon":13082,"Ġexhibit":13083,"Ġcombine":13084,"Ġordinary":13085,"ĠCommission":13086,"Ġcalibration":13087,"ĠHashMap":13088,"abet":13089,"Ġxhr":13090,"Ġneither":13091,"atest":13092,"DEC":13093,"LENGTH":13094,"ierarchical":13095,"ynthesis":13096,"__[\"":13097,"Ġvote":13098,"Entries":13099,"&-":13100,"StringBuilder":13101,"Ġloops":13102,"Ġ{{\\":13103,"Cookie":13104,"ĠCount":13105,"rfloor":13106,">.</":13107,"iNdEx":13108,"npm":13109,"Ġscaled":13110,"boundary":13111,"Ġmal":13112,"ĠAdv":13113,"secret":13114,"Ġelliptic":13115,"Ġhands":13116,"agation":13117,"']))":13118,"Filename":13119,"rgb":13120,"Ġprofessional":13121,"ĠEuclidean":13122,"ĠSil":13123,"Ġdotted":13124,"(--":13125,"floor":13126,"Ġforced":13127,"Ġpointed":13128,"ĠAD":13129,"Ġensures":13130,"ĠĠĠĠĠĠĠĠĠĠĠĠĠĠĠĠĠĠĠĠĠĠĠĠĠĠĠĠĠĠĠĠĠĠĠĠĠĠĠĠĠ":13131,"variants":13132,"xf":13133,"Ġbriefly":13134,"Ġpackages":13135,"Emitter":13136,"ĠMajor":13137,"apps":13138,"Ġsynthetic":13139,"ĠSociety":13140,"Ġhierarchy":13141,"Ġblood":13142,"Ġprojective":13143,"stub":13144,"guide":13145,"Ġreceiving":13146,"Ġ=================================================================":13147,"ĠUSE":13148,"variables":13149,"Ġfans":13150,"ĠIsland":13151,"ĠAdded":13152,"helpers":13153,"mux":13154,"}}}{":13155,"Ġgrpc":13156,"veral":13157,"404":13158,"ĠEnter":13159,"Ġorganized":13160,"Ġdecoder":13161,"ĠMeV":13162,"umed":13163,"Ġfelt":13164,"ï¿½":13165,"ĠArea":13166,"ĠChristian":13167,"Ġquotient":13168,"ĠGenerated":13169,"\\'{":13170,"gov":13171,"Ġmit":13172,"\\,.":13173,"ELEMENT":13174,"Ġcertainly":13175,"Occ":13176,"ĠHill":13177,"projects":13178,"Ġgather":13179,"ĠMary":13180,"SQLite":13181,"Ġtit":13182,"rating":13183,"Ali":13184,"ĠCong":13185,"week":13186,"Ġpercentage":13187,"Ġanalyzed":13188,"Ġlin":13189,"textarea":13190,"KL":13191,"similar":13192,"leading":13193,"scalar":13194,".;":13195,"Ġrendered":13196,"urday":13197,"John":13198,"Ġcri":13199,"ĠWell":13200,"Ġ$\\|":13201,"Ġdiscovery":13202,"ĠAWS":13203,"literal":13204,"Fs":13205,"Ġdiscret":13206,"Unique":13207,"Ġchoosing":13208,"displaymath":13209,"}.\\":13210,"Ġcredit":13211,"Ġentanglement":13212,"iframe":13213,"Inject":13214,"Ġreplacing":13215,"alty":13216,"Ġbars":13217,"consider":13218,"ĠTeam":13219,"MSG":13220,"Ġnom":13221,"Ġ(`":13222,"supervised":13223,"ez":13224,"letter":13225,"\"?>":13226,"uan":13227,"Attachment":13228,"Ġwife":13229,"ĠCONDITION":13230,"CONST":13231,"reatest":13232,"ĠScott":13233,"Ġreality":13234,"ĠImport":13235,"âĶ":13236,")}=":13237,"ĠJapan":13238,"},{\\":13239,"encing":13240,"Ġrely":13241,"Ġsear":13242,"azure":13243,"cyc":13244,"Ġlabor":13245,"Ġdeformation":13246,"ĠHead":13247,"Rob":13248,"branch":13249,"Ġhook":13250,"IEW":13251,"ĠAward":13252,"Recent":13253,"Ġ/**<":13254,"Ġinterference":13255,"Ġoutline":13256,"training":13257,"(`":13258,"!(":13259,"ĠThomas":13260,"Ġexcellent":13261,"Css":13262,"ores":13263,"enance":13264,"ĠMany":13265,")'":13266,".\")":13267,"Ġsubmit":13268,"Ġthreads":13269,"ĠWord":13270,"}&\\":13271,"ĠAC":13272,"who":13273,"Ġprimitive":13274,"night":13275,"Ġwit":13276,"ĠFlorida":13277,"brand":13278,"respectively":13279,"ĠNothing":13280,"dirname":13281,"eno":13282,"Ġinstructions":13283,"isy":13284,"okes":13285,"visit":13286,"FD":13287,"$(\\":13288,"ĠMus":13289,"ressive":13290,"144":13291,"hw":13292,"City":13293,"ĠUpd":13294,"}_{{\\":13295,"pearance":13296,"Ġbillion":13297,"Strings":13298,"Ġsuperconduct":13299,"SUB":13300,"@{}":13301,"ĠYoung":13302,"Picker":13303,"atable":13304,"Ġdeduce":13305,"Subject":13306,"ĠWay":13307,"VS":13308,"ssue":13309,"Ġconservation":13310,"Ġnotes":13311,"Ġmarginal":13312,"walk":13313,"Ġprogramming":13314,"Ġcp":13315,"Ġneur":13316,"conver":13317,"Ġisolated":13318,"ĠFI":13319,"mv":13320,"ĠRecord":13321,"Ġcircles":13322,"sha":13323,"Generate":13324,"Ġ/><":13325,"ĠDIS":13326,"idal":13327,"ERTY":13328,"]</":13329,"ousel":13330,"PN":13331,"Ġspl":13332,"Include":13333,"Ġbrand":13334,"Ġgit":13335,">{":13336,"Ġleaf":13337,"GG":13338,"ĠBH":13339,"Deployment":13340,"ermit":13341,"Angle":13342,"ĠCast":13343,"Ġfashion":13344,"ĠIgn":13345,"Ġobservables":13346,"craft":13347,"ĠFull":13348,"Ġcyl":13349,"aped":13350,"Ġseek":13351,"setText":13352,"dbc":13353,"ĠML":13354,"Ġcosmic":13355,"entric":13356,"Ġelastic":13357,"acks":13358,"eller":13359,"oice":13360,"toctree":13361,"ĠTarget":13362,"owski":13363,"PREFIX":13364,"ĠElect":13365,"ENC":13366,"ĠMulti":13367,"Structure":13368,"Ġsuffices":13369,"Low":13370,"Checked":13371,"ĠSOFTWARE":13372,")<":13373,"Ġcomposite":13374,"xsd":13375,"Ġmach":13376,"1987":13377,"Ġiget":13378,"Ġcombinations":13379,"dfs":13380,"ĠDeterm":13381,"Bro":13382,"Called":13383,"erate":13384,"sizeof":13385,"Ġ[#":13386,"ien":13387,"ĠIsra":13388,"oved":13389,"Ġwhom":13390,"Ġcellspacing":13391,"}$).":13392,"ĠFund":13393,"åĬ":13394,"Ġcorrelated":13395,"Ġentered":13396,"ĠCONDITIONS":13397,",,":13398,"VC":13399,":%":13400,"Ġinstitution":13401,"Ġadvanced":13402,"Ð·":13403,"ione":13404,"Ġparsing":13405,"Ġnumerically":13406,"positive":13407,"Ġheter":13408,"Ġrealistic":13409,"orrow":13410,"Ġru":13411,"ĠsetTimeout":13412,"ORS":13413,"Calcul":13414,"Ġprotection":13415,"Ġinterview":13416,"Ġ\";":13417,"1988":13418,"azine":13419,"Mesh":13420,"Shadow":13421,"Modules":13422,"Ġrhs":13423,"ĠSchema":13424,"velocity":13425,"Ġeye":13426,"ĠPC":13427,"ĉĉĉĉĉĉĉĉĉĉĉ":13428,"}|^":13429,"ĠparseInt":13430,"heap":13431,",\"./":13432,"Ġcommercial":13433,"rowse":13434,"Ġstands":13435,"cher":13436,"/#":13437,"backend":13438,"degree":13439,"cas":13440,"ĠÂ©":13441,"TLS":13442,"240":13443,"Ġeyes":13444,"ĠLou":13445,"!\"":13446,"Ġthermod":13447,"Ġhappened":13448,"Ġrelaxation":13449,"oti":13450,"typeparam":13451,"Similarly":13452,"ĠChrome":13453,"^-$":13454,"ushed":13455,"ĠAnn":13456,"ĠMA":13457,"water":13458,"AUTH":13459,"Î»":13460,"Ġmission":13461,"Ġrecommended":13462,"Ġcooling":13463,"ifest":13464,"tv":13465,"orbit":13466,"stringify":13467,"online":13468,"Intern":13469,"ĠBASIS":13470,"INSTANCE":13471,"chitz":13472,"comments":13473,"Ġfd":13474,"cedures":13475,"Encoder":13476,"'=":13477,"lescope":13478,"Ġglyph":13479,"does":13480,"underset":13481,"Ġsales":13482,"ĠTexas":13483,"))$.":13484,"Ġderivation":13485,"larg":13486,"Ġretain":13487,"Peer":13488,"Ġincoming":13489,"Ġlatent":13490,"Ġinduces":13491,"ĠBet":13492,"ĠRights":13493,"ĠIV":13494,"Ġcivil":13495,"ÐµÑĤ":13496,"Because":13497,"hh":13498,"alaxy":13499,"imiter":13500,"Dot":13501,"ĠCentral":13502,"Ġstores":13503,"Connector":13504,"Payload":13505,"ĠApple":13506,"Ġwrapped":13507,"spheric":13508,"RENT":13509,"rx":13510,"lides":13511,"interop":13512,"Ġsummer":13513,"Ġrelationships":13514,"scriptions":13515,"isen":13516,"Ġpoll":13517,"utter":13518,"elligence":13519,"Ġguess":13520,"Ġther":13521,"Millis":13522,"Ġinflation":13523,"HANDLE":13524,"ĠOpt":13525,"TOM":13526,"ulp":13527,"ĠTHREE":13528,"Ġwarm":13529,"untain":13530,"Ġarrow":13531,"Ġenhanced":13532,"tableblock":13533,"ĠEnvironment":13534,"blocks":13535,"cerning":13536,"//----------------------------------------------------------------":13537,"ĠPen":13538,"NUnit":13539,"Sco":13540,"Ġstages":13541,"Ġexcitation":13542,"dependencies":13543,"Alert":13544,"ĠAnalysis":13545,"Design":13546,"regex":13547,"Ġfloor":13548,"ĠGC":13549,"Ġcaller":13550,"Ġillustrate":13551,"four":13552,"(|":13553,"Sender":13554,"Ġconjecture":13555,"??":13556,"curve":13557,"220":13558,"openapi":13559,"LOAT":13560,"Warnings":13561,"Most":13562,"Requests":13563,"life":13564,"ĠJob":13565,"Ġhandles":13566,"Ġ\"[":13567,"Ġheard":13568,"ĠRandom":13569,"asi":13570,"Ġchains":13571,"OPTION":13572,"Ġconsideration":13573,"Ġregex":13574,"listeners":13575,"Ġinserted":13576,"Ġnearest":13577,"Ġpan":13578,"Ġfacts":13579,"Face":13580,"ç»":13581,"anim":13582,"FM":13583,"Ġ\\#":13584,"-------":13585,"è®":13586,"115":13587,"Ġacceleration":13588,"legend":13589,"0000000":13590,"Ġpreserve":13591,"Ġinspect":13592,"ViewController":13593,"ZZ":13594,"icine":13595,"Respon":13596,"beans":13597,"ĠGreat":13598,"googleapis":13599,"LEVEL":13600,"ĠOffic":13601,"Ġtele":13602,"enta":13603,"enger":13604,"Ġinset":13605,"efficient":13606,"ĠAccount":13607,"Ġ@{":13608,"Ġinfer":13609,"Ġformalism":13610,"ĠFriday":13611,"Ġhandlers":13612,"Ġappearing":13613,"Ġregistry":13614,"charge":13615,"Gateway":13616,"Ġ//!":13617,"Ġfaces":13618,"'}$":13619,"OG":13620,"American":13621,"USY":13622,"ĠProperties":13623,"Claim":13624,"havi":13625,"aka":13626,"Ġpotentials":13627,"osis":13628,"ĠValidate":13629,"critical":13630,"scatter":13631,"Ġ}$":13632,"}=(":13633,"ady":13634,"perturb":13635,"Ġdiameter":13636,"Pages":13637,"gh":13638,"Ġexamine":13639,"Ġpartner":13640,"Ġbegins":13641,"Ġcoherent":13642,"Ġdecode":13643,"Ġcarbon":13644,"Ġwindows":13645,"Ġkilled":13646,"Ġmanage":13647,"developer":13648,"TableRowColor":13649,"Ġdropped":13650,"Ġahead":13651,"}}}$":13652,"ĠFormat":13653,"Ġattempts":13654,"dw":13655,"___":13656,"lastic":13657,"Ġ(!$":13658,"Ġfiltered":13659,"ithmetic":13660,"Registration":13661,"relax":13662,"ĠWHERE":13663,"lator":13664,"Coin":13665,"Don":13666,"ĠTIM":13667,"ĠFixed":13668,"ITLE":13669,"isons":13670,"Ġaren":13671,"demo":13672,"Redu":13673,"âĢĺ":13674,"nonatomic":13675,"Ġoutper":13676,"Ġmeant":13677,"pmb":13678,"rn":13679,"coordinate":13680,"ĠObservable":13681,"mixin":13682,"ĠTypeError":13683,"Git":13684,"Ġremoves":13685,"Ġsan":13686,"ĠJew":13687,"filer":13688,"TagName":13689,"leftrightarrow":13690,"Ġintent":13691,"cades":13692,"Ġpieces":13693,"Ġ$$\\":13694,"ĠPeter":13695,"formula":13696,"ĠEditor":13697,"sen":13698,"Ġcc":13699,"Inspect":13700,"}}+":13701,"Ġzoom":13702,"ori":13703,"Ġcuts":13704,"=\"{{":13705,"cessed":13706,"Ġpresentation":13707,"ĠFi":13708,"Percent":13709,"Ġdil":13710,"Ġscr":13711,"Ġclassifier":13712,"Nested":13713,"preventDefault":13714,"olving":13715,"ĠCalcul":13716,"Ġcovers":13717,"atches":13718,"ĠSY":13719,"ĠCL":13720,"Ġnan":13721,"ĠPosition":13722,"Ġcallbacks":13723,"()\">":13724,"forcement":13725,"Could":13726,"Ops":13727,"Ġ$-$":13728,"Ġshear":13729,"Norm":13730,"icky":13731,"Ġviewed":13732,"Original":13733,"={\\":13734,"Ġcompilation":13735,"ĠDirector":13736,"Pojo":13737,"=-=-":13738,"Ġfindings":13739,"Ġhal":13740,"Ġrejected":13741,"servlet":13742,"Ġregardless":13743,"-----":13744,"}(-":13745,"ĠInternet":13746,"Ġhear":13747,"Ġtells":13748,"tol":13749,"^+\\":13750,"AMETER":13751,"Ġ[-":13752,"Ġheav":13753,"Ġchapter":13754,"ĠEC":13755,"!</":13756,"Ġ\\:":13757,"quality":13758,"ĠCluster":13759,"Ùħ":13760,"Ġroles":13761,").}":13762,"getTime":13763,"~~~":13764,"inesses":13765,"Ġbul":13766,"valuate":13767,"Priv":13768,"Ġsymmetries":13769,"Just":13770,"Ġmig":13771,"Bag":13772,"Partial":13773,"*>":13774,"Allowed":13775,"Ġsituations":13776,"Decode":13777,"ĠLorentz":13778,"Ġdeterministic":13779,"ICAgICAg":13780,"Ġvanishing":13781,"Ġinvariance":13782,"letes":13783,"ĠStringBuilder":13784,"existing":13785,"ercise":13786,"Ġfunctionality":13787,"destination":13788,"Ġretry":13789,"Ġrealized":13790,"dtd":13791,"look":13792,"ĠJose":13793,"Ġnearby":13794,"Ġtransformed":13795,"Ġstroke":13796,"represent":13797,"ĠMass":13798,"merce":13799,"ĠBound":13800,"atom":13801,"Ġsynchronized":13802,"Ġinstanti":13803,"versions":13804,"posable":13805,"Bridge":13806,"}\\}$":13807,"PASS":13808,"nesday":13809,"ilinear":13810,"Ġ\\,,":13811,"Ġdeployment":13812,"manifest":13813,"ĠRock":13814,"Ġimpossible":13815,"Ġinfe":13816,"Every":13817,"Ã¨":13818,":&":13819,"olate":13820,"Hidden":13821,"Ġincome":13822,"ĠAcade":13823,"oss":13824,"Ġaveraged":13825,")\\,\\":13826,"Overflow":13827,"Ġshapes":13828,"Ġadmits":13829,"lst":13830,"ĠReset":13831,"MESSAGE":13832,"Coord":13833,"squ":13834,"Ġregistration":13835,"Ġdog":13836,"ulner":13837,"Ġmultiplication":13838,"Ġmathematical":13839,"Ġthr":13840,"Ġlisten":13841,"ĠSta":13842,"Router":13843,"Uses":13844,"Ġworst":13845,"Ġreliable":13846,"ĠSunday":13847,"Ġsampled":13848,"FIN":13849,"Ġsch":13850,"cpy":13851,"Ġoptimized":13852,"ĠDictionary":13853,"Ġrestrictions":13854,"################################":13855,"xe":13856,"uned":13857,"Cert":13858,"Ġvision":13859,"Ġartifact":13860,"DataSource":13861,"Ġ$('#":13862,"Ġverified":13863,"]];":13864,"::$":13865,"atten":13866,"UUID":13867,"PIO":13868,"Ġri":13869,"Define":13870,"Ġparties":13871,"interpret":13872,"deriv":13873,"herits":13874,"poi":13875,"ĠVideo":13876,"Ġsharing":13877,"ĠRetrie":13878,"Ġquarter":13879,"ĠTur":13880,"Ġdeveloping":13881,"ĠRecall":13882,"scribed":13883,"Mail":13884,"choice":13885,"MAN":13886,"ADDING":13887,"Ġlic":13888,"Ġlocalization":13889,"Ġsurve":13890,"ĉĉčĊ":13891,"ĠEinstein":13892,"lating":13893,"Ġoil":13894,"Ġcombining":13895,"Ġspecification":13896,"management":13897,"ROW":13898,"Your":13899,"Ġattach":13900,"ĠFT":13901,"Ġtangent":13902,"Ġcompatibility":13903,"Ġcentered":13904,"Ġprojected":13905,"Ġ}));":13906,"diction":13907,"Score":13908,"radient":13909,"ĠHot":13910,"Ïħ":13911,"+\"":13912,"xc":13913,"modified":13914,"Ġcipher":13915,"ĠGET":13916,"ĠJacob":13917,"During":13918,"subscription":13919,"Ġaccessible":13920,"Ġfif":13921,"Ġobtaining":13922,"×Ļ":13923,"Ant":13924,"Ġblow":13925,"ipschitz":13926,"Am":13927,"glob":13928,"Ġsurrounding":13929,"Ġarticles":13930,"fv":13931,"live":13932,"Ġanomal":13933,"apple":13934,"ĠFire":13935,"price":13936,"Ġcrow":13937,"Ġrouter":13938,"likely":13939,"fraction":13940,"Ġhyperbolic":13941,"Ġelementary":13942,"Ġsig":13943,"Ġscheduler":13944,"',\\":13945,"asion":13946,"Ġpc":13947,"ĠDue":13948,"Ġrendering":13949,"ĠHE":13950,"ByName":13951,"Ġ\"--":13952,"ĠCare":13953,"TOO":13954,"Ġ].":13955,"Ġrenderer":13956,"xFF":13957,"capture":13958,"Ġfault":13959,"ĠIC":13960,"LONG":13961,"ih":13962,"Ġice":13963,"ĠOperation":13964,"ĠTaylor":13965,"Ġsupporting":13966,"Ġgenerality":13967,"ĠNOTE":13968,"Operand":13969,"RF":13970,"Ġsep":13971,")!":13972,"ACING":13973,"sid":13974,"Ġrapidly":13975,"liers":13976,"momentum":13977,"Aff":13978,"ENCE":13979,"ĠMP":13980,"bas":13981,"many":13982,"Routing":13983,"\\|_{\\":13984,"swap":13985,"5000":13986,"ĠRoman":13987,"Ġinform":13988,"usted":13989,"Filters":13990,"Ġreply":13991,"Ġappoint":13992,"Ġbid":13993,"ipedia":13994,"Ġlogical":13995,"proj":13996,"),(":13997,"uesday":13998,"Intent":13999,"corresponding":14000,"ĠTw":14001,"Ġdeclared":14002,"Ġ!(":14003,"Ġguest":14004,"ussia":14005,"Ġrespond":14006,"Pres":14007,"Force":14008,"++]":14009,"avicon":14010,"ĠPeople":14011,"Ġcle":14012,"atorial":14013,"ĠFrank":14014,"Ġdamage":14015,"ASC":14016,"slot":14017,"Week":14018,"Ġpump":14019,"ĠHD":14020,"icago":14021,"Ġlooked":14022,"Ġgun":14023,"Ġfitted":14024,"Ġtf":14025,"Ġsubstantial":14026,"Forward":14027,"validator":14028,"ĠRange":14029,"Hex":14030,"sizing":14031,"hour":14032,"NaN":14033,"Ġ(((":14034,"}}-":14035,"Ġlisting":14036,"Ġacknowled":14037,"')\\":14038,"mx":14039,"Ġà¤":14040,"ruption":14041,"Ġamounts":14042,"biggr":14043,">${":14044,"mbr":14045,"ĠBre":14046,"Ġdistort":14047,"Compilation":14048,"missing":14049,"Ġfresh":14050,"erring":14051,"abit":14052,"biggl":14053,"Ġgoals":14054,"EMP":14055,"Sheet":14056,"Ġfaith":14057,"Fatal":14058,"Ġpreced":14059,"mms":14060,"via":14061,"Ġnegligible":14062,"`:":14063,"choose":14064,"ĠLIC":14065,"ursday":14066,"RX":14067,"ancis":14068,"'(\\":14069,"atre":14070,"Ġexposure":14071,"Ġvideos":14072,"iration":14073,"mg":14074,"ĠChecks":14075,"Records":14076,"Ġconnecting":14077,"LEN":14078,"Ġexceptions":14079,"apy":14080,"Ġpt":14081,"aggreg":14082,"toc":14083,"UC":14084,"Ġsuite":14085,"failure":14086,"camera":14087,"ĠStorage":14088,"nobr":14089,"dAtA":14090,"gap":14091,"Ġembeddings":14092,"olves":14093,"Ġstrip":14094,"ĠConnection":14095,"Ti":14096,"absolute":14097,"pick":14098,"Detector":14099,"Ġhelpful":14100,"Clip":14101,"Ġtemporary":14102,"Req":14103,"Ġpuls":14104,"Ġcompletes":14105,"AH":14106,"pipeline":14107,"wire":14108,"CTRL":14109,"bigskip":14110,"Ġdedicated":14111,"pal":14112,"Scene":14113,"Relation":14114,"Ġcouldn":14115,"iminal":14116,"12345":14117,"ĠBill":14118,"ĠNotice":14119,"WriteLine":14120,"ĠFuture":14121,"Sn":14122,"CLI":14123,"nova":14124,"Sing":14125,"micro":14126,"ĠWilson":14127,"Ġconcerns":14128,":**":14129,"Predicate":14130,"ativity":14131,"subfloat":14132,"innerHTML":14133,"gency":14134,"Ġfre":14135,"Ġmur":14136,"readonly":14137,"Ġcancer":14138,"usage":14139,"caret":14140,"PTION":14141,"Ġconstexpr":14142,"Ġfusion":14143,"rowsers":14144,"({},":14145,"Ġsociety":14146,"polar":14147,"ĠBlue":14148,"Stage":14149,"Ġsubstr":14150,"cla":14151,">';":14152,"Black":14153,"implementation":14154,"Small":14155,"Ġnotify":14156,"Sent":14157,"Ġallocated":14158,"Ġpaid":14159,"thead":14160,"?\"":14161,"Ġdump":14162,"Destination":14163,"stroke":14164,"Ġinstability":14165,"Party":14166,"SIGN":14167,"Ġvot":14168,"ĠVan":14169,"Ġcompetition":14170,"ĠTEST":14171,"555":14172,"disc":14173,"Ġtelevision":14174,"numeric":14175,"ĠSpecifically":14176,"ĠMel":14177,"Dispatcher":14178,"103":14179,"ĠCommun":14180,"ĠFrame":14181,"CRIPT":14182,"Ġformulas":14183,"interopRequire":14184,"ĠTre":14185,"Refresh":14186,"visibility":14187,"ĠAbout":14188,"ĠRegExp":14189,"transfer":14190,"BOOST":14191,"ĠOTHER":14192,"Ġknew":14193,"Ġcompens":14194,"ictor":14195,"follow":14196,"Ġcookie":14197,"AW":14198,"rott":14199,"Ġprepared":14200,"Ġfemale":14201,"}^{(\\":14202,"Ġbridge":14203,"Ġrestore":14204,"evt":14205,"ĠUSB":14206,"Ġprimarily":14207,"Ġsess":14208,"equalities":14209,"Shift":14210,"Matches":14211,"Ġcredentials":14212,"ĠSET":14213,"statement":14214,"Ġcohomology":14215,"sho":14216,"far":14217,"channels":14218,"ĠNewton":14219,"ĠShared":14220,"accur":14221,"autoref":14222,"Ġcrossing":14223,"ĠProduct":14224,"marks":14225,"adjust":14226,"Bel":14227,"Ġreproduce":14228,"prule":14229,"ĠĠĠĠĠĠĠĊ":14230,"ĠED":14231,"licas":14232,"Hide":14233,"initely":14234,"Ġvoltage":14235,"solut":14236,"yc":14237,"orse":14238,"ipart":14239,"mation":14240,"Ġfermions":14241,"Ġproves":14242,"lc":14243,"Ġletters":14244,"inet":14245,"itud":14246,"aret":14247,"question":14248,"idel":14249,"ĠMad":14250,"Ġlargely":14251,"ĠAws":14252,"Ġadapter":14253,"ĠSecret":14254,"Behavior":14255,"ARCH":14256,"zier":14257,"Ġplate":14258,"ĠTHIS":14259,"Green":14260,"atype":14261,"118":14262,"ĠPay":14263,"Ġunable":14264,"Ã¢":14265,"vv":14266,"ĠCorpor":14267,"vectors":14268,"()]":14269,"Img":14270,"Than":14271,"<?>":14272,"phy":14273,"crement":14274,"modifier":14275,"Ġlegend":14276,"fm":14277,"Ġconvenience":14278,"Ġburn":14279,"INTE":14280,"ĠRichard":14281,"-------------":14282,"Ġextern":14283,"Tables":14284,"Ġbounding":14285,"ĠOK":14286,"Ġreducing":14287,"Ġapps":14288,"ĠDevice":14289,"restore":14290,"Large":14291,"arding":14292,"ĠWeek":14293,"Ġreaches":14294,"350":14295,"Ġarises":14296,"lices":14297,"uckets":14298,"Ġmoduli":14299,"Dash":14300,"Ġpurely":14301,"ĠDu":14302,"lueto":14303,"controls":14304,"ĠEst":14305,"Extract":14306,"FB":14307,"Notice":14308,"Ġfacilit":14309,"Dimension":14310,"Instances":14311,"luetooth":14312,"Ġartist":14313,"Ġimaginary":14314,"HH":14315,"major":14316,"getText":14317,"Ġindust":14318,"TypeName":14319,"ITER":14320,"ĠMember":14321,"}}^{(":14322,"ggable":14323,"MAC":14324,"sis":14325,"ĠFR":14326,"1986":14327,"central":14328,"encil":14329,"ElementsBy":14330,"iy":14331,"NP":14332,"Ġpermutation":14333,")~":14334,"algo":14335,"ilot":14336,"Excel":14337,"Autom":14338,"IBU":14339,"Ġ\"\")":14340,"STRUCT":14341,"NameLink":14342,"Ġrelativistic":14343,"ĠâĢ¢":14344,"../../../":14345,"ĠERROR":14346,"secutive":14347,"Ġdelivery":14348,"hyp":14349,"åľ":14350,"107":14351,"ĠWin":14352,"comparison":14353,"ĠVAR":14354,"'-":14355,"VT":14356,"(\"<":14357,"odal":14358,"Ġrid":14359,"bibli":14360,"STREAM":14361,"ĠDC":14362,".\";":14363,"ĠTab":14364,"Ġflavor":14365,"Ġdecor":14366,"Ð¾Ð»":14367,"born":14368,"Ġdivision":14369,"makebox":14370,"hashCode":14371,"unsafe":14372,"Ġsongs":14373,"rish":14374,"Modal":14375,"Ġconclusions":14376,"Ġearth":14377,"Ġquarks":14378,"Ġconcrete":14379,"warded":14380,"Marshal":14381,"Ġsigns":14382,"pied":14383,"ĠAuth":14384,"ĠAustralian":14385,"[];":14386,"Publish":14387,"constants":14388,"Ġoffered":14389,"imately":14390,"ĠINT":14391,"compatible":14392,"132":14393,"visor":14394,"Ġcyclic":14395,"ĠMinister":14396,"ĠMex":14397,"ĠLapl":14398,"108":14399,"Revision":14400,"1985":14401,"'):":14402,"atim":14403,"Ġinspired":14404,"afka":14405,"TextView":14406,"ÏĤ":14407,"Ġ\":":14408,"iguous":14409,"ĠKore":14410,"Ġ\\\\[":14411,"ĠCoq":14412,"Ġ')":14413,"Unlock":14414,"Sat":14415,"Ġfractional":14416,"sections":14417,"anda":14418,"Î¼":14419,"\\\\\\":14420,"ĠMonday":14421,"Ġmanually":14422,"ircraft":14423,"Sys":14424,"Clone":14425,"heets":14426,"Ġsequential":14427,"Ty":14428,"Orient":14429,"Ġclimate":14430,"Ġabelian":14431,"Patch":14432,"toprule":14433,"ĠLICENSE":14434,"Ġaws":14435,"135":14436,"Ġec":14437,">');":14438,"ĠEN":14439,"æĹ":14440,"wind":14441,"ĠSpan":14442,"wi":14443,"Price":14444,"ĠBased":14445,"RTC":14446,"Ġholomorphic":14447,"gc":14448,"ulse":14449,"Ġdoor":14450,"stmt":14451,"Ġlambda":14452,"door":14453,"900":14454,"ĠOUT":14455,"Ġreceives":14456,"ĠÐ´":14457,"ĠCompute":14458,"buttons":14459,"ĠBORDER":14460,"\\}}":14461,"UNK":14462,"190":14463,"continu":14464,"Ġ{})":14465,"Ġrs":14466,"Initialize":14467,"izz":14468,"nodeName":14469,"coupling":14470,"party":14471,"pq":14472,"ĠPNG":14473,"itecture":14474,"Ġpasses":14475,"Primitive":14476,"Ġscheduled":14477,"ĠRule":14478,"cean":14479,"ĠSl":14480,"Images":14481,"Ġcondens":14482,"Ġadult":14483,"ĠCarol":14484,"refox":14485,"Ġcapable":14486,"Ġsingularity":14487,"Ġswe":14488,"ĠNY":14489,"DELETE":14490,"}$$":14491,"Resize":14492,"ĠĠĠĠĠĠĠĠĠĠĠĠĠĠĠĠĠĠĠĠĠĠĠĠĠĠĠĠĠĠĠĠĠĠĠĠĠĠĠĠĠĠ":14493,"Ġwrites":14494,"Ġcha":14495,"Reply":14496,"ĠPUBLIC":14497,"ĠBOOL":14498,"leaf":14499,"chat":14500,"ĠCommunity":14501,"Ġdirective":14502,"Ġdetermining":14503,"notated":14504,"Å¡":14505,"ĠMiss":14506,"UA":14507,"270":14508,"pars":14509,"Ġhistorical":14510,"Ġtip":14511,"ĠHen":14512,"Ġunity":14513,"Bs":14514,"ĠMemory":14515,"Ġhospital":14516,"Ġcrystal":14517,"ĠTown":14518,"Exchange":14519,"Ġpor":14520,"heses":14521,"vt":14522,"1234":14523,"noframe":14524,"Horizontal":14525,"continuous":14526,"ĠMust":14527,"Ġfarm":14528,"Ġleak":14529,"information":14530,"seen":14531,"inputs":14532,"ĠTF":14533,"Ġnumerous":14534,"Ġdivergence":14535,"ĠAfrican":14536,"ÑĨ":14537,"ĠLee":14538,"Ġimaging":14539,"jackson":14540,"stellar":14541,"Ġ[]*":14542,"ĠConnect":14543,"Ġum":14544,"ĠJoe":14545,"Ġslide":14546,"Ġdanger":14547,"Ġfunding":14548,"eld":14549,"Ġptr":14550,"Ġmorning":14551,"Ġplatforms":14552,"Ġfeasible":14553,"ARK":14554,"ĠCup":14555,"textstyle":14556,"compress":14557,"Ġindicator":14558,"gements":14559,"Conversion":14560,"itter":14561,"predict":14562,"tables":14563,"Ġdecide":14564,"/$":14565,"ĠSem":14566,"OTTOM":14567,"Ġbandwidth":14568,"Ġsends":14569,"SYS":14570,"ĠcancellationToken":14571,"Why":14572,"StackTrace":14573,"Ġassertion":14574,"Ġfederal":14575,"Ġasset":14576,"ĠRoyal":14577,"Ø¯":14578,"NAL":14579,"Ġintroducing":14580,"nodeType":14581,"Ġsuffix":14582,"]_{":14583,"Ġsqlite":14584,"ĠJapanese":14585,"htbp":14586,"keleton":14587,"Ġstrug":14588,"ivot":14589,"ĠÐ¸":14590,"Ġescap":14591,"ĠDest":14592,"ReadOnly":14593,"rk":14594,"commands":14595,"Ġpopulations":14596,"Ġcapabilities":14597,"aci":14598,"Ġassumes":14599,"ĠThrow":14600,"Ġdecisions":14601,"Ġnumeric":14602,"VA":14603,"iq":14604,"hint":14605,"Getter":14606,"gol":14607,"Ġlimiting":14608,"finish":14609,"Ġ'{":14610,"ipient":14611,"units":14612,"Ġcos":14613,
[...]
