#version: 0.2
Ġ Ġ
Ġ t
ĠĠ ĠĠ
i n
e r
o n
Ġ a
h e
a t
r e
Ġt he
e n
o r
a l
s t
a n
i t
a r
Ġ c
i on
Ġ o
e d
Ġ s
e s
i s
Ġ f
Ġ w
l e
ĠĠ Ġ
Ġ p
i c
Ġ in
Ġo f
ĠĠĠĠ ĠĠĠĠ
r o
n d
in g
Ġ b
a s
e t
c t
Ġ d
Ġ m
Ġ \
Ġa nd
en t
e l
a m
o u
Ġ $
Ġt o
i l
i g
Ġ re
o m
at ion
Ġ h
Ġ n
Ġ (
o l
Ġt h
a c
i m
i d
Ġ S
Ġ e
o t
Ġ T
u r
Ġ l
Ġ C
i v
ĠĠĠĠ ĠĠĠ
u t
s e
Ġ A
a d
Ġ is
Ġ =
u l
c e
o d
t h
Ġf or
{ \
r a
ĉ ĉ
i f
g e
a b
o w
u m
c h
q u
e m
Ġ g
u n
Ġ M
u s
< /
č Ċ
Ġ v
l y
Ġ st
er s
Ġ I
it h
Ġ on
= "
i st
) ;
p e
at e
i r
Ġc on
Ġb e
Ġ P
Ġ B
2 0
at h
ct ion
e x
Ġa s
en d
- -
t er
Ġ {
a y
p t
h t
o c
Ġ <
v er
_ {
r i
Ġth at
Ġ H
Ġ R
Ġw ith
an d
1 9
Ġ F
as s
e g
re s
ĠĠĠĠĠĠĠĠ ĠĠĠ
Ġ L
Ġ D
u b
Ġa l
a v
Ġp ro
e f
Ġ$ \
/ /
ĠT he
am e
o s
Ġa n
Ġb y
u p
Ġ *
Ġw h
Ġ N
Ġ Ċ
a p
es s
Ġ "
p h
e st
t a
Ġw as
Ġ G
e w
Ġ &
it y
m ath
Ġ W
â Ģ
ro m
o p
in e
u e
Ġ E
ar t
Ġ }
or t
p l
er e
Ġe x
ig ht
Ġc om
e ct
r an
Ġc l
o re
Ġa t
al l
u re
a ge
m ent
ou r
re f
ex t
a g
e c
n t
" >
i al
i es
i z
Ġ it
ĠĠĠĠĠĠĠĠ ĠĠĠĠĠĠĠĠ
Ġf rom
} \
Ġ or
} $
Ġa re
m a
o g
^ {
e p
in t
ul t
il l
u d
c l
iv e
Ġ O
Ġ J
Ġ r
ĠĠĠĠ Ġ
Ġw e
b er
ac k
p er
it e
ur n
( )
Ġth is
s p
an t
k e
* *
or m
0 0
at ed
ar y
l d
f t
Ġ U
ic h
ab le
Ġ he
ig n
} }
i p
p ort
' s
T he
u nd
o v
. .
Ġcl ass
( \
it ion
t r
Ġc h
ar d
el l
c on
) ,
Ġ -
p ro
a st
t urn
t ext
y pe
od e
20 1
Ġ if
= =
i an
I n
ic al
Ġs h
f f
eg in
a re
Ġs e
ac e
or d
b egin
Ġ K
c al
as e
-- --
pt ion
st r
g et
Ġn ot
i re
f r
l i
Ġcom p
Ġ le
i a
t o
en s
Ġ '
in d
ĠI n
) .
_ {\
) $
im e
on g
u g
e v
Ġ y
i le
av e
e qu
Ġp l
at a
o st
ation s
c om
Ġre s
il d
ĠĠĠĠĠĠĠĠ ĠĠĠĠĠĠĠ
or k
a k
Ġ V
er v
a ct
Ġwh ich
en ce
an g
} {
Ġ us
âĢ ĵ
c c
d u
} ,
id e
l ic
j ect
a in
s o
ran s
en c
ou t
ab el
un ction
Ġ +
fr ac
20 0
u st
r ight
l ow
Ġc an
e q
Ġ |
f ig
Ġ un
ic e
r m
ac h
en er
i b
th er
al ue
ĠS t
Ġre turn
f orm
r y
ro w
ĠT h
ĉĉ ĉĉ
Ġ //
or y
Ġa p
Ġ im
Ġ k
et a
Ġh ave
- >
Ġa d
e ar
Ġ j
Ġ [
ar am
is h
ri b
: :
ub lic
Ġ </
math b
Ġh is
l abel
s et
Ġa r
Ġh as
ou s
C on
er m
o b
o k
our ce
an ce
t he
1 8
ou nt
u se
res s
.. /
ĠC h
o ver
Ġn ew
on d
ir st
ow n
1 0
f er
" ,
ou nd
ent s
p le
oc k
c ite
Ġal so
ion s
er t
cl ud
iz e
ta in
$ ,
ol d
p s
re e
ou ld
$ .
le ft
math cal
Ġa b
m er
s c
he n
i el
S t
, \
Ġo b
Ġst r
Ġd ef
Ġcon t
at es
ra y
s um
E x
ic t
ul l
Ġ @
Ġs u
or s
l l
Ġf unction
el f
Ġm od
Ġp art
} )
ter n
} .
on e
Ġal l
w e
w o
r it
equ ation
iel d
Ġw ere
in al
Ġs et
o se
u al
p ut
he d
ic s
ar k
pe ct
l ine
Ġd is
Ġon e
t e
Ġ /
( "
d iv
ot h
m l
Ġt r
Ġd e
et h
in k
ess age
( );
el y
o int
s h
} (
Ġin t
s s
le ct
y st
Ġs p
Ġ ro
} ^
~ \
om e
am b
sp an
ar i
i x
Ġ qu
n e
} _
Ġ| |
Ġf irst
Ġ .
m b
Ġe v
' ,
tr ing
ĠU n
> </
um ber
o ol
ph a
Ġs c
ro up
Ġo ut
pe c
ig h
yst em
es c
---- ----
i ew
1 2
d a
ra ph
l es
Ġt wo
n g
Ġn ame
Ġb ut
Ġp er
p r
Ġ Y
Ġ :
Ġit s
Ġp re
o f
al pha
l o
at or
ul ar
c k
rib ut
> <
Ġm e
Ġp ublic
er r
ĠI t
en g
ation al
19 9
i ed
ĠH e
) \
f ter
Ġp r
Ġ* /
s ub
im es
** **
Ġthe ir
at er
c ol
../ ../
p os
a x
Ġc ol
== ==
Ġin ter
c ent
u ct
ing s
Ġ up
ĉĉ ĉ
âĢ Ļ
is s
ol low
a il
Ġo ver
n ame
P ro
er y
Ġres ult
amb da
) )
o id
Ġpl ay
y s
el ta
i o
Ġt ime
ic k
Ġw ill
t t
ĠĠĠĠĠĠĠĠ ĠĠĠĠĠĠĠĠĠĠĠ
l ation
Ġd o
Ġs ub
ĠĠĠĠĠĠĠĠ Ġ
$ \
Ġm an
a w
in ed
at ive
Ġfor m
Ġo ther
id th
Ġh ad
1 6
Ġl ine
h o
am ma
y n
enc es
Ġw ork
eth od
Ġa g
if ic
Ġcon st
Ġ âĢĵ
le ment
E R
ht ml
o x
und er
Ġd ata
Ġf ollow
Ġt e
mathb b
( '
on s
s ource
i ent
ap p
th is
as ed
_ \
= \
em ber
t y
an n
d ef
N ame
d ot
T h
am es
m essage
t rans
i e
Ġv alue
1 5
Ġh ref
} _{
Ġ\ \
Ġre g
Ġbe en
ro und
Ġwh ere
v e
} ^{
Ġb et
res ent
ĠTh is
Ġon ly
m s
at ic
Ġ _
Ġw hen
ar g
Ġcom m
m u
Ġmod el
on t
Ġwh o
ig ma
o ot
Ġd if
re d
Ġt ype
Ġg et
c ed
Ġs up
ov e
a ke
Ġm ore
Ġ i
Ġn e
b ar
it ed
Ġsu ch
at ch
Ġcon s
al s
Ġf il
Ġd ist
ar ch
R ef
O N
ic an
T ype
- \
le t
eg a
Ġad d
l and
o ok
p aram
Ġp os
Ġin clud
im port
Ġs o
u ild
Ġ #
\ \
ke y
Ġg ener
c he
u es
ri pt
I N
ĠW e
c a
Ġt rans
c re
Ġl oc
^ {\
ph i
Ġas s
am p
1 7
Ġthe n
in ce
al ign
er n
v ar
d er
I d
p i
ab l
Ġin to
we en
S tring
m in
ad e
al se
w ard
or n
at ing
is e
in s
c es
t d
an s
Ġthe y
Ġ x
l ambda
se ction
id er
Ġ= >
op le
Ġ en
b f
Ġth ere
ur re
Ġre l
t on
Ġc o
h at
1 3
Ġy ear
Ġ end
ug h
Ġ under
Ġs im
C om
it em
ar s
Ġ {\
r am
d d
id ent
it s
re turn
Ġan y
Ġa cc
19 8
Ġd ec
l ock
it ies
1 4
Ġus ed
Ġth an
Ġp e
ire ct
ĠC om
mathb f
Ġin d
/ >
Ġh er
iv ers
il ity
at ure
Ġbet ween
u res
ou g
Ġa ct
ol og
Ġe qu
Ġre c
Ġsh ow
ist s
ol ut
ur ing
Ġp h
c ess
Ġat t
Ġ âĢ
Ġp ol
R E
b le
Ġn umber
1 1
Ġ use
il on
Ġs elf
Ġre qu
Ġc ase
ĠS e
as h
ib le
is hed
c ode
m od
Ref er
Ġc or
Ġs pec
cl ass
Ġ `
Ġdif fer
R es
Ġa fter
r ic
p on
tern al
" />
S T
w h
trans lation
C h
pl ic
w ork
Ġof f
as k
Ġs ec
Ġy ou
ad d
# #
ot e
ĠP ro
b r
ep end
Ġn o
iz ed
ce ption
Ġ !
Ġ el
le ction
Ġex t
ers ion
Ġe ach
Ġpro v
2 5
W e
y m
s igma
iv en
p art
ĠN ew
y le
Ġs ome
Ġin v
r t
Ġv al
a ult
ac he
is ion
Ġe st
mer ican
i k
urre nt
o y
^{ -
w ay
s on
Ġ( \
Ġs ystem
Ġk n
ou n
Ġc all
ĠA l
L ist
b eta
s erv
t ype
ild e
} {\
Ġo p
it le
i er
Ġin st
e ad
math rm
Ġo ur
at t
A T
19 7
ut h
Ġg o
il y
aram et
Ġpro du
Ġw ould
Refer ences
f or
am ple
a ir
Ġf e
ar ray
v el
l oc
: //
Ġp oint
_ _
v al
ow er
ra ct
Ġh igh
in es
re ad
u le
ep s
um ent
Ġ Q
Ġs erv
e ver
Ġst ud
* }
v ent
ar n
2 1
Ġ= =
w idth
eng th
Ġ ent
Ġ --
m all
Ġn ull
w n
iz ation
g amma
ar ge
Ġ Z
Ġ err
Ġt ra
re n
al ly
ro ugh
or ld
l og
Ġthe se
f o
Ġab out
Ġm ay
o le
ĠF or
b ack
Ġ >
Ġo per
+ \
oc i
C l
ag es
us s
) :
Ġv ar
ch ool
ĠĠĠĠĠĠĠĠĠĠĠĠĠĠĠĠ ĠĠĠĠĠĠĠĠĠĠĠĠĠĠĠĠ
um n
] {
Ġf ield
Ġd ev
Ġor g
m an
Ġe ff
Ġv ari
A R
i ous
Ġ )
b all
Ġv oid
2 2
fig ure
le q
Ġc re
iv ate
) }
Ġ X
ment s
Ġs he
Ġs ign
Ġre p
r ad
Ġst ate
or g
an y
y p
3 0
s er
Ġd esc
the ta
Ġm ost
r ho
ic es
Ġ ed
o h
Ġt est
^ \
O R
ht t
ĠA s
Ġus ing
an ge
g y
Ġm ethod
ta u
"> <
L E
it t
Ġpe ople
r r
Ġa c
Ġn on
Ġs ame
as on
I D
d elta
ĠS h
Ġf inal
ĠC on
19 6
e y
Ġap pro
Ġb ack
p ress
oug h
Ġg roup
Ġf l
Ġc ent
$ -
Ġtr ue
in clud
ra w
}$ ,
c dot
ĠĠĠĠ ĠĠ
e e
a ction
ption s
// //
Ġdiffer ent
T o
Ġf alse
Ġf ound
}$ .
" )
a z
S S
ire d
ivers ity
b ig
h ip
Ġm in
Ġfollow ing
l ang
str ing
is m
Ġg iven
Ġth rough
} (\
C ol
ion al
p re
n ot
s elf
Ġch ar
A r
Ġs ing
eq ref
Ġs er
Ġw ell
iv er
per ty
m e
Ġd es
at ri
ĠĠĠĠĠĠĠĠ ĠĠĠĠĠ
5 0
u c
I t
3 2
b ject
ical ly
n er
ir c
" );
ar get
Ġpart ic
Ġor der
**** ****
av a
ar row
p p
00 0
Ġa m
ot t
r on
Ġb oth
A L
Ġe m
t imes
Ġt erm
Ġsec ond
b y
-------- --------
Ġ z
a h
olut ion
str uct
d ata
part ial
et s
c o
pl ay
ur y
ĠA n
con t
se c
ĠC l
ĠA merican
ĠC ol
Ġl ink
ow ever
v iew
Ġth ree
Ġd et
od y
al e
ou th
E N
n ew
or th
V alue
em ent
ut e
qu ad
Ġag ain
om ega
2 4
if ied
Ġwh ile
r al
g er
D ata
u ff
as es
a j
n u
ft y
Ġper form
el op
ect or
ĠI nd
in fty
Ġp aramet
d ition
n b
v alue
Ġd irect
t s
f ace
Ġs ur
Ġob ject
p m
ĠĠĠĠĠĠĠĠĠĠĠĠĠĠĠĠ ĠĠĠĠĠĠĠ
Ġel se
enc y
Ã ©
Ġstr ing
ou se
Ġst art
cent er
Ġl ist
re am
| \
' )
âĢ Ŀ
F or
iv es
Ġcons ider
t ilde
if e
Ġ id
cc ess
t il
ar ly
re qu
u ary
if y
oth er
ch i
old s
Ġ ran
g le
ĠA r
in ing
Ġd uring
el s
iv ely
==== ====
Ġyear s
over n
e le
ul ation
f ore
are d
p ar
ot s
y mb
Ġthe m
ent ial
S et
Ġc ount
iv ed
Ġf act
ad er
d ate
sp ace
i ke
19 4
f ile
nb sp
Ġ/ **
Ġ& &
A s
ymb ol
it ial
U n
b ers
ro ll
Ġ$ (
ur al
ĠE x
ce pt
Ġl arge
ord er
D elta
ĠL e
) );
ers on
d is
m ary
Ġh im
Ġdis c
Ġ u
2 3
S E
ĠUn iversity
\ ,
atri x
f l
. ,
( $
t en
Ġc a
ro ss
D E
Ġre le
ath er
sc ript
eq n
Ġl ong
ĠUn ited
form ation
ro p
Ex ception
ĠD e
are nt
Ġ ra
ist er
Ġresult s
rr or
1 00
at us
ro l
p x
et work
al ity
r id
Ġf am
c it
u ch
t est
Ġr un
ĠĠ Ċ
re at
l er
ay s
loc ation
Ġstr uct
O n
ore m
] ;
s q
Ġbe ing
ver t
f ul
iss ion
col or
Â ł
s ize
res p
Ġcon tain
ver y
ro id
Ġw rit
g or
Ġs mall
iv ing
Ġar t
Ġm ain
g round
ĠS c
i qu
Ġpr ivate
en se
C T
ab ility
Ġsup port
} [
Ġb ound
m ed
um er
Ġ// /
Ġc urrent
Ġman y
)$ .
Ġf in
Ġob tain
Ġne ed
Ġst atic
Ġbe fore
O bject
Ġr ight
a u
in ter
Ġpro cess
ction s
] ,
Ġsh ould
e k
t able
a id
x i
Ġeff ect
Ġm ed
re g
Ġm ade
ef ore
. "
ect ed
an c
g ram
l ed
ĠS tring
an k
Ġrep resent
T est
Ġe lement
wh ere
Ġb el
le x
B y
ist ory
Ġp op
Ġcont in
he ck
olog y
Ġte am
Ġob serv
m et
re m
ant s
Ġ! =
Ġap p
og raph
Con t
} }\
s im
Ġm et
C O
f ra
I T
le m
Ġor ig
Ġ %
g o
Ġlink s
I m
t ime
$ $
t ab
s k
oot ball
ag n
w w
c m
Ġm em
Ġs ince
in a
P h
r ite
} ;
Ġar g
ĠâĢ ľ
l ob
eps ilon
ĠO n
Ġm on
t op
ac es
() .
com m
Ġle ad
us ic
Ġs ize
M od
Ġh and
M E
Ġkn own
n ing
Ġim port
Ġloc al
Ġb uild
a f
I nd
A n
pos ition
Ġdev elop
19 5
} _{\
u str
un c
Ġan al
Ex ternal
Ġdist ribut
re ak
() );
o ber
ĠI s
ri ption
Ġ ,
f unction
6 4
r c
an e
i or
f ield
ĠI f
E rror
A N
Ġm ult
Ġp resent
oh n
per t
Ġn ow
G et
l ink
ĠE ng
ĠĠĠĠ Ċ
Ġap pe
Ġre m
ual ly
3 3
Th is
.. .
Ġme as
Ġ čĊ
Ġt em
" .
Ġt itle
ol v
lect ed
Ġbe g
Ġex pect
Ġdesc rib
ps i
Ġf our
ag er
2 7
oc ument
Ġrec ord
resp ond
p ace
Ġf r
Ġcon dition
4 0
O m
cal e
l ack
ut il
os s
Ġl ater
raph ics
Ġre sp
Ġm ov
ist r
b m
S h
eta il
if t
n av
v ious
ĠSt ates
ind ow
at ter
ca use
ind ex
ub l
2 8
Ġval ues
b e
A l
ĉĉĉĉ ĉ
ĠF ig
o ad
Ġb ased
Ġto p
ur l
im it
Ġinclud ing
en n
Ġbe cause
m p
Cl ass
ĠCom m
h er
Ġplay ers
)$ ,
Ġp ass
ic a
Ġb ro
om en
Ġ key
2 6
l ist
Ġres pect
p ublic
Ġf ind
Om ega
b um
Ġev ent
iv al
Ġdo es
Ġm ass
ur ation
sum mary
Ġc ould
. _
l ay
ener gy
ps ilon
act er
ch n
Ġse e
G amma
" ;
le y
eqn array
Ġb o
text bf
un e
con st
ĠS he
E n
^ *
Ġop en
ific ation
sq rt
Ġo wn
orm al
re en
Ġfil m
Ġe very
I nt
ar ri
Ġal low
"> </
Ġre fer
in c
g roup
Ġpro ble
Ġle ft
Ġa v
. </
im ens
i j
Ġp ar
Ġp res
f in
Ġerr or
us h
V iew
[ '
Ġpos s
sub section
Ġin cre
om et
R equ
ĠC ount
n ode
htt p
Ġgener al
ca ption
id ed
Ġr ad
Ġsp ace
Ġf ile
erv ice
Ġex per
am pl
K ey
lo ad
T r
se e
o od
Ġre ad
Ġg u
uth or
Ġt ak
se arch
Ġser ies
Ġcall ed
b o
A C
v are
od es
j s
p or
a pe
it er
b ox
Ġl ast
r u
Ġas sum
n o
op y
ur ther
ĠP h
201 5
Ġm ap
in ition
Ġl ike
d e
201 6
l ess
Ġre ce
] .
t ing
2 9
n ess
Ġd r
b s
Ġ ident
vare psilon
ro du
p ath
' );
Ġcor respond
th s
at s
ra p
Ġex p
Ġ$ {\
() ,
ir d
ar m
Ġest abl
Ġs chool
}^ {\
er o
Ġj ust
Ġre f
it al
Ġagain st
m ap
o pe
eg raphics
includ egraphics
^{ (
Ġsing le
o ff
id d
Ġse ver
ĠM ar
L L
uff er
re t
Ġv ery
port s
am ed
it ive
ma x
w ith
ribut e
ur s
F ile
u ro
Ġd i
../../ ../../
ign ed
} =
Ġd ep
id es
right arrow
" :
i um
ĠF ran
f il
Ġse ason
l p
ag ue
Ġa ut
ra g
gor ith
ĠR es
L A
ĠJ ohn
R O
Ġle vel
ĠM ay
Ġm ake
201 7
6 0
Ġg overn
' ]
! --
Ġv is
i ence
S e
201 4
N ot
s ide
b ut
ĠN ational
il ar
en e
Ġm ax
Ġpos ition
Ġc al
Ġo pt
Ġch ild
Ġint eg
201 8
Ġd ue
Ġre ma
tern ational
pt y
Ġest im
pert ies
n on
a i
v en
Ġo cc
it or
ur ch
Ġt yp
) =
Ġev en
Ġ energy
201 0
p ack
ĠW orld
Ġre al
Ġal bum
in ation
Ġ\ ,
Ġadd ition
P E
a int
Ġin itial
Ġst and
re l
Ġf ootball
D ef
le ar
is on
is ed
Ġbe com
T ime
ĠS p
20 19
Ġin formation
=" +
at ors
Ġex ample
pon se
i od
' '
ran gle
em ph
Q u
end ed
r and
Ġab ove
g es
Ġfam ily
pl it
T E
ĠO r
ict ion
Requ est
du ct
R e
op er
Ġle t
Ġth ose
ge q
201 3
Ġd epend
20 20
ĠC an
Ġcomm un
var phi
Ġass ert
Ġ/ >
u age
us er
c er
Ġm ust
Ġd en
Ġwith in
ap er
Ġt arget
Ġwh at
Ġmeas ure
str u
qu ot
ix ed
W ith
Ġs um
our ces
c ame
I ON
ĠH owever
ĠJ an
201 1
' t
og le
E qu
M an
Ġn etwork
Ġbe came
Ġdef ined
l ength
im al
Ġ );
N ode
v ir
Ġpro gram
s up
201 2
at ely
H e
Ġs aid
St ate
ĠR e
Ġex pl
ian s
. ~\
ord s
I C
` `
A dd
plic ation
r ing
over line
3 5
Ġun til
Ġorig inal
che s
end s
Ġn ode
ĠY ork
et y
ĠP r
Ġ ?
8 0
aj or
E vent
Ġt ext
Ġl og
pro of
T R
S c
Ġp ower
Ġal ong
Ġb ir
ĠA d
ens ure
Ġp ath
/ *
ward s
ef f
ĠF e
Ġto t
ĠA t
d t
Ġe lect
row s
/ **
Ġn ear
ĠT r
ĠJ ul
pos ed
d raw
Ġv ersion
ac y
ens ity
T ext
Ġsever al
u k
at ures
ole an
Ġin put
com p
res ult
iv ity
A P
he s
ĠC ar
r ist
v ec
ĠB rit
et er
B ig
Ġare a
Ġcomp ut
In fo
. }
E lement
al th
l im
ord ing
Ġs at
ri es
ĠCount y
ĠS chool
() )
Ġrequ est
ore d
ĠW ar
fra k
Ġc r
ĠA ll
M ap
Ġb u
3 4
F F
P ath
ĠA nd
ĠG e
ĠN ov
Ġw ay
lob al
st yle
c ul
yn am
s l
ec ut
Ġc are
am ent
9 0
Ġse ction
ĠW h
Ġpro ject
Ġh ow
i am
erm an
Ġn ext
il t
Ġd om
Ġd id
ĠC ent
Con fig
F orm
//// ////
}, \
Ġ-- >
Ġpartic ular
u x
O r
[ \
p oint
Ġl aw
} ).
Ġpol it
Ġm ark
Ġs ong
Ġsh own
ĠP l
m m
l ing
It em
Ġs pect
st ance
Ġchar acter
r ide
f rom
ess ion
Ġst yle
Ġpre vious
im ent
b olds
Ġpro t
Ġb as
Ġan n
Ġfollow s
Ġorg an
al k
O ver
& \
an ces
Ġar ray
Ind ex
Ġde ath
Ġ/ *
ĠS outh
ames pace
bolds ymbol
200 9
s f
) ^
he ad
Ġc ur
Ġmodel s
Ġ: =
l in
ĠW est
' :
200 8
Ġex ist
nd er
ĠĠĠĠĠĠĠĠĠĠĠĠĠĠĠĠ ĠĠĠĠĠĠĠĠĠĠĠ
x im
our n
ge st
Ġb lock
ug ust
Ġcontin u
h line
Ġsim ilar
Ġa round
Ġv iew
Con text
Ġsu ccess
ĠA ss
Ġd er
math frak
l ight
er efore
Ġs ol
pt ember
ustr al
7 5
i us
Ġass oci
F ield
he m
b it
Ġl ife
c or
m ult
in put
a im
Ġtot al
or ph
Ġd own
v oid
st er
} }$
w id
ap i
ou ble
Ġpl ace
Ġhe ad
oc us
pon ent
Ġqu ant
ab les
Ġbe h
Res ult
S ervice
ĠP ol
av ing
ist or
ĠM an
epend ent
im um
pl oy
w it
9 9
ic on
tr ue
Ġm usic
htt ps
Ġw orld
Ġpoint s
u i
ct ober
Ġg ame
Ġb and
iqu e
Ġst at
stru ction
L et
Ar ray
Ġcon f
con fig
a e
Ġdef ault
| -
4 5
st ate
Ġoff ic
200 7
Ġcomp on
in ess
ys is
Ġb ook
ĠR eg
ĠP ar
3 1
Ġdet erm
on y
## ##
A S
Ġ( $
Ġ( !
Ġp ost
m ber
Ġparamet ers
Ġd em
) (
ĠM arch
ple ment
Ġproble m
Ġus er
Ġpro b
ob ject
a pt
u ck
Ġex press
Ġre du
200 6
gorith m
3 6
Ġcont ent
l ish
F il
om an
Ġch ang
Ġst ill
Ġwith out
err or
ĠR ep
Ġs ource
ann el
ac ed
ist ic
pr il
Ġad v
Ġb ase
ap ache
d om
Ġre port
se qu
p ose
ust om
U R
Ġinclud e
ĠJan uary
ĠâĢ Ķ
ĠA ugust
d ay
Ġl ow
ĠSe ptember
' ;
Ġc rit
ĠThe y
ĠI I
le ge
cit ep
v ision
A D
se mb
ld ots
M L
Ġint rodu
ne ction
ran sp
amp ions
ĠM in
******** ********
A tt
w ord
Ġc ap
Ġ} );
Ġre t
b lock
[ ]
b ody
Ġran ge
Ġm y
ym met
Ġstruct ure
Ġcl os
arn ing
ail able
ul es
ate g
Ġshow s
u f
Ġb reak
3 9
d own
Ġ} ,
y l
c ast
Ġc heck
ĠSt ate
Ġ et
Ġm uch
Ġy our
b l
Ġterm s
Ġt ri
Ġd at
app a
st it
Ġind ex
0 1
lang le
z e
Ġp ubl
ĠO ctober
Ġte chn
ĠC al
Ġc ode
C ode
ott om
Ġcon text
B uild
v ersion
ĠJ une
et urn
ial ly
Ġp at
t itle
Ġp erson
Ġcon fig
Ġper iod
d f
tt p
ib r
is f
ce mber
Ġd iv
M P
Ġo ld
+ +
g ed
Ġfor mer
" "
Ġm ak
Ġ ke
uro pe
L O
m d
L ambda
ĠG u
A ll
I s
Ġdistribut ion
Ġkn ow
3 7
en u
o pt
I S
Ġh ere
pl ate
Ġd eg
3 8
ass ert
ĠJul y
Com m
Ġe arly
lo at
Ġ enc
k en
ĠB y
ĠT o
Ph i
ide o
ith er
a ut
ĠS ec
ff ic
O f
F rom
U T
ampl es
Ġm atch
Ġpre d
Ġcomp let
Ġim age
Ġdes ign
0 5
abl ed
S ize
Ġsh ort
Ġinst ance
ill ion
Ġstud y
Ġinter est
yn c
Ġreg ion
il it
i i
ĠS ystem
Ġt ake
ĠA pril
20 00
Ġparamet er
Ġbe st
Ġrele ased
Ġf ail
Ġl ang
Ġdescrib ed
Ġcor re
w are
Ġhe lp
text it
S ee
Ġw in
Ġis s
a it
P l
sub set
ust er
ther n
abl a
ĠU S
Ġcom b
M essage
} ),
Ġse qu
Ġch o
re c
ĠA ustral
~ ~
ic le
Ġ eng
Ġmem bers
Ġplay ed
pro v
ater ial
b orn
us iness
k appa
s i
ĠC o
Ġv ert
c irc
Ġa ction
Ġ( )
n abla
ĠNov ember
Ġl ength
ĠN orth
Ġ q
esc ription
Col or
Ġm at
Ġposs ible
I G
ud e
ic y
end er
e ction
} )$
=" ../../../../
al es
ĠC ity
ol l
us ing
Ġw on
g s
6 6
l t
Ġs k
ur b
Ġst ates
A B
R ec
H and
Ð °
in o
V al
ĠB e
Ġc our
Ġd el
Ġdisc uss
cre ate
Ġpro perty
ip le
b ra
vir on
Ġserv ice
in ary
f ess
re ate
st art
ent ion
ĠDe cember
200 5
\ |
Ġv ol
Ġan other
ĠA rt
Ġback ground
Ã ¡
> &
m o
ĠT e
ot ential
Ġcre ate
um ents
Ġj ava
Ġm ajor
Ġa ver
ĠE n
= '
Ġc ity
and om
um p
Ġa ff
ograph y
def ault
Ġm atrix
Ġm agn
c all
ĠBrit ish
\ %
ast er
h am
Ġ` `
ur g
S er
ĠThe n
Ġg raph
Ġin du
Ġd etail
Ġgovern ment
et ic
L oc
Ġappro xim
ad a
. \
ra ft
Ġf ull
Ġch ange
Ġme an
Ġp o
ĠN o
j ava
Ġcont rol
Ġ_ _
Ġl imit
Ġs ide
Ġs pe
oc ial
mod el
7 0
id ual
un g
ep ar
N ew
Ġrequ ire
c ount
Ġl a
Ġl and
ĠE urope
A t
ĠS up
ur ity
Ġt imes
th ough
5 5
way s
E D
20 21
Ġ Ð
ĠY ou
Ġfunction s
Ġm ember
Ġp ort
s w
c ap
um an
ens ion
Ġsup er
ĉ Ċ
br uary
li ent
al f
ensure math
ĠW ill
ot imes
Ġ= ==
Ġstr ong
S ystem
d ev
def ine
m y
ent ly
Ġ ge
p en
O ut
cl us
D is
200 4
P r
ard s
mb ox
ĠĠĠĠĠĠĠĠ ĠĠ
Ġcol or
Ġsat isf
as c
b ase
ord in
um e
Ġw idth
ĠP art
ĠĠĠĠĠĠĠĠ ĠĠĠĠ
ap an
ĠL ist
IN G
C H
v ers
Ġind ic
Ġd ensity
E T
il le
g t
Ġle g
\ [
Ġfe ature
in fo
In ter
che ck
dot s
ener al
Ġimport ant
E nt
ĉĉĉĉ ĉĉ
Ġre pl
cent ury
le te
Ġ} ;
ĠK ing
4 8
Ġl abel
Ġh ome
Ġpop ulation
I f
Ġout put
Ġb l
ĠR ec
Ġit em
Ġcon n
Ġobtain ed
includ e
L og
t ings
T D
ĠLe ague
Man ager
Ġbir ths
Ġcomp et
b ug
al t
if f
tain er
Ġw omen
ampions hip
ear ch
roll er
}} {
; &
T able
Ġs rc
ĠA fter
Ġt ry
Ġc ar
l or
cont ent
on se
Ġpro m
Ġf urther
Ġcomp lex
Ġsign ific
Ġperform ance
Ġn amed
Ġin s
n ow
b t
Ġgo od
ĠTh ere
E S
Ġro le
Ġre d
n ext
f oot
b b
S igma
k s
ĠE d
Ġph ot
U p
Ġg rad
Ġprodu ct
Ð ¾
w ide
/ \
non umber
h old
Ġl ay
ref er
G roup
m ethod
u ation
ĠL et
g ress
i ents
Ġp aper
olog ical
Ġinv est
ren ch
Ġt urn
Ġd ay
c ss
Ġc ou
---------------- ----------------
y d
Ġj o
Ġresp onse
ĠFe bruary
Ġconst ant
ĠG et
Mod el
M A
ou d
if ier
pro t
ĠC or
Ġfil ms
U LL
Ġav ailable
ra int
con text
read y
ĠCh rist
D e
ĠM ed
m ark
op s
Ġcont ribut
Ġph ys
Ġs olution
C ount
Ġcare er
es e
r is
Ġp otential
r un
val id
Ġe p
ra v
Ġre st
an a
ib ility
A d
Ġn il
ww w
======== ========
Ġs cal
ag s
Ġcorrespond ing
Ġto wn
ĠA rm
and roid
end ing
Ġmethod s
Ġexpect ed
U N
C all
Ġrece ived
Ġc ell
st and
Ġp air
=" ../
ri or
=" #
us ed
Ġadd ress
ad em
Ġc over
an el
A merican
or ies
ne y
row n
Ġappe ar
Ġf ew
0 8
Ġf ore
Ġcomm on
ĠThe se
Ġl ower
; </
Ġf ree
o ption
wid et
D O
Ġl ight
Ġh istory
p ed
ĠS er
Ġt ask
Ġs epar
Ġl ess
Ġar ch
viron ment
ĠB o
Ġrespect ively
um b
olv ed
re w
ac hed
Ġestabl ished
T rans
4 4
oun c
Ġloc ated
Ġtr ack
Ġd ocument
Ġr ate
U ser
Ġacc ess
Ġequ ation
Ġa uthor
k n
ed er
t ual
R eg
Ġcomm and
Ġthe ory
t es
{ -
Ġc irc
Ġte le
Ġm ot
center ing
Ġbeg an
Ġcomp any
Ġre search
} -
Ġs it
go ogle
6 5
we b
Ġconsider ed
0 7
f alse
ĠM c
ra in
pack age
er ed
C C
ĠH ar
Ġdif f
widet ilde
ev e
s mall
Ġhe ld
ex p
ut ure
ĠB ar
Ġ ide
d b
T H
Ð µ
p ly
ĠEng lish
as ing
200 3
C lient
Ġcal cul
Ġal ign
F ig
ĠH is
Ġcon struct
tab ular
Ġpro perties
0 2
\ !
Ġst ation
c le
Ġanal ysis
Ġth ird
Ġa ge
Ġrequ ired
I P
our s
EN T
Ġle ast
0 4
e ed
Qu ery
ateg ory
M ethod
uss ian
\ ]
Ġw ant
Ġchild ren
n a
Ġe ither
pr ime
re st
Ġcon c
h and
Pro perty
ĠH igh
Ġinclud ed
ĠE l
Ġcomp os
ok en
Ġev ents
b or
Ġappro ach
er a
en ame
) ]
Ġtra ining
om ic
Ġcol l
pr int
U S
pro p
th m
Ġbu ilt
Ġst d
w ise
Ġspec ial
Ġto ok
Ġd imens
on es
d oc
Ġt able
Ġval id
Ġh ost
ĠA fr
ĠS et
Ġv ector
Ġc ases
Ġl ook
b uild
a ul
ith ub
Ġc ross
Ġo ptions
Ġfr ame
Ġsystem s
Ġsignific ant
st atic
ch o
arg in
Ġfe atures
Ġab s
e ople
9 5
I R
Res ponse
Ġs l
S P
Ġr andom
) </
A nd
v es
Ġstand ard
S ub
Ġn ational
Ġvari ous
Ġf ive
ĠJ apan
> (
c ell
Ġcons ist
Ġelement s
Ġaver age
Ġb order
ond on
ĠM e
l s
Ġl arg
200 1
Ġrel ations
Ġph ase
pl ied
Ġb ool
Ġst ar
0 6
ransp ort
ight s
Ġpubl ished
art ment
istr ict
Ġh ouse
Ġm essage
Ġcondition s
00 00
Ġof ten
Ġs ix
Ġcl ub
er ing
Ġam ong
Ġpro of
Ġn ormal
d ec
Ġassoci ated
Ġs em
Ġwrit ten
Over ride
th ers
g ing
) {
dis play
i ber
Ġn eg
act ory
ire ction
al y
Ġw he
E nd
s ing
Ġf low
Ġline ar
ul a
qu e
o ph
ĠA ct
ĠQ u
Ġcl ose
im ary
om ent
\ {
} +
ag ed
r ation
ic ro
B ar
200 2
Ġv ill
f ill
ĠI m
em ma
ev ent
ĠThe orem
Ġcre ated
n s
I I
g en
Ġf requ
s pec
ac ing
ing ton
Ġhigh er
ab ly
ĠE q
Ġin div
ip s
p ol
ĠB l
on al
Ã ³
] (
x y
at ural
Ġbel ow
0 9
g ithub
Ġacc ount
oun ter
arri ed
i ation
re ed
m ar
i et
ĠĠĠĠĠĠĠĠĠĠĠĠĠĠĠĠ ĠĠĠĠĠĠĠĠĠĠĠĠĠĠĠ
Ġed uc
âĢ Ķ
oug ht
E E
Ġg ames
Ġl ines
Ġp arent
ĠE ast
ĠCol lege
ug gest
( (
R ead
St ream
ĠW hen
n amespace
ĠCh ar
) =\
re et
ition s
n et
z eta
ens or
n ull
ĠS an
Ġcol umn
em pt
O T
Build er
c urrent
om orph
Ġn um
N A
< !--
pl ies
he ight
F r
un ic
ĠSe ction
ĠCom p
c y
Ġcl aim
id ence
fer ence
Ġand roid
Ġprov ide
ec ess
fl u
Ġal gorithm
Ġm er
ilit ary
ly ing
Ġtem per
m ost
{ (
ab or
Ġb usiness
og n
Ġc er
c ore
Ġl oss
M S
Ġim plement
Ġdef ine
Ġv ia
kn own
ĉĉĉĉ ĉĉĉĉ
t em
f ord
Ġw ar
I L
Ġth us
ĠO ne
al le
Ġn umer
Ð ¸
Ġpos itive
ĠS ch
Ġdis play
ĠL ondon
s cale
B e
Ġh owever
E d
Ġal ready
; \
} ]
f low
Ġserv ed
ĠP res
b ased
ounc il
Ġatt ack
r um
} =\
qu ery
U til
Ġf ocus
Ġwe ek
Ġ& =
is ing
Im age
im age
ian ce
Ġcent ury
itt ed
ĠA ir
Ġex ists
Ġind ependent
Ġb i
Ġre cent
u ed
A p
Ġd ynam
Ġb lack
Ġl ate
Ġindiv idual
0 3
ug ht
o ptions
Ġs ent
Ġprov ided
Ġwork s
ran t
Ġplay er
Ġl o
Ġp ract
ĠD ef
oper ator
Ġme ans
g r
p c
8 8
ĠF rench
i ol
F A
ĠĠĠĠĠĠĠĠĠĠĠĠĠĠĠĠ Ġ
Ġcount ry
ĠP ark
Ġbuild ing
Ġbecom e
ĠM on
g l
Ġcontain s
S p
) ^{
Ġd est
f unc
ĠWill iam
N S
ver se
h a
av es
d ir
) }\
ĠL a
i ef
D ate
Ġspec ies
wh ich
4 7
} |
A A
Ġe lection
ran ge
ure d
c os
P I
med i
Ġb orn
le g
6 7
ĠP er
ĠB ut
Ġw ater
ch an
ig ation
cl ient
w ed
math sf
Ġgroup s
Ġsim ple
p ng
Ġa ir
In put
}_ \
C E
fin ished
r ict
Ġg l
Ġlang uage
sk ip
und le
h as
4 9
ĠA ng
O S
Ġc ost
Ġan t
el ine
Ġse en
Ġdef inition
Ġ und
Ġe as
in it
Ġh aving
it ect
an ish
e lement
Ġs ymmet
ce ed
Ã Ń
Ġc amp
Ġs ay
ot ed
idd le
j av
ĠD ep
Ġh om
ĠA m
ĠD av
ON T
Ġfield s
ĠM od
A ss
ĠB ro
Ġreg ular
ĠS o
d o
( {
ĠH ouse
Ġfin ite
ĠD istrict
Ġa chi
Ġpl an
Ġf und
ch ange
ĠA b
act ive
Ġbo olean
Ġz ero
a ff
plic it
age ment
P aramet
] )
ĠT est
Ġt w
N o
$ )
al ax
ĠA g
S ec
Ġf ac
m it
m ember
ĠS ince
d l
St atus
Ġun it
lem ma
Ġto get
Ġmult i
Ġpro posed
8 5
Ġoper ator
Ġs ite
B ase
cdot s
Ġtoget her
ĠG erman
p age
ĠH am
ĠA p
iz ing
requ est
ser ver
Ġa rm
Ġb ody
Ġv ir
ar ies
Ġ- >
L ine
ab ase
Ġsequ ence
Ġqu est
ĠĠĠĠĠĠĠĠ ĠĠĠĠĠĠ
Ġbeh av
O P
semb ly
. ~
Ġs cale
ĠH er
il ities
ĠA dd
ig en
but ton
Ġtr ad
Ġth row
Ġex ecut
Ġ< <
av y
rit er
text width
Ġdevelop ment
Ġd on
Ġcon v
Ġm en
Ġs uggest
ĠW ith
ph p
i res
s in
RE F
le vel
oci ation
o ch
199 9
Ex t
Ġtele vision
iz er
ch ild
E X
Ġcomp ar
Ġst ep
itt le
wit ch
ĠCh ampionship
Com p
] [
Ġdist rict
ge bra
}^ \
un finished
fr ame
Ġev al
att le
ĠI nt
N ull
Ġdist ance
B lock
In stance
t x
ĠIn ternational
}} (
Ġobserv ed
Ġn ov
j o
| |
du c
press ion
Ġm illion
Ġl im
}^{ (
ĠCl ass
Ġe mb
ĠN or
arg s
ma in
Ġpro fess
c ase
ad o
y les
Ġc y
if orn
b ook
oc ol
b a
ed d
Ġw rite
ĠN ULL
A ct
v an
od ing
h ib
ari ant
ĠPh il
Ġ\ {
P si
ul ations
A pp
ourn al
ic ense
li b
ult ure
D ec
Ġequ ival
ap s
H ead
ĠS im
app end
ho od
Ġcommun ity
T oken
P ol
Ġf ixed
Ġreturn ed
Ġac ross
p df
Ġspec ific
Y PE
if orm
Ġg en
Equ al
Ġd ied
9 7
Ġbet ter
Ġsur face
ly mp
c up
ic o
Ġp ack
Ġwhe ther
Ġrel ated
or age
iforn ia
Ġca pt
in n
Ġm iss
P os
Ġcompon ent
G L
20 22
. âĢĿ
mod ule
Ġprodu ced
}) \
Ġal ways
S up
wide hat
ĠV al
oci ety
ta ct
R ep
Ġro und
Ġn orth
B ut
Ġg round
Ġinst ead
ran ch
Ġfact or
Ġp ut
at form
Ñ Ĥ
s plit
L ay
b ottom
in st
t arget
Ġprodu ction
m on
B C
add ing
Ġv er
ars er
Att ribute
ist ics
Ġk ill
Ġr at
E C
9 8
m ing
Ġann oun
ĠFig ure
Ġg row
aram s
rid ge
Ġprob ability
U E
N av
Ã ¼
action s
Ġh alf
Ġg lobal
Ġv ideo
Cont ent
Ġtak en
eg er
f irst
Ġp age
app ing
q quad
Ġaddition al
he ader
con d
S ource
ra ction
Ġ ill
9 6
ar a
at al
ic ol
Ġdeg ree
ĠC up
s u
Ġ" ""
ĠĠĠĠĠĠĠĠ Ċ
4 6
Ð ½
Ġt re
ot a
Ġd ouble
c hed
Res ource
am a
sh ip
ache s
ĠA c
ist ry
Ġbeg in
Ġlarg er
ele te
L T
Ġh istor
Ġeng ine
Ġcol lection
F irst
id ing
and id
A fter
Ġs on
u el
O D
ic ient
O per
li ke
4 2
a use
Ġre view
Ġ$ (\
comm and
i ers
Comm and
S tr
Ġim p
ot ype
op en
Ġem ploy
ut es
Com ponent
ot es
min istr
199 0
m id
Ġestabl ish
Ġmult iple
l a
ang le
A G
AT E
Ġpred ict
Ġab le
Ġhe ight
Ġse arch
Ġe ar
h an
ibr ary
R un
Ġl ed
B uffer
ĠN e
^ +
Ġf ar
b urg
H istory
7 7
, -
ĠR iver
cit et
ition al
nav bar
Ġs ample
Ġl ik
ĠM ore
equ iv
or ge
x ml
ug in
O ptions
ĠCal ifornia
S pec
se lect
d at
G e
st ar
l ong
P art
oc r
qu are
ul ated
ta g
j son
ĠA mer
Ġwh ose
use um
Ġm aterial
ĠInd ian
ial og
ac ity
r l
ĠC ont
or iz
ĠD iv
Ġset s
Ġdom ain
os p
Ġexper iment
}\ ,
ĠM ich
ĠL emma
Ġg ive
Ġ+ =
v is
ro y
Ġh uman
n ote
k a
Ġsc he
iv il
ch ar
Ġc lear
enc ies
ev ed
ol ic
olut ions
c an
Ġstart ed
Ġh ard
199 8
, "
S C
cc ording
ĠEng land
ap pro
Ġd one
Ġm oment
ĠF irst
Ġs ocial
& =
n ce
C ell
o ke
ari o
h ost
w rite
st ream
p arent
Ġtrans form
F unction
Ġex act
s g
col umn
loc al
Ġassum e
iz es
un k
Ġdat as
}\ \
ribut es
Ġed ge
ell ow
oy al
W h
Ġcou pl
land s
Ġne ver
Ġcent er
Ġn ecess
Hand ler
Ġin ternational
Ġl oad
} :
om b
c is
Ġpr int
Ġw indow
Ġs outh
T O
el oc
Ġcan not
Ġf ig
m ore
Ġl iter
b ound
G ener
in ated
Ġvill age
Ġact iv
A ction
ĠR ef
ĠR ev
Ġh ttp
Ġatt empt
LA SS
im ate
ĠC O
operator name
V ersion
Ġg reat
Ġg alax
Ġmov ed
y ear
H T
Ġadd ed
Ġtyp es
F actory
Ġinst all
6 8
led ge
Ġd ays
P eople
Ġf uture
T ask
Ġle arning
ĠRep ublic
str ong
F I
Ġp ress
Ġp erm
Ġf ri
ĠD is
y r
Ġp ay
com e
Ġ ]
Ġacc ording
row ser
f ont
ĠB er
Ġ es
ind ent
Ñ Ģ
Ġequ al
Ġit er
P oint
Ġh old
em pty
ad ata
} /
at ives
L iving
bt n
Ġc ame
Ġquant um
Ġprot ected
it ude
C D
[ "
Ġsp in
Ġreport ed
Ġm ight
St art
Ar g
em ents
Ġclos ed
$ {
pl ace
Ġon ce
Ġmak ing
S U
b and
Ġdi ag
Ġchang es
Ġst atus
con n
Ġgener ated
ĠPart y
ĠAustral ia
Ġne igh
he l
Ġperform ed
Ġm ove
itt ing
O ff
ĠP ort
Ġbro ad
Ġw est
Ġe con
Ġcon struction
Ġd a
Ġin ternal
Ġ row
ĠPres ident
pro perty
Ġre ason
d ist
5 7
d imens
V ert
Ġacc ur
o on
* /
) -
tain s
ict ure
Ġcomp lete
f ind
Ġsub ject
bo ard
ĠO bject
Ġst ory
Ġrem ov
st d
Ġwe ight
Ġobject s
Ġpolit ical
Ġs old
Ġran k
f e
ta ge
} );
ig ger
id s
F l
Ġto o
ft ware
Ġp ur
ĠF rom
Ġ& \
ĠAmer ica
Ġtemper ature
I M
Ġpartic ip
o o
ĠR eturn
R A
Ġc le
Ġp rior
pect ed
ap ter
Ġyou ng
Ġstud ents
Ġn atural
ĠC our
{ {\
//////// ////////
s rc
p ost
Ġwork ing
( -
ĠInd ia
ĠĠĠĠĠĠĠĠ ĠĠĠĠĊ
L ink
pt r
Ġim prov
it te
ud io
l en
at ory
Ġb r
Ġserv ices
Ġcer tain
ad ian
ast ic
inal ly
Ġanal y
es h
Ġres ource
Ġoffic ial
Pro v
Ġd ate
Def ault
it es
Ġm ode
Fr ame
Ġext ends
ot o
Ġam ount
e h
Tr ue
8 7
Ġo ption
199 7
ip p
en umer
ĠTh us
N umber
Ġconst raint
bs ite
' $
ve y
ill s
Ġbound ary
Ġf ather
ĠCh urch
] $
ĠG eneral
idd en
199 6
Ġcl ient
ĠA ward
Ġf em
Ġpro p
Ġsuccess ful
Ġact ive
ĠF il
ain ed
ma il
Ġro t
Ġb ox
Ġth erefore
ĠI N
Ġe ast
Ġloc ation
ĠIn ter
Ġ{ @
Ġin flu
ip al
g ener
ĠR ed
Ġb en
a el
M M
Ġg ives
P C
H el
Ġcent ral
Ġse lected
Ġen vironment
m eta
ĠG overn
M em
ĠCan ada
pr ivate
Ġdevelop ed
a a
}} {\
( {\
ĠFran ce
ic les
C o
x space
} +\
Ġr ather
Ġst ars
Ġden ote
Ġw ent
stit ute
ĠB r
W indow
k y
ĠD r
yp es
Ġhe alth
s m
n um
ob j
Equ als
ber g
d r
Ġh olds
n eq
Ġm ale
f inal
n umber
k er
ct or
ab s
ĠD ev
4 3
Ġnot e
e in
Ġim ages
ĠEurope an
ĠN one
if act
Ġcon duct
Ġwe ak
ĠB el
5 6
198 0
Ch ar
Ġmax imum
" ),
ĠC ouncil
Ġcl uster
p ush
st atus
Ġmod ule
Ġdeath s
Ġa ward
Ġv eloc
ĠG erm
Ġme chan
| ^
Ġoper ation
5 8
Ġco ordin
Ġent ire
Ġar r
ber t
ag ing
B ack
{ }
at ively
" ).
ĠG o
Ġintrodu ced
d escription
B ox
ER T
ĠArm y
ĠH ol
Ġac cept
5 00
Ġannoun ced
c el
Ġep is
al let
y a
ĠD o
Ġd irection
Ġin c
Ġlead ing
4 1
S I
Ġarch itect
Ġth ink
Ġ Ã
ĠV ir
cl ose
F ONT
on ly
Ġth ough
it ar
on ic
l n
pro ject
st ract
Ġrefer ence
Ġspec ified
ph er
R ow
} -\
AB LE
ir m
R eturn
Ġpresent ed
Ġpop ular
pro cess
Ġo thers
d s
p y
m em
Ġs w
O ne
Ġ ir
Ġc opy
Ġap plication
ro te
Ġrec ogn
ĠP aul
ock et
ĠM al
Th ere
sc r
ic ation
the orem
Ġcon ver
Ġpr inc
O b
ut ion
Ġequ ations
Ġrele ase
Ġth rows
& &
ar ily
im g
Ġse lect
Ġc ut
ra b
Ġdec l
ĠO lymp
S ince
Ġme et
Ġch annel
ĠM ark
St yle
Ġrepresent ation
Ġeffect s
Ġopt im
Ġup date
asc ript
P re
n ormal
Ġh app
Ġmed ia
" ]
Ġbel i
v ille
one y
Ġs om
om ial
ĠT rans
Ġ- \
Ġtrans fer
Ġinclud es
P er
199 5
y per
fil ter
enumer ate
Ã ¶
Ġv iol
Ġbas is
] \
Ġst ream
ĠA nt
om s
Ñ ģ
Ġup per
Ġm argin
ĠQ ue
Ġen ough
ĠD es
8 6
Con st
u id
// /
ĠR oman
D esc
plic ations
Ġg as
omet ry
am ily
is es
ĠTh om
ĠN ote
Form at
ĠP al
L abel
mo oth
M et
l ast
d en
Ġcompon ents
il i
n ers
Ġc ustom
Ġof fer
ĠN ot
ref ix
b in
Ġrel ative
Ġtrans ition
Ġal most
Ġt reat
P RO
Ġfil ter
form at
Ġin f
Ġare as
Ġwork ed
Ġcomp ared
w est
str ict
) }{
Ġm ilitary
ic ult
Ġdirect ly
ĠR ober
Ġa way
F e
ĠS um
th at
s igned
Ð¾ Ð
Ġset ting
Ġfor ce
ĠD em
d i
ĠJ ames
Ġy ield
end if
Ġprov ides
Ġcomp an
Ġc andid
Ġdetail s
u a
P age
t ic
p ass
so le
8 9
U I
u z
Ġun ique
om y
ĠSt reet
V ER
Ġsupport ed
Ġ\ |
m t
Ġvari ables
Ġt ree
item ize
ĠG roup
ree k
st ack
ĠS en
( &
Ġpro ve
ĠU p
Ġresp ons
ĠE m
a ign
D B
h space
ĉ ĠĠĠ
up date
C reate
Ġeffect ive
b uf
ens ive
z er
Ġcorre ct
il es
C heck
Ġim plies
T P
S ON
Ġpres ident
ou thern
ã ģ
Ġcont ract
Ġb g
Ġ( (
ol ve
Ġm id
Ġform at
v space
Ġc atch
Ġocc ur
) }$
ri a
Ġst age
all s
Ġvari able
i os
u it
ann ot
Ġgo al
List ener
Ġsign al
Ġco eff
199 4
N O
ach ine
il ton
$ }
ect ors
ĠS m
ell ing
j ection
Cont roller
ash ington
un it
H E
ri ef
Fil ter
g rad
ul ly
ĠM y
r d
L ast
ol s
id a
ĠH REF
Ġap plied
Ġj ob
il er
Ġapp oint
ĠL aw
âĢ ľ
ĠR ich
he et
as ons
Ġm ag
clus ion
18 7
Ġde but
5 1
Ġle arn
Ġaut o
val ues
R em
Ġre lation
IN T
S O
ĠGe orge
\\ \\
dimens ional
line ar
Ġus es
ĠT able
Ġpolit ic
E m
Ġke ep
5 9
B U
Ġin it
n el
Ġpart s
ĠCh ina
199 3
Ġpat tern
c s
itte e
ĠCent er
Ġinter face
Ġp ast
res ponse
ĠAss ociation
Ġrad io
Ġsu ff
ag o
sc ope
i as
m enu
param s
c ing
s y
back ground
o res
a ur
. $
Ġn av
ou ch
ev el
im ents
Ġse em
Ġg r
A ut
in i
199 2
he st
ent ry
Ġincre ase
ach ing
197 0
= {
Ch ild
E ng
Ġ url
N N
. )
ĠDav id
ĠG r
Ġst op
ĠUn ion
and er
Ġa x
Ġw rote
os en
sh ow
Ġgo ing
mult icol
F T
ĠG L
\ ,\
Col umn
u ate
r ule
S im
ex ample
Ġdiffer ence
no indent
Ġtak ing
Ġcon nection
Ġreg ard
Ġs ources
op l
Ġexpress ion
ĠH all
on str
ER R
Ġ Â
Ġstud ies
con tainer
Ġjo ined
, âĢĿ
ĠDiv ision
ate gy
out put
Ġ( "
multicol umn
lay out
e al
ĠGerm any
al ian
Ġsmall er
Ġnum bers
Ġsc en
act ers
ĠF l
ĠS ub
_ .
Out put
Val id
}} _
ĠDep artment
Ġright s
od er
o e
Ġro ot
Ġpart y
ĠĠĠĠĠĠĠĠĠĠĠĠĠĠĠĠ ĠĠĠĠĠĠĠĠĠĠĠĠĠĠĠĠĠĠĠ
serv ice
m at
Ġl ost
A M
ĠB lack
Ġmagn etic
wo od
im ation
ar r
Ġits elf
ish ing
Ġbg color
Ġ ~
Ġs olutions
Ġl ive
\ }$
Ġro ad
Ġnov el
ĠCour t
ã ĥ
ra z
Ġs eg
refer ence
jav ascript
Ġpol icy
Ġal though
Ġproble ms
u ated
q l
T em
Ġp ers
s d
Ġm arried
Ġs ens
ĠC LASS
Ġra il
Ġunder stand
Ġqu al
L ength
Ġeduc ation
ĠR em
Col lection
Ġallow ed
ot al
Ġ< !--
ri an
Ġn odes
ef ined
en ed
N ote
Ġn one
A b
ĠA pp
et t
9 4
Ġm atter
et ers
Ġcomplet ed
D ev
fil es
Ġser ver
ĠR oyal
Ġd raw
S che
an i
Ġcom e
w in
so ft
ub e
b reak
: </
e an
Ġdiff icult
< ?
d ag
ous ly
p ite
Ġwh ite
5 2
Ġbehav ior
Ġqu ery
rem ove
Ġcurrent ly
Ġv ers
Ġdesc ription
pre t
5 4
ĠL ou
CO L
appro x
P i
S D
g in
Ġad j
Ġal gebra
ind er
st on
p o
Ã ¤
ĠB ay
Ġallow s
us es
\ "
Ġt en
at tr
Ġdirect or
ĠTh erefore
ĠD uring
erv e
UR L
Ġst re
M ax
od ed
Ġfr ont
O L
Ġne ut
in stance
P ar
eder al
U s
) +
~ $
el se
ry pt
Ġopen ed
Ġmark et
ĠSt ud
Ġquest ion
Ġse lection
Ġbecom es
} '
Ġsol id
Ġpe ak
Ġestim ate
ark s
Ġoper ations
it ing
9 3
k it
8 2
Ġev olution
Ġarg ument
Ġdef e
ĠW ashington
Ġn ames
Ġveloc ity
Lay out
ĠAr ch
Ġelect ron
N ext
Ġw ords
Ġform ed
st yles
Ġconfig uration
Ġrelations hip
Ġtak es
Ġspect rum
ĠE X
lay er
ĠI D
un ch
Ġlarge st
math scr
under line
.. ..
ĠD i
sh ift
E L
Ġdem onstr
ĠComp any
`` `
8 4
g ence
9 2
M ode
Ġphys ical
Ġch urch
The n
ar ing
A g
ĠG reen
k i
enc ed
Ġr ule
alle l
I V
lo or
ant ic
Ġan g
re a
' ).
Ġh on
Ġclass es
Ġp aint
N et
Ġmak es
Ġincre asing
ro s
Ġag re
y ing
P R
c i
6 3
res h
ar p
Ġf a
Ġf ont
C ache
c d
199 1
$ (
C ON
Ġset t
Ġk ind
n orm
Ġcontinu ed
clud e
min us
Ġequival ent
prot otype
Ġup on
iz ations
Ġrat io
Ġrun ning
Ġs yn
Ġdirect ed
un t
ri p
ĠP e
Ġapp ly
Ġe igen
Add ress
ĠJ er
ou l
d epend
en a
Ġch all
Ġwe bsite
Ġtrans l
W hen
ugh ter
d esc
C L
r s
ĠM art
Ġneed ed
ĠWh ile
}} }
ans ion
un ity
g raph
Ġent ry
Ġsign ed
ĠM or
Ġprofess ional
ain s
Ġinvest ig
ĠC ons
Ġcall back
5 3
in ner
ĠIn stitute
( [
Ġdec re
ĠM et
Ġt im
pp ed
Ser ver
we ight
Ġcontin ue
Ġear li
Ġde ep
We b
af e
NA ME
Ġconn ected
d et
=" ../../
Ġs ymbol
Ġex cept
Ġsong s
C ase
Ġs ound
us ion
ĠAustral ian
Ġdimens ion
ines e
Ġv oc
But ton
The ta
b our
9 1
ĠTh at
f loat
Ġ ;
Ġsub sequ
ens us
am l
umn i
Ġus ually
M ed
ask et
Ġrecord ed
Ġro ck
Ġpr imary
ĠAc adem
ĠG a
T ag
B undle
m ission
Ġ! ==
T ypes
Ġw ord
Ġfrequ ency
CO DE
in ct
ult ural
Ġun its
ĠV ol
Ġstud ied
ĠM ary
ĠS ing
ĉĉĉĉ ĉĉĉ
. &
Ġreg ions
ĠT ype
Ġexp and
> >
Ġfollow ed
Prov ider
C P
Ġ$\ {
Ġac qu
Ġmem ory
Ġas k
Ġsh all
ĠPro v
Ġfil es
#### ####
6 2
Ġaut om
S L
Ġt ransport
d ep
Ġc ast
Ġn uc
Ġ[ ]
^ -
Ġad apt
yn omial
Ġde al
ess ages
it ch
ĠH T
M in
ĠAfr ican
**************** ****************
Ġteam s
Ġb ar
Ġdisc over
ing u
k m
el i
}^{ -
ĠS pec
Se lect
old er
Ġcrit ical
al d
g reg
Ġout side
I O
Ġstruct ures
ĠRober t
Ġspe ed
Ġg re
Ġthe orem
Ġl ittle
Ġconc ern
( _
av en
U rl
F O
text rm
++ )
ad ow
ĠR oad
requ ire
Ġcour se
ify ing
Ġinteg r
or ing
am s
Ġm ention
Ġass ist
is ation
ĠS ociety
ĠM ex
Ġoff ice
sup port
th ing
Up date
t ra
Ġreturn s
ĠĠĠ Ċ
L e
W ork
c ur
pro d
Ġ ...
ĠM usic
oriz ont
t ree
N D
Ġro b
ĠP ress
ĠAr ray
util s
. /
B A
li ament
Ġv ict
set s
T arget
tr ack
olv ing
Ġf it
at tern
Ġmon ths
s ign
P O
Ġmod ern
ort s
t ask
Ġex plicit
Ġlay er
6 1
Ġiss ue
pec ially
is ions
Ġdes igned
ĠL icense
ind ing
com ple
Ġal tern
ĠS w
ob ile
ã Ĥ
in v
Ġ ess
subset eq
Ġs m
Ġre v
ĠT V
Ġdeterm ined
pro to
Ġmet ric
al a
Ġn or
Ġb it
< \
ĠS ome
ĠS tr
$ _
Ġvir tual
Ġimp act
the n
ĠU K
ef t
h i
% %
hed ul
Ġcho ice
ov ers
T YPE
{ {
T op
196 0
Ġad ministr
return s
8 1
ĠH en
ern el
Ġresult ing
Ġchar acters
cre te
Ġex ception
Ġim medi
Ġcompan ies
8 3
lang uage
ĠD ata
se y
Ġinv olved
ang ed
Ġm ix
on a
sc he
ec ute
="../../../../ ../
W idth
Ġnecess ary
) /
Ġk m
Ġf av
S H
Paramet er
Ġex hib
text tt
ĠR uss
Ġun iform
Ent ry
198 9
= (
A V
b as
con f
Ġwrit ing
Ġthrough out
Ġor d
ĠT ur
ĠCan adian
P ack
et ch
ate gor
ĠG l
C an
Ġconst it
il ies
ra st
Ġw ife
w rap
Ġrem ove
Ġpro ced
C A
m atch
Ġ\ ;
ĠO ut
comm on
ĠC ong
ĠC ath
ĠJ ack
ĠO b
D D
ffic ient
g u
Ġpre c
Ġsh ape
}} ,
ĠAng el
Ġrema ins
Ġav oid
class es
D F
Ġprevious ly
set minus
eth ing
lic e
Ġ( -
in y
b ul
Ġfail ed
Ġappe ared
}} _{
Ġarg uments
oot st
Ġf ire
ĠO F
d ocument
ta int
Ġdatas et
in os
ĠAfr ica
Ġiss ues
Ġb ig
Ġfl ux
Ġchang ed
le ase
Ġ* *
Ġno ise
foot note
Ġe ight
par se
ĠA PI
ript or
est ival
orizont al
a uthor
ty p
r ics
ĠT own
L evel
Ġlik ely
B o
ĠKing dom
a res
6 9
ĠM ac
Ġper cent
ew idth
u int
b ool
198 8
ĠĠĠĠĠĠĠĠĠĠĠĠĠĠĠĠ ĠĠĠĠĠ
ĠL og
^{ -\
ĠD irect
str y
it ory
ic i
A ccess
Ġill ustr
ĠIs land
w ell
ĠS ervice
ĠL eg
ound ation
ĠT ex
Ġrepl aced
pon ents
art ifact
{ $
au ge
th on
b on
is k
ĠJ ew
ĠW ork
Ġadv an
off set
Ġf all
V is
ĠM iss
Ġfor ces
ot ic
Ġvert ex
Ġneg ative
Ġrepresent ed
Ġlong er
Ġl iving
Ġ$ |
Ġs y
Ġy et
ex pected
p g
et ime
ro ot
f g
Ġn om
en ing
AR T
ĠN S
Ġa uth
Ġhim self
3 00
Ġclass ical
ar ter
Ġd ig
Ġf loat
Ġsu fficient
: \
f ree
t ical
R el
Ġto wards
Ġobserv ations
Ġe lected
Ġt our
tem plate
Ġcamp aign
Ġvol ume
Ġcount ries
Ġr ace
ĠW il
ur a
T ree
se cond
Inter face
Ġder ived
Ġschool s
Ġdescrib e
b uffer
ĠCent ral
m iss
Ġext ension
opl us
Ġre ve
Ġad opt
Ġbel ong
Util s
ĠA lex
Ġpass ed
=" -
ĠM at
() ->
Ġerr ors
ĠE ar
ru pt
ĠB est
Ġarg s
ĠS am
Ġl en
def inition
Ġt ro
ĉ Ġ
D escription
Ġalbum s
Ġt ag
Ġg rav
Ġb uffer
Ġes pecially
ĠM er
Ent ity
w ait
Ġob j
: "
Ġwho le
and s
Ġup d
Off set
Ġ _{
Ġt ax
ĠT ra
ym pt
ig hest
omorph ism
ĠCl ub
Ġfound ed
Ġorig in
Ġexist ing
w indow
Ġun cer
res ents
Ġconn ect
Ġder iv
ĠO pen
Config uration
g ate
Ġ( $\
ro ad
ĠM o
' ),
ph ere
C K
ĠM useum
Ġs mooth
ĠThom as
Ġcon cept
f a
ĠâĢ ĺ
ell ar
W rite
Ġin equ
Ġsim ply
a o
ĠA ccording
Ġm other
ĠR ussian
ĠP o
olut e
ĠJapan ese
Ġl atter
Ġch arge
Ġhe nce
i h
ĠR ad
ĉĉ Ċ
asket ball
bit r
Ġc red
Ġw ave
eth er
R L
le v
sh ould
Ġmiss ing
Ġcomp act
] );
is l
ĠSe e
ak er
ĠP ublic
ĠG ames
i ences
7 2
mod els
o ice
ec k
Ġstart ing
a fter
ollow ing
Ġd oc
s ystem
Ġsche me
_ *
Ġj ud
d x
Ġre strict
an o
osp ital
air s
Ġsc reen
Ġre nder
ĠH istor
198 7
z a
lim its
Cont rol
etail s
Ġ{ }
) |
ĠY ear
v ector
P S
Ġcur ve
it able
Ġs il
Ġpol ynomial
Ġin side
Ġem pty
i ra
ĠM ag
Pro cess
ri al
L oad
ĠO ff
ct x
Ġcon vert
Ġt er
Ġre con
Ġemb edd
Ġinter action
ĠAcadem y
anc ial
Ġext ended
ĠR ail
r im
ĠSc ott
Ġbir th
Ġh ous
c ard
Ġframe work
lin ewidth
Ġlim ited
Ġem ission
g n
c at
Ġs ense
Ġf ight
Ġplay ing
Ġdec ision
Ġs us
Ġmap s
N ow
Ġf ill
Ġm ar
ĠF ile
Ġc ategory
Ġcontinu ous
M on
ĠRec ords
Ġoper ators
ootst rap
ill a
n y
ĠSc ience
w ar
he nt
Ġu int
Ġappoint ed
ĠRes earch
Ġmin imum
as hed
ad es
Ġd ark
O p
Ġd ed
Ġp anel
Ġdiag ram
D at
198 6
Ġwrit er
Ġb ank
ĠChrist ian
Ġoff set
it z
erv ed
O pen
L o
n es
ĠF orm
Ġrel ig
ĠF r
Un it
Ġw id
ann ing
Ġgener ally
ĠDem ocr
ĠB ook
J son
= -
is ms
f s
Ġform s
Ġin fin
_ +
p atch
En c
ĠWh ite
Ġg ave
Ġim m
ĠMin ister
Z E
I F
Ġneed s
im ages
ĠT ime
V AL
ĠG rand
ĠO ther
_{ (
Ġpro file
ĠP at
Ġstre ng
Ġrad ius
Con tainer
R ight
K E
ict or
\ }
ĠVir gin
Ġinst it
Ġs amples
ĠM ad
l ap
Ġbound ed
S A
ĠReturn s
Ġother wise
art s
st ant
P P
Ġn orm
IG N
ĠWest ern
Ġpres ence
Ġcontain ing
Ġqu e
Ġso ftware
198 4
ol ar
Ġc ounter
T e
Ġth ought
u an
duc ation
1 000
ĠS k
ĠCh inese
re land
for ce
COL OR
ĠJ ust
r ish
Ġch osen
Loc al
P ort
it a
Ġf ace
ak ing
ĠSec ond
Ġsh ift
ĠLou is
Ġcons ists
G B
ul ate
out e
C R
Ġr ules
ĠO per
id ents
Q L
7 8
d el
ĠZ eal
att ice
~~ ~~
c ache
ĠMich ael
d eg
Ġbook s
Ġst ated
Ġsc ore
Ġfig ure
ĠS al
Ġlead ers
re al
Ġf ix
AT ION
C urrent
b lack
to ken
Call back
\ '
Head er
E M
Tr ack
mer c
ĠM a
Ġj ournal
U M
Ġrun s
Ex p
Ġcour t
ĠIt alian
ail ed
ĠTex as
") );
Ġd am
ur i
n ap
ĠHam ilton
Ġsc ope
d im
Ġlevel s
Ġ| \
7 6
rop y
ĠS l
ed y
Ġrequ ires
d rop
re me
g an
Ġlist ed
rel ated
Ġgu itar
ot ion
ĠG old
-- -
Ġdev ice
Ġredu ced
ĠZeal and
omet imes
oll ary
Ġtra vel
cont rol
tt ps
Ġgalax ies
A cc
align ed
re es
Ġe mer
Ġfil ename
Ġle ague
Ġg ot
ĠT or
ĠG od
ent ity
198 5
Ġ* )
Ġpl aces
Ġh yper
Mod ule
por ary
ĠK e
az ine
Ġman if
4 00
D irect
Ġfor ward
w rit
Loc ation
Ġ$ [
Result s
Ġch arg
ĠC reate
F C
ec ause
ĠD on
t im
Ġbo ard
Ġfri end
ĠK ore
ta x
w s
irc raft
sub figure
R ange
Ġact ually
h igh
ourn ament
ĠPro position
artifact Id
Sc ript
Ġd ram
Ġreg ister
ĠChar les
Ð° Ð
ick et
P o
Ġpract ice
AP I
in f
wh ite
He ight
= #
Ġsur v
at ial
Ġsh ip
ens ions
Ġev idence
Ġon line
Ġp ert
Ġide a
Ġexp ansion
ĠD ay
Rec ord
Ġmot ion
> ,
F L
: (
th let
Ġpro gress
Ġhand le
Ġact ual
ress ion
Ġdistribut ed
E Q
Ġse ven
Ġpro per
am era
Em pty
M D
H ash
Ġsymmet ry
lo od
Ġ esc
Ġcomp ute
ĠAss ert
omet ric
Ġpartic les
Ġda ughter
p id
Ġtra in
ĠT om
Ġc ore
vent ion
F ont
Ġfin ished
Ġal umni
Ġocc up
Ġc ivil
Ġst ore
res ource
se ct
Ġus ers
Ġident ity
or ial
Ġknow ledge
Ġh yp
big g
p ri
Ġdiscuss ed
ĠCar ol
t ml
Ġh ttps
Ġfootball ers
Ġs ports
iction ary
Ġrema ining
Ġm us
D ir
rib e
om a
ĠG reat
ig inal
Ġpartic le
Ġst e
c over
res hold
" ))
Ġneigh bor
Ġre ally
Ġover all
s cal
Ġappe ars
St at
ĠS aint
Ġpol ice
Ġestim ated
Ġrep resents
Ġearli er
M ar
or se
Ġf un
ĠM ont
C S
ĠB ase
Ġar bitr
Ġf ully
ĠL at
p ing
ĠFran cis
cl es
Ġapproxim ately
k l
Ġdeterm ine
Ġevent ually
ĠH ere
ĠC he
ev al
Ġbeh ind
dag ger
p op
ĠD ec
b order
Ġh ighest
H ttp
ri z
col on
N one
Ġrec over
; "
z ero
con s
B S
Ġin j
Ġpl ane
he ast
Ġinter pret
Ġre ached
Ġ$ -
Ġexper iments
yd ro
P T
Con nection
* {
Ġcompar ison
ĠM us
ĠB en
Ġpro te
al o
il arly
Ġinteg er
Th read
v m
Ġform ula
Ġbl ue
Pos ition
Ġex amples
Ġcon tact
Ġcol lect
ĠĠĠĠĠĠĠĠĠĠĠĠĠĠĠĠ ĠĠĠĠ
ĠO ur
el ves
Ġform ation
Ġe ver
b efore
uf act
IN E
ĠB ill
f it
t og
Ġc op
Ġch ain
b an
Ġbegin ning
Ġkill ed
group Id
Ġben ef
il s
ĠD an
ĠS T
ĠB uild
Ġc os
Ġapproxim ation
Ġstr ict
Ġent er
Ã³ n
Ġ ign
Ġstat ement
N e
Ġpl atform
Ġn ature
m ode
Ġcon sum
Ġepis ode
ĠD el
ĠSum mer
Ġs witch
AC K
Ser ial
ĠP re
ĠF ore
Ġb all
Ġs ession
Ġbroad cast
Ġ\ (
h ash
Ġin cor
Set tings
Ġb ur
ĠIs ra
oc ation
Ġst ations
lic k
_{ {\
Ġb ranch
erv ices
ro t
ist an
ter m
k et
Ġ$ {
Ġv ac
ĠH istory
PE CT
' \
Ġmon th
at ically
iqu es
E CT
Ġn ight
), \
Ġth erm
ĠCath olic
Ġoriginal ly
n ov
param eter
Ġvert ices
Ġs low
S earch
% ;
198 3
p resent
Ġbuild ings
Ġsc atter
Ġperson al
mod al
de bug
Ġcom ment
Ġtem plate
7 9
' _
Ġcon sequ
c lear
Ġd ro
ou ri
iver se
y e
Ġdynam ics
ĠE v
icro soft
Ġqu ality
}} (\
P L
ac ement
Ġlead s
Ġexper ience
ĠOlymp ics
tain ed
() :
wed ge
h r
Ġmat ches
ĠR un
C opy
M C
Ġca use
ĠSm ith
Ġm unic
at re
Ġgrow th
ĠV er
ĠM em
l am
a uth
Ġrele v
Ġnetwork s
ĠF ootball
s v
Ġopt imal
Ġpert urb
x x
Ġuse ful
at ur
Ġwe b
urs or
Ġs ays
iv ial
Ġpl aced
B O
Ġatt ribute
al ed
styles heet
ĠC E
ĠSup er
sh ire
ĠJ ose
M ult
ĠComm ission
Ġread ing
ĠPar is
con dition
25 5
Ġcontribut ion
Ġpol ar
re ct
ul s
text sc
Ġv eh
R I
ma ke
ĠAs sembly
Ġfam ilies
Ġsec urity
Ġmeasure d
O ption
d irect
Ġcirc le
Ġmean ing
ĠOr der
ĠE nd
7 4
Ġsom ething
m i
Ġgener ate
Ġre pe
19 50
ĠR ob
198 2
Ġh ol
Ġart ists
ari able
el t
it ors
Ġfem ale
el er
Ġte ach
Ġ ::
T I
pro du
Ġmin im
c p
Ġl ack
Ġth ings
ol t
Ġaccur acy
Ġw ide
Ġp adding
Ġ> =
ĠH ow
ĠA tt
Ġuncer taint
ĠH el
Ġco ach
Ġfinal ly
d est
7 3
Ġt ensor
Ġindu stry
ĠF lor
)\ ,
L I
Ġagre ement
Ġp ick
Def inition
_{ -
e es
k ind
ĠM ass
? :
Ġext ra
f aces
ĠTe chn
Ġsc ient
Ġs en
Ġsatisf ies
Ġdest roy
Ġt it
ĠL os
ch ron
ĠSp anish
ĠH ence
; ->
Ġincre ased
ann ed
Ġst aff
âĢ ¦
Ġcho ose
Ġdepend s
ell s
Ġb ottom
Ġst ri
Ch ange
Ġcap ital
N on
Ġa im
Pro ject
Ġspect ral
ell a
D ocument
Ġart icle
Ġprodu ce
M O
Ġed ges
Ġfe ed
ĠF urther
Ġdec om
Pro perties
merc ial
Oper ation
Ġnumer ical
Ġman ager
Ġpress ure
ab ilities
ĠS ur
Ġs ex
Ġbas ic
ang er
Ġext ract
Ġs aw
I ter
add ress
re y
="../../../../ ../../
k o
P arams
os ing
AT A
Or der
Ġsc ript
H O
197 9
E v
h om
ak es
ĠRich ard
SE T
M atch
anc y
ĠP eter
Ġto ken
ĠAr g
oun tain
Ġ ensure
ĠI reland
ĠP ri
M ore
struct or
ic ients
Ġremov ed
mult i
ug ins
Ġman agement
ĠB G
Ġs quare
gorith ms
Ġitem s
E q
R ev
) ^{\
Ġhas h
Ġst ra
Ġconstraint s
Ġto day
or ation
P A
az z
E l
Int eger
st ep
inter face
L eft
================ ================
) }(
Ġf raction
W E
Ġover ride
dev ice
id ers
Ġcom es
Ġfour th
ar ian
ic ago
ĠF ield
s pect
act or
Ġ+ \
A m
ĠL ake
Ġconsist ent
Ġ" \
Ġnot ed
Ġw alk
k ing
Ġsp aces
Ġh it
up le
en ge
Ġs light
ĠFor ce
7 1
c opy
D es
Ġres olution
Ġed itor
et te
Ġmov ement
Pro t
Ġatt ention
Ġun ion
Refer ence
su ccess
ĠAl though
ut ch
198 1
Ġg auge
T V
Im pl
se ud
Ġro ute
p icture
d es
in ant
ov iet
ann els
Ġcont rast
P op
Ġproduct s
Ġap plications
ch or
Ġsim ulations
S ign
m itted
est ed
ĠN ow
ĠO ver
for all
ĠFran k
Ġm oney
st o
Ġp arams
Ġscal ar
Ġcorrespond s
) _{
ĠP an
ribut ion
pe ople
OR T
com ponent
ing er
Ġan gle
Ġpl ant
L ong
ret ary
Ġm iddle
St ore
Ġg rant
Ġdet ection
Ġh ot
Ġqu ick
Ġm ole
K e
Ġun known
is hes
Ġliter ature
atal og
ĠReg ister
if ies
Ġeas ily
ie ce
Ġ er
ĠA ust
Ġin ner
Ġx ml
ric es
ĠS un
b el
o om
M e
t ik
Nav Bar
ĠGe org
Ġp en
s ort
Ġappro pri
ig an
u ge
Ġm ut
Ġbro ther
ir ing
Ġprocess es
Ġimplement ation
Ġs plit
ic ate
Ġsc ience
}$ -
c r
Ġrema ined
ĠC r
result s
Ġconstruct ed
Ġf ast
Ã ¨
) ^{-
ĠO ffic
Th at
Ġmoment um
Ġdis k
=" _
Ġparticular ly
k in
} %
ĠGovern ment
Ġres ources
ĠM el
Ġc hem
ir l
ish op
Ġl ove
m atrix
ä ¸
ĠH ill
ĠC D
ic ated
Ġb inary
ĠWe b
Ġant i
Ġs ure
c ases
Ġthe ore
g lobal
C al
ms g
ĠComm ittee
elop ment
Hel per
ĠT wo
sub subsection
b ind
Ġrecent ly
Ġca used
ĠD u
Ġmed al
Ġcalcul ated
Ġcoupl ing
Ġs ch
trans form
M ark
ut y
rodu ction
197 8
As ync
P tr
Ġdec ay
Ġin str
A c
Ex pression
oc key
B l
en v
in ternal
K ind
H ere
Ġst eps
Ġvari ety
Ġmin or
Ġexperiment al
C ore
ĠF in
ir it
raz il
al ysis
oc al
ĠM ap
ag raph
ĠR ock
ynam ic
ĠCong ress
Ġag ent
ĠD en
F urther
Ġexist ence
ib ly
197 6
il ed
il ation
Ġmeasure ments
ĠVirgin ia
Ġt alk
ĠU nder
Ġass ign
ĠV ictor
Ġart ist
$ ^{-
L S
cont in
197 2
Ã §
\! \!
b i
ĠIt s
O ther
ĠAl so
ĠFil m
ĠP enn
Ġgre ater
S o
ĠEx ception
H owever
equ al
ĠF oundation
ĠC amp
fo o
ur t
Ġon es
d elete
Ġle ader
Ġal t
P ost
Ġinequ ality
Ġf ood
u ations
Ġet c
pro ve
Ġassum ption
ĠMore over
m ut
re v
Ġstr ategy
Ġg old
ĠG ener
S ession
Ġproced ure
Ġsh are
Ġs ort
T im
ol f
Ġlo op
Ġa ud
ĠL ong
Ġj oint
Ġl ot
D L
Ġund efined
ell ed
Ġcrit ic
ick er
197 4
Ġa ircraft
Ġaward ed
Ġex ternal
Ġcol lege
Ġident ified
Ġorgan ization
Ġtrad itional
Con n
Ġd u
t n
Ġ{ };
at o
hes is
Ġset tings
n eg
m ann
b ed
re nder
per p
Ġs end
Ġsepar ate
ST R
r ate
Ġnew s
ĠC ast
Ġtr ade
Ġclass ification
j a
Ġpre vent
Se ction
ent al
R ender
ĠEX PECT
all ery
Ġinteg ral
tik z
Q ue
197 7
in em
' }
Ġdec ided
U LT
ĠHen ry
Ġ util
typ es
Ġd ual
Y ou
ol a
197 5
Com ple
ĠL and
Ġn et
s ur
Ġam plit
Ġb al
Ġfeature d
ĠSer ies
wh ile
Ġdist inct
v as
ERR OR
ĠI ll
reed om
re q
Ġc ulture
struct ure
Ġfact ors
ĠD E
as er
D o
ĠP y
ĠA ut
ud d
ĠB rown
Ġ} \
( :
ect s
h over
ĠAngel es
P erson
Ġj av
Ġb ul
or a
ĠW omen
ar ant
os oph
doc s
e ch
roll ed
ĠNew s
S he
al g
Ġan im
P ass
Ġcompet ition
wid get
Ġpair s
Ġess ential
web kit
S R
Ġso on
ific ations
if ically
id ae
ĠHe alth
p a
Ġh ours
M enu
Ġl attice
erv ation
Ġbro ught
Ġdat abase
Ġsim ulation
al i
Ġre li
Ġpolitic ian
Ġact ivity
a ver
c f
Ġn amespace
er ies
s end
rom e
S ing
ĠM ax
ĠL ine
Ġmention ed
A rt
Ġequ ip
E arly
f ect
' .
ĠP ost
,\ ,
ordin ate
Ġ ult
Ġcoeff icients
equ als
os c
Ġcomput ed
ex port
Ġc it
V er
Ġleg al
Ä ģ
rag ment
ĠT O
Ġhigh ly
Ġexact ly
Ġpl ot
jo in
Paramet ers
form s
N ames
ĠĠĠĠĠĠĠĠĠĠĠĠĠĠĠĠ ĠĠ
Ġv an
Ġelect ric
ategor ies
as ure
ĠAt l
st at
Ġprogram s
In st
Ġl ibrary
s ol
.~ (\
Ġs ampl
ĠT er
Ġm icro
Ġpr im
Ġtest s
un ct
Ġrelev ant
ir al
ot ing
S M
in ate
ĠC re
ac cess
Ġre ach
ĠIt aly
ĠArt s
ad r
as i
Ġs ometimes
Ġden otes
en um
Ġeas y
tr y
ĠC heck
ĠBG COLOR
Ġan sw
r ich
Ġp urch
s ession
T ER
Sche ma
ĠS wed
m c
Ġinterest ing
Ġcandid ate
Ġplay s
D own
ev en
Ġsit uation
l ines
D ep
i pl
og ene
X X
if fer
Ġcorre lation
Ġsignificant ly
Ġdoes n
ound s
Ġseg ment
197 3
Not es
ix el
Ġe cho
ĠIn c
sk i
196 8
AL L
Ġb rief
a ud
Ġun ivers
ill er
Ġa ctions
Ġimmedi ately
ĠO R
Ġfe el
ĠMex ico
Ġvis ual
Ġsp ent
k es
Ġb ad
g g
ar c
Ġredu ce
Ġstud ent
Ġn ative
Ġinflu ence
ĠĠĠĠĠĠĠĠĠĠĠĠĠĠĠĠĠĠĠĠĠĠĠĠĠĠĠĠĠĠĠĠ ĠĠĠĠĠĠĠ
ĠRuss ia
Ġr ates
to String
Ġg rid
ĠCh icago
ĠR el
Ġg un
= .
ab it
Ġwh y
d ouble
ĠR ead
b al
f ull
Ġcur ves
S um
O ur
Ġg rand
.& .&
Ġincre ases
R ed
Ġgener ation
H ost
G o
ele br
Ġprop ag
"> &
S k
}} ^
t ri
bl ue
ĠFlor ida
Ġcomp are
Ġsur round
Ġtechn ology
Ġmod es
ĠB as
ig er
Ġecon omic
ms elves
ond s
def ined
foot er
Fig ure
S u
Ġax is
f n
Ġarbitr ary
b u
}^ *
ir med
L P
Ġro om
os h
D om
$ ).
Ġf if
unc hed
os ed
) }{\
S l
Ġmajor ity
Ġsing er
Ġestablish ments
Ġchall eng
hold er
ĠA v
D raw
ĠC all
Ġ$ .
Ġth read
end ar
Ġst ack
Ġc ache
Ġra ise
f ocus
Ġform al
ust ers
av ed
Ġcon cent
Ġb ring
Ġassum ed
ĠB ank
ĠBo ard
_ ;
i ro
Ġin fo
> .
ian o
' ],
Ġarchitect ure
)\ \
Ġauth ors
ĠB ig
U se
Ġspect ra
c ut
Ġpack age
pm atrix
Ġal gorithms
Ġh arm
197 1
or al
Tem plate
Ġthe mselves
r or
ĠT em
p ers
G ET
med ia
Ġpar se
Ġfin ancial
Ġmed ical
Ġex am
Ġman ufact
dis abled
Ġdiv ision
Ġposition s
pl ugin
ĠL ie
y es
D IR
ĠK n
ĠE qu
Ġact or
Ġpol y
s ime
Ġtreat ment
V ector
Hand le
are er
ip eline
c ar
} )$.
ĠM ethod
i en
sh ot
D ist
ĠL O
b ootstrap
sime q
OR D
& -
op ed
ĠM ost
Ġre comm
Y ear
p ool
ĠSt ar
Ġp ark
Ġcomb ined
Ġactiv ities
Ġc ard
bul let
Ġinv ariant
I con
ian a
Ġhe avy
F alse
^{ +
Mem bers
w a
Ġr ing
U P
Ġcomplet ely
Ġtask s
196 9
ĠN avy
Val ues
' >
ĠE ach
ap ers
R ect
ĠC ON
est amp
Ġw oman
g a
Ġtyp ically
cl ick
end ix
Ġdep th
E ach
ov a
Ġm ur
Ġor ient
Ġfl ag
hand le
mod ules
n amed
ĠK h
br id
org an
Ġm ixed
Ġdistribut ions
v ol
m as
D r
Ġcontain er
G E
Ġw ait
pos es
Ġ[ '
) _
Ġinter val
Ð »
or ter
ĠPro ject
Ġrecord s
Ġpart ial
( *
N R
St ack
B R
ol k
Ġsub set
ĠTr ue
ĠE mp
Ġby te
in ations
ed s
> ();
Ġcoll abor
ĠAn n
Ġcontribut ions
D A
X ml
Ġb asketball
l ig
Read er
Ġst able
Ġe arn
Ap plication
ex ception
hem at
yl van
Ġw ind
Ġsh ared
ĠT imes
Ġcap acity
Ġstra ight
Ġim prove
sh ort
ĠSc ot
Ġsc ored
T itle
Ġintrodu ce
Ġt ournament
Ġfl at
Ġac adem
ĠII I
Ġnear ly
$ $\
ip ality
Ġm achine
aw s
r ons
st ra
Ġpre p
p anel
Ġg reen
c ustom
rem ark
ad s
em ic
Ð º
pro duct
Ġsem i
im a
Ġtrans action
ici ency
Ġqu ite
ell i
Ġsymmet ric
all ow
T ool
and a
Ġst ellar
Ass ert
Ġor b
Ġm aster
Ġwrit ers
urre n
Ġrel atively
ĠC ap
und red
t ers
ĠF estival
Ġin sp
du le
ĠM ur
In valid
Ġsp atial
] ]
Ġa mb
' re
Ġinter view
ĠL ife
)$ -
15 0
Ġcomb ination
Ġ+ +
Eng lish
ĠM il
Ġpur pose
ĠT im
=" /
Class es
cl oud
194 0
Ġc arried
Ġde lete
194 5
Ġ} )
Ġp ri
ug by
v a
196 7
ĠN ame
Ġrefer red
ĠS y
Ġtechn iques
à ¤
Ġop port
h s
t ure
P arser
ĠB ur
Ġmin utes
Ġappro aches
h ouse
Ġm is
vir tual
Ġinitial ly
U RE
T C
olv es
Ġdis e
ament al
Ġinv oke
ĠChampionship s
v ed
ang ular
od ot
ish er
ĠPar liament
ck now
{ $\
Ġcell s
point s
Ġcontain ed
D uring
Ġcon tr
l ate
M y
M B
Ġr isk
Ġab ility
ist ers
H z
H as
P aram
ib li
Ġ= \
annot ation
Ġ Î
Ġth reat
P arent
ou b
w an
ĠK ar
ĠCarol ina
ĠA rab
ĠMod el
ĠO h
} &
by te
Ġsh ot
P H
field s
ĠR equ
Ġcoordin ates
r f
## #
ma z
C or
frame work
ĠO ld
ĠL u
O K
Ġpr ison
ex ports
ĠS il
ic ity
~ $\
ĠE ducation
Ġl ock
\| _{
pos ite
Ġl at
ylvan ia
16 0
Th us
ĠD ate
OR M
ri um
Ġcal c
Ġbe y
Ġph il
Ġmov ing
ad ium
ĠĠĠĠĠĠ Ċ
` .
in itial
Ġabs olute
Ġm orph
Ġopen ing
ĠPro gram
Ġw av
25 6
map sto
N um
Ġsing ular
omorph ic
sq l
Ġmost ly
Ġmat rices
1 20
Ġsim pl
G C
Ġocc urs
ĠM ath
V ID
D i
De bug
L a
Ġindic ates
et ween
ĠĠĠĠĠĠĠĠĠĠĠĠĠĠĠĠĠĠĠĠĠĠĠĠĠĠĠĠĠĠĠĠ ĠĠĠĠĠĠĠĠĠĠĠĠĠĠĠĠĠĠĠĠĠĠĠĠĠĠĠĠĠĠĠĠ
; <
u ages
ĠN etwork
Ġin her
Ġpart ition
Ġhe ader
__ (
il ib
Ġestim ates
Ñ ĥ
Ġcom mercial
ran ts
Ġwh om
ĠP et
196 4
Ġpar allel
J ohn
\ _
By tes
Ġshow ed
Ġcomput er
Ġbey ond
ic ons
ran k
ĠS oviet
st ein
Ġblock s
Ġprot ocol
co pe
W riter
ĠL iber
ĠMart in
B ody
Ġle ave
The orem
Dev ice
ĠYou ng
Ġt un
19 30
ang uage
n am
E rr
ĠGa ussian
Ġr ul
ĠA wards
Ġappear ance
at i
12 8
Ġto ld
k ins
Ġh um
c ategory
ĠJ SON
ven ue
Ġdepend ence
he lp
ĠJ o
Ġact ress
conn ect
ax is
com ment
Ġprov ed
Arg ument
Ġrece ive
s pe
Ġanal og
Ġv s
-- >
pt on
f ound
Ġabs or
in et
ĠCol umb
Ġcent re
N E
j i
Ġslight ly
Ġwin ning
Ar gs
Ġt or
Ġdis s
Ġappropri ate
ĠS ocial
Ġs af
ĠF ort
Ġyield s
put e
Ġ$ $
l ers
AT H
AN D
Ġmeas ures
Ġeff icient
Ä ĩ
U B
sh ape
agn ost
Ġas pect
Ġprodu cer
Ġsp read
}} ^{
\ {\
ĠG al
Ġend ed
Å į
rad ius
rec ated
-------------------------------- --------------------------------
Ġmain ly
T S
Ġm ission
depend ency
Ġreg ime
Ġvert ical
ĠO f
Ġst ay
orn er
pro position
Ġindividual s
arri age
Ġvoc als
Ġcle an
Ġtest ing
ĠEng ine
tog gle
ĠL in
Ġrema in
196 5
m en
c pp
new command
G u
Ġcl oud
ap plication
Ġc he
The se
ĠG en
Ġ â
ĠSt ep
Ġcy cle
and ra
Ġ&= &
ĠD om
y an
M ain
ĠD et
ĠB razil
o z
Ġexpress ed
f ort
Ġed ition
Ġincor por
ĠO l
Ġcar ry
Ġre ct
Ġ ),
Ġo s
on ical
ĠM r
En abled
Ġrespons ible
M eta
pon ential
D I
Ġfore ign
m os
ĠW ales
Ġmeasure ment
Ġby tes
Ġassert Equals
m ic
j e
Ġgo als
Met adata
Ġinter actions
co q
set tings
ĠT op
Ġla unched
p adding
as ion
Ġprob ably
ĠP ac
Ġtrans formation
Ex ecut
Ġjo in
Ġv ectors
ail y
ĠSh ow
sk y
call back
196 6
Ġatt ended
Ġser ial
ĠJ ac
` ,
ist ical
l arge
Ġv ary
Ġent ered
Ġachi eved
$ ;
ĠJose ph
sc ill
Ġmov ie
n umer
ins ert
ier arch
Ġopt ical
Ġref lect
Ġins ert
ans as
it an
r ical
Ġdirect ory
ell ig
g rid
M ock
Ġpo or
Ġco ast
s ylvania
onal d
r ick
ĠCol or
ĠR E
Ġobserv e
Ġw aves
Ġproject s
Ġdiscuss ion
r ong
Ġse asons
Ġs outhern
ĠProv ince
Ġas ympt
Ġnor thern
ĠP lay
ĠPro fess
Ġvis it
Ġmod ified
Ġpro ceed
Ġmus ical
re place
C ar
19 20
Ġstud io
S ION
Ġf ederal
} "
Ġter rit
ig ration
Ġtra ined
) ).
Ġh idden
t wo
Ġch art
Ġdetail ed
ĠNor thern
ĠIn st
ne ctions
Ġcommun ities
u er
Ġl i
aut o
li e
ĠB ob
b old
Ġbound s
st ore
bo olean
Ġr iver
T ab
ĠI rish
Ġstreng th
Ġj son
Wh ile
| _{
ĠL ee
ĠI S
Ġex change
pl ugins
) },
ke ys
Ġseem s
Ġse ctions
Ġconver gence
Ġold er
sc ription
ĠC H
Ch annel
C areer
Ġmeet ing
TE ST
Ġhe l
Ġsum mer
' (
Ġstat istics
Ġk ing
Ġun signed
ĠEmp ire
Ġsc ene
Dec l
st able
Ġc elebr
Ġn am
ow ers
a us
ĠS pr
ig in
Test s
lic t
atri ate
h bar
ĠH aw
Ġcom ing
V ar
Ġang ular
ĠT our
i ant
Ġp ure
Ġw ays
Ġpo et
Ġ( '
Ġon to
b ot
h ing
O M
Pol icy
Ġc ensus
Ġin line
ploy ment
S ym
Ġass igned
Ġident ify
ist ent
Ġis land
: #
ĠL ove
Ġdo ing
ĠE vent
ad y
Ġmechan ism
Ġnew sp
Ġrec all
Ġsit es
R oot
D elete
medi ate
ĠCh ief
clud ed
m aterial
ent er
ab il
Ġstrong ly
spec ial
ĠHistor ic
Dis play
TE D
Ġf oot
for ward
ud es
ĠR h
reg ion
Ġrail way
ĠE rror
app ed
Ø §
ma ster
ĠDirect or
ad min
Ġparent s
ĠF I
ĠW ood
Ġorder ed
at ible
Ġnumer ous
ĠS ir
ĠĠĠĠĠĠĠĠĠĠĠĠĠĠĠĠ ĠĠĠĠĠĠĠĠĠ
ry st
n ames
$ ~
Ġ ut
sec ut
By te
rap per
ĠN av
ĠSp ain
att ribute
Ġpre m
Ġindic ate
Ġprov iding
ĠĠĠĠĠĠĠĠĠĠĠĠĠĠĠĠ ĠĠĠĠĠĠĠĠ
iss ions
Ġch ief
- $
Ġgalax y
ĠW al
f ony
Ġc ert
Ġhyp ot
c ient
ple ments
Ġtyp ical
Ġcall s
ĠIsra el
Ġown ed
ĠF ri
com ing
Ġvis ible
Ġth ick
Ġth reshold
Ġcomm ission
} }$,
Ġh ydro
Ġp hen
Ġg ain
tern et
ĠI O
ĠC ross
B efore
Ġb attle
ĠG reek
EN D
In v
ĠM ount
ens ed
ar ia
EC K
i ate
ĠE r
ĠW hat
Ġm apping
SS ERT
us band
FA ULT
Ġmatch ing
Ġoffic er
ĠIn itial
con g
Ġserv e
ĠC am
w riter
A ME
Ġch ampionship
Ġk ernel
Ġdiffer ences
Ġo scill
Ġachi ev
Ġask ed
il ing
Ġdel ay
D oc
block List
Ġrepresent ing
Ġ' /
A F
cl aim
reg ister
A ccording
ĠHT ML
Bo olean
, $
rom ise
="../../ ../
\\\\ \\\\
m ass
ĠOff ice
Ġpr iv
Fil ms
Ġmagn itude
ĉĉĉ Ċ
Ġse ek
ograph ic
) {\
CT ION
sy ch
sup er
ens es
Ġgo es
c uss
ĠJ ournal
Ġfail ure
ang es
ĠL ibrary
P RE
In itial
ott ed
k g
co in
d y
ĠM P
as y
Ġg iving
ĠPenn sylvania
m argin
ĠH ot
Ġde ad
v s
Ġcrit er
ĠI ran
Ġset up
ĠJ im
D ialog
Ġg ap
Ġs qu
} }$.
ĠB attle
AG E
ĠTe am
p an
aw a
Ġcom pl
On ly
C re
Ġb in
Ġdifferent ial
ann er
ĠJ ud
amp ion
i ated
Back ground
and ard
g ers
N etwork
ĠEar th
Ġaltern ative
Ġl ived
Ġ< =
") ]
Ġsatisf y
ĠF red
Ġdist ingu
Ġweek s
Ġwant ed
AC E
Ġown er
' ))
Ġnot ation
Ġgen us
Ob j
ĠP ak
ĠL i
Ġra ised
U sing
Ġcompos ed
Ġlay ers
inst all
G S
n i
id get
ĠHamilton ian
} )$,
Ġ eth
ilib rium
Ġgu arant
Ġbecom ing
Ġfor ced
m es
w er
is c
ed ge
let on
Ġl ies
f amily
on ym
ĠH and
ĠB oth
Ġf air
ĠP eople
Ġcover ed
Ġent ries
ĠI d
it ation
Ġm sg
ĠC a
Ġbehav i
Ġbe am
ĠU se
196 3
C ustom
ribut ed
Ġh undred
import ant
A pi
ect ive
ost on
Ġw ood
air man
Ġex port
Ġachi eve
Ġmag azine
Ġcount y
Ġm ask
Ġatt ributes
Ġredu ction
) +\
m ock
D C
Ġe lem
ĠV alue
Ġp an
Ġsy nt
Ġl if
ar se
Ġl ives
S ch
196 2
igh ter
Pack age
cc cc
[ (
d em
ĠC ivil
m ond
er ry
Ġann ual
m ma
) -\
D S
Desc riptor
Ġ$ |\
Ġp y
p ower
c ref
ick s
le ep
Ġsur vey
call ed
ĠVal ley
Ġex c
h ar
R R
P ublic
}{ (
Ġsen ior
ĠH on
Ġrelig ious
dom ain
Ġobserv ation
stit ut
con nection
b en
Ġoptim ization
in line
em ail
Ġst orage
Ġin come
V ol
ele gate
Ġp refer
Ġm ock
ĠR am
Ġra pid
Ġent ity
Ġmin imal
ex ists
ap ed
g ian
IT Y
Ġ" /
ĠThe ir
por ation
ad or
Ġp ull
s uch
ro ph
Ġdefe ated
ĠB i
Ġto ol
co ordinate
ĠGo ogle
olog ies
Ġjav ax
gy pt
cm d
Ġpro port
Å ¡
ĠCon n
are t
Ġcre ation
u on
G r
Ġdep artment
D P
ĠK ey
ĠBrit ain
lo op
Ġs ave
HT ML
Ġgrad ient
Ġs pl
Ġ ^
item s
ent h
Ġ( *
S ymbol
ĠO p
at ers
Ġarm y
Ġshow ing
Ġqu arter
u ous
st one
Ġdes pite
l as
Ġs ociety
ĠL ord
Pro p
B i
Trans action
196 1
Ġsing les
op es
}( {\
Sh ow
p ay
ĠU ser
d ict
Ġp i
r ated
ĠMed ia
St orage
n one
Ġall oc
f ix
Ġcle arly
it o
Ġro ut
194 4
s ch
Id ent
J ob
proto buf
) ),
drop down
ĠF inally
Ġch annels
j pg
un ior
R ule
st op
Ġclaim ed
}$ )
ip age
Ġd rop
Ġrepl ace
ay lor
Ġturn ed
Ġadopt ed
//////////////// ////////////////
W S
display style
Ġdr ug
ĠU s
Ġvers ions
T ra
ĠS outhern
Ġse a
Ġhistor ical
Ġcit iz
Ġs ector
An y
Ġhe art
stit ution
Ġlet ter
Ġp ool
Ġl um
tain ment
Ġap i
& #
ĠT ele
R ad
Ġp p
el a
b ec
R et
C lick
Ġdimens ions
Ġcon clude
Ġfore st
Ġrot ation
Ġquick ly
D R
Ġgraph s
Ġwork ers
Ġatt ract
Ġext rem
er g
Ġcre ating
D em
Ġsu c
ult y
Ġide al
Field s
Ġdem and
Ch anged
od ec
EX T
Ġres on
Ġf arm
en ant
c ript
stand ing
Ġsc hedul
ĠB ul
Ġge ometry
) "
Ġv ote
ĠM ajor
ogene ous
ell er
P ool
inal s
ent y
ĠEx t
ac le
}{ |
Ġar rest
ĠC amb
min ipage
Que ue
im pl
Ġd raft
sp ring
ition ally
Ġke ys
Ġpred iction
M R
sh all
ch annel
ro om
Ġlabel s
il a
Ġh usband
ĠU RL
yn tax
Ġpro min
Ġmass es
not ation
Ġw allet
Ġdeg rees
Ã £
ĠG i
ĠU k
Ġdep ict
ĠIs lam
J ECT
pr imary
Ġinstit ut
ak a
P attern
P lay
Ġsuc ceed
Ġprocess ing
ĠS ong
Ġnuc lear
b ury
d iff
g ment
Ġ ice
par a
ĠP ubl
: =
pass word
Ġfav or
tikz picture
er c
ĠU sing
ev ents
wit ter
Ġmur der
y er
Ġcommun ication
Ġpart ies
In it
$ ),
param eters
z h
Ġt ransp
Str uct
ĠB re
Ġo dd
ĠJew ish
ra wn
ir ls
ĠV is
| }
ino is
ĠRad io
Ġtrack s
Ġel im
Ġneighbor hood
t w
Ġcl usters
e ach
ĠAs ia
J SON
Con s
ĠDemocr atic
ay a
Int roduction
Ġle aving
ado op
) }_{
ly ph
Ġdepend ing
ĠO x
Ġnot hing
) )$
anc ing
ac c
ject ed
et ts
Ġscatter ing
ĠA L
) ">
ol ver
F R
he ll
Ġdr um
Ġindu ced
Ġe q
Ġn ine
Ġm ill
ach us
Ġinstance of
Ġstr ateg
Ġbeli eve
Ġmark ed
Ġdram a
Ġs n
Ġhigh light
Ġtheore tical
circ le
du ction
ĠP oint
Ġcomput ation
ĠĠĠĠĠĠĠĠĠĠĠĠĠĠĠĠ ĠĠĠĠĠĠ
b ad
ĠC ro
enn is
Ġun iversity
Ġ[ \
ĠCh ild
l imit
ce an
cre t
Ġ icon
KE Y
L ock
Ġlim its
Ġfund amental
not es
Ġquest ions
Time out
ĠS pe
! [
Ġp seud
Ġin tr
Ġexpl ain
=" @
ĠCon ference
l ad
Ġm ind
big l
Ġp ain
Ġelection s
Com par
M T
Ġst ories
ap es
fr ont
Acc ount
t otal
F loat
v est
ymmet ric
c b
Ġfunction al
_ ,
W orld
S w
FF FF
f ly
Ġcalcul ate
al id
pro file
ĠJ ones
Ġt ouch
ĠDef ault
i y
Ġfri ends
Ġhelp ed
ĠE lect
epend ence
ĠRep resent
D et
ĠB ern
Ġpl ans
ĠJohn son
Ġcol on
Ġorgan izations
Ġr ise
sc reen
)) )
Ġnot ice
s ince
t iny
f ri
ĠDev elopment
ĠMich igan
=" ">
Act ive
ĠM ov
n etwork
Ġsay ing
l aw
Ġindu st
pos s
Ġcolumn s
Ġunderstand ing
urren cy
ĠU N
ĠV AL
Ġoper ated
Ġscen ario
195 8
Ġh ar
ĠSec retary
ĠCent re
Ġoffic ers
. *
an ta
Act ivity
t or
B P
u v
X T
Ġro ugh
hent ication
M I
194 2
Ġmaterial s
c ular
FI LE
Ġass ess
ĠFurther more
Ġupd ated
ar ation
ĠS ta
195 6
Ġcoordin ate
ud get
Ġf reedom
ĠS ar
big r
em porary
pro perties
rec ord
ĠJer sey
d ependent
w hen
Ġenc oding
ĠPac ific
Ġimplement ed
ph one
Ġ ..
195 9
Ġphys ics
Ġtherm al
ĠOh io
_ -
> \
A uth
M sg
press ed
Ġdiscover ed
Ġdiv ided
S cope
Ġget s
Ġc ov
un signed
ĠC ode
ic ip
M ember
th read
Ġunder lying
Ġadd ing
Ġphen omen
Ġserv ing
Ġdesc ent
Ġsum mary
Ġamplit ude
r ine
A v
l g
Ġac com
H igh
S end
ĠF C
ts d
burg h
ard en
Th erefore
Ġeff orts
ĠS O
ĠL y
urb an
lection s
Ġext end
Ġper fect
1 10
Ġconv ex
ĠG ame
b ro
it ivity
Ġcalcul ations
W A
Ġsecond ary
Ġso ft
ĠM ah
Ġtra ject
sum e
Ã ±
he tic
Ġinfin ite
194 8
Ġqu adr
Ġf ine
b rowser
Ġcon sole
Ġp il
go ing
Ġdid n
Ext ension
Ġconduct ed
Ġh ole
IN FO
Ġb ass
Ġmass ive
Ġcy cl
di ag
W ill
h y
Ġin form
Ġb att
( !
ĠM any
ĠAs ian
m ove
ĠP op
achus etts
Ġb rand
T ABLE
G eneral
ph as
Ġnuc le
D el
ang o
Ġmain tain
ĠF unction
est s
f i
g reen
sc roll
Ġag reed
Ġfam ous
F inally
Ġc ref
Ġ ion
) }}
$ _{
ĠG ood
b ell
con v
ĠD utch
Ġeff iciency
Ġcalc ulation
ĠSt at
Ġn g
Ġb us
Ġrecord ing
Ġcomplex ity
Ġact ors
ass ets
ub y
: }
195 7
Ġinter section
ĠW ay
ic ine
p res
ĠT ask
Ġsuggest ed
Ġbeli eved
Ġun less
] }
Ġd b
Ġvict ory
ad el
Ġis ol
Ġc ities
Ġpr ice
h av
ĠCar l
Log ger
Ġm essages
ĠT ext
st ats
Ġsh oot
ĠK ent
Ġdes ired
19 39
in ity
==== ==
ĠBl ue
en ess
ge x
X ML
ĠM ain
Ġman aged
. __
Ġap plic
" `
Ġsubsequ ently
W idget
ion e
ĠSpec ial
P U
C F
Ġex ponential
ç ļ
ĠC opy
25 0
n n
agn etic
arri er
St ep
tx t
Ġh tml
gr ade
Not Null
Ġlang uages
Ġdel iver
Ġdr iver
M ENT
ĠS ol
Ġtechn ique
Ġtr igger
C I
o ir
anc el
ĠComm and
Ġth ing
Con f
By Id
Ñ ı
Ġact s
ĠEn ter
am m
d frac
sche ma
g it
Ġwid ely
ĠEd ward
ran ce
Ġmed ian
er ial
Ġoffer ed
Ġs al
ĠA cc
ĠL ag
B rit
h ard
Ġpath s
@ "
Ġmet al
C ast
Ġsh ips
a ug
on to
Ġ ener
Ġs s
Ġsus p
ac ro
194 1
j ar
Ġden oted
ĠWilliam s
P erm
z z
N ational
j oint
op ic
194 3
pl ot
Ġret ri
M at
al so
ook ie
ĠA R
ĠGeorg ia
Ġpro test
N G
Ġd ir
Ġle mma
nap shot
Ġw all
R est
Ġcapt ure
Ġaff ect
are n
pect ive
at io
Ġdet ect
ĠScot land
ĠPl an
ĠQue en
ĠIll inois
Med ia
B B
çļ Ħ
Ġdet ected
[ $
Ġallow ing
Ġcoeff icient
ĠB oston
ĠB ow
ĠT re
Ġdi am
semb le
Ġdecom position
iz able
Ġwe ights
v in
ĠN OT
ĠM iddle
Ġwest ern
c hen
ĠE gypt
-> _
Ev ents
Ġscal es
ĠR o
assert Equals
ra ined
Ġeval uation
Ġsett lement
Ġst ress
j ust
el d
ĠPhil ipp
[ :
ĠP rem
MA X
Ġscal ing
it age
ĠV an
Ġb ridge
Ġsum mar
se lected
Ed itor
Ġcompos ition
arg ument
Ġconf irmed
Ġ\ (\
Ġconsider ing
Ġn ation
Ġsign ature
Ġloc ations
form ance
ĠFrancis co
oth ing
Ġpr ime
lo ok
18 0
Ġver ify
Ġdis crete
t an
Ġsuccessful ly
Dat abase
ĠGovern or
Ġse at
Ġoccur red
L java
_ ->
ch er
ĠV ersion
Ġth r
D T
Ġpro jection
h adoop
ys ical
add r
Ġnear by
Ġphil osoph
ĠV iew
Ġwhere as
Ġfl uct
Ġv on
M OD
Ġ ens
Ġdynam ic
Ġp urs
Ġdev ices
Ġcomput ational
In ternal
Ġb tn
Ã£ o
od ay
Ġre ader
por al
N ULL
Ġf irm
Ġacc eler
j query
ver b
Ġrob ust
Ġre asons
M atrix
Ä ±
Ġ{ $
Ġint ended
ĠPort ug
Ġcon j
ce ived
Fil es
s ite
Ġlook ing
h ol
ble m
r ase
rand om
AR Y
O pt
ĠI P
Sec ond
Ġshe ll
194 6
Ġex cit
Ġp ages
Ġcandid ates
Ġuncertaint y
ty ped
195 5
VER SION
ĠS u
ĠComm on
\ )
Ġcou ple
Ġdescrib es
I MP
ell o
s ave
y o
Ġat tr
ik i
=" "
\ }$.
Ġdatas ets
[ -
Ġinstr ument
Ġfootball er
Ġoper ating
Ġprim arily
ĠE nt
Ġprinc ipal
Ġpart ners
ĠJ es
ĠN O
per iment
im s
ock er
Ġhand ler
web pack
Ġact ing
ic ies
ĠF alse
ist ance
Ġs quad
Ġacqu ired
al gorithm
ĠS U
cont roller
G raph
Ġtr ace
on om
Ġiss ued
man ager
f ail
Ġc ouncil
Ġloc ally
Ġinstall ed
ĠC y
ĠA N
com ponents
in her
S eg
ed it
; /
195 2
() ));
ĠMass achusetts
par agraph
Ġm useum
Ġab stract
Fl ags
th rows
ĠOn ly
6 00
Ġneut r
Ġreg ional
Ġsecond s
ic ed
Ġchem ical
ST ATE
En um
clus ions
ĠSen ate
S ome
ĠPol and
Ġw atch
ĠSt e
ĠL o
}) }
ĠEast ern
Ġra re
or ough
Ġle aves
LO G
empty set
Lo ader
Ġdig ital
ĠColumb ia
x s
Ġexpand ed
ĠH uman
ĠK ong
194 7
Direct ory
Ġprinc iple
p ir
Ġf le
less sim
ĠL ab
Ġattack s
ĠI R
sec urity
Ġimport ance
H S
Ġaccept ed
ĠI l
Ġret ired
Ġhe at
ĠM en
Ġenc ou
Iter ator
I A
Ġbut ton
Ġp iece
assert Equal
eng er
nt ario
Ġh ospital
Cl uster
Ġre ports
SI ZE
ult s
Ġpolitic ians
art ers
ad ing
Ġcommon ly
Ġdise ase
tt y
Ġc at
Ġtrans lation
ĠN ode
Ġexplicit ly
ab eth
Ġoption al
Ġinteg ration
Ġs ister
Item s
ob s
Ġor bit
h ome
Ġo il
ĠG re
Ġsol ve
clus ive
Ġent ropy
Ġcharacter istic
ĠT ri
Un ited
Ġband s
em s
$ :
ur ations
ĠR ay
}} )
Ġord ers
u ing
ĠC ard
h box
F ix
ta il
p red
w ords
ra ge
Ġtri al
&= &
os a
Ġc ultural
ĠLat in
$ };
Ġbuild er
ĠH ome
Ġinterest ed
P AR
F ound
Ġprofess or
Ġtry ing
Ġpro pos
S pace
] :
Sup port
Ġv oice
Ġw orth
ific ate
] $.
Ġag greg
ĠP ass
Ġorgan ized
istr ation
S ports
G en
Ġplan et
B E
Ġown ers
B as
Ġfind ing
que ue
ĠRail way
Se lected
Pr int
,\ \
Ġout er
Ġtr ust
)) );
Ġor th
im b
Ġreve aled
Ġrefer ences
Ġim ag
if iers
Ġn arrow
Ġtra ffic
Ġdep art
F S
Ġ[ ];
$ /
Ġconst ants
h u
Ġget ting
sc ape
ĠSt an
Ġsatisf ying
ĠM ult
ĠA ff
Ġc ool
ĠM u
ĠOx ford
on ia
ĠCo ast
Ġimprov ed
g ies
ĠM A
U ID
ĠE con
W hat
Ġstart s
195 3
Ġeval uate
math op
Ġl ic
Ġsubsequ ent
Ġvari ation
ĠSe a
a is
j oy
n ic
Ġf unc
orn ing
h orizontal
Ġmed ium
ur ies
Ġen abled
Å Ĥ
ĠT HE
s ymbol
am ber
ig gs
O wn
Ġ\ !
() {
ĠW indow
Ġfe at
Ġb right
Ġal one
pl an
ĠPr ince
ĠTechn ology
Ġexecut ion
ĠJ r
ant om
h l
ĠB ecause
i em
T wo
ant ry
I ST
}\ ,\
te en
Ġcom edy
195 4
ĉĉĉĉ ĉĉĉĉĉ
B it
Ġ\ ]
U LE
Ġz one
++ ;
ex ternal
print f
Ġsec ret
Ġsub group
^* $
ĠThe atre
Ġob vious
Ġpro f
Ġt ail
uz z
Ġadvan tage
%% %%
ĠR et
b p
Ġprogram ming
Sec urity
z one
pos itory
f old
F ull
ult ane
10 1
ac ent
od d
M ay
}} _{\
Ġnam ely
Ġle tt
ist ed
Ġla unch
Ġestim ation
ĠM id
######## ########
ap pe
ird s
Ġcan cell
oper ation
I E
Ġthe me
Ġto ols
ĠS und
config uration
il bert
Pro xy
Ġsh ock
iter ator
Ġen able
Ġs ides
Ġperson nel
Ġrepresent ations
() ).
ĠE st
g eneral
ĠH ung
Ġspe ak
fl ags
od ies
Cl ose
i Äĩ
ĠB ang
Ġapp arent
Ġrem ark
Brit ish
ĠB ack
Ġexpl ained
ĠH a
log ger
P ATH
_ (
Ġlaw s
Ġearn ed
ele ase
ĠL uc
out heast
Ġoff ers
low er
Ġassoci ation
ellig ence
ĠBro ad
V ideo
Ġr ac
Ġlist ing
ĠUS A
ec es
s en
T A
r as
ĠPol ice
194 9
ner gy
ĠHe ad
Ġsub t
ĠW all
Ġ io
Ġser ious
h aps
lap se
I B
Ġd ust
Pro file
Ġrequire ments
Ġfact ory
ac count
h olds
ke ep
Ġclub s
Ġt ab
ĠĠĠĠĠĠĠĠĠĠĠĠĠĠĠĠ ĠĠĠĠĠĠĠĠĠĠ
e z
to ol
un a
Ġeff ort
Ġsuggest s
Ġpredict ed
Reg ister
) --
Ġansw er
type of
Ġcapt ured
Ġinv alid
Ġadministr ation
Ġl ie
Ġsub stant
it ational
Ġir re
Ġexecut ive
Ġro ll
ï ¼
] $,
ul pt
i able
Ġart icles
NavBar Cell
imit ive
Ġp ush
Ġded icated
ash ion
S QL
Ġst ability
ĠD ir
Ġl abor
T erm
12 5
app ly
Ġview s
Ġ% }
Ġin verse
am i
ĠJack son
rit ical
z en
ot on
I X
S Y
Ġtre es
Ġc ategories
ov ed
il ly
Ġim plements
rop ol
iv ation
int eg
Ġus ual
os itory
sim ple
br ace
ran e
Ġconsequ ence
al gebra
Ġcur v
Ġde b
Ġad m
Ġcon ven
ĠMus lim
eng ine
ĠRev iew
Ġgrow ing
Ġa wait
19 18
ill ing
Ġ" "
Ġperform ing
if ts
ĠF ederal
all oc
Ġco inc
em y
Ex pr
Ġinst ances
To String
Ġtechn ical
Ġconc ert
ĠN umber
Ä į
al ing
Const raint
Ġgener ic
on ed
Ġm arriage
Ġapp lying
P anel
G N
ig a
s at
es ian
Ġsu itable
Ġt end
Ġth ous
ro vers
Ġb undle
ĠKore a
ĠF ar
plic ity
ank s
, {\
B ook
Ġtransfer red
ĠAlex ander
Ġem phas
Ġregard ing
Ġmunic ipality
J o
195 1
ĠÂ £
. '
Ġsufficient ly
Ġl ab
;\ ;\
ut f
Pl ugin
l f
RO M
t frac
Ġres idents
\ ;
}_{ -
ĠScott ish
BU G
C M
Ġstat istical
s el
Ġclaim s
) )\
ist ence
Window s
s ample
Ġsp ac
Ġf re
Select or
con tains
ĠSec urity
Ġh ockey
D ouble
oc cer
ĠIm age
m n
Ad apter
pr ise
ag ers
ĠPol ish
by tes
Ġp icture
Ġwe ap
rel ations
Ġrad iation
Comm on
Ġfor t
B rowser
ys ics
Ed it
Ġsol ar
Ġ Å
ĠL ater
Ġresp ond
ĠJust ice
Ġne ural
uck y
Ġobject ive
}} .
Ġf ellow
C G
ĠOb serv
ON E
Ġstr ings
d ash
ĠL ittle
Ġ ^{
Ġke pt
w all
'] )
ĠBer lin
el ength
Ġlum inos
Ġepis odes
Ġde leg
it ness
Ġaff ected
let s
che ster
ĠCor poration
i ota
Ġcol lected
Run time
L IC
w ater
8 00
v ari
ĠF ollowing
ĠO ntario
ur er
Ġtw ice
Ġadj ust
d p
Ġfocus ed
w orld
}[ \
id x
ĠWil son
ential s
Ġa wards
on omy
cl ip
ĠC reek
up s
H R
eder ation
G R
ĠRepublic an
u um
Su ccess
Î ¿
ĠH ong
Ġsampl ing
s witch
/ (
e cho
Ġemploy ed
Pro of
ĠW is
cuss ion
ĠB usiness
ĠTr ump
Ġro les
k w
ĠU r
ĠReg ion
F ail
th ur
Ġsaf ety
ch mark
Gener ic
ĠL ocal
Ġag o
Ġ( _
ĠBro ok
ĠP ower
Ġyou th
cl ine
ĠO ption
ul y
Ġlarg ely
Ġind eed
Ġcon nections
ĠAn other
Ġsequ ences
ĠOffic ial
ul i
art he
Ġinv olving
pl us
| }{
Ã¡ n
ĠSt ation
equ ence
* )
Ġ raw
Ġacadem ic
Ġs izes
Ġpur poses
Ġtro ops
Ġpattern s
h idden
V M
Ġfif th
ĠN ight
UT F
ĠCon fig
ĠB ir
ic ial
Ġembedd ing
Ġdiag onal
hen s
19 36
ĠJ ava
Ñ Į
it ical
og ram
ĠSup reme
Ġbi as
cl uster
stru ctions
ĠF our
}) =
R oute
comple te
g ather
sum er
Ġsup ply
Att ributes
ĠW ater
ĠB a
ĠD ar
ĠPl aces
ĠAnd rew
Ġfig ures
Ġdis p
res et
ouri er
P y
S ER
12 3
Ġdimens ional
ĠApp endix
D etails
ĠS uch
as et
Ġc amera
N T
au x
ra q
oun tains
} </
ĠS and
Î ±
Ġhous es
Ġequ ilibrium
ĠJ ean
ĠT w
Ar ch
Ġe mail
Ġmanif old
}) ^
Ġprot ect
ro ut
Ġs pher
ĠM ot
Ġcop ies
k h
ĠC apt
ĠT aylor
dec l
Ġp refix
Ðµ Ð
Ġeast ern
leg al
olog ist
id el
d ated
to ols
ĠCon f
ast e
ĠL ight
e lect
ĠEx ecut
F unc
Ġc am
child ren
ap l
os es
Ġend s
Ġar c
pro b
ign ment
II I
pl ane
ĠA ction
Ġdecl ared
ĠB u
se x
', '
Ġnav igation
i ative
Ġcall ing
Ġarr ived
ĠK en
ĠĠĠĠĠĠĠĠĠĠĠĠĠĠĠĠ ĠĠĠĠĠĠĠĠĠĠĠĠĠ
RE AD
ĠP en
}} ^{\
ĠOr gan
ĠPr ime
or i
Ġd oub
Ġcont roller
Ġd uration
em on
ors hip
we et
form er
in ator
Ġany thing
ĠĠĠĠĠĠĠĠĠĠĠĠĠĠĠĠ ĠĠĠĠĠĠĠĠĠĠĠĠ
ĠCor ps
Ġ rows
s ym
Ġautom atically
bm atrix
ĠTO DO
Ġp aram
og en
a ught
Ġlearn ed
tab s
Ġcomm it
sh adow
c ert
let ed
Ġop posite
Ġrequest s
h ere
ch a
Pro duct
tr igger
i Ã³n
Ġconvert ed
ins on
F IG
re lation
Ġw ild
N OT
J ava
li k
Ġinc ident
Ġc m
ĠCO VID
S ervices
Ġaccur ate
Ġin fra
Ġf n
Ġab und
Ġrad ial
Ġb illion
Ġin struction
Ġnew ly
Ġ[ [
typed ef
Ġ era
ĠW ild
ou red
Ġtrans mission
Ġcontr ad
19 38
Ġpromin ent
ĠUp date
Ġassum ptions
IP T
column width
M usic
get Element
pre c
hand ler
Ġrepe ated
um es
Ġcitiz ens
Sym fony
Par se
ed itor
ab y
ĠJ oe
math it
ĠG ra
Ġpat ients
ĠL android
Mem ory
Ġsp an
Ġcharg ed
V D
erv ative
ĠInd eed
Ġprov ince
yd ney
M ut
Ġst ock
G rid
p et
ĠG ets
ph ia
W est
W R
key word
ps on
ĠH ospital
33 33
P ay
sing le
act ic
Ġde bug
Aut o
Prot ocol
ze ch
Ġderiv ative
ĠProfess or
Ġfin ish
Ġ ×
ful ly
Ġf lex
C ap
Ñ ĭ
Ġman ner
Ġj Query
ĠS om
Ġmin ister
Ġbase ball
- (
Ġpo inter
Ġcon vent
Ġbul k
Ġac comp
maz on
av or
ĠB and
enn es
ix els
Ġposs ibly
Stat ement
' m
ĠSc iences
get Name
Ġappear ances
p refix
rop ic
at on
Ġcl imate
Ġrepresent ative
ĠR oute
gener ated
Ġl icense
D M
In s
Ġexpl an
Ġas ync
ĠM ember
Al though
Ġs ym
][ ]{
Ġcan onical
Ġ{ {
Ġpart ner
S F
ack et
Ġmax imal
Ġsold iers
Ġconsist ing
Ġw rong
Ġp ars
ĠDan iel
Ġspe ech
iz abeth
Ġsp irit
ĠArg ent
ĠJ eff
& $
Ġturn s
ord ers
us al
ĠV iet
os is
ond er
ro le
Ġ= ========
Ġxml ns
Ġcon ference
P e
s ys
Ġide as
Ġveh icle
are st
Ġpass ing
Ġr g
Ġdr ive
s quare
Sc roll
s id
G iven
Ġ ).
w t
Ġr ational
eli hood
est ion
Ġserv es
% )
Ġtre nd
Un iversity
ĠMin istry
19 37
Ġfac ilities
Ġj et
Ġf loor
n il
Ag ent
Ġnewsp aper
Fe ature
Ġhon or
adel phia
", "
ch ain
art icle
Ġan cient
ĠS I
long rightarrow
19 35
Ġcontin ues
ex ecute
Ġg ra
Ġrec ip
Ġinstitut ions
Ġto ward
At tr
Ġl ib
ĠComm unity
ug g
ĠT R
D est
Con dition
Ġpower ful
pl atform
cre en
att ributes
ens ities
ether lands
br as
ĠF ree
Ġsupport s
och astic
Ġf lo
ĠB ell
ĠL im
ul ator
p erson
O F
F ailed
ĠTh ree
@ {
D uration
Ġprom oted
Ġsign als
ĠIs lands
Ġrecogn ition
Ke ys
multi row
Ġa udio
ĠIn formation
est ic
Ġconstit u
ibr ation
ĠC at
} |\
Ġb re
Ġmat hemat
Ġb ill
ĠE p
ĠVictor ia
\ }$,
bas ic
Ġpre v
pp ing
Ġf elt
ol es
function s
Ġtype of
LE CT
ex pr
t ed
Ġspec ifically
Ġcomput ing
ind u
ĠY our
Ġst ored
Ġv en
script style
Ġofficial s
å ı
uck et
iffer ent
ĠE lement
ve e
Ġlay out
on n
Ġcan cer
Ġleaders hip
p arser
ĠĠĠĠĠĠĠĠĠĠĠĠĠĠĠĠĠĠĠĠĠĠĠĠĠĠĠĠĠĠĠĠ ĠĠĠĠĠĠĠĠĠĠĠ
t mp
O O
ĠD at
Sum mary
Ġcompet ed
ire ctions
Ġalong side
im ately
Ġwin ner
Ġd ie
Ġag ents
y g
Rem ove
Ġinvestig ate
F in
w ild
et o
B ound
ĠG lobal
Ġreview s
Ġsurround ing
Ġre q
Ġteach er
Ġin fer
pro ps
Ġint ensity
Ass ociation
ĠS M
it ative
Ġsatisf ied
met adata
Ġco al
str iction
ĠO s
G lobal
Ġd iver
Ġequ ality
ĠM aster
L emma
Ġmax im
Ġl iber
i pe
T ransport
Ġsim ultane
Ġder ive
Ġcost s
ub ble
Ġinvest igation
ou ter
L eg
Ġf ish
ĠAn y
up lic
b g
ĠS ym
Ã ¸
Ġtr uth
Ġatt end
Ġ ],
Ġassist ant
à ¸
ĠB al
d etail
Ġcomm ut
prov ider
ari os
Ġp et
Person al
] {\
ĠB BC
v o
S ocket
p icker
Ġtyp ename
Lay er
tr ivial
ĠE ven
ĠPak istan
ri ptions
}} }\
H ence
in er
ut enant
ul se
pre v
Ġst reet
Ġdestroy ed
ĠOlymp ic
Ġconstruct or
Ġsup erv
ĠS i
Pro ps
ĠIO Exception
ĠV ill
Ġconf lict
Ġbal ance
ĠJ on
P ORT
Ġsepar ated
Ġis omorphism
ĠR og
ĠMan agement
ĠN on
Ġsome one
ron ic
O UT
Ġnot es
Ġsc hem
Ġh ope
Ġcover age
Ġen joy
anc er
sl ash
Ġequip ment
Ġident ical
ĠG iven
sl ant
Ġred shift
Ġque ue
prot ected
Ġbehavi our
Ġp aid
ĠD own
ĠB ad
M apping
Ġs ales
Ġthe ories
Ġs port
Ġpredict ions
ĠP ath
f ixed
ser ial
ĠS em
Ġdisc rim
Ġc e
T otal
Ġfl ight
N odes
d ialog
col lapse
Ġport ion
Ġexpress ions
Ġf erm
ak i
Ġsom ew
U L
Ġpl anned
ĠUn ivers
sv g
ĠStud ies
ĠAir port
) [
Ġchang ing
A ustral
v c
v als
ĠA venue
er ior
} ~
Ġat mos
ĠGu ard
Ġcos m
Ġscient ific
Ġp ra
B r
S ync
ĠS pace
Ġtr ivial
Ġbeg ins
ĠKore an
h ide
IC E
it led
Ġd ense
est abl
ã Ģ
Ġw or
Ġposs ibility
ĠPri ze
b its
Ġchall enge
Eng ine
Ġregister ed
V ariable
ME TH
ĠB C
ĠTor onto
is er
rop ical
Ġind ices
ĠInd ex
Ġp sych
AL SE
h ire
Ġp od
( __
build er
ĠAd ministr
Ġfeat uring
un te
ĠS D
cis ely
IN D
Ġdoc uments
b c
Ġmot or
le an
ort heast
ĠA uthor
Ġvar iance
Ġmon itor
Ġgrav ity
Ġca uses
ĠK enn
Ġ ip
H L
19 19
Ġp owers
ul f
ra ine
S em
Ã º
ĠW alk
t i
iv ated
ath an
per or
19 17
Ġgrad uated
Ġengine ering
Ġb os
oriz on
In ternational
Ġmet rics
ob serv
ĠS ervices
Ġindic ated
ĠN ations
Po inter
C red
Ġhe av
col Last
reate st
form al
Ġex ceed
T x
Ġdam age
Ġp erman
p air
Ġal le
ĠI V
Ġb lood
B I
Ġcont rolled
Ġp al
Ġen h
19 14
ĠG ar
b rief
Ġ{ '
ĠC R
Ġ$ ,
ge bras
an th
ĠH ash
=" ${
) })
Ġs afe
Ġnon linear
ĠS ports
\ }\
neg ative
f ire
ĠT am
pro gress
: =\
}} =
Ã© e
Ġgeneral ized
ater n
Ġg rew
iv ery
L C
el ess
Ġrecogn ized
Ġasympt otic
he im
Ab stract
ĠMed ical
Sing le
Ġpl anning
ex ecut
C ategory
reg ular
N C
Collection s
fil ename
head ers
Ġener gies
& =\
ian g
f d
ST AT
CH ECK
METH OD
g al
qu ant
Ġbe aut
ĠA li
Ġre action
Ġref ers
Ġc orner
Ġtop ological
Ġa cknow
Ġevery thing
reg on
sequ ently
ach ment
ĠG ro
Ġgrant ed
ĠS ydney
script size
Ġmix ing
Ġtri ed
Ġesc ape
Ġus age
Ġhypot hesis
ĠR ome
ĠI raq
uc ial
ag ent
Ġt ell
Ġb rowser
Ġg irl
A uthor
Ġpro pose
Ġphot ograph
Const ants
Ġpl us
ĠR en
= >
p ur
ent ed
Ġapproxim ate
CO MP
,\ ,\
in ion
Ġopport unity
Ġelectron ic
col First
T T
. \\
nav List
dep th
e a
ĠF re
TE XT
Ġfl ags
ex pect
Ġex it
s afe
00 1
H is
k ens
Ġnot able
u ce
ro ke
s a
h ab
Ex ample
Ġp itch
S N
Ġintrodu ction
Ġse ed
U nder
ĠP age
h ref
g ame
Ġd x
Ġphot on
eg o
at iv
i ations
Ġcre w
Ġinter act
ĠC irc
ĠL ew
m ask
Ġinsp ired
serv ices
A ng
rib ed
Ġre named
ĠRev olution
Ġ" ,
Ġdepend ent
ĠR od
r g
Mult i
ĠM ic
Rep ository
Ġcurv ature
ĠSt art
Ġhous ing
ct ic
est er
Ġexpl o
> ::
qu arters
fig ures
che stra
ad ed
Ġa thlet
Ġd rawn
Cons ider
$ ^{
en ers
if er
ap se
__ __
ĠS ant
Ġpol icies
ĠIn f
Ġvalid ation
ĠRe act
Ġfind s
t ex
Ġb udget
anc ell
ĠD ist
Ġcom ments
Ġcr im
ĠDes pite
Ġclos ely
ĠN C
ed ia
t c
Ġ} {
Ġdef orm
Ġc ult
19 33
arthe ta
Ġpre par
o a
Ġpre cisely
Ġcr ime
Tr ace
Ġvis ited
ĠB oy
ĠCh annel
ĠReg iment
aw n
Ġauthor ity
ident ifier
ĠS a
ĠA z
v artheta
at ar
Ġquant ities
Ġexp atriate
s n
d one
err ors
P refix
m aven
j unit
H C
ĠF air
isl ative
Ġadministr ative
Ġas sembly
M er
S outh
Ġqu asi
Ġr ig
W rit
ibli ography
ack s
Ġprote ction
Ġadvan ced
ĠN etherlands
he t
Ġinput s
cont rib
os l
ĠD er
Ġr ural
Ġc art
Ġdown load
B L
ĠR aj
ĠDes ign
ers et
ord an
com b
Reg ion
ist ing
Ġpolit ics
ch anged
con sin
ĠRes ource
Ġpl ants
Ġquant ity
W N
Ġread only
Ġrel ax
Ġrece iving
Ġrem ote
">< !--
ser ies
ĠL em
Ġt x
) }_
d etails
TR UE
F E
Ġcont rovers
() </
Ġsex ual
! \
ĠCamb ridge
Com ment
se m
per ial
W rapper
B AR
Ġcirc um
.. .,
Head ers
13 0
Ġag ric
Ġadv ance
Ġfl uid
Ġe lev
Ġd ict
Ġsol o
ĠB lock
Ġecon omy
ĠRequ est
AD D
Ġlow est
p attern
Ġb omb
T ele
Ġc ars
ĠN AME
Ġdef ines
ĠCol lection
ĠA sh
l ife
ĠW he
Sim ple
Ġme ant
or ient
ĠQue ens
Ġt ells
yn chron
Ġp le
Ġsyn chron
Ġc ryst
Ġiter ation
b d
ĠS us
Ġreturn ing
ĠA rea
et al
Ġsize of
not ag
it ter
-------- ----
Ġsc ulpt
Ġdynam ical
em et
w eg
wrap per
oc aml
og onal
cl osed
" |
c oh
Ġveh icles
Ġcomm ittee
ap os
Ġinst ant
ĠM arg
ĠF ire
Char acter
w ing
Ġ\ &
B est
V ir
Ġprec ision
Ġbro ken
Ġsil ver
ict ures
ĠC ub
Ġresult ed
Ġ= ======
u ating
Ġnormal ized
Ġmod ules
ĠP ers
N ov
ch art
Gener ator
Ġd ashed
l an
am in
ow a
Ġindust rial
play er
map s
ev es
ct rine
ron ze
Ġtemper atures
ur st
m ad
ĠG er
19 28
Ġj ump
bour ne
Ġpro xy
G ame
ĠI E
Ġmusic ians
ta gs
Ġmunic ipal
om ents
19 29
ag a
ĠEl izabeth
Ġb atch
Ġattempt s
. ");
ĠT ok
Ġoffic ially
tem p
ĠInt eger
ĠWe ek
Ġdet ector
.... ....
P ER
{ %
ĠA ND
Ġbe at
}\ |
Ġluminos ity
F ollowing
Ġassum ing
Ġc atalog
% ,
Ġar range
ĠM essage
St op
ind s
ĠAnt on
med skip
O C
me an
19 00
rior ity
Ġinter ior
p u
Ġh ierarch
Ġr ich
VAL UE
ic ular
ĠB ridge
ĠRe al
om er
Ġinter mediate
19 34
equ ations
col lection
Ġl iqu
w orth
secut ive
ĠCopy right
Ġapplic able
ĠM ike
$ {\
all classes
) ->
Sup pose
' ve
ĠCount ry
Ġcol le
B M
Ġcl in
fe ature
ĠAmerican s
ĠC ase
Ġ( {\
ĠH ttp
em an
Ġread y
Ġtit les
aj ax
hed ral
Ġgrav itational
ĠPhil adelphia
Ġh orizontal
Ġear th
col l
sub sec
ur ches
Ġc overs
\ |\
Ġhouse holds
requ ired
ĠDu ke
ĠB rad
Ġperform ances
ĠV en
Ġmult ip
H ER
Ġbo ost
Sh ort
\% $
Ġl ift
ĉ čĊ
S cale
Ġpass word
trans ition
19 10
ĠSan ta
un ique
Ġintegr ated
ĠS che
Ġ( [
Ident ifier
poss ible
Ġen v
Ġadj acent
Ġ? >
ĠN a
Ġwin ners
Ġhost ed
Ġhistor ic
Ġu i
p at
ĠK ir
st orage
Ġrough ly
Ġr aces
Ġaspect s
G A
ĠC as
own er
TI ME
emet ery
Ġest ate
ret ch
}$ }
st ic
ir ror
k t
N amespace
ak h
C AL
R ole
man if
L in
ĠMin nes
is ot
ab out
ymmet ry
Ġ urban
ess ions
Ġenvironment al
h ave
Ġcharg es
text color
li br
+ (
t ensor
Ġgener ator
conn ected
R PC
ĠR om
and o
Ġext ensive
Ġmole cular
Ġtre ated
Ġeffect ively
se par
al ion
ask a
ĠCh ris
ĠE u
ho ok
r v
Ġc odes
ĉ ĠĠĠĠĠ
Ġres ident
j ob
amb ig
Ġparticip ated
comp iler
ĠMinnes ota
Ġmagn et
iven ess
in us
O B
ĠP ack
ĠL ev
M iss
erv es
Ġunivers al
in ction
Ġfac ility
Ġdevelop ing
bu ilt
Ġm arg
sh ared
MOD ULE
U SE
or ney
R AN
Ġ[ "
Ġextrem ely
Ġv otes
E V
H ow
ĠL ead
19 32
prot ocol
Ġw ing
More over
Ġun able
ĠSt adium
log in
Ġco her
Ġm iles
is or
Ġhand s
Ġbrief ly
Ġs ust
ig ital
ann a
Ġ" -
ap ore
S ources
eff ect
Ġfa ith
the less
! !
nd ef
Ġdr iving
Ġb ran
ĠT ai
bel ow
aa aa
UR I
includ ing
Ġg ather
Se lection
ĠB att
int on
D iv
ur able
Ġcomp atible
put er
Ġexecut ed
Ð ²
ort ed
Pass word
Ġd aily
Ï Ħ
Reg istry
ĠR a
tr ace
Ġt urb
y al
ĠC ur
J S
enn a
Ġentire ly
HT TP
ap h
Ġdef end
ri e
S m
ĠS C
Ġd ance
ĠK im
ĠSup port
tr im
Ġterrit ory
ĠH ard
Ġfrequ ently
Ġnecess arily
elli pt
ĠMed al
Ġinterpret ation
th row
Ġre form
Ġan imation
cor ollary
ĠCol l
Ðµ Ð½
iss on
Ġpublic ation
Ġop acity
P D
Ġcl ock
Ġgo ogle
M icrosoft
Ġis ot
Ġwav elength
ĠH o
Ġflow s
') );
ff ff
Ġre produ
19 24
ph ase
y y
t body
ĠS ign
am az
Ġ{ "
AR N
L i
Ġ$\ {\
Ġst ochastic
Ġd rag
th ick
Ġjud ge
Ġg ained
ire ment
alle st
M F
Ġeigen values
Ġtransl ate
D epend
^{ *
ress ed
Ġcon clusion
A CT
igh th
< !
ĠA thlet
Ġdec ades
Ġadv oc
pt o
ar ity
Ġl ists
ĠU I
Ġcomplet ion
ear ning
Ġm ountain
Ġfund ing
end or
U ri
fl at
ĠV i
19 22
ĠN az
Ġauthor ities
ĠB ol
en able
R T
n odes
IV E
Ġd ialog
st ates
ĠT y
the me
ĠWis consin
be an
mo z
Text ure
Ġecon om
( -\
Ġapp end
f lex
(' .
Ġcharacter istics
Ġfeed back
f ast
Ġch ampion
ĠL ast
Ġrg ba
Ġm obile
Ġat oms
r b
d c
plic ated
Ġa ware
p ubl
ĠR ights
ou pl
us ers
S ong
' _{
ing ly
ON G
IT E
Ġc tx
an ced
Ġtop ic
ĠBe ach
Ġgener ating
F inal
S equence
F rench
ipp ing
Ġm ount
Ġp arser
Ġte aching
G erman
Ġb oy
Ġp and
Ġsepar ation
ĠSwed ish
}{ *
ad i
Ġlett ers
Ġim ply
ĠPrem ier
19 31
Ġmet adata
Ġhapp en
M any
Ġfac ulty
Ġpar ish
Dom ain
Ġspec ify
y cle
ĠH un
19 27
! ]
el le
b ian
ii i
ĠF und
ĠSh ort
Ġcomp lement
ĠB an
Ġs an
ĠR os
ar ith
ost er
un ities
ol i
Ġcorre ction
ĠB udd
Ġsp ring
Ġf ans
Ġext ent
Ġsh ut
) ^\
ĠF inal
se ason
p ub
index Of
Ġcompos er
L INE
A E
Ġm eta
ĠA k
Ġeval uated
z o
er ence
Ġad vert
Ġthan k
Ġh y
Ġlate st
Ġsupport ing
Ġb its
Ġtri ple
ĠLO G
T ax
res ize
ap is
Ġg lob
Ġequival ence
ide os
ĠF amily
Ġabs ence
Ġfore ach
ĠF ace
U D
Ġdefe at
pl acement
qu ote
ĠJac ob
ĠH an
ject ive
Ġload ed
H P
ĠMc C
iter al
Ġrestrict ed
)-- (
Ġvers us
ig rants
pl ates
Ġconfig urations
ĠF ox
Ġdefinition s
Ġp iano
Ġessential ly
ĠO t
Ġh abit
ĠC orn
Ġf iction
ĠAn th
ĠS ab
on gest
ĠSpr ing
ĠM ill
Ġf ashion
ĠI mm
o or
Ġdemonstr ate
; }
Ġe le
res ources
ĠIndian a
j ango
ĠSt eve
S ur
Ġtest ed
| ^{
ig ade
Ġdecre ase
w ill
Ġph ases
Ġnot ion
ĠL abor
l at
f ol
el ly
ĠB ishop
ĠD oug
DE BUG
ĠPro cess
Ġp apers
us form
Ġprov ider
ĠTr ust
Ġ} }
numer usform
Ġrecomm end
Ġsk y
Â °
? >
ĠW in
Ġlog ger
ĠN ext
19 21
f x
qu es
riz ona
ĠSwed en
ang a
Frame work
con struct
N ormal
ist ant
ĠL ady
Ġg ate
Ġsymbol s
ĠConn ect
Ġ" <
im its
Ġpro files
Ġsat ell
ĠHT TP
k ish
Ġpurch ased
th ere
Ġp ixel
duc ible
' ll
Ġcon secutive
19 25
Ġcont emporary
ĠCont rol
ĠE ll
ĠG ree
Ġindic ating
Ġf ragment
ĠTown ship
S cal
ic ian
Re al
ĠR est
ul ating
se q
Ġdom inant
Ġcon d
LO CK
Sk ip
ĠL es
Ġhead ers
Ġcover ing
re port
Ġvari ations
ĠĠĠĠĠĠĠĠĠĠĠĠĠĠĠĠ Ċ
ef e
t ar
Ġf rag
ID TH
ĠH ay
ropol itan
Sh ape
L en
Ġconf irm
ĠDav is
A rea
E st
Ġd t
Ġh our
19 26
Ġpre ced
Ġanaly z
Ġc av
y ard
Ġre ality
ĠO regon
ĠD or
set up
Ġsh op
C RE
ĠColor ado
ĠWindow s
ĠJew s
ĠCom ple
D elegate
ĠD ocument
ĠE P
= [
Ġarm s
Trans form
Ġc row
Ġab and
Ġpe ace
Ġ' <
ĠD ue
ext ension
R S
7 00
ĠEngine ering
comple x
19 12
Pro gress
G a
lo pe
ĠPro perty
ĠB ru
ipl es
Ġpar liament
user name
ĠA SSERT
Ġc md
ĠĠ čĊ
ul us
fl ag
v ideo
m oment
Ġf aster
Ġdisplay ed
ph y
Ġd im
plement ation
Ġperturb ation
P layer
Ġag ree
ĠD am
M ath
, .
ĠK al
ph antom
ĠÐ ¿
G O
ĠL ive
Ã© s
en abled
sc opic
if def
Ġaud ience
Vis ible
12 7
v ard
d ark
Cl oud
Im port
ĠW ars
19 15
pl om
Return s
Ġcontrol s
^{ (\
IN S
om ot
at omic
j et
A nt
s ig
Ġdis abled
Ġd irections
F amily
EE EE
agnost ic
H ome
Bi ography
ast y
is a
Ġtarget s
Ġv ice
Ġco q
it ely
Ġpolar ization
Go ogle
inst ein
Inst all
Ġcont est
t ion
ĠW inter
a ired
ĠK ansas
Ġsp ot
Ġop posed
et ies
Ġfem ales
const ant
F LA
Ġv ess
Ġres olve
Ġnov els
Ġcriter ia
Ġm enu
Ġpi eces
Ġs urn
ĠGold en
ĠE nergy
ound ed
Ġtown s
ub b
Ġcons ult
Ġcon version
A x
ĠFore st
v t
Ġorient ation
Ġatt ached
Ġsuff ered
ĠSup pose
cle an
if ul
up load
Method s
Ð° Ð½
Not ification
Ġde ploy
weg ian
19 23
Ġge ometric
u j
Ġend ing
Ġfluct uations
Res ources
bin om
w p
cd n
Ġbenef it
ins ic
Ġfund s
C ho
~ (\
Ġr ugby
v ect
L at
G P
Ġdro pped
t ons
p ot
ĠSund ay
er os
Ã ¢
Ġsch olar
X i
ĠTur key
Ġtit led
Ġschedul ed
ĠRep ort
Ġperiod ic
Ġviol ence
Ġdom inated
Ġabsor ption
R elease
Ġdocument ary
par allel
\| _
Ġsp ons
ĠM un
OR TED
t ics
Ad min
ĠW el
Hel p
R C
Ġelect rons
Ġdef ense
(' #
Ġsw im
ĠFore ign
st ood
c ounter
Ġrank ed
put ation
A re
)} (\
Ġex ecute
En ter
ly n
sp in
ĠN Y
m k
ĠM icrosoft
Ġrest aur
tain ing
Ġex cess
sh al
Ġcont ents
Ġ[ ],
ĠM ilitary
Ġfrequ encies
Ġneut ral
E ff
ĠL ore
ĠAtl antic
as sembly
Ġproport ional
el esc
ĠB all
Ġar ts
ĠW ell
$. }
ĠEn vironment
Ġengine er
... </
u y
n m
s un
Ġth in
ennes see
F M
Ġt aught
Ġstat ements
Ġuniform ly
sw arm
D ay
ĠN ative
S ample
Ġprodu ces
ra pped
ĠM ari
spring framework
ĠSur vey
Ġo k
Ġb urn
ik a
Date Time
Ġredu ces
ab ove
ĠV ector
Ġscen arios
St ats
Ġfound er
l oss
p ull
( @
ĠD un
ag en
Ob serv
19 16
Ġconf idence
Ġdec or
Î ¹
s ome
ĠM ake
ĠC zech
Ġqu ark
^* (
our se
fin ite
Ġb ow
ĠCE LL
E P
und efined
Ġcol ors
Ġpract ical
W omen
Ġen um
ĠĠĠĠĠĠĠĠĠĠĠĠĠĠĠĠ ĠĠĠĠĠĠĠĠĠĠĠĠĠĠ
ĠA P
Ġbelong s
Ġan om
c ross
Ġk in
um my
Ġpen al
Ġdocument ation
. <
Ġcoll ision
Ġcharacter ized
Ġ ];
ly wood
Ġt al
ud a
Ġf ell
e en
Ġcon vers
S pe
m ers
ĠIn put
^* \
Ġc ub
PO ST
Inter val
Ġcoupl ed
ject ure
go od
$- $
ĠSt ock
Ġcamp us
Ġyoung er
ĠT ransport
ĠT H
t f
att ers
ĠJ oh
Ġacc ident
Ġind ependence
L android
ĠIn ternet
on ce
wild fly
Ġrequest ed
g ency
ĠS ource
Ġw arn
IT ION
C B
ĠMiss ouri
ĠDef inition
ĠInd ones
ĠM oh
time out
id ge
Ġper haps
og y
in valid
O lymp
} /\
ĠL ow
An other
Ġstand s
Ġign ore
ord on
Ġrecon struction
T F
Ġcl ick
Ġsim ilarly
ÃŃ a
per iod
ĠG allery
Ġnull ptr
B ind
r ig
S V
ir ation
Ġch ance
Ġjob s
Ġin n
Ġlink ed
ĠSt andard
Ġimprov ement
ĠH al
Ġs and
S W
Ġd og
Ġv anish
ce st
Ġdemonstr ated
ĠC art
Ġf itting
back slash
Ġtime out
Î µ
M ost
H ar
az y
ĠArray List
Ġmer ged
Ġbel ief
ĠAl f
ĠCast le
ĠBo olean
d am
Ġcol our
D av
Ġsk ip
ĠH iggs
Ġhe ard
ĠPe ak
2 13
ĠH art
ĠB ra
n ol
ĠL ink
ĠS on
Ġuncertaint ies
ab ric
Ġpaint ing
ĠCons ider
Ġ Ø
s b
Ġtop ology
(' /
EN SE
ĠS quad
J an
se p
L anguage
Ġis n
ĠA D
Ġal ter
stack rel
iss ues
Ġlist ener
Ġtw enty
ry ption
% "
ul er
() ))
Ġse vent
Gener ated
ĠRec ord
ĠMex ican
osc ow
Pl ot
Ġc ir
x html
ran gian
Ñģ ÑĤ
Ġfr ames
ĠMary land
ro g
ĠS at
RE Q
ĠHigh way
an im
is is
F low
Ġc ab
ĠT al
\! \
Ġexper i
Ġneg ot
| $
force ment
comp are
Ġsens itive
Ġfe et
Ġ-- -
Ġem pir
ĠEx ample
ĠAr thur
Be an
) }.
Ġgl ass
Ġl osing
ĠStep hen
Ġult imately
Ġneutr ino
Vert ex
Ġsup pose
Pro gram
requ ency
A wards
ĠB efore
sequ ence
ĠInst ead
Ġinj ury
Ġdev iation
Ġid x
ra it
Ġw itness
Ġexplan ation
c am
Ġ{ $\
as ync
EEEE FF
ĠP aramet
*} [
Ġim g
Ġtrans itions
) (\
ĠG rant
Ġbas eline
g rav
Ġy ellow
ĠMar ia
S ql
Ġsur faces
SE LECT
Ġex pos
Ġanim als
ĠE th
11 1
Id s
% .
object s
Ġsc oring
ĠS N
Ġm orning
west ern
Ġstrict ly
Ġdo ctor
ĠF ellow
CT YPE
ĠBar on
atur ally
Ġp uls
Ġrem ember
Ġre striction
hel per
text up
lo ader
or iginal
check box
Ġsc ores
ĠA bb
Ġop position
amaz on
VAL ID
pol y
ĠChrist mas
Ġcol span
Ġcan cel
re ll
ĠPhilipp ines
L imit
iss ue
ĠAff airs
Ġst one
Ġ\ ,\
The y
Ð ¼
Ġport ray
Ġorb ital
ĠA h
d k
ĠE very
Child ren
ov es
w ave
Ġstand ards
ĠL ike
" /
Ġexpl ore
aps ed
writ ten
D etail
Ġpl as
l iving
ĠG h
ok ed
Ġtem p
Ġadapt ed
check ed
Ġbound aries
D en
spec ific
Ġappro ved
Ġrespect ive
Ġin nov
P res
p end
Ġpers pective
F ragment
con vert
1 14
or igin
Ġm d
ĠSo ftware
Ġs un
ĠBook s
Ġw rest
ĠCapt ain
group s
Ġm es
ce il
sign ature
er al
re present
ĠP RO
EL D
. $$
Ġjournal ist
g i
1 15
k ov
Ġ rom
ear s
H om
Ġse ats
Ġdistrict s
e ast
Ġtransp arent
Ġm ach
Ġperm ut
pro xy
Ġmet all
Ġat omic
get Value
ĠW rit
Ġemploy ees
Ġpass es
Ġchar set
text normal
ar iance
P UT
ass andra
Ġb inding
Ġoccup ied
v ariable
ex tern
ĠD C
ro b
gl uon
I gn
Ġc old
ĠMem orial
b atch
Ġalgebra ic
Ġb rain
/ .
Can adian
M s
con sole
Ġconcent ration
mult line
Ġprom pt
ĠH as
is en
Ġun iverse
ĠRepresent atives
over view
ĠPr inc
dev elop
Ġdesign ated
clud es
l ass
r ink
Ġvac uum
F act
Ġgovern or
Ġacc ret
Ġinv olves
Ġneigh bour
Ġsent ence
Ġdeg ener
ĠA mazon
inc ial
Ġa st
Ġp ref
Ġst ages
{ |
Enc oded
g ments
æ ľ
ĠN ever
ĠAg ain
Ġhold ing
Ġfight ing
Ġgu ard
Ġstrateg ies
ĠSing apore
Ġarrest ed
test ing
Ġim plicit
Ġdepend encies
ĠSI ZE
Ġm and
bold math
ĠTh rough
col n
ĠP ier
Ġarg ued
) >
Ġbu f
ro ute
if ndef
ĠM ountain
DO CTYPE
option al
} >
m ag
support ed
mon th
un es
F ree
1 13
; )
urre nce
st an
p aper
off s
new line
Ġassert That
=" $
Rep ort
C ert
P air
re pe
n p
b x
L R
y cl
ĠN iger
Ġrepl acing
å Ī
Ġillustr ated
Î ½
on i
Ġprodu cing
Over view
ĠOn ce
g lyph
Ġpart ially
w arning
Ġsomew hat
(" /
Olymp ic
ä »
Ġro ots
an aly
ynam ics
Ġvary ing
mer ce
{ (\
down arrow
Ġaddress es
Ġfill ed
ĠF ourier
l b
ĠAnd erson
Ġclos ure
{ "
in ating
Ġcar bon
f c
NavBar Font
Ġsc roll
ĠLew is
foot notes
Ġqu ot
Ġbreak ing
US ER
os ure
M ask
Ġcoll apse
F ORM
up arrow
Ġhapp ens
stand ard
Ġ ,\
ĠSe ver
W allet
h fill
Ġpan els
ĠB or
ĠVal id
Ġocc asion
Ð¾Ð ²
Ġmedal ists
" ],
Ġcirc uit
Ġin clusion
vert ical
ac cept
us hed
19 13
Ġres c
pl es
con duct
ð Ł
ĠT ro
ĠA S
s ocket
Vol ume
h ist
Ġw ire
Ġv align
Ġad min
Ġmer ge
F ore
Ġcontinu um
Ġpand emic
vol ume
Ġfail s
we alth
Ġf uel
re du
Ġ( ;
Ġm oments
w ig
Ġcont ribute
ues e
Ġmov es
Ġdecre ases
Ġchalleng es
IG HT
part s
Ġdest ination
are a
ĠT ennessee
o es
Ġsche ma
ĠB et
Ġsens itivity
dist ance
Ġsucceed ed
L ower
ĠLe on
j k
Ġt sd
ĠSim ilarly
ĠO cean
Ġcr ick
Ġenc ounter
ĠCol on
Ġhom ogeneous
Ġb odies
w as
wit zer
ĠFr ont
Ġinvest ment
Ġlog ic
bo ost
de ep
Ã¼ r
Ġcorre ctions
Ġenh ance
um a
1 12
iv als
Ġphot o
ĠAb out
En vironment
ĠE ND
ens is
0000 00
Ġch airman
ĠNor way
Ġ$ ^{
ĠR ow
Ġp ipeline
" ].
Ġimmedi ate
ĠM ir
Ġpro ps
U C
es ides
Ġs olving
INT ER
Ġdescrib ing
d ensity
miss ions
ah oma
Ġre ar
Ġconj ug
Ġext reme
Ġep och
ĠC A
ĠS QL
Pl an
Ġprec ise
erm i
Ġaff ili
}. }
Ge ography
Ġregard ed
Ġpl ugin
Ġmod ify
H ub
Ñ ĩ
ĠA rizona
z ip
ure au
ĠS E
Ġso le
Ġres et
Ġexpect ation
Ġs aved
var rho
h d
SS L
ĠS av
fri end
enc ing
N amed
ur is
20 23
ĠR ose
Ġinterest s
B egin
ĠCor ollary
Ġ" $
Ġh all
ĠD M
Ġres idual
Ġproper ly
od s
Element s
ĠT urn
Ġex cell
h ang
Ġbur ied
DE FAULT
ĠL anguage
ch ant
ĠM unic
f act
H er
Ġquadr atic
An imation
Ġparticip ants
py thon
Ġvari ant
Ġex pert
yr ics
ĠW ho
Ġsimultane ously
r uby
Ġap plies
Will iam
ast ers
ĠC hen
E p
Ġconcern s
footnotes ize
Ġdist ances
Ġpol l
En umer
$ ^
B lack
ĠA mb
witzer land
bl ank
z y
ĠGe V
ĠF ederation
SC R
B ibliography
test s
Ġ ray
print ln
uth er
Ġschem es
Ġp ixels
Ġanaly tic
ut ies
Ġaccount s
Ġorth ogonal
Ġlo an
br and
Ġdomain s
Ġm el
ill ery
int eger
math tt
Ġre verse
St ar
Ġh alo
ĠM oscow
ĠG ib
iss ip
Ġdiff usion
ĠR oss
Ð ´
Ġattempt ed
ĠH y
Ġreason able
ĠN orm
Q ual
ĠAd am
Ġw alls
method s
s lice
Ġadv ers
~~~~ ~~~~
Ġb ra
ur ance
ne ut
cul es
ĠBase ball
B el
ĠMod ern
ov ing
Ä ĥ
Ġf ra
Ġvalid ate
. ",
ĠC G
J apan
our ney
Ġrequire ment
Ġencou rag
ĠH om
g ar
Ġpolynomial s
Ġre jected
Ġcons ervation
b at
Ġle ct
um ps
N or
Ġn p
Ġst ead
L ife
l u
Ġsch ol
******************************** ********************************
Ġwe ather
10 2
Ġran ges
Ġd ensities
Ġcho ices
exp and
ĠW at
T ok
F n
ut t
eng ers
ĠM L
it udes
D ATA
Ġres erved
ĠUn it
c red
Ġcor por
Ġperiod s
ĠX ML
Fil m
ï »
19 08
C ent
Ġdr iven
Ġ\ [
ug ment
rupt ed
Al low
t p
form ing
ĠPol icy
Ġa id
f p
am ing
ow ski
Ġcon figure
left arrow
Ġcrim inal
Ġstraight forward
Ġnom inated
ĠM iller
w ick
AN T
ĠD B
Ġf ul
Ġc as
Ġn ob
ĠAm ong
an chor
Ġupd ates
ĠC urrent
Ġcross ing
view s
M ake
N ative
Ġextract ed
Ġweight ed
P M
Ġl es
s es
19 11
Ġbenef its
Ġn arr
Ġ\ "
Ġdom estic
10 5
s pl
o is
ï» ¿
ĠJ ordan
ĠA ccess
Ġtrad ition
ĠAL IGN
Ch rist
Ġrec urs
ĠAl gorithm
End point
Ġg ender
Ġs phere
run time
Ġh op
Ġst orm
Ġread s
Ġtem poral
ĠGu ide
pro pto
: `
Ġent ang
Ġmodel ing
( .
Ġext ensions
å ®
Ġf ib
ĠM it
Pr ivate
Ġch arts
Ġpl ate
ĠHol y
iem ann
ĠViet nam
ĠN E
Ġca using
er ick
Requ ired
"" "
Ġsub section
Ġstar ring
ĠUk raine
ict ed
PRO JECT
con structor
Ġt ang
Ġderiv atives
Ġf resh
Ġqual ified
' ];
Ġy ards
ver age
ĠMal ays
ma k
v ia
TR Y
S G
Null able
Ġd yn
d ynamic
Ġclos er
$ '
M ill
act ivity
Col l
Ġunder stood
ant e
ab c
Ġinter pol
r ift
Ġca ref
b re
ĠS ky
Ġcontribut ed
vis ible
W ORD
Ġgu est
ĠSl ov
g ray
we ak
ĠF A
not ations
ĠM as
C ard
De ath
Ġvoc al
ĠJ unior
Ġform ulation
Pop ulated
m ill
ĠT a
ĠB on
E mail
Ġclass ified
Ġw ins
$\ ,
ĠN et
1 17
ex ec
atur day
d ig
Ġposs ess
ĠAp ache
Ġun iqu
ĠD a
ele m
inv ariant
atter y
Ġcr ucial
Ġwe alth
vert ex
at ibility
Ġappear ing
m ont
=\ {
ĠC ustom
ĠG R
Ġsystem atic
select or
Ġvill ages
B inary
Ġbu ck
ĉ ĠĠĠĠĠĠĠ
14 0
ur r
viron ments
Ġv ent
ĠA re
ook s
ĠL ang
int ro
_ );
p in
Ã ¥
m ouse
Ġliqu id
ĠN AS
Ġcr isis
M ouse
at ivity
Ġm ales
f actory
Ġa head
out s
Ġdisp ersion
Sports people
Ġh uge
ict ional
mem ory
Ġthe atre
D b
ĠC ond
Ġst yles
ist a
: [
ĠN AV
Ġag ency
hip s
ili ary
fill draw
aw are
re lease
od ge
Ġth ir
Ġar ran
Fl ag
Ġall Classes
Ġold est
ĠAN Y
Ġp atch
Ġ@ "
S erv
ĠV o
Ġeduc ated
Ġto wer
ver ter
ĠPhil ip
ĠS to
Ġb ind
us cript
ĠC ab
Ġd anger
ag an
Ġacc um
ĠH ou
Ġpres ents
ĉ ĠĠ
b urn
Ġ' \
ev in
ĠK han
ĠallClasses Link
onym ous
Ġt error
ĠW rite
D IS
Id entity
or er
sh ips
id al
Ġv ideos
Ġprep ared
L ight
h ow
\\\\\\\\ \\\\\\\\
cre ated
w ich
ĠP R
Ġf estival
Ġ_ .
Ġrece iver
Ġre aching
Ġs ending
Ġv ision
Ġident ification
down load
Ġevery one
Argument Exception
ĉĉĉĉ Ċ
comp ile
ĠF ord
Ġle af
Ġt ight
un ately
ile y
ĠS earch
F ind
Ġpop ulations
] ^
f all
Ġsk ills
ex pression
Ġembedd ed
Ġcomm itted
Ġir on
is Empty
ĠL ind
Ġinvestig ated
Ġopt s
Ġbusiness es
var iance
Ġtra ins
el astic
Ġrandom ly
res olve
Ġprom ote
ĠB at
ĠP itt
c od
Ġlimit ations
Ġpropos al
rom agnetic
ĠHar ry
=\ "
pl ier
A li
Ġth er
ĠEnter tainment
Ġdem ocr
Serial izer
Ġscen es
R ail
kl ahoma
Ġ\ |\
Oper ator
en ance
Ġweap ons
ĠS af
pr ising
W ait
Ġh orse
ren ce
b us
ta ges
ĠAl bert
ĠAdd itionally
Ġcrit ics
Ġpers ons
Re ce
D ictionary
text sf
Ġloss es
Ġc arri
side bar
Ġre vers
B al
Bas ic
* \
w d
Ġsche dule
ĠF ac
o i
/ _
Ġcorrect ly
Ġmorph ism
Ġstudy ing
M c
C LASS
Ġoper ate
M AP
$\ \
Ġprem ier
ed u
ĠKent ucky
ambig uation
ĠGree ce
const raint
Ġcomb at
dat abase
Ġch ose
V ari
Ġperm ission
ĠD ark
Ġ( ),
an alysis
}) ^{
od ox
F ocus
Valid ation
oc a
Ġrelig ion
Ġanaly ze
ĠC ost
O W
ic ing
el ve
Ġview ed
Ġirre ducible
Ġdep os
ab ama
ĠB os
OP T
ivers ary
; ">
ta ke
ĠBuild ing
MO DE
^ ^
Ġheav ily
ol is
iam ond
mer ge
Ġcollabor ation
D on
ap el
Ġ> >
Ġperman ent
Ġw ish
ĠB it
Input Stream
st ances
ĠAdministr ation
Q U
ing ham
Ġe ye
Event Listener
ph oton
n ight
Ġselect or
Ġpil ot
ol id
Ġt mp
put ed
Rem ote
libr ary
Ġin h
Ġrelationship s
ĠChild ren
ĠPal est
ĠS ri
agnost ics
r ac
Ġmain tained
Ġqu as
Ġhouse hold
Û Į
ag ues
ĠMon te
Ġdef ining
pol icy
Ġpain ter
un ing
W arning
th rough
Ġ ellipt
AN G
y ers
av ailable
ĠPro t
han ced
ĠSt ory
Ġt rib
ĠMel bourne
d irection
Ġst ores
F older
sub equations
ic ut
' d
ĠOper ation
Ġs ail
g re
Ġro yal
ag u
Ġg irls
ip se
ĠI owa
Ġcomp ilation
ĠS ound
inher it
z i
L ook
Ġan chor
Ġfe e
ow nt
p are
V E
cite alt
Ġconvent ional
Ġen semble
3 60
Ġh ers
Ġtr unc
= $
Ġ ~\
Ġent itled
F UN
ib ilities
Ġmod al
Un known
ru ption
Ġs ell
NS String
ic ians
18 90
Ġw arning
S yntax
grad ient
Ġalle ged
Ġcapt ain
Ġsix th
iz ers
ĠWh it
s ync
Ġh or
ĠTh ird
Ġinteg ers
b es
Compar ison
m al
Ġrecon struct
Ġd ates
ĠLin coln
c atch
ĠT ony
Ġsec ure
ane ous
itect ure
and y
ur d
ĠFor ces
N orth
\ },
, ...,
Ġrun time
Ġequ als
Ġform ul
Ġb ronze
Ġap art
Ġreg ression
Ġp un
P red
Pro to
ap y
pos ing
ĠJes us
Ġform ally
Ġformer ly
Ġsim ulated
P ers
ĠL td
ĠF ROM
Ġre ward
is set
ig ate
Ġcap able
Ġw inter
F N
Ġat om
ĠIn vest
ĠAr k
Ġrepl acement
Ġdiagram s
Ġfun ctor
Ġop inion
ĠSta ff
ĠB alt
Ġch apter
Ġref used
H on
erc ise
M IN
ache lor
Ġa ux
Ġspect ro
element s
Ġpercent age
Ġdiam eter
Pro position
f eed
Ġsub space
Ġwindow s
ĠH op
t l
Ġc ursor
fg han
Ġcred it
ĠJ os
Ġg reatest
E SS
Ġro utes
&= &\
Ġtraject ory
H D
Ġdr ink
nol imits
\, {\
Ġp ed
ĠAnd roid
ext end
M ove
Ġman agers
van ced
E val
æ ĸ
ĠAust ria
Ġresearch ers
Ġne ither
opt s
\ }.
Ġhapp ened
Ġben chmark
'] ['
face book
CH AR
Ġs ac
in th
Ġcheck ed
{ .
is lation
S creen
ĠN ap
ĠC le
high light
ç Ķ
ĠD rag
m ay
Ġeduc ational
Ġstrong er
S ave
g oto
Ġcommand er
Ġhead quarters
ene z
Ġn aturally
Ġr acing
Ġres istance
Ġmay or
1 16
Ġpat ient
Ġcompar able
ĠSt atus
Ġseg ments
Ġhum ans
Ġf an
Ġ ille
ol o
ĠS witzerland
Ġs ought
Ġrapid ly
Ġc yl
Seg ment
Ġprom otion
Ġdiscover y
Conn ect
ĠComm unic
Ġb ought
Ġd oll
Ġdis order
}) )
ĠSim on
edd ing
ĠL com
cl one
l ab
Ġcon cluded
Ġn a
Ã© t
Ġrec ru
All oc
Ġdi plom
N V
p ag
On ce
ĠMag azine
Ġshort ly
B en
ĠExecut ive
Ġpotential ly
Ġdrum s
g ium
M ac
ĠNAV BAR
}[ !
Ġgu ide
Ġcondition al
ĠO ak
Ġint ent
rad io
ĠB urn
Ï ĥ
ĠC ore
& &\
ĠF ame
Ġcor relations
T ags
Ġv ot
Ġm ist
}{ {\
Pl ace
Ġaccret ion
}^{ +
ĠEar l
olog ists
ro it
Ġtrans verse
ĠR ight
Ġsubject s
Ġprogram me
Ġcl ip
Austral ian
ĠComm un
hav ior
st age
U K
ty pen
Ġlik elihood
ĠB ah
Ġvir t
ĠMan chester
ĠO tt
ibr aries
ĠA M
Ø ±
19 09
Ġoutput s
19 05
Ġdo or
Ġm o
ex pl
ach er
Ġexhib it
Ġsimilar ity
ĠB run
R aw
get s
imens ion
Ġrob ot
Ġend point
ĠM ock
ĠS P
Ġsett led
ous es
Ġindependent ly
display Name
ard o
ĠH or
Ġcirc ular
oc ese
Ġisol ated
as m
ĠC op
ĠEqu ation
Ġm ent
Ġm yst
Ġtrans actions
Ġdis appe
ym n
IO Exception
="../../../../../../ ../
Ġfil ters
Ġcre ates
igen ous
ĠL ay
Const ant
Ġh orizon
Ġmechan isms
od a
Ġmod er
Object s
Ġl aser
ĠP a
ĠIslam ic
ile vel
ĠSh er
Ġsup ers
Ġ' '
Å «
Ġp ot
DE F
Ġt ags
Ġcommun ic
up per
ĠT an
ĠC P
. [
Ġv ort
Ġph one
Ġbro thers
fol io
19 06
Ġpro to
ĠV ice
ĠB rian
BP ACK
Ġb ond
Ġ_ ,
l ot
Or gan
CD ATA
Ġpro position
ĠJ ane
Ġprote in
olt ip
ra ise
Ġdec ade
Ġassign ment
big cup
cl ide
ĠS ets
Ġw arm
Ġpresident ial
S ame
valid ate
ex it
ĠOr iginal
Ġjo ining
Con structor
ĠCl ark
Ġtyp ed
Con sumer
com par
}} ,\
Execut ion
() ),
or row
trans action
Ġsm allest
Ġvol unte
ort ion
Test Case
el ian
ativ istic
W arn
Ġd ip
# {
arg uments
ag ram
ĠA ge
ĠC NN
ĠC ape
Ġin duct
ĠG ram
ab et
ĠF er
ens ing
Ġn ortheast
ĉĉĉĉ ĉĉĉĉĉĉ
Ġdec isions
iv a
ograph ical
is ition
ail ability
typen ame
Ġthous ands
in ite
Ġhel ps
ak ed
ĠR oy
_{ +
C ONT
ĠC S
Ġg ene
Ġgr ade
rel ative
C V
rain ian
Ġinflu enced
ĠSt one
ĠMe an
F P
ang el
/ "
Sh ould
R ob
Ġs ale
Ġm it
ĠA T
Ġkill ing
Ġbran ches
az a
Ġrat ios
Ġint elligence
Ġne arest
ill ed
Ġhom es
Ġequip ped
inem a
Ġco aches
ĠNav al
ĠU V
ĠS ix
ĠQueens land
Ġ( ,
col lect
Ġ\ {\
ĠB h
ok es
Ġkeep ing
el son
ĠLag rangian
C ur
f ake
erv ing
Ġsim plicity
st ud
clud ing
ĠAss oci
Ġst abil
10 4
ĠN ich
ĠHow ard
/ {
ass ign
ĠW IDTH
Ġsubstant ial
Ġan imal
}{ }
et ing
Ġm ig
G M
Ġconcern ed
ĠH erm
Ġpoint ed
Ġcompar ing
66 66
Ġm art
Ġlook s
d n
ĠC SS
, '
Ġwhen ever
w ho
mid rule
oc or
Ġ" ";
Ġcomp re
Ġincorpor ated
Ġs oci
ĠLab our
ar ry
Ġpseud o
19 07
Ï ģ
ĠTok yo
ĠG reg
Ġcommand s
Ġre new
Ġfl u
dis ambiguation
Ġs lope
def n
Ġf mt
Ġadapt ation
á ĥ
ĠM ond
m ix
em b
ate ur
Ġinter vals
Ġdiscuss ions
ut s
Ġbro ke
> :
f ef
brid ge
uer to
ĠL oc
RE G
Ġman ip
Ġsit uated
}$ \
ug u
Ġex ports
Ġload ing
Ġstri ke
> )
$ }}
Ġneigh b
V AR
Ġmusic ian
ĠA st
) }$.
Ġhot el
Tele vision
En v
Ġf ake
G ER
Ġdistingu ish
Y Y
ĠC ulture
ĠRet ri
ĠDe ep
Ins ert
Ġworld wide
ong o
We ight
DO M
bound s
rid ges
m essages
âĢĿ .
c v
ĠCl oud
ubl in
ĠDi ego
M aterial
Ġhers elf
R ate
am an
kw args
ĠAll en
Ġs olved
ĠT oday
Ġindu ction
ĠDE FAULT
ph an
rid ay
ĠRes ponse
Ġexpl os
ĠTele vision
j Query
m f
d uration
ĠN ick
Ġprior ity
Ġstruct ural
des ign
Ġge odes
Ġhy brid
Ġign ored
ĠE s
ĠReg ional
Jo in
}^ +
Ġtransl ated
ĠC lient
c u
ĠSquad ron
iam i
Ġf itted
ĠF a
Ġpract ices
ĠWal ter
t k
Mark er
Ġcon vention
Ġhistor ian
t b
ĠR ab
Ġaccomp an
C apt
> ;
ex amples
clide an
Ġs ons
Ġident ifier
sub ject
ot ional
Ġleg end
ĠB ureau
t re
char acter
Ge V
\ }_{
ag ger
}) =\
leq slant
Ġqu eries
at en
Dr iver
ĠP erson
Ġres olved
Ġin ference
Ġk il
Ġfac ilit
'] );
Sp an
ĠTur kish
sh a
Ġphot ons
ĠMar ine
Å ¾
ĠS quare
ĠM and
Ġjust ice
ĠAl abama
Ġcollection s
periment al
cy cl
Ed ge
part icle
ĠT erm
bum s
Z one
b etween
Ġr u
Ġexhib ition
in cre
Set ting
ĠT ag
AN CE
ĠD escription
Ġthan ks
] =
ĠP layer
å Ĳ
Ġl yrics
Ġ ĉ
Ġrecomm ended
) _{\
Ġst rip
Ġsp arse
ĠV ari
getElement ById
Ġb ug
Ġrecover y
ou stic
dis able
le arning
Ġf aced
dest roy
el ines
ang ing
ĠFace book
nav igation
M en
STR ING
Ġd elta
ĠDef ense
issip pi
W ord
! "
th ree
Ġgovern ing
Ġrev olution
Ġen emy
ĠCh ile
el and
Ġm al
re act
b one
Ġf ought
Ph il
F OR
ro d
ĠN ev
ĠS in
Ġw ants
ĠB rand
ren a
ra ble
Ġhol es
ik h
19 04
ĠM C
ORD ER
ĠL iter
Ġprof ession
ĠEm peror
in cess
Ġtem porary
direct ory
Ġb an
ation Token
ĠP os
H am
n ed
Ġs ep
\ [\
Ġk ick
Ġfound ation
I AL
un iform
Ġcomp ens
ĠPat rick
Ġcl ients
C lear
ĠK y
ĠDo ctor
ĠT en
ĠH ilbert
ĠĠĠĠĠĠĠĠĠĠĠĠĠĠĠĠĠĠĠĠĠĠĠĠĠĠĠĠĠĠĠĠ Ġ
er on
Ġc ook
Ġstop ped
v b
Ġattack ed
enn y
am ents
l m
Ġf its
OR Y
r int
Ġrema inder
Ġanal ys
Ġair port
Ġ' ';
ĠF M
Ġiter ations
ĠOption al
Ġtem ple
b lob
Ġv m
Ġj azz
Comp iler
assert True
ac ew
ĠR ic
ĠSen ior
al ert
N ET
ĠHe art
ta h
Ġstand ing
ĠB ab
ĠO klahoma
A udio
Ġdirect ors
Ġ" ",
omorph isms
em ony
ĠL ank
g ov
ĠOr th
U V
c are
m iddle
Ġpubl ish
form ed
spe ed
ĠC are
ĠTem ple
ĠInf antry
ĠB ox
ext ra
Valid ator
pro gram
Ġrect angle
E ST
comm ons
Ġsup posed
in ch
Ġch urches
uff ers
Ġoff ices
Ap J
Ġel if
Ġtri angle
p b
ĠG un
Ġm ob
ĠC er
ĠP ut
oth s
Ġp lease
ar o
ĠO S
Ġt ables
f actor
Ġpurch ase
Ġdesign s
Ġconstit ut
ol ished
ĠB arn
| _{\
Ġclass ic
appro xim
Ġpublic ations
Ġconnect ing
ĠIl legal
ul p
comm it
dr iver
Ġap pre
Ġv o
i pher
Ġconsist ed
ĠBill board
se lection
We ek
ac on
Ġcosm ological
: @"
å ħ
own ed
c ov
Ġreson ance
Ġa ugment
i ary
Ġpack et
end ment
Comple te
Ġst ats
c ers
li a
hens ive
ĠQue bec
Ġad ult
Ġ Ä
ĠK er
Ġmed i
ĠW AR
Ġf iber
com es
Ġpost erior
G overn
Ġfound ing
Ġhand ling
load ed
ĠK at
ĠĠĠĠ ĠĊ
ĠK itt
in istic
Str ategy
d on
C ounter
az e
dep recated
M ajor
Ġelement ary
Ġinfra structure
ĠOffic er
ĠG ab
ĠNor wegian
Ġal ert
sub mit
ĠCE O
ĠD ream
Ġexperi enced
Ġinter sect
il ine
ĠPy thon
ph ony
St atic
Ġcount s
Ġsing ers
g overn
L ibrary
Ġd s
Ġsur ve
Ġtransform ations
Ġdeliver ed
ĠN FL
n an
ĠH ans
ip art
lo yd
Ġeas ier
Line ar
Ġa ired
Ġcom plicated
Ġtra v
ĠEx press
Ġpay load
ĠW y
Process or
Us ers
Ġag ed
ĠNew ton
w atch
ĠP i
Ġprom ise
ĠEq s
pre vious
Ġspher ical
Ġc od
ĠP A
Ġmin ute
Ġsignific ance
E ducation
est im
ĠConnect icut
s is
Us age
fef efe
Ġ\ }
ĠCh ange
ĠG all
Ġinterpret ed
ott en
Ġalign ment
Ġkn ew
g iven
ĠJ un
ĠCro at
ant asy
O ffic
Ġlaw yer
Ġaccom pl
ĠK a
ĠAb d
ĠSil ver
sc ss
Ġret irement
Ġbig gest
Ġen umer
ul ner
all enge
Ġenc oded
Ġany one
Ġneut ron
Ġb old
ang les
Ġrespons ibility
ĠD onald
Ġform ing
p d
Ġim plied
ific ial
st e
Render er
an imation
B orn
Th row
Ġre in
Arg uments
Ġeigen value
j ax
ĠF ix
ĠMed icine
in ces
Ġexper iences
Ġcluster ing
] ))
Ġassoci ate
Ġcent uries
Ġl ake
) }$,
u its
Ġwork er
ĠE ric
Ġestablish ment
for Each
Ġb id
Ġcon crete
Ġestim ator
Ġleg islation
G ui
Ġm ental
h ot
ell ij
Ġcommission ed
RE SU
pher ic
Ġhost s
Ġad vent
l ined
An aly
19 01
ĠA fghan
osl av
Ġstation ary
FI ELD
IMP ORTED
ĠM att
Not able
Ġro of
Ġh its
Ġaccom mod
ind ependent
Ġw a
ĠL ic
Al so
ĠAs sum
WE BPACK
Ġt ack
Ġb low
Ġperm issions
Ġoper a
ĠPro du
ut able
ch t
Ġsurn ame
ĠP as
r at
u able
l on
Ġdecre asing
Ac adem
j b
Not Found
ĠB lo
m apping
V ill
Big l
In formation
Ġsur g
Ġgeneral ization
ul o
Ġs outheast
c us
Ġ _{\
Ġempir ical
Ġturb ul
Ġin vert
h al
ĠS R
Ġpenal ty
sh arp
Ġperform s
SCR IPT
r ison
Ġdis establ
Ġmembers hip
1 18
ĠTai wan
C ref
Ġp ub
f etch
ĠJ ay
P al
Ġdis miss
^+ $
Ġpropag ation
ic ator
w arn
ĠAg ency
Ġ{ },
osp it
ĠD ick
Ġr ating
ĠA ud
f mt
B order
Ġf old
Ġ' ./
ĠCommon wealth
small skip
Ġc ro
do or
p ic
ĠArm en
Ġpe er
Ġal pha
Ġman uscript
Ġrul ed
ĠPortug uese
ourn als
U ES
Ġliter ary
ĠPl ace
B ad
B ased
Ġsepar ately
Ġgood s
ĠAb stract
5 12
Ġlabel ed
ĠÐ ²
ig e
Ġprefer red
ĠF uture
10 3
Ġh air
und erset
count ry
Ġchalleng ing
Ġis omorphic
ub er
ĠJ am
Ġut ility
n c
Ġassist ance
Rec all
Ġ' .
Ð ¿
sh op
Further more
int ellij
}{* }{
ĠB eng
Ġplas ma
ash i
tr l
Ġd ry
per ature
Ġorder ing
ĠA le
ĠV ideo
al ia
Ġkin etic
as a
am ps
App end
Ġsever e
ĠD O
Ġlog ging
ac er
inc or
Ġopport unities
em pl
ĠF le
P resent
ĠLouis iana
ri k
ĠS H
por ter
Ġhigh way
rem arks
lic ense
sp acing
k top
Ġen vironments
s hell
Ġ ul
X Y
cy cle
Ġcent ers
ac o
Ġang les
ĠIsra eli
ĠS aturday
Ġdr ivers
Ġpay ment
Ġc ru
div ision
Ġb rown
sc ribe
Con tact
u ction
Ġd war
Nav igation
ĠM oon
is ons
ĠN ag
ct ors
Ġwor st
Ġcont roll
D rop
in ian
Con sole
con tact
oph er
Ġredu cing
Ġste el
Ġconsum er
Ġf ranch
p kg
iv idual
Ġord inary
ect ure
id en
Ġa str
ĠW IT
Ġplatform s
ĠBatt alion
cover y
al ias
ĠV in
D iff
Th rough
Sc hedul
Ġarr ival
LE D
Ġanim ated
D er
Ġal gebras
Ġsub sid
Ġsign s
Ġgun s
ĠHol lywood
M al
g red
ĠL oad
aint enance
;" |
rypt ed
Ġsatell ite
get Id
Ġst ating
ĠSw iss
Ġconver ges
× ķ
Ġ' ',
tri angle
B Y
Ġterm inal
ĠE uro
ĠHon or
Ġas sets
Ġsh ares
R oman
.&.& .&.&
ĠArgent ina
C N
Ġre aches
Ġl ob
Ġamount s
Ġs ud
ĠMo ore
Ġ> >>
Big r
ĠRem ove
Ġsup plied
} <
Ġinh abit
G reen
c raft
Ġf alls
Ġres id
Ġsum m
ĠP ay
ĠAp plication
ĠAp ple
ss on
b est
b log
Ġcompet itions
rag ma
ĠHar ris
r n
P at
ĠN ik
Ġout come
ant on
Ġt ries
19 02
ib l
lad esh
Ġhard ware
ĠS ud
Ġparticip ate
nt il
Pl atform
ĠF ull
Ġunit ary
C ursor
ĠAn ne
C a
ĠS el
Ġ" %
RESU LT
Ġincreasing ly
ar on
re ement
Ġpres c
arch ive
ĠBul g
b oth
Ġan isot
R a
enc ode
19 03
sc hem
B T
ĠP ope
_{ [
ĠLiber al
es is
EE E
ar ial
op ter
Ġwas n
comp act
riter ia
ĠE arly
Ġwait ing
Ġorb its
Ã ´
Ġl aid
ĠG ard
Ind ian
Ġpl ots
Ġspe aking
is ations
N umer
R andom
ĠA GN
ĠC emetery
Ġinstr uments
FF ER
Ġs b
im ore
ist ogram
Ġinv ited
âĢĿ ,
A UT
elesc ope
s ong
E ast
Ġ ur
Ġt d
read er
NO DE
re ens
S an
Sh ared
St andard
scal a
c ost
Ġap ilevel
Ġtun nel
ï¼ Į
met ic
Ġv oted
Ġprob abilities
Ġs ocket
Ġm ouse
Ġrecover ed
arg o
Form s
or b
h alf
ff f
v i
v dots
ass um
ĠM S
pl oad
A bs
s mooth
O ld
M ag
et ary
Ã ł
Ġres erve
Ġtri p
Ġp ione
AR D
ĠF ermi
ro ck
Ġscient ists
10 7
Ġm m
N UM
Ġs ensor
com pute
che ll
Ġeng aged
Ser ies
M ich
to Be
ĠHou ston
Ġl it
Ġaver aged
ĠN am
Ġcomp ris
/* !
re p
Ġm ile
ĠK am
qu al
Ġpaint ings
Ġcontrad iction
Ġnav bar
ĠSer ver
ph rase
ack son
Ġconven ient
ĠAnth ony
ĠR iemann
H tml
." ""
F uture
F ootball
Ġs leep
Err ors
B ottom
val ued
ĠHar vard
ram a
or ous
ĠG ordon
mit ter
ĠBel gium
Ġgrad uate
' $.
ĠHaw ai
[ ]{
Ġref uge
Group s
Ġs we
Ġfav our
\ /
cont ents
Ġh al
script scriptstyle
not in
A SSERT
iss ance
M ilitary
Con vert
Task s
Ġm ort
Big g
B atch
B inding
Ġf ly
13 5
t ures
L Y
ä º
ĠR ol
Ġeng ines
R ich
c ity
Ġreal ized
Ġcrow d
D rag
ownt own
h ill
Ġ" .
ĠF ind
Ġm acro
/ ">
ĠI ter
me asure
Ġto kens
Ġmathemat ical
valid ation
HE AD
Ġ$ _
Ġpriv acy
Res olver
Dis c
n ik
Ġspl itting
pro blem
u is
u h
Ġsports people
Ġdepict ed
Ġsc r
Ġf aces
ĠT ree
] +
ĠHer itage
ps hire
Ġacknow led
ĠDoug las
ĠDis ney
Ġwrit es
ish ment
Ġrun ner
Ġim possible
Ġe ase
E urope
s yn
cc c
18 80
er red
"> (
Ġst adium
n ob
I Z
ug ar
ĠMiss issippi
Ġinitial ize
res pect
10 6
Ġover lap
ah n
work s
n ative
oid al
ĠStr uct
R ober
Ġlog arith
ĠAl ber
ĠWAR RAN
ĠNC AA
ĠC ru
Ġin aug
) ",
Ġharm onic
Ġrestrict ions
log o
Ġperturb ations
ĠF all
Ġfe as
ĠHot el
Ġcir cles
ĠD ak
Ġfind ings
ig ious
Ġcr icket
B H
Ġintr insic
Ġcer emony
INS ERT
Ġcon formal
Ġcarry ing
Ġag encies
load ing
ĠMark ov
ĠK now
Dav id
AT CH
L ike
ĠD ur
Ġt ennis
Ġtrack ing
Ġphilosoph y
Ġs occer
Cl ub
Ġ Ñģ
C r
ĉĉ ĠĠĠ
f our
b olic
all as
(" #
ĠG rad
ĠCont in
ĠVill age
por ated
d ied
Ġpro hib
Point s
Ġinv ent
M essages
str ings
Ġcent ered
ĠC ow
ä ½
Ġsh adow
Ġcon e
g h
Ġun us
over ty
cor respond
Ġvol umes
fra g
< <
ĠSim ple
ĠTer rit
Ġconcern ing
Ġful fill
Ġs ys
ĠL P
Ġsit uations
ĠB ry
Ġac id
ca pt
M o
Map per
r ations
Ġre ception
Ġhe ar
Ġpl otted
An alysis
Ġmet res
es ome
_{ -\
$ &
d ers
Ġacc ord
Ġs ql
Sign ature
RE D
Ġvac c
| _
Ġrespons es
Ġpre tty
Ġsl ot
w en
Ġn an
C ity
Ġd uty
;\ ;
Ġacc used
Ġcriter ion
$ _{\
Ab out
uch y
Ġsust ain
}} )$
ãĢ Ĥ
Ġcov ariance
gener ate
å ¤
Ġim pl
Ġgener ators
RE E
ĠI ss
Ġmer ger
ĠE U
Ġb ed
) &
10 9
Ġprov ision
10 24
Ġguarant ee
Vir tual
Ġelect ro
ĠD igital
Dep recated
ĠK az
M us
10 8
An notation
Ġconcept s
in burgh
Ġs ed
int o
ic ode
Ġf ired
ĠB ush
Ġproject ive
Form er
Ġ\ :
ĠInd ependent
ĠD ouble
Ġher o
Ġprinc iples
Ġlocal ized
ĠPri x
d ays
Ġbring ing
Ã «
ĠB uck
Ġpoet ry
Ġh am
Am ount
is o
> "
Ġaccess ible
Ġback ing
Ġaband oned
Ġconsider ation
e b
P od
level and
Sup er
us r
Ġb ars
ĠT reat
T ube
b ow
ĠY outh
Ġmin ing
t ol
re pository
UN D
fort unately
ĠIt em
G G
m r
Ġsh arp
CO UN
ic ide
Ġregular ly
Ġ ri
U ST
ĠP ur
Wh ere
ol as
p f
ĠH ockey
12 34
V P
Ġtraject ories
ĠL INE
W IN
ĠD al
ĠE ag
Ġdesc end
Ġowners hip
P ubl
Fail ure
Ġgener ates
u ity
c assandra
ĠTra ining
; |
Ù Ĩ
fore ach
Ġent rance
CO MM
ĠA lice
te am
ĠCh ampions
Run ner
ĠBr igade
Ġexpos ure
Ġpartners hip
Ġferm ion
ĠDe ath
Ðµ ÑĢ
ĠT witter
Ġj s
Ġiter ator
Ġcustom ers
? "
t ip
Ġmark ets
Pre v
Ġinf lation
HER E
head ing
C md
ĠC av
ĠD ictionary
eg et
it ics
ĠL ib
}} =\
Ġinj ured
Ġ ðŁ
ops is
B ounds
MM ARY
ir i
ĠN atural
Ġr ival
Ġ ig
" },
el lect
Tim er
Ġp up
sp aces
det erm
Ġman age
b inary
ĠAnton io
Ġpeak s
s z
C enter
Ġmat ched
Ġdraw ing
Ġsy nd
Ġsem antic
ĠG raph
Ġdeterm ines
Ġre ject
Ġd iverse
Ġref lection
S i
Ġdis joint
Ġdi agn
d ashed
at ched
Ġtop ics
Ġv eter
T ile
ul um
Ġhe ter
Log in
s burgh
ĠFri ed
ĠQu ery
Enc oding
ĠIn it
ĠPro p
Work s
ĠK o
ĠM rs
St ub
ĠMat the
Ġabund ance
j u
mut able
ĠĠĠĠĠĠĠĠĠĠĠĠĠĠĠĠĠĠĠĠĠĠĠĠĠĠĠĠĠĠĠĠ ĠĠĠĠĠĠĠĠĠĠĠĠĠĠĠ
Ġpass enger
ĠP uerto
rypt o
sc ious
Ġbo at
ab ad
12 4
ĠCon stitution
.* ;
Ġsm art
cast ing
Ġw el
Ex port
d in
Ġloc omot
V ec
r atio
a ire
AC H
ĠDen mark
K n
re tt
C ulture
ribut ions
Ġca ught
ĠT ab
AT OR
Met rics
ob i
ĠAl b
ĠR ound
ĠSever al
Ġp ulse
\| ^
M aster
Ax is
ĠF OR
Ġinter ference
overs et
Ġsh aring
as p
Ġdis contin
del ay
sur face
| =
du al
Ġf s
ch arge
Ġdeb ate
ampl ing
ĠJ son
19 2
Ġarm ed
Ġtext ure
Ac cept
ke e
ĠSt ream
Ġ& $
Ġpr on
Ġbelong ing
et he
H istor
ay an
GB T
AS K
bound ed
ĠPortug al
Ġed it
} ~\
Ġpres erved
Ġnormal ization
Ġ< -
ens itive
J ust
p ages
Ġphot os
il st
ĠLa ure
log ging
ĠRes ults
Ġland s
0000 0000
Com b
ĠĠĠĠĠĠĠĠ ĠĠĊ
Right arrow
Ġf ear
Ġed ited
ĠConfig uration
B ecause
Ġmole cules
p rom
Ġcompl iance
H older
3 50
Ġe yes
G EN
Ġv ic
ĠCar lo
rf loor
Ġweak ly
sc ore
Ð° ÑĤ
Ġstr ugg
ĠVir tual
Ġ ----------------------------------------------------------------
Draw ing
Ġsub sets
ec l
Ġp it
ol ly
a udio
ĠPh ill
ĠN ash
A z
Ġoffer ing
Ġd ream
^* _
ĠAs sume
Perm ission
ĠH u
ĠM iami
ĠSc ient
Ġth rown
Ġcorrespond ence
oun ced
Ġfil ed
Ġstead y
Ġoper ates
A cknow
Ġg rows
Ġclass Name
Ġsynt hetic
Ä «
Ġb irds
ĠP ot
Ġfle et
Ġt uple
aw ay
Ġground s
g z
18 98
te ction
refer red
Ï Ģ
Ġ$\ |
Ġre ign
Ġcopy right
an ia
F ALSE
G rad
Ġcompet e
Ġpres erve
Ġcour ts
24 0
Ġk id
Ġexc ited
can vas
bo ards
Ġschol ars
ĠD VD
ER S
enez uel
B IT
T Y
Ġch air
Ch ain
acew atch
pro fit
ĠS W
ĠSam uel
ĠH ug
Ġneg lig
ĠRef erence
Ġover flow
Ġrank ing
Ġ' %
Ver ify
Ġinv asion
m ac
Ġgreat ly
ĠDet roit
ri ed
Ġmanif est
pl er
Ġdeleg ate
uk i
g ent
get Instance
N a
ĠJ uan
Å Ł
Ġm esh
Ġsec retary
Ġn ick
Ġearli est
Add r
Ġcy cles
ĠVAL IGN
T uple
Row s
ir ms
In f
ĠM aur
ail and
Ġexp ensive
et ition
Ġpresent ation
Ġconsider able
ĠEr n
cal cul
B ro
\, ,
lf loor
b ach
Ġmarg inal
ex cept
Ġs ync
label s
k ernel
m outh
inter val
b ia
Ġmark er
Ġremov ing
Ġs ight
dis patch
ors es
cal endar
ĠCont ent
Ġt ropical
}_{ {\
ĠOr chestra
×ķ ×
Ġc um
process ing
Ġcons ervative
in ates
á »
mathbb m
ĠCon stant
ĠD anish
Column s
Con tains
Depend ency
re le
Ġmechan ical
Ġvict ims
Ġinher ited
link s
R ot
vel ope
ĠVol ume
Ġunivers ities
Qu ant
Ġc orn
p ref
ĠP ed
Ġmed icine
S pr
ĠH ills
ĠL java
Ġatmos phere
Re ception
= %
2 20
pr iv
b n
ĠMay or
ĠPr ivate
IN ST
ĠN ob
Ġan th
ĠD ave
ĠD esc
Ġcour ses
Ġpubl ishing
opt im
Ġre pository
c n
' )$
Ġj uris
k an
ĠPr int
' }\
ĠRes ult
Ġspac etime
Ġconsum ption
ili ar
Ġocc as
M arch
M a
ĠSp acewatch
Ġent ering
ĠP C
oun sel
get String
Ġemer gency
ĠB ou
P aul
Ġh ired
_ )
Int eg
ĠCon text
ĠB us
Ġf ault
ĠD ublin
Ġdec ide
bar a
ss l
' $,
T M
urr ican
Ġis lands
Ġab use
ĠBrazil ian
at om
uplic ate
Ġcom ic
ĠF riday
Ġsee ing
ou bt
Ġlif etime
Ġmix ture
= -\
Ġteach ers
Ġcr ash
Ġd ies
f ather
id o
BU IL
ĠOut put
M achine
St ud
14 4
Ġatt ributed
Ġrecord ings
Ġenc oder
Ġcustom er
( ()
ĠTh read
oid s
Ġcoupl ings
ĠIndones ia
d anger
m obile
Ġtransform ed
Ġprep are
Th om
Ġcho osing
Ġland scape
= &
Ġg ran
18 99
Ġdifficult y
19 0
ĠSe lect
AT ED
Ġpri est
Ġcoll isions
ĠS ite
Ġinher it
S ite
ĠL am
Ġco hom
ĠLaw rence
9 00
Ġoccup ation
h our
ĠG P
18 70
Ġp ole
ĠF inn
Ġreve als
m illion
ĠG irl
Ġhelp ing
Fr ames
Ġexcell ent
Ġphenomen on
m ount
Ġd y
Ġra in
id ad
Ġpro be
B D
ĠI F
item pty
ĠStud ios
Ġd iversity
s he
Ġm ail
er k
om itempty
cons istent
n ia
aud i
Sh ader
ĠOper a
ĠT og
Lo op
ĠCol omb
Ġnorm ally
Ġdis cret
Ġar ise
sup erv
Ġtw elve
ma j
Ġdis able
ĠP O
Ġhydro gen
> %
C ALL
Co in
ĠP ear
ĠP ref
Ġclin ical
ĠD ead
Ġdistingu ished
we ek
ĠPo isson
ĠL yn
Ġfin ishing
Ġen ables
qu est
Ġent ities
ĠĠĠĠ čĊ
ac ht
Ġconsist ency
W H
ĠCo oper
Ġinstit ution
Ch art
j an
class Name
Ġactress es
ĠD elete
d ates
ĠEd inburgh
Ġ' ''
Ġbu y
ĠAl an
s r
Ġb ases
ĠOrth odox
Cont ents
h arm
ĠU RI
S ort
W in
A I
ĠP eters
li bs
ann y
nt z
oc he
F ac
AT TR
Ġch ampions
Ġdel ivery
Ġcomp iler
Ġph on
Ġaccompan ied
B ool
P Y
Ġob server
And roid
ĠWalk er
ĠWork s
ĠM os
u uid
Ġproced ures
ag on
fl ux
Ġm ys
Ġex ponent
sol id
i ors
Dep th
Pre vious
grad le
Ġf usion
ĠIN TO
Ġcertain ly
ĠĠĠĠĠĠĠĠĠĠĠĠĠĠĠĠĠĠĠĠĠĠĠĠĠĠĠĠĠĠĠĠ ĠĠ
second ary
act ual
Ġre ly
Ġcool ing
Ġal ias
Ġv oting
Ġshoot ing
ĠOther wise
Tim estamp
Ġg one
un known
met ric
;| &
ĠSU MMARY
Ġ" [
In ner
ĠSystem s
ĠComm ander
) |\
Ã ª
Ġassert True
Ġamplit udes
M ass
P an
, (
As sume
ĠSt ew
ĠL as
li er
Miss ing
Ġdecl are
ment ion
ĠC ensus
ri ent
Ġsu it
LI ST
K S
ident ity
Ġm ilit
%%%% %%%%
Ġd ictionary
ro se
Ġass ault
ir y
Ġc ited
alt Color
ĠDir ac
Ob server
ĠO C
Ġex posed
j d
und les
Ġne ur
Ġnon zero
il k
Ġst im
Ġtr im
dist ribution
ĠO N
ĠY an
Ġproject ed
flu id
Ġrece ives
Ġf olk
Ġart ifact
( ['
Ġre plic
Ex pected
Ġb log
lic enses
ĠÃ ł
Ġres idence
ach i
od o
Ġcub ic
V ICE
ual ity
view port
glyph icon
en o
Ġmod ification
ĠA C
ival ent
bl ast
Ġover l
ĠMc K
or us
Ġimprov ements
> '
d z
Ġ" '
ĠZ e
sub stack
An im
ĠF ern
art z
roph y
ĠT ak
erv oir
CON FIG
Ġadm its
P ower
cept or
column s
ÃŃ n
Ġanalog ous
J ames
Des ign
ĠS n
Ġt ens
final s
ĠBuild er
BO OL
Ġhead s
ĠAut o
ĠIm perial
ĠTr ade
ter ior
t witter
ĠR yan
} &\
Song s
Ġded uce
è ¯
Ġ$ [\
Error f
ĠR ap
v et
ĠS port
Ġon going
ĠFred erick
f b
sol r
ers hip
Ġse es
ĠLie utenant
ik ip
)= (
LE MENT
Ġveloc ities
M r
T ri
ĠK evin
ĠAn alysis
or ne
p us
ĠA BC
ĠL ock
Ġeth nic
d ale
Ġobtain ing
A ugust
ĠSing h
er as
Exp atriate
ĠC hem
Ġrest ored
ĠAcc ount
Ġs lice
Ġthink ing
A SE
Ġd ot
BU FFER
ĠCol umn
Ġg iant
N P
c ancel
T yp
Ġch iral
Ġroad s
ĠT un
Ð ·
Ġm atters
gress ive
Ġj unior
Ġliter al
ĠMalays ia
Ġdyn asty
Ag greg
ĠB uffer
Ġreal istic
Wh ite
}) _{
ru ction
ĠP ap
ĠG arden
U psilon
is ode
Ġpr imitive
Ġv ast
az ines
Ġhundred s
ĠBang ladesh
ĠN i
Ġcomb ining
ĠInd ust
ol ph
18 97
ĠEcon omic
Ġarran ged
18 95
ĠLeg islative
LE TE
Ġanaly tical
Ġtouch down
r ules
ĠU l
Ġpost ed
ĠS mall
= (\
ĠT ig
ĠO k
ĠC ole
R GB
================================ ================================
: '
Ġa ria
Ġj unction
x sd
ĠRes erve
n l
p ars
t ically
ĠD NA
Ġincor rect
ev a
ma ker
ĠAtl anta
ĠH it
ĠArk ansas
ĠO pt
g raphics
ĠK E
Ġtro ub
] ^{
Ġtim estamp
The me
ĠHistor ical
Ġdepend ency
p ragma
t ransport
ĠF ood
Ġagric ultural
bor ough
le e
f ar
ĠC ra
Ġc b
Ġcompet itive
ĠM organ
e lection
r ame
ĠL earning
æ ķ
Ġfact s
ĠC it
ĠCon st
ma king
am ount
Ġcheck s
ĠH D
eg as
Ġaff ine
Ġen hanced
ig inally
ĠLem mon
Ġpublic ly
) !
Ġinhabit ants
L D
f requency
ol y
arn er
ĠL ower
Ġcircum stances
ick y
Z ero
isl ature
Ġg oto
ĉĉĉĉĉĉĉĉ ĉĉĉĉĉĉĉĉ
ate ver
if ference
Ġprocess ed
ĠBow l
Ġarch ae
Group Name
Ġcast le
T y
Ġw aters
Ġme ets
Ġh ide
se a
qu et
Ġmov ements
k ar
Ġp ray
ĠB ased
ĠW ard
ick ets
Ġf etch
resp ons
ĠÃ ī
oun ce
rem ote
ĠT ar
Ġj ourney
F ran
ĠT el
S plit
Ġco ins
ĠMar shall
* ,
Ġcoher ent
Ġcomp ression
Ġex ercise
ĠSec ret
ĠCh amber
Ġd ial
ĠIn s
id ay
Ġte en
part y
t m
Ġbank s
Ġrot ate
ug gle
Ġre tained
Ġre nt
ather ine
ĠCo q
es a
Ġadd s
12 6
Ġvan ishes
om ics
Ġarg ue
Ġquot ient
T AG
Ġch unk
ĠDep uty
ĠG ran
Ġp or
ĠR ange
str ument
Build ings
Ġann iversary
ĠMot or
Al pha
Ġval ley
b rane
Ġp ump
ikip edia
Ġad mitted
r pc
ĠE instein
A X
est yle
the ory
dat aset
ĠE mer
ĠPe ace
Ġsegment ation
ĠC F
h istory
Ġmon ot
Ġ$ <
ĠB etween
J une
Ġsign ing
Ġregard less
Ġdiss ip
18 96
Ġreport ing
Ġpars ed
pan ic
Ġun ity
ass ador
SS ION
ens ively
list ed
AC CE
) *
i ac
Ġsk in
**** **
ail s
Ġcre ative
EN V
E very
Ġexp ed
Ġhe lic
t ouch
Ġbur st
Ġturn ing
ograph ics
po inter
al ph
Ġres igned
Ġsampl ed
enc oding
ĠM ission
deg ree
A rm
Ġse ar
Ġbo ys
K it
ho le
Ġim aging
Ġappe al
Ext ra
ĠÐ ½
Ġbeaut iful
' ',
h yper
Ġmov ies
int end
ĠUn iverse
Ġcollect ive
ĠD aily
b oot
Dist ribution
Ġb ary
Ġreg istration
Ġmid field
R ussian
Ġf lying
Ġaux iliary
Ġinst ability
ĠN eg
ab i
incor porated
ĠIn v
ĠDat abase
Offic ial
ĠC ov
F lor
ill o
Ġpass engers
Array List
Ġtechn ologies
ĠE dition
c op
FFFF FF
Ġplace holder
ari ate
ish ops
is y
set ting
00 2
ĠM i
ĠTh ough
ĠI ron
ĠP M
Ġs elling
ov o
ĠSe attle
d or
ĠG on
It alian
b undle
Ġnot ably
ĠST ART
Ġun stable
ĠD OM
st rip
im ir
Ġstre ets
Ġrepe at
ĠEu clidean
> $
A ST
D ATE
ĠCre ates
G IN
amazon aws
ĠK ings
B ur
W atch
ed a
Ġconst rained
li x
y ou
Ġs now
Ġprodu cers
ĠĠĠĠĠĠĠĠĠĠĠĠĠĠĠĠĠĠĠĠĠĠĠĠĠĠĠĠĠĠĠĠ ĠĠĠĠĠ
ĠU tah
ĠK ur
]] ></
ep er
Ġl ose
Ġdesign er
Table Row
is ec
ul ative
E lect
Ġro oms
Ġemploy ment
Ġ} {\
P G
Japan ese
Ġinv olve
ĠN GC
12 1
ug oslav
Ġreli able
__ )
Ġdec ays
i op
ĠC C
Col lect
Ġg ar
ĠThom pson
D ig
h ou
re po
Ġintrodu cing
rt l
Copy right
um in
ĠD est
ext ensions
Ġmanufact uring
w ind
L and
Ġrac ial
ĠB art
li ed
tra ining
ĠFin land
. },
ir th
Ġrequ iring
ool s
Ġn s
SO UR
Ġpri ze
ĠY ang
b inding
ĠK an
om m
ĠâĢ ł
Ġline arly
ĠMont real
ĠIn ternal
Con verter
Ġanalyz ed
00 5
Ġtr uck
st ory
Ġround s
ha us
ĠW ed
ĠCh airman
Ġgre y
Ġv ulner
Ġille gal
ĠS V
res olution
ĠPar se
Ġlength s
ĠOrgan ization
Ġtyped ef
Ġentang lement
ĠClass es
gener ator
ĠDom in
ang ers
ĠTh ailand
ĠE ver
ra k
l ift
C he
ater al
ĠĠĠĠĠĠĠĠĠĠĠĠĠĠĠĠĠĠĠĠĠĠĠĠĠĠĠĠĠĠĠĠ ĠĠĠĠ
ĠP romise
Ge ometry
Ġfocus es
\| _{\
ĠNever theless
t bl
Ġcomb inations
)} _{\
aut ore
18 60
ĠUp per
Ġc ached
Ġsuff ices
Ġsing ing
L M
th rift
Ī Ĵ
STAT US
> ()
Part ition
ad oc
ĠHung ary
Ġ* ,
RA Y
. }\
ĠL eft
ĠAust rian
Ġclass ifier
R UN
Sc ott
Ġobserv able
fin ement
Ġdis patch
Ign ore
al og
Ġde leted
Ġcor related
D irection
Spec ial
Ext ensions
ĠCom par
Ġcomb ine
ID E
ĠAd vent
ĠL I
or o
R out
w i
ant i
L iteral
Ġcut s
Ġslow ly
Ġe c
ĉĉĉĉĉĉĉĉ ĉĉĉ
iz z
ĠBru ce
ĠM ust
ĠP lease
ĠLINE AR
em en
AA AA
f ish
Ġpar a
ĠS S
condition s
g lob
Us es
Ġsh orter
Ġh un
Ġn ations
at ics
RA ME
Ġto ler
produ ction
ant ics
Ġall ocation
Ġ-- ></
S epar
ĠMP s
Ġs wit
Ġcon jecture
Ġlook ed
ĠK elly
Ã© n
ĠL apl
Ġshe ar
ĠSh ah
Ġ" >
ĠCon vention
ĠCap ital
f ac
lik ely
Ø ¯
Ġpra ised
Ġcompre hensive
pr ison
Ġfranch ise
y ll
Ex ists
Ġch ains
Ġenc ode
P ut
Ġhe aring
xy gen
F eed
get Type
Ġf ol
}} }{
Ġcomp iled
ch anges
ĠH um
ho en
ĠAuthor ity
if i
Ġoper ational
Ġsurv ived
Ġdiv isions
Ġclose st
D ynamic
ock s
}) -
ĠP DF
Ġaddress ed
ĠRef orm
Aut hentication
Ġillustr ate
S al
Ġ å
back s
ĠHung arian
ĠD ie
Or igin
Mon th
A pril
( |
b rew
ocor ro
Ġaim s
t ies
Ġd il
Ġt ip
sh aped
LIC ENSE
Pr imary
Pe er
J uly
ĠDe an
Sim ilarly
Ġo vers
Ġde bt
Ġdec line
Option al
ab a
Ġpr ices
Ġ{ {\
t ot
Pro duction
Ù Ħ
ĠĠĠĠĠĠĠĠĠĠĠĠĠĠĠĠ ĠĠĠĠĊ
ĠEx pl
Ġw x
r ating
Ġappro val
Loc ale
Ph one
Ġsud den
ĠC atal
ĠUk rainian
Ġin structions
s qu
Ġcolon ial
Ġout per
Ġfew er
et ric
ĠE ff
Rober t
Î »
ellect ual
t rain
() ">
ĠFr ame
18 91
G T
ĠL ook
3 000
Ġclos ing
Ġparticip ation
m ms
ĠL anc
ĠSer ial
ap olis
ĠPubl ishing
ĠB OO
ĠAg ric
Ġannoun ce
im m
r in
Man agement
l int
}_ +
Ġactiv ation
Ġhierarch y
om p
ir us
Ġwhe el
ĠS ocorro
ann on
ĠMet ropolitan
~ (
ĠF arm
Ġvari ants
Ġdesc riptor
Ġm ine
Ġcos mic
ĠP un
dis c
ok ing
Decl aration
cl s
h us
ĠHam pshire
ĠP rom
inter pret
Ġun like
refer ences
Ġt ank
Ġgu id
}\ ;
M art
Ġp overty
ne ur
ĠWel sh
L ater
Ġsc an
Ġarr ive
ig o
Ġ& #
Ġindu ces
T ex
Ð¾Ð »
Ġautom atic
ĠSt and
Ġp ending
ith metic
T ouch
}) (
Ġb ot
Ġge omet
ĠF al
re ason
Ġ uri
Ġsub mitted
top ic
ĠF ive
17 0
Ġrepresent atives
w allet
uff icient
ĠAll iance
itar ian
re nt
' }$
Ġs in
ĠM agn
Ġc raft
c ule
Î ·
create Element
ĠBo ys
m und
re ce
Ġre normal
em it
Ġremov al
Ġmet ers
iver pool
Ġcl one
ĠD ance
ĠAust in
ĠJoh ann
ĠE dd
ace ae
annot ations
Ġvar ies
Ġmonitor ing
ad ic
F ace
18 89
, ~
(" %
ĠOtt oman
ĠKenn edy
ĠM D
Ġfr uit
repe at
Sh ift
c ursor
CC ESS
Ġexam ine
l st
ĠC leveland
Ġover view
Ġsp end
Ġg ray
LO W
Rel ated
ro v
ab ul
ĠTr ack
f am
}} }$
ĠYear s
Ġt ends
Del ay
Ġref lected
L ib
ĠBalt imore
ĠCommun ist
T or
ĠMc G
Ġexpl ains
ob a
ĠKn ight
ĠVi enna
L icense
f un
ĠP atri
Ġtri als
Ġig et
ĠSen ator
w ang
ĠJ e
ok er
tim estamp
ĠVAL UES
S witch
Ġf older
ĠB uff
Ġnot ing
}= (
Ġran ging
ĠRuss ell
Ġb reed
As sembly
Ġ$ $\
ĠS ac
ir t
ar us
Cont in
ĠLe ban
ĠW right
Ġm s
Ġp in
C ancel
æ ĺ
Ġresident ial
ent ric
Ġlic ensed
Ġk inem
ĠAn na
ĠPh ot
18 92
Ġadv ice
d m
ĠU E
ag ar
Ġdam aged
with out
Ġpopular ity
Ġembedd ings
r uct
Ġg rown
Ġshift ed
} ",
18 93
Res et
onom ous
Ġthere by
or ce
ar ance
Ġcal ibration
Ġac oustic
ign ore
< >();
en z
ĠJud ge
Ġm ac
ĠB E
ĠB ull
en berg
ĠR ugby
000 1
Ñ Ĩ
Ġmin i
Bl ue
Ġinfin ity
rout er
PRO P
Ġc ards
Ġt y
ĠPal ace
ith uan
ia h
c z
ĠSpec ifically
27 0
Ġ# {
s amples
Ġmarket ing
18 85
Rec ip
not ify
Ġcor on
no ise
hold ers
ĠP S
Part icip
ist ically
Output Stream
ard ed
12 2
Ġtransport ation
ĠRem ark
Ġmach ines
Ġgener ality
Ġins urance
Rail way
ĠI C
ĠN elson
eff icient
og s
arg ed
EN TRY
sub float
ARN ING
Ġint ention
ĠM ak
iz ard
Ġprov es
Ġcontinu ing
Ġst ood
Ġlo ops
l ive
Ġ{ %
Per iod
ĠP rad
Ġintegr als
he el
Dis patch
Ġneighb ors
st ers
Ġmy th
En able
Ġpos it
ĠAl ban
Ġacceler ation
Ġdisc ipl
Ġste am
L ive
ap ple
je ctions
Ġre venue
ins ula
ĠWh ere
Ġdeterm ining
ĠChrist opher
F D
m ate
Ġvol tage
Ġt ied
qu ality
L IN
fl ush
m iral
ab stract
end a
ĠAd ams
Ġas c
loc ale
ĠM IT
Ġplan ets
UE ST
le ading
× Ļ
ĠMult i
f are
File Name
ust ed
ĠT rad
ĠSe ason
Ġhe x
Ġsevent h
Ġf er
ĠC rown
Vill ages
Ġasympt ot
ĠYou Tube
">< ![
le ans
ag h
è ¿
ĠRoman ia
Ġconsequ ences
Ġ( %
Ġr is
olt z
ĠRog er
ĠC arn
\, .
Ġch rom
Ġcommunic ations
S ever
Ġprint ed
{ [
Ġdeal ing
Ġ' _
cl osure
Ġsh apes
Ġeven ing
U pload
S y
sw ing
cho ose
TI ES
Rad io
ĠAlf red
g un
ch itz
ĠIn valid
ĠP ad
Al gorithm
Ġsup plement
Ġexpl ored
Ġpure ly
Ġassess ment
Ġens ures
S napshot
Ù ħ
ĠCon sequently
ran ean
Ġsuper ior
Ġaggreg ate
it ud
ming ham
ev ens
As set
Se ptember
Sche dule
ĠC ook
Ġfin itely
dom inant
Ġres ign
ĠRail road
ĠSchool s
Ġim posed
-------- --
Di agnostics
ĉĉ Ġ
S elf
ub ern
18 94
Ġ' "
Ġseek ing
ĠS eg
ĠMarg aret
sim ilar
ĠDef ine
Ġhom ot
Ġrest ore
superv ised
Ġprov en
Ġcl ar
RE CT
C am
Ġb ath
Ġgrad ually
t uple
Ġmay be
UB LIC
f av
UR N
Ġcritic ism
ĠE V
ĠPitt sburgh
v p
on line
ĠB ed
ĠCamp bell
A ir
ĠEd itor
ĠB H
Ġb ishop
Ġcert ificate
ĠJ S
Ġconstitu ency
ĠU pon
}. \
B reak
O ctober
ĠG ulf
HO ME
Ġtrans it
v skip
Ġtherm od
um ar
g if
>< !--
ĠV enezuel
p ad
Ġbuck et
Be en
Sh arp
Med al
ĠSar ah
ĠN ep
55 5
Jan uary
ĠE ss
fe atures
ĠDak ota
Ġb om
St ation
IC ATION
B N
Ġl ongest
Ġsp ending
": "
Id x
Ġsuccess or
Ġour s
13 6
Ġorgan isation
ort on
18 88
un ion
ĠN ull
ter y
Ġrestaur ant
ĠOn line
> ${
Ġlat ent
Ġf i
Ġkind s
ĠT ABLE
ĠRes p
SP AN
Ġl in
C odec
Ã¨ re
st ellar
an es
k ern
ox y
AV E
ĠWARRAN TIES
Ġch a
Ġpass age
ud son
ĠM O
S ide
p otential
re pre
) )$.
ĠN ic
ĠM achine
å Ĭ
Ġden ied
Ġre tail
Ġpermut ation
g on
Ġpremier ed
Ġcompet ing
D onald
ĠM ountains
to oltip
Ġhyper bolic
s ame
Ġmark s
Ġleg acy
Ġjud ges
red ited
13 4
Ġloc ality
) |^
inn ers
ge o
fra gment
b ib
Z Z
tain ers
D TD
= }
j amin
Ġgovern ments
A fr
ST M
Ġm aintenance
Ġpubl isher
ĠM atch
. (\
pert urb
ĠR io
ig ible
Ġdisplay s
Ĩ Ĵ
Ġdrug s
ĠD allas
(" \
Ġprison ers
Ġwith d
Ġacqu isition
ĠK on
sl ide
Ġs urre
Ġexpl oration
. ;
ĠRob inson
me as
Ġwav ef
as hes
Ġp m
ĠR y
Ġreg ulations
Ġcorpor ate
d ifferent
ĠS tage
mem bers
l ag
Ġexpand ing
Ġa f
Ġpack ages
Ġ\ #
d rag
ĠH ell
Ġm outh
uc lear
ĠCent ury
ial s
)} =
Ġnumer ically
Ġver b
B oth
c urrency
ĠAdd ress
B its
ĠG irls
ine a
display math
ĠE mb
it on
ou ver
enc er
Ġfraction al
ĠBrook lyn
th a
ĠMur ray
D ue
ĠJos Ã©
Ġcap abilities
ips chitz
Ġbreak s
Ġcan vas
Ġequ ally
Ġpar agraph
Ġdr ift
Ġdev oted
With out
Ġwith draw
Ġm oth
writ ing
et es
im p
Ġfrequ ent
ir ates
Ġso il
Ġrail road
Ġreve al
). }
Ġde ployment
g ue
om atic
ĠBas ic
ĠLim ited
Ġd st
Ġc ot
Ġlog ical
Ġbeh alf
C irc
alax y
al ities
ĠA I
Ġext ending
Ġdef ensive
link ed
ĠS ymbol
Ġ' @
Ġprepar ation
ĠG ray
ĠW ol
u art
ĠBro thers
ĠKE Y
om ing
Ġhand led
P REF
ĠCO L
. :
Ġexcit ation
Ġcompos ite
i ph
p q
Ã³ w
ur ers
Ġathlet es
Ġkil omet
Ġrelax ation
it ian
ate way
}{ $
}\ }$
ĠS end
st eps
Ġformul as
Ġd uties
ograph er
ver ify
Ġinstall ation
> [
pack ages
dis k
Pol itical
Ġmeas uring
ĠO P
Ġsuper conduct
ĠT ol
ĠF ro
De ep
A MP
B F
ex act
ĠAr n
ĠM obile
ĠRec all
b ecause
L U
he ets
lic ts
Ġnorth west
! (
Control s
t v
th an
Ġgr ass
String Builder
Ph ys
ĠMa ine
Ġmar ine
Ġgu ess
gener ic
se en
Ġdeploy ed
ĠMet ro
ĠO ct
ĠH ind
Ġc ash
Ġthe ater
ĠG il
Ġreli ef
Ġt f
ĠCar ter
ĠMethod s
Ġprot otype
olv ement
ĠStew art
Ġan ten
Ġviol ation
h op
RE T
Ġbound ing
ĠL ane
DE X
Re ason
40 4
ĠI ce
ĠCH ECK
Des pite
h pp
i u
Ġra p
ĠMari e
ĠSt ore
O cc
sd k
Ġweek ly
th ird
ĠCons ervative
SP ACE
Serial ization
Ġrig id
ĠC os
ĠV ar
ĠW oman
Trans ition
iv ities
ĠLog ger
V I
De cember
Style ID
ract or
ĠMond ay
}} +
run ning
ĠB O
Ġdep uty
Ġfor th
18 65
Ġrender ed
n ear
Ġmem orial
ĠN um
LA Y
jav ax
Ġfem in
Ġcon clusions
Ġre act
includ es
Ġapparent ly
Ġpre lim
Ġev ident
and al
ĠLank a
ĠOb ama
ĠW ang
Dec imal
R ound
Ġim prison
Ġg ram
Ex ecute
5 000
Run ning
ĠI gn
tri ang
elf are
ĠBe at
Ġv eget
tag on
he x
cm p
et on
Ðµ ÑĤ
Ġ- =
Ġ ere
Ġm apped
F ixed
Ġlimit ing
local host
at in
Ġal coh
b rev
Ġbox es
Ġcompos ers
Ġst uff
ĠOr leans
ok a
Ġmut ual
Ġout line
P riority
Ġelim inated
ĠCh ampion
ia o
Ġg ang
app y
vel oc
W I
ĠTam il
ĠBOO ST
i at
t ile
Ġm igration
ĠQ CD
Execut or
R ules
g p
re view
igh bor
Ġf urn
Ġmulti plication
(' <
ĠM ars
c fg
g ap
ĠW rest
ĠK r
Ġchild hood
Ġg ro
] _{
Ġsurg ery
apt ist
P aint
ĠWe bsite
ĠWhe ther
Ġe g
Ġf est
Ġro se
Ġvis itors
c ritical
al ry
Ġrele ases
Fe atures
Ġelect rical
ĠD A
ĠCon vert
Ġc rown
Stat istics
S chool
Ġw ounded
ĠMov ement
Ġh a
Ġcrick eters
__ ["
ĠAfghan istan
Ġreg iment
usal em
4 50
ab e
ĠBy te
Ġs essions
ĠJ u
Count ry
Ġcohom ology
ĠPubl ished
Ġval uable
stats models
N eg
ĠFrank lin
Ġ( #
Ġstr uck
an ies
Ġcontinu ity
S uch
cast le
Ġ\, ,
Ġcancell ed
ig ator
ad apt
pos itive
get Message
) }^
og a
let ion
ĠMan ager
Ñ ĸ
Ġo ct
w right
Ġoff ensive
ĠT rib
te chn
h ai
Ġcoupl es
Ġas set
k k
ĠS SL
build ing
ult an
Ġ\\ [
Ġtext s
Ge orge
ĠR an
Ġan notation
ĠO blast
ĠJim my
sh are
Ġkn ock
P romise
Ġman ual
Ġre semb
Ġo x
et ry
ta rea
Ġre tain
ĠB ible
Ġher itage
Ġsp oke
id i
B G
Ġf acing
ĠWith out
cor rect
ĠMem bers
ĠArt icle
ĠKar l
Ġch amber
ĠT s
Ġtrad ing
@ {}
Ġdeterm inistic
mark er
Ġfund ed
p read
Pro fess
IL ITY
Ġm irror
ĠMor ris
ĠR ot
Ġenter tainment
Ġven ues
n od
man agement
I ES
H H
Ġco oper
iv ia
Ġjournal ists
Ġhead ed
Un iform
hes es
not ification
Dis k
Ġw orse
Ġis instance
ĠB Y
Ġdeform ation
Part y
Ġi i
Ġpl ain
ĠCom ics
get Class
Ġex cluded
ke ley
t oc
ĠR ain
Struct ure
Th ree
lin ux
ĠZ one
Ġactiv ist
Ġsur prising
Ġs ink
iv an
2 30
ĠNaz i
Dist ance
le in
Ġ| =
ak s
12 9
Ġw ider
Serv let
ĠPro file
Ġbos on
ham mad
hat tan
ĠM aj
stit u
Ñ ħ
B ul
Ġart ificial
' )\
au i
tim eline
Ġpotential s
AS H
Ġsound track
Ġrep air
grad uate
Own er
comp ass
ĠBern ard
ass oci
Ġh ospit
ĠSt ein
un lock
Ġretri eve
ĠCh art
olut ional
Ġne uro
ĠPro duct
Ġsyn tax
add ed
" ];
Ġcryst al
Ġre nov
ĠG C
Av ailable
Ġread ers
um ann
Te am
ĠF ight
claim ed
BA SE
ĠY e
Ġgener a
ast s
att ed
rot ate
Ġarrange ment
Ġgeodes ic
Ġaff airs
Ġcritic ized
ic ates
Ġanom al
ĠE uler
sat isf
ĠR ud
Ex amples
ĠCom ponent
med ium
Å Ħ
h um
w alk
Ġpar ad
TableRow Color
Ġre n
Ġmeet ings
Ġb on
ĠAd v
dr iven
ick ing
L ang
b ishop
f older
op les
Ġunus ual
ĠMark et
ĠR ural
' },
g ow
( /
Ġs ympt
ic he
Ġbe ar
Ġvis ibility
_{ {
ĠĠĠĠĠĠĠĠĠĠĠĠĠĠĠĠĠĠĠĠĠĠĠĠĠĠĠĠĠĠĠĠ ĠĠĠĠĠĠ
PH P
% "><
ley ball
ĠLore ntz
ra ctions
ĠD ub
Ġnav al
Ġt all
order ed
Cal endar
Ġproport ion
Ġcon front
Ġvis iting
Ġexhib its
a que
umb ent
Nov ember
iline ar
p al
Ġ` ``
ut ter
end point
Ġs ends
Ġd ating
au er
Ġconv olution
ur ities
ĠH ad
iter ranean
L ow
ur ring
Ġinstrument al
neut ral
P lease
fr ames
Ġpaint ed
Re act
dec ode
Ġneglig ible
A ctions
) <
e enth
È Ļ
Ġs ke
V C
ap ing
d ing
New ton
ish ments
Ġag es
ĠSy ria
Ġs ender
Ġimprov ing
}| ^
B us
ĠD raw
}$ ).
LA B
æ Ī
add le
OL D
ĠV ik
Ġout flow
em ale
Ġ' #
th umb
Ġprov incial
ĠH end
P OS
qu o
ri el
ĠAct ive
Ġ[ -
ĠPort land
h n
ard ing
Sec ret
ĠL iverpool
Ġcount ies
v y
d iction
Ġob st
per iments
18 87
Ch anges
con current
A lex
ĠU lt
Support ed
Ġcons iders
Ġmiss ed
clus ively
writ ers
Ġh ill
pl aced
M ix
Ġr ivers
Ġtang ent
Ġden om
Ġident ifying
Ġproof s
pe ction
ĠS cal
S n
ĠPl ant
mar ine
desc riptor
Ġsurround ed
Ġc up
c x
ĠRun time
Ġl ibraries
ĠJ ob
fig s
Ġderiv ation
ĠPer formance
Ġvir us
d al
ĠPol itical
T L
new s
Ġuser name
Mod els
PRO C
Ġen forcement
ig m
Ġstream s
Ġregular ization
Work er
}}\ ,
d st
Ġex clusive
Cont ract
Ġrad ii
math ds
re z
ba ij
à ¥
Ġaim ed
IN VALID
Ġcr imes
ab olic
ĠN ar
opt imal
le tt
Ï Ĥ
ant ine
Ġa w
Ġar ises
Ġfair ly
b ranch
em or
B ucket
d elegate
AT URE
ey ond
pro c
ĠConf eder
Ġremov es
Ġrecip ient
Ġred irect
Ġpro ton
Ġp ose
ĠL L
ĠP rior
}( -
Ġrel ating
Ġver ified
Down load
Ġthem es
Ġmetall icity
Ġrel oc
ĠĠĠĠĠĠĠ Ċ
zer baij
cl ock
Ġin cl
ĠGener ated
Ġfocus ing
Ġformal ism
ract ed
Ġdevelop ers
ĠS pect
ĠAp pe
ĠImm utable
b urst
Ġresc ue
Ġext raction
man y
Ġpaint ers
Ġun success
ĠEx change
Ġdest ruction
Ġfam iliar
Ġspe aker
Ġcould n
ov ich
ĠSh ould
Ġfall ing
Ġh ook
Ġcelebr ated
Ġencou rage
99 99
' =
min ute
ĠT i
B er
ĠGra ham
D an
EN ABLE
sche me
Ġrul ing
tem perature
Ġn ested
ĠB ag
! </
S tage
T om
Ġf at
d jango
Ġalloc ated
J ew
da pt
inter action
path s
Ġinflu ential
ustr y
Cre ated
b ucket
Ġforest s
cent ral
def er
Ġthous and
ĠM ack
erm ont
nes day
Constraint s
I l
Ġre putation
Mich ael
Load ing
Hash Map
Ġsub str
LO AD
Ġb are
Ġpost s
Match er
comm unic
se cret
ĠMad rid
2 10
HO UT
ĠS F
ides pread
Det ector
S am
OR K
Ġal igned
trans l
Ġin coming
Ġb arrier
ĠÐ ¸
}_{ (
Ġdec oder
ore l
ĠA ld
ĠA rena
os er
Ġinv olvement
Ġp sy
G old
decl are
18 64
ĠCar ib
Ġland ing
at able
Ġpick ed
' +
ĠB aker
TR AN
ĠG ill
Comp at
Ġcolle ges
He alth
ĠL abel
17 5
ac les
spect or
AP P
in x
ĠSt udio
Ġstar red
I ss
ĠK u
Ġhapp y
ug s
fra ction
ĠB ranch
anc ouver
ecl ipse
r h
Ġ ib
Ġsort ed
ĠB reak
Ġinitial ized
Ġ' -
Ġin ject
ĠNiger ia
c oupl
ĠR ule
ĠAl tern
ĠR ico
C at
Ġstrateg ic
respect ively
abl ing
ĠCh apter
app ings
Ġst retch
ut down
Ġd ress
TO M
18 86
ren ew
part ition
Ġefficient ly
}\ !
Ġas semb
Ġtem por
ĠStan ley
Ex pect
Ġcount ing
hen g
ĠS ax
18 50
Ġt ie
p ent
ac cur
Ġelse where
d v
ĠN ation
prot ect
ĠT ry
Ġin fl
pro j
FLA G
oc om
t z
Ġbr ings
em ed
s ources
hoen ix
A SS
it i
process or
Ġtalk ing
ge on
Ġexper ts
l r
ĠColon el
' ].
con cat
ĠB illy
Ġsu icide
Ġgen etic
K K
Ġan cest
duc ational
get Attribute
R F
ĠA ws
ast ery
Ġobserv ational
ĠHand le
N ECT
Ġincre ment
qu estion
Ġmechan ics
Ġcred ited
ĠPol y
Ġsub stitut
D ITION
}^{ (\
b oy
Ġcom ed
18 61
] ['
Ġrad ical
Ġcard inal
st ation
Or iginal
Ġart istic
R G
our t
ĠR andom
}, {\
Ġsusp ended
CRE ATE
ĠEv ans
I FI
Ġvot ers
Ġp ip
Ġnewsp apers
ul ates
f iction
IM IT
R M
Ġscal ed
im od
Eff ect
Ġcloud s
Ġex tr
G ood
p k
Ġann ih
re gex
ĠT ob
ĠN BA
' -
Ġdecl aration
ĠStud y
uff ix
in verse
ĠTh ose
hol m
Ġcal endar
on na
stat ement
Ġel astic
inn ed
Ġext ensively
Ġstay ed
Ġeffect iveness
C amp
Ã Ł
ĠMod ule
Ġaut hent
ran g
mark s
a ac
Ã ¦
Ġt s
Ġphenomen a
Ġpre gn
Ġknow s
Ġsuggest ing
c ord
ol ia
Al t
int s
prov ed
Po jo
Ġorient ed
Ġal leg
u ates
Ġhe ating
Ġran ks
Ġ\ }$
ĠT ower
op ing
ĠF un
ĠJer usalem
Ġhabit at
Ġcomplet es
Ã ½
d ocker
ge ms
Ġr ings
Ġdeterm ination
ĠR ub
pe g
Ġestablish ing
ĠS yn
Ġappoint ment
ĠSh ar
ĠM ess
oth y
ADD ING
ay er
çĶ ¨
Ġsouth west
ĠPh ys
Name Link
Ġexist ed
Me asure
$ (\
ĠJohn ny
book s
w iki
ul u
Ġstr uggle
ĠM I
Ġd otted
ĠÐ º
is ch
Ġres um
ĠPr incess
Ġcoast al
i est
C amera
N orm
ĠF ound
mention ed
Ġperson ality
ij ing
ĠBir mingham
Ġc ous
Ġ ell
ĠPh ysics
el o
ĠT OP
ĠC PU
G l
re ck
/** */
B u
ĠG T
3 20
it ime
SP AC
Ġoscill ations
Ġspec ification
ĠR and
app oint
O FF
l ua
Enumer able
sc an
ĠT ake
D id
on ian
ĠUn like
met rics
Do ctrine
B s
Ġwe ar
T own
Ġcav ity
ĠS ho
as is
m ot
Re pe
ĠMin or
S il
ĠR on
grav ity
ym an
Met ric
ĠV I
Ġa z
ump y
Vis ual
Ġatt orney
C annot
Ġcheck ing
18 84
Sc ore
Ġhel per
T og
no frame
C LA
T ur
ĠY ugoslav
ĠÐ ´
sp ir
ol ate
ld s
ĠK os
Ġc ategor
ĉĉ čĊ
ĠNot ice
Ġemer ged
s ure
ught ers
ĠMA X
Ġc arrier
Con v
Ġneighbor ing
Ġdiver gence
Ġg arden
m ates
Ġthick ness
urrican e
Pr ice
Ġco operation
col head
r k
at z
Ġprint f
Ġr ising
Ġband width
miss ible
Ġ )$
Ġin variance
D ict
)\ ,\
. ),
Ġperm itted
Ġfor cing
Ġpeak ed
13 2
ĠN ord
Ġpart ly
Ġexception s
Ġre b
res olved
__ ,
S eq
Ġd ated
ĠWay ne
Ġfeas ible
Ġill ness
14 5
ĠH ero
qu er
Ġimag inary
ĠMatthe w
add Class
Ġdist urb
RE SS
Ġsqu ares
B usiness
ĠT rophy
Up per
Com ponents
ĠAd vis
Ġmiss ions
Ġinequ alities
Ġadvert ising
script s
let ter
== =
L ead
ed ed
= {\
W alk
b ibli
Ġbi ological
18 81
Ġaff ord
ĠJ ason
Ġarray s
L ie
Ġant icip
j ackson
ĠAthlet ic
Ġs alt
SOUR CE
google apis
ĠCom b
Ġtra il
AR G
Ġa apt
): =\
ear ing
M ean
iv o
ĠL ate
l ater
ĠS audi
ain ing
Ġshe et
Ġsuff ering
Ġvess els
mat ches
L arge
ver gence
w hat
Europe an
Ġpo em
Ġattract ed
e or
urs day
p mb
x rightarrow
ĠU til
Ġr id
ĠN an
EX PORT
ĠGl as
ow ed
Ġim press
Ġgen re
Ġsh ifts
ĠL ad
################ ################
ĠDel hi
se gment
oped ia
ĠP ictures
H en
ĠGu y
en vironment
ou p
Dem ographics
Ġg ay
ĠO d
Ġvalid ity
ĠSim ilar
ĠG ary
Ġw idespread
u ke
red irect
Ġcell padding
Ġtown ship
ĠF low
at ile
up dated
h yp
Set up
be ans
Ġachiev es
ĠL GBT
\ }}
Ġguitar ist
al is
ig s
Ï ħ
Ġvari ability
Ġdebut ed
S K
lot te
MP L
Ġar row
Ġbusiness man
tim er
Ġmanif olds
Ġmathemat ics
ĠCat hedral
Ġout comes
N L
ĠEn c
equ ate
ey er
EV ENT
Ġrel ay
n r
Sp anish
ple ctic
` )
ĠSing le
100 00
ĠF el
18 62
schem as
Ġdes ire
Academ ic
ĠF ALSE
ĠAss istant
^{ [
Ġcompan ion
ĠB ORDER
or ange
Ġre actions
TER N
ĠW ind
Ð¾ ÑĢ
Ġdifficult ies
ĠB ud
ãģ ®
R ank
ge ometry
go og
P ADDING
uk a
grad ed
P s
ĠBroad way
B ACK
d td
^- $
18 63
vari ables
ur se
' (\
ĠCh allenge
ĠA the
av irus
ĠD J
Ġcontribut ing
Ġdecl ined
ĠMit chell
}$ ;
ik o
ina e
omet er
Un ivers
Ġvanish ing
Ġind irect
L ines
t own
ĠCl inton
å Ń
led gments
ib ling
C ritical
Ġhelp ful
') ->
ĠOC aml
Ġoccasion ally
ĠIllegal ArgumentException
Ġd owntown
Ġsub stitute
Ġobserv ables
Ġout break
ow s
Data Type
ht bp
diag ram
op am
e u
Ġad ults
Ġmedi eval
center line
Ġminim ize
in formation
Ġsequ ential
ĠAtt orney
sc riptions
Ph ase
Ġam pl
pay load
18 82
Ġin ternet
tra ined
il ty
os ph
ul atory
Ġf lood
ĠK it
Ġst rain
ĠArg ument
Ġanalys es
sup p
ber ry
Ġrele g
Ġs a
Mod ified
B ER
ĠDef ence
andid ate
Ġcontrad ict
f ailed
Ġwh ilst
ĠO range
task s
Ġrom antic
Ġel der
B etween
olog ically
Ġb ott
ĠJ azz
r ise
ĠCom puter
Ġ( .
Ġere ct
ĠV ic
Ġthreat ened
Ġm ic
Ġw onder
Ġt ort
big oplus
Ġsp oken
h is
\!\! \!\!
redu ce
ĠA qu
Ġconven ience
ĠCon sole
amp ed
prec ision
Ġp s
Form atter
il iation
Ġassum es
Ġb orders
for ced
Ġex pr
ĠMat hemat
ĠC ass
ak ers
sc ar
draw able
ĠMan hattan
U AL
. ")
ĠDemocr ats
16 8
Ġlocal ization
Res p
Ġ æ
ĠTra il
Int ent
Ġellipt ic
Ġelect oral
}} +\
Ġdelay ed
? ?
Ġpro spect
Ġj ets
P ush
ref resh
ĠSt ars
ĠChar lie
sm art
un i
MA GE
>( <
Ġfeel ing
in ject
ĠMunic ipality
Not ice
Reg ular
ĠSpe ed
Ġcomp ound
ĠPref ecture
su it
C ost
ĠK ath
v endor
ep age
Ġg allery
Ġrep ly
value Of
init ely
C UR
e ctions
ĠG W
ier ra
Ġo xygen
}}\ \
ĠS r
Ġg rain
ĠPhil osoph
an ne
ĠBl ues
ĠW atch
Ġda ughters
Ġdise ases
iv ariate
ĠEx pression
Ġprotest s
Ġput ting
T ry
ĠAthlet ics
Ġcell spacing
tabular newline
/ )
ĠR ank
ĠFI FA
Ġsound s
Ġ ^{\
ch unk
Ġdefault s
est imate
esc ape
Ġsimpl ified
ĠMu hammad
ov iÄĩ
Ġaff ects
Ġrel ies
Ġqual ifying
F B
à ¦
Ġb acter
ĠE sp
indu ced
ĠC ultural
}$ $
Ġoptim ized
var s
ĠI van
ĠG rid
ĠRes ources
om on
Ġ$- $
Ġking dom
Ġfriend ly
E ven
ĠB asketball
View Controller
Mut able
ĠIm port
ĠS A
Ġst em
s outh
ĠNov a
Ġmodel ed
Thom as
s ent
. (
Ġhor ror
run ner
Ġab elian
Ġ" ${
r ically
}} -
Ġaut hentication
set length
ĠL evel
ĠC M
Ġout standing
Rev iew
Ġfl ash
og ue
ĠThe ory
C art
max cdn
. ',
Ġmod ular
Ġmon ument
ĠEgypt ian
i ating
Ġcontinu ously
maj or
1 19
am er
ĠInt eg
Ġcomput ations
V O
s heet
Leg acy
F ar
Ġsummar ized
S ets
war z
Ġcon fer
L y
it Hub
Ġdef ence
S yn
Ġtot ally
Ġinj uries
Ġev olved
Ġfinal s
list ener
ĠR ender
Ġmat hem
Ġsurve ys
}} ^{(
ĠF ine
] </
Ġg al
Ġdanger ous
Ġpred ecess
Ġf oss
keep er
Ġ======= =
Ġcl s
ĠâĢ ¦
ĠB urg
ĠI an
ĠL uther
14 7
ĠSer bia
h ad
ĠElect ric
Can vas
Ġelectric ity
Ġspirit ual
50 9
T ensor
Ġh ip
q q
p ipeline
ID ENT
ĠCl ar
U nd
x ym
Tem p
ĠThe ater
Ġrel ativistic
ĠH ost
G LE
Ù Ī
ĠR u
veloc ity
ĠM ix
Ġthir ty
18 83
Ġvess el
) /\
Ġ' ,
ĠAnd y
rg b
U CT
Ġviol in
P rom
Ġweek end
Ġnom ination
Ġqu ad
ĠF reedom
Ġsub mit
Ġmount ed
desc ribe
SU CCESS
Ġguarant ees
Ġreconstruct ed
Ġass ass
Ġdet ectors
Ġcarri es
trans fer
Sup press
Ġs napshot
F actor
aint s
Ġadapt ive
=" {{
Ġguarant eed
Ġb attery
ĠL iving
ĠJ osh
Ġconver ge
ĠDe bug
SPAC ING
ĠSal v
g ls
$ --
Ġrecogn ize
ĠT ournament
Ġencourag ed
Ġsurv ive
c ached
ĠL ud
Ġterrit ories
end ers
ator ial
Ġg host
Ġb ird
ĠInd ians
ĠN ad
Ġinteract ing
execut ion
Ġenjoy ed
Scal ar
c amera
Ġmot ivated
ĠCommunic ations
Ġf asc
Ġt ension
ener ate
Ġin gred
em p
inc ipal
h h
ierarch y
ĠNorm an
ac ef
Ġsingular ity
187 6
ĠA y
Ġdis ag
ript ors
Ġaltern ate
am ination
Ġthread s
Ġaccord ance
13 7
ĠAlex and
it ure
r us
Ġmer ely
Ġbr ick
Ġp ian
text ure
if le
ĠSp irit
p n
}) }\
ĠPro test
187 8
B bb
Ġl ens
Def ine
mod ified
S mall
(' ./
f loor
Ġaccur ately
W rap
vers al
ym p
Ġsup plies
Ġr hy
to Equal
J ac
I p
Ġseem ed
Comm it
Ġc p
Icon Error
Ġm ath
Ġinitial ization
allow ed
ynchron ous
Ġsequ el
m usic
pr ice
aw t
Fe bruary
Ġdefe ating
] ^{\
ĠE C
ĠDate Time
OT TOM
st ri
M esh
win ning
W F
ĠTe ch
Ġb igger
start s
Look up
Ġcontrovers y
Ġmag azines
Tr igger
ĠMe V
Sc ene
16 5
date picker
o j
LO C
ĠHawai i
Ġvict im
Ġext inction
z ym
ĠD im
Ġtrans c
p aces
Ġuniqu ely
po i
Ġf ictional
Ġreprodu ce
ĠSt orm
Ġsub scription
Ġassert ion
cs v
mult ip
ĠW a
Ġadvers arial
ĠWIT HOUT
="../ _
N ONE
ST ART
ĠW ing
Ġsup pressed
w br
Key word
ĠCarl os
gu ide
ĠMuslim s
] ).
G D
Label s
ut r
Ġhol omorphic
2 25
ĠH orn
ordin ates
Ġmod ifications
Ġint ellectual
Ġamong st
+ |
S ig
Pro du
> ../
Ġex clusively
olut ely
ĠCarib bean
Ġso ph
ĠComm ons
g tr
T ING
ev ing
18 00
ĠAl aska
Ġcontrovers ial
is i
ĠN eed
Ġflow ers
ĠRich mond
Ġd oubt
F oot
Ġlist ening
ars ity
Ġdepart ure
pi pe
om es
ĠM ut
ced ure
Ġlog in
depend encies
C ross
ĠMov ie
c as
ĠWith in
set Text
Î ¼
ĠA uth
H A
ac re
ĠInst all
Ġcom fort
ĠI T
ĠC lear
h skip
Ġcond ens
ow ell
15 5
IconError Encoded
ff ee
18 75
Ġw rapper
Comple x
Ġp ictures
ĠAlber ta
Ġo cean
ie ge
ĠSt re
ĠS outheast
ME SS
en ario
ĠWar ren
Al umni
Ġk ids
vious ly
Class Name
ĠGal actic
ĠPr imary
Ġsupport ers
**************************************************************** ********
eff ective
DE D
ĠPier re
Ġph rase
ĠTR UE
ĠF ather
el in
Ġm ountains
sc opy
ĠS ession
k u
iber n
), (
^ +\
ĠS ide
conv ex
Ġf ishing
Ġconsist ently
Ġadd r
ĠO wn
pol ar
s ymmetric
ĠPr im
styles heets
Warn ings
Ġg ift
ĠPark er
Ġhistor ians
ĠE RR
s olution
Ġsup ern
ĠOper ations
ĠYork shire
ues day
ĠCELL PADDING
ĠCELL SPACING
Ġmoder ate
bal ance
ĠNAS A
n ecess
Ġsymmet ries
late st
ĠDer by
ĠNev ada
attr s
Ġminor ity
Ġbeli eves
ĠC T
Ġfil med
ess ment
ĠB S
Ġdwar f
Ġphys ically
ĠCommission er
Th m
Ð¸ ÑĤ
ĠParamet ers
18 67
Ġfavor ite
ar ound
ĠBen jamin
Ġobserv ing
ĠLic ensed
ĠMo z
Ġver ification
P ane
Ð ¹
) ~\
Ù ĩ
P ress
è ®
Ex it
ter ms
pl ain
ij k
cos ity
A K
ct ree
ur u
ĠW olf
H ello
ĠV a
cre p
Ġb ins
}, \\
fil ters
ĠI M
f olk
ĠM ong
Ġactiv ists
AR RAY
sign al
Ġp c
Ġprelim inary
m g
ĠFl ore
ĠT yp
ous el
re strict
Se ason
ĠN ature
scal ar
}] $
Sub ject
pag ination
Re ceived
Ġinit iated
Ġins ight
ĠPrad esh
ster dam
TH ER
m ys
Ġgovern ed
Rel ative
Ġop ens
Ġarch ive
ĠMean while
Ġn ice
op acity
Ġmunicipal ities
m agn
Al ert
15 00
Ġagre es
t one
Ġphot ography
14 6
: %
Ġask ing
p ixel
or bit
ant ly
ĠQu ant
Ġ\| _{
xym atrix
Ġwill ing
Ġ rib
ĠT arget
Ġwh atever
ĠB achelor
Ġdeg rad
ĠM atrix
st ad
ĠBar ry
An n
H F
ĠA B
top rule
ĠB orough
ĠWrest ling
Ġup load
Ġj ournals
Con clusion
Ġann ually
Ġar ithmetic
ĠS elf
rel ax
Ġt act
ĠC BS
l c
K ing
Ġelev ation
ME M
Comple tion
Ġf oo
æķ °
ĠN icol
ĠĠĠĠ ĉ
ĠPro perties
F ill
O h
L aw
Ġover se
br aska
Ġindic ator
Ġinform ed
ĠH old
L ou
r Ã©
ins ky
ent e
ĠJ ama
ĠS NR
per cent
erial ize
" ?>
ex isting
ok u
ĠP av
RA M
FORM AT
N ON
Ġconv icted
G allery
p ine
Bit map
ic ht
ĠAd miral
v dash
Ġ" #
Ġun expected
Ġlaw yers
left rightarrow
Ġtr uly
Ġ" )
Ġdem ands
Ġbright ness
'' .
> `
ph ysical
ĠCh o
ĠTig ers
autore f
con j
ett i
u cc
ĠF light
l it
un ks
ĠCh ron
Ġn urs
ĠMem ory
Ġagric ulture
Ġex ha
ig g
ĠMil an
ĠCon nection
Ġ( `
ĠEnt ity
Ġneighbour hood
ĠV ancouver
Ġvari ed
CR IPT
Ġ< ?
Ġk w
dat etime
ad v
lect ric
H ave
] ->
Ġover come
ĠĠĠĠĠĠĠĠ čĊ
IT LE
G al
f aster
at che
ĠT ax
ak ia
Al bums
Le ague
L ite
Par cel
ĠElement ary
Ġcap ability
a ho
ĠA x
Cal cul
Ġmaintain ing
ack ets
st ub
rit ic
ors ion
ĠMic hel
ĠC arm
Ġrep orter
Ġswim ming
Spe ed
um s
External Task
Ġint u
ĠS occer
Ġt ur
N I
ref lect
Ġweap on
ĠJ enn
Ġsup press
Ġperm it
Person nel
E LEMENT
Ġins pect
ĠBar bara
d ue
ĠR aw
M iddle
WA RE
ĠHash Map
he v
Ġwind s
big skip
Ġisot ropic
Ġcontract s
S ent
ĠH indu
pack et
contin ue
uc le
Ġc f
ĠProfess ional
Ġmin isters
Ġmag ic
Ġw ine
Ġliber al
Ġare n
mak ers
R ay
Ġman aging
\ -
Ġdis ks
yst yle
h p
G re
Ġcomm une
ĠAl bum
Ġcl im
ht b
orient ed
Ġparliament ary
ĠCub a
ĠP HP
b et
ĠRel ations
Ali as
$ &$
Ġt ube
F etch
g art
K L
C trl
M ount
Ġpo ets
f ollow
}] \
U r
ĠL ithuan
Ġafter wards
ĠC L
ĠAdd ed
qu is
rist ol
b ast
c ategories
ĠK IND
Ġg amma
Ġg rap
ĠEd ge
Ġsurv iving
Mon itor
cho ice
Ġinit iative
ĠP il
en ia
Ġfl av
Fix ture
Ġf o
m is
V A
Ġc able
ari ants
pre pare
Ġw et
sub Nav
13 3
ĠBel gian
Ġnot ification
Ġdiff ers
Ġinterpol ation
ĠCon struct
+ }
AR B
ĠInitial ize
us k
ge om
over e
Ġsold ier
ExternalTask Pojo
ĠS even
Ġar ising
Ġdist inction
ĠM ach
ph abet
ĠSong s
ĠR av
ĠP ic
ĠJon athan
sl ider
Sl ot
o ys
G est
M ot
Q t
ĠSaint s
Ġferm ions
d word
g c
Ġh istogram
S ol
ĠD oc
Ġor ange
ĠGre ater
^{ *}
separ ator
Ġeng age
Ġencounter ed
Tool s
ĠSc ript
Ġtor us
ch rome
amp ing
ĠLeg end
Ġcon gress
) ~
block s
G RO
Ġportray ed
ĠMed iterranean
Ġemploy ee
187 9
ĠFle et
ir k
cl i
ĠGu inea
al am
bor ne
ĠPro tection
Mod ifier
16 9
itud inal
ever y
im eter
Test ing
F W
B uf
ĠF ish
ĠEx p
ĠHun ter
D ry
rid es
Ġsl ave
__ _
] _
"/ ></
\\ \
Ġdiv ide
ĠBer keley
plement ed
it is
pi res
m x
ĠM eg
ĠC old
or ia
Cred entials
resize box
Ġcons ensus
et c
Ind eed
v ectors
ĠM all
Ġspec ifies
ĠH AL
Pay ment
ac iÃ³n
bibli ograph
Ġm ess
ĠV egas
18 68
Ġconvers ation
ĠRetri eved
7 50
d w
Ġsole ly
m ust
ĠPh D
ĠV AR
Ġw rap
tab les
g as
if iable
Ġprom ising
Ä Ł
ocr atic
Ġt ub
Ġprov isions
Ġlist en
ep he
+ $
Ġdoll ars
Ġelect romagnetic
Ġbl ank
ĠA zerbaij
ĠE li
Ġt ile
Ġwalk ing
Ġtal ent
ĠW ord
ĠCr icket
Own Property
ĠN othing
Ġearth qu
Ġguid ance
serv let
tog ether
Ġw orship
Ġamb ig
Ġdis placement
Sh adow
N eed
Ġa xi
oc o
Ġ" _
pt s
18 77
ĠF alls
ĠUr ban
bibliograph ystyle
Ġdiscrim ination
bour g
Ġh orses
å ľ
Ġend if
____ ____
ĠCom put
Error Code
inc inn
Ġaccomp any
Ġdevelop ments
Ġab road
Ġrender ing
COUN T
M or
ĠCh ern
Ġsuff ix
ĠSt op
ĠB ound
Ġlabor atory
Ġvis its
Ġpurs ue
187 2
hell o
g ra
ĠT u
us p
ĠFin ance
ĠSt ra
Ġinter fer
hib ition
... )
ĠB og
$ =
ĠF ast
Ġrot ational
Ġal ive
che str
ĠC red
Ġbeg un
File Path
] ),
Ġl l
Ġm ir
- ">
Ġf ro
Fig ures
G s
b idden
ĠMod al
U A
Ġbe ach
cel ona
inher ited
ĠSh a
ĠN BC
ĠS z
ne e
ĠR T
ĠB AS
ĠClass ic
ĠP red
ar as
Ġcommut ative
Ex press
ĠI mp
ĠT otal
ĠP ra
ph ot
Ġparamet riz
Ġcommit ment
Ġreflect s
ri ber
}} }{\
Ġstr at
O k
Ġpat ent
Ġharm ony
renew command
ÑĢ Ð°Ð
' ,\
Up dated
az el
Ġjuris diction
ĠPer u
Ġw ww
sect s
Ġs av
con figure
od ic
sl f
Ġste ep
T ip
Ġlist eners
\' {
ĠIran ian
Mer ge
ledge ments
ĠUnivers al
//////////////////////////////// ////////////////////////////////
> {
Ġplan es
Ġsympt oms
ĠR acing
eg u
ĠFin ancial
ĠF itz
gr pc
Ġl ingu
ĠM other
ĠNS String
compar ison
Pack et
ãĥ ¼
Lower Case
att en
Ġent ers
Ġaver aging
ĠOver all
ĠSer ge
Ð ±
uff le
ilt ers
> -
Ġbatt les
Ġcomp ress
ĠI L
C lean
Ġele ven
Ġs ax
Ġgrad ients
cur ve
ĠP sych
187 1
ĠFac ulty
ĠChrist ians
Ġrow span
Ġm or
}$ ),
Ġrest oration
REQ UEST
ĠAnd re
13 9
place holder
Ġp reference
I EEE
ass y
Ġsil ent
ath ers
db c
ĠColl ins
Ġsent ences
iv ot
) '
ele g
Ġdemonstr ates
moment um
ĠR ace
14 3
Block s
Ġpo ems
develop er
Ĥ ¬
Ġpoint ing
Ġconfigure d
ĠS ize
row Color
15 2
H ol
ĠWh y
ĠÐ ¾
Block ly
shall er
Ġinflu ences
incinn ati
Ġremark able
ĠGlas gow
ĠE ug
op ens
al ter
H I
{ },
ĠK i
ĠH ope
ĠPar ish
Ġarchitect ural
Ġrare ly
gtr sim
( `
Ġcl ause
Ġcontr ary
é Ģ
ĠP or
ap ps
ĠColomb ia
ĠBe ijing
FA IL
P N
f und
trans late
Ġcomm emor
Ġd ub
ĠW arner
bas eline
Ġflo ating
: &
Ġg it
quant um
h base
Ġ ions
Ġc url
ĠY am
Function s
Ġd rew
Ġpreced ing
b ing
ĠĠĠĠĠĠĠĠĠĠĠĠĠĠĠĠĠĠĠĠĠĠĠĠĠĠĠĠĠĠĠĠ ĠĠĠĠĠĠĠĠ
ĠFinn ish
ĠB ron
Ġres ervoir
Ġfl avor
Ġtarget ed
sh ifts
Ġmon arch
c ookie
cons ider
mult iple
publ ished
Ġident ities
Ġst ops
ĠU g
do es
ch at
Are Equal
i ology
} "/>
iv ic
RE NT
Ġcred its
="@ +
ĠMar c
Ġco in
ens en
Ġnarr ative
Ġt et
Ġ" ;
ine e
s amp
Ġsurre nder
elastic search
Ġel abor
ĠVer ify
- $\
pot ent
Ġphot ometric
pop up
Ġcycl ic
Ġw aste
pred ict
_ [
ĠM aterial
is an
ĠFe ature
n orth
ĠC ert
ĠF isher
Ġviol ent
Ch unk
Ġhom omorphism
Ġb io
Ġob lig
Ġp ushed
Ġke V
Ġ! !
Ġintrodu ces
Ġhomot opy
if est
var pi
Ġas ks
it zer
Ġfin ance
ĠEx amples
Ġre write
D one
Text View
ĠS id
Ġav ailability
manif est
Ġre start
ĠG ot
ac a
ĠIn n
enc il
Ġ} $
Ġdialog ue
ĠS ET
33 3
Def ined
ĠInt elligence
Has Been
ĠParamet er
Lin q
è ¡
Valid ate
13 1
f m
W ar
Ġoccur ring
}{ $\
Ġsent enced
ag i
Ġun likely
p ending
il o
Ġor chestra
M W
A U
Ġmod uli
B road
att ing
Ġcap s
uss ia
Ġsp rint
em a
Oper ations
Ġf inger
Ġcross es
(" .
section s
nob r
Ġstream ing
Sc an
ĠS now
ĠRoman ian
ĠF u
ĠSt ill
Back end
ĠF ab
hel m
Ġcoinc ides
Y our
ĠR ick
Ġattempt ing
Ġexped ition
over lay
IN IT
Ġnom inations
ira ble
Track er
op al
big gl
Ass ignment
ben ch
Ġ" );
m ov
af ka
187 4
isec onds
Ġ$ -\
F our
Ġwood en
Ġappre ci
ĠD ra
Ø ª
ath on
. -
Ġvari eties
ĠL is
ĠHar rison
it atively
Ġt icket
Ġm oral
mid t
Ġex clude
Ġpre dominant
Ġ\, .
ple t
Trans fer
Ġst roke
aw esome
Ġcor rel
Ġtim ing
ĠU SS
correspond ing
Ġs ectors
row th
Ġpass ion
bound ary
Ġwid get
et ta
ĠR ing
Pop up
ak u
ĠArab ic
ä¸ Ń
Ġsub graph
Ġc oding
ĠP ast
os hi
m itt
18 66
sub string
enn ial
ĠFil ter
ĠC rim
Ġalcoh ol
S ound
Dec oder
S B
Ġunder ground
Ġem otional
NG TH
Ġsynt hesis
×Ļ ×
Ġdip ole
ĠT oken
Ġthe at
Ġg olf
Ġneutr inos
ĠTog ether
In struction
Ñ Ī
ind ices
ĠI r
Ġk it
Ġact ed
Ġrot ating
ĠCon struction
Ġprocess or
Ġin ert
Ġprov ing
Ġin jection
S ir
Ġs oul
Ġs i
apt ers
ĠM ans
it ol
ĠV as
Ġinter faces
Ñģ Ðº
ich i
Im ages
Ġrefer ring
il ia
ĠWed nesday
cp u
w av
z b
ĠR oll
Ġfunction ality
ĠNich olas
Ġb at
Ġsus pect
cel and
Ġsurv ival
q a
Ġgrad uating
Ġimprov es
ic ious
M AN
}) :
ew ise
Res earch
P ipeline
_{ (\
ack now
Ġind igenous
Ġtw in
ĠComple x
C SS
Ġsens ors
Ġchampionship s
ĠB und
18 40
Ġflux es
P ixel
; %
Ent ries
bottom rule
ĠG round
A ff
}} )\
Ġclaim ing
am o
S en
Ġsu ite
I ME
re ach
iffer ential
Govern ment
ar an
An notations
ĠS ay
ĠM ind
Ġpriv ile
}\ )
f ers
eq q
Ġconjug ate
s lds
ĠL an
ĠC oul
Ġpart itions
ĠSum mary
sp ot
ot ions
ĠSte el
Ġdon ated
Rad ius
Ġdoub les
ĠCh air
ĠLin ux
prop ri
Ġl oyal
M IT
ĠE N
Ġer g
ĠV lad
Ġinc idents
re ma
ĠD ays
Ġpar ity
Ġreason ing
Ġan not
ert on
ĠCirc uit
Ġim plications
Ġput s
ri er
Add itional
ĠCr ime
Ġcas ual
Read y
Ġmer chant
E mb
Ġsus cept
U ntil
In her
ĠO K
f uture
hash Code
Ġle gs
cover ed
Rich ard
ĠW as
ĠF oot
qu arter
Menu Item
ĠB omb
aj a
Ġcharacter ization
ĠKir k
Ġart illery
ĠUn less
Ġinsert ed
ĠR oom
ĠD og
Ġcomplet ing
ĠB aptist
ĠM ol
Ġconsider ably
bra ham
ĠR angers
over flow
13 8
Ġb ag
Un ique
187 3
hen e
Ġcross ed
Ġlook up
ĠPro of
aaaa aaaa
ip ped
CO M
xim ity
ĠW HERE
ĠB ot
Ġh at
æ Ĺ
ij i
ĠRem arks
Ġemer ging
[ ->
ir s
ĠArch ive
sc hedul
Ġc rypt
te enth
^* (\
pend icular
Sec onds
Ġsquad ron
Comp are
Ġleg it
ĠM ig
ĠSer bian
ĠUs ed
'' '
ab atic
20 2
ĠJ oy
asc ade
Ġven ue
Ġl ying
Ġread ily
Pro b
Tax a
ĠC atalog
ĠL loyd
Ġent repre
Ġfra ud
Ġexam ined
Ġlast ed
n ail
Ġnucle i
K ernel
Ġsimpl er
B ridge
__ .
ĠInd ustry
ov en
Ġswitch ing
mut ex
id ency
Ġparticip ating
S rc
NR AS
HasBeen Set
Ġgener ations
ĠS ans
ĠM icro
arg v
Ġpres um
Ġrobust ness
Medal ists
F i
ĠP UBLIC
comp atible
Ã ī
stream ing
SH A
ĠOl iver
ĠAct or
]{ ./
Ġdual ity
Ġexponential ly
ush ing
I ll
m icro
C over
ĠEn cycl
c art
Dest roy
ĠTurn er
ĠLiter ature
Ġprotocol s
h uman
). $$
Ġth orough
look up
Ġtrend s
RO OT
M obile
ĠN ormal
G uid
Ġcab inet
Ġre ven
Ġg ard
O s
ĠD CHECK
list ing
Ġf abric
Ġn m
)} ]
Ġc ogn
Ġobvious ly
Ġdes ert
Ġc urrency
Ġcompos itions
ĠBy z
ĠF ly
Ġyou n
MESS AGE
st retch
ĠH unt
Sign al
Hon ours
Ġpop ulated
Ġcoal ition
Ġquant itative
Ġyoun gest
in ology
ed ges
Ġcaref ul
Ġt orn
Ġpair ing
ĠB egin
Ġel igible
Ġchar ter
ĠJeff erson
Ġ( {
ĠH udson
Ġ} ).
Ġ\\ \
Ġqu bit
Ġinterview s
Ġcomp atibility
Ġdev iations
ph al
idel ines
Ġman ually
Ġs itting
Ġre cre
Sche me
m or
ĠV el
n able
Ġattr s
az ure
ĠVictor ian
Ġreported ly
Ġimm igrants
Mult iple
Ġ ì
ad apter
RE S
Ġb ridges
ĠE rr
Ġleg islative
........ ........
it ro
ic z
ĠSt evens
Ġ$ ('#
="# "
ov an
ĠTerrit ory
Ġg ates
chi at
m ir
Ġkey board
Data Source
Ġt ill
Ġposs ession
Ġport s
vis it
Sub scription
ancell ationToken
ĠRob in
b v
Ġo mitted
Ġen velope
Ġtravel ed
Ġnucle us
Ġapproxim ations
Ġt ies
initial ize
Ġpl astic
Ġscient ist
Ġacknow ledge
ĠTreat y
Ġloc ale
tool bar
ĠSym phony
ĠE ston
Ġref resh
Fore ign
as ia
ubern etes
Ġtim er
> .</
S un
S ector
For ward
}{ !
Ġcons ent
Ġscript s
cam el
Ġst ake
ch annels
Ġfarm ers
ĠP od
Ġâ ĨĴ
Ġorgan isations
ĠPack age
Ġorig ins
ta wa
Ġjoint ly
i ot
to ctree
Ġabs ent
ĠG arc
ov sky
text style
Ġspecial ized
M oths
ounc ill
m acro
ĠSh adow
ĠĠĠĠĠĠĠĠĠĠĠĠĠĠĠĠĠĠĠĠĠĠĠĠĠĠĠĠĠĠĠĠ ĠĠĠĠĠĠĠĠĠĠĠĠĠĠĠĠĠĠĠ
amp a
the y
big gr
ĠO ptions
ast rop
}; \
Ġrepeated ly
Ġgu ilty
Ġrout ine
st own
Ġfilter ed
ident ial
Ġaware ness
Flor a
Ġcoinc ide
r ub
p od
ĠChar lotte
Ġcous in
ab ases
un its
est ing
Ġdig it
ĠBay esian
F ake
ĠP hoenix
E ar
ĠString Builder
Ġdegener ate
S at
In jection
16 6
ĠM ason
Ġmar ry
Disc ography
Ġg all
Ġmed als
ĠĠĠĠĠĠĠĠĠĠĠĠĠĠĠĠĠĠĠĠĠĠĠĠĠĠĠĠĠĠĠĠ ĠĠĠĠĠĠĠĠĠ
P ub
on ing
f w
Ġre lying
cor relation
]( #
ID S
ur ated
ĠNe braska
f air
ent ries
AR GET
is cal
ĠO cc
Ġe ighth
Ġtax es
iff s
Ġp our
ĠG lob
Ġsurv iv
ĠAtt ribute
ĠC el
Al ignment
Ġvort ex
ĠEth iop
ist ani
Char les
St yles
th in
ĠD R
OPT ION
'] ))
ĠBuff alo
m el
Ġtra p
manif old
Ġw ings
r if
C op
Ġrespond ed
if th
t ransp
Ġreal ize
Ġexpect ations
o ft
osc ript
Ġphys ician
lig a
v v
spec ies
Ġconj unction
Ġb aby
Ġinfer red
R oyal
] }\
ret val
Ġreg ulation
uls ion
Ġsubstant ially
q ed
z oom
ĠF err
Ġadmin ister
ĠCan al
H a
Ġpre mi
Equal To
ĠY es
Ġam ateur
Ġpro fit
ant ed
cell color
ĠG PU
B lob
Ġ\ )
project s
Access or
m atic
Ġtalk s
ĠTr inity
Ġbeaut y
ĠV ert
Ġt um
Ġpro jections
ĠEnvironment al
D imension
Recip ients
Ġconstit ution
H ook
T X
ĠRe yn
P ref
ĠDr ive
ield s
Ð¾Ð ´
ĠA ug
il ateral
Ġf ract
Trans lation
fil er
Re place
M ail
Ġreview ed
Ġm as
Z oom
Ġref ere
Ġfilter ing
n atural
Ġglob ally
ĠC ob
Ġwe aring
-------------------------------- ----------------
ĠC ache
Ġconcent rated
s an
Ã¡ s
\\\\\\\\\\\\\\\\ \\\\\\\\\\\\\\\\
)} =\
Jew ish
ak en
AN N
" ])
Ġtrigger ed
14 2
ĠForm ula
M ust
Ġconnect s
algorithm ic
Ġhon our
Ġconstitut ional
D ao
ĠP in
! =
P ending
ond o
Ġn eck
20 4
g om
as ant
Ġpy thon
ĠB lood
ĠStud ent
Con struct
* >(
Ġatt ending
ĠCl ose
b ank
Ġde emed
Ġto String
18 69
Ġm anga
ub a
26 0
| }{\
Path s
* }\
` :
pos er
WR ITE
ĠW ait
c aret
ĠS ad
hand ed
() [
cal c
Ġtr aces
ĠVin cent
u pt
th y
Ġop ponents
ĠGi ants
Ġsynchron ized
Ġther apy
) },\
cons ist
00 3
Ref lection
' =>
S afe
s ocial
te ch
ĠP aper
ĠF ixed
u eto
ĠW u
] \\
Ġfor g
abil istic
Ġsum s
Ġlab our
ĠAm sterdam
n oscript
l ies
Ġqu oted
Check ed
G F
Ġap artment
Ġsk etch
ĠArt ist
Ga ussian
Ġphotograph s
Ġhighlight ed
Ġsynt hes
Ġf ighter
Ġprov iders
yg on
ĠB ass
ĠLabor atory
K ar
F RAME
ĠC V
Ġbranch ing
H ung
Ġshe l
á º
le af
." ;
ĠS ah
ĠAd vanced
up les
vent ory
U UID
}} }}
Ref resh
+ "
Ġ Ã©
work er
ĠL ost
to LowerCase
ĠÂ §
Ġper pendicular
ĠP le
ela ide
Sur face
ĠP aram
ĠDis c
respons ive
x t
ĠJ oint
Ġbroadcast ing
Ġoccas ions
Ġbl ind
): =
Ġa ster
20 5
Re gex
Ġg ains
Ġback ward
ĠB rew
Ġsym plectic
Ġcaref ully
ĠCh ap
ĠBar celona
ph on
Ã¼ n
Ġ )\
}) ^{\
const ants
f ive
^{ {\
Ġ[ {
car bon
Ġt elling
Ġper cussion
Al tern
ĠCo al
Ġsearch ing
~ {\
ĠCl uster
Ġansw ers
pos able
ĠJer ry
Ġax es
f erm
ĠB ody
ĠGh ana
p iece
ĠF i
re verse
Ġcomment ed
Ġg rants
Java Script
d ie
ĠJava Script
ĠM end
um i
ĠPr iv
Ġadj oint
it us
vers ely
ĠP erm
: -
Ġg ross
ĠSh ang
ĠS K
ĠT itle
W il
Ġreal ization
T imes
14 9
Ġharm on
Ass ign
ĠK ol
oth ic
st ock
ig roup
ĠY u
ac ian
W M
ĠH ann
L uc
ĠMor oc
20 8
Sever al
ĠH amb
Array s
dir name
ĠVis ual
Afr ican
ĠRober ts
Ġchem istry
h c
Ġ. =
ĠMun ich
Ġanom aly
Ġc oc
lim ited
Ġconf licts
ĠP si
Ch inese
Ġlog o
ix on
ĠÂ ©
F ire
ĠAp pro
ites pace
rele ased
ĠD raft
ĠDe ut
R outer
Ġf antasy
ĠS ultan
mod ifier
Ġcampaign s
Ã Ĺ
Ġequival ently
harm onic
Ġview ers
}$ :
ĠB our
n io
14 8
M NRAS
Ġvis cosity
ĠK l
Ġuncer tain
sc reens
ĠB OTTOM
S ocial
tr on
Ġdis crep
ĠT YPE
Ġsimpl ify
"> {
elect ron
Ġp arks
ĠF O
ar is
Status Code
ĠSpr ings
ç »
ot er
ĠA UT
iz a
Ġlie utenant
b ane
u ator
Ñ İ
parent Node
Ġc ounsel
Ġcl ine
ĠK il
SER VER
go al
ĠB enn
iss a
B a
non atomic
Ġinf antry
it ations
ĠC row
{ |\
ĠS L
ĠCost a
ĠV ermont
att ach
Ġapproxim ated
}. $$
L ev
ĠSt yle
Ġwe bs
B LOCK
v g
ĠB ird
over ride
ro oms
Ġmanufact urer
ĠCamp aign
l brace
Ġdem olished
li um
Te chn
Ġindust ries
Ġb is
ĠR O
r x
ĠAl ger
form ula
ĠMag ic
raise box
ĠSh ip
Ġacqu ire
Ġcivil ian
P rior
ĠL A
Ġtrib es
Ġd ots
Ġ} .
0 10
ĠF L
U Int
Def unct
Ġepoch s
Ġcut off
Ġsk ill
Ġatt ach
Ġfl ed
Ġdiv isor
im o
Ġsuperv ised
Ġst ub
Ġc c
Ġinter pre
Vis ibility
ĠB ristol
sh ots
Ġpay ments
comm ut
Ġ( ).
Ġprote ins
urs ive
Ġup grade
second s
ĠPhilipp ine
K O
Ġfacilit ate
ĠHigh er
S to
ĠCra ig
is se
ĠB orn
Ġra ising
T w
Per cent
ĠE le
Book s
ĠBeng al
Ġmole cule
M ale
the ad
im plementation
ĠT on
Ġc inema
}) ^{-
ĠX ml
> )</
ĠM yst
Ġattract ive
IE W
ĠA str
ĠPr ice
Ġt ribe
ĠCl are
Ġpres erves
ancell or
ĠF lo
ĠN HL
ĠTh ursday
ueto oth
ĠH orse
Ġno isy
Ġesc aped
ĠK un
ĠTechn ical
AUT H
ĠN ear
Ġserv ers
Ġlocomot ives
s ender
S lice
22 2
Ġback up
faster xml
Cent ral
Ġdisestabl ished
Ġg od
l ng
ĠG as
t ility
â Ķ
Ġm ild
ĠL arge
Ġcorrect ed
Us ed
Ġstat ue
Ġobtain s
ĠB uch
14 1
An chor
Rep ly
enc ia
cont rolled
ĠDec l
ĠC ant
ling ton
M ad
}$ };
22 4
al tern
chi ev
Ġcor ruption
Ġrad iative
ĠScient ific
com ments
set Attribute
Ġelim inate
B ob
OR S
arri ors
Ġweak er
m v
ĠE val
Ġadd itive
Ġatmos pheric
ro tt
\, $
Ġstop ping
m achine
Ġr ub
ĠTh row
Ġover head
w ik
ce q
Ġpro c
Ġpropos als
ĠL ess
d yn
Ġdis pute
ĠAg reement
ĠMer c
bell ion
ĠStruct ure
Ġ à¤
ĠO il
C NN
ĠHer z
ĠCh and
st roke
^ *}
\" {
Mill is
sw ap
Ġk ern
| {\
ich let
Ġconv olutional
ĠH av
ta ken
dimens ion
G UI
ĠTh or
ĠRog ers
Ġst ere
Ġregular ity
ĠL arry
leg end
Dest ination
ĠUE FA
system s
Ġport ions
am pton
ri en
Ġtrans mitted
' }(
Ġs olv
ĠB right
first row
ĠSt even
Ġdiv is
der iv
us c
Ġpe oples
Ġw rapped
Ġr ide
}} _\
Ġneg lect
ig ion
ingu ished
List eners
Allow ed
Ġsuff er
U int
ec ycle
aver age
E con
ĠP ract
Mod al
ĠRepresent ative
Ġsh ore
. ).
ĠG rey
à ®
ĠLu is
e lected
Ġqu iet
Ġinvestig ations
M ont
TEXT URE
Ġsimple st
Ġform ats
Profess ional
per mission
Ġin struct
Ġchar ity
Ġshall ow
ĠW alt
ĠArab ia
30 4
ĠVenezuel a
ct rl
Ġdec ides
[ {\
ĠFri end
2 15
ĠC u
m icrosoft
ĠS Y
Ġevery where
Cert ificate
Ġasymptot ically
Ġ// -->
Ġgrad ed
Ġcounter part
Ġdat etime
ĠKe ith
Ġhon ors
Ġten ure
ĠAl ong
Ġconstruct ing
ac l
Ġcont our
Ġcom ics
Ġarrange ments
Ġcyl ind
Ġvol can
W ORK
Ġenc ryption
w al
Ġinv oked
the se
Part ial
App ly
ĠEcon omics
loc als
ĠL iga
dem o
ol ation
Ġde als
Ġinsp iration
Conf irm
SET TING
18 48
ond a
it ual
est y
Ġnot ify
' })
ĠCl aim
N EXT
Ġaccess ed
3 75
ĠCol lections
For ce
Ġvic inity
W C
Ġhead ing
Ġprom oting
Ġim pose
Ġqual ify
ĠS yntax
Ġ} ),
fill Color
edd ed
Ġocc urrence
Ġop ponent
ryst al
ĠChristian ity
ash a
Load ed
et ics
99 9
ĠC hel
Ġcred entials
ĠCont emporary
Ġconc aten
× ª
ĠB A
fav icon
18 30
r ace
Ġorgan ised
18 59
at ra
C le
Ġind ent
Ġ/* !
riter ion
Ġemphas is
field set
V ariant
f eld
Ġdevelop er
Ġexplos ion
G ateway
S aint
Ġfest ivals
Pr imitive
Ġcharacter ize
im er
ĠAnt ar
Ret ry
PREF IX
Ġmys elf
Ġcyl inder
R atio
& +
K EN
Ġinf ection
Ġcurrent s
Ġcomp ile
DB LP
ol en
Ġfor get
hom ogeneous
Ġreg istry
ÐµÐ½ Ð¸
Ġaffili ated
ĠH E
18 57
ra h
Ġbehavi ors
sec ution
k le
ĠR PC
Ġmulti plic
ĠProt ocol
Ġillustr ates
Ġph arm
23 5
ĠGon z
, </
ĠCh i
Ġport rait
Ġnegot iations
AR CH
Mus ical
Ġt ract
Âł Âł
colon eqq
et e
ĠDis play
Ġsynd rome
ĠN N
ĠS ave
M N
ĠCl ay
ĠMax well
ou x
ĠB ris
ent i
ĠEd wards
Ġle x
s il
Ġ il
ĠT ang
Ġlogarith mic
om o
F oo
be am
Ph oto
P eter
uck land
ex clude
Ġill um
ol ition
ĠIm Gui
Ġb ubble
ĠAnt i
ĠJ en
OB JECT
Ġj ury
Ġorig inated
Ap pe
H ard
ĠBroad casting
ĠArch itecture
Ġdismiss ed
A thlet
ĠFig s
? (
LE NGTH
Ġev il
Ġtrad itions
M el
ĠBer g
d ump
ĠDel aware
idel ity
$ ^{\
==== =
Ġcol ony
ĠSet ting
Ġem it
L earning
ur istic
, }
b ran
c odec
append Child
15 8
}. $
Ġpat rol
20 3
ache l
Meta Data
Ġabs olutely
Ġvari ational
Ġpars ing
z ing
und a
sc atter
Ġb es
en os
ann i
Separ ator
h istor
ĠT ool
-- \
ĠR idge
FT WARE
Ġob sc
âĢ ĺ
sp i
ĠStud ents
M id
Ġb undles
Ġspeak ers
ĠD epend
Ġconc urrent
ac ies
qu ark
Ġg raphics
Ã± a
ĠPer ry
Ð°Ð »
Ġmuseum s
G raphics
Oper and
Ã§ Ã£o
Ġengine ers
Ġen zym
Ġsettlement s
Ġr hs
Ġarchitect ures
sin h
e igen
Ġscholar ship
- {\
LE S
Ġdemocr acy
Ġben ch
ĠJ ess
Ġan ime
min imum
R D
k ip
Ġcon dem
ark ed
Stack Trace
W el
Ġst y
ism atch
in z
Ġper ception
Ġsl a
Ġcalcul ating
Ġcancell ation
P adding
sub scribe
ĠL ions
Ġhand les
ric ulum
Ġconf usion
T our
min a
ent o
ĠWe yl
Ġco arse
ĠM es
ĠG ay
tr ation
ĠF am
Ġlearn s
Ġpull ed
V V
Gener ate
Ġsingular ities
Per formance
Ġb eta
Ġcut ting
U ML
ro at
Sw ift
Ġre vision
Ġselect ing
Ġinn ings
Ġsp iral
Ġl os
)$ )
Ġe cc
ĠJ a
Sim ilar
å Ľ
Ġb anned
lev ant
Ġd ump
ĠO ri
MS G
osp el
P K
inv oke
Prot otype
Ġess ay
Ġevolution ary
ĠCons erv
T wig
ro c
atern al
Ġdesc riptions
ĠKen ya
Ġin tern
Ġarbitr arily
ethe less
M AC
ber ger
Ġab brev
Ġimm igration
Ġauthor ized
mo ke
ĠGerm ans
Ġbal anced
weight ed
Ġeconom ics
ĠDrag on
or acle
Ġco res
J s
ĠAl low
ĠCroat ia
Ġdeep er
ibern ate
Ã¶ r
Is ra
Ġrev ised
Ġrem n
ĠId ent
ĠI da
br acket
Ġs oc
ĠAthe ns
m ade
SU B
Ġto w
Ġinit i
Ġcl othing
Ġsim ulate
Ġt issue
}) }{
io let
Ġeng agement
period ic
ut ton
Ġagre ements
ĠSh aw
ĠJ av
sk a
Ġbo ats
Ġke eps
Ġpl acing
r brace
Ġse eds
tern oon
P DF
G AN
ĠD IS
S PE
15 7
ĠS or
Ġris ks
Ġcomb inator
Ġtempor arily
us ive
Ġconsequ ently
d dot
ĠT F
Ġend emic
Ġhold er
CL I
Ġex terior
j j
\\ [
sl ot
Ġt ape
ur red
N U
ull ivan
ĠHis panic
se ed
Ġsqu ared
Ġdecre ased
Sm ith
ĠTer ry
ut orial
Ġev ac
Ġ$\ |\
Ġpred icate
Az ure
Ġsear ches
Ġv in
Ġdec oding
** *
Ġint ense
S wed
? </
ĠFri ends
" }
IN DEX
Ġb oot
ĠM idd
Ġcon scious
be at
b ird
s per
Ġh ull
Ġbi ography
Ġtrans ient
document ation
default s
ĠHol land
ĠCON DITION
diag onal
Ġun changed
Ġinter vention
Ġmulti plicity
render er
Ġpat ches
n x
Ġfail ing
Ġtun ing
ĠIndust rial
Ġar rows
Dat aset
Ġ um
in ery
ĠL en
ĠL ipschitz
com press
M ur
o ard
ĠG len
2 32
at im
et erm
uck er
Vis itor
Ġdram atic
L ab
ĠPro duction
F rance
Ġqu arks
Ġcol ored
h aw
reg istry
Ġdocument ed
Ġsec ured
maz ing
ourn aments
ĠM ann
ĠHe brew
Ġspons ored
ĠA V
16 7
[ [
)$ }
ĠTre as
F rank
Ġtravel ing
Particip ant
ĠD elta
Ġdef inite
C AP
De ployment
ĠSocial ist
ĠMunic ipal
re b
Back up
P a
ord ination
flu ence
Ġmeaning ful
ĠC ot
B razil
Ġun cle
Ġstructure d
ĠHe avy
ĠCON FIG
Ġmart ial
Custom er
@{ }}
ĠT uesday
ĠSh im
ĠCre ated
Ġrhy thm
}} ;
---- ---
ĠH ob
ĠGr ade
Ġturbul ence
ĠV iol
15 1
Ġim per
arr ison
he art
Ġnon trivial
j ab
ĠM asters
Ġfill ing
Rep resent
back end
T reat
ĠB esides
Ġintegr ating
Ġfrag ments
3 30
Ġz eros
Th an
ĠPlan ck
Ġflex ible
Ġartifact s
ĠN A
re ts
ack ed
Ġlimit ation
ord inary
Ġcam ps
Ġcomp ounds
Ġorgan ic
Ġgather ed
l ceil
ĠC incinnati
ic it
Ġdu o
Ġthere in
Ġpet ition
15 4
}$ &
TE X
Ġinfra red
E r
h all
ĉĉĉĉĉĉĉĉ ĉĉĉĉ
Ġmill ions
Ġwrest ling
Ġem issions
Ġpremi ere
Ġ/ ><
ĠP ick
input s
AP PL
ĠW es
Ġwatch ing
ĠAdd itional
og ical
reed y
ĠNor folk
N OS
sp irit
Ġg a
Ġpower ed
Ġt on
Ġco aching
eth yl
ĠQu arter
lock ed
t abl
jb oss
Ġc ul
Ġup coming
ĠZ end
Th ird
Ġdep ression
Equ ation
cor r
Ġassist ed
under brace
cos h
pay ment
Ġsp ins
ĠG ET
AB ILITY
im en
ex ist
Ġfix ture
Ġtransl ations
Play ers
/ $
A rr
lic an
Ġscatter ed
* {-
Requ ire
Ġutil ized
ĠCal cul
h m
bas is
L ists
Ġdeep ly
C ould
× Ķ
Ġin set
ass et
ĠS ask
Ġdec ode
ĠB eck
Ġpro secut
BUIL D
Ġ"- //
ent ropy
con c
Ġc ss
Exp and
Ġincorpor ate
Ġch ron
V ote
Ġca usal
ĠM is
=- =-
ĠS ak
ĠNep al
\ @
un s
Ġinter rupt
Ġtem plates
Wh y
/ #
ĠF actory
av g
ĠAd elaide
Ġinvest ors
MA IN
J ose
Ġcl er
ĠTrans action
W W
Ġthe sis
ĠPart ners
Ġpres erving
RO W
ĠF ont
Ġadv is
A ud
Ġre gex
en burg
ĠB ond
Ġas ymmetry
ĠVo iv
z ig
ent ine
Ġdef ending
Ġoptim ize
ĠTh er
Ġdo ors
Scott ish
Top ic
s leep
ĠPen insula
ĠBAS IS
Ġe V
th lete
String s
Ġkey boards
? }
be ing
ĠMur phy
; ,
e V
Ġw edding
ĠB ath
ĠT EST
Pol y
Ġmod ulation
ic us
Ġm os
Ġv ec
}{ -
ĠStan ford
Ġassoci ations
em ies
Ġswit ched
Ġeval uating
ĠC ox
Ġastr onom
() ]
ĠT alk
ĠPro blem
( []
sub scription
dat as
Ġaccount ing
Ġm arch
ĠFor um
ĉĉĉĉĉĉ Ċ
tex tarea
Ġem itted
Ġrefer enced
Ġhospit als
Ġf iring
Ġinnov ation
ars on
Ġobject ives
Ġin jective
Ã© r
Ġcal ibr
ular ity
ĠĠĠĠĠĠĠĠĠĠĠĠĠĠĠĠĠĠĠĠĠĠĠĠĠĠĠĠĠĠĠĠ ĠĠĠĠĠĠĠĠĠĠ
Ġl ambda
Pay load
Ġrem arks
Ġact ively
> ()</
at ype
ĉ ĠĠĠĠ
Un ion
Ġhierarch ical
ĠBudd hist
Ġc s
Ġperfect ly
n om
ac co
Ġb alls
)) =
ĠMont ana
Ġcontinu ation
) )$,
ass er
Ġal phabet
Â ½
15 6
che m
scale box
m esh
Ġdis pers
St e
end um
// ----------------------------------------------------------------
Ġsur prise
Im plementation
Ġachiev ing
r ceil
d g
ĠC urt
dec oration
}}{ (
rav es
S in
" </
} '$
ĠThe od
ĠAt omic
Christ ian
ĠT ib
ĠCh rome
Ġl oved
ĠI celand
Ġstreng then
S IGN
Ġpark ing
ĠLead er
Ġcons olid
Ġutil ize
Ġconsider ations
ĠLeban on
ie u
abul ary
ĠY et
ĠMar vel
ac ion
ĠE M
Ġadvan tages
Ġshop ping
Ñ Ħ
ick en
arc sec
Ġplan ar
Ġtr ig
Ġdist ant
Ġindex ed
all ing
Ġsign atures
pos al
n pm
greg ation
T i
ĠA udio
Ġretri eved
Ġir regular
Su ite
Ġr ated
ak ov
Ġabsor bed
L com
Ġl ap
Ġsem antics
ĠL ion
Ġsummar ize
\ ":
Ġsubsid iary
Enc oder
i per
Ġform ations
Ch arts
ev ille
Ġfast est
Ġen compass
M ov
miss ing
L ondon
Ġ Ø§
odes hip
govern or
ĠS witch
Ġcomput ers
Ä Ļ
Con version
C AR
. ]
F ast
Ġa fore
ĠC atherine
ĠTe V
x e
}} ^\
G rand
ĠCon v
Ġimplement ing
ĠR ivers
Ġconduct or
ĠCONDITION S
Ġmeas urable
Ġpe ers
C MD
te le
Ġtrad ed
Ġto x
Ġaccept ance
Ġl ad
h w
Ġw ake
Ġours elves
Ġan onymous
New s
Ġaccept able
Ġcompris es
Ġgrand father
Ġexhib ited
Ġed itions
ĠPeters burg
ĠObserv atory
Ġf atal
ĠDen ver
Author ization
over y
Ġbelief s
Ġsp ots
Ġout lined
C y
s ized
Ġ(! (
ĠMad ison
ĠW i
ĠY uk
orient ation
Ġqu art
T ables
Ġmoment a
b eq
Ġtransform s
ĠCa uchy
N ested
ĠD yn
Request s
Rep ublic
ĠWat son
Ġquant ization
Ġh ub
Ġprov inces
ĠP L
L ee
Film ography
Ġt elescope
ĠInd ependence
ĠP aint
arri ers
ĠEl li
l ov
ĠS ierra
ous ing
Ġcompar isons
Ġsh a
L ittle
geq slant
ad os
Ġcont ested
Ġmagn itudes
Ġconcert s
d ro
(" -
ate st
Ġre built
ot ypes
R IGHT
}$ ~
Ġhom ology
m other
AT O
^* _{
Ġo c
ĠA round
l attice
d an
^^ ^^
Ġlock ed
Ġrel ate
( $\
Ġ' ')
custom er
Ġposs ibilities
Ġappro ached
Ang le
h orn
y u
Ġexperiment ally
S a
Ġform ulated
Ġintegr ate
ĠDemocr at
C s
ĠS olar
Ġhealth y
P ars
dot ted
zh ou
18 58
ĠThe ore
ĠK ay
ĠC WE
ĠQ ual
Ġep id
Ġcolle agues
ĠL HC
Ġcert ified
az i
help ers
g io
m ixed
G Hz
ĠC ad
Object ive
Ġhyp ers
Ġres ort
ĠAv iation
Ġtri angular
Ġyour self
p riority
W D
St ates
amb ers
Ġmurder ed
Ġs ake
_{ |
Ġrat ings
ĠPers ian
b ur
ĠSt orage
ap a
al one
15 9
leg iate
Ġunder go
Ġred und
s ix
ran o
Ġmethod ology
PT ION
D istrict
ĠR AF
ĠK ra
ĠSing les
ĠK el
Ġdeterm inant
ĠTest s
us age
com put
ĠPro f
Ġcompens ation
US A
ĠAng lo
Ġsk ew
necess ary
ĠB ec
T ake
au kee
s ass
H ot
ch rom
ĠRead ing
">( </
Ġtri angles
Ġpers u
Ġult ra
r p
ĠS ex
Ġrout er
size of
Ġm ines
Ġrestaur ants
Ġ" +
Ġmonth ly
Ġprint ing
ĠL ux
ens on
Ġplay offs
FN GL
å ¯
18 5
dec om
ĠN ak
<? >
Reg istration
Ġcl imb
AME TER
R o
d h
dis crete
ob e
ĠDi ocese
el ist
Schedul er
Ġto mb
Capt ure
Ġdis aster
18 55
Ġfe es
ĠAr c
ĠS alt
Rec ent
Ġt ons
Ġ( );
Ġmanufact urers
ĠVoiv odeship
le ad
)- (
Ġprogress ive
ĠSD SS
' "
om i
Ġenhance ment
C ookie
t le
Ġcommand ed
E lem
Write Line
Ġconsum ers
y ang
=" ./
Im mutable
M LE
Ġr um
Ġray s
Ġb onds
Ġbirth day
P icker
ĠFl ag
Ġcomplex es
}= -
Ġsp ont
Ġlong itudinal
D a
ec on
Ġg lyph
Ġoverse as
ups ilon
ĠArn old
Ġmod elling
Ġrad ar
Ġmake up
St d
Ġch apel
b os
() `
ĠM uch
e ing
qu iry
y arn
Ġtreat y
ĠArmen ian
Ġsusp ension
Ġall iance
ĠTrans itional
act ing
Ġext rap
Ġpass phrase
ĠU P
Ġcitiz en
per m
l vert
Ġrecurs ive
ad j
Ġpol es
akes pe
ah an
First Name
Ġcoher ence
Ġneur ons
ĠJ ar
make box
L em
Ġtrad itionally
C hat
ĠGuard ian
Ġcol ours
DE LETE
18 54
former ly
LE V
Dis cussion
ĠBulg aria
Ġafore mentioned
. ');
}\, ,
Ġecc entric
In c
ĠA braham
Al ign
in j
end region
5 67
Ġsax oph
~~ ~
ros so
ĠH ugh
ĠS TD
ai ro
m art
Ġmathem atic
Ġaccommod ate
Ġt iny
numer ic
15 3
ĠP ent
ĠCru z
c amp
ext ype
ke V
at ially
Ġn od
ĠBe aut
ch arts
ĠS ob
Ġuniqu eness
â ĪĴ
ĠAnn ual
per formance
Ġr c
C AC
âĢ ¢
Ġfl ights
itte es
Pro c
Ġnob le
E t
Ġinv ariants
Fr ont
ĠA uckland
Ġv e
rav is
post s
F ort
Ġrecommend ations
Ġdepart ments
sp ark
Ġt ribut
Y P
In ject
ĠD ol
ĠArgent ine
Comp ilation
ĠOt tawa
in ance
2 64
rag ue
H ide
Ġpat ron
Me V
Ġw elfare
Ġfor wards
Ġdef ect
ut a
ri x
Ġval ued
power ed
Ġdis appoint
ĠDet erm
fin ity
H o
Ġpro ximity
ha o
Ġed iting
T oday
Ġwire less
u o
Ap pro
Ġpl acement
Ġexception al
stitu ency
y aml
ue z
Th reshold
sw ick
XX XX
ĠHer bert
c url
ĠAb u
Ġa qu
ĠUn fortunately
28 0
f ollowing
B ill
op ol
Ġqual itative
Ġim perial
Ġrout ing
24 5
Ġminim izing
ĠM aced
Ġb orrow
Ġun clear
n or
id ity
Ġa u
EN CE
Con clusions
capt ure
ĠPar al
NE W
u u
ur ious
Ġcomplet eness
LI B
ĠGr ace
Record ed
] }$
ĠHit ler
17 6
gener ation
Ġs lic
pe er
E G
ĠT ed
ĠDev elop
sc riber
ĠSy rian
ess el
Ġpair wise
Ġstri king
Ġz ones
he ld
ĠS uz
Pr iv
act iv
Î ¯
class ical
Ġmain stream
om ed
ard i
Rev ision
Ġserious ly
Un able
ĠSch olar
R P
ov y
Ġarr iving
Ġapp endix
ah l
Ġgen es
Ġcontext s
++ ++
ipp et
Rece ive
Ġd Ã©
Rec ords
ĠU SE
oc y
Ġreloc ated
ĠCl iff
Ġent hus
Ġz oom
Ġbro ader
CON NECT
T rad
Ġinaug ural
le igh
ĠSaf ety
R en
ĠShe l
ĠFil ip
T s
ĠTransport ation
Con d
Ġem igrants
------------ -
am ation
; -
ill es
att ices
ĠLu ke
I J
t cp
ray s
ik es
serial ize
c ourse
ĠC e
Ġimplement ations
? âĢĿ
i q
ĠSus an
Ġinvert ible
ĠY ale
arg er
A mb
Ġpre st
Ġtw isted
l uc
20 6
ĠR F
ĠAssum ption
R ock
ĠN otes
Ġtr ick
ĠNe il
Ġif f
ĠRiemann ian
oun s
F LO
N ever
for ge
ĠZ hang
ERT Y
Ġscreen ing
M ex
ĠP ont
Ġkern els
Ġm im
00 7
. ][]{
ĠSu ccess
b ay
eng u
Qu estion
18 56
Be havior
ĠArch ives
min or
Opt im
Ġrefuge es
Ġerect ed
Ġ' $
Ġred shifts
ĠInitial ized
member NameLink
Head ing
Î º
unit Pattern
ĠSch w
ĠD I
er en
ers ions
Ġd w
Ġmot ivation
Ġsh rink
to kens
ĠSt uart
$ ^\
Ġad missible
Ġfactor ization
PA SS
Ġt ar
ose x
ĠLe o
Ġtw ist
Ġe col
off icial
B ranch
w aukee
), \\
Ġres ist
ĠR GB
pre view
ĠCol lect
Ġlo ader
ate ful
ch ing
M X
ĠStat istics
Ġ} (
Ġinter change
Ġfe els
ĠInter est
Ġunsuccess ful
ĠPl atform
ad just
ir ts
ĠCom merce
mb f
Ġg aps
Ġcam eras
th reshold
Ġsk i
pro port
ĠArt illery
Ġper ceived
Ġmorph isms
Ġinter cept
ass o
^* ,
with in
Ġexc av
Football ers
ĠAzerbaij an
23 4
ĠR oche
)} }\
em e
un ning
UT C
LA S
ot he
Ġexceed s
f lix
Ġs hed
ĠA WS
ak ar
ĠQ String
Ġ/ ></
ĠLat ino
ĠBut ler
ĠCurrent ly
dest ination
Ġnot iced
Ġdo ctors
Ġmain tains
F s
f itting
ĠR ena
ĠConfeder ate
get Key
sat z
Å Ļ
Ġa pert
ĠAbb ey
c py
Ġ{ })
ta king
akespe are
Ġs ick
bal ena
å °
av i
or ate
oc c
CL U
ĠM B
FUN CTION
Ġsc iences
Ġb one
)$ ;
}) +
min ster
Fil ename
MA KE
Draw able
or ig
Ġexam ination
Ġemphas ize
ĠN y
L ONG
orm s
Ġp a
Ġdel iber
{- }
SD K
ĠHel en
ĠI SO
ĠCons ervation
ĠEag les
gom ery
g ui
Ġr m
b is
am y
In line
ĠW H
ip per
e eq
Ġgu ests
Conn ector
Ġj e
16 4
ĠSym fony
ind a
NotFound Exception
em in
Am ong
16 2
ĠM ail
">& #
integ ration
nap shots
ĠCall ed
ĠD ATA
the o
LO B
Death s
contin uous
Part s
ĠK ap
Att empt
struct ures
Ġdro ps
al ong
ĠIn nov
stitut ional
Ġtrunc ated
Q R
ĠI o
n at
Ġcon cludes
Ġconduct ing
ĠArch bishop
Ġphot ometry
ĠMon th
G H
Ġpay ing
Ġgra ins
\% ,
ĠH aving
C tx
Ġreg imes
comp iled
Ġin hib
Ext ended
Ġbin aries
m ime
Ġadjust ed
ffff ff
ĠProdu ctions
Ġident ifies
ST RE
). $
Ġsp okes
ĠCon tainer
ĠL ex
Ġrecommend ation
ĠFlore nce
ĠU TC
="# ">
Ġrecall ed
ĠP ars
Ġun w
Ġvulner able
T er
represent ation
rel im
User name
Prov ince
Ġ" ./
Ġpi pe
Ġsup pression
Ġfore cast
Ð¾Ð ¼
ĠD ennis
ĠKe ep
ĠCon structor
ĠAm endment
ĠReyn olds
e ur
Ġt idal
Ġe arning
ĠMe chan
Any Ref
Ġvolunte ers
ĠB orel
ack er
std err
ĠL ot
z ier
al gebras
ĠBob by
Ġconduct ivity
Ġconnect ivity
un stable
z ed
Ġpredecess or
Ġs isters
Ã¶ n
Ġg enu
Ġt ribute
ĠS ox
ĠS creen
ĠK rist
LIN K
ag ation
Ġad mit
Ġmin istry
P ACK
ĠBlo om
g ro
W ater
g auge
ĠSO FTWARE
Ġthere after
Ġbr acket
Int o
; ]
(" [
IT H
ĠCo hen
lay ers
Ġib n
2 11
Ġinternational ly
ĠA f
col ors
remove Class
Ġmanufact ured
om ething
/ '
Ġ utils
ĠL ov
Ġadvent ure
æ ī
). \
aur us
Ġtroub le
F ri
EN C
ec raft
Ġaccept s
ci pl
As sum
ĠMar x
L if
Ch apter
ish a
Ġsuccess ive
Ġm amm
Ġexplo it
Ġcall er
ĠTr igger
Ġimpact s
Ġqu bits
Ġrecogn ised
Pres ident
Ġarr ives
L ag
Y es
Ġs overe
Ġt ournaments
h ydro
command s
sc ience
abs olute
x f
Ġn inth
ĠCirc le
b ol
ph oto
az ar
B ay
ĠT oy
ut o
Ġover w
F ilters
Ġcou p
I LED
2 12
ĠS Ã£o
at em
Ġc ust
Ġprodu ctions
Ġsong writer
Ġin complete
b ie
Ġindu ce
Ġc ave
Ġtra pped
ĠÃ ģ
H orizontal
å ¼
Ġd ash
Last Name
Ġbelong ed
Ġl iv
Ġannounce ment
w heel
Ġpredominant ly
ĠT as
CON ST
ĠH em
Ġb ay
ĠHar vey
Ġt ours
ĉĉĉĉĉ Ċ
Dis abled
ĠFran co
Ġsol ver
F rag
vers ions
Spr ing
Ġc argo
She ll
ĠCoul omb
int ent
open ed
Ġd jango
equ ilibrium
Inst ances
ĠTra vel
ĠLe eds
ĠCh a
Ġh orn
ON LY
ĠR L
ĠF R
A ust
Ġknow ing
Ġkw args
ab we
Ġ. /
atche wan
t u
e i
Ġpron ounced
Ġce ased
Ġb ipart
Ġdec k
short cut
Ġc ookie
ĠM Ã©
.. ."
Ġprofession als
}, $
the ore
d ynamics
ĠInter face
Ġpal ace
Nor thern
Ġdescend ants
16 3
track s
pre vent
' ):
s ided
equ ivalent
ĠC MB
Ġcent res
OP EN
Ġvent ure
Ġun ions
( (\
b end
vis ual
ĠRequ ired
E u
ĠP D
Ġf irms
}} -\
an che
F oundation
ĠR ey
std lib
Ġdown stream
Ġcompet itors
ur as
Ġr s
Ġproceed s
ĠRe ed
Ġthermod ynamic
Ġon click
Ġpo ison
IFI ER
Un its
erm al
Ġ" (
Con figure
M Hz
Ar n
ĠCle arly
r vert
Ġport folio
-> {
Ġsl aves
Ġcollect ing
mark et
Ġsp ell
ĠHen ri
Ġt one
ĠMod els
Ġthreat s
ĠNash ville
Ġle agues
ĠN at
Ġblock ed
., ][]{
Ġiter ative
ĠResp ond
up iter
row se
break ing
ĠPalest ine
ex press
r ates
DO CK
ĠGL enum
ag onal
V S
O rient
Ġdecor ated
p referred
ĠWork ers
B in
Ġdis band
Cor ollary
font s
cont ract
dec ay
ĠDev ice
Ġmagnet ization
ĠCh apel
Ġintegr ity
ĠC ategory
Ġsp acing
F K
pre tty
N il
he alth
Ġ= &
j ud
gu ard
Ġoscill ation
Ġs aving
Ver b
18 52
M argin
math ord
r ust
Ġan notations
ĠG ust
Ġpoor ly
Ġb orough
ack ing
, ,
seud o
Ġdrum mer
Ġass ists
H uman
ĠRepublic ans
ĠEv ents
ĠAn aly
eg al
y i
(" <
Ġneg lected
ĠTh ai
s By
Ġbrand s
W ang
Ġhol iday
ĠHug hes
Ġen abling
E nergy
Ġfeel ings
W ARNING
Ġbl ues
as se
ĠR alph
ĠA ra
ĠM ul
Ġbut ter
Ġbre ast
\ ).
Ġdifferent ly
Ġc emetery
i ast
Ġmem brane
in ions
if rame
Ġr itual
conf irm
Ġhealth care
ĠForm er
H AL
or f
ĠB ear
| ,
ac ements
Ġac res
Ġwavelength s
as ide
Ġmem or
R ivers
Red irect
ĠWall ace
ĠB R
Ð° ÑĢ
Ġatt ractions
? )
B ag
ĠC ou
Rel ations
{ }{
h agen
Å Ľ
'' $
Ġb lob
Ġinter active
Vari ables
I MAGE
ĠAir lines
ĠO scar
spect rum
b uck
ä¸ Ģ
other wise
Get String
Ġdraft ed
ĠN P
Comple ted
dev elopment
Ø ³
equ e
Ġst range
Ġgraph ic
Ġbon us
Ġcounter parts
ĠHar old
Ġr h
Ġex ec
Ġion ization
ĠSe an
Ġb le
Un mar
ĠByz antine
ĠC over
] >
ĠW ag
ff ield
add EventListener
Ġcl an
Ġap ps
Ġt anks
Ġearthqu ake
be it
11 11
st ed
ing en
ĠG ilbert
sup set
tagon ist
)\ |_{
Ġsculpt ure
BY TE
ĠTem plate
it les
ĠA ber
H idden
00 4
J ul
imb abwe
pr ises
F ROM
m orph
arch ar
B ot
ĠR elease
Ind icator
ĠForm at
position s
ĠPalest inian
Ġed itors
Ġs le
Ġany where
az ard
G i
Ġsp anning
or um
Ġco ffee
ĠPol itics
Ġsl ide
Ġtr ump
el en
ĠDiv is
Ġturbul ent
ĠTh under
ĠEnt ry
---- -
Ġland ed
ĠH RESULT
df s
Ġre nd
em ploy
ĠB un
ĠBrun swick
Ġre try
Ġdiff e
Ġpers istent
ĠBro ther
ĠT rain
Ġthr one
fold ing
Ġb rows
Ġso ap
Ġoutper forms
H ex
18 47
ĠW onder
Sh are
Ġlight s
get Text
18 51
im an
}} /
Over flow
Ġen rolled
ĠR out
ĠâĢ ¢
Ġexha ust
ĠB aby
AND LE
Ġcontroll ing
Ġsens ing
s izing
ĠPos ition
ĠProtest ant
High light
mem Item
raz y
append ix
t un
;\;\ ;\;\
ĠSud an
S ink
ustr ated
( @"
ĠB av
d iamond
ĠArm ed
o ons
ex c
play ing
ĠSet tings
}\, .
Ġabund ances
ĠHar bor
ĠS FR
ĠE mm
h or
get Property
Ġhash Code
ble ms
ĠV ent
St mt
sub str
ĠS EC
Ġc ad
Ġem p
Ġactiv ated
$ }\
ext ract
ov al
m un
ĠD ig
Ġfra ctions
ĠW ells
mys ql
ĠC ell
url ing
Ġcrick eter
Ġrun ners
can onical
- }
Ġcontact s
im i
19 3
---- --
Ġins pection
Ġexp ans
Ġupd ating
Ġens uring
uzz y
Ġeg gs
ĠGro ve
* (
att s
ĠVen ice
=" {
ĠO THER
ĠCh ang
In clude
Ġillustr ation
x l
ĠWrit ing
4 000
st ead
In cre
w l
á ¹
Ġout door
max imum
17 7
Ġsett lers
per ience
control s
Austral ia
V IEW
Ġdesign ation
ĠM ort
IS O
Ġfre ely
Ġfun eral
Ġcop ied
er ver
âĶ Ģ
st mt
ĠE SP
nt hetic
Ġ[ (
ĠN ott
Ġpl ates
ĠMan uel
ĠX X
pers istence
Ġcoron avirus
Ġhighlight s
hook rightarrow
g ender
ĠB rowser
ĠF BI
US Y
conf irmed
Ġcorn ers
Ġs ang
ĠM ills
cu ador
Ġimport ed
CC CC
ĠIN T
Ġinv ersion
an imate
tr ad
vel t
ĠLi u
an z
Ġm k
check mark
W ell
oxy gen
Ġaf ternoon
Ġl un
Ġ gest
ĠAgric ulture
> =
Ġslow er
l ived
ĠG alaxy
B g
bad ge
V R
d ip
Ġconstit ute
ĠD id
Ġpl ug
R pc
Ġplay wright
ar ms
] _{\
sp ort
it ars
ev olution
RET URN
IP S
Ġanisot ropy
ĠCl in
Ġphys ic
ĠPhill ips
ĠGL int
ĠAbd ul
Ġx si
Ġdefend ers
uzz le
s ens
Ġmod ulo
ĠBos nia
S heet
16 1
od ash
ator ies
Ġg ymn
r ised
al go
Ġcontribut es
Ġwealth y
ĠN athan
ĠR us
Ġdimension less
Ġy es
Ġcons erved
Ġfif teen
am ic
unc redited
bo ys
Ġmot ions
ĠH O
Ġc ry
plic a
ĠPro gress
ĠNe umann
m h
ĠR M
ĠSecond ary
ob ar
c ock
ec a
, +
Ġtour ing
FLA GS
Gest ure
ĠEncycl opedia
17 3
re ply
el ing
exception s
ul ators
H int
Ġ\ %
ibl ings
C atalog
Ġlink ing
D utch
sc ene
ĠAl lied
Ġspectro scopic
ĠD h
ĠFellow ship
Ġtack le
pl ots
andid ates
ĠCong o
Ġp ale
Ġre written
18 53
Ġwalk s
spec ified
ĠField s
o ct
to o
Art icle
Ġt ou
Ġal i
ĠT D
Ġaut onomous
Cl aim
inter faces
Spec ies
Ġrecip ients
Ġt oured
L ove
Ġshort est
Ġv ital
ĠP AR
)$ $
ĉ ĠĠĠĠĠĠĠĠĠ
ĠTh ir
Î ³
F G
ĠS oul
sw er
ari e
Ġt une
ext ends
ĠGener ate
y ellow
Co ins
Ġhun ting
f red
Ġs id
ĠSm art
alth ough
prob ability
Ġf ed
ac ional
Ġsc oped
| $.
DO WN
er ent
Ġcon form
Ġhon est
P ac
c g
Ġconstant ly
ĠBris bane
FE ATURE
ĠSt ef
Ġestim ating
ond e
M u
Ġb oss
NOS CRIPT
Ġb ishops
Ġconst rain
Ġkey word
B ra
v ary
Ġcapt ures
ĠT ru
al most
el n
M ah
ctx t
ĠE ld
Ġ ÑĤ
ĠCh an
ĠSo on
ĠExt ension
st ars
Ġnorm s
HO ST
p ure
Ð Ł
ĠA pi
Ġ= ================================================================
Ġem peror
Ġvirt ually
Ġd f
T l
Ġs ugar
ĠS oph
Ġbackground s
Ġdistinct ive
ok i
E O
ĠWell ington
Rece iver
met er
ĠD rama
ĠCom ment
,- .
){ $
* .
E A
ĠQ t
Ġsoci eties
T ick
A IN
d id
Ġw ard
Ġthr iller
Ġ' ../
å į
Ġre organ
PRO TO
triang leq
Ġbe ating
ĠNew castle
Ġcoll apsed
ĠG ate
list en
Ġhonor ary
im uth
itt est
å® ļ
Ġd ivers
Ġr am
Ġme at
Ġf ert
Ġwithd rew
Vert ical
17 8
Ġend points
He ap
s al
Art ifact
names e
18 8
ro e
Ġdrink ing
sh iv
Ġsub urb
Ġaggreg ation
> ("
ĠSw ift
ĠPed ro
20 9
INST ANCE
ĠP resent
ĠB ak
ENT S
ide a
ĠNap ole
Ġres cal
At l
assum ption
Through out
Ġqu ote
}: =\
ĠGener ic
elect ric
ĠCart esian
ter min
v iol
ĠL oss
sp ired
L F
ĠColumb us
k el
Ġdef in
Col lege
ĠD S
ĠN u
DI RECT
ĠL LC
ĠArt ists
Ġgu idelines
E MP
Ġl y
ov ina
Ġun e
Ġj u
Ġleg islature
Ġcomp ressed
A RE
Ġe at
ustr ation
oltz mann
ring tone
$ ~\
Ġdirect ive
Comm unes
å º
ion ic
ĠD ocker
Ġfight ers
sec ure
ĠS ony
}), \
Pred icate
Ġcont ours
H K
Ġfaith ful
ĠSh akespeare
Ġview ing
ĠMal ay
in aries
Ġspec ifying
ĠAn im
ĠIP v
4 80
]{ $
B and
} --\
ĠG host
18 49
F un
S ender
=" //
but tons
w ent
Ġdi agnostic
Ġsust ained
=" <?
i ator
)) ^
Ġ(! $
Ġdepict s
c atalog
Ġbe et
Ġle ak
constraint s
Ġl as
Ġad i
40 1
Pro blem
30 1
Ġvacc ine
Ġ' {
****** /
Ġsl opes
Ġsum mit
Ġtens ors
oc ene
Ġcer emon
ĠFour th
Ð ³
Ġalter ed
us a
17 2
Th rows
M ary
å Į
ĠS ang
Ġt ier
: /
:: $
ĠK id
m ith
ĠD iamond
Ġcap ac
Ġlat ency
ĠC ris
bo at
Ġgeneral ize
ĠF act
alt ies
pro per
ĠP and
ring ton
ĠEdd ie
ĠCOL SPAN
Ham ilton
Ġannih ilation
Ġattend ance
Ġpack ets
Json Property
fil m
ĠL if
ĠSt ories
ĠLeon ard
ĠS oci
ĠR ou
bit coin
ĠS ED
Ġinc umbent
re nd
Ġtheore ms
Con struction
Ġperturb ative
Ġanomal ous
ĠB ald
the ir
ian ces
Ġel dest
Comp anies
T ITLE
Ġnot ations
h art
Event Args
ĠJ in
ho e
s it
S pect
18 46
\% )
Ġdiplom atic
It s
J ud
h ind
Writ ers
ĠPhilosoph y
ress es
Ġspl its
ĠKer ala
Ġback end
Ġbos ons
Mat ches
Ġh yd
C ities
Ġcop per
fail ure
ĠR at
ĠK in
Ġall ies
ĠAg ent
Ġinc red
mon itor
log ic
Tag Name
Input s
ĠFil ms
ĠCond ition
] -->
é ĩ
Ġaccompl ished
D ash
] *
Ġcre ator
ĠÐ ¼
se ek
Ġcum ulative
av ia
Ġsuperv ision
Ġmetall ic
ĠP rest
ĠAn cient
ĠAng lican
Ð½ Ñĭ
Ã µ
STR UCT
ĠFried rich
le arn
ff bb
! }
J ack
Cap acity
Ġide als
ĠR ah
Ġen emies
re ports
ĠErn est
n f
Ġwould n
l um
ĠBel arus
| }\
}^{ *
ij a
Ġvol leyball
Ġdemocr atic
Link ed
Ġveter an
> /
Ġge ar
Ġserial ized
Ġsp atially
Ġcompris ing
Ġc ow
Ġm oon
ra ils
$ _\
ry s
ĠBaron et
La unch
ĠV oice
ĠArch itect
Ġse q
ose velt
Ġn inet
ĠCit iz
pg f
Ġtrav elled
Ġab ilities
Ġen force
Ġconf used
20 7
ĠD rum
Ġr iding
enc oder
pars ed
ew ay
LEV EL
ve ction
Ġc ube
is Array
ĠN ames
od el
Ðµ Ð»
scal ing
}: \
ĠK ill
c ott
ical s
we ather
ĠW ikipedia
Ġbo ards
Tax onomy
bre ve
Ġ" ")
Ġb uses
Ġâ Ĥ¬
od ia
Ġrul er
Ġor n
Ġpar abolic
ĠS ect
ĠPh ase
ĠCom pute
ĠG M
pr us
thread s
18 2
Ġm a
Ġor chestr
oy age
ole v
ic as
ĠThrough out
b read
ellig ent
tem plates
Ġaut omorphism
ĠP arent
r w
Ġhistor ically
n as
ĠD etails
Ġsh ots
Ġsem if
ĠRh ode
Ġwarn ings
Ġun ified
Ġwrit ings
Thread ing
D K
ĠMethod ist
Ġburn ing
Ġphotograph er
ĠÐ ±
TE GER
in ced
Ġtrans mit
Ġdistribut e
ĠEn able
ĠÂ »
Ġpitch er
Ġ/ .
Rel ation
rout ing
ĠV M
17 1
ç ½
TO DO
Ġas ymmetric
Ġpen et
Sing les
load s
P ad
th al
Ġins ights
M ASK
Ġterm inology
Ġlog s
c oc
{ }\
rot ation
ext ended
\ ),
is cher
Abs olute
> ');
G er
p ick
|\ ,
Ġelev ated
Ġll vm
Ġarg ues
ĠAl t
Un lock
H op
int rodu
ĠVal ues
itt en
Ġdissip ation
MA G
ĠB eth
Ġad option
Ġgold en
Ġconf ined
Ġimpress ive
Ġ( <
umb ai
Ġrock s
c ot
) ||
ĠS ic
spir acy
ment al
ther mal
ĠChar acter
ĠRef s
Ġsh ipping
co eff
Link s
ĠS yl
Ġlat lng
ĠLay out
W ild
_{\ {
Ġdifferent iable
Serial izable
im plies
ĠP attern
ĠWars aw
w y
Ġfollow ers
Operation Exception
I rish
ĠH ave
has OwnProperty
im edia
}\ |_{
Ġatt raction
Dec ode
ĠScot ia
ĠClar ke
k al
Ġbas ically
Ġp ill
ole cular
en i
ific ant
Produ cer
Ġtim ber
T urn
ĠA w
g gle
ĠS ig
Ġp t
ĠNot able
Ġt orsion
v anish
it ious
s ampling
Ġ// !
D im
P et
l ists
Ġsub marine
Ġexhib itions
tab End
Ġinnov ative
b org
By Name
C hen
ĠOut standing
Dispatch er
Ġrep o
ĠRh odes
et ype
17 9
Ġpolar ized
ĠL ocation
Ġman ages
Command s
Typ ed
ĠBut ton
ad joint
}) }{\
ri o
Ex ec
E B
ĠGreg ory
5 50
ore n
c ro
ĠPh ysical
V s
Ġa uction
Ġnovel ist
Ġprevent ed
let es
SE C
C odes
Ä ħ
ĠInd ies
ĠP el
ĠPaul o
Ġas ide
ĠR S
Ġdef initely
erm ark
A CTION
+ {\
ĠG amb
ĠSp encer
det ect
Com pute
Ġl azy
ĠL IC
Ġatt itude
Ġfor ty
Ġsaf ely
ĠDir ichlet
un ov
ĠR oot
Ġsw ap
ast ore
P F
p ip
sh i
n h
um per
hab ilit
S hip
Type Name
Ġcult ures
Ġadvoc ate
sc ribed
size i
Ġc attle
ail ing
ĠLine ar
ogene ity
| <
ĠAn imation
Ġpract ition
Numer ic
Ġm ature
ĠShang hai
ĠHel p
Ġaccompany ing
ĠP ub
Ġon set
fam ilies
ĠDo es
[ ],
window s
Ġplay off
) }}{
J im
EX P
Ġ{ (
ern ess
ĠPl anning
Inv oke
S printf
Ġc fg
em bed
ur c
ĠĠĠĠĠĠĠĠĠĠĠĠĠĠĠĠĠĠĠĠĠĠĠĠĠĠĠĠĠĠĠĠ ĠĠĠĠĠĠĠĠĠĠĠĠ
Ġfore ground
ĠH ur
ĠR ole
ine q
ĠCroat ian
Ġalleg ations
f ee
ĠAd S
Ġmot iv
vis ibility
Ġsoph istic
ĠN g
associ ated
Ġd uplic
ĠBulg arian
Ġfail ures
ĠDomin ican
Ġh int
Ġexcit ations
Ġpro l
bro ok
rosso ver
Start ing
ogn ition
qu in
anc ers
ĠM orning
ĠFran c
Ġjo ins
^+ _
Max imum
ex istence
FO RE
ĠNorth west
Ġ' </
oss ible
Ġtravel s
Ġmin us
Ġbas in
ĠK or
ĠCo ach
Ġtour ism
Py thon
il ian
if s
) _\
j obs
Ġloc als
Ġp unct
und ers
Ġk pc
g ie
el ia
Ġstreng ths
ow ards
Ġcomplement ary
, $$
Ġh aven
Ġdec imal
ĠPh oto
PO INT
ĠTom my
Ġby pass
ĠB iden
ph ib
ĠSt ack
s ound
an ch
unc an
Transport ation
x ref
Ġen roll
d ns
Ġ ../
al p
Ġl ag
rest ore
ĠD ame
Mod ules
Call ed
ig ue
ĠÐ ·
Can ada
Ġnumber ed
SU PP
Rem ark
c ir
Ġestim ators
Ġoscill ator
Ag ain
F ee
Ġstat istic
ĠRay mond
ĠMont gomery
View s
Ġburn ed
ex change
K B
ps frag
g uid
Ġhand ed
AB C
ill ance
ple te
ĠR osen
Ġsub stitution
@ {\
id ually
ampl er
Ġaddition ally
fill ed
Ġlab elled
Ġentrepre neur
ĠG ang
Ġlight ing
Ġtoler ance
S port
zh ang
ĠChe ster
ĠValue Error
lev ard
Ġfif ty
c nt
ĠLiber ty
Ġhous ed
Ġschedul ing
er i
ad ers
Ġperson ally
DE P
W T
ĠSpe aker
West ern
ĠB ach
App endix
}\ |\
Ġdef erred
Ġen act
Ġem otion
Ġsustain able
Alloc ator
ĠB order
1 200
n ick
ĠM ade
LE N
Ġsh ar
bar s
Ġhost ing
Ġfarm ing
Lou is
' ^
song writer
Ġ# #
' /
v ariant
Ġmer ging
Ġnom inal
Ġpsych ological
Cl osed
Ġgu y
Ġisol ation
ĠV II
Ġbuild s
ok o
Ġbel t
Ġstand ings
ĠN L
u ced
Ġstart up
S oviet
Dev elopment
Is Null
ad van
ĠEx cell
R oom
car ousel
Tog gle
copy right
ĠM ik
ub ert
Q UE
Ġanten na
w yn
ĠB ent
A mer
Ġb read
38 4
Ġsubgroup s
ĠPrinc eton
is che
ct l
Ġrecon c
ĠT aking
ĠÅ ł
ast ro
ĠA aron
ĠAr gs
valid ator
Ġs ig
is ers
pr ised
Ġlaw suit
R h
ĠD NS
Add ed
ĠM R
uss els
acef ul
Ġcor ollary
Ġsh aped
ock ets
Ġmet ropolitan
Ġaccording ly
verb ose
Ġa thlete
ar u
Ġprepar ing
Organ ization
intend o
ĠRena issance
ish i
ĠI de
label ed
ĠLa ura
Ġb atter
ĠGab riel
j q
mod ern
ĠUS B
ĠObserv able
se ver
ĠZ ero
Ġfl ush
ĠI v
Con serv
: **
Y S
ĠSask atchewan
ĠS ER
ĠK as
ĠC rit
ĠH IV
Ġhand lers
Ð½ Ð¸
UP DATE
PAR AM
ĠP icture
File System
observ ed
GEN ER
Ġsp y
Ġterm inus
Ġcommun icate
con e
ĠFig ures
Ġacknowled ged
ific ates
NAME SPACE
Ġ/ \
it ic
ĠSt ri
imit er
ĠS ent
ĠL amb
Mart in
Ġcallback s
ĠE D
ph inx
Ġca ption
ĠCar r
PAR AMETER
Ġcont raction
Ġwebs ites
P en
ĠB ened
est one
sp arse
W ire
Ġdr ives
small matrix
verb atim
Ġdef ended
17 4
f v
li u
Ġpredict s
XML Schema
ĠE ight
Ġreal m
av atar
. \,
x c
un ivers
ĠLeg al
Ġto ggle
TO KEN
Initial ize
A verage
produ ced
ĠCap itol
27 5
Ġmass less
ats u
Ġav iation
Ġalt itude
18 4
ĠSh op
Ã§ a
ĠD ialog
ĠWeek ly
ĠA ST
eg en
Ġmer gers
ĠR ES
Ġsever ely
ĠIter ator
Suppress Warnings
Ġint ra
22 6
ath y
Ġresign ation
IF Y
âĢĻ ,
col s
Ġgrad es
M U
Ġmiss ile
ĠS ou
Ġ" --
p ow
oc hem
ll a
Log ging
Ġw ars
ĠR ever
50 1
Ġan ce
ĠJust in
ĠM az
ĠB io
Ġfoot age
Analy tics
ull ah
ĠBro s
Ġdial ect
c odes
Ġvis itor
cos ystem
l ane
Ġre forms
ĠD od
Ġdisestabl ishments
ĠM ET
Ġanal yst
ĠYugoslav ia
Ġprom ised
Ġaffect ing
P reference
ĠIn stance
23 1
Ġrob ots
ĠC ut
ĠKn ights
pt ic
ĠF loat
Ġamb ient
ĠM oney
I reland
Ġres erves
Ġf d
roll ers
integ ral
ĠC ork
ĠP T
Ġare na
ur bs
ĠD y
Ġ\ '
Ġf ires
ĠO UT
With in
Ġl ots
Ġprob abilistic
APPL ICATION
ĠM ode
ĠD ifferent
mu x
log ical
Ġinfin itely
H ouse
Mod ern
Ġnormal ize
Ge org
Ġf iscal
T ARGET
ĠDocument ation
00 6
ĠJul ian
' ')
22 8
resh olds
ĠDec ision
Cre ation
Ġpsych ology
Ġdef ects
Ġbut tons
ĠCont roller
ĠR ice
Ġfilm ing
pres erve
M il
Ġs ailed
ĠEs sex
m itting
ĠH at
eg an
Ġan ch
C ss
N i
p ark
Ġid s
Ġsim plic
ĠCam eron
Ġad equate
M icro
Ġb ootstrap
Ġh opes
Im p
Ġinduct ed
ĠP anel
Ġnam ing
Ġanth rop
Ġdog s
Ġrep ublic
ĠJul ia
UN K
vent ions
B attle
ch apter
] ];
ĠA U
Ġsh ops
f urt
Ġdynam ically
est rian
Ġ- &
add itional
Ġgl uon
ĠGener ation
and ro
Hen ry
Ġgrap hene
P ages
St rip
E F
ĠS ep
Ġm ilk
Ġch apters
get Time
Ġautom ated
ä ¹
Ġsec ular
.\ ]
P atch
Ġcan n
ĠV ict
mod es
Ġdig its
ĉ ĠĠĠĠĠĠĠĠĠĠĠ
Ġsh ield
bor o
Instance Of
al in
Ġb achelor
($ _
w so
Ġb ij
ĠR ac
Ġro ster
Ġshel ter
f oundation
S ys
ot yp
ĠNO TE
( <
ĠS ample
Ġenc rypted
urch ase
ĠRo osevelt
ipher al
ĠM otion
Ġpoly mer
Ġdim in
Ġrel ates
cap acity
ĠC ord
ĠC raw
ĠW R
Ġunder graduate
Ġgard ens
Ġm u
sh rink
ing o
Ġwork flow
Ġbomb ing
Ġcart oon
ĠLapl acian
Ġsudden ly
ĠH ubble
ĠW orth
big cap
g m
or ious
prov ided
Ġf aint
Ġre finement
Ġcelebr ate
Ġout going
}= -\
ĠS TR
Ġm i
Ġbi ology
ĠRev ival
ĠComple te
b road
ĠOr iginally
Man ifest
Ð½ Ð¾
ĠG olf
Ġbank rupt
b age
ĠN R
ĠR uth
ãĤ Ĵ
Ġvo ices
ĠM eta
Ġcount ed
H aving
ne z
Ġind oor
ĠG uild
Ġant is
en eg
Pol it
U k
]{ @{}
Ġz ip
Ġ($ (
K im
n othing
Ġl t
Ġinteg rable
Ġcov ariant
Ġcatalog ue
ĠIs aac
f h
ĠN umer
Ġ" :
ll er
Ġnon negative
Att rib
ãĥ ³
Ġ/// <
Ġreson ant
K h
ed e
Ġs weet
qu ire
Ġp ow
> ';
do i
ĠMathemat ics
ĠC ec
^* $.
su cc
Ġl ig
if old
ĠI BM
}$ \\
Ġg ent
Event Handler
ynam ical
^+ (
ĠIraq i
18 37
T OP
ĠSw an
Ġmaxim ize
F ictional
Ġdep recated
Ġp atri
ol ine
ĠV eter
Ġco at
Ġper pet
Ġachiev ement
ĠWil helm
C lock
sh own
Ġimm ig
Ġcelebr ation
ĠS erv
Ġal ien
ĠG O
ĠAh med
Ġart work
ĠK ate
ro gate
esc o
ĠRevolution ary
ink s
st re
A dapt
Ġle ase
min imal
Man aged
ĠComp etition
. }}
ĠRe ich
ĠSe bast
ĠCard inals
2 16
ib us
ne ed
Ġspeed s
Ġdist ortion
ĠAz ure
d istrict
A ge
Ġf ram
Ġpro ud
ĠHamb urg
b ee
Ġ urg
Ġj ail
de ploy
v r
Ġfit ness
Ġrenormal ization
[] )
Ġchalleng ed
Ġswe ep
Ġmer ch
n P
ĠAng els
ĠS ter
ĠC lean
} ],
Ġsumm ation
w oman
Ke ep
Ġmem oir
ÐµÐ ´
ah a
Ġdiff use
Ġmon astery
Read Only
ĠBan ach
Ġown s
Ġver se
get Default
in ar
) ]{
b eck
ĠC IA
eg ree
18 45
Ġmob ility
on so
MS earch
ĠGa uss
Ġdemonstr ation
ver ts
Ġle ver
taint y
Ġanalyz ing
ert y
im ize
div ider
oca ust
Jose ph
Ġ ))
Ġres iding
Ġb ol
Co ord
H u
ĠF ighter
Ġpass ive
ĠC ort
Ġd rain
Ġvol unt
ĠÃ Ĺ
V T
ĠK ash
18 1
o il
im ath
64 0
Ġjud gment
Ġoverw hel
ers hire
ĠF lying
æĺ ¯
s napshot
Ġbatt alion
Ġnick name
im ony
Ã§ ois
ur face
ess a
18 12
-------- ---
Ġexpl oring
Ġsat uration
che l
ENT ER
G reek
Ġmon omial
ĠPlay ers
Ġbre ath
ĠEag le
Ġpre val
ĠHar per
en ue
Ġscr atch
u pe
Ġmand atory
H it
t ec
in as
ĠBrook s
Ġc ant
o S
Ġsymbol ic
Ġdebut s
Ġanisot ropic
B ern
Ġrect angular
ĠE ve
ĠY ellow
L iber
Ġproceed ings
æĸ ĩ
k pc
Ġp ist
ĠL av
he ther
"> ,</
Ġrevers ed
f ork
Ġadv ances
B on
Ġliter ally
Ġwel come
M AR
s aved
Ġc iting
ĠP rague
Ch ina
Ġpil ots
ĠDur ham
F red
V oid
Ġprior i
l is
ĠS old
Sp in
Ġrender er
b ias
Ġp ad
Ġto ll
âĢ ł
ag le
IN PUT
ent ities
Perm issions
ĠMc L
G W
.\ ,\
add y
Ġround ed
ĠInitial ly
Ġanalog ue
am oto
ĠA F
Ġst ick
Ã ¯
ĠK err
ig i
Ġparticip ant
k ers
ra f
ĠM s
On line
Ġab oard
Ex pl
itor ies
Ġaccess key
Ġ$ ("#
Ġ* _
ĠDi agnostic
7 68
B tn
ĠSch r
ĠG Hz
Ġterror ist
er ie
18 6
^* $,
Â ·
ĠTrans it
Ġfib ers
Ġstr ongest
[ _
ĠLIC ENSE
ĠIda ho
Ġ} ));
Ġpresent ing
Ġconv inced
aren cy
Ġtele phone
z el
} `
Ġut ter
Ġev olve
Check er
rob ust
N ay
Ġh ang
St udio
ĠBr ig
Ġavoid ed
Cl ause
E ducational
ĠĠĠĠĠĠĠĠĠĠĠĠĠĠĠĠĠĠĠĠĠĠĠĠĠĠĠĠĠĠĠĠ ĠĠĠĠĠĠĠĠĠĠĠĠĠĠĠĠĠĠĠĠĠĠĠ
sche dule
Ġimplicit ly
man aged
it ary
l iter
U TE
Ġb if
" +
ĠJama ica
Ġst er
umber land
reg ation
= </
ĠH ess
Res olution
approxim ation
F IL
Circ le
Ġattack ing
Ġcomment ary
ĠN ancy
g ary
Desc ribe
ĠL ac
ud o
er ious
ĠMil waukee
18 39
Ġs ad
ĠF oster
lo ating
Ph ot
Ġc rop
ĠTrans form
ĠP att
ch arged
18 9
Ġsimilar ities
Ġresum ed
al ink
sq cup
ĠB ert
Ġfix ing
ar v
ĠM W
Ġdom inate
æ İ
in ia
ĠD aw
ill on
Ġsur jective
fra red
Or d
y t
Ä Ľ
Col umb
ĠPal mer
ine es
Ġfoss il
pe x
ĠL iv
Ġadminister ed
Ġb ell
ĠR ect
ĠPr ison
Ġd ans
Debug ger
ĠFI LE
Ġbe ams
ĠRes et
Ġcirc ulation
S and
... ]
Ġle pt
Ġbr igade
E mitter
P aired
Ġp tr
Ġcon ce
cur r
ĠFa ith
h it
Ġann ex
æ ł
s yntax
t ier
he at
Ġf action
Ġblock ing
look ing
)}\ \
Ġt err
out ube
GRO UP
Ad ministr
Ġdraw s
add on
Ġch ip
ĠG and
)+ (
ĠF ul
ç ±
Ġreg ulatory
ĠDist inguished
Ġdes irable
Ġcle ared
P B
Dependency Injection
v n
iv ially
ĠHop kins
ari um
. âĢĻ
ĠL ak
ach ers
no align
Ġprogram mes
m otion
Ġgr pc
n ut
em ark
ĠK ind
A W
to k
ĠK re
Ġcryst all
Ex perimental
Ġad s
R ugby
ol ics
ĠG ene
ell ers
22 3
Ġrelev ance
Ġch ronic
DOCK ED
Ġf id
_{ _{
Ġmod ulus
ĠJ unction
\ `
Ġw atched
p es
Ġarg v
Pr incipal
product s
][ "
Ġp ag
I FT
a ude
Ġaff air
Ġten ant
d ummy
ear n
anc ies
ĠT all
std out
: .
Ġv ow
ĠF lem
sc rib
Public ations
Ġapert ure
erg i
> ";
s uggest
Phys Rev
Ġpres ervation
Ġsus pected
ST AR
ĠJo an
F IR
Ġh unt
ia z
ps y
ĠShe ffield
Ġcancell ationToken
Ġjust ify
Ġjud icial
ĠL S
< >(
N F
by ter
found ed
Ġdem o
re ction
ot hes
ĠP owell
sub division
Ind ividual
m ob
Comp any
Ġinvestig ating
ĠBenn ett
Ġst reak
N ear
ĠSc ar
t lement
AS C
ĠC I
co ins
fl ash
th us
Ġv i
oc cup
Ġprec ip
found er
Iss ue
ĠOt to
at um
en es
I ce
Ġr ice
Act or
Ġcan al
{- .
ĠG az
Ġmyst ery
Ġaud iences
ĠCab inet
23 3
ĠStr ong
ĠP H
Ġhypot heses
Ġc inem
ust ain
Ġdef ender
Ġcapt uring
ic ul
as pect
ĠC inema
V IS
ĠB ug
ĠZ imbabwe
Ġtimes cale
Ġn ephe
Ġcomb ines
ĠA G
clip se
' }}
N ER
] ,\
LT YPE
ĠProv incial
I o
k ill
ĠSet up
ĠEvent ually
se mi
depend ence
ãģ Ļ
ev o
Ġt ough
00 8
Ġdro ve
o in
ĠL isa
Ġpl ugins
dec re
C as
Ġh itting
Ġt ent
qu ick
ĠH us
Ġhard er
L ess
dim en
ĠT odd
Ġminim ization
Ġdiagn osis
Collect or
ĠValid ate
Rout ing
R eq
c ool
Ġle pton
chi ef
ĠC B
K ills
T ON
ĠWork ing
ĠO ber
h im
ov anni
tr unc
rib le
Default s
Tag ged
Ġcro ps
ĠB ears
Trans l
TIME OUT
ĠAmb assador
ĠV e
6 50
ID s
Ġtour ist
ĠAgain st
Ġsp anned
Ġachiev ements
ĠSche ma
l iteral
inner HTML
Ġpun ishment
sh ops
ĠW inn
Ind ices
hab ited
enti eth
ĠH H
ĠR ams
Ġ" ");
E MA
F inder
Ġcav alry
d ifference
ĠC OP
22 7
Im g
ef ault
18 44
eloc ity
Ġincorpor ating
Ġgra ve
Ġ.. .,
i pt
Ġvolunte er
q s
ĠS urre
ar in
ĠRod rig
Ġo l
ĠM ove
)\ )
Ġdel ays
osl ov
ĠG or
æ Ŀ
ik ing
Ġref ined
Ġs ung
ĠE S
pect ives
Ġspread ing
}} }(
Ġo mit
ĠSch warz
Ġop inions
reg ions
c ern
=\ ,
ene ath
C riteria
r ice
ĠV illa
Ġcur ved
Ġdiscuss ing
N M
ĠI MP
ĠE cuador
Ġcivil ians
ar ations
Ġfavor able
Ġv it
Tok ens
Ġreleg ated
Ġsp ir
oc ent
Cl ip
19 1
I SE
HEAD ER
con vergence
ĠFe b
rest rial
g rand
l if
ist le
ĠChar ter
C li
ern er
Ġmask s
Ġa ws
Ġindex es
assert False
Ġcollect or
ĠG em
Ġhapp ening
ĠRic ci
Ġsubstr ate
Ġpione er
W ashington
unt u
ĠÐ¿ ÑĢ
ĠVlad imir
Ġcor poration
22 9
ph ys
Ġdat abases
ĠPer iod
ĠM umbai
ĠDev on
$\ %
ĠJac ques
Ġperman ently
ĠA ub
ĠSe lection
i ya
z t
ĠCon tact
D u
ĠĠĠĠĠĠĠĠĠĠĠĠĠĠĠĠĠĠĠĠĠĠĠĠĠĠĠĠĠĠĠĠ ĠĠĠĠĠĠĠĠĠĠĠĠĠĠ
CK ET
it oba
ĠPan ama
36 5
w x
ing e
Component Model
ĠCommunic ation
/ %
U IL
Ġspectro scopy
}} %
ĠQu est
Ġbr ackets
Mut ex
ĠT ong
Ġphil anth
Ġwidth s
So ft
con tainers
ĠMer it
18 3
Ġst ret
he nd
ĠI rv
exp ansion
Cho ice
8 75
get Logger
ĠBO OL
Ġw ra
Ġp ec
Ġin cent
ok ia
ĠType Error
ĠĠĠĠĠĠĠĠĠĠĠĠĠĠĠĠĠĠĠĠĠĠĠĠĠĠĠĠĠĠĠĠ ĠĠĠĠĠĠĠĠĠĠĠĠĠ
Ġ& -
24 7
D U
J P
align ment
Ġ$( {\
am med
Ġpri ests
Ġ\ *
Ġp index
Ġanaly tically
T aking
d B
ĠN ATO
Ġcombinator ial
Pre view
F at
ĠN om
Ġad apter
J O
Ġfl ip
ari us
char set
Ġsem igroup
auth ors
Initial ized
ĠR af
set Value
ĠMan ila
open hagen
p unct
ĠE g
Ass oci
n ested
man uel
Ġeditor ial
m us
ĠSl av
itt ers
Ġb ull
ĠLuc as
comp any
spe aking
Ġsimultane ous
d iam
Ġl ensing
ĠM ine
ath a
Ġdom inates
Not ify
Ġh i
ĠInt el
ĠL ik
ĠDom ain
ĠA ires
ĠRE AD
Ġmorph ology
O l
P ak
We ak
Il legal
; =
k now
land o
ĠAl pha
ah u
OD Y
ĠK rish
}{ (\
Ph ysical
Ġcirc uits
ĠH im
Ġviol ations
k b
us hes
Ġassign ments
25 7
So ftware
c rit
Ġair line
ĠGrand e
Ġreplic a
ĠUg anda
Ġh alt
ĠR ules
Ġkn ot
Ġcur riculum
ocom plete
j in
act ivate
Ġreason ably
ĠH alf
Ġmark ing
normal ized
ĠE sc
log ue
Res olve
ĠP ool
Ġdis orders
Arch ive
ĠA A
ĠCy prus
s ymmetry
Cl one
jav u
Ġd amping
tr uth
ib a
R oad
ab ol
* >
getElement sBy
Ġpian ist
Att achment
ĠLeg ion
F IN
ab b
Ġreli ability
ĠTas man
Ġt body
Ġh o
ĠAs ync
all a
ĠEngine ers
sen al
ĠF uel
18 20
Ġcho ir
D ark
Ġd type
Ġar cs
sk in
ĠPear l
fin ish
Ġless ons
ĠIndones ian
Ġsubt le
Ġarchae ological
23 8
Ġwar fare
W ho
Ġtrans mitter
ĠTun is
' _{\
ĠAct ress
ĠAdvis ory
Ġgl ac
Ġqual ification
Ġterm inated
oper ations
L es
S pl
Ġsurviv ors
Ġ( âĢľ
al ways
Ġexp ense
ev t
emph is
Inv ocation
ĠT S
Ġsl ots
Ġelim ination
ĠP ul
le z
Browser Detector
port folio
ĠSD K
Ġ\ ,\,
Ġph osph
Ġyield ing
BU TE
ĠOak land
( ",
Ġ iv
ĠD anny
const rained
23 7
Ġamb assador
( --
Ġthought s
Ġsub mission
de javu
Ġ$ ^
Ġquant ify
ĠIns ert
ad ier
Ġiter ate
ell ation
Un incorporated
Ġbas elines
Attr s
ĠPet e
ĠStock holm
IN LINE
18 41
Ġl akes
eff ects
Ġsuggest ions
p aint
inc ar
ol in
ĠT ensor
dis cussion
Ġphilosoph er
ĠB elf
Ã© g
nav Bar
Ġcollabor ated
ĠGard ens
Ġrefere e
Ġinstit ute
oc on
ah ler
r ases
D ot
=\ !
ag ain
ĠWest minster
Ġconfer ences
$ ]
ĠMig uel
Orient ation
Ġin jected
Ġre un
pe z
b w
ph ant
ÏĦ Î¿
L u
UM N
Ġfriend ship
Ġdiss olved
e o
ast ed
function al
Ġcogn itive
ç± »
RO P
m ud
ĠD rop
Ġcomp rised
Ġconvent ions
ĠIm ages
FLO AT
Ġen orm
Ġflex ibility
comb ination
U i
ĠF P
ĠCamp us
ĠB eyond
cl osing
Con stituency
onn ie
ĠE lection
ke es
Ġpl ural
Ġcor rupt
alo is
Ġin clusive
H y
H aw
K er
Res ize
ĠCon cert
Ġterm ination
Te X
i ago
ĠP ush
NO WN
wall paper
{ -\
Ġfall en
Ġs iege
ĠS ul
ĠM old
~~~~~~~~ ~~~~~~~~
ce ased
Ġpod cast
ĠIn cre
Ġneighbour ing
V an
ĠP rec
Ġfr iction
2 14
ĠK umar
18 36
Ġdiscrep ancy
cell s
ibl ical
N Y
[ <
ĠL or
Ġnumer ic
Ġgram mar
f req
ĠF at
op p
ĠN as
ĠPun jab
S on
ĠK om
Ġresearch er
R ew
Ġc hest
Ġexcit ing
Ġrem ix
ra ining
ĠMar shal
ãĤ ¹
S ta
Ġc ele
() "
work ing
ens ely
i w
Ġseek s
Ġconstitu encies
at ches
eg ovina
ap or
Ġadi abatic
ag greg
ish ers
Ġast roph
p mod
Ġcosm ology
Ġoverl apping
s ess
ĠSc out
g mail
Ġcont amination
work space
Ġun incorporated
Ġb less
let ing
ĠForm ation
Ġdepart ed
18 35
sup ports
Ġh ills
Ġsub stance
Ġalleged ly
ĠFI X
ĠFrame work
el m
âĢ¦ âĢ¦
ch air
l Vert
Ġretri eval
ĠD as
cess ion
Ġemploy ing
28 8
are l
Ġcarri ers
ĠA bor
Ġprefer ences
ĠTib et
block quote
ere k
run t
S CH
Ġw orn
ace ut
string ify
ĠPer th
ex plicit
t om
Ï ī
Ar c
\% .
3 40
Ph ysics
Ġp unk
Ġneighborhood s
ĠEll is
Ġingred ients
mathb in
Ġcardinal ity
eh icle
------------ --
Ġincl ination
× ľ
sl ug
Ġaltern ating
atin um
ĠId entity
- )
ĠWood s
ob tained
lim sup
la unch
Ġgu itars
Ġdiam ond
^* )
Call ing
Named Cell
od b
Ġun lock
{ })
ĠSh in
imens ions
_* $
B rown
sh ore
me ans
. }.
() }
PROP ERTY
ĠTh ings
ĠMoroc co
Ġche ss
W ay
i Name
Ġinf ected
ĠA ur
get Current
Ġdec oupl
tensor flow
18 38
Ġindiv idually
ĠHol mes
Dan iel
Ġathlet ics
ĠM ull
Ġback ed
Ġscreen play
ĠPlan et
q t
ĠR C
ang ered
Ã °
Ġfluct uation
ĠF ed
30 3
ĠBat man
ĠC K
E s
Inter op
ĠF iction
ĠDes ert
Ġlett ing
d up
Ġant ib
H ouses
ĠH aus
li ers
Ġr ally
x a
}=\ {
I BUTE
ap on
× ¨
Ġrev ival
Ġins ufficient
Ġbus y
ĠDirect ory
ge m
Ġas h
ill ation
Type Def
Ġcontain ers
Ġreson ances
co res
El se
6 55
ĠN ine
Ġdec ent
, &
ke leton
ST EM
r ational
Ġab ort
ĠL R
sup ers
ans wer
' </
24 8
Ġprevent ing
ÐµÐ ¼
Ġsatell ites
Ġmod est
(' ../
ram id
Ġoper and
}} |
En code
Ġiniti atives
Ġaddress ing
dist ributed
Ġgather ing
Ġpresc ribed
Ġto m
ra its
} ')
IT S
Ġgu ided
Ġret reat
ĠS ullivan
ĠPark s
Ġult imate
Ġin fe
Ġevent ual
g ol
ĠH ir
semb les
Ġfle w
screens aver
Ġrenew ed
ĠB ee
Ġshe af
0000 000
p w
Ġsp r
Byte Array
con cept
we ights
ĠSom erset
Ġsophistic ated
ĠM T
s chool
Pol ish
ĠDis covery
NUM BER
enc oded
Ġpray er
: @
Ġa est
ential ly
A mazon
_+ $
on er
ne ighbor
Ġd ock
NO TE
Linear Layout
Ġb lo
Swed ish
sur ance
Ġremember ed
}^{ -\
Ġspecial ist
ĠO wen
Ġsc andal
ac ular
18 32
Ġatt achment
Ġemp ire
se g
url s
IF AR
ĠA LL
Ġcon vey
b id
v d
mat ched
Ġtor ped
isen berg
jav ase
Ġacadem y
Ġacceler ated
G rant
Ú ©
c ook
Ġcitizens hip
Ġprev ents
AT T
Ġparamet ric
g able
ĠÎ ±
L B
Ġmidfield er
play back
Ġbank ing
h ibernate
Ġgain ing
ĠJohann es
ĠB inary
Ġlist ings
% ),
Ġcy ber
N s
Ġf reed
Ġstud ios
Ġpre t
Ġcomput es
ĠViet namese
Ñ ī
Ġtri ang
} ',
Neg ative
âĢĻ .
graph s
ex e
ĠZ h
Ġel ite
Over lay
Ġmut ation
Ġt ex
at ta
Ġst olen
Â »
Ġpropag ator
ĠBr as
b k
open api
ath i
Ġab olished
TR ACE
p romise
25 4
STRE AM
j ournal
Sub mit
C ut
Ġun ve
c ats
t uning
ĠS of
Bu ilt
ĠDivis iÃ³n
m pi
m agnetic
Icon Success
ur an
C U
w ere
ĠĠĠĠĠĠĠĠĠĠĠĠĠĠ Ċ
Filter Database
ĠCrim inal
st a
Ġb er
ĠGl ass
Ġacknowled ges
%%%%%%%% %%%%%%%%
Ġst eal
Ġext inct
ĠS ql
Ġl ux
sc apes
ĠAp ost
Fl ush
st en
Ġdisc ount
Ġgrad uation
navBar Cell
ĠAn a
Comb ining
}} [
m aml
o auth
ov i
Ġgroup ed
Ġexplain ing
CLI ENT
ĠBou levard
Ġan satz
im on
P ull
ĠBe ing
CP U
ĠBit coin
ign er
ĠS hen
30 2
ĠPar ad
Ġt ale
ĠH ass
OP ER
ĠMaur ice
S ens
Ġch ore
26 3
get Data
ĠHe ights
vanish ing
P references
icy cle
vert ed
condition al
IC K
cred entials
W ords
Pop ulation
TR A
Ð°Ð º
mont on
J ean
atern ion
Ġaugment ed
Ġ ].
SD L
or ers
ĠC ancer
7 20
ins ki
K G
h on
ĠCh oice
Ex change
ism iss
Block Index
dis p
) ?
* {\
Ġpick s
ĠF ifth
ell ite
Ġment ions
Ġj ew
rec v
ĠU ntil
p oll
ĠC ounter
Ġab st
ĠArch ae
Ġrecru it
È Ľ
av an
Ġcap ita
n ucle
{ #
"> Â
Ġnot ions
3 10
ĠG A
Ġex empl
Ġax ial
ĠInt roduction
ĠM N
ĠB ark
og g
part icular
ĠP ink
Com puter
Ġfl our
h int
T W
ĠH off
Ġarchitect s
Ġsepar able
Ġexpert ise
P TED
B all
D AT
ĠKaz akh
Ġpro gen
Process ing
Ġinit With
m and
70 7
ĠBer ry
ĠLeg islature
ubb les
Ġbot an
Ã© d
ĠMar cus
Y ea
p ared
ĠH arm
str ategy
ape st
8 50
æ į
Ġdebug ging
ĠRuntime Exception
ĠG Ã¶
cl ub
ĠCub an
Ġ! (
Ġmem ories
arri or
ĠGr ass
eg el
Ġse aled
b il
Ġlater al
Ġcasual ties
Ġfil tration
ĠHer ald
ĠBudd h
ĠA my
-- ;
ĠA bs
Ġland mark
Second ary
heim er
ess aging
ĠCl imate
25 2
tol ua
con struction
ain ter
Ġfound ers
Ġcomm enced
N atural
18 43
Ġre lic
ĠM enu
Ġv ibr
ĠStr ateg
ACCE PTED
define Property
Ġd uplicate
ho ff
Ġaffili ate
m ile
Ġc ouncill
}: =
Ġadministr ator
ĠLink ed
the m
FA ILED
int roduction
G I
hen ce
all ed
em ployment
Ġund ers
g ot
am as
Ġancest or
sub title
av ian
ill iant
coupl ing
ĠI X
Ġis set
pro duc
CAL LTYPE
Pl us
IconSuccess Encoded
TH READ
NE SS
iling ual
Ġathlet ic
Ġpuls es
Ġbroadcast s
Ġdesign ing
ab ar
Ġdev ast
App Compat
cover age
ÅĤ aw
ĠÂ ±
deg enerate
ĠSalv ador
Inher ited
t ap
so lete
erg us
ĠEnter prise
Ġd ummy
j l
ĠFran z
Ġmicro scopic
ä ¿
Ġcell ular
Ġdetect ing
f u
as ympt
ĠSim pson
d type
Ġe cosystem
ĠE state
ĠWild life
ĠQu estion
ĠBu enos
Ġ& =\
ĠMus ical
Ġparse Int
Recorded Vote
ĠS aw
=' #
W P
dat ab
Ġthrough put
) }^{
Z hang
pe ak
ĠNott ingham
Ġf Ã¼r
SE D
ĠIn stitut
' }{
Ġexecut ives
Ġeth n
ĠH ousing
os cal
oper ating
)) }
stan bul
Ġf ame
ĠP om
Ġparad igm
for th
ital ic
P rec
re li
Ġcan on
Ġgal actic
æ ³
Ġquarter back
j sp
log s
Ġrele asing
ed o
Ġte eth
T a
ĠF T
Ind ia
Ġnovel ists
m ine
ĠSus sex
t ick
ĠShort ly
ĠIss ue
s low
x r
et ches
ĠM ario
Play ing
ĠAssoci ate
16 00
class path
Ġdemand ed
ĠCard inal
che z
Ġnew er
be havior
Ġpsy chiat
IDENT IFIER
ĠP FNGL
IC S
ĠCO M
Ġemer gence
Ġtend ency
raph ic
num bers
Ġintersect s
A WS
or ption
ĠG ol
30 8
Ġball ot
analy tics
( %
ĠM ang
rm k
Ġ è
Ge o
m ig
ĠStart ing
D X
aut hentication
ĠD uncan
') ).
ĠReg ulations
Tra its
erial izer
hard t
Ġshut down
Î ®
rel ativistic
Ġhouse holder
EQ UAL
Dem ocratic
fra structure
ĠB L
ĠG y
br ack
ĠCom edy
ĠVol unte
ĠPak istani
Ġob ey
| .
Ġsuccess ion
Ġhuman ity
C u
// !
LE FT
Ġaugment ation
ĠO g
ĠPlay Station
establ ished
ĠGram my
CONT RO
ĠNetwork s
Ġm oll
os ion
ĠS weet
Ġas ynchronous
Ġpredict ive
Ġanalog y
ĠS uff
ĠG ren
Ġr iders
18 42
ink ing
METHOD CALLTYPE
ĠRichard son
B ank
Ġd ancing
im ple
P ark
p aren
v id
Ġth umb
ĠGen eva
vert ices
ĠPrinc ipal
ĠLe ic
Get ter
Ġt iles
Ġcolon ies
ĠB LA
_* \
] /
s and
ser if
ĠNob el
av ier
b h
Ġs addle
ĠA part
Ġflow er
Ġimprison ed
Ġcul min
26 5
w ire
Cho ose
Ġclass ify
ĠM M
) ];
m q
Ð¾Ð ³
You ng
Grad ient
on aut
press ure
L iter
ĠH aven
T LS
Att ach
dec oder
match ing
F ACE
Ġt enth
ĠC openhagen
ĠLore n
- ,
IT ER
Ġplanet ary
Polit icians
z on
)^{ -\
C itations
E th
ĠEd it
F ollow
[ ];
l ar
| +
ĠCorn wall
Acknow ledgements
ĠHerz egovina
Ġjust ified
Ġd ol
ĠValid ation
Ġsp ans
U INT
c id
Ġpurs ued
Com posite
Ġrecru ited
he y
ĠS qu
ä¸ ª
H M
Ġen l
und o
Ar thur
Art icles
Ġchrom os
}\ {
Ð°Ð ´
Ġth rew
ENABLE D
ol ith
ris k
ch ars
F it
Ġgo og
User Agent
em ption
Ø ¨
aj i
Ġdesign ers
ĠD in
Ġr idge
bra ins
ract ive
+ -
M ixed
ĠW inds
ĠA u
ĠM AC
Ġnull able
c ub
ì Ŀ
al an
ĠT elescope
Ġcor pus
Throw able
ĠTest ament
Ġp ink
p ie
ĠK arn
yn man
4 40
ĠR ut
ĠClass ical
dor ff
Ġlegit imate
Ap is
isc opal
publ ish
Ġ ĉĉ
Ġun anim
i Sector
ĠHe ader
ĠArm strong
Ġschedul er
F all
ounc ing
Ġmes on
iff e
Ġs iblings
00 000
Ġleg isl
yl um
bi ased
her o
m ology
Ġs olves
D ays
Ġviol ated
depend s
Render ing
feed back
å ĩ
Cur ve
ap propri
)$ :
ĠEx ped
Ġsport ing
C ached
ĠA ges
Ġdram atically
yl an
ct uary
ĠO m
ĠH ale
nt on
by e
ĠMet al
Ġc v
Ġbacter ia
ĠH yper
Ġener get
row ing
Ã± o
ĉĉĉ ĠĠĠ
Ġrevolution ary
D ER
ĠBl ake
0 11
2 17
oy e
ĠHel per
uis ine
Dis able
ä» ¶
G reat
stat istics
Observ able
ĠIn spector
ĠRe id
ng th
any on
Ġmus cle
Ġin ad
Ġbenef icial
Ġpoll ution
Ġbary on
ival ence
Ġque en
Ġc ms
Ġelabor ate
Ġcomp ares
col lections
)} +
Map s
en h
"> "
Ġtriple t
Ġn ut
OUT PUT
es ar
ĠA DD
ĠV ariable
ott i
ĠAh mad
Ġlob by
ĠR G
E ll
abor ation
Ġcomputational ly
Y M
pr im
Ġsure ly
Ðº Ð°
sh ader
}^{ {\
OFF SET
col sep
k r
el ong
Ġgu ards
Ġsla very
ĠG ent
Ġdiv orce
Hand lers
Ġh oped
Ġy ard
Ġsett le
Ra ises
og on
put es
s phere
Ġaut obi
ĠProgram me
ĠBel le
ĠDav ies
Na N
ist o
iz ar
), $
ĠR ib
ĠN uclear
Call able
min i
Ġsing let
Ġbreed ing
Ġavoid ing
Ġkit chen
/ ',
Ġapproach ing
em bourg
Ġequ iv
Ġfin ishes
lo ose
b right
al bum
ĠR aid
-\ !
24 6
Ġlift ed
ĠGlob e
Conn ected
Ġaz imuth
23 9
b ash
Ġl attices
ong s
æľ ī
K w
Ġmidfield ers
Ġbe ars
Ġconcept ual
get Context
node Type
Ġter rain
ud er
Ġkid n
J oint
ĠB od
ĠERR OR
ĠGib bs
Ġf ate
Ġtra iling
Ġ\| _
estim ated
ĠC rist
inf all
ĠInd igenous
Ġroll ing
ĠJ et
Pol itics
Ġjournal ism
Ġauthor ization
wh ose
Ġsent iment
BE GIN
REQ UI
Ġren owned
ĠThe me
ĠPl ate
ĠHe ath
Ġdo ctrine
Ġfor bidden
ĠD oll
Rot ation
c yl
ĠV ern
pe st
}) \\
Ġrock et
Sc ience
ORM AL
Ġkilomet ers
( |\
an ian
ĠC lement
un al
Ġemer ge
h dr
Ġdevelop s
prevent Default
Ġh ooks
25 3
Ġresid ue
á ¸
Ã¨ s
Ġkinem atic
g old
p v
C ov
ĠA chiev
ĠEd mund
source forge
Ġsur pass
4 20
Ġp ap
ĠUr ugu
ĠA ch
Ġor al
ĠD um
bal anced
ĠJenn ifer
ĠC ONT
un til
Ġ" </
ab lo
Ġra bb
z ens
un n
ref ox
din and
Com bo
P in
D am
Ġs el
ind ed
Ġgr ateful
Ġtransport ed
r Vert
ĠV il
Ġvocal ist
Ġtrav elling
ER Y
rid or
Ġl ip
Key board
sing ular
Ġim pression
ST O
View ById
ĠBr ussels
Ġt rem
ob server
enn ium
de leted
ĠMal ta
ĠBrown ian
fl ip
ĠB in
s elling
ĠF an
icon duct
F a
Ġhe ll
)}{ (
Ġbrows ers
ST D
fe at
pl oys
Ġdo zen
ident ified
Ġpr ince
ĠCre ative
ĠE T
ad h
> ]
ĠL it
RE C
ĠIndian apolis
d ense
Ġ( ((
Port ug
ĠWy oming
ĠHe in
Ġwid ow
N an
Ġreg isters
G od
S amples
P ic
Ġb arriers
Ġun safe
Ġequ ity
ph ysics
Ġep it
Q A
kins on
Amer ica
Ġsub spaces
H ANDLE
Ġag gressive
Ġred es
Ġkill s
Ġpur ple
ĠK lein
ĠHe aven
ĠMan itoba
print StackTrace
Ġreflect ing
I sl
n is
ĠG B
ĠFl ash
Gr ade
ĠCol in
ex perimental
Ġmanip ulation
Ġmonot onic
Ex cel
Ġtra its
ĠBi ography
Ġdegener acy
] ));
r ors
Ġcor ps
k j
ĠL akes
col span
Ġhon ored
K P
le ston
et ched
ĠAndrew s
att ention
Fin ished
ri ans
Ġsp ite
Ġh ind
ĠW allet
pl ant
ER N
Ġfermion ic
} ''
Ġb ats
ĠR uby
Ġnation wide
Ġdisband ed
Un icode
Ġimply ing
B ODY
art icles
}}( {\
ĠCh ase
que z
ĠĠĠĠĠĠĠĠĠĠĠĠĠĠĠĠĠĠĠĠĠĠĠĠĠĠĠĠĠĠĠĠ ĠĠĠĠĠĠĠĠĠĠĠĠĠĠĠĠ
Ã¡ nd
Ġphon on
L ef
18 15
Ġmultiplic ative
Ġc ob
ĠM ead
Ġun set
Ġloc us
ĠLet ter
cha ft
æ ŀ
ĠF eder
ast ics
hed ron
Cal c
Ġutil izing
ĠCy cl
Ġrefer endum
access or
} <\
desc ribed
ĠSher iff
Q C
ing ale
Ġpit ched
S ar
ç Ľ
Image View
S us
ĠAct ivity
ĠInter ior
Loc ator
CD M
ĠCall back
esc u
Ġsmooth ing
Z end
g ulp
or p
vet ica
")) );
Ġclean up
Ġm appings
ited efault
mc itedefault
Non null
g res
ĠR ush
Ġpermut ations
Ġd ying
Ġbe aring
Ġmain land
Print f
Ġdoc s
Ġdegrad ation
Ġprison er
Ġset Up
l os
Ġfl ank
ĠL E
P ier
] ",
Ġrel atives
pp ers
Class ification
Ġbipart ite
ĠHol ocaust
Ï Į
Ġm eth
ĠT it
18 34
Ġassemb led
F ellow
ĠT iger
Ġhar ass
Ġperform ers
Ġshell s
ĠT ir
Ġ*/ ;
ĠR onald
ĠLapl ace
w ould
ĠCatalog ue
en za
ĠS Ne
Ġindic ation
read able
Ġo ps
Ġconcent rations
H s
mer ged
x ff
arg es
Ġ$( -
Ġtem ples
GL uint
P b
ĠImp act
Ġsyn onym
DE V
ĠLet ters
Ġoff sets
ĠHind i
ĠSol id
M unic
ĠK urt
class ification
SER VICE
ĠTw enty
Ġinvest ments
spect ral
Post ed
jet brains
Ġ ~~
ĠArmen ia
Aut om
Ġp b
Project s
Ġprotect ing
ov ic
Ġvict ories
ĠS pi
Ġdiv or
Dis covery
ĠPublic ations
widget s
er ef
Sup plier
ĠS ed
Ġlo ose
Ġat tained
rec ords
Ġbul let
map per
Newton soft
Ġup stream
Ġvirt ue
ug a
call s
Ġisol ate
[...]
