{"[UNK]":0,"!":1,"\"":2,"#":3,"$":4,"%":5,"&":6,"'":7,"(":8,")":9,"*":10,"+":11,",":12,"-":13,".":14,"/":15,"0":16,"1":17,"2":18,"3":19,"4":20,"5":21,"6":22,"7":23,"8":24,"9":25,":":26,";":27,"<":28,"=":29,">":30,"?":31,"@":32,"A":33,"B":34,"C":35,"D":36,"E":37,"F":38,"G":39,"H":40,"I":41,"J":42,"K":43,"L":44,"M":45,"N":46,"O":47,"P":48,"Q":49,"R":50,"S":51,"T":52,"U":53,"V":54,"W":55,"X":56,"Y":57,"Z":58,"[":59,"\\":60,"]":61,"^":62,"_":63,"`":64,"a":65,"b":66,"c":67,"d":68,"e":69,"f":70,"g":71,"h":72,"i":73,"j":74,"k":75,"l":76,"m":77,"n":78,"o":79,"p":80,"q":81,"r":82,"s":83,"t":84,"u":85,"v":86,"w":87,"x":88,"y":89,"z":90,"{":91,"|":92,"}":93,"~":94,"¡":95,"¢":96,"£":97,"¤":98,"¥":99,"¦":100,"§":101,"¨":102,"©":103,"ª":104,"«":105,"¬":106,"®":107,"¯":108,"°":109,"±":110,"²":111,"³":112,"´":113,"µ":114,"¶":115,"·":116,"¸":117,"¹":118,"º":119,"»":120,"¼":121,"½":122,"¾":123,"¿":124,"Â":125,"Ã":126,"Ä":127,"Å":128,"Æ":129,"Ç":130,"È":131,"É":132,"Ê":133,"Ë":134,"Ì":135,"Í":136,"Î":137,"Ï":138,"Ð":139,"Ñ":140,"Ò":141,"Ó":142,"Ô":143,"Õ":144,"Ö":145,"×":146,"Ø":147,"Ù":148,"Ú":149,"Û":150,"Ü":151,"Ý":152,"Þ":153,"ß":154,"à":155,"á":156,"â":157,"ã":158,"ä":159,"å":160,"æ":161,"ç":162,"è":163,"é":164,"ê":165,"ë":166,"ì":167,"í":168,"î":169,"ï":170,"ð":171,"ñ":172,"ò":173,"ó":174,"ô":175,"Ā":176,"ā":177,"Ă":178,"ă":179,"Ą":180,"ą":181,"Ć":182,"ć":183,"Ĉ":184,"ĉ":185,"Ċ":186,"ċ":187,"Č":188,"č":189,"Ď":190,"ď":191,"Đ":192,"đ":193,"Ē":194,"ē":195,"Ĕ":196,"ĕ":197,"Ė":198,"ė":199,"Ę":200,"ę":201,"Ě":202,"ě":203,"Ĝ":204,"ĝ":205,"Ğ":206,"ğ":207,"Ġ":208,"ġ":209,"Ģ":210,"ģ":211,"Ĥ":212,"ĥ":213,"Ħ":214,"ħ":215,"Ĩ":216,"ĩ":217,"Ī":218,"ī":219,"Ĭ":220,"ĭ":221,"Į":222,"į":223,"İ":224,"ı":225,"Ĳ":226,"ĳ":227,"Ĵ":228,"ĵ":229,"Ķ":230,"ķ":231,"ĸ":232,"Ĺ":233,"ĺ":234,"Ļ":235,"ļ":236,"Ľ":237,"ľ":238,"Ŀ":239,"ŀ":240,"Ł":241,"ł":242,"Ń":243,"ĠĠ":244,"Ġt":245,"ĠĠĠĠ":246,"in":247,"er":248,"on":249,"Ġa":250,"he":251,"at":252,"re":253,"Ġthe":254,"en":255,"or":256,"al":257,"st":258,"an":259,"it":260,"ar":261,"Ġc":262,"ion":263,"Ġo":264,"ed":265,"Ġs":266,"es":267,"is":268,"Ġf":269,"Ġw":270,"le":271,"ĠĠĠ":272,"Ġp":273,"ic":274,"Ġin":275,"Ġof":276,"ĠĠĠĠĠĠĠĠ":277,"ro":278,"nd":279,"ing":280,"Ġb":281,"as":282,"et":283,"ct":284,"Ġd":285,"Ġm":286,"Ġ\\":287,"Ġand":288,"ent":289,"el":290,"am":291,"ou":292,"Ġ$":293,"Ġto":294,"il":295,"ig":296,"Ġre":297,"om":298,"ation":299,"Ġh":300,"Ġn":301,"Ġ(":302,"ol":303,"Ġth":304,"ac":305,"im":306,"id":307,"ĠS":308,"Ġe":309,"ot":310,"ĠT":311,"ur":312,"Ġl":313,"ĠC":314,"iv":315,"ĠĠĠĠĠĠĠ":316,"ut":317,"se":318,"ĠA":319,"ad":320,"Ġis":321,"Ġ=":322,"ul":323,"ce":324,"od":325,"th":326,"Ġfor":327,"{\\":328,"ra":329,"ĉĉ":330,"if":331,"ge":332,"ab":333,"ow":334,"um":335,"ch":336,"qu":337,"em":338,"Ġg":339,"un":340,"ĠM":341,"us":342,"</":343,"čĊ":344,"Ġv":345,"ly":346,"Ġst":347,"ers":348,"ĠI":349,"ith":350,"Ġon":351,"=\"":352,"ist":353,");":354,"pe":355,"ate":356,"ir":357,"Ġcon":358,"Ġbe":359,"ĠP":360,"ĠB":361,"20":362,"ath":363,"ction":364,"ex":365,"Ġas":366,"end":367,"--":368,"ter":369,"Ġ{":370,"ay":371,"pt":372,"ht":373,"oc":374,"Ġ<":375,"ver":376,"_{":377,"ri":378,"Ġthat":379,"ĠH":380,"ĠR":381,"Ġwith":382,"and":383,"19":384,"ĠF":385,"ass":386,"eg":387,"res":388,"ĠĠĠĠĠĠĠĠĠĠĠ":389,"ĠL":390,"ĠD":391,"ub":392,"Ġal":393,"av":394,"Ġpro":395,"ef":396,"Ġ$\\":397,"//":398,"ĠThe":399,"ame":400,"os":401,"Ġan":402,"Ġby":403,"up":404,"Ġ*":405,"Ġwh":406,"ĠN":407,"ĠĊ":408,"ap":409,"ess":410,"Ġ\"":411,"ph":412,"est":413,"ta":414,"Ġwas":415,"ĠG":416,"ew":417,"Ġ&":418,"ity":419,"math":420,"ĠW":421,"âĢ":422,"rom":423,"op":424,"ine":425,"ue":426,"ĠE":427,"art":428,"Ġ}":429,"ort":430,"pl":431,"ere":432,"Ġex":433,"ight":434,"Ġcom":435,"ect":436,"ran":437,"Ġcl":438,"ore":439,"Ġat":440,"all":441,"ure":442,"age":443,"ment":444,"our":445,"ref":446,"ext":447,"ag":448,"ec":449,"nt":450,"\">":451,"ial":452,"ies":453,"iz":454,"Ġit":455,"ĠĠĠĠĠĠĠĠĠĠĠĠĠĠĠĠ":456,"Ġfrom":457,"}\\":458,"Ġor":459,"}$":460,"Ġare":461,"ma":462,"og":463,"^{":464,"ep":465,"int":466,"ult":467,"ill":468,"ud":469,"cl":470,"ive":471,"ĠO":472,"ĠJ":473,"Ġr":474,"ĠĠĠĠĠ":475,"Ġwe":476,"ber":477,"ack":478,"per":479,"ite":480,"urn":481,"()":482,"Ġthis":483,"sp":484,"ant":485,"ke":486,"**":487,"orm":488,"00":489,"ated":490,"ary":491,"ld":492,"ft":493,"ĠU":494,"ich":495,"able":496,"Ġhe":497,"ign":498,"}}":499,"ip":500,"port":501,"'s":502,"The":503,"und":504,"ov":505,"..":506,"Ġclass":507,"(\\":508,"ition":509,"tr":510,"Ġch":511,"ard":512,"ell":513,"con":514,"),":515,"Ġ-":516,"pro":517,"ast":518,"turn":519,"text":520,"ype":521,"ode":522,"201":523,"Ġif":524,"==":525,"ian":526,"In":527,"ical":528,"Ġsh":529,"ff":530,"egin":531,"are":532,"Ġse":533,"ace":534,"ord":535,"begin":536,"ĠK":537,"cal":538,"ase":539,"----":540,"ption":541,"str":542,"get":543,"Ġnot":544,"ire":545,"fr":546,"li":547,"Ġcomp":548,"Ġle":549,"ia":550,"to":551,"ens":552,"Ġ'":553,"ind":554,"ĠIn":555,").":556,"_{\\":557,")$":558,"ime":559,"ong":560,"ug":561,"ev":562,"Ġy":563,"ile":564,"ave":565,"equ":566,"Ġpl":567,"ata":568,"ost":569,"ations":570,"com":571,"Ġres":572,"ild":573,"ĠĠĠĠĠĠĠĠĠĠĠĠĠĠĠ":574,"ork":575,"ak":576,"ĠV":577,"erv":578,"act":579,"Ġwhich":580,"ence":581,"ang":582,"}{":583,"Ġus":584,"âĢĵ":585,"cc":586,"du":587,"},":588,"ide":589,"lic":590,"ject":591,"ain":592,"so":593,"rans":594,"enc":595,"out":596,"abel":597,"unction":598,"Ġ+":599,"frac":600,"200":601,"ust":602,"right":603,"low":604,"Ġcan":605,"eq":606,"Ġ|":607,"fig":608,"Ġun":609,"ice":610,"rm":611,"ach":612,"ener":613,"ib":614,"ther":615,"alue":616,"ĠSt":617,"Ġreturn":618,"form":619,"ry":620,"row":621,"ĠTh":622,"ĉĉĉĉ":623,"Ġ//":624,"ory":625,"Ġap":626,"Ġim":627,"Ġk":628,"eta":629,"Ġhave":630,"->":631,"Ġad":632,"ear":633,"Ġj":634,"Ġ[":635,"aram":636,"ish":637,"rib":638,"::":639,"ublic":640,"Ġ</":641,"mathb":642,"Ġhis":643,"label":644,"set":645,"Ġar":646,"Ġhas":647,"ous":648,"Con":649,"erm":650,"ob":651,"ok":652,"ource":653,"ance":654,"the":655,"18":656,"ount":657,"use":658,"ress":659,"../":660,"ĠCh":661,"over":662,"Ġnew":663,"ond":664,"irst":665,"own":666,"10":667,"fer":668,"\",":669,"ound":670,"ents":671,"ple":672,"ock":673,"cite":674,"Ġalso":675,"ions":676,"ert":677,"clud":678,"ize":679,"tain":680,"$,":681,"old":682,"ps":683,"ree":684,"ould":685,"$.":686,"left":687,"mathcal":688,"Ġab":689,"mer":690,"sc":691,"hen":692,"iel":693,"St":694,",\\":695,"Ġob":696,"Ġstr":697,"Ġdef":698,"Ġcont":699,"ates":700,"ray":701,"sum":702,"Ex":703,"ict":704,"ull":705,"Ġ@":706,"Ġsu":707,"ors":708,"ll":709,"Ġfunction":710,"elf":711,"Ġmod":712,"Ġpart":713,"})":714,"tern":715,"}.":716,"one":717,"Ġall":718,"we":719,"wo":720,"rit":721,"equation":722,"ield":723,"Ġwere":724,"inal":725,"Ġset":726,"ose":727,"ual":728,"put":729,"hed":730,"ics":731,"ark":732,"pect":733,"line":734,"Ġdis":735,"Ġone":736,"te":737,"Ġ/":738,"(\"":739,"div":740,"oth":741,"ml":742,"Ġtr":743,"Ġde":744,"eth":745,"ink":746,"essage":747,"();":748,"ely":749,"oint":750,"sh":751,"}(":752,"Ġint":753,"ss":754,"lect":755,"yst":756,"Ġsp":757,"Ġro":758,"}^":759,"~\\":760,"ome":761,"amb":762,"span":763,"ari":764,"ix":765,"Ġqu":766,"ne":767,"}_":768,"Ġ||":769,"Ġfirst":770,"Ġ.":771,"mb":772,"Ġev":773,"',":774,"tring":775,"ĠUn":776,"></":777,"umber":778,"ool":779,"pha":780,"Ġsc":781,"roup":782,"Ġout":783,"pec":784,"igh":785,"ystem":786,"esc":787,"--------":788,"iew":789,"12":790,"da":791,"raph":792,"les":793,"Ġtwo":794,"ng":795,"Ġname":796,"Ġbut":797,"Ġper":798,"pr":799,"ĠY":800,"Ġ:":801,"Ġits":802,"Ġpre":803,"of":804,"alpha":805,"lo":806,"ator":807,"ular":808,"ck":809,"ribut":810,"><":811,"Ġme":812,"Ġpublic":813,"err":814,"ĠIt":815,"eng":816,"ational":817,"199":818,"ied":819,"ĠHe":820,")\\":821,"fter":822,"Ġpr":823,"Ġ*/":824,"sub":825,"imes":826,"****":827,"Ġtheir":828,"ater":829,"col":830,"../../":831,"pos":832,"ax":833,"Ġcol":834,"====":835,"Ġinter":836,"cent":837,"uct":838,"ings":839,"Ġup":840,"ĉĉĉ":841,"âĢĻ":842,"iss":843,"ollow":844,"ail":845,"Ġover":846,"name":847,"Pro":848,"ery":849,"Ġresult":850,"ambda":851,"))":852,"oid":853,"Ġplay":854,"ys":855,"elta":856,"io":857,"Ġtime":858,"ick":859,"Ġwill":860,"tt":861,"ĠĠĠĠĠĠĠĠĠĠĠĠĠĠĠĠĠĠĠ":862,"lation":863,"Ġdo":864,"Ġsub":865,"ĠĠĠĠĠĠĠĠĠ":866,"$\\":867,"Ġman":868,"aw":869,"ined":870,"ative":871,"Ġform":872,"Ġother":873,"idth":874,"Ġhad":875,"16":876,"Ġline":877,"ho":878,"amma":879,"yn":880,"ences":881,"Ġwork":882,"ethod":883,"Ġag":884,"ific":885,"Ġconst":886,"ĠâĢĵ":887,"lement":888,"ER":889,"html":890,"ox":891,"under":892,"Ġdata":893,"Ġfollow":894,"Ġte":895,"mathbb":896,"('":897,"ons":898,"source":899,"ient":900,"app":901,"this":902,"ased":903,"_\\":904,"=\\":905,"ember":906,"ty":907,"ann":908,"def":909,"Name":910,"dot":911,"Th":912,"ames":913,"message":914,"trans":915,"ie":916,"Ġvalue":917,"15":918,"Ġhref":919,"}_{":920,"Ġ\\\\":921,"Ġreg":922,"Ġbeen":923,"round":924,"Ġwhere":925,"ve":926,"}^{":927,"Ġbet":928,"resent":929,"ĠThis":930,"Ġonly":931,"ms":932,"atic":933,"Ġ_":934,"Ġwhen":935,"arg":936,"Ġcomm":937,"mu":938,"Ġmodel":939,"ont":940,"Ġwho":941,"igma":942,"oot":943,"Ġdif":944,"red":945,"Ġtype":946,"Ġget":947,"ced":948,"Ġsup":949,"ove":950,"ake":951,"Ġmore":952,"Ġi":953,"Ġne":954,"bar":955,"ited":956,"Ġsuch":957,"atch":958,"Ġcons":959,"als":960,"Ġfil":961,"Ġdist":962,"arch":963,"Ref":964,"ON":965,"ican":966,"Type":967,"-\\":968,"let":969,"ega":970,"Ġadd":971,"land":972,"ook":973,"param":974,"Ġpos":975,"Ġinclud":976,"import":977,"Ġso":978,"uild":979,"Ġ#":980,"\\\\":981,"key":982,"Ġgener":983,"che":984,"ues":985,"ript":986,"IN":987,"ĠWe":988,"ca":989,"Ġtrans":990,"cre":991,"Ġloc":992,"^{\\":993,"phi":994,"Ġass":995,"amp":996,"17":997,"Ġthen":998,"ince":999,"align":1000,"ern":1001,"var":1002,"der":1003,"Id":1004,"pi":1005,"abl":1006,"Ġinto":1007,"ween":1008,"String":1009,"min":1010,"ade":1011,"alse":1012,"ward":1013,"orn":1014,"ating":1015,"ise":1016,"ins":1017,"ces":1018,"td":1019,"ans":1020,"Ġthey":1021,"Ġx":1022,"lambda":1023,"section":1024,"ider":1025,"Ġ=>":1026,"ople":1027,"Ġen":1028,"bf":1029,"Ġthere":1030,"urre":1031,"Ġrel":1032,"ton":1033,"Ġco":1034,"hat":1035,"13":1036,"Ġyear":1037,"Ġend":1038,"ugh":1039,"Ġunder":1040,"Ġsim":1041,"Com":1042,"item":1043,"ars":1044,"Ġ{\\":1045,"ram":1046,"dd":1047,"ident":1048,"its":1049,"return":1050,"Ġany":1051,"Ġacc":1052,"198":1053,"Ġdec":1054,"lock":1055,"ities":1056,"14":1057,"Ġused":1058,"Ġthan":1059,"Ġpe":1060,"irect":1061,"ĠCom":1062,"mathbf":1063,"Ġind":1064,"/>":1065,"Ġher":1066,"ivers":1067,"ility":1068,"ature":1069,"Ġbetween":1070,"ures":1071,"oug":1072,"Ġact":1073,"olog":1074,"Ġequ":1075,"Ġrec":1076,"Ġshow":1077,"ists":1078,"olut":1079,"uring":1080,"Ġph":1081,"cess":1082,"Ġatt":1083,"ĠâĢ":1084,"Ġpol":1085,"RE":1086,"ble":1087,"Ġnumber":1088,"11":1089,"Ġuse":1090,"ilon":1091,"Ġself":1092,"Ġrequ":1093,"Ġcase":1094,"ĠSe":1095,"ash":1096,"ible":1097,"ished":1098,"code":1099,"mod":1100,"Refer":1101,"Ġcor":1102,"Ġspec":1103,"class":1104,"Ġ`":1105,"Ġdiffer":1106,"Res":1107,"Ġafter":1108,"ric":1109,"pon":1110,"ternal":1111,"\"/>":1112,"ST":1113,"wh":1114,"translation":1115,"Ch":1116,"plic":1117,"work":1118,"Ġoff":1119,"ask":1120,"Ġsec":1121,"Ġyou":1122,"add":1123,"##":1124,"ote":1125,"ĠPro":1126,"br":1127,"epend":1128,"Ġno":1129,"ized":1130,"ception":1131,"Ġ!":1132,"Ġel":1133,"lection":1134,"Ġext":1135,"ersion":1136,"Ġeach":1137,"Ġprov":1138,"25":1139,"We":1140,"ym":1141,"sigma":1142,"iven":1143,"part":1144,"ĠNew":1145,"yle":1146,"Ġsome":1147,"Ġinv":1148,"rt":1149,"Ġval":1150,"ault":1151,"ache":1152,"ision":1153,"Ġest":1154,"merican":1155,"ik":1156,"urrent":1157,"oy":1158,"^{-":1159,"way":1160,"son":1161,"Ġ(\\":1162,"Ġsystem":1163,"Ġkn":1164,"oun":1165,"Ġcall":1166,"ĠAl":1167,"List":1168,"beta":1169,"serv":1170,"type":1171,"ilde":1172,"}{\\":1173,"Ġop":1174,"itle":1175,"ier":1176,"Ġinst":1177,"ead":1178,"mathrm":1179,"Ġour":1180,"att":1181,"AT":1182,"197":1183,"uth":1184,"Ġgo":1185,"ily":1186,"aramet":1187,"Ġprodu":1188,"Ġwould":1189,"References":1190,"for":1191,"ample":1192,"air":1193,"Ġfe":1194,"array":1195,"vel":1196,"loc":1197,"://":1198,"Ġpoint":1199,"__":1200,"val":1201,"ower":1202,"ract":1203,"Ġhigh":1204,"ines":1205,"read":1206,"ule":1207,"eps":1208,"ument":1209,"ĠQ":1210,"Ġserv":1211,"ever":1212,"Ġstud":1213,"*}":1214,"vent":1215,"arn":1216,"21":1217,"Ġ==":1218,"width":1219,"ength":1220,"Ġent":1221,"Ġ--":1222,"mall":1223,"Ġnull":1224,"wn":1225,"ization":1226,"gamma":1227,"arge":1228,"ĠZ":1229,"Ġerr":1230,"Ġtra":1231,"ren":1232,"ally":1233,"rough":1234,"orld":1235,"log":1236,"Ġthese":1237,"fo":1238,"Ġabout":1239,"Ġmay":1240,"ole":1241,"ĠFor":1242,"back":1243,"Ġ>":1244,"Ġoper":1245,"+\\":1246,"oci":1247,"Cl":1248,"ages":1249,"uss":1250,"):":1251,"Ġvar":1252,"chool":1253,"ĠĠĠĠĠĠĠĠĠĠĠĠĠĠĠĠĠĠĠĠĠĠĠĠĠĠĠĠĠĠĠĠ":1254,"umn":1255,"]{":1256,"Ġfield":1257,"Ġdev":1258,"Ġorg":1259,"man":1260,"Ġeff":1261,"Ġvari":1262,"AR":1263,"ious":1264,"Ġ)":1265,"ball":1266,"Ġvoid":1267,"22":1268,"figure":1269,"leq":1270,"Ġcre":1271,"ivate":1272,")}":1273,"ĠX":1274,"ments":1275,"Ġshe":1276,"Ġsign":1277,"Ġrep":1278,"rad":1279,"Ġstate":1280,"org":1281,"any":1282,"yp":1283,"30":1284,"ser":1285,"Ġdesc":1286,"theta":1287,"Ġmost":1288,"rho":1289,"ices":1290,"Ġed":1291,"oh":1292,"Ġtest":1293,"^\\":1294,"OR":1295,"htt":1296,"ĠAs":1297,"Ġusing":1298,"ange":1299,"gy":1300,"Ġmethod":1301,"tau":1302,"\"><":1303,"LE":1304,"itt":1305,"Ġpeople":1306,"rr":1307,"Ġac":1308,"Ġnon":1309,"Ġsame":1310,"ason":1311,"ID":1312,"delta":1313,"ĠSh":1314,"Ġfinal":1315,"ĠCon":1316,"196":1317,"ey":1318,"Ġappro":1319,"Ġback":1320,"press":1321,"ough":1322,"Ġgroup":1323,"Ġfl":1324,"Ġcent":1325,"$-":1326,"Ġtrue":1327,"includ":1328,"raw":1329,"}$,":1330,"cdot":1331,"ĠĠĠĠĠĠ":1332,"ee":1333,"action":1334,"ptions":1335,"////":1336,"Ġdifferent":1337,"To":1338,"Ġfalse":1339,"Ġfound":1340,"}$.":1341,"\")":1342,"az":1343,"SS":1344,"ired":1345,"iversity":1346,"big":1347,"hip":1348,"Ġmin":1349,"Ġfollowing":1350,"lang":1351,"string":1352,"ism":1353,"Ġgiven":1354,"Ġthrough":1355,"}(\\":1356,"Col":1357,"ional":1358,"pre":1359,"not":1360,"self":1361,"Ġchar":1362,"Ar":1363,"Ġsing":1364,"eqref":1365,"Ġser":1366,"Ġwell":1367,"iver":1368,"perty":1369,"me":1370,"Ġdes":1371,"atri":1372,"ĠĠĠĠĠĠĠĠĠĠĠĠĠ":1373,"50":1374,"uc":1375,"It":1376,"32":1377,"bject":1378,"ically":1379,"ner":1380,"irc":1381,"\");":1382,"arget":1383,"Ġpartic":1384,"Ġorder":1385,"********":1386,"ava":1387,"arrow":1388,"pp":1389,"000":1390,"Ġam":1391,"ott":1392,"ron":1393,"Ġboth":1394,"AL":1395,"Ġem":1396,"times":1397,"Ġterm":1398,"Ġsecond":1399,"by":1400,"----------------":1401,"Ġz":1402,"ah":1403,"olution":1404,"struct":1405,"data":1406,"partial":1407,"ets":1408,"co":1409,"play":1410,"ury":1411,"ĠAn":1412,"cont":1413,"sec":1414,"ĠCl":1415,"ĠAmerican":1416,"ĠCol":1417,"Ġlink":1418,"owever":1419,"view":1420,"Ġthree":1421,"Ġdet":1422,"ody":1423,"ale":1424,"outh":1425,"EN":1426,"new":1427,"orth":1428,"Value":1429,"ement":1430,"ute":1431,"quad":1432,"Ġagain":1433,"omega":1434,"24":1435,"ified":1436,"Ġwhile":1437,"ral":1438,"ger":1439,"Data":1440,"uff":1441,"ases":1442,"aj":1443,"nu":1444,"fty":1445,"Ġperform":1446,"elop":1447,"ector":1448,"ĠInd":1449,"infty":1450,"Ġparamet":1451,"dition":1452,"nb":1453,"value":1454,"Ġdirect":1455,"ts":1456,"face":1457,"Ġsur":1458,"Ġobject":1459,"pm":1460,"ĠĠĠĠĠĠĠĠĠĠĠĠĠĠĠĠĠĠĠĠĠĠĠ":1461,"Ġelse":1462,"ency":1463,"Ã©":1464,"Ġstring":1465,"ouse":1466,"Ġstart":1467,"center":1468,"Ġlist":1469,"ream":1470,"|\\":1471,"')":1472,"âĢĿ":1473,"For":1474,"ives":1475,"Ġconsider":1476,"tilde":1477,"ife":1478,"Ġid":1479,"ccess":1480,"til":1481,"arly":1482,"requ":1483,"uary":1484,"ify":1485,"other":1486,"chi":1487,"olds":1488,"Ġran":1489,"gle":1490,"ĠAr":1491,"ining":1492,"Ġduring":1493,"els":1494,"ively":1495,"========":1496,"Ġyears":1497,"overn":1498,"ele":1499,"ulation":1500,"fore":1501,"ared":1502,"par":1503,"ots":1504,"ymb":1505,"Ġthem":1506,"ential":1507,"Set":1508,"Ġcount":1509,"ived":1510,"Ġfact":1511,"ader":1512,"date":1513,"space":1514,"ike":1515,"194":1516,"file":1517,"nbsp":1518,"Ġ/**":1519,"Ġ&&":1520,"As":1521,"ymbol":1522,"itial":1523,"Un":1524,"bers":1525,"roll":1526,"Ġ$(":1527,"ural":1528,"ĠEx":1529,"cept":1530,"Ġlarge":1531,"order":1532,"Delta":1533,"ĠLe":1534,"));":1535,"erson":1536,"dis":1537,"mary":1538,"Ġhim":1539,"Ġdisc":1540,"Ġu":1541,"23":1542,"SE":1543,"ĠUniversity":1544,"\\,":1545,"atrix":1546,"fl":1547,".,":1548,"($":1549,"ten":1550,"Ġca":1551,"ross":1552,"DE":1553,"Ġrele":1554,"ather":1555,"script":1556,"eqn":1557,"Ġlong":1558,"ĠUnited":1559,"formation":1560,"rop":1561,"Exception":1562,"ĠDe":1563,"arent":1564,"Ġra":1565,"ister":1566,"Ġresults":1567,"rror":1568,"100":1569,"atus":1570,"rol":1571,"px":1572,"etwork":1573,"ality":1574,"rid":1575,"Ġfam":1576,"cit":1577,"uch":1578,"test":1579,"Ġrun":1580,"ĠĠĊ":1581,"reat":1582,"ler":1583,"ays":1584,"location":1585,"Ġstruct":1586,"On":1587,"orem":1588,"];":1589,"sq":1590,"Ġbeing":1591,"vert":1592,"ful":1593,"ission":1594,"color":1595,"Âł":1596,"size":1597,"resp":1598,"Ġcontain":1599,"very":1600,"roid":1601,"Ġwrit":1602,"gor":1603,"Ġsmall":1604,"iving":1605,"Ġart":1606,"Ġmain":1607,"ground":1608,"ĠSc":1609,"iqu":1610,"Ġprivate":1611,"ense":1612,"CT":1613,"ability":1614,"Ġsupport":1615,"}[":1616,"Ġbound":1617,"med":1618,"umer":1619,"Ġ///":1620,"Ġcurrent":1621,"Ġmany":1622,")$.":1623,"Ġfin":1624,"Ġobtain":1625,"Ġneed":1626,"Ġstatic":1627,"Ġbefore":1628,"Object":1629,"Ġright":1630,"au":1631,"inter":1632,"Ġprocess":1633,"ctions":1634,"],":1635,"Ġshould":1636,"ek":1637,"table":1638,"aid":1639,"xi":1640,"Ġeffect":1641,"Ġmed":1642,"reg":1643,"Ġmade":1644,"efore":1645,".\"":1646,"ected":1647,"anc":1648,"gram":1649,"led":1650,"ĠString":1651,"ank":1652,"Ġrepresent":1653,"Test":1654,"Ġelement":1655,"where":1656,"Ġbel":1657,"lex":1658,"By":1659,"istory":1660,"Ġpop":1661,"Ġcontin":1662,"heck":1663,"ology":1664,"Ġteam":1665,"Ġobserv":1666,"met":1667,"rem":1668,"ants":1669,"Ġ!=":1670,"Ġapp":1671,"ograph":1672,"Cont":1673,"}}\\":1674,"sim":1675,"Ġmet":1676,"CO":1677,"fra":1678,"IT":1679,"lem":1680,"Ġorig":1681,"Ġ%":1682,"go":1683,"Ġlinks":1684,"Im":1685,"time":1686,"$$":1687,"tab":1688,"sk":1689,"ootball":1690,"agn":1691,"ww":1692,"cm":1693,"Ġmem":1694,"Ġsince":1695,"ina":1696,"Ph":1697,"rite":1698,"};":1699,"Ġarg":1700,"ĠâĢľ":1701,"lob":1702,"epsilon":1703,"ĠOn":1704,"Ġmon":1705,"top":1706,"aces":1707,"().":1708,"comm":1709,"Ġlead":1710,"usic":1711,"Ġsize":1712,"Mod":1713,"Ġhand":1714,"ME":1715,"Ġknown":1716,"ning":1717,"Ġimport":1718,"Ġlocal":1719,"Ġbuild":1720,"af":1721,"Ind":1722,"An":1723,"position":1724,"Ġdevelop":1725,"195":1726,"}_{\\":1727,"ustr":1728,"unc":1729,"Ġanal":1730,"External":1731,"Ġdistribut":1732,"reak":1733,"());":1734,"ober":1735,"ĠIs":1736,"ription":1737,"Ġ,":1738,"function":1739,"64":1740,"rc":1741,"ane":1742,"ior":1743,"field":1744,"ĠIf":1745,"Error":1746,"AN":1747,"Ġmult":1748,"Ġpresent":1749,"ohn":1750,"pert":1751,"Ġnow":1752,"Get":1753,"link":1754,"ĠEng":1755,"ĠĠĠĠĊ":1756,"Ġappe":1757,"Ġrem":1758,"ually":1759,"33":1760,"This":1761,"...":1762,"Ġmeas":1763,"ĠčĊ":1764,"Ġtem":1765,"\".":1766,"Ġtitle":1767,"olv":1768,"lected":1769,"Ġbeg":1770,"Ġexpect":1771,"Ġdescrib":1772,"psi":1773,"Ġfour":1774,"ager":1775,"27":1776,"ocument":1777,"Ġrecord":1778,"respond":1779,"pace":1780,"Ġfr":1781,"Ġcondition":1782,"40":1783,"Om":1784,"cale":1785,"lack":1786,"util":1787,"oss":1788,"Ġlater":1789,"raphics":1790,"Ġresp":1791,"Ġmov":1792,"istr":1793,"bm":1794,"Sh":1795,"etail":1796,"ift":1797,"nav":1798,"vious":1799,"ĠStates":1800,"indow":1801,"atter":1802,"cause":1803,"index":1804,"ubl":1805,"28":1806,"Ġvalues":1807,"be":1808,"Al":1809,"ĉĉĉĉĉ":1810,"ĠFig":1811,"oad":1812,"Ġbased":1813,"Ġtop":1814,"url":1815,"imit":1816,"Ġincluding":1817,"enn":1818,"Ġbecause":1819,"mp":1820,"Class":1821,"ĠComm":1822,"her":1823,"Ġplayers":1824,")$,":1825,"Ġpass":1826,"ica":1827,"Ġbro":1828,"omen":1829,"Ġkey":1830,"26":1831,"list":1832,"Ġrespect":1833,"public":1834,"Ġfind":1835,"Omega":1836,"bum":1837,"Ġevent":1838,"ival":1839,"Ġdoes":1840,"Ġmass":1841,"uration":1842,"summary":1843,"Ġcould":1844,"._":1845,"lay":1846,"energy":1847,"psilon":1848,"acter":1849,"chn":1850,"Ġsee":1851,"Gamma":1852,"\";":1853,"ley":1854,"eqnarray":1855,"Ġbo":1856,"textbf":1857,"une":1858,"const":1859,"ĠShe":1860,"En":1861,"^*":1862,"Ġopen":1863,"ification":1864,"sqrt":1865,"Ġown":1866,"ormal":1867,"reen":1868,"Ġfilm":1869,"Ġevery":1870,"Int":1871,"arri":1872,"Ġallow":1873,"\"></":1874,"Ġrefer":1875,"inc":1876,"group":1877,"Ġproble":1878,"Ġleft":1879,"Ġav":1880,".</":1881,"imens":1882,"ij":1883,"Ġpar":1884,"Ġpres":1885,"fin":1886,"Ġerror":1887,"ush":1888,"View":1889,"['":1890,"Ġposs":1891,"subsection":1892,"Ġincre":1893,"omet":1894,"Requ":1895,"ĠCount":1896,"node":1897,"http":1898,"Ġgeneral":1899,"caption":1900,"ided":1901,"Ġrad":1902,"Ġspace":1903,"Ġfile":1904,"ervice":1905,"Ġexper":1906,"ampl":1907,"Key":1908,"load":1909,"Tr":1910,"see":1911,"ood":1912,"Ġread":1913,"Ġgu":1914,"uthor":1915,"Ġtak":1916,"search":1917,"Ġseries":1918,"Ġcalled":1919,"bo":1920,"AC":1921,"vare":1922,"odes":1923,"js":1924,"por":1925,"ape":1926,"iter":1927,"box":1928,"Ġlast":1929,"ru":1930,"Ġassum":1931,"no":1932,"opy":1933,"urther":1934,"ĠPh":1935,"2015":1936,"Ġmap":1937,"inition":1938,"Ġlike":1939,"de":1940,"2016":1941,"less":1942,"Ġrece":1943,"].":1944,"ting":1945,"29":1946,"ness":1947,"Ġdr":1948,"bs":1949,"Ġident":1950,"varepsilon":1951,"rodu":1952,"path":1953,"');":1954,"Ġcorrespond":1955,"ths":1956,"ats":1957,"rap":1958,"Ġexp":1959,"Ġ${\\":1960,"(),":1961,"ird":1962,"arm":1963,"Ġestabl":1964,"Ġschool":1965,"}^{\\":1966,"ero":1967,"Ġjust":1968,"Ġref":1969,"ital":1970,"Ġagainst":1971,"map":1972,"ope":1973,"egraphics":1974,"includegraphics":1975,"^{(":1976,"Ġsingle":1977,"off":1978,"idd":1979,"Ġsever":1980,"ĠMar":1981,"LL":1982,"uffer":1983,"ret":1984,"Ġvery":1985,"ports":1986,"amed":1987,"itive":1988,"max":1989,"with":1990,"ribute":1991,"urs":1992,"File":1993,"uro":1994,"Ġdi":1995,"../../../../":1996,"igned":1997,"}=":1998,"Ġdep":1999,"ides":2000,"rightarrow":2001,"\":":2002,"ium":2003,"ĠFran":2004,"fil":2005,"Ġseason":2006,"lp":2007,"ague":2008,"Ġaut":2009,"rag":2010,"gorith":2011,"ĠRes":2012,"LA":2013,"ĠJohn":2014,"RO":2015,"Ġlevel":2016,"ĠMay":2017,"Ġmake":2018,"2017":2019,"60":2020,"Ġgovern":2021,"']":2022,"!--":2023,"Ġvis":2024,"ience":2025,"Se":2026,"2014":2027,"Not":2028,"side":2029,"but":2030,"ĠNational":2031,"ilar":2032,"ene":2033,"Ġmax":2034,"Ġposition":2035,"Ġcal":2036,"Ġopt":2037,"Ġchild":2038,"Ġinteg":2039,"2018":2040,"Ġdue":2041,"Ġrema":2042,"ternational":2043,"pty":2044,"Ġestim":2045,"perties":2046,"non":2047,"ai":2048,"ven":2049,"Ġocc":2050,"itor":2051,"urch":2052,"Ġtyp":2053,")=":2054,"Ġeven":2055,"Ġenergy":2056,"2010":2057,"pack":2058,"ĠWorld":2059,"Ġreal":2060,"Ġalbum":2061,"ination":2062,"Ġ\\,":2063,"Ġaddition":2064,"PE":2065,"aint":2066,"Ġinitial":2067,"Ġstand":2068,"rel":2069,"Ġfootball":2070,"Def":2071,"lear":2072,"ison":2073,"ised":2074,"Ġbecom":2075,"Time":2076,"ĠSp":2077,"2019":2078,"Ġinformation":2079,"=\"+":2080,"ators":2081,"Ġexample":2082,"ponse":2083,"iod":2084,"''":2085,"rangle":2086,"emph":2087,"Qu":2088,"ended":2089,"rand":2090,"Ġabove":2091,"ges":2092,"Ġfamily":2093,"plit":2094,"TE":2095,"ĠOr":2096,"iction":2097,"Request":2098,"duct":2099,"Re":2100,"oper":2101,"Ġlet":2102,"Ġthose":2103,"geq":2104,"2013":2105,"Ġdepend":2106,"2020":2107,"ĠCan":2108,"Ġcommun":2109,"varphi":2110,"Ġassert":2111,"Ġ/>":2112,"uage":2113,"user":2114,"cer":2115,"Ġmust":2116,"Ġden":2117,"Ġwithin":2118,"aper":2119,"Ġtarget":2120,"Ġwhat":2121,"Ġmeasure":2122,"stru":2123,"quot":2124,"ixed":2125,"With":2126,"Ġsum":2127,"ources":2128,"came":2129,"ION":2130,"ĠHowever":2131,"ĠJan":2132,"2011":2133,"'t":2134,"ogle":2135,"Equ":2136,"Man":2137,"Ġnetwork":2138,"Ġbecame":2139,"Ġdefined":2140,"length":2141,"imal":2142,"Ġ);":2143,"Node":2144,"vir":2145,"Ġprogram":2146,"sup":2147,"2012":2148,"ately":2149,"He":2150,"Ġsaid":2151,"State":2152,"ĠRe":2153,"Ġexpl":2154,"ians":2155,".~\\":2156,"ords":2157,"IC":2158,"``":2159,"Add":2160,"plication":2161,"ring":2162,"overline":2163,"35":2164,"Ġuntil":2165,"Ġoriginal":2166,"ches":2167,"ends":2168,"Ġnode":2169,"ĠYork":2170,"ety":2171,"ĠPr":2172,"Ġ?":2173,"80":2174,"ajor":2175,"Event":2176,"Ġtext":2177,"Ġlog":2178,"proof":2179,"TR":2180,"Sc":2181,"Ġpower":2182,"Ġalong":2183,"Ġbir":2184,"ĠAd":2185,"ensure":2186,"Ġpath":2187,"/*":2188,"wards":2189,"eff":2190,"ĠFe":2191,"Ġtot":2192,"ĠAt":2193,"dt":2194,"Ġelect":2195,"rows":2196,"/**":2197,"Ġnear":2198,"ĠTr":2199,"ĠJul":2200,"posed":2201,"draw":2202,"Ġversion":2203,"acy":2204,"ensity":2205,"Text":2206,"Ġseveral":2207,"uk":2208,"atures":2209,"olean":2210,"Ġinput":2211,"comp":2212,"result":2213,"ivity":2214,"AP":2215,"hes":2216,"ĠCar":2217,"rist":2218,"vec":2219,"ĠBrit":2220,"eter":2221,"Big":2222,"Ġarea":2223,"Ġcomput":2224,"Info":2225,".}":2226,"Element":2227,"alth":2228,"lim":2229,"ording":2230,"Ġsat":2231,"ries":2232,"ĠCounty":2233,"ĠSchool":2234,"())":2235,"Ġrequest":2236,"ored":2237,"ĠWar":2238,"frak":2239,"Ġcr":2240,"ĠAll":2241,"Map":2242,"Ġbu":2243,"34":2244,"FF":2245,"Path":2246,"ĠAnd":2247,"ĠGe":2248,"ĠNov":2249,"Ġway":2250,"lobal":2251,"style":2252,"cul":2253,"ynam":2254,"sl":2255,"ecut":2256,"Ġcare":2257,"ament":2258,"90":2259,"Ġsection":2260,"ĠWh":2261,"Ġproject":2262,"Ġhow":2263,"iam":2264,"erman":2265,"Ġnext":2266,"ilt":2267,"Ġdom":2268,"Ġdid":2269,"ĠCent":2270,"Config":2271,"Form":2272,"////////":2273,"},\\":2274,"Ġ-->":2275,"Ġparticular":2276,"ux":2277,"Or":2278,"[\\":2279,"point":2280,"Ġlaw":2281,"}).":2282,"Ġpolit":2283,"Ġmark":2284,"Ġsong":2285,"Ġshown":2286,"ĠPl":2287,"mm":2288,"ling":2289,"Item":2290,"Ġspect":2291,"stance":2292,"Ġcharacter":2293,"ride":2294,"from":2295,"ession":2296,"Ġstyle":2297,"Ġprevious":2298,"iment":2299,"bolds":2300,"Ġprot":2301,"Ġbas":2302,"Ġann":2303,"Ġfollows":2304,"Ġorgan":2305,"alk":2306,"Over":2307,"&\\":2308,"ances":2309,"Ġarray":2310,"Index":2311,"Ġdeath":2312,"Ġ/*":2313,"ĠSouth":2314,"amespace":2315,"boldsymbol":2316,"2009":2317,"sf":2318,")^":2319,"head":2320,"Ġcur":2321,"Ġmodels":2322,"Ġ:=":2323,"lin":2324,"ĠWest":2325,"':":2326,"2008":2327,"Ġexist":2328,"nder":2329,"ĠĠĠĠĠĠĠĠĠĠĠĠĠĠĠĠĠĠĠĠĠĠĠĠĠĠĠ":2330,"xim":2331,"ourn":2332,"gest":2333,"Ġblock":2334,"ugust":2335,"Ġcontinu":2336,"hline":2337,"Ġsimilar":2338,"Ġaround":2339,"Ġview":2340,"Context":2341,"Ġsuccess":2342,"ĠAss":2343,"Ġder":2344,"mathfrak":2345,"light":2346,"erefore":2347,"Ġsol":2348,"ptember":2349,"ustral":2350,"75":2351,"ius":2352,"Ġassoci":2353,"Field":2354,"hem":2355,"bit":2356,"Ġlife":2357,"cor":2358,"mult":2359,"input":2360,"aim":2361,"Ġtotal":2362,"orph":2363,"Ġdown":2364,"void":2365,"ster":2366,"}}$":2367,"wid":2368,"api":2369,"ouble":2370,"Ġplace":2371,"Ġhead":2372,"ocus":2373,"ponent":2374,"Ġquant":2375,"ables":2376,"Ġbeh":2377,"Result":2378,"Service":2379,"ĠPol":2380,"aving":2381,"istor":2382,"ĠMan":2383,"ependent":2384,"imum":2385,"ploy":2386,"wit":2387,"99":2388,"icon":2389,"true":2390,"Ġmusic":2391,"https":2392,"Ġworld":2393,"Ġpoints":2394,"ui":2395,"ctober":2396,"Ġgame":2397,"Ġband":2398,"ique":2399,"Ġstat":2400,"struction":2401,"Let":2402,"Array":2403,"Ġconf":2404,"config":2405,"ae":2406,"Ġdefault":2407,"|-":2408,"45":2409,"state":2410,"Ġoffic":2411,"2007":2412,"Ġcompon":2413,"iness":2414,"ysis":2415,"Ġbook":2416,"ĠReg":2417,"ĠPar":2418,"31":2419,"Ġdeterm":2420,"ony":2421,"####":2422,"AS":2423,"Ġ($":2424,"Ġ(!":2425,"Ġpost":2426,"mber":2427,"Ġparameters":2428,"Ġdem":2429,")(":2430,"ĠMarch":2431,"plement":2432,"Ġproblem":2433,"Ġuser":2434,"Ġprob":2435,"object":2436,"apt":2437,"uck":2438,"Ġexpress":2439,"Ġredu":2440,"2006":2441,"gorithm":2442,"36":2443,"Ġcontent":2444,"lish":2445,"Fil":2446,"oman":2447,"Ġchang":2448,"Ġstill":2449,"Ġwithout":2450,"error":2451,"ĠRep":2452,"Ġsource":2453,"annel":2454,"aced":2455,"istic":2456,"pril":2457,"Ġadv":2458,"Ġbase":2459,"apache":2460,"dom":2461,"Ġreport":2462,"sequ":2463,"pose":2464,"ustom":2465,"UR":2466,"Ġinclude":2467,"ĠJanuary":2468,"ĠâĢĶ":2469,"ĠAugust":2470,"day":2471,"Ġlow":2472,"ĠSeptember":2473,"';":2474,"Ġcrit":2475,"ĠThey":2476,"ĠII":2477,"lege":2478,"citep":2479,"vision":2480,"AD":2481,"semb":2482,"ldots":2483,"ML":2484,"Ġintrodu":2485,"nection":2486,"ransp":2487,"ampions":2488,"ĠMin":2489,"****************":2490,"Att":2491,"word":2492,"Ġcap":2493,"Ġ});":2494,"Ġret":2495,"block":2496,"[]":2497,"body":2498,"Ġrange":2499,"Ġmy":2500,"ymmet":2501,"Ġstructure":2502,"Ġclos":2503,"arning":2504,"ailable":2505,"ules":2506,"ateg":2507,"Ġshows":2508,"uf":2509,"Ġbreak":2510,"39":2511,"down":2512,"Ġ},":2513,"yl":2514,"cast":2515,"Ġcheck":2516,"ĠState":2517,"Ġet":2518,"Ġmuch":2519,"Ġyour":2520,"bl":2521,"Ġterms":2522,"Ġtri":2523,"Ġdat":2524,"appa":2525,"stit":2526,"Ġindex":2527,"01":2528,"langle":2529,"ze":2530,"Ġpubl":2531,"ĠOctober":2532,"Ġtechn":2533,"ĠCal":2534,"Ġcode":2535,"Code":2536,"ottom":2537,"Ġcontext":2538,"Build":2539,"version":2540,"ĠJune":2541,"eturn":2542,"ially":2543,"Ġpat":2544,"title":2545,"Ġperson":2546,"Ġconfig":2547,"Ġperiod":2548,"df":2549,"ttp":2550,"ibr":2551,"isf":2552,"cember":2553,"Ġdiv":2554,"MP":2555,"Ġold":2556,"++":2557,"ged":2558,"Ġformer":2559,"\"\"":2560,"Ġmak":2561,"Ġke":2562,"urope":2563,"LO":2564,"md":2565,"Lambda":2566,"ĠGu":2567,"All":2568,"Is":2569,"Ġdistribution":2570,"Ġknow":2571,"37":2572,"enu":2573,"opt":2574,"IS":2575,"Ġhere":2576,"plate":2577,"Ġdeg":2578,"38":2579,"assert":2580,"ĠJuly":2581,"Comm":2582,"Ġearly":2583,"loat":2584,"Ġenc":2585,"ken":2586,"ĠBy":2587,"ĠTo":2588,"Phi":2589,"ideo":2590,"ither":2591,"aut":2592,"ĠSec":2593,"ffic":2594,"Of":2595,"From":2596,"UT":2597,"amples":2598,"Ġmatch":2599,"Ġpred":2600,"Ġcomplet":2601,"Ġimage":2602,"Ġdesign":2603,"05":2604,"abled":2605,"Size":2606,"Ġshort":2607,"Ġinstance":2608,"illion":2609,"Ġstudy":2610,"Ġinterest":2611,"ync":2612,"Ġregion":2613,"ilit":2614,"ii":2615,"ĠSystem":2616,"Ġtake":2617,"ĠApril":2618,"2000":2619,"Ġparameter":2620,"Ġbest":2621,"Ġreleased":2622,"Ġfail":2623,"Ġlang":2624,"Ġdescribed":2625,"Ġcorre":2626,"ware":2627,"Ġhelp":2628,"textit":2629,"See":2630,"Ġwin":2631,"Ġiss":2632,"ait":2633,"Pl":2634,"subset":2635,"uster":2636,"thern":2637,"abla":2638,"ĠUS":2639,"Ġcomb":2640,"Message":2641,"}),":2642,"Ġsequ":2643,"Ġcho":2644,"rec":2645,"ĠAustral":2646,"~~":2647,"icle":2648,"Ġeng":2649,"Ġmembers":2650,"Ġplayed":2651,"prov":2652,"aterial":2653,"born":2654,"usiness":2655,"kappa":2656,"si":2657,"ĠCo":2658,"Ġvert":2659,"circ":2660,"Ġaction":2661,"Ġ()":2662,"nabla":2663,"ĠNovember":2664,"Ġlength":2665,"ĠNorth":2666,"Ġq":2667,"escription":2668,"Color":2669,"Ġmat":2670,"Ġpossible":2671,"IG":2672,"ude":2673,"icy":2674,"ender":2675,"ection":2676,"})$":2677,"=\"../../../../":2678,"ales":2679,"ĠCity":2680,"oll":2681,"using":2682,"Ġwon":2683,"gs":2684,"66":2685,"lt":2686,"Ġsk":2687,"urb":2688,"Ġstates":2689,"AB":2690,"Rec":2691,"Hand":2692,"Ð°":2693,"ino":2694,"Val":2695,"ĠBe":2696,"Ġcour":2697,"Ġdel":2698,"Ġdiscuss":2699,"create":2700,"Ġproperty":2701,"iple":2702,"bra":2703,"viron":2704,"Ġservice":2705,"inary":2706,"fess":2707,"reate":2708,"start":2709,"ention":2710,"ĠDecember":2711,"2005":2712,"\\|":2713,"Ġvol":2714,"Ġanother":2715,"ĠArt":2716,"Ġbackground":2717,"Ã¡":2718,">&":2719,"mo":2720,"ĠTe":2721,"otential":2722,"Ġcreate":2723,"uments":2724,"Ġjava":2725,"Ġmajor":2726,"Ġaver":2727,"ĠEn":2728,"='":2729,"Ġcity":2730,"andom":2731,"ump":2732,"Ġaff":2733,"ography":2734,"default":2735,"Ġmatrix":2736,"Ġmagn":2737,"call":2738,"ĠBritish":2739,"\\%":2740,"aster":2741,"ham":2742,"Ġ``":2743,"urg":2744,"Ser":2745,"ĠThen":2746,"Ġgraph":2747,"Ġindu":2748,"Ġdetail":2749,"Ġgovernment":2750,"etic":2751,"Loc":2752,"Ġapproxim":2753,"ada":2754,".\\":2755,"raft":2756,"Ġfull":2757,"Ġchange":2758,"Ġmean":2759,"Ġpo":2760,"ĠNo":2761,"java":2762,"Ġcontrol":2763,"Ġ__":2764,"Ġlimit":2765,"Ġside":2766,"Ġspe":2767,"ocial":2768,"model":2769,"70":2770,"idual":2771,"ung":2772,"epar":2773,"New":2774,"Ġrequire":2775,"count":2776,"Ġla":2777,"Ġland":2778,"ĠEurope":2779,"At":2780,"ĠSup":2781,"urity":2782,"Ġtimes":2783,"though":2784,"55":2785,"ways":2786,"ED":2787,"2021":2788,"ĠÐ":2789,"ĠYou":2790,"Ġfunctions":2791,"Ġmember":2792,"Ġport":2793,"sw":2794,"cap":2795,"uman":2796,"ension":2797,"Ġsuper":2798,"ĉĊ":2799,"bruary":2800,"lient":2801,"alf":2802,"ensuremath":2803,"ĠWill":2804,"otimes":2805,"Ġ===":2806,"Ġstrong":2807,"System":2808,"dev":2809,"define":2810,"my":2811,"ently":2812,"Ġge":2813,"pen":2814,"Out":2815,"clus":2816,"Dis":2817,"2004":2818,"Pr":2819,"ards":2820,"mbox":2821,"ĠĠĠĠĠĠĠĠĠĠ":2822,"Ġcolor":2823,"Ġsatisf":2824,"asc":2825,"base":2826,"ordin":2827,"ume":2828,"Ġwidth":2829,"ĠPart":2830,"ĠĠĠĠĠĠĠĠĠĠĠĠ":2831,"apan":2832,"ĠList":2833,"ING":2834,"CH":2835,"vers":2836,"Ġindic":2837,"Ġdensity":2838,"ET":2839,"ille":2840,"gt":2841,"Ġleg":2842,"\\[":2843,"Ġfeature":2844,"info":2845,"Inter":2846,"check":2847,"dots":2848,"eneral":2849,"Ġimportant":2850,"Ent":2851,"ĉĉĉĉĉĉ":2852,"Ġrepl":2853,"century":2854,"lete":2855,"Ġ};":2856,"ĠKing":2857,"48":2858,"Ġlabel":2859,"Ġhome":2860,"Ġpopulation":2861,"If":2862,"Ġoutput":2863,"Ġbl":2864,"ĠRec":2865,"Ġitem":2866,"Ġconn":2867,"Ġobtained":2868,"include":2869,"Log":2870,"tings":2871,"TD":2872,"ĠLeague":2873,"Manager":2874,"Ġbirths":2875,"Ġcompet":2876,"bug":2877,"alt":2878,"iff":2879,"tainer":2880,"Ġwomen":2881,"ampionship":2882,"earch":2883,"roller":2884,"}}{":2885,";&":2886,"Table":2887,"Ġsrc":2888,"ĠAfter":2889,"Ġtry":2890,"Ġcar":2891,"lor":2892,"content":2893,"onse":2894,"Ġprom":2895,"Ġfurther":2896,"Ġcomplex":2897,"Ġsignific":2898,"Ġperformance":2899,"Ġnamed":2900,"Ġins":2901,"now":2902,"bt":2903,"Ġgood":2904,"ĠThere":2905,"ES":2906,"Ġrole":2907,"Ġred":2908,"next":2909,"foot":2910,"bb":2911,"Sigma":2912,"ks":2913,"ĠEd":2914,"Ġphot":2915,"Up":2916,"Ġgrad":2917,"Ġproduct":2918,"Ð¾":2919,"wide":2920,"/\\":2921,"nonumber":2922,"hold":2923,"Ġlay":2924,"refer":2925,"Group":2926,"method":2927,"uation":2928,"ĠLet":2929,"gress":2930,"ients":2931,"Ġpaper":2932,"ological":2933,"Ġinvest":2934,"rench":2935,"Ġturn":2936,"Ġday":2937,"css":2938,"Ġcou":2939,"--------------------------------":2940,"yd":2941,"Ġjo":2942,"Ġresponse":2943,"ĠFebruary":2944,"Ġconstant":2945,"ĠGet":2946,"Model":2947,"MA":2948,"oud":2949,"ifier":2950,"prot":2951,"ĠCor":2952,"Ġfilms":2953,"ULL":2954,"Ġavailable":2955,"raint":2956,"context":2957,"ready":2958,"ĠChrist":2959,"De":2960,"ĠMed":2961,"mark":2962,"ops":2963,"Ġcontribut":2964,"Ġphys":2965,"Ġsolution":2966,"Count":2967,"Ġcareer":2968,"ese":2969,"ris":2970,"Ġpotential":2971,"run":2972,"valid":2973,"Ġep":2974,"rav":2975,"Ġrest":2976,"ana":2977,"ibility":2978,"Ad":2979,"Ġnil":2980,"www":2981,"================":2982,"Ġscal":2983,"ags":2984,"Ġcorresponding":2985,"Ġtown":2986,"ĠArm":2987,"android":2988,"ending":2989,"Ġmethods":2990,"Ġexpected":2991,"UN":2992,"Call":2993,"Ġreceived":2994,"Ġcell":2995,"stand":2996,"Ġpair":2997,"=\"../":2998,"rior":2999,"=\"#":3000,"used":3001,"Ġaddress":3002,"adem":3003,"Ġcover":3004,"anel":3005,"American":3006,"ories":3007,"ney":3008,"rown":3009,"Ġappear":3010,"Ġfew":3011,"08":3012,"Ġfore":3013,"Ġcommon":3014,"ĠThese":3015,"Ġlower":3016,";</":3017,"Ġfree":3018,"option":3019,"widet":3020,"DO":3021,"Ġlight":3022,"Ġhistory":3023,"ped":3024,"ĠSer":3025,"Ġtask":3026,"Ġsepar":3027,"Ġless":3028,"Ġarch":3029,"vironment":3030,"ĠBo":3031,"Ġrespectively":3032,"umb":3033,"olved":3034,"rew":3035,"ached":3036,"Ġestablished":3037,"Trans":3038,"44":3039,"ounc":3040,"Ġlocated":3041,"Ġtrack":3042,"Ġdocument":3043,"Ġrate":3044,"User":3045,"Ġaccess":3046,"Ġequation":3047,"Ġauthor":3048,"kn":3049,"eder":3050,"tual":3051,"Reg":3052,"Ġcommand":3053,"Ġtheory":3054,"tes":3055,"{-":3056,"Ġcirc":3057,"Ġtele":3058,"Ġmot":3059,"centering":3060,"Ġbegan":3061,"Ġcompany":3062,"Ġresearch":3063,"}-":3064,"Ġsit":3065,"google":3066,"65":3067,"web":3068,"Ġconsidered":3069,"07":3070,"false":3071,"ĠMc":3072,"rain":3073,"package":3074,"ered":3075,"CC":3076,"ĠHar":3077,"Ġdiff":3078,"widetilde":3079,"eve":3080,"small":3081,"Ġheld":3082,"exp":3083,"uture":3084,"ĠBar":3085,"Ġide":3086,"db":3087,"TH":3088,"Ðµ":3089,"ply":3090,"ĠEnglish":3091,"asing":3092,"2003":3093,"Client":3094,"Ġcalcul":3095,"Ġalign":3096,"Fig":3097,"ĠHis":3098,"Ġconstruct":3099,"tabular":3100,"Ġproperties":3101,"02":3102,"\\!":3103,"Ġstation":3104,"cle":3105,"Ġanalysis":3106,"Ġthird":3107,"Ġage":3108,"Ġrequired":3109,"IP":3110,"ours":3111,"ENT":3112,"Ġleast":3113,"04":3114,"eed":3115,"Query":3116,"ategory":3117,"Method":3118,"ussian":3119,"\\]":3120,"Ġwant":3121,"Ġchildren":3122,"na":3123,"Ġeither":3124,"prime":3125,"rest":3126,"Ġconc":3127,"hand":3128,"Property":3129,"ĠHigh":3130,"Ġincluded":3131,"ĠEl":3132,"Ġcompos":3133,"oken":3134,"Ġevents":3135,"bor":3136,"Ġapproach":3137,"era":3138,"ename":3139,")]":3140,"Ġtraining":3141,"omic":3142,"Ġcoll":3143,"print":3144,"US":3145,"prop":3146,"thm":3147,"Ġbuilt":3148,"Ġstd":3149,"wise":3150,"Ġspecial":3151,"Ġtook":3152,"Ġdimens":3153,"ones":3154,"doc":3155,"Ġtable":3156,"Ġvalid":3157,"Ġhost":3158,"ĠAfr":3159,"ĠSet":3160,"Ġvector":3161,"Ġcases":3162,"Ġlook":3163,"build":3164,"aul":3165,"ithub":3166,"Ġcross":3167,"Ġoptions":3168,"Ġframe":3169,"Ġsystems":3170,"Ġsignificant":3171,"static":3172,"cho":3173,"argin":3174,"Ġfeatures":3175,"Ġabs":3176,"eople":3177,"95":3178,"IR":3179,"Response":3180,"Ġsl":3181,"SP":3182,"Ġrandom":3183,")</":3184,"And":3185,"ves":3186,"Ġstandard":3187,"Sub":3188,"Ġnational":3189,"Ġvarious":3190,"Ġfive":3191,"ĠJapan":3192,">(":3193,"cell":3194,"Ġconsist":3195,"Ġelements":3196,"Ġaverage":3197,"Ġborder":3198,"ondon":3199,"ĠMe":3200,"ls":3201,"Ġlarg":3202,"2001":3203,"Ġrelations":3204,"Ġphase":3205,"plied":3206,"Ġbool":3207,"Ġstar":3208,"06":3209,"ransport":3210,"ights":3211,"Ġpublished":3212,"artment":3213,"istrict":3214,"Ġhouse":3215,"Ġmessage":3216,"Ġconditions":3217,"0000":3218,"Ġoften":3219,"Ġsix":3220,"Ġclub":3221,"ering":3222,"Ġamong":3223,"Ġproof":3224,"Ġnormal":3225,"dec":3226,"Ġassociated":3227,"Ġsem":3228,"Ġwritten":3229,"Override":3230,"thers":3231,"ging":3232,"){":3233,"display":3234,"iber":3235,"Ġneg":3236,"actory":3237,"irection":3238,"aly":3239,"Ġwhe":3240,"End":3241,"sing":3242,"Ġflow":3243,"Ġlinear":3244,"ula":3245,"que":3246,"oph":3247,"ĠAct":3248,"ĠQu":3249,"Ġclose":3250,"imary":3251,"oment":3252,"\\{":3253,"}+":3254,"aged":3255,"ration":3256,"icro":3257,"Bar":3258,"2002":3259,"Ġvill":3260,"fill":3261,"ĠIm":3262,"emma":3263,"event":3264,"ĠTheorem":3265,"Ġcreated":3266,"ns":3267,"II":3268,"gen":3269,"Ġfrequ":3270,"spec":3271,"acing":3272,"ington":3273,"Ġhigher":3274,"ably":3275,"ĠEq":3276,"Ġindiv":3277,"ips":3278,"pol":3279,"ĠBl":3280,"onal":3281,"Ã³":3282,"](":3283,"xy":3284,"atural":3285,"Ġbelow":3286,"09":3287,"github":3288,"Ġaccount":3289,"ounter":3290,"arried":3291,"iation":3292,"reed":3293,"mar":3294,"iet":3295,"ĠĠĠĠĠĠĠĠĠĠĠĠĠĠĠĠĠĠĠĠĠĠĠĠĠĠĠĠĠĠĠ":3296,"Ġeduc":3297,"âĢĶ":3298,"ought":3299,"EE":3300,"Ġgames":3301,"Ġlines":3302,"Ġparent":3303,"ĠEast":3304,"ĠCollege":3305,"uggest":3306,"((":3307,"Read":3308,"Stream":3309,"ĠWhen":3310,"namespace":3311,"ĠChar":3312,")=\\":3313,"reet":3314,"itions":3315,"net":3316,"zeta":3317,"ensor":3318,"null":3319,"ĠSan":3320,"Ġcolumn":3321,"empt":3322,"OT":3323,"Builder":3324,"current":3325,"omorph":3326,"Ġnum":3327,"NA":3328,"<!--":3329,"plies":3330,"height":3331,"Fr":3332,"unic":3333,"ĠSection":3334,"ĠComp":3335,"cy":3336,"Ġclaim":3337,"idence":3338,"ference":3339,"Ġandroid":3340,"Ġprovide":3341,"ecess":3342,"flu":3343,"Ġalgorithm":3344,"Ġmer":3345,"ilitary":3346,"lying":3347,"Ġtemper":3348,"most":3349,"{(":3350,"abor":3351,"Ġbusiness":3352,"ogn":3353,"Ġcer":3354,"core":3355,"Ġloss":3356,"MS":3357,"Ġimplement":3358,"Ġdefine":3359,"Ġvia":3360,"known":3361,"ĉĉĉĉĉĉĉĉ":3362,"tem":3363,"ford":3364,"Ġwar":3365,"IL":3366,"Ġthus":3367,"ĠOne":3368,"alle":3369,"Ġnumer":3370,"Ð¸":3371,"Ġpositive":3372,"ĠSch":3373,"Ġdisplay":3374,"ĠLondon":3375,"scale":3376,"Be":3377,"Ġhowever":3378,"Ed":3379,"Ġalready":3380,";\\":3381,"}]":3382,"flow":3383,"Ġserved":3384,"ĠPres":3385,"based":3386,"ouncil":3387,"Ġattack":3388,"rum":3389,"}=\\":3390,"query":3391,"Util":3392,"Ġfocus":3393,"Ġweek":3394,"Ġ&=":3395,"ising":3396,"Image":3397,"image":3398,"iance":3399,"Ġcentury":3400,"itted":3401,"ĠAir":3402,"Ġexists":3403,"Ġindependent":3404,"Ġbi":3405,"Ġrecent":3406,"ued":3407,"Ap":3408,"Ġdynam":3409,"Ġblack":3410,"Ġlate":3411,"Ġindividual":3412,"03":3413,"ught":3414,"options":3415,"Ġsent":3416,"Ġprovided":3417,"Ġworks":3418,"rant":3419,"Ġplayer":3420,"Ġlo":3421,"Ġpract":3422,"ĠDef":3423,"operator":3424,"Ġmeans":3425,"gr":3426,"pc":3427,"88":3428,"ĠFrench":3429,"iol":3430,"FA":3431,"ĠĠĠĠĠĠĠĠĠĠĠĠĠĠĠĠĠ":3432,"Ġcountry":3433,"ĠPark":3434,"Ġbuilding":3435,"Ġbecome":3436,"ĠMon":3437,"gl":3438,"Ġcontains":3439,"Sp":3440,")^{":3441,"Ġdest":3442,"func":3443,"ĠWilliam":3444,"NS":3445,"verse":3446,"ha":3447,"aves":3448,"dir":3449,")}\\":3450,"ĠLa":3451,"ief":3452,"Date":3453,"Ġspecies":3454,"which":3455,"47":3456,"}|":3457,"AA":3458,"Ġelection":3459,"range":3460,"ured":3461,"cos":3462,"PI":3463,"medi":3464,"Ġborn":3465,"leg":3466,"67":3467,"ĠPer":3468,"ĠBut":3469,"Ġwater":3470,"chan":3471,"igation":3472,"client":3473,"wed":3474,"mathsf":3475,"Ġgroups":3476,"Ġsimple":3477,"png":3478,"Ġair":3479,"Input":3480,"}_\\":3481,"CE":3482,"finished":3483,"rict":3484,"Ġgl":3485,"Ġlanguage":3486,"skip":3487,"undle":3488,"has":3489,"49":3490,"ĠAng":3491,"OS":3492,"Ġcost":3493,"Ġant":3494,"eline":3495,"Ġseen":3496,"Ġdefinition":3497,"Ġund":3498,"Ġeas":3499,"init":3500,"Ġhaving":3501,"itect":3502,"anish":3503,"element":3504,"Ġsymmet":3505,"ceed":3506,"ÃŃ":3507,"Ġcamp":3508,"Ġsay":3509,"oted":3510,"iddle":3511,"jav":3512,"ĠDep":3513,"Ġhom":3514,"ĠAm":3515,"ĠDav":3516,"ONT":3517,"Ġfields":3518,"ĠMod":3519,"Ass":3520,"ĠBro":3521,"Ġregular":3522,"ĠSo":3523,"do":3524,"({":3525,"ĠHouse":3526,"Ġfinite":3527,"ĠDistrict":3528,"Ġachi":3529,"Ġplan":3530,"Ġfund":3531,"change":3532,"ĠAb":3533,"active":3534,"Ġboolean":3535,"Ġzero":3536,"aff":3537,"plicit":3538,"agement":3539,"Paramet":3540,"])":3541,"ĠTest":3542,"Ġtw":3543,"No":3544,"$)":3545,"alax":3546,"ĠAg":3547,"Sec":3548,"Ġfac":3549,"mit":3550,"member":3551,"ĠSince":3552,"dl":3553,"Status":3554,"Ġunit":3555,"lemma":3556,"Ġtoget":3557,"Ġmulti":3558,"Ġproposed":3559,"85":3560,"Ġoperator":3561,"Ġsite":3562,"Base":3563,"cdots":3564,"Ġtogether":3565,"ĠGerman":3566,"page":3567,"ĠHam":3568,"ĠAp":3569,"izing":3570,"request":3571,"server":3572,"Ġarm":3573,"Ġbody":3574,"Ġvir":3575,"aries":3576,"Ġ->":3577,"Line":3578,"abase":3579,"Ġsequence":3580,"Ġquest":3581,"ĠĠĠĠĠĠĠĠĠĠĠĠĠĠ":3582,"Ġbehav":3583,"OP":3584,"sembly":3585,".~":3586,"Ġscale":3587,"ĠHer":3588,"ilities":3589,"ĠAdd":3590,"igen":3591,"button":3592,"Ġtrad":3593,"Ġthrow":3594,"Ġexecut":3595,"Ġ<<":3596,"avy":3597,"riter":3598,"textwidth":3599,"Ġdevelopment":3600,"Ġdon":3601,"Ġconv":3602,"Ġmen":3603,"Ġsuggest":3604,"ĠWith":3605,"php":3606,"ires":3607,"sin":3608,"REF":3609,"level":3610,"ociation":3611,"och":3612,"1999":3613,"Ext":3614,"Ġtelevision":3615,"izer":3616,"child":3617,"EX":3618,"Ġcompar":3619,"Ġstep":3620,"ittle":3621,"witch":3622,"ĠChampionship":3623,"Comp":3624,"][":3625,"Ġdistrict":3626,"gebra":3627,"}^\\":3628,"unfinished":3629,"frame":3630,"Ġeval":3631,"attle":3632,"ĠInt":3633,"Null":3634,"Ġdistance":3635,"Block":3636,"Instance":3637,"tx":3638,"ĠInternational":3639,"}}(":3640,"Ġobserved":3641,"Ġnov":3642,"jo":3643,"||":3644,"duc":3645,"pression":3646,"Ġmillion":3647,"Ġlim":3648,"}^{(":3649,"ĠClass":3650,"Ġemb":3651,"ĠNor":3652,"args":3653,"main":3654,"Ġprofess":3655,"case":3656,"ado":3657,"yles":3658,"Ġcy":3659,"iforn":3660,"book":3661,"ocol":3662,"ba":3663,"edd":3664,"Ġwrite":3665,"ĠNULL":3666,"Act":3667,"van":3668,"oding":3669,"hib":3670,"ariant":3671,"ĠPhil":3672,"Ġ\\{":3673,"Psi":3674,"ulations":3675,"App":3676,"ournal":3677,"icense":3678,"lib":3679,"ulture":3680,"Dec":3681,"Ġequival":3682,"aps":3683,"Head":3684,"ĠSim":3685,"append":3686,"hood":3687,"Ġcommunity":3688,"Token":3689,"Pol":3690,"Ġfixed":3691,"Ġreturned":3692,"Ġacross":3693,"pdf":3694,"Ġspecific":3695,"YPE":3696,"iform":3697,"Ġgen":3698,"Equal":3699,"Ġdied":3700,"97":3701,"Ġbetter":3702,"Ġsurface":3703,"lymp":3704,"cup":3705,"ico":3706,"Ġpack":3707,"Ġwhether":3708,"Ġrelated":3709,"orage":3710,"ifornia":3711,"Ġcapt":3712,"inn":3713,"Ġmiss":3714,"Pos":3715,"Ġcomponent":3716,"GL":3717,"2022":3718,".âĢĿ":3719,"module":3720,"Ġproduced":3721,"})\\":3722,"Ġalways":3723,"Sup":3724,"widehat":3725,"ĠVal":3726,"ociety":3727,"tact":3728,"Rep":3729,"Ġround":3730,"Ġnorth":3731,"But":3732,"Ġground":3733,"Ġinstead":3734,"ranch":3735,"Ġfactor":3736,"Ġput":3737,"atform":3738,"ÑĤ":3739,"split":3740,"Lay":3741,"bottom":3742,"inst":3743,"target":3744,"Ġproduction":3745,"mon":3746,"BC":3747,"adding":3748,"Ġver":3749,"arser":3750,"Attribute":3751,"istics":3752,"Ġkill":3753,"Ġrat":3754,"EC":3755,"98":3756,"ming":3757,"Ġannoun":3758,"ĠFigure":3759,"Ġgrow":3760,"arams":3761,"ridge":3762,"Ġprobability":3763,"UE":3764,"Nav":3765,"Ã¼":3766,"actions":3767,"Ġhalf":3768,"Ġglobal":3769,"Ġvideo":3770,"Content":3771,"Ġtaken":3772,"eger":3773,"first":3774,"Ġpage":3775,"apping":3776,"qquad":3777,"Ġadditional":3778,"header":3779,"cond":3780,"Source":3781,"raction":3782,"Ġill":3783,"96":3784,"ara":3785,"atal":3786,"icol":3787,"Ġdegree":3788,"ĠCup":3789,"su":3790,"Ġ\"\"\"":3791,"ĠĠĠĠĠĠĠĠĊ":3792,"46":3793,"Ð½":3794,"Ġtre":3795,"ota":3796,"Ġdouble":3797,"ched":3798,"Resource":3799,"ama":3800,"ship":3801,"aches":3802,"ĠAc":3803,"istry":3804,"Ġbegin":3805,"Ġlarger":3806,"elete":3807,"LT":3808,"Ġhistor":3809,"Ġengine":3810,"Ġcollection":3811,"First":3812,"iding":3813,"andid":3814,"After":3815,"Ġson":3816,"uel":3817,"OD":3818,"icient":3819,"Oper":3820,"like":3821,"42":3822,"ause":3823,"Ġreview":3824,"Ġ$(\\":3825,"command":3826,"iers":3827,"Command":3828,"Str":3829,"Ġimp":3830,"otype":3831,"open":3832,"Ġemploy":3833,"utes":3834,"Component":3835,"otes":3836,"ministr":3837,"1990":3838,"mid":3839,"Ġestablish":3840,"Ġmultiple":3841,"la":3842,"angle":3843,"AG":3844,"ATE":3845,"Ġpredict":3846,"Ġable":3847,"Ġheight":3848,"Ġsearch":3849,"Ġear":3850,"han":3851,"ibrary":3852,"Run":3853,"Ġled":3854,"Buffer":3855,"ĠNe":3856,"^+":3857,"Ġfar":3858,"burg":3859,"History":3860,"77":3861,",-":3862,"ĠRiver":3863,"citet":3864,"itional":3865,"navbar":3866,"Ġsample":3867,"Ġlik":3868,"ĠMore":3869,"equiv":3870,"orge":3871,"xml":3872,"ugin":3873,"Options":3874,"ĠCalifornia":3875,"Spec":3876,"select":3877,"dat":3878,"Ge":3879,"star":3880,"long":3881,"Part":3882,"ocr":3883,"quare":3884,"ulated":3885,"tag":3886,"json":3887,"ĠAmer":3888,"Ġwhose":3889,"useum":3890,"Ġmaterial":3891,"ĠIndian":3892,"ialog":3893,"acity":3894,"rl":3895,"ĠCont":3896,"oriz":3897,"ĠDiv":3898,"Ġsets":3899,"Ġdomain":3900,"osp":3901,"Ġexperiment":3902,"}\\,":3903,"ĠMich":3904,"ĠLemma":3905,"Ġgive":3906,"Ġ+=":3907,"vis":3908,"roy":3909,"Ġhuman":3910,"note":3911,"ka":3912,"Ġsche":3913,"ivil":3914,"char":3915,"Ġclear":3916,"encies":3917,"eved":3918,"olic":3919,"olutions":3920,"can":3921,"Ġstarted":3922,"Ġhard":3923,"1998":3924,",\"":3925,"SC":3926,"ccording":3927,"ĠEngland":3928,"appro":3929,"Ġdone":3930,"Ġmoment":3931,"ĠFirst":3932,"Ġsocial":3933,"&=":3934,"nce":3935,"Cell":3936,"oke":3937,"ario":3938,"host":3939,"write":3940,"stream":3941,"parent":3942,"Ġtransform":3943,"Function":3944,"Ġexact":3945,"sg":3946,"column":3947,"local":3948,"Ġassume":3949,"izes":3950,"unk":3951,"Ġdatas":3952,"}\\\\":3953,"ributes":3954,"Ġedge":3955,"ellow":3956,"oyal":3957,"Wh":3958,"Ġcoupl":3959,"lands":3960,"Ġnever":3961,"Ġcenter":3962,"Ġnecess":3963,"Handler":3964,"Ġinternational":3965,"Ġload":3966,"}:":3967,"omb":3968,"cis":3969,"Ġprint":3970,"Ġwindow":3971,"Ġsouth":3972,"TO":3973,"eloc":3974,"Ġcannot":3975,"Ġfig":3976,"more":3977,"Ġliter":3978,"bound":3979,"Gener":3980,"inated":3981,"Ġvillage":3982,"Ġactiv":3983,"Action":3984,"ĠRef":3985,"ĠRev":3986,"Ġhttp":3987,"Ġattempt":3988,"LASS":3989,"imate":3990,"ĠCO":3991,"operatorname":3992,"Version":3993,"Ġgreat":3994,"Ġgalax":3995,"Ġmoved":3996,"year":3997,"HT":3998,"Ġadded":3999,"Ġtypes":4000,"Factory":4001,"Ġinstall":4002,"68":4003,"ledge":4004,"Ġdays":4005,"People":4006,"Ġfuture":4007,"Task":4008,"Ġlearning":4009,"ĠRepublic":4010,"strong":4011,"FI":4012,"Ġpress":4013,"Ġperm":4014,"Ġfri":4015,"ĠDis":4016,"yr":4017,"Ġpay":4018,"come":4019,"Ġ]":4020,"Ġaccording":4021,"rowser":4022,"font":4023,"ĠBer":4024,"Ġes":4025,"indent":4026,"ÑĢ":4027,"Ġequal":4028,"Ġiter":4029,"Point":4030,"Ġhold":4031,"empty":4032,"adata":4033,"}/":4034,"atives":4035,"Living":4036,"btn":4037,"Ġcame":4038,"Ġquantum":4039,"Ġprotected":4040,"itude":4041,"CD":4042,"[\"":4043,"Ġspin":4044,"Ġreported":4045,"Ġmight":4046,"Start":4047,"Arg":4048,"ements":4049,"Ġclosed":4050,"${":4051,"place":4052,"Ġonce":4053,"Ġmaking":4054,"SU":4055,"band":4056,"Ġdiag":4057,"Ġchanges":4058,"Ġstatus":4059,"conn":4060,"Ġgenerated":4061,"ĠParty":4062,"ĠAustralia":4063,"Ġneigh":4064,"hel":4065,"Ġperformed":4066,"Ġmove":4067,"itting":4068,"Off":4069,"ĠPort":4070,"Ġbroad":4071,"Ġwest":4072,"Ġecon":4073,"Ġconstruction":4074,"Ġda":4075,"Ġinternal":4076,"Ġrow":4077,"ĠPresident":4078,"property":4079,"Ġreason":4080,"dist":4081,"57":4082,"dimens":4083,"Vert":4084,"Ġaccur":4085,"oon":4086,"*/":4087,")-":4088,"tains":4089,"icture":4090,"Ġcomplete":4091,"find":4092,"Ġsubject":4093,"board":4094,"ĠObject":4095,"Ġstory":4096,"Ġremov":4097,"std":4098,"Ġweight":4099,"Ġobjects":4100,"Ġpolitical":4101,"Ġsold":4102,"Ġrank":4103,"fe":4104,"tage":4105,"});":4106,"igger":4107,"ids":4108,"Fl":4109,"Ġtoo":4110,"ftware":4111,"Ġpur":4112,"ĠFrom":4113,"Ġ&\\":4114,"ĠAmerica":4115,"Ġtemperature":4116,"IM":4117,"Ġparticip":4118,"oo":4119,"ĠReturn":4120,"RA":4121,"Ġcle":4122,"Ġprior":4123,"pected":4124,"apter":4125,"Ġyoung":4126,"Ġstudents":4127,"Ġnatural":4128,"ĠCour":4129,"{{\\":4130,"////////////////":4131,"src":4132,"post":4133,"Ġworking":4134,"(-":4135,"ĠIndia":4136,"ĠĠĠĠĠĠĠĠĠĠĠĠĊ":4137,"Link":4138,"ptr":4139,"Ġimprov":4140,"itte":4141,"udio":4142,"len":4143,"atory":4144,"Ġbr":4145,"Ġservices":4146,"Ġcertain":4147,"adian":4148,"astic":4149,"inally":4150,"Ġanaly":4151,"esh":4152,"Ġresource":4153,"Ġofficial":4154,"Prov":4155,"Ġdate":4156,"Default":4157,"ites":4158,"Ġmode":4159,"Frame":4160,"Ġextends":4161,"oto":4162,"Ġamount":4163,"eh":4164,"True":4165,"87":4166,"Ġoption":4167,"1997":4168,"ipp":4169,"enumer":4170,"ĠThus":4171,"Number":4172,"Ġconstraint":4173,"bsite":4174,"'$":4175,"vey":4176,"ills":4177,"Ġboundary":4178,"Ġfather":4179,"ĠChurch":4180,"]$":4181,"ĠGeneral":4182,"idden":4183,"1996":4184,"Ġclient":4185,"ĠAward":4186,"Ġfem":4187,"Ġprop":4188,"Ġsuccessful":4189,"Ġactive":4190,"ĠFil":4191,"ained":4192,"mail":4193,"Ġrot":4194,"Ġbox":4195,"Ġtherefore":4196,"ĠIN":4197,"Ġeast":4198,"Ġlocation":4199,"ĠInter":4200,"Ġ{@":4201,"Ġinflu":4202,"ipal":4203,"gener":4204,"ĠRed":4205,"Ġben":4206,"ael":4207,"MM":4208,"Ġgives":4209,"PC":4210,"Hel":4211,"Ġcentral":4212,"Ġselected":4213,"Ġenvironment":4214,"meta":4215,"ĠGovern":4216,"Mem":4217,"ĠCanada":4218,"private":4219,"Ġdeveloped":4220,"aa":4221,"}}{\\":4222,"({\\":4223,"ĠFrance":4224,"icles":4225,"Co":4226,"xspace":4227,"}+\\":4228,"Ġrather":4229,"Ġstars":4230,"Ġdenote":4231,"Ġwent":4232,"stitute":4233,"ĠBr":4234,"Window":4235,"ky":4236,"ĠDr":4237,"ypes":4238,"Ġhealth":4239,"sm":4240,"num":4241,"obj":4242,"Equals":4243,"berg":4244,"dr":4245,"Ġholds":4246,"neq":4247,"Ġmale":4248,"final":4249,"number":4250,"ker":4251,"ctor":4252,"abs":4253,"ĠDev":4254,"43":4255,"Ġnote":4256,"ein":4257,"Ġimages":4258,"ĠEuropean":4259,"ĠNone":4260,"ifact":4261,"Ġconduct":4262,"Ġweak":4263,"ĠBel":4264,"56":4265,"1980":4266,"Char":4267,"Ġmaximum":4268,"\"),":4269,"ĠCouncil":4270,"Ġcluster":4271,"push":4272,"status":4273,"Ġmodule":4274,"Ġdeaths":4275,"Ġaward":4276,"Ġveloc":4277,"ĠGerm":4278,"Ġmechan":4279,"|^":4280,"Ġoperation":4281,"58":4282,"Ġcoordin":4283,"Ġentire":4284,"Ġarr":4285,"bert":4286,"aging":4287,"Back":4288,"{}":4289,"atively":4290,"\").":4291,"ĠGo":4292,"Ġintroduced":4293,"description":4294,"Box":4295,"ERT":4296,"ĠArmy":4297,"ĠHol":4298,"Ġaccept":4299,"500":4300,"Ġannounced":4301,"cel":4302,"Ġepis":4303,"allet":4304,"ya":4305,"ĠDo":4306,"Ġdirection":4307,"Ġinc":4308,"Ġleading":4309,"41":4310,"SI":4311,"Ġarchitect":4312,"Ġthink":4313,"ĠÃ":4314,"ĠVir":4315,"close":4316,"FONT":4317,"only":4318,"Ġthough":4319,"itar":4320,"onic":4321,"ln":4322,"project":4323,"stract":4324,"Ġreference":4325,"Ġspecified":4326,"pher":4327,"Row":4328,"}-\\":4329,"ABLE":4330,"irm":4331,"Return":4332,"Ġpresented":4333,"Ġpopular":4334,"process":4335,"Ġothers":4336,"ds":4337,"py":4338,"mem":4339,"Ġsw":4340,"One":4341,"Ġir":4342,"Ġcopy":4343,"Ġapplication":4344,"rote":4345,"Ġrecogn":4346,"ĠPaul":4347,"ocket":4348,"ĠMal":4349,"There":4350,"scr":4351,"ication":4352,"theorem":4353,"Ġconver":4354,"Ġprinc":4355,"Ob":4356,"ution":4357,"Ġequations":4358,"Ġrelease":4359,"Ġthrows":4360,"&&":4361,"arily":4362,"img":4363,"Ġselect":4364,"Ġcut":4365,"rab":4366,"Ġdecl":4367,"ĠOlymp":4368,"Since":4369,"Ġmeet":4370,"Ġchannel":4371,"ĠMark":4372,"Style":4373,"Ġrepresentation":4374,"Ġeffects":4375,"Ġoptim":4376,"Ġupdate":4377,"ascript":4378,"Pre":4379,"normal":4380,"Ġhapp":4381,"Ġmedia":4382,"\"]":4383,"Ġbeli":4384,"ville":4385,"oney":4386,"Ġsom":4387,"omial":4388,"ĠTrans":4389,"Ġ-\\":4390,"Ġtransfer":4391,"Ġincludes":4392,"Per":4393,"1995":4394,"yper":4395,"filter":4396,"enumerate":4397,"Ã¶":4398,"Ġviol":4399,"Ġbasis":4400,"]\\":4401,"Ġstream":4402,"ĠAnt":4403,"oms":4404,"Ñģ":4405,"Ġupper":4406,"Ġmargin":4407,"ĠQue":4408,"Ġenough":4409,"ĠDes":4410,"86":4411,"Const":4412,"uid":4413,"///":4414,"ĠRoman":4415,"Desc":4416,"plications":4417,"Ġgas":4418,"ometry":4419,"amily":4420,"ises":4421,"ĠThom":4422,"ĠNote":4423,"Format":4424,"ĠPal":4425,"Label":4426,"mooth":4427,"Met":4428,"last":4429,"den":4430,"Ġcomponents":4431,"ili":4432,"ners":4433,"Ġcustom":4434,"Ġoffer":4435,"ĠNot":4436,"refix":4437,"bin":4438,"Ġrelative":4439,"Ġtransition":4440,"Ġalmost":4441,"Ġtreat":4442,"PRO":4443,"Ġfilter":4444,"format":4445,"Ġinf":4446,"Ġareas":4447,"Ġworked":4448,"Ġcompared":4449,"west":4450,"strict":4451,")}{":4452,"Ġmilitary":4453,"icult":4454,"Ġdirectly":4455,"ĠRober":4456,"Ġaway":4457,"Fe":4458,"ĠSum":4459,"that":4460,"signed":4461,"Ð¾Ð":4462,"Ġsetting":4463,"Ġforce":4464,"ĠDem":4465,"di":4466,"ĠJames":4467,"Ġyield":4468,"endif":4469,"Ġprovides":4470,"Ġcompan":4471,"Ġcandid":4472,"Ġdetails":4473,"ua":4474,"Page":4475,"tic":4476,"pass":4477,"sole":4478,"89":4479,"UI":4480,"uz":4481,"Ġunique":4482,"omy":4483,"ĠStreet":4484,"VER":4485,"Ġsupported":4486,"Ġ\\|":4487,"mt":4488,"Ġvariables":4489,"Ġtree":4490,"itemize":4491,"ĠGroup":4492,"reek":4493,"stack":4494,"ĠSen":4495,"(&":4496,"Ġprove":4497,"ĠUp":4498,"Ġrespons":4499,"ĠEm":4500,"aign":4501,"DB":4502,"hspace":4503,"ĉĠĠĠ":4504,"update":4505,"Create":4506,"Ġeffective":4507,"buf":4508,"ensive":4509,"zer":4510,"Ġcorrect":4511,"iles":4512,"Check":4513,"Ġimplies":4514,"TP":4515,"SON":4516,"Ġpresident":4517,"outhern":4518,"ãģ":4519,"Ġcontract":4520,"Ġbg":4521,"Ġ((":4522,"olve":4523,"Ġmid":4524,"Ġformat":4525,"vspace":4526,"Ġcatch":4527,"Ġoccur":4528,")}$":4529,"ria":4530,"Ġstage":4531,"alls":4532,"Ġvariable":4533,"ios":4534,"uit":4535,"annot":4536,"Ġgoal":4537,"Listener":4538,"Ġsignal":4539,"Ġcoeff":4540,"1994":4541,"NO":4542,"achine":4543,"ilton":4544,"$}":4545,"ectors":4546,"ĠSm":4547,"elling":4548,"jection":4549,"Controller":4550,"ashington":4551,"unit":4552,"HE":4553,"rief":4554,"Filter":4555,"grad":4556,"ully":4557,"ĠMy":4558,"rd":4559,"Last":4560,"ols":4561,"ida":4562,"ĠHREF":4563,"Ġapplied":4564,"Ġjob":4565,"iler":4566,"Ġappoint":4567,"ĠLaw":4568,"âĢľ":4569,"ĠRich":4570,"heet":4571,"asons":4572,"Ġmag":4573,"clusion":4574,"187":4575,"Ġdebut":4576,"51":4577,"Ġlearn":4578,"Ġauto":4579,"values":4580,"Rem":4581,"Ġrelation":4582,"INT":4583,"SO":4584,"ĠGeorge":4585,"\\\\\\\\":4586,"dimensional":4587,"linear":4588,"Ġuses":4589,"ĠTable":4590,"Ġpolitic":4591,"Em":4592,"Ġkeep":4593,"59":4594,"BU":4595,"Ġinit":4596,"nel":4597,"Ġparts":4598,"ĠChina":4599,"1993":4600,"Ġpattern":4601,"cs":4602,"ittee":4603,"ĠCenter":4604,"Ġinterface":4605,"Ġpast":4606,"response":4607,"ĠAssociation":4608,"Ġradio":4609,"Ġsuff":4610,"ago":4611,"scope":4612,"ias":4613,"menu":4614,"params":4615,"cing":4616,"sy":4617,"background":4618,"ores":4619,"aur":4620,".$":4621,"Ġnav":4622,"ouch":4623,"evel":4624,"iments":4625,"Ġseem":4626,"Ġgr":4627,"Aut":4628,"ini":4629,"1992":4630,"hest":4631,"entry":4632,"Ġincrease":4633,"aching":4634,"1970":4635,"={":4636,"Child":4637,"Eng":4638,"Ġurl":4639,"NN":4640,".)":4641,"ĠDavid":4642,"ĠGr":4643,"Ġstop":4644,"ĠUnion":4645,"ander":4646,"Ġax":4647,"Ġwrote":4648,"osen":4649,"show":4650,"Ġgoing":4651,"multicol":4652,"FT":4653,"ĠGL":4654,"\\,\\":4655,"Column":4656,"uate":4657,"rule":4658,"Sim":4659,"example":4660,"Ġdifference":4661,"noindent":4662,"Ġtaking":4663,"Ġconnection":4664,"Ġregard":4665,"Ġsources":4666,"opl":4667,"Ġexpression":4668,"ĠHall":4669,"onstr":4670,"ERR":4671,"ĠÂ":4672,"Ġstudies":4673,"container":4674,"Ġjoined":4675,",âĢĿ":4676,"ĠDivision":4677,"ategy":4678,"output":4679,"Ġ(\"":4680,"multicolumn":4681,"layout":4682,"eal":4683,"ĠGermany":4684,"alian":4685,"Ġsmaller":4686,"Ġnumbers":4687,"Ġscen":4688,"acters":4689,"ĠFl":4690,"ĠSub":4691,"_.":4692,"Output":4693,"Valid":4694,"}}_":4695,"ĠDepartment":4696,"Ġrights":4697,"oder":4698,"oe":4699,"Ġroot":4700,"Ġparty":4701,"ĠĠĠĠĠĠĠĠĠĠĠĠĠĠĠĠĠĠĠĠĠĠĠĠĠĠĠĠĠĠĠĠĠĠĠ":4702,"service":4703,"mat":4704,"Ġlost":4705,"AM":4706,"ĠBlack":4707,"Ġmagnetic":4708,"wood":4709,"imation":4710,"arr":4711,"Ġitself":4712,"ishing":4713,"Ġbgcolor":4714,"Ġ~":4715,"Ġsolutions":4716,"Ġlive":4717,"\\}$":4718,"Ġroad":4719,"Ġnovel":4720,"ĠCourt":4721,"ãĥ":4722,"raz":4723,"Ġseg":4724,"reference":4725,"javascript":4726,"Ġpolicy":4727,"Ġalthough":4728,"Ġproblems":4729,"uated":4730,"ql":4731,"Tem":4732,"Ġpers":4733,"sd":4734,"Ġmarried":4735,"Ġsens":4736,"ĠCLASS":4737,"Ġrail":4738,"Ġunderstand":4739,"Ġqual":4740,"Length":4741,"Ġeducation":4742,"ĠRem":4743,"Collection":4744,"Ġallowed":4745,"otal":4746,"Ġ<!--":4747,"rian":4748,"Ġnodes":4749,"efined":4750,"ened":4751,"Note":4752,"Ġnone":4753,"Ab":4754,"ĠApp":4755,"ett":4756,"94":4757,"Ġmatter":4758,"eters":4759,"Ġcompleted":4760,"Dev":4761,"files":4762,"Ġserver":4763,"ĠRoyal":4764,"Ġdraw":4765,"Sche":4766,"ani":4767,"Ġcome":4768,"win":4769,"soft":4770,"ube":4771,"break":4772,":</":4773,"ean":4774,"Ġdifficult":4775,"<?":4776,"dag":4777,"ously":4778,"pite":4779,"Ġwhite":4780,"52":4781,"Ġbehavior":4782,"Ġquery":4783,"remove":4784,"Ġcurrently":4785,"Ġvers":4786,"Ġdescription":4787,"pret":4788,"54":4789,"ĠLou":4790,"COL":4791,"approx":4792,"Pi":4793,"SD":4794,"gin":4795,"Ġadj":4796,"Ġalgebra":4797,"inder":4798,"ston":4799,"po":4800,"Ã¤":4801,"ĠBay":4802,"Ġallows":4803,"uses":4804,"\\\"":4805,"Ġten":4806,"attr":4807,"Ġdirector":4808,"ĠTherefore":4809,"ĠDuring":4810,"erve":4811,"URL":4812,"Ġstre":4813,"Max":4814,"oded":4815,"Ġfront":4816,"OL":4817,"Ġneut":4818,"instance":4819,"Par":4820,"ederal":4821,"Us":4822,")+":4823,"~$":4824,"else":4825,"rypt":4826,"Ġopened":4827,"Ġmarket":4828,"ĠStud":4829,"Ġquestion":4830,"Ġselection":4831,"Ġbecomes":4832,"}'":4833,"Ġsolid":4834,"Ġpeak":4835,"Ġestimate":4836,"arks":4837,"Ġoperations":4838,"iting":4839,"93":4840,"kit":4841,"82":4842,"Ġevolution":4843,"Ġargument":4844,"Ġdefe":4845,"ĠWashington":4846,"Ġnames":4847,"Ġvelocity":4848,"Layout":4849,"ĠArch":4850,"Ġelectron":4851,"Next":4852,"Ġwords":4853,"Ġformed":4854,"styles":4855,"Ġconfiguration":4856,"Ġrelationship":4857,"Ġtakes":4858,"Ġspectrum":4859,"ĠEX":4860,"layer":4861,"ĠID":4862,"unch":4863,"Ġlargest":4864,"mathscr":4865,"underline":4866,"....":4867,"ĠDi":4868,"shift":4869,"EL":4870,"Ġdemonstr":4871,"ĠCompany":4872,"```":4873,"84":4874,"gence":4875,"92":4876,"Mode":4877,"Ġphysical":4878,"Ġchurch":4879,"Then":4880,"aring":4881,"Ag":4882,"ĠGreen":4883,"ki":4884,"enced":4885,"Ġrule":4886,"allel":4887,"IV":4888,"loor":4889,"antic":4890,"Ġang":4891,"rea":4892,"').":4893,"Ġhon":4894,"Ġclasses":4895,"Ġpaint":4896,"Net":4897,"Ġmakes":4898,"Ġincreasing":4899,"ros":4900,"Ġagre":4901,"ying":4902,"PR":4903,"ci":4904,"63":4905,"resh":4906,"arp":4907,"Ġfa":4908,"Ġfont":4909,"Cache":4910,"cd":4911,"1991":4912,"$(":4913,"CON":4914,"Ġsett":4915,"Ġkind":4916,"norm":4917,"Ġcontinued":4918,"clude":4919,"minus":4920,"Ġequivalent":4921,"prototype":4922,"Ġupon":4923,"izations":4924,"Ġratio":4925,"Ġrunning":4926,"Ġsyn":4927,"Ġdirected":4928,"unt":4929,"rip":4930,"ĠPe":4931,"Ġapply":4932,"Ġeigen":4933,"Address":4934,"ĠJer":4935,"oul":4936,"depend":4937,"ena":4938,"Ġchall":4939,"Ġwebsite":4940,"Ġtransl":4941,"When":4942,"ughter":4943,"desc":4944,"CL":4945,"rs":4946,"ĠMart":4947,"Ġneeded":4948,"ĠWhile":4949,"}}}":4950,"ansion":4951,"unity":4952,"graph":4953,"Ġentry":4954,"Ġsigned":4955,"ĠMor":4956,"Ġprofessional":4957,"ains":4958,"Ġinvestig":4959,"ĠCons":4960,"Ġcallback":4961,"53":4962,"inner":4963,"ĠInstitute":4964,"([":4965,"Ġdecre":4966,"ĠMet":4967,"Ġtim":4968,"pped":4969,"Server":4970,"weight":4971,"Ġcontinue":4972,"Ġearli":4973,"Ġdeep":4974,"Web":4975,"afe":4976,"NAME":4977,"Ġconnected":4978,"det":4979,"=\"../../":4980,"Ġsymbol":4981,"Ġexcept":4982,"Ġsongs":4983,"Case":4984,"Ġsound":4985,"usion":4986,"ĠAustralian":4987,"Ġdimension":4988,"inese":4989,"Ġvoc":4990,"Button":4991,"Theta":4992,"bour":4993,"91":4994,"ĠThat":4995,"float":4996,"Ġ;":4997,"Ġsubsequ":4998,"ensus":4999,"aml":5000,"umni":5001,"Ġusually":5002,"Med":5003,"asket":5004,"Ġrecorded":5005,"Ġrock":5006,"Ġprimary":5007,"ĠAcadem":5008,"ĠGa":5009,"Tag":5010,"Bundle":5011,"mission":5012,"Ġ!==":5013,"Types":5014,"Ġword":5015,"Ġfrequency":5016,"CODE":5017,"inct":5018,"ultural":5019,"Ġunits":5020,"ĠVol":5021,"Ġstudied":5022,"ĠMary":5023,"ĠSing":5024,"ĉĉĉĉĉĉĉ":5025,".&":5026,"Ġregions":5027,"ĠType":5028,"Ġexpand":5029,">>":5030,"Ġfollowed":5031,"Provider":5032,"CP":5033,"Ġ$\\{":5034,"Ġacqu":5035,"Ġmemory":5036,"Ġask":5037,"Ġshall":5038,"ĠProv":5039,"Ġfiles":5040,"########":5041,"62":5042,"Ġautom":5043,"SL":5044,"Ġtransport":5045,"dep":5046,"Ġcast":5047,"Ġnuc":5048,"Ġ[]":5049,"^-":5050,"Ġadapt":5051,"ynomial":5052,"Ġdeal":5053,"essages":5054,"itch":5055,"ĠHT":5056,"Min":5057,"ĠAfrican":5058,"********************************":5059,"Ġteams":5060,"Ġbar":5061,"Ġdiscover":5062,"ingu":5063,"km":5064,"eli":5065,"}^{-":5066,"ĠSpec":5067,"Select":5068,"older":5069,"Ġcritical":5070,"ald":5071,"greg":5072,"Ġoutside":5073,"IO":5074,"Ġstructures":5075,"ĠRobert":5076,"Ġspeed":5077,"Ġgre":5078,"Ġtheorem":5079,"Ġlittle":5080,"Ġconcern":5081,"(_":5082,"aven":5083,"Url":5084,"FO":5085,"textrm":5086,"++)":5087,"adow":5088,"ĠRoad":5089,"require":5090,"Ġcourse":5091,"ifying":5092,"Ġintegr":5093,"oring":5094,"ams":5095,"Ġmention":5096,"Ġassist":5097,"isation":5098,"ĠSociety":5099,"ĠMex":5100,"Ġoffice":5101,"support":5102,"thing":5103,"Update":5104,"tra":5105,"Ġreturns":5106,"ĠĠĠĊ":5107,"Le":5108,"Work":5109,"cur":5110,"prod":5111,"Ġ...":5112,"ĠMusic":5113,"orizont":5114,"tree":5115,"ND":5116,"Ġrob":5117,"ĠPress":5118,"ĠArray":5119,"utils":5120,"./":5121,"BA":5122,"liament":5123,"Ġvict":5124,"sets":5125,"Target":5126,"track":5127,"olving":5128,"Ġfit":5129,"attern":5130,"Ġmonths":5131,"sign":5132,"PO":5133,"Ġmodern":5134,"orts":5135,"task":5136,"Ġexplicit":5137,"Ġlayer":5138,"61":5139,"Ġissue":5140,"pecially":5141,"isions":5142,"Ġdesigned":5143,"ĠLicense":5144,"inding":5145,"comple":5146,"Ġaltern":5147,"ĠSw":5148,"obile":5149,"ãĤ":5150,"inv":5151,"Ġess":5152,"subseteq":5153,"Ġsm":5154,"Ġrev":5155,"ĠTV":5156,"Ġdetermined":5157,"proto":5158,"Ġmetric":5159,"ala":5160,"Ġnor":5161,"Ġbit":5162,"<\\":5163,"ĠSome":5164,"ĠStr":5165,"$_":5166,"Ġvirtual":5167,"Ġimpact":5168,"then":5169,"ĠUK":5170,"eft":5171,"hi":5172,"%%":5173,"hedul":5174,"Ġchoice":5175,"overs":5176,"TYPE":5177,"{{":5178,"Top":5179,"1960":5180,"Ġadministr":5181,"returns":5182,"81":5183,"ĠHen":5184,"ernel":5185,"Ġresulting":5186,"Ġcharacters":5187,"crete":5188,"Ġexception":5189,"Ġimmedi":5190,"Ġcompanies":5191,"83":5192,"language":5193,"ĠData":5194,"sey":5195,"Ġinvolved":5196,"anged":5197,"Ġmix":5198,"ona":5199,"sche":5200,"ecute":5201,"=\"../../../../../":5202,"Width":5203,"Ġnecessary":5204,")/":5205,"Ġkm":5206,"Ġfav":5207,"SH":5208,"Parameter":5209,"Ġexhib":5210,"texttt":5211,"ĠRuss":5212,"Ġuniform":5213,"Entry":5214,"1989":5215,"=(":5216,"AV":5217,"bas":5218,"conf":5219,"Ġwriting":5220,"Ġthroughout":5221,"Ġord":5222,"ĠTur":5223,"ĠCanadian":5224,"Pack":5225,"etch":5226,"ategor":5227,"ĠGl":5228,"Can":5229,"Ġconstit":5230,"ilies":5231,"rast":5232,"Ġwife":5233,"wrap":5234,"Ġremove":5235,"Ġproced":5236,"CA":5237,"match":5238,"Ġ\\;":5239,"ĠOut":5240,"common":5241,"ĠCong":5242,"ĠCath":5243,"ĠJack":5244,"ĠOb":5245,"DD":5246,"fficient":5247,"gu":5248,"Ġprec":5249,"Ġshape":5250,"}},":5251,"ĠAngel":5252,"Ġremains":5253,"Ġavoid":5254,"classes":5255,"DF":5256,"Ġpreviously":5257,"setminus":5258,"ething":5259,"lice":5260,"Ġ(-":5261,"iny":5262,"bul":5263,"Ġfailed":5264,"Ġappeared":5265,"}}_{":5266,"Ġarguments":5267,"ootst":5268,"Ġfire":5269,"ĠOF":5270,"document":5271,"taint":5272,"Ġdataset":5273,"inos":5274,"ĠAfrica":5275,"Ġissues":5276,"Ġbig":5277,"Ġflux":5278,"Ġchanged":5279,"lease":5280,"Ġ**":5281,"Ġnoise":5282,"footnote":5283,"Ġeight":5284,"parse":5285,"ĠAPI":5286,"riptor":5287,"estival":5288,"orizontal":5289,"author":5290,"typ":5291,"rics":5292,"ĠTown":5293,"Level":5294,"Ġlikely":5295,"Bo":5296,"ĠKingdom":5297,"ares":5298,"69":5299,"ĠMac":5300,"Ġpercent":5301,"ewidth":5302,"uint":5303,"bool":5304,"1988":5305,"ĠĠĠĠĠĠĠĠĠĠĠĠĠĠĠĠĠĠĠĠĠ":5306,"ĠLog":5307,"^{-\\":5308,"ĠDirect":5309,"stry":5310,"itory":5311,"ici":5312,"Access":5313,"Ġillustr":5314,"ĠIsland":5315,"well":5316,"ĠService":5317,"ĠLeg":5318,"oundation":5319,"ĠTex":5320,"Ġreplaced":5321,"ponents":5322,"artifact":5323,"{$":5324,"auge":5325,"thon":5326,"bon":5327,"isk":5328,"ĠJew":5329,"ĠWork":5330,"Ġadvan":5331,"offset":5332,"Ġfall":5333,"Vis":5334,"ĠMiss":5335,"Ġforces":5336,"otic":5337,"Ġvertex":5338,"Ġnegative":5339,"Ġrepresented":5340,"Ġlonger":5341,"Ġliving":5342,"Ġ$|":5343,"Ġsy":5344,"Ġyet":5345,"expected":5346,"pg":5347,"etime":5348,"root":5349,"fg":5350,"Ġnom":5351,"ening":5352,"ART":5353,"ĠNS":5354,"Ġauth":5355,"Ġhimself":5356,"300":5357,"Ġclassical":5358,"arter":5359,"Ġdig":5360,"Ġfloat":5361,"Ġsufficient":5362,":\\":5363,"free":5364,"tical":5365,"Rel":5366,"Ġtowards":5367,"Ġobservations":5368,"Ġelected":5369,"Ġtour":5370,"template":5371,"Ġcampaign":5372,"Ġvolume":5373,"Ġcountries":5374,"Ġrace":5375,"ĠWil":5376,"ura":5377,"Tree":5378,"second":5379,"Interface":5380,"Ġderived":5381,"Ġschools":5382,"Ġdescribe":5383,"buffer":5384,"ĠCentral":5385,"miss":5386,"Ġextension":5387,"oplus":5388,"Ġreve":5389,"Ġadopt":5390,"Ġbelong":5391,"Utils":5392,"ĠAlex":5393,"Ġpassed":5394,"=\"-":5395,"ĠMat":5396,"()->":5397,"Ġerrors":5398,"ĠEar":5399,"rupt":5400,"ĠBest":5401,"Ġargs":5402,"ĠSam":5403,"Ġlen":5404,"definition":5405,"Ġtro":5406,"ĉĠ":5407,"Description":5408,"Ġalbums":5409,"Ġtag":5410,"Ġgrav":5411,"Ġbuffer":5412,"Ġespecially":5413,"ĠMer":5414,"Entity":5415,"wait":5416,"Ġobj":5417,":\"":5418,"Ġwhole":5419,"ands":5420,"Ġupd":5421,"Offset":5422,"Ġ_{":5423,"Ġtax":5424,"ĠTra":5425,"ympt":5426,"ighest":5427,"omorphism":5428,"ĠClub":5429,"Ġfounded":5430,"Ġorigin":5431,"Ġexisting":5432,"window":5433,"Ġuncer":5434,"resents":5435,"Ġconnect":5436,"Ġderiv":5437,"ĠOpen":5438,"Configuration":5439,"gate":5440,"Ġ($\\":5441,"road":5442,"ĠMo":5443,"'),":5444,"phere":5445,"CK":5446,"ĠMuseum":5447,"Ġsmooth":5448,"ĠThomas":5449,"Ġconcept":5450,"fa":5451,"ĠâĢĺ":5452,"ellar":5453,"Write":5454,"Ġinequ":5455,"Ġsimply":5456,"ao":5457,"ĠAccording":5458,"Ġmother":5459,"ĠRussian":5460,"ĠPo":5461,"olute":5462,"ĠJapanese":5463,"Ġlatter":5464,"Ġcharge":5465,"Ġhence":5466,"ih":5467,"ĠRad":5468,"ĉĉĊ":5469,"asketball":5470,"bitr":5471,"Ġcred":5472,"Ġwave":5473,"ether":5474,"RL":5475,"lev":5476,"should":5477,"Ġmissing":5478,"Ġcompact":5479,"]);":5480,"isl":5481,"ĠSee":5482,"aker":5483,"ĠPublic":5484,"ĠGames":5485,"iences":5486,"72":5487,"models":5488,"oice":5489,"eck":5490,"Ġstarting":5491,"after":5492,"ollowing":5493,"Ġdoc":5494,"system":5495,"Ġscheme":5496,"_*":5497,"Ġjud":5498,"dx":5499,"Ġrestrict":5500,"ano":5501,"ospital":5502,"airs":5503,"Ġscreen":5504,"Ġrender":5505,"ĠHistor":5506,"1987":5507,"za":5508,"limits":5509,"Control":5510,"etails":5511,"Ġ{}":5512,")|":5513,"ĠYear":5514,"vector":5515,"PS":5516,"Ġcurve":5517,"itable":5518,"Ġsil":5519,"Ġpolynomial":5520,"Ġinside":5521,"Ġempty":5522,"ira":5523,"ĠMag":5524,"Process":5525,"rial":5526,"Load":5527,"ĠOff":5528,"ctx":5529,"Ġconvert":5530,"Ġter":5531,"Ġrecon":5532,"Ġembedd":5533,"Ġinteraction":5534,"ĠAcademy":5535,"ancial":5536,"Ġextended":5537,"ĠRail":5538,"rim":5539,"ĠScott":5540,"Ġbirth":5541,"Ġhous":5542,"card":5543,"Ġframework":5544,"linewidth":5545,"Ġlimited":5546,"Ġemission":5547,"gn":5548,"cat":5549,"Ġsense":5550,"Ġfight":5551,"Ġplaying":5552,"Ġdecision":5553,"Ġsus":5554,"Ġmaps":5555,"Now":5556,"Ġfill":5557,"Ġmar":5558,"ĠFile":5559,"Ġcategory":5560,"Ġcontinuous":5561,"Mon":5562,"ĠRecords":5563,"Ġoperators":5564,"ootstrap":5565,"illa":5566,"ny":5567,"ĠScience":5568,"war":5569,"hent":5570,"Ġuint":5571,"Ġappointed":5572,"ĠResearch":5573,"Ġminimum":5574,"ashed":5575,"ades":5576,"Ġdark":5577,"Op":5578,"Ġded":5579,"Ġpanel":5580,"Ġdiagram":5581,"Dat":5582,"1986":5583,"Ġwriter":5584,"Ġbank":5585,"ĠChristian":5586,"Ġoffset":5587,"itz":5588,"erved":5589,"Open":5590,"Lo":5591,"nes":5592,"ĠForm":5593,"Ġrelig":5594,"ĠFr":5595,"Unit":5596,"Ġwid":5597,"anning":5598,"Ġgenerally":5599,"ĠDemocr":5600,"ĠBook":5601,"Json":5602,"=-":5603,"isms":5604,"fs":5605,"Ġforms":5606,"Ġinfin":5607,"_+":5608,"patch":5609,"Enc":5610,"ĠWhite":5611,"Ġgave":5612,"Ġimm":5613,"ĠMinister":5614,"ZE":5615,"IF":5616,"Ġneeds":5617,"images":5618,"ĠTime":5619,"VAL":5620,"ĠGrand":5621,"ĠOther":5622,"_{(":5623,"Ġprofile":5624,"ĠPat":5625,"Ġstreng":5626,"Ġradius":5627,"Container":5628,"Right":5629,"KE":5630,"ictor":5631,"\\}":5632,"ĠVirgin":5633,"Ġinstit":5634,"Ġsamples":5635,"ĠMad":5636,"lap":5637,"Ġbounded":5638,"SA":5639,"ĠReturns":5640,"Ġotherwise":5641,"arts":5642,"stant":5643,"PP":5644,"Ġnorm":5645,"IGN":5646,"ĠWestern":5647,"Ġpresence":5648,"Ġcontaining":5649,"Ġque":5650,"Ġsoftware":5651,"1984":5652,"olar":5653,"Ġcounter":5654,"Te":5655,"Ġthought":5656,"uan":5657,"ducation":5658,"1000":5659,"ĠSk":5660,"ĠChinese":5661,"reland":5662,"force":5663,"COLOR":5664,"ĠJust":5665,"rish":5666,"Ġchosen":5667,"Local":5668,"Port":5669,"ita":5670,"Ġface":5671,"aking":5672,"ĠSecond":5673,"Ġshift":5674,"ĠLouis":5675,"Ġconsists":5676,"GB":5677,"ulate":5678,"oute":5679,"CR":5680,"Ġrules":5681,"ĠOper":5682,"idents":5683,"QL":5684,"78":5685,"del":5686,"ĠZeal":5687,"attice":5688,"~~~~":5689,"cache":5690,"ĠMichael":5691,"deg":5692,"Ġbooks":5693,"Ġstated":5694,"Ġscore":5695,"Ġfigure":5696,"ĠSal":5697,"Ġleaders":5698,"real":5699,"Ġfix":5700,"ATION":5701,"Current":5702,"black":5703,"token":5704,"Callback":5705,"\\'":5706,"Header":5707,"EM":5708,"Track":5709,"merc":5710,"ĠMa":5711,"Ġjournal":5712,"UM":5713,"Ġruns":5714,"Exp":5715,"Ġcourt":5716,"ĠItalian":5717,"ailed":5718,"ĠTexas":5719,"\"));":5720,"Ġdam":5721,"uri":5722,"nap":5723,"ĠHamilton":5724,"Ġscope":5725,"dim":5726,"Ġlevels":5727,"Ġ|\\":5728,"76":5729,"ropy":5730,"ĠSl":5731,"edy":5732,"Ġrequires":5733,"drop":5734,"reme":5735,"gan":5736,"Ġlisted":5737,"related":5738,"Ġguitar":5739,"otion":5740,"ĠGold":5741,"---":5742,"Ġdevice":5743,"Ġreduced":5744,"ĠZealand":5745,"ometimes":5746,"ollary":5747,"Ġtravel":5748,"control":5749,"ttps":5750,"Ġgalaxies":5751,"Acc":5752,"aligned":5753,"rees":5754,"Ġemer":5755,"Ġfilename":5756,"Ġleague":5757,"Ġgot":5758,"ĠTor":5759,"ĠGod":5760,"entity":5761,"1985":5762,"Ġ*)":5763,"Ġplaces":5764,"Ġhyper":5765,"Module":5766,"porary":5767,"ĠKe":5768,"azine":5769,"Ġmanif":5770,"400":5771,"Direct":5772,"Ġforward":5773,"writ":5774,"Location":5775,"Ġ$[":5776,"Results":5777,"Ġcharg":5778,"ĠCreate":5779,"FC":5780,"ecause":5781,"ĠDon":5782,"tim":5783,"Ġboard":5784,"Ġfriend":5785,"ĠKore":5786,"tax":5787,"ws":5788,"ircraft":5789,"subfigure":5790,"Range":5791,"Ġactually":5792,"high":5793,"ournament":5794,"ĠProposition":5795,"artifactId":5796,"Script":5797,"Ġdram":5798,"Ġregister":5799,"ĠCharles":5800,"Ð°Ð":5801,"icket":5802,"Po":5803,"Ġpractice":5804,"API":5805,"inf":5806,"white":5807,"Height":5808,"=#":5809,"Ġsurv":5810,"atial":5811,"Ġship":5812,"ensions":5813,"Ġevidence":5814,"Ġonline":5815,"Ġpert":5816,"Ġidea":5817,"Ġexpansion":5818,"ĠDay":5819,"Record":5820,"Ġmotion":5821,">,":5822,"FL":5823,":(":5824,"thlet":5825,"Ġprogress":5826,"Ġhandle":5827,"Ġactual":5828,"ression":5829,"Ġdistributed":5830,"EQ":5831,"Ġseven":5832,"Ġproper":5833,"amera":5834,"Empty":5835,"MD":5836,"Hash":5837,"Ġsymmetry":5838,"lood":5839,"Ġesc":5840,"Ġcompute":5841,"ĠAssert":5842,"ometric":5843,"Ġparticles":5844,"Ġdaughter":5845,"pid":5846,"Ġtrain":5847,"ĠTom":5848,"Ġcore":5849,"vention":5850,"Font":5851,"Ġfinished":5852,"Ġalumni":5853,"Ġoccup":5854,"Ġcivil":5855,"Ġstore":5856,"resource":5857,"sect":5858,"Ġusers":5859,"Ġidentity":5860,"orial":5861,"Ġknowledge":5862,"Ġhyp":5863,"bigg":5864,"pri":5865,"Ġdiscussed":5866,"ĠCarol":5867,"tml":5868,"Ġhttps":5869,"Ġfootballers":5870,"Ġsports":5871,"ictionary":5872,"Ġremaining":5873,"Ġmus":5874,"Dir":5875,"ribe":5876,"oma":5877,"ĠGreat":5878,"iginal":5879,"Ġparticle":5880,"Ġste":5881,"cover":5882,"reshold":5883,"\"))":5884,"Ġneighbor":5885,"Ġreally":5886,"Ġoverall":5887,"scal":5888,"Ġappears":5889,"Stat":5890,"ĠSaint":5891,"Ġpolice":5892,"Ġestimated":5893,"Ġrepresents":5894,"Ġearlier":5895,"Mar":5896,"orse":5897,"Ġfun":5898,"ĠMont":5899,"CS":5900,"ĠBase":5901,"Ġarbitr":5902,"Ġfully":5903,"ĠLat":5904,"ping":5905,"ĠFrancis":5906,"cles":5907,"Ġapproximately":5908,"kl":5909,"Ġdetermine":5910,"Ġeventually":5911,"ĠHere":5912,"ĠChe":5913,"eval":5914,"Ġbehind":5915,"dagger":5916,"pop":5917,"ĠDec":5918,"border":5919,"Ġhighest":5920,"Http":5921,"riz":5922,"colon":5923,"None":5924,"Ġrecover":5925,";\"":5926,"zero":5927,"cons":5928,"BS":5929,"Ġinj":5930,"Ġplane":5931,"heast":5932,"Ġinterpret":5933,"Ġreached":5934,"Ġ$-":5935,"Ġexperiments":5936,"ydro":5937,"PT":5938,"Connection":5939,"*{":5940,"Ġcomparison":5941,"ĠMus":5942,"ĠBen":5943,"Ġprote":5944,"alo":5945,"ilarly":5946,"Ġinteger":5947,"Thread":5948,"vm":5949,"Ġformula":5950,"Ġblue":5951,"Position":5952,"Ġexamples":5953,"Ġcontact":5954,"Ġcollect":5955,"ĠĠĠĠĠĠĠĠĠĠĠĠĠĠĠĠĠĠĠĠ":5956,"ĠOur":5957,"elves":5958,"Ġformation":5959,"Ġever":5960,"before":5961,"ufact":5962,"INE":5963,"ĠBill":5964,"fit":5965,"tog":5966,"Ġcop":5967,"Ġchain":5968,"ban":5969,"Ġbeginning":5970,"Ġkilled":5971,"groupId":5972,"Ġbenef":5973,"ils":5974,"ĠDan":5975,"ĠST":5976,"ĠBuild":5977,"Ġcos":5978,"Ġapproximation":5979,"Ġstrict":5980,"Ġenter":5981,"Ã³n":5982,"Ġign":5983,"Ġstatement":5984,"Ne":5985,"Ġplatform":5986,"Ġnature":5987,"mode":5988,"Ġconsum":5989,"Ġepisode":5990,"ĠDel":5991,"ĠSummer":5992,"Ġswitch":5993,"ACK":5994,"Serial":5995,"ĠPre":5996,"ĠFore":5997,"Ġball":5998,"Ġsession":5999,"Ġbroadcast":6000,"Ġ\\(":6001,"hash":6002,"Ġincor":6003,"Settings":6004,"Ġbur":6005,"ĠIsra":6006,"ocation":6007,"Ġstations":6008,"lick":6009,"_{{\\":6010,"Ġbranch":6011,"ervices":6012,"rot":6013,"istan":6014,"term":6015,"ket":6016,"Ġ${":6017,"Ġvac":6018,"ĠHistory":6019,"PECT":6020,"'\\":6021,"Ġmonth":6022,"atically":6023,"iques":6024,"ECT":6025,"Ġnight":6026,"),\\":6027,"Ġtherm":6028,"ĠCatholic":6029,"Ġoriginally":6030,"nov":6031,"parameter":6032,"Ġvertices":6033,"Ġslow":6034,"Search":6035,"%;":6036,"1983":6037,"present":6038,"Ġbuildings":6039,"Ġscatter":6040,"Ġpersonal":6041,"modal":6042,"debug":6043,"Ġcomment":6044,"Ġtemplate":6045,"79":6046,"'_":6047,"Ġconsequ":6048,"clear":6049,"Ġdro":6050,"ouri":6051,"iverse":6052,"ye":6053,"Ġdynamics":6054,"ĠEv":6055,"icrosoft":6056,"Ġquality":6057,"}}(\\":6058,"PL":6059,"acement":6060,"Ġleads":6061,"Ġexperience":6062,"ĠOlympics":6063,"tained":6064,"():":6065,"wedge":6066,"hr":6067,"Ġmatches":6068,"ĠRun":6069,"Copy":6070,"MC":6071,"Ġcause":6072,"ĠSmith":6073,"Ġmunic":6074,"atre":6075,"Ġgrowth":6076,"ĠVer":6077,"ĠMem":6078,"lam":6079,"auth":6080,"Ġrelev":6081,"Ġnetworks":6082,"ĠFootball":6083,"sv":6084,"Ġoptimal":6085,"Ġperturb":6086,"xx":6087,"Ġuseful":6088,"atur":6089,"Ġweb":6090,"ursor":6091,"Ġsays":6092,"ivial":6093,"Ġplaced":6094,"BO":6095,"Ġattribute":6096,"aled":6097,"stylesheet":6098,"ĠCE":6099,"ĠSuper":6100,"shire":6101,"ĠJose":6102,"Mult":6103,"ĠCommission":6104,"Ġreading":6105,"ĠParis":6106,"condition":6107,"255":6108,"Ġcontribution":6109,"Ġpolar":6110,"rect":6111,"uls":6112,"textsc":6113,"Ġveh":6114,"RI":6115,"make":6116,"ĠAssembly":6117,"Ġfamilies":6118,"Ġsecurity":6119,"Ġmeasured":6120,"Option":6121,"direct":6122,"Ġcircle":6123,"Ġmeaning":6124,"ĠOrder":6125,"ĠEnd":6126,"74":6127,"Ġsomething":6128,"mi":6129,"Ġgenerate":6130,"Ġrepe":6131,"1950":6132,"ĠRob":6133,"1982":6134,"Ġhol":6135,"Ġartists":6136,"ariable":6137,"elt":6138,"itors":6139,"Ġfemale":6140,"eler":6141,"Ġteach":6142,"Ġ::":6143,"TI":6144,"produ":6145,"Ġminim":6146,"cp":6147,"Ġlack":6148,"Ġthings":6149,"olt":6150,"Ġaccuracy":6151,"Ġwide":6152,"Ġpadding":6153,"Ġ>=":6154,"ĠHow":6155,"ĠAtt":6156,"Ġuncertaint":6157,"ĠHel":6158,"Ġcoach":6159,"Ġfinally":6160,"dest":6161,"73":6162,"Ġtensor":6163,"Ġindustry":6164,"ĠFlor":6165,")\\,":6166,"LI":6167,"Ġagreement":6168,"Ġpick":6169,"Definition":6170,"_{-":6171,"ees":6172,"kind":6173,"ĠMass":6174,"?:":6175,"Ġextra":6176,"faces":6177,"ĠTechn":6178,"Ġscient":6179,"Ġsen":6180,"Ġsatisfies":6181,"Ġdestroy":6182,"Ġtit":6183,"ĠLos":6184,"chron":6185,"ĠSpanish":6186,"ĠHence":6187,";->":6188,"Ġincreased":6189,"anned":6190,"Ġstaff":6191,"âĢ¦":6192,"Ġchoose":6193,"Ġdepends":6194,"ells":6195,"Ġbottom":6196,"Ġstri":6197,"Change":6198,"Ġcapital":6199,"Non":6200,"Ġaim":6201,"Project":6202,"Ġspectral":6203,"ella":6204,"Document":6205,"Ġarticle":6206,"Ġproduce":6207,"MO":6208,"Ġedges":6209,"Ġfeed":6210,"ĠFurther":6211,"Ġdecom":6212,"Properties":6213,"mercial":6214,"Operation":6215,"Ġnumerical":6216,"Ġmanager":6217,"Ġpressure":6218,"abilities":6219,"ĠSur":6220,"Ġsex":6221,"Ġbasic":6222,"anger":6223,"Ġextract":6224,"Ġsaw":6225,"Iter":6226,"address":6227,"rey":6228,"=\"../../../../../../":6229,"ko":6230,"Params":6231,"osing":6232,"ATA":6233,"Order":6234,"Ġscript":6235,"HO":6236,"1979":6237,"Ev":6238,"hom":6239,"akes":6240,"ĠRichard":6241,"SET":6242,"Match":6243,"ancy":6244,"ĠPeter":6245,"Ġtoken":6246,"ĠArg":6247,"ountain":6248,"Ġensure":6249,"ĠIreland":6250,"ĠPri":6251,"More":6252,"structor":6253,"icients":6254,"Ġremoved":6255,"multi":6256,"ugins":6257,"Ġmanagement":6258,"ĠBG":6259,"Ġsquare":6260,"gorithms":6261,"Ġitems":6262,"Eq":6263,"Rev":6264,")^{\\":6265,"Ġhash":6266,"Ġstra":6267,"Ġconstraints":6268,"Ġtoday":6269,"oration":6270,"PA":6271,"azz":6272,"El":6273,"Integer":6274,"step":6275,"interface":6276,"Left":6277,"================================":6278,")}(":6279,"Ġfraction":6280,"WE":6281,"Ġoverride":6282,"device":6283,"iders":6284,"Ġcomes":6285,"Ġfourth":6286,"arian":6287,"icago":6288,"ĠField":6289,"spect":6290,"actor":6291,"Ġ+\\":6292,"Am":6293,"ĠLake":6294,"Ġconsistent":6295,"Ġ\"\\":6296,"Ġnoted":6297,"Ġwalk":6298,"king":6299,"Ġspaces":6300,"Ġhit":6301,"uple":6302,"enge":6303,"Ġslight":6304,"ĠForce":6305,"71":6306,"copy":6307,"Des":6308,"Ġresolution":6309,"Ġeditor":6310,"ette":6311,"Ġmovement":6312,"Prot":6313,"Ġattention":6314,"Ġunion":6315,"Reference":6316,"success":6317,"ĠAlthough":6318,"utch":6319,"1981":6320,"Ġgauge":6321,"TV":6322,"Impl":6323,"seud":6324,"Ġroute":6325,"picture":6326,"des":6327,"inant":6328,"oviet":6329,"annels":6330,"Ġcontrast":6331,"Pop":6332,"Ġproducts":6333,"Ġapplications":6334,"chor":6335,"Ġsimulations":6336,"Sign":6337,"mitted":6338,"ested":6339,"ĠNow":6340,"ĠOver":6341,"forall":6342,"ĠFrank":6343,"Ġmoney":6344,"sto":6345,"Ġparams":6346,"Ġscalar":6347,"Ġcorresponds":6348,")_{":6349,"ĠPan":6350,"ribution":6351,"people":6352,"ORT":6353,"component":6354,"inger":6355,"Ġangle":6356,"Ġplant":6357,"Long":6358,"retary":6359,"Ġmiddle":6360,"Store":6361,"Ġgrant":6362,"Ġdetection":6363,"Ġhot":6364,"Ġquick":6365,"Ġmole":6366,"Ke":6367,"Ġunknown":6368,"ishes":6369,"Ġliterature":6370,"atalog":6371,"ĠRegister":6372,"ifies":6373,"Ġeasily":6374,"iece":6375,"Ġer":6376,"ĠAust":6377,"Ġinner":6378,"Ġxml":6379,"rices":6380,"ĠSun":6381,"bel":6382,"oom":6383,"Me":6384,"tik":6385,"NavBar":6386,"ĠGeorg":6387,"Ġpen":6388,"sort":6389,"Ġappropri":6390,"igan":6391,"uge":6392,"Ġmut":6393,"Ġbrother":6394,"iring":6395,"Ġprocesses":6396,"Ġimplementation":6397,"Ġsplit":6398,"icate":6399,"Ġscience":6400,"}$-":6401,"cr":6402,"Ġremained":6403,"ĠCr":6404,"results":6405,"Ġconstructed":6406,"Ġfast":6407,"Ã¨":6408,")^{-":6409,"ĠOffic":6410,"That":6411,"Ġmomentum":6412,"Ġdisk":6413,"=\"_":6414,"Ġparticularly":6415,"kin":6416,"}%":6417,"ĠGovernment":6418,"Ġresources":6419,"ĠMel":6420,"Ġchem":6421,"irl":6422,"ishop":6423,"Ġlove":6424,"matrix":6425,"ä¸":6426,"ĠHill":6427,"ĠCD":6428,"icated":6429,"Ġbinary":6430,"ĠWeb":6431,"Ġanti":6432,"Ġsure":6433,"cases":6434,"Ġtheore":6435,"global":6436,"Cal":6437,"msg":6438,"ĠCommittee":6439,"elopment":6440,"Helper":6441,"ĠTwo":6442,"subsubsection":6443,"bind":6444,"Ġrecently":6445,"Ġcaused":6446,"ĠDu":6447,"Ġmedal":6448,"Ġcalculated":6449,"Ġcoupling":6450,"Ġsch":6451,"transform":6452,"Mark":6453,"uty":6454,"roduction":6455,"1978":6456,"Async":6457,"Ptr":6458,"Ġdecay":6459,"Ġinstr":6460,"Ac":6461,"Expression":6462,"ockey":6463,"Bl":6464,"env":6465,"internal":6466,"Kind":6467,"Here":6468,"Ġsteps":6469,"Ġvariety":6470,"Ġminor":6471,"Ġexperimental":6472,"Core":6473,"ĠFin":6474,"irit":6475,"razil":6476,"alysis":6477,"ocal":6478,"ĠMap":6479,"agraph":6480,"ĠRock":6481,"ynamic":6482,"ĠCongress":6483,"Ġagent":6484,"ĠDen":6485,"Further":6486,"Ġexistence":6487,"ibly":6488,"1976":6489,"iled":6490,"ilation":6491,"Ġmeasurements":6492,"ĠVirginia":6493,"Ġtalk":6494,"ĠUnder":6495,"Ġassign":6496,"ĠVictor":6497,"Ġartist":6498,"$^{-":6499,"LS":6500,"contin":6501,"1972":6502,"Ã§":6503,"\\!\\!":6504,"bi":6505,"ĠIts":6506,"Other":6507,"ĠAlso":6508,"ĠFilm":6509,"ĠPenn":6510,"Ġgreater":6511,"So":6512,"ĠException":6513,"However":6514,"equal":6515,"ĠFoundation":6516,"ĠCamp":6517,"foo":6518,"urt":6519,"Ġones":6520,"delete":6521,"Ġleader":6522,"Ġalt":6523,"Post":6524,"Ġinequality":6525,"Ġfood":6526,"uations":6527,"Ġetc":6528,"prove":6529,"Ġassumption":6530,"ĠMoreover":6531,"mut":6532,"rev":6533,"Ġstrategy":6534,"Ġgold":6535,"ĠGener":6536,"Session":6537,"Ġprocedure":6538,"Ġshare":6539,"Ġsort":6540,"Tim":6541,"olf":6542,"Ġloop":6543,"Ġaud":6544,"ĠLong":6545,"Ġjoint":6546,"Ġlot":6547,"DL":6548,"Ġundefined":6549,"elled":6550,"Ġcritic":6551,"icker":6552,"1974":6553,"Ġaircraft":6554,"Ġawarded":6555,"Ġexternal":6556,"Ġcollege":6557,"Ġidentified":6558,"Ġorganization":6559,"Ġtraditional":6560,"Conn":6561,"Ġdu":6562,"tn":6563,"Ġ{};":6564,"ato":6565,"hesis":6566,"Ġsettings":6567,"neg":6568,"mann":6569,"bed":6570,"render":6571,"perp":6572,"Ġsend":6573,"Ġseparate":6574,"STR":6575,"rate":6576,"Ġnews":6577,"ĠCast":6578,"Ġtrade":6579,"Ġclassification":6580,"ja":6581,"Ġprevent":6582,"Section":6583,"ental":6584,"Render":6585,"ĠEXPECT":6586,"allery":6587,"Ġintegral":6588,"tikz":6589,"Que":6590,"1977":6591,"inem":6592,"'}":6593,"Ġdecided":6594,"ULT":6595,"ĠHenry":6596,"Ġutil":6597,"types":6598,"Ġdual":6599,"You":6600,"ola":6601,"1975":6602,"Comple":6603,"ĠLand":6604,"Ġnet":6605,"sur":6606,"Ġamplit":6607,"Ġbal":6608,"Ġfeatured":6609,"ĠSeries":6610,"while":6611,"Ġdistinct":6612,"vas":6613,"ERROR":6614,"ĠIll":6615,"reedom":6616,"req":6617,"Ġculture":6618,"structure":6619,"Ġfactors":6620,"ĠDE":6621,"aser":6622,"Do":6623,"ĠPy":6624,"ĠAut":6625,"udd":6626,"ĠBrown":6627,"Ġ}\\":6628,"(:":6629,"ects":6630,"hover":6631,"ĠAngeles":6632,"Person":6633,"Ġjav":6634,"Ġbul":6635,"ora":6636,"ĠWomen":6637,"arant":6638,"osoph":6639,"docs":6640,"ech":6641,"rolled":6642,"ĠNews":6643,"She":6644,"alg":6645,"Ġanim":6646,"Pass":6647,"Ġcompetition":6648,"widget":6649,"Ġpairs":6650,"Ġessential":6651,"webkit":6652,"SR":6653,"Ġsoon":6654,"ifications":6655,"ifically":6656,"idae":6657,"ĠHealth":6658,"pa":6659,"Ġhours":6660,"Menu":6661,"Ġlattice":6662,"ervation":6663,"Ġbrought":6664,"Ġdatabase":6665,"Ġsimulation":6666,"ali":6667,"Ġreli":6668,"Ġpolitician":6669,"Ġactivity":6670,"aver":6671,"cf":6672,"Ġnamespace":6673,"eries":6674,"send":6675,"rome":6676,"Sing":6677,"ĠMax":6678,"ĠLine":6679,"Ġmentioned":6680,"Art":6681,"Ġequip":6682,"Early":6683,"fect":6684,"'.":6685,"ĠPost":6686,",\\,":6687,"ordinate":6688,"Ġult":6689,"Ġcoefficients":6690,"equals":6691,"osc":6692,"Ġcomputed":6693,"export":6694,"Ġcit":6695,"Ver":6696,"Ġlegal":6697,"Äģ":6698,"ragment":6699,"ĠTO":6700,"Ġhighly":6701,"Ġexactly":6702,"Ġplot":6703,"join":6704,"Parameters":6705,"forms":6706,"Names":6707,"ĠĠĠĠĠĠĠĠĠĠĠĠĠĠĠĠĠĠ":6708,"Ġvan":6709,"Ġelectric":6710,"ategories":6711,"asure":6712,"ĠAtl":6713,"stat":6714,"Ġprograms":6715,"Inst":6716,"Ġlibrary":6717,"sol":6718,".~(\\":6719,"Ġsampl":6720,"ĠTer":6721,"Ġmicro":6722,"Ġprim":6723,"Ġtests":6724,"unct":6725,"Ġrelevant":6726,"iral":6727,"oting":6728,"SM":6729,"inate":6730,"ĠCre":6731,"access":6732,"Ġreach":6733,"ĠItaly":6734,"ĠArts":6735,"adr":6736,"asi":6737,"Ġsometimes":6738,"Ġdenotes":6739,"enum":6740,"Ġeasy":6741,"try":6742,"ĠCheck":6743,"ĠBGCOLOR":6744,"Ġansw":6745,"rich":6746,"Ġpurch":6747,"session":6748,"TER":6749,"Schema":6750,"ĠSwed":6751,"mc":6752,"Ġinteresting":6753,"Ġcandidate":6754,"Ġplays":6755,"Down":6756,"even":6757,"Ġsituation":6758,"lines":6759,"Dep":6760,"ipl":6761,"ogene":6762,"XX":6763,"iffer":6764,"Ġcorrelation":6765,"Ġsignificantly":6766,"Ġdoesn":6767,"ounds":6768,"Ġsegment":6769,"1973":6770,"Notes":6771,"ixel":6772,"Ġecho":6773,"ĠInc":6774,"ski":6775,"1968":6776,"ALL":6777,"Ġbrief":6778,"aud":6779,"Ġunivers":6780,"iller":6781,"Ġactions":6782,"Ġimmediately":6783,"ĠOR":6784,"Ġfeel":6785,"ĠMexico":6786,"Ġvisual":6787,"Ġspent":6788,"kes":6789,"Ġbad":6790,"gg":6791,"arc":6792,"Ġreduce":6793,"Ġstudent":6794,"Ġnative":6795,"Ġinfluence":6796,"ĠĠĠĠĠĠĠĠĠĠĠĠĠĠĠĠĠĠĠĠĠĠĠĠĠĠĠĠĠĠĠĠĠĠĠĠĠĠĠ":6797,"ĠRussia":6798,"Ġrates":6799,"toString":6800,"Ġgrid":6801,"ĠChicago":6802,"ĠRel":6803,"Ġgun":6804,"=.":6805,"abit":6806,"Ġwhy":6807,"double":6808,"ĠRead":6809,"bal":6810,"full":6811,"Ġcurves":6812,"Sum":6813,"Our":6814,"Ġgrand":6815,".&.&":6816,"Ġincreases":6817,"Red":6818,"Ġgeneration":6819,"Host":6820,"Go":6821,"elebr":6822,"Ġpropag":6823,"\">&":6824,"Sk":6825,"}}^":6826,"tri":6827,"blue":6828,"ĠFlorida":6829,"Ġcompare":6830,"Ġsurround":6831,"Ġtechnology":6832,"Ġmodes":6833,"ĠBas":6834,"iger":6835,"Ġeconomic":6836,"mselves":6837,"onds":6838,"defined":6839,"footer":6840,"Figure":6841,"Su":6842,"Ġaxis":6843,"fn":6844,"Ġarbitrary":6845,"bu":6846,"}^*":6847,"irmed":6848,"LP":6849,"Ġroom":6850,"osh":6851,"Dom":6852,"$).":6853,"Ġfif":6854,"unched":6855,"osed":6856,")}{\\":6857,"Sl":6858,"Ġmajority":6859,"Ġsinger":6860,"Ġestablishments":6861,"Ġchalleng":6862,"holder":6863,"ĠAv":6864,"Draw":6865,"ĠCall":6866,"Ġ$.":6867,"Ġthread":6868,"endar":6869,"Ġstack":6870,"Ġcache":6871,"Ġraise":6872,"focus":6873,"Ġformal":6874,"usters":6875,"aved":6876,"Ġconcent":6877,"Ġbring":6878,"Ġassumed":6879,"ĠBank":6880,"ĠBoard":6881,"_;":6882,"iro":6883,"Ġinfo":6884,">.":6885,"iano":6886,"'],":6887,"Ġarchitecture":6888,")\\\\":6889,"Ġauthors":6890,"ĠBig":6891,"Use":6892,"Ġspectra":6893,"cut":6894,"Ġpackage":6895,"pmatrix":6896,"Ġalgorithms":6897,"Ġharm":6898,"1971":6899,"oral":6900,"Template":6901,"Ġthemselves":6902,"ror":6903,"ĠTem":6904,"pers":6905,"GET":6906,"media":6907,"Ġparse":6908,"Ġfinancial":6909,"Ġmedical":6910,"Ġexam":6911,"Ġmanufact":6912,"disabled":6913,"Ġdivision":6914,"Ġpositions":6915,"plugin":6916,"ĠLie":6917,"yes":6918,"DIR":6919,"ĠKn":6920,"ĠEqu":6921,"Ġactor":6922,"Ġpoly":6923,"sime":6924,"Ġtreatment":6925,"Vector":6926,"Handle":6927,"areer":6928,"ipeline":6929,"car":6930,"})$.":6931,"ĠMethod":6932,"ien":6933,"shot":6934,"Dist":6935,"ĠLO":6936,"bootstrap":6937,"simeq":6938,"ORD":6939,"&-":6940,"oped":6941,"ĠMost":6942,"Ġrecomm":6943,"Year":6944,"pool":6945,"ĠStar":6946,"Ġpark":6947,"Ġcombined":6948,"Ġactivities":6949,"Ġcard":6950,"bullet":6951,"Ġinvariant":6952,"Icon":6953,"iana":6954,"Ġheavy":6955,"False":6956,"^{+":6957,"Members":6958,"wa":6959,"Ġring":6960,"UP":6961,"Ġcompletely":6962,"Ġtasks":6963,"1969":6964,"ĠNavy":6965,"Values":6966,"'>":6967,"ĠEach":6968,"apers":6969,"Rect":6970,"ĠCON":6971,"estamp":6972,"Ġwoman":6973,"ga":6974,"Ġtypically":6975,"click":6976,"endix":6977,"Ġdepth":6978,"Each":6979,"ova":6980,"Ġmur":6981,"Ġorient":6982,"Ġflag":6983,"handle":6984,"modules":6985,"named":6986,"ĠKh":6987,"brid":6988,"organ":6989,"Ġmixed":6990,"Ġdistributions":6991,"vol":6992,"mas":6993,"Dr":6994,"Ġcontainer":6995,"GE":6996,"Ġwait":6997,"poses":6998,"Ġ['":6999,")_":7000,"Ġinterval":7001,"Ð»":7002,"orter":7003,"ĠProject":7004,"Ġrecords":7005,"Ġpartial":7006,"(*":7007,"NR":7008,"Stack":7009,"BR":7010,"olk":7011,"Ġsubset":7012,"ĠTrue":7013,"ĠEmp":7014,"Ġbyte":7015,"inations":7016,"eds":7017,">();":7018,"Ġcollabor":7019,"ĠAnn":7020,"Ġcontributions":7021,"DA":7022,"Xml":7023,"Ġbasketball":7024,"lig":7025,"Reader":7026,"Ġstable":7027,"Ġearn":7028,"Application":7029,"exception":7030,"hemat":7031,"ylvan":7032,"Ġwind":7033,"Ġshared":7034,"ĠTimes":7035,"Ġcapacity":7036,"Ġstraight":7037,"Ġimprove":7038,"short":7039,"ĠScot":7040,"Ġscored":7041,"Title":7042,"Ġintroduce":7043,"Ġtournament":7044,"Ġflat":7045,"Ġacadem":7046,"ĠIII":7047,"Ġnearly":7048,"$$\\":7049,"ipality":7050,"Ġmachine":7051,"aws":7052,"rons":7053,"stra":7054,"Ġprep":7055,"panel":7056,"Ġgreen":7057,"custom":7058,"remark":7059,"ads":7060,"emic":7061,"Ðº":7062,"product":7063,"Ġsemi":7064,"ima":7065,"Ġtransaction":7066,"iciency":7067,"Ġquite":7068,"elli":7069,"Ġsymmetric":7070,"allow":7071,"Tool":7072,"anda":7073,"Ġstellar":7074,"Assert":7075,"Ġorb":7076,"Ġmaster":7077,"Ġwriters":7078,"urren":7079,"Ġrelatively":7080,"ĠCap":7081,"undred":7082,"ters":7083,"ĠFestival":7084,"Ġinsp":7085,"dule":7086,"ĠMur":7087,"Invalid":7088,"Ġspatial":7089,"]]":7090,"Ġamb":7091,"'re":7092,"Ġinterview":7093,"ĠLife":7094,")$-":7095,"150":7096,"Ġcombination":7097,"Ġ++":7098,"English":7099,"ĠMil":7100,"Ġpurpose":7101,"ĠTim":7102,"=\"/":7103,"Classes":7104,"cloud":7105,"1940":7106,"Ġcarried":7107,"Ġdelete":7108,"1945":7109,"Ġ})":7110,"Ġpri":7111,"ugby":7112,"va":7113,"1967":7114,"ĠName":7115,"Ġreferred":7116,"ĠSy":7117,"Ġtechniques":7118,"à¤":7119,"Ġopport":7120,"hs":7121,"ture":7122,"Parser":7123,"ĠBur":7124,"Ġminutes":7125,"Ġapproaches":7126,"house":7127,"Ġmis":7128,"virtual":7129,"Ġinitially":7130,"URE":7131,"TC":7132,"olves":7133,"Ġdise":7134,"amental":7135,"Ġinvoke":7136,"ĠChampionships":7137,"ved":7138,"angular":7139,"odot":7140,"isher":7141,"ĠParliament":7142,"cknow":7143,"{$\\":7144,"Ġcells":7145,"points":7146,"Ġcontained":7147,"During":7148,"Ġcontr":7149,"late":7150,"My":7151,"MB":7152,"Ġrisk":7153,"Ġability":7154,"isters":7155,"Hz":7156,"Has":7157,"Param":7158,"ibli":7159,"Ġ=\\":7160,"annotation":7161,"ĠÎ":7162,"Ġthreat":7163,"Parent":7164,"oub":7165,"wan":7166,"ĠKar":7167,"ĠCarolina":7168,"ĠArab":7169,"ĠModel":7170,"ĠOh":7171,"}&":7172,"byte":7173,"Ġshot":7174,"PH":7175,"fields":7176,"ĠRequ":7177,"Ġcoordinates":7178,"rf":7179,"###":7180,"maz":7181,"Cor":7182,"framework":7183,"ĠOld":7184,"ĠLu":7185,"OK":7186,"Ġprison":7187,"exports":7188,"ĠSil":7189,"icity":7190,"~$\\":7191,"ĠEducation":7192,"Ġlock":7193,"\\|_{":7194,"posite":7195,"Ġlat":7196,"ylvania":7197,"160":7198,"Thus":7199,"ĠDate":7200,"ORM":7201,"rium":7202,"Ġcalc":7203,"Ġbey":7204,"Ġphil":7205,"Ġmoving":7206,"adium":7207,"ĠĠĠĠĠĠĊ":7208,"`.":7209,"initial":7210,"Ġabsolute":7211,"Ġmorph":7212,"Ġopening":7213,"ĠProgram":7214,"Ġwav":7215,"256":7216,"mapsto":7217,"Num":7218,"Ġsingular":7219,"omorphic":7220,"sql":7221,"Ġmostly":7222,"Ġmatrices":7223,"120":7224,"Ġsimpl":7225,"GC":7226,"Ġoccurs":7227,"ĠMath":7228,"VID":7229,"Di":7230,"Debug":7231,"La":7232,"Ġindicates":7233,"etween":7234,"ĠĠĠĠĠĠĠĠĠĠĠĠĠĠĠĠĠĠĠĠĠĠĠĠĠĠĠĠĠĠĠĠĠĠĠĠĠĠĠĠĠĠĠĠĠĠĠĠĠĠĠĠĠĠĠĠĠĠĠĠĠĠĠĠ":7235,";<":7236,"uages":7237,"ĠNetwork":7238,"Ġinher":7239,"Ġpartition":7240,"Ġheader":7241,"__(":7242,"ilib":7243,"Ġestimates":7244,"Ñĥ":7245,"Ġcommercial":7246,"rants":7247,"Ġwhom":7248,"ĠPet":7249,"1964":7250,"Ġparallel":7251,"John":7252,"\\_":7253,"Bytes":7254,"Ġshowed":7255,"Ġcomputer":7256,"Ġbeyond":7257,"icons":7258,"rank":7259,"ĠSoviet":7260,"stein":7261,"Ġblocks":7262,"Ġprotocol":7263,"cope":7264,"Writer":7265,"ĠLiber":7266,"ĠMartin":7267,"Body":7268,"Ġleave":7269,"Theorem":7270,"Device":7271,"ĠYoung":7272,"Ġtun":7273,"1930":7274,"anguage":7275,"nam":7276,"Err":7277,"ĠGaussian":7278,"Ġrul":7279,"ĠAwards":7280,"Ġappearance":7281,"ati":7282,"128":7283,"Ġtold":7284,"kins":7285,"Ġhum":7286,"category":7287,"ĠJSON":7288,"venue":7289,"Ġdependence":7290,"help":7291,"ĠJo":7292,"Ġactress":7293,"connect":7294,"axis":7295,"comment":7296,"Ġproved":7297,"Argument":7298,"Ġreceive":7299,"spe":7300,"Ġanalog":7301,"Ġvs":7302,"-->":7303,"pton":7304,"found":7305,"Ġabsor":7306,"inet":7307,"ĠColumb":7308,"Ġcentre":7309,"NE":7310,"ji":7311,"Ġslightly":7312,"Ġwinning":7313,"Args":7314,"Ġtor":7315,"Ġdiss":7316,"Ġappropriate":7317,"ĠSocial":7318,"Ġsaf":7319,"ĠFort":7320,"Ġyields":7321,"pute":7322,"Ġ$$":7323,"lers":7324,"ATH":7325,"AND":7326,"Ġmeasures":7327,"Ġefficient":7328,"Äĩ":7329,"UB":7330,"shape":7331,"agnost":7332,"Ġaspect":7333,"Ġproducer":7334,"Ġspread":7335,"}}^{":7336,"\\{\\":7337,"ĠGal":7338,"Ġended":7339,"Åį":7340,"radius":7341,"recated":7342,"----------------------------------------------------------------":7343,"Ġmainly":7344,"TS":7345,"Ġmission":7346,"dependency":7347,"Ġregime":7348,"Ġvertical":7349,"ĠOf":7350,"Ġstay":7351,"orner":7352,"proposition":7353,"Ġindividuals":7354,"arriage":7355,"Ġvocals":7356,"Ġclean":7357,"Ġtesting":7358,"ĠEngine":7359,"toggle":7360,"ĠLin":7361,"Ġremain":7362,"1965":7363,"men":7364,"cpp":7365,"newcommand":7366,"Gu":7367,"Ġcloud":7368,"application":7369,"Ġche":7370,"These":7371,"ĠGen":7372,"Ġâ":7373,"ĠStep":7374,"Ġcycle":7375,"andra":7376,"Ġ&=&":7377,"ĠDom":7378,"yan":7379,"Main":7380,"ĠDet":7381,"ĠBrazil":7382,"oz":7383,"Ġexpressed":7384,"fort":7385,"Ġedition":7386,"Ġincorpor":7387,"ĠOl":7388,"Ġcarry":7389,"Ġrect":7390,"Ġ),":7391,"Ġos":7392,"onical":7393,"ĠMr":7394,"Enabled":7395,"Ġresponsible":7396,"Meta":7397,"ponential":7398,"DI":7399,"Ġforeign":7400,"mos":7401,"ĠWales":7402,"Ġmeasurement":7403,"Ġbytes":7404,"ĠassertEquals":7405,"mic":7406,"je":7407,"Ġgoals":7408,"Metadata":7409,"Ġinteractions":7410,"coq":7411,"settings":7412,"ĠTop":7413,"Ġlaunched":7414,"padding":7415,"asion":7416,"Ġprobably":7417,"ĠPac":7418,"Ġtransformation":7419,"Execut":7420,"Ġjoin":7421,"Ġvectors":7422,"aily":7423,"ĠShow":7424,"sky":7425,"callback":7426,"1966":7427,"Ġattended":7428,"Ġserial":7429,"ĠJac":7430,"`,":7431,"istical":7432,"large":7433,"Ġvary":7434,"Ġentered":7435,"Ġachieved":7436,"$;":7437,"ĠJoseph":7438,"scill":7439,"Ġmovie":7440,"numer":7441,"insert":7442,"ierarch":7443,"Ġoptical":7444,"Ġreflect":7445,"Ġinsert":7446,"ansas":7447,"itan":7448,"rical":7449,"Ġdirectory":7450,"ellig":7451,"grid":7452,"Mock":7453,"Ġpoor":7454,"Ġcoast":7455,"sylvania":7456,"onald":7457,"rick":7458,"ĠColor":7459,"ĠRE":7460,"Ġobserve":7461,"Ġwaves":7462,"Ġprojects":7463,"Ġdiscussion":7464,"rong":7465,"Ġseasons":7466,"Ġsouthern":7467,"ĠProvince":7468,"Ġasympt":7469,"Ġnorthern":7470,"ĠPlay":7471,"ĠProfess":7472,"Ġvisit":7473,"Ġmodified":7474,"Ġproceed":7475,"Ġmusical":7476,"replace":7477,"Car":7478,"1920":7479,"Ġstudio":7480,"SION":7481,"Ġfederal":7482,"}\"":7483,"Ġterrit":7484,"igration":7485,"Ġtrained":7486,")).":7487,"Ġhidden":7488,"two":7489,"Ġchart":7490,"Ġdetailed":7491,"ĠNorthern":7492,"ĠInst":7493,"nections":7494,"Ġcommunities":7495,"uer":7496,"Ġli":7497,"auto":7498,"lie":7499,"ĠBob":7500,"bold":7501,"Ġbounds":7502,"store":7503,"boolean":7504,"Ġriver":7505,"Tab":7506,"ĠIrish":7507,"Ġstrength":7508,"Ġjson":7509,"While":7510,"|_{":7511,"ĠLee":7512,"ĠIS":7513,"Ġexchange":7514,"plugins":7515,")},":7516,"keys":7517,"Ġseems":7518,"Ġsections":7519,"Ġconvergence":7520,"Ġolder":7521,"scription":7522,"ĠCH":7523,"Channel":7524,"Career":7525,"Ġmeeting":7526,"TEST":7527,"Ġhel":7528,"Ġsummer":7529,"'(":7530,"Ġstatistics":7531,"Ġking":7532,"Ġunsigned":7533,"ĠEmpire":7534,"Ġscene":7535,"Decl":7536,"stable":7537,"Ġcelebr":7538,"Ġnam":7539,"owers":7540,"aus":7541,"ĠSpr":7542,"igin":7543,"Tests":7544,"lict":7545,"atriate":7546,"hbar":7547,"ĠHaw":7548,"Ġcoming":7549,"Var":7550,"Ġangular":7551,"ĠTour":7552,"iant":7553,"Ġpure":7554,"Ġways":7555,"Ġpoet":7556,"Ġ('":7557,"Ġonto":7558,"bot":7559,"hing":7560,"OM":7561,"Policy":7562,"Ġcensus":7563,"Ġinline":7564,"ployment":7565,"Sym":7566,"Ġassigned":7567,"Ġidentify":7568,"istent":7569,"Ġisland":7570,":#":7571,"ĠLove":7572,"Ġdoing":7573,"ĠEvent":7574,"ady":7575,"Ġmechanism":7576,"Ġnewsp":7577,"Ġrecall":7578,"Ġsites":7579,"Root":7580,"Delete":7581,"mediate":7582,"ĠChief":7583,"cluded":7584,"material":7585,"enter":7586,"abil":7587,"Ġstrongly":7588,"special":7589,"ĠHistoric":7590,"Display":7591,"TED":7592,"Ġfoot":7593,"forward":7594,"udes":7595,"ĠRh":7596,"region":7597,"Ġrailway":7598,"ĠError":7599,"apped":7600,"Ø§":7601,"master":7602,"ĠDirector":7603,"admin":7604,"Ġparents":7605,"ĠFI":7606,"ĠWood":7607,"Ġordered":7608,"atible":7609,"Ġnumerous":7610,"ĠSir":7611,"ĠĠĠĠĠĠĠĠĠĠĠĠĠĠĠĠĠĠĠĠĠĠĠĠĠ":7612,"ryst":7613,"names":7614,"$~":7615,"Ġut":7616,"secut":7617,"Byte":7618,"rapper":7619,"ĠNav":7620,"ĠSpain":7621,"attribute":7622,"Ġprem":7623,"Ġindicate":7624,"Ġproviding":7625,"ĠĠĠĠĠĠĠĠĠĠĠĠĠĠĠĠĠĠĠĠĠĠĠĠ":7626,"issions":7627,"Ġchief":7628,"-$":7629,"Ġgalaxy":7630,"ĠWal":7631,"fony":7632,"Ġcert":7633,"Ġhypot":7634,"cient":7635,"plements":7636,"Ġtypical":7637,"Ġcalls":7638,"ĠIsrael":7639,"Ġowned":7640,"ĠFri":7641,"coming":7642,"Ġvisible":7643,"Ġthick":7644,"Ġthreshold":7645,"Ġcommission":7646,"}}$,":7647,"Ġhydro":7648,"Ġphen":7649,"Ġgain":7650,"ternet":7651,"ĠIO":7652,"ĠCross":7653,"Before":7654,"Ġbattle":7655,"ĠGreek":7656,"END":7657,"Inv":7658,"ĠMount":7659,"ensed":7660,"aria":7661,"ECK":7662,"iate":7663,"ĠEr":7664,"ĠWhat":7665,"Ġmapping":7666,"SSERT":7667,"usband":7668,"FAULT":7669,"Ġmatching":7670,"Ġofficer":7671,"ĠInitial":7672,"cong":7673,"Ġserve":7674,"ĠCam":7675,"writer":7676,"AME":7677,"Ġchampionship":7678,"Ġkernel":7679,"Ġdifferences":7680,"Ġoscill":7681,"Ġachiev":7682,"Ġasked":7683,"iling":7684,"Ġdelay":7685,"Doc":7686,"blockList":7687,"Ġrepresenting":7688,"Ġ'/":7689,"AF":7690,"claim":7691,"register":7692,"According":7693,"ĠHTML":7694,"Boolean":7695,",$":7696,"romise":7697,"=\"../../../":7698,"\\\\\\\\\\\\\\\\":7699,"mass":7700,"ĠOffice":7701,"Ġpriv":7702,"Films":7703,"Ġmagnitude":7704,"ĉĉĉĊ":7705,"Ġseek":7706,"ographic":7707,"){\\":7708,"CTION":7709,"sych":7710,"super":7711,"enses":7712,"Ġgoes":7713,"cuss":7714,"ĠJournal":7715,"Ġfailure":7716,"anges":7717,"ĠLibrary":7718,"PRE":7719,"Initial":7720,"otted":7721,"kg":7722,"coin":7723,"dy":7724,"ĠMP":7725,"asy":7726,"Ġgiving":7727,"ĠPennsylvania":7728,"margin":7729,"ĠHot":7730,"Ġdead":7731,"vs":7732,"Ġcriter":7733,"ĠIran":7734,"Ġsetup":7735,"ĠJim":7736,"Dialog":7737,"Ġgap":7738,"Ġsqu":7739,"}}$.":7740,"ĠBattle":7741,"AGE":7742,"ĠTeam":7743,"pan":7744,"awa":7745,"Ġcompl":7746,"Only":7747,"Cre":7748,"Ġbin":7749,"Ġdifferential":7750,"anner":7751,"ĠJud":7752,"ampion":7753,"iated":7754,"Background":7755,"andard":7756,"gers":7757,"Network":7758,"ĠEarth":7759,"Ġalternative":7760,"Ġlived":7761,"Ġ<=":7762,"\")]":7763,"Ġsatisfy":7764,"ĠFred":7765,"Ġdistingu":7766,"Ġweeks":7767,"Ġwanted":7768,"ACE":7769,"Ġowner":7770,"'))":7771,"Ġnotation":7772,"Ġgenus":7773,"Obj":7774,"ĠPak":7775,"ĠLi":7776,"Ġraised":7777,"Using":7778,"Ġcomposed":7779,"Ġlayers":7780,"install":7781,"GS":7782,"ni":7783,"idget":7784,"ĠHamiltonian":7785,"})$,":7786,"Ġeth":7787,"ilibrium":7788,"Ġguarant":7789,"Ġbecoming":7790,"Ġforced":7791,"mes":7792,"wer":7793,"isc":7794,"edge":7795,"leton":7796,"Ġlies":7797,"family":7798,"onym":7799,"ĠHand":7800,"ĠBoth":7801,"Ġfair":7802,"ĠPeople":7803,"Ġcovered":7804,"Ġentries":7805,"ĠId":7806,"itation":7807,"Ġmsg":7808,"ĠCa":7809,"Ġbehavi":7810,"Ġbeam":7811,"ĠUse":7812,"1963":7813,"Custom":7814,"ributed":7815,"Ġhundred":7816,"important":7817,"Api":7818,"ective":7819,"oston":7820,"Ġwood":7821,"airman":7822,"Ġexport":7823,"Ġachieve":7824,"Ġmagazine":7825,"Ġcounty":7826,"Ġmask":7827,"Ġattributes":7828,"Ġreduction":7829,")+\\":7830,"mock":7831,"DC":7832,"Ġelem":7833,"ĠValue":7834,"Ġpan":7835,"Ġsynt":7836,"Ġlif":7837,"arse":7838,"Ġlives":7839,"Sch":7840,"1962":7841,"ighter":7842,"Package":7843,"cccc":7844,"[(":7845,"dem":7846,"ĠCivil":7847,"mond":7848,"erry":7849,"Ġannual":7850,"mma":7851,")-\\":7852,"DS":7853,"Descriptor":7854,"Ġ$|\\":7855,"Ġpy":7856,"power":7857,"cref":7858,"icks":7859,"leep":7860,"Ġsurvey":7861,"called":7862,"ĠValley":7863,"Ġexc":7864,"har":7865,"RR":7866,"Public":7867,"}{(":7868,"Ġsenior":7869,"ĠHon":7870,"Ġreligious":7871,"domain":7872,"Ġobservation":7873,"stitut":7874,"connection":7875,"ben":7876,"Ġoptimization":7877,"inline":7878,"email":7879,"Ġstorage":7880,"Ġincome":7881,"Vol":7882,"elegate":7883,"Ġprefer":7884,"Ġmock":7885,"ĠRam":7886,"Ġrapid":7887,"Ġentity":7888,"Ġminimal":7889,"exists":7890,"aped":7891,"gian":7892,"ITY":7893,"Ġ\"/":7894,"ĠTheir":7895,"poration":7896,"ador":7897,"Ġpull":7898,"such":7899,"roph":7900,"Ġdefeated":7901,"ĠBi":7902,"Ġtool":7903,"coordinate":7904,"ĠGoogle":7905,"ologies":7906,"Ġjavax":7907,"gypt":7908,"cmd":7909,"Ġproport":7910,"Å¡":7911,"ĠConn":7912,"aret":7913,"Ġcreation":7914,"uon":7915,"Gr":7916,"Ġdepartment":7917,"DP":7918,"ĠKey":7919,"ĠBritain":7920,"loop":7921,"Ġsave":7922,"HTML":7923,"Ġgradient":7924,"Ġspl":7925,"Ġ^":7926,"items":7927,"enth":7928,"Ġ(*":7929,"Symbol":7930,"ĠOp":7931,"aters":7932,"Ġarmy":7933,"Ġshowing":7934,"Ġquarter":7935,"uous":7936,"stone":7937,"Ġdespite":7938,"las":7939,"Ġsociety":7940,"ĠLord":7941,"Prop":7942,"Bi":7943,"Transaction":7944,"1961":7945,"Ġsingles":7946,"opes":7947,"}({\\":7948,"Show":7949,"pay":7950,"ĠUser":7951,"dict":7952,"Ġpi":7953,"rated":7954,"ĠMedia":7955,"Storage":7956,"none":7957,"Ġalloc":7958,"fix":7959,"Ġclearly":7960,"ito":7961,"Ġrout":7962,"1944":7963,"sch":7964,"Ident":7965,"Job":7966,"protobuf":7967,")),":7968,"dropdown":7969,"ĠFinally":7970,"Ġchannels":7971,"jpg":7972,"unior":7973,"Rule":7974,"stop":7975,"Ġclaimed":7976,"}$)":7977,"ipage":7978,"Ġdrop":7979,"Ġreplace":7980,"aylor":7981,"Ġturned":7982,"Ġadopted":7983,"////////////////////////////////":7984,"WS":7985,"displaystyle":7986,"Ġdrug":7987,"ĠUs":7988,"Ġversions":7989,"Tra":7990,"ĠSouthern":7991,"Ġsea":7992,"Ġhistorical":7993,"Ġcitiz":7994,"Ġsector":7995,"Any":7996,"Ġheart":7997,"stitution":7998,"Ġletter":7999,"Ġpool":8000,"Ġlum":8001,"tainment":8002,"Ġapi":8003,"&#":8004,"ĠTele":8005,"Rad":8006,"Ġpp":8007,"ela":8008,"bec":8009,"Ret":8010,"Click":8011,"Ġdimensions":8012,"Ġconclude":8013,"Ġforest":8014,"Ġrotation":8015,"Ġquickly":8016,"DR":8017,"Ġgraphs":8018,"Ġworkers":8019,"Ġattract":8020,"Ġextrem":8021,"erg":8022,"Ġcreating":8023,"Dem":8024,"Ġsuc":8025,"ulty":8026,"Ġideal":8027,"Fields":8028,"Ġdemand":8029,"Changed":8030,"odec":8031,"EXT":8032,"Ġreson":8033,"Ġfarm":8034,"enant":8035,"cript":8036,"standing":8037,"Ġschedul":8038,"ĠBul":8039,"Ġgeometry":8040,")\"":8041,"Ġvote":8042,"ĠMajor":8043,"ogeneous":8044,"eller":8045,"Pool":8046,"inals":8047,"enty":8048,"ĠExt":8049,"acle":8050,"}{|":8051,"Ġarrest":8052,"ĠCamb":8053,"minipage":8054,"Queue":8055,"impl":8056,"Ġdraft":8057,"spring":8058,"itionally":8059,"Ġkeys":8060,"Ġprediction":8061,"MR":8062,"shall":8063,"channel":8064,"room":8065,"Ġlabels":8066,"ila":8067,"Ġhusband":8068,"ĠURL":8069,"yntax":8070,"Ġpromin":8071,"Ġmasses":8072,"notation":8073,"Ġwallet":8074,"Ġdegrees":8075,"Ã£":8076,"ĠGi":8077,"ĠUk":8078,"Ġdepict":8079,"ĠIslam":8080,"JECT":8081,"primary":8082,"Ġinstitut":8083,"aka":8084,"Pattern":8085,"Play":8086,"Ġsucceed":8087,"Ġprocessing":8088,"ĠSong":8089,"Ġnuclear":8090,"bury":8091,"diff":8092,"gment":8093,"Ġice":8094,"para":8095,"ĠPubl":8096,":=":8097,"password":8098,"Ġfavor":8099,"tikzpicture":8100,"erc":8101,"ĠUsing":8102,"events":8103,"witter":8104,"Ġmurder":8105,"yer":8106,"Ġcommunication":8107,"Ġparties":8108,"Init":8109,"$),":8110,"parameters":8111,"zh":8112,"Ġtransp":8113,"Struct":8114,"ĠBre":8115,"Ġodd":8116,"ĠJewish":8117,"rawn":8118,"irls":8119,"ĠVis":8120,"|}":8121,"inois":8122,"ĠRadio":8123,"Ġtracks":8124,"Ġelim":8125,"Ġneighborhood":8126,"tw":8127,"Ġclusters":8128,"each":8129,"ĠAsia":8130,"JSON":8131,"Cons":8132,"ĠDemocratic":8133,"aya":8134,"Introduction":8135,"Ġleaving":8136,"adoop":8137,")}_{":8138,"lyph":8139,"Ġdepending":8140,"ĠOx":8141,"Ġnothing":8142,"))$":8143,"ancing":8144,"acc":8145,"jected":8146,"etts":8147,"Ġscattering":8148,"ĠAL":8149,")\">":8150,"olver":8151,"FR":8152,"hell":8153,"Ġdrum":8154,"Ġinduced":8155,"Ġeq":8156,"Ġnine":8157,"Ġmill":8158,"achus":8159,"Ġinstanceof":8160,"Ġstrateg":8161,"Ġbelieve":8162,"Ġmarked":8163,"Ġdrama":8164,"Ġsn":8165,"Ġhighlight":8166,"Ġtheoretical":8167,"circle":8168,"duction":8169,"ĠPoint":8170,"Ġcomputation":8171,"ĠĠĠĠĠĠĠĠĠĠĠĠĠĠĠĠĠĠĠĠĠĠ":8172,"bad":8173,"ĠCro":8174,"ennis":8175,"Ġuniversity":8176,"Ġ[\\":8177,"ĠChild":8178,"limit":8179,"cean":8180,"cret":8181,"Ġicon":8182,"KEY":8183,"Lock":8184,"Ġlimits":8185,"Ġfundamental":8186,"notes":8187,"Ġquestions":8188,"Timeout":8189,"ĠSpe":8190,"![":8191,"Ġpseud":8192,"Ġintr":8193,"Ġexplain":8194,"=\"@":8195,"ĠConference":8196,"lad":8197,"Ġmind":8198,"bigl":8199,"Ġpain":8200,"Ġelections":8201,"Compar":8202,"MT":8203,"Ġstories":8204,"apes":8205,"front":8206,"Account":8207,"total":8208,"Float":8209,"vest":8210,"ymmetric":8211,"cb":8212,"Ġfunctional":8213,"_,":8214,"World":8215,"Sw":8216,"FFFF":8217,"fly":8218,"Ġcalculate":8219,"alid":8220,"profile":8221,"ĠJones":8222,"Ġtouch":8223,"ĠDefault":8224,"iy":8225,"Ġfriends":8226,"Ġhelped":8227,"ĠElect":8228,"ependence":8229,"ĠRepresent":8230,"Det":8231,"ĠBern":8232,"Ġplans":8233,"ĠJohnson":8234,"Ġcolon":8235,"Ġorganizations":8236,"Ġrise":8237,"screen":8238,")))":8239,"Ġnotice":8240,"since":8241,"tiny":8242,"fri":8243,"ĠDevelopment":8244,"ĠMichigan":8245,"=\"\">":8246,"Active":8247,"ĠMov":8248,"network":8249,"Ġsaying":8250,"law":8251,"Ġindust":8252,"poss":8253,"Ġcolumns":8254,"Ġunderstanding":8255,"urrency":8256,"ĠUN":8257,"ĠVAL":8258,"Ġoperated":8259,"Ġscenario":8260,"1958":8261,"Ġhar":8262,"ĠSecretary":8263,"ĠCentre":8264,"Ġofficers":8265,".*":8266,"anta":8267,"Activity":8268,"tor":8269,"BP":8270,"uv":8271,"XT":8272,"Ġrough":8273,"hentication":8274,"MI":8275,"1942":8276,"Ġmaterials":8277,"cular":8278,"FILE":8279,"Ġassess":8280,"ĠFurthermore":8281,"Ġupdated":8282,"aration":8283,"ĠSta":8284,"1956":8285,"Ġcoordinate":8286,"udget":8287,"Ġfreedom":8288,"ĠSar":8289,"bigr":8290,"emporary":8291,"properties":8292,"record":8293,"ĠJersey":8294,"dependent":8295,"when":8296,"Ġencoding":8297,"ĠPacific":8298,"Ġimplemented":8299,"phone":8300,"Ġ..":8301,"1959":8302,"Ġphysics":8303,"Ġthermal":8304,"ĠOhio":8305,"_-":8306,">\\":8307,"Auth":8308,"Msg":8309,"pressed":8310,"Ġdiscovered":8311,"Ġdivided":8312,"Scope":8313,"Ġgets":8314,"Ġcov":8315,"unsigned":8316,"ĠCode":8317,"icip":8318,"Member":8319,"thread":8320,"Ġunderlying":8321,"Ġadding":8322,"Ġphenomen":8323,"Ġserving":8324,"Ġdescent":8325,"Ġsummary":8326,"Ġamplitude":8327,"rine":8328,"Av":8329,"lg":8330,"Ġaccom":8331,"High":8332,"Send":8333,"ĠFC":8334,"tsd":8335,"burgh":8336,"arden":8337,"Therefore":8338,"Ġefforts":8339,"ĠSO":8340,"ĠLy":8341,"urban":8342,"lections":8343,"Ġextend":8344,"Ġperfect":8345,"110":8346,"Ġconvex":8347,"ĠGame":8348,"bro":8349,"itivity":8350,"Ġcalculations":8351,"WA":8352,"Ġsecondary":8353,"Ġsoft":8354,"ĠMah":8355,"Ġtraject":8356,"sume":8357,"Ã±":8358,"hetic":8359,"Ġinfinite":8360,"1948":8361,"Ġquadr":8362,"Ġfine":8363,"browser":8364,"Ġconsole":8365,"Ġpil":8366,"going":8367,"Ġdidn":8368,"Extension":8369,"Ġconducted":8370,"Ġhole":8371,"INFO":8372,"Ġbass":8373,"Ġmassive":8374,"Ġcycl":8375,"diag":8376,"Will":8377,"hy":8378,"Ġinform":8379,"Ġbatt":8380,"(!":8381,"ĠMany":8382,"ĠAsian":8383,"move":8384,"ĠPop":8385,"achusetts":8386,"Ġbrand":8387,"TABLE":8388,"General":8389,"phas":8390,"Ġnucle":8391,"Del":8392,"ango":8393,"Ġmaintain":8394,"ĠFunction":8395,"ests":8396,"fi":8397,"green":8398,"scroll":8399,"Ġagreed":8400,"Ġfamous":8401,"Finally":8402,"Ġcref":8403,"Ġion":8404,")}}":8405,"$_{":8406,"ĠGood":8407,"bell":8408,"conv":8409,"ĠDutch":8410,"Ġefficiency":8411,"Ġcalculation":8412,"ĠStat":8413,"Ġng":8414,"Ġbus":8415,"Ġrecording":8416,"Ġcomplexity":8417,"Ġactors":8418,"assets":8419,"uby":8420,":}":8421,"1957":8422,"Ġintersection":8423,"ĠWay":8424,"icine":8425,"pres":8426,"ĠTask":8427,"Ġsuggested":8428,"Ġbelieved":8429,"Ġunless":8430,"]}":8431,"Ġdb":8432,"Ġvictory":8433,"adel":8434,"Ġisol":8435,"Ġcities":8436,"Ġprice":8437,"hav":8438,"ĠCarl":8439,"Logger":8440,"Ġmessages":8441,"ĠText":8442,"stats":8443,"Ġshoot":8444,"ĠKent":8445,"Ġdesired":8446,"1939":8447,"inity":8448,"======":8449,"ĠBlue":8450,"eness":8451,"gex":8452,"XML":8453,"ĠMain":8454,"Ġmanaged":8455,".__":8456,"Ġapplic":8457,"\"`":8458,"Ġsubsequently":8459,"Widget":8460,"ione":8461,"ĠSpecial":8462,"PU":8463,"CF":8464,"Ġexponential":8465,"çļ":8466,"ĠCopy":8467,"250":8468,"nn":8469,"agnetic":8470,"arrier":8471,"Step":8472,"txt":8473,"Ġhtml":8474,"grade":8475,"NotNull":8476,"Ġlanguages":8477,"Ġdeliver":8478,"Ġdriver":8479,"MENT":8480,"ĠSol":8481,"Ġtechnique":8482,"Ġtrigger":8483,"CI":8484,"oir":8485,"ancel":8486,"ĠCommand":8487,"Ġthing":8488,"Conf":8489,"ById":8490,"Ñı":8491,"Ġacts":8492,"ĠEnter":8493,"amm":8494,"dfrac":8495,"schema":8496,"git":8497,"Ġwidely":8498,"ĠEdward":8499,"rance":8500,"Ġmedian":8501,"erial":8502,"Ġoffered":8503,"Ġsal":8504,"ĠAcc":8505,"ĠLag":8506,"Brit":8507,"hard":8508,"Ġpaths":8509,"@\"":8510,"Ġmetal":8511,"Cast":8512,"Ġships":8513,"aug":8514,"onto":8515,"Ġener":8516,"Ġss":8517,"Ġsusp":8518,"acro":8519,"1941":8520,"jar":8521,"Ġdenoted":8522,"ĠWilliams":8523,"Perm":8524,"zz":8525,"National":8526,"joint":8527,"opic":8528,"1943":8529,"plot":8530,"Ġretri":8531,"Mat":8532,"also":8533,"ookie":8534,"ĠAR":8535,"ĠGeorgia":8536,"Ġprotest":8537,"NG":8538,"Ġdir":8539,"Ġlemma":8540,"napshot":8541,"Ġwall":8542,"Rest":8543,"Ġcapture":8544,"Ġaffect":8545,"aren":8546,"pective":8547,"atio":8548,"Ġdetect":8549,"ĠScotland":8550,"ĠPlan":8551,"ĠQueen":8552,"ĠIllinois":8553,"Media":8554,"BB":8555,"çļĦ":8556,"Ġdetected":8557,"[$":8558,"Ġallowing":8559,"Ġcoefficient":8560,"ĠBoston":8561,"ĠBow":8562,"ĠTre":8563,"Ġdiam":8564,"semble":8565,"Ġdecomposition":8566,"izable":8567,"Ġweights":8568,"vin":8569,"ĠNOT":8570,"ĠMiddle":8571,"Ġwestern":8572,"chen":8573,"ĠEgypt":8574,"->_":8575,"Events":8576,"Ġscales":8577,"ĠRo":8578,"assertEquals":8579,"rained":8580,"Ġevaluation":8581,"Ġsettlement":8582,"Ġstress":8583,"just":8584,"eld":8585,"ĠPhilipp":8586,"[:":8587,"ĠPrem":8588,"MAX":8589,"Ġscaling":8590,"itage":8591,"ĠVan":8592,"Ġbridge":8593,"Ġsummar":8594,"selected":8595,"Editor":8596,"Ġcomposition":8597,"argument":8598,"Ġconfirmed":8599,"Ġ\\(\\":8600,"Ġconsidering":8601,"Ġnation":8602,"Ġsignature":8603,"Ġlocations":8604,"formance":8605,"ĠFrancisco":8606,"othing":8607,"Ġprime":8608,"look":8609,"180":8610,"Ġverify":8611,"Ġdiscrete":8612,"tan":8613,"Ġsuccessfully":8614,"Database":8615,"ĠGovernor":8616,"Ġseat":8617,"Ġoccurred":8618,"Ljava":8619,"_->":8620,"cher":8621,"ĠVersion":8622,"Ġthr":8623,"DT":8624,"Ġprojection":8625,"hadoop":8626,"ysical":8627,"addr":8628,"Ġnearby":8629,"Ġphilosoph":8630,"ĠView":8631,"Ġwhereas":8632,"Ġfluct":8633,"Ġvon":8634,"MOD":8635,"Ġens":8636,"Ġdynamic":8637,"Ġpurs":8638,"Ġdevices":8639,"Ġcomputational":8640,"Internal":8641,"Ġbtn":8642,"Ã£o":8643,"oday":8644,"Ġreader":8645,"poral":8646,"NULL":8647,"Ġfirm":8648,"Ġacceler":8649,"jquery":8650,"verb":8651,"Ġrobust":8652,"Ġreasons":8653,"Matrix":8654,"Ä±":8655,"Ġ{$":8656,"Ġintended":8657,"ĠPortug":8658,"Ġconj":8659,"ceived":8660,"Files":8661,"site":8662,"Ġlooking":8663,"hol":8664,"blem":8665,"rase":8666,"random":8667,"ARY":8668,"Opt":8669,"ĠIP":8670,"Second":8671,"Ġshell":8672,"1946":8673,"Ġexcit":8674,"Ġpages":8675,"Ġcandidates":8676,"Ġuncertainty":8677,"typed":8678,"1955":8679,"VERSION":8680,"ĠSu":8681,"ĠCommon":8682,"\\)":8683,"Ġcouple":8684,"Ġdescribes":8685,"IMP":8686,"ello":8687,"save":8688,"yo":8689,"Ġattr":8690,"iki":8691,"=\"\"":8692,"\\}$.":8693,"Ġdatasets":8694,"[-":8695,"Ġinstrument":8696,"Ġfootballer":8697,"Ġoperating":8698,"Ġprimarily":8699,"ĠEnt":8700,"Ġprincipal":8701,"Ġpartners":8702,"ĠJes":8703,"ĠNO":8704,"periment":8705,"ims":8706,"ocker":8707,"Ġhandler":8708,"webpack":8709,"Ġacting":8710,"icies":8711,"ĠFalse":8712,"istance":8713,"Ġsquad":8714,"Ġacquired":8715,"algorithm":8716,"ĠSU":8717,"controller":8718,"Graph":8719,"Ġtrace":8720,"onom":8721,"Ġissued":8722,"manager":8723,"fail":8724,"Ġcouncil":8725,"Ġlocally":8726,"Ġinstalled":8727,"ĠCy":8728,"ĠAN":8729,"components":8730,"inher":8731,"Seg":8732,"edit":8733,";/":8734,"1952":8735,"()));":8736,"ĠMassachusetts":8737,"paragraph":8738,"Ġmuseum":8739,"Ġabstract":8740,"Flags":8741,"throws":8742,"ĠOnly":8743,"600":8744,"Ġneutr":8745,"Ġregional":8746,"Ġseconds":8747,"iced":8748,"Ġchemical":8749,"STATE":8750,"Enum":8751,"clusions":8752,"ĠSenate":8753,"Some":8754,"ĠPoland":8755,"Ġwatch":8756,"ĠSte":8757,"ĠLo":8758,"})}":8759,"ĠEastern":8760,"Ġrare":8761,"orough":8762,"Ġleaves":8763,"LOG":8764,"emptyset":8765,"Loader":8766,"Ġdigital":8767,"ĠColumbia":8768,"xs":8769,"Ġexpanded":8770,"ĠHuman":8771,"ĠKong":8772,"1947":8773,"Directory":8774,"Ġprinciple":8775,"pir":8776,"Ġfle":8777,"lesssim":8778,"ĠLab":8779,"Ġattacks":8780,"ĠIR":8781,"security":8782,"Ġimportance":8783,"HS":8784,"Ġaccepted":8785,"ĠIl":8786,"Ġretired":8787,"Ġheat":8788,"ĠMen":8789,"Ġencou":8790,"Iterator":8791,"IA":8792,"Ġbutton":8793,"Ġpiece":8794,"assertEqual":8795,"enger":8796,"ntario":8797,"Ġhospital":8798,"Cluster":8799,"Ġreports":8800,"SIZE":8801,"ults":8802,"Ġpoliticians":8803,"arters":8804,"ading":8805,"Ġcommonly":8806,"Ġdisease":8807,"tty":8808,"Ġcat":8809,"Ġtranslation":8810,"ĠNode":8811,"Ġexplicitly":8812,"abeth":8813,"Ġoptional":8814,"Ġintegration":8815,"Ġsister":8816,"Items":8817,"obs":8818,"Ġorbit":8819,"home":8820,"Ġoil":8821,"ĠGre":8822,"Ġsolve":8823,"clusive":8824,"Ġentropy":8825,"Ġcharacteristic":8826,"ĠTri":8827,"United":8828,"Ġbands":8829,"ems":8830,"$:":8831,"urations":8832,"ĠRay":8833,"}})":8834,"Ġorders":8835,"uing":8836,"ĠCard":8837,"hbox":8838,"Fix":8839,"tail":8840,"pred":8841,"words":8842,"rage":8843,"Ġtrial":8844,"&=&":8845,"osa":8846,"Ġcultural":8847,"ĠLatin":8848,"$};":8849,"Ġbuilder":8850,"ĠHome":8851,"Ġinterested":8852,"PAR":8853,"Found":8854,"Ġprofessor":8855,"Ġtrying":8856,"Ġpropos":8857,"Space":8858,"]:":8859,"Support":8860,"Ġvoice":8861,"Ġworth":8862,"ificate":8863,"]$.":8864,"Ġaggreg":8865,"ĠPass":8866,"Ġorganized":8867,"istration":8868,"Sports":8869,"Gen":8870,"Ġplanet":8871,"BE":8872,"Ġowners":8873,"Bas":8874,"Ġfinding":8875,"queue":8876,"ĠRailway":8877,"Selected":8878,"Print":8879,",\\\\":8880,"Ġouter":8881,"Ġtrust":8882,")));":8883,"Ġorth":8884,"imb":8885,"Ġrevealed":8886,"Ġreferences":8887,"Ġimag":8888,"ifiers":8889,"Ġnarrow":8890,"Ġtraffic":8891,"Ġdepart":8892,"FS":8893,"Ġ[];":8894,"$/":8895,"Ġconstants":8896,"hu":8897,"Ġgetting":8898,"scape":8899,"ĠStan":8900,"Ġsatisfying":8901,"ĠMult":8902,"ĠAff":8903,"Ġcool":8904,"ĠMu":8905,"ĠOxford":8906,"onia":8907,"ĠCoast":8908,"Ġimproved":8909,"gies":8910,"ĠMA":8911,"UID":8912,"ĠEcon":8913,"What":8914,"Ġstarts":8915,"1953":8916,"Ġevaluate":8917,"mathop":8918,"Ġlic":8919,"Ġsubsequent":8920,"Ġvariation":8921,"ĠSea":8922,"ais":8923,"joy":8924,"nic":8925,"Ġfunc":8926,"orning":8927,"horizontal":8928,"Ġmedium":8929,"uries":8930,"Ġenabled":8931,"ÅĤ":8932,"ĠTHE":8933,"symbol":8934,"amber":8935,"iggs":8936,"Own":8937,"Ġ\\!":8938,"(){":8939,"ĠWindow":8940,"Ġfeat":8941,"Ġbright":8942,"Ġalone":8943,"plan":8944,"ĠPrince":8945,"ĠTechnology":8946,"Ġexecution":8947,"ĠJr":8948,"antom":8949,"hl":8950,"ĠBecause":8951,"iem":8952,"Two":8953,"antry":8954,"IST":8955,"}\\,\\":8956,"teen":8957,"Ġcomedy":8958,"1954":8959,"ĉĉĉĉĉĉĉĉĉ":8960,"Bit":8961,"Ġ\\]":8962,"ULE":8963,"Ġzone":8964,"++;":8965,"external":8966,"printf":8967,"Ġsecret":8968,"Ġsubgroup":8969,"^*$":8970,"ĠTheatre":8971,"Ġobvious":8972,"Ġprof":8973,"Ġtail":8974,"uzz":8975,"Ġadvantage":8976,"%%%%":8977,"ĠRet":8978,"bp":8979,"Ġprogramming":8980,"Security":8981,"zone":8982,"pository":8983,"fold":8984,"Full":8985,"ultane":8986,"101":8987,"acent":8988,"odd":8989,"May":8990,"}}_{\\":8991,"Ġnamely":8992,"Ġlett":8993,"isted":8994,"Ġlaunch":8995,"Ġestimation":8996,"ĠMid":8997,"################":8998,"appe":8999,"irds":9000,"Ġcancell":9001,"operation":9002,"IE":9003,"Ġtheme":9004,"Ġtools":9005,"ĠSund":9006,"configuration":9007,"ilbert":9008,"Proxy":9009,"Ġshock":9010,"iterator":9011,"Ġenable":9012,"Ġsides":9013,"Ġpersonnel":9014,"Ġrepresentations":9015,"()).":9016,"ĠEst":9017,"general":9018,"ĠHung":9019,"Ġspeak":9020,"flags":9021,"odies":9022,"Close":9023,"iÄĩ":9024,"ĠBang":9025,"Ġapparent":9026,"Ġremark":9027,"British":9028,"ĠBack":9029,"Ġexplained":9030,"ĠHa":9031,"logger":9032,"PATH":9033,"_(":9034,"Ġlaws":9035,"Ġearned":9036,"elease":9037,"ĠLuc":9038,"outheast":9039,"Ġoffers":9040,"lower":9041,"Ġassociation":9042,"elligence":9043,"ĠBroad":9044,"Video":9045,"Ġrac":9046,"Ġlisting":9047,"ĠUSA":9048,"eces":9049,"sen":9050,"TA":9051,"ras":9052,"ĠPolice":9053,"1949":9054,"nergy":9055,"ĠHead":9056,"Ġsubt":9057,"ĠWall":9058,"Ġio":9059,"Ġserious":9060,"haps":9061,"lapse":9062,"IB":9063,"Ġdust":9064,"Profile":9065,"Ġrequirements":9066,"Ġfactory":9067,"account":9068,"holds":9069,"keep":9070,"Ġclubs":9071,"Ġtab":9072,"ĠĠĠĠĠĠĠĠĠĠĠĠĠĠĠĠĠĠĠĠĠĠĠĠĠĠ":9073,"ez":9074,"tool":9075,"una":9076,"Ġeffort":9077,"Ġsuggests":9078,"Ġpredicted":9079,"Register":9080,")--":9081,"Ġanswer":9082,"typeof":9083,"Ġcaptured":9084,"Ġinvalid":9085,"Ġadministration":9086,"Ġlie":9087,"Ġsubstant":9088,"itational":9089,"Ġirre":9090,"Ġexecutive":9091,"Ġroll":9092,"ï¼":9093,"]$,":9094,"ulpt":9095,"iable":9096,"Ġarticles":9097,"NavBarCell":9098,"imitive":9099,"Ġpush":9100,"Ġdedicated":9101,"ashion":9102,"SQL":9103,"Ġstability":9104,"ĠDir":9105,"Ġlabor":9106,"Term":9107,"125":9108,"apply":9109,"Ġviews":9110,"Ġ%}":9111,"Ġinverse":9112,"ami":9113,"ĠJackson":9114,"ritical":9115,"zen":9116,"oton":9117,"IX":9118,"SY":9119,"Ġtrees":9120,"Ġcategories":9121,"oved":9122,"illy":9123,"Ġimplements":9124,"ropol":9125,"ivation":9126,"integ":9127,"Ġusual":9128,"ository":9129,"simple":9130,"brace":9131,"rane":9132,"Ġconsequence":9133,"algebra":9134,"Ġcurv":9135,"Ġdeb":9136,"Ġadm":9137,"Ġconven":9138,"ĠMuslim":9139,"engine":9140,"ĠReview":9141,"Ġgrowing":9142,"Ġawait":9143,"1918":9144,"illing":9145,"Ġ\"\"":9146,"Ġperforming":9147,"ifts":9148,"ĠFederal":9149,"alloc":9150,"Ġcoinc":9151,"emy":9152,"Expr":9153,"Ġinstances":9154,"ToString":9155,"Ġtechnical":9156,"Ġconcert":9157,"ĠNumber":9158,"Äį":9159,"aling":9160,"Constraint":9161,"Ġgeneric":9162,"oned":9163,"Ġmarriage":9164,"Ġapplying":9165,"Panel":9166,"GN":9167,"iga":9168,"sat":9169,"esian":9170,"Ġsuitable":9171,"Ġtend":9172,"Ġthous":9173,"rovers":9174,"Ġbundle":9175,"ĠKorea":9176,"ĠFar":9177,"plicity":9178,"anks":9179,",{\\":9180,"Book":9181,"Ġtransferred":9182,"ĠAlexander":9183,"Ġemphas":9184,"Ġregarding":9185,"Ġmunicipality":9186,"Jo":9187,"1951":9188,"ĠÂ£":9189,".'":9190,"Ġsufficiently":9191,"Ġlab":9192,";\\;\\":9193,"utf":9194,"Plugin":9195,"lf":9196,"ROM":9197,"tfrac":9198,"Ġresidents":9199,"\\;":9200,"}_{-":9201,"ĠScottish":9202,"BUG":9203,"CM":9204,"Ġstatistical":9205,"sel":9206,"Ġclaims":9207,"))\\":9208,"istence":9209,"Windows":9210,"sample":9211,"Ġspac":9212,"Ġfre":9213,"Selector":9214,"contains":9215,"ĠSecurity":9216,"Ġhockey":9217,"Double":9218,"occer":9219,"ĠImage":9220,"mn":9221,"Adapter":9222,"prise":9223,"agers":9224,"ĠPolish":9225,"bytes":9226,"Ġpicture":9227,"Ġweap":9228,"relations":9229,"Ġradiation":9230,"Common":9231,"Ġfort":9232,"Browser":9233,"ysics":9234,"Edit":9235,"Ġsolar":9236,"ĠÅ":9237,"ĠLater":9238,"Ġrespond":9239,"ĠJustice":9240,"Ġneural":9241,"ucky":9242,"Ġobjective":9243,"}}.":9244,"Ġfellow":9245,"CG":9246,"ĠObserv":9247,"ONE":9248,"Ġstrings":9249,"dash":9250,"ĠLittle":9251,"Ġ^{":9252,"Ġkept":9253,"wall":9254,"'])":9255,"ĠBerlin":9256,"elength":9257,"Ġluminos":9258,"Ġepisodes":9259,"Ġdeleg":9260,"itness":9261,"Ġaffected":9262,"lets":9263,"chester":9264,"ĠCorporation":9265,"iota":9266,"Ġcollected":9267,"Runtime":9268,"LIC":9269,"water":9270,"800":9271,"vari":9272,"ĠFollowing":9273,"ĠOntario":9274,"urer":9275,"Ġtwice":9276,"Ġadjust":9277,"dp":9278,"Ġfocused":9279,"world":9280,"}[\\":9281,"idx":9282,"ĠWilson":9283,"entials":9284,"Ġawards":9285,"onomy":9286,"clip":9287,"ĠCreek":9288,"ups":9289,"HR":9290,"ederation":9291,"GR":9292,"ĠRepublican":9293,"uum":9294,"Success":9295,"Î¿":9296,"ĠHong":9297,"Ġsampling":9298,"switch":9299,"/(":9300,"echo":9301,"Ġemployed":9302,"Proof":9303,"ĠWis":9304,"cussion":9305,"ĠBusiness":9306,"ĠTrump":9307,"Ġroles":9308,"kw":9309,"ĠUr":9310,"ĠRegion":9311,"Fail":9312,"thur":9313,"Ġsafety":9314,"chmark":9315,"Generic":9316,"ĠLocal":9317,"Ġago":9318,"Ġ(_":9319,"ĠBrook":9320,"ĠPower":9321,"Ġyouth":9322,"cline":9323,"ĠOption":9324,"uly":9325,"Ġlargely":9326,"Ġindeed":9327,"Ġconnections":9328,"ĠAnother":9329,"Ġsequences":9330,"ĠOfficial":9331,"uli":9332,"arthe":9333,"Ġinvolving":9334,"plus":9335,"|}{":9336,"Ã¡n":9337,"ĠStation":9338,"equence":9339,"*)":9340,"Ġraw":9341,"Ġacademic":9342,"Ġsizes":9343,"Ġpurposes":9344,"Ġtroops":9345,"Ġpatterns":9346,"hidden":9347,"VM":9348,"Ġfifth":9349,"ĠNight":9350,"UTF":9351,"ĠConfig":9352,"ĠBir":9353,"icial":9354,"Ġembedding":9355,"Ġdiagonal":9356,"hens":9357,"1936":9358,"ĠJava":9359,"ÑĮ":9360,"itical":9361,"ogram":9362,"ĠSupreme":9363,"Ġbias":9364,"cluster":9365,"structions":9366,"ĠFour":9367,"})=":9368,"Route":9369,"complete":9370,"gather":9371,"sumer":9372,"Ġsupply":9373,"Attributes":9374,"ĠWater":9375,"ĠBa":9376,"ĠDar":9377,"ĠPlaces":9378,"ĠAndrew":9379,"Ġfigures":9380,"Ġdisp":9381,"reset":9382,"ourier":9383,"Py":9384,"SER":9385,"123":9386,"Ġdimensional":9387,"ĠAppendix":9388,"Details":9389,"ĠSuch":9390,"aset":9391,"Ġcamera":9392,"NT":9393,"aux":9394,"raq":9395,"ountains":9396,"}</":9397,"ĠSand":9398,"Î±":9399,"Ġhouses":9400,"Ġequilibrium":9401,"ĠJean":9402,"ĠTw":9403,"Arch":9404,"Ġemail":9405,"Ġmanifold":9406,"})^":9407,"Ġprotect":9408,"rout":9409,"Ġspher":9410,"ĠMot":9411,"Ġcopies":9412,"kh":9413,"ĠCapt":9414,"ĠTaylor":9415,"decl":9416,"Ġprefix":9417,"ÐµÐ":9418,"Ġeastern":9419,"legal":9420,"ologist":9421,"idel":9422,"dated":9423,"tools":9424,"ĠConf":9425,"aste":9426,"ĠLight":9427,"elect":9428,"ĠExecut":9429,"Func":9430,"Ġcam":9431,"children":9432,"apl":9433,"oses":9434,"Ġends":9435,"Ġarc":9436,"prob":9437,"ignment":9438,"III":9439,"plane":9440,"ĠAction":9441,"Ġdeclared":9442,"ĠBu":9443,"sex":9444,"','":9445,"Ġnavigation":9446,"iative":9447,"Ġcalling":9448,"Ġarrived":9449,"ĠKen":9450,"ĠĠĠĠĠĠĠĠĠĠĠĠĠĠĠĠĠĠĠĠĠĠĠĠĠĠĠĠĠ":9451,"READ":9452,"ĠPen":9453,"}}^{\\":9454,"ĠOrgan":9455,"ĠPrime":9456,"ori":9457,"Ġdoub":9458,"Ġcontroller":9459,"Ġduration":9460,"emon":9461,"orship":9462,"weet":9463,"former":9464,"inator":9465,"Ġanything":9466,"ĠĠĠĠĠĠĠĠĠĠĠĠĠĠĠĠĠĠĠĠĠĠĠĠĠĠĠĠ":9467,"ĠCorps":9468,"Ġrows":9469,"sym":9470,"Ġautomatically":9471,"bmatrix":9472,"ĠTODO":9473,"Ġparam":9474,"ogen":9475,"aught":9476,"Ġlearned":9477,"tabs":9478,"Ġcommit":9479,"shadow":9480,"cert":9481,"leted":9482,"Ġopposite":9483,"Ġrequests":9484,"here":9485,"cha":9486,"Product":9487,"trigger":9488,"iÃ³n":9489,"Ġconverted":9490,"inson":9491,"FIG":9492,"relation":9493,"Ġwild":9494,"NOT":9495,"Java":9496,"lik":9497,"Ġincident":9498,"Ġcm":9499,"ĠCOVID":9500,"Services":9501,"Ġaccurate":9502,"Ġinfra":9503,"Ġfn":9504,"Ġabund":9505,"Ġradial":9506,"Ġbillion":9507,"Ġinstruction":9508,"Ġnewly":9509,"Ġ[[":9510,"typedef":9511,"Ġera":9512,"ĠWild":9513,"oured":9514,"Ġtransmission":9515,"Ġcontrad":9516,"1938":9517,"Ġprominent":9518,"ĠUpdate":9519,"Ġassumptions":9520,"IPT":9521,"columnwidth":9522,"Music":9523,"getElement":9524,"prec":9525,"handler":9526,"Ġrepeated":9527,"umes":9528,"Ġcitizens":9529,"Symfony":9530,"Parse":9531,"editor":9532,"aby":9533,"ĠJoe":9534,"mathit":9535,"ĠGra":9536,"Ġpatients":9537,"ĠLandroid":9538,"Memory":9539,"Ġspan":9540,"Ġcharged":9541,"VD":9542,"ervative":9543,"ĠIndeed":9544,"Ġprovince":9545,"ydney":9546,"Mut":9547,"Ġstock":9548,"Grid":9549,"pet":9550,"ĠGets":9551,"phia":9552,"West":9553,"WR":9554,"keyword":9555,"pson":9556,"ĠHospital":9557,"3333":9558,"Pay":9559,"single":9560,"actic":9561,"Ġdebug":9562,"Auto":9563,"Protocol":9564,"zech":9565,"Ġderivative":9566,"ĠProfessor":9567,"Ġfinish":9568,"Ġ×":9569,"fully":9570,"Ġflex":9571,"Cap":9572,"Ñĭ":9573,"Ġmanner":9574,"ĠjQuery":9575,"ĠSom":9576,"Ġminister":9577,"Ġbaseball":9578,"-(":9579,"Ġpointer":9580,"Ġconvent":9581,"Ġbulk":9582,"Ġaccomp":9583,"mazon":9584,"avor":9585,"ĠBand":9586,"ennes":9587,"ixels":9588,"Ġpossibly":9589,"Statement":9590,"'m":9591,"ĠSciences":9592,"getName":9593,"Ġappearances":9594,"prefix":9595,"ropic":9596,"aton":9597,"Ġclimate":9598,"Ġrepresentative":9599,"ĠRoute":9600,"generated":9601,"Ġlicense":9602,"DM":9603,"Ins":9604,"Ġexplan":9605,"Ġasync":9606,"ĠMember":9607,"Although":9608,"Ġsym":9609,"][]{":9610,"Ġcanonical":9611,"Ġ{{":9612,"Ġpartner":9613,"SF":9614,"acket":9615,"Ġmaximal":9616,"Ġsoldiers":9617,"Ġconsisting":9618,"Ġwrong":9619,"Ġpars":9620,"ĠDaniel":9621,"Ġspeech":9622,"izabeth":9623,"Ġspirit":9624,"ĠArgent":9625,"ĠJeff":9626,"&$":9627,"Ġturns":9628,"orders":9629,"usal":9630,"ĠViet":9631,"osis":9632,"onder":9633,"role":9634,"Ġ=========":9635,"Ġxmlns":9636,"Ġconference":9637,"Pe":9638,"sys":9639,"Ġideas":9640,"Ġvehicle":9641,"arest":9642,"Ġpassing":9643,"Ġrg":9644,"Ġdrive":9645,"square":9646,"Scroll":9647,"sid":9648,"Given":9649,"Ġ).":9650,"wt":9651,"Ġrational":9652,"elihood":9653,"estion":9654,"Ġserves":9655,"%)":9656,"Ġtrend":9657,"University":9658,"ĠMinistry":9659,"1937":9660,"Ġfacilities":9661,"Ġjet":9662,"Ġfloor":9663,"nil":9664,"Agent":9665,"Ġnewspaper":9666,"Feature":9667,"Ġhonor":9668,"adelphia":9669,"\",\"":9670,"chain":9671,"article":9672,"Ġancient":9673,"ĠSI":9674,"longrightarrow":9675,"1935":9676,"Ġcontinues":9677,"execute":9678,"Ġgra":9679,"Ġrecip":9680,"Ġinstitutions":9681,"Ġtoward":9682,"Attr":9683,"Ġlib":9684,"ĠCommunity":9685,"ugg":9686,"ĠTR":9687,"Dest":9688,"Condition":9689,"Ġpowerful":9690,"platform":9691,"creen":9692,"attributes":9693,"ensities":9694,"etherlands":9695,"bras":9696,"ĠFree":9697,"Ġsupports":9698,"ochastic":9699,"Ġflo":9700,"ĠBell":9701,"ĠLim":9702,"ulator":9703,"person":9704,"OF":9705,"Failed":9706,"ĠThree":9707,"@{":9708,"Duration":9709,"Ġpromoted":9710,"Ġsignals":9711,"ĠIslands":9712,"Ġrecognition":9713,"Keys":9714,"multirow":9715,"Ġaudio":9716,"ĠInformation":9717,"estic":9718,"Ġconstitu":9719,"ibration":9720,"ĠCat":9721,"}|\\":9722,"Ġbre":9723,"Ġmathemat":9724,"Ġbill":9725,"ĠEp":9726,"ĠVictoria":9727,"\\}$,":9728,"basic":9729,"Ġprev":9730,"pping":9731,"Ġfelt":9732,"oles":9733,"functions":9734,"Ġtypeof":9735,"LECT":9736,"expr":9737,"ted":9738,"Ġspecifically":9739,"Ġcomputing":9740,"indu":9741,"ĠYour":9742,"Ġstored":9743,"Ġven":9744,"scriptstyle":9745,"Ġofficials":9746,"åı":9747,"ucket":9748,"ifferent":9749,"ĠElement":9750,"vee":9751,"Ġlayout":9752,"onn":9753,"Ġcancer":9754,"Ġleadership":9755,"parser":9756,"ĠĠĠĠĠĠĠĠĠĠĠĠĠĠĠĠĠĠĠĠĠĠĠĠĠĠĠĠĠĠĠĠĠĠĠĠĠĠĠĠĠĠĠ":9757,"tmp":9758,"OO":9759,"ĠDat":9760,"Summary":9761,"Ġcompeted":9762,"irections":9763,"Ġalongside":9764,"imately":9765,"Ġwinner":9766,"Ġdie":9767,"Ġagents":9768,"yg":9769,"Remove":9770,"Ġinvestigate":9771,"Fin":9772,"wild":9773,"eto":9774,"Bound":9775,"ĠGlobal":9776,"Ġreviews":9777,"Ġsurrounding":9778,"Ġreq":9779,"Ġteacher":9780,"Ġinfer":9781,"props":9782,"Ġintensity":9783,"Association":9784,"ĠSM":9785,"itative":9786,"Ġsatisfied":9787,"metadata":9788,"Ġcoal":9789,"striction":9790,"ĠOs":9791,"Global":9792,"Ġdiver":9793,"Ġequality":9794,"ĠMaster":9795,"Lemma":9796,"Ġmaxim":9797,"Ġliber":9798,"ipe":9799,"Transport":9800,"Ġsimultane":9801,"Ġderive":9802,"Ġcosts":9803,"ubble":9804,"Ġinvestigation":9805,"outer":9806,"Leg":9807,"Ġfish":9808,"ĠAny":9809,"uplic":9810,"bg":9811,"ĠSym":9812,"Ã¸":9813,"Ġtruth":9814,"Ġattend":9815,"Ġ],":9816,"Ġassistant":9817,"à¸":9818,"ĠBal":9819,"detail":9820,"Ġcommut":9821,"provider":9822,"arios":9823,"Ġpet":9824,"Personal":9825,"]{\\":9826,"ĠBBC":9827,"vo":9828,"Socket":9829,"picker":9830,"Ġtypename":9831,"Layer":9832,"trivial":9833,"ĠEven":9834,"ĠPakistan":9835,"riptions":9836,"}}}\\":9837,"Hence":9838,"iner":9839,"utenant":9840,"ulse":9841,"prev":9842,"Ġstreet":9843,"Ġdestroyed":9844,"ĠOlympic":9845,"Ġconstructor":9846,"Ġsuperv":9847,"ĠSi":9848,"Props":9849,"ĠIOException":9850,"ĠVill":9851,"Ġconflict":9852,"Ġbalance":9853,"ĠJon":9854,"PORT":9855,"Ġseparated":9856,"Ġisomorphism":9857,"ĠRog":9858,"ĠManagement":9859,"ĠNon":9860,"Ġsomeone":9861,"ronic":9862,"OUT":9863,"Ġnotes":9864,"Ġschem":9865,"Ġhope":9866,"Ġcoverage":9867,"Ġenjoy":9868,"ancer":9869,"slash":9870,"Ġequipment":9871,"Ġidentical":9872,"ĠGiven":9873,"slant":9874,"Ġredshift":9875,"Ġqueue":9876,"protected":9877,"Ġbehaviour":9878,"Ġpaid":9879,"ĠDown":9880,"ĠBad":9881,"Mapping":9882,"Ġsales":9883,"Ġtheories":9884,"Ġsport":9885,"Ġpredictions":9886,"ĠPath":9887,"fixed":9888,"serial":9889,"ĠSem":9890,"Ġdiscrim":9891,"Ġce":9892,"Total":9893,"Ġflight":9894,"Nodes":9895,"dialog":9896,"collapse":9897,"Ġportion":9898,"Ġexpressions":9899,"Ġferm":9900,"aki":9901,"Ġsomew":9902,"UL":9903,"Ġplanned":9904,"ĠUnivers":9905,"svg":9906,"ĠStudies":9907,"ĠAirport":9908,")[":9909,"Ġchanging":9910,"Austral":9911,"vc":9912,"vals":9913,"ĠAvenue":9914,"erior":9915,"}~":9916,"Ġatmos":9917,"ĠGuard":9918,"Ġcosm":9919,"Ġscientific":9920,"Ġpra":9921,"Br":9922,"Sync":9923,"ĠSpace":9924,"Ġtrivial":9925,"Ġbegins":9926,"ĠKorean":9927,"hide":9928,"ICE":9929,"itled":9930,"Ġdense":9931,"establ":9932,"ãĢ":9933,"Ġwor":9934,"Ġpossibility":9935,"ĠPrize":9936,"bits":9937,"Ġchallenge":9938,"Engine":9939,"Ġregistered":9940,"Variable":9941,"METH":9942,"ĠBC":9943,"ĠToronto":9944,"iser":9945,"ropical":9946,"Ġindices":9947,"ĠIndex":9948,"Ġpsych":9949,"ALSE":9950,"hire":9951,"Ġpod":9952,"(__":9953,"builder":9954,"ĠAdministr":9955,"Ġfeaturing":9956,"unte":9957,"ĠSD":9958,"cisely":9959,"IND":9960,"Ġdocuments":9961,"bc":9962,"Ġmotor":9963,"lean":9964,"ortheast":9965,"ĠAuthor":9966,"Ġvariance":9967,"Ġmonitor":9968,"Ġgravity":9969,"Ġcauses":9970,"ĠKenn":9971,"Ġip":9972,"HL":9973,"1919":9974,"Ġpowers":9975,"ulf":9976,"raine":9977,"Sem":9978,"Ãº":9979,"ĠWalk":9980,"ti":9981,"ivated":9982,"athan":9983,"peror":9984,"1917":9985,"Ġgraduated":9986,"Ġengineering":9987,"Ġbos":9988,"orizon":9989,"International":9990,"Ġmetrics":9991,"observ":9992,"ĠServices":9993,"Ġindicated":9994,"ĠNations":9995,"Pointer":9996,"Cred":9997,"Ġheav":9998,"colLast":9999,"reatest":10000,"formal":10001,"Ġexceed":10002,"Tx":10003,"Ġdamage":10004,"Ġperman":10005,"pair":10006,"Ġalle":10007,"ĠIV":10008,"Ġblood":10009,"BI":10010,"Ġcontrolled":10011,"Ġpal":10012,"Ġenh":10013,"1914":10014,"ĠGar":10015,"brief":10016,"Ġ{'":10017,"ĠCR":10018,"Ġ$,":10019,"gebras":10020,"anth":10021,"ĠHash":10022,"=\"${":10023,")})":10024,"Ġsafe":10025,"Ġnonlinear":10026,"ĠSports":10027,"\\}\\":10028,"negative":10029,"fire":10030,"ĠTam":10031,"progress":10032,":=\\":10033,"}}=":10034,"Ã©e":10035,"Ġgeneralized":10036,"atern":10037,"Ġgrew":10038,"ivery":10039,"LC":10040,"eless":10041,"Ġrecognized":10042,"Ġasymptotic":10043,"heim":10044,"Abstract":10045,"ĠMedical":10046,"Single":10047,"Ġplanning":10048,"execut":10049,"Category":10050,"regular":10051,"NC":10052,"Collections":10053,"filename":10054,"headers":10055,"Ġenergies":10056,"&=\\":10057,"iang":10058,"fd":10059,"STAT":10060,"CHECK":10061,"METHOD":10062,"gal":10063,"quant":10064,"Ġbeaut":10065,"ĠAli":10066,"Ġreaction":10067,"Ġrefers":10068,"Ġcorner":10069,"Ġtopological":10070,"Ġacknow":10071,"Ġeverything":10072,"regon":10073,"sequently":10074,"achment":10075,"ĠGro":10076,"Ġgranted":10077,"ĠSydney":10078,"scriptsize":10079,"Ġmixing":10080,"Ġtried":10081,"Ġescape":10082,"Ġusage":10083,"Ġhypothesis":10084,"ĠRome":10085,"ĠIraq":10086,"ucial":10087,"agent":10088,"Ġtell":10089,"Ġbrowser":10090,"Ġgirl":10091,"Author":10092,"Ġpropose":10093,"Ġphotograph":10094,"Constants":10095,"Ġplus":10096,"ĠRen":10097,"=>":10098,"pur":10099,"ented":10100,"Ġapproximate":10101,"COMP":10102,",\\,\\":10103,"inion":10104,"Ġopportunity":10105,"Ġelectronic":10106,"colFirst":10107,"TT":10108,".\\\\":10109,"navList":10110,"depth":10111,"ea":10112,"ĠFre":10113,"TEXT":10114,"Ġflags":10115,"expect":10116,"Ġexit":10117,"safe":10118,"001":10119,"His":10120,"kens":10121,"Ġnotable":10122,"uce":10123,"roke":10124,"sa":10125,"hab":10126,"Example":10127,"Ġpitch":10128,"SN":10129,"Ġintroduction":10130,"Ġseed":10131,"Under":10132,"ĠPage":10133,"href":10134,"game":10135,"Ġdx":10136,"Ġphoton":10137,"ego":10138,"ativ":10139,"iations":10140,"Ġcrew":10141,"Ġinteract":10142,"ĠCirc":10143,"ĠLew":10144,"mask":10145,"Ġinspired":10146,"services":10147,"Ang":10148,"ribed":10149,"Ġrenamed":10150,"ĠRevolution":10151,"Ġ\",":10152,"Ġdependent":10153,"ĠRod":10154,"rg":10155,"Multi":10156,"ĠMic":10157,"Repository":10158,"Ġcurvature":10159,"ĠStart":10160,"Ġhousing":10161,"ctic":10162,"ester":10163,"Ġexplo":10164,">::":10165,"quarters":10166,"figures":10167,"chestra":10168,"aded":10169,"Ġathlet":10170,"Ġdrawn":10171,"Consider":10172,"$^{":10173,"eners":10174,"ifer":10175,"apse":10176,"____":10177,"ĠSant":10178,"Ġpolicies":10179,"ĠInf":10180,"Ġvalidation":10181,"ĠReact":10182,"Ġfinds":10183,"tex":10184,"Ġbudget":10185,"ancell":10186,"ĠDist":10187,"Ġcomments":10188,"Ġcrim":10189,"ĠDespite":10190,"Ġclosely":10191,"ĠNC":10192,"edia":10193,"tc":10194,"Ġ}{":10195,"Ġdeform":10196,"Ġcult":10197,"1933":10198,"artheta":10199,"Ġprepar":10200,"oa":10201,"Ġprecisely":10202,"Ġcrime":10203,"Trace":10204,"Ġvisited":10205,"ĠBoy":10206,"ĠChannel":10207,"ĠRegiment":10208,"awn":10209,"Ġauthority":10210,"identifier":10211,"ĠSa":10212,"ĠAz":10213,"vartheta":10214,"atar":10215,"Ġquantities":10216,"Ġexpatriate":10217,"sn":10218,"done":10219,"errors":10220,"Prefix":10221,"maven":10222,"junit":10223,"HC":10224,"ĠFair":10225,"islative":10226,"Ġadministrative":10227,"Ġassembly":10228,"Mer":10229,"South":10230,"Ġquasi":10231,"Ġrig":10232,"Writ":10233,"ibliography":10234,"acks":10235,"Ġprotection":10236,"Ġadvanced":10237,"ĠNetherlands":10238,"het":10239,"Ġinputs":10240,"contrib":10241,"osl":10242,"ĠDer":10243,"Ġrural":10244,"Ġcart":10245,"Ġdownload":10246,"BL":10247,"ĠRaj":10248,"ĠDesign":10249,"erset":10250,"ordan":10251,"comb":10252,"Region":10253,"isting":10254,"Ġpolitics":10255,"changed":10256,"consin":10257,"ĠResource":10258,"Ġplants":10259,"Ġquantity":10260,"WN":10261,"Ġreadonly":10262,"Ġrelax":10263,"Ġreceiving":10264,"Ġremote":10265,"\"><!--":10266,"series":10267,"ĠLem":10268,"Ġtx":10269,")}_":10270,"details":10271,"TRUE":10272,"FE":10273,"Ġcontrovers":10274,"()</":10275,"Ġsexual":10276,"!\\":10277,"ĠCambridge":10278,"Comment":10279,"sem":10280,"perial":10281,"Wrapper":10282,"BAR":10283,"Ġcircum":10284,"...,":10285,"Headers":10286,"130":10287,"Ġagric":10288,"Ġadvance":10289,"Ġfluid":10290,"Ġelev":10291,"Ġdict":10292,"Ġsolo":10293,"ĠBlock":10294,"Ġeconomy":10295,"ĠRequest":10296,"ADD":10297,"Ġlowest":10298,"pattern":10299,"Ġbomb":10300,"Tele":10301,"Ġcars":10302,"ĠNAME":10303,"Ġdefines":10304,"ĠCollection":10305,"ĠAsh":10306,"life":10307,"ĠWhe":10308,"Simple":10309,"Ġmeant":10310,"orient":10311,"ĠQueens":10312,"Ġtells":10313,"ynchron":10314,"Ġple":10315,"Ġsynchron":10316,"Ġcryst":10317,"Ġiteration":10318,"bd":10319,"ĠSus":10320,"Ġreturning":10321,"ĠArea":10322,"etal":10323,"Ġsizeof":10324,"notag":10325,"itter":10326,"------------":10327,"Ġsculpt":10328,"Ġdynamical":10329,"emet":10330,"weg":10331,"wrapper":10332,"ocaml":10333,"ogonal":10334,"closed":10335,"\"|":10336,"coh":10337,"Ġvehicles":10338,"Ġcommittee":10339,"apos":10340,"Ġinstant":10341,"ĠMarg":10342,"ĠFire":10343,"Character":10344,"wing":10345,"Ġ\\&":10346,"Best":10347,"Vir":10348,"Ġprecision":10349,"Ġbroken":10350,"Ġsilver":10351,"ictures":10352,"ĠCub":10353,"Ġresulted":10354,"Ġ=======":10355,"uating":10356,"Ġnormalized":10357,"Ġmodules":10358,"ĠPers":10359,"Nov":10360,"chart":10361,"Generator":10362,"Ġdashed":10363,"lan":10364,"amin":10365,"owa":10366,"Ġindustrial":10367,"player":10368,"maps":10369,"eves":10370,"ctrine":10371,"ronze":10372,"Ġtemperatures":10373,"urst":10374,"mad":10375,"ĠGer":10376,"1928":10377,"Ġjump":10378,"bourne":10379,"Ġproxy":10380,"Game":10381,"ĠIE":10382,"Ġmusicians":10383,"tags":10384,"Ġmunicipal":10385,"oments":10386,"1929":10387,"aga":10388,"ĠElizabeth":10389,"Ġbatch":10390,"Ġattempts":10391,".\");":10392,"ĠTok":10393,"Ġofficially":10394,"temp":10395,"ĠInteger":10396,"ĠWeek":10397,"Ġdetector":10398,"........":10399,"PER":10400,"{%":10401,"ĠAND":10402,"Ġbeat":10403,"}\\|":10404,"Ġluminosity":10405,"Following":10406,"Ġassuming":10407,"Ġcatalog":10408,"%,":10409,"Ġarrange":10410,"ĠMessage":10411,"Stop":10412,"inds":10413,"ĠAnton":10414,"medskip":10415,"OC":10416,"mean":10417,"1900":10418,"riority":10419,"Ġinterior":10420,"pu":10421,"Ġhierarch":10422,"Ġrich":10423,"VALUE":10424,"icular":10425,"ĠBridge":10426,"ĠReal":10427,"omer":10428,"Ġintermediate":10429,"1934":10430,"equations":10431,"collection":10432,"Ġliqu":10433,"worth":10434,"secutive":10435,"ĠCopyright":10436,"Ġapplicable":10437,"ĠMike":10438,"${\\":10439,"allclasses":10440,")->":10441,"Suppose":10442,"'ve":10443,"ĠCountry":10444,"Ġcolle":10445,"BM":10446,"Ġclin":10447,"feature":10448,"ĠAmericans":10449,"ĠCase":10450,"Ġ({\\":10451,"ĠHttp":10452,"eman":10453,"Ġready":10454,"Ġtitles":10455,"ajax":10456,"hedral":10457,"Ġgravitational":10458,"ĠPhiladelphia":10459,"Ġhorizontal":10460,"Ġearth":10461,"coll":10462,"subsec":10463,"urches":10464,"Ġcovers":10465,"\\|\\":10466,"Ġhouseholds":10467,"required":10468,"ĠDuke":10469,"ĠBrad":10470,"Ġperformances":10471,"ĠVen":10472,"Ġmultip":10473,"HER":10474,"Ġboost":10475,"Short":10476,"\\%$":10477,"Ġlift":10478,"ĉčĊ":10479,"Scale":10480,"Ġpassword":10481,"transition":10482,"1910":10483,"ĠSanta":10484,"unique":10485,"Ġintegrated":10486,"ĠSche":10487,"Ġ([":10488,"Identifier":10489,"possible":10490,"Ġenv":10491,"Ġadjacent":10492,"Ġ?>":10493,"ĠNa":10494,"Ġwinners":10495,"Ġhosted":10496,"Ġhistoric":10497,"Ġui":10498,"pat":10499,"ĠKir":10500,"storage":10501,"Ġroughly":10502,"Ġraces":10503,"Ġaspects":10504,"GA":10505,"ĠCas":10506,"owner":10507,"TIME":10508,"emetery":10509,"Ġestate":10510,"retch":10511,"}$}":10512,"stic":10513,"irror":10514,"kt":10515,"Namespace":10516,"akh":10517,"CAL":10518,"Role":10519,"manif":10520,"Lin":10521,"ĠMinnes":10522,"isot":10523,"about":10524,"ymmetry":10525,"Ġurban":10526,"essions":10527,"Ġenvironmental":10528,"have":10529,"Ġcharges":10530,"textcolor":10531,"libr":10532,"+(":10533,"tensor":10534,"Ġgenerator":10535,"connected":10536,"RPC":10537,"ĠRom":10538,"ando":10539,"Ġextensive":10540,"Ġmolecular":10541,"Ġtreated":10542,"Ġeffectively":10543,"separ":10544,"alion":10545,"aska":10546,"ĠChris":10547,"ĠEu":10548,"hook":10549,"rv":10550,"Ġcodes":10551,"ĉĠĠĠĠĠ":10552,"Ġresident":10553,"job":10554,"ambig":10555,"Ġparticipated":10556,"compiler":10557,"ĠMinnesota":10558,"Ġmagnet":10559,"iveness":10560,"inus":10561,"OB":10562,"ĠPack":10563,"ĠLev":10564,"Miss":10565,"erves":10566,"Ġuniversal":10567,"inction":10568,"Ġfacility":10569,"Ġdeveloping":10570,"built":10571,"Ġmarg":10572,"shared":10573,"MODULE":10574,"USE":10575,"orney":10576,"RAN":10577,"Ġ[\"":10578,"Ġextremely":10579,"Ġvotes":10580,"EV":10581,"How":10582,"ĠLead":10583,"1932":10584,"protocol":10585,"Ġwing":10586,"Moreover":10587,"Ġunable":10588,"ĠStadium":10589,"login":10590,"Ġcoher":10591,"Ġmiles":10592,"isor":10593,"Ġhands":10594,"Ġbriefly":10595,"Ġsust":10596,"igital":10597,"anna":10598,"Ġ\"-":10599,"apore":10600,"Sources":10601,"effect":10602,"Ġfaith":10603,"theless":10604,"!!":10605,"ndef":10606,"Ġdriving":10607,"Ġbran":10608,"ĠTai":10609,"below":10610,"aaaa":10611,"URI":10612,"including":10613,"Ġgather":10614,"Selection":10615,"ĠBatt":10616,"inton":10617,"Div":10618,"urable":10619,"Ġcompatible":10620,"puter":10621,"Ġexecuted":10622,"Ð²":10623,"orted":10624,"Password":10625,"Ġdaily":10626,"ÏĦ":10627,"Registry":10628,"ĠRa":10629,"trace":10630,"Ġturb":10631,"yal":10632,"ĠCur":10633,"JS":10634,"enna":10635,"Ġentirely":10636,"HTTP":10637,"aph":10638,"Ġdefend":10639,"rie":10640,"Sm":10641,"ĠSC":10642,"Ġdance":10643,"ĠKim":10644,"ĠSupport":10645,"trim":10646,"Ġterritory":10647,"ĠHard":10648,"Ġfrequently":10649,"Ġnecessarily":10650,"ellipt":10651,"ĠMedal":10652,"Ġinterpretation":10653,"throw":10654,"Ġreform":10655,"Ġanimation":10656,"corollary":10657,"ĠColl":10658,"ÐµÐ½":10659,"isson":10660,"Ġpublication":10661,"Ġopacity":10662,"PD":10663,"Ġclock":10664,"Ġgoogle":10665,"Microsoft":10666,"Ġisot":10667,"Ġwavelength":10668,"ĠHo":10669,"Ġflows":10670,"'));":10671,"ffff":10672,"Ġreprodu":10673,"1924":10674,"phase":10675,"yy":10676,"tbody":10677,"ĠSign":10678,"amaz":10679,"Ġ{\"":10680,"ARN":10681,"Li":10682,"Ġ$\\{\\":10683,"Ġstochastic":10684,"Ġdrag":10685,"thick":10686,"Ġjudge":10687,"Ġgained":10688,"irement":10689,"allest":10690,"MF":10691,"Ġeigenvalues":10692,"Ġtranslate":10693,"Depend":10694,"^{*":10695,"ressed":10696,"Ġconclusion":10697,"ACT":10698,"ighth":10699,"<!":10700,"ĠAthlet":10701,"Ġdecades":10702,"Ġadvoc":10703,"pto":10704,"arity":10705,"Ġlists":10706,"ĠUI":10707,"Ġcompletion":10708,"earning":10709,"Ġmountain":10710,"Ġfunding":10711,"endor":10712,"Uri":10713,"flat":10714,"ĠVi":10715,"1922":10716,"ĠNaz":10717,"Ġauthorities":10718,"ĠBol":10719,"enable":10720,"RT":10721,"nodes":10722,"IVE":10723,"Ġdialog":10724,"states":10725,"ĠTy":10726,"theme":10727,"ĠWisconsin":10728,"bean":10729,"moz":10730,"Texture":10731,"Ġeconom":10732,"(-\\":10733,"Ġappend":10734,"flex":10735,"('.":10736,"Ġcharacteristics":10737,"Ġfeedback":10738,"fast":10739,"Ġchampion":10740,"ĠLast":10741,"Ġrgba":10742,"Ġmobile":10743,"Ġatoms":10744,"rb":10745,"dc":10746,"plicated":10747,"Ġaware":10748,"publ":10749,"ĠRights":10750,"oupl":10751,"users":10752,"Song":10753,"'_{":10754,"ingly":10755,"ONG":10756,"ITE":10757,"Ġctx":10758,"anced":10759,"Ġtopic":10760,"ĠBeach":10761,"Ġgenerating":10762,"Final":10763,"Sequence":10764,"French":10765,"ipping":10766,"Ġmount":10767,"Ġparser":10768,"Ġteaching":10769,"German":10770,"Ġboy":10771,"Ġpand":10772,"Ġseparation":10773,"ĠSwedish":10774,"}{*":10775,"adi":10776,"Ġletters":10777,"Ġimply":10778,"ĠPremier":10779,"1931":10780,"Ġmetadata":10781,"Ġhappen":10782,"Many":10783,"Ġfaculty":10784,"Ġparish":10785,"Domain":10786,"Ġspecify":10787,"ycle":10788,"ĠHun":10789,"1927":10790,"!]":10791,"elle":10792,"bian":10793,"iii":10794,"ĠFund":10795,"ĠShort":10796,"Ġcomplement":10797,"ĠBan":10798,"Ġsan":10799,"ĠRos":10800,"arith":10801,"oster":10802,"unities":10803,"oli":10804,"Ġcorrection":10805,"ĠBudd":10806,"Ġspring":10807,"Ġfans":10808,"Ġextent":10809,"Ġshut":10810,")^\\":10811,"ĠFinal":10812,"season":10813,"pub":10814,"indexOf":10815,"Ġcomposer":10816,"LINE":10817,"AE":10818,"Ġmeta":10819,"ĠAk":10820,"Ġevaluated":10821,"zo":10822,"erence":10823,"Ġadvert":10824,"Ġthank":10825,"Ġhy":10826,"Ġlatest":10827,"Ġsupporting":10828,"Ġbits":10829,"Ġtriple":10830,"ĠLOG":10831,"Tax":10832,"resize":10833,"apis":10834,"Ġglob":10835,"Ġequivalence":10836,"ideos":10837,"ĠFamily":10838,"Ġabsence":10839,"Ġforeach":10840,"ĠFace":10841,"UD":10842,"Ġdefeat":10843,"placement":10844,"quote":10845,"ĠJacob":10846,"ĠHan":10847,"jective":10848,"Ġloaded":10849,"HP":10850,"ĠMcC":10851,"iteral":10852,"Ġrestricted":10853,")--(":10854,"Ġversus":10855,"igrants":10856,"plates":10857,"Ġconfigurations":10858,"ĠFox":10859,"Ġdefinitions":10860,"Ġpiano":10861,"Ġessentially":10862,"ĠOt":10863,"Ġhabit":10864,"ĠCorn":10865,"Ġfiction":10866,"ĠAnth":10867,"ĠSab":10868,"ongest":10869,"ĠSpring":10870,"ĠMill":10871,"Ġfashion":10872,"ĠImm":10873,"oor":10874,"Ġdemonstrate":10875,";}":10876,"Ġele":10877,"resources":10878,"ĠIndiana":10879,"jango":10880,"ĠSteve":10881,"Sur":10882,"Ġtested":10883,"|^{":10884,"igade":10885,"Ġdecrease":10886,"will":10887,"Ġphases":10888,"Ġnotion":10889,"ĠLabor":10890,"lat":10891,"fol":10892,"elly":10893,"ĠBishop":10894,"ĠDoug":10895,"DEBUG":10896,"ĠProcess":10897,"Ġpapers":10898,"usform":10899,"Ġprovider":10900,"ĠTrust":10901,"Ġ}}":10902,"numerusform":10903,"Ġrecommend":10904,"Ġsky":10905,"Â°":10906,"?>":10907,"ĠWin":10908,"Ġlogger":10909,"ĠNext":10910,"1921":10911,"fx":10912,"ques":10913,"rizona":10914,"ĠSweden":10915,"anga":10916,"Framework":10917,"construct":10918,"Normal":10919,"istant":10920,"ĠLady":10921,"Ġgate":10922,"Ġsymbols":10923,"ĠConnect":10924,"Ġ\"<":10925,"imits":10926,"Ġprofiles":10927,"Ġsatell":10928,"ĠHTTP":10929,"kish":10930,"Ġpurchased":10931,"there":10932,"Ġpixel":10933,"ducible":10934,"'ll":10935,"Ġconsecutive":10936,"1925":10937,"Ġcontemporary":10938,"ĠControl":10939,"ĠEll":10940,"ĠGree":10941,"Ġindicating":10942,"Ġfragment":10943,"ĠTownship":10944,"Scal":10945,"ician":10946,"Real":10947,"ĠRest":10948,"ulating":10949,"seq":10950,"Ġdominant":10951,"Ġcond":10952,"LOCK":10953,"Skip":10954,"ĠLes":10955,"Ġheaders":10956,"Ġcovering":10957,"report":10958,"Ġvariations":10959,"ĠĠĠĠĠĠĠĠĠĠĠĠĠĠĠĠĊ":10960,"efe":10961,"tar":10962,"Ġfrag":10963,"IDTH":10964,"ĠHay":10965,"ropolitan":10966,"Shape":10967,"Len":10968,"Ġconfirm":10969,"ĠDavis":10970,"Area":10971,"Est":10972,"Ġdt":10973,"Ġhour":10974,"1926":10975,"Ġpreced":10976,"Ġanalyz":10977,"Ġcav":10978,"yard":10979,"Ġreality":10980,"ĠOregon":10981,"ĠDor":10982,"setup":10983,"Ġshop":10984,"CRE":10985,"ĠColorado":10986,"ĠWindows":10987,"ĠJews":10988,"ĠComple":10989,"Delegate":10990,"ĠDocument":10991,"ĠEP":10992,"=[":10993,"Ġarms":10994,"Transform":10995,"Ġcrow":10996,"Ġaband":10997,"Ġpeace":10998,"Ġ'<":10999,"ĠDue":11000,"extension":11001,"RS":11002,"700":11003,"ĠEngineering":11004,"complex":11005,"1912":11006,"Progress":11007,"Ga":11008,"lope":11009,"ĠProperty":11010,"ĠBru":11011,"iples":11012,"Ġparliament":11013,"username":11014,"ĠASSERT":11015,"Ġcmd":11016,"ĠĠčĊ":11017,"ulus":11018,"flag":11019,"video":11020,"moment":11021,"Ġfaster":11022,"Ġdisplayed":11023,"phy":11024,"Ġdim":11025,"plementation":11026,"Ġperturbation":11027,"Player":11028,"Ġagree":11029,"ĠDam":11030,"Math":11031,",.":11032,"ĠKal":11033,"phantom":11034,"ĠÐ¿":11035,"GO":11036,"ĠLive":11037,"Ã©s":11038,"enabled":11039,"scopic":11040,"ifdef":11041,"Ġaudience":11042,"Visible":11043,"127":11044,"vard":11045,"dark":11046,"Cloud":11047,"Import":11048,"ĠWars":11049,"1915":11050,"plom":11051,"Returns":11052,"Ġcontrols":11053,"^{(\\":11054,"INS":11055,"omot":11056,"atomic":11057,"jet":11058,"Ant":11059,"sig":11060,"Ġdisabled":11061,"Ġdirections":11062,"Family":11063,"EEEE":11064,"agnostic":11065,"Home":11066,"Biography":11067,"asty":11068,"isa":11069,"Ġtargets":11070,"Ġvice":11071,"Ġcoq":11072,"itely":11073,"Ġpolarization":11074,"Google":11075,"instein":11076,"Install":11077,"Ġcontest":11078,"tion":11079,"ĠWinter":11080,"aired":11081,"ĠKansas":11082,"Ġspot":11083,"Ġopposed":11084,"eties":11085,"Ġfemales":11086,"constant":11087,"FLA":11088,"Ġvess":11089,"Ġresolve":11090,"Ġnovels":11091,"Ġcriteria":11092,"Ġmenu":11093,"Ġpieces":11094,"Ġsurn":11095,"ĠGolden":11096,"ĠEnergy":11097,"ounded":11098,"Ġtowns":11099,"ubb":11100,"Ġconsult":11101,"Ġconversion":11102,"Ax":11103,"ĠForest":11104,"vt":11105,"Ġorientation":11106,"Ġattached":11107,"Ġsuffered":11108,"ĠSuppose":11109,"clean":11110,"iful":11111,"upload":11112,"Methods":11113,"Ð°Ð½":11114,"Notification":11115,"Ġdeploy":11116,"wegian":11117,"1923":11118,"Ġgeometric":11119,"uj":11120,"Ġending":11121,"Ġfluctuations":11122,"Resources":11123,"binom":11124,"wp":11125,"cdn":11126,"Ġbenefit":11127,"insic":11128,"Ġfunds":11129,"Cho":11130,"~(\\":11131,"Ġrugby":11132,"vect":11133,"Lat":11134,"GP":11135,"Ġdropped":11136,"tons":11137,"pot":11138,"ĠSunday":11139,"eros":11140,"Ã¢":11141,"Ġscholar":11142,"Xi":11143,"ĠTurkey":11144,"Ġtitled":11145,"Ġscheduled":11146,"ĠReport":11147,"Ġperiodic":11148,"Ġviolence":11149,"Ġdominated":11150,"Ġabsorption":11151,"Release":11152,"Ġdocumentary":11153,"parallel":11154,"\\|_":11155,"Ġspons":11156,"ĠMun":11157,"ORTED":11158,"tics":11159,"Admin":11160,"ĠWel":11161,"Help":11162,"RC":11163,"Ġelectrons":11164,"Ġdefense":11165,"('#":11166,"Ġswim":11167,"ĠForeign":11168,"stood":11169,"counter":11170,"Ġranked":11171,"putation":11172,"Are":11173,")}(\\":11174,"Ġexecute":11175,"Enter":11176,"lyn":11177,"spin":11178,"ĠNY":11179,"mk":11180,"ĠMicrosoft":11181,"Ġrestaur":11182,"taining":11183,"Ġexcess":11184,"shal":11185,"Ġcontents":11186,"Ġ[],":11187,"ĠMilitary":11188,"Ġfrequencies":11189,"Ġneutral":11190,"Eff":11191,"ĠLore":11192,"ĠAtlantic":11193,"assembly":11194,"Ġproportional":11195,"elesc":11196,"ĠBall":11197,"Ġarts":11198,"ĠWell":11199,"$.}":11200,"ĠEnvironment":11201,"Ġengineer":11202,"...</":11203,"uy":11204,"nm":11205,"sun":11206,"Ġthin":11207,"ennessee":11208,"FM":11209,"Ġtaught":11210,"Ġstatements":11211,"Ġuniformly":11212,"swarm":11213,"Day":11214,"ĠNative":11215,"Sample":11216,"Ġproduces":11217,"rapped":11218,"ĠMari":11219,"springframework":11220,"ĠSurvey":11221,"Ġok":11222,"Ġburn":11223,"ika":11224,"DateTime":11225,"Ġreduces":11226,"above":11227,"ĠVector":11228,"Ġscenarios":11229,"Stats":11230,"Ġfounder":11231,"loss":11232,"pull":11233,"(@":11234,"ĠDun":11235,"agen":11236,"Observ":11237,"1916":11238,"Ġconfidence":11239,"Ġdecor":11240,"Î¹":11241,"some":11242,"ĠMake":11243,"ĠCzech":11244,"Ġquark":11245,"^*(":11246,"ourse":11247,"finite":11248,"Ġbow":11249,"ĠCELL":11250,"EP":11251,"undefined":11252,"Ġcolors":11253,"Ġpractical":11254,"Women":11255,"Ġenum":11256,"ĠĠĠĠĠĠĠĠĠĠĠĠĠĠĠĠĠĠĠĠĠĠĠĠĠĠĠĠĠĠ":11257,"ĠAP":11258,"Ġbelongs":11259,"Ġanom":11260,"cross":11261,"Ġkin":11262,"ummy":11263,"Ġpenal":11264,"Ġdocumentation":11265,".<":11266,"Ġcollision":11267,"Ġcharacterized":11268,"Ġ];":11269,"lywood":11270,"Ġtal":11271,"uda":11272,"Ġfell":11273,"een":11274,"Ġconvers":11275,"Spe":11276,"mers":11277,"ĠInput":11278,"^*\\":11279,"Ġcub":11280,"POST":11281,"Interval":11282,"Ġcoupled":11283,"jecture":11284,"good":11285,"$-$":11286,"ĠStock":11287,"Ġcampus":11288,"Ġyounger":11289,"ĠTransport":11290,"ĠTH":11291,"tf":11292,"atters":11293,"ĠJoh":11294,"Ġaccident":11295,"Ġindependence":11296,"Landroid":11297,"ĠInternet":11298,"once":11299,"wildfly":11300,"Ġrequested":11301,"gency":11302,"ĠSource":11303,"Ġwarn":11304,"ITION":11305,"CB":11306,"ĠMissouri":11307,"ĠDefinition":11308,"ĠIndones":11309,"ĠMoh":11310,"timeout":11311,"idge":11312,"Ġperhaps":11313,"ogy":11314,"invalid":11315,"Olymp":11316,"}/\\":11317,"ĠLow":11318,"Another":11319,"Ġstands":11320,"Ġignore":11321,"ordon":11322,"Ġreconstruction":11323,"TF":11324,"Ġclick":11325,"Ġsimilarly":11326,"ÃŃa":11327,"period":11328,"ĠGallery":11329,"Ġnullptr":11330,"Bind":11331,"rig":11332,"SV":11333,"iration":11334,"Ġchance":11335,"Ġjobs":11336,"Ġinn":11337,"Ġlinked":11338,"ĠStandard":11339,"Ġimprovement":11340,"ĠHal":11341,"Ġsand":11342,"SW":11343,"Ġdog":11344,"Ġvanish":11345,"cest":11346,"Ġdemonstrated":11347,"ĠCart":11348,"Ġfitting":11349,"backslash":11350,"Ġtimeout":11351,"Îµ":11352,"Most":11353,"Har":11354,"azy":11355,"ĠArrayList":11356,"Ġmerged":11357,"Ġbelief":11358,"ĠAlf":11359,"ĠCastle":11360,"ĠBoolean":11361,"dam":11362,"Ġcolour":11363,"Dav":11364,"Ġskip":11365,"ĠHiggs":11366,"Ġheard":11367,"ĠPeak":11368,"213":11369,"ĠHart":11370,"ĠBra":11371,"nol":11372,"ĠLink":11373,"ĠSon":11374,"Ġuncertainties":11375,"abric":11376,"Ġpainting":11377,"ĠConsider":11378,"ĠØ":11379,"sb":11380,"Ġtopology":11381,"('/":11382,"ENSE":11383,"ĠSquad":11384,"Jan":11385,"sep":11386,"Language":11387,"Ġisn":11388,"ĠAD":11389,"Ġalter":11390,"stackrel":11391,"issues":11392,"Ġlistener":11393,"Ġtwenty":11394,"ryption":11395,"%\"":11396,"uler":11397,"()))":11398,"Ġsevent":11399,"Generated":11400,"ĠRecord":11401,"ĠMexican":11402,"oscow":11403,"Plot":11404,"Ġcir":11405,"xhtml":11406,"rangian":11407,"ÑģÑĤ":11408,"Ġframes":11409,"ĠMaryland":11410,"rog":11411,"ĠSat":11412,"REQ":11413,"ĠHighway":11414,"anim":11415,"isis":11416,"Flow":11417,"Ġcab":11418,"ĠTal":11419,"\\!\\":11420,"Ġexperi":11421,"Ġnegot":11422,"|$":11423,"forcement":11424,"compare":11425,"Ġsensitive":11426,"Ġfeet":11427,"Ġ---":11428,"Ġempir":11429,"ĠExample":11430,"ĠArthur":11431,"Bean":11432,")}.":11433,"Ġglass":11434,"Ġlosing":11435,"ĠStephen":11436,"Ġultimately":11437,"Ġneutrino":11438,"Vertex":11439,"Ġsuppose":11440,"Program":11441,"requency":11442,"Awards":11443,"ĠBefore":11444,"sequence":11445,"ĠInstead":11446,"Ġinjury":11447,"Ġdeviation":11448,"Ġidx":11449,"rait":11450,"Ġwitness":11451,"Ġexplanation":11452,"cam":11453,"Ġ{$\\":11454,"async":11455,"EEEEFF":11456,"ĠParamet":11457,"*}[":11458,"Ġimg":11459,"Ġtransitions":11460,")(\\":11461,"ĠGrant":11462,"Ġbaseline":11463,"grav":11464,"Ġyellow":11465,"ĠMaria":11466,"Sql":11467,"Ġsurfaces":11468,"SELECT":11469,"Ġexpos":11470,"Ġanimals":11471,"ĠEth":11472,"111":11473,"Ids":11474,"%.":11475,"objects":11476,"Ġscoring":11477,"ĠSN":11478,"Ġmorning":11479,"western":11480,"Ġstrictly":11481,"Ġdoctor":11482,"ĠFellow":11483,"CTYPE":11484,"ĠBaron":11485,"aturally":11486,"Ġpuls":11487,"Ġremember":11488,"Ġrestriction":11489,"helper":11490,"textup":11491,"loader":11492,"original":11493,"checkbox":11494,"Ġscores":11495,"ĠAbb":11496,"Ġopposition":11497,"amazon":11498,"VALID":11499,"poly":11500,"ĠChristmas":11501,"Ġcolspan":11502,"Ġcancel":11503,"rell":11504,"ĠPhilippines":11505,"Limit":11506,"issue":11507,"ĠAffairs":11508,"Ġstone":11509,"Ġ\\,\\":11510,"They":11511,"Ð¼":11512,"Ġportray":11513,"Ġorbital":11514,"ĠAh":11515,"dk":11516,"ĠEvery":11517,"Children":11518,"oves":11519,"wave":11520,"Ġstandards":11521,"ĠLike":11522,"\"/":11523,"Ġexplore":11524,"apsed":11525,"written":11526,"Detail":11527,"Ġplas":11528,"living":11529,"ĠGh":11530,"oked":11531,"Ġtemp":11532,"Ġadapted":11533,"checked":11534,"Ġboundaries":11535,"Den":11536,"specific":11537,"Ġapproved":11538,"Ġrespective":11539,"Ġinnov":11540,"Pres":11541,"pend":11542,"Ġperspective":11543,"Fragment":11544,"convert":11545,"114":11546,"origin":11547,"Ġmd":11548,"ĠSoftware":11549,"Ġsun":11550,"ĠBooks":11551,"Ġwrest":11552,"ĠCaptain":11553,"groups":11554,"Ġmes":11555,"ceil":11556,"signature":11557,"eral":11558,"represent":11559,"ĠPRO":11560,"ELD":11561,".$$":11562,"Ġjournalist":11563,"gi":11564,"115":11565,"kov":11566,"Ġrom":11567,"ears":11568,"Hom":11569,"Ġseats":11570,"Ġdistricts":11571,"east":11572,"Ġtransparent":11573,"Ġmach":11574,"Ġpermut":11575,"proxy":11576,"Ġmetall":11577,"Ġatomic":11578,"getValue":11579,"ĠWrit":11580,"Ġemployees":11581,"Ġpasses":11582,"Ġcharset":11583,"textnormal":11584,"ariance":11585,"PUT":11586,"assandra":11587,"Ġbinding":11588,"Ġoccupied":11589,"variable":11590,"extern":11591,"ĠDC":11592,"rob":11593,"gluon":11594,"Ign":11595,"Ġcold":11596,"ĠMemorial":11597,"batch":11598,"Ġalgebraic":11599,"Ġbrain":11600,"/.":11601,"Canadian":11602,"Ms":11603,"console":11604,"Ġconcentration":11605,"multline":11606,"Ġprompt":11607,"ĠHas":11608,"isen":11609,"Ġuniverse":11610,"ĠRepresentatives":11611,"overview":11612,"ĠPrinc":11613,"develop":11614,"Ġdesignated":11615,"cludes":11616,"lass":11617,"rink":11618,"Ġvacuum":11619,"Fact":11620,"Ġgovernor":11621,"Ġaccret":11622,"Ġinvolves":11623,"Ġneighbour":11624,"Ġsentence":11625,"Ġdegener":11626,"ĠAmazon":11627,"incial":11628,"Ġast":11629,"Ġpref":11630,"Ġstages":11631,"{|":11632,"Encoded":11633,"gments":11634,"æľ":11635,"ĠNever":11636,"ĠAgain":11637,"Ġholding":11638,"Ġfighting":11639,"Ġguard":11640,"Ġstrategies":11641,"ĠSingapore":11642,"Ġarrested":11643,"testing":11644,"Ġimplicit":11645,"Ġdependencies":11646,"ĠSIZE":11647,"Ġmand":11648,"boldmath":11649,"ĠThrough":11650,"coln":11651,"ĠPier":11652,"Ġargued":11653,")>":11654,"Ġbuf":11655,"route":11656,"ifndef":11657,"ĠMountain":11658,"DOCTYPE":11659,"optional":11660,"}>":11661,"mag":11662,"supported":11663,"month":11664,"unes":11665,"Free":11666,"113":11667,";)":11668,"urrence":11669,"stan":11670,"paper":11671,"offs":11672,"newline":11673,"ĠassertThat":11674,"=\"$":11675,"Report":11676,"Cert":11677,"Pair":11678,"repe":11679,"np":11680,"bx":11681,"LR":11682,"ycl":11683,"ĠNiger":11684,"Ġreplacing":11685,"åĪ":11686,"Ġillustrated":11687,"Î½":11688,"oni":11689,"Ġproducing":11690,"Overview":11691,"ĠOnce":11692,"glyph":11693,"Ġpartially":11694,"warning":11695,"Ġsomewhat":11696,"(\"/":11697,"Olympic":11698,"ä»":11699,"Ġroots":11700,"analy":11701,"ynamics":11702,"Ġvarying":11703,"merce":11704,"{(\\":11705,"downarrow":11706,"Ġaddresses":11707,"Ġfilled":11708,"ĠFourier":11709,"lb":11710,"ĠAnderson":11711,"Ġclosure":11712,"{\"":11713,"inating":11714,"Ġcarbon":11715,"fc":11716,"NavBarFont":11717,"Ġscroll":11718,"ĠLewis":11719,"footnotes":11720,"Ġquot":11721,"Ġbreaking":11722,"USER":11723,"osure":11724,"Mask":11725,"Ġcollapse":11726,"FORM":11727,"uparrow":11728,"Ġhappens":11729,"standard":11730,"Ġ,\\":11731,"ĠSever":11732,"Wallet":11733,"hfill":11734,"Ġpanels":11735,"ĠBor":11736,"ĠValid":11737,"Ġoccasion":11738,"Ð¾Ð²":11739,"Ġmedalists":11740,"\"],":11741,"Ġcircuit":11742,"Ġinclusion":11743,"vertical":11744,"accept":11745,"ushed":11746,"1913":11747,"Ġresc":11748,"ples":11749,"conduct":11750,"ðŁ":11751,"ĠTro":11752,"ĠAS":11753,"socket":11754,"Volume":11755,"hist":11756,"Ġwire":11757,"Ġvalign":11758,"Ġadmin":11759,"Ġmerge":11760,"Fore":11761,"Ġcontinuum":11762,"Ġpandemic":11763,"volume":11764,"Ġfails":11765,"wealth":11766,"Ġfuel":11767,"redu":11768,"Ġ(;":11769,"Ġmoments":11770,"wig":11771,"Ġcontribute":11772,"uese":11773,"Ġmoves":11774,"Ġdecreases":11775,"Ġchallenges":11776,"IGHT":11777,"parts":11778,"Ġdestination":11779,"area":11780,"ĠTennessee":11781,"oes":11782,"Ġschema":11783,"ĠBet":11784,"Ġsensitivity":11785,"distance":11786,"Ġsucceeded":11787,"Lower":11788,"ĠLeon":11789,"jk":11790,"Ġtsd":11791,"ĠSimilarly":11792,"ĠOcean":11793,"Ġcrick":11794,"Ġencounter":11795,"ĠColon":11796,"Ġhomogeneous":11797,"Ġbodies":11798,"was":11799,"witzer":11800,"ĠFront":11801,"Ġinvestment":11802,"Ġlogic":11803,"boost":11804,"deep":11805,"Ã¼r":11806,"Ġcorrections":11807,"Ġenhance":11808,"uma":11809,"112":11810,"ivals":11811,"Ġphoto":11812,"ĠAbout":11813,"Environment":11814,"ĠEND":11815,"ensis":11816,"000000":11817,"Ġchairman":11818,"ĠNorway":11819,"Ġ$^{":11820,"ĠRow":11821,"Ġpipeline":11822,"\"].":11823,"Ġimmediate":11824,"ĠMir":11825,"Ġprops":11826,"UC":11827,"esides":11828,"Ġsolving":11829,"INTER":11830,"Ġdescribing":11831,"density":11832,"missions":11833,"ahoma":11834,"Ġrear":11835,"Ġconjug":11836,"Ġextreme":11837,"Ġepoch":11838,"ĠCA":11839,"ĠSQL":11840,"Plan":11841,"Ġprecise":11842,"ermi":11843,"Ġaffili":11844,"}.}":11845,"Geography":11846,"Ġregarded":11847,"Ġplugin":11848,"Ġmodify":11849,"Hub":11850,"Ñĩ":11851,"ĠArizona":11852,"zip":11853,"ureau":11854,"ĠSE":11855,"Ġsole":11856,"Ġreset":11857,"Ġexpectation":11858,"Ġsaved":11859,"varrho":11860,"hd":11861,"SSL":11862,"ĠSav":11863,"friend":11864,"encing":11865,"Named":11866,"uris":11867,"2023":11868,"ĠRose":11869,"Ġinterests":11870,"Begin":11871,"ĠCorollary":11872,"Ġ\"$":11873,"Ġhall":11874,"ĠDM":11875,"Ġresidual":11876,"Ġproperly":11877,"ods":11878,"Elements":11879,"ĠTurn":11880,"Ġexcell":11881,"hang":11882,"Ġburied":11883,"DEFAULT":11884,"ĠLanguage":11885,"chant":11886,"ĠMunic":11887,"fact":11888,"Her":11889,"Ġquadratic":11890,"Animation":11891,"Ġparticipants":11892,"python":11893,"Ġvariant":11894,"Ġexpert":11895,"yrics":11896,"ĠWho":11897,"Ġsimultaneously":11898,"ruby":11899,"Ġapplies":11900,"William":11901,"asters":11902,"ĠChen":11903,"Ep":11904,"Ġconcerns":11905,"footnotesize":11906,"Ġdistances":11907,"Ġpoll":11908,"Enumer":11909,"$^":11910,"Black":11911,"ĠAmb":11912,"witzerland":11913,"blank":11914,"zy":11915,"ĠGeV":11916,"ĠFederation":11917,"SCR":11918,"Bibliography":11919,"tests":11920,"Ġray":11921,"println":11922,"uther":11923,"Ġschemes":11924,"Ġpixels":11925,"Ġanalytic":11926,"uties":11927,"Ġaccounts":11928,"Ġorthogonal":11929,"Ġloan":11930,"brand":11931,"Ġdomains":11932,"Ġmel":11933,"illery":11934,"integer":11935,"mathtt":11936,"Ġreverse":11937,"Star":11938,"Ġhalo":11939,"ĠMoscow":11940,"ĠGib":11941,"issip":11942,"Ġdiffusion":11943,"ĠRoss":11944,"Ð´":11945,"Ġattempted":11946,"ĠHy":11947,"Ġreasonable":11948,"ĠNorm":11949,"Qual":11950,"ĠAdam":11951,"Ġwalls":11952,"methods":11953,"slice":11954,"Ġadvers":11955,"~~~~~~~~":11956,"Ġbra":11957,"urance":11958,"neut":11959,"cules":11960,"ĠBaseball":11961,"Bel":11962,"ĠModern":11963,"oving":11964,"Äĥ":11965,"Ġfra":11966,"Ġvalidate":11967,".\",":11968,"ĠCG":11969,"Japan":11970,"ourney":11971,"Ġrequirement":11972,"Ġencourag":11973,"ĠHom":11974,"gar":11975,"Ġpolynomials":11976,"Ġrejected":11977,"Ġconservation":11978,"bat":11979,"Ġlect":11980,"umps":11981,"Nor":11982,"Ġnp":11983,"Ġstead":11984,"Life":11985,"lu":11986,"Ġschol":11987,"****************************************************************":11988,"Ġweather":11989,"102":11990,"Ġranges":11991,"Ġdensities":11992,"Ġchoices":11993,"expand":11994,"ĠWat":11995,"Tok":11996,"Fn":11997,"utt":11998,"engers":11999,"ĠML":12000,"itudes":12001,"DATA":12002,"Ġreserved":12003,"ĠUnit":12004,"cred":12005,"Ġcorpor":12006,"Ġperiods":12007,"ĠXML":12008,"Film":12009,"ï»":12010,"1908":12011,"Cent":12012,"Ġdriven":12013,"Ġ\\[":12014,"ugment":12015,"rupted":12016,"Allow":12017,"tp":12018,"forming":12019,"ĠPolicy":12020,"Ġaid":12021,"fp":12022,"aming":12023,"owski":12024,"Ġconfigure":12025,"leftarrow":12026,"Ġcriminal":12027,"Ġstraightforward":12028,"Ġnominated":12029,"ĠMiller":12030,"wick":12031,"ANT":12032,"ĠDB":12033,"Ġful":12034,"Ġcas":12035,"Ġnob":12036,"ĠAmong":12037,"anchor":12038,"Ġupdates":12039,"ĠCurrent":12040,"Ġcrossing":12041,"views":12042,"Make":12043,"Native":12044,"Ġextracted":12045,"Ġweighted":12046,"PM":12047,"Ġles":12048,"ses":12049,"1911":12050,"Ġbenefits":12051,"Ġnarr":12052,"Ġ\\\"":12053,"Ġdomestic":12054,"105":12055,"spl":12056,"ois":12057,"ï»¿":12058,"ĠJordan":12059,"ĠAccess":12060,"Ġtradition":12061,"ĠALIGN":12062,"Christ":12063,"Ġrecurs":12064,"ĠAlgorithm":12065,"Endpoint":12066,"Ġgender":12067,"Ġsphere":12068,"runtime":12069,"Ġhop":12070,"Ġstorm":12071,"Ġreads":12072,"Ġtemporal":12073,"ĠGuide":12074,"propto":12075,":`":12076,"Ġentang":12077,"Ġmodeling":12078,"(.":12079,"Ġextensions":12080,"å®":12081,"Ġfib":12082,"ĠMit":12083,"Private":12084,"Ġcharts":12085,"Ġplate":12086,"ĠHoly":12087,"iemann":12088,"ĠVietnam":12089,"ĠNE":12090,"Ġcausing":12091,"erick":12092,"Required":12093,"\"\"\"":12094,"Ġsubsection":12095,"Ġstarring":12096,"ĠUkraine":12097,"icted":12098,"PROJECT":12099,"constructor":12100,"Ġtang":12101,"Ġderivatives":12102,"Ġfresh":12103,"Ġqualified":12104,"'];":12105,"Ġyards":12106,"verage":12107,"ĠMalays":12108,"mak":12109,"via":12110,"TRY":12111,"SG":12112,"Nullable":12113,"Ġdyn":12114,"dynamic":12115,"Ġcloser":12116,"$'":12117,"Mill":12118,"activity":12119,"Coll":12120,"Ġunderstood":12121,"ante":12122,"abc":12123,"Ġinterpol":12124,"rift":12125,"Ġcaref":12126,"bre":12127,"ĠSky":12128,"Ġcontributed":12129,"visible":12130,"WORD":12131,"Ġguest":12132,"ĠSlov":12133,"gray":12134,"weak":12135,"ĠFA":12136,"notations":12137,"ĠMas":12138,"Card":12139,"Death":12140,"Ġvocal":12141,"ĠJunior":12142,"Ġformulation":12143,"Populated":12144,"mill":12145,"ĠTa":12146,"ĠBon":12147,"Email":12148,"Ġclassified":12149,"Ġwins":12150,"$\\,":12151,"ĠNet":12152,"117":12153,"exec":12154,"aturday":12155,"dig":12156,"Ġpossess":12157,"ĠApache":12158,"Ġuniqu":12159,"ĠDa":12160,"elem":12161,"invariant":12162,"attery":12163,"Ġcrucial":12164,"Ġwealth":12165,"vertex":12166,"atibility":12167,"Ġappearing":12168,"mont":12169,"=\\{":12170,"ĠCustom":12171,"ĠGR":12172,"Ġsystematic":12173,"selector":12174,"Ġvillages":12175,"Binary":12176,"Ġbuck":12177,"ĉĠĠĠĠĠĠĠ":12178,"140":12179,"urr":12180,"vironments":12181,"Ġvent":12182,"ĠAre":12183,"ooks":12184,"ĠLang":12185,"intro":12186,"_);":12187,"pin":12188,"Ã¥":12189,"mouse":12190,"Ġliquid":12191,"ĠNAS":12192,"Ġcrisis":12193,"Mouse":12194,"ativity":12195,"Ġmales":12196,"factory":12197,"Ġahead":12198,"outs":12199,"Ġdispersion":12200,"Sportspeople":12201,"Ġhuge":12202,"ictional":12203,"memory":12204,"Ġtheatre":12205,"Db":12206,"ĠCond":12207,"Ġstyles":12208,"ista":12209,":[":12210,"ĠNAV":12211,"Ġagency":12212,"hips":12213,"iliary":12214,"filldraw":12215,"aware":12216,"release":12217,"odge":12218,"Ġthir":12219,"Ġarran":12220,"Flag":12221,"ĠallClasses":12222,"Ġoldest":12223,"ĠANY":12224,"Ġpatch":12225,"Ġ@\"":12226,"Serv":12227,"ĠVo":12228,"Ġeducated":12229,"Ġtower":12230,"verter":12231,"ĠPhilip":12232,"ĠSto":12233,"Ġbind":12234,"uscript":12235,"ĠCab":12236,"Ġdanger":12237,"agan":12238,"Ġaccum":12239,"ĠHou":12240,"Ġpresents":12241,"ĉĠĠ":12242,"burn":12243,"Ġ'\\":12244,"evin":12245,"ĠKhan":12246,"ĠallClassesLink":12247,"onymous":12248,"Ġterror":12249,"ĠWrite":12250,"DIS":12251,"Identity":12252,"orer":12253,"ships":12254,"idal":12255,"Ġvideos":12256,"Ġprepared":12257,"Light":12258,"how":12259,"\\\\\\\\\\\\\\\\\\\\\\\\\\\\\\\\":12260,"created":12261,"wich":12262,"ĠPR":12263,"Ġfestival":12264,"Ġ_.":12265,"Ġreceiver":12266,"Ġreaching":12267,"Ġsending":12268,"Ġvision":12269,"Ġidentification":12270,"download":12271,"Ġeveryone":12272,"ArgumentException":12273,"ĉĉĉĉĊ":12274,"compile":12275,"ĠFord":12276,"Ġleaf":12277,"Ġtight":12278,"unately":12279,"iley":12280,"ĠSearch":12281,"Find":12282,"Ġpopulations":12283,"]^":12284,"fall":12285,"Ġskills":12286,"expression":12287,"Ġembedded":12288,"Ġcommitted":12289,"Ġiron":12290,"isEmpty":12291,"ĠLind":12292,"Ġinvestigated":12293,"Ġopts":12294,"Ġbusinesses":12295,"variance":12296,"Ġtrains":12297,"elastic":12298,"Ġrandomly":12299,"resolve":12300,"Ġpromote":12301,"ĠBat":12302,"ĠPitt":12303,"cod":12304,"Ġlimitations":12305,"Ġproposal":12306,"romagnetic":12307,"ĠHarry":12308,"=\\\"":12309,"plier":12310,"Ali":12311,"Ġther":12312,"ĠEntertainment":12313,"Ġdemocr":12314,"Serializer":12315,"Ġscenes":12316,"Rail":12317,"klahoma":12318,"Ġ\\|\\":12319,"Operator":12320,"enance":12321,"Ġweapons":12322,"ĠSaf":12323,"prising":12324,"Wait":12325,"Ġhorse":12326,"rence":12327,"bus":12328,"tages":12329,"ĠAlbert":12330,"ĠAdditionally":12331,"Ġcritics":12332,"Ġpersons":12333,"Rece":12334,"Dictionary":12335,"textsf":12336,"Ġlosses":12337,"Ġcarri":12338,"sidebar":12339,"Ġrevers":12340,"Bal":12341,"Basic":12342,"*\\":12343,"wd":12344,"Ġschedule":12345,"ĠFac":12346,"oi":12347,"/_":12348,"Ġcorrectly":12349,"Ġmorphism":12350,"Ġstudying":12351,"Mc":12352,"CLASS":12353,"Ġoperate":12354,"MAP":12355,"$\\\\":12356,"Ġpremier":12357,"edu":12358,"ĠKentucky":12359,"ambiguation":12360,"ĠGreece":12361,"constraint":12362,"Ġcombat":12363,"database":12364,"Ġchose":12365,"Vari":12366,"Ġpermission":12367,"ĠDark":12368,"Ġ(),":12369,"analysis":12370,"})^{":12371,"odox":12372,"Focus":12373,"Validation":12374,"oca":12375,"Ġreligion":12376,"Ġanalyze":12377,"ĠCost":12378,"OW":12379,"icing":12380,"elve":12381,"Ġviewed":12382,"Ġirreducible":12383,"Ġdepos":12384,"abama":12385,"ĠBos":12386,"OPT":12387,"iversary":12388,";\">":12389,"take":12390,"ĠBuilding":12391,"MODE":12392,"^^":12393,"Ġheavily":12394,"olis":12395,"iamond":12396,"merge":12397,"Ġcollaboration":12398,"Don":12399,"apel":12400,"Ġ>>":12401,"Ġpermanent":12402,"Ġwish":12403,"ĠBit":12404,"InputStream":12405,"stances":12406,"ĠAdministration":12407,"QU":12408,"ingham":12409,"Ġeye":12410,"EventListener":12411,"photon":12412,"night":12413,"Ġselector":12414,"Ġpilot":12415,"olid":12416,"Ġtmp":12417,"puted":12418,"Remote":12419,"library":12420,"Ġinh":12421,"Ġrelationships":12422,"ĠChildren":12423,"ĠPalest":12424,"ĠSri":12425,"agnostics":12426,"rac":12427,"Ġmaintained":12428,"Ġquas":12429,"Ġhousehold":12430,"ÛĮ":12431,"agues":12432,"ĠMonte":12433,"Ġdefining":12434,"policy":12435,"Ġpainter":12436,"uning":12437,"Warning":12438,"through":12439,"Ġellipt":12440,"ANG":12441,"yers":12442,"available":12443,"ĠProt":12444,"hanced":12445,"ĠStory":12446,"Ġtrib":12447,"ĠMelbourne":12448,"direction":12449,"Ġstores":12450,"Folder":12451,"subequations":12452,"icut":12453,"'d":12454,"ĠOperation":12455,"Ġsail":12456,"gre":12457,"Ġroyal":12458,"agu":12459,"Ġgirls":12460,"ipse":12461,"ĠIowa":12462,"Ġcompilation":12463,"ĠSound":12464,"inherit":12465,"zi":12466,"Look":12467,"Ġanchor":12468,"Ġfee":12469,"ownt":12470,"pare":12471,"VE":12472,"citealt":12473,"Ġconventional":12474,"Ġensemble":12475,"360":12476,"Ġhers":12477,"Ġtrunc":12478,"=$":12479,"Ġ~\\":12480,"Ġentitled":12481,"FUN":12482,"ibilities":12483,"Ġmodal":12484,"Unknown":12485,"ruption":12486,"Ġsell":12487,"NSString":12488,"icians":12489,"1890":12490,"Ġwarning":12491,"Syntax":12492,"gradient":12493,"Ġalleged":12494,"Ġcaptain":12495,"Ġsixth":12496,"izers":12497,"ĠWhit":12498,"sync":12499,"Ġhor":12500,"ĠThird":12501,"Ġintegers":12502,"bes":12503,"Comparison":12504,"mal":12505,"Ġreconstruct":12506,"Ġdates":12507,"ĠLincoln":12508,"catch":12509,"ĠTony":12510,"Ġsecure":12511,"aneous":12512,"itecture":12513,"andy":12514,"urd":12515,"ĠForces":12516,"North":12517,"\\},":12518,",...,":12519,"Ġruntime":12520,"Ġequals":12521,"Ġformul":12522,"Ġbronze":12523,"Ġapart":12524,"Ġregression":12525,"Ġpun":12526,"Pred":12527,"Proto":12528,"apy":12529,"posing":12530,"ĠJesus":12531,"Ġformally":12532,"Ġformerly":12533,"Ġsimulated":12534,"Pers":12535,"ĠLtd":12536,"ĠFROM":12537,"Ġreward":12538,"isset":12539,"igate":12540,"Ġcapable":12541,"Ġwinter":12542,"FN":12543,"Ġatom":12544,"ĠInvest":12545,"ĠArk":12546,"Ġreplacement":12547,"Ġdiagrams":12548,"Ġfunctor":12549,"Ġopinion":12550,"ĠStaff":12551,"ĠBalt":12552,"Ġchapter":12553,"Ġrefused":12554,"Hon":12555,"ercise":12556,"MIN":12557,"achelor":12558,"Ġaux":12559,"Ġspectro":12560,"elements":12561,"Ġpercentage":12562,"Ġdiameter":12563,"Proposition":12564,"feed":12565,"Ġsubspace":12566,"Ġwindows":12567,"ĠHop":12568,"tl":12569,"Ġcursor":12570,"fghan":12571,"Ġcredit":12572,"ĠJos":12573,"Ġgreatest":12574,"ESS":12575,"Ġroutes":12576,"&=&\\":12577,"Ġtrajectory":12578,"HD":12579,"Ġdrink":12580,"nolimits":12581,"\\,{\\":12582,"Ġped":12583,"ĠAndroid":12584,"extend":12585,"Move":12586,"Ġmanagers":12587,"vanced":12588,"Eval":12589,"æĸ":12590,"ĠAustria":12591,"Ġresearchers":12592,"Ġneither":12593,"opts":12594,"\\}.":12595,"Ġhappened":12596,"Ġbenchmark":12597,"']['":12598,"facebook":12599,"CHAR":12600,"Ġsac":12601,"inth":12602,"Ġchecked":12603,"{.":12604,"islation":12605,"Screen":12606,"ĠNap":12607,"ĠCle":12608,"highlight":12609,"çĶ":12610,"ĠDrag":12611,"may":12612,"Ġeducational":12613,"Ġstronger":12614,"Save":12615,"goto":12616,"Ġcommander":12617,"Ġheadquarters":12618,"enez":12619,"Ġnaturally":12620,"Ġracing":12621,"Ġresistance":12622,"Ġmayor":12623,"116":12624,"Ġpatient":12625,"Ġcomparable":12626,"ĠStatus":12627,"Ġsegments":12628,"Ġhumans":12629,"Ġfan":12630,"Ġille":12631,"olo":12632,"ĠSwitzerland":12633,"Ġsought":12634,"Ġrapidly":12635,"Ġcyl":12636,"Segment":12637,"Ġpromotion":12638,"Ġdiscovery":12639,"Connect":12640,"ĠCommunic":12641,"Ġbought":12642,"Ġdoll":12643,"Ġdisorder":12644,"}))":12645,"ĠSimon":12646,"edding":12647,"ĠLcom":12648,"clone":12649,"lab":12650,"Ġconcluded":12651,"Ġna":12652,"Ã©t":12653,"Ġrecru":12654,"Alloc":12655,"Ġdiplom":12656,"NV":12657,"pag":12658,"Once":12659,"ĠMagazine":12660,"Ġshortly":12661,"Ben":12662,"ĠExecutive":12663,"Ġpotentially":12664,"Ġdrums":12665,"gium":12666,"Mac":12667,"ĠNAVBAR":12668,"}[!":12669,"Ġguide":12670,"Ġconditional":12671,"ĠOak":12672,"Ġintent":12673,"radio":12674,"ĠBurn":12675,"Ïĥ":12676,"ĠCore":12677,"&&\\":12678,"ĠFame":12679,"Ġcorrelations":12680,"Tags":12681,"Ġvot":12682,"Ġmist":12683,"}{{\\":12684,"Place":12685,"Ġaccretion":12686,"}^{+":12687,"ĠEarl":12688,"ologists":12689,"roit":12690,"Ġtransverse":12691,"ĠRight":12692,"Ġsubjects":12693,"Ġprogramme":12694,"Ġclip":12695,"Australian":12696,"ĠCommun":12697,"havior":12698,"stage":12699,"UK":12700,"typen":12701,"Ġlikelihood":12702,"ĠBah":12703,"Ġvirt":12704,"ĠManchester":12705,"ĠOtt":12706,"ibraries":12707,"ĠAM":12708,"Ø±":12709,"1909":12710,"Ġoutputs":12711,"1905":12712,"Ġdoor":12713,"Ġmo":12714,"expl":12715,"acher":12716,"Ġexhibit":12717,"Ġsimilarity":12718,"ĠBrun":12719,"Raw":12720,"gets":12721,"imension":12722,"Ġrobot":12723,"Ġendpoint":12724,"ĠMock":12725,"ĠSP":12726,"Ġsettled":12727,"ouses":12728,"Ġindependently":12729,"displayName":12730,"ardo":12731,"ĠHor":12732,"Ġcircular":12733,"ocese":12734,"Ġisolated":12735,"asm":12736,"ĠCop":12737,"ĠEquation":12738,"Ġment":12739,"Ġmyst":12740,"Ġtransactions":12741,"Ġdisappe":12742,"ymn":12743,"IOException":12744,"=\"../../../../../../../":12745,"Ġfilters":12746,"Ġcreates":12747,"igenous":12748,"ĠLay":12749,"Constant":12750,"Ġhorizon":12751,"Ġmechanisms":12752,"oda":12753,"Ġmoder":12754,"Objects":12755,"Ġlaser":12756,"ĠPa":12757,"ĠIslamic":12758,"ilevel":12759,"ĠSher":12760,"Ġsupers":12761,"Ġ''":12762,"Å«":12763,"Ġpot":12764,"DEF":12765,"Ġtags":12766,"Ġcommunic":12767,"upper":12768,"ĠTan":12769,"ĠCP":12770,".[":12771,"Ġvort":12772,"Ġphone":12773,"Ġbrothers":12774,"folio":12775,"1906":12776,"Ġproto":12777,"ĠVice":12778,"ĠBrian":12779,"BPACK":12780,"Ġbond":12781,"Ġ_,":12782,"lot":12783,"Organ":12784,"CDATA":12785,"Ġproposition":12786,"ĠJane":12787,"Ġprotein":12788,"oltip":12789,"raise":12790,"Ġdecade":12791,"Ġassignment":12792,"bigcup":12793,"clide":12794,"ĠSets":12795,"Ġwarm":12796,"Ġpresidential":12797,"Same":12798,"validate":12799,"exit":12800,"ĠOriginal":12801,"Ġjoining":12802,"Constructor":12803,"ĠClark":12804,"Ġtyped":12805,"Consumer":12806,"compar":12807,"}},\\":12808,"Execution":12809,"()),":12810,"orrow":12811,"transaction":12812,"Ġsmallest":12813,"Ġvolunte":12814,"ortion":12815,"TestCase":12816,"elian":12817,"ativistic":12818,"Warn":12819,"Ġdip":12820,"#{":12821,"arguments":12822,"agram":12823,"ĠAge":12824,"ĠCNN":12825,"ĠCape":12826,"Ġinduct":12827,"ĠGram":12828,"abet":12829,"ĠFer":12830,"ensing":12831,"Ġnortheast":12832,"ĉĉĉĉĉĉĉĉĉĉ":12833,"Ġdecisions":12834,"iva":12835,"ographical":12836,"isition":12837,"ailability":12838,"typename":12839,"Ġthousands":12840,"inite":12841,"Ġhelps":12842,"aked":12843,"ĠRoy":12844,"_{+":12845,"CONT":12846,"ĠCS":12847,"Ġgene":12848,"Ġgrade":12849,"relative":12850,"CV":12851,"rainian":12852,"Ġinfluenced":12853,"ĠStone":12854,"ĠMean":12855,"FP":12856,"angel":12857,"/\"":12858,"Should":12859,"Rob":12860,"Ġsale":12861,"Ġmit":12862,"ĠAT":12863,"Ġkilling":12864,"Ġbranches":12865,"aza":12866,"Ġratios":12867,"Ġintelligence":12868,"Ġnearest":12869,"illed":12870,"Ġhomes":12871,"Ġequipped":12872,"inema":12873,"Ġcoaches":12874,"ĠNaval":12875,"ĠUV":12876,"ĠSix":12877,"ĠQueensland":12878,"Ġ(,":12879,"collect":12880,"Ġ\\{\\":12881,"ĠBh":12882,"okes":12883,"Ġkeeping":12884,"elson":12885,"ĠLagrangian":12886,"Cur":12887,"fake":12888,"erving":12889,"Ġsimplicity":12890,"stud":12891,"cluding":12892,"ĠAssoci":12893,"Ġstabil":12894,"104":12895,"ĠNich":12896,"ĠHoward":12897,"/{":12898,"assign":12899,"ĠWIDTH":12900,"Ġsubstantial":12901,"Ġanimal":12902,"}{}":12903,"eting":12904,"Ġmig":12905,"GM":12906,"Ġconcerned":12907,"ĠHerm":12908,"Ġpointed":12909,"Ġcomparing":12910,"6666":12911,"Ġmart":12912,"Ġlooks":12913,"dn":12914,"ĠCSS":12915,",'":12916,"Ġwhenever":12917,"who":12918,"midrule":12919,"ocor":12920,"Ġ\"\";":12921,"Ġcompre":12922,"Ġincorporated":12923,"Ġsoci":12924,"ĠLabour":12925,"arry":12926,"Ġpseudo":12927,"1907":12928,"Ïģ":12929,"ĠTokyo":12930,"ĠGreg":12931,"Ġcommands":12932,"Ġrenew":12933,"Ġflu":12934,"disambiguation":12935,"Ġslope":12936,"defn":12937,"Ġfmt":12938,"Ġadaptation":12939,"áĥ":12940,"ĠMond":12941,"mix":12942,"emb":12943,"ateur":12944,"Ġintervals":12945,"Ġdiscussions":12946,"uts":12947,"Ġbroke":12948,">:":12949,"fef":12950,"bridge":12951,"uerto":12952,"ĠLoc":12953,"REG":12954,"Ġmanip":12955,"Ġsituated":12956,"}$\\":12957,"ugu":12958,"Ġexports":12959,"Ġloading":12960,"Ġstrike":12961,">)":12962,"$}}":12963,"Ġneighb":12964,"VAR":12965,"Ġmusician":12966,"ĠAst":12967,")}$.":12968,"Ġhotel":12969,"Television":12970,"Env":12971,"Ġfake":12972,"GER":12973,"Ġdistinguish":12974,"YY":12975,"ĠCulture":12976,"ĠRetri":12977,"ĠDeep":12978,"Insert":12979,"Ġworldwide":12980,"ongo":12981,"Weight":12982,"DOM":12983,"bounds":12984,"ridges":12985,"messages":12986,"âĢĿ.":12987,"cv":12988,"ĠCloud":12989,"ublin":12990,"ĠDiego":12991,"Material":12992,"Ġherself":12993,"Rate":12994,"aman":12995,"kwargs":12996,"ĠAllen":12997,"Ġsolved":12998,"ĠToday":12999,"Ġinduction":13000,"ĠDEFAULT":13001,"phan":13002,"riday":13003,"ĠResponse":13004,"Ġexplos":13005,"ĠTelevision":13006,"jQuery":13007,"mf":13008,"duration":13009,"ĠNick":13010,"Ġpriority":13011,"Ġstructural":13012,"design":13013,"Ġgeodes":13014,"Ġhybrid":13015,"Ġignored":13016,"ĠEs":13017,"ĠRegional":13018,"Join":13019,"}^+":13020,"Ġtranslated":13021,"ĠClient":13022,"cu":13023,"ĠSquadron":13024,"iami":13025,"Ġfitted":13026,"ĠFa":13027,"Ġpractices":13028,"ĠWalter":13029,"tk":13030,"Marker":13031,"Ġconvention":13032,"Ġhistorian":13033,"tb":13034,"ĠRab":13035,"Ġaccompan":13036,"Capt":13037,">;":13038,"examples":13039,"clidean":13040,"Ġsons":13041,"Ġidentifier":13042,"subject":13043,"otional":13044,"Ġlegend":13045,"ĠBureau":13046,"tre":13047,"character":13048,"GeV":13049,"\\}_{":13050,"agger":13051,"})=\\":13052,"leqslant":13053,"Ġqueries":13054,"aten":13055,"Driver":13056,"ĠPerson":13057,"Ġresolved":13058,"Ġinference":13059,"Ġkil":13060,"Ġfacilit":13061,"']);":13062,"Span":13063,"ĠTurkish":13064,"sha":13065,"Ġphotons":13066,"ĠMarine":13067,"Å¾":13068,"ĠSquare":13069,"ĠMand":13070,"Ġjustice":13071,"ĠAlabama":13072,"Ġcollections":13073,"perimental":13074,"cycl":13075,"Edge":13076,"particle":13077,"ĠTerm":13078,"bums":13079,"Zone":13080,"between":13081,"Ġru":13082,"Ġexhibition":13083,"incre":13084,"Setting":13085,"ĠTag":13086,"ANCE":13087,"ĠDescription":13088,"Ġthanks":13089,"]=":13090,"ĠPlayer":13091,"åĲ":13092,"Ġlyrics":13093,"Ġĉ":13094,"Ġrecommended":13095,")_{\\":13096,"Ġstrip":13097,"Ġsparse":13098,"ĠVari":13099,"getElementById":13100,"Ġbug":13101,"Ġrecovery":13102,"oustic":13103,"disable":13104,"learning":13105,"Ġfaced":13106,"destroy":13107,"elines":13108,"anging":13109,"ĠFacebook":13110,"navigation":13111,"Men":13112,"STRING":13113,"Ġdelta":13114,"ĠDefense":13115,"issippi":13116,"Word":13117,"!\"":13118,"three":13119,"Ġgoverning":13120,"Ġrevolution":13121,"Ġenemy":13122,"ĠChile":13123,"eland":13124,"Ġmal":13125,"react":13126,"bone":13127,"Ġfought":13128,"Phil":13129,"FOR":13130,"rod":13131,"ĠNev":13132,"ĠSin":13133,"Ġwants":13134,"ĠBrand":13135,"rena":13136,"rable":13137,"Ġholes":13138,"ikh":13139,"1904":13140,"ĠMC":13141,"ORDER":13142,"ĠLiter":13143,"Ġprofession":13144,"ĠEmperor":13145,"incess":13146,"Ġtemporary":13147,"directory":13148,"Ġban":13149,"ationToken":13150,"ĠPos":13151,"Ham":13152,"ned":13153,"Ġsep":13154,"\\[\\":13155,"Ġkick":13156,"Ġfoundation":13157,"IAL":13158,"uniform":13159,"Ġcompens":13160,"ĠPatrick":13161,"Ġclients":13162,"Clear":13163,"ĠKy":13164,"ĠDoctor":13165,"ĠTen":13166,"ĠHilbert":13167,"ĠĠĠĠĠĠĠĠĠĠĠĠĠĠĠĠĠĠĠĠĠĠĠĠĠĠĠĠĠĠĠĠĠ":13168,"eron":13169,"Ġcook":13170,"Ġstopped":13171,"vb":13172,"Ġattacked":13173,"enny":13174,"aments":13175,"lm":13176,"Ġfits":13177,"ORY":13178,"rint":13179,"Ġremainder":13180,"Ġanalys":13181,"Ġairport":13182,"Ġ'';":13183,"ĠFM":13184,"Ġiterations":13185,"ĠOptional":13186,"Ġtemple":13187,"blob":13188,"Ġvm":13189,"Ġjazz":13190,"Compiler":13191,"assertTrue":13192,"acew":13193,"ĠRic":13194,"ĠSenior":13195,"alert":13196,"NET":13197,"ĠHeart":13198,"tah":13199,"Ġstanding":13200,"ĠBab":13201,"ĠOklahoma":13202,"Audio":13203,"Ġdirectors":13204,"Ġ\"\",":13205,"omorphisms":13206,"emony":13207,"ĠLank":13208,"gov":13209,"ĠOrth":13210,"UV":13211,"care":13212,"middle":13213,"Ġpublish":13214,"formed":13215,"speed":13216,"ĠCare":13217,"ĠTemple":13218,"ĠInfantry":13219,"ĠBox":13220,"extra":13221,"Validator":13222,"program":13223,"Ġrectangle":13224,"EST":13225,"commons":13226,"Ġsupposed":13227,"inch":13228,"Ġchurches":13229,"uffers":13230,"Ġoffices":13231,"ApJ":13232,"Ġelif":13233,"Ġtriangle":13234,"pb":13235,"ĠGun":13236,"Ġmob":13237,"ĠCer":13238,"ĠPut":13239,"oths":13240,"Ġplease":13241,"aro":13242,"ĠOS":13243,"Ġtables":13244,"factor":13245,"Ġpurchase":13246,"Ġdesigns":13247,"Ġconstitut":13248,"olished":13249,"ĠBarn":13250,"|_{\\":13251,"Ġclassic":13252,"approxim":13253,"Ġpublications":13254,"Ġconnecting":13255,"ĠIllegal":13256,"ulp":13257,"commit":13258,"driver":13259,"Ġappre":13260,"Ġvo":13261,"ipher":13262,"Ġconsisted":13263,"ĠBillboard":13264,"selection":13265,"Week":13266,"acon":13267,"Ġcosmological":13268,":@\"":13269,"åħ":13270,"owned":13271,"cov":13272,"Ġresonance":13273,"Ġaugment":13274,"iary":13275,"Ġpacket":13276,"endment":13277,"Complete":13278,"Ġstats":13279,"cers":13280,"lia":13281,"hensive":13282,"ĠQuebec":13283,"Ġadult":13284,"ĠÄ":13285,"ĠKer":13286,"Ġmedi":13287,"ĠWAR":13288,"Ġfiber":13289,"comes":13290,"Ġposterior":13291,"Govern":13292,"Ġfounding":13293,"Ġhandling":13294,"loaded":13295,"ĠKat":13296,"ĠĠĠĠĠĊ":13297,"ĠKitt":13298,"inistic":13299,"Strategy":13300,"don":13301,"Counter":13302,"aze":13303,"deprecated":13304,"Major":13305,"Ġelementary":13306,"Ġinfrastructure":13307,"ĠOfficer":13308,"ĠGab":13309,"ĠNorwegian":13310,"Ġalert":13311,"submit":13312,"ĠCEO":13313,"ĠDream":13314,"Ġexperienced":13315,"Ġintersect":13316,"iline":13317,"ĠPython":13318,"phony":13319,"Static":13320,"Ġcounts":13321,"Ġsingers":13322,"govern":13323,"Library":13324,"Ġds":13325,"Ġsurve":13326,"Ġtransformations":13327,"Ġdelivered":13328,"ĠNFL":13329,"nan":13330,"ĠHans":13331,"ipart":13332,"loyd":13333,"Ġeasier":13334,"Linear":13335,"Ġaired":13336,"Ġcomplicated":13337,"Ġtrav":13338,"ĠExpress":13339,"Ġpayload":13340,"ĠWy":13341,"Processor":13342,"Users":13343,"Ġaged":13344,"ĠNewton":13345,"watch":13346,"ĠPi":13347,"Ġpromise":13348,"ĠEqs":13349,"previous":13350,"Ġspherical":13351,"Ġcod":13352,"ĠPA":13353,"Ġminute":13354,"Ġsignificance":13355,"Education":13356,"estim":13357,"ĠConnecticut":13358,"sis":13359,"Usage":13360,"fefefe":13361,"Ġ\\}":13362,"ĠChange":13363,"ĠGall":13364,"Ġinterpreted":13365,"otten":13366,"Ġalignment":13367,"Ġknew":13368,"given":13369,"ĠJun":13370,"ĠCroat":13371,"antasy":13372,"Offic":13373,"Ġlawyer":13374,"Ġaccompl":13375,"ĠKa":13376,"ĠAbd":13377,"ĠSilver":13378,"scss":13379,"Ġretirement":13380,"Ġbiggest":13381,"Ġenumer":13382,"ulner":13383,"allenge":13384,"Ġencoded":13385,"Ġanyone":13386,"Ġneutron":13387,"Ġbold":13388,"angles":13389,"Ġresponsibility":13390,"ĠDonald":13391,"Ġforming":13392,"pd":13393,"Ġimplied":13394,"ificial":13395,"ste":13396,"Renderer":13397,"animation":13398,"Born":13399,"Throw":13400,"Ġrein":13401,"Arguments":13402,"Ġeigenvalue":13403,"jax":13404,"ĠFix":13405,"ĠMedicine":13406,"inces":13407,"Ġexperiences":13408,"Ġclustering":13409,"]))":13410,"Ġassociate":13411,"Ġcenturies":13412,"Ġlake":13413,")}$,":13414,"uits":13415,"Ġworker":13416,"ĠEric":13417,"Ġestablishment":13418,"forEach":13419,"Ġbid":13420,"Ġconcrete":13421,"Ġestimator":13422,"Ġlegislation":13423,"Gui":13424,"Ġmental":13425,"hot":13426,"ellij":13427,"Ġcommissioned":13428,"RESU":13429,"pheric":13430,"Ġhosts":13431,"Ġadvent":13432,"lined":13433,"Analy":13434,"1901":13435,"ĠAfghan":13436,"oslav":13437,"Ġstationary":13438,"FIELD":13439,"IMPORTED":13440,"ĠMatt":13441,"Notable":13442,"Ġroof":13443,"Ġhits":13444,"Ġaccommod":13445,"independent":13446,"Ġwa":13447,"ĠLic":13448,"Also":13449,"ĠAssum":13450,"WEBPACK":13451,"Ġtack":13452,"Ġblow":13453,"Ġpermissions":13454,"Ġopera":13455,"ĠProdu":13456,"utable":13457,"cht":13458,"Ġsurname":13459,"ĠPas":13460,"rat":13461,"uable":13462,"lon":13463,"Ġdecreasing":13464,"Academ":13465,"jb":13466,"NotFound":13467,"ĠBlo":13468,"mapping":13469,"Vill":13470,"Bigl":13471,"Information":13472,"Ġsurg":13473,"Ġgeneralization":13474,"ulo":13475,"Ġsoutheast":13476,"cus":13477,"Ġ_{\\":13478,"Ġempirical":13479,"Ġturbul":13480,"Ġinvert":13481,"hal":13482,"ĠSR":13483,"Ġpenalty":13484,"sharp":13485,"Ġperforms":13486,"SCRIPT":13487,"rison":13488,"Ġdisestabl":13489,"Ġmembership":13490,"118":13491,"ĠTaiwan":13492,"Cref":13493,"Ġpub":13494,"fetch":13495,"ĠJay":13496,"Pal":13497,"Ġdismiss":13498,"^+$":13499,"Ġpropagation":13500,"icator":13501,"warn":13502,"ĠAgency":13503,"Ġ{},":13504,"ospit":13505,"ĠDick":13506,"Ġrating":13507,"ĠAud":13508,"fmt":13509,"Border":13510,"Ġfold":13511,"Ġ'./":13512,"ĠCommonwealth":13513,"smallskip":13514,"Ġcro":13515,"door":13516,"pic":13517,"ĠArmen":13518,"Ġpeer":13519,"Ġalpha":13520,"Ġmanuscript":13521,"Ġruled":13522,"ĠPortuguese":13523,"ournals":13524,"UES":13525,"Ġliterary":13526,"ĠPlace":13527,"Bad":13528,"Based":13529,"Ġseparately":13530,"Ġgoods":13531,"ĠAbstract":13532,"512":13533,"Ġlabeled":13534,"ĠÐ²":13535,"ige":13536,"Ġpreferred":13537,"ĠFuture":13538,"103":13539,"Ġhair":13540,"underset":13541,"country":13542,"Ġchallenging":13543,"Ġisomorphic":13544,"uber":13545,"ĠJam":13546,"Ġutility":13547,"nc":13548,"Ġassistance":13549,"Recall":13550,"Ġ'.":13551,"Ð¿":13552,"shop":13553,"Furthermore":13554,"intellij":13555,"}{*}{":13556,"ĠBeng":13557,"Ġplasma":13558,"ashi":13559,"trl":13560,"Ġdry":13561,"perature":13562,"Ġordering":13563,"ĠAle":13564,"ĠVideo":13565,"alia":13566,"Ġkinetic":13567,"asa":13568,"amps":13569,"Append":13570,"Ġsevere":13571,"ĠDO":13572,"Ġlogging":13573,"acer":13574,"incor":13575,"Ġopportunities":13576,"empl":13577,"ĠFle":13578,"Present":13579,"ĠLouisiana":13580,"rik":13581,"ĠSH":13582,"porter":13583,"Ġhighway":13584,"remarks":13585,"license":13586,"spacing":13587,"ktop":13588,"Ġenvironments":13589,"shell":13590,"Ġul":13591,"XY":13592,"cycle":13593,"Ġcenters":13594,"aco":13595,"Ġangles":13596,"ĠIsraeli":13597,"ĠSaturday":13598,"Ġdrivers":13599,"Ġpayment":13600,"Ġcru":13601,"division":13602,"Ġbrown":13603,"scribe":13604,"Contact":13605,"uction":13606,"Ġdwar":13607,"Navigation":13608,"ĠMoon":13609,"isons":13610,"ĠNag":13611,"ctors":13612,"Ġworst":13613,"Ġcontroll":13614,"Drop":13615,"inian":13616,"Console":13617,"contact":13618,"opher":13619,"Ġreducing":13620,"Ġsteel":13621,"Ġconsumer":13622,"Ġfranch":13623,"pkg":13624,"ividual":13625,"Ġordinary":13626,"ecture":13627,"iden":13628,"Ġastr":13629,"ĠWIT":13630,"Ġplatforms":13631,"ĠBattalion":13632,"covery":13633,"alias":13634,"ĠVin":13635,"Diff":13636,"Through":13637,"Schedul":13638,"Ġarrival":13639,"LED":13640,"Ġanimated":13641,"Der":13642,"Ġalgebras":13643,"Ġsubsid":13644,"Ġsigns":13645,"Ġguns":13646,"ĠHollywood":13647,"Mal":13648,"gred":13649,"ĠLoad":13650,"aintenance":13651,";\"|":13652,"rypted":13653,"Ġsatellite":13654,"getId":13655,"Ġstating":13656,"ĠSwiss":13657,"Ġconverges":13658,"×ķ":13659,"Ġ'',":13660,"triangle":13661,"BY":13662,"Ġterminal":13663,"ĠEuro":13664,"ĠHonor":13665,"Ġassets":13666,"Ġshares":13667,"Roman":13668,".&.&.&.&":13669,"ĠArgentina":13670,"CN":13671,"Ġreaches":13672,"Ġlob":13673,"Ġamounts":13674,"Ġsud":13675,"ĠMoore":13676,"Ġ>>>":13677,"Bigr":13678,"ĠRemove":13679,"Ġsupplied":13680,"}<":13681,"Ġinhabit":13682,"Green":13683,"craft":13684,"Ġfalls":13685,"Ġresid":13686,"Ġsumm":13687,"ĠPay":13688,"ĠApplication":13689,"ĠApple":13690,"sson":13691,"best":13692,"blog":13693,"Ġcompetitions":13694,"ragma":13695,"ĠHarris":13696,"rn":13697,"Pat":13698,"ĠNik":13699,"Ġoutcome":13700,"anton":13701,"Ġtries":13702,"1902":13703,"ibl":13704,"ladesh":13705,"Ġhardware":13706,"ĠSud":13707,"Ġparticipate":13708,"ntil":13709,"Platform":13710,"ĠFull":13711,"Ġunitary":13712,"Cursor":13713,"ĠAnne":13714,"Ca":13715,"ĠSel":13716,"Ġ\"%":13717,"RESULT":13718,"Ġincreasingly":13719,"aron":13720,"reement":13721,"Ġpresc":13722,"archive":13723,"ĠBulg":13724,"both":13725,"Ġanisot":13726,"Ra":13727,"encode":13728,"1903":13729,"schem":13730,"BT":13731,"ĠPope":13732,"_{[":13733,"ĠLiberal":13734,"esis":13735,"EEE":13736,"arial":13737,"opter":13738,"Ġwasn":13739,"compact":13740,"riteria":13741,"ĠEarly":13742,"Ġwaiting":13743,"Ġorbits":13744,"Ã´":13745,"Ġlaid":13746,"ĠGard":13747,"Indian":13748,"Ġplots":13749,"Ġspeaking":13750,"isations":13751,"Numer":13752,"Random":13753,"ĠAGN":13754,"ĠCemetery":13755,"Ġinstruments":13756,"FFER":13757,"Ġsb":13758,"imore":13759,"istogram":13760,"Ġinvited":13761,"âĢĿ,":13762,"AUT":13763,"elescope":13764,"song":13765,"East":13766,"Ġur":13767,"Ġtd":13768,"reader":13769,"NODE":13770,"reens":13771,"San":13772,"Shared":13773,"Standard":13774,"scala":13775,"cost":13776,"Ġapilevel":13777,"Ġtunnel":13778,"ï¼Į":13779,"metic":13780,"Ġvoted":13781,"Ġprobabilities":13782,"Ġsocket":13783,"Ġmouse":13784,"Ġrecovered":13785,"argo":13786,"Forms":13787,"orb":13788,"half":13789,"fff":13790,"vi":13791,"vdots":13792,"assum":13793,"ĠMS":13794,"pload":13795,"Abs":13796,"smooth":13797,"Old":13798,"Mag":13799,"etary":13800,"Ãł":13801,"Ġreserve":13802,"Ġtrip":13803,"Ġpione":13804,"ARD":13805,"ĠFermi":13806,"rock":13807,"Ġscientists":13808,"107":13809,"Ġmm":13810,"NUM":13811,"Ġsensor":13812,"compute":13813,"chell":13814,"Ġengaged":13815,"Series":13816,"Mich":13817,"toBe":13818,"ĠHouston":13819,"Ġlit":13820,"Ġaveraged":13821,"ĠNam":13822,"Ġcompris":13823,"/*!":13824,"rep":13825,"Ġmile":13826,"ĠKam":13827,"qual":13828,"Ġpaintings":13829,"Ġcontradiction":13830,"Ġnavbar":13831,"ĠServer":13832,"phrase":13833,"ackson":13834,"Ġconvenient":13835,"ĠAnthony":13836,"ĠRiemann":13837,"Html":13838,".\"\"\"":13839,"Future":13840,"Football":13841,"Ġsleep":13842,"Errors":13843,"Bottom":13844,"valued":13845,"ĠHarvard":13846,"rama":13847,"orous":13848,"ĠGordon":13849,"mitter":13850,"ĠBelgium":13851,"Ġgraduate":13852,"'$.":13853,"ĠHawai":13854,"[]{":13855,"Ġrefuge":13856,"Groups":13857,"Ġswe":13858,"Ġfavour":13859,"\\/":13860,"contents":13861,"Ġhal":13862,"scriptscriptstyle":13863,"notin":13864,"ASSERT":13865,"issance":13866,"Military":13867,"Convert":13868,"Tasks":13869,"Ġmort":13870,"Bigg":13871,"Batch":13872,"Binding":13873,"Ġfly":13874,"135":13875,"tures":13876,"LY":13877,"äº":13878,"ĠRol":13879,"Ġengines":13880,"Rich":13881,"city":13882,"Ġrealized":13883,"Ġcrowd":13884,"Drag":13885,"owntown":13886,"hill":13887,"Ġ\".":13888,"ĠFind":13889,"Ġmacro":13890,"/\">":13891,"ĠIter":13892,"measure":13893,"Ġtokens":13894,"Ġmathematical":13895,"validation":13896,"HEAD":13897,"Ġ$_":13898,"Ġprivacy":13899,"Resolver":13900,"Disc":13901,"nik":13902,"Ġsplitting":13903,"problem":13904,"uis":13905,"uh":13906,"Ġsportspeople":13907,"Ġdepicted":13908,"Ġscr":13909,"Ġfaces":13910,"ĠTree":13911,"]+":13912,"ĠHeritage":13913,"pshire":13914,"Ġacknowled":13915,"ĠDouglas":13916,"ĠDisney":13917,"Ġwrites":13918,"ishment":13919,"Ġrunner":13920,"Ġimpossible":13921,"Ġease":13922,"Europe":13923,"syn":13924,"ccc":13925,"1880":13926,"erred":13927,"\">(":13928,"Ġstadium":13929,"nob":13930,"IZ":13931,"ugar":13932,"ĠMississippi":13933,"Ġinitialize":13934,"respect":13935,"106":13936,"Ġoverlap":13937,"ahn":13938,"works":13939,"native":13940,"oidal":13941,"ĠStruct":13942,"Rober":13943,"Ġlogarith":13944,"ĠAlber":13945,"ĠWARRAN":13946,"ĠNCAA":13947,"ĠCru":13948,"Ġinaug":13949,")\",":13950,"Ġharmonic":13951,"Ġrestrictions":13952,"logo":13953,"Ġperturbations":13954,"ĠFall":13955,"Ġfeas":13956,"ĠHotel":13957,"Ġcircles":13958,"ĠDak":13959,"Ġfindings":13960,"igious":13961,"Ġcricket":13962,"BH":13963,"Ġintrinsic":13964,"Ġceremony":13965,"INSERT":13966,"Ġconformal":13967,"Ġcarrying":13968,"Ġagencies":13969,"loading":13970,"ĠMarkov":13971,"ĠKnow":13972,"David":13973,"ATCH":13974,"Like":13975,"ĠDur":13976,"Ġtennis":13977,"Ġtracking":13978,"Ġphilosophy":13979,"Ġsoccer":13980,"Club":13981,"ĠÑģ":13982,"Cr":13983,"ĉĉĠĠĠ":13984,"four":13985,"bolic":13986,"allas":13987,"(\"#":13988,"ĠGrad":13989,"ĠContin":13990,"ĠVillage":13991,"porated":13992,"died":13993,"Ġprohib":13994,"Points":13995,"Ġinvent":13996,"Messages":13997,"strings":13998,"Ġcentered":13999,"ĠCow":14000,"ä½":14001,"Ġshadow":14002,"Ġcone":14003,"gh":14004,"Ġunus":14005,"overty":14006,"correspond":14007,"Ġvolumes":14008,"frag":14009,"<<":14010,"ĠSimple":14011,"ĠTerrit":14012,"Ġconcerning":14013,"Ġfulfill":14014,"Ġsys":14015,"ĠLP":14016,"Ġsituations":14017,"ĠBry":14018,"Ġacid":14019,"capt":14020,"Mo":14021,"Mapper":14022,"rations":14023,"Ġreception":14024,"Ġhear":14025,"Ġplotted":14026,"Analysis":14027,"Ġmetres":14028,"esome":14029,"_{-\\":14030,"$&":14031,"ders":14032,"Ġaccord":14033,"Ġsql":14034,"Signature":14035,"RED":14036,"Ġvacc":14037,"|_":14038,"Ġresponses":14039,"Ġpretty":14040,"Ġslot":14041,"wen":14042,"Ġnan":14043,"City":14044,"Ġduty":14045,";\\;":14046,"Ġaccused":14047,"Ġcriterion":14048,"$_{\\":14049,"About":14050,"uchy":14051,"Ġsustain":14052,"}})$":14053,"ãĢĤ":14054,"Ġcovariance":14055,"generate":14056,"å¤":14057,"Ġimpl":14058,"Ġgenerators":14059,"REE":14060,"ĠIss":14061,"Ġmerger":14062,"ĠEU":14063,"Ġbed":14064,")&":14065,"109":14066,"Ġprovision":14067,"1024":14068,"Ġguarantee":14069,"Virtual":14070,"Ġelectro":14071,"ĠDigital":14072,"Deprecated":14073,"ĠKaz":14074,"Mus":14075,"108":14076,"Annotation":14077,"Ġconcepts":14078,"inburgh":14079,"Ġsed":14080,"into":14081,"icode":14082,"Ġfired":14083,"ĠBush":14084,"Ġprojective":14085,"Former":14086,"Ġ\\:":14087,"ĠIndependent":14088,"ĠDouble":14089,"Ġhero":14090,"Ġprinciples":14091,"Ġlocalized":14092,"ĠPrix":14093,"days":14094,"Ġbringing":14095,"Ã«":14096,"ĠBuck":14097,"Ġpoetry":14098,"Ġham":14099,"Amount":14100,"iso":14101,">\"":14102,"Ġaccessible":14103,"Ġbacking":14104,"Ġabandoned":14105,"Ġconsideration":14106,"eb":14107,"Pod":14108,"leveland":14109,"Super":14110,"usr":14111,"Ġbars":14112,"ĠTreat":14113,"Tube":14114,"bow":14115,"ĠYouth":14116,"Ġmining":14117,"tol":14118,"repository":14119,"UND":14120,"fortunately":14121,"ĠItem":14122,"GG":14123,"mr":14124,"Ġsharp":14125,"COUN":14126,"icide":14127,"Ġregularly":14128,"Ġri":14129,"UST":14130,"ĠPur":14131,"Where":14132,"olas":14133,"pf":14134,"ĠHockey":14135,"1234":14136,"VP":14137,"Ġtrajectories":14138,"ĠLINE":14139,"WIN":14140,"ĠDal":14141,"ĠEag":14142,"Ġdescend":14143,"Ġownership":14144,"Publ":14145,"Failure":14146,"Ġgenerates":14147,"uity":14148,"cassandra":14149,"ĠTraining":14150,";|":14151,"ÙĨ":14152,"foreach":14153,"Ġentrance":14154,"COMM":14155,"ĠAlice":14156,"team":14157,"ĠChampions":14158,"Runner":14159,"ĠBrigade":14160,"Ġexposure":14161,"Ġpartnership":14162,"Ġfermion":14163,"ĠDeath":14164,"ÐµÑĢ":14165,"ĠTwitter":14166,"Ġjs":14167,"Ġiterator":14168,"Ġcustomers":14169,"?\"":14170,"tip":14171,"Ġmarkets":14172,"Prev":14173,"Ġinflation":14174,"HERE":14175,"heading":14176,"Cmd":14177,"ĠCav":14178,"ĠDictionary":14179,"eget":14180,"itics":14181,"ĠLib":14182,"}}=\\":14183,"Ġinjured":14184,"ĠðŁ":14185,"opsis":14186,"Bounds":14187,"MMARY":14188,"iri":14189,"ĠNatural":14190,"Ġrival":14191,"Ġig":14192,"\"},":14193,"ellect":14194,"Timer":14195,"Ġpup":14196,"spaces":14197,"determ":14198,"Ġmanage":14199,"binary":14200,"ĠAntonio":14201,"Ġpeaks":14202,"sz":14203,"Center":14204,"Ġmatched":14205,"Ġdrawing":14206,"Ġsynd":14207,"Ġsemantic":14208,"ĠGraph":14209,"Ġdetermines":14210,"Ġreject":14211,"Ġdiverse":14212,"Ġreflection":14213,"Si":14214,"Ġdisjoint":14215,"Ġdiagn":14216,"dashed":14217,"atched":14218,"Ġtopics":14219,"Ġveter":14220,"Tile":14221,"ulum":14222,"Ġheter":14223,"Login":14224,"sburgh":14225,"ĠFried":14226,"ĠQuery":14227,"Encoding":14228,"ĠInit":14229,"ĠProp":14230,"Works":14231,"ĠKo":14232,"ĠMrs":14233,"Stub":14234,"ĠMatthe":14235,"Ġabundance":14236,"ju":14237,"mutable":14238,"ĠĠĠĠĠĠĠĠĠĠĠĠĠĠĠĠĠĠĠĠĠĠĠĠĠĠĠĠĠĠĠĠĠĠĠĠĠĠĠĠĠĠĠĠĠĠĠ":14239,"Ġpassenger":14240,"ĠPuerto":14241,"rypto":14242,"scious":14243,"Ġboat":14244,"abad":14245,"124":14246,"ĠConstitution":14247,".*;":14248,"Ġsmart":14249,"casting":14250,"Ġwel":14251,"Export":14252,"din":14253,"Ġlocomot":14254,"Vec":14255,"ratio":14256,"aire":14257,"ACH":14258,"ĠDenmark":14259,"Kn":14260,"rett":14261,"Culture":14262,"ributions":14263,"Ġcaught":14264,"ĠTab":14265,"ATOR":14266,"Metrics":14267,"obi":14268,"ĠAlb":14269,"ĠRound":14270,"ĠSeveral":14271,"Ġpulse":14272,"\\|^":14273,"Master":14274,"Axis":14275,"ĠFOR":14276,"Ġinterference":14277,"overset":14278,"Ġsharing":14279,"asp":14280,"Ġdiscontin":14281,"delay":14282,"surface":14283,"|=":14284,"dual":14285,"Ġfs":14286,"charge":14287,"Ġdebate":14288,"ampling":14289,"ĠJson":14290,"192":14291,"Ġarmed":14292,"Ġtexture":14293,"Accept":14294,"kee":14295,"ĠStream":14296,"Ġ&$":14297,"Ġpron":14298,"Ġbelonging":14299,"ethe":14300,"Histor":14301,"ayan":14302,"GBT":14303,"ASK":14304,"bounded":14305,"ĠPortugal":14306,"Ġedit":14307,"}~\\":14308,"Ġpreserved":14309,"Ġnormalization":14310,"Ġ<-":14311,"ensitive":14312,"Just":14313,"pages":14314,"Ġphotos":14315,"ilst":14316,"ĠLaure":14317,"logging":14318,"ĠResults":14319,"Ġlands":14320,"00000000":14321,"Comb":14322,"ĠĠĠĠĠĠĠĠĠĠĊ":14323,"Rightarrow":14324,"Ġfear":14325,"Ġedited":14326,"ĠConfiguration":14327,"Because":14328,"Ġmolecules":14329,"prom":14330,"Ġcompliance":14331,"Holder":14332,"350":14333,"Ġeyes":14334,"GEN":14335,"Ġvic":14336,"ĠCarlo":14337,"rfloor":14338,"Ġweakly":14339,"score":14340,"Ð°ÑĤ":14341,"Ġstrugg":14342,"ĠVirtual":14343,"Ġ----------------------------------------------------------------":14344,"Drawing":14345,"Ġsubsets":14346,"ecl":14347,"Ġpit":14348,"olly":14349,"audio":14350,"ĠPhill":14351,"ĠNash":14352,"Az":14353,"Ġoffering":14354,"Ġdream":14355,"^*_":14356,"ĠAssume":14357,"Permission":14358,"ĠHu":14359,"ĠMiami":14360,"ĠScient":14361,"Ġthrown":14362,"Ġcorrespondence":14363,"ounced":14364,"Ġfiled":14365,"Ġsteady":14366,"Ġoperates":14367,"Acknow":14368,"Ġgrows":14369,"ĠclassName":14370,"Ġsynthetic":14371,"Ä«":14372,"Ġbirds":14373,"ĠPot":14374,"Ġfleet":14375,"Ġtuple":14376,"away":14377,"Ġgrounds":14378,"gz":14379,"1898":14380,"tection":14381,"referred":14382,"ÏĢ":14383,"Ġ$\\|":14384,"Ġreign":14385,"Ġcopyright":14386,"ania":14387,"FALSE":14388,"Grad":14389,"Ġcompete":14390,"Ġpreserve":14391,"Ġcourts":14392,"240":14393,"Ġkid":14394,"Ġexcited":14395,"canvas":14396,"boards":14397,"Ġscholars":14398,"ĠDVD":14399,"ERS":14400,"enezuel":14401,"BIT":14402,"TY":14403,"Ġchair":14404,"Chain":14405,"acewatch":14406,"profit":14407,"ĠSW":14408,"ĠSamuel":14409,"ĠHug":14410,"Ġneglig":14411,"ĠReference":14412,"Ġoverflow":14413,"Ġranking":14414,"Ġ'%":14415,"Verify":14416,"Ġinvasion":14417,"mac":14418,"Ġgreatly":14419,"ĠDetroit":14420,"ried":14421,"Ġmanifest":14422,"pler":14423,"Ġdelegate":14424,"uki":14425,"gent":14426,"getInstance":14427,"Na":14428,"ĠJuan":14429,"ÅŁ":14430,"Ġmesh":14431,"Ġsecretary":14432,"Ġnick":14433,"Ġearliest":14434,"Addr":14435,"Ġcycles":14436,"ĠVALIGN":14437,"Tuple":14438,"Rows":14439,"irms":14440,"Inf":14441,"ĠMaur":14442,"ailand":14443,"Ġexpensive":14444,"etition":14445,"Ġpresentation":14446,"Ġconsiderable":14447,"ĠErn":14448,"calcul":14449,"Bro":14450,"\\,,":14451,"lfloor":14452,"bach":14453,"Ġmarginal":14454,"except":14455,"Ġsync":14456,"labels":14457,"kernel":14458,"mouth":14459,"interval":14460,"bia":14461,"Ġmarker":14462,"Ġremoving":14463,"Ġsight":14464,"dispatch":14465,"orses":14466,"calendar":14467,"ĠContent":14468,"Ġtropical":14469,"}_{{\\":14470,"ĠOrchestra":14471,"×ķ×":14472,"Ġcum":14473,"processing":14474,"Ġconservative":14475,"inates":14476,"á»":14477,"mathbbm":14478,"ĠConstant":14479,"ĠDanish":14480,"Columns":14481,"Contains":14482,"Dependency":14483,"rele":14484,"Ġmechanical":14485,"Ġvictims":14486,"Ġinherited":14487,"links":14488,"Rot":14489,"velope":14490,"ĠVolume":14491,"Ġuniversities":14492,"Quant":14493,"Ġcorn":14494,"pref":14495,"ĠPed":14496,"Ġmedicine":14497,"Spr":14498,"ĠHills":14499,"ĠLjava":14500,"Ġatmosphere":14501,"Reception":14502,"=%":14503,"220":14504,"priv":14505,"bn":14506,"ĠMayor":14507,"ĠPrivate":14508,"INST":14509,"ĠNob":14510,"Ġanth":14511,"ĠDave":14512,"ĠDesc":14513,"Ġcourses":14514,"Ġpublishing":14515,"optim":14516,"Ġrepository":14517,"cn":14518,"')$":14519,"Ġjuris":14520,"kan":14521,"ĠPrint":14522,"'}\\":14523,"ĠResult":14524,"Ġspacetime":14525,"Ġconsumption":14526,"iliar":14527,"Ġoccas":14528,"March":14529,"Ma":14530,"ĠSpacewatch":14531,"Ġentering":14532,"ĠPC":14533,"ounsel":14534,"getString":14535,"Ġemergency":14536,"ĠBou":14537,"Paul":14538,"Ġhired":14539,"_)":14540,"Integ":14541,"ĠContext":14542,"ĠBus":14543,"Ġfault":14544,"ĠDublin":14545,"Ġdecide":14546,"bara":14547,"ssl":14548,"'$,":14549,"TM":14550,"urrican":14551,"Ġislands":14552,"Ġabuse":14553,"ĠBrazilian":14554,"atom":14555,"uplicate":14556,"Ġcomic":14557,"ĠFriday":14558,"Ġseeing":14559,"oubt":14560,"Ġlifetime":14561,"Ġmixture":14562,"=-\\":14563,"Ġteachers":14564,"Ġcrash":14565,"Ġdies":14566,"father":14567,"ido":14568,"BUIL":14569,"ĠOutput":14570,"Machine":14571,"Stud":14572,"144":14573,"Ġattributed":14574,"Ġrecordings":14575,"Ġencoder":14576,"Ġcustomer":14577,"(()":14578,"ĠThread":14579,"oids":14580,"Ġcouplings":14581,"ĠIndonesia":14582,"danger":14583,"mobile":14584,"Ġtransformed":14585,"Ġprepare":14586,"Thom":14587,"Ġchoosing":14588,"Ġlandscape":14589,"=&":14590,"Ġgran":14591,"1899":14592,"Ġdifficulty":14593,"190":14594,"ĠSelect":14595,"ATED":14596,"Ġpriest":14597,"Ġcollisions":14598,"ĠSite":14599,"Ġinherit":14600,"Site":14601,"ĠLam":14602,"Ġcohom":14603,"ĠLawrence":14604,"900":14605,"Ġoccupation":14606,"hour":14607,"ĠGP":14608,"1870":14609,"Ġpole":14610,"ĠFinn":14611,"Ġreveals":14612,"million":14613,
[...]
