#version: 0.2
Ġ Ġ
Ġ t
i n
h e
Ġ a
o n
e r
r e
a t
Ġt he
e n
o r
Ġ s
a l
ĠĠ ĠĠ
i s
i t
a n
Ġ o
e s
a r
Ġ c
e d
Ġ w
i on
Ġ f
Ġo f
n d
Ġ in
Ġ p
Ġ b
l e
i c
in g
r o
a s
Ġa nd
Ġ \
Ġ d
Ġ m
c t
Ġt o
Ġ $
e l
e t
en t
o u
i l
i g
a m
s t
o m
Ġ re
Ġ h
Ġt h
at ion
o l
r a
Ġ S
Ġ (
i m
Ġ T
Ġ n
Ġ e
o t
Ġ C
Ġ l
Ġ A
Ġ is
i d
ĠĠ Ġ
c e
ĠĠĠĠ ĠĠĠĠ
i v
{ \
u r
u t
c h
Ġf or
s e
u l
Ġ g
Ġ M
o w
l y
Ġ on
a d
Ġ I
u m
q u
a b
e m
u s
it h
u n
v er
t er
Ġ B
Ġs t
2 0
Ġ P
Ġb e
o d
i r
i f
_ {
Ġa s
Ġc on
Ġth at
a y
t h
at h
a g
e g
Ġ H
Ġw ith
is t
â Ģ
en d
Ġ F
Ġ R
er s
Ġ$ \
1 9
Ġ v
ct ion
ĠT he
Ġa l
Ġ D
Ġ L
p e
an d
Ġ =
ig h
č Ċ
Ġa n
r i
Ġp ro
he r
a c
Ġb y
re s
at e
v e
Ġ Ċ
m ath
es t
Ġ W
Ġw as
o s
Ġ N
Ġ G
p h
e x
t a
o c
it y
u p
a p
ro m
o p
Ġ E
Ġ &
Ġw h
Ġa t
Ġd e
u b
igh t
Ġc om
} \
Ġe x
ar t
} $
u re
o re
in e
ĠĠĠĠ ĠĠĠ
^ {
Ġa re
Ġ it
i es
e w
Ġf rom
al l
i al
ĉ ĉ
es s
p l
il l
Ġw e
it e
Ġs e
g e
Ġ J
or t
m a
p t
an t
re f
Ġ or
iv e
u d
m ent
Ġ O
Ġ he
Ġ r
b er
Ġ {
T he
as s
} }
u e
i z
am e
a k
Ġ "
( \
l d
e ct
) ;
ex t
f t
o g
ic h
n t
ra c
ou r
' s
Ġth is
in t
ul t
p er
at ed
el l
e f
c l
r an
eg in
ar d
b egin
ic al
Ġ U
20 1
Ġc h
ar y
u nd
- -
Ġs h
Ġ K
Ġ y
i an
i p
0 0
it ion
or m
ig n
c al
) $
_ {\
) ,
Ġc l
Ġcom p
a ve
Ġ le
ag e
u st
i a
a re
Ġn ot
ĠI n
Ġp l
} {
e p
Ġ *
on g
ac k
en s
as t
f f
Ġre s
Ġ k
Ġ -
p ro
Ġ <
c on
ation s
} ,
u g
/ /
e q
f rac
d u
Ġwh ich
âĢ ĵ
i re
ĠS t
t ext
a v
ab le
o st
ĠĠĠĠĠĠĠĠ ĠĠĠ
e qu
p ort
or d
) .
a ce
r m
t o
en ce
Ġc an
Ġ V
r ight
s o
or k
Ġ us
= "
a in
c c
as e
im e
Ġw he
20 0
t her
Ġh ave
c ite
Ġ }
ab el
id e
l ow
ion s
Ġ un
en c
i b
ur n
o v
an g
a ct
il d
I n
r ic
math b
t he
in d
Ġh is
e ar
Ġ |
Ġa p
ou s
er e
r y
Ġh as
a ch
en er
$ ,
r u
et a
l abel
o k
Ġ im
ou t
ĠC h
âĢ Ļ
is h
$ .
, \
o ver
f orm
f er
c om
Ġa b
Ġa d
Ġal so
ic e
Ġ if
er v
1 8
ĠT h
le ft
math cal
ĠĠĠĠĠĠĠĠ ĠĠĠĠĠĠĠĠ
equ ation
i le
1 0
ou ld
ro w
un ction
ou nd
or y
Ġ j
m er
f ig
ir st
er m
ow n
u se
Ġ +
Ġa r
} .
e c
ent s
} )
ol d
w o
ĠĠĠĠ Ġ
Ġp art
. .
Ġs u
Ġm od
Ġw ere
< /
Ġon e
ter n
an ce
Ġal l
ta in
re e
Ġcon t
ri b
at es
k e
} (
or s
el y
Ġs p
cl ud
p s
ran s
Ġo b
} ^
Ġd is
at a
res s
~ \
am b
j ect
l ine
i e
al ly
w e
ar k
p le
r it
} _
om e
ou nt
l l
o se
s um
ph a
o b
t urn
s p
Ġ qu
ic s
pe ct
al pha
Ġm e
od e
Ġp er
r ing
Ġb ut
d a
y pe
ub l
Ġ ro
Ġf irst
* *
Ġt wo
Ġe v
ra y
i el
Ġ Y
c he
Ġthe ir
on e
) \
Ġo ut
t e
n e
k s
Ġit s
Ġf unction
o int
im es
ul ar
Ġ '
Ġ| |
ĠU n
Ġn ew
Ġs y
Ġs et
m b
ĠI t
ar i
g et
ĠH e
Ġp re
S t
Ġde f
v el
c ent
iel d
amb da
= =
n g
el ta
$ \
Ġ up
Ġo ther
Ġcl ass
Ġw ill
ation al
le ct
Ġv al
ra d
f ter
19 9
i x
ol low
Ġo ver
Ġ [
Ġpl ay
ut ion
o f
Ġin ter
pe c
Ġd es
ra ph
am ma
h o
um ber
s et
1 2
on d
at er
i ed
Ġin t
Ġm an
l es
Ġh ad
s s
Ġt e
Ġt ime
iz e
ar am
_ \
Ġ âĢĵ
mathb b
Ġa g
p os
ug h
m u
= \
is s
l i
c re
y s
Ġw ork
} _{
Ġin d
Ġm ore
s ub
d ot
Ġd o
enc es
" >
s h
v i
Ġbe en
Ġf ollow
st em
Ġ en
Ġ\ \
Ġwh o
Ġ âĢ
ig ma
on s
Ġs ub
et h
und er
Ġfor m
Ġb et
a w
he d
} ^{
at ive
r am
as ed
or n
o ol
- \
h at
Ġwhe re
s c
ic t
Ġ ver
( )
in ed
Ġd if
Ġres ult
-- --
Ġc ol
t t
Ġy ou
u al
Ġre turn
eg a
ro up
c ed
Ġcon st
Ġn e
^ {\
Ġthe y
ph i
in al
Ġs o
Ġcon s
Ġre g
Ġon ly
res ent
o ok
oc k
ing s
Ġsu ch
ĠW e
ubl ic
ot h
Ġt rans
Ġmod el
Ġ her
a x
p ut
l and
ak e
if ic
g h
Ġd ist
em ber
a il
l ambda
Ġs up
1 5
ul l
on t
Ġin to
Ġwhe n
ĠTh is
ro und
Ġre l
Ġthe re
E x
an s
1 6
p r
Ġs c
i o
Ġthe n
Ġ {\
c k
Ġa cc
Ġcom m
op le
Ġy ear
Ġg ener
it ed
we en
in ce
Ġin clud
ĠS e
o x
d er
w id
Ġp os
Ġs im
Ġth an
ol og
w ard
at ing
ĠĠĠĠĠĠĠĠ ĠĠĠĠĠĠĠ
p i
r al
le m
er t
Ġp e
an n
b f
pt ion
ru ct
mathb f
1 7
Ġc o
d ition
ic k
il on
Ġp h
Ġe qu
mer ic
l o
al ign
Ġsh ow
Ġ under
is e
p art
Ġl oc
Ġbet ween
el f
Ġan y
it ies
" ,
le t
se ction
o ot
iv ers
c es
Ġo ur
v al
o ve
Ġp r
ou gh
i ent
Ġs ome
ur ing
id ent
u res
19 8
ar g
Ġdif fer
it s
re d
s igma
Ġp ol
R ef
Ġc or
Ġ //
Ġre c
il ity
u es
Ġof f
Ġa ct
1 1
ild e
ĠC om
Ġk n
at or
Ġg o
^{ -
id er
Ġf il
ap p
Ġ( \
ay s
in s
Ġa fter
ro ugh
ment s
Ġm at
\ \
b ar
Ġd ata
ĠN ew
Ġus ed
Ġw ould
am p
o y
con d
b eta
Ġ @
ab l
ist s
en g
} {\
ĉĉ ĉĉ
1 3
r t
c ol
ar ch
Ġab out
Ġe ach
Ġ i
Ġg iv
Ġn o
y n
al s
Ġat t
at ure
1 4
ou n
Ġsy stem
W e
Ġ .
ĠA l
Ġpro v
Ġ /
Ġt ra
ar s
Ġ est
math rm
Ġas s
ib le
+ \
Ġpro du
Ġf e
Ġst ud
Ġn umber
Ref er
re n
ĠP ro
g amma
Ġ use
* }
m s
i k
Ġ :
er r
t on
e v
Ġs he
Ġ x
Ġp oint
2 1
Ġthe se
ep s
d ef
ar ray
il y
ad e
v ar
m in
eth od
r ho
ow er
am es
âĢ Ŀ
Refer ences
Ġex t
Ġs pec
a ir
Ġl in
us s
- >
Ġ Z
an ge
Ġe ff
iz ed
t y
Ġs m
T h
Ġin v
ire ct
Ġo p
ĠF or
^ \
ot e
Ġl ine
Ġbe c
Ġc ase
or ld
e ver
is ion
meric an
] {
19 7
it em
ut e
Ġ Q
Ġpro b
Ġb u
ap t
the ta
le q
) }
he re
Ġm ay
d elta
as h
our ce
Ġc ur
Ġs ol
Ġm ost
wid th
Ġ end
b all
ction s
Ġin st
2 5
w n
Ġpe ople
e y
ch ool
oc i
Ġex p
c dot
$ -
Ġg et
c ess
n ing
Ġb l
ta u
Ġv ari
s y
as on
it t
Ġt r
Ġ ent
p ar
is hed
Ġs ign
}$ ,
ĠL e
pl ic
}$ .
Ġap pro
Ġre p
Ġo per
Ġw ell
at t
fig ure
o h
iz ation
ra ct
Ġdiffer ent
Ġc all
3 0
em ent
Ġn ame
Ġf l
aram et
an y
Ġf ield
Ġth rough
Ġs ame
' ,
) )
f or
eq ref
h ip
ĠA s
} (\
Ġ X
ĠD e
b ig
g an
P ro
r on
Ġn on
Ġp ublic
m an
n u
at ic
2 2
Ġs erv
Ġc ent
i ke
Ġe le
Ġval ue
Ġus ing
C on
i er
t imes
a use
Ġg roup
Ġa m
ar row
am ple
Ġ ed
: :
Ġst ate
he n
Ġpart ic
iv er
tern al
part ial
ivers ity
ical ly
ic es
a h
Ġs ur
is m
Ġs er
Ġthe m
Ġch ar
Ġm in
er n
19 6
Ġb oth
Ġ ra
Ġs ing
Ġfollow ing
ft y
ĠS h
t ilde
Ġb ack
qu ad
Ġre qu
Ġf ound
u ch
in fty
Ġt erm
re at
Ġgiv en
ion al
Ġth ree
m m
ric t
ow ever
Ġag ain
n er
Ġor der
Ġse cond
ĠA n
Ġ* /
in k
Ġh igh
om ega
re nt
ag es
ir c
eq n
s on
ou th
g y
Ġd et
or th
ur y
| \
o id
p m
a z
Ġa c
Ġcons ider
Ġe m
Ġdes c
a id
Ġf in
5 0
if e
y le
ĠI nd
as es
Ġper form
w ay
al e
Ġh im
ĠâĢ ľ
vel op
E R
s erv
u c
Ġ z
Ġwh ile
( );
ut h
iv ely
th is
ot s
ar ly
Ġf act
ver y
se c
( "
00 0
ĠC l
e e
Ġc re
D elta
y p
ĠC ol
Ġyear s
Ġde c
Ġle ad
a j
Ġdis c
ot her
v ent
ĉĉ ĉ
Ġd uring
in es
ĠC on
Ġm ethod
C h
Ġar t
Ġ< /
in ing
2 4
. ,
Ã ©
ou se
ul ation
ro ss
t en
ĠA merican
Ġsm all
ire d
ent ial
ur al
cent er
w ork
x i
er y
\ ,
ran g
f ul
al ity
Ġ _
Ġ$ (
sp ace
s im
e b
ar ge
ri x
ore m
Ġ `
Ġbe ing
form ation
an k
Ġf am
res p
Ġ el
Ġd irect
b y
Ġst r
eng th
f l
ant s
o le
at her
vi ew
Ġse e
f ore
---- ----
)$ .
r id
== ==
e ad
Ġte am
in clud
um n
ot t
ĠĠĠĠĠĠĠĠ Ġ
$ $
Ġresult s
2 3
19 4
olog y
Ġeff ect
} }\
are d
ĠUn iversity
Ġre le
a u
Ġl ong
ro p
Ġst art
ers on
Ġman y
Ġob tain
} [
et s
he s
re ad
Ġt ype
iv ed
Ġb ound
ter s
Ġp aramet
m e
p end
ĠS c
w here
s q
I N
over n
Ġm ade
ri pt
Ġad d
t r
ab ility
Ġb el
ĠUn ited
as k
b ers
Ġne ed
o od
eps ilon
if ied
Ġan al
eqn array
n ot
Ġ err
Ġn ow
** **
b m
b l
S T
ĠA r
b ack
Ġm on
enc y
Ġm ed
Ġl ike
i qu
in a
e le
Ġc ount
Ġo pt
Ġt est
mb ol
Ġs ince
Ġbe fore
ce pt
at ch
Ġex per
C om
ĠĠĠĠĠĠĠĠ ĠĠĠĠĠĠĠĠĠĠĠ
el s
oot ball
an c
O m
Ġpro per
Ġme as
um ent
Ġrep resent
v ed
Ġcont in
p on
Ġm ain
m l
Ġw rit
ra w
iss ion
ĠA d
Ġv ar
I t
o ber
Ġpro cess
F or
Ġe very
us ic
Ġp op
Ġc ould
} _{\
Ġde velop
Ġr ight
l og
m od
ang le
Ġst ruct
Ġp resent
an e
ag n
Â ł
Om ega
ĠS p
i or
ak ing
Ġm et
le x
. "
ps i
ĠO n
( '
rib ut
iv ing
Ġkn own
Ġap pe
)$ ,
O N
Ġsup port
ps ilon
l ed
ver t
re l
Ġm ass
oh n
Ġj ust
Ġf our
ch n
Ġr un
c o
Ġ ,
g ram
^ *
P h
ĠE ng
sq rt
ener gy
ĠĠ Ċ
ĠE x
Ġ$ {\
20 20
Ġm ult
ist ory
Ġcon dition
ĠF ig
om en
re turn
et work
rib ution
Ġe lect
Ġor ig
iv es
Ġlin ks
Ġs aid
raph ics
m ed
G amma
A R
i ew
iv al
le y
Ġbec ause
1 00
resp ond
ĠI s
Ġ #
ĠS he
Ġin cre
Ġl arge
is ter
Ġ u
Ġplay ers
v are
Ġres pect
Ġg u
19 5
Ġdesc rib
Ġ >
Ġsh ould
en n
Ġm ov
u le
m p
g er
Ġf ind
Th is
N ame
s k
Ġsp ace
ĠM ar
ess age
if t
Ġd r
Ġm em
3 2
A T
a f
vare psilon
Ġob serv
Ġcon tain
Ġloc al
Ġl ist
t il
Ġinclud ing
.. /
Ġprob lem
ep end
un e
Ġver y
A s
pos ition
Ġob ject
Ġto p
Ġb ased
Ġh and
um er
Ġpos s
Ġ )
vi ous
Ġgener al
Ġdo es
Ġwh at
Ġ čĊ
u ally
f ra
ĠP h
Ġl ater
C l
.. .
if y
Ġp res
Ġap p
n ess
p aram
Ġchar act
v en
2 7
sub section
Ġrec ord
Ġl im
Ġo wn
Ġ\ ,
ĠP l
^{ (
ol ution
Ġev en
4 0
Ex ternal
it ive
text bf
at eg
os s
Ġas sum
ur ther
right arrow
2 8
ar n
) =
th s
} =
2 6
og raph
im ens
op t
a ult
ĠCom m
cc ess
en se
Ġser ies
ro l
ar ri
Ġ rad
ĠSt ates
Ġfil m
b um
i j
i ence
s ion
al se
Ġ !
ro du
b old
od y
it al
Ġop en
}^ {\
T ype
Ġre m
Ġagain st
ĠC ount
ĠM ay
Ġcur rent
p or
Ġcor respond
: //
c apt
it ial
Ġt em
Ġal low
f ace
Ġbu ild
om et
Ġse ason
r ation
Ġst at
n ame
t ype
Ġs elf
rac k
in c
ir d
Ġs cal
re t
ĠR e
Ġf inal
c m
O n
includ eg
includeg raphics
R es
h t
) :
Ġ energy
Ġdes ign
Ġl ast
201 8
d iv
Ġd i
R E
col or
ĠI f
c er
rang le
n on
re m
201 6
e k
t ab
" .
Ġre ad
r and
le ction
capt ion
Ġse ver
Ġre st
s er
ch i
l ess
Ġy our
Ġre ce
Ġs chool
ect ed
T o
ve c
201 5
ac es
u ro
20 19
Ġ ident
Ġh ow
sp an
id ed
Ġre al
re qu
p ed
S S
I D
id es
g or
ag ue
ĠJ an
Ġth ose
201 7
Ġst and
Ġest im
es c
Ġd ue
pl ay
Ġpro f
g round
Ġcall ed
ĠJ ohn
Ġest abl
il ar
Ġle ft
2 9
Ġbe com
Ġm ake
201 4
Ġmeas ure
ad d
Ġim port
al th
v es
Ġc al
Ġhe l
var phi
Ġm y
orm al
ĠB l
ĠN ational
Ġsing le
Ġval ues
ĠF ran
Ġw ay
Ġcomm un
em ph
3 3
er o
Ġab ove
Ġre f
ge q
Ġc he
is ed
a i
Ġre fer
Ġfam ily
et y
201 0
Ġp ass
i um
A r
Ġf ootball
Ġre ma
Ġint eg
Ġg l
Ġtr ue
Ġa v
} ;
Ġle vel
Ġex pl
re g
ĠW orld
ĠC ar
is on
Ġp ower
Ġad dition
t ing
Ġd en
201 3
Ġin formation
Ġd id
ĠA ust
pro of
se e
Ġle t
port s
at ely
b e
ar get
r ist
w h
en e
l er
st r
ĠA nd
ce ption
n ew
. ~\
Ġev ent
ĠJ ul
cl ass
201 2
ĠH owever
sy mbol
Ġ --
Ġb ro
ap er
s ide
Ġp ar
are nt
tern ational
Ġo cc
re am
d d
Ġs at
' '
ke y
ur ch
d is
Ġal bum
gor ith
Ġm ap
ĠN ov
over line
Ġwith in
at ors
d ay
V al
Ġn ear
b s
St ring
ĠC an
Ġal ong
Ġa round
overn ment
am pl
201 1
ward s
b le
s elf
l im
Ġex pect
ĠĠĠĠĠĠĠĠĠĠĠĠĠĠĠĠ ĠĠĠĠĠĠĠĠĠĠĠĠĠĠĠĠ
ens ure
& \
ĠA ll
u ary
Ġs um
ĠA t
ens ity
ak es
ra p
y m
A l
Ġv is
Ġb ir
i od
U n
Ġd own
pos ed
B ig
Ġg ame
in ess
it le
Ġch ild
ar m
E N
aj or
. }
iv ate
ian s
6 0
it er
ific ation
) ^
c ur
I d
[ \
x im
' t
Ġsever al
Ġs pect
bold symbol
r r
in ition
O R
com m
A n
Ġex ample
Ġc are
ĠY ork
Ġpro gram
am ed
Ġto t
Ġkn ow
ĠR es
Ġun til
> </
Ġcomp ut
Ġde pend
Ġpartic ular
t rans
fra k
}, \
} ).
im port
ĠC ent
ĠO r
ĠW ar
ect or
ang u
i ous
Ġbec ame
Ġdef ined
ĠâĢ Ķ
Ġfollow s
Ġm uch
ĠG e
Ġn etwork
Ġsh own
in ter
or g
Ġt ri
Ġs ize
3 5
Ġar g
Ġhe ad
ĠCount y
Ġare a
ref ore
ĠA ug
in ation
or ph
Ġl ife
A L
Ġst ring
w w
im al
a int
ĠM an
] ,
Ġst ill
Ġc ap
at ter
Ġl arg
Ġw orld
ĠW h
Ġqu ant
t s
ĠO ct
Ġcharact er
w ith
ĠĠĠĠ ĠĠ
ord ing
Ġs l
ĠS chool
eta il
ĠB rit
Ġm ark
L et
ĠS outh
av ing
ord er
ĠP r
ef f
Ġpl ace
ro ll
am ent
Ġan n
h line
_ _
i am
che d
Ġcontin u
Ġbe h
Ġsim ilar
o ard
Ġor gan
} }$
ff ic
a ction
ol l
od es
Ġpos ition
pt ember
Ġde ath
uth or
ord s
che s
t able
200 9
le ar
Ġse ction
Ġs ong
im ent
8 0
Ġd er
mm et
b ra
r um
end ed
n o
Ġb as
at ures
f ield
c ul
Ġpoint s
Ġp at
200 8
or ies
yn am
Ġre du
B y
Ġd om
Ġte chn
Ġm ust
math frak
Ġl aw
us h
L ist
Ġpol it
ix ed
op er
Ġin f
o ad
Ġmodel s
id d
ys is
l angle
Ġt yp
t ime
m ult
ct or
ld ots
ĠM arch
Ġpre vious
ress ion
Ġl ow
ĠThe y
a pe
L E
m ber
pl it
c or
al k
Ġm usic
Ġg ra
Ġdet erm
Ġin itial
Ġcl os
epend ent
4 5
at s
Ġd em
Ġb est
| -
ac he
Ġass oci
Ġt ake
a im
con st
Ġb ook
Ġn ull
Ġp ost
pr il
e ction
t ies
as ter
ore d
Ġhe re
p d
us iness
Ġn ext
Ġh ig
ĠJan uary
ĠP ol
Ġb re
ĠG erm
Ġpro t
Ġstud y
9 0
Ġshow s
Ġoff ic
tt p
pec ial
Ġ& &
ĠAug ust
L ambda
ug g
d e
Ġm ax
Ġb and
Ġtot al
O b
Ġterm s
app a
a us
ist ic
o ff
an ces
con t
200 7
Ġint rodu
is f
ĠSe ptember
r is
Ġ et
Ġel se
20 21
n abl
> <
om an
p ose
ĠT e
Ġwith out
amp ions
l ing
H e
Ph i
ĠOct ober
a e
ĠG u
et ic
ĠR ep
Ġc rit
ce mber
Ġre port
Ġh old
Ġpre d
6 4
Ġinter est
f unction
ra g
ĠJ une
200 6
Ġdist ribution
val ue
b ox
Ġp erson
u k
Ġex ist
Ġp ot
Ġw in
s m
ht ml
t d
ĠI I
ĠT o
Ġk ey
ĠM in
iv ity
ĠB e
l ish
Ġstruct ure
ĠR eg
ur b
Ġ= =
Ġdisc uss
ĠJul y
ĠS y
ist or
cite p
' )
A N
un g
ot imes
Ġd eg
ĠA pril
ĠP ar
le ge
ru ction
g es
Ġpro ject
Ġch o
Ġgo od
mb ox
k appa
3 1
our ces
ur s
ĠAust ral
il t
Ġsu ccess
ri es
u x
ĠU S
iqu e
] $
Ġfor mer
Ġcom b
le ment
Ġf alse
ĠC al
l oc
3 6
I nd
ĠB y
Ġe arly
Ġper iod
Ġc our
uro pe
C ol
7 5
Ġad v
ĠNov ember
sub set
Ġsh ort
du ct
r ite
A S
Ġv oid
../ ../
. \
Ġa ut
ĠY ou
lect ed
se qu
ir on
Ġt rad
Ġdescrib ed
Ġd el
em pt
ĠThe n
\ |
~ ~
d ata
" )
f o
Ġstr ong
Ġposs ible
ĠDe cember
ent ion
gorith m
Ġc over
} )$
Ġcomp on
Ġch ang
ĠSt ate
. _
g in
A C
ĠC ity
3 4
Ġan other
st ring
in o
I T
ver s
Ġw on
Ġme an
pl oy
Ġcon f
er ing
Ġcomp let
ĠA rt
Ġv iew
Ġerr or
ĠA p
it her
non umber
nabl a
Ġc ar
Ġis s
} ),
ill ion
Ġm agn
Ġk e
text it
c ode
Ġreg ion
Ġl ook
Ġen g
Ġs pe
Ġst ates
Ġse qu
Ġp ubl
ĠN orth
ĠA ss
ograph y
b orn
Ġs k
Ġplay ed
st it
c irc
Ġa ff
Ġinclud e
Ġo ld
b it
Ġth ough
oc ial
Ġh ome
o pe
et er
z e
al es
ensure math
ac ed
v ision
S h
7 0
Ġa ver
ab les
end s
Ġrele ased
u ff
il it
ict ion
ĠC o
}} {
ĠF eb
s f
angu age
m at
\ [
Ġv ol
ail able
Ġsat isf
Ġd ay
b ut
im um
Ġr ange
Ġph ot
Ġinv est
\ %
i ents
ri ption
20 00
Ġd iv
olog ical
3 8
Ġm ajor
Ġappro xim
os p
Ġmem bers
re en
Ġf ull
d raw
Ġre se
t op
Ġc ou
he ad
al f
th ough
Ġle g
ud e
l ation
i us
P s
st yle
Ġimport ant
ru ary
Ġpot ential
oc ument
Ġparamet ers
ĠS up
Ġt imes
Ġt urn
Ġfunction s
9 9
Ġd ensity
Ġim p
R e
it or
w ays
Ġobtain ed
ĠL et
oc us
Ġc ity
st er
Ġp ath
D E
id ual
s up
ic le
ĠW ill
] ;
Ġprodu ct
i i
s l
Ġcont rol
Ġl and
S ee
Ġman ag
200 5
w ide
ind ow
ĠA f
Ġw id
h am
ide o
l or
ĠThe re
Ġmat rix
) (
ight s
Ġsign ific
S igma
Ġcomp et
ne y
s ize
p re
ĠE urope
Ġ q
u ild
Ġf r
ĠP art
Ġw omen
m ary
ob al
Ġf ew
19 0
Ġcomp lex
Ġs ide
3 9
Ġh ref
Ġe as
ma x
sc ript
A M
Ġp aper
Ġl a
Ġf urther
dot s
s ource
Ġthe ory
ent ly
Ġstand ard
um an
Ġg overnment
Ġ` `
ĠBrit ish
3 7
Ġsol ution
ap an
ĠCan ad
\ !
cl us
Ġpro m
S E
un c
Ġlim it
Ġph ys
il le
an a
ĠN o
er ed
c it
ampions hip
ĠLe ague
pon se
wid et
ĠM ed
ut ions
Ġg raph
ip le
ĠC or
Ġver t
h old
on y
Ġre t
ĠCh rist
ple ment
Ġd etail
Ġorig inal
Ġp o
Ġperform ance
Ġind ic
ĠE d
Ġconst ant
Ġf ree
Ġcomp any
ĠFeb ruary
==== ====
Ġequ ation
ra ft
# #
Ġhel p
Ġl ess
ĠA fter
ĠK ing
/ \
Ġ( $
Ġbir ths
Ġa ction
Ġ enc
b r
D ata
Ġver sion
Ġin s
op y
Ġe p
S et
widet ilde
Ġanal ysis
I C
Ġch ange
Ġ ide
r ary
Ġm ot
our n
Ġinv ol
and om
g o
Ġim pro
200 4
ampl es
Ġs it
ĠM c
st and
in ally
{ -
} -
n ode
Ġ= >
Ġg row
Ġpr ivate
cent ury
Ġap plic
Ġre d
Ġl ength
m essage
if f
d om
c ap
Ġs ource
Ġrespect ively
Ġt arget
a ut
u ation
**** ****
-------- --------
Ġfil ms
Val ue
F ig
Ġfe ature
Ġcorrespond ing
Ġl ower
ot es
in ary
ĠThe se
Ġw ant
Ġr ate
Ġre pl
ĠB ar
ur ation
Ġp air
Ġappe ar
z eta
Ġpop ulation
ĠE n
Ġparamet er
Ġn ode
âĢ ľ
on es
ĠH ar
\ ]
I f
P l
u ck
Ġappro ach
Ġin put
Ġcare er
Ġspec ial
w it
ra in
Ġele ment
Ġm ember
Ġt ext
v iron
Ġsystem s
Ġle ast
Ġav ailable
um e
A P
pr ime
Ġ/ **
ener al
n ow
oun c
ren ch
ĠD ist
Ġm om
a ul
. âĢĿ
as ing
Ġl ight
Ġl og
ex p
ĠA rm
con om
Ġserv ice
center ing
Ġj o
Ġsignific ant
ĠM e
a ugh
ĠW est
Ġth ird
Ġst yle
Ġc ases
4 8
Ġ: =
Ġh y
ĠA b
Ġs ay
w are
Ã ¡
0 5
il es
Ġb usiness
Ġsup er
Ġto wn
g l
Ġconsider ed
Ġn amed
Ġmat ch
y l
Ġdif f
es e
" /
Ġcal cul
\ {
ĠĠĠĠĠĠĠĠĠĠĠĠĠĠĠĠ ĠĠĠĠĠĠĠ
ab ly
Ġc ross
ĠĠĠĠĠĠĠĠ ĠĠĠĠĠ
Ġto ok
} +
th m
ĠR ec
Ġph ase
Ġloc ated
Ġt itle
Ġ %
Ġf ive
Ġd at
C O
uss ian
Ġcon n
Ġd imens
Ġhe ld
0 1
ay er
Ġse par
u i
rr or
Ġg ames
our s
Ġh istory
iv idual
S e
Ġst ar
is ing
on al
M od
Ġte le
ĠB ut
) =\
( $
Ġam ong
om orph
Ġrel ations
Ġestabl ished
ic y
Ġtem per
Ġcl ub
lo ad
ĠEng lish
Ġcomm on
s cal
6 5
Ġh ouse
// //
Ġal ign
Ġbe gan
ed er
Ġcondition s
em ma
Ġc irc
tab ular
Ġhig her
p ly
re st
I nt
Ġpro of
n a
g ed
Ġim age
ul es
Ġst ation
Ġfe atures
Ġb o
Ġcol l
Ġg e
ĠThe orem
Ġg reat
e ople
ch ie
Ġvari ous
ad em
A merican
ĠH is
p oint
re w
Ob ject
ĠE q
em s
at ural
Ġs ix
Ġcons ist
Ġaver age
Ġof ten
ĠS ch
; \
} =\
Ġf low
ater ial
ak en
] .
Ġrece ived
Ġar ch
Ġa ge
ĠJ apan
Ġre cent
le te
Ġcomp os
ar ning
Ġline ar
p x
l ength
ĠAf ric
ann el
al y
Ġtra ining
200 3
Ġp ort
ond on
9 5
t est
Ġinclud ed
Ġchild ren
Ġd on
Ġan t
Ġev ents
) );
c ast
Ġp ri
W ith
ĠA m
Ġf ore
Ġro le
Ġb ase
Ġc er
m ap
Ġe ither
al le
id ence
) }\
Ġn eg
ĠO ne
av a
iv en
Ġw ater
m ost
row n
) ^{
Ġa uthor
N ew
ĠS an
Ġbl ack
Ġab s
ut ure
op s
" );
Ġf requ
ĠE l
Ġh om
Ġs em
Ġc ell
Ġpos itive
ĠS er
Ġf ac
Ġa ir
re et
Ġprov ide
I I
ul a
Ġprof ess
w ed
g roup
read y
Ġ& =
ric k
âĢ Ķ
ĠC he
Ġv ill
itt le
Ġr andom
Ġproper ties
pl ies
ur g
ure d
Ġmethod s
Ġbel ow
Ġassoci ated
Ġcl aim
Ġwrit ten
Ġbu ilt
Ġv ector
Ġind ependent
ab or
tt ps
Ġ! =
Ġse en
C T
Ġp ract
I m
"/ >
Ġm en
Ġpubl ished
e ed
ugg est
u f
4 4
Ġf ail
ĠA ir
{ (
Ġ id
Ġth us
c le
Ġpr im
Ġres p
Ġh owever
Ġfin ite
Ġproper ty
wh ich
Ġin fl
ib ility
C ont
Ġb i
Ġl oss
D ef
Ġsy mmet
I S
Ġc ost
b or
ĠP ark
Ġed uc
Ġh aving
200 2
Ġd ynam
arri ed
Ġde v
ĠS o
6 6
c os
ĠH igh
se mb
Ġn ational
i ber
Ġbecom e
Ġrequ ire
ounc il
ĠSe ction
. ~
Ġlin es
Ġn ormal
Ġqu est
ĠP res
erv ice
Ġbet ter
i ef
l in
viron ment
Ġatt ack
rib ute
Ġv ia
f ord
p ing
b ased
Ġacc ess
Ġf ocus
ord in
ip s
Ġpl an
A p
ĠCol lege
ĠCh ar
r im
ch an
ust om
Ġdef ine
Ġind ividual
$ )
5 5
d own
Ġme ans
fer ence
d ate
Ġc amp
ut il
ing ton
R O
ĠW hen
get her
Ġto gether
al t
E D
ĠP er
Ġcor re
al ax
ĠW ith
Ġind ex
ĠL ondon
E S
ĠA meric
Ġacc ount
Ġgroup s
c her
Ġan g
s in
cdot s
ec ess
ot ed
ens ion
ĠD av
}^ \
ĠQ u
ac y
pro p
a ff
Ġc y
ition s
Ġspec ies
Ġst atic
Ġback ground
ra int
L L
nd er
Ġf und
v ing
ĠH am
Ġbuild ing
ress ed
L e
w ise
' );
Ġs che
} |
Ġal gorithm
ĠH er
du c
Ġs uggest
r ant
o ch
s ing
200 1
ĠH ouse
og n
}\ ,
i et
Ġbeh av
m id
ĠĠĠĠĠĠĠĠ ĠĠĠĠ
ge bra
an ish
ac hed
Ġconst ruct
ĠA g
ĠWill iam
Ġg en
ilit ary
ly ing
pl ied
b b
Ġn umer
f ile
Ġrese arch
Ġa chie
ĠCom p
Ġele ments
Ġwork s
Ġac ross
ĠS ince
Ġexpect ed
Ġoffic ial
er a
h ib
av y
ĠG l
o o
es tern
Ġcount ry
r ig
ĠB ro
Ġt w
ĠA ng
Ġd ou
Ġex ists
st ate
}_ \
i ol
Ġh ost
at rix
G et
ic ro
ĠM on
ian ce
Ġplay er
un ic
Ex ception
wide hat
um b
lem ma
Ġobserv ed
Ġann oun
Ġreg ular
B C
Cl ass
u ed
f oot
ard s
ig en
Ġg ive
Ġl abel
Ġs ite
end ing
ĠV al
Ġmult i
ĠD ep
Ps i
Ġw ar
ĠF rench
Ġt re
Ġcl ose
Ġserv ed
ĠDist rict
itt ed
E rror
Ġpro posed
}} (
Ġre view
Ġar ray
ire ction
Ġcent ury
c y
com p
Ġz ero
Ġb orn
l ist
Ġcommun ity
Ġcl ust
rid ge
Ġal ready
ĠM ore
Q u
Ġmom ent
ir t
q quad
Ġche ck
T est
ul ations
Ġ\ {
text width
Ġfact or
Ġp ut
ult s
ind ex
a it
Ġcon text
p ath
s w
Ġcomp ar
Ġl ik
Ġequ ival
ite ct
Ġh ard
ĠCh ampionship
Ġa rm
Ġs ent
m ark
Ġsur face
Ġh alf
il ities
ar a
is c
4 9
Ġdevelop ment
& =
e h
}) \
Ġal ways
ĠIn ternational
S c
S p
K ey
Ġto o
A t
Ġth ink
Ġprodu ction
c up
ill ed
Ġe mb
S y
Ġg round
k en
Ġrequ ired
Ġdef inition
Ġst ep
sm all
) {
Ġm er
^ +
} ]
ear ch
Ġt aken
Ġro und
Ġ ill
in n
ĉĉĉĉ ĉ
Ġsequ ence
ott om
ĠS ec
Ġsim ple
Ġyou ng
A ll
Ġm illion
F rom
sum mary
Ġr at
ĠPh il
k n
Ġdist rict
Ġf ar
Ġab le
E T
8 8
ĠFig ure
ourn al
D e
4 7
g en
{ {\
"> <
med i
Ġinst ance
ĠS m
, -
ar ies
Ġcon c
Ġcre ated
ĠGerm an
Ġne ver
att le
F il
Ġcou pl
per ty
Ġc aus
ĠL a
Ġc ode
ly mp
Ġbre ak
Ġscal e
Ġf ixed
Ġl o
Ġs ocial
Ġde p
re ed
Ġcon ver
Ġrequ est
alle l
Ġc ult
Ġrel ated
at us
Ġv ideo
Ġoper ator
Ġem ploy
oci ation
ap pro
am a
f rom
ur l
m on
oun ter
Ġm iss
Ġpred ict
Ġwe ek
}^{ (
p en
if orn
Ġtele vision
Ġ( )
A d
Ġst ory
c ell
def ine
Ġinvest ig
iz ing
Ġn ov
ho od
Ġ/ *
ĠM ich
Ġprov ided
Ġex ec
um ents
Ġprob ability
Ġd ays
ĠC up
ed d
Ã ³
Ġdist ance
ĠO b
Ġev al
Ġun it
Ġt ry
Ġe ar
8 5
oci ety
pd f
Ġ ?
F F
Ġf ri
Ġhe alth
ac hes
Ġcontain s
Ġm ight
Ġprodu ced
eff ic
iforn ia
ĠâĢ ĺ
/ **
Ġlarg er
ce ed
c all
ĠS im
Ġcon fig
ĠL emma
Ġexper iment
m ing
o on
id ing
C C
em ents
ign ed
ĠC O
m y
Ġ// /
Ġ$ (\
ribut ions
r c
Ġ= ==
Ġm aterial
ou d
ĉ Ċ
Ġex act
}\ \
Ġm aking
Ġdeg ree
ap s
b ul
A D
r ated
Ġf ile
i res
Ġim plement
Ġanal y
Ġbl ock
Ġquant um
ol ic
ĠA ct
ĠInd ian
I M
0 7
' $
ĠSt ring
0 6
Ġh uman
199 9
ast ic
Ġcre ate
Ġd ied
Ġfield s
ut es
h a
Ġp erm
" :
av es
or ge
m ar
Ġassum e
P E
ra ction
ag er
Ġset t
Ġtemper ature
h ttp
Ġreport ed
on ic
Ġstart ed
âĢ ¦
oy al
Ġf ig
0 4
Ġsp in
Ġ },
Ġaddition al
ver se
ens or
Ġn orth
idd le
ul ated
0 2
end er
if orm
N ode
ĠT r
qu e
B l
ĠA c
E n
cit et
ot a
0 8
ic ol
math sf
li ke
Ġeng ine
Ġs om
Ġg alax
land s
Ġ );
ĠF irst
ro id
Ġc ame
) ]
Ġwid th
g ress
Ġbro ad
6 7
ist ics
Ġl ed
sk ip
, âĢĿ
Ġcont ent
Ġout put
ĠD iv
ill s
equ iv
t ot
Ġt rack
T R
Ġwh ose
ari ant
Ġd est
Ġass ert
om b
u el
Ġestabl ish
} +\
, "
Ġf uture
min ist
c is
ĠAustral ia
T E
Ġacc ording
Ġserv ices
ĠCal ifornia
et t
ell ow
T ime
Ġb ody
A A
Ġcol or
20 22
Ġl ate
trans lation
( ).
bs ite
Ġbe gin
plic it
Ġcer tain
itt ing
St ate
Ġp an
m ore
ir l
ic o
Ġ& \
( {\
d imens
Ġof fer
ĠI m
Ġgiv es
Ġs on
ĠEng land
Ġact iv
her n
sh ip
Ġh app
E qu
qu are
Ġbound ary
Ġus er
Ġdi ag
Ġres ponse
Ġor g
I ON
in st
9 7
ĠM y
oper at
Ġn atural
use um
Ġa way
Ġn um
ĠR iver
ĠF rom
Ġset s
v an
art ment
9 8
| |
ĠRep ublic
Ġen ough
Ġn ecess
ind ent
ne ction
m it
E lement
199 0
+ +
a el
Ġinst ead
Ġmult iple
ĠInd ia
Ġgo ing
() );
Ã Ń
and er
M an
Ã ¼
Ġle arning
Ġspec ific
ĠM ark
Ġp ress
} :
Ġind ust
h space
N ot
ta ct
Ġwork ing
) -
in ated
il i
sc r
199 8
Ġwhe ther
row s
Ġvill age
Ġd ocument
Ġc ut
Ġ und
Ġre ason
st ar
9 6
ew ork
ĠPres ident
Ġequ ations
Ġ es
ĠTh us
L iving
Ġh istor
Ġpartic ip
Ġc ateg
ĠC ont
4 6
com e
operat orn
x space
Ġp ur
at ives
ĠD r
rac y
0 3
and id
Ġs ample
Ġstud ents
he l
] [
L O
ww w
Ġden ote
l ink
I s
o oth
Ġs outh
ĠL ist
Ġon ce
ĠE ast
b and
o ph
Ġl iter
Ġme et
operatorn ame
Ġr ather
Ġperform ed
| ^
U S
iv il
l ight
Ġconst ruction
A nd
Ġcent ral
E vent
}} {\
n eq
k y
Ġw ent
n ote
kn own
P eople
Ġb en
A fter
Ġc r
Ġbel ie
y ear
Ġcomp lete
Ġl anguage
Ġne igh
scal e
Ġc le
Ġval id
Ġeffect s
Ġ Â
Ind ex
Ġmov ed
p ol
Ġannoun ced
ram ework
en umer
Ġdom ain
ĠPart y
Ġclos ed
ic a
The re
Ġed ge
Ġst ars
ĠSt ud
r up
ĠP ort
Ġother s
" ;
el oc
Ġt reat
} -\
Ġwe ight
Ġp arent
R equ
Ġme chan
Ġthe refore
Ġcor rel
0 9
Ġatt empt
Ġc lear
u ra
ĠAmeric a
n ers
o e
k ing
A B
) }{
Ġr ank
Ġd one
Ġh or
one y
cre en
/ *
oc al
ĠD ef
Ġb ig
Ġe conom
f ill
ĠB er
Ġlead ing
ess ion
cc ording
Ġal most
um p
Ġf ather
ve y
Ġcol umn
im ate
Ġf em
ber g
O r
the orem
R ec
Ġcan not
ell ing
ĠM al
Ġinfl u
Ġcompon ent
Ġent ire
ĠA nt
Ġs old
Ġpresent ed
err or
ĠM od
Ġopt ions
ic les
Ġf lo
at ively
Ġs w
Ġmet ric
og le
Ġar r
at ory
Ġt able
v ille
Ar ray
Ġdevelop ed
y a
Ġc apt
i ers
ĠC our
r un
Ġequ al
ĠB el
Ġ- \
Ġgl obal
Ġtrans form
ran ch
ĠD i
H istory
U R
Ġdat as
U T
ber t
g s
] \
it es
199 6
e in
ic ult
Ġg as
b ook
Ġep is
ĠA ward
ib rary
Ġsol utions
ĠC ouncil
p ace
Ġ ~
7 7
C H
ĠH ol
ĠN e
iz es
Ġhold s
om s
Ġchang es
Ġp ay
Ġmark et
Ġpop ular
Ġocc ur
Ġcomp ared
ain ed
om ial
( ),
stit ute
ĠP aul
Ġcomp an
Ġdeath s
ribut ed
Ġd irection
as c
Ġintrodu ced
ole an
ari o
ch ange
d o
4 2
Ġconst raint
ĠD es
Ġin ternational
ĠM or
ĠT rans
W h
enumer ate
Ġpolit ical
ĠG o
Ġm ale
Ġp ast
a ctions
Ġadd ed
\ ,\
ĠEurope an
ĠSy stem
Ġst re
ĠR ef
ru le
le g
it ude
th at
ĠR ed
Ġcent er
ĠD em
ag s
Ġeffect ive
d en
Ġw rite
Ġt aking
dimens ional
Ġcom e
V ert
all s
ens ive
F ile
ĠG eneral
Ġim plies
M A
y ing
il ton
t ic
Ġreturn ed
199 7
d ag
Ġpri or
p ack
ĠO lymp
ĠCanad a
ĠS en
S ince
Ġv eloc
Ġke ep
Ġso ft
b re
P S
n b
Ġen vironment
op l
C D
Ġunder stand
ag ed
ref er
it te
T rans
Ġa ward
ac c
) }$
F orm
Ġco ordin
Ġim ages
G e
Ġbas is
ar ily
Ġare as
' :
Ġnot e
Ġwe ak
Ġeff ic
Ġg rad
Ġv iol
Ġrec ogn
b o
6 8
bul let
b ound
Ġsub ject
h and
Ġarch itect
ri ate
id s
st ruct
item ize
ĠTh at
ict ure
b t
b ody
ĠR ober
ĠTh om
Ġstr ateg
in put
oc r
ort hern
4 3
Ġl ittle
O f
Ġs ays
ĠCh urch
c ial
Ġrest rict
ĠP al
O S
Ġele ction
k er
ĠJ ames
o res
u it
math scr
ic on
Ġco effic
re c
T ext
ĠArm y
ĠSt reet
Ġ( !
M L
oun tain
18 8
s plit
ro te
ĠFran ce
k a
ĠF il
Ġpro ve
A tt
ou l
pt ions
Ġpr inc
. )
$ }
ĠL aw
Ġinclud es
V iew
Ġcont ract
Ġrepresent ation
no indent
Ġw ords
Ġ Ã
( -
le vel
ĠI nt
an i
O ver
led ge
ĠIn ter
Ġal gebra
r ast
198 0
Ġwork ed
k ed
Ġpro p
Ġgo al
Ġdiffer ence
Ġrel ation
dis play
Ġtrans fer
ĠBl ack
at al
Ġprov ides
l ong
a ign
Ġn il
{ }
Ġpres ident
Ġmagn etic
M S
ĠP at
L A
r s
5 00
Ġm id
in ite
5 7
Ġup per
ĠT ra
en ed
Ġs ens
ĠG roup
n ce
Ġmat ter
d s
Ġcompon ents
Ġstud ies
l a
Ġincre ase
el ine
x y
Ġdirect ly
Ġgener ated
ĠS um
Ġm akes
ĠDav id
ĠR ich
I G
Ġle arn
Ġobject s
Ġfl u
ag o
th ing
ip al
ĠCent er
Ġl ive
ĠĠĠĠ Ċ
Ġmax imum
Ġse arch
per p
ĠCh ina
Ġro t
f lo
ther n
Ġun ique
wo od
Ġm ag
t ra
is es
Ġtrans ition
G L
Ġsuccess ful
Ġg ot
ĠQ ue
v space
Ġfr ont
Ġde but
Ġdem on
P ath
ul ly
e an
h ttps
Ġmed ia
d t
\ }$
ob ject
199 5
Ġs ound
che ck
and s
ut ive
is k
Ġro ad
ĠD o
Ġy ield
as ons
Ġwe bsite
d ist
u z
4 1
Ġam ount
ri an
Ġin du
ist ry
appro x
Ġcol lection
h an
Ġcon duct
Ġst age
Ġc andid
line ar
id a
Ġopt im
in i
ĠR oman
n s
~ $
Ġrele ase
c ing
5 8
a ur
Ġde cl
ĠG L
Ġsign al
g color
at form
I R
ers ion
P i
ap i
ffic ient
}} _
un n
Ġl ost
Ġdiff icult
v is
ou thern
Ġtyp es
Ġdef ault
Ġphys ical
ra z
it ar
im ents
pl ace
Ġresp ons
Ġproblem s
5 6
j s
U N
ĠF l
Ġs ources
Ġev olution
Ġp ack
In fo
ĠGe orge
Ġac cept
r ate
Ġpolit ic
ĠAss ociation
Ġpart s
Ġt akes
ĠT V
A dd
Ġapp oint
ra b
Ġrad io
Ġreg ard
Ġ Ð
Ġch all
ro y
ar ing
Ġcour se
Ġbecom es
clus ion
os en
In ter
pon ent
c an
Ġ\ |
199 4
Ġad j
ish ing
Ġsmall er
Ġ_ _
Ġrem ov
p ite
Ġw ave
b oard
Ġtrad ition
ĠE m
n ormal
Ġ} ;
Ġdisc over
p a
) +
e al
Ġadd ress
ous ly
Ġpart y
Ġ _{
P r
Ġap plied
Ġb ox
pecial ly
et urn
enc ies
mult icol
ĉ ĠĠĠ
Ġm ilitary
O T
us ed
Ġquest ion
ree k
Ġre ally
} /
Ġst op
Ġnum bers
al ian
R eg
Ġnov el
. </
tr ue
Ã ¶
ĠN ot
ash ington
w rit
i os
Ġk ind
Ġvari ables
au ge
Ġsu ff
ĠC ons
& &
ĠThe refore
ĠR oyal
Ġdetail s
Ġn ames
mod el
ĠDep artment
multicol umn
Ġal though
Ġestim ate
Ġb gcolor
p ublic
7 8
` `
Ġ rac
Ġ} );
ok e
Ġw rote
m ember
un ity
f il
M P
pl ate
}} }
Ġelect ron
Ġsc en
Ġne ut
Ġspect rum
Ġch annel
val id
ĠH all
M ap
Ġrelations hip
m en
eth ing
Ġincre asing
g ence
r d
ad es
[ '
199 2
Ġc ustom
Ġ$ -
b a
ĠB ay
S P
' ;
199 3
g ing
ran ge
Ġde al
S up
ĠDiv ision
ĠT able
Ġgra du
ĠN ote
Ġfor ce
S ub
Ġits elf
Ġe igen
O ut
cre t
am s
Ġjo ined
Ġs af
^ -
t urb
Ġact ive
ĠM art
Requ est
Ġm ove
ĠL ou
ac ity
Ġla un
Sy stem
p ret
Ġde cre
itte e
ĠU K
Ġmon ths
Ġallow s
ach ing
Ġqu al
l n
Ġa ud
Ġteam s
ub e
Ġeduc ation
The n
Ġit er
Ġset ting
under line
it ing
ĠG a
al d
Ġin c
F A
Ġf av
Ġn uc
Con text
Ġdirect or
t es
ab s
Ġra il
Ġpe ak
' ]
The ta
Ġloc ation
pt y
p c
Ġm ention
semb ly
Ġrel ative
ĠJ er
Ġh on
Ġimp act
Ġus es
z er
ĠWh ile
comm and
ĠUn ion
P ol
S er
Ġge omet
ĠCl ass
Ġm arried
Ġwh ite
Ġdis play
i ation
r ide
ĠAustral ian
N N
) {\
Ġ ess
ĠĠĠĠĠĠĠĠ ĠĠ
ĠB o
Ġb ar
ĠP e
Ġcrit ical
ad o
Ġbehav ior
re y
ans ion
yn omial
Ġrat io
Ġcho ice
esc ription
ag ing
O ne
Ġdef e
T r
ĠS ing
an ks
li er
Ġpat tern
ĠS ub
197 0
Ġcompan ies
Ġequival ent
Ġprofess ional
9 3
Ġt en
ĠGerm any
Ġse lected
Ġmod e
in it
Ġcorre ct
b our
Ġsupport ed
Ġlarg est
Ġin j
st on
F ield
ol s
p an
g rad
Ġthe orem
Ġf it
Ġdou ble
I P
ĠCour t
Ġt ask
Ġ$\ {
p arent
Ġreg ions
v oid
ri p
Ġconn ected
Ġveloc ity
ask et
sh ift
f low
Ġeval u
p ng
Ġstud ied
Ġd raw
Ġag re
Ġpol icy
v ant
ĠM usic
a res
Ġk m
ines e
nb sp
Ġa x
Ġexp ression
oc ks
Ġsh ift
9 2
ir m
if ier
ĠG reen
Ġcon v
eder al
ĠC ap
ĠS w
Ġm ix
ĠIn stitute
Ġcomplet ed
Ġw indow
Ġform ed
Ġdeterm ined
ĠD uring
9 4
Ġver s
ot ic
W hen
Ġv ict
Ġl ay
f unc
text rm
un k
us ion
}^{ -
Ġp age
ĠĠĠĠĠĠĠĠĠĠĠĠĠĠĠĠ ĠĠĠĠĠĠĠĠĠĠĠ
Ġdesign ed
ĠN or
Ġp ers
Ġf ire
Ġd ate
Ġon line
Ġup on
Ġre ve
app ing
Ġus ually
n ext
min us
Ġex hib
ri ef
in ct
Ġout side
Ġlik ely
Ġopen ed
Ġspe ed
Ġoff ice
Ġdimens ion
n orm
ĠW ashington
Ġfrequ ency
Ġdemon str
Ġcontinu ed
Ġsong s
G roup
Ġb ring
Ġac qu
res ult
199 1
he st
on a
ĠR oad
subset eq
Ġj ob
N ote
H E
ac ing
ĠComp any
IN G
ar r
loc ation
ĠM ary
od ing
< \
Ġfollow ed
7 6
ĠRober t
ar ter
n es
ĠAc adem
pro d
Ġ\ ;
ĠJ ack
In st
ain s
ĠV ir
o z
Ġass ist
Ġdirect ed
Ġw ord
ric es
Ġallow ed
ok en
.. ..
. $
d i
Ġwho le
or ing
m es
Ġoper ation
Ġcurrent ly
se y
Ġad opt
def ault
H and
Ġt ree
à ¤
Ġneed ed
B uild
Ġinvol ved
h y
h i
Ġ/ >
ef ore
ĠV ol
umn i
enc ed
( (
Ġal tern
Ġch urch
ĠG et
ec k
in os
rup t
Ġrecord ed
Ġill ust
plic ation
al a
ĠS ociety
iz ations
Ġn ight
E nd
Ġstruct ures
ĠM at
S ize
ic ation
Ġs ense
irt ual
Ġb order
() )
Ġd ig
Ġim medi
Ġ row
Ġra ce
ĠM ex
9 1
Ġd augh
Ġde part
Ġ$ |
ch o
A ss
ro s
Ġexper ience
5 2
ĠB est
anc ial
ĠNew s
ad a
Con fig
Ġthrough out
Ġfl ux
ing u
Ġ ir
Ġes pecially
i ences
Ġad apt
est ival
Ġmod ern
ĠS am
Ġro b
Ġm other
Ġl ove
Ġm essage
ac her
Ġun iform
Ġrema ins
foot note
Ġe ver
is ation
ĠM et
Ġsub sequ
Ġbro ther
Ġf ace
omorph ism
ĠAr ch
Ġhim self
Ġder iv
el es
Ġrun ning
S C
Ġun its
ĠH en
Ġrefer ence
E E
Ġeff ort
Ġcon clud
abl ed
Ġc ast
5 4
text tt
Ġpro ced
Ġiss ue
ri a
Ġvari able
Ġcamp aign
t ical
Ġto wards
Ġor d
w ell
ĠL eg
tot ype
w ord
Ġright s
ĠP ress
cre ate
^{ -\
ann ing
m et
Ġiss ues
am ily
N o
ify ing
B ut
Ġde ep
Ġhe ight
c ase
Ġin equ
S U
ĠCl ub
Ġapplic ation
Ġclass ical
opl us
5 1
Ġoper ations
ĠO ff
ĠO ur
Ġy et
osp ital
ĠR uss
Ġsign ed
d r
s pecial
ĠIs land
Ġresult ing
ric e
Ġplay ing
Ġs il
b urg
opt ions
Ġsom ething
ur ity
ĠB ook
iv ial
ta int
big g
uff er
en ing
Ġsu fficient
con fig
_ *
Ġs eg
Ġ( -
st art
[ ]
ant ic
7 2
he ight
} '
Ġprim ary
) |
Ġapp ly
ĠA lex
Ġtra vel
if old
ĠW il
Ġsim ply
S ervice
Ġinteg ral
Ġad minist
ass ert
Ġex plicit
ĠE ar
ĠT own
ĠG ames
Ġoper ators
Ġth ings
Ġpol ynomial
el i
Ġprevious ly
Mod el
Ġsm ooth
il ies
C E
act ive
in y
}} ,
m ethod
ĠT est
set minus
Ġw ife
Ġg auge
ĠG old
or age
Ġs us
n av
Ġun cer
Ġse lect
======== ========
******** ********
Ġnew s
Ġtrans port
li ament
Ġcomm and
Ġobserv ations
ens us
ĠPro v
Ġhe nce
Ġre v
Ġb oard
Ġf all
Ġ( $\
Ġl oad
ĠSc ience
Ġd ark
Ġb it
un t
Ġno ise
D F
ĠD irect
I L
n et
Ġchar ge
C ount
k i
ar p
Ġsh ip
ĠAfric an
ĠC ong
en a
Ġe ight
us ing
ĠAfric a
dag ger
er ve
ĠY ear
C ode
Ġt ro
Ġch arg
Ġappe ared
Ġpro te
Ġcomp act
is ions
ol f
pr int
h as
d ro
ĠM ad
ell ar
ĠW ork
ĠS l
Ġlong er
Ġclass es
ĠCanad ian
Ġcontinu ous
ĠM er
5 9
ĠR ad
Ġfe el
//// ////
Ġbeh ind
Ġstre ng
ĠT ex
Ġcon cept
ĉĉĉĉ ĉĉ
_ +
Ġcur ve
Ġnecess ary
Ġl iving
5 3
ma in
\ }
P I
ĠRes earch
f r
ĠM a
t em
ĠM iss
wit ch
Ġper cent
{ $
Ð ¾
ĠM ag
Ex p
Ġvol ume
Ġact ually
Ġst ream
ĠS et
mult i
wed ge
ĠMich ael
Ġinter action
d et
asket ball
Ġgra v
mod ule
Ð °
ma il
Ġro ck
Ġaut om
Ġdiag ram
Ġt er
ĠM ac
Ġneg ative
it a
Ġd am
Ġl atter
6 3
Ġe mer
196 0
cre te
Ġconst it
Ġad m
Ġext ended
Ġ$ [
}} _{
Ġlevel s
198 9
ĠD ay
Ġrepresent ed
Ġacc om
Ġpre c
att ice
is ms
at ur
ĠCent ral
A G
ol ar
Ġsche me
ĠT ur
Ġem ission
Ġg ave
re ater
as hed
Ġide a
line width
ĠHam ilton
ĠKing dom
Ġcharact ers
we b
ĠH ow
ĠĠĠ Ċ
ĠJ ust
in f
it z
at ial
ĠWh ite
ĠH ere
M C
Ġpres ence
"> </
ĠS ur
ĠS ome
c el
j o
Ġlim ited
Ġd ed
Ġt rac
Ġcom es
Ġthough t
N S
cur rent
Ġm ach
Ġbound ed
Ġexp ress
r ish
198 8
om in
Ġder ived
Ġl ayer
ĠThom as
ak er
k m
Ġim m
Ġav oid
Ġl ot
Ġbir th
r as
Ġschool s
Ġh ol
us er
iz er
ip p
Ġin side
ĠSc ott
ĠR ev
T able
el ves
Ġqu ality
6 2
Ġthe rm
ĠR ussian
Ġr ule
Ġh yp
S im
ĠG reat
Ġsymmet ry
_{ (
roll er
Ġm arg
ollow ing
R ead
tain er
Ġbel ong
Ġh ttp
Ġcon tact
s u
ĠD is
Ġredu ced
Ġstart ing
Ġindust ry
u racy
V ID
Ġd rop
Ġfor ces
Ġwh y
E d
ab ase
ĠM ont
S O
Ġdec ision
g ent
Ġf ood
ĠP o
ĠJapan ese
Ġm ar
Ġev idence
Ġto day
duc ation
ĠG rand
id ents
Ġben ef
Ġdiscuss ed
$ _
b ase
pro totype
ĠC ath
Ġneed s
Ġstat us
ĠS al
u an
Ġsh all
Ġl at
Ġj ud
ĠO ut
Ġmap s
Ġinter pret
ind er
Ġrec over
ĠM useum
bl ack
k et
Ġfri end
E X
Ġperson al
00 00
empt y
Ġinter val
ap ter
Ġover all
Ġan im
P C
ĠHe alth
ĉ Ġ
col on
ict or
Ġch osen
el t
ec ause
ĠO ther
ĠF ound
ough t
w in
Ġwrit ing
Ġgalax ies
7 4
w est
Ġmon th
ed y
Ġgener ally
Ġmod ule
ĠB en
Ġd ram
Ġex cept
Ġh ous
Ġpol ice
Ġmot ion
Ġbook s
par allel
Ġexp and
Ġfig ure
Ġfor ward
Ġalbum s
E ng
Ġt ax
Ġsur v
E C
Ġst aff
so ft
c ount
an o
Ġb all
ĠD on
ĠCh inese
Ġst e
Ġob ser
air s
Ġcount ries
), \
ĠTe chn
al i
Ġvert ex
ĠT om
= #
F T
Ġpan el
Ġpl aces
Ġelect ed
Ġs ports
Ġexp ansion
Ġorig in
lim its
ill ing
ĠP et
ĠP ublic
Ġlead s
F irst
Ġappe ars
ĠH istor
ĠAcadem y
Ġf ight
Ġent er
) /
Ġgrow th
uf act
Ġh ot
Ġn odes
Ġsc atter
et her
Ġrepl aced
oll ary
al o
D O
ĠC re
I V
Ġpract ice
n ov
Ġfound ed
def inition
Ġform s
Ġin ternal
Ġn orm
Ġto ur
Ġs amples
Ġlead ers
ot o
Ġart icle
Ġcontin ue
th let
az ine
ri al
Ġst ated
F C
ĠZ eal
ĠJ ew
ĠChrist ian
)\ ,
Ġc os
oc ol
Ġp aint
ĠSt e
ĠL and
Ġle ague
P R
Ġemb edd
Ġmain tain
ect ors
Ġdynam ics
Ġproduct s
omet imes
Ġsc ore
Ġs ex
bl ock
N ow
f ess
F L
8 7
Ġsy mbol
er ia
ĠW estern
f ect
ĠTex as
aramet er
mer cial
ĠG od
ĠD an
b on
C all
j ection
Ġf ramework
Ġw est
ch ild
EN T
w ar
ĠPro position
Ġpart ial
\ '
ĠZeal and
P T
Ġknow ledge
8 6
Ġform ula
Ġbl ue
198 7
loc al
idd en
Ġear lier
e es
iver se
ell s
Col or
ark s
Ġe ast
ver sion
Ġlist ed
ĠMin ister
Ġm oney
res ents
Ġ ;
Ġst ra
ĠIt alian
Ð µ
rop y
pect ed
Ġappoint ed
ĠDem ocr
st ack
Ġclust er
Ġa im
y e
Ġcons ists
Ġ er
re me
Ġdatas et
om a
ĠSup er
o ice
ag ement
Ġs low
Ġse ven
ĠR ail
u a
Ġ| \
oc ation
Ġarg ument
L T
re land
Ġv eh
Ġsub set
= {
i h
Ġar bit
" "
ĠCar ol
Ġmiss ing
ĠRec ords
ĠLou is
Ġrun s
Ġepis ode
ĠN ow
Ġn ature
Ġ ]
Ġform ation
Ġm us
L og
ĠVir gin
Ġ ...
ap ache
Ġf un
It em
Ġsh ape
Ã ¤
i ra
il arly
z a
Ġtrans l
Ġc red
ĠSum mer
ĠD el
iqu es
Ġs aw
Ġmeasure d
ar c
ic ense
198 6
s pec
_{ {\
yn c
B A
198 4
irc raft
Ġf ully
as ks
6 1
Ġdaugh ter
Ġpartic le
ĠT or
Ġ }\
T e
ĠR em
art s
Ġs creen
) }(
Ġsy n
Ġconc ern
Ġfootball ers
ĠL at
ĠF e
ĠK ore
Ġj ournal
Ġcon sum
Ġcont ribution
ĠR ob
is her
Ġth row
B S
Ġcompar ison
ĠSe cond
Ġmin imum
Ġpartic les
r at
Ġcour t
ĠE v
Ġpl atform
b in
ir al
Ġper turb
Ġsol id
Ġg overn
* {
Ġdel iver
Ġra p
Ġhig hest
vent ion
includ e
b ur
Ġcol lect
sub figure
Ġus ers
Ġgu itar
Ġspect ral
res hold
Qu ery
Ġexper iments
Ġtra in
st ant
7 9
Ġb ur
_{ -
Ġapproxim ation
Ġse cur
Ġh ours
Ġl ack
Ġcon sequ
ro ad
Ġdeterm ine
y r
s ol
h ost
in v
Ġc ounter
cl es
Ġexp on
Ġo ption
\! \!
' \
Ġw ide
' _
Ġh it
ĠChar les
Ġqu ick
Ġcon nection
7 3
Ġrel ig
Ġrad ius
Ġcoupl ing
Ġmoment um
Ġmem ory
im age
erm an
Y ou
d ec
Ġapproxim ately
Ġconn ect
W id
Ġincre ased
Ġpol ar
it ors
Ġchang ed
ĠS ervice
it i
Ġcateg ory
at re
Ġident ity
Ġpl ane
rough t
Ġhy per
ĠF lor
m d
O O
Com m
6 9
Ġpress ure
Ġestim ated
Ġc am
ill er
( {
Ġco ach
Ġneigh bor
Ġre ached
C o
Ġcho ose
n ames
le ctions
3 00
back ground
al ed
= (
Ġinst it
un s
d eg
ĠF ore
Ġr ules
ch ar
Ġal umni
Ġdescrib e
Ġeas ily
Ġrecent ly
el er
ĠF ootball
Ġsl ight
Ġuncer taint
Ġnumer ical
ĠF urther
Ġfem ale
7 1
ĠSm ith
B e
ri z
Pro perty
198 5
Ġk illed
l t
val ues
Ġnetwork s
U LL
uth ors
Ġinterest ing
li ent
ribut es
it able
: \
align ed
re p
ind ing
ĠS aint
Ġfr ame
Ġdesc ription
ĠOlymp ics
ĠS k
Ġprof ile
Ġsatisf ies
Ġevent ually
ĠH ence
Ġrema ining
Ġfil ter
Ġocc up
S I
Ġt im
M essage
] (
re es
}} (\
ĠJ ose
ĠM us
H ere
ex ample
M ethod
ou ri
Ġopt imal
Ġext ension
Ġprocess es
em ic
Ġatt ention
Ġmean ing
Ġs en
M ore
Ġfin ished
col umn
ĠP eter
Ġread ing
ĠG ra
ic an
Ġfam ilies
is l
p age
C an
P er
$ (
g raph
N et
Ġbegin ning
Ġexist ing
) _{
Ġtechn ology
Ġmanag ement
}$ \
Ġapplic ations
Ġche m
d x
Ġrequ ires
= -
ĠI N
a ud
Ġpr int
Ġmin im
it ch
Ġd ual
Ġsim ulations
) ^{\
as tern
Ġsh are
Ġbuild ings
Ġrep resents
por ary
act ory
Ġinst all
Ġto urn
le ase
Ġs quare
m as
ĠB ill
Ġse lection
Ġvari ety
Ġart ists
Ġeas y
E q
Ġuse ful
] )
st ream
ren ce
Ġf ast
ĠH istory
in fo
ell a
ic ago
is hes
Ġex amples
Ġcom ment
Ġfe ed
Ġso on
the n
ĠM ass
ĠFran cis
---------------- ----------------
il s
ĠRich ard
ann ed
Com p
O ur
Ġprodu ce
Ġtreat ment
C he
f irst
ĠA ccording
Ġagre ement
anc y
Ġqu ite
Ġvert ices
Ġpl ant
Ġorig inally
con s
B ar
Ġsc ient
Ġess ential
Ġliter ature
we ight
inal s
Ġc opy
in em
ur rent
z ero
ern el
Ġt it
in ity
Ġpl aced
ĠH ill
ob ile
Ġfact ors
Ġpass ed
Ġst ations
ĠK e
ie ce
Ġg old
Ġon es
Ġc ore
ĠO f
for all
Ġm icro
Ġre pe
R ep
8 9
Ġup date
os ing
Ġmeasure ments
Ġfour th
Ġam plit
Ġg irl
ĠComm ission
Ġsim pl
Ġup d
ent al
Ġcont rast
v ement
Ġs ure
S he
L S
sh ire
198 3
Ġdec ay
{ $\
b uild
Ġc ivil
Ġ( "
Ġequ ip
,\ ,
D is
8 4
g g
Ġconsist ent
Ġan sw
Ġcons erv
Ġant i
Ġsp aces
Ġsecur ity
H T
en ge
ĠĠĠĠĠĠĠĠ ĠĠĠĠĠĠ
t itle
d oc
Ġstat ement
ĠL ake
Ġcorrespond s
ar ian
! --
ĠW hat
Ġlin k
Ġacc uracy
Ġc op
i pl
ĠP an
ev ent
Ġexperiment al
ĠM el
ir ing
b i
in ner
ĠPar is
Ġ+ \
hes is
ĠB ur
Ġthe ore
u ge
Ġsp atial
f alse
m ission
ĠL os
H owever
rum p
Ġinequ ality
Ġro om
f e
k l
Ġwrit er
Ġconfig uration
ist an
Ġparticular ly
} %
Ð ¸
ele ment
ym pt
ĠW omen
du ction
Ġres olution
In put
rodu ction
ĠC D
ĠR ock
Ġcomp ute
Ġassum ption
Ġnot ed
Ġp ick
}$ -
ĠGe org
ĠAn n
ĠB rown
A b
Ġext ra
C ell
cont ent
P P
em bers
Ġin cor
es h
ot ion
ĠD en
Ġ ult
f ree
s pect
ĠT wo
ĠP ri
r ich
v a
S D
p p
C re
Ġl attice
m ann
ĠO ffic
ĠFran k
Ġp en
E nt
Ġ esc
=" ../../
ĠT er
AT E
ĠU nder
ĠAl though
ill a
c ore
ĠFil m
Ġhigh ly
ĠO ver
se ct
ĠM o
Ġf raction
pm atrix
Ġcontain ing
lo od
bl ue
t x
Ġt ensor
A ct
M M
ĠSp anish
ĠMore over
Ġexist ence
g ener
Ġexact ly
Ġident ified
Ġtradition al
Ġcalcul ated
ib ly
Ġelect ric
Ġsit uation
ĠF in
sub subsection
Ġrepl ace
og ene
ĠV ictor
com ple
Ġto ld
st o
ĠC amp
198 2
Ġch ain
.~ (\
raz il
Ġw alk
p ass
Ġed ges
and a
Ġpre m
Ġcap ital
ĠI reland
ĠIt s
19 50
sim eq
Ġfin ancial
h om
ĠCath olic
ul ate
8 2
Ġsc ience
f ort
gorith ms
velop ment
und le
for ce
W hat
P os
c ases
Ġp urch
con n
ter m
## ##
res h
ĠG overnment
Ġb ul
ched ul
Ġcult ure
ig an
Ġd u
or ial
ĠT ime
ult ure
Ġit em
Ġcon cent
Ġdec ided
g ra
st atic
Ġr isk
ir it
b an
Ġop port
Ġf ix
Ġconstraint s
F e
Ġm unic
G B
Ġsignificant ly
oc key
Ġm iddle
Ġsoft ware
Ġscal ar
ĠO pen
M ed
g u
Ġcoeffic ients
ĠFor ce
Ġmention ed
ur t
R A
Ġerr ors
Ġchall eng
se ud
Ġmed al
Ġcompet ition
sk i
Ã ¨
Ġc ause
Ġplay s
Ġse em
Ġb ad
Ġet c
ms elves
S pec
et te
Ġproced ure
ve x
Ġn om
Ġst eps
Ġform at
ĠIs ra
Ġother wise
) ^{-
n el
)\ \
a o
ar ant
Ġt alk
Ġbas ic
op en
Ġfin ally
ĠP enn
N A
Ġart ist
Ġb rought
Ġc ele
av al
Ġhe avy
Ġtrad e
Ġcaus ed
ic ity
Ġstra ight
ud d
S o
F l
Ġre ach
Ġb ottom
Ġv oc
Ġdist inct
g n
197 9
ĠF orm
ER T
Ġv s
ĠIn c
pe ople
text sc
Ġman ufact
r ong
ef ined
est s
ut ch
Ġdis e
i ency
T V
$ ).
Ġthe mselves
Ġconstruct ed
Ġdepend s
M ar
Ġw oman
Ġspec ified
l anguage
Ġde com
re a
Ex t
Ġst ay
an ced
Ġpl ot
az z
$ $\
Ġg rant
Ġro ot
aramet ers
\ "
F urther
Ġmov ement
ĠD u
con text
Ġarg uments
Ġb ool
Ġappro p
Ġstrateg y
Ġb ranch
id ae
reed om
N e
re al
Ġv an
ĠP ost
ĠV er
Ġcur ves
ĠAl so
Ġhor iz
Ġlead er
Ġin sp
ĠCO VID
n umber
Ġr ates
ĠSer ies
Ġact ivity
e ks
Ġmin utes
ĠO per
198 1
Ġmat ches
Ġrele vant
ĠSt ar
S ource
Ġdet ection
ro t
om ic
ĠR eturn
pro cess
ab ilities
Ġb ank
C L
C S
il ib
Ġse ems
ĠĠĠĠĠĠĠĠĠĠĠĠĠĠĠĠ Ġ
$ ^{-
ĠFlor ida
Ġdoes n
Ġb al
l am
if ically
mat rix
P art
or ation
Ä ģ
ĠB re
ĠComm ittee
Ġcomplet ely
Ġsim ulation
Ġcon vert
ĠL ie
Ġcom ing
Ġcorrel ation
ĠAt l
Ġa ircraft
) }{\
d im
l en
Ġdom in
ic ated
ish op
Ġrema ined
Ġ= \
}} ^
Ġ\ (
Ġj oint
u ations
8 3
Ġ ensure
Ġs n
Ġext ract
id ers
T oken
Ġun ivers
Ġinv ariant
Ġex am
Ġm ole
ri um
Ġcol lege
ĠE nd
Ġsur round
Ġp ain
od er
Ġst ri
ail y
Ġcell s
Ġang le
Man ager
at o
ĠCh icago
Ġmin or
Ġst rict
Ġden otes
y mmet
O per
ing er
k o
ĠHen ry
\| _{
ĠCong ress
Fig ure
Ġp ark
B ack
4 00
Ġshow ed
M E
Ġ util
ĠArt s
Ch ar
I F
Ġg reen
Ġg rand
8 1
n y
Ġg reater
Ġb rief
ĠVirgin ia
b ottom
Ġpol y
Ġun ion
ut ed
Ġs ch
ĠG r
Res ponse
Ġan c
ol a
l s
Ġincre ases
if fer
ir us
Ġdid n
ĠAng eles
Ġ&= &
Ġcoll abor
Ġs ometimes
r ons
Ġent ry
ul s
ed s
Ġm ur
ell i
Ġinflu ence
Ġimmedi ately
c a
ĠH el
ĠC am
Ġres ol
Ġcrit ic
ĠB ig
Ġmod es
ĠOr der
Ġdist ributions
omorph ic
e ch
ap ers
Ġin ner
Ġfeature d
Ġleg al
Ġmed ical
new command
197 6
ell ed
ĠSec ret
ot ing
et ime
ma z
B ase
ĠC ast
Ġsh ot
ĠFound ation
d b
ĠK n
197 8
C A
= '
ĠReg ister
Ġbe y
Ġsing ular
ĠM ost
Ġw or
Ġ! ==
Ġimpro ve
Ġredu ce
N ext
Ġpair s
Ġcom mercial
ust er
Ġprop ag
p ress
Ġaward ed
it ation
Ġp refer
Ġinter view
Ġst able
as i
he mat
Ġnear ly
) _
st ract
ĠIt aly
Ġform al
n eg
al g
om y
ĠI ll
P re
Ġc ard
Ġclass ification
Ġc ry
l ig
Ġdis k
Ġintrodu ce
Ġj ava
Ġde b
ĠE mp
ĠO h
ĠM r
Ġqu ad
ĠU p
t arget
}^ *
Ġbey ond
ĠS un
^{ +
Ġr ing
Ġreturn s
197 2
C lient
on ly
Ġorgan ization
H ead
ĠS wed
ĠMex ico
Ġa uthors
Ġcomput ed
} )$.
Ġsepar ate
Ġst ore
Ġh ttps
)$ -
Ġpolitic ian
197 7
Ġdepend ence
Ġse c
Ġactiv ities
Ġpre vent
Res ult
197 4
St ream
S ec
Ġabs ol
b ed
' re
Ġpat ients
Ġse cret
ĠP re
i en
Ġdev ice
ith ub
St atus
ĠD ec
Ġw ind
Ġ< <
se lect
ian o
Ġassum ed
ol k
Ġaff ect
Ġprob ably
ig ger
C P
Ġsymmet ric
Ġh um
ĠM il
Ġle ave
ĠB oard
Ã³ n
i ant
Ġvis ual
Ġhouse hold
ĠRuss ia
Ġm orph
Ġcont ributions
Ġstud ent
ĠF re
s ur
Ġe arn
og ue
Ġdo ing
Ġgener ation
h ing
E arly
or al
Ġre comm
197 5
Ġsc ored
L ine
ian a
Ġspect ra
Ġcomb ined
ĠF estival
Ġst ellar
Ġth reat
Ġtechn iques
ĠE ducation
Th us
Ġrel atively
r l
Ġsing er
bre ak
ad ow
Ġth ick
ay out
ov iet
pend ix
Ġcandid ate
Ġtourn ament
str ong
H z
Ġmajor ity
Ġas ked
Ġsem i
Ġf if
Ġsp read
now led
ament al
Ġcomb ination
{ {
Ġal gorithms
Ġfail ed
ĠM ax
Ġreg ister
Ġ$ $
or a
ĠK ar
Ġmeas ures
Ġab ility
d ir
rem ark
map sto
Ġv ac
pt on
multi row
ug by
r or
A ut
Ġm ind
ĠL y
Ġprogram s
Ġconf ir
k in
ĠSp ace
ri e
os h
Ġb asketball
are er
ĠK h
Ġth reshold
ang er
m ic
i ro
ĠB r
Ġth ing
Ġqu ery
Ġarchitect ure
Ġor b
ĠT rump
Ġappro aches
ĠSc ot
st ra
Ġs ampl
y an
}$ }
Ġestim ates
Ġhe art
av en
Ġact ual
ĠA tt
ĠS il
all ery
Ġprot ected
T O
1 10
; "
Ġc arried
Ġmov ing
roll ed
Ġmanag er
ĠR el
ĠS ol
Ġarbit rary
Ġfl at
g t
The orem
ang es
ist ical
Ġdist ributed
1 000
onal d
ĠSe e
S M
Im age
Ġs plit
Ġmat rices
Ġremov ed
w a
Ġdiv ision
che n
ĠPro gram
Ġslight ly
ĠL ife
" ),
st ein
ĠS ta
D A
Ġlook ing
Ġtyp ically
od ot
C R
Ġc ru
' (
ĠE qu
196 8
L P
Ġinteg er
Ġa mb
Ġopen ing
O ff
N R
Ð ½
Ġprov ed
O ptions
St yle
The se
Ġm ut
Ġbroad cast
per ties
f in
ĠII I
Ġgener ate
Ġestablish ments
Ġinter face
197 3
C ons
Ġt or
Ġsp ent
ĠR o
erv ed
ar se
Ġdest roy
ĠGa ussian
ĠE ach
it iz
ĠS ocial
ĠL u
Ġb us
Ġstreng th
Ġcall back
vi ation
as er
cl os
qu ery
d f
ĠIn st
T H
Ġcomp are
ĠChampionship s
~ $\
Ġag ent
Ġw ays
ĠD ata
' }
ĠEng ine
ĠA wards
Ġyield s
Ġpro gress
l ang
\ _
O ther
app end
Ġdiscuss ion
Ġeconom ic
ic ks
Ġdis p
ĠH ot
Ġas ympt
n um
ĠD ou
tern et
Ġqu e
ĠB ank
j a
t ik
ĠMart in
Ġmost ly
Ġ ign
Ġpur pose
U E
Ġabs or
Ch ild
cont in
ĠM ur
p ush
Ġcap acity
Ġpo or
ĠL ong
T D
ĠL ove
Ġwe eks
un ct
Ġgo es
Ġon to
ĠT imes
s he
w an
P O
at i
Ġopt ical
Ġper fect
ĠW al
g ithub
Ġb rand
ĠYou ng
Ġinter actions
Ġp ure
Ġc orn
im a
Ġtrans formation
h ab
p icture
en ame
Ġrema in
ĠT our
ĠO ld
f aces
pro position
Ġpr ison
h ouse
c f
Ġsit es
Ġcal c
ven ue
Ġro ute
v est
Ġwin ning
Ġcirc le
ol t
Ġf a
Ġun known
pack age
ĠN avy
Ġmeet ing
fl ict
Ġcar ry
il er
S A
Ġposition s
ĠO l
ann els
j oy
ĠDirect or
eg er
F unction
Ġres ource
Ġcent re
ĠPl ay
am ely
Ġeffic ient
augh t
wh ile
~~ ~~
Ġb inary
Ġcoordin ates
D ate
ĠG al
n ull
ĠCarol ina
but ton
Ġbelie ve
Ġmeasure ment
c s
Ġsum mer
ĠRe view
H O
$ ;
S R
al ysis
Ġwrit ers
sc ill
f it
Ġdifferent ial
N otes
ow ers
197 1
sy l
Ġs ort
Ġcomput er
Ġre const
g reg
Ġa ctions
Ġas pect
Ġadv ant
van ia
ĠH aw
U til
E O
pos es
pd ate
ĠJ o
Ġres ources
p ost
r ical
Ġac adem
Ġreg ime
p o
ĠB ob
ob j
Ġed itor
ric s
op ic
Ġw ood
ĠL in
os c
Ġcl oud
g a
as ion
Ġor ient
Ġgo als
il ed
rick et
ĠTe am
} );
ĠL i
Ñ Ĥ
Ġde ad
Ġrec all
ig ation
Ġp hen
ĠB i
Ġlo op
J ohn
Ġappear ance
k es
Ġ+ =
ud es
ĠN etwork
t ri
\ {\
Ġwant ed
Ġf air
Ġ$ {
Ġext ends
ĠJ un
sy ch
Ġrem ove
Wh ile
f ont
Ġgiv ing
ĠF ort
ilib rium
rib e
as y
Ġte acher
M D
Ġact or
Ġexp ressed
Ġs rc
}{ *
Ġcy cle
el a
Ġhy dro
Ġpar allel
196 9
N ull
Ġv irtual
Ġd oc
Ġinitial ly
ĠJ ournal
ĠB razil
ĠJ ac
Inst ance
Ġindividual s
R un
ĠB as
ĠL ine
w rite
ĠW ood
Ġmov ie
Ġv ary
N O
c d
Ġseg ment
Eng lish
R em
tik z
a ver
l ines
ad ium
erv ices
or ter
ĠPro fess
Ġbe g
Ġbo olean
at ically
ov a
( [
B ox
Ġmach ine
Ġf arm
k ins
* /
ĠPar liament
t rack
Ġobser ve
ĠOff ice
Ġm ixed
ĠR ead
}} ^{
a fter
Ġm is
Ġax is
rel ated
Ġg r
R el
Ġmain ly
Ġ â
d ev
com ing
Ġcl ient
p y
ĠSt ep
ĠG en
Ġ-- >
ell ig
ĠH on
Ġcontain ed
ĠF ield
Ġact ress
display style
Ġdep th
=" +
Ġm aster
Ġincor por
Ġv ectors
_ -
Ġconver gence
M O
ĠB ase
ib li
yp es
Ġident ify
$ ~
Ġh arm
ĠT im
ĠW ales
ĠH ig
| _{
ĠOb ject
M B
S L
Ġed ition
Ġs qu
) },
D uring
Ġachie ved
indow s
j i
ad y
Ġf oot
Over ride
Ġrefer red
ĠAs sembly
T P
Ġhyp ot
Ġre li
pro b
ĠEar th
act er
Ġtyp ical
194 0
=" #
ĠCh ief
ĠA rab
epend ence
ag raph
Ġlaun ched
Res ults
ĠP ac
Ġcommun ities
if ies
est ed
Ġfri ends
ct ors
Ġg ain
Ġex ternal
se arch
c ong
Ġfav or
Ġparent s
ott ed
Ġcle arly
Ġl ives
Ġc at
Ġend ed
ĠJose ph
Ġ$ .
sk y
Ġref lect
c at
ip ality
Ġo scill
Ġph il
Ġprov iding
aram s
l ast
ĠHamilton ian
Ä ĩ
W ork
ans as
ĠP eople
Ġc atch
Ġquest ions
act or
ab il
Ġtest ing
00 1
Ġsay ing
s che
ĠH y
Ġm ission
ĠI rish
Ġvoc als
Ġrecord s
Ġqu arter
i as
1 20
opt ion
Ġocc urs
E l
Ġr an
15 0
F I
Def ault
194 5
Ġw atch
sy stem
il ation
go ogle
Ġacc ur
St art
Ġapprop riate
ĠLe e
aw a
ref ix
Ġrap id
196 4
ĠA ut
) -\
Ġget ting
return s
Ġturn ed
Ġwe b
ific ations
m c
ic ate
ĠN ULL
Ġgalax y
ent y
ak a
Ġstrong ly
stit ution
Ġext rem
Ġch ief
Ġr ul
Ġman ifold
) +\
Ñ Ģ
196 7
Ġsh ared
Ġst d
Ġcomput ation
Ġl um
ay lor
U ser
P A
Ġdr ug
Ġg rid
ĠT op
pro perty
19 30
Ġdetail ed
Ġstud io
Ġag o
ĠB et
C or
Ġrespons ible
syl vania
> (
Ġstat istics
Equ al
Ġar rang
pt r
ri ed
Ġimplement ation
in et
b as
Ġit ems
ĠL iber
Ġr iver
Ġsatisf y
Ġse asons
Ġwh om
P op
m ma
ĠSh ow
Ġjo in
Ġco ast
Ġdem and
d ep
N umber
Ġex change
Ġk ing
t ag
P erson
M R
Ġfore st
ad ata
ĉ ĠĠĠĠĠĠĠ
Ġover l
Ġindic ates
ĠN orthern
y es
Ġvis it
Ġb attle
Ġdiffer ences
add ing
Ġ( (
Ġbehav i
}( {\
Ġredu ction
od ed
&= &
tain ment
ĠM ount
ĠProv ince
Ġquick ly
Ġatt ract
} &
ĠĠĠĠĠĠĠĠĠĠĠĠĠĠĠĠ ĠĠĠĠĠĠĠĠĠĠĠĠĠĠĠ
it an
P oint
Ġmechan ism
j e
flo at
con dition
Ġass ign
Ġst ories
ĠJ im
d es
Ġis land
r ont
ĠThe ir
ĠA N
Ġscatter ing
Ġpro ceed
Ġw ait
M et
at riate
Ġsc ene
Ġse ctor
m ond
Ġ url
Y PE
ult ural
ĠC ross
C ar
Ġdes pite
S ch
Ġget s
g r
is ters
ĠB usiness
ĠD ev
Ġdet ect
Ġres on
Ġmus ical
A rt
Ġtra ined
Ġrece ive
Ġatt ended
ex pected
ĠPro ject
} }$,
ĠAd d
Ġex ception
Ġold er
196 5
" ).
} }$.
Ã §
ĠCol umb
ro ph
C areer
Ġch ampionship
} )$,
E L
ound s
re ct
Ġse ctions
ĠT ype
orn ing
ĠHistor ic
h bar
un it
Ġprodu cer
m iss
st ep
Ġpr iv
ĠG overn
und red
Ġnot hing
Ġin form
arg s
m ass
I A
us band
Ġs outhern
ve ctor
Ġobserv ation
Ġaltern ative
Ġn orthern
Ġre n
Ġg ap
Ġn ative
Ġsh oot
Ġnot ation
rad e
Ġh ar
Ġoff set
ruct ure
Ġass ess
Ġh ole
Ġo dd
as ure
Ġindic ate
ib r
Ġpart ition
ogene ous
M in
T C
M e
Ġmass ive
ĠVal ley
Bl ock
Ġn ation
Ġide al
Ġor th
Ġprot ect
Ġnew sp
ĠT em
Ġproject s
Build er
Ġbecom ing
ut y
he m
Ġexpl ain
ard en
196 6
pos ite
Ġmass es
[ (
ĠR am
A ccording
Ġmagn itude
Ġgen us
ĠS oviet
Ġcy cl
R ight
T op
} ~~
Ġachie ve
h box
Ġl ies
Ġem pty
y les
I O
ĠEmp ire
Ġpl ans
c r
il ing
Ġmin imal
Ġindu ced
ĠSp ain
ĠJ ud
ĠD et
Ġoff ers
Ġex c
}$ )
Ġse a
Ġoffic er
M on
Ġtest s
E m
ĠI ran
ĠE lect
ĠB oth
Ġpo et
ĠS pe
A m
flo or
Ġn one
D B
ug in
Ġf ederal
Ġp rice
Ġsur vey
Att ribute
ateg ory
amp ion
cl ient
Ġsen ior
l ock
Ġshow ing
ĠDe velopment
ip age
H ow
Ġbe am
Ġ$ |\
T hat
c ript
end if
Å į
Ġpro port
19 20
Ġsy nt
Ġnuc le
Ġlaw s
ens ions
air man
Ġp i
Hand ler
Ġc ool
Ġnumer ous
s uch
ost on
R L
Ġp ull
requ est
Ġser ve
i y
qu ot
Res ource
ang ed
) )$
Ġann ual
se cond
min ipage
G ener
olog ies
ĠF inally
ĠL ibrary
a a
Ġcom pl
l aw
ad er
Ġbound s
Ġtherm al
Ġgu arant
Ġ ice
angu ages
Ġfor ced
u er
tain ed
b el
ĠPenn sylvania
on ical
Cont ent
Ġmarg in
Ġdig ital
ĠM en
Ġconclud e
z y
y er
Ġcele br
out e
ĠÂ £
Ġf ine
ar ia
ock et
B uffer
Ġunderstand ing
Ġp ix
ict ed
s g
Ġrail way
ĠS ir
IN T
arri age
Ġh op
Ġown ed
Ġw orth
}{ |
Ġto uch
Ġra ised
Ġt asks
Ġpart ners
un ch
ĠM em
Ġk ernel
ĠG ood
Ġcou ple
av el
Ġr ise
Ġen joy
t ure
anc ing
ĠCh ild
Ġv ote
Ġt al
$ ),
Ġclust ers
Ġanal og
ĠUS A
ĠCent re
m t
Int roduction
Ġorder ed
) }_{
D S
Ġpre p
Ġcommun ication
Ġmaterial s
ĠC a
Ġim ag
cc cc
Ġle aving
ĠS und
Ġdimens ions
Ġmur der
Ġex cit
Fil ms
ĠS ar
C ase
Ġcomm ission
ĠM ov
pro t
Ġwork ers
Ġred shift
Ġdist ingu
| }
C ON
ro om
}{ (
Ġfunction al
ĠB ul
h ar
ĠP ak
Ġ~ ~\
Ġang ular
Ġbu ff
ĠY our
cher s
f inal
ĠJohn son
G C
Ġ ener
Ġtheore tical
igh ter
Ġcover ed
ĠRad io
Ġser ver
icro soft
ĠG reek
ĠO p
Ġmet al
v ol
Ġcle an
Ġtry ing
U s
ph ant
Ġc a
M ax
ce an
Ġfund amental
Ġmag azine
u ous
Ñ ģ
at ers
em porary
Ġdram a
x x
ĠL ag
Ġ eth
Ġdise ase
S ection
ĠAs ia
Ġphen omen
H S
Ġter rit
ograph ic
Ġw all
Ġsub group
: "
Ġcompos ed
Ġl ived
ut ing
Ġflu ct
Ġamplit ude
Ġinf inite
Ġar rest
ynam ic
s ign
Ġconsider ing
ĠCon ference
ll ap
ent h
' m
Ġnuc lear
Ġfore ign
text bullet
: }
Y ear
c ular
w er
r ative
ond er
m i
c ss
ĠW ay
less sim
Ġpred iction
t wo
ĠU sing
res ults
ic ine
Ġdefe ated
Ġc ov
ĠU k
Com ponent
V ersion
ax is
c ref
Ġro ugh
ser ver
cl aim
Ġ{ };
p op
Ġcon j
ay a
ĠE r
M y
Equ als
or ig
l ib
il a
ell er
pos s
j ava
Ġc ensus
j son
Ġch art
Ġgeomet ry
Ġp iece
Ġlay ers
g ies
ĠS T
Ġs witch
ĠFurther more
ĠB attle
IN E
Ġm ountain
r ame
b ury
ev en
Ġent ered
Ġs pl
ĠH or
it ivity
> >
t frac
Ġel im
R ow
sh ow
The refore
Ġn ine
f s
names pace
ĠDemocr atic
ĠWe b
B i
) }}
Ġv oice
ĠC y
co pe
: =
D ist
rem ove
ont al
ĠT re
Ġ ion
Ġsaf ety
ĠH ome
def ined
ĠI D
A ust
Ġh usband
Ġclaim ed
ĠJ ones
Ġhand le
omet ric
ĠS outhern
Ġgraph s
Ġcalcul ations
Ġhe at
ĠSp ring
Ġmod ified
h aps
bt n
196 3
Ġch annels
Ġob vious
}{* }{
P RO
Ġdepend ing
Ġphys ics
Ġdeg rees
ĠP rem
ul f
row ser
. /
D es
196 2
agn etic
Ġneighbor hood
Ġs ociety
Ġgrad ient
Ġhel ped
ĠS ong
enn is
Ġdepart ment
p at
ud get
ĠMed ia
ĠMich igan
W rit
p ot
- $
Ġhistor ical
ran e
Ġdel ay
stand ing
ash ion
Ġass igned
Ġtrac ks
U sing
G l
ĠCar l
ĠOh io
Ġscal es
Ġa st
Ġconfir med
Ġcalc ulation
ĠPl an
ĠBrit ain
ĠS u
c ks
F inally
E M
Ġeffic iency
ck nowled
os oph
Ġsing les
Ġtechn ique
}\ ,\
ap ed
en ess
ĠC amb
for ward
Ġlet ter
H el
F R
ĠM ajor
el se
Ġcompos ition
ĠB uild
Ġvert ical
Ġh ospital
Ġf irm
ve e
Ġdr um
Ġres ist
Ġbe aut
V ER
Ġadopt ed
ĠL ord
Ġp seud
ĠA v
p g
Ġdecom position
ĠS pecial
ĠC ivil
ult y
Ġus ual
Ġsome one
Ġb r
ĠL og
ĠF C
du ced
ã ģ
ĠM ountain
ars er
Ġcon vex
od d
Ġ[ ]
ĠMod el
omet ry
Ġs al
Ġser ious
mid rule
P ost
d at
Ġrot ation
Ġo il
h igh
b u
Ġvict ory
u int
Ġlim its
Ġh ope
ess ages
Ġ\ !
g ate
ra wn
Ġcount y
requ ire
Ġoffer ed
Ġf reedom
ĠCon n
Ġarm y
Ġcoeffic ient
Ġeffort s
urb an
g ers
Ġp il
Ġpart ies
ĠGo ogle
ĠTechn ology
G u
Ġconduct ed
bur gh
Ġacc eler
eb ug
Ġfil es
c ut
ĠE ll
ĠEn ter
ĠP op
> &
pt o
Ġsur pr
dis c
ino is
ĠCor por
ibli ography
++ )
et ts
Ġem p
o ir
ĠAs ian
Ġreve aled
ĠIsra el
T ra
Ġuncertaint y
ang ular
Ġdiscover ed
Ġin iti
ĠHe ad
ĠT O
Ġoptim ization
Ġal one
Ġspe ak
Ġra re
ĠJer sey
A ction
Ġexpon ential
D C
ĠO x
Ġenc ou
Fil ter
a ug
cal e
Ġle mma
Ġfl ag
ĠIn f
big l
Con st
Ġchem ical
ĠE conom
v ari
ĠB ern
ad or
ã ĥ
ĠT ele
, $
Ġele ctions
gy pt
] }
im ages
x ml
sc ope
Ġinterest ed
P ort
ĠM id
f ind
ph p
^* $
194 4
s i
Ġse at
Ġcon flict
-- -
Ġth r
fil ter
P o
ran ce
ran k
Ġsuggest ed
ĠPh ys
er c
Ġany thing
Ġin come
ĠC r
Ġle aves
ĠWilliam s
ĠS and
D o
L a
Ġ\ ]
tain s
ĠM ah
ĠPac ific
Ġre ports
AP I
ach us
Ġc itiz
ph as
ĠGeorg ia
m itted
Ġpro min
Ġb right
s rc
el d
Ġden oted
ion e
Ġcomplex ity
Ð¾ Ð
Ġrelig ious
up date
Ġl ibrary
Ġl if
ta x
Ġsub t
ĉĉ Ċ
ĠN S
Ġtr ivial
Ġ ut
ner gy
b ot
du le
Ġfam ous
L abel
ĠB ow
ĠG ame
Ġaut o
ĠB u
196 1
og rap
Ġwhere as
es ter
ĠMan agement
od ay
Ġallow ing
ĠL im
ch ron
wit ter
% )
ĠRep resent
ĠK ong
ul y
ele te
Ġre pro
ĠM any
t ings
Ġc ities
' .
Ġorgan izations
Ġext end
big r
form s
h u
ĠU s
iction ary
d escription
ĠBl ue
he tic
Ġoffic ers
ĠR h
ĠScot land
N ational
go ing
B o
Ġplan et
Ġun iversity
Ġs s
ĠB ra
Ġimport ance
N ames
Ġtri al
$ :
P L
Pro v
Ġis ol
Ġth rows
I B
Ġdis crete
Ġscen ario
U p
Ġtra ject
Ġfind ing
Ġdev ices
Ġ ^
Ġt ag
ĠĠĠĠĠĠĠĠ Ċ
ĠSt and
let s
ĠL uc
\ }$.
D R
ĠK ent
ic ens
Ġ- >
Ġdes cent
Ġdr ive
t an
Ġ[ \
Ġdis s
ĠM u
od ies
di ag
Ġsc ript
$ _{
Ar g
Ġsatisf ying
ĠS i
ĠH a
Ġimpro ved
t iny
Ġsy m
Ġord ers
ad el
We b
am ing
ab eth
i ate
D esc
S che
ĠSen ate
ĠA cc
is er
ĠP ower
Ġact s
Ġgrow ing
Ġre ct
Ġre asons
E v
set s
Ġoper ated
am m
Ġdiv ided
Ġrecord ing
F actory
d el
Ġloc ally
] $.
ail ed
Ġb ass
ĠB al
L ength
ic ed
Ġnear by
ĠE p
Ġtra ffic
Ġs chedul
ĠCo ast
Ġent ropy
wh ite
Ġst ress
.. .,
here nt
Ġserv ing
l ers
ĠV an
s en
Ġact ors
L oad
achus etts
Ġcol on
D P
Ġd ust
Ġabsol ute
d y
ed ia
ĠR ay
bra ce
ĠEd ward
ĠL ab
Ġb in
u um
ĠPhil ipp
Tr ue
l ie
Ġact ing
Ġadd ing
Ġadvant age
ĠC ro
Ġcalcul ate
Ġf re
Ġvari ation
ist ent
ang ing
og en
Ġw ild
Ġh undred
en ant
Ġsett ings
: (
Ġp p
Ġor bit
v in
head er
st one
ful ly
Ġstat istical
Ġdi am
h r
Ġprinc iple
Ġ{ @
) --
arri er
b al
ĠB oston
pect ive
Ġs quad
Ġmanag ed
Ġwid ely
ru ck
) )\
Ġmark ed
Ġscal ing
Ġevery thing
S m
it age
Ġpro jection
Ġsol ve
Ġansw er
a uthor
;\ ;\
Ġfe at
C K
Ġexpl ained
c ar
Ġunder lying
Ġloc ations
Ġob j
Ġinter section
ap se
ĠPol ice
Ġcoordin ate
Ġapp arent
n am
Ġrem ark
e z
ĠIs lam
N E
ĠQue en
T rack
194 2
ĠG i
so le
Ġro ll
] );
Ġnot ice
ĠJew ish
Ġs ession
math op
Ġprocess ing
d rop
OR T
medi ate
ent ry
; &
}} _{\
Ġown ers
AM E
A V
ul i
or i
Ġm apping
Ġbl ocks
195 6
Ġcharacter istic
ĠR un
Ġir re
Ġc ert
S ing
ject ed
id el
ĠAs sum
Ġto ol
195 9
Ġoper ating
Ġm ill
ĠFrancis co
il bert
ĠC ard
195 8
M at
ĠD utch
,\ \
D isc
Ġ Î
Ġbelie ved
Ġband s
Ġresp ond
on to
m osp
Ġs ister
Ġp icture
form at
Ġtechn ical
Ġsu c
Ġev ol
Ġind eed
Ġeval uation
Ġsc ope
="../../ ../../
p ers
plic ations
D ec
Ġf le
in ations
Ġdescrib es
are n
pr ivate
ou ble
af e
ĠB or
out put
}~~ {
Ġb att
ĠP oint
up s
Ġrob ust
Ġtre nd
ou the
Ġst ack
st able
Ġcall s
Ġcon ven
Cre ate
Ġpolitic ians
B rit
ĠJ oe
Ġtr ust
Ġc ouncil
ĠR os
Ġfl ight
Ġmed ium
Ġinteg ration
Ġcre ating
u ing
ĠF ar
Ġsubsequ ently
A c
ur i
Ġst ability
Ġ ens
eng er
Ġn amely
rom e
Ġn arrow
av ed
ĠThe atre
Ġpart ner
Ġn et
M embers
Ġsecond ary
ĠG ener
un a
Ġfootball er
ĠT aylor
Ġsuggest s
ult ane
Ġfail ure
ur ies
Ã ±
Ġtre es
Ġrepresent ing
Ġf elt
Ġt ail
ri end
ĠIll inois
Out put
194 8
Ġd ial
Che ck
M en
195 7
ĠCol or
Ġwe ights
][ ]{
Ġacqu ired
Ġth ous
$ &
Ġund efined
Ġs ides
ĠGovern or
al ing
Ġsuc ceed
we et
J S
ĠPort ug
clus ions
}} }\
app ed
ĠB ecause
y d
ĠH uman
Ġequ ilibrium
S ports
D escription
ol es
ad ing
m ode
m atch
Ġb ridge
ĠN one
Ġstart s
writ er
Ġ" ""
call ed
Ġcapt ure
Ġb lood
os is
Ġsh ips
Ġded icated
f ound
Ġcre w
ty p
plic ity
ird s
( _
in ate
ig ration
Ġcre ation
Ġcan cer
ĠM iddle
Ġw estern
Ġres idents
Ġu int
ĠW ater
al so
script size
j oint
Ġcon d
ĠM ot
Ġt end
Ġv on
ra ge
A F
ab y
Ġconsequ ence
ĠO F
d frac
uck y
i able
ĠD isc
Ġpro pos
Ġart icles
port ed
Ġvers ions
Ġneut r
ĠPol and
Ġke pt
Ġrepresent ations
all ow
Ġcandid ates
Ġinst r
and emic
Ġsufficient ly
ĠF ace
ĠN ight
\ ;
Ġcom edy
Ġcommon ly
Ġs end
Ġco inc
] $,
ĠSt an
M ult
Se lect
ĠL o
: #
Ġclaim s
Ġown er
Ġlum inos
Ġregard ing
oc cer
AR T
c lear
Ġreg ional
Ġl ock
Ġint ended
Ġg un
s ch
Le ft
Ġdet ected
Ġl en
Ġun s
tt y
Ġpr ime
Ġestim ation
ik i
Ġorgan ized
ec es
Ġcl in
he nt
Ġ{ $
Un ited
D M
19 39
ta ch
ĠB ang
ap pe
,\ ,\
ĠMass achusetts
194 3
z o
Ġconst ants
Ġt ell
f old
S l
ĠA R
Form at
K e
Ġdatas ets
ĠAnd rew
on ia
ã Ĥ
b ro
Ġin verse
ĠA ff
Ġl ie
ĠJ r
V ol
ĠE st
ĠW all
Ġrad iation
Ġinstr ument
Ġshe ll
D r
t ree
ĠS ervices
ĠComm unity
Ġl anguages
ĠW ild
s ort
b uf
script style
ĠSecret ary
Ġattack s
Ġcult ural
Ġclub s
Ġins ert
}) }
194 1
, {\
P ar
Ġab und
che ster
Ġrequire ments
$ {
ĠE X
og s
25 0
Ġsum mar
te en
Ġveh icle
Ġdimens ional
S ome
Ġth in
Ġ ^{
ĠWil son
ĠSe a
Ġiss ued
Å ¡
}~~{ }$\
s pe
ob s
Ġgrav it
le ep
Ġdes ired
och astic
off set
ĠE astern
ig er
Ġa w
ĠK en
ĠBro ad
s or
}[ \
Ġprim arily
f n
" ]
P age
W ill
on se
am ber
Ġevalu ate
Ġexplicit ly
195 5
st atus
clus ive
ĠS ports
L ast
ph ia
ĠP ubl
Ġassoci ation
Ġal le
ĠJ es
}} )
g est
Ġst orage
Ġtrans lation
AB LE
Ġprofess or
Ġd raft
ĠC all
Wid th
}} .
ĠH ong
Ġc ook
im ation
ĠT ri
Ġdat abase
Ġl ab
ĠJack son
Ġcol lected
ĠE gypt
ac ent
con f
Ġret ired
ĠĠĠĠĠĠĠĠĠĠĠĠĠĠĠĠĠĠĠĠĠĠĠĠĠĠĠĠĠĠĠĠ ĠĠĠĠĠĠĠĠĠĠĠĠĠĠĠĠĠĠĠĠĠĠĠĠĠĠĠĠĠĠĠĠ
art he
Ġprinc ipal
Ġpredict ed
| }{
G R
ar ters
Ġsu itable
im er
Ġpower ful
T em
Ġimplement ed
ĠI R
ig r
ĠL ittle
al gebra
ER R
Ġst rain
Ġem phas
he t
Ġcos m
Ġinvol ving
Val id
Ġrad ial
long rightarrow
W orld
Ġtem por
Ġmatch ing
fl u
}) ^
Ġf rag
ta il
Ġexec utive
ĠM ethod
ĠE ven
Ġapp lying
cl ose
194 6
Ġlaun ch
Ġm useum
ĠRail way
ch or
Ġp urs
Ġturn s
n n
ĠG ar
ĠS pec
Ġhand s
d esc
P U
ier arch
' ve
op her
ron ic
Ġmed ian
d ney
Ġadminist ration
Ġal t
J son
ĠD ar
Ġide as
Ġgener ic
Ġinvestig ation
uss ion
empty set
$ {\
Ġpol ic
Ġarg s
Ġp le
194 7
ĠPr ince
Ġperson nel
oc ated
Ġcost s
G o
Ġassum ptions
Ġto ols
v ature
oth ing
C al
Ġyou th
Ġcharg ed
ellig ence
ĉ ĠĠĠĠĠ
V D
Ġaff ected
195 2
Ġs ales
rim inal
Ġh idden
Ġepis odes
ap es
Ġb os
ĠU N
Ġequip ment
ĠOx ford
T ag
em y
ĠU r
Ġl abor
Ġf erm
ĠRepublic an
b rid
ĠB ir
om er
Ġfig ures
G eneral
ann ot
Ġsp irit
p ool
Ġdiag onal
}) =
V is
Ġtw ice
Ġflo or
Ġw rong
Ġf ellow
Ġfocus ed
Ġfor t
d iff
C urrent
Ġf ans
_ .
il ly
Ġmat hemat
ps on
ĠF ree
c i
Ġdynam ic
Ġe q
$ };
ĠKore a
Ġopport unity
ĠB ell
ĠJ on
; </
att r
ĠV is
ĠSc iences
it ness
Pro of
ect s
( &
ĠB a
ĠF our
ĠLat in
195 4
ĠW is
Ġsom ew
ĠH ospital
z en
Ġobject ive
B U
ĠAn other
P at
c ard
ĠC at
cis ely
Ġsup ply
ĠAp pendix
ĠS uch
Ġb illion
ĠM as
Ġm arriage
12 8
Ġmax imal
Ġcontin ues
Ġfac ilities
Ġearn ed
Se cond
[ "
ĠInd eed
Ġperform ing
ĠBro ok
Ġl ift
u v
ĠDan iel
w atch
d l
es ian
ins on
Ġrese ar
) }_
Ġsequ ences
Ġlabel s
ĠJust ice
Ġderiv ative
b ell
D i
ĠAlex ander
iz abeth
Ġinvestig ate
ĠA sh
ĠF er
Ġreview s
pon ents
Ġe mail
ant ry
not es
eder ation
Ġpl us
ograp her
am in
ro ot
Ġto ward
sc ape
pro ject
ĠSt ation
ĠColumb ia
ul pt
ĠPl aces
ouri er
ĠJ ean
D em
u ated
ĠScott ish
Ġp ages
rom ise
h ire
ple t
R eturn
M T
% %
an ta
Ġaccur ate
v as
im ary
Ġthe ories
M ay
Ġquad r
UR L
k it
Ġconc ert
Ġh ockey
L ink
Ġtr igger
//////// ////////
p resent
Ġsol ar
ĠWe ek
th ur
Ġp et
Ġfif th
h ard
Ġcapt ured
Ġinc ident
= .
Ġc m
ram es
olog ist
Ġwin ner
Ġsubsequ ent
Ġemploy ed
param s
E ach
M ode
ĠP en
point s
Brit ish
d irect
Ġop posite
d ependent
rop ol
lo op
ĠG irl
Ġevery one
Ġbul k
ĠD O
Ġ Å
Ġtri ed
ĠJ eff
est ic
Ġbi as
ĠCons erv
Ġsub stant
m n
Ġaccept ed
h ang
Ġs port
Ġend s
Ġout er
w ater
II I
Ġcon ference
Ġa wards
g le
S um
ĠA PI
Ġtr uth
act ic
Ġadj ust
Ġpattern s
M ark
ĠH ung
ath an
Ġst reet
ĠIn formation
194 9
Ġcon vent
s at
ĠReturn s
Ġcont rad
Ġf ont
ĠF ollowing
resp onse
Ġlarg ely
Ġlearn ed
ĠF ederal
Ġp aid
y o
Ġposs ibly
ĠComm on
Ġrel ax
ens ities
' ),
Ġstr ugg
195 3
pro v
Ġlat est
Ġd iver
ĠT w
ru it
Ġcateg ories
[ -
Ġbe at
ĠL ater
/ (
ĠL em
U L
ĠS D
ĠC reek
ĠL ight
i em
List ener
Ġp ool
ct ic
X X
Ġarr ived
Ġh ab
Un iversity
Ġprogram ming
L emma
ak i
Ġchall enge
Ġener gies
Ġde ploy
Ġtransfer red
br as
H C
Ġoccur red
Ġmot iv
Ġofficial s
Ġen h
ĠT am
Ġag reed
I ST
i ota
if ul
O pen
tikz picture
ON T
ur ations
ĠM ain
ĠH and
D irect
Ġd aily
Ġb ond
Å Ĥ
ĠMin istry
Ġview s
Ġne ural
form ance
ĠM ath
Ġatt end
ĠOr gan
et ch
Ġhous es
Ġbehavi our
ĠM ike
ĠB C
ĠT HE
par agraph
}_{ -
ap l
Ġwe ap
ĠCor ps
and roid
Ġ$ ,
h ol
ĠV ill
Ġp andemic
Ġcomp at
Ġman ner
ig a
par ison
Ġdam age
Ġtrans mission
Ġco al
men u
Ġat mosp
R ed
Ġag ents
ĠVictor ia
ĠA st
el ess
p ower
Ġphot on
ĠAr ray
Ġcom ments
D D
}} ^{\
O p
sh ould
ĠBel g
ov ed
ĠR E
Ġpath s
Ġis n
Ġvis ible
Ġn av
ĠBer lin
im g
Ġj et
ĠH T
Ġ }{
d ocument
f i
C ache
avel ength
it ical
Ġder ive
Ġsampl ing
Ġad vert
v ard
Ġtem plate
Ġposs ibility
Ġdr iver
Ġrefer ences
ĠSt at
ĠInd ust
6 00
ĠB oy
ex ports
ĠTh ree
form al
al gorithm
Ġ{ }
ĠMed ical
on ed
Ġcan onical
ĠProfess or
phant om
ed ge
it ative
Ġrepe ated
ĠS O
bm atrix
] {\
ist ed
Ġsim ultane
Ġembedd ing
con tainer
ĠS om
D at
n ic
Ġcomput ing
Ġs ave
am i
Ġgrav ity
im ately
Ġasympt otic
pl ot
ĠO nt
ĠD er
Ã ¢
G N
Ġm iles
Ġacadem ic
um es
ĠSund ay
ĠCom put
Ġent ries
ĠEx ec
ĠCh ris
Ġc ars
Al though
rap per
ĠPol ish
Ġrepresent ative
ĠEx t
Ġspe ech
ĠB ack
Ġgeneral ized
Ġfind s
Ġmix ing
le ments
ĠM ic
ĠRep ort
ĠL icense
Ġsp ring
Ġt urb
ot al
T ypes
U pdate
Ġsh ock
ĠI S
Ġn or
ro sc
H ence
t w
T wo
rid ay
semb le
L ocal
Ġp owers
ors hip
ĠAr gent
ĠDes ign
Ġp sych
et al
Ġ era
195 1
Ġint ensity
d est
ĠD ig
ne ctions
19 36
Ġis omorphism
Ġsatisf ied
Ġch ance
enn es
Ġpredict ions
=" ../
Con n
L C
Ġbeg ins
g reen
an th
Ġcl imate
Ġsuccessful ly
Ġpe ace
Ġcam era
Ġfeat uring
ĠAir port
Ġsh op
Ġsurround ing
) </
l vec
Ġconsist ing
rop ic
l ife
> \
Ġanc ient
ĠB and
Ġupd ated
ge bras
The y
p arameter
AT ION
ĠM aster
B O
\ }\
Ġc ricket
Ġexpand ed
ĠCorpor ation
Ġspec ifically
Ġrest aur
8 00
Ġcon sec
\ }$,
ĠGu ard
S H
un te
Ġag ree
Ġalong side
eli hood
Ġinsp ired
}} =
ad s
Ġpre cisely
ĠIs lands
per iment
ĠMus lim
Ġindic ated
St at
' ll
rit ical
Ġre action
ib ration
ĠS C
B E
Ġnon linear
Ġmot or
n i
rop ical
Ġro les
ĠAd dition
ĠStud ies
Ġand roid
Ġpen al
Ġtop ological
k g
pl ane
Ġcover age
ĠSy dney
b et
ĠD own
Aust ral
Ġcompet ed
sh ot
ag on
ct x
sl ash
R R
T ask
ĉĉĉĉ ĉĉĉ
column width
Ġvict im
er ior
Ġbuff er
T arget
ĠPr ime
Ġrecogn ition
ĠP y
w ing
ing ly
! !
Ġdr iving
Ġmax im
en um
' ).
ĠReg ion
ire ctions
v arthe
ĠA k
Ġa thlet
ĉ ĠĠĠĠĠĠĠĠĠĠĠ
varthe ta
ĠS M
Ġhypot hesis
Ġpre par
Ġp al
Ġop in
A cc
ĠC ur
N on
ĠOffic ial
Ġpl anned
ĠM ap
ĠAnt on
ĠB on
ĠC orn
Ġtra ce
ut enant
ok es
ĠP ass
Ġeas tern
sl ant
C ast
Ġme ant
iffer ent
Ġpl anning
ĠOlymp ic
Ġp ra
Ġb ra
are t
ĠV iet
ver b
fr ame
Ġv en
Con tainer
Ġchang ing
Ġconstit u
L ong
Ġextrem ely
Ġex clud
: =\
Inter face
Ġb oy
+ (
Ġident ical
Ġm ac
st d
} |\
par se
h or
s v
Ġmunic ipality
Ġcorn er
Ġengine ering
Ġbase ball
R ange
Ġr ig
Ġinteg rated
if act
Ġpromin ent
ost er
adel phia
Comm and
Ġb ill
se x
Ġs ust
Ġcor por
Cons ider
cl ip
@ {
Ġleaders hip
Ġsaf e
Ġb udget
Ġpass ing
Ã¡ n
Ġqu ark
ĠG er
Ġpur poses
c over
v o
ris is
atur day
Ġthan k
19 18
if er
serv ice
Ġp it
un ities
ĠSup reme
ĠAd minist
Ġm orning
Ġt ells
Ġag greg
f a
Ġelectron ic
Ġb undle
Ġp ush
Ġtro ops
ph one
im b
hen s
Ġtemper atures
ĠN C
ĠW rit
F O
} ~
Ġfin ish
os es
ze ch
ĠR en
ex ec
Ġz one
pt ic
ĠUn ivers
\ )
Ġexpl o
ĠSec urity
m em
ĠOn ly
M usic
eg o
Ġm ask
ip eline
ĠK enn
Ġcomput ational
ĠM ult
T S
Ġquant ities
G iven
B L
ur er
Ġread y
ĠB rad
ĠGl obal
Ġsecond s
od s
Ġl iqu
Ġdi agn
Ġnewsp aper
18 0
Ġsp ot
ĠChrist mas
ĠW alk
Ġhe av
e lect
are st
com put
Ġhon or
er ies
Ġprom oted
ether lands
o or
ĠF und
Ġw aves
it o
) })
ra ine
maz on
Pro p
19 38
ĠF amily
ide os
Ġsil ver
Ġprov ince
Ġappear ances
a is
ict ures
Ã £
ol i
Ġsign als
ĠO s
av or
ak h
\ |\
b en
os a
K E
ĠB BC
ĠR aj
Ġpro pose
em an
19 37
ap ore
Ġprote ction
g eneral
^{ (\
ĠR od
Ġsex ual
Ġinter act
ĠL ew
ĠG re
U I
etail s
Ġatt ribute
Ġclos ely
^{ *
Ġcharg es
ub ble
Ġdynam ical
Ġsubstant ial
Ġpl ants
ear s
Ġr ational
Ġcitiz ens
med skip
Ġintrodu ction
Ġcr ime
ĠS ant
ĠA li
reg ular
Ġinter ior
ĠPak istan
Ġc old
Col umn
ĠR og
let on
p res
mod els
W rite
Ġf ashion
Ġbro ken
Ġc atal
sequ ently
Ġd ie
s ince
z z
ĠC as
ĠF ire
Ġveh icles
Ġassist ant
Ġflu id
Ġnew ly
12 5
Ġst ock
ou pl
ĠK im
& =\
au x
ke e
Ġequival ence
Sup pose
ĠOnt ario
Ġhigh light
con sin
Ġadv anced
inst ance
ĠC irc
int eg
Ġra ise
Ġa ware
Ġcur vature
Ġcomm ut
Ġear th
Ġserv es
Ġd ance
or ney
Ġluminos ity
Ä ±
Ġscient ific
g al
ĠS a
Ġtre ated
Ġd x
Ġlow est
h l
Ġread er
Ġcont rolled
sub sec
int on
Ġsold iers
Ġport ion
ĠReg iment
ĠEl izabeth
ĠĠĠĠĠĠĠĠĠĠĠĠ Ċ
Ġ( {\
ĠPri ze
G S
B efore
Ġvar iance
ĠE very
Ġfe et
ul se
Ġpres erv
He ight
iss ions
Ġbu y
Ġar c
g ency
Back ground
iven ess
Ġr ural
ĠE u
ript or
Ġin nov
Off set
N av
un ing
S outh
ĠS us
ĠI d
col l
Ġv acc
Ġhe ard
Ġunivers al
ort he
ĠS em
ĠD E
Ġre ality
Ġ\ &
q l
ĠB ad
Ġpack age
at on
\\ \
Ġmon itor
ĠĠĠĠĠĠĠĠĠĠĠĠĠĠĠĠ ĠĠĠĠĠ
R ad
bour ne
S ong
B M
Ġd ashed
ĠG iven
Ġm obile
D on
ĠM arg
ĠW ell
not ag
Ġth read
ord an
ick er
ĠS her
ic ip
st at
D ev
Ġset up
N ov
Ġun less
iss on
Ġenvironment al
Ġequ ality
ĠKore an
ra ined
ĠE nergy
Ġcolumn s
ĠL ive
ic ular
ĠF air
Ġmagn et
ou ch
l arge
Ġto ken
ĠQue ens
Ġcan cell
ent ed
Ġprot ocol
Ġas k
Ġcharacter istics
" |
ĠK ir
Ġapproxim ate
ask a
ud io
ĠChe ck
ĠAss ert
Q ue
f ull
Ġperm an
Ġrem ember
ĠCol l
Ġcop ies
ĠTor onto
ĠW in
ĠA venue
Ġaspect s
ĠC ase
ann a
ĠR ome
p et
ron ze
Ġsum mary
A ccess
Ġnot es
ut t
ĠJ S
ĠR a
anc er
end ar
su ccess
P D
ĠG ro
Ġg rew
ĠA re
Ġb urn
Ġeconom y
Ġinstit utions
ĠI V
P M
ĠR om
Ġcry st
T YPE
Add ress
og onal
low er
25 5
Ġqu asi
X i
G A
ĠRe al
ĠV en
D ocument
Ġ* *
ĠMin nes
v s
ian g
ĠK el
ow a
rack et
Ġin fer
Ġc row
Ġsc ulpt
Ġst ochastic
Pl ay
Ġthem e
ĠT ok
Ġdoc uments
H L
Ġdeterm in
Ġmin ister
B ook
Ġben ch
poss ible
reg on
ad ian
Ġcover s
Ġpolit ics
T ree
h fill
Ġs izes
ĠS U
Ġis ot
Ġhous ing
Ġpolic ies
Ġd rawn
Ġele v
Ġadv ance
per or
Ġcon clusion
Ġcirc um
ĠDes pite
Ġmult ip
ĠBe ach
hed ral
ĠH un
tem plate
ĠMinnes ota
ma ke
Ġsp ac
10 1
w eg
Ġcaus es
Ġdet ector
ĠH ard
Call back
ĠK ey
Cont roller
ell o
or gan
ob e
Ġc e
Ġaud ience
Ġeigen values
Ġdestroy ed
init ely
an es
16 0
Ġex cell
Ġx ml
Person al
Ġperform ances
ĠFace book
C F
ant ly
Ġassum ing
equ ations
g ather
Ġsat ell
ne ver
ĠJac ob
Ġexp atriate
ord ers
G en
Ġdepend ent
Ġgl ass
Ġfluct uations
Ġr ich
og ether
unn el
osoph y
j ust
Ġentire ly
Ġl y
\\ &
est abl
us es
ĠEngine ering
Ġres erv
Ap p
neg ative
\% $
Ġm es
ĠO t
Ġsup erv
j av
Ġany one
m eta
Ġcont ro
H is
duc ible
Ġcontain er
ĠOr ig
ĠSan ta
LA SS
ve ct
ru ctions
i Äĩ
Ġd ense
Ġh our
ĠN on
ĠN ations
Ġfac ility
19 35
rast ructure
opy right
it led
Ġex pos
Ġquant ity
P ublic
h s
Ġindust rial
Ġv otes
Ġf ish
ĠO R
Ġlook s
rang ian
Ass ociation
Def inition
$ ^{
Ġrec ip
Col lection
Ġgradu ated
More over
Ġdevelop ing
Ġsw im
r ins
Ġemploy ees
ĠPrem ier
ra q
Ġl iber
}\ |
Ġrecogn ized
Ġeffect ively
ĠMc C
Ġwin ners
comm on
( -\
**************** ****************
Ġvac uum
Ã© e
ĠL ind
ĠHig gs
Ġdisc rim
s el
Ġvers us
P H
Ġfeed back
Ġessential ly
Ġcontrol s
Ġ urban
ĠFore st
ĠN Y
Ġpi eces
et ing
Ġdecl ared
Ġanaly z
J an
F ollowing
p red
Ã ¸
Ġ$\ {\
Ġres ident
// /
Ġnecess arily
Ġcorre ctions
B R
ĠL es
w indow
ĠB rig
19 14
w orth
b c
ĠN etherlands
ag a
ymmet ric
ĠD am
per ial
Ġfund ing
Ġinterpret ation
ĠPol icy
Ġan om
Ġest ate
Ġv anish
ĠM ond
Ġinter mediate
Ġsol o
ĠA uthor
Ġper haps
Â °
om ent
Ġsupport ing
19 19
the less
ect ive
fig ures
Ġresult ed
Ġbenef it
Ġf ill
Ġdemonstr ate
qu arters
our ney
Un it
Ġmole cular
D own
Ġded u
Ġext ensive
it ory
Ġacc ret
p ur
Ġpl as
isl ative
at iv
Ġw ing
Ġexper i
Ġrough ly
Ġcover ing
Ġref ers
plic ated
Ġlist ing
H ash
b les
Ġsepar ated
s d
19 33
Ġcall ing
out s
Ġrecomm end
Ġexpl ore
Ġofficial ly
Ġ\ (\
ari os
Ġhistor ic
T T
Ġh uge
Ġf resh
Ġabs ence
Ġ\ ,\
ĠS ab
Ġt ick
Ġf lex
Ġadj acent
Ġa head
^* \
Ġgravit ational
Ġnot able
the re
Ġexpress ions
) ).
Ġ ..
ĠAn th
Ġb ow
Ä į
Ġcol le
Ġesc ape
25 6
Ġnot ion
C M
ĠF I
Ġtit les
Ġk ill
B B
ĠC R
com es
Ġag ric
li k
pre c
sh ort
L i
Ġ rom
Ġre form
Ġevalu ated
ĠL abor
^* (
Ġs and
ĠR oute
Ġ> =
inst ein
Ġser ial
C ent
ĠF ox
ĠSh ort
Ġdo or
ĠGe V
ĠWis consin
ĠS N
Ġbre aking
y ard
Ġadminist rative
cor ollary
19 17
Sc ript
b ec
re ll
Ġcoupl ed
ĠComm and
âĢĿ .
ĠSt adium
Ġ ),
Ġinj ury
ev in
ĠT y
ele ction
og ram
w orld
< !--
D ep
Ġ ,\
it ter
ĠL ore
Ã£ o
Ġcorre ction
Ġconf idence
ĠSte ve
ĠE vent
st ood
jo in
Ġhapp en
fin ished
ĠW he
ĠM A
Ġsepar ation
ĠT ai
Or der
ĠRev olution
Ġb ran
ĠM ember
ir ical
ĠCamb ridge
grad e
Ġhost ed
Ġparticip ated
ĠC le
19 28
rel ation
Ġbrief ly
Id ent
ĠF inal
ar ity
ĠSt r
Ġdef ense
ĠPhil adelphia
B I
k h
ĠH ay
Ex ec
U rl
Ġmusic ians
Ġfrequ ently
But ton
Ser ver
Prov ider
Ġflow s
ĠS on
A g
Ġhe ro
Ġcons ult
Ġattempt s
Ġtest ed
ĠT al
and ra
v ements
st ic
Ġe yes
================ ================
Ġsub s
ĠW indows
Ġin n
S F
Ġsupport s
In ternational
ĠIn ternet
Ġc ache
- (
Ġrac es
ĠĠĠĠĠĠĠĠĠĠĠĠĠĠĠĠ ĠĠ
ad ed
P arameter
ĠW ho
ur ance
sc ription
c oh
Ġfa ith
un es
Ġdecre ase
19 29
in ction
rib ed
Ġmom ents
19 34
ĠA thlet
c p
e en
ĠH o
ast y
circ le
RE F
Ġd rag
ĉĉĉĉ ĉĉĉĉ
ph y
Ġcomm ittee
ĠB all
Ġd irections
w hen
Ġch ampion
ĠB ol
Ġbusiness es
med ia
Ġpract ical
Ġencou rag
V er
ir ty
Ġb rain
ĠL ike
ĠL ast
. \\
Ġf ell
ĠTur k
Ġperturb ation
AN D
ĠAb out
Ġdef end
Ġp apers
m ad
H ar
ĠA D
ĠB att
Ġexpl an
Ġprec ision
t i
rap y
Ġcustom ers
ĠE nt
Ġneut ral
Ġcont est
! \
che stra
Ġdec ades
se ason
Ġprof iles
Ġind ices
ĠCount ry
trans form
equ al
op es
Ġat oms
e ach
Ġpurch ased
ĠCon f
Wid get
Ġv ess
ly wood
Ġd ro
ĠPe ak
ĠF riday
19 00
Ġregister ed
Ġ iron
Ġcon vers
ĠL ocal
igh th
ater n
Ġph ases
em et
ĠSup pose
ĠC ub
Ġdemonstr ated
ĠBook s
Ġrece iving
in er
Ġexper t
) ),
12 3
var rho
Ġaff ili
ĠW inter
et ies
res ol
ĠĠĠĠĠĠĠĠĠĠĠĠĠĠĠĠ ĠĠĠĠ
ĠP ers
b its
up le
ĠA z
Ġsup pose
m ove
ry pt
St r
s quare
ĠL O
Ġsp ons
Ġ _{\
Ġconj ug
L ocation
Ġc art
ĠCons ider
ar ith
Ġproport ional
ĠMar sh
ang a
Q L
comple te
19 32
Ġperiod ic
riz ona
ĠĠĠĠĠĠĠĠĠĠĠĠĠĠĠĠ ĠĠĠĠĠĠĠĠĠĠĠĠĠĠĠĠĠĠĠ
ĠS at
g rid
Ġgeomet ric
Ġarm s
Ġrestrict ed
K ind
b p
Ġph one
Ġmunic ipal
Ġvari ations
type of
Ent ry
fo o
ord on
Ġw avelength
ink ing
G ET
f ix
ject ive
ĠN O
ĠB an
ĠB ridge
atur ally
? :
Ġpublic ation
Ġstand s
st op
ĠB ru
Ġg ained
Ġnormal ized
D av
b uffer
S yn
Ġimpro vement
ĠM ill
ul ating
includ ing
Ġchalleng es
Ġex ceed
Ġsett lement
Ġredu ces
r ating
field s
ĠGold en
ĠK al
im its
P ack
ĠW ars
y al
19 10
Ġf uel
As sum
ĠW el
C ap
ĠColor ado
Ġcol our
id al
ri ev
) ^\
Ġanim als
ĠH an
R ev
Ġk in
sup er
Ġpolar ization
ĠL ady
id i
Ġbal ance
Ġcont emporary
ĠAmeric ans
ĠA M
Ġphot o
ĠCre ate
Ġconvert ed
Ġviol ence
m al
ĠSwed ish
Ġdefe at
av irus
b efore
ĠSur vey
Ġst rip
! ]
Pro cess
Ġf aster
ĠDu ke
Ġalgebra ic
ii i
Ġgener ating
ĠG R
$. }
ef e
Ġdeg ener
Ġver ify
B est
ĠD C
Ġcer em
Ġl osing
ĠTr ust
Ġposs ess
gl obal
ur ches
ĠU se
Ġcru cial
Ġex cess
enn a
Ġren amed
ĠN ext
ĠE s
cl ine
back slash
Ġcharacter ized
p erson
ul us
~ (\
Ġacc ident
S ign
G a
ĠA rea
ex ists
Ġr ugby
{ |
F ONT
Ġprote in
Ġexec ution
Ġuniform ly
ch a
Ġs un
bold math
) (\
| ^{
is ot
Ġconcent ration
on ym
res ource
Ġcomp lement
Ġdrop ped
b ool
ĠG allery
{ (\
ĠG rant
' _{
is a
| $
Ġg ate
re nder
F S
W omen
lo pe
ial og
Ġst one
ĠR ights
ĠSing apore
Ġwas n
ffic ial
Ġb omb
H om
com ponent
ĠM ach
Ġhoriz ontal
Ġparticip ants
ĠR et
er al
emet ery
ĠDav is
Ġab and
Ġsens itive
const ruct
ĠS aturday
Ġf iction
\! \
down arrow
Ġdom inated
Ġc ab
U nder
L ayout
S u
) }.
Ġun able
ĠStep hen
Ġdomin ant
ĠO regon
ĠD ue
An other
ĠâĢ ¢
ce ived
G erman
cont rol
al ion
ĠAg ain
Ġinst ances
Ġmetric s
Ġbenef its
Ġp od
D om
Ġthan ks
ĠB udd
Ġcar bon
Le vel
Ġlet ters
Ġt ight
weg ian
Ġauthor ities
Ġgrant ed
ject ure
ad i
ĠF ile
outhe ast
Ġabsor ption
Ġend ing
Ġconfig urations
oper ation
ĠS ky
Ð º
Ġreturn ing
i ated
Ġhousehold s
Ġke ys
f ocus
Ġaud io
Ġap i
Ġdef ines
Ġyoung er
Ġv ice
Ġsur faces
if est
ĠIndian a
Ġh alo
old er
Ġfound er
Ġl ens
ĠP C
on avirus
clos ed
Ġinvest ment
Ġsk ills
G E
refer ence
os l
ĠIn vest
M ain
H igh
text color
ĠN a
F N
U M
g ment
th on
Ġsup ers
ow ski
tain ing
Ġen able
text normal
d ash
Ġf an
Ġhas h
Ġautom atically
ĠL td
Ġsim ilarly
ag en
R I
is or
ĠK er
Ġconcern s
Ġre nd
Ġw ants
19 24
ĠH art
ic ian
Fil m
off s
her ical
ĠV i
Ġp iano
ĠM ilitary
Ð »
Ġsk y
Ġte aching
Ġstrict ly
ann er
19 31
Ġfrequ encies
Ġsomew hat
ĠM icrosoft
V ar
ĠMed al
ĠB ishop
Ġun iverse
ĠCap tain
ĠSwed en
b ind
ĠF ourier
Ġm essages
amb ig
Ġconsec utive
F rame
Ġart s
Ġh ierarch
F rench
ĠAd am
Ġstandard s
Ġv ideos
rep resent
Ġsc ores
Ġw itness
Ġelect rons
Ġdown load
Ġin hab
Ġse ats
Oper ation
$ ^
w ave
Ġauthor ity
up arrow
Ġab stract
Ġfight ing
N C
Ġ\ [
ĠM oh
Ġquadr atic
k ers
Ġc odes
Ã º
h ou
Ġd anger
ĠInd ones
E Q
Ġs urn
19 27
Ġcon nections
u on
ik a
Ġb odies
Ġext ent
m ers
Ġhapp ens
ĠS quad
Ġd uration
Ġse ed
ipl es
Ġenh ance
ĠN ever
qu ant
Ġinf o
Ġflo at
H ost
Head er
sy mmet
G M
ĠR ose
Ġiter ation
C ore
ĠJ oh
Ġsuff ered
ĠCon st
Em pty
ĠN az
ĠK ansas
Ġbel ief
Ġin clusion
P an
19 22
Ġcomm it
Ġstrateg ies
es ides
ĠV iew
text up
Ġf ra
Ġfact ory
ĠW at
in itial
w s
ly n
O P
Ġmet all
form er
com b
L R
Ġf illed
f amily
Ġtra p
Ġengine er
Ġnov els
Ġe ye
ennes see
Ġsign ature
Ġm ount
n ol
Mod ule
inv ariant
ĠG ree
Ġterrit ory
Ġult imately
ĠF unction
Bi ography
Ġpre tty
ch ain
Ġtown s
Ġpat ient
stack rel
el le
ĠAn y
Pos ition
Ġp uls
)} (\
igr ants
ĠC EO
Ġcirc uit
Ġstring s
Ġhapp ened
) [
M eta
Ġ }}
M atch
ĠG h
W S
Ġwe ather
m o
O lymp
T A
&= &\
Ġhold ing
ĠI raq
ĠC art
un ately
in ternal
Ġre ar
uz z
i Ã³n
Ġrespect ive
Ġpan els
Ġillust rated
ynam ics
13 0
ĠT witter
Ġcrit eria
Ġsc oring
ĠAr thur
Exp ression
T ele
ĠH al
S w
}_{ {
Ġtit led
Ġmov es
Ġdo ctor
Ġclos er
Ġfac ulty
Ġprodu ces
ĠAtl antic
us hed
ĠMar ia
ĠTh rough
u y
Ġinvol ves
Ġpar ish
ĠOn ce
Ġy ellow
S te
Ġal ter
ak ed
ropol itan
u j
Ġ elli
I E
I ter
Ġs an
c are
Config uration
Ġf itting
ĠD ate
ir ror
Ġhom ogeneous
d epend
Ġcont ribute
aw n
19 21
Ġconserv ation
Ġtop ology
d ebug
ĠD om
Ġw rest
ĠE th
Ġw alls
ĠPhilipp ines
typ es
Ġf ib
ĠH ou
eng ers
ĠAnd erson
Ġpers pective
Ġprec ise
Ġappro ved
Ġrank ed
Ġschedul ed
Ġhab it
k ov
Ġw ish
Ġro ots
Ġw ins
l an
Ġlo an
ar ation
< ?
ĠSt ock
t or
ĠL ear
Ġde viation
St ep
Ġb its
sh ape
ph ys
ĠL ow
Ġst ages
Ġsche mes
h ave
om ot
ĠC ost
ele ase
Ġm ist
Ġcamp us
ĠG ib
19 26
Ġgirl s
S k
or ough
math tt
Ġc as
Ġret ire
function s
Refer ence
n ight
Ġgu ide
ĠTur key
ĠP M
Ġsup p
Ġst orm
Ġsens itivity
ot on
Ġkn ew
Ġneutr ino
Ar ch
ri or
ke ys
ers et
Ġy ards
Ġstraight forward
Ġdocument ary
ĠT urn
Ġsol ving
Ġin her
ĠS ign
Ġ( '
struct ure
ĠAl f
Ġlin ked
19 12
' d
g ar
Ġpar liament
\| _
ĠEn vironment
ĠT ro
Ġuncertaint ies
M ost
Ġext reme
Ġcont ribut
iv als
Ġop posed
Ġcontinu um
Ġb ed
ĠTown ship
m aster
19 25
Ġgu ard
ph ase
Ġjud ge
enc ing
h ash
Ġd ensities
Ġher self
ou red
Ġderiv atives
ĠSta ff
ip her
mult line
W E
ren cy
Util s
ĠP ier
$- $
Ġorb ital
ab et
Ġsystem atic
Ġbound aries
. '
n m
ĠCh annel
S earch
Pro perties
Ġprodu cing
Ġpolynomial s
com ment
m arg
re q
ĠM P
Ġt ang
Ġhot el
ĠR oss
ĠC ode
Ġdefinition s
Ġind ependence
id en
Ġvary ing
. ;
V ideo
Ġh air
. $$
ist ration
)-- (
Ġinst ant
Ġt aught
Ge V
ĠSt ory
Ġw arm
w all
ĠA h
b ian
Ġatt ributes
Ch rist
PE CT
ĠH op
O rig
Ġpartners hip
ĠS che
Ġmodel ing
] ^
19 16
ĠD rag
ĠF ellow
ĠF ederation
ĠM un
Ġmod ules
Ġrestrict ion
c ache
Ġv ent
l iving
Ġhe ar
ĠInst ead
Ġcred it
pro duct
Ġcompos er
Ġsch olar
Ġdiff usion
Ġdr iven
Ġbelong s
Ġunder stood
Ġtop ic
A nt
$\ ,
on i
ĠC zech
Ġliqu id
atter y
n ap
Ġca ref
vent h
ĠChar l
Ġst ead
Ġfund s
ĠMiss ouri
re place
Ġin tern
r ations
L in
he red
Ġm el
Ġgener ator
ĠLew is
ĠConn ect
} /\
um ps
Ġscen arios
*} [
Ġreconst ruction
V AL
ĠC are
N G
ĠH ur
ĠN umber
Ġarrest ed
Ġimmedi ate
ob serv
pro pto
E rr
Th read
Ġtw enty
ul ator
Ġw ire
Ġ* )
Ġatt ached
Ġbo ost
l ook
ĠB at
c ross
Ġform ulation
b ad
ĠCast le
Ġd ip
Ġh all
A v
Ass ert
ĠB h
ĠOb serv
Ã© s
r ates
ut ation
ple x
Ġdec or
c raft
Ġinstall ed
form ing
du ce
ĠM iller
ut s
ĠLe on
ĠD M
se m
19 23
A wards
Ġpl ate
Ġdecre ases
Ġ$ ^{
qu es
t ml
Ġs ell
Ch ange
Ġsimultane ously
ah oma
Ġhor se
ĠSim ilarly
osc ow
g i
ĠA mb
ĠO cean
ret ch
Ġdist ances
ĠS av
ĠMon te
Ġinvestig ated
ill ery
bin om
Ġb low
Ġweight ed
f riend
force ment
ound ed
Ġport ray
ĠChild ren
Ġocc asion
rins ic
iz able
Ġcollabor ation
ĠAff airs
in us
Ġbig gest
Ġhoriz on
pl es
left arrow
Ġtri p
19 15
Ġk ick
Ġneigh bour
Ġvis ited
ĠEnter tainment
Ġap art
ĠE rror
Ph ys
th ick
Olymp ic
Ġcho ices
AL L
Ġnames pace
SS ERT
Ġcol ors
rom agnetic
% ;
Ġ rows
Ġqu as
Ġp lease
Ġorth ogonal
ĠNor way
Ġdistrict s
b order
Ġcomplet ion
Ġsur g
ens is
ĠBro ther
call back
Z E
erm i
ĠA rizona
_{ +
ex ist
Ġpre ced
oot st
ĠSo ft
Ġpres ents
Ġn ob
Ġjournal ist
hand le
Ġpaint ing
ĠA T
Ġp adding
ov es
el ian
it udes
Ġmorph ism
Ġanaly tic
A E
J o
Ġadapt ed
Ġtrans itions
s es
P ass
wit zer
Ġfem ales
ĠN ick
" ))
ĠN E
Ġop position
ĠCol on
Ġdi pl
web kit
Ġresist ance
foot notes
me an
ic ial
Ġsp an
ĠB efore
W est
ĠComm unic
14 0
Ġd ream
Ġenc ounter
Ġrepl acing
j pg
and y
e val
=\ {
Ġm eta
Ġirre ducible
Ġa id
Ġpop ulations
ĠC ru
ĠT a
ĠA mazon
> ,
ĠC H
Ġgovern or
et ry
c ategory
id ge
Ġmedal ists
O ption
ro ke
ĠSe ver
Ġpartial ly
ov en
ĠPr inc
Ġ< !--
M c
ĠTr ue
ĠMary land
ĠJun ior
Ġconv olution
Ġc arri
P arameters
han ced
Ġres idual
Ġl ists
}. }
w estern
W indow
Ġsymbol s
ĠM S
Ġd oll
Ġc riminal
Ġrelationship s
D ir
ĠCor ollary
ĠCont rol
Ġf estival
Can adian
Ġcross ing
Ġneg ot
ĠF ord
Ġv ision
Ġad vent
w as
Ġw inter
R C
t im
Ġkeep ing
Ġat omic
ond ition
ĠD or
Ġaccount s
ot ional
Ġst ored
Ġan not
H er
Cont rol
dep th
ut able
is en
Ġm and
pro to
edd ing
conn ected
rac ks
Ġpass es
ĠP age
nav bar
Ġso le
Ġj ump
ĠM L
Ġbas eline
witzer land
ific ial
ĠJ ordan
D el
Ġconver sion
f iles
Ġp ed
ty ped
Ġc risis
ĠTrans port
Ġcoll ision
var iance
$ '
um a
ĠN et
ÃŃ a
Ġreason able
ĠC ON
ĠC ab
footnotes ize
t ask
Ġorient ation
__ __
Ġb ought
inc ial
Ġres c
G r
Ġstrong er
or row
& &\
ĠM C
Ġp un
ce il
ĠH om
ĠJew s
On ly
ut her
ĠMag azine
T ax
Ġprep ared
ĠLag rangian
ĠI l
Ġfun ctor
Ġexpect ation
Ġsent ence
r ine
Ġident ification
dom ain
B ody
Ġwe alth
V ari
ĠM att
od ge
AC K
ootst rap
ĠAr k
Ġc od
F M
ĠB rand
R S
J apan
ĠFore ign
ĠN orm
iam ond
" `
w ill
ĠL iter
we alth
ag ues
Ġinput s
ĠIn itial
ĠRepresent atives
ĠT ennessee
ser ies
Ġch airman
ar iance
H ome
Ġro ut
Ġl i
if iers
Ġra w
Ġconvent ional
ĠT an
Ġpar se
ĠC ook
ow nt
20 23
ĠExec utive
ak s
ĠUk raine
L eg
ĠOffic er
Ġindic ating
}) ^{
Ġqu ot
ĠHar ry
r g
Ġn aturally
$\ \
ĠK at
ant asy
$ }}
EX T
ĠA L
l ate
Ġdep ict
) >
Ġdom estic
Ġdisp ersion
ĠS ym
Ġs ac
Ġalle ged
kl ahoma
ile y
Ġjob s
P res
ĠM it
tr ivial
) _{\
ro g
Ġtarget s
Ġlook ed
ĠT H
Ġarg ued
ĠE ric
ĠF ac
f ast
rupt ion
rad ius
ĠR est
Ġperiod s
ura ble
Ġdiagram s
ST ATE
cre d
d em
Ġl icense
ac cess
`` `
oc ate
N one
over y
ud a
ul er
ĠAm ong
ĠD ark
Ġdescrib ing
ĠW ed
d ouble
ag an
Ġ\ |\
asc ript
Ġre aching
ĠMex ican
ĠSim on
Ġprogram me
ĠCol lection
ĠGu ide
Ġv ot
ĠM unic
Ġloss es
cer ning
P arams
Ġtempor al
Ġde leg
ĠMem orial
iem ann
Ġpol l
Ġrequire ment
Ġsus p
Ġc ref
Ġad vers
Ġsp here
er ion
ä ¸
Ġrac ing
ĠI mm
D I
ĠR ow
ĠN AS
Ġpil ot
ĠD onald
ple te
l at
Ġscen es
o is
Ġappear ing
o a
Ġf iber
ĠK han
ativ istic
Ġto wer
Ġanal ys
Ġdisplay ed
ĠMal ays
Ġclass ic
iss ip
ues e
Ġgu est
ant e
ĠMod ern
ĠU l
Ġag ency
ĠPhil ip
Ġen semble
Ġclass ified
Will iam
ĠN ame
ĠBar on
? âĢĿ
Ob j
Ġsm art
ĠP itt
ol is
Ġstudy ing
à ¥
Ġcorrel ations
Ġrapid ly
ir cles
19 13
L ife
Ġp arams
Ġcap able
Ġhy brid
ĠAp ple
small skip
Ġthe atre
Ġdomain s
Ġc ub
Ġch ose
om atic
ĠF ront
Ġregard ed
Ġtrans verse
un finished
Ġs ale
#### ####
S ources
}{ {\
Con nection
Ġhol es
Rec ord
En c
ĠBase ball
ache lor
Ġpotential ly
osp it
ĠHigh way
ast e
Ġcommun ic
ĠMel bourne
ch annel
B el
Ġsub space
col n
con v
Ġread s
Ġbur ied
ific ate
Ġopin ion
Ġan imal
Ġun iqu
ĠStand ard
ĠT oday
pl us
Ġthous ands
11 1
Ġe c
Ġv ocal
ĠA ction
Sports people
ud den
ĠR oy
Ġoper ate
) "
l ay
Ġisol ated
ĠI P
ĠBuild ing
ĠB urn
Ġdis appe
M I
ĠE P
Hand le
Ġsec ure
ĠN FL
ist a
\ },
ST R
Ġexperi enced
ĠB rian
D T
Ġprom ote
Ġst abil
Ġpract ices
ib ilities
Ġbeaut iful
he im
Ġl aser
ĠT ext
Ġm ent
ator ial
ĠS ound
Ġoccup ied
Ġopport unities
ir ation
Ġent ity
inem a
Ġsup posed
A f
Ġhom es
r ase
Ġn arr
ĠSen ior
Ġcaus ing
Ġtra ins
Ġhel ps
Ġprofess ion
app ly
\ }.
ĠVal ue
Pro ject
Ġmanag ers
Ġenc oding
m f
ĠAdminist ration
Ġmod er
Ġus age
z i
ĠI owa
Ġc yl
Ġstat ements
d am
l ayout
Ġg ender
ĠDig ital
Ġin it
ĠR equ
Ġl icens
Ġg ar
ĠA ge
Ġaccret ion
P tr
ĠE U
now ledge
A ng
ordin ate
% ,
nol imits
ĠHot el
Pro position
ĠJ am
Ġd a
B ibliography
us cript
AG E
Ġdesign ated
b urn
sp in
ĠC A
ĠSt art
ĠM oscow
Ã¼ r
p arameters
Ġexcell ent
Ġindu ction
Ġform ul
Ġview ed
Pop ulated
Ġresear chers
en ance
hold er
Ġ[ ];
Bl ack
% .
ĠF lo
ic ians
S ol
G P
ĠViet nam
cul es
C N
CO L
du ate
angle ment
ra ble
Ġ-- -
Ġrat ios
Ġst ores
olog ists
Ġrad i
() ->
0 10
ĠV o
w ick
w ich
ĠC atal
Ġair port
Ġvill ages
Ġprem ier
Ġre ward
tot al
Ġw el
Ġcompat ible
ĠMond ay
Ġk illing
Ġattempt ed
Ġexhib it
ubl in
A ug
Ġoffer ing
H ttp
iss ue
ĠMe an
rand om
Ġt ack
Ġnom inated
Ġg ene
Ġinf rastructure
E P
id ay
Ġb inding
Ġ{ $\
ur d
Ġ ray
Ġsim ulated
19 11
ĠB ah
) }$.
Ġro yal
Ġl es
Ġm al
Ġre nder
__ (
.... ....
Ġhum ans
ra it
ĠK itt
Ġf er
Ġb ronze
ock er
Ġ ur
ivers ary
Ġclos ure
Ġgreat est
Ġexhib ition
Ġequip ped
Ġh ist
ĠF ood
ot ype
ĠK a
Ġcompar able
Ġcomp re
V ector
Ġas sembly
Ser ial
Ġsum m
ĠH ilbert
R T
sub equations
Ġpix el
ure au
Ġsh ut
Ġp m
ĠS ix
r in
ag ram
Ġne ither
ĠĠ čĊ
ĠS ri
N orth
d ensity
gl as
h ow
mod ules
enn y
TR Y
urs day
_ ;
ĠF red
st ore
Ġindependent ly
âĢ ĺ
T ube
Ġrandom ly
ĠDef inition
à ¸
ĠN av
ĠJ ane
Ġv irus
Ġvol unte
Ġm ort
ar o
Ġsix th
Trans port
Ġembedd ed
Ġp y
ĠSup port
St ore
ous es
Ġextract ed
Ġs ail
P RE
sup port
âĢĿ ,
ĠFre der
Ġpriv acy
ĠV ideo
Ġover ride
Al so
Ġcomb at
ag h
ĠAN D
ĠT ony
Ġrecover y
Read er
M F
Ġs lope
Ġdiscuss ions
ĠV ari
Ġpropos al
Ġbring ing
ĠG reg
Ġheav ily
Ġexper iences
\ [\
m ont
Ġ ~\
Ġplas ma
Ġstand ing
bo olean
Ġinstit ution
en v
ĠAl bert
ak ers
Ġcl ock
ĠW olf
B as
ov ing
igen ous
Ġexc ited
Ġinterest s
Ġd t
Ġexpl os
to ken
ĠMan chester
U RE
v m
Ġf its
, ...,
1 15
Ġw al
ing ham
ĠMed icine
190 8
iam i
ĠAddition ally
D oc
ymmet ry
Ġcomm itted
O pt
Ġdiam eter
Ġdiscover y
ĠCh all
b es
by te
Pl ot
ĠKent ucky
Ġd ates
Ġpurch ase
Ġdis pl
ĠQueens land
Ġep och
N AME
ar ma
7 00
] =
ĠLab our
ĠReg ional
ab ama
O K
ac le
Ġimp ly
t ed
gra v
Ġco aches
her ic
op ed
big cup
pos ing
ĠTok yo
ĠH as
fr ont
Ġle ct
An y
sh ips
Ġelect ro
ĠB alt
ro it
aw are
th rough
in ch
Ġhead er
M em
Ġprom otion
nes day
Ġmin ute
1 12
Ġdec isions
Ġtransform ations
st an
st ances
St ar
l ia
ĠC ape
er on
Ġpro position
Ġdis order
Ġsign s
Ġ( *
Ġd og
y cl
De ath
iv a
ĠW ind
Ġf rames
ist ant
Ġcertain ly
Ġperman ent
ERR OR
U LT
Ġpoint ed
\ }_{
ĠSe ason
ch anged
erc ise
omorph isms
Ġlik elihood
ins ert
Ġcont ributed
P ORT
Ġprom pt
P arent
Ġphot ons
Ġac id
ict ional
Ġmechan isms
Ġfav our
Ġthink ing
Ġcap tain
gh an
ĠP i
anc ell
Ġworld wide
Ġreson ance
Ġstar ring
ĠJ os
od a
Ġsim plicity
ĠHol y
ĠP a
orthe ast
ms g
ess ions
ĠN ev
Ġaccom mod
Ġcosm ological
Ġdec ade
hens ive
Ġupd ates
Ġconcern ed
Ġform ally
Ġs we
Ġanaly ze
Ġ ille
C am
ĠD ream
10 5
Austral ian
Ġ\ {\
Ġrem ote
Ġis omorphic
Ġsur ve
Ġd ry
Ġg one
ĠT en
Ġ\ }
ĠSt one
ĠS witzerland
Ġreg ression
Ġw arn
m ag
se p
mer ce
AC T
) }$,
over s
ĠV ice
Ġreconst ruct
ra ce
ic ut
ĠB ab
Big g
Ġinterval s
ĠF a
viron ments
ĠP O
ĠâĢ ¦
f ef
` .
E p
st ates
ĠAss oci
Ġsust ain
Ġcont roller
Ġeduc ated
im it
Ġcom plicated
ĠAl gorithm
el ve
St orage
Ġclin ical
ĠD at
cor respond
Ġpresident ial
ĠOn line
Ġexpos ure
ĠGree ce
Ġw onder
ĠEx ception
F inal
Ġr anges
Ġacc um
writ ten
per t
math it
v ia
Ġlist en
Ġf aced
ĠC ov
Ġstruct ural
ĠC NN
per iod
Ġcrit ics
k ern
ĠS af
u able
ou stic
Ġold est
Ġm art
Ġvalid ation
Ġk id
Ġsee ing
ĠD un
De cl
s a
Ġdeliver ed
ĠN ap
cite alt
ĠHou ston
M any
ĠR eb
ort ion
ues day
ĠAp p
T im
Ġcl ick
Ġdef ining
C I
In valid
Ġstop ped
l ayer
Ġfac ilit
By tes
Ġsyn chron
Ġexec uted
Ĥ ¬
ip art
Ġsubject s
Ġb an
ĠC P
el son
Ġcrow d
Ġm ental
F ont
Ġf ly
ĠN ative
dis abled
Ġcompar ing
ĠF ull
Ġbro ke
} >
ver age
spec ific
pl an
Ġproper ly
Ġpercent age
Ġtraject ory
H on
ĠC E
yn asty
ĠEX PECT
ĠTh ird
Ġshort ly
TE ST
in cess
ĠP ot
ĠCh ap
con duct
Ġwor st
and o
Ġtra v
is ition
ĠCl ark
Ġfind ings
Ġsche dule
Ġbench mark
Ġpre v
ĠR ight
Ġinter pol
Ġdis put
ĠAust ria
ane ous
Ġrelig ion
d elete
Ġcan cel
Ġne arest
L D
ĠJ ay
ash i
ĠB run
aw s
ag u
ard o
S N
Set tings
Ge ography
ĠH erm
pr imary
Ġbl og
Ġsmall est
ĠS quare
Ġf itted
Ġstation ary
Ġconf irm
p f
ĠCon stitution
ĠDi ego
O ct
;\ ;
Ġby tes
Ġsol ved
b lem
Ġout come
TE X
Ġro of
Ġmaintain ed
ul ner
Ġad ult
leq slant
)= (
Ø §
d on
g on
f act
Ġs ought
ym n
S V
ple ments
Ġv ort
mathbb m
H am
Ġjo ining
ĠB arn
Ġcondition al
âĢ ¢
gress ive
Ġsett led
ĠG ab
or b
Ġsatell ite
Ġ" \
le e
ĠC er
Ġd im
ĠP ath
W A
conn ect
L o
") );
Ev ents
}{*}{ $
Ġstri ke
Ġsucceed ed
}^ +
unn y
H P
ic ide
Ġt rib
inter face
Ġap plies
F ound
T ool
Ġsimilar ity
ĠU V
ĠMar c
Ġweap ons
Ġm ob
du al
az a
{ .
Ġa ug
prob lem
Ġeas ier
Ġchalleng ing
res pect
in th
ili ary
Ġv irt
Ġturb ul
Ġt error
Ġjust ice
Ġch arts
Sy mbol
ĠComm un
ad ers
Ġch apter
form ed
Ġn an
Ġreplace ment
ĠO klahoma
Pro t
Song s
Ġal gebras
c ers
In itial
ic ons
F OR
Ġdrum s
Ġj ourney
^+ $
Ġeigen value
Ġw rap
Ġde lete
iv ation
Ġre vers
Ġly rics
ĠS E
Ġleg end
fef efe
Ġint elligence
ĠG all
to String
N etwork
l ad
cl ide
Ġcounter part
Ġconven ient
oth s
Ġsever e
Ġspe aking
Ġcl ients
in ating
ploy ment
m oment
Ä ĥ
Ġsignific ance
ĠM and
Ġbrother s
reg ion
Ġdesign s
r ator
Ġaccom pan
h over
Ġref used
Val ues
b rane
Ġeduc ational
Ġqual ified
Ġpseud o
cy cl
* \
ĠRec ord
ĠHe art
Ġsit uated
Ġat om
ĠHow ard
Ġre new
Ġ( ;
part icle
orig inal
Ap J
ar on
Ġdeliver y
ĠM oon
Ġconclud ed
text sf
ĠB os
Ġrestrict ions
pr ise
Ġcirc ular
oc a
Ġformer ly
ĠRes ults
con c
Ġcomp ens
Ġtrans action
Ġsh aring
Ġhead quarters
O wn
ost ic
class es
Ġm ales
Ġcoll apse
requ ency
Ġferm ion
C ref
Ġg ather
ĠG ram
ar ry
U K
ass um
ĠB it
ĠDo ctor
l arg
}) =\
ub er
Ġf ranch
al ities
w ords
b d
ĠN ig
un ior
Ġlog ic
rain ian
place ment
fort unately
Ġ( ),
}^{ +
l u
Ġen abled
_{ [
ĠB eng
ta ke
rid ges
ut r
HT ML
ĠH ans
\ -
get s
Tele vision
ene z
}} ,\
old s
on omy
Ġdecre asing
Ġsh ares
Ġf ear
Ġsch ol
ed u
ip ped
ĠR ab
st s
ta h
D et
Ñ ĥ
ĠR ic
ĠEqu ation
ili ar
IG N
Ġsee k
D raw
ĠP erson
( *
Ġe lem
Ġcomm ander
S em
Ġmark ets
Ġent itled
ĠB lo
J ust
Ġelement ary
ĠWh it
is lation
] ]
typed ef
Ġch ap
ĠPat rick
ĠDe ad
ĠM O
Ġlog arith
ĠMar ine
Ġch iral
Ġinteg ers
D en
val ued
Ġa cknowled
Ġk il
Ġdistingu ish
ĠN ik
ate ur
ambig uation
B bb
M ac
lim it
at ivity
Ġg iant
ĠAll en
ĠSquad ron
AC E
ĠAnton io
Ġsk in
ot te
| _
EN TRY
Ġf alls
Ġm it
Ġord inary
Ġharm onic
Å «
B en
Ġ< =
M ich
du ctor
As ync
ĠA ud
ĠEq s
n etwork
Ġag ed
Ġw a
Ġh un
Ġaccom pl
or ous
Ġpost ed
ĠSil ver
ĠA P
Ġste el
ĠG ard
on om
ro b
Ġwhe never
Ġc aught
ĠNor wegian
s is
B er
sing le
ĠN OT
ut ies
Ġg ift
ĠI r
Ġcomp ris
ĠFor ces
Ġim possible
\, {\
ĠD a
() :
Ġpost erior
Ġman ip
ĠLin coln
h ist
Ġmer ged
Ġt ab
Ã© t
Dav id
Ġh its
new line
T ab
! <
ĠU RL
Ġunit ary
ateg y
? "
clide an
ĠJes us
Ġhe ter
Ġapplic able
def n
Rec all
F ix
ĠK am
Ġmembers hip
cy cle
E st
ĠPl ace
a ired
Ġl ake
}[ !
Ġrese mb
n ik
ĠJ ava
_{ -\
ot he
op ter
Ġ+ +
ĠMark ov
CO DE
Ġredu cing
F lo
Ph il
18 90
t b
Ġneigh b
ug ar
Ġhapp y
ĠT erm
ual ity
H D
ut or
ĠWal ter
ic ious
ri k
ĠS el
Time out
ĠW y
ram a
ang el
do or
ho ok
ĠTem ple
Ġs leep
che ll
og gle
Ġmay or
ĠS ep
F amily
em b
Ġhelp ing
o om
Ġrec ur
Ġpenal ty
Ġb rown
ab ric
Ġattack ed
H as
ĠTra ining
Ġf aces
eg et
ĠC op
Ġfound ation
ug u
Ġtem ple
is ations
R ail
ĠMo ore
ĠCol omb
g ments
ĠDis ney
Ġplatform s
190 5
Ġprom ise
y ers
Ġlaw yer
ĠE uro
bet ween
ĠD omin
ĠL ank
F ull
anc el
ra v
ĠC LASS
Ġs ons
Ġsh arp
ĠP DF
ĠSystem s
ĠQ CD
at en
ĠY outh
Ġcon crete
Ġform ing
Ġconver ges
ĠR yan
Ġtrans parent
Ġs ter
Ġincorpor ated
Ġsu it
l oss
ĠI T
Ġmusic ian
qu est
Ġwindow s
M s
Ġrev olution
ĠAl abama
Ġinflu enced
ĠS V
ĠPh ot
ind ependent
Ġ( ,
) &
Ġrequest s
ĠPro cess
Ġreal ized
Ġv o
Ġtransl ated
Ġkin etic
Pol icy
ĠIm age
ĠP ack
Ġvol t
Vol ume
n ie
' $.
Ġoff ices
B P
ĠE c
)) )
Ġk ids
ĠAg ency
Ġsup por
Ġres id
child ren
ch ant
Ġcent ers
all as
ĠB ry
ĠSpace watch
Ġestim ator
Ġconstit ution
Ġdr ivers
AN T
ograph ical
own ed
Ġadv ice
Ġh al
Ġre in
Ġvari ant
script scriptstyle
ĠEm peror
Ġw at
s end
Ġarr ival
Ġwait ing
ĠF ermi
u h
ĠE dition
Ġkey board
Ġabund ance
oc racy
Ġs ight
Ġa u
ĠHaw ai
ĠF ame
Ġmarket ing
jav ascript
ĠK y
Ġemp irical
Big l
Big r
Ġb ars
Ġre aches
Ġbut ton
Ġcon formal
ĠAn ne
Ġp rices
U P
Ġgener ators
Ġj azz
Ġinstance of
ĠIslam ic
cl ick
| _{\
Ġr ating
Ġincreasing ly
am ents
Ġneut ron
ik h
f ire
Ġre jected
ĠAnth ony
New ton
Ġinterpret ed
b ow
Ġtri ple
Ġt all
Further more
Ġcon vention
Ġv eter
Ġ{ {
S ession
ĠC ulture
Ġin duct
Ġmechan ical
Î ±
Ġpl ots
Ġaver aged
Ġconsum ption
Ġen emy
Ġdirect ors
w rap
oc or
ĠAl ber
t ensor
ĠD NA
ĠNew ton
ĠN ich
Ġp refix
ĠG ordon
se a
ĠF all
Ġbran ches
Ġen vironments
ĠS yn
Ġsp herical
ĠF A
Ġadapt ation
ĠEx press
c opy
m ix
ĠHol lywood
EN D
roll ing
Ġlabel ed
Ġparticip ate
he rence
ĠTele vision
eg as
Ġf ought
ur is
w en
at in
ĠHar ris
190 9
Writ er
] ^{
Ġgeneral ization
\, ,
c ounter
issip pi
bu ilt
Ġs oci
pol y
con nection
ĠS R
190 6
w ait
S ur
ĠV in
Ġmet res
il st
B orn
ĠAl b
ĠL as
ov ak
ĠArch itect
Ġbo at
up l
ho le
s ome
add ress
ĠP os
Ġgl ob
web pack
g ame
ĠM i
= -\
ĠDe ath
ĠB ox
AT A
ĠL am
r ison
av ity
3 60
et he
ĠCh ile
d ict
ownt own
I X
Ġassist ance
Ġexplan ation
w t
Ġtype of
` ,
ĠK evin
aint enance
Ġemer gency
int ro
Ġang les
k ens
Ġra in
Ġspl itting
p air
Hel per
Ġhard ware
et ary
oid al
Ġap pend
f all
Ġh am
Ġd iverse
Ġpix els
as ters
il ine
Ġman uscript
not in
Ġretire ment
=" _
ĠD ur
Ġtri es
l b
Ġre normal
ĠPo isson
es is
ĠEar l
fl at
Ġb ath
Ġsub section
sy m
Ar gs
ĠInf antry
Ġconnect ing
pro perties
util s
il k
k t
Ġpublic ations
R ender
Ġge odes
Ġspect rosc
GB T
ĠĠĠĠĠĠĠĠĠĠĠĠĠĠĠĠ ĠĠĠĠĠĠ
ĠAl ice
or ient
ĠĠĠĠĠĠĠĠĠĠĠĠĠĠĠĠ ĠĠĠĠĠĠĠĠĠ
ok ed
Ġcorrespond ence
Bo olean
IT Y
Ġg uns
ah n
our se
ss on
Ġpropag ation
Ġapp rec
e ast
ĠR ub
Ġatmosp here
Ġfe as
Ġsurn ame
oc ese
Ġcontrad iction
ĠCom b
a ire
: </
Ġse es
ĠH u
ĠI O
Ġa ux
n one
Ġde vi
ĠS port
Ġinv ited
Ġpl otted
Ġanc est
Ġin vert
ĠM ir
ĠSc ient
ĠVill age
re tt
Ġs occer
ĠR ound
Ġc ircles
ĠCont in
Ġpers ons
ĠK o
g ray
is ons
Ġrespons ibility
OR D
ug s
Ġpain ter
L oc
ate ver
Ġne ur
appro xim
Ġsit uations
Ġamplit udes
Ġreve als
Ġcompet itions
ĠH REF
ĠTai wan
er os
it ics
ĠChe m
Ð ²
Ġsepar ately
Ġshoot ing
190 7
Ġs udden
G raph
Ġgood s
Ġpubl isher
arg o
ĠBul g
d ashed
St ack
Ġaff ine
c am
Ġv oted
ĠTurk ish
el and
Ġex it
Ġrob ot
U V
v ance
st e
M ember
ar ial
Ġseg ments
Ġscient ists
ab ad
ĠE lement
Ġorb its
marg in
Ġpoet ry
}{ }
~ (
Ġcond ens
be an
Ġcom fort
P e
N um
ie val
ĠK az
ĠMat the
Ġinj ured
Ġrul ed
Ġliter ary
dis ambiguation
\ /
ĠConnect icut
ĠE ag
ĠAl bum
j k
comple x
ĠLa ure
Ġre verse
Ġs cre
th an
Right arrow
Ġhistor ian
Ġmathemat ical
od ox
} <
ĠP A
190 4
P AR
Ġannoun ce
ĠArgent ina
ĠC urrent
Ind ian
k ind
ors es
, .
Ġun us
tri angle
Ġby te
av i
Ġcon cerning
ĠA le
Ġconsist ed
R ober
ĠB ureau
ĠN ag
M al
U se
Ġconsider ation
Ġtop ics
Ġ/* !<
ĠSw iss
Ġrecover ed
F E
ĠT reat
ent er
Int eger
Ġtri angle
ĠSing h
nabl ed
ab ove
Ġl aid
ĠM rs
CT ION
R oot
Ġinter ference
l ades
C B
Ġtr unc
ang o
ĠBill board
M er
reg ister
Ġre b
}} =\
l m
Ġmov ies
V ill
ĠA GN
Ġcount s
ig e
re nd
Ġpresent ation
ĠR oll
Ġin ference
Ġent rance
ĠPh ill
Ġsing ers
B ecause
u ity
S cope
us al
ig ious
^* _
Ġhand ler
uer to
f ramework
E ducation
al ia
f ixed
ĠE arly
ch t
import ant
Ġa ired
[ $
ubl ished
Ġcarry ing
Ġphot ograph
V E
Ġland scape
Im pl
S i
ocr atic
ĠDef ense
Ġeng aged
Ġb irds
ĠH ockey
Ġeven ing
is ode
Ġcoupl ings
W R
1 17
Ġresol ve
an ia
Ġb ary
Ġab use
ĠR iemann
ub le
Ġacc used
er ial
Ġcool ing
Ġdep icted
R ule
Ġaug ment
aut ore
Ġfin it
Ġs now
10 2
Ġt unnel
P aram
ĠCh ampions
Ġde pos
ĠYou Tube
aw ay
Ġrema inder
ps hire
ĠO tt
Ġ: :
Ġent anglement
Ġim plicit
ĠArm en
Ġm outh
Ġp ione
ĠA S
y stem
ĠD VD
az e
put ation
h al
se par
grad ient
E very
| =
Ġf lying
bl ed
Ġspac etime
sh arp
ĠM iami
Ġdis miss
Ġgu ess
) |\
Dat abase
ibr aries
Ġrecomm ended
Ġfrag ment
Ġclust ering
ĠCar lo
oc he
ĠCommon wealth
ĠP as
Ġrestaur ant
Ġre tail
Ġstead y
vert ex
Gl obal
F ootball
B r
Ġman age
' )$
v y
Tem plate
Ġpeak s
_ ,
ĠBelg ium
om as
Ġdeb ate
ĠD ublin
li est
level and
M ajor
Ġde let
Ġexp ensive
b olic
we ak
Ġgrad e
Ġa f
Ġcent uries
Ġ Ä
Ġprob abilities
ĠLouis iana
Ġin aug
Ġcho osing
ĠPal est
ĠDou glas
Ġm m
Ġcerem ony
aut o
ĠT R
Ġamount s
est im
Ġst ating
ail and
ro c
Ġle af
ĠPortug uese
Ġ} )
Ġn ice
ĠA ccess
Ġassert Equals
sub stack
ĠN atural
Ġdirect ory
equ als
ĠP ed
Ġinter sect
Ġiter ations
ĠF le
ĠHer itage
Ġperform s
ĠCro at
ĠInd ependent
Ġfound ing
ĠMark et
Ġvan ishes
ac on
eles cope
ĠP ay
ke ep
m atic
;" |
Ġinfl ation
im ore
t ex
Ġ à¤
dist ance
Ġmin ing
( :
s burgh
Ġvol umes
Ġm ock
ĠP rix
j u
ĠD ave
Cl ub
Ġst im
Ġut ility
P aul
' $,
Ġcoll isions
ĠO ak
Ġhost s
ĠF uture
Ent ity
Ġsports people
ĠTh ursday
Ġleg islation
oc y
& $
Se lected
Ġdec ide
ĠWed nesday
Ġgrow s
Ġ ).
Ġl ose
ourn als
H R
c ert
in ces
nt z
ĠInd ex
ĠN aval
Ġen hanced
Ġt ropical
ĠLem mon
Ġfil ed
ĠL yn
P od
ĠAf ghan
Ġcompet e
Ġestablish ment
ĠL ook
ref ect
} ~\
Ġd war
Ġb id
Ġneg lig
Ġuns igned
& -
Ġaccess ible
ĠTh ough
ĠNC AA
Ġrece iver
f ol
int end
Ġcon e
Ġre nt
att ribute
Ġassoci ate
Ġcol lections
ch arge
Ġhom ot
D iv
ĠEconom ic
ĠMay or
Ġcov ariance
Ġinst rum
ĠPl ayer
Ġb atch
Ġprob e
Ġregular ly
e ctions
in burgh
Ġtalk ing
Ġinstrum ents
Ġro utes
Ġinv ent
Ġguarant ee
ish ment
F ree
10 4
iz ers
Ġte en
ol ished
Ġconcept s
Ġcre ative
Ġmer ger
Ġt ennis
ĠQue bec
Ġdis joint
ĠSt ew
ĠH um
N T
Ġo k
ĠR on
inc or
Ġcompet itive
Ġint rinsic
S an
ann y
ĠBatt alion
Ġch urches
Ī Ĵ
Ġturn ing
Ġweek end
est amp
Ġoper a
Ġproject ive
ĠAn alysis
at ar
Ġon going
const ant
ER S
190 3
Ġdis establ
\| ^
pan el
vious ly
ĠD aily
Ġknow s
ĠE mer
Ġpass enger
ĠE val
s ample
F P
r Ã©
m ay
oun ced
Ġb anks
c b
Ap plication
Style ID
Ġoverl ap
o i
or er
ĠHon or
M ilitary
F alse
ĠN ob
Ġcut s
se lected
Ġslow ly
Ġreal istic
1 16
ĠUn it
Ġteacher s
R ich
ĠF inn
1 18
Ġro oms
Ġm ine
ĠB ou
periment al
E urope
Ġp ulse
G O
ail s
Ġcre ates
p in
Ġinhab it
s ite
Ġp up
Ġcomp ilation
Ġch air
Ġcommission ed
uch y
Ġexpon ent
ĠV ersion
Ġfact s
Ġsus pend
F unc
th ree
ol ly
SE T
Not able
Ġs ensor
ĠS ite
}} )$
ĠF arm
Ġhundred s
ĠC ow
Ġcorrect ly
Ġb rowser
Ġe cho
Ġperturb ations
Ġaband oned
Ġf at
as et
Sp ace
an im
fra red
r floor
Ġext ensions
Ġpr on
' =
v dots
190 1
B H
Ġtechn ologies
l floor
Ġcent ered
ph an
ĠC hen
dev ice
Ġd iversity
ĠD al
uk i
Ġpaint ings
Ġweak ly
K S
Ġob st
ap olis
M arch
Ġconserv ative
est yle
T itle
ĠDi rac
Ġres erve
f inite
ĠP ap
Ġdifficult y
Ġco herent
Ġrequest ed
Ġsurg ery
f ly
por ated
Ġprefer red
ĠK l
ir i
ex pl
ry st
Ġdec ays
ĠF M
f g
) |^
um in
n umer
Sche ma
Ġar ise
Ġpres c
bel ow
ential s
ĠL ev
}_{ {\
ic i
sim ple
Ġfail s
oun sel
ĠWh y
Ġeng ines
", "
Ġcustom er
ĠVol ume
g iven
Ġn a
man ifold
b oth
D elete
Ġmarg inal
Ã ¥
c ustom
ĠY an
ay an
Ġ[ '
M a
Ġcour ses
b ach
q q
mon th
in ement
ĠL anguage
Ġhydro gen
hip s
ĠWalk er
Ġim aging
ĠâĢ ł
in ian
Ġc raft
Ġphil osophy
ĠM ake
ĠP ope
ĠT uesday
Ġs elling
Ġan isot
Ġl it
ĠDe ep
Ġcrit erion
Ġp itch
Ġd uty
R est
g ood
ĠB OO
Ġf old
ĠP ur
Ġanaly tical
B ound
Ġadm its
Ġcy cles
Ġtrack ing
re v
s ession
Ġoption al
Ġcom ic
}} }$}
ĠY ang
Ġex port
Ġast ron
M atrix
ĠF ried
ĠAssum e
Ġresol ved
Ġocc as
' ))
' }\
ast s
to ol
ĠIsra eli
ĠOr th
Ġfavor ite
Ġr ival
Ġanalyz ed
Ġd y
ĠC S
Ġst uff
Ġcon sole
ĠAb d
ĠG arden
iss ance
Ġtrans mit
Ġorder ing
tr igger
Ex ample
A cknowled
Ġf unc
bound ed
d z
ition al
ang les
Ġag encies
wid get
ĠStud ios
Ġexpl ains
Ġtraject ories
Ġc ards
Ġdis contin
H A
Ġnormal ization
Ġde put
Ġdraw ing
Ġd ies
Ġread ers
Ġin line
ĠDet roit
alax y
Ġdest ination
Ġphenomen on
Ġfeel ing
Ġme ets
ĠH D
Arg ument
w p
ĠI ss
Ġmed icine
Ġv ast
ĠT el
Ġshe l
ĠE ver
Ġque ue
s creen
Form er
Ġdiss ip
190 2
ĠDen mark
Ġanalog ous
E nabled
sc ious
sh op
ĠEx p
ĠTer rit
Ġse p
ĠG ets
Ġsubset s
Ġf ired
ĠĠĠĠĠĠĠĠĠĠĠĠĠĠĠĠ ĠĠĠĠĠĠĠĠ
Ġvictim s
Ġcor onavirus
Ġtouch down
P G
Ġv ulner
Ġmay be
Ġass ault
ĠH ills
Ġhead s
Ġproced ures
Ġd ating
18 80
Ġent ering
ĠBrig ade
ĠS ud
ĠBrazil ian
ĠE instein
equ ival
ĠS in
lem an
math ds
ĠPortug al
ĠSever al
Ã «
cent ral
d ers
b ib
l ined
Ġwe ar
C ustom
ĠAtl anta
res ize
Ġref lection
ĠAd vent
ĠP ut
ĠUn iverse
hy per
b ridge
or ne
ĠD ak
ant on
AS E
ĠN ash
Ġprot est
Ġs ending
Ġc um
Ġbring s
Ġ$\ |
set tings
Med ia
Ġstre ets
Ġk inem
Ġacc ord
ĠMiss issippi
b ey
ic he
stand ard
Act ive
el lect
ort s
ĠM aur
Ġphot os
Assum e
ly ph
Ġbelong ing
ĠBl ock
ĠT ar
ut ely
ĠKel ly
Ġanim ated
un iform
ĠIndones ia
re pre
ig ate
ĠBow l
}\ ;
ang ers
g ot
Ġwor se
Ġart ificial
sp ring
ol o
Ġ ],
iver pool
Ġwhe el
re le
IC E
Ġanim ation
or us
Ġgreat ly
a uth
per ature
M us
Ġmix ture
M iss
Ġnon zero
ĠC emetery
f ather
ĠF ern
pro file
Ġreli able
. __
Ġ\, ,
ĠCo oper
z one
Ġsp end
G G
ĠD ick
$ _{\
' ',
Ġre cept
Ġassign ment
ĠB us
de ep
f d
e a
}) )
Ġsym pt
l on
R oman
Ġd il
os ph
ĠOb ama
tr im
Sh ow
Ġcollect ive
Ġs oul
at ics
ist ically
Ġterm inal
ĠT ask
Sh ort
Ġconsider able
w ho
re ement
riev ed
Ġex ports
Ġins urance
3 50
Ġint ent
B D
Ġmanufact uring
ol ph
Ġaut hent
ol y
det erm
ĠEx ample
vol ume
ok ing
ĠPro te
Ġfin ishing
Ġroad s
Cl ick
l ights
á »
Ġh ired
j et
mod al
cast ing
repre ne
as a
[ {\
j ar
Ġp ray
Ġdedu ce
Select or
Ġ ĉ
Ġbo ys
Ġarr ive
B ur
ĠCap ital
Ġdis cret
Ġrank ing
Ġsp arse
an alysis
Ġd ress
el ines
ter ior
Ġdeterm ines
Ġin valid
H M
Ġprinc iples
ĠMc K
-------------------------------- --------------------------------
P al
ĠC ustom
Ġaim s
Fe ature
Ġ$ <
Ġch ampions
Ġhigh way
s n
ail ability
r ub
ĠM D
in line
Ġimp ress
Ã ´
J ames
ĠAl an
ĠL ib
ev ents
je ctions
u is
ĠP R
Ġr is
am ps
Ġin g
ra ise
o es
per turb
d ale
ĠM os
' ],
Ġco hom
ĠJ uan
ren a
ĠI mp
al og
Ġd ict
Met adata
ug ins
B F
Ġst adium
Ġp aram
t ically
Ġour s
b one
ï ¿
Ac adem
an aly
ro se
Ġpres erved
Ġdr ift
ĠR O
Ġoper ates
Ġ }$
Ġ$ $\
Ġ$ [\
ĠT rad
ĠA BC
F lor
. (\
R et
ma king
Ġprov en
Ġround s
ĠSar ah
B undle
. :
Ab out
or f
Ġre ly
Ġp atch
Ġf ruit
33 33
Ġequ als
am an
ĠSoft ware
T ER
ro d
ather ine
Ġmon ot
Ġw aters
ra k
ĠP ear
} &\
ĠRes erve
Ġres erved
)} _{\
Ġcheck ed
ĠJS ON
ĠSam uel
at hered
Ġmid field
cc c
Ġpass engers
Sum mary
Ġgradu ate
Ġaccompan ied
Ġ icon
Ġst ood
par a
er g
ĠW here
10 8
Ġad min
pro fit
ON E
ĠU pdate
Ġtherm od
ĠLie utenant
ĠMc G
Ġground s
ĠC ra
v c
B ased
ĠEd inburgh
ĠB uff
Ġenter tainment
S ym
Ġadm itted
EE E
Ext ension
Ġhe aring
ĠHar vard
ob i
Ġback ing
osl av
Ġoutput s
bar a
}) _{
Men u
ĠR ot
Ġed ited
ab out
Ad dition
Ġ& $
Ġf olk
Ġf ault
ĠE ff
! "
ĠI ron
Ġsy nd
. }\
Ġt ables
Wh y
J une
van ced
Ġtem porary
Ġarm ed
Ġan th
Ġst yles
cl oud
Ġseem ed
m outh
Ġkn ock
up per
}} }{
Ġout comes
Ġre venue
Ġappe al
Ġlif etime
Ġproject ed
Ġsound s
ap plication
Ġcl er
Ġb are
Ġin ternet
Ġcompre hensive
ĠW ard
Ġprov es
ĠPro t
ĠF ri
Ġsecret ary
Ġperm ission
Ġarg ue
ib l
f inals
W indows
Î ¿
Ġw arning
Ġintrodu cing
u id
ĠL anc
Ġt um
Ġen ables
Ġmat ters
Ġtr uly
display math
ĠS P
Ġm o
ĠT s
C opy
Ġas sets
Ġobserv able
ĠArk ansas
Ġowners hip
A uthor
Ġappro val
ĠB ased
ĠCh airman
Ġinst ruct
Ġp ole
Ġcon jecture
Ġvis itors
ĠSe attle
Ġis lands
t n
Ġfle et
C ur
Ġun stable
Ġimpro vements
im p
Ġfranch ise
Ġv oting
Ġsuff ices
Ġlo ops
Ġcomb ining
ĠN i
Ġalign ment
st ery
Ġj unction
Re ception
ĠEx pl
Ġconsum er
Ġex posed
Ġo x
ĠLaw rence
d ig
Ġindu ces
Ġre ign
ul um
Aug ust
Ġcr ash
. },
oper ator
er as
ĠF al
over set
d in
lear ning
ĠAn na
Ġloc omot
ï¿ ½
Ġc ash
u in
Ġj unior
Ġal coh
Ġveloc ities
18 98
U psilon
ent ric
ĠS S
Ġun ity
ĠL ang
ĠBru ce
R ect
h us
Ġgrow n
Ġ{ {\
Ġinvol ve
doc s
Ġ" "
Ġexper ts
Ġlay out
> .
ĠHT ML
Ġch ains
ĠR ick
s yn
Ġlimit ations
Ġt ens
ĠDep uty
Ġwrit es
Ġex ercise
ĠPro p
sc roll
F in
the ory
st yles
ĠTh ailand
az ines
Ġsynt hetic
ĠAg ric
Ġign ore
ĠMor gan
pro ps
Ġsurpr ising
Ġcast le
maz ing
ĠPri or
sec urity
ĠT rade
Ġrecord ings
Ġs i
ĠLiber al
ĠS n
Ġref uge
pl er
p atch
ĠD anish
ĠB ull
tx t
ĠPet ers
ĠIm perial
j an
ĠE le
ĠAng el
O fficial
Ġb on
Pat tern
sol id
Ġgr ass
ant i
Ġmiss ed
ex ception
N D
Th rough
Ġk it
Ġreport ing
s ys
Ġline arly
Ġvolt age
S pe
Ġs wit
Ġillust rate
ens ively
ĠMalays ia
ab olic
d ied
Ä «
m illion
Ġf ol
ĠR ace
= (\
Ġcommunic ations
Ġatt ributed
et ition
Ġinv asion
rupt ed
hib ition
ĉ ĠĠĠĠ
Ġp ipeline
Ġcos mic
St and
i ot
ĠH ug
Ġfam iliar
N V
item s
ser ve
r f
Ġtri als
ĠThom pson
ag ger
Ġreve al
_ (
um ping
ro le
ĠB uck
ĠSm all
Ġcorrel ated
Ġgener ates
Ġtot ally
M art
os ed
Ġtransform ed
over ty
d p
Ġt ank
Ġfew er
ĠG on
Ġval ley
Ñ ı
Ġanom al
aps ed
10 3
Ġcontro vers
Ġtw elve
Ġprov ider
Ġmonitor ing
ub b
Ġarrang ed
Ġso il
ĠF ind
MA X
ĠB S
Ġinf inity
Ġm ic
f our
t mp
Ġquot ient
el astic
oid s
Ġpro sec
By te
Ġprodu cers
N L
Ġland s
ur ers
In it
Ġg arden
cl uster
aud i
Ġspec ify
Ġpri ze
i ac
Ġh ospit
ort ed
~~~~ ~~~~
ĠEu clidean
xy gen
{ [
am l
Ġcould n
ĠN eg
h arm
ĠAust in
bor ough
Exp atriate
she ll
iv ated
R ob
m el
char acter
' }$
C V
In v
= }
in du
Ġreli ef
qu ir
ari ate
as m
Ġv eget
ĠOper ation
Ġexam ine
int o
iv acy
ĠAll iance
Ġsp ending
f actor
Ġcomb inations
Ġdrug s
Ġoccup ation
ab i
hy thm
Ġmole cules
D ay
um ar
i pe
ĠR y
Que ue
Ġsee king
Ġcatal og
Ġdesign er
Jan uary
A U
Ġcl ip
) ">
B et
ĠK ings
Ġpres erve
ass ador
In s
Ġ} {\
ĠÂ »
Ġnorm ally
ĠF ive
ul o
en z
P ool
F ran
Ġsh adow
ĠP uerto
Ġsing ing
n an
ys elf
Ġunivers ities
ĠPro du
b est
Ġrespons es
ĠPe ace
Ġconsequ ences
Ġacceler ation
Ġconst rained
Ġ" /
Ã ł
ĠAuthor ity
n amed
9 00
ĠĠĠĠ ĠĠĊ
Ġse ar
Ġpublic ly
ĠBang lades
sh aped
M ag
Ġlength s
Ġc reat
ĠB art
Ġrelax ation
ĠP S
iter ator
Ġpotential s
pl ugin
r b
D L
C le
Ar r
Ġde formation
ol ver
Ġdesc ript
ips ch
Ġpure ly
Ġdistingu ished
Ġal leg
Ġtrad ing
im ir
ĠM ission
)} =
b us
ĠWe bsite
Ġ ri
}= (
N P
Ġn ick
ĠPal ace
ĠP un
M ass
sup p
or ate
ĠSh ah
ĠT ag
ion ed
und erset
ĠB H
Ġ( [
Ġun like
ĠU tah
ho en
ol as
ĠHistor ical
enez uel
ill o
ourn ament
ĠS earch
Ġrac ial
Re al
Pl ace
18 99
Ġrequ iring
f am
Ġcl ar
10 6
ĠLeg islative
Ġactress es
^{ [
ĠWork s
Ġelli ptic
ĠP rom
Ġch a
Ch annel
}) -
Ġres idence
Ġinst ability
Sim ilarly
Ġmov ements
Ġc up
ĠBo ys
ĠP ad
co in
> $
Sc ott
Ġwas te
ĠChrist opher
ĠBet ween
A pril
Ġsh orter
ĠLear ning
em en
Ġasympt ot
Const raint
s ong
Ġc ro
ĠLim ited
ĠPro perty
ad ic
In ternal
Ġhand ling
ĠPubl ishing
ĠT ig
FF FF
H y
ix el
Ġval uable
al ph
T erm
red it
Ġcont ents
Sec urity
Ġt ends
\| _{\
k ar
Ġexpl oration
( __
h alf
Ġapparent ly
Ġsup plement
Ġadvert ising
Dev ice
ĠCh amber
Ġret rie
ĠG P
is y
Ġac oustic
O h
Ġb ases
ter y
AT H
ĠL ower
t ry
Ġoper ational
ĠU ser
ĠOr chestra
Ġpo inter
Ġcorpor ate
ĠT ake
ĠB ush
roph y
m ask
ĠD ance
b ia
id ance
th a
Ġo s
18 97
COL OR
ĠMan ager
On ce
p ay
v able
E V
dist ribution
Ġt ied
ĠMont real
Ġbe ar
ipsch itz
Ġput ting
G reen
w he
Ġbos on
deg ree
ĠD allas
Ġfil ters
Ġg ang
ĠÃ ī
F ail
Ġc ited
drop down
ĠMe V
ort on
Ġconsist ency
Rober t
ĠR ugby
ann on
end ment
Ġathlet es
Ġadd ressed
ĠDe an
sequ ence
Ġcircum stances
Ġweek ly
cons ider
ia h
\, .
Ġfocus es
Ġassess ment
ĠW ang
ĠRuss ell
Sing le
Ke ys
Com mon
ĠN ep
Com parison
ĠA C
ple ctic
Ġdou bt
K L
Ġr anging
Ġg rey
ĠYear s
ĠFin land
Ġfinit ely
Ġev ident
ĠRog er
ĠO k
T F
Ġann iversary
Ġmy th
ĠC ass
ĠN ode
ĠNever theless
Ġrece ption
T otal
ern ame
bound s
Ġ ^{\
st age
Ã© n
Ġactiv ation
ĠDef ault
i op
ĠE ss
ĠK an
Ġsp oke
Ġarch ae
m ates
J uly
Ġrect angle
Ġres igned
12 7
ĠK on
Ġintegral s
Ġequ ally
ĠA I
ack s
st ers
ĠN ic
Ġpubl ishing
2 20
Ġh ur
ens es
ĠN eb
Ġat tach
Ġfac ing
Ġcal ibration
sh adow
Ġdesc end
Ġprepar ation
Ġremov ing
us p
R elease
Ġne uro
}. \
C oll
Cl uster
$& $
ph ony
S Y
Ġn g
ĠĠĠĠĠĠĠĠĠĠĠĠĠĠĠĠĠĠĠĠĠĠĠĠĠĠĠĠĠĠĠĠ ĠĠĠĠĠĠĠ
D onald
Ġshift ed
ĠM agn
ĠC leveland
Ġv ic
ĠRef er
Build ings
le ading
Ġto ler
im od
Ġdef ensive
Ġille gal
Ġare n
ming ham
Mult i
ĠH it
F eb
ĠP lease
Oct ober
Ġoff ensive
It alian
Ġear liest
ĠUp per
h ai
Ġh ook
ĠStew art
18 95
Ġmat ched
uns igned
Ġf n
n est
ĠKn ight
play er
y ou
ĠH ind
app oint
ĠNig eria
ou ter
ĠTe ch
18 70
incor porated
ĠDemocr ats
assert Equals
H istor
h our
Ġcontinu ing
ĠPitt sburgh
Ġcomb ine
le in
trans ition
Ġpay ment
Ġagric ultural
t re
13 5
Ġregard less
ĠR ap
) )$.
m ac
Ġd s
col lection
Ġeth nic
in cre
s ig
P arser
ÃŃ n
) !
Ġt ie
ĠD ie
d ynamic
Ġnot ing
Ġinhabit ants
Pro file
Pl an
Ġloc ality
v skip
rict ion
Ġsuper ior
ĠH ell
}^{ (\
ĠN GC
Ġgener ality
st ud
b rief
Ġmet ers
Ġnumer ically
Ġre ject
Ġs aved
Com put
F i
is p
Ġsegment ation
ST M
Ġthere by
ĠFreder ick
P rim
id ity
ha ust
v v
or o
ĠStud y
}( -
over ning
}} }$
18 96
nt il
Ġas king
T IM
Ġpre gn
she et
ĠC rit
Ġdecl ine
Ġresident ial
}) (
ĠB ed
Ġprior ity
Field s
ĠH ad
Ġplan ets
ĠN elson
E ff
Ġan ten
ath y
me as
Ġb ott
ĠD ub
Dis play
Ġexpand ing
ĠR io
Ġcryst al
A x
C ho
Ġpra ised
ĠSchool s
m ate
J ob
it ol
cons istent
Names pace
lik ely
Ġw ww
Ġste am
ĠG ray
Ġrece ives
ele gate
Ġexp ed
ĠMic hel
ex pect
Ġmar ine
ĠGirl s
Ġmod ify
$ --
erv ised
Ġcour ts
Ġm sg
Ġadd s
ĠCom ics
ĠBe at
ir ates
comp act
S cal
ic ing
ĠL iverpool
Com b
Ġre tained
iv ities
Ð ´
Ġpost s
ĠM es
Ġpro spect
bo ost
back s
Ġfair ly
F IG
ĠL ane
Ġexpl ored
Ġpre lim
ĠC os
ĠRem ark
c oupl
ĠR ain
Ġvar ies
ĠP rad
Ġdeal ing
sp i
in duced
ĠAd ams
Ġre act
Japan ese
clos ure
i ere
Ġult ra
ĠR an
ear ing
Ġlat ent
ĉĉĉ Ċ
que ue
Ġtra il
Ġout per
des ign
Ġp ars
Ġmark s
und efined
Ġtyp ename
ish ops
ĠJ ason
Ġro se
E lect
ĠSpec ifically
ĠComm ander
Ġschol ars
ĠF ro
Ġderiv ation
ĠLore ntz
ĠM Ps
as g
K n
* )
Pr ivate
Ġel astic
s pl
Ġtransport ation
u its
ĠS ac
ĠRob inson
b ecause
\ }}
ĠUk rainian
}\ }$
it ro
ent ity
Ġpopular ity
Ġ' /
Ġmin i
Ġobtain ing
Ġrest ored
Ġdisc ipl
Ġs ed
} "
Å Ł
S chool
pot ential
ĠL INE
ĠE dd
ĠJud ge
). }
%% %%
Desc riptor
R ussian
ĠD R
Work s
S end
ol id
A pi
Ġexcit ation
S eg
-> _
ĠJ u
ĠO bl
] _{
ĠL ink
Ġformul as
ab br
ĠRec all
Ġacqu isition
ĠIn s
Ġl ib
Pro duction
, ~
ul ative
ĠC rown
+ $
Ġhe ating
ĠGra ham
annot ation
ĠV ik
Ġb attery
ĠO ri
sub float
Ġobser ver
A lex
em pl
Ġim posed
me asure
Ġbreak s
Ġrepresent atives
Ġnot ably
10 7
Cl ose
Ġse venth
ov o
Reg ister
onom ous
Ġmeas uring
Ġcontinu ity
ĠHam pshire
ĠM ars
$ (\
Ġm aintenance
ĠA y
ad min
h skip
IV E
Ġformal ism
t own
Ġdam aged
ĠWel sh
igh ters
ĠS pect
="../../../../ ../
ĠK it
Ġaff ord
ĠS A
it ud
ine a
Ġl ob
n ed
Ġag es
l ass
Ġparticip ation
ĠJoh ann
In f
respect ively
pr ison
Se ptember
ĠT rack
_ ->
Ġanalys es
con ver
IT E
RE E
t oggle
Ġcon clusions
)\ ,\
Ġmach ines
Al bum
Ġwatch ing
Ġsampl ed
Ġvacc ine
Ġad ults
O ld
Ġaux iliary
iss ues
ĠMar ie
r h
ĠSen ator
Ġhyper bolic
Ġremov al
ĠWith out
Ġrele ases
Ġf usion
ĠMur ray
Ġchild hood
Ġelect rical
Ġcompet ing
ĠN ation
ado op
Ġprov ision
P rior
ins ula
L ock
ĠW atch
D U
}}\ ,
Ġhead ed
ĠC ore
Ġlimit ing
ĠW right
ellect ual
Ġh a
Ġco ff
ĠV AL
vel ope
d ifferent
ĠEd itor
Ġin variance
b oy
Ġkind s
r us
Ġmod ification
ĠCl oud
ith uan
Ġex clusive
Ġpick ed
L ook
Ġpos it
Ġd ynasty
}| ^
Ġp ictures
ĠC ensus
Ġenjoy ed
Des pite
Aut o
ĠT ak
Ġhor ror
Ġel ig
N amed
spe ed
p mb
ra ctions
= {\
m ut
Ġh ill
tri ang
ĠTra il
Ġkil omet
ran ean
au ra
ĠP FN
Ġemploy ment
ĠTam il
ĠW oman
O M
Ġch rom
b n
Ġfor th
Ġsurv ived
Ġrepe at
Ġw ider
KE Y
^- $
w al
JS ON
au er
Iter ator
Ġorgan isation
) }^
ã Ģ
he et
og raphics
Ġint ention
Ġman ifest
th read
Ġob lig
Ġm ilit
Ġmechan ics
ou ver
Ġop acity
ĉ čĊ
ĠCamp bell
big skip
Ġprison ers
ul u
ĠCon sequently
ĠBalt imore
ma ker
Ġph on
h n
ĠKar l
Ġautom atic
Ġvis iting
cm d
Ġfrequ ent
Ġc rown
ĠO pt
Flo at
ĠFin ancial
}, {\
D an
ĠMarg aret
ĠStud io
Ġaim ed
Ġwalk ing
ab ul
un ed
Ġfl av
view s
De cember
ces ter
Ġm ile
ĠCent ury
ateg ories
ĠC opyright
ĠVi enna
ĠCh ange
Ġar ises
Ġdeterm ining
ro ck
Ed itor
/ .
Not Null
Ġch amber
idel ines
ĠSt age
Ġpro ton
ĠR ural
F ore
L ike
M o
app y
ĠPhys ics
ĠOrgan ization
w ig
ver sy
sp aces
Ġext ending
b racket
ĠMountain s
ĠV egas
ĠBrook lyn
he res
Ġvot ers
}\ !
ĠCon vention
Mich ael
ĠCl inton
co ordinate
Ġw ine
i at
olog ically
p adding
ex port
ĠT rib
s witch
B T
j amin
hor iz
l ab
ĠAlf red
ĠKenn edy
B oth
Ġc avity
Ġdanger ous
Ð ¼
ĠB ey
s un
A re
il ty
ĠW inn
omin ations
isl ature
Ġs in
ĠN ar
T ags
Ġpar ad
M ath
P Y
f ish
rec ord
ĠTh ose
Ġimpro ving
ĠZ e
Ġsem antic
W here
{ %
10 9
iline ar
Ġshe ar
struct or
Ġm esh
G ame
Ġb aby
Ġcolon ial
ĠCommun ist
eg e
Ġfl ags
Ġmulti plication
B re
Ġhelp ful
Ġpri est
ĠPort land
=" -
B s
Ġb old
Ġde bt
iz z
Ġ[ [
Ġ$- $
Ġtal ent
ob a
p us
ĠMor ris
st ory
ĠCommunic ations
d irection
and al
Ã ª
ĠMet ropolitan
ĠL P
Ġthe rapy
188 9
it ations
Ġt ip
Ġf ul
Ġdiv isions
Â ©
Ġr ide
Ġdeterm ination
ĠCar ter
ĠMet ro
um ann
Ġf urn
ĠS hip
Ġconf ront
it is
ĠAust rian
sc ribe
Ġdev oted
Ġt on
Med al
ĠMa ine
ĠU pon
work s
ĠS ho
ĠH end
H H
ĠS W
ĠC F
ol ia
Ġst ruck
Ġobserv ables
Ġf est
autore f
ĠEv ans
ĠG il
Ġunus ual
ĠA qu
Ġent ities
ĠN BA
Ġc s
m ill
Ġprep are
le ans
i est
Ġvari ants
Ġsub mitted
nd ef
og a
Ġwith draw
Vill ages
ĠJ e
RO M
con tains
Ġclos ing
ĠHung arian
ï ¼
elf are
Ġab elian
Ġh at
ĠG ran
ok a
ĠE uler
Ġvanish ing
Nov ember
Ġdispl ays
14 4
se q
oun ce
Ġpack et
Ġneglig ible
Ġenc oded
St ud
Ġgradu ally
n ia
Ġb ishop
Ġb ind
Ġhealth y
C ondition
Ġing red
X ml
t ar
ok er
Ġfall ing
Ġher itage
ĠBrother s
ĠHung ary
Ġmeet ings
Ġm yself
ĠM eg
Ġres ign
ĠChall enge
ĠK ur
Ġdist urb
ĠDel hi
ĠB G
ĠOper a
ĠN ature
ĠD ocument
Ġrec ru
FA ULT
c ov
et o
}$ ).
Ġcub ic
w ang
z ing
N a
ĠG ulf
ĠJ osh
S W
sim ilar
Af ric
ĠW rest
p icker
y ll
ĠPol y
Ġwill ing
( |
ĠAr n
Ġinv oke
Ġhomot opy
> ();
az y
Ġim plements
18 93
Pro fess
G old
Ġbeh alf
ĠAl ban
ĠRef orm
Child ren
Ġdis abled
ial s
E ven
Ġr ising
M r
F UN
Ġtor us
ĠRoman ia
c z
Ġcritic ism
Ġdeput y
Ġgu y
Ġo xygen
ma kers
Rail way
Ġshift s
Ġimag inary
' )\
ĠC el
sq l
Ġelim inated
clus ively
ĠQu est
Ġ\ #
Ġst retch
ĠLe ban
G s
D ebug
Ġcap abilities
F ramework
Ġn ations
ick ing
Ġsign ing
ĠM ack
sum er
Ġam pl
Ġinequ alities
ĠM aj
fl ags
B N
It ems
Ġbe ach
E val
Syn tax
ĠR at
24 0
Ġjud ges
Ġrun ner
Ġm irror
Ġre actions
Ġconstitu ency
Ġpass age
Ġcompos ite
Ġexhib its
ĠMad rid
Ġatt orney
Ġf asc
Ġinj uries
Ġbox es
ĠMot or
ul atory
f are
11 4
Ġviol ation
Ġfriend ly
cal cul
W N
ĠI C
em ail
Ġsurround ed
}} +
as p
Ġg ram
ev a
claim ed
ist ence
Ġland ing
5 12
ch arg
Ġneighb ors
not ation
ĠL GBT
im pl
list ed
Ġreg ulations
Ã¨ re
v ideo
ĠI ce
ĠF ather
rel im
Ġref lected
h av
ĠO d
Ġpremier ed
D ue
res olution
Ġr id
Ġsc r
ĠM other
ĠY e
ĠRail road
f requency
ĠL apl
Ġwh ilst
ext end
Ġwh atever
Ġsympt oms
18 92
^ +\
iv an
ĠPro duct
' (\
Ġpass ion
ĠC C
Po inter
Ġens ures
Ġcomp ression
Ġperm utation
L and
ĠSt ars
ar us
ĠK now
N odes
ĠCh ampion
ĠCh apter
hoen ix
l g
18 91
Ġbuild er
ren ew
Ġthous and
Ġg host
18 94
qu ality
Or gan
Ġm ess
A rm
l ag
ter ed
Ġj son
Ġcompl aint
Ġwork er
IN S
G D
Ġmut ual
Ġbeaut y
Pro ps
Com ment
Ġthe ater
Ġb ird
ĠH ero
ĠH old
Ġfem in
ĠJos Ã©
ĠLank a
Ġven ues
on ian
Ġp ref
hold ers
Ġbi ological
ĠF ight
ĠLINE AR
ĠT ol
A ir
Ġelse where
Ġinf ection
We ek
Ġclos est
ĠOr leans
index Of
Sup er
Ġgen re
un ique
D IR
): =\
ge on
refect ure
Ġb arrier
Ġs essions
ro v
Ġsn ap
\!\! \!\!
}$ $
onym ous
dr iven
iv ia
Ġign ored
Ġfund ed
gener ated
P y
Ġn ortheast
L en
ĠS ource
Ġgen etic
S al
ab a
Ġjournal ists
J E
Ġload ed
Ġdiv or
ard ed
17 0
ĠE mb
ocor ro
M ock
ĠH orn
ĠB aker
Ġj uris
ĠLe ft
ĠOrth odox
by tes
Fl ags
Ġout break
Ġcelebr ated
Ġcount ing
Ġte ach
Ġtransl ate
L ater
ĠMarsh all
ĠT ree
ba ij
ĠR ud
Ġfe e
Pol itical
cc a
ĠU E
ĠK u
Ġprim itive
B it
art icle
Ġeffect iveness
ĠL A
no ise
Ġcohom ology
}_{ (
ĠMatthe w
ĠD J
Ġdes ire
Ġwould n
Ġtang ent
ĠGu y
V P
Ġins ight
the me
end a
ĠPer formance
Ġqu eries
h op
ĠMov ie
ri el
++ ;
Ge orge
i ors
ĠPFN GL
hes es
ult an
ĠPat ri
tra ce
11 3
Ġdise ases
ĠIndust ry
zer baij
Ï Ħ
d ays
V I
Ġaddress es
ĠS ocorro
i u
Ġcommut ative
; ->
re pe
New s
ĠM ind
Ġ[ ],
Ġill ness
ĠNot ice
nov ation
rat io
Ġdiver gence
c od
Ġembedd ings
ĠMat hemat
Ġtrans it
ors ion
W ar
ĠP od
ĠAss istant
h idden
Ġsuggest ing
oc ols
Ġsuspend ed
18 85
p b
ĠĠĠĠĠĠĠĠĠĠĠĠĠĠĠĠ ĠĠĠĠĠĠĠĠĠĠ
pos itive
ĠF r
27 0
iter ranean
ĠAtt orney
Ġforest s
Ġsingular ity
om on
Ġrec urs
ĠG un
ij ing
Ġre putation
Ġsh apes
Ġd ot
Ġtyp ed
Ġcricket ers
S am
Ġ( +
en berg
* {-
let ter
}} +\
Ġext raction
Ġlong est
effic ient
Ġnorth west
ĠF isher
anc ouver
f ail
Ġl oved
em on
ĠB ible
Ġthick ness
Ġsqu ares
En um
ĠDak ota
Ġtw ist
t ons
Ġcoupl es
ric ane
18 60
test ing
Ġsurv ival
g ue
e per
p read
G LE
Ġr g
Ġwith d
group s
gra duate
U D
âĢ ī
Ġr ings
Ġabsol utely
ĠRes ource
' >
Ġh tml
c ule
id o
ley ball
pl ates
ĠBanglades h
St ruct
x ym
ĠBir mingham
Ġn urs
Ġmen u
ĠJim my
Ġclass ifier
x rightarrow
St ation
F act
ĉ ĠĠĠĠĠĠĠĠĠĠĠĠĠĠĠ
Ġre plic
ĠAl tern
ĠSt ein
ĠElect ric
Ġoscill ations
sup ervised
Ġexec ute
Ġant icip
w right
J ack
Ġover se
U ID
Ġactiv ist
min ute
Ġgovern ments
Ġmod uli
her s
Ġsymmet ries
Ġo cean
ug oslav
ĠThe ater
h ome
, (
ens on
Ġident ifying
Ġbig ger
Ġrom antic
ĠPr ivate
Ġfeas ible
Ġden ied
Pro duct
Ġpro hib
art ifact
ĠSt ev
Ġsk ip
Ġd uties
Ġim prison
Ġj ets
ĠM ong
ĠEx change
S ever
S ION
Ġspe aker
id ad
W al
comp at
ĠMov ement
ĠCar ib
Ġb rig
Ġsub stit
ĠM ust
ĠJ azz
- {\
Ã³ w
ĠS eg
Ġr ivers
ff ff
ĠC L
Ġbu ck
Ġconvers ation
center line
ential ly
Ġlocal ized
Ġd amp
ĠCon stant
Ġcele b
Ġfocus ing
Ġb om
ĠM embers
ĠPol itical
ply ing
Ġop ens
Ġ( _
Ġt ur
Ġwe aring
est one
win ning
Ġefficient ly
Ġgener a
p aren
ap ing
Ġpro xy
Ġmag ic
asg ow
em ale
Ġin cl
D ialog
ĠG ary
ow ed
ĠPr incess
} ]$
Ġe g
ore l
ali as
t z
Ġlist ener
ov ich
comp are
op les
AR Y
count ry
E lements
ĠO ption
Ġarrang ement
ĠTO DO
Ġcloud s
ĠAd vis
ĉ ĠĠĠĠĠĠĠĠ
ex act
ĠA rena
Ġmet adata
Run time
Ġpaint ed
Ġw et
Att ributes
ĠBo olean
or se
ĠFrank lin
h ot
Ġso ph
Ġd otted
Ġcons iders
Ġthem es
Vert ex
ĠAl aska
Ġp overty
ĠN ad
pat tern
enc er
Ġt ension
ĠAp pe
Ġvess el
Ġart istic
Ġmetall icity
18 88
ĠN ord
ont r
Ġcycl ic
Ġc arrier
Ġfl avor
Ġproof s
Ġtal ks
Ġprint ed
## #
Ġperson ality
= $
ĠL iving
Ġpo em
}$ ;
Ġphenomen a
( !
Ġw ides
pl ier
ĠOtt oman
ĠG ill
Ġb ag
ĠM ak
ĠNev ada
ĠF alse
ĠĠĠĠĠĠĠĠĠĠĠĠĠĠĠĠ ĠĠĠĠĠĠĠĠĠĠĠĠĠ
Col lections
d ing
Ġsuppor ters
s ave
Ġem otional
Ġover view
ĠF OR
Ġyour self
opt imal
ma xim
CH EC
symmet ric
Ġdis cre
vers ely
ow s
Ġrail road
h ill
oth y
ĠV enezuel
d n
+ |
ĠU g
it ime
Ġas c
ir k
Th ree
Ġsurv ive
ĠB asketball
as hes
Ġw ounded
equ ate
ĠV I
ĠR and
ĠT ower
Ġflow ers
Ġstay ed
left rightarrow
Ġsurve ys
we ek
ampl ing
ĠStan ley
Ġappoint ment
fol io
Th m
M AT
Ġsu icide
xym atrix
y y
Ġan chor
Ġs itting
is o
T or
l ift
ĠAcc ount
M ET
olt z
ĠAnd roid
Pro xy
) <
Ġstrugg le
on line
l r
Å ¾
@ {}
Ġm ouse
Ġtext s
u ct
Ġfe els
war z
Ġhol omorphic
Ġrep air
Ġhabit at
B al
G rid
ia o
com position
T om
Ĩ Ĵ
Ġinst ruction
umb ent
ĠConserv ative
Ġe ase
Ġb io
Ġp sy
Ġinform ed
Ġreg iment
cho ose
D ouble
ater al
add le
M ENT
Ġg ray
var pi
L ie
Å Ħ
_{ (\
ĠC her
const raint
ĠA the
Ob serv
Ġas ks
ĠC T
h ig
hol m
ĠK os
Ġpl astic
Ġsup plied
ĠInt eg
apt ist
Ġdip ole
o il
it ure
Ġg al
ĠWay ne
Ġlocal ization
iv id
ish ments
ĠT ab
Ġhierarch y
D ig
d c
Ġs ke
Ġrad ical
Ġexclud ed
am ination
Ġf ake
m und
Ġinstrument al
Ġg ay
id x
Ġtrend s
Pr int
ĠMit chell
Ġobvious ly
Ġdeploy ed
Ġm ail
ĠD est
S pecial
ĠSt ill
ĠÃ ł
Ġc ous
Ġvari ability
Ġprom ising
ĠRes ources
Stat ement
s qu
ĠM icro
Ġdetermin istic
an ne
H ER
A li
Ġcr imes
C ert
ĠT ob
hat tan
Ġex haust
RE AD
sl ice
Ġr anks
R a
writ ing
ĠP ant
ment ioned
Ġrel ating
Ġproport ion
Ġsuccess or
D er
vert ed
add r
z h
Ġstrateg ic
oun ters
ĠM ix
Ġemer ged
] :
Ġnegot i
Ġt elling
con j
U C
Ġel der
ĠHun ter
K K
Ġj Query
ĠChar lie
Ġrel ativistic
Ġfra ud
Ġalcoh ol
Ġnewsp apers
Ġcl im
met ric
ĠBern ard
ĠC arn
Ġgu idance
Ġcontribut ing
W rapper
Ġdest ruction
Ġorient ed
s b
uk a
Ġcom ed
ĠAlber ta
18 65
ĠI an
Ġmoder ate
ud son
Ġmer ge
ĠAnd y
prot ect
IN D
Ġvess els
Ġinvol vement
qu ote
O L
ed ing
LO G
ĠAfghan istan
ĠN am
ĠĠĠĠĠĠĠĠĠĠĠĠĠĠĠĠ ĠĠĠĠĠĠĠĠĠĠĠĠ
ip edia
Ġste ep
Ġamong st
ed it
sv g
ĠH ope
ĠThe ory
Ġprov incial
Ġ\ }$
tt ing
F W
Ġcarri es
ĠB ud
Europe an
ĠSch olar
ĠJon athan
et on
ber ry
Ġpart ly
Ġelect romagnetic
roph ys
plement ation
Ġpred omin
sat isf
und les
Ġsus pect
Y P
_{ {
Ġ\, .
Ġqual ifying
Ġmanifold s
ĠW i
en able
bl ing
C a
ĠProfess ional
M sg
Ġcompos ers
h adoop
ĠProte ction
Ġext ensively
F ind
ĠClass ic
}}\ \
ĠBl ues
Ġen forcement
Ġb ot
188 7
ĠP ictures
ĠT u
ĠObl ast
Ġf ishing
per iments
Ġres um
}] \
c ost
Ġrul ing
Ġver ified
ling ton
ĠBar ry
Ġd owntown
ĠT ax
ĠCh o
Ġj av
Ġferm ions
itud inal
h yp
ac o
Ġinst ructions
Ġvari eties
M icrosoft
h ref
ĠAthlet ic
g ements
f iction
Ġtr im
ĠP resent
ne e
Ġp in
ĠP aper
Ind eed
' ,\
ĠS H
FI LE
Ġs alt
Ġcontinu ously
k w
u art
em ark
inst all
F low
Ġdou b
ett i
Ġreg istration
Ġselect or
Ġprot otype
b ibliography
Ġas semb
Ġprote ins
R oute
Ġphys ically
ĠF ix
ĠSp irit
Ġcol span
ĠT ournament
ĠP ract
Ġqu iet
st ellar
an chor
Ġtarget ed
r ically
or ia
ĠS L
ĠB iden
Ġevol ved
sm ooth
ur u
ĠÂ ·
usal em
G ood
Ġdifficult ies
Ġc tx
fra ction
ĠBroad way
CHEC K
Ġsummar ized
ed itor
ĠM all
ir ms
X ML
Ġswim ming
ract ed
ĠF ine
Ġphot ographer
Ġb le
Ġsuff ering
ĠColon el
end ers
p aper
Trans form
tern oon
ĠSt ra
ĠJohn ny
Ġfraction al
correspond ing
ĠCl in
E u
ĠJ enn
Ġmer ely
S cale
at omic
Ġtrans c
Ġg overning
aval ry
ĠM ess
Ġelectric ity
g ov
os opher
Ġrad ii
ĠP RO
Ġpull ed
pol ar
ey er
if le
n p
Ġreserv oir
ĠSe lect
print f
Ġcoast al
ĠWar ren
ĠDef ence
C s
Ġs ends
Ġsub mar
Ġhon est
Ġpain ters
e enth
ĠFin ance
ll i
ĠZ one
ĠW ord
Ġleg s
Ġparamet riz
P refix
) /\
Ġsynt hes
L ayer
Ġprot ests
ĠCh art
ul ates
Pl ugin
ĠP ic
ĠS occer
Ġr u
ĠGal actic
Ġsup ern
Ġ> >
th row
Ġaff airs
Ġsimpl ified
Ġattract ed
Ġdem ands
ĠN eed
Ġinteract ing
Ġsp oken
Ġc able
Ġcancell ed
in her
S ep
Ġpro xim
Ġcontrad ict
( .
T M
Wh ite
Ġenc oder
m iral
ĠAr g
Ġcritic ized
Pre vious
Ġmem orial
c rit
r k
ĠO range
ĠP ra
Ġcount ies
l as
ĠSim ilar
IG HT
Ġregular ization
Î ¹
ard ing
our t
Ġi i
Ġdual ity
Ġprelim inary
eng ine
ina e
Ġdis ag
Ġdef ence
ham mad
//////////////// ////////////////
h ad
188 6
ontr ivial
Ġex clusively
Ġestablish ing
ĠPro blem
Ġcontrovers ial
ĠC oul
ĠCarl os
ĠCl ar
ĠSpe ed
Ġconsist ently
up load
g p
Ġcancell ation
ĠS F
Ġdiscrim in
Ġresc ue
ĠB ond
hel p
Ġsequ el
v irtual
ð Ł
ĠB illy
bor ne
ĠSer ge
Mem ory
itar ian
Ġfor cing
Ġobserv ational
ĠT E
inn ed
Ġstream ing
ĠPr int
Ġdebut ed
rist ol
clud e
), (
Ġfarm ers
Ġband width
Ġmiss ions
' -
c ient
") ]
ĠB ron
Ġagre es
ĠR ank
fig s
Ġsupp ressed
Ġnav igation
J ac
t ics
row th
Ġmod ular
og y
4 50
Ġaccur ately
Ġall ocation
Ġart ifact
ĠPrad esh
[ :
Ġst em
ele ments
ĠHawai i
em ed
ĠR acing
ot ions
iv ariate
Ġlicens ed
Ġg ates
M AP
cont roller
Ġhom omorphism
Ġh ide
ĠSy ria
Ġrel ies
Ġal ive
Ġvari ed
P arse
12 4
Ġshe et
ĠSte el
Ġsol it
um s
Ġrun time
f c
Ġminim ize
Pro gram
Ġg ran
Ġnarr ative
tem perature
Ġfinal s
g tr
ex cept
em p
ĠP il
B OO
Ġgeodes ic
ĠComput er
Ġn aval
Ġsuper conduct
A uth
Ġann ih
Ġencourag ed
ce ive
Ġwides pread
P ers
ĠRel ations
Acc ount
12 2
Ġadv oc
H ol
h um
if ndef
cast le
ĠA pr
Ġsup plies
Ġs outheast
ĠSt re
Class es
bour g
if ference
Ġrele g
$ ^\
Ġb at
Ġover come
ass oci
Ġmanag ing
ĠSt orm
Ġconver ge
Ġperfect ly
Ġsub stitute
pre v
bas ic
Ġre cre
Ġterm in
Ġpe er
ĠDr ive
Ġbelie ves
renew command
pan ic
Gener ic
ĠD im
are a
H en
Ġan nu
Ġking dom
p refix
Ġmotiv ated
Ñ ĭ
ĠW as
Ġlabor atory
18 50
cel ona
re z
te chn
new s
Ġdef initely
w iki
Ġiniti ative
d etail
res et
ik ipedia
moment um
g un
ĠPr imary
ain ing
acc ount
L at
Ġup coming
P red
Ġphot ography
Ġ ell
Ġb rick
err ors
j or
Ġdoll ars
& #
ĠNorm an
C at
AR E
Ġg olf
TEX T
] ^{\
Ġp or
U SE
Ġfil ename
Ġdepart ure
r ise
text style
ĠUn like
ens itive
ĠYork shire
T L
ĠD og
comm unic
ab e
ĠOl iver
Ġin hib
Ġfor get
Ġde als
: [
ich i
ĠSal v
ĠP rice
Ġ> >>
Ġsurpr ise
C ity
È Ļ
ation ally
ĠS ax
r if
ro oms
erm ont
duc ational
SI ZE
) ~
ĠC ricket
ĠDef ine
Ġcomplet es
op ing
ĠĠĠĠ ĠĊ
Ġ\ :
Ġinj ection
Ġdet ectors
M ean
Z Z
sur face
Ġn eck
Ġcomput ations
Ġspirit ual
Ġd elta
ĠC u
Ġd ated
ĠJ ess
Ġ )$
Ġt ub
qu er
Ġcard inal
ĠNaz i
Ġt y
oper ative
Ġinflu ential
Ġsl ot
Ġh orses
ĠUr ban
Ġadvers arial
ut ter
ĠCr ime
Un ivers
Ġsynt hesis
ut o
ĠTra vel
Ġnucle i
ook ie
Dist ribution
Ġd b
Ġfl ights
Ġmountain s
', '
ĠWith in
] _
An alysis
Ġsouth west
Ġincre d
b ishop
18 64
Ġap artment
12 1
ĠL ock
() {
Ġal ert
top rule
Ġrecogn ize
Ch anged
ĠB ranch
Test s
T own
Ġconven ience
ens en
ĠC ultural
ĠR ico
F iles
Ġpl ain
Ġemer ging
Ġuniqu ely
Ġf antasy
Ġcopy right
Ġmodel ed
Ġto x
ST AT
ĠA ld
Ġreal ize
ĠDou ble
omet er
ari ants
Ġcateg or
Ġdis placement
ĠS oul
od ic
T ur
ĠPr im
ĠH ash
Ġinvest ors
ĠB og
Ġsub str
Ġb one
Ġscal ed
Ġre q
Ġleg acy
Ġcontract s
eq q
qu et
ĠO S
Ġout standing
Ġsubs idi
$ /
A z
J ew
um my
Ġf ro
av ailable
ĠGl asgow
Ġview ers
ĠF el
P ER
12 6
Ġansw ers
Ġdelay ed
ĠS audi
Ġcomp iled
Ġp ose
Ġd ir
ĠP sych
Ġmag azines
ĠFl ore
17 5
Ġaffect s
met adata
ĠIn v
n il
Ġhol iday
writ ers
ĠF R
ut er
Feb ruary
sche ma
am er
ĠS I
ier ra
Ġpeak ed
Ġconstruct or
Ġext inction
Ġvis its
Ġs av
Ġ ×
Ġg allery
Î ½
Ġpro ps
ĠPier re
e u
g it
ch anges
p q
Ġv ir
Ġbl ind
Ġg ro
Ġdaugh ters
sc ar
Ġ io
ex pr
Ġ\\ [
re ction
E ast
ĠIn n
}} ^{(
ĠBay esian
Ġover s
Ġdecl ined
ĠCat hedral
Ġconsum ers
Ġm igration
ĠMean while
CO MP
Th omas
ac cept
ĠL ud
L ower
c ritical
reprene ur
I ES
imens ion
Pack age
Ġoccasion ally
r v
iss a
ĠL ad
Ġremark able
Ġrepro duce
ĠInd ians
im et
big oplus
Ġcred ited
Ġse ctors
Ġco operation
Ġthreat ened
ĠSe ven
N umer
ik o
vari able
ĠX ML
S il
k k
ĠCarib bean
Ġg rap
Ġguarant ees
com ponents
ĠMin or
Ġstar red
ĠY u
ĠAp pro
Ġlaw yers
f un
ĠT ogether
set length
Ġwind s
{ "
Ġim plied
Ġachie ves
Ġar ising
2 10
ĠPro of
ĠC ou
ĠLeg end
ĠBar bara
g io
ĠR ange
W in
ĠF reedom
}) }\
Ġtext ure
Ġf abric
Ġprocess ed
Ġencou rage
Ġpark ing
process ing
Ġemploy ee
l iter
Ġdevelop ers
Ġpro to
own er
Ġcompan ion
pl ant
Ġman ual
Ġl oyal
}, \\
ĠW ing
ĠB E
Ġgu ests
ir th
N or
Ġdeg rad
P et
p kg
Fig ures
N ULL
Ġun expected
ow ell
ij k
ĠM I
with out
S en
ĠLe vel
ve ctors
Ġrestaur ants
ĠS r
Ġfl ash
at om
M ill
$ =
M W
Con f
ĠI van
iff s
^ *}
n c
ache l
Ġcaref ully
Ġqu bit
âĢĻ ,
Ġdefe ating
b ing
Rel ated
ĠPl ant
on ce
Newton soft
Ġup grad
188 4
ĉ ĠĠ
Ġun likely
P erm
Ġen umer
Sp anish
m ock
c ussion
ĠD ays
the y
ĠAthlet ics
Ġaware ness
in ery
Nav Bar
ĠRe act
Ġc ul
Ġim plications
ĠT rophy
'] )
cons ist
A SSERT
miss ions
n ear
ed a
Ġdevelop ments
ĠMach ine
ch art
Ġconjug ate
Ġnom ination
ĠV ancouver
op al
2 30
l brace
b x
as ant
Ġprof it
ĠFI FA
] }\
ĠPark er
Ġattract ive
ĠA B
18 61
ĠOver all
ĠN icol
ener ate
ĠS ay
eff ect
. ),
Ġ$ -\
Ġdocument ation
w ind
P ower
}_ +
ĠMunic ipality
ĠF ly
ĠCharl otte
S election
Ġbre ast
Ġmaintain ing
on na
Ġbrand s
Ġmed ieval
Ġh ip
C y
Sc roll
Ġcut ting
ĠF L
qu al
Ġbright ness
Ġh int
N OT
Ident ifier
Ġsens ors
Go ogle
ĠSt ore
ic z
V A
Ġf inger
Ġflux es
ĠNAS A
ĠPh D
tra ined
@ "
Ġto kens
ĠN at
L ou
188 1
o ys
r aska
Ġcons ensus
m ount
ĠOrig inal
al is
it atively
ush ing
Ġun success
Ġbusiness man
ĠY am
Ġload ing
Sim ple
4 000
ot ton
M or
ĠU lt
V M
ant um
Ġaver aging
I con
art z
}} -
Ġdis ks
Ġmathemat ics
& +
tem p
). $$
col head
Ġneighbor ing
Ġrare ly
if def
ĠJer usalem
ĠM aterial
ak u
Ġw orship
}. $
G al
Se ason
Ġre tain
Ġguitar ist
be ing
ĠB lood
ĠPart ners
Ġexist ed
enn ial
Ġvalid ity
Ġcoinc ides
ĠOper ations
Ġreconstruct ed
19 2
Ġcharacter ization
)) );
Ġa mazing
Ġass ass
Ġopt s
ĠBen jamin
Ġintrodu ces
) ~\
}{ $
'' .
ig m
de cl
igh bor
}} }{\
Ġmount ed
ig o
z ant
B ro
Ġreflect s
Ġsil ent
Ġunder ground
Ġp ushed
Rad io
Q U
d v
ig roup
ĠE ston
Ġsym plectic
i ology
Le ague
ĠJ ama
sup ported
Not ice
ĠV ic
out ing
Ġg ard
Ġst ake
Ġinstall ation
Ġneighbour hood
Ġev il
ĠE li
Ġst range
av an
Ġind irect
ĠColl ins
ĠGr iff
Ġexpect ations
N ative
Ġadapt ive
ĠMil an
Ġcolle ges
Ġaggreg ate
Error f
n l
h aus
Ġout flow
L y
Ġwe bs
Ġorgan isations
Ġelect oral
ĠF ab
ĠBelg ian
Ġguarant eed
ĠEconom ics
Ġt act
Ġalign ed
ine e
Ġquant itative
ĠG alaxy
ent e
Ġl ying
18 62
ke ley
L iter
ĠMan hattan
Cont in
Ġo ct
Ġ' '
Ġprov ing
ol ute
de velop
ĠL ess
artifact Id
ĠWrest ling
? ?
Ġpo ems
Ġactiv ists
! âĢĿ
C G
I mm
188 2
Ġcross ed
Ġp ian
Ġweap on
Ġ ions
Ġer g
K ing
d etails
ant ics
sin h
ov iÄĩ
Ġident ities
config uration
Con clusion
ĠS z
ht bp
ĠI L
quant um
ĠJ oy
uch i
Ġt issue
ĠCommission er
Ġm or
Ġcommit ment
ag ar
Ġcon fer
f x
rel ax
con vex
Ġcap s
aly mp
ĠA zerbaij
ac re
L ight
for ced
Ġcook ies
ĠCh ron
ĠEnvironment al
k ip
ab c
ub ern
Ġr ub
Ġdiscre p
kee per
M ad
ĠShe l
ĠM E
ew ise
ĠBe ijing
Ġviol ent
ĠLe aders
Ġdis appoint
Ġstream s
ĠF alls
Ġexam ined
Ġaccord ance
Ġf oss
Ġwood en
ĠS now
Ġinterview s
ĠG raph
Ġcomp ound
he ll
mark s
Ġche cks
18 63
ĠNov a
ĠOther wise
En umer
Al umni
st ad
Ġr um
Ġke eps
. -
Ġcaus al
Ġtw in
op edia
ĠConf eder
sh a
Ġf ictional
b ug
Ġdo ors
Ġth orough
Rem ove
Ġcomm em
tra ining
r int
Ġvalid ate
Ġven ue
ĠFac ulty
ĠJ a
ĠL HC
select or
Ġor ange
Ġent ers
Ġt ill
Ġassum es
Ġbre ath
lo yd
hand ler
ĠN BC
pos itory
Ġdiam ond
ĠGu inea
build ing
ĠC ant
ĠCh air
ĠS ett
ĠG ate
Ġst ops
om at
Ġrest oration
ĠH indu
Ġinter vention
) *
ĠMar vel
R ound
Ñ Į
rad io
Ġfil med
N ormal
Ġt rick
ĠLiter ature
Ġinnov ation
Ġsound track
ost ics
ĠDrag on
un ning
ĠL ithuan
T ex
cur sor
Com par
b ran
ĠO wn
U pd
Ġcont rary
at z
ry ption
Ġint u
mid t
ĠS ex
ast rop
Ġst ick
18 75
h ide
S uch
im eter
ĠSong s
NR AS
en abled
Ġevery where
ĠP ast
H F
ĠB achelor
Ġcon gress
Ser ies
Ġl os
rap ol
Ġcontro versy
Ġt ort
Ġpro g
\' {
ĠInt eger
Ġcas ual
ĠT i
Ġreview ed
ĠPro test
Ġs weet
f b
ĠS elf
Ġep id
ĠP refecture
w alk
gtr sim
Ġrem ind
L aw
Dom ain
fl ag
ĠEgypt ian
~ {\
Ġm ild
ct rine
ĠMed iterranean
Ġqu arks
C r
ĠSt ream
Ġclaim ing
Ġn ontrivial
Ġsole ly
cc entric
ĠR u
D ictionary
o ft
Ġc ogn
ond o
cur ve
Ġhand led
ang led
m etic
th y
14 5
He alth
LO CK
Load er
="../../../../ ../../
bibliography style
Eng ine
ĠM ol
ster dam
em a
* }\
est imate
Ġnot iced
ĠConst ruction
ĠG ot
Ġviol in
Sup port
Ġobserv ing
ĠP hoenix
Ġmon ument
Ġfin ance
Ġt ruck
ĠUnivers al
se en
n odes
Ġmicro sc
Ġind igenous
es ome
= [
Ġf ract
Ġw edding
fra g
Ġrot ating
ign ment
up t
eg u
ĠRob in
q ed
ĠSh ang
set up
r brace
Ġorgan ic
}\, ,
fe ature
ins ky
cred ited
B Y
Ġsus cept
ĠP el
Ġb ins
ĠG round
L ive
}$ ),
et ta
Ġsurv iving
all ing
Ġreg ulation
Direct ory
ĠD ir
Ġaltern ate
ĠIran ian
Im port
ĠS ad
18 78
Ġread ily
ĠF u
00 5
Ġres et
ĠPer u
ĠT oy
assert Equal
Ġsub div
om ing
ar an
Over view
ĠHe b
Ġamb ig
ĠL uther
ext ension
Ġadvent ure
inc inn
Ġshop ping
ĠInt elligence
Ġincor rect
abl ing
H I
ĠW rite
Ġagric ulture
Ġl ad
Ġd rew
Ġinflu ences
Ġcoff ee
ĠE ug
18 00
const ruction
Ġdef ic
ĠH O
}; \
Ġcap ability
d one
Res earch
Ġm as
Ġcomplet ing
hom ogeneous
Ġgu ilty
A udio
Pan el
load ed
Ġsimpl er
Ġsingular ities
Ġswitch ing
Ã ¦
ĠKir k
ĠR ing
Ġphotograph s
Ã Ł
Post ed
ht b
st ation
bottom rule
ĠC BS
ĠT it
Ġdial ogue
)$ $
Ġm i
Ġrel ay
Ġchar ity
Ġmill ions
ag ers
aj a
Ġg od
ĠSh a
ĠSaint s
API ENTRY
Ġsub graph
Ġdemonstr ates
f m
b ootstrap
C ategory
u ate
18 76
Ġint ellectual
Ġth irty
ĠF itz
Ġt ube
Ġto w
Ġbeg un
ĠL L
us k
ĠW a
ĠF am
ĠCon fig
ĠBOO ST
duc ing
diag ram
Su ccess
r arily
Ġoccur ring
ĠVictor ian
ex tern
uc lear
et es
B usiness
D est
equ ence
]{ ./
Ġadj oint
Ġt mp
ĠTurn er
Ġav ailability
amp a
ĠStud ent
ĠElement ary
big gl
ĠF err
Ġ' <
ig s
st ance
Ġconv icted
ĠS NR
r ink
ryst al
Ġd ub
ars ity
W ell
ĠRich mond
ĠB enn
Ġpo ets
') );
Ġsc an
Ġreported ly
ĠWar ner
the se
Sh ared
u ke
ĠB orn
Oper ator
| {\
Ġsum s
Ġiniti ated
ĠR angers
Ġde eper
incinn ati
/ >
ĠChe l
Ġannu ally
ĠR F
ĠMult i
d or
^{ {\
ĠFinn ish
Ġcred its
Ġd ictionary
ĠF light
() ).
Ġdegener ate
ĠFle et
ç ļ
ĠArt icle
ĠC ond
Rich ard
do i
Ù Ħ
Ġ rib
Ġg all
ac a
18 77
Ġconf ident
Ġdevi ations
15 5
ĠAnd re
t ures
Ġperm itted
ĠAlex and
Ġgrad ed
W F
}. $$
ĠV iol
styles heet
Ġconsider ably
ĠPh oto
ph abet
Ġexponential ly
man ager
Ġabs ent
Ġre ven
Ġpoint ing
bound ary
ĠP L
ĠB R
group Id
Ġel abor
ĠPar ish
Ġearth qu
e or
opt ional
cor rect
Ġpurs ue
Ġt et
Ġhealth care
Ġoptim ized
): =
Ġem issions
ĠRober ts
Ġours elves
vel oc
âĢĻ .
Ġtim ing
to ols
ĠCap itol
ro at
ne ut
ĠCra ig
St op
at io
Ġrespond ed
arri ors
iv o
ĠL oc
Ġminor ity
7 50
Ġisot ropic
g as
Ġrep orter
um i
ĠC row
ĠG reater
eff ective
raz y
15 00
Ġaf ternoon
Ġsp ots
Ed it
P N
W ord
ĠC M
ĠSer bia
ĠStud ents
ic ator
Ġmunicipal ities
Ġcoinc ide
Ġw ings
Ġradi ative
ĠW or
Ġph rase
f eed
Ġregular ity
ĠY et
188 3
ĠRe yn
Ġar row
it zer
ik es
ĠHar rison
Ġprov iders
Ġsc roll
ĠG arc
Rec ip
à ¦
Ġc inema
rel ative
Ġgu ys
book s
ĠAut o
st ration
ĠD ra
() ));
A K
Ġh aven
Ġl ingu
ash a
Ġdr ink
bigg r
AM P
abil istic
Jo in
m art
lect ric
Ġb orders
}{ $\
Ġparticip ating
= >
Ġglob ally
ĠTig ers
Ġele ven
ĠP red
the mes
Ġpair ing
ĠBar celona
clip se
Ġpred ecess
ĠFor um
{ |\
Person nel
Ġbranch ing
re ck
ic ates
ops is
B ad
d ue
ĠH ann
RE G
ĠN iger
chi at
ĠT un
}$ :
proto buf
F our
Ġs ick
Ġsl ice
ĠB omb
ch ing
Ġaw ait
ĠM ans
3 000
ĠBor ough
Ġdwar f
Ġm apped
ĠCost a
k u
ĠC old
ĠÂ ©
Ġsimpl est
ath on
Ġobtain s
Ġbatt les
ĠS ide
Dem ographics
ĠP le
Ġcompl iance
ĠK r
inter val
ĠY es
pend icular
opt im
leg al
Ġinter cept
Ġeng agement
ĠMu hammad
Ġportray ed
ĠE sp
Ġf mt
ĠTh or
Pres ident
resize box
3 20
Ġspeak ers
M apping
map s
um ped
ĠArt ist
ĠO N
+ }
Ġelig ible
ĠG T
Ġcurrent s
Ġplan es
Ġcomb in
al am
ĠV el
ĠI E
cos h
Ġsche ma
Ġterrit ories
ĠMer c
Ġanom aly
ĠC PU
^* (\
nap shot
Ġ ip
ĠM ason
ĠC SS
Ġserious ly
Ġdecre ased
p ull
in formation
Ġinsp iration
Album s
] +
pro duction
Ġimpress ive
s olution
ĠB ris
aster y
Ġlogarith mic
e V
or bit
Ġmod ifications
colon eqq
Ġpar ity
ĠSh ar
ĠN an
ĠIs a
f und
Ġab road
Ġgra in
IT ION
T ok
l ater
Ġin coming
p any
ent i
Ġmanufact urer
ass y
Ġneg lect
ĠMag ic
Ġadmin ister
H a
ĠG rey
ĠSing le
ĠColomb ia
ĠĠĠĠĠĠĠĠĠĠĠĠĠĠĠĠĠĠĠĠĠĠĠĠĠĠĠĠĠĠĠĠ ĠĠĠĠĠĠĠĠĠĠĠ
ĠSpring s
ĠVin cent
Ġphot ometric
V C
Ġ\| _{
ĠRo om
n ecess
] \\
Ġadd itive
ĠPro file
Ġlog ical
rec ated
}} _\
Ġcl imb
M oths
cel and
ĠV as
Ġtick et
ĠB ristol
Ġpres um
Ġafter wards
ul sion
O C
ĠG as
ĠFran ces
Ġsuff er
Ġ )\
ira ble
ĠIO Exception
is i
ĠGh ana
ĠCirc uit
Ġth rown
fl ix
am o
ter ms
hand ed
á º
sect s
Ñģ ÑĤ
G T
ĠO il
Ġgener ations
Ġ å
ĠY ugoslav
Ġmoment a
Î µ
ĠSt even
ag i
ĠD iamond
ĠBeng al
UR I
Ġchampionship s
Ġdiff ers
Ġarchitect ural
Ġmed als
hem atic
Ġtro uble
h aw
En vironment
)} =\
ĠCamp aign
ĠM obile
F ace
Sec ret
S ervices
Ġint ense
C ritical
am pton
Event Listener
ack nowled
Ġm oral
c op
18 67
Ġvis ibility
P eter
ph al
ĠSaf ety
B a
g ap
ĠB our
Ġdon ated
ph oton
Ġimpro ves
at im
18 68
ĠLe ader
f ers
Ġen velope
Ġcomment ed
Ġthe at
s outh
Ġe at
te am
ĠArab ic
Ġmin isters
Ġmonth ly
Ġinc idents
Ġw ick
m usic
Ġsent enced
X Y
ĠMuslim s
Ġp ump
Ġa ck
Ġfore cast
Ġliber al
Ġflex ible
ak ov
n orth
Ġpro ud
Ġapproxim ations
ĠLabor atory
18 79
ĠC ole
pro gram
gl s
ĠE T
Ġasymptot ically
Ġchem istry
ĠRepresent ative
P lease
W il
Ġsubstantial ly
ol en
Ġhe x
M NRAS
Ġleg it
ĠW u
Ġdiv ide
çļ Ħ
Ġprofession als
Ġsh ore
ĠTechn ical
Ġcampaign s
Ġelev ation
m agn
arg ument
JE CT
Ġcross es
resol ve
Tra ce
ĠJer ry
os hi
5 000
Ġre un
To String
Ġexception al
Flor a
ĠRoman ian
grav ity
PRO C
ĠB ert
ij i
att ributes
Ġatt ending
Ġknow ing
Ġinter fer
em e
Ġe ighth
Ġl ibraries
Ġdist inction
il ia
F ar
ar ound
ist ance
se lection
Ġthough ts
o ons
is ch
Ġris ks
_{ |
om i
H ig
Act ivity
ĠU SS
M aster
Ġas ymmetry
Ġtrans actions
all oc
C apt
Ġb es
Ġpreserv es
ĠIndust rial
ĠN ear
Ġreason ing
ĠComm ons
Ġdes ert
C ross
Ġhistor ians
Ġexplos ion
Medal ists
ĠD id
Ġra ising
Ġsup press
Ġcyl inder
pe ction
Ġ_ ,
R oyal
make box
Ġdou bles
ĠB ass
ĠS ah
Ġvort ex
Ġact ed
Log ger
Ġsk ill
ĠAnt i
Ġg amma
66 66
b ane
Ġmulti plicity
e lem
Ġ ];
ĠInter est
}) :
Ġuncer tain
Ġdram atic
Ġref ere
prot ected
Ġsent ences
D iff
Ġf illing
ry ing
Method s
G F
h h
Ġconcent rated
Ġtown ship
Ġhospit als
re view
12 9
Des ign
Ġinterpol ation
ric ks
18 72
Ġconsider ations
ist ani
. (
Ġhighlight ed
Ðµ Ð½
ĠB rew
Ġconj unction
Ġsold ier
Ġent hus
Ġhist ogram
Ġcam eras
UT F
ĠBuff alo
l st
th in
E ar
f p
ri er
Ġco aching
Ġgen es
13 4
="../../ ../
Ġrefer ring
c v
Ġhel ic
Ġs ad
Ġcab inet
m ade
Ġreal ization
ĠAnn ual
ĠNeb raska
ĠCub a
ĠD esc
Bl ue
d iction
Ġweak er
}) ^{\
it ual
ix on
Ġcons ent
13 6
Ġscient ist
Ġhyp ers
Â ½
ab atic
Ġparliament ary
Ġequival ently
Ġap ps
est on
ĠGi ants
Ġ\ )
lim ited
r n
Ġqu bits
Ph one
ĠW es
ĠB ird
p ine
ĠHor se
) },\
uck er
Ï ģ
Ġscatter ed
ĠPro f
An n
S ER
Ġcaref ul
Ġke V
in z
Ġt one
Ġb ubble
Ġinn ings
J ava
ĠJ en
t p
ĠCo al
t c
Ġt ies
idel ity
Ġm anga
Ġno isy
ĠScient ific
Ġdec ides
ĠHig her
Ġant ib
Ġcut off
ident ifier
Ġattempt ing
ĠH ave
R M
ick en
Ġpreced ing
18 71
ĠF low
ĠD ictionary
ĠB right
phys ical
B inary
Ġg ross
Ġindic ator
S ocket
Ġposs ibilities
16 5
Ġinher ited
Ġinvestig ations
str ument
ĠL ost
harm onic
Ġindust ries
ĠN y
Ġop ponents
Ġc ounsel
erv ation
Ġas ync
ĠT otal
ĠC ox
Ġencounter ed
ĠSD SS
u u
ĠL an
ĠK il
Ġp arks
ĠK ath
id ency
Ġnucle us
it ian
ord inary
. ]
}} }}
ĠK un
iss ible
O B
ur ated
Ġfacilit ate
Ġexcit ing
Ġphil osopher
ĠCh and
Ġy es
en os
P UT
b os
Head ers
ri en
ĠSt ories
Ġsp ins
Ġsurv iv
ĠA SSERT
ĠS id
ĠNich olas
-- >
b ie
f ar
ph ot
D IS
k an
ĠBG COLOR
ir s
is an
' +
ĠV lad
ĠFe ature
Ġneutr inos
ĠB und
fl ux
Ġwire less
Ġrepeated ly
}) }{
M el
ĠPr ivacy
uc ks
} '$
under brace
ounc ill
Ġe V
T oday
Ġadvant ages
Ġsp iral
vert ical
ĠD raft
Ġim pose
}= -
ĠAm sterdam
l ibrary
Ġturbul ence
m g
Ġdef inite
qu arter
ep he
Ġmulti plic
Ġl ots
uck land
Ġcor ruption
em ies
Ġcomp ress
Ġj ournals
l ive
Tax a
. [
Ġstr at
Ġcharacter ize
Ġcous in
Ġex terior
\" {
ĠBe aut
te enth
osp here
Ġvari ational
rel ations
Ġatt r
Ġeng age
le tt
] _{\
Ġfr ust
Ġfe es
uss ia
Ġcon figure
l p
Ġdeep ly
B IT
I ll
s ame
ĠL ux
ĠMas ters
ĠMax well
S aint
)) =
b ast
ĠL en
Ġad mit
m iddle
ĠY uk
act eria
ta wa
ĠPer ry
Ġelim inate
. *
â ĪĴ
ur st
Ġam ateur
F ailed
Ġmeas urable
Ġprot ocols
Ġsp okes
/** */
ust ers
Ġcomm ands
ĠL ate
B ob
Ġcomm une
Ġgradu ating
( $\
us ers
Ab stract
ĠTe V
13 2
Ġstop ping
Ġconnect s
is ers
Ġend emic
Ġengine ers
Academ ic
$ }\
Ġcl othing
ever y
pro xy
Ġgrad ients
ĠA x
Ġyoung est
cur s
ĠM ann
}) ^{-
Ġoccas ions
ĠTr inity
18 74
Ġg athered
ĠTh anks
ĠCont ent
ĠL ions
ĠPro duction
Sever al
ric ulum
Ġf ighter
Ġs ax
Ġposs ession
ĠKen ya
ĠAd vanced
cle an
ĠF if
ĠGon z
Ġa xi
ber ger
Ġscreen ing
Ġc rop
K O
s z
ĠZ hang
Ġb oss
R ay
ĠM essage
Inter val
w hel
eb ox
ol ves
Ġse eds
VER SION
Ġgovern ed
d g
ĠCl are
com parison
Prot ocol
ĠN N
Ġpro jections
][ '
C AR
á ¹
over e
l c
Char les
ĠE M
arg uments
ĠMur phy
ĠC ob
ĠRepublic ans
as ia
Ġfor b
Ġcal endar
ĠG ay
ĠC hern
u cc
pot ent
Ġlast ed
e o
Hon ours
Ġpar agraph
Ġg rate
Ġtravel ing
K ar
ĠH udson
che m
ĠCh i
Ġbon us
st orage
f olk
ot er
der iv
ĠS or
ĠL iga
M ont
Ġdep ression
ich let
Ġbal anced
2 25
Ġp ub
Ġcolle agues
ĠL ipschitz
tain ers
mult ip
object s
ĠPl anning
Ġrobust ness
Ġrem arks
Ġmanufact urers
ed ed
ĠB esides
ĠCl ay
Ġ$\ |\
ĠS QL
Ġprom oting
ĠK ay
U B
Ġspecial ized
Ġa z
ĠG W
Char acter
Ġb ull
s ay
Ġpass word
in valid
Ġpl ugin
Ġexped ition
ĠC ert
Ġorig ins
Ġcheck ing
ur ious
M ot
atter ing
Ġinteg rating
Ġjoint ly
Ġtrac es
Ġme at
ĠAl ong
ĠGra ce
Ġsl ave
Ġtravel ed
ros so
Y es
Ġlong itudinal
Ġg ains
ĠArch ive
ov an
Ġapproxim ated
Ġl ap
S B
ĠO cc
Ġrig id
Ch inese
ĠF un
Ġillust rates
Ġp ip
L INE
ĠP oll
Ġpar a
orig in
Ġrecip ient
F s
ĠM ari
Ġt ags
. âĢĻ
Ġcorrect ed
ĠChrist ians
Ġc rack
}} )\
ĠB log
ancell or
+ {\
ser ial
rib le
; <
Ġph osph
D ou
Ġin herent
G AN
Ġl ights
M ask
Ġre write
Ġcom ics
c oc
Ġn ominations
Ġmethod ology
Ġconf usion
Book s
Ġgr ants
Ġdiv is
ta ken
ĠEth iop
ra h
1 19
ĠT ib
Ġpower ed
v anish
Ġr hythm
ĠBer keley
item pty
Ġaccom pany
f eld
Ġdist ant
ovak ia
ĠMont ana
F n
R ole
G Hz
ĠSh adow
B egin
om itempty
d ark
ĠMor oc
ĠDen ver
ĠM end
ace ae
v p
ĠS olar
ĠSer bian
Ġhon our
Ġcomplex es
ĠComp an
Ġpl acing
Cl oud
ĠAd v
ĠT on
Ġr ated
Ġb ridges
Q ual
Ġin ert
e eq
G overnment
Ġg raphics
Trans action
iffer ential
ex amples
}$ ~
| }{\
or ious
Ġres ort
Ġhead ers
- $\
ĠQu arter
18 73
Ġvic inity
Afric an
Ġrest ore
Ġmod elling
ĠSh ould
Ġtw isted
Ġpay ing
Ġb alls
pass word
D etails
el ing
Re view
Const ants
En ter
Ġsearch ing
ĠEd wards
Ġneur ons
C amp
W I
c n
ups ilon
vis ible
Ga ussian
Ġannounce ment
L M
pl ugins
Ġdeploy ment
)$ }
ĠMun ich
W atch
) )$,
erv ing
Ġhom ology
Ġd ogs
Ġorgan ised
Ġla ugh
pred ict
Ġcyl ind
}, $
ĠS ultan
Ġan ime
Def ine
Ġatmosp heric
Ġor chestra
ĠK ol
spect or
Ġpet ition
ĠCont emporary
ĠL ion
Ġen v
Ġpropos als
Ġcompos itions
Ġdetermin ant
ĠPhilipp ine
L imit
exp ression
Ġcomp ounds
ĠM ig
bre aking
A I
ĠAnt ar
g ie
Ġt el
Ġ[ -
Ġexperiment ally
13 3
Bas ic
foot er
Ġm eth
ĠNep al
Ġf irms
ĠM orning
Ġart illery
ĠLu is
ĠI da
Ġwel come
b g
Ġinnov ative
S G
C ard
Ġsh ots
Ġmem brane
period ic
th rows
Ġt orn
Ġack nowledge
Ġob sc
Ġexhib ited
18 66
ring ton
Ġâ Ĥ¬
he ne
ĠC ancer
00 2
ĠKe ith
Ġmeaning ful
ĠPlan ck
comm ut
a qu
cl one
Ġcon scious
Ġdec oder
Ġrat ings
Ġt iny
13 7
Ed ge
Ġwebs ites
W ho
}{ !
ĠSch w
Ġbirth day
ull ivan
Ġhigh lights
Ġdis aster
, '
Ġp our
n atural
ĠB aptist
Ġdu o
Ġstri king
em it
ĠM W
Rep ort
Ġarbit rarily
sh al
Ġsk etch
Ġphys ician
Ġqual ify
Ġal pha
Ġcont our
13 1
aud io
om pass
g om
C rit
S ocial
Ġover head
ĠTerrit ory
Ġout door
ĠM ort
ĠK ap
ĠLi u
diag onal
Ġsp anning
cos ity
Ġrout ine
spec ies
Ġdef ending
Ġb ug
Te am
ern els
C art
pro j
ĠArch ives
)} }\
EX PORT
us c
__ )
F rank
Ġenc ode
Ġepoch s
f air
ĠFri ends
por al
ĠL arry
), \\
Ġd ots
ĠS uz
Ġemphas is
Ġgu idelines
ĠUE FA
scal ebox
Ġe ccentric
Ġcomput ers
18 40
, }
Ġs ake
osp el
ela ide
ĠB eck
Ġtime out
Ġdig it
ĠTer ry
rac le
Ġbo ats
ĠB orel
ĠM atch
ĠB ath
Ġthe sis
Ġcoal ition
Ġinv ariants
Ġsk ew
18 43
C red
ĠJ oint
Ġcompris es
pl atform
10 24
ĠDemocr at
Ġop ponent
BU G
Ñ ĩ
Ġcomplet eness
Ġassert ion
ĠK rist
Profess ional
Ġrot ational
Ġcon g
m oz
A gent
w i
AR B
rg b
ethe less
Ġrem n
M N
method s
depend ency
O PT
Ġend point
L em
time out
ĠAd miral
ĠArt illery
ir ts
Ġmon op
Ġoccur rence
Ġdiscrim ination
ĠVal id
Ġpreserv ing
ID E
Ġper cussion
ĠEn cycl
ÑĢ Ð°
Ġcond em
' }(
j ud
Ġwrest ling
Ġsquad ron
ĠIn put
Ġsec ured
s ized
m aterial
)$ )
cell color
d rag
Ġarrang ements
-> ]
m ir
condition s
Ġtrans mitted
Ġflo od
I mp
im s
Ġtri angular
Ġco arse
P romise
ĠRog ers
Ġtax es
Ġlist ening
-------- ----
Ġin frared
ĠL LC
ry pto
Ġ\\ \
ĠCov id
Ġall ocated
def er
Ġstat ue
ĠB ot
Ġsp ont
Ġpriv ile
Ġsudden ly
Ġc asc
Ġhead ing
pol icy
r ust
B razil
Ġt ribe
equ ilibrium
R F
ĠB urg
ub a
ĠHe avy
ars on
ĠSe an
Ġlab our
r ity
ach i
Ġmotiv ation
f ony
$ ^{\
ro e
ĠF is
Ġplay offs
form ula
Ġlearn s
Ġtyped ef
^{ *}
non ym
Ġincorpor ate
Ġsummar ize
Ġrel ate
ĠH E
on ing
Ġfest ivals
Ġpay ments
Ġutil ized
Sp an
S un
le igh
Ġdis sol
ĠM ut
ĠAthe ns
akes pe
Ġprem iere
S QL
Ġconstant ly
G allery
order ed
N ET
ĠMe chan
om ed
ĠSh aw
ĠĠĠĠĠĠĠĠĠĠĠĠĠĠĠĠ ĠĠĠĠĠĠĠĠĠĠĠĠĠĠ
ĠB uch
plet ion
ĠU C
ai ro
Ġdisp ers
ĠT alk
t m
}} ^\
iz a
Ġspons ored
att ices
d al
b eq
Ins ert
F ac
}\, .
Ġconstruct ing
Ġco res
ĠD elta
{- }
iz ard
Ġput s
Ġfactor ization
Ġperm it
P DF
t ags
Ġperturb ative
ĠThe ore
ach ment
Ġcalcul ating
ĠCoul omb
Ġfeel ings
Ġleg islative
Ġp arser
Ġb ipart
Disc ography
if ill
V s
Y our
ĠV ar
L ee
Ġpart itions
Ġbehavi ors
Ġappro ached
ĠLu ke
Ġpat rol
J ose
Ġrev ised
ĠFig s
exp and
Ġsusp ension
Ġinteg rate
D uration
ord ination
m other
Ġins ights
ĠM uch
hy dro
Ġdro ps
Ġev ac
ĠArab ia
DE F
ĠT ool
Ġconnect ivity
Ġt uning
ĠIn stit
US A
ĠS ony
T er
amb ers
Ġc argo
t f
ic ode
Ġm ilk
sk a
EN SE
requ ired
Ġmy ster
Ġ( .
Ġcol ony
Ġacqu ire
D epend
act ing
Ġconsequ ently
p rom
ĠK id
Ð ·
Ġmon arch
Te chn
ĠBer g
Ġcap ac
Ġsk i
Ġdisput e
pend ing
D elegate
DB LP
ĠB A
ĠA round
Ġassoci ations
ĠSus an
cor relation
Ġevolution ary
i q
oc hem
Ġact ively
T ri
m ouse
ĠArchitect ure
Ġfast est
A thlet
Ġunder go
ĠWrit ing
C opyright
ĠC ad
Ġout line
Ġhon ors
F LA
ĠK ra
z es
Ġt ons
ur se
as is
LE CT
check ed
ĠSh op
@ \
Ġsubgroup s
ĠUn fortunately
* ,
z b
}}{ (
Ġr am
ec ker
ĠP ick
ĉĉĉĉ ĉĉĉĉĉ
Ġâ ĨĴ
om o
G ra
ĠCa uchy
iv ic
N orm
Ġn m
Ġachie ving
Rep ublic
v dash
ĠCan al
Ġ" ,
Ġm oth
Ġaccept ance
represent ation
ĠP av
Ġar rows
ĠC atherine
weight ed
In formation
m r
Ġvulner able
ĠRead ing
Ġfl ed
ĠNe il
Ð¾Ð ²
Com plete
construct or
ep ing
Ġsynd rome
Ġsimpl ify
ĠC urt
prot ocol
Ġc oding
system s
ĠG olf
ĠT as
ĠForm ula
ĠL loyd
ĠBy zant
Ġas set
ĠH unt
ĠPen insula
j Query
Ġl ic
Ġvol can
ĠH aving
ĠM oz
Ġmanufact ured
ĠG rade
Ġbur st
Ġenhance ment
Ġmart ial
part y
s per
ĠW AR
F B
Ġful fill
> ::
ĠMon th
veloc ity
Ġ' ';
t k
Di agn
Ġswit ched
end or
Ġde emed
Ġstructure d
Ġcol ored
18 69
uck et
ĠCom plex
ĠI o
U ri
Ġm ig
Ġir regular
D rag
Ġconserv ed
at che
o j
\, $
Ġw ake
Def unct
ĠHol land
I EEE
Ġgl uon
opt s
ĠSym phony
tr ation
] }$
Ġfilter ing
Ġcan vas
Ġto ugh
ad r
akespe are
Ġg ear
ĠAng l
Ġqu oted
13 8
ram ed
ĠU I
. ).
ugg ing
Ġtrad ed
Ġmer chant
Sm ith
ew ay
rig ger
c orn
e lected
Ġh orn
b atch
Ġsh ield
head ers
atern al
ĠS ak
H ung
S wed
ĠS creen
ĠR ou
ce q
f ollowing
Ġplan ar
14 7
Ġins pect
14 3
ĠAssum ption
st ats
il o
Ġtack le
e igen
ac les
Ġco herence
Ġevalu ating
____ ____
A meric
ĠMad ison
Ġaffili ated
ĠPol itics
ĠĠĠĠĠĠĠ Ċ
Ġs a
ĠH amb
Ġincre ment
Ġper pendicular
Ġcert ificate
ith metic
N I
ical s
ro us
Ġspec ification
ĠB egin
Ġmod ulation
ĠCo hen
Ġdo ctors
Ġquant ization
ĠEag les
Ġl ux
load ing
Ġhop es
Ġtransform s
ĠA viation
sche me
ĠJeff erson
k top
ĠL is
Ġbond s
ĠCru z
Ġb anned
ĠSt atus
Ġs ugar
Ġh az
Ġdevelop er
Ġthermod ynamic
Con tact
Ġlie utenant
geq slant
Ġess ay
H or
Ġb orrow
Recip ients
Ġall oc
oth ic
Ġcol ours
ĠSm art
am ic
os itory
S ync
ĠQ ual
L ondon
h d
ig ion
f ollow
Ġimm igrants
A bs
Ġc ave
Jew ish
ann i
Ġcelebr ate
Ġill um
ĠAr c
Ġperson ally
Ġpol es
arri ers
Ġdepend encies
). $
=" "
Ġcry pt
Ġport rait
L ove
tab s
raise box
ĠWe yl
Is ra
Ġun cle
^* ,
Ġthere in
ĠI gn
th lete
\\ [
Ġburn ing
Ġenc ompass
ĠBulg aria
ĠC ell
cos ystem
S ir
ĠR T
Ġun clear
Conn ect
Ġb undles
ĠP ont
re ason
ĠH ob
Ġst roke
Ġbos ons
ĠPubl isher
ĠM B
l ceil
Ġbroadcast ing
le v
Ġim per
G rand
Ġwal ks
ĠB ody
Ġver ification
å ı
integ ral
ĠV ermont
ĠEx per
ĠCh a
ĠA uckland
Ex pr
ĠMunic ipal
Com pan
ĠChristian ity
An imation
Ġcert ified
at ra
Ġbu f
Ġj ury
az ar
ld s
Sh ape
Ï ĥ
class ical
Ġtrad itions
Ġredshift s
i ya
h all
Ġsub mit
resol ved
( (\
ĠDat abase
ĠAg reement
res ources
ol ition
E conom
if iable
Ġdel ays
W W
ess ed
Ġqu art
ĠTre as
ĠS outheast
Ġform ulated
Ġdepend ency
ĠC incinnati
Ġen um
Ġeconom ics
ĠE C
Ġobject ives
ĠB aby
h uman
Ġs hed
ie ve
Ġtrib es
Ġdismiss ed
w hat
Ġmagn itudes
p iece
L anguage
r ceil
B ul
p ic
ĠMah ar
P ay
ĠAl ger
Ġutil ize
fix r
ic ul
Ġcompar isons
Ġbelief s
us ive
U r
I gn
F re
sat z
min a
p u
k ernel
en o
ĠK ate
Ġinteg rable
int ell
ad apt
Ġp ul
Ġb eta
ĠVo iv
Ġany where
au kee
bra ham
Ġqual itative
Ġmem or
ĠMark eting
O UT
ĠN HL
ip per
Ġsqu ared
A rea
S at
c u
ĠH ost
Ġch ron
Ġdisestabl ished
Ġa qu
Ġapprop ri
Ġ} (
Ġ% }
Ġshall ow
HT TP
in j
ĠM aced
Ġm os
Ġdr inking
Ġbe ating
Ġconvolution al
ag ent
ĠB ear
ĠGl en
Ġten ure
erv es
S ame
Ġle pt
Ġbut ter
Ġdiff e
ĠI celand
ĠR aw
f ac
v et
ĠStan ford
T our
ĠG C
-- \
sc ore
run time
ie v
ĠB Y
Con clusions
ĠR idge
Ad apter
M ake
Ġvolunte ers
ĠHT TP
ĠD raw
Ġa ster
ĠFil ip
Ġt idal
ĠA ber
m un
ĠDO M
Ġpe oples
Ġext rapol
Ġcam ps
ĠN A
d ynamics
Ġmuseum s
ie u
Ġrenormal ization
arm ac
Ġg ent
ĠR ivers
Ġrecommend ations
Ġexplo it
Ġinter active
ĠHer z
Ġb oot
cor r
18 59
ĠTreat y
ĠH AL
ĠTh ings
Ġsustain able
Ġsign atures
inter pret
up d
}) +
Ġjav ax
z ed
Scott ish
pos able
ĠN ak
ant astic
Ġ Ø
Ġt elescope
orient ed
ig ator
du cer
Ġinfer red
sh ared
L ow
ab ol
ĠDel aware
P ress
l ies
Ġv ital
om es
M ale
AS H
hel m
[ ]{
Ġver b
ous ing
ia z
in ks
v or
Ġlocomot ives
Ġneg lected
US Y
Reg ion
ĠS ob
ĠWat son
Christ ian
P ut
Ġu i
ex ternal
Bet ween
intell ij
Ġarr ives
Ġsubsidi ary
}$ &
K im
ind a
ĠGuard ian
ĠWhe ther
ĠPun j
ĠRefer ence
Ġk ernels
( /
ĠM idd
Ġthreat s
Ġfore ach
on ies
Ġprogress ive
.\ ]
Ġhe m
ĠCon c
Ġmole cule
Ġcop per
e ur
Ġdiv isor
ĠM ock
W ait
ĠHel en
quir y
ĠR andom
@{ }}
Ġap pendix
Ġco ins
g art
Ġwat ched
ty pen
L arge
Ġassist ed
ĠR M
Ġsuperv ised
part s
Ġsupp ression
Ġcent res
ĠR ol
il ateral
Ġfail ing
DO M
flu id
c aster
ĠJ ar
Ġh ate
ĠAl t
ĠInst agram
Ġstreng then
en ers
)- (
reed y
B rowser
ĠP in
Ġval ued
Ġsett lements
Cent ral
M ix
h is
plic ial
Ġde ck
SS L
Ġexam ination
f actory
Ġhe ll
Ġpoor ly
Ġaccount ing
ĠReyn olds
ĠAp plication
odes hip
ĠCh an
ĠH ugh
). \
Ġmain stream
Ġindu ce
Ġp ric
ĠH IV
ĠD ennis
18 48
est ing
)$ ;
ard i
ĠBre ak
ib n
Ġscholar ship
Ġemphas ize
Ġb racket
ark ed
Ġgrand father
. ][]{
Text ure
B ottom
w d
14 6
assum ption
an che
Ġz eros
rack ets
Ġcompet itors
ĠAzerbaij an
ur c
m ot
Ġorig inated
ĠCle arly
ĠJust in
Ġtr ig
ha o
ĠD od
Ġoverse as
Ġbas ically
Ġabsor bed
ĠSt ef
L I
ĠS ierra
ĠG ang
Ġmurder ed
Gener ator
ee per
ĠR oche
sp ired
ĠD B
ĠN P
Ġdem olished
Ġpubl ish
; /
ĠCroat ia
Ġd upl
qu ark
L ear
b rand
TR UE
scal ar
Ġp ending
à¤ ¾
ĠI F
sup set
Ã± a
ĠT ang
ĠS ask
Ġarr iving
ta king
ĠCl iff
Ġsear ches
he ro
Ġanomal ous
ĠMethod s
ĠTh under
arc sec
typen ame
c x
am y
re ach
Ġimpact s
ĠR ey
Ġpre val
Ġbus y
ĠCom merce
az i
Ġabund ances
Ġinher it
Con ver
ond e
ĠC ele
ĠF ast
Ġaccommod ate
16 8
Ġrg ba
rele ased
ĠR ule
Ġa fore
J im
W he
Ġj u
Ġvirt ually
Ġf iring
e cho
ĠLeg al
Sche dule
., ][]{
w rapper
ĠS ect
b ank
rag ue
Ġliter ally
Ġpl enty
Ġc ow
Ġen emies
rick eter
AL SE
r ators
Reg ular
ĠA u
L uc
check box
So ft
_{\ {
intend o
Ġh ub
ID S
Ġmorph isms
ĠC lear
Ġray s
ĠS alt
ingu ished
Ġun changed
Ġfunction ality
######## ########
az on
b rowser
Ġa uth
ach t
G reat
ĠRem ove
g auge
ĠAst ron
Me V
Ġport folio
Ġtrap ped
ĠVenezuel a
ole cular
Ġvent ure
pro gress
w aukee
is se
Ġdef ect
Ġback ward
hent ication
ĠPl us
De ep
3 30
ess el
Ġcompens ation
ac ian
ĠRes ponse
Ġtempor arily
R andom
ĠHeb rew
algorithm ic
Ġpop ulated
ap est
S creen
Ġ ic
Ġas ide
dr iver
Ġover whel
at ile
T x
Requ ire
Ġm amm
ĠE lection
ĠV irtual
over rightarrow
Ġro ster
ĠV ent
Ġ" -
Ġin jective
ĠDo es
ĠAp ache
ill iant
Ġprefer ence
Ġcorn ers
Ġtra ct
ri ber
ĠVoiv odeship
Ġif f
P resent
ot hes
ĠPh ase
ar ance
18 57
Ġed it
ĠFil ms
Ġinf antry
av ier
append ix
ĠL arge
ĠCl aim
L ead
Ġin ject
"> &
Ġrad ar
Ġb if
ĠBroad casting
hook rightarrow
Ġinvert ible
Ġm asks
al gebras
ext ra
h art
el ly
sh all
ĠAb u
Ġl iv
ĠM R
Ġau ction
Ġpat ent
Ġlaws uit
augh ter
Ġw elfare
ĠBas ic
Att r
AT ED
Ġimag ine
ĠLe o
Ġ{ '
leg iate
ĠG host
Ġdel iber
. ",
\% ,
ĠBut ler
f ive
Ġed itions
ĠBl u
get Name
ĠSing les
do es
vers al
d m
ĠW onder
Ġcl one
Ġmot ions
amp ed
ĠConserv ation
ĠFlore nce
ĠP romise
ah an
ordin ates
Ġnegoti ations
ĠSer ver
S ample
th al
Ġxml ns
Ġf is
ĠHer bert
Ġdepart ments
ĠS ets
T ake
ill ance
ĠAd elaide
Ġcont ested
ĠAng lo
L ittle
ue z
Ġplace ment
Mus ical
Ġcivil ian
Ġconc aten
IP T
i ref
ĠD h
ĠZ end
ub ert
Ġreg imes
Dist rict
Ġcollect ing
l it
no align
Ġbroad er
ĠT rain
Ġlog o
Ġto urs
ĠD ol
Ġto m
Ġsh ops
ish a
Ġarray s
fil ename
Ġsu ite
ov sky
ĠObserv atory
Ġexp ans
Ġaut omorphism
Ġform ations
Ch ina
) _\
d dot
ut f
Ġhapp ening
Ġeg gs
pi res
Ġal phabet
ĠRe ed
ĠArgent ine
Ġtem p
Austral ia
W alk
Ġflo ating
ĠProdu ctions
the ore
ĠB ag
Ġdem ocracy
Ġg aps
ĠAN Y
Ġdifferent ly
Ġt ribute
13 9
sur ance
$ ~\
F rance
ĠS ED
Pro gress
contin uous
d k
t l
Ġtri angles
F ocus
ĠM IT
Ġ' \
Al gorithm
28 0
mer ge
ĠAn aly
Ġf ed
Ġn ut
Ġj ack
Ġarch ive
ĠM ul
Ph oto
â Ĥ¬
Ġkeyboard s
ĠF act
ĠSocial ist
ĠPers ian
comp ress
Ġs or
ĠF O
18 30
h p
Ġto u
Ġjuris diction
Ġr iding
ĠForm er
Ġoscill ation
Ġper ceived
er en
ĠT ed
ĠDe ut
ĠH em
ĠAd S
m k
Ġaccept able
Ġpl ates
exec ute
Ġcons olid
Pro b
ĠL E
Ġexpl oring
Ġview ing
ogene ity
Ġpair wise
Ġafore mentioned
Ġveter an
\ @
elect ron
Ġdiagn osis
Ġmem ories
ĠA ctor
Ġhun ting
ĠEd ge
fore ach
Ä Ł
Ġax es
B ay
ĠRequ est
Sim ilar
re lease
Ġc oc
OR Y
Ġpron ounced
ĠSt op
ER N
Res ources
Ġor al
Ġinaug ural
ĠLeban on
o fficial
Am ong
ĠPeters burg
ĠE V
Ġtick ets
ĠD rama
Ġbackground s
ĠA aron
Ġsize of
Ġl ip
R ock
ĠWork ers
14 8
ĠR ams
Ġselect ing
Ġillust ration
mem ory
ĠAir lines
RA Y
Ġkit chen
eg al
Ġr itual
Ġphot ometry
ĠLe eds
ĠCh ang
ĠL aura
rosc opic
Ġtourn aments
L ibrary
Ġall iance
Ġrecall ed
15 2
ĠNor folk
Ġpers u
Ġuniqu eness
D rop
ĠWork ing
Ġsub sc
Ġcont ributes
Ġab ilities
ĠÐ ¿
I J
Ġb ay
Ġfl ip
Ġt orsion
p od
H o
ĠJ ob
Ġconcert s
Ġass ists
Ġturbul ent
M ove
S to
s r
ĠSt uart
ĠCam eron
Ġ( ).
Ġp ill
ĠThe od
Ġ{ },
ĠAgric ulture
Ġmark er
Cor ollary
del ay
Ġmes on
Ġpod cast
ĠR ah
M ur
Ġz ones
Stand ard
) )}
ĠB ald
ac co
Ġ[ "
ĠBudd hist
Ġcont rolling
Ġdeb ug
Ġinf initely
Ġimm igration
ĠBob by
ĠGerm ans
B ind
ĠK i
j unit
reg ation
r ift
Ġdimension less
Ġinsert ed
W el
Ġpal ace
Ġcan n
Ġfor wards
Ġconclud es
t bl
aver age
By Id
Ġro cks
gener ation
C NN
}{ -
im mer
Ġconf used
S n
U ES
Ġ! !
Ġdescript ions
script ions
Ġcompris ing
ut ton
ĠE state
Ġrend ered
per formance
flu ence
n as
ĠI de
ur istic
M ouse
Ã ī
Ġch ronic
ĠF ish
B G
) ->
Ġhand ed
abet es
b inding
Ġe arning
14 2
F rag
Ġsoph istic
Ġdist ribut
R G
Ġc f
Pro to
)\ |_{
Ġte a
Ġcov ariant
W ang
ĠOt tawa
Ġship ping
ĠM Ã©
Ġle tting
h agen
ĠF riend
ac er
agon ist
Ġspectrosc opic
Ġdissip ation
ĠR osen
Ġmod ulo
st ock
al ong
h m
app ings
Ġdecor ated
20 2
Ġb is
Ġpar abolic
Ġo mitted
D s
c ott
rt l
Ġproxim ity
con tact
Ġl ung
ĠSim ple
build er
Ġt uple
Ġh ull
b inary
Ġart work
sub ject
Ġm im
ĠP T
itt en
With out
VAL UE
}\ )
Pl ayer
Ġsequ ential
Ġcy ber
| ,
P air
Ġdef ects
M arg
Ġsuccess ive
vi o
Ġpat ron
arr ison
F ort
f lex
ray s
ul ators
Ġmetall ic
N ever
Ġsculpt ure
Ġins pection
pl ain
ĠLand roid
ĠT yp
Ġdocument ed
ĠPar alymp
gom ery
ĠN athan
ĠSh akespeare
Ġmass less
D b
st ead
Ġcon ductor
Ġbel t
Ġ" $
| }\
Ġarchitect ures
Ġestim ating
Ġ" [
ĠV eter
pr im
Ġa er
Ġf ert
el o
spi racy
}} ;
Ġpre st
ĠBris bane
re ma
Film ography
Ġt ape
000 1
ĠShang hai
Vari able
Ġmin es
Ġadm issible
s lds
rest rict
ĠV oice
Ġsim ulate
Ġcont raction
ĠVis ual
ĠHen ri
Ġpo ison
per m
Football ers
Ġdr ives
p arser
z ig
St ats
et ics
ent ropy
Ġbound ing
ĠHar vey
ĠSl oven
ĠWeek ly
Ġfoot age
( @
ĠG amb
equival ent
run ning
ert on
M IN
test s
ĠSo on
Ġgold en
ĠN ott
side bar
Ġfit ness
;\;\ ;\;\
ĠC over
Ġtradition ally
Ġfre ely
ĠEv ents
horiz ontal
N Y
Ġm s
ĠL ot
Ġgraph ic
Ġport s
ĠInd ependence
)) ^
key word
ĠRes p
Ġco in
Ġcur sor
Ham ilton
Ġadjust ed
}: \
Ġhard er
AD D
Own Property
; }
Ġexc av
M ount
ĠH at
Ġde form
Ġplay off
M Hz
ĠH av
ĠR AF
Reg istry
Ġn inth
Ġp ace
b ird
P ATH
Ġw ard
om p
ĠW IT
st own
Ġens uring
14 1
Ġsax oph
Ġproceed s
th ird
Ġmy stery
Ġminim izing
ans k
ĠX X
}} -\
coll apse
ĠArt ists
ps frag
=" /
~~ ~
Ġd ivers
Ġcounterpart s
}= -\
ut a
ĠU pd
ĠBlo om
ĠTransport ation
Ġdesc riptor
Ġrun ners
Ġatt ractions
ĠG ilbert
al go
Ġcon greg
J ul
It s
Ġinf ected
ĠEp isode
ell ers
F uture
Ġ" '
Ġh itting
ĠW ells
Ġmin istry
ĠA w
ass o
Ġte ch
Ġhierarch ical
ellig ent
ĠDe velop
z ip
20 8
ĠNet flix
Ġp ale
Ġwonder ful
m any
it ious
Ġto mb
V S
Int eg
clud ing
Ġb ol
Ġf aint
Ġ urg
ail ing
Ġt anks
label s
ow der
d ra
ĠSy l
Ġfra ctions
ĠE ld
Ġm ath
Ġthr iller
H ard
y u
Ġland ed
Ġfavour ite
Ġm arch
ĠM oney
Ġrecogn ised
Ġem otion
the ir
ed ges
." );
chedul er
Ġj s
ore n
ik ing
ĠE SP
ĠF iction
Ġlight ing
b ol
w oman
Ġspeed s
Ġtrigger ed
We ight
Ġred und
Ġtransl ations
18 58
R ivers
Ġprov inces
Ġem itted
Ġer ected
M ex
Ġout lined
Ġb read
ĠDi ocese
former ly
eg an
ĠK ash
Ġatt itude
M id
Ġp uzz
Ġde fer
AN CE
Ġprint ing
15 6
ĠW ag
Ġhar vest
im plies
ĠSy rian
Ġdefend ers
U ST
Ġt ru
associ ated
umb ai
Ġconduct ivity
K M
en burg
ene ath
act ers
Ġle agues
Disc ussion
" },
Ġt ribut
Ġal ien
R ot
Ġcommand ed
Ġesc aped
Line ar
Ġvis cosity
14 9
FF ER
ĠEx amples
ran o
B road
ĠB ak
ĠUg anda
ĠR ena
z hou
ar u
dot ted
Ġab bre
Ġs isters
ok u
== =
Equ ation
Q A
Ġnot ations
ĠB eth
pm od
ist ing
Ġbi ography
p al
vi ol
aus es
Ġcontinu ation
Ġsc iences
Ġem igrants
Ġ_ .
Ch arts
Ġcomplement ary
Ġlik es
dis k
valid ation
ass er
A BC
M ah
ress es
am ation
Date Time
Ġprocess or
ĠL ex
ĠN othing
Ġrot ate
exist ence
}$ \\
Ġconduct ing
Ġpredomin antly
Addition al
Ġle ak
Ġpat ches
ĠM ario
Ġprodu ctions
ĠL oss
ĠTe acher
ev olution
Ġbl ank
Ġdeleg ate
Ġsure ly
ĠH ttp
ĠG ust
ester day
Ġintern ationally
Ġun ve
Ġcl ause
ĠRiemann ian
H ot
ill es
ĠJ in
ĠB ach
Ð ¹
ro ute
Al tern
ĠY ale
ĠCong o
ĠCol lect
Ġco at
bur st
Ð ¿
Ġh ack
Ġr ice
ry s
ose x
AR D
, $$
ĠD rum
Ġwavelength s
te ch
Ġmob ility
20 5
d uration
t v
ma jor
Ġchap el
bas is
Ġconf ined
P rom
Ġbu ying
x s
ĠT aking
0000 00
ĠH im
ĠTh ai
ĠG y
Ġt une
int eger
Ch apter
Ġcitiz en
ĠB P
RE Q
ĠS Ã£o
sh ore
Con structor
w ent
ĠLin ux
Ġbe er
ĠR alph
ĠNew castle
Ġprob abilistic
Con stant
trans fer
ynam ical
Ġiter ative
ĠK ill
ĠPlay ers
am ine
Ġlab elled
Ġpro l
Ġrel ocated
Ã¡ s
ator ies
ĠVen ice
it us
s elling
Ġe ating
Ex amples
ĠF BI
Ġ ul
hav ior
Ġbl ues
Ġas p
Ġdistinct ive
b at
ĠC MB
Ġhost ing
AT O
in aries
Ġtrans ient
ĠCo ach
Ġimplement ing
Ġbe et
ĠPerson al
ĠO scar
uss els
Ġle x
Ġen abling
el ia
ĠC ome
ific ant
ĠC ut
)} ]
ĠFran co
it ars
Play ers
Ġtour ism
Ax is
ĠPhill ips
st roke
ĠStat istics
ĠM ade
Ġ ðŁ
Ġdelet ed
ĠWall ace
Ġprepar ing
Ġup grade
'' $
Ġaut onomous
J ud
}), \
ĠAb bey
Ġth ir
Ġt ram
Ġm oon
bl og
Ġconstitution al
ust ain
Ġdown stream
Ġmac ro
Ġt aste
D u
S elf
ĠT odd
Ġevol ve
Ġser vers
ĠMan uel
26 0
}^{ *
Ġcapt ures
Ġin version
ĠSt rong
Th ird
}: =\
ad joint
Ġan onymous
Ġmake up
K A
Ġactiv ated
æ ľ
ĠWell ington
ĠHis panic
Ġsem if
R o
enc ia
Ġse vent
ĠArmen ian
col lect
Ġbe ams
ĠIn ternal
Ġent repreneur
ĠArn old
Ġbus es
Ġs aint
Ġp unct
Ġn p
Ġim perial
T X
B ill
Ġinter change
Ġingred ients
16 7
u ine
Ġsp ell
Ã¶ n
" ],
, ...
re port
Ġatt raction
Ġres cal
Ġpen et
18 55
Ġsy mp
Sm all
c ity
A X
Ġexcit ations
ĠEn c
INS ERT
V ec
ic ia
l ov
ent in
ff ield
ĠDiv is
ĠM az
end um
Ġcont roll
Ġmaintain s
Ġto ll
Ġexec ut
Ġin complete
ma k
Ġgeneral ize
ĠHar old
**** **
Ġconflict s
bran es
18 54
ac ular
Ġisol ation
ĠCon vert
ats u
Ġd ose
ĠS ales
for Each
j query
ĠG M
ĠÃ ģ
ĠM ills
Ind ia
ĠImp act
Ġv e
Ġh ang
ĠY ellow
Ġon set
Ġj ail
ĠPy thon
Ġt ale
ab we
ĠR av
the o
Ġstat istic
Ġport ions
h im
Ġs aving
ĠFig ures
Ġelev ated
Pol y
h ift
con cat
ou p
ul in
unc an
Ġless ons
small er
L ag
ĠIm port
ĠĠĠĠĠĠĠĠĠĠĠĠĠĠĠĠĠĠĠĠĠĠĠĠĠĠĠĠĠĠĠĠ Ġ
ian ces
| $.
ce ut
Ġac res
Ġas ymmetric
face book
ĠC itiz
Ġle pton
. \,
ĠPhil osophy
g us
h orn
Ġ" <
18 56
em bed
Ġnorm s
Ġte eth
Ġvo ices
M ary
ve ction
cho ice
ole v
Ġl ag
ĠF oster
ĠN L
15 4
IC ENSE
ĠNe umann
asc ular
Fl ag
Ġdisc ount
Ã© l
Ġover flow
Ġcult ures
Ġsub scription
{ }\
Ġun ions
ĠT X
Ġceleb ration
h istory
Ġ\ %
Ġdec oding
Ġopin ions
r ised
Ġre built
as sembly
be it
alth ough
sc ience
re act
ot ypes
ĠGL int
con e
ĠCirc le
b is
T i
ĠAm y
Ġpoly mer
ĠLeon ard
OR M
h istor
Ġanten na
Ġind oor
d ie
N U
ĠS ox
Ġion ization
ĠL isa
ish i
ĠSud an
vent ions
ent o
arma ceut
rosso ver
con sole
Ġaccompl ished
und a
T w
Ġell ip
bo ys
Ġanal ogue
hel per
osoph ical
}) }{\
Ġoscill ator
symmet ry
16 4
Ġalleg ations
ĠE D
qu is
ĠAddition al
he art
Ġs le
^* _{
I AL
f itting
16 6
repe at
Ä Ļ
Ġoptim ize
Ġpolar ized
C AL
cl ock
Con vert
Ġstreng ths
Ġbelong ed
ĠL amb
Ġar ithmetic
inn ers
ĠLuc as
t rain
Ġan xi
ĠG ene
Ġpredict s
Ġsust ained
Ġartifact s
at ri
st eps
ĠEx cell
Ġc ad
Ġboard s
ĠD ise
Ġspatial ly
p rior
Through out
ĠComp etition
ra pe
p es
i ast
Ġ$ ^
ĠF at
ĠY a
imb abwe
} --\
ĠH R
row ing
Ġinc umbent
Ġant is
he ld
est rian
ĠN ormal
sing ular
Dr iver
ĠB ears
Ġjo ins
Un known
Ġfib ers
Ġrec ruit
Ġcommun icate
End point
R en
ps y
spect rum
15 1
Ġcatal ogue
Ġpack ages
ĠE sc
Ġgard ens
ĠF ighter
ĠD escription
Ġg ymn
Ġslow er
nu cle
Ġre nov
Ġprom ised
Ġad i
ĠPr ison
Ġprov isions
Ġair line
ĠG Hz
to o
Ġlik ed
22 4
ther mal
Ġaccess ed
Ġsus pected
ĠE ve
a que
Ġs ql
Ġcur rency
Ġch unk
un i
ĠBe ing
Ġsl opes
ĠV eh
n ob
em in
ou x
Ġelli pt
Ã¼ n
Ġ} _{
Ġsem igroup
O F
Ġc attle
other wise
ĠB ound
PO ST
B V
p ublished
^+ (
S a
ĠR us
}$ };
_ );
ĠD A
Ġdrum mer
oc ent
ĠAb stract
B eh
s afe
triang leq
Ġrow span
Ġaffect ing
ĠG or
anc ies
Ġn ested
Ġper ception
Ġmar ry
Ġfollow ers
= &
Ġthere after
Ġrecommend ation
Ġsong writer
med ium
is che
k al
Ġconcent rations
un ks
sup ers
Ġt x
rot ate
Ġexpert ise
ubern etes
Ġj ew
Ġmat hematic
.\ ,\
Ġtr ump
Ġrep ly
Un iform
ĠGro ve
sw ick
Ġfun eral
15 7
ĠIm ages
ĠS ic
im ated
ĠR elease
Ġform ats
p aramet
th us
ĠRef s
Ident ity
G rad
ok o
ig ue
Ġpropag ator
math ord
ĠS old
ĠBan ach
ĠIn surance
Ġfilter ed
D a
cur rency
t racks
Ġkn ot
sq cup
ĠId ent
Ġcum ulative
ĠW orth
ĠK umar
18 52
Ġpi pe
ab is
){ $
ĠH az
15 8
p k
Exec ution
pl ots
Ġpsych ological
ĠT arget
ĠL ac
land o
> '
ess a
ĠK as
Ġst ret
ĠDir ichlet
Ġw ond
ĠF ed
Ġdi et
Ġd Ã©
UN D
Ġfif teen
Ġalter ed
Ġsl aves
Ã Ĺ
Ġax ial
Ġadv is
aur us
arch ive
Ġanisot ropy
p el
Ġstand ings
m itt
ĠSc ar
Ġed itors
im edia
ĠNash ville
er k
ĠM s
sh ops
Ġconst rain
anc ers
Ġiter ator
ĠO P
' }{
Ġb atter
Ġcontact s
necess ary
c in
ĠD eg
ĠF ROM
Ġdro ve
ĠPed ro
Ġ" ",
ĠAn cient
Ġearthqu ake
g ement
Ġinvestig ating
E mail
Ø ±
ent a
00 3
comput e
Ġwealth y
clud ed
cess ion
ĠHit ler
ĠC inema
Ġattend ance
Ġtheore ms
ĠC e
small matrix
ĠK err
S ound
m orph
! }
Ġbary on
' _{\
g lyph
B on
Ġsaf ely
ĠRay mond
ĠR uth
Ġbar rel
Ġd inner
ĠA j
C ulture
n od
MO DE
Ġburn ed
AT TR
fl ush
Ġf ighters
ĠEdd ie
ĠB rid
L Y
Ġk pc
ĠB io
im an
Ġe cosystem
iz on
ĠS oci
ĠBat man
D utch
I rish
Fail ure
Ġsp ir
ĠCons ult
ident ity
ĠN ancy
Ġult imate
M il
Ġcombin atorial
as ta
s ided
Ġadopt ion
ĠK in
oe ing
fer m
min ster
Mart in
Ġc ock
pr us
ĠCon tact
ĠA V
ĠAgain st
ĠL oad
Ġpract ition
Fe atures
H u
che l
Ag ain
Ġconstit ute
im o
per ture
Ġam id
Ġc emetery
Ġval ign
ĠE mm
ĠL ov
Ġj oy
Ġreg ret
Â ·
. <
Death s
abul ary
ĠÅ ł
c ia
^* $.
d ialog
Ġ{ "
ĠPos ition
K it
k el
Up per
ĠDer by
LE D
Null able
ant om
d an
ah l
dest roy
an imation
ĠF oot
ĠStr ateg
Ġmin eral
ern ess
Ġst eal
ĠHug hes
oc ene
Lo op
Ġfarm ing
Ġmagnet ization
R ank
e i
Ġl iver
ag ination
Ġide als
Ġtravel s
Ġdraft ed
Ġce ased
Ġp ic
ac ional
cl s
block List
ĠReview s
ur ities
ĠP ul
Ġreli ability
Ġsh aped
ĠCom edy
Col lege
prov ider
ĠGreg ory
Ġg aming
Ġinitial ization
add y
utr ition
Ġident ifier
R ate
Ġtreat y
Ġdiscrep ancy
v ary
ĠMal ay
Ġch ip
Ġprior i
Ġthr one
atche wan
D id
G er
Orig inal
ĠD ifferent
Ġr ally
sen al
ar ms
Ġm ad
ĠS Y
R aw
Ġvol leyball
DE FAULT
Ġfaith ful
Ġm il
Man agement
ĠP eng
Ph ot
L U
Ph ase
ĠChap el
W ater
yl an
ĠM ull
ĠKer ala
L java
ak ar
ĠH ab
ah a
Ġaddition ally
ĠO K
Ġg est
Ġphys ic
Ġquarter back
T ABLE
22 2
S equence
Ġad equate
ab stract
Ġmod ulus
j ango
Ġreson ant
Ġsurpr ised
E nergy
R P
Ġche st
}\ |\
sh i
Ġh urt
n ell
Ġoutper forms
Ġc ust
Valid ation
ĠM ik
ĠGr ass
compat ible
b ay
in ters
al most
itect ure
S ide
M u
ĠGl ass
100 00
Ġautom ated
bro ok
Ġwrap ped
Ġfrag ments
B uff
ĠClar ke
p it
c amp
ĠD y
ĠA udio
Ġretrie ve
Ġbank rupt
ph ones
ĠFellow ship
Ġa viation
B ern
ĠG az
Ch art
Ġc ricketer
At l
comm it
C hen
Ġf atal
ob tained
Ġshould er
pr ises
part ition
Ġexclud e
ĠSe bast
ĠArch bishop
pre p
he v
Ġchar ter
Ġcomfort able
Ġun e
ĠWild life
ĠBe h
99 99
Ġp c
ĠR ele
Ġdis band
Ġbin aries
) }}{
ĠEr nest
Ġhypers ur
ivid ually
Ġcont ours
Ġpresent ing
og o
Ġcon form
Ġplay wright
Ġexhib itions
ĠS ang
ĠH ubble
ĠCard inals
I Z
we ets
g rim
Ġanalyz ing
Ġexcept ions
dec ay
Ġcl an
T s
j j
serv ices
Ġdepict s
Ġcur ved
Ġnon negative
Ġall ies
ĠArm ed
Ap pro
ĠColumb us
Ġfall en
Ġp ec
17 6
W C
ĠH aus
var sigma
Ġsomew here
Ġsur f
ow ards
ap or
Ġpay load
ĠV ict
dimens ion
act ivity
an ch
Ġreg ulatory
yn man
in ced
f mt
Ġmer ch
list ing
Ġun w
å ®
urs or
ĠB av
ĠMem ory
S port
Ġinter faces
Ġfilm ing
ĠT all
ib ling
Ġsum mit
' ];
hab ilit
ĠC redit
ĠR L
Ġrele vance
Ġhypot heses
se mi
Ġper ipher
ĠRh odes
Ġun ified
ĠInt el
Ġflex ibility
Ġcell ular
Ġsh ar
Ġf ulf
Ġstrong est
Ġcontext s
ĠWars aw
ag onal
Ġint ra
ĠNot able
ic us
St age
Ap pendix
ĠBey ond
ĠC ork
inc ar
Can ada
bo at
ĠP rest
Ġmod est
* {\
ĠM ail
Ġcor ollary
class Name
Ġmin us
Ġp icks
ĠV ector
ĠPaul o
Str ategy
ĠFran Ã§
ĠDec ision
n or
m ology
ĠJ ung
load er
as ync
ĠC ondition
ĠLeaders hip
âĢ ĭ
Ġdamp ing
Ġpredecess or
ĠK ids
sp ot
ong o
18 5
l ived
, +
d ocker
$ ]
ĠS cal
Ġrob ots
Ġsens ing
ill on
Ġcomment ary
V O
Ġa est
An aly
Ġtrav elled
math ring
Ġbi ology
ph on
! [
$\ %
ĠRod rig
ĠA braham
ĠP icture
18 51
Ġsem antics
Ġle ver
Ġident ifies
T aking
B inding
ab ases
ĠA ires
Ġmaxim ize
ĠW ant
ma ch
Ġcou p
(' ./
ad vant
ON G
ke V
ari um
15 9
names e
b ys
Ġfix ing
Ġb ishops
ĠTas man
ĠAct ive
Ġre bell
Ġ( #
Ġdiscuss ing
Ge org
ĠUs ed
Ġv it
be am
ĠV e
ĠH alf
Ġalt itude
ĠConfeder ate
w arning
ĠAll ied
ĠFa ith
ĠK re
Ġspecial ist
l um
Ġdifferent iable
ad j
Ġwal let
Ġspectrosc opy
) ",
Ġcomb ines
Ġgrate ful
int rodu
vel t
Ġrel ates
Compan ies
op ol
s it
Ġto uring
olt ip
pect ives
pr inc
ĠBel arus
Ġwalk ed
........ ........
Ġr iders
ĠSt ri
E ll
Ġpredict ive
Ġwithd rew
ĠGener ation
Ġf ate
ĠKn ights
outhe astern
att s
Ġsepar able
im en
Ġcirc uits
Ġaud iences
ĠBenn ett
Named Cell
Ġrend ering
lig a
ĠM is
h in
Ġun em
ĠS ter
f urt
Ġrecurs ive
if i
Ġblock ed
Ġcompat ibility
) ]{
"/ ></
| <
Ġbas in
Ġagre ements
}\ |_{
Ġmus cle
at able
15 3
C lear
} ],
ĠSecond ary
Ġdomin ate
Ġdim in
im als
Ġman ages
ĠDev on
pos al
Ġsub urb
ĠSp encer
Ġalleged ly
23 5
Rem ark
Ġattack ing
Ġen rolled
B rown
ĠV illa
Ġreserv es
og g
Ġunsuccess ful
Ġref ined
I reland
Ġlisten ers
ĠByzant ine
ĠA ra
ĠLat ino
Ġsubstr ate
Ġy ard
Ġsp acing
Ġb ij
F G
******************************** ********************************
ĠNap ole
Lin q
IN FO
ge ometry
Ġreson ances
ĠA G
ĠBro s
d ependence
ĠPal mer
18 53
Phys Rev
ĠE ight
Jose ph
Ġthin ks
H aving
ĠAh med
Ġachie vement
ap a
Ġdraw s
ĠPlan et
Ġsee ks
ĠDe cl
> :
ĠAn a
go og
ĠThrough out
S ave
Ġhistor ically
ĠSch r
B u
song writer
ir r
Ġman ually
Ġtrunc ated
ĠSw an
play ing
R ules
Ġrom ance
m us
Ġc inem
ĠD aw
Ġlock ed
Vis ible
og an
s al
ĠB L
ist le
trans parent
ent on
Ġtens ors
Pass word
im pro
create Element
ced ure
T reat
Ġs id
Ġb orough
st rip
Ġref inement
Ġw orn
C RE
Ġt ar
he ng
ices ter
V AR
=\ ,
m icro
ĠN u
Ġlin king
f red
Ġstat s
ĠGu ild
ĠO w
ĠJ up
ĠV ery
Ġpers istent
re b
Ġspread ing
F D
Ġdemon stration
Ġdecl aration
H op
Ġcon current
Ġsever ely
et erm
Ġfluct uation
Ġa thlete
Ġadv ocate
ĠM ine
pr ising
ract ing
part icular
Ġadv ances
pre vious
Ġal ias
second ary
20 4
y i
bor o
elect ric
ĠMathemat ics
der eq
ĠScot ia
ĠF an
Ġlimit ation
Ġoverl ook
Pl atform
Mon th
v ens
and ro
Ġor che
sy nt
Ġtele phone
Ġpit cher
ĠD anny
Sing les
Ġst rang
ĠNorth west
Ġwar rant
Ġtour ist
^* )
ĠP or
og on
Ġt ent
@ {\
in ject
ur as
18 47
ĠIda ho
ĠN g
ĠIn iti
verb atim
U k
ĠT at
rel ativistic
ĠBulg arian
found er
Ġt ier
Ġconv inced
ĠRh ode
. }}
Ġper pet
Ġsophistic ated
ĠC raw
ĠMont gomery
oltz mann
ĠI ter
Ġgra ins
st ars
Q CD
H uman
ĠR achel
Ġpuls es
Filter Database
le af
Ġsub stitution
H aw
00 4
Ġassert That
ĠCre ates
Ġmyster ious
Ar gent
w ild
ĠD ame
coupl ing
ĠM umbai
ĠR af
Ġd ish
check mark
ĠJo an
Ġsort ed
j ob
Ġcl othes
18 49
Ġoff ense
tabular newline
Ġab oard
ĠN um
b undle
}}( {\
Ġbank ing
Ġsumm ation
Ġs ang
pro duced
t witter
ot yp
paren cy
Ġto ured
att en
m ust
ig i
t ick
Ġdial og
Ġed iting
Ġaff air
ĠAmb assador
^* $,
ĠOption al
ĠSch warz
C ost
er cis
d w
Ġsimultane ous
Ġv ib
ĠBl ake
with in
ĠS FR
Ġel ite
ĠJul ian
section s
ĠPar ad
Ġstat istically
neut ral
Ġhonor ary
ĠHar bor
ern er
Ġcirc ulation
? )
st ed
vanish ing
un credited
z el
Ġdef ender
ĠF lying
air y
H ouse
over view
ĠAngl ican
Ġrect angular
Ġwe aken
ens ely
ĠGab riel
L ab
Ġmed ic
prop ag
Ġtro ubl
Ġpass ive
UT C
im uth
Ġlog ger
ĠSh in
ĠEngine ers
Ġanalog y
Ġn inet
ĠK or
Ġprogram mes
Ġchap ters
Ġem peror
G i
Ġm a
Ġadminister ed
K er
ï¿½ ï¿½
ĠCom ment
A mb
Ġb rane
P b
ĠFried rich
Ġdescend ants
Ġsubmar ine
ĠProtest ant
' },
Ġ@ "
Ġcount ed
Ġacknowled ged
- )
Ġ& -
ĠT ong
im ony
16 9
ĠCol umn
}} }(
Lou is
Ġob s
24 5
t ip
L u
ä º
ĠCamp us
R ugby
Ġgather ing
al p
s ync
Ġsat uration
Ġfle w
)}\ \
c atch
un ion
^+ _
F oot
Ġhe li
ĠC G
Ġdesign ation
ĠRev ival
fe atures
ĠBrook s
Ġre organ
16 2
ing ale
ash ing
/ {
ĠEncycl opedia
Ġhas n
b h
Ġtermin ology
in as
Ġpre t
ĠTom my
) }^{
T I
at em
ol ve
ĠPhys ical
Ġkinem atic
ĠSu ccess
Ġestim ators
Ġsatell ites
HO D
es a
ĠEag le
Ġse cre
O l
Ġcont amination
un ov
Group s
ĠD oll
Us age
Ġany way
er ie
V V
m itting
ĠC lient
V ir
g ender
cont ents
att ing
itte es
Ġsec ular
] ))
ĠP P
ĠCom par
ĠTun is
|\ ,
Z one
Ġel dest
36 5
Ã¶ r
ĠMet al
out ube
_+ $
M ach
Ï Ģ
ĠP H
Ġcon vey
FI X
ĠLiber ty
ĠPark s
observ ed
17 4
y ang
W estern
( |\
en i
ĠR ules
Ġshe af
Hel p
Ġv in
zy me
g age
Ġrefere e
ah ler
ĠN R
{ -\
Ġsyn tax
Â »
Ġs overe
Ġdest ro
Label s
Ġn ights
ĠW ait
Ġavoid ed
ĠBrun swick
P ublished
Ġfriend ship
Ġnom inal
ĠPan ama
p her
oy age
Å Ľ
Point s
enc il
ĠWood s
J er
Ġsuperv ision
Ġliter al
ĠGa uss
Hen ry
ĠG rad
ĉĉ ĠĠĠ
Ġen orm
Ġbrig ade
Ġhous ed
[ [
Ġchalleng ed
ĠK rish
Ġdec oupl
eth yl
id y
Sh ould
ercis es
Ï Ĥ
ĠPet e
Ù ħ
rac ing
ur bs
S pect
ĠEs sex
ĠT D
ĠP and
N i
O k
ed o
Ġf unny
Ġacceler ated
You ng
ogen ic
bal ance
Ġth rew
ĠIN TO
Dan iel
rap ped
ĠF actory
ĠRena issance
um m
Ġmorph ology
P ac
V irtual
Z ero
a uc
rest rial
3 75
Pol it
Ġmon omial
Ġin set
ov al
St atic
Ġh ind
ĠL akes
Ġtrav elling
m apping
Ġ= &
cont rolled
Qu est
G reek
M X
unt ary
Ġdist ortion
ĠN ine
Ġeditor ial
sl ide
ĠR ever
es ters
ĠB ened
Ġin cent
t ouch
ĠR ice
conver gence
sign al
Ġd ancing
Ġdebut s
17 7
18 46
ĠW id
St ructure
ag ain
ĠSim pson
ĠS uff
ij a
Ġquant ify
ath i
ron es
Ġprevent ed
] ,\
Ġl oud
Ġown s
Ġincorpor ating
p seud
ĠRet rieved
ĠM ink
Ġtim ber
b org
Ġrefuge es
H AL
Ġd rain
ĠS of
leg end
Cent er
ĠIss ue
r ules
en ario
min imum
ch air
Scal ar
Ġt ile
Ġdev ast
ĠMarc us
ec a
ugh t
z hang
ho e
ĠP ent
ĠP rague
Ġsp anned
I l
Ġpil ots
rypt ed
Ġbr illiant
Ġlock down
Decl aration
ir cl
sh ots
Ġ$( {\
Test Case
Ġanaly tically
icens ed
ĠBu enos
Ġsur jective
ĠPl atform
ov ina
ĠC riminal
ari us
ins ki
ĠMil waukee
po inter
Ġsc andal
)\, ,
Ġarg ues
m agnetic
Ġamb ient
=" ${
ĉĉĉĉĉĉ Ċ
Ġb tn
Ġpregn ant
}=\ {
ĠChe ster
t uple
ĠCurrent ly
ing ers
oc o
sp here
Ġemploy ing
sm ith
Ġc iting
ĠP aram
Ġsub stance
Ġdesign ers
na issance
ĠIn novation
Ġpsych ology
ĠL or
erm ark
local host
ĠCommunic ation
Ġdipl omatic
got ten
Ġmicrosc opic
whe el
ĠJenn ifer
Ġgu ided
ounc ing
. }.
ri ot
ĠN as
hen ce
ĠHar per
Ġb acteria
Ġdef ended
Ap pend
ibl ings
ĠMot ors
E s
Ġauthor ized
Ġk nee
taint y
ĠS ig
ĠTib et
Ġsimilar ities
Ġlog ging
Ġst olen
ll ll
ĠÃ Ĺ
Ġj umps
av ia
ĠIsa ac
i ens
ĠCh oice
fil m
ĠL abel
ĠPer th
Ġannih ilation
(' .
Ġexplain ing
20 3
yn chron
gener ic
Ġresign ation
op ened
ĠIn stitution
Writ ers
Ġl akes
}\ {
ut ations
}} },
Ġany more
Ġhop ing
ĠCar r
Ġsoci eties
E r
ĠAl pha
Ġinitial ize
2 13
Ġ{ (
ere k
Ġcogn itive
om ar
Ġsy nonym
bi ased
Ġdomin ates
ĠPalest ine
{ #
Ġh ills
be at
Al low
Ġp ion
ĠN intendo
The lia
ĠK lein
Ġdis orders
he x
ĠTh an
arri or
Â ®
d h
Ġener get
S om
ad dition
Ġgrad es
Ġcart oon
ĠGard ens
ĠW ikipedia
ext ensions
Add r
U nd
ĠCon v
A h
à ®
Ġut ter
Ġlist ings
Ġdo zen
ĠJul ia
Ġp ist
ĠMer it
Ġre written
all ed
am med
Ġimp ression
ĠInt roduction
ĠLO G
ed i
w y
17 2
Ġb er
() ))
Ã© r
ĠD S
Ġc ant
ĠJama ica
log ger
Ġcat aly
Ġdegener acy
Ġnovel ist
ĠSw ift
C irc
Ġele g
ĠMar x
17 1
eg el
ine q
ib a
Ġpack ets
BU FFER
' ^
B atch
Ġan satz
Ġaccording ly
ose velt
ĠFl ash
20 9
Ġcur riculum
Pr inc
l ap
C ond
Î »
in verse
F ollow
ĠAdd ress
Ġvolunte er
A st
A H
P a
w ere
Ġcomp iler
)^{ -\
Requ ired
Ġob ey
ĠH ess
ĠW alt
ĠCroat ian
ĠD oc
Ġen larg
Ġinitial ized
Ġast rophys
ĠVAL UES
inher it
ĠO g
Ġsport ing
n ative
Ġimplement ations
in ar
F K
Ġcosm ology
valid ate
ĠA part
em bourg
Ġnumber ed
E t
18 2
Ġn od
ĠV II
Ġp ink
Ġd ying
ĠDur ham
ĠEll is
ocol ate
Ġs ink
ĠKaz akh
Ġseem ingly
Render er
c ence
ol ith
ol lo
ams ung
i pt
Ġ æ
ĠL iv
us a
P ad
s ix
ĠChel sea
Ġb eneath
ĠP D
ĠR C
ox y
ĠCl imate
RE SU
Ġtoler ance
T yp
Ġque en
C ounter
H ouses
ast ics
ĠBrown ian
Th ough
CH AR
Ġl as
18 45
O H
ĠCom plete
Mod els
N M
v ity
ĠEnter prise
Ġf ires
Ġre forms
be h
ian i
Ġroll ing
Ġfavor able
Ġmet ropolitan
A ff
ĠR S
_* $
Ġmer ging
Ġanth rop
Ġb rackets
ĠI SO
Ġor n
Ġtreat ments
ch apter
isc opal
] =\
Ġgrap hene
or um
Ġs addle
le vard
n om
Ġmer gers
ĠOut standing
scal ing
Ġsett lers
Ġfoss il
ĠW E
Ġhuman ity
Ġdes irable
ĠC ec
ĠR aid
Ġmidfield er
in ites
Ġcro ps
B ra
ĠStock holm
sh own
exist ing
Ġs ung
ĠMus ical
att ed
ĠL ip
ĠBaron et
ĠG PU
Ġlo ose
ĠFl ag
5 50
}{ .
deg enerate
ĠA er
33 3
Sp ring
Ġid x
Ġimm un
ĠMig uel
ass ign
O D
ĠNiger ian
ark er
2 11
F ixed
c as
Ġnot ions
Ġlift ed
Ġbipart ite
Ġannot ation
ĉ ĠĠĠĠĠĠĠĠĠ
AR N
ĠFour th
O s
man uel
Ġp iv
Ġexecut ives
ĠNetwork s
n othing
Ġs its
Al g
c ancel
ang ered
ke es
ĠLeg ion
Ã ¯
Ġep ic
Ġminim ization
w yn
Ġ ...,
st en
Con v
l attice
Ġflow er
ĠProgram me
ĠGrand e
Ġfermion ic
Ġs ocket
as ympt
U ntil
ĠO wen
ĠOrig inally
Ġre conc
ĠHop kins
Ġathlet ics
commut ative
ath a
ĠR A
ĠS weet
st re
Ġt enth
)$ :
{ }{
En v
Ġf riction
position s
ĠO ber
6 50
ĠLore n
)} +
F ictional
ol er
ĠIm pro
ĠC B
Ġcapt uring
Leg acy
Ġm uon
ĠP si
}^{ -\
Ġfeed ing
Ġd ressed
ĠL ak
Ġas h
am as
Ġgra ve
Ġret reat
raph ic
u ating
ĠH i
ĠO z
Ġqu ote
Ġsuggest ions
ĠMethod ist
open hagen
read er
ĠC ann
ri o
DE X
Const ruction
ĠÐ ²
ĠSask atchewan
ĠF antasy
Ġfl our
ĠPer iod
ĠS ullivan
ĠEc u
Ġdemand ing
Ġ Ã©
\% )
Ġqual ification
AN G
Per formance
ĠC V
Ġbe ars
found ed
add Class
Ġschedul ing
Ġf o
ĠB od
chi ef
ĠIndones ian
ap prop
Ġwrit ings
Ġrem ix
Ġbenef icial
Ġrul er
bre ve
){ $\
W ashington
m os
Rep ository
Ġn ose
ĠL S
ĠL ik
Ġsol ver
\% .
Ġnucle on
ĠDes ert
Ġs ailed
]{ $
Ġproceed ings
Ġsome how
Ġimm une
ĠEm ma
Ġtri ps
Ġachie vements
Ġsubt le
Ġexpon ents
ĠHop f
K h
Col umb
l ated
Al t
ĠHamb urg
Ġsp ite
Ġind ividually
unt ed
ĠVlad imir
d eb
ĠCab inet
$ _\
Ġw ars
å ħ
umber land
Ġspeak s
Ġpione er
Ġdisestabl ishments
W at
un ivers
)\ ;
ll er
sp irit
it ic
Ġdef in
ĠShe ffield
Ġleg islature
Ġindex ed
can vas
> ;
et ric
Ġl attices
_* (
c ot
Ġacknowled ges
ĠSt okes
on so
3 40
Ġequ ity
Ã ½
ce iver
ĠB row
() </
Ġinteg rity
Ġal umin
bl ank
Ġgen uine
ĠR GB
Sp in
Ġdivor ce
an z
Ġgu itars
Ġcarri ers
ac iÃ³n
ĠCon cert
C u
ĠC ort
Ġdevelop s
ff f
Ġcal ib
ĠCre ative
p ad
Ġelim ination
Ġwild life
Set ting
Ġtri ang
Ġgu ards
ĠAm endment
ĠGL enum
ĠPlay Station
en eg
AR RAY
Ġbif urc
m ixed
Ġhad ronic
a ude
Ġsqu ee
Ù Ĩ
gener ate
Argument Exception
it he
pl iers
k pc
Ġins u
ĠT ry
Ġathlet ic
N F
ĠS hen
cal endar
Ġdel ight
H ub
ine es
al one
Ġro uting
Vis ual
Ġment ions
}) \\
ĠInd ies
ĠP aint
Ġun con
v ac
inter action
Cle arly
ĠU ntil
Ġcomp rised
S ort
Ġin ches
Ġgain ing
is set
Ġsuff ix
ĠMod els
ĠCy cl
Ġa perture
ĠN ames
exp ansion
Ġmonot onic
18 44
ĠSp ider
Ġch ore
&& &&
tikz cd
ym ph
Ġharm on
sub script
Th row
Ġdial ect
ĠH ass
Ġin clusive
SC R
at ta
}} |
ĠDisc overy
Ġag gressive
Ġwid ths
ili ation
)+ (
av g
Ġbe aring
Ġare na
ĠRe id
ĠRichard son
et c
Ġmiss ile
Ġpoll ution
p n
Ġpro gen
am oto
Ġfif ty
Ġiniti atives
m ons
Ġyield ing
ol in
Th anks
ĠS qu
Ġl ang
Ġthread s
Ġsl ide
Ġm g
al in
ĠA U
Ġc ube
Ġ- =
Ġdesign ing
Ġadi abatic
ogn ition
: -
mont on
Ġb ell
orthe astern
n ai
ĠBr ussels
Ġ$ %
dis able
ĠVol unte
opl an
ĠPear l
Transport ation
M ountain
AT OR
Ġdrop ping
[ ],
Ġparamet ric
ĠInitial ly
dat aset
all a
Ġmet als
on ormal
ĠProv incial
w ould
Ġb ike
ĠI BM
ield s
ĠS K
Ġperman ently
ad just
v on
ĠInter view
18 39
condition al
er i
Ġg amb
M ic
Ġto y
ĠF lem
lim sup
T ouch
t ens
comb ination
b eck
Ġun cover
RESU LT
Ġh o
us ername
Ġpri ests
Comm unes
ĠP owell
99 9
D ATA
ĠP ink
ĠD uncan
b v
Ġsim plicial
ott i
Ġpost pon
Comb ining
F eed
S el
Ġl un
wh ose
S oviet
se gment
ĠB ras
AS K
Ġsi ege
CO M
it on
ĠMan ila
e ah
rac es
Ġapproach ing
ĠCour se
$ ^{+
ĠJac ques
Ġt weet
ĠA A
ĠS ul
16 3
S ar
T ick
Ġ\ ,\,
Trans ition
ol ved
Ġb lo
ĠN urs
Ġrelax ed
T a
c ats
Ġbos onic
ĠMc L
Ġemer ge
ĠA chie
Ġquad rup
ĠOt to
Arg uments
Ġsw ing
} ''
Ġst uck
oun s
Ġrele asing
Ġr amp
Ad S
ubb ard
ov anni
Ġrecip ients
å ¤
Ġshort est
Public ations
R D
top ic
uis ine
ĠG and
ĠG ren
ull ah
Ġimportant ly
et e
ĠHe aven
ĠT ru
ph ib
ĠZ ero
Ġmem oir
RO C
ĠS EC
(' /
Ġreason ably
Ġemer gence
c pp
ĠEm ily
Ġnation wide
V an
ĠBir th
rape ut
ä »
Ġan ch
ĠK ind
Ġf ur
ch anging
ĠMan it
Ġtum or
ĠEcu ador
Ġwork shop
uls ive
c ool
Enumer able
ĠSt yle
approxim ation
r ational
z t
ĠR i
Ġem it
Ġneighborhood s
load s
C LASS
l ic
Ġremember ed
ĠPalest inian
Ġhar ass
20 7
Ġmon astery
L ite
aj i
Ġbr ut
row ave
Ġver se
Ġhard ly
Ġsett le
Ġexceed s
ĠM atrix
Ġup set
Ġstud ios
ĠCont ract
C ities
ĠF ul
_* \
ĠV ision
ĠZ imbabwe
w u
Ġn ons
oy le
J on
ĠSalv ador
Ġout going
ĠSy mbol
Ġdiff use
H K
ĠWil helm
Ġt d
Ġresear cher
Ġreleg ated
h pp
Ġfor ty
plet ed
ĠS ize
L F
Ġwe igh
ĠJohann es
n at
ĠPo etry
Ġin ev
ĠH ale
Ġexp ense
ĠCol in
As sembly
Ġaddress ing
}^{ {\
high light
Ġmist ake
Ġc rim
Ġt ips
or ters
), $
Ġpush ing
Mod ern
W ood
17 8
atin um
vari ables
ĠOut put
ag in
Ġcoll apsed
Ġback ed
Ġunder graduate
ĠSur v
Ġdissol ved
ett es
alo is
/ {\
Ġspl its
Ġn ephe
ex it
Te V
ert s
he alth
22 6
Swed ish
ff bb
ise cond
big cap
Ġdram atically
Ġren owned
DE BUG
Ġpreserv ation
Ġpun ishment
ĠT itle
ĠIll ust
| +
tes y
ah u
online cite
ĠC ord
% ),
Ġdis able
can onical
Ġde prec
)= -
Ġenter prise
i ago
Ġcho ir
ĠCy prus
Ġ( @
let te
Ġcan on
andid ate
Ġelectron ics
Ġche ap
Cont ents
ĠPrinc eton
add ed
ĠTy ler
Ġaugment ed
ĠA ur
=\ !
Ġbatt alion
size i
ad ier
Ġstay ing
Ġpur ple
ĠL ar
Ġeng aging
IM E
ĠAdvis ory
n r
Object s
B us
mult iple
ĠHel p
Ġdiagn ostic
Ġbre eding
he imer
en za
ĠA ub
Ġimp lying
Ġgal actic
Ġhop ed
Ch ain
mark et
Ġcor ps
âĢ¦ .
Ġ( {
w arn
am azon
Ġarchae ological
ĠL ok
Ġjud gment
Ġinc idence
L es
N orthern
sc apes
ĠW arriors
ĠEvent ually
ĉ ĠĠĠĠĠĠĠĠĠĠĠĠ
Ex pl
ĠMal ta
ĠZ h
ĠNott ingham
ĠV ers
-\ !
Ġsymbol ic
Ġres iding
Ġcon ce
ĠW I
2 12
Ġh alt
' })
rid or
Ġcollabor ated
ibr ations
M G
im m
ĠM iles
Ġt uned
B order
}^ -
ho o
ĠAb b
ip eg
Ġby pass
B ounds
or ers
ĠMay be
ĠAct ress
m ind
Ġaltern ating
]{ @{}
Ġbeat en
Ġlob by
ĠPunj ab
Ġv iable
In c
ĠTw enty
N eg
Ġn s
ĠPop ular
Stat istics
per cent
» ¿
pl oad
VAL ID
Ġlater al
andid ates
intend ent
ĠEmer gency
Ã© g
Ġk iller
H ook
un ting
Ġprefer ences
Un incorporated
ell ite
18 7
R N
ys on
Ġw ishes
ĠH arm
ĠRevolution ary
cre ated
16 00
ĠSh i
Ġcle ared
Ġbuck et
Ġst iff
dor ff
ĠCom mercial
ho ff
ĠAbd ul
Ch ris
ĠCl ose
less ly
r p
ĠBel le
ing o
ĠS end
ĠAng els
ĠClass ical
charg ed
P W
l ane
Group Name
ĠD in
Ġloc us
c ourse
S ta
Ġ Ñģ
ĠC I
ĠCor p
Ġhal os
u ons
Sh arp
Ġ& =\
Ġb arriers
ĠSus sex
Ġmark ing
ĠMoroc co
ĠRec ently
itro gen
Ġavoid ing
ĠPro perties
Ġcre ator
18 38
ĠPak istani
ĠAssoci ate
Ġre vis
18 37
gu ard
p ub
as an
Ġaggreg ation
================================ ================================
Ġpian ist
Ġw ore
ĠU til
Ġdem ocratic
Ġrock et
Ġmand atory
ĠV il
ĠHe ights
40 4
Ġprotect ing
18 12
Ġen force
Ġcan al
es ar
ab lo
get Value
aw i
CD M
ĠA way
ĠSpe aker
Ġball ot
a very
ĠT iger
Ġprevent ing
Ġche ss
Acknowled gements
De velopment
rom atic
ign er
Ġadm ission
Ġneighbour ing
ĠPrinc ipal
string s
ess ment
3 25
G W
ne apolis
g iving
s child
Ġcharg ing
ĠC ategory
S afe
il ian
Ġbare ly
20 6
ĠGu itar
uz zy
Ġmultiplic ative
Ġdes per
Ġlif estyle
ee k
Ġpray er
Y Y
Ġc b
path s
ĠTr uth
ĠRo osevelt
B and
le ad
ĠS aw
od o
ĠArm strong
ĠGib son
ĠHind i
Ġ' %
ĠL if
Ġamb assador
n ut
ï »¿
Ġterm inus
ĠC rist
Ġrecept or
ĠT ampa
r ific
w at
ol ine
ĠC apt
emph is
< <
R NA
Ġv ow
Ġwarn ed
ĠB anks
ac l
math rel
ĠHol mes
ĠM N
ĠJer emy
T rad
ĠP sy
graph s
Ġtimes cale
om ical
Ġsurve illance
F at
p ixel
ĠS Ne
ĠE W
Ġparticip ant
Ġin ad
ĠCon text
ĠMod ule
Ġconvent ions
Ġviol ations
Ġretrie val
enc oding
With in
uli ar
ĠE ye
Ġshell s
SS M
che z
Ġinf ections
Ġassess ed
Ġresum ed
q a
Ġp ounds
op a
Ġsurviv ors
,\ ;
Ġprec ip
ĠDen ote
Ġ il
at tach
G erm
16 1
tr l
d B
ĠVal ent
display Name
{- .
Ġlux ury
1 200
Ġb out
ra its
Ġl oves
com par
y ellow
Ġutil izing
Ġtransmit ter
ĠCart esian
s ass
Ġevent ual
á ŀ
$\ {
t u
: `
ĠP arent
cept ions
dec re
ĠP erm
Ġden omin
RE S
S plit
Ġl ig
Spec ies
Car l
Tax onomy
th reshold
by ter
trans port
ĠMaur ice
Ġtransport ed
23 4
Ġspec ifies
D eb
id ays
any on
ĠMA X
Ġdisappe ared
Ġemp ire
NavBar Cell
Ġindic ation
b k
y g
ĠDav ies
ĠR onald
ast ed
spect ral
Ġrenew ed
u pe
ĠDomin ican
n ick
Ġun incorporated
Ġc of
ll a
Ġlo ans
ĠK yle
Ġb achelor
resp ons
Ġlat ency
Ġso ap
0000 0000
re ne
Ġre con
ĠA F
Ġjust ified
isen berg
)}{ (
Ġconstitu encies
á ¸
om al
ĠNe uro
n is
ĠN otes
Ob server
Con tains
AR S
Ġplanet ary
Input Stream
Ġcryst all
ĠCh ase
Ġmort ality
ĠD W
Ġsent iment
Sc ience
8 50
\, (
ĠA bs
H ave
Ġ" %
Ġsmooth ing
? ,
Ġ' "
ĠJ unction
Ġr h
ĠM ob
ĠO rt
Ġdepart ed
Ġcomp ressed
P ak
Ġclass ify
Ġp ng
g ary
Ġconfer ences
Ġfore ver
le z
Row s
Ġa erial
Ġfro zen
Ġdecl are
Ġst ays
ĠBer ry
y cle
Ġb ills
ĠRic ci
Ġcardinal ity
ĠForm ation
Ġincl ination
A u
ĠEx hibition
ĠR ush
Ġdiscuss es
ĠDivis iÃ³n
)} +\
Ġhand les
Rec ent
T y
ct uary
ĠG B
oy a
3 45
Ġdemand ed
anim ous
M aterial
Ġb icy
18 35
Ġ} .
Ġsuperconduct ing
Ġaccompany ing
ĠGe off
inf all
st retch
ĠM old
Id x
label ed
\ `
ĠOak land
ĠK arn
18 20
Ġr idge
ell ation
Ġfl are
ep age
The ir
Ġc rossover
ĠAdvent ure
ç Ķ
AM ES
UT H
ĠO m
%%%% %%%%
ĠP ep
00 7
od ium
ĠWe ather
}$. }
as ive
G H
ĠLind a
j ee
} <\
ĠM BA
us hes
ĠIs le
Ġrevers ed
Ġle verage
ĠRe ich
ÅĤ aw
C ursor
Ġfound ers
J ean
es se
Ġarchitect s
ĠAn imal
ĠG rid
Ġpl aus
ĠAndrew s
ĠH ousing
Ġcon spiracy
el ong
Ġfin ishes
Ġkid n
ĠGib bs
Ġpresc ription
ĠLapl acian
Ġpr ince
Ġgradu ation
Ġmore over
j p
Ġ" ";
ĠTh read
Ġsub spaces
f illed
c ock
Ġk ills
ash ire
ĠArmen ia
Ġadv ised
perturb ative
ĠD I
Ġnob le
ĠC openhagen
ĠZ ar
s ocket
E mb
L AS
Ġf ru
PAR AM
iff e
is Empty
ĠV ern
ĠUS B
Ġb unch
power ed
y on
Ġch lor
log y
ĠĠĠĠĠĠĠĠĠĠĠĠĠĠĠĠĠĠĠĠĠĠĠĠĠĠĠĠĠĠĠĠ ĠĠ
Ġtow ers
Ġsh r
uff le
Ġk iss
ĠLe icester
ĠHend erson
Ġjournal ism
18 4
Ġreflect ing
Ġp aired
Ġst y
ĠDist inguished
ar is
ed in
Ġprom ises
GL enum
ĠSom erset
ond s
Ġen act
Ġb esides
Ġanisot ropic
G EN
Ġb ootstrap
Ġr ises
log in
ĠHe ath
Ġsol ves
ĠH ack
ĠIn side
L iber
Ġeth n
ĠStev ens
Ġf ung
Ġb ats
Z hang
ĠHer ald
Ġn ic
Ġan ger
ĠInd igenous
ĠS ou
Ġpresc ribed
ĠP orter
ph or
L android
ras er
Ġsu ited
Ġelabor ate
ĠAp ost
)\, .
chedul ed
p ubl
à¥ į
# {
Ġint rig
Ġstri kes
aff e
Ġshel ter
ĠE g
ĠP it
ĠMe eting
ĠD ob
Ġcul min
}^{ [
py thon
ĠESP N
=" @
{ +
18 41
17 3
^ -\
ĠF W
ĠS ons
j ack
ĠBos nia
ĠMan ufact
Ġfil tration
á ĥ
ĠBa iley
ĠDou g
Ġtre ating
p ars
Ġdynam ically
ĠBrad ley
ĠF inals
Ġcha os
Ġj e
ign ore
Ġp ap
ĠRes ult
ir med
)}\ ,
ĠDr ug
ĠD ylan
Ġent angled
Ġp unk
Ġevery day
)= -\
g ins
Ġo mit
ĠLou ise
ugg ed
Pro blem
Ġbad ly
Ġnick name
Ġcomm enced
ĠB order
ĠFran z
ĠCard inal
Ġre dd
Ġre pository
Ġresid ue
ol ics
Ġbuild s
Ġc ouncill
Ġsh a
P rem
Ġe gg
^{- (
Rec ently
ou cester
Ġvot er
Ġsing let
ĠPublic ations
| ^{\
Ð° Ð½
Ġrecru ited
Ġcommem or
d iamond
ĠF E
Ġhot els
ĠOr lando
se ver
ĠInd ividual
Ġcycl ing
As ian
has OwnProperty
Ġperform ers
Ġbreak down
(" /
ĠQu antum
Ġadvert is
res on
Ġmidfield ers
B its
ĠD etails
Ġf ame
ne um
ĠF P
s an
ĠF eder
ĠGl obe
Ġcomputation ally
Ġstrugg ling
v b
ĠWh ich
Ġbi ased
rif ice
Ġaffili ate
der ived
Ġupd ating
.. ."
D ynamic
ĠSe pt
Ġbox ing
con serv
Ġinv ention
min imal
Ġbomb ing
Ġtra iler
for th
X iv
Ġz oom
Ġpsy chiat
}}{ {\
Ð ±
Ġfl ank
ident ified
Ġster e
ĠSol id
eg ovina
ĠK urt
Ġunder went
Ġlegend ary
p aces
uk u
Ġcab in
Ġdream s
A SS
im ath
Ġround ed
Ġevol ving
B ool
4 80
s il
Ġinvest ments
Ġinsu fficient
E ducational
Ġlegit imate
Ġsc ar
ĠDi pl
Ġstep ped
Ġacadem y
spring framework
Ġox id
up les
Ġcom plications
Res p
ĠIndian apolis
Ġphil anth
enz ie
ĠA ges
lin ks
nd ez
Ġline up
Ġref resh
Ġkilomet ers
k le
const rained
Ġoverl apping
ĠStart ing
= |
ĠH ir
Ġmonot one
Ġde alt
Ù Ĭ
ĠF T
_ )
Eff ect
Ù Ī
Ġext inct
Ch ief
APIENTRY P
At tach
Ġsyn c
ĠStr ategy
27 5
el ike
ag le
Ġc md
ĠK illing
ĠTrans it
Ġblock ing
ol an
im i
Ġviol ated
ĠM uk
ter bury
Ġcler gy
Ġdetect ing
Ġ$( -
M ike
Ġanticip ated
enti eth
ĠP E
ĠM ead
re duce
K B
d ou
Ġthrough put
ĠSher iff
ge ometric
Polit icians
ancell ation
qu bit
ĠC i
ibl ical
ĠN uclear
Ġsw ord
}) +\
Ġcor pus
ĠArch ae
Ġtem plates
ĠD L
ĠN umer
Ġdies el
Ġmark ers
ĠIraq i
stan bul
) '
Ġra pe
ĠViet namese
hig her
Ġin jected
ĠPl ate
Î ·
Ġac ute
Ġtarget ing
s ens
ĠG ov
ĠG Ã¶
Ġhad ron
Ġimm ig
F ire
t abl
ĠB O
ĠMed ic
ĠA ch
ĠWest minster
Ġextra ordinary
ram id
Ġadv isor
DE s
ĠTan z
Ġfle e
ĠG ent
Ġ$ +
ĠDe b
; ">
18 36
Met rics
ĠKenn eth
Ġassemb led
Ġ' ',
ra ining
Ġd z
ĠC ay
Ġcomp ares
Ġdiv iding
ĠCamb od
Ġclean ing
pe z
EL D
allow ed
ri ans
pl oys
Ġim pl
Ex perimental
R oad
c ategories
ar in
ĠAv ailable
Ġirre le
em i
ĠV ert
Ġle ase
in fl
ĠK om
) ||
Ġbul let
LO W
Ġcivil ians
Ġdis par
RE SS
ĠP ars
Id s
} &=&
Ġem otions
ĠAcadem ic
ĠYan kees
st rict
Ġreal m
Ġret rieved
Ġimp ressed
ĠP HP
Ġl ighter
ref n
Ġsem ic
en vironment
N AS
Ġm ood
ĠCal gary
Ġpro c
atal og
Ġfurn iture
ier i
40 1
ud i
Com mit
- ,
An notation
k ok
Ġl ady
=" ">
Ġfar ms
Ġfun ctors
ers en
| $,
)} -
fe at
3 80
ĠHe at
Ġrev ival
em er
Ġsupers ymmetric
ĠEx ped
ĠCr us
,- .
Ġtor ped
prob ability
Ġvocal ist
ced es
ĠUr ugu
Ġback up
ĠGl enn
ĠR G
ĠSol omon
W ild
col m
Ġsur pass
Ġsp ans
ĠP iano
ĠPro gress
ĠLet ters
Ġtend ency
Count ry
Read y
kins on
Ġwitness es
ĠYugoslav ia
N atural
{ },
ch in
Can vas
Ġtor que
^ ^
ĠEngine er
hard t
Ġdiagn osed
Ġinduct ed
Ġbeh ave
ict ions
Ġnever theless
z ens
ĠM ask
ĠCorn wall
ott ing
ill ary
P ic
ĠE rr
work ing
UN T
ben ch
Ġconcept ual
Ġlens ing
A gg
C md
ĠT elescope
NS String
establ ished
ĠH aven
}= {\
p ix
v ation
att i
assert True
pl aced
rt imes
ĠN om
Ġland mark
ĠS ale
ĠR oot
Ġpra ise
R ANT
Ġst ones
Ġde ce
oc on
F ellow
Ġpit ched
oca ust
ĠM T
ĠCh ad
Ġveter ans
ĠI g
Ġcha otic
ri ent
ov ic
ĠP apers
comp ile
P relim
Ġrefer endum
Ġmot if
L B
Ġrig orous
Per iod
Ph aser
Dem ocratic
ĠW A
oc cup
Ġleg isl
GL uint
ĠSl av
osp ace
Ġrec ycl
ĠD epend
Ġann ex
Ġincred ible
id ian
ĠBou levard
Ġbij ection
ĠGen eva
pon ential
Ġinstit ute
g overnment
G od
id uc
ĠH us
}: =
ĠCel tic
ĠPop ulation
ĠK aren
18 9
Ġfre ight
f uture
ĠH off
Ġconst ructions
Serial izer
}} ^{-
INT ER
ĠChem ical
imod al
Ġenc ounters
r ul
Ġab olished
ĠD um
ress ions
I refn
18 42
Ġtrans fers
On line
er als
orm s
Ġeigen vectors
Part ition
Ġat tained
ĠLet ter
Ġwar fare
Ġatt en
STR ING
ĠW ol
Ġmat ure
ĠLuc y
Down load
Ġâ ĪĴ
ĠTechn ologies
ipl inary
Ġdiscover s
J oe
Ġred es
F it
Ġdoll ar
s chool
ar re
n h
iver y
Ġr ifle
om ers
Ġrep ublic
'' '
% "
Ġn aming
g rand
ĠB elf
ug a
'] );
disc ussion
Ġconsult ant
2 15
Not ification
Ġm ice
Ġd ash
ĠV a
Ġh olog
Inst all
\ ).
Ġtem ples
30 4
Ġscre ens
æ ĸ
Res olver
ĠBet ter
oc om
}} %
ĠBry an
Ġaz imuth
Ġsub mission
17 9
ĠCa uc
Ġwhe els
Ġcomm ute
}_{ +
dist rict
Ġ\ ;\;
ĠEll i
pe ak
ant le
ĠH ait
Ġenorm ous
"" "
Rem ote
Ġtox ic
Ġgram mar
Prim ary
Ġcasual ties
Ġhold er
ĠE N
Ġen roll
g ard
enn ium
Ġpuls ar
ub bles
ric ia
Ġdat abases
p ages
ĠY O
Ġperm utations
Ġdraw ings
rid es
Ġmut ation
ĠMaterial s
pre ced
ĠCle an
ï¼ Į
ĠW ick
Ġparad igm
Pol ish
Ġrevolution ary
r ud
Ġtunnel ing
Ġl ane
ĠTre k
Ġex empl
Ġad s
ĠHe in
ĠPresident ial
Ġi Phone
ĠEd mund
ĠT ot
ĠCal cul
Ġw are
ĠLeg islature
Ġhum or
sign ature
quest ion
Numer ical
ĠR iv
ĠM ang
! ,
- |
am on
ĠIn cre
Ġconvers ations
ĠR ole
Ġv ig
le en
Ġsp rint
ĠGu ang
Ġperm issions
30 1
ĠT ell
ĠP U
18 6
text subscript
Ġend points
Ġcat hedral
Ġl ar
Ġdegrad ation
Ġprest igious
ess es
omet own
Ġaver ages
ĠGra duate
iling ual
Ġdepos its
Ġon wards
all i
Ġc ached
ĠD ale
ĠClin ical
ĠL ect
ĠU tt
Ġspec imens
Ġcontract ed
Comp at
Ġmut ually
stit u
utt le
' ]['
refer red
Ġwor ry
I ss
Ġpredict ing
Ġsupers ymmetry
ĠB in
act ual
ĠWAR RANT
Ġwork shops
ĠU P
Ġ' .
Ġhy perp
pl anes
Te ch
eqn o
IF AR
Ġw ound
23 1
Ġflo ors
j in
ĠC ool
Ġpar as
Ġaccept s
Ġvict ories
Ġorth onormal
Diagn ostics
Ġt rem
St an
ĠAll an
othe rapy
Ġcondens ate
Upd ated
hold s
c yl
p ent
s ources
con clusion
Ġnation ally
ĠI sh
Ġconcent rate
que z
}{ (\
Ad min
Ġ âĢĻ
ap is
' /
\, $\
Ġless er
ĠT ir
ĠĠĠĠĠĠĠĠĠĠĠĠĠĠĠĠĠĠĠĠĠĠĠĠĠĠĠĠĠĠĠĠĠĠĠĠĠĠĠĠĠĠĠĠĠĠĠĠĠĠĠĠĠĠĠĠĠĠĠĠĠĠĠĠ ĠĠĠĠĠĠĠĠĠĠĠĠĠĠĠĠĠĠĠĠĠĠĠĠĠĠĠĠĠĠĠĠĠĠĠĠĠĠĠĠĠĠĠĠĠĠĠĠĠĠĠĠĠĠĠĠĠĠĠĠĠĠĠĠ
Ä ħ
Ġr ic
50 9
Ġadminist rator
m eter
â Ħ
as se
rm k
function al
ĠMin i
Ġremov es
Ġpl ural
M ov
ĠG O
is le
Ġcancel ed
RE D
Ġposit ively
ĠSp ot
pol ynomial
Ġscript s
ĠF emale
Ġcook ing
Ġpurs ued
Ġimprison ed
Ġimplicit ly
ĠHard y
T HE
ĠSp in
! )
ĠSum mit
li u
Ġinv ented
Ġqual itatively
cha ft
(\ {
Ġnom inee
Ġreg ards
Ġap pl
che t
Ġcollabor ative
ĠChem istry
Ġap olog
Ġprem ium
poss ibly
comp iler
Ġresol utions
Ġinv oked
ĠF ramework
ĠInvest ment
ĠFif th
ile vel
by e
Ġprison er
* (
ĠBurn s
analy tic
Ġrel atives
âĢ¦ ]
H tml
Ġterror ist
ĠB ever
Ex pected
Ġtri o
spe aking
ĠHerz egovina
Ġthreshold s
ĠDet erm
al tern
ĠH od
column s
\ ;\
ne z
ĠTri ple
B rien
i ary
Ġd ancer
cal c
et imes
Ġpred icate
Ġl unch
up ta
Ġco ordination
SE LECT
Ġc avalry
Pol itics
}} [
Ġexpans ions
ĠM TV
Ġab ortion
ĠExcell ence
Ġsm oot
Y S
Ġd ys
Ġform ulate
Ġeigen states
Ġcert ification
Ġs iblings
Brazil ian
18 3
Ġassign ments
um ble
18 32
ĠRail ways
ĠLes lie
P ier
23 8
Ġbur den
cent ric
ers hip
ill ation
And rew
T imer
ĠA ri
ĠBy te
ĠArray List
V ictor
ĠG ross
ĠPro b
Enc oding
y t
ĠP om
gle w
> )
att ack
Ġupgrad ed
D etail
Ġn ond
ĠL odge
Ġpe ers
Ġbot an
m and
ar ab
Ġpre vention
Ġthrow ing
Ġs ew
col span
Miss ing
ĠCh in
plement ary
AP P
ĠC rystal
Ġprev ents
ur an
p romise
ract or
Ġc usp
ĠW H
Ġmer c
Av ailable
os ion
ĠManit oba
ag ne
fra id
Ġtheat rical
L ib
Ġsuccess ion
B ean
Ġcolon ies
pro c
Ġgl ac
\ },\
Î ¼
29 0
Ġ| =
Ġd ans
Ġreve aling
ch at
å Ī
ĠPubl ished
s amples
ĠLand au
fam ilies
Ġdiscipl ine
the m
ĠD as
G re
TIM E
ograph ies
19 3
sm ash
ĠPal m
ĠLanc ashire
ĠR ut
Ġh i
av in
L os
Ġwid ow
it Ã©
Ġ} ^{
Ġdet erior
Ġsl ip
) &=
Ġinf inites
w ik
op acity
ĠRec ent
Ġgirl friend
mod es
ĠTest ament
Ġg ig
im on
GL API
dat abase
S K
ron ics
}{* }{\
z c
ĠK end
Ġcl arity
Ġ[ (
b il
ĠR overs
Err ors
Ġrest art
Ġspont aneous
E mit
ĠPo incar
Ġshift ing
ĠPan el
/ $
rit z
ĠW R
Ġen zyme
Ġsnap shot
ĠEv olution
Ġsynchron ized
ĠShort ly
p ref
Ġtalk ed
Mean while
ĠM otion
ĠLux embourg
F un
ĠI v
ĠCont est
ĠGR B
L IN
Al pha
ir ate
ĠL it
Ġloc als
Ġirrele vant
Ġencourag ing
m kern
or ange
Con sequently
Ġfis cal
I ce
Ġmain land
S napshot
ut z
}} ]
aid en
Ġpath way
ĠBi ography
f u
rob ust
S witch
rot ron
Re pe
Ġter rain
Ġph ones
Ind ividual
ĠDev il
BOO L
A sh
he y
ĠAdvent ures
ĠP ool
Ob serve
Ġport al
Not Found
Return s
ĠÂ «
ĠP rec
Ġro ok
Ġmyth ology
B ir
Ġmanip ulation
ash tra
Constraint s
ild a
Ġunder taken
Ġgovern ance
g oto
g irl
Ġv iral
Ġf s
Ġ" .
F a
h size
N Unit
lass ical
g ang
Ġint elligent
ĠMc Donald
Ġs el
ĠH I
semb les
Over all
C itations
Ġtransl ates
or p
en es
ĠR ather
Ġfore ground
Cal ifornia
Ġap par
Ġcount able
ĠL enn
Ġconf inement
ĠO st
v d
TR AN
ĠNob el
Ġsculpt ures
est e
ĠOther s
Ar thur
Ġsal ary
Ġsm oke
ref lect
ast ically
Ġhero es
Ġmur ders
ĠHur ricane
ĠEthiop ia
it ational
Ġre he
ĠG A
ort ium
Rep resent
ĠM M
". /
ĠCub an
r ar
}) _
Ġcomplaint s
z ier
Ġab st
Un ion
- }
3 70
Ġdemonstr ating
Ġjud icial
Ġpregn ancy
ĠM om
Sk ip
Ġd ock
ra ising
ĠSant iago
Ġre bounds
t oc
Ġv i
Ġb acter
ĠC anyon
du ces
ĠEr n
26 4
ĠX box
Ġnovel ists
r Vert
oy e
ĠLe vi
urg ery
B K
Âł Âł
Ġun fold
Run ner
vio let
ĠMerc ury
Ġansw ered
ĠSyn tax
3 10
r ases
ir ie
Ġabbre vi
ric a
Ġdub bed
Ġfood s
T rump
Ġdig its
av ian
Ġaltern atives
S ql
m ov
io x
l vert
ĠAr ctic
ĠMin neapolis
ĠC yr
text ure
ĠMar in
P ipeline
EN ABLE
amm ad
G overn
h urst
ĠFern ando
C over
Ġread only
pop up
ST AR
Ġg a
Ġim posing
ch rotron
ge o
W IN
ae us
,\,\ ,\,\
}^* $
Ġsepar ating
ĠT ales
ĠD ow
ĠN LO
C U
Ġb ilinear
E SS
Ġhelic opter
Ġsup rem
Ġshould n
ant o
Ġdeliver ing
ĠQ uality
Ġapprec iate
hed ron
Ġmet abol
desc ribed
? >
Ġoccas ional
b ranch
Sign ature
ĠBudd h
Ġvo iced
Ġdi abetes
Ġvirt ue
ĠAlbum s
ĠPl aza
ien ne
ĠP ain
Ġbas elines
ĠJup iter
Ġd ining
Ġgl ad
ne ighbor
ĠB oeing
b age
v r
inf inite
L im
Ġf idelity
un ate
ĠF ay
Frag ment
ĠNew port
ap ur
Ġex otic
tool bar
p ole
LE MENT
Addition ally
ĠSt rat
Ġfail ures
Start ing
Ġdisband ed
enc ode
ĠT F
C ov
ĠM aking
ĠWy oming
Ġy esterday
Ġrap per
ĠB ran
Ġsp heres
Ġcalcul us
b ons
ĠR ib
ben ius
Ġfulf illed
Ġhon ored
ĠAssum ing
Ġim pe
Ġo wing
ĠAmeric as
sc ss
Ġcomput es
h ra
Orig in
Ġh anging
Ġcomed ian
ĠD j
Ġar cs
HE AD
ĠChar acter
M iddle
ĠNS W
å Ĳ
ĠT rent
Ġv m
Ġch at
Ġacc red
ĠN ATO
Ġscal ars
ĠJam ie
Ġra infall
ĠFer gus
Ġle ar
c A
Ġprot agonist
ĠLithuan ia
ian e
6 25
ĠC ash
W O
\ ),
i ating
int roduction
estim ated
Ġdiscret ization
Ġmod al
}) ]
FLA G
Base ball
Ġinter ven
ĠLe op
ract ive
Ġarg uing
ring e
Ġsystem atically
ĠTr in
}, {
I sl
Ġodd s
Ġpro sper
ĠK ang
stit uting
or ic
Ġsy s
me ans
h on
agn ostic
Ġspace craft
Ġhel per
Ġtribut ary
f ake
ĠL I
Ġpract ically
30 3
Ġgame play
Ġorigin ating
Ġnephe w
ĠD IS
ĠW ool
ĠE k
con vert
ĠV A
Ġpossess es
ro gate
ide al
23 2
loc ks
ĠAssoci ated
ĠCurt is
ĠW end
ĠCom ponent
ĠInter ior
(" %
Ġg aug
Ã¨ s
phys ics
ĠL R
Ġbl ur
comple t
Ġgrand son
ot ers
28 8
ĠGer ald
Ġcl ay
de composition
Ġdon ations
ĠS pi
ĠW W
J y
as aki
ro ve
ĠM ale
ord ial
ĠSc i
Ġrank ings
ĠHerm itian
we i
) <\
ĠR NA
G ate
Ġlabel ing
coc os
Ġl ith
f its
ĠA sc
min im
t body
ĠS it
ĠE t
ĠK iss
f ri
Ġcommun ist
D W
Ġaccept ing
0 25
ip ur
Ġimport ed
Ġfib re
ĠJess ica
T urn
l if
ĠBarn es
ĠGl oucester
r ina
Ġc ere
ĠR R
set ting
Ġconfigure d
ĠB ee
Ġpack ed
Bel g
ĠK E
ĠK ad
Ġc ipher
ĠE R
}\ ]
Ġsac red
M essages
e cca
ĠDe lete
ĠU FC
Ġch ances
AT CH
p ure
Ġd w
ĠR ac
ĠĠĠĠĠĠĠĠĠĠĠĠĠĠĠĠ Ċ
Ġel ong
ĠWinn ipeg
Ġaut ore
Art icles
Ġauthent ication
s ocial
ĠC av
S ig
Ġcre am
Ġdis advant
22 7
ĠH ull
edd ed
ĠL t
erv ous
ĠFrank furt
ĠSol utions
Ġnurs ing
ĠIn spector
pl ays
ĠSh ore
\| _\
Ġintersect s
Ġforb idden
Ġre vision
Germ any
AC H
ĠDe al
er ef
Ġw rapper
Ġ' -
ĠCy ber
_+ (
w ald
ĠGram my
Fore ign
ĠJ ake
Ġsuscept ibility
ĠRes Net
ĠHy dro
Ġ ----------------------------------------------------------------
Ġrac ism
Ġconfir ms
B esides
amb a
ĠW ire
ĠField s
Ġjust ify
os i
edd y
ĠRobert son
Run ning
Ġcitizens hip
Ġlocomot ive
red shift
... ]
ĠT ennis
amp ire
m om
Ġw reck
Ã± o
Ġra bb
Tur k
habilit ation
ival ent
ĠIniti ative
ĠMink owski
ĠS witch
Ġflo oding
Ġper f
Ġpr imal
k j
Ġaccount ed
NN s
U pon
Ġra id
! (
Ap plying
de velopment
E A
ĠShe ll
Ġrec urrent
Ġrandom ized
ĠTheore ms
ĠCom ments
Ġfe ud
Ġple asure
Ġw eren
Col on
re li
Ġm ism
ĠG em
Ġmes ons
ole y
mod ified
ĠS ave
ris k
s om
ĠFilip ino
at ility
Ġplate au
ĠN J
cl ub
Ġtra vers
Ġsav ings
EN CE
2 14
T imes
V R
ant is
18 1
ĠÐ ¸
ip es
Ġhom eless
Ġgeomet ries
Ġcryst als
R ic
Ġpol ym
Ġpec uliar
ÑĢ Ðµ
ĠM illion
Ġlet s
Ġf reed
set counter
à¤ °
Ġexplan ations
log ic
Ġsw ap
Ġint ensive
Ġs ulf
Ġst up
}) _{\
HER E
3 90
v t
Ñ ħ
am ous
ĠEston ia
O cc
Ġs ubl
Ġstre ak
ĠLo op
class ic
}) -\
dis crete
}| $
ĠW ak
Ġemp ower
g b
ĠLapl ace
Ġtre as
ĠConfig uration
P ubl
if a
Ġal arm
NO DE
Ġg y
Ġexp enses
T rigger
ĠHigh land
Ï ħ
ĠM atter
and ed
ĠTo o
ĠWrit ers
ĠPract ice
ĠWor cester
H i
ĠSer ial
Ġsail ing
Ġbroadcast s
Ġaccommod ation
y x
)$ \
S ite
Ġreven ge
Ġtouchdown s
ĠGL uint
d iam
ĠD P
Ġ( âĢľ
se cret
Ġro oted
ĠML B
consist ency
oper ators
Ġro d
ĠContin ental
ĠCh uck
ew ard
ĠEm ploy
N s
et z
ĠÃ ĸ
ĠFight ing
pr iv
ĠBor is
B AR
Ġf antastic
t uning
Ġcon qu
ĠCar roll
W arning
ĠL ives
ographer s
ar ians
Ġmo ist
ĠK ab
ĠZ ag
'' )
c ass
'' (
Ġp ent
Ġobser vers
Ġlack ing
Inst ead
Ġpars ed
Ġimprison ment
ĠCl uster
am ount
ĠN AME
ĠRoll ing
Te X
T B
pos it
din and
00 6
ĠGu ards
i ph
ĠKe ep
ere z
ĠEv angel
ĠAh mad
to pe
Ġsuggest ion
Ġspecific ations
ĠMor rison
ĠLyn n
le ys
Ġtack les
ĠEd monton
J ones
ion ization
row e
Ġvis itor
ext ended
ĠSch midt
bal anced
Ġang ry
Ġinter rupt
Ġag enda
Ġprop ri
p id
." ""
Ġsl avery
uit ively
Ġwithdraw al
col sep
Ġpup ils
ĠMax im
ä ½
Ġperturb ed
Ġc uisine
ĠA ircraft
plement ed
ĠGeorg ian
R am
gl ass
ion ic
Capt ure
Ġrepro duced
m or
ĠG ael
Ġp ig
pos er
C ut
o que
ĠI X
Ġscr atch
h w
ĠB oh
ĠL omb
ĠLy on
ĠN acional
ĠSerge ant
ĠK aw
C orn
Ġaugment ation
acknowled gments
Ġaccum ulated
ĠH yp
ĠAb original
K w
Ġtour ists
Ġwid get
Ġund ers
IM IT
m atter
en ic
Ġh ung
ĠA ve
Ġcr ashed
disc uss
ĠC risis
ev o
el ic
if les
ph rase
Ġprompt ed
em ia
24 8
Ġun bounded
Ġtechn ological
vis ual
ĠSh ir
2 16
k ubernetes
ĠBe a
d yn
Ġop posing
J ournal
li ers
ĠToy ota
Ġr ivals
Ġfor um
Ġlogarith m
ĠEug ene
ĠH ood
mathb in
ĠĠĠĠĠĠĠĠĠĠĠĠĠĠĠĠĠĠĠĠĠĠĠĠĠĠĠĠĠĠĠĠ ĠĠĠĠ
B all
Ġelder ly
r x
prec ision
m essages
E th
Ġco ached
Ġsubsequ ence
ĠSta kes
ĠC off
st rain
D Y
ĠColl abor
m embers
}}$ -
× Ļ
ĠB un
Ġinter im
eff ects
ak is
re duced
il ion
Ġcap ita
ĠL ed
ĠCom pton
ĉĉĉĉ Ċ
ĠZ amb
) &=&
K en
Ġval uation
ĠBi ology
Ġle mm
Ġgeomet rical
Ġminim a
r vert
CON FIG
ĠCon struct
Ġcontain ers
Athlet es
Ġsculpt or
ath olic
ĠL az
Ġle an
Ġpurs uit
} </
ĠB il
Ġoverwhel ming
un known
Ġvers a
ircl ed
P ot
Ġhon ours
atern ity
Acknowled gments
Ġste ering
50 1
Type Def
Ġtri plet
ĠBur ton
ĠElli ott
ĠB end
Ġinf ect
IS O
Ġprem ises
R h
ĠH ern
communic ations
B attle
Ġg ods
ord e
Ex ists
Ġme al
get Element
Ġem ploys
ĠJ et
ĠPoint s
" ];
ĠDub ai
ĠDirect ors
at um
Mult iple
ĠF ol
ĠF ra
aj ax
Ġcust ody
L ines
ĠAd rian
ut orial
Ġdisc s
spec ified
Ġinterview ed
Dep th
ĠP irates
ĠQu ery
Ġvin yl
rem arks
Ġoff line
Ġtra ils
, âĢĻ
C as
ĠW ald
vi k
Cont ract
od rom
sc attering
ant ed
quarter ed
ram er
ĠL ines
Ġparameter ized
Ch anges
S us
g reat
ĠI SM
Ġsp y
Ġcru ise
Ġf ier
UR CE
)\ |
, -\
mod ern
Ġtrunc ation
Ver ify
n Ã©e
Ġse ized
Ġm oll
ĠĠĠĠĠĠĠĠĠĠĠĠĠĠĠĠĠĠĠĠĠĠĠĠĠĠĠĠĠĠĠĠ ĠĠĠĠĠĠĠĠĠĠĠĠĠĠĠ
38 4
Ġshe ep
ĠIs ing
Ġfinal e
em ption
L EN
ĠP arameters
ĠJ i
P F
sh ine
ĠAn at
cf g
Ø§ ÙĦ
Ġch orus
ĠC IA
Ep isode
Ġt ong
ĠC W
Sh ader
ĠProt ocol
ĠG othic
ĠR ica
Trans fer
Ġb ore
Ġchar set
l Vert
ad os
Ġenc ryption
Ġm ere
ĠC AN
ĠNad u
Ġpric ing
iz za
}{ |\
ĠPart icip
pres erving
cer pt
< !
Ġresemb les
Ġpostpon ed
ir atory
ĠWal sh
ust ed
ĠAp plied
su cc
18 34
Ġdefault s
CON T
Ġ& &\
s sec
Ġf Ã¼r
ins k
Ġqu it
M i
22 8
osp heric
y z
dom in
ĠU t
Ġdiscontin ued
ren ces
Ġident ically
es ch
Ġpl aint
clud es
26 5
Ġfar mer
AV E
ĠParalymp ics
ock ets
Ġpresum ably
' }}
G h
Del ay
e ither
Ġsp ark
ĠMy r
ĠExper ience
ĠM emphis
Ġval ence
ĠFe ynman
ĠAtt ack
ĠF ashion
cor related
Ġg i
ĠP oss
Ġg odd
ĠBel ow
Ġtrac ed
}) /
ĠM Hz
Ġtal ented
ĠE RA
ular ity
Ġer upt
Ġep it
ĠEconom y
ĠProduct s
Ġnot ification
Ġpres idency
os cal
$ }.
Ġ\ }$.
IN ST
ĠCarol ine
loc ale
Qu ant
Ġsur ge
ĠBas in
maxim um
Ġ($ (
C ancel
U TE
ch y
Ġshe ets
ĠAg ent
friend ly
tr uth
Å Ļ
struct ures
d ifference
us r
ort ex
Ġperm its
Ġsix teen
Ġcasc ade
e conom
on er
Ġc ig
00 8
iel sen
ĠEll en
Ġh oney
() ),
dot sc
ĠHy per
Dist ance
Ġ\ ;\
ĠS ession
ĠT rip
C Y
Ġre actor
Ġic onic
r put
ĠG rim
Ġ< -
is Array
ĠH ip
ĠH ook
Ġappropri ately
Den ote
Ġrespons ibilities
+ {
he nd
Ġpre y
Ġn urse
ĠTour ism
ĠTh r
ĠCan terbury
Ġtheore tically
ĠG ol
ĠGL sizei
Republic an
Ġinstitution al
M obile
byter ian
Ġcon ject
li o
Ġinvest ed
cccc cccc
Ġin cur
ex plicit
Map per
30 5
Ġiter ate
18 15
Ġc otton
Ġweak ness
Ġtrivial ly
rell a
ba um
}= (\
Li u
Ex pect
le ave
tt i
ĠN H
lock ed
Ġaut umn
ĠS G
ĠR az
ĠR V
co q
ĠS ometimes
Ġcong ru
Ġh ometown
ĠK ot
ious ly
22 3
Ġe ject
Ġst yl
un al
Re act
cy cles
A mazon
ĠB j
Ġgra ce
Ġlect ures
24 6
Ġret ro
ĠChe ss
ura i
ĠAnd rea
Ġincorpor ates
Ġwitness ed
ast ro
ĠTerm s
L ists
run ner
J eff
Q R
print ln
Ġt iles
ol utions
ĠA LL
an ian
Column s
âĦ ¢
ĠH ER
ly mouth
mat ched
cam el
Ġthir teen
Ġt u
Ġst ems
ĠRes erved
Ġresidual s
ĠK K
inv est
Ġintersection s
Ġstrugg led
ĠExp ression
Ġen closed
Cl aim
ĠSur rey
ĠCoal ition
a ine
Ġvisual ization
Ġb ones
od i
Ġret iring
ac cur
sp arse
oc c
ĠJul ie
ra f
Ġclass Name
Ġequ iv
ĠLuther an
Ġconsum ed
ĠStef an
Ġhe ir
Ġpost er
ĠK w
Ġsub script
Ġaccum ulation
****** /
g ae
der r
in ous
j ournal
d ifferential
Ġi OS
ãĢ Ĥ
ĠM ing
Ġex tern
Ġrel uct
23 7
Ġs b
Ġk ings
Ġre wards
les h
ĠH appy
ĠElect ronic
ĠS SL
Pop ulation
Ġ ~~
y en
c F
th ood
Ġcast ing
ĠT roy
ĠChief s
ĠCh ain
Ġw is
SE C
Ġeduc ator
m x
Ġsub manifold
esc u
lik elihood
S and
Ġpriv ately
D ar
pe x
d ense
Ġexpl ores
Ġl od
bl ob
Us ers
al an
Ġmon oidal
ou rable
Ġup stream
dep recated
ĠIl legal
Ġreb els
Ġcorpor ation
Ġ$< $
ĠSe ctions
: @"
Ġre min
Res et
Ġl oses
ĠMar co
å Ń
ĠS ed
LE S
H erm
Sup ported
inst on
ĠN atal
bi as
tan h
ĠSt ruct
ĠBel grade
Ġs ack
Ġsh aded
ĠL STM
ĠStaff ord
ĠT ick
Ġbatter ies
ĠP ine
Ġgoal keeper
incre asing
Ġs our
Im ages
Serial ization
is ure
es pecially
19 1
Ġsurn ames
Ġdwar fs
ĠR ash
Ġfa una
h alo
ĠR as
Ġexpect s
Ð ³
m v
um en
ĠSc ript
Ġ$ _
if ax
ich t
ĠV iv
CO MM
rend ered
role um
ĠU nd
con tainers
Ġse al
Ġra ises
Ġprohib ited
Ġpost ing
ropol is
ĠX I
Ġlift ing
Ġterm inated
Un like
Ġrebell ion
18 33
Ġcho oses
Ġaut obi
}\ }
ĠC od
ta iled
ĠKing ston
Ġge ographical
c art
os er
$ },
ĠAgric ultural
Ġtim estamp
is ible
append Child
ĠAd vert
Ġf ut
Ġshow er
ĠPaul i
ta k
E U
ĠAr senal
onic a
ID TH
Ġpick ing
ĠLiter ary
ĠTh ank
ĠDist ribution
date picker
ĠSand ers
Ġmac roscopic
ĠA id
C tx
E W
Ġemploy er
ĠF raser
agn et
Ġd st
em ission
ĠCol lections
rop a
ĠCard iff
Ġcongress ional
ĠWag ner
/ _
f v
Ġh iding
Ġ( -\
Ġfil ament
ĠB oltzmann
ĠV or
Pack et
Ch icago
M AN
st ick
ft s
und ers
Î º
Ġliter acy
Ġannot ations
Ġdam ages
Ġna ive
c ro
il is
Ġgen res
Ġce iling
includ es
ific ates
v ae
ĠD w
ĠEvery thing
ĠSt orage
Ġtra ff
ĠC N
rac ed
Ġdem o
Music ians
Ġadvers ary
Ġco operative
Ġ iv
ident ial
, [
Ġt il
mat ches
R GB
v x
ut i
B asketball
Ġ\ "
Ġtact ics
ĠM ode
ĠLud wig
M ixed
f ine
ĠS ugar
ta ine
ill i
armaceut ical
Ġdipl omat
ĠD rop
Ġcylind rical
cf c
G ER
Ġcomm utes
ma re
Ġsub algebra
Ġal beit
e as
ng th
ĠMil ky
ĠCompan ies
ĠSt ructure
Ġthe or
ĠP Ã©
Ġtra its
Ġcapt ion
preced ented
U pload
ĠAut om
Ġindic ators
Ġspin or
ĠT rial
ad ors
f ried
ĠSe oul
Ġstrugg les
Ġload s
Ġf t
ro tt
dis p
Ġhaz ard
ĠG ur
Ġre ass
ĠBel t
Sep ar
Ġunve iled
ĠM eyer
s ampling
ak o
Ġleg ally
Ġprot ons
C zech
ch urch
Ġdis ability
Ġsk et
asc ar
il ogy
Ġprot esters
Ġemploy ers
x it
ĠJo el
ĠBra h
Ġur ged
Ġs oc
ĠY emen
ĠI z
Ġtub es
l is
Ġre jection
media wiki
Ġsurprising ly
Ġ ibn
at op
ĠÐ ½
over ed
C SS
Ġheav ier
âĢ ł
Ġserv ant
; )
s igned
orne ys
ĠCh andra
Ġ\ '
ĠS ustain
oul os
ĠB rain
ĠT ank
Ac cept
× ķ
upd ated
IM P
È Ľ
ĠJ ets
stud y
T AG
ĠH our
RE CT
[ -\
Ġ um
im ming
part icles
rowe ak
ens ing
print s
Ġtet ra
B ell
Seg ment
is ol
sh are
Ġfound ations
ĠExped ition
ĠCh arg
Ġinduct ive
Ġluminos ities
S on
IO Exception
Port ug
m ile
ĠChe ng
ĠLiber ation
in vert
ĠR up
Ġbott le
Ġbeet le
Ġin tact
ĠK um
au f
Ġintu ition
T Y
Ġdecom posed
Ġvacc ines
ĠRe in
ĠH app
)/ (
Americ a
0 12
Ġ= ====
any a
S erv
Ġfair ness
approp riate
M icro
Ġpro poses
ĠT error
ide a
oh an
Ġl uck
me chan
Ġn erve
ĠSe lection
ta rea
or ov
Ġtest imony
ĠGi ovanni
Ġprog ression
f rames
Ġf ool
Ġdist ribute
Ġtrac ing
ĠSu ite
ĠPer haps
ĠMov ies
icens es
h c
ĠW ave
Ġposition ed
ĠD iana
Ġbur ial
Ext ensions
Ġlast ing
ĠGu atem
MP L
) &\
B ank
ss l
Ġfac ial
set t
Ġwant ing
us ually
log ical
Ġsem icon
Valid ator
ĠIndust ries
P aint
ĠV III
ĠVeh icle
co herent
P en
Ġn itrogen
Ġquestion ed
et itive
ĠE isen
ĠReport s
H ello
Ġb ab
ad al
Ġhand ful
ĠTh ir
por ter
and i
_{ *
Ġf uck
Ġ\| _
c rop
Ġestabl ishes
ĠMont eneg
ĠS B
Ġ{ *}
ru ce
Ġmult ivariate
Ġdomin ance
' |
Ġsk ull
ĠHand le
ĠMichel le
Ġrepl ied
ĠMar ri
ĠOpt im
Ġn est
CO VID
Ġl ov
Ġg re
ĠP am
ex c
Ġf ights
Ġkn ots
+ (\
ĠS par
Ġtrust ed
Ġconscious ness
UR N
Ġple ased
Prior ity
ym es
) ^{(
ĠV it
Ġrel ativity
Ġexplo ited
ass ets
ast ing
Ġdis charge
P OS
st ability
M unic
g z
let ed
Ġprof its
Ġpart on
che ss
Ġtru cks
Ġmanuscript s
bes gue
W D
-- (
ĠCath olics
Ġgl obe
g m
Ġ' _
K a
Col lect
> "
Ġend ors
Ġw age
box times
ĠLaw s
ĠNot re
u ction
Ġre lying
to Be
Ġpr imes
ĠAl low
elastic search
ĠJ ourney
gra ined
en ko
I ran
T aylor
ĠS isters
ĠLe ad
th anks
Ste ve
Ġveget ation
d word
Ġhe uristic
}) (\
ĠVari ous
Ġbankrupt cy
ĠM eta
Ġin sects
ĠR isk
Ġstory line
Ġgo og
Ġaband on
)} )$
Que en
Ġacc us
ch ard
att ention
Ġtorn ado
Ġp ad
ĠBul let
con verted
ĠCon sumer
ind ices
Ġperform er
\, ,\
r atic
ad ia
Ġexclud ing
A ST
ĠDay ton
ĠSil va
ĠNapole on
and ez
Ġsp arsity
Ġlaunch ing
ĠR oc
Car thy
comm ission
ĠMe h
head ed
parent Node
esc ape
ĠSte phan
Ġextrem al
M AC
MB ER
N ick
P V
da ugh
ĠEff ect
board s
isp here
< -
ow itz
}} /
Ġter rible
C od
in x
ann ah
RE T
Ġgroup ed
Ġpresent er
ign e
Ġafter math
Ġfour teen
IL ITY
refer ences
Ġ ^{-
Ġmod elled
Ġmet er
ĠM ales
Ġacc idents
Ġdisp atch
)) =\
an mar
ĠH iro
B an
b right
Ġcrit ically
pre ceq
iz ational
Ġorgan ize
Ġwrest lers
Ġ rip
ur ally
ĠP u
Ġplaus ible
ĠComb at
vi Äĩ
ĠCom parison
Hung arian
ĠG alois
j q
Ġst aged
rr bracket
ĠBar b
ĠFil ter
ĠC MS
ĠD ew
Ġadopt ing
u o
direct ory
ĠYuk awa
Ġopt ically
IL D
n ational
ĠM oses
ens pace
Ġchar m
Ġbow l
p ark
Ġfre estyle
Ġen rich
Ñģ Ðº
Ġmet ast
Re ason
c ub
Ġhur ricane
ed ar
Ġattach ment
" =>
o S
ĠS ame
ĠD ong
ly m
L ang
Aut hentication
contin ue
ĠStat istical
3 15
Ġin scription
ĠGener ate
Ġswim mers
ĠS USY
op pler
ĠNik ol
ĠDise ase
ĠSub sequently
Nov els
year s
ĠSo ph
Ġc ater
bl ocks
vent ional
Ġfix es
ĠD rew
Ġred ist
Part icip
Ġhom osex
Ġle ather
ĠP NG
Ġd ancers
ĠH z
Ġnew er
â Ĩ
ĠC ould
ĠW inner
Ġcomp ile
Ġmach inery
ĠSant os
c C
Ġout lets
Ġexpress ing
Ġproceed ed
ĠRich ards
CT YPE
ĠEmm y
Ġt ilt
ot ics
Ġanomal ies
en ary
are l
ato es
})- (\
ĠUtt ar
ic ism
ĠC avalry
Ġend ings
Ad am
\ &
sh an
Pac ific
ĠAlban ia
sc an
ĠOs lo
ĠPsych ology
Ġsaxoph one
ĠC ounsel
Ġse aled
Ġsl ots
ĠTh ink
keep ing
$ |
ĠRel igion
stad t
gener ator
Sur face
ll bracket
\ #
Ġhar sh
Ġambig uity
] }(
z on
ĠS leep
ĠL ah
Ġp ocket
J P
rac use
Ġassert True
Ġcollect or
Ġdeform ations
a q
ĠBrad ford
Ġperipher al
ir ling
sw ap
ĠMarsh al
Q C
} ')
Ġst air
osp in
Ġdie lectric
Ġanxi ety
Ġgrand mother
Spe ed
Ġafford able
ĠR out
Ġwhere in
Ġhousehold er
Ġm aj
18 25
** *
ĠF ollow
ely n
imens ional
ĠMal colm
d dots
Ġf are
)\ }$
Ġmotor cycle
ĠH ers
~ ,
m otion
ĠD awn
ĠSer ie
' ].
ĠH oll
Ġkinem atics
press ure
ĠPublisher s
ĠSloven ia
0 15
ĠB B
ĠTrans form
Ġex clusion
Met ric
ar ag
Ġdeb ris
univers al
class ification
ob ic
Ġdepict ing
GLE W
ut ors
Ġbl ame
ĠComput ing
ateg or
K P
S und
ĠP ione
C ycl
22 9
vect ive
ll l
D ark
Ġflow ing
Ġant iqu
G ar
Ġnecess ity
ros se
Ñ Ĩ
Lower Case
ed uc
ĠBud apest
ĠGarc ia
ĠAtl as
Ġrecur sion
ĠP f
}$ }\
Ġrot ations
ĠC areer
18 10
ĠAp ollo
omet ime
ĠEl se
Ġcontribut or
Ġ umb
ĠBened ict
Ġf ocal
ĠB ac
pro port
H ist
ĠCh al
rem ote
M as
Ġsur render
qu asi
Ġen sembles
Ġca ution
Ġp ier
ĠH ubbard
ap unov
ĠL ay
Ġdifferent iation
Ġrefer enced
Ġpenal ties
Ġgener als
ĠLe besgue
ĠMc N
iduc ial
Ġpos es
lo o
ĠHug o
histor ic
A k
dom inated
ĠK oh
ĠD iet
Ġmon ster
Ġsat urated
ighth ouse
F ast
Ġsuppor ter
ter min
Ġterm ination
head s
[ $\
Ġa fraid
ia e
V ICE
Ġj er
o ct
Ġgraph ical
Ġfold ed
23 9
ograph s
utr ino
Ġcontradict s
ĠC FT
Rel ative
Ġ ig
ĠKh al
Ġin consistent
Ġ' $
ĠNew man
Ġex ile
- {
H W
ma ven
ov i
sp acing
ĠUlt imate
ĠTreas ury
Ã ®
M pc
ĠWrit er
Ġphon on
H an
ass is
cell s
ĠLog an
ĠM oss
Ġcal m
Ġcustom s
Ġdead line
pg f
Ġwe ird
Ã© m
23 3
{ ,
Ġdo i
ĠHead quarters
ĠM ell
Ġdis hes
25 8
ĠG an
Dig ital
18 28
{( -
' =\
Ġn it
cur ves
Ġpat ri
ogen esis
$. \\
Ġpublisher s
ĠF olk
": "
M ust
\ >
ĠMar ion
: '
G rant
ĠBas il
ĠCorn ell
v card
}$ \,
Ġpiece wise
ĠC raft
rag ma
Ġconstit utes
Ġheter ogeneous
ĠJava Script
Cl imate
ĠHol ocaust
Cre ated
Ġformul ae
ĠEd gar
Ġpersonal ities
Comp iler
m h
Ġsuper position
ĠBur ke
Ġcare ers
ĠColon ial
D isk
Ġwrest ler
ĠBrand on
Ġreg ulated
ĠPant hers
ĠUS D
SD L
Ġbe ings
ĉĉ Ġ
Ġc razy
[ ->]
ĠU T
ĠMar tha
Ġswit ches
b rown
+ |\
Ġc c
ĠW on
car bon
Ġback bone
Ġillust rations
ĠChar ter
S ix
Nor wegian
ĠD und
Ġfragment ation
Ġpractition ers
Ġl on
ĠI stanbul
ĠĠĠĠĠĠĠĠĠĠĠĠĠĠĠĠĠĠĠĠĠĠĠĠĠĠĠĠĠĠĠĠ ĠĠĠĠĠ
spect ra
ĠJes se
Ġparametriz ation
[...]
