{
  "version": "1.0",
  "truncation": null,
  "padding": null,
  "added_tokens": [
    {
      "id": 0,
      "content": "[UNK]",
      "single_word": false,
      "lstrip": false,
      "rstrip": false,
      "normalized": false,
      "special": true
    }
  ],
  "normalizer": null,
  "pre_tokenizer": {
    "type": "Sequence",
    "pretokenizers": [
      {
        "type": "Digits",
        "individual_digits": false
      },
      {
        "type": "ByteLevel",
        "add_prefix_space": false,
        "trim_offsets": true,
        "use_regex": true
      }
    ]
  },
  "post_processor": null,
  "decoder": null,
  "model": {
    "type": "BPE",
    "dropout": null,
    "unk_token": "[UNK]",
    "continuing_subword_prefix": null,
    "end_of_word_suffix": null,
    "fuse_unk": false,
    "byte_fallback": false,
    "vocab": {
      "[UNK]": 0,
      "!": 1,
      "\"": 2,
      "#": 3,
      "$": 4,
      "%": 5,
      "&": 6,
      "'": 7,
      "(": 8,
      ")": 9,
      "*": 10,
      "+": 11,
      ",": 12,
      "-": 13,
      ".": 14,
      "/": 15,
      "0": 16,
      "1": 17,
      "2": 18,
      "3": 19,
      "4": 20,
      "5": 21,
      "6": 22,
      "7": 23,
      "8": 24,
      "9": 25,
      ":": 26,
      ";": 27,
      "<": 28,
      "=": 29,
      ">": 30,
      "?": 31,
      "@": 32,
      "A": 33,
      "B": 34,
      "C": 35,
      "D": 36,
      "E": 37,
      "F": 38,
      "G": 39,
      "H": 40,
      "I": 41,
      "J": 42,
      "K": 43,
      "L": 44,
      "M": 45,
      "N": 46,
      "O": 47,
      "P": 48,
      "Q": 49,
      "R": 50,
      "S": 51,
      "T": 52,
      "U": 53,
      "V": 54,
      "W": 55,
      "X": 56,
      "Y": 57,
      "Z": 58,
      "[": 59,
      "\\": 60,
      "]": 61,
      "^": 62,
      "_": 63,
      "`": 64,
      "a": 65,
      "b": 66,
      "c": 67,
      "d": 68,
      "e": 69,
      "f": 70,
      "g": 71,
      "h": 72,
      "i": 73,
      "j": 74,
      "k": 75,
      "l": 76,
      "m": 77,
      "n": 78,
      "o": 79,
      "p": 80,
      "q": 81,
      "r": 82,
      "s": 83,
      "t": 84,
      "u": 85,
      "v": 86,
      "w": 87,
      "x": 88,
      "y": 89,
      "z": 90,
      "{": 91,
      "|": 92,
      "}": 93,
      "~": 94,
      "¡": 95,
      "¢": 96,
      "£": 97,
      "¤": 98,
      "¥": 99,
      "¦": 100,
      "§": 101,
      "¨": 102,
      "©": 103,
      "ª": 104,
      "«": 105,
      "¬": 106,
      "®": 107,
      "¯": 108,
      "°": 109,
      "±": 110,
      "²": 111,
      "³": 112,
      "´": 113,
      "µ": 114,
      "¶": 115,
      "·": 116,
      "¸": 117,
      "¹": 118,
      "º": 119,
      "»": 120,
      "¼": 121,
      "½": 122,
      "¾": 123,
      "¿": 124,
      "Â": 125,
      "Ã": 126,
      "Ä": 127,
      "Å": 128,
      "Æ": 129,
      "Ç": 130,
      "È": 131,
      "É": 132,
      "Ê": 133,
      "Ë": 134,
      "Ì": 135,
      "Í": 136,
      "Î": 137,
      "Ï": 138,
      "Ð": 139,
      "Ñ": 140,
      "Ò": 141,
      "Ó": 142,
      "Ô": 143,
      "Õ": 144,
      "Ö": 145,
      "×": 146,
      "Ø": 147,
      "Ù": 148,
      "Ú": 149,
      "Û": 150,
      "Ü": 151,
      "Ý": 152,
      "Þ": 153,
      "ß": 154,
      "à": 155,
      "á": 156,
      "â": 157,
      "ã": 158,
      "ä": 159,
      "å": 160,
      "æ": 161,
      "ç": 162,
      "è": 163,
      "é": 164,
      "ê": 165,
      "ë": 166,
      "ì": 167,
      "í": 168,
      "î": 169,
      "ï": 170,
      "ð": 171,
      "ó": 172,
      "ô": 173,
      "Ā": 174,
      "ā": 175,
      "Ă": 176,
      "ă": 177,
      "Ą": 178,
      "ą": 179,
      "Ć": 180,
      "ć": 181,
      "Ĉ": 182,
      "ĉ": 183,
      "Ċ": 184,
      "ċ": 185,
      "Č": 186,
      "č": 187,
      "Ď": 188,
      "ď": 189,
      "Đ": 190,
      "đ": 191,
      "Ē": 192,
      "ē": 193,
      "Ĕ": 194,
      "ĕ": 195,
      "Ė": 196,
      "ė": 197,
      "Ę": 198,
      "ę": 199,
      "Ě": 200,
      "ě": 201,
      "Ĝ": 202,
      "ĝ": 203,
      "Ğ": 204,
      "ğ": 205,
      "Ġ": 206,
      "ġ": 207,
      "Ģ": 208,
      "ģ": 209,
      "Ĥ": 210,
      "ĥ": 211,
      "Ħ": 212,
      "ħ": 213,
      "Ĩ": 214,
      "ĩ": 215,
      "Ī": 216,
      "ī": 217,
      "Ĭ": 218,
      "ĭ": 219,
      "Į": 220,
      "į": 221,
      "İ": 222,
      "ı": 223,
      "Ĳ": 224,
      "ĳ": 225,
      "Ĵ": 226,
      "ĵ": 227,
      "Ķ": 228,
      "ķ": 229,
      "ĸ": 230,
      "Ĺ": 231,
      "ĺ": 232,
      "Ļ": 233,
      "ļ": 234,
      "Ľ": 235,
      "ľ": 236,
      "Ŀ": 237,
      "ŀ": 238,
      "Ł": 239,
      "ł": 240,
      "Ń": 241,
      "ĠĠ": 242,
      "Ġt": 243,
      "in": 244,
      "he": 245,
      "Ġa": 246,
      "on": 247,
      "er": 248,
      "re": 249,
      "at": 250,
      "Ġthe": 251,
      "en": 252,
      "or": 253,
      "Ġs": 254,
      "al": 255,
      "ĠĠĠĠ": 256,
      "is": 257,
      "it": 258,
      "an": 259,
      "Ġo": 260,
      "es": 261,
      "ar": 262,
      "Ġc": 263,
      "ed": 264,
      "Ġw": 265,
      "ion": 266,
      "Ġf": 267,
      "Ġof": 268,
      "nd": 269,
      "Ġin": 270,
      "Ġp": 271,
      "Ġb": 272,
      "le": 273,
      "ic": 274,
      "ing": 275,
      "ro": 276,
      "as": 277,
      "Ġand": 278,
      "Ġ\\": 279,
      "Ġd": 280,
      "Ġm": 281,
      "ct": 282,
      "Ġto": 283,
      "Ġ$": 284,
      "el": 285,
      "et": 286,
      "ent": 287,
      "ou": 288,
      "il": 289,
      "ig": 290,
      "am": 291,
      "st": 292,
      "om": 293,
      "Ġre": 294,
      "Ġh": 295,
      "Ġth": 296,
      "ation": 297,
      "ol": 298,
      "ra": 299,
      "ĠS": 300,
      "Ġ(": 301,
      "im": 302,
      "ĠT": 303,
      "Ġn": 304,
      "Ġe": 305,
      "ot": 306,
      "ĠC": 307,
      "Ġl": 308,
      "ĠA": 309,
      "Ġis": 310,
      "id": 311,
      "ĠĠĠ": 312,
      "ce": 313,
      "ĠĠĠĠĠĠĠĠ": 314,
      "iv": 315,
      "{\\": 316,
      "ur": 317,
      "ut": 318,
      "ch": 319,
      "Ġfor": 320,
      "se": 321,
      "ul": 322,
      "Ġg": 323,
      "ĠM": 324,
      "ow": 325,
      "ly": 326,
      "Ġon": 327,
      "ad": 328,
      "ĠI": 329,
      "um": 330,
      "qu": 331,
      "ab": 332,
      "em": 333,
      "us": 334,
      "ith": 335,
      "un": 336,
      "ver": 337,
      "ter": 338,
      "ĠB": 339,
      "Ġst": 340,
      "20": 341,
      "ĠP": 342,
      "Ġbe": 343,
      "od": 344,
      "ir": 345,
      "if": 346,
      "_{": 347,
      "Ġas": 348,
      "Ġcon": 349,
      "Ġthat": 350,
      "ay": 351,
      "th": 352,
      "ath": 353,
      "ag": 354,
      "eg": 355,
      "ĠH": 356,
      "Ġwith": 357,
      "ist": 358,
      "âĢ": 359,
      "end": 360,
      "ĠF": 361,
      "ĠR": 362,
      "ers": 363,
      "Ġ$\\": 364,
      "19": 365,
      "Ġv": 366,
      "ction": 367,
      "ĠThe": 368,
      "Ġal": 369,
      "ĠD": 370,
      "ĠL": 371,
      "pe": 372,
      "and": 373,
      "Ġ=": 374,
      "igh": 375,
      "čĊ": 376,
      "Ġan": 377,
      "ri": 378,
      "Ġpro": 379,
      "her": 380,
      "ac": 381,
      "Ġby": 382,
      "res": 383,
      "ate": 384,
      "ve": 385,
      "ĠĊ": 386,
      "math": 387,
      "est": 388,
      "ĠW": 389,
      "Ġwas": 390,
      "os": 391,
      "ĠN": 392,
      "ĠG": 393,
      "ph": 394,
      "ex": 395,
      "ta": 396,
      "oc": 397,
      "ity": 398,
      "up": 399,
      "ap": 400,
      "rom": 401,
      "op": 402,
      "ĠE": 403,
      "Ġ&": 404,
      "Ġwh": 405,
      "Ġat": 406,
      "Ġde": 407,
      "ub": 408,
      "ight": 409,
      "Ġcom": 410,
      "}\\": 411,
      "Ġex": 412,
      "art": 413,
      "}$": 414,
      "ure": 415,
      "ore": 416,
      "ine": 417,
      "ĠĠĠĠĠĠĠ": 418,
      "^{": 419,
      "Ġare": 420,
      "Ġit": 421,
      "ies": 422,
      "ew": 423,
      "Ġfrom": 424,
      "all": 425,
      "ial": 426,
      "ĉĉ": 427,
      "ess": 428,
      "pl": 429,
      "ill": 430,
      "Ġwe": 431,
      "ite": 432,
      "Ġse": 433,
      "ge": 434,
      "ĠJ": 435,
      "ort": 436,
      "ma": 437,
      "pt": 438,
      "ant": 439,
      "ref": 440,
      "Ġor": 441,
      "ive": 442,
      "ud": 443,
      "ment": 444,
      "ĠO": 445,
      "Ġhe": 446,
      "Ġr": 447,
      "ber": 448,
      "Ġ{": 449,
      "The": 450,
      "ass": 451,
      "}}": 452,
      "ue": 453,
      "iz": 454,
      "ame": 455,
      "ak": 456,
      "Ġ\"": 457,
      "(\\": 458,
      "ld": 459,
      "ect": 460,
      ");": 461,
      "ext": 462,
      "ft": 463,
      "og": 464,
      "ich": 465,
      "nt": 466,
      "rac": 467,
      "our": 468,
      "'s": 469,
      "Ġthis": 470,
      "int": 471,
      "ult": 472,
      "per": 473,
      "ated": 474,
      "ell": 475,
      "ef": 476,
      "cl": 477,
      "ran": 478,
      "egin": 479,
      "ard": 480,
      "begin": 481,
      "ical": 482,
      "ĠU": 483,
      "201": 484,
      "Ġch": 485,
      "ary": 486,
      "und": 487,
      "--": 488,
      "Ġsh": 489,
      "ĠK": 490,
      "Ġy": 491,
      "ian": 492,
      "ip": 493,
      "00": 494,
      "ition": 495,
      "orm": 496,
      "ign": 497,
      "cal": 498,
      ")$": 499,
      "_{\\": 500,
      "),": 501,
      "Ġcl": 502,
      "Ġcomp": 503,
      "ave": 504,
      "Ġle": 505,
      "age": 506,
      "ust": 507,
      "ia": 508,
      "are": 509,
      "Ġnot": 510,
      "ĠIn": 511,
      "Ġpl": 512,
      "}{": 513,
      "ep": 514,
      "Ġ*": 515,
      "ong": 516,
      "ack": 517,
      "ens": 518,
      "ast": 519,
      "ff": 520,
      "Ġres": 521,
      "Ġk": 522,
      "Ġ-": 523,
      "pro": 524,
      "Ġ<": 525,
      "con": 526,
      "ations": 527,
      "},": 528,
      "ug": 529,
      "//": 530,
      "eq": 531,
      "frac": 532,
      "du": 533,
      "Ġwhich": 534,
      "âĢĵ": 535,
      "ire": 536,
      "ĠSt": 537,
      "text": 538,
      "av": 539,
      "able": 540,
      "ost": 541,
      "ĠĠĠĠĠĠĠĠĠĠĠ": 542,
      "equ": 543,
      "port": 544,
      "ord": 545,
      ").": 546,
      "ace": 547,
      "rm": 548,
      "to": 549,
      "ence": 550,
      "Ġcan": 551,
      "ĠV": 552,
      "right": 553,
      "so": 554,
      "ork": 555,
      "Ġus": 556,
      "=\"": 557,
      "ain": 558,
      "cc": 559,
      "ase": 560,
      "ime": 561,
      "Ġwhe": 562,
      "200": 563,
      "ther": 564,
      "Ġhave": 565,
      "cite": 566,
      "Ġ}": 567,
      "abel": 568,
      "ide": 569,
      "low": 570,
      "ions": 571,
      "Ġun": 572,
      "enc": 573,
      "ib": 574,
      "urn": 575,
      "ov": 576,
      "ang": 577,
      "act": 578,
      "ild": 579,
      "In": 580,
      "ric": 581,
      "mathb": 582,
      "the": 583,
      "ind": 584,
      "Ġhis": 585,
      "ear": 586,
      "Ġ|": 587,
      "Ġap": 588,
      "ous": 589,
      "ere": 590,
      "ry": 591,
      "Ġhas": 592,
      "ach": 593,
      "ener": 594,
      "$,": 595,
      "ru": 596,
      "eta": 597,
      "label": 598,
      "ok": 599,
      "Ġim": 600,
      "out": 601,
      "ĠCh": 602,
      "âĢĻ": 603,
      "ish": 604,
      "$.": 605,
      ",\\": 606,
      "over": 607,
      "form": 608,
      "fer": 609,
      "com": 610,
      "Ġab": 611,
      "Ġad": 612,
      "Ġalso": 613,
      "ice": 614,
      "Ġif": 615,
      "erv": 616,
      "18": 617,
      "ĠTh": 618,
      "left": 619,
      "mathcal": 620,
      "ĠĠĠĠĠĠĠĠĠĠĠĠĠĠĠĠ": 621,
      "equation": 622,
      "ile": 623,
      "10": 624,
      "ould": 625,
      "row": 626,
      "unction": 627,
      "ound": 628,
      "ory": 629,
      "Ġj": 630,
      "mer": 631,
      "fig": 632,
      "irst": 633,
      "erm": 634,
      "own": 635,
      "use": 636,
      "Ġ+": 637,
      "Ġar": 638,
      "}.": 639,
      "ec": 640,
      "ents": 641,
      "})": 642,
      "old": 643,
      "wo": 644,
      "ĠĠĠĠĠ": 645,
      "Ġpart": 646,
      "..": 647,
      "Ġsu": 648,
      "Ġmod": 649,
      "Ġwere": 650,
      "</": 651,
      "Ġone": 652,
      "tern": 653,
      "ance": 654,
      "Ġall": 655,
      "tain": 656,
      "ree": 657,
      "Ġcont": 658,
      "rib": 659,
      "ates": 660,
      "ke": 661,
      "}(": 662,
      "ors": 663,
      "ely": 664,
      "Ġsp": 665,
      "clud": 666,
      "ps": 667,
      "rans": 668,
      "Ġob": 669,
      "}^": 670,
      "Ġdis": 671,
      "ata": 672,
      "ress": 673,
      "~\\": 674,
      "amb": 675,
      "ject": 676,
      "line": 677,
      "ie": 678,
      "ally": 679,
      "we": 680,
      "ark": 681,
      "ple": 682,
      "rit": 683,
      "}_": 684,
      "ome": 685,
      "ount": 686,
      "ll": 687,
      "ose": 688,
      "sum": 689,
      "pha": 690,
      "ob": 691,
      "turn": 692,
      "sp": 693,
      "Ġqu": 694,
      "ics": 695,
      "pect": 696,
      "alpha": 697,
      "Ġme": 698,
      "ode": 699,
      "Ġper": 700,
      "ring": 701,
      "Ġbut": 702,
      "da": 703,
      "ype": 704,
      "ubl": 705,
      "Ġro": 706,
      "Ġfirst": 707,
      "**": 708,
      "Ġtwo": 709,
      "Ġev": 710,
      "ray": 711,
      "iel": 712,
      "ĠY": 713,
      "che": 714,
      "Ġtheir": 715,
      "one": 716,
      ")\\": 717,
      "Ġout": 718,
      "te": 719,
      "ne": 720,
      "ks": 721,
      "Ġits": 722,
      "Ġfunction": 723,
      "oint": 724,
      "imes": 725,
      "ular": 726,
      "Ġ'": 727,
      "Ġ||": 728,
      "ĠUn": 729,
      "Ġnew": 730,
      "Ġsy": 731,
      "Ġset": 732,
      "mb": 733,
      "ĠIt": 734,
      "ari": 735,
      "get": 736,
      "ĠHe": 737,
      "Ġpre": 738,
      "St": 739,
      "Ġdef": 740,
      "vel": 741,
      "cent": 742,
      "ield": 743,
      "ambda": 744,
      "==": 745,
      "ng": 746,
      "elta": 747,
      "$\\": 748,
      "Ġup": 749,
      "Ġother": 750,
      "Ġclass": 751,
      "Ġwill": 752,
      "ational": 753,
      "lect": 754,
      "Ġval": 755,
      "rad": 756,
      "fter": 757,
      "199": 758,
      "ix": 759,
      "ollow": 760,
      "Ġover": 761,
      "Ġ[": 762,
      "Ġplay": 763,
      "ution": 764,
      "of": 765,
      "Ġinter": 766,
      "pec": 767,
      "Ġdes": 768,
      "raph": 769,
      "amma": 770,
      "ho": 771,
      "umber": 772,
      "set": 773,
      "12": 774,
      "ond": 775,
      "ater": 776,
      "ied": 777,
      "Ġint": 778,
      "Ġman": 779,
      "les": 780,
      "Ġhad": 781,
      "ss": 782,
      "Ġte": 783,
      "Ġtime": 784,
      "ize": 785,
      "aram": 786,
      "_\\": 787,
      "ĠâĢĵ": 788,
      "mathbb": 789,
      "Ġag": 790,
      "pos": 791,
      "ugh": 792,
      "mu": 793,
      "=\\": 794,
      "iss": 795,
      "li": 796,
      "cre": 797,
      "ys": 798,
      "Ġwork": 799,
      "}_{": 800,
      "Ġind": 801,
      "Ġmore": 802,
      "sub": 803,
      "dot": 804,
      "Ġdo": 805,
      "ences": 806,
      "\">": 807,
      "sh": 808,
      "vi": 809,
      "Ġbeen": 810,
      "Ġfollow": 811,
      "stem": 812,
      "Ġen": 813,
      "Ġ\\\\": 814,
      "Ġwho": 815,
      "ĠâĢ": 816,
      "igma": 817,
      "ons": 818,
      "Ġsub": 819,
      "eth": 820,
      "under": 821,
      "Ġform": 822,
      "Ġbet": 823,
      "aw": 824,
      "hed": 825,
      "}^{": 826,
      "ative": 827,
      "ram": 828,
      "ased": 829,
      "orn": 830,
      "ool": 831,
      "-\\": 832,
      "hat": 833,
      "Ġwhere": 834,
      "sc": 835,
      "ict": 836,
      "Ġver": 837,
      "()": 838,
      "ined": 839,
      "Ġdif": 840,
      "Ġresult": 841,
      "----": 842,
      "Ġcol": 843,
      "tt": 844,
      "Ġyou": 845,
      "ual": 846,
      "Ġreturn": 847,
      "ega": 848,
      "roup": 849,
      "ced": 850,
      "Ġconst": 851,
      "Ġne": 852,
      "^{\\": 853,
      "Ġthey": 854,
      "phi": 855,
      "inal": 856,
      "Ġso": 857,
      "Ġcons": 858,
      "Ġreg": 859,
      "Ġonly": 860,
      "resent": 861,
      "ook": 862,
      "ock": 863,
      "ings": 864,
      "Ġsuch": 865,
      "ĠWe": 866,
      "ublic": 867,
      "oth": 868,
      "Ġtrans": 869,
      "Ġmodel": 870,
      "Ġher": 871,
      "ax": 872,
      "put": 873,
      "land": 874,
      "ake": 875,
      "ific": 876,
      "gh": 877,
      "Ġdist": 878,
      "ember": 879,
      "ail": 880,
      "lambda": 881,
      "Ġsup": 882,
      "15": 883,
      "ull": 884,
      "ont": 885,
      "Ġinto": 886,
      "Ġwhen": 887,
      "ĠThis": 888,
      "round": 889,
      "Ġrel": 890,
      "Ġthere": 891,
      "Ex": 892,
      "ans": 893,
      "16": 894,
      "pr": 895,
      "Ġsc": 896,
      "io": 897,
      "Ġthen": 898,
      "Ġ{\\": 899,
      "ck": 900,
      "Ġacc": 901,
      "Ġcomm": 902,
      "ople": 903,
      "Ġyear": 904,
      "Ġgener": 905,
      "ited": 906,
      "ween": 907,
      "ince": 908,
      "Ġinclud": 909,
      "ĠSe": 910,
      "ox": 911,
      "der": 912,
      "wid": 913,
      "Ġpos": 914,
      "Ġsim": 915,
      "Ġthan": 916,
      "olog": 917,
      "ward": 918,
      "ating": 919,
      "ĠĠĠĠĠĠĠĠĠĠĠĠĠĠĠ": 920,
      "pi": 921,
      "ral": 922,
      "lem": 923,
      "ert": 924,
      "Ġpe": 925,
      "ann": 926,
      "bf": 927,
      "ption": 928,
      "ruct": 929,
      "mathbf": 930,
      "17": 931,
      "Ġco": 932,
      "dition": 933,
      "ick": 934,
      "ilon": 935,
      "Ġph": 936,
      "Ġequ": 937,
      "meric": 938,
      "lo": 939,
      "align": 940,
      "Ġshow": 941,
      "Ġunder": 942,
      "ise": 943,
      "part": 944,
      "Ġloc": 945,
      "Ġbetween": 946,
      "elf": 947,
      "Ġany": 948,
      "ities": 949,
      "\",": 950,
      "let": 951,
      "section": 952,
      "oot": 953,
      "ivers": 954,
      "ces": 955,
      "Ġour": 956,
      "val": 957,
      "ove": 958,
      "Ġpr": 959,
      "ough": 960,
      "ient": 961,
      "Ġsome": 962,
      "uring": 963,
      "ident": 964,
      "ures": 965,
      "198": 966,
      "arg": 967,
      "Ġdiffer": 968,
      "its": 969,
      "red": 970,
      "sigma": 971,
      "Ġpol": 972,
      "Ref": 973,
      "Ġcor": 974,
      "Ġ//": 975,
      "Ġrec": 976,
      "ility": 977,
      "ues": 978,
      "Ġoff": 979,
      "Ġact": 980,
      "11": 981,
      "ilde": 982,
      "ĠCom": 983,
      "Ġkn": 984,
      "ator": 985,
      "Ġgo": 986,
      "^{-": 987,
      "ider": 988,
      "Ġfil": 989,
      "app": 990,
      "Ġ(\\": 991,
      "ays": 992,
      "ins": 993,
      "Ġafter": 994,
      "rough": 995,
      "ments": 996,
      "Ġmat": 997,
      "\\\\": 998,
      "bar": 999,
      "Ġdata": 1000,
      "ĠNew": 1001,
      "Ġused": 1002,
      "Ġwould": 1003,
      "amp": 1004,
      "oy": 1005,
      "cond": 1006,
      "beta": 1007,
      "Ġ@": 1008,
      "abl": 1009,
      "ists": 1010,
      "eng": 1011,
      "}{\\": 1012,
      "ĉĉĉĉ": 1013,
      "13": 1014,
      "rt": 1015,
      "col": 1016,
      "arch": 1017,
      "Ġabout": 1018,
      "Ġeach": 1019,
      "Ġi": 1020,
      "Ġgiv": 1021,
      "Ġno": 1022,
      "yn": 1023,
      "als": 1024,
      "Ġatt": 1025,
      "ature": 1026,
      "14": 1027,
      "oun": 1028,
      "Ġsystem": 1029,
      "We": 1030,
      "Ġ.": 1031,
      "ĠAl": 1032,
      "Ġprov": 1033,
      "Ġ/": 1034,
      "Ġtra": 1035,
      "ars": 1036,
      "Ġest": 1037,
      "mathrm": 1038,
      "Ġass": 1039,
      "ible": 1040,
      "+\\": 1041,
      "Ġprodu": 1042,
      "Ġfe": 1043,
      "Ġstud": 1044,
      "Ġnumber": 1045,
      "Refer": 1046,
      "ren": 1047,
      "ĠPro": 1048,
      "gamma": 1049,
      "Ġuse": 1050,
      "*}": 1051,
      "ms": 1052,
      "ik": 1053,
      "Ġ:": 1054,
      "err": 1055,
      "ton": 1056,
      "ev": 1057,
      "Ġshe": 1058,
      "Ġx": 1059,
      "Ġpoint": 1060,
      "21": 1061,
      "Ġthese": 1062,
      "eps": 1063,
      "def": 1064,
      "array": 1065,
      "ily": 1066,
      "ade": 1067,
      "var": 1068,
      "min": 1069,
      "ethod": 1070,
      "rho": 1071,
      "ower": 1072,
      "ames": 1073,
      "âĢĿ": 1074,
      "References": 1075,
      "Ġext": 1076,
      "Ġspec": 1077,
      "air": 1078,
      "Ġlin": 1079,
      "uss": 1080,
      "->": 1081,
      "ĠZ": 1082,
      "ange": 1083,
      "Ġeff": 1084,
      "ized": 1085,
      "ty": 1086,
      "Ġsm": 1087,
      "Th": 1088,
      "Ġinv": 1089,
      "irect": 1090,
      "Ġop": 1091,
      "ĠFor": 1092,
      "^\\": 1093,
      "ote": 1094,
      "Ġline": 1095,
      "Ġbec": 1096,
      "Ġcase": 1097,
      "orld": 1098,
      "ever": 1099,
      "ision": 1100,
      "merican": 1101,
      "]{": 1102,
      "197": 1103,
      "item": 1104,
      "ute": 1105,
      "ĠQ": 1106,
      "Ġprob": 1107,
      "Ġbu": 1108,
      "apt": 1109,
      "theta": 1110,
      "leq": 1111,
      ")}": 1112,
      "here": 1113,
      "Ġmay": 1114,
      "delta": 1115,
      "ash": 1116,
      "ource": 1117,
      "Ġcur": 1118,
      "Ġsol": 1119,
      "Ġmost": 1120,
      "width": 1121,
      "Ġend": 1122,
      "ball": 1123,
      "ctions": 1124,
      "Ġinst": 1125,
      "25": 1126,
      "wn": 1127,
      "Ġpeople": 1128,
      "ey": 1129,
      "chool": 1130,
      "oci": 1131,
      "Ġexp": 1132,
      "cdot": 1133,
      "$-": 1134,
      "Ġget": 1135,
      "cess": 1136,
      "ning": 1137,
      "Ġbl": 1138,
      "tau": 1139,
      "Ġvari": 1140,
      "sy": 1141,
      "ason": 1142,
      "itt": 1143,
      "Ġtr": 1144,
      "Ġent": 1145,
      "par": 1146,
      "ished": 1147,
      "Ġsign": 1148,
      "}$,": 1149,
      "ĠLe": 1150,
      "plic": 1151,
      "}$.": 1152,
      "Ġappro": 1153,
      "Ġrep": 1154,
      "Ġoper": 1155,
      "Ġwell": 1156,
      "att": 1157,
      "figure": 1158,
      "oh": 1159,
      "ization": 1160,
      "ract": 1161,
      "Ġdifferent": 1162,
      "Ġcall": 1163,
      "30": 1164,
      "ement": 1165,
      "Ġname": 1166,
      "Ġfl": 1167,
      "aramet": 1168,
      "any": 1169,
      "Ġfield": 1170,
      "Ġthrough": 1171,
      "Ġsame": 1172,
      "',": 1173,
      "))": 1174,
      "for": 1175,
      "eqref": 1176,
      "hip": 1177,
      "ĠAs": 1178,
      "}(\\": 1179,
      "ĠX": 1180,
      "ĠDe": 1181,
      "big": 1182,
      "gan": 1183,
      "Pro": 1184,
      "ron": 1185,
      "Ġnon": 1186,
      "Ġpublic": 1187,
      "man": 1188,
      "nu": 1189,
      "atic": 1190,
      "22": 1191,
      "Ġserv": 1192,
      "Ġcent": 1193,
      "ike": 1194,
      "Ġele": 1195,
      "Ġvalue": 1196,
      "Ġusing": 1197,
      "Con": 1198,
      "ier": 1199,
      "times": 1200,
      "ause": 1201,
      "Ġgroup": 1202,
      "Ġam": 1203,
      "arrow": 1204,
      "ample": 1205,
      "Ġed": 1206,
      "::": 1207,
      "Ġstate": 1208,
      "hen": 1209,
      "Ġpartic": 1210,
      "iver": 1211,
      "ternal": 1212,
      "partial": 1213,
      "iversity": 1214,
      "ically": 1215,
      "ices": 1216,
      "ah": 1217,
      "Ġsur": 1218,
      "ism": 1219,
      "Ġser": 1220,
      "Ġthem": 1221,
      "Ġchar": 1222,
      "Ġmin": 1223,
      "ern": 1224,
      "196": 1225,
      "Ġboth": 1226,
      "Ġra": 1227,
      "Ġsing": 1228,
      "Ġfollowing": 1229,
      "fty": 1230,
      "ĠSh": 1231,
      "tilde": 1232,
      "Ġback": 1233,
      "quad": 1234,
      "Ġrequ": 1235,
      "Ġfound": 1236,
      "uch": 1237,
      "infty": 1238,
      "Ġterm": 1239,
      "reat": 1240,
      "Ġgiven": 1241,
      "ional": 1242,
      "Ġthree": 1243,
      "mm": 1244,
      "rict": 1245,
      "owever": 1246,
      "Ġagain": 1247,
      "ner": 1248,
      "Ġorder": 1249,
      "Ġsecond": 1250,
      "ĠAn": 1251,
      "Ġ*/": 1252,
      "ink": 1253,
      "Ġhigh": 1254,
      "omega": 1255,
      "rent": 1256,
      "ages": 1257,
      "irc": 1258,
      "eqn": 1259,
      "son": 1260,
      "outh": 1261,
      "gy": 1262,
      "Ġdet": 1263,
      "orth": 1264,
      "ury": 1265,
      "|\\": 1266,
      "oid": 1267,
      "pm": 1268,
      "az": 1269,
      "Ġac": 1270,
      "Ġconsider": 1271,
      "Ġem": 1272,
      "Ġdesc": 1273,
      "aid": 1274,
      "Ġfin": 1275,
      "50": 1276,
      "ife": 1277,
      "yle": 1278,
      "ĠInd": 1279,
      "ases": 1280,
      "Ġperform": 1281,
      "way": 1282,
      "ale": 1283,
      "Ġhim": 1284,
      "ĠâĢľ": 1285,
      "velop": 1286,
      "ER": 1287,
      "serv": 1288,
      "uc": 1289,
      "Ġz": 1290,
      "Ġwhile": 1291,
      "();": 1292,
      "uth": 1293,
      "ively": 1294,
      "this": 1295,
      "ots": 1296,
      "arly": 1297,
      "Ġfact": 1298,
      "very": 1299,
      "sec": 1300,
      "(\"": 1301,
      "000": 1302,
      "ĠCl": 1303,
      "ee": 1304,
      "Ġcre": 1305,
      "Delta": 1306,
      "yp": 1307,
      "ĠCol": 1308,
      "Ġyears": 1309,
      "Ġdec": 1310,
      "Ġlead": 1311,
      "aj": 1312,
      "Ġdisc": 1313,
      "other": 1314,
      "vent": 1315,
      "ĉĉĉ": 1316,
      "Ġduring": 1317,
      "ines": 1318,
      "ĠCon": 1319,
      "Ġmethod": 1320,
      "Ch": 1321,
      "Ġart": 1322,
      "Ġ</": 1323,
      "ining": 1324,
      "24": 1325,
      ".,": 1326,
      "Ã©": 1327,
      "ouse": 1328,
      "ulation": 1329,
      "ross": 1330,
      "ten": 1331,
      "ĠAmerican": 1332,
      "Ġsmall": 1333,
      "ired": 1334,
      "ential": 1335,
      "ural": 1336,
      "center": 1337,
      "work": 1338,
      "xi": 1339,
      "ery": 1340,
      "\\,": 1341,
      "rang": 1342,
      "ful": 1343,
      "ality": 1344,
      "Ġ_": 1345,
      "Ġ$(": 1346,
      "space": 1347,
      "sim": 1348,
      "eb": 1349,
      "arge": 1350,
      "rix": 1351,
      "orem": 1352,
      "Ġ`": 1353,
      "Ġbeing": 1354,
      "formation": 1355,
      "ank": 1356,
      "Ġfam": 1357,
      "resp": 1358,
      "Ġel": 1359,
      "Ġdirect": 1360,
      "by": 1361,
      "Ġstr": 1362,
      "ength": 1363,
      "fl": 1364,
      "ants": 1365,
      "ole": 1366,
      "ather": 1367,
      "view": 1368,
      "Ġsee": 1369,
      "fore": 1370,
      "--------": 1371,
      ")$.": 1372,
      "rid": 1373,
      "====": 1374,
      "ead": 1375,
      "Ġteam": 1376,
      "includ": 1377,
      "umn": 1378,
      "ott": 1379,
      "ĠĠĠĠĠĠĠĠĠ": 1380,
      "$$": 1381,
      "Ġresults": 1382,
      "23": 1383,
      "194": 1384,
      "ology": 1385,
      "Ġeffect": 1386,
      "}}\\": 1387,
      "ared": 1388,
      "ĠUniversity": 1389,
      "Ġrele": 1390,
      "au": 1391,
      "Ġlong": 1392,
      "rop": 1393,
      "Ġstart": 1394,
      "erson": 1395,
      "Ġmany": 1396,
      "Ġobtain": 1397,
      "}[": 1398,
      "ets": 1399,
      "hes": 1400,
      "read": 1401,
      "Ġtype": 1402,
      "ived": 1403,
      "Ġbound": 1404,
      "ters": 1405,
      "Ġparamet": 1406,
      "me": 1407,
      "pend": 1408,
      "ĠSc": 1409,
      "where": 1410,
      "sq": 1411,
      "IN": 1412,
      "overn": 1413,
      "Ġmade": 1414,
      "ript": 1415,
      "Ġadd": 1416,
      "tr": 1417,
      "ability": 1418,
      "Ġbel": 1419,
      "ĠUnited": 1420,
      "ask": 1421,
      "bers": 1422,
      "Ġneed": 1423,
      "ood": 1424,
      "epsilon": 1425,
      "ified": 1426,
      "Ġanal": 1427,
      "eqnarray": 1428,
      "not": 1429,
      "Ġerr": 1430,
      "Ġnow": 1431,
      "****": 1432,
      "bm": 1433,
      "bl": 1434,
      "ST": 1435,
      "ĠAr": 1436,
      "back": 1437,
      "Ġmon": 1438,
      "ency": 1439,
      "Ġmed": 1440,
      "Ġlike": 1441,
      "iqu": 1442,
      "ina": 1443,
      "ele": 1444,
      "Ġcount": 1445,
      "Ġopt": 1446,
      "Ġtest": 1447,
      "mbol": 1448,
      "Ġsince": 1449,
      "Ġbefore": 1450,
      "cept": 1451,
      "atch": 1452,
      "Ġexper": 1453,
      "Com": 1454,
      "ĠĠĠĠĠĠĠĠĠĠĠĠĠĠĠĠĠĠĠ": 1455,
      "els": 1456,
      "ootball": 1457,
      "anc": 1458,
      "Om": 1459,
      "Ġproper": 1460,
      "Ġmeas": 1461,
      "ument": 1462,
      "Ġrepresent": 1463,
      "ved": 1464,
      "Ġcontin": 1465,
      "pon": 1466,
      "Ġmain": 1467,
      "ml": 1468,
      "Ġwrit": 1469,
      "raw": 1470,
      "ission": 1471,
      "ĠAd": 1472,
      "Ġvar": 1473,
      "It": 1474,
      "ober": 1475,
      "Ġprocess": 1476,
      "For": 1477,
      "Ġevery": 1478,
      "usic": 1479,
      "Ġpop": 1480,
      "Ġcould": 1481,
      "}_{\\": 1482,
      "Ġdevelop": 1483,
      "Ġright": 1484,
      "log": 1485,
      "mod": 1486,
      "angle": 1487,
      "Ġstruct": 1488,
      "Ġpresent": 1489,
      "ane": 1490,
      "agn": 1491,
      "Âł": 1492,
      "Omega": 1493,
      "ĠSp": 1494,
      "ior": 1495,
      "aking": 1496,
      "Ġmet": 1497,
      "lex": 1498,
      ".\"": 1499,
      "psi": 1500,
      "ĠOn": 1501,
      "('": 1502,
      "ribut": 1503,
      "iving": 1504,
      "Ġknown": 1505,
      "Ġappe": 1506,
      ")$,": 1507,
      "ON": 1508,
      "Ġsupport": 1509,
      "psilon": 1510,
      "led": 1511,
      "vert": 1512,
      "rel": 1513,
      "Ġmass": 1514,
      "ohn": 1515,
      "Ġjust": 1516,
      "Ġfour": 1517,
      "chn": 1518,
      "Ġrun": 1519,
      "co": 1520,
      "Ġ,": 1521,
      "gram": 1522,
      "^*": 1523,
      "Ph": 1524,
      "ĠEng": 1525,
      "sqrt": 1526,
      "energy": 1527,
      "ĠĠĊ": 1528,
      "ĠEx": 1529,
      "Ġ${\\": 1530,
      "2020": 1531,
      "Ġmult": 1532,
      "istory": 1533,
      "Ġcondition": 1534,
      "ĠFig": 1535,
      "omen": 1536,
      "return": 1537,
      "etwork": 1538,
      "ribution": 1539,
      "Ġelect": 1540,
      "Ġorig": 1541,
      "ives": 1542,
      "Ġlinks": 1543,
      "Ġsaid": 1544,
      "raphics": 1545,
      "med": 1546,
      "Gamma": 1547,
      "AR": 1548,
      "iew": 1549,
      "ival": 1550,
      "ley": 1551,
      "Ġbecause": 1552,
      "100": 1553,
      "respond": 1554,
      "ĠIs": 1555,
      "Ġ#": 1556,
      "ĠShe": 1557,
      "Ġincre": 1558,
      "Ġlarge": 1559,
      "ister": 1560,
      "Ġu": 1561,
      "Ġplayers": 1562,
      "vare": 1563,
      "Ġrespect": 1564,
      "Ġgu": 1565,
      "195": 1566,
      "Ġdescrib": 1567,
      "Ġ>": 1568,
      "Ġshould": 1569,
      "enn": 1570,
      "Ġmov": 1571,
      "ule": 1572,
      "mp": 1573,
      "ger": 1574,
      "Ġfind": 1575,
      "This": 1576,
      "Name": 1577,
      "sk": 1578,
      "Ġspace": 1579,
      "ĠMar": 1580,
      "essage": 1581,
      "ift": 1582,
      "Ġdr": 1583,
      "Ġmem": 1584,
      "32": 1585,
      "AT": 1586,
      "af": 1587,
      "varepsilon": 1588,
      "Ġobserv": 1589,
      "Ġcontain": 1590,
      "Ġlocal": 1591,
      "Ġlist": 1592,
      "til": 1593,
      "Ġincluding": 1594,
      "../": 1595,
      "Ġproblem": 1596,
      "epend": 1597,
      "une": 1598,
      "Ġvery": 1599,
      "As": 1600,
      "position": 1601,
      "Ġobject": 1602,
      "Ġtop": 1603,
      "Ġbased": 1604,
      "Ġhand": 1605,
      "umer": 1606,
      "Ġposs": 1607,
      "Ġ)": 1608,
      "vious": 1609,
      "Ġgeneral": 1610,
      "Ġdoes": 1611,
      "Ġwhat": 1612,
      "ĠčĊ": 1613,
      "ually": 1614,
      "fra": 1615,
      "ĠPh": 1616,
      "Ġlater": 1617,
      "Cl": 1618,
      "...": 1619,
      "ify": 1620,
      "Ġpres": 1621,
      "Ġapp": 1622,
      "ness": 1623,
      "param": 1624,
      "Ġcharact": 1625,
      "ven": 1626,
      "27": 1627,
      "subsection": 1628,
      "Ġrecord": 1629,
      "Ġlim": 1630,
      "Ġown": 1631,
      "Ġ\\,": 1632,
      "ĠPl": 1633,
      "^{(": 1634,
      "olution": 1635,
      "Ġeven": 1636,
      "40": 1637,
      "External": 1638,
      "itive": 1639,
      "textbf": 1640,
      "ateg": 1641,
      "oss": 1642,
      "Ġassum": 1643,
      "urther": 1644,
      "rightarrow": 1645,
      "28": 1646,
      "arn": 1647,
      ")=": 1648,
      "ths": 1649,
      "}=": 1650,
      "26": 1651,
      "ograph": 1652,
      "imens": 1653,
      "opt": 1654,
      "ault": 1655,
      "ĠComm": 1656,
      "ccess": 1657,
      "ense": 1658,
      "Ġseries": 1659,
      "rol": 1660,
      "arri": 1661,
      "Ġrad": 1662,
      "ĠStates": 1663,
      "Ġfilm": 1664,
      "bum": 1665,
      "ij": 1666,
      "ience": 1667,
      "sion": 1668,
      "alse": 1669,
      "Ġ!": 1670,
      "rodu": 1671,
      "bold": 1672,
      "ody": 1673,
      "ital": 1674,
      "Ġopen": 1675,
      "}^{\\": 1676,
      "Type": 1677,
      "Ġrem": 1678,
      "Ġagainst": 1679,
      "ĠCount": 1680,
      "ĠMay": 1681,
      "Ġcurrent": 1682,
      "por": 1683,
      "Ġcorrespond": 1684,
      "://": 1685,
      "capt": 1686,
      "itial": 1687,
      "Ġtem": 1688,
      "Ġallow": 1689,
      "face": 1690,
      "Ġbuild": 1691,
      "omet": 1692,
      "Ġseason": 1693,
      "ration": 1694,
      "Ġstat": 1695,
      "name": 1696,
      "type": 1697,
      "Ġself": 1698,
      "rack": 1699,
      "inc": 1700,
      "ird": 1701,
      "Ġscal": 1702,
      "ret": 1703,
      "ĠRe": 1704,
      "Ġfinal": 1705,
      "cm": 1706,
      "On": 1707,
      "includeg": 1708,
      "includegraphics": 1709,
      "Res": 1710,
      "ht": 1711,
      "):": 1712,
      "Ġenergy": 1713,
      "Ġdesign": 1714,
      "Ġlast": 1715,
      "2018": 1716,
      "div": 1717,
      "Ġdi": 1718,
      "RE": 1719,
      "color": 1720,
      "ĠIf": 1721,
      "cer": 1722,
      "rangle": 1723,
      "non": 1724,
      "rem": 1725,
      "2016": 1726,
      "ek": 1727,
      "tab": 1728,
      "\".": 1729,
      "Ġread": 1730,
      "rand": 1731,
      "lection": 1732,
      "caption": 1733,
      "Ġsever": 1734,
      "Ġrest": 1735,
      "ser": 1736,
      "chi": 1737,
      "less": 1738,
      "Ġyour": 1739,
      "Ġrece": 1740,
      "Ġschool": 1741,
      "ected": 1742,
      "To": 1743,
      "vec": 1744,
      "2015": 1745,
      "aces": 1746,
      "uro": 1747,
      "2019": 1748,
      "Ġident": 1749,
      "Ġhow": 1750,
      "span": 1751,
      "ided": 1752,
      "Ġreal": 1753,
      "requ": 1754,
      "ped": 1755,
      "SS": 1756,
      "ID": 1757,
      "ides": 1758,
      "gor": 1759,
      "ague": 1760,
      "ĠJan": 1761,
      "Ġthose": 1762,
      "2017": 1763,
      "Ġstand": 1764,
      "Ġestim": 1765,
      "esc": 1766,
      "Ġdue": 1767,
      "play": 1768,
      "Ġprof": 1769,
      "ground": 1770,
      "Ġcalled": 1771,
      "ĠJohn": 1772,
      "Ġestabl": 1773,
      "ilar": 1774,
      "Ġleft": 1775,
      "29": 1776,
      "Ġbecom": 1777,
      "Ġmake": 1778,
      "2014": 1779,
      "Ġmeasure": 1780,
      "add": 1781,
      "Ġimport": 1782,
      "alth": 1783,
      "ves": 1784,
      "Ġcal": 1785,
      "Ġhel": 1786,
      "varphi": 1787,
      "Ġmy": 1788,
      "ormal": 1789,
      "ĠBl": 1790,
      "ĠNational": 1791,
      "Ġsingle": 1792,
      "Ġvalues": 1793,
      "ĠFran": 1794,
      "Ġway": 1795,
      "Ġcommun": 1796,
      "emph": 1797,
      "33": 1798,
      "ero": 1799,
      "Ġabove": 1800,
      "Ġref": 1801,
      "geq": 1802,
      "Ġche": 1803,
      "ised": 1804,
      "ai": 1805,
      "Ġrefer": 1806,
      "Ġfamily": 1807,
      "ety": 1808,
      "2010": 1809,
      "Ġpass": 1810,
      "ium": 1811,
      "Ar": 1812,
      "Ġfootball": 1813,
      "Ġrema": 1814,
      "Ġinteg": 1815,
      "Ġgl": 1816,
      "Ġtrue": 1817,
      "Ġav": 1818,
      "};": 1819,
      "Ġlevel": 1820,
      "Ġexpl": 1821,
      "reg": 1822,
      "ĠWorld": 1823,
      "ĠCar": 1824,
      "ison": 1825,
      "Ġpower": 1826,
      "Ġaddition": 1827,
      "ting": 1828,
      "Ġden": 1829,
      "2013": 1830,
      "Ġinformation": 1831,
      "Ġdid": 1832,
      "ĠAust": 1833,
      "proof": 1834,
      "see": 1835,
      "Ġlet": 1836,
      "ports": 1837,
      "ately": 1838,
      "be": 1839,
      "arget": 1840,
      "rist": 1841,
      "wh": 1842,
      "ene": 1843,
      "ler": 1844,
      "str": 1845,
      "ĠAnd": 1846,
      "ception": 1847,
      "new": 1848,
      ".~\\": 1849,
      "Ġevent": 1850,
      "ĠJul": 1851,
      "class": 1852,
      "2012": 1853,
      "ĠHowever": 1854,
      "symbol": 1855,
      "Ġ--": 1856,
      "Ġbro": 1857,
      "aper": 1858,
      "side": 1859,
      "Ġpar": 1860,
      "arent": 1861,
      "ternational": 1862,
      "Ġocc": 1863,
      "ream": 1864,
      "dd": 1865,
      "Ġsat": 1866,
      "''": 1867,
      "key": 1868,
      "urch": 1869,
      "dis": 1870,
      "Ġalbum": 1871,
      "gorith": 1872,
      "Ġmap": 1873,
      "ĠNov": 1874,
      "overline": 1875,
      "Ġwithin": 1876,
      "ators": 1877,
      "day": 1878,
      "Val": 1879,
      "Ġnear": 1880,
      "bs": 1881,
      "String": 1882,
      "ĠCan": 1883,
      "Ġalong": 1884,
      "Ġaround": 1885,
      "overnment": 1886,
      "ampl": 1887,
      "2011": 1888,
      "wards": 1889,
      "ble": 1890,
      "self": 1891,
      "lim": 1892,
      "Ġexpect": 1893,
      "ĠĠĠĠĠĠĠĠĠĠĠĠĠĠĠĠĠĠĠĠĠĠĠĠĠĠĠĠĠĠĠĠ": 1894,
      "ensure": 1895,
      "&\\": 1896,
      "ĠAll": 1897,
      "uary": 1898,
      "Ġsum": 1899,
      "ĠAt": 1900,
      "ensity": 1901,
      "akes": 1902,
      "rap": 1903,
      "ym": 1904,
      "Al": 1905,
      "Ġvis": 1906,
      "Ġbir": 1907,
      "iod": 1908,
      "Un": 1909,
      "Ġdown": 1910,
      "posed": 1911,
      "Big": 1912,
      "Ġgame": 1913,
      "iness": 1914,
      "itle": 1915,
      "Ġchild": 1916,
      "arm": 1917,
      "EN": 1918,
      "ajor": 1919,
      ".}": 1920,
      "ivate": 1921,
      "ians": 1922,
      "60": 1923,
      "iter": 1924,
      "ification": 1925,
      ")^": 1926,
      "cur": 1927,
      "Id": 1928,
      "[\\": 1929,
      "xim": 1930,
      "'t": 1931,
      "Ġseveral": 1932,
      "Ġspect": 1933,
      "boldsymbol": 1934,
      "rr": 1935,
      "inition": 1936,
      "OR": 1937,
      "comm": 1938,
      "An": 1939,
      "Ġexample": 1940,
      "Ġcare": 1941,
      "ĠYork": 1942,
      "Ġprogram": 1943,
      "amed": 1944,
      "Ġtot": 1945,
      "Ġknow": 1946,
      "ĠRes": 1947,
      "Ġuntil": 1948,
      "></": 1949,
      "Ġcomput": 1950,
      "Ġdepend": 1951,
      "Ġparticular": 1952,
      "trans": 1953,
      "frak": 1954,
      "},\\": 1955,
      "}).": 1956,
      "import": 1957,
      "ĠCent": 1958,
      "ĠOr": 1959,
      "ĠWar": 1960,
      "ector": 1961,
      "angu": 1962,
      "ious": 1963,
      "Ġbecame": 1964,
      "Ġdefined": 1965,
      "ĠâĢĶ": 1966,
      "Ġfollows": 1967,
      "Ġmuch": 1968,
      "ĠGe": 1969,
      "Ġnetwork": 1970,
      "Ġshown": 1971,
      "inter": 1972,
      "org": 1973,
      "Ġtri": 1974,
      "Ġsize": 1975,
      "35": 1976,
      "Ġarg": 1977,
      "Ġhead": 1978,
      "ĠCounty": 1979,
      "Ġarea": 1980,
      "refore": 1981,
      "ĠAug": 1982,
      "ination": 1983,
      "orph": 1984,
      "Ġlife": 1985,
      "AL": 1986,
      "Ġstring": 1987,
      "ww": 1988,
      "imal": 1989,
      "aint": 1990,
      "ĠMan": 1991,
      "],": 1992,
      "Ġstill": 1993,
      "Ġcap": 1994,
      "atter": 1995,
      "Ġlarg": 1996,
      "Ġworld": 1997,
      "ĠWh": 1998,
      "Ġquant": 1999,
      "ts": 2000,
      "ĠOct": 2001,
      "Ġcharacter": 2002,
      "with": 2003,
      "ĠĠĠĠĠĠ": 2004,
      "ording": 2005,
      "Ġsl": 2006,
      "ĠSchool": 2007,
      "etail": 2008,
      "ĠBrit": 2009,
      "Ġmark": 2010,
      "Let": 2011,
      "ĠSouth": 2012,
      "aving": 2013,
      "order": 2014,
      "ĠPr": 2015,
      "eff": 2016,
      "Ġplace": 2017,
      "roll": 2018,
      "ament": 2019,
      "Ġann": 2020,
      "hline": 2021,
      "__": 2022,
      "iam": 2023,
      "ched": 2024,
      "Ġcontinu": 2025,
      "Ġbeh": 2026,
      "Ġsimilar": 2027,
      "oard": 2028,
      "Ġorgan": 2029,
      "}}$": 2030,
      "ffic": 2031,
      "action": 2032,
      "oll": 2033,
      "odes": 2034,
      "Ġposition": 2035,
      "ptember": 2036,
      "Ġdeath": 2037,
      "uthor": 2038,
      "ords": 2039,
      "ches": 2040,
      "table": 2041,
      "2009": 2042,
      "lear": 2043,
      "Ġsection": 2044,
      "Ġsong": 2045,
      "iment": 2046,
      "80": 2047,
      "Ġder": 2048,
      "mmet": 2049,
      "bra": 2050,
      "rum": 2051,
      "ended": 2052,
      "no": 2053,
      "Ġbas": 2054,
      "atures": 2055,
      "field": 2056,
      "cul": 2057,
      "Ġpoints": 2058,
      "Ġpat": 2059,
      "2008": 2060,
      "ories": 2061,
      "ynam": 2062,
      "Ġredu": 2063,
      "By": 2064,
      "Ġdom": 2065,
      "Ġtechn": 2066,
      "Ġmust": 2067,
      "mathfrak": 2068,
      "Ġlaw": 2069,
      "ush": 2070,
      "List": 2071,
      "Ġpolit": 2072,
      "ixed": 2073,
      "oper": 2074,
      "Ġinf": 2075,
      "oad": 2076,
      "Ġmodels": 2077,
      "idd": 2078,
      "ysis": 2079,
      "langle": 2080,
      "Ġtyp": 2081,
      "time": 2082,
      "mult": 2083,
      "ctor": 2084,
      "ldots": 2085,
      "ĠMarch": 2086,
      "Ġprevious": 2087,
      "ression": 2088,
      "Ġlow": 2089,
      "ĠThey": 2090,
      "ape": 2091,
      "LE": 2092,
      "mber": 2093,
      "plit": 2094,
      "cor": 2095,
      "alk": 2096,
      "Ġmusic": 2097,
      "Ġgra": 2098,
      "Ġdeterm": 2099,
      "Ġinitial": 2100,
      "Ġclos": 2101,
      "ependent": 2102,
      "45": 2103,
      "ats": 2104,
      "Ġdem": 2105,
      "Ġbest": 2106,
      "|-": 2107,
      "ache": 2108,
      "Ġassoci": 2109,
      "Ġtake": 2110,
      "aim": 2111,
      "const": 2112,
      "Ġbook": 2113,
      "Ġnull": 2114,
      "Ġpost": 2115,
      "pril": 2116,
      "ection": 2117,
      "ties": 2118,
      "aster": 2119,
      "ored": 2120,
      "Ġhere": 2121,
      "pd": 2122,
      "usiness": 2123,
      "Ġnext": 2124,
      "Ġhig": 2125,
      "ĠJanuary": 2126,
      "ĠPol": 2127,
      "Ġbre": 2128,
      "ĠGerm": 2129,
      "Ġprot": 2130,
      "Ġstudy": 2131,
      "90": 2132,
      "Ġshows": 2133,
      "Ġoffic": 2134,
      "ttp": 2135,
      "pecial": 2136,
      "Ġ&&": 2137,
      "ĠAugust": 2138,
      "Lambda": 2139,
      "ugg": 2140,
      "de": 2141,
      "Ġmax": 2142,
      "Ġband": 2143,
      "Ġtotal": 2144,
      "Ob": 2145,
      "Ġterms": 2146,
      "appa": 2147,
      "aus": 2148,
      "istic": 2149,
      "off": 2150,
      "ances": 2151,
      "cont": 2152,
      "2007": 2153,
      "Ġintrodu": 2154,
      "isf": 2155,
      "ĠSeptember": 2156,
      "ris": 2157,
      "Ġet": 2158,
      "Ġelse": 2159,
      "2021": 2160,
      "nabl": 2161,
      "><": 2162,
      "oman": 2163,
      "pose": 2164,
      "ĠTe": 2165,
      "Ġwithout": 2166,
      "ampions": 2167,
      "ling": 2168,
      "He": 2169,
      "Phi": 2170,
      "ĠOctober": 2171,
      "ae": 2172,
      "ĠGu": 2173,
      "etic": 2174,
      "ĠRep": 2175,
      "Ġcrit": 2176,
      "cember": 2177,
      "Ġreport": 2178,
      "Ġhold": 2179,
      "Ġpred": 2180,
      "64": 2181,
      "Ġinterest": 2182,
      "function": 2183,
      "rag": 2184,
      "ĠJune": 2185,
      "2006": 2186,
      "Ġdistribution": 2187,
      "value": 2188,
      "box": 2189,
      "Ġperson": 2190,
      "uk": 2191,
      "Ġexist": 2192,
      "Ġpot": 2193,
      "Ġwin": 2194,
      "sm": 2195,
      "html": 2196,
      "td": 2197,
      "ĠII": 2198,
      "ĠTo": 2199,
      "Ġkey": 2200,
      "ĠMin": 2201,
      "ivity": 2202,
      "ĠBe": 2203,
      "lish": 2204,
      "Ġstructure": 2205,
      "ĠReg": 2206,
      "urb": 2207,
      "Ġ==": 2208,
      "Ġdiscuss": 2209,
      "ĠJuly": 2210,
      "ĠSy": 2211,
      "istor": 2212,
      "citep": 2213,
      "')": 2214,
      "AN": 2215,
      "ung": 2216,
      "otimes": 2217,
      "Ġdeg": 2218,
      "ĠApril": 2219,
      "ĠPar": 2220,
      "lege": 2221,
      "ruction": 2222,
      "ges": 2223,
      "Ġproject": 2224,
      "Ġcho": 2225,
      "Ġgood": 2226,
      "mbox": 2227,
      "kappa": 2228,
      "31": 2229,
      "ources": 2230,
      "urs": 2231,
      "ĠAustral": 2232,
      "ilt": 2233,
      "Ġsuccess": 2234,
      "ries": 2235,
      "ux": 2236,
      "ĠUS": 2237,
      "ique": 2238,
      "]$": 2239,
      "Ġformer": 2240,
      "Ġcomb": 2241,
      "lement": 2242,
      "Ġfalse": 2243,
      "ĠCal": 2244,
      "loc": 2245,
      "36": 2246,
      "Ind": 2247,
      "ĠBy": 2248,
      "Ġearly": 2249,
      "Ġperiod": 2250,
      "Ġcour": 2251,
      "urope": 2252,
      "Col": 2253,
      "75": 2254,
      "Ġadv": 2255,
      "ĠNovember": 2256,
      "subset": 2257,
      "Ġshort": 2258,
      "duct": 2259,
      "rite": 2260,
      "AS": 2261,
      "Ġvoid": 2262,
      "../../": 2263,
      ".\\": 2264,
      "Ġaut": 2265,
      "ĠYou": 2266,
      "lected": 2267,
      "sequ": 2268,
      "iron": 2269,
      "Ġtrad": 2270,
      "Ġdescribed": 2271,
      "Ġdel": 2272,
      "empt": 2273,
      "ĠThen": 2274,
      "\\|": 2275,
      "~~": 2276,
      "data": 2277,
      "\")": 2278,
      "fo": 2279,
      "Ġstrong": 2280,
      "Ġpossible": 2281,
      "ĠDecember": 2282,
      "ention": 2283,
      "gorithm": 2284,
      "Ġcover": 2285,
      "})$": 2286,
      "Ġcompon": 2287,
      "Ġchang": 2288,
      "ĠState": 2289,
      "._": 2290,
      "gin": 2291,
      "AC": 2292,
      "ĠCity": 2293,
      "34": 2294,
      "Ġanother": 2295,
      "string": 2296,
      "ino": 2297,
      "IT": 2298,
      "vers": 2299,
      "Ġwon": 2300,
      "Ġmean": 2301,
      "ploy": 2302,
      "Ġconf": 2303,
      "ering": 2304,
      "Ġcomplet": 2305,
      "ĠArt": 2306,
      "Ġview": 2307,
      "Ġerror": 2308,
      "ĠAp": 2309,
      "ither": 2310,
      "nonumber": 2311,
      "nabla": 2312,
      "Ġcar": 2313,
      "Ġiss": 2314,
      "}),": 2315,
      "illion": 2316,
      "Ġmagn": 2317,
      "Ġke": 2318,
      "textit": 2319,
      "code": 2320,
      "Ġregion": 2321,
      "Ġlook": 2322,
      "Ġeng": 2323,
      "Ġspe": 2324,
      "Ġstates": 2325,
      "Ġsequ": 2326,
      "Ġpubl": 2327,
      "ĠNorth": 2328,
      "ĠAss": 2329,
      "ography": 2330,
      "born": 2331,
      "Ġsk": 2332,
      "Ġplayed": 2333,
      "stit": 2334,
      "circ": 2335,
      "Ġaff": 2336,
      "Ġinclude": 2337,
      "Ġold": 2338,
      "bit": 2339,
      "Ġthough": 2340,
      "ocial": 2341,
      "Ġhome": 2342,
      "ope": 2343,
      "eter": 2344,
      "ze": 2345,
      "ales": 2346,
      "ensuremath": 2347,
      "aced": 2348,
      "vision": 2349,
      "Sh": 2350,
      "70": 2351,
      "Ġaver": 2352,
      "ables": 2353,
      "ends": 2354,
      "Ġreleased": 2355,
      "uff": 2356,
      "ilit": 2357,
      "iction": 2358,
      "ĠCo": 2359,
      "}}{": 2360,
      "ĠFeb": 2361,
      "sf": 2362,
      "anguage": 2363,
      "mat": 2364,
      "\\[": 2365,
      "Ġvol": 2366,
      "ailable": 2367,
      "Ġsatisf": 2368,
      "Ġday": 2369,
      "but": 2370,
      "imum": 2371,
      "Ġrange": 2372,
      "Ġphot": 2373,
      "Ġinvest": 2374,
      "\\%": 2375,
      "ients": 2376,
      "ription": 2377,
      "2000": 2378,
      "Ġdiv": 2379,
      "ological": 2380,
      "38": 2381,
      "Ġmajor": 2382,
      "Ġapproxim": 2383,
      "osp": 2384,
      "Ġmembers": 2385,
      "reen": 2386,
      "Ġfull": 2387,
      "draw": 2388,
      "Ġrese": 2389,
      "top": 2390,
      "Ġcou": 2391,
      "head": 2392,
      "alf": 2393,
      "though": 2394,
      "Ġleg": 2395,
      "ude": 2396,
      "lation": 2397,
      "ius": 2398,
      "Ps": 2399,
      "style": 2400,
      "Ġimportant": 2401,
      "ruary": 2402,
      "Ġpotential": 2403,
      "ocument": 2404,
      "Ġparameters": 2405,
      "ĠSup": 2406,
      "Ġtimes": 2407,
      "Ġturn": 2408,
      "Ġfunctions": 2409,
      "99": 2410,
      "Ġdensity": 2411,
      "Ġimp": 2412,
      "Re": 2413,
      "itor": 2414,
      "ways": 2415,
      "Ġobtained": 2416,
      "ĠLet": 2417,
      "ocus": 2418,
      "Ġcity": 2419,
      "ster": 2420,
      "Ġpath": 2421,
      "DE": 2422,
      "idual": 2423,
      "sup": 2424,
      "icle": 2425,
      "ĠWill": 2426,
      "];": 2427,
      "Ġproduct": 2428,
      "ii": 2429,
      "sl": 2430,
      "Ġcontrol": 2431,
      "Ġland": 2432,
      "See": 2433,
      "Ġmanag": 2434,
      "2005": 2435,
      "wide": 2436,
      "indow": 2437,
      "ĠAf": 2438,
      "Ġwid": 2439,
      "ham": 2440,
      "ideo": 2441,
      "lor": 2442,
      "ĠThere": 2443,
      "Ġmatrix": 2444,
      ")(": 2445,
      "ights": 2446,
      "Ġsignific": 2447,
      "Sigma": 2448,
      "Ġcompet": 2449,
      "ney": 2450,
      "size": 2451,
      "pre": 2452,
      "ĠEurope": 2453,
      "Ġq": 2454,
      "uild": 2455,
      "Ġfr": 2456,
      "ĠPart": 2457,
      "Ġwomen": 2458,
      "mary": 2459,
      "obal": 2460,
      "Ġfew": 2461,
      "190": 2462,
      "Ġcomplex": 2463,
      "Ġside": 2464,
      "39": 2465,
      "Ġhref": 2466,
      "Ġeas": 2467,
      "max": 2468,
      "script": 2469,
      "AM": 2470,
      "Ġpaper": 2471,
      "Ġla": 2472,
      "Ġfurther": 2473,
      "dots": 2474,
      "source": 2475,
      "Ġtheory": 2476,
      "ently": 2477,
      "Ġstandard": 2478,
      "uman": 2479,
      "Ġgovernment": 2480,
      "Ġ``": 2481,
      "ĠBritish": 2482,
      "37": 2483,
      "Ġsolution": 2484,
      "apan": 2485,
      "ĠCanad": 2486,
      "\\!": 2487,
      "clus": 2488,
      "Ġprom": 2489,
      "SE": 2490,
      "unc": 2491,
      "Ġlimit": 2492,
      "Ġphys": 2493,
      "ille": 2494,
      "ana": 2495,
      "ĠNo": 2496,
      "ered": 2497,
      "cit": 2498,
      "ampionship": 2499,
      "ĠLeague": 2500,
      "ponse": 2501,
      "widet": 2502,
      "ĠMed": 2503,
      "utions": 2504,
      "Ġgraph": 2505,
      "iple": 2506,
      "ĠCor": 2507,
      "Ġvert": 2508,
      "hold": 2509,
      "ony": 2510,
      "Ġret": 2511,
      "ĠChrist": 2512,
      "plement": 2513,
      "Ġdetail": 2514,
      "Ġoriginal": 2515,
      "Ġpo": 2516,
      "Ġperformance": 2517,
      "Ġindic": 2518,
      "ĠEd": 2519,
      "Ġconstant": 2520,
      "Ġfree": 2521,
      "Ġcompany": 2522,
      "ĠFebruary": 2523,
      "========": 2524,
      "Ġequation": 2525,
      "raft": 2526,
      "##": 2527,
      "Ġhelp": 2528,
      "Ġless": 2529,
      "ĠAfter": 2530,
      "ĠKing": 2531,
      "/\\": 2532,
      "Ġ($": 2533,
      "Ġbirths": 2534,
      "Ġaction": 2535,
      "Ġenc": 2536,
      "br": 2537,
      "Data": 2538,
      "Ġversion": 2539,
      "Ġins": 2540,
      "opy": 2541,
      "Ġep": 2542,
      "Set": 2543,
      "widetilde": 2544,
      "Ġanalysis": 2545,
      "IC": 2546,
      "Ġchange": 2547,
      "Ġide": 2548,
      "rary": 2549,
      "Ġmot": 2550,
      "ourn": 2551,
      "Ġinvol": 2552,
      "andom": 2553,
      "go": 2554,
      "Ġimpro": 2555,
      "2004": 2556,
      "amples": 2557,
      "Ġsit": 2558,
      "ĠMc": 2559,
      "stand": 2560,
      "inally": 2561,
      "{-": 2562,
      "}-": 2563,
      "node": 2564,
      "Ġ=>": 2565,
      "Ġgrow": 2566,
      "Ġprivate": 2567,
      "century": 2568,
      "Ġapplic": 2569,
      "Ġred": 2570,
      "Ġlength": 2571,
      "message": 2572,
      "iff": 2573,
      "dom": 2574,
      "cap": 2575,
      "Ġsource": 2576,
      "Ġrespectively": 2577,
      "Ġtarget": 2578,
      "aut": 2579,
      "uation": 2580,
      "********": 2581,
      "----------------": 2582,
      "Ġfilms": 2583,
      "Value": 2584,
      "Fig": 2585,
      "Ġfeature": 2586,
      "Ġcorresponding": 2587,
      "Ġlower": 2588,
      "otes": 2589,
      "inary": 2590,
      "ĠThese": 2591,
      "Ġwant": 2592,
      "Ġrate": 2593,
      "Ġrepl": 2594,
      "ĠBar": 2595,
      "uration": 2596,
      "Ġpair": 2597,
      "Ġappear": 2598,
      "zeta": 2599,
      "Ġpopulation": 2600,
      "ĠEn": 2601,
      "Ġparameter": 2602,
      "Ġnode": 2603,
      "âĢľ": 2604,
      "ones": 2605,
      "ĠHar": 2606,
      "\\]": 2607,
      "If": 2608,
      "Pl": 2609,
      "uck": 2610,
      "Ġapproach": 2611,
      "Ġinput": 2612,
      "Ġcareer": 2613,
      "Ġspecial": 2614,
      "wit": 2615,
      "rain": 2616,
      "Ġelement": 2617,
      "Ġmember": 2618,
      "Ġtext": 2619,
      "viron": 2620,
      "Ġsystems": 2621,
      "Ġleast": 2622,
      "Ġavailable": 2623,
      "ume": 2624,
      "AP": 2625,
      "prime": 2626,
      "Ġ/**": 2627,
      "eneral": 2628,
      "now": 2629,
      "ounc": 2630,
      "rench": 2631,
      "ĠDist": 2632,
      "Ġmom": 2633,
      "aul": 2634,
      ".âĢĿ": 2635,
      "asing": 2636,
      "Ġlight": 2637,
      "Ġlog": 2638,
      "exp": 2639,
      "ĠArm": 2640,
      "conom": 2641,
      "Ġservice": 2642,
      "centering": 2643,
      "Ġjo": 2644,
      "Ġsignificant": 2645,
      "ĠMe": 2646,
      "augh": 2647,
      "ĠWest": 2648,
      "Ġthird": 2649,
      "Ġstyle": 2650,
      "Ġcases": 2651,
      "48": 2652,
      "Ġ:=": 2653,
      "Ġhy": 2654,
      "ĠAb": 2655,
      "Ġsay": 2656,
      "ware": 2657,
      "Ã¡": 2658,
      "05": 2659,
      "iles": 2660,
      "Ġbusiness": 2661,
      "Ġsuper": 2662,
      "Ġtown": 2663,
      "gl": 2664,
      "Ġconsidered": 2665,
      "Ġnamed": 2666,
      "Ġmatch": 2667,
      "yl": 2668,
      "Ġdiff": 2669,
      "ese": 2670,
      "\"/": 2671,
      "Ġcalcul": 2672,
      "\\{": 2673,
      "ĠĠĠĠĠĠĠĠĠĠĠĠĠĠĠĠĠĠĠĠĠĠĠ": 2674,
      "ably": 2675,
      "Ġcross": 2676,
      "ĠĠĠĠĠĠĠĠĠĠĠĠĠ": 2677,
      "Ġtook": 2678,
      "}+": 2679,
      "thm": 2680,
      "ĠRec": 2681,
      "Ġphase": 2682,
      "Ġlocated": 2683,
      "Ġtitle": 2684,
      "Ġ%": 2685,
      "Ġfive": 2686,
      "Ġdat": 2687,
      "CO": 2688,
      "ussian": 2689,
      "Ġconn": 2690,
      "Ġdimens": 2691,
      "Ġheld": 2692,
      "01": 2693,
      "ayer": 2694,
      "Ġsepar": 2695,
      "ui": 2696,
      "rror": 2697,
      "Ġgames": 2698,
      "ours": 2699,
      "Ġhistory": 2700,
      "ividual": 2701,
      "Se": 2702,
      "Ġstar": 2703,
      "ising": 2704,
      "onal": 2705,
      "Mod": 2706,
      "Ġtele": 2707,
      "ĠBut": 2708,
      ")=\\": 2709,
      "($": 2710,
      "Ġamong": 2711,
      "omorph": 2712,
      "Ġrelations": 2713,
      "Ġestablished": 2714,
      "icy": 2715,
      "Ġtemper": 2716,
      "Ġclub": 2717,
      "load": 2718,
      "ĠEnglish": 2719,
      "Ġcommon": 2720,
      "scal": 2721,
      "65": 2722,
      "Ġhouse": 2723,
      "////": 2724,
      "Ġalign": 2725,
      "Ġbegan": 2726,
      "eder": 2727,
      "Ġconditions": 2728,
      "emma": 2729,
      "Ġcirc": 2730,
      "tabular": 2731,
      "Ġhigher": 2732,
      "ply": 2733,
      "rest": 2734,
      "Int": 2735,
      "Ġproof": 2736,
      "na": 2737,
      "ged": 2738,
      "Ġimage": 2739,
      "ules": 2740,
      "Ġstation": 2741,
      "Ġfeatures": 2742,
      "Ġbo": 2743,
      "Ġcoll": 2744,
      "Ġge": 2745,
      "ĠTheorem": 2746,
      "Ġgreat": 2747,
      "eople": 2748,
      "chie": 2749,
      "Ġvarious": 2750,
      "adem": 2751,
      "American": 2752,
      "ĠHis": 2753,
      "point": 2754,
      "rew": 2755,
      "Object": 2756,
      "ĠEq": 2757,
      "ems": 2758,
      "atural": 2759,
      "Ġsix": 2760,
      "Ġconsist": 2761,
      "Ġaverage": 2762,
      "Ġoften": 2763,
      "ĠSch": 2764,
      ";\\": 2765,
      "}=\\": 2766,
      "Ġflow": 2767,
      "aterial": 2768,
      "aken": 2769,
      "].": 2770,
      "Ġreceived": 2771,
      "Ġarch": 2772,
      "Ġage": 2773,
      "ĠJapan": 2774,
      "Ġrecent": 2775,
      "lete": 2776,
      "Ġcompos": 2777,
      "arning": 2778,
      "Ġlinear": 2779,
      "px": 2780,
      "length": 2781,
      "ĠAfric": 2782,
      "annel": 2783,
      "aly": 2784,
      "Ġtraining": 2785,
      "2003": 2786,
      "Ġport": 2787,
      "ondon": 2788,
      "95": 2789,
      "test": 2790,
      "Ġincluded": 2791,
      "Ġchildren": 2792,
      "Ġdon": 2793,
      "Ġant": 2794,
      "Ġevents": 2795,
      "));": 2796,
      "cast": 2797,
      "Ġpri": 2798,
      "With": 2799,
      "ĠAm": 2800,
      "Ġfore": 2801,
      "Ġrole": 2802,
      "Ġbase": 2803,
      "Ġcer": 2804,
      "map": 2805,
      "Ġeither": 2806,
      "alle": 2807,
      "idence": 2808,
      ")}\\": 2809,
      "Ġneg": 2810,
      "ĠOne": 2811,
      "ava": 2812,
      "iven": 2813,
      "Ġwater": 2814,
      "most": 2815,
      "rown": 2816,
      ")^{": 2817,
      "Ġauthor": 2818,
      "New": 2819,
      "ĠSan": 2820,
      "Ġblack": 2821,
      "Ġabs": 2822,
      "uture": 2823,
      "ops": 2824,
      "\");": 2825,
      "Ġfrequ": 2826,
      "ĠEl": 2827,
      "Ġhom": 2828,
      "Ġsem": 2829,
      "Ġcell": 2830,
      "Ġpositive": 2831,
      "ĠSer": 2832,
      "Ġfac": 2833,
      "Ġair": 2834,
      "reet": 2835,
      "Ġprovide": 2836,
      "II": 2837,
      "ula": 2838,
      "Ġprofess": 2839,
      "wed": 2840,
      "group": 2841,
      "ready": 2842,
      "Ġ&=": 2843,
      "rick": 2844,
      "âĢĶ": 2845,
      "ĠChe": 2846,
      "Ġvill": 2847,
      "ittle": 2848,
      "Ġrandom": 2849,
      "Ġproperties": 2850,
      "plies": 2851,
      "urg": 2852,
      "ured": 2853,
      "Ġmethods": 2854,
      "Ġbelow": 2855,
      "Ġassociated": 2856,
      "Ġclaim": 2857,
      "Ġwritten": 2858,
      "Ġbuilt": 2859,
      "Ġvector": 2860,
      "Ġindependent": 2861,
      "abor": 2862,
      "ttps": 2863,
      "Ġ!=": 2864,
      "Ġseen": 2865,
      "CT": 2866,
      "Ġpract": 2867,
      "Im": 2868,
      "\"/>": 2869,
      "Ġmen": 2870,
      "Ġpublished": 2871,
      "eed": 2872,
      "uggest": 2873,
      "uf": 2874,
      "44": 2875,
      "Ġfail": 2876,
      "ĠAir": 2877,
      "{(": 2878,
      "Ġid": 2879,
      "Ġthus": 2880,
      "cle": 2881,
      "Ġprim": 2882,
      "Ġresp": 2883,
      "Ġhowever": 2884,
      "Ġfinite": 2885,
      "Ġproperty": 2886,
      "which": 2887,
      "Ġinfl": 2888,
      "ibility": 2889,
      "Cont": 2890,
      "Ġbi": 2891,
      "Ġloss": 2892,
      "Def": 2893,
      "Ġsymmet": 2894,
      "IS": 2895,
      "Ġcost": 2896,
      "bor": 2897,
      "ĠPark": 2898,
      "Ġeduc": 2899,
      "Ġhaving": 2900,
      "2002": 2901,
      "Ġdynam": 2902,
      "arried": 2903,
      "Ġdev": 2904,
      "ĠSo": 2905,
      "66": 2906,
      "cos": 2907,
      "ĠHigh": 2908,
      "semb": 2909,
      "Ġnational": 2910,
      "iber": 2911,
      "Ġbecome": 2912,
      "Ġrequire": 2913,
      "ouncil": 2914,
      "ĠSection": 2915,
      ".~": 2916,
      "Ġlines": 2917,
      "Ġnormal": 2918,
      "Ġquest": 2919,
      "ĠPres": 2920,
      "ervice": 2921,
      "Ġbetter": 2922,
      "ief": 2923,
      "lin": 2924,
      "vironment": 2925,
      "Ġattack": 2926,
      "ribute": 2927,
      "Ġvia": 2928,
      "ford": 2929,
      "ping": 2930,
      "based": 2931,
      "Ġaccess": 2932,
      "Ġfocus": 2933,
      "ordin": 2934,
      "ips": 2935,
      "Ġplan": 2936,
      "Ap": 2937,
      "ĠCollege": 2938,
      "ĠChar": 2939,
      "rim": 2940,
      "chan": 2941,
      "ustom": 2942,
      "Ġdefine": 2943,
      "Ġindividual": 2944,
      "$)": 2945,
      "55": 2946,
      "down": 2947,
      "Ġmeans": 2948,
      "ference": 2949,
      "date": 2950,
      "Ġcamp": 2951,
      "util": 2952,
      "ington": 2953,
      "RO": 2954,
      "ĠWhen": 2955,
      "gether": 2956,
      "Ġtogether": 2957,
      "alt": 2958,
      "ED": 2959,
      "ĠPer": 2960,
      "Ġcorre": 2961,
      "alax": 2962,
      "ĠWith": 2963,
      "Ġindex": 2964,
      "ĠLondon": 2965,
      "ES": 2966,
      "ĠAmeric": 2967,
      "Ġaccount": 2968,
      "Ġgroups": 2969,
      "cher": 2970,
      "Ġang": 2971,
      "sin": 2972,
      "cdots": 2973,
      "ecess": 2974,
      "oted": 2975,
      "ension": 2976,
      "ĠDav": 2977,
      "}^\\": 2978,
      "ĠQu": 2979,
      "acy": 2980,
      "prop": 2981,
      "aff": 2982,
      "Ġcy": 2983,
      "itions": 2984,
      "Ġspecies": 2985,
      "Ġstatic": 2986,
      "Ġbackground": 2987,
      "raint": 2988,
      "LL": 2989,
      "nder": 2990,
      "Ġfund": 2991,
      "ving": 2992,
      "ĠHam": 2993,
      "Ġbuilding": 2994,
      "ressed": 2995,
      "Le": 2996,
      "wise": 2997,
      "');": 2998,
      "Ġsche": 2999,
      "}|": 3000,
      "Ġalgorithm": 3001,
      "ĠHer": 3002,
      "duc": 3003,
      "Ġsuggest": 3004,
      "rant": 3005,
      "och": 3006,
      "sing": 3007,
      "2001": 3008,
      "ĠHouse": 3009,
      "ogn": 3010,
      "}\\,": 3011,
      "iet": 3012,
      "Ġbehav": 3013,
      "mid": 3014,
      "ĠĠĠĠĠĠĠĠĠĠĠĠ": 3015,
      "gebra": 3016,
      "anish": 3017,
      "ached": 3018,
      "Ġconstruct": 3019,
      "ĠAg": 3020,
      "ĠWilliam": 3021,
      "Ġgen": 3022,
      "ilitary": 3023,
      "lying": 3024,
      "plied": 3025,
      "bb": 3026,
      "Ġnumer": 3027,
      "file": 3028,
      "Ġresearch": 3029,
      "Ġachie": 3030,
      "ĠComp": 3031,
      "Ġelements": 3032,
      "Ġworks": 3033,
      "Ġacross": 3034,
      "ĠSince": 3035,
      "Ġexpected": 3036,
      "Ġofficial": 3037,
      "era": 3038,
      "hib": 3039,
      "avy": 3040,
      "ĠGl": 3041,
      "oo": 3042,
      "estern": 3043,
      "Ġcountry": 3044,
      "rig": 3045,
      "ĠBro": 3046,
      "Ġtw": 3047,
      "ĠAng": 3048,
      "Ġdou": 3049,
      "Ġexists": 3050,
      "state": 3051,
      "}_\\": 3052,
      "iol": 3053,
      "Ġhost": 3054,
      "atrix": 3055,
      "Get": 3056,
      "icro": 3057,
      "ĠMon": 3058,
      "iance": 3059,
      "Ġplayer": 3060,
      "unic": 3061,
      "Exception": 3062,
      "widehat": 3063,
      "umb": 3064,
      "lemma": 3065,
      "Ġobserved": 3066,
      "Ġannoun": 3067,
      "Ġregular": 3068,
      "BC": 3069,
      "Class": 3070,
      "ued": 3071,
      "foot": 3072,
      "ards": 3073,
      "igen": 3074,
      "Ġgive": 3075,
      "Ġlabel": 3076,
      "Ġsite": 3077,
      "ending": 3078,
      "ĠVal": 3079,
      "Ġmulti": 3080,
      "ĠDep": 3081,
      "Psi": 3082,
      "Ġwar": 3083,
      "ĠFrench": 3084,
      "Ġtre": 3085,
      "Ġclose": 3086,
      "Ġserved": 3087,
      "ĠDistrict": 3088,
      "itted": 3089,
      "Error": 3090,
      "Ġproposed": 3091,
      "}}(": 3092,
      "Ġreview": 3093,
      "Ġarray": 3094,
      "irection": 3095,
      "Ġcentury": 3096,
      "cy": 3097,
      "comp": 3098,
      "Ġzero": 3099,
      "Ġborn": 3100,
      "list": 3101,
      "Ġcommunity": 3102,
      "Ġclust": 3103,
      "ridge": 3104,
      "Ġalready": 3105,
      "ĠMore": 3106,
      "Qu": 3107,
      "Ġmoment": 3108,
      "irt": 3109,
      "qquad": 3110,
      "Ġcheck": 3111,
      "Test": 3112,
      "ulations": 3113,
      "Ġ\\{": 3114,
      "textwidth": 3115,
      "Ġfactor": 3116,
      "Ġput": 3117,
      "ults": 3118,
      "index": 3119,
      "ait": 3120,
      "Ġcontext": 3121,
      "path": 3122,
      "sw": 3123,
      "Ġcompar": 3124,
      "Ġlik": 3125,
      "Ġequival": 3126,
      "itect": 3127,
      "Ġhard": 3128,
      "ĠChampionship": 3129,
      "Ġarm": 3130,
      "Ġsent": 3131,
      "mark": 3132,
      "Ġsurface": 3133,
      "Ġhalf": 3134,
      "ilities": 3135,
      "ara": 3136,
      "isc": 3137,
      "49": 3138,
      "Ġdevelopment": 3139,
      "&=": 3140,
      "eh": 3141,
      "})\\": 3142,
      "Ġalways": 3143,
      "ĠInternational": 3144,
      "Sc": 3145,
      "Sp": 3146,
      "Key": 3147,
      "Ġtoo": 3148,
      "At": 3149,
      "Ġthink": 3150,
      "Ġproduction": 3151,
      "cup": 3152,
      "illed": 3153,
      "Ġemb": 3154,
      "Sy": 3155,
      "Ġground": 3156,
      "ken": 3157,
      "Ġrequired": 3158,
      "Ġdefinition": 3159,
      "Ġstep": 3160,
      "small": 3161,
      "){": 3162,
      "Ġmer": 3163,
      "^+": 3164,
      "}]": 3165,
      "earch": 3166,
      "Ġtaken": 3167,
      "Ġround": 3168,
      "Ġill": 3169,
      "inn": 3170,
      "ĉĉĉĉĉ": 3171,
      "Ġsequence": 3172,
      "ottom": 3173,
      "ĠSec": 3174,
      "Ġsimple": 3175,
      "Ġyoung": 3176,
      "All": 3177,
      "Ġmillion": 3178,
      "From": 3179,
      "summary": 3180,
      "Ġrat": 3181,
      "ĠPhil": 3182,
      "kn": 3183,
      "Ġdistrict": 3184,
      "Ġfar": 3185,
      "Ġable": 3186,
      "ET": 3187,
      "88": 3188,
      "ĠFigure": 3189,
      "ournal": 3190,
      "De": 3191,
      "47": 3192,
      "gen": 3193,
      "{{\\": 3194,
      "\"><": 3195,
      "medi": 3196,
      "Ġinstance": 3197,
      "ĠSm": 3198,
      ",-": 3199,
      "aries": 3200,
      "Ġconc": 3201,
      "Ġcreated": 3202,
      "ĠGerman": 3203,
      "Ġnever": 3204,
      "attle": 3205,
      "Fil": 3206,
      "Ġcoupl": 3207,
      "perty": 3208,
      "Ġcaus": 3209,
      "ĠLa": 3210,
      "Ġcode": 3211,
      "lymp": 3212,
      "Ġbreak": 3213,
      "Ġscale": 3214,
      "Ġfixed": 3215,
      "Ġlo": 3216,
      "Ġsocial": 3217,
      "Ġdep": 3218,
      "reed": 3219,
      "Ġconver": 3220,
      "Ġrequest": 3221,
      "allel": 3222,
      "Ġcult": 3223,
      "Ġrelated": 3224,
      "atus": 3225,
      "Ġvideo": 3226,
      "Ġoperator": 3227,
      "Ġemploy": 3228,
      "ociation": 3229,
      "appro": 3230,
      "ama": 3231,
      "from": 3232,
      "url": 3233,
      "mon": 3234,
      "ounter": 3235,
      "Ġmiss": 3236,
      "Ġpredict": 3237,
      "Ġweek": 3238,
      "}^{(": 3239,
      "pen": 3240,
      "iforn": 3241,
      "Ġtelevision": 3242,
      "Ġ()": 3243,
      "Ad": 3244,
      "Ġstory": 3245,
      "cell": 3246,
      "define": 3247,
      "Ġinvestig": 3248,
      "izing": 3249,
      "Ġnov": 3250,
      "hood": 3251,
      "Ġ/*": 3252,
      "ĠMich": 3253,
      "Ġprovided": 3254,
      "Ġexec": 3255,
      "uments": 3256,
      "Ġprobability": 3257,
      "Ġdays": 3258,
      "ĠCup": 3259,
      "edd": 3260,
      "Ã³": 3261,
      "Ġdistance": 3262,
      "ĠOb": 3263,
      "Ġeval": 3264,
      "Ġunit": 3265,
      "Ġtry": 3266,
      "Ġear": 3267,
      "85": 3268,
      "ociety": 3269,
      "pdf": 3270,
      "Ġ?": 3271,
      "FF": 3272,
      "Ġfri": 3273,
      "Ġhealth": 3274,
      "aches": 3275,
      "Ġcontains": 3276,
      "Ġmight": 3277,
      "Ġproduced": 3278,
      "effic": 3279,
      "ifornia": 3280,
      "ĠâĢĺ": 3281,
      "/**": 3282,
      "Ġlarger": 3283,
      "ceed": 3284,
      "call": 3285,
      "ĠSim": 3286,
      "Ġconfig": 3287,
      "ĠLemma": 3288,
      "Ġexperiment": 3289,
      "ming": 3290,
      "oon": 3291,
      "iding": 3292,
      "CC": 3293,
      "ements": 3294,
      "igned": 3295,
      "ĠCO": 3296,
      "my": 3297,
      "Ġ///": 3298,
      "Ġ$(\\": 3299,
      "ributions": 3300,
      "rc": 3301,
      "Ġ===": 3302,
      "Ġmaterial": 3303,
      "oud": 3304,
      "ĉĊ": 3305,
      "Ġexact": 3306,
      "}\\\\": 3307,
      "Ġmaking": 3308,
      "Ġdegree": 3309,
      "aps": 3310,
      "bul": 3311,
      "AD": 3312,
      "rated": 3313,
      "Ġfile": 3314,
      "ires": 3315,
      "Ġimplement": 3316,
      "Ġanaly": 3317,
      "Ġblock": 3318,
      "Ġquantum": 3319,
      "olic": 3320,
      "ĠAct": 3321,
      "ĠIndian": 3322,
      "IM": 3323,
      "07": 3324,
      "'$": 3325,
      "ĠString": 3326,
      "06": 3327,
      "Ġhuman": 3328,
      "1999": 3329,
      "astic": 3330,
      "Ġcreate": 3331,
      "Ġdied": 3332,
      "Ġfields": 3333,
      "utes": 3334,
      "ha": 3335,
      "Ġperm": 3336,
      "\":": 3337,
      "aves": 3338,
      "orge": 3339,
      "mar": 3340,
      "Ġassume": 3341,
      "PE": 3342,
      "raction": 3343,
      "ager": 3344,
      "Ġsett": 3345,
      "Ġtemperature": 3346,
      "http": 3347,
      "Ġreported": 3348,
      "onic": 3349,
      "Ġstarted": 3350,
      "âĢ¦": 3351,
      "oyal": 3352,
      "Ġfig": 3353,
      "04": 3354,
      "Ġspin": 3355,
      "Ġ},": 3356,
      "Ġadditional": 3357,
      "verse": 3358,
      "ensor": 3359,
      "Ġnorth": 3360,
      "iddle": 3361,
      "ulated": 3362,
      "02": 3363,
      "ender": 3364,
      "iform": 3365,
      "Node": 3366,
      "ĠTr": 3367,
      "que": 3368,
      "Bl": 3369,
      "ĠAc": 3370,
      "En": 3371,
      "citet": 3372,
      "ota": 3373,
      "08": 3374,
      "icol": 3375,
      "mathsf": 3376,
      "like": 3377,
      "Ġengine": 3378,
      "Ġsom": 3379,
      "Ġgalax": 3380,
      "lands": 3381,
      "Ġ);": 3382,
      "ĠFirst": 3383,
      "roid": 3384,
      "Ġcame": 3385,
      ")]": 3386,
      "Ġwidth": 3387,
      "gress": 3388,
      "Ġbroad": 3389,
      "67": 3390,
      "istics": 3391,
      "Ġled": 3392,
      "skip": 3393,
      ",âĢĿ": 3394,
      "Ġcontent": 3395,
      "Ġoutput": 3396,
      "ĠDiv": 3397,
      "ills": 3398,
      "equiv": 3399,
      "tot": 3400,
      "Ġtrack": 3401,
      "TR": 3402,
      "Ġwhose": 3403,
      "ariant": 3404,
      "Ġdest": 3405,
      "Ġassert": 3406,
      "omb": 3407,
      "uel": 3408,
      "Ġestablish": 3409,
      "}+\\": 3410,
      ",\"": 3411,
      "Ġfuture": 3412,
      "minist": 3413,
      "cis": 3414,
      "ĠAustralia": 3415,
      "TE": 3416,
      "Ġaccording": 3417,
      "Ġservices": 3418,
      "ĠCalifornia": 3419,
      "ett": 3420,
      "ellow": 3421,
      "Time": 3422,
      "Ġbody": 3423,
      "AA": 3424,
      "Ġcolor": 3425,
      "2022": 3426,
      "Ġlate": 3427,
      "translation": 3428,
      "().": 3429,
      "bsite": 3430,
      "Ġbegin": 3431,
      "plicit": 3432,
      "Ġcertain": 3433,
      "itting": 3434,
      "State": 3435,
      "Ġpan": 3436,
      "more": 3437,
      "irl": 3438,
      "ico": 3439,
      "Ġ&\\": 3440,
      "({\\": 3441,
      "dimens": 3442,
      "Ġoffer": 3443,
      "ĠIm": 3444,
      "Ġgives": 3445,
      "Ġson": 3446,
      "ĠEngland": 3447,
      "Ġactiv": 3448,
      "hern": 3449,
      "ship": 3450,
      "Ġhapp": 3451,
      "Equ": 3452,
      "quare": 3453,
      "Ġboundary": 3454,
      "Ġuser": 3455,
      "Ġdiag": 3456,
      "Ġresponse": 3457,
      "Ġorg": 3458,
      "ION": 3459,
      "inst": 3460,
      "97": 3461,
      "ĠMy": 3462,
      "operat": 3463,
      "Ġnatural": 3464,
      "useum": 3465,
      "Ġaway": 3466,
      "Ġnum": 3467,
      "ĠRiver": 3468,
      "ĠFrom": 3469,
      "Ġsets": 3470,
      "van": 3471,
      "artment": 3472,
      "98": 3473,
      "||": 3474,
      "ĠRepublic": 3475,
      "Ġenough": 3476,
      "Ġnecess": 3477,
      "indent": 3478,
      "nection": 3479,
      "mit": 3480,
      "Element": 3481,
      "1990": 3482,
      "++": 3483,
      "ael": 3484,
      "Ġinstead": 3485,
      "Ġmultiple": 3486,
      "ĠIndia": 3487,
      "Ġgoing": 3488,
      "());": 3489,
      "ÃŃ": 3490,
      "ander": 3491,
      "Man": 3492,
      "Ã¼": 3493,
      "Ġlearning": 3494,
      "Ġspecific": 3495,
      "ĠMark": 3496,
      "Ġpress": 3497,
      "}:": 3498,
      "Ġindust": 3499,
      "hspace": 3500,
      "Not": 3501,
      "tact": 3502,
      "Ġworking": 3503,
      ")-": 3504,
      "inated": 3505,
      "ili": 3506,
      "scr": 3507,
      "1998": 3508,
      "Ġwhether": 3509,
      "rows": 3510,
      "Ġvillage": 3511,
      "Ġdocument": 3512,
      "Ġcut": 3513,
      "Ġund": 3514,
      "Ġreason": 3515,
      "star": 3516,
      "96": 3517,
      "ework": 3518,
      "ĠPresident": 3519,
      "Ġequations": 3520,
      "Ġes": 3521,
      "ĠThus": 3522,
      "Living": 3523,
      "Ġhistor": 3524,
      "Ġparticip": 3525,
      "Ġcateg": 3526,
      "ĠCont": 3527,
      "46": 3528,
      "come": 3529,
      "operatorn": 3530,
      "xspace": 3531,
      "Ġpur": 3532,
      "atives": 3533,
      "ĠDr": 3534,
      "racy": 3535,
      "03": 3536,
      "andid": 3537,
      "Ġsample": 3538,
      "Ġstudents": 3539,
      "hel": 3540,
      "][": 3541,
      "LO": 3542,
      "www": 3543,
      "Ġdenote": 3544,
      "link": 3545,
      "Is": 3546,
      "ooth": 3547,
      "Ġsouth": 3548,
      "ĠList": 3549,
      "Ġonce": 3550,
      "ĠEast": 3551,
      "band": 3552,
      "oph": 3553,
      "Ġliter": 3554,
      "Ġmeet": 3555,
      "operatorname": 3556,
      "Ġrather": 3557,
      "Ġperformed": 3558,
      "|^": 3559,
      "US": 3560,
      "ivil": 3561,
      "light": 3562,
      "Ġconstruction": 3563,
      "And": 3564,
      "Ġcentral": 3565,
      "Event": 3566,
      "}}{\\": 3567,
      "neq": 3568,
      "ky": 3569,
      "Ġwent": 3570,
      "note": 3571,
      "known": 3572,
      "People": 3573,
      "Ġben": 3574,
      "After": 3575,
      "Ġcr": 3576,
      "Ġbelie": 3577,
      "year": 3578,
      "Ġcomplete": 3579,
      "Ġlanguage": 3580,
      "Ġneigh": 3581,
      "scale": 3582,
      "Ġcle": 3583,
      "Ġvalid": 3584,
      "Ġeffects": 3585,
      "ĠÂ": 3586,
      "Index": 3587,
      "Ġmoved": 3588,
      "pol": 3589,
      "Ġannounced": 3590,
      "ramework": 3591,
      "enumer": 3592,
      "Ġdomain": 3593,
      "ĠParty": 3594,
      "Ġclosed": 3595,
      "ica": 3596,
      "There": 3597,
      "Ġedge": 3598,
      "Ġstars": 3599,
      "ĠStud": 3600,
      "rup": 3601,
      "ĠPort": 3602,
      "Ġothers": 3603,
      "\";": 3604,
      "eloc": 3605,
      "Ġtreat": 3606,
      "}-\\": 3607,
      "Ġweight": 3608,
      "Ġparent": 3609,
      "Requ": 3610,
      "Ġmechan": 3611,
      "Ġtherefore": 3612,
      "Ġcorrel": 3613,
      "09": 3614,
      "Ġattempt": 3615,
      "Ġclear": 3616,
      "ura": 3617,
      "ĠAmerica": 3618,
      "ners": 3619,
      "oe": 3620,
      "king": 3621,
      "AB": 3622,
      ")}{": 3623,
      "Ġrank": 3624,
      "Ġdone": 3625,
      "Ġhor": 3626,
      "oney": 3627,
      "creen": 3628,
      "/*": 3629,
      "ocal": 3630,
      "ĠDef": 3631,
      "Ġbig": 3632,
      "Ġeconom": 3633,
      "fill": 3634,
      "ĠBer": 3635,
      "Ġleading": 3636,
      "ession": 3637,
      "ccording": 3638,
      "Ġalmost": 3639,
      "ump": 3640,
      "Ġfather": 3641,
      "vey": 3642,
      "Ġcolumn": 3643,
      "imate": 3644,
      "Ġfem": 3645,
      "berg": 3646,
      "Or": 3647,
      "theorem": 3648,
      "Rec": 3649,
      "Ġcannot": 3650,
      "elling": 3651,
      "ĠMal": 3652,
      "Ġinflu": 3653,
      "Ġcomponent": 3654,
      "Ġentire": 3655,
      "ĠAnt": 3656,
      "Ġsold": 3657,
      "Ġpresented": 3658,
      "error": 3659,
      "ĠMod": 3660,
      "Ġoptions": 3661,
      "icles": 3662,
      "Ġflo": 3663,
      "atively": 3664,
      "Ġsw": 3665,
      "Ġmetric": 3666,
      "ogle": 3667,
      "Ġarr": 3668,
      "atory": 3669,
      "Ġtable": 3670,
      "ville": 3671,
      "Array": 3672,
      "Ġdeveloped": 3673,
      "ya": 3674,
      "Ġcapt": 3675,
      "iers": 3676,
      "ĠCour": 3677,
      "run": 3678,
      "Ġequal": 3679,
      "ĠBel": 3680,
      "Ġ-\\": 3681,
      "Ġglobal": 3682,
      "Ġtransform": 3683,
      "ranch": 3684,
      "ĠDi": 3685,
      "History": 3686,
      "UR": 3687,
      "Ġdatas": 3688,
      "UT": 3689,
      "bert": 3690,
      "gs": 3691,
      "]\\": 3692,
      "ites": 3693,
      "1996": 3694,
      "ein": 3695,
      "icult": 3696,
      "Ġgas": 3697,
      "book": 3698,
      "Ġepis": 3699,
      "ĠAward": 3700,
      "ibrary": 3701,
      "Ġsolutions": 3702,
      "ĠCouncil": 3703,
      "pace": 3704,
      "Ġ~": 3705,
      "77": 3706,
      "CH": 3707,
      "ĠHol": 3708,
      "ĠNe": 3709,
      "izes": 3710,
      "Ġholds": 3711,
      "oms": 3712,
      "Ġchanges": 3713,
      "Ġpay": 3714,
      "Ġmarket": 3715,
      "Ġpopular": 3716,
      "Ġoccur": 3717,
      "Ġcompared": 3718,
      "ained": 3719,
      "omial": 3720,
      "(),": 3721,
      "stitute": 3722,
      "ĠPaul": 3723,
      "Ġcompan": 3724,
      "Ġdeaths": 3725,
      "ributed": 3726,
      "Ġdirection": 3727,
      "asc": 3728,
      "Ġintroduced": 3729,
      "olean": 3730,
      "ario": 3731,
      "change": 3732,
      "do": 3733,
      "42": 3734,
      "Ġconstraint": 3735,
      "ĠDes": 3736,
      "Ġinternational": 3737,
      "ĠMor": 3738,
      "ĠTrans": 3739,
      "Wh": 3740,
      "enumerate": 3741,
      "Ġpolitical": 3742,
      "ĠGo": 3743,
      "Ġmale": 3744,
      "Ġpast": 3745,
      "actions": 3746,
      "Ġadded": 3747,
      "\\,\\": 3748,
      "ĠEuropean": 3749,
      "ĠSystem": 3750,
      "Ġstre": 3751,
      "ĠRef": 3752,
      "rule": 3753,
      "leg": 3754,
      "itude": 3755,
      "that": 3756,
      "ĠRed": 3757,
      "Ġcenter": 3758,
      "ĠDem": 3759,
      "ags": 3760,
      "Ġeffective": 3761,
      "den": 3762,
      "Ġwrite": 3763,
      "Ġtaking": 3764,
      "dimensional": 3765,
      "Ġcome": 3766,
      "Vert": 3767,
      "alls": 3768,
      "ensive": 3769,
      "File": 3770,
      "ĠGeneral": 3771,
      "Ġimplies": 3772,
      "MA": 3773,
      "ying": 3774,
      "ilton": 3775,
      "tic": 3776,
      "Ġreturned": 3777,
      "1997": 3778,
      "dag": 3779,
      "Ġprior": 3780,
      "pack": 3781,
      "ĠOlymp": 3782,
      "ĠCanada": 3783,
      "ĠSen": 3784,
      "Since": 3785,
      "Ġveloc": 3786,
      "Ġkeep": 3787,
      "Ġsoft": 3788,
      "bre": 3789,
      "PS": 3790,
      "nb": 3791,
      "Ġenvironment": 3792,
      "opl": 3793,
      "CD": 3794,
      "Ġunderstand": 3795,
      "aged": 3796,
      "refer": 3797,
      "itte": 3798,
      "Trans": 3799,
      "Ġaward": 3800,
      "acc": 3801,
      ")}$": 3802,
      "Form": 3803,
      "Ġcoordin": 3804,
      "Ġimages": 3805,
      "Ge": 3806,
      "Ġbasis": 3807,
      "arily": 3808,
      "Ġareas": 3809,
      "':": 3810,
      "Ġnote": 3811,
      "Ġweak": 3812,
      "Ġeffic": 3813,
      "Ġgrad": 3814,
      "Ġviol": 3815,
      "Ġrecogn": 3816,
      "bo": 3817,
      "68": 3818,
      "bullet": 3819,
      "bound": 3820,
      "Ġsubject": 3821,
      "hand": 3822,
      "Ġarchitect": 3823,
      "riate": 3824,
      "ids": 3825,
      "struct": 3826,
      "itemize": 3827,
      "ĠThat": 3828,
      "icture": 3829,
      "bt": 3830,
      "body": 3831,
      "ĠRober": 3832,
      "ĠThom": 3833,
      "Ġstrateg": 3834,
      "input": 3835,
      "ocr": 3836,
      "orthern": 3837,
      "43": 3838,
      "Ġlittle": 3839,
      "Of": 3840,
      "Ġsays": 3841,
      "ĠChurch": 3842,
      "cial": 3843,
      "Ġrestrict": 3844,
      "ĠPal": 3845,
      "OS": 3846,
      "Ġelection": 3847,
      "ker": 3848,
      "ĠJames": 3849,
      "ores": 3850,
      "uit": 3851,
      "mathscr": 3852,
      "icon": 3853,
      "Ġcoeffic": 3854,
      "rec": 3855,
      "Text": 3856,
      "ĠArmy": 3857,
      "ĠStreet": 3858,
      "Ġ(!": 3859,
      "ML": 3860,
      "ountain": 3861,
      "188": 3862,
      "split": 3863,
      "rote": 3864,
      "ĠFrance": 3865,
      "ka": 3866,
      "ĠFil": 3867,
      "Ġprove": 3868,
      "Att": 3869,
      "oul": 3870,
      "ptions": 3871,
      "Ġprinc": 3872,
      ".)": 3873,
      "$}": 3874,
      "ĠLaw": 3875,
      "Ġincludes": 3876,
      "View": 3877,
      "Ġcontract": 3878,
      "Ġrepresentation": 3879,
      "noindent": 3880,
      "Ġwords": 3881,
      "ĠÃ": 3882,
      "(-": 3883,
      "level": 3884,
      "ĠInt": 3885,
      "ani": 3886,
      "Over": 3887,
      "ledge": 3888,
      "ĠInter": 3889,
      "Ġalgebra": 3890,
      "rast": 3891,
      "1980": 3892,
      "Ġworked": 3893,
      "ked": 3894,
      "Ġprop": 3895,
      "Ġgoal": 3896,
      "Ġdifference": 3897,
      "Ġrelation": 3898,
      "display": 3899,
      "Ġtransfer": 3900,
      "ĠBlack": 3901,
      "atal": 3902,
      "Ġprovides": 3903,
      "long": 3904,
      "aign": 3905,
      "Ġnil": 3906,
      "{}": 3907,
      "Ġpresident": 3908,
      "Ġmagnetic": 3909,
      "MS": 3910,
      "ĠPat": 3911,
      "LA": 3912,
      "rs": 3913,
      "500": 3914,
      "Ġmid": 3915,
      "inite": 3916,
      "57": 3917,
      "Ġupper": 3918,
      "ĠTra": 3919,
      "ened": 3920,
      "Ġsens": 3921,
      "ĠGroup": 3922,
      "nce": 3923,
      "Ġmatter": 3924,
      "ds": 3925,
      "Ġcomponents": 3926,
      "Ġstudies": 3927,
      "la": 3928,
      "Ġincrease": 3929,
      "eline": 3930,
      "xy": 3931,
      "Ġdirectly": 3932,
      "Ġgenerated": 3933,
      "ĠSum": 3934,
      "Ġmakes": 3935,
      "ĠDavid": 3936,
      "ĠRich": 3937,
      "IG": 3938,
      "Ġlearn": 3939,
      "Ġobjects": 3940,
      "Ġflu": 3941,
      "ago": 3942,
      "thing": 3943,
      "ipal": 3944,
      "ĠCenter": 3945,
      "Ġlive": 3946,
      "ĠĠĠĠĊ": 3947,
      "Ġmaximum": 3948,
      "Ġsearch": 3949,
      "perp": 3950,
      "ĠChina": 3951,
      "Ġrot": 3952,
      "flo": 3953,
      "thern": 3954,
      "Ġunique": 3955,
      "wood": 3956,
      "Ġmag": 3957,
      "tra": 3958,
      "ises": 3959,
      "Ġtransition": 3960,
      "GL": 3961,
      "Ġsuccessful": 3962,
      "Ġgot": 3963,
      "ĠQue": 3964,
      "vspace": 3965,
      "Ġfront": 3966,
      "Ġdebut": 3967,
      "Ġdemon": 3968,
      "Path": 3969,
      "ully": 3970,
      "ean": 3971,
      "https": 3972,
      "Ġmedia": 3973,
      "dt": 3974,
      "\\}$": 3975,
      "object": 3976,
      "1995": 3977,
      "Ġsound": 3978,
      "check": 3979,
      "ands": 3980,
      "utive": 3981,
      "isk": 3982,
      "Ġroad": 3983,
      "ĠDo": 3984,
      "Ġyield": 3985,
      "asons": 3986,
      "Ġwebsite": 3987,
      "dist": 3988,
      "uz": 3989,
      "41": 3990,
      "Ġamount": 3991,
      "rian": 3992,
      "Ġindu": 3993,
      "istry": 3994,
      "approx": 3995,
      "Ġcollection": 3996,
      "han": 3997,
      "Ġconduct": 3998,
      "Ġstage": 3999,
      "Ġcandid": 4000,
      "linear": 4001,
      "ida": 4002,
      "Ġoptim": 4003,
      "ini": 4004,
      "ĠRoman": 4005,
      "ns": 4006,
      "~$": 4007,
      "Ġrelease": 4008,
      "cing": 4009,
      "58": 4010,
      "aur": 4011,
      "Ġdecl": 4012,
      "ĠGL": 4013,
      "Ġsignal": 4014,
      "gcolor": 4015,
      "atform": 4016,
      "IR": 4017,
      "ersion": 4018,
      "Pi": 4019,
      "api": 4020,
      "fficient": 4021,
      "}}_": 4022,
      "unn": 4023,
      "Ġlost": 4024,
      "Ġdifficult": 4025,
      "vis": 4026,
      "outhern": 4027,
      "Ġtypes": 4028,
      "Ġdefault": 4029,
      "Ġphysical": 4030,
      "raz": 4031,
      "itar": 4032,
      "iments": 4033,
      "place": 4034,
      "Ġrespons": 4035,
      "Ġproblems": 4036,
      "56": 4037,
      "js": 4038,
      "UN": 4039,
      "ĠFl": 4040,
      "Ġsources": 4041,
      "Ġevolution": 4042,
      "Ġpack": 4043,
      "Info": 4044,
      "ĠGeorge": 4045,
      "Ġaccept": 4046,
      "rate": 4047,
      "Ġpolitic": 4048,
      "ĠAssociation": 4049,
      "Ġparts": 4050,
      "Ġtakes": 4051,
      "ĠTV": 4052,
      "Add": 4053,
      "Ġappoint": 4054,
      "rab": 4055,
      "Ġradio": 4056,
      "Ġregard": 4057,
      "ĠÐ": 4058,
      "Ġchall": 4059,
      "roy": 4060,
      "aring": 4061,
      "Ġcourse": 4062,
      "Ġbecomes": 4063,
      "clusion": 4064,
      "osen": 4065,
      "Inter": 4066,
      "ponent": 4067,
      "can": 4068,
      "Ġ\\|": 4069,
      "1994": 4070,
      "Ġadj": 4071,
      "ishing": 4072,
      "Ġsmaller": 4073,
      "Ġ__": 4074,
      "Ġremov": 4075,
      "pite": 4076,
      "Ġwave": 4077,
      "board": 4078,
      "Ġtradition": 4079,
      "ĠEm": 4080,
      "normal": 4081,
      "Ġ};": 4082,
      "Ġdiscover": 4083,
      "pa": 4084,
      ")+": 4085,
      "eal": 4086,
      "Ġaddress": 4087,
      "ously": 4088,
      "Ġparty": 4089,
      "Ġ_{": 4090,
      "Pr": 4091,
      "Ġapplied": 4092,
      "Ġbox": 4093,
      "pecially": 4094,
      "eturn": 4095,
      "encies": 4096,
      "multicol": 4097,
      "ĉĠĠĠ": 4098,
      "Ġmilitary": 4099,
      "OT": 4100,
      "used": 4101,
      "Ġquestion": 4102,
      "reek": 4103,
      "Ġreally": 4104,
      "}/": 4105,
      "Ġstop": 4106,
      "Ġnumbers": 4107,
      "alian": 4108,
      "Reg": 4109,
      "Ġnovel": 4110,
      ".</": 4111,
      "true": 4112,
      "Ã¶": 4113,
      "ĠNot": 4114,
      "ashington": 4115,
      "writ": 4116,
      "ios": 4117,
      "Ġkind": 4118,
      "Ġvariables": 4119,
      "auge": 4120,
      "Ġsuff": 4121,
      "ĠCons": 4122,
      "&&": 4123,
      "ĠTherefore": 4124,
      "ĠRoyal": 4125,
      "Ġdetails": 4126,
      "Ġnames": 4127,
      "model": 4128,
      "ĠDepartment": 4129,
      "multicolumn": 4130,
      "Ġalthough": 4131,
      "Ġestimate": 4132,
      "Ġbgcolor": 4133,
      "public": 4134,
      "78": 4135,
      "``": 4136,
      "Ġrac": 4137,
      "Ġ});": 4138,
      "oke": 4139,
      "Ġwrote": 4140,
      "member": 4141,
      "unity": 4142,
      "fil": 4143,
      "MP": 4144,
      "plate": 4145,
      "}}}": 4146,
      "Ġelectron": 4147,
      "Ġscen": 4148,
      "Ġneut": 4149,
      "Ġspectrum": 4150,
      "Ġchannel": 4151,
      "valid": 4152,
      "ĠHall": 4153,
      "Map": 4154,
      "Ġrelationship": 4155,
      "men": 4156,
      "ething": 4157,
      "Ġincreasing": 4158,
      "gence": 4159,
      "rd": 4160,
      "ades": 4161,
      "['": 4162,
      "1992": 4163,
      "Ġcustom": 4164,
      "Ġ$-": 4165,
      "ba": 4166,
      "ĠBay": 4167,
      "SP": 4168,
      "';": 4169,
      "1993": 4170,
      "ging": 4171,
      "range": 4172,
      "Ġdeal": 4173,
      "Sup": 4174,
      "ĠDivision": 4175,
      "ĠTable": 4176,
      "Ġgradu": 4177,
      "ĠNote": 4178,
      "Ġforce": 4179,
      "Sub": 4180,
      "Ġitself": 4181,
      "Ġeigen": 4182,
      "Out": 4183,
      "cret": 4184,
      "ams": 4185,
      "Ġjoined": 4186,
      "Ġsaf": 4187,
      "^-": 4188,
      "turb": 4189,
      "Ġactive": 4190,
      "ĠMart": 4191,
      "Request": 4192,
      "Ġmove": 4193,
      "ĠLou": 4194,
      "acity": 4195,
      "Ġlaun": 4196,
      "System": 4197,
      "pret": 4198,
      "Ġdecre": 4199,
      "ittee": 4200,
      "ĠUK": 4201,
      "Ġmonths": 4202,
      "Ġallows": 4203,
      "aching": 4204,
      "Ġqual": 4205,
      "ln": 4206,
      "Ġaud": 4207,
      "Ġteams": 4208,
      "ube": 4209,
      "Ġeducation": 4210,
      "Then": 4211,
      "Ġiter": 4212,
      "Ġsetting": 4213,
      "underline": 4214,
      "iting": 4215,
      "ĠGa": 4216,
      "ald": 4217,
      "Ġinc": 4218,
      "FA": 4219,
      "Ġfav": 4220,
      "Ġnuc": 4221,
      "Context": 4222,
      "Ġdirector": 4223,
      "tes": 4224,
      "abs": 4225,
      "Ġrail": 4226,
      "Ġpeak": 4227,
      "']": 4228,
      "Theta": 4229,
      "Ġlocation": 4230,
      "pty": 4231,
      "pc": 4232,
      "Ġmention": 4233,
      "sembly": 4234,
      "Ġrelative": 4235,
      "ĠJer": 4236,
      "Ġhon": 4237,
      "Ġimpact": 4238,
      "Ġuses": 4239,
      "zer": 4240,
      "ĠWhile": 4241,
      "command": 4242,
      "ĠUnion": 4243,
      "Pol": 4244,
      "Ser": 4245,
      "Ġgeomet": 4246,
      "ĠClass": 4247,
      "Ġmarried": 4248,
      "Ġwhite": 4249,
      "Ġdisplay": 4250,
      "iation": 4251,
      "ride": 4252,
      "ĠAustralian": 4253,
      "NN": 4254,
      "){\\": 4255,
      "Ġess": 4256,
      "ĠĠĠĠĠĠĠĠĠĠ": 4257,
      "ĠBo": 4258,
      "Ġbar": 4259,
      "ĠPe": 4260,
      "Ġcritical": 4261,
      "ado": 4262,
      "Ġbehavior": 4263,
      "rey": 4264,
      "ansion": 4265,
      "ynomial": 4266,
      "Ġratio": 4267,
      "Ġchoice": 4268,
      "escription": 4269,
      "aging": 4270,
      "One": 4271,
      "Ġdefe": 4272,
      "Tr": 4273,
      "ĠSing": 4274,
      "anks": 4275,
      "lier": 4276,
      "Ġpattern": 4277,
      "ĠSub": 4278,
      "1970": 4279,
      "Ġcompanies": 4280,
      "Ġequivalent": 4281,
      "Ġprofessional": 4282,
      "93": 4283,
      "Ġten": 4284,
      "ĠGermany": 4285,
      "Ġselected": 4286,
      "Ġmode": 4287,
      "init": 4288,
      "Ġcorrect": 4289,
      "bour": 4290,
      "Ġsupported": 4291,
      "Ġlargest": 4292,
      "Ġinj": 4293,
      "ston": 4294,
      "Field": 4295,
      "ols": 4296,
      "pan": 4297,
      "grad": 4298,
      "Ġtheorem": 4299,
      "Ġfit": 4300,
      "Ġdouble": 4301,
      "IP": 4302,
      "ĠCourt": 4303,
      "Ġtask": 4304,
      "Ġ$\\{": 4305,
      "parent": 4306,
      "Ġregions": 4307,
      "void": 4308,
      "rip": 4309,
      "Ġconnected": 4310,
      "Ġvelocity": 4311,
      "asket": 4312,
      "shift": 4313,
      "flow": 4314,
      "Ġevalu": 4315,
      "png": 4316,
      "Ġstudied": 4317,
      "Ġdraw": 4318,
      "Ġagre": 4319,
      "Ġpolicy": 4320,
      "vant": 4321,
      "ĠMusic": 4322,
      "ares": 4323,
      "Ġkm": 4324,
      "inese": 4325,
      "nbsp": 4326,
      "Ġax": 4327,
      "Ġexpression": 4328,
      "ocks": 4329,
      "Ġshift": 4330,
      "92": 4331,
      "irm": 4332,
      "ifier": 4333,
      "ĠGreen": 4334,
      "Ġconv": 4335,
      "ederal": 4336,
      "ĠCap": 4337,
      "ĠSw": 4338,
      "Ġmix": 4339,
      "ĠInstitute": 4340,
      "Ġcompleted": 4341,
      "Ġwindow": 4342,
      "Ġformed": 4343,
      "Ġdetermined": 4344,
      "ĠDuring": 4345,
      "94": 4346,
      "Ġvers": 4347,
      "otic": 4348,
      "When": 4349,
      "Ġvict": 4350,
      "Ġlay": 4351,
      "func": 4352,
      "textrm": 4353,
      "unk": 4354,
      "usion": 4355,
      "}^{-": 4356,
      "Ġpage": 4357,
      "ĠĠĠĠĠĠĠĠĠĠĠĠĠĠĠĠĠĠĠĠĠĠĠĠĠĠĠ": 4358,
      "Ġdesigned": 4359,
      "ĠNor": 4360,
      "Ġpers": 4361,
      "Ġfire": 4362,
      "Ġdate": 4363,
      "Ġonline": 4364,
      "Ġupon": 4365,
      "Ġreve": 4366,
      "apping": 4367,
      "Ġusually": 4368,
      "next": 4369,
      "minus": 4370,
      "Ġexhib": 4371,
      "rief": 4372,
      "inct": 4373,
      "Ġoutside": 4374,
      "Ġlikely": 4375,
      "Ġopened": 4376,
      "Ġspeed": 4377,
      "Ġoffice": 4378,
      "Ġdimension": 4379,
      "norm": 4380,
      "ĠWashington": 4381,
      "Ġfrequency": 4382,
      "Ġdemonstr": 4383,
      "Ġcontinued": 4384,
      "Ġsongs": 4385,
      "Group": 4386,
      "Ġbring": 4387,
      "Ġacqu": 4388,
      "result": 4389,
      "1991": 4390,
      "hest": 4391,
      "ona": 4392,
      "ĠRoad": 4393,
      "subseteq": 4394,
      "Ġjob": 4395,
      "Note": 4396,
      "HE": 4397,
      "acing": 4398,
      "ĠCompany": 4399,
      "ING": 4400,
      "arr": 4401,
      "location": 4402,
      "ĠMary": 4403,
      "oding": 4404,
      "<\\": 4405,
      "Ġfollowed": 4406,
      "76": 4407,
      "ĠRobert": 4408,
      "arter": 4409,
      "nes": 4410,
      "ĠAcadem": 4411,
      "prod": 4412,
      "Ġ\\;": 4413,
      "ĠJack": 4414,
      "Inst": 4415,
      "ains": 4416,
      "ĠVir": 4417,
      "oz": 4418,
      "Ġassist": 4419,
      "Ġdirected": 4420,
      "Ġword": 4421,
      "rices": 4422,
      "Ġallowed": 4423,
      "oken": 4424,
      "....": 4425,
      ".$": 4426,
      "di": 4427,
      "Ġwhole": 4428,
      "oring": 4429,
      "mes": 4430,
      "Ġoperation": 4431,
      "Ġcurrently": 4432,
      "sey": 4433,
      "Ġadopt": 4434,
      "default": 4435,
      "Hand": 4436,
      "Ġtree": 4437,
      "à¤": 4438,
      "Ġneeded": 4439,
      "Build": 4440,
      "Ġinvolved": 4441,
      "hy": 4442,
      "hi": 4443,
      "Ġ/>": 4444,
      "efore": 4445,
      "ĠVol": 4446,
      "umni": 4447,
      "enced": 4448,
      "((": 4449,
      "Ġaltern": 4450,
      "Ġchurch": 4451,
      "ĠGet": 4452,
      "eck": 4453,
      "inos": 4454,
      "rupt": 4455,
      "Ġrecorded": 4456,
      "Ġillust": 4457,
      "plication": 4458,
      "ala": 4459,
      "ĠSociety": 4460,
      "izations": 4461,
      "Ġnight": 4462,
      "End": 4463,
      "Ġstructures": 4464,
      "ĠMat": 4465,
      "Size": 4466,
      "ication": 4467,
      "Ġsense": 4468,
      "irtual": 4469,
      "Ġborder": 4470,
      "())": 4471,
      "Ġdig": 4472,
      "Ġimmedi": 4473,
      "Ġrow": 4474,
      "Ġrace": 4475,
      "ĠMex": 4476,
      "91": 4477,
      "Ġdaugh": 4478,
      "Ġdepart": 4479,
      "Ġ$|": 4480,
      "cho": 4481,
      "Ass": 4482,
      "ros": 4483,
      "Ġexperience": 4484,
      "52": 4485,
      "ĠBest": 4486,
      "ancial": 4487,
      "ĠNews": 4488,
      "ada": 4489,
      "Config": 4490,
      "Ġthroughout": 4491,
      "Ġflux": 4492,
      "ingu": 4493,
      "Ġir": 4494,
      "Ġespecially": 4495,
      "iences": 4496,
      "Ġadapt": 4497,
      "estival": 4498,
      "Ġmodern": 4499,
      "ĠSam": 4500,
      "Ġrob": 4501,
      "Ġmother": 4502,
      "Ġlove": 4503,
      "Ġmessage": 4504,
      "acher": 4505,
      "Ġuniform": 4506,
      "Ġremains": 4507,
      "footnote": 4508,
      "Ġever": 4509,
      "isation": 4510,
      "ĠMet": 4511,
      "Ġsubsequ": 4512,
      "Ġbrother": 4513,
      "Ġface": 4514,
      "omorphism": 4515,
      "ĠArch": 4516,
      "Ġhimself": 4517,
      "Ġderiv": 4518,
      "eles": 4519,
      "Ġrunning": 4520,
      "SC": 4521,
      "Ġunits": 4522,
      "ĠHen": 4523,
      "Ġreference": 4524,
      "EE": 4525,
      "Ġeffort": 4526,
      "Ġconclud": 4527,
      "abled": 4528,
      "Ġcast": 4529,
      "54": 4530,
      "texttt": 4531,
      "Ġproced": 4532,
      "Ġissue": 4533,
      "ria": 4534,
      "Ġvariable": 4535,
      "Ġcampaign": 4536,
      "tical": 4537,
      "Ġtowards": 4538,
      "Ġord": 4539,
      "well": 4540,
      "ĠLeg": 4541,
      "totype": 4542,
      "word": 4543,
      "Ġrights": 4544,
      "ĠPress": 4545,
      "create": 4546,
      "^{-\\": 4547,
      "anning": 4548,
      "met": 4549,
      "Ġissues": 4550,
      "amily": 4551,
      "No": 4552,
      "ifying": 4553,
      "But": 4554,
      "Ġdeep": 4555,
      "Ġheight": 4556,
      "case": 4557,
      "Ġinequ": 4558,
      "SU": 4559,
      "ĠClub": 4560,
      "Ġapplication": 4561,
      "Ġclassical": 4562,
      "oplus": 4563,
      "51": 4564,
      "Ġoperations": 4565,
      "ĠOff": 4566,
      "ĠOur": 4567,
      "Ġyet": 4568,
      "ospital": 4569,
      "ĠRuss": 4570,
      "Ġsigned": 4571,
      "dr": 4572,
      "special": 4573,
      "ĠIsland": 4574,
      "Ġresulting": 4575,
      "rice": 4576,
      "Ġplaying": 4577,
      "Ġsil": 4578,
      "burg": 4579,
      "options": 4580,
      "Ġsomething": 4581,
      "urity": 4582,
      "ĠBook": 4583,
      "ivial": 4584,
      "taint": 4585,
      "bigg": 4586,
      "uffer": 4587,
      "ening": 4588,
      "Ġsufficient": 4589,
      "config": 4590,
      "_*": 4591,
      "Ġseg": 4592,
      "Ġ(-": 4593,
      "start": 4594,
      "[]": 4595,
      "antic": 4596,
      "72": 4597,
      "height": 4598,
      "}'": 4599,
      "Ġprimary": 4600,
      ")|": 4601,
      "Ġapply": 4602,
      "ĠAlex": 4603,
      "Ġtravel": 4604,
      "ifold": 4605,
      "ĠWil": 4606,
      "Ġsimply": 4607,
      "Service": 4608,
      "Ġintegral": 4609,
      "Ġadminist": 4610,
      "assert": 4611,
      "Ġexplicit": 4612,
      "ĠEar": 4613,
      "ĠTown": 4614,
      "ĠGames": 4615,
      "Ġoperators": 4616,
      "Ġthings": 4617,
      "Ġpolynomial": 4618,
      "eli": 4619,
      "Ġpreviously": 4620,
      "Model": 4621,
      "Ġsmooth": 4622,
      "ilies": 4623,
      "CE": 4624,
      "active": 4625,
      "iny": 4626,
      "}},": 4627,
      "method": 4628,
      "ĠTest": 4629,
      "setminus": 4630,
      "Ġwife": 4631,
      "Ġgauge": 4632,
      "ĠGold": 4633,
      "orage": 4634,
      "Ġsus": 4635,
      "nav": 4636,
      "Ġuncer": 4637,
      "Ġselect": 4638,
      "================": 4639,
      "****************": 4640,
      "Ġnews": 4641,
      "Ġtransport": 4642,
      "liament": 4643,
      "Ġcommand": 4644,
      "Ġobservations": 4645,
      "ensus": 4646,
      "ĠProv": 4647,
      "Ġhence": 4648,
      "Ġrev": 4649,
      "Ġboard": 4650,
      "Ġfall": 4651,
      "Ġ($\\": 4652,
      "Ġload": 4653,
      "ĠScience": 4654,
      "Ġdark": 4655,
      "Ġbit": 4656,
      "unt": 4657,
      "Ġnoise": 4658,
      "DF": 4659,
      "ĠDirect": 4660,
      "IL": 4661,
      "net": 4662,
      "Ġcharge": 4663,
      "Count": 4664,
      "ki": 4665,
      "arp": 4666,
      "Ġship": 4667,
      "ĠAfrican": 4668,
      "ĠCong": 4669,
      "ena": 4670,
      "Ġeight": 4671,
      "using": 4672,
      "ĠAfrica": 4673,
      "dagger": 4674,
      "erve": 4675,
      "ĠYear": 4676,
      "Code": 4677,
      "Ġtro": 4678,
      "Ġcharg": 4679,
      "Ġappeared": 4680,
      "Ġprote": 4681,
      "Ġcompact": 4682,
      "isions": 4683,
      "olf": 4684,
      "print": 4685,
      "has": 4686,
      "dro": 4687,
      "ĠMad": 4688,
      "ellar": 4689,
      "ĠWork": 4690,
      "ĠSl": 4691,
      "Ġlonger": 4692,
      "Ġclasses": 4693,
      "ĠCanadian": 4694,
      "Ġcontinuous": 4695,
      "ĠMer": 4696,
      "59": 4697,
      "ĠRad": 4698,
      "Ġfeel": 4699,
      "////////": 4700,
      "Ġbehind": 4701,
      "Ġstreng": 4702,
      "ĠTex": 4703,
      "Ġconcept": 4704,
      "ĉĉĉĉĉĉ": 4705,
      "_+": 4706,
      "Ġcurve": 4707,
      "Ġnecessary": 4708,
      "Ġliving": 4709,
      "53": 4710,
      "main": 4711,
      "\\}": 4712,
      "PI": 4713,
      "ĠResearch": 4714,
      "fr": 4715,
      "ĠMa": 4716,
      "tem": 4717,
      "ĠMiss": 4718,
      "witch": 4719,
      "Ġpercent": 4720,
      "{$": 4721,
      "Ð¾": 4722,
      "ĠMag": 4723,
      "Exp": 4724,
      "Ġvolume": 4725,
      "Ġactually": 4726,
      "Ġstream": 4727,
      "ĠSet": 4728,
      "multi": 4729,
      "wedge": 4730,
      "ĠMichael": 4731,
      "Ġinteraction": 4732,
      "det": 4733,
      "asketball": 4734,
      "Ġgrav": 4735,
      "module": 4736,
      "Ð°": 4737,
      "mail": 4738,
      "Ġrock": 4739,
      "Ġautom": 4740,
      "Ġdiagram": 4741,
      "Ġter": 4742,
      "ĠMac": 4743,
      "Ġnegative": 4744,
      "ita": 4745,
      "Ġdam": 4746,
      "Ġlatter": 4747,
      "63": 4748,
      "Ġemer": 4749,
      "1960": 4750,
      "crete": 4751,
      "Ġconstit": 4752,
      "Ġadm": 4753,
      "Ġextended": 4754,
      "Ġ$[": 4755,
      "}}_{": 4756,
      "Ġlevels": 4757,
      "1989": 4758,
      "ĠDay": 4759,
      "Ġrepresented": 4760,
      "Ġaccom": 4761,
      "Ġprec": 4762,
      "attice": 4763,
      "isms": 4764,
      "atur": 4765,
      "ĠCentral": 4766,
      "AG": 4767,
      "olar": 4768,
      "Ġscheme": 4769,
      "ĠTur": 4770,
      "Ġemission": 4771,
      "Ġgave": 4772,
      "reater": 4773,
      "ashed": 4774,
      "Ġidea": 4775,
      "linewidth": 4776,
      "ĠHamilton": 4777,
      "ĠKingdom": 4778,
      "Ġcharacters": 4779,
      "web": 4780,
      "ĠHow": 4781,
      "ĠĠĠĊ": 4782,
      "ĠJust": 4783,
      "inf": 4784,
      "itz": 4785,
      "atial": 4786,
      "ĠWhite": 4787,
      "ĠHere": 4788,
      "MC": 4789,
      "Ġpresence": 4790,
      "\"></": 4791,
      "ĠSur": 4792,
      "ĠSome": 4793,
      "cel": 4794,
      "jo": 4795,
      "Ġlimited": 4796,
      "Ġded": 4797,
      "Ġtrac": 4798,
      "Ġcomes": 4799,
      "Ġthought": 4800,
      "NS": 4801,
      "current": 4802,
      "Ġmach": 4803,
      "Ġbounded": 4804,
      "Ġexpress": 4805,
      "rish": 4806,
      "1988": 4807,
      "omin": 4808,
      "Ġderived": 4809,
      "Ġlayer": 4810,
      "ĠThomas": 4811,
      "aker": 4812,
      "km": 4813,
      "Ġimm": 4814,
      "Ġavoid": 4815,
      "Ġlot": 4816,
      "Ġbirth": 4817,
      "ras": 4818,
      "Ġschools": 4819,
      "Ġhol": 4820,
      "user": 4821,
      "izer": 4822,
      "ipp": 4823,
      "Ġinside": 4824,
      "ĠScott": 4825,
      "ĠRev": 4826,
      "Table": 4827,
      "elves": 4828,
      "Ġquality": 4829,
      "62": 4830,
      "Ġtherm": 4831,
      "ĠRussian": 4832,
      "Ġrule": 4833,
      "Ġhyp": 4834,
      "Sim": 4835,
      "ĠGreat": 4836,
      "Ġsymmetry": 4837,
      "_{(": 4838,
      "roller": 4839,
      "Ġmarg": 4840,
      "ollowing": 4841,
      "Read": 4842,
      "tainer": 4843,
      "Ġbelong": 4844,
      "Ġhttp": 4845,
      "Ġcontact": 4846,
      "su": 4847,
      "ĠDis": 4848,
      "Ġreduced": 4849,
      "Ġstarting": 4850,
      "Ġindustry": 4851,
      "uracy": 4852,
      "VID": 4853,
      "Ġdrop": 4854,
      "Ġforces": 4855,
      "Ġwhy": 4856,
      "Ed": 4857,
      "abase": 4858,
      "ĠMont": 4859,
      "SO": 4860,
      "Ġdecision": 4861,
      "gent": 4862,
      "Ġfood": 4863,
      "ĠPo": 4864,
      "ĠJapanese": 4865,
      "Ġmar": 4866,
      "Ġevidence": 4867,
      "Ġtoday": 4868,
      "ducation": 4869,
      "ĠGrand": 4870,
      "idents": 4871,
      "Ġbenef": 4872,
      "Ġdiscussed": 4873,
      "$_": 4874,
      "base": 4875,
      "prototype": 4876,
      "ĠCath": 4877,
      "Ġneeds": 4878,
      "Ġstatus": 4879,
      "ĠSal": 4880,
      "uan": 4881,
      "Ġshall": 4882,
      "Ġlat": 4883,
      "Ġjud": 4884,
      "ĠOut": 4885,
      "Ġmaps": 4886,
      "Ġinterpret": 4887,
      "inder": 4888,
      "Ġrecover": 4889,
      "ĠMuseum": 4890,
      "black": 4891,
      "ket": 4892,
      "Ġfriend": 4893,
      "EX": 4894,
      "Ġpersonal": 4895,
      "0000": 4896,
      "empty": 4897,
      "Ġinterval": 4898,
      "apter": 4899,
      "Ġoverall": 4900,
      "Ġanim": 4901,
      "PC": 4902,
      "ĠHealth": 4903,
      "ĉĠ": 4904,
      "colon": 4905,
      "ictor": 4906,
      "Ġchosen": 4907,
      "elt": 4908,
      "ecause": 4909,
      "ĠOther": 4910,
      "ĠFound": 4911,
      "ought": 4912,
      "win": 4913,
      "Ġwriting": 4914,
      "Ġgalaxies": 4915,
      "74": 4916,
      "west": 4917,
      "Ġmonth": 4918,
      "edy": 4919,
      "Ġgenerally": 4920,
      "Ġmodule": 4921,
      "ĠBen": 4922,
      "Ġdram": 4923,
      "Ġexcept": 4924,
      "Ġhous": 4925,
      "Ġpolice": 4926,
      "Ġmotion": 4927,
      "Ġbooks": 4928,
      "parallel": 4929,
      "Ġexpand": 4930,
      "Ġfigure": 4931,
      "Ġforward": 4932,
      "Ġalbums": 4933,
      "Eng": 4934,
      "Ġtax": 4935,
      "Ġsurv": 4936,
      "EC": 4937,
      "Ġstaff": 4938,
      "soft": 4939,
      "count": 4940,
      "ano": 4941,
      "Ġball": 4942,
      "ĠDon": 4943,
      "ĠChinese": 4944,
      "Ġste": 4945,
      "Ġobser": 4946,
      "airs": 4947,
      "Ġcountries": 4948,
      "),\\": 4949,
      "ĠTechn": 4950,
      "ali": 4951,
      "Ġvertex": 4952,
      "ĠTom": 4953,
      "=#": 4954,
      "FT": 4955,
      "Ġpanel": 4956,
      "Ġplaces": 4957,
      "Ġelected": 4958,
      "Ġsports": 4959,
      "Ġexpansion": 4960,
      "Ġorigin": 4961,
      "limits": 4962,
      "illing": 4963,
      "ĠPet": 4964,
      "ĠPublic": 4965,
      "Ġleads": 4966,
      "First": 4967,
      "Ġappears": 4968,
      "ĠHistor": 4969,
      "ĠAcademy": 4970,
      "Ġfight": 4971,
      "Ġenter": 4972,
      ")/": 4973,
      "Ġgrowth": 4974,
      "ufact": 4975,
      "Ġhot": 4976,
      "Ġnodes": 4977,
      "Ġscatter": 4978,
      "ether": 4979,
      "Ġreplaced": 4980,
      "ollary": 4981,
      "alo": 4982,
      "DO": 4983,
      "ĠCre": 4984,
      "IV": 4985,
      "Ġpractice": 4986,
      "nov": 4987,
      "Ġfounded": 4988,
      "definition": 4989,
      "Ġforms": 4990,
      "Ġinternal": 4991,
      "Ġnorm": 4992,
      "Ġtour": 4993,
      "Ġsamples": 4994,
      "Ġleaders": 4995,
      "oto": 4996,
      "Ġarticle": 4997,
      "Ġcontinue": 4998,
      "thlet": 4999,
      "azine": 5000,
      "rial": 5001,
      "Ġstated": 5002,
      "FC": 5003,
      "ĠZeal": 5004,
      "ĠJew": 5005,
      "ĠChristian": 5006,
      ")\\,": 5007,
      "Ġcos": 5008,
      "ocol": 5009,
      "Ġpaint": 5010,
      "ĠSte": 5011,
      "ĠLand": 5012,
      "Ġleague": 5013,
      "PR": 5014,
      "Ġembedd": 5015,
      "Ġmaintain": 5016,
      "ectors": 5017,
      "Ġdynamics": 5018,
      "Ġproducts": 5019,
      "ometimes": 5020,
      "Ġscore": 5021,
      "Ġsex": 5022,
      "block": 5023,
      "Now": 5024,
      "fess": 5025,
      "FL": 5026,
      "87": 5027,
      "Ġsymbol": 5028,
      "eria": 5029,
      "ĠWestern": 5030,
      "fect": 5031,
      "ĠTexas": 5032,
      "arameter": 5033,
      "mercial": 5034,
      "ĠGod": 5035,
      "ĠDan": 5036,
      "bon": 5037,
      "Call": 5038,
      "jection": 5039,
      "Ġframework": 5040,
      "Ġwest": 5041,
      "child": 5042,
      "ENT": 5043,
      "war": 5044,
      "ĠProposition": 5045,
      "Ġpartial": 5046,
      "\\'": 5047,
      "ĠZealand": 5048,
      "PT": 5049,
      "Ġknowledge": 5050,
      "86": 5051,
      "Ġformula": 5052,
      "Ġblue": 5053,
      "1987": 5054,
      "local": 5055,
      "idden": 5056,
      "Ġearlier": 5057,
      "ees": 5058,
      "iverse": 5059,
      "ells": 5060,
      "Color": 5061,
      "arks": 5062,
      "Ġeast": 5063,
      "version": 5064,
      "Ġlisted": 5065,
      "ĠMinister": 5066,
      "Ġmoney": 5067,
      "resents": 5068,
      "Ġ;": 5069,
      "Ġstra": 5070,
      "ĠItalian": 5071,
      "Ðµ": 5072,
      "ropy": 5073,
      "pected": 5074,
      "Ġappointed": 5075,
      "ĠDemocr": 5076,
      "stack": 5077,
      "Ġcluster": 5078,
      "Ġaim": 5079,
      "ye": 5080,
      "Ġconsists": 5081,
      "Ġer": 5082,
      "reme": 5083,
      "Ġdataset": 5084,
      "oma": 5085,
      "ĠSuper": 5086,
      "oice": 5087,
      "agement": 5088,
      "Ġslow": 5089,
      "Ġseven": 5090,
      "ĠRail": 5091,
      "ua": 5092,
      "Ġ|\\": 5093,
      "ocation": 5094,
      "Ġargument": 5095,
      "LT": 5096,
      "reland": 5097,
      "Ġveh": 5098,
      "Ġsubset": 5099,
      "={": 5100,
      "ih": 5101,
      "Ġarbit": 5102,
      "\"\"": 5103,
      "ĠCarol": 5104,
      "Ġmissing": 5105,
      "ĠRecords": 5106,
      "ĠLouis": 5107,
      "Ġruns": 5108,
      "Ġepisode": 5109,
      "ĠNow": 5110,
      "Ġnature": 5111,
      "Ġ]": 5112,
      "Ġformation": 5113,
      "Ġmus": 5114,
      "Log": 5115,
      "ĠVirgin": 5116,
      "Ġ...": 5117,
      "apache": 5118,
      "Ġfun": 5119,
      "Item": 5120,
      "Ġshape": 5121,
      "Ã¤": 5122,
      "ira": 5123,
      "ilarly": 5124,
      "za": 5125,
      "Ġtransl": 5126,
      "Ġcred": 5127,
      "ĠSummer": 5128,
      "ĠDel": 5129,
      "iques": 5130,
      "Ġsaw": 5131,
      "Ġmeasured": 5132,
      "arc": 5133,
      "icense": 5134,
      "1986": 5135,
      "spec": 5136,
      "_{{\\": 5137,
      "ync": 5138,
      "BA": 5139,
      "1984": 5140,
      "ircraft": 5141,
      "Ġfully": 5142,
      "asks": 5143,
      "61": 5144,
      "Ġdaughter": 5145,
      "Ġparticle": 5146,
      "ĠTor": 5147,
      "Ġ}\\": 5148,
      "Te": 5149,
      "ĠRem": 5150,
      "arts": 5151,
      "Ġscreen": 5152,
      ")}(": 5153,
      "Ġsyn": 5154,
      "Ġconcern": 5155,
      "Ġfootballers": 5156,
      "ĠLat": 5157,
      "ĠFe": 5158,
      "ĠKore": 5159,
      "Ġjournal": 5160,
      "Ġconsum": 5161,
      "Ġcontribution": 5162,
      "ĠRob": 5163,
      "isher": 5164,
      "Ġthrow": 5165,
      "BS": 5166,
      "Ġcomparison": 5167,
      "ĠSecond": 5168,
      "Ġminimum": 5169,
      "Ġparticles": 5170,
      "rat": 5171,
      "Ġcourt": 5172,
      "ĠEv": 5173,
      "Ġplatform": 5174,
      "bin": 5175,
      "iral": 5176,
      "Ġperturb": 5177,
      "Ġsolid": 5178,
      "Ġgovern": 5179,
      "*{": 5180,
      "Ġdeliver": 5181,
      "Ġrap": 5182,
      "Ġhighest": 5183,
      "vention": 5184,
      "include": 5185,
      "bur": 5186,
      "Ġcollect": 5187,
      "subfigure": 5188,
      "Ġusers": 5189,
      "Ġguitar": 5190,
      "Ġspectral": 5191,
      "reshold": 5192,
      "Query": 5193,
      "Ġexperiments": 5194,
      "Ġtrain": 5195,
      "stant": 5196,
      "79": 5197,
      "Ġbur": 5198,
      "_{-": 5199,
      "Ġapproximation": 5200,
      "Ġsecur": 5201,
      "Ġhours": 5202,
      "Ġlack": 5203,
      "Ġconsequ": 5204,
      "road": 5205,
      "Ġdetermine": 5206,
      "yr": 5207,
      "sol": 5208,
      "host": 5209,
      "inv": 5210,
      "Ġcounter": 5211,
      "cles": 5212,
      "Ġexpon": 5213,
      "Ġoption": 5214,
      "\\!\\!": 5215,
      "'\\": 5216,
      "Ġwide": 5217,
      "'_": 5218,
      "Ġhit": 5219,
      "ĠCharles": 5220,
      "Ġquick": 5221,
      "Ġconnection": 5222,
      "73": 5223,
      "Ġrelig": 5224,
      "Ġradius": 5225,
      "Ġcoupling": 5226,
      "Ġmomentum": 5227,
      "Ġmemory": 5228,
      "image": 5229,
      "erman": 5230,
      "You": 5231,
      "dec": 5232,
      "Ġapproximately": 5233,
      "Ġconnect": 5234,
      "Wid": 5235,
      "Ġincreased": 5236,
      "Ġpolar": 5237,
      "itors": 5238,
      "Ġchanged": 5239,
      "ĠService": 5240,
      "iti": 5241,
      "Ġcategory": 5242,
      "atre": 5243,
      "Ġidentity": 5244,
      "Ġplane": 5245,
      "rought": 5246,
      "Ġhyper": 5247,
      "ĠFlor": 5248,
      "md": 5249,
      "OO": 5250,
      "Comm": 5251,
      "69": 5252,
      "Ġpressure": 5253,
      "Ġestimated": 5254,
      "Ġcam": 5255,
      "iller": 5256,
      "({": 5257,
      "Ġcoach": 5258,
      "Ġneighbor": 5259,
      "Ġreached": 5260,
      "Co": 5261,
      "Ġchoose": 5262,
      "names": 5263,
      "lections": 5264,
      "300": 5265,
      "background": 5266,
      "aled": 5267,
      "=(": 5268,
      "Ġinstit": 5269,
      "uns": 5270,
      "deg": 5271,
      "ĠFore": 5272,
      "Ġrules": 5273,
      "char": 5274,
      "Ġalumni": 5275,
      "Ġdescribe": 5276,
      "Ġeasily": 5277,
      "Ġrecently": 5278,
      "eler": 5279,
      "ĠFootball": 5280,
      "Ġslight": 5281,
      "Ġuncertaint": 5282,
      "Ġnumerical": 5283,
      "ĠFurther": 5284,
      "Ġfemale": 5285,
      "71": 5286,
      "ĠSmith": 5287,
      "Be": 5288,
      "riz": 5289,
      "Property": 5290,
      "1985": 5291,
      "Ġkilled": 5292,
      "lt": 5293,
      "values": 5294,
      "Ġnetworks": 5295,
      "ULL": 5296,
      "uthors": 5297,
      "Ġinteresting": 5298,
      "lient": 5299,
      "ributes": 5300,
      "itable": 5301,
      ":\\": 5302,
      "aligned": 5303,
      "rep": 5304,
      "inding": 5305,
      "ĠSaint": 5306,
      "Ġframe": 5307,
      "Ġdescription": 5308,
      "ĠOlympics": 5309,
      "ĠSk": 5310,
      "Ġprofile": 5311,
      "Ġsatisfies": 5312,
      "Ġeventually": 5313,
      "ĠHence": 5314,
      "Ġremaining": 5315,
      "Ġfilter": 5316,
      "Ġoccup": 5317,
      "SI": 5318,
      "Ġtim": 5319,
      "Message": 5320,
      "](": 5321,
      "rees": 5322,
      "}}(\\": 5323,
      "ĠJose": 5324,
      "ĠMus": 5325,
      "Here": 5326,
      "example": 5327,
      "Method": 5328,
      "ouri": 5329,
      "Ġoptimal": 5330,
      "Ġextension": 5331,
      "Ġprocesses": 5332,
      "emic": 5333,
      "Ġattention": 5334,
      "Ġmeaning": 5335,
      "Ġsen": 5336,
      "More": 5337,
      "Ġfinished": 5338,
      "column": 5339,
      "ĠPeter": 5340,
      "Ġreading": 5341,
      "ĠGra": 5342,
      "ican": 5343,
      "Ġfamilies": 5344,
      "isl": 5345,
      "page": 5346,
      "Can": 5347,
      "Per": 5348,
      "$(": 5349,
      "graph": 5350,
      "Net": 5351,
      "Ġbeginning": 5352,
      "Ġexisting": 5353,
      ")_{": 5354,
      "Ġtechnology": 5355,
      "Ġmanagement": 5356,
      "}$\\": 5357,
      "Ġapplications": 5358,
      "Ġchem": 5359,
      "dx": 5360,
      "Ġrequires": 5361,
      "=-": 5362,
      "ĠIN": 5363,
      "aud": 5364,
      "Ġprint": 5365,
      "Ġminim": 5366,
      "itch": 5367,
      "Ġdual": 5368,
      "Ġsimulations": 5369,
      ")^{\\": 5370,
      "astern": 5371,
      "Ġshare": 5372,
      "Ġbuildings": 5373,
      "Ġrepresents": 5374,
      "porary": 5375,
      "actory": 5376,
      "Ġinstall": 5377,
      "Ġtourn": 5378,
      "lease": 5379,
      "Ġsquare": 5380,
      "mas": 5381,
      "ĠBill": 5382,
      "Ġselection": 5383,
      "Ġvariety": 5384,
      "Ġartists": 5385,
      "Ġeasy": 5386,
      "Eq": 5387,
      "Ġuseful": 5388,
      "])": 5389,
      "stream": 5390,
      "rence": 5391,
      "Ġfast": 5392,
      "ĠHistory": 5393,
      "info": 5394,
      "ella": 5395,
      "icago": 5396,
      "ishes": 5397,
      "Ġexamples": 5398,
      "Ġcomment": 5399,
      "Ġfeed": 5400,
      "Ġsoon": 5401,
      "then": 5402,
      "ĠMass": 5403,
      "ĠFrancis": 5404,
      "--------------------------------": 5405,
      "ils": 5406,
      "ĠRichard": 5407,
      "anned": 5408,
      "Comp": 5409,
      "Our": 5410,
      "Ġproduce": 5411,
      "Ġtreatment": 5412,
      "Che": 5413,
      "first": 5414,
      "ĠAccording": 5415,
      "Ġagreement": 5416,
      "ancy": 5417,
      "Ġquite": 5418,
      "Ġvertices": 5419,
      "Ġplant": 5420,
      "Ġoriginally": 5421,
      "cons": 5422,
      "Bar": 5423,
      "Ġscient": 5424,
      "Ġessential": 5425,
      "Ġliterature": 5426,
      "weight": 5427,
      "inals": 5428,
      "Ġcopy": 5429,
      "inem": 5430,
      "urrent": 5431,
      "zero": 5432,
      "ernel": 5433,
      "Ġtit": 5434,
      "inity": 5435,
      "Ġplaced": 5436,
      "ĠHill": 5437,
      "obile": 5438,
      "Ġfactors": 5439,
      "Ġpassed": 5440,
      "Ġstations": 5441,
      "ĠKe": 5442,
      "iece": 5443,
      "Ġgold": 5444,
      "Ġones": 5445,
      "Ġcore": 5446,
      "ĠOf": 5447,
      "forall": 5448,
      "Ġmicro": 5449,
      "Ġrepe": 5450,
      "Rep": 5451,
      "89": 5452,
      "Ġupdate": 5453,
      "osing": 5454,
      "Ġmeasurements": 5455,
      "Ġfourth": 5456,
      "Ġamplit": 5457,
      "Ġgirl": 5458,
      "ĠCommission": 5459,
      "Ġsimpl": 5460,
      "Ġupd": 5461,
      "ental": 5462,
      "Ġcontrast": 5463,
      "vement": 5464,
      "Ġsure": 5465,
      "She": 5466,
      "LS": 5467,
      "shire": 5468,
      "1983": 5469,
      "Ġdecay": 5470,
      "{$\\": 5471,
      "build": 5472,
      "Ġcivil": 5473,
      "Ġ(\"": 5474,
      "Ġequip": 5475,
      ",\\,": 5476,
      "Dis": 5477,
      "84": 5478,
      "gg": 5479,
      "Ġconsistent": 5480,
      "Ġansw": 5481,
      "Ġconserv": 5482,
      "Ġanti": 5483,
      "Ġspaces": 5484,
      "Ġsecurity": 5485,
      "HT": 5486,
      "enge": 5487,
      "ĠĠĠĠĠĠĠĠĠĠĠĠĠĠ": 5488,
      "title": 5489,
      "doc": 5490,
      "Ġstatement": 5491,
      "ĠLake": 5492,
      "Ġcorresponds": 5493,
      "arian": 5494,
      "!--": 5495,
      "ĠWhat": 5496,
      "Ġlink": 5497,
      "Ġaccuracy": 5498,
      "Ġcop": 5499,
      "ipl": 5500,
      "ĠPan": 5501,
      "event": 5502,
      "Ġexperimental": 5503,
      "ĠMel": 5504,
      "iring": 5505,
      "bi": 5506,
      "inner": 5507,
      "ĠParis": 5508,
      "Ġ+\\": 5509,
      "hesis": 5510,
      "ĠBur": 5511,
      "Ġtheore": 5512,
      "uge": 5513,
      "Ġspatial": 5514,
      "false": 5515,
      "mission": 5516,
      "ĠLos": 5517,
      "However": 5518,
      "rump": 5519,
      "Ġinequality": 5520,
      "Ġroom": 5521,
      "fe": 5522,
      "kl": 5523,
      "Ġwriter": 5524,
      "Ġconfiguration": 5525,
      "istan": 5526,
      "Ġparticularly": 5527,
      "}%": 5528,
      "Ð¸": 5529,
      "element": 5530,
      "ympt": 5531,
      "ĠWomen": 5532,
      "duction": 5533,
      "Ġresolution": 5534,
      "Input": 5535,
      "roduction": 5536,
      "ĠCD": 5537,
      "ĠRock": 5538,
      "Ġcompute": 5539,
      "Ġassumption": 5540,
      "Ġnoted": 5541,
      "Ġpick": 5542,
      "}$-": 5543,
      "ĠGeorg": 5544,
      "ĠAnn": 5545,
      "ĠBrown": 5546,
      "Ab": 5547,
      "Ġextra": 5548,
      "Cell": 5549,
      "content": 5550,
      "PP": 5551,
      "embers": 5552,
      "Ġincor": 5553,
      "esh": 5554,
      "otion": 5555,
      "ĠDen": 5556,
      "Ġult": 5557,
      "free": 5558,
      "spect": 5559,
      "ĠTwo": 5560,
      "ĠPri": 5561,
      "rich": 5562,
      "va": 5563,
      "SD": 5564,
      "pp": 5565,
      "Cre": 5566,
      "Ġlattice": 5567,
      "mann": 5568,
      "ĠOffic": 5569,
      "ĠFrank": 5570,
      "Ġpen": 5571,
      "Ent": 5572,
      "Ġesc": 5573,
      "=\"../../": 5574,
      "ĠTer": 5575,
      "ATE": 5576,
      "ĠUnder": 5577,
      "ĠAlthough": 5578,
      "illa": 5579,
      "core": 5580,
      "ĠFilm": 5581,
      "Ġhighly": 5582,
      "ĠOver": 5583,
      "sect": 5584,
      "ĠMo": 5585,
      "Ġfraction": 5586,
      "pmatrix": 5587,
      "Ġcontaining": 5588,
      "lood": 5589,
      "blue": 5590,
      "tx": 5591,
      "Ġtensor": 5592,
      "Act": 5593,
      "MM": 5594,
      "ĠSpanish": 5595,
      "ĠMoreover": 5596,
      "Ġexistence": 5597,
      "gener": 5598,
      "Ġexactly": 5599,
      "Ġidentified": 5600,
      "Ġtraditional": 5601,
      "Ġcalculated": 5602,
      "ibly": 5603,
      "Ġelectric": 5604,
      "Ġsituation": 5605,
      "ĠFin": 5606,
      "subsubsection": 5607,
      "Ġreplace": 5608,
      "ogene": 5609,
      "ĠVictor": 5610,
      "comple": 5611,
      "Ġtold": 5612,
      "sto": 5613,
      "ĠCamp": 5614,
      "1982": 5615,
      "Ġchain": 5616,
      ".~(\\": 5617,
      "razil": 5618,
      "Ġwalk": 5619,
      "pass": 5620,
      "Ġedges": 5621,
      "anda": 5622,
      "Ġprem": 5623,
      "Ġcapital": 5624,
      "ĠIreland": 5625,
      "ĠIts": 5626,
      "1950": 5627,
      "simeq": 5628,
      "Ġfinancial": 5629,
      "hom": 5630,
      "ĠCatholic": 5631,
      "ulate": 5632,
      "82": 5633,
      "Ġscience": 5634,
      "fort": 5635,
      "gorithms": 5636,
      "velopment": 5637,
      "undle": 5638,
      "force": 5639,
      "What": 5640,
      "Pos": 5641,
      "cases": 5642,
      "Ġpurch": 5643,
      "conn": 5644,
      "term": 5645,
      "####": 5646,
      "resh": 5647,
      "ĠGovernment": 5648,
      "Ġbul": 5649,
      "chedul": 5650,
      "Ġculture": 5651,
      "igan": 5652,
      "Ġdu": 5653,
      "orial": 5654,
      "ĠTime": 5655,
      "ulture": 5656,
      "Ġitem": 5657,
      "Ġconcent": 5658,
      "Ġdecided": 5659,
      "gra": 5660,
      "static": 5661,
      "Ġrisk": 5662,
      "irit": 5663,
      "ban": 5664,
      "Ġopport": 5665,
      "Ġfix": 5666,
      "Ġconstraints": 5667,
      "Fe": 5668,
      "Ġmunic": 5669,
      "GB": 5670,
      "Ġsignificantly": 5671,
      "ockey": 5672,
      "Ġmiddle": 5673,
      "Ġsoftware": 5674,
      "Ġscalar": 5675,
      "ĠOpen": 5676,
      "Med": 5677,
      "gu": 5678,
      "Ġcoefficients": 5679,
      "ĠForce": 5680,
      "Ġmentioned": 5681,
      "urt": 5682,
      "RA": 5683,
      "Ġerrors": 5684,
      "Ġchalleng": 5685,
      "seud": 5686,
      "Ġmedal": 5687,
      "Ġcompetition": 5688,
      "ski": 5689,
      "Ã¨": 5690,
      "Ġcause": 5691,
      "Ġplays": 5692,
      "Ġseem": 5693,
      "Ġbad": 5694,
      "Ġetc": 5695,
      "mselves": 5696,
      "Spec": 5697,
      "ette": 5698,
      "Ġprocedure": 5699,
      "vex": 5700,
      "Ġnom": 5701,
      "Ġsteps": 5702,
      "Ġformat": 5703,
      "ĠIsra": 5704,
      "Ġotherwise": 5705,
      ")^{-": 5706,
      "nel": 5707,
      ")\\\\": 5708,
      "ao": 5709,
      "arant": 5710,
      "Ġtalk": 5711,
      "Ġbasic": 5712,
      "open": 5713,
      "Ġfinally": 5714,
      "ĠPenn": 5715,
      "NA": 5716,
      "Ġartist": 5717,
      "Ġbrought": 5718,
      "Ġcele": 5719,
      "aval": 5720,
      "Ġheavy": 5721,
      "Ġtrade": 5722,
      "Ġcaused": 5723,
      "icity": 5724,
      "Ġstraight": 5725,
      "udd": 5726,
      "So": 5727,
      "Fl": 5728,
      "Ġreach": 5729,
      "Ġbottom": 5730,
      "Ġvoc": 5731,
      "Ġdistinct": 5732,
      "gn": 5733,
      "1979": 5734,
      "ĠForm": 5735,
      "ERT": 5736,
      "Ġvs": 5737,
      "ĠInc": 5738,
      "people": 5739,
      "textsc": 5740,
      "Ġmanufact": 5741,
      "rong": 5742,
      "efined": 5743,
      "ests": 5744,
      "utch": 5745,
      "Ġdise": 5746,
      "iency": 5747,
      "TV": 5748,
      "$).": 5749,
      "Ġthemselves": 5750,
      "Ġconstructed": 5751,
      "Ġdepends": 5752,
      "Mar": 5753,
      "Ġwoman": 5754,
      "Ġspecified": 5755,
      "language": 5756,
      "Ġdecom": 5757,
      "rea": 5758,
      "Ext": 5759,
      "Ġstay": 5760,
      "anced": 5761,
      "Ġplot": 5762,
      "azz": 5763,
      "$$\\": 5764,
      "Ġgrant": 5765,
      "Ġroot": 5766,
      "arameters": 5767,
      "\\\"": 5768,
      "Further": 5769,
      "Ġmovement": 5770,
      "ĠDu": 5771,
      "context": 5772,
      "Ġarguments": 5773,
      "Ġbool": 5774,
      "Ġapprop": 5775,
      "Ġstrategy": 5776,
      "Ġbranch": 5777,
      "idae": 5778,
      "reedom": 5779,
      "Ne": 5780,
      "real": 5781,
      "Ġvan": 5782,
      "ĠPost": 5783,
      "ĠVer": 5784,
      "Ġcurves": 5785,
      "ĠAlso": 5786,
      "Ġhoriz": 5787,
      "Ġleader": 5788,
      "Ġinsp": 5789,
      "ĠCOVID": 5790,
      "number": 5791,
      "Ġrates": 5792,
      "ĠSeries": 5793,
      "Ġactivity": 5794,
      "eks": 5795,
      "Ġminutes": 5796,
      "ĠOper": 5797,
      "1981": 5798,
      "Ġmatches": 5799,
      "Ġrelevant": 5800,
      "ĠStar": 5801,
      "Source": 5802,
      "Ġdetection": 5803,
      "rot": 5804,
      "omic": 5805,
      "ĠReturn": 5806,
      "process": 5807,
      "abilities": 5808,
      "Ġbank": 5809,
      "CL": 5810,
      "CS": 5811,
      "ilib": 5812,
      "Ġseems": 5813,
      "ĠĠĠĠĠĠĠĠĠĠĠĠĠĠĠĠĠ": 5814,
      "$^{-": 5815,
      "ĠFlorida": 5816,
      "Ġdoesn": 5817,
      "Ġbal": 5818,
      "lam": 5819,
      "ifically": 5820,
      "matrix": 5821,
      "Part": 5822,
      "oration": 5823,
      "Äģ": 5824,
      "ĠBre": 5825,
      "ĠCommittee": 5826,
      "Ġcompletely": 5827,
      "Ġsimulation": 5828,
      "Ġconvert": 5829,
      "ĠLie": 5830,
      "Ġcoming": 5831,
      "Ġcorrelation": 5832,
      "ĠAtl": 5833,
      "Ġaircraft": 5834,
      ")}{\\": 5835,
      "dim": 5836,
      "len": 5837,
      "Ġdomin": 5838,
      "icated": 5839,
      "ishop": 5840,
      "Ġremained": 5841,
      "Ġ=\\": 5842,
      "}}^": 5843,
      "Ġ\\(": 5844,
      "Ġjoint": 5845,
      "uations": 5846,
      "83": 5847,
      "Ġensure": 5848,
      "Ġsn": 5849,
      "Ġextract": 5850,
      "iders": 5851,
      "Token": 5852,
      "Ġunivers": 5853,
      "Ġinvariant": 5854,
      "Ġexam": 5855,
      "Ġmole": 5856,
      "rium": 5857,
      "Ġcollege": 5858,
      "ĠEnd": 5859,
      "Ġsurround": 5860,
      "Ġpain": 5861,
      "oder": 5862,
      "Ġstri": 5863,
      "aily": 5864,
      "Ġcells": 5865,
      "Ġangle": 5866,
      "Manager": 5867,
      "ato": 5868,
      "ĠChicago": 5869,
      "Ġminor": 5870,
      "Ġstrict": 5871,
      "Ġdenotes": 5872,
      "ymmet": 5873,
      "Oper": 5874,
      "inger": 5875,
      "ko": 5876,
      "ĠHenry": 5877,
      "\\|_{": 5878,
      "ĠCongress": 5879,
      "Figure": 5880,
      "Ġpark": 5881,
      "Back": 5882,
      "400": 5883,
      "Ġshowed": 5884,
      "ME": 5885,
      "Ġutil": 5886,
      "ĠArts": 5887,
      "Char": 5888,
      "IF": 5889,
      "Ġgreen": 5890,
      "Ġgrand": 5891,
      "81": 5892,
      "ny": 5893,
      "Ġgreater": 5894,
      "Ġbrief": 5895,
      "ĠVirginia": 5896,
      "bottom": 5897,
      "Ġpoly": 5898,
      "Ġunion": 5899,
      "uted": 5900,
      "Ġsch": 5901,
      "ĠGr": 5902,
      "Response": 5903,
      "Ġanc": 5904,
      "ola": 5905,
      "ls": 5906,
      "Ġincreases": 5907,
      "iffer": 5908,
      "irus": 5909,
      "Ġdidn": 5910,
      "ĠAngeles": 5911,
      "Ġ&=&": 5912,
      "Ġcollabor": 5913,
      "Ġsometimes": 5914,
      "rons": 5915,
      "Ġentry": 5916,
      "uls": 5917,
      "eds": 5918,
      "Ġmur": 5919,
      "elli": 5920,
      "Ġinfluence": 5921,
      "Ġimmediately": 5922,
      "ca": 5923,
      "ĠHel": 5924,
      "ĠCam": 5925,
      "Ġresol": 5926,
      "Ġcritic": 5927,
      "ĠBig": 5928,
      "Ġmodes": 5929,
      "ĠOrder": 5930,
      "Ġdistributions": 5931,
      "omorphic": 5932,
      "ech": 5933,
      "apers": 5934,
      "Ġinner": 5935,
      "Ġfeatured": 5936,
      "Ġlegal": 5937,
      "Ġmedical": 5938,
      "newcommand": 5939,
      "1976": 5940,
      "elled": 5941,
      "ĠSecret": 5942,
      "oting": 5943,
      "etime": 5944,
      "maz": 5945,
      "Base": 5946,
      "ĠCast": 5947,
      "Ġshot": 5948,
      "ĠFoundation": 5949,
      "db": 5950,
      "ĠKn": 5951,
      "1978": 5952,
      "CA": 5953,
      "='": 5954,
      "ĠRegister": 5955,
      "Ġbey": 5956,
      "Ġsingular": 5957,
      "ĠMost": 5958,
      "Ġwor": 5959,
      "Ġ!==": 5960,
      "Ġimprove": 5961,
      "Ġreduce": 5962,
      "Next": 5963,
      "Ġpairs": 5964,
      "Ġcommercial": 5965,
      "uster": 5966,
      "Ġpropag": 5967,
      "press": 5968,
      "Ġawarded": 5969,
      "itation": 5970,
      "Ġprefer": 5971,
      "Ġinterview": 5972,
      "Ġstable": 5973,
      "asi": 5974,
      "hemat": 5975,
      "Ġnearly": 5976,
      ")_": 5977,
      "stract": 5978,
      "ĠItaly": 5979,
      "Ġformal": 5980,
      "neg": 5981,
      "alg": 5982,
      "omy": 5983,
      "ĠIll": 5984,
      "Pre": 5985,
      "Ġcard": 5986,
      "Ġclassification": 5987,
      "Ġcry": 5988,
      "lig": 5989,
      "Ġdisk": 5990,
      "Ġintroduce": 5991,
      "Ġjava": 5992,
      "Ġdeb": 5993,
      "ĠEmp": 5994,
      "ĠOh": 5995,
      "ĠMr": 5996,
      "Ġquad": 5997,
      "ĠUp": 5998,
      "target": 5999,
      "}^*": 6000,
      "Ġbeyond": 6001,
      "ĠSun": 6002,
      "^{+": 6003,
      "Ġring": 6004,
      "Ġreturns": 6005,
      "1972": 6006,
      "Client": 6007,
      "only": 6008,
      "Ġorganization": 6009,
      "Head": 6010,
      "ĠSwed": 6011,
      "ĠMexico": 6012,
      "Ġauthors": 6013,
      "Ġcomputed": 6014,
      "})$.": 6015,
      "Ġseparate": 6016,
      "Ġstore": 6017,
      "Ġhttps": 6018,
      ")$-": 6019,
      "Ġpolitician": 6020,
      "1977": 6021,
      "Ġdependence": 6022,
      "Ġsec": 6023,
      "Ġactivities": 6024,
      "Ġprevent": 6025,
      "Result": 6026,
      "1974": 6027,
      "Stream": 6028,
      "Sec": 6029,
      "Ġabsol": 6030,
      "bed": 6031,
      "'re": 6032,
      "Ġpatients": 6033,
      "Ġsecret": 6034,
      "ĠPre": 6035,
      "ien": 6036,
      "Ġdevice": 6037,
      "ithub": 6038,
      "Status": 6039,
      "ĠDec": 6040,
      "Ġwind": 6041,
      "Ġ<<": 6042,
      "select": 6043,
      "iano": 6044,
      "Ġassumed": 6045,
      "olk": 6046,
      "Ġaffect": 6047,
      "Ġprobably": 6048,
      "igger": 6049,
      "CP": 6050,
      "Ġsymmetric": 6051,
      "Ġhum": 6052,
      "ĠMil": 6053,
      "Ġleave": 6054,
      "ĠBoard": 6055,
      "Ã³n": 6056,
      "iant": 6057,
      "Ġvisual": 6058,
      "Ġhousehold": 6059,
      "ĠRussia": 6060,
      "Ġmorph": 6061,
      "Ġcontributions": 6062,
      "Ġstudent": 6063,
      "ĠFre": 6064,
      "sur": 6065,
      "Ġearn": 6066,
      "ogue": 6067,
      "Ġdoing": 6068,
      "Ġgeneration": 6069,
      "hing": 6070,
      "Early": 6071,
      "oral": 6072,
      "Ġrecomm": 6073,
      "1975": 6074,
      "Ġscored": 6075,
      "Line": 6076,
      "iana": 6077,
      "Ġspectra": 6078,
      "Ġcombined": 6079,
      "ĠFestival": 6080,
      "Ġstellar": 6081,
      "Ġthreat": 6082,
      "Ġtechniques": 6083,
      "ĠEducation": 6084,
      "Thus": 6085,
      "Ġrelatively": 6086,
      "rl": 6087,
      "Ġsinger": 6088,
      "break": 6089,
      "adow": 6090,
      "Ġthick": 6091,
      "ayout": 6092,
      "oviet": 6093,
      "pendix": 6094,
      "Ġcandidate": 6095,
      "Ġtournament": 6096,
      "strong": 6097,
      "Hz": 6098,
      "Ġmajority": 6099,
      "Ġasked": 6100,
      "Ġsemi": 6101,
      "Ġfif": 6102,
      "Ġspread": 6103,
      "nowled": 6104,
      "amental": 6105,
      "Ġcombination": 6106,
      "{{": 6107,
      "Ġalgorithms": 6108,
      "Ġfailed": 6109,
      "ĠMax": 6110,
      "Ġregister": 6111,
      "Ġ$$": 6112,
      "ora": 6113,
      "ĠKar": 6114,
      "Ġmeasures": 6115,
      "Ġability": 6116,
      "dir": 6117,
      "remark": 6118,
      "mapsto": 6119,
      "Ġvac": 6120,
      "pton": 6121,
      "multirow": 6122,
      "ugby": 6123,
      "ror": 6124,
      "Aut": 6125,
      "Ġmind": 6126,
      "ĠLy": 6127,
      "Ġprograms": 6128,
      "Ġconfir": 6129,
      "kin": 6130,
      "ĠSpace": 6131,
      "rie": 6132,
      "osh": 6133,
      "Ġbasketball": 6134,
      "areer": 6135,
      "ĠKh": 6136,
      "Ġthreshold": 6137,
      "anger": 6138,
      "mic": 6139,
      "iro": 6140,
      "ĠBr": 6141,
      "Ġthing": 6142,
      "Ġquery": 6143,
      "Ġarchitecture": 6144,
      "Ġorb": 6145,
      "ĠTrump": 6146,
      "Ġapproaches": 6147,
      "ĠScot": 6148,
      "stra": 6149,
      "Ġsampl": 6150,
      "yan": 6151,
      "}$}": 6152,
      "Ġestimates": 6153,
      "Ġheart": 6154,
      "aven": 6155,
      "Ġactual": 6156,
      "ĠAtt": 6157,
      "ĠSil": 6158,
      "allery": 6159,
      "Ġprotected": 6160,
      "TO": 6161,
      "110": 6162,
      ";\"": 6163,
      "Ġcarried": 6164,
      "Ġmoving": 6165,
      "rolled": 6166,
      "Ġmanager": 6167,
      "ĠRel": 6168,
      "ĠSol": 6169,
      "Ġarbitrary": 6170,
      "Ġflat": 6171,
      "gt": 6172,
      "Theorem": 6173,
      "anges": 6174,
      "istical": 6175,
      "Ġdistributed": 6176,
      "1000": 6177,
      "onald": 6178,
      "ĠSee": 6179,
      "SM": 6180,
      "Image": 6181,
      "Ġsplit": 6182,
      "Ġmatrices": 6183,
      "Ġremoved": 6184,
      "wa": 6185,
      "Ġdivision": 6186,
      "chen": 6187,
      "ĠProgram": 6188,
      "Ġslightly": 6189,
      "ĠLife": 6190,
      "\"),": 6191,
      "stein": 6192,
      "ĠSta": 6193,
      "DA": 6194,
      "Ġlooking": 6195,
      "Ġtypically": 6196,
      "odot": 6197,
      "CR": 6198,
      "Ġcru": 6199,
      "'(": 6200,
      "ĠEqu": 6201,
      "1968": 6202,
      "LP": 6203,
      "Ġinteger": 6204,
      "Ġamb": 6205,
      "Ġopening": 6206,
      "Off": 6207,
      "NR": 6208,
      "Ð½": 6209,
      "Ġproved": 6210,
      "Options": 6211,
      "Style": 6212,
      "These": 6213,
      "Ġmut": 6214,
      "Ġbroadcast": 6215,
      "perties": 6216,
      "fin": 6217,
      "ĠIII": 6218,
      "Ġgenerate": 6219,
      "Ġestablishments": 6220,
      "Ġinterface": 6221,
      "1973": 6222,
      "Cons": 6223,
      "Ġtor": 6224,
      "Ġspent": 6225,
      "ĠRo": 6226,
      "erved": 6227,
      "arse": 6228,
      "Ġdestroy": 6229,
      "ĠGaussian": 6230,
      "ĠEach": 6231,
      "itiz": 6232,
      "ĠSocial": 6233,
      "ĠLu": 6234,
      "Ġbus": 6235,
      "Ġstrength": 6236,
      "Ġcallback": 6237,
      "viation": 6238,
      "aser": 6239,
      "clos": 6240,
      "query": 6241,
      "df": 6242,
      "ĠInst": 6243,
      "TH": 6244,
      "Ġcompare": 6245,
      "ĠChampionships": 6246,
      "~$\\": 6247,
      "Ġagent": 6248,
      "Ġways": 6249,
      "ĠData": 6250,
      "'}": 6251,
      "ĠEngine": 6252,
      "ĠAwards": 6253,
      "Ġyields": 6254,
      "Ġprogress": 6255,
      "lang": 6256,
      "\\_": 6257,
      "Other": 6258,
      "append": 6259,
      "Ġdiscussion": 6260,
      "Ġeconomic": 6261,
      "icks": 6262,
      "Ġdisp": 6263,
      "ĠHot": 6264,
      "Ġasympt": 6265,
      "num": 6266,
      "ĠDou": 6267,
      "ternet": 6268,
      "Ġque": 6269,
      "ĠBank": 6270,
      "ja": 6271,
      "tik": 6272,
      "ĠMartin": 6273,
      "Ġmostly": 6274,
      "Ġign": 6275,
      "Ġpurpose": 6276,
      "UE": 6277,
      "Ġabsor": 6278,
      "Child": 6279,
      "contin": 6280,
      "ĠMur": 6281,
      "push": 6282,
      "Ġcapacity": 6283,
      "Ġpoor": 6284,
      "ĠLong": 6285,
      "TD": 6286,
      "ĠLove": 6287,
      "Ġweeks": 6288,
      "unct": 6289,
      "Ġgoes": 6290,
      "Ġonto": 6291,
      "ĠTimes": 6292,
      "she": 6293,
      "wan": 6294,
      "PO": 6295,
      "ati": 6296,
      "Ġoptical": 6297,
      "Ġperfect": 6298,
      "ĠWal": 6299,
      "github": 6300,
      "Ġbrand": 6301,
      "ĠYoung": 6302,
      "Ġinteractions": 6303,
      "Ġpure": 6304,
      "Ġcorn": 6305,
      "ima": 6306,
      "Ġtransformation": 6307,
      "hab": 6308,
      "picture": 6309,
      "ename": 6310,
      "Ġremain": 6311,
      "ĠTour": 6312,
      "ĠOld": 6313,
      "faces": 6314,
      "proposition": 6315,
      "Ġprison": 6316,
      "house": 6317,
      "cf": 6318,
      "Ġsites": 6319,
      "Ġcalc": 6320,
      "venue": 6321,
      "Ġroute": 6322,
      "vest": 6323,
      "Ġwinning": 6324,
      "Ġcircle": 6325,
      "olt": 6326,
      "Ġfa": 6327,
      "Ġunknown": 6328,
      "package": 6329,
      "ĠNavy": 6330,
      "Ġmeeting": 6331,
      "flict": 6332,
      "Ġcarry": 6333,
      "iler": 6334,
      "SA": 6335,
      "Ġpositions": 6336,
      "ĠOl": 6337,
      "annels": 6338,
      "joy": 6339,
      "ĠDirector": 6340,
      "eger": 6341,
      "Function": 6342,
      "Ġresource": 6343,
      "Ġcentre": 6344,
      "ĠPlay": 6345,
      "amely": 6346,
      "Ġefficient": 6347,
      "aught": 6348,
      "while": 6349,
      "~~~~": 6350,
      "Ġbinary": 6351,
      "Ġcoordinates": 6352,
      "Date": 6353,
      "ĠGal": 6354,
      "null": 6355,
      "ĠCarolina": 6356,
      "button": 6357,
      "Ġbelieve": 6358,
      "Ġmeasurement": 6359,
      "cs": 6360,
      "Ġsummer": 6361,
      "ĠReview": 6362,
      "HO": 6363,
      "$;": 6364,
      "SR": 6365,
      "alysis": 6366,
      "Ġwriters": 6367,
      "scill": 6368,
      "fit": 6369,
      "Ġdifferential": 6370,
      "Notes": 6371,
      "owers": 6372,
      "1971": 6373,
      "syl": 6374,
      "Ġsort": 6375,
      "Ġcomputer": 6376,
      "Ġreconst": 6377,
      "greg": 6378,
      "Ġactions": 6379,
      "Ġaspect": 6380,
      "Ġadvant": 6381,
      "vania": 6382,
      "ĠHaw": 6383,
      "Util": 6384,
      "EO": 6385,
      "poses": 6386,
      "pdate": 6387,
      "ĠJo": 6388,
      "Ġresources": 6389,
      "post": 6390,
      "rical": 6391,
      "Ġacadem": 6392,
      "Ġregime": 6393,
      "po": 6394,
      "ĠBob": 6395,
      "obj": 6396,
      "Ġeditor": 6397,
      "rics": 6398,
      "opic": 6399,
      "Ġwood": 6400,
      "ĠLin": 6401,
      "osc": 6402,
      "Ġcloud": 6403,
      "ga": 6404,
      "asion": 6405,
      "Ġorient": 6406,
      "Ġgoals": 6407,
      "iled": 6408,
      "ricket": 6409,
      "ĠTeam": 6410,
      "});": 6411,
      "ĠLi": 6412,
      "ÑĤ": 6413,
      "Ġdead": 6414,
      "Ġrecall": 6415,
      "igation": 6416,
      "Ġphen": 6417,
      "ĠBi": 6418,
      "Ġloop": 6419,
      "John": 6420,
      "Ġappearance": 6421,
      "kes": 6422,
      "Ġ+=": 6423,
      "udes": 6424,
      "ĠNetwork": 6425,
      "tri": 6426,
      "\\{\\": 6427,
      "Ġwanted": 6428,
      "Ġfair": 6429,
      "Ġ${": 6430,
      "Ġextends": 6431,
      "ĠJun": 6432,
      "sych": 6433,
      "Ġremove": 6434,
      "While": 6435,
      "font": 6436,
      "Ġgiving": 6437,
      "ĠFort": 6438,
      "ilibrium": 6439,
      "ribe": 6440,
      "asy": 6441,
      "Ġteacher": 6442,
      "MD": 6443,
      "Ġactor": 6444,
      "Ġexpressed": 6445,
      "Ġsrc": 6446,
      "}{*": 6447,
      "Ġcycle": 6448,
      "ela": 6449,
      "Ġhydro": 6450,
      "Ġparallel": 6451,
      "1969": 6452,
      "Null": 6453,
      "Ġvirtual": 6454,
      "Ġdoc": 6455,
      "Ġinitially": 6456,
      "ĠJournal": 6457,
      "ĠBrazil": 6458,
      "ĠJac": 6459,
      "Instance": 6460,
      "Ġindividuals": 6461,
      "Run": 6462,
      "ĠBas": 6463,
      "ĠLine": 6464,
      "write": 6465,
      "ĠWood": 6466,
      "Ġmovie": 6467,
      "Ġvary": 6468,
      "NO": 6469,
      "cd": 6470,
      "Ġsegment": 6471,
      "English": 6472,
      "Rem": 6473,
      "tikz": 6474,
      "aver": 6475,
      "lines": 6476,
      "adium": 6477,
      "ervices": 6478,
      "orter": 6479,
      "ĠProfess": 6480,
      "Ġbeg": 6481,
      "Ġboolean": 6482,
      "atically": 6483,
      "ova": 6484,
      "([": 6485,
      "Box": 6486,
      "Ġmachine": 6487,
      "Ġfarm": 6488,
      "kins": 6489,
      "*/": 6490,
      "ĠParliament": 6491,
      "track": 6492,
      "Ġobserve": 6493,
      "ĠOffice": 6494,
      "Ġmixed": 6495,
      "ĠRead": 6496,
      "}}^{": 6497,
      "after": 6498,
      "Ġmis": 6499,
      "Ġaxis": 6500,
      "related": 6501,
      "Ġgr": 6502,
      "Rel": 6503,
      "Ġmainly": 6504,
      "Ġâ": 6505,
      "dev": 6506,
      "coming": 6507,
      "Ġclient": 6508,
      "py": 6509,
      "ĠStep": 6510,
      "ĠGen": 6511,
      "Ġ-->": 6512,
      "ellig": 6513,
      "ĠHon": 6514,
      "Ġcontained": 6515,
      "ĠField": 6516,
      "Ġactress": 6517,
      "displaystyle": 6518,
      "Ġdepth": 6519,
      "=\"+": 6520,
      "Ġmaster": 6521,
      "Ġincorpor": 6522,
      "Ġvectors": 6523,
      "_-": 6524,
      "Ġconvergence": 6525,
      "MO": 6526,
      "ĠBase": 6527,
      "ibli": 6528,
      "ypes": 6529,
      "Ġidentify": 6530,
      "$~": 6531,
      "Ġharm": 6532,
      "ĠTim": 6533,
      "ĠWales": 6534,
      "ĠHig": 6535,
      "|_{": 6536,
      "ĠObject": 6537,
      "MB": 6538,
      "SL": 6539,
      "Ġedition": 6540,
      "Ġsqu": 6541,
      ")},": 6542,
      "During": 6543,
      "Ġachieved": 6544,
      "indows": 6545,
      "ji": 6546,
      "ady": 6547,
      "Ġfoot": 6548,
      "Override": 6549,
      "Ġreferred": 6550,
      "ĠAssembly": 6551,
      "TP": 6552,
      "Ġhypot": 6553,
      "Ġreli": 6554,
      "prob": 6555,
      "ĠEarth": 6556,
      "acter": 6557,
      "Ġtypical": 6558,
      "1940": 6559,
      "=\"#": 6560,
      "ĠChief": 6561,
      "ĠArab": 6562,
      "ependence": 6563,
      "agraph": 6564,
      "Ġlaunched": 6565,
      "Results": 6566,
      "ĠPac": 6567,
      "Ġcommunities": 6568,
      "ifies": 6569,
      "ested": 6570,
      "Ġfriends": 6571,
      "ctors": 6572,
      "Ġgain": 6573,
      "Ġexternal": 6574,
      "search": 6575,
      "cong": 6576,
      "Ġfavor": 6577,
      "Ġparents": 6578,
      "otted": 6579,
      "Ġclearly": 6580,
      "Ġlives": 6581,
      "Ġcat": 6582,
      "Ġended": 6583,
      "ĠJoseph": 6584,
      "Ġ$.": 6585,
      "sky": 6586,
      "Ġreflect": 6587,
      "cat": 6588,
      "ipality": 6589,
      "Ġoscill": 6590,
      "Ġphil": 6591,
      "Ġproviding": 6592,
      "arams": 6593,
      "last": 6594,
      "ĠHamiltonian": 6595,
      "Äĩ": 6596,
      "Work": 6597,
      "ansas": 6598,
      "ĠPeople": 6599,
      "Ġcatch": 6600,
      "Ġquestions": 6601,
      "actor": 6602,
      "abil": 6603,
      "Ġtesting": 6604,
      "001": 6605,
      "Ġsaying": 6606,
      "sche": 6607,
      "ĠHy": 6608,
      "Ġmission": 6609,
      "ĠIrish": 6610,
      "Ġvocals": 6611,
      "Ġrecords": 6612,
      "Ġquarter": 6613,
      "ias": 6614,
      "120": 6615,
      "option": 6616,
      "Ġoccurs": 6617,
      "El": 6618,
      "Ġran": 6619,
      "150": 6620,
      "FI": 6621,
      "Default": 6622,
      "1945": 6623,
      "Ġwatch": 6624,
      "system": 6625,
      "ilation": 6626,
      "google": 6627,
      "Ġaccur": 6628,
      "Start": 6629,
      "Ġappropriate": 6630,
      "ĠLee": 6631,
      "awa": 6632,
      "refix": 6633,
      "Ġrapid": 6634,
      "1964": 6635,
      "ĠAut": 6636,
      ")-\\": 6637,
      "Ġgetting": 6638,
      "returns": 6639,
      "Ġturned": 6640,
      "Ġweb": 6641,
      "ifications": 6642,
      "mc": 6643,
      "icate": 6644,
      "ĠNULL": 6645,
      "Ġgalaxy": 6646,
      "enty": 6647,
      "aka": 6648,
      "Ġstrongly": 6649,
      "stitution": 6650,
      "Ġextrem": 6651,
      "Ġchief": 6652,
      "Ġrul": 6653,
      "Ġmanifold": 6654,
      ")+\\": 6655,
      "ÑĢ": 6656,
      "1967": 6657,
      "Ġshared": 6658,
      "Ġstd": 6659,
      "Ġcomputation": 6660,
      "Ġlum": 6661,
      "aylor": 6662,
      "User": 6663,
      "PA": 6664,
      "Ġdrug": 6665,
      "Ġgrid": 6666,
      "ĠTop": 6667,
      "property": 6668,
      "1930": 6669,
      "Ġdetailed": 6670,
      "Ġstudio": 6671,
      "Ġago": 6672,
      "ĠBet": 6673,
      "Cor": 6674,
      "Ġresponsible": 6675,
      "sylvania": 6676,
      ">(": 6677,
      "Ġstatistics": 6678,
      "Equal": 6679,
      "Ġarrang": 6680,
      "ptr": 6681,
      "ried": 6682,
      "Ġimplementation": 6683,
      "inet": 6684,
      "bas": 6685,
      "Ġitems": 6686,
      "ĠLiber": 6687,
      "Ġriver": 6688,
      "Ġsatisfy": 6689,
      "Ġseasons": 6690,
      "Ġwhom": 6691,
      "Pop": 6692,
      "mma": 6693,
      "ĠShow": 6694,
      "Ġjoin": 6695,
      "Ġcoast": 6696,
      "Ġdemand": 6697,
      "dep": 6698,
      "Number": 6699,
      "Ġexchange": 6700,
      "Ġking": 6701,
      "tag": 6702,
      "Person": 6703,
      "MR": 6704,
      "Ġforest": 6705,
      "adata": 6706,
      "ĉĠĠĠĠĠĠĠ": 6707,
      "Ġoverl": 6708,
      "Ġindicates": 6709,
      "ĠNorthern": 6710,
      "yes": 6711,
      "Ġvisit": 6712,
      "Ġbattle": 6713,
      "Ġdifferences": 6714,
      "adding": 6715,
      "Ġ((": 6716,
      "Ġbehavi": 6717,
      "}({\\": 6718,
      "Ġreduction": 6719,
      "oded": 6720,
      "&=&": 6721,
      "tainment": 6722,
      "ĠMount": 6723,
      "ĠProvince": 6724,
      "Ġquickly": 6725,
      "Ġattract": 6726,
      "}&": 6727,
      "ĠĠĠĠĠĠĠĠĠĠĠĠĠĠĠĠĠĠĠĠĠĠĠĠĠĠĠĠĠĠĠ": 6728,
      "itan": 6729,
      "Point": 6730,
      "Ġmechanism": 6731,
      "je": 6732,
      "float": 6733,
      "condition": 6734,
      "Ġassign": 6735,
      "Ġstories": 6736,
      "ĠJim": 6737,
      "des": 6738,
      "Ġisland": 6739,
      "ront": 6740,
      "ĠTheir": 6741,
      "ĠAN": 6742,
      "Ġscattering": 6743,
      "Ġproceed": 6744,
      "Ġwait": 6745,
      "Met": 6746,
      "atriate": 6747,
      "Ġscene": 6748,
      "Ġsector": 6749,
      "mond": 6750,
      "Ġurl": 6751,
      "YPE": 6752,
      "ultural": 6753,
      "ĠCross": 6754,
      "Car": 6755,
      "Ġdespite": 6756,
      "Sch": 6757,
      "Ġgets": 6758,
      "gr": 6759,
      "isters": 6760,
      "ĠBusiness": 6761,
      "ĠDev": 6762,
      "Ġdetect": 6763,
      "Ġreson": 6764,
      "Ġmusical": 6765,
      "Art": 6766,
      "Ġtrained": 6767,
      "Ġreceive": 6768,
      "Ġattended": 6769,
      "expected": 6770,
      "ĠProject": 6771,
      "}}$,": 6772,
      "ĠAdd": 6773,
      "Ġexception": 6774,
      "Ġolder": 6775,
      "1965": 6776,
      "\").": 6777,
      "}}$.": 6778,
      "Ã§": 6779,
      "ĠColumb": 6780,
      "roph": 6781,
      "Career": 6782,
      "Ġchampionship": 6783,
      "})$,": 6784,
      "EL": 6785,
      "ounds": 6786,
      "rect": 6787,
      "Ġsections": 6788,
      "ĠType": 6789,
      "orning": 6790,
      "ĠHistoric": 6791,
      "hbar": 6792,
      "unit": 6793,
      "Ġproducer": 6794,
      "miss": 6795,
      "step": 6796,
      "Ġpriv": 6797,
      "ĠGovern": 6798,
      "undred": 6799,
      "Ġnothing": 6800,
      "Ġinform": 6801,
      "args": 6802,
      "mass": 6803,
      "IA": 6804,
      "usband": 6805,
      "Ġsouthern": 6806,
      "vector": 6807,
      "Ġobservation": 6808,
      "Ġalternative": 6809,
      "Ġnorthern": 6810,
      "Ġren": 6811,
      "Ġgap": 6812,
      "Ġnative": 6813,
      "Ġshoot": 6814,
      "Ġnotation": 6815,
      "rade": 6816,
      "Ġhar": 6817,
      "Ġoffset": 6818,
      "ructure": 6819,
      "Ġassess": 6820,
      "Ġhole": 6821,
      "Ġodd": 6822,
      "asure": 6823,
      "Ġindicate": 6824,
      "ibr": 6825,
      "Ġpartition": 6826,
      "ogeneous": 6827,
      "Min": 6828,
      "TC": 6829,
      "Me": 6830,
      "Ġmassive": 6831,
      "ĠValley": 6832,
      "Block": 6833,
      "Ġnation": 6834,
      "Ġideal": 6835,
      "Ġorth": 6836,
      "Ġprotect": 6837,
      "Ġnewsp": 6838,
      "ĠTem": 6839,
      "Ġprojects": 6840,
      "Builder": 6841,
      "Ġbecoming": 6842,
      "uty": 6843,
      "hem": 6844,
      "Ġexplain": 6845,
      "arden": 6846,
      "1966": 6847,
      "posite": 6848,
      "Ġmasses": 6849,
      "[(": 6850,
      "ĠRam": 6851,
      "According": 6852,
      "Ġmagnitude": 6853,
      "Ġgenus": 6854,
      "ĠSoviet": 6855,
      "Ġcycl": 6856,
      "Right": 6857,
      "Top": 6858,
      "}~~": 6859,
      "Ġachieve": 6860,
      "hbox": 6861,
      "Ġlies": 6862,
      "Ġempty": 6863,
      "yles": 6864,
      "IO": 6865,
      "ĠEmpire": 6866,
      "Ġplans": 6867,
      "cr": 6868,
      "iling": 6869,
      "Ġminimal": 6870,
      "Ġinduced": 6871,
      "ĠSpain": 6872,
      "ĠJud": 6873,
      "ĠDet": 6874,
      "Ġoffers": 6875,
      "Ġexc": 6876,
      "}$)": 6877,
      "Ġsea": 6878,
      "Ġofficer": 6879,
      "Mon": 6880,
      "Ġtests": 6881,
      "Em": 6882,
      "ĠIran": 6883,
      "ĠElect": 6884,
      "ĠBoth": 6885,
      "Ġpoet": 6886,
      "ĠSpe": 6887,
      "Am": 6888,
      "floor": 6889,
      "Ġnone": 6890,
      "DB": 6891,
      "ugin": 6892,
      "Ġfederal": 6893,
      "Ġprice": 6894,
      "Ġsurvey": 6895,
      "Attribute": 6896,
      "ategory": 6897,
      "ampion": 6898,
      "client": 6899,
      "Ġsenior": 6900,
      "lock": 6901,
      "Ġshowing": 6902,
      "ĠDevelopment": 6903,
      "ipage": 6904,
      "How": 6905,
      "Ġbeam": 6906,
      "Ġ$|\\": 6907,
      "That": 6908,
      "cript": 6909,
      "endif": 6910,
      "Åį": 6911,
      "Ġproport": 6912,
      "1920": 6913,
      "Ġsynt": 6914,
      "Ġnucle": 6915,
      "Ġlaws": 6916,
      "ensions": 6917,
      "airman": 6918,
      "Ġpi": 6919,
      "Handler": 6920,
      "Ġcool": 6921,
      "Ġnumerous": 6922,
      "such": 6923,
      "oston": 6924,
      "RL": 6925,
      "Ġpull": 6926,
      "request": 6927,
      "Ġserve": 6928,
      "iy": 6929,
      "quot": 6930,
      "Resource": 6931,
      "anged": 6932,
      "))$": 6933,
      "Ġannual": 6934,
      "second": 6935,
      "minipage": 6936,
      "Gener": 6937,
      "ologies": 6938,
      "ĠFinally": 6939,
      "ĠLibrary": 6940,
      "aa": 6941,
      "Ġcompl": 6942,
      "law": 6943,
      "ader": 6944,
      "Ġbounds": 6945,
      "Ġthermal": 6946,
      "Ġguarant": 6947,
      "Ġice": 6948,
      "anguages": 6949,
      "Ġforced": 6950,
      "uer": 6951,
      "tained": 6952,
      "bel": 6953,
      "ĠPennsylvania": 6954,
      "onical": 6955,
      "Content": 6956,
      "Ġmargin": 6957,
      "Ġdigital": 6958,
      "ĠMen": 6959,
      "Ġconclude": 6960,
      "zy": 6961,
      "yer": 6962,
      "Ġcelebr": 6963,
      "oute": 6964,
      "ĠÂ£": 6965,
      "Ġfine": 6966,
      "aria": 6967,
      "ocket": 6968,
      "Buffer": 6969,
      "Ġunderstanding": 6970,
      "Ġpix": 6971,
      "icted": 6972,
      "sg": 6973,
      "Ġrailway": 6974,
      "ĠSir": 6975,
      "INT": 6976,
      "arriage": 6977,
      "Ġhop": 6978,
      "Ġowned": 6979,
      "Ġworth": 6980,
      "}{|": 6981,
      "Ġtouch": 6982,
      "Ġraised": 6983,
      "Ġtasks": 6984,
      "Ġpartners": 6985,
      "unch": 6986,
      "ĠMem": 6987,
      "Ġkernel": 6988,
      "ĠGood": 6989,
      "Ġcouple": 6990,
      "avel": 6991,
      "Ġrise": 6992,
      "Ġenjoy": 6993,
      "ture": 6994,
      "ancing": 6995,
      "ĠChild": 6996,
      "Ġvote": 6997,
      "Ġtal": 6998,
      "$),": 6999,
      "Ġclusters": 7000,
      "Ġanalog": 7001,
      "ĠUSA": 7002,
      "ĠCentre": 7003,
      "mt": 7004,
      "Introduction": 7005,
      "Ġordered": 7006,
      ")}_{": 7007,
      "DS": 7008,
      "Ġprep": 7009,
      "Ġcommunication": 7010,
      "Ġmaterials": 7011,
      "ĠCa": 7012,
      "Ġimag": 7013,
      "cccc": 7014,
      "Ġleaving": 7015,
      "ĠSund": 7016,
      "Ġdimensions": 7017,
      "Ġmurder": 7018,
      "Ġexcit": 7019,
      "Films": 7020,
      "ĠSar": 7021,
      "Case": 7022,
      "Ġcommission": 7023,
      "ĠMov": 7024,
      "prot": 7025,
      "Ġworkers": 7026,
      "Ġredshift": 7027,
      "Ġdistingu": 7028,
      "|}": 7029,
      "CON": 7030,
      "room": 7031,
      "}{(": 7032,
      "Ġfunctional": 7033,
      "ĠBul": 7034,
      "har": 7035,
      "ĠPak": 7036,
      "Ġ~~\\": 7037,
      "Ġangular": 7038,
      "Ġbuff": 7039,
      "ĠYour": 7040,
      "chers": 7041,
      "final": 7042,
      "ĠJohnson": 7043,
      "GC": 7044,
      "Ġener": 7045,
      "Ġtheoretical": 7046,
      "ighter": 7047,
      "Ġcovered": 7048,
      "ĠRadio": 7049,
      "Ġserver": 7050,
      "icrosoft": 7051,
      "ĠGreek": 7052,
      "ĠOp": 7053,
      "Ġmetal": 7054,
      "vol": 7055,
      "Ġclean": 7056,
      "Ġtrying": 7057,
      "Us": 7058,
      "phant": 7059,
      "Ġca": 7060,
      "Max": 7061,
      "cean": 7062,
      "Ġfundamental": 7063,
      "Ġmagazine": 7064,
      "uous": 7065,
      "Ñģ": 7066,
      "aters": 7067,
      "emporary": 7068,
      "Ġdrama": 7069,
      "xx": 7070,
      "ĠLag": 7071,
      "Ġeth": 7072,
      "Ġdisease": 7073,
      "Section": 7074,
      "ĠAsia": 7075,
      "Ġphenomen": 7076,
      "HS": 7077,
      "Ġterrit": 7078,
      "ographic": 7079,
      "Ġwall": 7080,
      "Ġsubgroup": 7081,
      ":\"": 7082,
      "Ġcomposed": 7083,
      "Ġlived": 7084,
      "uting": 7085,
      "Ġfluct": 7086,
      "Ġamplitude": 7087,
      "Ġinfinite": 7088,
      "Ġarrest": 7089,
      "ynamic": 7090,
      "sign": 7091,
      "Ġconsidering": 7092,
      "ĠConference": 7093,
      "llap": 7094,
      "enth": 7095,
      "'m": 7096,
      "Ġnuclear": 7097,
      "Ġforeign": 7098,
      "textbullet": 7099,
      ":}": 7100,
      "Year": 7101,
      "cular": 7102,
      "wer": 7103,
      "rative": 7104,
      "onder": 7105,
      "mi": 7106,
      "css": 7107,
      "ĠWay": 7108,
      "lesssim": 7109,
      "Ġprediction": 7110,
      "two": 7111,
      "ĠUsing": 7112,
      "results": 7113,
      "icine": 7114,
      "Ġdefeated": 7115,
      "Ġcov": 7116,
      "ĠUk": 7117,
      "Component": 7118,
      "Version": 7119,
      "axis": 7120,
      "cref": 7121,
      "Ġrough": 7122,
      "server": 7123,
      "claim": 7124,
      "Ġ{};": 7125,
      "pop": 7126,
      "Ġconj": 7127,
      "aya": 7128,
      "ĠEr": 7129,
      "My": 7130,
      "Equals": 7131,
      "orig": 7132,
      "lib": 7133,
      "ila": 7134,
      "eller": 7135,
      "poss": 7136,
      "java": 7137,
      "Ġcensus": 7138,
      "json": 7139,
      "Ġchart": 7140,
      "Ġgeometry": 7141,
      "Ġpiece": 7142,
      "Ġlayers": 7143,
      "gies": 7144,
      "ĠST": 7145,
      "Ġswitch": 7146,
      "ĠFurthermore": 7147,
      "ĠBattle": 7148,
      "INE": 7149,
      "Ġmountain": 7150,
      "rame": 7151,
      "bury": 7152,
      "even": 7153,
      "Ġentered": 7154,
      "Ġspl": 7155,
      "ĠHor": 7156,
      "itivity": 7157,
      ">>": 7158,
      "tfrac": 7159,
      "Ġelim": 7160,
      "Row": 7161,
      "show": 7162,
      "Therefore": 7163,
      "Ġnine": 7164,
      "fs": 7165,
      "namespace": 7166,
      "ĠDemocratic": 7167,
      "ĠWeb": 7168,
      "Bi": 7169,
      ")}}": 7170,
      "Ġvoice": 7171,
      "ĠCy": 7172,
      "cope": 7173,
      ":=": 7174,
      "Dist": 7175,
      "remove": 7176,
      "ontal": 7177,
      "ĠTre": 7178,
      "Ġion": 7179,
      "Ġsafety": 7180,
      "ĠHome": 7181,
      "defined": 7182,
      "ĠID": 7183,
      "Aust": 7184,
      "Ġhusband": 7185,
      "Ġclaimed": 7186,
      "ĠJones": 7187,
      "Ġhandle": 7188,
      "ometric": 7189,
      "ĠSouthern": 7190,
      "Ġgraphs": 7191,
      "Ġcalculations": 7192,
      "Ġheat": 7193,
      "ĠSpring": 7194,
      "Ġmodified": 7195,
      "haps": 7196,
      "btn": 7197,
      "1963": 7198,
      "Ġchannels": 7199,
      "Ġobvious": 7200,
      "}{*}{": 7201,
      "PRO": 7202,
      "Ġdepending": 7203,
      "Ġphysics": 7204,
      "Ġdegrees": 7205,
      "ĠPrem": 7206,
      "ulf": 7207,
      "rowser": 7208,
      "./": 7209,
      "Des": 7210,
      "1962": 7211,
      "agnetic": 7212,
      "Ġneighborhood": 7213,
      "Ġsociety": 7214,
      "Ġgradient": 7215,
      "Ġhelped": 7216,
      "ĠSong": 7217,
      "ennis": 7218,
      "Ġdepartment": 7219,
      "pat": 7220,
      "udget": 7221,
      "ĠMedia": 7222,
      "ĠMichigan": 7223,
      "Writ": 7224,
      "pot": 7225,
      "-$": 7226,
      "Ġhistorical": 7227,
      "rane": 7228,
      "Ġdelay": 7229,
      "standing": 7230,
      "ashion": 7231,
      "Ġassigned": 7232,
      "Ġtracks": 7233,
      "Using": 7234,
      "Gl": 7235,
      "ĠCarl": 7236,
      "ĠOhio": 7237,
      "Ġscales": 7238,
      "Ġast": 7239,
      "Ġconfirmed": 7240,
      "Ġcalculation": 7241,
      "ĠPlan": 7242,
      "ĠBritain": 7243,
      "ĠSu": 7244,
      "cks": 7245,
      "Finally": 7246,
      "EM": 7247,
      "Ġefficiency": 7248,
      "cknowled": 7249,
      "osoph": 7250,
      "Ġsingles": 7251,
      "Ġtechnique": 7252,
      "}\\,\\": 7253,
      "aped": 7254,
      "eness": 7255,
      "ĠCamb": 7256,
      "forward": 7257,
      "Ġletter": 7258,
      "Hel": 7259,
      "FR": 7260,
      "ĠMajor": 7261,
      "else": 7262,
      "Ġcomposition": 7263,
      "ĠBuild": 7264,
      "Ġvertical": 7265,
      "Ġhospital": 7266,
      "Ġfirm": 7267,
      "vee": 7268,
      "Ġdrum": 7269,
      "Ġresist": 7270,
      "Ġbeaut": 7271,
      "VER": 7272,
      "Ġadopted": 7273,
      "ĠLord": 7274,
      "Ġpseud": 7275,
      "ĠAv": 7276,
      "pg": 7277,
      "Ġdecomposition": 7278,
      "ĠSpecial": 7279,
      "ĠCivil": 7280,
      "ulty": 7281,
      "Ġusual": 7282,
      "Ġsomeone": 7283,
      "Ġbr": 7284,
      "ĠLog": 7285,
      "ĠFC": 7286,
      "duced": 7287,
      "ãģ": 7288,
      "ĠMountain": 7289,
      "arser": 7290,
      "Ġconvex": 7291,
      "odd": 7292,
      "Ġ[]": 7293,
      "ĠModel": 7294,
      "ometry": 7295,
      "Ġsal": 7296,
      "Ġserious": 7297,
      "midrule": 7298,
      "Post": 7299,
      "dat": 7300,
      "Ġrotation": 7301,
      "Ġoil": 7302,
      "high": 7303,
      "bu": 7304,
      "Ġvictory": 7305,
      "uint": 7306,
      "Ġlimits": 7307,
      "Ġhope": 7308,
      "essages": 7309,
      "Ġ\\!": 7310,
      "gate": 7311,
      "rawn": 7312,
      "Ġcounty": 7313,
      "require": 7314,
      "Ġoffered": 7315,
      "Ġfreedom": 7316,
      "ĠConn": 7317,
      "Ġarmy": 7318,
      "Ġcoefficient": 7319,
      "Ġefforts": 7320,
      "urban": 7321,
      "gers": 7322,
      "Ġpil": 7323,
      "Ġparties": 7324,
      "ĠGoogle": 7325,
      "ĠTechnology": 7326,
      "Gu": 7327,
      "Ġconducted": 7328,
      "burgh": 7329,
      "Ġacceler": 7330,
      "ebug": 7331,
      "Ġfiles": 7332,
      "cut": 7333,
      "ĠEll": 7334,
      "ĠEnter": 7335,
      "ĠPop": 7336,
      ">&": 7337,
      "pto": 7338,
      "Ġsurpr": 7339,
      "disc": 7340,
      "inois": 7341,
      "ĠCorpor": 7342,
      "ibliography": 7343,
      "++)": 7344,
      "etts": 7345,
      "Ġemp": 7346,
      "oir": 7347,
      "ĠAsian": 7348,
      "Ġrevealed": 7349,
      "ĠIsrael": 7350,
      "Tra": 7351,
      "Ġuncertainty": 7352,
      "angular": 7353,
      "Ġdiscovered": 7354,
      "Ġiniti": 7355,
      "ĠHead": 7356,
      "ĠTO": 7357,
      "Ġoptimization": 7358,
      "Ġalone": 7359,
      "Ġspeak": 7360,
      "Ġrare": 7361,
      "ĠJersey": 7362,
      "Action": 7363,
      "Ġexponential": 7364,
      "DC": 7365,
      "ĠOx": 7366,
      "Ġencou": 7367,
      "Filter": 7368,
      "aug": 7369,
      "cale": 7370,
      "Ġlemma": 7371,
      "Ġflag": 7372,
      "ĠInf": 7373,
      "bigl": 7374,
      "Const": 7375,
      "Ġchemical": 7376,
      "ĠEconom": 7377,
      "vari": 7378,
      "ĠBern": 7379,
      "ador": 7380,
      "ãĥ": 7381,
      "ĠTele": 7382,
      ",$": 7383,
      "Ġelections": 7384,
      "gypt": 7385,
      "]}": 7386,
      "images": 7387,
      "xml": 7388,
      "scope": 7389,
      "Ġinterested": 7390,
      "Port": 7391,
      "ĠMid": 7392,
      "find": 7393,
      "php": 7394,
      "^*$": 7395,
      "1944": 7396,
      "si": 7397,
      "Ġseat": 7398,
      "Ġconflict": 7399,
      "---": 7400,
      "Ġthr": 7401,
      "filter": 7402,
      "Po": 7403,
      "rance": 7404,
      "rank": 7405,
      "Ġsuggested": 7406,
      "ĠPhys": 7407,
      "erc": 7408,
      "Ġanything": 7409,
      "Ġincome": 7410,
      "ĠCr": 7411,
      "Ġleaves": 7412,
      "ĠWilliams": 7413,
      "ĠSand": 7414,
      "Do": 7415,
      "La": 7416,
      "Ġ\\]": 7417,
      "tains": 7418,
      "ĠMah": 7419,
      "ĠPacific": 7420,
      "Ġreports": 7421,
      "API": 7422,
      "achus": 7423,
      "Ġcitiz": 7424,
      "phas": 7425,
      "ĠGeorgia": 7426,
      "mitted": 7427,
      "Ġpromin": 7428,
      "Ġbright": 7429,
      "src": 7430,
      "eld": 7431,
      "Ġdenoted": 7432,
      "ione": 7433,
      "Ġcomplexity": 7434,
      "Ð¾Ð": 7435,
      "Ġreligious": 7436,
      "update": 7437,
      "Ġlibrary": 7438,
      "Ġlif": 7439,
      "tax": 7440,
      "Ġsubt": 7441,
      "ĉĉĊ": 7442,
      "ĠNS": 7443,
      "Ġtrivial": 7444,
      "Ġut": 7445,
      "nergy": 7446,
      "bot": 7447,
      "dule": 7448,
      "Ġfamous": 7449,
      "Label": 7450,
      "ĠBow": 7451,
      "ĠGame": 7452,
      "Ġauto": 7453,
      "ĠBu": 7454,
      "1961": 7455,
      "ograp": 7456,
      "Ġwhereas": 7457,
      "ester": 7458,
      "ĠManagement": 7459,
      "oday": 7460,
      "Ġallowing": 7461,
      "ĠLim": 7462,
      "chron": 7463,
      "witter": 7464,
      "%)": 7465,
      "ĠRepresent": 7466,
      "ĠKong": 7467,
      "uly": 7468,
      "elete": 7469,
      "Ġrepro": 7470,
      "ĠMany": 7471,
      "tings": 7472,
      "Ġcities": 7473,
      "'.": 7474,
      "Ġorganizations": 7475,
      "Ġextend": 7476,
      "bigr": 7477,
      "forms": 7478,
      "hu": 7479,
      "ĠUs": 7480,
      "ictionary": 7481,
      "description": 7482,
      "ĠBlue": 7483,
      "hetic": 7484,
      "Ġofficers": 7485,
      "ĠRh": 7486,
      "ĠScotland": 7487,
      "National": 7488,
      "going": 7489,
      "Bo": 7490,
      "Ġplanet": 7491,
      "Ġuniversity": 7492,
      "Ġss": 7493,
      "ĠBra": 7494,
      "Ġimportance": 7495,
      "Names": 7496,
      "Ġtrial": 7497,
      "$:": 7498,
      "PL": 7499,
      "Prov": 7500,
      "Ġisol": 7501,
      "Ġthrows": 7502,
      "IB": 7503,
      "Ġdiscrete": 7504,
      "Ġscenario": 7505,
      "Up": 7506,
      "Ġtraject": 7507,
      "Ġfinding": 7508,
      "Ġdevices": 7509,
      "Ġ^": 7510,
      "Ġtag": 7511,
      "ĠĠĠĠĠĠĠĠĊ": 7512,
      "ĠStand": 7513,
      "lets": 7514,
      "ĠLuc": 7515,
      "\\}$.": 7516,
      "DR": 7517,
      "ĠKent": 7518,
      "icens": 7519,
      "Ġ->": 7520,
      "Ġdescent": 7521,
      "Ġdrive": 7522,
      "tan": 7523,
      "Ġ[\\": 7524,
      "Ġdiss": 7525,
      "ĠMu": 7526,
      "odies": 7527,
      "diag": 7528,
      "Ġscript": 7529,
      "$_{": 7530,
      "Arg": 7531,
      "Ġsatisfying": 7532,
      "ĠSi": 7533,
      "ĠHa": 7534,
      "Ġimproved": 7535,
      "tiny": 7536,
      "Ġsym": 7537,
      "Ġorders": 7538,
      "adel": 7539,
      "Web": 7540,
      "aming": 7541,
      "abeth": 7542,
      "iate": 7543,
      "Desc": 7544,
      "Sche": 7545,
      "ĠSenate": 7546,
      "ĠAcc": 7547,
      "iser": 7548,
      "ĠPower": 7549,
      "Ġacts": 7550,
      "Ġgrowing": 7551,
      "Ġrect": 7552,
      "Ġreasons": 7553,
      "Ev": 7554,
      "sets": 7555,
      "Ġoperated": 7556,
      "amm": 7557,
      "Ġdivided": 7558,
      "Ġrecording": 7559,
      "Factory": 7560,
      "del": 7561,
      "Ġlocally": 7562,
      "]$.": 7563,
      "ailed": 7564,
      "Ġbass": 7565,
      "ĠBal": 7566,
      "Length": 7567,
      "iced": 7568,
      "Ġnearby": 7569,
      "ĠEp": 7570,
      "Ġtraffic": 7571,
      "Ġschedul": 7572,
      "ĠCoast": 7573,
      "Ġentropy": 7574,
      "white": 7575,
      "Ġstress": 7576,
      "...,": 7577,
      "herent": 7578,
      "Ġserving": 7579,
      "lers": 7580,
      "ĠVan": 7581,
      "sen": 7582,
      "Ġactors": 7583,
      "Load": 7584,
      "achusetts": 7585,
      "Ġcolon": 7586,
      "DP": 7587,
      "Ġdust": 7588,
      "Ġabsolute": 7589,
      "dy": 7590,
      "edia": 7591,
      "ĠRay": 7592,
      "brace": 7593,
      "ĠEdward": 7594,
      "ĠLab": 7595,
      "Ġbin": 7596,
      "uum": 7597,
      "ĠPhilipp": 7598,
      "True": 7599,
      "lie": 7600,
      "Ġacting": 7601,
      "Ġadding": 7602,
      "Ġadvantage": 7603,
      "ĠCro": 7604,
      "Ġcalculate": 7605,
      "Ġfre": 7606,
      "Ġvariation": 7607,
      "istent": 7608,
      "anging": 7609,
      "ogen": 7610,
      "Ġwild": 7611,
      "Ġhundred": 7612,
      "enant": 7613,
      "Ġsettings": 7614,
      ":(": 7615,
      "Ġpp": 7616,
      "Ġorbit": 7617,
      "vin": 7618,
      "header": 7619,
      "stone": 7620,
      "fully": 7621,
      "Ġstatistical": 7622,
      "Ġdiam": 7623,
      "hr": 7624,
      "Ġprinciple": 7625,
      "Ġ{@": 7626,
      ")--": 7627,
      "arrier": 7628,
      "bal": 7629,
      "ĠBoston": 7630,
      "pective": 7631,
      "Ġsquad": 7632,
      "Ġmanaged": 7633,
      "Ġwidely": 7634,
      "ruck": 7635,
      "))\\": 7636,
      "Ġmarked": 7637,
      "Ġscaling": 7638,
      "Ġeverything": 7639,
      "Sm": 7640,
      "itage": 7641,
      "Ġprojection": 7642,
      "Ġsolve": 7643,
      "Ġanswer": 7644,
      "author": 7645,
      ";\\;\\": 7646,
      "Ġfeat": 7647,
      "CK": 7648,
      "Ġexplained": 7649,
      "car": 7650,
      "Ġunderlying": 7651,
      "Ġlocations": 7652,
      "Ġobj": 7653,
      "Ġintersection": 7654,
      "apse": 7655,
      "ĠPolice": 7656,
      "Ġcoordinate": 7657,
      "Ġapparent": 7658,
      "nam": 7659,
      "Ġremark": 7660,
      "ez": 7661,
      "ĠIslam": 7662,
      "NE": 7663,
      "ĠQueen": 7664,
      "Track": 7665,
      "1942": 7666,
      "ĠGi": 7667,
      "sole": 7668,
      "Ġroll": 7669,
      "]);": 7670,
      "Ġnotice": 7671,
      "ĠJewish": 7672,
      "Ġsession": 7673,
      "mathop": 7674,
      "Ġprocessing": 7675,
      "drop": 7676,
      "ORT": 7677,
      "mediate": 7678,
      "entry": 7679,
      ";&": 7680,
      "}}_{\\": 7681,
      "Ġowners": 7682,
      "AME": 7683,
      "AV": 7684,
      "uli": 7685,
      "ori": 7686,
      "Ġmapping": 7687,
      "Ġblocks": 7688,
      "1956": 7689,
      "Ġcharacteristic": 7690,
      "ĠRun": 7691,
      "Ġirre": 7692,
      "Ġcert": 7693,
      "Sing": 7694,
      "jected": 7695,
      "idel": 7696,
      "ĠAssum": 7697,
      "Ġtool": 7698,
      "1959": 7699,
      "Ġoperating": 7700,
      "Ġmill": 7701,
      "ĠFrancisco": 7702,
      "ilbert": 7703,
      "ĠCard": 7704,
      "1958": 7705,
      "Mat": 7706,
      "ĠDutch": 7707,
      ",\\\\": 7708,
      "Disc": 7709,
      "ĠÎ": 7710,
      "Ġbelieved": 7711,
      "Ġbands": 7712,
      "Ġrespond": 7713,
      "onto": 7714,
      "mosp": 7715,
      "Ġsister": 7716,
      "Ġpicture": 7717,
      "format": 7718,
      "Ġtechnical": 7719,
      "Ġsuc": 7720,
      "Ġevol": 7721,
      "Ġindeed": 7722,
      "Ġevaluation": 7723,
      "Ġscope": 7724,
      "=\"../../../../": 7725,
      "pers": 7726,
      "plications": 7727,
      "Dec": 7728,
      "Ġfle": 7729,
      "inations": 7730,
      "Ġdescribes": 7731,
      "aren": 7732,
      "private": 7733,
      "ouble": 7734,
      "afe": 7735,
      "ĠBor": 7736,
      "output": 7737,
      "}~~{": 7738,
      "Ġbatt": 7739,
      "ĠPoint": 7740,
      "ups": 7741,
      "Ġrobust": 7742,
      "Ġtrend": 7743,
      "outhe": 7744,
      "Ġstack": 7745,
      "stable": 7746,
      "Ġcalls": 7747,
      "Ġconven": 7748,
      "Create": 7749,
      "Ġpoliticians": 7750,
      "Brit": 7751,
      "ĠJoe": 7752,
      "Ġtrust": 7753,
      "Ġcouncil": 7754,
      "ĠRos": 7755,
      "Ġflight": 7756,
      "Ġmedium": 7757,
      "Ġintegration": 7758,
      "Ġcreating": 7759,
      "uing": 7760,
      "ĠFar": 7761,
      "Ġsubsequently": 7762,
      "Ac": 7763,
      "uri": 7764,
      "Ġstability": 7765,
      "Ġens": 7766,
      "enger": 7767,
      "Ġnamely": 7768,
      "rome": 7769,
      "Ġnarrow": 7770,
      "aved": 7771,
      "ĠTheatre": 7772,
      "Ġpartner": 7773,
      "Ġnet": 7774,
      "Members": 7775,
      "Ġsecondary": 7776,
      "ĠGener": 7777,
      "una": 7778,
      "Ġfootballer": 7779,
      "ĠTaylor": 7780,
      "Ġsuggests": 7781,
      "ultane": 7782,
      "Ġfailure": 7783,
      "uries": 7784,
      "Ã±": 7785,
      "Ġtrees": 7786,
      "Ġrepresenting": 7787,
      "Ġfelt": 7788,
      "Ġtail": 7789,
      "riend": 7790,
      "ĠIllinois": 7791,
      "Output": 7792,
      "1948": 7793,
      "Ġdial": 7794,
      "Check": 7795,
      "Men": 7796,
      "1957": 7797,
      "ĠColor": 7798,
      "Ġweights": 7799,
      "][]{": 7800,
      "Ġacquired": 7801,
      "Ġthous": 7802,
      "$&": 7803,
      "Ġundefined": 7804,
      "Ġsides": 7805,
      "ĠGovernor": 7806,
      "aling": 7807,
      "Ġsucceed": 7808,
      "weet": 7809,
      "JS": 7810,
      "ĠPortug": 7811,
      "clusions": 7812,
      "}}}\\": 7813,
      "apped": 7814,
      "ĠBecause": 7815,
      "yd": 7816,
      "ĠHuman": 7817,
      "Ġequilibrium": 7818,
      "Sports": 7819,
      "Description": 7820,
      "oles": 7821,
      "ading": 7822,
      "mode": 7823,
      "match": 7824,
      "Ġbridge": 7825,
      "ĠNone": 7826,
      "Ġstarts": 7827,
      "writer": 7828,
      "Ġ\"\"\"": 7829,
      "called": 7830,
      "Ġcapture": 7831,
      "Ġblood": 7832,
      "osis": 7833,
      "Ġships": 7834,
      "Ġdedicated": 7835,
      "found": 7836,
      "Ġcrew": 7837,
      "typ": 7838,
      "plicity": 7839,
      "irds": 7840,
      "(_": 7841,
      "inate": 7842,
      "igration": 7843,
      "Ġcreation": 7844,
      "Ġcancer": 7845,
      "ĠMiddle": 7846,
      "Ġwestern": 7847,
      "Ġresidents": 7848,
      "Ġuint": 7849,
      "ĠWater": 7850,
      "also": 7851,
      "scriptsize": 7852,
      "joint": 7853,
      "Ġcond": 7854,
      "ĠMot": 7855,
      "Ġtend": 7856,
      "Ġvon": 7857,
      "rage": 7858,
      "AF": 7859,
      "aby": 7860,
      "Ġconsequence": 7861,
      "ĠOF": 7862,
      "dfrac": 7863,
      "ucky": 7864,
      "iable": 7865,
      "ĠDisc": 7866,
      "Ġpropos": 7867,
      "Ġarticles": 7868,
      "ported": 7869,
      "Ġversions": 7870,
      "Ġneutr": 7871,
      "ĠPoland": 7872,
      "Ġkept": 7873,
      "Ġrepresentations": 7874,
      "allow": 7875,
      "Ġcandidates": 7876,
      "Ġinstr": 7877,
      "andemic": 7878,
      "Ġsufficiently": 7879,
      "ĠFace": 7880,
      "ĠNight": 7881,
      "\\;": 7882,
      "Ġcomedy": 7883,
      "Ġcommonly": 7884,
      "Ġsend": 7885,
      "Ġcoinc": 7886,
      "]$,": 7887,
      "ĠStan": 7888,
      "Mult": 7889,
      "Select": 7890,
      "ĠLo": 7891,
      ":#": 7892,
      "Ġclaims": 7893,
      "Ġowner": 7894,
      "Ġluminos": 7895,
      "Ġregarding": 7896,
      "occer": 7897,
      "ART": 7898,
      "clear": 7899,
      "Ġregional": 7900,
      "Ġlock": 7901,
      "Ġintended": 7902,
      "Ġgun": 7903,
      "sch": 7904,
      "Left": 7905,
      "Ġdetected": 7906,
      "Ġlen": 7907,
      "Ġuns": 7908,
      "tty": 7909,
      "Ġprime": 7910,
      "Ġestimation": 7911,
      "iki": 7912,
      "Ġorganized": 7913,
      "eces": 7914,
      "Ġclin": 7915,
      "hent": 7916,
      "Ġ{$": 7917,
      "United": 7918,
      "DM": 7919,
      "1939": 7920,
      "tach": 7921,
      "ĠBang": 7922,
      "appe": 7923,
      ",\\,\\": 7924,
      "ĠMassachusetts": 7925,
      "1943": 7926,
      "zo": 7927,
      "Ġconstants": 7928,
      "Ġtell": 7929,
      "fold": 7930,
      "Sl": 7931,
      "ĠAR": 7932,
      "Format": 7933,
      "Ke": 7934,
      "Ġdatasets": 7935,
      "ĠAndrew": 7936,
      "onia": 7937,
      "ãĤ": 7938,
      "bro": 7939,
      "Ġinverse": 7940,
      "ĠAff": 7941,
      "Ġlie": 7942,
      "ĠJr": 7943,
      "Vol": 7944,
      "ĠEst": 7945,
      "ĠWall": 7946,
      "Ġradiation": 7947,
      "Ġinstrument": 7948,
      "Ġshell": 7949,
      "Dr": 7950,
      "tree": 7951,
      "ĠServices": 7952,
      "ĠCommunity": 7953,
      "Ġlanguages": 7954,
      "ĠWild": 7955,
      "sort": 7956,
      "buf": 7957,
      "scriptstyle": 7958,
      "ĠSecretary": 7959,
      "Ġattacks": 7960,
      "Ġcultural": 7961,
      "Ġclubs": 7962,
      "Ġinsert": 7963,
      "})}": 7964,
      "1941": 7965,
      ",{\\": 7966,
      "Par": 7967,
      "Ġabund": 7968,
      "chester": 7969,
      "Ġrequirements": 7970,
      "${": 7971,
      "ĠEX": 7972,
      "ogs": 7973,
      "250": 7974,
      "Ġsummar": 7975,
      "teen": 7976,
      "Ġvehicle": 7977,
      "Ġdimensional": 7978,
      "Some": 7979,
      "Ġthin": 7980,
      "Ġ^{": 7981,
      "ĠWilson": 7982,
      "ĠSea": 7983,
      "Ġissued": 7984,
      "Å¡": 7985,
      "}~~{}$\\": 7986,
      "spe": 7987,
      "obs": 7988,
      "Ġgravit": 7989,
      "leep": 7990,
      "Ġdesired": 7991,
      "ochastic": 7992,
      "offset": 7993,
      "ĠEastern": 7994,
      "iger": 7995,
      "Ġaw": 7996,
      "ĠKen": 7997,
      "ĠBroad": 7998,
      "sor": 7999,
      "}[\\": 8000,
      "Ġprimarily": 8001,
      "fn": 8002,
      "\"]": 8003,
      "Page": 8004,
      "Will": 8005,
      "onse": 8006,
      "amber": 8007,
      "Ġevaluate": 8008,
      "Ġexplicitly": 8009,
      "1955": 8010,
      "status": 8011,
      "clusive": 8012,
      "ĠSports": 8013,
      "Last": 8014,
      "phia": 8015,
      "ĠPubl": 8016,
      "Ġassociation": 8017,
      "Ġalle": 8018,
      "ĠJes": 8019,
      "}})": 8020,
      "gest": 8021,
      "Ġstorage": 8022,
      "Ġtranslation": 8023,
      "ABLE": 8024,
      "Ġprofessor": 8025,
      "Ġdraft": 8026,
      "ĠCall": 8027,
      "Width": 8028,
      "}}.": 8029,
      "ĠHong": 8030,
      "Ġcook": 8031,
      "imation": 8032,
      "ĠTri": 8033,
      "Ġdatabase": 8034,
      "Ġlab": 8035,
      "ĠJackson": 8036,
      "Ġcollected": 8037,
      "ĠEgypt": 8038,
      "acent": 8039,
      "conf": 8040,
      "Ġretired": 8041,
      "ĠĠĠĠĠĠĠĠĠĠĠĠĠĠĠĠĠĠĠĠĠĠĠĠĠĠĠĠĠĠĠĠĠĠĠĠĠĠĠĠĠĠĠĠĠĠĠĠĠĠĠĠĠĠĠĠĠĠĠĠĠĠĠĠ": 8042,
      "arthe": 8043,
      "Ġprincipal": 8044,
      "Ġpredicted": 8045,
      "|}{": 8046,
      "GR": 8047,
      "arters": 8048,
      "Ġsuitable": 8049,
      "imer": 8050,
      "Ġpowerful": 8051,
      "Tem": 8052,
      "Ġimplemented": 8053,
      "ĠIR": 8054,
      "igr": 8055,
      "ĠLittle": 8056,
      "algebra": 8057,
      "ERR": 8058,
      "Ġstrain": 8059,
      "Ġemphas": 8060,
      "het": 8061,
      "Ġcosm": 8062,
      "Ġinvolving": 8063,
      "Valid": 8064,
      "Ġradial": 8065,
      "longrightarrow": 8066,
      "World": 8067,
      "Ġtempor": 8068,
      "Ġmatching": 8069,
      "flu": 8070,
      "})^": 8071,
      "Ġfrag": 8072,
      "tail": 8073,
      "Ġexecutive": 8074,
      "ĠMethod": 8075,
      "ĠEven": 8076,
      "Ġapplying": 8077,
      "close": 8078,
      "1946": 8079,
      "Ġlaunch": 8080,
      "Ġmuseum": 8081,
      "ĠRailway": 8082,
      "chor": 8083,
      "Ġpurs": 8084,
      "Ġturns": 8085,
      "nn": 8086,
      "ĠGar": 8087,
      "ĠSpec": 8088,
      "Ġhands": 8089,
      "desc": 8090,
      "PU": 8091,
      "ierarch": 8092,
      "'ve": 8093,
      "opher": 8094,
      "ronic": 8095,
      "Ġmedian": 8096,
      "dney": 8097,
      "Ġadministration": 8098,
      "Ġalt": 8099,
      "Json": 8100,
      "ĠDar": 8101,
      "Ġideas": 8102,
      "Ġgeneric": 8103,
      "Ġinvestigation": 8104,
      "ussion": 8105,
      "emptyset": 8106,
      "${\\": 8107,
      "Ġpolic": 8108,
      "Ġargs": 8109,
      "Ġple": 8110,
      "1947": 8111,
      "ĠPrince": 8112,
      "Ġpersonnel": 8113,
      "ocated": 8114,
      "Ġcosts": 8115,
      "Go": 8116,
      "Ġassumptions": 8117,
      "Ġtools": 8118,
      "vature": 8119,
      "othing": 8120,
      "Cal": 8121,
      "Ġyouth": 8122,
      "Ġcharged": 8123,
      "elligence": 8124,
      "ĉĠĠĠĠĠ": 8125,
      "VD": 8126,
      "Ġaffected": 8127,
      "1952": 8128,
      "Ġsales": 8129,
      "riminal": 8130,
      "Ġhidden": 8131,
      "Ġepisodes": 8132,
      "apes": 8133,
      "Ġbos": 8134,
      "ĠUN": 8135,
      "Ġequipment": 8136,
      "ĠOxford": 8137,
      "Tag": 8138,
      "emy": 8139,
      "ĠUr": 8140,
      "Ġlabor": 8141,
      "Ġferm": 8142,
      "ĠRepublican": 8143,
      "brid": 8144,
      "ĠBir": 8145,
      "omer": 8146,
      "Ġfigures": 8147,
      "General": 8148,
      "annot": 8149,
      "Ġspirit": 8150,
      "pool": 8151,
      "Ġdiagonal": 8152,
      "})=": 8153,
      "Vis": 8154,
      "Ġtwice": 8155,
      "Ġfloor": 8156,
      "Ġwrong": 8157,
      "Ġfellow": 8158,
      "Ġfocused": 8159,
      "Ġfort": 8160,
      "diff": 8161,
      "Current": 8162,
      "Ġfans": 8163,
      "_.": 8164,
      "illy": 8165,
      "Ġmathemat": 8166,
      "pson": 8167,
      "ĠFree": 8168,
      "ci": 8169,
      "Ġdynamic": 8170,
      "Ġeq": 8171,
      "$};": 8172,
      "ĠKorea": 8173,
      "Ġopportunity": 8174,
      "ĠBell": 8175,
      "ĠJon": 8176,
      ";</": 8177,
      "attr": 8178,
      "ĠVis": 8179,
      "ĠSciences": 8180,
      "itness": 8181,
      "Proof": 8182,
      "ects": 8183,
      "(&": 8184,
      "ĠBa": 8185,
      "ĠFour": 8186,
      "ĠLatin": 8187,
      "1954": 8188,
      "ĠWis": 8189,
      "Ġsomew": 8190,
      "ĠHospital": 8191,
      "zen": 8192,
      "Ġobjective": 8193,
      "BU": 8194,
      "ĠAnother": 8195,
      "Pat": 8196,
      "card": 8197,
      "ĠCat": 8198,
      "cisely": 8199,
      "Ġsupply": 8200,
      "ĠAppendix": 8201,
      "ĠSuch": 8202,
      "Ġbillion": 8203,
      "ĠMas": 8204,
      "Ġmarriage": 8205,
      "128": 8206,
      "Ġmaximal": 8207,
      "Ġcontinues": 8208,
      "Ġfacilities": 8209,
      "Ġearned": 8210,
      "Second": 8211,
      "[\"": 8212,
      "ĠIndeed": 8213,
      "Ġperforming": 8214,
      "ĠBrook": 8215,
      "Ġlift": 8216,
      "uv": 8217,
      "ĠDaniel": 8218,
      "watch": 8219,
      "dl": 8220,
      "esian": 8221,
      "inson": 8222,
      "Ġresear": 8223,
      ")}_": 8224,
      "Ġsequences": 8225,
      "Ġlabels": 8226,
      "ĠJustice": 8227,
      "Ġderivative": 8228,
      "bell": 8229,
      "Di": 8230,
      "ĠAlexander": 8231,
      "izabeth": 8232,
      "Ġinvestigate": 8233,
      "ĠAsh": 8234,
      "ĠFer": 8235,
      "Ġreviews": 8236,
      "ponents": 8237,
      "Ġemail": 8238,
      "antry": 8239,
      "notes": 8240,
      "ederation": 8241,
      "Ġplus": 8242,
      "ographer": 8243,
      "amin": 8244,
      "root": 8245,
      "Ġtoward": 8246,
      "scape": 8247,
      "project": 8248,
      "ĠStation": 8249,
      "ĠColumbia": 8250,
      "ulpt": 8251,
      "ĠPlaces": 8252,
      "ourier": 8253,
      "ĠJean": 8254,
      "Dem": 8255,
      "uated": 8256,
      "ĠScottish": 8257,
      "Ġpages": 8258,
      "romise": 8259,
      "hire": 8260,
      "plet": 8261,
      "Return": 8262,
      "MT": 8263,
      "%%": 8264,
      "anta": 8265,
      "Ġaccurate": 8266,
      "vas": 8267,
      "imary": 8268,
      "Ġtheories": 8269,
      "May": 8270,
      "Ġquadr": 8271,
      "URL": 8272,
      "kit": 8273,
      "Ġconcert": 8274,
      "Ġhockey": 8275,
      "Link": 8276,
      "Ġtrigger": 8277,
      "////////////////": 8278,
      "present": 8279,
      "Ġsolar": 8280,
      "ĠWeek": 8281,
      "thur": 8282,
      "Ġpet": 8283,
      "Ġfifth": 8284,
      "hard": 8285,
      "Ġcaptured": 8286,
      "Ġincident": 8287,
      "=.": 8288,
      "Ġcm": 8289,
      "rames": 8290,
      "ologist": 8291,
      "Ġwinner": 8292,
      "Ġsubsequent": 8293,
      "Ġemployed": 8294,
      "params": 8295,
      "Each": 8296,
      "Mode": 8297,
      "ĠPen": 8298,
      "points": 8299,
      "British": 8300,
      "direct": 8301,
      "Ġopposite": 8302,
      "dependent": 8303,
      "ropol": 8304,
      "loop": 8305,
      "ĠGirl": 8306,
      "Ġeveryone": 8307,
      "Ġbulk": 8308,
      "ĠDO": 8309,
      "ĠÅ": 8310,
      "Ġtried": 8311,
      "ĠJeff": 8312,
      "estic": 8313,
      "Ġbias": 8314,
      "ĠConserv": 8315,
      "Ġsubstant": 8316,
      "mn": 8317,
      "Ġaccepted": 8318,
      "hang": 8319,
      "Ġsport": 8320,
      "Ġends": 8321,
      "Ġouter": 8322,
      "water": 8323,
      "III": 8324,
      "Ġconference": 8325,
      "Ġawards": 8326,
      "gle": 8327,
      "Sum": 8328,
      "ĠAPI": 8329,
      "Ġtruth": 8330,
      "actic": 8331,
      "Ġadjust": 8332,
      "Ġpatterns": 8333,
      "Mark": 8334,
      "ĠHung": 8335,
      "athan": 8336,
      "Ġstreet": 8337,
      "ĠInformation": 8338,
      "1949": 8339,
      "Ġconvent": 8340,
      "sat": 8341,
      "ĠReturns": 8342,
      "Ġcontrad": 8343,
      "Ġfont": 8344,
      "ĠFollowing": 8345,
      "response": 8346,
      "Ġlargely": 8347,
      "Ġlearned": 8348,
      "ĠFederal": 8349,
      "Ġpaid": 8350,
      "yo": 8351,
      "Ġpossibly": 8352,
      "ĠCommon": 8353,
      "Ġrelax": 8354,
      "ensities": 8355,
      "'),": 8356,
      "Ġstrugg": 8357,
      "1953": 8358,
      "prov": 8359,
      "Ġlatest": 8360,
      "Ġdiver": 8361,
      "ĠTw": 8362,
      "ruit": 8363,
      "Ġcategories": 8364,
      "[-": 8365,
      "Ġbeat": 8366,
      "ĠLater": 8367,
      "/(": 8368,
      "ĠLem": 8369,
      "UL": 8370,
      "ĠSD": 8371,
      "ĠCreek": 8372,
      "ĠLight": 8373,
      "iem": 8374,
      "Listener": 8375,
      "Ġpool": 8376,
      "ctic": 8377,
      "XX": 8378,
      "Ġarrived": 8379,
      "Ġhab": 8380,
      "University": 8381,
      "Ġprogramming": 8382,
      "Lemma": 8383,
      "aki": 8384,
      "Ġchallenge": 8385,
      "Ġenergies": 8386,
      "Ġdeploy": 8387,
      "Ġtransferred": 8388,
      "bras": 8389,
      "HC": 8390,
      "Ġoccurred": 8391,
      "Ġmotiv": 8392,
      "Ġofficials": 8393,
      "Ġenh": 8394,
      "ĠTam": 8395,
      "Ġagreed": 8396,
      "IST": 8397,
      "iota": 8398,
      "iful": 8399,
      "Open": 8400,
      "tikzpicture": 8401,
      "ONT": 8402,
      "urations": 8403,
      "ĠMain": 8404,
      "ĠHand": 8405,
      "Direct": 8406,
      "Ġdaily": 8407,
      "Ġbond": 8408,
      "ÅĤ": 8409,
      "ĠMinistry": 8410,
      "Ġviews": 8411,
      "Ġneural": 8412,
      "formance": 8413,
      "ĠMath": 8414,
      "Ġattend": 8415,
      "ĠOrgan": 8416,
      "etch": 8417,
      "Ġhouses": 8418,
      "Ġbehaviour": 8419,
      "ĠMike": 8420,
      "ĠBC": 8421,
      "ĠTHE": 8422,
      "paragraph": 8423,
      "}_{-": 8424,
      "apl": 8425,
      "Ġweap": 8426,
      "ĠCorps": 8427,
      "android": 8428,
      "Ġ$,": 8429,
      "hol": 8430,
      "ĠVill": 8431,
      "Ġpandemic": 8432,
      "Ġcompat": 8433,
      "Ġmanner": 8434,
      "iga": 8435,
      "parison": 8436,
      "Ġdamage": 8437,
      "Ġtransmission": 8438,
      "Ġcoal": 8439,
      "menu": 8440,
      "Ġatmosp": 8441,
      "Red": 8442,
      "Ġagents": 8443,
      "ĠVictoria": 8444,
      "ĠAst": 8445,
      "eless": 8446,
      "power": 8447,
      "Ġphoton": 8448,
      "ĠArray": 8449,
      "Ġcomments": 8450,
      "DD": 8451,
      "}}^{\\": 8452,
      "Op": 8453,
      "should": 8454,
      "ĠBelg": 8455,
      "oved": 8456,
      "ĠRE": 8457,
      "Ġpaths": 8458,
      "Ġisn": 8459,
      "Ġvisible": 8460,
      "Ġnav": 8461,
      "ĠBerlin": 8462,
      "img": 8463,
      "Ġjet": 8464,
      "ĠHT": 8465,
      "Ġ}{": 8466,
      "document": 8467,
      "fi": 8468,
      "Cache": 8469,
      "avelength": 8470,
      "itical": 8471,
      "Ġderive": 8472,
      "Ġsampling": 8473,
      "Ġadvert": 8474,
      "vard": 8475,
      "Ġtemplate": 8476,
      "Ġpossibility": 8477,
      "Ġdriver": 8478,
      "Ġreferences": 8479,
      "ĠStat": 8480,
      "ĠIndust": 8481,
      "600": 8482,
      "ĠBoy": 8483,
      "exports": 8484,
      "ĠThree": 8485,
      "formal": 8486,
      "algorithm": 8487,
      "Ġ{}": 8488,
      "ĠMedical": 8489,
      "oned": 8490,
      "Ġcanonical": 8491,
      "ĠProfessor": 8492,
      "phantom": 8493,
      "edge": 8494,
      "itative": 8495,
      "Ġrepeated": 8496,
      "ĠSO": 8497,
      "bmatrix": 8498,
      "]{\\": 8499,
      "isted": 8500,
      "Ġsimultane": 8501,
      "Ġembedding": 8502,
      "container": 8503,
      "ĠSom": 8504,
      "Dat": 8505,
      "nic": 8506,
      "Ġcomputing": 8507,
      "Ġsave": 8508,
      "ami": 8509,
      "Ġgravity": 8510,
      "imately": 8511,
      "Ġasymptotic": 8512,
      "plot": 8513,
      "ĠOnt": 8514,
      "ĠDer": 8515,
      "Ã¢": 8516,
      "GN": 8517,
      "Ġmiles": 8518,
      "Ġacademic": 8519,
      "umes": 8520,
      "ĠSunday": 8521,
      "ĠComput": 8522,
      "Ġentries": 8523,
      "ĠExec": 8524,
      "ĠChris": 8525,
      "Ġcars": 8526,
      "Although": 8527,
      "rapper": 8528,
      "ĠPolish": 8529,
      "Ġrepresentative": 8530,
      "ĠExt": 8531,
      "Ġspeech": 8532,
      "ĠBack": 8533,
      "Ġgeneralized": 8534,
      "Ġfinds": 8535,
      "Ġmixing": 8536,
      "lements": 8537,
      "ĠMic": 8538,
      "ĠReport": 8539,
      "ĠLicense": 8540,
      "Ġspring": 8541,
      "Ġturb": 8542,
      "otal": 8543,
      "Types": 8544,
      "Update": 8545,
      "Ġshock": 8546,
      "ĠIS": 8547,
      "Ġnor": 8548,
      "rosc": 8549,
      "Hence": 8550,
      "tw": 8551,
      "Two": 8552,
      "riday": 8553,
      "semble": 8554,
      "Local": 8555,
      "Ġpowers": 8556,
      "orship": 8557,
      "ĠArgent": 8558,
      "ĠDesign": 8559,
      "Ġpsych": 8560,
      "etal": 8561,
      "Ġera": 8562,
      "1951": 8563,
      "Ġintensity": 8564,
      "dest": 8565,
      "ĠDig": 8566,
      "nections": 8567,
      "1936": 8568,
      "Ġisomorphism": 8569,
      "Ġsatisfied": 8570,
      "Ġchance": 8571,
      "ennes": 8572,
      "Ġpredictions": 8573,
      "=\"../": 8574,
      "Conn": 8575,
      "LC": 8576,
      "Ġbegins": 8577,
      "green": 8578,
      "anth": 8579,
      "Ġclimate": 8580,
      "Ġsuccessfully": 8581,
      "Ġpeace": 8582,
      "Ġcamera": 8583,
      "Ġfeaturing": 8584,
      "ĠAirport": 8585,
      "Ġshop": 8586,
      "Ġsurrounding": 8587,
      ")</": 8588,
      "lvec": 8589,
      "Ġconsisting": 8590,
      "ropic": 8591,
      "life": 8592,
      ">\\": 8593,
      "Ġancient": 8594,
      "ĠBand": 8595,
      "Ġupdated": 8596,
      "gebras": 8597,
      "They": 8598,
      "parameter": 8599,
      "ATION": 8600,
      "ĠMaster": 8601,
      "BO": 8602,
      "\\}\\": 8603,
      "Ġcricket": 8604,
      "Ġexpanded": 8605,
      "ĠCorporation": 8606,
      "Ġspecifically": 8607,
      "Ġrestaur": 8608,
      "800": 8609,
      "Ġconsec": 8610,
      "\\}$,": 8611,
      "ĠGuard": 8612,
      "SH": 8613,
      "unte": 8614,
      "Ġagree": 8615,
      "Ġalongside": 8616,
      "elihood": 8617,
      "Ġinspired": 8618,
      "}}=": 8619,
      "ads": 8620,
      "Ġprecisely": 8621,
      "ĠIslands": 8622,
      "periment": 8623,
      "ĠMuslim": 8624,
      "Ġindicated": 8625,
      "Stat": 8626,
      "'ll": 8627,
      "ritical": 8628,
      "Ġreaction": 8629,
      "ibration": 8630,
      "ĠSC": 8631,
      "BE": 8632,
      "Ġnonlinear": 8633,
      "Ġmotor": 8634,
      "ni": 8635,
      "ropical": 8636,
      "Ġroles": 8637,
      "ĠAddition": 8638,
      "ĠStudies": 8639,
      "Ġandroid": 8640,
      "Ġpenal": 8641,
      "Ġtopological": 8642,
      "kg": 8643,
      "plane": 8644,
      "Ġcoverage": 8645,
      "ĠSydney": 8646,
      "bet": 8647,
      "ĠDown": 8648,
      "Austral": 8649,
      "Ġcompeted": 8650,
      "shot": 8651,
      "agon": 8652,
      "ctx": 8653,
      "slash": 8654,
      "RR": 8655,
      "Task": 8656,
      "ĉĉĉĉĉĉĉ": 8657,
      "columnwidth": 8658,
      "Ġvictim": 8659,
      "erior": 8660,
      "Ġbuffer": 8661,
      "Target": 8662,
      "ĠPrime": 8663,
      "Ġrecognition": 8664,
      "ĠPy": 8665,
      "wing": 8666,
      "ingly": 8667,
      "!!": 8668,
      "Ġdriving": 8669,
      "Ġmaxim": 8670,
      "enum": 8671,
      "').": 8672,
      "ĠRegion": 8673,
      "irections": 8674,
      "varthe": 8675,
      "ĠAk": 8676,
      "Ġathlet": 8677,
      "ĉĠĠĠĠĠĠĠĠĠĠĠ": 8678,
      "vartheta": 8679,
      "ĠSM": 8680,
      "Ġhypothesis": 8681,
      "Ġprepar": 8682,
      "Ġpal": 8683,
      "Ġopin": 8684,
      "Acc": 8685,
      "ĠCur": 8686,
      "Non": 8687,
      "ĠOfficial": 8688,
      "Ġplanned": 8689,
      "ĠMap": 8690,
      "ĠAnton": 8691,
      "ĠBon": 8692,
      "ĠCorn": 8693,
      "Ġtrace": 8694,
      "utenant": 8695,
      "okes": 8696,
      "ĠPass": 8697,
      "Ġeastern": 8698,
      "slant": 8699,
      "Cast": 8700,
      "Ġmeant": 8701,
      "ifferent": 8702,
      "Ġplanning": 8703,
      "ĠOlympic": 8704,
      "Ġpra": 8705,
      "Ġbra": 8706,
      "aret": 8707,
      "ĠViet": 8708,
      "verb": 8709,
      "frame": 8710,
      "Ġven": 8711,
      "Container": 8712,
      "Ġchanging": 8713,
      "Ġconstitu": 8714,
      "Long": 8715,
      "Ġextremely": 8716,
      "Ġexclud": 8717,
      ":=\\": 8718,
      "Interface": 8719,
      "Ġboy": 8720,
      "+(": 8721,
      "Ġidentical": 8722,
      "Ġmac": 8723,
      "std": 8724,
      "}|\\": 8725,
      "parse": 8726,
      "hor": 8727,
      "sv": 8728,
      "Ġmunicipality": 8729,
      "Ġcorner": 8730,
      "Ġengineering": 8731,
      "Ġbaseball": 8732,
      "Range": 8733,
      "Ġrig": 8734,
      "Ġintegrated": 8735,
      "ifact": 8736,
      "Ġprominent": 8737,
      "oster": 8738,
      "adelphia": 8739,
      "Command": 8740,
      "Ġbill": 8741,
      "sex": 8742,
      "Ġsust": 8743,
      "Ġcorpor": 8744,
      "Consider": 8745,
      "clip": 8746,
      "@{": 8747,
      "Ġleadership": 8748,
      "Ġsafe": 8749,
      "Ġbudget": 8750,
      "Ġpassing": 8751,
      "Ã¡n": 8752,
      "Ġquark": 8753,
      "ĠGer": 8754,
      "Ġpurposes": 8755,
      "cover": 8756,
      "vo": 8757,
      "risis": 8758,
      "aturday": 8759,
      "Ġthank": 8760,
      "1918": 8761,
      "ifer": 8762,
      "service": 8763,
      "Ġpit": 8764,
      "unities": 8765,
      "ĠSupreme": 8766,
      "ĠAdminist": 8767,
      "Ġmorning": 8768,
      "Ġtells": 8769,
      "Ġaggreg": 8770,
      "fa": 8771,
      "Ġelectronic": 8772,
      "Ġbundle": 8773,
      "Ġpush": 8774,
      "Ġtroops": 8775,
      "phone": 8776,
      "imb": 8777,
      "hens": 8778,
      "Ġtemperatures": 8779,
      "ĠNC": 8780,
      "ĠWrit": 8781,
      "FO": 8782,
      "}~": 8783,
      "Ġfinish": 8784,
      "oses": 8785,
      "zech": 8786,
      "ĠRen": 8787,
      "exec": 8788,
      "Ġzone": 8789,
      "ptic": 8790,
      "ĠUnivers": 8791,
      "\\)": 8792,
      "Ġexplo": 8793,
      "ĠSecurity": 8794,
      "mem": 8795,
      "ĠOnly": 8796,
      "Music": 8797,
      "ego": 8798,
      "Ġmask": 8799,
      "ipeline": 8800,
      "ĠKenn": 8801,
      "Ġcomputational": 8802,
      "ĠMult": 8803,
      "TS": 8804,
      "Ġquantities": 8805,
      "Given": 8806,
      "BL": 8807,
      "urer": 8808,
      "Ġready": 8809,
      "ĠBrad": 8810,
      "ĠGlobal": 8811,
      "Ġseconds": 8812,
      "ods": 8813,
      "Ġliqu": 8814,
      "Ġdiagn": 8815,
      "Ġnewspaper": 8816,
      "180": 8817,
      "Ġspot": 8818,
      "ĠChristmas": 8819,
      "ĠWalk": 8820,
      "Ġheav": 8821,
      "elect": 8822,
      "arest": 8823,
      "comput": 8824,
      "Ġhonor": 8825,
      "eries": 8826,
      "Ġpromoted": 8827,
      "etherlands": 8828,
      "oor": 8829,
      "ĠFund": 8830,
      "Ġwaves": 8831,
      "ito": 8832,
      ")})": 8833,
      "raine": 8834,
      "mazon": 8835,
      "Prop": 8836,
      "1938": 8837,
      "ĠFamily": 8838,
      "ideos": 8839,
      "Ġsilver": 8840,
      "Ġprovince": 8841,
      "Ġappearances": 8842,
      "ais": 8843,
      "ictures": 8844,
      "Ã£": 8845,
      "oli": 8846,
      "Ġsignals": 8847,
      "ĠOs": 8848,
      "avor": 8849,
      "akh": 8850,
      "\\|\\": 8851,
      "ben": 8852,
      "osa": 8853,
      "KE": 8854,
      "ĠBBC": 8855,
      "ĠRaj": 8856,
      "Ġpropose": 8857,
      "eman": 8858,
      "1937": 8859,
      "apore": 8860,
      "Ġprotection": 8861,
      "general": 8862,
      "^{(\\": 8863,
      "ĠRod": 8864,
      "Ġsexual": 8865,
      "Ġinteract": 8866,
      "ĠLew": 8867,
      "ĠGre": 8868,
      "UI": 8869,
      "etails": 8870,
      "Ġattribute": 8871,
      "Ġclosely": 8872,
      "^{*": 8873,
      "Ġcharges": 8874,
      "ubble": 8875,
      "Ġdynamical": 8876,
      "Ġsubstantial": 8877,
      "Ġplants": 8878,
      "ears": 8879,
      "Ġrational": 8880,
      "Ġcitizens": 8881,
      "medskip": 8882,
      "Ġintroduction": 8883,
      "Ġcrime": 8884,
      "ĠSant": 8885,
      "ĠAli": 8886,
      "regular": 8887,
      "Ġinterior": 8888,
      "ĠPakistan": 8889,
      "Ġcold": 8890,
      "Column": 8891,
      "ĠRog": 8892,
      "leton": 8893,
      "pres": 8894,
      "models": 8895,
      "Write": 8896,
      "Ġfashion": 8897,
      "Ġbroken": 8898,
      "Ġcatal": 8899,
      "sequently": 8900,
      "Ġdie": 8901,
      "since": 8902,
      "zz": 8903,
      "ĠCas": 8904,
      "ĠFire": 8905,
      "Ġvehicles": 8906,
      "Ġassistant": 8907,
      "Ġfluid": 8908,
      "Ġnewly": 8909,
      "125": 8910,
      "Ġstock": 8911,
      "oupl": 8912,
      "ĠKim": 8913,
      "&=\\": 8914,
      "aux": 8915,
      "kee": 8916,
      "Ġequivalence": 8917,
      "Suppose": 8918,
      "ĠOntario": 8919,
      "Ġhighlight": 8920,
      "consin": 8921,
      "Ġadvanced": 8922,
      "instance": 8923,
      "ĠCirc": 8924,
      "integ": 8925,
      "Ġraise": 8926,
      "Ġaware": 8927,
      "Ġcurvature": 8928,
      "Ġcommut": 8929,
      "Ġearth": 8930,
      "Ġserves": 8931,
      "Ġdance": 8932,
      "orney": 8933,
      "Ġluminosity": 8934,
      "Ä±": 8935,
      "Ġscientific": 8936,
      "gal": 8937,
      "ĠSa": 8938,
      "Ġtreated": 8939,
      "Ġdx": 8940,
      "Ġlowest": 8941,
      "hl": 8942,
      "Ġreader": 8943,
      "Ġcontrolled": 8944,
      "subsec": 8945,
      "inton": 8946,
      "Ġsoldiers": 8947,
      "Ġportion": 8948,
      "ĠRegiment": 8949,
      "ĠElizabeth": 8950,
      "ĠĠĠĠĠĠĠĠĠĠĠĠĊ": 8951,
      "Ġ({\\": 8952,
      "ĠPrize": 8953,
      "GS": 8954,
      "Before": 8955,
      "Ġvariance": 8956,
      "ĠEvery": 8957,
      "Ġfeet": 8958,
      "ulse": 8959,
      "Ġpreserv": 8960,
      "Height": 8961,
      "issions": 8962,
      "Ġbuy": 8963,
      "Ġarc": 8964,
      "gency": 8965,
      "Background": 8966,
      "iveness": 8967,
      "Ġrural": 8968,
      "ĠEu": 8969,
      "riptor": 8970,
      "Ġinnov": 8971,
      "Offset": 8972,
      "Nav": 8973,
      "uning": 8974,
      "South": 8975,
      "ĠSus": 8976,
      "ĠId": 8977,
      "coll": 8978,
      "Ġvacc": 8979,
      "Ġheard": 8980,
      "Ġuniversal": 8981,
      "orthe": 8982,
      "ĠSem": 8983,
      "ĠDE": 8984,
      "Ġreality": 8985,
      "Ġ\\&": 8986,
      "ql": 8987,
      "ĠBad": 8988,
      "Ġpackage": 8989,
      "aton": 8990,
      "\\\\\\": 8991,
      "Ġmonitor": 8992,
      "ĠĠĠĠĠĠĠĠĠĠĠĠĠĠĠĠĠĠĠĠĠ": 8993,
      "Rad": 8994,
      "bourne": 8995,
      "Song": 8996,
      "BM": 8997,
      "Ġdashed": 8998,
      "ĠGiven": 8999,
      "Ġmobile": 9000,
      "Don": 9001,
      "ĠMarg": 9002,
      "ĠWell": 9003,
      "notag": 9004,
      "Ġthread": 9005,
      "ordan": 9006,
      "icker": 9007,
      "ĠSher": 9008,
      "icip": 9009,
      "stat": 9010,
      "Dev": 9011,
      "Ġsetup": 9012,
      "Nov": 9013,
      "Ġunless": 9014,
      "isson": 9015,
      "Ġenvironmental": 9016,
      "Ġequality": 9017,
      "ĠKorean": 9018,
      "rained": 9019,
      "ĠEnergy": 9020,
      "Ġcolumns": 9021,
      "ĠLive": 9022,
      "icular": 9023,
      "ĠFair": 9024,
      "Ġmagnet": 9025,
      "ouch": 9026,
      "large": 9027,
      "Ġtoken": 9028,
      "ĠQueens": 9029,
      "Ġcancell": 9030,
      "ented": 9031,
      "Ġprotocol": 9032,
      "Ġask": 9033,
      "Ġcharacteristics": 9034,
      "\"|": 9035,
      "ĠKir": 9036,
      "Ġapproximate": 9037,
      "aska": 9038,
      "udio": 9039,
      "ĠCheck": 9040,
      "ĠAssert": 9041,
      "Que": 9042,
      "full": 9043,
      "Ġperman": 9044,
      "Ġremember": 9045,
      "ĠColl": 9046,
      "Ġcopies": 9047,
      "ĠToronto": 9048,
      "ĠWin": 9049,
      "ĠAvenue": 9050,
      "Ġaspects": 9051,
      "ĠCase": 9052,
      "anna": 9053,
      "ĠRome": 9054,
      "pet": 9055,
      "ronze": 9056,
      "Ġsummary": 9057,
      "Access": 9058,
      "Ġnotes": 9059,
      "utt": 9060,
      "ĠJS": 9061,
      "ĠRa": 9062,
      "ancer": 9063,
      "endar": 9064,
      "success": 9065,
      "PD": 9066,
      "ĠGro": 9067,
      "Ġgrew": 9068,
      "ĠAre": 9069,
      "Ġburn": 9070,
      "Ġeconomy": 9071,
      "Ġinstitutions": 9072,
      "ĠIV": 9073,
      "PM": 9074,
      "ĠRom": 9075,
      "Ġcryst": 9076,
      "TYPE": 9077,
      "Address": 9078,
      "ogonal": 9079,
      "lower": 9080,
      "255": 9081,
      "Ġquasi": 9082,
      "Xi": 9083,
      "GA": 9084,
      "ĠReal": 9085,
      "ĠVen": 9086,
      "Document": 9087,
      "Ġ**": 9088,
      "ĠMinnes": 9089,
      "vs": 9090,
      "iang": 9091,
      "ĠKel": 9092,
      "owa": 9093,
      "racket": 9094,
      "Ġinfer": 9095,
      "Ġcrow": 9096,
      "Ġsculpt": 9097,
      "Ġstochastic": 9098,
      "Play": 9099,
      "Ġtheme": 9100,
      "ĠTok": 9101,
      "Ġdocuments": 9102,
      "HL": 9103,
      "Ġdetermin": 9104,
      "Ġminister": 9105,
      "Book": 9106,
      "Ġbench": 9107,
      "possible": 9108,
      "regon": 9109,
      "adian": 9110,
      "Ġcovers": 9111,
      "Ġpolitics": 9112,
      "Tree": 9113,
      "hfill": 9114,
      "Ġsizes": 9115,
      "ĠSU": 9116,
      "Ġisot": 9117,
      "Ġhousing": 9118,
      "Ġpolicies": 9119,
      "Ġdrawn": 9120,
      "Ġelev": 9121,
      "Ġadvance": 9122,
      "peror": 9123,
      "Ġconclusion": 9124,
      "Ġcircum": 9125,
      "ĠDespite": 9126,
      "Ġmultip": 9127,
      "ĠBeach": 9128,
      "hedral": 9129,
      "ĠHun": 9130,
      "template": 9131,
      "ĠMinnesota": 9132,
      "make": 9133,
      "Ġspac": 9134,
      "101": 9135,
      "weg": 9136,
      "Ġcauses": 9137,
      "Ġdetector": 9138,
      "ĠHard": 9139,
      "Callback": 9140,
      "ĠKey": 9141,
      "Controller": 9142,
      "ello": 9143,
      "organ": 9144,
      "obe": 9145,
      "Ġce": 9146,
      "Ġaudience": 9147,
      "Ġeigenvalues": 9148,
      "Ġdestroyed": 9149,
      "initely": 9150,
      "anes": 9151,
      "160": 9152,
      "Ġexcell": 9153,
      "Ġxml": 9154,
      "Personal": 9155,
      "Ġperformances": 9156,
      "ĠFacebook": 9157,
      "CF": 9158,
      "antly": 9159,
      "Ġassuming": 9160,
      "equations": 9161,
      "gather": 9162,
      "Ġsatell": 9163,
      "never": 9164,
      "ĠJacob": 9165,
      "Ġexpatriate": 9166,
      "orders": 9167,
      "Gen": 9168,
      "Ġdependent": 9169,
      "Ġglass": 9170,
      "Ġfluctuations": 9171,
      "Ġrich": 9172,
      "ogether": 9173,
      "unnel": 9174,
      "osophy": 9175,
      "just": 9176,
      "Ġentirely": 9177,
      "Ġly": 9178,
      "\\\\&": 9179,
      "establ": 9180,
      "uses": 9181,
      "ĠEngineering": 9182,
      "Ġreserv": 9183,
      "App": 9184,
      "negative": 9185,
      "\\%$": 9186,
      "Ġmes": 9187,
      "ĠOt": 9188,
      "Ġsuperv": 9189,
      "jav": 9190,
      "Ġanyone": 9191,
      "meta": 9192,
      "Ġcontro": 9193,
      "His": 9194,
      "ducible": 9195,
      "Ġcontainer": 9196,
      "ĠOrig": 9197,
      "ĠSanta": 9198,
      "LASS": 9199,
      "vect": 9200,
      "ructions": 9201,
      "iÄĩ": 9202,
      "Ġdense": 9203,
      "Ġhour": 9204,
      "ĠNon": 9205,
      "ĠNations": 9206,
      "Ġfacility": 9207,
      "1935": 9208,
      "rastructure": 9209,
      "opyright": 9210,
      "itled": 9211,
      "Ġexpos": 9212,
      "Ġquantity": 9213,
      "Public": 9214,
      "hs": 9215,
      "Ġindustrial": 9216,
      "Ġvotes": 9217,
      "Ġfish": 9218,
      "ĠOR": 9219,
      "Ġlooks": 9220,
      "rangian": 9221,
      "Association": 9222,
      "Definition": 9223,
      "$^{": 9224,
      "Ġrecip": 9225,
      "Collection": 9226,
      "Ġgraduated": 9227,
      "Moreover": 9228,
      "Ġdeveloping": 9229,
      "Ġswim": 9230,
      "rins": 9231,
      "Ġemployees": 9232,
      "ĠPremier": 9233,
      "raq": 9234,
      "Ġliber": 9235,
      "}\\|": 9236,
      "Ġrecognized": 9237,
      "Ġeffectively": 9238,
      "ĠMcC": 9239,
      "Ġwinners": 9240,
      "common": 9241,
      "(-\\": 9242,
      "********************************": 9243,
      "Ġvacuum": 9244,
      "Ã©e": 9245,
      "ĠLind": 9246,
      "ĠHiggs": 9247,
      "Ġdiscrim": 9248,
      "sel": 9249,
      "Ġversus": 9250,
      "PH": 9251,
      "Ġfeedback": 9252,
      "Ġessentially": 9253,
      "Ġcontrols": 9254,
      "Ġurban": 9255,
      "ĠForest": 9256,
      "ĠNY": 9257,
      "Ġpieces": 9258,
      "eting": 9259,
      "Ġdeclared": 9260,
      "Ġanalyz": 9261,
      "Jan": 9262,
      "Following": 9263,
      "pred": 9264,
      "Ã¸": 9265,
      "Ġ$\\{\\": 9266,
      "Ġresident": 9267,
      "///": 9268,
      "Ġnecessarily": 9269,
      "Ġcorrections": 9270,
      "BR": 9271,
      "ĠLes": 9272,
      "window": 9273,
      "ĠBrig": 9274,
      "1914": 9275,
      "worth": 9276,
      "bc": 9277,
      "ĠNetherlands": 9278,
      "aga": 9279,
      "ymmetric": 9280,
      "ĠDam": 9281,
      "perial": 9282,
      "Ġfunding": 9283,
      "Ġinterpretation": 9284,
      "ĠPolicy": 9285,
      "Ġanom": 9286,
      "Ġestate": 9287,
      "Ġvanish": 9288,
      "ĠMond": 9289,
      "Ġintermediate": 9290,
      "Ġsolo": 9291,
      "ĠAuthor": 9292,
      "Ġperhaps": 9293,
      "Â°": 9294,
      "oment": 9295,
      "Ġsupporting": 9296,
      "1919": 9297,
      "theless": 9298,
      "ective": 9299,
      "figures": 9300,
      "Ġresulted": 9301,
      "Ġbenefit": 9302,
      "Ġfill": 9303,
      "Ġdemonstrate": 9304,
      "quarters": 9305,
      "ourney": 9306,
      "Unit": 9307,
      "Ġmolecular": 9308,
      "Down": 9309,
      "Ġdedu": 9310,
      "Ġextensive": 9311,
      "itory": 9312,
      "Ġaccret": 9313,
      "pur": 9314,
      "Ġplas": 9315,
      "islative": 9316,
      "ativ": 9317,
      "Ġwing": 9318,
      "Ġexperi": 9319,
      "Ġroughly": 9320,
      "Ġcovering": 9321,
      "Ġrefers": 9322,
      "plicated": 9323,
      "Ġlisting": 9324,
      "Hash": 9325,
      "bles": 9326,
      "Ġseparated": 9327,
      "sd": 9328,
      "1933": 9329,
      "Ġcalling": 9330,
      "outs": 9331,
      "Ġrecommend": 9332,
      "Ġexplore": 9333,
      "Ġofficially": 9334,
      "Ġ\\(\\": 9335,
      "arios": 9336,
      "Ġhistoric": 9337,
      "TT": 9338,
      "Ġhuge": 9339,
      "Ġfresh": 9340,
      "Ġabsence": 9341,
      "Ġ\\,\\": 9342,
      "ĠSab": 9343,
      "Ġtick": 9344,
      "Ġflex": 9345,
      "Ġadjacent": 9346,
      "Ġahead": 9347,
      "^*\\": 9348,
      "Ġgravitational": 9349,
      "Ġnotable": 9350,
      "there": 9351,
      "Ġexpressions": 9352,
      ")).": 9353,
      "Ġ..": 9354,
      "ĠAnth": 9355,
      "Ġbow": 9356,
      "Äį": 9357,
      "Ġcolle": 9358,
      "Ġescape": 9359,
      "256": 9360,
      "Ġnotion": 9361,
      "CM": 9362,
      "ĠFI": 9363,
      "Ġtitles": 9364,
      "Ġkill": 9365,
      "BB": 9366,
      "ĠCR": 9367,
      "comes": 9368,
      "Ġagric": 9369,
      "lik": 9370,
      "prec": 9371,
      "short": 9372,
      "Li": 9373,
      "Ġrom": 9374,
      "Ġreform": 9375,
      "Ġevaluated": 9376,
      "ĠLabor": 9377,
      "^*(": 9378,
      "Ġsand": 9379,
      "ĠRoute": 9380,
      "Ġ>=": 9381,
      "instein": 9382,
      "Ġserial": 9383,
      "Cent": 9384,
      "ĠFox": 9385,
      "ĠShort": 9386,
      "Ġdoor": 9387,
      "ĠGeV": 9388,
      "ĠWisconsin": 9389,
      "ĠSN": 9390,
      "Ġbreaking": 9391,
      "yard": 9392,
      "Ġadministrative": 9393,
      "corollary": 9394,
      "1917": 9395,
      "Script": 9396,
      "bec": 9397,
      "rell": 9398,
      "Ġcoupled": 9399,
      "ĠCommand": 9400,
      "âĢĿ.": 9401,
      "ĠStadium": 9402,
      "Ġ),": 9403,
      "Ġinjury": 9404,
      "evin": 9405,
      "ĠTy": 9406,
      "election": 9407,
      "ogram": 9408,
      "world": 9409,
      "<!--": 9410,
      "Dep": 9411,
      "Ġ,\\": 9412,
      "itter": 9413,
      "ĠLore": 9414,
      "Ã£o": 9415,
      "Ġcorrection": 9416,
      "Ġconfidence": 9417,
      "ĠSteve": 9418,
      "ĠEvent": 9419,
      "stood": 9420,
      "join": 9421,
      "Ġhappen": 9422,
      "finished": 9423,
      "ĠWhe": 9424,
      "ĠMA": 9425,
      "Ġseparation": 9426,
      "ĠTai": 9427,
      "Order": 9428,
      "ĠRevolution": 9429,
      "Ġbran": 9430,
      "ĠMember": 9431,
      "irical": 9432,
      "ĠCambridge": 9433,
      "grade": 9434,
      "Ġhosted": 9435,
      "Ġparticipated": 9436,
      "ĠCle": 9437,
      "1928": 9438,
      "relation": 9439,
      "Ġbriefly": 9440,
      "Ident": 9441,
      "ĠFinal": 9442,
      "arity": 9443,
      "ĠStr": 9444,
      "Ġdefense": 9445,
      "ĠPhiladelphia": 9446,
      "BI": 9447,
      "kh": 9448,
      "ĠHay": 9449,
      "Exec": 9450,
      "Url": 9451,
      "Ġmusicians": 9452,
      "Ġfrequently": 9453,
      "Button": 9454,
      "Server": 9455,
      "Provider": 9456,
      "Ġflows": 9457,
      "ĠSon": 9458,
      "Ag": 9459,
      "Ġhero": 9460,
      "Ġconsult": 9461,
      "Ġattempts": 9462,
      "Ġtested": 9463,
      "ĠTal": 9464,
      "andra": 9465,
      "vements": 9466,
      "stic": 9467,
      "Ġeyes": 9468,
      "================================": 9469,
[...]
