#version: 0.2
Ġ t
i n
h e
Ġ a
Ġ Ġ
o n
e r
r e
Ġt he
a t
e n
o r
Ġ s
a l
a n
Ġ o
i t
i s
e s
a r
e d
Ġ c
Ġ w
i on
Ġ f
Ġo f
n d
Ġ in
Ġ p
Ġ b
i c
in g
l e
ĠĠ ĠĠ
r o
a s
Ġa nd
Ġ \
Ġ d
Ġ m
Ġt o
Ġ $
c t
e l
en t
o u
e t
i l
i g
a m
o m
s t
Ġ h
Ġ re
Ġ S
at ion
Ġt h
o l
r a
Ġ T
i m
Ġ (
Ġ e
Ġ n
o t
Ġ C
Ġ A
Ġ l
Ġ is
i d
{ \
i v
c e
u r
c h
u t
Ġf or
Ġ M
u s
Ġ g
l y
o w
Ġ on
u l
a d
Ġ I
it h
er s
Ġ B
e m
q u
u m
2 0
Ġ P
a b
Ġb e
i r
Ġs t
ĠĠ Ġ
u n
_ {
Ġa s
ĠĠĠĠ ĠĠĠĠ
t er
a y
s e
Ġth at
Ġ H
Ġc on
v er
o d
Ġw ith
â Ģ
e g
i f
1 9
is t
Ġ F
t h
at h
Ġ R
a g
ĠT he
en d
Ġ D
Ġa l
Ġ L
Ġ$ \
Ġ v
an d
he r
Ġb y
Ġa n
Ġp ro
Ġ Ċ
Ġw as
e ct
ig h
r i
Ġ W
re s
Ġ N
a c
Ġ G
o s
m ath
v e
o p
es t
č Ċ
t a
at e
it y
p h
ro m
Ġ E
p p
Ġw h
Ġa t
o c
Ġ &
Ġd e
Ġc om
igh t
ar t
} \
ct ion
Ġe x
u b
e x
Ġa re
u re
o re
^ {
} $
Ġ it
i es
Ġf rom
in e
p t
Ġ J
i al
Ġ =
il l
al l
e w
Ġw e
m a
es s
g e
an t
u d
Ġ or
it e
u p
e c
Ġ O
or t
iv e
Ġ he
re f
T he
Ġ r
b er
m ent
p l
a k
} }
l d
ic h
' s
( \
ra c
o g
at ed
i z
f t
ou r
as s
ar d
el l
a p
ic al
i an
Ġ K
eg in
r an
Ġ U
n t
b egin
in t
20 1
Ġ "
Ġc h
Ġs h
Ġ y
ul t
u nd
Ġs p
ar y
am e
ex t
Ġ us
u e
e f
c l
ig n
Ġth is
Ġs e
it ion
c al
_ {\
) $
ĠĠĠĠ ĠĠĠ
i a
or m
p er
0 0
Ġ le
i p
Ġp l
a ve
Ġcom p
ĠI n
Ġ -
u st
) ,
Ġn ot
on g
as t
a re
Ġc l
en s
} {
e p
s p
âĢ ĵ
ation s
ag e
Ġs u
Ġwh ich
d u
Ġ k
f f
ĠS t
f rac
e q
e ar
ac k
a v
r m
o st
i re
Ġ V
or d
e qu
u g
} ,
en ce
Ġc an
s o
20 0
or k
ĉ ĉ
o v
r ight
a ce
a in
) .
t her
Ġw he
t o
c c
Ġh ave
t ext
ab le
c ite
ion s
en c
Ġ un
im e
l ow
id e
Ġh is
ab el
er e
r ic
an g
i b
as e
t he
on d
ou s
a ct
r u
is h
Ġh as
il d
ĠC h
a ch
math b
r y
Ġ {
Ġal so
en er
âĢ Ļ
l abel
) ;
, \
f er
et a
Ġ im
Ġa pp
Ġa b
o k
Ġ <
1 8
$ ,
I n
in d
Ġ |
om e
Ġa d
Ġre s
$ .
equ ation
m er
o ver
ĠT h
f orm
ou t
er v
ic e
= "
Ġw ere
er m
ou ld
math cal
ir st
w o
ou nd
le ft
Ġp art
ow n
} )
or y
- -
Ġ j
Ġon e
} .
ol d
1 0
re e
ĠĠĠĠĠĠĠĠ ĠĠĠĠĠĠĠĠ
at es
ent s
el y
ter n
Ġcon t
Ġm od
} (
Ġal l
or s
f ig
i le
i k
ro w
an ce
Ġa r
. .
cl ud
ta in
i e
ri b
ar k
} ^
al ly
Ġd is
p ro
r it
am b
p s
} _
p e
ur n
res s
w e
~ \
Ġ +
o se
ou nt
Ġo b
/ /
Ġp er
ph a
Ġ qu
c on
Ġb ut
Ġm e
ic s
l ine
Ġf irst
Ġ ro
Ġ Y
Ġt wo
Ġthe ir
am p
al pha
e y
d a
c om
o b
Ġit s
he d
s um
ĠU n
Ġ if
Ġe v
l l
l ic
k s
j ect
ĠI t
ĠH e
Ġo ut
) \
p ort
im es
19 9
Ġs y
ul ar
Ġ }
< /
ran s
i el
Ġp re
ation al
ar i
c ent
v el
Ġpl ay
un ction
o int
Ġs c
Ġo ther
el ta
n g
f ter
$ \
amb da
Ġh ad
ra d
t e
ol low
at er
at a
Ġd es
Ġ âĢĵ
Ġ *
ut ion
ra y
Ġs et
Ġt e
Ġm an
or n
Ġw ill
le ct
Ġ| |
h o
s s
ra ph
l es
am ma
Ġo ver
ug h
Ġa g
on e
Ġde f
iel d
i ed
Ġt ime
Ġin t
_ \
Ġw ork
Ġn ew
1 2
Ġwh o
is s
m u
Ġin ter
i x
enc es
Ġm ore
pt ion
o f
Ġbe en
um ber
a w
ĠĠĠĠĠĠĠĠ ĠĠĠ
Ġ up
= \
on s
Ġ âĢ
d ot
und er
as ed
Ġb et
Ġ\ \
ing s
Ġf ollow
ig ma
} ^{
Ġin d
} _{
Ġs ub
Ġfor m
mathb b
Ġwhe re
v i
Ġd o
Ġcon s
m b
Ġd if
od e
Ġthe y
c ed
Ġcl ass
l and
- \
at ive
Ġ en
s ub
Ġ her
r am
h at
y s
o ol
eg a
st em
ĠĠĠĠ Ġ
Ġon ly
res ent
s c
Ġsu ch
u al
Ġn e
Ġex p
Ġy ou
ar g
ot h
^ {\
g h
Ġre l
Ġre g
Ġ {\
ph i
Ġmod el
a pp
Ġf unction
Ġc ol
an s
o ok
in ed
Ġs o
in al
Ġres ult
e op
Ġv al
Ġd ist
Ġy ear
ic t
Ġin to
iv ers
it ed
a us
ak e
Ġwhe n
ĠW e
if ic
et h
s h
oc k
iz e
ro up
Ġcom m
Ġin clud
Ġthe re
p r
we en
l ambda
p art
eop le
in ce
Ġa cc
Ġcon st
w ard
ol og
1 5
Ġg ener
ĠTh is
mer ic
a il
b f
ver y
o x
a x
Ġthe n
Ġth an
em ber
Ġs im
r al
d er
ro und
an n
at ing
t t
1 6
Ġbe c
19 8
Ġp h
i o
Ġp os
Ġc o
Ġ under
S t
1 7
p i
Ġ [
Ġbet ween
ur ing
on t
ou gh
r ing
Ġsh ow
it ies
y pe
Ġe qu
le m
s et
Ġl oc
il on
p os
i ent
w id
ect ion
Ġre c
o ot
Ġre t
al ign
Ġk n
Ġs ome
le t
c k
Ġp ol
ub lic
id ent
mathb f
u res
re d
Ġan y
ar am
Ġt rans
o od
Ġo ur
Ġdif fer
o y
c es
il m
d ition
ĠA l
is e
ĠC om
Ġa ct
s igma
Ġ( \
Ġc or
ĠN ew
ro ugh
R ef
ic k
ru ct
Ġof f
il ity
Ġa fter
n e
Ġw ould
ay s
Ġin v
e e
Ġp r
it s
^{ -
le ment
Ġs ec
} {\
ild e
E x
Ġab out
in s
se ction
Ġ '
ist s
" >
c re
1 3
b eta
b ar
Ġt ra
ab l
id er
Ġus ed
c he
ul l
o ve
Ġpro du
al s
Ġsy stem
Ġst ud
p ut
r t
u es
Ġ est
ar ch
at ure
Ġs he
1 4
Ġat t
Ref er
ou n
Ġpro v
ik e
Ġg iv
Ġe ach
Ġn o
Ġm at
e ver
re n
el f
ad e
Ġas s
2 1
il y
+ \
ĠP ro
Refer ences
e v
19 7
Ġf e
meric an
Ġthe se
Ġf l
ib le
g amma
l i
math rm
ar ray
Ġl in
ep s
ow er
* }
1 1
or ld
Ġe ff
âĢ Ŀ
a ir
* *
Ġp oint
Ġn umber
at or
ch ool
is ion
W e
Ġ Z
t on
r ho
Ġs m
\ \
Ġd ata
b all
is m
ĠF or
^ \
Ġre sp
Ġm ost
g et
Ġp eople
iz ed
Ġl ine
er t
d elta
Ġsp ec
Ġpro b
w n
) }
Ġb l
m in
Ġex t
he re
Ġm ay
ire ct
Ġ Q
ta u
oc i
it t
Ġs ol
the ta
T h
Ġb u
y n
Ġthe m
is hed
Ġ x
ot e
am es
en g
o h
as on
] {
le q
n ing
Ġret urn
Ġc ase
an y
Ġapp ro
c dot
Ġv ari
Ġw ell
an ge
$ -
em ent
Ġth rough
Ġs ign
Ġ i
Ġus e
Ġsu pp
as h
g an
c ol
Ġdiffer ent
Ġ ent
2 5
h ip
Ġs erv
Ġc ur
Ġo per
}$ ,
ar s
}$ .
Ġ end
Ġin st
us s
r on
iz ation
Ġre p
at t
n u
19 6
Ġs ame
it em
Ġc ent
b ig
ut e
wid th
ivers ity
ra ct
part ial
fig ure
Ġf ilm
" ,
Ġa m
s y
a h
c ess
3 0
eth od
} (\
Ġ ed
ĠD e
Ġs ur
Ġpart ic
he n
m an
re at
Ġn on
er n
Ġ ra
Ġg roup
2 2
ĠS h
Ġth ree
aus e
ĠL e
or th
ical ly
ar row
Ġb oth
Ġs ing
eq ref
Ġ X
qu ad
Ġf ield
ow ever
ur y
Ġ .
ar ge
u ch
ou th
ion al
Ġt erm
Ġf ound
Ġag ain
ver t
t imes
Ġst ate
re t
eq n
( )
em b
per t
Ġfollow ing
i er
Ġus ing
Ġm in
m m
Ġsec ond
ft y
Ġh igh
ic es
om ega
Ġs er
ĠA n
tern al
ric t
in fty
et er
g y
amp le
Ġa c
vel op
if e
Ġc all
t ilde
Ġor der
a z
ir c
f or
le ction
Ġgiv en
Ġg o
w ay
Ġh im
Ġg et
n er
Ġb ack
a id
-- --
p ar
u c
ĠI nd
Ġcons ider
ĠA s
Ġper form
v al
ar ly
Ġyear s
Ġf in
p m
ment s
d ef
al e
our ce
ect ed
ĠS e
se c
Ġm on
Ġe m
Ġdes c
ĠâĢ ľ
as es
iv ely
Ġd et
ĠA merican
ĠC ol
v ar
a j
at ic
Ġwh ile
Ġd uring
ag es
5 0
Ġle ad
Ġar t
| \
Ġdis c
Ġde c
ot s
ĠC l
Ġre qu
ul ation
Ġf act
y p
ran g
in es
ot her
= =
in ing
Ġ z
. ,
D elta
iv er
ĠĠĠĠĠĠĠĠ ĠĠĠĠĠĠĠ
ro ss
ur al
ut h
s erv
an k
ou se
e b
t en
er r
in k
Ġf am
s on
Ġsm all
ĠS p
00 0
19 4
\ ,
Ġt r
re nt
Ġst r
Ġp ublic
p en
Ġbe ing
al ity
ent ial
Ġc re
cent er
Ã ©
ĠC on
a u
at her
f l
Ġte am
2 4
ĠUn iversity
ire d
ers on
x i
ore m
res p
Ġ /
Ġre le
ant s
Ġd irect
w ork
over n
y le
s im
olog y
Ġ :
ĠS c
ĠUn ited
sp ace
Ġman y
Ġm ade
Ġeff ect
Ġn ame
et s
form ation
- >
p le
b y
f ore
Ġp aram
Ġse e
iv ed
Ġ u
Ġch ar
c a
Ġob tain
eqn array
Ġresult s
Ġm ethod
)$ .
vi ew
he s
r id
} }\
ri x
2 3
w here
ot t
$ $
Ġde p
Ġl ong
Ġm ed
Ġ$ (
} [
are d
Ġb el
in a
oot ball
l ed
Â ł
eps ilon
us ic
ab ility
P ro
o ber
Ġst art
ps i
Ġval ue
Ġan al
um n
s q
Ġp op
enc y
Ġn ow
Ġb ound
m e
) )
Ġl ike
Ġc ount
v ed
ĠA r
i qu
Ġs ince
Ġm ain
v ent
Ġde velop
Ġbe fore
v ers
Ġne ed
C h
Ġcont in
le y
ĠE ng
oh n
el s
Ġw rit
Ġkn own
Ġc ould
iv ing
an e
ak ing
iss ion
Ġ //
ĉĉ ĉĉ
Ġp resent
Ġrep resent
Ġf our
Ġme as
i or
C on
in clud
an c
} _{\
ce pt
ch n
O m
Ġe very
ĠO n
Ġlin ks
if ied
o le
Ġex pl
o id
Ġm ass
re l
n ot
ist ory
Ġe lect
. "
19 5
Ġsupp ort
ĠS he
Ġ ,
ag n
om en
Ġplay ers
Ġad d
th s
ĠA d
20 20
as k
le x
ĠĠ Ċ
iv es
m p
Ġpro cess
g ram
Ġj ust
ener gy
ĠM ar
ro p
Ġr ight
l ang
Om ega
en n
Ġor ig
f ul
Ġm ov
ĠI s
Ġs aid
Ġg u
k e
^ *
og raph
Ġcon dition
ĠB l
rib ution
Ġst ruct
sq rt
Ġm et
Ġim p
iv al
ĠF ig
)$ ,
e ad
Ġinclud ing
P h
Ġl arge
ri pt
ps ilon
Ġbec ause
Ġd r
G amma
un e
Ġ$ {\
re ad
Ġl ater
Ġdesc rib
g er
s k
Ġm ult
f ra
Ġr un
et work
Ġsp ace
ra w
resp ond
F or
ect or
Ġex per
Ex ternal
Ġprob lem
Ġ very
mb ol
I t
ĠP h
rib ut
Ġgener al
Ġb ased
Ġresp ect
ep end
' ,
ar n
ĠSt ates
Ġ @
Th is
Ġrec ord
Ġin cre
u ally
Ġob serv
a ction
Ġf ind
if t
b um
ĠCom m
Ġo wn
Ġp res
Ġwh at
Ġpos s
ĠP l
ar ri
os s
Ġloc al
v are
ĠE x
ĠC ount
ur ther
Ġev en
n ess
b m
2 7
: :
E R
vi ous
it al
right arrow
^{ (
Ġl im
Ġser ies
i ence
in c
l og
Ġt est
Ġchar act
vare psilon
text bf
o ad
sub section
ĠM ay
is ter
ro du
Ġv i
v en
Ġ `
Ġse ason
} =
r ation
ol ution
Ġagain st
m ed
}^ {\
a f
Ġo pen
Ġdes ign
2 6
2 8
Ġ rad
Ġsh ould
ub l
t il
ir d
Ġs chool
rang le
Ġdo es
Ġ\ ,
Ġ el
c er
raph ics
u ro
Ġto p
Ġas sum
201 8
im ens
" .
Ġd i
it ive
) =
.. .
um er
20 19
Ġo pt
Ġh and
Ġse ver
ith m
c o
ĠJ ohn
ag ue
Ġbu ild
ĠF ran
Ġ< /
Ġ energy
b l
Ġcor respond
Ġest abl
r and
ar m
at ch
Ġt ype
a i
ro l
ĠJ an
Ġl ist
Ġd en
A s
n on
er y
4 0
Ġcon tain
Ġre ce
m od
201 7
at eg
Ġal low
um ent
Ġs cal
et ers
c m
ĠN ational
Ġre al
ch i
ial ly
Ġd ue
.. /
cc ess
Ġth ose
Ġre st
201 6
id ed
C om
Ġpro f
Ġh ow
19 3
id es
S T
is ed
Ġst and
v es
1 00
ca ption
et y
Ġcomm un
Ġfam ily
Ġl ast
Ġf ootball
Ġt em
g or
Ġre m
b s
if y
il ar
ĠW orld
al th
ac es
Ġst at
Ġ čĊ
Ġ ident
Ġcall ed
includ eg
includeg raphics
Ġc al
re en
Ġre ma
ĠA ust
Ġest im
r ist
b old
rac k
l ess
t ing
Ġw ay
p or
O n
ur ch
Ġsing le
i um
2 9
201 0
Ġy our
e k
Ġal bum
201 5
Ġin it
is on
Ġmeas ure
Ġp ower
Ġd id
Ġm ake
tern ational
t ab
t r
Ġab ove
Ġcur rent
Ġb ro
b ack
Ġm y
at ely
ĠR e
Ġim port
ĠH owever
Ġf inal
I N
Ġpro pert
up er
Ġad dition
ĠC an
201 4
ĠA nd
overn ment
i j
var phi
ĠN ov
ĠC ar
Ġle vel
Ġre ad
l im
Ġle ft
eng th
Ġal ong
er o
ward s
Ġre fer
em ph
u ary
om et
il t
Ġn ear
Ġo cc
ian s
Ġint eg
Ġg ame
fra k
at ors
ge q
re m
. ~\
Ġa v
over line
Ġre port
ĠT e
ap er
Ġre f
201 3
a int
um b
ĠY ork
Ġhe l
Ġa round
' '
pos ition
w h
Ġb ir
d ay
Ġwith in
ĠA t
Ġp ass
os ed
Ġbec ame
Ġe lement
aj or
ĠW ar
in ess
m l
A R
ĠA ll
gor ithm
ĠS chool
ĠJ u
Ġin formation
a pt
le v
od y
Ġsever al
Ġpro ject
201 2
. }
ĠCount y
) ^
Ġp ar
s ide
ĠC ent
Ġs at
x im
& \
en e
Ġs um
ak es
Ġc are
f ace
ens ity
emb ers
Ġun til
ĠO r
Ġpro gram
i ous
Ġv ers
ĠG e
ess age
201 1
am pl
h t
Ġd own
B ig
ĠB rit
Ġare a
orm al
Ġg l
Ġc he
end ed
re g
pro of
Ġv is
ĠW h
i od
Ġl ife
ĠĠĠĠĠĠĠĠ Ġ
ĠA ug
ĠI f
Ġkn ow
y m
Ġval ues
e ed
am ed
ĠO ct
Ġm uch
s u
ĠM an
}, \
Ġw orld
b e
es c
us e
i am
Ġex ample
: //
O N
Ġt ri
pl ay
ord ing
ĠP r
Ġqu ant
ol l
ĠâĢ Ķ
Ġch ild
Ġc ap
ĠS outh
Ġ err
Ġan n
Ġn etwork
A T
Ġob ject
( );
Ġde ath
ref ore
pt ember
Ġto t
en se
Ġpartic ular
Ġst ill
Ġs ong
Ġl arg
) :
ific ation
} ).
Ġsh own
math frak
av ing
Ġor gan
Ġf re
Ġw in
st r
Ġcon n
Ġsp ect
Ġcomp ut
Ġapp ear
200 8
( "
ff ic
ve c
Ġg ra
Ġcon f
A l
Ġpro t
Ġpl ace
g g
Ġpol it
am ent
Ġdep end
g round
Ġfollow s
sy mbol
ens ure
ru ction
ĠA ss
in ation
Ġcontin u
Ġm ark
u le
Ġm usic
200 9
[ \
Ġ #
Ġs l
al k
Ġcharact er
Ġev ent
o ard
ĠR es
ef f
Ġd er
m ber
Ġte chn
Ġsim ilar
im ent
Ġhe ad
Ġbe h
ĠM arch
se e
Ġb as
mm et
ĠThe y
Ġl aw
lang le
ĠG erm
Ġm ap
C l
im al
t s
6 0
at ter
Ġre du
in ition
Ġmodel s
or ph
c ul
h line
Ġb ook
Ġd em
pr il
ĠJan uary
Ġs elf
epend ent
Ġoff ic
ĠĠĠĠĠĠĠĠĠĠĠĠĠĠĠĠ ĠĠĠĠĠĠĠĠĠĠĠĠĠĠĠĠ
Ġs ection
ĠP ol
w ith
col or
us iness
or ies
ĠAug ust
Ġd om
ĠSe ptember
ord s
Ġl ow
b ra
r um
Ġb est
l er
Ġt ake
d iv
Ġp at
' t
Ġdef ined
at ures
} }$
Ġh ig
L et
200 7
om an
S S
a im
ĠOct ober
bold symbol
uth or
com m
ĠG u
g es
n o
d is
c or
Ġstud y
Ġint rodu
yn am
amp ions
ĠI I
Ġpre vious
Ġin f
as ter
Ġb and
r is
ce mber
Ġdet erm
| -
n ew
l ish
A n
Ġterm s
Ġ et
ist ic
eta il
ld ots
ĠJ une
che s
b le
Ġle t
Ġp ost
Ġpoint s
ys is
L ambda
ore d
Ġp erson
du ct
Ġshow s
Ġass oci
n abl
20 21
Ġpos ition
a e
op er
ĠR ep
Ġc rit
Ġa ction
it er
app a
an ces
Ġhel p
ist or
ĉĉ ĉ
I D
le ar
200 6
b orn
id d
ĠJu ly
Ph i
op e
l ing
re am
Ġinter est
un g
mb ox
Ġs ize
le ge
ĠM in
Ġ >
Ġtot al
Ġpre d
T o
od es
ĠP ar
s elf
sp an
Ġfor mer
Ġhe re
ĠE uro
ur b
ĠA pril
ĠB e
it le
et ic
Ġe arly
Ġm ust
ĠAust ral
is f
Ġdisc uss
w w
Ġdist ribution
Ġh old
4 5
9 0
ot imes
ix ed
ot ential
ĠC ity
Ġwith out
s f
8 0
o or
d d
pl it
ĠC al
3 3
Ġ )
at s
Ġc our
or g
Ġad v
our n
th is
U n
ĠNov ember
nabl a
Ġn ext
Ġg ood
ex p
ĠT o
Ġstruct ure
Ġt rad
st it
Ġ _
---- ----
Ġsu ccess
ĠDe cember
ĠN orth
Ġsh ort
Ġd eg
k appa
Ġch o
Ġex ist
d e
ĠU S
ur s
ĠA rt
Ġb re
Ġper iod
er ing
ograph y
s m
Ġc ar
Ġplay ed
Ġcom b
Ġt yp
ĠC o
Ġw on
Ġen g
f ield
es p
ent ion
p aram
in o
ill ion
ĠSt ate
non umber
t rans
ĠR eg
iv ity
Ġp ubl
Ġdescrib ed
3 5
ress ion
pl ic
Ġrele ased
H e
al es
g in
se qu
R E
cite p
3 2
z e
op t
il it
Ġan other
m ult
Ġst ates
Ġstr ong
ĠY ou
. \
iqu e
Ġd el
Ġh ome
Ġth ough
** **
Ġcomp let
} )$
ĠF eb
Ġc ity
u x
ĠB y
ap e
ac ed
ir on
Ġme an
} ;
Ġm ajor
pl oy
a ult
h am
Ġa ff
Ġposs ible
ri es
i pp
Ġreg ion
Ġm ax
oc ial
th ough
} ),
Ġch ang
er ed
Ġa ver
ĠS ec
Ġc ou
Ġd ay
al t
Ġm embers
ru ary
ĠS y
Ġappro xim
Ġm agn
are nt
Ġinv est
st er
ĠF l
Ġl and
ĠW ill
Ġinclud e
os p
text it
ad d
20 00
t able
ĠEuro pe
S ee
ĠThe n
Ġle g
> </
Ġl ook
\ |
Ġt urn
s er
it her
sub set
Ġs k
olog ical
ud e
em pt
Ġ* /
Ġimport ant
ĠBrit ish
Ġv ol
Ġo ld
our ces
ic le
o ff
Ġcomp et
Ġd iv
19 0
Ġt imes
al f
ro ll
ĠCan ad
c irc
Ġprodu ct
us h
ĠA f
ang u
w ide
i ents
Ġph ot
iv ate
ĠP art
\ %
Ġal gorithm
ce ption
Ġobtain ed
t ime
Ġg overnment
pos ed
id ual
Ġcomp on
ap an
ĠThe re
Ġman ag
Ġthe ory
u k
m at
Ġw omen
Ġd ensity
Ġsat isf
200 5
lect ed
Ġf ull
il le
7 5
cl ass
l ation
Ġp otential
}} {
ĠK ing
ĠLe ague
Ġf ew
S igma
b it
Ġsign ific
ide o
um an
Ġvi ew
i i
Ġs ide
B y
Ġf urther
im um
ent ly
w ays
Ġa ut
Ġl a
Ġe as
ĠCh rist
P s
ampions hip
e ak
Ġph ys
b ox
ĠĠĠĠ ĠĠ
ĠM ed
Ġcomp any
Ġse qu
Ġcont rol
Ġar g
Ġo pp
ight s
Ġparam eters
Ġf r
ĠFeb ruary
ict ion
con t
il es
ĠE d
Ġe p
an a
Ġp aper
ĠA fter
ail able
p d
ĠN o
7 0
\ [
ensure math
arg et
Ġperform ance
Ġmat rix
../ ../
i us
Ġcomp lex
Ġbir ths
on y
wid et
Ġstand ard
ab les
al se
ĠL et
end s
Ġsol ution
Ġfunction s
Ġ q
cent ury
ĠR ec
3 1
Ġorig inal
l oc
cl us
200 4
ĠC or
ra ft
Ġequ ation
Ġinv ol
A S
Ġr ange
Ġf ree
ĠĠĠĠĠĠĠĠĠĠĠĠĠĠĠĠ ĠĠĠ
ra g
Ġtr ue
) (
ĠM c
Ġpop ulation
ren ch
Ġl ess
( '
Ġm ot
Ġpro m
un c
dot s
Ġ` `
N ame
Ġg raph
Ġre se
ut ions
widet ilde
O R
Ġim pro
Ġfilm s
Ġlim it
c it
lev ision
> <
Ġs it
n ame
Ġto wn
ĠH ar
st yle
Ġind ic
ĠB ar
Ġ ide
6 4
Ġc over
es e
d raw
Ġcare er
ord er
in ally
/ \
9 9
ht ml
u ation
h tt
Ġ- -
Ġd etail
Ġk ey
Ġg row
oc us
oun c
Ġk e
st and
it or
Ã ¡
A N
Ġconst ant
a ugh
A r
a ul
ĠW est
ĠThe se
ot es
h old
s l
Ġr ate
Ġanal ysis
Ġm ember
Ġfe ature
con st
ip le
S p
\ !
ĠS w
pr ime
u ck
ĠA rm
pp er
Ġrespect ively
Ġst ation
ĠD ist
ĠA b
b ut
Ġh y
Ġth ird
Ġto ok
if f
Ġre pl
Ġloc ated
ener al
Ġinit ial
Ġsystem s
T ype
Ġappro ach
Ġ vert
sc ript
ĠEng lish
t ype
âĢ ľ
on es
Ġn amed
Ġb usiness
Ġl ight
ampl es
A C
ĠM e
re w
Ġg ames
Ġch ange
Ġestabl ished
Ġhe ld
in ter
A L
A merican
Ġm om
Ġcorrespond ing
Ġf ive
Ġl ower
Ġconsider ed
Ġh ouse
{ -
Ġre d
n ow
Ġp air
Ġsignific ant
ran sp
F ig
3 4
ond on
Ġbe gan
s ource
. âĢĿ
Ġ enc
on se
Ġh istory
== ==
R e
r ary
ĠH is
ri ption
Ġle ast
i ef
Ġvers ion
al d
Ġw ant
con om
as ing
Ġj o
ed er
Ġcal cul
Ġapp lic
Ġam ong
Ġcl ub
E N
Ġc ross
Ġdif f
Ġspec ial
center ing
Ġs ay
ob al
ab ly
Ġcol l
ad em
Ġserv ice
Ġv ar
iv idual
and om
is ing
ĠE n
Ġav ailable
L ist
v iron
R es
d om
Ġof ten
Ġa ge
} -
Ġph ase
z eta
Ġrel ations
ac he
Ġs ix
le te
Ġcomm on
ur g
he ad
6 5
} +
c ap
Ġg reat
Ġc ases
our s
ĠJ apan
r ite
Ġvari ous
\ ]
w are
ĠS an
t d
Ġc y
ĠB ut
Ġw ater
200 3
Ġaver age
ma x
ĠA m
I d
ra p
Ġhig her
ĠS ch
Ġse par
Ġtra ining
im port
I f
n a
Ġtem per
com p
Ġrece ived
ĠAf ric
ch ie
Ġs uper
t op
Ġar ch
th m
Ġv ill
\ {
Ġc irc
ak en
Ġd imens
Ġp ath
Ġinclud ed
a ut
Ġcondition s
et t
Ġan t
Ġfe atures
Ġa ir
Ġst ar
) =\
Ġcons ist
ĠE l
Ġis s
Ġbu ilt
Ġb i
b r
Ġparam eter
re st
Ġprof ess
Ġs w
ĠE q
ĠO ne
Ġ( $
S h
in ary
ĠA ir
Ġro le
id ence
at ural
0 5
Ġf low
ire ction
Ġf ac
re et
Ġre cent
4 8
row n
Ġc er
Ġa uthor
om orph
tab ular
ĠThe orem
Ġw ar
Ġchild ren
ĠCom p
9 5
Ġpubl ished
Ġfre qu
ric k
al y
ab or
Ġst yle
âĢ Ķ
ĠH igh
ĠA pp
c ast
0 1
ial s
ĠR uss
Ġf ore
Ġp ri
ĠP ark
Ġn eg
Ġw id
Ġp ract
Ġ& =
ĠL ondon
m ost
arri ed
Ġatt ack
) }\
itt le
ure d
op h
Ġcl aim
ul a
Ġin c
Ġg e
i ber
L E
; \
3 6
Ġp ort
Ġed uc
f ord
Ġc ell
ly ing
I I
Ġh owever
m essage
Ġs em
Ġl og
Ġd at
Ġpro of
ĠD av
Ġc ost
iv en
Ġn ational
Ġwrit ten
Ġev ents
Ġse en
Ġprov ide
le g
ir t
s cal
Ġbec ome
Ġbl ack
ition s
ĠCol lege
Ġt itle
Ġline ar
200 2
} =\
Ġind ependent
St ring
l in
em ma
Ġm en
Ġl oss
3 8
ing ton
ounc il
I C
Ġh om
ĠL a
ĠM on
ic y
Ġl angu
Ġh aving
Ġl ay
ĠCh ar
Ġal ign
ut ure
Ġe ither
Ġs ource
Ġerr or
um e
} ]
op s
Ġin fl
Ġc amp
ĠS er
ĠA meric
Ġbel ow
Ġd on
ĠG l
Ġth us
Ġprodu ction
c os
Ġh ref
) ^{
Ġpr im
Ġpos itive
u pp
u ff
~ ~
wh ich
Ġspec ies
ĠP res
Ġsy mmet
ul es
ra in
200 1
Ġassoci ated
b ased
Ġmat ch
Ġbet ter
r r
ĠQ u
u ild
ch an
P l
ip s
{ (
ĠH er
Ġbuild ing
Ġab s
ĠH ouse
get her
Ġto gether
Ġe lection
i et
Ġind ividual
ret urn
A M
ĠWill iam
Ġqu est
Ġim age
Ġc r
c le
ĠF rench
ilit ary
3 7
Ġv ector
ĠW ith
ĠH am
o ch
fer ence
ann el
es tern
Ġfin ite
Ġf ocus
Ġt w
al ax
S E
ra ction
Ġd ynam
Ġr andom
g o
un ic
an ish
Ġme ans
Ġt ext
k ey
Ġan g
em s
o on
ĠB ro
ĠA ng
Ġcon c
C ol
Ġf und
Ġcount ry
oc ument
Ġb orn
Ġpl an
av y
Ġde v
Ġcent ury
Ġplay er
Ġmethod s
Ġrese arch
ot ed
ĠP er
ĠS ection
Ġsu gg
g l
$ )
I nd
Ġsugg est
du c
Ġgroup s
ĠW hen
Ġlin es
Ġserv ed
v ing
Ġv ia
ort s
og n
Ġac ross
Ġl ength
cdot s
is c
ac y
s in
V al
a ff
Ġpropert ies
Ġacc ount
Ġa chie
Ġg en
viron ment
Ġcor re
ec ess
Ġwork s
Ġ !
rid ge
r ant
h ib
Ġann oun
}\ ,
ĠC he
Ġe ar
4 4
Ġb o
Ġin put
ĠDist rict
ib ility
Ġbe com
Ġin s
Ġs ite
}^ \
Ġn umer
I T
ress ed
c y
e h
ord in
' )
read y
ge bra
Ġn ormal
ard s
wide hat
Ġf ail
}_ \
ĠA g
Ġa rm
B C
} |
Ġre view
Ġpro posed
ĠS ince
ur ation
Ġcommun ity
er a
Ġbeh av
Ġacc ess
ĠD ep
ĠIn ternational
il ities
p re
in n
q quad
Ġdevelop ment
ar a
it ect
ĠCh ampionship
b b
{ {\
Ġpr ivate
Ġs ent
s w
" )
Ġg ive
Ġreg ular
b or
Ġn ode
5 5
l o
Ġsur face
Ġ= >
Ġg round
ur ity
ĠA ct
A P
Ġt re
e al
. ~
Ġh ard
itt ed
ĠGerm an
c ode
Ġdist rict
ul ations
ig en
Ġmom ent
op y
ian ce
D E
ĠPh il
end ing
ind ow
val ue
Ġh alf
lem ma
Ġte levision
^ +
Ġm illion
Ġyou ng
ourn al
Ġl ik
Ġconst ruct
s ing
Ġc ult
if orn
3 9
Ġmult i
p oint
18 8
Ġb ase
Ġobserv ed
Ã ³
Ġpropert y
Ġt aken
Ġk ill
ĠS m
, -
}} (
r ig
& =
ĠM ich
Ġz ero
Ġcou pl
Ġth ink
Ġcl ose
}) \
Ġn ov
Ġm ater
ac hed
Ġro und
ly mp
att le
Ġrequ ire
ra int
Ġto o
ĠM ore
s ize
am a
Ps i
Ġn ull
Ġ ill
C O
Ġp ut
Ġv ideo
Ġc aus
f oot
Ġh ost
Ġdef ine
iforn ia
g en
oci ation
Ġfact or
Ġp ur
um p
ĠC up
Ġd ou
Ġsc he
Ġem ploy
u f
Ġst ring
Ġab le
Ġt arget
oci ety
Ġprodu ced
Ġwe ek
Ġst ory
Ġr at
Ġelement s
Ġne ver
Ġm er
Ġd ays
Ġal ways
Ġequ ival
ransp ort
ir m
ĠV al
Ġn orth
Ġinvest ig
Ġcomp ar
Ġel se
ar ies
# #
Ġrel ated
Ġs ocial
199 9
em ents
) ]
ol ic
Ġpro p
Ġd irection
S c
Ġquant um
Ġf ri
Ġe mb
Ġd ied
" /
m ark
or ge
Ġexp ected
Ġex ists
ar ning
Ġcl ust
ho od
av a
Ġinter action
n ode
Ġm aking
Ġsim ple
it ch
Ġpred ict
text width
Ġ\ {
om b
app ro
Ġl abel
ac hes
Ġcre ated
w ise
Ġal ready
id ing
c up
med i
ĠInd ian
math sf
ribut ions
r ated
ens ion
Ġexper iment
Ġrequ ired
4 9
Ġdef inition
Ġm iss
y l
Ġhe alth
Ġh uman
Ġs on
0 8
Ġoper ator
c her
ult s
land s
ĠâĢ ĺ
Ġf ig
ĠFig ure
Ġc ame
g roup
ĠD iv
I nt
Ġev al
Ġl ed
f o
Ġlarg er
sm all
ĠR iver
Ġf ar
d ata
nd er
ic ro
Ġun it
Ġeng ine
f unction
ce ed
}^{ (
Ġp o
4 7
ĠA c
ĠCal ifornia
u el
Ġprob ability
] ,
ĠS o
ĠEng land
av es
k n
Ã Ń
Ġdist ance
Ġm ight
20 22
Ġscal e
Ġdeg ree
199 0
Ġstart ed
Ġv oid
Ġl ate
h a
ir l
use um
I S
Ġf ixed
sk ip
Ġprov ided
ed d
d own
Ġanal y
g ed
iz ing
eff ic
Ġimp lement
ic ol
it z
p ect
her n
ic o
l or
min ist
ear ch
Ġestabl ish
ĠS im
Ġconst ruction
N ew
Ġreport ed
Ġbro ad
oun ter
Ġl o
6 6
c is
( {\
ĠF irst
i res
ul ated
ĠAustral ia
ut es
}\ \
bs ite
l ike
ot a
Ġex act
ĠT r
Ġsequ ence
Ġtemper ature
on ic
199 8
ind ent
Ã ¼
ĠC O
Ġvill age
Ġim pl
Ġof fer
ust om
Ġsp in
âĢ ¦
ell ow
Ġf alse
Ġserv ices
Ġ$ (\
9 8
Ġg alax
a el
Ġs outh
"/ >
and er
Ġcl os
Ġset t
Ġp ress
Ġex ec
oy al
Ġfield s
Ġact iv
Ġacc ording
Ġ= =
at rix
Ġaddition al
idd le
v an
Ġag re
ĠInd ia
ĠM y
m ary
il i
m ar
Ġind ust
Ġs om
pro p
Ġp erm
Ġle arning
Ġa way
Ġh istor
in ated
ĠF rom
Ġcer tain
ĠRep ublic
ĠĠĠĠĠĠĠĠ ĠĠĠĠĠ
0 4
Ġwh ose
0 7
Ġstud ents
ĠL emma
, âĢĿ
Ġapp l
| |
Ġc ut
iv il
Ġf uture
0 6
it ing
ou d
ist ics
Ġcontain s
ect ions
Ġback ground
ari ant
ĠE ast
qu are
Ġassum e
at ives
Ġwork ing
ĠPart y
Ġpartic ip
E S
A t
itt ing
Ġw ent
Ġh app
W ith
Ġgiv es
k en
st ate
ast ic
P eople
d imens
rac y
Ġt rack
trans lation
L iving
9 7
Ġ& &
c ell
n ey
equ iv
ĠD r
pd f
m ore
Ġn atural
Ġbe gin
Ġf em
ĠM ark
m on
ill s
Ġgo ing
Ġs old
ap s
l oad
erv ice
L e
ĠAmeric a
sh ip
Ġen ough
ta ct
Ġequ ations
Ġmov ed
) -
Ġbel ie
m id
} :
cc ording
0 2
oper at
ĠPres ident
ĠB er
ĠTh us
9 6
Ġr ather
Ġme et
Ġf ather
Ġst ep
Ġcomp os
Ġbound ary
Ġm em
Ġre ason
Ġcent ral
Ġe conom
Ġn ecess
199 6
Ġs ens
ic les
qu e
ĠC our
o e
st ar
Ġannoun ced
} +\
Ġb en
Ġdi ag
k ing
Ġperform ed
The re
, "
and id
Ġt reat
Ġother s
Ġb ody
ĠSt ud
b and
st ring
Ġ& \
n ers
operat orn
ĠB el
m y
Ġd est
ĠP ort
Ġinfl u
}} {\
ĠA nt
E C
Ġlangu age
Ġme chan
operatorn ame
ber g
ĉ Ċ
D e
y ear
O b
Ġeffect s
h space
Ġp an
cit et
Ġdevelop ed
] $
Ġon ce
ĠH ol
A A
Ġep is
Ġ- \
Ġthe refore
Ġcor rel
Ġf il
Ġne igh
e in
if orm
Ġdom ain
ell ing
Ġatt empt
| ^
Ġpop ular
Ġcl osed
199 7
Ġ Â
Ġt ry
H istory
Ġwe ight
ic a
4 6
ĠA ward
ber t
Ġinst ead
k y
Ġm ale
Ġl iter
Ġspec ific
n ote
A fter
_ _
Ġal most
Ġmark et
at ory
Ġexp ect
ic ult
0 3
g ress
Ġlead ing
v ille
Ġpolit ical
ĠCh urch
Ġc ode
Ġmult iple
Ġb ig
Ġcon text
ĠC ouncil
Ġdeath s
Ġin ternational
Ġc le
C C
ma p
Ġr ank
Ġcon duct
Ġs ample
ĠEurope an
Ġche ck
ĠCanad a
Ġpresent ed
A ll
al le
stit ute
ĠP aul
r im
Ġent ire
} -\
o oth
Ġ id
ign ed
ĠD i
ĠC ont
Ġintrodu ced
A d
Ġcomp an
x space
' $
E D
el oc
Ġbre ak
Ġed ge
Ġa ward
Ġcomp lete
ain ed
it te
at ively
F rom
Ġh or
n eq
Ġden ote
Ġst re
d ag
y ing
c hed
ott om
end er
re c
f rom
M od
y a
ed ge
Ġg as
ĠM or
// //
Ġwhe ther
il ton
all s
no indent
Ġind ex
Ġare as
ort hern
u ra
Ġbl ock
S e
kn own
Ġp ay
Ġc ateg
ĠD em
ĠR ed
199 5
Ġcomp ared
ĠSt reet
Ġdat as
18 7
ari o
ĠS en
ĠFran ce
ĠO lymp
Ġp ast
ec k
ĠI m
s el
ĠJ ames
Ġset s
198 0
Ġbas is
\ ,\
on al
0 9
Ġst ars
ro te
Ġeffect ive
o res
ur rent
id s
ĠR ober
ens ive
f ill
oc r
art ment
umb ers
ran ch
ĠP al
ĠM al
it ar
ĠG eneral
om s
t est
i ew
Ġcom e
umer ate
I m
Ġd one
he l
ree k
Ġc lear
sc r
R O
Ġvi ol
C ont
ĠTh om
Ġ %
Ġcan not
Ġmet ric
Ġarch itect
Ġrec ogn
L L
rib ute
t ic
ĠL aw
ĠArm y
Ġt aking
ut il
W h
Ġhold s
Ġar r
Ġocc ur
dimens ional
R ec
Ġunder stand
ar ily
m ing
Ġg rad
ve y
oun tain
) }{
it ude
ĠM od
the orem
6 8
Ġconst raint
Ġwork ed
Ġresp onse
ĠL ist
ĠBl ack
( -
Ġchang es
Ġcon fig
i ers
Ġs up
led ge
ĠDav id
S ince
Ġsol utions
Ġl ittle
Ġup d
ou l
6 7
h an
Ġpr inc
ĠTh at
ĠR ich
r d
ri ate
Ġeff ic
Ġso ft
en umerate
Ġcont ent
ĠN e
$ }
ul ly
Ġstr ateg
Ġco ordin
it es
Ġen vironment
th at
ag o
Ġke ep
scal e
Ġsub ject
Ġpres ident
Ġm id
D ef
Ġs ays
ther n
Ġcent er
Ġl ive
Ġv eloc
5 00
ac c
Ġro ad
oc al
ĠĠĠĠ Ċ
ĠCent er
Ġtrans form
G e
iz es
a ign
Ġinclud es
5 7
ĠP at
ĠG o
ct or
Ġcol or
Ġpri or
( $
Ġcol lection
5 8
en ed
) }$
D ata
199 4
ag ed
Ġout put
wo od
is k
4 2
ĠG roup
ĠQ ue
item ize
Ġcre ate
Ġfl u
Ġequ al
ĠR ef
b ook
ĠCh ina
ĠS um
Ġcont ract
a ur
s up
Ġle arn
r ast
Ġm ag
ribut ed
Ġtrans fer
Ġimpl ies
Ġfr ont
Ġc apt
] \
im ate
Ġ Ã
ip al
Ġgl obal
ĠB ra
omorph ism
Ġwe bsite
Ġus er
Ġstud ies
Ġ ver
Ġincre ase
ĠR oman
t y
Ġde but
ou thern
l ist
Ġnot e
l a
id a
as ons
Q u
Ġ _{
Ġadd ed
ww w
ĠGe orge
p ol
Ġs ound
ĠT ra
] .
Ġst age
Ġw ords
Ġal gebra
Ġrequ est
) {
an i
Ġco effic
d en
e le
Ġdem on
Ġh on
ict ure
Ġreturn ed
ĠD ef
Ġl ost
Ġrest rict
Ġf ram
Ġpro ve
Ġcompon ent
vers e
ch ange
Ġsuccess ful
op l
ĠAss ociation
Ġwe ak
ish ing
Ġh tt
as c
P S
ĠH all
ut ive
v space
ort un
ew ork
al ian
Ã ¶
Ġc andid
Ġprov ides
ib rary
Ġapp oint
Ġdiffer ence
E T
ĠD on
Ġm akes
Ġ: =
Ġdiff icult
. )
C D
c ing
Ġpolit ic
"> <
I M
Ġro t
ĠE m
Ġim ages
S et
ash ington
Ġm ilitary
b ound
Ġrepresent ation
Ġinst ance
im ents
in i
ro id
b re
Ġ rac
Ġtrans ition
Ġrele ase
Ġw rote
Ġmed ia
ĠT V
Ġtrad ition
199 2
sp ec
ag er
f ile
Ġgener ated
Ġam ount
B l
Ġcompon ents
ri an
Ġcon v
Ġnov el
Ġpart y
e an
**** ****
n ce
Ġrel ation
op p
Ġphys ical
Ġresp ons
Ġch all
Ġproblem s
Ġrad io
Ġ( )
un n
Ġmat ter
k ed
Ġgo al
Ġcol umn
A D
Ġw ave
Ġmagn etic
ĠDiv ision
}} _
li er
Ġal though
ĠĠĠĠĠĠĠĠĠĠĠĠĠĠĠĠ ĠĠĠĠĠĠĠ
Ġdirect ly
du ction
Ġopt im
Ġra il
g color
th ing
m it
k a
ĠR oyal
in st
}} }
Ġcour se
ĠIn ter
is es
Ġu pper
Ġreg ard
Ġcon ver
ect ors
Ġy ield
ffic ient
mult icol
ĠG reen
& &
O S
4 3
ur l
and s
u z
Com p
Ġmax imum
ĠDep artment
i os
U S
Ġre v
Ġt akes
au ge
Ġd ocument
ĠB ay
ĠB r
in ite
os en
multicol umn
Ġun ique
ĠU K
under line
ad es
Ġp arent
Ġgra du
ĠL ou
Ġbecom es
ra b
Ġev olution
e ared
appro x
Ġelect ron
Ġsign al
ref er
Ġ und
Ġde cl
Ġval id
Ġsmall er
199 3
itte e
Ġw rite
Ġac cept
Ġst atic
ĠCour t
at al
Ġ\ |
ous ly
Ġ Ð
u ed
Ġm arried
p ly
Ġpart s
math scr
Ġad j
Ġjo ined
ĠC ons
Ġrelations hip
-------- --------
ĠM art
4 1
Ġthe orem
197 0
t ra
Ġquest ion
8 8
ĠI nt
Ġsu ff
n b
Ġeduc ation
htt p
clus ion
Ġt able
ĠGerm any
r ate
Ġg ot
ĠUn ion
ĠThe refore
A nd
Ġre ally
Ġdirect or
um ents
Ġmon ths
ens or
c ial
Val ue
Ġn uc
Ġteam s
ĠD o
ĠAustral ian
b oard
N N
F F
Ġde al
Ġb gcolor
ess ion
\ }$
O T
Ġsc en
Ġdef e
Ġprofess ional
d ist
ist ry
le vel
all ed
^ -
Ġappl ied
Ġspect rum
Ġincre asing
us ed
Ġne ut
" );
d t
Ġn umbers
Ġ row
esp ec
T e
Ġcompan ies
l ight
Ġk ind
m s
Ġits elf
) +
Ġse arch
ar ing
ĠO b
eder al
A B
p ret
Ġp ers
Ġqu al
un t
Ġs af
Ġf av
Ġt en
enc ies
ĠWh ile
Ġp eak
am s
ach ing
ĠM usic
l ong
Ġm ention
ĠD uring
espec ially
Ġfor ce
Ġestim ate
5 6
P i
Ġwh ite
Ġs ources
Ġp e
re y
ĠR oad
g ing
p ath
pp ed
eth ing
ĠSy stem
Ġimp act
Ġrem ov
Ġopen ed
ines e
Ġa ud
Ġde cre
port s
ang le
199 1
Ġlarg est
at form
c an
Ġform ed
ĠB o
M S
n orm
ĠN or
N ot
a it
i ation
Ġset ting
k er
s plit
Ġdesign ed
Ġ\ ;
ĠIn stitute
Ġv ict
dis play
A pp
ĠW ashington
Ġvari ables
I s
Ġe igen
Ġ ess
Ġo p
ĠM ary
st on
a res
Ġcrit ical
Ġcontinu ed
Ġk m
Ġdisc over
Ġadd ress
er ve
Ġcomplet ed
ans ion
E n
M an
Ġdetail s
Ġdirect ed
Ġtyp es
Ġch annel
ĠC ap
ĠComp any
ok e
Ġus ually
Ġsong s
ĠJ ack
Ġstud ied
ĠS ing
g ence
] ;
Ġoff ice
ĠN ot
n es
line ar
Ġrat io
ask et
ĠRober t
Ġp ack
Ġcho ice
Ġus es
ĠAc adem
Ġup on
text rm
Ġwid th
Ġst e
alle l
Ġb ox
Ġre ve
The n
ro y
du ced
ic it
ĠT able
Ġsp eed
] [
Ġpol icy
w rit
Ġass ist
Ġch urch
Ġm ove
Ġb ar
Ġf ile
Ġd augh
ĠV ir
Ġallow s
on ent
~ $
an ks
on a
Ġre n
at us
Ġfollow ed
9 3
o o
in it
}^{ -
ĠCl ub
Ġac qu
ot ic
Ġdeterm ined
umn i
Ġrecord ed
ĠV ol
Ġde part
Ġequival ent
Ġbehav ior
Ġmod ern
Ġge omet
Ġbro ther
Ġact ive
ag ing
us ion
8 5
Ġconn ected
Ġf ire
re qu
Ġdemon str
Ġinvol ved
Ġveloc ity
9 4
S P
he st
est ival
al a
ar ter
Ġp aint
c el
à ¤
Ġt ask
h i
ĠP ress
ĠM ex
Ġout side
9 2
htt ps
7 7
The ta
ĠS ociety
Ġra ce
Ġm other
is ions
h y
Ġloc ation
ed y
L A
ing u
Ġfrequ ency
ĠAr ch
yn om
Ġthrough out
is ation
ĠB est
Ġm ix
Ġun ivers
ĠH en
Ġex hib
Ġlik ely
Ġon line
Ġeval u
Ġj ob
d s
Ġreg ions
rr or
enc ed
l ength
ran ge
ov ers
W hen
ain s
Ġhim self
b urg
T R
Ġn ight
Ġf it
{ }
ĠM et
ind ex
i ences
oc ks
St ate
ad a
Ġ especially
ac her
Ġc ustom
ĠPro v
Ġst ri
osp ital
ĠN ote
Ġd raw
comm and
el ine
O ne
og le
Ġal tern
Ġcamp aign
Ġstruct ures
Ġcorre ct
Ġ/ **
ĠIs land
ĠNew s
aus s
Ġexper ience
ĠT own
ĠAng el
< \
Ġclass ical
un ch
ĠL eg
emb ly
Ġobject s
ru le
pl ace
Ġl ove
I R
in ct
e es
Ġwho le
} /
Ġsub sequ
ri a
Ġw ife
Ġad minist
198 9
Ġe ver
Ġad apt
w ell
Ġrema ins
}} _{
Ġf ight
Ġdimens ion
ens us
iz ations
Ġsh ift
x y
Ġin sp
ric es
Ġpat tern
Ġse lected
mod el
Ġto wards
b our
ant ic
li ament
ĠS am
o z
Ġsupport ed
Ġill ust
g s
Ġc ast
ĠE ar
big g
l n
Ġallow ed
* {
ad o
k i
Ġnew s
Ex ception
N ote
Ob ject
Ġl iving
Ġoper ators
Ġplay ing
_ +
o ice
ĠA lex
Ġoffic ial
M A
.. ..
Cl ass
Ġpro ced
Ġapp eared
Ġtra vel
Ġro b
ĠB ook
ĠM at
Ġun its
Ġrel ative
ect s
ĠG ames
ol s
ac ing
ac ity
Ġcon clud
il ies
Ġe ight
196 0
Ġ ir
Ġder iv
Ġcurrent ly
p x
C T
if old
I ON
st ruct
or ing
Ġexp ression
h and
Ġsign ed
Ġs il
ĠG old
L O
Ġright s
) );
n s
ĠY ear
foot note
ĠR ev
^{ -\
Ġor d
Ġ$\ {
Ġs ense
ĠS ub
ĠC ong
Ġt er
ĠCanad ian
Ġch arg
Ġim medi
le ase
5 2
Ġb oard
un k
ol ar
t ical
Ġiss ues
en a
ĠCl ass
in os
Ġd ig
Ġg auge
Ġresult ing
ĠM ad
Ġiss ue
ol f
d ro
d i
dag ger
ĠSc ience
5 1
ĠAfric a
ĠAfric an
Ġch arge
Ġ$ |
ĠWh ite
ric e
Ġneed ed
ĠM iss
ĠKing dom
} '
Ġs us
ĠR ad
ĠSc ott
Ġpre c
Ġy et
ĠMich ael
ĠS l
ers ion
pro d
Ġt ransport
M C
ĠM a
Ġro ck
Ġf ace
en ing
T est
ĠO ff
198 8
Ġmater ial
ĠT ex
ar p
ĠO ur
ĠCent ral
Ġprevious ly
Ġschool s
nb sp
Ġno ise
ri ef
Ġprim ary
5 4
Ġg ave
ĠC ath
b o
ĠS ur
ann ing
ta int
Ġbeh ind
Ġde ep
S y
Ġd am
min us
Ġw ord
Ġcommun ic
ĠM ont
Ġsu fficient
Ġth ings
ify ing
Ġacc om
Ġf all
ĠD ay
Ġcon cept
r ish
F A
9 1
k et
it a
Ġh ous
ub e
{ $
Ġdou ble
ĠG reat
Ġconst it
Ġfe el
pert y
Ġsim ply
Ġun cer
ĠT rans
ab s
b ody
ĠM ag
Ġe mer
ĠT ur
ĠD irect
Ġass ert
Ġt ro
Ġsm ooth
anc ial
Ġad m
Ġrun ning
pt ions
Ġsom ething
Ġun iform
G et
) {\
Ġfl ux
Ġinteg ral
ĠM useum
ĠH ow
ĠThom as
k m
Ġa x
Ġoper ations
ĠW il
err or
asket ball
es ign
el i
Ġl atter
ĠĠĠ Ċ
ĠM er
Ġcour t
r c
ĠSt ring
am ily
\ }
E E
Ġdec ision
K ey
ĠG rand
ĠHam ilton
loc ation
Ġor g
Ġd ark
Ġn om
ĠRes earch
Ġim m
ĠM ac
F ilm
Ġstre ng
ĠS al
ĠS ome
I G
O r
}} ,
Ġthough t
subset eq
U T
Ġlong er
ĠM r
ĠJapan ese
at ur
ĠJ ust
ough t
ĠW ork
Ġide a
et her
g rad
id ents
Ġd ate
Ġt rac
ĠSp ec
P ol
opl us
P r
Ġlim ited
Ġper cent
M L
Ġm ar
Ġalbum s
ĠF ilm
Ġlevel s
Ġj ud
Ġf ood
V ert
w edge
Ġad opt
Ġ( $\
Ġredu ced
Ġt ree
duc ation
Ġrepresent ed
198 7
5 3
Ġindust ry
ict or
att ice
Ġbir th
Ġfor ces
Ġm ach
C H
Ġneg ative
Ġperson al
ollow ing
Ġmod e
Ġnecess ary
Ġcontinu ous
Ġact ually
Ġs eg
text tt
7 8
ĠRuss ian
6 3
Ġp age
Ġin equ
Ġcom es
ĠT om
Ġfound ed
re ater
overn or
\ '
Ġl ot
ay er
S ec
ĠCh inese
ĠAcadem y
Ġhy per
Ġd ed
Ġhe nce
Ġ// /
Ġd ram
in f
Ġsur v
F orm
Ġ$ -
el t
Ġpol ynom
d ec
uf act
ro s
Ġcount ries
Ġobserv ations
Ð ¾
Ġv eh
_{ {\
u racy
Ġapplic ation
Ġcon tact
Ġto ur
Ġqu ality
sh ift
Ġev idence
Ġto day
ag s
Ġn ames
w est
Ġben ef
Ġe ast
Ġ! =
v ant
Ġbook s
Ġext ended
az ine
ĠH ere
Ġh ot
Ġexp ress
ar r
Ġsymmet ry
ĠJ ew
Ġpol ice
Ġknow ledge
cre te
Ġpres ence
Ġelect ed
ĠRec ords
Ġdis play
Ġgener ally
_{ (
5 9
Ġcomm and
sel ves
ĠH istor
Ġfri end
an o
ĠIt alian
Ġgra v
) |
Ġin j
Ġaut om
Ġst aff
d et
A ss
Ġar ray
Ġt ax
is her
os ing
il s
Ġdiscuss ed
Ġapp ly
Ġwh y
Ġw est
Ġfig ure
ec ause
Ġb all
ĠB en
Ġpl aces
ĠG od
Ð °
Ġinter pret
ĠSt e
Ġder ived
lim its
Ġrepl aced
ĠF re
th let
i ra
Ġexpl icit
ĠHe alth
omet imes
Ġbound ed
Ġit er
Ġvari able
ĠChrist ian
Ġle ague
Ġcomp act
Ġsh all
Ġpract ice
ul let
Ġlead ers
y r
U R
Ġover all
ĠTe chn
Ġepis ode
ĠR ail
Ġdiag ram
ĠW estern
" ;
it ter
as hed
Ġm us
Ã ¤
ĠZ eal
Ġh ol
ell ar
Ġbel ong
Ġvol ume
t urb
ĠF ound
Ġst ated
Ġappoint ed
00 00
Ġcur ve
Ġr ule
air s
ĠCar ol
f ess
Ġmain tain
6 2
Ġdaugh ter
Ġse ven
Ġmon ey
Ġch osen
Ġart icle
ĠTex as
Ġent er
Ġcharact ers
ell s
ĠO ther
198 6
ĠLou is
Ġgalax ies
l ink
re land
Ġl at
Ġin side
Ġoper ation
Ġear lier
f r
ĠVir gin
Ġmot ion
Ġappear s
O ver
ĠZeal and
Ġstart ing
y e
set minus
E ng
ri al
Ġst ra
Ġsche me
ĠD an
Ġproduct s
ĠS uper
" :
Ġmon th
Ġrefer ence
Ġclass es
re me
Ġgu itar
ĠS aint
z a
Ġexp ansion
Ġneed s
Ġlead s
V iew
w in
Ġ }\
r as
198 4
Ġsc atter
ĠO ut
ĠDem ocr
Ġj ournal
Ġs ex
Ġthe rm
P T
Ġp ark
Ġav oid
ĠChar les
Ġlist ed
v is
Ġ( -
line width
V ID
} %
ĠMin ister
ĠT or
Ġgrow th
in y
= #
Ġs aw
Ġexp and
Ġ$ [
Ġform s
$ _
Ġfor ward
Ġpartic les
ĠSum mer
at re
p ose
ĠL and
Ġcons ists
Ġmechan ism
om a
m es
w ar
ĠD el
Ġth row
Ġpartic le
f ect
Ġem ission
p c
)\ ,
Ġa im
Ġwrit ing
irc raft
ĠP o
b on
Ġorig in
ĠK ore
b t
Ġn ature
6 1
Ġh yp
S C
ĠL at
Ġapproxim ation
( ).
198 5
Ġtra in
Ġfootball ers
Ġform ula
_ *
iqu es
Ġmap s
Ġ er
D F
g ent
Ġsc ore
ĠG ra
==== ====
Ġconc ern
i h
ul s
Ġs low
u it
al o
ĠR ob
ĠFl or
T r
ĠF ore
f low
ĠSec ond
Ġrel ig
Ġapproxim ately
Ġdel iver
8 7
Ġinst it
P C
os m
` `
rop y
), \
Ġl ack
N o
Ġhig hest
Ġpress ure
Ġfem ale
S U
Ġform ation
ĠM us
oll ary
rough t
Ġrun s
Ġco ach
ĠĠĠĠĠĠĠĠ ĠĠ
Ġdynam ics
u i
Ġb ur
ĠF ootball
Ġfram ework
Ġexper iments
Ġincre ased
Ġs amples
ĠP ublic
p ng
Ġh ours
ind er
Ġcont ribution
Ġf raction
Ġal umni
b ur
Ġst ations
ĠĠĠĠĠĠĠĠ ĠĠĠĠ
Ġsc reen
ĠFran cis
Ġlay er
ĠE v
E qu
d r
Ġper turb
Ġocc up
Ġqu ick
ĠB ill
em ic
ef ul
F L
Ġevent ually
Ġmoment um
sum mary
ot o
Ġestim ated
ro ad
ma in
vent ion
ĠJ ose
ĠSm ith
ing er
ĠN ow
erm an
Ġdatas et
6 9
irt ual
Ġw ide
() );
,\ ,
_{ -
E rror
Ġre ached
def inition
Ġar bit
Ġvert ex
u a
cl es
R eg
Ġcoupl ing
ĠP eter
app ing
Ġcol lect
ĠS upp
Ġc red
iv ial
F C
Ġbuild ings
ri z
il arly
Ġpl ane
ĠPro position
is l
Ġpl atform
er ia
Ġche m
T E
Ġn odes
align ed
as ks
Ġn orm
Ġmeasure d
Ġf ill
ĠM el
P R
ĠL ake
Ġr ules
Ġmin imum
Ġsub set
Ġpl ant
Ġex cept
Ġ ens
est s
Ġbl ue
Ġcon sequ
ĠD is
Ġcont roll
Ġf ully
Ġpan el
Ġs en
Ġsy mbol
Ġkill ed
ĠRich ard
Ġnetwork s
Ġrec over
it ors
art s
ir al
Ġatt ention
Ġpol ar
ell a
S O
Ġtechn ology
Ġmiss ing
as tern
ar ian
ĠA ccording
198 3
Ġart ists
Ġeas ily
Ġw indow
Ġan im
Ġcontin ue
con n
ĠS ervice
che ck
Ġfam ilies
Ġc am
ĠOlymp ics
esc ription
ĠD ec
Ġreve al
B ut
Ġneigh bor
ol a
Ġt it
Ġsc ient
) }(
Ġg old
Ġemb edd
ĠH ill
ef ore
Ġrecent ly
ĠH istory
Ġmean ing
Ġorig inally
Ġcon sum
ic ago
Ġnumer ical
N ow
i pl
ĠF urther
st ant
it able
ar c
Ġsh ip
Ġ| \
el er
T ime
Ġchang ed
Ġcompar ison
Ġmanag ement
b a
res ents
bl ack
ch o
ann ed
B S
Ġc ivil
Ġc ounter
Ġb ring
S im
ĠPar is
Ġopt imal
Ġfin ished
auss ian
B A
d o
sub figure
Ġ\ (
Ġread ing
Ġsl ight
uth ors
Ġpro per
Ġcho ose
ĠM ass
Ġuncer taint
r at
Ġpl aced
ĠComm un
Ġtreat ment
Ġus ers
Ġant i
Ġg irl
anc y
z il
ĠR ock
F irst
Ġdeterm ine
Ġso on
ou ri
ĠFran k
Ġvari ety
ob ile
ag ement
ĠComm ission
c ome
S ub
ĠCath olic
Ġfour th
Ġrema ining
Ġinterest ing
Ġ+ \
Ġh it
Ġbegin ning
Y ou
Ġsh are
p id
Ġclust er
) /
us ing
in v
+ +
198 2
ĠAn n
et te
s ol
' \
H ere
ĠC amp
ur t
ent al
ren ce
Ġtrans l
por ary
Ġsol id
Ð µ
b i
Ġdescrib e
Ġqu ite
Ġsp at
Ġident ity
c ase
Ġf un
v ement
ĠL os
. _
Ġprodu ce
in em
Ġs quare
3 00
c ond
Ġb r
Ġsim ulations
col on
Ġsh ape
Ġex amples
Ġm unic
Ġstat us
Ġprocess es
Ġse lection
19 50
Ġagre ement
T V
ĠSp anish
Ġam plit
Ġcons erv
m ission
Ġpr int
inal s
Ġhe ight
= (
ect ive
ĠB rown
ĠD en
ĠIs ra
Ġnot ed
is hes
Ġdec ay
Ġacc uracy
Ġrad ius
ĠV ictor
M P
ĠAl though
Ġapplic ations
Ġro om
ction s
end ix
Ġess ential
ap ter
ig an
Ġdesc ription
Ġcap ital
Ġse lect
Ġcont rast
Ġfact ors
Ġfe ed
ĠO f
in ant
p an
Ġeas y
IN G
Ġcom mer
ĠD u
' );
Ġto urn
Ġsim pl
Ġd ual
ĠH ence
ĠI reland
Ġf ast
' _
G L
ĠP an
ĠC D
}} (\
Ġparticular ly
Ġin cor
Ġp en
ĠT wo
al i
and a
st ack
Ġsatisf ies
N et
Ġst ream
Ġon es
O ur
ir ing
m en
re es
Ġexperiment al
R equ
ol k
ma il
= -
Ġm icro
d eg
ĠT er
197 9
ic on
Ġr isk
H owever
Ġd u
Ġopp os
Ġconn ection
Ġpre m
Ġp urch
Ġelect ric
en ge
Ġsc ience
ug g
Ġliter ature
ĠW hat
S he
Ġspect ral
Ġtradition al
E q
m et
ĠIt s
Ġrequ ires
ĠW omen
ĠB re
es h
Ġconsist ent
ĠO ffic
n el
if ier
Ġto ld
Ġprof ile
vers ion
ie ce
ĠU nder
Ġ ?
Ġdec ided
Ġhigh ly
res hold
Ġsit uation
Ġmin im
u ge
Ġ&= &
ill a
Ġcult ure
ish op
pr int
Ġman ufact
M ore
con s
Ġrep resents
ĠB ur
l am
a o
Ġcompet ition
ot ion
ĠF in
g ra
Ġcalcul ated
ock ey
ĠP e
p ublic
Ġmed al
Ġv oc
Ġwrit er
Ġart ist
Ġhe avy
Ġc op
ĠP enn
Ġl attice
\ "
Ġident ified
Ġob ser
Ġus eful
b an
r ich
ist an
Ġw alk
Ġc ele
S er
198 1
ĠG overnment
av al
Ġcorrespond s
8 6
ut ch
) _{
rodu ction
Ġexist ence
Ġb rought
ect ing
Ġc ore
Ġsec urity
ĠT w
H E
m ann
7 2
rum p
Ġ ...
ĠL ie
per p
Ġchall eng
Ġmem ory
n et
}$ -
Ġcom ment
Ġrema ined
Ġmention ed
a ud
Ġtrad e
Ġan sw
Ġcaus ed
8 9
Ġmeasure ments
Ġvert ices
Ġ ult
l t
for all
ĠG r
Ġplay s
Ġb it
E nd
Ġw ind
Ġfr ame
Ġmov ement
sim eq
Ä ģ
O f
ĠFor ce
i en
N A
ak er
Ġcateg ory
Ġsp aces
an ced
velop ment
) ^{-
ym pt
Ġopp ortun
Ex p
p ack
Ġconstraint s
ĠS k
w ord
in put
Ġdis e
) ^{\
Ġt alk
ed om
ĠP ri
F T
Ġcon cent
: \
ĠFlor ida
E vent
se ud
Ġthem selves
Ġ ~
Ġp ick
ib ly
C o
sk i
Ġw oman
v a
p resent
Ġarg ument
Ġstat ement
I L
ud d
W hat
in ity
m as
Ġproced ure
ĠSt ar
( ),
ĠF e
g u
F urther
we ight
ĠHen ry
$ (
Ġconstruct ed
sub subsection
ĠR em
Ġse em
Ġexist ing
Ġin n
Ġst ay
y mmet
b in
ole an
Ġb ank
Ġt im
Ġg un
Ġed ges
Ġhouse hold
Ġr ates
Ġre ach
i ency
ĠGe org
Ġint ers
Ġscal ar
ult ure
T able
Ġsignificant ly
Ġsy n
Ġfeature d
Ð ¸
Ġcrit ic
Ġre pe
I V
i ro
197 6
ĠAt l
\! \!
= {
Ġres olution
ĠC ast
7 6
Ġsec ret
A G
Ġ( "
ĠVirgin ia
al g
ĠComm ittee
Ġstra ight
O ut
P E
ĠO ver
Ġm ole
Ġg rant
ĠCong ress
z ero
Ġassum ption
197 8
e ks
C an
hes is
n ormal
ĠArt s
Ġcol lege
Ġs ch
B uild
Ġa ircraft
Ġan c
ail y
ĠCh icago
A b
Ġb al
ĠMore over
j s
Ġsoft ware
Ġex am
Ġsur round
tr ue
t em
Ġb rief
Ġfin ally
Ġlead er
ĉĉĉĉ ĉ
Ġb ad
Ġ esc
Ġcomplet ely
Ġmin or
In ter
Ġmed ical
ĠO l
Ġs ometimes
Ġexact ly
Ġmin utes
c ases
Ġext ra
ĠA re
Ġg rand
197 2
et urn
ark s
8 4
Ġst eps
N S
ar ant
E d
Ġcorrel ation
ĠS un
ĠAngel es
ir us
Ġext ension
197 4
Ġbas ic
ĠSer ies
re al
Ġc ause
Ġaward ed
Ġcomp ute
Ġv an
ĠO per
Ġinequ ality
Ġrele vant
on om
oc ol
Ġj oint
ul ate
Ġcoeffic ients
Ġcoll abor
ern el
ĠIn c
Ġin ternal
Ġang le
.~ (\
ill er
Ġcell s
] (
id ae
at o
Ġcom ing
ĠP ost
p ace
Ġb ranch
Ġf arm
Ġm essage
Ġm ur
Ġse ems
Ġsim ulation
for ce
Ġstrateg y
iz er
if ically
j o
^{ +
{ $\
ĠK e
idd en
197 5
ĠSw ed
Ġv s
ĠI ll
Ġl oad
}^ *
az z
he ight
ĠC re
Ã ¨
Ġinflu ence
ĠE mp
ĠCO VID
ov iet
u ations
Ġrepl ace
P aram
ĠM o
Ġt ensor
Ġdist inct
A dd
og ene
Ġdepend s
Ġinter view
B e
Ġd ro
st ra
A tt
Ġact ivity
ap ers
ĠOr der
ĠAl so
pl ate
ĠT ime
ĠM ost
C E
Ġshow ed
ĠP re
197 7
ĠO pen
ĠMex ico
T ext
Ġpolitic ian
Ġfin ancial
Ġs ure
Ġappro p
Ġet c
res ult
w a
Ġsh ot
Ġstud ent
ic an
h om
n y
Ġbroad cast
Ġleg al
ĠIt aly
o at
il ib
pt y
Ġc it
the n
ob ject
ot ing
unc hed
he mat
Ġm iddle
Ġg reater
id ers
N e
ro t
ir it
ĠSec ret
Ġ/ >
Ġorgan ization
Ġimpro ve
. </
Ġb order
Ġlin k
"> </
I P
ian o
s ur
or ation
or ial
z y
ul ed
r un
Ġincre ases
ve x
Ġun ion
ĠK n
S o
or a
Ġw or
$ ).
C S
ĠF estival
ĠF orm
n av
Ġform al
ĠO h
Ġ= \
T rans
Ġnear ly
R ep
E arly
Ġs n
Ġc ard
Ġcont ributions
ab ase
r ong
F ile
r ons
if fer
N ode
ĠV er
k o
f ree
Ġactiv ities
Ġsing er
os h
new command
Ġsp ort
ter m
ell ed
Ġdist ributions
$ $\
or ter
Com m
Ġden otes
M ar
ĠS up
M ed
}} ^
Ġhor iz
Ġsp eak
Ġc ry
U N
) }{\
8 2
Ġre comm
ĠFound ation
val ues
E lement
Ġinv ariant
B ar
8 3
Ġdet ection
Ġdid n
pt on
he m
ĠH el
Ġredu ce
Ġm arg
Ġcontain ing
ri um
Ġpol y
ab ilities
ĠM il
Ġth reat
Ġintrodu ce
Ġprop ag
Ã³ n
Ġ ;
Ġg reen
ell i
Ġprogram s
act ive
Ġe arn
Ġsepar ate
Ġext ract
og ue
Ġbe y
Ġsc ored
Ġf ix
197 3
ĠRuss ia
Ġch ain
d x
Ġcur ves
ut ed
ĠB oard
$ ^{-
Ġconfig uration
P I
ĠB ig
ĠSc ot
text sc
ab it
Ġa uthors
ĠE ducation
Ġmajor ity
od ing
ian a
Ġestablish ments
ev en
Ġimmedi ately
Ġv ac
or al
Ġbey ond
k l
ĠK h
ĠS il
196 8
Fig ure
oc ation
k in
Ġsem i
i ant
P er
are er
d im
Ġc arried
F ield
l ig
h ing
7 4
Ġle ave
Ġassum ed
st o
lang u
Ġsp read
7 3
Ġdepend ence
as i
mat rix
ad r
Ġas ked
Ġtechn iques
Ġst op
Ġab ility
ĠL ife
S upp
n eg
Ġdes p
Ġprob ably
Ġ ensure
ĠK ar
col umn
ven ue
Ġr ing
in ations
Ġpl ot
Ġb us
ĠS ta
Ġdef ault
pm atrix
Ġfil ter
Ġpre vent
Ġmod es
L S
Ġh um
Ġb asketball
Ġeconom ic
Ġcandid ate
il ed
Ġpair s
Ġf irm
Ġvis ual
augh t
Ġopt ions
ĠMart in
st ein
Ġpat ients
G B
ĠC am
Ġp refer
Ġhe art
Ġclass ification
g n
ĠT est
u an
7 9
Ġm ind
} )$.
Ġsp ent
ĠA wards
197 1
Ġarchitect ure
[ '
Ġs ampl
Ġpass ed
Ġrel atively
ed s
' ]
ament al
Ġre b
Ġcomb ined
ĠT imes
Ġwe eks
p ass
' :
ru pt
ĠEng ine
or age
ĠM ur
Ġgener ation
ĠII I
Ġdo ing
Ġopen ing
Ġsp orts
ĠM ax
av en
ĠO ld
Th us
Ġ$ $
)\ \
ĠL ove
Ġa mb
Ġfl at
Ġc ru
ic ated
omorph ic
pro t
et ime
ĠL u
Ġcomb ination
Ġalgorithm s
ug by
Ġb rand
8 1
Ġappro aches
st ream
ĠYou ng
Ġsing ular
su pp
ĠS ol
ĠU p
Ġl ic
C P
ĠS ocial
Sp ec
langu age
Ġst able
Ġmat ches
f e
Ġpr ison
ĠCarol ina
Ġmov ing
und le
Ġc orn
O ther
Ġwin ning
ers ey
ĠT our
ĠL y
Ġdis k
ĠB i
Ġsum mer
Ġsymmet ric
ang er
Ġcar ry
Ġthe ore
\| _{
ĠChampionship s
( (
h ouse
sy l
os c
ip ality
Ġmeas ures
ĠH ot
Ġwrit ers
Ġspect ra
ers e
Ġcon vert
h ost
Ġdiv ision
Ġp oor
. $
as ion
Ġag ent
Ġor b
r or
Ġtourn ament
b ullet
The se
N otes
ĠN avy
ĠB ank
in ner
Ġdiscuss ion
Ġact or
ĠH aw
Ġac adem
us er
=" ../../
Ġerr ors
ĠI N
y an
Ġtyp ically
O D
ĠP et
In fo
Ġth ing
display style
ĠPro gram
ĠPl ay
Ġdoes n
Ġlook ing
stit ution
Ġmost ly
M M
sy ch
ĠJ ul
7 1
Ġw ood
)$ -
Ġmanag er
ĠG L
v oid
Ġ );
Ġslight ly
im a
ĠL i
Ġcomput er
van ia
Ġgo als
Ġcent re
now led
Ġprov ed
Ġ },
Ġb ottom
ĠW ood
ĠJ o
196 9
Ġin ner
Ġinteraction s
Ġcap acity
j a
Ġc osm
J ohn
all ery
Ġw ays
ĠD ou
Ġ â
ex ample
Ġarbit rary
Ġmeet ing
ĠDirect or
ĠT op
r ical
tern et
Ġrema in
Ġth ick
Ġadv ant
c ount
v est
Ġsit es
vi ation
Ġpur pose
Eng lish
ĠG al
ĠB ob
h bar
sh ire
ĠT rump
Ġro ute
ĠR el
ist ical
ow ers
C A
4 00
Ġper fect
; "
il ter
Ġgo es
ĠS et
Ġyield s
Ġh arm
' }
ĠR o
Ġte acher
r ide
res h
ĠE qu
Ġstreng th
am ely
rem ark
Ġed ition
Ġother wise
H z
Ġde com
ĠBra zil
Ġor ient
j oy
N R
che n
Ġpar allel
Ġspat ial
ĠRe view
Ġappear ance
Ġas pect
Ġo ption
w an
pro b
ĠG en
_ -
ĠPar liament
Ġs plit
ad y
ĠL ee
Ġm ut
Ġbelie ve
Ġmeasure ment
194 5
g raph
c r
Ġon to
}} ^{
' re
ĠTe am
194 0
Ġinit ially
con fig
Ġmat rices
Ġestim ates
D uring
C ons
The orem
ĠJ ournal
ĠPro fess
Ġt or
Ġdr ug
Ġm ission
ad ium
Ġwant ed
196 7
Ġdest roy
ĠEx p
Ġabs or
Ġexp ressed
od er
Ġindividual s
ĠJ ac
Ġmain ly
Ġhtt p
ĠJ un
ĠSp ace
S D
Ġco ast
S I
Ġth reshold
Ġincor por
t ri
Con text
Ġact ress
//// ////
ĠP ac
ĠL ong
O M
ud es
ĠA tt
un ct
loc al
Ġp ure
Ġcal c
ĠC E
Ġc a
P ath
g ener
Ch ar
Ġre const
Ġg r
L P
Ġm orph
Ġr iver
Ġeffic ient
Ġst ellar
od ot
Ġde ad
Ġp hen
Ġmov ie
Ġtrans formation
Ġf air
ma z
h as
Ġpro gress
Ġgiv ing
ay lor
ĠJose ph
ĠH on
ell ig
Ġposition s
it ation
Ġdis p
ic ity
Ġvoc als
at i
ĠE ach
s ch
Ġla unched
G roup
196 4
Ġhy dro
ĠL ine
ĠI rish
Ġcommun ities
Ġrefer red
aw a
ĠL iber
Ġend ed
Ġaction s
ans as
Ġas ympt
ĠG et
ent h
Ġdev ice
pro position
Ġcomput ed
Ġun known
) --
ĠOff ice
ap i
Ġc at
p ost
ir med
ĠH ig
epend ence
Ġar rang
Ġr an
Ġde b
ĠUn ivers
[ ]
ĠC ross
ĠN etwork
ĠB as
ĠP eople
ent y
) _
Ġis land
Ġstud io
Ġra pid
ĠEar th
back ground
Ġachie ved
ann els
R A
Ġm ixed
Ġfri ends
action s
ĠW ales
/ **
Ġm is
Ð ½
ĠAss embly
Ġwh om
Ġph il
Wh ile
\ _
h ire
Ġl ives
Ġb ul
syl vania
c ur
Ġpolynom ial
map sto
Ġfail ed
Requ est
Ġv ary
ov a
b ase
k ins
Ã §
ĠH y
Ġqu arter
ĠL in
ĠG aussian
19 30
Ġremov ed
ĠHamilton ian
Ġse asons
ic ks
Ġc opy
Ġed itor
S M
m ond
ĠCol umb
Con fig
ĠA rab
ĠĠĠĠĠĠĠĠĠĠĠĠĠĠĠĠ ĠĠĠĠĠĠĠĠĠĠĠ
Ġres ources
rel ated
yp es
Ġs qu
ri ed
ib li
ĠN orthern
Ġk ing
Ġst ore
Ġabs ol
M ap
Ġmus ical
k es
Ġmach ine
Ġcommer cial
Ġch ief
Ġcl oud
g ar
Ġb attle
t ers
Ġsay ing
Ġturn ed
wh ile
ĠCh ief
Ġreg ime
ĠIn st
m c
as y
Ġf a
E M
Ġm aster
Ġf oot
Ġfav or
Ġsus p
ult ural
T D
ĠJ er
f irst
f it
ĠE nd
it an
sk y
in ate
ĠW al
Ġprov iding
\ {\
$ ;
Ġcoordin ates
in et
Ġn orthern
Ġparent s
t es
}( {\
ĠA ut
Ġman ifold
ilib rium
Ġold er
Ġcirc le
h box
196 5
ĠReg ister
us band
esp ite
=" +
ĠSh ow
ĠS oviet
abl ed
bl ock
erv ed
In st
Ġse a
Ġgener ate
B ack
Ġrespons ible
Ġtyp ical
d ate
Ġs outhern
t ik
i as
Ġobser ve
' (
tain ment
Ä ĩ
Ġquick ly
Å į
l ines
{ {
$ ~
Ġg ain
Ġres ol
l s
ĠVal ley
Ġquest ions
ĠProv ince
Ġrail way
ĠJ im
P erson
ĠT im
Ġident ify
ch ar
Ġ util
cont in
b as
Ġdesp ite
Ġcy cle
Ġatt ended
&= &
Ġdem and
Ġch ampionship
H T
Ġcle arly
z er
ab il
Ġprodu cer
Ġl ies
Ġex change
at riate
amp ion
Ġacc ur
Ġdetail ed
Ġsc ene
ĠS ee
Ġpo et
ĠThe ir
Ġopt ical
A ccording
P A
Ġgalax y
Ġpre p
Ġbe g
Ġstrong ly
Ġdist ributed
Ind ex
Ġexp on
P re
Ġag o
196 6
Ġfore st
Ġext rem
S L
ĠS ir
j i
r ont
Ġcomp are
ĠHistor ic
Ġ ]
Ġent ry
I F
Ġsh oot
} &
! --
Ġredu ction
ĠSt ep
Ġrecord s
Ġst ories
Ġform at
pp ing
ang es
Ġst rict
rad e
ĠEmp ire
Ġtra ined
/ *
ot al
Ġs ector
Ġnew sp
ĠSp ain
Ġmass es
Ġatt ract
orn ing
ott ed
Sy stem
m ethod
D on
F e
ĠCon n
ok en
Ġact ual
Ġseg ment
Ñ Ĥ
mult i
C areer
ard en
() )
ag raph
Ġf ederal
Ġdiffer ences
f aces
Ġn ation
Ġbecom ing
def ine
und red
Ġex cit
15 0
Ġocc urs
Ġbehav i
Ġget ting
ĠJ ud
Ġdep th
Ġcontain ed
Ġro ot
P art
| _{
Ġinter val
Ġscatter ing
ol t
Ġupd ate
Ġpl ans
Ġproject s
a ver
ĠD ev
m ma
il er
Ġw atch
Ġnumer ous
Ġ( !
ĠE lect
) +\
c ore
Ġann ual
Ġapprop riate
Ġex ternal
Mod el
et ween
ĠF ield
Ġdifferent ial
Ġoffic er
p age
ĠB usiness
Ġpro ceed
ĠS pr
sc ill
Ġter rit
ĠPro ject
ĠF ort
Ġv ectors
ribut es
C ount
y es
ig ation
19 20
Ġconver gence
ĠG ood
Ġs ections
Ġf if
bre ak
ild ren
ut y
p icture
Ġcomput ation
Ar ray
act er
t rack
Ġsen ior
ind ing
EN T
Ġser ve
D A
Ġres on
c ript
1 000
Ġref lect
al ysis
~ $\
S ervice
ĠPenn sylvania
Ġmod ule
ĠD om
ĠPhil ipp
ĠB oth
A m
ost on
Ġsatisf y
ric s
Ġgen us
ak a
ce an
L a
Ġhtt ps
Ġaltern ative
Ġindic ates
i able
ific ations
m ass
Ġass ess
ĠG reek
em porary
Ġown ed
ap ache
Ġfor ced
Ġin form
C ar
at ically
Ġnuc le
tik z
g reg
Ġc ensus
Ġbe am
pos es
Film s
Ġcele br
arri age
Ġstat istics
ĠR am
anc ing
Ġexpl ain
Ñ Ģ
Ġp rice
) },
h ar
Ġhyp ot
Ġmag azine
i y
ro ph
Ġoff ers
Ġwork ers
erv ices
Ġdig ital
Ġreg ister
ĠL ibrary
G C
Ġsy nt
ĠC a
Ġo dd
b ed
Ġle aving
Ġachie ve
ĠD ata
ass ert
Ġvis it
ĠB ase
Ġinteg er
Ġobserv ation
Ġrece ive
ĠDe velopment
Ġt asks
n ames
ĠCent re
t itle
ĠI ran
Ġ eth
om ic
Ġl ived
l aw
A rt
Ġv ote
su ed
Ġmur der
Ġor th
Ġpro port
at ers
} )$,
Ġex c
Ġcomm ission
H ow
ĠE r
Ġb inary
sy stem
I A
on ly
S ch
) -\
en ess
} }$,
st art
f in
tain ed
Ġex pert
ĠÂ £
as ure
ro om
def ault
ipp ed
Ġtest ing
C ode
Ġr ise
Ġ ice
ear s
S R
ĠUS A
Ġdist ingu
Ġh op
air man
Ġmagn itude
Ġnot ation
) )$
} }$.
Ġlo op
Ġt al
Ġdise ase
so ft
Ġra ised
c d
Ġen joy
y er
r ative
Ġmass ive
Ġunderstand ing
Ġcover ed
ĠS ar
il a
s en
ĠJ ones
Ġdram a
Ġcy cl
s uch
ĠS und
Ġw orth
Ġindic ate
Ġo scill
ĠU k
op ic
ĠM ount
Ġc ool
Ġp ain
mod ule
olog ies
ĠL ag
m iss
Ġpr iv
Ġide al
M e
Ġpart ners
Ġv oice
Ġh usband
Ġar rest
ic ine
bl ue
Ġget s
AT E
Ġf ine
ist ers
ĠAs ia
ĠS ong
il ation
Ġmin imal
Ġdefe ated
str ong
ad ow
ran e
b ury
ĠC r
Ġnot hing
Ġin duced
L T
Ġcou ple
ĠRad io
H and
196 3
C he
Ġcom pl
com ing
s he
[ (
ĠP ak
M R
ĠD et
ĠM ov
D ec
ĠY our
Ġg overn
ĠT ri
ĠM em
ĠBrit ain
Ġnuc lear
196 2
ĠM en
ĠF inally
P P
Ġanal og
enn is
ĠJohn son
N ext
Ġcomp osed
ĠC amb
' ;
ell er
u er
Ġ ign
S A
Ġover l
g t
Ġorder ed
ogene ous
Ġfore ign
c ular
Ġsh ared
Ġamplit ude
Ġsaf ety
P op
Ġpred iction
S ize
cher s
ĠL ord
ib r
ĠMich igan
Ġmater ials
ĠCon ference
Ġim ag
pro cess
A ct
ograph ic
ruct ure
Ġsing les
c ong
Ġshow ing
Ġconclud e
Ġm ountain
Ġgu arant
Ġdepart ment
ĠC y
c s
}\ ,\
Ġdis s
Ġent ered
t wo
m d
ĠS outhern
Ġ ener
Ġel im
}{ |
ĠW ay
ĠIsra el
el a
Ġs ociety
Ġhistor ical
ĠT re
if ies
Ġg ap
act ory
ĠB attle
Ġhelp ed
Ġclaim ed
Ġpro te
ject ion
st ract
ip age
w er
Ġro ugh
ound s
Ġfunction al
Ġax is
Ġflu ct
Ġdr um
Ġtrac ks
ĠP rem
Ġpart ition
Ġass ign
Ġn ine
ĠC ivil
ĠDemocr atic
ĠS u
ĠO x
ĠHe ad
c f
}{ (
A ust
) }_{
Ġl um
min ipage
sp eople
Ġfund amental
Ġphen omen
Ġc rick
Ġd ra
igh ter
ĠCar l
ay a
ĠJ ersey
Ġtry ing
Ġoffer ed
Ġh ospital
Ġw all
a ug
op en
194 4
Ġtheore tical
et ts
Ġcommunic ation
Ġpart ial
c ref
ĠR h
Ġcount y
Ġmet al
Int roduction
}$ )
Ġres ist
W ork
qu ot
$ ),
Ġ} );
Ġphys ics
Ġcalcul ations
S w
il ing
Ġto uch
Ġinc ome
Col or
Ġcit iz
cont ent
B i
Ġcalc ulation
stand ing
ĠB ern
Ġadopt ed
Ġdep ict
Ġhe at
Res ults
ino is
Ġse at
Ġ$ |\
" "
Ġh ole
Ġarm y
Ġconduct ed
c urrent
ĠT em
Ġdimens ions
bur gh
urb an
el d
M y
Ġtherm al
ad or
## ##
Ġp ull
~~ ~~
Ġqu e
E nt
Ġbl ood
ust er
ond er
R el
let s
ĠFurther more
est ed
: }
agn etic
ĠScot land
ash ion
R ead
Ġ ut
Ġem p
Ġp seud
ĠOh io
| }
b ottom
on ical
******** ********
Ġser ious
Ġvict ory
Ġg rid
P ar
Ġwe b
Ġqu adr
Ġdeg rees
Ġc ov
Ġsur vey
a fter
os oph
Ġtechn ique
ĠPac ific
Ġeff orts
ĠM ajor
cl aim
Ġjo in
og rap
av el
Ġpart ies
ĠS and
Ġfam ous
Ġtra ffic
Ġs pl
Ġdiscover ed
1 20
Ġconsider ing
Ġob vious
ĠE ll
Ġbe aut
Ġ ion
Ġch annels
ĠA v
C R
D P
Ġeffic iency
Ġ$ {
196 1
Ġo il
ran ce
Ġreveal ed
The refore
pos s
ĠIn f
Ġsome one
ĠĠĠĠĠĠĠĠ ĠĠĠĠĠĠ
rib e
ĠM ountain
Ġconf irmed
e z
Ġinter face
Ġlet ter
ĠTechn ology
ult y
F l
ĠH ome
Ġelection s
cc cc
) }}
ĠB ow
ing ham
Ġgraph s
im b
h aps
Ġp il
ĠGeorg ia
Ġfre edom
p g
C or
c at
opp ing
Ġk ernel
ĠAs ian
Ġcle an
ĠR os
Ġp iece
Ġc ities
Ġchem ical
Ġrelig ious
Ġal one
Ġenc ou
as er
ĠM ah
Ġn il
Ġoptim ization
ĠE conom
ĠV an
Ġclust ers
Ġs al
com ple
ip ment
Ġsub t
big l
Ġrot ation
act or
' m
g ies
ĠH or
ĠFrancis co
emb le
Ġsur pr
ibli ography
Ġoper ated
ĠMed ia
ĠEn ter
Ġinit i
Ġv on
Ġgrad ient
ĠPh ys
Ġsuggest ed
Ġpro min
ĠK ent
Ġcon j
Ġn ative
ach us
Ġle aves
Ġra re
Ġimplement ation
Con n
Ñ ģ
Ġneighbor hood
B ox
ĠPl an
ĠM any
val id
ĠF C
Ġth r
ĠCor por
ad el
Ġconf lic
gy pt
Ġinf inite
Ġass igned
Ġlay ers
Ġb att
ĠSpec ial
ĠBl ue
L og
Ġdepend ing
ĠR ead
ĠWilliam s
Ġscal es
Ġun iversity
Ġ ^{
ĠQue en
ĠV i
Ġt ru
ĠU sing
u ous
ĠU r
E X
in fo
- $
Ġreport s
am m
ĠL uc
Ġsub group
ap ed
Ġgeomet ry
G u
a a
tain er
, {\
ĠM u
, $
Ġb ass
Ġrecord ing
ck nowled
big r
sp ect
it ivity
Ġang ular
H S
Ġdiv ided
F inally
ĠS T
L ine
alt y
Ġserv ing
195 8
% )
uff er
194 2
ĠS pe
ĠB u
Ġlim its
Ġus ual
Ġact ors
it age
N ational
Ġorgan izations
ĠEd ward
ĠA N
Ġal leg
ma k
Ġtri al
ab eth
ĠL ab
U LL
Ġoffic ers
Ġact s
Ġf le
Ġh ar
v ol
ĠG i
ud get
ĠChar l
ner gy
ĠCo ast
ĠJew ish
Ġord ers
o ir
ĠC ro
n am
ed ia
on ia
Ġex ception
ol es
=" #
ĠSen ate
Ġinterest ed
ĠP ower
ut ing
Ġ/ *
Ġdes cent
Ġre pro
achus etts
math op
l en
Ġuncertaint y
st one
Ġallow ing
h u
.. .,
fl oor
Ġcre w
Ġit ems
$ {\
Ġa part
d y
Ġdel ay
Ġimport ance
Ġact ing
omet ric
C L
E l
ĠMan agement
ot ype
ph as
on to
Ġgrow ing
195 9
ĠB oston
Ġ[ \
Ġwhere as
od ay
Ġwid ely
Ġch art
Ġmod ified
194 8
p o
Ġdr ive
Ġbelie ved
t an
195 6
( {
Ġcoeffic ient
ĠM id
at uring
ĠG ame
ĠMod el
ĠThe atre
yn c
Ġro ll
re ct
ĠPol and
st atic
Ġadvant age
m itted
here nt
Ġapp arent
Ġnear by
Ġimpro ved
ĠK ong
cre ate
D is
ĠRep resent
less sim
ion e
Ġv irtual
ĠT aylor
Ġcompos ition
b uild
$ _{
Ġbound s
Ġh undred
g r
Ġdecom position
ĠD utch
ĠB al
eng er
ĠSt and
D B
b el
t x
Ġs ister
Ġa st
\ ;
on ed
Ġsu c
It em
ul f
Ġred shift
Ġprinc iple
Ġprot ected
Ex t
Ġw estern
ĠR ay
go ing
Ġb right
ĠD es
Ġeff ort
ĠB uild
Ġ- ->
ĉĉĉĉ ĉĉ
Ġsubsequ ently
Ġis ol
u um
Ã ±
dis c
U sing
T H
Ġsh ips
Ġart icles
out e
Ġd rop
Ġsett lement
ĠW ater
ee ch
Ġcol on
Ġre asons
Ġacc eler
Ġcon vex
Ġs quad
b ot
O C
M ethod
,\ \
p a
195 7
ĠPr ince
ĠIll inois
E L
ran k
ur ies
Ġexpon ential
Ġoper ating
B rit
F I
Ġsc hed
C all
ond s
Ġcan cer
Ġany thing
Ġdi am
os is
Ġdev ices
T hat
ou the
Ġscal ing
Ġit em
Ġfind ing
ul i
Ġcoordin ate
ird s
ĠH a
Ġeval uation
row s
Ġpart ner
ĠC ard
Ġw a
D M
ĠG overnor
Ð¾ Ð
Ġvari ation
Ġden oted
res ults
Ġir re
Ġb ridge
ĠA cc
ĠJ oe
or ough
Ġattack s
A ut
Ġle mma
Ġfootball er
Ġreturn s
Ġspec ified
Ġrec all
Ġres idents
og en
Ġp icture
Ġ= ==
Ġl if
Ġreg ional
Ġcomplex ity
Ġdis crete
M on
g a
he t
S ection
he tic
ĠPol ice
: =
il bert
art ers
Ġf elt
ĠWil son
Ġc ouncil
t w
Ġw ild
Ġc arri
Ġmed ium
Ġtra ject
Ġown ers
Ġn arrow
ynam ic
Ġmark ed
Ġsol ve
id el
c ut
Ġacqu ired
v in
for ward
v ector
194 3
ĠM iddle
ith ub
im age
form s
Ġmanag ed
ĠM ot
M essage
O P
193 9
Ġscen ario
int eg
$ :
Ġcom edy
er c
Ġim plic
Ġpolitic ians
con text
Ġexpl ained
includ e
i em
Ġloc ations
ĠSt an
en ant
ĠP op
Ġm ill
O L
Ġtechn ical
ev ent
od ies
Ġveh icle
194 1
ra ge
ĠL im
en ame
ang ing
d ependent
Ġsuggest s
Ġth ous
os ure
Ġb in
Ġent ropy
ĠE p
ĠS M
ĠPort ug
Un ited
is er
e lement
Ġtest s
^* $
Ġinteg ration
R esp
Ġcommon ly
Ġ ^
Ġinst r
ri e
f unc
o om
ĠCommun ity
n umber
ar iance
Ġrem ark
Ġs ides
script style
ĠJ r
ĠIs lam
ĠSe a
di ag
Ġloc ally
Ġdescrib es
ĠBro ad
ig ration
\ )
Ġst ress
ĠAnd rew
Ġn amely
ĠMass achusetts
che ster
we b
Ġcharacter istic
Ġcandid ates
ig ger
Ġres ource
def ined
= '
P ost
d oc
Ġcalcul ate
Ġp p
D ist
ĠRail way
Ġfl ight
pert ies
ĠE st
Ġrob ust
Ġind eed
Ġs ort
ĠB ecause
Ġclaim s
Ġor bit
Ġsatisf ying
Ġfor t
y les
uck y
Ġsuc ceed
Ġded icated
Ġke pt
ĠN ight
Ġsecond ary
Ġcon d
Ġtre es
ip e
C M
d el
ĠE astern
g ers
od d
ĠW all
it ness
ig r
orn ey
Ġproject ion
ĠH uman
Ġcult ural
Ġlangu ages
Ġtr ust
Ġadd ing
Ġevery thing
Ġret ired
or i
F R
c alled
ĠW ild
Ġplan et
Ġprim arily
ĠScott ish
Ġp ix
Ġstat istical
ĠĠĠĠĠĠĠĠĠĠĠĠĠĠĠĠ Ġ
Ġfl oor
Ġis sued
ron ic
194 6
f ont
ig er
ab y
Ġ\ (\
Ġl ibrary
Ġle tt
le ad
f inal
Ġ$ .
ang ed
b al
Ġco inc
ĠB ul
v ature
Ġorgan ized
ĠOx ford
Ġpower ful
ĠA ff
st able
wh ite
Ġpro pos
195 2
te en
Ġtre nd
am ber
] $.
l ock
ri end
ve e
ĠC P
195 5
f alse
Ġ Î
T op
ul er
$ };
m osp
lic ation
Ġt end
Ġis omorphism
Ġj ava
Ġqu ery
j ava
z z
Ġclub s
Ġev ol
ĠG ar
ĠF ar
t frac
Ġd oc
Ġ{ $
un a
ult ane
Ġst ability
i ate
oc cer
) )\
Ġmed ian
ic ed
Ġm useum
V D
Ġt ail
Ġ Å
Ġext ends
clus ions
we et
itz er
Ġinstr ument
ĠSecret ary
Ġl ie
ont al
Qu ery
Ġs ales
ay out
Ġband s
IN E
il ly
Ġdatas ets
c ks
s ign
th ur
\ }$.
i ec
d b
od ed
D isc
n um
em y
Ġcre ation
Ġvert ical
ĠB ang
b rid
and emic
ĠC reek
C re
] }
Ġinst all
Ġrepresent ations
; &
Ġ} ;
ĠJ es
ĠL ittle
}} _{\
Ġneut r
d ney
sc he
al so
ĠS ervices
r s
Ġregard ing
Ġcon ven
Ġansw er
ĠColumb ia
g ithub
Ġarg uments
Ġcl ient
ĠJack son
Ġcre ating
Ġrem ove
ant ry
set s
Ġmulti plic
ateg ory
Ġepis odes
" ),
194 7
Ġhand s
A c
M embers
Y ear
d frac
Ġexec utive
}) }
Ġl abor
ĠB a
ĠD isc
ĠH ung
Ġprofess or
Ġequ ipment
Ġa p
Ġperson nel
Ġrad iation
Ġc ert
og s
un it
Ġequ ilibrium
Ġfl ag
Ġsum mar
ĠD ar
Res ult
medi ate
ograp her
Ġcharg ed
Ġext end
A F
D S
Ġf ans
ĠE gypt
Ġm apping
or ig
Ġint ended
Ġab und
ĠGo ogle
Ġf ellow
s at
rop ol
O per
Ġt ell
W ill
ph ant
ĠC at
Ġconsequ ence
Man ager
ĠP oint
ĠW is
Ġfig ures
] )
lection s
S m
ĠCol or
Ġm ess
ĠH ospital
Ġyou th
ĠS ports
ĠA sh
ĠB ell
ĠSt ation
Ġcl in
Ġestim ation
ĠF ace
Ġprocess ing
}} )
Ġth in
Ġdimens ional
g est
Ġcapt ure
Ġem phas
Ġl ab
Ġd ial
ĠAir port
}[ \
195 4
ĠH ong
Ġcol lected
ĠSc iences
Ġmat hemat
T T
ĠG irl
Ġvers ions
Ġprinc ipal
ĠLat in
ro vers
Ġstart s
Ġcost s
ĠF our
Ġpol ic
Ġtem por
Ġconc ert
ĠP ubl
Ġinvol ving
long rightarrow
ĠR un
al gorithm
Ġturn s
Ġrequire ments
Ġc atch
ĠJ on
Ġadminist ration
Ġprogram ming
ins on
Ġrese ar
d ep
ĠE ven
Ġide as
ĠAs sum
ĠRepublic an
w ater
ellig ence
S ource
ĠS om
ĠF er
n ext
d ev
195 3
Ġpr ime
es ter
op her
olog ist
ĠBro ok
ĠK en
ĠF ederal
Ġf erm
Å ¡
Ġ\ !
ys et
ject ed
R em
Ġinvestig ation
G l
Ġown er
ĠJust ice
Ġwe ap
an ta
Ġd raft
Ġnot ice
are n
ĠKore a
Ġcontin ues
Ġearn ed
indow s
Ġb ill
Ġm arriage
iz abeth
Ġco al
os es
194 9
Ġobject ive
Ġc ars
Ġfac ilities
Ġj ourn
ĠT ype
Ġsufficient ly
tt y
Ġassoci ation
Ġpredict ed
j oint
Ġa wards
Ġl ift
Ġwe ights
Ġunder lying
v ari
S ome
ĠAn other
uss ion
am ing
av ed
ĠDan iel
Ġla unch
Ġrepresent ing
Ġdis app
Ġinc ident
Ġsu itable
ac ent
Brit ish
l ers
ĠL ater
H ead
Ġ\ &
ar se
Ġlaw s
}) =
et al
ĠS i
h ang
se ct
Ġtw ice
Ġaff ected
ĠAlex ander
^{ *
-- -
ens ions
con f
> &
Ġcom plic
Ġhous es
Ġthe ories
Ġarr ived
n ic
Ġopportun ity
Ġp aid
ĠPl aces
x x
Ġreview s
] $,
O ff
ĠU s
est ic
c ar
Ġperform ing
Ġto ol
Ġmot or
Ġsp irit
u ated
Ġb os
Ġtrans lation
c all
f old
ĠCons erv
f ort
}) ^
Ġst reet
och astic
clus ive
Ġb illion
Ġlarg ely
act ic
om er
Ġemploy ed
it ical
am in
D em
hen s
Ġapp lying
Ġinv erse
z en
se y
Ġh ope
not es
Ġsom ew
ul pt
ĠC orn
ĠO nt
R ight
f ound
Ġe q
p ool
="../../ ../../
ĠL ight
Ġem pty
Ġevalu ate
Ġfail ure
' .
Ġwin ner
fl u
ĠVictor ia
}} .
ĠBer lin
i ota
ĠWe b
w rite
y o
st ep
Ġh ockey
b ec
ĠJ eff
Pro perty
ĠB oy
ĠLe ad
ier arch
II I
f s
du le
Ġqu ark
Un iversity
Ġ\ ]
Ġ_ _
empt yset
Ġcon vent
U E
Ġlearn ed
Ġd aily
d at
ĠF ree
Ġto ward
Ġbl ocks
omet ry
ĠF ollowing
=" ../
Ġsw itch
Ġcapt ured
1 10
Ġto ols
Ġcall s
Ġfif th
ĠWe ek
195 1
Ġag ents
Ġgrav it
ru it
ĠV ill
Ġne ural
ĠM icro
Ġcon ference
ob s
Ġsub stant
ĠBel g
if ul
ps on
Ġshe ll
Ġfocus ed
ĠApp endix
Ġtri ed
Ġstr ugg
ĠS uch
ath an
pt o
Ġderiv ative
Ġdes ired
Ġtransfer red
ON T
p at
ap se
Ġdiag onal
ĠL og
Ġdet ected
ĠIn formation
ĠU N
A V
C al
' ve
Ġoppos ite
;\ ;\
Ġanc ient
25 0
Ġevery one
Ġinvestig ate
C ell
R S
Ġaccur ate
M in
ĠProfess or
Ġsubsequ ent
: #
,\ ,\
Ġdam age
Ġb ra
ĠPol ish
Ġlum inos
ap es
Å Ĥ
G eneral
ta il
ĠTh ree
eder ation
][ ]{
ĠB C
it ative
Ġatt end
Ġsh ock
Ġsc ript
ĠMed ical
u v
Ġconst ants
" ).
enn es
Ġn one
Ġ }{
Ġoffic ials
oc ated
ph ia
Ġp sych
B ase
Ġexplicit ly
h igh
Ġsol ar
Ġacadem ic
Ġaccept ed
le ep
Ġal t
Ġmunic ipality
Ġen h
Ġsampl ing
Ġmix ing
Ġtrans mission
Al though
ĠCor ps
Ġl ock
Ġpe ace
Ġcl imate
med skip
Ġc ook
ĠOr gan
[ -
Ġn et
ĠP en
Ġchall enge
| }{
Ġresp ond
Ġdynam ic
h ol
Ġener gies
am i
ĠM ike
ĠAr gent
Ġm iles
---------------- ----------------
M ay
Ġpattern s
ĠMin istry
cis ely
Ġend s
Ġmot iv
Ġ( {\
ak i
ĠD er
c i
Ġbase ball
ĠL o
Ġrest aur
Ġman ner
al gebra
ĠInd ust
ze ch
pl ane
W orld
T rack
Ġimplement ed
em an
Ġeas tern
Ġveh icles
Ã¡ n
Ġw rong
ĠB on
Ã ¢
Ġfe aturing
ĠGu ard
}_{ -
f i
ig a
Ġ era
ens ities
Ġbe at
Ġposs ibly
ĠA st
im ately
writ er
ĠK enn
Ġtr uth
$ &
Ã £
b ro
Ġd iver
Ġassum ptions
bra ce
Ġalong side
in ion
D o
ĠA p
}} ^{\
Ġpl us
ĠM ain
ĠB BC
lement ary
h ard
ang ular
Ġmax imal
Ġre action
ĠIs lands
Ġde ploy
Ġbehavi our
rop ical
ĠSy dney
T C
Ġsurround ing
ĠV is
Ġs rc
adel phia
Ġposs ibility
Ġpl anned
Ġrad ial
Ġad vert
par agraph
form al
Ġvict im
ĠSund ay
ĠB and
let on
Ġp owers
Ġser ver
ĠD ig
] {\
ri ev
ĠComm on
S ing
Ġd ie
Ġfind s
Ġabsol ute
ow s
Ġp ra
Ġinsp ired
ĠJ ean
Ġengine ering
Ġd ust
ER T
Ġl iqu
ouri er
br as
Ġelectron ic
19 18
Ġbul k
Ġadj ust
Ġp andemic
U s
}} }\
D R
ĠInd eed
ĠAnt on
ĠD esign
Ġpl anning
Ġagre ed
193 6
ĠR od
ĠSup reme
v art
B M
Ġbi as
ĠSt at
ĠCh ris
om y
Ġtro ops
ĠOlymp ic
ag on
if er
oth ing
ĠB ack
Ġhon or
Ġappear ances
he ta
Ġv en
un te
ĠT am
Ġcont rad
Ġb oy
ĠOnt ario
an th
ĠMus lim
Ġcitiz ens
Ġp it
roll er
Ġlat est
Ġspec ifically
Ġro les
Ġcor por
Ġrepresent ative
ĠCorpor ation
ol i
Ġpl ants
Ġsp eech
Ġconstit u
Ġbeg ins
P L
Ġsim ultane
The y
193 8
Ġleaders hip
Ġa thlet
e lect
ĠS a
n i
ĠV iet
T ra
Aust ral
Ġdr iving
Ġcon sec
rid ay
ict ures
Ġout er
S port
ĠM aster
app ed
ĠL ew
Ġnewsp aper
ĠR en
ing ly
ur er
on ym
Ġs ust
D C
) }_
Ġtri p
Ġcomput ing
Ġprov ince
bm atrix
Ġoccur red
Ġcompet ed
ĠG er
l ife
Ġch ance
M usic
ĠC ur
s g
Ġt urb
rop ic
Ġtr ivial
Ġat mosp
up s
Ġsequ ences
Ġconsist ing
at on
Ġhe av
Ġj ump
ĠM arg
ĠR aj
ra ine
ĠA M
ĠB rad
Ġp al
n n
ĠK ey
Ġ ,\
Ġint ensity
Ġcateg ories
Ġpromin ent
ĠStud ies
ĠReg ion
ether lands
ĠĠĠĠĠĠĠĠĠĠĠĠĠĠĠĠ ĠĠĠĠĠĠĠĠĠĠĠĠĠĠĠ
ĠC as
Ġder ive
Resp onse
Ġp ages
Ġpre par
Ġcam era
Ġw aves
sc ape
ĠPr ime
Ġme ant
fl oat
Ġexpand ed
Ġrel ax
Ġcr im
Ġnon linear
Ġf rag
Ġcur vature
au x
Ġgeneral ized
ĠAd d
Ġsupp ly
Ġconn ect
ĠA R
Ġlabel s
Ġrecogn ition
ĉĉ Ċ
Ġj et
Ġindic ated
Ġn or
ort he
bour ne
form ance
6 00
ĠR og
ĠE u
ge bras
a is
p ower
ĠF amily
Ġt ells
E m
Ġhand le
ian g
ur i
Ġprom oted
Ġcorn er
ĠC irc
ĠTor onto
Ġm orning
ĠR eturn
Ġcan onical
t iny
S ong
Ġtemper atures
he im
ĠA venue
Pro of
ris is
Ġphot on
Ġag ree
Ġcom ments
ĠChrist mas
Ġrepe ated
Ġr ig
Ġsuccessful ly
Ġl ov
st ruction
ĠS ant
w ing
per or
fig ures
Ġextrem ely
ĠN C
ĠN S
Ġpredict ions
Ġst ock
/ (
Ġmax im
Ġs end
ur ations
ĠAd dition
w eg
Im age
cal e
Cl ient
Ġtra ce
Ġgrav ity
eli hood
ĠF air
Ġinter ior
d iff
Ġtop ological
In put
H ence
ful ly
iffer ent
Ġchang ing
h r
ĠS her
E v
Ġsatisf ied
con sin
Ġquant ities
Ġsil ver
Ġassist ant
g ency
ĠW alk
ut enant
ĠA k
ut t
O W
Ġp et
Ġflu id
ĠO t
g eneral
ors hip
script size
Ġs ession
Ġserv es
Ġd ance
Ġc m
Ġscient ific
Ġasympt otic
Ġinteg rated
W rit
Ġsold iers
Ġconf irm
Ġs ail
L emma
ĠCon f
ost er
Ġb omb
atur day
ĠK im
P os
rit ical
per iment
ib ration
Ġdi agn
ĠD own
Ġintrodu ction
es ian
Ġview s
+ (
ist ent
Ġperm an
ĠEl izabeth
se arch
Ġpers pect
Ġcr ime
M en
T S
ro g
Ġr ural
H C
Ġcry st
}} =
ĠB ad
ĠAd minist
hed ral
193 7
Ġin h
T wo
un ing
ĠF und
D r
du ce
Ġexpl o
L C
Ġcover age
ĠCl ark
el ess
ĠF ire
Ġembedd ing
eg o
ord an
Ġear th
ro sc
S outh
Ġfin ish
Ġsett ings
Ġ$ ,
Ġp ool
Ġcharg es
are t
iec es
Ġpre cisely
em eter
)-- (
ide os
Ġinstit utions
Ġe lev
ĠM ethod
G N
cre t
circ le
Ġclos ely
ĠN a
Ġre ality
ist ed
ĠP ass
d f
ak h
sec ond
Ġsex ual
ĠCom put
Ġcomput ational
os a
ĠSec urity
Ġfe et
ism s
Ġhe ard
Ġ- >
Ġst orage
Ġf ashion
ĠS us
Ġeconom y
Ġg rew
Ġb udget
pt ic
ou pl
U p
ã ģ
Ġadv anced
} |\
Ġsup erv
Ġident ical
Ġf iles
pack age
ow a
ron ze
Ġc old
Ġdou b
Ġhous ing
reg on
ch ron
ver b
b en
ĠPri ze
}$ }
Ġnew ly
ĠG ro
Ġinters ection
ĠKore an
Ġsign als
ĠCol l
Ġst d
Ġcontroll ed
on ents
Ġpur poses
8 00
um es
Ġprop ose
ann a
R I
Ġc row
Ġmatch ing
ĠH ard
! !
Ġprot ection
Ã ¸
tikz picture
sl ash
rom e
Ġinter act
ĠPak istan
Ġa ware
ĠSt r
S um
Ġbu y
Ġaff ect
Ġnot es
M B
ĠReg iment
Ġsp ot
an es
' ll
Ġthan k
ock et
Ġbro ken
Ġlow est
Ġinn ov
ĠPro t
Ġl iber
\ }\
> (
G o
column width
s i
Ġpass ing
Ġpolit ics
M et
ject ive
Ġport ion
ĠSan ta
sequ ently
C ast
Ġv otes
iven ess
ĠD espite
: =\
Ġdynam ical
ĠV en
Cons ider
n ull
go ogle
Ġz one
Ġrefer ences
se x
ra q
Ġgl ass
g al
sl ant
N ov
r l
ent ed
ĠGe V
ĠI V
d ir
} ~
ĠE very
ĠT y
Ġl y
G iven
Ġaspect s
m ember
ind s
ĠR ome
A p
d l
ill ing
Ġh idden
vart heta
ĠO F
pd ate
& =\
Ġmagn et
ã ĥ
H is
ĠFore st
> \
par ison
Ã£ o
Ġcomp at
Person al
Ġb ool
Ġs ave
ĠR om
are st
ĠCamb ridge
Ġenvironment al
v o
Ġis n
B I
Ġv acc
ĠEngine ering
ap ore
pro v
est abl
eb ox
Ġapproxim ate
D escription
ĠL ive
p op
ĠQue ens
ĠGl obal
Ġin fer
St ream
193 5
Ġdr iver
ort ed
\ }$,
Ġre ct
Ġb urn
Ġaud ience
Ġm obile
tain s
U ser
Ġsaf e
Ġar c
w orth
Ġf ish
ĠS U
l ik
M ax
Ġcont rovers
Ġwin ners
av or
ĠMin nes
Ġdevelop ing
Ġindust rial
Ġtre ated
ĠB rig
ĠK el
G ener
ĠH un
per ial
b p
Ġperform ances
ĠBe ach
D ate
ĠW rit
ĠOffic ial
reg ular
ĠEx ec
Ġvis ible
Ġpath s
ic ular
Ġpres erv
ĠT ok
Ġexpl an
Ġag greg
int on
Ä į
Ġnot able
at iv
ad ian
y ard
er ies
ĠD am
ir k
Ġsc ulpt
Ġmin ister
ĠR a
H L
qu arters
Ġcharacter istics
Ġest ate
Ġex clud
Ġr ich
Ġpolic ies
Over ride
ĠMc C
Ġres ident
Ġd ivers
Ġcamp us
ĠN Y
R ed
t arget
ask a
ĠN ations
ik i
ĠE nergy
Ġoffic ially
Ġrem ember
19 14
Ġgradu ated
\% $
iss on
Ġexp atriate
P o
ens es
Ġrecogn ized
Ġcirc um
ĠB att
exp ected
ĠMinnes ota
R un
Ġc overs
B o
. &
Ġcop ies
ĠH ay
Ġben ch
St art
lo op
Ġp le
Ġhypot hesis
ic ip
Ġw ing
M at
it o
it led
ĠPrem ier
Ġsol o
rang ian
Ġrecomm end
Ġresult ed
M T
Ġdestroy ed
Ġfac ility
ĠM ult
( [
c ss
ĠN ULL
j an
ĠOn ly
D D
Ġ urban
19 17
ĠN etherlands
B O
Ġadminist rative
Ġaut o
ar ia
Ġunivers al
y th
P O
Ġcomm ut
Ġrac es
Ġcaus es
ĠJac ob
ĠG ener
Ġmusic ians
h l
Ġprot ect
ĠS ab
19 19
Ġcon clusion
og ether
Ġvar iance
ever al
D i
et ing
Ġtit les
ĠRev olution
ĠOr ig
ch or
Ġcol le
Ġh our
multi row
or gan
Ġag ric
m n
Ġentire ly
che stra
ĠB ridge
ĠL em
= .
Ġst ack
Ġext ensive
Ġemploy ees
ĠL abor
Ġb undle
Ġvac uum
ĠW ell
Ġadv ance
ĠF ox
ĠPhil adelphia
Ġex cell
Ġcorre ctions
ĠDu ke
osoph y
Ġdepend ent
isl ative
Ġlist ing
ĠAn th
ĠH and
ĠWis consin
Ġsw im
Ġdra wn
Ġc e
Ġinst ant
ĠSte ve
Ġvers us
Ġeigen values
Ġany one
Ġexper i
Ġch ampion
Ġgener ic
og onal
Ġsim plic
m i
Ġsecond s
Ġbre aking
C ase
Ġ rom
Ġfund ing
Ġhistor ic
t yp
Ġv ess
el se
Ġfluct uations
Ġeffect ively
ĠO p
Ġr ational
F ollowing
sub sec
re ll
ĠC all
Ġmon itor
Ġsc ope
ast y
ĠC ase
Ġc atal
ĠHig gs
Ġn av
ĠW ho
E P
Ġsp ring
H el
ul se
Ġre form
i Äĩ
Ġdat abase
ĠIn it
Ġhousehold s
ev in
ĠM ic
ent ry
Supp ose
Ġsup ers
r ins
a uthor
Ġs izes
c lear
Ġdo or
Ġper haps
19 29
poss ible
Ġequ ality
ĠS at
193 3
Ġread y
P ort
Ġcover ing
Ġsp ac
l ast
Ġdecl ared
Ġden se
Ġins ert
ĠH o
Â °
Ġsum mary
Ġbrief ly
Ġm es
ĠRe al
Ġhigh light
^{ (\
ĠL es
ly wood
ord ers
ĠM ond
ĠL ady
ell o
Ġp ref
the less
Ġsub s
Ġp ush
ĠA thlet
X i
Ġfrequ ently
z ed
Ġc art
the re
ĠDav is
N on
Ġbenef it
ĠB ol
ag a
Ġqu asi
Ġinj ury
Ġst ochastic
ĠĠĠĠĠĠĠĠĠĠĠĠĠĠĠĠĠĠĠĠĠĠĠĠĠĠĠĠĠĠĠĠ ĠĠĠĠĠĠĠĠĠĠĠĠĠĠĠĠĠĠĠĠĠĠĠĠĠĠĠĠĠĠĠĠ
Ġ iron
Ġmult ip
Ġaff ili
is a
Ġdisc rim
Ġref ers
Ġdet ector
ymmet ric
Ġmole cular
ĠB ru
unn el
Ġmunic ipal
19 28
Ġluminos ity
S che
e aking
pro perty
Ġabs ence
ad i
Ġb rain
Ġcons ult
Ġassum ing
. \\
ou ble
ic ation
Ass ociation
M ark
t ure
e en
Ġf ell
ĠC ub
not ag
ĠK al
ĠA ud
Ġpurch ased
Ġas k
ur ance
In ternational
P oint
Ġparticip ated
R L
ik a
( -\
P M
Ġconflic t
b u
Ġhost ed
Ġt ransp
L i
qu ery
Ġexpress ions
mod els
Ġp ieces
Ġm ac
irt y
Ġsepar ated
Ġquant ity
Ġneut ral
Ġb ow
Ġlook s
Ġhe ro
param eter
Ġcorre ction
Ġarm s
Ġrec ip
et ch
Ġdef end
Ġinterpret ation
ast ers
Ġf resh
riz ona
Ġsupport ing
193 4
se lect
Ġrough ly
equ ations
Build er
Ġres erv
l arge
Ġdemonstr ate
ĠFace book
19 00
ĠA uthor
angu age
M ult
ob e
ĠM ill
^* \
Ġflow s
Ġpl as
u ing
F unction
ens ed
cl ient
ĠSt adium
Ġequival ence
g reen
Ġbu ff
ĠG iven
duc ible
ĠAb out
ĠIn ternet
Ġg ained
Ġent ries
Ġh uge
ĠP ers
om ent
is ot
ĠL ike
J an
Ġadj acent
Ġsp ons
id i
ph one
Ġanim als
ur ches
19 10
Ġe yes
ĠI D
ĠB all
Ġd x
Ġdec ades
ĠBook s
k h
B ook
c over
Ġessential ly
Ġa head
Ġdefe at
Ġcont est
L ast
Ġcomm ittee
D av
weg ian
v ements
point s
Ġdet ect
ĠL ore
ĠN on
ord on
ĠâĢ ¢
âĢĿ .
Ġbo olean
Ġf uel
ĠS on
ĠW inter
Ġsat ell
Ġcer em
Ġv anish
ĠT al
igh th
Ġcont emporary
Ġpublic ation
st ic
in er
Ġnecess arily
ari os
Ġacc ident
Ġthem e
c oh
ri p
12 8
\ |\
rast ructure
in ction
st ood
Ġp apers
lic k
Ġd ashed
Ġcol our
Ġfeed back
Ġreconst ruction
R C
Ġconf idence
Ġexpl ore
Ã© e
Back ground
Ġdecre ase
Ġcustom ers
ĠW ars
Ġpract ical
; </
ĠSwed ish
ĠGold en
d esc
ĠEx t
t ag
he nt
ĠF inal
Ġis ot
Ġs and
193 2
os l
Ġupd ated
al ion
ĠT a
Ġdemonstr ated
ĠC le
Ġbusiness es
emeter y
par allel
Ġdirection s
P D
Ä ±
r ame
Ġposs ess
eg er
ax is
ch a
ĠAmeric ans
AM E
init ely
out s
18 0
anc er
Ġrece iving
ĠMed al
ĠĠĠĠĠĠĠĠ Ċ
10 1
Ġbal ance
Ġstand s
ĠO regon
Ġc ab
More over
Ġattempt s
rap y
ra ined
Ġcoupl ed
ĠAre a
M E
Ġevalu ated
Ġdef ense
ĠCount ry
amb ig
Ġph ases
Pl ay
pl es
neg ative
se ason
includ ing
Ġl osing
Ġse ats
in us
ĠF riday
ĠStep hen
Ġa w
ĠR on
ĠW in
Ġnot ion
d irect
Ġab and
ĠPr im
Ġt ag
Ġinter mediate
Ġst one
pl ot
G A
ĠW el
) })
ĠPol icy
Ġs un
et ies
empt y
ink ing
Ġded u
eng ths
em i
m ad
) ^\
j av
Ġf iction
Ġte le
ĠD C
un es
Ġsepar ation
ĠI d
U til
}\ |
enn a
Ġ$\ {\
ir ical
$- $
Ġperturb ation
Ġb ran
Pro v
math it
ĠSwed en
Ġauthor ities
ĠL ic
Ġdom inant
ul ating
low er
inst ein
ĠC H
Ġfa ith
Ġproport ional
R R
Ġgravit ational
Ġt ick
St atus
~ (\
ĠTr ust
ĠL ast
Ġun less
w atch
Ġren amed
om ot
Ġchalleng es
atur ally
ĠMar sh
ĠSpr ing
Ġtr igger
rib ed
ĠB ishop
Ġp iano
ĠG ree
and roid
ĠB udd
" |
ĠA T
F M
ĠM ember
p arent
Ġun able
er al
ang a
cor ollary
ĠJ oh
ropol itan
un s
ĠAl f
ire ment
F rench
in ating
ĠR oute
qu ant
d escription
I ST
Ġan om
Ġmom ents
B L
opt ions
if act
N umber
Ġimpro vement
ĠComm and
Ġyoung er
Ġcon vers
cl ose
19 27
Ġk in
Ġgrant ed
Ġvari ations
w orld
G erman
193 1
G S
Ġtest ed
ĠH art
Ġfound er
St yle
ĠI raq
ug in
Ġphot o
19 22
Ġpolar ization
H ar
outhe ast
f ull
Ġread er
An other
re hens
19 24
ĠT HE
Ġrestrict ed
Ġapp eal
ition al
Ġart s
Ġterrit ory
Ġh abit
ĠColor ado
ar ity
ĠAg ain
ad s
Ġpack age
ĠF I
Ã º
ĠBar on
ĠA D
m t
d es
m ode
ĠM ach
Ġph one
names pace
ag en
Ġviol ence
ĠN az
Ġsk ills
Ġex ceed
sc ope
b ell
Ġpar ish
Ġmarg in
Ġprot ocol
ĠK er
igr ants
Ġr ugby
Ġsupp l
ennes see
======== ========
phant om
Ġcan cell
Ġex cess
ĠM att
is or
Ġe mail
Ġsur faces
ĠD ue
Ġinvest ment
ic ian
im p
A E
Ġcharacter ized
Ġv ice
& -
Ġre ar
Ġgeomet ric
af e
ĠM oh
av irus
Ġlett ers
r ating
text color
Ġparticip ants
ĠMar ia
G R
ob j
ad ata
v als
ĠS N
iction ary
Ġe ye
Ġend ing
Ġdom inated
ĠCast le
op es
ul us
i ated
Ġte aching
Ġsuff ered
ĠS aturday
ub ble
$. }
h ou
ĠH an
B est
. /
C urrent
h or
Ġstandard s
Ġbenef its
Ġw itness
ĠAr thur
ii i
ph y
Ġredu ces
ĠIndian a
Ġconcent ration
j e
ĠĠ čĊ
ĠS D
B B
Ġcontrol s
rel ation
! \
S l
grad e
iss ions
Ġd anger
Ġgener ating
Ġcar bon
S H
ĠK ansas
Ġesc ape
W omen
Ġprof iles
Ġ\ ,\
ipl es
ĠAd am
fr ame
P ublic
Ġprote in
Ġdro pped
Ġf an
Ġ< <
stack rel
Ġsupp ose
L ong
Ġtit led
Sec ond
w ave
ĠE th
form er
ĠB an
Ġengine er
ta ch
Ġdoc uments
ĠB h
ĠG re
Ġf lex
ĠC zech
Ġconcern s
ĠS ky
ger y
C ent
Ġnov els
Ġacc ret
eng ers
text up
ĠM ilitary
Ġy ards
ĠInd ones
ĠG rant
ã Ĥ
Ġind ices
Ġsomew hat
Ġtown s
ĠP C
^* (
all ow
Ġdo ctor
m ers
AP I
Ġhapp en
Ġconvert ed
Ġunivers e
ĠCap tain
ĠG allery
ĠM P
Ġfight ing
bold math
ĠIn vest
Ġ _{\
Ġy ellow
ĠS C
Ġpat ient
v s
v ard
ĠS av
p ur
ĠF ord
com put
Ġinst ruction
p res
19 25
Ġsy m
ĠW he
Ġwas n
im ages
ar ithm
k ish
! ]
Ġb atter
ou red
Bi ography
ĠAtl antic
Ġ( (
A cc
u on
ru ck
ĠSt ock
ĠAnd erson
arg s
)} (\
ĠPhilipp ines
Ġcall ing
Ġg ate
Ġenh ance
Ġconj ug
st at
in ator
Ġdocument ary
Bl ock
Ġv ideos
ĠA maz
Ġult imately
Ġgirl s
Ġhold ing
us es
Ġliqu id
ĠR ights
Ġst orm
Ġw alls
19 26
| ^{
es ides
rag on
and ra
ĠCons ider
ef e
ph p
N E
Ġsens itive
Ġp uls
add ing
Ġs urn
Ġf aster
N O
od ge
Ġfem ales
so le
Ġconfig urations
Ġcolumn s
Ġrank ed
EC T
ly n
Ġt ight
off s
ĠTh rough
Ġpar liament
O pen
script scriptstyle
ow ski
12 5
sh ow
row ser
Ġfac ulty
h fill
Ġh ierarch
Ġconserv ation
Ġra ise
Ġappro ved
ĠSing apore
As sum
19 16
on avirus
con duct
ĠS quad
qu es
ĠL td
z o
Ġfrequ encies
Ġher self
ĠC art
opp ed
ĠN ext
ĉĉĉĉ ĉĉĉĉ
W id
19 21
19 12
O lymp
s ince
ĠH op
Ġw ants
}{ *
Ġconsec utive
Ġauthor ity
Ġcompos er
ĠCE O
iv als
Ġpost er
Ġsc oring
u y
ĠA h
ĠLew is
B E
Ġreturn ing
Ġext ent
Ġcirc uit
) [
ĠN ever
sh ot
ĠC ost
ĠT el
Ġb ed
ĠTown ship
Ġjud ge
Ġsch olar
ok es
s quare
Ġalgebra ic
Ġuniform ly
Ġt aught
inv ariant
Ġk ick
IN T
Ġst ages
t ree
ill ery
l ib
im g
P at
Ġwe ather
Ġnormal ized
A ction
ĠP ier
ĠN one
aw n
Ġstrateg ies
Inst ance
}$ \
ĠH al
Ġh alo
ĠL ear
Ġv ent
cl ine
Ġsc ores
ĠR oss
R eturn
ĠTur key
ĠOb ject
Ġelect rons
_{ +
ĠL ocal
n ight
back slash
T O
her ical
Ġm ist
16 0
ĠM unic
G P
ĠSta ff
ipp ing
Ġperiod ic
Ġw ins
Ġinvol ves
H om
Ġprodu ces
Ġw arm
ĠF ourier
Ġt ang
19 23
Ġregister ed
ul ing
ĠL ow
Ġbel ief
ĠMiss ouri
Ġset up
ĠI S
sy mmet
Ġh air
&= &\
Ð º
ĠT urn
) </
ĠRep ort
Ġco oper
Ġthan ks
Ġconn ections
ĠM L
Ġh all
Ġsim ilarly
og ram
Cont ent
ĠIn n
su ccess
s d
Ġp ip
c are
Ġm el
rest ling
o is
Ġarrest ed
ĠF ellow
Ġse vent
Ġopp osed
Ġfund s
ĠSh ort
Ġcont ribute
S te
Ġhot el
Ġocc asion
Ch rist
Ġport ray
Ġclos er
Ġkn ew
ĠO s
Ġhapp ened
ĠSupp ose
ub b
Ġse ed
Ġexec ution
Ġparam et
Ġquadr atic
19 15
ĠO cean
Ġw avel
Ġfl ood
force ment
- (
pl om
{ |
N av
Ġdeg ener
U nder
ad ed
Ġ{ };
Ġdistrict s
ĠA rizona
| $
opt ion
ĠT ro
Ġsk y
Ġperspect ive
& &\
us hed
R ev
ĠE nt
osc ow
ĠOn ce
ĠM un
Ġprodu cing
12 3
ĠW at
re present
ol is
ĠH ou
ĠN ick
// /
Ġf estival
fin ished
Ġs an
tain ing
p ed
Ġcomm it
Ġal ter
Ġform ulation
LA SS
ĠCol on
ĠA z
m al
ĠSt ory
Ġmet all
ĠL ind
Ġlo an
ĠH om
ĠP eak
uz z
id ge
ĠMon te
ic ate
Ġhoriz ontal
ĠHigh way
Ġtw enty
S F
ĠP M
ynam ics
ak ed
Ġcollabor ation
A g
Ġm ask
Ġin clusion
Ġjournal ist
ĠSer b
Ġc as
rom agnetic
ject ure
ĠMary land
Ġpl ate
ĠH ur
Ġderiv atives
h s
Ð »
Ġillust rated
cl osed
Ġs ell
R ad
N C
W est
ey n
ĠR et
arg ets
ĠM iller
Ġthrow s
\! \
com b
w estern
RE F
Ġpre tty
ĠLe on
j ust
ram ework
ĠBro ther
Ġpartners hip
Ġabsor ption
ĠD M
$ {
Ġmov es
ĠG ib
E ach
B efore
Ġresist ance
' _{
Ġneutr ino
down arrow
Comp onent
Ġtop ology
is en
ĠEnter tainment
Ġhe ar
ĠM ap
Ġmetric s
ĠA mb
Ġand roid
Ġn ob
Ġwin ter
ĠTw itter
Ġrespect ive
ĠK a
ortun ately
Ġgu ard
el ian
ĠC ab
) (\
i Ã³n
ens is
Ġro y
ĠC ru
ĠG h
f a
Ġb odies
but ton
or row
A wards
ĠB arn
Ġv ision
Ġind ependence
enc ing
B el
ÃŃ a
Ġprec ision
ut her
Ġd ensities
Ġvis ited
Ġtrans verse
ĠD ark
spec ial
w hen
Ġtra ins
Ġst ead
g ather
{ (\
requ est
G en
L ocal
Ġstrict ly
f ind
Ġdiff usion
ĠNor way
ĠSur vey
Ġb ought
r ations
Ġwe alth
\| _
Ġmedal ists
Ġdef ines
ĠT ennessee
ars er
Ġmodel ing
B R
< !--
t i
M ost
ĠT ransport
if est
Ġext reme
ĠM as
Ġaud io
Ġhapp ens
Ã¼ r
Ġw ish
Ġprec ise
etail s
on i
f riend
Ġf itting
c ard
ĠR E
m atch
N ull
ce ived
Ġg overnor
> >
Ġvary ing
Ġuncertaint ies
Ġfill ed
Ġbig gest
Ġsol ving
Ġanaly tic
Ġb low
. ;
ĠM ir
$\ ,
) }.
itzer land
@ {
Olymp ic
ĠI R
A nt
Ġ ..
ĠCh ildren
Ġunder stood
app end
ffic ial
Ġsens itivity
ĠMem orial
ĠHar ry
ĠK han
Ġstraight forward
Ġcontinu um
H er
$ ^{
V is
Ġcru cial
Ġat oms
Ġsched uled
ĠAff airs
Ġpaint ing
Y PE
ers et
iem ann
Ġad vent
ĠFore ign
ĠMel bourne
ot on
$ ^
ound ed
Ġoppos ition
Ġneg ot
form ing
Ġca ref
ĠInst ead
Ġinst ances
I O
Ġp ed
ob serv
H igh
Ġcrim inal
Ġsupport s
ĠT ai
Ġsystem atic
Ġhom ogeneous
D irect
and y
Ġsimultane ously
Ġdr iven
ĠJ ordan
ĠA PI
ys ical
ĠS ign
com es
edd ing
G M
Ge V
ĠJew s
du ces
Ġdom estic
ĠM C
Ġoff set
p red
bin om
Ġc odes
Ġd oll
l iving
Ġgu ide
rac ks
ĠCh annel
Ġinvestig ated
V ER
ile y
ĠUk raine
Tr ue
ĠJun ior
ĠEn vironment
ĠPr inc
J apan
Can adian
Ġa id
In it
Ġneigh bour
Ġro ots
k ov
ĠB et
Ġpres ents
rins ic
ĠF ederation
T A
Ġprogram me
Ġso le
ĠC are
ant e
Ġhy brid
ann er
Ġjob s
ĠAn y
Ġadapt ed
id en
Ġres c
ĠV o
arri er
ĠB efore
ov en
Ġsent ence
Ġoccup ied
we alth
Ġp ot
ph ase
ah oma
Ġ$ ^{
Ġtrans itions
ĠMex ican
it udes
P RO
pro ject
U C
ow nt
ĠDon ald
ĠE ric
Ġde viation
Ġlin ked
Ġpass es
ant asy
ĠD or
Ġs ale
Ġto wer
Ġd im
Ar ch
Ġgu est
ĠAr k
Ġ elli
ativ istic
s es
Ġrelationship s
Will iam
Ġcred it
Ġiter ation
ĠComm unic
ĠN orm
ĠK at
Ġin tern
han ced
d on
00 1
Ġscen arios
L ink
Ġcross ing
c raft
Ġkeep ing
ĠF ront
aw s
Ġc risis
Ġimmedi ate
Ġpop ulations
' d
M c
ĠB rand
Ġcont ribut
Ġdecre ases
Ġconvent ional
} /\
ĠU l
Ġarg ued
r ates
} );
Ġpart ially
Ġs ac
ot ional
Ġthe atre
um a
Ġaccount s
ĠMag azine
inc ial
Ġre nd
mult line
ĠR ose
R uss
Ġinst alled
pro pto
19 13
k ern
Ġprep ared
comple te
Ġcrit eria
ĠMod ern
Ġth read
Ġpan els
sh ort
Ġpre ced
}. }
Ġv ot
Ġ }}
m o
ĠRepresent atives
up arrow
ĠBuild ing
Ġ\ [
Ġc ub
ag ues
ic ial
w ich
Ġscen es
w all
Ġan imal
Ġbur ied
k g
re a
ĠI l
Ġrac ing
ĠBase ball
ĠConn ect
ĠW ed
Ġbound aries
the w
ymmet ry
ĠAm ong
Le ft
Ġalleg ed
Ġorb ital
à ¥
cl ip
ro it
ĠSim ilarly
Ġexpect ation
Ġver ify
z ing
ĠB at
}) ^{
Ġprot est
L abel
Ġenc ounter
Ġrepl acing
w ick
ĠS ound
foot notes
Ġgener ator
Ġdesign ated
Ġm and
Ġre aching
Ġjourn ey
Ġf ib
AT ION
Ġf old
ĠT oday
Che ck
Ġregard ed
ĠG reg
Ġorth ogonal
cul es
Ġhom es
D ep
ag an
ĠB urn
ĠN FL
ĠR oy
ĠP itt
osp it
Ġop inion
B ibliography
Ġm ent
Ġag ency
ĠE P
ĠLag rangian
Ġbelong s
O ptions
aw are
ĠAl gorithm
*} [
ĠI owa
ubl in
Ġorient ation
Ġch a
L ife
ap el
Ġhum ans
T em
Ġident ification
Ġair port
T ax
Ġqu ot
ĠP ur
Ġhoriz on
ĠMal ays
Ġ" ""
Ġencou rag
col n
footnotes ize
col l
Ġperiod s
Ġdomain s
kl ahoma
ud den
Ġclass ic
Ġsy mp
Ġn aturally
h ave
ĠN AS
ache lor
ic ians
ill ed
Ġreason able
ĠV iew
ĠMan chester
ĉ Ġ
Ġm ount
ab et
M ain
Ġirre ducible
M D
Ġch airman
ĠM it
param eters
ĠM oscow
Ġhor se
up date
Ġpil ot
ure au
Equ al
ivers ary
] ^
Ġdist ances
" ]
Ġent ang
Ġg ene
Ġdec or
Ġad vers
Ġdefinition s
ĠE vent
ĠE s
Ġv ocal
Ġcap able
20 23
Ġthous ands
Ġ- --
en um
ĠViet nam
Ġcho ices
struct ure
ĠS oc
he red
s ort
Ġrapid ly
ĠHol y
Ġresear chers
ĠC R
w as
ar o
ĠA ge
Ġcaus ing
ĠO ak
L eg
Ġmod er
Ġattempt ed
Ã© s
Col umn
Ġsche mes
su it
ĠS P
ĠSim on
Ġexperi enced
F ONT
erm i
Ġw ire
Ġlook ed
d est
Ġtempor al
Ġch ose
id al
ĠT ony
ĠC ook
) ).
Ġv irus
ĠFre der
X X
Ġnom inated
ee per
13 0
ĠB or
inem a
text sf
ac le
Ġprofess ion
Ġn arr
ra it
us cript
ĠL iter
pro duct
ex ists
im ation
Ġatt ached
ĠHot el
ĠGu ide
Ġstrong er
H on
ĠExec utive
Ġrestrict ion
al ing
ab ama
W S
form at
F actory
ĠJ ane
Ġvill ages
ĠCor ollary
Ġb ronze
Ġrequire ment
Ġen able
ĠS ix
Ġstudy ing
ĠI mp
r ine
ĠM A
ail ed
Ġl ists
cer ning
Ġbeaut iful
ĠN E
ĠS em
olog ists
l an
Ġre ward
Ġan not
Ġdown load
Ġm eta
Ġappear ing
Ġpract ices
Ġautom atically
. $$
Ġd ream
Ġpolynom ials
Ġweight ed
pl an
ple x
Ġg ar
ĠS quare
gl as
Ġform ul
ĠAl bert
ues e
up le
f ilter
eb ug
ĠB rian
pt r
Ġ{ }
Hand ler
th ick
j son
Ġheav ily
Ġcomb at
head er
w ill
l ie
Ġloss es
Ġst ret
Ġstar ring
ĠF ac
function s
$\ \
Ġsp here
ĠOffic er
E uro
orthe ast
Sport speople
ĠW olf
ĠGree ce
Ġprom ote
ĠN et
ĠD E
pl us
T oken
M O
ĠB os
ou ch
S ources
Ġdescrib ing
% .
V ideo
M F
small skip
19 11
du ate
it ory
ĠB alt
ĠF ood
en ance
Ġopportun ities
Ġgreat est
Ġsupp osed
ĠE U
Ġsm art
}{ {\
ĠSt one
Ġm ir
}^{ +
st an
Ġcorrel ations
im its
H O
ĠB ah
Ġview ed
V ol
Ge ography
ĠP a
Ġpol l
m ont
Ġoper ate
Ġens emble
Ġcoll ision
, ...,
Ġf er
ĠF red
Ġres idual
Ġclass ified
ict ional
? âĢĿ
er ion
Ġun s
in cess
O rig
Ġsh ut
N orth
s rc
Ġmanag ers
ĠP age
Ġg ender
B bb
b urn
f amily
Ġp lease
ous es
Ġperman ent
id ay
$ '
Ġcol ors
ict ed
25 6
out put
oc ese
ĠD ream
Ġcomplet ion
Ġe le
ib ilities
//////// ////////
Ġsec ure
Ġle ct
Ġworld wide
Ġoffer ing
ym ph
ĠSen ior
ĠS che
ĠT an
ag h
yn asty
Ġprem ier
Ġd a
sy m
Ġeduc ated
left arrow
d am
Ġsymbol s
ry pt
Ġhel ps
D esc
Ġd ry
De ath
Ġdec isions
Ġtop ic
Ġvol unte
Ġrad i
ĠDig ital
iam i
) _{\
ili ary
Ġco aches
A f
ĠG P
Ġsign ature
Ġsix th
igen ous
ĠAdminist ration
Ġw el
ĠKent ucky
ĠG R
sh ips
Ġ ille
St at
Att ribute
Ġqu as
Ġcomm itted
Ġdiagram s
ic ut
Ġsur ve
ĠMed icine
ĠN ev
iv a
P age
ĠJ am
el ve
ort ion
f n
Ġstand ing
Ġdisp ersion
Pop ulated
Ġcont ributed
Ġold est
Def ault
Ġanal ys
Ġkill ing
ann ot
Ġexper iences
Ġb ond
ĠV ideo
Ġt ack
ĠHe art
{ .
Ġsub space
cknowled g
Ġconv olution
Ġaccom mod
Ġ ~\
Ġpurch ase
U K
P res
s uper
=\ {
ĠSw itzerland
Ġcy l
L R
ĠC ode
Ġcap tain
C ON
190 8
Ġinstit ution
ĠS ri
Ġdis put
sp in
Ġat omic
Ġexcell ent
ĠC atal
ĠS n
Ġw ait
ĠM oon
onom y
gra v
Ġst abil
Ġisol ated
) "
ĠSupp ort
Ġinterest s
Ġstat ements
Ġpropos al
end ar
D T
g i
ĠG ab
n ol
se p
\ },
G E
ĠMe an
Ġread s
Ġpotential ly
Ġac id
Ġadv oc
Song s
ĠReg ional
Ġfav our
ĠMond ay
Ġbro ke
c ross
B uffer
ĠJ os
ambig uation
AB LE
Ġk id
Big g
Ar g
ĠStand ard
Ġp un
ĠG a
Ġbas eline
St ar
ĠD un
Ġweap ons
p ush
ar ma
ĠAust ria
âĢĿ ,
ir cles
Ġf iber
ul ator
Ġmay or
Ġdeliver ed
comm on
Ġrat ios
me an
ra ble
ane ous
ĠCont rol
Ġequ ipped
Ġw al
or b
Ġelect ro
ĠTok yo
j pg
ĠCon stitution
x ml
ĠB ab
Ġst ores
Ġsign s
Ġf ly
st ances
Ġdiscuss ions
ĠC ra
Ġm ort
Ġexpl os
urs day
Def inition
d epend
Ġprom pt
ĠSo ft
Ġexhib it
p ot
u j
Ġpresident ial
Ġclin ical
ĠOn line
d ensity
ĠLab our
Ġne ither
Ġm ales
Ġindic ating
od s
Austral ian
o a
Ġsum m
oy d
n m
ash i
Ġe c
H am
opy right
Ġcrow d
Ġbrother s
Ġcrit ics
p et
Ġtra v
Ġconcern ed
ĠR est
s is
Ġdesign s
Ġd ip
Q ue
Ġch apter
ĠAl i
F ilter
Ġro ut
ar on
F S
Ġdiam eter
cont rol
Ġd og
Bl ack
z i
cor respond
ĠAddition ally
G r
Ġshort ly
nes day
ray s
Ġun iqu
Ġad ult
iam ond
Ġsett led
Ġsust ain
Ġdec ade
d oor
Ġreconst ruct
Ġdrum s
Ġt rib
) ),
m aster
D at
Ġsim ulated
Ġformer ly
form ed
Ġmark ets
ag u
Comm and
ĠDi ego
Ġmorph ism
Ġdis pl
Ġthink ing
Ġplas ma
ut ation
ĠCh ile
Ġref used
à ¸
H ome
ĠR ic
er on
ast e
oc y
ee k
H D
h ab
Ġb an
7 00
ĠC ape
field s
at in
A ug
pr ivate
ĠCh all
Ġprom otion
W E
Ġexc ited
iss ue
Ġmess ages
in th
Ġd uration
ex ist
\ }.
ĠM ath
Ġs ought
Ġpro position
ĠM S
um ps
serv ice
ipp i
c p
et ry
ĠH ilbert
f ast
in ch
st atus
c ers
ĠQueens land
ĠAll en
ak ers
Ġf olk
Ġform ally
Ġdisplay ed
Ġv irt
ĠF a
un ior
Ġsucceed ed
O ct
Ġpoint ed
ĠR oll
Ġmod ules
ĠHow ard
ĠH erm
ĠR eb
Ġm ob
Ġreson ance
Ġrandom ly
Ġmechanism s
ific ial
Ġcomplic ated
ro ke
ef ined
Ġab stract
Ġfac ilit
Te levision
Ġo vers
ĠWh it
Ġ+ =
Ġly rics
Ġexhib ition
Ġf aced
ou stic
Ġch iral
Ġm al
Ġbo ost
ĠTh ird
el le
Ġsee k
Al so
ic ide
) }$.
Ġdiscover y
Ġm ental
C ap
Ġrelig ion
ct ors
ĠNor wegian
Ġcertain ly
Ġmaintain ed
Ġtransform ations
rid ges
ard o
Ġcompar able
ym n
Ġhead quarters
u able
ĠK itt
b lem
ĠW y
refer ence
Ġsever e
ov ak
ĠV ice
Ġeduc ational
ar ry
ĠS O
now ledge
erc ise
ce il
Ġin her
Ġro of
er g
ul ner
Ġpriv acy
Ġg one
V ersion
v ia
param s
ist a
h ow
ĠSe ason
F O
b c
ilt ers
ĠAl b
Ġt argets
ĠN OT
\, {\
Ġinf rastructure
ĠM and
ist ant
Ġsit uated
Ġhol es
Ġaccom pan
âĢ ĺ
th rough
Ġextract ed
ĠâĢ ł
Ġindependent ly
Ġconclud ed
ir ation
Ġwor st
ĠI r
ene z
Ġste el
L oad
Pro position
op le
le e
el son
ate ur
Ġbl og
i ot
Ġd ates
ru ption
s a
iz able
rain ian
conn ected
t ask
ĠPat rick
ĠAmaz on
Ġp m
Ġs we
Ġaccom pl
Pl ot
ed ition
ĠAss oci
Ġsol ved
P an
ch ain
Ġl ens
Ġin duction
Ġc ro
Ġch arts
az a
$ }}
Ġlik elihood
t or
} >
ĠSil ver
ĠA L
ĠDo ctor
rehens ive
viron ments
_{ -\
Ġm it
Ġcomp ens
Ġf ear
part icle
ĠDef inition
ĠC ov
Ġf itted
Ġferm ion
Ġst opped
Ġt error
cl ide
ĠG all
ĠDe ad
resp onse
ĠMar c
Ġchalleng ing
Ġimp ly
Ġcomm ander
ues day
Ġint elligence
ĠC er
Ġw onder
unn y
K E
b es
Ġanaly ze
ĠJ ay
ĠH ans
Ġjust ice
ĠMar ine
Ġsee ing
Ġaccret ion
l arg
Ġsch ol
ĠJes us
Ġcompat ible
ĠK y
Ġmin ute
Ġdef ining
ĠC ond
Ġsubject s
ĠHar ris
ĠHou ston
ĠEm peror
var rho
Ġsp eaking
Ġ ri
ta h
Ġjo ining
AR T
Ġsl ope
Ġh its
Ġstruct ural
St ep
ĠAl abama
ĠT en
Ġent ity
U M
ĠApp le
ĠW indows
Ġh ist
Out put
Ġfind ings
r ase
ĠCo oper
Dav id
Ġinflu enced
Ġs ons
oc a
ĠOb serv
Ġexplan ation
ĠF ull
Ph il
Ġent itled
cy cl
ĠAl ber
Ġdi plom
ist ration
l ad
ot te
Ġl es
ĠI mm
ol o
Ġincorpor ated
) >
enn y
Ġfact ory
ĠG ram
Ġd t
ĠWal ter
ĠO klahoma
Ġre new
Ġclos ure
ĠAnton io
Ġbench mark
Ġtraject ory
ĠPro duction
uer to
ĠEq s
Ġsimplic ity
ĠS port
.... ....
S ON
D om
roll ed
Ġmusic ian
Ġf ranch
ĠN ich
190 5
ir th
ĠPl ace
ĠHaw ai
M ich
ĠâĢ ¦
Ġag ed
Ġl aser
Ġ( ;
is ition
Ġm art
ĠĠĠĠĠĠĠĠĠĠĠĠĠĠĠĠ ĠĠĠĠ
Ġ{ $\
ĠE X
ch ild
Ġout come
Ġinput s
R ail
or ous
Ġ\ {\
is lation
al ities
Ġtem plate
f ef
Ġsh ares
st ates
ĠC A
ĠF ame
ĠN ik
dis ambiguation
Ġlaw yer
.& .&
Ġman ip
ĠMo ore
ĠD a
q l
14 0
ĠMicro soft
Ġk il
ĠN av
ĠCol lection
R T
Ġa ux
Ġrecover y
ass um
ser ver
Ĥ ¬
clide an
over y
Ġsignific ance
B ra
Ġsimilar ity
ĠLin coln
18 90
fr ont
Ġreg ression
st d
Å «
st s
Ġass embly
We b
Ġbring ing
Ġcondition al
sh ould
. '
Ġattack ed
^+ $
ĠH as
ĠCol omb
r ison
ver age
Ġgener ators
Ġre in
rack et
Ġal gebras
Ġg ather
od a
comp onent
Ġ( ),
Ġf its
and o
est ion
Ġoff ices
og g
ili ar
f act
ĠA ction
pr ise
iss ippi
oc racy
Ġdistingu ish
* /
con v
if iers
T ube
Ġt el
ram a
ud a
spec ific
ĠF arm
Ġreal ized
Ġcoupl ings
Ġh ur
ĠN ig
ĠD at
ĠHol lywood
m em
ip art
Ġstri ke
ĠU se
ch ant
Ġeigen value
writ ten
ett y
m oment
tr ivial
Ġdeliver y
ĠS E
Ġg ift
ĠR ab
ĠInf antry
ut ies
ĠV ari
Ġhelp ing
ĠS el
Ġreplace ment
Ġep och
Ġl ake
B H
ag ram
ĠTe levision
Ġelement ary
appro xim
ĠD ur
ater n
ĠS af
Ġlog arithm
ura ble
l m
Ġa ug
ĠP A
190 9
Ġcomp ris
ĠFor ces
f ortunately
Ġen emy
ĠSquad ron
ĠB eng
ĠEar l
}^ +
Ġemer gency
Ġfound ation
Ġcl ients
Ġgun s
Ġ\ }
Equ als
d em
eg et
Ġde leg
Ġeas ier
Ġbo at
}[ !
ess ions
sub equations
Ġarr ival
Ġvol t
Ġconven ient
' ).
Ġpercent age
;\ ;
prob lem
Ġne arest
ĠAn ne
m eta
Ġ\ |\
Ġinter vals
w en
Ġre vers
ĠRec ord
l b
Ġconstit ution
ĠAnth ony
Ġqual ified
Ġcompar ing
Ġunit ary
Ġs ight
ĠP rom
Ġredu cing
Ġappl ies
Ġf ought
gh an
O p
ĠE c
ĠH u
Ġcosm ological
Ġdr ivers
ĠĠĠĠĠĠĠĠĠĠĠĠĠĠĠĠ ĠĠĠĠĠ
Ġc aught
un finished
is ode
Ġj ur
ik h
St ud
Ġharm onic
Con st
âĢ ¢
Ġc av
J ust
Ġsatell ite
y ers
Ġ( ,
ĠN umber
Ġsh aring
Ġ es
}) =\
Ġsk in
Ġr anges
ĠEqu ation
ĠSw iss
get s
Ġadapt ation
ĠK am
Ġexp osure
ĠN ative
) }$,
B en
190 6
ual ity
resp ect
Ġphot ons
Ġord inary
ownt own
end if
cy cle
ĠG ard
r in
Ġv ort
ĠO tt
Ġpen alty
V er
arg o
Ġembedd ed
190 4
ĠTra ining
ro ot
ĠAg ency
n ie
Ġexec uted
re v
. (\
Ġlic ense
ĠG ordon
ĠR ow
n ik
% ,
M I
el and
Ġsche dule
M any
Ġin ference
? "
Ġrestrict ions
ĠRes ults
Ġrev olution
mid rule
Ġb rown
Ġhapp y
ĠR ight
Ġim possible
ĠE dition
ĠF all
10 5
ie val
fef efe
Ġdivers e
' ),
ĠB ureau
ĠB ry
ĠU V
Ġp rices
ST ATE
ĠD NA
Ġf ont
ri k
cond ition
r ator
ri or
Ġmer ged
Ġform ing
is ations
190 7
Ġdirect ors
Ġs oci
T im
b olic
ta x
def n
Ġh am
Ġg iant
Ġcon crete
Ġf aces
Ġfram es
Ġpain ter
= -\
ug u
V ill
lect ic
Ġser ial
ub er
L ocation
ograph ical
ch annel
ĠPal est
Ġparticip ate
Ġsh arp
Ġstation ary
ĠL anguage
d ra
Ġpost ed
ta ke
ch t
Ġus age
ĠArch itect
Sc ript
Ġtem ple
Form at
Ġang les
Ġj azz
A ng
\ }_{
Ġatt ribute
Or der
Ġt all
Ġcirc ular
Ġsu it
all as
et ary
il st
ĠF A
Ġf alls
Ġgeneral ization
leq slant
sc ription
J u
AN D
Res ource
H P
Ġassist ance
op ter
a ire
Ġv o
Ġv eter
ĠK az
Ġis omorphic
Ġincreasing ly
Ġinv ited
t ed
Ġret irement
us al
Ġhe ter
Ġdesc ript
Ġdecre asing
ĠL ank
own ed
ĠVill age
Ġshoot ing
ic ious
Ġgood s
Ġcoll apse
ĠR yan
Ġcompet itions
ĠY outh
S u
ut s
ĠExp ress
Ġa ired
b etween
B orn
ol y
Ġv oted
Ġneigh b
Ġscient ists
ĠS R
ind ependent
u int
Ġplatform s
Ġin duct
Ap J
w ho
j k
it ics
Ġman uscript
Ġcounter part
ĠĠĠĠĠĠĠĠ ĠĠĠĠĊ
Ġconsist ed
per iod
Ġrem ote
ĉ ĠĠĠ
Ġs udden
ĠBr un
aint enance
ĠP erson
big cup
Ġpublic ations
l u
ĠAl bum
ĠR iemann
Ġan isot
Ġre plic
her ic
Ġcl ock
ĠPh ot
ch anged
ab ove
Ġmarket ing
1 12
Ġleg end
hy thm
Ġsmall est
Ġpseud o
ant on
Ġsing ers
Ġmet res
ĠTur kish
ĠD VD
Ġcent ers
Ġpubl isher
Ġre aches
ĠD ick
Ñ ĥ
Ġmembers hip
ĠDis ney
Ġst ored
ĠQ CD
ĠSystem s
equ al
ĠConnect icut
Ġb ath
b x
od ox
ĠA le
Ġs now
Ġadv ice
I E
Ġcon formal
ĠSc ient
Ġturb ul
C F
Ġtransl ated
ress ive
ut r
ocr atic
ĠM i
Ġkin etic
Ġkey board
Ġhistor ian
Ġhard ware
Ġstr ings
Ġinj ured
gl obal
Pro p
E ducation
[ "
Ġn an
ĠDe ath
B U
th an
ĠK evin
Ġent rance
E p
or ro
Ġc od
T ransport
Ġlabel ed
Ġtro ub
ĠF M
ol ished
Ġcarry ing
R ow
l ook
Ġcon vention
at ivity
u ction
ĠO R
ss on
ĠA P
St r
ĠBill board
Ġl aid
am ents
Ġk ids
c ategory
ĠD ublin
Ġproper ly
Ġlog ic
Ġra in
h ist
che ll
ĠB us
es is
Ġoper a
inst ance
Ġapp rec
S k
Ġrespons ibility
R ober
ĠR y
Ġr ating
Ġren ormal
Ġrob ot
ĠDet roit
ĠCh ampions
W A
Ġb ars
V ar
ĠSt art
ĠB ox
Ġto ken
d ash
il k
Ġ{ @
Ġsp herical
GB T
ĠF inn
ah n
D en
ĠK o
Ġr u
Se lect
T ag
Ġpers ons
Cre ate
Not able
Ġpass enger
Further more
Ġt ennis
ĠC ulture
1 13
Ġupd ates
Ġbran ches
he rence
Ġsubstant ial
Ġcent uries
Ġge odes
Ġposter ior
U I
al ia
Ġch air
ĠArgent ina
Ġreve als
eg as
ĠL yn
Ġconver ges
gress ive
math tt
Ã© t
ĠI T
S ign
Ġre nt
C ref
ĠT erm
p erson
nol imits
ĠC hen
Ġroy al
li est
D ev
Ġp od
Ġst im
Ġen vironments
ĠMr s
ro b
cite alt
Ind ian
Ġse es
Ġmechan ical
ra v
re p
yth on
Ġpix el
e ast
ĠL am
re tt
Ġmathemat ical
P aul
ig ious
ors es
% %
Ġsurn ame
Ġconn ecting
or ient
] =
Ġs leep
Ġb irds
ĠChe m
Q L
supp ort
s em
Ġun us
ĠP ed
ĠN atural
Ġrow s
Ġp ione
Ġemp irical
ra ce
i eg
ĠMat thew
ĠTem ple
Ġatt raction
Ġfe as
ĠN ag
Ġrestaur ant
im ore
Ġm m
s n
ps hire
l ades
Ġ Ä
ann e
D O
fl at
Ġinter pol
ĠHer itage
ĠCommon wealth
ĠS in
sh arp
ĠPh ill
Ġh al
st e
Ġre jected
ĠE ag
ĠDou glas
Ġannoun ce
Ġsit uations
requ ency
Ġ url
ĠT reat
Ġeven ing
\ [\
Ġwhen ever
D el
p ers
Ġsh op
back s
Ġch urches
ig e
Ġliter ary
ĠL as
Ġwindow s
Ġsp an
11 1
Ġconsider ation
B ecause
Ġinh abit
b ey
ren cy
Ġphot ograph
Ġcerem ony
Ġcomp lement
l oss
ĠTh ough
Ġgrad e
Ġr uled
ĠQue bec
ment ation
}{ }
ĠV in
in burgh
Ġamplit udes
Ġacc um
ater ial
1 15
Ġeng aged
j u
level and
V ari
l at
Ġvari ant
Ġsepar ately
ĠF le
Ġs occer
ĠC NN
an ia
ĠSing h
Ġconcept s
Ġpoet ry
ear ing
Ġra w
place ment
Ġfound ing
Ġre tail
ĠM iami
Ġeng ines
Ġfun ctor
ĠD ave
Ġanc est
ĠE arly
ĠH ockey
th ree
Ġinterpret ed
Ġabund ance
ĠB uck
Ġtri es
Ġb ary
ĠB ou
ĠR ub
im pl
Ġw arn
ĠIsra eli
Rec all
ol id
ĠMay or
}} ,\
Ġdis establ
iv ation
Ġacc used
int end
Ġinfl ation
ĠBelg ium
ĠIslam ic
ĠPo isson
Ġaver aged
Ġbuff er
K S
Ġres id
Ġorb its
ĠHon or
b ad
Ġregular ly
ĠTai wan
ĠStud ios
ĠCom b
ĠCont in
Ġdeb ate
Pro t
m outh
T ask
rem ove
red it
Ġestablish ment
ser ies
F ootball
ĠAl ice
Ġcon e
190 1
ĠS ep
ĠP rix
F inal
ĠSt ew
ĠF ermi
ĠP ack
Ġrecover ed
ĠBatt alion
CO L
v y
Ġmov ies
Ġinst rum
ĠLa ure
ut or
ann y
ĠH ills
Ġr ival
Ġpresent ation
Ġcompet e
Ġinstrum ents
J o
am an
^* _
N L
is ons
ish ment
ĠA C
y cl
ĠDen mark
ĠL ev
Ġpropag ation
Ġle af
put ation
oid al
ot he
u h
_{ [
Ġconsum ption
ĠDef ense
Ġdis miss
ĠNew ton
ĠC LASS
ĠMot or
aw ay
Ġfl o
Ġpeak s
Ġatmosp here
m ag
val ued
: "
ĠCar lo
Ġcommission ed
con tainer
iss ance
sh ape
Ġaband oned
Ġs elling
il ine
ĠN ob
ĠĠĠĠĠĠĠĠĠĠĠĠĠĠĠĠĠĠĠĠĠĠĠĠĠĠĠĠĠĠĠĠ ĠĠĠ
Ġst ating
ers hip
t im
Ġm outh
ĠC ow
s burgh
P ack
ĠWed nesday
Val id
Ġamount s
in ces
ĠG arden
190 3
Ġmin ing
Ġcon cerning
Ġdec ays
ĠC op
pre c
M ilitary
ĠCon c
ir i
I B
e ach
Ġro utes
w t
\ /
Ġde vi
oc he
ĠLic ense
Ġsport speople
ent ity
ĠMc K
ĠAd vent
b ul
Ġab use
Ġsub section
S ur
ĠK ur
Cl ub
new line
ĠR ound
our se
Ġspac etime
Ġdepict ed
Ġleg islation
H y
Ġde pos
let ed
at en
Ġres erve
be an
ĠD al
v as
Ġinter ference
ĠT ext
ific ate
ĠMiss issippi
d ashed
ĠF ried
Ġatt orney
Ġwa iting
Ġhead s
Ġb id
V M
d ocument
ay an
dom ain
Ġestim ator
Ġdeterm in
ab ric
Ġb anks
ĠW ard
ĠArm en
Ġin aug
tt p
Euro pe
ĠEconom ic
ĠP ear
D own
Ġcon version
h av
ĠL ang
Ġtouch down
Ġcom fort
per ature
nt z
ĠI P
Ġd ies
ĠD ak
ĠBrig ade
Ġl ose
ev al
Ġf lying
Ġ ),
Ġcorrespond ence
ĠN aval
Ġexp ensive
Ø §
vious ly
Big l
cast ing
ĠLouis iana
f all
ĠH REF
Ġro oms
mod ules
| _{\
ĠP as
Ġfil ed
ĠAN D
ĠCro at
Ġmed icine
Ġen hanced
Ġcoll isions
Ġa f
Ġin vert
ĠD aily
Ġt ropical
ail and
Ġtop ics
ĠY ang
Ġstead y
text normal
ĠF ern
ĠOr th
d rop
Ġcom ic
Ġtri angle
Ġa er
( &
Ä ĥ
ĠTh ursday
ĠK l
190 2
ex ec
Ġspl itting
ĠPortug uese
b ach
Ġne ur
Ġt unnel
ĠInd ependent
Ġcre ative
ubl ished
Big r
Ġreal istic
ol ly
ĠL INE
ang el
Ġteacher s
ĠMark et
Add ress
Ġatt ributes
ĠP ot
Ã ¥
Ġrecomm ended
ect ure
Ġte en
ate ver
Le vel
ast s
Ġ à¤
ĠĠĠĠĠĠĠĠĠĠĠĠĠĠĠĠ ĠĠ
Ġd uty
} <
Ġfle et
du al
Ġis lands
oun sel
Ġc ircles
Ġar ise
om as
ab ad
i ability
ĠDi rac
est yle
Ġland scape
ĠE mer
ĠNC AA
Ġman age
Ġcour ses
R ich
al ed
ĠP ap
Ġp itch
ĠS ud
Ġpl otted
}{* }{
ry st
Ġpl ots
d z
Ex ec
Ġocc as
ĠS ite
ap olis
Ġneut ron
S an
ĠR ick
ed u
Ġturn ing
Ġcut s
18 80
Ġknow s
ĠJu an
U psilon
Ġh a
not in
c ounter
Ġprob abilities
ĠC S
Ġinteg ers
M us
An y
Ġtalk ing
Ġtechn ologies
b its
Ġpaint ings
p he
ĠAl an
ĠN ash
oth s
Ġcontrad iction
ordin ate
ĠH ug
Ġco herent
Ġhundred s
Ġh un
old s
M al
ak s
Ġmer ger
ĠCh ild
Ġhigh way
Ġcompet itive
por ated
Form er
Right arrow
ĠC emetery
ĠAn alysis
inc or
d ale
ct ic
ĠP uerto
iver pool
Ġt ank
ost ic
ĠTer rit
Ī Ĵ
ĠPortug al
Ġpr on
Ġcan cel
T ypes
ĠYou Tube
Ġsy nd
N P
ĠF il
Ġst adium
st ud
Ġre cept
m f
Ġcrick et
Ġguarant ee
\, ,
Ġcho osing
B ur
off set
Ġpres c
r g
Ġslow ly
Ġsym pt
Ġtrans action
Ġbo ys
Ġroad s
;" |
ter ior
Ġweek end
Ġloc omot
ĠCap ital
A v
Ġseg ments
b ow
}\ ;
f ather
Ġb inding
bel ow
M a
F amily
Ġd iversity
Ġvictim s
ar ial
in ian
anc ell
M arch
Ġaccess ible
Ġn a
Ġrema inder
Ġag encies
Ġcount s
Ġdec ide
Ġw aters
ĠP ay
)= (
ey l
Ġde put
b d
ra ise
Ġd war
Ġon going
ĠPl ayer
ĠMark ov
s v
l ayer
ĠWalk er
UR L
ĠHar vard
p y
ad er
ĠL anc
' $.
Ġm ine
M ac
Ġtr unc
Ġast ron
oun ced
Ġconsider able
alax y
et o
d ouble
em en
ang ers
i ac
ĠE ver
sing le
el lect
. },
or f
Ġpass engers
Ġf ul
Ġl it
H A
Ġinv ent
ĠAtl anta
Ġdifficult y
} ~\
Ġc raft
ĠM os
Ġh ired
ĠZ e
ĠS everal
Ġassoci ate
Ġrank ing
ĠF ri
Ġapplic able
ĠBow l
ma king
M ode
Ġat om
Ġstre ets
Ġperturb ations
Ġe gg
B as
ĠUn it
v ect
E very
Ġn ice
ĠLaw rence
Ġre venue
Ġ[ ]
at ched
U pdate
l ate
Ġcool ing
Ã ´
Ġneg lig
Ġf ault
um in
Ġcustom er
F P
Ġclust ering
Ġp ulse
ic i
Ġgrow s
List ener
ĠN ame
ĠT ar
Ġgu ess
Ġmanufact uring
OR T
ĠRes erve
ol ph
Ġphil osophy
ĠT uesday
ĠIndones ia
Ġ ^{\
Ġdis contin
re pre
ĠCom mer
or ia
Ġiter ations
}} )$
Ġv ast
Ġut ility
Ġphot os
orig inal
Ġd ating
Ġgreat ly
T P
Ġnormal ization
g on
ĠH um
bound ed
3 60
osl av
ar ation
ather ine
Ġfin it
red ited
int ro
Ġconserv ative
& $
ĠE instein
D et
ĠEd inburgh
Ġp ump
D I
ĠPhil ip
Ġ* *
Ġv ulner
Ġphenomen on
H M
y ll
ĠKel ly
Ġint rinsic
ĠTr ue
Ġwhe el
ph an
Ġfin ishing
u ity
Ġch ampions
o i
Ġsp end
Ġins urance
ch arge
Off set
the ory
' )$
ĠT R
r Ã©
ren a
J ames
Ġfact s
ra k
ĠBrazil ian
ĠWh y
Ġfeel ing
p otential
Ġadm its
Ġgradu ate
ĠP ope
Ġp y
' }\
Ġre ign
Ġsur gery
ĠD anish
lem an
' =
periment al
W rite
am ps
Ġbr ings
Ð ²
Ġfavor ite
Ġdis order
L ength
f ly
ĠLINE AR
uch y
Cont roller
Ġass ault
D L
R oman
Ġaccompan ied
Ġhost s
Ġexpl ains
ĠF uture
Ġent ering
l ayout
ĠS S
Ġs oul
az e
ĠB uff
Ġdraw ing
Ġd ress
13 5
ĠSoc orro
ig m
Ġlist en
Ġj unior
f ol
Ġrecord ings
ĠSam uel
}} =\
repre ne
ĠA BC
f our
Ġanaly tical
hip s
Ġcl er
C V
1 17
det erm
o es
| _
ob i
10 2
| =
Ġprinc iples
Ġf ruit
Ġwe ar
ug s
Ġacc ord
ĠDe ep
b oth
pert urb
Ġenter tainment
Pro cess
se a
S pe
om p
Ġan th
Ġoper ates
Ġ! ==
}_{ {\
Ġtri ang
ib l
ĠP y
oid s
ĠLiber al
ag ger
Ġmole cules
ĠAb d
Ġperform s
ĠChe ck
Ġdrug s
Ġcrit erion
ĠA GN
or er
ĠL ib
Ġground s
ac on
Ġarr ive
Ġwor se
ick ing
Ġvan ishes
over ty
ĠMc G
O K
f iles
ploy ment
Ġp ole
est im
st ery
Ġvalid ation
e ch
ov ing
ĠP S
as a
pro fit
ĠArk ansas
Ġst ood
os ph
ĠA I
Ġsecret ary
cent ral
Ġa cknowled
M ajor
Ġproced ures
Ġinv asion
Ġvol umes
ĠMor gan
Î ±
ul um
re nder
coh ol
Ġ} {\
ĠB art
fra red
el ines
esc ope
ĠSe attle
old er
Ġanalog ous
g iven
L in
) |\
dist ance
Ġadm itted
Ġstri p
Ġsyn chron
Ġkn ock
Ġo x
ER R
Ġd il
ĠAll iance
) &
rosc opic
Ġmid field
Z E
Ġhydro gen
on na
class es
ĠB ush
Ġproject ive
1 14
ĠM aur
ĠAf ghan
g ame
\| ^
Ġcor onavirus
Ġmarg inal
res ol
Ġed ited
Ġval ley
B P
ĠRes p
ed ing
Ġterm inal
ĠVol ume
bor ough
at ar
Ac adem
Ġcomp ilation
ĠI ron
Ġ }$
lear ning
g ment
ĠPe ace
tem plate
Ġexp onent
ĠL ook
ut ely
Ġcy cles
)} _{\
_ .
ĠF ive
ĠR ace
Ġhe lic
s ong
Cont rol
ens ively
Ġcent ered
ĠF ile
Ġround s
Ġc ards
f inals
im ir
enez uel
ĠSar ah
et he
l ights
ĠIm perial
t b
ĠP eters
n etwork
Ġcomp rehensive
AL L
Ġprefer red
Ġback ing
A ccess
Ġb on
Ġbelong ing
k it
at ics
ol as
Ġgl ob
ĠC urrent
ail s
Ġtw elve
Ġpri ze
Ġcollect ive
d ied
Ġrel iable
Ph ys
Ġsound s
ra ud
F lor
Ġaim s
m ay
ho le
Ġint ent
P ass
Ġh ospit
N ames
Ġarm ed
h al
or us
mathbb m
Ġsc r
man ifold
$ _{\
ĠM ission
Ġfranch ise
Ġ$\ |
Ġsh r
l ay
v dots
Ġn ick
ff ee
Ġpres erved
Ġatt ributed
K e
az ines
Ġsens or
m illion
}. \
Ġs s
Ġsing ing
ĠT rad
ĠL O
Ġprodu cers
Ġanaly zed
Ġland s
Ġt um
Ġimpro vements
Ġcollection s
Ġtri ple
Ġtrack ing
t otal
Ä «
18 98
t ically
s ite
Ġaff ine
sub stack
Ġsubset s
et ric
En c
U P
Ġseem ed
ĠI ss
ĠT rade
Sc ott
Ġtraject ories
}) )
ĠOr chestra
bar a
Ġgr ass
Ġim aging
Ġarg ue
asc ript
ĠPro cess
ĠMont real
Ġin g
Ġarrang ed
og y
ĠB ased
Ġmat ters
l ined
~ (
Ġdesign er
erv ised
Ġrec urs
Ġvis itors
con c
ibr aries
ist ically
Ġdiss ip
re nd
overs et
Ġc ash
ĠMalays ia
pr im
init ial
er as
Ġ{ {
Ġd y
Ġcov ariance
. }\
Ġunivers ities
G reen
Ġp ray
s ome
Ġpro hib
Ġhe aring
ĠC it
lim it
ĠAg ric
ĠR ot
' ',
ur ers
Re ception
Don ald
rand om
' $,
Ġtrad ing
ĠB ull
Ġb its
E st
ĠC ON
Ġintrodu cing
ĠBru ce
Ġcast le
ĠA S
ÃŃ n
! "
ĠK ir
ro d
Ġgrow n
ĠU tah
)} =
Ġpre v
ĠUnivers e
ro se
Ġb are
u is
Ġactress es
ĠIm age
ho en
Aug ust
Ġst uff
Exp atriate
3 50
ĠPal ace
Ã «
Ġprov en
Ġvolt age
ĠD ie
Ġdis cret
Ġme ets
ĠCh airman
tri angle
ä ¸
Ġdis joint
Ġsp r
cc c
ĠAn na
plic it
ter y
ab out
ĠFin land
ĠP aram
Ġex ercise
Ġres idence
Ġf ired
ĠE ff
Ġste am
Ġorder ing
ĠP DF
ĠEx pl
as et
Ġv oting
Ġtri als
Ġenc oding
ĠN ic
ĠOb ama
Wh y
Ġex port
B r
comple x
18 99
ok ing
Ġinvol ve
Ġoccup ation
Ġv eget
cre en
A cknowledg
ĠWe bsite
ke ep
Ġc reat
G s
an aly
b ridge
Ġtransform ed
Ġpro sec
f ire
Ġco hom
reg ion
Ġin ternet
y stem
Ġinst ruct
N T
f am
ac cess
ok ed
qu ir
b one
h arm
Ġtru ly
sh op
Ġcontroll er
ill o
Ġsee king
com ment
Ch ild
Ġre ly
h us
ĠO d
v ance
ĠBang lades
Ġmov ements
Ġtherm od
ĠK ings
re ement
}, {\
Ġproject ed
end ment
at hered
Sp ace
ĠN eg
Ġk inem
ĠLeg islative
h alf
ĠEu clidean
B er
ple te
Ġsp arse
ent er
Ġweak ly
F ran
J une
ord ered
Ġref lection
Ġref uge
Ġout comes
ĠF al
M art
in ates
hy per
Ġrel ief
Ġso il
Ġanim ated
G O
an alysis
ĠÃ ī
ĠLie utenant
ĠA ccess
Ġre verse
Ġwavel ength
Ġdistingu ished
Ġoverl ap
ĠPubl ishing
ĠAust in
Ġk it
Ġwas te
ĠTh ailand
ĠBo ys
ĠSm all
Ġj unction
Ġfam iliar
ĠT O
Ġph on
ĠW here
ĠH ell
Ġexp osed
Ġreport ing
Ġann iversary
Ġas sets
Ġg ang
< ?
ĠHistor ical
Ġmix ture
ĠDe an
Ġe cho
Ġtot ally
Ġrece iver
ĠAuthor ity
Ġmiss ed
Ġinhabit ants
10 4
Ġapparent ly
s ample
Ġb oot
ĠP un
18 70
Ġin hib
ith uan
att r
L o
par se
Ġm ic
Ġfew er
Ġexpert s
Rec ord
}) -
Ġen ables
ĠSh ah
ĠF isher
Ġsp ending
ass ador
ĠT ig
Ġch ains
g ood
ĠAd ams
um ar
ĠW ol
xy gen
res ource
Ġsurpr ising
ĠD ance
Ġear liest
Ġowners hip
Ġread ers
ĠC ensus
Ġ{ {\
Ab out
i at
ĠS ac
ĠN ep
i op
Ġtem porary
ĠWork s
ĠRog er
ĠAr ray
am l
Ġmonitor ing
Rober t
Ġc ited
ĠM D
Ġaux iliary
nav bar
b ib
ex pl
Ġcr ash
b uf
, .
B D
ĠD ub
Ġde formation
Ġl engths
ĠM Ps
Ġex it
Ġg arden
ĠFreder ick
ĠP ut
Ġweek ly
op ed
Ġmy th
Ġexam ine
Ġassign ment
ĠCh amber
Ġquot ient
ĠYear s
Ġeth nic
ĠB etween
f inite
ĠChrist opher
It alian
le ased
ĠF ight
Ser ver
Ġsem antic
, ~
Ġprob e
Ġcommunic ations
ĠM agn
g ate
Ġcomb ining
Ġconsum er
ĠSchool s
riev ed
Ġsuper ior
Ġinf o
Ġd ynasty
Ġmay be
Ġac oustic
Ġcorpor ate
w s
ĠDep uty
U V
ĠGirl s
}\ !
ack s
ĠP R
Assum e
Ġfocus es
Ġille gal
Ġcour ts
ys elf
ĠPr iv
Ġrequest s
Ġhom omorphism
Ġpublic ly
Ġimplic it
lead ing
Ġ$ $\
Ġdeterm ines
ĠThom pson
Ġnorm ally
uk i
ĠRuss ell
Ġline arly
ma ker
Ġcould n
ĠSpace watch
Ġres igned
ĠLear ning
sh aped
let ion
ĠP ath
Ġagric ultural
Ġval uable
Ġbatter y
v skip
l floor
R ange
iv ated
ang o
ĠL iverpool
Ġr is
ĠC leveland
C ache
Ġpubl ishing
g rid
id ance
ĠP ref
Ġun stable
H istor
Ġcomb inations
18 95
Build ings
ĠW ang
ĉĉĉĉ ĉĉĉ
g ot
ant i
Ġcorrel ated
ĠComm ander
r h
c oupl
f il
Ġathlet es
}_{ (
aud i
ĠL ower
Ġun like
Ġpix els
an im
Ġful fill
ĠD ate
Ġt ied
st op
Ġinst ability
18 97
it ud
ĠĠĠĠĠĠĠĠĠĠĠĠĠĠĠĠ ĠĠĠĠĠĠĠĠ
Ġillust rate
ĠE ss
Ġfac ing
Ġconsequ ences
AC K
ĠP ad
Ġwrit es
stand ard
: (
A pril
Param eter
ĠR equ
bt n
Ã ł
ail ability
j ar
`` `
ĠLim ited
ish ops
ĠU E
Ġdesc end
Ġadvert ising
const ant
Ġun ity
But ton
Ġresident ial
ĠStew art
Ġsynt hetic
d ers
ov ed
Ġdedu ce
ĠL ane
ĠAssum e
Ġconsist ency
Ġrequ iring
Ġm aintenance
Ġdef ensive
const ruct
irm ingham
n est
Jan uary
ĠF el
n ed
Ġdou bt
ĠR ain
as m
Ġcorrect ly
h ai
Ġpopular ity
Ġprov es
Japan ese
Ġhyper bolic
ip her
Ġpost s
ĠH D
Ġc ache
ĠO k
Ġadd ressed
ĠJ e
O h
et ition
ĠJoh ann
O fficial
Ġb atch
Ġg rey
Ġtransport ation
ig ate
Ġprepar ation
Ġcl ar
pl er
18 96
Ġoutput s
ĠH ad
r floor
Ġs ending
Ju ly
Ġre tained
ĠD allas
ĠDom in
Ġlat ent
Ad dition
Ġcircum stances
10 3
Ġsuper conduct
ĠB ed
Ġput ting
E lect
Ġexpl oration
Ġrece ption
ĠC rown
Ġsp oke
Ġne uro
i est
ĠM es
Ġv ic
int o
B N
á »
HT ML
incor porated
Ġmet ers
ĠR an
L M
ab i
Ġlif etime
ia h
Ġpure ly
en z
ann on
Ġmar ine
pol y
F rame
ab olic
Ġnot ably
EE E
Ġassess ment
Ġrac ial
Ġresol ved
ĠStr ateg
ort on
ĠDemocr ats
b efore
ĠNever theless
Ġcryst al
Ġinf inity
Ġfrequ ent
ĠBl ock
Ġdecl ine
ĠG ill
ĠAtt orney
ĠÂ »
st ers
ial og
ograph ics
\| _{\
Ġin duces
ĠH orn
H R
Ent ry
Ġarch ae
Ġbe ar
Ġr anging
sp eed
Ġnon zero
ĠUk rainian
ĠF ro
P RE
] ^{
Ġschol ars
m arg
i ere
Ġfail s
l ass
Ġgener ates
Wid th
Ġcontinu ing
cons ider
Ġhead ed
ĠV ik
ST R
Ġformal ism
#### ####
ri el
Ġoper ational
P al
F ix
Prov ider
i ors
25 5
Ġappro val
she ll
ĠMet ropolitan
Ġveloc ities
w ords
Pro ject
tri ang
Ġconst rained
Ġgu ilt
Ġvar ies
Ġcon jecture
an ies
Ġrest ored
Ġb ases
hold er
ĠVi enna
v able
b est
ĠH in
in ement
Sim ilarly
Ġt ens
Ġoff ensive
Ġsurv ived
D ocument
k ar
Oct ober
Ġre act
ob a
Ġm ilit
a ired
ĠE dd
ĠN ap
) |^
ĠKn ight
ĠR io
Ġt ends
ou ver
Ġhor ror
Ġ$ <
}) _{
ren ew
= {\
Pro duction
S earch
ĠOper ation
ĠU pper
onom ous
ĠC arn
ourn ament
ĠBalt imore
ĠCamp bell
equ ival
B F
l ift
se par
return s
ĠN eb
ĠW oman
Ġequ ally
un ity
ĠMarg aret
Ġh ill
Ġcre ates
Ġchild hood
Ġdam aged
G G
ir ates
ĠMe V
Ġse ar
9 00
ĠA y
Ġcompet ing
ĠMar ie
E Q
umer ical
IG N
sim ple
dist ribution
Ġsevent h
n amed
Ġpra ised
Ġthere by
it ol
Th rough
On ly
ĠPitt sburgh
Ġfl oat
ĠHung arian
Ġ& $
ĠReturn s
Ġc up
cons istent
Ġmin i
is d
**************** ****************
m ir
Ġintegral s
onym ous
ov ation
Ġparticip ation
Ġshift ed
ĠR ugby
Ġrequest ed
ro v
requ ire
Ġb ott
Ġrespons es
' }$
le tt
d in
10 6
++ )
ĠAust rian
ĠTe ch
al ph
Ġpre gn
Ġen abled
Ġhom ot
e a
ha ust
ch ing
Ġl en
am az
O pt
roph y
iz ers
Ġmach ines
ĠHam pshire
ch itz
Ġsh orter
e lection
s un
Ġad ults
Ġshe l
Ġcall back
ob by
ĠN elson
Ġfem in
Work s
Vill ages
Ġ urg
Ġpri est
} &\
ran ean
ĠD O
F i
as g
ĠN GC
ĠHung ary
Ġcosm ic
B re
}= (
j amin
Ġc rown
AC T
Ñ ı
ĠN ation
Ġcons c
N AME
ĠSen ator
Ġsegment ation
Ġm ile
b ai
st ore
Ġmon ot
ĠIn sp
Ġtra il
w he
C I
ĠRob inson
pro perties
ĠJ ason
ĠJ ava
Ġa maz
Ġev ident
Ġp ictures
ĠS ho
M o
Ġmeas uring
Ġmulti pl
Ġexpl ored
Ġperm ission
ĠLore ntz
j et
ĠCom ics
k ind
Ġasympt ot
Ġsw it
Ġexcit ation
st age
ĠL P
B ased
ĠH ind
th a
f actor
}_ +
Ex ample
F eb
Ġf est
Ġenjoy ed
Ġsuff ices
ĠC ass
Ġfair ly
}| ^
sup ervised
Ġel ig
\, .
1 16
we ak
Ġorgan isation
Ġw ine
ĠW inn
ett ings
Ġelect rical
R ob
Ġ ur
ĠK on
ĠKar l
}} }$
int ers
Ġdisc ipl
ĠAl ban
D espite
U L
Ġher itage
ĠB ey
Ġprison ers
Ġpotential s
Ġb ishop
pe ople
Ġas king
Ġdeal ing
C ond
] _{
F ree
Ġvot ers
Ġpres erve
ĠG ran
M em
le ans
S N
Ġnot ing
conn ection
T ree
Ġhas h
ellect ual
Ġrelax ation
ĠStud y
t ensor
ĠNig eria
ent ric
ĠN i
Ġch amber
ĠBrother s
big skip
ĠCent ury
and al
isl ature
F ont
P e
ĠP rad
ĠWel sh
Ġentang lement
Ġcontain er
Ġcritic ism
Ġvis iting
ĠAr n
Ġacqu isition
CO DE
Refer ence
Russ ian
Ġres ign
Ġext ensions
Ġim posed
Ġpre lim
ĠG ulf
Rail way
aut ore
ĠMet ro
idel ines
Ġjud ges
Ġanom al
U se
F E
ĠK an
ĠCommun ist
ĠH end
Ġdanger ous
Ġaff ord
ips chitz
pr ison
ra pper
Ġexpand ing
= (\
Ġnumer ically
to ken
Ġpar ad
ĠMan ager
) )$.
og a
De cember
ĠBrook lyn
ath y
ĠM O
ĠP i
ĠC rit
ĠMur ray
Ġob lig
os ition
Ġpay ment
er os
ĠM ess
ĠN ature
Ġdiv isions
ins ula
t own
Ġ$- $
um ul
ĠO ri
Mich ael
ĠM ars
ĠB eck
it is
ĠN ar
Al bum
Ġw ider
app y
c ov
van ced
Se ptember
Ġ$ [\
Ġdr ift
ch arg
sat isf
Ġart ificial
Ġf at
ĠKenn edy
t re
Ġcon clusions
Ġf ee
ĠE le
Ġch rom
ro ck
Ġgradu ally
Ġemploy ment
Ġres erved
ĠW right
or o
ĠCh ampion
Ġrec ru
elf are
id ity
Ġlimit ations
le in
Ġn ortheast
A lex
ĠH it
Ġremov al
Ġwatch ing
M er
Pro perties
Ġbos on
Ġad min
F OR
Ġsampl ed
Ġo cean
Ġd ict
Ġro se
Ġelim inated
Ġformul as
Ġaim ed
). }
sc reen
Ġtal ent
d ifferent
Ġkind s
co in
ĠG C
ĠMountain s
Ġfl av
Ġcav ity
b ecause
ine a
Ġcatal og
Ġt ables
ĠT ake
prot otype
T arget
center line
Ġfor th
ĠL ock
Ġpick ed
Ġn ations
Ġint ention
Config uration
Ġimpro ving
188 9
Ġactiv ation
ĠAlf red
Ġregard less
iv an
18 92
n an
ĠJud ge
Ġw ww
Ġex clusive
ĠL l
ĠCar ter
ĠPol y
Ġelli ptic
Ġprov ision
Ġconf ront
Ġrele ases
Ġaut hent
ĠTra il
ĠTh ose
$ --
Ġto ler
math ds
ĠGra ham
ĠW atch
vol ume
is p
Un it
Ġequ als
D raw
r b
Ġre actions
w ang
lik ely
Ð ´
m ate
Ġar ises
Ġrepresent atives
ĠPr incess
ĠOper a
Ġunus ual
re q
18 93
Ġman ifest
Ġst yles
M ag
Ġst ruck
ĠH ero
D an
S uper
Ġrece ives
ĠCon vention
deg ree
F ull
Ġthe ater
Ġm o
ĠG on
ĠWith out
Ġres emb
Ġg ro
Med al
ĠT ak
Ġkey s
Ġab elian
Ġmechan ics
Ġland ing
Ġcond ens
ĠOrgan ization
ĠUp on
olog ically
ĠMa ine
ic he
n ia
Ġrec re
Ġloc ality
18 94
ĠDak ota
Ġag es
un iform
Ġdev oted
en berg
Ġb aby
Ġfinit ely
Ġmark s
IC E
Con f
Ġgener ality
Ġlay out
ĠSpec ifically
Ġcal ibration
ĠF ather
Ġwith draw
Ġdist urb
Ġautom atic
respect ively
v c
^- $
vert ex
rupt ed
ĠF r
Ġgen re
Ġpos it
Ã³ w
Ġare n
Ġacceler ation
ĠGu y
ĠY e
ĠC her
ĠO bl
Ġm ock
Ġwalk ing
Ġs ed
set t
ĠM other
ĠT rib
L ayout
p mb
ĠB orn
V P
C ore
$ (\
Ġsympt oms
Ġmeet ings
om ing
is y
h our
du cer
l ab
au ra
mak ers
in duced
om m
ĠF unction
jav ascript
18 60
Ġr ide
Ġbreak s
Ġvacc ine
de ep
Pol itical
sol id
ĠCommunic ations
Ġviol ation
Ġremov ing
res ize
ĠA qu
ĠStud io
Ġf asc
ĠAlber ta
M ass
Ġen velop
y ou
me asure
ĠSoft ware
ĠD J
Nov ember
rick et
ĠRef orm
Ġ\ *
Ġobtain ing
Ġbe ach
Ġu int
188 5
rad ius
> $
Ġcontinu ity
0000 00
Ġinv ariance
au er
ĠOr leans
I mp
Ġre putation
clus ively
Ġplan ets
ĠT ag
Ġcomb ine
ĠCon sequently
ĠTam il
ment ed
] ]
Ġsh adow
G raph
Ġout per
ĠRoman ia
list ed
Ġthe rapy
Ġdeterm ining
Ġderiv ation
Ġimag inary
ĠEv ans
H ost
ĠPer formance
Ġf usion
ĠSt age
Ġalign ment
k t
}} }{
10 7
doc s
ĠOrth odox
Ġt ie
hoen ix
sim ilar
Ev ents
Ġshe ar
Ġref lected
Ġtrans mit
10 8
Ġo xygen
Ġcolon ial
Ge orge
g ray
Ġsub mitted
un ed
ĠElect ric
ĠRail road
ĠMad rid
ĠBe at
Ġlimit ing
Ġpip eline
Ġdeput y
Ġwh ilst
ĠEx ample
claim ed
ĠK now
Ġdest ination
Ġdeterm ination
ĠPort land
ĠRem ark
h skip
Ġactiv ist
Con tainer
Ġg ram
Ġjournal ists
Ġconstitu ency
ĠV egas
ĠInd ex
i u
St ation
Ġinj uries
Ġven ues
im od
ĠJ osh
ĠLem mon
end a
st ory
Å Ł
anc ouver
: </
ĠPri or
ĠM aj
ĠR ud
ĠT H
u pper
Ġ ×
ĠG ray
}} +
Ġobserv ables
f are
ĠC el
Ġb ird
ĠT ol
L and
left rightarrow
ĠPat ri
ĠM ack
ad ing
B oth
ĠT rack
On ce
it ro
}}\ ,
Ġfall ing
ĠPhys ics
s end
h ot
ar us
Pro fess
Ġr ising
al id
Af ric
Ġp sy
u u
ion ed
st rap
rict ion
ĠV enezuel
' )\
ĠFin ancial
ĠRec all
18 91
ĠOtt oman
ge on
U RE
Ġwill ing
Ġext ending
Ġ })
Ġdes ire
ĠB H
Ġt on
{ [
ater al
Ġinf ection
ĠT ower
t ex
Ġgen etic
Ġpro ton
m ates
G old
ul atory
. :
D iv
Ġp overty
Ġcelebr ated
m atic
ĠN ord
Ġvari ants
ens on
h n
ok er
k ee
f ish
d ue
Ġm yself
t ies
ĠS earch
S al
Ġr ivers
Ġmir ror
S yn
ĠG ary
Ġm emb
Ġpremier ed
H ash
ul u
ĠSt ev
d esign
Ġsurround ed
w right
N one
Ġarrang ement
Ġbut ton
ĠLe ban
iline ar
Ġcon qu
ister ed
in ternal
Ġte ach
ĠN BA
ey er
Se lected
Ġde bt
ĠR ural
l ia
ĠChall enge
Com parison
ĠJos Ã©
Ġant icip
Oper ation
Ġing red
in cre
Ġbeh alf
ĠB G
M r
ĠSt ars
ĠCl inton
ug oslav
Ġult ra
Ġfund ed
( |
Ġtang ent
Ġg host
ĠPol itical
Ġcoupl es
ov o
ĠM eg
Ġc os
ĠC ustom
ĠBl ood
A rm
ĠL GBT
Ġgu y
A ir
Ġcub ic
Ġsign ing
jo in
Ġperson ality
Ġhe ating
ĠA rena
p end
Ġill ness
im it
Ġmod uli
b ishop
sequ ence
ĠCre ate
Th read
K L
Ġ ĉ
ov ich
Ĩ Ĵ
Ġf urn
Ġr id
Ġpl astic
Ġcheck ed
oth y
Ġn urs
W here
He ight
S ports
ĠMic hel
ari ate
1 18
iter ranean
Ġdiv or
Ġeffect iveness
Ġexhib its
ĠH T
art icle
ĠDel hi
ĠIndust ry
Â ©
ĠSp ect
Ð ¼
Ġnorth west
Sum mary
ĠMov ement
ĠBanglades h
D ue
Ġthous and
Ġj ets
ĠMor ris
ĠCh apter
Ġ\, ,
nt il
ĠO pt
cl osure
Ġcompl aint
] );
ĠA the
gra duate
Ġcele b
p in
C am
ĠI ce
Ch ange
ĠH old
Ġsymmet ries
ĠR ap
ĠCar ib
on ian
Ġneighb ors
Ġd uties
Ġpass ion
Ġs aved
um ann
ĠSt ein
Ġcrick eters
Ġreg ulations
)\ ,\
Ġdispl ays
ley ball
Ġgovern ments
und erset
mak ebox
ul o
ric ane
renew command
ĠK r
iz z
ĠFrank lin
Ġvess els
Ġpo em
itud inal
u w
ĠW a
Ġel astic
( _
Head er
Ġrail road
p ref
ĠStan ley
ue z
ĠS F
ĠN O
ĠL iving
mult ip
Ġhelp ful
18 65
ok a
Ġprep are
\ }}
sp aces
ĠB ible
Ġelse where
Ġbeaut y
Ġanalys es
w ig
ĠM ake
display math
ij ing
Ġpass age
st ance
J ack
Ġm esh
Ġstay ed
men u
Ġadd s
Ġfocus ing
Ġp atch
Conn ection
Ġse p
Ġdise ases
Ġvess el
ĠG un
Ġent ities
M iss
Gl obal
L oc
p read
ĠI L
tem perature
10 9
Ġout break
Ġpaint ed
Ġbi ological
Ġarg s
ĠE uler
aval ry
) !
Ġlong est
K n
ĠB irmingham
2 20
ĠE mb
ĠThe ater
Ġam pl
mod al
Ġneglig ible
Ġshift s
ĠMarsh all
G ame
V AL
b oy
Ġsurv ive
Ġfriend ly
AG E
p ay
Ġw rest
}\ }$
New s
zer bai
Ġob j
ĠE sp
um s
E ven
Ġa pi
Ġrom antic
Ġgener a
ab a
188 8
Ġt ension
b us
ĠL ink
Ġsuggest ing
ĠMunic ipality
Ġclos ing
me as
Ġcompos ers
equ ate
Ġwe aring
om on
ho ok
Ġg al
Ġhabit at
no ise
Ġan ten
T I
u ct
d ynamic
ĠCharl ie
Ġsupp lement
ab ul
ling ton
Ġforest s
ĠW ind
Ġspeak er
Ġcap abilities
U rl
Ġlov ed
est one
Ġobserv able
ĠI C
Ġb ag
Ġmultiplic ation
ĠB aker
ĠBl ues
Î ¿
ĠM ak
Ġcloud s
Ġo verse
ĠMov ie
Ġlo ops
hol m
Ġ )$
add le
Ġto w
om es
usal em
ĠR at
Ġinstrument al
S i
Ġc ous
T or
Ġsusp ended
ow ed
Ġmut ual
B s
ĠĠĠĠĠĠĠĠĠĠĠĠĠĠĠĠ ĠĠĠĠĠĠ
w indow
Sh ort
ĠAnd y
Ġart istic
Ġf ishing
Ġg ay
hat tan
ro le
Ġsub stit
Ġmod ification
Ġim prison
W R
Ġt ur
ĠJim my
Ġal cohol
f iction
ĠWay ne
Ġvanish ing
c z
W ar
Ġprint ed
Ġs ke
mon th
d p
Ġtw ist
Or gan
ĠI an
bound s
Ġden ied
Ġsub mar
Ġqu eries
) }^
S chool
ĠPro of
V I
over ning
b uffer
her s
Inter face
Ġw ides
th in
Ġst rain
Ġresol ve
d ig
Ġconvers ation
Ġb arrier
S am
Ġpred om
n one
ĠB ud
qu ality
ĠS H
Ġcom ed
ma ke
ĠP ictures
Ġtext s
Ġext raction
Ġh at
asg ow
Ġtrans it
S ol
ĠJ azz
Ã¨ re
h ill
Ġcoast al
win ning
Ġsuccess or
Ġdeploy ed
Ġel der
Ġw ounded
Ġprov ider
iv ia
Å Ħ
Ã© n
b ool
d irection
play er
ct x
^ +\
B T
ĠLank a
l ag
ĠJ enn
ĠBern ard
ĠBroad way
Ġbox es
Ã ª
+ |
12 7
L ater
ĠS yn
Å ¾
Ġf ilters
ĠW as
em ale
}( -
apt ist
=" -
C le
ut able
] _
Ġhand ling
cl uster
Ġemer ged
ish ments
ĠĠĠĠ ĠĠĊ
Ġefficient ly
ĠV I
ĠHun ter
Ġwh atever
Ġwar ning
V E
Ġs itting
Ġins ight
* \
Ġcarri es
Ġext ensively
if le
Ġr anks
W indow
Ġwould n
Ġcritic ized
Ġs in
Ġreg iment
ia o
ĠAl tern
trans form
Ġsupport ers
dr iven
Ġcons iders
' -
Ġas ks
Ġstrateg ic
r f
' (\
Ġ< !--
Ġover view
}$ ).
Ġ> =
Ġsu icide
Europe an
eop les
Ġappoint ment
Ent ity
ĠHawai i
ard ed
id o
Ġsynt hes
rel im
autore f
ĠCl oud
N D
char acter
ĠP lease
Ġinvol vement
Ġs oph
Ġrel ativistic
work s
ĠSt ill
ant ly
Ġphot ographer
ĠVal ue
em pl
ĠM embers
Ġamong st
N G
Ġcohom ology
24 0
Ġflow ers
Re lease
ampl ing
Ġtal ks
Ġclos est
ĠR ico
Ġnegot i
~ {\
enc er
ĠAss istant
Ġr ings
ap ing
olt z
Ġinform ed
ĠR and
ĠAd vis
Ġrad ical
Ġfeas ible
ĠConserv ative
ter ed
z h
ĠCarl os
Ġident ifying
Ġsp oken
T F
27 0
hold ers
Ġgu idance
Ġstrugg le
it ime
ĠColon el
188 7
ĠA ld
e enth
ĠT ask
ĠB illy
ĠP ant
ĠEd itor
() ->
f requency
^{ [
ĠCat hedral
Ġfe els
St and
Ġd owntown
Em pty
prot ect
Ġrun ner
Ġcompos ite
Ġcl ick
o ys
rat io
ĠLe ft
Ġdifficult ies
Ġf ol
ĠMat hemat
Pos ition
ab e
itar ian
ĠPro blem
ĠV ersion
it ure
opt imal
ĠPro p
F ound
ĠS A
Ġphys ically
Ġfil ename
Ġmoder ate
Ġinequ alities
Un ivers
Ġthem es
Ġbig ger
Ġr uling
Ġsol it
Ġd s
Ġabsol utely
ĠNev ada
comp act
Ġnewsp apers
Ġmiss ions
P G
Ġcon sp
w p
AT A
id ad
rel ax
ĠM all
Ġdest ruction
Ġem otional
Ġpaint ers
B undle
Ġs essions
effic ient
pro file
Ġprov incial
r ically
r ise
ĠPro duct
Ġcount ies
ĠU g
w al
ĠEx change
Ġens ures
Th ree
hem atic
ĠD R
Ġpart ly
u its
ĠNaz i
Ġex haust
ult an
rist ol
F ore
ĠNot ice
Ġan nu
Ġste ep
T YPE
Ġswim ming
Med ia
ĠAthlet ic
ĠThe ory
ac o
c ache
Ġcr imes
Ġphenomen a
Ġelect romagnetic
}^{ (\
ĠL A
I ter
ĠBar ry
ĠComput er
ot an
let ter
Ġorient ed
J ew
st yles
h ash
ĠO range
Ġqu arks
Ġsuff ering
ĠN ad
Ġt elling
Se ason
H as
Ġt ip
ĠClass ic
Ġc able
Ġprom ising
ĠI van
con ver
h ad
big gl
et on
ĠB asketball
ĠB S
f ocus
ber ry
Ġ( +
ĠTe le
c ule
Ġfl avor
ST M
Ġattract ed
Ġhierarch y
ĠP ra
ĠProfess ional
Ġen forcement
Ġgeodes ic
Ġproport ion
umb ent
Ġsqu ares
18 64
Ġaff airs
Ġsurv ival
ĠF ine
erm ont
Ġwork er
Ġrel ating
ij k
18 50
correspond ing
per iments
Ġb old
}$ $
ĠCh ange
cel ona
N or
ĠP ic
os opher
Ġw et
c ient
tern oon
f ixed
duc ational
F in
l on
; ->
k ens
ip edia
}{ $
188 6
H ol
C a
Ġprote ins
17 0
Ġrep air
ra pped
dev ice
Ġsubs idi
Com b
ĠM ong
Ġdetermin istic
Ġjur isd
d ing
ĠAss ert
m ill
ĠJohn ny
Ġobvious ly
L ike
Ġex clusively
ĠT ob
Ġmetall icity
ĠW ing
ĠP ract
ĠN am
Ġleg s
Ġcarri er
Ġsynt hesis
Ġsh apes
ĠC u
Ġhealth y
H en
ĠSp irit
M or
t ar
}} -
ĠFin ance
ĠB omb
Ġmag ic
Ġinteract ing
ĠSt re
Ġs outheast
ic ing
ett i
Ġ( '
Ġat tach
iv id
) /\
ier ra
Ġinflu ential
Ġg olf
ĠAl aska
Ġwides pread
Ġpeak ed
Ġp urs
Ġclass ifier
Ġdepart ure
t ypes
u in
Ġn eck
Ġperm utation
Ġphot ography
ĠRef er
T own
Ġr hythm
Ġcontribut ing
war z
Ġst em
Ġsuppl ies
Ġp ose
A uthor
ĠL ithuan
fol io
Ġpro xim
Ġelectric ity
op al
Ġqual ifying
Ġsupp ressed
Ġdiver gence
K K
d ays
Ġsus pect
@ {}
Ġass emb
T om
Ġfinal s
oc ols
ĠWar ren
ur u
ĠMit chell
Ġenc oder
our t
is o
pos itive
ina e
Ġcred ited
ĠS occer
ER S
sub float
f g
ĠS ax
N etwork
Ġ ).
Ġd amp
}$ ;
ot ton
Ġbelie ves
Ġop ens
ont r
ĠSte el
}) (
oper ator
ad ic
v ision
fig s
ĠC F
Ġfor cing
): =\
ĠP resent
Re al
Ġmountain s
ol ia
G F
ur ities
ĠC ultural
L ou
ev a
ĠL ad
Ġpull ed
text style
Ġdoll ars
âĢ ī
ĠPro test
Ġob st
Ġd otted
Ġh orses
Pl ace
ĠDef ence
Ġaddress es
ĠNorm an
us k
Ġlocal ization
S n
Ġnarr ative
Ġdis cre
ĠĠĠĠĠĠĠĠĠĠĠĠĠĠĠĠ ĠĠĠĠĠĠĠĠĠ
p f
ĠCon stant
new s
Ġthick ness
ĠJon athan
C K
n c
Ġdebut ed
Ġsurpr ise
ĠL ud
Ġ\ #
Ġh ook
aps ed
Ġcard inal
Ġm ail
Ġencourag ed
Ġmanifold s
O ld
ot ions
em a
ĠM ind
ow ell
writ ing
sp ring
Ġyour self
ĠB ron
ud son
Ġtrend s
AC E
L ie
am ination
born e
ĠP sych
ĠWith in
Ġf antasy
Ġb rig
. ),
f ix
Ġsub stitute
ĠCl in
Util s
ĠC arm
ham mad
G a
ens ing
ĠPar ish
Ġsequ el
Ġcontinu ously
bigg r
Ġevol ved
Ġdaugh ters
ĠS eg
Ġestablish ing
d ebug
ĠSch olar
Ġke V
min ute
Ġin cl
Ġcomp ression
ĠCh art
em ed
ĠFI FA
Ġsingular ity
> ,
h ig
p us
ĠSt orm
quant um
ĠCr ime
qu ark
he res
ro oms
ĠD ra
Ġbre ast
av i
Ġspirit ual
RO M
Ġdef ence
ĠS L
ĠSal v
ĠAthlet ics
Ġoccasion ally
Ġn aval
ress es
Ġguitar ist
ation ally
Ġmed ieval
Ġapart ment
Ġ\\ [
$ =
z one
Mod ule
c am
ors ion
al og
ĠE rror
188 4
ator ial
ĠC ore
Ġun success
Ġsouth west
Ġwind s
Ġking dom
ential ly
Ġregular ization
S W
ĠE lementary
Ġtrans c
em or
ĠIn s
ĠJer usalem
pro to
end ers
O O
Ġcount ing
Ġf raud
p q
ĠSy ria
ĠRes ources
ĠZ one
Ġstar red
p air
ĠTra vel
EX T
Ġresc ue
k w
Ġdual ity
t n
Ġd ated
ð Ł
Ġdem ands
Ġvari eties
ĠF am
Ġre nder
ĠV ancouver
o il
Ġinv oke
sur face
ĠPier re
Ġdip ole
F re
Ġt ub
Ġg ran
res olution
Ġtor us
ĠPl ant
Ġspec ify
Ġt et
\ -
Ġthreat ened
G D
ĠPrim ary
um ed
ĠUn like
Ġdis ag
Th omas
ĠInt eg
Ġferm ions
symmet ric
Ġrele g
Ġup grad
Ġal ive
t ot
Ġd ot
Ġmer ely
ĠG as
Param eters
Ġelect oral
ment ioned
Ġvari ed
Ġqu iet
t urn
ĠOl iver
r n
s yn
ĠR acing
Sp anish
ĠSpe ed
Ġover come
moment um
ĠC ou
ll i
pos ing
ĠInd ians
Ġweap on
Ġiniti ative
D ay
Ġexclud ed
u cc
Ġembedd ings
Ġas c
ĠCh o
}}\ \
cl oud
sc ar
ĠP rice
Ġal le
Wh ite
ĠMean while
Ġg re
ĠGr iff
e per
Ġprot ests
ĠT ax
Ġs alt
18 61
V A
ĠCh a
Ġann ih
ĠS W
ĠDr ive
ĠP il
Ġb rick
Ġmag azines
Ġprelim inary
188 1
Ġf oss
Ġfarm ers
ĠYork shire
ick er
ĠCarib bean
W eek
$& $
Ġdecl ined
ĠRel ations
ik ipedia
M icro
Ġmotiv ated
Ser ial
ĠSt ra
Ġneighbor ing
Ġsymp lectic
T M
Ġsup ern
b ind
Ġg ates
E ast
ĠCharl otte
ĠT ournament
Ġshe et
Ġsummar ized
C ho
m und
Ġreal ize
Ġlaw yers
Ġcancell ed
ĠF ind
Ġcut ting
ĠProt ection
tr im
ĠUr ban
ĠJ ess
' ,\
Ġtru ck
ĠCh ron
b ian
ĠS oul
. -
Ġbusiness man
c ussion
Ġlic ensed
Ġrestaur ants
T ur
E ff
C r
k k
}} +\
Ġt ab
sum er
ĠPrad esh
ict ions
Ġaut omorphism
ĠF alls
ur ring
Ġfraction al
ĠFl ore
it i
B ound
T otal
v m
Ġass ass
Ġprior ity
t ml
te chn
Ġprof it
COL OR
Ġnom ination
Ġup coming
ĠBen jamin
ĠA pr
ess ed
Ġn um
ĠW or
ract ed
ĠColl ins
tra ining
ĠF ly
Ġent reprene
Ġfl ights
iss a
ĠGl asgow
Ġmem or
c od
c rit
Ġg ray
Ġhon est
Ġrepe at
Ġt y
Ġrel ay
Ġpark ing
op ing
ĠP aper
Ġsurve ys
comm unic
as ant
R et
dep th
ard ing
Ġaware ness
ĠC BS
Ġm igration
c ost
ant um
18 63
Ind eed
\' {
Ġcolle ges
g un
Ġcontrovers ial
M atch
Ġlabor atory
tra ined
18 62
) ~\
b n
Ġmathemat ics
ĠB iden
G ood
ĠAcc ount
ĠAfghan istan
Ġund efined
Ġenc oded
Ġb le
K ing
ĠSim ilar
Ġparam s
ed ef
ĠT ogether
c ritical
Ġgu ests
Ġcol span
Ġdevelop ments
Ġnucle i
g ov
Ġexist ed
ĠM ix
ĠN icol
}{ $\
od ic
Ġer g
Ġbrand s
om eter
ĠMil an
Ġs ectors
Ġver ified
al is
Ġmanag ing
the y
C oll
Ġf ro
p ing
Ġremark able
re z
ĠApp ro
Ġhol omorphic
Ã Ł
ĠBelg ian
ĠK it
}] $
ĠN eed
set length
Ġconsist ently
p ress
Ġaccur ately
u art
Ġagre es
ĠPark er
os hi
Ġc ul
ĠC L
Ġrest oration
Ġs av
ĠB ranch
ĠObl ast
ĠW i
st ad
Ġout standing
ĠMin or
A U
ĠPr ivate
key s
writ ers
m ix
Ġvari ability
ĠS even
IT Y
ov iÄĩ
ut o
ache l
Ġdefe ating
Ġsub str
Ġf ictional
Feb ruary
ĠS ay
v irtual
ar an
D er
Ġmat ched
Ġhol iday
App lication
ĠD ays
ateg ories
Param s
ĠN BC
Ġp up
St ore
Ġreconstruct ed
ph ys
C ur
ik o
fra ction
ĠOver all
Ġcontrovers y
Ġtarget ed
ht bp
Ġcross ed
ed a
5 12
ĠMan hattan
par a
ĠPro perty
Ġsimpl ified
Ġorgan isations
Ġpe er
Ġencou rage
Ġm or
Ġwood en
ĠC rim
ass oci
et ta
Ġterrit ories
Ġinc red
Ġsound track
OR D
ĠM ans
Im pl
Ġcateg or
pan ic
Fig ures
Ġfilm ed
ush ing
Ġd rag
{ %
ĠNAS A
Ġinvest ors
Ġh ip
ĠFre edom
med ia
Ġg ard
Ġvis its
188 2
Ġperfect ly
Ġt ube
Ġdelay ed
ĠCon struction
Ġunder ground
h op
u ke
ub s
ĠShe l
Ġcl imb
Ġmod ify
Ġreg istration
ĠP ast
Ġde als
ĠJ oy
Ġemer ging
ĠN at
ĠBar bara
Ġmodel ed
ĠP el
ĠC oul
ant ine
ens en
Ġdef initely
l ied
z es
ac re
ĠAlex and
Com put
Ġcont ents
ĠSh a
Ġf ake
Ġst ake
row th
ĠC C
rec ord
Ġcl im
Ġtw in
ĠD est
urs or
Ġover ride
Ġinstruction s
Ġp ian
Ġrecogn ize
Ġor ange
ix el
Dem ographics
cal cul
ari ants
f ramework
ĠC old
Ġto x
ig s
el astic
U B
on line
18 00
us p
a uth
Ġmod ular
Ġprom ise
Ġminim ize
Ġachie ves
Ġdevelop ers
bl ing
S en
Ġt ort
ap shot
Ġqu bit
ĠT ab
Ġcommit ment
) <
Ñ ĭ
Ġt issue
Ġproof s
187 8
cel and
Ġbre ath
se q
ĠPart ners
ĠConf eder
Ġdo ors
ew ay
ĠEconom ics
Ġconsum ers
ĠV ic
Ġmaintain ing
Ġev il
Ġimplic ations
amp a
Ġcon fer
ĠR ank
hes es
inter face
Ġlocal ized
}^{ *
ĠÂ ·
ĠC ricket
Ġexam ined
Ġadapt ive
ma xim
Ġdisapp oint
'' .
Ġt act
Ġstream ing
re ction
Ġr um
Ġsurv iving
Al umni
* {-
ĠL uther
Ġdial ogue
Ġdeg rad
ĠO bs
Ġar ising
m ic
ĠBe ijing
Ġsus cept
l ies
ond a
187 6
Ġ ions
ĠD ragon
ĠPref ecture
Ġw edding
Ġrare ly
r aska
ag ar
h aus
Ġl ying
Ġun f
Ġobser ver
S il
iv ities
Ñ Į
ĠT oy
we ek
Ġviol in
Ġ$ -\
iz on
conn ect
È Ļ
Ġactiv ists
he et
Ġv ir
ĠĠĠĠ ĠĊ
r if
ĠS now
| {\
Ġp or
om atic
ine e
Ġind irect
Ġparamet riz
Ġoscill ations
amaz on
Ġcaref ully
Ġsh opping
}. $
P rior
ĠH unt
D es
="../../../../ ../
ĠD ocument
ĠC T
view s
cast le
c b
Ġb ins
M W
P rim
ĠPh D
J ac
ke ley
Ġcas ual
}] \
ĠSer ge
C y
Ġaff ects
TR Y
ĠS audi
Ġrad ii
Ġf abric
Ġemploy ee
Ġuniqu ely
ĠT s
ĠE ug
ul ates
h um
Ġ\ :
H ttp
Ġb io
ĠS NR
Ġansw ers
ĠCommission er
ĠS ev
X T
ĠOper ations
" ))
ĠB achelor
Ġde lete
Ġcontract s
Ġven ue
ĠB ak
Ġobserv ational
b ibliography
Ġaggreg ate
4 50
ĠGal actic
th y
ist ence
Ġrel ies
Ġintrodu ces
Ġinter vention
ĠEx ception
ĠM ust
u ilt
ol in
ĠRich mond
ut er
ĠFle et
Ġminor ity
ĠSong s
ĉ čĊ
su fficient
ĠU ser
ĠFinn ish
D ir
Ġanim ation
Ġbl ind
Ġr ub
ov es
Ġclaim ing
Ġman ual
ĠG round
Ġfin ance
qu al
W al
iff s
ĠVictor ian
Ġp ushed
ĠP hoenix
ĠG alaxy
Ġinterview s
Le ague
ars ity
M ean
Ġign ored
as hes
x rightarrow
Ġg all
Ġnav igation
ĠB orough
Ġdet ectors
ĠS r
st ation
ĠWar ner
ĠMach ine
Ġb one
ĠT ree
ĠP od
, (
h h
ĠA zerbai
_{ (\
Sh ow
ĠF itz
ent e
Ġep id
ĠRob in
L aw
Ġent ers
ĠS ymph
Ġbright ness
j or
im eter
ĠMed iterranean
Ġrepro duce
Ġadvers arial
eff ect
ĠW restling
eff ective
const raint
ĠT rophy
Ġinflu ences
b order
Ġexpect ations
ĠS ource
ĠF ab
ĠHin du
Ġun likely
Ġdes ert
ĠPer u
Ġcycl ic
Dist ribution
Pl an
Ġagric ulture
ĠF R
C ity
Ġ\ }$
Ġannu ally
em ark
Ġreflect s
Ġreason ing
Sec urity
Ġattract ive
S em
ut ter
Ġcon gress
- $\
un ning
oun ce
Ġcoinc ides
IM E
g io
r k
Ġaver aging
ĠUnivers al
uk a
Ġden om
Ġconver ge
util s
Ġd rew
ĠSerb ia
Ġ ic
}, \\
ĠG arc
Ġquant itative
ĠO il
Ġreserv oir
Ġpo ets
S ym
Com mon
Ġaccord ance
Ġsil ent
ĠO pp
ĠHar rison
Ġtown ship
18 75
e or
Ġguarant ees
Ġth irty
Ġan chor
Ġpred ecess
st ellar
ĠLeg end
Ġth orough
top rule
anc el
ĠBar celona
Ġext inction
ĠG reater
Ġmon ument
ex act
gar ia
ĠF u
Ġview ers
Mult i
aj a
Ġcred its
fo o
P ool
T ab
equ als
ĠColomb ia
ig o
ĠFran ces
$ /
ĠR angers
Ġconjug ate
Ġl ib
Ġwe bs
n ear
Ġbeg un
ain ing
inc inn
Ġscal ed
ĠCost a
ĠLiter ature
ĠNov a
ĠR ing
Ġsent ences
A re
Ġo ct
mark s
Ġadvent ure
Exp ression
V ector
lev ant
Ġcooper ation
ĠS z
Ġreported ly
Ġmunicipal ities
ĠGu inea
[ {\
lic ations
ĠSaint s
ĠAnd re
Ġguilt y
ĠB og
ĠY u
Ġleg acy
188 3
Ġrot ating
Ġreview ed
Ġpref ix
Ġc ogn
Ġout flow
Ġamaz ing
Ġviol ent
Ġpo ems
Sing le
Ġident ities
Album s
hand le
ĠEgypt ian
Ġcomm une
b ing
C at
I X
Ġcommut ative
ĠS ex
Ġorgan ic
ro c
ĠR u
O bs
Col lection
ol ation
ĠG ot
ript or
U LT
Ġel abor
Person nel
}) }\
Ġcompan ion
Ġinnov ation
it atively
Ġw ings
T w
ĠIn v
Ġbatt les
Ġfl ash
p aper
Ġs ends
Ġpl ain
Rad io
B usiness
. (
Ġcharacter ization
Ġsole ly
Ġtr im
bre aking
Ġpar ity
with out
ĠSh ang
ryst al
Rich ard
ĠA B
âĢĻ ,
() :
ĠIran ian
! âĢĿ
). $$
h ome
ist ance
Ġdr ink
or ious
E t
at z
r us
Ġmanufact urer
pol ar
Ġign ore
qu et
Ġneighbour hood
ass y
Ġdis placement
), (
Ġcl ip
ĠY ugoslav
h yp
Ġint u
igh bor
Res earch
ĠAnd roid
art ifact
M ad
sin h
Ġfor get
T itle
Th m
ster dam
ĠC row
incinn ati
^{ {\
ĠS ad
ĠF err
Con clusion
Ġchem istry
Ġphotograph s
Ġt ill
E V
Ġl ingu
Ġ )\
ĠU lt
ĠTig ers
miss ions
Call back
& +
Ġall ocation
Ġ* )
ĠK os
Ġc inema
+ }
ĠCh air
Ġ ray
Ġg allery
app lication
aly mp
ran es
Ġband width
av an
Ġint ellectual
ag ers
ĠRo om
}} }{\
non ym
Ġre ject
ĠLe vel
Ġmount ed
ak ov
ich i
ĠB enn
Ġprim itive
ĠIs a
ontr ivial
for ced
Ġart ifact
ĠOrig inal
sm ooth
d ict
Ġf inger
Ġind igenous
ĠSpr ings
Ġinstall ation
_{ {
Ġd ub
n l
ĠT u
big oplus
) ~
cons ist
Nav Bar
Ġab road
ĠEnvironment al
Ġsens ors
Ġliber al
ĠO wn
re ck
187 9
Ġcomput ations
art z
Ġst range
}} _\
Ġearth qu
ĠTurn er
ĠB ass
Ġb rowser
R oot
ĠĠĠĠĠĠĠĠĠĠĠĠĠĠĠĠĠĠĠĠĠĠĠĠĠĠĠĠĠĠĠĠ ĠĠĠĠĠĠĠ
R est
Ġre ven
ĠS elf
ĠG ate
aster y
f eld
ond o
v ideo
Ġf ract
enn ial
Ġparticip ating
}} ^{(
be ing
Ġg od
Ġthe at
ĠY es
the se
S ettings
ĠH ann
Ġdemonstr ates
$ }\
ĠV as
R a
L y
ĠCra ig
ĠJ ama
ĠS id
el o
em p
Ġst ick
Ï Ħ
DB LP
M eta
Ġmicro sc
Ġt rick
ĠD rag
ash a
Pre vious
Ġs weet
ht b
ĠU pdate
ix on
ĠB our
ĠBuff alo
ew ise
Ġsl ot
cos ity
eq q
ĠStud ents
ĠFac ulty
umb le
ĠT i
Ġcurrent s
H F
om ial
trans ition
Ġmoment a
ĠK irk
Ġrespond ed
b ane
Ġm ild
over e
Ġnot iced
Ġscreen ing
Ġco ffee
Ġmill ions
Ġconv icted
Ġpredom inant
Ã ¦
Ġread ily
il ia
ĠB ristol
Ġcomplet ing
Ġsold ier
Ġcomp ound
Ġre un
ĠArt icle
g tr
Ġexp edition
l ater
Ġchampionship s
ath on
ent i
con j
et ics
H I
ĠJ a
Ġportray ed
s ys
Ġgrad ed
Ġiniti ated
ik es
ĠB ird
add ress
d n
Ġcon sole
inn ed
Ġchar ity
s ession
Ġin comp
Rec ip
Ġaf ternoon
P N
Ġlogarithm ic
der iv
ĠE li
Ġarchitect ural
om i
ift y
Ġpurs ue
Ġdist inction
ĠW ord
em ail
Ġevery where
T erm
Over view
Ġimp ressive
ĠInt elligence
ro at
Ġcomplet es
s qu
Ġoption al
ĠE M
ĠGi ants
Ġpack et
all ing
t ics
oc ate
Ġst ops
ta wa
ĠC M
und les
ens itive
ms g
Ġconven ience
ident ial
Ġhead er
Ġcontrad ict
ast rop
am er
Ġre tain
ĉĉĉ Ċ
chi at
Ġl ad
ounc ill
Ġtim ing
ch anges
m ac
Ġelig ible
á ¹
Ġmin isters
~~~~ ~~~~
ĠStud ent
Ġscient ist
ener ate
Ġobtain s
Ġhomot opy
ĠS I
Ġcons ensus
pan el
ĠMu hammad
As ync
ep he
f olk
W indows
ira ble
Ġcont rary
\!\! \!\!
m ut
eg u
Ġsp ots
op edia
ĠArt ist
ĠB rew
C N
Ġs ick
ĠMer c
ĠG il
aut o
Ġhealth care
Ġin jection
Ġguarant eed
P eter
Ġhospit als
ĠJer ry
Ġsuppl ied
Ġmonth ly
Ġconsider ably
t z
Ġg overning
ĠY am
Ġcross es
Ġ rib
ĠL ions
ĠCh and
cur ve
ĠAnt i
Ġserious ly
ĠSaf ety
ĠDou ble
Rel ated
- {\
\\ \
R oyal
Ġflux es
resize box
ins ert
Ġobserv ing
ry ing
187 7
uls ion
vert ed
cos h
Ġdwar f
ĠD og
Ġp adding
ĠC ob
Ġsp ins
Ġcomp iled
arri ors
t ures
ol en
Ġtick et
Ġque ue
Ġw ick
ĠCirc uit
Ġb orders
ĠCap itol
ĠR eyn
Ġke eps
ĠNich olas
B ody
Ġlong itudinal
Ġprot otype
Ġele ven
Ġelev ation
iss ues
ĠHe b
[ $
ĠMar vel
Ġafter wards
ĠE ston
}$ :
ĠSt even
="../../../../ ../../
rom ise
Ġpark s
Ġdiscre p
Ġgra in
ĠFl ight
Post ed
Ġdis ks
Ġreg ulation
Ġaltern ate
en v
12 4
ĠComm ons
y y
ĠPh oto
Ġgener ations
Ġinsp iration
17 5
' ))
Char les
Ġun expected
St ack
ĠPro f
Ġoccur ring
Ġe ighth
scal ebox
Ġav ailability
ed ed
em e
Ġprov ing
AS E
Ġinc idents
Ġdram atic
Ġdirect ory
m ade
ĠRober ts
ĠS ah
18 67
ĠLabor atory
it ian
H H
V C
ĠCl are
ĠMuslim s
Ġact ed
Not ice
ĠLead er
ovak ia
ĠVin cent
ĠCo al
Ġplan es
Ġdon ated
ool s
Ġhistor ians
uc lear
Ġvalid ity
Spec ial
ĠL ess
de lete
est imate
Ġleg it
? ?
iz a
Ġatt ending
Ġex terior
Ġdiff ers
S ession
] ^{\
Ġposs ession
X ml
o ons
ĠY uk
ĠM ason
ĠV el
class ical
Ġris ks
ĠBe aut
e u
col head
st ration
d or
15 00
Ġas ymmetry
cl ick
co ordinate
F alse
Ġcous in
Ġsuff er
o ft
Ġc ounsel
Ġparliament ary
2 10
Char acter
v v
Ġflex ible
am o
Ġtroub le
marg in
187 1
Init ial
ĠN iger
ĠPer ry
Ġcab inet
w alk
Ġcap ability
ĠTechn ical
ins ky
Ġperm itted
ĠV lad
ĠFor um
Ġ icon
Medal ists
Ġsent enced
grav ity
ĠW u
Ġint ense
ĠB ond
cho ose
Ġsh ore
Ġrep orter
Ġco aching
Ġmed als
Ġm as
k u
Ġgu ys
duc ing
ON E
Ġb at
con vex
Ġgrad ients
hand ed
12 1
ter ms
Ch annel
l as
Ġent hus
F W
Ġcampaign s
187 4
}$ ),
h aw
om eters
Ġlast ed
met ric
ĠL an
Ġprov iders
ĠL ate
Ġpro g
Ġopp onents
m itt
Ġc ra
ĠN N
Ġ: :
ĠCamp aign
W ell
=" _
iv ariate
m el
Ġam ateur
Ġassum es
ĠH ope
ace ae
Ġinvestig ations
ĠN R
An n
de velop
M el
Ġimpro ves
Ġdoub les
ĠT ib
eng ine
Ġabs ent
ic z
ĠM asters
ĠL ost
s ig
ĠN y
ĠC ox
Ġalign ed
Ġret ro
ug ins
ĠE C
ĠB urg
Ġra ising
Ġeng agement
l r
Ġph rase
Ġindust ries
Ġcoinc ide
Ġde eper
Ġem issions
Ġfr ust
Ġstream s
âĢĻ .
18 68
Hon ours
Ġmon arch
ĠS or
ex cept
Ġbo ats
Int eger
Ġisot ropic
p b
Ġuncer tain
Ġf ighter
q q
d if
Ġsimpl er
ĠW es
iffer ential
ĠUE FA
ĠB ris
Ġtrac es
Ġinter fer
ĠMag ic
abl ing
ĠG rey
m agn
is ch
ĠI da
^* (\
Ġsubstant ially
Ġsub div
F IG
): =
Ġm i
Ġphil osopher
187 2
qu ote
q ed
ĠK ay
Ġcoal ition
harm onic
gl s
L ive
Ġe at
Ġe ase
Ġdecre ased
ar l
}. $$
ĠR ange
ock er
ops is
load s
tra ce
Ġjourn als
Ġob ey
ĠK ath
iss ible
Ġexception al
Ġprofession als
var pi
Ġsingular ities
ord inary
Ġexponential ly
Ġsurv iv
bibliography style
ĠChrist ians
Ġyoung est
ĠAnn ual
ur st
ch ildren
Ġsimpl est
uch i
ĠB ert
Ġrefer ring
? :
Ġmanufact urers
In f
12 2
Ġor chestra
Ġdevi ations
ĠG ay
Ġqu bits
G T
ĠRoman ian
ĠT un
)$ $
Ġnom inations
ĠY et
Ġcam eras
it ual
Ġart illery
ph al
Field s
ĠCan al
Ġengine ers
ĠBay esian
Ġl ights
um i
Ġtrans actions
Sche ma
te enth
Ġcom ics
ĠIndust rial
F our
Ġbranch ing
Ġby tes
187 3
Ġm oral
ĠD raft
$ ^{\
em ies
ĠP le
Ġcl othing
B ro
v ectors
Ġs ax
Ġneg lect
ĠNeb raska
ĠP L
ĠBeng al
Ġadj oint
Ġincor rect
ĠP oll
Ġadvant ages
Ġdec ides
c opy
Ġc umul
abil istic
Ġg amma
ĠMax well
re ens
Ġprom oting
ĠÂ ©
Ġl ap
Ġcomment ed
d al
Ġcook ies
Ġcopy right
ĠF L
Ġcomput ers
ab atic
s z
Ġstr at
Ġt ribe
Ġop acity
Ġinn ings
ĠLu is
Ġdegener ate
)} =\
Ġnucle us
ĠL en
Ġmon op
ag i
Ġal ert
ĠS ide
N a
ĠF ix
est on
ĠVo iv
O ption
se en
") );
ĠN ear
erv ation
hib ition
n ecess
ĠEth iop
H a
gtr sim
id ency
Ġpro ud
M s
A I
import ant
val uation
ã Ģ
ri en
]{ ./
N um
Ġoccas ions
IV E
M oths
Ġp in
Ġthough ts
Ġqu ad
ick en
Ġknow ing
A ud
bottom rule
ĠHig her
Ġg ross
ĠB right
Ġd up
Ġse eds
ull ivan
ric ks
bra ham
ĠSt ories
at im
raise box
Ġst opping
ov an
hel m
G overnment
ĠGh ana
ĠArab ic
14 4
iv o
ĠCub a
ĠScient ific
M ont
f m
Ġamb ig
comp are
Ġme at
ars on
ĠB R
Flor a
b os
Ġfore cast
S uch
Ġmod ifications
s outh
is ers
Ġref ere
+ $
he v
. ]
ĠU SS
Ġrepeated ly
ĠTr inity
Ġnames pace
Ġour selves
ist ani
ant ed
ĠH ave
ir s
\\ [
Ġhon our
Ġb oss
Ġconn ects
' }(
P ower
$ ^\
ĠTerrit ory
ĠU C
ĠM ann
in z
ĠSt ore
uck land
EN TRY
Ġgradu ating
ĠI F
Ġspeak ers
Ġsk ill
ĠMor oc
Ġt ies
}) ^{-
Ġthe sis
Ġl os
Ġbu ck
Ġexplos ion
fl ix
Ġcolle agues
Ġ ell
Ġby te
uc ks
act eria
Ġscatter ed
T oday
Ġinv alid
Ġ" \
Ġpoint ing
B a
S everal
ĠPhilipp ine
p ine
ĠKe ith
s b
ĠB und
Ġwire less
Ġmemb rane
Ġdis aster
Ġs ad
ĠAl ong
ĠT on
i racy
Ġgen es
ĠSh adow
Ġcut off
Tax a
book s
apt ers
Ġelim inate
ph abet
S aint
ur ated
Ġattempt ing
gener ated
uck er
Ġ\, .
ĠO S
H ER
Ġh aven
process ing
Ġfacilit ate
qu arter
Ġanom aly
Ġb ridges
on ies
7 50
}} )\
ĠGon z
en os
G AN
ĠChe l
Ġeng age
Ġin coming
ĠPl anning
Ġdist ant
ĠP att
S ocial
in formation
G rid
EN D
ĠRepublic ans
Z Z
Ġt one
Ġphys ician
ĠTh or
che m
Ġtravel ed
Ġconcent rated
ĠDen ver
Ch inese
Ġbon us
G ET
iv ic
oph one
Ġglob ally
Ġfe es
Ġmem orial
f ers
odes hip
D ou
Ġx ml
Ġimp ose
ĠG W
}= -
Ġreal ization
ĠMun ich
12 6
ri er
over rightarrow
ĠArch ive
c n
ĠBer keley
Ġasymptot ically
lect ric
part y
Ġpar se
Ġrot ational
Ġdep ression
ĠI O
hom ogeneous
ĠB ath
ĠC ad
Î ¹
Ġa ster
Ġdis sol
lement ation
Ġorgan ised
ĠAthe ns
in ology
Ġposs ibilities
Ġgu idelines
ĠI celand
s ized
pro duction
Ġprot ocols
D esign
ĠCl ay
Ġpair ing
( *
ct rine
ĠR ou
ĠAnt ar
ĠM orning
FF FF
lim ited
ĠAut o
ĠAm sterdam
SE T
as ia
18 40
r arily
ore l
ĠEd wards
Ġper cussion
ĠAd v
B al
Ġn ontrivial
est amp
ĠN an
Ġapproxim ations
eth yl
M N
ric ulum
Ġconj unction
2 30
Ġinter cept
Ġtravel ing
ĠJ en
= }
ĠForm ula
L ook
ĠB it
ĠB E
un i
ĠNep al
Afric an
vers ely
ela ide
b ie
P H
Ġdeep ly
ĠBG COLOR
te am
Ġsk etch
ĠMur phy
g arian
â ĪĴ
ĠPriv acy
Ġc rack
C AR
Ġâ ĨĴ
Ġlab our
is an
ĠHor se
ĠM obile
ĠG raph
ĠK ol
ĠL arry
Ġsub graph
Ġad mit
ĠL ion
18 66
ĠB aptist
Ġover head
ĠMont ana
ĠC ole
Ġpower ed
' >
ros so
15 5
ta ken
Ġweak er
Ġarrang ements
ĠT E
Ġpreced ing
it us
ant ics
Ġconsider ations
f und
ĠM E
00 5
Ġconf usion
ph oton
, }
G al
oc hem
ĠS ony
osp el
ig roup
Ġdu o
Ġb anned
Ġc argo
ot er
ĠU RL
}) :
ĠS olar
is i
ĠQu arter
mid t
}\ )
Ġar row
ĠVoiv odeship
Hel per
Ġfirm s
Ġst ere
Ġan ime
ĠO cc
Ġcaref ul
Ġcons ent
min a
)) =
Ġorig ins
C ritical
ĠFri ends
ancell or
Ġsh ield
T ags
Ġun cle
ĠZ hang
Ġsynd rome
e o
h all
Ġprem iere
Ġant ib
ĠTh anks
J son
spec ies
Ġlocomot ives
g om
Ġla ugh
ĠF OR
Ġsub sc
F rank
Ġfor b
m iral
Î ½
Ġl ots
ĠM end
ĠSh aw
Ġout door
Academ ic
Ġannounce ment
ym atrix
+ {\
vel oc
Disc ography
Ġb ull
g as
Ġin sect
ĠT otal
ard i
Ġfill ing
Ġencounter ed
Ġsquad ron
ĠH udson
oth ic
ĠPro file
Ġcorrect ed
18 69
Ġcomm emor
onom ic
Ġg athered
ĠD id
Ġprocess ed
Bra zil
Ġexcit ing
Book s
) },\
Ġoptim ized
Ġcyl inder
Ġradi ative
ĠEp isode
^{ *}
rel ations
est ing
fra g
Ġaccept ance
ac les
al am
Ġequival ently
int s
cor rect
/ .
Ġqual ify
n p
cal ing
re place
Ġrobust ness
] }\
Ġdef inite
not ation
Ġdisput e
Ġregular ity
colon eqq
qu er
Ġj ury
Ġconsc ious
}{ !
Ġinteg rating
ĠĠĠĠĠĠĠĠĠĠĠĠĠĠĠĠ ĠĠĠĠĠĠĠĠĠĠ
Ġcont raction
ĠB esides
Ġdef ending
on ing
Ġ[ '
Ġdiv ide
ater ials
Ġcond em
Ġl ibraries
Ġvort ex
Ġlog ical
Ġsudden ly
ĠC ancer
Ġd ogs
m usic
at om
ĠH amb
ĠM uch
l st
e eq
Ġcyl ind
ĠB ir
ring ton
c est
Ġvic inity
t c
ĠMe chan
Ġjoint ly
Ġsh ots
Hand le
U D
W F
ĠL ux
Ġy es
)$ }
D oc
ĠY ank
Ġa z
Ġres ort
Writ er
re view
el ing
ĠR ey
Ġin ert
diag onal
Ġinnov ative
Ġgr ants
Ġd elta
Ġsp ont
Ġcomp ounds
ĠKen ya
ĠSymph ony
NR AS
Ġl i
T ER
}) ^{\
da pt
Ġaccom p
ĠArt illery
b ast
ĠBer g
Ġpay ing
Ġev ac
W in
% ;
p atch
Ġob sc
Ġmy ster
ĠAd vanced
Ġproject ions
f d
R ound
Ġstat ue
S ir
ĠW eyl
Ġ+ +
Ġa ck
ph ysical
rib le
pend icular
L D
Ġdis abled
hy dro
Ġg ains
ĠL iga
ĠK un
H ig
Ġspons ored
Ġm anga
ar th
ĠGra ce
Ġimm igrants
ĠB uch
^ *}
by te
Y es
Ġapproxim ated
ĠA x
ĠCl iff
Ġpreserv es
ĠM I
)) )
count ry
ur ious
ĠL ipschitz
Ġi i
ĠRog ers
k an
ĠDemocr at
cc entric
Ġfest ivals
ĠG T
Ġfeel ings
ij i
Ġneutr inos
f ac
Ġvari ational
in ions
Pol icy
ĠRepresent ative
act s
Ġdiscrim ination
Bl ue
Ġplay offs
Ġfl ed
ell ion
pl ugin
Ġsuperv ised
T ok
Ġinher ited
Ġperturb ative
ĠLl oyd
ĠCont emporary
Ġrecommend ations
Ġmanufact ured
( :
Ġgovern ed
Ġaccomp any
E u
et e
C amp
Ġswitch ing
f ive
ir ts
ĠG rade
Ġs oc
Ġincorpor ate
Ġrev ised
Ġd eter
eck er
Ġwebs ites
T er
m other
ĠC atherine
Ġgl uon
Ġwal ks
pl ates
Ġopp onent
Ġhigh lights
Ġover w
Ġlearn s
Ġappro ached
Ġcompris es
at ial
ĠJ oint
ĠC ert
Fe ature
Ġg rate
ĠGl en
do i
à ¦
Ġstri king
artifact Id
diag ram
Ġimpl ied
P arent
D ig
Ġpl acing
ack nowled
Ġcompos itions
p es
ĠMult i
ĠF low
5 000
Ġw restling
] \\
ĠC hern
ĠP ont
Ġsec ured
hel p
Ġph osph
Jew ish
ĠT alk
Ġfast est
C lick
ĠCru z
um m
ĠCh i
Ġbirth day
b oot
ub a
E conom
ig rated
Ġcaus al
ĠA round
W ho
ĠHT ML
Ù Ħ
Ġr ated
Ġmod elling
Ġs ake
Men u
ĠR S
Ġuns igned
Ġin herent
ĠEX P
Ġcharacter ize
J ava
Ġemphas is
ĠSch w
E rr
Ġdo ctors
Ġbal anced
P lease
bound ary
it ations
Ġg raphics
ĠL HC
ĠRead ing
K ind
ĠP red
~~ ~
. âĢĻ
Ġspecial ized
ĠM ol
sh a
Recip ients
Def unct
ach ment
Ġb alls
Ġtax es
Ġg ear
ber ger
ĠK ra
ĠMunic ipal
Ġdocument ation
Profess ional
ĠFig s
ĠM ut
ĠEn cycl
Ġpet ition
ĠM ig
Ġfl ags
Ġo k
ĠHol land
ĠLu ke
ar ound
Ġrig id
Ġhighlight ed
Ġexhib ited
v anish
Ph one
ach i
Mus ical
b et
ann i
Ġdem olished
om pass
Ġlie utenant
Ġmart ial
14 5
ĠB A
* {\
Ġ( .
ĠHe avy
Ġwel come
Is ra
ĠP ick
amb ers
Ġsum s
3 000
X Y
Ġutil ized
Ġport rait
ĠDef ine
he ro
ĠSing le
x ymatrix
J ose
ord ination
o j
orient ed
G ra
Ġm apped
ĠC ant
ĠM ort
Ġrem arks
ĠT ang
s olution
I ll
( $\
Ġpay ments
Ġbroadcast ing
In v
ĠHer z
US A
sk a
Ġleg islative
ĠArch ives
s pl
Ġdisp ers
d ynamics
in ance
ĠD elta
Ġphot ometric
are a
Ġpropos als
Ġt orn
Ġhand led
Ġno isy
Ġtrib es
ĠA F
Rep ublic
) )$,
group s
ĠWat son
as p
N orm
Ġs hed
Ġpat rol
Ġpar a
Ġsusp ension
f ar
ig ion
pp e
ĠArchitect ure
Ġvulner able
Ġsubsidi ary
Ġmer chant
ĠC opyright
Ġvis cosity
Ġenvelop e
Scott ish
arm s
W il
In valid
Ġact ively
ĠL LC
K O
Ġrecip ient
{ |\
Ġrad ar
ĠDe ut
an chor
ĠS uz
Ed itor
A thlet
ĠArab ia
Ġaffili ated
)} }\
ĠVenezuel a
ĠK rist
}) }{
ĠÃ ł
Ġdisestabl ished
R ay
ar ab
iz ontal
ĠV ermont
ĠC urt
Ġir regular
O l
th lete
ĠBul garia
ask at
Ġconstant ly
ĠJeff erson
Ġmeaning ful
Ġcam ps
ĠS hip
ĠF un
3 20
ĠSus an
ĠM oz
Ġadd itive
2 25
ĠS ug
ĠM idd
Ġde emed
Ġcov ariant
ethe less
intend o
Ġatmosp heric
ĠSerb ian
ĠPol itics
Ġrat ings
r ity
| }{\
Ġpol es
algorithm ic
e V
Ġquant ization
Ġsettlement s
N OT
Ġm ilk
ĠD ir
Ġcal endar
He alth
Ġhon ors
Te chn
Ġtrad itions
ĠS ak
sc atter
Ġmuseum s
idel ity
Ġa xi
ĠK i
om o
c ustom
Ġh ide
Ġâ Ĥ¬
Ġ\| _{
g ie
' +
b ers
app er
IN D
H ung
ĠTre as
Ġim per
M ill
Ġe V
Ġsp iral
Ġevolution ary
ab ol
pl ain
ĠWrit ing
Ġcor ruption
Id ent
Ġcelebr ate
d c
( .
ĠTe V
L ock
Ġcol ours
ĠV ent
R ule
' ],
Ġpriv ile
in ery
Ġdiv is
ep ing
Ġad s
AT H
Ġmethod ology
ERR OR
ĠBy z
ĠS ierra
P tr
Dec l
\" {
at ra
Ġrel ate
Ġmain stream
str ument
Ġexperiment ally
port ed
ĠDel aware
ĠUn fortunately
sat z
Ġt ons
r v
ĠSe an
Ġmen u
ĠCP U
Ġend emic
ev ents
se lected
Ġsu gar
Ġ }(
Ġre write
}, $
H or
e igen
ĠG olf
Ġillust rates
ĠNe il
Ġcalcul ating
ĠH aving
Ġenhance ment
M ot
Ġinterpol ation
Ġm oth
Ġb is
ĠS alt
Ġdro ps
pl ac
Ġo s
ĠIn stit
key word
Ġvent ure
Ġess ay
Ġcou p
Ġper pendicular
Ġm os
Ġv ital
Ġconsequ ently
or bit
w ind
Ġb es
as is
Ġform ulated
ĠCov id
r ust
od ore
ta king
Ġtrans mitted
g ap
Ġto ugh
Ġmass less
Ġpar agraph
Ġvol can
s per
Ġachie ving
Ġimm igration
Sw ed
ĠAl t
en o
13 2
ĠSt ef
Ġb orrow
ĠN HL
ro us
e als
p iece
l vert
ĠC incinnati
ia z
ĠK id
d dot
b les
il o
ur ate
á º
d m
Ġa qu
Ñģ ÑĤ
ĠMad ison
}; \
Ġtw isted
Ġdr inking
Ġack nowledge
am ic
Ġh orn
13 4
S un
Ġins ights
Bo olean
= [
if th
S eg
S end
Ġcomb inator
M ur
L at
ĠLe eds
ogg le
comp onents
. ).
il ateral
cos ystem
ex ception
Val ues
ĠGuard ian
ĠP RO
Ġconserv ed
Ġinv ariants
ĠP av
Ġcomm ands
Ġinf antry
v et
ĠI o
Ġqu oted
Ġche cks
ilt ration
ĠM ari
ĠL is
Ġe ccentric
opt im
AR Y
S Y
rac le
ff ield
^* ,
Ġinteg rate
Ġdismiss ed
18 48
imens ion
ĠTer ry
ĠReyn olds
Ġl ux
ĠSh ar
ĠNor folk
Ġqual itative
Ġtrad ed
Ġh az
om ed
18 59
ern els
ĠR ivers
Ġorig inated
ail ing
Ġsearch ing
ĠPun j
ur se
ie ve
pro j
S V
ĠS ultan
acc ount
Ġarr iving
Ġw orship
Ġneur ons
Ġbe ating
ern ame
Class es
Christ ian
G aussian
Ġt iny
ĠA uckland
Ġun con
Ġbehavi ors
Ġhop es
h m
ĠBroad casting
C ross
ĠA viation
Ġin frared
l brace
Ġtra p
Ġpreserv ing
ĠD ennis
. [
ed it
Ġutil ize
Ġsk i
}} ^\
ach t
ĠAr c
Ġth rown
Ġexec ute
ĠB aby
re leased
Ġmeas urable
Ġmotiv ation
ĠN A
erv ing
ĠLe o
Ġcancell ation
L ove
ĠLi u
ĠR L
Ġw elfare
ind a
Ġbut ter
Ġtra pped
ĠTreat y
Ġeconom ics
augh ter
ĠA ber
Ġassist ed
ĠChristian ity
Ġten ure
au kee
Ġrenormal ization
Ġunder go
Ġrem n
ĠN ott
Ġp eoples
f ollowing
18 57
Ġcol ony
ĠEag les
ĠPen insula
ĠStan ford
Ġsustain able
Ġpo ison
ĠDi ocese
ut ton
Arg ument
Ġturbul ence
ĠConserv ation
z ig
Ġperson ally
Ġrect angle
Ġcol ored
Ġcompens ation
Ġobject ives
bas ic
a qu
Ġarr ives
le igh
Ġun clear
m art
z b
Ġtack le
ingu ished
in line
Ġthermod ynamic
L ondon
ĠS outheast
Sm ith
M ale
Ġmes on
Ġacqu ire
Ġabsor bed
ĠK ate
Ġsy nonym
sp ective
Ġcop per
Ġp ul
Ġexam ination
ĠH IV
Ġtransp arent
ĠSocial ist
ĠCh an
li ers
e lected
lic an
Ġcon g
ĠAd elaide
Ġcompet itors
Ġstreng then
Ġvolunte ers
_{ |
ĠN ak
ĠK ap
Ġscholar ship
Ġdeploy ment
t ry
Ġperm it
ub ert
Ġconstruct ing
}} }}
Ġswit ched
K A
ĠSing les
group Id
T our
MA X
c ott
Ass ert
ĠP O
az ar
F rance
Ġb ullet
Ġj u
ĠBut ler
ĠOt tawa
Ġ\\ \
ĠW alt
Ġaccommod ate
Me V
00 2
Ġimpact s
Ġgrand father
ĠCom plex
ed itor
t bl
por al
12 9
ac a
G rand
Ġenc ompass
ĠInit ial
quir y
Ġc ow
Ġr iding
Ġab ilities
ĠT D
}\, ,
ĠH ugh
Ġg ent
Y our
ĠCoul omb
Ġd ots
19 2
ĠAir lines
ĠHel en
ï ¼
ĠT as
d v
cor relation
ĠFe ature
Ġb ubble
Ġjurisd iction
ĠS oph
Ġapp endix
er ver
Ġb onds
ark ed
ĠR idge
att ices
pp ers
ĠA er
Ġneg lected
ĠB ald
Ġindic ator
Pres ident
ĠDe b
> .
ov sky
ĠQ ual
pot ent
Ġplan ar
config uration
styles heet
l attice
Ġill um
ĠPubl isher
Ġinfer red
ph ot
Ġdeterm inant
Ġassoci ations
F ind
Ġhead ing
ĠS ect
ot hes
Ġkeyboard s
S ep
ĠOther wise
ĠD od
ĠMon th
Ġc ave
Ġconcert s
Ð¾Ð ²
Ġsummar ize
erv es
P ER
c v
ol ition
Ġstructure d
act ing
bo olean
Ġoccur rence
ac co
Ġred und
ĠBl u
Ġs a
Ġb om
à¤ ¾
system s
Ġhe m
Ġlog o
Ġbur st
M NRAS
Ġa uction
Ġ( [
fl ux
ĠHer bert
} '$
Ġt uning
W C
our g
to String
Ġsk ew
). $
ole cular
ĠC ele
Ġed itions
own er
Ġtransl ate
r ators
it ic
Ġen emies
Ġdem ocracy
Ġbos ons
18 30
ĠSe lect
elect ron
Ġbuild er
ĠĠĠĠĠĠĠ Ċ
arm ac
ĠR M
Ġco herence
m iddle
av ier
under brace
integ ral
Ġrout ine
ĠD ictionary
ĠM ick
g ments
period ic
Ġpl ates
ĠMark eting
i ative
Met adata
R ock
\ `
ĠL oss
Ġshall ow
Ġrest ore
ĠB egin
Ġcent res
ĠT rain
Ġprogress ive
Ġm amm
ical s
osp here
ĠLeg al
Ġegg s
B G
am y
Ġhun ting
ĠCroat ia
Ham ilton
equ ilibrium
ĠR F
Ġmole cule
Ġcert ified
Ġver ification
arri ers
Ġepoch s
ry ption
ĠSt uart
Ġin duce
Ġvirt ually
par ing
Ġevalu ating
L ee
Ġtext ure
Tem plate
ĠTh ings
Ġdel iber
G allery
{\ '
rag ue
m r
ĠP in
Ð½ Ð¸
Ġmultiplic ity
ĠT ed
ĠAb bey
Ġport folio
Ġmurder ed
Ġlist ening
Ġw ake
Ġput s
Ġco res
Ġp ric
Ġinter change
Ġl iv
Ġb eta
Ġsimpl ify
Ġoverse as
ĠO N
Ġtra ct
ĠArgent ine
Ġdiagn osis
Ġbus es
az i
-> ]
Ġtempor arily
al ong
ĠW onder
Ġde ck
ish a
Ġmer ge
Ġconnect ivity
)$ )
v or
Ġhyp ers
Ġsupp ression
ĠBl oom
Ġj av
Ġ( #
Ġabund ances
Ġarbit rarily
Ġform ations
h is
Ġnegoti ations
Ġch ron
ĠB ear
Aut o
ĠCommer ce
am pton
Ġapprop ri
Ñ ĩ
ĠTh under
ĠPeters burg
Go ogle
Ġar rows
represent ation
agon ist
Ġcont ested
13 6
Ġext rap
Ġro cks
Ġaccount ing
amp ed
Ġcivil ian
m ask
ĠFil ip
Ser ies
Ġthreat s
Ġle pton
C ustom
Ġpoor ly
ĠE lection
k ip
ĠG host
ill iant
c aster
ĠL oc
Ġw atched
ĠD rama
Con clusions
w aukee
13 7
Ġrow span
ĠĠĠĠĠĠĠĠĠĠĠĠĠĠĠĠ ĠĠĠĠĠĠĠĠĠĠĠĠ
ĠM ik
Ġmin es
Ġdiv isor
Ġh ate
p al
Ã± a
Ġdec oder
he ll
Ġanisot ropy
en burg
Ġdepart ments
ie v
Ġdig it
Ġkit chen
ĠR oche
ĠFilm s
ĠTransport ation
former ly
ĠJust in
ĠB ach
ce q
Ġpre val
M ah
Ġbelief s
Ġsh ops
Ġcry pt
ib n
R oute
t rain
s ame
in j
Ġall iance
Ã ī
Ġload ed
g auge
ĠBob by
In s
Ġsqu ared
}}{ (
ĠAb u
Re view
Ġbi ography
## #
Ġburn ing
B it
ĠBre ak
ig rant
Ġ$\ |\
ow der
ID S
A meric
Ġliter ally
ĠCy cl
ĠAzerbai jan
Ġany where
u ate
orn e
= $
Ġend ors
ĠAl ger
ĠCo hen
ous ing
Ġper ceived
Ġt ribute
Ġz ones
pat tern
Ġ\ )
ĠP os
ant astic
Ġfre ely
ĠE SP
ĠHis panic
enc ia
com parison
ĠC ell
ĠW ells
cm d
Ġmake up
ĠR O
Ġimplement s
ĠInter est
ĠObserv atory
n umer
gom ery
Cent ral
Ġmob ility
Ġf ed
ad apt
ap est
aur us
Ġlight ing
ap or
Ġcons olid
ĠM R
arr ison
Ġle pt
ry s
ĠMah ar
f c
ĠCam eron
` .
geq slant
Ġpat ron
O wn
Ġhist ogram
f ilm
CT ION
ĠS ob
av ailable
ĠAst ron
Ġsl ice
e very
Ġsl ave
Ġspeed s
ĠAssum ption
h uman
), \\
Ġto kens
Ġthere in
ĠL ot
){ $
Ġt idal
b ank
Ġspec ification
Ġcompl iance
G reat
L iter
Ġpers u
Cont in
W W
ĠR T
ich let
Ġdevelop er
us ive
ĠPers ian
Ġb ay
ĠS V
w rap
Ġto urs
Ġcon greg
Ġconduct or
Ġfactor ization
l iter
Te am
Ġveter an
P AR
Ġcollect ing
ĠGerm ans
R ect
Ġproduction s
ĠInd ependence
}} -\
ĠM aced
serv ices
ĠInst agram
r brace
ĠForm er
Ġproxim ity
ĠH ob
b ird
ĠSl oven
con e
m icro
ĠRes ource
ans k
Ġadm issible
m un
13 3
ĠRiemann ian
ill ance
w hat
Ġ( ).
Ġval ued
Ġbas ically
Ġf iring
[ ]{
ĠĠĠĠĠĠĠĠĠĠĠĠĠĠĠĠ ĠĠĠĠĠĠĠĠĠĠĠĠĠ
n atural
Ġear ning
c op
Ġpre st
Ġh ull
B egin
ĠSt ream
Ġco ins
g it
TE ST
Ġ" "
Ġch ronic
Ġcap ac
ĠG ilbert
Film ography
ĠN athan
ĠR ah
bur st
ext ension
Ġlaw suit
Ġt anks
ĠMon ey
Ph oto
Ġexc av
T reat
ĠA aron
akes pe
Ġn ut
r ceil
Ġexplo it
Act ive
Ġch apel
Ġn m
Ġin ject
Dat abase
ĠCh apel
Ġqu art
Ġr itual
Ġinf ected
ĠH E
ĠS ox
d an
ĠPl us
ĠAgric ulture
in ks
sur ance
Ġsubgroup s
Supp ort
inter pret
Ġcont ributes
rie ve
leg iate
ec ca
ad min
h in
n orth
ram es
w i
à ®
el ly
ab c
Ġcont our
Ġtel escope
Ġs isters
Am ong
Ġpro xy
akespe are
i ology
Ġemphas ize
Austral ia
ĠN L
Ġpod cast
ĠHeb rew
on ce
b eq
ĠB ag
Ġn inth
iz ard
sch ild
Ġv e
M ET
18 55
-- \
ĠArn old
J im
ĠL aura
ĠFlore nce
Ġ< =
ai ro
ĠF ast
ĠBris bane
ces ter
Ġh unt
18 58
ou x
Ġas ide
ĠCl aim
Ġtradition ally
f b
cor r
Ġcommand ed
Ġtourn aments
M ock
L ight
Ġbl ues
> ();
veloc ity
ellig ent
ĠPlan ck
Ã¶ n
ĠW ag
It s
Ar gs
ĠH at
ond e
Ġdr ives
Ġrecogn ised
Ġbroad er
ĠR ena
Ġhom ology
ĠCa uchy
\, $
Ġpoly mer
ĠCle arly
ĠAct or
Ġsc an
V s
Ġfoot age
Ġinaug ural
ul ous
Ġaccept able
ĠV eter
Ch ildren
Ġmot ions
im s
Ġfail ing
Ġk ernels
ik ing
ĠF BI
Ġp ill
Ġp ale
L ear
ĠHug hes
Ġpl enty
Ġexcit ations
Ġ( *
ess el
Ġpat ent
ne ut
ust ers
Ġbus y
Ġal ien
ac cept
n ov
M ember
assum ption
Ġattraction s
sett ings
ĠPr int
Pr ivate
ĠH av
Ġmod ulation
Ġdown stream
Ġrec alled
rosc opy
M aster
Con tact
Ġs or
Ġmy stery
Ġpal ace
Ġout line
ĠArt ists
ĠProduction s
N Y
F ace
un ches
ĠGe or
ĠHen ri
Ġde form
Ġcheck ing
f un
ĠN P
Ġmagn itudes
ĠBudd hist
}$ &
ĠV ar
g us
Ġimag ine
Ġcitiz en
Ġim perial
ĠSy l
ĠCh ap
Ġp ace
h im
Ġhe x
Ġass ists
st own
ĠVen ice
Ġj ack
itt en
i ast
Ġcontroll ing
Ġprint ing
ent o
n od
Ġl ung
Ġor al
ook ie
esign er
ipp er
S at
ĠR aw
Î µ
Pro file
1 19
ress ing
al gebras
Ġpart itions
weight ed
g ue
Ġcomplet eness
b v
ĠJ SON
L em
}) +
ĠE state
Ġtick ets
im mer
, '
ĠR AF
Ġdescript ions
G ER
Ġion ization
it ious
flu id
ĠTh ai
Ġcomplex es
Ġconf used
Ġm arch
Read er
{- }
Ġer u
th al
S a
G I
ĠE ld
Ġexp ans
18 54
j ud
ĠBo olean
Ġcompris ing
asc ade
d rew
ĠShang hai
ĠL arge
Ġem igrants
ĠF alse
R ivers
Ġreb uilt
ĠV oice
ĠH R
ĠL isa
ĠMar x
ĠD ol
Ġconduct ing
Ġer ected
bu ilt
Ġa fore
Ġt ribut
Ġprov inces
Ġhand ler
ĠWork ers
ĠAng lo
ur istic
Ġw ard
Ï ģ
Ġplay off
Ġexpl oring
Ġinteg rable
the ir
ĠDat abase
Ġaut onomous
f ollow
Football ers
d ark
th read
Ġprefer ence
ran o
Ġintern ationally
Ġm im
Ġthr iller
Q U
Com ment
F low
Eng ine
abet es
ĠS askat
Ġad op
ĠS oon
ĠR osen
con tains
ĠWork ing
Ġpen et
an che
ĠR alph
ĠY ale
Ġelev ated
F ar
T ri
ha o
p adding
_ ;
, ...
min ster
g art
Ġt une
Ġcompar isons
ĠC over
)- (
Ġhand ed
vari able
Ġtriang les
Ġas set
Ġc oding
Ġto m
Ġatt itude
T ake
ĠF iction
)$ ;
Ġsear ches
Ġcert ificate
ie u
^* _{
cell color
Ġtri angular
Ġsculpt ure
Ġin line
Ġm ouse
ĠR ams
Ġpredominant ly
] }$
ĠK ill
Ġmat hematic
Ġbe er
ĠA w
n or
Ġsp anning
ĠD iamond
ĠPh ase
oun s
ĠM Ã©
ĠB eth
eg al
.\ ]
ĠSy rian
L arge
Ġrel ocated
Ġgold en
M ex
p n
Ġtransform s
ÑĢ Ð°
rack ets
z hou
c ity
I EEE
ĠLeban on
16 5
check mark
ĠGreg ory
Ch ina
ĠA braham
@{ }}
| }\
Ġland ed
Ġ rays
ĠN ode
leg al
Ġdocument ed
ĠCit iz
ynam ical
Ġload ing
ĠM ul
Ġair line
Ġf ert
web kit
( (\
L ag
ĠC ut
um my
sec urity
18 56
Ġpop ulated
Def ine
$ ~\
l g
B etween
ell ers
Ġ å
ĠPed ro
Ob serv
h istor
Ġhapp ening
Ġsh ipping
Ġcorn ers
h agen
ce ive
M ary
13 8
B ad
cel ld
it ars
ĠRe ed
Ġrev ol
Ġco at
) _\
Ġbe ams
ĠCh ang
ail ure
am ine
Ġun changed
ĠF ish
w oman
Ġens uring
Ġmin istry
W ang
Ġrun ners
Ġconstitution al
is che
Ġm asks
ĠPr uss
Ġfun eral
ĠH em
ĠD rum
L ittle
)) ^
Ġdimension less
ĠWeek ly
ĠArch bishop
ithm etic
Ġret riev
nabl ed
ĠPar alymp
ĠJ in
Ġp uzz
ĠPlay ers
Ġsuccess ive
)} ]
ï ¿
Ġhe ll
ĠHar old
er k
Ġtour ism
ent in
b g
m ock
Ġreg imes
ĠSm art
Ġfor wards
Ġon set
er en
ut a
AN T
Ġdefend ers
T ex
ĠEd ge
Q ual
m ount
Ã¼ n
ĠY ellow
Ġconclud es
celld esigner
="../../ ../
Ġceleb ration
ado op
Ġt orsion
Ġ[ -
Ġpolar ized
Ġsoph istic
d etail
r ift
J ul
ĠW ald
ĠE mm
gg ed
ĠS ey
Ġbel t
the ore
Ġview ing
Ã¡ s
nu cle
` ,
Ġinvert ible
Ġj ew
Ġco arse
f eed
th ird
comm ut
c pp
W el
â Ĥ¬
to ol
Ġdifferent ly
ĠP ent
ab we
Ġp ars
ĠJ ar
ene ath
Ã Ĺ
ah an
Ġpron ounced
Ġproceed s
U r
Ġcult ures
Ġrecommend ation
Ġstret ch
al go
ĠGr ass
tx t
Ġt ape
ĠPhill ips
y u
Ġsc iences
Ġren ov
ĠL ex
ĠG ang
ĠL E
ign ment
Ġbu ying
ĠSud an
alth ough
ĠBl og
F N
}= -\
u ador
Ġassert ion
p ic
Ä Ł
Ġkid n
w ent
Ġafore mentioned
cal ar
}$ ~
Ġplace ment
Ġdistinct ive
ĠSi eg
Ġpro l
S B
ĠHar vey
ar u
Ġro ster
Ġconvolution al
un ique
fer m
Ġconf ined
A li
Ġhar vest
SS ERT
Ġillust ration
Ġoverw hel
W he
ol ine
uss els
================ ================
Ġfavour ite
}\, .
us c
att ribute
Ġlik es
ĠAg reement
Ġun w
ĠL amb
reg ation
ĠO scar
Ġsub mit
Ġver b
Ġdiff e
ĠMan uel
Ġpubl ish
ĠI de
ĠG ust
De lete
Ġrun time
Ġab bre
Ġdist ribut
ĠG or
inc ar
Ġl ip
t ons
ĠM ade
impl ies
Ġwealth y
Ġthr one
st ock
B ill
Ġturbul ent
ĠR av
D u
ĠC osm
Ġarchitect ures
Sim ilar
ĠS Ã£o
lement s
az y
Ġ Ø
aus es
Ġinsp ection
Ġco in
ĠH ost
row ing
G Hz
ĠCo ach
ĠH im
ma ps
sq l
un ivers
D ouble
he ld
Ġsust ained
Ġce ased
Ġ ðŁ
ce ut
Sy mbol
l ceil
bo ys
Ġout lined
ĠÃ ģ
ĠUg anda
F s
Ġanomal ous
Ġle ak
ĠL ac
umb ai
H o
C B
ĠStat istics
Ġback ward
Ġcan n
spect rum
ly ph
ok u
ĠE sc
Ġgraph ic
ĠSD SS
Dev ice
ĠEdd ie
}: \
-- >
Ġentreprene ur
ĠLat ino
ill es
st ead
Ġpract ition
Ġall ocated
es ome
F ac
Ġg ymn
Ġp our
Â ½
Ġb read
ose x
Ġselect ing
D utch
u ine
per ience
Ġmar ry
f x
Ġto mb
Ġburn ed
vi o
Ġpost p
ĠÐ ¿
Ġhierarch ical
load ed
18 52
Ġj ail
e ur
Ġinter active
ress ions
-------------------------------- --------------------------------
Ġbelong ed
Ġun ve
; <
Ġcl an
Ġsim ulate
imb abwe
Ġhard er
Ġdrum mer
ust ain
Ġmem ories
14 3
Ġb ipart
Ġapp s
ï¿ ½
, +
K im
el ia
Pro duct
arma ceut
Ġin jective
M atrix
d etails
ĠL ov
Ġchar ter
ĠVis ual
ential s
ro e
Ġ[ [
z ier
Death s
ex port
ĠF riend
Ð ·
h art
Ġsp ell
annot ation
Ġc attle
ev olution
Acc ount
Ġac res
Ġh itting
Ġg aps
Ġmetall ic
ĠD y
symmet ry
ĠDer by
Ġed itors
she et
Ġaccompl ished
eg an
ĠDe velop
hav ior
Dist rict
M id
ĠC ome
sw ick
ĠB av
} "
Ġexec ut
Ġtr ump
pr us
Ġp ion
d k
ĠCong o
K M
Ġstreng ths
Q CD
ur d
ĠB ody
Ch arts
ĠM atch
associ ated
Ġle agues
C opyright
Ġche st
By tes
Ġem otion
inn ers
J ud
re ach
Ġind oor
ah ler
}$ \\
En vironment
be it
no align
ĠArmen ian
ator ies
Ġconflic ts
est rian
small matrix
he art
Ġdes k
ĠClark e
Ġwonder ful
Ġb undles
Ġst roke
Ġgard ens
alt ies
ĠPerson al
em in
ĠSh ould
flu ence
rosso ver
qu is
fe ature
H ard
Ð ¹
ĠV irtual
isc her
_{\ {
Ġdisapp ear
] :
ĠE ve
ĠS old
Ġ& -
oc o
unc an
ĠÅ ł
ĠS ang
is cal
Ġin complete
oc c
l it
oc on
Ġr ice
ĠV ict
Ġt ale
\% ,
dot ted
i ya
Ġart work
ĠT aking
I rish
Ġte a
pos itory
Ġpsych ological
ĠD h
Ind ia
bas is
rec ated
Ġc ust
Ġr am
ĠCirc le
N ever
Ġal phabet
Ġearthqu ake
asc ular
Ġre con
Ġless ons
ĠGro ve
at ri
^+ _
ĠMethod s
ĠDiv is
ĠKer ala
ĠP T
Ġbackground s
t p
ĠT odd
ĠÃ Ĺ
J ob
Ġprom ised
C ert
dra wn
ĠNash ville
}\ |_{
ĠTe acher
ĠRay mond
Cor ollary
Pro gram
Ġbary on
A z
end um
scal ar
Pack age
Ġadjust ed
ĠWall ace
ugh t
id y
Ġop inions
l ov
Ġan xi
, $$
Ġpair wise
f urt
ĠP eng
ĠAn cient
F lo
Ġlett ing
ĠDo es
bo at
ĠComp etition
ĠLeon ard
Ġfit ness
ĠWell ington
ern ess
Ġc emetery
ĠW orth
w yn
Ġo mitted
ĠAm y
Ġr iders
em on
ĠS ou
ĠN ancy
d ependence
Ġthere after
ĠGab riel
Ġmaintain s
ĠNew castle
ĠSt rong
Ġsong writer
exp ect
ind ed
Ġprepar ing
the o
ĠChe ster
ĠG amb
Ġingred ients
sh ops
Ġs aint
d ie
ĠO g
ĠSh akespeare
D IR
Cl oud
h p
ĠT it
arc sec
ot ypes
Ġtreat y
Ġadopt ion
ĠIda ho
KE Y
b is
18 51
Ġphys ic
build ing
ĠAgain st
ester day
ĠV eh
sh ore
h ref
L ow
h orn
e i
im er
ĠA ra
P DF
ĠM ills
ĠK ash
Ġminim izing
ĠF ed
Ġinv ersion
aver age
F G
sw itch
bro ok
resol ved
R M
13 9
ĠNet flix
Ġen abling
ĠPlan et
ĠFried rich
Ġprov isions
D ebug
f itting
Ġcommunic ate
ĠK u
Ġnot ations
ĠR uth
Ġfif teen
Ġs overe
Ġad i
ĠG M
Ġl iver
Ġcrick eter
Ġs ang
Ġisol ation
Ġcontinu ation
Ġfollow ers
Ġfraction s
land o
ĠGl ass
Ġarch ive
Ġfarm ing
Ġt aste
ĠT at
er ie
Ġb racket
ĠH ash
Ġplay wright
Ġalleg ations
ess a
B ay
r ised
Ġpur su
Ġad equate
ac ular
ĠY a
t k
ĠBe ing
Ġcur rency
ĠEXP ECT
= >
form ula
Ġrec ruit
im en
Ġas p
t racks
ĠT yp
ĠB rid
Ġte eth
Ġdraft ed
E nabled
Ġe ating
13 1
play ing
ex ternal
//////////////// ////////////////
ĠEr nest
ĠG ene
ore n
Ġc ad
Ġunsuccess ful
en able
Al gorithm
Ġa viation
Ġesc aped
Ġassert Equals
Ġe cosystem
Ġinc umbent
ĠQu est
Ġto uring
Ob j
Ġ" /
At l
Ġuniqu eness
B ob
Const raint
pro gram
Ġd ictionary
ĠG az
b ay
S to
ĠCom edy
Ġestim ating
A x
ĠS ales
Ġfilter ing
Desc riptor
d g
ĠPr ison
osoph ical
Ġant is
sen al
ĠS ic
Ġsub urb
ĠShe ffield
Ġst er
ra pe
Ġam id
j j
Ġa pert
}} %
ob tained
M ath
Ġper ception
Ġid x
Ġhost ing
Ġexpert ise
ĠEx cell
leg ate
Ġcomment ary
Ġvalid ate
C rit
ĠS FR
Ġprob abilistic
Through out
Ġtransl ations
E nergy
EC K
in aries
Ġvol leyball
ĠColumb us
Ġcounterpart s
Ġvo ices
m g
ĠPhil osophy
Ġsubmar ine
ĠR us
Ġanal ogue
Ġd ose
ĠK il
Ġadv is
r vert
Lou is
Ġf aint
Ex amples
m ot
b rane
14 7
18 53
Ġh ang
Ġdisc ount
ĠS oci
ul ators
Ġd inner
}{ -
Ġboard s
Ġk pc
Ġfunction ality
ĠV illa
Ġif f
rel ativistic
Ġb orough
Ġth ir
Ġlik ed
Ġte ch
man ager
ish i
ĠAn aly
Que ue
ĠD ise
Ġinvestig ating
R ender
p ublished
Ġoscill ation
Ġpredecess or
. ][]{
con tact
I con
ĠTom my
ĠLuc as
ĠBul garian
Ġel dest
Ġcommer c
ĠP rest
I mm
us ers
Ġshould er
00 3
ĠR ule
C art
N V
Ġtravel s
im o
ĠIn surance
ĠNe umann
Ġe lem
Ġle x
Ġle ver
ur c
ur as
Âł Âł
S ION
ĠM ario
ĠP ul
sup set
Ġevol ve
ĠF O
Ġbl ank
ke V
Ġdis band
ok o
oe ing
und a
., ][]{
exist ence
roll ing
Addition al
ĠBey ond
Ġgeneral ize
Col lege
ĠFellow ship
Ġbas in
P erm
%% %%
Ġsign atures
Ġquarter back
ur rence
US Y
W alk
Ġem peror
Ġc ock
'' $
Ġsl opes
ĠB ears
Ġdecor ated
Ġun ified
Ġsem if
OD O
rot ate
ĠGu ild
Ġint ra
ari um
ĠS creen
st ed
M AP
_{ *
Ġbank rupt
l p
exp ression
ĠM B
hook rightarrow
yl an
Ġconcent rations
ĠM s
G er
Ġa u
20 8
t v
vel t
Ġtrav elled
Ġn g
Ġmorph isms
Ġmer ch
Comp anies
Ġcontact s
Ġsequ ential
| ,
Ġp ic
Ġsh aped
Disc ussion
er cis
ĠK umar
Th ird
m ove
sup ers
Mart in
Ġto ll
ĠMet al
Can ada
Ġport s
ĠRod rig
ĠFa ith
C NN
anc ers
Ġattend ance
che wan
Ġpropag ator
D iff
ra h
)\ |_{
ĠSch r
ad vant
Ġvol at
plac ian
Ġwith drew
Ġdro ve
ex ports
ieg e
ul in
Ġcon form
uns igned
Ġt ags
ĠProtest ant
Ġsurpr ised
Ġjo ins
Ġconduct ivity
sp ort
G reek
Ġg aming
ĠF oster
An alysis
ĠG y
et erm
Ġfilm ing
th us
Ġreg ret
ĠCard inals
ĠCol lect
AT O
Ġj son
ĠSp encer
g rim
ĠBenn ett
L ead
Ġb ishops
ĠLiber ty
Ġport ions
ĠJ ourn
clud ing
Ġm il
b org
elect ric
Ġcirc uits
Ġadvoc ate
Ġserv ers
Ġattack ing
Ï ĥ
pr ises
P arser
b ol
En ter
Ġm oon
Ġvis ibility
Ġsure ly
in ced
ĠI gn
Ġst eal
Ġconstit ute
Ġaff ecting
ĠCons ult
15 2
S up
Ġm sg
B road
equival ent
=\ ,
W ater
Ã¶ r
Ġ$ %
IG HT
Int eg
do es
ah l
Ġslow er
Play ers
Ġpresent ing
anc ies
Al tern
Ġrele vance
Ġdi et
Ġtour ist
Ġs aving
Ġw ond
Ġredshift s
ĠMont gomery
ec a
Ġhistor ically
Ġwe aken
at ible
ĠTib et
im uth
ĠC ork
R en
Ġdifferent iable
Ġdim in
Ġt ram
lig a
Ġdissip ation
ĠAn a
Ġult imate
dec ay
ian ces
ern er
A K
Ġhonor ary
ot yp
att s
Ġch ip
St orage
Ġto ured
Ġall ies
Ġpass ive
ass o
ĠEx amples
Ġbi ology
Ã© l
grad ient
Ġb if
ĠD eg
Ġreserv es
Ġl ag
i ref
Ġf ate
Ġspecial ist
ac ional
Ġtele phone
Ġaud iences
ĠPalest ine
b rand
Ġnorm s
Ġlab elled
Ġartifact s
ĠFran Ã§
ak ar
Ġflex ibility
ou ter
Ġmus cle
] _{\
end or
coupl ing
Ġs le
Ġc inem
Ġpack ages
rg b
am ation
ĠC ec
Ġh urt
Ġor n
C opy
Ġpredict s
Comm unes
in as
Ġa thlete
ĠR achel
ific ant
ĠRef s
Ġcomfort able
ĠHar bor
ĠV II
ĠC inema
ĠF oot
ĠV e
! }
Ġbe et
Ġs id
ow ards
FI LE
ĠO m
Ġun ions
Ġmod est
ps y
Ġdef ender
. }}
Ġre organ
ak u
Ġun em
Ġactiv ated
Ġdef ects
ĠFig ures
Ġsever ely
ĠAn im
Pol y
ĠSecond ary
Pro b
ĠCon tact
ĠF ighter
Ġ' /
Ġcomp lementary
rang er
ĠBaron et
Set ting
R o
ĠRon ald
G W
ĠTrans it
ĠM az
Ġiter ative
necess ary
ĠFran co
M Hz
ĠS ter
int rodu
Ġoptim ize
Ġm ad
Ġr ally
Sing les
ĠH az
m aterial
Ġ= &
Ġmyster ious
ex amples
sche me
B on
.\ ,\
Ġprogram mes
unc redited
So ft
3 30
ĠC MB
if iable
Ġdepend encies
hab ilit
ĠNap ole
ah a
h idden
H aving
ĠT all
P ref
ĠMal ay
ĠPer th
ĠD anny
ĠK as
ĠAng lican
ĠJo an
ad joint
IM P
}$ };
n ell
). \
ĠD ifferent
Ġper pet
ch oice
Ġcapt ures
ur bs
ĠH alf
Ġp icks
itte es
Ġcl othes
ercis es
ol ute
ĠN intendo
outhe astern
call back
S pr
App endix
Ġfall en
Ġalt itude
P ay
oc ent
i ens
ĠSe bast
ĠIm ages
Jose ph
Ġaff air
Ġalleged ly
air y
Ġachie vement
contin uous
L uc
^+ (
ĠRev ival
ĠNorth west
ĠK in
18 46
Ġsum mit
Ġreg ulatory
out ing
Ġalter ed
ĠAm endment
ĠBel arus
C s
Ġy ard
ĠConfeder ate
ĠR ice
ar in
Ġcap s
element s
Ġ$( {\
Ġb ug
Ġp ist
Ġax es
U k
Ġed iting
Im port
v dash
ĠK or
Ġas ymmetric
P red
Ġsusp ected
ĠRh odes
Ġreson ant
Ġen rolled
Ġmin eral
utr ition
Ġdiscuss ing
an ch
Ġor che
Ġthin ks
ĠJul ia
A uth
Ġb rane
ĠM ull
ĠE ight
Ġrem ix
ĠS ym
Ġsp ir
ist le
AR E
app endix
Ġab oard
ĠĠĠĠĠĠĠĠĠĠĠĠĠĠĠĠĠĠĠĠĠĠĠĠĠĠĠĠĠĠĠĠ ĠĠĠĠĠĠĠĠĠĠĠ
Ġstand ings
ĠIsa ac
Ġcart oon
W atch
20 2
ĠR andom
ag ent
ĠPark s
Ġspat ially
Ġspread ing
Ġcatal ogue
|\ ,
isc opal
ĠJenn ifer
Ġsubstr ate
ĠWars aw
A pi
H ouse
ĠC V
18 49
Ġimplement ing
ip se
Ġmet ropolitan
L ower
rel ative
ĠDec ision
as ta
Ġrom ance
ĠS uff
at em
Ġoscill ator
Ġ\ %
Ġz eros
ĠBro s
ĠNot able
Ġpsych ology
ĠN ine
ĠAddition al
typ edef
B ern
ĠReview s
__ __
v ac
ogene ity
ĠThrough out
ĠAll ied
ĠCont ent
Ġinf initely
add y
Equ ation
ĠRena issance
Ġsu ite
I reland
ĠDur ham
ĠBrun swick
mont on
Ġdef ect
Ġcomb ines
M u
P ers
f p
Ġbar rel
Ġhous ed
Ã ½
Ġdraw s
Ġkn ot
ri ke
approxim ation
Ġ$ ^
}: =\
ĠApp lication
math rel
ĠW ikipedia
pro duced
Ġfluct uation
co q
Ġmaxim ize
" `
Ġconc aten
w d
Ġconv inced
or ption
h d
reg ister
) )}
ĠT ong
orig in
Ġelli pt
Ġdesign ers
ab is
Ġrel ates
ĠRh ode
b log
m us
ĠD aw
oc ene
Ġarg ues
Ġsett lers
n al
Ġh ub
ĠB ec
unt ary
ĠEngine ers
pd ated
Ġpat ches
ĠP icture
Mem ory
Ġresign ation
Ġpredict ive
Ġt ent
ĠN g
Ġn inet
Ġmed ic
& #
s it
ed ges
ĠPaul o
H u
14 6
]{ $
} --\
J S
P od
Ġd ish
ph ib
names e
Hen ry
Ġl akes
t f
Ġfrag ment
Pr int
l ived
Ġtrav elling
Ġd b
Ġsee ks
C hen
song writer
ov ina
P a
ĠSw an
ĠEv ents
Ġdepict s
Ġpl ug
ĠB orel
ĠK rish
Ġcur ved
18 47
Ġg est
Ġj oy
Ġmet adata
id ation
Ġstrong est
at omic
Ġp ec
Ġcl ause
Ġel ite
ill on
zy me
ĠM is
X ML
ĠA j
Ġc f
ĠR af
se lection
ĠByz antine
Ġchalleng ed
Ġsuperv ision
ĠC raw
Ġfight ers
| $.
H ot
Ag ain
ĠO w
De ep
Ġsh ar
oy le
Su ccess
leg raph
ma ch
pr ising
Ġdepend ency
Ġamb ient
ov al
i q
itect ure
l ive
ĠO wen
ĠSh in
Ġed it
Ġup grade
D est
Ġrend ered
ex pr
Ġwalk ed
ĠA u
oltz mann
n il
Ġdis orders
vent ions
Ġcell ular
Ġe leg
ĠC e
Ġman ages
ne ver
Ġdescend ants
p it
Ġch apters
Ġmac ro
sc ore
od or
Ġmod ulo
Ġw orn
J SON
ĠPar ad
Ġsaf ely
Ġoverl ook
an z
ĠJ ung
ĠPal mer
Ġadmin istered
=" /
on so
ma jor
Ġcirc ulation
C ard
ĠD oll
ĠArm ed
n as
ĠD ame
ĠC redit
Ġb ol
ĠC lear
ĠV ery
ĠSch warz
ed o
Ġd ancing
ĠS hen
vers al
Ġt ier
ĠC SS
Ġr amp
ĠAng els
Ġaddition ally
Ext ension
ĠGener ation
P ut
Ġsub stance
Ġsl aves
m any
Ġdev ast
14 2
L java
Ġdiam ond
bor o
Ġwal let
Ġnovel ist
Ġterm inology
ĠLead ership
ĠM ine
ĠP aint
Ġdef ended
N ormal
ĠPear l
multip ut
W I
}}( {\
Ġroll ing
Ġgal actic
and ro
^* $.
Ġdesign ation
26 0
ĠS of
ĠWild life
Cl ose
ĠPlay Station
By te
ole v
ĠK ids
Test s
ĠEs sex
a que
Ġoutper forms
ĠF lying
Ġhe li
clud e
ĠHar per
Ġut ter
T L
}) }{\
Ch apter
part icular
ĠFour th
Ġcat aly
Ġa est
ĠHamb urg
Ġpit cher
Ġmagnet ization
Ġsec ular
Ġtim ber
SI ZE
un ov
Ġanth rop
ĠWood s
Ġautom ated
Ġcumul ative
te ch
ĠG overn
av ia
Ġbank ing
28 0
Ġdiplom atic
P ress
Ġtrans ient
it ance
Ġprior i
ari us
ll er
ll a
Reg ion
á ĥ
ill ation
ĠMus ical
ĠP or
p her
A BC
im an
ĠHit ler
ist ing
S oviet
ĠCamp us
oy age
ĠEag le
Ġf unc
ers hire
ĠAh med
ivid ually
ĠA ires
ĠL akes
Ġv ib
Ġtheorem s
B rown
C ategory
Ġfle w
Ġfrag ments
Ġpar abolic
ĠJ ur
Ġexhib itions
Ġprevent ed
ig ue
ĠGard ens
n ob
ĠB ened
Ġgrate ful
Trans action
b at
Ġprocess or
Ġreson ances
z el
Ġsport ing
Ġh ack
ther mal
other wise
Ġcount ed
M il
set up
Ar gent
)\ ;
Ġbound ing
Ġcharg ing
ĠPan ama
b ys
ent ropy
ĠPet e
P ac
ĠK err
20 5
k el
es a
ho e
tr igger
ĠM ail
Ġdest ro
ose velt
Ġstud ios
Ġv it
ĠOak land
Ġimp ression
G rad
ĠD A
c in
Ġen orm
ĠId ent
verb atim
Ġanaly zing
H op
Ġp ub
ĠP ink
Ġdom inate
Ġh ills
ron es
ag onal
ight ed
ĠN u
ĠG Hz
ateg y
\ ).
er i
Ġar ithmetic
que ue
h adoop
ĠF at
ox ide
Ġm ature
Ġan onymous
act ers
) ]{
L u
In formation
' }{
Ġbin aries
O H
Ġr uler
Ġphot ometry
ĠCar r
Ġtrigger ed
V V
Ġpat ri
ĠH aus
ur red
Ġfriend ship
and ed
gener ation
Ph ot
Ġwar rant
Ġacknowled ged
Ġcor ollary
Pl ayer
found er
Ġs lic
Ġbos onic
âĢ ĭ
f re
il ian
ĠL ak
21 1
ens ely
Ġem itted
Ġsomew here
Transport ation
ĠOrig inally
Ġadv ances
ĠGrand e
y ang
ib a
Ġvolunte er
L ab
}}{ {\
ĠC ort
al in
Ġf atal
depend ency
Ġdiscrep ancy
Ġen larg
ĠH arm
F ictional
Ġdist ortion
om ar
15 6
om position
ĠS ullivan
Ġfaith ful
T aking
Ġcan al
ĠA ub
ph ones
Ġdel ays
ĠNott ingham
Writ ers
16 8
g age
che z
L U
ĠS ett
Ġpre t
ĠAb b
Ġ\ ,\,
Ġan ch
ĠImp act
en eg
am med
Ġfeed ing
st en
Ġp ink
dis abled
ĠEncycl opedia
sche ma
Ġth rew
With out
app ly
var iance
k ers
l c
Ġmod ulus
pr inc
R ank
im pro
Ġref ined
Ġgra ins
FA ULT
ĠP owell
Ġsophistic ated
Ġident ifies
ĠR aid
ĠM essage
mark et
Ġgrad es
ĠP ython
isen berg
ĠHop kins
ber y
-\ !
cond itions
Ġtum or
You ng
ĠM umbai
ĠAd S
Ġavoid ed
ĠOt to
Ġwavel engths
he ng
item s
ĠScot ia
Ġgather ing
Ġnucle on
O B
Ġan satz
Ġide als
chi ef
Ġdemon stration
Ġexecut ives
prop ag
ĠBat man
ip eline
al most
Ġc iting
Ġtrunc ated
ĠO ption
mb f
bo ost
ĠN as
Ġv in
act ivity
Ġgu ided
ĠL iv
Ġrefuge es
ĠS weet
Ġanten na
Ġfermion ic
S equ
Ġspect roscopic
Ġsem antics
Reg ular
ĠConc ert
foot er
ĠO ber
ĠD raw
Ġlist ings
M sg
ast ics
15 4
ere k
ĠTas man
ĠCon st
Dan iel
og an
Ġpil ots
ĠPalest inian
ĠMil waukee
Ġeditor ial
ĠH us
ĠInt el
ĠRefer ence
ĠRet rieved
Ġrob ots
ĠPhys ical
Ġb acteria
ine q
Ġleg islature
ĠL or
trans fer
Ġhad ronic
ĠCy prus
Ġv ow
ĠMer it
ath a
\ @
u ons
Ġpres um
Ġconc urrent
Ġcogn itive
ath i
u id
dis k
ic us
ĠTh an
= &
ĠAd miral
k ernel
C ities
ĠR oth
Ġre forms
T ABLE
Ġagre ements
Spec ies
ĠA ur
ĠKaz akh
dimens ion
Ġbre eding
ĠCrim inal
Ġl oud
st ats
Ġcur riculum
ign er
Ġshe af
ĠAmb assador
pos al
ĠOut standing
H aw
ing en
ĠW rite
ĠP rague
ĠA part
Ġtr ig
Ġbr illiant
ic ons
W estern
Ġo w
ĠG ren
Ġaccess ed
Ã© r
G H
Ġd rain
ĠIn stitution
ass er
ash ing
ĠB ent
ĠP and
. *
ĠR ules
ĠIm port
Ġin cent
Ġkn ee
] +
Ġpass word
abul ary
Ġfl our
Ġsail ed
St ruct
Ġnumber ed
ĠLeg ion
Ġsumm ation
p rom
Ġfoss il
Ġlat ency
re ma
w ere
}{ .
Ġsoci eties
ĠM W
Ġanalog y
Ġflo ating
k al
Ġp unct
Ġrect angular
U SE
Ġmidfield er
Ġrefere e
Ġsent iment
Ġdisestabl ishments
V ir
_+ $
to o
ĠStock holm
) }^{
ig g
ark er
i ol
ĠBrook s
Time out
R ugby
Ġapp end
Ġincorpor ating
ĠVlad imir
ul k
Ġal umin
Ġown s
ĠEll is
ĠN om
Ġoff ense
b eck
n om
arri or
orthe astern
Ġexplain ing
F D
Ġhop ing
ĠKn ights
ĠT X
ĠDes ert
Ġterm inus
Col umb
Ġannih ilation
F oot
Ġnom inal
vanish ing
ĠJ ob
Ġdes irable
Ġsur f
Ġcro ps
O PT
per formance
v ary
Ġsat uration
ĠC N
Ġsc andal
ĠEm ma
14 1
Ġfix ing
F uture
Ġestim ators
Ġdebut s
Ġd ying
0 12
Ġwrit ings
ĠRe act
Ġsupers ymmetry
ĠG and
arch ive
ĠBl ake
const ruction
Ġdepart ed
S ervices
ĠDev on
Pol it
- )
Ġsp anned
ff bb
Ġhad ron
ĠMarc us
Ġn ights
Ġmorph ology
man uel
Ġgra ve
Ġconst rain
cont roller
run ning
ĠEm ily
Ġexpon ents
ov anni
{ +
Ġd ressed
ĠJul ian
){ $\
add r
Ġpregn ant
im ony
IT E
H ouses
in ar
Ġret reat
Ġsur jective
Ġb eneath
ĠInt roduction
H uman
Å Ľ
Ġathlet ic
Con struction
6 50
Ġstat istic
ĠTun is
Ġdo zen
Ġend point
Ġsimilar ities
ah u
with in
ĠHe aven
Ġdissol ved
F K
Ġrel iability
err ors
O s
ĠS ul
i ago
Ð ¿
ĠE V
18 5
ĠEc uador
c ourse
^ -\
Ġf unny
ing ers
ĠMathemat ics
P et
ĠP E
Ġpri ests
Ġb er
perturb ative
got ten
W ashington
ĠV a
{ #
Ġblock ed
Ġemploy ing
Ġres et
Ä Ļ
Ã ¯
Ġn ose
}), \
Ġperman ently
Ġdamp ing
Ġst olen
Ġsub script
umber land
ĠInn ovation
s ix
Ġcont amination
Ġb ind
in ites
omorphism s
ĠT ru
ĠHe ights
Ġfib ers
Ġtens ors
ut ations
Ġincre ment
en i
ĠG rad
Ġh tml
@ {\
In ternal
Ġmin us
ch air
18 45
A mb
s r
sc apes
ordin ates
Ġdial ect
I J
Orig inal
ogn ition
Ġgain ing
g ary
ant om
t l
im m
ĠAct ress
Ġque en
ret ch
LE CT
)} +
ĠDef ault
Ġlift ed
ĠD j
Sim ple
pg f
Ġment ions
ĠD esc
by ter
\ ),
p ull
ĠC ann
ĠS qu
Ġauthor ized
ĠSaskat chewan
el in
c ro
ĠCh oice
Ġtreat ments
Pan el
on ormal
ĠSc ar
ĠM IT
ĠMan it
Ġhuman ity
ogen ic
Ġpione er
U ST
Ġinter faces
ĠEn s
Ġw ars
lev ard
ĠCre ative
Phys Rev
á Ģ
AR D
Ġsem igroup
pred ict
P resent
ĠM iles
ĠCon v
Tax onomy
ox y
E r
tem p
Ġinteg rity
Ġqual ification
a ude
s ave
sh i
ĠD B
Ġpreserv ation
Ġlimit ation
ĠA G
15 8
c ock
ract ing
atter y
Ġanaly tically
Ġb ell
ĠI BM
14 8
AR S
eyn man
ĠBas ic
Ġdesign ing
iff e
_ ,
am as
out ube
ĠHol mes
Ġconf ident
j ack
ĠH ubble
Ġlock ed
' })
ĠA chie
ĠCl imate
ĠResp onse
ĠDisc overy
ĠMan ila
Ġcal ib
ĠInd ies
Ġm a
rest rial
prob ability
ĠSu ccess
Ġag gressive
ĠCab inet
Ġsp ite
Th ough
re b
ĠCol in
l um
ac er
Ġachie vements
Sche dule
ĠR C
Ġres iding
Ġfore ground
Ġ" [
Ġax ial
ĠWil helm
ĠJ unction
inf all
method s
or um
charg ed
ĠSom erset
triang leq
16 6
atin um
ĠDav ies
Element s
ĠĠĠĠĠĠĠĠĠĠĠĠĠĠĠĠ ĠĠĠĠĠĠĠĠĠĠĠĠĠĠ
Ġpoll ution
ĠO z
ing o
[ :
op ened
Ġs ung
Ġanisot ropic
ĠMig uel
Ġs its
ĠForm ation
c amp
up iter
$ ]
at able
Ġnon negative
Ġacceler ated
' ^
Ġb ike
ĠHer ald
ĠB Y
m agnetic
oper ation
ĠM ink
ĠInter view
ins ki
ĠBu enos
ĠF lem
f red
ĠNetwork s
app rop
Ġgen uine
supp orted
ĠR ol
ĠCommunic ation
Ġmem oir
Ġf isher
' _{\
Ġinh ab
{ -\
ett es
ang ered
emph is
d h
15 7
ĠRe lease
ĠI v
n odes
ad j
Ġsub stitution
( !
as ympt
Vert ex
ĠSalv ador
ĠV AL
taint y
Ġcor ps
Ġmon astery
Ġcon figure
Ġlo ose
Ġcryst all
L anguage
sub ject
Ġa uth
B eh
P Y
Ġmicrosc opic
pl ots
Ġfor ty
pl ugins
14 9
oll o
Ġ' '
Â ®
Ġt enth
Ġform ats
Ġs addle
ĠZ imbabwe
ĠChel sea
Ġcombinator ial
. }.
ag le
Ġremember ed
ĠInit ially
id x
ĠF antasy
Ġwild life
Public ations
od ia
p seud
ent a
ĠJac ques
n is
}} }(
Ġal pha
^* $,
b atch
ip eg
exp ansion
fl ags
open hagen
ĠDir ichlet
Ġiniti atives
s ided
w ould
ine es
Ġl ob
Mod ern
Ġlater al
Rem ark
Ġpuls es
Ġinstance of
}^{ -\
ĠSus sex
ĠIndones ian
s elling
ĠN ormal
ĠNiger ian
j ee
Ġw ore
ĠG auss
a ft
es y
Ġseem ingly
Ġfavor able
.&.& .&.&
D etails
_ ->
pos able
sl o
ĠCroat ian
* }\
C G
Pat tern
ĠB od
ĠU ntil
ĠF an
ĠN urs
Ġsp acing
the m
S om
Ġgu itars
Ġimm un
sc ribe
ĠA A
Pro xy
Ġsepar able
Ġp unk
Ġren owned
Ġc ant
15 1
Â »
{ }\
Dis play
Ġsimultane ous
Ġab st
Ġsup erm
ĠV ers
ĠSim pson
ounc ing
ys on
Ġcollabor ated
N orthern
Ġin ches
ĠClass ical
........ ........
w y
ĠB row
cle an
Â ·
S ta
scal ing
as ive
ĠE R
Ġf ifty
Ġwe igh
ph on
Ġspect roscopy
Ġn ephe
ĠJohann es
Ġrecept or
Ch anged
pol icy
Ġre written
Ġdivor ce
Ġneighbour ing
Ġquant ify
Ġdom inates
% ),
c u
Ġlin king
heim er
clip se
Ġn od
Ġas h
ĠRic ci
Ġener get
P y
ĠSh ield
Ġresear cher
sm ith
Ġunder graduate
App ro
ĠPop ular
S G
iv ially
ĠH ass
any on
s al
Ġflow er
Ġany way
Leg acy
ĠFl ash
ed e
ĠBr ussels
M arg
15 3
Ġfre ight
ĠP it
Ġsw ing
Ġdemand ing
{ }{
ĠW inds
ild a
ar v
Ġharm on
Ġsimplic ial
Ġbatt alion
L iber
10 24
K er
00 4
ams ung
ou p
Ġpro gen
ĠP D
ĠGe off
Ġdem ocratic
og on
c ert
Ġsett le
ĠC ay
18 37
Ġathlet ics
ĠC I
Const ants
ĠSt okes
Rep ort
ĠMethod ist
ost ics
ĠPunj ab
,\ ;
Ġto y
ÅĤ aw
Ġinsert ed
ĠMc L
U ID
Ġadi abatic
ott i
Ġnation wide
ĠIll ust
Ġrep ly
ĠWest minster
ĠLin ux
ĠB O
Ġp ap
Ġdevelop s
Ġaccording ly
Ġemer ge
Stand ard
)^{ -\
mem ory
p are
ĠD uncan
Ġequ ity
le z
un ting
Ab stract
t uple
h over
cl ock
3 65
let te
z hang
| <
ĠCom ment
sing ular
Ġspeak s
n ai
Ġperform ers
ĠCour se
Ġann ex
Ġbr ut
Ġun e
Ġloc us
ps frag
Ġcomp rised
Ġdec oupl
F unc
ĠRo osevelt
t m
Ġproceed ings
ĠStev ens
all a
Ġch ore
Ġapproach ing
Reg ister
es ar
Ġcontext s
Ġamb assador
conver gence
on ne
Ġball ot
}} [
Method s
ed i
Ġstat istically
ĠL if
Ġarchitect s
Ġdiff use
to ols
pl atform
prim ary
Ġrele asing
ĠIss ue
ian i
? )
ĠV ern
che l
observ ed
ĠMoroc co
re ason
ĠK illing
Ed ge
Ġvers e
v ity
)+ (
Ġs iege
Ø ±
ĠG ets
M ountain
Ġsupers ymmetric
16 7
Ġsurviv ors
Ġh alt
emb ourg
ĠB io
. \,
ĠL ik
Ġrecip ients
ĠB ound
ĠTr uth
Ġdies el
ibl ings
Ġnick name
Ġb icy
lic t
Ġhypot heses
ĠP H
=" "
assert Equals
ĠE ye
Ġexp ense
tikz cd
Ġin clusive
ĠL ok
Ġan ger
Ġep ic
Ġimm une
ĠGu itar
Ġman ually
at ta
sq cup
Ġ> >
Ġsome how
P ublished
ev ol
ĠEnter prise
Ġc avalry
ĠPaul i
Ġm eth
Ġsing let
Ġres umed
over view
ras er
ĠGP U
uis ine
S QL
m obile
Ġenter prise
ĠRevolution ary
O F
Ġw at
ĠAl pha
u ating
whe el
Ġpun ishment
Ġrenew ed
Ġshort est
H OD
ĠTy ler
}\ |\
22 4
5 50
ĠPo etry
dist rict
18 44
Ġtri ps
p u
cont rolled
el ong
Ġgra phe
st re
K h
Ġup set
\% .
Ġpo inter
ĠMaur ice
R ole
Ġevent ual
Iter ator
ĠK lein
n ut
Ġ ...,
rape ut
c as
ĠM ead
Ġdemand ed
Sm all
Ġpresc ription
}^ -
Ġper ipher
Ġreleg ated
Ġhop ed
ĠProgram me
ĠAdvent ure
an ian
Ġprec ip
Ġland mark
ocol ate
Ġm ath
Ġback ed
ĠEvent ually
Ġpian ist
ĠZ h
ĠC av
Ġsubt le
Ġf ires
ĠT ampa
Ġsk ip
Ġb achelor
s an
18 20
Ġspl its
LO G
J on
Ġbe aring
ĠMod els
Ġlif estyle
ag ain
ĠS aw
rac es
sp ot
ch anging
Ġjournal ism
ĠVol unte
ĠBan ach
ĠM TV
Ġkinem atic
Ġf ung
ĠA ges
S ar
ibl ical
ĠF actory
ĠV ision
ra its
ĠF ul
we ets
ĠJama ica
ĠD as
__ (
ĠEmer gency
× ķ
ĠA ri
sc roll
Un incorporated
ĠS ED
Ġin ev
ĠF olk
Ġconsp iracy
Ġsuperconduct ing
ĠESP N
Ġm uon
Ġl oyal
Ġyield ing
ĠM ang
)$ :
Ġany more
Ġmark ing
F il
ĠY an
P rom
g iving
og o
Ġcont ours
Sec ret
}} ;
ĠF ra
Ġsens ing
Ġelim ination
Ġche ap
ĠProv incial
Ġbeat en
ĠNe uro
ĠBos nia
us a
ess ages
m itting
}} |
T rad
ab ases
Ġl as
ĠO st
Ġpur ple
ĠB anks
ili ation
ĠHind i
Ġbreak down
AM P
ĠSur v
ĠCurrent ly
ĠArm strong
b racket
ĠT iger
ĠJer emy
Ġ+ (
stit u
)} +\
id ays
d iamond
Ġcon ce
ĠO rt
S elf
Ġhard ly
Ġdes per
Ġre conc
ĠInd igenous
ced ure
Ġgu ards
Ġkill s
* )
ĠR ush
y i
Ġst uck
Ġpsy chiat
ĠK arn
Ġfound ers
utt le
Ġp c
wid get
Ġr idge
L es
ĠS ons
18 12
rest rict
E ducational
op a
Ġemp ire
N I
18 39
d one
st ars
Ġin ad
ĠN othing
Ġl obby
ol ith
Ġdec oding
Swed ish
V R
Ġ{ (
m ans
Ġl attices
ĠP rec
Ġinduct ed
Ġt ips
ĠBrown ian
Ġexcept ions
pos ite
ĠC rist
Ġcho ir
E s
Ġsatell ites
cy l
ch in
found ed
Ġg amb
be am
ĠDist inguished
sh own
ĠÐ ²
ĠAdvis ory
æ ľ
Ġb rackets
ĠV il
Con struct
Ġbenef icial
R oad
Ġbe ars
Ġlux ury
20 3
type of
Ġmer c
à¥ į
B Y
It ems
Ġnob le
vis ible
t oggle
Ġp iv
Ġb ats
ĠFran z
}=\ {
Ġby pass
pt s
Ġind ividually
ĠEx hibition
Ġdram atically
Ġpray er
re ne
) }}{
o fficial
r ific
ĠE T
Ġlo ans
Ġlock down
ĠPrinc eton
Ġutil izing
Ġprevent ing
ĠE D
Ġmer ging
ĠCorn wall
ĠCom plete
Ġaddress ing
Ġf ur
inter action
prot ected
ĠYugoslav ia
Ġapert ure
ĠAr g
v p
De velopment
ĠN H
Ġf ame
Ġconstitu encies
ĠPo incar
ĠAndrew s
ĠC rystal
im i
ĠO K
or ers
Ġhot els
ĠP orter
th rows
Ġaffili ate
/ >
Per formance
ĠEll i
ĠB irth
Ġmiss ile
Ġadvert is
ĠSw ift
st orm
Ġj Query
Ġcre ator
Ġparamet ric
Ġeng aging
wh ose
\% )
que z
or ange
ol an
ĠO P
W ood
Ġun incorporated
ĠH ess
ĠG ov
ups ilon
L I
ĠAn imal
G erm
ĠG Ã¶
Ġh o
ne um
ĠD escription
Ġpr ince
ĠW ick
ĠGib bs
Ġrecru ited
ĠA ch
Ġis t
ic ates
Ġenc ode
Cl uster
' },
O UT
pm od
Th anks
ĠLore n
T y
Ġnot ions
Ġpush ing
T ool
Ġc rossover
ĠF P
L en
", "
Ġaltern ating
Ġacknowled ges
}{ (\
Ġbomb ing
Ġout going
Ġinstit ute
un ar
Ġexclud e
ubb ard
P b
Ġob s
m ons
less ly
Ġrev ival
Ġdisapp eared
ĠIs le
N AS
Ġjav ax
18 38
Ġf o
Ġcha os
Ġarchae ological
os itory
Ġdro pping
A h
Ġreason ably
Ġcarri ers
Ġsuccess ion
ĠW id
ĠHe ath
em er
ĠCh ase
Ġc rop
Ġc ouncill
Ġun anim
Ġacadem y
Ġelabor ate
ash ire
V an
Ġprot ecting
label ed
× Ļ
up ta
Pl ugin
power ed
Ġs ink
Ġminim ization
}\ {
Ġreb uild
Ġassess ed
ĠF o
18 35
Ġw ishes
eg ovina
Ġcler gy
a uc
Ġp ounds
ch art
Ġare na
ĠH ack
Ġwork shop
J er
ĠA way
ĠPak istani
ĠAll an
ĠTw enty
ĠCard inal
Ġcomm enced
ĠMem ory
c ence
ĠSp ider
ĠCa uc
aj i
ĠBry an
Ġtow ers
or ate
Ã© g
Ġmark er
ĠBe h
ĠFl ag
ĠRichard son
D id
Ġmist ake
^* )
c orn
m eter
Ġrend ering
Ġbare ly
ig i
ri o
n r
Ġtor ped
b rief
ĠD in
ast ed
Ġevery day
dat aset
ĠD S
Ġcapt uring
ĠL L
ĠIn put
inst all
Ed it
ad ier
Ġstay ing
ol ics
Ġinf ections
)}\ \
ĠBr as
m orph
ĠM uk
F ort
] ,\
ĠM ob
Ġb ills
ad oc
Ġb esides
Style ID
abl o
ĠCor p
ij a
16 9
ER N
Ġconfer ences
Ġphil anth
ap a
Bas ic
ĠW I
ĠW arriors
ĠM N
Ġfle e
Ġf ru
ĠSl av
pass word
t mp
ĠB elf
Ġreflect ing
rid or
Ġk iss
ĠCal gary
deg enerate
ĠIraq i
ĠH ir
d w
ĠDivis iÃ³n
ill ary
ĠCh ad
hen ce
ĠSpe aker
Ġmot if
ing ale
aren cy
Sc ope
ĠR ole
Ġimportant ly
ĠS Y
Ġsuggest ions
Ġsur pass
Ġindic ation
Ad S
Ġlov es
nt hesis
rif ice
Ġgraphe ne
Ġext inct
ĠK urt
Ch ris
33 3
Ġche ss
bal ance
Ġfilter ed
ĠD im
Ġen roll
Ġkil ometers
ĠIn side
e ah
y g
T a
Ï Ĥ
nd ez
Ġattack er
Ġpl aus
d iam
ĠBer ry
Ġvot er
Ġmet als
x t
ĠVal ent
Wid get
Ġshel ter
M ENT
i per
Ġunder went
ĠSher iff
Ġsurve illance
Ġcon vey
sp eaking
Ġpit ched
1 200
S ound
Ġkill er
() ).
Ġcosm ology
tw itter
ĠAbd ul
Ġf riction
Ġanticip ated
Ġt ar
Ġvi able
ĠG B
g b
18 41
set counter
Ġcoll apsed
ĠR ib
Ch ief
Ġeth n
Ġhar ass
ĠBa iley
ĠI SO
ĠIndian apolis
ur face
ĠLind a
thin space
Sc ience
F iles
âĢ¦ .
Z hang
pl ant
16 4
Ġcul min
() ));
23 5
ĠIm pro
ĠLithuan ia
ct uary
OW N
Jo in
Dem ocratic
const rained
Ġ% }
Ġshell s
qu est
ĠPl ate
ĠHend erson
^{- (
A bs
)= -
iling ual
ĠL R
Ġwarn ed
Ġt weet
ĠX X
Ġde comp
Ġaz imuth
enti eth
ho ff
Ġmer gers
load ing
Ġtransport ed
fam ilies
} ''
ĠDou g
15 9
Ġjud gment
Ġwhe els
ĠW end
pe z
ĠPrinc ipal
hard t
w ild
ĠF eder
ĠDr ug
Ġbox ing
block List
M G
ST AT
ĠLou ise
Car l
am oto
}= {\
ĠQu antum
Ġac ute
st roke
Ġexceed s
C ulture
Ġcan on
000 1
me chan
Ġavoid ing
P ak
ĠC openhagen
Ġsc ar
Ġsw ord
ĠPer iod
Ġlegend ary
Ġsub spaces
ĠD ylan
Ġjust ified
I l
ir cl
D ialog
ĠWe ather
ĠEngine er
20 4
ĠD ale
Cle arly
at io
Ġon wards
ĠGen eva
g ender
Ġhon ey
Ġgradu ation
Ġep it
Ġtoler ance
itro gen
K G
Vol ume
ĠAssoci ate
Ġaug mented
ĠMed ic
ĠD oc
ĠH TT
ç ļ
ĠSt op
oc cup
Ġdiscuss es
at su
d ia
Ġparad igm
tabular newline
Ġ( @
intend ent
Ġro uting
Ġman s
Ġm ood
The ir
ar is
Ġ\ '
ount ers
)\ )
in sp
ĠR ut
Ġcitizens hip
st eps
ĠR R
ĠC B
Ġen act
Ġupgrad ed
Ġk ings
In c
ac iÃ³n
ess es
prot ocol
J ECT
FOR M
ĠA post
ĠP om
Ġle verage
Ġsc reens
Ġlegit imate
ĠRec ently
P rem
sc en
Ġgl ac
ĠC i
Ġelectron ics
)= -\
C lim
ĠH ey
Ġso ap
Å Ļ
), $
Fl ags
ĠCon fig
Ġde alt
Ġneighborhood s
Ġfl ank
bi ased
ĠP iano
&& &&
vert ical
Ġextra ordinary
Acknowledg ements
Ġro d
Ġrep ublic
Ġcha otic
16 00
ious ly
Ġcat hedral
kins on
Ġhas n
d B
Ġm all
ĠB ullet
l ap
Ġtend ency
}^{ {\
| ^{\
ĠCub an
Ġwid ths
Ġh ind
d ou
Ġconvent ions
l f
As ian
Pol itics
ĠH aven
pro ps
Ġpe ers
ĠD L
RE AD
Ġsched uling
r ub
row ave
ram id
Ġste pped
Ġclean ing
stan bul
CD M
ph or
Ġadv ised
ĠInd ividual
Ġviol ations
ĠHe at
ĠGl obe
g irl
ĠP apers
Ġline up
min imum
ID E
ĠSol omon
)\, ,
Ġtri o
Ġab olished
\ :
C red
Ġ ul
uls ive
.. ."
list ing
Ġaw ait
Ġr ifle
Ġfore ver
le ys
th row
ĠSt yle
Ġsupp ress
Ġra infall
Ġbad ly
ĠBurn s
Ġwar fare
ant le
Ġint rig
ĠMan ufact
=\ !
a very
ĠLet ters
ĠAp ache
Cond ition
l ated
pl oys
Ġsche ma
Ġb arriers
ĠOr lando
ĠM T
ĠRe id
AT OR
Ġexplan ations
Ġflo ors
Pr inc
) ">
ĠH i
}} /
Ġstrugg ling
sp here
ĠGl ou
cha ft
ĠE t
Ġr ises
r ors
Ġcivil ians
ĠF ROM
N i
Ġp aired
17 8
ig ator
ĠMc Donald
Ġdegener acy
Ġen zyme
m h
un ion
18 43
ĠEd monton
ĠL it
om al
big cap
ĠWhe ther
Ġbrig ade
math ord
Ġcab in
ĠC ord
17 6
Ġb otan
ĠLand roid
ĠCont ract
)}{ (
Pol ish
Ù Ĩ
ĠBrad ley
Ġ$ +
R andom
im edia
comb ination
Ġassemb led
Ġb out
Ġrock et
Ġprison er
av g
K B
;\;\ ;\;\
Ġmand atory
Polit icians
C u
ull ah
Ġimp ressed
ĠMal ta
Ġtre ating
Ġpra ise
ĠYank ees
16 2
Ġde ce
Ġinc idence
Ġdraw ings
Ġinvest ments
ĠK yle
Ġpresc ribed
Pro gress
ĠRail ways
ĠSh op
enz ie
3 80
Ġin sufficient
re lease
k pc
ne apolis
e cho
ĠL odge
Ġcomplic ations
ol er
ĠMay be
Ġdream s
Ġun cover
Act ivity
ĠM old
Ġqu ote
Ġem otions
ien ne
4 80
Ġadm ission
Ġprest igious
\ ;\
ĠI sh
Ġcasual ties
ĠHard y
ĠSant iago
Ġw orm
ĠH ousing
Ġbi jection
T i
Ġast roph
Ġrelax ed
Ġm eter
Ġt uple
ad dition
ĠAdvent ures
l ore
us hes
Ġemer gence
Ġdecl aration
Ù ħ
Ġra pe
ident ified
G od
| +
ĠIN TE
Ġtheat rical
ĠTre k
by e
ri ans
Comb ining
ĠCh uck
Ġconsult ant
j in
ĠH off
Ġleg isl
G i
ĠPublic ations
Ġre he
Ġless er
Ġter rain
Ġst ays
18 36
spect ral
R ic
ĠSol id
Ġsc roll
Ġ[ ];
Ġconcept ual
g re
Ġrel atives
ĠManit oba
f ony
ĠAud io
Ġcle ared
Ġhelic opter
log y
Ġmidfield ers
ĠZ ar
$ _\
n at
Ġdiagn osed
om ical
ĠHerz egovina
Ġround ed
ĠArch ae
ric a
Ġwork shops
; }
ĠPl atform
Rec ently
Ġtra iler
Ġdisc overs
á ¸
Ġwitness es
Ġlens ing
Ġsu ited
Ġadv isor
Ġc ube
Ġtem ples
ar re
ĠDev il
Ġprem ium
Ġdegrad ation
Ġs ulf
ĠK aren
22 2
Ġviol ated
Ge org
Ġtor que
Ġen umer
ĠBudd h
ĠC anyon
Ġrefer endum
er als
Ġn aming
ĠMe eting
ĠF emale
Ġj umps
I AL
Ġparticip ant
Brazil ian
al p
rypt ed
om ers
id ian
ĠRe ich
ĠCel tic
Ġ Ñģ
Ġst ones
Ġcycl ing
ĠAcadem ic
Ġimp lying
ĠGer ald
() {
s chool
ĠLet ter
Ġsqu ee
ĠLuc y
ĠViet namese
k j
fra id
Ġl ady
Ġinv ented
ĠP sy
N atural
ĠN uclear
18 32
NavBar Cell
ĠG ross
Ġfarm s
Ġenorm ous
rop a
) *
ess ing
ong o
f ri
ĠW W
SS M
ĠS EC
Ġre ass
Ġv ig
part ition
Ar thur
t abl
F ellow
Ġch lor
at um
y on
cess ion
Ġgirl friend
Ġbroadcast s
ov ic
Ġenc ounters
hig her
ĠC ategory
Ġlist ener
establ ished
Col lections
Ġfro zen
Micro soft
ĠC yr
Q A
Ġtimes cale
ĠShort ly
Ġcy ber
Ġs ew
ĠA bs
Ġaccompany ing
{ "
Rec ent
Ġincl ination
ĠKenn eth
ben ch
: [
alk eeper
Ġwid ow
ĠGib son
oca ust
Ġp ending
Ġfe ud
ĠX box
24 5
_* $
Ġsymbol ic
ess ment
ell ation
ĠSe pt
Ġpur sued
amp ire
ĠSer ver
Ġdup lic
Ġorth onormal
omet own
]{ @{}
aff e
z ens
Ġgram mar
Ġw are
Ġspec imens
Ġhal os
ric ia
bre ve
ĠCommer cial
by tes
ĠTan z
3 75
Ġsal ary
Ġvocal ist
ĠS ale
ĠF inals
Se lection
ter bury
Ġthread s
ĠAb original
Ġst iff
res et
Ġsh ocks
lass ical
im on
Ġr h
Ġstri kes
ĠHel p
} &=&
Ġrevolution ary
c ats
t uning
print f
o que
Ġc ref
ĠR GB
ĠG O
pl anes
ĠZ ero
å ı
Ġinv ention
] =\
r ar
le en
][ '
j ob
Ġrig orous
Ġnation ally
Key s
E mail
ĠG A
16 3
hor izontal
ĠGram my
Ġfurn iture
Ġtet ra
ep age
Select or
att y
Ġtransmit ter
M ike
g overnment
z t
N eg
N ULL
Ġnovel ists
w ald
And rew
vi ol
Ġf iltration
Ġimprison ed
Ġjud icial
* ,
Ġcl ay
Ġphon on
Pro blem
ĠAr ctic
ĠBi ography
ĠPop ulation
B rien
ĠO H
ĠD ob
Ġspont aneous
op ol
ĠBou levard
i ating
Ġf Ã¼r
K T
av ian
Ġform ulate
s emi
Ġn ic
ĠH od
ĠJourn ey
( |\
ĠCurt is
itt ers
ĠSim ple
Ġmort ality
Ġ io
Ġd ir
Y P
m k
Ġ} _{
fl ag
Ġsmooth ing
ĠG othic
ĠPro gress
Ġd ancer
Ġcomed ian
ĠEd mund
Ġdepos its
at op
sh ared
c ot
pe ak
Ġw ound
Ġl ane
}) \\
A ff
Ġpar as
Ġdeb ug
ĠPubl ished
Sp ect
Ġrevers ed
D a
ub le
ĠDen ote
Ġvirt ue
d ifferential
ract ive
{- .
sp ects
Ġcryst als
Ġannot ation
I sl
n othing
D epend
pr iv
Ã§ Ã£o
Ġp ipe
ĠHe in
ĠUr ugu
m ixed
Tra ce
res on
Ġ& =\
aw i
Ġshow er
che t
ĠBarn es
ĠR A
cer to
ĠDomin ican
V ictor
ring e
es se
Ġt uned
Ã© m
Ġfac ial
Ġplanet ary
H ub
Î »
am on
Ġsol ves
n ick
uli ar
Ġpro c
Ġvict ories
ĠStart ing
ĠDub ai
Ġgame play
b inary
g rand
ef ully
qu estion
oy a
Ġdub bed
Ġnom inee
w u
A st
ĠCart esian
ĠB ever
Gener ic
ĠSt atus
0 10
C ost
$\ %
pre ced
Ġm ice
Ġcontract ed
ĠCh in
ĠSp ot
ĠAct ive
Ġref inement
M ake
uk u
oy alty
r ases
Un ique
andid ates
ĠMar in
Not Null
Ġconcent rate
Ġcompat ibility
\ },\
pl aced
Res ol
ĠAlbum s
Ġl ighter
raph ic
Stat ement
Ġcardinal ity
Ġperm utations
Ġmut ation
ell ite
p ent
ĠS ig
Ġdiv iding
Ġincred ible
ĠArmen ia
P ier
Ġclass ify
ĠWy oming
ĠCond ition
sign al
ĠCont est
ibr ations
Ġnever theless
18 42
Sc roll
in ia
is le
Ġen v
ION S
g ard
Ġmain land
Ġback up
Ex perimental
Ġveter ans
Ġsub mission
f lex
j ourn
min imal
LE D
J P
od ium
s il
cl os
ĠSum mit
ag ne
t u
qu bit
te in
Ġcap ita
EL D
in her
L os
Ġrecurs ive
Ġr ic
object s
Ġmyth ology
} <\
ĠB ran
test ing
Ġhum or
}) +\
ae us
Ġâ ĪĴ
assert Equal
Ġexpans ions
ĠWh ich
be at
ĠL S
Ġcondens ate
Ind ividual
ĠG ent
S ample
Ġm s
17 7
With in
ĠS QL
ll ll
Ġtouchdown s
St ructure
Ġcomm ute
uck et
)}\ ,
ĠEr n
R F
Ġcolon ies
col m
Ġgrand son
Ġex ports
l Vert
}$. }
requ ired
rad io
c ia
99 9
Ġcert ification
ĠWinn ipeg
pref ix
R h
n x
R NA
Ġb unch
Ġl unch
Ph ase
integ er
g overnor
edd y
Ġint elligent
Ġcomplaint s
ĠGra duate
Ġw rapped
ĠLeg islature
Ġdiagn ostic
) ^*
hed ron
Ġsub scription
VER SION
gl ass
Ġst y
ion ic
est e
T yp
Ġr ul
Ġencourag ing
ĠK iss
St an
ĠChem ical
Ġmultiplic ative
Ġdiscipl ine
nd ef
Ġd ock
ho o
J ean
Ġtarget ing
ĠWrit ers
Ġcur s
Ġcook ing
d V
Ġm g
E th
F ollow
Ġevol ving
Ġpre y
Ġoccas ional
ĠR overs
ĠN otes
ĠInsp ector
Ġeigen states
ĠR iv
Ġaer ial
ĠEthiop ia
20 7
ĠHy per
N umerical
ali as
Ġhero es
ĠLanc ashire
Ġ ~~
mm ode
ĠW ool
Ġat tained
analy tic
ĠD etails
dec re
Ġsm oke
\, (
Ġterror ist
ĠLand au
V ec
ic iency
le af
Ġmonot onic
disc uss
ographer s
Ġra p
Ġg ras
ĠToy ota
ĠLe vi
Ġe uro
######## ########
ĠIn ternal
= |
2 12
B us
ĠT ennis
Ġconvers ations
ĠK ang
disc ussion
ĠK ind
sm ash
ĠStrateg y
Mean while
- .
ĠF E
Ġco ordination
Ġprefer ences
å ¤
ĠW A
}} ^{-
Ġcomputation ally
byter ian
Ġlocomot ive
b ranes
ĠM aterials
ot ers
Ġen force
con serv
hand ler
Ġtox ic
S cale
ĠL ar
C ath
Ġd z
Line ar
)) );
ĠIn g
16 1
)\, .
boot strap
Ġpup ils
sh all
if mmode
Ġimplement ations
math ring
ĠS K
ĠMor rison
Ġ âĢĻ
ĠPresident ial
ĠEv olution
ĠJam ie
J oe
ĠLyn n
g ang
Ġnephe w
ĠC ool
ron ics
Ġap olog
b inding
Ġt rem
ĠT itle
Ġpart on
section s
Ġre bounds
M ach
CO MP
ĠMax im
ĠH ab
Ġle ase
Ġunder taken
'] )
Ġbipart ite
Ġtrans fers
Ġo wing
Ġh ab
ĠU tt
ĠCarol ine
ĠExcell ence
as se
Ġis su
ĠH ull
Ġra id
C itations
Ġb acter
can onical
opl an
ĠHur ricane
ĠChem istry
Direct ory
4 000
Ġarray s
ĠBet ter
ĠF ifth
din and
ott ing
17 2
ins k
cal es
Ġirre levant
os i
Ġs iblings
ĠK re
Ġreven ge
çļ Ħ
Ġinf inites
apt ure
ed in
ĠÃ ĸ
Ġl ig
Ġ{ "
ĠA U
ĠGl enn
ĠBel le
rob ust
rit z
ĠInvest ment
Ġconstruction s
Ġfor um
Ġstat s
Sp in
valid ation
ĠOther s
ipl inary
ĠFrank furt
ord e
ĠNob el
Ġhon ored
Cal ifornia
ra ising
ĠT rent
Ġ ],
Ġn ond
Ġcomp ares
)} -
A sh
Ġex empl
Ġc otton
ĠH ale
ian e
Ġsepar ating
Ġpuls ar
Ġdeter ior
N M
Ġdisband ed
ograph ies
27 5
f orth
h istory
ĠLy on
Ġreg ards
Ġaggreg ation
col lect
_* \
ĠR NA
ev o
Ġm aid
==== ==
ĠTr in
ĠLa placian
Ġrandom ized
ĠW D
r ational
ĠV A
Ġde leted
ĠCom pton
ĠTri ple
ĠNS W
AD D
ile vel
S ide
Ġaver ages
r ina
Ġdoll ar
( @
20 9
Ġbas elines
hold s
if a
Ġi Phone
ĠSh ore
pol ynom
oper ative
Ġmet abol
lim sup
g m
K a
Ġcommun ist
ĠB order
ĠK ad
Ġd ash
ĠNew port
al one
em ia
E ll
Ġrec ycl
Ġwor ry
ĠFern ando
Stat istics
Ġsp okes
Ġmore over
DE s
su cc
Ġfood s
8 50
Ġpl ural
ĠM om
sh ots
ĠL eop
Ġconf inement
online cite
amm ad
Ġflood ing
Ġposit ively
ast ically
}) ]
add ed
New ton
Ġsculpt ures
h ide
St age
O k
Ġdiscontin ued
ĠEn c
Ġ ip
Load er
ĠRobert son
ĠT ales
ir ie
N ative
i ary
Ġaltern atives
p rior
ĠK end
K ar
ĠPro b
Ġoverl apping
Ġpredict ing
Ġreveal ing
c A
N ET
ĠM emphis
k ok
Ġdef in
Ġhold er
- ,
Ġim posing
fore ach
ĠVi ol
ĠGu ang
T urn
ĠK w
â Ħ
Ġaccept ing
Ġhousehold er
K P
ĠT ot
ĠW ant
Ġaccommod ation
ĠAnd ers
ĠAmeric as
Ġf iscal
ĠL ives
Ġcl arity
Ġhe ir
ĠPal m
ĠB il
ĠQ uality
Ġaccount ed
Log ger
l ibrary
ass embly
b undle
Ġra pper
stit uting
Ġadminist rator
Ġd ump
erv ous
Ġpregn ancy
Ġp ig
ĠP ine
ĠH ern
face book
sl ice
ĠL t
ĠCar roll
Ġthe or
ĠT ir
Ġn ons
Ġpro sper
Ġall oc
ĠM M
Ġcomp ress
Ġkil omet
ĠD NN
Ġsm oot
ĠInter ior
Bel g
ĠM illion
'' )
Ġpack ets
ĠAh mad
ap ur
ĠB oeing
Ġcollabor ative
Ġg aug
ich t
it ational
Ġcor pus
Ġapprec iate
he y
ĠL enn
ĠA V
Ġd ining
ĠM otion
Ġpre vention
Ġprot agonist
Ġspace craft
ĠH ood
Ġbi ased
Ġgovern ance
; /
Ġsuscept ibility
Ġar cs
ĠClin ical
Ġper cept
enc il
ĠRoll ing
. __
ĠF W
Ġsail ing
Ġmur ders
}^* $
Ġb ilinear
Ġtribut ary
Ġdis advant
Ġph ones
Ġcancel ed
Ġang ry
Ġpossess es
ä º
ĠS it
ĠGeorg ian
N amed
ĠHy dro
Ġple asure
Flo at
ĠSt rat
ĠCl aud
-> _
ĠHigh land
Ġpur suit
ub ern
ĠK ab
o S
J ones
ĠN ATO
ĠM aking
Ġdi abetes
ĠY O
ris k
ĠR ica
enn ium
Base ball
Ġarg uing
UT C
Ġelder ly
l ot
Ġsystem atically
Ġsol ver
der ived
Ġd ys
Ġdon ations
Ã± o
ĠPl aza
rom atic
AS H
Ġabbre vi
$\ {
ced es
ĠE k
Ġbuild s
Ġsp heres
emb les
Ġsl ide
h urst
M ov
Ġinitial ization
Cent er
Ġtransl ates
Ġdemonstr ating
à¤ °
Ġplate au
Ġfin ishes
ad ers
ab stract
ĠTest ament
B esides
M ix
fill draw
ĠR ather
g ae
Ġra bb
habilit ation
il ion
18 34
p ure
Ġc ere
s sec
Ġstre ak
ad os
ĠTechn ologies
Ġdeliver ing
d ated
Ġ$( -
Te X
Germ any
r Vert
Te V
Ġbatter ies
F ailed
Ġ\ ;\;
ge ometric
Ġweak ness
T aylor
ĠR ac
part s
Ġtalk ed
graph s
2 13
C ov
ir ate
test s
ĠKing ston
Ġvo iced
j d
Ġindex ed
ĠT arget
20 6
Ġfl ip
ash tra
ĠAd rian
f ake
oy e
en abled
@ \
ĠM ale
ĠSc i
ĠAssoci ated
Ġresid ue
Ġqual itatively
col sep
c C
ĠRec on
Ġvisual ization
am ous
ĠC os
! ,
Ġcre am
Con ver
b ons
Ġrel ativity
Ġmut ually
F B
ĠExp edition
ĠHop f
Up on
Ġbif urc
Art icles
Ġprompt ed
S K
work ing
ĠD P
23 4
Ġansw ered
E mb
et z
Ï Ģ
Ġthrough put
30 4
ĠCoal ition
ĠBas in
ĠPract ice
mod ern
ĠFight ing
ĠL ed
ben ius
17 4
17 1
P relim
ĠLes lie
Ġt ilt
Ġsac red
amb a
ident ity
Ġcr ashed
B ottom
Ġtack les
ĠGu atem
Ġr ivals
Ġthrow ing
rac ing
\ >
Ġtour ists
) &=
Ġentang led
Ġpract ically
ĠB un
_ (
Ġfar mer
Ġemp ower
Run time
! [
Ġcru ise
l ar
Ġret rieve
ĠD ow
col lection
$ ^{+
c ool
ay ette
ĠL av
ho f
M unic
ĠStef an
Ġshe ep
Pop ulation
| $,
on ential
ĠML B
v ens
as aki
Ġdet ecting
ĠMerc ury
Ġex otic
ĠCon struct
2 15
ĠW IT
ĠV III
T x
Ġo mit
Ġbeh ave
Ġt ong
Ġ ^{-
Ġag enda
Ġapp ar
tt i
ĠP erm
Te ch
ĠSur rey
3 25
ed ar
up id
ĠC IA
Ġfinal e
Athlet es
it ches
col span
Ġinter im
ĠB rain
Ġresemb les
Ġdynam ically
Ġd ans
Ð ±
Ġse ized
ĠI E
ort ex
Ġmanip ulation
3 40
ĠH ait
ĠGu ards
}: =
Ġcust ody
mer cial
y t
ĠRec ent
b rown
ĠBel grade
un al
osp ace
Ġtru cks
ĠInit iative
en za
ĠB j
p ole
ope z
ĠCr us
ĠG rim
++ ;
ĠH odge
Obs erve
Ġsem ic
ĠSta kes
Music ians
Ġforb idden
ier i
ĠYuk awa
Ġlect ures
ĠFilip ino
Ġpro ps
ew ard
Ġaut obi
Ġh int
ĠM eyer
ill i
ident ifier
Ġfl att
fe atures
Ġun fold
ut z
ĠStaff ord
Ġatt en
ip ur
Ġopp osing
onic a
ort ium
Ġco ached
eqn o
ĠH appy
Ġdeleg ate
li u
Ġspin or
ĠElli ott
ly m
Li u
Ġwithdraw al
Ġlack ing
Ġoverwhel ming
ĠF raser
ia e
Ġfail ures
âĢ¦ ]
Ġprop ri
Ġaug mentation
Ġassign ments
ĠJess ica
Ġsur ge
' }}
Ġem ploys
Ġnurs ing
im ath
Ġmo ist
CO M
18 4
coll apse
Ġblock ing
ly mouth
ant o
et es
L AS
ĠW ak
... ]
Ġs i
ser ial
18 9
Ġaut umn
al an
U ntil
Ġliter acy
Ġprem ises
Ġstrugg led
Ġinterview ed
ĠH ER
Ġun bounded
ĠLa place
or p
ĠL abel
Ġtechn ological
ĠU I
f u
Ġre dd
att ention
che ss
ĠL C
N F
Ġg ods
ĠM ell
) <\
Ġcylind rical
quarter ed
\ &
Ġch orus
Ġexp enses
N U
_+ (
et ter
ĠA ve
ym es
K D
duct or
Ġcomput es
ĠBor is
J ournal
Ġsub algebra
Ġorigin ating
ar ians
dor ff
ĠX ML
cy cles
Ġch ances
Ġab ortion
j p
Ġw reck
ĠAv ailable
Ġsuggest ion
ĠCol umn
Ġrac ism
l is
Con sequently
iter ator
ĠLux embourg
ĠA ircraft
ĠMont eneg
commut ative
ĠR oot
0 25
r ud
Ġch at
over ed
et imes
Ġv iral
ĠHerm itian
ĠR G
agn et
con clusion
Ġsculpt or
Ġper f
fill ed
Ġ æ
rog ate
Ġinter ven
D eb
Com plete
Ġsup rem
Ġtra ff
Ġle an
ĠE RA
Ġspecific ations
Ġde fer
Republic an
ĠÂ «
ĠIO Exception
) &=&
Ġpers istent
RE D
up les
Ġcalcul us
ĠC ash
Ġinvest ed
F ire
ĠFer gus
ĠH app
Ġprohib ited
T rump
ĠAtt ack
ĠO slo
K w
To String
en ko
ĠEv angel
ĠV ert
part icles
$ [
ĠDe al
Ġshift ing
ĠGi ovanni
Ġprev ents
) ||
it on
ĠG ur
ĠCliff ord
Ġle ar
im ag
ĠSol utions
Ġreb els
Ġreb ellion
U pper
ĠZ amb
}) -\
tr uth
Treat ies
Ġh ung
ĠM ales
Ġtra ils
y z
Ġc uisine
00 6
ĠMin i
Ã¨ s
Ġy esterday
B ERT
t ens
Ġst ems
ĠN acional
Ġsix teen
Ġ ibn
Ġen closed
ĠPan el
ĠD awn
pl oma
") ]
mer ce
f its
Ġel ong
Ġcrit ically
em ption
ĠK ot
ĠT ODO
Ġbur den
P ad
ĠH els
ug a
Ġtre as
h ift
os ion
ĉĉĉĉ Ċ
ta iled
ĠZ ag
Ġsn ap
{ }^
An im
ĠEll en
ĠTo o
stad t
Ġthir teen
Ù Ī
ĠM atter
Ġimport ed
Ġleg ally
Ġmark ers
Ġhon ours
vi Äĩ
ĠAn at
Over all
Ġw eren
Ġimprison ment
Ġtrip let
ĠAr senal
int roduction
ĠLyn ch
ĠG mina
ĠMe h
ĠInt eger
00 7
ĠElect ronic
Ġ( âĢľ
p ub
ĠN atal
ĠMin neapolis
b age
Ġeduc ator
C as
Ġlog ging
Inst ead
ĠCath olics
sh adow
Ù Ĭ
Ġrel uct
ĠT es
'' '
Ġrepro duced
Ġsuper position
M ount
Ġcongress ional
Ġperturb ed
ere z
if les
18 15
ĠL ip
L F
Ġcorpor ation
ov i
ĠWag ner
ĠX I
Ġret iring
Ġbur ial
Al t
dis p
Ġinstitution al
Ġf n
C irc
ĠW E
ĠL ines
Ġf ier
ĠD epend
bal anced
Dom ain
n h
Ġgen res
Ġmonot one
Ġ[ (
Ch icago
Ġformul ae
bl ank
UR I
ĠContin ental
ad al
ĠI g
ĠN LO
ĠW ire
ĠG ael
eed s
Ġpath way
ĠAg ent
desc ribed
ĠMink owski
ĠI M
ĠC risis
Ġtact ics
Ġodd s
Ġconfirm s
In sp
und efined
ĠEug ene
ĠPoint s
Ġfin anc
Ġpres idency
Ġinters ections
Ġpriv ately
uit ively
Ġchar m
C zech
il ogy
ĠG ol
re li
K R
ba um
T HE
f air
s om
M apping
ĠW R
ext end
sc ience
> ::
in verse
Ġconstruct or
Ġperform er
Ġh ometown
we i
ĠBel ow
Ġrespons ibilities
Ġin jected
IN S
is ure
ĠP arent
ĠSte phan
m ust
Ġsp ans
ne z
30 1
P aint
re pe
lat est
Ġas ync
Ġund ers
Ġpric ing
ĠDirect ors
Ġs ack
ĠJ ake
norm als
function al
ĠLuther an
Ġh anging
Ġro ok
ĠTour ism
othe rapy
R ot
en ic
S ocket
Ġm ism
Ex pl
Ġqu it
Ġinters ect
poss ibly
Ġ\ ;\
ik er
ubb les
in ous
Ġtub es
ĠT ell
Vari able
stud y
G re
vio let
th reshold
Ġscal ars
Ġpol ym
ĠEconom y
ĠN J
Ġemploy ers
ĠD ong
}^{ [
communic ations
Ġst yl
th ood
. <
V S
ĠJ i
- }
Ġme al
par ity
ĠField s
ĠF act
ĠAssum ing
ighbor hood
y ield
or ic
Ġserv ant
Ġdiscret ization
}) /
Ġtrac ed
ĠEmm y
ta ine
armaceut ical
ĠSh ir
re port
ĠD um
ma ils
Ġf antastic
iel sen
OR Y
Start ing
H erm
ĠChe ss
Port ug
Hel p
W ild
Ġm ere
Ġdam ages
inter val
m v
Ġtem p
head ed
F a
ros se
ar ag
B all
Ġwitness ed
Ġm oll
Addition ally
Ġal beit
Att ributes
estim ated
I ce
inst on
S ame
Ġsyn tax
ĠColl abor
ĠRequ est
Ġsk ull
Ð ³
he nd
ĠAb stract
! )
ĠT ank
Ġsuff ix
ĠLiber ation
les h
E c
ĠF ashion
Ġprom ises
UT F
ĠBur ton
ĠP irates
ta k
ĠQu art
ĠTel escope
Ã °
a ine
L ayer
esc ue
print s
ĠJul ie
Ġw age
ĠD iana
A u
del ay
ĠCom ments
ĠC W
ĠW inner
w ait
Ġtal ented
andid ate
au f
plic ation
ĠM atrix
log ger
Ġrank ings
18 33
ĠB P
dis crete
ĠShe ll
um en
ĠJ upiter
Ġdiplom at
Ġw is
Ġvin yl
Ġint ensive
ĠH oll
Ġp upp
text g
Ġup stream
Ġreal m
Ġ{ '
Ġsl avery
S ER
rm k
ĠLog an
role um
F act
h size
ĠBra h
ĠRes Net
18 2
Ġveget ation
Ġprof its
Ġport al
preced ented
m ov
ĠV it
ĠS ed
Ġ" ,
100 00
el ike
ĠEm ploy
er ial
ĠS ever
Ġgener als
Ġtheore tically
pre v
Ġfre estyle
ĠW H
ĠR isk
ĠBi ology
q a
Ġor acle
mod es
Ġsav ings
, âĢĻ
Î ¼
ĠU P
Ġacc idents
es ch
ĠSac ram
ON G
Nor wegian
Ġfour teen
Ġf ights
Ġp ent
nt hetic
ur an
re duced
ĠCan terbury
3 45
Clim ate
ĠLiter ary
Ġlift ing
S on
M iddle
Ġp arser
Un like
and ez
Con v
Ġdat abases
Ġpresent er
M ic
Ġre min
Hung arian
Ġretriev al
ĠSand ers
ĠP ars
cal ed
Ġre lying
ĠB in
Ġshe ets
Ġex ile
iz za
17 3
Ġb ore
Ġle ather
ĠNad u
S el
Ġl ith
ĠB rent
Ġpresum ably
Ġl oses
Rem ove
ĠT roy
Ġ Ã©
ĠH ook
Ġpos es
ĠMichel le
ĠL omb
Ġgo alkeeper
Ġinsect s
Ġafter math
cor related
Ġfer ry
b h
Ġmes ons
St op
J y
}) _
ĠNew man
TE XT
ĠS ometimes
Ġce iling
ĠAlban ia
ĠB oltzmann
Ġcomp ressed
On line
ĠB oh
GL API
K en
ĠRep orts
ĠSil va
Ġw ors
ass is
ropol is
ĠBed ford
m ile
id an
Ġto b
Ġsur render
ĠLud wig
p k
resp ons
ĠJo el
T s
Ġcor on
ĠNot re
ĠH S
ĠEx perience
ĠAgric ultural
histor ic
B ell
M ove
f ried
Ðµ ÑĢ
Ġc ig
ĠW AR
ĠEx pert
he x
ĠH our
ĠMar ri
Ġgeomet rical
Ġprog ression
ĠApp lied
ĠMic he
unt ed
ĠProduct s
ĠR egin
Ġle mm
asc ar
ĠPart icip
Ġaccept s
ĠS equ
ĠAlb any
th ouse
sc ious
Ġimplicit ly
sm outh
e ither
Ġorb ifold
Ġsk et
Ġg ig
s ampling
â Ķ
isp here
Ġcho oses
ad ors
m atter
st retch
ra f
ĠT ry
ĠC areer
ĠBrad ford
Ġpro poses
Ġpractition ers
Ġpostp oned
id uc
Ġkn ots
ĠM aid
By Id
et itive
Vis ual
G h
Ġf are
ann ah
row eak
Ġexpl ores
'' (
ĠHead quarters
gener ic
S creen
b right
en vironment
Ġp el
J eff
ĠS ustain
Ġrepl ied
Ġresol utions
ad ia
ĠD w
and i
Prot ocol
Ġn urse
Ġlast ing
b w
on ge
F ocus
Ġout lets
Ġminim a
ĠSloven ia
alo is
Ġp ier
ĠP f
ĠUS D
rac ed
new page
n Ã©e
ateg or
Ġsurn ames
Ġtunnel ing
ï »
rt imes
Ġen um
ĠBur ke
ĠBas il
3 10
ĠWes ley
âĦ ¢
W D
Ġdis ability
Ġdecl are
ĠDay ton
ĠJohn s
ĠAd vert
ĠChief s
ĠS Ne
Ġeigen vectors
Ġfre ed
P ic
ĠL STM
ĠInter state
struct ures
approp riate
ĠBelf ast
cre ated
Ġsp arsity
Ġ( -\
ĠK om
ord ial
Ġindic ators
ĠSl ovakia
Ġconscious ness
M att
Ġh iding
ic ia
Ġequ iv
Ġst aged
u o
ĠB ot
Ġg odd
ĠN in
dif ference
: @
B asketball
ce iver
ĠComp anies
Ġb tn
}\ }
Ġsubsequ ence
Nov els
Bur ials
L B
Ġtrunc ation
normals ize
ĠC avalry
tain ers
Ġselect or
per m
ĠCard iff
å ®
Ġacc us
ĠAut om
Ġunve iled
ĠPrest on
Ġinf ect
ĠFer dinand
Ġdifferent iation
h aul
Ġre wards
Ġupd ating
cm id
Ġperm its
min im
Ġic onic
Ġpen al
em ann
k r
ot ics
ĠIs ing
ĠHay es
Ġquestion ed
Ġincorpor ates
18 31
Ġident ifier
ĠChar ter
23 1
ĠAnd rea
proto buf
, -\
}\ ]
ĠIndust ries
friend ly
exist ing
ĠH I
Ġse al
get Name
4 40
17 9
ĠGarc ia
50 1
vent ional
Ġbre ed
if ax
Ġemploy er
alax ies
ip zig
im ming
Econom y
L ibrary
ĠCl ose
x it
app ings
Ġtra its
FI X
ĠBl air
Ġbe ings
pl ays
R am
al tern
ĠP u
da ugh
D U
Acknowledg ments
Ġmach inery
ob ic
e lem
(\ {
ĠNik ol
ĠParalymp ics
ĠAchie vement
Ġrec urrent
build er
ĠCle an
scatter ing
rac use
Ġgraph ical
Ġheav ier
ru ce
ĠL il
}) _{\
Ġ} ^{
}} ]
Ġstrugg les
A X
Car thy
Ġl anes
ak o
ĠSant os
Ġexplo ited
ĠDem ocracy
Ġste ering
Ġaband on
em ission
ĠP am
ĠF est
App lying
Ġadvers ary
ĠN ames
ĠWinds or
j query
Ġthreshold s
ĠS isters
Ġmanuscript s
" },
A gent
Ġhar sh
ad just
Ġdecom posed
ow itz
cal c
Trans form
Ġd ancers
ĠPsych ology
ices ter
ĠVeh icle
ou rable
ĠT ick
design ated
Î ·
Ġp owder
ĠB ac
RE E
Ġtest imony
ip es
ink i
Ġfound ations
ĠSe oul
on ial
Ġc ater
ĠW ave
ĠHTT P
Ġdis charge
min o
ura i
ĠB oot
Ġfa una
ĠAlexand ria
Ġb ones
ak is
ĠRem ix
ur ally
mathb in
ĠRe in
bra ket
Ġexpress ing
ĠMar co
cmid rule
ĠH iro
30 3
ĠPer haps
Ġrev ision
N odes
ens itivity
Un ion
c ous
Ġ umb
press ure
å ħ
Ġp ocket
Ġret rieved
Ste ve
18 25
Ġurg ed
op pler
ĠMar ÃŃa
ĠT error
oul os
Ġbankrupt cy
ĠStrateg ic
Ġwith drawn
}] ,
res ources
ĠIn cre
od i
ĠPro perties
W O
Ġfun ctors
Ġf idelity
Ġin tact
Ġrest art
ĠTreas ury
Ġb ot
d eb
ma re
Ġmotor cycle
us ually
Ġlabel ing
ut i
Ġhand ful
ĠReg ulations
Ġstory line
Ġ( _
ĠC ry
Que en
Ġb ump
ĠCorn ell
ĠEston ia
ert s
Ġpec uliar
ĠBened ict
Pro ps
ĠM ilton
\, $\
Ġappropri ately
2 16
he alth
}$ }\
ĠU nd
Ġant iqu
Ch art
ival ent
Ġprot ons
F un
ch urch
p ark
Ġvers a
ĠSw itch
IF AR
ĠV all
Ġloc als
sw orth
inv est
imod al
ĠR out
ĠD iet
t el
Ġna ive
Ġsh aded
B ul
ant is
found land
Ġsupp orter
Ġremov es
ĠCzech osl
AN G
})- (\
ĠT M
Ġcare ers
ap unov
A rea
ĠS ections
ĠB end
n ational
Munic ipal
m tx
)) =\
any a
Ġn est
Ġsur g
ĠK aw
18 3
Ġoff line
ĠW on
Ã µ
ST AR
set ting
ĠWal sh
ĠD ew
Ġh olog
Ġ& &\
ĠR az
Ġpro to
ĠW WE
Ġhom eless
ĠComb at
}= (\
ast ro
Ġpress ures
amazon aws
d ad
ĠSub sequently
Ġfib re
ĠE W
arg ument
incre asing
18 10
se at
ĠMc N
ĠRel igion
Ġadop ting
W ord
\ #
f ail
ath am
yn chron
Ġfulfill ed
P V
\| _\
ĠL ah
Ġmac roscopic
E G
Ġabund ant
ĠHar bour
Ġpack ed
Ġgrand mother
Ġ esp
ĠB CE
Ġwhere in
Ġjust ify
Ġbow l
ĠS ag
ĠChar acter
Ġsurprising ly
ĠL oad
Id entity
{( -
Ġillust rations
Ġhom osex
ĠE OS
)\ |
Ġident ically
_* (
ĠVari ous
ĠB B
ĠK ane
Ġrot ations
ĠL az
}{ |\
the me
ram er
Ġf ut
rr rr
ĠSu ite
Ġd Ã©
Ġhur ricane
ĠChe ng
Ġproceed ed
Ġtype of
Ġpick ing
Ġin set
Ġre pository
ĠSch midt
I gn
Ġreg ulated
en ary
Ġple ased
Ġsort ed
]{ $\
Ä Ľ
ast ing
are l
23 2
Ġend ings
IS A
b ranch
22 8
ĠBund es
Ġl uck
ĠCon sumer
ĠS USY
Ġst air
ĠPublisher s
Ġn ested
- |
^{ '
Ġmanufact ure
Oper ator
ĠBright on
W at
Ġliter al
Aud io
z on
ed uc
ĠRos a
Ñ ħ
Ad am
uz zy
Ġpersonal ities
ĠS ame
}- {\
}| $
en ue
Ġhe uristic
SE C
C ultural
Ġexcess ive
R ate
Ġf uck
ra ges
ad v
ist o
Ġsp y
ps line
ĠAtl as
Ġemphas ized
k le
ĠI stanbul
18 28
Ġanxi ety
osp in
h on
ĠT rial
ĠD und
ĠD I
Ġfl are
CH ECK
ext ra
M i
Po inter
B and
an mar
Ġpropag anda
ĠC od
ĠRich ards
ĠY emen
Ġess ays
ogen esis
ĠPot ter
Ġaccum ulated
ec onomic
Ġcan vas
Ġmod elled
Ġmet eor
ĠSing er
ĠAntar ctic
F ramework
y en
ut f
âĢ ł
omet ime
23 8
+\ !
ĠEd gar
/ $
ĠTh r
ĠZ en
Conn ect
F rag
ĠTh ank
CO VID
c M
ĠG ospel
Ġtrib al
Ġn u
Ġlect ure
ĠSug ar
U ri
ro ute
Ġcoordin ator
Ġconsum ed
Ġin scription
sh al
Ġinters ects
ĠAlban ian
Ġfair ness
ograph s
acknowled gments
ĠR he
Ðµ Ð½
ĠINTE GER
Ġpost ing
at aka
und ers
Ġsax ophone
18 14
Ġfemin ist
arab ic
ato es
L imit
ir atory
18 6
ĠDist ribution
Ġvacc ines
cccc cccc
lik elihood
Ġdisc s
ĠKazakh stan
Ġal arm
Ġexclud ing
}_{ +
Ġge ographical
co herent
ro ve
st ability
ĠB L
ĠEvery thing
ĠTerm s
ĠHun ting
Ġhist ories
S ave
Ġc ob
ĠK oh
Ġra ises
idd ing
Ġstation ed
keep ing
ĠNapole on
ĠM Hz
ĠR ee
ĠBrand on
Ġh i
ĠE isen
Ġworld s
od rom
pro port
Ġmon ster
AT CH
Ġsp otted
18 1
ĠFran c
ĠKe ep
Ġcooper ative
C ivil
Ġrot ate
con cept
ĠDise ase
Ġam mun
^* $-
ĠG em
Sp an
ĠV iv
Ġobst acles
Ġb ab
op us
Ġdo ctrine
Ġval uation
ĠColon ial
ĠJes se
ĠHero es
M useum
h ouses
Ġt a
Ġpl aint
Ġcast ing
Ġtr ivially
ord ering
c O
Ġend points
E U
de velopment
ĠD ud
ĠMov ies
un ks
ĠG E
Ġle ts
ĠNa ples
Ġru ins
ĠHug o
v id
am ar
Ġqu arters
ĠPres byterian
ĠT itan
Ep isode
ĠM AC
ĠFl oyd
rell a
Ġkid ney
x s
is ible
ĠM ing
angu ages
ch rot
Ġcongreg ation
vari ables
g p
ĠC ounsel
Ġclass room
Ġre q
l ord
R N
ĠMar ion
Ġb eds
var sigma
$ |
Ġobserv ers
Ġs our
Ġwant ing
Ġscr atch
H all
ĠM pc
We ight
Ġart ic
Ġcal m
ort e
att ributes
o op
Ġto pped
ĠV ale
ren ces
il is
ĠP ok
ĠCh ancellor
ĠSt ructure
ĠBar b
Ġgl obe
ĠRoche ster
med ium
Ġconstit utes
ge ometry
og l
Ġintu ition
ĠU t
ĠM oses
de en
tan h
ĠP ool
cl air
B ank
R os
ĠM BA
met adata
Ġannot ations
Ġafford able
Ġe y
Ġn itrogen
Pac ific
att ack
ĠSer ie
ĠCh arg
year s
Ġpublisher s
m or
I ran
g ins
st orage
ĠCl ient
\, ,\
Ġphys icians
cest ershire
r p
ĠP omer
to ok
23 7
Ġbl ame
Ġpen alties
d dots
Ġa fraid
olog ic
def i
Ġlaunch ing
Ġhe ated
ĠCh al
Ġter rible
18 26
ĠÐ ¸
fil ename
R od
Ġn ervous
chrot ron
D IS
h ra
Ã ®
Ġval ence
Alex ander
Hamilton ian
Ġplaus ible
Ġcomp romise
Ġnew er
s ay
Ã¡ ndez
na issance
EX P
Ġinitial ized
uc a
Ġbott le
E val
op rano
ĠE y
Histor ic
s ocial
ra z
ĠJ et
Ġfold ed
ĠBud apest
ĠU FC
Ġdepict ing
/ {
ĠR ican
ĠE N
ĠTheorem s
18 21
le an
=" ">
Ġflow ing
ĠEp iscopal
ely n
Ġsac rifice
c ourt
Con stant
Ġp orn
est ock
Ġunem ployment
ĠE ducational
f ine
00 8
En um
Den ote
d yn
ĠMar tha
ĠGriff ith
Ġammun ition
ĠHol ocaust
ĠLanc aster
Ã§ a
/ {\
es que
AR CH
Ġsubt raction
0 11
Ġro oted
Ġspons or
Ad minist
ĠBul ld
Ġtob acco
determ ined
ĠDra ke
Ġhand les
ĠSte am
ĠComput ing
an an
ĠU AV
Ġdial og
Ġst ocks
Ġsp ike
d ar
v d
ĠH ank
ys ics
iz ational
Ġprof ound
i ov
C orn
ĠR oc
ri ot
Ġex ercises
head s
Ġan arch
ighth ouse
, [
ĠP ione
ĠMy anmar
$ }.
3 70
Y S
r ink
È Ľ
Ġparameter ized
ĠStat istical
ĠMy r
Ġprotest ers
? }
ĠPant hers
ĠJosh ua
Ġfil ament
Ġextrem al
D b
Ġin quiry
Ġbroad ly
ĠBel t
ĠWrit er
ĠUlt imate
ĠL ey
ft en
me ans
ĠĠĠĠĠĠĠĠĠĠĠĠĠĠĠĠĠĠĠĠĠĠĠĠĠĠĠĠĠĠĠĠ Ġ
if ndef
ĠS G
c ategories
ĠC raft
Ġorgan ize
head ers
ĠChron icle
ic ism
ĠSh i
Ġhydro dynamic
Ġreport ers
ĠMy stery
l ich
Ġhaz ard
Ġsen ators
ĠT urb
A k
ĠJ ets
Ġ\ }$.
ĠWe i
,\,\ ,\,\
A gg
Ġv oyage
Ġ }.
Ġcon ject
ca pt
X iv
ne ider
Ġdis hes
Ġquadr up
Ġaccident ally
Ñģ Ðº
if i
w iki
it Ã©
ĠMur der
prec ision
e as
Ġc ens
ĠR as
ray ed
m and
ten ham
Ġpl ugin
spec ified
Ġex clusion
Ġdo zens
Ġdom inance
Ġ" -
Ġwrest ler
) ",
S ix
comput e
ĠL ay
ĠA FC
Ġwh it
ĠV or
< <
D uration
y x
equiv ariant
Ġcou rage
Ġcar ved
ĠUs ed
ĠRec re
od o
Ä ħ
ĠCal cul
Ġhe aling
ĠWol ver
Ġs el
ĠW aters
ĠM oss
18 18
d ynamical
ĠP lymouth
Ġe ject
AN CE
udd y
F ive
Ġbreak fast
Ġf ran
ĠSouth west
Ġinform al
Ġgener ative
}{* }{\
pres erving
neut ral
Ġback bone
Ġf u
Ġcomm utes
int age
Ġpeace ful
consist ency
' |
Ġboard ing
Ġpoly t
v t
Ġtrans cript
Ġcustom s
ĠS ent
ĠWhit ney
ph ony
c F
ex periments
is odes
ĠS erv
Ġad verse
ĠR i
ad h
ĠP ain
cf c
art e
"> &
esc u
Ġmans ion
_ +\
ex plicit
Ġcount able
ĠMal colm
os o
ĠE yes
Ġac claimed
Ġscript s
ingu ish
Ġresidual s
ĠAd ult
Ġc ascade
Ġ( {
Ġg y
ĠS ize
Ġtransc ription
board s
ĠDec l
Ġposition ed
UN D
ĠE aster
Ġnecess ity
Ġret ire
Ġske leton
ĠS B
ĠS tern
ĠHe isenberg
ĠBal let
Ġperspect ives
~ ,
Ġun precedented
ĠFor bes
Ġhead ers
class ification
19 1
Ġdwar fs
Ġresp ected
ĠQ atar
oper ators
t ags
P ark
clud ed
Z ero
m kern
Ġm aj
Sc ient
Ġdeform ations
ĠB ronze
Ġ< \
ĠRam an
Ġd os
ay e
ĠRaid ers
Ġeth ics
ici ary
40 1
Ġapp rent
Ġdec iding
ĠT C
on el
Ġsat urated
B rowser
ĠH its
Ġcelebr ity
Ġaccum ulation
ĠOpt im
29 0
Ġsubject ed
ĠK um
ĠPro gressive
Ġtem plates
ĠH z
ĠSc ore
ĠBeaut y
Ġcondem ned
ip so
in ative
ir ling
Ġrepro duction
ĠW ings
ĠPear son
40 4
Ġscreen writer
ĠSuper ior
ĠG av
Ġca ution
P air
)/ (
ĠB ren
is se
Ġwick ets
P F
ah i
b il
Ġorbit als
Ġcollect or
Ġcra zy
18 29
ĠBut ter
% ).
ĠH ubbard
ĠGram mar
Ġeth ical
Ġsp ark
Ġdivor ced
ĠA sc
ĠF eynman
Ġph y
ĠP Ã©
ven ile
Ġre jection
integ ration
Ġtra ged
ic ator
Ġess ence
2 14
st ick
Ġexpect s
m om
An th
Ġdispl aced
en ia
f box
ide al
W rapper
eps fig
ĠUtt ar
S hips
av our
Ġmultipl ied
Ġdest inations
) ->
Ġdist ribute
â Ĩ
ide a
Ġinhab ited
Ġt ile
sh ine
Ġdem o
ju ana
ĠN ull
EN SE
Ġjump ing
p ixel
Ġp ension
Ġ& +
att ing
ĠSpring field
O x
Ġpro long
ĠV ick
dec l
Ġtra vers
uff le
Ġswim mers
Ġd iving
n umerical
Ġst rang
ĠRec ording
Dig ital
ĠCar p
Rep resent
Ġn p
O G
Ġch icken
Ġterm ed
Ġepid emic
ch at
Ġwrest lers
Ñ Ĩ
Ġpract iced
22 7
ĠMar cel
ĠN amely
Ġrecre ational
el ic
ap o
18 24
Ġcomp ly
An aly
Ġqual ities
L im
Ġshould n
in fl
Ġestabl ishes
30 5
Spr ing
L INE
Ġxml ns
O rd
S und
Ġke en
æ ĸ
ĠReg ular
Ġgra ce
ĠRest aur
D ar
ĠB eg
ud ed
Ġrep airs
ĠCl aire
Ġfol ks
Ġpay load
refer red
ĠMidd les
Ġhead quartered
Ġcreat ures
ic ion
Ġsub manifold
Ġinstant aneous
Ġs ab
Ġterm inated
unn els
ro tt
Ġflag ship
ĠS leep
re duction
Ġn erve
ĠSh im
ĠMe asure
Ġbeet le
ĠP U
imens ional
S outhern
as an
}} },
at ro
ĠF ollow
Ġl over
Ġdep ths
Ġbi ases
Ġmag ical
ucc i
17 90
rig ger
ĠKenn y
Ġ" $
×ķ ×
B rand
Ġkick ed
oh an
ĠN AME
script ions
ĠTrib une
C AL
qu asi
ĠV ector
Ġconduct ance
ĠSat urn
Ġal ias
Ġgeomet ries
c art
Ġsl ip
ĠDep ression
Ġsm oking
Ġpro spect
Americ a
Ġin consistent
Par se
Ġheter ogeneous
cent ric
v b
Ġdo i
ĠCl ara
Point s
ĠGreat est
ĠConstant in
Ġcong ru
ef ault
SE LECT
P en
E A
Ġsuper gravity
Ġterrit orial
$. \\
C W
eg ie
LO CK
ĠC ly
ec om
ĠS ession
ch apter
') );
ri pp
aver aged
\/ }
uw ait
j ournal
AT ED
ĠS ave
Ġref uses
ĠEff ect
Ġinfinites imal
ĠI z
i ph
A rab
Ġterm ination
dom inated
ĠC lement
ĠA FL
be en
sl ide
N s
Ġsp o
ra j
ĠTh ir
)\ }$
Ġesc ort
ok i
ĠStand ards
Ġdestro ying
dot sc
ĠS ara
ĠSebast ian
m otion
Ġf ocal
Ġun necessary
ust ed
ĠJul ius
Ġexperi encing
ä »
Ġpolit ically
j unit
com ed
eff ects
ĠT ropical
all oc
Ex pr
Ġcorpor ations
) &=\
ĠV ij
ĠAnn iversary
Fellow s
Ġres emble
ĠMon roe
ph rase
Ġend owed
gu ard
Ġkinem atics
am ount
ĠN orton
Ġun ited
Ġmon uments
ĠI EEE
Ġtorn ado
ĠR id
Ġsubstit uting
Sh ape
ĠR B
Ġam endment
ĠK ob
Ġcontradict s
ĠTe h
22 3
ĠParliament ary
Ġ& $\
Ġsh oes
ĠPr ide
Q Q
Ġopen ly
quad r
ĠWinn ers
$. \
H K
ĠR V
ag g
rit ies
ĠNew foundland
ĠD rew
Art s
and e
Ġdi ocese
N ick
Ġres il
ĠApp eals
ĠTh ink
af a
& $\
Ad apter
ri ent
pro gress
Ġdis rupt
50 9
ĠUSS R
ĠErn st
n ative
Ġdon ation
}^{ *}
ĠBrown s
ĠG rid
Ġrec urring
)] \
pher d
ang les
Ġfrag mentation
Ġlog ger
ion ization
Ġam end
o qu
ch y
ĠG am
}\ !\
ĠC ities
ĠCh andra
Ġspec imen
Ġpost hum
Ġc tx
)} )$
Ġoccup y
Ġsn ake
Ġs ne
ĠSpec ies
ĠRh ine
ĠÐ ½
M ask
ab ar
log ical
Ġviol ating
dat abase
Ġchrom os
Ġd ent
ĠG ul
Ġreal izations
ĠJane iro
Ġt u
ĠD erek
ĠGreen e
Ġacadem ics
Ġ&= &\
;\;\ ;
ĠChile an
Ġhol idays
el man
Ġsh aft
Ġcor rupt
g reat
ï» ¿
Ġtrust ed
ĠT ate
ĠAp ollo
ĠF ut
Ġf ears
Ġl ord
ĠR ifle
Ġvis itor
D ark
ĠB ian
Ġair ports
ĠW ords
) '
c ub
ĠEst abl
Ġp ine
Ġequ ilib
Gener ator
[ -\
S us
Ġredund ant
ut ors
Ġch ord
Ġdead line
ent on
Ġth roat
Ġcon ceived
C lear
Ġconv ince
Dep artment
ĠM am
Count ry
oid es
b k
sh ows
ĠMan or
Fe atures
atri ates
C ycl
28 8
Ø§ ÙĦ
Ġlisten ers
* (
ma pping
ĠAlger ia
Ġcontin ental
D etail
Ġsur geon
55 5
ac ency
26 4
it ated
ĠN W
LE S
Ġsil ence
Ġmathematic ian
ĠFranÃ§ ois
Ġimp urity
,- .
Ġsen ator
å Ń
Ġhol y
Ġc of
Ġvol untary
Ġd well
Ġlingu istic
Ġlic ence
Ġ um
Ġprob able
Columb ia
Ġseason al
Tra ining
Ġspec ially
ĠJohn ston
Ġscreen ed
ĠFergus on
ass ic
M ills
S ig
}[ (
ie ved
" =>
ck er
22 9
Ġconfirm ation
Ġn ar
ch ard
f ootball
Ġsem icon
}' \
Ġcritic ised
Ġca ption
Ġk g
D G
Ġreal izes
Ġg ly
Ġinv itation
ĠSc ript
w ear
ĠLouis ville
ec ell
Ġ} }\
os ely
26 5
Head ers
ĠAdd ress
Ġmon oton
Ġsl ots
st rip
ĠBald win
Ġgroup ed
Ġrub ber
ĠC ould
ĠP oss
P ATH
Ġplant ed
g em
inf inite
ĠSp in
Ġevalu ations
ogen ous
ĠB T
ĠD ynasty
Ġprom otional
Ġgift s
Ġin acc
top ic
Ġsocial ist
ĠB har
Ġf action
Ġv ault
ĠSch ol
ĠMar qu
Ġmultipl ier
S ync
Ġn it
ĠK nowledge
ĠM eta
ĠH M
Ġk a
ĠRock y
s amples
Ġrun way
Ġconstitu ent
Ġloc ate
Ġder ives
ĠS ister
ĠS ard
Ġinstruct or
ĠPro ducer
Ġthe ology
cur ves
Ġm arri
ĠP all
Ġre taining
ĠEm irates
ĠS amsung
comm ission
E W
o ise
un known
z an
th ose
ĠAnd rÃ©
Ġen listed
univers al
Ġm aker
Ġopt ically
ott age
Ġmet ast
F r
L ic
Ġbusiness people
Ġcontest ants
M IN
ĠJeff rey
Ġout s
ĠLe ipzig
Ġarch ives
[] {\
I ES
ng th
Ġclimb ing
Ġb apt
Ġdeb ris
Town s
+ (\
ĠG ian
s afe
arri e
ĠMil ky
[ ->]
ign e
fl ush
ĠG ates
ĠH yp
Ġenc ryption
cond itional
prov ided
ĠÄ Į
p ag
ĠHol iday
Ġbom bs
ĠM ock
ĠTh ames
Ġen rich
ĠMar l
ĠCitiz ens
ircl ed
Ġflow n
Ġmut ations
ĠP on
daugh ter
ĠI X
ef inite
Res ources
ag ascar
Ã¼ ller
iat ric
Ġintu itive
Ġappar atus
Ġd w
) }}{\
. ",
ubl isher
pre vious
ĠBang kok
Ġr ider
Ġenerget ic
ent ang
T IME
ract or
Ġanaly st
path s
R oy
** *
ĠR ever
ak k
ĠMar ian
Ġbas ement
ĠKe pler
Ġim pe
d j
Play ing
Ġvis cous
Ġc ris
ĠS ik
ant es
ĠK ann
Ġph rases
agn ostic
ĠDor othy
att ed
i w
Ġf ever
ĠT F
ĠC ul
." );
C ong
enc oder
Ġac ids
Ġexam ining
ast ings
Ġsil icon
Ġlect urer
Isra eli
Ġmic rowave
Ġbur sts
Ġsurg ical
anth a
zz o
ĠB alk
phys ics
Ġinvent ory
0 20
R P
ĠIm ag
Ġaster oid
ile e
b end
l av
ĠCraw ford
Ġserv ants
{$ {\
ĠSh annon
ocy cle
ear ly
+ |\
V O
ĠAnn ie
arv ae
ĠCon versely
ĠM Äģ
ĠBrun o
ĠDod gers
Ġprot ective
H ave
L Y
ited efault
mc itedefault
ĠDar win
Ġcross ings
spect ra
Ġhabit ats
$ },
ĠB ug
Ġun supervised
R on
ĠW ong
Ġenthus i
t oc
uk h
Ġknock ed
ad ays
Ġobst acle
v ation
cl ub
be h
Ġm akers
com fort
ans om
Ġbre ach
acc ording
gra ined
j l
Ġh ire
Ġtrad emark
ĠLaw s
Ġtorped o
os er
mak ecell
he at
Ġpers ec
p unct
lo o
Ġconjug ation
ĠS end
' =\
Ġcont ing
ĠOr d
r ants
Ġcr ust
ote chn
Ġfin est
Ġcontribut or
ĠTanz ania
Ġ= ========
B rian
ĠEu ropa
St ats
M ir
ass adors
ĠM ask
B AR
ĠTri p
b ug
Ġren ovation
Ġwh is
Ġspr int
Ġmission ary
ĠArm s
Ġheli um
ĠChe v
Ġclass ifiers
I Z
Ġz oom
}}$ -
Ġsu cc
irect ed
ĠB rom
ĠAN Y
3 12
Ġcomm ittees
Ġpos ed
ĠM ile
ĠD ry
Ġgar ner
Ġsur rend
Ġwe ird
Ġval ve
Ġbatt ing
22 6
ĠH ert
S ite
Ġfilm maker
Ġport raits
Ġpull ing
Ġinduct ive
M obile
Ġcomp ass
Ġsk illed
ĠCon text
ĠRab bi
Ġproblem atic
Sw iss
Ġextrap ol
Ġmass acre
red shift
c P
ĠR ash
=" @
ĠSerge ant
Ġlocal ities
itor ing
Ins ert
ain es
Ġrul ers
ĠS ets
24 8
K al
ĠL al
cal a
ind ices
ĠRes olution
ĠMin isters
pre ceq
ĠEv il
ĠBre nd
Ġpar ade
ĠTreat ment
v ark
iers hip
ĠLithuan ian
ĠEx perimental
Ġd orm
ĠWe iss
ĠMajor ana
c ould
Ġsc rew
ĠEm il
Ġover flow
Ġdirect ing
Ġorgan isms
ĠObs erve
R AN
ĠE du
ĠSt ruct
Ġf ingers
ĠTe en
Ġg ases
ĠAT P
ud s
Ġgen ome
Ġimag ery
Ġind ie
)} -\
Ġend angered
ĠLeg acy
w arn
Ġre med
Ġph armac
Ġis ometry
End emic
maxim um
ĠMaced onia
Ġg i
qu ist
ĠQ ing
erv ille
sh are
ĠN V
DE F
ĠL ords
ĠBro ck
Y ang
journ als
ĠBo at
Y Y
24 7
ĠD ynam
M g
ĠL uck
ov sk
Ġdisput es
v ir
Ġtri um
duct ive
ĠVict ory
Ġa rose
Ġload s
ĠPort smouth
Ġingred ient
h alo
Ġt iles
ĠH ers
Ġdel ivers
roph ic
ass ets
let cher
if def
ĠV oc
Fore ign
y d
N B
Ġs outheastern
R aw
Ġsm ile
ert ation
Ġinsert ion
ĠSpe ech
fl ies
M as
ĠJ as
E astern
ĠThom son
L ists
ound ing
ĠCow boys
att i
Ġens embles
check ed
ĠBav aria
ĠB ERT
ĠGre ens
ig nt
ri que
en ot
Ġphenomen ological
L oss
V i
sim pl
Ġfore ach
Ġj e
yl on
ĠNAS CAR
Ġtransp arency
Ġanomal ies
ra ining
Ġimm ers
[...]
