{
  "version": "1.0",
  "truncation": null,
  "padding": null,
  "added_tokens": [
    {
      "id": 0,
      "content": "[UNK]",
      "single_word": false,
      "lstrip": false,
      "rstrip": false,
      "normalized": false,
      "special": true
    }
  ],
  "normalizer": null,
  "pre_tokenizer": {
    "type": "Sequence",
    "pretokenizers": [
      {
        "type": "Digits",
        "individual_digits": false
      },
      {
        "type": "ByteLevel",
        "add_prefix_space": false,
        "trim_offsets": true,
        "use_regex": true
      }
    ]
  },
  "post_processor": null,
  "decoder": null,
  "model": {
    "type": "BPE",
    "dropout": null,
    "unk_token": "[UNK]",
    "continuing_subword_prefix": null,
    "end_of_word_suffix": null,
    "fuse_unk": false,
    "byte_fallback": false,
    "vocab": {
      "[UNK]": 0,
      "!": 1,
      "\"": 2,
      "#": 3,
      "$": 4,
      "%": 5,
      "&": 6,
      "'": 7,
      "(": 8,
      ")": 9,
      "*": 10,
      "+": 11,
      ",": 12,
      "-": 13,
      ".": 14,
      "/": 15,
      "0": 16,
      "1": 17,
      "2": 18,
      "3": 19,
      "4": 20,
      "5": 21,
      "6": 22,
      "7": 23,
      "8": 24,
      "9": 25,
      ":": 26,
      ";": 27,
      "<": 28,
      "=": 29,
      ">": 30,
      "?": 31,
      "@": 32,
      "A": 33,
      "B": 34,
      "C": 35,
      "D": 36,
      "E": 37,
      "F": 38,
      "G": 39,
      "H": 40,
      "I": 41,
      "J": 42,
      "K": 43,
      "L": 44,
      "M": 45,
      "N": 46,
      "O": 47,
      "P": 48,
      "Q": 49,
      "R": 50,
      "S": 51,
      "T": 52,
      "U": 53,
      "V": 54,
      "W": 55,
      "X": 56,
      "Y": 57,
      "Z": 58,
      "[": 59,
      "\\": 60,
      "]": 61,
      "^": 62,
      "_": 63,
      "`": 64,
      "a": 65,
      "b": 66,
      "c": 67,
      "d": 68,
      "e": 69,
      "f": 70,
      "g": 71,
      "h": 72,
      "i": 73,
      "j": 74,
      "k": 75,
      "l": 76,
      "m": 77,
      "n": 78,
      "o": 79,
      "p": 80,
      "q": 81,
      "r": 82,
      "s": 83,
      "t": 84,
      "u": 85,
      "v": 86,
      "w": 87,
      "x": 88,
      "y": 89,
      "z": 90,
      "{": 91,
      "|": 92,
      "}": 93,
      "~": 94,
      "¡": 95,
      "¢": 96,
      "£": 97,
      "¤": 98,
      "¥": 99,
      "¦": 100,
      "§": 101,
      "¨": 102,
      "©": 103,
      "ª": 104,
      "«": 105,
      "¬": 106,
      "®": 107,
      "¯": 108,
      "°": 109,
      "±": 110,
      "²": 111,
      "³": 112,
      "´": 113,
      "µ": 114,
      "¶": 115,
      "·": 116,
      "¸": 117,
      "¹": 118,
      "º": 119,
      "»": 120,
      "¼": 121,
      "½": 122,
      "¾": 123,
      "¿": 124,
      "Â": 125,
      "Ã": 126,
      "Ä": 127,
      "Å": 128,
      "Æ": 129,
      "Ç": 130,
      "È": 131,
      "É": 132,
      "Ê": 133,
      "Ë": 134,
      "Ì": 135,
      "Í": 136,
      "Î": 137,
      "Ï": 138,
      "Ð": 139,
      "Ñ": 140,
      "Ò": 141,
      "Ó": 142,
      "Ô": 143,
      "Õ": 144,
      "Ö": 145,
      "×": 146,
      "Ø": 147,
      "Ù": 148,
      "Ú": 149,
      "Û": 150,
      "Ü": 151,
      "Ý": 152,
      "Þ": 153,
      "ß": 154,
      "à": 155,
      "á": 156,
      "â": 157,
      "ã": 158,
      "ä": 159,
      "å": 160,
      "æ": 161,
      "ç": 162,
      "è": 163,
      "é": 164,
      "ê": 165,
      "ë": 166,
      "ì": 167,
      "í": 168,
      "î": 169,
      "ï": 170,
      "ð": 171,
      "ó": 172,
      "ô": 173,
      "Ā": 174,
      "ā": 175,
      "Ă": 176,
      "ă": 177,
      "Ą": 178,
      "ą": 179,
      "Ć": 180,
      "ć": 181,
      "Ĉ": 182,
      "ĉ": 183,
      "Ċ": 184,
      "ċ": 185,
      "Č": 186,
      "č": 187,
      "Ď": 188,
      "ď": 189,
      "Đ": 190,
      "đ": 191,
      "Ē": 192,
      "ē": 193,
      "Ĕ": 194,
      "ĕ": 195,
      "Ė": 196,
      "ė": 197,
      "Ę": 198,
      "ę": 199,
      "Ě": 200,
      "ě": 201,
      "Ĝ": 202,
      "ĝ": 203,
      "Ğ": 204,
      "ğ": 205,
      "Ġ": 206,
      "ġ": 207,
      "Ģ": 208,
      "ģ": 209,
      "Ĥ": 210,
      "ĥ": 211,
      "Ħ": 212,
      "ħ": 213,
      "Ĩ": 214,
      "ĩ": 215,
      "Ī": 216,
      "ī": 217,
      "Ĭ": 218,
      "ĭ": 219,
      "Į": 220,
      "į": 221,
      "İ": 222,
      "ı": 223,
      "Ĳ": 224,
      "ĳ": 225,
      "Ĵ": 226,
      "ĵ": 227,
      "Ķ": 228,
      "ķ": 229,
      "ĸ": 230,
      "Ĺ": 231,
      "ĺ": 232,
      "Ļ": 233,
      "ļ": 234,
      "Ľ": 235,
      "ľ": 236,
      "Ŀ": 237,
      "ŀ": 238,
      "Ł": 239,
      "ł": 240,
      "Ń": 241,
      "Ġt": 242,
      "in": 243,
      "he": 244,
      "Ġa": 245,
      "ĠĠ": 246,
      "on": 247,
      "er": 248,
      "re": 249,
      "Ġthe": 250,
      "at": 251,
      "en": 252,
      "or": 253,
      "Ġs": 254,
      "al": 255,
      "an": 256,
      "Ġo": 257,
      "it": 258,
      "is": 259,
      "es": 260,
      "ar": 261,
      "ed": 262,
      "Ġc": 263,
      "Ġw": 264,
      "ion": 265,
      "Ġf": 266,
      "Ġof": 267,
      "nd": 268,
      "Ġin": 269,
      "Ġp": 270,
      "Ġb": 271,
      "ic": 272,
      "ing": 273,
      "le": 274,
      "ĠĠĠĠ": 275,
      "ro": 276,
      "as": 277,
      "Ġand": 278,
      "Ġ\\": 279,
      "Ġd": 280,
      "Ġm": 281,
      "Ġto": 282,
      "Ġ$": 283,
      "ct": 284,
      "el": 285,
      "ent": 286,
      "ou": 287,
      "et": 288,
      "il": 289,
      "ig": 290,
      "am": 291,
      "om": 292,
      "st": 293,
      "Ġh": 294,
      "Ġre": 295,
      "ĠS": 296,
      "ation": 297,
      "Ġth": 298,
      "ol": 299,
      "ra": 300,
      "ĠT": 301,
      "im": 302,
      "Ġ(": 303,
      "Ġe": 304,
      "Ġn": 305,
      "ot": 306,
      "ĠC": 307,
      "ĠA": 308,
      "Ġl": 309,
      "Ġis": 310,
      "id": 311,
      "{\\": 312,
      "iv": 313,
      "ce": 314,
      "ur": 315,
      "ch": 316,
      "ut": 317,
      "Ġfor": 318,
      "ĠM": 319,
      "us": 320,
      "Ġg": 321,
      "ly": 322,
      "ow": 323,
      "Ġon": 324,
      "ul": 325,
      "ad": 326,
      "ĠI": 327,
      "ith": 328,
      "ers": 329,
      "ĠB": 330,
      "em": 331,
      "qu": 332,
      "um": 333,
      "20": 334,
      "ĠP": 335,
      "ab": 336,
      "Ġbe": 337,
      "ir": 338,
      "Ġst": 339,
      "ĠĠĠ": 340,
      "un": 341,
      "_{": 342,
      "Ġas": 343,
      "ĠĠĠĠĠĠĠĠ": 344,
      "ter": 345,
      "ay": 346,
      "se": 347,
      "Ġthat": 348,
      "ĠH": 349,
      "Ġcon": 350,
      "ver": 351,
      "od": 352,
      "Ġwith": 353,
      "âĢ": 354,
      "eg": 355,
      "if": 356,
      "19": 357,
      "ist": 358,
      "ĠF": 359,
      "th": 360,
      "ath": 361,
      "ĠR": 362,
      "ag": 363,
      "ĠThe": 364,
      "end": 365,
      "ĠD": 366,
      "Ġal": 367,
      "ĠL": 368,
      "Ġ$\\": 369,
      "Ġv": 370,
      "and": 371,
      "her": 372,
      "Ġby": 373,
      "Ġan": 374,
      "Ġpro": 375,
      "ĠĊ": 376,
      "Ġwas": 377,
      "ect": 378,
      "igh": 379,
      "ri": 380,
      "ĠW": 381,
      "res": 382,
      "ĠN": 383,
      "ac": 384,
      "ĠG": 385,
      "os": 386,
      "math": 387,
      "ve": 388,
      "op": 389,
      "est": 390,
      "čĊ": 391,
      "ta": 392,
      "ate": 393,
      "ity": 394,
      "ph": 395,
      "rom": 396,
      "ĠE": 397,
      "pp": 398,
      "Ġwh": 399,
      "Ġat": 400,
      "oc": 401,
      "Ġ&": 402,
      "Ġde": 403,
      "Ġcom": 404,
      "ight": 405,
      "art": 406,
      "}\\": 407,
      "ction": 408,
      "Ġex": 409,
      "ub": 410,
      "ex": 411,
      "Ġare": 412,
      "ure": 413,
      "ore": 414,
      "^{": 415,
      "}$": 416,
      "Ġit": 417,
      "ies": 418,
      "Ġfrom": 419,
      "ine": 420,
      "pt": 421,
      "ĠJ": 422,
      "ial": 423,
      "Ġ=": 424,
      "ill": 425,
      "all": 426,
      "ew": 427,
      "Ġwe": 428,
      "ma": 429,
      "ess": 430,
      "ge": 431,
      "ant": 432,
      "ud": 433,
      "Ġor": 434,
      "ite": 435,
      "up": 436,
      "ec": 437,
      "ĠO": 438,
      "ort": 439,
      "ive": 440,
      "Ġhe": 441,
      "ref": 442,
      "The": 443,
      "Ġr": 444,
      "ber": 445,
      "ment": 446,
      "pl": 447,
      "ak": 448,
      "}}": 449,
      "ld": 450,
      "ich": 451,
      "'s": 452,
      "(\\": 453,
      "rac": 454,
      "og": 455,
      "ated": 456,
      "iz": 457,
      "ft": 458,
      "our": 459,
      "ass": 460,
      "ard": 461,
      "ell": 462,
      "ap": 463,
      "ical": 464,
      "ian": 465,
      "ĠK": 466,
      "egin": 467,
      "ran": 468,
      "ĠU": 469,
      "nt": 470,
      "begin": 471,
      "int": 472,
      "201": 473,
      "Ġ\"": 474,
      "Ġch": 475,
      "Ġsh": 476,
      "Ġy": 477,
      "ult": 478,
      "und": 479,
      "Ġsp": 480,
      "ary": 481,
      "ame": 482,
      "ext": 483,
      "Ġus": 484,
      "ue": 485,
      "ef": 486,
      "cl": 487,
      "ign": 488,
      "Ġthis": 489,
      "Ġse": 490,
      "ition": 491,
      "cal": 492,
      "_{\\": 493,
      ")$": 494,
      "ĠĠĠĠĠĠĠ": 495,
      "ia": 496,
      "orm": 497,
      "per": 498,
      "00": 499,
      "Ġle": 500,
      "ip": 501,
      "Ġpl": 502,
      "ave": 503,
      "Ġcomp": 504,
      "ĠIn": 505,
      "Ġ-": 506,
      "ust": 507,
      "),": 508,
      "Ġnot": 509,
      "ong": 510,
      "ast": 511,
      "are": 512,
      "Ġcl": 513,
      "ens": 514,
      "}{": 515,
      "ep": 516,
      "sp": 517,
      "âĢĵ": 518,
      "ations": 519,
      "age": 520,
      "Ġsu": 521,
      "Ġwhich": 522,
      "du": 523,
      "Ġk": 524,
      "ff": 525,
      "ĠSt": 526,
      "frac": 527,
      "eq": 528,
      "ear": 529,
      "ack": 530,
      "av": 531,
      "rm": 532,
      "ost": 533,
      "ire": 534,
      "ĠV": 535,
      "ord": 536,
      "equ": 537,
      "ug": 538,
      "},": 539,
      "ence": 540,
      "Ġcan": 541,
      "so": 542,
      "200": 543,
      "ork": 544,
      "ĉĉ": 545,
      "ov": 546,
      "right": 547,
      "ace": 548,
      "ain": 549,
      ").": 550,
      "ther": 551,
      "Ġwhe": 552,
      "to": 553,
      "cc": 554,
      "Ġhave": 555,
      "text": 556,
      "able": 557,
      "cite": 558,
      "ions": 559,
      "enc": 560,
      "Ġun": 561,
      "ime": 562,
      "low": 563,
      "ide": 564,
      "Ġhis": 565,
      "abel": 566,
      "ere": 567,
      "ric": 568,
      "ang": 569,
      "ib": 570,
      "ase": 571,
      "the": 572,
      "ond": 573,
      "ous": 574,
      "act": 575,
      "ru": 576,
      "ish": 577,
      "Ġhas": 578,
      "ild": 579,
      "ĠCh": 580,
      "ach": 581,
      "mathb": 582,
      "ry": 583,
      "Ġ{": 584,
      "Ġalso": 585,
      "ener": 586,
      "âĢĻ": 587,
      "label": 588,
      ");": 589,
      ",\\": 590,
      "fer": 591,
      "eta": 592,
      "Ġim": 593,
      "Ġapp": 594,
      "Ġab": 595,
      "ok": 596,
      "Ġ<": 597,
      "18": 598,
      "$,": 599,
      "In": 600,
      "ind": 601,
      "Ġ|": 602,
      "ome": 603,
      "Ġad": 604,
      "Ġres": 605,
      "$.": 606,
      "equation": 607,
      "mer": 608,
      "over": 609,
      "ĠTh": 610,
      "form": 611,
      "out": 612,
      "erv": 613,
      "ice": 614,
      "=\"": 615,
      "Ġwere": 616,
      "erm": 617,
      "ould": 618,
      "mathcal": 619,
      "irst": 620,
      "wo": 621,
      "ound": 622,
      "left": 623,
      "Ġpart": 624,
      "own": 625,
      "})": 626,
      "ory": 627,
      "--": 628,
      "Ġj": 629,
      "Ġone": 630,
      "}.": 631,
      "old": 632,
      "10": 633,
      "ree": 634,
      "ĠĠĠĠĠĠĠĠĠĠĠĠĠĠĠĠ": 635,
      "ates": 636,
      "ents": 637,
      "ely": 638,
      "tern": 639,
      "Ġcont": 640,
      "Ġmod": 641,
      "}(": 642,
      "Ġall": 643,
      "ors": 644,
      "fig": 645,
      "ile": 646,
      "ik": 647,
      "row": 648,
      "ance": 649,
      "Ġar": 650,
      "..": 651,
      "clud": 652,
      "tain": 653,
      "ie": 654,
      "rib": 655,
      "ark": 656,
      "}^": 657,
      "ally": 658,
      "Ġdis": 659,
      "pro": 660,
      "rit": 661,
      "amb": 662,
      "ps": 663,
      "}_": 664,
      "pe": 665,
      "urn": 666,
      "ress": 667,
      "we": 668,
      "~\\": 669,
      "Ġ+": 670,
      "ose": 671,
      "ount": 672,
      "Ġob": 673,
      "//": 674,
      "Ġper": 675,
      "pha": 676,
      "Ġqu": 677,
      "con": 678,
      "Ġbut": 679,
      "Ġme": 680,
      "ics": 681,
      "line": 682,
      "Ġfirst": 683,
      "Ġro": 684,
      "ĠY": 685,
      "Ġtwo": 686,
      "Ġtheir": 687,
      "amp": 688,
      "alpha": 689,
      "ey": 690,
      "da": 691,
      "com": 692,
      "ob": 693,
      "Ġits": 694,
      "hed": 695,
      "sum": 696,
      "ĠUn": 697,
      "Ġif": 698,
      "Ġev": 699,
      "ll": 700,
      "lic": 701,
      "ks": 702,
      "ject": 703,
      "ĠIt": 704,
      "ĠHe": 705,
      "Ġout": 706,
      ")\\": 707,
      "port": 708,
      "imes": 709,
      "199": 710,
      "Ġsy": 711,
      "ular": 712,
      "Ġ}": 713,
      "</": 714,
      "rans": 715,
      "iel": 716,
      "Ġpre": 717,
      "ational": 718,
      "ari": 719,
      "cent": 720,
      "vel": 721,
      "Ġplay": 722,
      "unction": 723,
      "oint": 724,
      "Ġsc": 725,
      "Ġother": 726,
      "elta": 727,
      "ng": 728,
      "fter": 729,
      "$\\": 730,
      "ambda": 731,
      "Ġhad": 732,
      "rad": 733,
      "te": 734,
      "ollow": 735,
      "ater": 736,
      "ata": 737,
      "Ġdes": 738,
      "ĠâĢĵ": 739,
      "Ġ*": 740,
      "ution": 741,
      "ray": 742,
      "Ġset": 743,
      "Ġte": 744,
      "Ġman": 745,
      "orn": 746,
      "Ġwill": 747,
      "lect": 748,
      "Ġ||": 749,
      "ho": 750,
      "ss": 751,
      "raph": 752,
      "les": 753,
      "amma": 754,
      "Ġover": 755,
      "ugh": 756,
      "Ġag": 757,
      "one": 758,
      "Ġdef": 759,
      "ield": 760,
      "ied": 761,
      "Ġtime": 762,
      "Ġint": 763,
      "_\\": 764,
      "Ġwork": 765,
      "Ġnew": 766,
      "12": 767,
      "Ġwho": 768,
      "iss": 769,
      "mu": 770,
      "Ġinter": 771,
      "ix": 772,
      "ences": 773,
      "Ġmore": 774,
      "ption": 775,
      "of": 776,
      "Ġbeen": 777,
      "umber": 778,
      "aw": 779,
      "ĠĠĠĠĠĠĠĠĠĠĠ": 780,
      "Ġup": 781,
      "=\\": 782,
      "ons": 783,
      "ĠâĢ": 784,
      "dot": 785,
      "under": 786,
      "ased": 787,
      "Ġbet": 788,
      "Ġ\\\\": 789,
      "ings": 790,
      "Ġfollow": 791,
      "igma": 792,
      "}^{": 793,
      "Ġind": 794,
      "}_{": 795,
      "Ġsub": 796,
      "Ġform": 797,
      "mathbb": 798,
      "Ġwhere": 799,
      "vi": 800,
      "Ġdo": 801,
      "Ġcons": 802,
      "mb": 803,
      "Ġdif": 804,
      "ode": 805,
      "Ġthey": 806,
      "ced": 807,
      "Ġclass": 808,
      "land": 809,
      "-\\": 810,
      "ative": 811,
      "Ġen": 812,
      "sub": 813,
      "Ġher": 814,
      "ram": 815,
      "hat": 816,
      "ys": 817,
      "ool": 818,
      "ega": 819,
      "stem": 820,
      "ĠĠĠĠĠ": 821,
      "Ġonly": 822,
      "resent": 823,
      "sc": 824,
      "Ġsuch": 825,
      "ual": 826,
      "Ġne": 827,
      "Ġexp": 828,
      "Ġyou": 829,
      "arg": 830,
      "oth": 831,
      "^{\\": 832,
      "gh": 833,
      "Ġrel": 834,
      "Ġreg": 835,
      "Ġ{\\": 836,
      "phi": 837,
      "Ġmodel": 838,
      "app": 839,
      "Ġfunction": 840,
      "Ġcol": 841,
      "ans": 842,
      "ook": 843,
      "ined": 844,
      "Ġso": 845,
      "inal": 846,
      "Ġresult": 847,
      "eop": 848,
      "Ġval": 849,
      "Ġdist": 850,
      "Ġyear": 851,
      "ict": 852,
      "Ġinto": 853,
      "ivers": 854,
      "ited": 855,
      "aus": 856,
      "ake": 857,
      "Ġwhen": 858,
      "ĠWe": 859,
      "ific": 860,
      "eth": 861,
      "sh": 862,
      "ock": 863,
      "ize": 864,
      "roup": 865,
      "Ġcomm": 866,
      "Ġinclud": 867,
      "Ġthere": 868,
      "pr": 869,
      "ween": 870,
      "lambda": 871,
      "part": 872,
      "eople": 873,
      "ince": 874,
      "Ġacc": 875,
      "Ġconst": 876,
      "ward": 877,
      "olog": 878,
      "15": 879,
      "Ġgener": 880,
      "ĠThis": 881,
      "meric": 882,
      "ail": 883,
      "bf": 884,
      "very": 885,
      "ox": 886,
      "ax": 887,
      "Ġthen": 888,
      "Ġthan": 889,
      "ember": 890,
      "Ġsim": 891,
      "ral": 892,
      "der": 893,
      "round": 894,
      "ann": 895,
      "ating": 896,
      "tt": 897,
      "16": 898,
      "Ġbec": 899,
      "198": 900,
      "Ġph": 901,
      "io": 902,
      "Ġpos": 903,
      "Ġco": 904,
      "Ġunder": 905,
      "St": 906,
      "17": 907,
      "pi": 908,
      "Ġ[": 909,
      "Ġbetween": 910,
      "uring": 911,
      "ont": 912,
      "ough": 913,
      "ring": 914,
      "Ġshow": 915,
      "ities": 916,
      "ype": 917,
      "Ġequ": 918,
      "lem": 919,
      "set": 920,
      "Ġloc": 921,
      "ilon": 922,
      "pos": 923,
      "ient": 924,
      "wid": 925,
      "ection": 926,
      "Ġrec": 927,
      "oot": 928,
      "Ġret": 929,
      "align": 930,
      "Ġkn": 931,
      "Ġsome": 932,
      "let": 933,
      "ck": 934,
      "Ġpol": 935,
      "ublic": 936,
      "ident": 937,
      "mathbf": 938,
      "ures": 939,
      "red": 940,
      "Ġany": 941,
      "aram": 942,
      "Ġtrans": 943,
      "ood": 944,
      "Ġour": 945,
      "Ġdiffer": 946,
      "oy": 947,
      "ces": 948,
      "ilm": 949,
      "dition": 950,
      "ĠAl": 951,
      "ise": 952,
      "ĠCom": 953,
      "Ġact": 954,
      "sigma": 955,
      "Ġ(\\": 956,
      "Ġcor": 957,
      "ĠNew": 958,
      "rough": 959,
      "Ref": 960,
      "ick": 961,
      "ruct": 962,
      "Ġoff": 963,
      "ility": 964,
      "Ġafter": 965,
      "ne": 966,
      "Ġwould": 967,
      "ays": 968,
      "Ġinv": 969,
      "ee": 970,
      "Ġpr": 971,
      "its": 972,
      "^{-": 973,
      "lement": 974,
      "Ġsec": 975,
      "}{\\": 976,
      "ilde": 977,
      "Ex": 978,
      "Ġabout": 979,
      "ins": 980,
      "section": 981,
      "Ġ'": 982,
      "ists": 983,
      "\">": 984,
      "cre": 985,
      "13": 986,
      "beta": 987,
      "bar": 988,
      "Ġtra": 989,
      "abl": 990,
      "ider": 991,
      "Ġused": 992,
      "che": 993,
      "ull": 994,
      "ove": 995,
      "Ġprodu": 996,
      "als": 997,
      "Ġsystem": 998,
      "Ġstud": 999,
      "put": 1000,
      "rt": 1001,
      "ues": 1002,
      "Ġest": 1003,
      "arch": 1004,
      "ature": 1005,
      "Ġshe": 1006,
      "14": 1007,
      "Ġatt": 1008,
      "Refer": 1009,
      "oun": 1010,
      "Ġprov": 1011,
      "ike": 1012,
      "Ġgiv": 1013,
      "Ġeach": 1014,
      "Ġno": 1015,
      "Ġmat": 1016,
      "ever": 1017,
      "ren": 1018,
      "elf": 1019,
      "ade": 1020,
      "Ġass": 1021,
      "21": 1022,
      "ily": 1023,
      "+\\": 1024,
      "ĠPro": 1025,
      "References": 1026,
      "ev": 1027,
      "197": 1028,
      "Ġfe": 1029,
      "merican": 1030,
      "Ġthese": 1031,
      "Ġfl": 1032,
      "ible": 1033,
      "gamma": 1034,
      "li": 1035,
      "mathrm": 1036,
      "array": 1037,
      "Ġlin": 1038,
      "eps": 1039,
      "ower": 1040,
      "*}": 1041,
      "11": 1042,
      "orld": 1043,
      "Ġeff": 1044,
      "âĢĿ": 1045,
      "air": 1046,
      "**": 1047,
      "Ġpoint": 1048,
      "Ġnumber": 1049,
      "ator": 1050,
      "chool": 1051,
      "ision": 1052,
      "We": 1053,
      "ĠZ": 1054,
      "ton": 1055,
      "rho": 1056,
      "Ġsm": 1057,
      "\\\\": 1058,
      "Ġdata": 1059,
      "ball": 1060,
      "ism": 1061,
      "ĠFor": 1062,
      "^\\": 1063,
      "Ġresp": 1064,
      "Ġmost": 1065,
      "get": 1066,
      "Ġpeople": 1067,
      "ized": 1068,
      "Ġline": 1069,
      "ert": 1070,
      "delta": 1071,
      "Ġspec": 1072,
      "Ġprob": 1073,
      "wn": 1074,
      ")}": 1075,
      "Ġbl": 1076,
      "min": 1077,
      "Ġext": 1078,
      "here": 1079,
      "Ġmay": 1080,
      "irect": 1081,
      "ĠQ": 1082,
      "tau": 1083,
      "oci": 1084,
      "itt": 1085,
      "Ġsol": 1086,
      "theta": 1087,
      "Th": 1088,
      "Ġbu": 1089,
      "yn": 1090,
      "Ġthem": 1091,
      "ished": 1092,
      "Ġx": 1093,
      "ote": 1094,
      "ames": 1095,
      "eng": 1096,
      "oh": 1097,
      "ason": 1098,
      "]{": 1099,
      "leq": 1100,
      "ning": 1101,
      "Ġreturn": 1102,
      "Ġcase": 1103,
      "any": 1104,
      "Ġappro": 1105,
      "cdot": 1106,
      "Ġvari": 1107,
      "Ġwell": 1108,
      "ange": 1109,
      "$-": 1110,
      "ement": 1111,
      "Ġthrough": 1112,
      "Ġsign": 1113,
      "Ġi": 1114,
      "Ġuse": 1115,
      "Ġsupp": 1116,
      "ash": 1117,
      "gan": 1118,
      "col": 1119,
      "Ġdifferent": 1120,
      "Ġent": 1121,
      "25": 1122,
      "hip": 1123,
      "Ġserv": 1124,
      "Ġcur": 1125,
      "Ġoper": 1126,
      "}$,": 1127,
      "ars": 1128,
      "}$.": 1129,
      "Ġend": 1130,
      "Ġinst": 1131,
      "uss": 1132,
      "ron": 1133,
      "ization": 1134,
      "Ġrep": 1135,
      "att": 1136,
      "nu": 1137,
      "196": 1138,
      "Ġsame": 1139,
      "item": 1140,
      "Ġcent": 1141,
      "big": 1142,
      "ute": 1143,
      "width": 1144,
      "iversity": 1145,
      "ract": 1146,
      "partial": 1147,
      "figure": 1148,
      "Ġfilm": 1149,
      "\",": 1150,
      "Ġam": 1151,
      "sy": 1152,
      "ah": 1153,
      "cess": 1154,
      "30": 1155,
      "ethod": 1156,
      "}(\\": 1157,
      "Ġed": 1158,
      "ĠDe": 1159,
      "Ġsur": 1160,
      "Ġpartic": 1161,
      "hen": 1162,
      "man": 1163,
      "reat": 1164,
      "Ġnon": 1165,
      "ern": 1166,
      "Ġra": 1167,
      "Ġgroup": 1168,
      "22": 1169,
      "ĠSh": 1170,
      "Ġthree": 1171,
      "ause": 1172,
      "ĠLe": 1173,
      "orth": 1174,
      "ically": 1175,
      "arrow": 1176,
      "Ġboth": 1177,
      "Ġsing": 1178,
      "eqref": 1179,
      "ĠX": 1180,
      "quad": 1181,
      "Ġfield": 1182,
      "owever": 1183,
      "ury": 1184,
      "Ġ.": 1185,
      "arge": 1186,
      "uch": 1187,
      "outh": 1188,
      "ional": 1189,
      "Ġterm": 1190,
      "Ġfound": 1191,
      "Ġagain": 1192,
      "vert": 1193,
      "times": 1194,
      "Ġstate": 1195,
      "ret": 1196,
      "eqn": 1197,
      "()": 1198,
      "emb": 1199,
      "pert": 1200,
      "Ġfollowing": 1201,
      "ier": 1202,
      "Ġusing": 1203,
      "Ġmin": 1204,
      "mm": 1205,
      "Ġsecond": 1206,
      "fty": 1207,
      "Ġhigh": 1208,
      "ices": 1209,
      "omega": 1210,
      "Ġser": 1211,
      "ĠAn": 1212,
      "ternal": 1213,
      "rict": 1214,
      "infty": 1215,
      "eter": 1216,
      "gy": 1217,
      "ample": 1218,
      "Ġac": 1219,
      "velop": 1220,
      "ife": 1221,
      "Ġcall": 1222,
      "tilde": 1223,
      "Ġorder": 1224,
      "az": 1225,
      "irc": 1226,
      "for": 1227,
      "lection": 1228,
      "Ġgiven": 1229,
      "Ġgo": 1230,
      "way": 1231,
      "Ġhim": 1232,
      "Ġget": 1233,
      "ner": 1234,
      "Ġback": 1235,
      "aid": 1236,
      "----": 1237,
      "par": 1238,
      "uc": 1239,
      "ĠInd": 1240,
      "Ġconsider": 1241,
      "ĠAs": 1242,
      "Ġperform": 1243,
      "val": 1244,
      "arly": 1245,
      "Ġyears": 1246,
      "Ġfin": 1247,
      "pm": 1248,
      "ments": 1249,
      "def": 1250,
      "ale": 1251,
      "ource": 1252,
      "ected": 1253,
      "ĠSe": 1254,
      "sec": 1255,
      "Ġmon": 1256,
      "Ġem": 1257,
      "Ġdesc": 1258,
      "ĠâĢľ": 1259,
      "ases": 1260,
      "ively": 1261,
      "Ġdet": 1262,
      "ĠAmerican": 1263,
      "ĠCol": 1264,
      "var": 1265,
      "aj": 1266,
      "atic": 1267,
      "Ġwhile": 1268,
      "Ġduring": 1269,
      "ages": 1270,
      "50": 1271,
      "Ġlead": 1272,
      "Ġart": 1273,
      "|\\": 1274,
      "Ġdisc": 1275,
      "Ġdec": 1276,
      "ots": 1277,
      "ĠCl": 1278,
      "Ġrequ": 1279,
      "ulation": 1280,
      "Ġfact": 1281,
      "yp": 1282,
      "rang": 1283,
      "ines": 1284,
      "other": 1285,
      "==": 1286,
      "ining": 1287,
      "Ġz": 1288,
      ".,": 1289,
      "Delta": 1290,
      "iver": 1291,
      "ĠĠĠĠĠĠĠĠĠĠĠĠĠĠĠ": 1292,
      "ross": 1293,
      "ural": 1294,
      "uth": 1295,
      "serv": 1296,
      "ank": 1297,
      "ouse": 1298,
      "eb": 1299,
      "ten": 1300,
      "err": 1301,
      "ink": 1302,
      "Ġfam": 1303,
      "son": 1304,
      "Ġsmall": 1305,
      "ĠSp": 1306,
      "000": 1307,
      "194": 1308,
      "\\,": 1309,
      "Ġtr": 1310,
      "rent": 1311,
      "Ġstr": 1312,
      "Ġpublic": 1313,
      "pen": 1314,
      "Ġbeing": 1315,
      "ality": 1316,
      "ential": 1317,
      "Ġcre": 1318,
      "center": 1319,
      "Ã©": 1320,
      "ĠCon": 1321,
      "au": 1322,
      "ather": 1323,
      "fl": 1324,
      "Ġteam": 1325,
      "24": 1326,
      "ĠUniversity": 1327,
      "ired": 1328,
      "erson": 1329,
      "xi": 1330,
      "orem": 1331,
      "resp": 1332,
      "Ġ/": 1333,
      "Ġrele": 1334,
      "ants": 1335,
      "Ġdirect": 1336,
      "work": 1337,
      "overn": 1338,
      "yle": 1339,
      "sim": 1340,
      "ology": 1341,
      "Ġ:": 1342,
      "ĠSc": 1343,
      "ĠUnited": 1344,
      "space": 1345,
      "Ġmany": 1346,
      "Ġmade": 1347,
      "Ġeffect": 1348,
      "Ġname": 1349,
      "ets": 1350,
      "formation": 1351,
      "->": 1352,
      "ple": 1353,
      "by": 1354,
      "fore": 1355,
      "Ġparam": 1356,
      "Ġsee": 1357,
      "ived": 1358,
      "Ġu": 1359,
      "Ġchar": 1360,
      "ca": 1361,
      "Ġobtain": 1362,
      "eqnarray": 1363,
      "Ġresults": 1364,
      "Ġmethod": 1365,
      ")$.": 1366,
      "view": 1367,
      "hes": 1368,
      "rid": 1369,
      "}}\\": 1370,
      "rix": 1371,
      "23": 1372,
      "where": 1373,
      "ott": 1374,
      "$$": 1375,
      "Ġdep": 1376,
      "Ġlong": 1377,
      "Ġmed": 1378,
      "Ġ$(": 1379,
      "}[": 1380,
      "ared": 1381,
      "Ġbel": 1382,
      "ina": 1383,
      "ootball": 1384,
      "led": 1385,
      "Âł": 1386,
      "epsilon": 1387,
      "usic": 1388,
      "ability": 1389,
      "Pro": 1390,
      "ober": 1391,
      "Ġstart": 1392,
      "psi": 1393,
      "Ġvalue": 1394,
      "Ġanal": 1395,
      "umn": 1396,
      "sq": 1397,
      "Ġpop": 1398,
      "ency": 1399,
      "Ġnow": 1400,
      "Ġbound": 1401,
      "me": 1402,
      "))": 1403,
      "Ġlike": 1404,
      "Ġcount": 1405,
      "ved": 1406,
      "ĠAr": 1407,
      "iqu": 1408,
      "Ġsince": 1409,
      "Ġmain": 1410,
      "vent": 1411,
      "Ġdevelop": 1412,
      "Ġbefore": 1413,
      "vers": 1414,
      "Ġneed": 1415,
      "Ch": 1416,
      "Ġcontin": 1417,
      "ley": 1418,
      "ĠEng": 1419,
      "ohn": 1420,
      "els": 1421,
      "Ġwrit": 1422,
      "Ġknown": 1423,
      "Ġcould": 1424,
      "iving": 1425,
      "ane": 1426,
      "aking": 1427,
      "ission": 1428,
      "Ġ//": 1429,
      "ĉĉĉĉ": 1430,
      "Ġpresent": 1431,
      "Ġrepresent": 1432,
      "Ġfour": 1433,
      "Ġmeas": 1434,
      "ior": 1435,
      "Con": 1436,
      "includ": 1437,
      "anc": 1438,
      "}_{\\": 1439,
      "cept": 1440,
      "chn": 1441,
      "Om": 1442,
      "Ġevery": 1443,
      "ĠOn": 1444,
      "Ġlinks": 1445,
      "ified": 1446,
      "ole": 1447,
      "Ġexpl": 1448,
      "oid": 1449,
      "Ġmass": 1450,
      "rel": 1451,
      "not": 1452,
      "istory": 1453,
      "Ġelect": 1454,
      ".\"": 1455,
      "195": 1456,
      "Ġsupport": 1457,
      "ĠShe": 1458,
      "Ġ,": 1459,
      "agn": 1460,
      "omen": 1461,
      "Ġplayers": 1462,
      "Ġadd": 1463,
      "ths": 1464,
      "ĠAd": 1465,
      "2020": 1466,
      "ask": 1467,
      "lex": 1468,
      "ĠĠĊ": 1469,
      "ives": 1470,
      "mp": 1471,
      "Ġprocess": 1472,
      "gram": 1473,
      "Ġjust": 1474,
      "energy": 1475,
      "ĠMar": 1476,
      "rop": 1477,
      "Ġright": 1478,
      "lang": 1479,
      "Omega": 1480,
      "enn": 1481,
      "Ġorig": 1482,
      "ful": 1483,
      "Ġmov": 1484,
      "ĠIs": 1485,
      "Ġsaid": 1486,
      "Ġgu": 1487,
      "ke": 1488,
      "^*": 1489,
      "ograph": 1490,
      "Ġcondition": 1491,
      "ĠBl": 1492,
      "ribution": 1493,
      "Ġstruct": 1494,
      "sqrt": 1495,
      "Ġmet": 1496,
      "Ġimp": 1497,
      "ival": 1498,
      "ĠFig": 1499,
      ")$,": 1500,
      "ead": 1501,
      "Ġincluding": 1502,
      "Ph": 1503,
      "Ġlarge": 1504,
      "ript": 1505,
      "psilon": 1506,
      "Ġbecause": 1507,
      "Ġdr": 1508,
      "Gamma": 1509,
      "une": 1510,
      "Ġ${\\": 1511,
      "read": 1512,
      "Ġlater": 1513,
      "Ġdescrib": 1514,
      "ger": 1515,
      "sk": 1516,
      "Ġmult": 1517,
      "fra": 1518,
      "Ġrun": 1519,
      "etwork": 1520,
      "Ġspace": 1521,
      "raw": 1522,
      "respond": 1523,
      "For": 1524,
      "ector": 1525,
      "Ġexper": 1526,
      "External": 1527,
      "Ġproblem": 1528,
      "Ġvery": 1529,
      "mbol": 1530,
      "It": 1531,
      "ĠPh": 1532,
      "ribut": 1533,
      "Ġgeneral": 1534,
      "Ġbased": 1535,
      "Ġrespect": 1536,
      "epend": 1537,
      "',": 1538,
      "arn": 1539,
      "ĠStates": 1540,
      "Ġ@": 1541,
      "This": 1542,
      "Ġrecord": 1543,
      "Ġincre": 1544,
      "ually": 1545,
      "Ġobserv": 1546,
      "action": 1547,
      "Ġfind": 1548,
      "ift": 1549,
      "bum": 1550,
      "ĠComm": 1551,
      "Ġown": 1552,
      "Ġpres": 1553,
      "Ġwhat": 1554,
      "Ġposs": 1555,
      "ĠPl": 1556,
      "arri": 1557,
      "oss": 1558,
      "Ġlocal": 1559,
      "vare": 1560,
      "ĠEx": 1561,
      "ĠCount": 1562,
      "urther": 1563,
      "Ġeven": 1564,
      "ness": 1565,
      "bm": 1566,
      "27": 1567,
      "::": 1568,
      "ER": 1569,
      "vious": 1570,
      "ital": 1571,
      "rightarrow": 1572,
      "^{(": 1573,
      "Ġlim": 1574,
      "Ġseries": 1575,
      "ience": 1576,
      "inc": 1577,
      "log": 1578,
      "Ġtest": 1579,
      "Ġcharact": 1580,
      "varepsilon": 1581,
      "textbf": 1582,
      "oad": 1583,
      "subsection": 1584,
      "ĠMay": 1585,
      "ister": 1586,
      "rodu": 1587,
      "Ġvi": 1588,
      "ven": 1589,
      "Ġ`": 1590,
      "Ġseason": 1591,
      "}=": 1592,
      "ration": 1593,
      "olution": 1594,
      "Ġagainst": 1595,
      "med": 1596,
      "}^{\\": 1597,
      "af": 1598,
      "Ġopen": 1599,
      "Ġdesign": 1600,
      "26": 1601,
      "28": 1602,
      "Ġrad": 1603,
      "Ġshould": 1604,
      "ubl": 1605,
      "til": 1606,
      "ird": 1607,
      "Ġschool": 1608,
      "rangle": 1609,
      "Ġdoes": 1610,
      "Ġ\\,": 1611,
      "Ġel": 1612,
      "cer": 1613,
      "raphics": 1614,
      "uro": 1615,
      "Ġtop": 1616,
      "Ġassum": 1617,
      "2018": 1618,
      "imens": 1619,
      "\".": 1620,
      "Ġdi": 1621,
      "itive": 1622,
      ")=": 1623,
      "...": 1624,
      "umer": 1625,
      "2019": 1626,
      "Ġopt": 1627,
      "Ġhand": 1628,
      "Ġsever": 1629,
      "ithm": 1630,
      "co": 1631,
      "ĠJohn": 1632,
      "ague": 1633,
      "Ġbuild": 1634,
      "ĠFran": 1635,
      "Ġ</": 1636,
      "Ġenergy": 1637,
      "bl": 1638,
      "Ġcorrespond": 1639,
      "Ġestabl": 1640,
      "rand": 1641,
      "arm": 1642,
      "atch": 1643,
      "Ġtype": 1644,
      "ai": 1645,
      "rol": 1646,
      "ĠJan": 1647,
      "Ġlist": 1648,
      "Ġden": 1649,
      "As": 1650,
      "non": 1651,
      "ery": 1652,
      "40": 1653,
      "Ġcontain": 1654,
      "Ġrece": 1655,
      "mod": 1656,
      "2017": 1657,
      "ateg": 1658,
      "Ġallow": 1659,
      "ument": 1660,
      "Ġscal": 1661,
      "eters": 1662,
      "cm": 1663,
      "ĠNational": 1664,
      "Ġreal": 1665,
      "chi": 1666,
      "ially": 1667,
      "Ġdue": 1668,
      "../": 1669,
      "ccess": 1670,
      "Ġthose": 1671,
      "Ġrest": 1672,
      "2016": 1673,
      "ided": 1674,
      "Com": 1675,
      "Ġprof": 1676,
      "Ġhow": 1677,
      "193": 1678,
      "ides": 1679,
      "ST": 1680,
      "ised": 1681,
      "Ġstand": 1682,
      "ves": 1683,
      "100": 1684,
      "caption": 1685,
      "ety": 1686,
      "Ġcommun": 1687,
      "Ġfamily": 1688,
      "Ġlast": 1689,
      "Ġfootball": 1690,
      "Ġtem": 1691,
      "gor": 1692,
      "Ġrem": 1693,
      "bs": 1694,
      "ify": 1695,
      "ilar": 1696,
      "ĠWorld": 1697,
      "alth": 1698,
      "aces": 1699,
      "Ġstat": 1700,
      "ĠčĊ": 1701,
      "Ġident": 1702,
      "Ġcalled": 1703,
      "includeg": 1704,
      "includegraphics": 1705,
      "Ġcal": 1706,
      "reen": 1707,
      "Ġrema": 1708,
      "ĠAust": 1709,
      "Ġestim": 1710,
      "rist": 1711,
      "bold": 1712,
      "rack": 1713,
      "less": 1714,
      "ting": 1715,
      "Ġway": 1716,
      "por": 1717,
      "On": 1718,
      "urch": 1719,
      "Ġsingle": 1720,
      "ium": 1721,
      "29": 1722,
      "2010": 1723,
      "Ġyour": 1724,
      "ek": 1725,
      "Ġalbum": 1726,
      "2015": 1727,
      "Ġinit": 1728,
      "ison": 1729,
      "Ġmeasure": 1730,
      "Ġpower": 1731,
      "Ġdid": 1732,
      "Ġmake": 1733,
      "ternational": 1734,
      "tab": 1735,
      "tr": 1736,
      "Ġabove": 1737,
      "Ġcurrent": 1738,
      "Ġbro": 1739,
      "back": 1740,
      "Ġmy": 1741,
      "ately": 1742,
      "ĠRe": 1743,
      "Ġimport": 1744,
      "ĠHowever": 1745,
      "Ġfinal": 1746,
      "IN": 1747,
      "Ġpropert": 1748,
      "uper": 1749,
      "Ġaddition": 1750,
      "ĠCan": 1751,
      "2014": 1752,
      "ĠAnd": 1753,
      "overnment": 1754,
      "ij": 1755,
      "varphi": 1756,
      "ĠNov": 1757,
      "ĠCar": 1758,
      "Ġlevel": 1759,
      "Ġread": 1760,
      "lim": 1761,
      "Ġleft": 1762,
      "ength": 1763,
      "Ġalong": 1764,
      "ero": 1765,
      "wards": 1766,
      "Ġrefer": 1767,
      "emph": 1768,
      "uary": 1769,
      "omet": 1770,
      "ilt": 1771,
      "Ġnear": 1772,
      "Ġocc": 1773,
      "ians": 1774,
      "Ġinteg": 1775,
      "Ġgame": 1776,
      "frak": 1777,
      "ators": 1778,
      "geq": 1779,
      "rem": 1780,
      ".~\\": 1781,
      "Ġav": 1782,
      "overline": 1783,
      "Ġreport": 1784,
      "ĠTe": 1785,
      "aper": 1786,
      "Ġref": 1787,
      "2013": 1788,
      "aint": 1789,
      "umb": 1790,
      "ĠYork": 1791,
      "Ġhel": 1792,
      "Ġaround": 1793,
      "''": 1794,
      "position": 1795,
      "wh": 1796,
      "Ġbir": 1797,
      "day": 1798,
      "Ġwithin": 1799,
      "ĠAt": 1800,
      "Ġpass": 1801,
      "osed": 1802,
      "Ġbecame": 1803,
      "Ġelement": 1804,
      "ajor": 1805,
      "ĠWar": 1806,
      "iness": 1807,
      "ml": 1808,
      "AR": 1809,
      "ĠAll": 1810,
      "gorithm": 1811,
      "ĠSchool": 1812,
      "ĠJu": 1813,
      "Ġinformation": 1814,
      "apt": 1815,
      "lev": 1816,
      "ody": 1817,
      "Ġseveral": 1818,
      "Ġproject": 1819,
      "2012": 1820,
      ".}": 1821,
      "ĠCounty": 1822,
      ")^": 1823,
      "Ġpar": 1824,
      "side": 1825,
      "ĠCent": 1826,
      "Ġsat": 1827,
      "xim": 1828,
      "&\\": 1829,
      "ene": 1830,
      "Ġsum": 1831,
      "akes": 1832,
      "Ġcare": 1833,
      "face": 1834,
      "ensity": 1835,
      "embers": 1836,
      "Ġuntil": 1837,
      "ĠOr": 1838,
      "Ġprogram": 1839,
      "ious": 1840,
      "Ġvers": 1841,
      "ĠGe": 1842,
      "essage": 1843,
      "2011": 1844,
      "ampl": 1845,
      "ht": 1846,
      "Ġdown": 1847,
      "Big": 1848,
      "ĠBrit": 1849,
      "Ġarea": 1850,
      "ormal": 1851,
      "Ġgl": 1852,
      "Ġche": 1853,
      "ended": 1854,
      "reg": 1855,
      "proof": 1856,
      "Ġvis": 1857,
      "ĠWh": 1858,
      "iod": 1859,
      "Ġlife": 1860,
      "ĠĠĠĠĠĠĠĠĠ": 1861,
      "ĠAug": 1862,
      "ĠIf": 1863,
      "Ġknow": 1864,
      "ym": 1865,
      "Ġvalues": 1866,
      "eed": 1867,
      "amed": 1868,
      "ĠOct": 1869,
      "Ġmuch": 1870,
      "su": 1871,
      "ĠMan": 1872,
      "},\\": 1873,
      "Ġworld": 1874,
      "be": 1875,
      "esc": 1876,
      "use": 1877,
      "iam": 1878,
      "Ġexample": 1879,
      "://": 1880,
      "ON": 1881,
      "Ġtri": 1882,
      "play": 1883,
      "ording": 1884,
      "ĠPr": 1885,
      "Ġquant": 1886,
      "oll": 1887,
      "ĠâĢĶ": 1888,
      "Ġchild": 1889,
      "Ġcap": 1890,
      "ĠSouth": 1891,
      "Ġerr": 1892,
      "Ġann": 1893,
      "Ġnetwork": 1894,
      "AT": 1895,
      "Ġobject": 1896,
      "();": 1897,
      "Ġdeath": 1898,
      "refore": 1899,
      "ptember": 1900,
      "Ġtot": 1901,
      "ense": 1902,
      "Ġparticular": 1903,
      "Ġstill": 1904,
      "Ġsong": 1905,
      "Ġlarg": 1906,
      "):": 1907,
      "ification": 1908,
      "}).": 1909,
      "Ġshown": 1910,
      "mathfrak": 1911,
      "aving": 1912,
      "Ġorgan": 1913,
      "Ġfre": 1914,
      "Ġwin": 1915,
      "str": 1916,
      "Ġconn": 1917,
      "Ġspect": 1918,
      "Ġcomput": 1919,
      "Ġappear": 1920,
      "2008": 1921,
      "(\"": 1922,
      "ffic": 1923,
      "vec": 1924,
      "Ġgra": 1925,
      "Ġconf": 1926,
      "Al": 1927,
      "Ġprot": 1928,
      "Ġplace": 1929,
      "gg": 1930,
      "Ġpolit": 1931,
      "ament": 1932,
      "Ġdepend": 1933,
      "ground": 1934,
      "Ġfollows": 1935,
      "symbol": 1936,
      "ensure": 1937,
      "ruction": 1938,
      "ĠAss": 1939,
      "ination": 1940,
      "Ġcontinu": 1941,
      "Ġmark": 1942,
      "ule": 1943,
      "Ġmusic": 1944,
      "2009": 1945,
      "[\\": 1946,
      "Ġ#": 1947,
      "Ġsl": 1948,
      "alk": 1949,
      "Ġcharacter": 1950,
      "Ġevent": 1951,
      "oard": 1952,
      "ĠRes": 1953,
      "eff": 1954,
      "Ġder": 1955,
      "mber": 1956,
      "Ġtechn": 1957,
      "Ġsimilar": 1958,
      "iment": 1959,
      "Ġhead": 1960,
      "Ġbeh": 1961,
      "ĠMarch": 1962,
      "see": 1963,
      "Ġbas": 1964,
      "mmet": 1965,
      "ĠThey": 1966,
      "Ġlaw": 1967,
      "langle": 1968,
      "ĠGerm": 1969,
      "Ġmap": 1970,
      "Cl": 1971,
      "imal": 1972,
      "ts": 1973,
      "60": 1974,
      "atter": 1975,
      "Ġredu": 1976,
      "inition": 1977,
      "Ġmodels": 1978,
      "orph": 1979,
      "cul": 1980,
      "hline": 1981,
      "Ġbook": 1982,
      "Ġdem": 1983,
      "pril": 1984,
      "ĠJanuary": 1985,
      "Ġself": 1986,
      "ependent": 1987,
      "Ġoffic": 1988,
      "ĠĠĠĠĠĠĠĠĠĠĠĠĠĠĠĠĠĠĠĠĠĠĠĠĠĠĠĠĠĠĠĠ": 1989,
      "Ġsection": 1990,
      "ĠPol": 1991,
      "with": 1992,
      "color": 1993,
      "usiness": 1994,
      "ories": 1995,
      "ĠAugust": 1996,
      "Ġdom": 1997,
      "ĠSeptember": 1998,
      "ords": 1999,
      "Ġlow": 2000,
      "bra": 2001,
      "rum": 2002,
      "Ġbest": 2003,
      "ler": 2004,
      "Ġtake": 2005,
      "div": 2006,
      "Ġpat": 2007,
      "'t": 2008,
      "Ġdefined": 2009,
      "atures": 2010,
      "}}$": 2011,
      "Ġhig": 2012,
      "Let": 2013,
      "2007": 2014,
      "oman": 2015,
      "SS": 2016,
      "aim": 2017,
      "ĠOctober": 2018,
      "boldsymbol": 2019,
      "uthor": 2020,
      "comm": 2021,
      "ĠGu": 2022,
      "ges": 2023,
      "no": 2024,
      "dis": 2025,
      "cor": 2026,
      "Ġstudy": 2027,
      "Ġintrodu": 2028,
      "ynam": 2029,
      "ampions": 2030,
      "ĠII": 2031,
      "Ġprevious": 2032,
      "Ġinf": 2033,
      "aster": 2034,
      "Ġband": 2035,
      "ris": 2036,
      "cember": 2037,
      "Ġdeterm": 2038,
      "|-": 2039,
      "new": 2040,
      "lish": 2041,
      "An": 2042,
      "Ġterms": 2043,
      "Ġet": 2044,
      "istic": 2045,
      "etail": 2046,
      "ldots": 2047,
      "ĠJune": 2048,
      "ches": 2049,
      "ble": 2050,
      "Ġlet": 2051,
      "Ġpost": 2052,
      "Ġpoints": 2053,
      "ysis": 2054,
      "Lambda": 2055,
      "ored": 2056,
      "Ġperson": 2057,
      "duct": 2058,
      "Ġshows": 2059,
      "Ġassoci": 2060,
      "nabl": 2061,
      "2021": 2062,
      "Ġposition": 2063,
      "ae": 2064,
      "oper": 2065,
      "ĠRep": 2066,
      "Ġcrit": 2067,
      "Ġaction": 2068,
      "iter": 2069,
      "appa": 2070,
      "ances": 2071,
      "Ġhelp": 2072,
      "istor": 2073,
      "ĉĉĉ": 2074,
      "ID": 2075,
      "lear": 2076,
      "2006": 2077,
      "born": 2078,
      "idd": 2079,
      "ĠJuly": 2080,
      "Phi": 2081,
      "ope": 2082,
      "ling": 2083,
      "ream": 2084,
      "Ġinterest": 2085,
      "ung": 2086,
      "mbox": 2087,
      "Ġsize": 2088,
      "lege": 2089,
      "ĠMin": 2090,
      "Ġ>": 2091,
      "Ġtotal": 2092,
      "Ġpred": 2093,
      "To": 2094,
      "odes": 2095,
      "ĠPar": 2096,
      "self": 2097,
      "span": 2098,
      "Ġformer": 2099,
      "Ġhere": 2100,
      "ĠEuro": 2101,
      "urb": 2102,
      "ĠApril": 2103,
      "ĠBe": 2104,
      "itle": 2105,
      "etic": 2106,
      "Ġearly": 2107,
      "Ġmust": 2108,
      "ĠAustral": 2109,
      "isf": 2110,
      "Ġdiscuss": 2111,
      "ww": 2112,
      "Ġdistribution": 2113,
      "Ġhold": 2114,
      "45": 2115,
      "90": 2116,
      "otimes": 2117,
      "ixed": 2118,
      "otential": 2119,
      "ĠCity": 2120,
      "Ġwithout": 2121,
      "sf": 2122,
      "80": 2123,
      "oor": 2124,
      "dd": 2125,
      "plit": 2126,
      "ĠCal": 2127,
      "33": 2128,
      "Ġ)": 2129,
      "ats": 2130,
      "Ġcour": 2131,
      "org": 2132,
      "Ġadv": 2133,
      "ourn": 2134,
      "this": 2135,
      "Un": 2136,
      "ĠNovember": 2137,
      "nabla": 2138,
      "Ġnext": 2139,
      "Ġgood": 2140,
      "exp": 2141,
      "ĠTo": 2142,
      "Ġstructure": 2143,
      "Ġtrad": 2144,
      "stit": 2145,
      "Ġ_": 2146,
      "--------": 2147,
      "Ġsuccess": 2148,
      "ĠDecember": 2149,
      "ĠNorth": 2150,
      "Ġshort": 2151,
      "Ġdeg": 2152,
      "kappa": 2153,
      "Ġcho": 2154,
      "Ġexist": 2155,
      "de": 2156,
      "ĠUS": 2157,
      "urs": 2158,
      "ĠArt": 2159,
      "Ġbre": 2160,
      "Ġperiod": 2161,
      "ering": 2162,
      "ography": 2163,
      "sm": 2164,
      "Ġcar": 2165,
      "Ġplayed": 2166,
      "Ġcomb": 2167,
      "Ġtyp": 2168,
      "ĠCo": 2169,
      "Ġwon": 2170,
      "Ġeng": 2171,
      "field": 2172,
      "esp": 2173,
      "ention": 2174,
      "param": 2175,
      "ino": 2176,
      "illion": 2177,
      "ĠState": 2178,
      "nonumber": 2179,
      "trans": 2180,
      "ĠReg": 2181,
      "ivity": 2182,
      "Ġpubl": 2183,
      "Ġdescribed": 2184,
      "35": 2185,
      "ression": 2186,
      "plic": 2187,
      "Ġreleased": 2188,
      "He": 2189,
      "ales": 2190,
      "gin": 2191,
      "sequ": 2192,
      "RE": 2193,
      "citep": 2194,
      "32": 2195,
      "ze": 2196,
      "opt": 2197,
      "ilit": 2198,
      "Ġanother": 2199,
      "mult": 2200,
      "Ġstates": 2201,
      "Ġstrong": 2202,
      "ĠYou": 2203,
      ".\\": 2204,
      "ique": 2205,
      "Ġdel": 2206,
      "Ġhome": 2207,
      "Ġthough": 2208,
      "****": 2209,
      "Ġcomplet": 2210,
      "})$": 2211,
      "ĠFeb": 2212,
      "Ġcity": 2213,
      "ux": 2214,
      "ĠBy": 2215,
      "ape": 2216,
      "aced": 2217,
      "iron": 2218,
      "Ġmean": 2219,
      "};": 2220,
      "Ġmajor": 2221,
      "ploy": 2222,
      "ault": 2223,
      "ham": 2224,
      "Ġaff": 2225,
      "Ġpossible": 2226,
      "ries": 2227,
      "ipp": 2228,
      "Ġregion": 2229,
      "Ġmax": 2230,
      "ocial": 2231,
      "though": 2232,
      "}),": 2233,
      "Ġchang": 2234,
      "ered": 2235,
      "Ġaver": 2236,
      "ĠSec": 2237,
      "Ġcou": 2238,
      "Ġday": 2239,
      "alt": 2240,
      "Ġmembers": 2241,
      "ruary": 2242,
      "ĠSy": 2243,
      "Ġapproxim": 2244,
      "Ġmagn": 2245,
      "arent": 2246,
      "Ġinvest": 2247,
      "ster": 2248,
      "ĠFl": 2249,
      "Ġland": 2250,
      "ĠWill": 2251,
      "Ġinclude": 2252,
      "osp": 2253,
      "textit": 2254,
      "add": 2255,
      "2000": 2256,
      "table": 2257,
      "ĠEurope": 2258,
      "See": 2259,
      "ĠThen": 2260,
      "Ġleg": 2261,
      "></": 2262,
      "Ġlook": 2263,
      "\\|": 2264,
      "Ġturn": 2265,
      "ser": 2266,
      "ither": 2267,
      "subset": 2268,
      "Ġsk": 2269,
      "ological": 2270,
      "ude": 2271,
      "empt": 2272,
      "Ġ*/": 2273,
      "Ġimportant": 2274,
      "ĠBritish": 2275,
      "Ġvol": 2276,
      "Ġold": 2277,
      "ources": 2278,
      "icle": 2279,
      "off": 2280,
      "Ġcompet": 2281,
      "Ġdiv": 2282,
      "190": 2283,
      "Ġtimes": 2284,
      "alf": 2285,
      "roll": 2286,
      "ĠCanad": 2287,
      "circ": 2288,
      "Ġproduct": 2289,
      "ush": 2290,
      "ĠAf": 2291,
      "angu": 2292,
      "wide": 2293,
      "ients": 2294,
      "Ġphot": 2295,
      "ivate": 2296,
      "ĠPart": 2297,
      "\\%": 2298,
      "Ġalgorithm": 2299,
      "ception": 2300,
      "Ġobtained": 2301,
      "time": 2302,
      "Ġgovernment": 2303,
      "posed": 2304,
      "idual": 2305,
      "Ġcompon": 2306,
      "apan": 2307,
      "ĠThere": 2308,
      "Ġmanag": 2309,
      "Ġtheory": 2310,
      "uk": 2311,
      "mat": 2312,
      "Ġwomen": 2313,
      "Ġdensity": 2314,
      "Ġsatisf": 2315,
      "2005": 2316,
      "lected": 2317,
      "Ġfull": 2318,
      "ille": 2319,
      "75": 2320,
      "class": 2321,
      "lation": 2322,
      "Ġpotential": 2323,
      "}}{": 2324,
      "ĠKing": 2325,
      "ĠLeague": 2326,
      "Ġfew": 2327,
      "Sigma": 2328,
      "bit": 2329,
      "Ġsignific": 2330,
      "ideo": 2331,
      "uman": 2332,
      "Ġview": 2333,
      "ii": 2334,
      "Ġside": 2335,
      "By": 2336,
      "Ġfurther": 2337,
      "imum": 2338,
      "ently": 2339,
      "ways": 2340,
      "Ġaut": 2341,
      "Ġla": 2342,
      "Ġeas": 2343,
      "ĠChrist": 2344,
      "Ps": 2345,
      "ampionship": 2346,
      "eak": 2347,
      "Ġphys": 2348,
      "box": 2349,
      "ĠĠĠĠĠĠ": 2350,
      "ĠMed": 2351,
      "Ġcompany": 2352,
      "Ġsequ": 2353,
      "Ġcontrol": 2354,
      "Ġarg": 2355,
      "Ġopp": 2356,
      "ights": 2357,
      "Ġparameters": 2358,
      "Ġfr": 2359,
      "ĠFebruary": 2360,
      "iction": 2361,
      "cont": 2362,
      "iles": 2363,
      "ĠEd": 2364,
      "Ġep": 2365,
      "ana": 2366,
      "Ġpaper": 2367,
      "ĠAfter": 2368,
      "ailable": 2369,
      "pd": 2370,
      "ĠNo": 2371,
      "70": 2372,
      "\\[": 2373,
      "ensuremath": 2374,
      "arget": 2375,
      "Ġperformance": 2376,
      "Ġmatrix": 2377,
      "../../": 2378,
      "ius": 2379,
      "Ġcomplex": 2380,
      "Ġbirths": 2381,
      "ony": 2382,
      "widet": 2383,
      "Ġstandard": 2384,
      "ables": 2385,
      "alse": 2386,
      "ĠLet": 2387,
      "ends": 2388,
      "Ġsolution": 2389,
      "Ġfunctions": 2390,
      "Ġq": 2391,
      "century": 2392,
      "ĠRec": 2393,
      "31": 2394,
      "Ġoriginal": 2395,
      "loc": 2396,
      "clus": 2397,
      "2004": 2398,
      "ĠCor": 2399,
      "raft": 2400,
      "Ġequation": 2401,
      "Ġinvol": 2402,
      "AS": 2403,
      "Ġrange": 2404,
      "Ġfree": 2405,
      "ĠĠĠĠĠĠĠĠĠĠĠĠĠĠĠĠĠĠĠ": 2406,
      "rag": 2407,
      "Ġtrue": 2408,
      ")(": 2409,
      "ĠMc": 2410,
      "Ġpopulation": 2411,
      "rench": 2412,
      "Ġless": 2413,
      "('": 2414,
      "Ġmot": 2415,
      "Ġprom": 2416,
      "unc": 2417,
      "dots": 2418,
      "Ġ``": 2419,
      "Name": 2420,
      "Ġgraph": 2421,
      "Ġrese": 2422,
      "utions": 2423,
      "widetilde": 2424,
      "OR": 2425,
      "Ġimpro": 2426,
      "Ġfilms": 2427,
      "Ġlimit": 2428,
      "cit": 2429,
      "levision": 2430,
      "><": 2431,
      "Ġsit": 2432,
      "name": 2433,
      "Ġtown": 2434,
      "ĠHar": 2435,
      "style": 2436,
      "Ġindic": 2437,
      "ĠBar": 2438,
      "Ġide": 2439,
      "64": 2440,
      "Ġcover": 2441,
      "ese": 2442,
      "draw": 2443,
      "Ġcareer": 2444,
      "order": 2445,
      "inally": 2446,
      "/\\": 2447,
      "99": 2448,
      "html": 2449,
      "uation": 2450,
      "htt": 2451,
      "Ġ--": 2452,
      "Ġdetail": 2453,
      "Ġkey": 2454,
      "Ġgrow": 2455,
      "ocus": 2456,
      "ounc": 2457,
      "Ġke": 2458,
      "stand": 2459,
      "itor": 2460,
      "Ã¡": 2461,
      "AN": 2462,
      "Ġconstant": 2463,
      "augh": 2464,
      "Ar": 2465,
      "aul": 2466,
      "ĠWest": 2467,
      "ĠThese": 2468,
      "otes": 2469,
      "hold": 2470,
      "sl": 2471,
      "Ġrate": 2472,
      "Ġanalysis": 2473,
      "Ġmember": 2474,
      "Ġfeature": 2475,
      "const": 2476,
      "iple": 2477,
      "Sp": 2478,
      "\\!": 2479,
      "ĠSw": 2480,
      "prime": 2481,
      "uck": 2482,
      "ĠArm": 2483,
      "pper": 2484,
      "Ġrespectively": 2485,
      "Ġstation": 2486,
      "ĠDist": 2487,
      "ĠAb": 2488,
      "but": 2489,
      "Ġhy": 2490,
      "Ġthird": 2491,
      "Ġtook": 2492,
      "iff": 2493,
      "Ġrepl": 2494,
      "Ġlocated": 2495,
      "eneral": 2496,
      "Ġinitial": 2497,
      "Ġsystems": 2498,
      "Type": 2499,
      "Ġapproach": 2500,
      "Ġvert": 2501,
      "script": 2502,
      "ĠEnglish": 2503,
      "type": 2504,
      "âĢľ": 2505,
      "ones": 2506,
      "Ġnamed": 2507,
      "Ġbusiness": 2508,
      "Ġlight": 2509,
      "amples": 2510,
      "AC": 2511,
      "ĠMe": 2512,
      "rew": 2513,
      "Ġgames": 2514,
      "Ġchange": 2515,
      "Ġestablished": 2516,
      "Ġheld": 2517,
      "inter": 2518,
      "AL": 2519,
      "American": 2520,
      "Ġmom": 2521,
      "Ġcorresponding": 2522,
      "Ġfive": 2523,
      "Ġlower": 2524,
      "Ġconsidered": 2525,
      "Ġhouse": 2526,
      "{-": 2527,
      "Ġred": 2528,
      "now": 2529,
      "Ġpair": 2530,
      "Ġsignificant": 2531,
      "ransp": 2532,
      "Fig": 2533,
      "34": 2534,
      "ondon": 2535,
      "Ġbegan": 2536,
      "source": 2537,
      ".âĢĿ": 2538,
      "Ġenc": 2539,
      "onse": 2540,
      "Ġhistory": 2541,
      "====": 2542,
      "Re": 2543,
      "rary": 2544,
      "ĠHis": 2545,
      "ription": 2546,
      "Ġleast": 2547,
      "ief": 2548,
      "Ġversion": 2549,
      "ald": 2550,
      "Ġwant": 2551,
      "conom": 2552,
      "asing": 2553,
      "Ġjo": 2554,
      "eder": 2555,
      "Ġcalcul": 2556,
      "Ġapplic": 2557,
      "Ġamong": 2558,
      "Ġclub": 2559,
      "EN": 2560,
      "Ġcross": 2561,
      "Ġdiff": 2562,
      "Ġspecial": 2563,
      "centering": 2564,
      "Ġsay": 2565,
      "obal": 2566,
      "ably": 2567,
      "Ġcoll": 2568,
      "adem": 2569,
      "Ġservice": 2570,
      "Ġvar": 2571,
      "ividual": 2572,
      "andom": 2573,
      "ising": 2574,
      "ĠEn": 2575,
      "Ġavailable": 2576,
      "List": 2577,
      "viron": 2578,
      "Res": 2579,
      "dom": 2580,
      "Ġoften": 2581,
      "Ġage": 2582,
      "}-": 2583,
      "Ġphase": 2584,
      "zeta": 2585,
      "Ġrelations": 2586,
      "ache": 2587,
      "Ġsix": 2588,
      "lete": 2589,
      "Ġcommon": 2590,
      "urg": 2591,
      "head": 2592,
      "65": 2593,
      "}+": 2594,
      "cap": 2595,
      "Ġgreat": 2596,
      "Ġcases": 2597,
      "ours": 2598,
      "ĠJapan": 2599,
      "rite": 2600,
      "Ġvarious": 2601,
      "\\]": 2602,
      "ware": 2603,
      "ĠSan": 2604,
      "td": 2605,
      "Ġcy": 2606,
      "ĠBut": 2607,
      "Ġwater": 2608,
      "2003": 2609,
      "Ġaverage": 2610,
      "max": 2611,
      "ĠAm": 2612,
      "Id": 2613,
      "rap": 2614,
      "Ġhigher": 2615,
      "ĠSch": 2616,
      "Ġsepar": 2617,
      "Ġtraining": 2618,
      "import": 2619,
      "If": 2620,
      "na": 2621,
      "Ġtemper": 2622,
      "comp": 2623,
      "Ġreceived": 2624,
      "ĠAfric": 2625,
      "chie": 2626,
      "Ġsuper": 2627,
      "top": 2628,
      "Ġarch": 2629,
      "thm": 2630,
      "Ġvill": 2631,
      "\\{": 2632,
      "Ġcirc": 2633,
      "aken": 2634,
      "Ġdimens": 2635,
      "Ġpath": 2636,
      "Ġincluded": 2637,
      "aut": 2638,
      "Ġconditions": 2639,
      "ett": 2640,
      "Ġant": 2641,
      "Ġfeatures": 2642,
      "Ġair": 2643,
      "Ġstar": 2644,
      ")=\\": 2645,
      "Ġconsist": 2646,
      "ĠEl": 2647,
      "Ġiss": 2648,
      "Ġbuilt": 2649,
      "Ġbi": 2650,
      "br": 2651,
      "Ġparameter": 2652,
      "rest": 2653,
      "Ġprofess": 2654,
      "Ġsw": 2655,
      "ĠEq": 2656,
      "ĠOne": 2657,
      "Ġ($": 2658,
      "Sh": 2659,
      "inary": 2660,
      "ĠAir": 2661,
      "Ġrole": 2662,
      "idence": 2663,
      "atural": 2664,
      "05": 2665,
      "Ġflow": 2666,
      "irection": 2667,
      "Ġfac": 2668,
      "reet": 2669,
      "Ġrecent": 2670,
      "48": 2671,
      "rown": 2672,
      "Ġcer": 2673,
      "Ġauthor": 2674,
      "omorph": 2675,
      "tabular": 2676,
      "ĠTheorem": 2677,
      "Ġwar": 2678,
      "Ġchildren": 2679,
      "ĠComp": 2680,
      "95": 2681,
      "Ġpublished": 2682,
      "Ġfrequ": 2683,
      "rick": 2684,
      "aly": 2685,
      "abor": 2686,
      "Ġstyle": 2687,
      "âĢĶ": 2688,
      "ĠHigh": 2689,
      "ĠApp": 2690,
      "cast": 2691,
      "01": 2692,
      "ials": 2693,
      "ĠRuss": 2694,
      "Ġfore": 2695,
      "Ġpri": 2696,
      "ĠPark": 2697,
      "Ġneg": 2698,
      "Ġwid": 2699,
      "Ġpract": 2700,
      "Ġ&=": 2701,
      "ĠLondon": 2702,
      "most": 2703,
      "arried": 2704,
      "Ġattack": 2705,
      ")}\\": 2706,
      "ittle": 2707,
      "ured": 2708,
      "oph": 2709,
      "Ġclaim": 2710,
      "ula": 2711,
      "Ġinc": 2712,
      "Ġge": 2713,
      "iber": 2714,
      "LE": 2715,
      ";\\": 2716,
      "36": 2717,
      "Ġport": 2718,
      "Ġeduc": 2719,
      "ford": 2720,
      "Ġcell": 2721,
      "lying": 2722,
      "II": 2723,
      "Ġhowever": 2724,
      "message": 2725,
      "Ġsem": 2726,
      "Ġlog": 2727,
      "Ġdat": 2728,
      "Ġproof": 2729,
      "ĠDav": 2730,
      "Ġcost": 2731,
      "iven": 2732,
      "Ġnational": 2733,
      "Ġwritten": 2734,
      "Ġevents": 2735,
      "Ġseen": 2736,
      "Ġprovide": 2737,
      "leg": 2738,
      "irt": 2739,
      "scal": 2740,
      "Ġbecome": 2741,
      "Ġblack": 2742,
      "itions": 2743,
      "ĠCollege": 2744,
      "Ġtitle": 2745,
      "Ġlinear": 2746,
      "2002": 2747,
      "}=\\": 2748,
      "Ġindependent": 2749,
      "String": 2750,
      "lin": 2751,
      "emma": 2752,
      "Ġmen": 2753,
      "Ġloss": 2754,
      "38": 2755,
      "ington": 2756,
      "ouncil": 2757,
      "IC": 2758,
      "Ġhom": 2759,
      "ĠLa": 2760,
      "ĠMon": 2761,
      "icy": 2762,
      "Ġlangu": 2763,
      "Ġhaving": 2764,
      "Ġlay": 2765,
      "ĠChar": 2766,
      "Ġalign": 2767,
      "uture": 2768,
      "Ġeither": 2769,
      "Ġsource": 2770,
      "Ġerror": 2771,
      "ume": 2772,
      "}]": 2773,
      "ops": 2774,
      "Ġinfl": 2775,
      "Ġcamp": 2776,
      "ĠSer": 2777,
      "ĠAmeric": 2778,
      "Ġbelow": 2779,
      "Ġdon": 2780,
      "ĠGl": 2781,
      "Ġthus": 2782,
      "Ġproduction": 2783,
      "cos": 2784,
      "Ġhref": 2785,
      ")^{": 2786,
      "Ġprim": 2787,
      "Ġpositive": 2788,
      "upp": 2789,
      "uff": 2790,
      "~~": 2791,
      "which": 2792,
      "Ġspecies": 2793,
      "ĠPres": 2794,
      "Ġsymmet": 2795,
      "ules": 2796,
      "rain": 2797,
      "2001": 2798,
      "Ġassociated": 2799,
      "based": 2800,
      "Ġmatch": 2801,
      "Ġbetter": 2802,
      "rr": 2803,
      "ĠQu": 2804,
      "uild": 2805,
      "chan": 2806,
      "Pl": 2807,
      "ips": 2808,
      "{(": 2809,
      "ĠHer": 2810,
      "Ġbuilding": 2811,
      "Ġabs": 2812,
      "ĠHouse": 2813,
      "gether": 2814,
      "Ġtogether": 2815,
      "Ġelection": 2816,
      "iet": 2817,
      "Ġindividual": 2818,
      "return": 2819,
      "AM": 2820,
      "ĠWilliam": 2821,
      "Ġquest": 2822,
      "Ġimage": 2823,
      "Ġcr": 2824,
      "cle": 2825,
      "ĠFrench": 2826,
      "ilitary": 2827,
      "37": 2828,
      "Ġvector": 2829,
      "ĠWith": 2830,
      "ĠHam": 2831,
      "och": 2832,
      "ference": 2833,
      "annel": 2834,
      "estern": 2835,
      "Ġfinite": 2836,
      "Ġfocus": 2837,
      "Ġtw": 2838,
      "alax": 2839,
      "SE": 2840,
      "raction": 2841,
      "Ġdynam": 2842,
      "Ġrandom": 2843,
      "go": 2844,
      "unic": 2845,
      "anish": 2846,
      "Ġmeans": 2847,
      "Ġtext": 2848,
      "key": 2849,
      "Ġang": 2850,
      "ems": 2851,
      "oon": 2852,
      "ĠBro": 2853,
      "ĠAng": 2854,
      "Ġconc": 2855,
      "Col": 2856,
      "Ġfund": 2857,
      "Ġcountry": 2858,
      "ocument": 2859,
      "Ġborn": 2860,
      "Ġplan": 2861,
      "avy": 2862,
      "Ġdev": 2863,
      "Ġcentury": 2864,
      "Ġplayer": 2865,
      "Ġmethods": 2866,
      "Ġresearch": 2867,
      "oted": 2868,
      "ĠPer": 2869,
      "ĠSection": 2870,
      "Ġsugg": 2871,
      "gl": 2872,
      "$)": 2873,
      "Ind": 2874,
      "Ġsuggest": 2875,
      "duc": 2876,
      "Ġgroups": 2877,
      "ĠWhen": 2878,
      "Ġlines": 2879,
      "Ġserved": 2880,
      "ving": 2881,
      "Ġvia": 2882,
      "orts": 2883,
      "ogn": 2884,
      "Ġacross": 2885,
      "Ġlength": 2886,
      "cdots": 2887,
      "isc": 2888,
      "acy": 2889,
      "sin": 2890,
      "Val": 2891,
      "aff": 2892,
      "Ġproperties": 2893,
      "Ġaccount": 2894,
      "Ġachie": 2895,
      "Ġgen": 2896,
      "vironment": 2897,
      "Ġcorre": 2898,
      "ecess": 2899,
      "Ġworks": 2900,
      "Ġ!": 2901,
      "ridge": 2902,
      "rant": 2903,
      "hib": 2904,
      "Ġannoun": 2905,
      "}\\,": 2906,
      "ĠChe": 2907,
      "Ġear": 2908,
      "44": 2909,
      "Ġbo": 2910,
      "Ġinput": 2911,
      "ĠDistrict": 2912,
      "ibility": 2913,
      "Ġbecom": 2914,
      "Ġins": 2915,
      "Ġsite": 2916,
      "}^\\": 2917,
      "Ġnumer": 2918,
      "IT": 2919,
      "ressed": 2920,
      "cy": 2921,
      "eh": 2922,
      "ordin": 2923,
      "')": 2924,
      "ready": 2925,
      "gebra": 2926,
      "Ġnormal": 2927,
      "ards": 2928,
      "widehat": 2929,
      "Ġfail": 2930,
      "}_\\": 2931,
      "ĠAg": 2932,
      "Ġarm": 2933,
      "BC": 2934,
      "}|": 2935,
      "Ġreview": 2936,
      "Ġproposed": 2937,
      "ĠSince": 2938,
      "uration": 2939,
      "Ġcommunity": 2940,
      "era": 2941,
      "Ġbehav": 2942,
      "Ġaccess": 2943,
      "ĠDep": 2944,
      "ĠInternational": 2945,
      "ilities": 2946,
      "pre": 2947,
      "inn": 2948,
      "qquad": 2949,
      "Ġdevelopment": 2950,
      "ara": 2951,
      "itect": 2952,
      "ĠChampionship": 2953,
      "bb": 2954,
      "{{\\": 2955,
      "Ġprivate": 2956,
      "Ġsent": 2957,
      "sw": 2958,
      "\")": 2959,
      "Ġgive": 2960,
      "Ġregular": 2961,
      "bor": 2962,
      "Ġnode": 2963,
      "55": 2964,
      "lo": 2965,
      "Ġsurface": 2966,
      "Ġ=>": 2967,
      "Ġground": 2968,
      "urity": 2969,
      "ĠAct": 2970,
      "AP": 2971,
      "Ġtre": 2972,
      "eal": 2973,
      ".~": 2974,
      "Ġhard": 2975,
      "itted": 2976,
      "ĠGerman": 2977,
      "code": 2978,
      "Ġdistrict": 2979,
      "ulations": 2980,
      "igen": 2981,
      "Ġmoment": 2982,
      "opy": 2983,
      "iance": 2984,
      "DE": 2985,
      "ĠPhil": 2986,
      "ending": 2987,
      "indow": 2988,
      "value": 2989,
      "Ġhalf": 2990,
      "lemma": 2991,
      "Ġtelevision": 2992,
      "^+": 2993,
      "Ġmillion": 2994,
      "Ġyoung": 2995,
      "ournal": 2996,
      "Ġlik": 2997,
      "Ġconstruct": 2998,
      "sing": 2999,
      "Ġcult": 3000,
      "iforn": 3001,
      "39": 3002,
      "Ġmulti": 3003,
      "point": 3004,
      "188": 3005,
      "Ġbase": 3006,
      "Ġobserved": 3007,
      "Ã³": 3008,
      "Ġproperty": 3009,
      "Ġtaken": 3010,
      "Ġkill": 3011,
      "ĠSm": 3012,
      ",-": 3013,
      "}}(": 3014,
      "rig": 3015,
      "&=": 3016,
      "ĠMich": 3017,
      "Ġzero": 3018,
      "Ġcoupl": 3019,
      "Ġthink": 3020,
      "Ġclose": 3021,
      "})\\": 3022,
      "Ġnov": 3023,
      "Ġmater": 3024,
      "ached": 3025,
      "Ġround": 3026,
      "lymp": 3027,
      "attle": 3028,
      "Ġrequire": 3029,
      "raint": 3030,
      "Ġtoo": 3031,
      "ĠMore": 3032,
      "size": 3033,
      "ama": 3034,
      "Psi": 3035,
      "Ġnull": 3036,
      "Ġill": 3037,
      "CO": 3038,
      "Ġput": 3039,
      "Ġvideo": 3040,
      "Ġcaus": 3041,
      "foot": 3042,
      "Ġhost": 3043,
      "Ġdefine": 3044,
      "ifornia": 3045,
      "gen": 3046,
      "ociation": 3047,
      "Ġfactor": 3048,
      "Ġpur": 3049,
      "ump": 3050,
      "ĠCup": 3051,
      "Ġdou": 3052,
      "Ġsche": 3053,
      "Ġemploy": 3054,
      "uf": 3055,
      "Ġstring": 3056,
      "Ġable": 3057,
      "Ġtarget": 3058,
      "ociety": 3059,
      "Ġproduced": 3060,
      "Ġweek": 3061,
      "Ġstory": 3062,
      "Ġrat": 3063,
      "Ġelements": 3064,
      "Ġnever": 3065,
      "Ġmer": 3066,
      "Ġdays": 3067,
      "Ġalways": 3068,
      "Ġequival": 3069,
      "ransport": 3070,
      "irm": 3071,
      "ĠVal": 3072,
      "Ġnorth": 3073,
      "Ġinvestig": 3074,
      "Ġcompar": 3075,
      "Ġelse": 3076,
      "aries": 3077,
      "##": 3078,
      "Ġrelated": 3079,
      "Ġsocial": 3080,
      "1999": 3081,
      "ements": 3082,
      ")]": 3083,
      "olic": 3084,
      "Ġprop": 3085,
      "Ġdirection": 3086,
      "Sc": 3087,
      "Ġquantum": 3088,
      "Ġfri": 3089,
      "Ġemb": 3090,
      "Ġdied": 3091,
      "\"/": 3092,
      "mark": 3093,
      "orge": 3094,
      "Ġexpected": 3095,
      "Ġexists": 3096,
      "arning": 3097,
      "Ġclust": 3098,
      "hood": 3099,
      "ava": 3100,
      "Ġinteraction": 3101,
      "node": 3102,
      "Ġmaking": 3103,
      "Ġsimple": 3104,
      "itch": 3105,
      "Ġpredict": 3106,
      "textwidth": 3107,
      "Ġ\\{": 3108,
      "omb": 3109,
      "appro": 3110,
      "Ġlabel": 3111,
      "aches": 3112,
      "Ġcreated": 3113,
      "wise": 3114,
      "Ġalready": 3115,
      "iding": 3116,
      "cup": 3117,
      "medi": 3118,
      "ĠIndian": 3119,
      "mathsf": 3120,
      "ributions": 3121,
      "rated": 3122,
      "ension": 3123,
      "Ġexperiment": 3124,
      "Ġrequired": 3125,
      "49": 3126,
      "Ġdefinition": 3127,
      "Ġmiss": 3128,
      "yl": 3129,
      "Ġhealth": 3130,
      "Ġhuman": 3131,
      "Ġson": 3132,
      "08": 3133,
      "Ġoperator": 3134,
      "cher": 3135,
      "ults": 3136,
      "lands": 3137,
      "ĠâĢĺ": 3138,
      "Ġfig": 3139,
      "ĠFigure": 3140,
      "Ġcame": 3141,
      "group": 3142,
      "ĠDiv": 3143,
      "Int": 3144,
      "Ġeval": 3145,
      "Ġled": 3146,
      "fo": 3147,
      "Ġlarger": 3148,
      "small": 3149,
      "ĠRiver": 3150,
      "Ġfar": 3151,
      "data": 3152,
      "nder": 3153,
      "icro": 3154,
      "Ġunit": 3155,
      "Ġengine": 3156,
      "function": 3157,
      "ceed": 3158,
      "}^{(": 3159,
      "Ġpo": 3160,
      "47": 3161,
      "ĠAc": 3162,
      "ĠCalifornia": 3163,
      "uel": 3164,
      "Ġprobability": 3165,
      "],": 3166,
      "ĠSo": 3167,
      "ĠEngland": 3168,
      "aves": 3169,
      "kn": 3170,
      "ÃŃ": 3171,
      "Ġdistance": 3172,
      "Ġmight": 3173,
      "2022": 3174,
      "Ġscale": 3175,
      "Ġdegree": 3176,
      "1990": 3177,
      "Ġstarted": 3178,
      "Ġvoid": 3179,
      "Ġlate": 3180,
      "ha": 3181,
      "irl": 3182,
      "useum": 3183,
      "IS": 3184,
      "Ġfixed": 3185,
      "skip": 3186,
      "Ġprovided": 3187,
      "edd": 3188,
      "down": 3189,
      "Ġanaly": 3190,
      "ged": 3191,
      "izing": 3192,
      "effic": 3193,
      "Ġimplement": 3194,
      "icol": 3195,
      "itz": 3196,
      "pect": 3197,
      "hern": 3198,
      "ico": 3199,
      "lor": 3200,
      "minist": 3201,
      "earch": 3202,
      "Ġestablish": 3203,
      "ĠSim": 3204,
      "Ġconstruction": 3205,
      "New": 3206,
      "Ġreported": 3207,
      "Ġbroad": 3208,
      "ounter": 3209,
      "Ġlo": 3210,
      "66": 3211,
      "cis": 3212,
      "({\\": 3213,
      "ĠFirst": 3214,
      "ires": 3215,
      "ulated": 3216,
      "ĠAustralia": 3217,
      "utes": 3218,
      "}\\\\": 3219,
      "bsite": 3220,
      "like": 3221,
      "ota": 3222,
      "Ġexact": 3223,
      "ĠTr": 3224,
      "Ġsequence": 3225,
      "Ġtemperature": 3226,
      "onic": 3227,
      "1998": 3228,
      "indent": 3229,
      "Ã¼": 3230,
      "ĠCO": 3231,
      "Ġvillage": 3232,
      "Ġimpl": 3233,
      "Ġoffer": 3234,
      "ustom": 3235,
      "Ġspin": 3236,
      "âĢ¦": 3237,
      "ellow": 3238,
      "Ġfalse": 3239,
      "Ġservices": 3240,
      "Ġ$(\\": 3241,
      "98": 3242,
      "Ġgalax": 3243,
      "ael": 3244,
      "Ġsouth": 3245,
      "\"/>": 3246,
      "ander": 3247,
      "Ġclos": 3248,
      "Ġsett": 3249,
      "Ġpress": 3250,
      "Ġexec": 3251,
      "oyal": 3252,
      "Ġfields": 3253,
      "Ġactiv": 3254,
      "Ġaccording": 3255,
      "Ġ==": 3256,
      "atrix": 3257,
      "Ġadditional": 3258,
      "iddle": 3259,
      "van": 3260,
      "Ġagre": 3261,
      "ĠIndia": 3262,
      "ĠMy": 3263,
      "mary": 3264,
      "ili": 3265,
      "mar": 3266,
      "Ġindust": 3267,
      "Ġsom": 3268,
      "prop": 3269,
      "Ġperm": 3270,
      "Ġlearning": 3271,
      "Ġaway": 3272,
      "Ġhistor": 3273,
      "inated": 3274,
      "ĠFrom": 3275,
      "Ġcertain": 3276,
      "ĠRepublic": 3277,
      "ĠĠĠĠĠĠĠĠĠĠĠĠĠ": 3278,
      "04": 3279,
      "Ġwhose": 3280,
      "07": 3281,
      "Ġstudents": 3282,
      "ĠLemma": 3283,
      ",âĢĿ": 3284,
      "Ġappl": 3285,
      "||": 3286,
      "Ġcut": 3287,
      "ivil": 3288,
      "Ġfuture": 3289,
      "06": 3290,
      "iting": 3291,
      "oud": 3292,
      "istics": 3293,
      "Ġcontains": 3294,
      "ections": 3295,
      "Ġbackground": 3296,
      "ariant": 3297,
      "ĠEast": 3298,
      "quare": 3299,
      "Ġassume": 3300,
      "atives": 3301,
      "Ġworking": 3302,
      "ĠParty": 3303,
      "Ġparticip": 3304,
      "ES": 3305,
      "At": 3306,
      "itting": 3307,
      "Ġwent": 3308,
      "Ġhapp": 3309,
      "With": 3310,
      "Ġgives": 3311,
      "ken": 3312,
      "state": 3313,
      "astic": 3314,
      "People": 3315,
      "dimens": 3316,
      "racy": 3317,
      "Ġtrack": 3318,
      "translation": 3319,
      "Living": 3320,
      "97": 3321,
      "Ġ&&": 3322,
      "cell": 3323,
      "ney": 3324,
      "equiv": 3325,
      "ĠDr": 3326,
      "pdf": 3327,
      "more": 3328,
      "Ġnatural": 3329,
      "Ġbegin": 3330,
      "Ġfem": 3331,
      "ĠMark": 3332,
      "mon": 3333,
      "ills": 3334,
      "Ġgoing": 3335,
      "Ġsold": 3336,
      "aps": 3337,
      "load": 3338,
      "ervice": 3339,
      "Le": 3340,
      "ĠAmerica": 3341,
      "ship": 3342,
      "Ġenough": 3343,
      "tact": 3344,
      "Ġequations": 3345,
      "Ġmoved": 3346,
      ")-": 3347,
      "Ġbelie": 3348,
      "mid": 3349,
      "}:": 3350,
      "ccording": 3351,
      "02": 3352,
      "operat": 3353,
      "ĠPresident": 3354,
      "ĠBer": 3355,
      "ĠThus": 3356,
      "96": 3357,
      "Ġrather": 3358,
      "Ġmeet": 3359,
      "Ġfather": 3360,
      "Ġstep": 3361,
      "Ġcompos": 3362,
      "Ġboundary": 3363,
      "Ġmem": 3364,
      "Ġreason": 3365,
      "Ġcentral": 3366,
      "Ġeconom": 3367,
      "Ġnecess": 3368,
      "1996": 3369,
      "Ġsens": 3370,
      "icles": 3371,
      "que": 3372,
      "ĠCour": 3373,
      "oe": 3374,
      "star": 3375,
      "Ġannounced": 3376,
      "}+\\": 3377,
      "Ġben": 3378,
      "Ġdiag": 3379,
      "king": 3380,
      "Ġperformed": 3381,
      "There": 3382,
      ",\"": 3383,
      "andid": 3384,
      "Ġtreat": 3385,
      "Ġothers": 3386,
      "Ġbody": 3387,
      "ĠStud": 3388,
      "band": 3389,
      "string": 3390,
      "Ġ&\\": 3391,
      "ners": 3392,
      "operatorn": 3393,
      "ĠBel": 3394,
      "my": 3395,
      "Ġdest": 3396,
      "ĠPort": 3397,
      "Ġinflu": 3398,
      "}}{\\": 3399,
      "ĠAnt": 3400,
      "EC": 3401,
      "Ġlanguage": 3402,
      "Ġmechan": 3403,
      "operatorname": 3404,
      "berg": 3405,
      "ĉĊ": 3406,
      "De": 3407,
      "year": 3408,
      "Ob": 3409,
      "Ġeffects": 3410,
      "hspace": 3411,
      "Ġpan": 3412,
      "citet": 3413,
      "Ġdeveloped": 3414,
      "]$": 3415,
      "Ġonce": 3416,
      "ĠHol": 3417,
      "AA": 3418,
      "Ġepis": 3419,
      "Ġ-\\": 3420,
      "Ġtherefore": 3421,
      "Ġcorrel": 3422,
      "Ġfil": 3423,
      "Ġneigh": 3424,
      "ein": 3425,
      "iform": 3426,
      "Ġdomain": 3427,
      "elling": 3428,
      "Ġattempt": 3429,
      "|^": 3430,
      "Ġpopular": 3431,
      "Ġclosed": 3432,
      "1997": 3433,
      "ĠÂ": 3434,
      "Ġtry": 3435,
      "History": 3436,
      "Ġweight": 3437,
      "ica": 3438,
      "46": 3439,
      "ĠAward": 3440,
      "bert": 3441,
      "Ġinstead": 3442,
      "ky": 3443,
      "Ġmale": 3444,
      "Ġliter": 3445,
      "Ġspecific": 3446,
      "note": 3447,
      "After": 3448,
      "__": 3449,
      "Ġalmost": 3450,
      "Ġmarket": 3451,
      "atory": 3452,
      "Ġexpect": 3453,
      "icult": 3454,
      "03": 3455,
      "gress": 3456,
      "Ġleading": 3457,
      "ville": 3458,
      "Ġpolitical": 3459,
      "ĠChurch": 3460,
      "Ġcode": 3461,
      "Ġmultiple": 3462,
      "Ġbig": 3463,
      "Ġcontext": 3464,
      "ĠCouncil": 3465,
      "Ġdeaths": 3466,
      "Ġinternational": 3467,
      "Ġcle": 3468,
      "CC": 3469,
      "map": 3470,
      "Ġrank": 3471,
      "Ġconduct": 3472,
      "Ġsample": 3473,
      "ĠEuropean": 3474,
      "Ġcheck": 3475,
      "ĠCanada": 3476,
      "Ġpresented": 3477,
      "All": 3478,
      "alle": 3479,
      "stitute": 3480,
      "ĠPaul": 3481,
      "rim": 3482,
      "Ġentire": 3483,
      "}-\\": 3484,
      "ooth": 3485,
      "Ġid": 3486,
      "igned": 3487,
      "ĠDi": 3488,
      "ĠCont": 3489,
      "Ġintroduced": 3490,
      "Ad": 3491,
      "Ġcompan": 3492,
      "xspace": 3493,
      "'$": 3494,
      "ED": 3495,
      "eloc": 3496,
      "Ġbreak": 3497,
      "Ġedge": 3498,
      "Ġaward": 3499,
      "Ġcomplete": 3500,
      "ained": 3501,
      "itte": 3502,
      "atively": 3503,
      "From": 3504,
      "Ġhor": 3505,
      "neq": 3506,
      "Ġdenote": 3507,
      "Ġstre": 3508,
      "dag": 3509,
      "ying": 3510,
      "ched": 3511,
      "ottom": 3512,
      "ender": 3513,
      "rec": 3514,
      "from": 3515,
      "Mod": 3516,
      "ya": 3517,
      "edge": 3518,
      "Ġgas": 3519,
      "ĠMor": 3520,
      "////": 3521,
      "Ġwhether": 3522,
      "ilton": 3523,
      "alls": 3524,
      "noindent": 3525,
      "Ġindex": 3526,
      "Ġareas": 3527,
      "orthern": 3528,
      "ura": 3529,
      "Ġblock": 3530,
      "Se": 3531,
      "known": 3532,
      "Ġpay": 3533,
      "Ġcateg": 3534,
      "ĠDem": 3535,
      "ĠRed": 3536,
      "1995": 3537,
      "Ġcompared": 3538,
      "ĠStreet": 3539,
      "Ġdatas": 3540,
      "187": 3541,
      "ario": 3542,
      "ĠSen": 3543,
      "ĠFrance": 3544,
      "ĠOlymp": 3545,
      "Ġpast": 3546,
      "eck": 3547,
      "ĠIm": 3548,
      "sel": 3549,
      "ĠJames": 3550,
      "Ġsets": 3551,
      "1980": 3552,
      "Ġbasis": 3553,
      "\\,\\": 3554,
      "onal": 3555,
      "09": 3556,
      "Ġstars": 3557,
      "rote": 3558,
      "Ġeffective": 3559,
      "ores": 3560,
      "urrent": 3561,
      "ids": 3562,
      "ĠRober": 3563,
      "ensive": 3564,
      "fill": 3565,
      "ocr": 3566,
      "artment": 3567,
      "umbers": 3568,
      "ranch": 3569,
      "ĠPal": 3570,
      "ĠMal": 3571,
      "itar": 3572,
      "ĠGeneral": 3573,
      "oms": 3574,
      "test": 3575,
      "iew": 3576,
      "Ġcome": 3577,
      "umerate": 3578,
      "Im": 3579,
      "Ġdone": 3580,
      "hel": 3581,
      "reek": 3582,
      "Ġclear": 3583,
      "scr": 3584,
      "RO": 3585,
      "Ġviol": 3586,
      "Cont": 3587,
      "ĠThom": 3588,
      "Ġ%": 3589,
      "Ġcannot": 3590,
      "Ġmetric": 3591,
      "Ġarchitect": 3592,
      "Ġrecogn": 3593,
      "LL": 3594,
      "ribute": 3595,
      "tic": 3596,
      "ĠLaw": 3597,
      "ĠArmy": 3598,
      "Ġtaking": 3599,
      "util": 3600,
      "Wh": 3601,
      "Ġholds": 3602,
      "Ġarr": 3603,
      "Ġoccur": 3604,
      "dimensional": 3605,
      "Rec": 3606,
      "Ġunderstand": 3607,
      "arily": 3608,
      "ming": 3609,
      "Ġgrad": 3610,
      "vey": 3611,
      "ountain": 3612,
      ")}{": 3613,
      "itude": 3614,
      "ĠMod": 3615,
      "theorem": 3616,
      "68": 3617,
      "Ġconstraint": 3618,
      "Ġworked": 3619,
      "Ġresponse": 3620,
      "ĠList": 3621,
      "ĠBlack": 3622,
      "(-": 3623,
      "Ġchanges": 3624,
      "Ġconfig": 3625,
      "iers": 3626,
      "Ġsup": 3627,
      "ledge": 3628,
      "ĠDavid": 3629,
      "Since": 3630,
      "Ġsolutions": 3631,
      "Ġlittle": 3632,
      "Ġupd": 3633,
      "oul": 3634,
      "67": 3635,
      "han": 3636,
      "Ġprinc": 3637,
      "ĠThat": 3638,
      "ĠRich": 3639,
      "rd": 3640,
      "riate": 3641,
      "Ġeffic": 3642,
      "Ġsoft": 3643,
      "enumerate": 3644,
      "Ġcontent": 3645,
      "ĠNe": 3646,
      "$}": 3647,
      "ully": 3648,
      "Ġstrateg": 3649,
      "Ġcoordin": 3650,
      "ites": 3651,
      "Ġenvironment": 3652,
      "that": 3653,
      "ago": 3654,
      "Ġkeep": 3655,
      "scale": 3656,
      "Ġsubject": 3657,
      "Ġpresident": 3658,
      "Ġmid": 3659,
      "Def": 3660,
      "Ġsays": 3661,
      "thern": 3662,
      "Ġcenter": 3663,
      "Ġlive": 3664,
      "Ġveloc": 3665,
      "500": 3666,
      "acc": 3667,
      "Ġroad": 3668,
      "ocal": 3669,
      "ĠĠĠĠĊ": 3670,
      "ĠCenter": 3671,
      "Ġtransform": 3672,
      "Ge": 3673,
      "izes": 3674,
      "aign": 3675,
      "Ġincludes": 3676,
      "57": 3677,
      "ĠPat": 3678,
      "ĠGo": 3679,
      "ctor": 3680,
      "Ġcolor": 3681,
      "Ġprior": 3682,
      "($": 3683,
      "Ġcollection": 3684,
      "58": 3685,
      "ened": 3686,
      ")}$": 3687,
      "Data": 3688,
      "1994": 3689,
      "aged": 3690,
      "Ġoutput": 3691,
      "wood": 3692,
      "isk": 3693,
      "42": 3694,
      "ĠGroup": 3695,
      "ĠQue": 3696,
      "itemize": 3697,
      "Ġcreate": 3698,
      "Ġflu": 3699,
      "Ġequal": 3700,
      "ĠRef": 3701,
      "book": 3702,
      "ĠChina": 3703,
      "ĠSum": 3704,
      "Ġcontract": 3705,
      "aur": 3706,
      "sup": 3707,
      "Ġlearn": 3708,
      "rast": 3709,
      "Ġmag": 3710,
      "ributed": 3711,
      "Ġtransfer": 3712,
      "Ġimplies": 3713,
      "Ġfront": 3714,
      "Ġcapt": 3715,
      "]\\": 3716,
      "imate": 3717,
      "ĠÃ": 3718,
      "ipal": 3719,
      "Ġglobal": 3720,
      "ĠBra": 3721,
      "omorphism": 3722,
      "Ġwebsite": 3723,
      "Ġuser": 3724,
      "Ġstudies": 3725,
      "Ġver": 3726,
      "Ġincrease": 3727,
      "ĠRoman": 3728,
      "ty": 3729,
      "Ġdebut": 3730,
      "outhern": 3731,
      "list": 3732,
      "Ġnote": 3733,
      "la": 3734,
      "ida": 3735,
      "asons": 3736,
      "Qu": 3737,
      "Ġ_{": 3738,
      "Ġadded": 3739,
      "www": 3740,
      "ĠGeorge": 3741,
      "pol": 3742,
      "Ġsound": 3743,
      "ĠTra": 3744,
      "].": 3745,
      "Ġstage": 3746,
      "Ġwords": 3747,
      "Ġalgebra": 3748,
      "Ġrequest": 3749,
      "){": 3750,
      "ani": 3751,
      "Ġcoeffic": 3752,
      "den": 3753,
      "ele": 3754,
      "Ġdemon": 3755,
      "Ġhon": 3756,
      "icture": 3757,
      "Ġreturned": 3758,
      "ĠDef": 3759,
      "Ġlost": 3760,
      "Ġrestrict": 3761,
      "Ġfram": 3762,
      "Ġprove": 3763,
      "Ġcomponent": 3764,
      "verse": 3765,
      "change": 3766,
      "Ġsuccessful": 3767,
      "opl": 3768,
      "ĠAssociation": 3769,
      "Ġweak": 3770,
      "ishing": 3771,
      "Ġhtt": 3772,
      "asc": 3773,
      "PS": 3774,
      "ĠHall": 3775,
      "utive": 3776,
      "vspace": 3777,
      "ortun": 3778,
      "ework": 3779,
      "alian": 3780,
      "Ã¶": 3781,
      "Ġcandid": 3782,
      "Ġprovides": 3783,
      "ibrary": 3784,
      "Ġappoint": 3785,
      "Ġdifference": 3786,
      "ET": 3787,
      "ĠDon": 3788,
      "Ġmakes": 3789,
      "Ġ:=": 3790,
      "Ġdifficult": 3791,
      ".)": 3792,
      "CD": 3793,
      "cing": 3794,
      "Ġpolitic": 3795,
      "\"><": 3796,
      "IM": 3797,
      "Ġrot": 3798,
      "ĠEm": 3799,
      "Ġimages": 3800,
      "Set": 3801,
      "ashington": 3802,
      "Ġmilitary": 3803,
      "bound": 3804,
      "Ġrepresentation": 3805,
      "Ġinstance": 3806,
      "iments": 3807,
      "ini": 3808,
      "roid": 3809,
      "bre": 3810,
      "Ġrac": 3811,
      "Ġtransition": 3812,
      "Ġrelease": 3813,
      "Ġwrote": 3814,
      "Ġmedia": 3815,
      "ĠTV": 3816,
      "Ġtradition": 3817,
      "1992": 3818,
      "spec": 3819,
      "ager": 3820,
      "file": 3821,
      "Ġgenerated": 3822,
      "Ġamount": 3823,
      "Bl": 3824,
      "Ġcomponents": 3825,
      "rian": 3826,
      "Ġconv": 3827,
      "Ġnovel": 3828,
      "Ġparty": 3829,
      "ean": 3830,
      "********": 3831,
      "nce": 3832,
      "Ġrelation": 3833,
      "opp": 3834,
      "Ġphysical": 3835,
      "Ġrespons": 3836,
      "Ġchall": 3837,
      "Ġproblems": 3838,
      "Ġradio": 3839,
      "Ġ()": 3840,
      "unn": 3841,
      "Ġmatter": 3842,
      "ked": 3843,
      "Ġgoal": 3844,
      "Ġcolumn": 3845,
      "AD": 3846,
      "Ġwave": 3847,
      "Ġmagnetic": 3848,
      "ĠDivision": 3849,
      "}}_": 3850,
      "lier": 3851,
      "Ġalthough": 3852,
      "ĠĠĠĠĠĠĠĠĠĠĠĠĠĠĠĠĠĠĠĠĠĠĠ": 3853,
      "Ġdirectly": 3854,
      "duction": 3855,
      "Ġoptim": 3856,
      "Ġrail": 3857,
      "gcolor": 3858,
      "thing": 3859,
      "mit": 3860,
      "ka": 3861,
      "ĠRoyal": 3862,
      "inst": 3863,
      "}}}": 3864,
      "Ġcourse": 3865,
      "ĠInter": 3866,
      "ises": 3867,
      "Ġupper": 3868,
      "Ġregard": 3869,
      "Ġconver": 3870,
      "ectors": 3871,
      "Ġyield": 3872,
      "fficient": 3873,
      "multicol": 3874,
      "ĠGreen": 3875,
      "&&": 3876,
      "OS": 3877,
      "43": 3878,
      "url": 3879,
      "ands": 3880,
      "uz": 3881,
      "Comp": 3882,
      "Ġmaximum": 3883,
      "ĠDepartment": 3884,
      "ios": 3885,
      "US": 3886,
      "Ġrev": 3887,
      "Ġtakes": 3888,
      "auge": 3889,
      "Ġdocument": 3890,
      "ĠBay": 3891,
      "ĠBr": 3892,
      "inite": 3893,
      "osen": 3894,
      "multicolumn": 3895,
      "Ġunique": 3896,
      "ĠUK": 3897,
      "underline": 3898,
      "ades": 3899,
      "Ġparent": 3900,
      "Ġgradu": 3901,
      "ĠLou": 3902,
      "Ġbecomes": 3903,
      "rab": 3904,
      "Ġevolution": 3905,
      "eared": 3906,
      "approx": 3907,
      "Ġelectron": 3908,
      "Ġsignal": 3909,
      "refer": 3910,
      "Ġund": 3911,
      "Ġdecl": 3912,
      "Ġvalid": 3913,
      "Ġsmaller": 3914,
      "1993": 3915,
      "ittee": 3916,
      "Ġwrite": 3917,
      "Ġaccept": 3918,
      "Ġstatic": 3919,
      "ĠCourt": 3920,
      "atal": 3921,
      "Ġ\\|": 3922,
      "ously": 3923,
      "ĠÐ": 3924,
      "ued": 3925,
      "Ġmarried": 3926,
      "ply": 3927,
      "Ġparts": 3928,
      "mathscr": 3929,
      "Ġadj": 3930,
      "Ġjoined": 3931,
      "ĠCons": 3932,
      "Ġrelationship": 3933,
      "----------------": 3934,
      "ĠMart": 3935,
      "41": 3936,
      "Ġtheorem": 3937,
      "1970": 3938,
      "tra": 3939,
      "Ġquestion": 3940,
      "88": 3941,
      "ĠInt": 3942,
      "Ġsuff": 3943,
      "nb": 3944,
      "Ġeducation": 3945,
      "http": 3946,
      "clusion": 3947,
      "Ġtable": 3948,
      "ĠGermany": 3949,
      "rate": 3950,
      "Ġgot": 3951,
      "ĠUnion": 3952,
      "ĠTherefore": 3953,
      "And": 3954,
      "Ġreally": 3955,
      "Ġdirector": 3956,
      "uments": 3957,
      "Ġmonths": 3958,
      "ensor": 3959,
      "cial": 3960,
      "Value": 3961,
      "Ġnuc": 3962,
      "Ġteams": 3963,
      "ĠDo": 3964,
      "ĠAustralian": 3965,
      "board": 3966,
      "NN": 3967,
      "FF": 3968,
      "Ġdeal": 3969,
      "Ġbgcolor": 3970,
      "ession": 3971,
      "\\}$": 3972,
      "OT": 3973,
      "Ġscen": 3974,
      "Ġdefe": 3975,
      "Ġprofessional": 3976,
      "dist": 3977,
      "istry": 3978,
      "level": 3979,
      "alled": 3980,
      "^-": 3981,
      "Ġapplied": 3982,
      "Ġspectrum": 3983,
      "Ġincreasing": 3984,
      "used": 3985,
      "Ġneut": 3986,
      "\");": 3987,
      "dt": 3988,
      "Ġnumbers": 3989,
      "Ġrow": 3990,
      "espec": 3991,
      "Te": 3992,
      "Ġcompanies": 3993,
      "light": 3994,
      "Ġkind": 3995,
      "ms": 3996,
      "Ġitself": 3997,
      ")+": 3998,
      "Ġsearch": 3999,
      "aring": 4000,
      "ĠOb": 4001,
      "ederal": 4002,
      "AB": 4003,
      "pret": 4004,
      "Ġpers": 4005,
      "Ġqual": 4006,
      "unt": 4007,
      "Ġsaf": 4008,
      "Ġfav": 4009,
      "Ġten": 4010,
      "encies": 4011,
      "ĠWhile": 4012,
      "Ġpeak": 4013,
      "ams": 4014,
      "aching": 4015,
      "ĠMusic": 4016,
      "long": 4017,
      "Ġmention": 4018,
      "ĠDuring": 4019,
      "especially": 4020,
      "Ġforce": 4021,
      "Ġestimate": 4022,
      "56": 4023,
      "Pi": 4024,
      "Ġwhite": 4025,
      "Ġsources": 4026,
      "Ġpe": 4027,
      "rey": 4028,
      "ĠRoad": 4029,
      "ging": 4030,
      "path": 4031,
      "pped": 4032,
      "ething": 4033,
      "ĠSystem": 4034,
      "Ġimpact": 4035,
      "Ġremov": 4036,
      "Ġopened": 4037,
      "inese": 4038,
      "Ġaud": 4039,
      "Ġdecre": 4040,
      "ports": 4041,
      "angle": 4042,
      "1991": 4043,
      "Ġlargest": 4044,
      "atform": 4045,
      "can": 4046,
      "Ġformed": 4047,
      "ĠBo": 4048,
      "MS": 4049,
      "norm": 4050,
      "ĠNor": 4051,
      "Not": 4052,
      "ait": 4053,
      "iation": 4054,
      "Ġsetting": 4055,
      "ker": 4056,
      "split": 4057,
      "Ġdesigned": 4058,
      "Ġ\\;": 4059,
      "ĠInstitute": 4060,
      "Ġvict": 4061,
      "display": 4062,
      "App": 4063,
      "ĠWashington": 4064,
      "Ġvariables": 4065,
      "Is": 4066,
      "Ġeigen": 4067,
      "Ġess": 4068,
      "Ġop": 4069,
      "ĠMary": 4070,
      "ston": 4071,
      "ares": 4072,
      "Ġcritical": 4073,
      "Ġcontinued": 4074,
      "Ġkm": 4075,
      "Ġdiscover": 4076,
      "Ġaddress": 4077,
      "erve": 4078,
      "Ġcompleted": 4079,
      "ansion": 4080,
      "En": 4081,
      "Man": 4082,
      "Ġdetails": 4083,
      "Ġdirected": 4084,
      "Ġtypes": 4085,
      "Ġchannel": 4086,
      "ĠCap": 4087,
      "ĠCompany": 4088,
      "oke": 4089,
      "Ġusually": 4090,
      "Ġsongs": 4091,
      "ĠJack": 4092,
      "Ġstudied": 4093,
      "ĠSing": 4094,
      "gence": 4095,
      "];": 4096,
      "Ġoffice": 4097,
      "ĠNot": 4098,
      "nes": 4099,
      "linear": 4100,
      "Ġratio": 4101,
      "asket": 4102,
      "ĠRobert": 4103,
      "Ġpack": 4104,
      "Ġchoice": 4105,
      "Ġuses": 4106,
      "ĠAcadem": 4107,
      "Ġupon": 4108,
      "textrm": 4109,
      "Ġwidth": 4110,
      "Ġste": 4111,
      "allel": 4112,
      "Ġbox": 4113,
      "Ġreve": 4114,
      "Then": 4115,
      "roy": 4116,
      "duced": 4117,
      "icit": 4118,
      "ĠTable": 4119,
      "Ġspeed": 4120,
      "][": 4121,
      "Ġpolicy": 4122,
      "writ": 4123,
      "Ġassist": 4124,
      "Ġchurch": 4125,
      "Ġmove": 4126,
      "Ġbar": 4127,
      "Ġfile": 4128,
      "Ġdaugh": 4129,
      "ĠVir": 4130,
      "Ġallows": 4131,
      "onent": 4132,
      "~$": 4133,
      "anks": 4134,
      "ona": 4135,
      "Ġren": 4136,
      "atus": 4137,
      "Ġfollowed": 4138,
      "93": 4139,
      "oo": 4140,
      "init": 4141,
      "}^{-": 4142,
      "ĠClub": 4143,
      "Ġacqu": 4144,
      "otic": 4145,
      "Ġdetermined": 4146,
      "umni": 4147,
      "Ġrecorded": 4148,
      "ĠVol": 4149,
      "Ġdepart": 4150,
      "Ġequivalent": 4151,
      "Ġbehavior": 4152,
      "Ġmodern": 4153,
      "Ġgeomet": 4154,
      "Ġbrother": 4155,
      "Ġactive": 4156,
      "aging": 4157,
      "usion": 4158,
      "85": 4159,
      "Ġconnected": 4160,
      "Ġfire": 4161,
      "requ": 4162,
      "Ġdemonstr": 4163,
      "Ġinvolved": 4164,
      "Ġvelocity": 4165,
      "94": 4166,
      "SP": 4167,
      "hest": 4168,
      "estival": 4169,
      "ala": 4170,
      "arter": 4171,
      "Ġpaint": 4172,
      "cel": 4173,
      "à¤": 4174,
      "Ġtask": 4175,
      "hi": 4176,
      "ĠPress": 4177,
      "ĠMex": 4178,
      "Ġoutside": 4179,
      "92": 4180,
      "https": 4181,
      "77": 4182,
      "Theta": 4183,
      "ĠSociety": 4184,
      "Ġrace": 4185,
      "Ġmother": 4186,
      "isions": 4187,
      "hy": 4188,
      "Ġlocation": 4189,
      "edy": 4190,
      "LA": 4191,
      "ingu": 4192,
      "Ġfrequency": 4193,
      "ĠArch": 4194,
      "ynom": 4195,
      "Ġthroughout": 4196,
      "isation": 4197,
      "ĠBest": 4198,
      "Ġmix": 4199,
      "Ġunivers": 4200,
      "ĠHen": 4201,
      "Ġexhib": 4202,
      "Ġlikely": 4203,
      "Ġonline": 4204,
      "Ġevalu": 4205,
      "Ġjob": 4206,
      "ds": 4207,
      "Ġregions": 4208,
      "rror": 4209,
      "enced": 4210,
      "length": 4211,
      "range": 4212,
      "overs": 4213,
      "When": 4214,
      "ains": 4215,
      "Ġhimself": 4216,
      "burg": 4217,
      "TR": 4218,
      "Ġnight": 4219,
      "Ġfit": 4220,
      "{}": 4221,
      "ĠMet": 4222,
      "index": 4223,
      "iences": 4224,
      "ocks": 4225,
      "State": 4226,
      "ada": 4227,
      "Ġespecially": 4228,
      "acher": 4229,
      "Ġcustom": 4230,
      "ĠProv": 4231,
      "Ġstri": 4232,
      "ospital": 4233,
      "ĠNote": 4234,
      "Ġdraw": 4235,
      "command": 4236,
      "eline": 4237,
      "One": 4238,
      "ogle": 4239,
      "Ġaltern": 4240,
      "Ġcampaign": 4241,
      "Ġstructures": 4242,
      "Ġcorrect": 4243,
      "Ġ/**": 4244,
      "ĠIsland": 4245,
      "ĠNews": 4246,
      "auss": 4247,
      "Ġexperience": 4248,
      "ĠTown": 4249,
      "ĠAngel": 4250,
      "<\\": 4251,
      "Ġclassical": 4252,
      "unch": 4253,
      "ĠLeg": 4254,
      "embly": 4255,
      "Ġobjects": 4256,
      "rule": 4257,
      "place": 4258,
      "Ġlove": 4259,
      "IR": 4260,
      "inct": 4261,
      "ees": 4262,
      "Ġwhole": 4263,
      "}/": 4264,
      "Ġsubsequ": 4265,
      "ria": 4266,
      "Ġwife": 4267,
      "Ġadminist": 4268,
      "1989": 4269,
      "Ġever": 4270,
      "Ġadapt": 4271,
      "well": 4272,
      "Ġremains": 4273,
      "}}_{": 4274,
      "Ġfight": 4275,
      "Ġdimension": 4276,
      "ensus": 4277,
      "izations": 4278,
      "Ġshift": 4279,
      "xy": 4280,
      "Ġinsp": 4281,
      "rices": 4282,
      "Ġpattern": 4283,
      "Ġselected": 4284,
      "model": 4285,
      "Ġtowards": 4286,
      "bour": 4287,
      "antic": 4288,
      "liament": 4289,
      "ĠSam": 4290,
      "oz": 4291,
      "Ġsupported": 4292,
      "Ġillust": 4293,
      "gs": 4294,
      "Ġcast": 4295,
      "ĠEar": 4296,
      "bigg": 4297,
      "ln": 4298,
      "Ġallowed": 4299,
      "*{": 4300,
      "ado": 4301,
      "ki": 4302,
      "Ġnews": 4303,
      "Exception": 4304,
      "Note": 4305,
      "Object": 4306,
      "Ġliving": 4307,
      "Ġoperators": 4308,
      "Ġplaying": 4309,
      "_+": 4310,
      "oice": 4311,
      "ĠAlex": 4312,
      "Ġofficial": 4313,
      "MA": 4314,
      "....": 4315,
      "Class": 4316,
      "Ġproced": 4317,
      "Ġappeared": 4318,
      "Ġtravel": 4319,
      "Ġrob": 4320,
      "ĠBook": 4321,
      "ĠMat": 4322,
      "Ġunits": 4323,
      "Ġrelative": 4324,
      "ects": 4325,
      "ĠGames": 4326,
      "ols": 4327,
      "acing": 4328,
      "acity": 4329,
      "Ġconclud": 4330,
      "ilies": 4331,
      "Ġeight": 4332,
      "1960": 4333,
      "Ġir": 4334,
      "Ġderiv": 4335,
      "Ġcurrently": 4336,
      "px": 4337,
      "CT": 4338,
      "ifold": 4339,
      "ION": 4340,
      "struct": 4341,
      "oring": 4342,
      "Ġexpression": 4343,
      "hand": 4344,
      "Ġsigned": 4345,
      "Ġsil": 4346,
      "ĠGold": 4347,
      "LO": 4348,
      "Ġrights": 4349,
      "));": 4350,
      "ns": 4351,
      "ĠYear": 4352,
      "footnote": 4353,
      "ĠRev": 4354,
      "^{-\\": 4355,
      "Ġord": 4356,
      "Ġ$\\{": 4357,
      "Ġsense": 4358,
      "ĠSub": 4359,
      "ĠCong": 4360,
      "Ġter": 4361,
      "ĠCanadian": 4362,
      "Ġcharg": 4363,
      "Ġimmedi": 4364,
      "lease": 4365,
      "52": 4366,
      "Ġboard": 4367,
      "unk": 4368,
      "olar": 4369,
      "tical": 4370,
      "Ġissues": 4371,
      "ena": 4372,
      "ĠClass": 4373,
      "inos": 4374,
      "Ġdig": 4375,
      "Ġgauge": 4376,
      "Ġresulting": 4377,
      "ĠMad": 4378,
      "Ġissue": 4379,
      "olf": 4380,
      "dro": 4381,
      "di": 4382,
      "dagger": 4383,
      "ĠScience": 4384,
      "51": 4385,
      "ĠAfrica": 4386,
      "ĠAfrican": 4387,
      "Ġcharge": 4388,
      "Ġ$|": 4389,
      "ĠWhite": 4390,
      "rice": 4391,
      "Ġneeded": 4392,
      "ĠMiss": 4393,
      "ĠKingdom": 4394,
      "}'": 4395,
      "Ġsus": 4396,
      "ĠRad": 4397,
      "ĠScott": 4398,
      "Ġprec": 4399,
      "Ġyet": 4400,
      "ĠMichael": 4401,
      "ĠSl": 4402,
      "ersion": 4403,
      "prod": 4404,
      "Ġtransport": 4405,
      "MC": 4406,
      "ĠMa": 4407,
      "Ġrock": 4408,
      "Ġface": 4409,
      "ening": 4410,
      "Test": 4411,
      "ĠOff": 4412,
      "1988": 4413,
      "Ġmaterial": 4414,
      "ĠTex": 4415,
      "arp": 4416,
      "ĠOur": 4417,
      "ĠCentral": 4418,
      "Ġpreviously": 4419,
      "Ġschools": 4420,
      "nbsp": 4421,
      "Ġnoise": 4422,
      "rief": 4423,
      "Ġprimary": 4424,
      "54": 4425,
      "Ġgave": 4426,
      "ĠCath": 4427,
      "bo": 4428,
      "ĠSur": 4429,
      "anning": 4430,
      "taint": 4431,
      "Ġbehind": 4432,
      "Ġdeep": 4433,
      "Sy": 4434,
      "Ġdam": 4435,
      "minus": 4436,
      "Ġword": 4437,
      "Ġcommunic": 4438,
      "ĠMont": 4439,
      "Ġsufficient": 4440,
      "Ġthings": 4441,
      "ifying": 4442,
      "Ġaccom": 4443,
      "Ġfall": 4444,
      "ĠDay": 4445,
      "Ġconcept": 4446,
      "rish": 4447,
      "FA": 4448,
      "91": 4449,
      "ket": 4450,
      "ita": 4451,
      "Ġhous": 4452,
      "ube": 4453,
      "{$": 4454,
      "Ġdouble": 4455,
      "ĠGreat": 4456,
      "Ġconstit": 4457,
      "Ġfeel": 4458,
      "perty": 4459,
      "Ġsimply": 4460,
      "Ġuncer": 4461,
      "ĠTrans": 4462,
      "abs": 4463,
      "body": 4464,
      "ĠMag": 4465,
      "Ġemer": 4466,
      "ĠTur": 4467,
      "ĠDirect": 4468,
      "Ġassert": 4469,
      "Ġtro": 4470,
      "Ġsmooth": 4471,
      "ancial": 4472,
      "Ġadm": 4473,
      "Ġrunning": 4474,
      "ptions": 4475,
      "Ġsomething": 4476,
      "Ġuniform": 4477,
      "Get": 4478,
      "){\\": 4479,
      "Ġflux": 4480,
      "Ġintegral": 4481,
      "ĠMuseum": 4482,
      "ĠHow": 4483,
      "ĠThomas": 4484,
      "km": 4485,
      "Ġax": 4486,
      "Ġoperations": 4487,
      "ĠWil": 4488,
      "error": 4489,
      "asketball": 4490,
      "esign": 4491,
      "eli": 4492,
      "Ġlatter": 4493,
      "ĠĠĠĊ": 4494,
      "ĠMer": 4495,
      "Ġcourt": 4496,
      "rc": 4497,
      "ĠString": 4498,
      "amily": 4499,
      "\\}": 4500,
      "EE": 4501,
      "Ġdecision": 4502,
      "Key": 4503,
      "ĠGrand": 4504,
      "ĠHamilton": 4505,
      "location": 4506,
      "Ġorg": 4507,
      "Ġdark": 4508,
      "Ġnom": 4509,
      "ĠResearch": 4510,
      "Ġimm": 4511,
      "ĠMac": 4512,
      "Film": 4513,
      "Ġstreng": 4514,
      "ĠSal": 4515,
      "ĠSome": 4516,
      "IG": 4517,
      "Or": 4518,
      "}},": 4519,
      "Ġthought": 4520,
      "subseteq": 4521,
      "UT": 4522,
      "Ġlonger": 4523,
      "ĠMr": 4524,
      "ĠJapanese": 4525,
      "atur": 4526,
      "ĠJust": 4527,
      "ought": 4528,
      "ĠWork": 4529,
      "Ġidea": 4530,
      "ether": 4531,
      "grad": 4532,
      "idents": 4533,
      "Ġdate": 4534,
      "Ġtrac": 4535,
      "ĠSpec": 4536,
      "Pol": 4537,
      "oplus": 4538,
      "Pr": 4539,
      "Ġlimited": 4540,
      "Ġpercent": 4541,
      "ML": 4542,
      "Ġmar": 4543,
      "Ġalbums": 4544,
      "ĠFilm": 4545,
      "Ġlevels": 4546,
      "Ġjud": 4547,
      "Ġfood": 4548,
      "Vert": 4549,
      "wedge": 4550,
      "Ġadopt": 4551,
      "Ġ($\\": 4552,
      "Ġreduced": 4553,
      "Ġtree": 4554,
      "ducation": 4555,
      "Ġrepresented": 4556,
      "1987": 4557,
      "53": 4558,
      "Ġindustry": 4559,
      "ictor": 4560,
      "attice": 4561,
      "Ġbirth": 4562,
      "Ġforces": 4563,
      "Ġmach": 4564,
      "CH": 4565,
      "Ġnegative": 4566,
      "Ġpersonal": 4567,
      "ollowing": 4568,
      "Ġmode": 4569,
      "Ġnecessary": 4570,
      "Ġcontinuous": 4571,
      "Ġactually": 4572,
      "Ġseg": 4573,
      "texttt": 4574,
      "78": 4575,
      "ĠRussian": 4576,
      "63": 4577,
      "Ġpage": 4578,
      "Ġinequ": 4579,
      "Ġcomes": 4580,
      "ĠTom": 4581,
      "Ġfounded": 4582,
      "reater": 4583,
      "overnor": 4584,
      "\\'": 4585,
      "Ġlot": 4586,
      "ayer": 4587,
      "Sec": 4588,
      "ĠChinese": 4589,
      "ĠAcademy": 4590,
      "Ġhyper": 4591,
      "Ġded": 4592,
      "Ġhence": 4593,
      "Ġ///": 4594,
      "Ġdram": 4595,
      "inf": 4596,
      "Ġsurv": 4597,
      "Form": 4598,
      "Ġ$-": 4599,
      "elt": 4600,
      "Ġpolynom": 4601,
      "dec": 4602,
      "ufact": 4603,
      "ros": 4604,
      "Ġcountries": 4605,
      "Ġobservations": 4606,
      "Ð¾": 4607,
      "Ġveh": 4608,
      "_{{\\": 4609,
      "uracy": 4610,
      "Ġapplication": 4611,
      "Ġcontact": 4612,
      "Ġtour": 4613,
      "Ġquality": 4614,
      "shift": 4615,
      "Ġevidence": 4616,
      "Ġtoday": 4617,
      "ags": 4618,
      "Ġnames": 4619,
      "west": 4620,
      "Ġbenef": 4621,
      "Ġeast": 4622,
      "Ġ!=": 4623,
      "vant": 4624,
      "Ġbooks": 4625,
      "Ġextended": 4626,
      "azine": 4627,
      "ĠHere": 4628,
      "Ġhot": 4629,
      "Ġexpress": 4630,
      "arr": 4631,
      "Ġsymmetry": 4632,
      "ĠJew": 4633,
      "Ġpolice": 4634,
      "Ġknowledge": 4635,
      "crete": 4636,
      "Ġpresence": 4637,
      "Ġelected": 4638,
      "ĠRecords": 4639,
      "Ġdisplay": 4640,
      "Ġgenerally": 4641,
      "_{(": 4642,
      "59": 4643,
      "Ġcommand": 4644,
      "selves": 4645,
      "ĠHistor": 4646,
      "Ġfriend": 4647,
      "ano": 4648,
      "ĠItalian": 4649,
      "Ġgrav": 4650,
      ")|": 4651,
      "Ġinj": 4652,
      "Ġautom": 4653,
      "Ġstaff": 4654,
      "det": 4655,
      "Ass": 4656,
      "Ġarray": 4657,
      "Ġtax": 4658,
      "isher": 4659,
      "osing": 4660,
      "ils": 4661,
      "Ġdiscussed": 4662,
      "Ġapply": 4663,
      "Ġwhy": 4664,
      "Ġwest": 4665,
      "Ġfigure": 4666,
      "ecause": 4667,
      "Ġball": 4668,
      "ĠBen": 4669,
      "Ġplaces": 4670,
      "ĠGod": 4671,
      "Ð°": 4672,
      "Ġinterpret": 4673,
      "ĠSte": 4674,
      "Ġderived": 4675,
      "limits": 4676,
      "Ġreplaced": 4677,
      "ĠFre": 4678,
      "thlet": 4679,
      "ira": 4680,
      "Ġexplicit": 4681,
      "ĠHealth": 4682,
      "ometimes": 4683,
      "Ġbounded": 4684,
      "Ġiter": 4685,
      "Ġvariable": 4686,
      "ĠChristian": 4687,
      "Ġleague": 4688,
      "Ġcompact": 4689,
      "Ġshall": 4690,
      "Ġpractice": 4691,
      "ullet": 4692,
      "Ġleaders": 4693,
      "yr": 4694,
      "UR": 4695,
      "Ġoverall": 4696,
      "ĠTechn": 4697,
      "Ġepisode": 4698,
      "ĠRail": 4699,
      "Ġdiagram": 4700,
      "ĠWestern": 4701,
      "\";": 4702,
      "itter": 4703,
      "ashed": 4704,
      "Ġmus": 4705,
      "Ã¤": 4706,
      "ĠZeal": 4707,
      "Ġhol": 4708,
      "ellar": 4709,
      "Ġbelong": 4710,
      "Ġvolume": 4711,
      "turb": 4712,
      "ĠFound": 4713,
      "Ġstated": 4714,
      "Ġappointed": 4715,
      "0000": 4716,
      "Ġcurve": 4717,
      "Ġrule": 4718,
      "airs": 4719,
      "ĠCarol": 4720,
      "fess": 4721,
      "Ġmaintain": 4722,
      "62": 4723,
      "Ġdaughter": 4724,
      "Ġseven": 4725,
      "Ġmoney": 4726,
      "Ġchosen": 4727,
      "Ġarticle": 4728,
      "ĠTexas": 4729,
      "Ġenter": 4730,
      "Ġcharacters": 4731,
      "ells": 4732,
      "ĠOther": 4733,
      "1986": 4734,
      "ĠLouis": 4735,
      "Ġgalaxies": 4736,
      "link": 4737,
      "reland": 4738,
      "Ġlat": 4739,
      "Ġinside": 4740,
      "Ġoperation": 4741,
      "Ġearlier": 4742,
      "fr": 4743,
      "ĠVirgin": 4744,
      "Ġmotion": 4745,
      "Ġappears": 4746,
      "Over": 4747,
      "ĠZealand": 4748,
      "Ġstarting": 4749,
      "ye": 4750,
      "setminus": 4751,
      "Eng": 4752,
      "rial": 4753,
      "Ġstra": 4754,
      "Ġscheme": 4755,
      "ĠDan": 4756,
      "Ġproducts": 4757,
      "ĠSuper": 4758,
      "\":": 4759,
      "Ġmonth": 4760,
      "Ġreference": 4761,
      "Ġclasses": 4762,
      "reme": 4763,
      "Ġguitar": 4764,
      "ĠSaint": 4765,
      "za": 4766,
      "Ġexpansion": 4767,
      "Ġneeds": 4768,
      "Ġleads": 4769,
      "View": 4770,
      "win": 4771,
      "Ġ}\\": 4772,
      "ras": 4773,
      "1984": 4774,
      "Ġscatter": 4775,
      "ĠOut": 4776,
      "ĠDemocr": 4777,
      "Ġjournal": 4778,
      "Ġsex": 4779,
      "Ġtherm": 4780,
      "PT": 4781,
      "Ġpark": 4782,
      "Ġavoid": 4783,
      "ĠCharles": 4784,
      "Ġlisted": 4785,
      "vis": 4786,
      "Ġ(-": 4787,
      "linewidth": 4788,
      "VID": 4789,
      "}%": 4790,
      "ĠMinister": 4791,
      "ĠTor": 4792,
      "Ġgrowth": 4793,
      "iny": 4794,
      "=#": 4795,
      "Ġsaw": 4796,
      "Ġexpand": 4797,
      "Ġ$[": 4798,
      "Ġforms": 4799,
      "$_": 4800,
      "Ġforward": 4801,
      "Ġparticles": 4802,
      "ĠSummer": 4803,
      "atre": 4804,
      "pose": 4805,
      "ĠLand": 4806,
      "Ġconsists": 4807,
      "Ġmechanism": 4808,
      "oma": 4809,
      "mes": 4810,
      "war": 4811,
      "ĠDel": 4812,
      "Ġthrow": 4813,
      "Ġparticle": 4814,
      "fect": 4815,
      "Ġemission": 4816,
      "pc": 4817,
      ")\\,": 4818,
      "Ġaim": 4819,
      "Ġwriting": 4820,
      "ircraft": 4821,
      "ĠPo": 4822,
      "bon": 4823,
      "Ġorigin": 4824,
      "ĠKore": 4825,
      "bt": 4826,
      "Ġnature": 4827,
      "61": 4828,
      "Ġhyp": 4829,
      "SC": 4830,
      "ĠLat": 4831,
      "Ġapproximation": 4832,
      "().": 4833,
      "1985": 4834,
      "Ġtrain": 4835,
      "Ġfootballers": 4836,
      "Ġformula": 4837,
      "_*": 4838,
      "iques": 4839,
      "Ġmaps": 4840,
      "Ġer": 4841,
      "DF": 4842,
      "gent": 4843,
      "Ġscore": 4844,
      "ĠGra": 4845,
      "========": 4846,
      "Ġconcern": 4847,
      "ih": 4848,
      "uls": 4849,
      "Ġslow": 4850,
      "uit": 4851,
      "alo": 4852,
      "ĠRob": 4853,
      "ĠFlor": 4854,
      "Tr": 4855,
      "ĠFore": 4856,
      "flow": 4857,
      "ĠSecond": 4858,
      "Ġrelig": 4859,
      "Ġapproximately": 4860,
      "Ġdeliver": 4861,
      "87": 4862,
      "Ġinstit": 4863,
      "PC": 4864,
      "osm": 4865,
      "``": 4866,
      "ropy": 4867,
      "),\\": 4868,
      "Ġlack": 4869,
      "No": 4870,
      "Ġhighest": 4871,
      "Ġpressure": 4872,
      "Ġfemale": 4873,
      "SU": 4874,
      "Ġformation": 4875,
      "ĠMus": 4876,
      "ollary": 4877,
      "rought": 4878,
      "Ġruns": 4879,
      "Ġcoach": 4880,
      "ĠĠĠĠĠĠĠĠĠĠ": 4881,
      "Ġdynamics": 4882,
      "ui": 4883,
      "Ġbur": 4884,
      "ĠFootball": 4885,
      "Ġframework": 4886,
      "Ġexperiments": 4887,
      "Ġincreased": 4888,
      "Ġsamples": 4889,
      "ĠPublic": 4890,
      "png": 4891,
      "Ġhours": 4892,
      "inder": 4893,
      "Ġcontribution": 4894,
      "Ġfraction": 4895,
      "Ġalumni": 4896,
      "bur": 4897,
      "Ġstations": 4898,
      "ĠĠĠĠĠĠĠĠĠĠĠĠ": 4899,
      "Ġscreen": 4900,
      "ĠFrancis": 4901,
      "Ġlayer": 4902,
      "ĠEv": 4903,
      "Equ": 4904,
      "dr": 4905,
      "Ġperturb": 4906,
      "Ġoccup": 4907,
      "Ġquick": 4908,
      "ĠBill": 4909,
      "emic": 4910,
      "eful": 4911,
      "FL": 4912,
      "Ġeventually": 4913,
      "Ġmomentum": 4914,
      "summary": 4915,
      "oto": 4916,
      "Ġestimated": 4917,
      "road": 4918,
      "main": 4919,
      "vention": 4920,
      "ĠJose": 4921,
      "ĠSmith": 4922,
      "inger": 4923,
      "ĠNow": 4924,
      "erman": 4925,
      "Ġdataset": 4926,
      "69": 4927,
      "irtual": 4928,
      "Ġwide": 4929,
      "());": 4930,
      ",\\,": 4931,
      "_{-": 4932,
      "Error": 4933,
      "Ġreached": 4934,
      "definition": 4935,
      "Ġarbit": 4936,
      "Ġvertex": 4937,
      "ua": 4938,
      "cles": 4939,
      "Reg": 4940,
      "Ġcoupling": 4941,
      "ĠPeter": 4942,
      "apping": 4943,
      "Ġcollect": 4944,
      "ĠSupp": 4945,
      "Ġcred": 4946,
      "ivial": 4947,
      "FC": 4948,
      "Ġbuildings": 4949,
      "riz": 4950,
      "ilarly": 4951,
      "Ġplane": 4952,
      "ĠProposition": 4953,
      "isl": 4954,
      "Ġplatform": 4955,
      "eria": 4956,
      "Ġchem": 4957,
      "TE": 4958,
      "Ġnodes": 4959,
      "aligned": 4960,
      "asks": 4961,
      "Ġnorm": 4962,
      "Ġmeasured": 4963,
      "Ġfill": 4964,
      "ĠMel": 4965,
      "PR": 4966,
      "ĠLake": 4967,
      "Ġrules": 4968,
      "Ġminimum": 4969,
      "Ġsubset": 4970,
      "Ġplant": 4971,
      "Ġexcept": 4972,
      "Ġens": 4973,
      "ests": 4974,
      "Ġblue": 4975,
      "Ġconsequ": 4976,
      "ĠDis": 4977,
      "Ġcontroll": 4978,
      "Ġfully": 4979,
      "Ġpanel": 4980,
      "Ġsen": 4981,
      "Ġsymbol": 4982,
      "Ġkilled": 4983,
      "ĠRichard": 4984,
      "Ġnetworks": 4985,
      "Ġrecover": 4986,
      "itors": 4987,
      "arts": 4988,
      "iral": 4989,
      "Ġattention": 4990,
      "Ġpolar": 4991,
      "ella": 4992,
      "SO": 4993,
      "Ġtechnology": 4994,
      "Ġmissing": 4995,
      "astern": 4996,
      "arian": 4997,
      "ĠAccording": 4998,
      "1983": 4999,
      "Ġartists": 5000,
      "Ġeasily": 5001,
      "Ġwindow": 5002,
      "Ġanim": 5003,
      "Ġcontinue": 5004,
      "conn": 5005,
      "ĠService": 5006,
      "check": 5007,
      "Ġfamilies": 5008,
      "Ġcam": 5009,
      "ĠOlympics": 5010,
      "escription": 5011,
      "ĠDec": 5012,
      "Ġreveal": 5013,
      "But": 5014,
      "Ġneighbor": 5015,
      "ola": 5016,
      "Ġtit": 5017,
      "Ġscient": 5018,
      ")}(": 5019,
      "Ġgold": 5020,
      "Ġembedd": 5021,
      "ĠHill": 5022,
      "efore": 5023,
      "Ġrecently": 5024,
      "ĠHistory": 5025,
      "Ġmeaning": 5026,
      "Ġoriginally": 5027,
      "Ġconsum": 5028,
      "icago": 5029,
      "Ġnumerical": 5030,
      "Now": 5031,
      "ipl": 5032,
      "ĠFurther": 5033,
      "stant": 5034,
      "itable": 5035,
      "arc": 5036,
      "Ġship": 5037,
      "Ġ|\\": 5038,
      "eler": 5039,
      "Time": 5040,
      "Ġchanged": 5041,
      "Ġcomparison": 5042,
      "Ġmanagement": 5043,
      "ba": 5044,
      "resents": 5045,
      "black": 5046,
      "cho": 5047,
      "anned": 5048,
      "BS": 5049,
      "Ġcivil": 5050,
      "Ġcounter": 5051,
      "Ġbring": 5052,
      "Sim": 5053,
      "ĠParis": 5054,
      "Ġoptimal": 5055,
      "Ġfinished": 5056,
      "aussian": 5057,
      "BA": 5058,
      "do": 5059,
      "subfigure": 5060,
      "Ġ\\(": 5061,
      "Ġreading": 5062,
      "Ġslight": 5063,
      "uthors": 5064,
      "Ġproper": 5065,
      "Ġchoose": 5066,
      "ĠMass": 5067,
      "Ġuncertaint": 5068,
      "rat": 5069,
      "Ġplaced": 5070,
      "ĠCommun": 5071,
      "Ġtreatment": 5072,
      "Ġusers": 5073,
      "Ġanti": 5074,
      "Ġgirl": 5075,
      "ancy": 5076,
      "zil": 5077,
      "ĠRock": 5078,
      "First": 5079,
      "Ġdetermine": 5080,
      "Ġsoon": 5081,
      "ouri": 5082,
      "ĠFrank": 5083,
      "Ġvariety": 5084,
      "obile": 5085,
      "agement": 5086,
      "ĠCommission": 5087,
      "come": 5088,
      "Sub": 5089,
      "ĠCatholic": 5090,
      "Ġfourth": 5091,
      "Ġremaining": 5092,
      "Ġinteresting": 5093,
      "Ġ+\\": 5094,
      "Ġhit": 5095,
      "Ġbeginning": 5096,
      "You": 5097,
      "Ġshare": 5098,
      "pid": 5099,
      "Ġcluster": 5100,
      ")/": 5101,
      "using": 5102,
      "inv": 5103,
      "++": 5104,
      "1982": 5105,
      "ĠAnn": 5106,
      "ette": 5107,
      "sol": 5108,
      "'\\": 5109,
      "Here": 5110,
      "ĠCamp": 5111,
      "urt": 5112,
      "ental": 5113,
      "rence": 5114,
      "Ġtransl": 5115,
      "porary": 5116,
      "Ġsolid": 5117,
      "Ðµ": 5118,
      "bi": 5119,
      "Ġdescribe": 5120,
      "Ġquite": 5121,
      "Ġspat": 5122,
      "Ġidentity": 5123,
      "case": 5124,
      "Ġfun": 5125,
      "vement": 5126,
      "ĠLos": 5127,
      "._": 5128,
      "Ġproduce": 5129,
      "inem": 5130,
      "Ġsquare": 5131,
      "300": 5132,
      "cond": 5133,
      "Ġbr": 5134,
      "Ġsimulations": 5135,
      "colon": 5136,
      "Ġshape": 5137,
      "Ġexamples": 5138,
      "Ġmunic": 5139,
      "Ġstatus": 5140,
      "Ġprocesses": 5141,
      "Ġselection": 5142,
      "1950": 5143,
      "Ġagreement": 5144,
      "TV": 5145,
      "ĠSpanish": 5146,
      "Ġamplit": 5147,
      "Ġconserv": 5148,
      "mission": 5149,
      "Ġprint": 5150,
      "inals": 5151,
      "Ġheight": 5152,
      "=(": 5153,
      "ective": 5154,
      "ĠBrown": 5155,
      "ĠDen": 5156,
      "ĠIsra": 5157,
      "Ġnoted": 5158,
      "ishes": 5159,
      "Ġdecay": 5160,
      "Ġaccuracy": 5161,
      "Ġradius": 5162,
      "ĠVictor": 5163,
      "MP": 5164,
      "ĠAlthough": 5165,
      "Ġapplications": 5166,
      "Ġroom": 5167,
      "ctions": 5168,
      "endix": 5169,
      "Ġessential": 5170,
      "apter": 5171,
      "igan": 5172,
      "Ġdescription": 5173,
      "Ġcapital": 5174,
      "Ġselect": 5175,
      "Ġcontrast": 5176,
      "Ġfactors": 5177,
      "Ġfeed": 5178,
      "ĠOf": 5179,
      "inant": 5180,
      "pan": 5181,
      "Ġeasy": 5182,
      "ING": 5183,
      "Ġcommer": 5184,
      "ĠDu": 5185,
      "');": 5186,
      "Ġtourn": 5187,
      "Ġsimpl": 5188,
      "Ġdual": 5189,
      "ĠHence": 5190,
      "ĠIreland": 5191,
      "Ġfast": 5192,
      "'_": 5193,
      "GL": 5194,
      "ĠPan": 5195,
      "ĠCD": 5196,
      "}}(\\": 5197,
      "Ġparticularly": 5198,
      "Ġincor": 5199,
      "Ġpen": 5200,
      "ĠTwo": 5201,
      "ali": 5202,
      "anda": 5203,
      "stack": 5204,
      "Ġsatisfies": 5205,
      "Net": 5206,
      "Ġstream": 5207,
      "Ġones": 5208,
      "Our": 5209,
      "iring": 5210,
      "men": 5211,
      "rees": 5212,
      "Ġexperimental": 5213,
      "Requ": 5214,
      "olk": 5215,
      "mail": 5216,
      "=-": 5217,
      "Ġmicro": 5218,
      "deg": 5219,
      "ĠTer": 5220,
      "1979": 5221,
      "icon": 5222,
      "Ġrisk": 5223,
      "However": 5224,
      "Ġdu": 5225,
      "Ġoppos": 5226,
      "Ġconnection": 5227,
      "Ġprem": 5228,
      "Ġpurch": 5229,
      "Ġelectric": 5230,
      "enge": 5231,
      "Ġscience": 5232,
      "ugg": 5233,
      "Ġliterature": 5234,
      "ĠWhat": 5235,
      "She": 5236,
      "Ġspectral": 5237,
      "Ġtraditional": 5238,
      "Eq": 5239,
      "met": 5240,
      "ĠIts": 5241,
      "Ġrequires": 5242,
      "ĠWomen": 5243,
      "ĠBre": 5244,
      "esh": 5245,
      "Ġconsistent": 5246,
      "ĠOffic": 5247,
      "nel": 5248,
      "ifier": 5249,
      "Ġtold": 5250,
      "Ġprofile": 5251,
      "version": 5252,
      "iece": 5253,
      "ĠUnder": 5254,
      "Ġ?": 5255,
      "Ġdecided": 5256,
      "Ġhighly": 5257,
      "reshold": 5258,
      "Ġsituation": 5259,
      "Ġminim": 5260,
      "uge": 5261,
      "Ġ&=&": 5262,
      "illa": 5263,
      "Ġculture": 5264,
      "ishop": 5265,
      "print": 5266,
      "Ġmanufact": 5267,
      "More": 5268,
      "cons": 5269,
      "Ġrepresents": 5270,
      "ĠBur": 5271,
      "lam": 5272,
      "ao": 5273,
      "Ġcompetition": 5274,
      "otion": 5275,
      "ĠFin": 5276,
      "gra": 5277,
      "Ġcalculated": 5278,
      "ockey": 5279,
      "ĠPe": 5280,
      "public": 5281,
      "Ġmedal": 5282,
      "Ġvoc": 5283,
      "Ġwriter": 5284,
      "Ġartist": 5285,
      "Ġheavy": 5286,
      "Ġcop": 5287,
      "ĠPenn": 5288,
      "Ġlattice": 5289,
      "\\\"": 5290,
      "Ġidentified": 5291,
      "Ġobser": 5292,
      "Ġuseful": 5293,
      "ban": 5294,
      "rich": 5295,
      "istan": 5296,
      "Ġwalk": 5297,
      "Ġcele": 5298,
      "Ser": 5299,
      "1981": 5300,
      "ĠGovernment": 5301,
      "aval": 5302,
      "Ġcorresponds": 5303,
      "86": 5304,
      "utch": 5305,
      ")_{": 5306,
      "roduction": 5307,
      "Ġexistence": 5308,
      "Ġbrought": 5309,
      "ecting": 5310,
      "Ġcore": 5311,
      "Ġsecurity": 5312,
      "ĠTw": 5313,
      "HE": 5314,
      "mann": 5315,
      "72": 5316,
      "rump": 5317,
      "Ġ...": 5318,
      "ĠLie": 5319,
      "perp": 5320,
      "Ġchalleng": 5321,
      "Ġmemory": 5322,
      "net": 5323,
      "}$-": 5324,
      "Ġcomment": 5325,
      "Ġremained": 5326,
      "Ġmentioned": 5327,
      "aud": 5328,
      "Ġtrade": 5329,
      "Ġansw": 5330,
      "Ġcaused": 5331,
      "89": 5332,
      "Ġmeasurements": 5333,
      "Ġvertices": 5334,
      "Ġult": 5335,
      "lt": 5336,
      "forall": 5337,
      "ĠGr": 5338,
      "Ġplays": 5339,
      "Ġbit": 5340,
      "End": 5341,
      "Ġwind": 5342,
      "Ġframe": 5343,
      "Ġmovement": 5344,
      "simeq": 5345,
      "Äģ": 5346,
      "Of": 5347,
      "ĠForce": 5348,
      "ien": 5349,
      "NA": 5350,
      "aker": 5351,
      "Ġcategory": 5352,
      "Ġspaces": 5353,
      "anced": 5354,
      "velopment": 5355,
      ")^{-": 5356,
      "ympt": 5357,
      "Ġopportun": 5358,
      "Exp": 5359,
      "pack": 5360,
      "Ġconstraints": 5361,
      "ĠSk": 5362,
      "word": 5363,
      "input": 5364,
      "Ġdise": 5365,
      ")^{\\": 5366,
      "Ġtalk": 5367,
      "edom": 5368,
      "ĠPri": 5369,
      "FT": 5370,
      "Ġconcent": 5371,
      ":\\": 5372,
      "ĠFlorida": 5373,
      "Event": 5374,
      "seud": 5375,
      "Ġthemselves": 5376,
      "Ġ~": 5377,
      "Ġpick": 5378,
      "ibly": 5379,
      "Co": 5380,
      "ski": 5381,
      "Ġwoman": 5382,
      "va": 5383,
      "present": 5384,
      "Ġargument": 5385,
      "Ġstatement": 5386,
      "IL": 5387,
      "udd": 5388,
      "What": 5389,
      "inity": 5390,
      "mas": 5391,
      "Ġprocedure": 5392,
      "ĠStar": 5393,
      "(),": 5394,
      "ĠFe": 5395,
      "gu": 5396,
      "Further": 5397,
      "weight": 5398,
      "ĠHenry": 5399,
      "$(": 5400,
      "Ġconstructed": 5401,
      "subsubsection": 5402,
      "ĠRem": 5403,
      "Ġseem": 5404,
      "Ġexisting": 5405,
      "Ġinn": 5406,
      "Ġstay": 5407,
      "ymmet": 5408,
      "bin": 5409,
      "olean": 5410,
      "Ġbank": 5411,
      "Ġtim": 5412,
      "Ġgun": 5413,
      "Ġedges": 5414,
      "Ġhousehold": 5415,
      "Ġrates": 5416,
      "Ġreach": 5417,
      "iency": 5418,
      "ĠGeorg": 5419,
      "Ġinters": 5420,
      "Ġscalar": 5421,
      "ulture": 5422,
      "Table": 5423,
      "Ġsignificantly": 5424,
      "Ġsyn": 5425,
      "Ġfeatured": 5426,
      "Ð¸": 5427,
      "Ġcritic": 5428,
      "Ġrepe": 5429,
      "IV": 5430,
      "iro": 5431,
      "1976": 5432,
      "ĠAtl": 5433,
      "\\!\\!": 5434,
      "={": 5435,
      "Ġresolution": 5436,
      "ĠCast": 5437,
      "76": 5438,
      "Ġsecret": 5439,
      "AG": 5440,
      "Ġ(\"": 5441,
      "ĠVirginia": 5442,
      "alg": 5443,
      "ĠCommittee": 5444,
      "Ġstraight": 5445,
      "Out": 5446,
      "PE": 5447,
      "ĠOver": 5448,
      "Ġmole": 5449,
      "Ġgrant": 5450,
      "ĠCongress": 5451,
      "zero": 5452,
      "Ġassumption": 5453,
      "1978": 5454,
      "eks": 5455,
      "Can": 5456,
      "hesis": 5457,
      "normal": 5458,
      "ĠArts": 5459,
      "Ġcollege": 5460,
      "Ġsch": 5461,
      "Build": 5462,
      "Ġaircraft": 5463,
      "Ġanc": 5464,
      "aily": 5465,
      "ĠChicago": 5466,
      "Ab": 5467,
      "Ġbal": 5468,
      "ĠMoreover": 5469,
      "js": 5470,
      "Ġsoftware": 5471,
      "Ġexam": 5472,
      "Ġsurround": 5473,
      "true": 5474,
      "tem": 5475,
      "Ġbrief": 5476,
      "Ġfinally": 5477,
      "Ġleader": 5478,
      "ĉĉĉĉĉ": 5479,
      "Ġbad": 5480,
      "Ġesc": 5481,
      "Ġcompletely": 5482,
      "Ġminor": 5483,
      "Inter": 5484,
      "Ġmedical": 5485,
      "ĠOl": 5486,
      "Ġsometimes": 5487,
      "Ġexactly": 5488,
      "Ġminutes": 5489,
      "cases": 5490,
      "Ġextra": 5491,
      "ĠAre": 5492,
      "Ġgrand": 5493,
      "1972": 5494,
      "eturn": 5495,
      "arks": 5496,
      "84": 5497,
      "Ġsteps": 5498,
      "NS": 5499,
      "arant": 5500,
      "Ed": 5501,
      "Ġcorrelation": 5502,
      "ĠSun": 5503,
      "ĠAngeles": 5504,
      "irus": 5505,
      "Ġextension": 5506,
      "1974": 5507,
      "Ġbasic": 5508,
      "ĠSeries": 5509,
      "real": 5510,
      "Ġcause": 5511,
      "Ġawarded": 5512,
      "Ġcompute": 5513,
      "Ġvan": 5514,
      "ĠOper": 5515,
      "Ġinequality": 5516,
      "Ġrelevant": 5517,
      "onom": 5518,
      "ocol": 5519,
      "Ġjoint": 5520,
      "ulate": 5521,
      "Ġcoefficients": 5522,
      "Ġcollabor": 5523,
      "ernel": 5524,
      "ĠInc": 5525,
      "Ġinternal": 5526,
      "Ġangle": 5527,
      ".~(\\": 5528,
      "iller": 5529,
      "Ġcells": 5530,
      "](": 5531,
      "idae": 5532,
      "ato": 5533,
      "Ġcoming": 5534,
      "ĠPost": 5535,
      "pace": 5536,
      "Ġbranch": 5537,
      "Ġfarm": 5538,
      "Ġmessage": 5539,
      "Ġmur": 5540,
      "Ġseems": 5541,
      "Ġsimulation": 5542,
      "force": 5543,
      "Ġstrategy": 5544,
      "izer": 5545,
      "ifically": 5546,
      "jo": 5547,
      "^{+": 5548,
      "{$\\": 5549,
      "ĠKe": 5550,
      "idden": 5551,
      "1975": 5552,
      "ĠSwed": 5553,
      "Ġvs": 5554,
      "ĠIll": 5555,
      "Ġload": 5556,
      "}^*": 5557,
      "azz": 5558,
      "height": 5559,
      "ĠCre": 5560,
      "Ã¨": 5561,
      "Ġinfluence": 5562,
      "ĠEmp": 5563,
      "ĠCOVID": 5564,
      "oviet": 5565,
      "uations": 5566,
      "Ġreplace": 5567,
      "Param": 5568,
      "ĠMo": 5569,
      "Ġtensor": 5570,
      "Ġdistinct": 5571,
      "Add": 5572,
      "ogene": 5573,
      "Ġdepends": 5574,
      "Ġinterview": 5575,
      "Be": 5576,
      "Ġdro": 5577,
      "stra": 5578,
      "Att": 5579,
      "Ġactivity": 5580,
      "apers": 5581,
      "ĠOrder": 5582,
      "ĠAlso": 5583,
      "plate": 5584,
      "ĠTime": 5585,
      "ĠMost": 5586,
      "CE": 5587,
      "Ġshowed": 5588,
      "ĠPre": 5589,
      "1977": 5590,
      "ĠOpen": 5591,
      "ĠMexico": 5592,
      "Text": 5593,
      "Ġpolitician": 5594,
      "Ġfinancial": 5595,
      "Ġsure": 5596,
      "Ġapprop": 5597,
      "Ġetc": 5598,
      "result": 5599,
      "wa": 5600,
      "Ġshot": 5601,
      "Ġstudent": 5602,
      "ican": 5603,
      "hom": 5604,
      "ny": 5605,
      "Ġbroadcast": 5606,
      "Ġlegal": 5607,
      "ĠItaly": 5608,
      "oat": 5609,
      "ilib": 5610,
      "pty": 5611,
      "Ġcit": 5612,
      "then": 5613,
      "object": 5614,
      "oting": 5615,
      "unched": 5616,
      "hemat": 5617,
      "Ġmiddle": 5618,
      "Ġgreater": 5619,
      "iders": 5620,
      "Ne": 5621,
      "rot": 5622,
      "irit": 5623,
      "ĠSecret": 5624,
      "Ġ/>": 5625,
      "Ġorganization": 5626,
      "Ġimprove": 5627,
      ".</": 5628,
      "Ġborder": 5629,
      "Ġlink": 5630,
      "\"></": 5631,
      "IP": 5632,
      "iano": 5633,
      "sur": 5634,
      "oration": 5635,
      "orial": 5636,
      "zy": 5637,
      "uled": 5638,
      "run": 5639,
      "Ġincreases": 5640,
      "vex": 5641,
      "Ġunion": 5642,
      "ĠKn": 5643,
      "So": 5644,
      "ora": 5645,
      "Ġwor": 5646,
      "$).": 5647,
      "CS": 5648,
      "ĠFestival": 5649,
      "ĠForm": 5650,
      "nav": 5651,
      "Ġformal": 5652,
      "ĠOh": 5653,
      "Ġ=\\": 5654,
      "Trans": 5655,
      "Ġnearly": 5656,
      "Rep": 5657,
      "Early": 5658,
      "Ġsn": 5659,
      "Ġcard": 5660,
      "Ġcontributions": 5661,
      "abase": 5662,
      "rong": 5663,
      "File": 5664,
      "rons": 5665,
      "iffer": 5666,
      "Node": 5667,
      "ĠVer": 5668,
      "ko": 5669,
      "free": 5670,
      "Ġactivities": 5671,
      "Ġsinger": 5672,
      "osh": 5673,
      "newcommand": 5674,
      "Ġsport": 5675,
      "term": 5676,
      "elled": 5677,
      "Ġdistributions": 5678,
      "$$\\": 5679,
      "orter": 5680,
      "Comm": 5681,
      "Ġdenotes": 5682,
      "Mar": 5683,
      "ĠSup": 5684,
      "Med": 5685,
      "}}^": 5686,
      "Ġhoriz": 5687,
      "Ġspeak": 5688,
      "Ġcry": 5689,
      "UN": 5690,
      ")}{\\": 5691,
      "82": 5692,
      "Ġrecomm": 5693,
      "ĠFoundation": 5694,
      "values": 5695,
      "Element": 5696,
      "Ġinvariant": 5697,
      "Bar": 5698,
      "83": 5699,
      "Ġdetection": 5700,
      "Ġdidn": 5701,
      "pton": 5702,
      "hem": 5703,
      "ĠHel": 5704,
      "Ġreduce": 5705,
      "Ġmarg": 5706,
      "Ġcontaining": 5707,
      "rium": 5708,
      "Ġpoly": 5709,
      "abilities": 5710,
      "ĠMil": 5711,
      "Ġthreat": 5712,
      "Ġintroduce": 5713,
      "Ġpropag": 5714,
      "Ã³n": 5715,
      "Ġ;": 5716,
      "Ġgreen": 5717,
      "elli": 5718,
      "Ġprograms": 5719,
      "active": 5720,
      "Ġearn": 5721,
      "Ġseparate": 5722,
      "Ġextract": 5723,
      "ogue": 5724,
      "Ġbey": 5725,
      "Ġscored": 5726,
      "Ġfix": 5727,
      "1973": 5728,
      "ĠRussia": 5729,
      "Ġchain": 5730,
      "dx": 5731,
      "Ġcurves": 5732,
      "uted": 5733,
      "ĠBoard": 5734,
      "$^{-": 5735,
      "Ġconfiguration": 5736,
      "PI": 5737,
      "ĠBig": 5738,
      "ĠScot": 5739,
      "textsc": 5740,
      "abit": 5741,
      "Ġauthors": 5742,
      "ĠEducation": 5743,
      "Ġmajority": 5744,
      "oding": 5745,
      "iana": 5746,
      "Ġestablishments": 5747,
      "even": 5748,
      "Ġimmediately": 5749,
      "Ġvac": 5750,
      "oral": 5751,
      "Ġbeyond": 5752,
      "kl": 5753,
      "ĠKh": 5754,
      "ĠSil": 5755,
      "1968": 5756,
      "Figure": 5757,
      "ocation": 5758,
      "kin": 5759,
      "Ġsemi": 5760,
      "iant": 5761,
      "Per": 5762,
      "areer": 5763,
      "dim": 5764,
      "Ġcarried": 5765,
      "Field": 5766,
      "lig": 5767,
      "hing": 5768,
      "74": 5769,
      "Ġleave": 5770,
      "Ġassumed": 5771,
      "sto": 5772,
      "langu": 5773,
      "Ġspread": 5774,
      "73": 5775,
      "Ġdependence": 5776,
      "asi": 5777,
      "matrix": 5778,
      "adr": 5779,
      "Ġasked": 5780,
      "Ġtechniques": 5781,
      "Ġstop": 5782,
      "Ġability": 5783,
      "ĠLife": 5784,
      "Supp": 5785,
      "neg": 5786,
      "Ġdesp": 5787,
      "Ġprobably": 5788,
      "Ġensure": 5789,
      "ĠKar": 5790,
      "column": 5791,
      "venue": 5792,
      "Ġring": 5793,
      "inations": 5794,
      "Ġplot": 5795,
      "Ġbus": 5796,
      "ĠSta": 5797,
      "Ġdefault": 5798,
      "pmatrix": 5799,
      "Ġfilter": 5800,
      "Ġprevent": 5801,
      "Ġmodes": 5802,
      "LS": 5803,
      "Ġhum": 5804,
      "Ġbasketball": 5805,
      "Ġeconomic": 5806,
      "Ġcandidate": 5807,
      "iled": 5808,
      "Ġpairs": 5809,
      "Ġfirm": 5810,
      "Ġvisual": 5811,
      "aught": 5812,
      "Ġoptions": 5813,
      "ĠMartin": 5814,
      "stein": 5815,
      "Ġpatients": 5816,
      "GB": 5817,
      "ĠCam": 5818,
      "Ġprefer": 5819,
      "Ġheart": 5820,
      "Ġclassification": 5821,
      "gn": 5822,
      "ĠTest": 5823,
      "uan": 5824,
      "79": 5825,
      "Ġmind": 5826,
      "})$.": 5827,
      "Ġspent": 5828,
      "ĠAwards": 5829,
      "1971": 5830,
      "Ġarchitecture": 5831,
      "['": 5832,
      "Ġsampl": 5833,
      "Ġpassed": 5834,
      "Ġrelatively": 5835,
      "eds": 5836,
      "']": 5837,
      "amental": 5838,
      "Ġreb": 5839,
      "Ġcombined": 5840,
      "ĠTimes": 5841,
      "Ġweeks": 5842,
      "pass": 5843,
      "':": 5844,
      "rupt": 5845,
      "ĠEngine": 5846,
      "orage": 5847,
      "ĠMur": 5848,
      "Ġgeneration": 5849,
      "ĠIII": 5850,
      "Ġdoing": 5851,
      "Ġopening": 5852,
      "Ġsports": 5853,
      "ĠMax": 5854,
      "aven": 5855,
      "ĠOld": 5856,
      "Thus": 5857,
      "Ġ$$": 5858,
      ")\\\\": 5859,
      "ĠLove": 5860,
      "Ġamb": 5861,
      "Ġflat": 5862,
      "Ġcru": 5863,
      "icated": 5864,
      "omorphic": 5865,
      "prot": 5866,
      "etime": 5867,
      "ĠLu": 5868,
      "Ġcombination": 5869,
      "Ġalgorithms": 5870,
      "ugby": 5871,
      "Ġbrand": 5872,
      "81": 5873,
      "Ġapproaches": 5874,
      "stream": 5875,
      "ĠYoung": 5876,
      "Ġsingular": 5877,
      "supp": 5878,
      "ĠSol": 5879,
      "ĠUp": 5880,
      "Ġlic": 5881,
      "CP": 5882,
      "ĠSocial": 5883,
      "Spec": 5884,
      "language": 5885,
      "Ġstable": 5886,
      "Ġmatches": 5887,
      "fe": 5888,
      "Ġprison": 5889,
      "ĠCarolina": 5890,
      "Ġmoving": 5891,
      "undle": 5892,
      "Ġcorn": 5893,
      "Other": 5894,
      "Ġwinning": 5895,
      "ersey": 5896,
      "ĠTour": 5897,
      "ĠLy": 5898,
      "Ġdisk": 5899,
      "ĠBi": 5900,
      "Ġsummer": 5901,
      "Ġsymmetric": 5902,
      "anger": 5903,
      "Ġcarry": 5904,
      "Ġtheore": 5905,
      "\\|_{": 5906,
      "ĠChampionships": 5907,
      "((": 5908,
      "house": 5909,
      "syl": 5910,
      "osc": 5911,
      "ipality": 5912,
      "Ġmeasures": 5913,
      "ĠHot": 5914,
      "Ġwriters": 5915,
      "Ġspectra": 5916,
      "erse": 5917,
      "Ġconvert": 5918,
      "host": 5919,
      "Ġdivision": 5920,
      "Ġpoor": 5921,
      ".$": 5922,
      "asion": 5923,
      "Ġagent": 5924,
      "Ġorb": 5925,
      "ror": 5926,
      "Ġtournament": 5927,
      "bullet": 5928,
      "These": 5929,
      "Notes": 5930,
      "ĠNavy": 5931,
      "ĠBank": 5932,
      "inner": 5933,
      "Ġdiscussion": 5934,
      "Ġactor": 5935,
      "ĠHaw": 5936,
      "Ġacadem": 5937,
      "user": 5938,
      "=\"../../": 5939,
      "Ġerrors": 5940,
      "ĠIN": 5941,
      "yan": 5942,
      "Ġtypically": 5943,
      "OD": 5944,
      "ĠPet": 5945,
      "Info": 5946,
      "Ġthing": 5947,
      "displaystyle": 5948,
      "ĠProgram": 5949,
      "ĠPlay": 5950,
      "Ġdoesn": 5951,
      "Ġlooking": 5952,
      "stitution": 5953,
      "Ġmostly": 5954,
      "MM": 5955,
      "sych": 5956,
      "ĠJul": 5957,
      "71": 5958,
      "Ġwood": 5959,
      ")$-": 5960,
      "Ġmanager": 5961,
      "ĠGL": 5962,
      "void": 5963,
      "Ġ);": 5964,
      "Ġslightly": 5965,
      "ima": 5966,
      "ĠLi": 5967,
      "Ġcomputer": 5968,
      "vania": 5969,
      "Ġgoals": 5970,
      "Ġcentre": 5971,
      "nowled": 5972,
      "Ġproved": 5973,
      "Ġ},": 5974,
      "Ġbottom": 5975,
      "ĠWood": 5976,
      "ĠJo": 5977,
      "1969": 5978,
      "Ġinner": 5979,
      "Ġinteractions": 5980,
      "Ġcapacity": 5981,
      "ja": 5982,
      "Ġcosm": 5983,
      "John": 5984,
      "allery": 5985,
      "Ġways": 5986,
      "ĠDou": 5987,
      "Ġâ": 5988,
      "example": 5989,
      "Ġarbitrary": 5990,
      "Ġmeeting": 5991,
      "ĠDirector": 5992,
      "ĠTop": 5993,
      "rical": 5994,
      "ternet": 5995,
      "Ġremain": 5996,
      "Ġthick": 5997,
      "Ġadvant": 5998,
      "count": 5999,
      "vest": 6000,
      "Ġsites": 6001,
      "viation": 6002,
      "Ġpurpose": 6003,
      "English": 6004,
      "ĠGal": 6005,
      "ĠBob": 6006,
      "hbar": 6007,
      "shire": 6008,
      "ĠTrump": 6009,
      "Ġroute": 6010,
      "ĠRel": 6011,
      "istical": 6012,
      "owers": 6013,
      "CA": 6014,
      "400": 6015,
      "Ġperfect": 6016,
      ";\"": 6017,
      "ilter": 6018,
      "Ġgoes": 6019,
      "ĠSet": 6020,
      "Ġyields": 6021,
      "Ġharm": 6022,
      "'}": 6023,
      "ĠRo": 6024,
      "Ġteacher": 6025,
      "ride": 6026,
      "resh": 6027,
      "ĠEqu": 6028,
      "Ġstrength": 6029,
      "amely": 6030,
      "remark": 6031,
      "Ġedition": 6032,
      "Ġotherwise": 6033,
      "Hz": 6034,
      "Ġdecom": 6035,
      "ĠBrazil": 6036,
      "Ġorient": 6037,
      "joy": 6038,
      "NR": 6039,
      "chen": 6040,
      "Ġparallel": 6041,
      "Ġspatial": 6042,
      "ĠReview": 6043,
      "Ġappearance": 6044,
      "Ġaspect": 6045,
      "Ġoption": 6046,
      "wan": 6047,
      "prob": 6048,
      "ĠGen": 6049,
      "_-": 6050,
      "ĠParliament": 6051,
      "Ġsplit": 6052,
      "ady": 6053,
      "ĠLee": 6054,
      "Ġmut": 6055,
      "Ġbelieve": 6056,
      "Ġmeasurement": 6057,
      "1945": 6058,
      "graph": 6059,
      "cr": 6060,
      "Ġonto": 6061,
      "}}^{": 6062,
      "'re": 6063,
      "ĠTeam": 6064,
      "1940": 6065,
      "Ġinitially": 6066,
      "config": 6067,
      "Ġmatrices": 6068,
      "Ġestimates": 6069,
      "During": 6070,
      "Cons": 6071,
      "Theorem": 6072,
      "ĠJournal": 6073,
      "ĠProfess": 6074,
      "Ġtor": 6075,
      "Ġdrug": 6076,
      "Ġmission": 6077,
      "adium": 6078,
      "Ġwanted": 6079,
      "1967": 6080,
      "Ġdestroy": 6081,
      "ĠExp": 6082,
      "Ġabsor": 6083,
      "Ġexpressed": 6084,
      "oder": 6085,
      "Ġindividuals": 6086,
      "ĠJac": 6087,
      "Ġmainly": 6088,
      "Ġhttp": 6089,
      "ĠJun": 6090,
      "ĠSpace": 6091,
      "SD": 6092,
      "Ġcoast": 6093,
      "SI": 6094,
      "Ġthreshold": 6095,
      "Ġincorpor": 6096,
      "tri": 6097,
      "Context": 6098,
      "Ġactress": 6099,
      "////////": 6100,
      "ĠPac": 6101,
      "ĠLong": 6102,
      "OM": 6103,
      "udes": 6104,
      "ĠAtt": 6105,
      "unct": 6106,
      "local": 6107,
      "Ġpure": 6108,
      "Ġcalc": 6109,
      "ĠCE": 6110,
      "Ġca": 6111,
      "Path": 6112,
      "gener": 6113,
      "Char": 6114,
      "Ġreconst": 6115,
      "Ġgr": 6116,
      "LP": 6117,
      "Ġmorph": 6118,
      "Ġriver": 6119,
      "Ġefficient": 6120,
      "Ġstellar": 6121,
      "odot": 6122,
      "Ġdead": 6123,
      "Ġphen": 6124,
      "Ġmovie": 6125,
      "Ġtransformation": 6126,
      "Ġfair": 6127,
      "maz": 6128,
      "has": 6129,
      "Ġprogress": 6130,
      "Ġgiving": 6131,
      "aylor": 6132,
      "ĠJoseph": 6133,
      "ĠHon": 6134,
      "ellig": 6135,
      "Ġpositions": 6136,
      "itation": 6137,
      "Ġdisp": 6138,
      "icity": 6139,
      "Ġvocals": 6140,
      "ati": 6141,
      "ĠEach": 6142,
      "sch": 6143,
      "Ġlaunched": 6144,
      "Group": 6145,
      "1964": 6146,
      "Ġhydro": 6147,
      "ĠLine": 6148,
      "ĠIrish": 6149,
      "Ġcommunities": 6150,
      "Ġreferred": 6151,
      "awa": 6152,
      "ĠLiber": 6153,
      "Ġended": 6154,
      "Ġactions": 6155,
      "ansas": 6156,
      "Ġasympt": 6157,
      "ĠGet": 6158,
      "enth": 6159,
      "Ġdevice": 6160,
      "proposition": 6161,
      "Ġcomputed": 6162,
      "Ġunknown": 6163,
      ")--": 6164,
      "ĠOffice": 6165,
      "api": 6166,
      "Ġcat": 6167,
      "post": 6168,
      "irmed": 6169,
      "ĠHig": 6170,
      "ependence": 6171,
      "Ġarrang": 6172,
      "Ġran": 6173,
      "Ġdeb": 6174,
      "ĠUnivers": 6175,
      "[]": 6176,
      "ĠCross": 6177,
      "ĠNetwork": 6178,
      "ĠBas": 6179,
      "ĠPeople": 6180,
      "enty": 6181,
      ")_": 6182,
      "Ġisland": 6183,
      "Ġstudio": 6184,
      "Ġrapid": 6185,
      "ĠEarth": 6186,
      "background": 6187,
      "Ġachieved": 6188,
      "annels": 6189,
      "RA": 6190,
      "Ġmixed": 6191,
      "Ġfriends": 6192,
      "actions": 6193,
      "ĠWales": 6194,
      "/**": 6195,
      "Ġmis": 6196,
      "Ð½": 6197,
      "ĠAssembly": 6198,
      "Ġwhom": 6199,
      "Ġphil": 6200,
      "While": 6201,
      "\\_": 6202,
      "hire": 6203,
      "Ġlives": 6204,
      "Ġbul": 6205,
      "sylvania": 6206,
      "cur": 6207,
      "Ġpolynomial": 6208,
      "mapsto": 6209,
      "Ġfailed": 6210,
      "Request": 6211,
      "Ġvary": 6212,
      "ova": 6213,
      "base": 6214,
      "kins": 6215,
      "Ã§": 6216,
      "ĠHy": 6217,
      "Ġquarter": 6218,
      "ĠLin": 6219,
      "ĠGaussian": 6220,
      "1930": 6221,
      "Ġremoved": 6222,
      "ĠHamiltonian": 6223,
      "Ġseasons": 6224,
      "icks": 6225,
      "Ġcopy": 6226,
      "Ġeditor": 6227,
      "SM": 6228,
      "mond": 6229,
      "ĠColumb": 6230,
      "Config": 6231,
      "ĠArab": 6232,
      "ĠĠĠĠĠĠĠĠĠĠĠĠĠĠĠĠĠĠĠĠĠĠĠĠĠĠĠ": 6233,
      "Ġresources": 6234,
      "related": 6235,
      "ypes": 6236,
      "Ġsqu": 6237,
      "ried": 6238,
      "ibli": 6239,
      "ĠNorthern": 6240,
      "Ġking": 6241,
      "Ġstore": 6242,
      "Ġabsol": 6243,
      "Map": 6244,
      "Ġmusical": 6245,
      "kes": 6246,
      "Ġmachine": 6247,
      "Ġcommercial": 6248,
      "Ġchief": 6249,
      "Ġcloud": 6250,
      "gar": 6251,
      "Ġbattle": 6252,
      "ters": 6253,
      "Ġsaying": 6254,
      "Ġturned": 6255,
      "while": 6256,
      "ĠChief": 6257,
      "Ġregime": 6258,
      "ĠInst": 6259,
      "mc": 6260,
      "asy": 6261,
      "Ġfa": 6262,
      "EM": 6263,
      "Ġmaster": 6264,
      "Ġfoot": 6265,
      "Ġfavor": 6266,
      "Ġsusp": 6267,
      "ultural": 6268,
      "TD": 6269,
      "ĠJer": 6270,
      "first": 6271,
      "fit": 6272,
      "ĠEnd": 6273,
      "itan": 6274,
      "sky": 6275,
      "inate": 6276,
      "ĠWal": 6277,
      "Ġproviding": 6278,
      "\\{\\": 6279,
      "$;": 6280,
      "Ġcoordinates": 6281,
      "inet": 6282,
      "Ġnorthern": 6283,
      "Ġparents": 6284,
      "tes": 6285,
      "}({\\": 6286,
      "ĠAut": 6287,
      "Ġmanifold": 6288,
      "ilibrium": 6289,
      "Ġolder": 6290,
      "Ġcircle": 6291,
      "hbox": 6292,
      "1965": 6293,
      "ĠRegister": 6294,
      "usband": 6295,
      "espite": 6296,
      "=\"+": 6297,
      "ĠShow": 6298,
      "ĠSoviet": 6299,
      "abled": 6300,
      "block": 6301,
      "erved": 6302,
      "Inst": 6303,
      "Ġsea": 6304,
      "Ġgenerate": 6305,
      "Back": 6306,
      "Ġresponsible": 6307,
      "Ġtypical": 6308,
      "date": 6309,
      "Ġsouthern": 6310,
      "tik": 6311,
      "ias": 6312,
      "Ġobserve": 6313,
      "'(": 6314,
      "tainment": 6315,
      "Äĩ": 6316,
      "Ġquickly": 6317,
      "Åį": 6318,
      "lines": 6319,
      "{{": 6320,
      "$~": 6321,
      "Ġgain": 6322,
      "Ġresol": 6323,
      "ls": 6324,
      "ĠValley": 6325,
      "Ġquestions": 6326,
      "ĠProvince": 6327,
      "Ġrailway": 6328,
      "ĠJim": 6329,
      "Person": 6330,
      "ĠTim": 6331,
      "Ġidentify": 6332,
      "char": 6333,
      "Ġutil": 6334,
      "contin": 6335,
      "bas": 6336,
      "Ġdespite": 6337,
      "Ġcycle": 6338,
      "Ġattended": 6339,
      "&=&": 6340,
      "Ġdemand": 6341,
      "Ġchampionship": 6342,
      "HT": 6343,
      "Ġclearly": 6344,
      "zer": 6345,
      "abil": 6346,
      "Ġproducer": 6347,
      "Ġlies": 6348,
      "Ġexchange": 6349,
      "atriate": 6350,
      "ampion": 6351,
      "Ġaccur": 6352,
      "Ġdetailed": 6353,
      "Ġscene": 6354,
      "ĠSee": 6355,
      "Ġpoet": 6356,
      "ĠTheir": 6357,
      "Ġoptical": 6358,
      "According": 6359,
      "PA": 6360,
      "Ġgalaxy": 6361,
      "Ġprep": 6362,
      "Ġbeg": 6363,
      "Ġstrongly": 6364,
      "Ġdistributed": 6365,
      "Index": 6366,
      "Ġexpon": 6367,
      "Pre": 6368,
      "Ġago": 6369,
      "1966": 6370,
      "Ġforest": 6371,
      "Ġextrem": 6372,
      "SL": 6373,
      "ĠSir": 6374,
      "ji": 6375,
      "ront": 6376,
      "Ġcompare": 6377,
      "ĠHistoric": 6378,
      "Ġ]": 6379,
      "Ġentry": 6380,
      "IF": 6381,
      "Ġshoot": 6382,
      "}&": 6383,
      "!--": 6384,
      "Ġreduction": 6385,
      "ĠStep": 6386,
      "Ġrecords": 6387,
      "Ġstories": 6388,
      "Ġformat": 6389,
      "pping": 6390,
      "anges": 6391,
      "Ġstrict": 6392,
      "rade": 6393,
      "ĠEmpire": 6394,
      "Ġtrained": 6395,
      "/*": 6396,
      "otal": 6397,
      "Ġsector": 6398,
      "Ġnewsp": 6399,
      "ĠSpain": 6400,
      "Ġmasses": 6401,
      "Ġattract": 6402,
      "orning": 6403,
      "otted": 6404,
      "System": 6405,
      "method": 6406,
      "Don": 6407,
      "Fe": 6408,
      "ĠConn": 6409,
      "oken": 6410,
      "Ġactual": 6411,
      "Ġsegment": 6412,
      "ÑĤ": 6413,
      "multi": 6414,
      "Career": 6415,
      "arden": 6416,
      "())": 6417,
      "agraph": 6418,
      "Ġfederal": 6419,
      "Ġdifferences": 6420,
      "faces": 6421,
      "Ġnation": 6422,
      "Ġbecoming": 6423,
      "define": 6424,
      "undred": 6425,
      "Ġexcit": 6426,
      "150": 6427,
      "Ġoccurs": 6428,
      "Ġbehavi": 6429,
      "Ġgetting": 6430,
      "ĠJud": 6431,
      "Ġdepth": 6432,
      "Ġcontained": 6433,
      "Ġroot": 6434,
      "Part": 6435,
      "|_{": 6436,
      "Ġinterval": 6437,
      "Ġscattering": 6438,
      "olt": 6439,
      "Ġupdate": 6440,
      "Ġplans": 6441,
      "Ġprojects": 6442,
      "aver": 6443,
      "ĠDev": 6444,
      "mma": 6445,
      "iler": 6446,
      "Ġwatch": 6447,
      "Ġnumerous": 6448,
      "Ġ(!": 6449,
      "ĠElect": 6450,
      ")+\\": 6451,
      "core": 6452,
      "Ġannual": 6453,
      "Ġappropriate": 6454,
      "Ġexternal": 6455,
      "Model": 6456,
      "etween": 6457,
      "ĠField": 6458,
      "Ġdifferential": 6459,
      "Ġofficer": 6460,
      "page": 6461,
      "ĠBusiness": 6462,
      "Ġproceed": 6463,
      "ĠSpr": 6464,
      "scill": 6465,
      "Ġterrit": 6466,
      "ĠProject": 6467,
      "ĠFort": 6468,
      "Ġvectors": 6469,
      "ributes": 6470,
      "Count": 6471,
      "yes": 6472,
      "igation": 6473,
      "1920": 6474,
      "Ġconvergence": 6475,
      "ĠGood": 6476,
      "Ġsections": 6477,
      "Ġfif": 6478,
      "break": 6479,
      "ildren": 6480,
      "uty": 6481,
      "picture": 6482,
      "Ġcomputation": 6483,
      "Array": 6484,
      "acter": 6485,
      "track": 6486,
      "Ġsenior": 6487,
      "inding": 6488,
      "ENT": 6489,
      "Ġserve": 6490,
      "DA": 6491,
      "Ġreson": 6492,
      "cript": 6493,
      "1000": 6494,
      "Ġreflect": 6495,
      "alysis": 6496,
      "~$\\": 6497,
      "Service": 6498,
      "ĠPennsylvania": 6499,
      "Ġmodule": 6500,
      "ĠDom": 6501,
      "ĠPhilipp": 6502,
      "ĠBoth": 6503,
      "Am": 6504,
      "oston": 6505,
      "Ġsatisfy": 6506,
      "rics": 6507,
      "Ġgenus": 6508,
      "aka": 6509,
      "cean": 6510,
      "La": 6511,
      "Ġhttps": 6512,
      "Ġalternative": 6513,
      "Ġindicates": 6514,
      "iable": 6515,
      "ifications": 6516,
      "mass": 6517,
      "Ġassess": 6518,
      "ĠGreek": 6519,
      "emporary": 6520,
      "Ġowned": 6521,
      "apache": 6522,
      "Ġforced": 6523,
      "Ġinform": 6524,
      "Car": 6525,
      "atically": 6526,
      "Ġnucle": 6527,
      "tikz": 6528,
      "greg": 6529,
      "Ġcensus": 6530,
      "Ġbeam": 6531,
      "poses": 6532,
      "Films": 6533,
      "Ġcelebr": 6534,
      "arriage": 6535,
      "Ġstatistics": 6536,
      "ĠRam": 6537,
      "ancing": 6538,
      "Ġexplain": 6539,
      "ÑĢ": 6540,
      "Ġprice": 6541,
      ")},": 6542,
      "har": 6543,
      "Ġhypot": 6544,
      "Ġmagazine": 6545,
      "iy": 6546,
      "roph": 6547,
      "Ġoffers": 6548,
      "Ġworkers": 6549,
      "ervices": 6550,
      "Ġdigital": 6551,
      "Ġregister": 6552,
      "ĠLibrary": 6553,
      "GC": 6554,
      "Ġsynt": 6555,
      "ĠCa": 6556,
      "Ġodd": 6557,
      "bed": 6558,
      "Ġleaving": 6559,
      "Ġachieve": 6560,
      "ĠData": 6561,
      "assert": 6562,
      "Ġvisit": 6563,
      "ĠBase": 6564,
      "Ġinteger": 6565,
      "Ġobservation": 6566,
      "Ġreceive": 6567,
      "ĠDevelopment": 6568,
      "Ġtasks": 6569,
      "names": 6570,
      "ĠCentre": 6571,
      "title": 6572,
      "ĠIran": 6573,
      "Ġeth": 6574,
      "omic": 6575,
      "Ġlived": 6576,
      "law": 6577,
      "Art": 6578,
      "Ġvote": 6579,
      "sued": 6580,
      "Ġmurder": 6581,
      "Ġorth": 6582,
      "Ġproport": 6583,
      "aters": 6584,
      "})$,": 6585,
      "Ġexc": 6586,
      "Ġcommission": 6587,
      "How": 6588,
      "ĠEr": 6589,
      "Ġbinary": 6590,
      "system": 6591,
      "IA": 6592,
      "only": 6593,
      "Sch": 6594,
      ")-\\": 6595,
      "eness": 6596,
      "}}$,": 6597,
      "start": 6598,
      "fin": 6599,
      "tained": 6600,
      "Ġexpert": 6601,
      "ĠÂ£": 6602,
      "asure": 6603,
      "room": 6604,
      "default": 6605,
      "ipped": 6606,
      "Ġtesting": 6607,
      "Code": 6608,
      "Ġrise": 6609,
      "Ġice": 6610,
      "ears": 6611,
      "SR": 6612,
      "ĠUSA": 6613,
      "Ġdistingu": 6614,
      "Ġhop": 6615,
      "airman": 6616,
      "Ġmagnitude": 6617,
      "Ġnotation": 6618,
      "))$": 6619,
      "}}$.": 6620,
      "Ġloop": 6621,
      "Ġtal": 6622,
      "Ġdisease": 6623,
      "soft": 6624,
      "Ġraised": 6625,
      "cd": 6626,
      "Ġenjoy": 6627,
      "yer": 6628,
      "rative": 6629,
      "Ġmassive": 6630,
      "Ġunderstanding": 6631,
      "Ġcovered": 6632,
      "ĠSar": 6633,
      "ila": 6634,
      "sen": 6635,
      "ĠJones": 6636,
      "Ġdrama": 6637,
      "Ġcycl": 6638,
      "such": 6639,
      "ĠSund": 6640,
      "Ġworth": 6641,
      "Ġindicate": 6642,
      "Ġoscill": 6643,
      "ĠUk": 6644,
      "opic": 6645,
      "ĠMount": 6646,
      "Ġcool": 6647,
      "Ġpain": 6648,
      "module": 6649,
      "ologies": 6650,
      "ĠLag": 6651,
      "miss": 6652,
      "Ġpriv": 6653,
      "Ġideal": 6654,
      "Me": 6655,
      "Ġpartners": 6656,
      "Ġvoice": 6657,
      "Ġhusband": 6658,
      "Ġarrest": 6659,
      "icine": 6660,
      "blue": 6661,
      "Ġgets": 6662,
      "ATE": 6663,
      "Ġfine": 6664,
      "isters": 6665,
      "ĠAsia": 6666,
      "ĠSong": 6667,
      "ilation": 6668,
      "Ġminimal": 6669,
      "Ġdefeated": 6670,
      "strong": 6671,
      "adow": 6672,
      "rane": 6673,
      "bury": 6674,
      "ĠCr": 6675,
      "Ġnothing": 6676,
      "Ġinduced": 6677,
      "LT": 6678,
      "Ġcouple": 6679,
      "ĠRadio": 6680,
      "Hand": 6681,
      "1963": 6682,
      "Che": 6683,
      "Ġcompl": 6684,
      "coming": 6685,
      "she": 6686,
      "[(": 6687,
      "ĠPak": 6688,
      "MR": 6689,
      "ĠDet": 6690,
      "ĠMov": 6691,
      "Dec": 6692,
      "ĠYour": 6693,
      "Ġgovern": 6694,
      "ĠTri": 6695,
      "ĠMem": 6696,
      "ĠBritain": 6697,
      "Ġnuclear": 6698,
      "1962": 6699,
      "ĠMen": 6700,
      "ĠFinally": 6701,
      "PP": 6702,
      "Ġanalog": 6703,
      "ennis": 6704,
      "ĠJohnson": 6705,
      "Next": 6706,
      "Ġcomposed": 6707,
      "ĠCamb": 6708,
      "';": 6709,
      "eller": 6710,
      "uer": 6711,
      "Ġign": 6712,
      "SA": 6713,
      "Ġoverl": 6714,
      "gt": 6715,
      "Ġordered": 6716,
      "ogeneous": 6717,
      "Ġforeign": 6718,
      "cular": 6719,
      "Ġshared": 6720,
      "Ġamplitude": 6721,
      "Ġsafety": 6722,
      "Pop": 6723,
      "Ġprediction": 6724,
      "Size": 6725,
      "chers": 6726,
      "ĠLord": 6727,
      "ibr": 6728,
      "ĠMichigan": 6729,
      "Ġmaterials": 6730,
      "ĠConference": 6731,
      "Ġimag": 6732,
      "process": 6733,
      "Act": 6734,
      "ographic": 6735,
      "ructure": 6736,
      "Ġsingles": 6737,
      "cong": 6738,
      "Ġshowing": 6739,
      "Ġconclude": 6740,
      "Ġmountain": 6741,
      "Ġguarant": 6742,
      "Ġdepartment": 6743,
      "ĠCy": 6744,
      "cs": 6745,
      "}\\,\\": 6746,
      "Ġdiss": 6747,
      "Ġentered": 6748,
      "two": 6749,
      "md": 6750,
      "ĠSouthern": 6751,
      "Ġener": 6752,
      "Ġelim": 6753,
      "}{|": 6754,
      "ĠWay": 6755,
      "ĠIsrael": 6756,
      "ela": 6757,
      "Ġsociety": 6758,
      "Ġhistorical": 6759,
      "ĠTre": 6760,
      "ifies": 6761,
      "Ġgap": 6762,
      "actory": 6763,
      "ĠBattle": 6764,
      "Ġhelped": 6765,
      "Ġclaimed": 6766,
      "Ġprote": 6767,
      "jection": 6768,
      "stract": 6769,
      "ipage": 6770,
      "wer": 6771,
      "Ġrough": 6772,
      "ounds": 6773,
      "Ġfunctional": 6774,
      "Ġaxis": 6775,
      "Ġfluct": 6776,
      "Ġdrum": 6777,
      "Ġtracks": 6778,
      "ĠPrem": 6779,
      "Ġpartition": 6780,
      "Ġassign": 6781,
      "Ġnine": 6782,
      "ĠCivil": 6783,
      "ĠDemocratic": 6784,
      "ĠSu": 6785,
      "ĠOx": 6786,
      "ĠHead": 6787,
      "cf": 6788,
      "}{(": 6789,
      "Aust": 6790,
      ")}_{": 6791,
      "Ġlum": 6792,
      "minipage": 6793,
      "speople": 6794,
      "Ġfundamental": 6795,
      "Ġphenomen": 6796,
      "Ġcrick": 6797,
      "Ġdra": 6798,
      "ighter": 6799,
      "ĠCarl": 6800,
      "aya": 6801,
      "ĠJersey": 6802,
      "Ġtrying": 6803,
      "Ġoffered": 6804,
      "Ġhospital": 6805,
      "Ġwall": 6806,
      "aug": 6807,
      "open": 6808,
      "1944": 6809,
      "Ġtheoretical": 6810,
      "etts": 6811,
      "Ġcommunication": 6812,
      "Ġpartial": 6813,
      "cref": 6814,
      "ĠRh": 6815,
      "Ġcounty": 6816,
      "Ġmetal": 6817,
      "Introduction": 6818,
      "}$)": 6819,
      "Ġresist": 6820,
      "Work": 6821,
      "quot": 6822,
      "$),": 6823,
      "Ġ});": 6824,
      "Ġphysics": 6825,
      "Ġcalculations": 6826,
      "Sw": 6827,
      "iling": 6828,
      "Ġtouch": 6829,
      "Ġincome": 6830,
      "Color": 6831,
      "Ġcitiz": 6832,
      "content": 6833,
      "Bi": 6834,
      "Ġcalculation": 6835,
      "standing": 6836,
      "ĠBern": 6837,
      "Ġadopted": 6838,
      "Ġdepict": 6839,
      "Ġheat": 6840,
      "Results": 6841,
      "inois": 6842,
      "Ġseat": 6843,
      "Ġ$|\\": 6844,
      "\"\"": 6845,
      "Ġhole": 6846,
      "Ġarmy": 6847,
      "Ġconducted": 6848,
      "current": 6849,
      "ĠTem": 6850,
      "Ġdimensions": 6851,
      "burgh": 6852,
      "urban": 6853,
      "eld": 6854,
      "My": 6855,
      "Ġthermal": 6856,
      "ador": 6857,
      "####": 6858,
      "Ġpull": 6859,
      "~~~~": 6860,
      "Ġque": 6861,
      "Ent": 6862,
      "Ġblood": 6863,
      "uster": 6864,
      "onder": 6865,
      "Rel": 6866,
      "lets": 6867,
      "ĠFurthermore": 6868,
      "ested": 6869,
      ":}": 6870,
      "agnetic": 6871,
      "ĠScotland": 6872,
      "ashion": 6873,
      "Read": 6874,
      "Ġut": 6875,
      "Ġemp": 6876,
      "Ġpseud": 6877,
      "ĠOhio": 6878,
      "|}": 6879,
      "bottom": 6880,
      "onical": 6881,
      "****************": 6882,
      "Ġserious": 6883,
      "Ġvictory": 6884,
      "Ġgrid": 6885,
      "Par": 6886,
      "Ġweb": 6887,
      "Ġquadr": 6888,
      "Ġdegrees": 6889,
      "Ġcov": 6890,
      "Ġsurvey": 6891,
      "after": 6892,
      "osoph": 6893,
      "Ġtechnique": 6894,
      "ĠPacific": 6895,
      "Ġefforts": 6896,
      "ĠMajor": 6897,
      "claim": 6898,
      "Ġjoin": 6899,
      "ograp": 6900,
      "avel": 6901,
      "Ġparties": 6902,
      "ĠSand": 6903,
      "Ġfamous": 6904,
      "Ġtraffic": 6905,
      "Ġspl": 6906,
      "Ġdiscovered": 6907,
      "120": 6908,
      "Ġconsidering": 6909,
      "Ġobvious": 6910,
      "ĠEll": 6911,
      "Ġbeaut": 6912,
      "Ġion": 6913,
      "Ġchannels": 6914,
      "ĠAv": 6915,
      "CR": 6916,
      "DP": 6917,
      "Ġefficiency": 6918,
      "Ġ${": 6919,
      "1961": 6920,
      "Ġoil": 6921,
      "rance": 6922,
      "Ġrevealed": 6923,
      "Therefore": 6924,
      "poss": 6925,
      "ĠInf": 6926,
      "Ġsomeone": 6927,
      "ĠĠĠĠĠĠĠĠĠĠĠĠĠĠ": 6928,
      "ribe": 6929,
      "ĠMountain": 6930,
      "Ġconfirmed": 6931,
      "ez": 6932,
      "Ġinterface": 6933,
      "Ġletter": 6934,
      "ĠTechnology": 6935,
      "ulty": 6936,
      "Fl": 6937,
      "ĠHome": 6938,
      "Ġelections": 6939,
      "cccc": 6940,
      ")}}": 6941,
      "ĠBow": 6942,
      "ingham": 6943,
      "Ġgraphs": 6944,
      "imb": 6945,
      "haps": 6946,
      "Ġpil": 6947,
      "ĠGeorgia": 6948,
      "Ġfreedom": 6949,
      "pg": 6950,
      "Cor": 6951,
      "cat": 6952,
      "opping": 6953,
      "Ġkernel": 6954,
      "ĠAsian": 6955,
      "Ġclean": 6956,
      "ĠRos": 6957,
      "Ġpiece": 6958,
      "Ġcities": 6959,
      "Ġchemical": 6960,
      "Ġreligious": 6961,
      "Ġalone": 6962,
      "Ġencou": 6963,
      "aser": 6964,
      "ĠMah": 6965,
      "Ġnil": 6966,
      "Ġoptimization": 6967,
      "ĠEconom": 6968,
      "ĠVan": 6969,
      "Ġclusters": 6970,
      "Ġsal": 6971,
      "comple": 6972,
      "ipment": 6973,
      "Ġsubt": 6974,
      "bigl": 6975,
      "Ġrotation": 6976,
      "actor": 6977,
      "'m": 6978,
      "gies": 6979,
      "ĠHor": 6980,
      "ĠFrancisco": 6981,
      "emble": 6982,
      "Ġsurpr": 6983,
      "ibliography": 6984,
      "Ġoperated": 6985,
      "ĠMedia": 6986,
      "ĠEnter": 6987,
      "Ġiniti": 6988,
      "Ġvon": 6989,
      "Ġgradient": 6990,
      "ĠPhys": 6991,
      "Ġsuggested": 6992,
      "Ġpromin": 6993,
      "ĠKent": 6994,
      "Ġconj": 6995,
      "Ġnative": 6996,
      "achus": 6997,
      "Ġleaves": 6998,
      "Ġrare": 6999,
      "Ġimplementation": 7000,
      "Conn": 7001,
      "Ñģ": 7002,
      "Ġneighborhood": 7003,
      "Box": 7004,
      "ĠPlan": 7005,
      "ĠMany": 7006,
      "valid": 7007,
      "ĠFC": 7008,
      "Ġthr": 7009,
      "ĠCorpor": 7010,
      "adel": 7011,
      "Ġconflic": 7012,
      "gypt": 7013,
      "Ġinfinite": 7014,
      "Ġassigned": 7015,
      "Ġlayers": 7016,
      "Ġbatt": 7017,
      "ĠSpecial": 7018,
      "ĠBlue": 7019,
      "Log": 7020,
      "Ġdepending": 7021,
      "ĠRead": 7022,
      "ĠWilliams": 7023,
      "Ġscales": 7024,
      "Ġuniversity": 7025,
      "Ġ^{": 7026,
      "ĠQueen": 7027,
      "ĠVi": 7028,
      "Ġtru": 7029,
      "ĠUsing": 7030,
      "uous": 7031,
      "ĠUr": 7032,
      "EX": 7033,
      "info": 7034,
      "-$": 7035,
      "Ġreports": 7036,
      "amm": 7037,
      "ĠLuc": 7038,
      "Ġsubgroup": 7039,
      "aped": 7040,
      "Ġgeometry": 7041,
      "Gu": 7042,
      "aa": 7043,
      "tainer": 7044,
      ",{\\": 7045,
      "ĠMu": 7046,
      ",$": 7047,
      "Ġbass": 7048,
      "Ġrecording": 7049,
      "cknowled": 7050,
      "bigr": 7051,
      "spect": 7052,
      "itivity": 7053,
      "Ġangular": 7054,
      "HS": 7055,
      "Ġdivided": 7056,
      "Finally": 7057,
      "ĠST": 7058,
      "Line": 7059,
      "alty": 7060,
      "Ġserving": 7061,
      "1958": 7062,
      "%)": 7063,
      "uffer": 7064,
      "1942": 7065,
      "ĠSpe": 7066,
      "ĠBu": 7067,
      "Ġlimits": 7068,
      "Ġusual": 7069,
      "Ġactors": 7070,
      "itage": 7071,
      "National": 7072,
      "Ġorganizations": 7073,
      "ĠEdward": 7074,
      "ĠAN": 7075,
      "Ġalleg": 7076,
      "mak": 7077,
      "Ġtrial": 7078,
      "abeth": 7079,
      "ĠLab": 7080,
      "ULL": 7081,
      "Ġofficers": 7082,
      "Ġacts": 7083,
      "Ġfle": 7084,
      "Ġhar": 7085,
      "vol": 7086,
      "ĠGi": 7087,
      "udget": 7088,
      "ĠCharl": 7089,
      "nergy": 7090,
      "ĠCoast": 7091,
      "ĠJewish": 7092,
      "Ġorders": 7093,
      "oir": 7094,
      "ĠCro": 7095,
      "nam": 7096,
      "edia": 7097,
      "onia": 7098,
      "Ġexception": 7099,
      "oles": 7100,
      "=\"#": 7101,
      "ĠSenate": 7102,
      "Ġinterested": 7103,
      "ĠPower": 7104,
      "uting": 7105,
      "Ġ/*": 7106,
      "Ġdescent": 7107,
      "Ġrepro": 7108,
      "achusetts": 7109,
      "mathop": 7110,
      "len": 7111,
      "Ġuncertainty": 7112,
      "stone": 7113,
      "Ġallowing": 7114,
      "hu": 7115,
      "...,": 7116,
      "floor": 7117,
      "Ġcrew": 7118,
      "Ġitems": 7119,
      "${\\": 7120,
      "Ġapart": 7121,
      "dy": 7122,
      "Ġdelay": 7123,
      "Ġimportance": 7124,
      "Ġacting": 7125,
      "ometric": 7126,
      "CL": 7127,
      "El": 7128,
      "ĠManagement": 7129,
      "otype": 7130,
      "phas": 7131,
      "onto": 7132,
      "Ġgrowing": 7133,
      "1959": 7134,
      "ĠBoston": 7135,
      "Ġ[\\": 7136,
      "Ġwhereas": 7137,
      "oday": 7138,
      "Ġwidely": 7139,
      "Ġchart": 7140,
      "Ġmodified": 7141,
      "1948": 7142,
      "po": 7143,
      "Ġdrive": 7144,
      "Ġbelieved": 7145,
      "tan": 7146,
      "1956": 7147,
      "({": 7148,
      "Ġcoefficient": 7149,
      "ĠMid": 7150,
      "aturing": 7151,
      "ĠGame": 7152,
      "ĠModel": 7153,
      "ĠTheatre": 7154,
      "ync": 7155,
      "Ġroll": 7156,
      "rect": 7157,
      "ĠPoland": 7158,
      "static": 7159,
      "Ġadvantage": 7160,
      "mitted": 7161,
      "herent": 7162,
      "Ġapparent": 7163,
      "Ġnearby": 7164,
      "Ġimproved": 7165,
      "ĠKong": 7166,
      "create": 7167,
      "Dis": 7168,
      "ĠRepresent": 7169,
      "lesssim": 7170,
      "ione": 7171,
      "Ġvirtual": 7172,
      "ĠTaylor": 7173,
      "Ġcomposition": 7174,
      "build": 7175,
      "$_{": 7176,
      "Ġbounds": 7177,
      "Ġhundred": 7178,
      "gr": 7179,
      "Ġdecomposition": 7180,
      "ĠDutch": 7181,
      "ĠBal": 7182,
      "enger": 7183,
      "ĠStand": 7184,
      "DB": 7185,
      "bel": 7186,
      "tx": 7187,
      "Ġsister": 7188,
      "Ġast": 7189,
      "\\;": 7190,
      "oned": 7191,
      "Ġsuc": 7192,
      "Item": 7193,
      "ulf": 7194,
      "Ġredshift": 7195,
      "Ġprinciple": 7196,
      "Ġprotected": 7197,
      "Ext": 7198,
      "Ġwestern": 7199,
      "ĠRay": 7200,
      "going": 7201,
      "Ġbright": 7202,
      "ĠDes": 7203,
      "Ġeffort": 7204,
      "ĠBuild": 7205,
      "Ġ-->": 7206,
      "ĉĉĉĉĉĉ": 7207,
      "Ġsubsequently": 7208,
      "Ġisol": 7209,
      "uum": 7210,
      "Ã±": 7211,
      "disc": 7212,
      "Using": 7213,
      "TH": 7214,
      "Ġships": 7215,
      "Ġarticles": 7216,
      "oute": 7217,
      "Ġdrop": 7218,
      "Ġsettlement": 7219,
      "ĠWater": 7220,
      "eech": 7221,
      "Ġcolon": 7222,
      "Ġreasons": 7223,
      "Ġacceler": 7224,
      "Ġconvex": 7225,
      "Ġsquad": 7226,
      "bot": 7227,
      "OC": 7228,
      "Method": 7229,
      ",\\\\": 7230,
      "pa": 7231,
      "1957": 7232,
      "ĠPrince": 7233,
      "ĠIllinois": 7234,
      "EL": 7235,
      "rank": 7236,
      "uries": 7237,
      "Ġexponential": 7238,
      "Ġoperating": 7239,
      "Brit": 7240,
      "FI": 7241,
      "Ġsched": 7242,
      "Call": 7243,
      "onds": 7244,
      "Ġcancer": 7245,
      "Ġanything": 7246,
      "Ġdiam": 7247,
      "osis": 7248,
      "Ġdevices": 7249,
      "That": 7250,
      "outhe": 7251,
      "Ġscaling": 7252,
      "Ġitem": 7253,
      "Ġfinding": 7254,
      "uli": 7255,
      "Ġcoordinate": 7256,
      "irds": 7257,
      "ĠHa": 7258,
      "Ġevaluation": 7259,
      "rows": 7260,
      "Ġpartner": 7261,
      "ĠCard": 7262,
      "Ġwa": 7263,
      "DM": 7264,
      "ĠGovernor": 7265,
      "Ð¾Ð": 7266,
      "Ġvariation": 7267,
      "Ġdenoted": 7268,
      "results": 7269,
      "Ġirre": 7270,
      "Ġbridge": 7271,
      "ĠAcc": 7272,
      "ĠJoe": 7273,
      "orough": 7274,
      "Ġattacks": 7275,
      "Aut": 7276,
      "Ġlemma": 7277,
      "Ġfootballer": 7278,
      "Ġreturns": 7279,
      "Ġspecified": 7280,
      "Ġrecall": 7281,
      "Ġresidents": 7282,
      "ogen": 7283,
      "Ġpicture": 7284,
      "Ġ===": 7285,
      "Ġlif": 7286,
      "Ġregional": 7287,
      "Ġcomplexity": 7288,
      "Ġdiscrete": 7289,
      "Mon": 7290,
      "ga": 7291,
      "het": 7292,
      "Section": 7293,
      "hetic": 7294,
      "ĠPolice": 7295,
      ":=": 7296,
      "ilbert": 7297,
      "arters": 7298,
      "Ġfelt": 7299,
      "ĠWilson": 7300,
      "Ġcouncil": 7301,
      "tw": 7302,
      "Ġwild": 7303,
      "Ġcarri": 7304,
      "Ġmedium": 7305,
      "Ġtraject": 7306,
      "Ġowners": 7307,
      "Ġnarrow": 7308,
      "ynamic": 7309,
      "Ġmarked": 7310,
      "Ġsolve": 7311,
      "idel": 7312,
      "cut": 7313,
      "Ġacquired": 7314,
      "vin": 7315,
      "forward": 7316,
      "vector": 7317,
      "1943": 7318,
      "ĠMiddle": 7319,
      "ithub": 7320,
      "image": 7321,
      "forms": 7322,
      "Ġmanaged": 7323,
      "ĠMot": 7324,
      "Message": 7325,
      "OP": 7326,
      "1939": 7327,
      "Ġscenario": 7328,
      "integ": 7329,
      "$:": 7330,
      "Ġcomedy": 7331,
      "erc": 7332,
      "Ġimplic": 7333,
      "Ġpoliticians": 7334,
      "context": 7335,
      "Ġexplained": 7336,
      "include": 7337,
      "iem": 7338,
      "Ġlocations": 7339,
      "ĠStan": 7340,
      "enant": 7341,
      "ĠPop": 7342,
      "Ġmill": 7343,
      "OL": 7344,
      "Ġtechnical": 7345,
      "event": 7346,
      "odies": 7347,
      "Ġvehicle": 7348,
      "1941": 7349,
      "rage": 7350,
      "ĠLim": 7351,
      "ename": 7352,
      "anging": 7353,
      "dependent": 7354,
      "Ġsuggests": 7355,
      "Ġthous": 7356,
      "osure": 7357,
      "Ġbin": 7358,
      "Ġentropy": 7359,
      "ĠEp": 7360,
      "ĠSM": 7361,
      "ĠPortug": 7362,
      "United": 7363,
      "iser": 7364,
      "element": 7365,
      "Ġtests": 7366,
      "^*$": 7367,
      "Ġintegration": 7368,
      "Resp": 7369,
      "Ġcommonly": 7370,
      "Ġ^": 7371,
      "Ġinstr": 7372,
      "rie": 7373,
      "func": 7374,
      "oom": 7375,
      "ĠCommunity": 7376,
      "number": 7377,
      "ariance": 7378,
      "Ġremark": 7379,
      "Ġsides": 7380,
      "scriptstyle": 7381,
      "ĠJr": 7382,
      "ĠIslam": 7383,
      "ĠSea": 7384,
      "diag": 7385,
      "Ġlocally": 7386,
      "Ġdescribes": 7387,
      "ĠBroad": 7388,
      "igration": 7389,
      "\\)": 7390,
      "Ġstress": 7391,
      "ĠAndrew": 7392,
      "Ġnamely": 7393,
      "ĠMassachusetts": 7394,
      "chester": 7395,
      "web": 7396,
      "Ġcharacteristic": 7397,
      "Ġcandidates": 7398,
      "igger": 7399,
      "Ġresource": 7400,
      "defined": 7401,
      "='": 7402,
      "Post": 7403,
      "doc": 7404,
      "Ġcalculate": 7405,
      "Ġpp": 7406,
      "Dist": 7407,
      "ĠRailway": 7408,
      "Ġflight": 7409,
      "perties": 7410,
      "ĠEst": 7411,
      "Ġrobust": 7412,
      "Ġindeed": 7413,
      "Ġsort": 7414,
      "ĠBecause": 7415,
      "Ġclaims": 7416,
      "Ġorbit": 7417,
      "Ġsatisfying": 7418,
      "Ġfort": 7419,
      "yles": 7420,
      "ucky": 7421,
      "Ġsucceed": 7422,
      "Ġdedicated": 7423,
      "Ġkept": 7424,
      "ĠNight": 7425,
      "Ġsecondary": 7426,
      "Ġcond": 7427,
      "Ġtrees": 7428,
      "ipe": 7429,
      "CM": 7430,
      "del": 7431,
      "ĠEastern": 7432,
      "gers": 7433,
      "odd": 7434,
      "ĠWall": 7435,
      "itness": 7436,
      "igr": 7437,
      "orney": 7438,
      "Ġprojection": 7439,
      "ĠHuman": 7440,
      "Ġcultural": 7441,
      "Ġlanguages": 7442,
      "Ġtrust": 7443,
      "Ġadding": 7444,
      "Ġeverything": 7445,
      "Ġretired": 7446,
      "ori": 7447,
      "FR": 7448,
      "called": 7449,
      "ĠWild": 7450,
      "Ġplanet": 7451,
      "Ġprimarily": 7452,
      "ĠScottish": 7453,
      "Ġpix": 7454,
      "Ġstatistical": 7455,
      "ĠĠĠĠĠĠĠĠĠĠĠĠĠĠĠĠĠ": 7456,
      "Ġfloor": 7457,
      "Ġissued": 7458,
      "ronic": 7459,
      "1946": 7460,
      "font": 7461,
      "iger": 7462,
      "aby": 7463,
      "Ġ\\(\\": 7464,
      "Ġlibrary": 7465,
      "Ġlett": 7466,
      "lead": 7467,
      "final": 7468,
      "Ġ$.": 7469,
      "anged": 7470,
      "bal": 7471,
      "Ġcoinc": 7472,
      "ĠBul": 7473,
      "vature": 7474,
      "Ġorganized": 7475,
      "ĠOxford": 7476,
      "Ġpowerful": 7477,
      "ĠAff": 7478,
      "stable": 7479,
      "white": 7480,
      "Ġpropos": 7481,
      "1952": 7482,
      "teen": 7483,
      "Ġtrend": 7484,
      "amber": 7485,
      "]$.": 7486,
      "lock": 7487,
      "riend": 7488,
      "vee": 7489,
      "ĠCP": 7490,
      "1955": 7491,
      "false": 7492,
      "ĠÎ": 7493,
      "Top": 7494,
      "uler": 7495,
      "$};": 7496,
      "mosp": 7497,
      "lication": 7498,
      "Ġtend": 7499,
      "Ġisomorphism": 7500,
      "Ġjava": 7501,
      "Ġquery": 7502,
      "java": 7503,
      "zz": 7504,
      "Ġclubs": 7505,
      "Ġevol": 7506,
      "ĠGar": 7507,
      "ĠFar": 7508,
      "tfrac": 7509,
      "Ġdoc": 7510,
      "Ġ{$": 7511,
      "una": 7512,
      "ultane": 7513,
      "Ġstability": 7514,
      "iate": 7515,
      "occer": 7516,
      "))\\": 7517,
      "Ġmedian": 7518,
      "iced": 7519,
      "Ġmuseum": 7520,
      "VD": 7521,
      "Ġtail": 7522,
      "ĠÅ": 7523,
      "Ġextends": 7524,
      "clusions": 7525,
      "weet": 7526,
      "itzer": 7527,
      "Ġinstrument": 7528,
      "ĠSecretary": 7529,
      "Ġlie": 7530,
      "ontal": 7531,
      "Query": 7532,
      "Ġsales": 7533,
      "ayout": 7534,
      "Ġbands": 7535,
      "INE": 7536,
      "illy": 7537,
      "Ġdatasets": 7538,
      "cks": 7539,
      "sign": 7540,
      "thur": 7541,
      "\\}$.": 7542,
      "iec": 7543,
      "db": 7544,
      "oded": 7545,
      "Disc": 7546,
      "num": 7547,
      "emy": 7548,
      "Ġcreation": 7549,
      "Ġvertical": 7550,
      "ĠBang": 7551,
      "brid": 7552,
      "andemic": 7553,
      "ĠCreek": 7554,
      "Cre": 7555,
      "]}": 7556,
      "Ġinstall": 7557,
      "Ġrepresentations": 7558,
      ";&": 7559,
      "Ġ};": 7560,
      "ĠJes": 7561,
      "ĠLittle": 7562,
      "}}_{\\": 7563,
      "Ġneutr": 7564,
      "dney": 7565,
      "sche": 7566,
      "also": 7567,
      "ĠServices": 7568,
      "rs": 7569,
      "Ġregarding": 7570,
      "Ġconven": 7571,
      "Ġanswer": 7572,
      "ĠColumbia": 7573,
      "github": 7574,
      "Ġarguments": 7575,
      "Ġclient": 7576,
      "ĠJackson": 7577,
      "Ġcreating": 7578,
      "Ġremove": 7579,
      "antry": 7580,
      "sets": 7581,
      "Ġmultiplic": 7582,
      "ategory": 7583,
      "Ġepisodes": 7584,
      "\"),": 7585,
      "1947": 7586,
      "Ġhands": 7587,
      "Ac": 7588,
      "Members": 7589,
      "Year": 7590,
      "dfrac": 7591,
      "Ġexecutive": 7592,
      "})}": 7593,
      "Ġlabor": 7594,
      "ĠBa": 7595,
      "ĠDisc": 7596,
      "ĠHung": 7597,
      "Ġprofessor": 7598,
      "Ġequipment": 7599,
      "Ġap": 7600,
      "Ġpersonnel": 7601,
      "Ġradiation": 7602,
      "Ġcert": 7603,
      "ogs": 7604,
      "unit": 7605,
      "Ġequilibrium": 7606,
      "Ġflag": 7607,
      "Ġsummar": 7608,
      "ĠDar": 7609,
      "Result": 7610,
      "mediate": 7611,
      "ographer": 7612,
      "Ġcharged": 7613,
      "Ġextend": 7614,
      "AF": 7615,
      "DS": 7616,
      "Ġfans": 7617,
      "ĠEgypt": 7618,
      "Ġmapping": 7619,
      "orig": 7620,
      "Ġintended": 7621,
      "Ġabund": 7622,
      "ĠGoogle": 7623,
      "Ġfellow": 7624,
      "sat": 7625,
      "ropol": 7626,
      "Oper": 7627,
      "Ġtell": 7628,
      "Will": 7629,
      "phant": 7630,
      "ĠCat": 7631,
      "Ġconsequence": 7632,
      "Manager": 7633,
      "ĠPoint": 7634,
      "ĠWis": 7635,
      "Ġfigures": 7636,
      "])": 7637,
      "lections": 7638,
      "Sm": 7639,
      "ĠColor": 7640,
      "Ġmess": 7641,
      "ĠHospital": 7642,
      "Ġyouth": 7643,
      "ĠSports": 7644,
      "ĠAsh": 7645,
      "ĠBell": 7646,
      "ĠStation": 7647,
      "Ġclin": 7648,
      "Ġestimation": 7649,
      "ĠFace": 7650,
      "Ġprocessing": 7651,
      "}})": 7652,
      "Ġthin": 7653,
      "Ġdimensional": 7654,
      "gest": 7655,
      "Ġcapture": 7656,
      "Ġemphas": 7657,
      "Ġlab": 7658,
      "Ġdial": 7659,
      "ĠAirport": 7660,
      "}[\\": 7661,
      "1954": 7662,
      "ĠHong": 7663,
      "Ġcollected": 7664,
      "ĠSciences": 7665,
      "Ġmathemat": 7666,
      "TT": 7667,
      "ĠGirl": 7668,
      "Ġversions": 7669,
      "Ġprincipal": 7670,
      "ĠLatin": 7671,
      "rovers": 7672,
      "Ġstarts": 7673,
      "Ġcosts": 7674,
      "ĠFour": 7675,
      "Ġpolic": 7676,
      "Ġtempor": 7677,
      "Ġconcert": 7678,
      "ĠPubl": 7679,
      "Ġinvolving": 7680,
      "longrightarrow": 7681,
      "ĠRun": 7682,
      "algorithm": 7683,
      "Ġturns": 7684,
      "Ġrequirements": 7685,
      "Ġcatch": 7686,
      "ĠJon": 7687,
      "Ġadministration": 7688,
      "Ġprogramming": 7689,
      "inson": 7690,
      "Ġresear": 7691,
      "dep": 7692,
      "ĠEven": 7693,
      "Ġideas": 7694,
      "ĠAssum": 7695,
      "ĠRepublican": 7696,
      "water": 7697,
      "elligence": 7698,
      "Source": 7699,
      "ĠSom": 7700,
      "ĠFer": 7701,
      "next": 7702,
      "dev": 7703,
      "1953": 7704,
      "Ġprime": 7705,
      "ester": 7706,
      "opher": 7707,
      "ologist": 7708,
      "ĠBrook": 7709,
      "ĠKen": 7710,
      "ĠFederal": 7711,
      "Ġferm": 7712,
      "Å¡": 7713,
      "Ġ\\!": 7714,
      "yset": 7715,
      "jected": 7716,
      "Rem": 7717,
      "Ġinvestigation": 7718,
      "Gl": 7719,
      "Ġowner": 7720,
      "ĠJustice": 7721,
      "Ġweap": 7722,
      "anta": 7723,
      "Ġdraft": 7724,
      "Ġnotice": 7725,
      "aren": 7726,
      "ĠKorea": 7727,
      "Ġcontinues": 7728,
      "Ġearned": 7729,
      "indows": 7730,
      "Ġbill": 7731,
      "Ġmarriage": 7732,
      "izabeth": 7733,
      "Ġcoal": 7734,
      "oses": 7735,
      "1949": 7736,
      "Ġobjective": 7737,
      "Ġcars": 7738,
      "Ġfacilities": 7739,
      "Ġjourn": 7740,
      "ĠType": 7741,
      "Ġsufficiently": 7742,
      "tty": 7743,
      "Ġassociation": 7744,
      "Ġpredicted": 7745,
      "joint": 7746,
      "Ġawards": 7747,
      "Ġlift": 7748,
      "Ġweights": 7749,
      "Ġunderlying": 7750,
      "vari": 7751,
      "Some": 7752,
      "ĠAnother": 7753,
      "ussion": 7754,
      "aming": 7755,
      "aved": 7756,
      "ĠDaniel": 7757,
      "Ġlaunch": 7758,
      "Ġrepresenting": 7759,
      "Ġdisapp": 7760,
      "Ġincident": 7761,
      "Ġsuitable": 7762,
      "acent": 7763,
      "British": 7764,
      "lers": 7765,
      "ĠLater": 7766,
      "Head": 7767,
      "Ġ\\&": 7768,
      "arse": 7769,
      "Ġlaws": 7770,
      "})=": 7771,
      "etal": 7772,
      "ĠSi": 7773,
      "hang": 7774,
      "sect": 7775,
      "Ġtwice": 7776,
      "Ġaffected": 7777,
      "ĠAlexander": 7778,
      "^{*": 7779,
      "---": 7780,
      "ensions": 7781,
      "conf": 7782,
      ">&": 7783,
      "Ġcomplic": 7784,
      "Ġhouses": 7785,
      "Ġtheories": 7786,
      "Ġarrived": 7787,
      "nic": 7788,
      "Ġopportunity": 7789,
      "Ġpaid": 7790,
      "ĠPlaces": 7791,
      "xx": 7792,
      "Ġreviews": 7793,
      "]$,": 7794,
      "Off": 7795,
      "ĠUs": 7796,
      "estic": 7797,
      "car": 7798,
      "Ġperforming": 7799,
      "Ġtool": 7800,
      "Ġmotor": 7801,
      "Ġspirit": 7802,
      "uated": 7803,
      "Ġbos": 7804,
      "Ġtranslation": 7805,
      "call": 7806,
      "fold": 7807,
      "ĠConserv": 7808,
      "fort": 7809,
      "})^": 7810,
      "Ġstreet": 7811,
      "ochastic": 7812,
      "clusive": 7813,
      "Ġbillion": 7814,
      "Ġlargely": 7815,
      "actic": 7816,
      "omer": 7817,
      "Ġemployed": 7818,
      "itical": 7819,
      "amin": 7820,
      "Dem": 7821,
      "hens": 7822,
      "Ġapplying": 7823,
      "Ġinverse": 7824,
      "zen": 7825,
      "sey": 7826,
      "Ġhope": 7827,
      "notes": 7828,
      "Ġsomew": 7829,
      "ulpt": 7830,
      "ĠCorn": 7831,
      "ĠOnt": 7832,
      "Right": 7833,
      "found": 7834,
      "Ġeq": 7835,
      "pool": 7836,
      "=\"../../../../": 7837,
      "ĠLight": 7838,
      "Ġempty": 7839,
      "Ġevaluate": 7840,
      "Ġfailure": 7841,
      "'.": 7842,
      "Ġwinner": 7843,
      "flu": 7844,
      "ĠVictoria": 7845,
      "}}.": 7846,
      "ĠBerlin": 7847,
      "iota": 7848,
      "ĠWeb": 7849,
      "write": 7850,
      "yo": 7851,
      "step": 7852,
      "Ġhockey": 7853,
      "bec": 7854,
      "ĠJeff": 7855,
      "Property": 7856,
      "ĠBoy": 7857,
      "ĠLead": 7858,
      "ierarch": 7859,
      "III": 7860,
      "fs": 7861,
      "dule": 7862,
      "Ġquark": 7863,
      "University": 7864,
      "Ġ\\]": 7865,
      "Ġ__": 7866,
      "emptyset": 7867,
      "Ġconvent": 7868,
      "UE": 7869,
      "Ġlearned": 7870,
      "Ġdaily": 7871,
      "dat": 7872,
      "ĠFree": 7873,
      "Ġtoward": 7874,
      "Ġblocks": 7875,
      "ometry": 7876,
      "ĠFollowing": 7877,
      "=\"../": 7878,
      "Ġswitch": 7879,
      "Ġcaptured": 7880,
      "110": 7881,
      "Ġtools": 7882,
      "Ġcalls": 7883,
      "Ġfifth": 7884,
      "ĠWeek": 7885,
      "1951": 7886,
      "Ġagents": 7887,
      "Ġgravit": 7888,
      "ruit": 7889,
      "ĠVill": 7890,
      "Ġneural": 7891,
      "ĠMicro": 7892,
      "Ġconference": 7893,
      "obs": 7894,
      "Ġsubstant": 7895,
      "ĠBelg": 7896,
      "iful": 7897,
      "pson": 7898,
      "Ġshell": 7899,
      "Ġfocused": 7900,
      "ĠAppendix": 7901,
      "Ġtried": 7902,
      "Ġstrugg": 7903,
      "ĠSuch": 7904,
      "athan": 7905,
      "pto": 7906,
      "Ġderivative": 7907,
      "Ġdesired": 7908,
      "Ġtransferred": 7909,
      "ONT": 7910,
      "pat": 7911,
      "apse": 7912,
      "Ġdiagonal": 7913,
      "ĠLog": 7914,
      "Ġdetected": 7915,
      "ĠInformation": 7916,
      "ĠUN": 7917,
      "AV": 7918,
      "Cal": 7919,
      "'ve": 7920,
      "Ġopposite": 7921,
      ";\\;\\": 7922,
      "Ġancient": 7923,
      "250": 7924,
      "Ġeveryone": 7925,
      "Ġinvestigate": 7926,
      "Cell": 7927,
      "RS": 7928,
      "Ġaccurate": 7929,
      "Min": 7930,
      "ĠProfessor": 7931,
      "Ġsubsequent": 7932,
      ":#": 7933,
      ",\\,\\": 7934,
      "Ġdamage": 7935,
      "Ġbra": 7936,
      "ĠPolish": 7937,
      "Ġluminos": 7938,
      "apes": 7939,
      "ÅĤ": 7940,
      "General": 7941,
      "tail": 7942,
      "ĠThree": 7943,
      "ederation": 7944,
      "][]{": 7945,
      "ĠBC": 7946,
      "itative": 7947,
      "Ġattend": 7948,
      "Ġshock": 7949,
      "Ġscript": 7950,
      "ĠMedical": 7951,
      "uv": 7952,
      "Ġconstants": 7953,
      "\").": 7954,
      "ennes": 7955,
      "Ġnone": 7956,
      "Ġ}{": 7957,
      "Ġofficials": 7958,
      "ocated": 7959,
      "phia": 7960,
      "Ġpsych": 7961,
      "Base": 7962,
      "Ġexplicitly": 7963,
      "high": 7964,
      "Ġsolar": 7965,
      "Ġacademic": 7966,
      "Ġaccepted": 7967,
      "leep": 7968,
      "Ġalt": 7969,
      "Ġmunicipality": 7970,
      "Ġenh": 7971,
      "Ġsampling": 7972,
      "Ġmixing": 7973,
      "Ġtransmission": 7974,
      "Although": 7975,
      "ĠCorps": 7976,
      "Ġlock": 7977,
      "Ġpeace": 7978,
      "Ġclimate": 7979,
      "medskip": 7980,
      "Ġcook": 7981,
      "ĠOrgan": 7982,
      "[-": 7983,
      "Ġnet": 7984,
      "ĠPen": 7985,
      "Ġchallenge": 7986,
      "|}{": 7987,
      "Ġrespond": 7988,
      "Ġdynamic": 7989,
      "hol": 7990,
      "Ġenergies": 7991,
      "ami": 7992,
      "ĠMike": 7993,
      "ĠArgent": 7994,
      "Ġmiles": 7995,
      "--------------------------------": 7996,
      "May": 7997,
      "Ġpatterns": 7998,
      "ĠMinistry": 7999,
      "cisely": 8000,
      "Ġends": 8001,
      "Ġmotiv": 8002,
      "Ġ({\\": 8003,
      "aki": 8004,
      "ĠDer": 8005,
      "ci": 8006,
      "Ġbaseball": 8007,
      "ĠLo": 8008,
      "Ġrestaur": 8009,
      "Ġmanner": 8010,
      "algebra": 8011,
      "ĠIndust": 8012,
      "zech": 8013,
      "plane": 8014,
      "World": 8015,
      "Track": 8016,
      "Ġimplemented": 8017,
      "eman": 8018,
      "Ġeastern": 8019,
      "Ġvehicles": 8020,
      "Ã¡n": 8021,
      "Ġwrong": 8022,
      "ĠBon": 8023,
      "Ã¢": 8024,
      "Ġfeaturing": 8025,
      "ĠGuard": 8026,
      "}_{-": 8027,
      "fi": 8028,
      "iga": 8029,
      "Ġera": 8030,
      "ensities": 8031,
      "Ġbeat": 8032,
      "Ġpossibly": 8033,
      "ĠAst": 8034,
      "imately": 8035,
      "writer": 8036,
      "ĠKenn": 8037,
      "Ġtruth": 8038,
      "$&": 8039,
      "Ã£": 8040,
      "bro": 8041,
      "Ġdiver": 8042,
      "Ġassumptions": 8043,
      "brace": 8044,
      "Ġalongside": 8045,
      "inion": 8046,
      "Do": 8047,
      "ĠAp": 8048,
      "}}^{\\": 8049,
      "Ġplus": 8050,
      "ĠMain": 8051,
      "ĠBBC": 8052,
      "lementary": 8053,
      "hard": 8054,
      "angular": 8055,
      "Ġmaximal": 8056,
      "Ġreaction": 8057,
      "ĠIslands": 8058,
      "Ġdeploy": 8059,
      "Ġbehaviour": 8060,
      "ropical": 8061,
      "ĠSydney": 8062,
      "TC": 8063,
      "Ġsurrounding": 8064,
      "ĠVis": 8065,
      "Ġsrc": 8066,
      "adelphia": 8067,
      "Ġpossibility": 8068,
      "Ġplanned": 8069,
      "Ġradial": 8070,
      "Ġadvert": 8071,
      "paragraph": 8072,
      "formal": 8073,
      "Ġvictim": 8074,
      "ĠSunday": 8075,
      "ĠBand": 8076,
      "leton": 8077,
      "Ġpowers": 8078,
      "Ġserver": 8079,
      "ĠDig": 8080,
      "]{\\": 8081,
      "riev": 8082,
      "ĠCommon": 8083,
      "Sing": 8084,
      "Ġdie": 8085,
      "Ġfinds": 8086,
      "Ġabsolute": 8087,
      "ows": 8088,
      "Ġpra": 8089,
      "Ġinspired": 8090,
      "ĠJean": 8091,
      "Ġengineering": 8092,
      "Ġdust": 8093,
      "ERT": 8094,
      "Ġliqu": 8095,
      "ourier": 8096,
      "bras": 8097,
      "Ġelectronic": 8098,
      "1918": 8099,
      "Ġbulk": 8100,
      "Ġadjust": 8101,
      "Ġpandemic": 8102,
      "Us": 8103,
      "}}}\\": 8104,
      "DR": 8105,
      "ĠIndeed": 8106,
      "ĠAnton": 8107,
      "ĠDesign": 8108,
      "Ġplanning": 8109,
      "Ġagreed": 8110,
      "1936": 8111,
      "ĠRod": 8112,
      "ĠSupreme": 8113,
      "vart": 8114,
      "BM": 8115,
      "Ġbias": 8116,
      "ĠStat": 8117,
      "ĠChris": 8118,
      "omy": 8119,
      "Ġtroops": 8120,
      "ĠOlympic": 8121,
      "agon": 8122,
      "ifer": 8123,
      "othing": 8124,
      "ĠBack": 8125,
      "Ġhonor": 8126,
      "Ġappearances": 8127,
      "heta": 8128,
      "Ġven": 8129,
      "unte": 8130,
      "ĠTam": 8131,
      "Ġcontrad": 8132,
      "Ġboy": 8133,
      "ĠOntario": 8134,
      "anth": 8135,
      "ĠMuslim": 8136,
      "Ġcitizens": 8137,
      "Ġpit": 8138,
      "roller": 8139,
      "Ġlatest": 8140,
      "Ġspecifically": 8141,
      "Ġroles": 8142,
      "Ġcorpor": 8143,
      "Ġrepresentative": 8144,
      "ĠCorporation": 8145,
      "oli": 8146,
      "Ġplants": 8147,
      "Ġspeech": 8148,
      "Ġconstitu": 8149,
      "Ġbegins": 8150,
      "PL": 8151,
      "Ġsimultane": 8152,
      "They": 8153,
      "1938": 8154,
      "Ġleadership": 8155,
      "Ġathlet": 8156,
      "elect": 8157,
      "ĠSa": 8158,
      "ni": 8159,
      "ĠViet": 8160,
      "Tra": 8161,
      "Austral": 8162,
      "Ġdriving": 8163,
      "Ġconsec": 8164,
      "riday": 8165,
      "ictures": 8166,
      "Ġouter": 8167,
      "Sport": 8168,
      "ĠMaster": 8169,
      "apped": 8170,
      "ĠLew": 8171,
      "Ġnewspaper": 8172,
      "ĠRen": 8173,
      "ingly": 8174,
      "urer": 8175,
      "onym": 8176,
      "Ġsust": 8177,
      "DC": 8178,
      ")}_": 8179,
      "Ġtrip": 8180,
      "Ġcomputing": 8181,
      "Ġprovince": 8182,
      "bmatrix": 8183,
      "Ġoccurred": 8184,
      "Ġcompeted": 8185,
      "ĠGer": 8186,
      "life": 8187,
      "Ġchance": 8188,
      "Music": 8189,
      "ĠCur": 8190,
      "sg": 8191,
      "Ġturb": 8192,
      "ropic": 8193,
      "Ġtrivial": 8194,
      "Ġatmosp": 8195,
      "ups": 8196,
      "Ġsequences": 8197,
      "Ġconsisting": 8198,
      "aton": 8199,
      "Ġheav": 8200,
      "Ġjump": 8201,
      "ĠMarg": 8202,
      "ĠRaj": 8203,
      "raine": 8204,
      "ĠAM": 8205,
      "ĠBrad": 8206,
      "Ġpal": 8207,
      "nn": 8208,
      "ĠKey": 8209,
      "Ġ,\\": 8210,
      "Ġintensity": 8211,
      "Ġcategories": 8212,
      "Ġprominent": 8213,
      "ĠStudies": 8214,
      "ĠRegion": 8215,
      "etherlands": 8216,
      "ĠĠĠĠĠĠĠĠĠĠĠĠĠĠĠĠĠĠĠĠĠĠĠĠĠĠĠĠĠĠĠ": 8217,
      "ĠCas": 8218,
      "Ġderive": 8219,
      "Response": 8220,
      "Ġpages": 8221,
      "Ġprepar": 8222,
      "Ġcamera": 8223,
      "Ġwaves": 8224,
      "scape": 8225,
      "ĠPrime": 8226,
      "Ġmeant": 8227,
      "float": 8228,
      "Ġexpanded": 8229,
      "Ġrelax": 8230,
      "Ġcrim": 8231,
      "Ġnonlinear": 8232,
      "Ġfrag": 8233,
      "Ġcurvature": 8234,
      "aux": 8235,
      "Ġgeneralized": 8236,
      "ĠAdd": 8237,
      "Ġsupply": 8238,
      "Ġconnect": 8239,
      "ĠAR": 8240,
      "Ġlabels": 8241,
      "Ġrecognition": 8242,
      "ĉĉĊ": 8243,
      "Ġjet": 8244,
      "Ġindicated": 8245,
      "Ġnor": 8246,
      "orthe": 8247,
      "bourne": 8248,
      "formance": 8249,
      "600": 8250,
      "ĠRog": 8251,
      "ĠEu": 8252,
      "gebras": 8253,
      "ais": 8254,
      "power": 8255,
      "ĠFamily": 8256,
      "Ġtells": 8257,
      "Em": 8258,
      "Ġhandle": 8259,
      "iang": 8260,
      "uri": 8261,
      "Ġpromoted": 8262,
      "Ġcorner": 8263,
      "ĠCirc": 8264,
      "ĠToronto": 8265,
      "Ġmorning": 8266,
      "ĠReturn": 8267,
      "Ġcanonical": 8268,
      "tiny": 8269,
      "Song": 8270,
      "Ġtemperatures": 8271,
      "heim": 8272,
      "ĠAvenue": 8273,
      "Proof": 8274,
      "risis": 8275,
      "Ġphoton": 8276,
      "Ġagree": 8277,
      "Ġcomments": 8278,
      "ĠChristmas": 8279,
      "Ġrepeated": 8280,
      "Ġrig": 8281,
      "Ġsuccessfully": 8282,
      "Ġlov": 8283,
      "struction": 8284,
      "ĠSant": 8285,
      "wing": 8286,
      "peror": 8287,
      "figures": 8288,
      "Ġextremely": 8289,
      "ĠNC": 8290,
      "ĠNS": 8291,
      "Ġpredictions": 8292,
      "Ġstock": 8293,
      "/(": 8294,
      "Ġmaxim": 8295,
      "Ġsend": 8296,
      "urations": 8297,
      "ĠAddition": 8298,
      "weg": 8299,
      "Image": 8300,
      "cale": 8301,
      "Client": 8302,
      "Ġtrace": 8303,
      "Ġgravity": 8304,
      "elihood": 8305,
      "ĠFair": 8306,
      "Ġinterior": 8307,
      "diff": 8308,
      "Ġtopological": 8309,
      "Input": 8310,
      "Hence": 8311,
      "fully": 8312,
      "ifferent": 8313,
      "Ġchanging": 8314,
      "hr": 8315,
      "ĠSher": 8316,
      "Ev": 8317,
      "Ġsatisfied": 8318,
      "consin": 8319,
      "Ġquantities": 8320,
      "Ġsilver": 8321,
      "Ġassistant": 8322,
      "gency": 8323,
      "ĠWalk": 8324,
      "utenant": 8325,
      "ĠAk": 8326,
      "utt": 8327,
      "OW": 8328,
      "Ġpet": 8329,
      "Ġfluid": 8330,
      "ĠOt": 8331,
      "general": 8332,
      "orship": 8333,
      "scriptsize": 8334,
      "Ġsession": 8335,
      "Ġserves": 8336,
      "Ġdance": 8337,
      "Ġcm": 8338,
      "Ġscientific": 8339,
      "Ġasymptotic": 8340,
      "Ġintegrated": 8341,
      "Writ": 8342,
      "Ġsoldiers": 8343,
      "Ġconfirm": 8344,
      "Ġsail": 8345,
      "Lemma": 8346,
      "ĠConf": 8347,
      "oster": 8348,
      "Ġbomb": 8349,
      "aturday": 8350,
      "ĠKim": 8351,
      "Pos": 8352,
      "ritical": 8353,
      "periment": 8354,
      "ibration": 8355,
      "Ġdiagn": 8356,
      "ĠDown": 8357,
      "Ġintroduction": 8358,
      "esian": 8359,
      "Ġviews": 8360,
      "+(": 8361,
      "istent": 8362,
      "Ġperman": 8363,
      "ĠElizabeth": 8364,
      "search": 8365,
      "Ġperspect": 8366,
      "Ġcrime": 8367,
      "Men": 8368,
      "TS": 8369,
      "rog": 8370,
      "Ġrural": 8371,
      "HC": 8372,
      "Ġcryst": 8373,
      "}}=": 8374,
      "ĠBad": 8375,
      "ĠAdminist": 8376,
      "hedral": 8377,
      "1937": 8378,
      "Ġinh": 8379,
      "Two": 8380,
      "uning": 8381,
      "ĠFund": 8382,
      "Dr": 8383,
      "duce": 8384,
      "Ġexplo": 8385,
      "LC": 8386,
      "Ġcoverage": 8387,
      "ĠClark": 8388,
      "eless": 8389,
      "ĠFire": 8390,
      "Ġembedding": 8391,
      "ego": 8392,
      "ordan": 8393,
      "Ġearth": 8394,
      "rosc": 8395,
      "South": 8396,
      "Ġfinish": 8397,
      "Ġsettings": 8398,
      "Ġ$,": 8399,
      "Ġpool": 8400,
      "Ġcharges": 8401,
      "aret": 8402,
      "ieces": 8403,
      "Ġprecisely": 8404,
      "emeter": 8405,
      ")--(": 8406,
      "ideos": 8407,
      "Ġinstitutions": 8408,
      "Ġelev": 8409,
      "ĠMethod": 8410,
      "GN": 8411,
      "cret": 8412,
      "circle": 8413,
      "Ġclosely": 8414,
      "ĠNa": 8415,
      "Ġreality": 8416,
      "isted": 8417,
      "ĠPass": 8418,
      "df": 8419,
      "akh": 8420,
      "second": 8421,
      "Ġsexual": 8422,
      "ĠComput": 8423,
      "Ġcomputational": 8424,
      "osa": 8425,
      "ĠSecurity": 8426,
      "Ġfeet": 8427,
      "isms": 8428,
      "Ġheard": 8429,
      "Ġ->": 8430,
      "Ġstorage": 8431,
      "Ġfashion": 8432,
      "ĠSus": 8433,
      "Ġeconomy": 8434,
      "Ġgrew": 8435,
      "Ġbudget": 8436,
      "ptic": 8437,
      "oupl": 8438,
      "Up": 8439,
      "ãģ": 8440,
      "Ġadvanced": 8441,
      "}|\\": 8442,
      "Ġsuperv": 8443,
      "Ġidentical": 8444,
      "Ġfiles": 8445,
      "package": 8446,
      "owa": 8447,
      "ronze": 8448,
      "Ġcold": 8449,
      "Ġdoub": 8450,
      "Ġhousing": 8451,
      "regon": 8452,
      "chron": 8453,
      "verb": 8454,
      "ben": 8455,
      "ĠPrize": 8456,
      "}$}": 8457,
      "Ġnewly": 8458,
      "ĠGro": 8459,
      "Ġintersection": 8460,
      "ĠKorean": 8461,
      "Ġsignals": 8462,
      "ĠColl": 8463,
      "Ġstd": 8464,
      "Ġcontrolled": 8465,
      "onents": 8466,
      "Ġpurposes": 8467,
      "800": 8468,
      "umes": 8469,
      "Ġpropose": 8470,
      "anna": 8471,
      "RI": 8472,
      "Ġcrow": 8473,
      "Ġmatching": 8474,
      "ĠHard": 8475,
      "!!": 8476,
      "Ġprotection": 8477,
      "Ã¸": 8478,
      "tikzpicture": 8479,
      "slash": 8480,
      "rome": 8481,
      "Ġinteract": 8482,
      "ĠPakistan": 8483,
      "Ġaware": 8484,
      "ĠStr": 8485,
      "Sum": 8486,
      "Ġbuy": 8487,
      "Ġaffect": 8488,
      "Ġnotes": 8489,
      "MB": 8490,
      "ĠRegiment": 8491,
      "Ġspot": 8492,
      "anes": 8493,
      "'ll": 8494,
      "Ġthank": 8495,
      "ocket": 8496,
      "Ġbroken": 8497,
      "Ġlowest": 8498,
      "Ġinnov": 8499,
      "ĠProt": 8500,
      "Ġliber": 8501,
      "\\}\\": 8502,
      ">(": 8503,
      "Go": 8504,
      "columnwidth": 8505,
      "si": 8506,
      "Ġpassing": 8507,
      "Ġpolitics": 8508,
      "Met": 8509,
      "jective": 8510,
      "Ġportion": 8511,
      "ĠSanta": 8512,
      "sequently": 8513,
      "Cast": 8514,
      "Ġvotes": 8515,
      "iveness": 8516,
      "ĠDespite": 8517,
      ":=\\": 8518,
      "Ġdynamical": 8519,
      "ĠVen": 8520,
      "Consider": 8521,
      "null": 8522,
      "google": 8523,
      "Ġzone": 8524,
      "Ġreferences": 8525,
      "sex": 8526,
      "raq": 8527,
      "Ġglass": 8528,
      "gal": 8529,
      "slant": 8530,
      "Nov": 8531,
      "rl": 8532,
      "ented": 8533,
      "ĠGeV": 8534,
      "ĠIV": 8535,
      "dir": 8536,
      "}~": 8537,
      "ĠEvery": 8538,
      "ĠTy": 8539,
      "Ġly": 8540,
      "Given": 8541,
      "Ġaspects": 8542,
      "member": 8543,
      "inds": 8544,
      "ĠRome": 8545,
      "Ap": 8546,
      "dl": 8547,
      "illing": 8548,
      "Ġhidden": 8549,
      "vartheta": 8550,
      "ĠOF": 8551,
      "pdate": 8552,
      "&=\\": 8553,
      "Ġmagnet": 8554,
      "ãĥ": 8555,
      "His": 8556,
      "ĠForest": 8557,
      ">\\": 8558,
      "parison": 8559,
      "Ã£o": 8560,
      "Ġcompat": 8561,
      "Personal": 8562,
      "Ġbool": 8563,
      "Ġsave": 8564,
      "ĠRom": 8565,
      "arest": 8566,
      "ĠCambridge": 8567,
      "Ġenvironmental": 8568,
      "vo": 8569,
      "Ġisn": 8570,
      "BI": 8571,
      "Ġvacc": 8572,
      "ĠEngineering": 8573,
      "apore": 8574,
      "prov": 8575,
      "establ": 8576,
      "ebox": 8577,
      "Ġapproximate": 8578,
      "Description": 8579,
      "ĠLive": 8580,
      "pop": 8581,
      "ĠQueens": 8582,
      "ĠGlobal": 8583,
      "Ġinfer": 8584,
      "Stream": 8585,
      "1935": 8586,
      "Ġdriver": 8587,
      "orted": 8588,
      "\\}$,": 8589,
      "Ġrect": 8590,
      "Ġburn": 8591,
      "Ġaudience": 8592,
      "Ġmobile": 8593,
      "tains": 8594,
      "User": 8595,
      "Ġsafe": 8596,
      "Ġarc": 8597,
      "worth": 8598,
      "Ġfish": 8599,
      "ĠSU": 8600,
      "lik": 8601,
      "Max": 8602,
      "Ġcontrovers": 8603,
      "Ġwinners": 8604,
      "avor": 8605,
      "ĠMinnes": 8606,
      "Ġdeveloping": 8607,
      "Ġindustrial": 8608,
      "Ġtreated": 8609,
      "ĠBrig": 8610,
      "ĠKel": 8611,
      "Gener": 8612,
      "ĠHun": 8613,
      "perial": 8614,
      "bp": 8615,
      "Ġperformances": 8616,
      "ĠBeach": 8617,
      "Date": 8618,
      "ĠWrit": 8619,
      "ĠOfficial": 8620,
      "regular": 8621,
      "ĠExec": 8622,
      "Ġvisible": 8623,
      "Ġpaths": 8624,
      "icular": 8625,
      "Ġpreserv": 8626,
      "ĠTok": 8627,
      "Ġexplan": 8628,
      "Ġaggreg": 8629,
      "inton": 8630,
      "Äį": 8631,
      "Ġnotable": 8632,
      "ativ": 8633,
      "adian": 8634,
      "yard": 8635,
      "eries": 8636,
      "ĠDam": 8637,
      "irk": 8638,
      "Ġsculpt": 8639,
      "Ġminister": 8640,
      "ĠRa": 8641,
      "HL": 8642,
      "quarters": 8643,
      "Ġcharacteristics": 8644,
      "Ġestate": 8645,
      "Ġexclud": 8646,
      "Ġrich": 8647,
      "Ġpolicies": 8648,
      "Override": 8649,
      "ĠMcC": 8650,
      "Ġresident": 8651,
      "Ġdivers": 8652,
      "Ġcampus": 8653,
      "ĠNY": 8654,
      "Red": 8655,
      "target": 8656,
      "aska": 8657,
      "ĠNations": 8658,
      "iki": 8659,
      "ĠEnergy": 8660,
      "Ġofficially": 8661,
      "Ġremember": 8662,
      "1914": 8663,
      "Ġgraduated": 8664,
      "\\%$": 8665,
      "isson": 8666,
      "Ġexpatriate": 8667,
      "Po": 8668,
      "enses": 8669,
      "Ġrecognized": 8670,
      "Ġcircum": 8671,
      "ĠBatt": 8672,
      "expected": 8673,
      "ĠMinnesota": 8674,
      "Run": 8675,
      "Ġcovers": 8676,
      "Bo": 8677,
      ".&": 8678,
      "Ġcopies": 8679,
      "ĠHay": 8680,
      "Ġbench": 8681,
      "Start": 8682,
      "loop": 8683,
      "Ġple": 8684,
      "Ġhypothesis": 8685,
      "icip": 8686,
      "Ġwing": 8687,
      "Mat": 8688,
      "ito": 8689,
      "itled": 8690,
      "ĠPremier": 8691,
      "Ġsolo": 8692,
      "rangian": 8693,
      "Ġrecommend": 8694,
      "Ġresulted": 8695,
      "MT": 8696,
      "Ġdestroyed": 8697,
      "Ġfacility": 8698,
      "ĠMult": 8699,
      "([": 8700,
      "css": 8701,
      "ĠNULL": 8702,
      "jan": 8703,
      "ĠOnly": 8704,
      "DD": 8705,
      "Ġurban": 8706,
      "1917": 8707,
      "ĠNetherlands": 8708,
      "BO": 8709,
      "Ġadministrative": 8710,
      "Ġauto": 8711,
      "aria": 8712,
      "Ġuniversal": 8713,
      "yth": 8714,
      "PO": 8715,
      "Ġcommut": 8716,
      "Ġraces": 8717,
      "Ġcauses": 8718,
      "ĠJacob": 8719,
      "ĠGener": 8720,
      "Ġmusicians": 8721,
      "hl": 8722,
      "Ġprotect": 8723,
      "ĠSab": 8724,
      "1919": 8725,
      "Ġconclusion": 8726,
      "ogether": 8727,
      "Ġvariance": 8728,
      "everal": 8729,
      "Di": 8730,
      "eting": 8731,
      "Ġtitles": 8732,
      "ĠRevolution": 8733,
      "ĠOrig": 8734,
      "chor": 8735,
      "Ġcolle": 8736,
      "Ġhour": 8737,
      "multirow": 8738,
      "organ": 8739,
      "Ġagric": 8740,
      "mn": 8741,
      "Ġentirely": 8742,
      "chestra": 8743,
      "ĠBridge": 8744,
      "ĠLem": 8745,
      "=.": 8746,
      "Ġstack": 8747,
      "Ġextensive": 8748,
      "Ġemployees": 8749,
      "ĠLabor": 8750,
      "Ġbundle": 8751,
      "Ġvacuum": 8752,
      "ĠWell": 8753,
      "Ġadvance": 8754,
      "ĠFox": 8755,
      "ĠPhiladelphia": 8756,
      "Ġexcell": 8757,
      "Ġcorrections": 8758,
      "ĠDuke": 8759,
      "osophy": 8760,
      "Ġdependent": 8761,
      "islative": 8762,
      "Ġlisting": 8763,
      "ĠAnth": 8764,
      "ĠHand": 8765,
      "ĠWisconsin": 8766,
      "Ġswim": 8767,
      "Ġdrawn": 8768,
      "Ġce": 8769,
      "Ġinstant": 8770,
      "ĠSteve": 8771,
      "Ġversus": 8772,
      "Ġeigenvalues": 8773,
      "Ġanyone": 8774,
      "Ġexperi": 8775,
      "Ġchampion": 8776,
      "Ġgeneric": 8777,
      "ogonal": 8778,
      "Ġsimplic": 8779,
      "mi": 8780,
      "Ġseconds": 8781,
      "Ġbreaking": 8782,
      "Case": 8783,
      "Ġrom": 8784,
      "Ġfunding": 8785,
      "Ġhistoric": 8786,
      "typ": 8787,
      "Ġvess": 8788,
      "else": 8789,
      "Ġfluctuations": 8790,
      "Ġeffectively": 8791,
      "ĠOp": 8792,
      "Ġrational": 8793,
      "Following": 8794,
      "subsec": 8795,
      "rell": 8796,
      "ĠCall": 8797,
      "Ġmonitor": 8798,
      "Ġscope": 8799,
      "asty": 8800,
      "ĠCase": 8801,
      "Ġcatal": 8802,
      "ĠHiggs": 8803,
      "Ġnav": 8804,
      "ĠWho": 8805,
      "EP": 8806,
      "Ġspring": 8807,
      "Hel": 8808,
      "ulse": 8809,
      "Ġreform": 8810,
      "iÄĩ": 8811,
      "Ġdatabase": 8812,
      "ĠInit": 8813,
      "Ġhouseholds": 8814,
      "evin": 8815,
      "ĠMic": 8816,
      "entry": 8817,
      "Suppose": 8818,
      "Ġsupers": 8819,
      "rins": 8820,
      "author": 8821,
      "Ġsizes": 8822,
      "clear": 8823,
      "Ġdoor": 8824,
      "Ġperhaps": 8825,
      "1929": 8826,
      "possible": 8827,
      "Ġequality": 8828,
      "ĠSat": 8829,
      "1933": 8830,
      "Ġready": 8831,
      "Port": 8832,
      "Ġcovering": 8833,
      "Ġspac": 8834,
      "last": 8835,
      "Ġdeclared": 8836,
      "Ġdense": 8837,
      "Ġinsert": 8838,
      "ĠHo": 8839,
      "Â°": 8840,
      "Ġsummary": 8841,
      "Ġbriefly": 8842,
      "Ġmes": 8843,
      "ĠReal": 8844,
      "Ġhighlight": 8845,
      "^{(\\": 8846,
      "ĠLes": 8847,
      "lywood": 8848,
      "orders": 8849,
      "ĠMond": 8850,
      "ĠLady": 8851,
      "ello": 8852,
      "Ġpref": 8853,
      "theless": 8854,
      "Ġsubs": 8855,
      "Ġpush": 8856,
      "ĠAthlet": 8857,
      "Xi": 8858,
      "Ġfrequently": 8859,
      "zed": 8860,
      "Ġcart": 8861,
      "there": 8862,
      "ĠDavis": 8863,
      "Non": 8864,
      "Ġbenefit": 8865,
      "ĠBol": 8866,
      "aga": 8867,
      "Ġquasi": 8868,
      "Ġinjury": 8869,
      "Ġstochastic": 8870,
      "ĠĠĠĠĠĠĠĠĠĠĠĠĠĠĠĠĠĠĠĠĠĠĠĠĠĠĠĠĠĠĠĠĠĠĠĠĠĠĠĠĠĠĠĠĠĠĠĠĠĠĠĠĠĠĠĠĠĠĠĠĠĠĠĠ": 8871,
      "Ġiron": 8872,
      "Ġmultip": 8873,
      "Ġaffili": 8874,
      "isa": 8875,
      "Ġdiscrim": 8876,
      "Ġrefers": 8877,
      "Ġdetector": 8878,
      "ymmetric": 8879,
      "Ġmolecular": 8880,
      "ĠBru": 8881,
      "unnel": 8882,
      "Ġmunicipal": 8883,
      "1928": 8884,
      "Ġluminosity": 8885,
      "Sche": 8886,
      "eaking": 8887,
      "property": 8888,
      "Ġabsence": 8889,
      "adi": 8890,
      "Ġbrain": 8891,
      "Ġconsult": 8892,
      "Ġassuming": 8893,
      ".\\\\": 8894,
      "ouble": 8895,
      "ication": 8896,
      "Association": 8897,
      "Mark": 8898,
      "ture": 8899,
      "een": 8900,
      "Ġfell": 8901,
      "ĠCub": 8902,
      "notag": 8903,
      "ĠKal": 8904,
      "ĠAud": 8905,
      "Ġpurchased": 8906,
      "Ġask": 8907,
      "urance": 8908,
      "International": 8909,
      "Point": 8910,
      "Ġparticipated": 8911,
      "RL": 8912,
      "ika": 8913,
      "(-\\": 8914,
      "PM": 8915,
      "Ġconflict": 8916,
      "bu": 8917,
      "Ġhosted": 8918,
      "Ġtransp": 8919,
      "Li": 8920,
      "query": 8921,
      "Ġexpressions": 8922,
      "models": 8923,
      "Ġpieces": 8924,
      "Ġmac": 8925,
      "irty": 8926,
      "Ġseparated": 8927,
      "Ġquantity": 8928,
      "Ġneutral": 8929,
      "Ġbow": 8930,
      "Ġlooks": 8931,
      "Ġhero": 8932,
      "parameter": 8933,
      "Ġcorrection": 8934,
      "Ġarms": 8935,
      "Ġrecip": 8936,
      "etch": 8937,
      "Ġdefend": 8938,
      "Ġinterpretation": 8939,
      "asters": 8940,
      "Ġfresh": 8941,
      "rizona": 8942,
      "Ġsupporting": 8943,
      "1934": 8944,
      "select": 8945,
      "Ġroughly": 8946,
      "equations": 8947,
      "Builder": 8948,
      "Ġreserv": 8949,
      "large": 8950,
      "Ġdemonstrate": 8951,
      "ĠFacebook": 8952,
      "1900": 8953,
      "ĠAuthor": 8954,
      "anguage": 8955,
      "Mult": 8956,
      "obe": 8957,
      "ĠMill": 8958,
      "^*\\": 8959,
      "Ġflows": 8960,
      "Ġplas": 8961,
      "uing": 8962,
      "Function": 8963,
      "ensed": 8964,
      "client": 8965,
      "ĠStadium": 8966,
      "Ġequivalence": 8967,
      "green": 8968,
      "Ġbuff": 8969,
      "ĠGiven": 8970,
      "ducible": 8971,
      "ĠAbout": 8972,
      "ĠInternet": 8973,
      "Ġgained": 8974,
      "Ġentries": 8975,
      "Ġhuge": 8976,
      "ĠPers": 8977,
      "oment": 8978,
      "isot": 8979,
      "ĠLike": 8980,
      "Jan": 8981,
      "Ġadjacent": 8982,
      "Ġspons": 8983,
      "idi": 8984,
      "phone": 8985,
      "Ġanimals": 8986,
      "urches": 8987,
      "1910": 8988,
      "Ġeyes": 8989,
      "ĠID": 8990,
      "ĠBall": 8991,
      "Ġdx": 8992,
      "Ġdecades": 8993,
      "ĠBooks": 8994,
      "kh": 8995,
      "Book": 8996,
      "cover": 8997,
      "Ġessentially": 8998,
      "Ġahead": 8999,
      "Ġdefeat": 9000,
      "Ġcontest": 9001,
      "Last": 9002,
      "Ġcommittee": 9003,
      "Dav": 9004,
      "wegian": 9005,
      "vements": 9006,
      "points": 9007,
      "Ġdetect": 9008,
      "ĠLore": 9009,
      "ĠNon": 9010,
      "ordon": 9011,
      "ĠâĢ¢": 9012,
      "âĢĿ.": 9013,
      "Ġboolean": 9014,
      "Ġfuel": 9015,
      "ĠSon": 9016,
      "ĠWinter": 9017,
      "Ġsatell": 9018,
      "Ġcerem": 9019,
      "Ġvanish": 9020,
      "ĠTal": 9021,
      "ighth": 9022,
      "Ġcontemporary": 9023,
      "Ġpublication": 9024,
      "stic": 9025,
      "iner": 9026,
      "Ġnecessarily": 9027,
      "arios": 9028,
      "Ġaccident": 9029,
      "Ġtheme": 9030,
      "coh": 9031,
      "rip": 9032,
      "128": 9033,
      "\\|\\": 9034,
      "rastructure": 9035,
      "inction": 9036,
      "stood": 9037,
      "Ġpapers": 9038,
      "lick": 9039,
      "Ġdashed": 9040,
      "Ġcolour": 9041,
      "Ġfeedback": 9042,
      "Ġreconstruction": 9043,
      "RC": 9044,
      "Ġconfidence": 9045,
      "Ġexplore": 9046,
      "Ã©e": 9047,
      "Background": 9048,
      "Ġdecrease": 9049,
      "Ġcustomers": 9050,
      "ĠWars": 9051,
      "Ġpractical": 9052,
      ";</": 9053,
      "ĠSwedish": 9054,
      "ĠGolden": 9055,
      "desc": 9056,
      "ĠExt": 9057,
      "tag": 9058,
      "hent": 9059,
      "ĠFinal": 9060,
      "Ġisot": 9061,
      "Ġsand": 9062,
      "1932": 9063,
      "osl": 9064,
      "Ġupdated": 9065,
      "alion": 9066,
      "ĠTa": 9067,
      "Ġdemonstrated": 9068,
      "ĠCle": 9069,
      "Ġbusinesses": 9070,
      "emetery": 9071,
      "parallel": 9072,
      "Ġdirections": 9073,
      "PD": 9074,
      "Ä±": 9075,
      "rame": 9076,
      "Ġpossess": 9077,
      "eger": 9078,
      "axis": 9079,
      "cha": 9080,
      "ĠAmericans": 9081,
      "AME": 9082,
      "initely": 9083,
      "outs": 9084,
      "180": 9085,
      "ancer": 9086,
      "Ġreceiving": 9087,
      "ĠMedal": 9088,
      "ĠĠĠĠĠĠĠĠĊ": 9089,
      "101": 9090,
      "Ġbalance": 9091,
      "Ġstands": 9092,
      "ĠOregon": 9093,
      "Ġcab": 9094,
      "Moreover": 9095,
      "Ġattempts": 9096,
      "rapy": 9097,
      "rained": 9098,
      "Ġcoupled": 9099,
      "ĠArea": 9100,
      "ME": 9101,
      "Ġevaluated": 9102,
      "Ġdefense": 9103,
      "ĠCountry": 9104,
      "ambig": 9105,
      "Ġphases": 9106,
      "Play": 9107,
      "ples": 9108,
      "negative": 9109,
      "season": 9110,
      "including": 9111,
      "Ġlosing": 9112,
      "Ġseats": 9113,
      "inus": 9114,
      "ĠFriday": 9115,
      "ĠStephen": 9116,
      "Ġaw": 9117,
      "ĠRon": 9118,
      "ĠWin": 9119,
      "Ġnotion": 9120,
      "direct": 9121,
      "Ġaband": 9122,
      "ĠPrim": 9123,
      "Ġtag": 9124,
      "Ġintermediate": 9125,
      "Ġstone": 9126,
      "plot": 9127,
      "GA": 9128,
      "ĠWel": 9129,
      ")})": 9130,
      "ĠPolicy": 9131,
      "Ġsun": 9132,
      "eties": 9133,
      "empty": 9134,
      "inking": 9135,
      "Ġdedu": 9136,
      "engths": 9137,
      "emi": 9138,
      "mad": 9139,
      ")^\\": 9140,
      "jav": 9141,
      "Ġfiction": 9142,
      "Ġtele": 9143,
      "ĠDC": 9144,
      "unes": 9145,
      "Ġseparation": 9146,
      "ĠId": 9147,
      "Util": 9148,
      "}\\|": 9149,
      "enna": 9150,
      "Ġ$\\{\\": 9151,
      "irical": 9152,
      "$-$": 9153,
      "Ġperturbation": 9154,
      "Ġbran": 9155,
      "Prov": 9156,
      "mathit": 9157,
      "ĠSweden": 9158,
      "Ġauthorities": 9159,
      "ĠLic": 9160,
      "Ġdominant": 9161,
      "ulating": 9162,
      "lower": 9163,
      "instein": 9164,
      "ĠCH": 9165,
      "Ġfaith": 9166,
      "Ġproportional": 9167,
      "RR": 9168,
      "Ġgravitational": 9169,
      "Ġtick": 9170,
      "Status": 9171,
      "~(\\": 9172,
      "ĠTrust": 9173,
      "ĠLast": 9174,
      "Ġunless": 9175,
      "watch": 9176,
      "Ġrenamed": 9177,
      "omot": 9178,
      "Ġchallenges": 9179,
      "aturally": 9180,
      "ĠMarsh": 9181,
      "ĠSpring": 9182,
      "Ġtrigger": 9183,
      "ribed": 9184,
      "ĠBishop": 9185,
      "Ġpiano": 9186,
      "ĠGree": 9187,
      "android": 9188,
      "ĠBudd": 9189,
      "\"|": 9190,
      "ĠAT": 9191,
      "FM": 9192,
      "ĠMember": 9193,
      "parent": 9194,
      "Ġunable": 9195,
      "eral": 9196,
      "anga": 9197,
      "corollary": 9198,
      "ĠJoh": 9199,
      "ropolitan": 9200,
      "uns": 9201,
      "ĠAlf": 9202,
      "irement": 9203,
      "French": 9204,
      "inating": 9205,
      "ĠRoute": 9206,
      "quant": 9207,
      "description": 9208,
      "IST": 9209,
      "Ġanom": 9210,
      "Ġmoments": 9211,
      "BL": 9212,
      "options": 9213,
      "ifact": 9214,
      "Number": 9215,
      "Ġimprovement": 9216,
      "ĠCommand": 9217,
      "Ġyounger": 9218,
      "Ġconvers": 9219,
      "close": 9220,
      "1927": 9221,
      "Ġkin": 9222,
      "Ġgranted": 9223,
      "Ġvariations": 9224,
      "world": 9225,
      "German": 9226,
      "1931": 9227,
      "GS": 9228,
      "Ġtested": 9229,
      "ĠHart": 9230,
      "Ġfounder": 9231,
      "Style": 9232,
      "ĠIraq": 9233,
      "ugin": 9234,
      "Ġphoto": 9235,
      "1922": 9236,
      "Ġpolarization": 9237,
      "Har": 9238,
      "outheast": 9239,
      "full": 9240,
      "Ġreader": 9241,
      "Another": 9242,
      "rehens": 9243,
      "1924": 9244,
      "ĠTHE": 9245,
      "Ġrestricted": 9246,
      "Ġappeal": 9247,
      "itional": 9248,
      "Ġarts": 9249,
      "Ġterritory": 9250,
      "Ġhabit": 9251,
      "ĠColorado": 9252,
      "arity": 9253,
      "ĠAgain": 9254,
      "ads": 9255,
      "Ġpackage": 9256,
      "ĠFI": 9257,
      "Ãº": 9258,
      "ĠBaron": 9259,
      "ĠAD": 9260,
      "mt": 9261,
      "des": 9262,
      "mode": 9263,
      "ĠMach": 9264,
      "Ġphone": 9265,
      "namespace": 9266,
      "agen": 9267,
      "Ġviolence": 9268,
      "ĠNaz": 9269,
      "Ġskills": 9270,
      "Ġexceed": 9271,
      "scope": 9272,
      "bell": 9273,
      "Ġparish": 9274,
      "Ġmargin": 9275,
      "Ġprotocol": 9276,
      "ĠKer": 9277,
      "igrants": 9278,
      "Ġrugby": 9279,
      "Ġsuppl": 9280,
      "ennessee": 9281,
      "================": 9282,
      "phantom": 9283,
      "Ġcancell": 9284,
      "Ġexcess": 9285,
      "ĠMatt": 9286,
      "isor": 9287,
      "Ġemail": 9288,
      "Ġsurfaces": 9289,
      "ĠDue": 9290,
      "Ġinvestment": 9291,
      "ician": 9292,
      "imp": 9293,
      "AE": 9294,
      "Ġcharacterized": 9295,
      "Ġvice": 9296,
      "&-": 9297,
      "Ġrear": 9298,
      "Ġgeometric": 9299,
      "afe": 9300,
      "ĠMoh": 9301,
      "avirus": 9302,
      "Ġletters": 9303,
      "rating": 9304,
      "textcolor": 9305,
      "Ġparticipants": 9306,
      "ĠMaria": 9307,
      "GR": 9308,
      "obj": 9309,
      "adata": 9310,
      "vals": 9311,
      "ĠSN": 9312,
      "ictionary": 9313,
      "Ġeye": 9314,
      "Ġending": 9315,
      "Ġdominated": 9316,
      "ĠCastle": 9317,
      "opes": 9318,
      "ulus": 9319,
      "iated": 9320,
      "Ġteaching": 9321,
      "Ġsuffered": 9322,
      "ĠSaturday": 9323,
      "ubble": 9324,
      "$.}": 9325,
      "hou": 9326,
      "ĠHan": 9327,
      "Best": 9328,
      "./": 9329,
      "Current": 9330,
      "hor": 9331,
      "Ġstandards": 9332,
      "Ġbenefits": 9333,
      "Ġwitness": 9334,
      "ĠArthur": 9335,
      "iii": 9336,
      "phy": 9337,
      "Ġreduces": 9338,
      "ĠIndiana": 9339,
      "Ġconcentration": 9340,
      "je": 9341,
      "ĠĠčĊ": 9342,
      "ĠSD": 9343,
      "BB": 9344,
      "Ġcontrols": 9345,
      "relation": 9346,
      "!\\": 9347,
      "Sl": 9348,
      "grade": 9349,
      "issions": 9350,
      "Ġdanger": 9351,
      "Ġgenerating": 9352,
      "Ġcarbon": 9353,
      "SH": 9354,
      "ĠKansas": 9355,
      "Ġescape": 9356,
      "Women": 9357,
      "Ġprofiles": 9358,
      "Ġ\\,\\": 9359,
      "iples": 9360,
      "ĠAdam": 9361,
      "frame": 9362,
      "Public": 9363,
      "Ġprotein": 9364,
      "Ġdropped": 9365,
      "Ġfan": 9366,
      "Ġ<<": 9367,
      "stackrel": 9368,
      "Ġsuppose": 9369,
      "Long": 9370,
      "Ġtitled": 9371,
      "Second": 9372,
      "wave": 9373,
      "ĠEth": 9374,
      "former": 9375,
      "ĠBan": 9376,
      "Ġengineer": 9377,
      "tach": 9378,
      "Ġdocuments": 9379,
      "ĠBh": 9380,
      "ĠGre": 9381,
      "Ġflex": 9382,
      "ĠCzech": 9383,
      "Ġconcerns": 9384,
      "ĠSky": 9385,
      "gery": 9386,
      "Cent": 9387,
      "Ġnovels": 9388,
      "Ġaccret": 9389,
      "engers": 9390,
      "textup": 9391,
      "ĠMilitary": 9392,
      "Ġyards": 9393,
      "ĠIndones": 9394,
      "ĠGrant": 9395,
      "ãĤ": 9396,
      "Ġindices": 9397,
      "Ġsomewhat": 9398,
      "Ġtowns": 9399,
      "ĠPC": 9400,
      "^*(": 9401,
      "allow": 9402,
      "Ġdoctor": 9403,
      "mers": 9404,
      "API": 9405,
      "Ġhappen": 9406,
      "Ġconverted": 9407,
      "Ġuniverse": 9408,
      "ĠCaptain": 9409,
      "ĠGallery": 9410,
      "ĠMP": 9411,
      "Ġfighting": 9412,
      "boldmath": 9413,
      "ĠInvest": 9414,
      "Ġ_{\\": 9415,
      "Ġyellow": 9416,
      "ĠSC": 9417,
      "Ġpatient": 9418,
      "vs": 9419,
      "vard": 9420,
      "ĠSav": 9421,
      "pur": 9422,
      "ĠFord": 9423,
      "comput": 9424,
      "Ġinstruction": 9425,
      "pres": 9426,
      "1925": 9427,
      "Ġsym": 9428,
      "ĠWhe": 9429,
      "Ġwasn": 9430,
      "images": 9431,
      "arithm": 9432,
      "kish": 9433,
      "!]": 9434,
      "Ġbatter": 9435,
      "oured": 9436,
      "Biography": 9437,
      "ĠAtlantic": 9438,
      "Ġ((": 9439,
      "Acc": 9440,
      "uon": 9441,
      "ruck": 9442,
      "ĠStock": 9443,
      "ĠAnderson": 9444,
      "args": 9445,
      ")}(\\": 9446,
      "ĠPhilippines": 9447,
      "Ġcalling": 9448,
[...]
