#version: 0.2
Ġ Ġ
ĠĠ ĠĠ
Ġ t
i n
e r
o n
Ġ a
h e
r e
a t
e n
o r
s t
Ġt he
ĠĠ Ġ
a n
a l
i t
Ġ c
ĠĠĠĠ ĠĠĠĠ
a r
l e
i on
Ġ s
Ġ o
e s
i s
e d
Ġ f
Ġ w
in g
Ġ p
i c
r o
n d
Ġ b
Ġ in
a s
e t
c t
Ġo f
o u
Ġ d
Ġ m
en t
a m
e l
Ġt o
Ġa nd
ĠĠĠĠ ĠĠĠ
Ġ re
Ġ h
i l
o m
Ġ n
i d
Ġt h
c e
Ġ =
at ion
o l
u r
Ġ S
Ġ (
i g
i m
u t
ĉ ĉ
Ġ e
o t
< /
Ġ l
Ġ T
s e
a d
i v
Ġ C
= "
Ġ A
o d
) ;
a c
a g
u l
i f
Ġ {
- -
t h
Ġ is
Ġ <
Ġ g
u n
Ġ $
a y
o w
Ġ v
e m
c h
â Ģ
Ġf or
p e
Ġ I
Ġ st
a b
u s
at e
Ġ M
u m
ĠĠĠĠĠĠĠĠ ĠĠĠ
er s
/ /
Ġ \
l y
č Ċ
t r
q u
Ġ *
o c
a p
Ġ on
i st
as s
Ġ P
it h
Ġb e
e x
i r
t er
Ġc on
Ġ B
h t
ct ion
a v
p t
am e
e st
v er
Ġ }
e w
Ġ R
s s
en d
Ġ "
an d
Ġ D
" >
2 0
u b
u p
es s
Ġth at
u e
Ġ F
Ġw ith
Ġ H
l ass
or t
ou r
ag e
Ġ L
e f
ĠĠĠĠĠĠĠĠ ĠĠĠĠĠĠĠĠ
r i
o p
Ġ N
Ġa l
Ġp ro
a in
Ġa n
ĠĠĠĠ Ġ
* *
s p
( )
e ct
Ġw h
Ġ W
Ġa s
Ġ E
l i
Ġ G
it y
ur n
o re
in e
ro m
ĠT he
Ġ it
m ent
n t
Ġe x
u re
ar t
k e
Ġc om
Ġ r
Ġb y
er e
. .
o s
at h
Ġ y
ab le
i z
e c
o g
ac k
Ġ or
p l
Ġth is
ig ht
Ġa t
ex t
Ġw as
t urn
-- --
y pe
= =
al l
ul t
Ġc lass
p ort
1 9
i es
il l
Ġ O
i le
iv e
e g
i al
Ġ if
an s
Ġ '
_ {
p er
g et
an t
Ġa re
an g
od e
Ġ &
Ġf rom
u d
c on
l d
st r
Ġt r
0 0
Ġ J
âĢ Ļ
or m
re f
e p
in t
a ct
Ġ he
ĠĠĠĠĠĠĠĠ ĠĠĠĠĠĠĠ
a st
in d
b er
pt ion
a re
as e
l ic
I n
f f
Ġc h
at a
Ġ Ċ
Ġ U
ar y
u nd
o v
- >
Ġw e
c om
a ce
i re
e v
i p
ar d
i b
at ed
Ġ //
Ġ le
Ġn ot
Ġs h
Ġre turn
or d
ou t
u g
Ġ -
: :
av e
o st
it e
j ect
al ue
p ro
ig n
{ \
t o
ĉĉ ĉĉ
a k
Ġ </
el l
it ion
im e
u st
T he
Ġ âĢ
re s
Ġs e
l o
our ce
) ,
.. /
ic e
id e
p le
' s
C on
ic h
ub lic
un ction
on g
i a
il d
Ġ K
) .
Ġ [
er v
Ġn ew
o k
or k
c l
ic al
Ġ @
ĠI n
Ġ us
Ġp l
p h
c c
" ,
Ġ j
Ġ$ \
g e
oc k
ar am
S t
Ġ V
en s
f orm
m a
t ext
an ce
d d
er t
Ġre s
Ġ +
en ce
c ri
f t
Ġc an
( "
or y
Ġ /
20 1
ro w
ou ld
( );
e ar
m l
el f
ess age
ation s
Ġh ave
p ut
ul l
re ss
on e
Ġa r
d u
d iv
iz e
ĠT h
Ġal l
s et
Ġh as
Ġ im
sp an
Ġ un
u se
ĠS t
Ġ k
r a
> </
en c
** **
Ġy ou
th er
E x
s o
---- ----
ac h
m ath
tr ing
Ġ |
ent s
Ġa p
' ,
Ġa b
en er
he n
Ġst r
l l
Ġwh ich
Ġcon t
> <
a il
i el
ou s
er r
ou nt
in k
Ġ* /
e qu
ow n
Ġ .
s h
b ject
f ig
} \
i ew
1 0
i an
../ ../
iel d
Ġ :
t e
^ {
Ġh is
== ==
Ġp ublic
et h
Ġf unction
ĉĉ ĉ
c he
} $
Ġn ame
e le
f r
Ġw ill
p s
Ġd ef
Ġp r
ĠC h
re e
u al
ĠĠĠĠĠĠĠĠ ĠĠĠĠĠĠĠĠĠĠĠ
om e
r ay
ou nd
o ver
Ġo ut
at or
c al
Ġin t
on d
Ġcom p
ar k
in al
c k
( '
ir st
Ġd o
ter n
ĠĠĠĠĠĠĠĠ Ġ
o id
ht ml
E R
n ame
cl ud
e b
r y
P ro
) )
Ġg et
is h
f er
Ġh ref
p r
le s
Ġ up
er m
s ource
th is
b o
Ġb ut
y st
m essage
ol l
Ġs et
N ame
n e
Ġd is
ion s
Ġv ar
ro up
er y
Ġon e
ol d
20 0
Ġe v
ic t
âĢ Ŀ
t y
at es
pe ct
O N
tr ans
od el
T ype
ab el
m er
le d
Ġ ro
pe c
ke y
l ation
i x
t a
ot h
Ġal so
o int
en g
im port
Ġthe ir
I N
Ġ _
Ġp art
Ġw ere
Ġ qu
} }
ing s
Ġ #
yst em
i o
Ġm e
o b
I d
Ġ Y
p aram
t d
Ġt ype
S tring
c re
a ke
o ol
r it
( \
1 8
at ic
at ch
Ġs u
ap p
eg in
or s
al se
a x
Ġ= >
el y
re turn
l ine
Ġa ss
Ġv alue
} ,
le ct
r ight
w o
o ok
Ġm ore
/ >
ar g
Ġs p
b egin
l ock
Ġp re
r ap
f o
ic s
ac he
Ġwh o
1 2
Ġit s
eth od
ic k
Ġp er
Ġm an
am es
a w
u ct
cri pt
c ode
Ġo ver
ig h
um ber
n g
on t
u ild
c ol
: //
is s
Ġthe y
R E
Ġd ata
f ter
" />
at er
Ġl ine
ang e
Ġs o
T h
w e
s er
ov e
t he
Ġ !
C om
Ġc l
Ġa g
Ġa dd
Ġt ime
d ef
ur re
trans lation
R es
ĠI t
Ġw ork
Ġcon st
Ġf irst
Ġn e
# #
Ġs elf
S T
Ġd es
ad d
ce ption
Ġ el
Ġo ther
y s
t ype
ĠU n
c lass
e ad
_{ \
Ġ id
L ist
if ic
a ult
Ġw hen
on s
Ġ i
at ure
ut e
Ġin ter
ro und
Ġ end
Ġ| |
Ġc ol
) $
an n
ĠâĢ ľ
Ġbe en
Ġa d
at ive
oc ation
Ġ en
Ġ= =
Ġs up
Ġg o
C h
al s
ay s
o se
t t
et a
Ġh ad
A T
p os
an c
i e
n c
s um
1 6
y m
le ment
} {
ar ch
_ _
Ġh er
v ar
Ġd e
Ġres ult
Ġre qu
v e
o f
Ġcom m
Ġ und
ht t
m s
u es
g r
l abel
Ġy ear
Ġn ull
it le
ĠTh is
Ġt wo
em ber
ĠâĢ ĵ
ation al
Ġan y
t on
Ġab out
re ad
Ġre c
Ġv oid
he d
i ed
I D
ĠH e
Ġl i
ul ar
is e
am p
fr ac
v ent
Ġin to
erv ice
Ġ `
ers ion
t ain
O R
ĠA r
Ġt e
v al
"> <
Ġs c
Ġc re
**** ****
c ess
tr ib
Ġs ub
e q
as h
ut ion
A r
urre nt
le ft
at ing
Ġon ly
Ġof f
Ġa cc
Ġre g
ad e
A R
iv ate
) );
id th
ug h
L E
1 1
Ġth an
) :
s on
as ed
Ġ >
// //
20 2
rap h
as k
um ent
oc al
Ġpl ay
Ġin clud
y le
p on
ire ct
ĠC om
Ġ use
str ing
i ous
ou g
Ġn o
1 5
Ġth ere
Ġp e
ption s
Ġo ur
Ġf alse
am ple
b ack
T r
-------- --------
Ġb et
ĠĠĠĠĠĠĠĠĠĠĠĠĠĠĠĠ ĠĠĠĠĠĠĠ
" );
Ġ err
ĠĠĠĠĠĠĠĠ ĠĠĠĠĠ
or g
Ġa ct
oll ow
Ġtr ue
ĠP ro
m in
op le
Ġv al
e y
Ġor g
pl ic
s c
Ġtr ans
n er
Ġin d
it s
Ġo b
Ġs ome
ut h
il ity
it ies
r r
A L
Ġin st
ol og
u le
e e
n ing
b le
w ork
b ar
Ġy our
E N
ib le
s elf
Ġs pec
eng th
Ġo p
Ġfor m
d er
Ġ )
f ile
Ġw ould
id er
av a
d ata
o y
w ard
o le
Ġre l
ag es
it ed
Ġk n
Ġel se
V alue
Ġund er
o in
Ġt est
res ent
Ġwh ere
Ġs a
âĢ ĵ
Ġd if
Ġb ack
a ction
Ġpro v
t em
D ata
t s
p re
T o
Ġd ec
er n
ow er
ic es
ent er
Ġa fter
19 9
Ġ --
c ite
s ub
im es
} )
em ent
le ction
Ġus ed
per ty
ĠĠĠĠ ĠĠ
S S
Ġre m
od y
is hed
b r
$ .
ĠĠĠĠĠĠĠĠĠĠĠĠĠĠĠĠ ĠĠĠĠĠĠĠĠĠĠĠĠĠĠĠĠ
ar get
i er
ĠN ew
2 5
Ġc ase
l and
Ġf e
" )
l og
v alue
Ġf inal
ev el
Ġm ay
it em
Ġs he
li ent
Ġ x
Ġthe n
Ġf ollow
r m
an k
1 3
1 4
Ġs ec
u ff
Ġ/ **
$ ,
or ld
w w
, \
C ol
enc es
S et
Ġf il
ment s
Ġstr ing
Ġe m
ro ugh
f l
tern al
R ef
==== ====
re am
v iew
Ġch ar
ur ing
1 7
Ġp h
Ġcon s
Ex ception
iv ers
n b
Ġf l
equ ation
al ly
in ed
f or
d ate
Ġthe m
in ce
iz ed
y p
Ġsu ch
n ew
Ġg ener
we en
Ġ& &
] ;
a use
l ocation
Ġf ile
o ss
n ot
} .
Ġa m
a ir
in s
t ing
b f
p x
( $
et er
ist s
Ġsh ow
.. .
an y
p ress
Ġn umber
E rr
am b
r u
i ent
ep end
Ġa c
il y
t est
b e
at us
ar s
Ġd ist
ĠW e
Ġst atic
Ġin v
in es
con t
p p
re d
Ġpro du
et s
ĠS h
ou n
Ġ// /
nb sp
3 2
Ġst ud
O bject
ĠT r
Ġ Q
ro id
Ġpe ople
C T
are nt
Ġh igh
mer ic
' )
3 0
Ġst art
T est
Ġp ol
Ġc o
h at
I T
ad er
ĠA l
D E
Ġl ist
ĠS tring
ĠC on
S E
v el
ĠA n
Ġm odel
Ġm ost
Ġb o
he ck
d a
Ġc or
Ġli ke
Ġ! =
pl ay
ĠE x
re n
w n
Ġg r
Ġthe se
Ġpr ivate
ph a
ro l
Ġ %
Ġs im
Ġbet ween
um n
Ġth rough
math cal
s ize
h o
m ary
cc ess
Ġbe c
1 00
Ġsh ould
Ġne ed
is ion
A N
t ed
() .
Ġdif fer
G et
] ,
ire d
str uct
a z
r c
() );
oug h
Ġs ystem
if y
Con t
Ġh ow
f ace
m an
} (
g er
iv er
U n
Err or
as on
re qu
M E
ĉĉĉĉ ĉ
Ġsa id
Ġs er
Ġe ff
B y
Ġ key
oc i
Ġd et
e ver
b y
Ġ ent
Ġm od
Ġo per
l ink
Ġs ign
y n
Ġg iv
. _
ro ll
re at
Ġp oint
Ġap p
Ġex t
o ot
p ublic
ord er
r ic
Ġo bject
evel op
Ġ Z
Ġf ield
Ġe ver
iz ation
ot e
Ġm ethod
s cript
Ġj ust
ind ow
f ul
I m
Ġm y
le t
c ed
Ġd r
Ġs m
Ġc al
l er
E n
al pha
ĠF or
m od
el ta
Ġe ach
Ġm in
Ġl ong
oth er
w h
i k
F ile
Ġb r
A t
C O
C lass
ch ool
"> </
p ace
p i
Ġwh at
or n
if ied
} ^
c es
form ation
5 0
g o
I nd
Ġw ell
n av
lo ad
p ar
l ist
f ore
[ '
ind ex
id ent
ur l
Ġus ing
~ \
f unction
ut il
cri ption
" ;
if e
} _
a h
K ey
Ġg roup
V iew
Ġ ed
l ang
t ime
. </
' t
ers on
en se
ag er
us s
Ġst ate
b b
ce pt
Ġe qu
ap t
R equ
Ġc all
S h
Ġf ound
Ġag ain
j s
re m
t il
re ak
Ġp aram
ĠĠĠĠ Ċ
' );
ou se
are d
ant s
o h
d is
Ġh im
r ite
t able
lo b
U L
t en
Ġ X
oc ument
Ġyear s
Ġr un
Ġwh ile
htt p
e k
2 4
Ġp os
t op
amb da
ar ray
ĠA meric
ot s
Ġc urrent
enc y
ĠA s
g y
Ġs ol
re g
u c
F or
A n
l ay
ect or
tr y
' ]
u ch
() ,
Ġh and
Ġr ight
ist er
Ġsup port
Ġre sp
Ġs ame
19 8
Ġre p
sum mary
h er
Ġcom ple
Ġn ow
w ay
Ġc ould
Ġar g
in clud
o pe
6 4
v oid
se ction
ĠI f
00 0
Ġre ad
l p
$ \
f ield
) \
ess ion
gr am
ĠI nd
at t
a j
Ġt itle
ot t
Ġs ur
w idth
O n
ure s
=" +
us h
op y
! --
Ġbe fore
bo x
g roup
Ġf r
com m
Ġm ake
ur ation
ĠS e
W e
ical ly
Ġex pect
Ġe st
am ma
ect ed
uff er
o ad
R O
og le
m u
ent ial
g round
=" ../../
p ath
" :
con st
m ed
A s
ivers ity
d ay
it ial
is m
Ġbe ing
I ON
E vent
Ġim port
` `
r on
qu ot
qu e
Ġdo es
T ime
re sp
ra w
p ack
Ġd irect
A C
Ref er
ro ss
T E
Ġman y
Ġm on
/ *
] .
le ar
al e
b ers
Ġb oth
P E
Requ est
htt ps
ĠC ol
Ġl ast
Ġ/ >
p art
or th
c ent
Ġar t
Ġsec ond
s erv
m e
= \
E lement
2 2
Ġ ?
us er
olog y
b ut
Ġever y
Ġn on
ath er
it or
In fo
ĠR es
Ġm ed
Ġp ass
I nt
as es
T ext
Ġs ize
ar n
Ġ z
al th
_ \
Ġse e
Ġ );
o od
Ġap pro
Ġb uild
Ġpro cess
un c
A dd
N ode
ro p
se arch
ens ion
m d
i ence
on se
Ġth ree
a pe
et work
u i
Ġ\ \
' :
over n
" "
w ord
l ish
Ġs erv
Ġth row
ition s
M an
L A
Ġdiffer ent
Ġass ert
Ġl ocal
Ġat t
ain s
Ġd uring
per t
col or
Ġb el
trib ute
âĢ ľ
ch n
/ **
F ield
Q u
Ġd evelop
4 0
I C
P aram
ole an
uth or
Ġor der
Con fig
Ġm em
Ġbec ause
Ġpart ic
eg a
lo se
Ġf ind
P ath
al ign
() )
et ers
Th is
o x
Ġgiv en
Ġm ade
Ġs ing
Ġerr or
ames pace
Ġrequ est
. âĢĿ
an e
at s
Ġe lement
le ss
ig ma
Ġev ent
Ġdis c
Ã ©
ou th
Ġf am
ĠS c
D ef
Ġte am
b all
Ind ex
//// ////
19 7
iss ion
Ġb l
iv es
ur al
l ength
M ap
Ġre le
it al
W ith
******** ********
ar m
ction s
Ġper form
St ate
Ġg u
r ide
T R
iv ed
Ġf act
ak ing
Ġl ink
ĠF r
Ġev en
ĠI s
Ġfollow ing
ĠA nd
ust om
3 3
Ġcont in
} ;
ir c
E qu
Ġm at
Con text
con fig
Ġ{ \
Ġa ut
ph i
d es
st ance
. ,
Ġw rit
m p
Ġ/ *
Ġar ray
f in
I tem
} _{
R e
o ff
Ġto p
} ^{
Ġm ain
Ġkn ow
ep s
Ar ray
Ġd id
m it
ur s
ur y
Ġ-- >
- \
ap i
port s
v ir
ĠO n
f e
al ity
2 3
U R
ual ly
it er
ĠĠĠĠĠĠĠĠĠĠĠĠĠĠĠĠ ĠĠĠĠĠĠĠĠĠĠĠ
Ġstr uct
Ġ( !
Ġt erm
pt y
^ {\
in ess
P I
F orm
S ervice
Ġp ar
Ġl ook
n ode
b lock
ap ache
plic ation
Ġw ay
O ver
m ap
u f
Ġcont ent
Ġh tt
Ġt em
res ult
6 0
Ġd own
end s
id d
i ev
al k
Ġin formation
Ġle ad
Ġ u
in ter
d t
Ġv ery
. "
Ġex per
a it
ate g
w it
el s
= '
N ot
Ġo wn
ain ing
ĠD e
Ġ} );
um er
Ġch ild
2 1
O r
Ġt arget
ĠR e
D es
\ \
Ġm ust
ic on
' ;
Ġop en
m odel
c d
Ġeff ect
Ġall ow
Ġm ark
l ambda
Ġdef ault
u ck
lob al
ist ory
Ġvar i
c o
in a
ab ility
ist r
math bb
ĠC l
202 2
Ġ} ,
ign ed
Ġre f
Ġv is
ul ation
[ ]
y nc
ef ore
v ious
Ġm ov
s ide
Ġt ext
f rom
tr ue
ag s
Ġw orld
m y
pon ent
ar ge
Ġm et
S ize
b ol
A ll
ĠP h
Ġprov id
n ess
Ġpro t
ĠUn iversity
Ġl og
Ġp op
ac es
o bject
Ġhe lp
ut es
## ##
b ed
Ġe ar
ar i
Ġh ere
Refer ences
n et
Ġc oun
Ġth ose
ĠP r
2 8
in put
i or
ĠĠ Ċ
t itle
ver t
ĠY ou
A l
Ġin cre
B uild
ig inal
h ip
r al
il ter
A D
2 7
Ġf in
Ġbe g
b s
ile d
Ġus er
b ody
pl ate
val id
C ode
F r
act er
iv ely
Res ult
n o
en u
Ġs l
Ġc heck
Ġrec ord
et urn
Ġle ft
err or
Ġc ar
ak es
he ad
Ġinclud ing
Ġcons ider
our ces
Ġn ext
ific ation
L O
us iness
Ġs ince
us ic
ĠAmeric an
Ġsm all
M essage
Ġa v
b l
p oint
U T
+ +
Ġcomm un
Ġp at
i um
im it
if t
ĠS he
Ġp ath
Ġt yp
H and
ĠM ar
ev ice
Ġb ro
able d
pert ies
iv ing
cre ate
b eta
ww w
Ġle vel
l ished
Ġre ce
in ation
od es
og raph
tr act
ĠA ss
ĠA d
ĠH ow
E D
Ġw ant
ail able
Ġrequ ire
ĠL e
F F
H e
se c
ass ert
com e
Ġm ult
Ġc ent
com p
l t
Ġj ava
="../../ ../../
du ct
O f
IN G
> &
ast er
pl oy
w are
I s
2 6
ou ble
re t
ail s
v ersion
um e
Ġcre ate
il on
def ault
I G
Ġ: =
m et
Ġfe ature
M A
Ġcon fig
Ġm uch
ym bol
Ġb reak
Ġp oss
lo at
oh n
Ġ ,
Ġp ost
Ġresult s
ri x
Ġb lock
Ġp resent
cal e
in fo
Ġagain st
V al
ĠO r
oc us
ĠâĢ Ķ
C H
Ġ( \
P h
ne ction
Ġval ues
Ġap pe
sh ip
s m
g t
nd er
Ġpro ject
Ġtr y
ĠE ng
ĠS ystem
p or
Ġ= ==
en e
o ber
s k
st art
UL L
iv ity
re ate
Ġv ersion
le y
I S
Ġpro gram
om en
ir d
ĠG et
Ġex ample
Ġcon d
Ġs rc
Ġan al
pon se
ition al
Ġgo od
Ġt ri
M L
Ġex p
b ase
2 9
t ings
Ġle t
includ e
Ġst ill
^{ -
M P
Ġv iew
ur ity
che s
Ġg ame
st ate
ild e
u ro
orm al
I t
et y
cont ent
---------------- ----------------
Ġp res
ĠW h
ou nc
n ext
d own
ĠA ll
S c
ma x
j ava
Ġf our
ĠA t
Ġhe ad
a ut
un e
en n
ĠJ an
a i
ĠUn ited
s igma
Ġid ent
Man ager
Ġ_ _
Ġd on
ic y
t n
Ġt ake
E T
pl ace
en ame
Ġa round
Ġc ode
p m
u age
Ġin put
Ġcal led
Ġpl ace
press ion
L og
k en
, âĢĿ
t es
ict ion
Ġst yle
M odel
ĉĉĉĉ ĉĉ
Ġre al
ac y
Ġcon text
Ġc r
u str
c ss
S er
lect ed
Ġ} ;
T able
ĠB r
ele te
us ing
U p
ĠP l
8 0
Ġp erson
end er
def ine
s w
Ġst and
Ġm ax
and roid
it t
re c
go ogle
Ġb ase
ĠM ay
um p
g amma
O ut
Ġd el
) }
Ġim p
che d
end ed
Ġex pl
ol v
ott om
N ew
ĠG r
sp ace
Ġre port
con text
math bf
Ġrep resent
Ġs chool
Ġl ife
am ed
Ġb ased
ar row
Ġd ep
Ġo ld
Ġind ex
4 5
F rom
an sp
A B
on y
ic le
20 20
Ġo ptions
Ġn ode
; </
Ġbe st
A S
m ethod
U ser
; &
m b
U N
Ġre fer
c enter
Ġch ang
tain er
Ġdes cri
G roup
Ġinst ance
roll er
ele ct
lic k
Ġd i
E S
EN T
ug g
s up
D O
l ing
Ġp ower
is ed
c ast
ear ch
R eg
a f
ore d
w ith
Ġm ap
Ġwith out
Tr ans
ĠCom m
ide o
Ġs ource
vir on
pack age
Ġit em
P l
=" ../
pro t
ĠB l
Ġkn own
o ption
u x
ĠT o
iv al
D is
Ġ Ð
Ġwith in
9 9
overn ment
+ \
Com m
Col or
ator s
se e
Ġn il
In ter
Ġb ook
ĠM an
at ely
Ġc are
Ġte chn
Ġc ap
c ount
ple ment
av ing
======== ========
S ystem
d elta
ĠĠĠĠĠĠĠĠ ĠĠĠĠ
it ive
A nd
Ġd ay
T D
anc es
s l
ĠS p
Ġan n
or ies
Ġc our
Res ponse
er o
Ġs k
ad i
202 1
Ġl a
w eb
Qu ery
re l
" .
ater ial
I L
ĠU S
t ab
Ġcon f
che ck
ĠC an
ith ub
ol ution
ain ed
Ġ et
Pro perty
tern ational
w ays
d oc
st yle
il ar
i od
O T
Ġs om
il t
n amespace
Ġacc ess
Ġwe ek
Ġs ervice
pos ition
ĠB ut
} {\
Ġl ater
Ġad v
Ġb ool
a ff
pr int
Ġst d
Ġo cc
ĠC ar
um ents
ill ion
C all
C lient
=" #
^ \
Ġse ver
r ho
Ġadd ress
u les
Ġser ies
ĠI m
Ġorg an
Ġsu ccess
> (
t ual
Ġis s
Ġresp onse
C l
P r
u ary
Ġse ason
Ġpro ble
r ist
i que
Ġ enc
if ier
he s
b ig
f alse
ĠThe y
Ġt able
as ure
Ġsing le
d b
ib r
3 5
Ġbe h
201 7
ix ed
Ð °
Ġ$ (
Ġ ke
ok en
s q
th s
ord ing
* }
read y
st atic
Ġfam ily
ent ly
eg er
C ount
Ġcont rol
ev ent
ref er
R ec
6 6
g ithub
R ead
ou d
201 5
Ġch ange
Over ride
C ell
ur ch
Ġl arge
Ġin itial
ann el
201 6
the ta
str u
Ġl aw
in c
ĠĠĠĠĠĠĠĠ ĠĠ
Ġcol or
g ress
C E
oc ial
) </
u k
p en
ĠJ ohn
Ġdist ri
ĠE n
and s
ta u
Ġd em
Ġin s
Ar g
Ġsp ace
Build er
Ġa ction
âĢ ¦
is on
c all
M od
aj or
T H
ain t
201 8
M ethod
Ġav ailable
Ġc ount
Ġpos ition
act ory
Ġth ink
A d
âĢ Ķ
Ġan other
Ġfil m
U S
Ð ¾
ĠâĢ ĺ
ur ther
at ab
n ect
ĠW orld
wh ere
Ġ( )
ĠT e
ang le
ĠĠĠĠĠĠĠĠĠĠĠĠĠĠĠĠ ĠĠĠĠĠĠĠĠĠĠĠĠĠĠĠ
eb ug
math rm
h old
v en
ĠN ov
Ġm essage
$ -
im ate
ĠL ist
ĠSt ates
our n
at ter
Ġinclud e
I P
b uild
Ġf oot
ener gy
Ġob serv
o ptions
r t
Ġlink s
l ight
ord s
le m
n u
0 1
5 5
a im
o op
20 19
< !--
fig ure
ward s
Ġto t
pro v
ĠS et
Ġback ground
ĠN ULL
Ġf ull
ic ro
viron ment
Ġb ound
Â ł
Ġle g
Ġun til
] (
d e
c urrent
arg in
ut ure
qu ad
ĠJ ul
end ing
l a
Ġob tain
Ġd ocument
ĠB e
im age
Ġand roid
Ġor iginal
eq n
D ate
Ġm atch
ĠC O
B ut
n ull
b it
Ġm ass
N A
Ġcom put
Ġinv est
Ġs pe
c ore
Ġn ear
r am
Ġr ange
Ġs um
ĠR eg
ĠC ount
St ream
I f
con d
] )
Ð µ
Ġre t
3 9
qu ery
d om
Ġplay ers
Ġare a
Ġh ome
f unc
id es
201 4
B ar
Ġex ist
Ġst at
Ġ eng
um an
part ial
Ġprodu ct
In put
le x
ĠĠĠĠĠĠĠĠĠĠĠĠĠĠĠĠ Ġ
t imes
b um
le q
ap er
requ est
Ġp ub
ĠN ational
Ġo pt
Ġinter est
Ġb usiness
ag ement
Ġ< <
Ġal ong
Ġn etwork
ĠN o
Ġd ue
St atus
Ġc ell
pec ial
li b
Ġb u
S ub
}$ .
E nd
ĠP ol
tr a
}$ ,
resp ond
ĠM in
ith er
ard s
Ġe lect
Ġb order
r un
Ġd epend
G ener
Ġoff ic
ĠG u
Ġ es
d ir
ar r
U til
e ction
l in
7 5
arg s
A ss
il li
Im age
( (
ys is
h and
Ġass oci
fin ished
an el
ser ver
un g
Ġpro perty
s im
ma il
Ex ternal
le g
Ġs ay
ph p
3 4
Ġl oc
ĠC al
Ġw idth
im al
Ġt urn
ĠJan uary
3 1
Ġf ew
ĠY ork
c lient
st and
] {
at form
} (\
in ition
Ġsh ort
I R
9 0
Ġp arent
ĠA ug
ib ility
19 6
Ġf a
F l
in it
Ġpre vious
Ġc a
ĠM ed
Ġab ove
ot o
Ġchar acter
Ġ( $
ON T
Ġ ->
Ġcomp any
Ġw in
ro du
rit er
B e
re en
D elta
ĠW est
om ega
ag ue
im um
Ġim age
3 6
ert ain
Ġb as
ust er
Ġdes ign
ĠG e
Ġres pect
act ive
ĠO ct
P os
and om
cre en
Ġl ang
Ġout put
Ġm ag
Ġgener al
i ans
Ġsup er
but ton
atab ase
c er
t ilde
ic a
Ġf ore
\ ,
Ġbo olean
Ġh app
N o
Ġsever al
al es
E d
u ed
N S
Ġstud y
Ġm usic
ĠSt ate
ut ions
or age
Ġa ff
ip le
S tr
ĠP ar
ef f
add ing
pos ed
ar ning
B lock
ĠS chool
ch o
Ġpol it
Ġs it
Ġp age
Ġg row
un finished
T oken
Ġv ol
ent ion
x i
ĠHow ever
in ary
able s
Ġ čĊ
h as
o pt
o ke
Ġ energy
p age
Ġpro m
In stance
Ġtot al
k s
d o
m ber
ty p
ag ed
4 4
Ġest ab
st it
Ġd om
Ġf ree
und le
3 7
bo ok
00 00
201 3
he ight
x y
Ġal ready
Com ponent
ĠB y
o sp
O ff
S ource
n ow
Ġ" ""
d l
Ġex ec
Ġcl os
ĠTh ere
che ma
op er
O S
ft y
j av
ĉ Ċ
al f
L ine
E L
Ġrequ ired
a u
Ġexpect ed
3 8
[ "
stru ction
P ar
ch ild
b tn
A pp
our s
ĠA dd
ĠT est
Ġle ss
A ction
om an
A ct
ĠE d
Ġhe alth
Ġto o
oug ht
E X
Ġreg ion
B ase
Ġc ur
201 0
yn am
ne y
ac ed
O P
( {
O ptions
ĠS outh
Ġs ide
eg r
Ġre du
Ġval id
ic ense
in fty
ĠS o
fr ame
ĠS up
N ull
uro pe
Ġw he
Ġpro f
ĠW ar
N av
4 8
ĠCount y
ur g
con om
Ġp ut
ĠA pr
Ġhtt p
Ġl ow
ight s
wit ch
H ead
Ġposs ible
Ġre search
Ġcomp on
Y PE
Equ al
itt le
Res ource
, "
ri or
m at
app end
ĠS er
Ġre st
c it
ĠA p
ĠM arch
Ġ+ =
Ġmem bers
ra ft
F A
Ġimport ant
St yle
201 2
he ader
Ġdef ined
Ġp ot
m ark
pt ember
y les
Ġc lear
Ġv ir
y l
Ġp ort
am ent
ĠS ec
z e
Hand ler
us ed
oc ol
19 5
Ġl arg
A G
t x
Ġpartic ular
201 1
A P
Ð ¸
L ay
Ġear ly
Ġsim ilar
eq ref
ateg ory
on es
B uffer
p arent
o ice
d ec
) {
Ġl ength
| \
Ġh old
ug in
O per
ap s
eqn array
t arget
le ge
im ent
Ġro le
n on
id get
Ġm ajor
row s
n s
ĠR ep
ĠC o
Ġde ath
RE F
Ġme an
R un
M S
Ġp ay
7 0
D ec
d r
Cont ent
Ġd iv
ĠĠĠĠĠĠĠĠ ĠĠĠĠĠĠ
Ġh ost
Ġt imes
Ġg overnment
erm an
Ġc ity
re ct
is ing
Ġc ustom
se lect
E E
ĠĠĠĠĠĠĠĠ Ċ
id ual
se mb
' '
cl us
ce mber
Ġchild ren
At tribute
ĠC ont
ig ation
ĠI nt
$ $
ure d
im ary
Ġdet erm
r s
ustr al
Ġg reat
c ase
c or
ĠF l
Ġgo ing
ĠC ity
ĠD r
ĠB o
a e
c ul
Ġpoint s
ab ly
ad a
ache d
al t
om et
j son
iz er
S P
ĠQ u
l ocal
Ġg l
S elect
Ġqu est
Ġper iod
Ġal ways
s rc
Ġp ack
Com p
im ation
Ġtr ack
ist ic
nav bar
u ation
C K
W h
Ġa uthor
c apt
" ]
c le
Ġacc ount
F actory
ĠW ith
U E
fl ow
ac ing
th ers
an ch
ad ata
AT E
Ġr a
ĠJ une
ĠR ec
n own
p c
Ġal bum
ĠB rit
F unction
r l
St art
0 5
i ents
* /
Ġb ody
li ed
Ġcom b
ĠI N
Ġspec ial
g or
S ec
Ġs ong
v ers
H E
W indow
Ġbet ter
ĠG ener
th ing
mod ule
op en
ist or
Ġdis play
Ġm ight
Ġl ate
ĠP art
Ġw on
C C
Ġbec ame
an a
st er
il it
pro perty
Ġme asure
Ġe as
Ñ Ĥ
x ml
p tr
ĠAug ust
ĠApr il
Ġne ver
T O
Fr ame
Ġcor respond
trib utes
ĠA b
ĠCh rist
ĠSe ptember
Ġ ide
ial og
i ke
ud e
c ell
um b
Def ault
er a
Ġc over
Ġstr ong
Ġl abel
Ġw ater
ĠN orth
Ġd est
A p
Ġb ig
ot ype
U s
Ġl and
O D
if f
i j
ĠF eb
op s
raph ics
d f
ĠOct ober
st atus
L ink
ĠE urope
O L
Ġs at
V ersion
Ġm ar
ĠO bject
Ġse ction
Ġprov ide
s g
//////// ////////
ĠJul y
H T
ch ar
~ ~
re w
LA SS
Ġev ents
p ose
Ġn um
m ember
d ict
se qu
in o
f irst
Ġl ay
S p
g ener
ep ar
l s
b ottom
Ġw omen
Ġle ast
h ost
ele ment
dis play
Ġs ays
ore m
str ong
g ed
Ġdisc uss
ĠD es
Ġres ource
Ġh istory
ĠR eturn
P oint
pect ed
Ġind ic
ĠN one
row ser
ĠC lass
ansp ort
Pro v
Ġfoot ball
l ast
Ġpr int
Ġpro b
ĠW hen
ĠDe cember
Ġc ost
p ost
b ution
v es
n a
Ġsign ific
N umber
Ġl oad
f ind
ĠNov ember
Tr ue
ĠA ct
Ġre ally
id s
b uf
p ly
Ã ¡
Ġh ard
ĠD is
Ġm ove
} );
c m
T ask
ĠM c
gor ith
ĠG o
Ġprot ected
epend ent
m eta
ps i
Ġc lient
un k
ĠM e
w rite
Ġparam eter
Ġparam eters
og n
re st
Ġfor mer
eth ing
g le
e ed
Ġp o
on ly
le ase
Ġe ither
Ġs ite
art ment
ab or
202 3
V ER
Ġb ir
ens ure
g en
des cription
) (
st ream
ri ed
Ġan t
re et
app ing
Ġproble m
er ing
200 9
P art
p ush
Ġo ption
h am
L abel
Ġl ight
F ilter
ĠN ot
Ġac ross
ip p
ug ht
ir m
pr ivate
ĠD ef
ĠCom p
Ġe p
Ġ{ @
Ġcomm and
ft ware
Ġc oll
ĠĠĠĠĠĠĠĠ ĠĠĠĠĊ
cd ot
Ġthrow s
id ence
el ine
Ġcre ated
st d
Ġg lobal
P age
Ġd ays
s i
Ġc lose
F I
} }\
Ġim plement
ĠF ig
s ol
ru ary
ar ing
im ension
$ {
am a
p ng
Ġt ask
im g
Ġcont ain
Ġcol umn
ak en
Ġw indow
I I
Ġpot ential
capt ion
Ġ Â
0 8
Comm and
g ing
ĠThe se
Ġst atus
fo ot
Ġcomp et
Ġhtt ps
Ġm ember
end if
Ġmodel s
( &
G L
lay out
Ġshow s
ud io
v is
Ġre d
ĠC or
in st
f ont
4 7
C heck
ch ange
eps ilon
4 9
200 8
// /
id ge
E m
ĠA ustral
Ġf und
Ġ( (
Ġd one
ad io
Ġf ocus
ist ry
form at
Ex t
I M
A A
Ġcommun ity
R ow
Ġf ri
Ġl imit
ag ing
Ġterm s
O m
Ġke ep
li es
ob j
Ð ½
Ġst ory
ĉĉĉĉ ĉĉĉĉ
ugg est
Ġcoun try
H el
oin ter
l im
m em
Ġme ans
C reate
Ġj oin
Ġof fer
Ġmark et
Ġam ong
ot ion
Ġd en
ĠO ff
Ġin du
P ol
d et
av es
ed er
th ough
li p
Ġf urther
Ġwhe ther
Ġph ys
s igned
action s
Ġd er
Ġpr act
Ġf ar
} [
as cript
Ġfr ame
he m
Ġof ten
Ġin div
ig r
F ONT
Ġem ploy
Ġse em
op h
idd le
at al
id ed
)$ .
Ġm illion
so le
Ġd eb
ri es
amp ion
Ġhe ight
ther n
Ġcom e
Ġa ir
R A
yp es
Ġdevelop ment
Ġ url
y nt
S C
S up
Form at
u ccess
ock et
Ġbe come
Ġs ocial
he et
Ġprovid ed
Ġrele ased
idd en
l en
ry pt
0 7
semb ly
ens ity
Ġext ends
Ġm om
ic ation
Equ als
ch i
Ġint rodu
Ġs ample
al let
od ing
m ost
Ġj ob
ult ure
ĠA fter
i ol
ibr ary
Ġd ev
Ġto get
ĠO ne
g es
Ġd ouble
Ġtr ad
n ers
Ġto ok
if act
q l
4 6
Ġse arch
Ġmed ia
ograph y
R eturn
Ġtoget her
ac c
re ed
Ġc amp
tt p
Ġab le
v ision
List ener
Ġsh own
P re
ĠD o
pro ject
AB LE
as ing
Ġd ate
ent ry
olog ical
Ġup date
Ġf uture
Ġc atch
y d
Ġg ot
str act
m on
var i
it ory
Ġserv ices
Ġsignific ant
ens or
S ON
Ġg ames
Ġperform ance
Ġc rit
Ġf ive
Ġth ird
one y
u id
B U
Ġc opy
resp onse
ver age
Ġar r
Ch ar
p y
ĠR ev
Ġed uc
ĠP res
G r
Ġa ge
ill s
he l
w ise
ire ction
il ities
B ox
T ER
Ġrece ived
P RO
sq rt
Ġh ouse
Cont roller
ĠV al
Ġli k
" ),
olv ed
ex p
Ġqu ant
Ġt re
Ġre view
Ñ Ģ
g l
Ġv ia
i i
ou ch
Ġwork ing
s ervice
Ġ ]
ap ter
} _{\
Ġindiv idual
Ġm aking
m m
il er
o o
N O
it es
d ev
Ġbel ow
ĠFeb ruary
n um
ourn al
ap an
param s
av el
c lose
al y
Ġ< !--
ĠR uss
Ġform at
_ .
Ch ild
er efore
Om ega
Ġpl an
Ġ q
Ġh uman
G amma
200 7
Ġh aving
0 6
^ *
F irst
med i
Ġelement s
20 00
lection s
bo ard
am s
Ġv ideo
Ġin ternal
H ow
m t
il le
R ep
S ee
Ġstruct ure
Ġbeg in
Ġf ac
ic ient
ĠB ar
Ġon ce
un ch
Col umn
le vel
Ġl ittle
" ).
4 2
Ġc irc
Ġfeature s
Ġse qu
Ġg ive
con tainer
ag n
U M
ĠU p
up date
m ult
Ġs ent
a ul
ĠK ing
c an
Ġw rite
iev e
f ilter
Ġse en
Ġb it
0 9
Ġadd ed
p ol
Ġplay ed
is k
Ġrel ations
U I
Ġm argin
Ġsom ething
Ġspec ific
Ġp ast
jav ascript
200 6
ref ix
ac ity
sm all
Add ress
**************** ****************
O b
ann ot
b ased
Ġdif f
L ast
Ġcl aim
B undle
ĠP er
Ġal ign
M et
ĠH igh
i ef
A b
0 2
E nt
Ġassoci ated
Ġstud ents
P C
UR L
Ġc ou
Ġs ix
Ġm er
Ġyou ng
ĠĠĠĠĠĠĠĠĠĠĠĠĠĠĠĠ ĠĠĠĠĠĠĠĠĠĠĠĠĠĠĠĠĠĠĠ
Ġp ress
ĠM on
fer ence
Ġpro perties
Ġin f
em ents
ro y
ĠAr t
Ġar ch
Ġas k
r ing
m enu
Ġmethod s
Ġb en
ad em
at tr
Ġcon c
ur b
m ar
Ġc ases
B ack
Ġspec ified
Ġr ate
ig ger
Ġme et
ps ilon
Ġst ates
ĠTh at
: </
ĠE X
0 4
ĠA g
Ġst ream
Ġinclud ed
ĠA fr
ĠP ark
Ġn ec
ER R
Val id
ĠC ent
Ġa way
Ġaut o
Ġth ings
< ?
Ġv er
A ut
y ear
C ache
so ft
is es
} =
Ġs pect
ĠH is
Ġ$ {\
Ġchang es
A cc
rem ove
ĠS ch
L ength
T em
Ġ` `
pl it
Ġs epar
W eb
iv en
Ġl ower
ĠD ep
Y ou
Ġm iss
m ain
Ġfunction s
Ġg en
`` `
Ġmod ule
struct or
Out put
Ġatt ack
Ġoffic ial
Ġs che
Ġn ormal
C ON
ĠCh ar
pro to
s ymbol
Ġn amed
ĠD av
c ap
ĠS tr
6 5
0 3
Ġcon trib
N D
st yles
Ġc ross
ce ed
out put
Ġ ...
i as
8 8
in stance
Ġbuild ing
Ġcontin ue
ĠH REF
ĠC LASS
ing ton
Ġlang uage
But ton
h a
I O
9 5
Ġser ver
Ġst ep
ef ined
Ġvar ious
Ġs w
Ġd eg
Ġf ail
' ).
iz ing
Ġanal ysis
Ġst op
ond on
p ass
ĠA m
P er
D et
Ġk ind
Ġen vironment
)$ ,
I V
ĠL a
ig in
Ġhe ld
T P
sh ow
e h
un ity
Ġcall back
Ġbu ilt
col umn
Ġ\ ,
Ġm aterial
el se
Ġto wn
N ext
ER T
ang ed
Ġn eg
Ġsystem s
Ġdescri bed
sub section
Ġcomple x
M ode
pro cess
> >
ore s
Ġhigh er
is f
Ġstart ed
to ol
U rl
Ġc enter
i et
Ġap plication
Ġin it
Ġcomm on
r angle
.. ..
Ġn ational
ens ions
Ġs uggest
ĠM ark
ov ed
I Z
Ġm en
at ural
Ġact iv
Ġ[ ]
Ġse lect
Ġp erm
M em
Ġt reat
Ġf ont
ly ing
Ġfe el
W hat
S pec
Ġs ym
ĠO F
ar ies
ĠS m
Ġb and
ĠIn ter
v are
d ep
Ð¾ Ð
requ ire
Ġfield s
Ġc ame
al d
Ġexper ience
ak er
Ġob j
Ġt ele
k nown
Ġpop ulation
Ġv ert
6 7
ĠI D
off set
h ib
sc ope
istr ict
Ġinst ead
Ser ver
) =
Ġen ough
Ġe conom
ĠM y
right arrow
ord in
Ġbl ack
or iz
t ag
ĠBrit ish
o on
Ġ! ==
^{ (
Ġth ough
Ġsu ff
Off set
Ġc ertain
ad es
un it
n umber
R em
Ġstand ard
Ġrele ase
Ġwork s
T YPE
enc ies
Ġo thers
Ġs ure
or ph
es e
++ )
ĠB ro
ch an
Prov ider
Ġto ol
oc r
Ġtyp es
A M
ren ch
CO L
Up date
Ñ ģ
B ig
ĠEng lish
ĠH ouse
ĠD ata
Ġadd ition
b or
Ġn one
ug e
Ġcare er
T ag
Ġw ar
Ġfile s
ĠA PI
Ġl ot
ĠH T
Ġfollow s
D B
s pec
v ec
am ily
Ġt w
L ocal
Ġre ason
d raw
Ġcond itions
Ġn av
Ġwrit ten
Ġph ot
Ġpub lished
NA ME
refer ence
ĠTr ans
at as
gorith m
Ġh alf
Ġam ount
row n
Ġreturn ed
200 5
ĠP e
() ->
Ġm ode
ĠH er
att le
ĠE ast
vare psilon
ĠS im
Ġl im
adi us
Ġmult iple
Ġwe bs
s d
O ne
per ature
Ġplay er
ound s
C L
Ġbeg an
M in
Ġgroup s
prot otype
Lay out
Ġc y
ev en
ĠA ir
f inal
Ġappro ach
c el
Ġdistri bution
Ã ³
Ġcan not
min istr
A ccess
Ġsim ple
b a
Ġprodu ction
li er
Ġ enter
ĠJ apan
le an
ol ve
ess ages
ĠAr ray
Ġappe ar
A fter
b old
Ġvis it
Ġinter face
Ġconsider ed
ĠE m
Param eter
ĠF ile
ex ec
par se
l ong
W idth
ex ample
}^ {\
Ġl ocation
ell ing
Ġm akes
| -
ist ics
Ġhow ever
an ies
Ġac cept
Ġsh are
ounc il
ĠR ed
ic les
L et
av en
Ġin fl
I F
al le
Ġdoes n
b ind
Th ere
% %
ele g
Ġl ive
ĠS w
ĠH ar
Ġg e
Config uration
( _
ĠCol lege
am l
Ġl ove
ver se
ĠT ype
tem pt
Ġcour se
l it
Ġ Ã
Ġy et
plic it
Ġunder stand
P ack
M ax
var phi
Ġeng ine
Ġbeh av
Ġ* *
ĠA cc
ĠL ondon
Ġqu ery
text bf
w indow
i ber
Ġa verage
res h
ĠM ore
Ġs s
Ġp aper
Ġ row
V is
ĠL icense
at ory
] );
U P
ĠA c
Ġarg s
bo ol
Ġcomm it
S D
d epend
u int
} ).
Ġcont ains
ĠThe n
ut ed
util s
ob ile
Ġb ar
f ord
Ġoper ation
à ¤
f a
Ġp ur
7 7
Ent ity
Ġt aken
tem plate
T arget
cript or
ounc ed
at tern
Ġsub ject
Ã Ń
ĉ ĠĠĠ
ex pected
Ġacc ording
Ġsol ution
Ġconst ant
Ġinst all
ĠIn ternational
AT ION
il i
ĠLe ague
Ġf all
Ġs em
#### ####
w rap
T ypes
du c
4 1
str ap
anc ed
and id
ig ital
="../../../../ ../
Ġcomp os
ĠG roup
tr ies
d ated
ã ģ
Ġex press
ul a
ĠNew s
Ġadd itional
ing le
Ġloc ated
T op
Ġrefer ence
Ġp air
Ġgr ad
b orn
5 00
b reak
ĠW illi
pro p
oci ety
4 3
Ġresp ons
str y
old er
Ġtr aining
Ġcons ist
Ġl oss
sup port
od ed
ĠE l
O pen
UL T
t ask
Ġs cale
c irc
Ġmat rix
Ġs cal
return s
ot al
ampion ship
ir it
ĠM ich
Ġro ot
O p
Ġev al
Ġcon nection
o z
sh ould
ĠG L
200 4
ĠW eb
Ġent ry
b in
em pty
Ġreport ed
k it
em ph
u el
w ide
Ġh om
A meric
Ġrel ated
c ache
Ġf loat
Ġu int
Ġwh y
Ġreturn s
Ġnew s
Ġsuccess ful
li ke
Ġro und
Ġun it
Ġact ive
Ġl ines
ĠW hat
D r
. \
Ġt alk
Ġap plic
B C
to ken
Ġth ought
8 5
E nc
Ġg raph
comm on
Ġvir tual
CO DE
=" -
P O
Ġfil ter
he nt
Ġcal cul
C ase
ic an
W ork
bo ot
W hen
c s
Ġnec ess
Ġbo x
Ġcompon ent
Ġint egr
m atch
ĠAmeric a
( [
ĠR em
art ifact
Ġthe ory
ĠI I
Ġto day
Ġfl ow
iz es
V ID
Ġ{ }
Ġat tempt
class es
ip s
' re
qu are
Ġw ent
ed ia
ot a
Ġcomple te
ĠInd ia
k a
Con tainer
ĠS an
L evel
a uthor
ro ot
eg raphics
Ġch o
includ egraphics
En try
K E
ilit ary
cont rol
Ġmom ent
Ġp rior
ĠPres ident
Ġl en
. )
: "
Ġ ::
. ~\
A V
Ġpartic ip
ĠR ef
Ġc ut
Ġb uffer
Util s
ic ip
Ġt im
l ate
Pro cess
Ġle arn
T ree
in ner
ut able
Ex ec
Cont rol
lay er
Head er
Ġappro x
il led
Ġch all
a ign
Ġa ch
f loat
ell ow
t ree
ĠS ub
b m
=" _
sk ip
Ġg round
w ait
ic o
Ġcol lection
it ect
He ight
vent ion
av or
Ġent ire
P e
Ġcond ition
. $
Ġestab lished
Ġtrans form
Ġneed s
ĉĉĉĉ ĉĉĉ
} /
ho od
ĠPh il
Ġass um
Call back
c r
Ġbe com
over line
Ġpl atform
' ),
Ġn ov
Ġr andom
Ġt ag
Ġcl ub
L ambda
R ange
file s
Ġdet ails
W rite
i qu
d ocument
D e
ri ef
if orn
. }
Ġst ation
ĠS ee
Ġmon ths
Ġoff set
c i
Ġpro p
Ġdec l
ar a
ĠL et
Ġd evice
} ),
ĠS k
C opy
ĠA pp
Ġneed ed
ic ult
b uffer
ĠReturn s
ate gy
Ġsat isf
Ġrem ove
9 7
m box
ast ic
Ġfil ms
om s
L oad
. /
a ur
ĠSt ud
et ch
ĠF irst
ĠF rom
ist ance
pro of
ĠC our
B o
Ġr ather
) ]
9 6
S H
r is
Ġf requ
" ))
st ant
Ġmon th
Ġd oc
ĠU s
Inter face
ĠD em
s cale
C D
Ġaut om
> ,
un t
Mod ule
th on
icro soft
ã ĥ
F e
Em pty
Th at
[ \
Ġrun ning
ĠO ut
oci ation
ens ive
& \
at ives
PE CT
Ġ ~
ad ow
ach ine
L ocation
r ics
Ġf ig
V AL
a el
ge q
Ġl iter
Q L
Ġim prov
A g
iforn ia
Ġspec ies
Ġinclud es
p o
res ource
Ġb i
Ġ ill
8 7
Id ent
av y
s y
led ge
Ġreg ular
Ġse lected
Ġex ception
ĠC enter
ĠD on
Ġv ill
ile s
Ġn ight
B r
IN T
Ġn ames
Th read
Ġ ;
Ġpol icy
R L
ct x
val ues
j ust
Ġwebs ite
app a
ef t
ĠL og
Ġp ers
p atch
Ġn umer
AR T
ĠW ork
ub e
act ers
ĠAss ert
Ġquest ion
200 1
S earch
ul ly
ab s
] [
Ġf ire
Ġf ace
{ {
; ->
Ġright s
Ġfr ont
Des cription
Ġde al
Ġon line
Ġcurrent ly
un n
S O
Ġun ique
Ġd ynam
n ap
H ttp
ĠHe alth
Ġtem perature
O ption
Ġit er
Ġ* )
r ict
artifact Id
ĠĠĠĠĠĠĠĠĠĠĠĠĠĠĠĠ ĠĠĠĠĠ
Un it
ĠD E
IG N
Ġle d
J son
s ign
Ġimp act
in n
Ġin ternational
="../../../../ ../../
Ġdes cription
ang er
Ġf ood
Param s
d rop
Ġper cent
K ind
Ġsol id
n ected
t ml
Ġcomp anies
S cript
Ġobtain ed
Ġpos itive
ĠC reate
gr ad
ĠRep ublic
stit ute
5 7
Ġoper ator
200 3
) ^
lang le
n es
Ġd a
us es
Ġwh ite
Pos ition
c ar
Ġhapp en
Ġprof ession
G e
Ġprovid es
Ġal most
anc ial
a id
Ġdistri but
i ers
Ġcor rect
ĠD i
h an
' >
iss ions
ach ing
comm and
R el
ar ter
ĠD ec
Ġrec ogn
Ġcre d
9 8
app ed
R I
Ġf it
}, \
en v
or ge
Ġp ain
C P
N one
om b
Ġdid n
ve y
lic e
ĠV ir
g n
D irect
A PI
Ġpolit ical
pecial ly
t im
Ġt ax
L I
ache s
M M
ĠBl ack
Ġv iol
D o
Ġindu stry
Ġcon sum
Ġann ounced
Ġobject s
back ground
ĠT O
Ġ> =
ru pt
ĠF rench
b efore
H ash
ma z
m ing
n ab
Ġiss ues
IZ E
f s
Ġare as
Ġhand le
S im
ut or
d ot
cent ury
st ack
wit ter
Ġcom es
AC K
group Id
model s
P ost
Ġrec ent
und er
Ġact ually
u it
Americ an
C urrent
d evice
Ġcorrespond ing
Ġc apt
Ġph ase
P ort
c os
con f
Ġv ector
at rix
Ġex act
Ġs on
B l
ĠL aw
Ġso ftware
ĠR ead
Ser ial
Ġ" \
iv il
Ġd ensity
ĠInd ian
6 8
ark s
ĠN or
urs or
Ġcent ury
Ġt ree
el t
wh ich
r d
Ġt aking
ĠN e
Ġits elf
Ġsur face
ĠM od
c a
ri p
om ic
Ġreg ister
E Q
Ġpop ular
ul ations
erv ices
Ġfa iled
Ġincre ase
Ġpat tern
COL OR
ĠO pen
im ages
ĠD istrict
F O
F ont
i os
ĠCal ifornia
Ġus ers
Ġfil ename
Ġre nder
Ġem pty
H O
ĠC ons
Con nection
Ġiss ue
land s
Pro ject
ĠP ort
T I
Ġp adding
styles heet
Set tings
tain s
c ial
ma ke
IN E
Ġover ride
ĠI r
Ġdef ine
Ġh istor
Ġ ir
ĠSt reet
Ġz ero
% ;
ms g
o e
Ġd raw
im ated
Ġben ef
? :
Ph i
ĠN S
s f
Ġlead ing
w in
" ));
U B
Ġlik ely
Ġt akes
Ġtechn ology
use um
Ġfor ce
Ġeffect s
Ġinfl u
Ch ange
Ġpat ients
at io
Ġm oney
b urg
h line
As ync
ag on
ag ment
h ash
E CT
n ov
Ġqu e
Ġrelations hip
Ġsec urity
ĠP at
k appa
u a
Ġex pression
b order
sp lit
Ġw ait
u ate
Ġs end
Ã ¼
ld ots
u ous
y es
D ir
ri a
Ġex ists
Ġst ore
Ġt ell
Ġus es
ul ated
j oin
Ġline ar
it ude
Ġwho se
ĠS T
d ebug
Ġf em
Ġconfig uration
i ences
oun ter
y a
Ġs creen
at ur
lo od
erv e
ĠS ervice
Ġro ad
Ġbir ths
Ġperson al
ĠS en
ag ram
Ġb orn
P tr
Ġwrit ing
pon ents
Im pl
ain e
Ġreg ard
Ġbro ad
200 2
Pro perties
Int eger
erv ed
Ġwho le
Ġallow ed
id a
ĠB uild
M O
Ã ¤
Ġsc ope
Ġth ing
k ind
ĠEX PECT
d en
ank s
ĠM et
D ocument
ĠGener al
ĠC heck
} }$
C A
ã Ĥ
F ig
Ġp ick
ain ts
or ing
Ġx ml
Ġsupport ed
() :
Ġparam s
Ġst ar
Ġarg uments
Pro t
in ated
oriz ont
u z
Col lection
ĠT V
D D
5 6
Ġc he
s cri
ĠC up
ang es
AN D
ĠD irect
mod al
: (
d at
t hen
s ystem
Ġm ot
Ġmem ory
Ġs ession
ĠP re
Ġpro te
E ng
Ġv ot
B A
Ġh it
AL L
z er
In st
c y
Ġdist rict
Ġex cept
ict ure
if orm
m ission
OR T
Ġ( "
Ġst re
Ġequ al
C o
5 8
ĠE nd
M enu
Ġst age
l or
Ġman agement
Ġserv ed
S ession
C an
Ġfor ward
Ġpart y
non umber
Ġprodu ced
Ġart icle
Ġop port
ĠA nt
g reg
Ġw ord
Ġtem plate
ĠE ar
Ġin j
( :
l n
ĠT ime
p op
Ġcon tract
C al
Ġset s
Ġarg ument
f g
ĠEx ception
ĠCh ina
Ġw ords
enc ed
ĠS ome
Ġqu ick
eder al
iction ary
Ġeff ort
ĠCan ada
Ġth us
ĠDep artment
Ġrespect ively
ct or
B O
Ġcom ment
typ es
el ves
Ġn atural
Ġw atch
a uth
Ġcon v
5 9
od er
over y
in ternal
ind ing
ug ins
c opy
boot strap
S chema
an ish
Ġout side
Ġs ort
c ing
Ġl ost
Rec ord
ĠDav id
C R
Ġpre dict
Ġin c
w s
Ġproduct s
Ġchar acters
Ġwe ight
Ġm id
Ġbeh ind
str ict
c lear
Or der
se cond
Ex pression
Nav Bar
ĠEng land
Ġdirect ly
Ġim m
c oin
I con
t og
Ġch annel
Ġto ken
Ġin fo
St ore
Ġw r
Oper ation
Ġcont act
Ġpass ed
M on
Ġcon duct
Ġh ours
Ġto ld
ĠAustral ia
er ed
Ġdevelop ed
s v
ple te
m ore
Ġb ad
ĠB en
ill ing
o om
ĠJ ust
Ġpre c
o ch
Ġat tribute
equ al
Ġcon nect
ĠM al
Ġcon struct
ERR OR
Ġw alk
c p
G o
Ġcon ver
orizont al
Ġ â
te e
St at
ad o
Ġmat ter
Ġwe b
for ce
wo od
Ġbr ing
fr ak
ar io
Ġle arning
S o
Ġ ign
n ormal
M atch
ST R
Ġs old
================ ================
ur i
Ġset ting
ĠR E
Ġhas h
Ġcon str
as ons
b on
inter face
d elete
Ġeduc ation
ĠH ol
omet ry
as c
I ter
Ġcon tr
D own
osp ital
ix t
b ra
Ġdiff icult
ĠEurope an
_ ;
ĠP ublic
p ite
ĠRes earch
g u
we ight
inc ip
Ġallow s
it ing
ĠB ook
Ġpres ident
ter m
t ion
Ġpro gress
Ġclos ed
Ġr isk
199 9
Ġep is
re nder
ĠD ay
Ġfri end
Ġgener ated
ĠU K
Ġd ied
ra z
a a
ound ation
Ġsequ ence
8 6
Ġes pecially
ĉ Ġ
s in
e es
Ġg re
Ġs ens
ĠG erman
Ġlook ing
Ġanal y
ber g
Ġpart s
Ġf ather
H ost
Ġgo al
ut ive
Ġr ule
Ġa ward
Ġrel ative
Ġcomp ar
s a
e al
Ġde ep
Ġv ers
ĠE rr
in ing
ĠB G
ann ing
Ġme chan
Ġmov ed
v ents
ĉĉ Ċ
d i
ĠP al
Ġs witch
ers hip
S ign
Param eters
id ay
Ġup on
d est
s ite
ot imes
ĠP aul
oy al
ĠS um
F T
ĠO b
ĠS ince
nab la
Ġs ound
ol ume
ĠC r
ĠĠĠĠĠĠĠĠĠĠĠĠĠĠĠĠ ĠĠĠĠ
re a
P L
ro te
ĠJ ames
h i
eg ment
Ġmult i
add ress
Ġdist ance
bold symbol
M y
ag o
m ode
Ġh on
S A
Ġim ages
ĠR iver
ĠO R
all ow
ĠC ouncil
E M
ature s
ĠGo ogle
S k
doc s
c ard
Ġin side
it ch
ĠM ag
V ari
100 0
he t
Par ser
Ġse lection
Ġfact or
Ġlong er
end ar
R ed
b and
Ġf ixed
im ately
f ree
Refer ence
P ass
as ic
V ert
am era
Ġwork ed
Ġund efined
v ector
T im
ĠF orm
Ġlarg er
Ġact ual
w idget
h ing
ash ington
ar ily
h r
Ġoper ations
& #
Ġapp ly
M ult
Ø §
Ġc andid
Ġa void
s end
Ġw or
Ġitem s
Ġchang ed
L eft
fo o
et ime
V ector
ĠB er
M e
OR D
Ġs us
H istory
Ġn orth
eleg ate
w ner
l as
25 5
m as
Ġne igh
ĠD iv
Ġh y
ĠTh om
c lick
Ġpr imary
p g
param eter
v m
N ames
to String
err y
i ation
Ġdo ing
h ad
Ġnot e
( -
clud e
Ġn et
v ille
{ }
in i
ist ri
Ġcomp ared
Ġre pl
th at
al ax
Ġequ ation
Ġexper iment
ver y
Tr ack
yn ch
ol ar
ri ate
Ġgiv es
3 00
Hel per
Ġ[ '
Ġlevel s
Ġf ight
P S
ĠH am
Ġab s
=" /
-- -
U se
d s
re q
Ġvari able
Ġqu ality
& &
Q ue
h over
Ġres ources
F alse
ynt ax
math frak
Ġexist ing
an i
f ocus
Ġre ve
com ponent
W E
d irect
all s
equ als
P R
Ġstud ies
ober t
ĠTe chn
v as
Ġd irection
Tem plate
S igma
Ġestab lish
ac cess
Ġoff ice
not e
Ġcamp aign
ĠG od
R ender
Ġim medi
Ġnum bers
r ange
f ect
Ġmax imum
( *
Ġg as
T itle
D F
Ġperform ed
ĠTr ue
Ġv ict
Ġc ache
Ġs ex
Hand le
' ],
e ch
Ġqu al
ĠT HE
y ing
Ġra ise
Ġhe art
ro s
ex ception
ĠC ON
P A
R ight
R ect
o oth
C ore
Ð »
c at
Ġc ast
Val ues
Ġproble ms
Ġpar se
Ġ ess
Ġdem on
ä ¸
ĠM ap
id ing
a fter
ĠN ame
ĠB el
Ġag o
y e
Ġro ck
L e
ĠM or
Ġind ependent
hand le
g s
Ġexp and
} )$
b ound
ĠQ ue
D evice
Ġh ot
Ġe mail
Ġobserv ed
ĠN ote
ĠD ate
ify ing
Ġpro posed
Ġget ting
In valid
k r
Ġro t
f il
Ġspe ed
L ong
p ing
8 9
St ack
ĠAr ch
Ġpro of
m es
## #
ic ate
pl ugin
Ġe cho
iz ations
Ġcou ple
f ony
5 4
at ively
v ant
Ġt en
R ev
ick er
ĠWh ile
ire s
Ġs il
Ġcl uster
M D
Ġl iving
P T
ĠC ap
Ġst aff
Ġtele vision
Ġd elete
p ed
Ġtrans ition
proto buf
out e
T ool
ĠP ost
Ġtreat ment
ĠIn stitute
on ic
Ġeffect ive
Ass ert
en a
ĠCO VID
st ep
Ã ¶
Ġd am
Ġa ud
Ġn amespace
by te
ĠCh ampionship
$ (
Ġm ind
p anel
ou l
a o
iev ed
5 2
Ġcoun tries
ĠR ich
/ \
nc y
trans form
sub set
H as
cit ep
ym fony
S l
p adding
Ġre v
he st
Ġro om
uf act
Ġan sw
Ġe mer
pro duct
Ġs outh
ĠO f
h ere
Ġth read
g lobal
ĠBG COLOR
ri an
ĠN ow
ic ons
Ġphys ical
st on
Ġteam s
ĠO per
clus ion
foot er
Ġtrans fer
ĠĠĠĠĠĠĠĠĠĠĠĠĠĠĠĠ ĠĠĠĠĠĠĠĠĠĠĠĠĠĠĠĠĠĠĠĠĠĠĠ
Ġgrow th
Ġdes igned
Ġt our
s ession
A pi
5 1
s uccess
re place
ar p
c ustom
ele br
ig en
Ġal t
pl ing
Ġsa f
cl oud
Ġdeg ree
Ġw est
dis abled
ex port
o ader
atas et
e in
Ġcontain er
Ġs ense
ap se
Ġ} )
ir l
Ġtrans action
Ġc ause
med ia
Ġd atabase
Ġl ock
Ġnecess ary
f ill
Ġdis e
Ġs ymbol
Ġbehav ior
Ġex tra
pr ing
G ET
D ep
Ġf lo
Ġj av
n ce
` .
p ub
ber t
> .
Test s
Ġs cript
text it
ĠC re
f ort
199 8
Ġconc ern
ĠA L
K e
Class es
C S
Ġtr ansport
= {
ly mp
aw s
ĠY ear
Ġcent ral
Ġplay ing
Arg s
> ();
Ġother wise
l oc
M ar
ĠM art
\ [
ant ic
E O
Ġacc ur
Ġ ensure
ess or
ĠA ward
ĠAss ociation
ĠR equ
field s
ad ian
Ġnot hing
w id
est amp
Ġac qu
i pe
ĠCour t
Ġcon struction
P arent
ĠO ur
ic ial
Ġe lection
ĠCh urch
c oll
ĠIn st
\ |
AT A
4 00
x is
oper ator
Ġhim self
ĠIn c
an o
ol ic
Ġide a
Ġby te
Ġm ilitary
U RE
j oy
Ġmod ern
im s
Ġdef inition
D raw
Ġequ ival
ĠSc ience
pr ime
j ection
ĠR un
\ %
v est
s cal
Ġc lean
ĠPart y
-------------------------------- --------------------------------
X X
ail y
Ġdec ision
Ġset tings
Ġt ro
Ġcompon ents
and er
w est
ĠG erm
Ġpol ice
N et
tr ack
ee k
Ġsim ply
P H
Ġtr avel
frame work
ĠSe ction
ic i
Ġw rote
Ġr ules
em ic
ie ce
Ex p
Ġre comm
D om
SE T
Ġv eh
Ġc ult
D I
-- >
Ġdirect or
ĠJ ack
ed it
Ġstat ement
D L
{ -
} -
ern el
Ġerr ors
Ġthrough out
N um
Ġstart ing
ĠT ex
lang uage
ĠU se
Ġr ace
y r
overn or
Ġal gorithm
Ġr ank
Ġcom ing
ĠSer ies
5 3
vir tual
ĠB est
Ġread ing
Ġdiffer ence
Ġus ually
ĠW ashington
g in
Ġs ources
Ġinv olved
ĠO ver
Ġinv oke
Ġed ge
h igh
cl os
ick et
con nect
; \
ĠM em
O K
Ġinvest ig
Ġcol lect
ill a
Ġ& =
OR M
Ġarch itect
ĠA ut
N on
W riter
Ap plication
Ġad ministr
v an
Ġso on
c pp
AT H
V er
199 0
en ing
r um
Ġhe ader
Ġfinal ly
il ies
Ġbo ard
f n
ĠI S
rom e
ĠF il
7 6
Read er
se m
Ġun signed
set tings
Ġcomple ted
Ġdemon str
id ents
annot ation
Pol icy
ĠP ress
air s
ri al
Ġm ention
web kit
Ġin line
ĠP y
ion al
Ġpack age
equ iv
By tes
By te
ul ate
| |
ĠG reen
C lick
ugh ter
act or
ĠWilli am
x x
Ġf un
depend ency
ou thern
av er
Ġclass es
D A
Ġal tern
is ions
}} {
Ġag re
Ġeas y
Ġm or
bo olean
ĠO ther
Arg ument
ert ific
ines e
Ġco ordin
Ġet c
up le
ĠH el
c ur
ot ed
av ed
ĠFr ance
Ġev idence
Ġ( '
Ġsol utions
TE ST
Ġdirect ory
Ġsh ape
7 8
he lp
ins ert
D ebug
Ġincre asing
if est
ĠComp any
k er
Ġn odes
ĠL eg
al led
Ġs aw
call back
Ġfin ancial
ĠS am
block List
Ġo s
j o
Ġy ield
ĠD et
ĠM ac
B ody
E l
Ġprob ably
sq l
Ġmin utes
D elete
Dec l
rec ated
m id
d ouble
Ġpresent ed
Ġ' /
Ġvill age
net ic
Ġch arg
Ġf ast
leg al
sh ape
Ġfollow ed
Ġnov el
ĠGe orge
Result s
on a
ĠA ng
Ġst ay
Ġap i
z a
Ġdom ain
Ġrece ive
Ġtest s
anc y
Ġhe l
Met adata
Ġre place
wid et
Ġto wards
Ġprofession al
S ION
Ġan g
En abled
le ep
ed ef
M ark
Ġ er
i us
Def inition
G E
Ġany thing
s ort
ĠD el
Ġm other
Ġsh ared
om a
Ġrec ently
al ysis
Ġqu ite
FA ULT
p are
Ġ+ +
` ,
Ġb all
Ġvari ables
\ !
G B
ĠM er
al ed
ĠM usic
h s
Ġe ast
ĠL O
Ġth erefore
Ġact ivity
Ġm ount
\ "
Ġopt im
ĠE q
N ow
Ġj son
at tribute
D IR
ĠJ SON
d ots
__ (
reg ister
Ġext ension
Ġask ed
Ġab sol
ond s
g an
Des criptor
it ar
ap plication
Ġcon cept
' .
Ġby tes
uck et
ĠH ere
Ġm ale
ĠAfr ica
ix el
over ed
oc ity
ĠM ath
7 2
ind er
p df
ĠV alue
ensure math
Ġopen ed
Ġbook s
M ock
ĠR oad
ĠPro ject
Ġte ach
ex ports
Ġlarg est
Ġapp lied
Ġbas is
Ġal though
Ġsym met
Field s
el er
ĠDem ocr
ĠB ay
re al
tern et
Ġrepresent ation
widet ilde
Ġd ro
Ġbel ieve
rom ise
du le
Ġd ark
d el
ĠT able
tog gle
por ary
CT ION
ĠN OT
li ance
ra el
mit ted
Pe ople
M eta
mer cial
Ġ Î
pro ve
Ġseem s
Ð º
ĠPro gram
IT Y
Ġn ative
is ation
Dis play
Ġwrit er
ĠWh ite
ĠF ield
ip eline
ĠB ase
W S
C re
ro ad
Ġc ard
J ob
ent al
em ail
ĠM at
Ġcrit ical
Ġst e
ĠHT ML
Ġvol ume
en ge
; <
al a
th m
ms elves
se y
Bo olean
duc ation
Ġj ud
em s
Ġor d
u ated
in ct
Ġcontin ued
Ġor igin
agn ost
ĠV er
evelop ment
a iled
struct ure
ĠL ou
Ġintrodu ced
R oot
Ġapp oint
ĠĠĠĠĠĠĠĠĠĠĠĠĠĠĠĠ ĠĠ
ĠK e
Ġdescri be
Ġg ave
sh ot
ĠC ong
A ME
ge bra
ir ing
D atabase
ov ers
en um
"" "
Ġlim ited
imension al
Ġsign ed
Ġfe ed
ĠUn ion
Ġch oice
g raph
Ġc ore
hold er
in line
Ġs ave
l ines
D C
ĠC am
A m
wh ite
sh ort
r ule
Ġl ibrary
Ġevery thing
ree k
m aterial
} "
Ġw oman
ĠK ey
Ġn or
N E
="../../ ../
Ġsign al
Ġw ays
Ġchall eng
Ġat tr
Ġsc en
est ival
9 4
T S
key s
' ))
Ġincre ased
Ġthe mselves
ĠPro v
Ġpr ice
8 2
Ġr adio
Ġset t
E ach
Ġre lation
ĠU ser
ĠE vent
D oc
ĠG old
Ġd ead
Ġprevious ly
ur t
Ġ< =
Ġm sg
Ġsh all
Ġm us
ad min
r b
st ar
AG E
rap per
Ġst ack
ĠF in
Ġpre vent
8 4
Ġpro per
Ġlay er
Ġis n
t ty
Ġst ars
us ion
199 7
Ġa uth
Ġc ook
w rit
ĠL ong
rel ated
ĠM ethod
In s
p ers
Ġman ager
Ġed itor
ans ion
Ġcour t
est ed
key word
S L
TE D
I X
St orage
D ialog
SS ERT
ĠH all
199 6
ĠR el
ĠM ary
Ġassert Equals
Ġcor re
Ġ$ {
9 3
aut o
am ing
ĠAn n
atal og
ĠA lex
", "
w ell
ĠFr anc
Ġmiss ing
") ]
R ule
EN D
F L
\ ]
ynch ron
f ull
Ġun its
m ock
Ġsur v
Ġup per
ĠD O
ĠI O
Ġpract ice
Ġimplement ation
S he
Ġknow ledge
ĠY our
Ġ ),
ĠL em
et ic
ĠMich ael
item s
ĠR obert
Ġtry ing
ĠTex as
Ġb al
ist an
D i
ed ge
Ġbecom es
Ġinst it
Ġh ope
Ġear lier
Ġleg al
ĠM odel
ĠM ount
Ġp urch
P si
Ġl oop
Ġre pe
Ġcont aining
Ġstre ng
Ġcoun ter
ple ments
} +
Ġlate st
ĠU RL
Ġf ully
c ategory
Ġv el
ang uage
ab ilities
Ġpl ant
Ġst orage
Ġsp in
Ġschool s
9 1
Ġh ous
Ġd igital
ĠErr or
ĠĠĠĠĠĠ Ċ
st ore
Pack age
ur a
Ġc ulture
Que ue
add r
Ġle ave
pl ugins
ĠRev iew
ĠS l
' m
P RE
Ġsc ient
. ~
alle l
Ġ( *
Ġrequire s
Ġpro file
Ġw allet
ec ause
9 2
Ġwant ed
Sh ow
ĠGerm any
Ġv s
S e
ĠF e
ind ent
ĠS ociety
On ly
Ġb ottom
os en
ig hest
ĠR oman
Ġen joy
b al
B R
Ch anged
Ob j
Trans action
Ġe ight
ĠM iss
Ġl ack
Ġm iddle
6 3
ly ph
Ġext rem
P op
pass word
Ġm icro
Ġrem ain
Ġjoin ed
Ġme as
in itial
et t
od ec
if ies
ĠF ore
T ab
at ically
Ġdel iver
ron ic
it able
Ext ension
z eta
art s
Ġf avor
Ġsmall er
F C
had oop
ill er
Ġcell s
ing er
Ġcall s
print f
h y
Ġass ume
198 0
//////////////// ////////////////
Act ive
Ġfl ag
\ {
N G
$ )
tab ular
ut ing
Ġc op
_ ->
Ġtr ansp
b es
com ment
An y
eth er
ro om
T e
com ing
v ed
wh ile
iver se
ous ly
; /
st at
ub y
ĠS ur
ĠTr ump
Ġb g
pro x
ro t
res hold
Ġdeath s
Ġfin ite
in ate
Ġw ife
all oc
Ġmain tain
ign ment
co q
Ġn uc
ĠD an
Ġst ri
Ġm ock
ĠT om
Ġrem oved
ann ed
Ġbegin ning
ent ity
Ġn ature
Ġsc ience
Ġrem ains
EX T
* )
ic ated
] ]
M ore
ĠB ig
al ian
ĠJ ew
c md
Ġm is
Ġc elebr
ĠAcc ording
Ġ" /
vari ant
ĠR ob
oun try
R et
X ml
th read
Ġ{ };
Ġgener ate
inst all
T C
Ġch ain
FI LE
k y
ou b
Ġweek s
Ġcap ital
ĠM r
et te
C ustom
' ve
re es
Con st
ele ction
AC E
Ġsc ore
A tt
Ġdistribut ed
6 2
Sc ope
Ġex hib
Ġmean ing
center ing
199 5
Ġget s
S ince
Ġmed ical
pp ed
ĠSup er
d ates
ĠN O
ĠAc adem
ĠDef ault
ov es
d im
S U
Ġdr ug
f it
Ġint eger
ĠĠĠĠĠĠĠĠĠĠĠĠĠĠĠĠ ĠĠĠĠĠĠĠĠĠ
ĠO lymp
ĠAr my
ĠI P
ass ets
J SON
Ġl o
bed d
Ġsl ow
Ġfri ends
her it
ĠIs land
Act ivity
Ġab ility
b i
sec urity
un signed
6 1
Ġquant um
Ġb ank
on om
Ġproject s
) =\
ĠJ er
Ġquest ions
"> &
Ġchar ge
Ġs plit
Ġpl aces
A c
KE Y
. ;
ĠM us
Ñ ĥ
Ġapplic ations
N ote
m en
Ġbe aut
Ġser ial
ĠM ex
CH E
ĠC opy
Ġth reat
Ġh tml
or a
Ġtest ing
Ġprot ect
}\ ,
Ġpart ial
S end
S um
L ock
ĠRuss ian
Ġsome one
drop down
res ents
ot ic
ond er
M ain
b our
ĠT ext
E C
L S
Ġman ufact
le v
) /
s che
ot es
Acc ount
Ġgre ater
s cription
N etwork
Ġstud ent
ĠM ad
hent ication
r or
ĠAr g
' ll
ĠL ife
ig er
ĠTh us
Ġpro ced
Ġl ives
Ġd ed
Ġcon nected
put e
lem ma
Ġneg ative
ateg ories
Ġex am
Ġw ide
ĠS al
ĠCh inese
16 0
Ġappro p
ĠCar ol
mod ules
In itial
Ar t
ask et
ev e
M ember
n umer
Ġatt ention
p ay
HT ML
con nection
Ġj ournal
ĠT or
Ġs en
Ġrecord ed
Ġinv olv
Ġro ute
m argin
Ġh um
ĠW il
Ġrel ig
, -
Ġbut ton
Ġdec re
ĠT op
Ġs even
M sg
ens us
sp ring
se ct
Ġorgan ization
Ġ icon
~~ ~~
Ġhold s
Ġwe ak
ag ger
8 3
} ]
Ġdeterm ine
ĠĠĠĠĠĠĠĠĠĠĠĠĠĠĠĠ ĠĠĠĠĠĠĠĠ
S ymbol
Sec urity
yd ro
im pl
Ġex plicit
} =\
Ġactiv ities
Ġkey s
Ġoff ers
pe ed
Ġpart ners
er ies
Time out
Ġse ek
ixt ure
ĠV iew
Ġre strict
Ġbas ic
Ġe lem
G S
Ġuse ful
ol ver
Ġf ra
p ool
Ġs n
) -
k i
Ġg alax
Ch annel
ens es
ĠCl ub
Ġstr ict
as y
Ġprogram s
Ġre ach
C I
ib ly
ĠF inal
t ip
Ġ util
Ġgr ant
ĠCent ral
Ġin sp
Ġr ap
ak ers
ick s
Ġbir th
)) )
Ġr ail
@ "
ul er
Ġover all
ĠSh ow
or ation
Ġinter view
J ECT
arg ument
il s
ĠD uring
Ġsong s
az ine
P attern
pro file
am i
Ġc oin
st op
point s
ĠSm ith
ĠA v
h ouse
ĠC he
in y
ĠB usiness
Ġrun s
Ġun c
Ġtr ain
ĠAfr ican
Ġjav ax
t ely
Ġon es
ĠThom as
Ġm ut
Ġinstance of
( !
ĠH istory
il ton
[ :
sc roll
ĠF alse
ĠCom mit
ang o
Ġfam ilies
or ter
ĠF oundation
ĠR oyal
Ġcon sole
P ool
S ymfony
Ġpres ence
W idget
it a
maz on
Ġg a
L oc
ic ol
Ġbound ary
c ut
V ar
199 4
Ġfor ms
ĉĉĉ Ċ
ĠP ub
7 9
re y
ann els
Ġfin ished
L iving
g a
Ġmar ried
Ġdest roy
et imes
r adius
Ġmeet ing
pr imary
Ġim prove
ĠAustral ian
ĠA R
Ġv acc
f aces
un icip
ĠC all
olog ies
Ġcoll abor
Ġbro ught
Ġch urch
Ġgo es
os h
Ġd im
) ^{
Ġt ouch
AR Y
L java
ĠT ur
Ġne ut
k g
c are
igr ation
7 4
om orph
reg ion
LO G
m ove
Ġp ointer
197 0
ĠChrist ian
Ġpolit ic
8 1
Ġappe ared
gr id
. *
Ġd ir
Ġper fect
Ġinterest ing
ĠAl so
ploy ment
ang ular
ace book
ĠPro f
s ample
Ġdef e
ast e
Sup port
Ġmin imum
Ġdeterm ined
ĠT ri
l am
n ames
Ġc ategory
ĠA N
Ġn om
A uth
a ud
Fl ags
Ġg reen
form s
ĠH en
P erm
Ġs ports
Ġd b
ĠT em
cre te
Ġrecord s
ut f
Ġass ess
! !
Ex pr
ĠThe orem
ĠMin ister
M ENT
Ġant i
Ġcho ose
Ġp anel
Ġeconom ic
] :
Ġpl ot
P AR
ish ing
anc el
BU G
j a
Ġro b
con trib
Ġa ctions
F il
ĠH and
ĠM useum
ĠSc ott
Ġinter pre
Ġdise ase
Ġre li
ĠIs rael
ĠJ ournal
Ġcre ating
at in
Ġtrad itional
im ents
Ed it
6 9
Ġt err
n one
) }\
el li
az z
Ġ io
Ġmat ches
ĠFig ure
er c
ev ents
Ġpress ure
ed y
Ġfor ces
ect ors
Ġp ul
Ã §
b ul
Ġevery one
ict or
ud d
que ue
Ġwr ong
Ġmov ie
Ġk illed
Ġappe ars
ĠM ax
Log ger
Ġst ories
Ġhand ler
ĠDiv ision
U ID
D S
B efore
ĠH ead
ann er
ress ion
ne ctions
ri z
Ġg old
Ġsit uation
iv acy
ĠW indow
ific ations
Ġp ark
Ġconst it
7 3
k o
Ġparticular ly
Ġbe y
() ));
R est
Ġup dated
sh ire
os itory
B S
ol f
Ġt ab
ri end
B it
==== ==
In it
Ġex ternal
s ur
25 6
ir med
urre ncy
Ġimmedi ately
Ġfig ure
ĠT im
ĠP lay
Ġh ighest
result s
ĠN etwork
Ġc hem
Ġsp ent
j query
line ar
ist ant
Ġtr ade
h ome
F loat
du ction
S w
_ ,
Ġp or
Ġsec ret
ĠGr and
m aster
ĠK ore
=" "
Ġbey ond
ĠSt ar
Ġre ached
k w
199 2
X T
Ġent ity
Ġident ity
ĠF unction
Ġall oc
Ġp y
Ġh arm
ell ig
Ġepis ode
Ġprodu ce
nap shot
s ave
Iter ator
Ġins ert
ĠComm ission
Ġin cor
Ġb tn
ĠAs sembly
ĠB i
and ard
" `
ĠA ND
Ġbl ue
Ġo wner
Ġprob ability
Ġb ur
import ant
Ð° Ð
-> _
ĠWest ern
ĠV is
E vents
Ġform ed
=" @
() {
cent r
cd ots
Ġle ader
VER SION
Ġ% }
q quad
Ġpre m
ĠĠĠĠĠĠĠĠĠĠĠĠĠĠĠĠ ĠĠĠĠĠĠ
not ation
Ġeas ily
it ation
as er
Ġmov ement
Item s
S m
Ġp en
H ome
ĠG reat
ĠFranc is
dom ain
Str uct
ĠE v
ential s
st ats
lo ok
or ida
Ġc ivil
Ġr atio
ĠM o
Ġhigh ly
Ġdec ided
Ġbel ong
C F
mat rix
Ġparent s
l ers
pro perties
th rows
en umer
sy ch
Ġcl in
ĠReg ister
ĠV ol
Ġpl ans
fl ags
type of
ĠF oot
ĠO ption
RO M
^ +
is l
Ġsub sequ
Ġredu ce
Ġsh ot
Ġr adi
ĠM ost
Ġelect ric
Ġquick ly
Ġe arn
u an
Ġstr ategy
m iss
os ing
Ġw orth
ist ent
s chema
Ġnear ly
ĠRuss ia
Ġm aster
Ġfact ors
ĠC ode
199 3
Ġgener ally
Ġext ended
g it
Not Null
ertific ate
ĠC amp
Ġbg color
ĠS ing
AD D
O ther
p resent
I E
ĠCan adian
Ġm ask
Ġaff ect
Ġdem and
Ġ[ ];
ĠT own
Ġrepl aced
Ġf n
we et
Ġsaf ety
ad s
ç ļ
u ing
ic ago
ĠU nder
Ġk m
erv ation
ĠJapan ese
Ġs al
ĠEng ine
N N
O ur
Ġf ix
ynam ic
& =
un s
ing u
)) );
Ġf unc
Ġp ush
bit r
ð Ł
tx t
h av
() ).
ĠVir gin
Ġturn ed
ust ain
ĠS und
ant a
ĠR ock
7 1
Ġbr and
Ġpub lish
ĠH ill
Select or
rec ord
Ġcomple tely
f amily
ac count
ĠI d
C ar
ĠN ode
{ (
Ġr ates
çļ Ħ
T ABLE
Ġpe ak
Con f
Ġ{ '
Ġdeb ut
ad y
ĠU kr
Ed itor
Ġun known
S IZE
ĠE ducation
re land
Ġfem ale
Pro p
ĠU N
Ġreg ions
L oader
at o
Ġsom etimes
eff ect
es h
ĠO p
Ġess ential
A v
ĠCol or
it iz
org an
ock er
se lected
ĠG ames
gr ade
MA X
ĠM ont
ell a
Ġh or
By Id
ĠMed ia
in v
Re ce
. '
Ġframe work
od ay
ole c
c up
F ound
M B
sup er
In ternal
I B
Ġat tributes
h aps
Ġre ports
ĠC ath
istr ation
Ġa wait
? âĢĿ
M edia
ĠG en
Ġvari ety
Ġda ughter
and emic
}) \
il ation
Ġcap acity
Ġsa fe
C or
Ġh idden
e ach
Ġev olution
oun ce
Ġequival ent
Ġc lick
Ġexact ly
ï ¼
Ġqu arter
Ġprot ocol
Ġsum mer
++ ;
Ġin str
on ym
Ġla unch
Element s
and a
pect s
and ra
}_ \
id ers
Ġd rop
ar ation
ĠBo ard
des c
Ġsc ene
Ġp refer
all ery
ven ue
ed s
ĠB ank
ĠG overnment
s creen
Ġt it
ĠFr ank
Ġs quare
D el
Ġcom mercial
ple x
Ġla un
Ġst ated
d x
Direct ory
Ġad opt
Ġpr incip
Ġsay ing
M C
Ġshow ed
Fe ature
ĠP eter
Ġpre d
Ġb us
Ġresult ing
Prot ocol
Des c
assert Equal
U LE
Ġcl oud
ĠCong ress
Ġpur pose
ook s
%% %%
Reg ister
Ġequ ations
_ (
Ġcl imate
it z
Ġart ist
Ġca used
li ament
Ġcomput er
ĠEx ec
Ġm ix
ĠDirect or
Ġpro ve
ph one
Window s
Ġm essages
ar ant
Trans form
Run time
Ġm achine
ut er
| ^
Ġart ists
P P
ĠV ersion
Ġmov ing
C lose
W A
En um
Ġex tract
ĠA tt
web pack
l imit
cont roller
con s
=" ">
} :
ĠB ill
Ġex c
ĠIn itial
ch annel
ent y
Ġl if
clus ive
Con d
n am
I ST
Ġocc urre
c f
c b
j ob
Ġf air
b ing
ud get
Ġlist ed
Ġrep resents
Ġprovid ing
ful ly
k in
} </
Ġwork ers
Ġfail ure
Ġbu y
ic ine
Ġp lease
The n
Ġc ref
Pro xy
w ar
ĠT wo
ĠUp date
P ub
Ġdr iver
Ġtr ust
ĠLou is
res et
Ad apter
ut y
ig an
P ORT
Ġread y
Ġsp read
ic ies
S uccess
__ __
Ġrem aining
f ly
def ined
en ed
Ġh yp
Ġhapp y
atur day
cont in
Ġp oll
Ġpl aced
P ointer
S ection
p ower
Ġb re
ĠKing dom
Ġm ur
Ġbuild er
Ġin form
und red
Ġ" "
T A
F inal
Ġdirect ed
Ġsur pr
ĠW ill
ĠM A
Ġstruct ures
Ġhigh light
g est
e cho
Ġ ul
Ġd imension
at re
ĠM el
os is
er ial
ĠJ ose
}^ \
St ep
ĠOff ice
Ġ[ [
Ġdown load
\ '
Ġindividual s
c ape
Wh ile
Aut o
F ull
Ġtool s
n etwork
File s
12 3
Ġun less
NavBar Cell
log ger
tr igger
Ġsh ip
M OD
Ġst eps
Ġan im
Ġas ync
ĠSec ond
) ">
ĠS ervices
Ġdet ail
Ġgr and
Style ID
ts d
riter ia
ĠSt ep
ff ect
ĠT ask
Ġtyp ename
At tributes
ĠV AL
man ager
anc ing
Ġcol lege
Ġgiv ing
ĠTO DO
iter ator
Ġcomp are
Ġth r
Mem ory
) ),
Ġst ra
Ġp ages
Pr int
A uthor
ĠG ame
Ġb ul
m ut
S ER
Ġsl ight
P ATH
P anel
Ġagre ement
Con str
Ġill ustr
ĠZ eal
Ġrele vant
ap prox
Ġopen ing
Ġredu ced
assert Equals
ĠM ass
app ly
N e
th let
Ġprocess es
15 0
ĠCommit tee
Ġsh ift
L IC
Ġopport unity
I MP
Ġser ious
pos es
ĠW omen
Ġgener ation
) "
UT F
Ġen able
X ML
ĠL os
199 1
ĠS ocial
ult s
G u
Ġident ified
Ġ ip
Ġc li
H ere
Ġn orm
cri be
Ġabsol ute
ĠE conom
ĠAcadem y
Ġ$ .
[ $
Ġp ool
Ġsup p
par ser
hand ler
ĠS O
Ġin valid
Ġset up
h idden
Ġb rowser
Ġv oice
Ġco ach
CHE CK
ĠĠĠĠĠĠĠĠĠĠĠĠĠĠĠĠĠĠĠĠĠĠĠĠĠĠĠĠĠĠĠĠ ĠĠĠĠĠĠĠĠĠĠĠ
Ġn g
pos ite
D T
ĠT imes
I A
s witch
Lay er
ĠS il
pect ive
ĠZeal and
m utable
asket ball
Gener ic
com ponents
Ġsh oot
ĠS un
Ġcommun ities
S QL
Pro file
Ġresp ond
Ġapprop riate
D on
Ã³ n
) ).
Ġim ag
ĠCh ild
Ġsit es
ĠTh erefore
ĠT ra
ĠFl orida
= -
hen s
Ġsepar ate
in em
Ñ ı
R AN
o les
Ġest im
ĠS ol
Ġb illion
ĠĠĠĠĠĠĠĠĠĠĠĠĠĠĠĠ ĠĠĠĠĠĠĠĠĠĠĠĠĠ
ĠL ake
Ġneigh bor
S R
bl ack
N ULL
ele ase
Ġocc ur
Ġevent ually
ĠB O
To String
Pl ugin
l g
fr ont
M atrix
ĠD en
F unc
Ġoption al
Char acter
Gr id
. __
iv ery
Ġocc up
h orizontal
Ġen h
ap ers
Ġcon centr
ĠL ine
Ġsur round
al i
t otal
ĠL android
Ġw ild
= (
Ġsample s
ĠD u
IV E
iqu es
b u
d p
In v
Ġpre tty
sh ift
Ġh ospital
tool s
Ġcar ry
Ġfrequ ency
Ġ\ {
Ġlaw s
Ġval ign
H R
t ex
Ġdr ive
'] )
ĠPar is
Ġinit i
eng ine
it o
ollow ing
Ġstr ateg
Ġvis ible
ĠUS A
j ar
ik i
ĠD evelopment
ul y
ĠRich ard
Ġxml ns
reed om
pos itory
b ad
umn i
ĠG ood
ĠOr der
d ist
ĠI ll
Ġbr anch
at ible
Ġrepresent ed
Ġpass word
by tes
Ġ( _
ĠCon fig
B rowser
Ġcontin uous
Ġim plements
######## ########
Ġdev ices
r ase
Ġex port
Ġmin or
om ial
Ġpo or
G raph
U D
con tains
Ġstra ight
R oute
i h
ab it
Ġref lect
ĠChar les
y an
is ms
eta iled
test s
}^{ (
Ġs ch
ĠIn formation
Ġw aves
ĠT re
it ors
av ity
j pg
ym met
S ocket
Ġpr im
D est
get Name
Ġf ans
D ouble
Ġb lood
ist ers
ĠEx t
Rep ository
Ġstud ied
ĠL ibrary
v a
ex ternal
F ail
Ġf elt
Ġansw er
Ġen abled
ident ifier
ov ing
Ġr ad
r ine
ĠF acebook
Ġre q
( {\
Ġn ation
Ġr aw
ev al
Ġvis ual
ĠGe org
P ay
ĠTe am
Ġgo als
; "
Ġm otion
{ {\
Ke ys
Ġin ner
Ġf ederal
Ġp m
T erm
H ER
Ġd u
ourn ament
Ġhe avy
ĠPe ople
Ġw ind
Ġ= ========
ĠP aram
M ed
k m
Ġold er
Ġsche me
Ġf irm
S M
sh all
Ġblock s
config uration
Ġnot ed
ĠI reland
Ġm ission
text width
L P
Ġm ill
m o
are a
t mp
Ġhand s
j i
Ġw ave
Ġle ague
param eters
Ġ eth
Ġcustom ers
Ġenc our
n odes
Go ogle
Ġsecond s
D uration
g i
IP T
ed itor
Ġnot ice
Ġst ock
go ing
ro ke
f ail
Ġo il
Ġrequest s
irc raft
ner gy
if ul
ĠC ast
J ava
ĠRec ords
is hes
Ġfore ign
ĠIt alian
ĠL and
Ġcompet ition
in os
Par se
wide hat
ĠIt s
f ol
Ġcost s
G lobal
ov a
RE AD
Ġf arm
Ġin nov
ON E
d imensional
Ġc ru
ĠEar th
Ġfour th
he ast
Ġpar ser
Ġp le
ang ing
ĠB ack
Ġh ol
ĠL in
ĠSt art
Ġlet ter
Ġl icense
S Y
Ġag ent
sh adow
Ġlook s
Ġmaterial s
Sc roll
ĠCh icago
w atch
Ġco eff
met adata
Ġfl at
p at
IC E
ĠA ust
oth ing
P erson
n y
Ġrespons ible
w a
Eng ine
F ailed
Ġs egment
un ities
ĠH istor
Ġd ig
est s
s el
k l
ĠJ ava
12 8
ĠL i
ĠN umber
ĠR et
in f
ĠT witter
Ġexample s
Ġest imate
Ġbro ther
ĠH ome
Ġspect rum
Ġenc oding
P y
Ġcompar ison
Ġcon sequ
Ġfound ed
child ren
Ġcom ments
Y ear
ens ed
Ġtr igger
L a
AL SE
p a
ici ency
Ġvel ocity
ars ed
P ublic
ge les
Cl uster
b rowser
Ġmet ric
ĠAl though
Const ants
ĠMan agement
M apping
Ġp iece
at tributes
op ed
cal led
Ġlead ers
Ġpl ays
19 60
Ġs ales
ĠP an
ĠM icrosoft
ch ain
ĠE ach
S che
n il
C ap
Ġlead s
ĠG lobal
Ġsignificant ly
" /
Ġm ixed
ar c
198 9
Ġp an
in ations
sc ape
em on
Ġe lected
Ġp andemic
Ġa im
tab s
if fer
sp irit
al o
Ġdep th
Ġv ote
ip ment
Ġsp irit
P lay
ir ls
s pecial
ĠĠĠĠĠĠĠĠĠĠĠĠĠĠĠĠĠĠĠĠĠĠĠĠĠĠĠĠĠĠĠĠ ĠĠĠĠĠĠĠĠĠĠĠĠĠĠĠĠĠĠĠĠĠĠĠĠĠĠĠĠĠĠĠĠ
F IG
Ġapprox imately
}\ \
Ġmajor ity
Ġac adem
Back ground
fil ename
ĠFor ce
IT E
-------- ----
Ġbuild ings
ĠL ocal
head ers
Ab stract
sc r
Rem ove
Ġinflu ence
ĠRe port
Ġtype of
ĠO h
iter al
Ġm enu
prot ected
Comm on
T V
Ġ$ (\
B E
Ġre tr
Ġsp ot
ĠOn ly
', '
Ġder ived
Ġexp ansion
up s
id en
ĠFr iday
Î ±
p refix
ĠSec ret
at ial
ĠE qu
ST AT
Ġann ual
ĠP oint
h space
ic ed
ĠC D
Ġ[ ],
N OT
im a
st able
stit ution
ĠĠĠ Ċ
ĠAr ts
Pro duct
The se
ĠâĢ ¦
il ing
Ġ" ,
ĠT our
ĠAn y
Ġmag netic
ĠTechn ology
S cale
Ġrem ote
r andom
ce an
N amed
Ġadv ant
u ations
ĠAn geles
ac le
Ġgrow ing
pro ps
Ġl atter
ic ations
à ¸
ĠInd ex
ĠĠĠĠĠĠĠĠĠĠĠĠĠĠĠĠ ĠĠĠĠĠĠĠĠĠĠ
Ġj Query
Ġrem ember
Ġb rief
Ġprocess ing
B P
Ġv an
ĠG ets
âĢĿ .
Ġp od
Ġ- \
f ound
S ome
Ġbroad cast
ex ists
as hed
z ero
ĠO ld
1 20
} '
pl atform
Ġserv e
Ġany one
ri er
p erson
ĠL ink
} |
iv ation
ĠF ree
Tr ace
Ġmention ed
Ġinter action
Ġunderstand ing
ĠP et
ĠV ictor
L INE
ĠP age
Ġpol y
prot ocol
Mem bers
S ync
wrap per
Reg ion
op es
Ident ifier
ĠT H
ĠP ath
LE CT
ĠM ain
ĠW ed
i en
Stat ement
li br
! [
ond ay
Ġeffort s
Ġch osen
ĠI l
Det ails
Ġinst alled
ĠP o
Ġw at
iz able
Ġal one
Ġres olution
) +
ĠM ur
Ġint eg
Ġdel ay
ian a
ĠS aturday
}} (
ĠP enn
ir a
ser ial
Ġsize of
Ġ& \
ĠC A
h ide
Ġident ify
ax is
J ohn
pro gress
ograph ic
ĠP ass
Ġimp lies
Ġdiscuss ed
ĠVirgin ia
Ġtr aff
] $
ĠLem ma
Ġcall ing
Vari able
Ġch ance
ow ers
Ġ[ "
ard en
Ġoper ators
ĠSund ay
Ġoriginal ly
S pace
ĠF re
t ers
Ġse a
198 8
p an
Ġp ull
Ġdes pite
c over
ĠEn ter
g ba
ut ch
E ar
Ġsup ply
Ġra ised
ĠCopy right
r f
Ġ ut
id x
Ġar bitr
ĠC H
ĠE li
uss ian
Ġab stract
Ġex change
e an
Ġw ood
st one
br idge
ĉĉĉĉ ĉĉĉĉĉ
ĠS pace
Ġs ociety
Ġlaun ched
as ion
Ġb inary
ĠIO Exception
nav List
no indent
Ġwas n
stand ing
Ġhy per
Ġmon itor
w ild
D epend
Ġgu itar
ĠD om
Ġph one
at i
ĠH ot
Ġs ector
ĠD ev
TI ME
Ġar m
ap os
Ġh undred
g reen
Ã ¨
ĠMark et
Ġcandid ate
Ġmeas ures
H igh
Sh ape
Ġh ar
S ingle
Ġm obile
ash ion
W N
ac ro
Ġth ous
ĠP M
Ġl ib
V M
ec k
Ġvert ical
Ġun iform
O ST
M ay
Ġf ill
U SE
Ġb attle
ĠB rown
ĠP ack
M at
raz il
ĠM ult
oss ible
m ask
ab y
ĠB ur
ĠR ail
pre v
her ited
x space
Ġo k
Ġre ject
ĠP ower
Ġconf lic
Ġid x
ĠA mazon
ĠIm age
Ġprov ider
ĠE lect
IN D
Ġfl ags
å ı
Ġsuff icient
Ġapp end
Ġe yes
Ġad just
Ġsm ooth
Col lections
ĠM a
L L
P i
Ġon to
st orage
ĠĠĠĠĠĠĠĠĠĠĠĠĠĠĠĠ ĠĠĠĠĠĠĠĠĠĠĠĠ
par a
Ġdepend s
Ġcrit ic
Ġro ll
ĠSec urity
if def
r ich
Ġa udio
ĠRes ource
> ::
C ategory
up load
Ġin tr
if ically
G en
ipp ed
ĠFil m
S equ
IN FO
T ags
Ġrequire ments
O UT
Ġpart ner
Ġdis k
ĠS pec
Ġcon structor
Ġcan cer
f ire
Pass word
Select ed
ol a
Ġcomb ined
Ġsp aces
sa fe
Gener ator
Ġtrans l
n orm
art icle
Ġview s
W R
ĠK n
Ġque ue
ĠG l
{ $
Ġd oub
u ages
Ġ" <
ac ific
ĠM ake
z one
dec l
G O
Ġin come
\ ,\
Ġemploy ees
plic ations
ĠCh ief
Ġorgan izations
Ġg overn
con n
ap es
Ġwh om
ook ie
CE SS
Ġth er
im inal
Ġ Ø
Ġ ],
P refix
ĠSp anish
Ġadd ing
dep th
ĠSt at
ex tern
ex pr
Ġman aged
end or
Ġcre ation
}} {\
Ġdes c
Ġind ust
Ġw id
Gener ated
j ango
Ġest imated
How ever
ĠL ee
anc er
ĠMart in
b its
j unit
cl aim
ĠB et
ĠCath olic
Ġread only
i ro
ore t
b rief
Ġconsist ent
d eg
Î ¿
est ion
det ail
Ġa xis
ĠA ction
Reg istry
Ġgr id
n el
âĢ ĺ
form ance
Ġj oint
O pt
Ġtr a
Ġt x
the me
ch or
Ġmost ly
serv ices
ĠM essage
C red
in er
Ġd og
g ence
33 33
Ġf ine
Ġsus p
Ġac com
Ġal leg
ap y
bl ue
Ġappoint ed
ri age
r ift
Sim ple
am az
N T
ĠFoot ball
Ġcons ists
ĠWindow s
Ġden ote
coll apse
Ġ= ======
press ed
Re port
At tr
Ġcomb ination
hes is
ĠH ash
' d
A re
gener ated
est er
ĠJ un
Ġal gebra
ell er
Ġ" -
t body
Ä ±
ĠThe ir
Ġf lex
Ġmap s
ĠMex ico
Ġnav igation
Ġform ation
Ġ _{
Ġhe ard
z en
s ys
at ar
} +\
ĠT R
t ags
w er
Ġend ed
: \
word s
Ġg irl
ĠAr ab
ĠS pecial
A CT
Ġch art
Ġr are
cit et
Ġfact ory
V ideo
Pro ps
Ġmag n
ar ian
ĠRe act
TE XT
ĠCarol ina
Ġre ader
S ample
> ()
ĠSum mer
ĠYou ng
ele ted
Ġd ataset
Ġe q
Ġnetwork s
us band
ĠG a
all classes
Ġc tx
en abled
Ġc ool
Ġf if
m aven
W rapper
m i
Ġshow ing
Ag ent
p icker
% ,
ĠInt eger
Com ment
Ġsign ature
ĠAp ple
li e
ĠF estival
Ġclass ical
it ness
Ġcomput e
Ex ample
Ġtyp ically
Ġc os
Hel p
M T
is c
ad ing
ĠL u
Ġcontr ast
198 7
Ġcover ed
Ġhelp ed
s ingle
ist ed
Ġag reed
Ñ ĭ
Ġno ise
] \
ro le
d one
Ġcon vert
aw n
ĠL ove
l ig
Ġre asons
St ats
Ġthem e
ĠComm unity
Ġtre nd
Ġmod ified
Ġen v
N odes
ĠI E
r id
. ");
O B
N amespace
C RE
Ġp aid
Ġtri al
ĠAt l
ĠS y
Ðµ Ð
Ġen um
Ġpl ane
oc aml
Ġp refix
d ependent
ĠA re
Ġex it
">< !--
Ġalbum s
ĠM il
ĠV ector
ĠW ell
(' .
Ġ' <
ĠP op
comp iler
h ar
g ers
prov ider
Ġmor ning
w hen
Ġmet adata
Ġl ic
The y
s he
ĠPol icy
= >
Ġ ui
Ġd aily
P ER
Ġch ief
198 6
Ġstr ugg
Ġenter ed
Ġvers ions
Ġt al
ĠVal ley
j e
DE BUG
Dom ain
ĠF ort
E V
ĠF urther
ĠW eek
ck now
Ġr adius
Ġc itiz
TR UE
ell o
Ġrap id
Ġc amera
por ate
ĠIt aly
het ic
def inition
Ġpos itions
Ġin fin
Ġ{ {
Ġc at
Ġ? >
Ġdist inct
u ce
) }{
W orld
am m
aj ax
ri ze
ĠRequ est
ĠD own
ian o
=" ${
Ġst ations
Ġsh op
Ġstart s
ĠJ im
Ġlog ger
Ġad apt
ach ment
ues day
Ġar rest
ĠF our
ff ff
se ud
Ġ ice
ne q
tem p
J S
ĠA uthor
Ġoffer ed
Ġun ivers
Ġb ill
ĠJ ud
g ame
H S
S ervices
ĠComm un
if i
p attern
bo ost
ĠPl an
Ġaltern ative
ĠK ar
$ /
Com par
Ġh our
col Last
Ġcal c
Ġsur vey
ĠC a
(' #
HT TP
ĠHen ry
ou ter
Ġf le
ĠE ven
Enc oded
Ġtem p
col lection
Ġdiscuss ion
du led
S election
err ors
.... ....
Ġsen ior
sk i
Ġst ress
ra structure
ĠB re
exec ute
typ edef
Ġfor ced
rior ity
} -\
ĠL ead
Ġstr ings
f d
Ġat tract
od ies
? >
( __
ĠH ttp
Ġfeature d
clud ed
= #
f ix
con struct
6 00
Ġcar ried
ĠA wards
w an
Ġsum mary
ĠC are
Ġwin ning
in et
Ġrem ained
Ġcontin ues
res ources
Ġmeasure d
P Y
k ins
ĠE lement
ul f
w p
igh ter
ext ension
l ow
< !
r ate
FF FF
L C
os oph
as is
ec es
det ails
sh ared
Ñ Į
Ġl ab
el come
ĠHT TP
Ġhouse hold
f x
ellig ence
Ġd at
Ġex cit
UR I
ĠO l
198 4
Ġliter ature
Ġun ion
od d
ĠW ood
s ince
lo ss
Ġcontrib ution
Ġem bedd
Ġclaim s
M I
ad or
p ared
Ġpower ful
M ake
in ant
A F
C oin
t or
ĠH aw
ad ium
ã Ģ
' $
col First
d em
Ġbecom ing
b en
Ġdynam ic
B AR
Ġv ac
ĠH uman
Date Time
Ġco ast
ĠE p
ĠN AME
al ing
ĠE very
L ook
25 0
ĠC y
) ->
ĠP ak
Ġa ware
Ġobserv ations
Ġstreng th
m ann
Ġad vert
Ġbo ost
math sf
Ġver ify
Ġpartic le
up lic
IG HT
Ġautom atically
r ick
rem e
en able
istri bution
g g
Ġan gle
sv g
Ġtask s
ĠW AR
Ġact or
rypt o
RE S
Ġstud io
Ġhe at
ier arch
: #
» ¿
Ġf ru
urs day
Ġmur der
E ST
og en
Ġph il
Ġp i
ĠA S
w riter
Acc ording
us ers
Ġ> >
ï »¿
{ %
Ġoper ating
Ġsupport s
build er
Ġ ens
Ġsuccessful ly
re v
Ġmet al
k ens
Ã £
Ġth erm
Ġst ored
Ġinterest ed
enumer ate
Ġr ise
Ġa ircraft
el a
Ġlist en
Ġcont roller
us form
P U
Ĥ ¬
Ġh ydro
numer usform
cl uster
Ġclear ly
g lyph
Ġw ants
F ind
198 5
un ct
; }
Ġhead ers
Ã ¢
Ġlist ener
p et
Ġga uge
oc key
Ġle aving
Ġcur ve
Ġdet ect
operator name
test ing
u er
cond ition
th row
user name
Ġob vious
Pro gress
or iginal
' ));
Ġpro xy
h om
ĠCont rol
Ġveh icle
Ġpart ies
Ġmatch ing
Ġauth ors
the orem
set s
Ġd etailed
Ġis ol
ĠSc ot
L android
ct rine
ĠJ oe
Ġh uge
ĠL ord
Ġsh ut
un ique
spring framework
Ġp ert
Im port
Û Į
ĠA SSERT
Ġeff icient
ĠPro cess
ys ical
amaz on
item ize
B ook
os c
d ialog
ĠB lock
ĠN et
are s
lo op
ĠAnd roid
if iers
ist ing
ĠHam ilton
Ġhe ar
Ġke pt
Ġspe ak
lo ader
******************************** ********************************
Ġto ward
Ġtime out
l ife
Ġslight ly
Ġt ensor
ult y
t ics
ĠS ign
F S
log in
Ġpat ient
Ġpartic les
x s
t c
ĠAs ia
ĠM any
ĠPro perty
B ind
Ġ il
Ġchall enge
Ġvert ex
p u
re port
p ull
Ġfore ach
in ion
f i
Ġt or
nd ef
ĠU I
ĠB u
Ġoccurre d
uz z
Ġregard ing
. ",
b el
Ġpro pos
A rea
ĠJ o
M er
(' /
Å ¡
Ġpr ison
Ġlook ed
Ġrecomm end
por ation
ar ia
Event Listener
) }$
iss ues
Ġcolumn s
Ġlay out
Ġkn ew
h ow
att ice
index Of
ord ers
Ġcomp act
Ġreve aled
ĠM onday
Ġcon vers
ĠLO G
RE G
ĠDes ign
Ġ ×
our ney
Ġbal ance
ĠSo ftware
Ġres idents
ot ing
w orld
ĠM ov
Ġexperiment al
Head ers
fl ag
Ġa head
Text ure
Ġgu id
- $
ĠA M
d y
under line
in valid
Ġre ct
requ ired
Ġtr uth
comm it
ĠW he
ĠP RO
ĠJohn son
ĠM iddle
c uss
pl ates
Ġrel atively
Ġcent re
Ġtri ed
ĠL com
Ġdet ection
um s
B ound
Vis ible
U ri
Ġcommun ication
Ġco q
R ole
Ar ch
Ġpro ceed
Ġbusiness es
ay lor
pl ot
Ġinter val
ĠSup port
Res ources
Ġide as
ust ers
. <
ĠSw ed
Ġent ries
T ra
Ġtr ail
EE EE
Ġf ol
it an
ĠJ ones
atic s
Ġso ft
Ġnull ptr
IN TER
Ġp ure
ic ity
Ġofficial s
ĠIn s
atter y
( @
En umer
Ġdoc uments
v ideo
Ġrest aur
Ġcon nections
run time
Ġw all
Ġappear ance
Ġarchitect ure
str a
Ġed ition
ĠCent re
R PC
Ġm olec
Ġr ing
ess ions
r ical
J oin
Ġsc ored
n n
$ _
Ġtraff ic
ag raph
ĠBl ue
ans as
cle an
Ġeconom y
Ġbenef its
: `
g ency
ĠĠĠĠĠĠĠĠĠĠĠĠĠĠĠĠ Ċ
F R
ĠA ccess
Ġ ).
Ġfin ish
ĠS ource
T otal
ĠF I
Ġaward ed
pl us
Ġdep artment
ro ph
G ame
ap pe
ĠCon ference
nes day
ĠR est
Ġproced ure
t ons
i ate
ĠB it
b ro
in itions
n amed
Ġc ities
as ync
medi ate
Ġsc atter
Ġfe et
Ġsm art
ur ies
Ġfore st
ĠC ustom
ĠC ross
Ab out
ak a
Ġh usband
se g
w all
ĠC ard
ĠB oth
F LA
Ġn p
sum er
hel per
ched uler
Ġregister ed
Ġcy cle
R R
Ġ{ "
... </
Sum mary
ĠN av
Ġis land
F in
pro d
Ġconstr aints
cre d
Mult i
M icrosoft
v space
Ġfl ux
" ],
Ġk ing
el ines
ost on
ĠL ast
z z
Ġv oc
Ġinvest ment
Ġl abor
cd n
for ward
pe ople
f ast
Ġp icture
ell ar
C ast
Ġw arn
ĠS D
Ġpl anning
Ġchar set
Fl ag
ĠEx ample
F ORM
um my
Ġs ustain
as sembly
Ġm unicip
Ġdiffer ences
IT ION
Ġdam age
Ø ±
yn omial
ĠW al
ĠB ob
w ig
Ġbehav i
n eg
Ġsk ills
ĠT ele
fe ature
Ġs ell
Ġprop ag
ĠC EO
198 3
Ġocc urs
Ġcalcul ated
DE FAULT
stru ctions
8 00
v c
Ġflo or
urb an
ĠW ay
ĠRe al
h ref
En ter
Ġcred it
ĠL iber
Ġcom pl
B est
os es
Sh ort
y er
oper ation
r uby
Ġexec ution
ĠÂ £
yl van
Ġc md
ual ity
19 50
ĠF und
b g
f ixed
Sec ond
Ġb log
Ġexist ence
Ġoffic er
Ġc am
10 1
op l
Ã£ o
Ġs un
Ġwe ap
D elegate
ĠG i
Ġd raft
Be an
Ġtechn iques
}} ,
Ġtransp arent
198 2
Ġp hen
M ask
PO ST
Ġconf irmed
M ath
Ġass igned
T wo
an es
} %
Ġgu arant
B B
Ġd ebug
Ġdiv ision
> :
ĠW ater
Ident ity
Ġequ ipment
play er
Ġdis abled
Ġf ish
rop y
Ġd ream
Ġd uration
wild fly
f old
trans ition
sw arm
ĠM P
Ġd ict
Ġaud ience
ĠSt e
Ġhe nce
Frame work
ilt ers
c am
Ġchalleng es
u um
Ġsp an
E mail
Ġcult ural
Ġfam ous
ĠS ar
L en
L anguage
Ġp urs
ĠI II
Ġach ieve
Ġpl us
Ġindic ates
Ġal umni
ate way
Ġadministr ation
Ġform ula
t wo
Ġincre ases
Ġdo or
R C
gorith ms
Ġcon ference
Ġr gba
ĠOr gan
Inter val
CT YPE
t k
v s
Ġfocus ed
Ġ ^
Ġcont ained
ide os
Ġindic ate
ĠS QL
own er
ĠH a
% )
group s
Ġres erved
ry st
ĠS a
ĠIn put
Ġag ree
ĠArray List
Ï Ħ
Ġmus ical
ĠB razil
Ġhistor ical
Ġl ived
Ġnumer ous
Ġallow ing
T x
ish op
av our
ĠIr an
Ġsu c
LO CK
Ġdi agram
em y
ĠC oll
MOD ULE
Ġp et
Ġhappen ed
Ġexper iments
VAL UE
Ġp p
act s
Ġr an
ĠPol ice
ĠF amily
Ġpol icies
Ġfund ing
D em
Ġex tr
ĠD ocument
scri be
Ðµ Ð½
ĠComm and
bl ank
âĢĿ ,
Ġ\ ;
'] ['
li k
; )
ĠK h
um es
ĠJose ph
P layer
ĠâĢ ¢
and on
Ġprote ction
V ir
Ġr ac
Ġ( -
check box
Ġf resh
ĠAb out
Con n
Ġdocument ation
ĠCol umb
ĠJ ac
End point
D uring
Ġ( [
Ġa f
C G
Ġm iles
n i
Ġs ql
Ġfind ing
Ġf ear
Ġbenef it
RE Q
Ġm apping
ĠCol lection
x html
Ġexpress ed
() ))
m oz
ĠG al
ra wn
Ġjob s
ĠUkr aine
Ġre ality
st ein
Ġem ission
ME TH
ĠH y
Ġ ult
< \
Ġelect ron
Ġk ids
Ġz one
L in
Ġs ynt
z ure
EEEE FF
Ġr iver
option al
Ġtrans late
Ġex pert
ur er
is er
time out
Ġm eta
Ġtechn ical
Ġnot es
iv ial
ĠE mp
Ġmass ive
S I
Ġlead ership
Ġaccur acy
B egin
m ic
ĠN Y
in ity
D ev
OR TED
Ġloc ations
Ġg un
Ġcustom er
Ġw arm
Ġpe ace
Ġm ys
Ġpart ition
$ }
; ">
Ġ ];
res olve
Ġatt end
Ġexec ute
if old
Ġt mp
Ġcan cel
ĠSc iences
est ic
pro xy
Ġign ore
ĠB ecause
Ġpl ugin
sign ature
Us ers
Ġs y
Ġr u
ament al
ĉ ĠĠĠĠĠ
ID TH
check ed
C apt
P air
Ġtop ic
Ġn ine
Ð ²
ul ator
Ġenvironment al
EN SE
Ġan imation
get Element
Ġint ended
Ġform al
ad r
DO CTYPE
s ocket
ir al
py thon
Ġopport unities
h l
iss ue
agnost ic
O M
P M
ĠT uesday
' ];
ĠF ind
ĠL uc
il a
Ġsuc ceed
ĠC EL
ion e
ag ent
print ln
ĠM i
VAL ID
o es
Ġus age
ĠG re
ro ute
Ä ģ
rodu ction
w arning
I gn
An imation
Ġw onder
Fig ure
c ert
Ġconf irm
ylvan ia
ĠVal id
, '
Ġin struction
Ġart icles
is is
az y
Ġb urn
Ġad j
libr ary
Ġ' '
Ġconstruct ed
b ot
Ġass ign
ĠF ire
Ġch air
ĠR am
197 9
Ġconduct ed
ĠOlymp ics
Ġph oto
ĠMich igan
Ġsing er
Ġb oy
ER S
F E
imit ive
Return s
Ġcons ult
uck y
C B
Not ification
ĠS E
METH OD
Inst all
Ġfl ight
Ġbeaut iful
Ġaccept ed
App end
Ġcontrib utions
Ġcount y
e z
ĠEn vironment
Ġprodu cer
Cl oud
Ġ" ",
Sequ ence
Ġassert That
min us
V olume
Ġap pre
Ġexper i
Ġmay be
Ġinitial ly
Ġme ant
Fr agment
ĠE nergy
Ġle aves
Ġown ed
Ġst able
ĠE r
Ġimplement ed
lim its
ass andra
Ġo dd
g oto
ĠB ow
P o
Ġthe orem
com plete
mult i
Com ple
St op
Ġclin ical
En vironment
as i
Ġnuc lear
ST ATE
Ġwrit ers
pol y
Ġgalax ies
Ġdynam ics
C lear
ur ance
Ġth reshold
Ġadvant age
pt on
Ġdest ination
Ġ" $
D R
ĠS and
eng er
U AL
Ġload ed
ĠNor thern
ĠIr ish
Ġrepresent ing
l arge
tr ace
Tr ansport
Ġscal ar
con sole
Ġ rows
u ite
Ġle tt
ĠWilli ams
ag ers
Ad min
Ġb ind
Ġex cell
m ouse
Ġtrans formation
ĠS aint
Ġadv anced
Ġtrack s
ab out
Ġg ather
Ġanim als
Ġres olve
e per
ĠChrist mas
NavBar Font
on ical
Ġcomm ission
un te
Us ing
mult icol
or ial
Ġper haps
ĠR o
D ay
Ġel im
M IN
Ġach iev
lip se
Ġp sych
ry ption
ĠS earch
L imit
re pe
ĠÐ ¿
d c
Child ren
Ġch annels
Sk ip
Ġsom ew
}} }
Ä ĩ
Ġt ournament
m ond
/ _
Ġchang ing
Ġb asketball
n p
Ġp al
Ġiss ued
d iff
Ġc ars
Ġp il
Ġ ..
Ġpo et
1 10
ov iet
S ort
or al
ed u
Ġsc roll
D ictionary
ch er
}} _
ĠA ff
{ "
f actory
Ġst reet
198 1
Ġmain ly
und efined
D P
ĠS ports
Ġcont em
F ree
ĠW ild
Ġgu ide
br id
f c
Ġv ary
ab eth
Ġres et
ĠUs ing
f riend
og ram
m osp
ĠP acific
ĠH on
ĠBo olean
Ġdr ink
Ġoffic ers
vis ible
ĠOr iginal
S ave
Ġbe at
Ġd anger
ist ence
Ġmoment um
Ġmin im
Ġded icated
omet ric
å Ī
W ORD
r im
) |
Ġb udget
Ġpair s
multicol umn
ĉĉĉĉĉ Ċ
Ġapp arent
Ph one
Ġcover age
Ġor ient
ir ation
Vert ex
SE LECT
T T
Ġr ich
Ġs leep
Ġlabel s
\ }$
w ater
G C
ĠL ab
M iss
Ġimport ance
ĠMed ical
et es
on to
Ġmark ed
Ġdis s
Ġdisc overed
Ġ ðŁ
Ġs eg
Ġj ump
circ le
ĠGu ide
Ġapplic able
ird s
ĠComm on
Ġcont ents
ĠF ROM
pl er
lo or
Ġ' \
Ġaff ected
ĠN on
Id s
Pro to
ix els
ĠL ight
P od
Ġpol ar
Ġpro ps
Ġs ph
ĠP rem
at omic
support ed
sim ple
Ġarbitr ary
Requ ired
att ers
typ ename
ĠJew ish
fl at
Ġd oll
Ġsymmet ry
Ġstat istics
ut s
b at
ĠĠĠĠĠĠĠĠĠĠĠĠĠĠĠĠ ĠĠĠĠĠĠĠĠĠĠĠĠĠĠ
Ġun iversity
Ġ\ |
~ $
v o
ĠP H
S K
if er
ĠIn vest
Ġrefer red
ition ally
Ġext end
ĠTh ursday
Ġpath s
Ġg ain
Ġse at
Ġspec ify
it age
C are
mon th
our se
Exec ution
opt s
S erv
Ġfra ction
(" /
ĠE ND
ĠS outhern
}^{ -
ĠM ah
Ġsh ock
gy pt
ac cept
ĠSp ain
Ġd ie
W allet
AN T
Ġchem ical
Ġinvest igation
Ġrelig ious
or row
Ġr at
Ġc row
æ ľ
Ġear th
re lease
s en
AN CE
_ +
A ng
es ome
Ġvict ory
ult ural
D iv
as m
Pro gram
Ġcon vention
j Query
plement ation
ĠFrancis co
Ġdepend ing
Ġclaim ed
p air
Ġinst ances
Ġattack s
ĠN E
kw args
ĠSen ate
L eg
IN S
ĠH ospital
Ġdevelop ing
Ġfr ag
Ġcar bon
ĠAN Y
M any
s es
ĠIn ternet
Ġt end
ĠL ear
d k
ĠR adio
object s
Ġpur poses
Ġacc eler
Ġ ri
foot note
ys ics
Ġredu ction
Ġup dates
Ġtre es
aw a
S cal
ap is
ack s
Ġst uff
Ġinst ant
Ġorder ed
down load
Ġtr ace
ĠRes ponse
Method s
s ylvania
ĠM en
Ġfac ilities
ot on
197 6
Ġmechan ism
Ġpre v
S creen
Ġed ges
Pre vious
EL D
Ġmeasure ments
ĠE nt
ĠM id
Ġfund s
ĠB ul
D b
ĠJ es
ĠF ederal
12 5
t witter
Ġinterpre t
us hed
ĠS ir
c hen
side bar
ĠN ext
Not es
Ġrequest ed
SC R
ing ly
197 8
if ndef
ĠAd v
el d
Ġcandid ates
s ync
US ER
Ġd ialog
Ġall Classes
Ġcould n
E q
ĠN ight
Ġdep art
ad el
ĠallClasses Link
Con s
ĠP lease
Ġaddress es
il ly
Ġse ctions
ĠW all
Ġadv ance
s b
Ġs ale
Ġcor ner
Ġad min
Ġc ursor
ĠV an
/ .
ist ical
ĠOption al
ĠN AV
ĠW rite
Ġregion al
valid ate
M ove
h ard
ĠK en
_ );
Ġw ish
pro du
Gener al
ĠJ on
Ġder iv
p ag
Ġthink ing
Ġimprov ed
Ġtyp ical
Ġunder lying
view s
Ġbr ain
Ġmult ip
M ouse
ĠP R
Î µ
S ql
W rit
ay a
Ġfootball ers
Ġpar allel
ok ed
Ġ' ''
t ar
ic ator
r an
Ġspe ech
Ġk ill
s lice
Ġe ye
Wh y
C oll
ĠAs ian
Ġcli ents
Ġb ed
ĠGeorg ia
s id
ä »
Ġmot or
N C
og y
set up
ipp ing
Fl ow
Ġex erc
ĠWed nesday
get Value
Ġcapt ure
197 7
Ġrece iving
Ġm d
Ġappro aches
Ġf reedom
on al
Ġs outhern
v in
ĠS IZE
ict ures
ĠR ights
Ġend s
c atch
ĠAnd rew
Ġf an
Î ½
Con structor
ĠSe a
U nder
ex it
Ġbig gest
Ġhel ps
Con nect
ĠN avy
Ġsuggest ed
Ġpre par
Ġassum ed
D ATA
ĠF OR
ĠRepublic an
ch a
Ġnew sp
m ag
IO Exception
Ġan c
' \
er ence
U ST
Î ¹
Ġdr iving
à ¥
th rift
G ER
Ġabs or
Ġord ers
ĠW ho
dest roy
Ġlearn ed
Ġ ig
P UT
ĠM ike
ĠM ot
Ġpor tr
p icture
Ġsecond ary
ent ed
Ġturn s
ĠS ong
per iment
ĠH as
b atch
B I
197 5
os a
Ġro ugh
Ġdef ense
Ġrec ip
am in
math scr
ĠP erson
ĠDemocr atic
ĠAd ministr
ĠIs lam
Ġl ies
s n
f lex
ĠL im
Ġ@ "
Ġem it
Ġre tain
ch anged
197 2
Ġwait ing
Ġ$ |
on ce
ĠC lient
u v
Ġb atch
r ad
ath an
Ġcomput ed
ĠC ivil
L ower
g ov
cl one
Ġb uf
arg uments
Ġpl ants
W arning
Ġvalid ate
Ġlim its
tr l
MO DE
Ġwe ather
Ġach ieved
at uring
anc ell
e a
Ġal ert
select or
put er
Ġw arning
En v
ĠCh ris
ĠCon f
Ġselect or
y y
ĠJust ice
Ġse ed
J an
ĠPar liament
% "
ĠG reek
Ġpass ing
in herit
Ġse asons
Ġshe ll
Ġs chema
mer ge
Ġopt s
Ġs port
Re al
comp ile
Ġag greg
Ġtrans lation
ĠDan iel
R T
ĠD igital
Ġas sembly
Ġveh icles
Ġexpl ained
Ġs aved
exp and
UN D
Ġb right
Ġind epend
ĠE st
ĠJ eff
Ġcol lected
tr m
trans action
Ġpattern s
ĠJack son
l an
N V
ap h
S V
ĠH or
0000 00
Ñģ ÑĤ
Ġexec utive
18 0
id ae
is Empty
ele m
act ivity
Ġdec om
Ġneighbor hood
Ġt ags
ĠL ike
y cle
Ġhapp ens
ĠB oston
All ow
Ġyou th
Ġmed al
Ġs b
Ġcou pling
F ocus
istri but
197 4
un a
Ġs ister
enc ing
Ġro les
Ġf re
ill is
CO MP
Ġdim ensions
Ġf iction
Ġinter actions
OR Y
S ur
ĠQue en
ud es
ent h
se q
ĠS af
Ġexpl an
d agger
ĠO N
b d
Ġem ph
ym pt
ĠT erm
F urther
re ce
H ub
Ġunc ertain
Ġnor thern
Ġsol ar
Ġg ap
be an
ĠStud ies
Ġs an
ĠS pring
sh al
pr ise
Input Stream
Oper ator
al g
mem ory
Ġ( $\
Ear ly
Ġdeg rees
V E
Argument Exception
ev in
Ġrecord ing
ĠOh io
Ã ±
Ġg one
Object s
Ġsub stant
Ġinj ury
Ġcorre lation
ex pect
Form s
# {
Ġtre ated
che ster
Ġide al
or ney
Ä į
tex trm
A SE
G R
ĠM ock
O wn
a ught
sc ss
m c
over view
ĠW alk
fol io
N ative
ĠM ajor
CH AR
Ġmed ium
ĠK im
NS String
Ġbeg ins
Ġcol on
ĠCar l
ĠSt atus
W atch
/ "
G A
I AL
con structor
ip her
Ġperm it
C LASS
s ome
Ġf ellow
Ġrepe ated
Eng lish
Ġe igen
The ta
ĠCl oud
b c
text tt
Ġsem i
ar se
k t
Ġn arr
Ġcitiz ens
om ent
Ġpol ynomial
P D
z ip
ino is
197 3
cre ated
Ġcoordin ates
Ġstand ards
v olume
ĠWh y
Ġh ers
b log
Ġsec ure
Ġbound s
B asic
196 8
Ġserv ing
Ġfr agment
Ù Ĩ
Ð ¼
Ġf mt
Ġexpl ain
P ers
W ait
ĠW IT
Ġfunction al
Ġem b
Ġnew ly
ĠF ar
ĠM aster
enn is
Ġf ee
Ġs ync
Serial izer
ĠW ales
Ġfavor ite
ĠH arr
ĠNAV BAR
Ġacadem ic
dr iver
) [
' }
> \
ĠE V
cre ens
B inding
Ġstrong ly
ver ter
ĠPenn sylvania
ge o
Ġb in
Ġtrans actions
ext end
Ġpartners hip
Ġcon ven
Ġf ashion
face book
ĠB ern
Ġact ress
ĠJer sey
el i
se par
pol icy
Ġa x
Ġatt ended
F n
Ġexpand ed
Ġmag azine
A li
Ġcorrespond s
r adio
S yntax
t f
ate ver
Ġinteg ral
ĠL ive
ab ric
âĢ ¢
> )
ĠAL IGN
em it
burg h
Ġlist ing
T y
Ġdec ades
fe ed
Ġfac ility
p end
f all
h ol
pl an
hav ior
Ġtri p
Ġr ain
Ġ' ';
% .
com es
ir us
Ġlang uages
ĠR ay
Ġbr idge
Ġthan k
Sp an
em pt
ab il
ĠW at
agnost ics
d atabase
St ud
Ġ\ "
ĠIn f
Ġtell s
Pl atform
Ġc lock
P lease
ĠCh ange
m essages
Ġmeasure ment
Ġassoci ation
Ġdel ivery
Ġdec ay
Map per
Ġpolitic ian
Ġth ick
iven ess
ĠT aylor
z abeth
SS L
ĠS pe
M R
Ġa w
Ġinstr ument
ic ode
ĠBrit ain
H z
Ġperm ission
Ġe lections
Ġpr ices
ĠB as
N UM
Un known
ble m
2 13
av ailable
Ġsp atial
AT ED
: [
ĠAmeric ans
equ ality
not es
or ient
ĠE th
ĠJ r
ĠW in
/* !
Ġnumer ical
Ġtw ice
ĠB ad
c les
Ġin fe
Ġch ampionship
st o
reate st
ic ients
str ings
ir ror
n ative
Ġdr ag
Ġ} \
re act
h ab
Ġyour self
: @"
ĠC ro
Valid ator
ĠS elect
pp ing
! "
g on
Ġrefer ences
ĠA T
Ġb its
Ġs ys
h u
Ġc old
ĠCo ast
Ġc m
s ig
^ -
Ġpay ment
const ant
F ore
Ġpr iv
Ġconstr aint
Ġar my
Ġca uses
in ator
n ight
Ġbel ieved
ĠP ay
c li
ak ed
E val
Ġj ourney
vari able
ic er
Ġpract ices
Ġf uel
ress ed
Ġvalid ation
Ġcom fort
Ġconsum er
it ivity
A ST
STR ING
ok es
Ġsupport ing
Ġcertain ly
AN G
Ġ" ";
am ber
Ġviol ence
Ġc er
Ġcr isis
Ġs ynchron
G ui
? "
ĠS ets
d uration
\ }
^ ^
ĠSt an
sk y
high light
Ġestim ates
Ġpi eces
sub mit
Ġmarket ing
Ġprom ise
ĠEngine ering
Ġare n
Ġs am
() ),
or ough
Ġsc r
Ġcr iminal
al ert
ĉ ĠĠĠĠĠĠĠ
n ic
en ant
Ġs pring
Ġes cape
Ġclass ification
ĠK ong
Ġdi am
Ġsim ulation
Ġus ual
aps ed
Con stant
Ġac comp
ĠMore over
Ġreview s
/ {
Ġphot ograph
B atch
Ġoffer ing
=\ "
* {
ĠPak istan
ĠV ari
Ġsex ual
Ġeff iciency
dep recated
Ð° Ð½
c oh
Ð ´
ĠAp plication
Ġl at
Ġt ail
R elease
Ġhous ing
an imation
ĠM S
cknow led
Ġ$\ {
Ġmod es
ĠDE FAULT
Ġexper iences
,\ ,
Ġeval uation
ĠD B
Ġbound ed
All oc
ĠC urrent
or igin
Ġextrem ely
Ġben ch
t p
b asic
w d
Ġam plit
Ġdr ama
im b
Cond ition
ost er
ĠD ar
Ġprote in
c raft
Ġdet ected
Ġs and
Ġsim ulations
if ts
Ġbro ken
Ġin variant
ĠF ood
F act
Ġplan et
Ġposs ibly
ĠProf essor
Ġintegr ation
Ġpro port
Ġv en
og ene
C ONT
ĠM ic
Ġs ides
v ol
Ġanc ient
Ġscient ific
ĠK ent
Ġcr ime
ĠC ur
is a
D IS
æ ĸ
ĠA li
ĠB attle
Ġgener ic
197 1
Ġapprox imation
ĠO S
Dr iver
Test Case
act ic
Ġex ceed
ew idth
Ġintrodu ce
ĠIl legal
ro g
se x
Copy right
Pr ivate
12 7
ug by
ĠS at
con str
Ġpolit ics
196 9
l at
Ġmer ge
ĠC irc
J ust
r ons
getElement ById
ul ner
Ġex pos
r ices
for Each
Ġw ire
W ord
Ġh ole
=" $
Ġs qu
L SP
ĠB ang
ĠE gypt
ident ial
Valid ation
C ur
Ġsee ing
Pl an
LE D
ile vel
LO W
Th row
Ġs ending
Ġc ouncil
T ube
Ñ ĩ
Sh ould
N ET
Ġ_ ,
Ġconcern s
ĠSt andard
t i
" ].
Ġreturn ing
ĠL ittle
cal endar
C ard
ĠSecret ary
ĠKore a
b x
is set
sh op
ĠR h
Ġg lass
ĠC ore
Null able
Det ail
Ġtalk ing
Add r
nes ota
Ġs izes
_{ (
ĠPol it
Wh ere
ĠF air
ORD ER
p ot
glyph icon
Ġdescri bes
Ġp itch
Ġt sd
19 40
Ġinf rastructure
Q U
o ir
ç Ķ
ĠPr ime
Ġm and
Nav igation
Ġf ant
Ġconsider ing
os ed
Ġang ular
Ġem otion
align ed
Ġcirc um
dis able
^{ -\
Ġcon n
Ġrun time
Ġthan ks
Ġm yst
ater n
ĠD ub
qu ote
s uch
Ġsuggest s
ĠG ar
. """
Ġarr ived
Ġtr av
Ġdepend encies
Ġl attice
C M
c fg
'] );
ĠO x
ĠBro ad
mer ce
ĠCont ent
b ute
Ġde ploy
Ġh air
Ġw x
Ġman ner
ĠAb stract
ow s
ug s
PRO JECT
ĠL y
Ġprov ed
ĠMed icine
Ġv ent
Ġfind s
ig ate
Ġident ifier
Ġprior ity
um a
Ġfil led
ov al
ri e
N ormal
h ave
Ġdecl ared
Ġv ision
AR N
Ġat mosp
clos ed
ict ed
We ight
p res
Ġsing ular
Ġ} }
ĠM ember
Â °
ĠR a
Ġ Å
Ġman age
i Ã³n
sp acing
ĠEmp ire
ĠL oad
l aw
Ġel if
ur ations
ĠS che
Ù Ħ
Ð¾Ð ²
b ury
Ġinc ident
ĠK r
Ġwid ely
ĠI R
Ġstat ements
ĠT y
ĠTr ust
art ers
Ġm ist
ĠA D
Ġact s
Ġpl anned
Ġfig ures
Ġ| \
Ġ" %
y o
Ġmod ify
Ġcharg ed
Ġprim arily
ï¼ Į
R ate
Ġm ental
ĠTh ree
Ġhold ing
Ġ era
Ġnear by
Ġhers elf
bul let
Ġan imal
opl us
us et
Ġm igr
onom y
ĠP ers
ĠRem ove
On ce
DE F
ĠR en
Ġcalcul ate
å ®
Ġsche dule
PH P
Ed ge
c ases
Ġact ors
Pl ace
ĠBro ok
N ov
00 1
Not Found
ĠEd ward
Ġ ing
Ġs ud
, $
er g
rit ical
ro vers
DO M
Ġk ernel
Ġspec ifically
ĠThe atre
Ġdes ired
d ig
Ġpro min
f mt
="../../../../../../ ../
O F
ĠS oviet
ĠS em
k es
Ġmar riage
ly wood
Ġwin ner
onym ous
Ġpurch ase
Ġpre pared
int eger
Ġlay ers
Ġinstit utions
( --
C ursor
Ġact ing
Ġadopt ed
w arn
comm ons
ĠH ard
_{ {\
ĠĠĠĠĠĠĠĠĠĠĠĠĠĠĠĠĠĠĠĠĠĠĠĠĠĠĠĠĠĠĠĠ Ġ
Ġpr ime
ĠL ie
f etch
An notation
Ġpre pare
el ly
L Y
ick ets
Ġre action
ĠEast ern
ub ble
er al
k top
ann a
z o
Ġe le
ss l
Ġ&= &
! âĢĿ
Ġconflic t
R aw
Ġsk ip
196 7
Ġc as
cont ents
Ġlink ed
un ately
Ġexpl ore
ĠE U
ĠB al
tr im
ĠT w
L oop
ĠL atin
Ġspect ral
ail ability
LO C
ĠH ence
Ġmark ets
( .
ten ance
col lect
ĠD C
Ġdist ingu
t an
Comp iler
Ġcontrol led
and o
Ġeval uate
ĠSt ream
19 30
ĠW rit
ĠF ull
Ġcirc le
agon al
Ġcre w
Ġthous ands
i ant
Ġteach er
ag a
T ok
oret ical
F uture
ĠS i
n ob
N ational
d ing
Ġn ice
L ight
Str ategy
ĠI T
Ġphen omen
" },
new s
Ġm o
Ġaccount s
Ġdi agn
ul s
F older
Ġli qu
Ġfor t
tr i
av id
Cont act
ON G
or i
Ġadv oc
Ġtechn ique
Ġperm issions
log o
ch art
7 00
ĠA rea
Ġ rom
Ġw itness
Ġn arrow
ĠB ol
S egment
Ġconc ert
Ġopt imal
ire ment
ĠJ ob
Ġprof essor
m apping
ĠIll inois
Ġca ref
Con sumer
are n
"/ ></
ic ing
Down load
Ġtest ed
Ġm ouse
Ġann ounce
t ic
Ġc e
Rem ote
B inary
Ġap ilevel
ib li
Res olver
/ ">
ili ar
Ġ" .
te en
g b
Ġsatisf ies
H tml
Ġc ert
ap ed
Ġam b
Depend ency
vert ical
Ġal gorithms
Ġg irls
Ġprincip al
Ġc ategories
ation Token
ĠG overnor
AA AA
OP T
ind u
bo se
Ġad m
Us age
Ġvert ices
ĠCh annel
pl oad
Ġsubstant ial
on ia
ĠPr ince
E ffect
ĠB a
Ġli ber
w edge
Y Y
Ġhyp ot
Ġtarget s
Ġproper ly
Ġacqu ired
Process or
ĠBe ach
Ġfa ith
direct ory
Ġb inding
Ġret ail
p kg
Ġengine ering
Ġload ing
ĠPro t
ĠL o
ass ign
Ġgu ard
elli j
Ġeas ier
UM M
AR D
å Ĳ
ierarch y
Ġsp end
19 20
Ġrot ation
Ins ert
ag r
Ġaccur ate
B Y
Ġb undle
Ġag ency
Ġfund amental
Ġsk in
ĠAn other
per m
Ġl ists
B order
Ġa st
ĠC G
Ġwest ern
ĠC ov
Ġ{ },
ĠSer ver
get Id
ĠUn it
ĠW is
Ġfeel ing
Ġe lev
) {\
inc iple
y ou
ĠReg ion
re du
Ġnav bar
ĠScot land
int ellij
w ill
ĠÂ »
B ottom
Set ting
le ts
Ġplatform s
ĠR om
ĠDes cription
Ġd ual
ĠT oday
Ġig et
Ġw inter
ĠP en
Ġrecogn ized
Ġst ats
Com plete
Ġcommit ted
ĠOn ce
ĠV ideo
19 45
ex pression
HER E
> "
ĠS om
method s
Ġmin imal
ĠChampionship s
Ġge ometry
ĠAp ache
aly tics
ĠC ase
Un ited
Ġm useum
st rip
con tain
Ġentire ly
B i
A udio
Ġknow s
Ġinsp ired
Ġrem ark
evelop er
Ġout er
Ġsubsequ ent
Ġm al
ĠMus lim
ĠHistor ic
rypt ed
Ġ à¤
> ;
j ack
Ġestablish ments
us al
Ġj s
sem ble
Ġin vent
] ))
CO MM
Ġm el
ser ies
init ely
table block
ĠOb serv
pro gram
19 64
ĠM u
å ħ
ibr aries
Fail ure
are t
Ġcharg es
Ġindust rial
i ated
Ġ ion
Ġd ance
ĠRec ord
ĠWil son
Ġvoc als
Ġcontrol s
ĠCor poration
Ġcompos ed
A I
unn el
to Be
a udio
Ġpert urb
iv ated
ane ous
c ue
b as
ul ing
Å į
Ġind eed
ĠL abor
ĠRep resent
Ġprogram ming
Ġf aster
Ġalong side
comp are
Ġc ensus
)\ ,
M essages
ad ed
Group s
ĠL java
ĠPhil ipp
Ġcon version
Ġassum ption
ĠPy thon
rupt ed
Ġauthor ity
Ï ĥ
In formation
- (
B ounds
ĠX ML
t ensor
Ġ' .
k ing
Ġappro ved
Ġlarg ely
Ġc art
SCR IPT
C md
Ġacc ident
C enter
Ġdiv ided
ĠN iger
Ï ģ
ĠA sh
Ġexcell ent
new command
Ġg ender
k et
V D
C ALL
Ġad vent
Ġf ake
Ù ħ
es ian
ĠCon nect
ay er
RE E
ĠS us
T F
ps on
S ch
ĠĠĠĠĠĠĠĠĠĠĠĠĠĠĠĠĠĠĠĠĠĠĠĠĠĠĠĠĠĠĠĠ ĠĠĠĠĠĠĠĠĠĠĠĠĠĠĠ
Ġcre ates
assert True
subset eq
ak i
.~ (\
Ġf ell
Ġass ets
p b
Ġreg ime
Ġperform ing
Ġhous es
Ġparticip ants
V ICE
set minus
not ations
Ġsett lement
Tim er
W est
N R
Ġcur ves
Ġinput s
_ *
ĠL ook
ĠN a
Ġcop ies
Ġin ject
Ġ$ [
Ġport ion
ph rase
RE D
Ø ¯
des ign
Ġend point
ĠSh ort
Z one
Ġcomm only
ir t
Ġte aching
Ġop inion
F UN
V AR
St atic
li bs
Ġrecomm ended
Ġv ideos
l ower
w ing
Over view
Ġre con
br and
Ġm ach
Ġconver ted
eg o
j et
Ġp erman
ĠB iden
Ġpost ed
A bs
Ġopt ical
ĠS H
Ġas pects
Ġunder st
b ell
ĠPort ug
uff ers
ĠSup reme
The me
AT OR
Ġtr ained
ĠOff icial
lin ewidth
Ġpay load
F amily
Ġ' %
AT CH
Ġcomple tion
ach uset
achuset ts
L ibrary
Ġal ter
Ġf ails
ph ia
ex tra
res ize
Ġst yles
spec ific
Ġsur g
Ġhon or
et ween
Ġg rew
Group Name
ap ore
ĠFinal ly
Ġcommit tee
Ġrelationship s
Pre v
ĠH ong
v als
AT TR
unn y
op ic
Ġauthor ities
Ġcomp liance
ĠMin istry
Ġ urban
ur able
Ġa wards
iffer ent
Ġs ocket
il ib
al ty
A UT
an th
LI ST
Ġweek end
gener ate
A nt
ĠF uture
T Y
< <
b us
196 5
enc ode
Ġhelp ing
Ġdec isions
ret ch
M aster
Ġearn ed
' _
it i
Ġsurround ing
Ġb ass
ĠStr uct
on av
ĠGu ard
Ġsh aring
Ġop acity
p ointer
ĠC R
Ġm ail
Ġup load
Ġnuc le
re lation
ĠP ut
_{ -
NO DE
P resent
b p
ĉ čĊ
ap ol
erv ative
Ġk id
ĠProv ince
p aper
adel phia
maz ing
Am ount
P red
ĠA I
BP ACK
el astic
Ġexplicit ly
ĠÂ ©
Ġg ar
lic ense
in ating
in son
ĠM O
Ġhe av
ord an
ag en
Ob server
ĠEli zabeth
ĠColumb ia
can vas
ĠSt ation
Sign ature
in x
Ġl ie
t w
Ġro ut
m k
olog ist
Ġclass ic
sub ject
ĠR og
Ġcomp atible
ĠAd am
Ġcomm ands
Ġdro pped
Ġw ww
ĠOut put
ĠCh air
ĠĠĠĠ čĊ
Ġ$ $
AC H
al so
Ġcheck ed
ĠL anguage
Ġposs ibility
Ġmys elf
p ur
= [
cre t
19 66
Ġdisplay ed
ĠP A
t ouch
s pe
ĠH om
Ġtechn ologies
Ġcoeff icients
á ĥ
a is
Ġstop ped
amp ions
Ġk ick
HE AD
Ġtem por
Ġgrant ed
Ġwhere as
Array List
ĠAir port
plic ated
Ġconf idence
clus ions
W IN
ul ating
y ard
ĠSim ple
Option al
w ik
j d
ĠBook s
ĠV ill
Ġdisc over
ele ments
U C
ĠAss oci
Ġinvolv ing
B en
Ġkeep ing
Ġrail way
nav igation
Ġelect ronic
enn es
Ġepis odes
Ġexperi enced
IN ST
Ġtro ub
et ing
v ing
Ġshare s
ĠVir tual
ĠW atch
ind s
Ch ain
Ġmet rics
ele d
Ġdef end
Ġfe aturing
ff f
B L
Ġco al
Ġin n
ĠT urn
E st
() </
Ġs quad
anch or
grad ient
ĠW IDTH
ĠMin nesota
) }(
D id
Ġgu ess
ĠQu ery
; |
Ġ> >>
Ġin equality
cuss ion
ĠN C
ĠSt eve
s heet
Ġcre ative
Ġmod ules
let ter
z ed
pre c
ĠR od
H L
ĠWAR RAN
P ower
Ġcol span
st ances
66 66
l int
b ec
ear s
Render er
ir th
ĠD elete
Ġserv es
(" #
Ġs yn
Ġown ers
Ġdefe ated
Ġprom pt
s pect
ĠSt ory
Ġst ores
Ex port
Ġsu itable
Ac cept
Ġext ent
Ġpers pective
em an
Comp at
function s
P F
Ġlog ging
Ġ\ (
s ym
ĠD eb
ong o
_ )
Ġfeed back
ĠRes p
Ġ ----------------------------------------------------------------
Ġtyp edef
ĠB ell
Ġcomp r
ac ent
}} _{
Ġcom edy
d ash
w x
Ġsym pt
Ġsh ips
p ages
ĠBuild er
Ġun able
erv es
ĉĉĉĉ ĉĉĉĉĉĉ
Ġ< -
Err ors
Ġsol ve
Ġ_ .
Ġr is
Ġp ed
Ġsp ons
S W
**** **
M ost
p id
Ġsche duled
ĠB E
Ġappre ci
ĠPro duct
Ġop posite
ĠD utch
Ġc ash
omorph ism
Ġcol ors
O W
Ġmin ute
head ing
Row s
Ġ' ',
Ġem p
Ġag ric
Ġtr uly
Ġcapt ured
Cont ents
Ġindic ated
Ġhand ling
Ġstrateg ies
Ġseem ed
ĠUn ivers
bu ilt
s ime
Ġcompos ition
op her
Ġac id
Part ition
includ ing
$ ^{-
im p
t le
L iteral
ĠAlex ander
Ġmin ister
), \
s un
ask a
Ġap art
Ġd elta
A SSERT
c u
sime q
ĠB Y
Ġattempt s
ĠChild ren
ĠA k
Ġdis able
Ġexec uted
Ġdepend ence
Ġexplan ation
Ġa thlet
M ag
Ġcon j
osoph y
Ġca ught
c ounter
ĠC at
Ġcollabor ation
Ġmod al
Ġp ipeline
Ġhom es
Ġc le
oc cer
Ġ' ./
Log in
Fr ames
ĠF C
Ġed it
re le
Ġperson nel
.* ;
out s
Ġh ide
F P
ĠK now
Bl ack
ĠĠĠĠĠĠĠĠ ĠĠĊ
ĠMc C
force ment
Ġm orph
Ġdestroy ed
Ex ists
h pp
Ġreport ing
Y our
gener al
ĠAg ain
ul i
Task s
i per
Ġscen ario
ĠRes ult
Draw ing
St ub
Ġthrow n
bind ing
m ass
Ġal ias
CON FIG
B IT
ĠI ter
li x
Ġl it
Ġl um
Ġorgan ized
) _
Ġdr am
S ame
nt ario
b lob
ru ption
ĠS V
ĠB on
s r
Ġest ate
Ġc riteria
Ġclass Name
ĠF ac
Ġoper ated
ĠTor onto
ship s
ĠP C
ik a
int on
Ġsch olar
Ġdec or
j ax
ĠDav is
Ġsim pl
ĠR ight
Ġphys ics
Ġmass es
l ab
Ġhistor ic
Ġcharacter istics
ĠC as
out heast
eder ation
ĠF ox
part y
com pute
ra ham
Ġcan cell
C ounter
Ġbel iev
ĠK enn
ul pt
Ġd ire
ĠL ew
se lection
Ġresearch ers
P res
( ()
Ġex ports
ĠTh read
Ġres on
r ame
app y
Ġsup posed
WE BPACK
Ġcoordin ate
Ġpro test
Ġc ab
Ġfif th
OR K
st age
ra q
Al though
Ġclos er
ou red
las g
Ġenh ance
Ġb ow
Ġm ent
ast ers
Ġatt ached
ĠB oy
Ġincor por
M s
requ ency
Ġenc ounter
ĠH un
;| &
P G
Ð ¿
Ġ$ _
ĠCon text
Ġpolitic ians
g ems
Ġo sc
Ġd ot
put ation
Ġm ort
Ġp seud
s quare
Ġeffect ively
el le
ĠC SS
an z
M aterial
FI ELD
patch er
Ġrec overy
Ġdistribut ions
Ġprom ote
ĠPub lish
St andard
Enc oding
c assandra
Ġconst ants
> '
ĠJ S
In ner
ades h
ĠL ic
Ġsk y
Ġp ri
ĠIs lands
Ġmov es
Ġmom ents
im m
ĠAdd ress
read er
Â ©
P romise
f p
R andom
g re
B al
ĠInst ead
Ġobserv ation
f b
Constr aint
ĠAcc ount
ĠC ost
Ġpublic ation
Post ed
Ġw a
m ac
ĠSh ould
Ġcamp us
? ?
UMM ARY
L ike
Ġ+ \
A xis
ĠSe ason
re po
Ġphot os
Ġab ort
Ġcomp re
An other
onav irus
Ġ" >
List en
Ġmed ian
ĠÐ ²
sub figure
BU IL
and y
Ġcook ies
ar ity
ut ors
ĠJ ean
Ġign ored
Ġ| =
ĠAn th
lo om
Con tains
Ġag ents
ĠB ox
ch ant
Ġclos ely
L IN
Ġrecogn ition
oll ary
Error f
Named Cell
ĠOn line
) ",
ĠL td
Ã º
Ġp ra
Ġobserv e
Sh ift
ĠA venue
ce st
ĠS ant
O ct
Arg uments
\! \!
Ġintegr ated
Ġfight ing
Ġhot el
ĠSt ock
ĠR oute
P OS
sequ ence
ĠPr int
he im
ĠMass achusetts
196 3
con vert
Ġrec ru
ĠConfig uration
Ġbehavi our
Ġsub set
ĠC ond
ir k
create Element
Ġp ref
valid ation
Ġh abit
Ġent r
it ative
it led
ĠFurther more
Ġar ms
ow a
tain ment
ĠB efore
Ġbr ings
Ġb odies
D rop
IMP ORTED
ĠS on
Ġ ener
A X
z y
ĠPro position
Vir tual
Ġt error
class Name
Ġr ural
Ġtit les
3 60
Perm ission
ak s
p ad
T uple
con nected
ell ite
ĠT ool
ä ½
Ġfrequ ently
Ġl ose
Ġyield s
ac er
Ġlog ic
E very
Ġvol unte
Sh ared
UN T
Ġsub mit
W ill
ly n
Ġpro to
Ġp owers
clud es
ĠV iet
C ancel
Ġre pository
â Ĥ¬
Dep recated
ĠTr ansport
Ġc overs
Ch rist
form ed
Ġw rap
R UN
: '
Ġpost s
A E
Ġinter section
reg on
pon ential
W in
Ġmagn itude
ĠB and
c overy
ĠVictor ia
qu ant
Filter Database
F oot
Ġin ternet
FF ER
Ġadv ice
Ġstand s
LA Y
ĠI V
Ġs we
ether lands
Ġb ands
resp ons
Ob serv
Ġt ight
ĠTh rough
Ġc ov
Column s
Ġemploy ee
Ġpe er
u ction
ri um
> %
ĠC ountry
Ġcalc ulation
In ternational
Man agement
rel ative
Ġvacc ine
Ex pected
D ATE
Con vert
col on
B rit
ir ms
ob serv
Ph oto
scal a
ĠL ow
F ALSE
er red
ut r
Ġp aint
ĠEx pl
egr ation
Ġend ing
rop ol
= $
Ġwork er
pre vious
av it
In f
Ġf etch
ĠT ag
Ġinitial ize
Ġt d
f ake
Ġe ase
%%%% %%%%
Be en
Ġdo ctor
Th us
Ī Ĵ
ĠT al
ist ogram
Ġdeliver ed
ĠPub lished
ĠA ud
Ġfl uid
ĠM D
ĠColor ado
Ġa id
ĠT ree
Ġst orm
Ġdr ivers
ĠBer lin
Ġm ess
( ['
Un iversity
d jango
Ġd rawn
Ġemer gency
d ark
196 2
rem ote
Ġmount ain
ĠOx ford
big g
s at
Ġp arsed
Ġv ulner
EN V
st ates
u ent
Ġre verse
ĠT ok
riz ona
H older
ak h
Con sole
tool tip
Ver ify
ä º
Dep th
S a
ĠS uch
Å Ĥ
En able
ĠG ro
Ġwatch ing
= %
P at
Ġs ac
Res et
Ġneg ot
ag ma
Ġgener ator
Ġy ards
ĠCre ates
Ġsign s
ĠR ow
Ġadd s
i y
Ġf at
Ġpercent age
Ġpr ivacy
th rough
ĠI ss
Ġret ired
(" %
S plit
se ason
Ġrespons es
Ġd ry
column s
He alth
um ps
Ġalleg ed
H is
MA P
Ġaff ili
ĠD ouble
M usic
Ġv o
Ġcont rovers
place ment
Ġinstit ution
ĠRef erence
Ġb an
Ġwe alth
are st
Care er
Ġre new
od ot
S outh
ĠEd itor
Ġpr inciple
Ġwould n
Ġc b
con v
pr iv
Tim estamp
Ġanal og
Ġspect ra
Ġbel ief
get Instance
ow nt
Ġgalax y
amazon aws
view port
"> (
B us
Ġtrans mission
d irection
Ġint ent
Ġlimit ations
Ġjust ice
ad oc
Ġgu y
om atic
act ual
Ġover flow
UR CE
ĠO s
br ace
part s
Decl aration
Ġext ensive
Ġf avour
Label s
A U
Ġcl usters
ĠO C
Ġd st
ap ple
viron ments
Ġsatisf y
Ġc ro
oop er
Ġent ertain
Ġcomp iler
Ġeven ing
Ġlett ers
log ging
Ġind ices
if ted
top ic
ac on
STAT US
Ġres istance
Ġ{ %
th ur
con sin
w t
w orth
Ġinterest s
E Y
ĠJ son
RA Y
Ġprec ision
Ġtr uck
Ġleg isl
ĠPar se
link s
hens ive
New s
Ġincre d
Ġbreak ing
S ite
Ser ies
Ġh op
Ġvir us
R out
Ġ Ñģ
ack et
Ġrespons ibility
Ġvot es
Ġsepar ated
Ġe at
ĠJac ob
ab c
ĠT ai
un es
t l
Ġhum ans
S epar
ĠR aj
ĠT am
$ ).
ymmet ric
S em
AR G
ĠD er
ĠC hen
do or
g z
Ġsup erv
ound ed
h ot
Ġworld wide
Ġp in
Ġiter ator
Ġl osing
Ġon going
B ool
ĠExec utive
u y
Ġtherm al
yd ney
Ã ¸
ĠC reek
h ang
Ġexc ited
Ġre nt
Ġcomplex ity
Ġdec ade
te ction
ĠB all
Ġcorrect ly
es is
Ġp un
eng ers
r pc
) _{
Ġv on
10 24
ars ing
Ġfind ings
Ġc atalog
per p
ĠH ay
atas ets
Ġmov ies
az e
Ġmat rices
Ġn a
O ld
Ġg oto
Ġre venue
run ner
Ġpred iction
Ġd ust
a ired
Ġap ps
e en
ĠC lear
__ )
ĠDes pite
Ġal pha
ĠS UMMARY
ĠM arg
uplic ate
Trans ition
T ile
Ġgen us
Ġcopy right
l ap
Ġintrodu ction
am ely
ick y
Miss ing
u j
ate st
ĠD am
ach er
v endor
r ank
Ġindic ating
An alysis
ic ian
Ġsymmet ric
ell s
ic ious
c ancel
ĠBy te
}$ -
ĠS W
Ġwh atever
}} (\
Ġcalcul ations
Ġs in
Ġdiffer ential
Aut hentication
H C
Ġsil ver
ĠU til
ĠSt ore
Ġc lip
example s
è ¯
ĠN ative
rb an
Ġbring ing
Ġw ins
ĠP os
Ġs now
ĠL at
ig a
rel ations
C odec
p in
ud a
ĠS anta
(' <
ateg or
ĠPhil adelphia
G EN
Ġdep os
ens itive
ĠDO M
ĠC art
M illis
Ġdom estic
ĠWhe ther
Ġcontem porary
Ġradi ation
ĠPol and
âĢ ī
Ġa ver
LE TE
load ing
Ġlocal ly
Ġpotential ly
T L
ĠPh ot
rem arks
Ġtop ics
Ġle s
ĠV en
ĠM att
ĠC hem
Ġim g
Ġexpress ions
Ġinfin ite
ĠS M
ag g
ĠN ations
Ġsing les
E P
ĠPro p
Exec utor
is or
ĠAr m
ession al
ĠAl b
ĠVAL IGN
od o
Ġclub s
Ġprov ince
ĠOb ama
ĠC red
ile y
ke ep
Ġfam iliar
al ink
Pro f
ĉĉ ĠĠĠ
ĠMan ager
Ġad ult
] +
ĠA ge
196 1
ĠP romise
Ġf s
ĠA P
Ġg reatest
Ġtext ure
Ġman ifest
D en
Ġsold iers
Ġocc asion
cept or
Ġleg end
Ġpers ons
ĠR ome
lic enses
Ġv ectors
for all
B ased
ĠWh ere
Ġsubsequ ently
Ġobject ive
ĠAut o
oriz on
Ġb ias
B ad
Ġwindow s
a ug
Ġsud den
Ġv eg
clos ure
Ġcrow d
ĠS ab
Ġosc ill
ym ph
ĠGold en
Local e
l f
Ġm it
Ġyoung er
Ġf ly
Ġs ed
Ġstand ing
cont act
Ġar ts
Ġs pl
Ġint elligence
S G
ĠB C
get Type
ĠSt aff
re pository
T AG
ĠKore an
Ġst ability
Ġpre ced
ĠSch olar
inter pre
ĠP ot
ĠF ord
W arn
tr ansport
ĠE C
ĠR eb
us r
Ġsol o
we ek
Ġrel ax
[ (
de ep
ĠB at
St ar
Ġa ria
Ġvari ation
Ġex cess
g ies
Ï Ģ
ĠDis ney
ĠCo q
ĠH ung
Ġf old
Ġult imately
) },
ze ch
Ġf older
ph ant
ĠC ub
DE X
ĠST ART
Ġemploy ed
Ġgu est
F OR
om m
Ġ= \
Run ner
refer red
ĠS ite
{ $\
Ġs ounds
Ġinvestig ate
k ernel
u uid
13 0
Line ar
ĠA C
~~~~ ~~~~
Ġhost ed
19 44
i at
ĠPl ace
m obile
sc ious
Ġsever e
Ġaff ord
Ġteach ers
Ġrob ust
U pload
Ġtro ops
CO M
Ġexper ts
Ġbul k
ĠU RI
u able
local e
ĠStep hen
IM IT
O C
ign ore
Ġden otes
UE ST
c ross
nt il
Ġwe ights
ru les
d st
go od
Ġcol our
at om
Ġcon tribute
Ġshoot ing
ar ry
ĠF ix
Ign ore
Ġb old
Ġg lob
s peed
b ounds
grad le
Ã© s
ĠCol umn
Ġp atch
ilib rium
is lation
Ġbe am
ific ial
cre ment
Do ctrine
ur d
Ù Ī
ĠF ish
Ġw idget
Ġv eter
he ets
Ġuncertain ty
Point s
sol r
Ġthe oretical
ĠS end
our i
ĠGr ant
Ġdef ines
String Builder
ĠN FL
Ġread ers
D irection
( /
Ġtemperature s
Ġsl ot
Ġrepresent ative
stand ard
================================ ================================
T ouch
arch ive
ĠO ntario
Ġr ig
Ġtransfer red
ixt ures
Ġsupp lied
Ã© e
n os
Ġtem porary
Ġplace holder
Ġt er
Ġvis ited
Ġ" '
ĠSt adium
get String
incip al
ĠScott ish
C r
Ġrec all
UB LIC
Ġd ates
Ġ( +
Ġther apy
fort unately
\ /
Ġ$ -
Ġl y
ĠĠĠĠĠĠĠĠĠĠĠĠĠĠĠĠĠĠĠĠĠĠĠĠĠĠĠĠĠĠĠĠ ĠĠĠĠ
Ġresult ed
Ġfound er
ro uter
Ġaccess ible
Ġperform ances
A ctions
Ġ` ``
Ġtable s
Ġjud ge
ĠFore st
err ing
c ursor
ĠSing apore
ph ase
Output Stream
Ġtim estamp
re pre
ct ic
ĠB BC
Ġcl one
Ġsp ending
AV E
ĠR on
Ġofficial ly
\ _
And roid
w r
Look up
olv ing
Final ly
Ġindu ced
ĠYou Tube
TR Y
Ġrec over
Ġan chor
over ning
ĠC ru
ryst al
alt Color
Ġm es
pl ain
Ext ensions
Ġpro jection
Ġvers us
Ġb attery
^{ +
M ut
Ġscal ing
d ays
gener ator
ĠH o
Ġimmedi ate
ar on
Id x
RA ME
ĠD ark
S ol
Ġl oved
Ġas ympt
at riate
ĠG reg
S am
Ġexpl o
m oment
ĠSim ilar
A K
11 1
Ġgrad ient
Ġab und
ĠC ulture
a us
ib ilities
ĠR os
ĠBO OST
ĠM ir
Ġ( %
Ġp ending
sub subsection
ĠĠĠĠĠĠĠĠĠĠĠĠĠĠĠĠĠĠĠĠĠĠĠĠĠĠĠĠĠĠĠĠ ĠĠ
ou ston
rop ical
w br
Ġhe aring
ac o
Ġconcern ed
Ġ( @
ĠSystem s
Ġst ellar
B ro
Ġcon sec
T ex
por ter
Ġdem ocr
hold ers
enn a
Ġcho ices
Ġexpos ure
Ġassess ment
et ary
ĠÂ ·
ĠIn ternal
ĠDon ald
ĠC F
Ġr ational
) ^{-
i pl
ĠL es
L ib
ĠClass es
ĠAdministr ation
Ġst one
u et
Ġhealth y
Ġv ess
[] {
Ġr aces
Ġweap ons
Ġneut r
repre ne
Ġassert True
D ynamic
Ġarrest ed
as p
Ġpract ical
ay ed
Ġim press
Ġpromin ent
itor ies
repe at
Ġv m
pl ays
Ġpass es
tim estamp
Ġ urg
Met rics
ĠI raq
K it
Ġch apter
Ġb ond
ĠE ric
ag ues
Ġbase ball
Ġass istant
Ġeast ern
Ġ- =
Ġref ers
un lock
off s
Y es
l ot
Ġstat istical
æ ķ
} ",
is ition
Ġwrit es
ĠMag azine
Ġg ene
Ġrestaur ant
R ot
h or
Ġcont est
S ports
å ¤
B el
R ob
ĠSer ial
**************************************************************** ********
u ating
Con verter
Ġoper ate
Qu ant
ĠR ose
omorph ic
pro duction
Ġch unk
m n
iz ers
Ġreg istration
Ġinter act
ĠN AS
U ES
Ġt on
Ġlow est
arr ing
ĠOper ation
Ġhard ware
ĠBuild ing
ut ely
cl s
i ors
ĠD oug
Ġpack et
Ġfl uct
ever al
d am
LIC ENSE
Ġscatter ing
PRO P
Ġcap able
$ $\
Serv let
Sh ader
display Name
Ġen umer
Ġsc ores
ĠOff icer
sl ide
Ġprogram me
ben ch
u h
Ð° ÑĤ
in ject
Ġm ob
Ġin herit
ig gs
Ġnewsp aper
UR N
L icense
Al so
Ġa mazing
Ġvari ant
Ġdepend ent
. âĢĻ
an ches
Ġd iverse
Per iod
S napshot
ĠAnt on
Ġwe ar
) ^{\
Ġy ellow
Col lect
Ġsign als
ĠE ll
P ress
she ll
ang a
text sc
Ġeduc ational
ĠArg ent
Ġreplace ment
Ġoptim ization
Ã¡ n
Ġcomput ation
Ġpredict ed
Ġvir t
H er
Ġim pl
Ġfac ilit
Ġn ob
Fil ms
w as
-------- --
Ġlist ening
is o
ĠM iller
H ave
Ġsum mar
TR AN
Ġpass ion
ĠF ollowing
Ġre str
ic ians
Ġh un
RES ULT
Ġfac ulty
G N
ĠEconom ic
at iv
] ->
Ġsh adow
Ġt ack
h al
ĠO regon
Ġb ought
() ">
ĠL evel
ĠH al
Ġscal es
nob r
ĠG iven
ĠB ru
Ġdef initely
m ount
Ag greg
Ġir on
pm atrix
D M
Ġsomew hat
A ug
ĠN etherlands
ĠS C
ĠN eed
ok ing
ĠBr idge
Re act
ĠW ars
am ount
ĠHand le
ĠM atch
Ġpl ate
ĠD aily
195 6
Fe atures
Ðµ ÑĢ
Ġp ixel
Ġconsum ers
Ġthe ories
Ġh aven
ĠW inter
u ity
d on
ĠAn alysis
w allet
Ġar c
Ġsens itive
>< !--
Ġv ice
Ġacc um
Ġexerc ise
Or iginal
Ġc odes
ĠCont in
S pe
ox y
* ,
Ġb at
ivers ary
Ġdrug s
an im
Ġcheck s
195 8
Ġd elegate
Ġsim ult
V ec
Ġimprov ement
Icon Error
ph y
Ġco ff
Cont in
Ġto kens
re ll
&= &
Ġab andon
19 39
ĠA h
Ġimp lied
D TD
ĠIm mutable
Us es
Ġdec ide
Ġfe els
Ġfile d
Ù ĩ
ĠBel g
S elf
Ġc ards
Ġterr itory
g if
195 9
19 48
ist a
ĠG er
Ġstre ets
ĠF ALSE
ĠL ater
p rom
m iddle
Ġst ages
oc om
sh a
Ġd eleted
1 16
Ġident ical
IconError Encoded
195 2
ĠLog ger
Ġnecess arily
D avid
ĠR oss
Ġb ug
S witch
it is
ĠG allery
Ġins urance
Ġeval uated
Ã ¥
an alysis
Ġdes criptor
ĠRun time
h d
o a
ĠO cean
ain er
ĠBr ad
": "
Ġscient ists
ĠN ick
ĠL ady
IL ITY
Sup er
Ġh ockey
Ġquant ity
Ġass istance
ĠMod ern
Ġ-- ></
ĠCam bridge
ast y
Ġinter ior
Ġpropos al
it als
s ch
RE CT
ane ously
Ġso le
Ġsub scription
bour ne
ĠD ead
MP L
Ġsequ ences
et ies
Ġcor porate
sp ir
Ġh its
ennes see
Ġqual ified
ĠÐ ½
ĠWis consin
Ġliqu id
Person al
sh are
Ġro utes
ĠCl in
ID E
ĠE nc
" ];
Ġk it
Ġuser name
i ac
Ġdoub t
R a
ĠP rize
refer ences
Z ero
Ġch ampion
me an
ĠI mp
B ER
ic ide
im ize
ĠRail way
< >();
d ynamic
st e
con current
ĉ ĠĠ
Ġreject ed
Ġse ats
ĠN ever
Ġ' _
ĠF all
D iff
ãĢ Ĥ
OL D
Ġgood s
qu arters
Ġf i
Ġexp ensive
Ġex posed
Ġcover ing
Ġspe aking
è ¿
Ġf estival
Å ¾
ĠInst agram
com plex
ĠHar ry
Dr ag
j an
F ac
end a
19 42
d anger
Ġconvers ation
ĠFore ign
ari os
b inary
ort heast
ĠA rizona
pr agma
Or gan
Ġad ults
Ġc raft
Ġp apers
99 99
Ġt aught
f older
y cl
F ixed
Ġconcentr ation
Ġnot ation
pect or
cp u
ibr ation
Ġ' "
10 2
Ø ª
SS ION
EN ABLE
i Äĩ
con cat
Pol y
Ġ uri
Ch anges
Ġin hib
10 5
at ibility
Ġrece iver
che stra
[ -
Ġdes cent
195 7
ĠB rian
Ġpurch ased
File Name
il k
Ġprovid ers
Ġabs ence
M utable
Ð ·
B ucket
C ross
Re ason
G IN
aw ay
em ale
TI ES
BA SE
Ġhundred s
ĠK EY
IC ATION
Ġprom otion
writ ten
ĠM oh
pre d
ĠRes ources
ĠD NA
Ġpar a
get Message
ĠMethod s
sd k
i able
j u
Ġstri ke
g overnor
ug ar
Ġh all
Ġso il
m ms
Ġbo ot
Ġcr ash
Ġliter al
Ġs pr
Ġdemonstr ated
do i
ĠAg ency
____ ____
Ġtal ent
Ġun iverse
not ify
Ġseek ing
eli hood
iv als
ĠF A
ad v
Ġapp lying
ure au
l b
am er
ĠMount ain
Ġaccom pl
ial s
Rev iew
o or
II I
Cre ated
= &
al ias
ub ern
Av ailable
M ac
Ġpresent ation
P ut
Ġat trib
Ġincreasing ly
Ġwor st
m ix
Ġcru cial
Ġw ing
Ġlo an
enc oding
(" \
Support ed
Ġdisc overy
Ġint ensity
Ġas pect
IN VALID
Ġscen es
second ary
m ay
ĠD A
urs ive
U CT
A ustral
Ġst im
h ook
S F
jav ax
LE MENT
ĉĉĉĉ Ċ
S ources
ĠSk y
put ed
Ġor ig
Ġc ub
U V
Ġput ting
LO AD
t re
ĠĠĠĠĠĠĠĠĠĠĠĠĠĠĠĠĠĠĠĠĠĠĠĠĠĠĠĠĠĠĠĠ ĠĠĠĠĠ
ĠE P
c ountry
Ġarr ang
Ġb omb
M achine
Ġ# {
Ġte ch
Ġinvest ors
Ġwor se
Ġin structions
$ ~
In struction
od s
Ġour s
ĠOlymp ic
Ġass ist
am ps
D at
ĠApp end
PRO C
ĠT ry
Hash Map
Ġg ained
Ġman ifold
F eed
b ug
ĠW ord
ĠR yan
Ġask ing
h box
Ġca using
ĠS ydney
Di agnostics
Ġcon clude
item pty
d istance
Ġdr iven
per iod
Ġsympt oms
Ġtw enty
Ex tra
om itempty
a ire
sw ing
Ġm atters
ĠWARRAN TIES
ĠTe ch
Ġdevelop ers
Ġqu adr
Ġqu eries
Ġaut hent
Ġmonitor ing
BU FFER
Ġprefer red
M F
or er
ĠS ound
Ġmod er
ĠS ri
fore ach
Mon th
Ġout come
Ġvisit ors
Int roduction
C ulture
t oc
ĠA bb
M ich
N orth
Ġextrem e
h our
Ġm outh
T ele
Serial ization
w iki
ra ction
get Class
14 0
ĠD est
ec lipse
Ġim plicit
google apis
æ ĺ
ĠS ep
ver ify
Com mit
ĠFr ont
Ġdecre ase
Ġne ither
Ġ& #
Name Link
Ġland scape
Ġreason able
Ġm m
qu es
ri ent
ĠK ansas
Cal endar
ogene ous
t ail
C trl
E v
ustr y
d istrict
Ġh orizontal
Ġt um
I ME
Ġass et
ĠPr ivate
Ġhor se
Ġcell padding
is ely
Pack et
Ġcoin c
po i
ord on
ast s
c ers
Ġimp ossible
i ations
m ime
h istory
ir y
Ġc ertificate
v ia
} &
> `
Ġadvert ising
1 12
ic ular
ĠTur k
Ġdis appe
Ġcoll apse
n l
Ġw alls
ock s
Ġb ucket
ĠCap ital
re nt
Ġpl ain
man agement
dat etime
pub lish
Ġmanufact uring
Ġk illing
display style
ĠL ev
g ar
Ch o
ph oton
atur ally
ĠI L
Ġad ap
Ġg overning
19 55
Con tract
m ad
decl are
Ġste el
Ġdisc rim
ĠMe an
ĠK at
od a
cl ine
lin ux
B uf
Ġm ile
ĠD ream
ĠSur vey
ren a
Ġsu it
ĠS quare
F i
Ġterm inal
ĠM ust
19 41
å Ĭ
T X
B M
Ġh ook
Ġman ip
ĠD or
Ġdeb ate
B its
ĠJes us
Ġab use
Ġprodu cing
Table Row
Ġsc ulpt
ab stract
Dis k
G it
Ġwin ners
Ġfr ames
Ġtrad ition
ur st
Control s
ĠL ang
Ġm acro
Ġext ensions
ĠC ab
Ġlog in
l ive
ĠPrem ier
Ġamplit ude
>( <
ĠE s
all enge
Ġag encies
Brit ish
he mat
Ġh a
ul p
Ġpre gn
Ġcoin s
Ġst rip
annot ations
T yp
g raphics
ĠFr ame
rem ark
st ud
ail ing
CRE ATE
ĠP it
ĠJ ordan
' (
iber n
ĠEnter tainment
Ġapp lies
Ġmat ched
se a
ang ers
ĠHe art
Ġop position
n ed
ĠT ro
19 46
Run ning
Ġhousehold s
Ġcon clusion
ĠSm all
ĠC orn
Ġgu ys
com ple
ĠG h
itect ure
v et
ĠL L
~ $\
Ġcharacter istic
coh ol
an ia
Ġsatisf ied
Ġf aces
ich ol
TO M
Ġfl u
pos ing
ch at
work s
ĠM ill
ĠL ind
Ġcomp ens
end point
B reak
ĠU l
ĠRes ults
A MP
! </
Ġcan vas
Ġdanger ous
pl ane
ĠD a
Ġte en
ĠCor ps
Ġw aste
Ġsub scri
Ġsubject s
Ġb id
Ġgo ogle
tim er
Ġadministr ative
W ell
re ement
Ġwill ing
ĠIn valid
RE T
Ġth in
Sec ret
ops is
inter val
ĠDe ep
Ġstream ing
ĠO t
Ġ-- -
Or igin
)$ -
Ġmusic ians
19 43
sp in
ul atory
ĠArg ument
P riority
Ġin fer
Ġne uro
ing ham
ĠT ABLE
W r
add Class
Ġred irect
Ġessential ly
ĠEd ition
SU C
Ġrequire ment
O wner
ĠT er
U A
Ġpack ages
ĠT ax
ĠR ad
BO OL
ĠĠĠĠĠĠĠĠĠĠĠĠĠĠĠĠ ĠĠĠĠĊ
Ġ" ${
up dated
ĠJ ane
HO ME
Ġp ixels
ĠAct ive
Ġtem ple
ĠDe ath
A SS
b ucket
Exec ute
at ile
W I
Ġcomput ing
mem bers
ĠN um
Ġg overnor
map s
Ġgr ade
Ġrep ly
Ġr id
ann y
m ma
)} {\
tim eline
ĠT reat
Ġcomb at
Ġparticip ate
h base
in cess
Ġprov ision
Ġdemonstr ate
Ġout comes
ĠRev olution
Ġsuff ered
P REF
vert ex
Ġcell spacing
c lip
T ax
Ġj et
en ess
N umer
Ġp it
sc ore
)\ \
ĠPh oto
ĠA ws
az ure
V O
Ġcl im
Ġc ached
Ġor th
Ġro y
Ġb es
iev al
}} ^{
R ules
em et
Ġfil ters
Ġdis p
19 47
195 4
ĠTur key
mark s
V ol
Ġcap abilities
av is
d ocker
A pr
per ial
Ġrestrict ions
l ined
Load ing
Ġor bit
at on
ĠB uffer
Ġsymbol s
ĠK a
} )$.
gr pc
Res p
Ġv ast
U K
ĠLew is
Ġ' #
ĠHamilton ian
h bar
Ġa apt
Ġre form
EV ENT
Ġm arg
Ð¾Ð »
ĠT ake
plement ed
B D
Ġtrack ing
× ķ
li a
C ent
ut ter
Ġd t
> ${
reg ular
Ġaccom mod
u is
Ġsent ence
ĠM oon
w m
Ġd ictionary
Ass ociation
Capt ure
fr ag
Ġmag ic
. ',
Ġprom oted
Ġf acing
Ġleg islation
ah oma
y ers
ĠI F
Ġel ig
L ife
C annot
AP P
Ġunderst ood
ĠR oll
Ġnot able
W eek
Ġs elling
iz z
Rece ived
Ġturn ing
Ġpres ents
Ġrough ly
p ref
ĠIt em
ĠK al
Ġcirc uit
em ony
local host
ĠCom ponent
ĠTR UE
id o
Ġpro ud
igen ous
il bert
g ot
ĠGa ussian
Ġread s
ant e
fe atures
] }
ĠH an
ĠH art
Ġsur ve
st an
}} ^
ĠInd ones
re ason
ĠD ir
ĠPl aces
ĠT OP
ĠSen ior
Ġr ating
Ġg ro
Ġd iversity
ul us
om ot
label s
list ener
qu al
== =
Ġ' -
load ed
s z
ex cept
Ġprint f
ĠAtl antic
Ġsc oring
ĠĠĠĠĠĠĠĠĠĠĠĠĠĠĠĠĠĠĠĠĠĠĠĠĠĠĠĠĠĠĠĠ ĠĠĠĠĠĠ
ĠK evin
Ġexpl ains
Ġpil ot
Dec imal
Ġop posed
ĠO k
` )
O h
Ġw elcome
ag an
th ere
igh th
TER N
Ġpredict ions
Ġrepe at
ur is
rt l
M ount
ĠGener ated
Track er
ort s
Ġtri ple
late st
Ġr ide
Ġappear ances
op am
Ġr acing
arg o
ĠDo es
ĠIndian a
i ot
Sh arp
ro ck
Ġb aby
Ġown ership
Ġle af
, .
ip edia
SO URCE
Ġrapid ly
P ush
ĠHol lywood
h ou
195 3
Ġpoint ed
P ixel
C ity
O k
ĠPol ish
ĠB udd
An im
ordin ate
S pecial
s ure
Ġsp oke
ĠAff airs
ĠAnd erson
Ġfootball er
ĠT arget
is ode
F ixture
Ġk w
Q t
Ġres olved
cc cc
enn y
ig e
ang el
ĠC C
ar ance
'] .
RE SS
ĠD oc
Ġn amely
Pr imary
Ġqu iet
i em
ĠO P
ust ed
Ġcour ses
ĠE mer
fl ush
Ġdef initions
Ġin herited
contin ue
L D
ip h
ĠC P
10 4
ident ity
Ġperiod s
ĠQue ens
ĠY es
ri ers
Ġes cap
Ġmain tenance
Ex pect
M r
pro b
ĠMar ia
ĠL iter
s u
c mp
Ġdocument ary
INS ERT
Ġinterpret ation
Ġf ired
ĠV ar
a ux
el lect
r ink
ĠT ennessee
ĠS av
Ġdraw ing
t z
Ġb att
} ))
fr agment
Ġd ense
Ġh al
I ES
ĠMem orial
Ġy es
Ġinfe ction
Text View
ĠDi ego
G ood
ĠCon vert
DE D
Ġle ct
çĶ ¨
Ġmiss ed
j oint
stats models
f lix
Ġass ignment
P al
Ġair port
Ðµ ÑĤ
Ġs ight
ren ce
Ġcontrib uted
s ale
St age
Ġbro ke
ĠN az
ĠIn v
Ġsustain able
HO UT
ugg ing
Ġsc an
Ġproced ures
no frame
Ġinvolv es
R S
AS H
Ġmembers hip
ĠN ull
Ġent ities
Ġadd r
est ure
Ġ* ,
U nd
Ġg iant
In jection
Pe er
fg han
% "><
app oint
ĠAm ong
\| _{
plic ity
cri bed
Ġcal endar
w eg
al gorithm
re p
Ġentertain ment
f ilters
Ġb anks
Ġsam pling
Ġl ob
Ġhel per
ĠN orm
Ġdefe at
_ -
Ġfact s
Ġs oci
Ġmolec ular
ri ends
$ ;
fa iled
ĠRet ri
Ġperman ent
ut down
link ed
ĠDu ke
Ge ometry
Ġis instance
mat ches
c n
ĠSh er
ĠA st
ous el
ĠEx p
Ġbig ger
Ġvict ims
ĠStud y
del ay
I p
LE S
ĠLe on
iv a
Ġprodu ces
Q ual
Ġconver gence
w hat
sl ot
ul um
" ])
Ġint ention
mit ter
ĠO pt
cam el
(' ./
Ġinnov ation
p n
ï ¿
T ri
View Controller
Ġst roke
riter ion
d n
i est
no ise
Ġbr ands
/ )
Pl ot
Ġcon crete
list en
Ġleg acy
N I
ĠCast le
l u
Î »
\ {\
s ass
pay load
Ġex clusive
Ġexpl os
SS AGE
ĠL ank
pr ice
Ġm ath
× Ļ
19 49
ĠSwed en
t m
red irect
Ġrelig ion
Ġprocess ed
Ġemph as
eg as
par allel
in ch
Form atter
Ġcommit ment
Work er
ĠM it
Ġm ine
gu ide
Ġwalk ing
ch anges
Ġrespect ive
l r
t ile
Ġf ib
=" {{
N a
ĠIllegal ArgumentException
re present
/ (
Mod ified
Ġex pr
styles heets
emet ery
Ġfor get
Data Type
az a
Ġre ward
Pol it
ĠF ellow
Ġfl ash
Ġenc oded
Ġ$ ('#
ĠMary land
ĠB urn
S eq
Ġclos ing
ĠG ree
v ard
ĠV ice
Ġch ose
map sto
dec ode
unk nown
Ġp iano
Ġequ ality
ĠT en
y c
ĠT err
Ġf aced
Up dated
at ivity
F ollowing
istribut ed
fl u
Ġbeaut y
G RO
h us
FLA G
the less
_ [
W ho
Ġro ots
Ġa cknowled
Ġil legal
ĠG raph
Ġdecl are
ou st
ĠC ooper
Ġfem ales
jack son
S ide
Ġ< ?
in ction
Ġcl s
ĠC op
Ġre in
Ġanal ys
Ġhost s
x sd
Ġn s
ref resh
Ġher o
ĠDate Time
an try
Int ent
xy gen
sur face
55 5
W rap
ĠM L
T ry
Ġdeb t
Ġcircum stances
ĠMiss ouri
ĠTr ack
Mon itor
' },
F etch
Ġunivers al
Ġw ine
Br idge
Al ert
Ġgr avity
ĠS ix
ĠH ost
be ans
Ġvot ers
r uct
form er
Ġmix ing
M c
ct ors
ur ches
Ġconsist ing
Ġfound ation
C UR
com b
W illi
project s
char acter
inem a
d ers
Ġt uple
per or
med ium
ownt own
ĠPH P
ĠT ony
Ġconsum ption
Ġhy brid
ĠJew s
ĉĉĉĉĉĉĉĉ ĉĉĉ
The orem
Ġembedd ed
Ġpro files
met ic
Ġchalleng ing
ap ps
Ġsub mitted
Ġwhe el
Ġcan onical
ĠB reak
ĠDemocr ats
Ġb on
bl ing
ĠOther wise
Ġd ress
Ġ( #
wit zer
ut ies
th umb
the w
195 1
ĠD og
9 00
ĠH ouston
19 00
om er
Ġdis miss
ĠW el
Ġpain ting
Un ique
Ġin clusion
ĠE RR
Ġcompos er
Enumer able
process or
Ġs ought
trans late
n ie
ĠMod ule
Ġbelong s
ĠP a
Ġconsequ ence
Ġrest ore
æ Ĺ
Ġf ault
P ane
ĠP ed
Ġin verse
Ġrank ed
var s
Ġris ks
Ġbo at
Ġvot ing
Ġcoeff icient
ĠO K
ig ator
Ġhon est
B ACK
Ġs i
ĠCov id
OT TOM
Ġhealth care
all as
uff ix
ĠS ymbol
ĠHot el
Ġmunicip al
Key word
Vis ual
Ġamount s
o i
Ġs event
Ġbo ys
ĠMA X
ADD ING
Ġc p
ĠM obile
ce ived
Ġ======= =
Ġe c
Oper and
pro fit
Ġman agers
Ġsy nd
Ch art
ag u
ĠL I
ch arge
50 9
b est
ĠS u
Ġcompre hensive
Ġst ead
Ġpop ulations
Ġinstall ation
Ġbe ar
ain ian
Ġsurg ery
Ġro of
b undle
Test ing
b one
Ġtr im
pag ination
ĠS ize
Mod ifier
ĠOC aml
el led
Set up
erial ize
Ġst ood
ĠE ffect
Ġexhib ition
olv es
oid s
| }
') ->
Ġr anges
1 18
text ure
Ġinj ured
Ġdi pl
or ne
er as
en o
Ġen emy
Ġse es
ta h
B usiness
E p
Ġredu cing
witzer land
ĠF ound
Ġjoin ing
S an
ĠIm port
Ġrev olution
Ġ" _
Ġgener ating
pro position
5 12
ĠMar c
ĠÐ ¸
S peed
ĠC S
et r
Ġs av
Ġo x
Ġ" ;
Ġdefault s
] </
ic he
pi pe
av icon
Î ·
ĠA gr
ĠEx press
Wh ite
ĠÃ ł
hem atics
Ġorient ation
ĠM IT
Ġen vironments
ĠC HE
Ġcount s
Ġeng aged
e ah
N P
V P
exec ution
Ġfor th
Ġseg ments
aw are
Ġsit uations
Ġb ott
ĠP ier
est ab
Ġ' ,
Ġinter mediate
ĠPl atform
ĠP DF
a que
Ġparticip ated
N ECT
col n
west ern
Ġup coming
lo pe
ĠK han
ic ates
sche mas
neg ative
Ġloss es
AR B
As sembly
v i
10 7
us age
Ġequ als
SP ACE
(" .
Ġappe al
C LA
ĠP layer
ĠSil ver
40 4
Ġadj acent
æ Ī
ĠD im
ĠM icro
Det ector
19 18
Ġregard less
ĠMan chester
Del ay
Ġcons ervation
Ġheav ily
ĠO ptions
Ġacc used
ĠSim on
Ġfall s
Re pe
m aking
it ro
md c
includ es
Ġw rapper
Ġ\ &
Pr ice
âĢĻ ,
Ġqu ark
Ġtalk s
Ġk il
ĠSt and
ĠD atabase
ST ART
F ix
pt ic
Ġgrow n
Ġgraph s
CR IPT
Access or
ĠInd eed
ĠB asic
ter y
ĠI owa
ĠFin ancial
Ġex ponential
Ġjournal ist
Ġtra ject
f red
ï¿ ½
aw esome
Sh are
um in
ext ensions
G P
ĠF a
ubern etes
ĠCl ark
19 36
000 1
cer ning
Th rough
seg ment
Ġre aching
Ġgrad uated
dis patch
mult ip
Ġdis patch
t ik
AC ING
fr ames
Ġtri es
Ġan notation
ĠA thlet
Ġs ender
ĠA mb
Ġp ictures
du cer
Model s
ĠK y
Ġ å
Ġag ed
b urn
ĠJ am
Th erefore
Ġs weet
Ġmed icine
Match er
iv idual
ĠWh it
as hes
Ġreg ulations
un ing
r ig
Ġm ac
ĠSt op
Has Been
c ity
f w
Ġcol lections
get Attribute
Ali as
Ġemploy ment
__ .
Ġattempt ed
ĠH op
D istance
tr ain
Ġemotion al
ĠI gn
elastic search
vent ions
osc ow
Ġhead s
ĠM aterial
ĠReg ional
Ġacc ord
Ġthought s
Ġ[ \
row se
ĠPhilipp ines
ĠR ender
db c
Ġcompet itive
h ill
ĠS P
ĠMal ays
Ġmaintain ed
Ġen ables
ur se
Ġdoll ars
Ġs essions
d elegate
ibern ate
ĠLear ning
ĠT og
* \
Compar ison
W ords
Ġatmosp here
Ġ// !
Ġg it
Ġconsec utive
G iven
ĠS pr
iz ard
tern oon
Met ric
Ġtrad ing
def er
Des ign
Ġpay ments
ĠE ver
ĠSc ient
Ï Ĥ
int s
ĠPat rick
et al
Ġend if
C irc
Ġdis order
I ss
ĠV i
ME M
è ®
st ub
w ho
ĠM ilitary
ĠTh ose
ant ed
ab ama
Ġr ising
Ġst ake
ĠJ ay
O FF
Menu Item
N eed
Ġinf lation
ur ers
ĠP rom
Ġnot ification
L ive
ĠTr aining
Ġreli able
ĠUs ed
Ġb are
et c
er d
ĠB ab
D ITION
=- =-
Ġm ales
Ġposs ess
w ick
ĠHarr is
ĠTr ade
st eps
sub string
R ich
Ġelect ro
ĠG ab
Ġaut hentication
le ton
ĠL abel
ĠL ock
ĠIN TO
olog ists
ĠCap tain
Ġf oo
cal cul
" ?>
av al
id al
D ict
D ig
Ġ ĉ
Ġsw im
me asure
t v
Sup press
Ġexcit ing
Ġincor rect
Ġdis crete
Ġdescri bing
run ning
> {
ar o
L com
ef e
pre pare
r as
p al
Oper ations
RA M
D er
Ġc rypt
alle st
Ġt icket
ĠD ictionary
pop up
ĠHash Map
LA B
ĠR oy
ĠSt one
script s
Ġdire ctions
cond itions
pro c
Ġappro val
âĢĻ .
Ġd iver
19 2
ov en
Ġn an
ĠPal est
ĠAll en
Struct ure
L R
ĠĠ čĊ
Ġfr anch
`` ``
ss on
Ġe g
set Text
E ven
attr s
ĠB ORDER
ĠJ oh
Ġsign ing
Ġcol le
T ip
Ġs yntax
Ġrestrict ed
] ['
sub Nav
p ixel
ĠM un
ĠB ureau
Bit map
et ition
Ġtim er
ĠR elease
as ma
19 38
P ipeline
f actor
ĠD ue
M al
e ast
Ġtr ivial
Ġb rown
Ġflow s
on i
s ent
Ġveg et
, ...
Ġstrong er
ub b
M IT
ĠMem bers
Ġinv ited
redu ce
ĠG it
Ġh am
ĠMi ami
S PE
IN IT
Ġput s
n old
Ġregular ly
ĠArt icle
Ġo cean
At trib
ĠCons ider
Ġtit led
st ock
re tt
ĠC ache
ĠE ag
ĠR ound
SUC CESS
HasBeen Set
ĠMem ory
L em
Ġfunction ality
Ġcontin uing
ĠP ur
f m
Ġrepresent ations
ĠPr ivacy
roll ers
he el
Ġmunicip ality
set ting
allow ed
d td
des cribe
ĠT a
Ġmer ged
> ../
Ġnov els
Ġref resh
Ġreal ized
L at
k h
Ġbound aries
ĠH u
Ġtown s
Ġcon form
um ul
m g
Ġstrateg ic
ĠD CHECK
Sche me
ct ree
uth er
ro it
Dest roy
Jan uary
With out
f ish
lo be
Ġmill ions
H ello
Ġre vers
D one
__ ,
ens ing
S B
ĠG ard
Ġdom inant
not ification
ĠB an
ropol itan
ĠS n
en ix
Ġl ots
ub er
ok er
H y
Ġ ur
Ġbl ank
ĠS elf
T og
10 3
Gr ad
Ġcheck ing
Ġt ip
pe ction
ge ometry
Ġb os
pack ages
Ġdise ases
ĠA z
Ġbas eline
Ġw rest
plic a
Re place
$ ),
19 37
Ġt elling
g p
c v
Trans fer
Ġt ough
; %
Ġoff ices
Ġun expected
11 5
Ġdistrict s
Path s
Ġrele ases
Ġdisc ipl
ĠNS String
Ġs ensor
WA RE
G reen
ĠM as
fl uid
Ġre ar
ad apter
ĠM and
Ġd ies
Ġpick ed
Ġd x
ĠÐ º
ĠD ebug
Ġiter ation
Ġcomput ational
Ġut ility
AR RAY
ymmet ry
cos ystem
}$ )
Ġdesign s
Ġslow ly
od ge
ĠC ook
Ġcomp ilation
Sc ore
add ed
Ġenc ode
ĠP red
ri k
serv let
F M
Ġs oul
andid ate
Ġconvention al
Ġmechan isms
ĠR ab
ĠE N
es cape
Pop up
Ġsort ed
TableRow Color
Ġpan els
ol i
ĠN ation
Ġd ele
ĠB ry
el son
ĠT oken
Ġro oms
met rics
ĠL ib
Ġnorm ally
F actor
Ġpresident ial
ĠL eb
Ġcoff ee
te am
* >(
Ä ĥ
Ġsub sid
ĠEar ly
-------------------------------- ----------------
Ã¼ r
Separ ator
w ich
ĠTh ird
Ġ' @
clud ing
c ost
ow ski
/** */
Ġcom plicated
ĠK it
AT URE
M ust
Ġcent ers
ĠCon stitution
ik es
Ġre named
Ġengine er
max cdn
al gebra
Ġpl enty
gress ive
ĠP od
L ines
rop ic
$ {\
F eb
Ġa ims
Ġmin ing
L i
3 50
Ġsurpr ise
Ġun us
14 4
Ġmark er
ĠTem ple
pe g
m ont
m aker
Ġs lice
Ġto ler
se cret
################ ################
ol y
ĠS ingle
ĠG irl
V C
Ġretr ieve
Ġprec isely
Ġprincip les
W omen
Me an
Ġv ocal
us cript
Ġcos m
P ending
f ac
or ry
ex act
ec ess
separ ator
Ġ. =
iss ip
Tem p
ache lor
Ġp up
on na
C ertificate
tool bar
ĠAnth ony
) +\
Mer ge
ĠAdd itionally
10 6
B lob
Ġsatisf ying
str ument
S UB
Ġ Ø§
X Y
er os
pre view
Ġb irds
ins ic
end ment
ĠWIT HOUT
ĠViet nam
Tr igger
L ite
Ġant icip
Ġcomple ment
ĠL as
CO UNT
path s
RO OT
Read y
Us ed
M arch
Ġ" [
Ġ" )
value Of
Ġw ed
Ġass ault
Ġcarry ing
19 19
Ġal ive
w alk
os er
ĠStud ent
ĠSwed ish
ard o
Ġtri als
ĠP AR
ĠR ange
Ġup grade
ĠPhil ip
ĠH ave
Ġcred entials
IT LE
Ġt urb
Ġd atasets
p ending
Ġem issions
c x
Com ponents
Ġident ification
Trans lation
ĠTh er
F ire
ĠCon stant
Ad v
Sub scription
Ġabsol utely
ĠS ession
w ind
par agraph
th ree
ong s
Ġcy cl
//////////////////////////////// ////////////////////////////////
ump y
Ġconstit ution
el ve
Ġto x
N ONE
Ġval uable
depend encies
ĠVer ify
}{ (
W ORK
Y S
ĠS yntax
M o
c od
Ġsit ting
Te am
om as
Ext ended
mut ex
Â ®
se ed
Ġnarr ative
Ġg arden
ĠInitial ize
D im
Ġfore cast
Rel ated
ĠB alt
I l
Ñ Ĩ
ĠN ev
aw t
ĠB us
! =
Ġsph er
N eg
IE W
a ui
g lob
> [
ear ing
) }_{
lik ely
Ġla id
ol ly
O G
OPT ION
en vironment
Ġref used
c ookie
0000 0000
m ys
... )
st ory
Ġhol iday
i op
P rom
ip age
Back up
( `
Ġtrend s
10 8
ous es
] ).
ĠV in
ut enant
T ensor
Ġderiv ative
at able
l ad
C ould
p od
Scal ar
b ow
Ġlaw yer
Ġdes ire
Ġgr avit
Ph il
roll ing
ĠIm Gui
Ġdepend ency
kl ahoma
Ġf erm
ĠA fghan
ia h
hed ral
ĠDef ense
ĠEx per
\ ;
! (
N ON
Ġassum ptions
Ġold est
Ġfru it
ĠString Builder
c ourse
Ġpul led
arg v
b t
Ġd uty
Ġcommun ications
Ġconfig ured
ĉĉĉĉĉĉ Ċ
w i
Ex it
cript ors
ĠInd ust
Ġenjoy ed
T M
j or
Ġop ens
ĠYear s
ĠA udio
ĠAr k
S UP
hemat ical
p aces
N d
Ġb ars
des criptor
cl ock
sp i
ĠMult i
iv o
Ġvot ed
draw able
,\ ,\
C amera
Ġf urn
Ġweek ly
up per
LIN K
Ġstreng then
st ers
ick ing
Ġguid ance
L ear
met ric
Ġent ropy
Ass et
Ġgrad uate
ver ted
v y
Al pha
IL L
} }$.
Ġt ank
G a
Ġd yn
ĠP UBLIC
ĠParam eters
ent ries
ot ions
Ġm g
Ġreve al
Ġpar liament
sc an
Ġfriend ly
Ġdesign ated
Ġhypot hesis
Ġconnect ing
man ifest
Ã ª
ĠC ow
ĠH old
Ġpod cast
A ir
Ġ" #
Ġ" );
int end
ĠDo ctor
the ad
Ġhand led
GB T
ĠT ab
Ġcharacter ized
ĠSum mary
Ġdecl aration
M ix
Ġrem oves
Ġcompet ed
in th
Ġoutput s
H AND
Ġnormal ized
ĠO ak
qu o
ĠAr thur
A zure
}{ |
OR S
ĠHol y
: %
E urope
periment al
ĠHigh way
T imes
Ġmach ines
ĠPl ant
11 4
look up
A W
he alth
}( {\
ĠPr act
æķ °
Ġwhen ever
over ty
MS G
Ġent itled
Ġequ ilibrium
ĠEnt ity
Ġsens itivity
="@ +
Ġinnov ative
Ã ł
Ĩ Ĵ
U UID
l on
c urrency
is ations
Ġpost er
Ġp ip
ĠĠĠĠĠĠĠĠĠĠĠĠĠĠĠĠĠĠĠĠĠĠĠĠĠĠĠĠĠĠĠĠ ĠĠĠĠĠĠĠĠ
RE NT
Ġ} ).
ĠN othing
> .</
Ġreve als
ĠÐ ´
ar ith
Ġbro thers
Ġkind s
pro f
Lower Case
ĠB ishop
ĠCHE CK
OB JECT
Ġn aturally
ĠY outh
Ġtot ally
Ġneut ral
ĠM rs
ĠB log
EX PORT
aa aa
Ġt f
Ġinj uries
ĠCon sole
Rep ly
Ġnot ion
Ġl ibraries
ir i
ĠB arn
min ipage
Ġarg ued
Ġgr ass
initial ize
omet imes
FA IL
Pub lish
ab ling
Un iform
ĠF ederation
Ġconfig urations
Ġdiscuss ions
S n
Con tain
Ġlum inos
Sc ene
Ã Ĥ
ĠMo ore
if ting
i ary
c ached
Ġbrief ly
Ġsurpr ising
W ARN
alax y
Ġan imated
} }$,
Ġsepar ation
Î ¼
="../ _
Ġsat ellite
File Path
' +
ĠIm m
Ġkn ock
ĠS ave
h ist
Ġs ink
R adius
Ġst ub
Ġman ual
H ook
ĠGr id
ĠLic ensed
sl ider
ĠW HERE
Sub ject
Ġf asc
Ñ ħ
ĠN atural
g ate
- ">
Ġm s
Ġapparent ly
Ġth ir
: &
) *
ĠW as
ĠCom par
sample s
Lin q
F ill
task s
Ġcap tain
ĠSar ah
ĠCont act
Ġvac uum
Ġcor onavirus
Ġcomp ile
19 17
Ġres cue
ab ul
Ġde ployment
LP ADDING
Ġcook ie
Ġsufficient ly
ic ut
Ġpl astic
ĠL ay
REQ UEST
10 9
ĠK IND
Ġne ural
ĠHaw ai
W H
b ors
ĠD al
Ġm igration
B u
Ġord inary
Ġb acter
ĠC zech
ĠKent ucky
hel lo
un ning
li est
to Equal
ĠĠĠĠĠĠĠĠĠĠĠĠĠĠĠĠĠĠĠĠĠĠĠĠĠĠĠĠĠĠĠĠ ĠĠĠĠĠĠĠĠĠĠĠĠĠĠĠĠĠĠĠ
ĠF arm
ĠS in
fin ite
con g
Ġph arm
ec onds
ME SSAGE
M AN
t age
â Ķ
el and
z ing
ref lect
Ġwe aring
Ġany where
ĠPro perties
ĠCon nection
I FI
Ġbre ath
iss on
Ġmark s
Ġpro sec
Ġbeh alf
h alf
ĠCEL LPADDING
act iv
Ġclos ure
ĠJava Script
ĠCEL LSP
Ġclass ified
ĠCELLSP ACING
ÃŃ a
weg ian
ĠT YPE
Can vas
Sec onds
Ġt y
Ġfe es
ĠP as
En tries
12 4
ĠK elly
ik h
Ġor b
Ġcorre ction
Ġb io
Ġshe l
prec ision
. ")
Ġrot ate
br anch
Ġenter ing
nov ation
Ġconsequ ences
24 0
Ġlook up
oc y
Ġk in
Ġto m
Ġquant ities
ĠM oscow
TH E
Ġinform ed
aud i
ĠJ osh
ens ities
n an
==== =
Ġbeliev es
Ġpartial ly
ĠP ho
over flow
ĠB h
O cc
Ġwat ers
Ġreli ef
Ġthread s
ĠTai wan
c odec
K ernel
19 35
) -\
m icrosoft
ĠId ent
s is
ne ed
Ġprot otype
ur ric
Ġfew er
Ġt s
sl ash
} )$,
ĠG ib
dis k
r v
M en
Ġs napshot
Ġinvestig ated
k ar
ĠEx pression
ĠF ilter
out ube
ĠCh ap
Ġvict im
m ust
Ġtr ains
Ġisol ated
ĠE vents
Ġvis ibility
ĠAust in
ĠE uro
Ġ ^{
dr ag
osp itals
T l
Ġb ag
SD K
Ġr hs
op acity
CD ATA
att ach
Ġf lying
ur ities
ĠMay be
Mark er
Own Property
Ġfall ing
ec ycle
ex tract
Ġnot ify
Ġke eps
ĠInd ustry
Ġre start
Ġ" +
S ig
ĠSm art
Ġmeet ings
Ġcon cluded
amb ig
Ġ âĢĻ
qu ality
Ġdef orm
Ġstruct ural
ĠHow ard
D ry
å Ń
C am
Ġc c
ib ling
Ġvari ations
ĠPart ners
lo yd
Ġcontr ad
shall er
() [
he x
Ġimprov ements
J une
T oday
__ ["
S rc
19 33
Ġstudy ing
Ġeng ines
p ipeline
B T
Ġshe et
ĠSer b
cy cle
ĠHel p
ĠBit coin
cs v
Ġcut s
book s
ĠMex ican
C lean
L ow
C V
Ġadap ted
ĠC ancer
Sc an
w en
P adding
ĠB ush
il st
Ġro se
ĠD raw
ellect ual
ĠLa ure
ĠM E
v art
Sa fe
Ġconsider ation
Ġgu ests
Ġencour age
An notations
Apr il
Ġj un
ens ors
Ġprofession als
C ost
Rel ative
Ġn urs
ĠR ey
FORM AT
ĠW y
Status Code
}} )
ĠPr ice
c py
Ġ$ |\
o j
Ġcouple d
: }
Ġsucceed ed
]( #
vis it
H D
Ġcer emony
B ecause
ĠP si
Comple tion
sub scribe
ĠD ave
F rench
Ġconcept s
ĠL E
ipp et
ĠF O
Ġoper ational
ĉĉ Ġ
Ġaware ness
ard ing
ĠH ans
et o
Ġassum ing
is ons
tr ansp
Ġto wer
ĠLim ited
P aul
ĠSt ill
w ave
Ġl aser
qu estion
Ġbur ied
ĠS port
ĠCon struct
s ocial
. [
ĠMot or
ĠIm ages
Dest ination
ester day
Ġener gies
ĠSt orage
ra h
ĠCol on
ĠAl abama
Ġthe atre
dem o
:: $
ĠS witzerland
Ġtroub le
inst ein
Ġn ested
Ġev il
ĠAd vent
AR CH
Ġaf ternoon
CH AN
ta x
Set s
be at
Ġdec line
Ġw er
Ġs ad
Class Name
App ly
M ail
Ġconstit u
Ġrece ives
S chool
ĠPack age
Ġview ed
Ġat omic
\ )
ĠRem arks
S ent
ĠPe ak
ĠSt udio
Ġph ases
ĠAuthor ity
ĠLin coln
St d
ĠH um
Ġ} ),
ĠL oc
ĠSaf ety
ch unk
ele ss
}^ *
In ject
Tool s
os l
ĠF ixed
Ġredu ces
to ctree
uss ia
ĠG arden
Constr aints
ĠPer formance
Ġal cohol
Valid ate
ac ht
L ead
? (
Ġre ly
Ġrestr iction
ĠR ap
ather ine
N or
ĠA V
stream ing
az el
Ġappe aring
Ġrun ner
ĠMod al
Ġart ifact
Ġconfig ure
apt ers
parent Node
IN DEX
sequ ently
it ure
ĠNiger ia
Ġsimult aneously
respons ive
T or
z i
Ġtransport ation
Ġb le
ĠAt tribute
Ġours elves
Ġen forcement
Ġl l
ĠHer itage
Top ic
vel ope
ol k
m ov
Ġb ath
ĠR ot
ĠF le
Ġindepend ence
om es
ĠJun ior
Ġprov en
Ġant ib
we ak
L ang
SER VER
Ġpoet ry
é Ģ
Ġs le
Ġre produ
Ġest imation
ĠC L
Vis itor
con duct
s ources
ĠD un
Ð¸ ÑĤ
Ass ign
â ĸ
Ġprec ise
'] ))
D an
ol ute
Ġat om
AR GET
ĠP erm
Ġprem ier
Ġchair man
Ġro uter
if ference
100 00
Ġin h
uk i
Ġder ive
f aster
inc ial
ĠB ody
w ire
Ġmin i
raz y
â ĪĴ
nos cript
at ers
Ġexpect ations
Ġrad ial
: =
h w
u its
MA SK
Ġocc as
avel ength
ĠKe ep
Up per
Ġharm ony
Check ed
ĠVAL UES
Ġimprov ing
G erman
Ġbreak s
c ord
MA GE
dir name
append Child
19 14
ĠMar ine
ex clude
Ġs cre
ibli ography
Ġconven ient
M ajor
Ġf abric
ru ction
un iform
Ġautom atic
ig ious
Ġbr on
ĠB ased
b n
rom ag
Ġp a
erv ing
inn ed
Ġsurv ival
Ġent reprene
part ition
ĠB or
) &
ĠTok yo
Ġt ied
p k
19 29
ĠM ess
Ġrecogn ize
ĠD id
u cl
5 000
J apan
Ar r
ĠB eng
Equal To
Ï ħ
to kens
ations hip
Ġbr anches
Ġcons ervative
Ġdom inated
ii i
PAR AM
Ġre act
Ġcom ic
Ġman aging
Al t
ĠP L
igr ants
G M
Ġpro hib
qu est
d ataset
Ġme ets
Ġto String
ĠB ah
ĠM achine
tik z
ĠNor way
Ġshort ly
() ]
c op
An aly
Ġfra ud
urn ame
Ġpen alty
Å Ł
Ġtransl ated
ĠSe attle
Ġvisit ing
Ġconv ex
Ġhappen ing
Ġacqu isition
Ġroad s
Ġg ate
Ġt ile
Ġdesign er
ĠB ron
re ts
}\ ,\
d ating
Ġassoci ate
$ :
ĠGree ce
Ġd ial
Data Source
! \
Th ree
Ġad mitted
Ġb reed
Ġcomp iled
Ġbl ow
Ġsett led
p d
19 34
ĠEx change
Pay ment
ĠM C
ĠH E
Ġeng agement
inal s
Ġill ness
Ġinstr uments
Ġdr um
Ġwonder ful
ĠIslam ic
vers ions
LO B
ĠWork s
Function s
ĠIsrael i
Ġl ake
Ġregard ed
g h
ĠVill age
Ġdi agonal
ĠOrgan ization
AUT H
ĠL ess
issip pi
ant ly
Ġle mma
Ġw el
Ġsix th
C SS
Ġsk ill
Ġpro s
P ref
WR ITE
prov ed
Warn ings
app ings
uck s
n ail
Ġgovern ments
reg istry
Ġiniti ative
Ġcompet e
ge br
Ġguarant ee
Ġdog s
H ar
ĠLin ux
g iven
SD L
sp ot
P ad
Ch unk
Ġexception s
ĠB OTTOM
Ġ æ
child node
ĠAn ne
Ġlocal e
ĠUn less
re ach
Ġc urrency
ĠBow l
^* $
yn opsis
ĠV olume
ors es
ĠN ik
sect s
N ested
am an
) }}
Ġgr ab
19 10
Ġimpress ive
Ð¾ ÑĢ
Ġst retch
Aug ust
ĠMel bourne
Pro c
y ll
Ġmag net
Ġdeal ing
Ġvol umes
p ic
---- -
t ol
ol ars
stat ement
ĠR ule
ĠUS B
ĠG O
Ġrob ot
J ames
Ġansw ers
$ _{
Ġperson ality
end ers
Ġpark ing
Ġh oles
leg es
Ġ/ ><
, {\
Red uce
av ers
ĠP S
Ġbe ach
Ġchild hood
un ion
Sm all
Ġoccup ied
Ġrepl acing
ĠN ichol
Ġparticip ation
. :
ams ung
Pay load
agr ang
Ġp ump
ĠC lose
ĠAtl anta
Ġp tr
ol ate
Ġoff ensive
Ġarr ival
Pro of
com ments
Ġgen etic
row th
Ġstrugg le
Ġf ro
âĢ ĭ
l arg
gener ic
; ,
ĠB AS
T om
EN CE
Ġr um
m ud
Ġout line
Ã© t
Block s
Ġcorre ctions
int o
Ġpy thon
Ġs ick
ĠD ur
Des cribe
ĠT itle
on line
br ane
ĠW H
Ġsur faces
ĠCON FIG
un ks
// !
uet ooth
ĠH ad
Ġarray s
help ers
t uple
am ar
ĠD ak
ĠL eft
ĠN ob
Str ip
Ġim aging
ãģ ®
Cred entials
ĠD ick
"> &#
Ġart ificial
Ġhor ror
Ġc up
ĠCom ment
Ġsh arp
min ute
Ġhas n
Ġp ushed
Ġd ump
Ġdef ensive
Ġneigh bour
Ġphil osophy
Ġcoll ision
ab ad
pack et
ene z
und ers
Al gorithm
11 7
Ġfair ly
C he
ĠC ell
ĠÐ ¾
it udes
Ġover view
ĠGr ad
Load ed
Ġden oted
C amp
at ype
im ore
? )
T K
ir ical
Ġpres erve
ĠJ ason
ĠEnvironment al
C ountry
ĠC ape
ERT Y
Ġch at
Ø ³
Ġcy ber
Ġsup ers
and al
)) $
Ġg ift
Ġaccomp an
on ed
ĠLeg isl
ĠI C
Ġ" ./
std err
Ġr c
Ġequ ipped
Ġco aches
ĠPro tection
Ġback up
hash Code
trans l
Comp are
ĠH AL
ĠAnn ual
Bl ue
g ent
ĠTh ough
f v
b oth
Ġn ick
Ġag es
Ġ( `
Ġattr s
ĠJ os
n it
B ul
Ġsystem atic
s ame
ĠT alk
ĠTr avel
first row
Ġwr apped
Ġdep ict
T wig
back s
Ġcon cerning
Ġscen arios
Mich ael
ĠSing h
A ff
Ġpro pose
Ġover r
c as
f avicon
Ġg lyph
ĠCh apter
Ġguid elines
aver se
Sl ot
id el
Ġres id
Ġ// -->
Ġpublic ations
ĠT EST
Cons ider
Ġg uns
enc er
@ {
Array s
Ġserv ers
sign al
ĠPol y
ĠS oc
to LowerCase
f our
Ġrem oving
Ġvary ing
v n
ĠL P
Ġret irement
Ex tract
window s
ĠStud ents
" |
non atomic
Ġarch ive
ex pl
default s
M us
less sim
ĠS uccess
dim en
Ġing red
Ġcross ing
Ġanaly ze
Ġpass engers
ro oms
ĠF ive
ĠR andom
Ġmechan ical
ne ut
ĠMay or
AB ILITY
le tt
ĠN ic
Conf irm
ĠH ills
D ist
19 32
com par
13 5
] ),
Ġpay ing
ate ur
For ce
Stack Trace
ke e
ĠS witch
A Y
Ġh ack
// ----------------------------------------------------------------
------------ -
Ġsignific ance
Ġcollect ive
ĠDr ive
19 28
/ #
R atio
et he
ĠD I
ĠS cript
ĠAl liance
post s
m akers
im edia
Ġdet ector
ĠForm at
Ġfin ance
Ġse ar
Sur face
Ġsub group
> /
St ation
ĠPl us
ĠH it
ch rome
Ġcent uries
Ġres erve
ĠAl bert
HO ST
Ġdecom position
Are Equal
Oct ober
is ot
Ġun lock
Ġ ì
form ing
Ġpublic ly
ig o
ud son
Ġb lo
Ġav ailability
Java Script
big l
Ġprof it
k ov
ĠWeb site
Ġb ot
Ref resh
Ġkw args
Z oom
ater al
........ ........
ol ph
PREF IX
ĠL LC
ID ENT
R IGHT
tr ivial
Ġprint ed
ĠD ise
her ic
Cal led
ues e
Ġpar ish
+ (
E LEMENT
ĠFe ature
om al
ret val
] =
Ġd il
ĠE ss
Ġde als
Ġcrit ics
an ion
Ġ( ;
ĠMed al
ĠN eg
Ġs alt
te ch
sub scription
Ġphot on
oc a
Ġa str
Ġdef ect
? </
ĠAd vis
N Y
ĠEconom ics
Ġenh anced
Ġflo ating
å ľ
Ġh align
Ġdef ining
sw er
Ġaim ed
render er
ts burgh
V A
z oom
or ce
ĠY et
Ġrac ial
Ġn ations
ber ry
ĠCre ated
Ġe cosystem
set Attribute
Ġad s
Ġrem oval
a ac
Ġatt orney
ey ond
Ġw arr
Ġw ond
Ġs ons
Ġattack ed
ri ble
Ġl ux
ĠPh ys
} "/>
comm un
Ġlif etime
Ġhelp ful
ĠWalk er
A lex
ĠN ature
E ast
Ġo vers
Ġlic ensed
Ġinflu enced
J uly
C ookie
An chor
Ġ. /
19 22
Ġpublish ing
19 24
Ġmonth ly
R B
U TE
Ġeng age
Ġelig ible
' =>
ĠH D
R outer
r and
ĠM unicip
| _{
Ġreal ize
ifi able
ĠL ore
STR UCT
i ology
Ġentr ance
F D
om y
SH A
Rece ive
Sim ilar
MA KE
pt o
ĠLink ed
Ġdom ains
Ġd eleg
ĠReg iment
size of
Ġr ival
ĠGu id
â Ħ
be ing
M obile
or se
Ġbus y
Ġh at
Ġf inger
NG TH
Ġthous and
m f
road cast
ĠLank a
ĠD allas
ĠRepublic ans
R eq
t one
per cent
row Color
Po jo
l ings
ĠR ace
ge on
in formation
order ed
Ġt ang
ĠA uth
ĠF ast
re view
big r
ĠO klahoma
Ġsp ark
` :
Ġout standing
FUN CTION
ro tt
ĉĉ čĊ
Ġan th
ist ol
ĠRequ ired
Ġv ec
Ġstart up
Ġcut ting
Ġfarm ers
Ġlocal ized
s ender
le ading
ĠInst all
Ġi Phone
ĠB os
Ġ ../
ĠG C
ĠBr ig
ĠU r
ĠUkr ainian
or ous
bar a
De cember
og a
F oo
ancell ationToken
Ġpriv ile
Mod al
b id
ĠR O
ĠU SE
** *
her ent
ch arg
U ntil
XX XX
bo y
Ġpro be
G uid
ĠS quad
Ġorgan ic
se p
Ġ[ #
Reg istration
det erm
op ens
Ġtarget ed
ol o
ph ab
f uture
ind ices
> $
s am
serial ize
ĠP aper
ĠD IS
Ġpr on
R adio
FT WARE
ep age
Ġemer ging
te le
ĠCh rome
v ature
ĠPh illi
Ġgen re
Ġactiv ation
Ġextract ed
Ġst y
Vis ibility
Ġl in
ou p
im plementation
ĠTurk ish
ĠS ud
Ġestablish ment
( []
ĠSt ew
af ka
ĠLab our
2 20
Ġs ke
Ġwebs ites
ĠF M
Ġ# #
ĠWork ing
ĠM atrix
ãĥ ¼
id ad
ail and
b usiness
Ġsu ite
block s
we alth
Ġt iny
Ġalloc ated
Ġvari ance
Ġf ixture
TH ER
G raphics
IR T
Ġdirect ors
Ġly rics
B oth
---- ---
ash i
ĠFre der
tri angle
Ġdis appoint
ĠPro file
F RAME
Ġrout ine
t iny
member NameLink
Mult iple
Ġdo se
tra its
utor ial
ĠP sych
3 000
p us
second s
H ard
Ġdat etime
ĠP ap
ou ver
ĠU P
Ġthem es
Ġhead quarters
car lasg
carlasg uns
Ret ry
ĠG ordon
om ing
Ġ{ $
ĠĠĠĠĠ Ċ
ious ly
ĠFin ance
J s
ĠV egas
N OS
ĠĠĠĠĠĠĠĠĠĠĠĠĠĠĠĠĠĠĠĠĠĠĠĠĠĠĠĠĠĠĠĠ ĠĠĠĠĠĠĠĠĠ
ĠDel hi
et ric
ĠM eg
ĠK am
ĠB egin
ick en
Ġel li
S eg
Fore ign
Ġfranch ise
Ġlog ical
ĠD ist
Ġliter ary
Stat istics
s With
am ond
vis ibility
d ensity
Ġwat ched
Ġob server
vari ables
Al ignment
Ġf ought
p riority
ĠCred it
with out
ĠS cal
ĉ ĠĠĠĠĠĠĠĠĠĠĠ
il ty
×ķ ×
ĠW ait
ĠTh ank
Ġcons ent
Ġarr ive
Ġsup pose
sc opic
Event Args
faster xml
Ġp rize
è ¡
Ġwith draw
Ġann iversary
ĠM ission
pos er
ĠT otal
Ġenc ryption
Gener ate
Back end
Ġexhib it
I ll
<? >
Ġp ione
Ġembedd ing
Ġalign ment
dest ination
ex isting
Ġvill ages
ĠC ole
Ġ(! (
vent ory
ush ing
Ġ"- //
gebr as
z ym
De ep
p oll
Ġch arts
Ġlisten ers
ĠPe ace
Ġdiam eter
ĠAl bum
ĠMov ie
D ao
hy thm
Ġfle et
ool s
Ġch a
Ġshop ping
d ump
ass oci
ĠAppend ix
Ġstr ange
Ġdevelop er
Ġpass phrase
In line
Ġs ig
to k
G H
m any
ĠBr un
f act
r x
ĠA le
Ġh ate
Ġwor ry
ĠN BA
Ġ' ')
agrang ian
19 27
g ray
Ġreg istry
CE PT
apol is
ĠCom ments
Ġmay or
Part ial
ĠM ars
lic t
Don ald
ĠB ible
sc ene
Ġrestaur ants
>() </
ter ior
Ġed ited
Ġimag ine
Ġrender ed
FFFF FF
M esh
F ROM
place holder
elf are
over lay
s leep
ĠB ull
M iddle
i ota
over ride
Ġg ang
Ph ase
Ġmax imal
Ġexam ine
rol led
et ry
ĠH ug
ĠV o
Ġann ounc
Ġt all
ĠSh op
ĠA WS
und les
ĠAng el
Ġinter vention
Ġrep air
Ġep och
ĠR oom
ç »
ĠU tah
Ġo xygen
Ġlog o
ĠWith out
ĠCom puter
19 23
+ "
as a
Ġund ert
le e
Ġne ur
Ġhydro gen
Ġsh ots
Ġnom inated
ĠR PC
Ġfocus es
NE W
Ġar med
che ll
en berg
AR K
Listen ers
Ġaddress ed
Ġt ill
ĠRes erve
F ake
ĠG ET
ĠMc G
i ere
Ġp ic
ĠD evice
care t
ĠW ang
Ġrep orter
Ġas ks
ĠJ enn
b etween
ĠM organ
n io
Ġprepar ation
RO W
ĠCl inton
19 26
G ateway
Ġinter rupt
Ġhead ing
Ġpermit ted
P icker
ĠS el
Ġm ilit
ĠSchool s
De ath
ĠAdd ed
Character Offset
Ġprocess or
ites pace
Ġg aming
Ġins ight
config ure
Ġinter pol
Ġman uscript
Ġspec ifies
ĠH ope
19 25
Ġt issue
Se ptember
if rame
Ġv ital
Ġprodu cers
BUIL D
cor rect
ĠLaw rence
Ap pe
Ġx si
Ġd imensional
ĠInd ependent
ph oto
Vari ant
id ges
ody nam
ĠK er
level and
m issions
Al ign
ĠS A
ĠTh row
Des pite
ograph ical
Ġb ird
Link ed
ill ery
itar ian
Ġj azz
Ġfant asy
Ġcirc ular
ap l
back end
f am
B LOCK
Ġfluct uations
Ġspirit ual
Ġmov ements
Ġtax es
Ġspe aker
ab e
Sh adow
Ġl ift
Ġanaly zed
ĠV AR
iv ia
d eveloper
D a
u ates
ith metic
Sche dule
ort ed
Ġhe x
Ġf irms
ĠZ end
Ġr ugby
Me asure
g ui
Ġf iber
Ġobvious ly
' ):
12 1
Ġa ug
Ġcomb ine
em bed
Ġunivers ities
M ass
ik ing
Requ ire
Ġh orizon
ĠCl imate
Ġadvent ure
Ġillustr ated
Ġf est
S heet
ĠR ober
Ġul tr
pre dict
Ġcl ar
Ġelse where
uer to
Ġtrans itions
ĠThom pson
S al
ol id
s creens
f requency
Ġr ub
Request s
D imension
Ġatt ach
Ġref lection
m ate
Ġa ux
ĠMc K
ĠBase ball
19 21
" }
ra id
Ġshould n
ro b
Ġcov ari
ĠM B
ĠS R
} ~
ĠAd ams
Ġsimilar ly
in herited
remove Class
A ud
N GL
reg ex
Ġres idential
V IEW
ĠD M
m atic
Ġpass enger
uff le
Ġsuff ering
ĠM ort
ra ig
ĠTown ship
Ġl ands
ĠN ash
Ġher itage
Ġstream s
Ġelectric ity
Ġf lood
Ġanaly t
he ta
Ġf its
ĠD VD
Ġequ ally
S lice
input s
es c
s ing
ĠSt age
Ġgeneral ized
Ġsp ac
00 2
Ġsl ide
Ġexpert ise
p f
ĠTra il
pt s
iver pool
Dec oder
ob e
Ġind ent
interpre t
M ale
sw ap
TO OL
Ġs oph
claim ed
ĠO UT
19 31
ĠDown load
Ġp s
Ġru led
Ġport folio
win ning
ans wer
the mes
um ar
Ġsurv ive
19 12
in ces
S en
ab a
ĠG all
ul ates
ĠB uff
Ġgreat ly
Ġcl ause
ĠT ar
Ġout break
ens is
er on
Ġknow ing
> -
;\ ;\
For ward
Ġjud g
E lect
Ġt ur
grad uate
Ġc yl
Ġ' $
ĠL A
Ġqu asi
bo ards
en ario
EN TRY
loc als
ĠM I
Ġsche mes
ĠChair man
Ġabandon ed
Ġcomp aring
ab b
k n
W ar
an aly
long rightarrow
res olution
ĠP ear
ĠTest s
{ },
Ġw et
ĠC NN
Res earch
Ġarg ue
Ġat oms
it r
Ġm art
is p
M ov
Ġinitial ized
Ġabsor ption
ĠI ce
Ġdifficult y
Ġd y
in verse
tes y
C MD
Ex press
Ġtransform ed
ess ment
ann on
ING S
Open Tl
ath y
Ġpe ers
Exp and
ĠN ep
Ġre aches
Ġqu ote
Ġexp atriate
Ġmodel ing
S ing
S ound
li ers
/ '
ĠDet roit
ĠDe an
Ġincorpor ated
ĠN i
Ġweap on
lo ver
mod ifier
ĠS ex
Ġinv oked
B F
I ENT
Ġhead ed
Ġch ronic
}} .
Ġdynam ical
ĠCh ile
Coin s
Ġ\ ]
Ġir re
ne e
ĠP arent
,\ \
Part icip
ĠWal ter
equ ate
Ġden ied
; ]
Ġb rows
ĠN ag
Ġtouch down
ĠAl tern
ĠB io
th ird
Pl us
Ġadapt ation
Ġpl asma
t ility
Ġ' </
Ġincre ment
Ġla ugh
ĠMiss issippi
Ġstrict ly
ÐµÐ½ Ð¸
pan ic
Ġexpand ing
ĠAnton io
g em
F oundation
ĠI ron
NotFound Exception
âĦ ¢
Pub lished
Ġb one
Ġgener ates
ĠLouis iana
Ġformer ly
Ġcon scious
y aml
own ed
Ġground s
ĠIP v
K EN
ĠStruct ure
W alk
Ġdiagn osis
ĠMon th
H idden
Ġluminos ity
Ġdis plays
miss ing
in ian
In clude
Ġun iqu
ĠPh D
or able
ev a
Ġstr uck
ish ment
Nov ember
Ġlock ed
Ġr m
Ġcall er
S uite
Ġannounce ment
go al
Ġsuper ior
sl f
Part y
Ġpro x
Ġindepend ently
Ð ¹
id i
oc he
J ack
Ref lection
Ġâ ĨĴ
P an
g mail
Ġinv asion
C art
ĠC E
ä¸ Ń
work er
Ġcompar able
Ġdesc end
User name
ĠTh ings
Ġtr unc
ĠAust ria
Ġw ider
is an
Ġt ickets
V EL
d m
}) }
ĠS ide
Ġdem ands
ĠConnect icut
EN C
Ġre ception
Ġindust ries
trans fer
Ġre putation
poly mer
Ġcomfort able
P aint
ĠS ET
ĠMar shall
ĠAl an
Ind icator
Ġp sy
Ġent hus
R GB
L im
Ġst arring
roph y
ĠS ymfony
Ġ/* !
="# ">
Ġc rypto
S cheduler
mark er
Ġf ul
Ġre try
ĠChrist opher
ĠParam eter
Ġany way
B g
d ag
ĠN an
h ole
Ġcon front
Ġmod ification
Ġdeep ly
ĠCon st
ĠFor ces
dec oration
ĠSt yle
Ġs wit
Ġd s
Ġpro c
Ð ±
Ġh opes
4 50
table s
Ġperfect ly
al ion
ĠElect ric
ĠF L
ĠZ one
ĠC PU
l iteral
Meta Data
ogn itive
ĠL ane
19 15
build ing
ĠPr imary
Ġred shift
] *
ĠNet flix
est ing
St yles
. -
font s
e u
per mission
ĠDet erm
part icle
Ġc url
Ġportr ait
Ã ½
Ġorder ing
Custom er
constr aint
Im mutable
ĠAtt orney
V I
++ ++
S ink
asc ular
F it
} >
iss a
. ');
] $.
Ġs occer
e or
get Text
Ġst ick
Ġsing ing
ĠCol lections
ĠRepresent atives
Ġd ating
__ _
Ġsph ere
ĠStud ios
ĠCON DITION
ĠResp ond
pos al
S N
N ING
3 20
ha us
Ġcelebr ate
g un
ac ion
ĠB att
ĠW right
Dis abled
Ġnon linear
Ġc ss
ĠBr and
conf irm
ĠGe V
H om
An n
es a
Ġroy al
c ategories
t frac
ical s
process ing
Ġall ocation
ĠC T
BY TE
ĠTele vision
Form er
anc ouver
mod ified
ĠE D
m ers
ĠCon n
av atar
elect ric
Ġserious ly
ĠC lean
ul se
Allow ed
Rep resent
Ġch rom
Ġeduc ated
ĠEn able
H ide
o il
n m
Ġdeg ener
Ġme at
ut ation
ĠAl ber
ĠCommun ications
Ġmy th
Ġsem antic
tain ed
inv oke
Ġg ray
Ġbi ological
oot strap
oust ic
Ġfl avor
Ġfound ing
tr ait
ĠA BC
am ents
N U
ĠSet tings
Ġexpect ation
ĠM ET
Ġback ing
bo ss
) >
Ġrecip ient
aint ies
N EL
ĠDec l
Ġcour ts
="# "
n pm
Ġcaref ully
ĠY ang
Ġorgan isation
Can adian
ĠS to
Ġbox es
n ik
Ġan cest
Â ·
ĠVis ual
Int o
s it
R ound
Ġapprox imate
ai ro
M art
Ġreg ression
Ġf atal
Un able
^{ (\
ĠDis play
INST ANCE
Ġin coming
ĠPerson al
g c
x f
r at
19 16
ĠNew ton
eff icient
Per cent
Ġfem in
ĠP O
short cut
: -
Fil m
ri el
Ġasympt otic
end region
Ñ Ī
ĠA UT
Ġrecommend ations
Ġi OS
Ġins ights
ĠCont ainer
12 2
Ġrequ iring
Ġfit ting
re ply
ĠAv ailable
Ġm k
ĠF ame
> ');
c ref
ĠArgent ina
Ġnot iced
Ġm ir
mem Item
IF T
le ans
ĠY an
ĠO d
f ather
R obert
Willi am
L ONG
Ġdis cre
ĠU V
Ġh ired
ĠMat thew
Conn ector
ĠSp irit
Ġaccompan ied
> ("
11 3
Ġmar ine
ĠW ard
enc il
Comple ted
ore st
ĠIndones ia
ym n
qu is
Ġrep o
Ġsudden ly
D ot
ĠW oman
Ġne arest
Stud ent
Ġfl ights
comp act
ver b
ache l
Ġunus ual
qu er
Ex cel
G G
Ġhash Code
Ġc able
Ġp overty
p lier
Ġinv olve
ecess ary
Ġm oth
ĠC lick
Enc oder
Ġc od
ĠRuss ell
Ġsupp lies
oc o
amp ed
ĠSw iss
writ ing
ĠD ays
Ġ! !
ĠA F
ĠSh ar
Ġhe ter
ĠĠĠĠ ĉ
Pr imitive
ĠĠĠĠĠĠĠĠ čĊ
ic ulture
ra ke
Ġsp okes
Ã§ Ã£o
Ġ Ä
ard ed
c amera
Ġre actions
Ġperiod ic
Ġprote ins
st mt
Def ined
in us
Ġis ot
ĠH ell
ect ure
math op
or ange
ĠBang l
TE GER
Ġhand les
m ates
Ġencour aged
ĠS ER
pre vent
S at
job s
Be havior
Ġz oom
\ }$.
t b
ĠGener ate
Ġmet all
eb r
Ġ} {
Ġm esh
text area
Ġoper ates
\ ":
Ġun like
ram a
Att empt
Ġform ats
w hel
l iving
Ã ´
Sw ift
. ";
r n
R ay
. (
Ġwalk ed
Ġ[ {
ĠF ant
ĠH iggs
bedd ed
Ġ( );
Ġrec overed
m al
atab ases
ĠTrans itional
Ã «
o is
mult iple
Ġm eters
ĠF i
TR A
ĠF red
ĠGr am
å ¯
p iece
Ġ/ ></
[ [
Ch at
Ġp our
Ġagric ultural
ĠOr th
Vari ables
R oll
m ade
Ġsepar ately
ĠBet ween
U int
FLA GS
P DF
ĠS peed
ĠS ac
Ġch urches
Tag Name
B N
Ġinter vals
) })
p arsed
Ġex clus
ĠCONDITION S
Ġgravit ational
17 0
U i
Ġb lob
Ġcritic ism
Ġneutr ino
Ġclose st
. ]
(" -
Ġsit uated
f loor
ir ates
ĠM os
ĠOper a
ĠSO FTWARE
fail ure
Ġh ub
romag netic
MA IN
Ð¾Ð ´
ĠK az
Ġdo ors
ug u
Ġt unnel
al ia
Ġcontract s
T ake
File System
re verse
16 9
External Task
Ġst em
Table s
ĠR T
PA SS
Ġperform s
copy right
Block ly
pe er
ĠG ray
ĠDoug las
GRO UP
bad ge
LE N
Ġtrans f
ynam ics
IT H
M W
Im ages
Ġfrequ encies
Ġstraight forward
Ġsynchron ized
Ġcoun sel
ass et
ĠF riend
Ġaggreg ate
Ġp ace
Ġl ights
f ar
Ġr s
ol en
ess aging
Ġequ ity
Ġj e
Ġex ha
Ġin aug
Ġpublish er
ĠSV G
ĠS everal
Ġreg ulation
Elements By
Art ifact
ffff ff
Ġc s
gener ation
×Ļ ×
Ġcaref ul
á »
om ething
123 45
Ġd jango
ĠJon athan
ĠT E
ĠPortug al
ĠK ings
Ġj uris
IC K
Ġform ing
bit coin
se en
us p
ist ically
Ġmer ely
ĠMalays ia
th an
Ġlik es
Ġ{ })
Ġqu ot
Ġinterview s
ĠJud ge
H on
Ġfocus ing
19 0
F our
ĠG P
ĠR ain
Ġdist ances
j amin
LE NGTH
Fr ont
ĠBar on
Ġres idence
ĠCom put
ext ype
leg end
Ġcompos ite
Ġj oy
ĠBAS IS
Ġfrequ ent
Ġis lands
Ġt act
Ġad mit
h ibernate
ĠS ales
ĠE val
ĠIn it
ĠB ed
Ġdi agnostic
ĠAb d
å Ľ
ĠAn na
q q
}} _{\
ĠS SL
CL U
F ollow
Ġth orough
ĠTrans action
in ance
ĠQ String
Ġathlet es
Ġt ou
ĠP ast
Ġloc omot
Ġr anging
Get String
****** /
Ġde eper
ĠT i
Ġst abil
Ġpar agraph
ĠB es
igh bor
Dis patcher
S uch
Ang le
Î º
ĠMet ro
C lip
ĠSte el
Ġtop ology
ifest yle
Ġcap ability
Ġm eth
Ġste am
Ġd ashed
Ġpat ent
last ic
Ġappoint ment
em ed
e i
ow ed
Ġst ops
our t
ĠProt ocol
Ġsearch ing
Ġland ing
S pr
sche dule
ag greg
res olved
ĠL iving
as ant
ĠDub lin
Ch oice
Ġinvolv ement
custom er
ĠS N
og onal
ert ainties
ul o
ĠY O
2 30
Ġhigh way
Ġ\ !
ve e
)) \
ĠĠĠĠĠĠĠĠĠĠĠĠĠĠĠĠĠĠĠĠĠĠĠĠĠĠĠĠĠĠĠĠ ĠĠĠĠĠĠĠĠĠĠ
ĠB uck
Ġdr ums
Log ging
ar ound
Ġelect rical
ev ed
Ġin vari
ĠP oll
get Key
Ġbre ast
Ġw ake
Ñ İ
ĠC os
ĠDef inition
Ġst adium
Ġmusic ian
ĠEar l
ĠC atalog
less ly
c art
ĠP i
Ġbl ind
ang les
Bi ography
Ġre lying
ĠVal ues
Ġcool ing
st roke
ĠLeg al
ĠK ind
Ġhighlight s
ĠA zure
sub scri
ĠF al
uc lear
ĠL GBT
TEXT URE
Ġincred ible
ĠB ou
ter ms
ĠBru ce
AS C
Ġaccord ance
Ġ' ../
BU TE
Ġscript s
om eter
ĠP ope
cast le
Ġf er
F ar
=" //
ĠH ero
Ġkey board
Ġb ike
Ġd ip
Ġas c
lim ited
ct rl
f are
ta ke
Ġres ident
ĠOper ations
E ducation
-> {
Ġh alo
Do es
add EventListener
empty set
Ġleg s
ĠPublish ing
ĠValue Error
Ġdest ruction
Ġvis its
ĠBe at
F ilters
Ġfeel ings
ĠCh ampions
ĠW i
Inst ances
Ġg ay
C ert
Ġrespond ed
St mt
sh arp
Ġbut tons
et ics
ĠSimilar ly
Ġch ip
sp ark
ĉĉĉĉĉĉĉĉ ĉĉĉĉ
N ER
c ov
Ġ um
ĠInter face
d eb
op ter
Ġ" ")
ĠN ap
Ass ignment
Ġpain ter
ĠMag ic
Ġt aste
b ank
Rec ords
: /
ĠR ub
Ġcho osing
ĠMic hel
T ITLE
ĠM ind
ma jor
ĠCon vention
19 13
uff icient
DE LETE
P N
z h
tem plates
ĠT el
ĠK ir
AME TER
ĠB ec
Ġcancel led
Ġcr ack
C tx
Ġconsider able
. $$
iss ance
Ġm apped
}[ \
ĠHar vard
] $,
Ġob lig
le af
ĠJ u
T OP
Ġc ul
Ġscreen ing
exception s
ĠN elson
Ġcy cles
Ġs lope
Th reshold
Ġfin ishing
P K
ig s
sp aces
Ġm irror
Lem ma
ut o
B ag
ĠThe ory
df s
t bl
L o
ĠR ick
ĠAg reement
Ġdeterm ines
Å «
> )</
Ġrel ating
ĠG un
Ġexpl oration
em a
Ġrepresent atives
control s
Ġreg ulatory
ĠNO TE
p read
re ports
Con version
LO AT
sche me
D istribution
ĠA ch
Ġb oss
ill o
Th an
light s
Ġv anish
d v
LI B
ace ut
ra ise
Ġcolle agues
Ġtim ing
Ġsecret ary
en h
MPL ATE
Ġsub str
H ex
Prot otype
ĠF ern
Ġt one
ĠCro at
Ġdevelop ments
Ġbu ying
( ",
Thread ing
g ather
Ġf ishing
m acro
ĠSam uel
ExternalTask Pojo
ĠMar vel
T ON
Ġpain tings
Ġconsist ency
Ġrender ing
ĠW ik
ĠTem plate
ort ex
ah n
} `
Ġbas ically
Ġcr imes
c atalog
ab i
ĠB rowser
l ists
ĠM enu
Ġear liest
> ';
f ef
ĠQueens land
ant on
UN K
Ã© r
ot he
l uc
Ñ ĸ
Ġpopular ity
ĠC I
ĠS equ
ĠAdv anced
ĠR y
comm ands
Ġg raphics
Ġcub ic
Ġjun ior
Ġsupport ers
um ed
l ua
ĠDen mark
Ġreview ed
Ġin tern
Ġinterpre ted
A wards
Art icle
Ġtempor al
u pt
Ġspec ification
Ġbr illi
car ousel
Ġ( <
Ġsuff ix
Ġbur st
Ġfund ed
Ġs id
He ap
om p
Ġimpact s
Ġproport ion
ch annels
log ic
Ġconstant ly
I BUTE
ass ador
Dependency Injection
ĠAfghan istan
Ġfru str
Ġsol ving
add le
c amp
ĠO THER
ph an
Un lock
UM ENT
^^ ^^
Ġun likely
Â »
sh ots
S printf
ic it
ĠB art
ĠD R
Ġra ising
Ġl ip
ĠNor wegian
ĠL ower
, </
ĠG irls
Ġn ic
Ġsynd rome
ĠMarket ing
ĠM aur
ĠG il
ĠS ql
D eb
ĠAss istant
T ick
ordin ates
ĠM oz
ĠExt ension
d istribution
ig gers
al tern
get s
IRT UAL
Ġinh abit
Ġ utils
ĠF ight
Author ization
mys ql
C over
ro se
or o
CON ST
ĠBelg ium
Ġbron ze
F ast
Ġc ited
ĠVis it
Ġhe lic
Ġd owntown
we ather
Ġsurpr ised
DO WN
Ġh ip
) }_
read cr
Ġsus pect
Ġt ar
AC HE
ĠA qu
S ocial
99 9
H istor
ĠPolit ical
um inate
Ġrest ored
Ġh ospitals
19 11
go og
ĠS creen
th y
Ġto w
ur u
Ġ} .
ĠSt ories
m x
: **
ĠNot es
ĠH oll
L ab
Ġanalys es
um ption
G UI
Ġref id
ĠCent ury
Ġround s
Ġfol k
ab sol
Nd Ex
ĠH amp
i q
ĠL ocation
Un mar
ĠJ oin
Ġt ick
ĠD ATA
ĠD ance
Ġadv ers
Ġcomp ression
A CTION
}} ^{\
Ġdistingu ish
Ġt ennis
ĠNAS A
Ġon click
ĠK o
Ġviol ation
ĠG ary
UP DATE
Ġr uling
" </
ul u
ĠQu ant
ĠD epend
Ġinteg ers
ĠA lice
Ġeth nic
16 8
t ot
ĠP el
Ġinsp iration
ion ic
---- --
ol t
Ġre ven
Ġdel ight
Add itional
Tok ens
Ġâ Ĥ¬
L and
(" <
Ġintegr ity
Ġel der
Ġver ification
H A
Ġv ibr
ĠP un
Ġ(! $
Ex change
phant om
fl ash
d frac
ĠG alaxy
Co ord
vart heta
App Compat
Ġvulner able
) ?
ĠSh ah
ym ore
Ġz ip
ĠRE AD
em pl
mark et
r h
P ACK
Ġpres erved
Ġw avelength
P ages
Ġs el
String s
Ġdev iation
G old
Ġm ilk
Ġoper a
W ire
iv ities
sol id
ĠCol lect
Ġ" --
ĠAr men
pub lished
Ġb om
ĠCal cul
och astic
ĠG on
Ġproport ional
Ġmet ab
Ġg host
Ġtrigger ed
Ġelement ary
pl aced
S pring
S IGN
å ¼
ĠT an
ĠF inn
are ncy
) '
Ġdef in
ploy ee
ĠDak ota
C N
[ ];
Part s
ourn als
ob s
Ġap artment
bal ena
Ġl oader
Ġl ambda
Ġmor al
H ence
; -
ĠCon structor
he art
Ġn ortheast
r atio
Ġg olf
dr iven
Ġsuggest ing
Ġadv is
O lymp
Ġdisc ount
US A
ĠT yp
() `
P ipe
* >
Ġs aving
ĠH IV
Ġjournal ists
ov ak
Ġen semble
valid ator
Ġph rase
CON F
ut t
13 6
Ġh urt
Tog gle
Ke ep
ĠC oun
ĠM ach
Ġsh apes
ĠF el
math it
p referred
sub str
il ine
Perm issions
ĠJ ess
ĠPh arm
Ġequival ence
ep h
sp er
gr avity
Ġsm allest
s ong
CON NECT
ĠNC AA
Ġsh orter
ĠF actory
ĠT ig
Ġremain der
ĠFI LE
Ġ$ ,
Ġint ellectual
Tra its
F ace
ĠRes et
Ġcelebr ated
ĠRes erved
TO DO
in burgh
Ġc fg
f und
}) =
17 5
Ġrare ly
Ġwed ding
00 5
col ors
friend ly
Ġb eta
Ġrank ing
ĠA B
in ar
M argin
Feb ruary
ĠTh ailand
ric ulum
ĠHun ter
Ġsu icide
C ategories
H H
Ú ©
list ed
Ġport s
Ġvacc ines
ĠBrook lyn
ath ers
Ġform ally
ĠW I
, âĢĻ
ili ary
Fil ename
ĠR ole
the y
Ġ) {
sm art
m outh
A mazon
is cal
Ġj u
Ġsp arse
Ġdeploy ed
ĠS audi
NOS CRIPT
Ġp arsing
PI O
Ġmarg inal
DI RECT
ĠF ont
sp h
ape ut
ĠRead ing
V S
Ġinitial ization
Ġs ends
ĠCh allenge
F W
cel ona
Ġdec ent
Ġrat ios
Ġamong st
Pers istent
ÑĢ Ð°Ð
Ġcur vature
Ġt ropical
Ġp ipe
ynchron ous
Ġdelay ed
Ġh ill
ĠU TC
Ġs ectors
Ġas ide
ĠPh ysics
do es
ĠF ried
lot te
Ġstead y
ĠSp ot
Ġcommand er
ĠF loat
ĠMon te
Ġo c
S il
ĠS U
Ġvari ants
ane an
Ġmaintain ing
Ġl oyal
ment ion
ĠPortug uese
n r
ch arts
à¤ ¾
Ġobtain ing
ĠAp pe
Th rows
Br anch
18 90
ĠHistor ical
ip art
ĠPit tsburgh
Ġanal yst
Ġh ist
indu ced
r if
ĠL am
ĠBalt imore
( @"
ides pread
ant i
Ġgener ations
}) ^
/ %
ĠE mail
ac les
ĠH erm
Ġpar ad
ĠPr incess
ĠM eta
* .
Ġsusp ended
qu et
Ġmount ed
is Array
Ġtw elve
Any Ref
Ind ian
Ġm ic
La unch
ant ics
ĠL iverpool
Ġident ifying
ĠAt omic
Ġcomp ound
ĠG ulf
ov o
Ġmax im
i ang
Ġpr imitive
Ġflow ers
) --
Ġref lected
æ ī
ĠUS D
k an
m icro
ac l
Ġg ear
ĠEd ge
DO CK
Ġst ating
Ġt weet
Ġt ips
ĠO sc
Ġviol ent
ĠC emetery
Red irect
ot hes
Ġre ign
Ġderiv atives
Ġevery where
Ġb less
Ġphenomen on
lo ating
Ġe ating
Ġed iting
Con struct
thread s
Ġgen es
sh iv
Error Code
NUM BER
Ġcap s
ĠProf essional
Ġaccomp any
Ġl ung
19 08
ĠI MP
Ġfr act
Ġelect rons
Mod ules
">( </
m ot
it ter
33 3
] -->
it ol
iv an
T IM
ĠS now
Ġdialog ue
chi at
}_{ -
../../ ../
ĠRob inson
Ġsynt hetic
Ġsl ave
ĠR ic
car bon
PROP ERTY
ĠV ert
Ġnull able
onom ous
Ġtr ick
ash board
Ġt ort
Ġsurround ed
ĠFor um
ĠCar ter
Write Line
Ġmus cle
ĠPho enix
int ro
Ġneut ron
ĠS IL
Ġmount ains
ill ance
ĠCr ime
Ġdi ab
Ġindic ator
Type Def
Te chn
ogn ition
ĠL INE
Ġadmin ister
Ġtop ological
al one
ĠSen ator
az ard
N EXT
Ġes c
Ġch ains
H orizontal
opt im
ĠC er
ĠStew art
h p
script size
ĠG as
ij ing
ĠG round
Ġcond itional
IF Y
ot er
Al bum
ast ed
tab End
ĠC ensus
ĠTr igger
ĠDef ine
em ies
oxy gen
ser if
Ġgrow s
ĠJ en
F IN
log ical
ĠH eb
C atalog
t cp
Ġres idual
s il
enez uel
Sub scri
Ex pl
âĶ Ģ
y arn
ĠB lood
Ġind irect
in ions
Ġfit ted
Ġthe ater
ĠC leveland
for ced
Ġam id
Ġtext s
f ee
ĠP eters
Ġsil ent
Ġnec k
phab et
og ical
get Property
More over
ĠCh o
Ġflex ible
Rout ing
Ġm ixture
ort ion
ched uling
h ind
Ġlabor atory
P oll
Ġd inner
D Y
Ġrem ind
ĠT F
Ġpl ugins
ond a
Ġgr pc
H am
] >
ens ively
Ġar row
ĠM oney
M AC
Ġp ole
ĠPat ri
Ġl ens
Ġinter active
Ġleg it
ĠMin or
D ataset
hl js
Ġsol ved
= .
R ank
d h
Link s
Ġbirth day
27 0
Rece iver
Ġ( {\
Head ing
u ator
Add ed
De ployment
Y P
Ġw av
ev ens
Ġexam ined
d w
ed a
Ġh ierarchy
fin ish
ac iÃ³n
ay an
Cap acity
U Int
Ġres ign
Ġin fr
Ġdecre ases
ĠPal ace
Ġstay ed
section s
ĠLiber al
Suppress Warnings
sp l
Ġd uties
ĠĠĠĠĠĠĠĠĠĠĠĠĠĠĠĠĠĠĠĠĠĠĠĠĠĠĠĠĠĠĠĠ ĠĠĠĠĠĠĠĠĠĠĠĠ
ĠCl uster
u art
CE P
inner HTML
Ġaccess key
Ġco operation
Ġdeterm ination
Å ¿
ol s
ĠP ad
ENT ER
ĠCom ics
Ġd w
ĠCh amber
utr ition
O rient
ĠJ uan
c lic
ĠF un
date picker
is co
Ġg od
Ġunc ertainties
ord inary
field set
ct l
Ġreported ly
ĠP E
at um
ĠChar lie
Ġcampaign s
L uc
m ir
Ġglob ally
ĠDet ails
an alytics
ĠT ob
sec ure
v p
Ġad apter
d evelop
Ġvis itor
ertific ates
ĠDocument ation
Ġemer ged
Ġsomew here
ĠKenn edy
M Q
is i
MP TY
Ġs urre
Ġhe ll
ph ere
but tons
off ee
Austral ian
ĠL ag
ĠMar ie
Ġrom antic
Ġev ident
contain ers
Ġ( {
St ates
Ġaccess ed
Draw able
14 5
urre nce
col ogy
Ġp ad
Ġp index
hat tan
ĠBangl adesh
ĠWh ich
12 9
ĠOr leans
Ġ@ @
12 6
Sign al
ĠAnd y
D ER
ĠA y
Ph aser
Example s
Ġdam aged
ce il
h int
ĠTog ether
ĠUn iverse
ĠU rban
I r
Over lay
Ġper ception
UT C
Ġ/ .
L arge
ance led
A WS
Ġang les
ĠF ather
Ġ' {
mon itor
an ne
an imate
ĠJ e
Ġeffect iveness
ĠM s
uck ets
Ġtrans it
ĠS TR
ter ed
Serial izable
ĠC hel
og ue
ĠExample s
Un expected
ĠCamp bell
OP ER
Ġconsist ently
ĠW E
Ġs ock
a ho
b ie
u on
Ġperson ally
M LE
Ġf oss
om ed
ĠUp per
u ke
Ġreal istic
Ġpri est
ĠOr chestra
ĠEn try
ĠBul g
å Į
ĠDep uty
has OwnProperty
Ġmid field
te chn
EE E
Ġguarant eed
Ġexclus ively
h arm
ĠQ ual
Ġc ry
ĠT ypes
Ġ( âĢľ
'' '
n ia
Ġwh ilst
comp iled
id ays
ĠEm peror
ĠP uerto
Ge ography
Ġf unny
Ġg ent
ĠP rix
RET URN
Ġy esterday
Ġ- &
Ġproject ed
On line
Ġrecord ings
Ġrandom ly
Ġcred its
. ),
h ai
ĠInt elligence
Ø ¨
d al
ol utions
B er
Ġm i
Ġback end
res pect
Cl one
Ġmill is
Ġres erv
ĠS ay
ĠO il
Ġperturb ation
LE VEL
ĠM other
cons istent
Ġkey word
' }),
14 3
0000 000
Ġthreat s
R oman
Ġb ases
ĠO DI
ĠK on
Ġattrib uted
Ġdeterm ining
ĠR aw
Ġbelong ing
ĠO wn
us c
ä¸ Ģ
s napshot
ib bean
Rec ip
ĠSy ria
orient ation
G l
h op
en z
Ġh ang
Cl aim
Ġ} ));
M a
Ġlik elihood
ine a
Ġdecre ased
Ġenter prise
================================================================ ========
âĢ¦ ]
it ely
et ta
ad just
Ġver ified
ĠG raham
equ ations
ĠRef orm
Vis it
um bs
{ |
Î ¯
ig g
Ġr anks
Ġover lap
ec on
Ġval ley
Ġex cluded
J O
re ject
bor ough
Ñ Ħ
ĠSt ars
Inv ocation
Ġens ures
ĠReview s
th a
ĠFac ulty
Ġcomp atibility
ĠQue bec
ĠS ample
Py thon
ĠArk ansas
ĠR ank
ĠH end
ĠB loom
Ġgu ilty
ival ent
V IRTUAL
f un
MA G
ĠV ancouver
Ġco oper
Ġlik ed
Ġarr anged
ĠM ak
Ġ Ã©
Ġcommission ed
Ġge ometric
Ġg enu
ap ing
Ġpolar ization
lay ers
ĠFin land
Ð¾Ð ¼
c odes
s ock
Ġweight ed
Ġt ie
em p
Ġse q
pos itive
um ing
C ss
ul ous
ob i
Ġarg v
14 7
Ġs ust
duc ible
Ġover whel
Ġd type
C a
ĠA DC
}} =
Mat ches
Ġdo ctors
Ġconsist ed
ous ing
un its
Ġmeaning ful
ĠB aker
Ġcr icket
Qu estion
hy per
Ġjud ges
Ġ" :
ĠCh ron
Ġliber al
E lem
i ator
Ġg ard
ced ure
Ġan ymore
Ġdig it
Ġrecon struction
Par cel
/ $
=" <?
od ox
Ġover come
$ &
az ines
ver bose
ĠSt re
Com ments
ĠJim my
Ġdis ag
CC CC
Ġpo em
X i
19 07
Rel ation
ex tr
Ġwarn ings
Ġint ense
Ġim plications
Tag ged
Type Name
Ġcontin uum
Ġsp oken
numer ic
Z end
Ġmem ories
) }.
Ġliter ally
Ġ á
B etween
Ġcirc les
ring tone
Sub mit
OD Y
av ia
Ġcompet ing
Icon Success
ç ½
Ġte a
fef efe
Ġg allery
cho ice
List s
b re
em en
Ġkit chen
es la
std out
oc hem
ĠMad rid
Ġsc oped
im ir
duc ational
Check er
ĠP il
Ġlaw yers
ik o
ĠIss ue
iff s
ĠSh adow
Ġart istic
Off icial
B orn
ĠV iol
Ġoff ense
ĠValid ate
ĠS S
Arch ive
ĠBo ys
IT ER
ab br
Ġconj ug
ĠW ind
Ġim pr
ĠKn ight
Î ³
ĠDom in
Ġaff airs
Ġaffect s
ĠF IX
Ġpseud o
Ġex clude
ambig uation
Pred icate
ĠRog er
A fr
g uid
net t
ro d
as ide
Ġman ually
p ick
ĠDr agon
Ġd egr
cur r
ĠS Y
ĠB R
ĠNav al
Collect or
Ġ\ (\
Ġthink s
ĠComm ons
ĠF alls
Ġhistor ian
im o
Ġid s
ĠO cc
Ġfor cing
C op
Ġw idespread
Ġpass age
ĠL ith
ĠPl anning
ĠArch ives
Ġin qu
os ure
ĠPro du
H P
for ge
st ri
it ations
ev es
ĠO tt
upload s
\ }\
ĠT X
ĠH O
ĠIter ator
g ender
act ivate
urric ane
7 50
ĠPro duction
Ġc rop
ĠPort land
Ġcompens ation
ĠJ oy
19 09
ĠĠĠĠĠĠĠĠĠĠĠĠĠĠĠĠĠĠĠĠĠĠĠĠĠĠĠĠĠĠĠĠ ĠĠĠĠĠĠĠĠĠĠĠĠĠĠĠĠĠĠĠĠĠĠĠ
bold math
m r
ĠTH IS
F X
t own
L ER
ath on
. &
; =
Ġd ensities
Ġm ild
Ġtem plates
Ġsch olars
Ġdes ert
=" {
Ġspe akers
Ġremark able
Sup pose
ĠH ockey
IconSuccess Encoded
ĠM ove
Ġimm un
Ġsaf ely
19 05
s an
Ġs outheast
] ];
ativ istic
ĠIn stance
ast ro
T ARGET
W W
he ther
Ġto g
ĠL IMIT
ĠP attern
d og
add on
2 10
Cre ation
S ender
ĠCommon wealth
Ġch amber
se ek
rest ore
ograph er
Ġiniti atives
ĠMor ris
COMM AND
ĠT ower
Ġpos it
Ġencounter ed
âĸ Ī
Vert ical
ĠW olf
Ġout door
ĠBrazil ian
list ing
absol ute
Ġv e
ind ependent
Comp any
ci pl
Ġcr ick
2 64
J ul
Ġo ct
ĠM aine
un ed
ĠP NG
ph ony
Ġform ulation
ĠAdd itional
Ġinvest ments
Byte Array
ĠS r
Olymp ic
( <
R ail
Ġmet res
ID S
Ġabund ance
Ġretain ed
get Default
gu ard
Ġdep recated
}} }\
Ġb orrow
Ġdec ode
neut ral
G T
pay ment
Ġens uring
C lock
qu ick
ograph ics
th reshold
ĠSh are
Ġoper and
ĠD ocker
Ġcompet itions
æĺ ¯
ĠCol omb
Ġinsert ed
lear ning
Is Null
Ġtransform ations
am ination
Ġdis aster
OP EN
Ġdram atic
ĠBe aut
Ġexp ed
or acle
Ġref uge
L aw
Ġt ub
ĠĠĠĠĠĠĠĠĠĠĠĠĠĠ Ċ
ĠP resent
Ġmanufact urer
Ġm oon
or ig
Ġfore ver
Ġprom ising
Instance Of
Ä Ł
(" [
z ier
ĠFrank lin
ĠI an
Ġinter faces
Ġdecl ined
uck er
DE VICE
M icro
Ġpre val
Ġbeg un
ĠT s
ĠL anc
ĠQu est
ĠShe l
Ġor ange
Ġl iv
Ġar ise
Ġoccasion ally
Ġinj ection
ot ton
ĠR ele
Event Handler
B ibliography
Ġs ugar
ey er
b age
Ġ ,\
Ġis omorphism
ĠPre vious
spec ies
ad os
Cl ause
prot ect
ĠCal led
DE P
ĠBut ton
get Time
Ġattempt ing
ĠD J
ĠG ot
. \\
V R
Ġserial ized
Ġse eds
Rev ision
S i
Ġre vision
pers istence
Ġp c
oc c
ann ah
Ġthere by
tem perature
op les
Ġob st
i ov
Ġwork flow
Ġlong est
Ġcontrovers ial
Ġprom oting
ar us
ast ore
ĠColl ins
Ġbar rier
im iter
Ġo w
ĠM ail
ĠC ategory
Ġep id
Initial ize
b matrix
Ġle ts
d iction
ĠL IC
Ġcontrib uting
Inv oke
å º
Ġcl er
ĠMur ray
Ġscr atch
Ġmanufact urers
} |\
ĠS chema
She ll
el n
Json Property
Ġform ul
ĠAl aska
f ollow
cc c
ĠClass ic
Ġmoder ate
Ġtri angle
por al
ĠGener ic
ĠEd inburgh
ĠMarg aret
~ (\
Ġconven ience
[ ],
x e
ĠA rena
Ġre cre
NO WN
Initial ized
or ship
($ _
Ġsim ulated
Ġorb ital
R pc
iv ari
ab bit
ĠTh anks
Att achment
Ġh int
FO RE
Ġgather ed
ke ley
Un ion
re nd
oth s
Ġgr ants
ear ly
: @
ex press
get ElementsBy
Ġfe as
ĠD elta
ĠP ART
ĠR and
Ġfilter ed
Ġl t
Ġven ue
P rec
ĠL agrangian
RE AM
Ġexam ination
cor respond
x l
ph ysical
column width
k ubernetes
L T
Ġhand lers
Ġvol tage
Ġsup plement
Ġagric ulture
gle w
Ġc rystal
PO INT
S ys
ĠF reedom
irm ingham
Ġenc rypted
c ou
Ġsurv ived
oc ent
look ing
Ġplace ment
&= &\
la unch
Ġb orders
ĠPh one
Ġin duct
Ġcl othing
E mitter
"> #
Read Only
Not ify
Ġdem o
V el
19 06
d type
Reg ex
Ġsp ots
ĠV ent
ĠE SP
Ð» Ð¸
View s
it ud
ĠF E
ĠCamp aign
Ġc rown
Ġbe er
R G
Ġc ock
ri ors
Ġin comp
Ġpro tests
ĠSt ack
NO TE
ĠC M
ex ist
icult ural
Ġcoast al
sh aped
2 60
Ġview ers
Ġvolunte ers
Ġn ut
av i
ĠR io
F B
Ġdocument ed
ĠDE BUG
Ġs nap
ĠA G
å į
lin ing
Ġwor ship
Input s
s ess
Ġ( ),
ĠS olar
Ġf d
Ġparticip ating
re ck
pl ings
cal c
F ee
de ploy
Ġcor relations
stack rel
[ <
K S
y our
ĠW ol
16 5
ĠIn fo
Ġbon us
ak u
Ġsub stit
dd ie
Ġa ired
ĠV el
Ġhar vest
ocom plete
1 19
Ġg all
Cred it
ĠCh art
in variant
Ġcenter ed
che m
Ġgrad ually
op ol
Ġpl ots
Ġtog gle
ĠS pect
err anean
string ify
m art
sl ug
i pt
Ġam pl
ĠC rown
ĠHon or
Ġrefer enced
ĠX ml
r adi
= </
C at
multi row
Ġbuild s
Ġimplement ing
Ġmyst ery
Un its
d ale
Ġattract ive
Ġcas ual
ĠF am
âĢ¦ .
ers ions
ĠB ag
ĠMit chell
b ecause
Ġre b
Ġi i
acc ur
Ġmedal ists
Ä «
A IN
ĠN AT
Ġun n
Ġprint ing
h it
O s
vel ocity
Ġagre ements
Ġcam eras
an on
Ge orge
uc le
Reg ular
C odes
ĠBr anch
Ġaltern ate
ĠC row
Pop ulated
Ġprotocol s
eg u
Ġlog s
tr aining
oc on
ĠPark er
Ġmolec ules
Ġche st
ĠE T
ra f
Ġcommun icate
ĠS ustain
ff ic
to o
urre d
Ġsh a
ellig ent
Ġpoint ing
cri ptions
H int
Ã ¦
/ </
Ġpre t
Ġtab index
sc ience
ur ring
Ġc ow
ins ula
Sc ott
Ġbench mark
é ĩ
P eter
æ İ
F IL
Ġhold er
ĠPos ition
m illion
Ġless ons
Ġdef ence
Ġsustain ability
! )
ĠB ound
Ġsh ipping
G re
Com plex
Ġdep ression
F at
ing ers
pos able
Fr ag
Ġpurs ue
Ġdrink ing
Ġsevent h
Ġdemocr acy
Ġor al
Ġab road
urch ase
F inder
ĠM aj
Ġdi et
Ġeigen values
Ġ$ ("#
By Name
asc ade
æ ł
Cl osed
H AL
MS earch
LOB AL
Ġwer en
med skip
d ummy
je ctions
-- ;
ĠLead er
ĠWar ren
M or
ĠS ent
æĸ ĩ
ĠC atal
Ġrad ical
ol ished
Ġacqu ire
B AD
Ġphot ography
ĠSt orm
Sm art
ism atch
ĠBern ard
L M
eg e
C AP
Ġextr action
Ġ\ ,\
ĠPro gress
h h
Ġsing ers
E r
ocol ate
Ġfl ower
Ġpower ed
get Data
Ġstr ain
Ġmat hematical
fig ures
Ġcount ies
Ġs ail
s elling
Cl ub
get Logger
ĠJ O
ĠC ass
ĠR ES
Ġ! (
ĠCO LSP
ĠCOLSP AN
Ð½ Ñĭ
Ge V
b os
' "
30 4
ĠGu y
F emale
v g
ever y
ue z
c z
av ors
Al tern
grad ed
Ġ& $
15 5
Ġcancell ationToken
Ġarch ae
Ġpain ted
c ook
le te
um per
Default s
J o
Ġprepar ing
c id
or ro
Ġcallback s
Ġprogress ive
$ };
ĠI M
IC S
Ġmod ifications
Ġorgan isations
ST EM
Ġimp ly
ĠWIT H
\% $
Operation Exception
\ }$,
Ġaug ment
ow der
ĠV M
Http Request
st orm
ĠPolit ics
re strict
tog ether
Cal cul
h uman
Ġal igned
ĠW R
r gb
ĠM ol
ER Y
Ġcouple s
ate ful
oth y
[ _
Ġreson ance
Com posite
2 11
Q UE
m el
ĠP ri
usal em
or b
Ġm as
Ġsuff er
et ter
Ġad res
å °
TR ACT
ĠS K
ĠA ld
Ġwarr ant
q a
Ġdisp ersion
ĠB rew
ĠCO L
effect ive
Ġ ÑĤ
rec v
Ù ģ
oc ese
Ġsh ifted
EO F
Ap ple
N B
Ġ" (
Prot os
or ate
FA I
Ġpred icate
ĠBro thers
ext ends
ĠCon tract
< >(
nav Bar
ĠEv ans
c g
ph ones
Ġche ap
Ġhop ing
Ġult imate
Ġvess el
ĠCom plex
Ġd f
capt ure
cons ider
Ġfail ing
im er
and box
p romise
à ¦
Ġch ampions
Ġlab eled
Com pute
Ġen abling
Ġdream s
Ġdiagram s
> ";
Ġcorrespond ence
Ġb ull
Ġgre y
ĠArch ive
ĠSt even
Ġac ute
ĠTechn ical
$- $
ĠCO MM
d id
Il legal
C ached
ĠK itt
13 4
ĠBar celona
^{ *
pos itions
ud ge
Rep o
Loc ator
k le
ĠAr gs
ĠCons ult
ĠUnivers al
PAR AMETER
ĠThe ater
En code
Ġdistri bute
orient ed
Ġpul se
Ġthreat ened
Ġp ag
ph ot
n est
ĠN ord
Project s
o ct
bal ance
Ġact ively
Max imum
ĠMov ement
Ġl os
h dr
Ġintrodu cing
Res olve
ĠR oot
"> {
Perm alink
Ġcon fer
inter faces
app ers
Work s
Ġext ending
load s
Ġactiv ist
ĠS F
w b
ĠL ac
ĠI de
ĠAct ivity
sub sec
s aved
Qu ick
ĠM yst
"> Â
Abs olute
ID s
uk a
Ġlux ury
H it
u cc
ar ations
Ġpl ural
K nown
Ġt body
t ick
Comm ands
Ġreflect s
| }{
Ġcomb ining
Ġcontain ers
ok u
Ġcolon ial
Ġim posed
ield s
ĠOr ange
~ {\
equ e
Con v
ĠH ind
Ġover l
Ġvo ices
2 25
ĠA pi
Man aged
Ac adem
ĠD anish
Ġb atter
Ġmain stream
ĠMont real
Ġcar ries
ĠAL L
ĠMean while
ĠS B
on ing
ĠF ly
Ġadvert is
in ates
up id
O ps
Ġneigh bors
if ecycle
AR S
f air
ref ox
}$ }
LE FT
j k
Im plemented
ĠM is
TE MPLATE
ĠC ONT
AC CESS
Ġin clusive
Ġst uck
Ġemploy er
Act or
pro blem
et ype
inc or
ĠQ t
as ures
Ġoccup ation
v r
Ġpre view
Ġeg gs
ĠE ST
Ġlaws uit
o ft
Ġhom ogeneous
Ġin ches
Ġfol ks
ĠM ode
ĠH R
h ub
ĠG R
Ġll vm
Ġmut ual
ĠN ames
') ).
An swer
Ġst ochastic
script style
Start ed
foot notes
ĠNe uro
ĠSD K
Ġgr an
CK ET
Ġforest s
V oid
b ower
Ġhe m
ym an
Ġhabit at
Ġcor ruption
Ġa ws
ok emon
b idden
Ġst ere
Ġmeas uring
V IS
Ġcom ed
act ed
ich i
ĠF ine
Ġover se
Ġcop ied
Ġfacilit ate
! ]
break ing
Ġpers u
ĠW a
ĠF err
au er
roll ment
Ġclean up
ĠAs ync
=" ./
ĠL ot
ĠTh ink
xi ety
ĠHawai i
Ġabs ent
bar s
ad ies
rit ic
al ph
Ġsim plicity
Ġd war
ĠW allet
ĠDr ag
Throw able
Ġpeak s
Ġcar rier
Ġfor got
int egr
N orm
Ġcast le
Ġgener ators
Ġexpl oring
m achine
Ġs creens
H ot
Ġad option
AR M
product s
ĠP rior
unt u
ĠS EC
Ġneg lig
ĠIn n
Ġfl ush
Ġvent ure
Dis able
us ive
Ġnot ing
il o
Ġl ap
Ġtrans verse
ordin ator
eb ook
ĠTurn er
CEP TED
sh ader
Ġveter an
ĠHamp shire
sl ant
che str
oper ations
ig ion
Ġimm une
... "
Ġgr am
D AT
P s
ĠM ut
K ing
pre tty
Ġdoc s
Com b
Ġop ponent
ĠT ak
im ag
y outube
fin ity
ĠF ro
ĠR ing
Ù Ĭ
op ing
ast ery
W M
18 80
Ġl oud
ĠAg ent
ĠC ould
ĠN A
R ussia
Ġnot ably
âĢ ¯
ĠNot ice
PRO TO
ĠBO OL
Ġinit With
ĠK an
Comp ilation
ĠStan ley
request s
Block Index
Sports people
L G
Ġdis contin
Ġpush ing
ot ypes
ĠUn fortunately
[] )
Ġhard er
ut ers
ĠFl ow
Ġl azy
Ġle x
ĠWith in
Ġvess els
ĠC apt
ent ities
ash ing
dom inant
Ġhighlight ed
V ars
IS H
V ill
ĠC ultural
Ġh orses
Ġre n
Ġarrang ement
Ġsurv iv
Ġindu ction
oc ate
Typ ed
art icles
T LS
w al
ĠRe ce
ĠIn novation
Ġanaly tic
B ank
h yp
× Ķ
in ery
m q
ĠH unt
at en
Ġobserv able
ĠDes cribe
ast ing
Ġsome how
file Name
ĠIn sur
ĠCon struction
Ġblock ed
st ation
Ġclaim ing
------------ --
Ġphotograph s
Ġdis orders
13 2
U rban
Ġadjust ed
ucl ide
et on
Ġposs ession
open api
k ern
Ġcons ensus
he ap
Ġsub stance
i am
Ġunder ground
Ġar ithmetic
Ġprem ium
ĠLabor atory
Ġl oves
& &\
sw ift
Pre view
R ew
Ġcomput ers
nc ient
Ġhost ing
rip ple
Ġt ies
ĠCar ibbean
Ġre construct
ĠN am
Ġrepeated ly
Ġrecru it
ĠA ST
ch t
ĠD ie
ĠMan hattan
ĠS erv
ĠT oy
ĠGre ater
Ã© n
out line
For Key
ĠEV ENT
PL ICATION
S un
ĠB ond
ĠM uch
Ġengine ers
Leg acy
man aged
ĠChar acter
R ussian
Over flow
Ġ _{\
log ue
] {\
i u
Ġf usion
Ġshut down
ĠCre ative
g res
Ġal i
ĠBill board
up les
Ġphys ically
success ful
USE D
ĠIN T
Ġexpl ored
Ġgraph ic
ĠLIC ENSE
p ip
ia o
lock ed
Ġauthor ized
Ass oci
ĠL ex
ĠÐ ·
ĠJ azz
ĠCurrent ly
Ġ( ,
ÑĢ Ð¸
ĠC le
ĠV a
Ġun e
T ur
13 8
Ġd ub
Ġcomp ress
ĠKen ya
n P
ĠAnt i
ĠFl ag
ĉ ĠĠĠĠ
Ġexist ed
Ġaccept able
IT S
Ġb read
ĠB apt
ĠP or
19 04
XML Schema
ir ts
Ġdev oted
Ġeng aging
ĠCommission er
Ġan onymous
WARN ING
Ġcol leges
Ġdepart ure
navBar Cell
od b
Ġfant astic
path y
n ol
U INT
Ġaccount ing
prevent Default
ĠS even
Ġdel iber
th al
ĠDen ver
Debug ger
Ġactiv ists
Ġv it
Ġiter ations
Ġmand atory
ĠCont roller
Ġvar ied
Aut hent
depend s
cred entials
Ġparse Int
Ã Ĺ
HAND LE
Ġf ert
Ġprov isions
ĠC raig
ĠBen jamin
Ġcomb inations
Transform er
enn ial
ann es
m usic
ing e
Ġp ng
cknow ledge
L ater
query Selector
ĠAnd re
Un ivers
Ġdeterm in
20 4
Ġuniform ly
Ġtravel ing
ĠSquad ron
ipher al
ĠBroad way
bound ed
ĠK ate
IC AL
dis ambiguation
Spr ite
ĠPr adesh
Ġann ually
"] ["
Ġdistingu ished
Ġsole ly
' _{
0 100
it ime
$ ^
Ġg ains
Ġdirect ive
om on
ATTR IBUTE
ĠImp act
ke eper
Ġpers istent
Bu ilt
he ld
B attle
Ġle an
Ġappreci ate
40 1
F un
Ġc ous
ew ise
Ġinter ference
char set
ĠI SO
play back
c ock
ĠD rop
ĠZ e
wall paper
Ġt ape
ĠM T
ĠLear n
G erm
el ing
set Value
SE CON
Ġdecre asing
b ach
C y
ĠStat ement
it ual
d ater
Fin ished
Ġl ying
Ġpre lim
in fl
ĠIm perial
ĠÐ ¼
Ġp reference
Ġc line
Ġre fin
ob a
Ġsp ell
15 2
ject ure
ĠCo al
" ):
eh icle
s yntax
AC CEPTED
ĠE sp
\ -
Ġun ity
h um
TE X
Ġpro l
1 2022
c nt
Ġdo i
15 00
Ġs urname
19 03
F LOAT
ĠP ref
c out
Ġin struct
om o
m ill
ĠRuntime Exception
ĠP ain
ĠV eter
Ph ot
AS K
Appe arance
J ournal
ĠZ ero
Ġhuman ity
Ġcount ing
n ested
ĠA f
ht m
av ery
Ġqu it
ĠTh or
class v
Ġdef erred
EN S
AAAA AAAA
ĠJust in
Ġconf ident
ĠK u
j boss
ĠSet ting
Ġafford able
ĠG ov
} ")
M ot
f oundation
aut hentication
Pro duction
Ġking dom
ĠWay ne
Ã ĥ
F s
ar ms
Res ize
H ol
ught ers
ac ular
om i
ĠUn like
Ġg ross
ĠEx pr
all ing
estab lished
ah a
ĠBe ing
Ġdifficult ies
Ġinhabit ants
ĠArt ist
Ã¶ r
Ġspect ro
ĠW orth
Ð Ł
ĠP T
ĠClin ical
const ants
ĠBe ijing
19 01
Ġa qu
Ġsw ap
Ġwire less
ĠT ed
art z
erm ark
ĠSh a
Ġlength s
x ref
ĠJohn ny
b an
Ġescap ed
T i
å® ļ
-------- ---
Ġbr ick
Ġst er
Ġev olved
ĠTerm s
Ġen emies
comp ass
ac a
%%%%%%%% %%%%%%%%
ĠN BC
Pro ducer
/ ******/
eg en
Ġestablish ing
Ġdiff usion
ĠFreder ick
Com bo
ĠCh ampion
Ġ* **
read only
Alloc ator
R ural
ĠP ick
ĠR u
Ġc ust
ĠStat istics
ter min
Ġen zym
ĠU pon
urre nc
Ġdist urb
Ġcloud s
ĠĠĠĠĠĠĠĠĠĠĠĠĠĠĠĠĠĠĠĠĠĠĠĠĠĠĠĠĠĠĠĠ ĠĠĠĠĠĠĠĠĠĠĠĠĠ
Ġcelebr ation
N il
Ġrender er
Ġb ills
Ġconcentr ations
ĠElement ary
Ġm a
IN PUT
Ġintr insic
H EL
Ġj ew
ch rom
Ch ina
> ',
New ton
B ur
Th anks
Ġminor ity
ac co
ĠLe ave
) ";
W ater
Key board
ORM AL
+ -
n v
Ġsup press
Ġconv olution
Ġdr ives
13 3
el ian
an Ã§
Ġsup ern
ĠSup pose
æ į
Tele vision
C li
ĠF BI
Ġdeb ugging
is y
ad ers
conf irmed
ov y
May be
Wh ich
Ġ" </
ĠBroad cast
Ġres ort
Ġ" ");
ĠP in
m os
Ġatt ending
ĠC arn
ev t
M X
ĠK rist
ĠWrit ing
Ġsens ors
Ġretr ieved
us k
C riteria
I MAGE
Ġemph asis
Ġm ice
ĠP ictures
d ro
Ġpropag ation
Ġsimilar ity
ĠDirect ory
ĠArch itecture
port folio
ĠNev ada
s izing
Ġ( ((
ĠH udson
ĠL ost
Ġingred ients
Ġdes per
Ġdep icted
ĠL yn
Linear Layout
s ites
Ġin ference
Ġt ension
NA P
FAI LED
Ġhe ating
Ġalgebra ic
ĠH aving
Prop ag
Orient ation
e ur
à ¹
Th omas
ĠJ a
ri o
30 1
ĠH ub
Ġdec imal
AD C
Ġimm igration
Ġimport ed
Ġcult ures
Ġcom ics
d ue
Ġven ues
ĠP ush
ential ly
pro port
ç ±
Ġpr ay
( %
Image View
b ird
P atch
ĠAdd s
Ġrat ings
ĠN ad
Res olution
Ġp arks
Ġcomp ounds
Ġre fr
(' ../
io x
ter rit
Ġfavour ite
d eps
ĠS DL
Ġcross ed
Ġaver aged
TH READ
inherit Doc
ĠB inary
or us
ĠChrist ians
ĠDemocr at
Ġtraject ory
Ġcre am
Ġpart ly
ĠField s
feed back
Ġp t
ĠS L
uclide an
ink s
Not able
ĠMed it
Ġpack ed
DOCK ED
Ġsh ifts
Trans l
Ġdec k
Ġr ivers
Ġemp irical
ĠUtil s
sh ake
Ġd ated
if le
20 3
x ff
Ġwood en
] ",
Ġcomp anion
GEN ER
Ġtalk ed
Ġaud iences
bel ow
Ġmechan ics
ĠTam il
Ġcon gress
Ġun w
ĠAn imal
scal ar
b ai
) ^\
Ġthir ty
ĠV enezuel
36 5
}/ \
ĠDise ase
ĠS ym
work space
ogen ic
Ex ist
Ġref erring
Ġt ends
ĠB ear
Ġchar ity
^* \
Ġdead line
ON LY
it us
Ġex tern
ĠS outheast
ĠChar lotte
w heel
V T
Ġun safe
L ou
th ick
Ġm ature
pro pto
Ġvol can
Ġ' )
Im g
( -\
ĠSw ift
2 24
g ap
Aut om
P LAY
R oom
d imension
ĠRem ote
power ed
D ue
NAME SPACE
ebr aska
f iction
Ġp ill
B in
Ġtack le
g ulp
Ðº Ð°
Ġag enda
ĠCO M
Ġcancell ation
iv ot
Ġposs ibilities
tikz picture
ĠArab ia
Ġth umb
ĠR acing
Ġmer ger
c rypto
ĠR out
per formance
unit Pattern
NE SS
Ġblock chain
ĠLeg end
ĠK ath
Europe an
Ġqu oted
ul ent
ĠE L
ĠFour ier
^* (
Ġmiss ions
null able
Ġfit ness
Ġmem orial
Ġab ilities
ĠAl gorithm
ene ath
ĠBl ues
end l
print StackTrace
ĠN ar
Ġt rem
Ġap ple
ĠCom pute
RE ST
ĠGr ace
| $
get User
Call able
div ider
iem ann
ĠY ES
Ġent ang
prot oc
! ");
et e
int ent
ul ators
Ġan ime
d ifferent
organ ization
n x
t ec
Ġcl othes
w y
ĠR ud
Ġdep uty
Ġexception al
18 00
Ġun ve
ĠPh ase
ĠC u
Get ter
Ġt ale
Ġcre ator
Ġburn ing
' </
Ġd rew
ĠEn um
D MA
ĠT u
Ġop ponents
por ated
ugg ed
Ġspeak s
] ));
Ġrock s
el ist
other apy
Ġsequ el
or um
enc oded
ĠLay out
ĠC urt
l ag
Cre ator
ok a
new line
Ġfrag ments
ĠC ut
ĠHead er
Ġset Up
Ġbut ter
L ess
UL AR
ĠJer usalem
ol ine
RE C
Ġr iding
ok ia
Ph ysical
? .
B ODY
Work flow
Ġdoll ar
** :
ĠF iction
Ġsub stitute
P in
f re
ĠU g
W ild
DE V
o auth
ĠAl fred
deg ree
ĠInsur ance
AT T
Ġis set
Fr ank
")) );
Ġgl ad
ge om
ĠSt ein
ĠCon trib
l m
qu arter
ĠB illy
ĠEn sure
Ġph osp
Pr incipal
h is
pect ives
ili ation
ĠHung ary
Ġst eal
Ġnav igate
ud o
Ġview ing
Ġro uting
Ge o
ĠAgain st
Ġacceler ation
Tool bar
Ġpropos als
Rec ent
Id le
ĠCl ar
ĠP ic
ĠN ormal
W D
TIME OUT
ĠMount ains
Ġch iral
= }
ĠU lt
Man ifest
end ors
resource GroupName
Ġswim ming
Q R
Opt s
en ium
get Current
Ġchem istry
get Context
IN LINE
RO P
inter action
Rot ation
iv ic
Th ank
ĠLead ership
ĠIns ert
M ilitary
HEAD ER
ver ts
ĠD NS
con sum
ĠC BS
ab ove
Ġshould er
spir acy
ĠC arm
Ġun set
13 7
ĠD ig
Ġaccept s
R ad
ä ¿
CP U
j q
ĠF erm
ĠTechn ologies
ĠÐ ±
Pres ident
ĠQ CD
Ġf ur
urs ion
direct ive
ADD R
Ġg al
Ġsplit ting
Ġmist ake
Ġmask s
Christ ian
Ġco aching
B ob
jav ase
Foot ball
Ġroll ing
ĠB irmingham
nit method
ĠR ect
STAT IC
tensor flow
ĠAl ert
d z
Im p
bor ne
v ation
Ġc v
ĠFe atures
ro v
ĠC elebr
Ġiniti ated
n om
ĠS ad
N ever
C LO
ĠK ay
im en
olog ically
her o
Ġas h
hen g
ĠI o
r int
ia z
Americ a
Ġt ap
Ã¨ re
ac re
Ġro ster
Op code
ig ue
Ġpre dec
Ġg fx
as List
ĠL uther
Ġ$\ {\
Ġenc oder
WE B
ah l
assert False
call s
ĠMet ropolitan
Ġloc als
Ġscient ist
Ġconflic ts
Ġattract ed
-------- -
ĠIndust rial
ĠMer c
13 9
ol ia
æ ³
(' \
16 6
Ġorth ogonal
on er
Iss ue
ĠBar bara
L ex
we ets
com press
Ġcharg ing
13 1
Serial ize
Ġapprop ri
3 75
}} </
Ġinc idents
Ġd ummy
over e
Dec or
Ġc razy
ap on
ĠF riends
C AL
Ġadvant ages
Ġb unch
Ġloop s
uzz le
ĠH at
ĠCr icket
Ġwork space
ĠStr ategy
ĠG T
off icial
footnotes ize
ĠN at
Ġlight ing
Ġlegisl ative
s amp
url s
iner gi
ĠF ed
="../../../../../../ ../../
ro at
ĠFI FA
ÃŃ n
Ġsm ile
col s
Browser Detector
" +
y ellow
ĠB ot
ç± »
c url
Ġb anned
ĠS id
15 1
14 6
Ġexec utor
ĠT ags
ĠCustom er
widget s
Ġste ep
g om
G F
Ġas semb
ash a
Ġprison ers
ĠCarl os
ect ive
Ġm ad
tr on
ert on
Ġreg ex
Ġmort ality
ad itional
Ġda ughters
Ġg rap
ĠKe ith
âĢ ħ
ĠU nd
Ġac oustic
ĠCal endar
Ġr ay
Ġl unch
Ind ices
ĠAc cept
ĠA aron
Ġentreprene ur
sup ports
Manager Service
Ġd eter
og s
N L
ens en
Ġtour ism
us b
ĠF ab
p ent
s ized
amp a
Ġvirt ually
Ġc f
W elcome
ĠS ale
Ġdiv isions
Ġb ary
Ġassoci ations
ENABLE D
P references
inc inn
. ).
T ech
Ġelim inate
Ġcond em
ĠIn iti
ĠComp etition
Ġelim inated
Ġop inions
Ġreal m
ĠLiter ature
Ġt ons
Ġ< ![
ĠPl ugin
j ournal
re z
ĠBar ry
Ġd ocker
ĠV I
ĠSh ape
back up
)} (\
Map s
Ã¡ s
Ġtrans mit
Off ice
Ġprom ised
Process ing
ĠSpace watch
ĠMET H
re try
pr ises
sh ore
ĠMuslim s
R en
Ġsub mission
Ġcur r
Ġsp y
work ing
Ġspecial ized
Ġ ib
U ML
und ef
14 1
id ency
Ġrail road
Ġf iring
ĠS eq
T w
Ġshel ter
n ut
Contin ue
J im
ĠC old
ĠR s
ĠForm ula
B log
M el
ĠâĢ ł
not ag
sim ilar
Ġatt achment
Ġple asure
T urn
ĠMil an
Ġwind s
Ġwe ird
ster dam
Ġlimit ing
C s
ĠY u
Start ing
Ġm p
Ġa est
Ġ/** <
bl ast
Ġpure ly
ĠW u
ÐµÐ ´
Ġabort ion
al bum
ä¸ ª
ĠK ap
Ġaccept ance
So ft
Ġsurve ys
H uman
ent o
ĠNever theless
current Time
ĠB ud
Ġatt itude
Ġsec ured
Ġvar ies
min imum
ĠCirc le
Ġp ose
19 02
ad ic
Ġblock ing
Ġinflu ences
Ġsh ore
er ious
Ġvalid ity
à ®
P OL
m ine
Ġhappy Shift
ĠInd ians
) (\
b ash
Ġup dating
ĠComm ander
SER VICE
ĠCom plete
ĠE state
ow ell
$. }
Ġicon ic
$ '
Ġpop ulated
Ġ" {
comp any
Ġpregn ancy
ĠSol utions
ĠB ra
ĠM ix
ĠInf antry
y led
ĠD ialog
Ġanalyt ical
ps y
Ġr ice
ĠR ules
Ġess ay
lasg ow
Ġbank ing
ĠSpr ings
ĠMedit erranean
Ġsum m
ack ets
R o
Im plementation
Ġexpect s
c ritical
Ġlab our
g ie
w so
UM N
Ġpre vention
ĠSh im
() "
os hi
ĠAr c
Ġse aled
sc opy
]] ></
i ating
ĠT rophy
List View
ĠSaf ari
× ª
. (\
Ġre plic
Byte String
ĠP apers
Ġevery day
] <
Ġsound track
ĠD evelop
Ġdifferent ly
rot ate
aut hent
ĠCar lo
ĠV k
ĠE lection
Ġm ood
18 70
is Valid
map per
Ġch ron
Ġpl ates
Ã µ
ĠStr ateg
t ier
Le ave
Ġc ategor
R NA
\! \
Ap is
Ġharm onic
Ġseek s
vis ual
b az
amp ing
Ġfollow ers
Ġ[ âĢ¦]
ac ies
atern al
ĠC over
Ġgr ain
P reference
ĠPer iod
ss h
Ġim per
Config ure
add er
con tract
M ad
ĠGh ana
ĠB row
fe ction
B ooks
Ġacc ret
ĠFrame work
territ ory
Å Ļ
Min imum
Ġassum es
: =\
Ġsal ary
Ġcon clusions
ĠF er
P ull
ĠH im
Ġhun ting
;& #
Ġa pt
Ġobject ives
Sl ider
r ub
transp arent
Ġmin istry
G esture
Ent ities
Ġefficient ly
Ġf ut
Ġcomple ting
qu ake
ĠÃ ī
P B
ĠD raft
Ġre normal
Ġsuccess or
ers h
Ġhit ting
incinn ati
Rich ard
Ġbrows ers
Ġco ord
Ġinter cept
Ġd ish
le in
ĠVi enna
the ory
s nap
Per formance
M id
ocr atic
ĠP anel
ĠAll ow
ĠHigh er
Ġwarm ing
PF NGL
Ðµ Ð»
be havior
ack er
Ġo mitted
un ix
ĠF itz
back slash
ĠSet up
Null Exception
Ġrect angle
f ade
ĠV oice
ĠInt el
ç Ľ
ĠMet al
sp ired
Content Type
ynt hetic
Ġsold ier
Ġcontinuous ly
us hes
Ġex ponent
\ |\
e enth
Ġab b
k k
Ġt ube
em ark
Ġres igned
Ġinflu ential
ĠB U
Ġpra ised
Ġt orn
Ġf illing
ĠLINE AR
Observ able
% ),
ĠB asketball
qu ire
M igration
screens aver
H en
ä» ¶
it ize
Ġad verse
Ġcoll isions
11 11
ĠEth iop
Ġc atal
(" ")]
down arrow
ĠM ans
dash board
Ġo d
it les
Ġprefer ences
Ġpet ition
ĠWel sh
Ð ³
Ġd Ã©
IN F
ĠJ oint
P en
he ll
ĠF ocus
Ġj ail
ĠAgr iculture
ĠCO MP
Ġassert ion
ir s
Ġcon current
F atal
Ġins pect
In stant
Ġdro ps
lo ose
comm unity
ĠKar l
Util ities
Ġsp ir
Ġposter ior
TO KEN
ĠBuff alo
B ot
Ġass ass
ĠFl ash
Ġkin etic
Rel ationship
R M
15 7
B and
Ġep ic
Ġmed ieval
sh ops
ĠB B
Ġsh ops
ĠRoman ia
Dis c
Na N
per form
Ġcons iders
ĠLa ura
ĠCy ber
Render ing
ĠRob in
Wr ong
ĠF light
F ACE
Callback s
ĠW riter
Ġinfe ctions
Ġsusp ension
Ġbrilli ant
Ġj unction
AT IVE
Ġjoin s
Ġstop ping
for um
Ġt ent
rec ords
i ar
an ese
4 80
intend o
J P
ir able
Ġdefault Value
il ia
mod ern
ĠK ids
ĠR ural
Ġwith d
host name
text color
$\ ,
m other
io let
Ġprom ises
s ound
Con nected
SE C
ĠB right
Ġtw in
Ġquadr atic
Ġtreat ments
Ġwild life
Ġnormal ization
ĠAct or
{ (\
Ñ ī
ub a
Ġtum or
Ġc inema
Opt im
Ġstrugg ling
ag h
ĠMe chan
var rho
Ġde emed
In c
Ġo ps
Ġdepart ments
ĠWar ner
Ġlog ged
ĠEp isode
ĠR ico
node Type
ĠApp ly
border ed
erm ont
Ġr ings
B tn
Ġs cheduler
ĠA str
ĠF ollow
å ĩ
ĠI da
ĠOl iver
Further more
spec ified
Ġphil osoph
or ious
se ver
ĠV ik
Sup plier
ĠObserv able
define Property
Ġten ant
ĠØ ¨
t ies
Ġpolynomial s
ier ra
final s
Ġple ased
Ġcosm ological
n able
"> ,</
ĠSoc orro
CONT ENT
int egration
ĠE asy
Ġspher ical
Ġg em
Ġw ounded
Ġhe ap
Non Null
cknowled g
Ġ ))
Numer ic
Ġr hythm
Ġtrad itions
th ink
Ġfail ures
æľ ī
D X
ĠSe an
ĠT ournament
Ġdis pute
Ġactiv ated
m und
Ġrev ised
tr ight
ell ers
Ġcor related
s uggest
ĠP ointer
id ity
ĉĉĉ ĠĠĠ
Ġsynt hesis
ĠLu ke
Ġin cl
ĠT ru
pro j
Ġnumer ic
LE AN
VAR I
IFI ER
Ġf printf
un stable
Ġbro ader
Ġcontrovers y
Ġw ings
ĠUs ers
ĠSe pt
Ġt ear
/ ************************************************************************
ĠW ire
Ġnewsp apers
s burg
pl ating
Ġphot ons
L ondon
}{ *
ĠGL enum
Dec ode
k u
aj a
ĠH em
Ġin cent
ĠW r
Ġop am
Ġcomment ed
Ġre nd
ĠM OD
Ġc riterion
Ġf o
Ġwarn ed
ĠScient ific
ex c
Ġport ions
Ġconnect ivity
s olution
ĠP OST
document ation
Ġincred ibly
| _
ĠCom ple
Ġcle ared
Ġstation ary
w right
keyword s
h fill
Ġe cc
Ġqu as
Ġfoot age
ĠL ov
Ġprov incial
Ġag gressive
Mix in
Ġimpr ison
E nergy
20 8
des cr
ĠCons ervative
ĠMur phy
ĠS ony
Ġarrang ements
ĠValid ation
Ġr ally
F all
row ing
Ġexp enses
Or d
Ġgold en
Def ine
Ġz ones
Ġl iver
insert ion
âĢĿ )
Ġd uplicate
vet ica
Ġ iv
ĠN icol
ĠĠĠĠĠĠĠĠĠĠĠĠĠĠĠĠĠĠĠĠĠĠĠĠĠĠĠĠĠĠĠĠ ĠĠĠĠĠĠĠĠĠĠĠĠĠĠ
Âł Âł
ĠInter est
k ill
Ġf uck
Ġ ].
j ud
ĠM all
ĠK os
ĠCheck s
Se ason
Depend encies
Ġown s
Ġp ounds
ach i
type param
n ick
ĠGr an
ĠH H
Ġdir ty
ĠMe eting
ĠB UT
Ġ$ ('.
start ed
Ġc ognitive
Work space
ro c
D ark
M ont
en ue
hib ition
abul ary
Ġpick s
ĠV ery
Att ach
ed mo
ĠDr ug
f ive
ĠBet ter
Ġst olen
ĠQu arter
om at
Ġ' [
14 9
J ew
ĠS amsung
ond e
ĠCost a
then Return
p ine
+ }
A ge
hand lers
Ġanaly tics
Ġvacc ination
at trib
olec ular
ĠEag les
Ġo l
sub title
ĠCh anges
Ġh o
ĠHarr ison
Ġrest oration
det ect
ĠM es
Ġdiv ide
Ġpo ems
Ġtrail er
Ġa cknowledge
Ġinstrument al
ct ype
ĠJenn ifer
ĠC ome
il ateral
ĠC WE
ob server
ĠBrig ade
Ġnews letter
block quote
{ })
Ġemail s
ĠVin cent
ĠSh ared
ĠTrans form
s chool
Ġrom ance
Bal ance
Ġdeliver ing
REQ UI
Ġun stable
Ġport al
du al
Ġen orm
Ġalloc ate
d eleted
ĠC atherine
C ritical
ĠK irk
ob ar
sen al
j dbc
epend ence
Ġinvestig ations
C AT
S ym
s al
Ġcor rupt
ĠERR OR
Ġoptim ized
ĠCommun ist
Ġj ury
enc ia
18 98
Ġem otions
cel and
Ġprelim inary
Cred ential
ĠL arry
ri en
Ġprov es
ĠF if
ave led
Ġaccur ately
getElementsBy TagName
ĠB ird
M ON
PO SE
Japan ese
INTER N
sp here
mes h
ĠW rest
P a
ĠR isk
umul ative
CL IENT
Ġcert ified
Ġconf usion
es lint
rece ive
Ġl uck
cent ral
ĠM ack
") ),
Ġpoll ution
ĠD ES
ĠG PU
/ ?
Ð½ Ð¾
ĠW onder
ĠRober ts
ass y
as se
Ġcheck sum
Ġwalk s
ĠR at
Ġ{ :
G overnment
18 99
Ġdemonstr ates
E s
Ġcitiz en
x c
ĠT esla
Ġb onds
em in
=' #
Ðº Ð¸
ĠG host
Ġ] );
Ret ri
ĠC oin
y ml
DE C
Ġfast est
A st
Ġtr ap
un i
Hand lers
oc ities
)) {
al ways
Ġflex ibility
Ġf ulf
ĠF LA
Ġqual ifying
Ġl ifestyle
set Name
High light
as ia
Get Type
Ġc ere
ĠHel per
$ ^{
Ġres ume
ĠZ hang
S uggest
Ġ ));
ĠNov a
ec ca
, (
clos ing
ĠS eb
o ons
Ġs ans
3 30
Ġbelief s
Job s
Ġexec ut
Ġjav adoc
Dep artment
Cur ve
... ]
Ġsuggest ions
add itional
Ġw elfare
Ġh unt
am med
zer bai
Ġtempor arily
Ġent ers
ĠTransport ation
Ġre open
ĠE le
æ Ŀ
Ġch ances
ĠH AVE
Ġenthus i
Ġnom ination
ĠPh ysical
LE ASE
Ġqual ify
] ],
ĠW ing
Ġbr ut
ĠA SC
N s
ĠCommun ication
Ġexha ust
p el
Ġbehavi ors
ib lings
ĠMor ning
B ill
h n
k al
Ġbar rel
ish ops
Ġper pet
ĠGL int
ãĥ ³
ĠÎ ¼
Ġspec ifying
ĠDef ence
MLE lement
z ens
ÏĦ Î¿
ĠS oul
Pr im
ĠA w
ever se
Ġconvers ations
erm al
Ġcons olid
Ġback ed
Ġtrust ed
ĠJ erry
Ġsh allow
202 4
Ġinvent ory
ĠMon itor
ĠSt atic
ĠPer haps
Ġal arm
ab we
Â Ń
> *
="../ ..
aff e
Ġmer ch
e ing
in crement
Ġadm its
mult line
H ouse
Ġpo ison
ĠS ymph
x r
Ġver bose
State Exception
ĠThe me
Ï ī
ĠH ilbert
ular ity
ĠÃ ¢
Ġlog arith
Ġtom orrow
ew ay
RE L
Ġtra its
ĠF ake
> #
ĠM illion
M ULT
Ġfile Name
ĠSh ang
ĠH ER
k ed
Ġ è
Ar row
Ġvari ability
ham mad
ĠMad ison
azel cast
Ġaddress ing
ĠWeek ly
Ġpoll ing
ĠS uz
Ġpsych ological
Ġdev ast
ĠST AT
Ġcollect ing
ĠF ail
ĠSa fe
Dis covery
BE GIN
B as
Ġp id
has Next
up arrow
Ġsoph istic
ĠL ate
Ġr h
CL UD
Ġdiscrim ination
(( (
) ];
æ ŀ
ĠRel ations
Attr s
Ġl as
Ġph ones
im its
ĠL ux
| ^{
Z ip
ĠAut om
ul in
Ġn ose
Ġset Timeout
d atab
x t
Ġauthor ization
ar ial
Ġautom ated
Ä ħ
Ġhand ed
Dis patch
CLUD ING
ĠAlber ta
D TO
EX P
=" '
ĠB eck
ĠK i
ĠModel s
Ġsub div
ĠUp dated
ĠDi agnostic
^ (
be am
å Ĩ
28 0
Ġ* =
ĠSyntax Kind
R eb
Ġ nd
G reat
J ac
ĠEgypt ian
ĠAssoci ate
L ittle
Ġ* _
ex per
Ġaccret ion
ĠM ari
Ġemploy ers
o ys
Ġgr ace
SE L
ĠS urg
Ġoptim ize
r ain
Ġel abor
sp ons
ĠB order
"> '
Text Field
Ġd ol
is ch
Ġcou plings
Ġt anks
Ġ/*! <
ĠL ar
Ġam big
B IN
ag ar
Ġal ien
le ave
ĠG arc
ĠGu inea
ĠEnter prise
andid ates
Represent ation
20 5
orn s
ĠQu ick
Ġconst expr
) ',
Ind ia
Ð½ Ð¸
G LOBAL
ĠB urg
Hel pers
Ġtarget ing
cor ollary
red is
iz ar
d ims
Ġsm oke
ĠNaz i
x d
ĠEl se
ĠLem mon
Ġorig ins
R X
Ġc odec
ĠP I
im ity
Ġcomm em
") ).
Ġsur f
ĠLegisl ative
ĠK in
Ġimplement ations
Ġcontact s
ĠR ugby
Ġswe ep
OFF SET
N ORMAL
ĠS oph
Ġconf used
ĠFile s
Ġisol ation
Ġaf raid
ĠL ion
EQ UAL
imb abwe
Ġnormal ize
Ġm eg
ĠM IN
ĠInt egr
A MS
P ART
ĠCons umer
we ights
cl op
form ula
ĠAust rian
alt ies
% );
We ak
p ure
Doc s
sp ort
ĠG em
ĠOver all
Ġb ubble
Ġh ooks
Ġthick ness
ĠA bs
Ġqu otes
Work ing
tright arrow
ĠC itiz
ĠF eed
H a
Ġodd s
Ġg ri
H I
str ategy
go als
D K
W T
{ .
ĠSus an
ĠTig ers
R ock
ĠC V
Ġsurve illance
18 95
R F
text normal
ĠIran ian
DE SC
Ġcoal ition
Ġdyn asty
Th ird
Ġel ite
> =
em ployment
ĠH P
Ġminim ize
Ġgather ing
Ġpl acing
T witter
Ġlimit ation
Ġphys ician
Ġs q
Ġ* */
ĠP le
It alian
ãĤ Ĵ
Ġcon vey
ĠPlay ers
access or
User Agent
l iter
Ġdon ated
Dev ices
Ġal lies
ĠLie utenant
ed e
* (
ĠJ av
Ġdu o
Ġbe an
Ġmem brane
ST D
ĠMP s
Ġconv icted
ĠInitial ized
ĠL arge
ĠC ris
12 34
ide a
ĠExper ience
Ġ ):
ĠN HL
mem item
b readcr
d ied
k now
All ocation
K ar
Ġbe ating
St udio
Ġvir al
Ġcontext s
Ġcritic ized
}) (
cap acity
hab ilit
Ġm arch
Pos itive
Ġper ceived
Neg ative
is ible
ĠCO PY
Ignore Case
eval uate
IR ST
ĠB aby
Ġhon our
ĠNorm an
ĠWork ers
Ġlocal ity
ĠU int
Qu ote
âĸĪ âĸĪ
Ġdo zen
15 4
({ },
Ġb rew
Ġh istogram
ĠId entity
ĠS ans
() }
ADD RESS
st own
ĠG ay
CO PY
Ġden om
Fl ush
LOC AL
Ġin set
ĠCap itol
Ġaffect ing
auth ors
Ġd atabases
Ġ$ ^{
Writ ten
re load
Analy zer
Ġf t
Ġa u
R D
l ishes
F ixtures
Ġprotect ing
ĠRail road
un used
Ġvol atile
Component Model
14 8
Ġmon ument
Ð° Ð»
Ġscholar ship
ĠI con
F acebook
sm ooth
or f
Ġev t
ĠCom b
Ġbare ly
Ġcor por
Ġmot ivated
r ans
ex e
ĠGon z
7 68
ĠE instein
? ,
Ġconj unction
Ġfor um
ĠN ebraska
Ġoccur ring
e ctions
Ġel astic
hol m
ĠPod cast
}{ {\
Ġband width
s cheduler
U X
ÐµÐ ¼
itud inal
ĠInter view
Ġjuris diction
pre ced
Ġpul s
Des erial
mk dir
ĠG A
expand ed
ĠMETH OD
m eth
ĠBer keley
Ġalleged ly
N F
Ġgovern ed
S dk
P icture
sup erv
ĠLith uan
ut ative
ap k
Sm ith
00 7
14 2
Direct ive
re vision
ĠTh r
Ġdist inction
ĠEl li
Ġd uplic
View ById
Grad ient
cover age
Col ors
Cl osure
ar x
Ġjust ify
IS O
fo od
fold ing
Ġassess ed
Ġagre es
Ġg lobe
H i
Particip ant
Ġe leg
rupted Exception
ĠG lasgow
Ġconnect s
Ġr t
s ap
Cho ose
ĠK l
ĠCh at
Ġfire s
Ġal gebras
type Name
V ote
ĠTre as
Ġt il
ĠT ensor
"> "
ĠIn stit
ack ed
ĠArab ic
Match ers
bour g
Ġillustr ate
ĠA my
SP AN
C U
ĠTest ing
ĠFl ore
ĠEvery thing
umb ent
D ays
So ftware
20 6
). </
Fl at
Ġsus pected
Ġdist ant
Ġbo ards
CO RE
Ġund ers
4 000
Ġbacter ia
ĠHash Set
g al
ĠE M
Ġreprodu ce
CONT RO
D ead
Ġl ov
ĠOsc ar
node Name
od ash
G allery
Ġalleg ations
ĠPro test
Ġplot ted
Ġbur den
Ġf ade
r p
on ian
ĠCour se
Organ ization
) ");
con tr
p ause
ĠEmer gency
A verage
Ġnumer us
ĠCru z
S IL
ĠQ uality
ĠM ade
ĠW es
ĠAl ong
Ġp ause
ĠG rey
j p
ĠH indu
Ġsl ots
Ġspecial ist
am ine
Log ical
Ġirre ducible
Ġintegr ate
Ġac res
Ä Ļ
Ġcompet itors
get Parent
Ġelev ated
æ Ķ
ĠCirc uit
Ġcon e
air y
Ġseem ingly
Ġarchitect ural
Ġafter wards
ĠC B
n ear
ov an
ĠSong s
Ġprob abilities
ĠE ug
ĠM ason
Ġres c
Ġdes ktop
ĠEd wards
left arrow
am o
ĠType Error
Click Listener
ĠMult iple
ak ef
Ph ysics
Ġoccas ions
âĶĢ âĶĢ
2 12
00 3
j as
s qu
IP S
18 8
Ġwork shop
Ġdec ides
oper ating
Ġcompl aint
Ġconform al
- %
C AR
ĠL isa
$\ \
Ġmag azines
Ġdescri ptions
W IDTH
am pton
El se
Ġfoot er
ind a
min or
Ġn od
im eter
Ġth rew
Ġgovern ance
Ġh ab
ĠRich mond
ĠY e
Ġpregn ant
Ġsav ings
Ġv ic
ĠV lad
ĠC ob
ep he
Ġ[ -
ĠCl aim
Ġb eneath
Ġwe igh
Ġvolunte er
Â ±
Up dates
Ġfall en
D ele
Ġiter ate
um m
Ġan xiety
}) ^{
ĠM asters
aver age
Ġa sp
ĠG TEST
Ġte eth
ĠAir lines
ĠG M
ĠCont em
uls ion
Ġan ten
require s
ĠAthlet ic
ĠU E
ern ess
' ><
ing ing
ĠTri b
lic es
18 97
Ġro l
P AGE
w ifi
Ġcook ing
Ġselect ing
ĠAR M
Ġf ighter
15 6
c aster
Ġs ou
dr ive
class path
ĠW W
ĠNichol as
em ption
C ut
Ġelev ation
ĠCor p
Ġm os
First Name
Ġo m
I o
Ġisol ate
ĠJul ia
At omic
Ġan ger
Number Of
Ø ´
ĠG UI
22 2
Ġswitch ing
t wig
Table Name
Ġdig est
max imum
Ġspons ored
DE CL
ĠBatt alion
Ã Ł
ĠEx ternal
ĠObject s
ĠNep al
t ls
ĠB eth
Ġpre st
ĠEq s
ator ial
ĠForm er
ĠG olf
Ġres il
IG H
Ġv a
ĠJ ama
80 80
ĠPer u
åı ĸ
Ġs isters
}$ \
Ġintrodu ces
Ġm amm
Ġsum mit
Ġmar ry
Symbol s
ĠCo ach
ĠRe ports
Ġf ed
author ized
Ġc ad
Ġscal ed
ta wa
18 60
Ġad mission
read able
t odo
Ġa uction
al og
U tility
rot ation
al ter
ĠSh aw
On Search
cho ose
Ġrep lied
Ġaw esome
Enumer ator
Y ES
ĠL ayer
Ġcont rolling
g ro
ĠT on
Ġk iss
Ġme al
size i
Ġcluster ing
alloc ate
b uffers
Ġcos mic
ĠGener ation
Ġun clear
eng u
Ġbl ame
ari ans
Compar ator
Ġrel ay
ĠRem ember
Ġaccompany ing
}. }
ĠJ ar
Ġnew er
Ġu uid
Ġamplit udes
Mod ify
Key words
ut ton
0 10
Ð¾ ÑĤ
O RE
oc co
Ġcon ce
Ġover head
Dan iel
Ġback ward
Spec ific
LA S
Ġdro ve
in ced
Ġre lies
Ġplan es
Ġoccurre nce
r ides
SY S
man ual
Ġh ur
ĠQu estion
Rect angle
ach ers
GL uint
Cal c
\ [\
15 8
2 32
ĠS alt
amb ling
Sl ide
Ad just
writ ers
ĠCh and
Ġquarter back
ĠĠĠĠĠĠĠĠĠĠĠĠĠĠĠĠĠĠĠĠĠĠĠĠĠĠĠĠĠĠĠĠ ĠĠĠĠĠĠĠĠĠĠĠĠĠĠĠĠ
Ġmer chant
ĠD ynamic
Ġextra ordinary
åľ ¨
ĠCom merce
l ant
ĠAb u
Ġunit ary
d an
Ġappro ached
di agram
O VER
EN SION
writ eln
ol er
Ġapprox im
g age
Ġlo ose
v t
ĠA CT
ĠInvest ment
j ab
AP PLICATION
Ġtal ented
inst ances
18 96
ĠSk ip
ĠM ong
@ @
Ġthrow ing
Ġcontr ary
iat ric
S pl
br ains
s entry
Ġr itual
Al ready
ĠLi u
y u
Ġreg isters
ĠO B
Ġl hs
contrib s
Ġter rible
iz za
Ġstri king
ĠGr ade
> ",
Ġin ev
ĠP ra
Ġinf ected
Ġfood s
TR ACE
ì Ŀ
or ia
Ġun s
Ġsubstantial ly
ĠGi ants
ĠCall back
Ġtox ic
Ġpress ed
Ġmob ility
Ġgeneral ization
Ġtrail ing
v ik
con sumer
Ġimm igrants
' })
+ $
Ġad equate
ĠPier re
Ġon Click
Ġfilter ing
FIL TER
Ġt ours
el o
Ġc argo
le ad
================ ========
ĠRE G
CA SE
19 3
char At
umb ai
ĠNE W
Ġw age
ble ms
Ġgr ave
Ġuniqu ely
ĠDis covery
Ġman ages
ĠVari able
Ġexplos ion
Ġact ed
focus ed
ĠW IN
ĠHung arian
B IND
Ġball ot
Polit ical
B ay
add y
sole te
Ġ\ [
Ġlett ing
= */
Å Ħ
en es
ĠE R
Ġrem arks
ĠCamp us
ist le
ĠB ir
Sh op
,... ,
perm issions
normal ize
r age
Ġinf ect
ĠU ri
m ong
ley ball
FO UND
FE ATURE
INTERN AL
' ",
Ġd os
Out Of
ist ency
é ¡
ST REAM
ĠStr ong
in cre
ro ach
m igr
Byte Buffer
dis c
Or Empty
Cent ral
il inx
ĠK ash
oth ic
h aw
16 7
ĠRog ers
ur bed
ĠS election
parent s
Build ing
ĠSche dule
Comm unity
Ġexhib its
om eters
end um
ace ae
ĠChel sea
!! !!
ĠProduct s
r hs
Ġst unning
Ġstay ing
Ġachiev ing
ĠBapt ist
ÑĨ Ð¸
is EqualTo
le f
L ove
Ġplay offs
Ġreli ability
50 1
eg ral
ĠK id
ĠY am
rece ived
att achment
ĠG OP
ĠÎ ±
7 20
Ġgr ateful
ĠD S
C ourse
l c
T s
d yn
ĠC ertificate
ie u
wik ipedia
Ġk iller
oid al
Ġl ady
Ġfall back
ĠArray s
ĠB achelor
Ġan isot
ĠU SS
W ay
Ġass ists
Ġh ung
Ġelect oral
Ġtw ist
ĠU INT
ĠP F
oll ar
bol ic
' ></
t alk
ull ivan
Germ any
ĠAn imation
Ġpro position
apeut ic
Ġd ying
cr im
Print f
m ixed
che l
mat ory
Ġcop per
Ġinfin ity
d ns
CLU DE
od ium
Ġy ard
Sample s
akes pe
re start
æĹ ¶
ĠTh under
Ġboot strap
E scape
Ġr ated
G edmo
ethe less
Bo ard
e asy
Comm un
Ġun used
cur ve
Ġwork place
Lear n
D IV
Ġind igenous
ĠAd min
Ġplan ets
S uffix
Comp atible
å ½
ib us
w oman
Ġsub tle
. {
Ġc d
k ers
:// $
à¥ į
ĠB irth
t u
ĠE S
und o
Ġland ed
Ġnegot iations
l ift
D eleted
ific ant
ĠEm pty
ç½ ®
E F
ĠO m
ME DI
sql ite
Ra ises
Git Hub
ĠMaterial s
bo ys
ĠAlex and
g d
ĠR achel
Ġfriend ship
OUT PUT
Ġthe at
Ġrecip ients
Ġb alls
ĠR uby
Ġeconom ics
Ġtri bute
P ORTED
um ble
Ġsql ite
ĠS ometimes
ort on
ION S
M ary
Ġprem iere
pot ential
Mar shal
à¤ °
Ġtoler ance
Ch ris
ling ton
ĠFle et
S yn
Di agnostic
ĠD ol
ĠD WORD
Ġan omal
è ¦
ĠT ik
Dem o
Â ½
H W
ret ty
inherit doc
ĠJos Ã©
ĠB arr
be hav
Ġachiev ement
Ġcapt ion
Ġtri ps
system s
ix on
ĠK umar
Ġdes erial
ro uting
Ġch rome
Ġfun ctor
on c
Ï Į
ĠWat son
Ġaccommod ate
Ġsc iences
an che
Is rael
sp y
Ġinst ability
Ġle ak
= _
1 200
ĠC ad
Ġmat hematics
Ġsure ly
' ',
Ġactress es
Ġen force
ens on
ĠInd igenous
Ġnorth west
Ġsports people
ĠL en
( ',
c riteria
eb ox
ĠPract ice
ĠCons ervation
Ġelse if
Ġnom ine
P ing
g allery
Serial ized
Ġdraw s
UB LE
ic z
ĠR C
E MPTY
un ting
ost ream
Ġsust ained
Ġ ~\
aur ant
ĠCh a
Ġvar s
Î ¬
Ġfiction al
rece iver
S ens
Get Value
sat isf
C ACHE
Ġsub space
ĠM R
Ġtr aveled
ĠV ision
Ġatmosp heric
ĠR ivers
te es
Lin ux
Ġret ro
Ġsus cept
UNK NOWN
Ġpres cription
Ġvari eties
Ġgot ten
}{ }
Last Name
Ġcred ited
Ġterr itories
ĠL it
Char les
Trans actions
Ġestim ator
ĠB eyond
ict ions
DEF IN
T own
In crement
D igital
A ws
t om
user Id
ĠS ax
val ued
Int egration
Ġconv inced
ä¸ į
Ġansw ered
Ġim pression
Ġbro ker
ĠMin i
S PI
em ia
ic acy
ĠW alt
Ġdiscipl ine
Ġsear ches
B UT
Ġl ymph
In side
\ .
un ate
ĠOrth odox
ed ges
ĠB ug
Ġext ensively
ĠCart esian
are l
17 6
Ã³ w
Ġaccompl ished
Ġlo ans
W ITH
EX CEPT
control led
Ġn erv
im ony
Ar c
ĠP erry
Tr ust
Ġe ager
Ġtim eline
ĠT IME
ĠM otion
Ġread ily
ĠDom ain
=\ {
Ġt une
Str ict
; :
ic ht
P TR
anc ers
Ġa z
Ġg onna
ĠG ra
r ss
Ġmark ers
ĠFant asy
ĠAm sterdam
ĠB A
up iter
Q T
match er
publish er
tt ify
Ġident ifies
h m
Ġan notations
Writ able
Ġs its
ir atory
th lete
Ġevery body
ĠMov ies
p ix
Ġpre dominant
c in
Ġ{ !
Ġc oding
Ġ' --
. ')
ĠN ancy
Ġc ave
n od
eq z
15 9
18 5
ett i
ĠNash ville
x b
ĠP D
Ġdis ability
Re ception
ĠM ER
With in
single ton
Ġt abs
Ġre ceptor
ĠH alf
Ġclean ing
Ġtrav ers
Ġton ight
ĠH ob
Ġdiscuss ing
AB C
pl aces
Pub Key
MO VE
inem atic
ĠM ouse
N an
v b
Circ le
ĠSt evens
D to
hes es
Ġor bits
ĠBeng al
ĠA round
ĠFish er
ĠB L
ĠHor se
Ġs ake
ĠEx cell
Ġb a
ĠGit Hub
CP P
') [
Ġmillis econds
Ġrecommend ation
ME TA
Request ed
ĠCat hedral
ĠI van
At Index
Ġbar riers
SE SSION
PRE SS
Ġfoss il
ĠAl pha
Ġstep ped
ĠG B
Ġs ep
Ġst upid
ĠB orn
Pr iv
akespe are
ĠC lay
Ġrel ate
arn ess
ĠPlan et
Ġc ryst
sc apes
Ġaud it
fol k
ee per
Ch rome
Z Z
ext ended
Ġsurre nder
Ġdef ending
E conom
Ġexp ense
ĠS aints
r ific
DIS ABLE
Ġt c
ĠG overn
ĠL ud
Ġaccompl ish
id y
Ġfinal s
flu ence
r ac
Ġstruct ured
Ġmyst erious
def n
V ersions
Ġarr ives
ord ion
Ġhard ly
Ðµ Ñģ
Ġload s
AL LOW
associ ated
C urrency
AR GS
xx xx
ï¼ ļ
ĠF ace
Ġra ises
15 3
ĠFr ances
ãģ Ļ
S us
Ġdesign ers
Ġb ol
Ġ[ (
Ġh i
ub le
× ¨
ug osl
Ġdiab etes
Ġarg c
Ġn ights
um i
Ġlock down
rele vant
root Scope
Ġc ele
ĠAPI s
b ib
nt z
Ġcro ps
Ġdismiss ed
ep per
Ġeditor ial
ĠV as
ish a
Ġtri be
Ġins pection
ĠEd it
ro les
her its
ess a
ï ¬
ij i
Des criptors
/ :
ex change
Comp ile
Ġb uffers
ĠWe ather
40 3
Prov ince
mention ed
m otion
ĠTo o
Thread s
ĠSh ip
iz ational
Ġsil ence
m iral
di ag
Ġcour tesy
Ġacknowled ged
ĠG lass
ĠC incinnati
ĠEm ily
SH OT
Ġe ighth
18 50
log s
Ġge omet
u o
Ġl apt
ĠT un
S ongs
ĠV A
Ġun ions
Ġf ate
ĠR angers
s uffix
w ear
ar an
Ġline up
ĠN ear
Ġbo ats
Ġj er
ĠMar io
Ġtool tip
Ġbel t
st ad
el ia
Com puter
>: ]<
ev ille
ĠBut ler
GL enum
Ġcam ps
text up
Direct or
Ġe gg
Ġexceed s
ĠM end
Ġbal anced
ĠM ann
ĠLet ter
found er
constr aints
ĠS occer
ak ov
ĠB our
M Y
18 85
Ġt v
Can ada
ĠAn alytics
b ishop
Ġ` --
Ġv i
ĠG rowth
p ane
Ġresource GroupName
an ian
Ġident ities
ĠRE ST
Ġlob by
Ð¾Ð ±
L IMIT
Ġb ay
Ġfarm ing
Inf os
l ater
Ġcab inet
Ġmin isters
Sh ard
B G
F ort
ot yp
ĠU TF
pro ach
aw ait
Ġcomple tes
small skip
SET T
jet brains
Gener ation
ĠCo hen
] /
] ^
Ġf iscal
res olver
rec ip
J ose
form atter
ĠSer ge
ĠWAR NING
Ġpreced ing
ĠP UR
effect s
Re plication
Ġspeed s
Ġshe ar
math comp
h ooks
6 55
Ġut ter
Aggreg ate
Î ®
ĠMus k
*} [
A IL
Tr acing
CK S
\, {\
Ġadvoc ate
Ġdecor ated
t ap
ĠGuard ian
ĠB ass
Pro position
ĠA DD
Ġfun eral
Ġ( &
________ ________
log y
b urst
olog ic
ĠTreat ment
Ġoverse as
Ġanticip ated
Ġadminister ed
ĠPar ish
Ġsw ift
m ile
ag ic
f illed
Ġrel oc
Ġpresent ing
Ġjudg ment
ĠHeb rew
ĠNAT O
sp lice
Ġres ize
ĠMont ana
ref s
Ġformat ted
Ġfl our
et ched
om aly
Ġinn ings
u ition
ĠCh i
initial ized
Fat alf
op al
Ġart work
Track ing
ounc ill
Ġdial ect
T CP
if etime
Ġearn ings
18 93
Ġdot ted
v k
Ġhad n
ĠPy Object
Or g
Ġare na
Ġmind s
g ol
ĠT erry
Ġp ink
18 88
est im
S eed
Ġmethod ology
ĠB og
S olution
Ġj ournals
ic ating
ĠN athan
sh utdown
ĠNe il
text sf
LE T
at z
M gr
16 2
al am
Ġn m
U uid
18 7
Ð°Ð½ Ð¸
Ġ* (
repe ated
ĠK il
ĠAl ways
F K
in ja
Eval uation
ent e
ĠC ou
ĠI Enumerable
Ġ"\ "
aceut ical
ĠCh oice
30 8
Con trib
ĠTr uth
ĠAn im
in ely
ĠIn cre
Ġend points
'] [
h ort
Ġob sc
Ġch ap
Ġcompos ers
Ġr v
Ġbl end
Ġpract ition
Ġair line
Ġv endor
Ġd ad
ĠR ou
PE G
ĠC ox
fore ign
ĠMe asure
Ġent ert
Ġconstr ained
Ġ Ñĥ
semb les
ĠN amed
i oc
Ġmake up
with in
I OS
ĠM ine
pro logue
bar rel
CON TEXT
Ġlegend ary
ĠM agn
ĠL ooks
ĠContem porary
ĠTr ain
Ġ[] *
Ġdiss ip
ĠT ib
Publish er
ack ing
:: _
Ġstock s
ĠColon el
ĠY ellow
ĠSp ark
ĠÂ ±
ch ing
ĠÐ½ Ð°
Ġdr ain
Ġneur ons
ch ars
19 4
Ġar ises
ĠS ort
ĠUs age
Ġg aps
U tf
if s
ĠLine ar
Ġdest ruct
">< ![
au kee
Ex act
Ã ī
ĠUp dates
_ ),
f on
Ġle ase
Ar n
r ise
ĠDi amond
mock ito
am matory
18 89
Ġful fill
Not ice
US B
Ġinvestig ating
Ġviol in
Tool tip
in ology
:: ~
Gr and
ĠMah ar
Ġa ster
} <
)) :
Ġadv ances
land o
P rem
ĠPr im
LOC ATION
Ġf led
S everal
Ġs orry
18 92
Ġge odes
Ġsimpl ified
DA O
istribut ions
Ġl ingu
ĠEqu ation
Ġang ry
Ð½ Ð°
Ġtrad ed
ĠTrans fer
Ġpremier ed
Ġplay off
ĠE ff
Ġtrans ient
ĠLa unch
Mut ex
F re
æį ®
F lex
Ġs hed
prov ided
ĠPut in
L atest
Ġsw iper
Ġsk i
ĠK ill
ĠLu is
get Node
ro ject
PRO G
ĠF act
mid rule
ch r
mar ine
ĠC ant
Ġph on
Ġc oc
ad vert
Ġg amma
ĠConf eder
WIN DO
port let
ĠAl t
ierarch ical
B roadcast
Ġm im
ĠStan ford
ĠBro ther
ond o
Tr ump
l ar
d up
Ġvel ocities
Ġdoub les
ĠCl are
mon ary
ĠAssoci ated
S ir
Ġquant itative
ĠF u
ĠE ld
Tr im
To o
Ph ys
Ġstar red
S NAP
s uite
ĠB S
Ġout s
Dis pose
Ġval ued
Ġanalog ous
ĠL loyd
Ġcomment ary
Ġsouth west
ĠR ET
Sh utdown
Ġcheck point
ne z
Ġtrans mitted
ĠSt ef
ĠL ions
Ġlic enses
ynt hesis
pat ient
Ġnav al
] "
start sWith
Sort ed
ĠTool s
FAIL URE
param ref
ĠAb raham
St amp
Ġspac etime
ĠS ync
Ġconduct ing
ĠExec ute
ĠH orn
Ġl ucky
Ġdig its
ĠU UID
Ġguitar ist
Ġindex es
v d
Ġprevent ing
Ġfro zen
i NdEx
o ard
ĠAnt ar
ĠVictor ian
) <
pred icate
odynam ic
Ġpro spect
Ġconstitu ency
Ġle ver
Ġindex ed
Con nections
Ġwork force
ah an
Ġhar ass
d ashed
h ydro
Ġsub t
Ġbank rupt
Ġpe oples
ĠFil ms
Fin ish
ĠP ent
Ġconsider ably
Ġsh aped
Ġcous in
Ġl ig
ĠM UST
ber ger
ĠSum mit
È Ļ
hand ed
reg istration
ĠInt ent
Ġip ut
agon ist
P rior
Char Field
ĠDr iver
ER O
SE D
ĠDer by
As String
mid t
ĠMu hammad
ST M
ĠH ousing
ĠâĢ Ŀ
Ġcor ners
Ġd ys
Ġd ining
ĠCor ollary
ĠPo isson
Mean while
ĠI celand
ĠCond ition
% ">
r ust
Ġbound ing
Ġfil med
ĠM ask
â Ĩ
\| _
im i
ĠT S
ĠBr istol
Pl ugins
Build ings
Ġr pc
ĠSo on
FI X
ĠWild life
J et
ĠW idget
vers ation
2 33
id le
Ġexecut ives
U kr
ĠR ate
IN X
Ġnation wide
ĠJeff erson
Ġinteract ing
Ġartifact s
) _{\
p it
in el
Ġther ap
Ġ[ &
ĠSc i
$ }}
Ġcent res
Ġar ising
stit u
ĠX box
Ġcoll apsed
ĠHe avy
Initial izer
Ġ ------------------------------------------------
Ġcan nab
CT RL
Ġ" *
J av
source forge
Ġassert False
Ġwhe els
ĠR av
ĠM ED
Ġtele phone
im on
5 50
Ġrad ar
Ġor chestra
Ġenorm ous
+ '
ĠCub a
incor porated
s ix
>{ @
18 65
ĠAm endment
r g
Ch ars
ĠSymph ony
Ġbr idges
BU F
ĠUn ity
Ġyoung est
Ġbenef icial
Ġalter ed
bin om
Ġ[ `
cpp mud
ĠS or
Ġstri kes
C AN
18 94
ĠZ imbabwe
ap prop
ĠDefault s
Ġ/// <
Ġphenomen a
ĠM aps
ĠCr iminal
Ġco herent
dev ices
Ġs z
Ġgu ided
gom ery
In herited
amb ers
Ġdeb uted
ĠBu ilt
ĠColomb ia
p ow
mat ched
Ġs f
b rowse
ĠSpec ifically
Ġsh rink
anc ies
Ġcond ens
Ð¾Ð º
Ġharm on
ĠSerb ia
ĠM om
ceed ed
scal atest
ital ic
n orth
ĠPhilli ps
tr action
Ġbul let
Ġadv ised
6666 66
ĠO w
Ġmem o
ĠWell s
ĠN J
ra ils
LI ED
Ġstr len
Ð¾Ð ³
ĠFerm i
Ġp kg
Ġincor porate
y t
act ivation
Ġnot ifications
Ġwant ing
M ur
ĠHel en
Ġele ven
x hr
Spec ify
clean up
W O
Ġt m
Ä Ľ
á º
ĠF R
18 91
ĠReg Exp
Ġinternational ly
Ġox id
p ark
ĠCare er
Ġcal ibration
ĠF an
Ġan not
ĠDe al
W hether
17 2
ĠT odd
heim er
l azy
ĠTh an
ĠP ER
ir q
ess ors
Ġcur riculum
Let ter
ĠK el
Ġpr ayer
MA IL
Ġw orn
Ġb ishop
Ġmot ivation
ch air
Ġcomp ressed
eg al
Ġb uff
Ġpoor ly
asm ine
ä ¼
ĠBes ides
ch ip
assert Raises
Buffer ed
M AT
Op acity
Ġconfirm ation
Ġsophistic ated
F old
Ġprop ri
ĠW ag
ĠA ve
track er
Ins pector
âĢ ³
loc ations
Ġcal m
ĠMar shal
Pl ain
AN Y
Ġ ^{\
ĠComp anies
ĠBer g
ĠLiber ty
Ġe y
Ġeval uating
Ġsim pler
ï ¸
"> )</
Ġsever ity
D NS
ĠAll ah
Ġax es
18 68
w at
ant is
j b
Ġmut ation
re pos
\ },
Ġcontin uation
h ls
w aukee
Ġok ay
v or
ĠD MA
ad vant
ĠE ston
Ġed itors
Ġencour aging
K K
Ġun a
ĠÃ Ĺ
à¥ ĩ
Ch inese
Ġcontrib utors
Rem oved
Ġrele asing
ĠBen ef
Ġhum or
Poly gon
am ation
ĠBat man
Ġb er
Ġdec oder
Ġportr ay
ĠĠĠĠĠĠĠ Ċ
16 4
Ġconsider ations
Ġmin eral
est imate
23 4
ĠR iemann
sp arse
ĠYork shire
Ġrock et
ult an
Def initions
Austral ia
Repe at
ĠE ve
ĠG NU
ass ignment
Ġint elligent
vir t
R anges
Ġn umpy
Ġwor ried
Ġaltern atives
3333 3333
h ive
Th umb
Ġsur ge
b rit
St ock
ĠDel aware
Ġfre ely
J on
Ġk nee
Ġprogram mes
ĠN FT
Ġun changed
ced es
Ch apter
ä¸ º
unt ary
Ġattend ance
orne ys
< '
is b
Ġl n
18 2
Ġtour ist
r ases
v v
W il
Å Ľ
Ġexperi encing
00 4
Ġcontin uity
Ġn u
Con sum
To Array
Ġwav ef
Ġ ë
m eter
ĠN om
Ġbott le
G I
Ġfest ivals
A mb
und a
Ġ'/ '
è ¨
M ike
ĠLIMIT ED
com fort
ĠInd ies
ĠVal ent
"" ""
cell s
18 61
Ġs word
Ġli ability
l ighter
FUN C
the se
ĠN intendo
Ġmetab ol
ĠG len
atern ion
=-=- =-=-
At om
Ġ\ }
ĠM aking
. #
å ¾
Ġclass room
ĠAss ume
Pack ages
cite alt
uch i
Dir ty
\ }.
EM ENT
ĠBi ology
ĠT ouch
int age
ĠAt hens
) ](
ĠV ict
ĠOtt oman
con scious
Fr ance
Address es
Ġcompl aints
n f
Ġcomp ass
ĠIniti ative
23 5
ĠS ah
ĠC elt
Ġf lip
Ġlocal ization
ĠSal v
Ġeigen value
Ġrec ursive
ĠN ak
Ġimportant ly
Install ation
fil m
Ġsurv iving
Ġde ce
ĠCar r
Ġvan ishes
ten ant
uch y
Ġ$ <
ĠG ive
est rian
ĠMan ufact
N othing
EX PECT
R oles
Sp anish
Ġjournal ism
ĠD ifferent
Ġear ning
ĠResp ons
Ġd ancing
Ġal liance
el if
ĠR an
ĠMark ov
Ġres erves
Sw ap
ĠUn supported
ĠQ atar
Ġremember ed
Ġred und
x FF
Ġm anga
St e
Ġdec ays
00 8
H aving
dig est
re ng
Ġ' ;
d ed
en za
Ġg am
ĠB SD
ĠD istribution
Ġpost ing
Rest ore
× ľ
Ġg ateway
ĠS PE
Ġ# [
ĠOr d
ĠS uite
ĠPro blem
Ġimport s
Ġsett le
ĠPark s
Ġutil ized
Tr ansp
Ġthe sis
Ġdiff ers
) }$.
ĠThrow able
ĠCatalog ue
Ġinstitution al
x a
Ġper f
Ġem power
ĠSpec ifies
Ġh ire
l ov
Ġhe aling
Sub scribe
Ġgard ens
Ð ¡
Ġdel ivers
com puter
Ġgenu ine
ĠT D
Ġtransp arency
H istogram
pe x
ĠB ath
ĠO ri
Ġcrypt oc
d evelopment
Ġp ian
Ġswit ched
CUR RENT
r w
Ï Ĩ
Rep ublic
> {{
iz a
ĠCon sequently
60 1
Ġg ig
Ġattack ing
Ġc ats
ro utes
mid i
ĠA zerbai
act ing
"> {{
ĠPart icip
} ',
Ġre nown
Ġrecon c
Ġf av
}^{ +
Ġb uses
Qu ota
Hash Set
ĠFunction s
is olate
Trans late
con cept
az i
ĠL ists
eg an
tr ip
ĠB uch
ose x
parse Int
ĠArch itect
ĠCam eron
Ġsmart phone
A H
pro per
Ġâ ĪĴ
ĠC amb
é Ĺ
Ġobserv ational
Ġbusiness man
m or
ib e
ator ies
ĠEx port
IF ICATION
Ġj ets
Ġweak ly
Ġutil ize
ĠC UR
fl are
re search
Ġbright ness
Ġp ig
Ġinter sect
eg ree
col lections
ĠLe o
ent ric
udd y
: ",
Ġst reak
Ġprec ip
ancell or
Ġen compass
\, ,
ĠFor ward
Ġround ed
Ġsample d
Ġphotograph er
ĠAdvis ory
Ġsh ar
Ġtransl ations
Ġ ----------------
Ġre interpret
Ad s
Ġlaun ches
comp atible
W ed
b ur
h c
Ġmain tains
Ġinternal ly
& =\
add All
filter ed
F und
ĠIn side
Ġlaunch ing
Ġpsych ology
av an
ĠCH AR
Ġrelax ation
rott le
w ang
Ġc ores
Ġarr iving
Ġburn ed
Ġweak ness
Ġrac ism
Ag ain
Ġconstitution al
Ġst ret
ĠV ER
nol imits
LA ST
Ġneighbor ing
Ġdeform ation
W all
v ect
Ġf ingers
ĠR ena
Ġ? ?
Ġtrack er
ĠDir ac
exec utor
] ):
) !
K n
Ġtr ait
S ar
is dom
ĠC amera
li pped
ĠK ol
Lock ed
Out come
Ġmanufact ured
Ġ= =====
ten ess
B uffers
16 3
But tons
Ġin complete
Ġre write
D am
Ġorgan ised
te in
ON ENT
cipl inary
re comm
Ġvar char
Ġcor rel
Ġserial ize
ĠS ter
Ġinc idence
prom pt
q t
Ġaux iliary
N ear
Î ¸
}[ !
Ġviol ations
ĠAv iation
Ġlast ed
Ġtr acing
Ġpack ets
status Code
Enc ryption
Ġsup pressed
Sec ure
Ġ<!-- [
Ġimag inary
Ġsu ck
be it
Ġreserv oir
n ets
Ġco at
ĠSch w
ycl ing
ĠM ul
seud o
ert y
ĠUn known
LO T
v skip
ĠIda ho
Ġ\ {\
ins ky
Ġact ivate
ĠMet adata
ĠN g
Ġtr aces
Ġx hr
ĠF at
form al
Ġsign atures
| _{\
f eld
l st
ĠN GC
pack ed
ym orph
Ġmer c
Ġdiagn osed
g pu
Ġparticip ant
E U
ast rop
Ġpl ug
Non null
Ġdirect ories
Ġfin ancing
os i
uss els
Ġ ub
ON Y
Ġcon greg
K HR
Ġcomp ly
nold s
Adv anced
Foreign Key
ount ers
Ġass isted
P ot
Value Type
Ġcompar isons
us a
SP H
Hash Code
Am ong
Ġclip board
US H
ĠC AN
Ġ} }</
ĠChristian ity
ĠL an
ol ation
m ind
he nd
\ ",
Ġelect romagnetic
; "><
as ive
Rec ogn
Ġrid ic
}} ,\
ick ed
sort ed
h all
get Int
Ġtechn ological
B bb
Ġp ale
Ġcollabor ative
Ġcha os
ĠFinn ish
f h
Ġcol ours
Ġmed ic
assert That
CO VID
ĠJul ian
Ġvalid ator
Ġreg ener
ore sc
ĠT IM
Ġcivil ian
CHAN NEL
ĠA ncient
Ġconsum ed
ĠTy ler
45 6
ĠV ic
et riz
ĠIs aac
ĠHealth care
Ġc pu
}) =\
any on
Ġd ans
ĠH RESULT
lic h
é Ļ
ĠMun ich
Ġlink ing
Sp y
De ploy
ele t
Ġexhib ited
12345 67
Ġsent enced
W P
at ra
Text Box
~~~~~~~~ ~~~~~~~~
Gu ard
ĠB T
**************** ********
Ġmorph ism
od i
adi ents
Ġmatch er
P aper
Ġdistinct ive
Ġmurder ed
Ġprof its
Ġdemand ing
A RE
ĠP icture
ĠB ald
C andidate
In vest
(' -
key board
Exception s
Ġimprov es
L azy
Ġob l
Ġsent ences
ic ast
ĠCh ain
rel ax
ĠF unc
N ick
Ġconsum e
ra is
\ ">
ĠPar ser
ĠBy tes
inter est
r ass
Ġmulti plication
Ġbatt les
ĠT ang
Ġev ac
Ġis omorphic
print s
Spec ification
Exp atriate
ĠFa ith
N AS
ut a
ab ort
Ð° ÑĢ
d ac
Ġhom eless
ĠT ell
Ġless on
SV G
to Array
ĠF oo
å ¹
ĠG ene
Ġind oor
ĠPhil osophy
Ġp as
Ġex terior
Propag ation
U IT
f ixture
Ġcontrib utor
Ġam ateur
Ġ( .
Ġen rolled
level s
ĉĉĉ čĊ
Ġen velope
Ġrefuge es
Ġsl ower
Assert ion
ACT IVE
h istor
Ġsh ader
Ġcru ise
Ġguarant ees
s af
ĠHis panic
ch anging
m ob
ĠV R
ĠS ame
Ġsh it
m v
Ġm utable
Ġcomb ines
;\ ;
M ime
Inter faces
Ġrecogn ised
Ġ*/ ;
Ġfasc inating
Ġdrop down
ĠD rama
++ ]
Ġcap ac
ãĤ ĭ
Ġs printf
ed ing
ag le
ere k
è §
18 87
Ġnob ody
G od
Ġattr action
Ġfeed ing
Ġstake holders
, &
ĠCom mercial
Ġsegment ation
= -\
man ifold
Ġmap per
Ġnom inations
ing o
aval ry
Ġsh ield
Ġdro pping
Ġwealth y
er als
ac i
c lo
Ġconcentr ated
bound ary
Ġc ord
ĠSh akespeare
Ġmet aph
ĠWik ipedia
Ġs sl
30 2
play ing
>> >
ĠD at
User Id
ĠD yn
ij k
IM ARY
Ġproduct ivity
Ġre build
ĠProp Types
ss f
Loc ations
T our
Ġsh ame
elect ron
Ġv in
ĠD ennis
Ġexpect ing
f ork
Ġthr iller
ĠPalest inian
Ġoverwhel ming
it he
Ġl un
ĠE mb
Ġattr actions
//////////////////////////////////////////////////////////////// ////////
Tem plates
ĠSc ar
DA Y
26 2
ut ility
ĠC ert
inc eton
cat Desc
æ Ń
ĠN y
ĠInd ividual
St roke
ĠS plit
ĠSo ft
ĠEm ma
m and
er ie
Ġw are
Ġ' ');
luc ene
Ġstat ue
M otion
ad j
Ġlif ted
v ance
Ġres ist
Mar shaller
/ ,
ĠK yle
ol lo
ur as
ĠDub ai
6 50
24 5
Ġv ig
ĠN urs
Ġexpl ores
W ashington
Ġchalleng ed
Ġqu ota
Ġw ore
ĠN V
ĠAr nold
Ġsoci eties
Ġmark up
ãĤ ¹
> ");
A ust
ĠC ounter
un safe
ĠRe ed
Ġtri bes
Ġexpl aining
ĉ ĠĠĠĠĠĠĠĠĠĠĠĠĠĠĠ
ĠSpe aker
B inder
ĠS old
Pro b
Ġsub section
Heading Color
cor ner
Ġsubsid iary
PHP Excel
claim er
s outh
Ġspread ing
thumb nail
Ġw ishes
ĠO thers
Ġportr ayed
ĠV K
Ġtraject ories
C ook
_{ +
Index Of
^* _
ĠB atch
Ġher oes
Record ed
Ġh anging
Ġn est
Ġhon ors
Ġtra uma
Ġcon spiracy
og g
l v
Cor rect
A cknowledg
ol in
un icode
ĠR oche
Pro jection
Ã± a
SNAP SHOT
dir ty
Ġpoly mer
Ġp b
Ġveter ans
ic ion
"> :
enc oder
Ġpre vents
Ġcou p
Ġscatter ed
en os
ĠEconom y
pe st
18 86
Ġsc ar
Ġcount ed
ot ics
Ġinvest ing
P et
ĠK un
G D
ĠGener ator
Ġmunicipal ities
A h
ĠR ah
ĠF DA
ĠPop ulation
Similar ly
o ji
Ġcontrad iction
H AS
Ġd ivers
c ott
ĠTre nd
output s
ĠRod rig
Ġ ic
IN TEGER
s ensitive
J oe
Ø ²
in tr
account s
Ġrot ating
;" |
Ġsynt hes
ĠCh ang
Ġmon arch
Ġpro ton
Ġca ution
Ġrenew able
ĠCons erv
å ·
- "
ST ER
Ġsim ulate
C ref
; ;
b ay
or p
Config s
Und efined
30 3
ĠProgram s
ĠS cale
W at
ä ¹
ĠL ED
bro ok
P RI
28 8
ç ī
Ġr amp
ĠG ate
10 16
Ġhot els
iev es
Ġindu ces
E A
Ġget Name
Ġem br
Result Set
Ġnurs ing
Ġconscious ness
Ġsh oes
S af
is en
ĠPen insula
Ġby pass
ber y
ĠAthlet ics
Ġc trl
Ġbi ology
( |
Ġ= &
ĠS ak
S ibling
inal ity
alloc ator
ĠRepresent ative
b uck
ĠS yn
ong ue
sm ith
Mult ip
Ġoffset s
perm alink
Ġunn ecessary
ĠP K
l hs
Ġ' *
Ġt ier
20 7
Ġpo ets
re ction
Ġb ail
d g
Ch annels
Ġst mt
Ġend orse
S IG
ĠM umbai
aut om
Ġs our
ĠM ob
Ġup set
t ou
Ġsk etch
ĠC LI
ĠEx tract
ĠX XX
ĠL oop
Ġon set
her ence
ĠB omb
Ġinv ocation
ĠAcadem ic
ĠExec ution
mix ins
Ġpr icing
Ġsp ins
Bind ings
Ġs ax
ĠK ur
}\ ;
mu x
Ġwrest ling
Ġhistor ically
Ġproceed ings
ĠL is
ĠMichel le
Ġsimpl ify
ĠP ul
Ġsec rets
Ġcell ular
ear th
Ġpop up
ĠW A
c ern
Mark et
=" .
Call s
calcul ate
ĠEag le
G lob
st ones
ĠOpen SSL
ĠWrest ling
d ead
Qu est
Î ²
Ġs overe
im an
ard i
2 15
S ong
Ġoff line
SY STEM
Ġo prot
"> @
ĠS oci
/* .
bat im
ĠA GN
get Path
idd ing
Big l
rec ogn
ĠOper ator
20 9
Ġw ars
b anner
r ating
v iol
Ġnon zero
ï¸ ı
or ic
Ġend l
Ġbreak fast
ĠCar bon
Ġperturb ations
ĠW ould
ĠN umer
des ktop
Ġconver ges
t el
data Type
IT NESS
Rail way
av g
25 7
Ġaut onomous
Ġaccept ing
Ð¸ Ñģ
Ġh oped
ĠP sy
Ġbatter ies
D ump
ĠMed ic
Num bers
R ele
ĠS ources
Ġaffili ated
ist ani
ra ises
pop over
C ENTER
ple d
C Y
ĉĉĉ Ġ
---------------------------------------------------------------- ----------
Ġf reed
ĠAss essment
Gr ant
Ġnetwork ing
DEF INE
ĠI BM
Reduce Action
is se
Ġunder go
16 1
ĠU ntil
Î Ń
Ġreason ing
Bit coin
enc rypted
Ġw ound
user Agent
sc atter
Ġtrad itionally
ĠF ashion
Ġsp ont
Access ibility
ĠFil ip
ĠV acc
Ð» Ñı
ĠJob s
x si
Ġrow span
pr im
Second ary
compar ison
Ġh iding
op ath
ĠR uth
Ġsp acing
ĠOt tawa
ap id
dim ensions
up pet
Ġstrugg les
18 64
Ġgr ades
can onical
Ġch apters
M acro
qu ark
Ġ@ {
P acific
ĠP f
r ors
ĠP rec
Ġcom plications
Log ic
ENT ITY
^+ $
y ield
ĠB und
ĠEx pect
am ic
ast ics
ĠCon str
ĠCon cert
de ployment
oph one
Ø§ ÛĮ
St ory
IAL IZ
D N
rif ice
ish i
ĠComp are
Rep orter
Ġpick ing
ĠLeb anon
ow l
sup p
ĠID s
Dem ographics
en i
ĠLeg acy
Ġm eter
**** *
preced ented
Ġanth rop
Ġb ab
(" _
sh im
ĠR idge
host s
ĠS it
igr ant
spe aker
L V
18 63
ĠImmutable List
avor ite
Î ´
ĠĠĠĠĠĠĠĠ ĠĊ
Ġflat ten
Ġnerv ous
' -
Ġbe ars
ast ian
ĠHoll and
18 75
rele ased
å Ŀ
w ent
Ġto ll
err no
ĠPUR POSE
Ġcorrect ed
(" ./
19 1
Ð° Ðº
Ġch icken
Car thy
ll a
Ġten ure
ĠConst ants
ĠR M
ant ine
col ogical
Ġ"/ "
ĠV ermont
ĠPro b
17 9
ĠSy rian
wik imedia
ĠBob by
econ omic
ĠESP N
ĠK aren
ĠTr inity
Ġdiv orce
Ġsc andal
com pressed
W as
(' [
H op
g ateway
Ġgener a
at ri
Ġb ins
ur ated
00 000
Ġ{} ",
hen e
Ġaff air
Ġrol led
Q Name
iv ar
IP v
Big g
Ġsquare s
Ġconcert s
ĠS ure
Ġcomp elling
M ah
æ Į
am ous
ĠA part
Ġprevent ed
Ġf ung
comple tion
um ann
R oyal
Ġre use
Ġdis placement
ĠSp encer
conn ector
17 4
raw l
Ġcharacter ization
script scriptstyle
Ġindic ation
ĠBelg ian
exact Words
Ġcompr ises
```` ````
AC L
Ġmist akes
g rey
Ġal phabet
min i
ãĥ Ī
Play ers
em e
Ð¾ Ð½
Ġresearch er
ĠB H
Ġdel ays
Ġexec uting
F requency
R ating
17 1
Ġn aming
Ġdim in
G s
C ES
Sp acing
Ġorient ed
K W
Ġg ates
EX EC
Ġcovari ance
/ ',
ounc es
Ġbel oved
Ġsepar ator
ĠR GB
ĠInitial izes
Ġb link
Out er
DO C
Ġtown ship
te enth
Ġfurn iture
S inergi
Ġs ne
18 84
Th ough
Ġp ocket
ĠL oss
n oc
ap or
Ġap olog
ĠSh apes
ĠPre vention
V iol
ĠR S
Ġl ane
ra ising
Ġdefe ating
S leep
ĠArt ists
CL K
http Request
Red is
ag ain
Term s
F ive
EN UM
Ġcour age
US Y
Ġmag ical
ĠGard ens
S y
ĠP ool
ĠR F
ĠCh arg
B igr
Ġcare ers
Call ing
Ġcollect or
Ġt ex
Ġcert ification
ĠLuc as
year s
Ġgrand father
rele ases
Ġnob le
a qu
Ġc iting
Ġm ere
17 3
Ġexped ition
Ġpart itions
Ġes lint
K ER
ĠSub ject
Ġpro jections
ant om
struct ures
18 81
You ng
z es
Ġ[ ])
Ġpr ide
ĠSur v
sh ine
Ġprogress ion
Pro blem
prov iders
ĠðŁ ĳ
Ġget ter
pr ising
Ġpath way
17 7
Ġref ere
ĠPr incipal
ĠShe ll
ĠTerr itory
E mit
Ġfil ing
View Model
Ġdon ations
Ðµ Ðº
Ġso ap
ar ma
z el
ĠCroat ia
S ING
yst er
j vm
ĠOper and
tim ing
S el
ok o
ĠH appy
âĢ¦ âĢĿ
ĠMe V
Ġdo zens
Ġelder ly
l ane
S ensor
ĠAr r
ĠChem istry
Un supported
Ġmod est
Ġlocomot ives
aged y
Dr ive
od ic
estab lish
Å ¥
Ġul tra
/ -
ex clusion
so ftware
ĠRetri eve
M i
sl ides
ela ide
H ierarchy
Ġout lined
Ġclos es
Ġexp ose
Ġpat rol
ĠP and
YY YY
Ġg aining
ĠS PI
ĠM ik
38 4
Ġd ock
listen ers
ĠCh ase
Ġun icode
at ars
Ġle verage
ĠHug hes
ĠSt uart
gr ades
ĠHar vey
m un
author ization
Ġrenown ed
u u
ourn aments
Ġim pressed
ãģ Ĺ
ĠMunicip ality
work flow
ĠDis able
[ ^
Ġworld s
Ġaff ine
iv ative
ĠM ead
stat istics
Ġthe ad
ĠĠĠĠĠĠĠĠĠĠĠĠĠĠĠĠĠĠĠĠĠĠĠĠĠĠĠĠĠĠĠĠ ĠĠĠĠĠĠĠĠĠĠĠĠĠĠĠĠĠ
In str
Ġdis joint
) `
P ag
ĠProgram me
> }
proport ion
Ġ? ></
Ġc attle
ĠJ ake
Ġpaint ers
r st
un til
Ġenc rypt
SUP PORTED
ĠVenezuel a
PO M
ĠMat hematics
Ġbos on
Ġgent le
Ġchar ter
Ġtw isted
COM PI
Ġ( __
ĠP rest
ri b
20 30
Ġwork shops
Vill ages
ĠL amb
ĠE uclidean
Ġaccording ly
ig m
Ġc anceled
am y
Ġformul as
Ġb icy
Ġh iring
ĠR osen
center line
Ġloc ate
d ictionary
M IC
ĠNot ification
ĠS z
oot ing
TH ON
ĠAdvent ure
s yn
Ġd oses
ĠCh an
ĠJ in
ĠRead er
atin um
ĠØ§ ÙĦ
Pos itions
av in
ĠPro to
ĠK re
Vel ocity
ĠA ber
Ġr iders
im ap
_{ -\
ĠHe at
64 0
ur ious
17 8
Ġsearch Box
ĠKnow ledge
Ġtable t
~~ ~
ad apt
AUT O
em i
Ġder ivation
urrenc ies
M ARK
es ar
Ġw ard
Ġlegit imate
M EN
habilit ation
ivari ate
Ġhol idays
ĠMunicip al
h im
3 10
id ually
View er
ST AMP
B a
C OR
pres erve
oper and
Ġfeas ible
lic al
v id
Ġg ifts
ĠR adi
ĠBen nett
Ġback wards
ĠB lo
L ANG
Ġprior ities
Ġcast ing
ovak ia
c rypt
Ġcy clic
Ġtransform s
Ġadapt ive
Http Servlet
Ġre plica
Ġco hom
ĠStand ards
26 3
Ġmuseum s
oss ibly
G al
li um
r te
ĠBl ake
)) ]
22 1
DE SCRIPT
ĠAnd r
Ġneighbour hood
Ġover lay
PT S
c ategor
Ġal umin
xx x
Ġt a
IL D
Ad ministr
moz illa
ĠFIX ME
big cup
- }
Ġneg lect
Ġdam ages
ĠGab riel
Ġcon tributes
Th ose
ĠPer form
Cross Ref
D U
P referred
fl ux
Ġchampionship s
Ġrec ipe
ĠV ec
Ġsub tract
Ġp el
ED IT
Ġpotential s
Ġtre ating
C ov
r isk
ĠStart ing
Ġprov ing
ãĢ ģ
Ġachiev ements
j er
>. <
register ed
ov ich
er ase
Ġun cle
Ġstrugg led
L ee
ĠM az
ym p
Ġpar ity
Ġimp ose
Ġpack aging
Ġinject ed
Ġt ens
Col lege
ĠPet e
I ts
Sc enario
Ġreport ers
Ġaccess ibility
ĠIss ues
vious ly
æĪ Ĳ
Ġt p
c ot
ĠTr ace
M ic
Int egr
os ion
ĠPar ad
ju ana
F ood
ĠJ et
ĠS ox
sk in
S aint
ĠIn stitution
Ġsub sets
) }$,
Ġpat ches
Ġinter fer
ig ating
Ġhand ful
F ault
} ~\
æ Ģ
ow ing
EN ER
Ġfix es
(" {
Ġhistor ians
ours es
Ġtr apped
Fl ash
ĠW ant
RE SOURCE
') ),
. }\
illi an
Ġdemocr atic
ro e
og an
ĠAp plications
Ġbe aring
ĠF T
Ġsurg ical
ASC II
Ġh orm
Sc oped
Ġ{ {\
ĠRe place
Ġmon ster
t pl
pert urb
p aid
Ġc ig
Dim ensions
Ġb b
Ġ" @
r ag
CH O
Ġobserv ing
ĠJer emy
C ycle
al is
ent i
Ġre wards
ĠT uple
cred it
B on
Ġorigin ated
Ġtag ged
lo y
P IN
r in
Ġd ressed
Ġdiam ond
: ]
im od
Ġfor k
Ã© d
Ġterm inated
end ant
ess el
å Ģ
elect ed
ĠÐ °
Ġpeak ed
Bound ing
Ġp unct
ne um
ĠCurt is
Ġfar ms
Ġtrav els
Ġabb rev
ĠS UB
ĠHar per
Ġterror ist
Resp ons
uis ine
Ġfor g
Ġreg iment
Med al
Ġup stream
Ġsub scribe
Ġancest or
Ġsl ides
li ant
ĠG PIO
IST S
ru it
D WORD
ĠC ool
ĠD anny
Ġdis rupt
it on
ĠSE LECT
Ġd c
Ge org
av o
"> .</
x m
ĠEm ploy
wr apped
ĠL ed
ip v
Le ague
ĠAuth ors
Ġm ines
Ġcur ious
ĠD aw
quant um
ĠSQL Exception
P ur
Ġrespons ibilities
A ware
Key Value
Ġnew est
Ġoffer ings
ĠI g
ĠWall ace
Ġto y
Ġinvest ed
dec or
ĠHy per
ĠT CP
ag i
Ġan ch
ung le
un checked
Ġdown stream
ĠNav igation
Ġh azard
ĠBr ain
class List
S nap
set Property
And rew
cer pt
ĠUn icode
ĠMax imum
K im
G AN
Ġbe ings
l is
Ġr am
i our
ĠS ed
Ġtr act
ĠMor r
ape st
) ")
Ġdwar f
ĠCon v
C atch
n z
it zer
27 5
Ġ' __
Ġche ese
ne apolis
c ards
Ġunder graduate
3 80
charg ed
s ens
it ian
Ġs ew
Ġdead ly
Ġre forms
!! !
Ġhar sh
ĠWood s
respect ively
| =
Ġ_ ("
equal ities
Lay ers
RO WS
Ġobserv ables
ĠP att
Ġproceed s
Ġsurviv ors
S izes
cl ub
sub equations
ĠInd ependence
Ġview er
unit test
Ġnow rap
ĠE ncy
ct uary
8 75
Ġw ages
term inal
Ġconcept ual
ĠY ugosl
Ġcor n
ur istic
ĠNY C
K L
Ġitem Members
Ġinfer red
ĠR NA
ĠProdu ctions
L int
18 62
List Item
ĠMe et
Ġcirc ulation
K B
Is Valid
ĠFour th
Ġle ather
b org
Ġforgot ten
Ġpat ri
uck land
v dots
Ġse am
n ational
ĠSc ore
tele phony
3 40
ĠMar x
O l
Ġtr ump
ĠInt roduction
get All
ĠB ak
Ġbackground s
ĠL ength
Ġsent iment
~ (
Par allel
ĠA CTION
Ġcol ored
Display Name
ke leton
CT L
Ġbi om
g id
Doc uments
Ð Ĵ
Watch er
ĠF oster
ĠColl abor
ĠLeon ard
con j
ĠPart ner
Ġ\ |\
Ġ* );
ĠResource Manager
Object Type
BO X
r ice
Ġbr ig
o led
ĠĠĠĠĠĠĠĠĠĠĠĠĠĠĠĠĠĠĠĠĠĠĠĠĠĠĠĠĠĠĠĠ ĠĠĠĠĠĠĠĠĠĠĠĠĠĠĠĠĠĠ
J un
raw ler
X L
Ġst ays
ĠĠĠĠĠĠĠĠĠĠĠĠ čĊ
Ġenjoy ing
ĠPass word
Ġemit ted
Ġav iation
S u
18 4
Ġgrad uating
D evelopment
Ġdis connect
IC ES
Ġb t
ĠF ri
_{ [
Ġlong itudinal
ĠPro of
SPH INX
T reat
In strument
PI X
Ġe uro
Ġprof ound
ĠAh med
ha o
ĠShang hai
ĠTh ai
RA W
Ġautom ation
Ġu id
ĠNorth west
Ġeth ical
ĠE ye
ore ms
DD IR
Ġparliament ary
Ġpass ive
symbol s
qual ified
b io
ad ation
read s
Ġcart oon
Ġmart ial
p q
Ex per
Ex isting
Ġpredec essor
ĠCan al
Ġprox imity
Ġfif ty
Ġreason ably
Ġper ipheral
un wrap
Ġm u
Ġst om
lear n
Ġh r
ĠD ame
align ment
Ġgame play
Ġathlet ic
CharacterOffset End
CharacterOffset Begin
Ġdis pers
Ġor chestr
Ġtransf ers
B all
Ġs lip
itor ial
Ġcross es
Ġinterpol ation
ĠBu y
c ould
ĠP av
), (
Ġdis hes
Ġfight ers
Ġcyl inder
Ġh ills
ĠTrans it
ĠLog in
Ġinv ite
Ġrele g
ĠQue ue
Ġexp ired
Ġ" ../
IST ER
ĠChem ical
Ġglyph icon
callback s
g m
n at
Ġinter ventions
Ð ¶
Coll ision
ress es
d oxygen
Project Path
ĠProject s
he at
Ġre plication
com ed
Group Id
H F
D roid
CA ST
Ġc avity
ann i
TERN AL
ĠG URL
Mod ern
Ġsuper conduct
Ġdemonstr ation
ĠBel ow
Ġed itions
clop edia
Ġarg ues
Ġperm its
H old
Ġeff icacy
Rec all
ĠAug sburg
jav adoc
model Version
Ġtem per
Ġhelp ers
Ġsuggest ion
Ġf u
um ably
Ġpull ing
function al
Ġrig id
ĠÂ «
T abs
ĠB orough
ĠDec ision
18 76
Ġemer ge
"> =</
ĠN L
Academ ic
Ġ" __
s andbox
Ġdiscuss es
cept ors
Tool Strip
Ġ' :
vis ions
ass o
Le af
Ġcompr ising
Ġtrem end
Ġtour ists
Ġs oc
Ġsh out
ro ots
Ġcre ativity
Ġterr ain
ra pe
ah u
18 83
ac ial
Ġhost name
g old
ĠU C
Ġtr iggers
ph al
Ġdon ation
Ġindic ators
ĠS ou
ph er
bl ur
ĠRef er
\ }_{
M N
ĠWe ight
: .
S und
ĠS yl
Con struction
V ED
CH ANT
Ġpers pectives
Ġsac red
r ated
Ġgo og
ĠT ol
$ --
rt c
v oice
Ġintegr als
Afr ican
Ġdef ender
18 82
Jew ish
ĠS weet
Ġcab in
Ġbreed ing
He art
Ġbad ly
ĠAut hentication
Ġ{ ?
ĠAUT H
Ġs ang
ov iÄĩ
Ġcre atures
QU ERY
Ġp owder
ĠGe o
Ġavoid ed
Ġexcit ation
ĠM ills
Ġ' ../../
18 9
er ver
at em
vert ices
represent ation
put es
ĠHar bor
ĠPro xy
T alk
Ġcapt ures
"> $
the ir
track s
O Auth
ĠH arm
os cal
Ġlinear ly
ĠR ew
stud ent
ex pects
Ġ" #{
Ġcon gr
com merce
Action Bar
ĠMon o
Ġcompos itions
;-> <
Ġsan ctions
[ @
a uses
c ro
gr and
ĠAr ctic
J ar
Ġb other
Ġfor wards
ud ed
Im plicit
Up grade
ĠArt icles
A wait
Ġcorpor ations
Un icode
ĠH ur
Ġevolution ary
WA IT
ĠRev ision
Ġtact ics
Ġb is
Ġre called
ĠQ R
ĠTour ism
Ġinaug ural
Ġt ender
un ted
Ġch lor
Ġbroadcast ing
Or Builder
Ġ' &
% ).
Ġdownload ed
< >
18 1
ĠMont gomery
n th
ĠOak land
' $.
it ored
get C
Target s
[...]
