{"[UNK]":0,"!":1,"\"":2,"#":3,"$":4,"%":5,"&":6,"'":7,"(":8,")":9,"*":10,"+":11,",":12,"-":13,".":14,"/":15,"0":16,"1":17,"2":18,"3":19,"4":20,"5":21,"6":22,"7":23,"8":24,"9":25,":":26,";":27,"<":28,"=":29,">":30,"?":31,"@":32,"A":33,"B":34,"C":35,"D":36,"E":37,"F":38,"G":39,"H":40,"I":41,"J":42,"K":43,"L":44,"M":45,"N":46,"O":47,"P":48,"Q":49,"R":50,"S":51,"T":52,"U":53,"V":54,"W":55,"X":56,"Y":57,"Z":58,"[":59,"\\":60,"]":61,"^":62,"_":63,"`":64,"a":65,"b":66,"c":67,"d":68,"e":69,"f":70,"g":71,"h":72,"i":73,"j":74,"k":75,"l":76,"m":77,"n":78,"o":79,"p":80,"q":81,"r":82,"s":83,"t":84,"u":85,"v":86,"w":87,"x":88,"y":89,"z":90,"{":91,"|":92,"}":93,"~":94,"¡":95,"¢":96,"£":97,"¤":98,"¥":99,"¦":100,"§":101,"¨":102,"©":103,"ª":104,"«":105,"¬":106,"®":107,"¯":108,"°":109,"±":110,"²":111,"³":112,"´":113,"µ":114,"¶":115,"·":116,"¸":117,"¹":118,"º":119,"»":120,"¼":121,"½":122,"¾":123,"¿":124,"Â":125,"Ã":126,"Ä":127,"Å":128,"Æ":129,"Ç":130,"È":131,"É":132,"Ê":133,"Ë":134,"Ì":135,"Í":136,"Î":137,"Ï":138,"Ð":139,"Ñ":140,"Ò":141,"Ó":142,"Ô":143,"Õ":144,"Ö":145,"×":146,"Ø":147,"Ù":148,"Ú":149,"Û":150,"Ü":151,"Ý":152,"Þ":153,"ß":154,"à":155,"á":156,"â":157,"ã":158,"ä":159,"å":160,"æ":161,"ç":162,"è":163,"é":164,"ê":165,"ë":166,"ì":167,"í":168,"î":169,"ï":170,"ð":171,"ñ":172,"ò":173,"ó":174,"ô":175,"Ā":176,"ā":177,"Ă":178,"ă":179,"Ą":180,"Ć":181,"ć":182,"Ĉ":183,"ĉ":184,"Ċ":185,"ċ":186,"Č":187,"č":188,"Ď":189,"ď":190,"Đ":191,"đ":192,"Ē":193,"ē":194,"Ė":195,"Ę":196,"ę":197,"Ě":198,"ě":199,"Ĝ":200,"ĝ":201,"Ğ":202,"ğ":203,"Ġ":204,"ġ":205,"Ģ":206,"ģ":207,"Ĥ":208,"ĥ":209,"Ħ":210,"ħ":211,"Ĩ":212,"ĩ":213,"Ī":214,"ī":215,"Ĭ":216,"ĭ":217,"Į":218,"į":219,"İ":220,"ı":221,"Ĳ":222,"ĳ":223,"Ĵ":224,"ĵ":225,"Ķ":226,"ķ":227,"ĸ":228,"Ĺ":229,"ĺ":230,"Ļ":231,"ļ":232,"Ľ":233,"ľ":234,"Ŀ":235,"ŀ":236,"Ł":237,"ł":238,"Ń":239,"ĠĠ":240,"ĠĠĠĠ":241,"Ġt":242,"in":243,"er":244,"on":245,"Ġa":246,"he":247,"re":248,"at":249,"en":250,"or":251,"st":252,"Ġthe":253,"ĠĠĠ":254,"an":255,"al":256,"it":257,"Ġc":258,"ĠĠĠĠĠĠĠĠ":259,"ar":260,"le":261,"ion":262,"Ġs":263,"Ġo":264,"es":265,"is":266,"ed":267,"Ġf":268,"Ġw":269,"ing":270,"Ġp":271,"ic":272,"ro":273,"nd":274,"Ġb":275,"Ġin":276,"as":277,"et":278,"ct":279,"Ġof":280,"ou":281,"Ġd":282,"Ġm":283,"ent":284,"am":285,"el":286,"Ġto":287,"Ġand":288,"ĠĠĠĠĠĠĠ":289,"Ġre":290,"Ġh":291,"il":292,"om":293,"Ġn":294,"id":295,"Ġth":296,"ce":297,"Ġ=":298,"ation":299,"ol":300,"ur":301,"ĠS":302,"Ġ(":303,"ig":304,"im":305,"ut":306,"ĉĉ":307,"Ġe":308,"ot":309,"</":310,"Ġl":311,"ĠT":312,"se":313,"ad":314,"iv":315,"ĠC":316,"=\"":317,"ĠA":318,"od":319,");":320,"ac":321,"ag":322,"ul":323,"if":324,"Ġ{":325,"--":326,"th":327,"Ġis":328,"Ġ<":329,"Ġg":330,"un":331,"Ġ$":332,"ay":333,"ow":334,"Ġv":335,"em":336,"ch":337,"âĢ":338,"Ġfor":339,"pe":340,"ĠI":341,"Ġst":342,"ab":343,"us":344,"ate":345,"ĠM":346,"um":347,"ĠĠĠĠĠĠĠĠĠĠĠ":348,"ers":349,"//":350,"Ġ\\":351,"ly":352,"čĊ":353,"tr":354,"qu":355,"Ġ*":356,"oc":357,"ap":358,"Ġon":359,"ist":360,"ass":361,"ĠP":362,"ith":363,"Ġbe":364,"ex":365,"ir":366,"ter":367,"Ġcon":368,"ĠB":369,"ht":370,"ction":371,"av":372,"pt":373,"ame":374,"est":375,"ver":376,"Ġ}":377,"ew":378,"ĠR":379,"ss":380,"end":381,"Ġ\"":382,"and":383,"ĠD":384,"\">":385,"20":386,"ub":387,"up":388,"ess":389,"Ġthat":390,"ue":391,"ĠF":392,"Ġwith":393,"ĠH":394,"lass":395,"ort":396,"our":397,"age":398,"ĠL":399,"ef":400,"ĠĠĠĠĠĠĠĠĠĠĠĠĠĠĠĠ":401,"ri":402,"op":403,"ĠN":404,"Ġal":405,"Ġpro":406,"ain":407,"Ġan":408,"ĠĠĠĠĠ":409,"**":410,"sp":411,"()":412,"ect":413,"Ġwh":414,"ĠW":415,"Ġas":416,"ĠE":417,"li":418,"ĠG":419,"ity":420,"urn":421,"ore":422,"ine":423,"rom":424,"ĠThe":425,"Ġit":426,"ment":427,"nt":428,"Ġex":429,"ure":430,"art":431,"ke":432,"Ġcom":433,"Ġr":434,"Ġby":435,"ere":436,"..":437,"os":438,"ath":439,"Ġy":440,"able":441,"iz":442,"ec":443,"og":444,"ack":445,"Ġor":446,"pl":447,"Ġthis":448,"ight":449,"Ġat":450,"ext":451,"Ġwas":452,"turn":453,"----":454,"ype":455,"==":456,"all":457,"ult":458,"Ġclass":459,"port":460,"19":461,"ies":462,"ill":463,"ĠO":464,"ile":465,"ive":466,"eg":467,"ial":468,"Ġif":469,"ans":470,"Ġ'":471,"_{":472,"per":473,"get":474,"ant":475,"Ġare":476,"ang":477,"ode":478,"Ġ&":479,"Ġfrom":480,"ud":481,"con":482,"ld":483,"str":484,"Ġtr":485,"00":486,"ĠJ":487,"âĢĻ":488,"orm":489,"ref":490,"ep":491,"int":492,"act":493,"Ġhe":494,"ĠĠĠĠĠĠĠĠĠĠĠĠĠĠĠ":495,"ast":496,"ind":497,"ber":498,"ption":499,"are":500,"ase":501,"lic":502,"In":503,"ff":504,"Ġch":505,"ata":506,"ĠĊ":507,"ĠU":508,"ary":509,"und":510,"ov":511,"->":512,"Ġwe":513,"com":514,"ace":515,"ire":516,"ev":517,"ip":518,"ard":519,"ib":520,"ated":521,"Ġ//":522,"Ġle":523,"Ġnot":524,"Ġsh":525,"Ġreturn":526,"ord":527,"out":528,"ug":529,"Ġ-":530,"::":531,"ave":532,"ost":533,"ite":534,"ject":535,"alue":536,"pro":537,"ign":538,"{\\":539,"to":540,"ĉĉĉĉ":541,"ak":542,"Ġ</":543,"ell":544,"ition":545,"ime":546,"ust":547,"The":548,"ĠâĢ":549,"res":550,"Ġse":551,"lo":552,"ource":553,"),":554,"../":555,"ice":556,"ide":557,"ple":558,"'s":559,"Con":560,"ich":561,"ublic":562,"unction":563,"ong":564,"ia":565,"ild":566,"ĠK":567,").":568,"Ġ[":569,"erv":570,"Ġnew":571,"ok":572,"ork":573,"cl":574,"ical":575,"Ġ@":576,"ĠIn":577,"Ġus":578,"Ġpl":579,"ph":580,"cc":581,"\",":582,"Ġj":583,"Ġ$\\":584,"ge":585,"ock":586,"aram":587,"St":588,"ĠV":589,"ens":590,"form":591,"ma":592,"text":593,"ance":594,"dd":595,"ert":596,"Ġres":597,"Ġ+":598,"ence":599,"cri":600,"ft":601,"Ġcan":602,"(\"":603,"ory":604,"Ġ/":605,"201":606,"row":607,"ould":608,"();":609,"ear":610,"ml":611,"elf":612,"essage":613,"ations":614,"Ġhave":615,"put":616,"ull":617,"ress":618,"one":619,"Ġar":620,"du":621,"div":622,"ize":623,"ĠTh":624,"Ġall":625,"set":626,"Ġhas":627,"Ġim":628,"span":629,"Ġun":630,"use":631,"ĠSt":632,"Ġk":633,"ra":634,"></":635,"enc":636,"****":637,"Ġyou":638,"ther":639,"Ex":640,"so":641,"--------":642,"ach":643,"math":644,"tring":645,"Ġ|":646,"ents":647,"Ġap":648,"',":649,"Ġab":650,"ener":651,"hen":652,"Ġstr":653,"ll":654,"Ġwhich":655,"Ġcont":656,"><":657,"ail":658,"iel":659,"ous":660,"err":661,"ount":662,"ink":663,"Ġ*/":664,"equ":665,"own":666,"Ġ.":667,"sh":668,"bject":669,"fig":670,"}\\":671,"iew":672,"10":673,"ian":674,"../../":675,"ield":676,"Ġ:":677,"te":678,"^{":679,"Ġhis":680,"====":681,"Ġpublic":682,"eth":683,"Ġfunction":684,"ĉĉĉ":685,"che":686,"}$":687,"Ġname":688,"ele":689,"fr":690,"Ġwill":691,"ps":692,"Ġdef":693,"Ġpr":694,"ĠCh":695,"ree":696,"ual":697,"ĠĠĠĠĠĠĠĠĠĠĠĠĠĠĠĠĠĠĠ":698,"ome":699,"ray":700,"ound":701,"over":702,"Ġout":703,"ator":704,"cal":705,"Ġint":706,"ond":707,"Ġcomp":708,"ark":709,"inal":710,"ck":711,"('":712,"irst":713,"Ġdo":714,"tern":715,"ĠĠĠĠĠĠĠĠĠ":716,"oid":717,"html":718,"ER":719,"name":720,"clud":721,"eb":722,"ry":723,"Pro":724,"))":725,"Ġget":726,"ish":727,"fer":728,"Ġhref":729,"pr":730,"les":731,"Ġup":732,"erm":733,"source":734,"this":735,"bo":736,"Ġbut":737,"yst":738,"message":739,"oll":740,"Ġset":741,"Name":742,"ne":743,"Ġdis":744,"ions":745,"Ġvar":746,"roup":747,"ery":748,"Ġone":749,"old":750,"200":751,"Ġev":752,"ict":753,"âĢĿ":754,"ty":755,"ates":756,"pect":757,"ON":758,"trans":759,"odel":760,"Type":761,"abel":762,"mer":763,"led":764,"Ġro":765,"pec":766,"key":767,"lation":768,"ix":769,"ta":770,"oth":771,"Ġalso":772,"oint":773,"eng":774,"import":775,"Ġtheir":776,"IN":777,"Ġ_":778,"Ġpart":779,"Ġwere":780,"Ġqu":781,"}}":782,"ings":783,"Ġ#":784,"ystem":785,"io":786,"Ġme":787,"ob":788,"Id":789,"ĠY":790,"param":791,"td":792,"Ġtype":793,"String":794,"cre":795,"ake":796,"ool":797,"rit":798,"(\\":799,"18":800,"atic":801,"atch":802,"Ġsu":803,"app":804,"egin":805,"ors":806,"alse":807,"ax":808,"Ġ=>":809,"ely":810,"return":811,"line":812,"Ġass":813,"Ġvalue":814,"},":815,"lect":816,"right":817,"wo":818,"ook":819,"Ġmore":820,"/>":821,"arg":822,"Ġsp":823,"begin":824,"lock":825,"Ġpre":826,"rap":827,"fo":828,"ics":829,"ache":830,"Ġwho":831,"12":832,"Ġits":833,"ethod":834,"ick":835,"Ġper":836,"Ġman":837,"ames":838,"aw":839,"uct":840,"cript":841,"code":842,"Ġover":843,"igh":844,"umber":845,"ng":846,"ont":847,"uild":848,"col":849,"://":850,"iss":851,"Ġthey":852,"RE":853,"Ġdata":854,"fter":855,"\"/>":856,"ater":857,"Ġline":858,"ange":859,"Ġso":860,"Th":861,"we":862,"ser":863,"ove":864,"the":865,"Ġ!":866,"Com":867,"Ġcl":868,"Ġag":869,"Ġadd":870,"Ġtime":871,"def":872,"urre":873,"translation":874,"Res":875,"ĠIt":876,"Ġwork":877,"Ġconst":878,"Ġfirst":879,"Ġne":880,"##":881,"Ġself":882,"ST":883,"Ġdes":884,"add":885,"ception":886,"Ġel":887,"Ġother":888,"ys":889,"type":890,"ĠUn":891,"class":892,"ead":893,"_{\\":894,"Ġid":895,"List":896,"ific":897,"ault":898,"Ġwhen":899,"ons":900,"Ġi":901,"ature":902,"ute":903,"Ġinter":904,"round":905,"Ġend":906,"Ġ||":907,"Ġcol":908,")$":909,"ann":910,"ĠâĢľ":911,"Ġbeen":912,"Ġad":913,"ative":914,"ocation":915,"Ġen":916,"Ġ==":917,"Ġsup":918,"Ġgo":919,"Ch":920,"als":921,"ays":922,"ose":923,"tt":924,"eta":925,"Ġhad":926,"AT":927,"pos":928,"anc":929,"ie":930,"nc":931,"sum":932,"16":933,"ym":934,"lement":935,"}{":936,"arch":937,"__":938,"Ġher":939,"var":940,"Ġde":941,"Ġresult":942,"Ġrequ":943,"ve":944,"of":945,"Ġcomm":946,"Ġund":947,"htt":948,"ms":949,"ues":950,"gr":951,"label":952,"Ġyear":953,"Ġnull":954,"itle":955,"ĠThis":956,"Ġtwo":957,"ember":958,"ĠâĢĵ":959,"ational":960,"Ġany":961,"ton":962,"Ġabout":963,"read":964,"Ġrec":965,"Ġvoid":966,"hed":967,"ied":968,"ID":969,"ĠHe":970,"Ġli":971,"ular":972,"ise":973,"amp":974,"frac":975,"vent":976,"Ġinto":977,"ervice":978,"Ġ`":979,"ersion":980,"tain":981,"OR":982,"ĠAr":983,"Ġte":984,"val":985,"\"><":986,"Ġsc":987,"Ġcre":988,"********":989,"cess":990,"trib":991,"Ġsub":992,"eq":993,"ash":994,"ution":995,"Ar":996,"urrent":997,"left":998,"ating":999,"Ġonly":1000,"Ġoff":1001,"Ġacc":1002,"Ġreg":1003,"ade":1004,"AR":1005,"ivate":1006,"));":1007,"idth":1008,"ugh":1009,"LE":1010,"11":1011,"Ġthan":1012,"):":1013,"son":1014,"ased":1015,"Ġ>":1016,"////":1017,"202":1018,"raph":1019,"ask":1020,"ument":1021,"ocal":1022,"Ġplay":1023,"Ġinclud":1024,"yle":1025,"pon":1026,"irect":1027,"ĠCom":1028,"Ġuse":1029,"string":1030,"ious":1031,"oug":1032,"Ġno":1033,"15":1034,"Ġthere":1035,"Ġpe":1036,"ptions":1037,"Ġour":1038,"Ġfalse":1039,"ample":1040,"back":1041,"Tr":1042,"----------------":1043,"Ġbet":1044,"ĠĠĠĠĠĠĠĠĠĠĠĠĠĠĠĠĠĠĠĠĠĠĠ":1045,"\");":1046,"Ġerr":1047,"ĠĠĠĠĠĠĠĠĠĠĠĠĠ":1048,"org":1049,"Ġact":1050,"ollow":1051,"Ġtrue":1052,"ĠPro":1053,"min":1054,"ople":1055,"Ġval":1056,"ey":1057,"Ġorg":1058,"plic":1059,"sc":1060,"Ġtrans":1061,"ner":1062,"Ġind":1063,"its":1064,"Ġob":1065,"Ġsome":1066,"uth":1067,"ility":1068,"ities":1069,"rr":1070,"AL":1071,"Ġinst":1072,"olog":1073,"ule":1074,"ee":1075,"ning":1076,"ble":1077,"work":1078,"bar":1079,"Ġyour":1080,"EN":1081,"ible":1082,"self":1083,"Ġspec":1084,"ength":1085,"Ġop":1086,"Ġform":1087,"der":1088,"Ġ)":1089,"file":1090,"Ġwould":1091,"ider":1092,"ava":1093,"data":1094,"oy":1095,"ward":1096,"ole":1097,"Ġrel":1098,"ages":1099,"ited":1100,"Ġkn":1101,"Ġelse":1102,"Value":1103,"Ġunder":1104,"oin":1105,"Ġtest":1106,"resent":1107,"Ġwhere":1108,"Ġsa":1109,"âĢĵ":1110,"Ġdif":1111,"Ġback":1112,"action":1113,"Ġprov":1114,"tem":1115,"Data":1116,"ts":1117,"pre":1118,"To":1119,"Ġdec":1120,"ern":1121,"ower":1122,"ices":1123,"enter":1124,"Ġafter":1125,"199":1126,"Ġ--":1127,"cite":1128,"sub":1129,"imes":1130,"})":1131,"ement":1132,"lection":1133,"Ġused":1134,"perty":1135,"ĠĠĠĠĠĠ":1136,"SS":1137,"Ġrem":1138,"ody":1139,"ished":1140,"br":1141,"$.":1142,"ĠĠĠĠĠĠĠĠĠĠĠĠĠĠĠĠĠĠĠĠĠĠĠĠĠĠĠĠĠĠĠĠ":1143,"arget":1144,"ier":1145,"ĠNew":1146,"25":1147,"Ġcase":1148,"land":1149,"Ġfe":1150,"\")":1151,"log":1152,"value":1153,"Ġfinal":1154,"evel":1155,"Ġmay":1156,"item":1157,"Ġshe":1158,"lient":1159,"Ġx":1160,"Ġthen":1161,"Ġfollow":1162,"rm":1163,"ank":1164,"13":1165,"14":1166,"Ġsec":1167,"uff":1168,"Ġ/**":1169,"$,":1170,"orld":1171,"ww":1172,",\\":1173,"Col":1174,"ences":1175,"Set":1176,"Ġfil":1177,"ments":1178,"Ġstring":1179,"Ġem":1180,"rough":1181,"fl":1182,"ternal":1183,"Ref":1184,"========":1185,"ream":1186,"view":1187,"Ġchar":1188,"uring":1189,"17":1190,"Ġph":1191,"Ġcons":1192,"Exception":1193,"ivers":1194,"nb":1195,"Ġfl":1196,"equation":1197,"ally":1198,"ined":1199,"for":1200,"date":1201,"Ġthem":1202,"ince":1203,"ized":1204,"yp":1205,"Ġsuch":1206,"new":1207,"Ġgener":1208,"ween":1209,"Ġ&&":1210,"];":1211,"ause":1212,"location":1213,"Ġfile":1214,"oss":1215,"not":1216,"}.":1217,"Ġam":1218,"air":1219,"ins":1220,"ting":1221,"bf":1222,"px":1223,"($":1224,"eter":1225,"ists":1226,"Ġshow":1227,"...":1228,"any":1229,"press":1230,"Ġnumber":1231,"Err":1232,"amb":1233,"ru":1234,"ient":1235,"epend":1236,"Ġac":1237,"ily":1238,"test":1239,"be":1240,"atus":1241,"ars":1242,"Ġdist":1243,"ĠWe":1244,"Ġstatic":1245,"Ġinv":1246,"ines":1247,"cont":1248,"pp":1249,"red":1250,"Ġprodu":1251,"ets":1252,"ĠSh":1253,"oun":1254,"Ġ///":1255,"nbsp":1256,"32":1257,"Ġstud":1258,"Object":1259,"ĠTr":1260,"ĠQ":1261,"roid":1262,"Ġpeople":1263,"CT":1264,"arent":1265,"Ġhigh":1266,"meric":1267,"')":1268,"30":1269,"Ġstart":1270,"Test":1271,"Ġpol":1272,"Ġco":1273,"hat":1274,"IT":1275,"ader":1276,"ĠAl":1277,"DE":1278,"Ġlist":1279,"ĠString":1280,"ĠCon":1281,"SE":1282,"vel":1283,"ĠAn":1284,"Ġmodel":1285,"Ġmost":1286,"Ġbo":1287,"heck":1288,"da":1289,"Ġcor":1290,"Ġlike":1291,"Ġ!=":1292,"play":1293,"ĠEx":1294,"ren":1295,"wn":1296,"Ġgr":1297,"Ġthese":1298,"Ġprivate":1299,"pha":1300,"rol":1301,"Ġ%":1302,"Ġsim":1303,"Ġbetween":1304,"umn":1305,"Ġthrough":1306,"mathcal":1307,"size":1308,"ho":1309,"mary":1310,"ccess":1311,"Ġbec":1312,"100":1313,"Ġshould":1314,"Ġneed":1315,"ision":1316,"AN":1317,"ted":1318,"().":1319,"Ġdiffer":1320,"Get":1321,"],":1322,"ired":1323,"struct":1324,"az":1325,"rc":1326,"());":1327,"ough":1328,"Ġsystem":1329,"ify":1330,"Cont":1331,"Ġhow":1332,"face":1333,"man":1334,"}(":1335,"ger":1336,"iver":1337,"Un":1338,"Error":1339,"ason":1340,"requ":1341,"ME":1342,"ĉĉĉĉĉ":1343,"Ġsaid":1344,"Ġser":1345,"Ġeff":1346,"By":1347,"Ġkey":1348,"oci":1349,"Ġdet":1350,"ever":1351,"by":1352,"Ġent":1353,"Ġmod":1354,"Ġoper":1355,"link":1356,"Ġsign":1357,"yn":1358,"Ġgiv":1359,"._":1360,"roll":1361,"reat":1362,"Ġpoint":1363,"Ġapp":1364,"Ġext":1365,"oot":1366,"public":1367,"order":1368,"ric":1369,"Ġobject":1370,"evelop":1371,"ĠZ":1372,"Ġfield":1373,"Ġever":1374,"ization":1375,"ote":1376,"Ġmethod":1377,"script":1378,"Ġjust":1379,"indow":1380,"ful":1381,"Im":1382,"Ġmy":1383,"let":1384,"ced":1385,"Ġdr":1386,"Ġsm":1387,"Ġcal":1388,"ler":1389,"En":1390,"alpha":1391,"ĠFor":1392,"mod":1393,"elta":1394,"Ġeach":1395,"Ġmin":1396,"Ġlong":1397,"other":1398,"wh":1399,"ik":1400,"File":1401,"Ġbr":1402,"At":1403,"CO":1404,"Class":1405,"chool":1406,"\"></":1407,"pace":1408,"pi":1409,"Ġwhat":1410,"orn":1411,"ified":1412,"}^":1413,"ces":1414,"formation":1415,"50":1416,"go":1417,"Ind":1418,"Ġwell":1419,"nav":1420,"load":1421,"par":1422,"list":1423,"fore":1424,"['":1425,"index":1426,"ident":1427,"url":1428,"Ġusing":1429,"~\\":1430,"function":1431,"util":1432,"cription":1433,"\";":1434,"ife":1435,"}_":1436,"ah":1437,"Key":1438,"Ġgroup":1439,"View":1440,"Ġed":1441,"lang":1442,"time":1443,".</":1444,"'t":1445,"erson":1446,"ense":1447,"ager":1448,"uss":1449,"Ġstate":1450,"bb":1451,"cept":1452,"Ġequ":1453,"apt":1454,"Requ":1455,"Ġcall":1456,"Sh":1457,"Ġfound":1458,"Ġagain":1459,"js":1460,"rem":1461,"til":1462,"reak":1463,"Ġparam":1464,"ĠĠĠĠĊ":1465,"');":1466,"ouse":1467,"ared":1468,"ants":1469,"oh":1470,"dis":1471,"Ġhim":1472,"rite":1473,"table":1474,"lob":1475,"UL":1476,"ten":1477,"ĠX":1478,"ocument":1479,"Ġyears":1480,"Ġrun":1481,"Ġwhile":1482,"http":1483,"ek":1484,"24":1485,"Ġpos":1486,"top":1487,"ambda":1488,"array":1489,"ĠAmeric":1490,"ots":1491,"Ġcurrent":1492,"ency":1493,"ĠAs":1494,"gy":1495,"Ġsol":1496,"reg":1497,"uc":1498,"For":1499,"An":1500,"lay":1501,"ector":1502,"try":1503,"']":1504,"uch":1505,"(),":1506,"Ġhand":1507,"Ġright":1508,"ister":1509,"Ġsupport":1510,"Ġresp":1511,"Ġsame":1512,"198":1513,"Ġrep":1514,"summary":1515,"her":1516,"Ġcomple":1517,"Ġnow":1518,"way":1519,"Ġcould":1520,"Ġarg":1521,"includ":1522,"ope":1523,"64":1524,"void":1525,"section":1526,"ĠIf":1527,"000":1528,"Ġread":1529,"lp":1530,"$\\":1531,"field":1532,")\\":1533,"ession":1534,"gram":1535,"ĠInd":1536,"att":1537,"aj":1538,"Ġtitle":1539,"ott":1540,"Ġsur":1541,"width":1542,"On":1543,"ures":1544,"=\"+":1545,"ush":1546,"opy":1547,"!--":1548,"Ġbefore":1549,"box":1550,"group":1551,"Ġfr":1552,"comm":1553,"Ġmake":1554,"uration":1555,"ĠSe":1556,"We":1557,"ically":1558,"Ġexpect":1559,"Ġest":1560,"amma":1561,"ected":1562,"uffer":1563,"oad":1564,"RO":1565,"ogle":1566,"mu":1567,"ential":1568,"ground":1569,"=\"../../":1570,"path":1571,"\":":1572,"const":1573,"med":1574,"As":1575,"iversity":1576,"day":1577,"itial":1578,"ism":1579,"Ġbeing":1580,"ION":1581,"Event":1582,"Ġimport":1583,"``":1584,"ron":1585,"quot":1586,"que":1587,"Ġdoes":1588,"Time":1589,"resp":1590,"raw":1591,"pack":1592,"Ġdirect":1593,"AC":1594,"Refer":1595,"ross":1596,"TE":1597,"Ġmany":1598,"Ġmon":1599,"/*":1600,"].":1601,"lear":1602,"ale":1603,"bers":1604,"Ġboth":1605,"PE":1606,"Request":1607,"https":1608,"ĠCol":1609,"Ġlast":1610,"Ġ/>":1611,"part":1612,"orth":1613,"cent":1614,"Ġart":1615,"Ġsecond":1616,"serv":1617,"me":1618,"=\\":1619,"Element":1620,"22":1621,"Ġ?":1622,"user":1623,"ology":1624,"but":1625,"Ġevery":1626,"Ġnon":1627,"ather":1628,"itor":1629,"Info":1630,"ĠRes":1631,"Ġmed":1632,"Ġpass":1633,"Int":1634,"ases":1635,"Text":1636,"Ġsize":1637,"arn":1638,"Ġz":1639,"alth":1640,"_\\":1641,"Ġsee":1642,"Ġ);":1643,"ood":1644,"Ġappro":1645,"Ġbuild":1646,"Ġprocess":1647,"unc":1648,"Add":1649,"Node":1650,"rop":1651,"search":1652,"ension":1653,"md":1654,"ience":1655,"onse":1656,"Ġthree":1657,"ape":1658,"etwork":1659,"ui":1660,"Ġ\\\\":1661,"':":1662,"overn":1663,"\"\"":1664,"word":1665,"lish":1666,"Ġserv":1667,"Ġthrow":1668,"itions":1669,"Man":1670,"LA":1671,"Ġdifferent":1672,"Ġassert":1673,"Ġlocal":1674,"Ġatt":1675,"ains":1676,"Ġduring":1677,"pert":1678,"color":1679,"Ġbel":1680,"tribute":1681,"âĢľ":1682,"chn":1683,"/**":1684,"Field":1685,"Qu":1686,"Ġdevelop":1687,"40":1688,"IC":1689,"Param":1690,"olean":1691,"uthor":1692,"Ġorder":1693,"Config":1694,"Ġmem":1695,"Ġbecause":1696,"Ġpartic":1697,"ega":1698,"lose":1699,"Ġfind":1700,"Path":1701,"align":1702,"())":1703,"eters":1704,"This":1705,"ox":1706,"Ġgiven":1707,"Ġmade":1708,"Ġsing":1709,"Ġerror":1710,"amespace":1711,"Ġrequest":1712,".âĢĿ":1713,"ane":1714,"ats":1715,"Ġelement":1716,"less":1717,"igma":1718,"Ġevent":1719,"Ġdisc":1720,"Ã©":1721,"outh":1722,"Ġfam":1723,"ĠSc":1724,"Def":1725,"Ġteam":1726,"ball":1727,"Index":1728,"////////":1729,"197":1730,"ission":1731,"Ġbl":1732,"ives":1733,"ural":1734,"length":1735,"Map":1736,"Ġrele":1737,"ital":1738,"With":1739,"****************":1740,"arm":1741,"ctions":1742,"Ġperform":1743,"State":1744,"Ġgu":1745,"ride":1746,"TR":1747,"ived":1748,"Ġfact":1749,"aking":1750,"Ġlink":1751,"ĠFr":1752,"Ġeven":1753,"ĠIs":1754,"Ġfollowing":1755,"ĠAnd":1756,"ustom":1757,"33":1758,"Ġcontin":1759,"};":1760,"irc":1761,"Equ":1762,"Ġmat":1763,"Context":1764,"config":1765,"Ġ{\\":1766,"Ġaut":1767,"phi":1768,"des":1769,"stance":1770,".,":1771,"Ġwrit":1772,"mp":1773,"Ġ/*":1774,"Ġarray":1775,"fin":1776,"Item":1777,"}_{":1778,"Re":1779,"off":1780,"Ġtop":1781,"}^{":1782,"Ġmain":1783,"Ġknow":1784,"eps":1785,"Array":1786,"Ġdid":1787,"mit":1788,"urs":1789,"ury":1790,"Ġ-->":1791,"-\\":1792,"api":1793,"ports":1794,"vir":1795,"ĠOn":1796,"fe":1797,"ality":1798,"23":1799,"UR":1800,"ually":1801,"iter":1802,"ĠĠĠĠĠĠĠĠĠĠĠĠĠĠĠĠĠĠĠĠĠĠĠĠĠĠĠ":1803,"Ġstruct":1804,"Ġ(!":1805,"Ġterm":1806,"pty":1807,"^{\\":1808,"iness":1809,"PI":1810,"Form":1811,"Service":1812,"Ġpar":1813,"Ġlook":1814,"node":1815,"block":1816,"apache":1817,"plication":1818,"Ġway":1819,"Over":1820,"map":1821,"uf":1822,"Ġcontent":1823,"Ġhtt":1824,"Ġtem":1825,"result":1826,"60":1827,"Ġdown":1828,"ends":1829,"idd":1830,"iev":1831,"alk":1832,"Ġinformation":1833,"Ġlead":1834,"Ġu":1835,"inter":1836,"dt":1837,"Ġvery":1838,".\"":1839,"Ġexper":1840,"ait":1841,"ateg":1842,"wit":1843,"els":1844,"='":1845,"Not":1846,"Ġown":1847,"aining":1848,"ĠDe":1849,"Ġ});":1850,"umer":1851,"Ġchild":1852,"21":1853,"Or":1854,"Ġtarget":1855,"ĠRe":1856,"Des":1857,"\\\\":1858,"Ġmust":1859,"icon":1860,"';":1861,"Ġopen":1862,"model":1863,"cd":1864,"Ġeffect":1865,"Ġallow":1866,"Ġmark":1867,"lambda":1868,"Ġdefault":1869,"uck":1870,"lobal":1871,"istory":1872,"Ġvari":1873,"co":1874,"ina":1875,"ability":1876,"istr":1877,"mathbb":1878,"ĠCl":1879,"2022":1880,"Ġ},":1881,"igned":1882,"Ġref":1883,"Ġvis":1884,"ulation":1885,"[]":1886,"ync":1887,"efore":1888,"vious":1889,"Ġmov":1890,"side":1891,"Ġtext":1892,"from":1893,"true":1894,"ags":1895,"Ġworld":1896,"my":1897,"ponent":1898,"arge":1899,"Ġmet":1900,"Size":1901,"bol":1902,"All":1903,"ĠPh":1904,"Ġprovid":1905,"ness":1906,"Ġprot":1907,"ĠUniversity":1908,"Ġlog":1909,"Ġpop":1910,"aces":1911,"object":1912,"Ġhelp":1913,"utes":1914,"####":1915,"bed":1916,"Ġear":1917,"ari":1918,"Ġhere":1919,"References":1920,"net":1921,"Ġcoun":1922,"Ġthose":1923,"ĠPr":1924,"28":1925,"input":1926,"ior":1927,"ĠĠĊ":1928,"title":1929,"vert":1930,"ĠYou":1931,"Al":1932,"Ġincre":1933,"Build":1934,"iginal":1935,"hip":1936,"ral":1937,"ilter":1938,"AD":1939,"27":1940,"Ġfin":1941,"Ġbeg":1942,"bs":1943,"iled":1944,"Ġuser":1945,"body":1946,"plate":1947,"valid":1948,"Code":1949,"Fr":1950,"acter":1951,"ively":1952,"Result":1953,"no":1954,"enu":1955,"Ġsl":1956,"Ġcheck":1957,"Ġrecord":1958,"eturn":1959,"Ġleft":1960,"error":1961,"Ġcar":1962,"akes":1963,"head":1964,"Ġincluding":1965,"Ġconsider":1966,"ources":1967,"Ġnext":1968,"ification":1969,"LO":1970,"usiness":1971,"Ġsince":1972,"usic":1973,"ĠAmerican":1974,"Ġsmall":1975,"Message":1976,"Ġav":1977,"bl":1978,"point":1979,"UT":1980,"++":1981,"Ġcommun":1982,"Ġpat":1983,"ium":1984,"imit":1985,"ift":1986,"ĠShe":1987,"Ġpath":1988,"Ġtyp":1989,"Hand":1990,"ĠMar":1991,"evice":1992,"Ġbro":1993,"abled":1994,"perties":1995,"iving":1996,"create":1997,"beta":1998,"www":1999,"Ġlevel":2000,"lished":2001,"Ġrece":2002,"ination":2003,"odes":2004,"ograph":2005,"tract":2006,"ĠAss":2007,"ĠAd":2008,"ĠHow":2009,"ED":2010,"Ġwant":2011,"ailable":2012,"Ġrequire":2013,"ĠLe":2014,"FF":2015,"He":2016,"sec":2017,"assert":2018,"come":2019,"Ġmult":2020,"Ġcent":2021,"comp":2022,"lt":2023,"Ġjava":2024,"=\"../../../../":2025,"duct":2026,"Of":2027,"ING":2028,">&":2029,"aster":2030,"ploy":2031,"ware":2032,"Is":2033,"26":2034,"ouble":2035,"ret":2036,"ails":2037,"version":2038,"ume":2039,"Ġcreate":2040,"ilon":2041,"default":2042,"IG":2043,"Ġ:=":2044,"met":2045,"Ġfeature":2046,"MA":2047,"Ġconfig":2048,"Ġmuch":2049,"ymbol":2050,"Ġbreak":2051,"Ġposs":2052,"loat":2053,"ohn":2054,"Ġ,":2055,"Ġpost":2056,"Ġresults":2057,"rix":2058,"Ġblock":2059,"Ġpresent":2060,"cale":2061,"info":2062,"Ġagainst":2063,"Val":2064,"ĠOr":2065,"ocus":2066,"ĠâĢĶ":2067,"CH":2068,"Ġ(\\":2069,"Ph":2070,"nection":2071,"Ġvalues":2072,"Ġappe":2073,"ship":2074,"sm":2075,"gt":2076,"nder":2077,"Ġproject":2078,"Ġtry":2079,"ĠEng":2080,"ĠSystem":2081,"por":2082,"Ġ===":2083,"ene":2084,"ober":2085,"sk":2086,"start":2087,"ULL":2088,"ivity":2089,"reate":2090,"Ġversion":2091,"ley":2092,"IS":2093,"Ġprogram":2094,"omen":2095,"ird":2096,"ĠGet":2097,"Ġexample":2098,"Ġcond":2099,"Ġsrc":2100,"Ġanal":2101,"ponse":2102,"itional":2103,"Ġgood":2104,"Ġtri":2105,"ML":2106,"Ġexp":2107,"base":2108,"29":2109,"tings":2110,"Ġlet":2111,"include":2112,"Ġstill":2113,"^{-":2114,"MP":2115,"Ġview":2116,"urity":2117,"ches":2118,"Ġgame":2119,"state":2120,"ilde":2121,"uro":2122,"ormal":2123,"It":2124,"ety":2125,"content":2126,"--------------------------------":2127,"Ġpres":2128,"ĠWh":2129,"ounc":2130,"next":2131,"down":2132,"ĠAll":2133,"Sc":2134,"max":2135,"java":2136,"Ġfour":2137,"ĠAt":2138,"Ġhead":2139,"aut":2140,"une":2141,"enn":2142,"ĠJan":2143,"ai":2144,"ĠUnited":2145,"sigma":2146,"Ġident":2147,"Manager":2148,"Ġ__":2149,"Ġdon":2150,"icy":2151,"tn":2152,"Ġtake":2153,"ET":2154,"place":2155,"ename":2156,"Ġaround":2157,"Ġcode":2158,"pm":2159,"uage":2160,"Ġinput":2161,"Ġcalled":2162,"Ġplace":2163,"pression":2164,"Log":2165,"ken":2166,",âĢĿ":2167,"tes":2168,"iction":2169,"Ġstyle":2170,"Model":2171,"ĉĉĉĉĉĉ":2172,"Ġreal":2173,"acy":2174,"Ġcontext":2175,"Ġcr":2176,"ustr":2177,"css":2178,"Ser":2179,"lected":2180,"Ġ};":2181,"Table":2182,"ĠBr":2183,"elete":2184,"using":2185,"Up":2186,"ĠPl":2187,"80":2188,"Ġperson":2189,"ender":2190,"define":2191,"sw":2192,"Ġstand":2193,"Ġmax":2194,"android":2195,"itt":2196,"rec":2197,"google":2198,"Ġbase":2199,"ĠMay":2200,"ump":2201,"gamma":2202,"Out":2203,"Ġdel":2204,")}":2205,"Ġimp":2206,"ched":2207,"ended":2208,"Ġexpl":2209,"olv":2210,"ottom":2211,"New":2212,"ĠGr":2213,"space":2214,"Ġreport":2215,"context":2216,"mathbf":2217,"Ġrepresent":2218,"Ġschool":2219,"Ġlife":2220,"amed":2221,"Ġbased":2222,"arrow":2223,"Ġdep":2224,"Ġold":2225,"Ġindex":2226,"45":2227,"From":2228,"ansp":2229,"AB":2230,"ony":2231,"icle":2232,"2020":2233,"Ġoptions":2234,"Ġnode":2235,";</":2236,"Ġbest":2237,"AS":2238,"method":2239,"User":2240,";&":2241,"mb":2242,"UN":2243,"Ġrefer":2244,"center":2245,"Ġchang":2246,"tainer":2247,"Ġdescri":2248,"Group":2249,"Ġinstance":2250,"roller":2251,"elect":2252,"lick":2253,"Ġdi":2254,"ES":2255,"ENT":2256,"ugg":2257,"sup":2258,"DO":2259,"ling":2260,"Ġpower":2261,"ised":2262,"cast":2263,"earch":2264,"Reg":2265,"af":2266,"ored":2267,"with":2268,"Ġmap":2269,"Ġwithout":2270,"Trans":2271,"ĠComm":2272,"ideo":2273,"Ġsource":2274,"viron":2275,"package":2276,"Ġitem":2277,"Pl":2278,"=\"../":2279,"prot":2280,"ĠBl":2281,"Ġknown":2282,"option":2283,"ux":2284,"ĠTo":2285,"ival":2286,"Dis":2287,"ĠÐ":2288,"Ġwithin":2289,"99":2290,"overnment":2291,"+\\":2292,"Comm":2293,"Color":2294,"ators":2295,"see":2296,"Ġnil":2297,"Inter":2298,"Ġbook":2299,"ĠMan":2300,"ately":2301,"Ġcare":2302,"Ġtechn":2303,"Ġcap":2304,"count":2305,"plement":2306,"aving":2307,"================":2308,"System":2309,"delta":2310,"ĠĠĠĠĠĠĠĠĠĠĠĠ":2311,"itive":2312,"And":2313,"Ġday":2314,"TD":2315,"ances":2316,"sl":2317,"ĠSp":2318,"Ġann":2319,"ories":2320,"Ġcour":2321,"Response":2322,"ero":2323,"Ġsk":2324,"adi":2325,"2021":2326,"Ġla":2327,"web":2328,"Query":2329,"rel":2330,"\".":2331,"aterial":2332,"IL":2333,"ĠUS":2334,"tab":2335,"Ġconf":2336,"check":2337,"ĠCan":2338,"ithub":2339,"olution":2340,"ained":2341,"Ġet":2342,"Property":2343,"ternational":2344,"ways":2345,"doc":2346,"style":2347,"ilar":2348,"iod":2349,"OT":2350,"Ġsom":2351,"ilt":2352,"namespace":2353,"Ġaccess":2354,"Ġweek":2355,"Ġservice":2356,"position":2357,"ĠBut":2358,"}{\\":2359,"Ġlater":2360,"Ġadv":2361,"Ġbool":2362,"aff":2363,"print":2364,"Ġstd":2365,"Ġocc":2366,"ĠCar":2367,"uments":2368,"illion":2369,"Call":2370,"Client":2371,"=\"#":2372,"^\\":2373,"Ġsever":2374,"rho":2375,"Ġaddress":2376,"ules":2377,"Ġseries":2378,"ĠIm":2379,"Ġorgan":2380,"Ġsuccess":2381,">(":2382,"tual":2383,"Ġiss":2384,"Ġresponse":2385,"Cl":2386,"Pr":2387,"uary":2388,"Ġseason":2389,"Ġproble":2390,"rist":2391,"ique":2392,"Ġenc":2393,"ifier":2394,"hes":2395,"big":2396,"false":2397,"ĠThey":2398,"Ġtable":2399,"asure":2400,"Ġsingle":2401,"db":2402,"ibr":2403,"35":2404,"Ġbeh":2405,"2017":2406,"ixed":2407,"Ð°":2408,"Ġ$(":2409,"Ġke":2410,"oken":2411,"sq":2412,"ths":2413,"ording":2414,"*}":2415,"ready":2416,"static":2417,"Ġfamily":2418,"ently":2419,"eger":2420,"Count":2421,"Ġcontrol":2422,"event":2423,"refer":2424,"Rec":2425,"66":2426,"github":2427,"Read":2428,"oud":2429,"2015":2430,"Ġchange":2431,"Override":2432,"Cell":2433,"urch":2434,"Ġlarge":2435,"Ġinitial":2436,"annel":2437,"2016":2438,"theta":2439,"stru":2440,"Ġlaw":2441,"inc":2442,"ĠĠĠĠĠĠĠĠĠĠ":2443,"Ġcolor":2444,"gress":2445,"CE":2446,"ocial":2447,")</":2448,"uk":2449,"pen":2450,"ĠJohn":2451,"Ġdistri":2452,"ĠEn":2453,"ands":2454,"tau":2455,"Ġdem":2456,"Ġins":2457,"Arg":2458,"Ġspace":2459,"Builder":2460,"Ġaction":2461,"âĢ¦":2462,"ison":2463,"call":2464,"Mod":2465,"ajor":2466,"TH":2467,"aint":2468,"2018":2469,"Method":2470,"Ġavailable":2471,"Ġcount":2472,"Ġposition":2473,"actory":2474,"Ġthink":2475,"Ad":2476,"âĢĶ":2477,"Ġanother":2478,"Ġfilm":2479,"US":2480,"Ð¾":2481,"ĠâĢĺ":2482,"urther":2483,"atab":2484,"nect":2485,"ĠWorld":2486,"where":2487,"Ġ()":2488,"ĠTe":2489,"angle":2490,"ĠĠĠĠĠĠĠĠĠĠĠĠĠĠĠĠĠĠĠĠĠĠĠĠĠĠĠĠĠĠĠ":2491,"ebug":2492,"mathrm":2493,"hold":2494,"ven":2495,"ĠNov":2496,"Ġmessage":2497,"$-":2498,"imate":2499,"ĠList":2500,"ĠStates":2501,"ourn":2502,"atter":2503,"Ġinclude":2504,"IP":2505,"build":2506,"Ġfoot":2507,"energy":2508,"Ġobserv":2509,"options":2510,"rt":2511,"Ġlinks":2512,"light":2513,"ords":2514,"lem":2515,"nu":2516,"01":2517,"55":2518,"aim":2519,"oop":2520,"2019":2521,"<!--":2522,"figure":2523,"wards":2524,"Ġtot":2525,"prov":2526,"ĠSet":2527,"Ġbackground":2528,"ĠNULL":2529,"Ġfull":2530,"icro":2531,"vironment":2532,"Ġbound":2533,"Âł":2534,"Ġleg":2535,"Ġuntil":2536,"](":2537,"de":2538,"current":2539,"argin":2540,"uture":2541,"quad":2542,"ĠJul":2543,"ending":2544,"la":2545,"Ġobtain":2546,"Ġdocument":2547,"ĠBe":2548,"image":2549,"Ġandroid":2550,"Ġoriginal":2551,"eqn":2552,"Date":2553,"Ġmatch":2554,"ĠCO":2555,"But":2556,"null":2557,"bit":2558,"Ġmass":2559,"NA":2560,"Ġcomput":2561,"Ġinvest":2562,"Ġspe":2563,"core":2564,"Ġnear":2565,"ram":2566,"Ġrange":2567,"Ġsum":2568,"ĠReg":2569,"ĠCount":2570,"Stream":2571,"If":2572,"cond":2573,"])":2574,"Ðµ":2575,"Ġret":2576,"39":2577,"query":2578,"dom":2579,"Ġplayers":2580,"Ġarea":2581,"Ġhome":2582,"func":2583,"ides":2584,"2014":2585,"Bar":2586,"Ġexist":2587,"Ġstat":2588,"Ġeng":2589,"uman":2590,"partial":2591,"Ġproduct":2592,"Input":2593,"lex":2594,"ĠĠĠĠĠĠĠĠĠĠĠĠĠĠĠĠĠ":2595,"times":2596,"bum":2597,"leq":2598,"aper":2599,"request":2600,"Ġpub":2601,"ĠNational":2602,"Ġopt":2603,"Ġinterest":2604,"Ġbusiness":2605,"agement":2606,"Ġ<<":2607,"Ġalong":2608,"Ġnetwork":2609,"ĠNo":2610,"Ġdue":2611,"Status":2612,"Ġcell":2613,"pecial":2614,"lib":2615,"Ġbu":2616,"Sub":2617,"}$.":2618,"End":2619,"ĠPol":2620,"tra":2621,"}$,":2622,"respond":2623,"ĠMin":2624,"ither":2625,"ards":2626,"Ġelect":2627,"Ġborder":2628,"run":2629,"Ġdepend":2630,"Gener":2631,"Ġoffic":2632,"ĠGu":2633,"Ġes":2634,"dir":2635,"arr":2636,"Util":2637,"ection":2638,"lin":2639,"75":2640,"args":2641,"Ass":2642,"illi":2643,"Image":2644,"((":2645,"ysis":2646,"hand":2647,"Ġassoci":2648,"finished":2649,"anel":2650,"server":2651,"ung":2652,"Ġproperty":2653,"sim":2654,"mail":2655,"External":2656,"leg":2657,"Ġsay":2658,"php":2659,"34":2660,"Ġloc":2661,"ĠCal":2662,"Ġwidth":2663,"imal":2664,"Ġturn":2665,"ĠJanuary":2666,"31":2667,"Ġfew":2668,"ĠYork":2669,"client":2670,"stand":2671,"]{":2672,"atform":2673,"}(\\":2674,"inition":2675,"Ġshort":2676,"IR":2677,"90":2678,"Ġparent":2679,"ĠAug":2680,"ibility":2681,"196":2682,"Ġfa":2683,"Fl":2684,"init":2685,"Ġprevious":2686,"Ġca":2687,"ĠMed":2688,"Ġabove":2689,"oto":2690,"Ġcharacter":2691,"Ġ($":2692,"ONT":2693,"Ġ->":2694,"Ġcompany":2695,"Ġwin":2696,"rodu":2697,"riter":2698,"Be":2699,"reen":2700,"Delta":2701,"ĠWest":2702,"omega":2703,"ague":2704,"imum":2705,"Ġimage":2706,"36":2707,"ertain":2708,"Ġbas":2709,"uster":2710,"Ġdesign":2711,"ĠGe":2712,"Ġrespect":2713,"active":2714,"ĠOct":2715,"Pos":2716,"andom":2717,"creen":2718,"Ġlang":2719,"Ġoutput":2720,"Ġmag":2721,"Ġgeneral":2722,"ians":2723,"Ġsuper":2724,"button":2725,"atabase":2726,"cer":2727,"tilde":2728,"ica":2729,"Ġfore":2730,"\\,":2731,"Ġboolean":2732,"Ġhapp":2733,"No":2734,"Ġseveral":2735,"ales":2736,"Ed":2737,"ued":2738,"NS":2739,"Ġstudy":2740,"Ġmusic":2741,"ĠState":2742,"utions":2743,"orage":2744,"Ġaff":2745,"iple":2746,"Str":2747,"ĠPar":2748,"eff":2749,"adding":2750,"posed":2751,"arning":2752,"Block":2753,"ĠSchool":2754,"cho":2755,"Ġpolit":2756,"Ġsit":2757,"Ġpage":2758,"Ġgrow":2759,"unfinished":2760,"Token":2761,"Ġvol":2762,"ention":2763,"xi":2764,"ĠHowever":2765,"inary":2766,"ables":2767,"ĠčĊ":2768,"has":2769,"opt":2770,"oke":2771,"Ġenergy":2772,"page":2773,"Ġprom":2774,"Instance":2775,"Ġtotal":2776,"ks":2777,"do":2778,"mber":2779,"typ":2780,"aged":2781,"44":2782,"Ġestab":2783,"stit":2784,"Ġdom":2785,"Ġfree":2786,"undle":2787,"37":2788,"book":2789,"0000":2790,"2013":2791,"height":2792,"xy":2793,"Ġalready":2794,"Component":2795,"ĠBy":2796,"osp":2797,"Off":2798,"Source":2799,"now":2800,"Ġ\"\"\"":2801,"dl":2802,"Ġexec":2803,"Ġclos":2804,"ĠThere":2805,"chema":2806,"oper":2807,"OS":2808,"fty":2809,"jav":2810,"ĉĊ":2811,"alf":2812,"Line":2813,"EL":2814,"Ġrequired":2815,"au":2816,"Ġexpected":2817,"38":2818,"[\"":2819,"struction":2820,"Par":2821,"child":2822,"btn":2823,"App":2824,"ours":2825,"ĠAdd":2826,"ĠTest":2827,"Ġless":2828,"Action":2829,"oman":2830,"Act":2831,"ĠEd":2832,"Ġhealth":2833,"Ġtoo":2834,"ought":2835,"EX":2836,"Ġregion":2837,"Base":2838,"Ġcur":2839,"2010":2840,"ynam":2841,"ney":2842,"aced":2843,"OP":2844,"({":2845,"Options":2846,"ĠSouth":2847,"Ġside":2848,"egr":2849,"Ġredu":2850,"Ġvalid":2851,"icense":2852,"infty":2853,"ĠSo":2854,"frame":2855,"ĠSup":2856,"Null":2857,"urope":2858,"Ġwhe":2859,"Ġprof":2860,"ĠWar":2861,"Nav":2862,"48":2863,"ĠCounty":2864,"urg":2865,"conom":2866,"Ġput":2867,"ĠApr":2868,"Ġhttp":2869,"Ġlow":2870,"ights":2871,"witch":2872,"Head":2873,"Ġpossible":2874,"Ġresearch":2875,"Ġcompon":2876,"YPE":2877,"Equal":2878,"ittle":2879,"Resource":2880,",\"":2881,"rior":2882,"mat":2883,"append":2884,"ĠSer":2885,"Ġrest":2886,"cit":2887,"ĠAp":2888,"ĠMarch":2889,"Ġ+=":2890,"Ġmembers":2891,"raft":2892,"FA":2893,"Ġimportant":2894,"Style":2895,"2012":2896,"header":2897,"Ġdefined":2898,"Ġpot":2899,"mark":2900,"ptember":2901,"yles":2902,"Ġclear":2903,"Ġvir":2904,"yl":2905,"Ġport":2906,"ament":2907,"ĠSec":2908,"ze":2909,"Handler":2910,"used":2911,"ocol":2912,"195":2913,"Ġlarg":2914,"AG":2915,"tx":2916,"Ġparticular":2917,"2011":2918,"AP":2919,"Ð¸":2920,"Lay":2921,"Ġearly":2922,"Ġsimilar":2923,"eqref":2924,"ategory":2925,"ones":2926,"Buffer":2927,"parent":2928,"oice":2929,"dec":2930,"){":2931,"Ġlength":2932,"|\\":2933,"Ġhold":2934,"ugin":2935,"Oper":2936,"aps":2937,"eqnarray":2938,"target":2939,"lege":2940,"iment":2941,"Ġrole":2942,"non":2943,"idget":2944,"Ġmajor":2945,"rows":2946,"ns":2947,"ĠRep":2948,"ĠCo":2949,"Ġdeath":2950,"REF":2951,"Ġmean":2952,"Run":2953,"MS":2954,"Ġpay":2955,"70":2956,"Dec":2957,"dr":2958,"Content":2959,"Ġdiv":2960,"ĠĠĠĠĠĠĠĠĠĠĠĠĠĠ":2961,"Ġhost":2962,"Ġtimes":2963,"Ġgovernment":2964,"erman":2965,"Ġcity":2966,"rect":2967,"ising":2968,"Ġcustom":2969,"select":2970,"EE":2971,"ĠĠĠĠĠĠĠĠĊ":2972,"idual":2973,"semb":2974,"''":2975,"clus":2976,"cember":2977,"Ġchildren":2978,"Attribute":2979,"ĠCont":2980,"igation":2981,"ĠInt":2982,"$$":2983,"ured":2984,"imary":2985,"Ġdeterm":2986,"rs":2987,"ustral":2988,"Ġgreat":2989,"case":2990,"cor":2991,"ĠFl":2992,"Ġgoing":2993,"ĠCity":2994,"ĠDr":2995,"ĠBo":2996,"ae":2997,"cul":2998,"Ġpoints":2999,"ably":3000,"ada":3001,"ached":3002,"alt":3003,"omet":3004,"json":3005,"izer":3006,"SP":3007,"ĠQu":3008,"local":3009,"Ġgl":3010,"Select":3011,"Ġquest":3012,"Ġperiod":3013,"Ġalways":3014,"src":3015,"Ġpack":3016,"Comp":3017,"imation":3018,"Ġtrack":3019,"istic":3020,"navbar":3021,"uation":3022,"CK":3023,"Wh":3024,"Ġauthor":3025,"capt":3026,"\"]":3027,"cle":3028,"Ġaccount":3029,"Factory":3030,"ĠWith":3031,"UE":3032,"flow":3033,"acing":3034,"thers":3035,"anch":3036,"adata":3037,"ATE":3038,"Ġra":3039,"ĠJune":3040,"ĠRec":3041,"nown":3042,"pc":3043,"Ġalbum":3044,"ĠBrit":3045,"Function":3046,"rl":3047,"Start":3048,"05":3049,"ients":3050,"*/":3051,"Ġbody":3052,"lied":3053,"Ġcomb":3054,"ĠIN":3055,"Ġspecial":3056,"gor":3057,"Sec":3058,"Ġsong":3059,"vers":3060,"HE":3061,"Window":3062,"Ġbetter":3063,"ĠGener":3064,"thing":3065,"module":3066,"open":3067,"istor":3068,"Ġdisplay":3069,"Ġmight":3070,"Ġlate":3071,"ĠPart":3072,"Ġwon":3073,"CC":3074,"Ġbecame":3075,"ana":3076,"ster":3077,"ilit":3078,"property":3079,"Ġmeasure":3080,"Ġeas":3081,"ÑĤ":3082,"xml":3083,"ptr":3084,"ĠAugust":3085,"ĠApril":3086,"Ġnever":3087,"TO":3088,"Frame":3089,"Ġcorrespond":3090,"tributes":3091,"ĠAb":3092,"ĠChrist":3093,"ĠSeptember":3094,"Ġide":3095,"ialog":3096,"ike":3097,"ude":3098,"cell":3099,"umb":3100,"Default":3101,"era":3102,"Ġcover":3103,"Ġstrong":3104,"Ġlabel":3105,"Ġwater":3106,"ĠNorth":3107,"Ġdest":3108,"Ap":3109,"Ġbig":3110,"otype":3111,"Us":3112,"Ġland":3113,"OD":3114,"iff":3115,"ij":3116,"ĠFeb":3117,"ops":3118,"raphics":3119,"df":3120,"ĠOctober":3121,"status":3122,"Link":3123,"ĠEurope":3124,"OL":3125,"Ġsat":3126,"Version":3127,"Ġmar":3128,"ĠObject":3129,"Ġsection":3130,"Ġprovide":3131,"sg":3132,"////////////////":3133,"ĠJuly":3134,"HT":3135,"char":3136,"~~":3137,"rew":3138,"LASS":3139,"Ġevents":3140,"pose":3141,"Ġnum":3142,"member":3143,"dict":3144,"sequ":3145,"ino":3146,"first":3147,"Ġlay":3148,"Sp":3149,"gener":3150,"epar":3151,"ls":3152,"bottom":3153,"Ġwomen":3154,"Ġleast":3155,"host":3156,"element":3157,"display":3158,"Ġsays":3159,"orem":3160,"strong":3161,"ged":3162,"Ġdiscuss":3163,"ĠDes":3164,"Ġresource":3165,"Ġhistory":3166,"ĠReturn":3167,"Point":3168,"pected":3169,"Ġindic":3170,"ĠNone":3171,"rowser":3172,"ĠClass":3173,"ansport":3174,"Prov":3175,"Ġfootball":3176,"last":3177,"Ġprint":3178,"Ġprob":3179,"ĠWhen":3180,"ĠDecember":3181,"Ġcost":3182,"post":3183,"bution":3184,"ves":3185,"na":3186,"Ġsignific":3187,"Number":3188,"Ġload":3189,"find":3190,"ĠNovember":3191,"True":3192,"ĠAct":3193,"Ġreally":3194,"ids":3195,"buf":3196,"ply":3197,"Ã¡":3198,"Ġhard":3199,"ĠDis":3200,"Ġmove":3201,"});":3202,"cm":3203,"Task":3204,"ĠMc":3205,"gorith":3206,"ĠGo":3207,"Ġprotected":3208,"ependent":3209,"meta":3210,"psi":3211,"Ġclient":3212,"unk":3213,"ĠMe":3214,"write":3215,"Ġparameter":3216,"Ġparameters":3217,"ogn":3218,"rest":3219,"Ġformer":3220,"ething":3221,"gle":3222,"eed":3223,"Ġpo":3224,"only":3225,"lease":3226,"Ġeither":3227,"Ġsite":3228,"artment":3229,"abor":3230,"2023":3231,"VER":3232,"Ġbir":3233,"ensure":3234,"gen":3235,"description":3236,")(":3237,"stream":3238,"ried":3239,"Ġant":3240,"reet":3241,"apping":3242,"Ġproblem":3243,"ering":3244,"2009":3245,"Part":3246,"push":3247,"Ġoption":3248,"ham":3249,"Label":3250,"Ġlight":3251,"Filter":3252,"ĠNot":3253,"Ġacross":3254,"ipp":3255,"ught":3256,"irm":3257,"private":3258,"ĠDef":3259,"ĠComp":3260,"Ġep":3261,"Ġ{@":3262,"Ġcommand":3263,"ftware":3264,"Ġcoll":3265,"ĠĠĠĠĠĠĠĠĠĠĠĠĊ":3266,"cdot":3267,"Ġthrows":3268,"idence":3269,"eline":3270,"Ġcreated":3271,"std":3272,"Ġglobal":3273,"Page":3274,"Ġdays":3275,"si":3276,"Ġclose":3277,"FI":3278,"}}\\":3279,"Ġimplement":3280,"ĠFig":3281,"sol":3282,"ruary":3283,"aring":3284,"imension":3285,"${":3286,"ama":3287,"png":3288,"Ġtask":3289,"img":3290,"Ġcontain":3291,"Ġcolumn":3292,"aken":3293,"Ġwindow":3294,"II":3295,"Ġpotential":3296,"caption":3297,"ĠÂ":3298,"08":3299,"Command":3300,"ging":3301,"ĠThese":3302,"Ġstatus":3303,"foot":3304,"Ġcompet":3305,"Ġhttps":3306,"Ġmember":3307,"endif":3308,"Ġmodels":3309,"(&":3310,"GL":3311,"layout":3312,"Ġshows":3313,"udio":3314,"vis":3315,"Ġred":3316,"ĠCor":3317,"inst":3318,"font":3319,"47":3320,"Check":3321,"change":3322,"epsilon":3323,"49":3324,"2008":3325,"///":3326,"idge":3327,"Em":3328,"ĠAustral":3329,"Ġfund":3330,"Ġ((":3331,"Ġdone":3332,"adio":3333,"Ġfocus":3334,"istry":3335,"format":3336,"Ext":3337,"IM":3338,"AA":3339,"Ġcommunity":3340,"Row":3341,"Ġfri":3342,"Ġlimit":3343,"aging":3344,"Ġterms":3345,"Om":3346,"Ġkeep":3347,"lies":3348,"obj":3349,"Ð½":3350,"Ġstory":3351,"ĉĉĉĉĉĉĉĉ":3352,"uggest":3353,"Ġcountry":3354,"Hel":3355,"ointer":3356,"lim":3357,"mem":3358,"Ġmeans":3359,"Create":3360,"Ġjoin":3361,"Ġoffer":3362,"Ġmarket":3363,"Ġamong":3364,"otion":3365,"Ġden":3366,"ĠOff":3367,"Ġindu":3368,"Pol":3369,"det":3370,"aves":3371,"eder":3372,"though":3373,"lip":3374,"Ġfurther":3375,"Ġwhether":3376,"Ġphys":3377,"signed":3378,"actions":3379,"Ġder":3380,"Ġpract":3381,"Ġfar":3382,"}[":3383,"ascript":3384,"Ġframe":3385,"hem":3386,"Ġoften":3387,"Ġindiv":3388,"igr":3389,"FONT":3390,"Ġemploy":3391,"Ġseem":3392,"oph":3393,"iddle":3394,"atal":3395,"ided":3396,")$.":3397,"Ġmillion":3398,"sole":3399,"Ġdeb":3400,"ries":3401,"ampion":3402,"Ġheight":3403,"thern":3404,"Ġcome":3405,"Ġair":3406,"RA":3407,"ypes":3408,"Ġdevelopment":3409,"Ġurl":3410,"ynt":3411,"SC":3412,"Sup":3413,"Format":3414,"uccess":3415,"ocket":3416,"Ġbecome":3417,"Ġsocial":3418,"heet":3419,"Ġprovided":3420,"Ġreleased":3421,"idden":3422,"len":3423,"rypt":3424,"07":3425,"sembly":3426,"ensity":3427,"Ġextends":3428,"Ġmom":3429,"ication":3430,"Equals":3431,"chi":3432,"Ġintrodu":3433,"Ġsample":3434,"allet":3435,"oding":3436,"most":3437,"Ġjob":3438,"ulture":3439,"ĠAfter":3440,"iol":3441,"ibrary":3442,"Ġdev":3443,"Ġtoget":3444,"ĠOne":3445,"ges":3446,"Ġdouble":3447,"Ġtrad":3448,"ners":3449,"Ġtook":3450,"ifact":3451,"ql":3452,"46":3453,"Ġsearch":3454,"Ġmedia":3455,"ography":3456,"Return":3457,"Ġtogether":3458,"acc":3459,"reed":3460,"Ġcamp":3461,"ttp":3462,"Ġable":3463,"vision":3464,"Listener":3465,"Ġshown":3466,"Pre":3467,"ĠDo":3468,"project":3469,"ABLE":3470,"asing":3471,"Ġdate":3472,"entry":3473,"ological":3474,"Ġupdate":3475,"Ġfuture":3476,"Ġcatch":3477,"yd":3478,"Ġgot":3479,"stract":3480,"mon":3481,"vari":3482,"itory":3483,"Ġservices":3484,"Ġsignificant":3485,"ensor":3486,"SON":3487,"Ġgames":3488,"Ġperformance":3489,"Ġcrit":3490,"Ġfive":3491,"Ġthird":3492,"oney":3493,"uid":3494,"BU":3495,"Ġcopy":3496,"response":3497,"verage":3498,"Ġarr":3499,"Char":3500,"py":3501,"ĠRev":3502,"Ġeduc":3503,"ĠPres":3504,"Gr":3505,"Ġage":3506,"ills":3507,"hel":3508,"wise":3509,"irection":3510,"ilities":3511,"Box":3512,"TER":3513,"Ġreceived":3514,"PRO":3515,"sqrt":3516,"Ġhouse":3517,"Controller":3518,"ĠVal":3519,"Ġlik":3520,"\"),":3521,"olved":3522,"exp":3523,"Ġquant":3524,"Ġtre":3525,"Ġreview":3526,"ÑĢ":3527,"gl":3528,"Ġvia":3529,"ii":3530,"ouch":3531,"Ġworking":3532,"service":3533,"Ġ]":3534,"apter":3535,"}_{\\":3536,"Ġindividual":3537,"Ġmaking":3538,"mm":3539,"iler":3540,"oo":3541,"NO":3542,"ites":3543,"dev":3544,"Ġbelow":3545,"ĠFebruary":3546,"num":3547,"ournal":3548,"apan":3549,"params":3550,"avel":3551,"close":3552,"aly":3553,"Ġ<!--":3554,"ĠRuss":3555,"Ġformat":3556,"_.":3557,"Child":3558,"erefore":3559,"Omega":3560,"Ġplan":3561,"Ġq":3562,"Ġhuman":3563,"Gamma":3564,"2007":3565,"Ġhaving":3566,"06":3567,"^*":3568,"First":3569,"medi":3570,"Ġelements":3571,"2000":3572,"lections":3573,"board":3574,"ams":3575,"Ġvideo":3576,"Ġinternal":3577,"How":3578,"mt":3579,"ille":3580,"Rep":3581,"See":3582,"Ġstructure":3583,"Ġbegin":3584,"Ġfac":3585,"icient":3586,"ĠBar":3587,"Ġonce":3588,"unch":3589,"Column":3590,"level":3591,"Ġlittle":3592,"\").":3593,"42":3594,"Ġcirc":3595,"Ġfeatures":3596,"Ġsequ":3597,"Ġgive":3598,"container":3599,"agn":3600,"UM":3601,"ĠUp":3602,"update":3603,"mult":3604,"Ġsent":3605,"aul":3606,"ĠKing":3607,"can":3608,"Ġwrite":3609,"ieve":3610,"filter":3611,"Ġseen":3612,"Ġbit":3613,"09":3614,"Ġadded":3615,"pol":3616,"Ġplayed":3617,"isk":3618,"Ġrelations":3619,"UI":3620,"Ġmargin":3621,"Ġsomething":3622,"Ġspecific":3623,"Ġpast":3624,"javascript":3625,"2006":3626,"refix":3627,"acity":3628,"small":3629,"Address":3630,"********************************":3631,"Ob":3632,"annot":3633,"based":3634,"Ġdiff":3635,"Last":3636,"Ġclaim":3637,"Bundle":3638,"ĠPer":3639,"Ġalign":3640,"Met":3641,"ĠHigh":3642,"ief":3643,"Ab":3644,"02":3645,"Ent":3646,"Ġassociated":3647,"Ġstudents":3648,"PC":3649,"URL":3650,"Ġcou":3651,"Ġsix":3652,"Ġmer":3653,"Ġyoung":3654,"ĠĠĠĠĠĠĠĠĠĠĠĠĠĠĠĠĠĠĠĠĠĠĠĠĠĠĠĠĠĠĠĠĠĠĠ":3655,"Ġpress":3656,"ĠMon":3657,"ference":3658,"Ġproperties":3659,"Ġinf":3660,"ements":3661,"roy":3662,"ĠArt":3663,"Ġarch":3664,"Ġask":3665,"ring":3666,"menu":3667,"Ġmethods":3668,"Ġben":3669,"adem":3670,"attr":3671,"Ġconc":3672,"urb":3673,"mar":3674,"Ġcases":3675,"Back":3676,"Ġspecified":3677,"Ġrate":3678,"igger":3679,"Ġmeet":3680,"psilon":3681,"Ġstates":3682,"ĠThat":3683,":</":3684,"ĠEX":3685,"04":3686,"ĠAg":3687,"Ġstream":3688,"Ġincluded":3689,"ĠAfr":3690,"ĠPark":3691,"Ġnec":3692,"ERR":3693,"Valid":3694,"ĠCent":3695,"Ġaway":3696,"Ġauto":3697,"Ġthings":3698,"<?":3699,"Ġver":3700,"Aut":3701,"year":3702,"Cache":3703,"soft":3704,"ises":3705,"}=":3706,"Ġspect":3707,"ĠHis":3708,"Ġ${\\":3709,"Ġchanges":3710,"Acc":3711,"remove":3712,"ĠSch":3713,"Length":3714,"Tem":3715,"Ġ``":3716,"plit":3717,"Ġsepar":3718,"Web":3719,"iven":3720,"Ġlower":3721,"ĠDep":3722,"You":3723,"Ġmiss":3724,"main":3725,"Ġfunctions":3726,"Ġgen":3727,"```":3728,"Ġmodule":3729,"structor":3730,"Output":3731,"Ġattack":3732,"Ġofficial":3733,"Ġsche":3734,"Ġnormal":3735,"CON":3736,"ĠChar":3737,"proto":3738,"symbol":3739,"Ġnamed":3740,"ĠDav":3741,"cap":3742,"ĠStr":3743,"65":3744,"03":3745,"Ġcontrib":3746,"ND":3747,"styles":3748,"Ġcross":3749,"ceed":3750,"output":3751,"Ġ...":3752,"ias":3753,"88":3754,"instance":3755,"Ġbuilding":3756,"Ġcontinue":3757,"ĠHREF":3758,"ĠCLASS":3759,"ington":3760,"Ġlanguage":3761,"Button":3762,"ha":3763,"IO":3764,"95":3765,"Ġserver":3766,"Ġstep":3767,"efined":3768,"Ġvarious":3769,"Ġsw":3770,"Ġdeg":3771,"Ġfail":3772,"').":3773,"izing":3774,"Ġanalysis":3775,"Ġstop":3776,"ondon":3777,"pass":3778,"ĠAm":3779,"Per":3780,"Det":3781,"Ġkind":3782,"Ġenvironment":3783,")$,":3784,"IV":3785,"ĠLa":3786,"igin":3787,"Ġheld":3788,"TP":3789,"show":3790,"eh":3791,"unity":3792,"Ġcallback":3793,"Ġbuilt":3794,"column":3795,"Ġ\\,":3796,"Ġmaterial":3797,"else":3798,"Ġtown":3799,"Next":3800,"ERT":3801,"anged":3802,"Ġneg":3803,"Ġsystems":3804,"Ġdescribed":3805,"subsection":3806,"Ġcomplex":3807,"Mode":3808,"process":3809,">>":3810,"ores":3811,"Ġhigher":3812,"isf":3813,"Ġstarted":3814,"tool":3815,"Url":3816,"Ġcenter":3817,"iet":3818,"Ġapplication":3819,"Ġinit":3820,"Ġcommon":3821,"rangle":3822,"....":3823,"Ġnational":3824,"ensions":3825,"Ġsuggest":3826,"ĠMark":3827,"oved":3828,"IZ":3829,"Ġmen":3830,"atural":3831,"Ġactiv":3832,"Ġ[]":3833,"Ġselect":3834,"Ġperm":3835,"Mem":3836,"Ġtreat":3837,"Ġfont":3838,"lying":3839,"Ġfeel":3840,"What":3841,"Spec":3842,"Ġsym":3843,"ĠOF":3844,"aries":3845,"ĠSm":3846,"Ġband":3847,"ĠInter":3848,"vare":3849,"dep":3850,"Ð¾Ð":3851,"require":3852,"Ġfields":3853,"Ġcame":3854,"ald":3855,"Ġexperience":3856,"aker":3857,"Ġobj":3858,"Ġtele":3859,"known":3860,"Ġpopulation":3861,"Ġvert":3862,"67":3863,"ĠID":3864,"offset":3865,"hib":3866,"scope":3867,"istrict":3868,"Ġinstead":3869,"Server":3870,")=":3871,"Ġenough":3872,"Ġeconom":3873,"ĠMy":3874,"rightarrow":3875,"ordin":3876,"Ġblack":3877,"oriz":3878,"tag":3879,"ĠBritish":3880,"oon":3881,"Ġ!==":3882,"^{(":3883,"Ġthough":3884,"Ġsuff":3885,"Offset":3886,"Ġcertain":3887,"ades":3888,"unit":3889,"number":3890,"Rem":3891,"Ġstandard":3892,"Ġrelease":3893,"Ġworks":3894,"TYPE":3895,"encies":3896,"Ġothers":3897,"Ġsure":3898,"orph":3899,"ese":3900,"++)":3901,"ĠBro":3902,"chan":3903,"Provider":3904,"Ġtool":3905,"ocr":3906,"Ġtypes":3907,"AM":3908,"rench":3909,"COL":3910,"Update":3911,"Ñģ":3912,"Big":3913,"ĠEnglish":3914,"ĠHouse":3915,"ĠData":3916,"Ġaddition":3917,"bor":3918,"Ġnone":3919,"uge":3920,"Ġcareer":3921,"Tag":3922,"Ġwar":3923,"Ġfiles":3924,"ĠAPI":3925,"Ġlot":3926,"ĠHT":3927,"Ġfollows":3928,"DB":3929,"spec":3930,"vec":3931,"amily":3932,"Ġtw":3933,"Local":3934,"Ġreason":3935,"draw":3936,"Ġconditions":3937,"Ġnav":3938,"Ġwritten":3939,"Ġphot":3940,"Ġpublished":3941,"NAME":3942,"reference":3943,"ĠTrans":3944,"atas":3945,"gorithm":3946,"Ġhalf":3947,"Ġamount":3948,"rown":3949,"Ġreturned":3950,"2005":3951,"ĠPe":3952,"()->":3953,"Ġmode":3954,"ĠHer":3955,"attle":3956,"ĠEast":3957,"varepsilon":3958,"ĠSim":3959,"Ġlim":3960,"adius":3961,"Ġmultiple":3962,"Ġwebs":3963,"sd":3964,"One":3965,"perature":3966,"Ġplayer":3967,"ounds":3968,"CL":3969,"Ġbegan":3970,"Min":3971,"Ġgroups":3972,"prototype":3973,"Layout":3974,"Ġcy":3975,"even":3976,"ĠAir":3977,"final":3978,"Ġapproach":3979,"cel":3980,"Ġdistribution":3981,"Ã³":3982,"Ġcannot":3983,"ministr":3984,"Access":3985,"Ġsimple":3986,"ba":3987,"Ġproduction":3988,"lier":3989,"Ġenter":3990,"ĠJapan":3991,"lean":3992,"olve":3993,"essages":3994,"ĠArray":3995,"Ġappear":3996,"After":3997,"bold":3998,"Ġvisit":3999,"Ġinterface":4000,"Ġconsidered":4001,"ĠEm":4002,"Parameter":4003,"ĠFile":4004,"exec":4005,"parse":4006,"long":4007,"Width":4008,"example":4009,"}^{\\":4010,"Ġlocation":4011,"elling":4012,"Ġmakes":4013,"|-":4014,"istics":4015,"Ġhowever":4016,"anies":4017,"Ġaccept":4018,"Ġshare":4019,"ouncil":4020,"ĠRed":4021,"icles":4022,"Let":4023,"aven":4024,"Ġinfl":4025,"IF":4026,"alle":4027,"Ġdoesn":4028,"bind":4029,"There":4030,"%%":4031,"eleg":4032,"Ġlive":4033,"ĠSw":4034,"ĠHar":4035,"Ġge":4036,"Configuration":4037,"(_":4038,"ĠCollege":4039,"aml":4040,"Ġlove":4041,"verse":4042,"ĠType":4043,"tempt":4044,"Ġcourse":4045,"lit":4046,"ĠÃ":4047,"Ġyet":4048,"plicit":4049,"Ġunderstand":4050,"Pack":4051,"Max":4052,"varphi":4053,"Ġengine":4054,"Ġbehav":4055,"Ġ**":4056,"ĠAcc":4057,"ĠLondon":4058,"Ġquery":4059,"textbf":4060,"window":4061,"iber":4062,"Ġaverage":4063,"resh":4064,"ĠMore":4065,"Ġss":4066,"Ġpaper":4067,"Ġrow":4068,"Vis":4069,"ĠLicense":4070,"atory":4071,"]);":4072,"UP":4073,"ĠAc":4074,"Ġargs":4075,"bool":4076,"Ġcommit":4077,"SD":4078,"depend":4079,"uint":4080,"}).":4081,"Ġcontains":4082,"ĠThen":4083,"uted":4084,"utils":4085,"obile":4086,"Ġbar":4087,"ford":4088,"Ġoperation":4089,"à¤":4090,"fa":4091,"Ġpur":4092,"77":4093,"Entity":4094,"Ġtaken":4095,"template":4096,"Target":4097,"criptor":4098,"ounced":4099,"attern":4100,"Ġsubject":4101,"ÃŃ":4102,"ĉĠĠĠ":4103,"expected":4104,"Ġaccording":4105,"Ġsolution":4106,"Ġconstant":4107,"Ġinstall":4108,"ĠInternational":4109,"ATION":4110,"ili":4111,"ĠLeague":4112,"Ġfall":4113,"Ġsem":4114,"########":4115,"wrap":4116,"Types":4117,"duc":4118,"41":4119,"strap":4120,"anced":4121,"andid":4122,"igital":4123,"=\"../../../../../":4124,"Ġcompos":4125,"ĠGroup":4126,"tries":4127,"dated":4128,"ãģ":4129,"Ġexpress":4130,"ula":4131,"ĠNews":4132,"Ġadditional":4133,"ingle":4134,"Ġlocated":4135,"Top":4136,"Ġreference":4137,"Ġpair":4138,"Ġgrad":4139,"born":4140,"500":4141,"break":4142,"ĠWilli":4143,"prop":4144,"ociety":4145,"43":4146,"Ġrespons":4147,"stry":4148,"older":4149,"Ġtraining":4150,"Ġconsist":4151,"Ġloss":4152,"support":4153,"oded":4154,"ĠEl":4155,"Open":4156,"ULT":4157,"task":4158,"Ġscale":4159,"circ":4160,"Ġmatrix":4161,"Ġscal":4162,"returns":4163,"otal":4164,"ampionship":4165,"irit":4166,"ĠMich":4167,"Ġroot":4168,"Op":4169,"Ġeval":4170,"Ġconnection":4171,"oz":4172,"should":4173,"ĠGL":4174,"2004":4175,"ĠWeb":4176,"Ġentry":4177,"bin":4178,"empty":4179,"Ġreported":4180,"kit":4181,"emph":4182,"uel":4183,"wide":4184,"Ġhom":4185,"Americ":4186,"Ġrelated":4187,"cache":4188,"Ġfloat":4189,"Ġuint":4190,"Ġwhy":4191,"Ġreturns":4192,"Ġnews":4193,"Ġsuccessful":4194,"like":4195,"Ġround":4196,"Ġunit":4197,"Ġactive":4198,"Ġlines":4199,"ĠWhat":4200,"Dr":4201,".\\":4202,"Ġtalk":4203,"Ġapplic":4204,"BC":4205,"token":4206,"Ġthought":4207,"85":4208,"Enc":4209,"Ġgraph":4210,"common":4211,"Ġvirtual":4212,"CODE":4213,"=\"-":4214,"PO":4215,"Ġfilter":4216,"hent":4217,"Ġcalcul":4218,"Case":4219,"ican":4220,"Work":4221,"boot":4222,"When":4223,"cs":4224,"Ġnecess":4225,"Ġbox":4226,"Ġcomponent":4227,"Ġintegr":4228,"match":4229,"ĠAmerica":4230,"([":4231,"ĠRem":4232,"artifact":4233,"Ġtheory":4234,"ĠII":4235,"Ġtoday":4236,"Ġflow":4237,"izes":4238,"VID":4239,"Ġ{}":4240,"Ġattempt":4241,"classes":4242,"ips":4243,"'re":4244,"quare":4245,"Ġwent":4246,"edia":4247,"ota":4248,"Ġcomplete":4249,"ĠIndia":4250,"ka":4251,"Container":4252,"ĠSan":4253,"Level":4254,"author":4255,"root":4256,"egraphics":4257,"Ġcho":4258,"includegraphics":4259,"Entry":4260,"KE":4261,"ilitary":4262,"control":4263,"Ġmoment":4264,"Ġprior":4265,"ĠPresident":4266,"Ġlen":4267,".)":4268,":\"":4269,"Ġ::":4270,".~\\":4271,"AV":4272,"Ġparticip":4273,"ĠRef":4274,"Ġcut":4275,"Ġbuffer":4276,"Utils":4277,"icip":4278,"Ġtim":4279,"late":4280,"Process":4281,"Ġlearn":4282,"Tree":4283,"inner":4284,"utable":4285,"Exec":4286,"Control":4287,"layer":4288,"Header":4289,"Ġapprox":4290,"illed":4291,"Ġchall":4292,"aign":4293,"Ġach":4294,"float":4295,"ellow":4296,"tree":4297,"ĠSub":4298,"bm":4299,"=\"_":4300,"skip":4301,"Ġground":4302,"wait":4303,"ico":4304,"Ġcollection":4305,"itect":4306,"Height":4307,"vention":4308,"avor":4309,"Ġentire":4310,"Pe":4311,"Ġcondition":4312,".$":4313,"Ġestablished":4314,"Ġtransform":4315,"Ġneeds":4316,"ĉĉĉĉĉĉĉ":4317,"}/":4318,"hood":4319,"ĠPhil":4320,"Ġassum":4321,"Callback":4322,"cr":4323,"Ġbecom":4324,"overline":4325,"Ġplatform":4326,"'),":4327,"Ġnov":4328,"Ġrandom":4329,"Ġtag":4330,"Ġclub":4331,"Lambda":4332,"Range":4333,"files":4334,"Ġdetails":4335,"Write":4336,"iqu":4337,"document":4338,"De":4339,"rief":4340,"iforn":4341,".}":4342,"Ġstation":4343,"ĠSee":4344,"Ġmonths":4345,"Ġoffset":4346,"ci":4347,"Ġprop":4348,"Ġdecl":4349,"ara":4350,"ĠLet":4351,"Ġdevice":4352,"}),":4353,"ĠSk":4354,"Copy":4355,"ĠApp":4356,"Ġneeded":4357,"icult":4358,"buffer":4359,"ĠReturns":4360,"ategy":4361,"Ġsatisf":4362,"Ġremove":4363,"97":4364,"mbox":4365,"astic":4366,"Ġfilms":4367,"oms":4368,"Load":4369,"./":4370,"aur":4371,"ĠStud":4372,"etch":4373,"ĠFirst":4374,"ĠFrom":4375,"istance":4376,"proof":4377,"ĠCour":4378,"Bo":4379,"Ġrather":4380,")]":4381,"96":4382,"SH":4383,"ris":4384,"Ġfrequ":4385,"\"))":4386,"stant":4387,"Ġmonth":4388,"Ġdoc":4389,"ĠUs":4390,"Interface":4391,"ĠDem":4392,"scale":4393,"CD":4394,"Ġautom":4395,">,":4396,"unt":4397,"Module":4398,"thon":4399,"icrosoft":4400,"ãĥ":4401,"Fe":4402,"Empty":4403,"That":4404,"[\\":4405,"Ġrunning":4406,"ĠOut":4407,"ociation":4408,"ensive":4409,"&\\":4410,"atives":4411,"PECT":4412,"Ġ~":4413,"adow":4414,"achine":4415,"Location":4416,"rics":4417,"Ġfig":4418,"VAL":4419,"ael":4420,"geq":4421,"Ġliter":4422,"QL":4423,"Ġimprov":4424,"Ag":4425,"ifornia":4426,"Ġspecies":4427,"Ġincludes":4428,"po":4429,"resource":4430,"Ġbi":4431,"Ġill":4432,"87":4433,"Ident":4434,"avy":4435,"sy":4436,"ledge":4437,"Ġregular":4438,"Ġselected":4439,"Ġexception":4440,"ĠCenter":4441,"ĠDon":4442,"Ġvill":4443,"iles":4444,"Ġnight":4445,"Br":4446,"INT":4447,"Ġnames":4448,"Thread":4449,"Ġ;":4450,"Ġpolicy":4451,"RL":4452,"ctx":4453,"values":4454,"just":4455,"Ġwebsite":4456,"appa":4457,"eft":4458,"ĠLog":4459,"Ġpers":4460,"patch":4461,"Ġnumer":4462,"ART":4463,"ĠWork":4464,"ube":4465,"acters":4466,"ĠAssert":4467,"Ġquestion":4468,"2001":4469,"Search":4470,"ully":4471,"abs":4472,"][":4473,"Ġfire":4474,"Ġface":4475,"{{":4476,";->":4477,"Ġrights":4478,"Ġfront":4479,"Description":4480,"Ġdeal":4481,"Ġonline":4482,"Ġcurrently":4483,"unn":4484,"SO":4485,"Ġunique":4486,"Ġdynam":4487,"nap":4488,"Http":4489,"ĠHealth":4490,"Ġtemperature":4491,"Option":4492,"Ġiter":4493,"Ġ*)":4494,"rict":4495,"artifactId":4496,"ĠĠĠĠĠĠĠĠĠĠĠĠĠĠĠĠĠĠĠĠĠ":4497,"Unit":4498,"ĠDE":4499,"IGN":4500,"Ġled":4501,"Json":4502,"sign":4503,"Ġimpact":4504,"inn":4505,"Ġinternational":4506,"=\"../../../../../../":4507,"Ġdescription":4508,"anger":4509,"Ġfood":4510,"Params":4511,"drop":4512,"Ġpercent":4513,"Kind":4514,"Ġsolid":4515,"nected":4516,"tml":4517,"Ġcompanies":4518,"Script":4519,"Ġobtained":4520,"Ġpositive":4521,"ĠCreate":4522,"grad":4523,"ĠRepublic":4524,"stitute":4525,"57":4526,"Ġoperator":4527,"2003":4528,")^":4529,"langle":4530,"nes":4531,"Ġda":4532,"uses":4533,"Ġwhite":4534,"Position":4535,"car":4536,"Ġhappen":4537,"Ġprofession":4538,"Ge":4539,"Ġprovides":4540,"Ġalmost":4541,"ancial":4542,"aid":4543,"Ġdistribut":4544,"iers":4545,"Ġcorrect":4546,"ĠDi":4547,"han":4548,"'>":4549,"issions":4550,"aching":4551,"command":4552,"Rel":4553,"arter":4554,"ĠDec":4555,"Ġrecogn":4556,"Ġcred":4557,"98":4558,"apped":4559,"RI":4560,"Ġfit":4561,"},\\":4562,"env":4563,"orge":4564,"Ġpain":4565,"CP":4566,"None":4567,"omb":4568,"Ġdidn":4569,"vey":4570,"lice":4571,"ĠVir":4572,"gn":4573,"Direct":4574,"API":4575,"Ġpolitical":4576,"pecially":4577,"tim":4578,"Ġtax":4579,"LI":4580,"aches":4581,"MM":4582,"ĠBlack":4583,"Ġviol":4584,"Do":4585,"Ġindustry":4586,"Ġconsum":4587,"Ġannounced":4588,"Ġobjects":4589,"background":4590,"ĠTO":4591,"Ġ>=":4592,"rupt":4593,"ĠFrench":4594,"before":4595,"Hash":4596,"maz":4597,"ming":4598,"nab":4599,"Ġissues":4600,"IZE":4601,"fs":4602,"Ġareas":4603,"Ġhandle":4604,"Sim":4605,"utor":4606,"dot":4607,"century":4608,"stack":4609,"witter":4610,"Ġcomes":4611,"ACK":4612,"groupId":4613,"models":4614,"Post":4615,"Ġrecent":4616,"under":4617,"Ġactually":4618,"uit":4619,"American":4620,"Current":4621,"device":4622,"Ġcorresponding":4623,"Ġcapt":4624,"Ġphase":4625,"Port":4626,"cos":4627,"conf":4628,"Ġvector":4629,"atrix":4630,"Ġexact":4631,"Ġson":4632,"Bl":4633,"ĠLaw":4634,"Ġsoftware":4635,"ĠRead":4636,"Serial":4637,"Ġ\"\\":4638,"ivil":4639,"Ġdensity":4640,"ĠIndian":4641,"68":4642,"arks":4643,"ĠNor":4644,"ursor":4645,"Ġcentury":4646,"Ġtree":4647,"elt":4648,"which":4649,"rd":4650,"Ġtaking":4651,"ĠNe":4652,"Ġitself":4653,"Ġsurface":4654,"ĠMod":4655,"ca":4656,"rip":4657,"omic":4658,"Ġregister":4659,"EQ":4660,"Ġpopular":4661,"ulations":4662,"ervices":4663,"Ġfailed":4664,"Ġincrease":4665,"Ġpattern":4666,"COLOR":4667,"ĠOpen":4668,"images":4669,"ĠDistrict":4670,"FO":4671,"Font":4672,"ios":4673,"ĠCalifornia":4674,"Ġusers":4675,"Ġfilename":4676,"Ġrender":4677,"Ġempty":4678,"HO":4679,"ĠCons":4680,"Connection":4681,"Ġissue":4682,"lands":4683,"Project":4684,"ĠPort":4685,"TI":4686,"Ġpadding":4687,"stylesheet":4688,"Settings":4689,"tains":4690,"cial":4691,"make":4692,"INE":4693,"Ġoverride":4694,"ĠIr":4695,"Ġdefine":4696,"Ġhistor":4697,"Ġir":4698,"ĠStreet":4699,"Ġzero":4700,"%;":4701,"msg":4702,"oe":4703,"Ġdraw":4704,"imated":4705,"Ġbenef":4706,"?:":4707,"Phi":4708,"ĠNS":4709,"sf":4710,"Ġleading":4711,"win":4712,"\"));":4713,"UB":4714,"Ġlikely":4715,"Ġtakes":4716,"Ġtechnology":4717,"useum":4718,"Ġforce":4719,"Ġeffects":4720,"Ġinflu":4721,"Change":4722,"Ġpatients":4723,"atio":4724,"Ġmoney":4725,"burg":4726,"hline":4727,"Async":4728,"agon":4729,"agment":4730,"hash":4731,"ECT":4732,"nov":4733,"Ġque":4734,"Ġrelationship":4735,"Ġsecurity":4736,"ĠPat":4737,"kappa":4738,"ua":4739,"Ġexpression":4740,"border":4741,"split":4742,"Ġwait":4743,"uate":4744,"Ġsend":4745,"Ã¼":4746,"ldots":4747,"uous":4748,"yes":4749,"Dir":4750,"ria":4751,"Ġexists":4752,"Ġstore":4753,"Ġtell":4754,"Ġuses":4755,"ulated":4756,"join":4757,"Ġlinear":4758,"itude":4759,"Ġwhose":4760,"ĠST":4761,"debug":4762,"Ġfem":4763,"Ġconfiguration":4764,"iences":4765,"ounter":4766,"ya":4767,"Ġscreen":4768,"atur":4769,"lood":4770,"erve":4771,"ĠService":4772,"Ġroad":4773,"Ġbirths":4774,"Ġpersonal":4775,"ĠSen":4776,"agram":4777,"Ġborn":4778,"Ptr":4779,"Ġwriting":4780,"ponents":4781,"Impl":4782,"aine":4783,"Ġregard":4784,"Ġbroad":4785,"2002":4786,"Properties":4787,"Integer":4788,"erved":4789,"Ġwhole":4790,"Ġallowed":4791,"ida":4792,"ĠBuild":4793,"MO":4794,"Ã¤":4795,"Ġscope":4796,"Ġthing":4797,"kind":4798,"ĠEXPECT":4799,"den":4800,"anks":4801,"ĠMet":4802,"Document":4803,"ĠGeneral":4804,"ĠCheck":4805,"}}$":4806,"CA":4807,"ãĤ":4808,"Fig":4809,"Ġpick":4810,"aints":4811,"oring":4812,"Ġxml":4813,"Ġsupported":4814,"():":4815,"Ġparams":4816,"Ġstar":4817,"Ġarguments":4818,"Prot":4819,"inated":4820,"orizont":4821,"uz":4822,"Collection":4823,"ĠTV":4824,"DD":4825,"56":4826,"Ġche":4827,"scri":4828,"ĠCup":4829,"anges":4830,"AND":4831,"ĠDirect":4832,"modal":4833,":(":4834,"dat":4835,"then":4836,"system":4837,"Ġmot":4838,"Ġmemory":4839,"Ġsession":4840,"ĠPre":4841,"Ġprote":4842,"Eng":4843,"Ġvot":4844,"BA":4845,"Ġhit":4846,"ALL":4847,"zer":4848,"Inst":4849,"cy":4850,"Ġdistrict":4851,"Ġexcept":4852,"icture":4853,"iform":4854,"mission":4855,"ORT":4856,"Ġ(\"":4857,"Ġstre":4858,"Ġequal":4859,"Co":4860,"58":4861,"ĠEnd":4862,"Menu":4863,"Ġstage":4864,"lor":4865,"Ġmanagement":4866,"Ġserved":4867,"Session":4868,"Can":4869,"Ġforward":4870,"Ġparty":4871,"nonumber":4872,"Ġproduced":4873,"Ġarticle":4874,"Ġopport":4875,"ĠAnt":4876,"greg":4877,"Ġword":4878,"Ġtemplate":4879,"ĠEar":4880,"Ġinj":4881,"(:":4882,"ln":4883,"ĠTime":4884,"pop":4885,"Ġcontract":4886,"Cal":4887,"Ġsets":4888,"Ġargument":4889,"fg":4890,"ĠException":4891,"ĠChina":4892,"Ġwords":4893,"enced":4894,"ĠSome":4895,"Ġquick":4896,"ederal":4897,"ictionary":4898,"Ġeffort":4899,"ĠCanada":4900,"Ġthus":4901,"ĠDepartment":4902,"Ġrespectively":4903,"ctor":4904,"BO":4905,"Ġcomment":4906,"types":4907,"elves":4908,"Ġnatural":4909,"Ġwatch":4910,"auth":4911,"Ġconv":4912,"59":4913,"oder":4914,"overy":4915,"internal":4916,"inding":4917,"ugins":4918,"copy":4919,"bootstrap":4920,"Schema":4921,"anish":4922,"Ġoutside":4923,"Ġsort":4924,"cing":4925,"Ġlost":4926,"Record":4927,"ĠDavid":4928,"CR":4929,"Ġpredict":4930,"Ġinc":4931,"ws":4932,"Ġproducts":4933,"Ġcharacters":4934,"Ġweight":4935,"Ġmid":4936,"Ġbehind":4937,"strict":4938,"clear":4939,"Order":4940,"second":4941,"Expression":4942,"NavBar":4943,"ĠEngland":4944,"Ġdirectly":4945,"Ġimm":4946,"coin":4947,"Icon":4948,"tog":4949,"Ġchannel":4950,"Ġtoken":4951,"Ġinfo":4952,"Store":4953,"Ġwr":4954,"Operation":4955,"Ġcontact":4956,"Ġpassed":4957,"Mon":4958,"Ġconduct":4959,"Ġhours":4960,"Ġtold":4961,"ĠAustralia":4962,"ered":4963,"Ġdeveloped":4964,"sv":4965,"plete":4966,"more":4967,"Ġbad":4968,"ĠBen":4969,"illing":4970,"oom":4971,"ĠJust":4972,"Ġprec":4973,"och":4974,"Ġattribute":4975,"equal":4976,"Ġconnect":4977,"ĠMal":4978,"Ġconstruct":4979,"ERROR":4980,"Ġwalk":4981,"cp":4982,"Go":4983,"Ġconver":4984,"orizontal":4985,"Ġâ":4986,"tee":4987,"Stat":4988,"ado":4989,"Ġmatter":4990,"Ġweb":4991,"force":4992,"wood":4993,"Ġbring":4994,"frak":4995,"ario":4996,"Ġlearning":4997,"So":4998,"Ġign":4999,"normal":5000,"Match":5001,"STR":5002,"Ġsold":5003,"================================":5004,"uri":5005,"Ġsetting":5006,"ĠRE":5007,"Ġhash":5008,"Ġconstr":5009,"asons":5010,"bon":5011,"interface":5012,"delete":5013,"Ġeducation":5014,"ĠHol":5015,"ometry":5016,"asc":5017,"Iter":5018,"Ġcontr":5019,"Down":5020,"ospital":5021,"ixt":5022,"bra":5023,"Ġdifficult":5024,"ĠEuropean":5025,"_;":5026,"ĠPublic":5027,"pite":5028,"ĠResearch":5029,"gu":5030,"weight":5031,"incip":5032,"Ġallows":5033,"iting":5034,"ĠBook":5035,"Ġpresident":5036,"term":5037,"tion":5038,"Ġprogress":5039,"Ġclosed":5040,"Ġrisk":5041,"1999":5042,"Ġepis":5043,"render":5044,"ĠDay":5045,"Ġfriend":5046,"Ġgenerated":5047,"ĠUK":5048,"Ġdied":5049,"raz":5050,"aa":5051,"oundation":5052,"Ġsequence":5053,"86":5054,"Ġespecially":5055,"ĉĠ":5056,"sin":5057,"ees":5058,"Ġgre":5059,"Ġsens":5060,"ĠGerman":5061,"Ġlooking":5062,"Ġanaly":5063,"berg":5064,"Ġparts":5065,"Ġfather":5066,"Host":5067,"Ġgoal":5068,"utive":5069,"Ġrule":5070,"Ġaward":5071,"Ġrelative":5072,"Ġcompar":5073,"sa":5074,"eal":5075,"Ġdeep":5076,"Ġvers":5077,"ĠErr":5078,"ining":5079,"ĠBG":5080,"anning":5081,"Ġmechan":5082,"Ġmoved":5083,"vents":5084,"ĉĉĊ":5085,"di":5086,"ĠPal":5087,"Ġswitch":5088,"ership":5089,"Sign":5090,"Parameters":5091,"iday":5092,"Ġupon":5093,"dest":5094,"site":5095,"otimes":5096,"ĠPaul":5097,"oyal":5098,"ĠSum":5099,"FT":5100,"ĠOb":5101,"ĠSince":5102,"nabla":5103,"Ġsound":5104,"olume":5105,"ĠCr":5106,"ĠĠĠĠĠĠĠĠĠĠĠĠĠĠĠĠĠĠĠĠ":5107,"rea":5108,"PL":5109,"rote":5110,"ĠJames":5111,"hi":5112,"egment":5113,"Ġmulti":5114,"address":5115,"Ġdistance":5116,"boldsymbol":5117,"My":5118,"ago":5119,"mode":5120,"Ġhon":5121,"SA":5122,"Ġimages":5123,"ĠRiver":5124,"ĠOR":5125,"allow":5126,"ĠCouncil":5127,"EM":5128,"atures":5129,"ĠGoogle":5130,"Sk":5131,"docs":5132,"card":5133,"Ġinside":5134,"itch":5135,"ĠMag":5136,"Vari":5137,"1000":5138,"het":5139,"Parser":5140,"Ġselection":5141,"Ġfactor":5142,"Ġlonger":5143,"endar":5144,"Red":5145,"band":5146,"Ġfixed":5147,"imately":5148,"free":5149,"Reference":5150,"Pass":5151,"asic":5152,"Vert":5153,"amera":5154,"Ġworked":5155,"Ġundefined":5156,"vector":5157,"Tim":5158,"ĠForm":5159,"Ġlarger":5160,"Ġactual":5161,"widget":5162,"hing":5163,"ashington":5164,"arily":5165,"hr":5166,"Ġoperations":5167,"&#":5168,"Ġapply":5169,"Mult":5170,"Ø§":5171,"Ġcandid":5172,"Ġavoid":5173,"send":5174,"Ġwor":5175,"Ġitems":5176,"Ġchanged":5177,"Left":5178,"foo":5179,"etime":5180,"Vector":5181,"ĠBer":5182,"Me":5183,"ORD":5184,"Ġsus":5185,"History":5186,"Ġnorth":5187,"elegate":5188,"wner":5189,"las":5190,"255":5191,"mas":5192,"Ġneigh":5193,"ĠDiv":5194,"Ġhy":5195,"ĠThom":5196,"click":5197,"Ġprimary":5198,"pg":5199,"parameter":5200,"vm":5201,"Names":5202,"toString":5203,"erry":5204,"iation":5205,"Ġdoing":5206,"had":5207,"Ġnote":5208,"(-":5209,"clude":5210,"Ġnet":5211,"ville":5212,"{}":5213,"ini":5214,"istri":5215,"Ġcompared":5216,"Ġrepl":5217,"that":5218,"alax":5219,"Ġequation":5220,"Ġexperiment":5221,"very":5222,"Track":5223,"ynch":5224,"olar":5225,"riate":5226,"Ġgives":5227,"300":5228,"Helper":5229,"Ġ['":5230,"Ġlevels":5231,"Ġfight":5232,"PS":5233,"ĠHam":5234,"Ġabs":5235,"=\"/":5236,"---":5237,"Use":5238,"ds":5239,"req":5240,"Ġvariable":5241,"Ġquality":5242,"&&":5243,"Que":5244,"hover":5245,"Ġresources":5246,"False":5247,"yntax":5248,"mathfrak":5249,"Ġexisting":5250,"ani":5251,"focus":5252,"Ġreve":5253,"component":5254,"WE":5255,"direct":5256,"alls":5257,"equals":5258,"PR":5259,"Ġstudies":5260,"obert":5261,"ĠTechn":5262,"vas":5263,"Ġdirection":5264,"Template":5265,"Sigma":5266,"Ġestablish":5267,"access":5268,"Ġoffice":5269,"note":5270,"Ġcampaign":5271,"ĠGod":5272,"Render":5273,"Ġimmedi":5274,"Ġnumbers":5275,"range":5276,"fect":5277,"Ġmaximum":5278,"(*":5279,"Ġgas":5280,"Title":5281,"DF":5282,"Ġperformed":5283,"ĠTrue":5284,"Ġvict":5285,"Ġcache":5286,"Ġsex":5287,"Handle":5288,"'],":5289,"ech":5290,"Ġqual":5291,"ĠTHE":5292,"ying":5293,"Ġraise":5294,"Ġheart":5295,"ros":5296,"exception":5297,"ĠCON":5298,"PA":5299,"Right":5300,"Rect":5301,"ooth":5302,"Core":5303,"Ð»":5304,"cat":5305,"Ġcast":5306,"Values":5307,"Ġproblems":5308,"Ġparse":5309,"Ġess":5310,"Ġdemon":5311,"ä¸":5312,"ĠMap":5313,"iding":5314,"after":5315,"ĠName":5316,"ĠBel":5317,"Ġago":5318,"ye":5319,"Ġrock":5320,"Le":5321,"ĠMor":5322,"Ġindependent":5323,"handle":5324,"gs":5325,"Ġexpand":5326,"})$":5327,"bound":5328,"ĠQue":5329,"Device":5330,"Ġhot":5331,"Ġemail":5332,"Ġobserved":5333,"ĠNote":5334,"ĠDate":5335,"ifying":5336,"Ġproposed":5337,"Ġgetting":5338,"Invalid":5339,"kr":5340,"Ġrot":5341,"fil":5342,"Ġspeed":5343,"Long":5344,"ping":5345,"89":5346,"Stack":5347,"ĠArch":5348,"Ġproof":5349,"mes":5350,"###":5351,"icate":5352,"plugin":5353,"Ġecho":5354,"izations":5355,"Ġcouple":5356,"fony":5357,"54":5358,"atively":5359,"vant":5360,"Ġten":5361,"Rev":5362,"icker":5363,"ĠWhile":5364,"ires":5365,"Ġsil":5366,"Ġcluster":5367,"MD":5368,"Ġliving":5369,"PT":5370,"ĠCap":5371,"Ġstaff":5372,"Ġtelevision":5373,"Ġdelete":5374,"ped":5375,"Ġtransition":5376,"protobuf":5377,"oute":5378,"Tool":5379,"ĠPost":5380,"Ġtreatment":5381,"ĠInstitute":5382,"onic":5383,"Ġeffective":5384,"Assert":5385,"ena":5386,"ĠCOVID":5387,"step":5388,"Ã¶":5389,"Ġdam":5390,"Ġaud":5391,"Ġnamespace":5392,"byte":5393,"ĠChampionship":5394,"$(":5395,"Ġmind":5396,"panel":5397,"oul":5398,"ao":5399,"ieved":5400,"52":5401,"Ġcountries":5402,"ĠRich":5403,"/\\":5404,"ncy":5405,"transform":5406,"subset":5407,"Has":5408,"citep":5409,"ymfony":5410,"Sl":5411,"padding":5412,"Ġrev":5413,"hest":5414,"Ġroom":5415,"ufact":5416,"Ġansw":5417,"Ġemer":5418,"product":5419,"Ġsouth":5420,"ĠOf":5421,"here":5422,"Ġthread":5423,"global":5424,"ĠBGCOLOR":5425,"rian":5426,"ĠNow":5427,"icons":5428,"Ġphysical":5429,"ston":5430,"Ġteams":5431,"ĠOper":5432,"clusion":5433,"footer":5434,"Ġtransfer":5435,"ĠĠĠĠĠĠĠĠĠĠĠĠĠĠĠĠĠĠĠĠĠĠĠĠĠĠĠĠĠĠĠĠĠĠĠĠĠĠĠ":5436,"Ġgrowth":5437,"Ġdesigned":5438,"Ġtour":5439,"session":5440,"Api":5441,"51":5442,"success":5443,"replace":5444,"arp":5445,"custom":5446,"elebr":5447,"igen":5448,"Ġalt":5449,"pling":5450,"Ġsaf":5451,"cloud":5452,"Ġdegree":5453,"Ġwest":5454,"disabled":5455,"export":5456,"oader":5457,"ataset":5458,"ein":5459,"Ġcontainer":5460,"Ġsense":5461,"apse":5462,"Ġ})":5463,"irl":5464,"Ġtransaction":5465,"Ġcause":5466,"media":5467,"Ġdatabase":5468,"Ġlock":5469,"Ġnecessary":5470,"fill":5471,"Ġdise":5472,"Ġsymbol":5473,"Ġbehavior":5474,"Ġextra":5475,"pring":5476,"GET":5477,"Dep":5478,"Ġflo":5479,"Ġjav":5480,"nce":5481,"`.":5482,"pub":5483,"bert":5484,">.":5485,"Tests":5486,"Ġscript":5487,"textit":5488,"ĠCre":5489,"fort":5490,"1998":5491,"Ġconcern":5492,"ĠAL":5493,"Ke":5494,"Classes":5495,"CS":5496,"Ġtransport":5497,"={":5498,"lymp":5499,"aws":5500,"ĠYear":5501,"Ġcentral":5502,"Ġplaying":5503,"Args":5504,">();":5505,"Ġotherwise":5506,"loc":5507,"Mar":5508,"ĠMart":5509,"\\[":5510,"antic":5511,"EO":5512,"Ġaccur":5513,"Ġensure":5514,"essor":5515,"ĠAward":5516,"ĠAssociation":5517,"ĠRequ":5518,"fields":5519,"adian":5520,"Ġnothing":5521,"wid":5522,"estamp":5523,"Ġacqu":5524,"ipe":5525,"ĠCourt":5526,"Ġconstruction":5527,"Parent":5528,"ĠOur":5529,"icial":5530,"Ġelection":5531,"ĠChurch":5532,"coll":5533,"ĠInst":5534,"\\|":5535,"ATA":5536,"400":5537,"xis":5538,"operator":5539,"Ġhimself":5540,"ĠInc":5541,"ano":5542,"olic":5543,"Ġidea":5544,"Ġbyte":5545,"Ġmilitary":5546,"URE":5547,"joy":5548,"Ġmodern":5549,"ims":5550,"Ġdefinition":5551,"Draw":5552,"Ġequival":5553,"ĠScience":5554,"prime":5555,"jection":5556,"ĠRun":5557,"\\%":5558,"vest":5559,"scal":5560,"Ġclean":5561,"ĠParty":5562,"----------------------------------------------------------------":5563,"XX":5564,"aily":5565,"Ġdecision":5566,"Ġsettings":5567,"Ġtro":5568,"Ġcomponents":5569,"ander":5570,"west":5571,"ĠGerm":5572,"Ġpolice":5573,"Net":5574,"track":5575,"eek":5576,"Ġsimply":5577,"PH":5578,"Ġtravel":5579,"framework":5580,"ĠSection":5581,"ici":5582,"Ġwrote":5583,"Ġrules":5584,"emic":5585,"iece":5586,"Exp":5587,"Ġrecomm":5588,"Dom":5589,"SET":5590,"Ġveh":5591,"Ġcult":5592,"DI":5593,"-->":5594,"Ġdirector":5595,"ĠJack":5596,"edit":5597,"Ġstatement":5598,"DL":5599,"{-":5600,"}-":5601,"ernel":5602,"Ġerrors":5603,"Ġthroughout":5604,"Num":5605,"Ġstarting":5606,"ĠTex":5607,"language":5608,"ĠUse":5609,"Ġrace":5610,"yr":5611,"overnor":5612,"Ġalgorithm":5613,"Ġrank":5614,"Ġcoming":5615,"ĠSeries":5616,"53":5617,"virtual":5618,"ĠBest":5619,"Ġreading":5620,"Ġdifference":5621,"Ġusually":5622,"ĠWashington":5623,"gin":5624,"Ġsources":5625,"Ġinvolved":5626,"ĠOver":5627,"Ġinvoke":5628,"Ġedge":5629,"high":5630,"clos":5631,"icket":5632,"connect":5633,";\\":5634,"ĠMem":5635,"OK":5636,"Ġinvestig":5637,"Ġcollect":5638,"illa":5639,"Ġ&=":5640,"ORM":5641,"Ġarchitect":5642,"ĠAut":5643,"Non":5644,"Writer":5645,"Application":5646,"Ġadministr":5647,"van":5648,"Ġsoon":5649,"cpp":5650,"ATH":5651,"Ver":5652,"1990":5653,"ening":5654,"rum":5655,"Ġheader":5656,"Ġfinally":5657,"ilies":5658,"Ġboard":5659,"fn":5660,"ĠIS":5661,"rome":5662,"ĠFil":5663,"76":5664,"Reader":5665,"sem":5666,"Ġunsigned":5667,"settings":5668,"Ġcompleted":5669,"Ġdemonstr":5670,"idents":5671,"annotation":5672,"Policy":5673,"ĠPress":5674,"airs":5675,"rial":5676,"Ġmention":5677,"webkit":5678,"Ġinline":5679,"ĠPy":5680,"ional":5681,"Ġpackage":5682,"equiv":5683,"Bytes":5684,"Byte":5685,"ulate":5686,"||":5687,"ĠGreen":5688,"Click":5689,"ughter":5690,"actor":5691,"ĠWilliam":5692,"xx":5693,"Ġfun":5694,"dependency":5695,"outhern":5696,"aver":5697,"Ġclasses":5698,"DA":5699,"Ġaltern":5700,"isions":5701,"}}{":5702,"Ġagre":5703,"Ġeasy":5704,"Ġmor":5705,"boolean":5706,"ĠOther":5707,"Argument":5708,"ertific":5709,"inese":5710,"Ġcoordin":5711,"Ġetc":5712,"uple":5713,"ĠHel":5714,"cur":5715,"oted":5716,"aved":5717,"ĠFrance":5718,"Ġevidence":5719,"Ġ('":5720,"Ġsolutions":5721,"TEST":5722,"Ġdirectory":5723,"Ġshape":5724,"78":5725,"help":5726,"insert":5727,"Debug":5728,"Ġincreasing":5729,"ifest":5730,"ĠCompany":5731,"ker":5732,"Ġnodes":5733,"ĠLeg":5734,"alled":5735,"Ġsaw":5736,"callback":5737,"Ġfinancial":5738,"ĠSam":5739,"blockList":5740,"Ġos":5741,"jo":5742,"Ġyield":5743,"ĠDet":5744,"ĠMac":5745,"Body":5746,"El":5747,"Ġprobably":5748,"sql":5749,"Ġminutes":5750,"Delete":5751,"Decl":5752,"recated":5753,"mid":5754,"double":5755,"Ġpresented":5756,"Ġ'/":5757,"Ġvillage":5758,"netic":5759,"Ġcharg":5760,"Ġfast":5761,"legal":5762,"shape":5763,"Ġfollowed":5764,"Ġnovel":5765,"ĠGeorge":5766,"Results":5767,"ona":5768,"ĠAng":5769,"Ġstay":5770,"Ġapi":5771,"za":5772,"Ġdomain":5773,"Ġreceive":5774,"Ġtests":5775,"ancy":5776,"Ġhel":5777,"Metadata":5778,"Ġreplace":5779,"widet":5780,"Ġtowards":5781,"Ġprofessional":5782,"SION":5783,"Ġang":5784,"Enabled":5785,"leep":5786,"edef":5787,"Mark":5788,"Ġer":5789,"ius":5790,"Definition":5791,"GE":5792,"Ġanything":5793,"sort":5794,"ĠDel":5795,"Ġmother":5796,"Ġshared":5797,"oma":5798,"Ġrecently":5799,"alysis":5800,"Ġquite":5801,"FAULT":5802,"pare":5803,"Ġ++":5804,"`,":5805,"Ġball":5806,"Ġvariables":5807,"\\!":5808,"GB":5809,"ĠMer":5810,"aled":5811,"ĠMusic":5812,"hs":5813,"Ġeast":5814,"ĠLO":5815,"Ġtherefore":5816,"Ġactivity":5817,"Ġmount":5818,"\\\"":5819,"Ġoptim":5820,"ĠEq":5821,"Now":5822,"Ġjson":5823,"attribute":5824,"DIR":5825,"ĠJSON":5826,"dots":5827,"__(":5828,"register":5829,"Ġextension":5830,"Ġasked":5831,"Ġabsol":5832,"onds":5833,"gan":5834,"Descriptor":5835,"itar":5836,"application":5837,"Ġconcept":5838,"'.":5839,"Ġbytes":5840,"ucket":5841,"ĠHere":5842,"Ġmale":5843,"ĠAfrica":5844,"ixel":5845,"overed":5846,"ocity":5847,"ĠMath":5848,"72":5849,"inder":5850,"pdf":5851,"ĠValue":5852,"ensuremath":5853,"Ġopened":5854,"Ġbooks":5855,"Mock":5856,"ĠRoad":5857,"ĠProject":5858,"Ġteach":5859,"exports":5860,"Ġlargest":5861,"Ġapplied":5862,"Ġbasis":5863,"Ġalthough":5864,"Ġsymmet":5865,"Fields":5866,"eler":5867,"ĠDemocr":5868,"ĠBay":5869,"real":5870,"ternet":5871,"Ġrepresentation":5872,"widetilde":5873,"Ġdro":5874,"Ġbelieve":5875,"romise":5876,"dule":5877,"Ġdark":5878,"del":5879,"ĠTable":5880,"toggle":5881,"porary":5882,"CTION":5883,"ĠNOT":5884,"liance":5885,"rael":5886,"mitted":5887,"People":5888,"Meta":5889,"mercial":5890,"ĠÎ":5891,"prove":5892,"Ġseems":5893,"Ðº":5894,"ĠProgram":5895,"ITY":5896,"Ġnative":5897,"isation":5898,"Display":5899,"Ġwriter":5900,"ĠWhite":5901,"ĠField":5902,"ipeline":5903,"ĠBase":5904,"WS":5905,"Cre":5906,"road":5907,"Ġcard":5908,"Job":5909,"ental":5910,"email":5911,"ĠMat":5912,"Ġcritical":5913,"Ġste":5914,"ĠHTML":5915,"Ġvolume":5916,"enge":5917,";<":5918,"ala":5919,"thm":5920,"mselves":5921,"sey":5922,"Boolean":5923,"ducation":5924,"Ġjud":5925,"ems":5926,"Ġord":5927,"uated":5928,"inct":5929,"Ġcontinued":5930,"Ġorigin":5931,"agnost":5932,"ĠVer":5933,"evelopment":5934,"ailed":5935,"structure":5936,"ĠLou":5937,"Ġintroduced":5938,"Root":5939,"Ġappoint":5940,"ĠĠĠĠĠĠĠĠĠĠĠĠĠĠĠĠĠĠ":5941,"ĠKe":5942,"Ġdescribe":5943,"Ġgave":5944,"shot":5945,"ĠCong":5946,"AME":5947,"gebra":5948,"iring":5949,"Database":5950,"overs":5951,"enum":5952,"\"\"\"":5953,"Ġlimited":5954,"imensional":5955,"Ġsigned":5956,"Ġfeed":5957,"ĠUnion":5958,"Ġchoice":5959,"graph":5960,"Ġcore":5961,"holder":5962,"inline":5963,"Ġsave":5964,"lines":5965,"DC":5966,"ĠCam":5967,"Am":5968,"white":5969,"short":5970,"rule":5971,"Ġlibrary":5972,"Ġeverything":5973,"reek":5974,"material":5975,"}\"":5976,"Ġwoman":5977,"ĠKey":5978,"Ġnor":5979,"NE":5980,"=\"../../../":5981,"Ġsignal":5982,"Ġways":5983,"Ġchalleng":5984,"Ġattr":5985,"Ġscen":5986,"estival":5987,"94":5988,"TS":5989,"keys":5990,"'))":5991,"Ġincreased":5992,"Ġthemselves":5993,"ĠProv":5994,"Ġprice":5995,"82":5996,"Ġradio":5997,"Ġsett":5998,"Each":5999,"Ġrelation":6000,"ĠUser":6001,"ĠEvent":6002,"Doc":6003,"ĠGold":6004,"Ġdead":6005,"Ġpreviously":6006,"urt":6007,"Ġ<=":6008,"Ġmsg":6009,"Ġshall":6010,"Ġmus":6011,"admin":6012,"rb":6013,"star":6014,"AGE":6015,"rapper":6016,"Ġstack":6017,"ĠFin":6018,"Ġprevent":6019,"84":6020,"Ġproper":6021,"Ġlayer":6022,"Ġisn":6023,"tty":6024,"Ġstars":6025,"usion":6026,"1997":6027,"Ġauth":6028,"Ġcook":6029,"writ":6030,"ĠLong":6031,"related":6032,"ĠMethod":6033,"Ins":6034,"pers":6035,"Ġmanager":6036,"Ġeditor":6037,"ansion":6038,"Ġcourt":6039,"ested":6040,"keyword":6041,"SL":6042,"TED":6043,"IX":6044,"Storage":6045,"Dialog":6046,"SSERT":6047,"ĠHall":6048,"1996":6049,"ĠRel":6050,"ĠMary":6051,"ĠassertEquals":6052,"Ġcorre":6053,"Ġ${":6054,"93":6055,"auto":6056,"aming":6057,"ĠAnn":6058,"atalog":6059,"ĠAlex":6060,"\",\"":6061,"well":6062,"ĠFranc":6063,"Ġmissing":6064,"\")]":6065,"Rule":6066,"END":6067,"FL":6068,"\\]":6069,"ynchron":6070,"full":6071,"Ġunits":6072,"mock":6073,"Ġsurv":6074,"Ġupper":6075,"ĠDO":6076,"ĠIO":6077,"Ġpractice":6078,"Ġimplementation":6079,"She":6080,"Ġknowledge":6081,"ĠYour":6082,"Ġ),":6083,"ĠLem":6084,"etic":6085,"ĠMichael":6086,"items":6087,"ĠRobert":6088,"Ġtrying":6089,"ĠTexas":6090,"Ġbal":6091,"istan":6092,"Di":6093,"edge":6094,"Ġbecomes":6095,"Ġinstit":6096,"Ġhope":6097,"Ġearlier":6098,"Ġlegal":6099,"ĠModel":6100,"ĠMount":6101,"Ġpurch":6102,"Psi":6103,"Ġloop":6104,"Ġrepe":6105,"Ġcontaining":6106,"Ġstreng":6107,"Ġcounter":6108,"plements":6109,"}+":6110,"Ġlatest":6111,"ĠURL":6112,"Ġfully":6113,"category":6114,"Ġvel":6115,"anguage":6116,"abilities":6117,"Ġplant":6118,"Ġstorage":6119,"Ġspin":6120,"Ġschools":6121,"91":6122,"Ġhous":6123,"Ġdigital":6124,"ĠError":6125,"ĠĠĠĠĠĠĊ":6126,"store":6127,"Package":6128,"ura":6129,"Ġculture":6130,"Queue":6131,"addr":6132,"Ġleave":6133,"plugins":6134,"ĠReview":6135,"ĠSl":6136,"'m":6137,"PRE":6138,"Ġscient":6139,".~":6140,"allel":6141,"Ġ(*":6142,"Ġrequires":6143,"Ġprofile":6144,"Ġwallet":6145,"ecause":6146,"92":6147,"Ġwanted":6148,"Show":6149,"ĠGermany":6150,"Ġvs":6151,"Se":6152,"ĠFe":6153,"indent":6154,"ĠSociety":6155,"Only":6156,"Ġbottom":6157,"osen":6158,"ighest":6159,"ĠRoman":6160,"Ġenjoy":6161,"bal":6162,"BR":6163,"Changed":6164,"Obj":6165,"Transaction":6166,"Ġeight":6167,"ĠMiss":6168,"Ġlack":6169,"Ġmiddle":6170,"63":6171,"lyph":6172,"Ġextrem":6173,"Pop":6174,"password":6175,"Ġmicro":6176,"Ġremain":6177,"Ġjoined":6178,"Ġmeas":6179,"initial":6180,"ett":6181,"odec":6182,"ifies":6183,"ĠFore":6184,"Tab":6185,"atically":6186,"Ġdeliver":6187,"ronic":6188,"itable":6189,"Extension":6190,"zeta":6191,"arts":6192,"Ġfavor":6193,"Ġsmaller":6194,"FC":6195,"hadoop":6196,"iller":6197,"Ġcells":6198,"inger":6199,"Ġcalls":6200,"printf":6201,"hy":6202,"Ġassume":6203,"1980":6204,"////////////////////////////////":6205,"Active":6206,"Ġflag":6207,"\\{":6208,"NG":6209,"$)":6210,"tabular":6211,"uting":6212,"Ġcop":6213,"_->":6214,"Ġtransp":6215,"bes":6216,"comment":6217,"Any":6218,"ether":6219,"room":6220,"Te":6221,"coming":6222,"ved":6223,"while":6224,"iverse":6225,"ously":6226,";/":6227,"stat":6228,"uby":6229,"ĠSur":6230,"ĠTrump":6231,"Ġbg":6232,"prox":6233,"rot":6234,"reshold":6235,"Ġdeaths":6236,"Ġfinite":6237,"inate":6238,"Ġwife":6239,"alloc":6240,"Ġmaintain":6241,"ignment":6242,"coq":6243,"Ġnuc":6244,"ĠDan":6245,"Ġstri":6246,"Ġmock":6247,"ĠTom":6248,"Ġremoved":6249,"anned":6250,"Ġbeginning":6251,"entity":6252,"Ġnature":6253,"Ġscience":6254,"Ġremains":6255,"EXT":6256,"*)":6257,"icated":6258,"]]":6259,"More":6260,"ĠBig":6261,"alian":6262,"ĠJew":6263,"cmd":6264,"Ġmis":6265,"Ġcelebr":6266,"ĠAccording":6267,"Ġ\"/":6268,"variant":6269,"ĠRob":6270,"ountry":6271,"Ret":6272,"Xml":6273,"thread":6274,"Ġ{};":6275,"Ġgenerate":6276,"install":6277,"TC":6278,"Ġchain":6279,"FILE":6280,"ky":6281,"oub":6282,"Ġweeks":6283,"Ġcapital":6284,"ĠMr":6285,"ette":6286,"Custom":6287,"'ve":6288,"rees":6289,"Const":6290,"election":6291,"ACE":6292,"Ġscore":6293,"Att":6294,"Ġdistributed":6295,"62":6296,"Scope":6297,"Ġexhib":6298,"Ġmeaning":6299,"centering":6300,"1995":6301,"Ġgets":6302,"Since":6303,"Ġmedical":6304,"pped":6305,"ĠSuper":6306,"dates":6307,"ĠNO":6308,"ĠAcadem":6309,"ĠDefault":6310,"oves":6311,"dim":6312,"SU":6313,"Ġdrug":6314,"fit":6315,"Ġinteger":6316,"ĠĠĠĠĠĠĠĠĠĠĠĠĠĠĠĠĠĠĠĠĠĠĠĠĠ":6317,"ĠOlymp":6318,"ĠArmy":6319,"ĠIP":6320,"assets":6321,"JSON":6322,"Ġlo":6323,"bedd":6324,"Ġslow":6325,"Ġfriends":6326,"herit":6327,"ĠIsland":6328,"Activity":6329,"Ġability":6330,"bi":6331,"security":6332,"unsigned":6333,"61":6334,"Ġquantum":6335,"Ġbank":6336,"onom":6337,"Ġprojects":6338,")=\\":6339,"ĠJer":6340,"Ġquestions":6341,"\">&":6342,"Ġcharge":6343,"Ġsplit":6344,"Ġplaces":6345,"Ac":6346,"KEY":6347,".;":6348,"ĠMus":6349,"Ñĥ":6350,"Ġapplications":6351,"Note":6352,"men":6353,"Ġbeaut":6354,"Ġserial":6355,"ĠMex":6356,"CHE":6357,"ĠCopy":6358,"Ġthreat":6359,"Ġhtml":6360,"ora":6361,"Ġtesting":6362,"Ġprotect":6363,"}\\,":6364,"Ġpartial":6365,"Send":6366,"Sum":6367,"Lock":6368,"ĠRussian":6369,"Ġsomeone":6370,"dropdown":6371,"resents":6372,"otic":6373,"onder":6374,"Main":6375,"bour":6376,"ĠText":6377,"EC":6378,"LS":6379,"Ġmanufact":6380,"lev":6381,")/":6382,"sche":6383,"otes":6384,"Account":6385,"Ġgreater":6386,"scription":6387,"Network":6388,"Ġstudent":6389,"ĠMad":6390,"hentication":6391,"ror":6392,"ĠArg":6393,"'ll":6394,"ĠLife":6395,"iger":6396,"ĠThus":6397,"Ġproced":6398,"Ġlives":6399,"Ġded":6400,"Ġconnected":6401,"pute":6402,"lemma":6403,"Ġnegative":6404,"ategories":6405,"Ġexam":6406,"Ġwide":6407,"ĠSal":6408,"ĠChinese":6409,"160":6410,"Ġapprop":6411,"ĠCarol":6412,"modules":6413,"Initial":6414,"Art":6415,"asket":6416,"eve":6417,"Member":6418,"numer":6419,"Ġattention":6420,"pay":6421,"HTML":6422,"connection":6423,"Ġjournal":6424,"ĠTor":6425,"Ġsen":6426,"Ġrecorded":6427,"Ġinvolv":6428,"Ġroute":6429,"margin":6430,"Ġhum":6431,"ĠWil":6432,"Ġrelig":6433,",-":6434,"Ġbutton":6435,"Ġdecre":6436,"ĠTop":6437,"Ġseven":6438,"Msg":6439,"ensus":6440,"spring":6441,"sect":6442,"Ġorganization":6443,"Ġicon":6444,"~~~~":6445,"Ġholds":6446,"Ġweak":6447,"agger":6448,"83":6449,"}]":6450,"Ġdetermine":6451,"ĠĠĠĠĠĠĠĠĠĠĠĠĠĠĠĠĠĠĠĠĠĠĠĠ":6452,"Symbol":6453,"Security":6454,"ydro":6455,"impl":6456,"Ġexplicit":6457,"}=\\":6458,"Ġactivities":6459,"Ġkeys":6460,"Ġoffers":6461,"peed":6462,"Ġpartners":6463,"eries":6464,"Timeout":6465,"Ġseek":6466,"ixture":6467,"ĠView":6468,"Ġrestrict":6469,"Ġbasic":6470,"Ġelem":6471,"GS":6472,"Ġuseful":6473,"olver":6474,"Ġfra":6475,"pool":6476,"Ġsn":6477,")-":6478,"ki":6479,"Ġgalax":6480,"Channel":6481,"enses":6482,"ĠClub":6483,"Ġstrict":6484,"asy":6485,"Ġprograms":6486,"Ġreach":6487,"CI":6488,"ibly":6489,"ĠFinal":6490,"tip":6491,"Ġutil":6492,"Ġgrant":6493,"ĠCentral":6494,"Ġinsp":6495,"Ġrap":6496,"akers":6497,"icks":6498,"Ġbirth":6499,")))":6500,"Ġrail":6501,"@\"":6502,"uler":6503,"Ġoverall":6504,"ĠShow":6505,"oration":6506,"Ġinterview":6507,"JECT":6508,"argument":6509,"ils":6510,"ĠDuring":6511,"Ġsongs":6512,"azine":6513,"Pattern":6514,"profile":6515,"ami":6516,"Ġcoin":6517,"stop":6518,"points":6519,"ĠSmith":6520,"ĠAv":6521,"house":6522,"ĠChe":6523,"iny":6524,"ĠBusiness":6525,"Ġruns":6526,"Ġunc":6527,"Ġtrain":6528,"ĠAfrican":6529,"Ġjavax":6530,"tely":6531,"Ġones":6532,"ĠThomas":6533,"Ġmut":6534,"Ġinstanceof":6535,"(!":6536,"ĠHistory":6537,"ilton":6538,"[:":6539,"scroll":6540,"ĠFalse":6541,"ĠCommit":6542,"ango":6543,"Ġfamilies":6544,"orter":6545,"ĠFoundation":6546,"ĠRoyal":6547,"Ġconsole":6548,"Pool":6549,"Symfony":6550,"Ġpresence":6551,"Widget":6552,"ita":6553,"mazon":6554,"Ġga":6555,"Loc":6556,"icol":6557,"Ġboundary":6558,"cut":6559,"Var":6560,"1994":6561,"Ġforms":6562,"ĉĉĉĊ":6563,"ĠPub":6564,"79":6565,"rey":6566,"annels":6567,"Ġfinished":6568,"Living":6569,"ga":6570,"Ġmarried":6571,"Ġdestroy":6572,"etimes":6573,"radius":6574,"Ġmeeting":6575,"primary":6576,"Ġimprove":6577,"ĠAustralian":6578,"ĠAR":6579,"Ġvacc":6580,"faces":6581,"unicip":6582,"ĠCall":6583,"ologies":6584,"Ġcollabor":6585,"Ġbrought":6586,"Ġchurch":6587,"Ġgoes":6588,"osh":6589,"Ġdim":6590,")^{":6591,"Ġtouch":6592,"ARY":6593,"Ljava":6594,"ĠTur":6595,"Ġneut":6596,"kg":6597,"care":6598,"igration":6599,"74":6600,"omorph":6601,"region":6602,"LOG":6603,"move":6604,"Ġpointer":6605,"1970":6606,"ĠChristian":6607,"Ġpolitic":6608,"81":6609,"Ġappeared":6610,"grid":6611,".*":6612,"Ġdir":6613,"Ġperfect":6614,"Ġinteresting":6615,"ĠAlso":6616,"ployment":6617,"angular":6618,"acebook":6619,"ĠProf":6620,"sample":6621,"Ġdefe":6622,"aste":6623,"Support":6624,"Ġminimum":6625,"Ġdetermined":6626,"ĠTri":6627,"lam":6628,"names":6629,"Ġcategory":6630,"ĠAN":6631,"Ġnom":6632,"Auth":6633,"aud":6634,"Flags":6635,"Ġgreen":6636,"forms":6637,"ĠHen":6638,"Perm":6639,"Ġsports":6640,"Ġdb":6641,"ĠTem":6642,"crete":6643,"Ġrecords":6644,"utf":6645,"Ġassess":6646,"!!":6647,"Expr":6648,"ĠTheorem":6649,"ĠMinister":6650,"MENT":6651,"Ġanti":6652,"Ġchoose":6653,"Ġpanel":6654,"Ġeconomic":6655,"]:":6656,"Ġplot":6657,"PAR":6658,"ishing":6659,"ancel":6660,"BUG":6661,"ja":6662,"Ġrob":6663,"contrib":6664,"Ġactions":6665,"Fil":6666,"ĠHand":6667,"ĠMuseum":6668,"ĠScott":6669,"Ġinterpre":6670,"Ġdisease":6671,"Ġreli":6672,"ĠIsrael":6673,"ĠJournal":6674,"Ġcreating":6675,"atin":6676,"Ġtraditional":6677,"iments":6678,"Edit":6679,"69":6680,"Ġterr":6681,"none":6682,")}\\":6683,"elli":6684,"azz":6685,"Ġio":6686,"Ġmatches":6687,"ĠFigure":6688,"erc":6689,"events":6690,"Ġpressure":6691,"edy":6692,"Ġforces":6693,"ectors":6694,"Ġpul":6695,"Ã§":6696,"bul":6697,"Ġeveryone":6698,"ictor":6699,"udd":6700,"queue":6701,"Ġwrong":6702,"Ġmovie":6703,"Ġkilled":6704,"Ġappears":6705,"ĠMax":6706,"Logger":6707,"Ġstories":6708,"Ġhandler":6709,"ĠDivision":6710,"UID":6711,"DS":6712,"Before":6713,"ĠHead":6714,"anner":6715,"ression":6716,"nections":6717,"riz":6718,"Ġgold":6719,"Ġsituation":6720,"ivacy":6721,"ĠWindow":6722,"ifications":6723,"Ġpark":6724,"Ġconstit":6725,"73":6726,"ko":6727,"Ġparticularly":6728,"Ġbey":6729,"()));":6730,"Rest":6731,"Ġupdated":6732,"shire":6733,"ository":6734,"BS":6735,"olf":6736,"Ġtab":6737,"riend":6738,"Bit":6739,"======":6740,"Init":6741,"Ġexternal":6742,"sur":6743,"256":6744,"irmed":6745,"urrency":6746,"Ġimmediately":6747,"Ġfigure":6748,"ĠTim":6749,"ĠPlay":6750,"Ġhighest":6751,"results":6752,"ĠNetwork":6753,"Ġchem":6754,"Ġspent":6755,"jquery":6756,"linear":6757,"istant":6758,"Ġtrade":6759,"home":6760,"Float":6761,"duction":6762,"Sw":6763,"_,":6764,"Ġpor":6765,"Ġsecret":6766,"ĠGrand":6767,"master":6768,"ĠKore":6769,"=\"\"":6770,"Ġbeyond":6771,"ĠStar":6772,"Ġreached":6773,"kw":6774,"1992":6775,"XT":6776,"Ġentity":6777,"Ġidentity":6778,"ĠFunction":6779,"Ġalloc":6780,"Ġpy":6781,"Ġharm":6782,"ellig":6783,"Ġepisode":6784,"Ġproduce":6785,"napshot":6786,"save":6787,"Iterator":6788,"Ġinsert":6789,"ĠCommission":6790,"Ġincor":6791,"Ġbtn":6792,"ĠAssembly":6793,"ĠBi":6794,"andard":6795,"\"`":6796,"ĠAND":6797,"Ġblue":6798,"Ġowner":6799,"Ġprobability":6800,"Ġbur":6801,"important":6802,"Ð°Ð":6803,"->_":6804,"ĠWestern":6805,"ĠVis":6806,"Events":6807,"Ġformed":6808,"=\"@":6809,"(){":6810,"centr":6811,"cdots":6812,"Ġleader":6813,"VERSION":6814,"Ġ%}":6815,"qquad":6816,"Ġprem":6817,"ĠĠĠĠĠĠĠĠĠĠĠĠĠĠĠĠĠĠĠĠĠĠ":6818,"notation":6819,"Ġeasily":6820,"itation":6821,"aser":6822,"Ġmovement":6823,"Items":6824,"Sm":6825,"Ġpen":6826,"Home":6827,"ĠGreat":6828,"ĠFrancis":6829,"domain":6830,"Struct":6831,"ĠEv":6832,"entials":6833,"stats":6834,"look":6835,"orida":6836,"Ġcivil":6837,"Ġratio":6838,"ĠMo":6839,"Ġhighly":6840,"Ġdecided":6841,"Ġbelong":6842,"CF":6843,"matrix":6844,"Ġparents":6845,"lers":6846,"properties":6847,"throws":6848,"enumer":6849,"sych":6850,"Ġclin":6851,"ĠRegister":6852,"ĠVol":6853,"Ġplans":6854,"flags":6855,"typeof":6856,"ĠFoot":6857,"ĠOption":6858,"ROM":6859,"^+":6860,"isl":6861,"Ġsubsequ":6862,"Ġreduce":6863,"Ġshot":6864,"Ġradi":6865,"ĠMost":6866,"Ġelectric":6867,"Ġquickly":6868,"Ġearn":6869,"uan":6870,"Ġstrategy":6871,"miss":6872,"osing":6873,"Ġworth":6874,"istent":6875,"schema":6876,"Ġnearly":6877,"ĠRussia":6878,"Ġmaster":6879,"Ġfactors":6880,"ĠCode":6881,"1993":6882,"Ġgenerally":6883,"Ġextended":6884,"git":6885,"NotNull":6886,"ertificate":6887,"ĠCamp":6888,"Ġbgcolor":6889,"ĠSing":6890,"ADD":6891,"Other":6892,"present":6893,"IE":6894,"ĠCanadian":6895,"Ġmask":6896,"Ġaffect":6897,"Ġdemand":6898,"Ġ[];":6899,"ĠTown":6900,"Ġreplaced":6901,"Ġfn":6902,"weet":6903,"Ġsafety":6904,"ads":6905,"çļ":6906,"uing":6907,"icago":6908,"ĠUnder":6909,"Ġkm":6910,"ervation":6911,"ĠJapanese":6912,"Ġsal":6913,"ĠEngine":6914,"NN":6915,"Our":6916,"Ġfix":6917,"ynamic":6918,"&=":6919,"uns":6920,"ingu":6921,")));":6922,"Ġfunc":6923,"Ġpush":6924,"bitr":6925,"ðŁ":6926,"txt":6927,"hav":6928,"()).":6929,"ĠVirgin":6930,"Ġturned":6931,"ustain":6932,"ĠSund":6933,"anta":6934,"ĠRock":6935,"71":6936,"Ġbrand":6937,"Ġpublish":6938,"ĠHill":6939,"Selector":6940,"record":6941,"Ġcompletely":6942,"family":6943,"account":6944,"ĠId":6945,"Car":6946,"ĠNode":6947,"{(":6948,"Ġrates":6949,"çļĦ":6950,"TABLE":6951,"Ġpeak":6952,"Conf":6953,"Ġ{'":6954,"Ġdebut":6955,"ady":6956,"ĠUkr":6957,"Editor":6958,"Ġunknown":6959,"SIZE":6960,"ĠEducation":6961,"reland":6962,"Ġfemale":6963,"Prop":6964,"ĠUN":6965,"Ġregions":6966,"Loader":6967,"ato":6968,"Ġsometimes":6969,"effect":6970,"esh":6971,"ĠOp":6972,"Ġessential":6973,"Av":6974,"ĠColor":6975,"itiz":6976,"organ":6977,"ocker":6978,"selected":6979,"ĠGames":6980,"grade":6981,"MAX":6982,"ĠMont":6983,"ella":6984,"Ġhor":6985,"ById":6986,"ĠMedia":6987,"inv":6988,"Rece":6989,".'":6990,"Ġframework":6991,"oday":6992,"olec":6993,"cup":6994,"Found":6995,"MB":6996,"super":6997,"Internal":6998,"IB":6999,"Ġattributes":7000,"haps":7001,"Ġreports":7002,"ĠCath":7003,"istration":7004,"Ġawait":7005,"?âĢĿ":7006,"Media":7007,"ĠGen":7008,"Ġvariety":7009,"Ġdaughter":7010,"andemic":7011,"})\\":7012,"ilation":7013,"Ġcapacity":7014,"Ġsafe":7015,"Cor":7016,"Ġhidden":7017,"each":7018,"Ġevolution":7019,"ounce":7020,"Ġequivalent":7021,"Ġclick":7022,"Ġexactly":7023,"ï¼":7024,"Ġquarter":7025,"Ġprotocol":7026,"Ġsummer":7027,"++;":7028,"Ġinstr":7029,"onym":7030,"Ġlaunch":7031,"Elements":7032,"anda":7033,"pects":7034,"andra":7035,"}_\\":7036,"iders":7037,"Ġdrop":7038,"aration":7039,"ĠBoard":7040,"desc":7041,"Ġscene":7042,"Ġprefer":7043,"allery":7044,"venue":7045,"eds":7046,"ĠBank":7047,"ĠGovernment":7048,"screen":7049,"Ġtit":7050,"ĠFrank":7051,"Ġsquare":7052,"Del":7053,"Ġcommercial":7054,"plex":7055,"Ġlaun":7056,"Ġstated":7057,"dx":7058,"Directory":7059,"Ġadopt":7060,"Ġprincip":7061,"Ġsaying":7062,"MC":7063,"Ġshowed":7064,"Feature":7065,"ĠPeter":7066,"Ġpred":7067,"Ġbus":7068,"Ġresulting":7069,"Protocol":7070,"Desc":7071,"assertEqual":7072,"ULE":7073,"Ġcloud":7074,"ĠCongress":7075,"Ġpurpose":7076,"ooks":7077,"%%%%":7078,"Register":7079,"Ġequations":7080,"_(":7081,"Ġclimate":7082,"itz":7083,"Ġartist":7084,"Ġcaused":7085,"liament":7086,"Ġcomputer":7087,"ĠExec":7088,"Ġmix":7089,"ĠDirector":7090,"Ġprove":7091,"phone":7092,"Windows":7093,"Ġmessages":7094,"arant":7095,"Transform":7096,"Runtime":7097,"Ġmachine":7098,"uter":7099,"|^":7100,"Ġartists":7101,"PP":7102,"ĠVersion":7103,"Ġmoving":7104,"Close":7105,"WA":7106,"Enum":7107,"Ġextract":7108,"ĠAtt":7109,"webpack":7110,"limit":7111,"controller":7112,"cons":7113,"=\"\">":7114,"}:":7115,"ĠBill":7116,"Ġexc":7117,"ĠInitial":7118,"channel":7119,"enty":7120,"Ġlif":7121,"clusive":7122,"Cond":7123,"nam":7124,"IST":7125,"Ġoccurre":7126,"cf":7127,"cb":7128,"job":7129,"Ġfair":7130,"bing":7131,"udget":7132,"Ġlisted":7133,"Ġrepresents":7134,"Ġproviding":7135,"fully":7136,"kin":7137,"}</":7138,"Ġworkers":7139,"Ġfailure":7140,"Ġbuy":7141,"icine":7142,"Ġplease":7143,"Then":7144,"Ġcref":7145,"Proxy":7146,"war":7147,"ĠTwo":7148,"ĠUpdate":7149,"Pub":7150,"Ġdriver":7151,"Ġtrust":7152,"ĠLouis":7153,"reset":7154,"Adapter":7155,"uty":7156,"igan":7157,"PORT":7158,"Ġready":7159,"Ġspread":7160,"icies":7161,"Success":7162,"____":7163,"Ġremaining":7164,"fly":7165,"defined":7166,"ened":7167,"Ġhyp":7168,"Ġhappy":7169,"aturday":7170,"contin":7171,"Ġpoll":7172,"Ġplaced":7173,"Pointer":7174,"Section":7175,"power":7176,"Ġbre":7177,"ĠKingdom":7178,"Ġmur":7179,"Ġbuilder":7180,"Ġinform":7181,"undred":7182,"Ġ\"\"":7183,"TA":7184,"Final":7185,"Ġdirected":7186,"Ġsurpr":7187,"ĠWill":7188,"ĠMA":7189,"Ġstructures":7190,"Ġhighlight":7191,"gest":7192,"echo":7193,"Ġul":7194,"Ġdimension":7195,"atre":7196,"ĠMel":7197,"osis":7198,"erial":7199,"ĠJose":7200,"}^\\":7201,"Step":7202,"ĠOffice":7203,"Ġ[[":7204,"Ġdownload":7205,"\\'":7206,"Ġindividuals":7207,"cape":7208,"While":7209,"Auto":7210,"Full":7211,"Ġtools":7212,"network":7213,"Files":7214,"123":7215,"Ġunless":7216,"NavBarCell":7217,"logger":7218,"trigger":7219,"Ġship":7220,"MOD":7221,"Ġsteps":7222,"Ġanim":7223,"Ġasync":7224,"ĠSecond":7225,")\">":7226,"ĠServices":7227,"Ġdetail":7228,"Ġgrand":7229,"StyleID":7230,"tsd":7231,"riteria":7232,"ĠStep":7233,"ffect":7234,"ĠTask":7235,"Ġtypename":7236,"Attributes":7237,"ĠVAL":7238,"manager":7239,"ancing":7240,"Ġcollege":7241,"Ġgiving":7242,"ĠTODO":7243,"iterator":7244,"Ġcompare":7245,"Ġthr":7246,"Memory":7247,")),":7248,"Ġstra":7249,"Ġpages":7250,"Print":7251,"Author":7252,"ĠGame":7253,"Ġbul":7254,"mut":7255,"SER":7256,"Ġslight":7257,"PATH":7258,"Panel":7259,"Ġagreement":7260,"Constr":7261,"Ġillustr":7262,"ĠZeal":7263,"Ġrelevant":7264,"approx":7265,"Ġopening":7266,"Ġreduced":7267,"assertEquals":7268,"ĠMass":7269,"apply":7270,"Ne":7271,"thlet":7272,"Ġprocesses":7273,"150":7274,"ĠCommittee":7275,"Ġshift":7276,"LIC":7277,"Ġopportunity":7278,"IMP":7279,"Ġserious":7280,"poses":7281,"ĠWomen":7282,"Ġgeneration":7283,")\"":7284,"UTF":7285,"Ġenable":7286,"XML":7287,"ĠLos":7288,"1991":7289,"ĠSocial":7290,"ults":7291,"Gu":7292,"Ġidentified":7293,"Ġip":7294,"Ġcli":7295,"Here":7296,"Ġnorm":7297,"cribe":7298,"Ġabsolute":7299,"ĠEconom":7300,"ĠAcademy":7301,"Ġ$.":7302,"[$":7303,"Ġpool":7304,"Ġsupp":7305,"parser":7306,"handler":7307,"ĠSO":7308,"Ġinvalid":7309,"Ġsetup":7310,"hidden":7311,"Ġbrowser":7312,"Ġvoice":7313,"Ġcoach":7314,"CHECK":7315,"ĠĠĠĠĠĠĠĠĠĠĠĠĠĠĠĠĠĠĠĠĠĠĠĠĠĠĠĠĠĠĠĠĠĠĠĠĠĠĠĠĠĠĠ":7316,"Ġng":7317,"posite":7318,"DT":7319,"ĠTimes":7320,"IA":7321,"switch":7322,"Layer":7323,"ĠSil":7324,"pective":7325,"ĠZealand":7326,"mutable":7327,"asketball":7328,"Generic":7329,"components":7330,"Ġshoot":7331,"ĠSun":7332,"Ġcommunities":7333,"SQL":7334,"Profile":7335,"Ġrespond":7336,"Ġappropriate":7337,"Don":7338,"Ã³n":7339,")).":7340,"Ġimag":7341,"ĠChild":7342,"Ġsites":7343,"ĠTherefore":7344,"ĠTra":7345,"ĠFlorida":7346,"=-":7347,"hens":7348,"Ġseparate":7349,"inem":7350,"Ñı":7351,"RAN":7352,"oles":7353,"Ġestim":7354,"ĠSol":7355,"Ġbillion":7356,"ĠĠĠĠĠĠĠĠĠĠĠĠĠĠĠĠĠĠĠĠĠĠĠĠĠĠĠĠĠ":7357,"ĠLake":7358,"Ġneighbor":7359,"SR":7360,"black":7361,"NULL":7362,"elease":7363,"Ġoccur":7364,"Ġeventually":7365,"ĠBO":7366,"ToString":7367,"Plugin":7368,"lg":7369,"front":7370,"Matrix":7371,"ĠDen":7372,"Func":7373,"Ġoptional":7374,"Character":7375,"Grid":7376,".__":7377,"ivery":7378,"Ġoccup":7379,"horizontal":7380,"Ġenh":7381,"apers":7382,"Ġconcentr":7383,"ĠLine":7384,"Ġsurround":7385,"ali":7386,"total":7387,"ĠLandroid":7388,"Ġwild":7389,"=(":7390,"Ġsamples":7391,"ĠDu":7392,"IVE":7393,"iques":7394,"bu":7395,"dp":7396,"Inv":7397,"Ġpretty":7398,"shift":7399,"Ġhospital":7400,"tools":7401,"Ġcarry":7402,"Ġfrequency":7403,"Ġ\\{":7404,"Ġlaws":7405,"Ġvalign":7406,"HR":7407,"tex":7408,"Ġdrive":7409,"'])":7410,"ĠParis":7411,"Ġiniti":7412,"engine":7413,"ito":7414,"ollowing":7415,"Ġstrateg":7416,"Ġvisible":7417,"ĠUSA":7418,"jar":7419,"iki":7420,"ĠDevelopment":7421,"uly":7422,"ĠRichard":7423,"Ġxmlns":7424,"reedom":7425,"pository":7426,"bad":7427,"umni":7428,"ĠGood":7429,"ĠOrder":7430,"dist":7431,"ĠIll":7432,"Ġbranch":7433,"atible":7434,"Ġrepresented":7435,"Ġpassword":7436,"bytes":7437,"Ġ(_":7438,"ĠConfig":7439,"Browser":7440,"Ġcontinuous":7441,"Ġimplements":7442,"################":7443,"Ġdevices":7444,"rase":7445,"Ġexport":7446,"Ġminor":7447,"omial":7448,"Ġpoor":7449,"Graph":7450,"UD":7451,"contains":7452,"Ġstraight":7453,"Route":7454,"ih":7455,"abit":7456,"Ġreflect":7457,"ĠCharles":7458,"yan":7459,"isms":7460,"etailed":7461,"tests":7462,"}^{(":7463,"Ġsch":7464,"ĠInformation":7465,"Ġwaves":7466,"ĠTre":7467,"itors":7468,"avity":7469,"jpg":7470,"ymmet":7471,"Socket":7472,"Ġprim":7473,"Dest":7474,"getName":7475,"Ġfans":7476,"Double":7477,"Ġblood":7478,"isters":7479,"ĠExt":7480,"Repository":7481,"Ġstudied":7482,"ĠLibrary":7483,"va":7484,"external":7485,"Fail":7486,"Ġfelt":7487,"Ġanswer":7488,"Ġenabled":7489,"identifier":7490,"oving":7491,"Ġrad":7492,"rine":7493,"ĠFacebook":7494,"Ġreq":7495,"({\\":7496,"Ġnation":7497,"Ġraw":7498,"eval":7499,"Ġvisual":7500,"ĠGeorg":7501,"Pay":7502,"ĠTeam":7503,"Ġgoals":7504,";\"":7505,"Ġmotion":7506,"{{\\":7507,"Keys":7508,"Ġinner":7509,"Ġfederal":7510,"Ġpm":7511,"Term":7512,"HER":7513,"Ġdu":7514,"ournament":7515,"Ġheavy":7516,"ĠPeople":7517,"Ġwind":7518,"Ġ=========":7519,"ĠParam":7520,"Med":7521,"km":7522,"Ġolder":7523,"Ġscheme":7524,"Ġfirm":7525,"SM":7526,"shall":7527,"Ġblocks":7528,"configuration":7529,"Ġnoted":7530,"ĠIreland":7531,"Ġmission":7532,"textwidth":7533,"LP":7534,"Ġmill":7535,"mo":7536,"area":7537,"tmp":7538,"Ġhands":7539,"ji":7540,"Ġwave":7541,"Ġleague":7542,"parameters":7543,"Ġeth":7544,"Ġcustomers":7545,"Ġencour":7546,"nodes":7547,"Google":7548,"Ġseconds":7549,"Duration":7550,"gi":7551,"IPT":7552,"editor":7553,"Ġnotice":7554,"Ġstock":7555,"going":7556,"roke":7557,"fail":7558,"Ġoil":7559,"Ġrequests":7560,"ircraft":7561,"nergy":7562,"iful":7563,"ĠCast":7564,"Java":7565,"ĠRecords":7566,"ishes":7567,"Ġforeign":7568,"ĠItalian":7569,"ĠLand":7570,"Ġcompetition":7571,"inos":7572,"Parse":7573,"widehat":7574,"ĠIts":7575,"fol":7576,"Ġcosts":7577,"Global":7578,"ova":7579,"READ":7580,"Ġfarm":7581,"Ġinnov":7582,"ONE":7583,"dimensional":7584,"Ġcru":7585,"ĠEarth":7586,"Ġfourth":7587,"heast":7588,"Ġparser":7589,"Ġple":7590,"anging":7591,"ĠBack":7592,"Ġhol":7593,"ĠLin":7594,"ĠStart":7595,"Ġletter":7596,"Ġlicense":7597,"SY":7598,"Ġagent":7599,"shadow":7600,"Ġlooks":7601,"Ġmaterials":7602,"Scroll":7603,"ĠChicago":7604,"watch":7605,"Ġcoeff":7606,"metadata":7607,"Ġflat":7608,"pat":7609,"ICE":7610,"ĠAust":7611,"othing":7612,"Person":7613,"ny":7614,"Ġresponsible":7615,"wa":7616,"Engine":7617,"Failed":7618,"Ġsegment":7619,"unities":7620,"ĠHistor":7621,"Ġdig":7622,"ests":7623,"sel":7624,"kl":7625,"ĠJava":7626,"128":7627,"ĠLi":7628,"ĠNumber":7629,"ĠRet":7630,"inf":7631,"ĠTwitter":7632,"Ġexamples":7633,"Ġestimate":7634,"Ġbrother":7635,"ĠHome":7636,"Ġspectrum":7637,"Ġencoding":7638,"Py":7639,"Ġcomparison":7640,"Ġconsequ":7641,"Ġfounded":7642,"children":7643,"Ġcomments":7644,"Year":7645,"ensed":7646,"Ġtrigger":7647,"La":7648,"ALSE":7649,"pa":7650,"iciency":7651,"Ġvelocity":7652,"arsed":7653,"Public":7654,"geles":7655,"Cluster":7656,"browser":7657,"Ġmetric":7658,"ĠAlthough":7659,"Constants":7660,"ĠManagement":7661,"Mapping":7662,"Ġpiece":7663,"attributes":7664,"oped":7665,"called":7666,"Ġleaders":7667,"Ġplays":7668,"1960":7669,"Ġsales":7670,"ĠPan":7671,"ĠMicrosoft":7672,"chain":7673,"ĠEach":7674,"Sche":7675,"nil":7676,"Cap":7677,"Ġleads":7678,"ĠGlobal":7679,"Ġsignificantly":7680,"\"/":7681,"Ġmixed":7682,"arc":7683,"1989":7684,"Ġpan":7685,"inations":7686,"scape":7687,"emon":7688,"Ġelected":7689,"Ġpandemic":7690,"Ġaim":7691,"tabs":7692,"iffer":7693,"spirit":7694,"alo":7695,"Ġdepth":7696,"Ġvote":7697,"ipment":7698,"Ġspirit":7699,"Play":7700,"irls":7701,"special":7702,"ĠĠĠĠĠĠĠĠĠĠĠĠĠĠĠĠĠĠĠĠĠĠĠĠĠĠĠĠĠĠĠĠĠĠĠĠĠĠĠĠĠĠĠĠĠĠĠĠĠĠĠĠĠĠĠĠĠĠĠĠĠĠĠĠ":7703,"FIG":7704,"Ġapproximately":7705,"}\\\\":7706,"Ġmajority":7707,"Ġacadem":7708,"Background":7709,"filename":7710,"ĠForce":7711,"ITE":7712,"------------":7713,"Ġbuildings":7714,"ĠLocal":7715,"headers":7716,"Abstract":7717,"scr":7718,"Remove":7719,"Ġinfluence":7720,"ĠReport":7721,"Ġtypeof":7722,"ĠOh":7723,"iteral":7724,"Ġmenu":7725,"protected":7726,"Common":7727,"TV":7728,"Ġ$(\\":7729,"BE":7730,"Ġretr":7731,"Ġspot":7732,"ĠOnly":7733,"','":7734,"Ġderived":7735,"Ġexpansion":7736,"ups":7737,"iden":7738,"ĠFriday":7739,"Î±":7740,"prefix":7741,"ĠSecret":7742,"atial":7743,"ĠEqu":7744,"STAT":7745,"Ġannual":7746,"ĠPoint":7747,"hspace":7748,"iced":7749,"ĠCD":7750,"Ġ[],":7751,"NOT":7752,"ima":7753,"stable":7754,"stitution":7755,"ĠĠĠĊ":7756,"ĠArts":7757,"Product":7758,"These":7759,"ĠâĢ¦":7760,"iling":7761,"Ġ\",":7762,"ĠTour":7763,"ĠAny":7764,"Ġmagnetic":7765,"ĠTechnology":7766,"Scale":7767,"Ġremote":7768,"random":7769,"cean":7770,"Named":7771,"Ġadvant":7772,"uations":7773,"ĠAngeles":7774,"acle":7775,"Ġgrowing":7776,"props":7777,"Ġlatter":7778,"ications":7779,"à¸":7780,"ĠIndex":7781,"ĠĠĠĠĠĠĠĠĠĠĠĠĠĠĠĠĠĠĠĠĠĠĠĠĠĠ":7782,"ĠjQuery":7783,"Ġremember":7784,"Ġbrief":7785,"Ġprocessing":7786,"BP":7787,"Ġvan":7788,"ĠGets":7789,"âĢĿ.":7790,"Ġpod":7791,"Ġ-\\":7792,"found":7793,"Some":7794,"Ġbroadcast":7795,"exists":7796,"ashed":7797,"zero":7798,"ĠOld":7799,"120":7800,"}'":7801,"platform":7802,"Ġserve":7803,"Ġanyone":7804,"rier":7805,"person":7806,"ĠLink":7807,"}|":7808,"ivation":7809,"ĠFree":7810,"Trace":7811,"Ġmentioned":7812,"Ġinteraction":7813,"Ġunderstanding":7814,"ĠPet":7815,"ĠVictor":7816,"LINE":7817,"ĠPage":7818,"Ġpoly":7819,"protocol":7820,"Members":7821,"Sync":7822,"wrapper":7823,"Region":7824,"opes":7825,"Identifier":7826,"ĠTH":7827,"ĠPath":7828,"LECT":7829,"ĠMain":7830,"ĠWed":7831,"ien":7832,"Statement":7833,"libr":7834,"![":7835,"onday":7836,"Ġefforts":7837,"Ġchosen":7838,"ĠIl":7839,"Details":7840,"Ġinstalled":7841,"ĠPo":7842,"Ġwat":7843,"izable":7844,"Ġalone":7845,"Ġresolution":7846,")+":7847,"ĠMur":7848,"Ġinteg":7849,"Ġdelay":7850,"iana":7851,"ĠSaturday":7852,"}}(":7853,"ĠPenn":7854,"ira":7855,"serial":7856,"Ġsizeof":7857,"Ġ&\\":7858,"ĠCA":7859,"hide":7860,"Ġidentify":7861,"axis":7862,"John":7863,"progress":7864,"ographic":7865,"ĠPass":7866,"Ġimplies":7867,"Ġdiscussed":7868,"ĠVirginia":7869,"Ġtraff":7870,"]$":7871,"ĠLemma":7872,"Ġcalling":7873,"Variable":7874,"Ġchance":7875,"owers":7876,"Ġ[\"":7877,"arden":7878,"Ġoperators":7879,"ĠSunday":7880,"Ġoriginally":7881,"Space":7882,"ĠFre":7883,"ters":7884,"Ġsea":7885,"1988":7886,"pan":7887,"Ġpull":7888,"Ġdespite":7889,"cover":7890,"ĠEnter":7891,"gba":7892,"utch":7893,"Ear":7894,"Ġsupply":7895,"Ġraised":7896,"ĠCopyright":7897,"rf":7898,"Ġut":7899,"idx":7900,"Ġarbitr":7901,"ĠCH":7902,"ĠEli":7903,"ussian":7904,"Ġabstract":7905,"Ġexchange":7906,"ean":7907,"Ġwood":7908,"stone":7909,"bridge":7910,"ĉĉĉĉĉĉĉĉĉ":7911,"ĠSpace":7912,"Ġsociety":7913,"Ġlaunched":7914,"asion":7915,"Ġbinary":7916,"ĠIOException":7917,"navList":7918,"noindent":7919,"Ġwasn":7920,"standing":7921,"Ġhyper":7922,"Ġmonitor":7923,"wild":7924,"Depend":7925,"Ġguitar":7926,"ĠDom":7927,"Ġphone":7928,"ati":7929,"ĠHot":7930,"Ġsector":7931,"ĠDev":7932,"TIME":7933,"Ġarm":7934,"apos":7935,"Ġhundred":7936,"green":7937,"Ã¨":7938,"ĠMarket":7939,"Ġcandidate":7940,"Ġmeasures":7941,"High":7942,"Shape":7943,"Ġhar":7944,"Single":7945,"Ġmobile":7946,"ashion":7947,"WN":7948,"acro":7949,"Ġthous":7950,"ĠPM":7951,"Ġlib":7952,"VM":7953,"eck":7954,"Ġvertical":7955,"Ġuniform":7956,"OST":7957,"May":7958,"Ġfill":7959,"USE":7960,"Ġbattle":7961,"ĠBrown":7962,"ĠPack":7963,"Mat":7964,"razil":7965,"ĠMult":7966,"ossible":7967,"mask":7968,"aby":7969,"ĠBur":7970,"ĠRail":7971,"prev":7972,"herited":7973,"xspace":7974,"Ġok":7975,"Ġreject":7976,"ĠPower":7977,"Ġconflic":7978,"Ġidx":7979,"ĠAmazon":7980,"ĠImage":7981,"Ġprovider":7982,"ĠElect":7983,"IND":7984,"Ġflags":7985,"åı":7986,"Ġsufficient":7987,"Ġappend":7988,"Ġeyes":7989,"Ġadjust":7990,"Ġsmooth":7991,"Collections":7992,"ĠMa":7993,"LL":7994,"Pi":7995,"Ġonto":7996,"storage":7997,"ĠĠĠĠĠĠĠĠĠĠĠĠĠĠĠĠĠĠĠĠĠĠĠĠĠĠĠĠ":7998,"para":7999,"Ġdepends":8000,"Ġcritic":8001,"Ġroll":8002,"ĠSecurity":8003,"ifdef":8004,"rich":8005,"Ġaudio":8006,"ĠResource":8007,">::":8008,"Category":8009,"upload":8010,"Ġintr":8011,"ifically":8012,"Gen":8013,"ipped":8014,"ĠFilm":8015,"Sequ":8016,"INFO":8017,"Tags":8018,"Ġrequirements":8019,"OUT":8020,"Ġpartner":8021,"Ġdisk":8022,"ĠSpec":8023,"Ġconstructor":8024,"Ġcancer":8025,"fire":8026,"Password":8027,"Selected":8028,"ola":8029,"Ġcombined":8030,"Ġspaces":8031,"safe":8032,"Generator":8033,"Ġtransl":8034,"norm":8035,"article":8036,"Ġviews":8037,"WR":8038,"ĠKn":8039,"Ġqueue":8040,"ĠGl":8041,"{$":8042,"Ġdoub":8043,"uages":8044,"Ġ\"<":8045,"acific":8046,"ĠMake":8047,"zone":8048,"decl":8049,"GO":8050,"Ġincome":8051,"\\,\\":8052,"Ġemployees":8053,"plications":8054,"ĠChief":8055,"Ġorganizations":8056,"Ġgovern":8057,"conn":8058,"apes":8059,"Ġwhom":8060,"ookie":8061,"CESS":8062,"Ġther":8063,"iminal":8064,"ĠØ":8065,"Ġ],":8066,"Prefix":8067,"ĠSpanish":8068,"Ġadding":8069,"depth":8070,"ĠStat":8071,"extern":8072,"expr":8073,"Ġmanaged":8074,"endor":8075,"Ġcreation":8076,"}}{\\":8077,"Ġdesc":8078,"Ġindust":8079,"Ġwid":8080,"Generated":8081,"jango":8082,"Ġestimated":8083,"However":8084,"ĠLee":8085,"ancer":8086,"ĠMartin":8087,"bits":8088,"junit":8089,"claim":8090,"ĠBet":8091,"ĠCatholic":8092,"Ġreadonly":8093,"iro":8094,"oret":8095,"brief":8096,"Ġconsistent":8097,"deg":8098,"Î¿":8099,"estion":8100,"detail":8101,"Ġaxis":8102,"ĠAction":8103,"Registry":8104,"Ġgrid":8105,"nel":8106,"âĢĺ":8107,"formance":8108,"Ġjoint":8109,"Opt":8110,"Ġtra":8111,"Ġtx":8112,"theme":8113,"chor":8114,"Ġmostly":8115,"services":8116,"ĠMessage":8117,"Cred":8118,"iner":8119,"Ġdog":8120,"gence":8121,"3333":8122,"Ġfine":8123,"Ġsusp":8124,"Ġaccom":8125,"Ġalleg":8126,"apy":8127,"blue":8128,"Ġappointed":8129,"riage":8130,"rift":8131,"Simple":8132,"amaz":8133,"NT":8134,"ĠFootball":8135,"Ġconsists":8136,"ĠWindows":8137,"Ġdenote":8138,"collapse":8139,"Ġ=======":8140,"pressed":8141,"Report":8142,"Attr":8143,"Ġcombination":8144,"hesis":8145,"ĠHash":8146,"'d":8147,"Are":8148,"generated":8149,"ester":8150,"ĠJun":8151,"Ġalgebra":8152,"eller":8153,"Ġ\"-":8154,"tbody":8155,"Ä±":8156,"ĠTheir":8157,"Ġflex":8158,"Ġmaps":8159,"ĠMexico":8160,"Ġnavigation":8161,"Ġformation":8162,"Ġ_{":8163,"Ġheard":8164,"zen":8165,"sys":8166,"atar":8167,"}+\\":8168,"ĠTR":8169,"tags":8170,"wer":8171,"Ġended":8172,":\\":8173,"words":8174,"Ġgirl":8175,"ĠArab":8176,"ĠSpecial":8177,"ACT":8178,"Ġchart":8179,"Ġrare":8180,"citet":8181,"Ġfactory":8182,"Video":8183,"Props":8184,"Ġmagn":8185,"arian":8186,"ĠReact":8187,"TEXT":8188,"ĠCarolina":8189,"Ġreader":8190,"Sample":8191,">()":8192,"ĠSummer":8193,"ĠYoung":8194,"eleted":8195,"Ġdataset":8196,"Ġeq":8197,"Ġnetworks":8198,"usband":8199,"ĠGa":8200,"allclasses":8201,"Ġctx":8202,"enabled":8203,"Ġcool":8204,"Ġfif":8205,"maven":8206,"Wrapper":8207,"mi":8208,"Ġshowing":8209,"Agent":8210,"picker":8211,"%,":8212,"ĠInteger":8213,"Comment":8214,"Ġsignature":8215,"ĠApple":8216,"lie":8217,"ĠFestival":8218,"Ġclassical":8219,"itness":8220,"Ġcompute":8221,"Example":8222,"Ġtypically":8223,"Ġcos":8224,"Help":8225,"MT":8226,"isc":8227,"ading":8228,"ĠLu":8229,"Ġcontrast":8230,"1987":8231,"Ġcovered":8232,"Ġhelped":8233,"single":8234,"isted":8235,"Ġagreed":8236,"Ñĭ":8237,"Ġnoise":8238,"]\\":8239,"role":8240,"done":8241,"Ġconvert":8242,"awn":8243,"ĠLove":8244,"lig":8245,"Ġreasons":8246,"Stats":8247,"Ġtheme":8248,"ĠCommunity":8249,"Ġtrend":8250,"Ġmodified":8251,"Ġenv":8252,"Nodes":8253,"ĠIE":8254,"rid":8255,".\");":8256,"OB":8257,"Namespace":8258,"CRE":8259,"Ġpaid":8260,"Ġtrial":8261,"ĠAtl":8262,"ĠSy":8263,"ÐµÐ":8264,"Ġenum":8265,"Ġplane":8266,"ocaml":8267,"Ġprefix":8268,"dependent":8269,"ĠAre":8270,"Ġexit":8271,"\"><!--":8272,"Ġalbums":8273,"ĠMil":8274,"ĠVector":8275,"ĠWell":8276,"('.":8277,"Ġ'<":8278,"ĠPop":8279,"compiler":8280,"har":8281,"gers":8282,"provider":8283,"Ġmorning":8284,"when":8285,"Ġmetadata":8286,"Ġlic":8287,"They":8288,"she":8289,"ĠPolicy":8290,"=>":8291,"Ġui":8292,"Ġdaily":8293,"PER":8294,"Ġchief":8295,"1986":8296,"Ġstrugg":8297,"Ġentered":8298,"Ġversions":8299,"Ġtal":8300,"ĠValley":8301,"je":8302,"DEBUG":8303,"Domain":8304,"ĠFort":8305,"EV":8306,"ĠFurther":8307,"ĠWeek":8308,"cknow":8309,"Ġradius":8310,"Ġcitiz":8311,"TRUE":8312,"ello":8313,"Ġrapid":8314,"Ġcamera":8315,"porate":8316,"ĠItaly":8317,"hetic":8318,"definition":8319,"Ġpositions":8320,"Ġinfin":8321,"Ġ{{":8322,"Ġcat":8323,"Ġ?>":8324,"Ġdistinct":8325,"uce":8326,")}{":8327,"World":8328,"amm":8329,"ajax":8330,"rize":8331,"ĠRequest":8332,"ĠDown":8333,"iano":8334,"=\"${":8335,"Ġstations":8336,"Ġshop":8337,"Ġstarts":8338,"ĠJim":8339,"Ġlogger":8340,"Ġadapt":8341,"achment":8342,"uesday":8343,"Ġarrest":8344,"ĠFour":8345,"ffff":8346,"seud":8347,"Ġice":8348,"neq":8349,"temp":8350,"JS":8351,"ĠAuthor":8352,"Ġoffered":8353,"Ġunivers":8354,"Ġbill":8355,"ĠJud":8356,"game":8357,"HS":8358,"Services":8359,"ĠCommun":8360,"ifi":8361,"pattern":8362,"boost":8363,"ĠPlan":8364,"Ġalternative":8365,"ĠKar":8366,"$/":8367,"Compar":8368,"Ġhour":8369,"colLast":8370,"Ġcalc":8371,"Ġsurvey":8372,"ĠCa":8373,"('#":8374,"HTTP":8375,"ĠHenry":8376,"outer":8377,"Ġfle":8378,"ĠEven":8379,"Encoded":8380,"Ġtemp":8381,"collection":8382,"Ġdiscussion":8383,"duled":8384,"Selection":8385,"errors":8386,"........":8387,"Ġsenior":8388,"ski":8389,"Ġstress":8390,"rastructure":8391,"ĠBre":8392,"execute":8393,"typedef":8394,"Ġforced":8395,"riority":8396,"}-\\":8397,"ĠLead":8398,"Ġstrings":8399,"fd":8400,"Ġattract":8401,"odies":8402,"?>":8403,"(__":8404,"ĠHttp":8405,"Ġfeatured":8406,"cluded":8407,"=#":8408,"fix":8409,"construct":8410,"600":8411,"Ġcarried":8412,"ĠAwards":8413,"wan":8414,"Ġsummary":8415,"ĠCare":8416,"Ġwinning":8417,"inet":8418,"Ġremained":8419,"Ġcontinues":8420,"resources":8421,"Ġmeasured":8422,"PY":8423,"kins":8424,"ĠElement":8425,"ulf":8426,"wp":8427,"ighter":8428,"extension":8429,"low":8430,"<!":8431,"rate":8432,"FFFF":8433,"LC":8434,"osoph":8435,"asis":8436,"eces":8437,"details":8438,"shared":8439,"ÑĮ":8440,"Ġlab":8441,"elcome":8442,"ĠHTTP":8443,"Ġhousehold":8444,"fx":8445,"elligence":8446,"Ġdat":8447,"Ġexcit":8448,"URI":8449,"ĠOl":8450,"1984":8451,"Ġliterature":8452,"Ġunion":8453,"odd":8454,"ĠWood":8455,"since":8456,"loss":8457,"Ġcontribution":8458,"Ġembedd":8459,"Ġclaims":8460,"MI":8461,"ador":8462,"pared":8463,"Ġpowerful":8464,"Make":8465,"inant":8466,"AF":8467,"Coin":8468,"tor":8469,"ĠHaw":8470,"adium":8471,"ãĢ":8472,"'$":8473,"colFirst":8474,"dem":8475,"Ġbecoming":8476,"ben":8477,"Ġdynamic":8478,"BAR":8479,"Ġvac":8480,"ĠHuman":8481,"DateTime":8482,"Ġcoast":8483,"ĠEp":8484,"ĠNAME":8485,"aling":8486,"ĠEvery":8487,"Look":8488,"250":8489,"ĠCy":8490,")->":8491,"ĠPak":8492,"Ġaware":8493,"Ġobservations":8494,"Ġstrength":8495,"mann":8496,"Ġadvert":8497,"Ġboost":8498,"mathsf":8499,"Ġverify":8500,"Ġparticle":8501,"uplic":8502,"IGHT":8503,"Ġautomatically":8504,"rick":8505,"reme":8506,"enable":8507,"istribution":8508,"gg":8509,"Ġangle":8510,"svg":8511,"Ġtasks":8512,"ĠWAR":8513,"Ġactor":8514,"rypto":8515,"RES":8516,"Ġstudio":8517,"Ġheat":8518,"ierarch":8519,":#":8520,"»¿":8521,"Ġfru":8522,"ursday":8523,"Ġmurder":8524,"EST":8525,"ogen":8526,"Ġphil":8527,"Ġpi":8528,"ĠAS":8529,"writer":8530,"According":8531,"users":8532,"Ġ>>":8533,"ï»¿":8534,"{%":8535,"Ġoperating":8536,"Ġsupports":8537,"builder":8538,"Ġens":8539,"Ġsuccessfully":8540,"rev":8541,"Ġmetal":8542,"kens":8543,"Ã£":8544,"Ġtherm":8545,"Ġstored":8546,"Ġinterested":8547,"enumerate":8548,"Ġrise":8549,"Ġaircraft":8550,"ela":8551,"Ġlisten":8552,"Ġcontroller":8553,"usform":8554,"PU":8555,"Ĥ¬":8556,"Ġhydro":8557,"numerusform":8558,"cluster":8559,"Ġclearly":8560,"glyph":8561,"Ġwants":8562,"Find":8563,"1985":8564,"unct":8565,";}":8566,"Ġheaders":8567,"Ã¢":8568,"Ġlistener":8569,"pet":8570,"Ġgauge":8571,"ockey":8572,"Ġleaving":8573,"Ġcurve":8574,"Ġdetect":8575,"operatorname":8576,"testing":8577,"uer":8578,"condition":8579,"throw":8580,"username":8581,"Ġobvious":8582,"Progress":8583,"original":8584,"'));":8585,"Ġproxy":8586,"hom":8587,"ĠControl":8588,"Ġvehicle":8589,"Ġparties":8590,"Ġmatching":8591,"Ġauthors":8592,"theorem":8593,"sets":8594,"Ġdetailed":8595,"Ġisol":8596,"ĠScot":8597,"Landroid":8598,"ctrine":8599,"ĠJoe":8600,"Ġhuge":8601,"ĠLord":8602,"Ġshut":8603,"unique":8604,"springframework":8605,"Ġpert":8606,"Import":8607,"ÛĮ":8608,"ĠASSERT":8609,"Ġefficient":8610,"ĠProcess":8611,"ysical":8612,"amazon":8613,"itemize":8614,"Book":8615,"osc":8616,"dialog":8617,"ĠBlock":8618,"ĠNet":8619,"ares":8620,"loop":8621,"ĠAndroid":8622,"ifiers":8623,"isting":8624,"ĠHamilton":8625,"Ġhear":8626,"Ġkept":8627,"Ġspeak":8628,"loader":8629,"****************************************************************":8630,"Ġtoward":8631,"Ġtimeout":8632,"life":8633,"Ġslightly":8634,"Ġtensor":8635,"ulty":8636,"tics":8637,"ĠSign":8638,"FS":8639,"login":8640,"Ġpatient":8641,"Ġparticles":8642,"xs":8643,"tc":8644,"ĠAsia":8645,"ĠMany":8646,"ĠProperty":8647,"Bind":8648,"Ġil":8649,"Ġchallenge":8650,"Ġvertex":8651,"pu":8652,"report":8653,"pull":8654,"Ġforeach":8655,"inion":8656,"fi":8657,"Ġtor":8658,"ndef":8659,"ĠUI":8660,"ĠBu":8661,"Ġoccurred":8662,"uzz":8663,"Ġregarding":8664,".\",":8665,"bel":8666,"Ġpropos":8667,"Area":8668,"ĠJo":8669,"Mer":8670,"('/":8671,"Å¡":8672,"Ġprison":8673,"Ġlooked":8674,"Ġrecommend":8675,"poration":8676,"aria":8677,"EventListener":8678,")}$":8679,"issues":8680,"Ġcolumns":8681,"Ġlayout":8682,"Ġknew":8683,"how":8684,"attice":8685,"indexOf":8686,"orders":8687,"Ġcompact":8688,"Ġrevealed":8689,"ĠMonday":8690,"Ġconvers":8691,"ĠLOG":8692,"REG":8693,"ĠDesign":8694,"Ġ×":8695,"ourney":8696,"Ġbalance":8697,"ĠSoftware":8698,"Ġresidents":8699,"oting":8700,"world":8701,"ĠMov":8702,"Ġexperimental":8703,"Headers":8704,"flag":8705,"Ġahead":8706,"Texture":8707,"Ġguid":8708,"-$":8709,"ĠAM":8710,"dy":8711,"underline":8712,"invalid":8713,"Ġrect":8714,"required":8715,"Ġtruth":8716,"commit":8717,"ĠWhe":8718,"ĠPRO":8719,"ĠJohnson":8720,"ĠMiddle":8721,"cuss":8722,"plates":8723,"Ġrelatively":8724,"Ġcentre":8725,"Ġtried":8726,"ĠLcom":8727,"Ġdetection":8728,"ums":8729,"Bound":8730,"Visible":8731,"Uri":8732,"Ġcommunication":8733,"Ġcoq":8734,"Role":8735,"Arch":8736,"Ġproceed":8737,"Ġbusinesses":8738,"aylor":8739,"plot":8740,"Ġinterval":8741,"ĠSupport":8742,"Resources":8743,"Ġideas":8744,"usters":8745,".<":8746,"ĠSwed":8747,"Ġentries":8748,"Tra":8749,"Ġtrail":8750,"EEEE":8751,"Ġfol":8752,"itan":8753,"ĠJones":8754,"atics":8755,"Ġsoft":8756,"Ġnullptr":8757,"INTER":8758,"Ġpure":8759,"icity":8760,"Ġofficials":8761,"ĠIns":8762,"attery":8763,"(@":8764,"Enumer":8765,"Ġdocuments":8766,"video":8767,"Ġrestaur":8768,"Ġconnections":8769,"runtime":8770,"Ġwall":8771,"Ġappearance":8772,"Ġarchitecture":8773,"stra":8774,"Ġedition":8775,"ĠCentre":8776,"RPC":8777,"Ġmolec":8778,"Ġring":8779,"essions":8780,"rical":8781,"Join":8782,"Ġscored":8783,"nn":8784,"$_":8785,"Ġtraffic":8786,"agraph":8787,"ĠBlue":8788,"ansas":8789,"clean":8790,"Ġeconomy":8791,"Ġbenefits":8792,":`":8793,"gency":8794,"ĠĠĠĠĠĠĠĠĠĠĠĠĠĠĠĠĊ":8795,"FR":8796,"ĠAccess":8797,"Ġ).":8798,"Ġfinish":8799,"ĠSource":8800,"Total":8801,"ĠFI":8802,"Ġawarded":8803,"plus":8804,"Ġdepartment":8805,"roph":8806,"Game":8807,"appe":8808,"ĠConference":8809,"nesday":8810,"ĠRest":8811,"Ġprocedure":8812,"tons":8813,"iate":8814,"ĠBit":8815,"bro":8816,"initions":8817,"named":8818,"Ġcities":8819,"async":8820,"mediate":8821,"Ġscatter":8822,"Ġfeet":8823,"Ġsmart":8824,"uries":8825,"Ġforest":8826,"ĠCustom":8827,"ĠCross":8828,"About":8829,"aka":8830,"Ġhusband":8831,"seg":8832,"wall":8833,"ĠCard":8834,"ĠBoth":8835,"FLA":8836,"Ġnp":8837,"sumer":8838,"helper":8839,"cheduler":8840,"Ġregistered":8841,"Ġcycle":8842,"RR":8843,"Ġ{\"":8844,"...</":8845,"Summary":8846,"ĠNav":8847,"Ġisland":8848,"Fin":8849,"prod":8850,"Ġconstraints":8851,"cred":8852,"Multi":8853,"Microsoft":8854,"vspace":8855,"Ġflux":8856,"\"],":8857,"Ġking":8858,"elines":8859,"oston":8860,"ĠLast":8861,"zz":8862,"Ġvoc":8863,"Ġinvestment":8864,"Ġlabor":8865,"cdn":8866,"forward":8867,"people":8868,"fast":8869,"Ġpicture":8870,"ellar":8871,"Cast":8872,"Ġwarn":8873,"ĠSD":8874,"Ġplanning":8875,"Ġcharset":8876,"Flag":8877,"ĠExample":8878,"FORM":8879,"ummy":8880,"Ġsustain":8881,"assembly":8882,"Ġmunicip":8883,"Ġdifferences":8884,"ITION":8885,"Ġdamage":8886,"Ø±":8887,"ynomial":8888,"ĠWal":8889,"ĠBob":8890,"wig":8891,"Ġbehavi":8892,"neg":8893,"Ġskills":8894,"ĠTele":8895,"feature":8896,"Ġsell":8897,"Ġpropag":8898,"ĠCEO":8899,"1983":8900,"Ġoccurs":8901,"Ġcalculated":8902,"DEFAULT":8903,"structions":8904,"800":8905,"vc":8906,"Ġfloor":8907,"urban":8908,"ĠWay":8909,"ĠReal":8910,"href":8911,"Enter":8912,"Ġcredit":8913,"ĠLiber":8914,"Ġcompl":8915,"Best":8916,"oses":8917,"Short":8918,"yer":8919,"operation":8920,"ruby":8921,"Ġexecution":8922,"ĠÂ£":8923,"ylvan":8924,"Ġcmd":8925,"uality":8926,"1950":8927,"ĠFund":8928,"bg":8929,"fixed":8930,"Second":8931,"Ġblog":8932,"Ġexistence":8933,"Ġofficer":8934,"Ġcam":8935,"101":8936,"opl":8937,"Ã£o":8938,"Ġsun":8939,"Ġweap":8940,"Delegate":8941,"ĠGi":8942,"Ġdraft":8943,"Bean":8944,"Ġtechniques":8945,"}},":8946,"Ġtransparent":8947,"1982":8948,"Ġphen":8949,"Mask":8950,"POST":8951,"Ġconfirmed":8952,"Math":8953,"Ġassigned":8954,"Two":8955,"anes":8956,"}%":8957,"Ġguarant":8958,"BB":8959,"Ġdebug":8960,"Ġdivision":8961,">:":8962,"ĠWater":8963,"Identity":8964,"Ġequipment":8965,"player":8966,"Ġdisabled":8967,"Ġfish":8968,"ropy":8969,"Ġdream":8970,"Ġduration":8971,"wildfly":8972,"fold":8973,"transition":8974,"swarm":8975,"ĠMP":8976,"Ġdict":8977,"Ġaudience":8978,"ĠSte":8979,"Ġhence":8980,"Framework":8981,"ilters":8982,"cam":8983,"Ġchallenges":8984,"uum":8985,"Ġspan":8986,"Email":8987,"Ġcultural":8988,"Ġfamous":8989,"ĠSar":8990,"Len":8991,"Language":8992,"Ġpurs":8993,"ĠIII":8994,"Ġachieve":8995,"Ġplus":8996,"Ġindicates":8997,"Ġalumni":8998,"ateway":8999,"Ġadministration":9000,"Ġformula":9001,"two":9002,"Ġincreases":9003,"Ġdoor":9004,"RC":9005,"gorithms":9006,"Ġconference":9007,"Ġrgba":9008,"ĠOrgan":9009,"Interval":9010,"CTYPE":9011,"tk":9012,"vs":9013,"Ġfocused":9014,"Ġ^":9015,"Ġcontained":9016,"ideos":9017,"Ġindicate":9018,"ĠSQL":9019,"owner":9020,"ĠHa":9021,"%)":9022,"groups":9023,"Ġreserved":9024,"ryst":9025,"ĠSa":9026,"ĠInput":9027,"Ġagree":9028,"ĠArrayList":9029,"ÏĦ":9030,"Ġmusical":9031,"ĠBrazil":9032,"Ġhistorical":9033,"Ġlived":9034,"Ġnumerous":9035,"Ġallowing":9036,"Tx":9037,"ishop":9038,"avour":9039,"ĠIran":9040,"Ġsuc":9041,"LOCK":9042,"Ġdiagram":9043,"emy":9044,"ĠColl":9045,"MODULE":9046,"Ġpet":9047,"Ġhappened":9048,"Ġexperiments":9049,"VALUE":9050,"Ġpp":9051,"acts":9052,"Ġran":9053,"ĠPolice":9054,"ĠFamily":9055,"Ġpolicies":9056,"Ġfunding":9057,"Dem":9058,"Ġextr":9059,"ĠDocument":9060,"scribe":9061,"ÐµÐ½":9062,"ĠCommand":9063,"blank":9064,"âĢĿ,":9065,"Ġ\\;":9066,"']['":9067,"lik":9068,";)":9069,"ĠKh":9070,"umes":9071,"ĠJoseph":9072,"Player":9073,"ĠâĢ¢":9074,"andon":9075,"Ġprotection":9076,"Vir":9077,"Ġrac":9078,"Ġ(-":9079,"checkbox":9080,"Ġfresh":9081,"ĠAbout":9082,"Conn":9083,"Ġdocumentation":9084,"ĠColumb":9085,"ĠJac":9086,"Endpoint":9087,"During":9088,"Ġ([":9089,"Ġaf":9090,"CG":9091,"Ġmiles":9092,"ni":9093,"Ġsql":9094,"Ġfinding":9095,"Ġfear":9096,"Ġbenefit":9097,"REQ":9098,"Ġmapping":9099,"ĠCollection":9100,"xhtml":9101,"Ġexpressed":9102,"()))":9103,"moz":9104,"ĠGal":9105,"rawn":9106,"Ġjobs":9107,"ĠUkraine":9108,"Ġreality":9109,"stein":9110,"Ġemission":9111,"METH":9112,"ĠHy":9113,"Ġult":9114,"<\\":9115,"Ġelectron":9116,"Ġkids":9117,"Ġzone":9118,"Lin":9119,"Ġsynt":9120,"zure":9121,"EEEEFF":9122,"Ġriver":9123,"optional":9124,"Ġtranslate":9125,"Ġexpert":9126,"urer":9127,"iser":9128,"timeout":9129,"Ġmeta":9130,"Ġtechnical":9131,"Ġnotes":9132,"ivial":9133,"ĠEmp":9134,"Ġmassive":9135,"SI":9136,"Ġleadership":9137,"Ġaccuracy":9138,"Begin":9139,"mic":9140,"ĠNY":9141,"inity":9142,"Dev":9143,"ORTED":9144,"Ġlocations":9145,"Ġgun":9146,"Ġcustomer":9147,"Ġwarm":9148,"Ġpeace":9149,"Ġmys":9150,"Ġpartition":9151,"$}":9152,";\">":9153,"Ġ];":9154,"resolve":9155,"Ġattend":9156,"Ġexecute":9157,"ifold":9158,"Ġtmp":9159,"Ġcancel":9160,"ĠSciences":9161,"estic":9162,"proxy":9163,"Ġignore":9164,"ĠBecause":9165,"Ġplugin":9166,"signature":9167,"Users":9168,"Ġsy":9169,"Ġru":9170,"amental":9171,"ĉĠĠĠĠĠ":9172,"IDTH":9173,"checked":9174,"Capt":9175,"Pair":9176,"Ġtopic":9177,"Ġnine":9178,"Ð²":9179,"ulator":9180,"Ġenvironmental":9181,"ENSE":9182,"Ġanimation":9183,"getElement":9184,"Ġintended":9185,"Ġformal":9186,"adr":9187,"DOCTYPE":9188,"socket":9189,"iral":9190,"python":9191,"Ġopportunities":9192,"hl":9193,"issue":9194,"agnostic":9195,"OM":9196,"PM":9197,"ĠTuesday":9198,"'];":9199,"ĠFind":9200,"ĠLuc":9201,"ila":9202,"Ġsucceed":9203,"ĠCEL":9204,"ione":9205,"agent":9206,"println":9207,"ĠMi":9208,"VALID":9209,"oes":9210,"Ġusage":9211,"ĠGre":9212,"route":9213,"Äģ":9214,"roduction":9215,"warning":9216,"Ign":9217,"Animation":9218,"Ġwonder":9219,"Figure":9220,"cert":9221,"Ġconfirm":9222,"ylvania":9223,"ĠValid":9224,",'":9225,"Ġinstruction":9226,"Ġarticles":9227,"isis":9228,"azy":9229,"Ġburn":9230,"Ġadj":9231,"library":9232,"Ġ''":9233,"Ġconstructed":9234,"bot":9235,"Ġassign":9236,"ĠFire":9237,"Ġchair":9238,"ĠRam":9239,"1979":9240,"Ġconducted":9241,"ĠOlympics":9242,"Ġphoto":9243,"ĠMichigan":9244,"Ġsinger":9245,"Ġboy":9246,"ERS":9247,"FE":9248,"imitive":9249,"Returns":9250,"Ġconsult":9251,"ucky":9252,"CB":9253,"Notification":9254,"ĠSE":9255,"METHOD":9256,"Install":9257,"Ġflight":9258,"Ġbeautiful":9259,"Ġaccepted":9260,"Append":9261,"Ġcontributions":9262,"Ġcounty":9263,"ez":9264,"ĠEnvironment":9265,"Ġproducer":9266,"Cloud":9267,"Ġ\"\",":9268,"Sequence":9269,"ĠassertThat":9270,"minus":9271,"Volume":9272,"Ġappre":9273,"Ġexperi":9274,"Ġmaybe":9275,"Ġinitially":9276,"Ġmeant":9277,"Fragment":9278,"ĠEnergy":9279,"Ġleaves":9280,"Ġowned":9281,"Ġstable":9282,"ĠEr":9283,"Ġimplemented":9284,"limits":9285,"assandra":9286,"Ġodd":9287,"goto":9288,"ĠBow":9289,"Po":9290,"Ġtheorem":9291,"complete":9292,"multi":9293,"Comple":9294,"Stop":9295,"Ġclinical":9296,"Environment":9297,"asi":9298,"Ġnuclear":9299,"STATE":9300,"Ġwriters":9301,"poly":9302,"Ġgalaxies":9303,"Ġdynamics":9304,"Clear":9305,"urance":9306,"Ġthreshold":9307,"Ġadvantage":9308,"pton":9309,"Ġdestination":9310,"Ġ\"$":9311,"DR":9312,"ĠSand":9313,"enger":9314,"UAL":9315,"Ġloaded":9316,"ĠNorthern":9317,"ĠIrish":9318,"Ġrepresenting":9319,"large":9320,"trace":9321,"Transport":9322,"Ġscalar":9323,"console":9324,"Ġrows":9325,"uite":9326,"Ġlett":9327,"ĠWilliams":9328,"agers":9329,"Admin":9330,"Ġbind":9331,"Ġexcell":9332,"mouse":9333,"Ġtransformation":9334,"ĠSaint":9335,"Ġadvanced":9336,"Ġtracks":9337,"about":9338,"Ġgather":9339,"Ġanimals":9340,"Ġresolve":9341,"eper":9342,"ĠChristmas":9343,"NavBarFont":9344,"onical":9345,"Ġcommission":9346,"unte":9347,"Using":9348,"multicol":9349,"orial":9350,"Ġperhaps":9351,"ĠRo":9352,"Day":9353,"Ġelim":9354,"MIN":9355,"Ġachiev":9356,"lipse":9357,"Ġpsych":9358,"ryption":9359,"ĠSearch":9360,"Limit":9361,"repe":9362,"ĠÐ¿":9363,"dc":9364,"Children":9365,"Ġchannels":9366,"Skip":9367,"Ġsomew":9368,"}}}":9369,"Äĩ":9370,"Ġtournament":9371,"mond":9372,"/_":9373,"Ġchanging":9374,"Ġbasketball":9375,"np":9376,"Ġpal":9377,"Ġissued":9378,"diff":9379,"Ġcars":9380,"Ġpil":9381,"Ġ..":9382,"Ġpoet":9383,"110":9384,"oviet":9385,"Sort":9386,"oral":9387,"edu":9388,"Ġscroll":9389,"Dictionary":9390,"cher":9391,"}}_":9392,"ĠAff":9393,"{\"":9394,"factory":9395,"Ġstreet":9396,"1981":9397,"Ġmainly":9398,"undefined":9399,"DP":9400,"ĠSports":9401,"Ġcontem":9402,"Free":9403,"ĠWild":9404,"Ġguide":9405,"brid":9406,"fc":9407,"Ġvary":9408,"abeth":9409,"Ġreset":9410,"ĠUsing":9411,"friend":9412,"ogram":9413,"mosp":9414,"ĠPacific":9415,"ĠHon":9416,"ĠBoolean":9417,"Ġdrink":9418,"Ġofficers":9419,"visible":9420,"ĠOriginal":9421,"Save":9422,"Ġbeat":9423,"Ġdanger":9424,"istence":9425,"Ġmomentum":9426,"Ġminim":9427,"Ġdedicated":9428,"ometric":9429,"åĪ":9430,"WORD":9431,"rim":9432,")|":9433,"Ġbudget":9434,"Ġpairs":9435,"multicolumn":9436,"ĉĉĉĉĉĊ":9437,"Ġapparent":9438,"Phone":9439,"Ġcoverage":9440,"Ġorient":9441,"iration":9442,"Vertex":9443,"SELECT":9444,"TT":9445,"Ġrich":9446,"Ġsleep":9447,"Ġlabels":9448,"\\}$":9449,"water":9450,"GC":9451,"ĠLab":9452,"Miss":9453,"Ġimportance":9454,"ĠMedical":9455,"etes":9456,"onto":9457,"Ġmarked":9458,"Ġdiss":9459,"Ġdiscovered":9460,"ĠðŁ":9461,"Ġseg":9462,"Ġjump":9463,"circle":9464,"ĠGuide":9465,"Ġapplicable":9466,"irds":9467,"ĠCommon":9468,"Ġcontents":9469,"ĠFROM":9470,"pler":9471,"loor":9472,"Ġ'\\":9473,"Ġaffected":9474,"ĠNon":9475,"Ids":9476,"Proto":9477,"ixels":9478,"ĠLight":9479,"Pod":9480,"Ġpolar":9481,"Ġprops":9482,"Ġsph":9483,"ĠPrem":9484,"atomic":9485,"supported":9486,"simple":9487,"Ġarbitrary":9488,"Required":9489,"atters":9490,"typename":9491,"ĠJewish":9492,"flat":9493,"Ġdoll":9494,"Ġsymmetry":9495,"Ġstatistics":9496,"uts":9497,"bat":9498,"ĠĠĠĠĠĠĠĠĠĠĠĠĠĠĠĠĠĠĠĠĠĠĠĠĠĠĠĠĠĠ":9499,"Ġuniversity":9500,"Ġ\\|":9501,"~$":9502,"vo":9503,"ĠPH":9504,"SK":9505,"ifer":9506,"ĠInvest":9507,"Ġreferred":9508,"itionally":9509,"Ġextend":9510,"ĠThursday":9511,"Ġpaths":9512,"Ġgain":9513,"Ġseat":9514,"Ġspecify":9515,"itage":9516,"Care":9517,"month":9518,"ourse":9519,"Execution":9520,"opts":9521,"Serv":9522,"Ġfraction":9523,"(\"/":9524,"ĠEND":9525,"ĠSouthern":9526,"}^{-":9527,"ĠMah":9528,"Ġshock":9529,"gypt":9530,"accept":9531,"ĠSpain":9532,"Ġdie":9533,"Wallet":9534,"ANT":9535,"Ġchemical":9536,"Ġinvestigation":9537,"Ġreligious":9538,"orrow":9539,"Ġrat":9540,"Ġcrow":9541,"æľ":9542,"Ġearth":9543,"release":9544,"sen":9545,"ANCE":9546,"_+":9547,"Ang":9548,"esome":9549,"Ġvictory":9550,"ultural":9551,"Div":9552,"asm":9553,"Program":9554,"Ġconvention":9555,"jQuery":9556,"plementation":9557,"ĠFrancisco":9558,"Ġdepending":9559,"Ġclaimed":9560,"pair":9561,"Ġinstances":9562,"Ġattacks":9563,"ĠNE":9564,"kwargs":9565,"ĠSenate":9566,"Leg":9567,"INS":9568,"ĠHospital":9569,"Ġdeveloping":9570,"Ġfrag":9571,"Ġcarbon":9572,"ĠANY":9573,"Many":9574,"ses":9575,"ĠInternet":9576,"Ġtend":9577,"ĠLear":9578,"dk":9579,"ĠRadio":9580,"objects":9581,"Ġpurposes":9582,"Ġacceler":9583,"Ġri":9584,"footnote":9585,"ysics":9586,"Ġreduction":9587,"Ġupdates":9588,"Ġtrees":9589,"awa":9590,"Scal":9591,"apis":9592,"acks":9593,"Ġstuff":9594,"Ġinstant":9595,"Ġordered":9596,"download":9597,"Ġtrace":9598,"ĠResponse":9599,"Methods":9600,"sylvania":9601,"ĠMen":9602,"Ġfacilities":9603,"oton":9604,"1976":9605,"Ġmechanism":9606,"Ġprev":9607,"Screen":9608,"Ġedges":9609,"Previous":9610,"ELD":9611,"Ġmeasurements":9612,"ĠEnt":9613,"ĠMid":9614,"Ġfunds":9615,"ĠBul":9616,"Db":9617,"ĠJes":9618,"ĠFederal":9619,"125":9620,"twitter":9621,"Ġinterpret":9622,"ushed":9623,"ĠSir":9624,"chen":9625,"sidebar":9626,"ĠNext":9627,"Notes":9628,"Ġrequested":9629,"SCR":9630,"ingly":9631,"1978":9632,"ifndef":9633,"ĠAdv":9634,"eld":9635,"Ġcandidates":9636,"sync":9637,"USER":9638,"Ġdialog":9639,"ĠallClasses":9640,"Ġcouldn":9641,"Eq":9642,"ĠNight":9643,"Ġdepart":9644,"adel":9645,"ĠallClassesLink":9646,"Cons":9647,"ĠPlease":9648,"Ġaddresses":9649,"illy":9650,"Ġsections":9651,"ĠWall":9652,"Ġadvance":9653,"sb":9654,"Ġsale":9655,"Ġcorner":9656,"Ġadmin":9657,"Ġcursor":9658,"ĠVan":9659,"/.":9660,"istical":9661,"ĠOptional":9662,"ĠNAV":9663,"ĠWrite":9664,"Ġregional":9665,"validate":9666,"Move":9667,"hard":9668,"ĠKen":9669,"_);":9670,"Ġwish":9671,"produ":9672,"General":9673,"ĠJon":9674,"Ġderiv":9675,"pag":9676,"Ġthinking":9677,"Ġimproved":9678,"Ġtypical":9679,"Ġunderlying":9680,"views":9681,"Ġbrain":9682,"Ġmultip":9683,"Mouse":9684,"ĠPR":9685,"Îµ":9686,"Sql":9687,"Writ":9688,"aya":9689,"Ġfootballers":9690,"Ġparallel":9691,"oked":9692,"Ġ'''":9693,"tar":9694,"icator":9695,"ran":9696,"Ġspeech":9697,"Ġkill":9698,"slice":9699,"Ġeye":9700,"Why":9701,"Coll":9702,"ĠAsian":9703,"Ġclients":9704,"Ġbed":9705,"ĠGeorgia":9706,"sid":9707,"ä»":9708,"Ġmotor":9709,"NC":9710,"ogy":9711,"setup":9712,"ipping":9713,"Flow":9714,"Ġexerc":9715,"ĠWednesday":9716,"getValue":9717,"Ġcapture":9718,"1977":9719,"Ġreceiving":9720,"Ġmd":9721,"Ġapproaches":9722,"Ġfreedom":9723,"onal":9724,"Ġsouthern":9725,"vin":9726,"ĠSIZE":9727,"ictures":9728,"ĠRights":9729,"Ġends":9730,"catch":9731,"ĠAndrew":9732,"Ġfan":9733,"Î½":9734,"Constructor":9735,"ĠSea":9736,"Under":9737,"exit":9738,"Ġbiggest":9739,"Ġhelps":9740,"Connect":9741,"ĠNavy":9742,"Ġsuggested":9743,"Ġprepar":9744,"Ġassumed":9745,"DATA":9746,"ĠFOR":9747,"ĠRepublican":9748,"cha":9749,"Ġnewsp":9750,"mag":9751,"IOException":9752,"Ġanc":9753,"'\\":9754,"erence":9755,"UST":9756,"Î¹":9757,"Ġdriving":9758,"à¥":9759,"thrift":9760,"GER":9761,"Ġabsor":9762,"Ġorders":9763,"ĠWho":9764,"destroy":9765,"Ġlearned":9766,"Ġig":9767,"PUT":9768,"ĠMike":9769,"ĠMot":9770,"Ġportr":9771,"picture":9772,"Ġsecondary":9773,"ented":9774,"Ġturns":9775,"ĠSong":9776,"periment":9777,"ĠHas":9778,"batch":9779,"BI":9780,"1975":9781,"osa":9782,"Ġrough":9783,"Ġdefense":9784,"Ġrecip":9785,"amin":9786,"mathscr":9787,"ĠPerson":9788,"ĠDemocratic":9789,"ĠAdministr":9790,"ĠIslam":9791,"Ġlies":9792,"sn":9793,"flex":9794,"ĠLim":9795,"Ġ@\"":9796,"Ġemit":9797,"Ġretain":9798,"changed":9799,"1972":9800,"Ġwaiting":9801,"Ġ$|":9802,"once":9803,"ĠClient":9804,"uv":9805,"Ġbatch":9806,"rad":9807,"athan":9808,"Ġcomputed":9809,"ĠCivil":9810,"Lower":9811,"gov":9812,"clone":9813,"Ġbuf":9814,"arguments":9815,"Ġplants":9816,"Warning":9817,"Ġvalidate":9818,"Ġlimits":9819,"trl":9820,"MODE":9821,"Ġweather":9822,"Ġachieved":9823,"aturing":9824,"ancell":9825,"ea":9826,"Ġalert":9827,"selector":9828,"puter":9829,"Ġwarning":9830,"Env":9831,"ĠChris":9832,"ĠConf":9833,"Ġselector":9834,"yy":9835,"ĠJustice":9836,"Ġseed":9837,"Jan":9838,"ĠParliament":9839,"%\"":9840,"ĠGreek":9841,"Ġpassing":9842,"inherit":9843,"Ġseasons":9844,"Ġshell":9845,"Ġschema":9846,"merge":9847,"Ġopts":9848,"Ġsport":9849,"Real":9850,"compile":9851,"Ġaggreg":9852,"Ġtranslation":9853,"ĠDaniel":9854,"RT":9855,"ĠDigital":9856,"Ġassembly":9857,"Ġvehicles":9858,"Ġexplained":9859,"Ġsaved":9860,"expand":9861,"UND":9862,"Ġbright":9863,"Ġindepend":9864,"ĠEst":9865,"ĠJeff":9866,"Ġcollected":9867,"trm":9868,"transaction":9869,"Ġpatterns":9870,"ĠJackson":9871,"lan":9872,"NV":9873,"aph":9874,"SV":9875,"ĠHor":9876,"000000":9877,"ÑģÑĤ":9878,"Ġexecutive":9879,"180":9880,"idae":9881,"isEmpty":9882,"elem":9883,"activity":9884,"Ġdecom":9885,"Ġneighborhood":9886,"Ġtags":9887,"ĠLike":9888,"ycle":9889,"Ġhappens":9890,"ĠBoston":9891,"Allow":9892,"Ġyouth":9893,"Ġmedal":9894,"Ġsb":9895,"Ġcoupling":9896,"Focus":9897,"istribut":9898,"1974":9899,"una":9900,"Ġsister":9901,"encing":9902,"Ġroles":9903,"Ġfre":9904,"illis":9905,"COMP":9906,"Ġdimensions":9907,"Ġfiction":9908,"Ġinteractions":9909,"ORY":9910,"Sur":9911,"ĠQueen":9912,"udes":9913,"enth":9914,"seq":9915,"ĠSaf":9916,"Ġexplan":9917,"dagger":9918,"ĠON":9919,"bd":9920,"Ġemph":9921,"ympt":9922,"ĠTerm":9923,"Further":9924,"rece":9925,"Hub":9926,"Ġuncertain":9927,"Ġnorthern":9928,"Ġsolar":9929,"Ġgap":9930,"bean":9931,"ĠStudies":9932,"Ġsan":9933,"ĠSpring":9934,"shal":9935,"prise":9936,"InputStream":9937,"Operator":9938,"alg":9939,"memory":9940,"Ġ($\\":9941,"Early":9942,"Ġdegrees":9943,"VE":9944,"ArgumentException":9945,"evin":9946,"Ġrecording":9947,"ĠOhio":9948,"Ã±":9949,"Ġgone":9950,"Objects":9951,"Ġsubstant":9952,"Ġinjury":9953,"Ġcorrelation":9954,"expect":9955,"Forms":9956,"#{":9957,"Ġtreated":9958,"chester":9959,"Ġideal":9960,"orney":9961,"Äį":9962,"textrm":9963,"ASE":9964,"GR":9965,"ĠMock":9966,"Own":9967,"aught":9968,"scss":9969,"mc":9970,"overview":9971,"ĠWalk":9972,"folio":9973,"Native":9974,"ĠMajor":9975,"CHAR":9976,"Ġmedium":9977,"ĠKim":9978,"NSString":9979,"Ġbegins":9980,"Ġcolon":9981,"ĠCarl":9982,"ĠStatus":9983,"Watch":9984,"/\"":9985,"GA":9986,"IAL":9987,"constructor":9988,"ipher":9989,"Ġpermit":9990,"CLASS":9991,"some":9992,"Ġfellow":9993,"Ġrepeated":9994,"English":9995,"Ġeigen":9996,"Theta":9997,"ĠCloud":9998,"bc":9999,"texttt":10000,"Ġsemi":10001,"arse":10002,"kt":10003,"Ġnarr":10004,"Ġcitizens":10005,"oment":10006,"Ġpolynomial":10007,"PD":10008,"zip":10009,"inois":10010,"1973":10011,"created":10012,"Ġcoordinates":10013,"Ġstandards":10014,"volume":10015,"ĠWhy":10016,"Ġhers":10017,"blog":10018,"Ġsecure":10019,"Ġbounds":10020,"Basic":10021,"1968":10022,"Ġserving":10023,"Ġfragment":10024,"ÙĨ":10025,"Ð¼":10026,"Ġfmt":10027,"Ġexplain":10028,"Pers":10029,"Wait":10030,"ĠWIT":10031,"Ġfunctional":10032,"Ġemb":10033,"Ġnewly":10034,"ĠFar":10035,"ĠMaster":10036,"ennis":10037,"Ġfee":10038,"Ġsync":10039,"Serializer":10040,"ĠWales":10041,"Ġfavorite":10042,"ĠHarr":10043,"ĠNAVBAR":10044,"Ġacademic":10045,"driver":10046,")[":10047,"'}":10048,">\\":10049,"ĠEV":10050,"creens":10051,"Binding":10052,"Ġstrongly":10053,"verter":10054,"ĠPennsylvania":10055,"geo":10056,"Ġbin":10057,"Ġtransactions":10058,"extend":10059,"Ġpartnership":10060,"Ġconven":10061,"Ġfashion":10062,"facebook":10063,"ĠBern":10064,"Ġactress":10065,"ĠJersey":10066,"eli":10067,"separ":10068,"policy":10069,"Ġax":10070,"Ġattended":10071,"Fn":10072,"Ġexpanded":10073,"Ġmagazine":10074,"Ali":10075,"Ġcorresponds":10076,"radio":10077,"Syntax":10078,"tf":10079,"atever":10080,"Ġintegral":10081,"ĠLive":10082,"abric":10083,"âĢ¢":10084,">)":10085,"ĠALIGN":10086,"emit":10087,"burgh":10088,"Ġlisting":10089,"Ty":10090,"Ġdecades":10091,"feed":10092,"Ġfacility":10093,"pend":10094,"fall":10095,"hol":10096,"plan":10097,"havior":10098,"Ġtrip":10099,"Ġrain":10100,"Ġ'';":10101,"%.":10102,"comes":10103,"irus":10104,"Ġlanguages":10105,"ĠRay":10106,"Ġbridge":10107,"Ġthank":10108,"Span":10109,"empt":10110,"abil":10111,"ĠWat":10112,"agnostics":10113,"database":10114,"Stud":10115,"Ġ\\\"":10116,"ĠInf":10117,"Ġtells":10118,"Platform":10119,"Ġclock":10120,"Please":10121,"ĠChange":10122,"messages":10123,"Ġmeasurement":10124,"Ġassociation":10125,"Ġdelivery":10126,"Ġdecay":10127,"Mapper":10128,"Ġpolitician":10129,"Ġthick":10130,"iveness":10131,"ĠTaylor":10132,"zabeth":10133,"SSL":10134,"ĠSpe":10135,"MR":10136,"Ġaw":10137,"Ġinstrument":10138,"icode":10139,"ĠBritain":10140,"Hz":10141,"Ġpermission":10142,"Ġelections":10143,"Ġprices":10144,"ĠBas":10145,"NUM":10146,"Unknown":10147,"blem":10148,"213":10149,"available":10150,"Ġspatial":10151,"ATED":10152,":[":10153,"ĠAmericans":10154,"equality":10155,"notes":10156,"orient":10157,"ĠEth":10158,"ĠJr":10159,"ĠWin":10160,"/*!":10161,"Ġnumerical":10162,"Ġtwice":10163,"ĠBad":10164,"cles":10165,"Ġinfe":10166,"Ġchampionship":10167,"sto":10168,"reatest":10169,"icients":10170,"strings":10171,"irror":10172,"native":10173,"Ġdrag":10174,"Ġ}\\":10175,"react":10176,"hab":10177,"Ġyourself":10178,":@\"":10179,"ĠCro":10180,"Validator":10181,"ĠSelect":10182,"pping":10183,"!\"":10184,"gon":10185,"Ġreferences":10186,"ĠAT":10187,"Ġbits":10188,"Ġsys":10189,"hu":10190,"Ġcold":10191,"ĠCoast":10192,"Ġcm":10193,"sig":10194,"^-":10195,"Ġpayment":10196,"constant":10197,"Fore":10198,"Ġpriv":10199,"Ġconstraint":10200,"Ġarmy":10201,"Ġcauses":10202,"inator":10203,"night":10204,"Ġbelieved":10205,"ĠPay":10206,"cli":10207,"aked":10208,"Eval":10209,"Ġjourney":10210,"variable":10211,"icer":10212,"Ġpractices":10213,"Ġfuel":10214,"ressed":10215,"Ġvalidation":10216,"Ġcomfort":10217,"Ġconsumer":10218,"itivity":10219,"AST":10220,"STRING":10221,"okes":10222,"Ġsupporting":10223,"Ġcertainly":10224,"ANG":10225,"Ġ\"\";":10226,"amber":10227,"Ġviolence":10228,"Ġcer":10229,"Ġcrisis":10230,"Ġsynchron":10231,"Gui":10232,"?\"":10233,"ĠSets":10234,"duration":10235,"\\}":10236,"^^":10237,"ĠStan":10238,"sky":10239,"highlight":10240,"Ġestimates":10241,"Ġpieces":10242,"submit":10243,"Ġmarketing":10244,"Ġpromise":10245,"ĠEngineering":10246,"Ġaren":10247,"Ġsam":10248,"()),":10249,"orough":10250,"Ġscr":10251,"Ġcriminal":10252,"alert":10253,"ĉĠĠĠĠĠĠĠ":10254,"nic":10255,"enant":10256,"Ġspring":10257,"Ġescape":10258,"Ġclassification":10259,"ĠKong":10260,"Ġdiam":10261,"Ġsimulation":10262,"Ġusual":10263,"apsed":10264,"Constant":10265,"Ġaccomp":10266,"ĠMoreover":10267,"Ġreviews":10268,"/{":10269,"Ġphotograph":10270,"Batch":10271,"Ġoffering":10272,"=\\\"":10273,"*{":10274,"ĠPakistan":10275,"ĠVari":10276,"Ġsexual":10277,"Ġefficiency":10278,"deprecated":10279,"Ð°Ð½":10280,"coh":10281,"Ð´":10282,"ĠApplication":10283,"Ġlat":10284,"Ġtail":10285,"Release":10286,"Ġhousing":10287,"animation":10288,"ĠMS":10289,"cknowled":10290,"Ġ$\\{":10291,"Ġmodes":10292,"ĠDEFAULT":10293,"Ġexperiences":10294,",\\,":10295,"Ġevaluation":10296,"ĠDB":10297,"Ġbounded":10298,"Alloc":10299,"ĠCurrent":10300,"origin":10301,"Ġextremely":10302,"Ġbench":10303,"tp":10304,"basic":10305,"wd":10306,"Ġamplit":10307,"Ġdrama":10308,"imb":10309,"Condition":10310,"oster":10311,"ĠDar":10312,"Ġprotein":10313,"craft":10314,"Ġdetected":10315,"Ġsand":10316,"Ġsimulations":10317,"ifts":10318,"Ġbroken":10319,"Ġinvariant":10320,"ĠFood":10321,"Fact":10322,"Ġplanet":10323,"Ġpossibly":10324,"ĠProfessor":10325,"Ġintegration":10326,"Ġproport":10327,"Ġven":10328,"ogene":10329,"CONT":10330,"ĠMic":10331,"Ġsides":10332,"vol":10333,"Ġancient":10334,"Ġscientific":10335,"ĠKent":10336,"Ġcrime":10337,"ĠCur":10338,"isa":10339,"DIS":10340,"æĸ":10341,"ĠAli":10342,"ĠBattle":10343,"Ġgeneric":10344,"1971":10345,"Ġapproximation":10346,"ĠOS":10347,"Driver":10348,"TestCase":10349,"actic":10350,"Ġexceed":10351,"ewidth":10352,"Ġintroduce":10353,"ĠIllegal":10354,"rog":10355,"sex":10356,"Copyright":10357,"Private":10358,"127":10359,"ugby":10360,"ĠSat":10361,"constr":10362,"Ġpolitics":10363,"1969":10364,"lat":10365,"Ġmerge":10366,"ĠCirc":10367,"Just":10368,"rons":10369,"getElementById":10370,"ulner":10371,"Ġexpos":10372,"rices":10373,"forEach":10374,"Ġwire":10375,"Word":10376,"Ġhole":10377,"=\"$":10378,"Ġsqu":10379,"LSP":10380,"ĠBang":10381,"ĠEgypt":10382,"idential":10383,"Validation":10384,"Cur":10385,"Ġseeing":10386,"Plan":10387,"LED":10388,"ilevel":10389,"LOW":10390,"Throw":10391,"Ġsending":10392,"Ġcouncil":10393,"Tube":10394,"Ñĩ":10395,"Should":10396,"NET":10397,"Ġ_,":10398,"Ġconcerns":10399,"ĠStandard":10400,"ti":10401,"\"].":10402,"Ġreturning":10403,"ĠLittle":10404,"calendar":10405,"Card":10406,"ĠSecretary":10407,"ĠKorea":10408,"bx":10409,"isset":10410,"shop":10411,"ĠRh":10412,"Ġglass":10413,"ĠCore":10414,"Nullable":10415,"Detail":10416,"Ġtalking":10417,"Addr":10418,"nesota":10419,"Ġsizes":10420,"_{(":10421,"ĠPolit":10422,"Where":10423,"ĠFair":10424,"ORDER":10425,"pot":10426,"glyphicon":10427,"Ġdescribes":10428,"Ġpitch":10429,"Ġtsd":10430,"1940":10431,"Ġinfrastructure":10432,"QU":10433,"oir":10434,"çĶ":10435,"ĠPrime":10436,"Ġmand":10437,"Navigation":10438,"Ġfant":10439,"Ġconsidering":10440,"osed":10441,"Ġangular":10442,"Ġemotion":10443,"aligned":10444,"Ġcircum":10445,"disable":10446,"^{-\\":10447,"Ġconn":10448,"Ġruntime":10449,"Ġthanks":10450,"Ġmyst":10451,"atern":10452,"ĠDub":10453,"quote":10454,"such":10455,"Ġsuggests":10456,"ĠGar":10457,".\"\"\"":10458,"Ġarrived":10459,"Ġtrav":10460,"Ġdependencies":10461,"Ġlattice":10462,"CM":10463,"cfg":10464,"']);":10465,"ĠOx":10466,"ĠBroad":10467,"merce":10468,"ĠContent":10469,"bute":10470,"Ġdeploy":10471,"Ġhair":10472,"Ġwx":10473,"Ġmanner":10474,"ĠAbstract":10475,"ows":10476,"ugs":10477,"PROJECT":10478,"ĠLy":10479,"Ġproved":10480,"ĠMedicine":10481,"Ġvent":10482,"Ġfinds":10483,"igate":10484,"Ġidentifier":10485,"Ġpriority":10486,"uma":10487,"Ġfilled":10488,"oval":10489,"rie":10490,"Normal":10491,"have":10492,"Ġdeclared":10493,"Ġvision":10494,"ARN":10495,"Ġatmosp":10496,"closed":10497,"icted":10498,"Weight":10499,"pres":10500,"Ġsingular":10501,"Ġ}}":10502,"ĠMember":10503,"Â°":10504,"ĠRa":10505,"ĠÅ":10506,"Ġmanage":10507,"iÃ³n":10508,"spacing":10509,"ĠEmpire":10510,"ĠLoad":10511,"law":10512,"Ġelif":10513,"urations":10514,"ĠSche":10515,"ÙĦ":10516,"Ð¾Ð²":10517,"bury":10518,"Ġincident":10519,"ĠKr":10520,"Ġwidely":10521,"ĠIR":10522,"Ġstatements":10523,"ĠTy":10524,"ĠTrust":10525,"arters":10526,"Ġmist":10527,"ĠAD":10528,"Ġacts":10529,"Ġplanned":10530,"Ġfigures":10531,"Ġ|\\":10532,"Ġ\"%":10533,"yo":10534,"Ġmodify":10535,"Ġcharged":10536,"Ġprimarily":10537,"ï¼Į":10538,"Rate":10539,"Ġmental":10540,"ĠThree":10541,"Ġholding":10542,"Ġera":10543,"Ġnearby":10544,"Ġherself":10545,"bullet":10546,"Ġanimal":10547,"oplus":10548,"uset":10549,"Ġmigr":10550,"onomy":10551,"ĠPers":10552,"ĠRemove":10553,"Once":10554,"DEF":10555,"ĠRen":10556,"Ġcalculate":10557,"å®":10558,"Ġschedule":10559,"PHP":10560,"Edge":10561,"cases":10562,"Ġactors":10563,"Place":10564,"ĠBrook":10565,"Nov":10566,"001":10567,"NotFound":10568,"ĠEdward":10569,"Ġing":10570,"Ġsud":10571,",$":10572,"erg":10573,"ritical":10574,"rovers":10575,"DOM":10576,"Ġkernel":10577,"Ġspecifically":10578,"ĠTheatre":10579,"Ġdesired":10580,"dig":10581,"Ġpromin":10582,"fmt":10583,"=\"../../../../../../../":10584,"OF":10585,"ĠSoviet":10586,"ĠSem":10587,"kes":10588,"Ġmarriage":10589,"lywood":10590,"Ġwinner":10591,"onymous":10592,"Ġpurchase":10593,"Ġprepared":10594,"integer":10595,"Ġlayers":10596,"Ġinstitutions":10597,"(--":10598,"Cursor":10599,"Ġacting":10600,"Ġadopted":10601,"warn":10602,"commons":10603,"ĠHard":10604,"_{{\\":10605,"ĠĠĠĠĠĠĠĠĠĠĠĠĠĠĠĠĠĠĠĠĠĠĠĠĠĠĠĠĠĠĠĠĠ":10606,"Ġprime":10607,"ĠLie":10608,"fetch":10609,"Annotation":10610,"Ġprepare":10611,"elly":10612,"LY":10613,"ickets":10614,"Ġreaction":10615,"ĠEastern":10616,"ubble":10617,"eral":10618,"ktop":10619,"anna":10620,"zo":10621,"Ġele":10622,"ssl":10623,"Ġ&=&":10624,"!âĢĿ":10625,"Ġconflict":10626,"Raw":10627,"Ġskip":10628,"1967":10629,"Ġcas":10630,"contents":10631,"Ġlinked":10632,"unately":10633,"Ġexplore":10634,"ĠEU":10635,"ĠBal":10636,"trim":10637,"ĠTw":10638,"Loop":10639,"ĠLatin":10640,"Ġspectral":10641,"ailability":10642,"LOC":10643,"ĠHence":10644,"Ġmarkets":10645,"(.":10646,"tenance":10647,"collect":10648,"ĠDC":10649,"Ġdistingu":10650,"tan":10651,"Compiler":10652,"Ġcontrolled":10653,"ando":10654,"Ġevaluate":10655,"ĠStream":10656,"1930":10657,"ĠWrit":10658,"ĠFull":10659,"Ġcircle":10660,"agonal":10661,"Ġcrew":10662,"Ġthousands":10663,"iant":10664,"Ġteacher":10665,"aga":10666,"Tok":10667,"oretical":10668,"Future":10669,"ĠSi":10670,"nob":10671,"National":10672,"ding":10673,"Ġnice":10674,"Light":10675,"Strategy":10676,"ĠIT":10677,"Ġphenomen":10678,"\"},":10679,"news":10680,"Ġmo":10681,"Ġaccounts":10682,"Ġdiagn":10683,"uls":10684,"Folder":10685,"Ġliqu":10686,"Ġfort":10687,"tri":10688,"avid":10689,"Contact":10690,"ONG":10691,"ori":10692,"Ġadvoc":10693,"Ġtechnique":10694,"Ġpermissions":10695,"logo":10696,"chart":10697,"700":10698,"ĠArea":10699,"Ġrom":10700,"Ġwitness":10701,"Ġnarrow":10702,"ĠBol":10703,"Segment":10704,"Ġconcert":10705,"Ġoptimal":10706,"irement":10707,"ĠJob":10708,"Ġprofessor":10709,"mapping":10710,"ĠIllinois":10711,"Ġcaref":10712,"Consumer":10713,"aren":10714,"\"/></":10715,"icing":10716,"Download":10717,"Ġtested":10718,"Ġmouse":10719,"Ġannounce":10720,"tic":10721,"Ġce":10722,"Remote":10723,"Binary":10724,"Ġapilevel":10725,"ibli":10726,"Resolver":10727,"/\">":10728,"iliar":10729,"Ġ\".":10730,"teen":10731,"gb":10732,"Ġsatisfies":10733,"Html":10734,"Ġcert":10735,"aped":10736,"Ġamb":10737,"Dependency":10738,"vertical":10739,"Ġalgorithms":10740,"Ġgirls":10741,"Ġprincipal":10742,"Ġcategories":10743,"ationToken":10744,"ĠGovernor":10745,"AAAA":10746,"OPT":10747,"indu":10748,"bose":10749,"Ġadm":10750,"Usage":10751,"Ġvertices":10752,"ĠChannel":10753,"pload":10754,"Ġsubstantial":10755,"onia":10756,"ĠPrince":10757,"Effect":10758,"ĠBa":10759,"Ġliber":10760,"wedge":10761,"YY":10762,"Ġhypot":10763,"Ġtargets":10764,"Ġproperly":10765,"Ġacquired":10766,"Processor":10767,"ĠBeach":10768,"Ġfaith":10769,"directory":10770,"Ġbinding":10771,"Ġretail":10772,"pkg":10773,"Ġengineering":10774,"Ġloading":10775,"ĠProt":10776,"ĠLo":10777,"assign":10778,"Ġguard":10779,"ellij":10780,"Ġeasier":10781,"UMM":10782,"ARD":10783,"åĲ":10784,"ierarchy":10785,"Ġspend":10786,"1920":10787,"Ġrotation":10788,"Insert":10789,"agr":10790,"Ġaccurate":10791,"BY":10792,"Ġbundle":10793,"Ġagency":10794,"Ġfundamental":10795,"Ġskin":10796,"ĠAnother":10797,"perm":10798,"Ġlists":10799,"Border":10800,"Ġast":10801,"ĠCG":10802,"Ġwestern":10803,"ĠCov":10804,"Ġ{},":10805,"ĠServer":10806,"getId":10807,"ĠUnit":10808,"ĠWis":10809,"Ġfeeling":10810,"Ġelev":10811,"){\\":10812,"inciple":10813,"you":10814,"ĠRegion":10815,"redu":10816,"Ġnavbar":10817,"ĠScotland":10818,"intellij":10819,"will":10820,"ĠÂ»":10821,"Bottom":10822,"Setting":10823,"lets":10824,"Ġplatforms":10825,"ĠRom":10826,"ĠDescription":10827,"Ġdual":10828,"ĠToday":10829,"Ġiget":10830,"Ġwinter":10831,"ĠPen":10832,"Ġrecognized":10833,"Ġstats":10834,"Complete":10835,"Ġcommitted":10836,"ĠOnce":10837,"ĠVideo":10838,"1945":10839,"expression":10840,"HERE":10841,">\"":10842,"ĠSom":10843,"methods":10844,"Ġminimal":10845,"ĠChampionships":10846,"Ġgeometry":10847,"ĠApache":10848,"alytics":10849,"ĠCase":10850,"United":10851,"Ġmuseum":10852,"strip":10853,"contain":10854,"Ġentirely":10855,"Bi":10856,"Audio":10857,"Ġknows":10858,"Ġinspired":10859,"Ġremark":10860,"eveloper":10861,"Ġouter":10862,"Ġsubsequent":10863,"Ġmal":10864,"ĠMuslim":10865,"ĠHistoric":10866,"rypted":10867,"Ġà¤":10868,">;":10869,"jack":10870,"Ġestablishments":10871,"usal":10872,"Ġjs":10873,"semble":10874,"Ġinvent":10875,"]))":10876,"COMM":10877,"Ġmel":10878,"series":10879,"initely":10880,"tableblock":10881,"ĠObserv":10882,"program":10883,"1964":10884,"ĠMu":10885,"åħ":10886,"ibraries":10887,"Failure":10888,"aret":10889,"Ġcharges":10890,"Ġindustrial":10891,"iated":10892,"Ġion":10893,"Ġdance":10894,"ĠRecord":10895,"ĠWilson":10896,"Ġvocals":10897,"Ġcontrols":10898,"ĠCorporation":10899,"Ġcomposed":10900,"AI":10901,"unnel":10902,"toBe":10903,"audio":10904,"Ġperturb":10905,"ivated":10906,"aneous":10907,"cue":10908,"bas":10909,"uling":10910,"Åį":10911,"Ġindeed":10912,"ĠLabor":10913,"ĠRepresent":10914,"Ġprogramming":10915,"Ġfaster":10916,"Ġalongside":10917,"compare":10918,"Ġcensus":10919,")\\,":10920,"Messages":10921,"aded":10922,"Groups":10923,"ĠLjava":10924,"ĠPhilipp":10925,"Ġconversion":10926,"Ġassumption":10927,"ĠPython":10928,"rupted":10929,"Ġauthority":10930,"Ïĥ":10931,"Information":10932,"-(":10933,"Bounds":10934,"ĠXML":10935,"tensor":10936,"Ġ'.":10937,"king":10938,"Ġapproved":10939,"Ġlargely":10940,"Ġcart":10941,"SCRIPT":10942,"Cmd":10943,"Ġaccident":10944,"Center":10945,"Ġdivided":10946,"ĠNiger":10947,"Ïģ":10948,"ĠAsh":10949,"Ġexcellent":10950,"newcommand":10951,"Ġgender":10952,"ket":10953,"VD":10954,"CALL":10955,"Ġadvent":10956,"Ġfake":10957,"Ùħ":10958,"esian":10959,"ĠConnect":10960,"ayer":10961,"REE":10962,"ĠSus":10963,"TF":10964,"pson":10965,"Sch":10966,"ĠĠĠĠĠĠĠĠĠĠĠĠĠĠĠĠĠĠĠĠĠĠĠĠĠĠĠĠĠĠĠĠĠĠĠĠĠĠĠĠĠĠĠĠĠĠĠ":10967,"Ġcreates":10968,"assertTrue":10969,"subseteq":10970,"aki":10971,".~(\\":10972,"Ġfell":10973,"Ġassets":10974,"pb":10975,"Ġregime":10976,"Ġperforming":10977,"Ġhouses":10978,"Ġparticipants":10979,"VICE":10980,"setminus":10981,"notations":10982,"Ġsettlement":10983,"Timer":10984,"West":10985,"NR":10986,"Ġcurves":10987,"Ġinputs":10988,"_*":10989,"ĠLook":10990,"ĠNa":10991,"Ġcopies":10992,"Ġinject":10993,"Ġ$[":10994,"Ġportion":10995,"phrase":10996,"RED":10997,"Ø¯":10998,"design":10999,"Ġendpoint":11000,"ĠShort":11001,"Zone":11002,"Ġcommonly":11003,"irt":11004,"Ġteaching":11005,"Ġopinion":11006,"FUN":11007,"VAR":11008,"Static":11009,"libs":11010,"Ġrecommended":11011,"Ġvideos":11012,"lower":11013,"wing":11014,"Overview":11015,"Ġrecon":11016,"brand":11017,"Ġmach":11018,"Ġconverted":11019,"ego":11020,"jet":11021,"Ġperman":11022,"ĠBiden":11023,"Ġposted":11024,"Abs":11025,"Ġoptical":11026,"ĠSH":11027,"Ġaspects":11028,"Ġunderst":11029,"bell":11030,"ĠPortug":11031,"uffers":11032,"ĠSupreme":11033,"Theme":11034,"ATOR":11035,"Ġtrained":11036,"ĠOfficial":11037,"linewidth":11038,"Ġpayload":11039,"Family":11040,"Ġ'%":11041,"ATCH":11042,"Ġcompletion":11043,"achuset":11044,"achusetts":11045,"Library":11046,"Ġalter":11047,"Ġfails":11048,"phia":11049,"extra":11050,"resize":11051,"Ġstyles":11052,"specific":11053,"Ġsurg":11054,"Ġhonor":11055,"etween":11056,"Ġgrew":11057,"GroupName":11058,"apore":11059,"ĠFinally":11060,"Ġcommittee":11061,"Ġrelationships":11062,"Prev":11063,"ĠHong":11064,"vals":11065,"ATTR":11066,"unny":11067,"opic":11068,"Ġauthorities":11069,"Ġcompliance":11070,"ĠMinistry":11071,"Ġurban":11072,"urable":11073,"Ġawards":11074,"ifferent":11075,"Ġsocket":11076,"ilib":11077,"alty":11078,"AUT":11079,"anth":11080,"LIST":11081,"Ġweekend":11082,"generate":11083,"Ant":11084,"ĠFuture":11085,"TY":11086,"<<":11087,"bus":11088,"1965":11089,"encode":11090,"Ġhelping":11091,"Ġdecisions":11092,"retch":11093,"Master":11094,"Ġearned":11095,"'_":11096,"iti":11097,"Ġsurrounding":11098,"Ġbass":11099,"ĠStruct":11100,"onav":11101,"ĠGuard":11102,"Ġsharing":11103,"Ġopacity":11104,"pointer":11105,"ĠCR":11106,"Ġmail":11107,"Ġupload":11108,"Ġnucle":11109,"relation":11110,"ĠPut":11111,"_{-":11112,"NODE":11113,"Present":11114,"bp":11115,"ĉčĊ":11116,"apol":11117,"ervative":11118,"Ġkid":11119,"ĠProvince":11120,"paper":11121,"adelphia":11122,"mazing":11123,"Amount":11124,"Pred":11125,"ĠAI":11126,"BPACK":11127,"elastic":11128,"Ġexplicitly":11129,"ĠÂ©":11130,"Ġgar":11131,"license":11132,"inating":11133,"inson":11134,"ĠMO":11135,"Ġheav":11136,"ordan":11137,"agen":11138,"Observer":11139,"ĠElizabeth":11140,"ĠColumbia":11141,"canvas":11142,"ĠStation":11143,"Signature":11144,"inx":11145,"Ġlie":11146,"tw":11147,"Ġrout":11148,"mk":11149,"ologist":11150,"Ġclassic":11151,"subject":11152,"ĠRog":11153,"Ġcompatible":11154,"ĠAdam":11155,"Ġcommands":11156,"Ġdropped":11157,"Ġwww":11158,"ĠOutput":11159,"ĠChair":11160,"ĠĠĠĠčĊ":11161,"Ġ$$":11162,"ACH":11163,"also":11164,"Ġchecked":11165,"ĠLanguage":11166,"Ġpossibility":11167,"Ġmyself":11168,"pur":11169,"=[":11170,"cret":11171,"1966":11172,"Ġdisplayed":11173,"ĠPA":11174,"touch":11175,"spe":11176,"ĠHom":11177,"Ġtechnologies":11178,"Ġcoefficients":11179,"áĥ":11180,"ais":11181,"Ġstopped":11182,"ampions":11183,"Ġkick":11184,"HEAD":11185,"Ġtempor":11186,"Ġgranted":11187,"Ġwhereas":11188,"ArrayList":11189,"ĠAirport":11190,"plicated":11191,"Ġconfidence":11192,"clusions":11193,"WIN":11194,"ulating":11195,"yard":11196,"ĠSimple":11197,"Optional":11198,"wik":11199,"jd":11200,"ĠBooks":11201,"ĠVill":11202,"Ġdiscover":11203,"elements":11204,"UC":11205,"ĠAssoci":11206,"Ġinvolving":11207,"Ben":11208,"Ġkeeping":11209,"Ġrailway":11210,"navigation":11211,"Ġelectronic":11212,"ennes":11213,"Ġepisodes":11214,"Ġexperienced":11215,"INST":11216,"Ġtroub":11217,"eting":11218,"ving":11219,"Ġshares":11220,"ĠVirtual":11221,"ĠWatch":11222,"inds":11223,"Chain":11224,"Ġmetrics":11225,"eled":11226,"Ġdefend":11227,"Ġfeaturing":11228,"fff":11229,"BL":11230,"Ġcoal":11231,"Ġinn":11232,"ĠTurn":11233,"Est":11234,"()</":11235,"Ġsquad":11236,"anchor":11237,"gradient":11238,"ĠWIDTH":11239,"ĠMinnesota":11240,")}(":11241,"Did":11242,"Ġguess":11243,"ĠQuery":11244,";|":11245,"Ġ>>>":11246,"Ġinequality":11247,"cussion":11248,"ĠNC":11249,"ĠSteve":11250,"sheet":11251,"Ġcreative":11252,"Ġmodules":11253,"letter":11254,"zed":11255,"prec":11256,"ĠRod":11257,"HL":11258,"ĠWARRAN":11259,"Power":11260,"Ġcolspan":11261,"stances":11262,"6666":11263,"lint":11264,"bec":11265,"ears":11266,"Renderer":11267,"irth":11268,"ĠDelete":11269,"Ġserves":11270,"(\"#":11271,"Ġsyn":11272,"Ġowners":11273,"Ġdefeated":11274,"Ġprompt":11275,"spect":11276,"ĠStory":11277,"Ġstores":11278,"Export":11279,"Ġsuitable":11280,"Accept":11281,"Ġextent":11282,"Ġperspective":11283,"eman":11284,"Compat":11285,"functions":11286,"PF":11287,"Ġlogging":11288,"Ġ\\(":11289,"sym":11290,"ĠDeb":11291,"ongo":11292,"_)":11293,"Ġfeedback":11294,"ĠResp":11295,"Ġ----------------------------------------------------------------":11296,"Ġtypedef":11297,"ĠBell":11298,"Ġcompr":11299,"acent":11300,"}}_{":11301,"Ġcomedy":11302,"dash":11303,"wx":11304,"Ġsympt":11305,"Ġships":11306,"pages":11307,"ĠBuilder":11308,"Ġunable":11309,"erves":11310,"ĉĉĉĉĉĉĉĉĉĉ":11311,"Ġ<-":11312,"Errors":11313,"Ġsolve":11314,"Ġ_.":11315,"Ġris":11316,"Ġped":11317,"Ġspons":11318,"SW":11319,"******":11320,"Most":11321,"pid":11322,"Ġscheduled":11323,"ĠBE":11324,"Ġappreci":11325,"ĠProduct":11326,"Ġopposite":11327,"ĠDutch":11328,"Ġcash":11329,"omorphism":11330,"Ġcolors":11331,"OW":11332,"Ġminute":11333,"heading":11334,"Rows":11335,"Ġ'',":11336,"Ġemp":11337,"Ġagric":11338,"Ġtruly":11339,"Ġcaptured":11340,"Contents":11341,"Ġindicated":11342,"Ġhandling":11343,"Ġstrategies":11344,"Ġseemed":11345,"ĠUnivers":11346,"built":11347,"sime":11348,"Ġcomposition":11349,"opher":11350,"Ġacid":11351,"Partition":11352,"including":11353,"$^{-":11354,"imp":11355,"tle":11356,"Literal":11357,"ĠAlexander":11358,"Ġminister":11359,"),\\":11360,"sun":11361,"aska":11362,"Ġapart":11363,"Ġdelta":11364,"ASSERT":11365,"cu":11366,"simeq":11367,"ĠBY":11368,"Ġattempts":11369,"ĠChildren":11370,"ĠAk":11371,"Ġdisable":11372,"Ġexecuted":11373,"Ġdependence":11374,"Ġexplanation":11375,"Ġathlet":11376,"Mag":11377,"Ġconj":11378,"osophy":11379,"Ġcaught":11380,"counter":11381,"ĠCat":11382,"Ġcollaboration":11383,"Ġmodal":11384,"Ġpipeline":11385,"Ġhomes":11386,"Ġcle":11387,"occer":11388,"Ġ'./":11389,"Login":11390,"Frames":11391,"ĠFC":11392,"Ġedit":11393,"rele":11394,"Ġpersonnel":11395,".*;":11396,"outs":11397,"Ġhide":11398,"FP":11399,"ĠKnow":11400,"Black":11401,"ĠĠĠĠĠĠĠĠĠĠĊ":11402,"ĠMcC":11403,"forcement":11404,"Ġmorph":11405,"Ġdestroyed":11406,"Exists":11407,"hpp":11408,"Ġreporting":11409,"Your":11410,"general":11411,"ĠAgain":11412,"uli":11413,"Tasks":11414,"iper":11415,"Ġscenario":11416,"ĠResult":11417,"Drawing":11418,"Stub":11419,"Ġthrown":11420,"binding":11421,"mass":11422,"Ġalias":11423,"CONFIG":11424,"BIT":11425,"ĠIter":11426,"lix":11427,"Ġlit":11428,"Ġlum":11429,"Ġorganized":11430,")_":11431,"Ġdram":11432,"Same":11433,"ntario":11434,"blob":11435,"ruption":11436,"ĠSV":11437,"ĠBon":11438,"sr":11439,"Ġestate":11440,"Ġcriteria":11441,"ĠclassName":11442,"ĠFac":11443,"Ġoperated":11444,"ĠToronto":11445,"ships":11446,"ĠPC":11447,"ika":11448,"inton":11449,"Ġscholar":11450,"Ġdecor":11451,"jax":11452,"ĠDavis":11453,"Ġsimpl":11454,"ĠRight":11455,"Ġphysics":11456,"Ġmasses":11457,"lab":11458,"Ġhistoric":11459,"Ġcharacteristics":11460,"ĠCas":11461,"outheast":11462,"ederation":11463,"ĠFox":11464,"party":11465,"compute":11466,"raham":11467,"Ġcancell":11468,"Counter":11469,"Ġbeliev":11470,"ĠKenn":11471,"ulpt":11472,"Ġdire":11473,"ĠLew":11474,"selection":11475,"Ġresearchers":11476,"Pres":11477,"(()":11478,"Ġexports":11479,"ĠThread":11480,"Ġreson":11481,"rame":11482,"appy":11483,"Ġsupposed":11484,"WEBPACK":11485,"Ġcoordinate":11486,"Ġprotest":11487,"Ġcab":11488,"Ġfifth":11489,"ORK":11490,"stage":11491,"raq":11492,"Although":11493,"Ġcloser":11494,"oured":11495,"lasg":11496,"Ġenhance":11497,"Ġbow":11498,"Ġment":11499,"asters":11500,"Ġattached":11501,"ĠBoy":11502,"Ġincorpor":11503,"Ms":11504,"requency":11505,"Ġencounter":11506,"ĠHun":11507,";|&":11508,"PG":11509,"Ð¿":11510,"Ġ$_":11511,"ĠContext":11512,"Ġpoliticians":11513,"gems":11514,"Ġosc":11515,"Ġdot":11516,"putation":11517,"Ġmort":11518,"Ġpseud":11519,"square":11520,"Ġeffectively":11521,"elle":11522,"ĠCSS":11523,"anz":11524,"Material":11525,"FIELD":11526,"patcher":11527,"Ġrecovery":11528,"Ġdistributions":11529,"Ġpromote":11530,"ĠPublish":11531,"Standard":11532,"Encoding":11533,"cassandra":11534,"Ġconstants":11535,">'":11536,"ĠJS":11537,"Inner":11538,"adesh":11539,"ĠLic":11540,"Ġsky":11541,"Ġpri":11542,"ĠIslands":11543,"Ġmoves":11544,"Ġmoments":11545,"imm":11546,"ĠAddress":11547,"reader":11548,"Â©":11549,"Promise":11550,"fp":11551,"Random":11552,"gre":11553,"Bal":11554,"ĠInstead":11555,"Ġobservation":11556,"fb":11557,"Constraint":11558,"ĠAccount":11559,"ĠCost":11560,"Ġpublication":11561,"Posted":11562,"Ġwa":11563,"mac":11564,"ĠShould":11565,"Ġcampus":11566,"??":11567,"UMMARY":11568,"Like":11569,"Ġ+\\":11570,"Axis":11571,"ĠSeason":11572,"repo":11573,"Ġphotos":11574,"Ġabort":11575,"Ġcompre":11576,"Another":11577,"onavirus":11578,"Ġ\">":11579,"Listen":11580,"Ġmedian":11581,"ĠÐ²":11582,"subfigure":11583,"BUIL":11584,"andy":11585,"Ġcookies":11586,"arity":11587,"utors":11588,"ĠJean":11589,"Ġignored":11590,"Ġ|=":11591,"ĠAnth":11592,"loom":11593,"Contains":11594,"Ġagents":11595,"ĠBox":11596,"chant":11597,"Ġclosely":11598,"LIN":11599,"Ġrecognition":11600,"ollary":11601,"Errorf":11602,"NamedCell":11603,"ĠOnline":11604,")\",":11605,"ĠLtd":11606,"Ãº":11607,"Ġpra":11608,"Ġobserve":11609,"Shift":11610,"ĠAvenue":11611,"cest":11612,"ĠSant":11613,"Oct":11614,"Arguments":11615,"\\!\\!":11616,"Ġintegrated":11617,"Ġfighting":11618,"Ġhotel":11619,"ĠStock":11620,"ĠRoute":11621,"POS":11622,"sequence":11623,"ĠPrint":11624,"heim":11625,"ĠMassachusetts":11626,"1963":11627,"convert":11628,"Ġrecru":11629,"ĠConfiguration":11630,"Ġbehaviour":11631,"Ġsubset":11632,"ĠCond":11633,"irk":11634,"createElement":11635,"Ġpref":11636,"validation":11637,"Ġhabit":11638,"Ġentr":11639,"itative":11640,"itled":11641,"ĠFurthermore":11642,"Ġarms":11643,"owa":11644,"tainment":11645,"ĠBefore":11646,"Ġbrings":11647,"Ġbodies":11648,"Drop":11649,"IMPORTED":11650,"ĠSon":11651,"Ġener":11652,"AX":11653,"zy":11654,"ĠProposition":11655,"Virtual":11656,"Ġterror":11657,"className":11658,"Ġrural":11659,"Ġtitles":11660,"360":11661,"Permission":11662,"aks":11663,"pad":11664,"Tuple":11665,"connected":11666,"ellite":11667,"ĠTool":11668,"ä½":11669,"Ġfrequently":11670,"Ġlose":11671,"Ġyields":11672,"acer":11673,"Ġlogic":11674,"Every":11675,"Ġvolunte":11676,"Shared":11677,"UNT":11678,"Ġsubmit":11679,"Will":11680,"lyn":11681,"Ġproto":11682,"Ġpowers":11683,"cludes":11684,"ĠViet":11685,"Cancel":11686,"Ġrepository":11687,"âĤ¬":11688,"Deprecated":11689,"ĠTransport":11690,"Ġcovers":11691,"Christ":11692,"formed":11693,"Ġwrap":11694,"RUN":11695,":'":11696,"Ġposts":11697,"AE":11698,"Ġintersection":11699,"regon":11700,"ponential":11701,"Win":11702,"Ġmagnitude":11703,"ĠBand":11704,"covery":11705,"ĠVictoria":11706,"quant":11707,"FilterDatabase":11708,"Foot":11709,"Ġinternet":11710,"FFER":11711,"Ġadvice":11712,"Ġstands":11713,"LAY":11714,"ĠIV":11715,"Ġswe":11716,"etherlands":11717,"Ġbands":11718,"respons":11719,"Observ":11720,"Ġtight":11721,"ĠThrough":11722,"Ġcov":11723,"Columns":11724,"Ġemployee":11725,"Ġpeer":11726,"uction":11727,"rium":11728,">%":11729,"ĠCountry":11730,"Ġcalculation":11731,"International":11732,"Management":11733,"relative":11734,"Ġvaccine":11735,"Expected":11736,"DATE":11737,"Convert":11738,"colon":11739,"Brit":11740,"irms":11741,"observ":11742,"Photo":11743,"scala":11744,"ĠLow":11745,"FALSE":11746,"erred":11747,"utr":11748,"Ġpaint":11749,"ĠExpl":11750,"egration":11751,"Ġending":11752,"ropol":11753,"=$":11754,"Ġworker":11755,"previous":11756,"avit":11757,"Inf":11758,"Ġfetch":11759,"ĠTag":11760,"Ġinitialize":11761,"Ġtd":11762,"fake":11763,"Ġease":11764,"%%%%%%%%":11765,"Been":11766,"Ġdoctor":11767,"Thus":11768,"ĪĴ":11769,"ĠTal":11770,"istogram":11771,"Ġdelivered":11772,"ĠPublished":11773,"ĠAud":11774,"Ġfluid":11775,"ĠMD":11776,"ĠColorado":11777,"Ġaid":11778,"ĠTree":11779,"Ġstorm":11780,"Ġdrivers":11781,"ĠBerlin":11782,"Ġmess":11783,"(['":11784,"University":11785,"django":11786,"Ġdrawn":11787,"Ġemergency":11788,"dark":11789,"1962":11790,"remote":11791,"Ġmountain":11792,"ĠOxford":11793,"bigg":11794,"sat":11795,"Ġparsed":11796,"Ġvulner":11797,"ENV":11798,"states":11799,"uent":11800,"Ġreverse":11801,"ĠTok":11802,"rizona":11803,"Holder":11804,"akh":11805,"Console":11806,"tooltip":11807,"Verify":11808,"äº":11809,"Depth":11810,"Sa":11811,"ĠSuch":11812,"ÅĤ":11813,"Enable":11814,"ĠGro":11815,"Ġwatching":11816,"=%":11817,"Pat":11818,"Ġsac":11819,"Reset":11820,"Ġnegot":11821,"agma":11822,"Ġgenerator":11823,"Ġyards":11824,"ĠCreates":11825,"Ġsigns":11826,"ĠRow":11827,"Ġadds":11828,"iy":11829,"Ġfat":11830,"Ġpercentage":11831,"Ġprivacy":11832,"through":11833,"ĠIss":11834,"Ġretired":11835,"(\"%":11836,"Split":11837,"season":11838,"Ġresponses":11839,"Ġdry":11840,"columns":11841,"Health":11842,"umps":11843,"Ġalleged":11844,"His":11845,"MAP":11846,"Ġaffili":11847,"ĠDouble":11848,"Music":11849,"Ġvo":11850,"Ġcontrovers":11851,"placement":11852,"Ġinstitution":11853,"ĠReference":11854,"Ġban":11855,"Ġwealth":11856,"arest":11857,"Career":11858,"Ġrenew":11859,"odot":11860,"South":11861,"ĠEditor":11862,"Ġprinciple":11863,"Ġwouldn":11864,"Ġcb":11865,"conv":11866,"priv":11867,"Timestamp":11868,"Ġanalog":11869,"Ġspectra":11870,"Ġbelief":11871,"getInstance":11872,"ownt":11873,"Ġgalaxy":11874,"amazonaws":11875,"viewport":11876,"\">(":11877,"Bus":11878,"Ġtransmission":11879,"direction":11880,"Ġintent":11881,"Ġlimitations":11882,"Ġjustice":11883,"adoc":11884,"Ġguy":11885,"omatic":11886,"actual":11887,"Ġoverflow":11888,"URCE":11889,"ĠOs":11890,"brace":11891,"parts":11892,"Declaration":11893,"Ġextensive":11894,"Ġfavour":11895,"Labels":11896,"AU":11897,"Ġclusters":11898,"ĠOC":11899,"Ġdst":11900,"apple":11901,"vironments":11902,"Ġsatisfy":11903,"Ġcro":11904,"ooper":11905,"Ġentertain":11906,"Ġcompiler":11907,"Ġevening":11908,"Ġletters":11909,"logging":11910,"Ġindices":11911,"ifted":11912,"topic":11913,"acon":11914,"STATUS":11915,"Ġresistance":11916,"Ġ{%":11917,"thur":11918,"consin":11919,"wt":11920,"worth":11921,"Ġinterests":11922,"EY":11923,"ĠJson":11924,"RAY":11925,"Ġprecision":11926,"Ġtruck":11927,"Ġlegisl":11928,"ĠParse":11929,"links":11930,"hensive":11931,"News":11932,"Ġincred":11933,"Ġbreaking":11934,"Site":11935,"Series":11936,"Ġhop":11937,"Ġvirus":11938,"Rout":11939,"ĠÑģ":11940,"acket":11941,"Ġresponsibility":11942,"Ġvotes":11943,"Ġseparated":11944,"Ġeat":11945,"ĠJacob":11946,"abc":11947,"ĠTai":11948,"unes":11949,"tl":11950,"Ġhumans":11951,"Separ":11952,"ĠRaj":11953,"ĠTam":11954,"$).":11955,"ymmetric":11956,"Sem":11957,"ARG":11958,"ĠDer":11959,"ĠChen":11960,"door":11961,"gz":11962,"Ġsuperv":11963,"ounded":11964,"hot":11965,"Ġworldwide":11966,"Ġpin":11967,"Ġiterator":11968,"Ġlosing":11969,"Ġongoing":11970,"Bool":11971,"ĠExecutive":11972,"uy":11973,"Ġthermal":11974,"ydney":11975,"Ã¸":11976,"ĠCreek":11977,"hang":11978,"Ġexcited":11979,"Ġrent":11980,"Ġcomplexity":11981,"Ġdecade":11982,"tection":11983,"ĠBall":11984,"Ġcorrectly":11985,"esis":11986,"Ġpun":11987,"engers":11988,"rpc":11989,")_{":11990,"Ġvon":11991,"1024":11992,"arsing":11993,"Ġfindings":11994,"Ġcatalog":11995,"perp":11996,"ĠHay":11997,"atasets":11998,"Ġmovies":11999,"aze":12000,"Ġmatrices":12001,"Ġna":12002,"Old":12003,"Ġgoto":12004,"Ġrevenue":12005,"runner":12006,"Ġprediction":12007,"Ġdust":12008,"aired":12009,"Ġapps":12010,"een":12011,"ĠClear":12012,"__)":12013,"ĠDespite":12014,"Ġalpha":12015,"ĠSUMMARY":12016,"ĠMarg":12017,"uplicate":12018,"Transition":12019,"Tile":12020,"Ġgenus":12021,"Ġcopyright":12022,"lap":12023,"Ġintroduction":12024,"amely":12025,"icky":12026,"Missing":12027,"uj":12028,"atest":12029,"ĠDam":12030,"acher":12031,"vendor":12032,"rank":12033,"Ġindicating":12034,"Analysis":12035,"ician":12036,"Ġsymmetric":12037,"ells":12038,"icious":12039,"cancel":12040,"ĠByte":12041,"}$-":12042,"ĠSW":12043,"Ġwhatever":12044,"}}(\\":12045,"Ġcalculations":12046,"Ġsin":12047,"Ġdifferential":12048,"Authentication":12049,"HC":12050,"Ġsilver":12051,"ĠUtil":12052,"ĠStore":12053,"Ġclip":12054,"examples":12055,"è¯":12056,"ĠNative":12057,"rban":12058,"Ġbringing":12059,"Ġwins":12060,"ĠPos":12061,"Ġsnow":12062,"ĠLat":12063,"iga":12064,"relations":12065,"Codec":12066,"pin":12067,"uda":12068,"ĠSanta":12069,"('<":12070,"ategor":12071,"ĠPhiladelphia":12072,"GEN":12073,"Ġdepos":12074,"ensitive":12075,"ĠDOM":12076,"ĠCart":12077,"Millis":12078,"Ġdomestic":12079,"ĠWhether":12080,"Ġcontemporary":12081,"Ġradiation":12082,"ĠPoland":12083,"âĢī":12084,"Ġaver":12085,"LETE":12086,"loading":12087,"Ġlocally":12088,"Ġpotentially":12089,"TL":12090,"ĠPhot":12091,"remarks":12092,"Ġtopics":12093,"Ġles":12094,"ĠVen":12095,"ĠMatt":12096,"ĠChem":12097,"Ġimg":12098,"Ġexpressions":12099,"Ġinfinite":12100,"ĠSM":12101,"agg":12102,"ĠNations":12103,"Ġsingles":12104,"EP":12105,"ĠProp":12106,"Executor":12107,"isor":12108,"ĠArm":12109,"essional":12110,"ĠAlb":12111,"ĠVALIGN":12112,"odo":12113,"Ġclubs":12114,"Ġprovince":12115,"ĠObama":12116,"ĠCred":12117,"iley":12118,"keep":12119,"Ġfamiliar":12120,"alink":12121,"Prof":12122,"ĉĉĠĠĠ":12123,"ĠManager":12124,"Ġadult":12125,"]+":12126,"ĠAge":12127,"1961":12128,"ĠPromise":12129,"Ġfs":12130,"ĠAP":12131,"Ġgreatest":12132,"Ġtexture":12133,"Ġmanifest":12134,"Den":12135,"Ġsoldiers":12136,"Ġoccasion":12137,"ceptor":12138,"Ġlegend":12139,"Ġpersons":12140,"ĠRome":12141,"licenses":12142,"Ġvectors":12143,"forall":12144,"Based":12145,"ĠWhere":12146,"Ġsubsequently":12147,"Ġobjective":12148,"ĠAuto":12149,"orizon":12150,"Ġbias":12151,"Bad":12152,"Ġwindows":12153,"aug":12154,"Ġsudden":12155,"Ġveg":12156,"closure":12157,"Ġcrowd":12158,"ĠSab":12159,"Ġoscill":12160,"ymph":12161,"ĠGolden":12162,"Locale":12163,"lf":12164,"Ġmit":12165,"Ġyounger":12166,"Ġfly":12167,"Ġsed":12168,"Ġstanding":12169,"contact":12170,"Ġarts":12171,"Ġspl":12172,"Ġintelligence":12173,"SG":12174,"ĠBC":12175,"getType":12176,"ĠStaff":12177,"repository":12178,"TAG":12179,"ĠKorean":12180,"Ġstability":12181,"Ġpreced":12182,"ĠScholar":12183,"interpre":12184,"ĠPot":12185,"ĠFord":12186,"Warn":12187,"transport":12188,"ĠEC":12189,"ĠReb":12190,"usr":12191,"Ġsolo":12192,"week":12193,"Ġrelax":12194,"[(":12195,"deep":12196,"ĠBat":12197,"Star":12198,"Ġaria":12199,"Ġvariation":12200,"Ġexcess":12201,"gies":12202,"ÏĢ":12203,"ĠDisney":12204,"ĠCoq":12205,"ĠHung":12206,"Ġfold":12207,"Ġultimately":12208,")},":12209,"zech":12210,"Ġfolder":12211,"phant":12212,"ĠCub":12213,"DEX":12214,"ĠSTART":12215,"Ġemployed":12216,"Ġguest":12217,"FOR":12218,"omm":12219,"Ġ=\\":12220,"Runner":12221,"referred":12222,"ĠSite":12223,"{$\\":12224,"Ġsounds":12225,"Ġinvestigate":12226,"kernel":12227,"uuid":12228,"130":12229,"Linear":12230,"ĠAC":12231,"~~~~~~~~":12232,"Ġhosted":12233,"1944":12234,"iat":12235,"ĠPlace":12236,"mobile":12237,"scious":12238,"Ġsevere":12239,"Ġafford":12240,"Ġteachers":12241,"Ġrobust":12242,"Upload":12243,"Ġtroops":12244,"COM":12245,"Ġexperts":12246,"Ġbulk":12247,"ĠURI":12248,"uable":12249,"locale":12250,"ĠStephen":12251,"IMIT":12252,"OC":12253,"ignore":12254,"Ġdenotes":12255,"UEST":12256,"cross":12257,"ntil":12258,"Ġweights":12259,"rules":12260,"dst":12261,"good":12262,"Ġcolour":12263,"atom":12264,"Ġcontribute":12265,"Ġshooting":12266,"arry":12267,"ĠFix":12268,"Ignore":12269,"Ġbold":12270,"Ġglob":12271,"speed":12272,"bounds":12273,"gradle":12274,"Ã©s":12275,"ĠColumn":12276,"Ġpatch":12277,"ilibrium":12278,"islation":12279,"Ġbeam":12280,"ificial":12281,"crement":12282,"Doctrine":12283,"urd":12284,"ÙĪ":12285,"ĠFish":12286,"Ġwidget":12287,"Ġveter":12288,"heets":12289,"Ġuncertainty":12290,"Points":12291,"solr":12292,"Ġtheoretical":12293,"ĠSend":12294,"ouri":12295,"ĠGrant":12296,"Ġdefines":12297,"StringBuilder":12298,"ĠNFL":12299,"Ġreaders":12300,"Direction":12301,"(/":12302,"Ġtemperatures":12303,"Ġslot":12304,"Ġrepresentative":12305,"standard":12306,"================================================================":12307,"Touch":12308,"archive":12309,"ĠOntario":12310,"Ġrig":12311,"Ġtransferred":12312,"ixtures":12313,"Ġsupplied":12314,"Ã©e":12315,"nos":12316,"Ġtemporary":12317,"Ġplaceholder":12318,"Ġter":12319,"Ġvisited":12320,"Ġ\"'":12321,"ĠStadium":12322,"getString":12323,"incipal":12324,"ĠScottish":12325,"Cr":12326,"Ġrecall":12327,"UBLIC":12328,"Ġdates":12329,"Ġ(+":12330,"Ġtherapy":12331,"fortunately":12332,"\\/":12333,"Ġ$-":12334,"Ġly":12335,"ĠĠĠĠĠĠĠĠĠĠĠĠĠĠĠĠĠĠĠĠĠĠĠĠĠĠĠĠĠĠĠĠĠĠĠĠ":12336,"Ġresulted":12337,"Ġfounder":12338,"router":12339,"Ġaccessible":12340,"Ġperformances":12341,"Actions":12342,"Ġ```":12343,"Ġtables":12344,"Ġjudge":12345,"ĠForest":12346,"erring":12347,"cursor":12348,"ĠSingapore":12349,"phase":12350,"OutputStream":12351,"Ġtimestamp":12352,"repre":12353,"ctic":12354,"ĠBBC":12355,"Ġclone":12356,"Ġspending":12357,"AVE":12358,"ĠRon":12359,"Ġofficially":12360,"\\_":12361,"Android":12362,"wr":12363,"Lookup":12364,"olving":12365,"Finally":12366,"Ġinduced":12367,"ĠYouTube":12368,"TRY":12369,"Ġrecover":12370,"Ġanchor":12371,"overning":12372,"ĠCru":12373,"rystal":12374,"altColor":12375,"Ġmes":12376,"plain":12377,"Extensions":12378,"Ġprojection":12379,"Ġversus":12380,"Ġbattery":12381,"^{+":12382,"Mut":12383,"Ġscaling":12384,"days":12385,"generator":12386,"ĠHo":12387,"Ġimmediate":12388,"aron":12389,"Idx":12390,"RAME":12391,"ĠDark":12392,"Sol":12393,"Ġloved":12394,"Ġasympt":12395,"atriate":12396,"ĠGreg":12397,"Sam":12398,"Ġexplo":12399,"moment":12400,"ĠSimilar":12401,"AK":12402,"111":12403,"Ġgradient":12404,"Ġabund":12405,"ĠCulture":12406,"aus":12407,"ibilities":12408,"ĠRos":12409,"ĠBOOST":12410,"ĠMir":12411,"Ġ(%":12412,"Ġpending":12413,"subsubsection":12414,"ĠĠĠĠĠĠĠĠĠĠĠĠĠĠĠĠĠĠĠĠĠĠĠĠĠĠĠĠĠĠĠĠĠĠ":12415,"ouston":12416,"ropical":12417,"wbr":12418,"Ġhearing":12419,"aco":12420,"Ġconcerned":12421,"Ġ(@":12422,"ĠSystems":12423,"Ġstellar":12424,"Bro":12425,"Ġconsec":12426,"Tex":12427,"porter":12428,"Ġdemocr":12429,"holders":12430,"enna":12431,"Ġchoices":12432,"Ġexposure":12433,"Ġassessment":12434,"etary":12435,"ĠÂ·":12436,"ĠInternal":12437,"ĠDonald":12438,"ĠCF":12439,"Ġrational":12440,")^{-":12441,"ipl":12442,"ĠLes":12443,"Lib":12444,"ĠClasses":12445,"ĠAdministration":12446,"Ġstone":12447,"uet":12448,"Ġhealthy":12449,"Ġvess":12450,"[]{":12451,"Ġraces":12452,"Ġweapons":12453,"Ġneutr":12454,"reprene":12455,"ĠassertTrue":12456,"Dynamic":12457,"Ġarrested":12458,"asp":12459,"Ġpractical":12460,"ayed":12461,"Ġimpress":12462,"Ġprominent":12463,"itories":12464,"repeat":12465,"Ġvm":12466,"plays":12467,"Ġpasses":12468,"timestamp":12469,"Ġurg":12470,"Metrics":12471,"ĠIraq":12472,"Kit":12473,"Ġchapter":12474,"Ġbond":12475,"ĠEric":12476,"agues":12477,"Ġbaseball":12478,"Ġassistant":12479,"Ġeastern":12480,"Ġ-=":12481,"Ġrefers":12482,"unlock":12483,"offs":12484,"Yes":12485,"lot":12486,"Ġstatistical":12487,"æķ":12488,"}\",":12489,"isition":12490,"Ġwrites":12491,"ĠMagazine":12492,"Ġgene":12493,"Ġrestaurant":12494,"Rot":12495,"hor":12496,"Ġcontest":12497,"Sports":12498,"å¤":12499,"Bel":12500,"Rob":12501,"ĠSerial":12502,"************************************************************************":12503,"uating":12504,"Converter":12505,"Ġoperate":12506,"Quant":12507,"ĠRose":12508,"omorphic":12509,"production":12510,"Ġchunk":12511,"mn":12512,"izers":12513,"Ġregistration":12514,"Ġinteract":12515,"ĠNAS":12516,"UES":12517,"Ġton":12518,"Ġlowest":12519,"arring":12520,"ĠOperation":12521,"Ġhardware":12522,"ĠBuilding":12523,"utely":12524,"cls":12525,"iors":12526,"ĠDoug":12527,"Ġpacket":12528,"Ġfluct":12529,"everal":12530,"dam":12531,"LICENSE":12532,"Ġscattering":12533,"PROP":12534,"Ġcapable":12535,"$$\\":12536,"Servlet":12537,"Shader":12538,"displayName":12539,"Ġenumer":12540,"Ġscores":12541,"ĠOfficer":12542,"slide":12543,"Ġprogramme":12544,"bench":12545,"uh":12546,"Ð°ÑĤ":12547,"inject":12548,"Ġmob":12549,"Ġinherit":12550,"iggs":12551,"Ġnewspaper":12552,"URN":12553,"License":12554,"Also":12555,"Ġamazing":12556,"Ġvariant":12557,"Ġdependent":12558,".âĢĻ":12559,"anches":12560,"Ġdiverse":12561,"Period":12562,"Snapshot":12563,"ĠAnton":12564,"Ġwear":12565,")^{\\":12566,"Ġyellow":12567,"Collect":12568,"Ġsignals":12569,"ĠEll":12570,"Press":12571,"shell":12572,"anga":12573,"textsc":12574,"Ġeducational":12575,"ĠArgent":12576,"Ġreplacement":12577,"Ġoptimization":12578,"Ã¡n":12579,"Ġcomputation":12580,"Ġpredicted":12581,"Ġvirt":12582,"Her":12583,"Ġimpl":12584,"Ġfacilit":12585,"Ġnob":12586,"Films":12587,"was":12588,"----------":12589,"Ġlistening":12590,"iso":12591,"ĠMiller":12592,"Have":12593,"Ġsummar":12594,"TRAN":12595,"Ġpassion":12596,"ĠFollowing":12597,"Ġrestr":12598,"icians":12599,"Ġhun":12600,"RESULT":12601,"Ġfaculty":12602,"GN":12603,"ĠEconomic":12604,"ativ":12605,"]->":12606,"Ġshadow":12607,"Ġtack":12608,"hal":12609,"ĠOregon":12610,"Ġbought":12611,"()\">":12612,"ĠLevel":12613,"ĠHal":12614,"Ġscales":12615,"nobr":12616,"ĠGiven":12617,"ĠBru":12618,"Ġdefinitely":12619,"mount":12620,"Aggreg":12621,"Ġiron":12622,"pmatrix":12623,"DM":12624,"Ġsomewhat":12625,"Aug":12626,"ĠNetherlands":12627,"ĠSC":12628,"ĠNeed":12629,"oking":12630,"ĠBridge":12631,"React":12632,"ĠWars":12633,"amount":12634,"ĠHandle":12635,"ĠMatch":12636,"Ġplate":12637,"ĠDaily":12638,"1956":12639,"Features":12640,"ÐµÑĢ":12641,"Ġpixel":12642,"Ġconsumers":12643,"Ġtheories":12644,"Ġhaven":12645,"ĠWinter":12646,"uity":12647,"don":12648,"ĠAnalysis":12649,"wallet":12650,"Ġarc":12651,"Ġsensitive":12652,"><!--":12653,"Ġvice":12654,"Ġaccum":12655,"Ġexercise":12656,"Original":12657,"Ġcodes":12658,"ĠContin":12659,"Spe":12660,"oxy":12661,"*,":12662,"Ġbat":12663,"iversary":12664,"Ġdrugs":12665,"anim":12666,"Ġchecks":12667,"1958":12668,"Ġdelegate":12669,"Ġsimult":12670,"Vec":12671,"Ġimprovement":12672,"IconError":12673,"phy":12674,"Ġcoff":12675,"Contin":12676,"Ġtokens":12677,"rell":12678,"&=&":12679,"Ġabandon":12680,"1939":12681,"ĠAh":12682,"Ġimplied":12683,"DTD":12684,"ĠImmutable":12685,"Uses":12686,"Ġdecide":12687,"Ġfeels":12688,"Ġfiled":12689,"Ùĩ":12690,"ĠBelg":12691,"Self":12692,"Ġcards":12693,"Ġterritory":12694,"gif":12695,"1959":12696,"1948":12697,"ista":12698,"ĠGer":12699,"Ġstreets":12700,"ĠFALSE":12701,"ĠLater":12702,"prom":12703,"middle":12704,"Ġstages":12705,"ocom":12706,"sha":12707,"Ġdeleted":12708,"116":12709,"Ġidentical":12710,"IconErrorEncoded":12711,"1952":12712,"ĠLogger":12713,"Ġnecessarily":12714,"David":12715,"ĠRoss":12716,"Ġbug":12717,"Switch":12718,"itis":12719,"ĠGallery":12720,"Ġinsurance":12721,"Ġevaluated":12722,"Ã¥":12723,"analysis":12724,"Ġdescriptor":12725,"ĠRuntime":12726,"hd":12727,"oa":12728,"ĠOcean":12729,"ainer":12730,"ĠBrad":12731,"\":\"":12732,"Ġscientists":12733,"ĠNick":12734,"ĠLady":12735,"ILITY":12736,"Super":12737,"Ġhockey":12738,"Ġquantity":12739,"Ġassistance":12740,"ĠModern":12741,"Ġ--></":12742,"ĠCambridge":12743,"asty":12744,"Ġinterior":12745,"Ġproposal":12746,"itals":12747,"sch":12748,"RECT":12749,"aneously":12750,"Ġsole":12751,"Ġsubscription":12752,"bourne":12753,"ĠDead":12754,"MPL":12755,"Ġsequences":12756,"eties":12757,"Ġcorporate":12758,"spir":12759,"Ġhits":12760,"ennessee":12761,"Ġqualified":12762,"ĠÐ½":12763,"ĠWisconsin":12764,"Ġliquid":12765,"Personal":12766,"share":12767,"Ġroutes":12768,"ĠClin":12769,"IDE":12770,"ĠEnc":12771,"\"];":12772,"Ġkit":12773,"Ġusername":12774,"iac":12775,"Ġdoubt":12776,"Ra":12777,"ĠPrize":12778,"references":12779,"Zero":12780,"Ġchampion":12781,"mean":12782,"ĠImp":12783,"BER":12784,"icide":12785,"imize":12786,"ĠRailway":12787,"<>();":12788,"dynamic":12789,"ste":12790,"concurrent":12791,"ĉĠĠ":12792,"Ġrejected":12793,"Ġseats":12794,"ĠNever":12795,"Ġ'_":12796,"ĠFall":12797,"Diff":12798,"ãĢĤ":12799,"OLD":12800,"Ġgoods":12801,"quarters":12802,"Ġfi":12803,"Ġexpensive":12804,"Ġexposed":12805,"Ġcovering":12806,"Ġspeaking":12807,"è¿":12808,"Ġfestival":12809,"Å¾":12810,"ĠInstagram":12811,"complex":12812,"ĠHarry":12813,"Drag":12814,"jan":12815,"Fac":12816,"enda":12817,"1942":12818,"danger":12819,"Ġconversation":12820,"ĠForeign":12821,"arios":12822,"binary":12823,"ortheast":12824,"ĠArizona":12825,"pragma":12826,"Organ":12827,"Ġadults":12828,"Ġcraft":12829,"Ġpapers":12830,"9999":12831,"Ġtaught":12832,"folder":12833,"ycl":12834,"Fixed":12835,"Ġconcentration":12836,"Ġnotation":12837,"pector":12838,"cpu":12839,"ibration":12840,"Ġ'\"":12841,"102":12842,"Øª":12843,"SSION":12844,"ENABLE":12845,"iÄĩ":12846,"concat":12847,"Poly":12848,"Ġuri":12849,"Changes":12850,"Ġinhib":12851,"105":12852,"atibility":12853,"Ġreceiver":12854,"chestra":12855,"[-":12856,"Ġdescent":12857,"1957":12858,"ĠBrian":12859,"Ġpurchased":12860,"FileName":12861,"ilk":12862,"Ġproviders":12863,"Ġabsence":12864,"Mutable":12865,"Ð·":12866,"Bucket":12867,"Cross":12868,"Reason":12869,"GIN":12870,"away":12871,"emale":12872,"TIES":12873,"BASE":12874,"Ġhundreds":12875,"ĠKEY":12876,"ICATION":12877,"Ġpromotion":12878,"written":12879,"ĠMoh":12880,"pred":12881,"ĠResources":12882,"ĠDNA":12883,"Ġpara":12884,"getMessage":12885,"ĠMethods":12886,"sdk":12887,"iable":12888,"ju":12889,"Ġstrike":12890,"governor":12891,"ugar":12892,"Ġhall":12893,"Ġsoil":12894,"mms":12895,"Ġboot":12896,"Ġcrash":12897,"Ġliteral":12898,"Ġspr":12899,"Ġdemonstrated":12900,"doi":12901,"ĠAgency":12902,"________":12903,"Ġtalent":12904,"Ġuniverse":12905,"notify":12906,"Ġseeking":12907,"elihood":12908,"ivals":12909,"ĠFA":12910,"adv":12911,"Ġapplying":12912,"ureau":12913,"lb":12914,"amer":12915,"ĠMountain":12916,"Ġaccompl":12917,"ials":12918,"Review":12919,"oor":12920,"III":12921,"Created":12922,"=&":12923,"alias":12924,"ubern":12925,"Available":12926,"Mac":12927,"Ġpresentation":12928,"Put":12929,"Ġattrib":12930,"Ġincreasingly":12931,"Ġworst":12932,"mix":12933,"Ġcrucial":12934,"Ġwing":12935,"Ġloan":12936,"encoding":12937,"(\"\\":12938,"Supported":12939,"Ġdiscovery":12940,"Ġintensity":12941,"Ġaspect":12942,"INVALID":12943,"Ġscenes":12944,"secondary":12945,"may":12946,"ĠDA":12947,"ursive":12948,"UCT":12949,"Austral":12950,"Ġstim":12951,"hook":12952,"SF":12953,"javax":12954,"LEMENT":12955,"ĉĉĉĉĊ":12956,"Sources":12957,"ĠSky":12958,"puted":12959,"Ġorig":12960,"Ġcub":12961,"UV":12962,"Ġputting":12963,"LOAD":12964,"tre":12965,"ĠĠĠĠĠĠĠĠĠĠĠĠĠĠĠĠĠĠĠĠĠĠĠĠĠĠĠĠĠĠĠĠĠĠĠĠĠ":12966,"ĠEP":12967,"country":12968,"Ġarrang":12969,"Ġbomb":12970,"Machine":12971,"Ġ#{":12972,"Ġtech":12973,"Ġinvestors":12974,"Ġworse":12975,"Ġinstructions":12976,"$~":12977,"Instruction":12978,"ods":12979,"Ġours":12980,"ĠOlympic":12981,"Ġassist":12982,"amps":12983,"Dat":12984,"ĠAppend":12985,"PROC":12986,"ĠTry":12987,"HashMap":12988,"Ġgained":12989,"Ġmanifold":12990,"Feed":12991,"bug":12992,"ĠWord":12993,"ĠRyan":12994,"Ġasking":12995,"hbox":12996,"Ġcausing":12997,"ĠSydney":12998,"Diagnostics":12999,"Ġconclude":13000,"itempty":13001,"distance":13002,"Ġdriven":13003,"period":13004,"Ġsymptoms":13005,"Ġtwenty":13006,"Extra":13007,"omitempty":13008,"aire":13009,"swing":13010,"Ġmatters":13011,"ĠWARRANTIES":13012,"ĠTech":13013,"Ġdevelopers":13014,"Ġquadr":13015,"Ġqueries":13016,"Ġauthent":13017,"Ġmonitoring":13018,"BUFFER":13019,"Ġpreferred":13020,"MF":13021,"orer":13022,"ĠSound":13023,"Ġmoder":13024,"ĠSri":13025,"foreach":13026,"Month":13027,"Ġoutcome":13028,"Ġvisitors":13029,"Introduction":13030,"Culture":13031,"toc":13032,"ĠAbb":13033,"Mich":13034,"North":13035,"Ġextreme":13036,"hour":13037,"Ġmouth":13038,"Tele":13039,"Serialization":13040,"wiki":13041,"raction":13042,"getClass":13043,"140":13044,"ĠDest":13045,"eclipse":13046,"Ġimplicit":13047,"googleapis":13048,"æĺ":13049,"ĠSep":13050,"verify":13051,"Commit":13052,"ĠFront":13053,"Ġdecrease":13054,"Ġneither":13055,"Ġ&#":13056,"NameLink":13057,"Ġlandscape":13058,"Ġreasonable":13059,"Ġmm":13060,"ques":13061,"rient":13062,"ĠKansas":13063,"Calendar":13064,"ogeneous":13065,"tail":13066,"Ctrl":13067,"Ev":13068,"ustry":13069,"district":13070,"Ġhorizontal":13071,"Ġtum":13072,"IME":13073,"Ġasset":13074,"ĠPrivate":13075,"Ġhorse":13076,"Ġcellpadding":13077,"isely":13078,"Packet":13079,"Ġcoinc":13080,"poi":13081,"ordon":13082,"asts":13083,"cers":13084,"Ġimpossible":13085,"iations":13086,"mime":13087,"history":13088,"iry":13089,"Ġcertificate":13090,"via":13091,"}&":13092,">`":13093,"Ġadvertising":13094,"112":13095,"icular":13096,"ĠTurk":13097,"Ġdisappe":13098,"Ġcollapse":13099,"nl":13100,"Ġwalls":13101,"ocks":13102,"Ġbucket":13103,"ĠCapital":13104,"rent":13105,"Ġplain":13106,"management":13107,"datetime":13108,"publish":13109,"Ġmanufacturing":13110,"Ġkilling":13111,"displaystyle":13112,"ĠLev":13113,"gar":13114,"Cho":13115,"photon":13116,"aturally":13117,"ĠIL":13118,"Ġadap":13119,"Ġgoverning":13120,"1955":13121,"Contract":13122,"mad":13123,"declare":13124,"Ġsteel":13125,"Ġdiscrim":13126,"ĠMean":13127,"ĠKat":13128,"oda":13129,"cline":13130,"linux":13131,"Buf":13132,"Ġmile":13133,"ĠDream":13134,"ĠSurvey":13135,"rena":13136,"Ġsuit":13137,"ĠSquare":13138,"Fi":13139,"Ġterminal":13140,"ĠMust":13141,"1941":13142,"åĬ":13143,"TX":13144,"BM":13145,"Ġhook":13146,"Ġmanip":13147,"ĠDor":13148,"Ġdebate":13149,"Bits":13150,"ĠJesus":13151,"Ġabuse":13152,"Ġproducing":13153,"TableRow":13154,"Ġsculpt":13155,"abstract":13156,"Disk":13157,"Git":13158,"Ġwinners":13159,"Ġframes":13160,"Ġtradition":13161,"urst":13162,"Controls":13163,"ĠLang":13164,"Ġmacro":13165,"Ġextensions":13166,"ĠCab":13167,"Ġlogin":13168,"live":13169,"ĠPremier":13170,"Ġamplitude":13171,">(<":13172,"ĠEs":13173,"allenge":13174,"Ġagencies":13175,"British":13176,"hemat":13177,"Ġha":13178,"ulp":13179,"Ġpregn":13180,"Ġcoins":13181,"Ġstrip":13182,"annotations":13183,"Typ":13184,"graphics":13185,"ĠFrame":13186,"remark":13187,"stud":13188,"ailing":13189,"CREATE":13190,"ĠPit":13191,"ĠJordan":13192,"'(":13193,"ibern":13194,"ĠEntertainment":13195,"Ġapplies":13196,"Ġmatched":13197,"sea":13198,"angers":13199,"ĠHeart":13200,"Ġopposition":13201,"ned":13202,"ĠTro":13203,"1946":13204,"Running":13205,"Ġhouseholds":13206,"Ġconclusion":13207,"ĠSmall":13208,"ĠCorn":13209,"Ġguys":13210,"comple":13211,"ĠGh":13212,"itecture":13213,"vet":13214,"ĠLL":13215,"~$\\":13216,"Ġcharacteristic":13217,"cohol":13218,"ania":13219,"Ġsatisfied":13220,"Ġfaces":13221,"ichol":13222,"TOM":13223,"Ġflu":13224,"posing":13225,"chat":13226,"works":13227,"ĠMill":13228,"ĠLind":13229,"Ġcompens":13230,"endpoint":13231,"Break":13232,"ĠUl":13233,"ĠResults":13234,"AMP":13235,"!</":13236,"Ġcanvas":13237,"Ġdangerous":13238,"plane":13239,"ĠDa":13240,"Ġteen":13241,"ĠCorps":13242,"Ġwaste":13243,"Ġsubscri":13244,"Ġsubjects":13245,"Ġbid":13246,"Ġgoogle":13247,"timer":13248,"Ġadministrative":13249,"Well":13250,"reement":13251,"Ġwilling":13252,"ĠInvalid":13253,"RET":13254,"Ġthin":13255,"Secret":13256,"opsis":13257,"interval":13258,"ĠDeep":13259,"Ġstreaming":13260,"ĠOt":13261,"Ġ---":13262,"Origin":13263,")$-":13264,"Ġmusicians":13265,"1943":13266,"spin":13267,"ulatory":13268,"ĠArgument":13269,"Priority":13270,"Ġinfer":13271,"Ġneuro":13272,"ingham":13273,"ĠTABLE":13274,"Wr":13275,"addClass":13276,"Ġredirect":13277,"Ġessentially":13278,"ĠEdition":13279,"SUC":13280,"Ġrequirement":13281,"Owner":13282,"ĠTer":13283,"UA":13284,"Ġpackages":13285,"ĠTax":13286,"ĠRad":13287,"BOOL":13288,"ĠĠĠĠĠĠĠĠĠĠĠĠĠĠĠĠĠĠĠĠĊ":13289,"Ġ\"${":13290,"updated":13291,"ĠJane":13292,"HOME":13293,"Ġpixels":13294,"ĠActive":13295,"Ġtemple":13296,"ĠDeath":13297,"ASS":13298,"bucket":13299,"Execute":13300,"atile":13301,"WI":13302,"Ġcomputing":13303,"members":13304,"ĠNum":13305,"Ġgovernor":13306,"maps":13307,"Ġgrade":13308,"Ġreply":13309,"Ġrid":13310,"anny":13311,"mma":13312,")}{\\":13313,"timeline":13314,"ĠTreat":13315,"Ġcombat":13316,"Ġparticipate":13317,"hbase":13318,"incess":13319,"Ġprovision":13320,"Ġdemonstrate":13321,"Ġoutcomes":13322,"ĠRevolution":13323,"Ġsuffered":13324,"PREF":13325,"vertex":13326,"Ġcellspacing":13327,"clip":13328,"Tax":13329,"Ġjet":13330,"eness":13331,"Numer":13332,"Ġpit":13333,"score":13334,")\\\\":13335,"ĠPhoto":13336,"ĠAws":13337,"azure":13338,"VO":13339,"Ġclim":13340,"Ġcached":13341,"Ġorth":13342,"Ġroy":13343,"Ġbes":13344,"ieval":13345,"}}^{":13346,"Rules":13347,"emet":13348,"Ġfilters":13349,"Ġdisp":13350,"1947":13351,"1954":13352,"ĠTurkey":13353,"marks":13354,"Vol":13355,"Ġcapabilities":13356,"avis":13357,"docker":13358,"Apr":13359,"perial":13360,"Ġrestrictions":13361,"lined":13362,"Loading":13363,"Ġorbit":13364,"aton":13365,"ĠBuffer":13366,"Ġsymbols":13367,"ĠKa":13368,"})$.":13369,"grpc":13370,"Resp":13371,"Ġvast":13372,"UK":13373,"ĠLewis":13374,"Ġ'#":13375,"ĠHamiltonian":13376,"hbar":13377,"Ġaapt":13378,"Ġreform":13379,"EVENT":13380,"Ġmarg":13381,"Ð¾Ð»":13382,"ĠTake":13383,"plemented":13384,"BD":13385,"Ġtracking":13386,"×ķ":13387,"lia":13388,"Cent":13389,"utter":13390,"Ġdt":13391,">${":13392,"regular":13393,"Ġaccommod":13394,"uis":13395,"Ġsentence":13396,"ĠMoon":13397,"wm":13398,"Ġdictionary":13399,"Association":13400,"Capture":13401,"frag":13402,"Ġmagic":13403,".',":13404,"Ġpromoted":13405,"Ġfacing":13406,"Ġlegislation":13407,"ahoma":13408,"yers":13409,"ĠIF":13410,"Ġelig":13411,"Life":13412,"Cannot":13413,"APP":13414,"Ġunderstood":13415,"ĠRoll":13416,"Ġnotable":13417,"Week":13418,"Ġselling":13419,"izz":13420,"Received":13421,"Ġturning":13422,"Ġpresents":13423,"Ġroughly":13424,"pref":13425,"ĠItem":13426,"ĠKal":13427,"Ġcircuit":13428,"emony":13429,"localhost":13430,"ĠComponent":13431,"ĠTRUE":13432,"ido":13433,"Ġproud":13434,"igenous":13435,"ilbert":13436,"got":13437,"ĠGaussian":13438,"Ġreads":13439,"ante":13440,"features":13441,"]}":13442,"ĠHan":13443,"ĠHart":13444,"Ġsurve":13445,"stan":13446,"}}^":13447,"ĠIndones":13448,"reason":13449,"ĠDir":13450,"ĠPlaces":13451,"ĠTOP":13452,"ĠSenior":13453,"Ġrating":13454,"Ġgro":13455,"Ġdiversity":13456,"ulus":13457,"omot":13458,"labels":13459,"listener":13460,"qual":13461,"===":13462,"Ġ'-":13463,"loaded":13464,"sz":13465,"except":13466,"Ġprintf":13467,"ĠAtlantic":13468,"Ġscoring":13469,"ĠĠĠĠĠĠĠĠĠĠĠĠĠĠĠĠĠĠĠĠĠĠĠĠĠĠĠĠĠĠĠĠĠĠĠĠĠĠ":13470,"ĠKevin":13471,"Ġexplains":13472,"Ġpilot":13473,"Decimal":13474,"Ġopposed":13475,"ĠOk":13476,"`)":13477,"Oh":13478,"Ġwelcome":13479,"agan":13480,"there":13481,"ighth":13482,"TERN":13483,"Ġpredictions":13484,"Ġrepeat":13485,"uris":13486,"rtl":13487,"Mount":13488,"ĠGenerated":13489,"Tracker":13490,"orts":13491,"Ġtriple":13492,"latest":13493,"Ġride":13494,"Ġappearances":13495,"opam":13496,"Ġracing":13497,"argo":13498,"ĠDoes":13499,"ĠIndiana":13500,"iot":13501,"Sharp":13502,"rock":13503,"Ġbaby":13504,"Ġownership":13505,"Ġleaf":13506,",.":13507,"ipedia":13508,"SOURCE":13509,"Ġrapidly":13510,"Push":13511,"ĠHollywood":13512,"hou":13513,"1953":13514,"Ġpointed":13515,"Pixel":13516,"City":13517,"Ok":13518,"ĠPolish":13519,"ĠBudd":13520,"Anim":13521,"ordinate":13522,"Special":13523,"sure":13524,"Ġspoke":13525,"ĠAffairs":13526,"ĠAnderson":13527,"Ġfootballer":13528,"ĠTarget":13529,"isode":13530,"Fixture":13531,"Ġkw":13532,"Qt":13533,"Ġresolved":13534,"cccc":13535,"enny":13536,"ige":13537,"angel":13538,"ĠCC":13539,"arance":13540,"'].":13541,"RESS":13542,"ĠDoc":13543,"Ġnamely":13544,"Primary":13545,"Ġquiet":13546,"iem":13547,"ĠOP":13548,"usted":13549,"Ġcourses":13550,"ĠEmer":13551,"flush":13552,"Ġdefinitions":13553,"Ġinherited":13554,"continue":13555,"LD":13556,"iph":13557,"ĠCP":13558,"104":13559,"identity":13560,"Ġperiods":13561,"ĠQueens":13562,"ĠYes":13563,"riers":13564,"Ġescap":13565,"Ġmaintenance":13566,"Expect":13567,"Mr":13568,"prob":13569,"ĠMaria":13570,"ĠLiter":13571,"su":13572,"cmp":13573,"Ġdocumentary":13574,"INSERT":13575,"Ġinterpretation":13576,"Ġfired":13577,"ĠVar":13578,"aux":13579,"ellect":13580,"rink":13581,"ĠTennessee":13582,"ĠSav":13583,"Ġdrawing":13584,"tz":13585,"Ġbatt":13586,"}))":13587,"fragment":13588,"Ġdense":13589,"Ġhal":13590,"IES":13591,"ĠMemorial":13592,"Ġyes":13593,"Ġinfection":13594,"TextView":13595,"ĠDiego":13596,"Good":13597,"ĠConvert":13598,"DED":13599,"Ġlect":13600,"çĶ¨":13601,"Ġmissed":13602,"joint":13603,"statsmodels":13604,"flix":13605,"Ġassignment":13606,"Pal":13607,"Ġairport":13608,"ÐµÑĤ":13609,"Ġsight":13610,"rence":13611,"Ġcontributed":13612,"sale":13613,"Stage":13614,"Ġbroke":13615,"ĠNaz":13616,"ĠInv":13617,"Ġsustainable":13618,"HOUT":13619,"ugging":13620,"Ġscan":13621,"Ġprocedures":13622,"noframe":13623,"Ġinvolves":13624,"RS":13625,"ASH":13626,"Ġmembership":13627,"ĠNull":13628,"Ġentities":13629,"Ġaddr":13630,"esture":13631,"Ġ*,":13632,"Und":13633,"Ġgiant":13634,"Injection":13635,"Peer":13636,"fghan":13637,"%\"><":13638,"appoint":13639,"ĠAmong":13640,"\\|_{":13641,"plicity":13642,"cribed":13643,"Ġcalendar":13644,"weg":13645,"algorithm":13646,"rep":13647,"Ġentertainment":13648,"filters":13649,"Ġbanks":13650,"Ġsampling":13651,"Ġlob":13652,"Ġhelper":13653,"ĠNorm":13654,"Ġdefeat":13655,"_-":13656,"Ġfacts":13657,"Ġsoci":13658,"Ġmolecular":13659,"riends":13660,"$;":13661,"failed":13662,"ĠRetri":13663,"Ġpermanent":13664,"utdown":13665,"linked":13666,"ĠDuke":13667,"Geometry":13668,"Ġisinstance":13669,"matches":13670,"cn":13671,"ĠSher":13672,"ĠAst":13673,"ousel":13674,"ĠExp":13675,"Ġbigger":13676,"Ġvictims":13677,"ĠStudy":13678,"delay":13679,"Ip":13680,"LES":13681,"ĠLeon":13682,"iva":13683,"Ġproduces":13684,"Qual":13685,"Ġconvergence":13686,"what":13687,"slot":13688,"ulum":13689,"\"])":13690,"Ġintention":13691,"mitter":13692,"ĠOpt":13693,"camel":13694,"('./":13695,"Ġinnovation":13696,"pn":13697,"ï¿":13698,"Tri":13699,"ViewController":13700,"Ġstroke":13701,"riterion":13702,"dn":13703,"iest":13704,"noise":13705,"Ġbrands":13706,"/)":13707,"Plot":13708,"Ġconcrete":13709,"listen":13710,"Ġlegacy":13711,"NI":13712,"ĠCastle":13713,"lu":13714,"Î»":13715,"\\{\\":13716,"sass":13717,"payload":13718,"Ġexclusive":13719,"Ġexplos":13720,"SSAGE":13721,"ĠLank":13722,"price":13723,"Ġmath":13724,"×Ļ":13725,"1949":13726,"ĠSweden":13727,"tm":13728,"redirect":13729,"Ġreligion":13730,"Ġprocessed":13731,"Ġemphas":13732,"egas":13733,"parallel":13734,"inch":13735,"Formatter":13736,"Ġcommitment":13737,"Worker":13738,"ĠMit":13739,"Ġmine":13740,"guide":13741,"Ġwalking":13742,"changes":13743,"Ġrespective":13744,"lr":13745,"tile":13746,"Ġfib":13747,"=\"{{":13748,"Na":13749,"ĠIllegalArgumentException":13750,"represent":13751,"/(":13752,"Modified":13753,"Ġexpr":13754,"stylesheets":13755,"emetery":13756,"Ġforget":13757,"DataType":13758,"aza":13759,"Ġreward":13760,"Polit":13761,"ĠFellow":13762,"Ġflash":13763,"Ġencoded":13764,"Ġ$('#":13765,"ĠMaryland":13766,"ĠBurn":13767,"Seq":13768,"Ġclosing":13769,"ĠGree":13770,"vard":13771,"ĠVice":13772,"Ġchose":13773,"mapsto":13774,"decode":13775,"unknown":13776,"Ġpiano":13777,"Ġequality":13778,"ĠTen":13779,"yc":13780,"ĠTerr":13781,"Ġfaced":13782,"Updated":13783,"ativity":13784,"Following":13785,"istributed":13786,"flu":13787,"Ġbeauty":13788,"GRO":13789,"hus":13790,"FLAG":13791,"theless":13792,"_[":13793,"Who":13794,"Ġroots":13795,"Ġacknowled":13796,"Ġillegal":13797,"ĠGraph":13798,"Ġdeclare":13799,"oust":13800,"ĠCooper":13801,"Ġfemales":13802,"jackson":13803,"Side":13804,"Ġ<?":13805,"inction":13806,"Ġcls":13807,"ĠCop":13808,"Ġrein":13809,"Ġanalys":13810,"Ġhosts":13811,"xsd":13812,"Ġns":13813,"refresh":13814,"Ġhero":13815,"ĠDateTime":13816,"antry":13817,"Intent":13818,"xygen":13819,"surface":13820,"555":13821,"Wrap":13822,"ĠML":13823,"Try":13824,"Ġdebt":13825,"Ġcircumstances":13826,"ĠMissouri":13827,"ĠTrack":13828,"Monitor":13829,"'},":13830,"Fetch":13831,"Ġuniversal":13832,"Ġwine":13833,"Bridge":13834,"Alert":13835,"Ġgravity":13836,"ĠSix":13837,"ĠHost":13838,"beans":13839,"Ġvoters":13840,"ruct":13841,"former":13842,"Ġmixing":13843,"Mc":13844,"ctors":13845,"urches":13846,"Ġconsisting":13847,"Ġfoundation":13848,"CUR":13849,"comb":13850,"Willi":13851,"projects":13852,"character":13853,"inema":13854,"ders":13855,"Ġtuple":13856,"peror":13857,"medium":13858,"owntown":13859,"ĠPHP":13860,"ĠTony":13861,"Ġconsumption":13862,"Ġhybrid":13863,"ĠJews":13864,"ĉĉĉĉĉĉĉĉĉĉĉ":13865,"Theorem":13866,"Ġembedded":13867,"Ġprofiles":13868,"metic":13869,"Ġchallenging":13870,"apps":13871,"Ġsubmitted":13872,"Ġwheel":13873,"Ġcanonical":13874,"ĠBreak":13875,"ĠDemocrats":13876,"Ġbon":13877,"bling":13878,"ĠOtherwise":13879,"Ġdress":13880,"Ġ(#":13881,"witzer":13882,"uties":13883,"thumb":13884,"thew":13885,"1951":13886,"ĠDog":13887,"900":13888,"ĠHouston":13889,"1900":13890,"omer":13891,"Ġdismiss":13892,"ĠWel":13893,"Ġpainting":13894,"Unique":13895,"Ġinclusion":13896,"ĠERR":13897,"Ġcomposer":13898,"Enumerable":13899,"processor":13900,"Ġsought":13901,"translate":13902,"nie":13903,"ĠModule":13904,"Ġbelongs":13905,"ĠPa":13906,"Ġconsequence":13907,"Ġrestore":13908,"æĹ":13909,"Ġfault":13910,"Pane":13911,"ĠPed":13912,"Ġinverse":13913,"Ġranked":13914,"vars":13915,"Ġrisks":13916,"Ġboat":13917,"Ġvoting":13918,"Ġcoefficient":13919,"ĠOK":13920,"igator":13921,"Ġhonest":13922,"BACK":13923,"Ġsi":13924,"ĠCovid":13925,"OTTOM":13926,"Ġhealthcare":13927,"allas":13928,"uffix":13929,"ĠSymbol":13930,"ĠHotel":13931,"Ġmunicipal":13932,"Keyword":13933,"Visual":13934,"Ġamounts":13935,"oi":13936,"Ġsevent":13937,"Ġboys":13938,"ĠMAX":13939,"ADDING":13940,"Ġcp":13941,"ĠMobile":13942,"ceived":13943,"Ġ========":13944,"Ġec":13945,"Operand":13946,"profit":13947,"Ġmanagers":13948,"Ġsynd":13949,"Chart":13950,"agu":13951,"ĠLI":13952,"charge":13953,"509":13954,"best":13955,"ĠSu":13956,"Ġcomprehensive":13957,"Ġstead":13958,"Ġpopulations":13959,"Ġinstallation":13960,"Ġbear":13961,"ainian":13962,"Ġsurgery":13963,"Ġroof":13964,"bundle":13965,"Testing":13966,"bone":13967,"Ġtrim":13968,"pagination":13969,"ĠSize":13970,"Modifier":13971,"ĠOCaml":13972,"elled":13973,"Setup":13974,"erialize":13975,"Ġstood":13976,"ĠEffect":13977,"Ġexhibition":13978,"olves":13979,"oids":13980,"|}":13981,"')->":13982,"Ġranges":13983,"118":13984,"texture":13985,"Ġinjured":13986,"Ġdipl":13987,"orne":13988,"eras":13989,"eno":13990,"Ġenemy":13991,"Ġsees":13992,"tah":13993,"Business":13994,"Ep":13995,"Ġreducing":13996,"witzerland":13997,"ĠFound":13998,"Ġjoining":13999,"San":14000,"ĠImport":14001,"Ġrevolution":14002,"Ġ\"_":14003,"Ġgenerating":14004,"proposition":14005,"512":14006,"ĠMarc":14007,"ĠÐ¸":14008,"Speed":14009,"ĠCS":14010,"etr":14011,"Ġsav":14012,"Ġox":14013,"Ġ\";":14014,"Ġdefaults":14015,"]</":14016,"iche":14017,"pipe":14018,"avicon":14019,"Î·":14020,"ĠAgr":14021,"ĠExpress":14022,"White":14023,"ĠÃł":14024,"hematics":14025,"Ġorientation":14026,"ĠMIT":14027,"Ġenvironments":14028,"ĠCHE":14029,"Ġcounts":14030,"Ġengaged":14031,"eah":14032,"NP":14033,"VP":14034,"execution":14035,"Ġforth":14036,"Ġsegments":14037,"aware":14038,"Ġsituations":14039,"Ġbott":14040,"ĠPier":14041,"estab":14042,"Ġ',":14043,"Ġintermediate":14044,"ĠPlatform":14045,"ĠPDF":14046,"aque":14047,"Ġparticipated":14048,"NECT":14049,"coln":14050,"western":14051,"Ġupcoming":14052,"lope":14053,"ĠKhan":14054,"icates":14055,"schemas":14056,"negative":14057,"Ġlosses":14058,"ARB":14059,"Assembly":14060,"vi":14061,"107":14062,"usage":14063,"Ġequals":14064,"SPACE":14065,"(\".":14066,"Ġappeal":14067,"CLA":14068,"ĠPlayer":14069,"ĠSilver":14070,"404":14071,"Ġadjacent":14072,"æĪ":14073,"ĠDim":14074,"ĠMicro":14075,"Detector":14076,"1918":14077,"Ġregardless":14078,"ĠManchester":14079,"Delay":14080,"Ġconservation":14081,"Ġheavily":14082,"ĠOptions":14083,"Ġaccused":14084,"ĠSimon":14085,"Ġfalls":14086,"Repe":14087,"making":14088,"itro":14089,"mdc":14090,"includes":14091,"Ġwrapper":14092,"Ġ\\&":14093,"Price":14094,"âĢĻ,":14095,"Ġquark":14096,"Ġtalks":14097,"Ġkil":14098,"ĠStand":14099,"ĠDatabase":14100,"START":14101,"Fix":14102,"ptic":14103,"Ġgrown":14104,"Ġgraphs":14105,"CRIPT":14106,"Accessor":14107,"ĠIndeed":14108,"ĠBasic":14109,"tery":14110,"ĠIowa":14111,"ĠFinancial":14112,"Ġexponential":14113,"Ġjournalist":14114,"Ġtraject":14115,"fred":14116,"ï¿½":14117,"awesome":14118,"Share":14119,"umin":14120,"extensions":14121,"GP":14122,"ĠFa":14123,"ubernetes":14124,"ĠClark":14125,"1936":14126,"0001":14127,"cerning":14128,"Through":14129,"segment":14130,"Ġreaching":14131,"Ġgraduated":14132,"dispatch":14133,"multip":14134,"Ġdispatch":14135,"tik":14136,"ACING":14137,"frames":14138,"Ġtries":14139,"Ġannotation":14140,"ĠAthlet":14141,"Ġsender":14142,"ĠAmb":14143,"Ġpictures":14144,"ducer":14145,"Models":14146,"ĠKy":14147,"Ġå":14148,"Ġaged":14149,"burn":14150,"ĠJam":14151,"Therefore":14152,"Ġsweet":14153,"Ġmedicine":14154,"Matcher":14155,"ividual":14156,"ĠWhit":14157,"ashes":14158,"Ġregulations":14159,"uning":14160,"rig":14161,"Ġmac":14162,"ĠStop":14163,"HasBeen":14164,"city":14165,"fw":14166,"Ġcollections":14167,"getAttribute":14168,"Alias":14169,"Ġemployment":14170,"__.":14171,"Ġattempted":14172,"ĠHop":14173,"Distance":14174,"train":14175,"Ġemotional":14176,"ĠIgn":14177,"elasticsearch":14178,"ventions":14179,"oscow":14180,"Ġheads":14181,"ĠMaterial":14182,"ĠRegional":14183,"Ġaccord":14184,"Ġthoughts":14185,"Ġ[\\":14186,"rowse":14187,"ĠPhilippines":14188,"ĠRender":14189,"dbc":14190,"Ġcompetitive":14191,"hill":14192,"ĠSP":14193,"ĠMalays":14194,"Ġmaintained":14195,"Ġenables":14196,"urse":14197,"Ġdollars":14198,"Ġsessions":14199,"delegate":14200,"ibernate":14201,"ĠLearning":14202,"ĠTog":14203,"*\\":14204,"Comparison":14205,"Words":14206,"Ġatmosphere":14207,"Ġ//!":14208,"Ġgit":14209,"Ġconsecutive":14210,"Given":14211,"ĠSpr":14212,"izard":14213,"ternoon":14214,"Metric":14215,"Ġtrading":14216,"defer":14217,"Design":14218,"Ġpayments":14219,"ĠEver":14220,"ĠScient":14221,"ÏĤ":14222,"ints":14223,"ĠPatrick":14224,"etal":14225,"Ġendif":14226,"Circ":14227,"Ġdisorder":14228,"Iss":14229,"ĠVi":14230,"MEM":14231,"è®":14232,"stub":14233,"who":14234,"ĠMilitary":14235,"ĠThose":14236,"anted":14237,"abama":14238,"Ġrising":14239,"Ġstake":14240,"ĠJay":14241,"OFF":14242,"MenuItem":14243,"Need":14244,"Ġinflation":14245,"urers":14246,"ĠProm":14247,"Ġnotification":14248,"Live":14249,"ĠTraining":14250,"Ġreliable":14251,"ĠUsed":14252,"Ġbare":14253,"etc":14254,"erd":14255,"ĠBab":14256,"DITION":14257,"=-=-":14258,"Ġmales":14259,"Ġpossess":14260,"wick":14261,"ĠHarris":14262,"ĠTrade":14263,"steps":14264,"substring":14265,"Rich":14266,"Ġelectro":14267,"ĠGab":14268,"Ġauthentication":14269,"leton":14270,"ĠLabel":14271,"ĠLock":14272,"ĠINTO":14273,"ologists":14274,"ĠCaptain":14275,"Ġfoo":14276,"calcul":14277,"\"?>":14278,"aval":14279,"idal":14280,"Dict":14281,"Dig":14282,"Ġĉ":14283,"Ġswim":14284,"measure":14285,"tv":14286,"Suppress":14287,"Ġexciting":14288,"Ġincorrect":14289,"Ġdiscrete":14290,"Ġdescribing":14291,"running":14292,">{":14293,"aro":14294,"Lcom":14295,"efe":14296,"prepare":14297,"ras":14298,"pal":14299,"Operations":14300,"RAM":14301,"Der":14302,"Ġcrypt":14303,"allest":14304,"Ġticket":14305,"ĠDictionary":14306,"popup":14307,"ĠHashMap":14308,"LAB":14309,"ĠRoy":14310,"ĠStone":14311,"scripts":14312,"Ġdirections":14313,"conditions":14314,"proc":14315,"Ġapproval":14316,"âĢĻ.":14317,"Ġdiver":14318,"192":14319,"oven":14320,"Ġnan":14321,"ĠPalest":14322,"ĠAllen":14323,"Structure":14324,"LR":14325,"ĠĠčĊ":14326,"Ġfranch":14327,"````":14328,"sson":14329,"Ġeg":14330,"setText":14331,"Even":14332,"attrs":14333,"ĠBORDER":14334,"ĠJoh":14335,"Ġsigning":14336,"Ġcolle":14337,"Tip":14338,"Ġsyntax":14339,"Ġrestricted":14340,"]['":14341,"subNav":14342,"pixel":14343,"ĠMun":14344,"ĠBureau":14345,"Bitmap":14346,"etition":14347,"Ġtimer":14348,"ĠRelease":14349,"asma":14350,"1938":14351,"Pipeline":14352,"factor":14353,"ĠDue":14354,"Mal":14355,"east":14356,"Ġtrivial":14357,"Ġbrown":14358,"Ġflows":14359,"oni":14360,"sent":14361,"Ġveget":14362,",...":14363,"Ġstronger":14364,"ubb":14365,"MIT":14366,"ĠMembers":14367,"Ġinvited":14368,"reduce":14369,"ĠGit":14370,"Ġham":14371,"ĠMiami":14372,"SPE":14373,"INIT":14374,"Ġputs":14375,"nold":14376,"Ġregularly":14377,"ĠArticle":14378,"Ġocean":14379,"Attrib":14380,"ĠConsider":14381,"Ġtitled":14382,"stock":14383,"rett":14384,"ĠCache":14385,"ĠEag":14386,"ĠRound":14387,"SUCCESS":14388,"HasBeenSet":14389,"ĠMemory":14390,"Lem":14391,"Ġfunctionality":14392,"Ġcontinuing":14393,"ĠPur":14394,"fm":14395,"Ġrepresentations":14396,"ĠPrivacy":14397,"rollers":14398,"heel":14399,"Ġmunicipality":14400,"setting":14401,"allowed":14402,"dtd":14403,"describe":14404,"ĠTa":14405,"Ġmerged":14406,">../":14407,"Ġnovels":14408,"Ġrefresh":14409,"Ġrealized":14410,"Lat":14411,"kh":14412,"Ġboundaries":14413,"ĠHu":14414,"Ġtowns":14415,"Ġconform":14416,"umul":14417,"mg":14418,"Ġstrategic":14419,"ĠDCHECK":14420,"Scheme":14421,"ctree":14422,"uther":14423,"roit":14424,"Destroy":14425,"January":14426,"Without":14427,"fish":14428,"lobe":14429,"Ġmillions":14430,"Hello":14431,"Ġrevers":14432,"Done":14433,"__,":14434,"ensing":14435,"SB":14436,"ĠGard":14437,"Ġdominant":14438,"notification":14439,"ĠBan":14440,"ropolitan":14441,"ĠSn":14442,"enix":14443,"Ġlots":14444,"uber":14445,"oker":14446,"Hy":14447,"Ġur":14448,"Ġblank":14449,"ĠSelf":14450,"Tog":14451,"103":14452,"Grad":14453,"Ġchecking":14454,"Ġtip":14455,"pection":14456,"geometry":14457,"Ġbos":14458,"packages":14459,"Ġdiseases":14460,"ĠAz":14461,"Ġbaseline":14462,"Ġwrest":14463,"plica":14464,"Replace":14465,"$),":14466,"1937":14467,"Ġtelling":14468,"gp":14469,"cv":14470,"Transfer":14471,"Ġtough":14472,";%":14473,"Ġoffices":14474,"Ġunexpected":14475,"115":14476,"Ġdistricts":14477,"Paths":14478,"Ġreleases":14479,"Ġdiscipl":14480,"ĠNSString":14481,"Ġsensor":14482,"WARE":14483,"Green":14484,"ĠMas":14485,"fluid":14486,"Ġrear":14487,"adapter":14488,"ĠMand":14489,"Ġdies":14490,"Ġpicked":14491,"Ġdx":14492,"ĠÐº":14493,"ĠDebug":14494,"Ġiteration":14495,"Ġcomputational":14496,"Ġutility":14497,"ARRAY":14498,"ymmetry":14499,"cosystem":14500,"}$)":14501,"Ġdesigns":14502,"Ġslowly":14503,"odge":14504,"ĠCook":14505,"Ġcompilation":14506,"Score":14507,"added":14508,"Ġencode":14509,"ĠPred":14510,"rik":14511,"servlet":14512,"FM":14513,"Ġsoul":14514,"andidate":14515,"Ġconventional":14516,"Ġmechanisms":14517,"ĠRab":14518,"ĠEN":14519,"escape":14520,"Popup":14521,"Ġsorted":14522,"TableRowColor":14523,"Ġpanels":14524,"oli":14525,"ĠNation":14526,"Ġdele":14527,"ĠBry":14528,"elson":14529,"ĠToken":14530,"Ġrooms":14531,"metrics":14532,"ĠLib":14533,"Ġnormally":14534,"Factor":14535,"Ġpresidential":14536,"ĠLeb":14537,"Ġcoffee":14538,"team":14539,"*>(":14540,"Äĥ":14541,"Ġsubsid":14542,"ĠEarly":14543,"------------------------------------------------":14544,"Ã¼r":14545,"Separator":14546,"wich":14547,"ĠThird":14548,"Ġ'@":14549,"cluding":14550,"cost":14551,"owski":14552,"/***/":14553,"Ġcomplicated":14554,"ĠKit":14555,"ATURE":14556,"Must":14557,"Ġcenters":14558,"ĠConstitution":14559,"ikes":14560,"Ġrenamed":14561,"Ġengineer":14562,"maxcdn":14563,"algebra":14564,"Ġplenty":14565,"gressive":14566,"ĠPod":14567,"Lines":14568,"ropic":14569,"${\\":14570,"Feb":14571,"Ġaims":14572,"Ġmining":14573,"Li":14574,"350":14575,"Ġsurprise":14576,"Ġunus":14577,"144":14578,"Ġmarker":14579,"ĠTemple":14580,"peg":14581,"mont":14582,"maker":14583,"Ġslice":14584,"Ġtoler":14585,"secret":14586,"################################":14587,"oly":14588,"ĠSingle":14589,"ĠGirl":14590,"VC":14591,"Ġretrieve":14592,"Ġprecisely":14593,"Ġprinciples":14594,"Women":14595,"Mean":14596,"Ġvocal":14597,"uscript":14598,"Ġcosm":14599,"Pending":14600,"fac":14601,"orry":14602,"exact":14603,"ecess":14604,"separator":14605,"Ġ.=":14606,"issip":14607,"Temp":14608,"achelor":14609,"Ġpup":14610,"onna":14611,"Certificate":14612,"toolbar":14613,"ĠAnthony":14614,")+\\":14615,"Merge":14616,"ĠAdditionally":14617,"106":14618,"Blob":14619,"Ġsatisfying":14620,"strument":14621,"SUB":14622,"ĠØ§":14623,"XY":14624,"eros":14625,"preview":14626,"Ġbirds":14627,"insic":14628,"endment":14629,"ĠWITHOUT":14630,"ĠVietnam":14631,"Trigger":14632,"Lite":14633,"Ġanticip":14634,"Ġcomplement":14635,"ĠLas":14636,"COUNT":14637,"paths":14638,"ROOT":14639,"Ready":14640,"Used":14641,"March":14642,"Ġ\"[":14643,"Ġ\")":14644,"valueOf":14645,"Ġwed":14646,"Ġassault":14647,"Ġcarrying":14648,"1919":14649,"Ġalive":14650,"walk":14651,"oser":14652,"ĠStudent":14653,"ĠSwedish":14654,"ardo":14655,"Ġtrials":14656,"ĠPAR":14657,"ĠRange":14658,"Ġupgrade":14659,"ĠPhilip":14660,"ĠHave":14661,"Ġcredentials":14662,"ITLE":14663,"Ġturb":14664,"Ġdatasets":14665,"pending":14666,"Ġemissions":14667,"cx":14668,
[...]
