#version: 0.2
Ġ Ġ
Ġ t
i n
h e
ĠĠ ĠĠ
Ġ a
o n
e r
r e
a t
Ġt he
e n
o r
s t
a n
a l
i t
a r
Ġ c
Ġ o
e d
Ġ s
e s
Ġ w
i on
i s
Ġ f
Ġ p
l e
n d
in g
Ġ in
i c
Ġo f
Ġ b
r o
ĠĠ Ġ
a s
ĠĠĠĠ ĠĠĠĠ
Ġ d
Ġa nd
Ġ m
o u
e t
c t
en t
Ġt o
e l
a m
i l
o m
Ġ h
Ġ re
Ġ S
i g
Ġ n
o l
Ġt h
Ġ (
Ġ T
at ion
i d
a c
Ġ C
i m
Ġ \
Ġ A
Ġ e
Ġ l
o t
u r
Ġ $
u t
i v
a d
s e
Ġ is
Ġ M
u l
c e
ĠĠĠĠ ĠĠĠ
Ġf or
Ġ g
o w
a y
Ġ I
o d
a g
c h
e m
u n
Ġ =
l y
u s
Ġ on
i f
Ġ P
Ġ B
er s
Ġ st
u m
a b
i r
Ġ v
Ġb e
i st
it h
ĉ ĉ
2 0
â Ģ
a p
t h
q u
< /
at e
Ġ H
t er
Ġa s
Ġ R
Ġc on
p e
Ġ D
= "
Ġ F
o c
v er
Ġ L
1 9
Ġw ith
) ;
an d
Ġth at
č Ċ
r i
h t
a v
Ġ {
ct ion
Ġa l
he r
en d
ĠT he
e x
Ġ N
- -
re s
o p
Ġw as
_ {
Ġ W
Ġ G
Ġa n
e st
a in
Ġp ro
u p
Ġ <
as s
e w
u b
o s
Ġb y
Ġ E
es s
Ġd e
ro m
Ġ "
or t
at h
it y
am e
ĠĠĠĠĠĠĠĠ ĠĠĠ
Ġw h
Ġa t
t r
/ /
ar t
Ġc om
p t
ou r
Ġ r
Ġ it
o re
al l
e g
Ġ *
Ġe x
u e
in e
Ġ J
p l
il l
ig ht
Ġf rom
i es
Ġ Ċ
ag e
Ġc l
Ġ O
a k
e ct
u re
m ent
Ġ he
{ \
Ġ or
n t
Ġ }
Ġa re
Ġ &
Ġs e
i al
an t
o g
u d
iv e
g e
c l
Ġ$ \
ac k
i z
b er
l d
" >
' s
e f
Ġ y
an s
ul t
ex t
a st
Ġth is
re f
Ġ U
p ort
m ath
ar d
p er
Ġt r
ĠĠĠĠĠĠĠĠ ĠĠĠĠĠĠĠĠ
c on
0 0
T he
i p
o v
at ed
Ġw e
. .
ar y
ur n
20 1
el l
Ġc h
it e
u nd
Ġ K
or m
ic h
ĠĠĠĠ Ġ
u st
a ct
i a
Ġs h
) ,
ig n
a re
ab le
in t
s p
Ġp l
f f
* *
or d
p h
u g
Ġn ot
Ġ le
it ion
i re
ic al
Ġ k
av e
Ġ -
on g
o st
ĠI n
i an
( )
ac e
} \
Ġcl ass
an g
} $
âĢ ĵ
I n
e p
ou t
as e
Ġcom p
^ {
Ġ if
in d
f t
t urn
Ġ V
y pe
c om
ĠS t
od e
o k
l i
or k
p ro
im e
m a
id e
i le
en s
g et
ic e
st r
Ġ '
t o
u c
-- --
âĢ Ļ
= =
er v
s o
ation s
Ġh is
) .
e ar
Ġwh ich
e y
en c
Ġ us
en ce
ub l
20 0
il d
ion s
f r
Ġ |
e c
at a
Ġw he
r a
Ġre s
Ġ un
t ext
Ġ j
t her
Ġh ave
i b
er e
ĠC h
Ġc an
Ġa r
j ect
or y
f orm
is h
Ġh as
an ce
} }
l ow
Ġa d
ou s
( \
ou ld
t a
ac h
e v
ĠĠĠĠĠĠĠĠ ĠĠĠĠĠĠĠ
Ġa p
Ġcon t
c al
Ġa b
m er
Ġ im
1 8
eg in
o b
ro w
res s
b egin
u se
Ġre turn
Ġn ew
ow n
ĠT h
ir st
c c
en er
ubl ic
oc k
er t
un ction
ent s
Ġal so
a il
Ġw ere
e qu
al ue
ou nd
ou nt
f er
Ġ //
re e
ri b
l l
1 0
Ġ +
r y
o ver
ic t
Ġ [
) $
am p
r it
_{ \
he d
Ġal l
ol d
ar k
or s
ĉĉ ĉĉ
- >
er m
u al
cl ud
on e
om e
ter n
Ġon e
: :
f ig
C on
} ,
at es
ab el
in k
t e
Ġp art
our ce
Ġb ut
ar am
Ġ </
w o
o se
in al
i k
S t
r ight
u ct
.. /
" ,
Ġ ro
s et
Ġd is
i el
} {
ul l
Ġo ut
Ġst r
E x
Ġ Y
w e
s s
el f
Ġthe ir
Ġs p
t he
iz e
el y
ĠU n
s c
r ap
Ġ| |
ic k
Ġp r
Ġ up
ic s
Ġy ou
Ġf irst
e q
r m
n g
fr ac
Ġ @
u ch
ĠH e
Ġe v
le ct
Ġs c
iel d
ĠI t
s h
Ġde f
o ol
pt ion
Ġit s
f ter
Ġs et
Ġm e
p s
Ġ /
Ġo b
y st
Ġpl ay
Ġp er
Ġ âĢ
et h
Ġ qu
o int
at er
d iv
i ew
Ġm od
Ġw ill
ing s
c ite
pe ct
Ġh ad
ation al
o ok
p ut
Ġin t
re d
m l
Ġd o
pe c
ak e
Ġo ther
i x
Ġ .
i o
a w
Ġ âĢĵ
l es
Ġf unction
Ġt e
Ġm an
p r
19 9
Ġa g
Ġwh o
r ay
Ġt wo
l abel
is s
Ġo ver
n e
math b
ro up
sp an
( "
Ġd es
( );
i e
Ġ en
ess age
1 2
i ed
yst em
l ine
er y
c ent
an c
Ġw ork
s um
c ess
le ment
Ġm ore
Ġ her
Ġthe y
> </
l o
Ġn ame
Ġt ime
Ġc ol
ig h
Ġv ar
o ot
on d
' ,
Ġp ublic
le ft
Ġbe en
or n
m b
enc es
em ber
tr ing
a x
ul ar
Ġin ter
$ ,
---- ----
t y
um ber
l and
$ .
p os
et a
er r
on s
Ġy ear
, \
Ġs o
math cal
Ġ :
as ed
> <
m s
r am
rap h
ar g
op le
v el
le t
at ive
Ġcom m
rib ut
Ġp re
ro und
it ed
an n
c ol
Ġ und
ad e
1 6
} .
Ġn e
Ġwhe n
if ic
Ġg et
ol low
on t
} )
../ ../
c re
** **
Ġin d
Ġin to
Ġ* /
ic an
er n
Ġs ub
ĉĉ ĉ
Ġin clud
P ro
am b
at or
am es
ou g
o y
Ġp e
Ġb et
Ġs up
ug h
Ġf il
1 5
ap p
ov e
equ ation
t t
o f
w ard
im es
Ġon ly
R ef
Ġtr ans
al s
Ġre g
ou n
Ġof f
o od
o id
e b
ĠC om
Ġwhe re
== ==
) )
E R
Ġres ult
ar ch
an ge
i ent
o x
ĠTh is
ay s
} (
at ing
con d
i ous
ĠA r
ĠĠĠĠĠĠĠĠ ĠĠĠĠĠĠĠĠĠĠĠ
Ġad d
âĢ Ŀ
e e
res ent
ĠĠĠĠĠĠĠĠ Ġ
at ic
c k
1 7
en g
iv ers
Ġthe re
u ild
Ġab out
an k
} ^
Ġl ine
ht ml
~ \
Ġa ct
Ġre l
ĠN ew
Ġf ollow
} _
eth od
c he
Ġa fter
ol og
Ġl oc
( '
Ġd ata
is e
id ent
ur ing
19 8
Ġan y
Ġ end
ar s
t ain
Ġfor m
Ġas s
u es
Ġ #
th is
Ġh ref
Ġre c
Ġw ould
ph a
t on
Ġk n
Ġd if
d er
Ġa cc
Ġp os
Ġund er
at ch
Ġcon s
in ce
1 1
Ġs uch
Ġs ome
N ame
s ub
re n
d a
y n
Ġthe n
Ġp ol
y s
O N
Ġpro v
it ies
tr ans
we en
Ġs he
I N
ot h
ĠA l
T h
Ġc o
Ġth an
s ource
Ġd ist
ĠP ro
Ġt ype
Ġv alue
ist s
as h
ire ct
it s
n ame
Ref er
m essage
Ġ i
ab l
al pha
u res
r al
is hed
id th
T ype
Ġn o
ri pt
s on
or ld
l ation
Ġat t
ĠS e
m in
Ġin v
Ġo p
p aram
w n
1 3
Ġus ed
1 4
Ġsh ow
Ġg ener
em ent
Ġp h
d ef
at ure
in ed
Ġs pec
al ly
C om
Ġs erv
Ġbet ween
Ġ _
il ity
im port
re nt
d d
Ġf e
l ock
is ion
C h
a ir
il y
id er
Ġpe ople
Ġpro d
Ġ use
mer ican
t s
Refer ences
) \
Ġmod el
Ġre m
u ction
v e
ro ugh
S tring
ch ool
t d
Ġcon st
al se
le ction
I d
tern al
el ta
an y
Ġbe c
ib le
19 7
Ġc all
at t
Ġs im
ik e
i er
Ġre qu
ar n
Ġo ur
2 5
ĠS h
ow er
Ġ el
b all
ut ion
amb da
Ġst ud
Ġ= >
Ġm ay
as on
m an
: //
as k
in es
a id
re turn
e ad
Ġa c
c ode
o h
in s
Ġ ent
v ar
S T
y le
ic es
R E
Ġb ack
Ġc ur
$ \
b ar
a h
Ġc re
Ġm ost
b le
Ġ Z
Ġn umber
Ġ Q
oug h
iz ed
Ġdif fer
g an
/ >
ut h
oc i
ĠâĢ ľ
ĠW e
h at
mathb b
ag es
Ġe st
Ġthe m
Ġs ystem
am ma
p on
re ad
Ġin st
h ip
R es
v ent
ac he
Ġg r
ad d
u ff
pl ic
n ot
ers ion
it t
Ġs elf
u le
2 1
_ \
um ent
= \
a z
Ġd et
3 0
cl ass
al ign
Ġg o
Ġth rough
Ġe ach
Ġ\ \
us s
Ġch ar
it le
A T
it em
a ult
Ġc ase
} ^{
ot s
y m
ce ption
" />
ĠT r
Ġh im
ivers ity
m od
# #
a use
} _{
r ic
Ġ x
Ġthe se
Ġp oint
t ype
ap t
Ġ !
Ġag ain
ĠF or
Ġa m
L ist
e ver
p art
m u
Ġg iv
h o
C l
19 6
Ġc or
ig ma
Ġ ed
if e
Ġe qu
in n
Ġs m
Ġs ign
ĠC l
or th
2 2
he n
p i
ou th
Ġw ell
Ġv al
p le
ur y
ĠC on
Ġc ent
A r
Ġf ound
.. .
al e
iv er
Ġs er
eg a
trans lation
w ay
Ġf inal
se ction
Ġo per
Ġe ff
et er
a ction
ou se
o le
ut e
ht t
ĠC ol
re at
_ _
- \
Ġ `
p ar
a j
ĠA s
Ġf l
Ġyear s
ĠI nd
p ress
v al
ĠA n
Ġb r
Ġg roup
ot t
b ack
Ġ >
A R
ire d
Ġm in
amp le
^ {\
l oc
Ġm on
00 0
is m
Ġ= =
f o
T r
s erv
f or
es c
5 0
Ġl ink
iv ate
ment s
Ġse cond
iz ation
u ary
Ġth ree
) :
Ġs ame
l og
Ġre p
Ġs ur
b r
eng th
y p
s elf
v iew
Ã ©
Ġst art
I t
b y
Ġn ull
O R
Ġs ing
ph i
Ġt est
ers on
et s
Ġst ate
w ork
I D
Ġwh ile
l ambda
f ore
ĠA merican
ot e
Ġ X
Ġh ow
Ġh igh
um n
Ġe ver
Ġs ol
Ġb oth
b f
or g
Ġd uring
ĠD e
L E
over n
Ġe m
mathb f
. "
Ġus ing
g y
ĠS c
Ġl ike
Ġex t
ion al
s er
Ġar t
Ġf ield
Ġbe ing
Ġte am
"> <
Ġ err
2 4
od y
ĠF r
r on
f l
ical ly
el s
Ġdes c
Ġ --
Ġ )
Ġap pro
ant s
Ġdiffer ent
Ġ{ \
ĠĠĠĠĠĠĠĠĠĠĠĠĠĠĠĠ ĠĠĠĠĠĠĠĠĠĠĠĠĠĠĠĠ
Ġf am
ce pt
Ġtr ue
Ġl ist
f ul
ot her
k e
are d
ĠL e
t en
Ġper form
ĠE x
Ġl ong
p re
Ġd irect
Ġs aid
at her
Ġle ad
Ġv oid
Ġm ethod
W e
Ġre le
il on
ĠUn iversity
19 4
Ġm ade
t il
ar ly
e k
S S
Ġfollow ing
ĠUn ited
op t
Ġde c
Ġbe fore
Ġd r
str ing
Ġj ust
b ers
re am
w idth
w w
ro p
iv ed
per ty
Ġm ed
av a
c es
ur al
Ġy our
Ġr un
Ġn on
Ġf alse
Ġpart ic
ĠĠĠĠĠĠĠĠ ĠĠĠĠĠ
T o
ar get
m e
ro ss
Ġman y
Ġne ed
r r
3 2
in a
form ation
A L
us ic
if ied
E N
ist er
Ġcon d
he re
) );
C ol
enc y
ep s
Ġw rit
c d
c o
ar ray
ir c
math rm
g er
Ġc ould
e le
ĠĠĠĠ ĠĠ
Ġor der
Ġr ight
\ \
ak ing
s igma
olog y
ain s
ĠM ar
O b
ĠI s
Ġn ow
Ġwh at
-------- --------
' t
**** ****
b eta
ro l
l ang
ist ory
g ram
ild e
an e
Ġel se
l ed
// //
en n
con t
* }
Ġt erm
oh n
o ber
Ġsup port
oot ball
ition s
pl ay
Ġp aram
Ġm ain
Â ł
Ġsh ould
a f
Ġm at
d ata
d uc
as es
Ġgiv en
Ġdis c
vel op
^{ -
2 3
D ata
Ġo wn
ĠE ng
m p
Ġb el
ul ation
if y
m ed
Ġm em
iv ing
c ur
t ing
tr y
Ġb l
k ey
l er
are nt
Ġde velop
) }
al ity
en se
n ew
Ġ( \
ĠO n
Ġp op
Ġ z
Ġm ov
O n
iss ion
ra w
ro ll
ic a
Ġg u
le y
ĠS he
Ġb uild
ĠB r
Ġlink s
in clud
" );
fig ure
n er
1 00
Ġre ad
qu e
re g
ual ly
Ġ id
U n
ain ing
f ace
un e
iv es
Ġrec ord
v alue
Ġob ject
s y
Ġf act
om en
Ġm y
c ed
+ \
iv ely
Ġh and
ĠCom m
] {
ĠĠĠĠĠĠĠĠĠĠĠĠĠĠĠĠ ĠĠĠĠĠĠĠ
Ġever y
Ġcons ider
at us
p x
ĠP l
p end
Ġplay ers
str uct
V alue
Ġcont in
A s
ist r
19 5
ch n
ĠP r
Ġf in
er ing
g amma
" )
Ġb ro
Ġo pt
a u
ent ial
Ġf our
f ile
F or
et work
ĠP h
the ta
re qu
le x
ar ge
Ex ternal
. ,
og raph
Ġap pe
o ad
ro id
Ġbec ause
Ġf r
Ġpro cess
Ġcur rent
i or
d ate
^ \
Ġor ig
Ġl ast
Ġinclud ing
Ġkn own
ord er
S E
Ġk ey
Ġs ince
ĠM ay
Ġse e
Ġsm all
Ġ/ **
g r
Ġfil m
t est
b um
Ġc he
ĠS p
le q
Ġm et
r ho
Ġagain st
" .
S et
port s
201 8
d ay
Ġl ater
ac es
Ġstr ing
i ence
g round
Ġp ass
Ġ& &
col or
ĠSt ates
ect or
} {\
Ġdo es
Ġto p
20 19
E n
Ġop en
Ġm ake
B y
a i
Ġre sp
ep end
re en
Ġpr ivate
Ġex per
Ġc r
Ġd id
it al
re m
ar ri
==== ====
uc cess
l p
Ġse ason
os s
A N
2 7
u ro
d elta
4 0
al k
ect ed
Ġloc al
he ad
ar row
m ary
ch i
] ;
C T
ir d
at s
it ial
' )
Ġev en
Ġa v
Ġst atic
Ġstr uct
ar m
I T
ĠO r
2 6
th s
ount y
$ -
Ex ception
i um
D E
Ġeff ect
Ġs chool
ag ue
Ġv ery
ĠA nd
2 8
t ime
ĠH ow
ta u
l ob
sc ript
Th is
Ġf ind
lect ed
ab ility
( $
ĠJ ohn
d is
uc k
f ield
b e
Ġap p
S h
in ter
Ġp resent
Ġhe ad
Ġim port
Ġser ies
b ig
201 6
loc ation
us h
201 7
Ġdes ign
n b
qu ad
rr or
ri x
Ġchar act
ar i
ĠI f
}$ ,
se c
Ġev ent
com m
ĠR e
}$ .
Ġvar i
p m
I nd
] ,
uth or
Ġ u
tern ational
t imes
un c
Ġre ce
ver t
ĠJ ul
Ġim p
eq ref
o ard
Ġp res
Ġb ased
Con t
iv al
s k
Ġ// /
ĠW orld
v ious
ag er
p or
Ġch ild
3 3
ĠA d
Ġresult s
M E
Ġt itle
s ize
} (\
A l
Ġrep resent
Ġle ft
A n
et ers
ĠR es
our n
Ob ject
Ġal low
id es
n ess
201 5
oc ument
Ġd own
Ġar g
ĠN ational
i am
v en
id ed
ur ch
M od
Ġm ult
re ak
Ġcall ed
Ġ %
Ġw ay
Ġdesc rib
ain ed
Ġg ame
s ide
ĠS tring
Ġg overn
t op
lo ad
Ġcomm un
201 4
Ġex pect
al th
ĠG r
ĠA ust
ĠC an
T est
t able
Ġ ,
ak es
G et
2 9
ĠB l
id d
ri ption
Ġc oun
am ed
is ed
et y
Ġf ootball
in ess
Ġth ose
nb sp
Ġal bum
ĠJ an
ft y
Ġfam ily
Ġe lement
ag n
Ġt em
ind ow
Ġp ar
Ġest abl
S e
Ġse ver
Ġre f
ĠâĢ Ķ
l ess
en e
in c
r ite
Ġpos s
in fty
Ġin cre
Ġ! =
um er
Ġw orld
mb ol
() .
l ing
g or
ap e
Ġv is
Ġs ize
Ġan al
Ġkn ow
201 0
sp ace
l ist
K ey
he s
ĠC ar
g o
ĠC ent
r ist
C O
. _
o pe
ĠY ork
ĠA ll
Ġre fer
Ġm ark
ut il
201 2
ĠĠ Ċ
Ġl ife
201 3
it er
Ġin formation
com e
P h
l ink
o ff
part ial
b s
| \
Ġan n
htt p
p ublic
res p
ĠN ov
ain t
() );
Ġpro gram
ĠA t
aj or
p ed
Ġun til
Ġc are
r c
tr act
Ġle vel
Ġa round
ific ation
V iew
ward s
ol v
it or
201 1
Ġst and
Ġl arge
f unction
ĉĉĉĉ ĉ
n u
ĠS chool
i ans
6 4
H e
is on
ĠB rit
ur ther
Ġb ir
ĠW h
Ġ$ (
E rror
t ilde
if t
Ġb ook
n av
I m
A C
Ġbec ame
ord s
Cl ass
Ġm uch
av ing
ĠW est
ĠA ss
it ive
Ġpro ble
uff er
Ġp ower
Ġl im
erv ice
ĠA ug
ĠC ounty
at ely
Ġsing le
Ġs l
ĠĠĠĠ Ċ
Ġre al
om ega
Ġb ound
ol ution
Ġex pl
Ġpol it
Ġme as
ĠS outh
ur ation
j s
Ġa ut
" ;
Ġdist ribut
Ġst ill
6 0
ind ex
Ġob tain
ition al
ĠP ol
Ġc ap
Ġo cc
Ġre d
il t
ast er
Ġob serv
Ġpl ace
Ġor gan
Ġm usic
in ation
le m
Ġp ost
Ġs ong
} ;
v ir
Ġare a
u k
Ġor g
op y
on y
ĠW ar
Ġn ear
b ut
Ġwith in
us iness
w here
. </
f ess
Ġn ext
ĠO ct
r ang
Ġ ident
m et
D elta
ore d
per t
ens ion
ĠG e
Ġex p
R e
Ġde ath
ction s
end s
Ġf ile
Ġal ong
ĠM an
t ab
se arch
pt ember
ĠG erm
"> </
Ġoff ic
Ġhe lp
g roup
p ath
p ace
Ġorig inal
i od
le ar
ore m
p p
Ġr ad
Ġb u
Ġp erson
ĠY ou
ĠThe y
pos ition
U L
Ġl ook
ac y
Ġhe re
ĠM arch
Ġl aw
Ġsever al
Ġm ust
om an
Ġt ri
eq n
end ed
Ġd ue
od es
Ġres pect
sum mary
pr il
ord ing
P l
N ot
Ġp at
Ġpro ject
s q
Ġsp ace
[ '
m ber
8 0
our ces
] .
I C
am ent
Ġre port
cal e
ĠB e
x i
w h
Ġgener al
r t
ĠJ une
u age
ĠJul y
} [
S c
' );
3 5
\ ,
R equ
orm al
un g
Ġg ood
ĠP ar
Ġt ake
Ġc our
200 9
I nt
ĠAug ust
Ġbe st
d e
ur l
R O
Ġprod uc
il ar
cd ot
anc es
a ff
che s
ist or
Ġo ld
Ġval ues
om et
at ors
am pl
ict ion
s im
s m
ĠU S
a im
ĠG u
c m
Ġad v
u ed
b l
Ġle t
ĠSe ptember
200 8
Ġs uccess
com p
ug g
w it
Ġd em
l ish
ĠT e
amp ions
Ġt yp
m y
a e
Ġv ersion
Ġerr or
=" ../../
l im
ĠR eg
le ge
ĠHow ever
resp ond
( ),
pl oy
em pt
Ġm ass
ĠSt ate
ĠJan uary
Ġex ample
ĠC al
Ġ čĊ
ĠE uro
le g
Ġd ay
og le
ack age
ur g
Ġd el
F ile
Ġst yle
i j
u ce
ide o
ribut e
Ġc ar
str uction
eb r
A P
Ġe lect
ĠOct ober
ĠE d
Ġs um
$ $
pos ed
ap er
ill ion
)$ .
n o
se e
ĠC ity
f in
lob al
Ġt ext
Ġv iew
Ġte chn
I ON
b ox
at ures
er o
Ġt arget
Ġpro t
her n
ĠA pril
re t
Ġw on
a us
Ġbe h
ce mber
Ġwith out
Ġn etwork
! --
ur s
Ġfor mer
ener gy
Ġto t
Ġan other
} }\
ĠAust ral
| -
n ode
ac ed
con st
f il
Ġis s
" :
Ġd i
' ]
ail able
Ġcharact er
ust om
ri es
ĠN orth
W ith
m at
M an
Ġs k
Ġm ap
v ision
3 4
ar r
ĠC o
Ġen g
T ime
Ġch ang
Ġh ome
al es
il it
Ġle g
Ġw ant
oc us
oc ial
Ġe arly
T E
O r
plic ation
Ġth row
=" +
ĠE n
Ġl og
Ġ/ >
9 0
raph ics
a ut
Ġm ax
200 7
Ġp ubl
3 1
L A
m ap
Q u
ic le
Ġc ount
Ġc ity
iv ity
Ġrequ est
O m
P E
pon se
w ith
um p
Ġab ove
Ġinclud e
apt ion
ĠW ill
D ef
a it
n ing
Ġde v
Ġin itial
Ġwe ek
Ġc al
w are
pert ies
Ġrele ased
Ġplay ed
A dd
l in
Ġb and
Ġl a
qu ot
ĠI I
cent er
op er
Ġl arg
re l
eps ilon
ĠNov ember
ix ed
200 6
ure d
Ġsh ort
ail s
Ġpre vious
Ġ ?
St ate
ay er
âĢ ľ
Ġmem bers
ĠF ig
Ġs pe
ul es
' :
z e
im ent
u it
Ġ );
ĠN o
Ġl and
ra ft
s l
Ġass ert
. âĢĿ
Ġp ath
Ġ et
st it
Ġserv ice
b orn
h am
htt ps
ĠDe cember
} _{\
i que
ĠM in
Ġas sum
ad a
Ġm ajor
Ġb as
` `
l ength
Ġb lock
ĠT o
w ays
ib r
u x
20 20
Ġd on
um an
Ġass oci
Ġgovern ment
Ġint eg
Ġcont ent
im al
Ġinter est
F il
3 9
ĠEuro pe
Om ega
im ate
ĠR ep
ial ly
Ġw omen
ebr uary
Ġre t
u f
3 6
Ġp o
tt p
Requ est
ĠP art
^ *
at ter
T ext
F orm
Ġpos ition
l or
st er
ic y
3 7
press ion
d t
re w
E lement
E vent
In fo
ma x
ent ion
S ee
ef f
A S
ograph y
Ġc rit
ĠBrit ish
Ġpartic ular
4 5
c aption
P ath
Ġt urn
text bf
Ġcomp et
em s
T R
Ġcomp ut
Ġcor respond
Ġb o
c ast
ĠA b
Ġcomp any
Ġcomp let
Ġex ist
nd er
N ode
ps ilon
Ġf ew
ĠCh rist
ĠM ed
/ *
res ult
Ġst at
ĠS up
ps i
Ġf ull
Ġpro m
it her
se mb
f rom
Ġtot al
O ver
Ġb ase
Ġpoint s
Ġd om
ap an
Con text
ĠB y
20 00
Ġd iv
al f
Ġs ide
Ġ energy
ate g
i us
Ġsim ilar
Ġcl os
ight s
)$ ,
eqn array
Ġp ort
ater ial
19 0
F ield
Ġcont rol
9 9
Ġh old
st ance
Ã ¡
3 8
ou ble
Ind ex
an a
ĠK ing
Ġde pend
Ġa ff
ĠM c
Ġle arn
us er
Ġd en
in o
Ġre st
vir on
Ġper iod
Ġs at
sub section
gor ith
F F
ĠLe ague
Ġh ig
ens ure
() )
E qu
h old
ole an
ert ain
I S
ww w
pl it
U R
/ **
d om
ĠThe re
s up
ĠB ut
Ġar ray
oug ht
ampions hip
M ap
Ġche ck
Ġ enc
Ġl ow
A ll
P aram
âĢ Ķ
7 5
ames pace
p oint
pon ent
b old
ĠF ebruary
Ġtr y
G amma
Ġinv est
Ġk e
Con fig
r ide
v are
ĠS ystem
Ġstud y
Ġin put
um e
Ġint ro
on es
ĠA fter
A D
Ġm ember
ol l
N ew
ag ed
Ġv ol
Ġ/ *
ay out
ĠA ir
ob ject
err or
en u
Ġl ang
ic on
v oid
ist ic
Ġcom b
Ġs ay
Ġin s
ĠD r
ev e
ok en
Ġ( !
sq rt
ren ch
ys is
Ġe p
Res ult
Ġch ange
st ate
' '
200 5
b lock
our s
ent ly
Ġc ell
ign ed
con fig
vare psilon
ess ion
ĠA p
Ġp red
ev el
yn am
Ġto wn
Ġus er
Ġth ink
Ġs ource
Ġt imes
st yle
Ġpro b
Ġbe g
s w
y d
ab les
Ġav ailable
b ody
Ġbir ths
os p
Ġdescrib ed
ard s
pro v
ag s
c her
Ar ray
um b
Ġcre ate
u i
Ġb reak
Ġfil ms
im um
ap i
ĠA rm
in put
Ġc ode
Ġto ok
se qu
al t
ail ed
d own
L O
in ition
m d
cent ury
7 0
th ough
Ġdef ined
Ġm atch
Ġr ange
con om
ann el
//// ////
Com m
Ġb usiness
a ul
m m
I s
Ġcare er
Ġshow s
b it
eg raphics
includ egraphics
id ge
Ġh istory
Ġd er
es e
ott om
^{ (
le te
Tr ans
id ual
as c
Ġj o
st and
b m
tr ue
ad em
Ġdet erm
Ġprod uct
ĠĠĠĠĠĠĠĠĠĠĠĠĠĠĠĠ ĠĠĠĠĠĠĠĠĠĠĠ
}^ {\
Ġf ore
ĠC or
Ġse ction
I G
Ġsh own
Ġg row
Ġre pl
is ing
ĠE l
Ġn amed
Ġ-- >
A t
Ġn ode
Ġchild ren
Ġhe ld
Ġl ess
or ies
ĠC he
E D
Ġproble m
Ġa ction
Ġc amp
i ents
Ġme an
c il
ĠH is
op s
c or
ond on
S ervice
U T
p en
' ;
Ġdef ault
read y
ed er
g ress
200 4
if f
Ġh ouse
y l
itt le
ener al
ĠO b
em ph
Ġro le
B uild
al d
duc ed
Ġc over
ur b
ne ction
w ord
Ġch o
ĠS er
ab ly
Ġtr ack
C ode
n a
Ġcon f
ud e
re et
Ġf ree
end er
Ġg ames
} =
abl ed
Ġimport ant
t itle
re st
ĠB ar
Ġacc ess
Ġposs ible
ear ch
ip le
ing ton
ĠR ec
ĠEng lish
Ġs it
Ġp ot
IN G
Ġte le
Ġstr ong
ĠR uss
Ġ} );
Ġmodel s
n on
Ġrece ived
Ġcon v
et urn
Ġa uthor
Ġth ird
and om
Ġf ive
Ġbe gan
ĠM e
n ext
F rom
Ġcon text
n ow
sy mbol
Ġ Ð
******** ********
M P
ĠA fr
A tt
B ig
pl ate
5 5
" "
Ġph ot
Ġ$ {\
Ġw ater
il le
Ġcomp on
ens ity
ref ore
u ation
e ople
Ġfe ature
Ġpop ulation
l t
6 6
O f
Ġ} ,
## ##
S ize
Ġ: =
A merican
viron ment
ĠA mer
M L
ut ure
Ġs ix
) =
Ġcl ub
Ġl ate
ag ement
ass ert
ug ht
It em
in ary
Ġreg ion
re ate
um ents
Ġ( )
yn c
op h
b t
p ose
H and
Ġal ign
ec ut
ĠL ist
ĠA g
ĠJ apan
right arrow
er a
Ġpro perty
Ġ ide
ap ache
Ġloc ated
epend ent
Ġa ir
g t
Ġn ational
E T
Ġd at
Ġf urther
Ġperform ance
ĠAr t
ge q
0 1
L oc
ĠCh ar
Ġdisc uss
Ġspec ial
ĠC oun
Ġestabl ished
A cc
Ġinst ance
Ġappe ar
Ġsup er
an ch
ĠP res
U S
Ġpro fess
Ġa ge
Ġcol or
c all
Ġv ill
Ġbu ilt
n ect
pro of
Ġrequ ire
i ber
ak en
j ava
+ +
Ġa ver
ĠM on
A nd
ac hed
I f
rang le
w id
Ġback ground
Ġatt ack
P r
esc ription
Ġcon fig
i et
Ġs y
Ġar ch
ampl es
Ġfollow s
Ġst ation
ĠE ast
Ġsign ific
Ġind ex
e ction
olog ical
Ġf ac
ĠL ondon
ĠP ark
Ġof ten
ĠH igh
and roid
4 8
Ġle ast
cl us
on se
Ġterm s
Ġim age
Ġp ri
Ġh ost
ĠCom p
Ġam ong
F r
ĠS ch
v es
istr ict
[ ]
Ġadd ress
. ~\
ĠD av
cre ate
V al
Ġcomm on
Ġed uc
Ġind ic
Ġg reat
Ġl ight
Ġ\ ,
C H
Ġinclud ed
ip s
Ġs pect
g es
Ġpubl ished
i ef
= '
ĠH ouse
ou d
S er
ĠP er
Ġgr ad
o on
Ġresp onse
or ph
ic ro
r ation
ĠA m
Ġl ength
Ġp ut
ĠA ct
Ġ( $
i i
ref er
ĠQ u
f ord
A d
A B
inn ing
c ul
ĠCol lege
end ing
="../../ ../../
20 21
Ġev ents
Ġan t
Ġcomm and
Ġstruct ure
Ġde g
Ġd ocument
ĠThe se
ilit ary
ĠO ff
m ult
E S
r ing
. }
ĠO ne
Ġto o
Ġg l
lo at
M essage
var phi
M A
Ġann oun
ab or
ĠWill iam
D e
Ġm ot
ĠG et
Ġh aving
p d
ir t
D is
def ault
Ġcor re
ĠL a
Ġbuild ing
Ġm en
tr a
L et
Ġcl aim
Ġk ill
Ġcoun try
R ec
t ings
i ol
Ġst ory
Ġqu ant
Ġse qu
ĠB ro
un ic
Ġinv olv
ib ility
Ġplay er
Ð °
c y
im ation
& \
c ell
ĠâĢ ĺ
Ġcon c
Ġne ver
Ġj ava
Ġph ys
200 3
m ark
ĠW hen
in fo
is f
ĠH er
row n
Ġc ost
Ġre cent
ic ient
ĠA ng
Ġbe come
O ut
ĠS w
c le
0 5
Ġparam eters
Ġs ite
Ġimp lement
arri ed
Ġ= ==
l s
re ed
, "
Ġs ent
ĠW ith
e h
4 4
id ence
k s
b ase
ĠH ar
Ġdistribut ion
ĠF rench
[ \
Ġcre ated
Ġvar ious
U N
gorith m
Ġe ither
> &
Ġc ou
Ġbet ter
Ġmeas ure
Ġal ready
Ġf ri
200 1
Ġpr im
Ġtr ad
as ing
og n
al y
Ġqu est
Ġe lection
att le
Ġin div
Ġpr act
}, \
et ic
h line
ok e
Ġwrit ten
def ine
av es
d raw
Ġcomp os
l ight
S ystem
cont ent
t es
, âĢĿ
m ost
ap s
Ġst ates
am a
ĠIn ternational
v ersion
Ġs om
Ġrequ ired
ĠĠĠĠĠĠĠĠ ĠĠĠĠ
Ġcomp lex
bold symbol
fr ak
Ġs rc
UL L
N A
Ġt able
} ).
k n
Ã ³
Ġl abel
I L
Ġrel ations
w ide
e ed
O T
Ġp arent
li ent
âĢ ¦
Ġc ult
Ġcl ose
over line
i qu
roll er
Ð ¾
R eg
er ed
Ġyou ng
Ġdevelop ment
A p
Ġspec ies
In ter
Ġse par
Ġm illion
Ġprov ide
Ġcol l
ĉ Ċ
200 2
Col or
Ġpot ential
Ġb order
s f
Ġacc ount
Ġd est
che ck
Ġfe atures
6 5
Ġprod uction
get her
Ġto gether
C C
g ed
L og
Ġcent ury
ĠPh il
Ġcommun ity
Ġsignific ant
ugg est
b or
r ad
Ġserv ed
Ġh ard
Ġcont ribut
Ġdist r
ĠĠĠĠĠĠĠĠ ĠĠ
ĠD ep
Ġw ar
Ġexpect ed
---------------- ----------------
Man ager
fer ence
ourn al
Ġd ays
Ġconsider ed
ar a
Ġwork s
Ġh app
Ġc irc
v ec
Ġf und
Ġout put
val id
Ġappro x
) ^
an el
fl u
Ġac ross
itt ed
Mod el
u el
Ġtr aining
Ġv ideo
Ġl ower
ĠC ont
T D
ĠD istrict
Ġgo ing
Ġb orn
Ġt w
Ã Ń
Ġg en
mod el
Ġf ocus
Ġre search
Ġindiv idual
if ier
includ e
ĠS m
Ġm iss
Ġe as
Ġb ody
st art
Ġab s
h and
if orn
at ural
I P
Ġal ways
us ing
ĠM ich
Ġb i
Ġlim it
ĠGerm an
h ib
Ġse en
Com p
c ount
Ġro und
idd le
ĉĉĉĉ ĉĉ
ĠCh ampionship
i ation
Ġc ross
Ġsystem s
Ġbl ack
oc r
ateg ory
av y
Ġparam eter
tain er
T able
] (
ĠA cc
ĠThe n
Ġre view
oci ation
Ġdif f
Ġ_ _
Ġpl an
Ġs ocial
Ġm er
Ġ Â
Ġw idth
p ackage
Ġc ame
Ġf low
s i
EN T
00 00
ĠV al
Ġ} ;
c ss
18 9
re c
Ġf ar
C ell
Ġr ate
iforn ia
oci ety
pr int
} }$
C all
im ens
Ġhow ever
O D
ly ing
ĠC up
m ethod
G roup
arg in
n et
av el
Ġstart ed
math frak
Ġv ert
Ġm agn
Ġt ask
ĠS o
ith ub
it ect
pro t
d uction
Ġm ight
or ge
Ġtele vision
ĠI r
ic o
Ġdistr ict
ĠA c
ut ions
Ġme ans
Ġv ia
Ġb ig
ĠS ec
ĠR ev
B ut
Ġopt ions
em ents
Ġp erm
b ook
Ġp aper
18 8
S P
Ġgroup s
=" #
Ġfunction s
cite p
ĠC r
ĠS et
Ġn ov
app a
st atic
ĠI m
ut es
h a
Ġh alf
Ġm aking
Ar g
ĠS an
Ġm essage
ac ing
4 9
U ser
Ġaver age
Ġs ays
A ss
Ġl ik
ly mp
Ġadd ition
Ã ¼
Ġe ar
Ġm om
Ġbel ow
ul a
ym met
ensure math
Ġh uman
abl a
ar ies
v ers
Ġeng ine
b ased
p ly
M S
) (
Ġmethod s
Ġn eg
B C
T H
m ing
lang le
b o
in ing
min istr
Ġp ay
y ear
b oard
Ġg raph
Ġem ploy
Ġprov ided
ig ation
Ġab le
n s
ĠInd ian
we b
Ġappro ach
0 8
ish ing
f alse
Ġt re
con text
il ities
n abla
text it
Ġs em
Ġanal ysis
Ġassoci ated
I R
Ġl oss
g en
Ġn orth
go ogle
F A
ĠTr ans
iv en
Ġ q
; </
Ġsat isf
f oot
g ithub
med i
Ġcons ist
Pro perty
Ġs uggest
Ġs on
Ġd ied
b urg
B ar
Ġp air
pt y
ĠL et
ec ess
I I
199 9
p arent
id ing
Ġr a
Ð µ
======== ========
\ |
Ġstand ard
ld ots
Ġof fer
M ethod
id s
c it
pt ions
Ġp age
ĠD is
Ġm ove
c hed
a el
m it
Ġh om
ĠCal ifornia
pl ied
Ġw ent
oy al
ce ed
N o
at form
Ġserv ices
Qu ery
ell ow
U p
S ub
opt ion
Ġhig her
land s
ĠG o
use um
ic ense
0 7
ĠAmer ica
O S
b uild
m on
Ġval id
ew ork
Ġa way
4 7
E d
ĠPres ident
S p
Ġme et
w ise
and s
Ġb ool
ĠI nt
act ory
Ġh istor
ire ction
c irc
d oc
th ing
Ġwork ing
Ġind ust
C E
Ġl ed
m ar
Ġlang uage
Ġg e
x y
c er
p ing
=" ../
ĠEng land
cur rent
R ead
Ġn um
Ġmat rix
iv il
~ ~
Ġg ive
Ġh ttp
n amespace
Ġc ases
Ġc aus
Ġsur v
ma il
Ġsol ution
Ġon ce
ill s
c ap
Ġc y
ĠS im
ĠM od
Ġe mb
c ore
Ph i
ust er
Ġth ough
Ġobtain ed
} ),
Ġact iv
L ambda
ĠAustral ia
C ount
un k
action s
ĠInd ia
ĠR ed
Ġcon struct
; &
Ġg ot
C lient
ĠRep ublic
Ġoffic ial
.. ..
is es
ĠD iv
o ch
Ġcond itions
s pec
E E
k appa
sub set
Ġin ternational
ian ce
ĠR iver
Ġbel i
act ive
Ġf requ
i res
ank s
Ġhe alth
P ol
ef ore
art ment
ar ing
Ġre ally
ĠN ot
A fter
ab ase
Res ponse
ad o
y r
ad es
kn own
Ġg round
Ġm aterial
0 6
d b
O ff
> (
om b
Ġproduc ed
Ġst d
inn er
ot ed
ch an
sh ip
at al
ĠD ef
Over ride
0 4
semb ly
Ġdis play
ĠP ort
Ġstud ents
E nd
n ey
Ġt aken
ag ing
und er
Ġconst ant
Ġbe com
Ġmed ia
Ġd one
i ers
ĠM ark
Ġs w
Ġ es
B e
Ġp ress
) </
Ġn il
ĠC our
Ġl o
u z
Ġ` `
Ġelement s
ĠA dd
Ġcom e
ibr ary
Ġpro perties
Ġvill age
ro y
ev ent
Ġf uture
d ev
in it
he ight
eth ing
iz ing
Ġs outh
o e
Ġn ormal
Ġreturn ed
D ate
Ġst ep
Ġe conom
ĠB er
Ġa chi
ord in
Ġrespect ively
it te
ist ry
Ġde cl
sm all
Ġw in
Ġs old
ĠSt ud
Ġatt empt
Ġest im
ĠPart y
Ġd a
r up
} )$
Ġd ensity
Ġmov ed
N S
ĠF irst
Ġf ather
or age
6 7
0 2
Ġl ittle
H istory
und le
Ġp ast
Ġother s
Ġreg ular
Ġpolit ical
. \
ĠH ol
t em
199 0
Ġmark et
d o
Ġl ines
Ġthe ory
Build er
ĠF il
ch ange
Ġep is
Ġ ill
h ood
O P
S tr
Ġf em
en ame
ĠE m
ol ic
\ %
ot imes
Ġwhe ther
] )
ch o
s ing
Ð ¸
< !--
Ġannoun ced
rit er
Ġinst ead
ĠĠĠĠĠĠĠĠĠĠĠĠĠĠĠĠ Ġ
ell ing
Ġbro ad
ĠD es
Ġcond ition
ĠS tr
Ġadd ed
n ull
P eople
0 9
Ġwe bs
Ġand roid
wit ch
im age
ic les
Ġpartic ip
ĠD o
Ġke ep
Ġas k
Ġreport ed
r un
ak er
ist ics
and id
Ġcol umn
ĠCoun cil
Ġc ustom
Ġan g
Ġb en
ro te
L iving
ache s
Ġc ertain
Ġ row
a ign
al le
) {
ĠM y
a ur
Ġc le
opt ions
Ġspec ific
ĠD em
W h
ĠCl ass
en ed
20 22
Ġw est
ĠN ULL
f low
ĠA nt
Ġst ar
Ġcol lection
p ol
ĠB el
ĠG overn
ĠM al
mb ox
ex p
ĠS en
o o
Ġl ive
6 8
ĠTh at
Ġrele ase
Ġar r
Ġr andom
ĠP at
el ine
Ġsim ple
A G
Ġen ough
ĠP al
Ġ Ã
ers hip
le vel
Ġun it
Ġcont ains
Ġg lobal
Im age
Ġcorrespond ing
Ġf ig
Ġth us
an ish
ĠCan ada
an ies
Ġn umer
ĠM ore
St ream
Ġcal cul
U til
Ġp ur
ot a
Ġv er
Ġs cal
199 8
Ġc lear
C he
( (
Ġso ft
un n
ĠA ward
ĠSt reet
9 5
oc ol
ver se
qu ery
Ġtem per
In put
0 3
ĠT est
cent ering
H E
F ig
Ġacc ording
ĠIn ter
k y
d r
C A
ad ian
Ġinst all
p age
ĠG eneral
Ġse arch
at ives
ag o
A ct
P I
li ke
y a
ĠJ ames
Ġm ale
ĠD on
ĠĠĠĠĠĠĠĠĠĠĠĠĠĠĠĠ ĠĠĠĠĠĠĠĠĠĠĠĠĠĠĠ
O L
ĠP aul
pro p
ĠF rom
cl ient
Ġl iter
ĠEurope an
om in
Ġs ound
ĠTh om
Ġa ward
ĠCh urch
ul ated
ĠR ober
Ġpr int
Ġj ob
li b
ĠM or
g ing
S igma
d l
The re
Ġmult iple
h as
ĠG roup
Ġre ason
stit ute
Ġex press
Ġpop ular
Ġde p
Ġt reat
Ġchang es
it es
Ġst op
ĠDav id
Ġbeh av
Ġ< <
g l
ON T
Ġpos itive
ev ed
wid et
k en
h an
ĠFr ance
us ed
ĠCent er
Ġsub ject
d ir
Ġrel ated
Ġent ire
v ille
c ase
Ġh on
Ġd ouble
st on
ast ic
/ \
S up
ir m
Ġe ast
v is
cur ity
ser ver
un t
Ġro ad
all s
v an
d ots
S ource
St atus
4 2
}} {
Ġadd itional
ort hern
Ġpres ident
Ġcent er
b ra
at ory
Ġr ather
o z
P os
ĠArm y
r d
r is
Ġph ase
ens or
il es
Ġd ate
ĠQ ue
\ [
Ġin f
Ġa ud
ĠS um
Ġare as
Ġsuccess ful
Ġcont ain
ĠF l
widet ilde
ch ild
pl ies
Ġl oad
Ġin c
5 8
requ est
Ġs uff
ens ive
7 7
Ġin flu
Ġpro posed
Ġmult i
o res
Ġen vironment
id a
ĠO lymp
Ġac cept
k a
j o
fin ished
Ġcontin u
ĠL aw
ĠG l
he l
Ġim prov
Ġwork ed
U E
Ġw rite
ĠR ich
4 6
Ġ ...
Ġm ag
ph p
ber g
Ġpart y
Ġfr ont
p ng
add ing
ĠN e
Ġst atus
Ġev al
Ġc ut
Ġdeath s
Ġw rote
Ġl ost
Ã ¶
but ton
ed d
ri p
ri an
dis play
ĠBl ack
bt n
c an
ĠH am
wo od
Ġwh ose
à ¤
Ġm ilitary
ra z
ĠL em
arg s
m ember
d et
Ġsom ething
( {
Ġrec ogn
lo od
Ġpro of
f unc
th m
itt ing
ov ed
r s
Ġinclud es
199 6
out hern
y les
iz er
un ch
ul ations
h ost
app ing
E X
t x
ot o
Ġestabl ish
Ġsur face
non umber
. )
ĠS ince
B lock
A M
7 8
Ġm id
ag on
Ġd ynam
5 00
Y PE
198 0
St yle
O per
ĠCh ina
E L
L ine
In stance
Ġcon struction
Ġv iol
Com ponent
} -
ĠGe orge
pro d
itte e
Ġline ar
Ġam ount
Ġwebs ite
G e
Ġal most
un ity
Ġ- >
Ġhe ight
w est
wh ich
anc ed
Ġw indow
qu are
199 7
ic ation
| |
enc ies
ash ington
Ġresp ons
ch ar
il i
ot es
Ġdevelop ed
Ġb ox
tab ular
H ead
j av
Ġcon tr
Ġperform ed
Ġv ector
Ġde but
e lement
AT E
T oken
{ -
it ar
Ġequ ation
Ġm akes
t arget
an i
ĠT V
ĠR oman
b ottom
ĠĠĠĠĠĠĠĠ ĠĠĠĠĠĠ
b a
Ġfield s
im ately
et t
ri a
and er
Ġcour se
ac ity
m ore
ĠAss ociation
Ġk ind
ĠĠĠĠĠĠĠĠ Ċ
st ream
Ġn ecess
Ġth ought
pl ace
Ġex ists
Ġpri or
Ġcon tract
am ily
\ !
Ġcomp lete
Ġb g
b and
Ġsc he
H T
as ons
Ġde al
Ġdeg ree
Ġmom ent
Ñ Ĥ
head er
ec k
r ated
p c
om s
Ġcan not
Ġres ource
ict ed
Ġn ight
Ġth ings
f irst
ĠU K
Ġst age
Ġl ove
ial og
F l
F irst
c el
Ġs cale
Res ource
Ġh or
F I
lect or
B ase
Ġmon ths
ail way
A ction
Ġocc ur
Ġcent ral
Ġunder stand
e al
Ġarch itect
ĠD i
N av
N ull
8 8
ber t
ĠM art
ic ult
O M
Ð ½
s in
eg er
eb ug
Ġact ive
app end
Ġf ail
Ġlead ing
c os
Ġ ir
al ian
Ġloc ation
] [
Ġcond uct
Ġind ependent
P art
un finished
ach ing
Ġal gorithm
Ġb it
iz es
ip al
l a
ig en
Ġbo olean
d at
S pec
Ġc apt
Ġf av
ĠFr anc
b b
H ow
Ġr ank
idd en
Ġr at
ĠSe ction
Ġit em
Ġapp oint
ĠL ou
ct or
Ġdef ine
Ġtyp es
ĠH all
ri ate
Ġpolit ic
ad ata
mod ule
5 7
ul ly
Cont ent
ap ter
Ġt aking
) ]
R un
ou ch
plic it
Ġne igh
e in
Ġo ption
Ġv ict
Ġn atural
in i
Ġwh ite
Hand ler
Ġdirect or
p ite
Ġf ire
ĠR ef
S C
n ected
ree k
ĠI N
ĠGerm any
ar ter
199 5
Ġro ck
G L
St art
Ġ" ""
ars er
B uffer
Ġdist ance
Ġex ecut
ugh ter
I M
ribut es
am s
m ain
ub e
sk ip
Ġlarg er
irt ual
d ot
ĠR oyal
in st
ĠM at
oot h
Ġse lected
Ġeduc ation
Ġclos ed
str ong
ĠJ er
Ġbg color
4 3
ĠDep artment
plic ations
d en
Ġst ream
O ne
Ġteam s
g in
re y
le ase
od ing
Ġright s
5 9
Ġvis it
Ġsequ ence
ug in
Ġt alk
Ġc andid
Ġjo ined
op en
ĠUn ion
\ ]
5 6
Ġex act
Ġs af
Ġmod ule
Ġfe el
cre t
s cale
ĠCour t
o ice
is k
Ġnov el
E C
Ġdef e
i os
Ġ+ =
ab s
led ge
4 1
ot ype
Ġcomp anies
ĠDiv ision
u a
I V
Ġin j
Ġcompon ent
G ener
if orm
Ġy et
Att ribute
rup t
Ġlearn ing
pr ime
C o
Ġobserv ed
ĠR oad
ĠM et
ĠThe orem
ĠM usic
est ival
M em
L ink
om orph
Ġopen ed
ic ol
p at
it ude
Ġap plication
Ġcon str
P C
ĠW ashington
r l
ĠAr ch
Ġl ot
Ġtrans form
eder al
Ġset s
en a
} +
Ġc opy
l ong
\ {
f ill
Ġz ero
ĠG reen
Ġf ight
Ġpro p
ar io
Ġm arried
Ñ Ģ
ĠJ ack
pect ed
ou l
Ġprofess ional
199 4
G r
Ġits elf
ĠNew s
Ġtrans fer
Ġch all
ĠP e
p ost
Ġprot ected
197 0
ĠU p
P re
Ġhim self
P oint
Ġoper ator
ur rent
Ġcamp aign
ĠAustral ian
Ġoper ation
Ġd raw
Ġoff ice
Ġrun ning
B ack
or ing
Ġreg ard
Ġt en
f e
x ml
Ġrelations hip
O ptions
Ġcurrent ly
nav bar
r um
ĉĉĉĉ ĉĉĉĉ
ĠM ount
Ġf ixed
ĠS ing
ist ance
av en
ar ily
ines e
Y ou
Ġcomplet ed
ol s
Ġgo al
ĠRober t
Ġm other
Ġsong s
Ġb ar
Ġquest ion
f inal
Ġfor ce
loc al
Ġintro duced
Ġfact or
ĠB ay
Ġpol icy
Ch ar
h i
Ġw ords
arn ing
Ġcl ient
z er
Ġqu al
199 2
b ound
Ġwe ight
gr ad
Ġpart s
pd f
Ġprov ides
Ġc ast
Ġexper ience
Ã ¤
Ġexper iment
W hen
Ġs ample
R A
Ġup on
F actory
E ng
Ġt akes
Ġequ ival
enc ed
ain e
Ġr ace
Ġt our
el t
z eta
ĠIn stitute
j son
ĠS ub
E nt
ĠComp any
Ġset t
) =\
ask et
evel op
Ġnew s
N umber
ĠN or
Ġbro ther
Def ault
ĠM ary
V ersion
p y
T ask
Ġrad io
Ġ& =
sh ire
f ind
se y
H el
Ġch urch
w rite
ob ile
Ġd ig
Ġme chan
s g
ver y
ĠM ex
ĠOb ject
Ġcontin ued
Ġper cent
ĠR eturn
Ġto day
Ex t
Ġb oard
ĠD irect
al a
im g
Equ al
) }\
R ep
Ġdet ails
so ft
} =\
ĠD ay
Ġst re
un s
ĠP ress
Ġin ternal
b our
ro s
at ively
A b
al ax
Comm and
Ġp ers
ri ef
st atus
Ġt ro
Ġs il
Ġm argin
Ġin it
Ġiss ue
pro perty
serv ice
ic ial
Ġconc ern
Ġplay ing
Ġdisc over
Ġmod ern
Ġus es
9 8
Ġincre ase
pec ially
L abel
{ (
Ġun ique
ĠV ir
Ġal though
Ġgiv es
li er
ain ts
ĠD uring
Ġpre c
P er
Ġcomp ar
199 3
m id
Ġout side
ict ure
Ġpresent ed
p tr
Ġv oc
erv e
Ġcontin ue
imens ional
Ġde part
ĠC ons
c i
ac her
} ]
a res
Ġsign ed
Ġre v
ĠM ac
" ).
al let
ĠJ ust
F unction
Ġeffect s
M ed
Ġ ]
Ġf all
Ġdesign ed
row ser
ĠE q
ĠC ap
Ġrefer ence
Ġcharact ers
Ġfin ite
ĠV ol
ĠAc adem
he t
RE F
Ġdiff icult
Ġwh y
Fil ter
[ "
} );
Ġbeh ind
Ġpr inc
Ġw ife
ann ot
Ġiss ues
Ġac qu
Ġmon th
Ġsh ip
ĠAng el
ĠS ociety
ĠIs land
z on
Ġw ord
ĠM iss
if act
Ġad ministr
ĠN one
Ġallow ed
ĠA lex
ĠC ong
Ġfri end
ĠB ook
}_ \
Ġproble ms
Ġstud ies
T P
LA SS
ach ine
str act
Ġmon ey
; \
Ġup date
Ġequ al
ĠB est
ĠM er
u ated
" ),
u ate
il er
Ġeff ort
* /
Ġex cept
Ġre ve
Ġd irection
ĠO ut
Ġd am
ant ic
ĠL eg
pr ivate
ĠW ork
B A
f ont
l ast
V ER
not e
Ġcomp ared
ĠS am
li ament
ĠCl ub
ĠWh ile
p o
Ġdirect ly
on ic
c up
i as
Ġacc ur
ate gy
a ud
ra el
Ġinvolv ed
an o
Ġs ex
Tr ue
Ġfollow ed
' re
ĠT ex
ĠS ome
p ack
Ġc atch
ĠT ur
Ġch annel
n um
ent ry
L oad
Ġed ge
ĠPro v
Ġwrit ing
Ġact ually
ob j
Ġt ell
7 6
Ġdirect ed
yp es
on str
Ġf ace
text width
Ġs us
m em
ĠS l
Che ck
pro ject
inal ly
Ġrecord ed
st ar
y ing
Ġt ax
Ġwho le
5 1
Ġn ames
$ )
Ġm ar
Ġpol ice
p ush
$ {
L e
Ġv ers
Ġneed ed
) ^{
end if
Ġobject s
u id
Ġext ends
A A
Ġ( "
he et
m eta
ĠH en
wide hat
ĠM ag
c a
umn i
st ant
Ġs ure
Ġl iving
ĠW eb
Ġs ens
Ġc red
ĠG old
Ġsupport ed
ele te
S I
g ener
R eturn
Ġs ymmet
res h
osp ital
ram ework
ge bra
l en
Ġthrow s
5 4
lem ma
ĠY ear
Ġlik ely
i ant
ĠMich ael
ur ity
pro cess
Ġh y
p ass
Ġlarg est
Ġform ed
Ġim ages
ĠAfr ica
}^ \
ig ger
s plit
Ġcorre ct
E m
so le
l ayout
Ġset ting
Ġk m
C D
col umn
Ġm ode
ĠR em
A pp
ĠS ervice
// /
199 1
ĠWh ite
B ox
ĠE ar
M at
ĠAfr ican
ĠS pec
" ]
W indow
cl ose
at ur
Ġim m
Ġthrough out
5 2
Ġst ars
ann ing
Ġpro te
Ġgener ated
Ġpat tern
ens us
Pro v
Ġg ave
ir l
ĠI D
ĠM ad
ĠCent ral
ĠT own
ĠS k
Ġform at
R ow
i ences
ock et
Ġf ood
ĠDem ocr
Ġsc reen
Ġdoes n
Ġg as
B r
ĠJ ew
F ONT
//////// ////////
ĠG ames
B l
Ġj ud
Ġd rop
Ġe ight
ip p
ous ly
Ġoper ations
P age
N O
Ġanal y
ir it
Ġcou pl
Ġmax imum
Ġus ually
ĠT om
se lect
ol ve
M et
, -
ĠThom as
ict or
9 6
Equ als
Ġes pecially
Ġro t
as et
Ġspe ed
Ġthe refore
Ġt im
Ġindust ry
A ut
he st
U s
Ġad j
t ag
ĠRuss ian
ol ar
Ġperson al
L ast
V ert
ĠW il
ri al
ĠFig ure
e es
ang le
anc ial
row s
Ġre str
air s
Ġappe ared
ĠCan adian
5 3
s rc
ĠSc ott
il ies
Ġon line
Ġdev ice
Ġimp act
el ves
Ġn av
in ated
Ġ{ @
Ġbook s
is ation
Ñ ģ
Ġd im
Ġh it
C reate
Ġprim ary
Ġaut o
Ð¾ Ð
Ġn one
ĠP ublic
ed y
Ġspec ified
d escription
en ing
ĠR ad
Ġm us
P si
Ġdef inition
Ġm ention
ĠGr and
Ġ\ {
Ġcon nection
Ġsign al
Ġtemper ature
ĠC ath
Ġneed s
Ġnum bers
Ġaut om
Ġprob ability
asc ript
Ġmat ter
ĠKing dom
Ġnot e
ĠG od
ĠM useum
st d
N D
ag ram
y e
Ġim medi
Ġbas is
b on
ark s
O C
} |
198 9
ĠS ur
Ġp ick
Ġw alk
ĠS al
196 0
Ġschool s
Ch ild
Ġ( (
Ġp ack
Ġinvest ig
c s
ĠF ound
Ġcom ment
n umber
form at
Ġun its
> >
Ġun s
Ġfil ter
fil ter
ĠB o
9 7
az ine
IN T
Ġhold s
Ġit er
cd ots
ang er
Ġrel ative
Ġdem onstr
T em
id ents
mer c
Ġh ous
ĠChrist ian
B undle
U M
R em
A g
Ġassum e
ar p
m t
M ar
Ġbir th
}) \
asket ball
Ġun c
Ġcom es
it ch
w ell
ify ing
Ġex hib
Ġcon ver
ĠS y
D et
Ġs aw
ĠO ther
ĠSc ience
pro x
Ġv eh
Ġsol id
ĠO pen
back ground
Ġeffect ive
duc ation
ĠM ont
ĠD an
pre t
Ġtrans l
Ġ ess
ay ers
empt y
ry pt
Ġlong er
Ġent ry
lo or
Ġopt im
Ġsc en
Ġfor ward
Ġup per
Ġallow s
ĠTex as
} /
ĠB en
Ġcour t
I F
om a
Ġh ot
Ġqu ick
Ġto wards
ĠMin ister
Ġcount ries
ĠJapan ese
Ġd ram
Ġt ree
sh ow
Ġchang ed
Ġepis ode
re ater
ro ad
in ct
Ġcompon ents
Ġtrans port
it ing
Ġp ain
S ON
S D
Ġre n
iz ations
Ġb ad
ĠTe chn
e an
ĠT or
Ġs ources
Ġm ount
os en
S im
ER T
Ġben ef
}^{ (
Ġco ordin
Ġser ver
ind ing
ĠD ata
it a
ov ers
Ġf a
ol f
ĠR ob
Ġal tern
C an
ĠCar ol
uf act
Ġide a
ist an
Ġinter face
clus ion
ĠWest ern
Ġs ports
Ġalbum s
Ġst aff
Ġag re
D esc
Ġincre asing
is her
W eb
Form at
ĠĠĠĠĠĠĠĠ ĠĠĠĠĊ
refer ence
P RO
Ġcon sum
ref ix
Ġdid n
Ġread ing
Ġ url
omet imes
Ġconst it
ĠK ore
Ġfor ces
ĠLou is
Ġdec ision
Ġmem ory
ĠFranc is
m enu
on ly
Ġto ld
ĠH istor
ĠG reat
al ed
b uf
ĠCh inese
Ġart icle
Ġex pression
Ġprevious ly
ed ge
up date
Ġse lection
ur a
7 2
Ġman agement
ic ate
ĠVir gin
at re
D B
Ġpl aces
Ġf ailed
u an
198 8
th let
Ġh ours
el oc
AB LE
F L
ĠRes earch
im ents
ĠO F
Ġkill ed
Ġdiffer ence
ĠD el
Ġsub sequ
ill a
P ar
ĠM us
Ġap plied
con tainer
param s
Ġst e
ĠE v
Val id
ing u
Ġde ep
ĠSup er
Ġe lected
Ġle ague
Ġphys ical
= #
Ġwrit er
ĠTh us
Ġsoft ware
( &
Ġse ven
B U
Ġda ughter
Ġs eg
Ġb all
Ġr ule
ĠB ill
Cont roller
Ġfil es
Ġfound ed
Ġf ont
ee k
ĠRec ords
z a
ele br
il ton
Ġin side
tr ack
}} (
ĠF ore
ourn ament
ĠAcadem y
d ec
Ġs n
ĠIt alian
Ġbound ary
^ +
S ince
a o
Ġm ix
b in
Ġj ournal
Ġrel ig
Ġav oid
we ight
ĠW hat
res ponse
ult ure
ot al
ĠChar les
por ary
ad ow
at tr
Ġmiss ing
comm and
art s
Ġexp and
Ġsmall er
} :
g s
Ġpl atform
) -
ĠZ eal
sc r
P S
ĠLem ma
act er
Ġbecom es
Ġ$ (\
re land
F C
6 9
m ission
Ġfin ished
Ġsc ore
ic i
T op
Ġpass ed
N ext
List ener
Ġcont act
math sf
Ġus ers
D r
7 9
Ġbr ing
U I
Ġse curity
Ġs ense
m es
u ge
equ iv
. ~
Ġe mer
ĠZeal and
ĠSum mer
P ost
& =
Ġro om
NA ME
3 00
Ġ< !--
is ions
q quad
Ġc a
ate gor
ĠT ype
Ġmain tain
r ate
th at
jav ascript
ans ion
Ġtrans ition
ĠF lor
S ec
Ġf ill
et her
Ġappoint ed
cit et
q l
C L
Ġlevel s
le v
`` `
Ġqu ality
}\ ,
Ġtr avel
k m
Ġco ach
Ġsh are
n ce
Ġcon nect
ang ed
198 7
Ġsh all
ĠHe alth
Ġsp in
w in
ick et
erm an
Ġad apt
Ġcon cept
ĠSm ith
Ġc ivil
Ġ er
W hat
re me
Ġinst it
Ġor d
is l
ĠT ime
ĠFr ank
Ġy ield
Ġtechn ology
ind ent
Ġso on
Ġgu itar
irc raft
( -
ĠJ ose
ic ago
But ton
v ed
L ength
6 3
Ġch arg
Col umn
Ġrepl aced
Ġfem ale
Ġs en
Ġqu ery
lang uage
Ġstart ing
Ġrepresent ation
ĠM em
ĠO per
Ġrun s
ĠIs rael
Out put
Ġfr ame
S U
us ion
ie ce
Ġth ing
D F
d s
Add ress
Ġpl ant
Ġse lect
rem ove
fil es
ail y
{ }
Ġ& \
}\ \
Ġg old
Ġev idence
ĠH istory
Ġpro gress
Ġb re
C P
er rit
ef ined
it z
ĠP ost
ĠP eter
6 2
vent ion
merc ial
Ġlim ited
M in
Ġbehav ior
in stance
ĠN ote
ĠH ill
Ġsim ply
Ġproduct s
Ġrem ains
Col lection
Ġl ayer
Ġde b
< ?
ĠC amp
: </
Ġsy mbol
Ġart ists
k it
W ork
ĠR ock
T YPE
Ġpract ice
ĠT able
Ġd ark
8 5
ĠS ee
Ġup d
e ch
Ġro ot
Ġear lier
Ġdom ain
ĠAcc ording
Ġh tt
he ast
g reg
en ge
hed ul
od er
ess ages
Ġstruct ures
Ġdesc ription
Ġn uc
f ect
ĠP re
ĠH REF
Ġreturn s
M ax
ĠM el
Ġgrow th
or ial
re a
i h
Ġw oman
ur t
Ġro b
ĠAn n
Ġt it
M on
f it
ĉ ĠĠĠ
ĠRich ard
set s
Ġquant um
ĠH T
ĠIn c
Ġfootball ers
198 6
7 4
ĠL os
ĠF ootball
6 1
Ġst ore
Ġcap ital
sc ope
M ode
UR L
Ġl ack
l n
val ues
Ġtr ain
ot ion
Ġvari able
Ġlist ed
ĠC LASS
ĠF orm
Ġbuild ings
198 4
& &
k r
un it
ER R
erv ices
Ġa x
ef t
erv ed
Ġd ed
Ġnecess ary
] $
Ġse em
S A
. $
m as
ĠPar is
Ġhtt ps
ant a
Ġelect ron
ell a
Ġg alax
g u
N N
Ġst ated
Ġf it
Ġclass es
ĠD et
ĠL og
el se
out put
Ġsc ient
Ġr ules
Ġcho ice
at in
V is
Ġs s
ĠSe cond
umer ate
Ġexist ing
ter m
Ġsol utions
omet ry
d epend
S o
Ġb ur
S he
on om
ĠĠĠĠĠĠĠĠĠĠĠĠĠĠĠĠ ĠĠĠĠĠĠĠĠĠĠĠĠĠĠĠĠĠĠĠ
y es
Ġcon nected
ann ed
Ġre ached
h ing
{ {
Ġill ust
Ġmin utes
ĠO f
Ġstud ied
s d
i en
Ġcrit ical
Ġcult ure
Ġw id
id ay
t ex
198 5
ĠComm ission
8 9
Ġass ist
old er
Ġ ;
ĠO ver
Ġbeg inning
. /
for ce
Ġpe ak
Ġreg ister
D at
ĠOlymp ics
Ġal umni
evelop ment
Ġprov e
Th at
' ).
f s
x space
Ġfinal ly
T V
R el
Ġconfig uration
ĠP o
Ġevent ually
ig an
ĠF in
b reak
the n
C ON
Ġst ations
Ġv irtual
oy s
ent al
rib e
Ġ ~
ĠH el
Ġde cre
d esc
m iss
Ġc ause
Ġf un
Ġc op
h r
Ġapp ly
sc he
Ser ver
_ .
he nt
ĠW omen
L ayout
am era
am l
w rap
d i
Ġs low
' $
ol k
I O
st ack
Ġ esc
ĠM r
Ġart ist
ĠM ass
Ġrepresent ed
in y
Ġover all
pon ents
Ġgener ally
ĠA tt
C ase
h space
Ġin n
Ġpre m
Ġarg ument
g le
ĠO ur
Ġst ri
anc y
ĠP ri
ĠM o
P R
Up date
Ġop port
ec ution
Ġrem ain
S O
mat rix
ĠA v
alle l
g n
ĠL ake
ĠN ow
ms elves
ollow ing
C ache
Ġd oc
re al
yn ch
Ġincre ased
Ġfam ilies
Ġvari ables
Ġhe l
Ġdec ided
Ġw ide
Ġman ager
4 00
n eq
ud d
Ġp urch
ĠV er
ĠCath olic
uss ian
CO L
Ġcell s
ĠC O
Ġstre ng
F e
st yles
return s
ex ample
| ^
Ġdo ing
Ġlead er
Ġrem ove
ig er
Ġbro ught
r ule
Ġbel ong
} +\
Ġcall back
et te
; ->
T ag
Ġdest roy
ĠComm ittee
sup port
Ġa im
Ġden ote
Ent ity
f ort
ĠB ig
ap prox
a a
Ġfour th
off set
Ġthe mselves
Ġprob ably
fr ame
ĠL icense
Ġv eloc
ĠFil m
ing er
ĠV ictor
Ġb ank
ĠB uild
Ġn ature
Ġpl aced
icro soft
ar ian
Ġ! ==
Ġfor ms
Ġs ort
j ection
ĠR ead
ĠFor ce
Ġrecent ly
W idth
A V
Ġknow ledge
N ote
Ġcoun ter
Ġpred ict
Ġhig hest
ĠAr ray
Ġwe ak
T O
8 6
**************** ****************
Ġoriginal ly
n es
B S
7 1
v est
Ġt ag
ĠB ase
Ġm iddle
ĠI reland
Ġmov ement
ect ors
Ġtr ade
Ġm ur
++ )
k i
Ġocc up
Ġp ark
ir ing
ĠCong ress
Ġcom ing
l am
ĠP enn
ig inal
Ġsc ience
a uthor
Ġsh ot
ut ch
Ġchar ge
Ġan sw
7 3
T S
Ġet c
ĠE X
Ġf ast
and a
ĠGovern ment
ĠE nd
it ory
s ign
Ġreg ions
t ask
Ġdeterm ined
ic ated
az z
Ġant i
Ġvol ume
u ke
Ġarg s
( [
ot ic
ĠSp anish
N et
Ġ* *
yd ro
= {
od ed
D escription
19 50
Ġcompet ition
f g
; "
Ġv an
Ġ[ ]
="../../../../ ../
Ġan im
Ġre pe
prot otype
id ers
{ {\
at o
ĠC D
Ġtreat ment
Ġappe ars
Ġp en
ĠGe org
Ġsh ape
' m
198 3
En try
ã ģ
Ġw ait
om ial
ĠSt ar
Ġlook ing
h y
ad y
Ġev olution
ĠOr der
Ġinter view
Ġfig ure
the orem
P ort
E M
Ġask ed
ec ause
w ar
ĠI ll
Ġrel ation
Ġp aint
Acc ess
ock ey
ĠF e
Ġn odes
line ar
Fr ame
Ġm unic
D o
Ġequ ations
Ġf ra
Ġth reat
Ġqu ite
Ġed itor
ag ger
ĠCh icago
Ġoff set
Ġst ay
D O
Off set
ĠT wo
Ġr ap
ĠB rown
U rl
en umerate
Ġco eff
ĠL and
Ġro ute
Ġb us
il s
iz ont
ish op
Ġag o
ab it
n el
Ġorig in
Ġfe ed
Ġpro ced
Ġa w
AT ION
Ġresult ing
ĠD en
h or
ĠAt l
Ġhe art
Ġleg al
ple te
ĠRuss ia
ĠK n
Ġatt ention
Ġc ard
P O
os ing
} -\
ĠH ere
ĠB ur
Ġa uth
mult icol
T ypes
raz il
ig r
Ġcol lege
Prov ider
math scr
}} {\
Loc ation
re es
Ġmed al
op l
ĠK e
R L
IN E
n ormal
g raph
ĠFlor ida
A m
198 2
T e
c r
Ġman ufact
ĠC ast
E l
Ġcrit ic
out e
ĠVirgin ia
Ġc elebr
( _
d imensional
ĠG L
Ġre con
f loat
Ġse cret
ĠAr ts
Ġtrad itional
Ġm ind
pe ople
ĠL ong
clud e
multicol umn
Ġact ual
Ġ â
w rit
Ã ¨
ĠU nder
Ġmean ing
Ġs ch
d ep
Ġmov ie
Ġl atter
Ġim plies
ind er
Ġob j
m itted
Ġgr ant
Ġr isk
C urrent
c ard
ĠSer ies
g ence
ĠL oc
Ġf ully
par se
Ġqu e
Tr ack
Ġw or
Ġpres ence
V AL
th on
oun ter
ill er
Ġext ended
pro to
under line
Ġh um
ĠHen ry
Ġex ception
Ġneg ative
item ize
b ool
O pen
ĠN S
ĠAr g
G B
ul ate
Ġse ems
ol a
: "
util s
Ġequ ip
Ġ ign
S y
et ch
ĠF estival
et ime
Ġpro per
ĠAs sembly
1 000
os h
Ġorgan ization
ĠF ield
Ġad opt
ur i
Ġapprox imately
Ġparticular ly
ang es
S che
ĠAngel es
ex pected
ist ribut
Ġrat io
r ics
Ã³ n
ĠThe refore
ĠD ev
id ae
ĠR el
ĠA ut
G o
Ġsp ent
j oy
Ġcol lect
r or
% ;
ĠSc ot
all ery
mod els
H O
ĠIt s
Ġstud ent
ĠB oard
Ġget ting
Ġbl ue
8 7
( {\
art ifact
olv ed
K E
Ġe arn
al i
T arget
Ġrec over
Ġother wise
Ġmat ches
ĠMex ico
Ġh ol
Ġde ad
in em
h ouse
Ġgr and
rel ated
Ġact ivity
Ġs witch
tem plate
v ant
Ġwe b
) }{
] \
ã ĥ
Ġin sp
ty p
ac ement
b ed
Ġstat ement
Ġres ources
ec ute
Ġin cor
Ġequival ent
iver se
tern et
D ev
fl ict
r ong
Ġwant ed
Ġa ircraft
Ġu int
Ġf ix
or ation
Ġw atch
Ġrem ained
n orm
iqu es
ĠA PI
N ow
Ġex tra
Ġpre vent
cre te
Ġpro file
d uct
Ġfrequ ency
Ġext ension
Ġc ategory
Ġweek s
ul let
Ġmeet ing
Ġmagn etic
Ġle ave
M y
Ġest imate
T ree
se cond
P i
comm on
Ġfeature d
Ġmin or
t im
Ġplay s
$ (
Ġc it
197 9
Ġre comm
ov iet
unc hed
Ġcaus ed
ĠSec ret
param eter
Ġm ut
ĠSw ed
Ġ- \
v space
requ ire
ĠD ec
a fter
Ġs ometimes
Ġrem aining
pro ve
arg ument
t ree
' ),
um in
Ġdis e
ĠIt aly
Ã §
ĠL ife
not her
ol ute
ĠG a
ib ly
ĠFound ation
Ġsum mer
T I
Ġbroad cast
ĠTr ump
() ->
im ary
198 1
i pl
ound s
Ġche m
ĠT imes
Ġv s
or a
ĠM ur
ic ens
izont al
Ġnot hing
Ġc ore
ĠO h
Ġeas y
The n
Ġopen ing
Ġs ession
Ġal t
j a
Ġre li
P o
k in
Ġre duced
con f
L P
Ġcont aining
ĠM ost
f a
ĠP et
Ġfin ancial
Ġhand le
ĉĉĉĉ ĉĉĉ
f ree
Ġsc ored
Ġvari ety
ĉĉ Ċ
k er
Pro cess
Con tainer
d ocument
Ġse c
d rop
Config uration
8 2
Ġpress ure
ĠPro ject
Ġin str
g ate
ro ot
ern el
D ec
Ġmed ical
ĠT im
Ġnot ed
il ed
res ents
ĠS il
D es
Ġs end
Ġaward ed
197 2
y an
ev en
D irect
ag ment
F T
c over
ĠEng ine
Ġprod uce
#### ####
8 4
Ġneigh bor
om ic
Ġm icro
] );
Ġbeli eve
M ore
Ġsur round
im a
w indow
Ġb uffer
Ġ\ |
ian o
sh ould
Ġne ut
ol t
ĠPro gram
M M
Ġactiv ities
Q L
Ä ģ
Ġp anel
ĠS un
ev al
ĠSh ow
Ġsc ript
wit ter
O ther
u int
Ġem pty
Ġdescrib e
Util s
sy ch
ari ant
Ġcons ists
ĠC re
P op
Ġfri ends
ole c
Ġit ems
ĠM a
d es
P P
cl es
Param eter
Ġm is
Ġf oot
Ġhigh ly
ĠAl though
Ġre ach
ĠB ank
ã Ĥ
197 6
b efore
Ġap plications
$ }
197 8
ick s
Result s
UL T
ĠT our
ĠE ducation
as hed
Ġprogram s
ĠO ld
}} _
Ġf if
ĠS T
Ġd u
He ight
ĠF ile
Ġarg uments
Ġrem oved
S l
i ro
ĠT op
ĠM ax
class es
ĠAl so
Ġcon vert
ou ri
uct ure
Z E
ĠReg ister
H ttp
9 4
Ġcoll abor
se ct
iction ary
Sc ript
P erson
R ange
Cont rol
Ġex plicit
ĠMart in
Ġeconom ic
Ġh yp
ĠDirect or
ed s
S earch
Ġrequ ires
s cal
Ġab ility
\ ,\
Ġb ottom
ĠB as
av ed
S H
197 4
ĠG en
ian a
Ġun iform
no indent
c ache
Ġelect ric
im ages
B O
Ġf loat
Ġsl ight
Ġchall eng
ell ed
=" -
ĠE r
Ġnear ly
Ġsing er
is ms
Ġon es
Ġl en
Ġsh oot
Ġsay ing
Ġb al
at i
Ġal gebra
ript or
Ġsc ene
C R
ĠAir port
Loc al
re ct
Ġcomput er
ĠS aint
b i
oot str
Ġpolitic ian
van ia
n y
ĠS pr
Ġsc ope
as ion
Ġerr ors
equ al
ĠĠĠ Ċ
P A
Ġdeterm ine
Ġg reen
ĠĠĠĠĠĠĠĠĠĠĠĠĠĠĠĠ ĠĠĠĠĠ
197 5
p op
s pect
Ġw inning
ĠM il
f ound
ak ers
Ġt ournament
ĠP ac
Ġclass ical
ĠR o
Ġv ac
Ġimmedi ately
En c
s ystem
ul s
ĠJ o
cont rol
\ }$
CO DE
} '
\ "
Ġs amples
res hold
s ite
p resent
ĠH ot
Ġact or
erv ation
os c
or ter
ro om
Ġhouse hold
ĠR E
r ange
Ġn orm
ĠL ine
9 2
Ġg reater
E arly
ĠA wards
B o
oper at
re nder
ĠCarol ina
197 7
ell ig
ĠK ar
) }$
Ġfav or
ĠPro fess
S L
ĠS ocial
Ġmin imum
ren ce
~ $
wh ite
ym pt
Ġbeg in
Ġch osen
artifact Id
al o
Ġder ived
Ġtry ing
text tt
D D
L evel
ĠD E
ĠO l
Th read
N e
Ġsche me
Ġspect rum
ad ium
ĠTe am
est ed
Ġsepar ate
Ġgo es
P L
Ġrecord s
es h
Ġ( -
J son
Ġagre ement
act or
k o
R I
Ġdim ension
ro t
Ġhe avy
Mod ule
app ed
Ġ ensure
=" _
ĠE mp
ĠGo ogle
orn ing
Ġw ood
D on
operat orn
Ġeas ily
Ġb asketball
ĠOff ice
Head er
are er
' ve
tain s
J ohn
el er
Ar t
Ġpr ison
9 3
ĠH on
Ġcl uster
Ġident ity
Ġturn ed
Ġs uit
Ġestim ated
IG N
Ġbas ic
roll ed
Ġpat ients
Ġdistribut ed
sk i
Ġinterest ing
m en
tr m
W rite
Ġst ra
St at
b uffer
E v
Ġsy nt
Ġsuff icient
Ġcom mercial
) +
res ource
Ġany thing
com ing
Ġparent s
c at
l ines
w a
operatorn ame
Ġend ed
A c
ĠK h
Ġveloc ity
Ġte acher
ir ls
atal og
Ġmajor ity
196 8
Ġl ives
t ml
Ġun ion
Ġex am
ap ers
ven ue
Ġdr ug
AL L
Ġd ou
Not es
ĠS ol
> ,
m atch
Ġcom pl
Ġb attle
Ġse ek
R ev
197 3
Ġf ramework
as y
Ġwrit ers
Inter face
Ġestablish ments
ĠH aw
it ors
ĠYou ng
ootstr ap
tex trm
ab ilities
ĠK ey
ĠReturn s
ĠW ood
AP I
Ġco ast
Ġbr anch
H ash
Ġpo or
is hes
b order
Ġmov ing
v ey
Ġc orn
Ġpre p
C S
ĠN etwork
ĠL ove
Ġdiv ision
ĠIr an
Ġproject s
group Id
Ġstr ategy
ĠChampionship s
Ġqu arter
Ġcomplet ely
ens ions
Pos ition
ov a
ĠN avy
Ġget s
Ġn ative
ĠT em
Ġac adem
p ers
Ġno ise
st ep
R ight
Ġappro p
Ġinflu ence
d irect
Or der
ĠF ort
Ġpr ice
v ector
Ġwh om
cl os
ick er
d im
Ġl ibrary
ip ality
uc ed
ap se
ir med
Em pty
sy l
Ġsit uation
ist ers
Ġrece ive
bl ack
on a
ĠA pp
ĠPar liament
9 1
Ġst ories
d est
Ġgo als
Ġcon cent
in ternal
ak a
er c
Ġs quare
Ġcho ose
er ry
Ġch ain
Ġw ays
ent ity
Ġident ified
ĠAr ab
Ġed ition
Ġw ind
Ġdat aset
Ġinter pret
AR T
ĠS und
ĠHe ad
Ġex amples
Ġm ission
ĠP eople
Ġrep resents
ĠJ un
Ġa mb
" ))
M D
ent y
Ġb rief
ĠC reate
Ġuse ful
Ġlead s
Ġun known
wh ile
M O
Ġsm ooth
Ġshow ed
Ġp ull
ĠP an
ĠJ ournal
ug by
Ġhy per
ct x
-- -
O p
ĠF ri
c ar
Ġcar ry
Ġdel iver
) /
Ġcandid ate
Ġla unched
Ġf air
v a
form s
ĠL iber
a ver
E CT
ot ing
Ġsome one
w an
ore t
ĠO R
Ġch ief
ĠJ im
Ġmost ly
Ġen joy
m ond
cher s
ir al
Ġexp ansion
197 1
Ġsh ared
w s
ĠCh ief
Ġmot ion
ä ¸
Ġj oint
Ġmus ical
ĠG ener
ĠN ame
Ġ util
ĠG ood
M ult
p g
Pro ject
Ġt ouch
i able
="../../../../ ../../
Ġact ress
Ġpl ans
con s
8 3
Ġw ave
Ġp adding
au ge
at ically
d x
Ġim prove
min us
Ġ{ }
ĠL ee
Ġcon sequ
Ġv ote
Ġliter ature
syl vania
Ġa ctions
C al
reed om
Ġis land
or al
C opy
Eng lish
Ġmention ed
u ages
! !
Ġcle an
Un it
196 9
Ex pression
Ġbe y
as er
ĠEar th
Ġstra ight
AC K
Ġph il
8 1
c ient
ific ations
ĠIr ish
Ġl if
ĠL ibrary
ĠRev iew
: (
Ġag ent
ĠVal ley
ĠL in
ect s
L I
Ġbe aut
ond er
Ġnetwork s
Ġe igen
um s
Ġatt ribute
ĠJose ph
194 0
le ep
ĠSt ep
styles heet
Ġsh ift
- $
it ation
D ocument
M C
li e
ĠB razil
V er
F O
Ġgiv ing
Ġs u
M enu
as ure
ĠB ob
Ġform ation
ĠU s
Ġcent re
Ġbey ond
und red
ĠHam ilton
Ġthe orem
ĠB i
Ġ* )
ar c
ĠI S
yn omial
vir t
Ġf arm
Ġann ual
ĠR un
t oken
ans as
ST R
annot ation
Ġst eps
Rec ord
Ġappear ance
Ġar m
Ġvis ual
stit ution
f n
Ġset tings
r ich
m ann
ĠS ir
us band
D ir
Ġ> =
Ġfl ag
rom e
ĠC am
Ġmap s
Ġs plit
Ġproduc er
Ġdat abase
ac cess
Ä ĩ
T ER
194 5
b as
et ry
it an
d el
sh ift
af e
h igh
$ _
Ġess ential
m ode
D uring
M e
Ġquick ly
Ġstud io
ĠG ame
ĠIn st
Ch ange
Ġtem plate
al ysis
á ĥ
st ein
dev ice
Ġfore ign
Ġc at
Ġr iver
ĠJ ud
SE T
ĠCol umb
Ġpl ane
Ġgener ate
Pro perties
ĠM ap
Ġper fect
Ġn et
ĠChe ck
N on
Int eger
L ong
Ġobserv ations
k ind
ĠII I
Ġk ing
Ġr ul
Ġcontinu ous
a uth
Ġm achine
ĠB usiness
S ign
ult ural
Ġcontr ast
Ġc arried
if ically
U P
mod al
ĠC all
ĠN orthern
C ar
Ġar rest
Call back
196 7
ĠW ales
Ġmur der
19 30
Set tings
struct or
Ġx ml
Ġgener ation
Ġra ise
ĠB re
Ġdiscuss ed
ĠUS A
N one
Ġcompar ison
Ġ Î
ĠF urther
COL OR
Con nection
Ġmet ric
AN D
ann els
ĠP ak
s ur
ir a
ĠÂ £
% %
d ebug
ĠA L
ĠC ross
ard en
Ġpur pose
Ð »
Ġpol y
Ġvoc als
Ġindividual s
Ġse asons
Ġv oice
est s
Ġexact ly
f aces
L eft
Ġarchitect ure
Ġcap acity
Ġfact ors
un ct
Ġover ride
ig ration
amp ion
Param s
Ġsurv ey
Ġ ::
ĠAss ert
O ption
Ġtr aff
ĠY our
Ġder iv
h ash
ce an
Ġjo in
Ġold er
Oper ation
he m
Q ue
u is
Ġquest ions
Ġstr ict
ew idth
Ġre nder
S w
Ġprocess es
M ark
W E
Ġs outhern
Ġnew sp
s or
Ġl ock
T im
ĠM ethod
i pe
' ll
r ick
Ġth r
Ġtr a
ĠD evelopment
Ġse a
Ġdes pite
Ġpl ot
Ġra ised
Ġimplement ation
Ġar rang
Ġpre t
in et
l ers
D own
Ġevery thing
}^{ -
Pro t
O ur
Ġinter action
subset eq
av ity
wid get
j i
}} }
k l
Ġconstruct ed
ĠĠĠĠĠĠĠĠĠĠĠĠĠĠĠĠ ĠĠĠĠ
ut y
Ser ial
Ġlaw s
hes is
Ġdist inct
Ð º
Ġsit es
Ġth read
Ġdig ital
Ġatt ended
Ġred uce
arri age
g lobal
Ġr ates
Ġs uc
Ġ _{
Ġsp read
Ġcomp act
Ġoffic er
Y ear
Ġf ederal
ĉ Ġ
' .
Ġhe nce
F urther
St ore
ategor ies
Ġch ampionship
Ġsen ior
196 4
u y
Ġfil ename
Ġs ave
ost on
Ġn orthern
f ri
Ġh ope
g a
at ers
Ġinv oke
Ġas pect
ĠMed ia
ĠCh ild
Im pl
Ġtest s
Ġ$\ {
ĠSp ain
D A
ĠT HE
ĠS oviet
ĠS ar
f ocus
Mem bers
Ġcommun ities
c p
F ont
Ġcou ple
Ġemb edd
" ));
Ġent ered
Ġoper ators
Ġent er
Ġe mail
Ġrespons ible
ĠEmp ire
I A
Ġdem and
Ġown ed
Ġparam s
st one
ĠJ ac
ĠF red
Ġoff ers
Ġcomb ined
S ing
inn ers
bit r
d eg
Ġm ixed
Ġo il
Ġin fo
< \
trans form
f ony
Ġm aster
E O
Ġman if
ĠM P
ĠE ach
Ġfor ced
ad or
hed ule
ĠProv ince
Ġcur ve
H ere
end ar
we et
15 0
se ud
air man
P at
leg al
Ġbecom ing
Ġlet ter
ym fony
Ġex tract
Ġh op
T C
if ies
25 5
ĠPl ay
Ġres olution
s ort
Å į
ĠCent re
ell er
ĠW al
ĠS pe
ĠCol or
ow ers
cont in
Ġ eth
Ġprov iding
Ġf irm
b ind
ell ar
por ation
pos es
The ta
Ġser ious
ĠBrit ain
il arly
Ġs ociety
b an
Ġserv e
ĠL i
che n
u er
X X
ar ant
Ġat tr
ĠM ov
h aps
In st
Ġp refer
Ġcomm ission
Ġcall s
Ġh ar
m ut
Ġmag azine
ĠH ome
Ġsp aces
he mat
h over
Ġr an
S k
196 5
\ '
Ġinitial ly
ĠHistor ic
ic ed
s v
n am
Ġall oc
Ġpr iv
ĠO p
Ġsignificant ly
Ġin fin
As ync
Ġw all
L a
Ġinteg er
196 6
s end
Ġle aving
v as
Ġt errit
Ġal leg
D ep
}} ,
Wh ile
ul y
ĠThe ir
Ġst orage
Ġown er
ĠL ang
p ool
foot note
ĠV is
Ġl ived
S R
s ession
er ies
Ġmeas ured
olog ies
ĠAs ia
ash ion
ynch ron
ig a
Ġp ackage
ar ia
Ġis n
Ġvert ex
ici ency
ay lor
im b
Ġre ports
ĠB G
C areer
ĠS outhern
Ġto ken
ug ins
= (
og gle
omet ric
Ġun ivers
Ġw orth
n ers
ĠT re
Ġhas h
Ġass ign
Ġdram a
ĠS ong
Ġs al
Ø §
P ass
lin ewidth
Ġtyp ically
Ġh usband
Ġm ill
Ġon to
doc s
Ġadv ant
add ress
OR D
Ġprot ect
est amp
Ġrefer red
ĠPenn sylvania
enn is
Ġhelp ed
Ġch art
ĠU kr
Nav Bar
Ġpos itions
ĠJ ones
Ġ$ {
S m
Ġexper iments
Ġ ice
Ġc ert
Ġ" \
med ia
Ġin ner
on ym
Ġr ailway
Ġnumer ous
Sche ma
19 20
ĠCon ference
ed ia
field s
ĠL ord
ĠĠĠĠĠĠ Ċ
Ġfl ux
rop y
ĠEx ception
Ġre b
================ ================
ĠT ele
inal s
Hand le
ud get
ĠB et
) |
s ol
b ury
def inition
{ $
en v
od ay
Ġdepart ment
P tr
: \
Ġresp ond
ast e
Ġwork ers
r ical
R ed
ynam ic
ĠG al
Ġfore st
ĠJohn son
pt on
U se
ĠMan agement
Fil ms
Ġcit iz
in f
Ġsem i
dis abled
ĠSt e
Ġvict ory
Ġsur pr
Ġr ail
Ġdis s
il a
ple x
ograph ic
Ġdefe ated
Ġthe rm
Ġp iece
sec ut
c ut
S um
sub figure
ĠEn ter
ĠG reek
Ġdi agram
ĠD ate
k ins
Ġbound ed
av al
ĠG i
il ation
ĠĠĠĠĠĠĠĠĠĠĠĠĠĠĠĠĠĠĠĠĠĠĠĠĠĠĠĠĠĠĠĠ ĠĠĠĠĠĠĠ
Ġex ternal
ĠL uc
Tem plate
t ure
ĠB attle
el a
( :
all ow
align ed
S ession
Ġh arm
set minus
en um
ĠRad io
aw s
anc ing
ĠDemocr atic
Ġw rong
Ġrele vant
ĠWilliam s
web kit
Ġtest ing
inter face
Ġen h
ĠS and
ĠOh io
r u
ĠH and
ino is
G E
_ *
ĠP ubl
ĠC ivil
Refer ence
ĠE p
Ġro ll
Ġtechn iques
Ġcontribut ion
x x
ĠPac ific
() :
em porary
Ġw ild
How ever
O K
Ġexist ence
ĠR am
Hel per
Ġp il
Ġass ess
d elete
Ġform ula
at ial
ress ion
De cl
1 20
typ es
ib li
Ġc ensus
ĠU N
ap ed
ĠC ON
og rap
m ake
Ġhistor ical
Ġb ill
omorph ism
Ġar my
Ġcomb ination
Ġc ache
ĠT ra
l ate
w er
Ġc os
anc he
y er
ĠC amb
ĠScot land
ĠFrancis co
Ġcover ed
ĠP rem
Ġdom in
Ġtrans action
s pe
burg h
Ġcre ating
ĠH or
Ġmain ly
ĠM ath
Ġmet al
ad er
ĠSpec ial
ĠR h
Ġpol ynomial
equ als
urb an
h ar
Ġac com
ĠF ace
Ġauth ors
r an
Ġr ing
ent h
Ġn ine
Ġ ut
Ġf elt
ĠM ah
ĠM en
P T
re q
stand ing
Ġoffer ed
Ġ( $\
Ġrad ius
Ġg irl
ul k
Ġman aged
Ġrel atively
ay a
Ġcon flict
cl aim
ic ity
ex ports
Ġin form
ab y
ĠMich igan
A ust
ĠP y
Ä ±
ic ine
Ġconsist ent
Ġf ine
Ġbr and
Ġseg ment
Ġaccur acy
to String
I ter
Ġse at
ĠC ro
ĠTr ue
str a
gy pt
T itle
Acc ording
l as
Ġ$ |
= -
Ġrelig ious
Ġinit i
ic ons
ix el
com ponent
N ames
os a
p lement
virt ual
Ġopt imal
ĠB ow
E Q
ad el
Ġd raft
p a
jo in
Ġat tract
Ġb lood
ĠCar l
Ġar bitr
pos ite
f ull
are t
r id
c opy
ĠB oth
Ġb att
Ġpart ies
Ġclaim ed
gorith ms
ĠJew ish
Ġdet ection
ĠIs lam
Ġf le
Ġc ounty
Ġp ert
ook s
ĠQue en
Ġslight ly
u ations
PE CT
at rix
\ }
fr ont
Å ¡
Ġdep th
Ġpro test
Ġtrack s
Ġ\ ;
ĠE qu
Ġe cho
Ġcomp ute
Ġcl oud
ĠBl ue
col l
u v
ĠCo ast
ĠP op
ĠP oint
Ġlead ers
g est
aw a
lim its
ĠW ay
os oph
196 2
igh ter
Ġref lect
Ġfam ous
hand le
Ġim ag
i y
}} _{
R ect
="../../ ../
ĠSen ate
ĠL ie
ma zon
Ġdev ices
c lear
ĠC y
D raw
Ġext rem
ms g
Ġinteg r
H as
al g
Ġrem ov
P H
Ġdepend s
ang ular
ĠW ell
em ic
Ġc ities
Ġex change
ĠC ard
Ġelection s
L S
t n
OR M
it age
ĠO x
ĠThe atre
Ġr are
Ġ$ [
Ġdise ase
Ġ{ };
K ind
p ower
Ġfl at
sh ot
ĠL ab
Ġsing les
196 3
~~ ~~
r idge
Ġun iversity
eng er
let on
Ġn ation
Ġsaf ety
Ġin struction
am m
ag raph
ĠT ro
im s
Ġeffort s
ult y
Ġenc our
ĠTechn ology
Ġfail ure
Ġapprop riate
w riter
ĠJer sey
b al
V ar
j e
Ġsc atter
as i
Ġst ack
ĠT ri
am ing
result s
ERR OR
foot er
A pi
Ġla unch
Ġin come
ic ans
ur ies
## #
h om
ĠSt and
Ġh undred
Ġexperiment al
opl us
OR T
if fer
Ġem ission
Ġm olec
Ġpol ar
^{ -\
ĠF C
W ill
Ġal one
Ġ[ '
Ġreve aled
fo o
Ġdr ive
Ġshow ing
iss ions
Ġc ook
Ġt or
ĠK ent
en ant
Ġang le
Ġcontain er
ack et
B i
r im
z o
he lp
set tings
Ġro ut
Param eters
z ero
ach us
Ġp le
ĠM ain
cl ick
sh all
ern ame
M ain
sk y
st at
Ġstreng th
Ġg un
Ġlate st
Ġproced ure
ĠP ower
& #
Ġhand s
Val ues
Ġdynam ics
Ġpro ceed
16 0
on to
ab eth
Ġh ospital
pl ugin
z ing
D S
Ġpartic le
) "
Ġin tr
s en
p atch
os is
ex port
=" /
Ġlo op
h s
ĠB ern
ott ed
att ice
ĠAs ian
G ET
et ts
Ġorgan izations
Ġclass ification
let ed
are n
Ġth ous
Ġcl ust
ĠMod el
Ġmaterial s
Ġth ick
Ġto ol
Ġgrow ing
G u
ev es
Ġd ual
M ay
ion e
ry st
Ġex c
Ġtr ust
ĠEd ward
C ore
' ],
Ġde lete
Ġj av
ĠPhil ipp
Ġevery one
Ġorder ed
depend ency
Ġtraff ic
H ost
ult s
Ġoffic ers
* {
ĠW indow
er g
Ġpartic les
ro duction
ĠW all
m i
ĠM ajor
ĠV an
Ġcol on
Ġl i
Ġpar se
Ñ ĥ
c ustom
Ġl ies
Ġb inary
el i
ĠB oston
equ ality
194 4
ad s
Ġind epend
P RE
Ġdis k
Ġtri al
Ġtask s
Ġdet ail
Ġf ans
Ġincor por
il ly
Ġserv ing
ĠL im
Ġwe ap
B L
m aterial
Ġs ister
ĠM any
Ġrecord ing
B R
Ġstr ateg
ĠAnd rew
Ġed ges
The se
Ġgen us
Ġb ass
Ġmeas ures
ĠH a
E ach
T ool
bl ue
fr am
put e
In valid
ĠE lect
ĠI d
N um
st ore
Ġdiscover ed
Ġfe at
Ġcan cer
AT H
ell i
sc ription
Ġcoun cil
Ġass igned
prod uct
N G
ud io
N ational
Pol icy
ent er
rom ise
Ġaltern ative
em y
Ap plication
ĠIll inois
ĠE vent
d uce
F ound
u ilt
ĠS ervices
e z
ck now
p anel
W orld
ĠR equ
if ul
196 1
Ġh ydro
Ġdel ay
), \
ph y
oll ary
Ġag reed
Ġform al
ĠD utch
orn ey
ic ients
Ġn amespace
ne ctions
ĠK ong
iv ial
F alse
Se cond
ful ly
Ġp p
v ol
Ġoper ating
uck y
Ġst ock
D om
Ġpart ial
ĠSecret ary
ĠN ight
un a
Ġmin im
Ġincre ases
Ġident ify
N E
ĠI P
c ript
r ine
clud ed
ĠM id
Ġs ales
ellig ence
Ġs qu
ann er
Ġund efined
ik i
ĠRep resent
achus etts
Ġachi eved
Ġcompos ed
atur day
Ġact ors
Ġc ool
ta il
Ġsc hedul
agn ost
ĠSund ay
Ġdiscuss ion
ip eline
Ġrap id
Ġdr iver
Ġg auge
us es
Ġsh ips
ĠBG COLOR
Ġhead er
Ġ+ +
Ġs quad
Ġ( '
V ector
Ġp ool
o ir
v m
: #
c ases
Ġexpress ed
and on
Ġw rap
ĠM iddle
ra wn
D IR
C or
el d
Ġel im
Ġprot ocol
Ġpair s
w edge
Back ground
ĠW ild
duc ing
c f
ĠW ater
Ġcont ained
D i
d f
ĠM ot
Ġcy cl
ĠPr ince
Ġsuc ceed
Ġs ampl
imens ions
Ġcalcul ated
ĠH uman
^ -
Ġcommun ication
Ġsp irit
Ġwest ern
cl oud
Ġ| \
ad r
ĠSe a
D L
art ers
ĠW eek
Ġde ploy
Se ction
ĠGeorg ia
Ġsatisf ies
S M
Ġcre ation
Ġconduct ed
AT A
C K
Ġconstr aints
d agger
Ġunderstand ing
Se lect
Ġb illion
Ġveh icle
ĠPol ice
ĠA ff
est er
arri er
_ +
ĠPro position
Ġvers ions
Ã ±
p adding
Ġpro pos
Ġcomp are
od d
Ġblock s
ĠJ r
gr ade
Ġser ial
ĠB ack
c ategory
ĠF ree
Ġ\ (
Ġocc urs
ĠB or
Ġcy cle
a is
Ġcom edy
Ġprocess ing
ĠGovern or
od ies
id get
Def inition
Ġpro min
D em
Ġprop ag
g ers
it o
Ġbeli eved
194 2
i ate
Ġattack s
Ġ$ .
Ġover l
sh ort
Ġpolitic ians
Ġh idden
Ġke pt
195 9
Ġn omin
z en
am in
> ();
Ġst able
go ing
Ġeff icient
Ġp urs
Ġoper ated
S ome
ap es
By tes
Ġtr av
ĠJack son
Ġp ush
B rit
ĠPol and
Ġstat istics
Ġreg ional
P arent
Ġmeasure ments
ph one
Ġiss ued
ĠV iew
Ġ} )
ĠA R
b ro
al ing
A F
U RE
press ed
Ġcult ural
ition ally
AG E
Ġabs olute
ĠL y
con nect
Class es
ob s
Ġsett lement
ĠE conom
Ġgalax ies
oth ing
ĠSt an
ĠU se
' >
St ack
is c
ĠJ on
Ġassum ed
ĠM u
clus ive
Ġsim ulations
ĠA ri
it ness
Ġ ul
M ember
ĠH ence
Ġf loor
ĠP ass
D R
Ġre asons
big g
CT ION
Ġs uffer
Ġ ens
L java
195 8
Ġsymmet ry
Ġcontribut ions
ird s
194 8
195 6
Ġbr idge
Ġp ages
Ġpart ner
ec es
ĠR ay
Ġprov ed
Ġle aves
Ġs ector
Ġ} \
Arg ument
Ġappro aches
Ġo s
Ġuns igned
ĠC a
b ootstrap
Ġnumer ical
b re
ĠF I
ĠS ports
P arser
ig in
ĠMore over
an es
Dev ice
ĠĠĠĠĠĠĠĠĠĠĠĠĠĠĠĠ ĠĠ
u ous
and ra
Ġcle arly
Ġin line
ang ing
Test s
ament al
het ic
ĠComm unity
B efore
ĠM A
Ġtr ained
ĠL o
com ment
Ġapprox imation
-------------------------------- --------------------------------
b ot
k et
Ġins ert
Ġtri ed
Ġallow ing
Ġr ac
fram ework
Ġf re
ĠEast ern
Ġre ject
Ġopport unity
Ġpar allel
Ġm useum
D oc
ĠC ode
Ã £
ĠDan iel
s uccess
Ġm orning
Ġv ary
Ġadministr ation
Sh ow
ĠE gypt
Ġclaim s
Ġcom ments
Ġor ient
Ġres idents
ol es
Ġint ended
Ġfra ction
Ġconc ert
Ġmoment um
Ġw inner
Read er
Ġst reet
T ab
ĠK en
Ġr ise
Ġindic ates
C re
}} (\
Ġart icles
point s
D P
Ġlang uages
ĠN O
c uss
ag ers
ĠJ eff
Ġcorrespond s
Ġexecut ive
Ġvert ices
Ġsecond s
ĠH arr
g reen
og en
ĠJ oe
ĠK r
19 39
195 7
( *
te en
Un ited
ell o
Ġstart s
up le
in ity
block List
V ari
Ġansw er
Ġp aid
Ġrepl ace
ap os
S ports
ĠKore a
Ġpower ful
Ġbe at
Ġstr ugg
Ġdiffer ences
Ġacqu ired
Ġspect ral
Ġn om
Ġhe ard
B I
Ġc ars
ĠPort ug
Ġpol ic
co in
` .
Ġofficial s
ĠB ang
oc cer
Ġconf irmed
ĠHT ML
st o
yd ney
u ing
Ġview s
Ġex tr
' \
g g
ograp her
Ġfootball er
ĠF ar
se ar
for all
f amily
Ġnot ice
ĠIn formation
d ouble
W riter
re place
ĠMass achusetts
Ġ icon
Ġthem e
Ġred uction
ĠL ittle
ĠJ es
Ġcon ference
Ġb oy
p an
Ġprofess or
I con
Ġax is
Met adata
Ġdirect ory
Ġf ellow
il ing
Ġj ourn
ĠBro ad
ĠJ SON
Ġmark ed
Ġdam age
ĠM ike
Ġ ),
Ġc er
Ġvert ical
sc ape
Ġadd ing
ĠF our
_ ;
Fig ure
ĠC ur
Ġdet ailed
Ġsim ulation
ĠEX PECT
Ġabs or
op her
ĠSt at
ĠScott ish
ĠSec urity
_{ {\
194 1
Ġret ired
m c
Ġindic ate
ac le
Ġded icated
n ap
ĠT w
Cl ick
Ġch ance
Ġnear by
Ã ¢
Ġhe at
Ġachi eve
mult i
ĠComm on
ro vers
Ġs port
pect ive
Ġin equality
v in
Ġd og
Ġmod ified
Ġin fr
i Äĩ
ath an
-- >
194 3
Ġinterest ed
Ġsim pl
} "
Ġle tt
rad ius
text sc
Dat abase
Ġdet ect
Ġcontin ues
En abled
R ender
Ġth reshold
SS ERT
Ġp an
Ġclub s
Ġvis ible
An y
reg ister
Ġm arriage
P ublic
ĠCol lection
on ia
Ġby tes
Ġregard ing
W S
Ġpret ty
ĠOn ly
Ġcost s
ang o
Ġfor t
bo olean
Ġsh op
C ast
ner gy
W A
S ION
hold er
Ġbu y
% )
ul f
co pe
Ġyou th
B E
' d
E q
og ene
Ġbehav i
ist ical
Ġun less
Ġt ensor
12 8
est ic
Ġcl in
ĠJust ice
Ġcirc le
Ġp ure
ĠOr gan
H z
Ġnuc lear
AC E
D ebug
m o
ok es
Ġal gorithms
reg ion
t ers
ĠH y
Ġassum ption
Ġ Å
Ġatt end
Ġp i
by te
Ġcal c
Ġrem ember
Ġapp arent
Ġepis odes
_{ (
ul pt
ĠMus lim
ĠSt ation
Ġread y
un te
inst all
w ater
B ody
ĠD ar
Ġgr id
ĠR ailway
ĠH ospital
ab il
M ock
Ġsuggest ed
m ock
Ġdes cent
Ġto ols
at ible
ist ent
ĠB ir
st op
ĠB a
Ġp et
aw n
Ġany one
Ġearn ed
ĠL ead
pos s
By te
25 6
Ġaccept ed
ĠCh ris
Ġp m
Ġp y
n ames
Ġloc ations
ĠColumb ia
Ġequip ment
s ch
m aster
Ġ ult
ĠT aylor
ĠF ire
Ġrec all
Ġv en
f ly
Ġadopt ed
ĠDes ign
ĠRepublic an
Ġm obile
194 6
Ġperson nel
Ġob vious
ren cy
E rr
D elete
iz abeth
ĠW is
Ġm ock
out heast
Ġsubsequ ently
ra q
25 0
d ist
ĠT ext
ĠA k
ĠE st
Ġc amera
ĠComm and
am i
n eg
EN D
Ġby te
Ġupd ated
ĠJ ean
istribut ion
On ly
Ġp sych
G eneral
> .
ap pe
gr id
m argin
Ġarr ived
Ġtyp ical
ĠE ven
}$ -
ĠH ong
r ices
6 00
Ġst ress
tain ed
Ex p
ĠL ight
H S
195 5
ac c
A v
Ass ert
Ġent ity
ict ions
ĠF ederal
ig ital
195 2
ors hip
call back
ĠS om
ĠD own
Ġdec ay
Ġcomput ed
ast r
Ġinter val
ĠL atin
Ġaff ect
ĉĉĉ Ċ
p et
anc er
her it
th ur
194 7
ĠPr ime
ic ip
D C
R oot
Ġg ain
Ġoccur red
ĠOx ford
form ance
b ad
R ad
Ġanaly t
Ġcl imate
j ust
Ġdiv ided
ĠK enn
Ġm ask
Ġinstr ument
Ġdist ingu
ĠA uthor
Ġp it
Ġse ctions
Ġhous es
it ical
an th
P U
T A
Ġa wards
Arg s
k g
n one
ĠR og
Ġex cit
Ġcall ing
ĠH ung
ĠU ser
Ġassoci ation
) ^{\
m ic
Ġintro duce
Ġv on
ĠL O
ad ing
am ber
up s
Ġrepresent ing
uck et
Ġm orph
ri or
)\ ,
A ME
Ġcoupl ing
Ġfin ish
y o
Ġsex ual
Ġneighbor hood
t oggle
b its
ce ived
Ġestim ates
Ġgu arant
ur er
Ext ension
ex ception
Ġcandid ates
Ġact ing
ĠBro ok
G S
ph as
ĠM ond
em ail
ĠB oy
R ule
Å Ĥ
Ġl abor
HT ML
ear s
Ġprim arily
in itial
Ġunc ertain
ram es
Ġmechan ism
Ġcoeff icients
ĠV alue
Ġop in
Ġadvant age
item s
uz z
Ġfl ight
Ġro ugh
sub subsection
__ __
Ġpert urb
Ġw aves
Ġinstall ed
l ife
' ))
ĠC at
X ml
hent ication
or gan
ĠMed ical
mod ules
ap plication
ict ures
Ġwid ely
Ġsecond ary
ĠC reek
ar ation
ĠU r
Ġinteg ral
n n
ĠW alk
ph ia
ud es
Ġis ol
Ġtw ice
Bo olean
sh ape
ad min
Ġreview s
IT Y
call ed
Ġp icture
ak i
aut o
Ġanal og
Ġmot or
ĠH ig
ĠBer lin
Ġcomp r
Ġide as
Ġp al
port ed
ĠA N
Ġfif th
n i
ĠFace book
W est
ĠCor poration
ĠE rror
S ymfony
ĠA M
) }(
b ullet
Ġrest aur
ĠV ill
let s
ins ert
am er
Ġre sear
ĠB ul
FA ULT
Ġcur ves
ĠR et
Ġan cient
a ught
Ġtell s
195 3
") ]
V D
l ig
.... ....
Ġcon sole
Ġcre w
195 4
Ġj son
Ġs pl
ĠWil son
Ġcorre lation
? :
St orage
eder ation
ill ing
Ġto ward
ĠPl aces
h u
in v
a ug
Ġsuccessful ly
G en
ĠFr iday
Brit ish
Ġaud ience
Ġinvest igation
Ob j
Ġs ides
ĠAlex ander
Ġm iles
Ġdown load
ĠInd ust
ele ase
h ard
C I
im inal
ĠS i
Ġme ant
pre c
Ġpl anning
ĠProfess or
el ess
Ġmod es
adel phia
Ġch annels
Ġexp at
enn es
ier arch
Ã£ o
. '
ĠM inn
D ialog
r ons
Ġtechn ical
ĠG lobal
Ġm sg
olog ist
Ġarbitr ary
Ġstrong ly
The y
Ġfe et
\! \!
Ġact s
Ġd ie
Ġap pend
; <
ĠVictor ia
Ġatt ributes
ou red
ĠPak istan
Ġmeasure ment
L ock
ĠN OT
Ġmass ive
cl ip
In itial
ĠTh ree
col on
Ġfind ing
ol ver
hen s
ĠR os
Ġd aily
ĠBel g
Ġdistribut ions
) ).
S ch
Ġh ockey
; /
Trans action
ĠM ir
import ant
if er
ĠB ell
' _
Ġwas n
) _{
ag a
Ġsp ot
Ġadj ust
Ġ> >
Ä į
Ġph one
Ġlook s
C M
Ġnot es
194 9
Ġrequire ments
ĠS aturday
ĠB ecause
Ġden otes
istr ation
Ġlist ing
ri um
ĠK im
Ġlead ership
Ġtro ops
Ġfac ilities
int on
ĠS us
se x
Ġchall enge
D I
Ġ< =
Ġl ab
ak s
ĠF amily
sc reen
c ing
Ġear th
Ġimprov ed
l aw
Ġe yes
ĠB and
iv ery
Ġ il
key s
Ġcomm it
ĠR om
N R
id el
ack s
Ġimport ance
Ġt al
ĠS ydney
old s
Ġam plit
Ġp hen
Ġtr uth
Ġl iber
Ġtre es
rop ol
ĠO nt
Ġro les
Un iversity
Ġexpand ed
C ustom
Ġsh ock
Ġre ct
ĠGu ard
ĠPh ys
p red
ĠB ad
L ang
ent ed
Ð° Ð
ĠOff icial
Ġad vert
8 00
att ribute
Ġap plic
Ġcapt ured
Ġbeg ins
ĠM ult
ĠIs lands
oc ation
} %
M usic
es ota
Ġhon or
Ġcommon ly
Ġo dd
Ġassert Equals
Ġfig ures
Ġfeat uring
s el
V ideo
Ġt end
um es
Ġde com
Ã¡ n
Ġcitiz ens
on al
Ġkey s
Ġsaf e
ĠU RL
\ _
ic er
def ined
Ġfocus ed
ĠĠĠĠĠĠĠĠĠĠĠĠĠĠĠĠĠĠĠĠĠĠĠĠĠĠĠĠĠĠĠĠ ĠĠĠĠĠĠĠĠĠĠĠĠĠĠĠĠĠĠĠĠĠĠĠĠĠĠĠĠĠĠĠĠ
Ġspe ech
Ġbut ton
W rap
Ġs ust
eg o
Ġp ra
ĠC orn
ĠV iet
Ġbase ball
ific ate
Ġsum mary
Ġreg ime
1 10
Ġthe oret
ĠI l
Ġcrit er
ed it
y ard
in line
Ġchem ical
ĠR ail
T wo
an try
ĠL ater
sp ring
el ly
Ġhyp ot
h l
Ġacadem ic
Ġpart ition
Ġend s
__ (
Ġ era
pl ugins
Ġdef in
Ġpl anned
ĠS her
Ġm essages
Ġtri p
or i
Ġveh icles
ĠP M
p icture
Ġalong side
ze ch
ĠB BC
N etwork
n ic
ĠR en
ĠW he
ĠReg ion
medi ate
sq l
Ġorgan ized
Ġeast ern
Ġ+ \
à ¸
Ġl ayers
] ]
Ġd ance
Ġtr igger
co q
Ġcoordin ates
Ġh our
ĠA ction
P ool
Ġnewsp aper
ĠTor onto
ĠW ho
ĠG ar
ĠN Y
195 1
sup er
Acc ount
ĠW in
agon al
im pl
ĠS a
ĠBe ach
Ġpolit ics
Ġsp atial
Ġ' /
ether lands
M ENT
ĠL ew
ĠM ember
j ar
se curity
Ġcr ime
ĠStud ies
ĠB al
ĠRe al
Ġprogram ming
Ġcapt ure
ĠP en
ĠPol ish
ĠCor ps
J ECT
ĠSp ace
âĢĿ .
Pro p
Ġn g
,\ ,
Ġcol lected
Ġtechn ique
Ġsom ew
ĠB on
per p
Ġa thlet
b en
ĠMin istry
ĠSup reme
Ġscal ar
ĠLoc al
Ġag ree
EX T
n umer
Ġn arrow
Ġsold iers
al so
w all
z z
al id
ost er
bour ne
Act ive
Ġinter actions
st ro
\| _{
Ġeconom y
ĠĠĠĠĠĠĠĠĠĠĠĠĠĠĠĠ ĠĠĠĠĠĠĠĠĠ
ax is
ĠO s
n ership
ĠI O
Ġset up
Ã ¸
Ġco al
t w
Ġh uge
Ġa ware
ĠCl ark
ann a
Ġac comp
V ol
Ġread er
for ward
in son
Ġsub set
Comm on
ĠA nother
il ib
Ġhapp en
Ġord ers
Ġs ell
t ri
ĠC opy
ĠE very
H igh
Ġmin ister
ĠWindow s
Ġcorn er
ĠF air
ĠArg ent
Aust ral
Ġw ants
un ities
Ġg ap
Ġl at
duc es
Ġdepend ing
Ġtr ail
Ġdo or
ĠAd ministr
}} ^
Ġlarg ely
` ,
Ġd iam
OD O
Ġdeg rees
_{ -
Ġsup ply
Ġtransfer red
Ġpl ants
Ġinc ident
proto buf
pass word
ac ro
Ġmed ium
he ll
Ch anged
ĠSc iences
' }
reate st
cm d
c ert
Ġw allet
an z
Ġtrans formation
St ep
Ġf ashion
Ġf reedom
M B
{ $\
Ġpro port
erv ative
Ġb udget
M eta
Ġperform ing
ĠR od
rec ord
h ol
Ġturn s
Ġl attice
ĠB C
Ġmon itor
Ġs yn
Ġnew ly
P ackage
Ġsil ver
Ġmunic ipality
ĠC ount
Ġre ality
Ġl icense
ĠKore an
Ch annel
is is
ĠA sh
19 36
w ait
Ev ents
Ġf lex
ĠOlymp ic
ĠMc C
ĠC irc
Ġad m
C ap
Ġpl us
Ġimplement ed
ĠA ND
KE Y
ĠT am
li k
ord ers
ĠĠĠĠĠĠĠĠĠĠĠĠĠĠĠĠ ĠĠĠĠĠĠĠĠ
Ġz one
Ġdynam ic
Ġfunction al
ĠI raq
D el
Ġlearn ed
Ġappear ances
FI LE
Dis play
c pp
oper ation
not ation
Ġassist ant
Ġg rew
ado op
em on
Que ue
Ġ$ -
Ġdescrib es
s id
r ub
Med ia
et ing
I E
Ġc row
~ $\
Ġh tml
Ġtre nd
ron ic
Ġaff ected
Ġsing ular
ĠR aj
r ase
ĠM aster
en ess
Ġpr ime
st able
ĠChrist mas
Ġtrans lation
Ġadv anced
anc el
F R
ĠA venue
Ġengine ering
ly ph
Ġa head
ut t
ĠL ast
reg on
ĠEl izabeth
Ġport ion
ask a
R est
19 18
he im
l an
. *
ĠA li
ĠIn f
Ġl ie
Ġplan et
ĠA re
Ġposs ibly
Ġcompet ed
19 38
Desc riptor
Ġmatch ing
th read
Ġ rom
ime q
in er
Ġ( *
Ġprote ction
}^ *
ow a
Ġhe ro
TE D
sc roll
Ġv otes
t wo
Ġlim its
Ġb right
$ ).
ĠW ars
Ġprov ince
er ial
Ġopt ical
Sec urity
rop ical
Ġf resh
s imeq
ĠV ersion
) ),
dom ain
s uch
ev in
r f
con sin
rem ark
Ġdis pl
iv ation
Id ent
ĠW at
Ġide al
Ġb log
Ġsub stant
N ov
Ġrepe ated
ĠCol l
Ġdecl ared
h ab
Ġc e
ĠAn y
B est
ĠPri ze
ĠF re
Ġexpl ained
it led
as ets
Ġm apping
ĠSt eve
ĠIn ternet
ft ware
m osp
Ġp lease
ĠM icrosoft
ĠU sing
ap ol
Ġh abit
ĠUn ivers
Ġn or
Run time
S outh
Ġfact ory
Ġst ellar
Ġext end
ĠS ant
Ġdestroy ed
Ġbr ain
Ġrem ote
$ $\
Ġ[ [
Ġmin imal
Ġaud io
Ġobserv e
Ġprom oted
)\ \
ĠOnt ario
Ġhapp ened
Ġpre par
are a
Ġinsp ired
ĠM arg
Ġen able
Ġdr ink
spec ial
e ach
D T
on ical
Field s
Ġinn ov
M R
Ġcan cell
ide os
igh th
Ġp od
ĠW ed
Ġdoc uments
ĠS em
ĠL ive
ĠF inally
Ġpass ing
Ġent ries
Time out
pm atrix
ist ed
ĠH ard
Ġinv ariant
Ġsurround ing
ur d
F ull
Ġret ri
Ġem phas
Ġconsider ing
ĠP age
Ġr ain
col lection
assert Equals
=" @
Ġcont rovers
Ġmed ian
ĠRe port
H ome
ï ¼
H is
Ġsubsequ ent
TE ST
P erm
Ġindust rial
Ġadv ance
Ġdou b
w orld
Ġf ell
ĠC ub
ĠAnt on
semb le
Ġfund ing
ĠPl an
Ġe lem
Ġdr iving
ort heast
Ġprinc ipal
ð Ł
v ing
Ġsuggest s
and y
Ġshe ll
Ġinstit utions
ĠD oug
Ġband s
ac ent
Ġconver gence
Ġ" "
w eg
Ġkn ew
cknow led
Ar ch
pr imary
Ġperm an
Ġfind s
S end
$ ^{-
Ġmat rices
ĠR oute
Ġsp ring
add r
B B
S cope
eff ect
ĠAb out
Ġdef ense
act ic
Ġfac ility
ut enant
Ġjav ax
es ian
19 37
Ed it
uns igned
Ġhe ar
pro file
)) )
[ :
Ġb urn
Ġex ecution
ĠR ome
Ġper haps
Ġeff iciency
b at
Ġcompos ition
un es
In ternational
Ġ$ $
? âĢĿ
ĠT ok
ĠEx ecut
ĠF und
^{ +
ĠSt adium
in ations
Ġhe av
w orth
Ġsol o
Ġrec ip
M I
ades h
Ġcover age
ĠL android
Ġbe am
ap ore
Th us
ĠF ollowing
Ġbound s
Pl ay
j pg
//////////////// ////////////////
ĠV en
Ġinj ury
Ġtit les
Ġlabel s
per ial
Ġhigh light
ĠEngine ering
ĠN etherlands
Ġgl ass
Ġhous ing
M T
ĠEx t
10 1
Ġcons ult
Ġenvironment al
Ġt ab
ps on
ĠO t
astr ucture
() {
)} {\
Ġpromin ent
Ġachi ev
V ID
Ġserv es
Ġeval uation
drop down
AR Y
Se lected
Ġ urban
Ġspec ifically
Ġregister ed
ch annel
Ġscient ific
qu arters
ĠT y
ĠP aram
Ġhistor ic
Ġrece iving
tx t
Ġe lev
omorph ic
ĠH ind
H R
ly wood
ĠMinn esota
st ats
ra ham
arr ing
Ġemploy ed
U sing
per or
Ġcop ies
Ġr ural
Ġconstit u
Ġman ner
Ġb omb
J o
c b
Ġyield s
The orem
Person al
Ġenc oding
Ass ociation
Ġphen omen
ĠE lement
Ġacc eler
Ġent r
Ġexpl ain
se lected
Fl ags
pro perties
con nection
Ġsymmet ric
Ġb ow
)$ -
param eters
zon a
Ġ" /
ĠE ll
Ñ ı
Ġs un
IC E
ĠA z
os es
Ġfund amental
L C
m ove
G C
not es
Ġ ..
ĠPhil adelphia
ĠS anta
av or
ym ph
ĠG ro
Ġab stract
) ^{-
Ġanim als
B it
ĠK ir
d ict
ĠAn th
ĠM ic
all oc
nt ax
P AR
U ID
Ġsc ulpt
com ponents
cre en
I ST
Ġinvolv ing
Ġchang ing
Ġcharg ed
ĠL ike
G R
u j
Ġobserv ation
ĠS ab
Ġb in
r at
w ords
Ġcomm ittee
ord an
ĠN ations
ex ists
Ġw inners
G raph
Ġoffic ially
Ġnuc le
ĠL ind
im it
It ems
Ġw ing
Go ogle
Ġf ish
ĠF ox
b ec
Ġest ate
Ġp seud
ĠGa ussian
Ġcolumn s
Ã© e
form er
Ġch ampion
] :
Ġcon j
Ġt ail
} )$.
Ġmusic ians
f ix
per iment
am ely
R et
ĠBr idge
ĠH un
ĠF alse
Ġcustom ers
H L
Ġag greg
ĠL ady
ĠT ask
"> &
ĠSpr ing
ev ents
ing ly
Ġres ident
Ġperform ances
au x
O wn
19 14
Ġdef end
Ġpur poses
ĠR on
s ince
Ġd anger
M atch
par a
ĠQue ens
ĠA rea
J SON
ĠL es
pl ot
Ġmount ain
le an
Ġpattern s
Ġpolic ies
pon ential
MA X
t ik
ast ers
p ir
ĠA mazon
ĠS on
Ġrem ark
ĠIn itial
W idget
is a
n etwork
Ġbal ance
Ġsp ons
ire ment
p erson
s ave
map sto
sum er
Ġrecogn ized
Ġrot ation
Ġr ich
ĠB all
tain ment
ĠRev olution
osoph y
Ġwhere as
che stra
Ġphot o
Ġgrad ient
19 35
Window s
in ate
em an
Ġd imensions
Ġhost ed
Con st
SI ZE
ĠG er
19 19
ĠS ign
Ġacc ident
| }
Ġtem por
Ġrecomm end
l g
ĠL abor
us hed
A uth
Ġex cell
Ġf an
Ġp owers
ĠFurther more
Ġsol ar
Ġexpl an
out s
ĠF inal
Ġag ric
fri end
Style ID
In it
Ġcont est
urs day
ĠP ers
ĠN umber
ak h
ch or
Ġdepend ence
w ing
p ay
ĠH ay
ock er
ĠDef ault
Ġspect ra
Ġinstance of
Ġd ir
ĠPol icy
ç ļ
t otal
S equ
av id
i ated
isl ative
b el
I B
Ġdevelop ing
ĠCamb ridge
Ġoptim ization
aly t
% ,
Ġ ip
ac count
Con s
A uthor
Ġn arr
rec ated
ym p
Ġesc ape
ĠT witter
F unc
Ġsign ature
Ġv ectors
od ot
ĠDes pite
h adoop
ĠSt art
N T
ri e
at ar
==== ==
ĠL ag
Ġk ernel
} &
Ġdifferent ial
Ġunder lying
Ġpi eces
Ġcont rolled
Ġag ents
p res
X T
ĠT H
ĠM att
Con d
B as
Ġviol ence
pro position
ĠC as
Ġsk ills
Ġgrad uated
g ency
Ġemploy ees
ĠD am
ro le
ĠBr ig
Ġr aces
Ġgrant ed
19 33
Ġmagn itude
h ow
J ob
Ġadministr ative
Ġap i
Ġinter section
Ã º
Ġb ond
VER SION
ĠTr ust
Ġar ms
Ġus ual
z h
Ġv ir
Ġextrem ely
ilib rium
ĠM ill
atter y
Ġind eed
ur ance
ĠF unction
12 5
l arge
) _
ĠAp ple
Mat rix
ast y
g ame
ar se
Ġr aw
ĠPrem ier
çļ Ħ
Ġde leg
ĠD uke
ist ant
Ġbenef it
ĠD er
her ited
à ¥
ĠJ ava
eng ine
Ġcon nections
In ternal
. __
Ġpe ace
ĠH o
Ġd ream
ĠS at
Ġg irls
Ġre action
Ġexper i
Ġdec ades
ik a
Ġrefer ences
F S
Ġcont emporary
) },
19 17
se ason
ĠB ol
Log ger
Ġcaus es
ĠWis consin
Â °
Ġrepresent ative
Ġsupport s
Ġ= \
Ġexpat riate
p ur
ĠStep hen
S pace
ĠC A
Ġf iction
Ġrecogn ition
Ġcharg es
ĠAmer icans
Ġbro ken
m ad
( !
ult ane
th rows
18 0
Ġinteg ration
F ix
Ġe ye
Ġconv ers
Ġop posite
Ġcon ven
lo op
Ġautom atically
Ġauthor ities
Ed itor
" |
[ $
Ġsatisf y
b ell
f old
f ire
Ġintro duction
j query
Ġang ular
Ġ ^
it ivity
Ġattempt s
ĠCoun try
pl us
Com par
Ġdes ired
z ed
ĠN on
em et
Ġc ab
Ġcomplex ity
icens ed
Ġcon vent
ĠL at
Ġb tn
type of
ĠĠĠĠĠĠĠĠĠĠĠĠĠĠĠĠ ĠĠĠĠĠĠ
Ġdefe at
ĠSh ort
ĠG reg
@ "
ĠDav is
ĠBook s
RO M
ĠReg iment
Ġhold ing
if ts
Ġauthor ity
ĠE nergy
Ġsw im
Ġpat ient
Ġres on
ĠB att
eng ers
Ġst one
iz able
ĠW inter
it ter
ĠA thlet
child ren
ON E
.~ (\
Pro duct
Ġfight ing
Ġentire ly
F loat
ĠO regon
Ġs an
w hen
d em
Not Null
Ġlook ed
_ ,
ĠColor ado
ĠFore st
Ġver ify
Ġhand ler
ential s
19 29
f i
Ġoption al
rit ical
ut s
ĠMond ay
P ATH
Al though
Ġsupport ing
Ġse ats
' (
Sy mbol
By Id
ic ian
ĠGold en
sche ma
G ame
k es
que ue
Ġen abled
Ġbuild er
ag en
Direct ory
ian g
M sg
In v
iven ess
ĠB h
Ġl osing
Ġadv oc
Ġresult ed
Ġf uel
L eg
y al
Ġh ole
lim it
Ġnot able
Ġreturn ing
Ġb ed
ĠN a
Ġdrop ped
he rent
Ġelectron ic
Ġcred it
ĠT R
19 00
if iers
Ġst orm
ĠR a
Ġc ref
Ġc overs
VAL UE
Ġsuit able
ĠC H
Ġloc ally
Fe ature
n ight
ĠCom put
ts d
Ġm yst
Ġd oll
hand ler
G A
k ish
Ġben ch
ST AT
ĠTur key
al ion
Ġgu ard
ĠI V
. ;
Ġher self
ĠEn vironment
Ġv ess
est abl
T ele
let ion
Ġinvest ment
ĠSt ock
erv es
og y
ur ches
ues day
to ol
ad ed
ak ed
ant ly
Ġ[ ];
Ġcl ick
ĠBr ad
Ġfund s
ĠN az
ater n
con v
Ġd ress
re ll
ĠC EO
o or
P M
ĠAd v
tab s
m ma
LO G
Ġtre ated
igr ants
Ġex erc
ĠCon nect
II I
Iter ator
G lobal
ĠG allery
Ġparticip ated
cont roller
d y
Ġfa ith
Load er
Ġjob s
Ġbig gest
D ouble
" `
Ġj ump
Ġconstr aint
Ġ% }
Ġc ov
nes day
Ġend ing
Ġinv alid
C F
or row
19 34
ĠH om
IV E
pos itory
ĠSwed en
ibli ography
ang a
j an
Ġd b
ct rine
ĠR ights
ĠG ree
t or
Ġconvert ed
Att ributes
Ġ ion
Ġout er
iv ated
ul i
ĠN iger
cuss ion
Ġdet ected
op ic
g it
Ġc ategories
() ).
d am
19 28
Ġbeaut iful
Ġpred iction
Ġ&= &
ennes see
ĠS O
ĠT urn
Ġprote in
Ġun able
ad i
ĠSup port
br id
Ġc old
Ġge ometry
ĠE nt
up l
tik z
sc ill
ĠW el
ĠSwed ish
Ġfound er
Ġcirc um
enn a
Ġm ist
ĠCh annel
ĠInd ex
ĠA D
Ġst ored
f all
Ġphys ics
ĠD om
Ġpath s
weg ian
onom y
ov es
, $
Ġrequest s
Ġscen ario
Ġmunic ipal
Ġ{ '
u h
ĠR est
ill ed
Ġnot ation
ĠB ishop
Act ivity
anche ster
A ng
Ġe q
Ġp iano
Ġwe ather
os itory
$ ;
v s
v o
de cl
ach ment
Ġpublic ation
ĠUp date
Ġw arm
Ġw arn
Ġsol ve
Ġse ed
() ));
G erman
P res
Ġw el
ĠL ev
Ġexper t
Ġar ts
R R
Ġd uration
Ġcor por
Ġstand ards
Ġdocument ary
ĠB udd
Ġfav our
ĠT ai
Ġind uced
> :
l ayer
d iff
Ġcont roller
c ref
Ġsup erv
Ġjud ge
ĠM oh
Ġc art
ĠO ption
ag an
e en
i Ã³n
Ġarrest ed
Ġw ins
Ġas ympt
Ġpurch ased
P ay
unn el
Ġg ained
Ġpre v
ĠIm age
h ome
Ġab andon
t mp
ul ator
\ {\
ĠL td
emet ery
Ġy ards
ele gate
fl ags
Ġex it
Ġinst ances
com plete
19 32
}} ^{
assert Equal
L o
man ager
Ġhot el
ĠW rit
Ġte aching
Ġsm art
os l
ef e
P anel
Ġvis ited
ĠJ oh
Ġw itness
Ġyoung er
ĠAtl antic
hor izontal
ĠAd am
ĠP ath
ĠN E
est ion
Ġh air
L L
Pro xy
ĠC ase
" /
ĠL ink
ord on
Ġthe rap
Ġf lood
Ð ´
f ast
[ (
Ġre form
ĠSt ory
Ġaccur ate
end or
Se lector
Ġappro ved
ĠS E
ar ry
Ġtheoret ical
Ġobject ive
Aut o
Ġat mosp
ess ions
t i
cc cc
Ġlist en
ĠH ou
19 10
Ġmat hemat
S ER
ly n
Ġindic ated
Ġdec or
im ated
F rench
Ġlett ers
d p
ant om
ĠN ick
l ook
are st
ĠC ost
Cl ose
p ot
ĠI mm
Ġs and
Ġ ×
Ġgalax y
Ġclos ely
ag g
ĠR ose
m ers
ĠD at
Ġ io
âĢĿ ,
? "
Ġsuffer ed
Ġd ro
ur r
Ġrob ust
B P
ĠL ow
ĠCon fig
å ı
oun try
Ġk ick
og ram
Ġl ib
k w
R C
ĠF ord
ogene ous
ĠS C
Ġl ayout
Ġaspect s
Ġprinc iple
ĠT er
ĠCon f
T erm
ook ie
ĠâĢ ¢
ĠCap tain
Ġren amed
J S
Ġf estival
Ġfrequ ently
anc ell
ĠP it
Ġbenef its
Con n
Ġcon clude
_ ->
Prot ocol
ĠD C
ĠRes ource
Ad apter
ble m
Ġtop ic
Ġext ensive
ĠInd ones
Ġneg ot
)) );
ĠH al
ĠIn vest
Ġb rowser
cond ition
Ġpar liament
Ġm ir
o om
Ġvari ation
ĠJew s
met adata
* )
FF FF
Ġres c
X ML
ĠCont rol
Ġt error
Pr int
Ġsh ut
Ġw onder
Ġtherm al
ĠG il
ĠB O
Con str
W rit
Ġh all
ĠN ext
Ġeval uate
Ġr g
ĠT al
Ġm el
ĠR oss
Ġaw ait
ĠB at
ut f
or iginal
ual ity
Fil es
Ġd rawn
ĠA S
ĠM ilitary
Ġus age
Ġterrit ory
tr igger
ĠN et
ĠSt aff
U K
++ ;
ĠAnd erson
Ġcamp us
clos ed
c raft
19 31
R T
T ABLE
iv als
config uration
Ġcalcul ate
J ava
print f
Ġtr ace
Ð ²
F IG
l ay
poss ible
red it
hed ral
and o
Ġw ish
O pt
to ols
ĠK al
ant asy
Ġalleg ed
', '
ur st
ĠS uch
Ġtown s
Ġwe ights
ĠA T
Ġl iqu
ĠIndian a
Ġimplement s
! "
os ity
Ġnov els
ĠE P
L em
Ġth ank
less sim
W omen
Ġschedul ed
ĠV i
Ġsc oring
Ġclust ers
Ġv ent
ip age
v ard
w ild
Ġgu est
ĠGu ide
ĠO cean
ĠOb serv
Ex pr
Ġcol our
ĠA h
el le
d frac
Ġtit led
J an
ist ence
ĠN ode
Gr id
ĠK ansas
low er
Ġdo ctor
ĠHar ry
Ġpol l
ĠSing apore
og ether
Ġs ale
ĠPhilipp ines
ĠFore ign
ch ain
R S
Ġad vent
G O
om ot
Ġnav igation
}{ |
Ġar c
um a
P e
Ġconsist ing
re ens
M ost
secut ive
ĠMar ia
pend ix
ĠH as
NavBar Cell
art icle
includ ing
ĠTrans port
c oh
ĠC zech
ĠI L
Ġap art
Mem ory
Ġex pos
Ġex ceed
Ġm ys
osc ow
Ġcompos er
19 22
Element s
F inally
ST ATE
ĠC ond
Ġtrans mission
ĠAr thur
D est
er al
be an
Ġn ob
Ġexpl o
19 27
ĠPro cess
Ġcoordin ate
Ġy ellow
r andom
Ġposs ibility
circ le
Ġsign als
Ġt urb
f ail
u its
Ġag ency
k ing
Sh ort
Ġcar bon
R oute
) {\
Ġo scill
C ategory
S ources
mer ce
S QL
con tains
A nt
ph ys
ĠLew is
Gener ic
BU G
ĠM iller
Ġocc asion
pl om
ul se
ĠDon ald
ĠS ky
Ġconcern s
m ass
At tr
Po inter
b g
In s
ĠMount ain
ĠE th
ĠAri zona
ĠH an
Ġg one
F ollowing
ĠD aily
Ġpo et
ĠMed al
N amed
12 3
ile y
ĠAg ain
Pro file
Ġas sembly
Ġopin ion
min ipage
Ġd ialog
Int roduction
play er
ex ternal
ĠBro ther
Ġinter ior
ĠS quad
Ġr ugby
-> _
Ġop position
Ġpar ish
ĠOn ce
U nder
s es
S ong
Ġcomput ation
Ġref ers
ĠG ets
Ġscal es
ĠUkr aine
L ayer
Ġst ability
19 24
Ġal ter
ĠChild ren
Ġmass es
Ġth anks
Ġsp an
$ /
Ġuncertain ty
Ġs leep
mp lement
G N
iss ue
h idden
ĠMem orial
Ġm enu
Ġfill ed
Ġpro jection
is er
ur ations
ĠS av
Ġsch olar
f ol
Ġengine er
B ook
Ch rist
ow nt
Ġc as
F ail
Ġre ar
ov en
ĠH art
ut able
ĠM un
Ġfac ulty
ĠMiss ouri
ign ment
op es
Ġe le
Ġ ener
Ġrank ed
Î ±
Trans port
Ġt aught
ag h
Ġgener ic
ropol itan
Ġhousehold s
Ã© s
Ġse vent
Sc roll
ĠC art
Ġv ice
Ġre q
To String
Bi ography
Ġpart nership
Ġhor se
Ab stract
ĠL ear
Ġor th
Ġque ue
ĠL iter
Ġor bit
Ġthink ing
Ġs urn
| _{
_ (
ĠComm unic
ĠAff airs
Ġstr ings
} </
Ġb ought
Ġcontrol s
z one
Ġf unc
- (
) +\
yr ics
Ġcharacter istic
Ġjourn ey
ĠLe on
Ġinfin ite
app ly
ĠCol on
d ependent
ro g
log ger
Ġbi as
clus ions
Ġprep ared
Eng ine
ĠG h
Ġsepar ated
Ġult imately
ĠP ier
ivers ary
enc ing
ĠS che
Ġk ids
z y
ir ation
Ġ= ========
key word
$ ~
Ġr ational
Ġlo an
iz on
or ough
m al
ĠS I
Ġw rest
Ġsim ultane
}$ )
h ide
ch a
Ġsur g
sh adow
ĠT ODO
Ġcomput ational
Ġw alls
ĠA mb
Ġinvestig ate
qu es
ass ets
} )$,
ot ional
by tes
Ġhapp y
ĠB lock
Ġpain ting
get Name
Ġkill ing
ĠCast le
act s
ĠExecut ive
Ġthous ands
Ġr ig
ĠD eb
Ġm ach
ĠT ennessee
av it
ĠB arn
Ġcharacter istics
) -\
Ġo k
Ġbusiness es
Ġsus p
} }$,
Ġatt ached
Ġstand s
ell ite
Ġex port
7 00
r as
Ġac id
ĠRec ord
i ations
ĠN orm
Ġstat istical
group s
Ġwe alth
Ġg ate
=" ">
UT F
con g
Ġexplicit ly
ne ver
ĠP C
unn y
D uration
19 15
Ġgraph s
19 21
ott en
Ġjournal ist
T ax
ĠSur vey
Ġlink ed
r in
Ġtw enty
pl atform
IP T
Ġbehavi our
Ġsec ure
r g
M any
ĠMal ays
ul ating
ĠĠĠĠĠĠĠĠĠĠĠĠĠĠĠĠ ĠĠĠĠĠĠĠĠĠĠĠĠĠ
ĠJac ob
Ġp refix
Sum mary
Ġscen es
off s
col n
19 25
rib ed
Ġab und
Ġpred icted
Ġf n
Ġs izes
E ST
u ating
ou st
ĠM ake
ĠP ot
m n
F in
e cho
Ġchalleng es
ro it
Ġst uff
E P
E p
l f
ant e
ĠC ustom
J ust
Ġillust r
Ġbr on
et ween
ĠMel bourne
IN D
ut er
M iss
ĠB efore
west ern
F inal
En um
ĠC ab
ĠT O
ĠâĢ ¦
19 16
att ers
pr ise
Ġest imation
M OD
our se
ĠMex ican
S em
ip her
own er
Ġweap ons
Ġw inter
19 26
Ġc atalog
ed itor
W R
Ġcr iminal
Bl ack
k h
ĠIn n
Ġb odies
Ġport ray
} }$.
Ġl ists
display style
Ġco inc
ĠTh ursday
Ġn amely
l iving
ĠD ark
Ġxml ns
agn etic
19 23
% .
Ġs ac
Ġk id
S eg
Ġst rip
Ġbel ief
St ar
fe ature
edd ing
ud den
r ank
O lymp
Ġconv ex
ĠE U
Ġv ideos
ĠD a
Ġclass ic
M er
Ġas ync
Ġv ision
ĠA P
Ġan imal
33 33
Ġhapp ens
ĠT oday
? ?
ĠSer b
ĠT ony
Con f
Ġgovern or
iter ator
Ġ[ \
Ġdat asets
S uccess
B rowser
ĠMag azine
Ġw at
Ġgu ide
o is
Ġpl ate
ĠEnter tainment
ce st
ff ect
19 12
h bar
Com ment
H ER
ist ing
ty ped
'] )
Ġinteg rated
Ġr acing
ĠS u
Ġd ict
Ġpo inter
ĠOb ama
ĠB ab
Ġp ed
OC K
E V
\ )
ĠV ideo
ĠC are
ipl es
ee per
Ġtra ject
Ġop posed
ĠAl f
) )$
$ };
ĠHamilton ian
F ree
ah oma
ĠTh rough
S pe
h box
S Y
Ġpurch ase
ot on
Ġeffect ively
s ample
ĉĉĉĉ ĉĉĉĉĉ
ĠNor way
ip ped
Ġrad iation
ff ff
Ġmin ute
Ġmay be
ĠSim on
Ġ( _
amb ig
S ervices
p icker
new command
ploy ment
Ġcalc ulation
S ur
l ot
Ġdom estic
Ġscatter ing
Ġfem ales
Pl ugin
uck s
w ick
Ġspe ak
T otal
Ġapp lying
p ull
er ior
ĠS af
ĠF ederation
Ġcon secutive
M apping
om ent
mon th
ĠM unic
ĠP erson
ĠS D
ret ch
ĠBuild ing
ĠV AL
Ġcomplet ion
Ġcomput ing
we alth
ĠPe ak
Ġan imation
H er
ymmet ric
S F
ĠB rian
Par se
g eneral
Ġcalcul ations
Ġstop ped
H P
Ġf ear
Ġca ught
$ ),
= >
Ġbo ost
Ġsup posed
RE AD
Ġsequ ences
ag ues
Ġext ent
ĠE s
b rowser
Ġadj acent
Ġm ent
Ġcl ock
Ġd ire
ab out
prot ected
ĠĠĠĠĠĠĠĠĠĠĠĠĠĠĠĠĠĠĠĠĠĠĠĠĠĠĠĠĠĠĠĠ ĠĠĠĠĠĠĠĠĠĠĠ
Ġenc ounter
ĠA ge
ut her
ĠF ellow
ĠR ow
W N
Ġd ust
Ġir on
Ġdistrict s
ĠFr ont
00 1
ĠAnd roid
ĠN ative
N OT
Ġcover ing
Ġprogram me
Ġv ot
web pack
Ġcomm itted
ĠK han
Ġst ores
iss ues
ĠR eb
Key s
ĠM it
up load
Ġ" <
inem a
ing ham
ĠN av
od s
}{ (
d on
ÃŃ a
) ">
ĠM anchester
S cale
Ġsk y
Ġf aster
Det ails
Ġpen al
ol i
Ġj et
f d
att ributes
ĠCopy right
Pat tern
######## ########
ĠPhil ip
A wards
id x
ĠD or
Ġthe atre
ĠS ound
s witch
,\ ,\
âĢ ĺ
The refore
it ative
ok ed
: }
Ġcommun ic
Ġf lo
Ġstand ing
at on
wit zer
ĠM as
Ġne ural
reg ular
Ġpost ed
Ġconf idence
ĠWed nesday
ri ed
L ife
Ð ¼
Ġcoeff icient
A nother
Ġpil ot
N orth
Ġcomb at
Ġrow s
Ġexpl ore
Ġm and
Ñ Į
Ġprec ision
et ies
ĠJun ior
Ġfl ags
par agraph
p ubl
Ġb an
br ace
ĠM oscow
B M
Ġhum ans
ĠPr inc
Ġclos er
ĠTown ship
ĠHigh way
Ġrel ax
Rem ove
) }_{
pre v
al gorithm
ĠM S
ar on
force ment
in cess
e ast
pro ps
ill ery
Ġ{ {
iam i
ĠM oon
ser ial
Ġpers pective
Ġhom es
Ġl umin
Ġprom ote
ĠMary land
c are
ĠT uesday
ĠE ric
Ġvoc al
Ġ ).
ĠĠĠĠĠĠĠĠĠĠĠĠĠĠĠĠ ĠĠĠĠĠĠĠĠĠĠ
Ġexecut ed
g ment
Pl ayer
E uro
ĠAcc ess
Ġamplit ude
Ġpass es
it i
Ag ent
Ġcould n
ĠU l
ound ed
om y
e lect
ug s
F amily
ate ver
Ġex ponential
Ġaccount s
Ġsp r
-------- ----
Ġdisc rim
Ġd ry
Ã¼ r
ick ets
ĠMod ern
Ġc m
N ULL
Ġg ene
Ġprom pt
LE CT
pro gress
ann y
Ġfil ed
ĠI owa
ĠF ood
Ġsampl ing
Ġaff ili
Ġc ryst
Ġsent ence
L android
=" "
Ġconsequ ence
ĠBar on
ĠD ocument
em ony
rupt ion
Ġg reatest
Ġj Query
Ġfeed back
ar ity
T ags
Ġ$ |\
head ers
Ġoffer ing
ĠSo ftware
ĠD ir
Ġg ender
Ġhel ps
Ä ĥ
Ġmov es
eli hood
ĠR oy
Ġp un
build er
U SE
ĠJ am
F ind
y cl
pl es
Ġvol unte
RE S
ten ance
fil ename
Ġsatisf ying
Ġp apers
Ġch airman
Ġair port
ĠJ ane
witzer land
J apan
Ġ( [
ch ant
Ġsum mar
ĠOff icer
T T
Ġtrad ition
Ġpass word
Ġmet adata
ĠGr ant
ra it
Ġcl ients
s a
Ġmedal ists
C ur
Ġsee ing
m ont
un ately
Ab out
av i
iffer ent
uc ial
Ġcap able
Ġa id
Ġw ire
ext ension
ĠF A
plic ated
Ġres istance
is ely
Olymp ic
Ġp ars
Ġ à¤
13 0
. <
] }
ĠFred er
Ġsc ores
P D
Ġ{ $
ĠK at
ĠP ay
ĠF ac
az a
ã Ģ
EC K
Ġconst ants
Ġca ref
as m
Ġopport unities
ĠJ ordan
oc al
Ġst ages
Ġattempt ed
Ġcertain ly
var iant
ut ed
om er
Ġstri ke
Ġproduc ing
Ġg lob
Ġint elligence
Can adian
onym ous
Fil m
S ync
Ã ¥
t ons
Ġtalk ing
Ġparticip ants
Ġh its
Ġident ical
Will iam
g ar
Ġrequest ed
CA A
Sing le
j oint
AD D
st an
ens is
Ġb atch
O ct
Hel p
Ġbro ke
ĠViet nam
Ġprov ider
N C
Ġlow est
ous es
f ixed
Ġfr ag
ic ians
Ġdesign ated
Ġl es
Ġinterest s
Ġtrans parent
nav List
Ġ ],
ar iance
ĠR ub
ĠHol y
Ġconf irm
is or
Ġint ensity
det ails
Ġdis crete
Ġtr ains
ĠCh all
Vari able
pl ane
Ġkeep ing
ix els
F M
Ġle mma
Ġweek end
ĠB urn
ĠD ream
ĠL com
Ġscal ing
Ġmom ents
y g
Ġcaus ing
A ug
ĠGree ce
Ġbur ied
Ġle ct
Ñ ĭ
ĠSt one
Ġden oted
Ġprofess ion
A re
Ġpre ced
M ag
w t
Ġcrow d
Pro gress
Ġcr ick
sing le
ĠSe ver
Ġdem ocr
Rep ository
sh op
ĠDi ego
ĠRepresent atives
Ġtype of
D ay
Ġcirc uit
ĠBase ball
Trans form
w ich
inc ial
Ġshoot ing
Ġvers us
ues e
ĠS ix
com es
con n
o es
Ġ Ø
Ġcollabor ation
d c
ĠHot el
Ġad min
ĠAdministr ation
R ole
m ask
Ġsix th
ĠT a
ĠIO Exception
enn y
Ġinstit ution
ĠN FL
p refix
b urn
U LE
Ġdest ination
ĠG ib
or ient
B en
coll apse
n il
Ġpract ices
a ired
he red
Sequ ence
Ġd ates
IG HT
Ġto wer
ĠB alt
âĢ ¢
I MP
op ed
¿ ½
un ing
v ideo
Ġad ult
Ġt ight
O UT
V M
o a
ĠT el
d ialog
ri k
Ġs ynchron
19 13
Stat ement
; )
Ġdeliver ed
Ġb undle
Ġrelationship s
Ġexperi enced
et al
res et
col Last
Ġdisplay ed
ĠMo ore
Ġvill ages
ĠD igital
ĠHou ston
ch anged
ub ble
Ġexhib ition
ĠHe art
g ies
ĠLab our
ĠR yan
b matrix
Ġqual ified
ic ide
Ġcr isis
anc hes
ĠB ox
Ġt x
Ġin fer
CH ECK
ens es
Ġw a
Ġtarget s
Ġqu adr
Ġcustom er
ouri er
! [
ist a
Ġtemper atures
ĠCh ap
ĠT erm
}( {\
Ġjust ice
Ġro of
Ġapplic able
Ġin h
ab ama
Collection s
p air
H C
ĠAr k
iss ip
Ġm al
ĠAl bert
Ġbrief ly
: =
int eg
v als
kl ahoma
Ġwait ing
U D
ĠKent ucky
sh ips
in us
D epend
Ġeven ing
con str
P y
ic ular
Ġro yal
", "
Ġprem ier
ĠStand ard
ĠB ah
od ge
Ġnomin ated
Ġso le
Ġmax im
Pl ot
is lation
ĠH ash
u um
Ġcap tain
Ġtest ed
Ġb ulk
ĠB an
Ġexper iences
^ ^
in th
Ġs we
Ġent ertain
Ġsomew hat
Ġworld wide
ache lor
st orage
ic ing
ĠW ind
ene z
us ers
ex pect
ap h
ĠN ever
Ġc tx
ĠSen ior
pro b
ĠPat rick
ĠPro perty
li br
ĠInst ead
C RE
De ath
Ġown ers
ĠM essage
Ġm arg
Ġcrit ics
Ġpract ical
Ġcon clusion
Ġpro xy
ĠA ud
F ailed
Ġb low
ou ter
ident ifier
wrap per
Reg ister
i em
R elease
ĠÂ »
Ġman agers
ï ¿½
ang ers
er os
Ġfl uct
ĠK y
Ġabs ence
Ġrough ly
col First
Se lection
Ġcol ors
fg han
Ġsufficient ly
t iny
comp iler
ĠAss oci
H on
O B
ĠS quare
Ġf ly
Ġsc hedule
ĠZ h
the me
ĠS oc
O ST
st ances
j ango
Reg ion
ĠG ab
Ġcol span
ĠPal est
Ġ[ ],
ub b
Ġbre aking
un ior
D avid
ĠP RO
Ġ ing
igen ous
Ġs aved
iv a
plic ity
Ġrelig ion
P ubl
Ġin ject
el son
ĠC ape
r ig
Ġdr ivers
Ġkey board
Ġch apter
ĠD ead
B ibliography
if def
ĠAll en
Ġst arring
Ġindepend ence
ic ut
Ġmark ets
> \
Sim ple
gener ated
st ood
ĠL eb
ure au
Ġc arri
Ġent ropy
T ube
ĠS M
() </
Ġresear chers
Ex ecut
Ġpresident ial
f x
ĠReg ional
ĠF all
a ire
Ġref used
f lex
ĠRe act
Ġleg end
IT E
ĠF ull
am az
put ation
ain ian
Ġt ack
Ġconcent ration
l ad
in ch
Ġex cess
od a
pl an
ĠTok yo
; }
Ġbron ze
) [
is ode
s n
fl at
ĠLin coln
M icrosoft
Ġs ail
Ġrepresent ations
ex tern
Ġcontribut ed
ver b
F E
AL SE
t ar
Ġoper ate
Ġdis abled
Ġfl uid
St and
ĠC urrent
." );
ĠMar c
nd ef
$ _{
w ig
Ġdec ade
Ġupd ates
ibr ation
Ġ= ======
L in
^* $
Ġperm ission
ĠWh y
Ġold est
Ġtransl ate
19 11
Ġknow s
&= &
j unit
Ġbrother s
ĠD O
B el
Ġflow s
ab et
Ġmarket ing
ĠN AS
Ġcontr ad
ĠD u
cept ions
Ġdepend ent
ĠD ue
Ġexplan ation
) }}
ĠSe ason
Ġen emy
UR I
Ġperman ent
cont rib
Ġsize of
Pro ps
ER S
Ġ" -
ĠH ans
ubl in
Pop ulated
m oz
Ġm ort
yn asty
Ġelect ro
Ġinfr astructure
ĠS ource
oc aml
Ġeduc ational
ĠB eng
ĠV o
ĠG iven
Ġdel ivery
ĠN ev
sc ious
Ġheav ily
}[ \
M ich
Ġdecom position
Sports people
Ġ" ,
olog ists
">< !--
D iv
w ho
AN T
ta h
es ides
Ġdeb ate
{ %
ĠHol lywood
à ¦
Ġp ref
te am
Ġext reme
Ġexcell ent
M c
all classes
b p
id ges
Ġsh ares
Ġdemonstr ated
Ġent itled
Ph il
ĠD un
Ġmod ules
ĠD ick
Ġmix ing
Ġfavor ite
Ġsucceed ed
ĠJ ay
Ġch ose
ict ional
ĠUn it
Ġsatisf ied
ĠP A
Ġequ ilibrium
ĠSil ver
Ġre new
ĠAm ong
id al
Ġco aches
Ġre aching
ĠPro duction
Res ources
do or
Ġs ought
Ġrepl acement
x s
G iven
ex ecute
Ġpredict ions
ac on
Ġres erved
tem p
Ġhelp ing
ĠJ os
Ġaddress es
Str uct
Ġin verse
d one
Ġdis appe
ĠS ri
ĠAust ria
Ġw arning
ĠS earch
\ }$.
ov ing
ĠĠĠĠĠĠĠĠĠĠĠĠĠĠĠĠ ĠĠĠĠĠĠĠĠĠĠĠĠ
ĠRef er
Mult i
Ġprom otion
Ġl yrics
Ġt rib
ĠHow ard
Î ¿
ab ric
Ġmet rics
Ġeduc ated
Ġm ental
Ġimprov ement
Ġl ay
ĠComm un
dep th
Ġv o
Ġb its
osp it
Ġimmedi ate
Cl uster
l ass
Ġposs ess
ĠPh ot
ĠT en
Ġn ice
ĠCon stitution
Ġdi plom
t body
D en
Ġinput s
ic he
w as
el ve
in ction
Ġk il
Ġb inding
S ocket
ĠAl b
ud a
Ġf aced
Ġf olk
ari os
Ġstat ements
f ef
Ġhead quarters
Ġpropos al
ate ur
um my
ig e
Ġ\ !
Ġsk in
rel ations
ĠK now
h ref
t ags
Ġclin ical
=" ${
aj ax
ĠInd eed
Ġrespons ibility
Ġannoun ce
ard o
n ie
F ore
Ġ( ;
ym n
Ġte en
b rief
Tr ace
ĠV ice
b c
ma zing
ĠC ulture
ĠU I
Ġthe ories
Ġmay or
HT TP
h ist
ĠN AME
Ġen v
Ġa f
ĠR ey
ĠC op
Ġf ee
] $.
Ġconsum er
St ats
Ġinst ant
il k
Ġm o
Re al
Char acter
err ors
A E
requ ired
ĠB ra
ĠD omin
Ġg uns
0000 00
ownt own
Ġm ales
D M
Ġconstit ution
Ġenh ance
P refix
Ġgu ess
Ġrespect ive
it ics
Ġacc used
ser ies
Ġcomp re
Ġexpl os
20 23
Ġreject ed
ĠI E
Ġbo at
Austral ian
ĠS witzerland
T x
190 8
ul us
ĠTh ird
Ġs ending
Ġnecess arily
Ġadapt ed
ĠL u
oper ator
ĠJes us
Ġeas ier
Ġsett led
prov ider
E st
Ġconcern ed
um ps
alle st
Ġd iver
ĠR ight
ĠN ik
ag u
ĠFor ces
ĠSystem s
Ġlaw yer
s at
ĠH op
Ġdec isions
p arser
ĠB it
s ys
arg o
sim ple
es ome
Ġcont ents
Ġoccup ied
[ -
Ġmer ged
th row
Ġ' <
Ġvalid ation
Ġinter act
Ġdr ums
Ġpr ices
Ġres olve
pl ates
aw are
Ġstrateg ies
v ia
Ġattack ed
est yle
B AR
pt ic
Dom ain
$ :
ĠM L
Ġessential ly
Ġste el
Ġindic ating
Ġcriter ia
Ġd ense
Ġrev olution
the less
Ġaccom pl
Ġch arts
sequ ently
ĠI T
Ġrecomm ended
az e
spec ific
ĠAnth ony
ĠM rs
ĠHaw ai
op ter
ul ner
Ġmult ip
ĠPl ace
ĠPro t
R PC
uer to
Ġman age
M en
Ġconstruct or
Re port
Ġdocument ation
w ill
oc ese
Ġv eter
Ġproper ly
ĠQueens land
ur is
Ġdr um
Ġign ore
Ġfr agment
C G
ĠB ry
Ġformer ly
z i
ĠMed icine
com b
ĠB os
ĠM and
ĠW AR
Pass word
Ġint ent
ĠF inn
Ġassum ptions
Ġsch ol
b d
Ġth ir
all as
ĠN ich
Ġm eta
Ġt er
en able
Ġs ed
ĠP i
V E
Ġwindow s
Ġcomp lement
el and
Ġag ed
is ition
ili ar
Ġsign s
ow ski
Ġjo ining
ĠK evin
Ġinterpret ation
ic ious
Ġsound s
A CT
ĠTur kish
%% %%
Ġmov ies
Ġro utes
ierarch y
Ġseem ed
En ter
ĠMar ine
s ome
) ->
Const ants
ĠIslam ic
_ -
ĠG ard
Ġg ather
Ġcommand er
Ġaccom mod
p u
sh ared
Ġinv ited
Ġinj ured
L ook
Ġl ift
ut ies
Ġshort ly
och astic
C B
Gener ator
ĠDo ctor
Ġr ating
Ġhypot hesis
v c
ĠHT TP
so ap
ĠR ab
Ġmaintain ed
Ġequ ality
Ġpercent age
Ġex ecute
Ġcom fort
Ġs udden
ĠS in
Ġarg ued
ub le
TI ME
d ash
TE XT
trans ition
ribut ed
ĠDis ney
Ġlog ic
ram a
ĠNor wegian
Ph ys
ĠP a
Ge ography
ĠInt eger
arn er
t c
own ed
ĠIsrael i
ĠD NA
aw ay
e a
ac ew
Ġne ither
Reg istry
Ġdiscover y
d k
Ġu i
ĠEx press
Ġsubject s
sw arm
m aven
ĠO ak
? >
Ġdecre ase
ĠAg ency
Ġs oci
' ));
v ee
l at
Ġcomp atible
fl ag
or er
,\ \
Ġb ind
Pro of
ph an
Ġlog ger
issip pi
Ġl ose
Ġproduc es
Ġdemonstr ate
i ary
Ġsp end
Ġsust ain
ĠC ook
ĠMat the
g i
Ġpro pose
wild fly
Ġdr iven
Ġind ices
ol o
ĠS U
W here
Ġwor st
] $,
Ġc odes
Ġfeel ing
ĠF ind
C ert
Ġcre ative
Ġth in
as p
Ġdesign s
Ġrg ba
ĠG all
ĠArch itect
Ġmod er
cl uster
us cript
f c
det ail
Ġdi agn
un ique
ut ing
ell s
Inst all
C ent
Ù Ħ
ĉ čĊ
ĠAl abama
az y
Wh y
ar o
init ely
fef efe
ĠE u
ĠPl ayer
ĠW y
ĠF er
Ġfr anch
Wrap per
Ġare n
re v
Ġvict ims
ĠT ag
en abled
ĠP ut
1 12
ĠDe ath
eg et
K e
( .
ĠS ep
w en
Ġbring ing
P rior
ĠA SSERT
Å «
Ġrestaur ant
Ġre tail
serv ices
big l
Ġphot os
Ġoff ices
empty set
Fl ag
Ġdr ag
Ident ifier
B ound
Ġs ons
se m
Ġfound ation
che ll
ĠG ram
D b
ex pr
Ġhe aring
Child ren
us al
Sh ape
Ġloss es
Ġro ots
ĠDet roit
ibr aries
ang el
Ġre in
Ġm ile
ol ly
Ġpubl isher
Ġ ^{
ac o
j ob
Ġc ro
ov ak
Ġpers ons
Ġgu y
Ġcr ash
ĠLang uage
< !
Ã© t
CO MP
ir ms
ug u
re lation
y ers
ĠMe an
fol io
, '
ĠCh ange
ĠP R
ĠF a
me an
ĠB u
Ġb rown
ĠL ank
Comp iler
$ &
ĠRequ est
Ġscient ists
Ġc raft
Ġch air
l u
L en
oth s
view s
ĠCont in
int end
C r
Ġtri es
Ġexpress ions
Ġspec ify
Ġmolec ular
u able
hens ive
typed ef
Ġ[ "
Ġderiv ative
Al so
Ĥ ¬
res ources
clud es
Ġhard ware
Ġf ought
ĠAn ne
Ġ\ ]
A rea
Ġprec isely
Im port
Ġl ake
Ġrecon struction
Ġp itch
P ER
Ġh un
18 90
rupt ed
ĠO klahoma
Ġv oted
S ep
on ce
ĠVill age
ĠAp pendix
ĠArm en
IT ION
Ġj s
on i
10 5
ĠWal ter
as ync
Ġhor izontal
am el
sc ribe
ab ad
}_{ -
}) }
U pd
Ġpotential ly
}} )
ik h
\ ;
Ġneut ral
lection s
Ġret irement
urr ican
Ġdis p
Ġgood s
tr im
Ġquant ity
Ġst yles
big r
ĠN ap
sp irit
Ġco q
3 60
> ::
sl ash
ĠOr iginal
, ...
se par
Col l
Ġpres ents
ver age
ort ed
ug ar
Pro gram
Ġspe aking
aps ed
ĠBul g
ĠG ordon
ail ability
Ġembedd ing
Be an
ĠHarr is
Ġt err
rop ic
Ġsit uated
Ġvar iance
Ġchar set
(' .
form ed
cle an
prot ocol
Ġparticip ate
Ġatt orney
Sup port
ĠK er
sc ss
ĠOn line
ĠSquad ron
Ġpass enger
Ġleg islation
Ġn ortheast
Ġeng aged
new s
Ġc ash
Ġm ine
Ġeval uated
Ġfore ach
Ġs elling
Ġtem ple
ĠS QL
atur ally
10 2
ĠC R
ĠO tt
Ġcer emony
ĠD B
pat tern
Ġunivers al
Ġj azz
G overn
ĠTr aining
Ġcharacter ized
con nected
Ġb oys
is en
Ġpay ment
Ġinvolv es
ĠM iami
Ġmusic ian
struct ure
ĠS ite
ig ious
ĠF uture
ĠY outh
Ġconv ersion
Ġpo etry
1 15
agnost ic
Ġdis miss
Ġliqu id
side bar
Ġrestr icted
Ġsens itive
En vironment
ĠÐ ¿
Ðµ Ð½
ĠA fghan
al gebra
sv g
ambig uation
| }{
Ġre ward
pos ing
Ġf ul
B ind
F ramework
Ġdef ines
Ġadv ice
Ġun iverse
ĠF ame
ĠHer itage
duc er
Ġperiod s
Vis ible
cl ine
Ġre nt
Ġsc roll
n p
Ġneigh bour
S V
index Of
Ġs now
I X
lo yd
Ġsepar ation
Ġcons ervation
ĠI R
Ġsever e
Ġm ob
es is
Ġfac ilit
Ġdest r
ĠB ush
Ġphot ograph
ĠR ound
Ġkn ock
Ġnull ptr
Ġregard ed
Ġm it
Ġpain ter
ĠPro p
Ġn a
Ġoper a
ac ht
Ġmed i
art he
ĠCh ile
S N
ĠLa ure
ur able
Ġd imensional
Ġ? >
}} _{\
ĠS N
190 5
Ġmembers hip
int ro
re pe
= .
apt ure
ĠC ore
Ġas sets
y ou
Ġv irt
ĠB us
Ġrepl acing
Ġsh aring
P ORT
ĠS port
R ober
al ia
G M
ĠP os
Ġv align
}} ^{\
Fr agment
ĠEm peror
man if
eg as
P aul
log in
N odes
Ġcon cluded
Ġqu asi
Ġtem p
Ġhead ers
re tt
An imation
Id s
br and
Tele vision
Ġgener ating
Ġmet res
Ex ample
ĠP ed
Ġliter ary
ast s
F low
in valid
St op
Ġcan onical
writ ten
b us
ĠDoug las
ke ep
190 9
M al
ĠConnect icut
L i
Ġst ead
im ore
Ġl it
the re
Ġm outh
Ġ\ (\
U C
ĠH ttp
Ġr ival
Ġcont ribute
ol id
Vert ex
bum s
Ġbelong s
Ġp up
}} .
Ġf lying
Ġab use
Head ers
Ġ ðŁ
st e
Ġprom ise
ĠLO G
Ġder ive
Ġl aid
viron ments
s quare
as sembly
Ġl ob
us ername
}\ ,\
Ġstre ets
ren a
am an
M ath
ib ilities
down load
ac cept
Ġm d
od ox
level and
ĠD VD
Ġfl u
r b
qu ant
Q U
ĠDef ense
ĠTele vision
iss on
Lang uage
Ġdire ctions
Ġcom ic
os ed
Ġwrit es
Ġillust rated
Ġal ert
14 0
/ (
ĠF arm
Ġre verse
Ġ( ,
ĠV in
Ġinv ent
Ġiter ation
Ġdom inated
Ġincreasing ly
S cal
M ill
Ġdirect ors
EE EE
b ow
ort ion
Ġsub sid
Ġc ards
n odes
iam ond
Ġdi agonal
ĠH amp
Ġass ault
ĠPh ill
Ġcon figure
ĠK a
ĠM aur
GB T
ĠG irl
ĠD ave
o i
Ġd ens
g ood
Ġcre ates
Ġterm inal
LO CK
numer us
Ġinflu enced
2 13
numerus form
L INE
Ġcent uries
ĠB lo
Ġgr ade
A x
iter al
Ġrad ial
Ġdomin ant
ĠC ow
Ġor b
Post ed
Ġman ip
l ights
Ġcross ing
Ġcho ices
Ġteacher s
Ġ ];
ĠL ib
Ġcan cel
in burgh
ograph ical
ĠP as
Ġrestr ict
ub er
Ph one
Ġmagn et
Date Time
ĠWh it
Ġg iant
ĠP lease
Ġinter mediate
ĠR ick
ĠEar l
Ġtransl ated
con struct
ob serv
ä »
PO ST
) })
ĠTem ple
se a
Ġnon linear
ĠWalk er
ro ck
M F
M ove
th rough
ĠL ook
fig ures
Method s
Ġprior ity
Ġdou bt
ish ment
icens es
el lect
Sk ip
Ġrecover y
N amespace
Ġcur v
br idge
y ll
ĠCommon wealth
Ġcomp ens
Ġt ennis
olv ing
ĠT reat
ĠCro at
Ġsing ers
Ġg ar
ĠBr un
ĠE ag
is ations
Gener ated
cd n
Ġmys elf
j u
Ġh am
ĠE ver
Ġ Ä
il st
R ob
Ġsk ip
Ġvari ations
R ich
M ake
ĠS el
Ð° Ð½
ĠInf antry
Ġmax imal
Å ¾
Ġfew er
Ġexpos ure
Ġunder stood
U ri
Ġc ub
Ġtem porary
L ower
re p
190 6
in ces
k ov
Ġim press
Ġhead s
Ñģ ÑĤ
Ġst ood
re lease
ĠA le
ol ut
M arch
ag ent
( __
miss ions
Over view
Ġm es
ĠB ron
br as
Ġsche ma
E ast
Ġclass ified
Ġ å
E mail
Ġass istance
Ġcompet e
Ġentr ance
Ġeng ines
ors es
Lem ma
Ġs occer
Ġtr ivial
C ard
ĠO N
Ġplatform s
ĠL INE
Ġbound aries
Ġdec ide
ĠBill board
Ã ł
St ud
E very
Ġd ies
Ġf alls
ĠD al
Ġtime out
b log
ĠAnton io
is p
test s
rel ative
ĠMark et
ĠI ss
et ary
Ġgener ator
ĠOper ation
Ġrapid ly
@ {
Ġa ired
B egin
Ġf ails
Ġemer gency
Ġhost s
neg ative
Ġcarry ing
Ind ian
Ġfle et
sh al
aud i
Ġm art
Not ification
ĠArray List
Ġmanif old
ĠS P
li est
Sh ould
190 7
Euro pe
ass andra
it able
Ġun us
ĠArgent ina
Ġpro files
Ġt on
Ġtop ological
Ġf at
æ ľ
ts burgh
column width
Ġwould n
Ġpop ulations
ĠE arly
or ro
Ġhundred s
Ġnot ion
ĠAl an
h ave
ĠF OR
cy cl
ĠMor gan
Ġpart ially
nap shot
ME TH
ap l
ĠL as
Ġsimultane ously
om as
avel ength
d ers
Ġr u
J une
Ġincorpor ated
ĠF le
F P
ĠS n
qu ir
amp s
Ġch urches
ĠD ur
spring framework
Ġload ed
Ġf aces
ĠCh ampions
S an
, {\
Ġcompet itions
ĠB ureau
Ġgr avity
Ġtrans actions
Ġsymbol s
Ġst im
ĠCl oud
Ø ±
Ġf ired
ĠSt ew
Ġhand ling
L ight
ĠAdd itionally
ane ous
Text ure
tikz picture
c u
Ġs ight
Cons ider
ĠV ar
ĠMay or
Ġed ited
ĠBelg ium
an im
ĠG arden
10 4
Ob serv
ĠN ob
11 1
Ġhistor ian
if ndef
s is
)) \
E ducation
M ajor
l on
Ġse es
Ġb irds
an ia
H ar
Ġpro ps
ed u
Ġdeb ug
ig ate
Ġpoint ed
Ġfind ings
Ġpublic ations
Ġcomp ilation
J uly
ĠHon or
ific ial
Ġins urance
v i
Ġroad s
, .
P al
S pr
g oto
t frac
CT YPE
Ġwe ar
Ġd uty
ĠC hen
Ġwhe el
ĠSw iss
Ġsus pend
ilt ers
Ġassum ing
m outh
ol ished
ĠQue bec
190 4
Ġaccomp an
Ġreason able
{ "
Ġap pre
Ġ} }
lo pe
object s
sign ature
c ross
Ġabandon ed
re port
or igin
Ġocc as
Ġquant ities
ct ic
Ġpart ners
w atch
Ġread s
Ġestablish ment
Ġacc um
Ġregular ly
Ġb anks
r ift
print ln
V ill
ĠP ur
ĠK itt
Ġf old
ĠP ope
ĠSc ient
... </
in ian
ĠMiss issippi
dis ambiguation
F ORM
Ġag encies
s b
if i
oc he
Ġro oms
ped ition
Ġcl ip
form ing
Ġstudy ing
p aper
Ġp ixel
fort unately
ĠAuthor ity
Ġsurn ame
re pre
ather ine
Ġ$ ,
Ñ ĩ
at omic
ry ption
Ġw aters
S ample
ĠS H
S W
ĠP rix
w arning
Ġd x
amaz on
ĠH um
ch art
ĠLouis iana
Ġf ake
Ġarr ival
) --
x html
j et
ĠC le
Ġ ig
red ited
ut ation
Ġsur faces
Ġwatch ing
m k
Ġcollection s
En umer
ant on
tr ace
ash i
On ce
Ġvalid ate
Ġs outheast
ĠH ockey
Ġconsist ed
pol icy
Ġmin ing
Or gan
B orn
Ġin ternet
Ġtr uly
O ld
Ġcon crete
Ġk in
check ed
ĠE mer
Ġyour self
Ġp arser
ĠC P
ĠYou Tube
" ],
Ġpenal ty
ĠW olf
Ġpost s
Ġcoupl ed
Ġconvent ional
ĠN atural
Ġim possible
ce ive
i eg
Ġbr ings
olv es
Ġfound ing
Ġtyp ename
t re
ĠO S
f ather
pro duction
b atch
ib l
Ġhigh way
12 7
Ġle af
repre ne
Ġreport ing
ĠH ug
Ġprefer red
Ġpriv acy
Form er
ĠE ND
tr ivial
M ac
i ac
ĠAl ber
Ġf ib
ĠChe m
Ġtop ics
r uit
ul p
Ġpass engers
Ġref uge
Ġland scape
app oint
EN SE
math op
ĠBow l
ĠAb d
Ġw ww
Ġgr avit
Cl oud
Ġseek ing
Ġb id
ĠD og
ĠMan ager
vol ume
ĠV ector
Ġtouch down
end ment
Ġturn ing
Ġp ione
= [
av ior
ĠBatt alion
Ġde put
ĠK o
Ġappe al
Ġinh abit
ĠR ap
ĠR ol
Ġ( ),
Ġdefin itions
ro ke
ĠL am
Ġback ing
Ġapprox imate
ĠF eb
Ġ' '
Ð¾Ð ²
ĠN CAA
ĠK elly
ĠVal id
ĠF M
() ))
pro fit
ĠW here
; ">
ĠYear s
multi row
Ġvary ing
Ġcr icket
Ï Ħ
TR UE
ĠSing h
ĠAd vent
oust ic
A li
ĠEx pl
p b
p ub
METH OD
Ġcr ucial
iz ers
ĠK am
ĠL ock
Ġcos m
ĠTai wan
pol y
ĠIndones ia
set up
Ġappear ing
Ġsub t
F ootball
Ġdescrib ing
Ġt ank
Å Ł
con sole
support ed
s un
Ġrul ed
Ġisol ated
ect ure
ĠSe attle
Inter val
ĠDen mark
Ġinstr uments
Pr ivate
190 1
Ġview ed
ĠInd ependent
Ġil legal
N ative
ĠBo olean
(' /
Ġcommission ed
Ġcoll apse
Ġin fl
Ġre tain
Ġrequire ment
M us
F LA
M ask
ĠStud ios
Ġexp ensive
ĠDe an
ĠS ud
ĠS A
check box
Ġd iverse
DO CTYPE
(' #
s ig
J ames
ile vel
IN FO
ong o
ĠSar ah
Ġt mp
Ġdrug s
Ġde pos
Ġown ership
h us
Ġm m
T F
Ap pend
long rightarrow
Ġst adium
n amed
et ric
Ġanim ated
OR Y
Ġ ri
DE F
i ota
EEEE FF
Ġident ification
iss ance
Ġmed icine
ĠAtl anta
Ġread ers
stand ard
enez uel
Ġres et
» ¿
Ġpresent ation
Ġe at
cl one
Ġn p
ĠK az
Ġm atters
Return s
Ġcour ses
190 3
Ġc md
ĠH ills
Ġorient ation
und efined
ail and
Ġgeneral ized
( @
ĠC EL
d ale
we ek
as ma
Ġar med
ers et
Ġvari ant
ĠCons ider
ï »¿
Ġp ub
Ġon going
ĠTr ack
S erv
ge bras
ĠD ublin
Ġwork er
ĠĠĠĠĠĠĠĠĠĠĠĠĠĠĠĠ ĠĠĠĠĠĠĠĠĠĠĠĠĠĠ
Ġre nd
Ġsurg ery
N ormal
bl ank
Ġlist ener
ĠP uerto
P air
agnost ics
Ġa cknowled
M ilitary
test ing
at ivity
Ġ urg
Ġacc ord
Ġ" $
ĠD ak
) }_
ĠSch olar
get Element
li x
nt il
ĠI ron
hib ition
Ġpack et
Ġpan els
Ġequip ped
apol is
\ |\
oc a
Ġpl ugin
Ġsing ing
cy cle
ĠL ore
Ġn ick
Ġexc ited
Ġphil osophy
][ ]{
Ġmod ify
Ġsubstant ial
Ġvisit ors
Ġt ables
N V
Ġb old
ol ph
Ġgrad uate
ĠJ uan
Ġex posed
ins ic
ĠOr th
ĠH u
te ction
Ġtalk s
á »
Ġres erve
Ġmiss ed
qu ote
Ġsp ending
ĠCh airman
ĠW rite
op ts
ĠAb b
pl ier
æ ĸ
ĠMalays ia
time out
bo ost
over ty
Not able
Ġb on
ct ors
or ous
Ġdeterm in
ĠTr ade
ok ing
Ġassert That
as a
Ġd ashed
op ol
Ġv ast
per iod
ĠCl inton
part s
=" $
Cl ub
Ġstrong er
ĠPortug uese
m ay
G a
Ġsim ilarly
Ġsecret ary
Ġa str
i est
ĠM os
py thon
st ory
P ower
\ }\
Ġnormal ized
Ġin clusion
ĠN aval
Ġcorrect ly
Ġg ang
vis ible
R AN
ĠMc K
ro ute
por ated
ĠHar vard
Ġb os
d ark
Ġsp oke
W ORD
ĠN ag
pro xy
RE Q
Ġann iversary
Ġj unior
it udes
Ġpaint ings
n ik
Ġmer ge
comm it
Ġre venue
ĠAn na
Ġdesign er
os ph
Ġk it
Ġdis establ
function s
Ġph ases
Ī Ĵ
ĠEd itor
c ounter
ĠEd inburgh
Ġfin ishing
Ġh ired
ph ase
ro c
Ġsat ellite
sp in
\ }$,
ĠAn alysis
ĠAN Y
Ġwor se
work s
Ġtechn ologies
ĠL P
ĠP ap
H ence
k t
et he
Ġad mitted
Ġmanufact uring
Ġin aug
G P
M ount
des ign
Ġ-- -
Ġdraw ing
Ġst ating
av ia
(" /
Ġsports people
Requ ired
}) =
ĠVol ume
em en
. ",
D elegate
ph antom
cept or
de ep
ĠB ou
Ġpe er
z ip
vert ical
en ix
ass ador
Ġis ot
Ġis lands
Ġener gies
Aug ust
n est
am ents
Ġre ducing
ĠRes erve
ĠBrig ade
N ET
DE BUG
iz z
Ġo x
in ating
sh a
m ouse
Ġcon n
L ike
end a
Ġlimit ations
requ ency
Con nect
ĠSp acew
ĠT errit
h ot
ĠU tah
Ã ´
cre ated
Ġt ags
Ġform ally
red uc
app y
le e
Ġv oting
Ġout come
Ġconfig urations
Ġwh atever
Ġal coh
ĠLiber al
}$ }
hel per
Ġaccess ible
gress ive
O h
st age
text color
ĠP ear
uk i
sl ice
Ġadapt ation
B ased
bar a
ĠK l
Ġsn ap
ĠĠĠĠĠĠĠĠĠĠĠĠĠĠĠĠ Ċ
d u
ah n
ĠSam uel
opt ional
Ġa ug
Ġinvestig ated
ĠPortug al
og onal
Ġh a
Work s
Ġfrequ encies
+ (
Ġm ail
ĠAust in
ss on
18 80
RE G
! \
ĠP ack
ĠB ull
ay an
v et
ĠMc G
Dr iver
ĠC emetery
Ġm ouse
ĠSpacew atch
res ize
;" |
ĠF ern
ĠWork s
Ġdepend encies
Ġcorre ction
Ġbas eline
in ator
190 2
Ġdep ict
ĠD M
ĠN ash
Ġgrow n
Ġentertain ment
v arthe
NavBar Font
B Y
ist ol
act ivity
Ġcent ers
Ġapparent ly
Ġcon vention
Ġat oms
Ġfr uit
Ġre ign
ar ith
Ġbr anches
leg es
Ġequival ence
Ġw ine
Ġr anges
Ġf rames
Ġsp ac
varthe ta
oun ce
ĠRes ponse
ĠEx ample
Ġcorpor ate
S ave
h our
f p
Ġrece iver
ĠCap ital
Ġis omorphism
I gn
se q
ĠK it
/ .
Ã «
Ġsy nd
: [
ii i
Ġclos ure
C red
Ġinv asion
A pril
Form s
bor ough
r ink
not ations
U ST
ir i
ver ter
Ġcompet itive
Ġe ase
ĠF ive
y cle
Ġme ets
ĠAll iance
ĠB art
h ill
ĠArt icle
Ġpri ze
"" "
sequ ence
INT ER
ĠIn put
ĠN AV
Ġconsum ption
Ġen um
is ons
s ong
ĠH il
W ait
ĠSm all
R oman
inc or
cover y
av ailable
Ġm ilit
H ub
ĠLINE AR
iv idual
Oper ator
Pl ace
Ġask ing
1 17
y y
Ġcl er
var i
Ġh ide
ĠBr uce
G ER
com plex
comp are
A udio
Ġt um
load er
over view
1 16
Ġman uscript
spe ed
******************************** ********************************
Ġp ipeline
re ement
ĠG on
Ġscen arios
ĠCol omb
put ed
Ġap plies
ĠM ission
oun ced
Ġred shift
ĠCo oper
ag ination
Ġbe ar
Ġconnect ing
libr ary
Ġdiam eter
w p
Ġch ampions
Ġb aby
Ġre duces
ĠLaw rence
M r
ĠX ML
hy thm
an imation
Ġstruct ural
Ġexerc ise
ĠThom pson
ĠV ari
Ġt all
Ġ' \
Ġc yl
Ġsup pose
Ġf ault
Ġcheck ed
Off icial
ĠH it
ĠF ROM
h att
ĠB uff
ĠIn s
ĠG R
ĠP rom
Ġput ting
ack son
pl oad
Ġp atch
/ {
g lyph
Ġform ing
Ġr ide
Ġexpl ains
EL D
st ates
re present
Ġpri est
Ġorgan isation
Ġall Classes
Ġan th
Ġgr ass
Ġreve als
Ġ} {
Ser ies
periment al
s r
Ġv ulner
Ġseg ments
Ġproduc ers
ops is
bound s
d ig
ordin ate
C ALL
ĠSt atus
res olve
ĠG irls
ĠPal ace
ĠallClasses Link
SC R
ĠRog er
Ġmid field
s u
it ely
Ġmain tenance
sub sec
ĠAp ache
ĠPr int
ap is
Ġloc omot
ĠC it
clud ing
Ġrob ot
as hes
i at
ĠIm perial
bas ic
Sh ift
Ġp ictures
Ad min
ĠT ree
sect s
^{ *
d istance
IC ENSE
cond uct
script style
ĠS R
& =\
}) ^
Don ald
Ġanal ys
Ġcommand s
ĠSoc orro
Ġpubl ishing
d in
Sup pose
Ġb ott
K n
med skip
Ġfac ing
ĠIn v
Ġent ering
Ġcons ervative
final s
Ġcommunic ations
ĠD escription
ĠG re
ĠAL IGN
ĠD anish
form al
Ġground s
n ed
Ġd ial
Ġprep are
Ġfam iliar
P ers
Ġdis order
Ġrespons es
ol as
;\ ;\
Ġcont roll
ĠW atch
Ġm ess
m illion
i ere
ia h
Ġsign ing
Ġtyp ed
b one
ĠP eters
l arg
ĠA BC
Ġb ars
Ù Ĩ
Ġf erm
Ġpr on
Ġprov ision
ĠTh ough
Ġt ropical
Ġg arden
Ġphot on
ĠD ance
Ac adem
Ġdanger ous
con vert
Ġpro fit
ĠL ate
S creen
Î ¹
ut ter
Ġadd s
st ers
rad io
grad ient
ĠEconom ic
const ant
Ġexhib it
d ays
W eek
az ines
ĠL java
ĠEd ition
ur ers
Ġsup plement
L Y
'] ['
ĠDemocr ats
D ictionary
S ite
ĠSI ZE
erv ing
B al
Al low
Ġsignific ance
P Y
ĠF ix
Ġslow ly
v y
ĠRuss ell
E SS
Ġchalleng ing
p in
Ġassoci ate
F ocus
dat abase
t f
ĠJ ason
ĠPro duct
or us
ynam ics
ĠA C
ĠPe ace
ĠBe at
}} =
ĠAp plication
Event Listener
Ġhy brid
Ġem pir
Ġvol umes
ĠC ole
Ġamount s
Ġunivers ities
Ġmechan isms
ili ary
M s
Ġappro val
not ag
ick ing
ĠChrist opher
Ġtal ent
H istor
Ġasympt otic
av is
Ġst ochastic
Ġge ometric
ĠSchool s
Ġt ied
Ġcopy right
Ġoff ensive
m oment
ĠPubl ishing
Ġmodel ing
Ġmet all
t ures
0000 0000
ĠW IT
mark s
9 00
ĠN elson
Ġsche mes
A ir
Ġland s
iver pool
Ġre vers
' ];
ĠF ight
Rober t
ĠO k
get Value
Ġsub group
olut ely
Ġb ot
ID TH
l oss
Ġr is
Ġdet ector
run time
H om
Ġign ored
Ġhor ror
ĠOr chestra
d uration
Ġpro spect
Ġmar ine
ex ec
m ag
ĠAcc ount
Ġso ap
Ġembedd ed
Ġcur sor
T ra
k top
Ġstr uck
Ġan chor
Ph oto
Ġl oved
Ġrun ner
ĠH ell
ĠCO VID
Ġoper ates
ĠKn ight
ç Ķ
Ġpick ed
Ġap ilevel
ĠDep uty
Sup er
Ġsit uations
Ġatmosp here
Ġst abil
Valid ator
ĠLim ited
F lor
Ġl ens
Ġn aturally
More over
Ġadvert ising
189 8
ĠD ouble
ĠD allas
id o
Ġprec ise
ra ig
Valid ation
P red
Ġwill ing
dr iver
ĠUkr ainian
valid ate
ĠMont real
Ġnorm ally
and al
Ġs ympt
be h
t ensor
ĠSt ream
part y
f eed
ĠS ac
or ce
P resent
m ate
ĠM O
ĠDe ep
Ġrecord ings
} |\
Ġvot ers
Ġc ir
ig inally
Ġtw elve
evel oper
W allet
Ġreal ized
ele m
Ġsh adow
ĠHistor ical
math it
Ġenjoy ed
ter y
ĠL A
US ER
ĠFreder ick
Ġcast le
c atch
Argument Exception
ON G
er on
face book
Ġload ing
ĠArk ansas
Ġsup plied
] {\
Ġop acity
ĠT ar
Ġv eget
Ġro se
ĠMar shall
: =\
Ġcurv ature
qu al
ĠAg ric
Ġmag ic
p are
ĠG ulf
ĠN i
ĠBrazil ian
Bas ic
w d
Ġne arest
ul um
Ġrele ases
ev a
Ġtop ology
P ress
c ountry
t witter
Am ount
ĠH erm
ĠWeb site
ĠF el
ob i
clip se
ĠN eg
ĠP ho
th ick
Pro to
Ġcount s
ĠH D
Ġim pr
Ġd ip
AN CE
Ġneigh b
Ġstrict ly
å Ī
ik ip
Ġsens itivity
Ġf itting
! ]
ach i
cast ing
MO DE
SS L
Ġfranch ise
Ġs ql
ĠSh ah
Ġprinc iples
ĠC leveland
P lease
AN G
L imit
Ġb reed
ĠD est
ab a
Ġs oul
Ġse lector
Ġsh arp
S G
Ġs ensor
Ġre ception
iv acy
ĠC lient
Ġbu f
Ġfact s
load ed
Ġcol le
}} }\
ĠFri ed
ĠAl ice
Ġ{ "
fin ite
NS String
ĠFin land
Ġcour ts
Ġim plicit
10 3
Ġarrang ed
Ġw aste
Ġwalk ing
Ġan om
Ä «
VAL ID
Ġcoll ision
ĠDE FAULT
ĠD ub
Ġaccompan ied
ock s
ellect ual
ĠL oad
% "
M IN
Ġa mazing
Ã© n
Ġathlet es
) ^\
Ġs b
\% $
ĠSt ore
dest roy
Ġfor g
Re ception
up d
Ġco ff
Ġext ensions
ĠK ings
Ġdiscuss ions
Ġdef ensive
b ul
ĠT rib
ĠRes ults
ĠTh ailand
å ®
Ġso il
ĠT ig
Pre vious
Ġmov ements
Ġpass ion
Ġinj uries
} ~
ĠM D
Ġweek ly
ĠW ard
DE FAULT
Ġtrad ing
ĠB uck
Ġde bt
con structor
Ġtempor al
um ption
ĠMet ro
ĠM eg
Ġen vironments
Ġactress es
Ġhead ed
Sc ott
ĠOper a
Ġassign ment
B inary
ir ates
ĠR ain
In formation
Ġperiod ic
b uilt
F N
n an
st ud
ĠAtt orney
Ġmin i
par allel
ĠBang l
It alian
Ġo vers
Ġcircum stances
f ish
ĠP un
it is
LO C
olt ip
ĠSever al
ĠStew art
ĠâĢ ł
Ġmet ers
Ġrank ing
Ġres id
Ġgu ys
Ġlumin osity
ĠM agn
g ov
se lector
Cont act
^* \
Ġre aches
Ġh at
P UT
t k
b est
h al
ĠL anc
ĠAd ams
ĠSer ver
ĠJ osh
ĠSim ilarly
ĠLie utenant
l ab
Ġaff ord
ĠF al
aint ies
Ġst ats
Comp at
E val
Ex port
tr l
Ġthrow n
å Ĳ
ear ing
Ġconcern ing
Ġp ixels
Con sumer
Ġad ults
method s
inst ein
Ġh al
ĠS ets
10 7
Ex pat
ial s
Ġ\ &
g ow
ou ver
ĠE ss
Ġr aid
18 99
is Empty
le ans
mem ory
W in
ĠTe ch
Ġf itted
Ġt el
min ute
G reen
back slash
PRO JECT
sc opic
Ġin tern
Ġdecl are
Ġcomp ress
m aking
ou pl
Ġt ang
ĠMon te
UN D
lot te
Ġreli ef
ac er
ĠComm ander
Ġe g
alyt ics
k ee
ĠC er
ĠKenn edy
urs or
Ġh ill
if ting
re le
Ġp uls
Ġchild hood
Ġsol ving
Ġeth nic
Ġsevent h
ĠR ace
ĠSy ria
Ġbeaut y
O F
M aster
ĠCamp bell
w ave
s ocket
tern oon
Ġcritic ism
Ġcontinu ing
B ur
H ol
ĠD ie
Ġfor th
Ġg ift
Ġdesc end
ĠB ed
R aw
Ġb ul
get s
L R
m ount
comp ile
Ġn an
Ġne uro
ro se
ĠBalt imore
is set
Ġres idence
ĠLeg islative
out ing
ĠG T
T ex
riter ia
i op
Ġexper ts
Ġadv ers
Ù ħ
ikip edia
ÃŃ n
1 18
ĠB ey
ĠNAV BAR
ĠPat ri
( --
Ġt elling
Mich ael
Ġdynam ical
Ġher itage
| ^{
Ġjud ges
Ġfe els
ĠMP s
V P
Oct ober
ĠM es
her ical
ĠRob inson
Ġvict im
s he
Ġf asc
å ħ
Ġsl ot
var iable
ĠL ane
Ġpl ain
ill o
Û Į
ĠG ray
Vol ume
Ġ" ";
Ġindepend ently
s ync
ymmet ry
ĠChall enge
l ined
. :
Ġpre gn
B atch
li ed
Ġed it
A lex
ä º
Ġtri als
Expat riate
ĠC arn
ĠD ist
Ġc up
Ġsus pect
Ġsystem atic
Ġmy th
Ġconcept s
Ġsub mitted
il ty
Ġf iber
ĠB oys
ĠBet ween
"/ ></
Ġcom plicated
ex it
Ġimprov ements
Ġind uct
We ight
Ġmark s
var rho
M ouse
ext end
ĠO ri
Ġassess ment
MOD ULE
r ino
Ġc ited
Ġf est
Ġwhe never
Ġrun time
in herit
let ter
3 50
ĠJ enn
an ion
11 4
ĠC G
Un known
Ġgovern ing
Y es
Ã ª
br ane
ĠM C
Ġgreat ly
$ {\
Pl atform
ic ator
ĠCon stant
Ġd iversity
Ġres ign
M AP
ul er
Ġ$\ {\
or b
d ied
Ġmonitor ing
ĠPit tsburgh
Com plete
Ġround s
D an
Ġproced ures
ĠT ake
Ġdam aged
element s
ĠB E
Ġear liest
se p
Ġb attery
New s
Ġdisc ipl
Ġig et
q q
D ATA
I AL
W arning
Ġtrack ing
D IS
Ġn ations
W ord
Ġeigen values
SE LECT
ĠP ref
cur sor
Î ½
Ġs wit
Ġopt s
Ġclos ing
Dis c
Ġb ath
ok er
Con stant
ĠCent ury
Ġord inary
Ġd ating
Ġres igned
th a
Ġappre ci
/ "
oc os
IN S
ĠW oman
A bs
Ġat omic
R ussian
The me
w he
ĠMarg aret
Ġagric ultural
Ġschol ars
Ġdom ains
j Query
og a
al ert
Ġcompre hensive
j amin
Ġaim s
ĠO wn
ĠS W
ĠM ust
an alysis
is ot
sub ject
ĠÃ ī
Ġfem in
Ġl aser
X i
ĠC S
Ġbe ach
Jo in
Ex ecution
ĉ ĠĠĠĠĠĠĠ
load ing
pro gram
ab e
Ġqu ot
ĠGr ad
V ICE
Ġrestr iction
Ġinhabit ants
Ġep och
Ġtransport ation
ter ior
ĠJud ge
Ġemploy ment
L ib
Build ings
Serial izer
Ġint ention
list ed
IO Exception
isl ature
Ġden ied
ĠJoh ann
Ġres olved
Ġb ug
at iv
e lection
Ġdef initely
="../../../../../../ ../
mit ter
Ġcirc ular
Ġpra ised
" ].
Ġex clusive
Ġa ux
Ġo cean
P G
script size
sp ir
Ġ' ';
or o
M art
et ition
Ġsp here
ĠM ars
: `
ĠStud io
Ġproport ional
Ġt ie
claim ed
Se ptember
m ates
W ell
ĠC NN
ĠOption al
Ġrest ored
f actory
ĠCh amber
10 8
ig ible
ge on
ĠD J
Ġwith draw
ation Token
ĠSen ator
ĠPri or
high light
Ġmod al
Cond ition
B T
Ġcut s
f mt
ĠF ather
Ġparticip ation
Ġrecover ed
ĠC rown
Ġval ley
ĠM ort
b ach
sl ant
Song s
Ġreve al
Pro duction
Ġrece ives
End point
ĠPl ant
18 70
Ġut ility
ert ainties
Ġland ing
ĠBrook lyn
G ood
RE E
Ġremain der
ĠRes ources
C lear
e ctions
ĠH old
Ġresident ial
ĠPr incess
Ġfl ash
ĠE mb
erv oir
ish ops
Ġdeg ener
Ġfriend ly
B ad
ĠW right
C ulture
n m
Ġpublic ly
Ġfall ing
ĠOrgan ization
Ġident ifier
Ġm acro
ĠR ic
189 5
rypt ed
urrican e
ann on
Ġconsider able
mer ge
Rem ote
Ġw avelength
Ġmechan ical
exp and
Ġtherap y
Det ail
Ġc rown
Ġh aven
ĠMar ie
ï¼ Į
ĠG raham
an Ã§
ĉ ĠĠĠĠĠ
um ar
en z
ĠM ind
ĠLem mon
Ġgen re
Ġvisit ing
T ING
Ð ¿
Ġtot ally
A rm
ĠO d
Wh ite
STR ING
P od
Ġd ynasty
se lection
ĠR y
B ro
Ġres idual
Ġdevelop ers
el astic
Ġdist ances
ĠOr leans
Ġt ip
Con structor
Ġhe ter
id ad
Ġas c
ĠH ero
d ynamic
Input Stream
Ġvac uum
at io
Ġp and
Ġdes ire
Ġg ay
ĠL ower
equ ations
ĠB eck
Ġsurv ived
ab i
ex pl
b ai
ch arge
ĠA I
ĠMem bers
Copy right
ĠPr ivate
Ġf urn
. [
Ġdev iation
back s
Th rough
. \\
Ġour s
/ _
ĠC ensus
i ot
Ġsuper ior
m ill
Ġinstruction s
m aker
189 6
Ġb are
text sf
ĠSh ip
ĠH end
ĠN ep
ĠO bl
Object s
ĠY e
Ġcon front
struct ed
Japan ese
Rev iew
Ġr id
Ġid x
b oy
Ġdecl ine
ane an
â Ķ
Ġcompl iance
C enter
Ġ" ",
OR TED
ĠN ic
ject ure
Ġt sd
Point s
ĠMur ray
Ġen semble
ĠTh ose
cast le
ab ul
ĠMor ris
h ai
ĠV enezuel
Ġt ur
Î µ
ĠAut o
Ġabsor ption
Ġreg ression
Not Found
Ġpull ed
L ive
189 7
! âĢĿ
re ck
ĠCar ib
10 6
ĠMot or
ov ation
Ġqu ark
Ġinstall ation
Us age
Ġe c
Ġgu id
Ġinc red
Ġjournal ists
Ġc od
Ġs itting
Ġmeet ings
b n
Ġre putation
ĠM ock
ĠL iving
cor ollary
Ġ( {\
Ġextract ed
Ġread only
ĠNew ton
ĠStud y
d ag
lim inary
Ġconj ug
Ġg ram
Ġdef ining
Ġresc ue
incor porated
Ġdoll ars
ĠChar lie
ĠN BA
ab b
ĠS ide
v ect
ĠNiger ia
ĠC os
Ġconvers ation
A z
Ġoccup ation
ĠLear ning
ming ham
Ġcompar able
ust ed
ĠSim ple
ĠRem ove
ĠSt age
ĠBrother s
t p
LO W
Ġh alo
B inding
ĠĠ čĊ
ĠCom ics
A I
Ġte ach
ĠR io
xy gen
ĠG P
Ġs ym
ĠCommun ist
> )
ĠRefer ence
Ed ge
ĠCommunic ations
H am
LE D
ĠP ad
Ġthe ater
B ecause
Ġarch ae
ul u
clos ure
Ġto k
Ġre tained
aud io
ine a
pl ant
ĠM other
Ġmach ines
Des ign
Ġrad i
rub y
m atic
ĠJ e
ĠRef orm
Ġsurpr ise
T om
foot notes
t ies
Ġmanif est
ĠV ik
Ġt icket
Ġreg istration
66 66
ĠT ak
ĠAust rian
ĠPort land
C ity
Ġl icensed
Ġbeh alf
sp acing
ĠDel hi
b oth
ĠM i
F older
f are
Ġsim ulated
ig o
n ia
ow s
Label s
Spec ial
al ph
Ġperform s
anc ouver
Pro fess
Ġpolar ization
( -\
od o
ĠUp per
B ottom
d irection
ĠM obile
ĠMatthe w
ĠAb stract
b es
Ġbig ger
ĠN eed
Ġ' ''
F act
qu est
ĠPh oto
'] );
ĠA rena
Y our
Ġexpect ation
Ġ_ ,
ĠMov ie
Ġdifficult y
lik ely
ĠT ax
Ġqu iet
Ġcap abilities
) }.
ĠC SS
getElement ById
ĠHung ary
ĠPr im
Ġcomp aring
Ġ ĉ
Ġpo em
Ġs alt
ograph ics
at hered
}\ |
Ġdecre ases
Ġ\ "
re act
Y Y
Ġdesc ript
Ġderiv atives
Ġtrans itions
Ġpres erved
Ġacqu isition
Ge orge
Ġal ive
ĠV egas
10 9
Ġrepe at
arg uments
cent ral
ĠD A
Ġto ler
Ġoper ational
ĠCont ent
M o
g ather
ers h
Ġun iqu
ty pen
ĠK on
por ter
ĠM aj
ace ae
ĠA st
ĠM aine
h um
it ure
ins ula
ĠL iverpool
W I
ev ens
ĠKar l
Ġuniform ly
Ġpay load
Ġalgebra ic
Ġb acter
w alk
Ġconsider ation
AR D
assert True
it err
Ġtr im
Ġleg acy
ORD ER
ĠD esc
Sp an
ex pression
Ġlog ging
H D
ber ry
ok a
Ġ' ./
Ġas ks
A SSERT
ĠMet ropolitan
ĠAlf red
ant i
m ir
Ġ( #
Ġs essions
ff f
Ġthous and
vel ope
Pre v
ĠWel sh
Ġf i
Ins ert
E r
sub mit
Ġwe aring
ĠF ourier
it ro
^* (
enc er
ab c
Ġc rypt
ĠÐ ²
Ġpopular ity
Ġp sy
Ġfil ters
ĠTra il
^{ (\
trans action
Ġex ports
ĠHung arian
H A
Id entity
Ġr ising
Ġent ang
Sign ature
D OM
ĠB ible
Ġactiv ation
ĠGl as
Ġund ert
ĠHamp shire
Ġweap on
Ã³ w
G EN
ĠL eft
Ġse ar
Ġval uable
Ġperm issions
ĠHig gs
ĠSt ars
I mplement
P ack
hold ers
Str ategy
Ġsurpr ising
Nov ember
ĠJ S
kw args
Ġprov en
R ate
A fr
ĠT s
Ġsm allest
Ġhol es
Ġj uris
Rad io
ymph ony
ĠCon vention
Ġlik elihood
S chool
Ġent ities
Ġdiv isions
ĠH ope
Ġarr ive
b x
alax y
ĠL GBT
ĠS S
Ġb ishop
Ġ@ "
Ġbelong ing
Ġwith d
ĠJ u
H or
comm ons
Ġdeput y
Ġhon est
rang ian
ĠO pt
Ġdep icted
ĠRet ri
Ġaim ed
Ġenc oded
Ġop ens
Ġrandom ly
nav igation
Ġperson ality
M essages
footnotes ize
Ĩ Ĵ
Ġdistingu ish
ĠCar ter
i per
Ġvol t
Ġh ospit
iz ard
dis able
r ish
Ġcr imes
Ġcompet ing
ĠRail road
Ġprint ed
ĠN ation
Ġsu icide
ĠRoman ia
Ġcolon ial
ar ance
her s
Ġd owntown
Ġend point
Draw ing
cal endar
Jan uary
em pl
Ġfocus es
Ġphot ographer
ĠA qu
iv ia
Ġful fill
Ġb ird
Ġn ut
ĠN ature
Ġp ole
Ġaug ment
ĠÂ ©
ĠCh ampion
anch or
id en
Ġstraight forward
ĠAnd y
Ġthem es
cur s
ĠSt ill
im plement
~~~~ ~~~~
l icense
AR N
Ġgravit ational
S al
text up
ĠMic hel
12 34
itar ian
St atic
Ġstrugg le
Ġtransform ed
ĠG ary
Ġnot ably
ry ing
F uture
ĠW as
log o
ip h
K S
typen ame
Ġlist ening
ĠElect ric
ĠR ot
Ġp overty
CH AR
ĠIl legal
an ne
Ġunc ertainties
RE D
ĠM ess
$. }
Ġ\ ,\
Ġbeli eves
Ġev il
ĠPer formance
Ġrom antic
th ree
ob a
Ġunus ual
ĠW ang
Ġinter vals
Ġin herit
ĠR ange
ĠGu y
Sy ntax
m iddle
ĠBe h
ĠMount ains
n c
Ġd t
ov o
Ġcollect ive
m essages
Ġrail road
() ),
189 2
ĠPol itical
De cember
188 9
Ġcorre ctions
Ġrestr ictions
Ġenh anced
ĠR and
Ġpro be
Ġt unnel
ĠC E
ex tra
âĢ ī
Ġqu eries
ĠJim my
EE E
ĠSp irit
Ġgen etic
Ġne ur
ĠSup pose
U B
Ġsepar ately
ĠSh ould
ĠT ower
F ace
Ġelement ary
hip s
(" #
Ġsupport ers
y t
Ġvir us
ĠT ab
Ġd uties
Ġsum m
Ġven ues
Fail ure
ĠEx change
ĠRes p
Ġactiv ist
* }{
u et
ĠAp pe
s z
c od
Th row
Ġelect rical
ĠG ill
ĠDak ota
ens itive
_ );
ĠFin ancial
S am
ch t
Ġatt ributed
Ġinter pol
AT ED
ass ign
Ġform ulation
Ġr ub
Ġelectric ity
ĠAfghan istan
sh aped
Ġrep orter
ĠFrank lin
Ġin herited
ith uan
om atic
189 3
Ġ ur
Ġim plied
ĠB ased
oth y
Ġgrow s
Ġrep air
hatt an
Ġdeal ing
ĠN ord
Ġconstitu ency
ĠR ugby
Ġsound track
Th ree
em ale
Ġconv olution
Ġb at
s pl
: @"
*} [
189 4
Ġel if
z es
Ġpl astic
S en
el ines
N UM
Ġal ias
ĠMad rid
arch ive
) >
Ġfor get
Ġsurround ed
up t
ĠPubl ished
ĠSh ar
Ġautom atic
ul atory
elf are
{ |
Ġb om
et r
ug osl
Ġshe et
Ġpaint ed
w inning
ĠPy thon
Ġre plic
met ic
h ook
her ic
ĠVi enna
og ue
ĠTam il
Ġste am
)} (\
Ġdistingu ished
Ġdis contin
ĠY ang
Ġat om
ĠStan ley
l ia
w i
id i
Ġs ys
Ġem otional
Ġart istic
Ġs in
Ġrac ial
ĠH orn
En v
Ġh ook
L ibrary
ĠThe ater
l ive
ĠE dd
ĠBern ard
L D
He alth
at ile
Ġf its
read er
Ġweight ed
Ġmix ture
Ġen ables
Sh arp
ud son
Ġcelebr ated
ĠIndust ry
d n
Ġrepresent atives
m ac
Ġh ip
Ġinvolv ement
18 60
Process or
Ġanaly ze
int eger
ĠY es
E ffect
T y
Ġfluct uations
L ater
tr ain
Ġun like
ĠBr and
St ation
Ġguarant ee
Compar ison
ĠT ool
Map per
Ġfrequ ent
Ġto w
oid s
ĠV irtual
ĠBr anch
Ġsuff ering
Ð ·
ĠC atal
ĠT an
ĠAr n
Ġg rey
F UN
Ġre act
Ġst retch
ĠJon athan
en berg
Ġprison ers
ic ht
Ġregard less
w ind
pre vious
ĠD ictionary
Vill ages
Ġgu ests
p us
ĠI F
ĠD R
un ning
$ ^{
Ġver b
Ġalign ment
D rop
zer bai
R ailway
ĠU pon
Ġlif etime
Q ual
12 2
usal em
Ġfair ly
Ġcom ed
Ġreli able
Ġim aging
Ġst em
Ġdis appoint
ĠP sych
D id
ĠHawai i
z ym
our t
p rom
ĠH ad
." ""
ĠBar ry
Ġpseud o
} >
Ġemb od
C N
ĠMov ement
Ġsimilar ity
ĠAl aska
ley ball
Ġstay ed
Ġstrateg ic
Ġoutput s
2 20
Ġbreak s
C ONT
ij ing
Ġf mt
ol utions
im ir
H tml
ĠLank a
c ill
Ġp ump
up per
Ġinterpret ed
Ġcond itional
ĠComput er
ĠW rest
) ",
Ġover se
Ġin hib
ĠC ass
Pl an
g overn
Med al
Ġprepar ation
Ġsuspend ed
ĠRel ations
Ġgovern ments
Ġhom ogeneous
UM M
____ ____
h d
Ġpro x
ect ive
ĠK ath
ĠM all
ĠOrth odox
ĠB illy
f b
Ġspect ro
im m
ĠĠĠĠĠĠĠĠĠĠĠĠĠĠĠĠĠĠĠĠĠĠĠĠĠĠĠĠĠĠĠĠ Ġ
act ical
Null able
m und
Ġ" >
HE AD
ĠCon n
ed a
Ġco ins
ĠR ural
Ġequ als
ĠBl ues
SCR IPT
13 5
UT H
f our
u ity
Ġpres erve
T ok
Ġwh ilst
Ġs av
t l
C LASS
j d
ce il
iterr anean
Ġtr uck
ĠZ one
Ġ> >>
in os
Ġs ink
ens ively
Ðµ ÑĢ
Ġre ly
Ġover flow
ĠMit chell
ĠA pr
al ias
Ġaf ternoon
qu er
ĠJos Ã©
ĠS audi
' _{
ĠP resent
Te am
Des pite
Ġmem orial
Ġs lope
ĠEv ans
ĠLeb an
t own
pt o
N or
ĠAl gorithm
Ġaff airs
end ers
ĠT ob
Ġw ider
Ġspe aker
ĠI ce
ur se
Ġdef ence
Ġalcoh ol
Ġw et
ĠM ack
Ġreg ulations
Ġrul ing
c ost
ul o
ĠM ak
Ġexpl oration
ĠN ad
V AR
Ġs a
K it
onom ous
Ġcl im
sc ar
Ġsc r
Ġag es
Ġcoast al
ou b
Ġorb ital
] +
Ġnav bar
Test Case
Ġpremier ed
ĠI mp
Ġquadr atic
= $
raz y
ult an
Ġpl asma
Ġconsequ ences
Ġnarr ative
ro b
Ñ ĸ
Ġr ivers
im ension
v ars
Ġacc ret
w right
B usiness
Set ting
Ġd ictionary
ap ing
Ġb ases
Ġsurv ive
ĠWar ren
R andom
ĠAss istant
ne e
ĠConfig uration
Ġf antasy
M a
down arrow
Stand ard
Ġtext s
ur u
Ġsup ers
ĠR ud
Res olver
Ġconven ient
h alf
u art
iv an
h fill
uk a
ush ing
A SE
U pload
Enc oded
gener ate
ĠP DF
M ass
Ġnorth west
writ ing
t ok
Ġn eck
Ġpost erior
Ġ{ },
Ġman aging
S u
Con sole
reduc ible
h aus
dep recated
for Each
S ql
Ġ$ _
grad ed
R a
Ġch rom
or ry
Ġaddress ed
d ensity
ĠZ e
Ġelect rons
ick en
Ġmount ains
Ġ' ',
grad uate
Ġappoint ment
Ġ$ ^{
S ort
Ġd elta
ĠU E
Ġdise ases
ĠSe lect
Ġ" %
ĠAd vis
Nav igation
Ġremov al
ar us
ĠP S
apt ist
ĠJ son
Ġabs olutely
Ġcrick eters
Ġy es
ĠW ord
Ġremov ing
Ġw ounded
head ing
m f
Ġc ous
Ġm ac
on ian
Ġm or
um ed
Ġpro f
Ġinform ed
ĠBangl adesh
Ġ elli
ĠP ictures
Ġj unction
ĠNaz i
IN ST
Pol itical
Ġp ulse
Ġvac c
å ¤
g ments
le arning
Cont ents
ĠAl ban
Ġelim inated
Ġw edding
ĠB enn
Ġs ync
ĠI an
int o
ĠBroad way
Ġhealth y
AC H
iv o
Ġant icip
Ġdens ities
Ġmat ched
/ ">
ĠSt orm
An notation
g h
Ġarg ue
p aren
M W
Render er
Ġrest ore
< <
Ġkind s
ĠDr ive
Ġimprov ing
s heet
ĠW ing
Ġf ishing
ĠCh art
Named Cell
B its
T or
Ġup coming
$- $
ĠCons ervative
ling ton
int s
ue z
ĠK an
Ġimpr ison
F n
Ġin ference
tim estamp
Ġs weet
ĠCh ron
c ription
Ġs ocket
com par
Ġac oustic
ke ley
Ġspirit ual
ic ates
Ġel der
ce iver
Ġman ual
Ġequ ally
188 5
f iction
ĠB Y
ĠG un
new line
apt ers
Ġtim estamp
Ġelse where
g un
Ġill ness
is o
ĠÃ ł
ribut ion
Ã ½
String Builder
Ġdestr uction
ĠP ant
up arrow
Z one
int ell
ĠJohn ny
ĠDef ence
Europe an
Ġs ke
In f
Ġorder ing
it ime
Enc oding
Ġg ro
re nd
âĢĻ .
D istribution
Ġform ul
Re act
Depend ency
Ġs ad
j ax
G old
. $$
ĠR ico
Ġdiff usion
ĠAdd ress
ĠE V
Ġcl ar
Cont in
W ho
Ġrec ruit
can vas
k ar
Ġcert ificate
ĠN am
L and
Ġhabit at
ĠO C
ot ions
Ġsol ved
ent o
uc lear
at ibility
en o
P ub
Seg ment
p read
ĠDef inition
ĠF ly
ĠF ine
F OR
Ġmer ger
) *
ĠCh apter
Ġr anging
Task s
\| _
Ġ" .
enc ode
ĠCarib bean
qu et
ox y
OP T
w arn
ex ecut
ĠB ond
Ġl oyal
m ix
m iral
op les
Ġcomp iler
G rad
resp ons
t an
Ġrec urs
Ġfund ed
ĠSpe ed
Ġperturb ation
) (\
188 8
Ġsp oken
Ġout standing
Ġthreat ened
Ġleg s
j or
p id
s hell
ĠWay ne
ater al
189 1
ĠB aker
ĠG ot
Ġind uction
Ġpro hib
h ir
Ġflow ers
> "
ĠTh or
ĠCl in
b ishop
bold math
Ġsympt oms
Arg uments
ig s
Ġsuccess or
decl are
in cre
Ġpark ing
idel ines
in x
Ġsil ent
om on
au er
Group s
18 65
Ġcompos ers
Filter Database
=\ {
ĠOtt oman
Ġs oph
ĠFin ance
Ġdispl ays
ĠĠĠĠĠĠĠĠ ĠĠĊ
cont ents
24 0
on na
ĠC F
if le
upl icate
5 12
ĠP il
Ġvess el
intell ij
act ual
Ġg olf
f am
ik o
iff s
clus ively
SET TING
F ac
ĠS eg
Ġcomp iled
char acter
Ġ Ñģ
ĠColon el
Ġen forcement
ĠHun ter
Ġorth ogonal
mid rule
Ġdist urb
Ġp ushed
ught ers
Ġbi ological
Ġm igration
Ġd ated
qu is
âĢĻ ,
Ġrel oc
Ġphot ography
t v
C ursor
Ġshe l
Ġt ort
PH P
R ound
ish ments
Ġst ick
ĠC ultural
Ï ģ
Ġb ag
Ġas semb
Ġre pository
Ġbl ind
im p
ir th
ĠK u
as ant
i ors
a que
.* ;
ow ell
direct ory
ĠÂ ·
Ġcritic ized
Ġart ifact
Ġinitial ize
Ġde leted
Ġstead y
R ules
ol ia
ĠF ro
ĠM icro
ch at
N a
ĠB ud
le w
S ame
Ġtri ple
rom agnetic
Ġc able
C V
Ġvess els
Ġpass age
ĠA y
Ġt y
rem ote
Man agement
ĠWith out
Ġincor rect
av an
fr ag
Ġcir cles
Ġlaw yers
Å Ħ
ĠG raph
n ative
Ã ¦
Ġphenomen on
Ġ' .
valid ation
rt l
ĠBy te
add le
is y
im its
Ġal pha
Ġiniti ative
Log in
ast ery
Ġc arrier
F ebruary
Ġmorph ism
ĠJ azz
ĠJ ess
ĠSal v
}. }
iss a
ĠM ol
è ¯
Ġcommit ment
Ġcheck s
| $
ĠClass ic
pan ic
Ac cept
. ),
ĠGe V
Ġnewsp apers
I Z
em b
scal a
All oc
um ped
14 4
ina e
Ġwel come
ĠD ays
Ġch amber
Ġgu ilty
ĠChar lotte
Ġfe as
b ie
c ourse
ĠM oz
ĠPr ice
p ages
ĠĠĠĠ ĠĊ
È Ļ
Ġforest s
AT CH
Ġr anks
Ġamong st
C ref
ĠBir mingham
Ġconsum ers
ĠT ournament
ĠP red
Ġpro ud
ge o
ĠUn iverse
Ġqual ifying
str ings
ĠBuild er
ĠDat abase
ĠT alk
T ur
Ã¨ re
ides pread
Ġtraject ory
ĠR u
ĠO P
Ġde e
Ġf er
Ġlong est
ĠCarl os
HER E
Ġ< -
Ù Ī
ĠMethod s
ap y
et on
Ġhand led
ĠA ld
em ed
Ġprocess ed
Ġcred its
ĠOr ange
E ven
g ent
g ray
U CT
Ġven ue
; |
× ķ
ĠC her
b inding
AT OR
ch anges
sh are
ĠPro file
r ame
B eh
æ ķ
ĠAthlet ic
ĠA the
ĠMin or
ĠCon text
Ġprote ins
W atch
Ġhor izon
c op
ĠPr imary
ĠRo om
âĶ Ģ
sd k
left arrow
Ġarrang ement
M aterial
Ġgener a
ĠPr adesh
$ ^
ĠMunic ipality
Ġswim ming
Tim er
ak u
B N
RA Y
ĠC OL
Ġ' %
F i
ph rase
Ġviol ent
Ġrequ iring
ĠS ex
] ))
vert ex
Ġsynt hetic
ĠB asketball
inn ed
abl ing
Ġgrad ually
t ip
Ġ ,\
get Id
Ġent reprene
10 24
h arm
ĠB lood
ĠJer usalem
188 7
ĠRes ult
Ġ_ .
Ð ¹
ro v
ĠGlas gow
Rec ip
at om
uff ers
Ġa st
ĠT ol
ä ½
Ġthere by
Ġaut hent
ĠV ancouver
Ġlocal ized
g if
ĠU V
Ġrad ical
ort ex
o j
Ġres ort
{ (\
str ument
Ġref lection
Ġemer ged
uc es
duc ational
Ġlabel ed
=\ "
ang les
Ġ" '
Ġh orses
Ġcomp ound
us c
Ġencour aged
Ġdeploy ed
ĠM achine
build ing
Ġun expected
A K
ĠR O
comm unic
r ules
let t
as is
Ġthought s
Ġinv olve
Ġdecl ined
Ġcontrovers ial
Ġcho osing
Ġaware ness
uc c
Ġg allery
e enth
Ġsh orter
ĠAl tern
hedul er
be at
P ut
Ï ĥ
Array List
B D
f ake
Ġsurv ival
Th omas
ĠN ar
Ġfarm ers
P an
T ri
........ ........
Ġcomm ut
rib le
J ew
ĠTh read
Ġempir ical
om ing
Ġt d
ĠS occer
em or
Ġmill ions
Ġsk ill
el ian
m obile
Ġcan vas
Ġaver aged
ast ro
h istory
] ^
Ġap artment
Ax is
Ġl ots
Or iginal
D iff
ath on
ey er
ĠSte el
Ġass ass
c z
B H
Ġsim plicity
ond a
ĠD id
Ġturb ul
ĠC arm
\ /
P N
Ġfinal s
Ġda ughters
cel ona
Ġrespond ed
ĠNev ada
Ġp or
Ob server
Ġadvent ure
ĠP ast
ĠF alls
ĠPro tection
refer red
t ouch
re str
us k
ĠN um
Ġtro uble
× Ļ
ĉĉĉĉ ĉĉĉĉĉĉ
Ġinteg ers
ĠC T
11 3
Ġcancell ed
ĠGab ri
Aut hentication
~ (\
Ġst ake
Miss ing
ĠComm ons
Ġmathemat ical
Ġg rap
Ġprov incial
f etch
ĠCat hedral
Ġtr unc
Ġc um
Ġdem ands
Ġtext ure
19 2
ache l
epend ence
av ers
ĠDe lete
Ġref lected
Ġsup plies
ĠUr ban
ĠNorm an
ĠHind u
b rew
sc ore
Ġn urs
Met rics
ĠSh a
ĠCr ime
os opher
Ġoccasion ally
)-- (
ag ma
ĠT her
Ã© r
eb ox
t b
Ġpaint ers
Ġm oral
ĠR acing
ĠInt eg
Ġshop ping
ĠF reedom
G l
m usic
ben ch
Ġinn ings
p kg
ĠPol y
c ity
B oth
ĠĠĠĠĠĠĠĠĠĠĠĠĠĠĠĠĠĠĠĠĠĠĠĠĠĠĠĠĠĠĠĠ ĠĠĠĠĠĠĠĠĠĠĠĠĠĠĠ
hol m
Constr aint
ĠMan hattan
we ak
st ad
Ġout comes
erm ont
Ġput s
Ġr um
Ġcontinu um
Ġcool ing
ĠPark er
Name Link
rem arks
Add r
Ġang les
un ion
W IN
Ġfra ud
ĠI van
ĠColl ins
# {
ham mad
S ever
ĠInd ians
cont act
St ub
Ġmiss ions
Ġstream s
Ġrem ind
Ġbr ick
Ġch unk
del ay
Ġart ificial
FI ELD
ĠMag ic
Ġcomb ine
ĠL ad
Ġdiagram s
Ġap ps
glyph icon
ig ator
ĠN icol
) &
B F
ac ef
Ch ain
eth yl
ĠP od
c x
bin om
ĠP O
Ġre semb
Ġ\ [
Ġinflu ential
Ġpl ots
Ġdebut ed
Ġrat ios
Ġanalyt ic
ĠS elf
Ġbr ig
Ġdisp ersion
ĠObl ast
s afe
Ġreported ly
ĠProfess ional
B ounds
B er
Ġt ub
ri z
umb ent
$\ \
Ġjuris d
ex cept
Ġ\ |\
ĠAnd re
Ġexist ed
ĠS pect
CRE ATE
ĠF low
Ġdeploy ment
ĠCor ollary
ĠM ans
S il
Ġf inger
ĠEnvironment al
inc inn
Ġactiv ists
ĠPar ish
ĠD OM
ĠG ra
Ġp ending
Ġd ot
ĠEx per
Ġbr ands
ent e
Ġsub mar
Ġinvest ors
D er
h op
Sp anish
Ġpolynomial s
Str ucture
Ġmedi eval
Ġpro to
Ġtr ick
ard ed
Ġch a
ĠK i
Ġreg iment
Ġl ibraries
$\ ,
Ġc oc
ĠL yn
writ ers
$ '
ĠR ank
Down load
ĠBen jamin
k ernel
Ġ" [
og s
book s
Ġemploy ee
Ġclose st
ĠBar bara
uck er
Ġcent ered
Ġreal istic
ac re
In ner
Ġvari ants
ĠStud ent
ro oms
ĠJ oy
FF ER
Ġf ol
ebr aska
Row s
ĠS ax
Ġsuggest ing
ĠF err
Ġiter ations
Ġpack ages
iem ann
fer red
UN T
ĠAlex and
ious ly
ĠM ix
Ġd il
ĠL ud
ĠOper ations
Err ors
ot ton
Ġcal endar
ID E
ĠPho enix
Ġul tr
second ary
ĠV a
ut o
Ġhe ll
dat aset
ow ed
aval ry
ier ra
ar l
ĠM yst
ĠE ug
Ġcount ies
Ġcred ited
re z
Rel ated
Ġnom ination
18 50
Ġinstrument al
Ġimpress ive
Ġto x
Ġdes ert
Ġint ellectual
AC CE
ĠS outheast
O k
ĠFor um
Ġcorrespond ence
Ã¶ r
pat cher
ĠIran ian
Ġtyped ef
Sh ared
Ġmag azines
el o
Ġsc an
ĠTr avel
ĠN BC
ĠAct ive
per ature
Ġb one
Ġprotest s
lect ric
Ġabund ance
to Be
ik es
m akers
Ġsouth west
Line ar
Ġbur st
Ver ify
incinn ati
Ġdo ors
ĠMar vel
ĉ ĠĠ
Ġh ist
R ot
Ġg all
Ġdis ag
C ounter
w hat
Ġloc ality
on ed
ack ed
Ġgener ates
ĠC C
Ġt issue
Ġqu ad
Ð° ÑĤ
Ġf ro
Ġnav al
Ġrecogn ize
G T
Ġw orship
ĠTurn er
re po
. -
ĠM aterial
ĠG ate
Pres ident
B order
bour g
Ġpubl ish
ĠMuslim s
Ġhydro gen
188 6
Ġtok ens
con tain
spect or
ro uter
} /\
e or
ĠR oll
Dep th
a ac
Ġhol iday
ĠC raig
4 50
ĠS ay
Ġtri angle
ĠS V
Ġsp okes
col lect
Ġke eps
p rior
he ro
ĠW a
c fg
N umer
Ġcontrovers y
en ers
ed ed
Ġan ten
;| &
Ġcon gress
Ġsub str
ĠTig ers
I ll
Ch art
Ġserious ly
ĠQu ery
Ġencour age
Ġmarg inal
C amp
ul ative
Ġpand emic
Ġcas ual
Ġd war
g z
ĠMat hemat
em it
sur face
B ool
ic ode
ar ial
ĠB urg
ĠW IDTH
Bl ue
Ġearth qu
ĠT i
ĠP romise
Ġrare ly
cur rency
Ġexpand ing
v p
Ġover view
il ine
D irection
Ġtarget ed
Ġelect oral
> ()
Ġmolec ules
Ġde als
Ġd ub
oc ent
view port
" },
ĠK E
arri ors
Ġliber al
l b
Ġstar red
Ġking dom
Ġtrans verse
ĠF itz
ĠF isher
Ġb oss
Ä Ł
ist ically
ĠCr icket
Ġdepart ure
ev ing
d m
sh arp
Ġgot o
AS K
ĠI C
Ġp ip
ĠPier re
Ġw idespread
Ġproject ed
Ø ¯
mult line
ĠH unt
Ġpar ad
pend ing
ol en
f actor
ĠS now
Ġcl one
Ġimp ly
Ġuns uccess
Ġfun ctor
Ġan cest
: '
Ġdeleg ate
Ġst roke
equ ate
ĠChrist ians
Ġestim ator
T yp
"> (
ĠWhe ther
Ġsp arse
ĠCom par
}{ }
et o
Ġre ven
= %
c assandra
ĠCre ates
Ġmer ely
tr aining
b etween
Ġb io
re pository
Ġcor relations
Ġinf lation
li bs
ĠElement ary
le in
S elf
ĠAthlet ics
Ġwood en
Ġrel ating
ĠFI FA
ĠDr agon
Ġfin ance
Ġanaly zed
Ġinter ference
> '
ĠBelg ian
f olk
Ġclaim ing
ĠInt elligence
ĠSaf ety
C md
ugg ing
ĠK ap
Ġg od
Do ctrine
cl ide
ĠF light
ai ro
ĠO il
prov ed
Ge V
AT TR
Ġph arm
ster dam
F ixed
Ġclass Name
17 0
Ġst ops
Ġprot otype
ĠYork shire
trans l
ad oc
bor ne
po inter
Con tains
column s
ph oton
Ġinterview s
ip art
Ġattract ed
S plit
Ġo xygen
Ġorgan ic
\ },
or f
Ġperm itted
Ġ æ
div ision
5 000
em a
ex amples
M ean
ĠG round
ĠM ason
Ġdis able
ĠBas ic
LI ST
Ġorgan isations
un ed
ĠSt re
ĠSong s
ĠFe ature
ro d
ri ber
Ġobvious ly
}) ^{
ĠCon struction
sol id
ag ar
ĠB rew
ch arg
og ical
Ġfocus ing
ĠRich mond
Ġbeg un
Ġb es
H older
Ġsac r
Ġf older
s ym
H y
ĠCommission er
B IT
188 4
ĠI gn
RES ULT
ĠÐ ½
Ġt ill
F eed
IC ATION
Ġexam ine
ĠAnn ual
Ġview ers
18 64
i ology
mut able
Ġrestaur ants
Ġreal ize
Ġaccord ance
Ġind igenous
ĠE li
Ġ' @
Ġpay ing
Ġcol leges
ĠH ave
ĠOut put
T own
Ġdev oted
Tim estamp
Us ers
gener ator
Ġbusiness man
V O
C ross
L ou
ĠDer by
ĠM I
Ġb oot
Ġreson ance
ĠB reak
Ġliter al
alt Color
Ġvis its
H en
d jango
Ġunder ground
Ġbl ank
Ġa ria
ĠF L
in variant
Run ner
&= &\
com put
Ġmount ed
ul ates
ĠD raw
ĠMil an
Ġb arrier
Ġcoff ee
istribut ed
ĠL uis
( ()
Ġ ----------------------------------------------------------------
18 61
Ġrep ly
Ġrecip ient
l icenses
ĠTh anks
Ġcoupl es
ĠFinn ish
ĠFl ore
Ġev ident
ester day
ĠAlber ta
Ġd rew
DE X
ĠHarr ison
ĠY ank
188 1
UMM ARY
tim eline
Ġm esh
OR K
And roid
ĠU g
Ġconf ident
ac les
Ġl ights
Ġviol in
27 0
b lob
ĠC ell
Ġent hus
Le ague
Ġstream ing
STAT US
ĠA zerbai
Ġf oss
ĠS even
ĠC ert
b inary
Ġde ck
SO UR
ĠV I
ov iÄĩ
ĠV iol
ĠMean while
is an
12 1
Ġpred omin
Ġex ha
Dep recated
ĠUnivers al
com pute
ĠFle et
Ġex clusively
G IN
ir k
LE MENT
Ġexcit ing
rit ic
Ġh ate
M ust
ĠSt ein
Ġfil med
ĠOl iver
Ġdecre asing
An n
Ġco oper
Ġobtain ing
Ġguitar ist
Ġconsist ency
ĠL uther
Ġproport ion
12 4
l m
ann ah
ĠBe ijing
Ġab road
Ġ rib
}$ \
Ġl ap
ĠL evel
ar th
Ġpropag ation
j k
or ia
ĠH ost
ĠAl bum
ĠNov a
Ġg ard
um ing
ĠM IT
P acket
U V
ĠP ra
N P
ĠStud ents
P rom
ĠK os
ĠG reater
cel and
Sec ret
ĠPh D
Ġme at
Ġdialog ue
top ic
ĠOther wise
ĠG as
Ġrele g
Ġcut ting
Ġf ictional
Ġch ap
Ġdefe ating
NO DE
ĠS ad
Ġmod ification
Ġagric ulture
Ġpart ly
Ġir reducible
ĠCar lo
Group Name
M ix
str y
Ġaltern ate
Ġshift ed
al is
" </
inem at
,... ,
] =
3 000
ĠLag rangian
ĠPro test
class Name
bel ow
Ã Ł
iv ities
Ġing red
Ġext ending
Ġpo ems
( ['
ĠJ ama
repe at
ĠS id
ov ich
**** **
Se ason
ĠGi ants
Ġdeterm ines
Ġt ens
ĠJ a
K ing
P romise
V C
em ies
th rift
pl acement
Ġ\ {\
W he
e u
Ġqu as
Ġstation ary
Ġg ray
V irtual
o il
Ġlog ical
c n
ĠCamp aign
188 2
st rip
ant ed
TR AN
f ac
ĠC old
Us es
Ġsold ier
Ġsub space
ĠR ing
ass y
amp a
ĠC OM
Ġphotograph s
Ġvolt age
ĠMult i
ĠEgypt ian
enn ial
Ġintro ducing
Ġs ick
med ium
Ġconv icted
As sembly
Ġbatt les
aj a
pro pto
Ġansw ers
Ġcl othing
Ġhead ing
code c
Ġsequ el
Ġdelay ed
F W
Ġp ian
Decl aration
Ġpriv ile
ĠP ic
Ġf abric
ĠDe cl
Ġaccret ion
Ġprocess or
ter ed
Ġprov iders
ĠCub a
\ }.
Ġwat ched
Ġsl ice
Ġcy cles
ĠNAS A
ĠL ost
ix on
ĠTro phy
ĠClass es
Ġterrit ories
Ġspe akers
Ġcomb ining
Ġor ange
ĠVictor ian
Ġnot ing
vert ed
clide an
ĠĠĠĠĠĠĠĠĠĠĠĠĠĠĠĠĠĠĠĠĠĠĠĠĠĠĠĠĠĠĠĠ ĠĠ
grad le
Ġthir ty
u ates
V I
ĠSer ge
Ġas set
d anger
Pro position
u uid
ĠC L
Ġpeak s
Ġmir ror
Ġann ually
F rames
ou p
Ġgen es
ĠGr an
Ġneut rino
Ġc inema
Ġph rase
Ġcl imb
ĠCo q
Ġaggreg ate
Z ero
Ġl os
Ġam pl
ĠC BS
b ird
ub ern
. âĢĻ
Perm ission
BU IL
res pect
Res et
Ġsurv iv
Sep ar
Ġ{ $\
uss ia
Ġg host
ĠAnt i
L icense
st eps
ne ut
ĠB log
Ġra ising
aa aa
V A
ĠP aper
Ġv ic
ĠArt ist
qu ality
S n
ĠDo es
Ġsh ots
create Element
Ġcook ies
ĠSt op
am ar
ĠMed iterranean
Ġstr ange
Be en
p iece
le ading
Ġdis cret
Ġt ough
D ATE
Ġcontract s
P eter
Ġbre ath
un iform
Ġexpect ations
ail ing
LA Y
Ġinsp iration
18 00
et ta
ĠS r
\| ^
18 63
ĠPhys ics
h n
Ġinter vention
Ġtrans it
Ġmark er
b ian
St age
ĠY ugosl
^+ $
RE SS
Ġbox es
Ġe ighth
ĠLead er
Ġmon ument
Ġc ached
ĠC ancer
Ġplace holder
An alysis
Ġf irms
ĠM ach
ĠR ule
Ġmonth ly
Ġrel ay
Ġw er
Ġfor cing
ĠSing le
ĠRober ts
Ġinf ection
Column s
ic it
Ġeng agement
r ating
Ġcheck ing
trans port
ĠBe aut
for ced
ĠB ird
te chn
ĠJer ry
}^{ +
Ġchar ity
Ġcontribut ing
r ations
Ġpred ecess
al ymp
ĠT u
ĠL ess
is i
il ia
Ġsp herical
Ġins ight
ĠB omb
T oday
ĠKir k
I l
ĠC row
Ġpar a
phys ical
}} ,\
ĠPref ecture
Ġperm it
ĠCirc uit
Ġdog s
us p
Option al
ĠCh air
ĠSh ang
Co in
Un ivers
Ġbre ast
uch y
Ġl ad
Ġt ies
Ġc amer
ag i
T ouch
UE ST
ĠS end
Ġop ponent
Ġm ic
ĠRob in
Ġcarri es
Ġsub mit
Ġsh apes
CO MM
process ing
Ġimm igration
ĠEqu ation
Ġbench mark
Ġfl av
ĠCost a
link s
TR Y
chi at
Ġhon our
ĠT it
L at
Ġ _{\
B us
ĠN ear
id ity
ar ms
ĠIn ternal
Ġnot iced
ĠE ff
Ġup grade
b olic
sl ide
greg ation
CON FIG
big cup
18 78
Ġcomb inations
Pr ice
Ġneut ron
ĠUn like
A X
Ġt one
sol r
Ġcomp ression
iv ic
ĠColomb ia
_ )
om eter
Ġ{ %
Ġre cre
Ġany where
Ġsh ore
esc ope
Ġposs ession
t m
ĠPer u
ast rop
ĠST ART
ĠSerb ia
v ance
Ġoverl ap
\ }_{
Ġmeas uring
am ount
Ġfr ust
Ġp in
ĠB arr
st ation
Ġdis aster
ah l
ĠI ter
> %
n od
ĠY u
ĠJ ob
Ġemer ging
R ay
Ġcond ens
Ġperfect ly
Ġminor ity
Ġsudden ly
Ġrot ate
ab ove
Ġinnov ation
ion ed
ĠSt even
ĠGu inea
ĠW arner
th an
Ġreg ulation
LE TE
R UN
ĠVin cent
Ġestabl ishing
H ave
ĠCol umn
Ġ ~\
Ġop ponents
Ġeng age
Ġs ends
}[ !
ash a
om i
ĠR angers
Ex pected
Ġph on
C ancel
w allet
Ġob server
Ġel igible
Ġwind s
or se
ĠF am
it ual
Ġlog o
G F
Ġspl itting
Qu ant
18 62
} ",
p ref
Ġneighb ors
c ord
ãĢ Ĥ
l ater
Ġhel ic
all ing
ĠMem ory
Ġen zym
Ġt iny
Ġexpl ored
Ġdeterm ining
cal cul
T i
}{ *}{
ĠChe l
che str
Ġcap ability
Ġdevelop ments
ĠPl anning
run ner
Further more
ain er
Ġt ube
ĠSpr ings
Ġf etch
ĠB ass
ĠBr istol
C art
Ġattempt ing
Ġcon scious
M achine
ĠP U
00 5
hy per
ĠShe l
m ade
(" %
Ġw av
ĠM ong
Ġch ains
me asure
ocr atic
ent ine
ĠBuff alo
Ġident ifying
Rich ard
* ,
L aw
Ch o
att ed
Ġinc idents
Ġcom ics
stack rel
Ġm ilk
ĠWrest ling
ĠR T
ĠU RI
ĠS UMMARY
ill iant
d al
L M
c ancel
Ġmanufact urer
Own er
ĠBer keley
ĠG rey
text normal
Ġth orough
Ġb orders
ĠL ion
ĠY et
Ġsent enced
ia o
= &
b ug
link ed
amp ed
Ġdevelop er
Ġleg it
ĠQ ual
ĠB egin
Al umni
ĠC PU
Ex ists
l it
á º
ĠG arc
RE CT
Av ailable
ĠD oc
ĠNich olas
D ynamic
ĠY am
ĠPer ry
ĠS yn
ĠN an
ID S
ĠTechn ical
ĠWith in
c red
Ñ ħ
ĠB ot
Ġdram atic
T AG
r and
Ġ| =
ĠB achelor
Ġst y
Ġsurv iving
Ġmaintain ing
Ġpo ets
ist ani
Ġatt ending
M ad
u ise
Ġf usion
Execut or
Com b
ĠBar celona
et es
A ST
ĠLiter ature
ĠNever theless
I ss
ĠThe ory
ĠFri ends
Ġco operation
Ġfl ights
Ġscient ist
Ġcor ruption
Vis ual
Ġpurs ue
ew ay
X Y
bound ed
ĠHand le
Ġar ise
is b
Ġparticip ating
Ġbus y
3 20
ĠF un
Ġcomment ed
f act
Ġapprox im
ĠAnt ar
Ġpeak ed
ĠSt ories
BL IC
Ġsub stitute
Ġrest oration
ind ependent
EN V
Error f
ĠE ston
Pr imary
Ġadm its
Ġob lig
ĠSer ial
over e
ho le
sub equations
Ġeffect iveness
ĠCo al
l ag
uff icient
ĠU C
row th
h is
Ġsl ave
Sc hedule
Ġthe at
w x
ĠTh ings
188 3
Govern ment
ĠWeek ly
W ar
op edia
re ction
Ġgr an
ĠF u
Ġannounce ment
Ġw ings
ĠT oy
Ġneg lig
Ġd y
Ġknow ing
Ġm ath
ĠL ithuan
i u
con current
Ġconver ges
ĠF erm
0 10
Ġlog arith
Ġm igr
Con verter
Ġhelp ful
ĠS F
S ocial
Ġact ed
Ġfunction ality
ĠC ant
Ġaccomp any
at che
Ġc ogn
M oths
ĠT erry
c ov
f ar
ĠKen ya
00 2
ĠMu hammad
run ning
mark et
Ġfeel ings
is ch
Al bums
w ang
w iki
Ġunit ary
ĠK ur
Ġsp ell
Ġdoub les
ĠC ov
Ġd s
ich i
uck land
ĠN ebraska
ĠC lear
ĠĠĠĠ čĊ
Or igin
ĠD raft
ĠL uke
Int eg
annot ations
Ġcap s
ator ial
t ol
ard ing
ĠS eb
Ġsub stit
Ġarchitect ural
Ex tra
ampl ing
ĠR aw
Ġmin isters
18 76
Ġsp ots
Ġprob abilities
Ġfe es
En able
Ġb ull
Ġris ks
ĠV el
Ġhop es
Ġguid ance
k u
\ [\
app le
n ol
Ġmut ual
ĠG ay
p ars
Ġ& #
ĠArch ive
ĠEx p
Ġlength s
am pton
ĠK rist
Ġafter wards
Ġmoder ate
ĠIndust rial
HO ME
qu arter
get String
ĠIm port
{ .
ĠT un
\! \
p al
Ġparliament ary
Ġbirth day
Ġâ ĨĴ
f older
================================ ================================
Serv let
AP P
Ġal gebras
Pr im
Ġtransform ations
ĠF i
to oltip
ĠBeng al
Ġess ay
G it
st ock
Ġdeep ly
part icle
B etween
if ference
ro at
Ġindust ries
Ġ uri
pos itions
Ġpos it
Ġdec ides
ĠA GN
ra h
oc om
Ġcryst al
ov an
igh bor
H M
ack ing
Ġcur rency
F ire
ĠU pd
Ġim posed
S ide
Ġmed als
ign ore
Ġcaref ully
40 4
Sup ported
ĠW i
log ging
ĠDr ag
Ġg raphics
Ġh ub
ĠT on
B ob
un lock
D ue
Ġvar ies
Ġdifficult ies
ĠS ony
Ġcons ent
ĠM asters
ĠRepublic ans
l int
& &\
o ft
ac a
r h
Ġw x
Ġim g
ĠFac ulty
get Instance
map s
u on
R oyal
IL ITY
r pc
Ġant ib
ĠO cc
C at
Ġtw in
ĠMay be
GL enum
ĠF ab
ĠCom ponent
}^ +
Ġun likely
/* !
Ġcab inet
Ġv m
Mon th
as ia
el ing
ot hes
em e
os hi
Ġalloc ated
ĠGon z
Ġg athered
W arn
B ER
Di agnostics
Ġde pression
Fr ank
Ġplan ets
L IN
Ġ( +
flu id
Ġcons ensus
bre v
Ġcon e
Ġsub scription
ĠV lad
ĠS aints
Ġev olved
ĠAir lines
ĠOver all
18 75
AR G
Ġenc ode
Ġwire less
f av
Ġcub ic
ĠH ur
ĠSh adow
ĠCh and
B ooks
US A
ĠB ody
Ġp arks
ĠT ogether
Dem ographics
F our
ĠĠĠĠĠĠĠĠĠĠĠĠĠĠĠĠĠĠĠĠĠĠĠĠĠĠĠĠĠĠĠĠ ĠĠĠĠ
ams ung
Ġmunicipal ities
Ġtax es
Ġ( .
Ġc ul
ĠL ions
ĠT ib
Ġcoun sel
with out
Ġre actions
L iteral
pro duced
j ackson
ĠSh op
Lo op
__ _
ĠE C
Ġcelebr ate
Ġkin etic
Ð¾Ð »
Ġl ingu
ĉĉĉĉ Ċ
ĠDen ver
Ġadmin ister
ĠForm ula
M el
small skip
ĠMA X
Ġcov ariance
ack er
Ġor chestra
ĠBor ough
oc o
Ġob st
15 00
ĠArab ia
Ġlab our
g iven
Ġt orn
Output Stream
ĠPol itics
Ġcampaign s
ĠL ux
A mer
ĠArch ives
ela ide
on line
Ġf ighter
um i
Ġdu o
sp aces
L ead
Ġpl enty
Ġpar agraph
d ing
Ġan ime
om ed
Char les
ĠLabor atory
cl s
Ġpay ments
f lix
BP ACK
iz a
ar as
ĠL ot
op al
Ġimm igrants
Ġt ends
Ġcond em
Ġtrend s
label s
Ġrock s
p ad
ĠB ath
Person nel
U r
ĠT arget
te le
ens en
Ġprofession als
ic ul
Ġdon ated
F ALSE
ĠU til
M ot
Sh ader
ant astic
Ġam ateur
RA ME
ĠCh o
Ġav ailability
V ec
ovak ia
Ġbe er
get Type
Ġt ension
Part ition
Ġrender ed
Ġl ying
ĠP el
ĠB right
re ason
à¤ ¾
ĠL loyd
Ġ' "
sup erv
J ul
n l
ĠP L
ĠHor se
ĠCl are
( /
ok u
ĠSt evens
ĠMer c
mem bers
}) =\
Ġdepend ency
ĠVAL IGN
> ;
Ġint ense
Ġhistor ians
ss l
pr agma
55 5
Ġr hythm
BA SE
out ube
Ġalloc ation
2 10
enc oding
ĠGr ace
Ġ$ -$
Ġex pedition
ĠEx pression
d ie
p f
Ġdecl aration
Ġl ux
12 6
Ġcross ed
Ġcoal ition
al am
t ot
ep age
2 30
h ou
Ġelev ation
ar ound
ing e
Ġtim ing
Ġcous in
Ġbo ats
M ont
opt im
_{ +
Ġchampionship s
ot er
olog ically
Ġ` ``
eff icient
ĠN othing
d ual
end um
Ġbon us
Ġoccas ions
ĠL arry
ĠFri end
script ions
ĠLin ux
Ġnomin ations
ess ed
Ġviol ation
m other
ĠCom ment
Ġinflu ences
aut ore
ĠEv ents
ett i
un known
fore ach
intend o
Ġportray ed
ĠA x
Ġl ic
ari ate
he rence
ĠIt em
ĉĉ ĠĠĠ
Ġ-- ></
im o
B uf
è ¿
Ġconsist ently
Y S
18 79
Ġge odes
ond s
Ġretri eve
Ġprem iere
Ġiniti ated
T M
14 5
m apping
ad ic
Ch inese
b ank
Stat istics
Ġwonder ful
ĠB og
TI ES
Ġ\ }
pl ain
ĠSm art
Ġins pect
) }$.
Con tract
Ġprom oting
Ġem issions
Ġj u
ob e
ri en
Ġperson ally
ĠF ast
ĠRead ing
Ġexcept ions
ĠHil bert
Ġpro position
Ġinnov ative
Ġpat ent
Ġla ugh
Ġprom ising
Ġcriter ion
Ġclust ering
ĠV as
ĠSh aw
Ġb anned
ast ed
ta wa
Ġdef ending
Ġs le
ir ts
b undle
Ġsub section
C ritical
S te
Ġext ensively
ig ion
Per iod
Re ason
ĠConf eder
Ġg ross
Â ©
dr iven
cite alt
che ster
Ġgeneral ization
Ã Ĺ
Ġa apt
Ġrefer ring
Ext ensions
ĠT otal
ĠMur phy
Ġtown ship
Ġb ucket
âĶĢ âĶĢ
Ġind irect
Ġt ickets
Ġcomm une
ĠMont ana
in ject
th y
inter val
Ġphot ons
det erm
ar an
oid al
res olution
ĠS z
ĠS ymphony
OL D
Ġg ent
def er
W alk
m el
ij i
v endor
re view
ĠArab ic
ĠG lob
pi res
Ġlast ed
Br idge
Ġus ername
Ġcolle agues
Ġj ury
Ġhapp ening
Ġserv ers
Ġlat ent
Ġg ear
Ġcomput ers
Ġf ur
Ġmon arch
Ġcomplet ing
Ġele ven
Ġc b
ĠU SS
Ġpower ed
se gment
ĠD iamond
Ġprov es
F B
akes pe
ĠH em
th ird
am o
lim ited
æ ĺ
Ġto m
Ġdis pute
Ġdeterm ination
s ay
S K
comp ass
Ġ- =
omorph isms
Ġbr idges
Ġsl a
ĠGh ana
ĠM ut
f air
ip per
ĠCl ay
SS ION
Ġover come
h uman
Al t
Ġun ity
ĠAnd r
Ġreview ed
Menu Item
-------- --
Ġspec ification
Ġaut hentication
tr action
osp el
id ency
ĠKe ith
b u
Ġgener ations
Ġa z
Ġo ct
g om
Sc ore
ir s
ĠB und
Ġmon ot
ĠĠĠĠĠĠĠĠĠĠĠĠĠĠĠĠĠĠĠĠĠĠĠĠĠĠĠĠĠĠĠĠ ĠĠĠĠĠ
Ġback up
Ġw ake
ĠPl us
Ġyoung est
Ġlabor atory
Ġ' #
ĠMor oc
ur ring
Ġenc oder
pl er
Ġeigen value
Ġengine ers
O FF
fe atures
Ġrepeated ly
cp u
Ġco aching
ĠSus an
Ġtravel ed
ĠC ad
ĠEd ge
Ġimag ine
ĠCom b
Ġintr insic
Ġ' _
Ġmain stream
Run ning
Ġf s
Ġt uple
ord inary
7 50
Ġc ategor
ĠK el
Ġrout ine
w hel
18 77
ĠTr inity
ĠLeg end
ĠVenezuel a
Ġcompos ite
ĠAm sterdam
ari ans
ĠC ob
Ġstr ain
ĠO K
Ġout line
L ICENSE
Ġours elves
Ġgener ators
display Name
Ġanalyt ical
) _{\
S at
inter pret
set ting
ĠT OP
en vironment
ĠM end
Ġcons iders
Ġencounter ed
Ġmathemat ics
Ġor bits
Ġconstant ly
Te chn
Ġt ou
ĠP in
he w
ep ing
18 67
13 6
ĠK il
å Ĭ
ĠPr act
Ġcontrad iction
ith metic
ĠCr uz
Ġw arr
ĠR andom
__ )
ĠRoman ian
Ġmanufact urers
f requency
Ġcompr ises
d z
m ov
Ġh ierarchy
ĠE le
Ġr ated
ĠFil ip
Ġfl ed
ĠEconom ics
ind uced
Ġremark able
w br
ĠW alt
ancell or
RAN TIES
Ġse p
Del ay
ĠH udson
Ġv e
IM IT
re ach
Ġsc rap
Ġs ax
As set
Ġlight ing
Ġh unt
ĠN at
BU FFER
> [
ĠB aptist
ĠJ oint
tri angle
au kee
ĠA B
ars on
Con vert
Ġte ch
ĠB our
Ġphys ician
Ġsp ark
ĠCont emporary
ri er
Ġre fr
Ġgo ogle
B road
ĠV ic
Ġprim itive
SP AN
Ġtr ump
Ġphil osopher
S witch
ous el
Ġref resh
Ġmer chant
Ġc avity
Ġend emic
ĠN HL
ĠG host
cond itions
Ġmem or
val ued
Ġillust rate
T uple
Big g
M or
pr iv
ĠI da
au i
op am
å Ń
Ġart illery
R ank
ĠWAR RANTIES
ĠG alaxy
Ġf is
ant ics
def n
fl ush
ĠAd miral
TER N
ise cond
W el
Ch anges
Ġrec ru
Ġent ers
EV ENT
te enth
N orm
Ġsem antic
Ġspons ored
ĠR elease
Ġdiss ip
J ac
ĠM atch
Ġchem istry
oc hem
Ġanalys es
A mazon
ĠT ry
Ġsampl ed
Ġhe x
Ġpars ed
Prior ity
Ġfail ing
S eq
ĠMun ich
Ġvar ied
>< !--
Ġp ose
ĠC ox
ĠP le
lect ic
Ġsynt hesis
' },
Ġa uction
S ound
az el
ub a
Ġcomp ounds
deg ree
Ġacceler ation
Ġr ings
c v
cons istent
quir y
UR N
ĠM ann
Ġb ullet
est ure
ph al
CC ESS
Trans ition
F oot
G D
r ace
ĠBer g
ĠG O
Ġin coming
Ġlik ed
s per
ĠSe an
ĠU TC
L uc
Ġis omorphic
L ear
Ġsearch ing
ĠPhilipp ine
Ġ( %
Ġun stable
ah a
ĠHol land
Ġsu ite
ĠB uffer
ĠMon th
ĠSy rian
Ġâ Ĥ¬
Ġm oon
Ġas ide
Ġconfigure d
! (
Ġsur render
comp act
m g
n ob
Ġph osph
oph one
18 71
h p
Ġdrink ing
C irc
ĠEd wards
ĠK un
c amp
uct or
File Name
Ġpet ition
ĠH ob
ĠB uch
ĠF is
Ġm arch
ĠCons erv
th lete
Ġsec ured
est ing
akespe are
he x
us r
ĠT itle
L ow
Ġport rait
C ost
Ġout break
Ġliter ally
S i
Medal ists
Ġfest ivals
Ġ& $
Ġm anga
ĠPo isson
AS H
ĠTre as
et ics
ĠTerrit ory
sp ot
ĉĉ čĊ
Ign ore
og g
ĠIm ages
t bl
C amera
ĠH im
sec ution
ĠJust in
G G
< >();
Ġc ow
N ON
im en
m ms
) '
he art
ident ity
ĠPar se
ut ton
con cat
18 68
Ġ" ${
18 72
D TD
ĠCar r
ĠF if
ĠN C
ĠI celand
cl ock
18 74
ĠC atherine
Tax a
ĠM is
M IT
in verse
Ġdesc riptor
Ġcomm emor
Ġb ike
FI X
the y
me as
local host
ĠRog ers
ĠGuard ian
ant ine
L ondon
ĠK ate
ĠAdv anced
ĠC M
Ġ Ø§
Ġphys ically
ĠA str
ĠAct or
Ġexam ined
Ġm apped
Ġorgan ised
ĠC incinnati
Ġjourn als
not ify
dis k
Ġco in
Ġinv ention
æ Ī
Ġvent ure
man agement
Ġaux iliary
Ġc rop
it ud
d istribution
f ers
(" \
vious ly
S ir
Ġpure ly
ĠS alt
cc c
h all
Ġhun ting
}) )
Ġarch ive
Ġwebs ites
ent in
ĠVis ual
ĠKE Y
Ġsub sets
ĠH E
Ġgrad uating
in formation
Ġflo ating
Academ ic
ion ic
(' <
Cre ated
ig m
F ri
Ï Ģ
ĠL iga
oth ic
- ">
ativ istic
k an
ĠPro perties
ĠEn c
ĠMon ey
prod uce
Ġbe ating
ĠR ivers
Ġsub sc
T ile
G allery
ĠAr c
Ġf unny
ĠS uccess
publ ished
ĠD ig
ĠL en
Ġlik es
ĠMad ison
Ġnegot iations
BO OL
ĠH amb
ver ify
s amples
Ġleg islative
ĠH at
Ġc argo
Sm all
Ġt ons
Ġexhib its
Ġthread s
Ù ĩ
jav ax
Ġr iding
C over
Ġw ond
dat etime
ig rated
Ġany way
in ery
Ġm oth
it ol
ĠArchitect ure
ell ion
act ers
Ġpl otted
Ġel abor
Ġt ribe
Ġan notation
S un
Mod els
Ġen emies
Ġpo ison
ĠDate Time
Ġc p
p agination
O cc
Ġfavour ite
Ġguarant eed
ĠM ul
Rec ords
Ġaff ine
ĠL I
w aukee
Ġex cluded
ĠRun time
om eters
Ġ( @
Ġse eds
app ings
Ġanal yst
Afr ican
av ier
ĠEnt ity
Ġst ere
ĠAg reement
art z
includ es
Res p
refer ences
Ġh orn
Ġdo ctors
ival ent
Ġa qu
Ġch ronic
ĠW es
ent i
Ġen umer
ĠEl li
Ġnom ine
Ġco herent
Ġste ep
Ġarrang ements
ĠS ultan
Ġ' -
Ġsent ences
l r
Ġl in
Ġpro secut
A Y
ĠUs ed
15 5
ĠW ait
be ans
ĠL LC
Ġcaref ul
Upd ated
se cret
je ctions
he res
tim er
AV E
Ġens ures
Ġqual ify
ĠH IV
g p
Ġremov es
o ons
Ġs aving
ĠArg ument
ryst al
Ġwrap ped
ĠCan al
Ġcamer as
ĠMark ov
Ġdemocr acy
[ ]{
Ġs ender
stats models
G ate
Ġmyst ery
ĠChristian ity
ĠR F
t z
en os
ĠL E
) }$,
Ġd inner
^* _
Ġvol can
get Class
ĠIn valid
Ġlimit ing
ĠGl en
Ġwalk ed
ex ecution
not in
et ter
Ġexplos ion
17 5
Ġveter an
Ġhe ating
Ġbut ter
stro ke
l ies
Å Ļ
oe ing
Ġm os
Ġed iting
With out
Track er
IL L
ĠAl ong
pe ction
Ġwrest ling
Ġorig ins
WE BPACK
ev ille
T our
ĠS ox
Ġpre liminary
il o
U nd
c orn
ĠNep al
T Y
Ġdis joint
ĠK ol
get Message
Ġbas ically
Ġport s
? )
Ġhigh lights
A MP
d ashed
ĠV ent
Ġevery where
' +
Ġb orrow
ust ers
Ġthreat s
Dr ag
ĠE N
Is rael
ĠRepresent ative
Hon ours
Ġplay offs
B ill
Ġrat ings
pro blem
Ġprint f
Ġsquad ron
Ġemphas is
K O
ĠLog ger
Ġim pl
ST M
Ġnormal ization
In struction
P ad
ĠP erm
ĠAb u
ĠS oul
ĠM E
ĠHig her
N eg
d st
ĠCh i
z b
è ®
Ġcor related
ĠA aron
ĠR iemann
Ġin cl
om es
Ġesc aped
cell color
Spe ed
ĠF ont
b ecause
f und
Ġcomp anion
ĠBO OST
fr agment
ĠWrit ing
ĠA uckland
ĠA udio
18 40
Up per
M ut
ĠB aby
r ain
sw ing
un i
Ġh ang
12 9
ĠGr ade
Ñ Ĩ
rat io
IMP ORTED
Ġdel iber
Ġtrad itions
Ġim plications
Ġmuseum s
ĠP ick
Ġred irect
ph abet
ĠS cal
Ġche ap
atern al
Ġcosm ological
am ination
Ġdee per
ab olic
×ķ ×
ĠEth iop
" ];
J ose
col ogy
ĠC atalog
Ġsk i
R ock
Rep ublic
Ġun cle
Ġsole ly
S napshot
ĠLeg al
c mp
ic z
Ġnot ification
Fe atures
ĠD elta
Ġout door
und les
ĠE SP
Table Row
ĠM uch
az i
18 73
Ġsynt ax
Ġfoot age
Ġstat ue
ci pl
_{ [
ull ivan
ĠC urt
... )
Ġh urt
s ocial
ĠCom merce
â ĪĴ
Ġev ac
000 1
ĠF O
all ed
Ġadv is
Ġreflect s
st own
Ġsurpr ised
Ġattract ive
"> "
ĠB orn
Ġvolunte ers
b ing
ĠGener ated
op ing
D istance
Ġche st
Ġappro ached
P DF
P OS
ĠT ang
ĠJ en
ourn aments
chi ev
ĠEp isode
Ġlog in
| _
gu ide
B s
à ®
hem atic
Ø ª
lin ux
L ove
Reg ular
ĠK ay
ĠUE FA
Jew ish
UT C
Profess ional
ential ly
op ens
im od
18 66
ĠAd elaide
Ġaff ects
ĠWat son
cor respond
B reak
Ġtraject ories
pr ice
Ġs ugar
ref resh
Ġj ail
ĠM ig
Ġspecial ized
Ġharm onic
not ification
ĠÐ ´
Ġneighbor ing
se en
Ġall iance
' ',
Ð ±
it ations
ins ky
ĠĠĠĠĠĠĠĠĠĠĠĠĠĠĠĠĠĠĠĠĠĠĠĠĠĠĠĠĠĠĠĠ ĠĠĠĠĠĠ
ĠW onder
Ġal ien
Ã¡ s
te ch
Ġeg gs
E conom
ĠBut ler
Ap pe
Ġfast est
Flor a
\, ,
ĠPl atform
fl ux
\, {\
q a
Â »
path s
Ġgraph ic
ort on
LO AD
Dec imal
ta x
S yn
(' ./
om o
ĠE RR
Com put
c ocos
Ġmem brane
Ġagre es
ĠAv iation
m itt
ĠHe avy
Add itional
us ive
Ġt ar
Disc ography
add ed
Ġdiscrim ination
Ġpat rol
Dis k
m un
Ġcon clusions
g lob
Ġg enu
h ad
Ġc ock
Ġres ervoir
Ġper cussion
U A
ov sky
CO M
cos ystem
ĠSpec ifically
ac cur
DE D
Ġdist inction
Ġdig it
Ġhon ors
> ${
end point
ron es
le f
Ġfr act
Rec all
B ACK
Ġspr int
Ġsustain able
ass oci
Ġhospit als
ind a
f un
Ġcol ony
Ġiter ator
Ġmurder ed
ol ition
Ġcivil ian
Ġprogress ive
Ġt ribute
Ġm ild
l c
Ġsort ed
script scriptstyle
H ot
ĠH aving
h pp
ĠL abel
ann i
Mod ifier
Ġcompos itions
ĠCom plex
Ġp ill
spir acy
Ġvari eties
, ~
æķ °
Ġport folio
Id x
task s
H I
Ġtravel ing
ĠL is
ĠDemocr at
ĠR idge
M id
im edia
ĠScient ific
e lected
ĠL isa
Ġcell padding
Ġdismiss ed
] </
ĠC u
ĠAng l
Ġcontinu ously
ia z
Ġrev ised
ĠÐ ¸
process or
ĠL ex
Ġdis patch
Ġcount ing
Ġlocomot ives
P aint
Ġt aste
im mer
Ġsusp ension
ert on
ric ulum
Ġact ively
ĠT I
ĠS uz
Ġal igned
R P
g re
ah an
ĠRey n
ĠF BI
ĠMark eting
am y
Ġthink s
ra f
Ġ ib
Ġcompens ation
Ġ/* !
Ġdecre ased
Ġdocument ed
SOUR CE
j ab
ĠD ennis
ĠCroat ia
ĠBob by
Ġlaws uit
Ġb eta
ĠSc ript
t ake
ĠM orning
Ġextr action
google apis
rele ased
Ġte a
ĠJeff erson
ig ue
ad itional
ĠM aced
ĠV ermont
Ġlock ed
s yn
Ðµ ÑĤ
Ġtrad ed
ment ioned
Ġhealth care
act ed
Ġver ified
Ġsh ield
AR GET
ĠT ABLE
anc k
Ġde emed
Ġs ectors
Ġconstr ained
Ġcell spacing
ab stract
ĠA ws
Ġsuff ix
Load ing
Ġqu oted
ĠS ave
ĠDe ut
if iable
late st
Ġg al
Ġar row
RE T
PRO P
Ġcitiz en
Ġanalog ous
H ello
ĠW W
ĠW ol
$ }}
ĠSt yle
Ġmechan ics
ĠL ov
ĠA V
Ġn inth
Ġincre ment
ĠF ALSE
min ster
c as
Christ ian
un ches
Ġcompet itors
ĠS ession
op acity
Ġtrib es
H F
Ġscreen ing
Ġcompr ising
ĠCam eron
Ġk w
') ->
() ">
18 69
Part icip
ĠSerb ian
Ġan isot
Ġab ilities
f ive
n ecess
T imes
Ġf atal
eng u
50 9
Ġflex ible
Ġb read
$ _{\
Ġbu ying
Oper ations
Mus ical
ĠC over
Ġpl acing
J im
h yp
ve ill
ĠQu arter
Ġform ats
Ð¾ ÑĢ
g on
ĠT ed
ĠH ugh
16 8
th al
HO UT
orient ed
} ~\
ĠGerm ans
. (
Ġship ping
A thlet
ĠForm er
I mp
} <
ĠT yp
con struction
r ac
ĠN ull
Ġcamp s
fr ames
Ġjurisd iction
Ġan not
ĠA round
Ġconcert s
am ic
min a
ĠNe il
Recip ients
Ġb ay
Ġsh ifts
th umb
Ġded uce
Ġconj unction
Ġn ested
Ġqu ote
as se
Ġcloud s
Pe er
Ġsubsid iary
ĠP ent
ĠHer bert
Ġmus cle
." )
ĠAthe ns
Ġsynt hes
M obile
Ġro ster
amazon aws
! </
ĠR at
Ġpoint ing
j b
ĠP HP
ĠD I
cor rect
att ing
Ġsettlement s
Ġthick ness
Ġsens ors
ose x
Ap J
C ould
Ġmod ifications
Enumer able
ĠS ah
Ġsh ops
ĠCon nection
Ġj ew
16 5
Ġcons olid
Ġmem ories
> `
ĠN A
ĠG olf
Ġaffili ated
per cent
ĠVo iv
he ld
pi pe
et e
ore ms
itte es
Ġacqu ire
A ud
Ġch iral
Ġv ibr
Ġscholar ship
at able
ic us
tr ight
ol ine
Ġaccess ed
iber n
Ġf iring
ĠD rama
Def unct
ĠS ak
Ġconnect s
ĠI mplement
Ġp ic
Ġwalk s
Ġgrand father
ĠM idd
M ale
Ġweak ly
18 48
im er
Ġmart ial
Ġr ay
Ġabs ent
p ine
Sc ene
Ass ign
Ġr itual
ĠO scar
F D
Ġm ast
Ex pect
M ir
S uch
ĠS oph
Ġfore cast
cess ion
Ġ$\ |
IN VALID
A cknowled
ĠT as
Ġsl ide
' $.
Cent ral
ĠId ent
Ġp ace
ĠAss ume
Ġt ale
m ust
ĠR av
ĠW u
Ġr h
Ġprint ing
z ig
ĠAzerbai jan
è ¡
Ġcontinu ity
Ġshe ar
at en
Ġs isters
Ġport ions
Ġsynd rome
Ġgr ants
Ġpers u
Ġoverse as
Ġbroadcast ing
Ġex ponent
e ur
Ġh itting
item pty
ĠD ol
Ġj e
ene ath
script s
ĠEn cycl
ĠArt ists
De ep
mar shall
Ġr ally
Ġdem olished
çĶ ¨
, (
C UR
ec ca
Ġexam ination
Ġob sc
eg u
ĠMe chan
enc ia
ĠL if
S aint
ĠB ald
upd ated
] ->
om itempty
ate st
OT T
ĠMat rix
ĠBulg aria
r us
}) (
/ )
Ġatt itude
ĠMunic ipal
ĠR ah
pos al
18 57
Ġassert True
k k
Spr ing
br anch
p mb
v or
Ġup load
ĠC redit
. ).
M ary
Ġindic ator
ĠHug hes
g raphics
power ed
ĠB ak
spec ies
ĠB eth
TH E
Ġhas n
Ġfacilit ate
ĠF ed
Ġoccur ring
I ES
Ġrecommend ations
Scott ish
' ].
T ake
Ġpe oples
gr pc
v dots
Ġstop ping
ĠCons ervation
Ġinj ection
Po jo
uls ion
veill ance
m art
ĠM ail
Ġgold en
L ittle
ĠF iction
a ft
s ame
ĠD od
ĠBlo om
Ġv ital
Ï Ĥ
fer ences
Ġgr ave
~ (
ĠV oice
Ġout per
be ing
ĠÐ º
ĠM ade
M utable
et c
ĠIn stit
ĠCon sequently
Ġcoll isions
99 99
ĠN athan
tr on
Ġland ed
Tem p
ĠEag les
ĠM s
ort s
Ġrad ar
r ag
AR B
Ġplan es
L arge
em in
ĠF oot
b ib
Ġp our
}} )$
ĠSocial ist
Ġcult ures
O s
he v
Austral ia
m ot
Ġt ours
Ġproject ive
Ġhar vest
order ed
ordin ates
Sm ith
Sw ed
um ann
met ric
U ntil
Ġp ipe
ink ing
ĠHe brew
ĠE sp
odes hip
Ġterm in
c aster
ĠB ear
cl i
ĠU lt
ĠV eter
ĠSh akespeare
und a
ĠPen insula
ĠB R
ĠG it
ĠSl oven
W il
Det ector
ĠF actory
ĠS ask
Ġind uces
Ġm ines
T ensor
h aw
100 00
Ġexception al
Ġsup press
ĠS witch
ord ination
Ġcou p
C trl
superv ised
Ġl iv
S ol
Ġefficient ly
1 19
ĠS olar
=" {{
Ġpre st
Ġeconom ics
member NameLink
ĠStan ford
Ġlie utenant
A ctions
ĠS ales
ous ing
Ð ³
' )$
B razil
Ġten ure
G reat
no frame
ĠHer z
h istor
Ġg ains
por al
H ung
ing ers
sc opy
STR UCT
ish a
Ġentang lement
el ia
ĠTransport ation
a uc
r age
pos itive
F ar
c ern
ĠFil ms
ĠImm utable
am ation
Sub ject
uch i
ĠNor folk
Ġsurvey s
13 2
ĠQu ant
Ge ometry
Ġrun ners
ĠTR UE
T ry
Ġhighlight ed
ĠHel en
FFFF FF
ĠSt uart
Ġvis ibility
Ġcan n
Ġch ron
Ġadd r
Ġswitch ing
tright arrow
Ġprom ised
ĠArmen ian
s outh
ĠTh under
Ġcont ested
ĠF ish
Ġpro l
Ġass ists
mat ches
agon ist
D ig
Ġcl s
An im
w al
ĠTreat y
P s
ĠEq s
D ITION
Ġs i
aus es
Fix ture
Ġcelebr ation
ĠNash ville
uct ive
Fore ign
Ġband width
ĠK id
str ict
Ġdepart ments
ellig ent
H ard
W ater
F ollow
L com
13 4
Gr and
N Y
ĠU P
Ġhom ot
leq slant
": "
}} =\
ĠAl ger
Ġhon ey
AT O
ĠS ierra
ĠA ber
Ex ecute
list ener
er k
J ud
2 25
**************************************************************** ********
M iddle
Ġtr ap
P ane
Ġhyper bolic
Ġcl ause
ĠM ick
Ġe ating
ĠOC aml
ĠB H
Loc ale
ĠS yl
Ġlo ops
loc ale
Ġarr ives
ew ise
ĠW H
18 59
SP ACE
Ġconflict s
add Class
; ,
i pt
Ġconf usion
ĠS creen
Ġl ip
ro tt
æ Ĺ
ĠCit iz
Â ·
Ġbr illiant
Ġmot ivated
Ġf ert
Ġinter active
Ġs hed
Ä Ļ
ĠN y
in itions
un ks
dis patch
ĠHar vey
allow ed
13 3
Ġgu idelines
== =
Ġpropos als
ab ol
14 7
Ġw ard
Ã© d
Ġover whel
umb ai
ĠAgain st
m any
s qu
d ocker
LE S
ond o
ĠG C
Ġexhib ited
Mon itor
ĠPers ian
r v
Ġfin itely
Ġcert ified
Ġhand ed
sim ilar
ĠWork ers
H a
Ġr ice
ĠM ik
L T
n ut
Al gorithm
andid ate
at um
ĠMod ule
Ġlisten ers
Ġfor b
Ġb rew
pos er
at ra
ok o
ĠAl t
Ġconven ience
ĠPerson al
h h
gu ard
Ġassist ed
K ernel
im ity
s ized
Ġdisestabl ished
Ass ume
ĠCl ose
Ġrest art
Ġsup ern
sub stack
uff ix
ĠG ang
ĠN ak
ĠCo ach
ĠK ill
tr ained
ĠInd ependence
Sim ilarly
Ġdr ives
uzz le
Ġm s
ĠStat istics
| _{\
14 3
Ġac res
ĠAbb ey
it zer
>( <
Ġtack le
Ph ase
A SS
ac ular
Ù Ĭ
ĠVoiv odeship
M AN
Comp letion
Ġt anks
no ise
Ġd st
Ġprov isions
Ġsomew here
the ory
M ex
s ources
Ġb atter
od ic
Ġed itions
ĠO ptions
ĠR alph
Ġim perial
Ã¼ n
ingu ished
ĠWell s
met rics
ĠLa ura
ĠAb raham
Ã± a
ĠA my
sc ience
ĠHel p
ĠE instein
Ġstri king
Ġpat ron
Ġg ates
eg an
ens on
Rep resent
re b
Ġfl avor
Ġearthqu ake
Ġkit chen
Ġc ave
E mb
ĠSim ilar
isher s
^^ ^^
Ġstreng then
Ġis instance
per m
ĠK ind
Ġst eal
Ġaccur ately
c ookie
ess a
Ġn s
ĠPeters burg
Ġassoci ations
j ud
Ġt ap
ĠA w
ĠDis c
I p
M ur
im an
Ġcross es
ĠAgric ulture
Al pha
ĠSud an
Ġp reference
c ott
Ġcop per
N eed
eg al
L ab
Ġpe ers
ĠE state
ĠA uth
io let
Ġp ale
project s
ĠS equ
ad ers
_{ -\
Publ ished
en burg
Ġm amm
Ġ// !
ĠDef ine
ĠWall ace
16 9
Ġ# {
P ush
ess ment
J ack
Ġthr iller
ĠC ategory
Ġdecor ated
c in
ber ger
t oc
| =
Ġcon jecture
gom ery
Ġpop ulated
Ġt ape
ĠS oon
dec ode
Ġconf used
Ġun ve
sh ore
EN CE
Ġalleg ations
c art
ma jor
Ġi i
am med
ĠR oche
) |\
Ġin comp
XX XX
g ie
ĠDel aware
Ġinst ability
gener ic
er ious
arr ison
Ġshall ow
Ġed itors
n ear
F actor
Ġcred entials
hel m
ĠLeon ard
f loor
ĠI o
contin ue
in ced
Ġem p
Ġgr ain
ĠLi u
> .</
Ġper ceived
Ġsegment ation
ir able
Fr ance
ut down
Ã ī
Ġintegr ity
ĠEu clidean
Ġhel per
Ġh ur
Ġbus es
Ġclass ifier
Ġpal ace
x it
ĠCon vert
L SP
Ġ======= =
Ġconstitution al
Ġinaug ural
ab ases
Ġmin istry
unc redited
Ġpod cast
Ch ina
ot he
ĠTr ain
ĠC ut
ĠR ou
ĠA f
uss els
ri ent
Î »
13 7
al og
ĠL icensed
Ġdro ve
ĠP T
L ines
Right arrow
Ġpoly mer
T w
Ġhold er
Ġfight ers
Ġhop ing
Ġelim inate
Ġboard s
Sever al
Trans lation
ĠPr ivacy
Ġcontr ary
Pay ment
= -\
S ig
Ġi Phone
Î ·
Ġtele phone
%%%% %%%%
D ist
Ġtempor arily
) |^
ĠP av
Ġw elfare
Ġaccept ance
ĠO m
Ġl ung
Ġint ens
Res earch
Ġbelief s
Ġpro c
Com ponents
land o
ĠS old
ĠSt ef
)} _{\
ierarch ical
Ġcon fess
Ġinvestig ations
ph ot
d an
Ġcook ie
trans late
ĠD anny
Ġcal ibration
ĠI de
ry s
Ġswit ched
ĠG uild
Ġt ut
Ġe arning
H H
ig g
Ġbi ography
Un iform
ĠR AF
Ġalleged ly
ĠBroad casting
uc le
ĠH av
Hash Map
Ġch ip
Ġsum mit
'' '
sur ance
ĠGil bert
* \
bro ok
Ġvulner able
LA B
ĠZh ang
Ġ( ).
C annot
ĠProduction s
e clipse
pro c
Ġvo ices
Ġblock ed
å ľ
st ri
value Of
IE W
b ucket
Ġb lo
ĠP arent
ill es
Ch arts
Ġbel t
C ountry
ĠCon sole
ĠCirc le
ĠNot ice
Control s
Ġex pr
Ġref ere
Ġmulti plication
Ġs ang
ump y
w ik
ĠS ize
Ġv it
Ġren ormal
rypt o
C AR
e ah
pe g
ĠM az
Ġ" _
Ġplay off
Ġamplit udes
Ġdiagn osis
p el
Pr inc
ĠAg ent
Ġrel ies
text ure
az ard
Ġfor wards
ow der
Ġb ary
ath y
sh ops
ĠTh ai
}} }{
Ġrelax ation
ĠJ ar
Ġ" #
ab we
Ġz ones
Ġprepar ing
Has Been
Ġsculpt ure
Ġb alls
ĠThe od
ac co
Re pe
Ġinfin ity
U AL
Ġver ification
Ġ[ #
bre aking
ĠBudd hist
uet ooth
S B
ĠStr ateg
W W
sc an
ĠDi ocese
Ġsubstant ially
ĠArn old
ĠS K
ra is
Ġarr iving
Top ic
Ġburn ing
ĠLe eds
Ġwealth y
ĠP ont
l ift
rg b
Ġwrap per
ĠOt tawa
ĠFlore nce
Q t
Ġun lock
ĠE lection
Ġintro duces
Pl ayers
Tool s
ĠPhill ips
Ġim per
Ġgovern ed
Ġfeas ible
f eld
Access or
U psilon
qu estion
Mat cher
res olved
Ġinternational ly
H ook
ps y
Ġquot ient
ĠV ict
18 30
}) _{
MA GE
ĠUn less
s igned
ĠSing les
Ġsem ic
ĠUn fortunately
Ex amples
="../ _
Ali as
Mar shall
at z
d v
Ġrom ance
Ġline arly
t ile
prot ect
ĠSum mary
ick ed
Ġtour ism
Ġdemonstr ates
Âł Âł
Ġshould n
OTT OM
ĠN GC
Al ert
Ġel astic
ĠL an
ct ree
Ġassum es
ĠStr ucture
ĠS or
Ġcard inal
Ġminim ize
former ly
Ġconduct or
ĠLeban on
mid t
hand ed
In jection
ond e
Ġmanufact ured
ist le
Ġr ab
Ġrecogn ised
N ONE
Ġfun eral
or ange
ust ain
Ġdist ant
Ġarray s
ark er
Look up
ĠHit ler
. ]
N I
ac iÃ³n
ĠA G
Ñ Ī
ical s
asc ular
ak ov
Ġper pet
Ġlearn s
Re ceived
draw able
20 2
Ġair line
amb ers
Ġcl othes
ĠWork ing
Ġanom al
che m
ĠEx amples
Ġth rew
Ġl oud
Ġburn ed
s ure
rf loor
h agen
Ġan onymous
Ġshould er
al one
trans fer
Ġconv inced
d td
ik ing
ic ia
... "
ĠF IG
ut a
Bit map
ĠClark e
18 58
oc y
add y
Data Type
ing o
Ġco hom
ĠE val
sub Nav
WA RE
ĠR ules
Ġconsider ably
Ġdefend ers
f aster
Ġneighbour hood
Ġrend ering
Ġformul as
p n
ĠW inn
Ġdis cre
ĠP ars
ĠTe acher
)= (
le af
st ed
ge ometry
pay load
Ġinf antry
. ',
od el
ib ling
ĠCons ult
p od
Ġorig inated
mat htt
Ġun w
Ġaccommod ate
Ġkeyboard s
Ġadvert is
ĠR ena
w oman
ĠCre ative
set Text
D ry
ĠInst agram
Ġrout er
ĠPl ayers
Ġsust ained
sign al
EN ABLE
Ġattend ance
ĠP rest
get Attribute
stat ement
b oys
}_{ (
Ġp s
Ġall ies
hl js
Ġt ournaments
Ġst ub
Ġsnap shot
im eter
ĠMar io
ĠFil ter
ro e
ĠP att
ĠHar bor
Ġglob ally
ĠIllegal ArgumentException
isb ane
Mult iple
part ition
ĠB A
Ġcos mic
ĠPos ition
im on
ĠShang hai
ç »
Ġveloc ities
> $
Ġattr actions
ĠY ale
Ġaud iences
F ort
tes y
Ġmake up
Test ing
Ġte eth
Ġcommun icate
MP L
View Controller
b ur
CR IPT
fil m
Ġproduction s
it us
imb abwe
Ad v
Ġep id
Ġex terior
erial ize
ĠS L
Ġto mb
Ġsk etch
Ġspac etime
Ġcommand ed
leg iate
cs v
s elling
ĠPar alymp
H ouse
Ġm i
greg ate
ĠF at
] ^{
M ail
Cal endar
Ġad mit
Ġv in
Ġ' ,
ace ut
ur ated
OR S
Part y
Ġcoupl ings
constr aint
Ġjo ins
w at
ĠVol unte
Ġf ed
sp ired
Ġfall en
lf loor
Ġapprop ri
ME SS
Ġ* ,
R o
ĠD ebug
' }\
ever y
ĠY ellow
D eb
ĠW ag
ĠS ang
Ġcomfort able
Ġform ations
13 1
sen al
to o
> ../
ĠK ash
ĠR af
ĠBr isbane
ĠF oster
Ġactiv ated
r ant
anc ers
Ġconcent rated
HasBeen Set
Ġthe sis
ic as
Sup press
act ics
Ġobject ives
f ailed
14 6
sm ooth
Ġren ov
f w
Ġde formation
os er
Ġdel ight
Ġwid get
Ġpit cher
Ġaccept able
Ġcollect ing
Ġscal ed
×Ļ ×
Ġpl ural
P ac
ĠIss ue
Â Ģ
Ġle x
ĠLe o
C am
m r
Ex it
max cdn
A W
d h
;\ ;
A mb
Set up
RE NT
B ucket
Ġpsych ological
ĠG ust
ĠÃ ģ
33 3
acef ul
Ġ$ <
ĠNot es
Ġd ivers
Ġany more
Ġtrigger ed
ĠMar x
Ġdefault s
âĢ ĭ
R en
ĠSch w
Ġharm on
ff ield
cu ador
um per
ĠWIT HOUT
AR RAY
Ġreb uilt
f hir
ĠD h
ĠR PC
Ġthr one
ĠHar old
D a
ch itz
sk a
g ender
Ġen compass
Ġb le
]( #
u ition
Ġpre val
whe el
15 2
ĠBe ing
ĠSeb ast
Ġgr ab
Ġentreprene ur
Ġchap el
L ie
ĠHar per
ĠArt illery
Ġinitial ized
' $,
ĠE M
B a
ĠE T
pre pare
Ġem otion
Ġphenomen a
Ġtro ubl
18 56
Ġc ust
ĠC V
ÂĢ Â
Ġcontroll ing
D ict
Ġconv ey
ĠVen ice
Ġpl acement
ĠAn cient
pred icate
Ġaff air
G RO
tool bar
ex isting
ĠB AS
ĠM B
ĠT E
y ellow
om ething
Ġvari ability
18 55
ĠCh ang
ADD ING
R F
ĠS ans
13 8
h ig
Ġart work
TE S
en i
ĠN g
T ip
Ġle agues
Film ography
b urst
Ġexc av
Ġh yd
ĠCh a
Ġoptim ized
Ġvan ishes
ĠHen ri
Ġvalid ity
ĠE ld
Ġattack ing
Ġmar ry
ĠW orth
Ġadvant ages
arri ers
Ġdiv ide
ĠFerm i
ĠHe in
Leg acy
u o
IT LE
Serial ization
Ġcol ours
Ġt ile
Ġ$ $\
Ġless ons
ĠG M
ĠNew castle
Ġnon zero
ĠT odd
equal ities
Ġpl ates
. }\
if ice
we ets
ĠGabri el
ME M
ern ess
in ar
Mark er
Ġscript s
ĠV ert
loc als
App Compat
ter ms
Int ent
Ġtrad itionally
Ġm ad
uc he
red uce
L ists
Ġsqu ares
f ilters
t one
ĠCo hen
Work er
N L
W at
Ġatt ach
ĠCl imate
ĠE sc
h ang
Ġsc andal
Ġc attle
Ġtrans mitted
ĠR osen
] ).
c ategories
uff le
Ġhost ing
Ġcent res
esc ape
Ġer ected
ref lect
Ġsus pected
Ġprov inces
Ġ$ [\
ĠMan uel
ĠRem ark
Ġdr ift
Ġelev ated
AC ING
" ?>
& $
ey n
al in
Con v
St rip
Vis itor
Ġy ard
At l
ĠJava Script
Ġcon formal
Ġhard er
e i
18 54
itect ure
ĠB S
Ġcomplet es
sche me
Ġj ets
em p
Ġdisc ount
IN IT
Al tern
ĠCont act
ĠEdd ie
Ġm ature
Ġin herent
Ġ ell
ĠC inema
Ġco at
l iga
ĠAdd itional
14 8
Ġwhere in
m ans
Ġview ing
Rel ative
separ ator
Ġir regular
ĠArch bishop
oot ing
Ġperturb ations
G s
ĠCong o
il ateral
Ġf ate
Ġnob le
ĠCon st
Ġd otted
press ions
( |
ĠK ids
ĠSy mbol
="@ +
Ġhe m
Sh adow
ĠPalest ine
M ah
Ġauthor ized
ĠM ills
Ġorient ed
ĠPlan et
pr ises
ĠCl iff
Ġs id
ĠParam eters
aur us
Ġtr aces
ch unk
ĠGr id
it ars
ĠP ain
External Task
Ġread ily
over y
desc ribe
mult iple
ĠT EST
stit u
ĠPet e
hab ilit
Football ers
ĠQu est
Ġman ually
Th anks
ĠN ott
Ġge omet
is che
N ECT
Tr igger
Ġbe et
Re place
Â ½
Ġm eth
Ver b
Ġman ages
ĠAl low
C lean
= (\
Ġt weet
ĠHis panic
ext ensions
pr im
ĠBy z
ĠT oken
and ed
ĠRe ed
ĠÃ Ĺ
c amel
ĠChap el
ĠCon tract
Ġagre ements
ĠO UT
Ġj oy
nt z
ĠB ach
Sc an
Ġ} ).
hes es
ĠR ele
ĠN ancy
Ph ot
inem atic
F K
ĠGreg ory
C a
i ating
Ġchar ter
Ġem it
ĠP icture
Ġreloc ated
Ġen abling
Ġrow span
Ġadapt ive
Ġdrum mer
ash ing
] _{
back end
Ġd ancing
ĠĠĠĠĠĠĠ Ċ
con figure
help ers
R ivers
ĠG ene
is co
k le
PRO C
ÑĢ Ðµ
ExternalTask Pojo
ĠS Ã£o
sl ider
Ġcy ber
Ġelli ptic
Ġst olen
Ġmeaning ful
ĠPal mer
ĠTom my
ä¸ Ń
ĠS tra
orm s
99 9
ard i
ph ones
Ġor chestr
ĠCom ments
Ġrecall ed
h orn
ĠN intendo
Ġbelong ed
} &\
ĠEx cell
Ġc ad
ourn ey
Ġcomment ary
Ġbal anced
ĠEr nest
ĠDir ac
effect ive
nol imits
f urt
Ġinsert ed
ĠJul ian
Ġa est
it ious
ĠB ag
Ġaccount ing
Read y
ĠPed ro
Big l
Ġsuper conduct
ĠP D
m x
ips chitz
Ġbl ues
Ind ia
ĠAm endment
ethe less
E LEMENT
d w
ch rome
serv let
ĠP E
d ifferent
Â ®
ĠBenn ett
TableRow Color
ĠArgent ine
ĠS ym
iv ariate
Ġtw ist
vent ory
Ġres erves
alt ies
Ġt ribut
ĠJenn ifer
Ġ" );
Ġe cosystem
Ġre lying
Trans fer
Ġt une
S ent
Ã¶ n
names e
Ġinter faces
Ġdo zen
Th ird
ll a
Ġsimpl ified
Ġdesign ers
Ġbar rel
ĠPalest inian
Ġsc iences
ĠColumb us
Ġel ite
ĠGl ass
C op
Ġrefuge es
ST ART
Ġamb ig
' -
Ġ" )
Ġst reak
f uture
Ġir re
ij k
ĠSc ar
Ġtour ist
ĠAng lo
H uman
ĠArm ed
Scal ar
ĠB esides
ĠC ache
ĠB ORDER
Ġab oard
ĠLiber ty
Im ages
enc il
c ritical
Ġ. =
Ġinter pre
Ġpreced ing
ad v
ĠY O
Mod ified
Ġg ymn
ĠOak land
ĠK re
Ġposs ibilities
C y
d eb
Ġult imate
amp ing
Ġvirt ually
Ġexpl oring
Dest roy
Separ ator
D utch
s ens
war z
ĠG amb
ĠDet ails
g ary
Ġm asc
Ġdes per
mathbb m
Ġre produce
ĠD im
Ġbond s
P ixel
ĠK IND
Ġ um
Ġmodel ed
Ġrep ublic
Ġy esterday
Col lege
REQ UEST
Ġexha ust
Ġa ster
Ġobserv able
Ġprotocol s
. },
ĠFa ith
Ġi OS
Ä Ľ
ĠSt orage
Ġrem arks
á ¹
en ue
Ġw ars
Ġm a
Ġfollow ers
__ ,
ĠInter est
Ġdistinct ive
3 30
âĢ¦ .
ject ive
play ing
ie u
c amera
() [
ĠCollection s
n ell
Ġown s
Ġunc lear
al ink
Form atter
Ġtim er
dem o
sub scribe
Ġem igrants
Us ed
Ġs ake
Ġopin ions
Big r
Art icle
itud inal
or ne
is se
Ġfif teen
g al
ĠB av
h w
ĠAdd ed
di ag
im ony
Ġfrag ments
Ġfriend ship
t uple
ĠGro ve
Ġimpact s
att ach
Ġhand les
Ġp ounds
Ġce ased
p aces
v r
art et
Ġachiev ing
ĠMil waukee
Ġcomp ile
Ġsuff ices
] ),
ĠW HERE
Ġf oo
ĠSh in
Ġquarter back
ĠCom edy
iline ar
Ġplay wright
Ġdraft ed
asc ade
Ġperm utation
Ġgard ens
ĠJ in
ĠSt ri
opt imal
Ġpredecess or
Class Name
Ġmer ch
Ġdi et
ĠL ak
red irect
Ġfilm ing
ĠS oci
ĠTib et
ĠF antasy
Ġam id
Ġmist ake
Comm it
B bb
Ġkill er
sche mas
Ġlob by
c us
pr us
ack ets
ĠIP v
ĠA ur
ĠWars aw
Ġar ises
at ype
ex tract
A U
ell ers
Å Ľ
ĠR ole
ĠĠĠĠ ĉ
: %
he alth
Ġp ink
Ġfill ing
T urn
manif est
Ġsp ir
ĠReyn olds
Ġdro ps
ish i
Ġexpert ise
Ġover head
pol ar
pop up
l ic
ĠP ackage
vel t
do es
B ay
f m
14 9
I rish
ĠC elebr
ĠHash Map
Ġaccompl ished
ex act
ĠRay mond
Ġa fr
Ġmed ic
Ġh int
ĠF ixed
+ $
ĠRon ald
Ġtrav els
Ġtour ing
p ixel
Ġdec oder
Ġd ish
ĠEm ma
FORM AT
S ets
Ġc emetery
Ġfarm ing
Lower Case
unc an
Ġtrail er
ĠJ ung
ĠD epend
ĠPU BLIC
Ġ} {\
Ġimag inary
if est
ff ic
Sur face
ĠInitial ize
ĠW ikipedia
ere k
\ -
Ġoff ense
log ic
i ast
D istrict
ĠAmb assador
b oot
Ġinter sect
ĠCon cert
Ġlook up
cknow ledge
ĠIraq i
Ġst uck
ĠL amb
sw ick
Ġl l
Ġar ithmetic
Ġpoor ly
ol in
Ġdispl acement
ocol ate
osoph ical
ĠPro gress
Ġr ape
ĠMaur ice
Dan iel
Ġaver aging
n ov
id ays
> {
Ġa thlete
ĠR an
r ides
Ġreason ing
flu ence
G raphics
ĠB row
ĠB ert
h im
Sh are
x rightarrow
Ġd w
ĠS EC
Ġtim ber
Ġtherm od
Ġinter change
C AC
Ġinter cept
ĠV ery
ĠRod rig
ir us
S port
Ġh ills
Ġas h
ĠDiv is
Ġdev ast
ĠRem arks
ancell ationToken
Ġex clude
Ġad option
Ġroll ing
ĠR uth
arri or
L ee
J P
ĠB ears
ĠM ull
ĠFour th
Ġachiev ement
ĠB order
Ġn ep
T L
port let
er ie
! =
om p
um m
An notations
18 52
vel oc
Ġ! !
Ġsynchron ized
ĠG az
Ġor al
Ġmiss ile
com ments
ĠY uk
aw esome
SU CCESS
isecond s
U ES
Ġep ic
Ġwithd rew
Ġbank ing
Ġst up
ĠN ormal
w ent
ĠD ame
unt ary
ĠC ome
to ctree
For ce
% "><
ĠC rit
p ipeline
ĠR us
ĠPol l
ur as
ĠC raw
Ġcre ator
Ġgener ality
ĠMot ors
b org
Ġl oves
Ġvol leyball
L ite
å Ľ
ĠTh ir
Ġfor um
Ġor n
ĠEn try
prec ision
Ex pl
30 4
Ġg a
ore l
ĠKe ep
on ne
ĠH ub
ĠRh ode
off icial
}_{ {\
Ġhuman ity
Ġcon current
n x
in herited
ent ric
AT URE
Rec ent
ac ies
: &
h skip
Cert ificate
FLA G
Ġback ed
ĠNS String
ĠM umbai
ĠW ald
ĠE ffect
air y
Ġrecon structed
Ġdiplom atic
Ġdraw s
Ġastr onom
Ġfle w
ex per
For ward
ibl ings
Ġfl ip
ĠSp encer
Met ric
second s
ĠI SO
p ic
Ġalter ed
h m
Ġimplement ing
). }
row Color
ĠQ CD
ĠS weet
ĠWood s
Ġcl an
Ġscatter ed
Ġjoint ly
}) -
ĠLuc as
ĠFr anÃ§
n orth
ĠPhil osophy
Ġse cre
ĠS ic
ĠString Builder
I FI
** *
edd ed
Ġconduct ing
ĠĠĠĠĠĠĠĠĠĠĠĠĠĠĠĠĠĠĠĠĠĠĠĠĠĠĠĠĠĠĠĠ ĠĠĠĠĠĠĠĠĠĠĠĠĠĠĠĠĠĠĠ
con ver
ĠRh odes
ĠK umar
ĠS ter
Ġimprov es
s ent
ĠCommunic ation
y u
Ġsoph istic
atche wan
R M
ĠC elt
ĠSw an
ĠCh an
Ġattr action
ĠĠĠĠĠĠĠĠĠĠĠĠĠĠĠĠĠĠĠĠĠĠĠĠĠĠĠĠĠĠĠĠ ĠĠĠĠĠĠĠĠĠ
ced ure
Ġspecial ist
az ure
W C
ĠCre ated
? (
ĠC lean
ĠCamp us
on ing
ĠEag le
ĠL oss
Ġreg ulatory
ĠS part
Ġw orn
n io
G al
Ġpy thon
Ġvolunte er
ĠNorth west
po i
M ov
Ġsome how
ĠÐ ¾
ast ing
Ġsc reens
Ġdiff ers
Ġsem if
respons ive
olec ular
Ġseek s
Ġutil ized
é Ģ
miss ible
Ġre un
Ġh o
row ing
sub string
Ġb eneath
g ap
Ġdem o
Ġ" ;
Ġare na
desc riptor
ĠWild life
Ġde prec
ĠK as
Ent ries
Ġap par
Ð¸ ÑĤ
mod ified
Ġinitial ization
i ya
Ġmaintain s
Ġs overe
Ġb ell
Comp anies
ĠLead ership
Ġchalleng ed
ah u
Ġsw ing
Ġcrick eter
Ġc ele
Ġsh aped
ĠLat ino
ĠD IS
ĠF eder
Comp are
Ġcer emon
ĠKer ala
F red
Ġtreat y
ugg ed
Ġenc ryption
ĠR oot
Ġuniqu ely
ul in
d or
Ġper ception
G erm
Ġt oured
Ġspe aks
ĠK in
ĠSh ir
T wig
Ġadvoc ate
ĠL arge
\, .
est rian
Ġthere after
ĠNap ole
ĉĉ Ġ
cho ice
Ġunsuccess ful
################ ################
ĠR ams
ĠComp etition
Pol y
ĠMet al
Ġsl aves
15 1
Text View
ĠProt ocol
ĠBey ond
Ġin equalities
\| _{\
Ġguarant ees
Ġt s
CO UNT
al ter
Ġens uring
ĠPh arm
Ġprogram mes
Ġdef ended
Ġsub urb
ĠD aw
ĠS SL
Ġm ood
Ġ/ ></
az ar
ĠR achel
Ġdis orders
Î ¼
en ario
depend encies
b ay
13 9
ĠSp ider
Can ada
ĠE rr
Ġpotential s
Ġbehavi ors
Z Z
@ {}
Ġl y
ĠCurrent ly
p k
block s
ĠJo an
ĠGener ation
Ġsoci eties
Ġag gressive
d ue
Ġins ights
{ [
ose velt
18 51
\ }}
Ġsup pressed
Ġbr ut
ubern etes
ĠV illa
Ġf o
Ġfore ver
db c
W ORK
ĠS ey
Ġar ising
ĠJ ak
Enc oder
Ġprov ing
E lect
ĠPer th
West ern
am ine
ĠC ec
I ts
ĠO w
ĠAh med
ress es
ĠVer ify
; %
Ass ignment
ĠCart esian
å ¼
ĠB ound
m ys
ĠR C
Ġparam et
Ġlocal ization
ĠPh ase
Ġeditor ial
Ġrect angle
Ġtum or
ĠB B
be it
* .
ac ional
ĠP and
Ġartifact s
vari ables
K K
ent ries
20 5
ĠPr ison
Ġ Ã©
}\ }$
) )$.
ĠMont gomery
work er
26 0
A ff
ĠEnter prise
Ġsong writer
Ġen orm
esc o
ot ypes
Ġim pression
c am
ĠT YPE
ĠB ened
Death s
ĠP AR
n ick
Ġin cent
Ġfit ness
Ġnumer ically
ĠE ight
!! !!
d elegate
Ġan ger
ighth ouse
c ock
sub float
Ġ\ #
Ġpro ton
Ñģ Ðº
Ġt ier
Ġpush ing
ren ew
Ġenter prise
render er
Ġel dest
ĠIda ho
h in
Ġch apters
( `
Not ice
bor o
Ġharm ony
Ġpil ots
Ġcancell ation
18 53
ast ics
P ref
ĠFl ash
Ġincred ible
B attle
Ġcharacter ization
ĠEm ily
Ġtrav elled
T reat
f ollow
ĠMus ical
N F
Ġto ll
autore f
Ġpat ri
ĠH alf
ĠPro blem
Ġproof s
Ġwild life
fil er
ĠTest s
Ġn ose
//////////////////////////////// ////////////////////////////////
k el
est one
ĠC ann
Ġdec ays
ĠD eg
um ble
Fr ont
Ġre forms
Ġcyl inder
vent ions
ĉĉĉĉĉĉ Ċ
start s
r ically
over flow
/ #
Ġa stro
Ġspeed s
' =
28 0
Ġtang ent
Ġpick s
20 4
r ans
Ġinc umbent
ĠNet flix
Ġdescript ions
ad apt
und erset
ĠIn surance
Ġdream s
Ġun ions
icy cle
Ge org
n ail
Ġreal m
ĠS ou
un ting
ynchron ous
re ts
Ġd ying
Un ique
Ġbank rupt
Ä ħ
on so
ĠB io
ĠSecond ary
Ġembedd ings
ĠJul ia
SER VER
ĠProtest ant
Ã§ Ã£o
Ġexcit ation
LP ADDING
Ġcart oon
por ate
Ġpsych ology
ĠC WE
ac ion
ĠSi eg
b age
ex tr
Ġrepl ied
ĠWell ington
set Attribute
at em
(" .
sc ene
Ġdr ain
Ġsimpl er
c ached
ĠPar ad
initial ize
leg end
Ġs ung
ĠAng els
umin ate
i ov
Ġrot ating
Mill is
D one
n osc
ne z
14 2
Ġstri kes
Ġb ishops
Fr anc
Array s
Ġch at
ĠCard inals
Ġwav ef
ĠS ET
gr avity
! )
Ġpract ition
C AP
elastic search
x path
ĠBat man
ĠCom plete
h art
us a
Ġg it
um ph
D ao
Ġresign ation
ĠCEL LSP
ĠCELLSP ACING
: -
ĠF lying
16 6
Ġgl ad
ieg e
ĠCEL LPADDING
Ġb unch
col our
Ġdis pers
Pro c
igr ant
z ens
Ġcomp atibility
ĠCab inet
-------------------------------- ----------------
Ġcontrad ict
T X
Ġrecip ients
log ical
Ġgather ing
Ã ¯
f red
tem perature
Ġasympt ot
se ed
V R
}= (
ĠPer iod
Ġav iation
ĠReview s
Ġm g
20 8
ĠMod al
Ġun con
Ġsus cept
ĠW ey
J on
] ['
Ġevolution ary
found er
Data Source
Ġwarn ed
ĠC hern
AR CH
Valid ate
ĠS erv
Ġk iss
Ġselect ing
ass et
Ġfix ture
ĠBulg arian
Hen ry
s an
is ible
mod ifier
com press
and ro
Ġaut onomous
faster xml
F ill
Ġcle ared
ĠC ork
Sub scription
ĠE uler
Ġtr ig
ĠR ice
Ġincorpor ate
Ġb orough
ĠCon struct
Reg istration
E ff
ch ing
Ġconver ge
Am ong
ĠKr ish
Ġstand ings
ĠM ine
ĠStr ong
end region
Ġlux ury
Ġd ose
W ARN
Pl us
es ch
Ġdifferent ly
Ġadjust ed
Az ure
G ui
Ġmethod ology
ĠEngine ers
File Path
', \
Ġreg istry
Act or
ap or
yl an
00 3
T ON
ĠDet erm
ĠFellow ship
Ġen rolled
` )
I reland
Ġc iting
Ġab elian
Code c
Own Property
ĠHer ald
op ened
ID ENT
Ġem peror
chi ef
less ly
N ever
) <
ĠE g
' })
ĠF ighter
S afe
ab is
att en
On line
mut ex
ator ies
ĠSw ift
us hes
ij a
overs et
Ġmat hematic
P adding
P ending
w yn
Ġf ires
Ġw ore
}. \
l ov
Ġprox imity
15 8
ĠTy ler
Ġexhib itions
Ġins pection
go al
Ġoccur rence
B and
ang ered
k al
r ition
ate ful
18 49
reg ex
et erm
ĠCor p
in as
Ġcycl ic
ï¿½ ï¿½
Ġarg ues
Key word
Lin q
ĠÅ ł
Ġintegr als
paren cy
list ing
Ġbroad er
man uel
Ġimm un
Ġst er
ou x
Ġrecommend ation
ĠWest minster
Ġderiv ation
Ġt ent
Un ion
gener ation
ĠDev ice
ĠPark s
Ġt f
R G
14 1
nosc ript
à¥ į
:: $
oy age
Ġillustr ates
Ġwer en
ĠRev ival
ag le
Ï ħ
Ġhar ass
: /
est im
Ch ris
stream ing
ĠD oll
P ipeline
... ]
ĠP H
ol lo
Ġinteract ing
Ġv ec
Ġs el
ĠH O
Ø ³
37 5
NG TH
Ġb ills
og an
ĠV ern
Ġper f
av in
Ġdemocr atic
Ġbi ology
Ġhous ed
Ġkid n
Warn ings
& -
Jose ph
ĠG and
SD K
Ġm ice
the ad
ur bs
Ġhistor ically
Ġachi eves
olt z
ĠH ir
[ <
Ġst ret
Ġtransl ations
Mer ge
}{ $
Per formance
st ead
d evelop
g art
fav icon
Ġnot ify
Ġloc als
ĠPhys ical
ĠIs aac
Ġsett lers
em ploy
m ak
Ġ< ?
ĠG or
ĠCl aim
Ġremember ed
Ġneglig ible
20 3
18 47
W ild
ul ators
ĠK or
Ex cel
Ġpregn ant
m acro
ĠN ames
ĠBro s
ĠL ac
ud o
ĠN as
ĠW arriors
ĠHol mes
Ġconnect ivity
e er
OB JECT
Ġl ady
Ġind ent
Ġg aming
af ka
Ġsaf ely
le igh
ĠU nd
ĠInt el
ĠTr uth
Ġident ities
L ONG
MESS AGE
ĠT iger
Ġfilter ed
Ġdis band
Ġw ound
sh ots
ĠSp ot
Ġscr atch
Ġ$ ('#
Ġse aled
ĠAl lied
h ydro
Ġvic inity
Ġe leg
ri o
ĠWe ather
pack et
ĠAtt ribute
ĠKn ights
valid ator
ĠGard ens
Ġo c
na issance
Ġlo ose
ĠStr ategy
Ġa cknowledge
Ġrefer endum
ĠRetri eved
Ġ[ -
Ġcap ac
New ton
ĠB OTTOM
Ġobserv ing
A UTH
ĠSe pt
Ġk nee
Ġen velope
ĠT all
append Child
Ġend if
Ġterror ist
look up
ah oo
Pop up
W ashington
ĠS ig
min imum
a qu
Ġhonor ary
ĠC HE
__ ["
ĠĠĠĠĠĠĠĠĠĠĠĠĠĠĠĠĠĠĠĠĠĠĠĠĠĠĠĠĠĠĠĠ ĠĠĠĠĠĠĠĠ
ĠJer emy
sh i
hell o
B lob
V ir
ĠTh an
Ġret reat
M esh
Ġtr apped
s chool
Ġimport ed
P K
Ġdetermin istic
arg v
ill on
Ġadvers arial
Ġexecut ives
ffff ff
ĠT ong
Function s
Ġunder go
Ġstruct ured
zo om
Ġsear ches
ĠCh rome
ĠInter view
Ġdef ender
FN GL
ĠNot able
ĠRena issance
=" ./
ĠD rop
io x
Ġsuperv ised
Ġsummar ized
Ġdiver gence
Ġal i
Ġmot ivation
S ym
Ġneur ons
G AN
S a
Ġgu ards
ĠCroat ian
= }
Ġres ist
iv ot
ĠMal ay
Ġun e
ĠCour se
ĠSus sex
Ġbacter ia
Ġut ter
G H
Ġcontact s
SH A
abet es
ĠBrun swick
ĠYank ees
ed e
J ournal
s it
ĠDev on
ĠDes ert
' }$
L F
Java Script
Sw ift
Ġrig id
Ġcivil ians
ar in
Me asure
x sd
sc reens
ch air
Ġdescend ants
fig s
Ex tract
Ġpredomin antly
Ġre ceptor
erm ark
ĠE D
In ject
osp here
Second s
Ġsubmar ine
Ġal phabet
ĠEs sex
he nd
or um
Spec ies
U UID
Ġsurviv ors
en es
ind ices
ĠBl ake
Ġautom ated
Ġcyl ind
Ġinv oked
ĠL iv
al tern
harm onic
Ġpres c
av o
Ind eed
ch arts
Ġabsor bed
Constr aints
Ġ/*! <
ĠH us
ĉĉĉĉĉĉĉĉ ĉĉĉ
Check ed
ĠAl pha
parent Node
Ġvis itor
abul ary
Ġshel ter
pos able
ĠGrand e
ĠVlad imir
Ġab brev
15 7
l ua
Ref resh
Ġv ow
Ġdesign ation
Ġwork shop
ph ony
Ġrock et
)} =
ĠBaron et
en eg
Path s
Ġnovel ist
ĠIn stitution
}\ ;
ĠPear l
ĠScot ia
RO OT
Ġstep ped
Ġwrit ings
F ast
ar is
necess ary
Ġadminister ed
=- =-
access or
Ġwor ry
vis it
Ġre vision
ĠDis covery
C ookie
Block s
oupl ing
Ġcorn ers
Ġwarr ant
Ġrele asing
ad os
ĠDur ham
Lou is
zh ou
Ġre organ
ĠP owell
Ġmod ular
en h
at ics
ĠLeg ion
Ġr iders
ool s
18 43
t le
Ġcoll apsed
Ġdim in
Ġaffect ing
Sing les
ĠD CHECK
Ġconcent rations
m icro
prior ity
Ġl akes
Ġ[ {
Ġsub stance
15 4
ĠV ision
Ġmyst erious
c aret
Ġdiv orce
ĠTun is
Ġn inet
Ġl unch
r x
b ibli
man aged
ĠPaul o
ĠUS B
ĠO wen
Ġb is
ass er
S us
ĠE ve
}$ $
Ġsp y
ar u
Ġrel ate
Ġs its
Get String
ĠRo osevelt
Ġb er
ct rl
15 6
dir name
Ġprevent ed
g ement
Ġr c
Ġback ward
Ġproceed s
Ġe cc
Ġfl our
Ġdiscuss ing
Ġinvestig ating
ut ers
Ġpresent ing
Sche me
fr action
Ġbut tons
Ġm im
emph is
ĠLet ter
uis ine
Ġbare ly
L iber
es a
og o
Ġleg islature
Ġball ot
l v
ĠTas man
Ġd ump
ĠF an
A h
Ġh ind
S hip
T s
Ġpr ayer
ĠMax well
Ġacknowled ged
ĠH ass
r ice
Ġb ins
ĠD in
ĠG W
Ġdwar f
K im
Ġvan ishing
Ġcr im
cer pt
g c
ĠF lo
Ġcounter part
? </
Ġ ions
ĠB ent
Ġc ant
Ġn ights
ĠIn iti
St yles
Ġext inction
ha o
Ġf ram
over lay
Ġinter fer
ersh ire
N U
IN DEX
cho ose
Ġe uro
l st
post s
Ġemp ire
ed o
r ise
Ġiniti atives
Ġh ull
ĠSh im
Ġhop ed
Ġfoss il
Ġcon ce
ĠMarc us
Ġlimit ation
Ġwe igh
SU B
Ġim pressed
tri ang
Ġdiscre p
Ġobserv ational
â Ĥ¬
l iter
ol ate
Off ice
Ġbright ness
Ġcol ored
t ility
}{ {\
ĠT D
Ġgrad es
ĠO g
}$ ).
Ã© g
Ġthrow ing
) !
Ġin ches
ĠCard inal
Ġtrav elling
Ġachiev ements
respect ively
ĠRec all
ĠSher iff
v skip
Ġcro ps
Ġd ash
ick y
pack ages
ĠS qu
Ġple asure
ap a
Tr ump
Mart in
ĠM ob
ĠL akes
Ġt ips
ig roup
c ats
open hagen
Ġmod est
Ġer g
ibern ate
[ [
Ġlett ing
Ġmidfield er
Ġseem ingly
Ġamb assador
ĠZ ero
St ates
d istrict
ãģ ®
ov al
S PE
Ġ{ {\
ll er
Ġeng aging
Writ ers
Ġphys ic
ĠL apl
Ġap olog
ĠP ink
Ġstart up
Load ed
Ġbuild s
Ġtalk ed
re verse
Ġver se
as ide
top rule
Ð¾Ð ´
+ |
s il
Ġquant itative
FA IL
Mod ern
Ġ( `
to LowerCase
FT WARE
est imate
Ġb out
Ġfre ely
car bon
ĠB oeing
Ġcontin uation
first row
hedul ed
Conn ector
M icro
==== =
Ġc oding
C apture
ian ces
Ġsure ly
Ġanth rop
LA S
ĠG ir
ĠSh ield
Ġan ce
ov ic
ĠG y
Ch apter
on er
Ġdemand ed
Ġutil ize
Ġsport ing
Ġfraction al
Ġfor ty
ener ate
ĠJama ica
Col umb
ĠD ise
V EL
Ġl ig
ĠOut standing
ĠBir th
W D
Ġcount ed
Thread ing
Ġathlet ic
sm art
song writer
{ },
adem ark
22 2
MS G
ĠMig uel
Ġd Ã©
ĠS of
Ġque en
Ġinteg rate
for ge
aw t
ian e
ĠAngl ican
Ġval ued
yg on
ĠFl ag
Dat aset
Ġbeat en
Ġnucle us
Al ignment
Su ite
Ġen roll
Ġrem ix
Ġsol it
ĠR aid
are l
5 67
it ic
Ġcontext s
Ġ// -->
Ġfif ty
sp i
ĠZ imbabwe
ĠChe ster
ĠDec ision
stan bul
Ġag enda
S in
un its
ĠL ok
He ap
oca ust
="# "
ĠNott ingham
ĠShe ffield
ĠHamb urg
Part ial
per formance
con j
Ġdown stream
Ġsubt le
w y
GEN ER
ĠP si
m os
pect ives
ogen ic
ĠE cuador
M ike
ĠI v
act ing
ĠU ntil
ros so
ĠWh ich
d eveloper
Ġm eter
ĠĠĠĠĠĠĠĠĠĠĠĠĠĠĠĠ ĠĠĠĠĊ
mod ern
Can vas
v v
ĠD as
ĠCon v
Ġprotect ing
am as
Ġ ^{\
Ġf uck
Ġcan al
all a
ĠSalv ador
" ])
t ec
å ¯
ep per
ĠStock holm
H o
ĠPro f
D evelopment
Ġal umin
r ab
ĠAn a
LO B
15 3
ĠAt omic
Ġcell ular
Ġpoll ution
Ġaccompany ing
ing en
Ġlif estyle
Ġby pass
ĠMethod ist
ĠF olk
18 5
Ġingred ients
Ġle ak
50 1
Ġmetall icity
Ġfilter ing
Ġche ss
Ġin complete
Ġkill s
ath i
ĠChar acter
V IEW
Ġto String
Ġident ifies
ibl ical
S rc
TH ER
let te
ĠCh oice
C SS
18 46
Ġb ubble
ors ion
Int ro
ĠCy prus
p her
STAT IC
ĠESP N
yst er
ĠG em
Ġflow er
Ġdi agnostic
ĠCon vers
ĠFried rich
Ġs word
ink s
ĠBel arus
Ġpun ishment
Ġind oor
Ġbas in
}}\ ,
Ġph ones
us age
App ly
Ñ İ
em bourg
Ġsett le
ĠBr ussels
Ġden omin
t lement
ĠC IA
ĠL or
ĠW R
Ġap pl
Aut om
S oviet
Ġc c
ĠPak istani
Ġbatt alion
S ar
AB ILITY
ĠHop kins
ĠEll is
Ġdis ks
v ectors
Ð¾Ð ¼
C s
g ements
ĠR ever
pro j
Ġcohom ology
' "
non atomic
Ġg aining
Con tain
. (\
it icians
ĠO ber
Ġdoll ar
Ġle ts
tr ation
ĠCal cul
rest rial
Ġcorrect ed
serial ize
p q
Ġprom ises
ĠDis play
lev ard
Ġlegend ary
a ude
Ġdress ed
M u
Ġwe aken
Ġcor ps
Ġevery day
Ġe gg
ĠField s
Ġcho ir
pend icular
ymp lectic
Ġc am
le z
ĠK ra
Ġbomb ing
CL I
P ak
Ġfle e
Ġbe ars
ĠPal m
Ġcon spiracy
ĠSche ma
Ġsk ew
ĠTrans it
ĠPr ague
ĠSask atchewan
}} ^{(
ĠN ine
ĠCom mercial
An chor
ÑĢ Ð°Ð
Le ave
pre view
Ġ" +
ph oto
Ġren owned
rot ate
z el
ĠCol in
he ng
Add ed
Ġbox ing
Ġsh ar
ĠS ullivan
im i
ĠA F
Ġz oom
Ġcompar isons
sub scription
m itting
ĠS uff
Ġassert ion
Ġinterpol ation
Ġjournal ism
Ġbad ly
vis ual
Ġn aming
ĠA ub
Ġsm oke
ul g
You ng
Ġcor rel
ĠAct ress
H AND
v g
ĠA bs
Ġequ ity
ĠP ir
und ers
Ġle an
ĠRevolution ary
ĠAdvent ure
Ġn m
' =>
aw i
ĠMathemat ics
B on
INS ERT
ĠChel sea
}, {\
Oper and
Ġad equate
DEF IN
P icker
St mt
ro ph
up iter
EX PORT
s olution
se ek
iff e
Ġs ailed
Requ ire
ar re
Ġch ore
Ġdies el
H ouses
In c
Ġmin eral
ĠI BM
ov ina
Ġep it
ĠF lem
if fin
Ġpione er
N ested
ĠI g
ĠT ell
å į
ad vant
ĠExt ension
Ġdisappe ared
H ig
Ġatmosp heric
Ġpri ests
ĠOr iginally
ific ates
Ġnick name
Ġtri ps
ĠMoroc co
il ian
B LOCK
ĠImp act
veloc ity
Ġgeodes ic
ur istic
set length
11 11
N OS
cont rolled
Ġpron ounced
R outer
Ġdial ect
ĠRichard son
g em
Ġf ame
ĠC I
ĠDe al
1 200
fr astructure
Ġline up
l ap
in j
ĠRe id
Ġhard ly
Ġproceed ings
found ation
Ġstud ios
Rad ius
U int
s ix
ãĥ ¼
* >(
Ġp orn
}}\ \
Per cent
atin um
od ia
): =\
place holder
ĠCr iminal
Ġg amma
Ġround ed
L y
Ġsur f
Ġmob ility
Ġt enth
ed ges
ĠB elf
umber land
r ases
Stack Trace
per mission
on aut
ĠMan ila
dr ag
sm ith
Ġanten na
Ġfail ures
section s
Ġgrad ients
ĠUg anda
Ġtr act
Ġrem n
ĠEx hibition
P ier
Ġf antastic
Ġretri eved
2 12
] _
log ue
cons ider
k ern
ath a
ĠG ov
ĠPun jab
}\ !
K L
Comm unes
Ġsp ur
Ġspec ifies
ĠBa iley
C ities
ats u
sw ap
ĠN ATO
F RAME
^ *}
attr s
ĠHe ights
Cred entials
ell ation
Ġcommut ative
O G
Ġlist ings
Ġperform ers
reed y
Ġang ry
Ġcompl aint
Ġdemonstr ation
Ġpit ched
Dest ination
oc ene
NE W
m agn
n atural
Ġup set
Ġsever ely
Ġcomput ations
ĠInter face
Ġred und
Fig ures
Ġp ap
Def ined
i q
Ġf ung
M G
ĠOr lando
ĠG B
Ġwe ird
Con struction
friend ly
Ġle ase
al ong
Ġperman ently
% ),
NotFound Exception
B re
or p
Ġin ev
Ġf ut
Ġpr ince
'] ))
ĠPan ama
L es
P ars
ok ia
Status Code
Ġsubstr ate
ĠDev il
ist ency
Ġblock ing
ĠU SE
let es
co ordinate
ĠBrook s
Ġann ih
al an
Ġmet ropolitan
Ġexp ense
Ġpers istent
Ġhum or
ĠCorn wall
lector al
B ank
Ġb ra
ĠB ug
Ġgu itars
Ġpra ise
Ġstrugg ling
r ison
Ġqual ification
B oard
Ġsub mission
idel ity
compar ison
Dec oder
Ġc razy
ĠLoc ation
F etch
mont on
ĠA ires
ex clude
Ġde code
Ep isode
pred ict
/** */
Ġelect romagnetic
Ġdiss olved
ch rom
../../ ../
Ġadministr ator
. ');
ĠM otion
Ġcogn itive
Ġp c
R oad
Ġdebut s
Ġl ane
Ġo w
u pe
ĠHe aven
}^{ (\
ĠInn ovation
] *
c py
r n
ol ics
Start ing
ogn ition
Ġa er
Ġpro jections
sc apes
dec oration
Ġcatalog ue
Ġappreci ate
Ġment ions
sl ot
Call ed
V ariant
Ġmem oir
Do es
f u
m icrosoft
rel ax
ĠP om
omet own
Ġco res
any on
ĠG ren
Co ord
Ġpack ets
Br anch
Ġl uck
Ġconsider ations
spec ified
Ġeval uating
Ġalt itude
F it
Ġcr ack
H idden
ad just
Ġaccept s
ĠMer it
Ġtem plates
Ġadv ances
Ġlo ans
Ġnucle i
er i
Ġt et
ced es
Ġh alt
Ã °
ĠObserv atory
Ġp unct
Ġd ock
Ġun changed
board s
E nergy
Ġgl ac
R ugby
), (
ĠH ey
tab les
Vis ibility
ĠJac ques
Ġmark ing
Ġdat etime
Ġtri o
ĠGal actic
/ $
g ui
ĠBry an
Ġecc entric
ĠMe eting
D ark
F s
ĠTo o
ĠE ye
hash Code
ipe g
L ev
O l
Ref lection
i ago
ĠResp ond
pert urb
ites pace
ag ation
Ġimp ose
Ġtor us
w ire
ĠH R
pe st
Ġmer c
Ġmon astery
ĠTechn ologies
ĠAdvis ory
es ar
Custom er
ht bp
ĠLind a
F ictional
ĠMe V
ĠE t
36 5
Ġab ortion
ĠP sy
ĠM enu
Ġn od
Ġqu it
Ġfis cal
Ch ief
Ġdet ectors
p it
Ġrul er
G uid
or bit
em ption
Ġ} ),
ĠConfeder ate
HO ST
e conom
Ġa fore
ĠPo etry
ĠV II
Ġcomb ines
ĠH urricane
ĠK aren
ĠGe off
qu ark
}} }$
input s
ĠNe uro
Rel ations
k ers
l is
ĠPlay Station
W ood
ĠS Y
ĠPrinc ipal
Ġpurs uit
Ġbrig ade
H aving
Ġextra ordinary
implement ation
ĠEncycl opedia
Ġbreed ing
l ived
ĠSom erset
LE N
ĠS TR
ĠM om
Ġpsy chiat
R etry
ct uary
Ġh ung
Ġcirc ulation
() ]
ĠCa uc
Ġhomot opy
Ġformal ism
S on
Ġref in
Ġcre am
Ġconsequ ently
erg us
J ean
op r
Conf irm
Ġbe aring
ĠSum mit
ĠV AR
Ġresear cher
over ride
Ġch lor
Ġ"- //
intend ent
ra its
Ġoptim ize
Ch unk
Ġb ol
ĠC ord
EN C
AB C
ĠMod els
Ġsur veillance
ĠBay esian
m ons
Ġv i
sec ure
oy le
Ġdef ect
Def ine
Ġdepart ed
ĠInd ies
ION S
Ġunder graduate
Ġdisestabl ishments
ĠIn spector
Ġout flow
ĠCol lect
Ġpack ed
ĠSpe aker
ĠParam eter
ĠAbd ul
ph ib
LO AT
pr ising
Ar r
Ġrefer enced
Ġmod elling
alth ough
ĠKaz akh
' )\
art a
ĠEd it
miss ing
ĠCub an
Ġt rem
ĠM old
}( -
hab ited
Ġtarget ing
v n
Ġwhe els
ĠH ait
que z
un ate
Ġin set
st ub
Ġhot els
ĠL L
ĠW E
Con clusion
Ġob s
Found ation
ĠR ib
"> &#
Ġno isy
Ġdistribut e
yl um
ĠBrad ley
Ġg lyph
6 50
Ġo mitted
$ (\
ari us
ĠGl enn
udd y
ĠViet namese
alyt ic
Pro b
ĠJohann es
ĠM ET
anc a
Al ign
Ð° Ð»
22 4
ĠLore ntz
ĠD uncan
ĠSol omon
Ġappar atus
18 45
ĠF R
ĠV ers
CD ATA
Ġprefer ences
Ġterm inus
ĠW riter
Ġexpl aining
s ender
ĠK yle
ĠRequ ired
15 9
Ġpat ches
ĠMed ic
Ġprevent ing
Ġpres erving
}} +
Ġ(! (
Ġcomplex es
ĠIn side
Ġrad ii
æ ł
16 7
Ġann ex
ch annels
ĠR ender
">( </
ĠNS W
ist on
Att empt
Ġsc ar
Ġdemand ing
at ta
Ġbos on
â Ħ
Ġg amb
ĠK om
ĠV il
P et
Ġsp ont
math ds
Mod al
}| ^
Z oom
ern er
b ey
if rame
eh icle
Public ations
38 8
reg istry
^{ [
l iteral
Ġnumber ed
size of
40 1
ull ah
ĠP ul
k ill
Ġl as
ĠJ ake
Ġaddress ing
ap est
Ġin vert
text style
Ġ\, ,
Ġgirl friend
Ġathlet ics
Ġp unk
à¤ °
ol ith
(" -
Ġadv ised
) }^
Ġrout ing
ĠHe at
Sc heduler
pro per
}] $
elect ric
V K
M il
Ġcor rupt
Ġhelic opter
}$ ;
Ġr amp
ĠNiger ian
Ġd ots
Ġpian ist
Ġsim ulate
Ġjud gment
W M
ĠForm at
Ġregular ization
l ar
ag ic
Ġgu ided
Comp leted
ĠTw enty
2 11
id y
Ġoverl ook
18 44
Ġpur ple
Ġdrop ping
Ġsp iral
Ġ( âĢľ
DE C
ĠRe ich
ĠTrans itional
fin ity
he ne
'' .
ol an
Transport ation
Ġw ishes
Ġconstruct ing
u u
um ably
Ġslow er
ĠPop ular
R GB
Ġneg lect
ĠTrans action
ic ers
ĠO z
d og
ĠC rist
> ()</
ĠS ER
ĠTre k
ĠE S
ĠInst all
WR ITE
ĠGr iff
ĠLou ise
30 1
govern ment
Ġwe aker
to Equal
ĠG ET
aj i
) ~\
g ae
Ġcon cludes
m ile
R atio
Ġl ov
Ġisol ation
Ġhero es
Ġtra its
: **
Beh avior
ĠYugosl avia
P ages
ĠSh are
by ter
Ġexplo it
Ġp ig
Ġc ry
pl ays
ar v
Ġinf ected
4 80
ec ycle
ĠDr ug
Ġrob ots
sw er
ĠIndian apolis
fill ed
Ġattr s
ĠCont est
n ai
Ġp ad
ĠG A
Ġde ce
ĠCy cl
Ġred es
kin son
Ġal arm
ĠLe ic
Ġsophistic ated
ĠArm strong
or ers
gr and
ĠCh ase
utt le
U kr
PA SS
or ious
ĠS ul
s izing
[] )
Ġconstitu encies
sp ark
ĠIndones ian
O H
ĠT X
ĠCON DITION
_ [
Ġ} $
Ġport al
Ġoscill ations
an alytics
ĠÎ ¼
xi ety
dest ination
ĠD j
Ġr hs
Ġrec ycl
Ġsuperv ision
andid ates
y outube
------------ -
or ate
row se
Ġfar ms
g mail
s leep
CH AN
ĠIll ust
H ex
ĠK urt
TE X
ĠS ed
Ġsum s
track s
R eb
Ġre try
ĠA part
Ġsuccess ive
Ġpair ing
Ġfeed ing
f ee
Error Code
Ġarchitect s
b ars
ĠA WS
ĠR ush
rid or
} "/>
ĠD y
Ġrot ational
ass o
ĠAn imal
ĠK arn
FUN CTION
B ag
Ġun anim
Ġarchitect ures
heim er
Ġconsult ant
Com plex
sup p
L os
ys ide
Ġleg isl
Ġlink ing
l os
Ġres umed
ĠH arm
com position
18 42
N ING
ĠR M
Ġl ag
Ġeth n
ĠB uc
ĠStr uct
Ġcon form
amp ire
Mat ches
V k
ĠM M
text area
R IGHT
ore n
h base
ĠI MP
Mod ules
F un
Ġcon ferences
ĠEvent ually
ĠOt to
ĠC ould
B ern
v iol
Ġ' ')
le en
ĠEngine er
bad ge
Ġimm une
> /
LE NGTH
ĠE RA
ĠW ant
ipp et
ble ms
l brace
ĠG LE
Ġcollabor ated
Allow ed
Ġax es
Ġcompl aints
Ġhist ogram
Ġs iege
Ġr m
ĠT ampa
Back end
ĠAndrew s
ĠM ove
Un incorporated
C le
Ġcoun cill
Ġcon gr
Ġsub graph
ĠCont ainer
ĠÂ §
Ġtoler ance
cur ve
aged y
Ġcul min
Ġdisc overs
Ġs ou
Ġnation wide
b eck
ĠF ashion
G od
Ġdel ays
Ġafore mentioned
Ġcoinc ide
ĠM ang
em ia
Ġdepict s
Ġt ear
Ġphil anth
ĠC yr
ĠC openhagen
pot ential
ib a
2 32
Ġkil ometers
R outing
ĠH i
Tax onomy
\\ \
Ġprem ium
Ġ âĢĻ
ĠM ode
Ġl ambda
ĠBos nia
Ġcr ashed
con tract
ĠSy ntax
Art icles
Pay load
Ġ( );
ĠF ul
Ġrenew ed
Ġmolec ule
ext ype
Ġmanif olds
le ys
Ġg ig
ordin ator
Ġstay ing
ĠD S
] <
16 2
Ġ} .
bo at
ap ps
Ġfound ers
aff e
Ġacadem y
/ '
ĠJ unction
Ġpol es
Ġembod iment
Ġs ew
Ar thur
ĠH aven
MA IN
Ġh iding
Ġtrans ient
date picker
bottom rule
ab lo
pre vent
lev ant
Ġer upt
ĠArch ae
Ġper ipher
id ually
ĉ ĠĠĠĠĠĠĠĠĠĠĠ
ĠHe ath
Sl ice
ĠLink ed
Ġl od
Ġch ances
ĠTh row
ific ant
enti eth
B ot
m eter
default s
Sim ilar
17 6
Ġsent iment
ĠA A
ĠC oul
Ġst ones
Ġinvest ments
Ġter rible
pl aced
ĠB ullet
ĠIn cre
Ġqu bit
ĠPrinc eton
b usiness
Ġrecru ited
Ġtreat ments
Ġe ject
ig i
Ġpres erves
Sl ot
ĠEmer gency
ĠY emen
ĠB od
system s
in ely
Dis abled
v d
16 4
P en
BUIL D
ĠF E
Rep ly
) /\
il iation
Ġtal ented
ĠGrad uate
I EEE
conv ex
x ym
Ġr ifle
erv ous
Re ceive
ĠBet ter
ĠArmen ia
ĠF ut
Ġregular ity
Ġz ip
ĠDown load
Ġaffili ate
ĠT err
26 4
Ġpar ity
Ġtw isted
i ator
Ġ\| _{
Ġcop ied
5 50
on ey
ĠDist inguished
Ġafr aid
conf irmed
roll ers
ĠAg es
ĠS aw
Ġsl opes
ĠWil helm
pe er
Ġcapt ures
ĠGen eva
Ġdiscipl ine
)\ ,\
ĠPublic ations
Ġflex ibility
18 20
T l
ell ites
av ian
ĠLet ters
re ne
Ġh i
Ġent ert
ĠLeg islature
b rit
W O
urch ase
$& $
p ent
ĠS NR
ĠJ ets
Ġinduct ed
Ġad mission
Ġr am
Ġwork shops
Ġac ute
role um
yst yle
F ake
ex ist
, âĢĻ
K ar
di agram
sl f
Ġc f
Ġp ul
L U
and le
ĠÂ «
Ġrev ival
ĠCal gary
Ġmand atory
ĉĉĉĉĉ Ċ
Ġan ch
Ġf reed
Ġsign atures
ĠGer ald
Ġ\\ [
Ġavoid ed
ip es
ĠProgram me
g tr
Ġinv ented
Ġjud icial
ĠVis it
Ġlog s
^ -$
ĠC B
ad ier
Request s
Ġcab in
Ġwarn ings
nt hetic
ott ing
Ch at
Ġemb ark
ĠAssoci ate
Th reshold
In cre
Ġ/ ><
__ .
ĠFr anz
æ ī
dis c
R eq
Ġre write
Ġ" (
Ġdiam ond
Ġ* **
Con serv
Ġinstit ute
E ducational
Ġw are
Ġre bounds
ly m
Ġc ss
Ġ( {
T ables
Ġmod uli
CL U
18 37
Ġem otions
é ĩ
ĠL ip
inv oke
Ang le
Ġenorm ous
ĠPro of
IC K
ĠDomin ican
Ġre cept
ĠCh ad
pp ing
ENT S
ĠBAS IS
Ġs ig
ĠTh r
Sc ience
ĠDav ies
spe aking
0000 000
Ġsec ular
ĠN ortheast
Ġterr ain
Ġprest igious
ĠIn g
Part s
ĠWy oming
ild a
Th ough
ĠKenn eth
J s
Ġreleg ated
R NA
if a
Ġinv ariance
ĠIs le
Ġconstit ute
ĠCONDITION S
Ġcur riculum
sh ine
Ġgrad ed
ĠMar in
And rew
ĠCh uck
Ġhon ored
ĠM iles
vis ibility
Ġsil ence
n is
ĠNetwork s
Ġv ig
---- -
Ġl iver
act iv
ĠCarol ine
dim ension
Ġpars ing
Ġg aps
Ġcycl ing
st en
Ġsh rink
h it
ĠE R
Ġdraw ings
Ġh anging
ĠP ret
}} -
v ation
ĠH ousing
ri ans
18 7
Ġup graded
bal ance
g ue
Ġf Ã¼r
ĠN N
Ġg ri
Swed ish
Ġpres ervation
Ġb uff
form ula
ĠGlob e
qu o
pro ach
Ġcurrent s
ĠAut om
ew ard
col ors
Ġpre vention
Ġsl ip
ĠF ramework
Ġw reck
Ġs iblings
ĠE c
Ġtrav ers
ĠBu enos
ig rate
ĠB uilt
Th m
ĠAh mad
ĠMan it
ĠS ob
Ġmark ers
Ġnew er
4 000
Ġdefin ite
In line
ur an
th in
n as
Ġfe ud
big gl
Ġrevolution ary
Ġgrad uation
ĠTri ple
17 2
ra ise
Ġfol ks
â Ĩ
Ġbl ame
Ġassess ed
am ous
ĠS ale
H ide
Ġcompr ised
G reek
riter ion
// ----------------------------------------------------------------
ron ics
b read
k ip
all i
ĠR out
Ġreven ge
ĠR S
ht m
EN TRY
Ġenhance ment
AR K
Ġdip ole
v iv
Ġenzym e
18 12
abs olute
ĠP orter
Cre ation
ĠP anel
ĠMc Donald
con tr
Ġp enn
ag ne
Ġcook ing
Ġpre view
le ad
ĠAn imation
Ġsuggest ions
ĠGi ov
orient ation
ĠGener ic
TEXT URE
Ġstrong est
Ġwar fare
Ġple ased
d ump
ess el
Co ins
Ġfurn iture
Ġoccas ional
Write Line
ĠĠĠĠĠĠĠĠĠĠĠĠĠĠĠĠĠĠĠĠĠĠĠĠĠĠĠĠĠĠĠĠ ĠĠĠĠĠĠĠĠĠĠ
I sl
Ġtour ists
$ --
or ig
23 5
ph ant
ĠN u
c atalog
DB LP
Debug ger
work ing
ĠAssoci ated
ĠSim pson
Ġviol ations
Ġin ad
Ġad s
H aw
Ġfl ank
y arn
ĠN urs
unc her
ĠD ifferent
Ġa min
Ġpart itions
Ġsc ream
Ġansw ered
ad j
ERT Y
Vis it
ĠWrit ers
Ġinfer red
r ors
ol y
ĠA ve
ĠDivis iÃ³n
bibli ograph
P a
ĠC ort
Ġcomm enced
ĠThrough out
] \\
Ġsub tract
ĠRe ports
Ġdat abases
ĠP oss
ff bb
Ġlift ed
Us ername
Ġintegr ating
B rown
ĠC lement
ĠT anz
r ates
am on
Ġcall er
Ġcitizens hip
Ġtrans mit
l ists
Ġobserv ables
ĠS ometimes
big skip
ĠDirect ory
L iter
ĠProv incial
Ġfavor able
ĠAll an
Ġpass ive
Ġprec ip
w ear
qu ick
ĠByz antine
ĠSo ft
B G
ĠHend erson
ĠBl u
s al
ĠH ale
Ġ\ }$
un al
Ġpred icate
N atural
16 1
Ġt uning
we i
18 39
icens ing
ĠN H
E u
display math
ĠMichel le
ĠB ee
ĠD ale
ĠEvery thing
Ġsingular ity
st ellar
bound ary
B in
Ġevent ual
ĠHind i
D imension
ĠT at
ĠAcadem ic
ĠX X
' ):
Ġt ong
ĠH ip
ĠUr ugu
Ġtow ers
Un able
mark er
ĠCap itol
ĠV at
A IN
ĠT F
ter min
ĠR ut
}} +\
Ġparticip ant
Ġveter ans
ĠI con
Th an
PRE FIX
ac ements
ĠN uclear
ak o
ĠFranc o
Ġb achelor
AT T
Ind icator
Ġlegit imate
Str ings
p ark
Ġar rows
Ġen force
ib us
Are Equal
ev o
As ian
ĠInitial ly
Ġkw args
Ġexp enses
F ROM
el ong
Ġrel atives
F at
Ġwork flow
col m
}] \
Ag ain
ĠM T
ĠL odge
So ft
Ġs ock
H op
m and
Ġox id
Ġshe ep
bibliograph ystyle
uc ci
P rem
cr im
v t
big gr
* >
th reshold
Ġadd itive
Pol ish
Ġcapt uring
cover ed
å º
J oe
V an
ĠPl ate
RO W
ĠPer haps
AME TER
Ġb ats
Ġle ver
aver age
Ġsimple st
Ġcontain ers
ĠOther s
C orn
× Ķ
ĠIN TO
Ġc aption
ĠA sp
Ġex ec
S el
20 6
ap prop
lock ed
Ġspread ing
A ge
m ind
Ñ Ħ
Ġd os
Link ed
ide a
Ġcomb inator
Ġloc ale
N orthern
Ad ministr
Ġaw esome
t ick
an mar
ĠP rec
View s
ĠĠĠĠĠĠĠĠ čĊ
ĠB anks
Dem ocratic
Ġa erial
XML Schema
Ġassemb led
isc opal
Ġd upl
Cal ifornia
Ġicon ic
Ġreli ability
Ġsimpl ify
; -
Ġc s
fam ilies
n at
She ll
im ming
ĠPresident ial
ad apter
ĠK err
G reg
Ġgram mar
Ġun incorporated
Ġd ancer
reg ation
MA KE
Ġapproach ing
Sign al
ĠSet tings
ut ic
Ġlong itudinal
Ġdef ects
pay ment
W all
IS H
found ed
ä¸ Ģ
Cal cul
Ġpre y
Ġvocal ist
M AC
Ġgame play
16 3
Ġless er
Ġimplement ations
Ġdr unk
j in
an ions
ĠC ool
Ġr ays
Ġcolon ies
em ployment
cl ub
... ,
out line
Ġepoch s
r brace
Ã¤ r
Ġfood s
ĠDub ai
Ġcler gy
Ġarchae ological
ĠW ire
F ilters
Ġob ey
Ġcur l
Ġtheat rical
Ġint elligent
å °
te in
Ġcalcul ating
Ġflood ing
ĠIn fo
18 38
Ġtrans c
itt ers
19 3
Fil ename
N AS
17 8
ĠCh in
Ġro ok
Ġatt achment
gr ades
ĠInt roduction
ĠGib son
= {\
h ub
Ġarg c
ĠT ennis
ĠPart ners
Ġmot iv
unt ed
ĠAv ailable
Icon Error
v b
ĠInd igenous
ĠMal ta
ĠH off
B all
ĠClass ical
d g
Ġinv ari
+ "
\' {
Ġab olished
ĠSO FTWARE
ap ur
00 4
ĠV M
Ġhom omorphism
Ġe y
anc ies
Ġenc rypted
ĠVal ues
ert s
xym atrix
V T
Ġstrugg led
ĠM Ã©
ĠTh ank
ĠB ever
ĠG ent
iz za
Ġsal ary
Ġsla very
ĠBut ton
18 41
ĠSh ore
but tons
other apy
field set
Ġupd ating
Ġillust ration
ĠAz ure
eg ovina
Ġindic ation
s ound
ĠM TV
amb o
S heet
Ġse ized
Ġcasual ties
Ġext inct
ĠBr as
}, \\
Ġserial ized
List eners
FLA GS
ĠAr ctic
Ġdeliver ing
Ġsuccess ion
Ġgenu ine
! ,
Ġr s
<? >
Ġm aid
}_ +
es se
conf irm
ĠB il
get Property
od ium
Ġcounter parts
Ġmod ulation
ĠJam ie
) ~
ĠQu estion
Trans l
habilit ation
Ġcomed ian
' (\
ĠC ou
ĠM ead
ĠT error
Ġr ivals
Equal To
neut ral
ĠL t
Ġsp anning
ĠMin i
ĠBurn s
C atalog
Ar n
Ġnomine e
Ġl on
manif old
ash ire
Ġde alt
ĠG Ã¶
Ġrep o
ĠL it
ĠGu itar
ĠD ATA
ĠBarn es
W H
Ġmut ation
Ġa xi
ĠP or
av atar
V S
Ġexponential ly
pro port
Ġ' $
Ġsav ings
Ġsail ing
J eff
font s
log y
Ġout lined
in ite
ĠM N
cipl inary
int age
ĠBou levard
ĠR iv
F ellow
Ġ( <
iling ual
** :
Ġnorm s
sat isf
C MD
Ġt a
ĠX box
Prim itive
Ġt ick
Ġrect angular
Ġhol omorphic
li um
Ġdiscuss es
; ;
L im
oc on
Ġret ro
T ick
Ġc avalry
Ġcharg ing
G Hz
k now
ĠM uk
Ġwid ow
Ġpropag anda
INST ANCE
ĠNob el
fe at
ĠTrans form
ĠBer ry
S ink
Ġcarri ers
Gener ate
ĠCustom er
ra ising
custom er
Ġimprison ed
qu ire
Ġ" ")
f its
comp ose
ne um
ot yp
ĠCon sumer
Ġop posing
ĠSand ers
Ġpro sper
Ġodd s
Ġflux es
Ġacc us
K h
ed uc
Ġcompress ed
Ġtransport ed
g ls
Ġc ere
ĠF inals
scal ar
Ġtouchdown s
er als
Ġt actics
IconError Encoded
ĠT ir
ĠC anyon
ST AR
ĠLuc y
g ang
ĠCHE CK
ĠInd ividual
Author ization
ĠR as
end ors
Ġex empl
ne apolis
Ġtri angular
2 15
Col lector
be am
amm ad
ĠMic he
z ier
Ġun ified
Ġprop ri
ĠG PU
Th ank
Ġpass phrase
Ext ended
st orm
Ġx si
++ ++
enz ie
Ġcaus al
ĠM R
Ġfre ight
Ġfaith ful
---- ---
Ġreb els
I ran
Pol itics
ĠGl ou
}{ $\
ĠTr igger
Ġâ ĪĴ
ĠBi ography
ĠPot ter
ĠH our
ism atch
C odes
l ord
V ictor
Ġ )$
ĠE mail
ĠLore n
Ġbot an
Ġind uce
Ġexp ans
ĠFrank furt
Ġcoinc ides
) ?
as per
Ġtest imony
Ġprison er
ĠP ool
ĠW end
anc o
y ang
ud er
Ġsh oes
Art ifact
um en
DE LETE
ĠPl aza
Ġkey word
Ġtox ic
ĠZ end
nob r
F all
ĠF emale
ĠRobert son
W P
ÅĤ aw
T ARGET
UP DATE
ĠB in
ĠAdvent ures
m achine
Ġn ic
ĠC e
if s
' }),
Ġin ert
ĠCoal ition
T rees
we ather
Ġtre as
Ġcharacter ize
center line
ĠS ent
un ar
ĠW or
Ġ ì
Ind ividual
] ^{\
Ġpost ing
ĠA sc
b is
24 5
M X
W IT
ĠS hen
Ġliter acy
P ur
St udio
Ġen larg
Ġf are
Ġmon ster
do i
ĠÃ ĸ
ĠF ra
ĠT rent
ĠAn im
Ġjust ify
ut z
=" //
18 36
ĠAnd ers
uk u
ĠMar sh
ĠChe ss
P ot
ç ½
Back up
S dk
x l
() `
the se
ĠT aking
Ġrobust ness
Over flow
ĠBudd h
ĠY an
Play ing
re ports
le ston
Ġ ÑĤ
product s
ĠM eta
Ġfinal e
ĠAb original
E lem
ĠV iv
Î º
Ġconjug ate
ĠJess ica
ĠM emphis
ĠQ atar
Ġneighborhood s
remove Class
F oo
il ion
ars ity
Ġwitness es
ed ing
Ġtem ples
" }
ver ts
Ġcr uise
eck er
Ġmur ders
Ġprompt ed
Ġmidfield ers
ĠM ale
> ';
Ø ¨
or ic
Ġp index
ĠQ uality
ae us
Ġpen et
ĠSol id
t el
u ator
abil istic
ĠL ar
Ġbackground s
ĠF est
ĠRE AD
Ġund ers
Ġreal ization
scal ebox
Ġanticip ated
ret val
ĠT ales
Ġon click
ĠExper ience
Ġcontribut es
sc riber
ĠLyn n
idd ing
( $\
d id
br acket
}) }\
ĠQ String
Ġleg ally
ĠIn it
car ousel
Ġm ere
Ġsp ins
ici ary
St eve
Ġdual ity
Ġd ining
Ġdepos its
M N
ht b
n or
Ġbenef icial
G er
ĠStat ement
ĠW ool
Ch icago
ĠH ook
ĠMan ufact
g io
short cut
d yn
F IN
ĠEll en
Ġse al
ĠL ines
~ {\
Ġtr ucks
Ġinterview ed
it atively
ow ards
Ġbott le
Ġlogarith mic
ĠL ik
ĠN L
Ġland mark
F ive
ĉĉĉĉĉĉĉĉ ĉĉĉĉ
Ġpl ug
Ġdesign ing
Ġtransform s
led on
ĠD evelop
Con figure
Ġlater al
Ġtor ped
ĠGr ass
ĠD ob
Ġn est
ĠO THER
Mean while
Ġbound ing
Ġunc over
Ġsimilar ities
Ġan notations
18 35
Ġm oll
Ġdevelop s
ĠS ymfony
IS O
Ġreport ers
="# ">
Ġaccept ing
an ian
Ch oice
algorithm ic
ĠPop ulation
Ġflo ors
ov y
Pol iticians
00 7
ĠA ch
Ð¸ Ñı
ĠE asy
col ogical
ĠN R
ĠA way
17 7
V s
im ize
ĠEm ploy
Ġdo zens
hard t
Ġdiagn osed
ob ar
les h
Over lay
cal c
Ġnovel ists
ĠBor is
N ick
ĠP iano
Ġn oun
Ġevery body
el n
S IGN
ĠInvest ment
big oplus
W F
Ġadv isor
ĠCurt is
ĠCl ick
ĠPh one
Ġche ese
ĠR A
rows ers
ĠK end
Ġrefere e
K en
ĠS ons
Ġsuggest ion
we ights
ĠTour ism
ĠExcell ence
Ġper pendicular
Ġdead line
Ġnational ly
Ġcirc uits
ĠLes lie
comm ands
ĠPract ice
ĠC off
17 4
; ]
Ġrel ates
Ġunder went
col one
mem Item
w ald
ĠRail ways
oy a
ric ia
Ġsw ap
Ġl ac
add EventListener
Ġul tra
DI RECT
ag ain
æĸ ĩ
ĠEug ene
lef trightarrow
3 40
om ar
Ġde grad
Ġattack er
ĠS urg
n ational
st ones
il io
pe x
ĠSant iago
Ġelectron ics
so lete
Ġsup pression
Ġvict ories
á ¸
control s
Ġdon ations
ĠD awn
cor relation
ĠBelf ast
ĠM aking
n st
È Ľ
Ġc uisine
Ġpost er
Ġsac red
p ared
Event Args
C riteria
Ġrel uct
ĠCond ition
ĠShort ly
Ġcust ody
æ Ŀ
const ants
std err
D OCK
le arn
Ġv anish
ex perimental
Ġvin yl
_{ {
Ġwant ing
ĠSac ram
Ġdub bed
K A
p referred
seud o
ĠAss umption
ĠGener ate
Ġform ulated
print s
Ġpregn ancy
ad h
oc cup
Ġch orus
U Int
18 2
Inst ances
he y
che l
m us
Ġstr at
ad al
Ġp ension
Hor izontal
ĠEd mund
Ġelim ination
Ġg ods
g as
ĠRel igion
ĠAp ost
Ġbr acket
Ġkil omet
ch ip
Let ter
ĠBre xit
Ġmain land
ĠTr in
au f
ĠAlexand ria
the m
Ġback end
DE P
ĠLux embourg
O ps
res a
enc oder
Ġencour aging
ĠForm ation
ĠS ame
ĠH od
ĠG othic
itro gen
ĠR s
ĠL enn
Ġhe ir
With in
ĠAl leg
widget s
Ġcommun ist
ĠInter ior
T oggle
ess ing
m ixed
pr inc
Ġon set
ec a
Ġcl ay
Ġrespons ibilities
Ġres iding
Ġpar as
Ġreve aling
Ġton ight
Ġsur pass
ĠMon itor
Ġsh it
ĠNew port
[ {\
Port ug
ĠCall ed
\ ":
Ġ' {
Ġinter rupt
ĠP ok
ext ends
ĠIN T
Ġwithdraw al
Ġc ig
Ġb esides
Max imum
Ġelabor ate
20 9
Ġnob ody
Ġneighbour ing
eb ook
R out
Ġschedul ing
Ġrel ativistic
ĠC ay
Ġtre ating
A k
ĠD ylan
]{ ./
c ia
ĠB rowser
ĠH P
ĠSte am
Ġdegener ate
Ġs orry
Ġdec oding
ĠD ialog
Cl osed
ĠR NA
Ġco arse
ic ies
ĠCar roll
Ġweak ness
St an
ĠK lein
ĠGu ang
Ġimportant ly
ĠTem plate
ĠDom ain
d ed
ĠC av
Ġcontribut or
18 32
din and
re ply
ĠR overs
ĠGram my
Ġvol atile
May be
Gate way
ĠCont roller
Ġmag ical
` :
Ġbranch ing
ĠI sh
ĠV e
Ã µ
Republic an
ĠDirect ors
AP PL
Ġterm inated
Ġload er
Ġnep hew
ĠTH IS
R h
Ġin clusive
s ymmetric
en stein
ĠL ynch
LE VEL
m ud
? }
M ic
ĠH appy
Ġconscious ness
å Į
enn ium
Ġvo iced
ir ie
ĠS amsung
Ġrele vance
Com pute
ĠH ern
Ex ec
ĠBr ain
Ġfar mer
c ro
n pm
The ir
Ġ(! $
alk eeper
20 7
mult ip
M arg
ĠTh ink
27 5
Ġmot ions
ĠMor rison
tok ens
Ġavoid ing
communic ations
Ġarg uing
Ġemphas ize
ter bury
w m
16 00
Ġcor on
Ġhom osex
Ġc ord
ĠAtt ack
Appe arance
k ok
r ina
ĠShe ll
ian i
ain es
Ġke V
C NN
ĠH ab
Vert ical
âĦ ¢
Abs olute
ĠCl uster
n h
he ets
nd ez
Ġv el
C ong
{ }\
gtr sim
E th
go og
Ġpress ed
=" {
Ġsp ite
let ing
W ire
B rien
Dis patcher
Ġtack les
Ġsqu ared
it les
Ġpup ils
moment um
Ġsymbol ic
ĠStart ing
ĠHerz egovina
I LED
y our
ĠLe ave
ĠEn able
Ġexceed s
ĠStrateg ic
ĠD um
ĠSl av
C tx
ott i
}$ ),
Ã± o
Face book
ĠF ergus
LIN K
Ġconc aten
ĠA chiev
] >
Ġcons erv
L if
ip ur
itt en
, </
c ourt
ext ended
ĠTest ament
Ġmo ist
Ġgrand son
le man
ĠM ask
Ġelder ly
ĠIniti ative
N EL
Ġ. /
ographer s
Ġturbul ent
ht ra
Ġdram atically
æ į
ĠS TD
Ġout s
Ġhom eless
rosso ver
Ġc otton
Ġlaunch ing
Ġh ometown
Ġprot agonist
Ġsymmet ries
ĠElect ronic
ĠFif th
Ġinvest ed
Ġmotor cycle
Ġ$ -\
Ġr ic
ĠK ot
ĠWinn ipeg
ĠRol ling
sub str
}. $
Ġob l
Ġn u
ĠAn at
se ver
ov i
ĠD ow
ĠAr senal
ĠRes erved
Ġspec imens
s and
Ġrevers ed
MA G
Ġa pt
Ġh ack
ram id
g age
ĠN atal
ĠJ ourney
Ġsculpt ures
Ġle ather
Ġam endment
Ġre pro
Ġtom orrow
ed ar
oper ative
Perm issions
Ġconvers ations
W ay
Ġex tern
Ġconf ined
ĠBer k
u ard
Ġb ones
Ġserv ant
ĠAd rian
as ive
Ġd jango
ĠThe me
Ġindiv idually
ĠFe atures
t abl
( []
S and
Ġb arr
ĠEm my
ĠAL L
Q R
Ġp ec
ĠH ood
Ġanom aly
nt hesis
D igital
aus ed
Ġaccording ly
em bed
IC S
Direct or
Ġreflect ing
ĠC rystal
up les
ĠBas in
ly mouth
áĥ Ĳ
ft en
Through out
K B
ac l
Ġoverwhel ming
ĠW A
Ġf ights
Ġconsum ed
ĠObserv able
cur r
T a
ĠĠĠĠĠĠĠĠĠĠĠĠĠĠĠĠĠĠĠĠĠĠĠĠĠĠĠĠĠĠĠĠ ĠĠĠĠĠĠĠĠĠĠĠĠ
ĠM illion
A CTION
Y P
e o
}} )\
quant um
Ġstrugg les
atern ity
ĠBit coin
ĠAmer icas
ĠFilip ino
ĠClin ical
c ategor
Ġb ail
get Text
colone qq
ĠC i
_{ (\
dim en
ident ial
Ġstup id
Ġsc rew
17 1
L ess
Ġkick ed
l ore
Iss ue
path y
Ġce iling
ount ers
ĠJ et
Implement ation
r k
Ġmeas urable
Ġbroadcast s
ug a
Ġfro zen
Ġamb ient
cos ity
is le
ĠAl bums
st re
Ã¨ s
sh iv
Ġinter im
Arch ive
>: ]<
Ġcollabor ative
Ġh ierarchical
pl iers
in ia
PO INT
Dep artment
C U
ĠML B
Ġn urse
CON ST
ĠPoint s
Ass oci
am oto
ĠU tt
Â «
ĠUn ity
ĠS ens
Ġlic ence
H it
Ġ" ./
Ġcor poration
M Hz
y i
ier i
Ã© m
table block
Ġgen res
PAR AM
ĠNot re
Ġm k
Class ification
Ġdiv or
Ġfre estyle
ass is
ĠFI LE
Ġem itted
ĠÐ ·
Ġst om
Cl ip
Ġperform er
Ð° ÑĢ
al bum
Ar c
ĠStaff ord
Ġtel escope
M ASK
tab End
Ġcour age
ĠRem ember
S ta
bal ena
Ġdeprec ated
it ian
get Key
Ġs ulf
Ġg em
ĠK ab
correspond ing
Ġ rip
Ġaggreg ation
ĠH ack
arri e
Ġhar sh
o ct
thread s
Ġz eros
Ġcon qu
Ġincorpor ating
^ +\
ĠI stanbul
Tag Name
ack now
SE C
Ġtermin ology
os ion
resize box
oxy gen
Ġcast ing
Ġrap per
ĠChem istry
id an
ĠK w
ob ic
oph ys
ĠFight ing
Ġf et
fold ing
ĠN P
17 3
ros se
ĠHy per
ĠK oh
Pro blem
O rient
cl air
ich let
renew command
ĠFern ando
ĠP ush
ĠH ess
- )
B inder
P ACK
y aml
ĠLeg acy
ro ve
ĠR i
Dependency Injection
7 20
Ġde cent
Ġr ises
ok i
18 4
17 9
ĠCon structor
ĠÐ ¼
ne ed
ĠMar shal
ĠDr iver
l uc
Ġme al
ĠHol ocaust
with in
ĠL ooks
ĠAntar ctic
Ġw age
Ġj er
St d
il ogy
ĠSc i
Ġdev iations
ĠS leep
bit coin
SU PP
Ġd ys
Ġ} ));
Ġad apter
S pect
ip zig
ĠPro b
23 4
ins ki
ch urch
ak t
CE PT
ĠBel le
ç ±
Amer ica
s ass
Ġundert aken
ĉ ĠĠĠĠ
Ġunve iled
Ġmet abol
Ġrecon struct
ĠA U
Fr ag
Ġrank ings
ĠSet ting
ĠPsych ology
ĠEx pedition
ĠLanc ashire
D am
. &
g rey
ĠF ocus
Ġl azy
AS C
N ER
Ġcre atures
ĠP on
ch in
Ġreg isters
ĠJes se
ĠProduct s
[ ],
com ed
ĠH app
Ġnom inal
Compiler Services
ĠT itan
Ġsem antics
Ġcost ume
in ja
ĠF ollow
}} _\
bat im
Ġshut down
Ġv ault
Pop ulation
Input s
Ġreason ably
Ġcal m
art icles
Ġtim eline
ĠCard iff
ours es
is ure
A H
o que
ĠMov ies
b h
Ġaddition ally
M argin
Ġinvent ory
Ġferm ions
Loc ator
f v
Ġp aired
Ġtend ency
TE GER
Ġlocomot ive
ong s
ik er
comm ission
TO OL
Ġf erry
Brazil ian
Ġsequ ential
ĠPro ducer
." ;
Ġcelebr ity
@{ }}
ĠJ i
30 8
* (
T ech
DO WN
ĠD ynamic
ĠSol utions
Ġb arriers
Ġ' ../
Ġpick ing
Ġb uck
Ġk ings
Ġbro ker
Ġobtain s
k ed
ĠIn stance
j obs
ĠDr um
> -
ĠX I
inter action
ĠB uy
ĠH ull
Col on
Ġev olve
max imum
H ist
ä ¿
yl on
ĠS ustain
the ir
ien ne
Ġmort ality
ĠH ann
ath olic
Ġdo i
stad t
Open Tl
ĠMerc ury
I ce
(" <
ĠA pi
ch anging
Ġprof its
3 80
n ested
ĠÐ ±
Ġp ocket
ĠSt akes
head s
s ided
ĠP irates
ĠCoun ter
o in
ĠR ect
charg ed
Ġl ymph
comp atible
O O
Ġcur ved
Ġaut umn
Ġv iral
Ġra ises
ĠDocument ation
ĠDe leg
tem plates
Bel g
Ġcha os
à ¹
cor r
head ed
Ġcoordin ator
Ġa u
ce q
Par cel
Phys ical
ĠB rent
ĠWag ner
ĠLithuan ia
Ġcol lector
Ġreg ret
Sup plier
h urst
ĠC raft
Ġt idal
Ġbe ams
RE AM
C itations
Ã ®
Ġturbul ence
under brace
ing ing
ĠD w
Desc ribe
ber y
Ġab ort
So ftware
N i
ĠR ather
Ġres ume
Ġbreak down
ENT ER
Ġwh is
Event Handler
Ġp el
ĠMc N
Q UE
aint ed
Ġexpl ores
Ġb undles
ĠG ael
FO RE
& +
Ġd ad
Ġn ervous
ĠC OP
Ġtechn ological
Ġret iring
b uck
r ust
associ ated
Ġenc ounters
any a
ĠAnd rea
UN K
ĠGarc ia
Ġpriv ately
F a
Ġb ab
ĠB end
Ġpresent er
li o
Ġstat istic
ĠKing ston
en za
Ġhe aling
sh aw
ĠSe oul
ĠK iss
30 3
Ġv iable
ĠManit oba
j ournal
File System
Check er
| {\
Ġinter ven
Link s
Ġbur den
ĠSu ite
Ġl ighter
Ġneg lected
v id
ĠF eed
add on
ĠPat tern
Ġto y
ĠQ t
Ġgovern ance
Ġdam ages
ard e
D u
Ġsm ile
Re ceiver
ĠBened ict
Ġthere in
Pac ific
ĠI EEE
ant le
Ġmanip ulation
os i
Ġqu bits
Ġview er
av g
Histor ic
] }\
ĠZ ag
IT S
Ð½ Ð¸
c ool
E t
Elements By
ĠBra h
c odes
ag in
Ġqu otes
t alk
Ġdec imal
( ",
Ġgr ateful
H i
ĠC ash
ĠT rip
> ("
ĠIndust ries
p es
Ġst ays
C ut
or acle
integ ration
Athlet es
T ITLE
Ġprev ents
ans on
Ġdet erior
ograph ies
0 100
od i
iz ational
}} }{\
Ġprem ises
Vari ables
ĠEu rop
ĠJul ie
ĠHard y
ĠY a
Ġfin ishes
window s
fail ure
Ġconfirm ation
Ð ¶
× ª
p ick
is ive
Ġin ning
ĠW on
------------ --
T ODO
). $$
ĠSebast ian
R ele
col span
Ġqual itative
n om
Ġtr ails
DE VICE
Ġbow l
t ed
ĠPr ide
Ġconcept ual
ĠK ang
ĠComp anies
Draw able
ĠCelt ic
S ens
Ð Ł
Ġ' </
ĠReg ular
byter ian
Ġquestion ed
imb ledon
Ġtribut ary
Ġspons or
Ġ- &
Ġhand ful
B log
ĠF ay
ap on
inter faces
ĠBur ton
ĠH err
Ġlast ing
Ġaut obi
Perm alink
> ');
ram er
Ġposition ed
es p
Ġinv itation
30 2
OFF SET
Ġsl ots
ĠSloven ia
if ax
ĠB P
}) :
ĠCr us
Ġf u
Ġm all
): =
ĠEd monton
ĠJeff rey
Ġst aged
ĠX ml
ĠContin ental
Ġdiscontin ued
CC CC
parent s
ĠE L
Un its
Ġcare ers
ĠSign al
Ġdisband ed
S und
ĠT roy
ĠP engu
Ġco ached
ĠChem ical
p ure
Ġgrand mother
n r
ĠR ac
W ang
c g
ĠCr isis
NOS CRIPT
p oll
ĠS event
Ġpurs ued
^* ,
iffer ential
Ġinfr ared
UT O
pars ed
Ġs ymplectic
Base ball
atter ing
year s
* {-
SE D
S ix
ĠD ong
ge ons
Ġth umb
ins k
Ġlack ing
ast ore
ĠSt ack
Ġ# #
ĠWal sh
ĠEthiop ia
ĠS B
Ġo l
E mitter
I o
Ġsp otted
ĠMont eneg
ĠRub y
Ġ/** <
ach y
18 34
Ġbatter ies
ĠB L
h int
Pre view
ĠEv olution
cur l
Ġarch ives
? ,
G i
U pon
h ra
Ġh urricane
RE C
ĠG ross
Ġmer ging
an an
ĠM oss
Ġv ortex
Ġdis ability
ĠCl aire
Ġfib ers
Ġcat hedral
Ġemer ge
Ġp tr
ĠR he
Ġil leg
Ġw is
ĠCom pute
ĠFil es
ĠValid ate
Ġn ons
ĠD ew
ĠR az
Ġfl ush
Serial izable
ĠWIT H
Ġreplic a
ĠEston ia
, }
et z
Ġlect ures
if les
Ġto g
ĠR ica
ar ium
Ġincred ibly
ĠE isen
Ġshe ets
Ġp t
ĠR egin
18 15
ĠLiter ary
Ġglob e
al go
ĠTrib une
F inder
Ġcongress ional
Ġf ears
yr ac
Ġwitness ed
ĠChron icle
st mt
Ġafford able
Ġsu ited
b ower
Ġm eg
r int
Ġthe or
ĠÎ ±
comp any
Ġbet ray
Ġhand lers
act ivate
Ġwor ried
I BU
ex ceptions
land ers
Ġbreak fast
Ġconvolution al
Ġke en
C ycl
Typ ed
****** /
ĠN acional
ĠTreas ury
rec v
c yl
aceut ical
Ġpr ide
3 10
Ġf ingers
}\ )
Cl imate
ĠIm prov
D ot
Ġre ass
put es
Ġreg ards
ĠJohn s
Ġhash Code
est y
by e
Ġurg ed
ĠE k
ĠCath olics
C lock
Ġminim izing
Ġsh irt
Ġun ited
ĠMar l
en ia
op us
---- --
Ġout going
ĠW I
Ġaccommod ation
ĠPatri ots
Ġb ugs
af a
Ġmyth ology
w b
Ġmulti plic
ĠB inary
Ġbl end
ĠBar b
ĠLiber ation
A sh
Ġmet als
Ġload s
Con version
Ġstreng ths
}; \
Ġdir ty
ĠN ut
Ġref ined
Ġadj oint
ĠBi ology
Ġsingular ities
ĠBur ke
F X
Ġch icken
Ġsens ing
al most
ĠW inner
28 8
Ġtrans mitter
col head
Ġmetall ic
ĠLud wig
b ons
S ender
c apture
qual ified
N il
ĠMax im
Py thon
Que en
Ġapprox imated
ĠNO TE
rin os
] ];
ole y
Ġll vm
ĠJo el
Meta Data
op a
pret ty
Sm art
Any Ref
Ġir r
Mag ick
ĠBr andon
Ġreb ellion
ç± »
ĠA j
IP S
arr ass
ĠG ol
ST EM
Ġde ferred
18 1
22 6
Ġspace craft
ĠOs lo
Ġaccident ally
ĠS isters
inner HTML
; =
F ee
Ġhon ours
pre ced
Ġancest or
ĠAp plied
c ot
Im mutable
Ġret ire
ant o
j p
Ġc ube
Ġm aj
g iving
m ology
ĠT ouch
Ġout lets
Ġ[ (
ĠE E
rib es
( @"
Ġpr ay
Ġinn ocent
poly mer
in ant
weight ed
Ġvari ational
re li
ĠJ ur
Con struct
C zech
}^{ *
oupl ed
N s
Ġd ol
Ġtorn ado
ĠParalymp ics
Comp any
ĠW ak
Ġhyp ers
d ad
Ġide als
it Ã©
Ġst iff
ĠHun ting
Ġ ../
ĠHill ary
ORM AL
Represent ation
Ġp ent
Ġd ans
eg en
Ġb ore
Ġon wards
Ġemploy er
ĠHug o
an imate
) },\
Head ing
verb ose
il us
ĠL C
40 5
Ġess ays
Ġterror ism
ĠCom bat
Ġapproxim ations
Ġpublisher s
ĠCatalog ue
und o
Ġins ufficient
Att rib
ĠL ipschitz
Ġhad n
ĠS it
ad ors
}} ;
Ġw it
ĠElli ott
In clude
Build ing
à¥ ĩ
}$ :
Ġimprison ment
Ġsat ellites
ic ion
ĠMult iple
Pub Med
Ġprohib ited
Ġl anes
ĠAnn iversary
Ġclean ing
m are
st retch
Ġdig its
Cap acity
Ġequival ently
Ġl ucky
Ġsp o
Trans actions
Ġtransl ator
istribut ions
Ġ nd
ĠD iana
ĠW WE
Ġdis advant
Ġsk ull
B ir
om al
brit ies
Ġtrust ed
M unic
Ġ[ ...]
ĠSh i
Ġbur ial
Ġphot ometric
Ġbe ings
J er
Ġafter math
ĠCy ber
ĠEconom y
ĠM aid
ID s
c ers
Ġcont our
itor ies
E ll
[...]
