{
  "version": "1.0",
  "truncation": null,
  "padding": null,
  "added_tokens": [
    {
      "id": 0,
      "content": "[UNK]",
      "single_word": false,
      "lstrip": false,
      "rstrip": false,
      "normalized": false,
      "special": true
    }
  ],
  "normalizer": null,
  "pre_tokenizer": {
    "type": "Sequence",
    "pretokenizers": [
      {
        "type": "Digits",
        "individual_digits": false
      },
      {
        "type": "ByteLevel",
        "add_prefix_space": false,
        "trim_offsets": true,
        "use_regex": true
      }
    ]
  },
  "post_processor": null,
  "decoder": null,
  "model": {
    "type": "BPE",
    "dropout": null,
    "unk_token": "[UNK]",
    "continuing_subword_prefix": null,
    "end_of_word_suffix": null,
    "fuse_unk": false,
    "byte_fallback": false,
    "vocab": {
      "[UNK]": 0,
      "!": 1,
      "\"": 2,
      "#": 3,
      "$": 4,
      "%": 5,
      "&": 6,
      "'": 7,
      "(": 8,
      ")": 9,
      "*": 10,
      "+": 11,
      ",": 12,
      "-": 13,
      ".": 14,
      "/": 15,
      "0": 16,
      "1": 17,
      "2": 18,
      "3": 19,
      "4": 20,
      "5": 21,
      "6": 22,
      "7": 23,
      "8": 24,
      "9": 25,
      ":": 26,
      ";": 27,
      "<": 28,
      "=": 29,
      ">": 30,
      "?": 31,
      "@": 32,
      "A": 33,
      "B": 34,
      "C": 35,
      "D": 36,
      "E": 37,
      "F": 38,
      "G": 39,
      "H": 40,
      "I": 41,
      "J": 42,
      "K": 43,
      "L": 44,
      "M": 45,
      "N": 46,
      "O": 47,
      "P": 48,
      "Q": 49,
      "R": 50,
      "S": 51,
      "T": 52,
      "U": 53,
      "V": 54,
      "W": 55,
      "X": 56,
      "Y": 57,
      "Z": 58,
      "[": 59,
      "\\": 60,
      "]": 61,
      "^": 62,
      "_": 63,
      "`": 64,
      "a": 65,
      "b": 66,
      "c": 67,
      "d": 68,
      "e": 69,
      "f": 70,
      "g": 71,
      "h": 72,
      "i": 73,
      "j": 74,
      "k": 75,
      "l": 76,
      "m": 77,
      "n": 78,
      "o": 79,
      "p": 80,
      "q": 81,
      "r": 82,
      "s": 83,
      "t": 84,
      "u": 85,
      "v": 86,
      "w": 87,
      "x": 88,
      "y": 89,
      "z": 90,
      "{": 91,
      "|": 92,
      "}": 93,
      "~": 94,
      "¡": 95,
      "¢": 96,
      "£": 97,
      "¤": 98,
      "¥": 99,
      "¦": 100,
      "§": 101,
      "¨": 102,
      "©": 103,
      "ª": 104,
      "«": 105,
      "¬": 106,
      "®": 107,
      "¯": 108,
      "°": 109,
      "±": 110,
      "²": 111,
      "³": 112,
      "´": 113,
      "µ": 114,
      "¶": 115,
      "·": 116,
      "¸": 117,
      "¹": 118,
      "º": 119,
      "»": 120,
      "¼": 121,
      "½": 122,
      "¾": 123,
      "¿": 124,
      "Â": 125,
      "Ã": 126,
      "Ä": 127,
      "Å": 128,
      "Æ": 129,
      "Ç": 130,
      "È": 131,
      "É": 132,
      "Ê": 133,
      "Ë": 134,
      "Ì": 135,
      "Í": 136,
      "Î": 137,
      "Ï": 138,
      "Ð": 139,
      "Ñ": 140,
      "Ò": 141,
      "Ó": 142,
      "Ô": 143,
      "Õ": 144,
      "Ö": 145,
      "×": 146,
      "Ø": 147,
      "Ù": 148,
      "Ú": 149,
      "Û": 150,
      "Ü": 151,
      "Ý": 152,
      "Þ": 153,
      "ß": 154,
      "à": 155,
      "á": 156,
      "â": 157,
      "ã": 158,
      "ä": 159,
      "å": 160,
      "æ": 161,
      "ç": 162,
      "è": 163,
      "é": 164,
      "ê": 165,
      "ë": 166,
      "ì": 167,
      "í": 168,
      "î": 169,
      "ï": 170,
      "ð": 171,
      "ñ": 172,
      "ò": 173,
      "ó": 174,
      "ô": 175,
      "Ā": 176,
      "ā": 177,
      "Ă": 178,
      "ă": 179,
      "Ą": 180,
      "ą": 181,
      "Ć": 182,
      "ć": 183,
      "Ĉ": 184,
      "ĉ": 185,
      "Ċ": 186,
      "ċ": 187,
      "Č": 188,
      "č": 189,
      "Ď": 190,
      "ď": 191,
      "Đ": 192,
      "đ": 193,
      "Ē": 194,
      "ē": 195,
      "Ĕ": 196,
      "ĕ": 197,
      "Ė": 198,
      "ė": 199,
      "Ę": 200,
      "ę": 201,
      "Ě": 202,
      "ě": 203,
      "Ĝ": 204,
      "ĝ": 205,
      "Ğ": 206,
      "ğ": 207,
      "Ġ": 208,
      "ġ": 209,
      "Ģ": 210,
      "ģ": 211,
      "Ĥ": 212,
      "ĥ": 213,
      "Ħ": 214,
      "ħ": 215,
      "Ĩ": 216,
      "ĩ": 217,
      "Ī": 218,
      "ī": 219,
      "Ĭ": 220,
      "ĭ": 221,
      "Į": 222,
      "į": 223,
      "İ": 224,
      "ı": 225,
      "Ĳ": 226,
      "ĳ": 227,
      "Ĵ": 228,
      "ĵ": 229,
      "Ķ": 230,
      "ķ": 231,
      "ĸ": 232,
      "Ĺ": 233,
      "ĺ": 234,
      "Ļ": 235,
      "ļ": 236,
      "Ľ": 237,
      "ľ": 238,
      "Ŀ": 239,
      "ŀ": 240,
      "Ł": 241,
      "ł": 242,
      "Ń": 243,
      "ĠĠ": 244,
      "Ġt": 245,
      "in": 246,
      "he": 247,
      "ĠĠĠĠ": 248,
      "Ġa": 249,
      "on": 250,
      "er": 251,
      "re": 252,
      "at": 253,
      "Ġthe": 254,
      "en": 255,
      "or": 256,
      "st": 257,
      "an": 258,
      "al": 259,
      "it": 260,
      "ar": 261,
      "Ġc": 262,
      "Ġo": 263,
      "ed": 264,
      "Ġs": 265,
      "es": 266,
      "Ġw": 267,
      "ion": 268,
      "is": 269,
      "Ġf": 270,
      "Ġp": 271,
      "le": 272,
      "nd": 273,
      "ing": 274,
      "Ġin": 275,
      "ic": 276,
      "Ġof": 277,
      "Ġb": 278,
      "ro": 279,
      "ĠĠĠ": 280,
      "as": 281,
      "ĠĠĠĠĠĠĠĠ": 282,
      "Ġd": 283,
      "Ġand": 284,
      "Ġm": 285,
      "ou": 286,
      "et": 287,
      "ct": 288,
      "ent": 289,
      "Ġto": 290,
      "el": 291,
      "am": 292,
      "il": 293,
      "om": 294,
      "Ġh": 295,
      "Ġre": 296,
      "ĠS": 297,
      "ig": 298,
      "Ġn": 299,
      "ol": 300,
      "Ġth": 301,
      "Ġ(": 302,
      "ĠT": 303,
      "ation": 304,
      "id": 305,
      "ac": 306,
      "ĠC": 307,
      "im": 308,
      "Ġ\\": 309,
      "ĠA": 310,
      "Ġe": 311,
      "Ġl": 312,
      "ot": 313,
      "ur": 314,
      "Ġ$": 315,
      "ut": 316,
      "iv": 317,
      "ad": 318,
      "se": 319,
      "Ġis": 320,
      "ĠM": 321,
      "ul": 322,
      "ce": 323,
      "ĠĠĠĠĠĠĠ": 324,
      "Ġfor": 325,
      "Ġg": 326,
      "ow": 327,
      "ay": 328,
      "ĠI": 329,
      "od": 330,
      "ag": 331,
      "ch": 332,
      "em": 333,
      "un": 334,
      "Ġ=": 335,
      "ly": 336,
      "us": 337,
      "Ġon": 338,
      "if": 339,
      "ĠP": 340,
      "ĠB": 341,
      "ers": 342,
      "Ġst": 343,
      "um": 344,
      "ab": 345,
      "ir": 346,
      "Ġv": 347,
      "Ġbe": 348,
      "ist": 349,
      "ith": 350,
      "ĉĉ": 351,
      "20": 352,
      "âĢ": 353,
      "ap": 354,
      "th": 355,
      "qu": 356,
      "</": 357,
      "ate": 358,
      "ĠH": 359,
      "ter": 360,
      "Ġas": 361,
      "ĠR": 362,
      "Ġcon": 363,
      "pe": 364,
      "ĠD": 365,
      "=\"": 366,
      "ĠF": 367,
      "oc": 368,
      "ver": 369,
      "ĠL": 370,
      "19": 371,
      "Ġwith": 372,
      ");": 373,
      "and": 374,
      "Ġthat": 375,
      "čĊ": 376,
      "ri": 377,
      "ht": 378,
      "av": 379,
      "Ġ{": 380,
      "ction": 381,
      "Ġal": 382,
      "her": 383,
      "end": 384,
      "ĠThe": 385,
      "ex": 386,
      "ĠN": 387,
      "--": 388,
      "res": 389,
      "op": 390,
      "Ġwas": 391,
      "_{": 392,
      "ĠW": 393,
      "ĠG": 394,
      "Ġan": 395,
      "est": 396,
      "ain": 397,
      "Ġpro": 398,
      "up": 399,
      "Ġ<": 400,
      "ass": 401,
      "ew": 402,
      "ub": 403,
      "os": 404,
      "Ġby": 405,
      "ĠE": 406,
      "ess": 407,
      "Ġde": 408,
      "rom": 409,
      "Ġ\"": 410,
      "ort": 411,
      "ath": 412,
      "ity": 413,
      "ame": 414,
      "ĠĠĠĠĠĠĠĠĠĠĠ": 415,
      "Ġwh": 416,
      "Ġat": 417,
      "tr": 418,
      "//": 419,
      "art": 420,
      "Ġcom": 421,
      "pt": 422,
      "our": 423,
      "Ġr": 424,
      "Ġit": 425,
      "ore": 426,
      "all": 427,
      "eg": 428,
      "Ġ*": 429,
      "Ġex": 430,
      "ue": 431,
      "ine": 432,
      "ĠJ": 433,
      "pl": 434,
      "ill": 435,
      "ight": 436,
      "Ġfrom": 437,
      "ies": 438,
      "ĠĊ": 439,
      "age": 440,
      "Ġcl": 441,
      "ĠO": 442,
      "ak": 443,
      "ect": 444,
      "ure": 445,
      "ment": 446,
      "Ġhe": 447,
      "{\\": 448,
      "Ġor": 449,
      "nt": 450,
      "Ġ}": 451,
      "Ġare": 452,
      "Ġ&": 453,
      "Ġse": 454,
      "ial": 455,
      "ant": 456,
      "og": 457,
      "ud": 458,
      "ive": 459,
      "ge": 460,
      "cl": 461,
      "Ġ$\\": 462,
      "ack": 463,
      "iz": 464,
      "ber": 465,
      "ld": 466,
      "\">": 467,
      "'s": 468,
      "ef": 469,
      "Ġy": 470,
      "ans": 471,
      "ult": 472,
      "ext": 473,
      "ast": 474,
      "Ġthis": 475,
      "ref": 476,
      "ĠU": 477,
      "port": 478,
      "math": 479,
      "ard": 480,
      "per": 481,
      "Ġtr": 482,
      "ĠĠĠĠĠĠĠĠĠĠĠĠĠĠĠĠ": 483,
      "con": 484,
      "00": 485,
      "The": 486,
      "ip": 487,
      "ov": 488,
      "ated": 489,
      "Ġwe": 490,
      "..": 491,
      "ary": 492,
      "urn": 493,
      "201": 494,
      "ell": 495,
      "Ġch": 496,
      "ite": 497,
      "und": 498,
      "ĠK": 499,
      "orm": 500,
      "ich": 501,
      "ĠĠĠĠĠ": 502,
      "ust": 503,
      "act": 504,
      "ia": 505,
      "Ġsh": 506,
      "),": 507,
      "ign": 508,
      "are": 509,
      "able": 510,
      "int": 511,
      "sp": 512,
      "Ġpl": 513,
      "ff": 514,
      "**": 515,
      "ord": 516,
      "ph": 517,
      "ug": 518,
      "Ġnot": 519,
      "Ġle": 520,
      "ition": 521,
      "ire": 522,
      "ical": 523,
      "Ġk": 524,
      "ave": 525,
      "Ġ-": 526,
      "ong": 527,
      "ost": 528,
      "ĠIn": 529,
      "ian": 530,
      "()": 531,
      "ace": 532,
      "}\\": 533,
      "Ġclass": 534,
      "ang": 535,
      "}$": 536,
      "âĢĵ": 537,
      "In": 538,
      "ep": 539,
      "out": 540,
      "ase": 541,
      "Ġcomp": 542,
      "^{": 543,
      "Ġif": 544,
      "ind": 545,
      "ft": 546,
      "turn": 547,
      "ĠV": 548,
      "ype": 549,
      "com": 550,
      "ĠSt": 551,
      "ode": 552,
      "ok": 553,
      "li": 554,
      "ork": 555,
      "pro": 556,
      "ime": 557,
      "ma": 558,
      "ide": 559,
      "ile": 560,
      "ens": 561,
      "get": 562,
      "ice": 563,
      "str": 564,
      "Ġ'": 565,
      "to": 566,
      "uc": 567,
      "----": 568,
      "âĢĻ": 569,
      "==": 570,
      "erv": 571,
      "so": 572,
      "ations": 573,
      "Ġhis": 574,
      ").": 575,
      "ear": 576,
      "Ġwhich": 577,
      "ey": 578,
      "enc": 579,
      "Ġus": 580,
      "ence": 581,
      "ubl": 582,
      "200": 583,
      "ild": 584,
      "ions": 585,
      "fr": 586,
      "Ġ|": 587,
      "ec": 588,
      "ata": 589,
      "Ġwhe": 590,
      "ra": 591,
      "Ġres": 592,
      "Ġun": 593,
      "text": 594,
      "Ġj": 595,
      "ther": 596,
      "Ġhave": 597,
      "ib": 598,
      "ere": 599,
      "ĠCh": 600,
      "Ġcan": 601,
      "Ġar": 602,
      "ject": 603,
      "ory": 604,
      "form": 605,
      "ish": 606,
      "Ġhas": 607,
      "ance": 608,
      "}}": 609,
      "low": 610,
      "Ġad": 611,
      "ous": 612,
      "(\\": 613,
      "ould": 614,
      "ta": 615,
      "ach": 616,
      "ev": 617,
      "ĠĠĠĠĠĠĠĠĠĠĠĠĠĠĠ": 618,
      "Ġap": 619,
      "Ġcont": 620,
      "cal": 621,
      "Ġab": 622,
      "mer": 623,
      "Ġim": 624,
      "18": 625,
      "egin": 626,
      "ob": 627,
      "row": 628,
      "ress": 629,
      "begin": 630,
      "use": 631,
      "Ġreturn": 632,
      "Ġnew": 633,
      "own": 634,
      "ĠTh": 635,
      "irst": 636,
      "cc": 637,
      "ener": 638,
      "ublic": 639,
      "ock": 640,
      "ert": 641,
      "unction": 642,
      "ents": 643,
      "Ġalso": 644,
      "ail": 645,
      "Ġwere": 646,
      "equ": 647,
      "alue": 648,
      "ound": 649,
      "ount": 650,
      "fer": 651,
      "Ġ//": 652,
      "ree": 653,
      "rib": 654,
      "ll": 655,
      "10": 656,
      "Ġ+": 657,
      "ry": 658,
      "over": 659,
      "ict": 660,
      "Ġ[": 661,
      ")$": 662,
      "amp": 663,
      "rit": 664,
      "_{\\": 665,
      "hed": 666,
      "Ġall": 667,
      "old": 668,
      "ark": 669,
      "ors": 670,
      "ĉĉĉĉ": 671,
      "->": 672,
      "erm": 673,
      "ual": 674,
      "clud": 675,
      "one": 676,
      "ome": 677,
      "tern": 678,
      "Ġone": 679,
      "::": 680,
      "fig": 681,
      "Con": 682,
      "},": 683,
      "ates": 684,
      "abel": 685,
      "ink": 686,
      "te": 687,
      "Ġpart": 688,
      "ource": 689,
      "Ġbut": 690,
      "aram": 691,
      "Ġ</": 692,
      "wo": 693,
      "ose": 694,
      "inal": 695,
      "ik": 696,
      "St": 697,
      "right": 698,
      "uct": 699,
      "../": 700,
      "\",": 701,
      "Ġro": 702,
      "set": 703,
      "Ġdis": 704,
      "iel": 705,
      "}{": 706,
      "ull": 707,
      "Ġout": 708,
      "Ġstr": 709,
      "Ex": 710,
      "ĠY": 711,
      "we": 712,
      "ss": 713,
      "elf": 714,
      "Ġtheir": 715,
      "Ġsp": 716,
      "the": 717,
      "ize": 718,
      "ely": 719,
      "ĠUn": 720,
      "sc": 721,
      "rap": 722,
      "Ġ||": 723,
      "ick": 724,
      "Ġpr": 725,
      "Ġup": 726,
      "ics": 727,
      "Ġyou": 728,
      "Ġfirst": 729,
      "eq": 730,
      "rm": 731,
      "ng": 732,
      "frac": 733,
      "Ġ@": 734,
      "uch": 735,
      "ĠHe": 736,
      "Ġev": 737,
      "lect": 738,
      "Ġsc": 739,
      "ield": 740,
      "ĠIt": 741,
      "sh": 742,
      "Ġdef": 743,
      "ool": 744,
      "ption": 745,
      "Ġits": 746,
      "fter": 747,
      "Ġset": 748,
      "Ġme": 749,
      "ps": 750,
      "Ġ/": 751,
      "Ġob": 752,
      "yst": 753,
      "Ġplay": 754,
      "Ġper": 755,
      "ĠâĢ": 756,
      "eth": 757,
      "Ġqu": 758,
      "oint": 759,
      "ater": 760,
      "div": 761,
      "iew": 762,
      "Ġmod": 763,
      "Ġwill": 764,
      "ings": 765,
      "cite": 766,
      "pect": 767,
      "Ġhad": 768,
      "ational": 769,
      "ook": 770,
      "put": 771,
      "Ġint": 772,
      "red": 773,
      "ml": 774,
      "Ġdo": 775,
      "pec": 776,
      "ake": 777,
      "Ġother": 778,
      "ix": 779,
      "Ġ.": 780,
      "io": 781,
      "aw": 782,
      "ĠâĢĵ": 783,
      "les": 784,
      "Ġfunction": 785,
      "Ġte": 786,
      "Ġman": 787,
      "pr": 788,
      "199": 789,
      "Ġag": 790,
      "Ġwho": 791,
      "ray": 792,
      "Ġtwo": 793,
      "label": 794,
      "iss": 795,
      "Ġover": 796,
      "ne": 797,
      "mathb": 798,
      "roup": 799,
      "span": 800,
      "(\"": 801,
      "Ġdes": 802,
      "();": 803,
      "ie": 804,
      "Ġen": 805,
      "essage": 806,
      "12": 807,
      "ied": 808,
      "ystem": 809,
      "line": 810,
      "ery": 811,
      "cent": 812,
      "anc": 813,
      "Ġwork": 814,
      "sum": 815,
      "cess": 816,
      "lement": 817,
      "Ġmore": 818,
      "Ġher": 819,
      "Ġthey": 820,
      "></": 821,
      "lo": 822,
      "Ġname": 823,
      "Ġtime": 824,
      "Ġcol": 825,
      "igh": 826,
      "Ġvar": 827,
      "oot": 828,
      "ond": 829,
      "',": 830,
      "Ġpublic": 831,
      "left": 832,
      "Ġbeen": 833,
      "orn": 834,
      "mb": 835,
      "ences": 836,
      "ember": 837,
      "tring": 838,
      "ax": 839,
      "ular": 840,
      "Ġinter": 841,
      "$,": 842,
      "--------": 843,
      "ty": 844,
      "umber": 845,
      "land": 846,
      "$.": 847,
      "pos": 848,
      "eta": 849,
      "err": 850,
      "ons": 851,
      "Ġyear": 852,
      ",\\": 853,
      "Ġso": 854,
      "mathcal": 855,
      "Ġ:": 856,
      "ased": 857,
      "><": 858,
      "ms": 859,
      "ram": 860,
      "raph": 861,
      "arg": 862,
      "ople": 863,
      "vel": 864,
      "let": 865,
      "ative": 866,
      "Ġcomm": 867,
      "ribut": 868,
      "Ġpre": 869,
      "round": 870,
      "ited": 871,
      "ann": 872,
      "col": 873,
      "Ġund": 874,
      "ade": 875,
      "16": 876,
      "}.": 877,
      "Ġne": 878,
      "Ġwhen": 879,
      "ific": 880,
      "Ġget": 881,
      "ollow": 882,
      "ont": 883,
      "})": 884,
      "../../": 885,
      "cre": 886,
      "****": 887,
      "Ġind": 888,
      "Ġinto": 889,
      "Ġ*/": 890,
      "ican": 891,
      "ern": 892,
      "Ġsub": 893,
      "ĉĉĉ": 894,
      "Ġinclud": 895,
      "Pro": 896,
      "amb": 897,
      "ator": 898,
      "ames": 899,
      "oug": 900,
      "oy": 901,
      "Ġpe": 902,
      "Ġbet": 903,
      "Ġsup": 904,
      "ugh": 905,
      "Ġfil": 906,
      "15": 907,
      "app": 908,
      "ove": 909,
      "equation": 910,
      "tt": 911,
      "of": 912,
      "ward": 913,
      "imes": 914,
      "Ġonly": 915,
      "Ref": 916,
      "Ġtrans": 917,
      "als": 918,
      "Ġreg": 919,
      "oun": 920,
      "Ġoff": 921,
      "ood": 922,
      "oid": 923,
      "eb": 924,
      "ĠCom": 925,
      "Ġwhere": 926,
      "====": 927,
      "))": 928,
      "ER": 929,
      "Ġresult": 930,
      "arch": 931,
      "ange": 932,
      "ient": 933,
      "ox": 934,
      "ĠThis": 935,
      "ays": 936,
      "}(": 937,
      "ating": 938,
      "cond": 939,
      "ious": 940,
      "ĠAr": 941,
      "ĠĠĠĠĠĠĠĠĠĠĠĠĠĠĠĠĠĠĠ": 942,
      "Ġadd": 943,
      "âĢĿ": 944,
      "ee": 945,
      "resent": 946,
      "ĠĠĠĠĠĠĠĠĠ": 947,
      "atic": 948,
      "ck": 949,
      "17": 950,
      "eng": 951,
      "ivers": 952,
      "Ġthere": 953,
      "uild": 954,
      "Ġabout": 955,
      "ank": 956,
      "}^": 957,
      "Ġline": 958,
      "html": 959,
      "~\\": 960,
      "Ġact": 961,
      "Ġrel": 962,
      "ĠNew": 963,
      "Ġfollow": 964,
      "}_": 965,
      "ethod": 966,
      "che": 967,
      "Ġafter": 968,
      "olog": 969,
      "Ġloc": 970,
      "('": 971,
      "Ġdata": 972,
      "ise": 973,
      "ident": 974,
      "uring": 975,
      "198": 976,
      "Ġany": 977,
      "Ġend": 978,
      "ars": 979,
      "tain": 980,
      "Ġform": 981,
      "Ġass": 982,
      "ues": 983,
      "Ġ#": 984,
      "this": 985,
      "Ġhref": 986,
      "Ġrec": 987,
      "Ġwould": 988,
      "pha": 989,
      "ton": 990,
      "Ġkn": 991,
      "Ġdif": 992,
      "der": 993,
      "Ġacc": 994,
      "Ġpos": 995,
      "Ġunder": 996,
      "atch": 997,
      "Ġcons": 998,
      "ince": 999,
      "11": 1000,
      "Ġsuch": 1001,
      "Ġsome": 1002,
      "Name": 1003,
      "sub": 1004,
      "ren": 1005,
      "da": 1006,
      "yn": 1007,
      "Ġthen": 1008,
      "Ġpol": 1009,
      "ys": 1010,
      "ON": 1011,
      "Ġprov": 1012,
      "ities": 1013,
      "trans": 1014,
      "ween": 1015,
      "Ġshe": 1016,
      "IN": 1017,
      "oth": 1018,
      "ĠAl": 1019,
      "Th": 1020,
      "Ġco": 1021,
      "Ġthan": 1022,
      "source": 1023,
      "Ġdist": 1024,
      "ĠPro": 1025,
      "Ġtype": 1026,
      "Ġvalue": 1027,
      "ists": 1028,
      "ash": 1029,
      "irect": 1030,
      "its": 1031,
      "name": 1032,
      "Refer": 1033,
      "message": 1034,
      "Ġi": 1035,
      "abl": 1036,
      "alpha": 1037,
      "ures": 1038,
      "ral": 1039,
      "ished": 1040,
      "idth": 1041,
      "Type": 1042,
      "Ġno": 1043,
      "ript": 1044,
      "son": 1045,
      "orld": 1046,
      "lation": 1047,
      "Ġatt": 1048,
      "ĠSe": 1049,
      "min": 1050,
      "Ġinv": 1051,
      "Ġop": 1052,
      "param": 1053,
      "wn": 1054,
      "13": 1055,
      "Ġused": 1056,
      "14": 1057,
      "Ġshow": 1058,
      "Ġgener": 1059,
      "ement": 1060,
      "Ġph": 1061,
      "def": 1062,
      "ature": 1063,
      "ined": 1064,
      "Ġspec": 1065,
      "ally": 1066,
      "Com": 1067,
      "Ġserv": 1068,
      "Ġbetween": 1069,
      "Ġ_": 1070,
      "ility": 1071,
      "import": 1072,
      "rent": 1073,
      "dd": 1074,
      "Ġfe": 1075,
      "lock": 1076,
      "ision": 1077,
      "Ch": 1078,
      "air": 1079,
      "ily": 1080,
      "ider": 1081,
      "Ġpeople": 1082,
      "Ġprod": 1083,
      "Ġuse": 1084,
      "merican": 1085,
      "ts": 1086,
      "References": 1087,
      ")\\": 1088,
      "Ġmodel": 1089,
      "Ġrem": 1090,
      "uction": 1091,
      "ve": 1092,
      "rough": 1093,
      "String": 1094,
      "chool": 1095,
      "td": 1096,
      "Ġconst": 1097,
      "alse": 1098,
      "lection": 1099,
      "Id": 1100,
      "ternal": 1101,
      "elta": 1102,
      "any": 1103,
      "Ġbec": 1104,
      "ible": 1105,
      "197": 1106,
      "Ġcall": 1107,
      "att": 1108,
      "Ġsim": 1109,
      "ike": 1110,
      "ier": 1111,
      "Ġrequ": 1112,
      "arn": 1113,
      "Ġour": 1114,
      "25": 1115,
      "ĠSh": 1116,
      "ower": 1117,
      "Ġel": 1118,
      "ball": 1119,
      "ution": 1120,
      "ambda": 1121,
      "Ġstud": 1122,
      "Ġ=>": 1123,
      "Ġmay": 1124,
      "ason": 1125,
      "man": 1126,
      "://": 1127,
      "ask": 1128,
      "ines": 1129,
      "aid": 1130,
      "return": 1131,
      "ead": 1132,
      "Ġac": 1133,
      "code": 1134,
      "oh": 1135,
      "ins": 1136,
      "Ġent": 1137,
      "var": 1138,
      "ST": 1139,
      "yle": 1140,
      "ices": 1141,
      "RE": 1142,
      "Ġback": 1143,
      "Ġcur": 1144,
      "$\\": 1145,
      "bar": 1146,
      "ah": 1147,
      "Ġcre": 1148,
      "Ġmost": 1149,
      "ble": 1150,
      "ĠZ": 1151,
      "Ġnumber": 1152,
      "ĠQ": 1153,
      "ough": 1154,
      "ized": 1155,
      "Ġdiffer": 1156,
      "gan": 1157,
      "/>": 1158,
      "uth": 1159,
      "oci": 1160,
      "ĠâĢľ": 1161,
      "ĠWe": 1162,
      "hat": 1163,
      "mathbb": 1164,
      "ages": 1165,
      "Ġest": 1166,
      "Ġthem": 1167,
      "Ġsystem": 1168,
      "amma": 1169,
      "pon": 1170,
      "read": 1171,
      "Ġinst": 1172,
      "hip": 1173,
      "Res": 1174,
      "vent": 1175,
      "ache": 1176,
      "Ġgr": 1177,
      "add": 1178,
      "uff": 1179,
      "plic": 1180,
      "not": 1181,
      "ersion": 1182,
      "itt": 1183,
      "Ġself": 1184,
      "ule": 1185,
      "21": 1186,
      "_\\": 1187,
      "ument": 1188,
      "=\\": 1189,
      "az": 1190,
      "Ġdet": 1191,
      "30": 1192,
      "class": 1193,
      "align": 1194,
      "Ġgo": 1195,
      "Ġthrough": 1196,
      "Ġeach": 1197,
      "Ġ\\\\": 1198,
      "uss": 1199,
      "Ġchar": 1200,
      "itle": 1201,
      "AT": 1202,
      "item": 1203,
      "ault": 1204,
      "Ġcase": 1205,
      "}^{": 1206,
      "ots": 1207,
      "ym": 1208,
      "ception": 1209,
      "\"/>": 1210,
      "ĠTr": 1211,
      "Ġhim": 1212,
      "iversity": 1213,
      "mod": 1214,
      "##": 1215,
      "ause": 1216,
      "}_{": 1217,
      "ric": 1218,
      "Ġx": 1219,
      "Ġthese": 1220,
      "Ġpoint": 1221,
      "type": 1222,
      "apt": 1223,
      "Ġ!": 1224,
      "Ġagain": 1225,
      "ĠFor": 1226,
      "Ġam": 1227,
      "List": 1228,
      "ever": 1229,
      "part": 1230,
      "mu": 1231,
      "Ġgiv": 1232,
      "ho": 1233,
      "Cl": 1234,
      "196": 1235,
      "Ġcor": 1236,
      "igma": 1237,
      "Ġed": 1238,
      "ife": 1239,
      "Ġequ": 1240,
      "inn": 1241,
      "Ġsm": 1242,
      "Ġsign": 1243,
      "ĠCl": 1244,
      "orth": 1245,
      "22": 1246,
      "hen": 1247,
      "pi": 1248,
      "outh": 1249,
      "Ġwell": 1250,
      "Ġval": 1251,
      "ple": 1252,
      "ury": 1253,
      "ĠCon": 1254,
      "Ġcent": 1255,
      "Ar": 1256,
      "Ġfound": 1257,
      "...": 1258,
      "ale": 1259,
      "iver": 1260,
      "Ġser": 1261,
      "ega": 1262,
      "translation": 1263,
      "way": 1264,
      "Ġfinal": 1265,
      "section": 1266,
      "Ġoper": 1267,
      "Ġeff": 1268,
      "eter": 1269,
      "action": 1270,
      "ouse": 1271,
      "ole": 1272,
      "ute": 1273,
      "htt": 1274,
      "ĠCol": 1275,
      "reat": 1276,
      "__": 1277,
      "-\\": 1278,
      "Ġ`": 1279,
      "par": 1280,
      "aj": 1281,
      "ĠAs": 1282,
      "Ġfl": 1283,
      "Ġyears": 1284,
      "ĠInd": 1285,
      "press": 1286,
      "val": 1287,
      "ĠAn": 1288,
      "Ġbr": 1289,
      "Ġgroup": 1290,
      "ott": 1291,
      "back": 1292,
      "Ġ>": 1293,
      "AR": 1294,
      "ired": 1295,
      "Ġmin": 1296,
      "ample": 1297,
      "^{\\": 1298,
      "loc": 1299,
      "Ġmon": 1300,
      "000": 1301,
      "ism": 1302,
      "Ġ==": 1303,
      "fo": 1304,
      "Tr": 1305,
      "serv": 1306,
      "for": 1307,
      "esc": 1308,
      "50": 1309,
      "Ġlink": 1310,
      "ivate": 1311,
      "ments": 1312,
      "Ġsecond": 1313,
      "ization": 1314,
      "uary": 1315,
      "Ġthree": 1316,
      "):": 1317,
      "Ġsame": 1318,
      "log": 1319,
      "Ġrep": 1320,
      "Ġsur": 1321,
      "br": 1322,
      "ength": 1323,
      "yp": 1324,
      "self": 1325,
      "view": 1326,
      "Ã©": 1327,
      "Ġstart": 1328,
      "It": 1329,
      "by": 1330,
      "Ġnull": 1331,
      "OR": 1332,
      "Ġsing": 1333,
      "phi": 1334,
      "Ġtest": 1335,
      "erson": 1336,
      "ets": 1337,
      "Ġstate": 1338,
      "work": 1339,
      "ID": 1340,
      "Ġwhile": 1341,
      "lambda": 1342,
      "fore": 1343,
      "ĠAmerican": 1344,
      "ote": 1345,
      "ĠX": 1346,
      "Ġhow": 1347,
      "Ġhigh": 1348,
      "umn": 1349,
      "Ġever": 1350,
      "Ġsol": 1351,
      "Ġboth": 1352,
      "bf": 1353,
      "org": 1354,
      "Ġduring": 1355,
      "ĠDe": 1356,
      "LE": 1357,
      "overn": 1358,
      "Ġem": 1359,
      "mathbf": 1360,
      ".\"": 1361,
      "Ġusing": 1362,
      "gy": 1363,
      "ĠSc": 1364,
      "Ġlike": 1365,
      "Ġext": 1366,
      "ional": 1367,
      "ser": 1368,
      "Ġart": 1369,
      "Ġfield": 1370,
      "Ġbeing": 1371,
      "Ġteam": 1372,
      "\"><": 1373,
      "Ġerr": 1374,
      "24": 1375,
      "ody": 1376,
      "ĠFr": 1377,
      "ron": 1378,
      "fl": 1379,
      "ically": 1380,
      "els": 1381,
      "Ġdesc": 1382,
      "Ġ--": 1383,
      "Ġ)": 1384,
      "Ġappro": 1385,
      "ants": 1386,
      "Ġdifferent": 1387,
      "Ġ{\\": 1388,
      "ĠĠĠĠĠĠĠĠĠĠĠĠĠĠĠĠĠĠĠĠĠĠĠĠĠĠĠĠĠĠĠĠ": 1389,
      "Ġfam": 1390,
      "cept": 1391,
      "Ġtrue": 1392,
      "Ġlist": 1393,
      "ful": 1394,
      "other": 1395,
      "ke": 1396,
      "ared": 1397,
      "ĠLe": 1398,
      "ten": 1399,
      "Ġperform": 1400,
      "ĠEx": 1401,
      "Ġlong": 1402,
      "pre": 1403,
      "Ġdirect": 1404,
      "Ġsaid": 1405,
      "ather": 1406,
      "Ġlead": 1407,
      "Ġvoid": 1408,
      "Ġmethod": 1409,
      "We": 1410,
      "Ġrele": 1411,
      "ilon": 1412,
      "ĠUniversity": 1413,
      "194": 1414,
      "Ġmade": 1415,
      "til": 1416,
      "arly": 1417,
      "ek": 1418,
      "SS": 1419,
      "Ġfollowing": 1420,
      "ĠUnited": 1421,
      "opt": 1422,
      "Ġdec": 1423,
      "Ġbefore": 1424,
      "Ġdr": 1425,
      "string": 1426,
      "Ġjust": 1427,
      "bers": 1428,
      "ream": 1429,
      "width": 1430,
      "ww": 1431,
      "rop": 1432,
      "ived": 1433,
      "perty": 1434,
      "Ġmed": 1435,
      "ava": 1436,
      "ces": 1437,
      "ural": 1438,
      "Ġyour": 1439,
      "Ġrun": 1440,
      "Ġnon": 1441,
      "Ġfalse": 1442,
      "Ġpartic": 1443,
      "ĠĠĠĠĠĠĠĠĠĠĠĠĠ": 1444,
      "To": 1445,
      "arget": 1446,
      "me": 1447,
      "ross": 1448,
      "Ġmany": 1449,
      "Ġneed": 1450,
      "rr": 1451,
      "32": 1452,
      "ina": 1453,
      "formation": 1454,
      "AL": 1455,
      "usic": 1456,
      "ified": 1457,
      "EN": 1458,
      "ister": 1459,
      "Ġcond": 1460,
      "here": 1461,
      "));": 1462,
      "Col": 1463,
      "ency": 1464,
      "eps": 1465,
      "Ġwrit": 1466,
      "cd": 1467,
      "co": 1468,
      "array": 1469,
      "irc": 1470,
      "mathrm": 1471,
      "ger": 1472,
      "Ġcould": 1473,
      "ele": 1474,
      "ĠĠĠĠĠĠ": 1475,
      "Ġorder": 1476,
      "Ġright": 1477,
      "\\\\": 1478,
      "aking": 1479,
      "sigma": 1480,
      "ology": 1481,
      "ains": 1482,
      "ĠMar": 1483,
      "Ob": 1484,
      "ĠIs": 1485,
      "Ġnow": 1486,
      "Ġwhat": 1487,
      "----------------": 1488,
      "'t": 1489,
      "********": 1490,
      "beta": 1491,
      "rol": 1492,
      "lang": 1493,
      "istory": 1494,
      "gram": 1495,
      "ilde": 1496,
      "ane": 1497,
      "Ġelse": 1498,
      "led": 1499,
      "////": 1500,
      "enn": 1501,
      "cont": 1502,
      "*}": 1503,
      "Ġterm": 1504,
      "ohn": 1505,
      "ober": 1506,
      "Ġsupport": 1507,
      "ootball": 1508,
      "itions": 1509,
      "play": 1510,
      "Ġparam": 1511,
      "Ġmain": 1512,
      "Âł": 1513,
      "Ġshould": 1514,
      "af": 1515,
      "Ġmat": 1516,
      "data": 1517,
      "duc": 1518,
      "ases": 1519,
      "Ġgiven": 1520,
      "Ġdisc": 1521,
      "velop": 1522,
      "^{-": 1523,
      "23": 1524,
      "Data": 1525,
      "Ġown": 1526,
      "ĠEng": 1527,
      "mp": 1528,
      "Ġbel": 1529,
      "ulation": 1530,
      "ify": 1531,
      "med": 1532,
      "Ġmem": 1533,
      "iving": 1534,
      "cur": 1535,
      "ting": 1536,
      "try": 1537,
      "Ġbl": 1538,
      "key": 1539,
      "ler": 1540,
      "arent": 1541,
      "Ġdevelop": 1542,
      ")}": 1543,
      "ality": 1544,
      "ense": 1545,
      "new": 1546,
      "Ġ(\\": 1547,
      "ĠOn": 1548,
      "Ġpop": 1549,
      "Ġz": 1550,
      "Ġmov": 1551,
      "On": 1552,
      "ission": 1553,
      "raw": 1554,
      "roll": 1555,
      "ica": 1556,
      "Ġgu": 1557,
      "ley": 1558,
      "ĠShe": 1559,
      "Ġbuild": 1560,
      "ĠBr": 1561,
      "Ġlinks": 1562,
      "includ": 1563,
      "\");": 1564,
      "figure": 1565,
      "ner": 1566,
      "100": 1567,
      "Ġread": 1568,
      "que": 1569,
      "reg": 1570,
      "ually": 1571,
      "Ġid": 1572,
      "Un": 1573,
      "aining": 1574,
      "face": 1575,
      "une": 1576,
      "ives": 1577,
      "Ġrecord": 1578,
      "value": 1579,
      "Ġobject": 1580,
      "sy": 1581,
      "Ġfact": 1582,
      "omen": 1583,
      "Ġmy": 1584,
      "ced": 1585,
      "+\\": 1586,
      "ively": 1587,
      "Ġhand": 1588,
      "ĠComm": 1589,
      "]{": 1590,
      "ĠĠĠĠĠĠĠĠĠĠĠĠĠĠĠĠĠĠĠĠĠĠĠ": 1591,
      "Ġevery": 1592,
      "Ġconsider": 1593,
      "atus": 1594,
      "px": 1595,
      "ĠPl": 1596,
      "pend": 1597,
      "Ġplayers": 1598,
      "struct": 1599,
      "Value": 1600,
      "Ġcontin": 1601,
      "As": 1602,
      "istr": 1603,
      "195": 1604,
      "chn": 1605,
      "ĠPr": 1606,
      "Ġfin": 1607,
      "ering": 1608,
      "gamma": 1609,
      "\")": 1610,
      "Ġbro": 1611,
      "Ġopt": 1612,
      "au": 1613,
      "ential": 1614,
      "Ġfour": 1615,
      "file": 1616,
      "For": 1617,
      "etwork": 1618,
      "ĠPh": 1619,
      "theta": 1620,
      "requ": 1621,
      "lex": 1622,
      "arge": 1623,
      "External": 1624,
      ".,": 1625,
      "ograph": 1626,
      "Ġappe": 1627,
      "oad": 1628,
      "roid": 1629,
      "Ġbecause": 1630,
      "Ġfr": 1631,
      "Ġprocess": 1632,
      "Ġcurrent": 1633,
      "ior": 1634,
      "date": 1635,
      "^\\": 1636,
      "Ġorig": 1637,
      "Ġlast": 1638,
      "Ġincluding": 1639,
      "Ġknown": 1640,
      "order": 1641,
      "SE": 1642,
      "Ġkey": 1643,
      "Ġsince": 1644,
      "ĠMay": 1645,
      "Ġsee": 1646,
      "Ġsmall": 1647,
      "Ġ/**": 1648,
      "gr": 1649,
      "Ġfilm": 1650,
      "test": 1651,
      "bum": 1652,
      "Ġche": 1653,
      "ĠSp": 1654,
      "leq": 1655,
      "Ġmet": 1656,
      "rho": 1657,
      "Ġagainst": 1658,
      "\".": 1659,
      "Set": 1660,
      "ports": 1661,
      "2018": 1662,
      "day": 1663,
      "Ġlater": 1664,
      "aces": 1665,
      "Ġstring": 1666,
      "ience": 1667,
      "ground": 1668,
      "Ġpass": 1669,
      "Ġ&&": 1670,
      "color": 1671,
      "ĠStates": 1672,
      "ector": 1673,
      "}{\\": 1674,
      "Ġdoes": 1675,
      "Ġtop": 1676,
      "2019": 1677,
      "En": 1678,
      "Ġopen": 1679,
      "Ġmake": 1680,
      "By": 1681,
      "ai": 1682,
      "Ġresp": 1683,
      "epend": 1684,
      "reen": 1685,
      "Ġprivate": 1686,
      "Ġexper": 1687,
      "Ġcr": 1688,
      "Ġdid": 1689,
      "ital": 1690,
      "rem": 1691,
      "arri": 1692,
      "========": 1693,
      "uccess": 1694,
      "lp": 1695,
      "Ġseason": 1696,
      "oss": 1697,
      "AN": 1698,
      "27": 1699,
      "uro": 1700,
      "delta": 1701,
      "40": 1702,
      "alk": 1703,
      "ected": 1704,
      "Ġlocal": 1705,
      "head": 1706,
      "arrow": 1707,
      "mary": 1708,
      "chi": 1709,
      "];": 1710,
      "CT": 1711,
      "ird": 1712,
      "ats": 1713,
      "itial": 1714,
      "')": 1715,
      "Ġeven": 1716,
      "Ġav": 1717,
      "Ġstatic": 1718,
      "Ġstruct": 1719,
      "arm": 1720,
      "IT": 1721,
      "ĠOr": 1722,
      "26": 1723,
      "ths": 1724,
      "ounty": 1725,
      "$-": 1726,
      "Exception": 1727,
      "ium": 1728,
      "DE": 1729,
      "Ġeffect": 1730,
      "Ġschool": 1731,
      "ague": 1732,
      "Ġvery": 1733,
      "ĠAnd": 1734,
      "28": 1735,
      "time": 1736,
      "ĠHow": 1737,
      "tau": 1738,
      "lob": 1739,
      "script": 1740,
      "This": 1741,
      "Ġfind": 1742,
      "lected": 1743,
      "ability": 1744,
      "($": 1745,
      "ĠJohn": 1746,
      "dis": 1747,
      "uck": 1748,
      "field": 1749,
      "be": 1750,
      "Ġapp": 1751,
      "Sh": 1752,
      "inter": 1753,
      "Ġpresent": 1754,
      "Ġhead": 1755,
      "Ġimport": 1756,
      "Ġseries": 1757,
      "big": 1758,
      "2016": 1759,
      "location": 1760,
      "ush": 1761,
      "2017": 1762,
      "Ġdesign": 1763,
      "nb": 1764,
      "quad": 1765,
      "rror": 1766,
      "rix": 1767,
      "Ġcharact": 1768,
      "ari": 1769,
      "ĠIf": 1770,
      "}$,": 1771,
      "sec": 1772,
      "Ġevent": 1773,
      "comm": 1774,
      "ĠRe": 1775,
      "}$.": 1776,
      "Ġvari": 1777,
      "pm": 1778,
      "Ind": 1779,
      "],": 1780,
      "uthor": 1781,
      "Ġu": 1782,
      "ternational": 1783,
      "times": 1784,
      "unc": 1785,
      "Ġrece": 1786,
      "vert": 1787,
      "ĠJul": 1788,
      "Ġimp": 1789,
      "eqref": 1790,
      "oard": 1791,
      "Ġpres": 1792,
      "Ġbased": 1793,
      "Cont": 1794,
      "ival": 1795,
      "sk": 1796,
      "Ġ///": 1797,
      "ĠWorld": 1798,
      "vious": 1799,
      "ager": 1800,
      "por": 1801,
      "Ġchild": 1802,
      "33": 1803,
      "ĠAd": 1804,
      "Ġresults": 1805,
      "ME": 1806,
      "Ġtitle": 1807,
      "size": 1808,
      "}(\\": 1809,
      "Al": 1810,
      "Ġrepresent": 1811,
      "Ġleft": 1812,
      "An": 1813,
      "eters": 1814,
      "ĠRes": 1815,
      "ourn": 1816,
      "Object": 1817,
      "Ġallow": 1818,
      "ides": 1819,
      "ness": 1820,
      "2015": 1821,
      "ocument": 1822,
      "Ġdown": 1823,
      "Ġarg": 1824,
      "ĠNational": 1825,
      "iam": 1826,
      "ven": 1827,
      "ided": 1828,
      "urch": 1829,
      "Mod": 1830,
      "Ġmult": 1831,
      "reak": 1832,
      "Ġcalled": 1833,
      "Ġ%": 1834,
      "Ġway": 1835,
      "Ġdescrib": 1836,
      "ained": 1837,
      "Ġgame": 1838,
      "side": 1839,
      "ĠString": 1840,
      "Ġgovern": 1841,
      "top": 1842,
      "load": 1843,
      "Ġcommun": 1844,
      "2014": 1845,
      "Ġexpect": 1846,
      "alth": 1847,
      "ĠGr": 1848,
      "ĠAust": 1849,
      "ĠCan": 1850,
      "Test": 1851,
      "table": 1852,
      "Ġ,": 1853,
      "akes": 1854,
      "Get": 1855,
      "29": 1856,
      "ĠBl": 1857,
      "idd": 1858,
      "ription": 1859,
      "Ġcoun": 1860,
      "amed": 1861,
      "ised": 1862,
      "ety": 1863,
      "Ġfootball": 1864,
      "iness": 1865,
      "Ġthose": 1866,
      "nbsp": 1867,
      "Ġalbum": 1868,
      "ĠJan": 1869,
      "fty": 1870,
      "Ġfamily": 1871,
      "Ġelement": 1872,
      "agn": 1873,
      "Ġtem": 1874,
      "indow": 1875,
      "Ġpar": 1876,
      "Ġestabl": 1877,
      "Se": 1878,
      "Ġsever": 1879,
      "Ġref": 1880,
      "ĠâĢĶ": 1881,
      "less": 1882,
      "ene": 1883,
      "inc": 1884,
      "rite": 1885,
      "Ġposs": 1886,
      "infty": 1887,
      "Ġincre": 1888,
      "Ġ!=": 1889,
      "umer": 1890,
      "Ġworld": 1891,
      "mbol": 1892,
      "().": 1893,
      "ling": 1894,
      "gor": 1895,
      "ape": 1896,
      "Ġvis": 1897,
      "Ġsize": 1898,
      "Ġanal": 1899,
      "Ġknow": 1900,
      "2010": 1901,
      "space": 1902,
      "list": 1903,
      "Key": 1904,
      "hes": 1905,
      "ĠCar": 1906,
      "go": 1907,
      "ĠCent": 1908,
      "rist": 1909,
      "CO": 1910,
      "._": 1911,
      "ope": 1912,
      "ĠYork": 1913,
      "ĠAll": 1914,
      "Ġrefer": 1915,
      "Ġmark": 1916,
      "util": 1917,
      "2012": 1918,
      "ĠĠĊ": 1919,
      "Ġlife": 1920,
      "2013": 1921,
      "iter": 1922,
      "Ġinformation": 1923,
      "come": 1924,
      "Ph": 1925,
      "link": 1926,
      "off": 1927,
      "partial": 1928,
      "bs": 1929,
      "|\\": 1930,
      "Ġann": 1931,
      "http": 1932,
      "public": 1933,
      "resp": 1934,
      "ĠNov": 1935,
      "aint": 1936,
      "());": 1937,
      "Ġprogram": 1938,
      "ĠAt": 1939,
      "ajor": 1940,
      "ped": 1941,
      "Ġuntil": 1942,
      "Ġcare": 1943,
      "rc": 1944,
      "tract": 1945,
      "Ġlevel": 1946,
      "Ġaround": 1947,
      "ification": 1948,
      "View": 1949,
      "wards": 1950,
      "olv": 1951,
      "itor": 1952,
      "2011": 1953,
      "Ġstand": 1954,
      "Ġlarge": 1955,
      "function": 1956,
      "ĉĉĉĉĉ": 1957,
      "nu": 1958,
      "ĠSchool": 1959,
      "ians": 1960,
      "64": 1961,
      "He": 1962,
      "ison": 1963,
      "ĠBrit": 1964,
      "urther": 1965,
      "Ġbir": 1966,
      "ĠWh": 1967,
      "Ġ$(": 1968,
      "Error": 1969,
      "tilde": 1970,
      "ift": 1971,
      "Ġbook": 1972,
      "nav": 1973,
      "Im": 1974,
      "AC": 1975,
      "Ġbecame": 1976,
      "ords": 1977,
      "Class": 1978,
      "Ġmuch": 1979,
      "aving": 1980,
      "ĠWest": 1981,
      "ĠAss": 1982,
      "itive": 1983,
      "Ġproble": 1984,
      "uffer": 1985,
      "Ġpower": 1986,
      "Ġlim": 1987,
      "ervice": 1988,
      "ĠAug": 1989,
      "ĠCounty": 1990,
      "ately": 1991,
      "Ġsingle": 1992,
      "Ġsl": 1993,
      "ĠĠĠĠĊ": 1994,
      "Ġreal": 1995,
      "omega": 1996,
      "Ġbound": 1997,
      "olution": 1998,
      "Ġexpl": 1999,
      "Ġpolit": 2000,
      "Ġmeas": 2001,
      "ĠSouth": 2002,
      "uration": 2003,
      "js": 2004,
      "Ġaut": 2005,
      "\";": 2006,
      "Ġdistribut": 2007,
      "Ġstill": 2008,
      "60": 2009,
      "index": 2010,
      "Ġobtain": 2011,
      "itional": 2012,
      "ĠPol": 2013,
      "Ġcap": 2014,
      "Ġocc": 2015,
      "Ġred": 2016,
      "ilt": 2017,
      "aster": 2018,
      "Ġobserv": 2019,
      "Ġplace": 2020,
      "Ġorgan": 2021,
      "Ġmusic": 2022,
      "ination": 2023,
      "lem": 2024,
      "Ġpost": 2025,
      "Ġsong": 2026,
      "};": 2027,
      "vir": 2028,
      "Ġarea": 2029,
      "uk": 2030,
      "Ġorg": 2031,
      "opy": 2032,
      "ony": 2033,
      "ĠWar": 2034,
      "Ġnear": 2035,
      "but": 2036,
      "Ġwithin": 2037,
      "usiness": 2038,
      "where": 2039,
      ".</": 2040,
      "fess": 2041,
      "Ġnext": 2042,
      "ĠOct": 2043,
      "rang": 2044,
      "Ġident": 2045,
      "met": 2046,
      "Delta": 2047,
      "ored": 2048,
      "pert": 2049,
      "ension": 2050,
      "ĠGe": 2051,
      "Ġexp": 2052,
      "Re": 2053,
      "Ġdeath": 2054,
      "ctions": 2055,
      "ends": 2056,
      "Ġfile": 2057,
      "Ġalong": 2058,
      "ĠMan": 2059,
      "tab": 2060,
      "search": 2061,
      "ptember": 2062,
      "ĠGerm": 2063,
      "\"></": 2064,
      "Ġoffic": 2065,
      "Ġhelp": 2066,
      "group": 2067,
      "path": 2068,
      "pace": 2069,
      "Ġoriginal": 2070,
      "iod": 2071,
      "lear": 2072,
      "orem": 2073,
      "pp": 2074,
      "Ġrad": 2075,
      "Ġbu": 2076,
      "Ġperson": 2077,
      "ĠYou": 2078,
      "ĠThey": 2079,
      "position": 2080,
      "UL": 2081,
      "Ġlook": 2082,
      "acy": 2083,
      "Ġhere": 2084,
      "ĠMarch": 2085,
      "Ġlaw": 2086,
      "Ġseveral": 2087,
      "Ġmust": 2088,
      "oman": 2089,
      "Ġtri": 2090,
      "eqn": 2091,
      "ended": 2092,
      "Ġdue": 2093,
      "odes": 2094,
      "Ġrespect": 2095,
      "summary": 2096,
      "pril": 2097,
      "ording": 2098,
      "Pl": 2099,
      "Not": 2100,
      "Ġpat": 2101,
      "Ġproject": 2102,
      "sq": 2103,
      "Ġspace": 2104,
      "['": 2105,
      "mber": 2106,
      "80": 2107,
      "ources": 2108,
      "].": 2109,
      "IC": 2110,
      "ament": 2111,
      "Ġreport": 2112,
      "cale": 2113,
      "ĠBe": 2114,
      "xi": 2115,
      "wh": 2116,
      "Ġgeneral": 2117,
      "rt": 2118,
      "ĠJune": 2119,
      "uage": 2120,
      "ĠJuly": 2121,
      "}[": 2122,
      "Sc": 2123,
      "');": 2124,
      "35": 2125,
      "\\,": 2126,
      "Requ": 2127,
      "ormal": 2128,
      "ung": 2129,
      "Ġgood": 2130,
      "ĠPar": 2131,
      "Ġtake": 2132,
      "Ġcour": 2133,
      "2009": 2134,
      "Int": 2135,
      "ĠAugust": 2136,
      "Ġbest": 2137,
      "de": 2138,
      "url": 2139,
      "RO": 2140,
      "Ġproduc": 2141,
      "ilar": 2142,
      "cdot": 2143,
      "ances": 2144,
      "aff": 2145,
      "ches": 2146,
      "istor": 2147,
      "Ġold": 2148,
      "Ġvalues": 2149,
      "omet": 2150,
      "ators": 2151,
      "ampl": 2152,
      "iction": 2153,
      "sim": 2154,
      "sm": 2155,
      "ĠUS": 2156,
      "aim": 2157,
      "ĠGu": 2158,
      "cm": 2159,
      "Ġadv": 2160,
      "ued": 2161,
      "bl": 2162,
      "Ġlet": 2163,
      "ĠSeptember": 2164,
      "2008": 2165,
      "Ġsuccess": 2166,
      "comp": 2167,
      "ugg": 2168,
      "wit": 2169,
      "Ġdem": 2170,
      "lish": 2171,
      "ĠTe": 2172,
      "ampions": 2173,
      "Ġtyp": 2174,
      "my": 2175,
      "ae": 2176,
      "Ġversion": 2177,
      "Ġerror": 2178,
      "=\"../../": 2179,
      "lim": 2180,
      "ĠReg": 2181,
      "lege": 2182,
      "ĠHowever": 2183,
      "respond": 2184,
      "(),": 2185,
      "ploy": 2186,
      "empt": 2187,
      "Ġmass": 2188,
      "ĠState": 2189,
      "ĠJanuary": 2190,
      "Ġexample": 2191,
      "ĠCal": 2192,
      "ĠčĊ": 2193,
      "ĠEuro": 2194,
      "leg": 2195,
      "Ġday": 2196,
      "ogle": 2197,
      "ackage": 2198,
      "urg": 2199,
      "Ġdel": 2200,
      "File": 2201,
      "Ġstyle": 2202,
      "ij": 2203,
      "uce": 2204,
      "ideo": 2205,
      "ribute": 2206,
      "Ġcar": 2207,
      "struction": 2208,
      "ebr": 2209,
      "AP": 2210,
      "Ġelect": 2211,
      "ĠOctober": 2212,
      "ĠEd": 2213,
      "Ġsum": 2214,
      "$$": 2215,
      "posed": 2216,
      "aper": 2217,
      "illion": 2218,
      ")$.": 2219,
      "no": 2220,
      "see": 2221,
      "ĠCity": 2222,
      "fin": 2223,
      "lobal": 2224,
      "Ġtext": 2225,
      "Ġview": 2226,
      "Ġtechn": 2227,
      "ION": 2228,
      "box": 2229,
      "atures": 2230,
      "ero": 2231,
      "Ġtarget": 2232,
      "Ġprot": 2233,
      "hern": 2234,
      "ĠApril": 2235,
      "ret": 2236,
      "Ġwon": 2237,
      "aus": 2238,
      "Ġbeh": 2239,
      "cember": 2240,
      "Ġwithout": 2241,
      "Ġnetwork": 2242,
      "!--": 2243,
      "urs": 2244,
      "Ġformer": 2245,
      "energy": 2246,
      "Ġtot": 2247,
      "Ġanother": 2248,
      "}}\\": 2249,
      "ĠAustral": 2250,
      "|-": 2251,
      "node": 2252,
      "aced": 2253,
      "const": 2254,
      "fil": 2255,
      "Ġiss": 2256,
      "\":": 2257,
      "Ġdi": 2258,
      "']": 2259,
      "ailable": 2260,
      "Ġcharacter": 2261,
      "ustom": 2262,
      "ries": 2263,
      "ĠNorth": 2264,
      "With": 2265,
      "mat": 2266,
      "Man": 2267,
      "Ġsk": 2268,
      "Ġmap": 2269,
      "vision": 2270,
      "34": 2271,
      "arr": 2272,
      "ĠCo": 2273,
      "Ġeng": 2274,
      "Time": 2275,
      "Ġchang": 2276,
      "Ġhome": 2277,
      "ales": 2278,
      "ilit": 2279,
      "Ġleg": 2280,
      "Ġwant": 2281,
      "ocus": 2282,
      "ocial": 2283,
      "Ġearly": 2284,
      "TE": 2285,
      "Or": 2286,
      "plication": 2287,
      "Ġthrow": 2288,
      "=\"+": 2289,
      "ĠEn": 2290,
      "Ġlog": 2291,
      "Ġ/>": 2292,
      "90": 2293,
      "raphics": 2294,
      "aut": 2295,
      "Ġmax": 2296,
      "2007": 2297,
      "Ġpubl": 2298,
      "31": 2299,
      "LA": 2300,
      "map": 2301,
      "Qu": 2302,
      "icle": 2303,
      "Ġcount": 2304,
      "Ġcity": 2305,
      "ivity": 2306,
      "Ġrequest": 2307,
      "Om": 2308,
      "PE": 2309,
      "ponse": 2310,
      "with": 2311,
      "ump": 2312,
      "Ġabove": 2313,
      "Ġinclude": 2314,
      "aption": 2315,
      "ĠWill": 2316,
      "Def": 2317,
      "ait": 2318,
      "ning": 2319,
      "Ġdev": 2320,
      "Ġinitial": 2321,
      "Ġweek": 2322,
      "Ġcal": 2323,
      "ware": 2324,
      "perties": 2325,
      "Ġreleased": 2326,
      "Ġplayed": 2327,
      "Add": 2328,
      "lin": 2329,
      "Ġband": 2330,
      "Ġla": 2331,
      "quot": 2332,
      "ĠII": 2333,
      "center": 2334,
      "oper": 2335,
      "Ġlarg": 2336,
      "rel": 2337,
      "epsilon": 2338,
      "ĠNovember": 2339,
      "ixed": 2340,
      "2006": 2341,
      "ured": 2342,
      "Ġshort": 2343,
      "ails": 2344,
      "Ġprevious": 2345,
      "Ġ?": 2346,
      "State": 2347,
      "ayer": 2348,
      "âĢľ": 2349,
      "Ġmembers": 2350,
      "ĠFig": 2351,
      "Ġspe": 2352,
      "ules": 2353,
      "':": 2354,
      "ze": 2355,
      "iment": 2356,
      "uit": 2357,
      "Ġ);": 2358,
      "ĠNo": 2359,
      "Ġland": 2360,
      "raft": 2361,
      "sl": 2362,
      "Ġassert": 2363,
      ".âĢĿ": 2364,
      "Ġpath": 2365,
      "Ġet": 2366,
      "stit": 2367,
      "Ġservice": 2368,
      "born": 2369,
      "ham": 2370,
      "https": 2371,
      "ĠDecember": 2372,
      "}_{\\": 2373,
      "ique": 2374,
      "ĠMin": 2375,
      "Ġassum": 2376,
      "ada": 2377,
      "Ġmajor": 2378,
      "Ġbas": 2379,
      "``": 2380,
      "length": 2381,
      "Ġblock": 2382,
      "ĠTo": 2383,
      "ways": 2384,
      "ibr": 2385,
      "ux": 2386,
      "2020": 2387,
      "Ġdon": 2388,
      "uman": 2389,
      "Ġassoci": 2390,
      "Ġgovernment": 2391,
      "Ġinteg": 2392,
      "Ġcontent": 2393,
      "imal": 2394,
      "Ġinterest": 2395,
      "Fil": 2396,
      "39": 2397,
      "ĠEurope": 2398,
      "Omega": 2399,
      "imate": 2400,
      "ĠRep": 2401,
      "ially": 2402,
      "Ġwomen": 2403,
      "ebruary": 2404,
      "Ġret": 2405,
      "uf": 2406,
      "36": 2407,
      "Ġpo": 2408,
      "ttp": 2409,
      "Request": 2410,
      "ĠPart": 2411,
      "^*": 2412,
      "atter": 2413,
      "Text": 2414,
      "Form": 2415,
      "Ġposition": 2416,
      "lor": 2417,
      "ster": 2418,
      "icy": 2419,
      "37": 2420,
      "pression": 2421,
      "dt": 2422,
      "rew": 2423,
      "Element": 2424,
      "Event": 2425,
      "Info": 2426,
      "max": 2427,
      "ention": 2428,
      "See": 2429,
      "eff": 2430,
      "AS": 2431,
      "ography": 2432,
      "Ġcrit": 2433,
      "ĠBritish": 2434,
      "Ġparticular": 2435,
      "45": 2436,
      "caption": 2437,
      "Path": 2438,
      "Ġturn": 2439,
      "textbf": 2440,
      "Ġcompet": 2441,
      "ems": 2442,
      "TR": 2443,
      "Ġcomput": 2444,
      "Ġcorrespond": 2445,
      "Ġbo": 2446,
      "cast": 2447,
      "ĠAb": 2448,
      "Ġcompany": 2449,
      "Ġcomplet": 2450,
      "Ġexist": 2451,
      "nder": 2452,
      "Node": 2453,
      "psilon": 2454,
      "Ġfew": 2455,
      "ĠChrist": 2456,
      "ĠMed": 2457,
      "/*": 2458,
      "result": 2459,
      "Ġstat": 2460,
      "ĠSup": 2461,
      "psi": 2462,
      "Ġfull": 2463,
      "Ġprom": 2464,
      "ither": 2465,
      "semb": 2466,
      "from": 2467,
      "Ġtotal": 2468,
      "Over": 2469,
      "Ġbase": 2470,
      "Ġpoints": 2471,
      "Ġdom": 2472,
      "apan": 2473,
      "Context": 2474,
      "ĠBy": 2475,
      "2000": 2476,
      "Ġdiv": 2477,
      "alf": 2478,
      "Ġside": 2479,
      "Ġenergy": 2480,
      "ateg": 2481,
      "ius": 2482,
      "Ġsimilar": 2483,
      "Ġclos": 2484,
      "ights": 2485,
      ")$,": 2486,
      "eqnarray": 2487,
      "Ġport": 2488,
      "aterial": 2489,
      "190": 2490,
      "Field": 2491,
      "Ġcontrol": 2492,
      "99": 2493,
      "Ġhold": 2494,
      "stance": 2495,
      "Ã¡": 2496,
      "38": 2497,
      "ouble": 2498,
      "Index": 2499,
      "ana": 2500,
      "ĠKing": 2501,
      "Ġdepend": 2502,
      "Ġaff": 2503,
      "ĠMc": 2504,
      "Ġlearn": 2505,
      "user": 2506,
      "Ġden": 2507,
      "ino": 2508,
      "Ġrest": 2509,
      "viron": 2510,
      "Ġperiod": 2511,
      "Ġsat": 2512,
      "subsection": 2513,
      "gorith": 2514,
      "FF": 2515,
      "ĠLeague": 2516,
      "Ġhig": 2517,
      "ensure": 2518,
      "())": 2519,
      "Equ": 2520,
      "hold": 2521,
      "olean": 2522,
      "ertain": 2523,
      "IS": 2524,
      "www": 2525,
      "plit": 2526,
      "UR": 2527,
      "/**": 2528,
      "dom": 2529,
      "ĠThere": 2530,
      "sup": 2531,
      "ĠBut": 2532,
      "Ġarray": 2533,
      "ought": 2534,
      "ampionship": 2535,
      "Map": 2536,
      "Ġcheck": 2537,
      "Ġenc": 2538,
      "Ġlow": 2539,
      "All": 2540,
      "Param": 2541,
      "âĢĶ": 2542,
      "75": 2543,
      "amespace": 2544,
      "point": 2545,
      "ponent": 2546,
      "bold": 2547,
      "ĠFebruary": 2548,
      "Ġtry": 2549,
      "Gamma": 2550,
      "Ġinvest": 2551,
      "Ġke": 2552,
      "Config": 2553,
      "ride": 2554,
      "vare": 2555,
      "ĠSystem": 2556,
      "Ġstudy": 2557,
      "Ġinput": 2558,
      "ume": 2559,
      "Ġintro": 2560,
      "ones": 2561,
      "ĠAfter": 2562,
      "AD": 2563,
      "Ġmember": 2564,
      "oll": 2565,
      "New": 2566,
      "aged": 2567,
      "Ġvol": 2568,
      "Ġ/*": 2569,
      "ayout": 2570,
      "ĠAir": 2571,
      "object": 2572,
      "error": 2573,
      "enu": 2574,
      "Ġlang": 2575,
      "icon": 2576,
      "void": 2577,
      "istic": 2578,
      "Ġcomb": 2579,
      "Ġsay": 2580,
      "Ġins": 2581,
      "ĠDr": 2582,
      "eve": 2583,
      "oken": 2584,
      "Ġ(!": 2585,
      "sqrt": 2586,
      "rench": 2587,
      "ysis": 2588,
      "Ġep": 2589,
      "Result": 2590,
      "Ġchange": 2591,
      "state": 2592,
      "''": 2593,
      "2005": 2594,
      "block": 2595,
      "ours": 2596,
      "ently": 2597,
      "Ġcell": 2598,
      "igned": 2599,
      "config": 2600,
      "varepsilon": 2601,
      "ession": 2602,
      "ĠAp": 2603,
      "Ġpred": 2604,
      "evel": 2605,
      "ynam": 2606,
      "Ġtown": 2607,
      "Ġuser": 2608,
      "Ġthink": 2609,
      "Ġsource": 2610,
      "Ġtimes": 2611,
      "style": 2612,
      "Ġprob": 2613,
      "Ġbeg": 2614,
      "sw": 2615,
      "yd": 2616,
      "ables": 2617,
      "Ġavailable": 2618,
      "body": 2619,
      "Ġbirths": 2620,
      "osp": 2621,
      "Ġdescribed": 2622,
      "ards": 2623,
      "prov": 2624,
      "ags": 2625,
      "cher": 2626,
      "Array": 2627,
      "umb": 2628,
      "Ġcreate": 2629,
      "ui": 2630,
      "Ġbreak": 2631,
      "Ġfilms": 2632,
      "imum": 2633,
      "api": 2634,
      "ĠArm": 2635,
      "input": 2636,
      "Ġcode": 2637,
      "Ġtook": 2638,
      "sequ": 2639,
      "alt": 2640,
      "ailed": 2641,
      "down": 2642,
      "LO": 2643,
      "inition": 2644,
      "md": 2645,
      "century": 2646,
      "70": 2647,
      "though": 2648,
      "Ġdefined": 2649,
      "Ġmatch": 2650,
      "Ġrange": 2651,
      "conom": 2652,
      "annel": 2653,
      "////////": 2654,
      "Comm": 2655,
      "Ġbusiness": 2656,
      "aul": 2657,
      "mm": 2658,
      "Is": 2659,
      "Ġcareer": 2660,
      "Ġshows": 2661,
      "bit": 2662,
      "egraphics": 2663,
      "includegraphics": 2664,
      "idge": 2665,
      "Ġhistory": 2666,
      "Ġder": 2667,
      "ese": 2668,
      "ottom": 2669,
      "^{(": 2670,
      "lete": 2671,
      "Trans": 2672,
      "idual": 2673,
      "asc": 2674,
      "Ġjo": 2675,
      "stand": 2676,
      "bm": 2677,
      "true": 2678,
      "adem": 2679,
      "Ġdeterm": 2680,
      "Ġproduct": 2681,
      "ĠĠĠĠĠĠĠĠĠĠĠĠĠĠĠĠĠĠĠĠĠĠĠĠĠĠĠ": 2682,
      "}^{\\": 2683,
      "Ġfore": 2684,
      "ĠCor": 2685,
      "Ġsection": 2686,
      "IG": 2687,
      "Ġshown": 2688,
      "Ġgrow": 2689,
      "Ġrepl": 2690,
      "ising": 2691,
      "ĠEl": 2692,
      "Ġnamed": 2693,
      "Ġ-->": 2694,
      "At": 2695,
      "Ġnode": 2696,
      "Ġchildren": 2697,
      "Ġheld": 2698,
      "Ġless": 2699,
      "ories": 2700,
      "ĠChe": 2701,
      "ED": 2702,
      "Ġproblem": 2703,
      "Ġaction": 2704,
      "Ġcamp": 2705,
      "ients": 2706,
      "Ġmean": 2707,
      "cil": 2708,
      "ĠHis": 2709,
      "ops": 2710,
      "cor": 2711,
      "ondon": 2712,
      "Service": 2713,
      "UT": 2714,
      "pen": 2715,
      "';": 2716,
      "Ġdefault": 2717,
      "ready": 2718,
      "eder": 2719,
      "gress": 2720,
      "2004": 2721,
      "iff": 2722,
      "Ġhouse": 2723,
      "yl": 2724,
      "ittle": 2725,
      "eneral": 2726,
      "ĠOb": 2727,
      "emph": 2728,
      "Ġrole": 2729,
      "Build": 2730,
      "ald": 2731,
      "duced": 2732,
      "Ġcover": 2733,
      "urb": 2734,
      "nection": 2735,
      "word": 2736,
      "Ġcho": 2737,
      "ĠSer": 2738,
      "ably": 2739,
      "Ġtrack": 2740,
      "Code": 2741,
      "na": 2742,
      "Ġconf": 2743,
      "ude": 2744,
      "reet": 2745,
      "Ġfree": 2746,
      "ender": 2747,
      "Ġgames": 2748,
      "}=": 2749,
      "abled": 2750,
      "Ġimportant": 2751,
      "title": 2752,
      "rest": 2753,
      "ĠBar": 2754,
      "Ġaccess": 2755,
      "Ġpossible": 2756,
      "earch": 2757,
      "iple": 2758,
      "ington": 2759,
      "ĠRec": 2760,
      "ĠEnglish": 2761,
      "Ġsit": 2762,
      "Ġpot": 2763,
      "ING": 2764,
      "Ġtele": 2765,
      "Ġstrong": 2766,
      "ĠRuss": 2767,
      "Ġ});": 2768,
      "Ġmodels": 2769,
      "non": 2770,
      "Ġreceived": 2771,
      "Ġconv": 2772,
      "eturn": 2773,
      "Ġauthor": 2774,
      "Ġthird": 2775,
      "andom": 2776,
      "Ġfive": 2777,
      "Ġbegan": 2778,
      "ĠMe": 2779,
      "next": 2780,
      "From": 2781,
      "Ġcontext": 2782,
      "now": 2783,
      "symbol": 2784,
      "ĠÐ": 2785,
      "****************": 2786,
      "MP": 2787,
      "ĠAfr": 2788,
      "Att": 2789,
      "Big": 2790,
      "plate": 2791,
      "55": 2792,
      "\"\"": 2793,
      "Ġphot": 2794,
      "Ġ${\\": 2795,
      "Ġwater": 2796,
      "ille": 2797,
      "Ġcompon": 2798,
      "ensity": 2799,
      "refore": 2800,
      "uation": 2801,
      "eople": 2802,
      "Ġfeature": 2803,
      "Ġpopulation": 2804,
      "lt": 2805,
      "66": 2806,
      "Of": 2807,
      "Ġ},": 2808,
      "####": 2809,
      "Size": 2810,
      "Ġ:=": 2811,
      "American": 2812,
      "vironment": 2813,
      "ĠAmer": 2814,
      "ML": 2815,
      "uture": 2816,
      "Ġsix": 2817,
      ")=": 2818,
      "Ġclub": 2819,
      "Ġlate": 2820,
      "agement": 2821,
      "assert": 2822,
      "ught": 2823,
      "Item": 2824,
      "inary": 2825,
      "Ġregion": 2826,
      "reate": 2827,
      "uments": 2828,
      "Ġ()": 2829,
      "ync": 2830,
      "oph": 2831,
      "bt": 2832,
      "pose": 2833,
      "Hand": 2834,
      "Ġalign": 2835,
      "ecut": 2836,
      "ĠList": 2837,
      "ĠAg": 2838,
      "ĠJapan": 2839,
      "rightarrow": 2840,
      "era": 2841,
      "Ġproperty": 2842,
      "Ġide": 2843,
      "apache": 2844,
      "Ġlocated": 2845,
      "ependent": 2846,
      "Ġair": 2847,
      "gt": 2848,
      "Ġnational": 2849,
      "ET": 2850,
      "Ġdat": 2851,
      "Ġfurther": 2852,
      "Ġperformance": 2853,
      "ĠArt": 2854,
      "geq": 2855,
      "01": 2856,
      "Loc": 2857,
      "ĠChar": 2858,
      "Ġdiscuss": 2859,
      "Ġspecial": 2860,
      "ĠCoun": 2861,
      "Ġestablished": 2862,
      "Acc": 2863,
      "Ġinstance": 2864,
      "Ġappear": 2865,
      "Ġsuper": 2866,
      "anch": 2867,
      "ĠPres": 2868,
      "US": 2869,
      "Ġprofess": 2870,
      "Ġage": 2871,
      "Ġcolor": 2872,
      "call": 2873,
      "Ġvill": 2874,
      "Ġbuilt": 2875,
      "nect": 2876,
      "proof": 2877,
      "Ġrequire": 2878,
      "iber": 2879,
      "aken": 2880,
      "java": 2881,
      "++": 2882,
      "Ġaver": 2883,
      "ĠMon": 2884,
      "And": 2885,
      "ached": 2886,
      "If": 2887,
      "rangle": 2888,
      "wid": 2889,
      "Ġbackground": 2890,
      "Ġattack": 2891,
      "Pr": 2892,
      "escription": 2893,
      "Ġconfig": 2894,
      "iet": 2895,
      "Ġsy": 2896,
      "Ġarch": 2897,
      "amples": 2898,
      "Ġfollows": 2899,
      "Ġstation": 2900,
      "ĠEast": 2901,
      "Ġsignific": 2902,
      "Ġindex": 2903,
      "ection": 2904,
      "ological": 2905,
      "Ġfac": 2906,
      "ĠLondon": 2907,
      "ĠPark": 2908,
      "Ġoften": 2909,
      "ĠHigh": 2910,
      "android": 2911,
      "48": 2912,
      "Ġleast": 2913,
      "clus": 2914,
      "onse": 2915,
      "Ġterms": 2916,
      "Ġimage": 2917,
      "Ġpri": 2918,
      "Ġhost": 2919,
      "ĠComp": 2920,
      "Ġamong": 2921,
      "Fr": 2922,
      "ĠSch": 2923,
      "ves": 2924,
      "istrict": 2925,
      "[]": 2926,
      "Ġaddress": 2927,
      ".~\\": 2928,
      "ĠDav": 2929,
      "create": 2930,
      "Val": 2931,
      "Ġcommon": 2932,
      "Ġeduc": 2933,
      "Ġindic": 2934,
      "Ġgreat": 2935,
      "Ġlight": 2936,
      "Ġ\\,": 2937,
      "CH": 2938,
      "Ġincluded": 2939,
      "ips": 2940,
      "Ġspect": 2941,
      "ges": 2942,
      "Ġpublished": 2943,
      "ief": 2944,
      "='": 2945,
      "ĠHouse": 2946,
      "oud": 2947,
      "Ser": 2948,
      "ĠPer": 2949,
      "Ġgrad": 2950,
      "oon": 2951,
      "Ġresponse": 2952,
      "orph": 2953,
      "icro": 2954,
      "ration": 2955,
      "ĠAm": 2956,
      "Ġlength": 2957,
      "Ġput": 2958,
      "ĠAct": 2959,
      "Ġ($": 2960,
      "ii": 2961,
      "refer": 2962,
      "ĠQu": 2963,
      "ford": 2964,
      "Ad": 2965,
      "AB": 2966,
      "inning": 2967,
      "cul": 2968,
      "ĠCollege": 2969,
      "ending": 2970,
      "=\"../../../../": 2971,
      "2021": 2972,
      "Ġevents": 2973,
      "Ġant": 2974,
      "Ġcommand": 2975,
      "Ġstructure": 2976,
      "Ġdeg": 2977,
      "Ġdocument": 2978,
      "ĠThese": 2979,
      "ilitary": 2980,
      "ĠOff": 2981,
      "mult": 2982,
      "ES": 2983,
      "ring": 2984,
      ".}": 2985,
      "ĠOne": 2986,
      "Ġtoo": 2987,
      "Ġgl": 2988,
      "loat": 2989,
      "Message": 2990,
      "varphi": 2991,
      "MA": 2992,
      "Ġannoun": 2993,
      "abor": 2994,
      "ĠWilliam": 2995,
      "De": 2996,
      "Ġmot": 2997,
      "ĠGet": 2998,
      "Ġhaving": 2999,
      "pd": 3000,
      "irt": 3001,
      "Dis": 3002,
      "default": 3003,
      "Ġcorre": 3004,
      "ĠLa": 3005,
      "Ġbuilding": 3006,
      "Ġmen": 3007,
      "tra": 3008,
      "Let": 3009,
      "Ġclaim": 3010,
      "Ġkill": 3011,
      "Ġcountry": 3012,
      "Rec": 3013,
      "tings": 3014,
      "iol": 3015,
      "Ġstory": 3016,
      "Ġquant": 3017,
      "Ġsequ": 3018,
      "ĠBro": 3019,
      "unic": 3020,
      "Ġinvolv": 3021,
      "ibility": 3022,
      "Ġplayer": 3023,
      "Ð°": 3024,
      "cy": 3025,
      "imation": 3026,
      "&\\": 3027,
      "cell": 3028,
      "ĠâĢĺ": 3029,
      "Ġconc": 3030,
      "Ġnever": 3031,
      "Ġjava": 3032,
      "Ġphys": 3033,
      "2003": 3034,
      "mark": 3035,
      "ĠWhen": 3036,
      "info": 3037,
      "isf": 3038,
      "ĠHer": 3039,
      "rown": 3040,
      "Ġcost": 3041,
      "Ġrecent": 3042,
      "icient": 3043,
      "ĠAng": 3044,
      "Ġbecome": 3045,
      "Out": 3046,
      "ĠSw": 3047,
      "cle": 3048,
      "05": 3049,
      "Ġparameters": 3050,
      "Ġsite": 3051,
      "Ġimplement": 3052,
      "arried": 3053,
      "Ġ===": 3054,
      "ls": 3055,
      "reed": 3056,
      ",\"": 3057,
      "Ġsent": 3058,
      "ĠWith": 3059,
      "eh": 3060,
      "44": 3061,
      "idence": 3062,
      "ks": 3063,
      "base": 3064,
      "ĠHar": 3065,
      "Ġdistribution": 3066,
      "ĠFrench": 3067,
      "[\\": 3068,
      "Ġcreated": 3069,
      "Ġvarious": 3070,
      "UN": 3071,
      "gorithm": 3072,
      "Ġeither": 3073,
      ">&": 3074,
      "Ġcou": 3075,
      "Ġbetter": 3076,
      "Ġmeasure": 3077,
      "Ġalready": 3078,
      "Ġfri": 3079,
      "2001": 3080,
      "Ġprim": 3081,
      "Ġtrad": 3082,
      "asing": 3083,
      "ogn": 3084,
      "aly": 3085,
      "Ġquest": 3086,
      "Ġelection": 3087,
      "attle": 3088,
      "Ġindiv": 3089,
      "Ġpract": 3090,
      "},\\": 3091,
      "etic": 3092,
      "hline": 3093,
      "oke": 3094,
      "Ġwritten": 3095,
      "define": 3096,
      "aves": 3097,
      "draw": 3098,
      "Ġcompos": 3099,
      "light": 3100,
      "System": 3101,
      "content": 3102,
      "tes": 3103,
      ",âĢĿ": 3104,
      "most": 3105,
      "aps": 3106,
      "Ġstates": 3107,
      "ama": 3108,
      "ĠInternational": 3109,
      "version": 3110,
      "Ġsom": 3111,
      "Ġrequired": 3112,
      "ĠĠĠĠĠĠĠĠĠĠĠĠ": 3113,
      "Ġcomplex": 3114,
      "boldsymbol": 3115,
      "frak": 3116,
      "Ġsrc": 3117,
      "ULL": 3118,
      "NA": 3119,
      "Ġtable": 3120,
      "}).": 3121,
      "kn": 3122,
      "Ã³": 3123,
      "Ġlabel": 3124,
      "IL": 3125,
      "Ġrelations": 3126,
      "wide": 3127,
      "eed": 3128,
      "OT": 3129,
      "Ġparent": 3130,
      "lient": 3131,
      "âĢ¦": 3132,
      "Ġcult": 3133,
      "Ġclose": 3134,
      "overline": 3135,
      "iqu": 3136,
      "roller": 3137,
      "Ð¾": 3138,
      "Reg": 3139,
      "ered": 3140,
      "Ġyoung": 3141,
      "Ġdevelopment": 3142,
      "Ap": 3143,
      "Ġspecies": 3144,
      "Inter": 3145,
      "Ġsepar": 3146,
      "Ġmillion": 3147,
      "Ġprovide": 3148,
      "Ġcoll": 3149,
      "ĉĊ": 3150,
      "2002": 3151,
      "Color": 3152,
      "Ġpotential": 3153,
      "Ġborder": 3154,
      "sf": 3155,
      "Ġaccount": 3156,
      "Ġdest": 3157,
      "check": 3158,
      "Ġfeatures": 3159,
      "65": 3160,
      "Ġproduction": 3161,
      "gether": 3162,
      "Ġtogether": 3163,
      "CC": 3164,
      "ged": 3165,
      "Log": 3166,
      "Ġcentury": 3167,
      "ĠPhil": 3168,
      "Ġcommunity": 3169,
      "Ġsignificant": 3170,
      "uggest": 3171,
      "bor": 3172,
      "rad": 3173,
      "Ġserved": 3174,
      "Ġhard": 3175,
      "Ġcontribut": 3176,
      "Ġdistr": 3177,
      "ĠĠĠĠĠĠĠĠĠĠ": 3178,
      "ĠDep": 3179,
      "Ġwar": 3180,
      "Ġexpected": 3181,
      "--------------------------------": 3182,
      "Manager": 3183,
      "ference": 3184,
      "ournal": 3185,
      "Ġdays": 3186,
      "Ġconsidered": 3187,
      "ara": 3188,
      "Ġworks": 3189,
      "Ġhapp": 3190,
      "Ġcirc": 3191,
      "vec": 3192,
      "Ġfund": 3193,
      "Ġoutput": 3194,
      "valid": 3195,
      "Ġapprox": 3196,
      ")^": 3197,
      "anel": 3198,
      "flu": 3199,
      "Ġacross": 3200,
      "itted": 3201,
      "Model": 3202,
      "uel": 3203,
      "Ġtraining": 3204,
      "Ġvideo": 3205,
      "Ġlower": 3206,
      "ĠCont": 3207,
      "TD": 3208,
      "ĠDistrict": 3209,
      "Ġgoing": 3210,
      "Ġborn": 3211,
      "Ġtw": 3212,
      "ÃŃ": 3213,
      "Ġgen": 3214,
      "model": 3215,
      "Ġfocus": 3216,
      "Ġresearch": 3217,
      "Ġindividual": 3218,
      "ifier": 3219,
      "include": 3220,
      "ĠSm": 3221,
      "Ġmiss": 3222,
      "Ġeas": 3223,
      "Ġbody": 3224,
      "start": 3225,
      "Ġabs": 3226,
      "hand": 3227,
      "iforn": 3228,
      "atural": 3229,
      "IP": 3230,
      "Ġalways": 3231,
      "using": 3232,
      "ĠMich": 3233,
      "Ġbi": 3234,
      "Ġlimit": 3235,
      "ĠGerman": 3236,
      "hib": 3237,
      "Ġseen": 3238,
      "Comp": 3239,
      "count": 3240,
      "Ġround": 3241,
      "iddle": 3242,
      "ĉĉĉĉĉĉ": 3243,
      "ĠChampionship": 3244,
      "iation": 3245,
      "Ġcross": 3246,
      "Ġsystems": 3247,
      "Ġblack": 3248,
      "ocr": 3249,
      "ategory": 3250,
      "avy": 3251,
      "Ġparameter": 3252,
      "tainer": 3253,
      "Table": 3254,
      "](": 3255,
      "ĠAcc": 3256,
      "ĠThen": 3257,
      "Ġreview": 3258,
      "ociation": 3259,
      "Ġdiff": 3260,
      "Ġ__": 3261,
      "Ġplan": 3262,
      "Ġsocial": 3263,
      "Ġmer": 3264,
      "ĠÂ": 3265,
      "Ġwidth": 3266,
      "package": 3267,
      "Ġcame": 3268,
      "Ġflow": 3269,
      "si": 3270,
      "ENT": 3271,
      "0000": 3272,
      "ĠVal": 3273,
      "Ġ};": 3274,
      "css": 3275,
      "189": 3276,
      "rec": 3277,
      "Ġfar": 3278,
      "Cell": 3279,
      "Ġrate": 3280,
      "ifornia": 3281,
      "ociety": 3282,
      "print": 3283,
      "}}$": 3284,
      "Call": 3285,
      "imens": 3286,
      "Ġhowever": 3287,
      "OD": 3288,
      "lying": 3289,
      "ĠCup": 3290,
      "method": 3291,
      "Group": 3292,
      "argin": 3293,
      "net": 3294,
      "avel": 3295,
      "Ġstarted": 3296,
      "mathfrak": 3297,
      "Ġvert": 3298,
      "Ġmagn": 3299,
      "Ġtask": 3300,
      "ĠSo": 3301,
      "ithub": 3302,
      "itect": 3303,
      "prot": 3304,
      "duction": 3305,
      "Ġmight": 3306,
      "orge": 3307,
      "Ġtelevision": 3308,
      "ĠIr": 3309,
      "ico": 3310,
      "Ġdistrict": 3311,
      "ĠAc": 3312,
      "utions": 3313,
      "Ġmeans": 3314,
      "Ġvia": 3315,
      "Ġbig": 3316,
      "ĠSec": 3317,
      "ĠRev": 3318,
      "But": 3319,
      "Ġoptions": 3320,
      "ements": 3321,
      "Ġperm": 3322,
      "book": 3323,
      "Ġpaper": 3324,
      "188": 3325,
      "SP": 3326,
      "Ġgroups": 3327,
      "=\"#": 3328,
      "Ġfunctions": 3329,
      "citep": 3330,
      "ĠCr": 3331,
      "ĠSet": 3332,
      "Ġnov": 3333,
      "appa": 3334,
      "static": 3335,
      "ĠIm": 3336,
      "utes": 3337,
      "ha": 3338,
      "Ġhalf": 3339,
      "Ġmaking": 3340,
      "Arg": 3341,
      "ĠSan": 3342,
      "Ġmessage": 3343,
      "acing": 3344,
      "49": 3345,
      "User": 3346,
      "Ġaverage": 3347,
      "Ġsays": 3348,
      "Ass": 3349,
      "Ġlik": 3350,
      "lymp": 3351,
      "Ġaddition": 3352,
      "Ã¼": 3353,
      "Ġear": 3354,
      "Ġmom": 3355,
      "Ġbelow": 3356,
      "ula": 3357,
      "ymmet": 3358,
      "ensuremath": 3359,
      "Ġhuman": 3360,
      "abla": 3361,
      "aries": 3362,
      "vers": 3363,
      "Ġengine": 3364,
      "based": 3365,
      "ply": 3366,
      "MS": 3367,
      ")(": 3368,
      "Ġmethods": 3369,
      "Ġneg": 3370,
      "BC": 3371,
      "TH": 3372,
      "ming": 3373,
      "langle": 3374,
      "bo": 3375,
      "ining": 3376,
      "ministr": 3377,
      "Ġpay": 3378,
      "year": 3379,
      "board": 3380,
      "Ġgraph": 3381,
      "Ġemploy": 3382,
      "Ġprovided": 3383,
      "igation": 3384,
      "Ġable": 3385,
      "ns": 3386,
      "ĠIndian": 3387,
      "web": 3388,
      "Ġapproach": 3389,
      "08": 3390,
      "ishing": 3391,
      "false": 3392,
      "Ġtre": 3393,
      "context": 3394,
      "ilities": 3395,
      "nabla": 3396,
      "textit": 3397,
      "Ġsem": 3398,
      "Ġanalysis": 3399,
      "Ġassociated": 3400,
      "IR": 3401,
      "Ġloss": 3402,
      "gen": 3403,
      "Ġnorth": 3404,
      "google": 3405,
      "FA": 3406,
      "ĠTrans": 3407,
      "iven": 3408,
      "Ġq": 3409,
      ";</": 3410,
      "Ġsatisf": 3411,
      "foot": 3412,
      "github": 3413,
      "medi": 3414,
      "Ġconsist": 3415,
      "Property": 3416,
      "Ġsuggest": 3417,
      "Ġson": 3418,
      "Ġdied": 3419,
      "burg": 3420,
      "Bar": 3421,
      "Ġpair": 3422,
      "pty": 3423,
      "ĠLet": 3424,
      "ecess": 3425,
      "II": 3426,
      "1999": 3427,
      "parent": 3428,
      "iding": 3429,
      "Ġra": 3430,
      "Ðµ": 3431,
      "================": 3432,
      "\\|": 3433,
      "Ġstandard": 3434,
      "ldots": 3435,
      "Ġoffer": 3436,
      "Method": 3437,
      "ids": 3438,
      "cit": 3439,
      "ptions": 3440,
      "Ġpage": 3441,
      "ĠDis": 3442,
      "Ġmove": 3443,
      "ched": 3444,
      "ael": 3445,
      "mit": 3446,
      "Ġhom": 3447,
      "ĠCalifornia": 3448,
      "plied": 3449,
      "Ġwent": 3450,
      "oyal": 3451,
      "ceed": 3452,
      "No": 3453,
      "atform": 3454,
      "Ġservices": 3455,
      "Query": 3456,
      "ellow": 3457,
      "Up": 3458,
      "Sub": 3459,
      "option": 3460,
      "Ġhigher": 3461,
      "lands": 3462,
      "ĠGo": 3463,
      "useum": 3464,
      "icense": 3465,
      "07": 3466,
      "ĠAmerica": 3467,
      "OS": 3468,
      "build": 3469,
      "mon": 3470,
      "Ġvalid": 3471,
      "ework": 3472,
      "Ġaway": 3473,
      "47": 3474,
      "Ed": 3475,
      "ĠPresident": 3476,
      "Sp": 3477,
      "Ġmeet": 3478,
      "wise": 3479,
      "ands": 3480,
      "Ġbool": 3481,
      "ĠInt": 3482,
      "actory": 3483,
      "Ġhistor": 3484,
      "irection": 3485,
      "circ": 3486,
      "doc": 3487,
      "thing": 3488,
      "Ġworking": 3489,
      "Ġindust": 3490,
      "CE": 3491,
      "Ġled": 3492,
      "mar": 3493,
      "Ġlanguage": 3494,
      "Ġge": 3495,
      "xy": 3496,
      "cer": 3497,
      "ping": 3498,
      "=\"../": 3499,
      "ĠEngland": 3500,
      "current": 3501,
      "Read": 3502,
      "Ġnum": 3503,
      "Ġmatrix": 3504,
      "ivil": 3505,
      "~~": 3506,
      "Ġgive": 3507,
      "Ġhttp": 3508,
      "namespace": 3509,
      "Ġcases": 3510,
      "Ġcaus": 3511,
      "Ġsurv": 3512,
      "mail": 3513,
      "Ġsolution": 3514,
      "Ġonce": 3515,
      "ills": 3516,
      "cap": 3517,
      "Ġcy": 3518,
      "ĠSim": 3519,
      "ĠMod": 3520,
      "Ġemb": 3521,
      "core": 3522,
      "Phi": 3523,
      "uster": 3524,
      "Ġthough": 3525,
      "Ġobtained": 3526,
      "}),": 3527,
      "Ġactiv": 3528,
      "Lambda": 3529,
      "ĠAustralia": 3530,
      "Count": 3531,
      "unk": 3532,
      "actions": 3533,
      "ĠIndia": 3534,
      "ĠRed": 3535,
      "Ġconstruct": 3536,
      ";&": 3537,
      "Ġgot": 3538,
      "Client": 3539,
      "ĠRepublic": 3540,
      "Ġofficial": 3541,
      "....": 3542,
      "ises": 3543,
      "ĠDiv": 3544,
      "och": 3545,
      "Ġconditions": 3546,
      "spec": 3547,
      "EE": 3548,
      "kappa": 3549,
      "subset": 3550,
      "Ġinternational": 3551,
      "iance": 3552,
      "ĠRiver": 3553,
      "Ġbeli": 3554,
      "active": 3555,
      "Ġfrequ": 3556,
      "ires": 3557,
      "anks": 3558,
      "Ġhealth": 3559,
      "Pol": 3560,
      "efore": 3561,
      "artment": 3562,
      "aring": 3563,
      "Ġreally": 3564,
      "ĠNot": 3565,
      "After": 3566,
      "abase": 3567,
      "Response": 3568,
      "ado": 3569,
      "yr": 3570,
      "ades": 3571,
      "known": 3572,
      "Ġground": 3573,
      "Ġmaterial": 3574,
      "06": 3575,
      "db": 3576,
      "Off": 3577,
      ">(": 3578,
      "omb": 3579,
      "Ġproduced": 3580,
      "Ġstd": 3581,
      "inner": 3582,
      "oted": 3583,
      "chan": 3584,
      "ship": 3585,
      "atal": 3586,
      "ĠDef": 3587,
      "Override": 3588,
      "04": 3589,
      "sembly": 3590,
      "Ġdisplay": 3591,
      "ĠPort": 3592,
      "Ġstudents": 3593,
      "End": 3594,
      "ney": 3595,
      "Ġtaken": 3596,
      "aging": 3597,
      "under": 3598,
      "Ġconstant": 3599,
      "Ġbecom": 3600,
      "Ġmedia": 3601,
      "Ġdone": 3602,
      "iers": 3603,
      "ĠMark": 3604,
      "Ġsw": 3605,
      "Ġes": 3606,
      "Be": 3607,
      "Ġpress": 3608,
      ")</": 3609,
      "Ġnil": 3610,
      "ĠCour": 3611,
      "Ġlo": 3612,
      "uz": 3613,
      "Ġ``": 3614,
      "Ġelements": 3615,
      "ĠAdd": 3616,
      "Ġcome": 3617,
      "ibrary": 3618,
      "Ġproperties": 3619,
      "Ġvillage": 3620,
      "roy": 3621,
      "event": 3622,
      "Ġfuture": 3623,
      "dev": 3624,
      "init": 3625,
      "height": 3626,
      "ething": 3627,
      "izing": 3628,
      "Ġsouth": 3629,
      "oe": 3630,
      "Ġnormal": 3631,
      "Ġreturned": 3632,
      "Date": 3633,
      "Ġstep": 3634,
      "Ġeconom": 3635,
      "ĠBer": 3636,
      "Ġachi": 3637,
      "ordin": 3638,
      "Ġrespectively": 3639,
      "itte": 3640,
      "istry": 3641,
      "Ġdecl": 3642,
      "small": 3643,
      "Ġwin": 3644,
      "Ġsold": 3645,
      "ĠStud": 3646,
      "Ġattempt": 3647,
      "Ġestim": 3648,
      "ĠParty": 3649,
      "Ġda": 3650,
      "rup": 3651,
      "})$": 3652,
      "Ġdensity": 3653,
      "Ġmoved": 3654,
      "NS": 3655,
      "ĠFirst": 3656,
      "Ġfather": 3657,
      "orage": 3658,
      "67": 3659,
      "02": 3660,
      "Ġlittle": 3661,
      "History": 3662,
      "undle": 3663,
      "Ġpast": 3664,
      "Ġothers": 3665,
      "Ġregular": 3666,
      "Ġpolitical": 3667,
      ".\\": 3668,
      "ĠHol": 3669,
      "tem": 3670,
      "1990": 3671,
      "Ġmarket": 3672,
      "do": 3673,
      "Ġlines": 3674,
      "Ġtheory": 3675,
      "Builder": 3676,
      "ĠFil": 3677,
      "change": 3678,
      "Ġepis": 3679,
      "Ġill": 3680,
      "hood": 3681,
      "OP": 3682,
      "Str": 3683,
      "Ġfem": 3684,
      "ename": 3685,
      "ĠEm": 3686,
      "olic": 3687,
      "\\%": 3688,
      "otimes": 3689,
      "Ġwhether": 3690,
      "])": 3691,
      "cho": 3692,
      "sing": 3693,
      "Ð¸": 3694,
      "<!--": 3695,
      "Ġannounced": 3696,
      "riter": 3697,
      "Ġinstead": 3698,
      "ĠĠĠĠĠĠĠĠĠĠĠĠĠĠĠĠĠ": 3699,
      "elling": 3700,
      "Ġbroad": 3701,
      "ĠDes": 3702,
      "Ġcondition": 3703,
      "ĠStr": 3704,
      "Ġadded": 3705,
      "null": 3706,
      "People": 3707,
      "09": 3708,
      "Ġwebs": 3709,
      "Ġandroid": 3710,
      "witch": 3711,
      "image": 3712,
      "icles": 3713,
      "Ġparticip": 3714,
      "ĠDo": 3715,
      "Ġkeep": 3716,
      "Ġask": 3717,
      "Ġreported": 3718,
      "run": 3719,
      "aker": 3720,
      "istics": 3721,
      "andid": 3722,
      "Ġcolumn": 3723,
      "ĠCouncil": 3724,
      "Ġcustom": 3725,
      "Ġang": 3726,
      "Ġben": 3727,
      "rote": 3728,
      "Living": 3729,
      "aches": 3730,
      "Ġcertain": 3731,
      "Ġrow": 3732,
      "aign": 3733,
      "alle": 3734,
      "){": 3735,
      "ĠMy": 3736,
      "aur": 3737,
      "Ġcle": 3738,
      "options": 3739,
      "Ġspecific": 3740,
      "ĠDem": 3741,
      "Wh": 3742,
      "ĠClass": 3743,
      "ened": 3744,
      "2022": 3745,
      "Ġwest": 3746,
      "ĠNULL": 3747,
      "flow": 3748,
      "ĠAnt": 3749,
      "Ġstar": 3750,
      "Ġcollection": 3751,
      "pol": 3752,
      "ĠBel": 3753,
      "ĠGovern": 3754,
      "ĠMal": 3755,
      "mbox": 3756,
      "exp": 3757,
      "ĠSen": 3758,
      "oo": 3759,
      "Ġlive": 3760,
      "68": 3761,
      "ĠThat": 3762,
      "Ġrelease": 3763,
      "Ġarr": 3764,
      "Ġrandom": 3765,
      "ĠPat": 3766,
      "eline": 3767,
      "Ġsimple": 3768,
      "AG": 3769,
      "Ġenough": 3770,
      "ĠPal": 3771,
      "ĠÃ": 3772,
      "ership": 3773,
      "level": 3774,
      "Ġunit": 3775,
      "Ġcontains": 3776,
      "Ġglobal": 3777,
      "Image": 3778,
      "Ġcorresponding": 3779,
      "Ġfig": 3780,
      "Ġthus": 3781,
      "anish": 3782,
      "ĠCanada": 3783,
      "anies": 3784,
      "Ġnumer": 3785,
      "ĠMore": 3786,
      "Stream": 3787,
      "Ġcalcul": 3788,
      "Util": 3789,
      "Ġpur": 3790,
      "ota": 3791,
      "Ġver": 3792,
      "Ġscal": 3793,
      "1998": 3794,
      "Ġclear": 3795,
      "Che": 3796,
      "((": 3797,
      "Ġsoft": 3798,
      "unn": 3799,
      "ĠAward": 3800,
      "ĠStreet": 3801,
      "95": 3802,
      "ocol": 3803,
      "verse": 3804,
      "query": 3805,
      "Ġtemper": 3806,
      "Input": 3807,
      "03": 3808,
      "ĠTest": 3809,
      "centering": 3810,
      "HE": 3811,
      "Fig": 3812,
      "Ġaccording": 3813,
      "ĠInter": 3814,
      "ky": 3815,
      "dr": 3816,
      "CA": 3817,
      "adian": 3818,
      "Ġinstall": 3819,
      "page": 3820,
      "ĠGeneral": 3821,
      "Ġsearch": 3822,
      "atives": 3823,
      "ago": 3824,
      "Act": 3825,
      "PI": 3826,
      "like": 3827,
      "ya": 3828,
      "ĠJames": 3829,
      "Ġmale": 3830,
      "ĠDon": 3831,
      "ĠĠĠĠĠĠĠĠĠĠĠĠĠĠĠĠĠĠĠĠĠĠĠĠĠĠĠĠĠĠĠ": 3832,
      "OL": 3833,
      "ĠPaul": 3834,
      "prop": 3835,
      "ĠFrom": 3836,
      "client": 3837,
      "Ġliter": 3838,
      "ĠEuropean": 3839,
      "omin": 3840,
      "Ġsound": 3841,
      "ĠThom": 3842,
      "Ġaward": 3843,
      "ĠChurch": 3844,
      "ulated": 3845,
      "ĠRober": 3846,
      "Ġprint": 3847,
      "Ġjob": 3848,
      "lib": 3849,
      "ĠMor": 3850,
      "ging": 3851,
      "Sigma": 3852,
      "dl": 3853,
      "There": 3854,
      "Ġmultiple": 3855,
      "has": 3856,
      "ĠGroup": 3857,
      "Ġreason": 3858,
      "stitute": 3859,
      "Ġexpress": 3860,
      "Ġpopular": 3861,
      "Ġdep": 3862,
      "Ġtreat": 3863,
      "Ġchanges": 3864,
      "ites": 3865,
      "Ġstop": 3866,
      "ĠDavid": 3867,
      "Ġbehav": 3868,
      "Ġ<<": 3869,
      "gl": 3870,
      "ONT": 3871,
      "Ġpositive": 3872,
      "eved": 3873,
      "widet": 3874,
      "ken": 3875,
      "han": 3876,
      "ĠFrance": 3877,
      "used": 3878,
      "ĠCenter": 3879,
      "Ġsubject": 3880,
      "dir": 3881,
      "Ġrelated": 3882,
      "Ġentire": 3883,
      "ville": 3884,
      "case": 3885,
      "Ġhon": 3886,
      "Ġdouble": 3887,
      "ston": 3888,
      "astic": 3889,
      "/\\": 3890,
      "Sup": 3891,
      "irm": 3892,
      "Ġeast": 3893,
      "vis": 3894,
      "curity": 3895,
      "server": 3896,
      "unt": 3897,
      "Ġroad": 3898,
      "alls": 3899,
      "van": 3900,
      "dots": 3901,
      "Source": 3902,
      "Status": 3903,
      "42": 3904,
      "}}{": 3905,
      "Ġadditional": 3906,
      "orthern": 3907,
      "Ġpresident": 3908,
      "Ġcenter": 3909,
      "bra": 3910,
      "atory": 3911,
      "Ġrather": 3912,
      "oz": 3913,
      "Pos": 3914,
      "ĠArmy": 3915,
      "rd": 3916,
      "ris": 3917,
      "Ġphase": 3918,
      "ensor": 3919,
      "iles": 3920,
      "Ġdate": 3921,
      "ĠQue": 3922,
      "\\[": 3923,
      "Ġinf": 3924,
      "Ġaud": 3925,
      "ĠSum": 3926,
      "Ġareas": 3927,
      "Ġsuccessful": 3928,
      "Ġcontain": 3929,
      "ĠFl": 3930,
      "widetilde": 3931,
      "child": 3932,
      "plies": 3933,
      "Ġload": 3934,
      "Ġinc": 3935,
      "58": 3936,
      "request": 3937,
      "Ġsuff": 3938,
      "ensive": 3939,
      "77": 3940,
      "Ġinflu": 3941,
      "Ġproposed": 3942,
      "Ġmulti": 3943,
      "ores": 3944,
      "Ġenvironment": 3945,
      "ida": 3946,
      "ĠOlymp": 3947,
      "Ġaccept": 3948,
      "ka": 3949,
      "jo": 3950,
      "finished": 3951,
      "Ġcontinu": 3952,
      "ĠLaw": 3953,
      "ĠGl": 3954,
      "hel": 3955,
      "Ġimprov": 3956,
      "Ġworked": 3957,
      "UE": 3958,
      "Ġwrite": 3959,
      "ĠRich": 3960,
      "46": 3961,
      "Ġ...": 3962,
      "Ġmag": 3963,
      "php": 3964,
      "berg": 3965,
      "Ġparty": 3966,
      "Ġfront": 3967,
      "png": 3968,
      "adding": 3969,
      "ĠNe": 3970,
      "Ġstatus": 3971,
      "Ġeval": 3972,
      "Ġcut": 3973,
      "Ġdeaths": 3974,
      "Ġwrote": 3975,
      "Ġlost": 3976,
      "Ã¶": 3977,
      "button": 3978,
      "edd": 3979,
      "rip": 3980,
      "rian": 3981,
      "display": 3982,
      "ĠBlack": 3983,
      "btn": 3984,
      "can": 3985,
      "ĠHam": 3986,
      "wood": 3987,
      "Ġwhose": 3988,
      "à¤": 3989,
      "Ġmilitary": 3990,
      "raz": 3991,
      "ĠLem": 3992,
      "args": 3993,
      "member": 3994,
      "det": 3995,
      "Ġsomething": 3996,
      "({": 3997,
      "Ġrecogn": 3998,
      "lood": 3999,
      "Ġproof": 4000,
      "func": 4001,
      "thm": 4002,
      "itting": 4003,
      "oved": 4004,
      "rs": 4005,
      "Ġincludes": 4006,
      "1996": 4007,
      "outhern": 4008,
      "yles": 4009,
      "izer": 4010,
      "unch": 4011,
      "ulations": 4012,
      "host": 4013,
      "apping": 4014,
      "EX": 4015,
      "tx": 4016,
      "oto": 4017,
      "Ġestablish": 4018,
      "Ġsurface": 4019,
      "nonumber": 4020,
      ".)": 4021,
      "ĠSince": 4022,
      "Block": 4023,
      "AM": 4024,
      "78": 4025,
      "Ġmid": 4026,
      "agon": 4027,
      "Ġdynam": 4028,
      "500": 4029,
      "YPE": 4030,
      "1980": 4031,
      "Style": 4032,
      "Oper": 4033,
      "ĠChina": 4034,
      "EL": 4035,
      "Line": 4036,
      "Instance": 4037,
      "Ġconstruction": 4038,
      "Ġviol": 4039,
      "Component": 4040,
      "}-": 4041,
      "ĠGeorge": 4042,
      "prod": 4043,
      "ittee": 4044,
      "Ġlinear": 4045,
      "Ġamount": 4046,
      "Ġwebsite": 4047,
      "Ge": 4048,
      "Ġalmost": 4049,
      "unity": 4050,
      "Ġ->": 4051,
      "Ġheight": 4052,
      "west": 4053,
      "which": 4054,
      "anced": 4055,
      "Ġwindow": 4056,
      "quare": 4057,
      "1997": 4058,
      "ication": 4059,
      "||": 4060,
      "encies": 4061,
      "ashington": 4062,
      "Ġrespons": 4063,
      "char": 4064,
      "ili": 4065,
      "otes": 4066,
      "Ġdeveloped": 4067,
      "Ġbox": 4068,
      "tabular": 4069,
      "Head": 4070,
      "jav": 4071,
      "Ġcontr": 4072,
      "Ġperformed": 4073,
      "Ġvector": 4074,
      "Ġdebut": 4075,
      "element": 4076,
      "ATE": 4077,
      "Token": 4078,
      "{-": 4079,
      "itar": 4080,
      "Ġequation": 4081,
      "Ġmakes": 4082,
      "target": 4083,
      "ani": 4084,
      "ĠTV": 4085,
      "ĠRoman": 4086,
      "bottom": 4087,
      "ĠĠĠĠĠĠĠĠĠĠĠĠĠĠ": 4088,
      "ba": 4089,
      "Ġfields": 4090,
      "imately": 4091,
      "ett": 4092,
      "ria": 4093,
      "ander": 4094,
      "Ġcourse": 4095,
      "acity": 4096,
      "more": 4097,
      "ĠAssociation": 4098,
      "Ġkind": 4099,
      "ĠĠĠĠĠĠĠĠĊ": 4100,
      "stream": 4101,
      "Ġnecess": 4102,
      "Ġthought": 4103,
      "place": 4104,
      "Ġexists": 4105,
      "Ġprior": 4106,
      "Ġcontract": 4107,
      "amily": 4108,
      "\\!": 4109,
      "Ġcomplete": 4110,
      "Ġbg": 4111,
      "band": 4112,
      "Ġsche": 4113,
      "HT": 4114,
      "asons": 4115,
      "Ġdeal": 4116,
      "Ġdegree": 4117,
      "Ġmoment": 4118,
      "ÑĤ": 4119,
      "header": 4120,
      "eck": 4121,
      "rated": 4122,
      "pc": 4123,
      "oms": 4124,
      "Ġcannot": 4125,
      "Ġresource": 4126,
      "icted": 4127,
      "Ġnight": 4128,
      "Ġthings": 4129,
      "first": 4130,
      "ĠUK": 4131,
      "Ġstage": 4132,
      "Ġlove": 4133,
      "ialog": 4134,
      "Fl": 4135,
      "First": 4136,
      "cel": 4137,
      "Ġscale": 4138,
      "Resource": 4139,
      "Ġhor": 4140,
      "FI": 4141,
      "lector": 4142,
      "Base": 4143,
      "Ġmonths": 4144,
      "ailway": 4145,
      "Action": 4146,
      "Ġoccur": 4147,
      "Ġcentral": 4148,
      "Ġunderstand": 4149,
      "eal": 4150,
      "Ġarchitect": 4151,
      "ĠDi": 4152,
      "Nav": 4153,
      "Null": 4154,
      "88": 4155,
      "bert": 4156,
      "ĠMart": 4157,
      "icult": 4158,
      "OM": 4159,
      "Ð½": 4160,
      "sin": 4161,
      "eger": 4162,
      "ebug": 4163,
      "Ġactive": 4164,
      "append": 4165,
      "Ġfail": 4166,
      "Ġleading": 4167,
      "cos": 4168,
      "Ġir": 4169,
      "alian": 4170,
      "Ġlocation": 4171,
      "][": 4172,
      "Ġconduct": 4173,
      "Ġindependent": 4174,
      "Part": 4175,
      "unfinished": 4176,
      "aching": 4177,
      "Ġalgorithm": 4178,
      "Ġbit": 4179,
      "izes": 4180,
      "ipal": 4181,
      "la": 4182,
      "igen": 4183,
      "Ġboolean": 4184,
      "dat": 4185,
      "Spec": 4186,
      "Ġcapt": 4187,
      "Ġfav": 4188,
      "ĠFranc": 4189,
      "bb": 4190,
      "How": 4191,
      "Ġrank": 4192,
      "idden": 4193,
      "Ġrat": 4194,
      "ĠSection": 4195,
      "Ġitem": 4196,
      "Ġappoint": 4197,
      "ĠLou": 4198,
      "ctor": 4199,
      "Ġdefine": 4200,
      "Ġtypes": 4201,
      "ĠHall": 4202,
      "riate": 4203,
      "Ġpolitic": 4204,
      "adata": 4205,
      "module": 4206,
      "57": 4207,
      "ully": 4208,
      "Content": 4209,
      "apter": 4210,
      "Ġtaking": 4211,
      ")]": 4212,
      "Run": 4213,
      "ouch": 4214,
      "plicit": 4215,
      "Ġneigh": 4216,
      "ein": 4217,
      "Ġoption": 4218,
      "Ġvict": 4219,
      "Ġnatural": 4220,
      "ini": 4221,
      "Ġwhite": 4222,
      "Handler": 4223,
      "Ġdirector": 4224,
      "pite": 4225,
      "Ġfire": 4226,
      "ĠRef": 4227,
      "SC": 4228,
      "nected": 4229,
      "reek": 4230,
      "ĠIN": 4231,
      "ĠGermany": 4232,
      "arter": 4233,
      "1995": 4234,
      "Ġrock": 4235,
      "GL": 4236,
      "Start": 4237,
      "Ġ\"\"\"": 4238,
      "arser": 4239,
      "Buffer": 4240,
      "Ġdistance": 4241,
      "Ġexecut": 4242,
      "ughter": 4243,
      "IM": 4244,
      "ributes": 4245,
      "ams": 4246,
      "main": 4247,
      "ube": 4248,
      "skip": 4249,
      "Ġlarger": 4250,
      "irtual": 4251,
      "dot": 4252,
      "ĠRoyal": 4253,
      "inst": 4254,
      "ĠMat": 4255,
      "ooth": 4256,
      "Ġselected": 4257,
      "Ġeducation": 4258,
      "Ġclosed": 4259,
      "strong": 4260,
      "ĠJer": 4261,
      "Ġbgcolor": 4262,
      "43": 4263,
      "ĠDepartment": 4264,
      "plications": 4265,
      "den": 4266,
      "Ġstream": 4267,
      "One": 4268,
      "Ġteams": 4269,
      "gin": 4270,
      "rey": 4271,
      "lease": 4272,
      "oding": 4273,
      "Ġrights": 4274,
      "59": 4275,
      "Ġvisit": 4276,
      "Ġsequence": 4277,
      "ugin": 4278,
      "Ġtalk": 4279,
      "Ġcandid": 4280,
      "Ġjoined": 4281,
      "open": 4282,
      "ĠUnion": 4283,
      "\\]": 4284,
      "56": 4285,
      "Ġexact": 4286,
      "Ġsaf": 4287,
      "Ġmodule": 4288,
      "Ġfeel": 4289,
      "cret": 4290,
      "scale": 4291,
      "ĠCourt": 4292,
      "oice": 4293,
      "isk": 4294,
      "Ġnovel": 4295,
      "EC": 4296,
      "Ġdefe": 4297,
      "ios": 4298,
      "Ġ+=": 4299,
      "abs": 4300,
      "ledge": 4301,
      "41": 4302,
      "otype": 4303,
      "Ġcompanies": 4304,
      "ĠDivision": 4305,
      "ua": 4306,
      "IV": 4307,
      "Ġinj": 4308,
      "Ġcomponent": 4309,
      "Gener": 4310,
      "iform": 4311,
      "Ġyet": 4312,
      "Attribute": 4313,
      "rupt": 4314,
      "Ġlearning": 4315,
      "prime": 4316,
      "Co": 4317,
      "Ġobserved": 4318,
      "ĠRoad": 4319,
      "ĠMet": 4320,
      "ĠTheorem": 4321,
      "ĠMusic": 4322,
      "estival": 4323,
      "Mem": 4324,
      "Link": 4325,
      "omorph": 4326,
      "Ġopened": 4327,
      "icol": 4328,
      "pat": 4329,
      "itude": 4330,
      "Ġapplication": 4331,
      "Ġconstr": 4332,
      "PC": 4333,
      "ĠWashington": 4334,
      "rl": 4335,
      "ĠArch": 4336,
      "Ġlot": 4337,
      "Ġtransform": 4338,
      "ederal": 4339,
      "Ġsets": 4340,
      "ena": 4341,
      "}+": 4342,
      "Ġcopy": 4343,
      "long": 4344,
      "\\{": 4345,
      "fill": 4346,
      "Ġzero": 4347,
      "ĠGreen": 4348,
      "Ġfight": 4349,
      "Ġprop": 4350,
      "ario": 4351,
      "Ġmarried": 4352,
      "ÑĢ": 4353,
      "ĠJack": 4354,
      "pected": 4355,
      "oul": 4356,
      "Ġprofessional": 4357,
      "1994": 4358,
      "Gr": 4359,
      "Ġitself": 4360,
      "ĠNews": 4361,
      "Ġtransfer": 4362,
      "Ġchall": 4363,
      "ĠPe": 4364,
      "post": 4365,
      "Ġprotected": 4366,
      "1970": 4367,
      "ĠUp": 4368,
      "Pre": 4369,
      "Ġhimself": 4370,
      "Point": 4371,
      "Ġoperator": 4372,
      "urrent": 4373,
      "Ġcampaign": 4374,
      "ĠAustralian": 4375,
      "Ġoperation": 4376,
      "Ġdraw": 4377,
      "Ġoffice": 4378,
      "Ġrunning": 4379,
      "Back": 4380,
      "oring": 4381,
      "Ġregard": 4382,
      "Ġten": 4383,
      "fe": 4384,
      "xml": 4385,
      "Ġrelationship": 4386,
      "Options": 4387,
      "Ġcurrently": 4388,
      "navbar": 4389,
      "rum": 4390,
      "ĉĉĉĉĉĉĉĉ": 4391,
      "ĠMount": 4392,
      "Ġfixed": 4393,
      "ĠSing": 4394,
      "istance": 4395,
      "aven": 4396,
      "arily": 4397,
      "inese": 4398,
      "You": 4399,
      "Ġcompleted": 4400,
      "ols": 4401,
      "Ġgoal": 4402,
      "ĠRobert": 4403,
      "Ġmother": 4404,
      "Ġsongs": 4405,
      "Ġbar": 4406,
      "Ġquestion": 4407,
      "final": 4408,
      "Ġforce": 4409,
      "local": 4410,
      "Ġintroduced": 4411,
      "Ġfactor": 4412,
      "ĠBay": 4413,
      "Ġpolicy": 4414,
      "Char": 4415,
      "hi": 4416,
      "Ġwords": 4417,
      "arning": 4418,
      "Ġclient": 4419,
      "zer": 4420,
      "Ġqual": 4421,
      "1992": 4422,
      "bound": 4423,
      "Ġweight": 4424,
      "grad": 4425,
      "Ġparts": 4426,
      "pdf": 4427,
      "Ġprovides": 4428,
      "Ġcast": 4429,
      "Ġexperience": 4430,
      "Ã¤": 4431,
      "Ġexperiment": 4432,
      "When": 4433,
      "Ġsample": 4434,
      "RA": 4435,
      "Ġupon": 4436,
      "Factory": 4437,
      "Eng": 4438,
      "Ġtakes": 4439,
      "Ġequival": 4440,
      "enced": 4441,
      "aine": 4442,
      "Ġrace": 4443,
      "Ġtour": 4444,
      "elt": 4445,
      "zeta": 4446,
      "ĠInstitute": 4447,
      "json": 4448,
      "ĠSub": 4449,
      "Ent": 4450,
      "ĠCompany": 4451,
      "Ġsett": 4452,
      ")=\\": 4453,
      "asket": 4454,
      "evelop": 4455,
      "Ġnews": 4456,
      "Number": 4457,
      "ĠNor": 4458,
      "Ġbrother": 4459,
      "Default": 4460,
      "ĠMary": 4461,
      "Version": 4462,
      "py": 4463,
      "Task": 4464,
      "Ġradio": 4465,
      "Ġ&=": 4466,
      "shire": 4467,
      "find": 4468,
      "sey": 4469,
      "Hel": 4470,
      "Ġchurch": 4471,
      "write": 4472,
      "obile": 4473,
      "Ġdig": 4474,
      "Ġmechan": 4475,
      "sg": 4476,
      "very": 4477,
      "ĠMex": 4478,
      "ĠObject": 4479,
      "Ġcontinued": 4480,
      "Ġpercent": 4481,
      "ĠReturn": 4482,
      "Ġtoday": 4483,
      "Ext": 4484,
      "Ġboard": 4485,
      "ĠDirect": 4486,
      "ala": 4487,
      "img": 4488,
      "Equal": 4489,
      ")}\\": 4490,
      "Rep": 4491,
      "Ġdetails": 4492,
      "soft": 4493,
      "}=\\": 4494,
      "ĠDay": 4495,
      "Ġstre": 4496,
      "uns": 4497,
      "ĠPress": 4498,
      "Ġinternal": 4499,
      "bour": 4500,
      "ros": 4501,
      "atively": 4502,
      "Ab": 4503,
      "alax": 4504,
      "Command": 4505,
      "Ġpers": 4506,
      "rief": 4507,
      "status": 4508,
      "Ġtro": 4509,
      "Ġsil": 4510,
      "Ġmargin": 4511,
      "Ġinit": 4512,
      "Ġissue": 4513,
      "property": 4514,
      "service": 4515,
      "icial": 4516,
      "Ġconcern": 4517,
      "Ġplaying": 4518,
      "Ġdiscover": 4519,
      "Ġmodern": 4520,
      "Ġuses": 4521,
      "98": 4522,
      "Ġincrease": 4523,
      "pecially": 4524,
      "Label": 4525,
      "{(": 4526,
      "Ġunique": 4527,
      "ĠVir": 4528,
      "Ġalthough": 4529,
      "Ġgives": 4530,
      "lier": 4531,
      "aints": 4532,
      "ĠDuring": 4533,
      "Ġprec": 4534,
      "Per": 4535,
      "Ġcompar": 4536,
      "1993": 4537,
      "mid": 4538,
      "Ġoutside": 4539,
      "icture": 4540,
      "Ġpresented": 4541,
      "ptr": 4542,
      "Ġvoc": 4543,
      "erve": 4544,
      "Ġcontinue": 4545,
      "imensional": 4546,
      "Ġdepart": 4547,
      "ĠCons": 4548,
      "ci": 4549,
      "acher": 4550,
      "}]": 4551,
      "ares": 4552,
      "Ġsigned": 4553,
      "Ġrev": 4554,
      "ĠMac": 4555,
      "\").": 4556,
      "allet": 4557,
      "ĠJust": 4558,
      "Function": 4559,
      "Ġeffects": 4560,
      "Med": 4561,
      "Ġ]": 4562,
      "Ġfall": 4563,
      "Ġdesigned": 4564,
      "rowser": 4565,
      "ĠEq": 4566,
      "ĠCap": 4567,
      "Ġreference": 4568,
      "Ġcharacters": 4569,
      "Ġfinite": 4570,
      "ĠVol": 4571,
      "ĠAcadem": 4572,
      "het": 4573,
      "REF": 4574,
      "Ġdifficult": 4575,
      "Ġwhy": 4576,
      "Filter": 4577,
      "[\"": 4578,
      "});": 4579,
      "Ġbehind": 4580,
      "Ġprinc": 4581,
      "Ġwife": 4582,
      "annot": 4583,
      "Ġissues": 4584,
      "Ġacqu": 4585,
      "Ġmonth": 4586,
      "Ġship": 4587,
      "ĠAngel": 4588,
      "ĠSociety": 4589,
      "ĠIsland": 4590,
      "zon": 4591,
      "Ġword": 4592,
      "ĠMiss": 4593,
      "ifact": 4594,
      "Ġadministr": 4595,
      "ĠNone": 4596,
      "Ġallowed": 4597,
      "ĠAlex": 4598,
      "ĠCong": 4599,
      "Ġfriend": 4600,
      "ĠBook": 4601,
      "}_\\": 4602,
      "Ġproblems": 4603,
      "Ġstudies": 4604,
      "TP": 4605,
      "LASS": 4606,
      "achine": 4607,
      "stract": 4608,
      "Ġmoney": 4609,
      ";\\": 4610,
      "Ġupdate": 4611,
      "Ġequal": 4612,
      "ĠBest": 4613,
      "ĠMer": 4614,
      "uated": 4615,
      "\"),": 4616,
      "uate": 4617,
      "iler": 4618,
      "Ġeffort": 4619,
      "*/": 4620,
      "Ġexcept": 4621,
      "Ġreve": 4622,
      "Ġdirection": 4623,
      "ĠOut": 4624,
      "Ġdam": 4625,
      "antic": 4626,
      "ĠLeg": 4627,
      "private": 4628,
      "ĠWork": 4629,
      "BA": 4630,
      "font": 4631,
      "last": 4632,
      "VER": 4633,
      "note": 4634,
      "Ġcompared": 4635,
      "ĠSam": 4636,
      "liament": 4637,
      "ĠClub": 4638,
      "ĠWhile": 4639,
      "po": 4640,
      "Ġdirectly": 4641,
      "onic": 4642,
      "cup": 4643,
      "ias": 4644,
      "Ġaccur": 4645,
      "ategy": 4646,
      "aud": 4647,
      "rael": 4648,
      "Ġinvolved": 4649,
      "ano": 4650,
      "Ġsex": 4651,
      "True": 4652,
      "Ġfollowed": 4653,
      "'re": 4654,
      "ĠTex": 4655,
      "ĠSome": 4656,
      "pack": 4657,
      "Ġcatch": 4658,
      "ĠTur": 4659,
      "Ġchannel": 4660,
      "num": 4661,
      "entry": 4662,
      "Load": 4663,
      "Ġedge": 4664,
      "ĠProv": 4665,
      "Ġwriting": 4666,
      "Ġactually": 4667,
      "obj": 4668,
      "Ġtell": 4669,
      "76": 4670,
      "Ġdirected": 4671,
      "ypes": 4672,
      "onstr": 4673,
      "Ġface": 4674,
      "textwidth": 4675,
      "Ġsus": 4676,
      "mem": 4677,
      "ĠSl": 4678,
      "Check": 4679,
      "project": 4680,
      "inally": 4681,
      "Ġrecorded": 4682,
      "star": 4683,
      "ying": 4684,
      "Ġtax": 4685,
      "Ġwhole": 4686,
      "51": 4687,
      "Ġnames": 4688,
      "$)": 4689,
      "Ġmar": 4690,
      "Ġpolice": 4691,
      "push": 4692,
      "${": 4693,
      "Le": 4694,
      "Ġvers": 4695,
      "Ġneeded": 4696,
      ")^{": 4697,
      "endif": 4698,
      "Ġobjects": 4699,
      "uid": 4700,
      "Ġextends": 4701,
      "AA": 4702,
      "Ġ(\"": 4703,
      "heet": 4704,
      "meta": 4705,
      "ĠHen": 4706,
      "widehat": 4707,
      "ĠMag": 4708,
      "ca": 4709,
      "umni": 4710,
      "stant": 4711,
      "Ġsure": 4712,
      "Ġliving": 4713,
      "ĠWeb": 4714,
      "Ġsens": 4715,
      "Ġcred": 4716,
      "ĠGold": 4717,
      "Ġsupported": 4718,
      "elete": 4719,
      "SI": 4720,
      "gener": 4721,
      "Return": 4722,
      "Ġsymmet": 4723,
      "resh": 4724,
      "ospital": 4725,
      "ramework": 4726,
      "gebra": 4727,
      "len": 4728,
      "Ġthrows": 4729,
      "54": 4730,
      "lemma": 4731,
      "ĠYear": 4732,
      "Ġlikely": 4733,
      "iant": 4734,
      "ĠMichael": 4735,
      "urity": 4736,
      "process": 4737,
      "Ġhy": 4738,
      "pass": 4739,
      "Ġlargest": 4740,
      "Ġformed": 4741,
      "Ġimages": 4742,
      "ĠAfrica": 4743,
      "}^\\": 4744,
      "igger": 4745,
      "split": 4746,
      "Ġcorrect": 4747,
      "Em": 4748,
      "sole": 4749,
      "layout": 4750,
      "Ġsetting": 4751,
      "Ġkm": 4752,
      "CD": 4753,
      "column": 4754,
      "Ġmode": 4755,
      "ĠRem": 4756,
      "App": 4757,
      "ĠService": 4758,
      "///": 4759,
      "1991": 4760,
      "ĠWhite": 4761,
      "Box": 4762,
      "ĠEar": 4763,
      "Mat": 4764,
      "ĠAfrican": 4765,
      "ĠSpec": 4766,
      "\"]": 4767,
      "Window": 4768,
      "close": 4769,
      "atur": 4770,
      "Ġimm": 4771,
      "Ġthroughout": 4772,
      "52": 4773,
      "Ġstars": 4774,
      "anning": 4775,
      "Ġprote": 4776,
      "Ġgenerated": 4777,
      "Ġpattern": 4778,
      "ensus": 4779,
      "Prov": 4780,
      "Ġgave": 4781,
      "irl": 4782,
      "ĠID": 4783,
      "ĠMad": 4784,
      "ĠCentral": 4785,
      "ĠTown": 4786,
      "ĠSk": 4787,
      "Ġformat": 4788,
      "Row": 4789,
      "iences": 4790,
      "ocket": 4791,
      "Ġfood": 4792,
      "ĠDemocr": 4793,
      "Ġscreen": 4794,
      "Ġdoesn": 4795,
      "Ġgas": 4796,
      "Br": 4797,
      "ĠJew": 4798,
      "FONT": 4799,
      "////////////////": 4800,
      "ĠGames": 4801,
      "Bl": 4802,
      "Ġjud": 4803,
      "Ġdrop": 4804,
      "Ġeight": 4805,
      "ipp": 4806,
      "ously": 4807,
      "Ġoperations": 4808,
      "Page": 4809,
      "NO": 4810,
      "Ġanaly": 4811,
      "irit": 4812,
      "Ġcoupl": 4813,
      "Ġmaximum": 4814,
      "Ġusually": 4815,
      "ĠTom": 4816,
      "select": 4817,
      "olve": 4818,
      "Met": 4819,
      ",-": 4820,
      "ĠThomas": 4821,
      "ictor": 4822,
      "96": 4823,
      "Equals": 4824,
      "Ġespecially": 4825,
      "Ġrot": 4826,
      "aset": 4827,
      "Ġspeed": 4828,
      "Ġtherefore": 4829,
      "Ġtim": 4830,
      "Ġindustry": 4831,
      "Aut": 4832,
      "hest": 4833,
      "Us": 4834,
      "Ġadj": 4835,
      "tag": 4836,
      "ĠRussian": 4837,
      "olar": 4838,
      "Ġpersonal": 4839,
      "Last": 4840,
      "Vert": 4841,
      "ĠWil": 4842,
      "rial": 4843,
      "ĠFigure": 4844,
      "ees": 4845,
      "angle": 4846,
      "ancial": 4847,
      "rows": 4848,
      "Ġrestr": 4849,
      "airs": 4850,
      "Ġappeared": 4851,
      "ĠCanadian": 4852,
      "53": 4853,
      "src": 4854,
      "ĠScott": 4855,
      "ilies": 4856,
      "Ġonline": 4857,
      "Ġdevice": 4858,
      "Ġimpact": 4859,
      "elves": 4860,
      "Ġnav": 4861,
      "inated": 4862,
      "Ġ{@": 4863,
      "Ġbooks": 4864,
      "isation": 4865,
      "Ñģ": 4866,
      "Ġdim": 4867,
      "Ġhit": 4868,
      "Create": 4869,
      "Ġprimary": 4870,
      "Ġauto": 4871,
      "Ð¾Ð": 4872,
      "Ġnone": 4873,
      "ĠPublic": 4874,
      "edy": 4875,
      "Ġspecified": 4876,
      "description": 4877,
      "ening": 4878,
      "ĠRad": 4879,
      "Ġmus": 4880,
      "Psi": 4881,
      "Ġdefinition": 4882,
      "Ġmention": 4883,
      "ĠGrand": 4884,
      "Ġ\\{": 4885,
      "Ġconnection": 4886,
      "Ġsignal": 4887,
      "Ġtemperature": 4888,
      "ĠCath": 4889,
      "Ġneeds": 4890,
      "Ġnumbers": 4891,
      "Ġautom": 4892,
      "Ġprobability": 4893,
      "ascript": 4894,
      "Ġmatter": 4895,
      "ĠKingdom": 4896,
      "Ġnote": 4897,
      "ĠGod": 4898,
      "ĠMuseum": 4899,
      "std": 4900,
      "ND": 4901,
      "agram": 4902,
      "ye": 4903,
      "Ġimmedi": 4904,
      "Ġbasis": 4905,
      "bon": 4906,
      "arks": 4907,
      "OC": 4908,
      "}|": 4909,
      "1989": 4910,
      "ĠSur": 4911,
      "Ġpick": 4912,
      "Ġwalk": 4913,
      "ĠSal": 4914,
      "1960": 4915,
      "Ġschools": 4916,
      "Child": 4917,
      "Ġ((": 4918,
      "Ġpack": 4919,
      "Ġinvestig": 4920,
      "cs": 4921,
      "ĠFound": 4922,
      "Ġcomment": 4923,
      "number": 4924,
      "format": 4925,
      "Ġunits": 4926,
      ">>": 4927,
      "Ġuns": 4928,
      "Ġfilter": 4929,
      "filter": 4930,
      "ĠBo": 4931,
      "97": 4932,
      "azine": 4933,
      "INT": 4934,
      "Ġholds": 4935,
      "Ġiter": 4936,
      "cdots": 4937,
      "anger": 4938,
      "Ġrelative": 4939,
      "Ġdemonstr": 4940,
      "Tem": 4941,
      "idents": 4942,
      "merc": 4943,
      "Ġhous": 4944,
      "ĠChristian": 4945,
      "Bundle": 4946,
      "UM": 4947,
      "Rem": 4948,
      "Ag": 4949,
      "Ġassume": 4950,
      "arp": 4951,
      "mt": 4952,
      "Mar": 4953,
      "Ġbirth": 4954,
      "})\\": 4955,
      "asketball": 4956,
      "Ġunc": 4957,
      "Ġcomes": 4958,
      "itch": 4959,
      "well": 4960,
      "ifying": 4961,
      "Ġexhib": 4962,
      "Ġconver": 4963,
      "ĠSy": 4964,
      "Det": 4965,
      "Ġsaw": 4966,
      "ĠOther": 4967,
      "ĠScience": 4968,
      "prox": 4969,
      "Ġveh": 4970,
      "Ġsolid": 4971,
      "ĠOpen": 4972,
      "background": 4973,
      "Ġeffective": 4974,
      "ducation": 4975,
      "ĠMont": 4976,
      "ĠDan": 4977,
      "pret": 4978,
      "Ġtransl": 4979,
      "Ġess": 4980,
      "ayers": 4981,
      "empty": 4982,
      "rypt": 4983,
      "Ġlonger": 4984,
      "Ġentry": 4985,
      "loor": 4986,
      "Ġoptim": 4987,
      "Ġscen": 4988,
      "Ġforward": 4989,
      "Ġupper": 4990,
      "Ġallows": 4991,
      "ĠTexas": 4992,
      "}/": 4993,
      "ĠBen": 4994,
      "Ġcourt": 4995,
      "IF": 4996,
      "oma": 4997,
      "Ġhot": 4998,
      "Ġquick": 4999,
      "Ġtowards": 5000,
      "ĠMinister": 5001,
      "Ġcountries": 5002,
      "ĠJapanese": 5003,
      "Ġdram": 5004,
      "Ġtree": 5005,
      "show": 5006,
      "Ġchanged": 5007,
      "Ġepisode": 5008,
      "reater": 5009,
      "road": 5010,
      "inct": 5011,
      "Ġcomponents": 5012,
      "Ġtransport": 5013,
      "iting": 5014,
      "Ġpain": 5015,
      "SON": 5016,
      "SD": 5017,
      "Ġren": 5018,
      "izations": 5019,
      "Ġbad": 5020,
      "ĠTechn": 5021,
      "ean": 5022,
      "ĠTor": 5023,
      "Ġsources": 5024,
      "Ġmount": 5025,
      "osen": 5026,
      "Sim": 5027,
      "ERT": 5028,
      "Ġbenef": 5029,
      "}^{(": 5030,
      "Ġcoordin": 5031,
      "Ġserver": 5032,
      "inding": 5033,
      "ĠData": 5034,
      "ita": 5035,
      "overs": 5036,
      "Ġfa": 5037,
      "olf": 5038,
      "ĠRob": 5039,
      "Ġaltern": 5040,
      "Can": 5041,
      "ĠCarol": 5042,
      "ufact": 5043,
      "Ġidea": 5044,
      "istan": 5045,
      "Ġinterface": 5046,
      "clusion": 5047,
      "ĠWestern": 5048,
      "Ġsports": 5049,
      "Ġalbums": 5050,
      "Ġstaff": 5051,
      "Ġagre": 5052,
      "Desc": 5053,
      "Ġincreasing": 5054,
      "isher": 5055,
      "Web": 5056,
      "Format": 5057,
      "ĠĠĠĠĠĠĠĠĠĠĠĠĊ": 5058,
      "reference": 5059,
      "PRO": 5060,
      "Ġconsum": 5061,
      "refix": 5062,
      "Ġdidn": 5063,
      "Ġreading": 5064,
      "Ġurl": 5065,
      "ometimes": 5066,
      "Ġconstit": 5067,
      "ĠKore": 5068,
      "Ġforces": 5069,
      "ĠLouis": 5070,
      "Ġdecision": 5071,
      "Ġmemory": 5072,
      "ĠFrancis": 5073,
      "menu": 5074,
      "only": 5075,
      "Ġtold": 5076,
      "ĠHistor": 5077,
      "ĠGreat": 5078,
      "aled": 5079,
      "buf": 5080,
      "ĠChinese": 5081,
      "Ġarticle": 5082,
      "Ġexpression": 5083,
      "Ġpreviously": 5084,
      "edge": 5085,
      "update": 5086,
      "Ġselection": 5087,
      "ura": 5088,
      "72": 5089,
      "Ġmanagement": 5090,
      "icate": 5091,
      "ĠVirgin": 5092,
      "atre": 5093,
      "DB": 5094,
      "Ġplaces": 5095,
      "Ġfailed": 5096,
      "uan": 5097,
      "1988": 5098,
      "thlet": 5099,
      "Ġhours": 5100,
      "eloc": 5101,
      "ABLE": 5102,
      "FL": 5103,
      "ĠResearch": 5104,
      "iments": 5105,
      "ĠOF": 5106,
      "Ġkilled": 5107,
      "Ġdifference": 5108,
      "ĠDel": 5109,
      "Ġsubsequ": 5110,
      "illa": 5111,
      "Par": 5112,
      "ĠMus": 5113,
      "Ġapplied": 5114,
      "container": 5115,
      "params": 5116,
      "Ġste": 5117,
      "ĠEv": 5118,
      "Valid": 5119,
      "ingu": 5120,
      "Ġdeep": 5121,
      "ĠSuper": 5122,
      "Ġelected": 5123,
      "Ġleague": 5124,
      "Ġphysical": 5125,
      "=#": 5126,
      "Ġwriter": 5127,
      "ĠThus": 5128,
      "Ġsoftware": 5129,
      "(&": 5130,
      "Ġseven": 5131,
      "BU": 5132,
      "Ġdaughter": 5133,
      "Ġseg": 5134,
      "Ġball": 5135,
      "Ġrule": 5136,
      "ĠBill": 5137,
      "Controller": 5138,
      "Ġfiles": 5139,
      "Ġfounded": 5140,
      "Ġfont": 5141,
      "eek": 5142,
      "ĠRecords": 5143,
      "za": 5144,
      "elebr": 5145,
      "ilton": 5146,
      "Ġinside": 5147,
      "track": 5148,
      "}}(": 5149,
      "ĠFore": 5150,
      "ournament": 5151,
      "ĠAcademy": 5152,
      "dec": 5153,
      "Ġsn": 5154,
      "ĠItalian": 5155,
      "Ġboundary": 5156,
      "^+": 5157,
      "Since": 5158,
      "ao": 5159,
      "Ġmix": 5160,
      "bin": 5161,
      "Ġjournal": 5162,
      "Ġrelig": 5163,
      "Ġavoid": 5164,
      "weight": 5165,
      "ĠWhat": 5166,
      "response": 5167,
      "ulture": 5168,
      "otal": 5169,
      "ĠCharles": 5170,
      "porary": 5171,
      "adow": 5172,
      "attr": 5173,
      "Ġmissing": 5174,
      "command": 5175,
      "arts": 5176,
      "Ġexpand": 5177,
      "Ġsmaller": 5178,
      "}:": 5179,
      "gs": 5180,
      "Ġplatform": 5181,
      ")-": 5182,
      "ĠZeal": 5183,
      "scr": 5184,
      "PS": 5185,
      "ĠLemma": 5186,
      "acter": 5187,
      "Ġbecomes": 5188,
      "Ġ$(\\": 5189,
      "reland": 5190,
      "FC": 5191,
      "69": 5192,
      "mission": 5193,
      "Ġfinished": 5194,
      "Ġscore": 5195,
      "ici": 5196,
      "Top": 5197,
      "Ġpassed": 5198,
      "Next": 5199,
      "Listener": 5200,
      "Ġcontact": 5201,
      "mathsf": 5202,
      "Ġusers": 5203,
      "Dr": 5204,
      "79": 5205,
      "Ġbring": 5206,
      "UI": 5207,
      "Ġsecurity": 5208,
      "Ġsense": 5209,
      "mes": 5210,
      "uge": 5211,
      "equiv": 5212,
      ".~": 5213,
      "Ġemer": 5214,
      "ĠZealand": 5215,
      "ĠSummer": 5216,
      "Post": 5217,
      "&=": 5218,
      "Ġroom": 5219,
      "NAME": 5220,
      "300": 5221,
      "Ġ<!--": 5222,
      "isions": 5223,
      "qquad": 5224,
      "Ġca": 5225,
      "ategor": 5226,
      "ĠType": 5227,
      "Ġmaintain": 5228,
      "rate": 5229,
      "that": 5230,
      "javascript": 5231,
      "ansion": 5232,
      "Ġtransition": 5233,
      "ĠFlor": 5234,
      "Sec": 5235,
      "Ġfill": 5236,
      "ether": 5237,
      "Ġappointed": 5238,
      "citet": 5239,
      "ql": 5240,
      "CL": 5241,
      "Ġlevels": 5242,
      "lev": 5243,
      "```": 5244,
      "Ġquality": 5245,
      "}\\,": 5246,
      "Ġtravel": 5247,
      "km": 5248,
      "Ġcoach": 5249,
      "Ġshare": 5250,
      "nce": 5251,
      "Ġconnect": 5252,
      "anged": 5253,
      "1987": 5254,
      "Ġshall": 5255,
      "ĠHealth": 5256,
      "Ġspin": 5257,
      "win": 5258,
      "icket": 5259,
      "erman": 5260,
      "Ġadapt": 5261,
      "Ġconcept": 5262,
      "ĠSmith": 5263,
      "Ġcivil": 5264,
      "Ġer": 5265,
      "What": 5266,
      "reme": 5267,
      "Ġinstit": 5268,
      "Ġord": 5269,
      "isl": 5270,
      "ĠTime": 5271,
      "ĠFrank": 5272,
      "Ġyield": 5273,
      "Ġtechnology": 5274,
      "indent": 5275,
      "Ġsoon": 5276,
      "Ġguitar": 5277,
      "ircraft": 5278,
      "(-": 5279,
      "ĠJose": 5280,
      "icago": 5281,
      "Button": 5282,
      "ved": 5283,
      "Length": 5284,
      "63": 5285,
      "Ġcharg": 5286,
      "Column": 5287,
      "Ġreplaced": 5288,
      "Ġfemale": 5289,
      "Ġsen": 5290,
      "Ġquery": 5291,
      "language": 5292,
      "Ġstarting": 5293,
      "Ġrepresentation": 5294,
      "ĠMem": 5295,
      "ĠOper": 5296,
      "Ġruns": 5297,
      "ĠIsrael": 5298,
      "Output": 5299,
      "Ġframe": 5300,
      "SU": 5301,
      "usion": 5302,
      "iece": 5303,
      "Ġthing": 5304,
      "DF": 5305,
      "ds": 5306,
      "Address": 5307,
      "Ġplant": 5308,
      "Ġselect": 5309,
      "remove": 5310,
      "files": 5311,
      "aily": 5312,
      "{}": 5313,
      "Ġ&\\": 5314,
      "}\\\\": 5315,
      "Ġgold": 5316,
      "Ġevidence": 5317,
      "ĠHistory": 5318,
      "Ġprogress": 5319,
      "Ġbre": 5320,
      "CP": 5321,
      "errit": 5322,
      "efined": 5323,
      "itz": 5324,
      "ĠPost": 5325,
      "ĠPeter": 5326,
      "62": 5327,
      "vention": 5328,
      "mercial": 5329,
      "Ġlimited": 5330,
      "Min": 5331,
      "Ġbehavior": 5332,
      "instance": 5333,
      "ĠNote": 5334,
      "ĠHill": 5335,
      "Ġsimply": 5336,
      "Ġproducts": 5337,
      "Ġremains": 5338,
      "Collection": 5339,
      "Ġlayer": 5340,
      "Ġdeb": 5341,
      "<?": 5342,
      "ĠCamp": 5343,
      ":</": 5344,
      "Ġsymbol": 5345,
      "Ġartists": 5346,
      "kit": 5347,
      "Work": 5348,
      "ĠRock": 5349,
      "TYPE": 5350,
      "Ġpractice": 5351,
      "ĠTable": 5352,
      "Ġdark": 5353,
      "85": 5354,
      "ĠSee": 5355,
      "Ġupd": 5356,
      "ech": 5357,
      "Ġroot": 5358,
      "Ġearlier": 5359,
      "Ġdomain": 5360,
      "ĠAccording": 5361,
      "Ġhtt": 5362,
      "heast": 5363,
      "greg": 5364,
      "enge": 5365,
      "hedul": 5366,
      "oder": 5367,
      "essages": 5368,
      "Ġstructures": 5369,
      "Ġdescription": 5370,
      "Ġnuc": 5371,
      "fect": 5372,
      "ĠPre": 5373,
      "ĠHREF": 5374,
      "Ġreturns": 5375,
      "Max": 5376,
      "ĠMel": 5377,
      "Ġgrowth": 5378,
      "orial": 5379,
      "rea": 5380,
      "ih": 5381,
      "Ġwoman": 5382,
      "urt": 5383,
      "Ġrob": 5384,
      "ĠAnn": 5385,
      "Ġtit": 5386,
      "Mon": 5387,
      "fit": 5388,
      "ĉĠĠĠ": 5389,
      "ĠRichard": 5390,
      "sets": 5391,
      "Ġquantum": 5392,
      "ĠHT": 5393,
      "ĠInc": 5394,
      "Ġfootballers": 5395,
      "1986": 5396,
      "74": 5397,
      "ĠLos": 5398,
      "ĠFootball": 5399,
      "61": 5400,
      "Ġstore": 5401,
      "Ġcapital": 5402,
      "scope": 5403,
      "Mode": 5404,
      "URL": 5405,
      "Ġlack": 5406,
      "ln": 5407,
      "values": 5408,
      "Ġtrain": 5409,
      "otion": 5410,
      "Ġvariable": 5411,
      "Ġlisted": 5412,
      "ĠCLASS": 5413,
      "ĠForm": 5414,
      "Ġbuildings": 5415,
      "1984": 5416,
      "&&": 5417,
      "kr": 5418,
      "unit": 5419,
      "ERR": 5420,
      "ervices": 5421,
      "Ġax": 5422,
      "eft": 5423,
      "erved": 5424,
      "Ġded": 5425,
      "Ġnecessary": 5426,
      "]$": 5427,
      "Ġseem": 5428,
      "SA": 5429,
      ".$": 5430,
      "mas": 5431,
      "ĠParis": 5432,
      "Ġhttps": 5433,
      "anta": 5434,
      "Ġelectron": 5435,
      "ella": 5436,
      "Ġgalax": 5437,
      "gu": 5438,
      "NN": 5439,
      "Ġstated": 5440,
      "Ġfit": 5441,
      "Ġclasses": 5442,
      "ĠDet": 5443,
      "ĠLog": 5444,
      "else": 5445,
      "output": 5446,
      "Ġscient": 5447,
      "Ġrules": 5448,
      "Ġchoice": 5449,
      "atin": 5450,
      "Vis": 5451,
      "Ġss": 5452,
      "ĠSecond": 5453,
      "umerate": 5454,
      "Ġexisting": 5455,
      "term": 5456,
      "Ġsolutions": 5457,
      "ometry": 5458,
      "depend": 5459,
      "So": 5460,
      "Ġbur": 5461,
      "She": 5462,
      "onom": 5463,
      "ĠĠĠĠĠĠĠĠĠĠĠĠĠĠĠĠĠĠĠĠĠĠĠĠĠĠĠĠĠĠĠĠĠĠĠ": 5464,
      "yes": 5465,
      "Ġconnected": 5466,
      "anned": 5467,
      "Ġreached": 5468,
      "hing": 5469,
      "{{": 5470,
      "Ġillust": 5471,
      "Ġminutes": 5472,
      "ĠOf": 5473,
      "Ġstudied": 5474,
      "sd": 5475,
      "ien": 5476,
      "Ġcritical": 5477,
      "Ġculture": 5478,
      "Ġwid": 5479,
      "iday": 5480,
      "tex": 5481,
      "1985": 5482,
      "ĠCommission": 5483,
      "89": 5484,
      "Ġassist": 5485,
      "older": 5486,
      "Ġ;": 5487,
      "ĠOver": 5488,
      "Ġbeginning": 5489,
      "./": 5490,
      "force": 5491,
      "Ġpeak": 5492,
      "Ġregister": 5493,
      "Dat": 5494,
      "ĠOlympics": 5495,
      "Ġalumni": 5496,
      "evelopment": 5497,
      "Ġprove": 5498,
      "That": 5499,
      "').": 5500,
      "fs": 5501,
      "xspace": 5502,
      "Ġfinally": 5503,
      "TV": 5504,
      "Rel": 5505,
      "Ġconfiguration": 5506,
      "ĠPo": 5507,
      "Ġeventually": 5508,
      "igan": 5509,
      "ĠFin": 5510,
      "break": 5511,
      "then": 5512,
      "CON": 5513,
      "Ġstations": 5514,
      "Ġvirtual": 5515,
      "oys": 5516,
      "ental": 5517,
      "ribe": 5518,
      "Ġ~": 5519,
      "ĠHel": 5520,
      "Ġdecre": 5521,
      "desc": 5522,
      "miss": 5523,
      "Ġcause": 5524,
      "Ġfun": 5525,
      "Ġcop": 5526,
      "hr": 5527,
      "Ġapply": 5528,
      "sche": 5529,
      "Server": 5530,
      "_.": 5531,
      "hent": 5532,
      "ĠWomen": 5533,
      "Layout": 5534,
      "amera": 5535,
      "aml": 5536,
      "wrap": 5537,
      "di": 5538,
      "Ġslow": 5539,
      "'$": 5540,
      "olk": 5541,
      "IO": 5542,
      "stack": 5543,
      "Ġesc": 5544,
      "ĠMr": 5545,
      "Ġartist": 5546,
      "ĠMass": 5547,
      "Ġrepresented": 5548,
      "iny": 5549,
      "Ġoverall": 5550,
      "ponents": 5551,
      "Ġgenerally": 5552,
      "ĠAtt": 5553,
      "Case": 5554,
      "hspace": 5555,
      "Ġinn": 5556,
      "Ġprem": 5557,
      "Ġargument": 5558,
      "gle": 5559,
      "ĠOur": 5560,
      "Ġstri": 5561,
      "ancy": 5562,
      "ĠPri": 5563,
      "ĠMo": 5564,
      "PR": 5565,
      "Update": 5566,
      "Ġopport": 5567,
      "ecution": 5568,
      "Ġremain": 5569,
      "SO": 5570,
      "matrix": 5571,
      "ĠAv": 5572,
      "allel": 5573,
      "gn": 5574,
      "ĠLake": 5575,
      "ĠNow": 5576,
      "mselves": 5577,
      "ollowing": 5578,
      "Cache": 5579,
      "Ġdoc": 5580,
      "real": 5581,
      "ynch": 5582,
      "Ġincreased": 5583,
      "Ġfamilies": 5584,
      "Ġvariables": 5585,
      "Ġhel": 5586,
      "Ġdecided": 5587,
      "Ġwide": 5588,
      "Ġmanager": 5589,
      "400": 5590,
      "neq": 5591,
      "udd": 5592,
      "Ġpurch": 5593,
      "ĠVer": 5594,
      "ĠCatholic": 5595,
      "ussian": 5596,
      "COL": 5597,
      "Ġcells": 5598,
      "ĠCO": 5599,
      "Ġstreng": 5600,
      "Fe": 5601,
      "styles": 5602,
      "returns": 5603,
      "example": 5604,
      "|^": 5605,
      "Ġdoing": 5606,
      "Ġleader": 5607,
      "Ġremove": 5608,
      "iger": 5609,
      "Ġbrought": 5610,
      "rule": 5611,
      "Ġbelong": 5612,
      "}+\\": 5613,
      "Ġcallback": 5614,
      "ette": 5615,
      ";->": 5616,
      "Tag": 5617,
      "Ġdestroy": 5618,
      "ĠCommittee": 5619,
      "support": 5620,
      "Ġaim": 5621,
      "Ġdenote": 5622,
      "Entity": 5623,
      "fort": 5624,
      "ĠBig": 5625,
      "approx": 5626,
      "aa": 5627,
      "Ġfourth": 5628,
      "offset": 5629,
      "Ġthemselves": 5630,
      "Ġprobably": 5631,
      "frame": 5632,
      "ĠLicense": 5633,
      "Ġveloc": 5634,
      "ĠFilm": 5635,
      "inger": 5636,
      "ĠVictor": 5637,
      "Ġbank": 5638,
      "ĠBuild": 5639,
      "Ġnature": 5640,
      "Ġplaced": 5641,
      "icrosoft": 5642,
      "arian": 5643,
      "Ġ!==": 5644,
      "Ġforms": 5645,
      "Ġsort": 5646,
      "jection": 5647,
      "ĠRead": 5648,
      "ĠForce": 5649,
      "Ġrecently": 5650,
      "Width": 5651,
      "AV": 5652,
      "Ġknowledge": 5653,
      "Note": 5654,
      "Ġcounter": 5655,
      "Ġpredict": 5656,
      "Ġhighest": 5657,
      "ĠArray": 5658,
      "Ġweak": 5659,
      "TO": 5660,
      "86": 5661,
      "********************************": 5662,
      "Ġoriginally": 5663,
      "nes": 5664,
      "BS": 5665,
      "71": 5666,
      "vest": 5667,
      "Ġtag": 5668,
      "ĠBase": 5669,
      "Ġmiddle": 5670,
      "ĠIreland": 5671,
      "Ġmovement": 5672,
      "ectors": 5673,
      "Ġtrade": 5674,
      "Ġmur": 5675,
      "++)": 5676,
      "ki": 5677,
      "Ġoccup": 5678,
      "Ġpark": 5679,
      "iring": 5680,
      "ĠCongress": 5681,
      "Ġcoming": 5682,
      "lam": 5683,
      "ĠPenn": 5684,
      "iginal": 5685,
      "Ġscience": 5686,
      "author": 5687,
      "Ġshot": 5688,
      "utch": 5689,
      "Ġcharge": 5690,
      "Ġansw": 5691,
      "73": 5692,
      "TS": 5693,
      "Ġetc": 5694,
      "ĠEX": 5695,
      "Ġfast": 5696,
      "anda": 5697,
      "ĠGovernment": 5698,
      "ĠEnd": 5699,
      "itory": 5700,
      "sign": 5701,
      "Ġregions": 5702,
      "task": 5703,
      "Ġdetermined": 5704,
      "icated": 5705,
      "azz": 5706,
      "Ġanti": 5707,
      "Ġvolume": 5708,
      "uke": 5709,
      "Ġargs": 5710,
      "([": 5711,
      "otic": 5712,
      "ĠSpanish": 5713,
      "Net": 5714,
      "Ġ**": 5715,
      "ydro": 5716,
      "={": 5717,
      "oded": 5718,
      "Description": 5719,
      "1950": 5720,
      "Ġcompetition": 5721,
      "fg": 5722,
      ";\"": 5723,
      "Ġvan": 5724,
      "Ġ[]": 5725,
      "=\"../../../../../": 5726,
      "Ġanim": 5727,
      "Ġrepe": 5728,
      "prototype": 5729,
      "iders": 5730,
      "{{\\": 5731,
      "ato": 5732,
      "ĠCD": 5733,
      "Ġtreatment": 5734,
      "Ġappears": 5735,
      "Ġpen": 5736,
      "ĠGeorg": 5737,
      "Ġshape": 5738,
      "'m": 5739,
      "1983": 5740,
      "Entry": 5741,
      "ãģ": 5742,
      "Ġwait": 5743,
      "omial": 5744,
      "ĠStar": 5745,
      "Ġlooking": 5746,
      "hy": 5747,
      "ady": 5748,
      "Ġevolution": 5749,
      "ĠOrder": 5750,
      "Ġinterview": 5751,
      "Ġfigure": 5752,
      "theorem": 5753,
      "Port": 5754,
      "EM": 5755,
      "Ġasked": 5756,
      "ecause": 5757,
      "war": 5758,
      "ĠIll": 5759,
      "Ġrelation": 5760,
      "Ġpaint": 5761,
      "Access": 5762,
      "ockey": 5763,
      "ĠFe": 5764,
      "Ġnodes": 5765,
      "linear": 5766,
      "Frame": 5767,
      "Ġmunic": 5768,
      "Do": 5769,
      "Ġequations": 5770,
      "Ġfra": 5771,
      "Ġthreat": 5772,
      "Ġquite": 5773,
      "Ġeditor": 5774,
      "agger": 5775,
      "ĠChicago": 5776,
      "Ġoffset": 5777,
      "Ġstay": 5778,
      "DO": 5779,
      "Offset": 5780,
      "ĠTwo": 5781,
      "Ġrap": 5782,
      "ĠBrown": 5783,
      "Url": 5784,
      "enumerate": 5785,
      "Ġcoeff": 5786,
      "ĠLand": 5787,
      "Ġroute": 5788,
      "Ġbus": 5789,
      "ils": 5790,
      "izont": 5791,
      "ishop": 5792,
      "Ġago": 5793,
      "abit": 5794,
      "nel": 5795,
      "Ġorigin": 5796,
      "Ġfeed": 5797,
      "Ġproced": 5798,
      "Ġaw": 5799,
      "ATION": 5800,
      "Ġresulting": 5801,
      "ĠDen": 5802,
      "hor": 5803,
      "ĠAtl": 5804,
      "Ġheart": 5805,
      "Ġlegal": 5806,
      "plete": 5807,
      "ĠRussia": 5808,
      "ĠKn": 5809,
      "Ġattention": 5810,
      "Ġcard": 5811,
      "PO": 5812,
      "osing": 5813,
      "}-\\": 5814,
      "ĠHere": 5815,
      "ĠBur": 5816,
      "Ġauth": 5817,
      "multicol": 5818,
      "Types": 5819,
      "razil": 5820,
      "igr": 5821,
      "Ġcollege": 5822,
      "Provider": 5823,
      "mathscr": 5824,
      "}}{\\": 5825,
      "Location": 5826,
      "rees": 5827,
      "Ġmedal": 5828,
      "opl": 5829,
      "ĠKe": 5830,
      "RL": 5831,
      "INE": 5832,
      "normal": 5833,
      "graph": 5834,
      "ĠFlorida": 5835,
      "Am": 5836,
      "1982": 5837,
      "Te": 5838,
      "cr": 5839,
      "Ġmanufact": 5840,
      "ĠCast": 5841,
      "El": 5842,
      "Ġcritic": 5843,
      "oute": 5844,
      "ĠVirginia": 5845,
      "Ġcelebr": 5846,
      "(_": 5847,
      "dimensional": 5848,
      "ĠGL": 5849,
      "Ġrecon": 5850,
      "float": 5851,
      "Ġsecret": 5852,
      "ĠArts": 5853,
      "Ġtraditional": 5854,
      "Ġmind": 5855,
      "people": 5856,
      "ĠLong": 5857,
      "clude": 5858,
      "multicolumn": 5859,
      "Ġactual": 5860,
      "Ġâ": 5861,
      "writ": 5862,
      "Ã¨": 5863,
      "ĠUnder": 5864,
      "Ġmeaning": 5865,
      "Ġsch": 5866,
      "dep": 5867,
      "Ġmovie": 5868,
      "Ġlatter": 5869,
      "Ġimplies": 5870,
      "inder": 5871,
      "Ġobj": 5872,
      "mitted": 5873,
      "Ġgrant": 5874,
      "Ġrisk": 5875,
      "Current": 5876,
      "card": 5877,
      "ĠSeries": 5878,
      "gence": 5879,
      "ĠLoc": 5880,
      "Ġfully": 5881,
      "parse": 5882,
      "Ġque": 5883,
      "Track": 5884,
      "Ġwor": 5885,
      "Ġpresence": 5886,
      "VAL": 5887,
      "thon": 5888,
      "ounter": 5889,
      "iller": 5890,
      "Ġextended": 5891,
      "proto": 5892,
      "underline": 5893,
      "Ġhum": 5894,
      "ĠHenry": 5895,
      "Ġexception": 5896,
      "Ġnegative": 5897,
      "itemize": 5898,
      "bool": 5899,
      "Open": 5900,
      "ĠNS": 5901,
      "ĠArg": 5902,
      "GB": 5903,
      "ulate": 5904,
      "Ġseems": 5905,
      "ola": 5906,
      ":\"": 5907,
      "utils": 5908,
      "Ġequip": 5909,
      "Ġign": 5910,
      "Sy": 5911,
      "etch": 5912,
      "ĠFestival": 5913,
      "etime": 5914,
      "Ġproper": 5915,
      "ĠAssembly": 5916,
      "1000": 5917,
      "osh": 5918,
      "Ġorganization": 5919,
      "ĠField": 5920,
      "Ġadopt": 5921,
      "uri": 5922,
      "Ġapproximately": 5923,
      "Ġparticularly": 5924,
      "anges": 5925,
      "Sche": 5926,
      "ĠAngeles": 5927,
      "expected": 5928,
      "istribut": 5929,
      "Ġratio": 5930,
      "rics": 5931,
      "Ã³n": 5932,
      "ĠTherefore": 5933,
      "ĠDev": 5934,
      "idae": 5935,
      "ĠRel": 5936,
      "ĠAut": 5937,
      "Go": 5938,
      "Ġspent": 5939,
      "joy": 5940,
      "Ġcollect": 5941,
      "ror": 5942,
      "%;": 5943,
      "ĠScot": 5944,
      "allery": 5945,
      "models": 5946,
      "HO": 5947,
      "ĠIts": 5948,
      "Ġstudent": 5949,
      "ĠBoard": 5950,
      "Ġgetting": 5951,
      "Ġblue": 5952,
      "87": 5953,
      "({\\": 5954,
      "artifact": 5955,
      "olved": 5956,
      "KE": 5957,
      "Ġearn": 5958,
      "ali": 5959,
      "Target": 5960,
      "Ġrecover": 5961,
      "Ġotherwise": 5962,
      "Ġmatches": 5963,
      "ĠMexico": 5964,
      "Ġhol": 5965,
      "Ġdead": 5966,
      "inem": 5967,
      "house": 5968,
      "Ġgrand": 5969,
      "related": 5970,
      "Ġactivity": 5971,
      "Ġswitch": 5972,
      "template": 5973,
      "vant": 5974,
      "Ġweb": 5975,
      ")}{": 5976,
      "]\\": 5977,
      "ãĥ": 5978,
      "Ġinsp": 5979,
      "typ": 5980,
      "acement": 5981,
      "bed": 5982,
      "Ġstatement": 5983,
      "Ġresources": 5984,
      "ecute": 5985,
      "Ġincor": 5986,
      "Ġequivalent": 5987,
      "iverse": 5988,
      "ternet": 5989,
      "Dev": 5990,
      "flict": 5991,
      "rong": 5992,
      "Ġwanted": 5993,
      "Ġaircraft": 5994,
      "Ġuint": 5995,
      "Ġfix": 5996,
      "oration": 5997,
      "Ġwatch": 5998,
      "Ġremained": 5999,
      "norm": 6000,
      "iques": 6001,
      "ĠAPI": 6002,
      "Now": 6003,
      "Ġextra": 6004,
      "Ġprevent": 6005,
      "crete": 6006,
      "Ġprofile": 6007,
      "duct": 6008,
      "Ġfrequency": 6009,
      "Ġextension": 6010,
      "Ġcategory": 6011,
      "Ġweeks": 6012,
      "ullet": 6013,
      "Ġmeeting": 6014,
      "Ġmagnetic": 6015,
      "Ġleave": 6016,
      "My": 6017,
      "Ġestimate": 6018,
      "Tree": 6019,
      "second": 6020,
      "Pi": 6021,
      "common": 6022,
      "Ġfeatured": 6023,
      "Ġminor": 6024,
      "tim": 6025,
      "Ġplays": 6026,
      "$(": 6027,
      "Ġcit": 6028,
      "1979": 6029,
      "Ġrecomm": 6030,
      "oviet": 6031,
      "unched": 6032,
      "Ġcaused": 6033,
      "ĠSecret": 6034,
      "parameter": 6035,
      "Ġmut": 6036,
      "ĠSwed": 6037,
      "Ġ-\\": 6038,
      "vspace": 6039,
      "require": 6040,
      "ĠDec": 6041,
      "after": 6042,
      "Ġsometimes": 6043,
      "Ġremaining": 6044,
      "prove": 6045,
      "argument": 6046,
      "tree": 6047,
      "'),": 6048,
      "umin": 6049,
      "Ġdise": 6050,
      "ĠItaly": 6051,
      "Ã§": 6052,
      "ĠLife": 6053,
      "nother": 6054,
      "olute": 6055,
      "ĠGa": 6056,
      "ibly": 6057,
      "ĠFoundation": 6058,
      "Ġsummer": 6059,
      "TI": 6060,
      "Ġbroadcast": 6061,
      "ĠTrump": 6062,
      "()->": 6063,
      "imary": 6064,
      "1981": 6065,
      "ipl": 6066,
      "ounds": 6067,
      "Ġchem": 6068,
      "ĠTimes": 6069,
      "Ġvs": 6070,
      "ora": 6071,
      "ĠMur": 6072,
      "icens": 6073,
      "izontal": 6074,
      "Ġnothing": 6075,
      "Ġcore": 6076,
      "ĠOh": 6077,
      "Ġeasy": 6078,
      "Then": 6079,
      "Ġopening": 6080,
      "Ġsession": 6081,
      "Ġalt": 6082,
      "ja": 6083,
      "Ġreli": 6084,
      "Po": 6085,
      "kin": 6086,
      "Ġreduced": 6087,
      "conf": 6088,
      "LP": 6089,
      "Ġcontaining": 6090,
      "ĠMost": 6091,
      "fa": 6092,
      "ĠPet": 6093,
      "Ġfinancial": 6094,
      "Ġhandle": 6095,
      "ĉĉĉĉĉĉĉ": 6096,
      "free": 6097,
      "Ġscored": 6098,
      "Ġvariety": 6099,
      "ĉĉĊ": 6100,
      "ker": 6101,
      "Process": 6102,
      "Container": 6103,
      "document": 6104,
      "Ġsec": 6105,
      "drop": 6106,
      "Configuration": 6107,
      "82": 6108,
      "Ġpressure": 6109,
      "ĠProject": 6110,
      "Ġinstr": 6111,
      "gate": 6112,
      "root": 6113,
      "ernel": 6114,
      "Dec": 6115,
      "Ġmedical": 6116,
      "ĠTim": 6117,
      "Ġnoted": 6118,
      "iled": 6119,
      "resents": 6120,
      "ĠSil": 6121,
      "Des": 6122,
      "Ġsend": 6123,
      "Ġawarded": 6124,
      "1972": 6125,
      "yan": 6126,
      "even": 6127,
      "Direct": 6128,
      "agment": 6129,
      "FT": 6130,
      "cover": 6131,
      "ĠEngine": 6132,
      "Ġproduce": 6133,
      "########": 6134,
      "84": 6135,
      "Ġneighbor": 6136,
      "omic": 6137,
      "Ġmicro": 6138,
      "]);": 6139,
      "Ġbelieve": 6140,
      "More": 6141,
      "Ġsurround": 6142,
      "ima": 6143,
      "window": 6144,
      "Ġbuffer": 6145,
      "Ġ\\|": 6146,
      "iano": 6147,
      "should": 6148,
      "Ġneut": 6149,
      "olt": 6150,
      "ĠProgram": 6151,
      "MM": 6152,
      "Ġactivities": 6153,
      "QL": 6154,
      "Äģ": 6155,
      "Ġpanel": 6156,
      "ĠSun": 6157,
      "eval": 6158,
      "ĠShow": 6159,
      "Ġscript": 6160,
      "witter": 6161,
      "Other": 6162,
      "uint": 6163,
      "Ġempty": 6164,
      "Ġdescribe": 6165,
      "Utils": 6166,
      "sych": 6167,
      "ariant": 6168,
      "Ġconsists": 6169,
      "ĠCre": 6170,
      "Pop": 6171,
      "Ġfriends": 6172,
      "olec": 6173,
      "Ġitems": 6174,
      "ĠMa": 6175,
      "des": 6176,
      "PP": 6177,
      "cles": 6178,
      "Parameter": 6179,
      "Ġmis": 6180,
      "Ġfoot": 6181,
      "Ġhighly": 6182,
      "ĠAlthough": 6183,
      "Ġreach": 6184,
      "ĠBank": 6185,
      "ãĤ": 6186,
      "1976": 6187,
      "before": 6188,
      "Ġapplications": 6189,
      "$}": 6190,
      "1978": 6191,
      "icks": 6192,
      "Results": 6193,
      "ULT": 6194,
      "ĠTour": 6195,
      "ĠEducation": 6196,
      "ashed": 6197,
      "Ġprograms": 6198,
      "ĠOld": 6199,
      "}}_": 6200,
      "Ġfif": 6201,
      "ĠST": 6202,
      "Ġdu": 6203,
      "Height": 6204,
      "ĠFile": 6205,
      "Ġarguments": 6206,
      "Ġremoved": 6207,
      "Sl": 6208,
      "iro": 6209,
      "ĠTop": 6210,
      "ĠMax": 6211,
      "classes": 6212,
      "ĠAlso": 6213,
      "Ġconvert": 6214,
      "ouri": 6215,
      "ucture": 6216,
      "ZE": 6217,
      "ĠRegister": 6218,
      "Http": 6219,
      "94": 6220,
      "Ġcollabor": 6221,
      "sect": 6222,
      "ictionary": 6223,
      "Script": 6224,
      "Person": 6225,
      "Range": 6226,
      "Control": 6227,
      "Ġexplicit": 6228,
      "ĠMartin": 6229,
      "Ġeconomic": 6230,
      "Ġhyp": 6231,
      "ĠDirector": 6232,
      "eds": 6233,
      "Search": 6234,
      "Ġrequires": 6235,
      "scal": 6236,
      "Ġability": 6237,
      "\\,\\": 6238,
      "Ġbottom": 6239,
      "ĠBas": 6240,
      "aved": 6241,
      "SH": 6242,
      "1974": 6243,
      "ĠGen": 6244,
      "iana": 6245,
      "Ġuniform": 6246,
      "noindent": 6247,
      "cache": 6248,
      "Ġelectric": 6249,
      "images": 6250,
      "BO": 6251,
      "Ġfloat": 6252,
      "Ġslight": 6253,
      "Ġchalleng": 6254,
      "elled": 6255,
      "=\"-": 6256,
      "ĠEr": 6257,
      "Ġnearly": 6258,
      "Ġsinger": 6259,
      "isms": 6260,
      "Ġones": 6261,
      "Ġlen": 6262,
      "Ġshoot": 6263,
      "Ġsaying": 6264,
      "Ġbal": 6265,
      "ati": 6266,
      "Ġalgebra": 6267,
      "riptor": 6268,
      "Ġscene": 6269,
      "CR": 6270,
      "ĠAirport": 6271,
      "Local": 6272,
      "rect": 6273,
      "Ġcomputer": 6274,
      "ĠSaint": 6275,
      "bi": 6276,
      "ootstr": 6277,
      "Ġpolitician": 6278,
      "vania": 6279,
      "ny": 6280,
      "ĠSpr": 6281,
      "Ġscope": 6282,
      "asion": 6283,
      "Ġerrors": 6284,
      "equal": 6285,
      "ĠĠĠĊ": 6286,
      "PA": 6287,
      "Ġdetermine": 6288,
      "Ġgreen": 6289,
      "ĠĠĠĠĠĠĠĠĠĠĠĠĠĠĠĠĠĠĠĠĠ": 6290,
      "1975": 6291,
      "pop": 6292,
      "spect": 6293,
      "Ġwinning": 6294,
      "ĠMil": 6295,
      "found": 6296,
      "akers": 6297,
      "Ġtournament": 6298,
      "ĠPac": 6299,
      "Ġclassical": 6300,
      "ĠRo": 6301,
      "Ġvac": 6302,
      "Ġimmediately": 6303,
      "Enc": 6304,
      "system": 6305,
      "uls": 6306,
      "ĠJo": 6307,
      "control": 6308,
      "\\}$": 6309,
      "CODE": 6310,
      "}'": 6311,
      "\\\"": 6312,
      "Ġsamples": 6313,
      "reshold": 6314,
      "site": 6315,
      "present": 6316,
      "ĠHot": 6317,
      "Ġactor": 6318,
      "ervation": 6319,
      "osc": 6320,
      "orter": 6321,
      "room": 6322,
      "Ġhousehold": 6323,
      "ĠRE": 6324,
      "range": 6325,
      "Ġnorm": 6326,
      "ĠLine": 6327,
      "92": 6328,
      "Ġgreater": 6329,
      "Early": 6330,
      "ĠAwards": 6331,
      "Bo": 6332,
      "operat": 6333,
      "render": 6334,
      "ĠCarolina": 6335,
      "1977": 6336,
      "ellig": 6337,
      "ĠKar": 6338,
      ")}$": 6339,
      "Ġfavor": 6340,
      "ĠProfess": 6341,
      "SL": 6342,
      "ĠSocial": 6343,
      "Ġminimum": 6344,
      "rence": 6345,
      "~$": 6346,
      "white": 6347,
      "ympt": 6348,
      "Ġbegin": 6349,
      "Ġchosen": 6350,
      "artifactId": 6351,
      "alo": 6352,
      "Ġderived": 6353,
      "Ġtrying": 6354,
      "texttt": 6355,
      "DD": 6356,
      "Level": 6357,
      "ĠDE": 6358,
      "ĠOl": 6359,
      "Thread": 6360,
      "Ne": 6361,
      "Ġscheme": 6362,
      "Ġspectrum": 6363,
      "adium": 6364,
      "ĠTeam": 6365,
      "ested": 6366,
      "Ġseparate": 6367,
      "Ġgoes": 6368,
      "PL": 6369,
      "Ġrecords": 6370,
      "esh": 6371,
      "Ġ(-": 6372,
      "Json": 6373,
      "Ġagreement": 6374,
      "actor": 6375,
      "ko": 6376,
      "RI": 6377,
      "Ġdimension": 6378,
      "rot": 6379,
      "Ġheavy": 6380,
      "Module": 6381,
      "apped": 6382,
      "Ġensure": 6383,
      "=\"_": 6384,
      "ĠEmp": 6385,
      "ĠGoogle": 6386,
      "orning": 6387,
      "Ġwood": 6388,
      "Don": 6389,
      "operatorn": 6390,
      "Ġeasily": 6391,
      "Ġbasketball": 6392,
      "ĠOffice": 6393,
      "Header": 6394,
      "areer": 6395,
      "'ve": 6396,
      "tains": 6397,
      "John": 6398,
      "eler": 6399,
      "Art": 6400,
      "Ġprison": 6401,
      "93": 6402,
      "ĠHon": 6403,
      "Ġcluster": 6404,
      "Ġidentity": 6405,
      "Ġturned": 6406,
      "Ġsuit": 6407,
      "Ġestimated": 6408,
      "IGN": 6409,
      "Ġbasic": 6410,
      "rolled": 6411,
      "Ġpatients": 6412,
      "Ġdistributed": 6413,
      "ski": 6414,
      "Ġinteresting": 6415,
      "men": 6416,
      "trm": 6417,
      "Write": 6418,
      "Ġstra": 6419,
      "Stat": 6420,
      "buffer": 6421,
      "Ev": 6422,
      "Ġsynt": 6423,
      "Ġsufficient": 6424,
      "Ġcommercial": 6425,
      ")+": 6426,
      "resource": 6427,
      "Ġanything": 6428,
      "coming": 6429,
      "Ġparents": 6430,
      "cat": 6431,
      "lines": 6432,
      "wa": 6433,
      "operatorname": 6434,
      "Ġended": 6435,
      "Ac": 6436,
      "ĠKh": 6437,
      "Ġvelocity": 6438,
      "Ġteacher": 6439,
      "irls": 6440,
      "atalog": 6441,
      "Ġmajority": 6442,
      "1968": 6443,
      "Ġlives": 6444,
      "tml": 6445,
      "Ġunion": 6446,
      "Ġexam": 6447,
      "apers": 6448,
      "venue": 6449,
      "Ġdrug": 6450,
      "ALL": 6451,
      "Ġdou": 6452,
      "Notes": 6453,
      "ĠSol": 6454,
      ">,": 6455,
      "match": 6456,
      "Ġcompl": 6457,
      "Ġbattle": 6458,
      "Ġseek": 6459,
      "Rev": 6460,
      "1973": 6461,
      "Ġframework": 6462,
      "asy": 6463,
      "Ġwriters": 6464,
      "Interface": 6465,
      "Ġestablishments": 6466,
      "ĠHaw": 6467,
      "itors": 6468,
      "ĠYoung": 6469,
      "ootstrap": 6470,
      "textrm": 6471,
      "abilities": 6472,
      "ĠKey": 6473,
      "ĠReturns": 6474,
      "ĠWood": 6475,
      "API": 6476,
      "Ġcoast": 6477,
      "Ġbranch": 6478,
      "Hash": 6479,
      "Ġpoor": 6480,
      "ishes": 6481,
      "border": 6482,
      "Ġmoving": 6483,
      "vey": 6484,
      "Ġcorn": 6485,
      "Ġprep": 6486,
      "CS": 6487,
      "ĠNetwork": 6488,
      "ĠLove": 6489,
      "Ġdivision": 6490,
      "ĠIran": 6491,
      "Ġprojects": 6492,
      "groupId": 6493,
      "Ġstrategy": 6494,
      "ĠChampionships": 6495,
      "Ġquarter": 6496,
      "Ġcompletely": 6497,
      "ensions": 6498,
      "Position": 6499,
      "ova": 6500,
      "ĠNavy": 6501,
      "Ġgets": 6502,
      "Ġnative": 6503,
      "ĠTem": 6504,
      "Ġacadem": 6505,
      "pers": 6506,
      "Ġnoise": 6507,
      "step": 6508,
      "Right": 6509,
      "Ġapprop": 6510,
      "Ġinfluence": 6511,
      "direct": 6512,
      "Order": 6513,
      "ĠFort": 6514,
      "Ġprice": 6515,
      "vector": 6516,
      "Ġwhom": 6517,
      "clos": 6518,
      "icker": 6519,
      "dim": 6520,
      "Ġlibrary": 6521,
      "ipality": 6522,
      "uced": 6523,
      "apse": 6524,
      "irmed": 6525,
      "Empty": 6526,
      "syl": 6527,
      "Ġsituation": 6528,
      "isters": 6529,
      "Ġreceive": 6530,
      "black": 6531,
      "ona": 6532,
      "ĠApp": 6533,
      "ĠParliament": 6534,
      "91": 6535,
      "Ġstories": 6536,
      "dest": 6537,
      "Ġgoals": 6538,
      "Ġconcent": 6539,
      "internal": 6540,
      "aka": 6541,
      "erc": 6542,
      "Ġsquare": 6543,
      "Ġchoose": 6544,
      "erry": 6545,
      "Ġchain": 6546,
      "Ġways": 6547,
      "entity": 6548,
      "Ġidentified": 6549,
      "ĠArab": 6550,
      "Ġedition": 6551,
      "Ġwind": 6552,
      "Ġdataset": 6553,
      "Ġinterpret": 6554,
      "ART": 6555,
      "ĠSund": 6556,
      "ĠHead": 6557,
      "Ġexamples": 6558,
      "Ġmission": 6559,
      "ĠPeople": 6560,
      "Ġrepresents": 6561,
      "ĠJun": 6562,
      "Ġamb": 6563,
      "\"))": 6564,
      "MD": 6565,
      "enty": 6566,
      "Ġbrief": 6567,
      "ĠCreate": 6568,
      "Ġuseful": 6569,
      "Ġleads": 6570,
      "Ġunknown": 6571,
      "while": 6572,
      "MO": 6573,
      "Ġsmooth": 6574,
      "Ġshowed": 6575,
      "Ġpull": 6576,
      "ĠPan": 6577,
      "ĠJournal": 6578,
      "ugby": 6579,
      "Ġhyper": 6580,
      "ctx": 6581,
      "---": 6582,
      "Op": 6583,
      "ĠFri": 6584,
      "car": 6585,
      "Ġcarry": 6586,
      "Ġdeliver": 6587,
      ")/": 6588,
      "Ġcandidate": 6589,
      "Ġlaunched": 6590,
      "Ġfair": 6591,
      "va": 6592,
      "forms": 6593,
      "ĠLiber": 6594,
      "aver": 6595,
      "ECT": 6596,
      "oting": 6597,
      "Ġsomeone": 6598,
      "wan": 6599,
      "oret": 6600,
      "ĠOR": 6601,
      "Ġchief": 6602,
      "ĠJim": 6603,
      "Ġmostly": 6604,
      "Ġenjoy": 6605,
      "mond": 6606,
      "chers": 6607,
      "iral": 6608,
      "Ġexpansion": 6609,
      "1971": 6610,
      "Ġshared": 6611,
      "ws": 6612,
      "ĠChief": 6613,
      "Ġmotion": 6614,
      "ä¸": 6615,
      "Ġjoint": 6616,
      "Ġmusical": 6617,
      "ĠGener": 6618,
      "ĠName": 6619,
      "Ġutil": 6620,
      "ĠGood": 6621,
      "Mult": 6622,
      "pg": 6623,
      "Project": 6624,
      "Ġtouch": 6625,
      "iable": 6626,
      "=\"../../../../../../": 6627,
      "Ġactress": 6628,
      "Ġplans": 6629,
      "cons": 6630,
      "83": 6631,
      "Ġwave": 6632,
      "Ġpadding": 6633,
      "auge": 6634,
      "atically": 6635,
      "dx": 6636,
      "Ġimprove": 6637,
      "minus": 6638,
      "Ġ{}": 6639,
      "ĠLee": 6640,
      "Ġconsequ": 6641,
      "Ġvote": 6642,
      "Ġliterature": 6643,
      "sylvania": 6644,
      "Ġactions": 6645,
      "Cal": 6646,
      "reedom": 6647,
      "Ġisland": 6648,
      "oral": 6649,
      "Copy": 6650,
      "English": 6651,
      "Ġmentioned": 6652,
      "uages": 6653,
      "!!": 6654,
      "Ġclean": 6655,
      "Unit": 6656,
      "1969": 6657,
      "Expression": 6658,
      "Ġbey": 6659,
      "aser": 6660,
      "ĠEarth": 6661,
      "Ġstraight": 6662,
      "ACK": 6663,
      "Ġphil": 6664,
      "81": 6665,
      "cient": 6666,
      "ifications": 6667,
      "ĠIrish": 6668,
      "Ġlif": 6669,
      "ĠLibrary": 6670,
      "ĠReview": 6671,
      ":(": 6672,
      "Ġagent": 6673,
      "ĠValley": 6674,
      "ĠLin": 6675,
      "ects": 6676,
      "LI": 6677,
      "Ġbeaut": 6678,
      "onder": 6679,
      "Ġnetworks": 6680,
      "Ġeigen": 6681,
      "ums": 6682,
      "Ġattribute": 6683,
      "ĠJoseph": 6684,
      "1940": 6685,
      "leep": 6686,
      "ĠStep": 6687,
      "stylesheet": 6688,
      "Ġshift": 6689,
      "-$": 6690,
      "itation": 6691,
      "Document": 6692,
      "MC": 6693,
      "lie": 6694,
      "ĠBrazil": 6695,
      "Ver": 6696,
      "FO": 6697,
      "Ġgiving": 6698,
      "Ġsu": 6699,
      "Menu": 6700,
      "asure": 6701,
      "ĠBob": 6702,
      "Ġformation": 6703,
      "ĠUs": 6704,
      "Ġcentre": 6705,
      "Ġbeyond": 6706,
      "undred": 6707,
      "ĠHamilton": 6708,
      "Ġtheorem": 6709,
      "ĠBi": 6710,
      "Ġ*)": 6711,
      "arc": 6712,
      "ĠIS": 6713,
      "ynomial": 6714,
      "virt": 6715,
      "Ġfarm": 6716,
      "Ġannual": 6717,
      "ĠRun": 6718,
      "token": 6719,
      "ansas": 6720,
      "STR": 6721,
      "annotation": 6722,
      "Ġsteps": 6723,
      "Record": 6724,
      "Ġappearance": 6725,
      "Ġarm": 6726,
      "Ġvisual": 6727,
      "stitution": 6728,
      "fn": 6729,
      "Ġsettings": 6730,
      "rich": 6731,
      "mann": 6732,
      "ĠSir": 6733,
      "usband": 6734,
      "Dir": 6735,
      "Ġ>=": 6736,
      "Ġflag": 6737,
      "rome": 6738,
      "ĠCam": 6739,
      "Ġmaps": 6740,
      "Ġsplit": 6741,
      "Ġproducer": 6742,
      "Ġdatabase": 6743,
      "access": 6744,
      "Äĩ": 6745,
      "TER": 6746,
      "1945": 6747,
      "bas": 6748,
      "etry": 6749,
      "itan": 6750,
      "del": 6751,
      "shift": 6752,
      "afe": 6753,
      "high": 6754,
      "$_": 6755,
      "Ġessential": 6756,
      "mode": 6757,
      "During": 6758,
      "Me": 6759,
      "Ġquickly": 6760,
      "Ġstudio": 6761,
      "ĠGame": 6762,
      "ĠInst": 6763,
      "Change": 6764,
      "Ġtemplate": 6765,
      "alysis": 6766,
      "áĥ": 6767,
      "stein": 6768,
      "device": 6769,
      "Ġforeign": 6770,
      "Ġcat": 6771,
      "Ġriver": 6772,
      "ĠJud": 6773,
      "SET": 6774,
      "ĠColumb": 6775,
      "Ġplane": 6776,
      "Ġgenerate": 6777,
      "Properties": 6778,
      "ĠMap": 6779,
      "Ġperfect": 6780,
      "Ġnet": 6781,
      "ĠCheck": 6782,
      "Non": 6783,
      "Integer": 6784,
      "Long": 6785,
      "Ġobservations": 6786,
      "kind": 6787,
      "ĠIII": 6788,
      "Ġking": 6789,
      "Ġrul": 6790,
      "Ġcontinuous": 6791,
      "auth": 6792,
      "Ġmachine": 6793,
      "ĠBusiness": 6794,
      "Sign": 6795,
      "ultural": 6796,
      "Ġcontrast": 6797,
      "Ġcarried": 6798,
      "ifically": 6799,
      "UP": 6800,
      "modal": 6801,
      "ĠCall": 6802,
      "ĠNorthern": 6803,
      "Car": 6804,
      "Ġarrest": 6805,
      "Callback": 6806,
      "1967": 6807,
      "ĠWales": 6808,
      "Ġmurder": 6809,
      "1930": 6810,
      "Settings": 6811,
      "structor": 6812,
      "Ġxml": 6813,
      "Ġgeneration": 6814,
      "Ġraise": 6815,
      "ĠBre": 6816,
      "Ġdiscussed": 6817,
      "ĠUSA": 6818,
      "None": 6819,
      "Ġcomparison": 6820,
      "ĠÎ": 6821,
      "ĠFurther": 6822,
      "COLOR": 6823,
      "Connection": 6824,
      "Ġmetric": 6825,
      "AND": 6826,
      "annels": 6827,
      "ĠPak": 6828,
      "sur": 6829,
      "ira": 6830,
      "ĠÂ£": 6831,
      "%%": 6832,
      "debug": 6833,
      "ĠAL": 6834,
      "ĠCross": 6835,
      "arden": 6836,
      "Ġpurpose": 6837,
      "Ð»": 6838,
      "Ġpoly": 6839,
      "Ġvocals": 6840,
      "Ġindividuals": 6841,
      "Ġseasons": 6842,
      "Ġvoice": 6843,
      "ests": 6844,
      "Ġexactly": 6845,
      "faces": 6846,
      "Left": 6847,
      "Ġarchitecture": 6848,
      "Ġcapacity": 6849,
      "Ġfactors": 6850,
      "unct": 6851,
      "Ġoverride": 6852,
      "igration": 6853,
      "ampion": 6854,
      "Params": 6855,
      "Ġsurvey": 6856,
      "Ġ::": 6857,
      "ĠAssert": 6858,
      "Option": 6859,
      "Ġtraff": 6860,
      "ĠYour": 6861,
      "Ġderiv": 6862,
      "hash": 6863,
      "cean": 6864,
      "Ġjoin": 6865,
      "Ġolder": 6866,
      "Operation": 6867,
      "hem": 6868,
      "Que": 6869,
      "uis": 6870,
      "Ġquestions": 6871,
      "Ġstrict": 6872,
      "ewidth": 6873,
      "Ġrender": 6874,
      "Sw": 6875,
      "Ġprocesses": 6876,
      "Mark": 6877,
      "WE": 6878,
      "Ġsouthern": 6879,
      "Ġnewsp": 6880,
      "sor": 6881,
      "Ġlock": 6882,
      "Tim": 6883,
      "ĠMethod": 6884,
      "ipe": 6885,
      "'ll": 6886,
      "rick": 6887,
      "Ġthr": 6888,
      "Ġtra": 6889,
      "ĠDevelopment": 6890,
      "Ġsea": 6891,
      "Ġdespite": 6892,
      "Ġplot": 6893,
      "Ġraised": 6894,
      "Ġimplementation": 6895,
      "Ġarrang": 6896,
      "Ġpret": 6897,
      "inet": 6898,
      "lers": 6899,
      "Down": 6900,
      "Ġeverything": 6901,
      "}^{-": 6902,
      "Prot": 6903,
      "Our": 6904,
      "Ġinteraction": 6905,
      "subseteq": 6906,
      "avity": 6907,
      "widget": 6908,
      "ji": 6909,
      "}}}": 6910,
      "kl": 6911,
      "Ġconstructed": 6912,
      "ĠĠĠĠĠĠĠĠĠĠĠĠĠĠĠĠĠĠĠĠ": 6913,
      "uty": 6914,
      "Serial": 6915,
      "Ġlaws": 6916,
      "hesis": 6917,
      "Ġdistinct": 6918,
      "Ðº": 6919,
      "Ġsites": 6920,
      "Ġthread": 6921,
      "Ġdigital": 6922,
      "Ġattended": 6923,
      "Ġreduce": 6924,
      "arriage": 6925,
      "global": 6926,
      "Ġrates": 6927,
      "Ġsuc": 6928,
      "Ġ_{": 6929,
      "Ġspread": 6930,
      "Ġcompact": 6931,
      "Ġofficer": 6932,
      "Year": 6933,
      "Ġfederal": 6934,
      "ĉĠ": 6935,
      "'.": 6936,
      "Ġhence": 6937,
      "Further": 6938,
      "Store": 6939,
      "ategories": 6940,
      "Ġchampionship": 6941,
      "Ġsenior": 6942,
      "1964": 6943,
      "uy": 6944,
      "Ġfilename": 6945,
      "Ġsave": 6946,
      "oston": 6947,
      "Ġnorthern": 6948,
      "fri": 6949,
      "Ġhope": 6950,
      "ga": 6951,
      "aters": 6952,
      "Ġinvoke": 6953,
      "Ġaspect": 6954,
      "ĠMedia": 6955,
      "ĠChild": 6956,
      "Impl": 6957,
      "Ġtests": 6958,
      "Ġ$\\{": 6959,
      "ĠSpain": 6960,
      "DA": 6961,
      "ĠTHE": 6962,
      "ĠSoviet": 6963,
      "ĠSar": 6964,
      "focus": 6965,
      "Members": 6966,
      "Ġcommunities": 6967,
      "cp": 6968,
      "Font": 6969,
      "Ġcouple": 6970,
      "Ġembedd": 6971,
      "\"));": 6972,
      "Ġentered": 6973,
      "Ġoperators": 6974,
      "Ġenter": 6975,
      "Ġemail": 6976,
      "Ġresponsible": 6977,
      "ĠEmpire": 6978,
      "IA": 6979,
      "Ġdemand": 6980,
      "Ġowned": 6981,
      "Ġparams": 6982,
      "stone": 6983,
      "ĠJac": 6984,
      "ĠFred": 6985,
      "Ġoffers": 6986,
      "Ġcombined": 6987,
      "Sing": 6988,
      "inners": 6989,
      "bitr": 6990,
      "deg": 6991,
      "Ġmixed": 6992,
      "Ġoil": 6993,
      "Ġinfo": 6994,
      "<\\": 6995,
      "transform": 6996,
      "fony": 6997,
      "Ġmaster": 6998,
      "EO": 6999,
      "Ġmanif": 7000,
      "ĠMP": 7001,
      "ĠEach": 7002,
      "Ġforced": 7003,
      "ador": 7004,
      "hedule": 7005,
      "ĠProvince": 7006,
      "Ġcurve": 7007,
      "Here": 7008,
      "endar": 7009,
      "weet": 7010,
      "150": 7011,
      "seud": 7012,
      "airman": 7013,
      "Pat": 7014,
      "legal": 7015,
      "Ġbecoming": 7016,
      "Ġletter": 7017,
      "ymfony": 7018,
      "Ġextract": 7019,
      "Ġhop": 7020,
      "TC": 7021,
      "ifies": 7022,
      "255": 7023,
      "ĠPlay": 7024,
      "Ġresolution": 7025,
      "sort": 7026,
      "Åį": 7027,
      "ĠCentre": 7028,
      "eller": 7029,
      "ĠWal": 7030,
      "ĠSpe": 7031,
      "ĠColor": 7032,
      "owers": 7033,
      "contin": 7034,
      "Ġeth": 7035,
      "Ġproviding": 7036,
      "Ġfirm": 7037,
      "bind": 7038,
      "ellar": 7039,
      "poration": 7040,
      "poses": 7041,
      "Theta": 7042,
      "Ġserious": 7043,
      "ĠBritain": 7044,
      "ilarly": 7045,
      "Ġsociety": 7046,
      "ban": 7047,
      "Ġserve": 7048,
      "ĠLi": 7049,
      "chen": 7050,
      "uer": 7051,
      "XX": 7052,
      "arant": 7053,
      "Ġattr": 7054,
      "ĠMov": 7055,
      "haps": 7056,
      "Inst": 7057,
      "Ġprefer": 7058,
      "Ġcommission": 7059,
      "Ġcalls": 7060,
      "Ġhar": 7061,
      "mut": 7062,
      "Ġmagazine": 7063,
      "ĠHome": 7064,
      "Ġspaces": 7065,
      "hemat": 7066,
      "hover": 7067,
      "Ġran": 7068,
      "Sk": 7069,
      "1965": 7070,
      "\\'": 7071,
      "Ġinitially": 7072,
      "ĠHistoric": 7073,
      "iced": 7074,
      "sv": 7075,
      "nam": 7076,
      "Ġalloc": 7077,
      "Ġpriv": 7078,
      "ĠOp": 7079,
      "Ġsignificantly": 7080,
      "Ġinfin": 7081,
      "Async": 7082,
      "Ġwall": 7083,
      "La": 7084,
      "Ġinteger": 7085,
      "1966": 7086,
      "send": 7087,
      "Ġleaving": 7088,
      "vas": 7089,
      "Ġterrit": 7090,
      "Ġalleg": 7091,
      "Dep": 7092,
      "}},": 7093,
      "While": 7094,
      "uly": 7095,
      "ĠTheir": 7096,
      "Ġstorage": 7097,
      "Ġowner": 7098,
      "ĠLang": 7099,
      "pool": 7100,
      "footnote": 7101,
      "ĠVis": 7102,
      "Ġlived": 7103,
      "SR": 7104,
      "session": 7105,
      "eries": 7106,
      "Ġmeasured": 7107,
      "ologies": 7108,
      "ĠAsia": 7109,
      "ashion": 7110,
      "ynchron": 7111,
      "iga": 7112,
      "Ġpackage": 7113,
      "aria": 7114,
      "Ġisn": 7115,
      "Ġvertex": 7116,
      "iciency": 7117,
      "aylor": 7118,
      "imb": 7119,
      "Ġreports": 7120,
      "ĠBG": 7121,
      "Career": 7122,
      "ĠSouthern": 7123,
      "Ġtoken": 7124,
      "ugins": 7125,
      "=(": 7126,
      "oggle": 7127,
      "ometric": 7128,
      "Ġunivers": 7129,
      "Ġworth": 7130,
      "ners": 7131,
      "ĠTre": 7132,
      "Ġhash": 7133,
      "Ġassign": 7134,
      "Ġdrama": 7135,
      "ĠSong": 7136,
      "Ġsal": 7137,
      "Ø§": 7138,
      "Pass": 7139,
      "linewidth": 7140,
      "Ġtypically": 7141,
      "Ġhusband": 7142,
      "Ġmill": 7143,
      "Ġonto": 7144,
      "docs": 7145,
      "Ġadvant": 7146,
      "address": 7147,
      "ORD": 7148,
      "Ġprotect": 7149,
      "estamp": 7150,
      "Ġreferred": 7151,
      "ĠPennsylvania": 7152,
      "ennis": 7153,
      "Ġhelped": 7154,
      "Ġchart": 7155,
      "ĠUkr": 7156,
      "NavBar": 7157,
      "Ġpositions": 7158,
      "ĠJones": 7159,
      "Ġ${": 7160,
      "Sm": 7161,
      "Ġexperiments": 7162,
      "Ġice": 7163,
      "Ġcert": 7164,
      "Ġ\"\\": 7165,
      "media": 7166,
      "Ġinner": 7167,
      "onym": 7168,
      "Ġrailway": 7169,
      "Ġnumerous": 7170,
      "Schema": 7171,
      "1920": 7172,
      "ĠConference": 7173,
      "edia": 7174,
      "fields": 7175,
      "ĠLord": 7176,
      "ĠĠĠĠĠĠĊ": 7177,
      "Ġflux": 7178,
      "ropy": 7179,
      "ĠException": 7180,
      "Ġreb": 7181,
      "================================": 7182,
      "ĠTele": 7183,
      "inals": 7184,
      "Handle": 7185,
      "udget": 7186,
      "ĠBet": 7187,
      ")|": 7188,
      "sol": 7189,
      "bury": 7190,
      "definition": 7191,
      "{$": 7192,
      "env": 7193,
      "oday": 7194,
      "Ġdepartment": 7195,
      "Ptr": 7196,
      ":\\": 7197,
      "Ġrespond": 7198,
      "aste": 7199,
      "Ġworkers": 7200,
      "rical": 7201,
      "Red": 7202,
      "ynamic": 7203,
      "ĠGal": 7204,
      "Ġforest": 7205,
      "ĠJohnson": 7206,
      "pton": 7207,
      "Use": 7208,
      "ĠManagement": 7209,
      "Films": 7210,
      "Ġcitiz": 7211,
      "inf": 7212,
      "Ġsemi": 7213,
      "disabled": 7214,
      "ĠSte": 7215,
      "Ġvictory": 7216,
      "Ġsurpr": 7217,
      "Ġrail": 7218,
      "Ġdiss": 7219,
      "ila": 7220,
      "plex": 7221,
      "ographic": 7222,
      "Ġdefeated": 7223,
      "Ġtherm": 7224,
      "Ġpiece": 7225,
      "secut": 7226,
      "cut": 7227,
      "Sum": 7228,
      "subfigure": 7229,
      "ĠEnter": 7230,
      "ĠGreek": 7231,
      "Ġdiagram": 7232,
      "ĠDate": 7233,
      "kins": 7234,
      "Ġbounded": 7235,
      "aval": 7236,
      "ĠGi": 7237,
      "ilation": 7238,
      "ĠĠĠĠĠĠĠĠĠĠĠĠĠĠĠĠĠĠĠĠĠĠĠĠĠĠĠĠĠĠĠĠĠĠĠĠĠĠĠ": 7239,
      "Ġexternal": 7240,
      "ĠLuc": 7241,
      "Template": 7242,
      "ture": 7243,
      "ĠBattle": 7244,
      "ela": 7245,
      "(:": 7246,
      "allow": 7247,
      "aligned": 7248,
      "Session": 7249,
      "Ġharm": 7250,
      "setminus": 7251,
      "enum": 7252,
      "ĠRadio": 7253,
      "aws": 7254,
      "ancing": 7255,
      "ĠDemocratic": 7256,
      "Ġwrong": 7257,
      "Ġrelevant": 7258,
      "ĠWilliams": 7259,
      "webkit": 7260,
      "Ġtesting": 7261,
      "interface": 7262,
      "Ġenh": 7263,
      "ĠSand": 7264,
      "ĠOhio": 7265,
      "ru": 7266,
      "ĠHand": 7267,
      "inois": 7268,
      "GE": 7269,
      "_*": 7270,
      "ĠPubl": 7271,
      "ĠCivil": 7272,
      "Reference": 7273,
      "ĠEp": 7274,
      "Ġroll": 7275,
      "Ġtechniques": 7276,
      "Ġcontribution": 7277,
      "xx": 7278,
      "ĠPacific": 7279,
      "():": 7280,
      "emporary": 7281,
      "Ġwild": 7282,
      "However": 7283,
      "OK": 7284,
      "Ġexistence": 7285,
      "ĠRam": 7286,
      "Helper": 7287,
      "Ġpil": 7288,
      "Ġassess": 7289,
      "delete": 7290,
      "Ġformula": 7291,
      "atial": 7292,
      "ression": 7293,
      "Decl": 7294,
      "120": 7295,
      "types": 7296,
      "ibli": 7297,
      "Ġcensus": 7298,
      "ĠUN": 7299,
      "aped": 7300,
      "ĠCON": 7301,
      "ograp": 7302,
      "make": 7303,
      "Ġhistorical": 7304,
      "Ġbill": 7305,
      "omorphism": 7306,
      "Ġarmy": 7307,
      "Ġcombination": 7308,
      "Ġcache": 7309,
      "ĠTra": 7310,
      "late": 7311,
      "wer": 7312,
      "Ġcos": 7313,
      "anche": 7314,
      "yer": 7315,
      "ĠCamb": 7316,
      "ĠScotland": 7317,
      "ĠFrancisco": 7318,
      "Ġcovered": 7319,
      "ĠPrem": 7320,
      "Ġdomin": 7321,
      "Ġtransaction": 7322,
      "spe": 7323,
      "burgh": 7324,
      "Ġcreating": 7325,
      "ĠHor": 7326,
      "Ġmainly": 7327,
      "ĠMath": 7328,
      "Ġmetal": 7329,
      "ader": 7330,
      "ĠSpecial": 7331,
      "ĠRh": 7332,
      "Ġpolynomial": 7333,
      "equals": 7334,
      "urban": 7335,
      "har": 7336,
      "Ġaccom": 7337,
      "ĠFace": 7338,
      "Ġauthors": 7339,
      "ran": 7340,
      "Ġring": 7341,
      "enth": 7342,
      "Ġnine": 7343,
      "Ġut": 7344,
      "Ġfelt": 7345,
      "ĠMah": 7346,
      "ĠMen": 7347,
      "PT": 7348,
      "req": 7349,
      "standing": 7350,
      "Ġoffered": 7351,
      "Ġ($\\": 7352,
      "Ġradius": 7353,
      "Ġgirl": 7354,
      "ulk": 7355,
      "Ġmanaged": 7356,
      "Ġrelatively": 7357,
      "aya": 7358,
      "Ġconflict": 7359,
      "claim": 7360,
      "icity": 7361,
      "exports": 7362,
      "Ġinform": 7363,
      "aby": 7364,
      "ĠMichigan": 7365,
      "Aust": 7366,
      "ĠPy": 7367,
      "Ä±": 7368,
      "icine": 7369,
      "Ġconsistent": 7370,
      "Ġfine": 7371,
      "Ġbrand": 7372,
      "Ġsegment": 7373,
      "Ġaccuracy": 7374,
      "toString": 7375,
      "Iter": 7376,
      "Ġseat": 7377,
      "ĠCro": 7378,
      "ĠTrue": 7379,
      "stra": 7380,
      "gypt": 7381,
      "Title": 7382,
      "According": 7383,
      "las": 7384,
      "Ġ$|": 7385,
      "=-": 7386,
      "Ġreligious": 7387,
      "Ġiniti": 7388,
      "icons": 7389,
      "ixel": 7390,
      "component": 7391,
      "Names": 7392,
      "osa": 7393,
      "plement": 7394,
      "virtual": 7395,
      "Ġoptimal": 7396,
      "ĠBow": 7397,
      "EQ": 7398,
      "adel": 7399,
      "Ġdraft": 7400,
      "pa": 7401,
      "join": 7402,
      "Ġattract": 7403,
      "Ġblood": 7404,
      "ĠCarl": 7405,
      "Ġarbitr": 7406,
      "posite": 7407,
      "full": 7408,
      "aret": 7409,
      "rid": 7410,
      "copy": 7411,
      "ĠBoth": 7412,
      "Ġbatt": 7413,
      "Ġparties": 7414,
      "Ġclaimed": 7415,
      "gorithms": 7416,
      "ĠJewish": 7417,
      "Ġdetection": 7418,
      "ĠIslam": 7419,
      "Ġfle": 7420,
      "Ġcounty": 7421,
      "Ġpert": 7422,
      "ooks": 7423,
      "ĠQueen": 7424,
      "Ġslightly": 7425,
      "uations": 7426,
      "PECT": 7427,
      "atrix": 7428,
      "\\}": 7429,
      "front": 7430,
      "Å¡": 7431,
      "Ġdepth": 7432,
      "Ġprotest": 7433,
      "Ġtracks": 7434,
      "Ġ\\;": 7435,
      "ĠEqu": 7436,
      "Ġecho": 7437,
      "Ġcompute": 7438,
      "Ġcloud": 7439,
      "ĠBlue": 7440,
      "coll": 7441,
      "uv": 7442,
      "ĠCoast": 7443,
      "ĠPop": 7444,
      "ĠPoint": 7445,
      "Ġleaders": 7446,
      "gest": 7447,
      "awa": 7448,
      "limits": 7449,
      "ĠWay": 7450,
      "osoph": 7451,
      "1962": 7452,
      "ighter": 7453,
      "Ġreflect": 7454,
      "Ġfamous": 7455,
      "handle": 7456,
      "Ġimag": 7457,
      "iy": 7458,
      "}}_{": 7459,
      "Rect": 7460,
      "=\"../../../": 7461,
      "ĠSenate": 7462,
      "ĠLie": 7463,
      "mazon": 7464,
      "Ġdevices": 7465,
      "clear": 7466,
      "ĠCy": 7467,
      "Draw": 7468,
      "Ġextrem": 7469,
      "msg": 7470,
      "Ġintegr": 7471,
      "Has": 7472,
      "alg": 7473,
      "Ġremov": 7474,
      "PH": 7475,
      "Ġdepends": 7476,
      "angular": 7477,
      "ĠWell": 7478,
      "emic": 7479,
      "Ġcities": 7480,
      "Ġexchange": 7481,
      "ĠCard": 7482,
      "Ġelections": 7483,
      "LS": 7484,
      "tn": 7485,
      "ORM": 7486,
      "itage": 7487,
      "ĠOx": 7488,
      "ĠTheatre": 7489,
      "Ġrare": 7490,
      "Ġ$[": 7491,
      "Ġdisease": 7492,
      "Ġ{};": 7493,
      "Kind": 7494,
      "power": 7495,
      "Ġflat": 7496,
      "shot": 7497,
      "ĠLab": 7498,
      "Ġsingles": 7499,
      "1963": 7500,
      "~~~~": 7501,
      "ridge": 7502,
      "Ġuniversity": 7503,
      "enger": 7504,
      "leton": 7505,
      "Ġnation": 7506,
      "Ġsafety": 7507,
      "Ġinstruction": 7508,
      "amm": 7509,
      "agraph": 7510,
      "ĠTro": 7511,
      "ims": 7512,
      "Ġefforts": 7513,
      "ulty": 7514,
      "Ġencour": 7515,
      "ĠTechnology": 7516,
      "Ġfailure": 7517,
      "Ġappropriate": 7518,
      "writer": 7519,
      "ĠJersey": 7520,
      "bal": 7521,
      "Var": 7522,
      "je": 7523,
      "Ġscatter": 7524,
      "asi": 7525,
      "Ġstack": 7526,
      "ĠTri": 7527,
      "aming": 7528,
      "results": 7529,
      "ERROR": 7530,
      "footer": 7531,
      "Api": 7532,
      "Ġlaunch": 7533,
      "Ġincome": 7534,
      "icans": 7535,
      "uries": 7536,
      "###": 7537,
      "hom": 7538,
      "ĠStand": 7539,
      "Ġhundred": 7540,
      "Ġexperimental": 7541,
      "oplus": 7542,
      "ORT": 7543,
      "iffer": 7544,
      "Ġemission": 7545,
      "Ġmolec": 7546,
      "Ġpolar": 7547,
      "^{-\\": 7548,
      "ĠFC": 7549,
      "Will": 7550,
      "Ġalone": 7551,
      "Ġ['": 7552,
      "Ġrevealed": 7553,
      "foo": 7554,
      "Ġdrive": 7555,
      "Ġshowing": 7556,
      "issions": 7557,
      "Ġcook": 7558,
      "Ġtor": 7559,
      "ĠKent": 7560,
      "enant": 7561,
      "Ġangle": 7562,
      "Ġcontainer": 7563,
      "acket": 7564,
      "Bi": 7565,
      "rim": 7566,
      "zo": 7567,
      "help": 7568,
      "settings": 7569,
      "Ġrout": 7570,
      "Parameters": 7571,
      "zero": 7572,
      "achus": 7573,
      "Ġple": 7574,
      "ĠMain": 7575,
      "click": 7576,
      "shall": 7577,
      "ername": 7578,
      "Main": 7579,
      "sky": 7580,
      "stat": 7581,
      "Ġstrength": 7582,
      "Ġgun": 7583,
      "Ġlatest": 7584,
      "Ġprocedure": 7585,
      "ĠPower": 7586,
      "&#": 7587,
      "Ġhands": 7588,
      "Values": 7589,
      "Ġdynamics": 7590,
      "Ġproceed": 7591,
      "160": 7592,
      "onto": 7593,
      "abeth": 7594,
      "Ġhospital": 7595,
      "plugin": 7596,
      "zing": 7597,
      "DS": 7598,
      "Ġparticle": 7599,
      ")\"": 7600,
      "Ġintr": 7601,
      "sen": 7602,
      "patch": 7603,
      "osis": 7604,
      "export": 7605,
      "=\"/": 7606,
      "Ġloop": 7607,
      "hs": 7608,
      "ĠBern": 7609,
      "otted": 7610,
      "attice": 7611,
      "ĠAsian": 7612,
      "GET": 7613,
      "etts": 7614,
      "Ġorganizations": 7615,
      "Ġclassification": 7616,
      "leted": 7617,
      "aren": 7618,
      "Ġthous": 7619,
      "Ġclust": 7620,
      "ĠModel": 7621,
      "Ġmaterials": 7622,
      "Ġthick": 7623,
      "Ġtool": 7624,
      "Ġgrowing": 7625,
      "Gu": 7626,
      "eves": 7627,
      "Ġdual": 7628,
      "May": 7629,
      "ione": 7630,
      "ryst": 7631,
      "Ġexc": 7632,
      "Ġtrust": 7633,
      "ĠEdward": 7634,
      "Core": 7635,
      "'],": 7636,
      "Ġdelete": 7637,
      "Ġjav": 7638,
      "ĠPhilipp": 7639,
      "Ġeveryone": 7640,
      "Ġordered": 7641,
      "dependency": 7642,
      "Ġtraffic": 7643,
      "Host": 7644,
      "ults": 7645,
      "Ġofficers": 7646,
      "*{": 7647,
      "ĠWindow": 7648,
      "erg": 7649,
      "Ġparticles": 7650,
      "roduction": 7651,
      "ĠWall": 7652,
      "mi": 7653,
      "ĠMajor": 7654,
      "ĠVan": 7655,
      "Ġcolon": 7656,
      "Ġli": 7657,
      "Ġparse": 7658,
      "Ñĥ": 7659,
      "custom": 7660,
      "Ġlies": 7661,
      "Ġbinary": 7662,
      "eli": 7663,
      "ĠBoston": 7664,
      "equality": 7665,
      "1944": 7666,
      "ads": 7667,
      "Ġindepend": 7668,
      "PRE": 7669,
      "Ġdisk": 7670,
      "Ġtrial": 7671,
      "Ġtasks": 7672,
      "Ġdetail": 7673,
      "Ġfans": 7674,
      "Ġincorpor": 7675,
      "illy": 7676,
      "Ġserving": 7677,
      "ĠLim": 7678,
      "Ġweap": 7679,
      "BL": 7680,
      "material": 7681,
      "Ġsister": 7682,
      "ĠMany": 7683,
      "Ġrecording": 7684,
      "BR": 7685,
      "Ġstrateg": 7686,
      "ĠAndrew": 7687,
      "Ġedges": 7688,
      "These": 7689,
      "Ġgenus": 7690,
      "Ġbass": 7691,
      "Ġmeasures": 7692,
      "ĠHa": 7693,
      "Each": 7694,
      "Tool": 7695,
      "blue": 7696,
      "fram": 7697,
      "pute": 7698,
      "Invalid": 7699,
      "ĠElect": 7700,
      "ĠId": 7701,
      "Num": 7702,
      "store": 7703,
      "Ġdiscovered": 7704,
      "Ġfeat": 7705,
      "Ġcancer": 7706,
      "ATH": 7707,
      "elli": 7708,
      "scription": 7709,
      "Ġcouncil": 7710,
      "Ġassigned": 7711,
      "product": 7712,
      "NG": 7713,
      "udio": 7714,
      "National": 7715,
      "Policy": 7716,
      "enter": 7717,
      "romise": 7718,
      "Ġalternative": 7719,
      "emy": 7720,
      "Application": 7721,
      "ĠIllinois": 7722,
      "ĠEvent": 7723,
      "duce": 7724,
      "Found": 7725,
      "uilt": 7726,
      "ĠServices": 7727,
      "ez": 7728,
      "cknow": 7729,
      "panel": 7730,
      "World": 7731,
      "ĠRequ": 7732,
      "iful": 7733,
      "1961": 7734,
      "Ġhydro": 7735,
      "Ġdelay": 7736,
      "),\\": 7737,
      "phy": 7738,
      "ollary": 7739,
      "Ġagreed": 7740,
      "Ġformal": 7741,
      "ĠDutch": 7742,
      "orney": 7743,
      "icients": 7744,
      "Ġnamespace": 7745,
      "nections": 7746,
      "ĠKong": 7747,
      "ivial": 7748,
      "False": 7749,
      "Second": 7750,
      "fully": 7751,
      "Ġpp": 7752,
      "vol": 7753,
      "Ġoperating": 7754,
      "ucky": 7755,
      "Ġstock": 7756,
      "Dom": 7757,
      "Ġpartial": 7758,
      "ĠSecretary": 7759,
      "ĠNight": 7760,
      "una": 7761,
      "Ġminim": 7762,
      "Ġincreases": 7763,
      "Ġidentify": 7764,
      "NE": 7765,
      "ĠIP": 7766,
      "cript": 7767,
      "rine": 7768,
      "cluded": 7769,
      "ĠMid": 7770,
      "Ġsales": 7771,
      "elligence": 7772,
      "Ġsqu": 7773,
      "anner": 7774,
      "Ġundefined": 7775,
      "iki": 7776,
      "ĠRepresent": 7777,
      "achusetts": 7778,
      "Ġachieved": 7779,
      "Ġcomposed": 7780,
      "aturday": 7781,
      "Ġactors": 7782,
      "Ġcool": 7783,
      "tail": 7784,
      "Ġschedul": 7785,
      "agnost": 7786,
      "ĠSunday": 7787,
      "Ġdiscussion": 7788,
      "ipeline": 7789,
      "Ġrapid": 7790,
      "Ġdriver": 7791,
      "Ġgauge": 7792,
      "uses": 7793,
      "Ġships": 7794,
      "ĠBGCOLOR": 7795,
      "Ġheader": 7796,
      "Ġ++": 7797,
      "Ġsquad": 7798,
      "Ġ('": 7799,
      "Vector": 7800,
      "Ġpool": 7801,
      "oir": 7802,
      "vm": 7803,
      ":#": 7804,
      "cases": 7805,
      "Ġexpressed": 7806,
      "andon": 7807,
      "Ġwrap": 7808,
      "ĠMiddle": 7809,
      "rawn": 7810,
      "DIR": 7811,
      "Cor": 7812,
      "eld": 7813,
      "Ġelim": 7814,
      "Ġprotocol": 7815,
      "Ġpairs": 7816,
      "wedge": 7817,
      "Background": 7818,
      "ĠWild": 7819,
      "ducing": 7820,
      "cf": 7821,
      "ĠWater": 7822,
      "Ġcontained": 7823,
      "Di": 7824,
      "df": 7825,
      "ĠMot": 7826,
      "Ġcycl": 7827,
      "ĠPrince": 7828,
      "Ġsucceed": 7829,
      "Ġsampl": 7830,
      "imensions": 7831,
      "Ġcalculated": 7832,
      "ĠHuman": 7833,
      "^-": 7834,
      "Ġcommunication": 7835,
      "Ġspirit": 7836,
      "Ġwestern": 7837,
      "cloud": 7838,
      "Ġ|\\": 7839,
      "adr": 7840,
      "ĠSea": 7841,
      "DL": 7842,
      "arters": 7843,
      "ĠWeek": 7844,
      "Ġdeploy": 7845,
      "Section": 7846,
      "ĠGeorgia": 7847,
      "Ġsatisfies": 7848,
      "SM": 7849,
      "Ġcreation": 7850,
      "Ġconducted": 7851,
      "ATA": 7852,
      "CK": 7853,
      "Ġconstraints": 7854,
      "dagger": 7855,
      "Ġunderstanding": 7856,
      "Select": 7857,
      "Ġbillion": 7858,
      "Ġvehicle": 7859,
      "ĠPolice": 7860,
      "ĠAff": 7861,
      "ester": 7862,
      "arrier": 7863,
      "_+": 7864,
      "ĠProposition": 7865,
      "Ġversions": 7866,
      "Ã±": 7867,
      "padding": 7868,
      "Ġpropos": 7869,
      "Ġcompare": 7870,
      "odd": 7871,
      "Ġblocks": 7872,
      "ĠJr": 7873,
      "grade": 7874,
      "Ġserial": 7875,
      "ĠBack": 7876,
      "category": 7877,
      "ĠFree": 7878,
      "Ġ\\(": 7879,
      "Ġoccurs": 7880,
      "ĠBor": 7881,
      "Ġcycle": 7882,
      "ais": 7883,
      "Ġcomedy": 7884,
      "Ġprocessing": 7885,
      "ĠGovernor": 7886,
      "odies": 7887,
      "idget": 7888,
      "Definition": 7889,
      "Ġpromin": 7890,
      "Dem": 7891,
      "Ġpropag": 7892,
      "gers": 7893,
      "ito": 7894,
      "Ġbelieved": 7895,
      "1942": 7896,
      "iate": 7897,
      "Ġattacks": 7898,
      "Ġ$.": 7899,
      "Ġoverl": 7900,
      "short": 7901,
      "Ġpoliticians": 7902,
      "Ġhidden": 7903,
      "Ġkept": 7904,
      "1959": 7905,
      "Ġnomin": 7906,
      "zen": 7907,
      "amin": 7908,
      ">();": 7909,
      "Ġstable": 7910,
      "going": 7911,
      "Ġefficient": 7912,
      "Ġpurs": 7913,
      "Ġoperated": 7914,
      "Some": 7915,
      "apes": 7916,
      "Bytes": 7917,
      "Ġtrav": 7918,
      "ĠJackson": 7919,
      "Ġpush": 7920,
      "Brit": 7921,
      "ĠPoland": 7922,
      "Ġstatistics": 7923,
      "Ġregional": 7924,
      "Parent": 7925,
      "Ġmeasurements": 7926,
      "phone": 7927,
      "Ġissued": 7928,
      "ĠView": 7929,
      "Ġ})": 7930,
      "ĠAR": 7931,
      "bro": 7932,
      "aling": 7933,
      "AF": 7934,
      "URE": 7935,
      "pressed": 7936,
      "Ġcultural": 7937,
      "itionally": 7938,
      "AGE": 7939,
      "Ġabsolute": 7940,
      "ĠLy": 7941,
      "connect": 7942,
      "Classes": 7943,
      "obs": 7944,
      "Ġsettlement": 7945,
      "ĠEconom": 7946,
      "Ġgalaxies": 7947,
      "othing": 7948,
      "ĠStan": 7949,
      "ĠUse": 7950,
      "'>": 7951,
      "Stack": 7952,
      "isc": 7953,
      "ĠJon": 7954,
      "Ġassumed": 7955,
      "ĠMu": 7956,
      "clusive": 7957,
      "Ġsimulations": 7958,
      "ĠAri": 7959,
      "itness": 7960,
      "Ġul": 7961,
      "Member": 7962,
      "ĠHence": 7963,
      "Ġfloor": 7964,
      "ĠPass": 7965,
      "DR": 7966,
      "Ġreasons": 7967,
      "bigg": 7968,
      "CTION": 7969,
      "Ġsuffer": 7970,
      "Ġens": 7971,
      "Ljava": 7972,
      "1958": 7973,
      "Ġsymmetry": 7974,
      "Ġcontributions": 7975,
      "irds": 7976,
      "1948": 7977,
      "1956": 7978,
      "Ġbridge": 7979,
      "Ġpages": 7980,
      "Ġpartner": 7981,
      "eces": 7982,
      "ĠRay": 7983,
      "Ġproved": 7984,
      "Ġleaves": 7985,
      "Ġsector": 7986,
      "Ġ}\\": 7987,
      "Argument": 7988,
      "Ġapproaches": 7989,
      "Ġos": 7990,
      "Ġunsigned": 7991,
      "ĠCa": 7992,
      "bootstrap": 7993,
      "Ġnumerical": 7994,
      "bre": 7995,
      "ĠFI": 7996,
      "ĠSports": 7997,
      "Parser": 7998,
      "igin": 7999,
      "ĠMoreover": 8000,
      "anes": 8001,
      "Device": 8002,
      "ĠĠĠĠĠĠĠĠĠĠĠĠĠĠĠĠĠĠ": 8003,
      "uous": 8004,
      "andra": 8005,
      "Ġclearly": 8006,
      "Ġinline": 8007,
      "anging": 8008,
      "Tests": 8009,
      "amental": 8010,
      "hetic": 8011,
      "ĠCommunity": 8012,
      "Before": 8013,
      "ĠMA": 8014,
      "Ġtrained": 8015,
      "ĠLo": 8016,
      "comment": 8017,
      "Ġapproximation": 8018,
      "----------------------------------------------------------------": 8019,
      "bot": 8020,
      "ket": 8021,
      "Ġinsert": 8022,
      "Ġtried": 8023,
      "Ġallowing": 8024,
      "Ġrac": 8025,
      "framework": 8026,
      "Ġfre": 8027,
      "ĠEastern": 8028,
      "Ġreject": 8029,
      "Ġopportunity": 8030,
      "Ġparallel": 8031,
      "Ġmuseum": 8032,
      "Doc": 8033,
      "ĠCode": 8034,
      "Ã£": 8035,
      "ĠDaniel": 8036,
      "success": 8037,
      "Ġmorning": 8038,
      "Ġvary": 8039,
      "Ġadministration": 8040,
      "Show": 8041,
      "ĠEgypt": 8042,
      "Ġclaims": 8043,
      "Ġcomments": 8044,
      "Ġorient": 8045,
      "Ġresidents": 8046,
      "oles": 8047,
      "Ġintended": 8048,
      "Ġfraction": 8049,
      "Ġconcert": 8050,
      "Ġmomentum": 8051,
      "Ġwinner": 8052,
      "Reader": 8053,
      "Ġstreet": 8054,
      "Tab": 8055,
      "ĠKen": 8056,
      "Ġrise": 8057,
      "Ġindicates": 8058,
      "Cre": 8059,
      "}}(\\": 8060,
      "Ġarticles": 8061,
      "points": 8062,
      "DP": 8063,
      "Ġlanguages": 8064,
      "ĠNO": 8065,
      "cuss": 8066,
      "agers": 8067,
      "ĠJeff": 8068,
      "Ġcorresponds": 8069,
      "Ġexecutive": 8070,
      "Ġvertices": 8071,
      "Ġseconds": 8072,
      "ĠHarr": 8073,
      "green": 8074,
      "ogen": 8075,
      "ĠJoe": 8076,
      "ĠKr": 8077,
      "1939": 8078,
      "1957": 8079,
      "(*": 8080,
      "teen": 8081,
      "United": 8082,
      "ello": 8083,
      "Ġstarts": 8084,
      "uple": 8085,
      "inity": 8086,
      "blockList": 8087,
      "Vari": 8088,
      "Ġanswer": 8089,
      "Ġpaid": 8090,
      "Ġreplace": 8091,
      "apos": 8092,
      "Sports": 8093,
      "ĠKorea": 8094,
      "Ġpowerful": 8095,
      "Ġbeat": 8096,
      "Ġstrugg": 8097,
      "Ġdifferences": 8098,
      "Ġacquired": 8099,
      "Ġspectral": 8100,
      "Ġnom": 8101,
      "Ġheard": 8102,
      "BI": 8103,
      "Ġcars": 8104,
      "ĠPortug": 8105,
      "Ġpolic": 8106,
      "coin": 8107,
      "`.": 8108,
      "Ġofficials": 8109,
      "ĠBang": 8110,
      "occer": 8111,
      "Ġconfirmed": 8112,
      "ĠHTML": 8113,
      "sto": 8114,
      "ydney": 8115,
      "uing": 8116,
      "Ġviews": 8117,
      "Ġextr": 8118,
      "'\\": 8119,
      "gg": 8120,
      "ographer": 8121,
      "Ġfootballer": 8122,
      "ĠFar": 8123,
      "sear": 8124,
      "forall": 8125,
      "family": 8126,
      "Ġnotice": 8127,
      "ĠInformation": 8128,
      "double": 8129,
      "Writer": 8130,
      "replace": 8131,
      "ĠMassachusetts": 8132,
      "Ġicon": 8133,
      "Ġtheme": 8134,
      "Ġreduction": 8135,
      "ĠLittle": 8136,
      "ĠJes": 8137,
      "Ġconference": 8138,
      "Ġboy": 8139,
      "pan": 8140,
      "Ġprofessor": 8141,
      "Icon": 8142,
      "Ġaxis": 8143,
      "Metadata": 8144,
      "Ġdirectory": 8145,
      "Ġfellow": 8146,
      "iling": 8147,
      "Ġjourn": 8148,
      "ĠBroad": 8149,
      "ĠJSON": 8150,
      "Ġmarked": 8151,
      "Ġdamage": 8152,
      "ĠMike": 8153,
      "Ġ),": 8154,
      "Ġcer": 8155,
      "Ġvertical": 8156,
      "scape": 8157,
      "Ġadding": 8158,
      "ĠFour": 8159,
      "_;": 8160,
      "Figure": 8161,
      "ĠCur": 8162,
      "Ġdetailed": 8163,
      "Ġsimulation": 8164,
      "ĠEXPECT": 8165,
      "Ġabsor": 8166,
      "opher": 8167,
      "ĠStat": 8168,
      "ĠScottish": 8169,
      "ĠSecurity": 8170,
      "_{{\\": 8171,
      "1941": 8172,
      "Ġretired": 8173,
      "mc": 8174,
      "Ġindicate": 8175,
      "acle": 8176,
      "Ġdedicated": 8177,
      "nap": 8178,
      "ĠTw": 8179,
      "Click": 8180,
      "Ġchance": 8181,
      "Ġnearby": 8182,
      "Ã¢": 8183,
      "Ġheat": 8184,
      "Ġachieve": 8185,
      "multi": 8186,
      "ĠCommon": 8187,
      "rovers": 8188,
      "Ġsport": 8189,
      "pective": 8190,
      "Ġinequality": 8191,
      "vin": 8192,
      "Ġdog": 8193,
      "Ġmodified": 8194,
      "Ġinfr": 8195,
      "iÄĩ": 8196,
      "athan": 8197,
      "-->": 8198,
      "1943": 8199,
      "Ġinterested": 8200,
      "Ġsimpl": 8201,
      "}\"": 8202,
      "Ġlett": 8203,
      "radius": 8204,
      "textsc": 8205,
      "Database": 8206,
      "Ġdetect": 8207,
      "Ġcontinues": 8208,
      "Enabled": 8209,
      "Render": 8210,
      "Ġthreshold": 8211,
      "SSERT": 8212,
      "Ġpan": 8213,
      "Ġclubs": 8214,
      "Ġvisible": 8215,
      "Any": 8216,
      "register": 8217,
      "Ġmarriage": 8218,
      "Public": 8219,
      "ĠCollection": 8220,
      "onia": 8221,
      "Ġbytes": 8222,
      "Ġregarding": 8223,
      "WS": 8224,
      "Ġpretty": 8225,
      "ĠOnly": 8226,
      "Ġcosts": 8227,
      "ango": 8228,
      "Ġfort": 8229,
      "boolean": 8230,
      "Ġshop": 8231,
      "Cast": 8232,
      "nergy": 8233,
      "WA": 8234,
      "SION": 8235,
      "holder": 8236,
      "Ġbuy": 8237,
      "%)": 8238,
      "ulf": 8239,
      "cope": 8240,
      "Ġyouth": 8241,
      "BE": 8242,
      "'d": 8243,
      "Eq": 8244,
      "ogene": 8245,
      "Ġbehavi": 8246,
      "istical": 8247,
      "Ġunless": 8248,
      "Ġtensor": 8249,
      "128": 8250,
      "estic": 8251,
      "Ġclin": 8252,
      "ĠJustice": 8253,
      "Ġcircle": 8254,
      "Ġpure": 8255,
      "ĠOrgan": 8256,
      "Hz": 8257,
      "Ġnuclear": 8258,
      "ACE": 8259,
      "Debug": 8260,
      "mo": 8261,
      "okes": 8262,
      "Ġalgorithms": 8263,
      "region": 8264,
      "ters": 8265,
      "ĠHy": 8266,
      "Ġassumption": 8267,
      "ĠÅ": 8268,
      "Ġattend": 8269,
      "Ġpi": 8270,
      "byte": 8271,
      "Ġcalc": 8272,
      "Ġremember": 8273,
      "Ġapparent": 8274,
      "Ġepisodes": 8275,
      "_{(": 8276,
      "ulpt": 8277,
      "ĠMuslim": 8278,
      "ĠStation": 8279,
      "Ġready": 8280,
      "unte": 8281,
      "install": 8282,
      "water": 8283,
      "Body": 8284,
      "ĠDar": 8285,
      "Ġgrid": 8286,
      "ĠRailway": 8287,
      "ĠHospital": 8288,
      "abil": 8289,
      "Mock": 8290,
      "Ġsuggested": 8291,
      "mock": 8292,
      "Ġdescent": 8293,
      "Ġtools": 8294,
      "atible": 8295,
      "istent": 8296,
      "ĠBir": 8297,
      "stop": 8298,
      "ĠBa": 8299,
      "Ġpet": 8300,
      "awn": 8301,
      "Ġanyone": 8302,
      "Ġearned": 8303,
      "ĠLead": 8304,
      "poss": 8305,
      "Byte": 8306,
      "256": 8307,
      "Ġaccepted": 8308,
      "ĠChris": 8309,
      "Ġpm": 8310,
      "Ġpy": 8311,
      "names": 8312,
      "Ġlocations": 8313,
      "ĠColumbia": 8314,
      "Ġequipment": 8315,
      "sch": 8316,
      "master": 8317,
      "Ġult": 8318,
      "ĠTaylor": 8319,
      "ĠFire": 8320,
      "Ġrecall": 8321,
      "Ġven": 8322,
      "fly": 8323,
      "Ġadopted": 8324,
      "ĠDesign": 8325,
      "ĠRepublican": 8326,
      "Ġmobile": 8327,
      "1946": 8328,
      "Ġpersonnel": 8329,
      "Ġobvious": 8330,
      "rency": 8331,
      "Err": 8332,
      "Delete": 8333,
      "izabeth": 8334,
      "ĠWis": 8335,
      "Ġmock": 8336,
      "outheast": 8337,
      "Ġsubsequently": 8338,
      "raq": 8339,
      "250": 8340,
      "dist": 8341,
      "ĠText": 8342,
      "ĠAk": 8343,
      "ĠEst": 8344,
      "Ġcamera": 8345,
      "ĠCommand": 8346,
      "ami": 8347,
      "neg": 8348,
      "END": 8349,
      "Ġbyte": 8350,
      "Ġupdated": 8351,
      "ĠJean": 8352,
      "istribution": 8353,
      "Only": 8354,
      "Ġpsych": 8355,
      "General": 8356,
      ">.": 8357,
      "appe": 8358,
      "grid": 8359,
      "margin": 8360,
      "Ġarrived": 8361,
      "Ġtypical": 8362,
      "ĠEven": 8363,
      "}$-": 8364,
      "ĠHong": 8365,
      "rices": 8366,
      "600": 8367,
      "Ġstress": 8368,
      "tained": 8369,
      "Exp": 8370,
      "ĠLight": 8371,
      "HS": 8372,
      "1955": 8373,
      "acc": 8374,
      "Av": 8375,
      "Assert": 8376,
      "Ġentity": 8377,
      "ictions": 8378,
      "ĠFederal": 8379,
      "igital": 8380,
      "1952": 8381,
      "orship": 8382,
      "callback": 8383,
      "ĠSom": 8384,
      "ĠDown": 8385,
      "Ġdecay": 8386,
      "Ġcomputed": 8387,
      "astr": 8388,
      "Ġinterval": 8389,
      "ĠLatin": 8390,
      "Ġaffect": 8391,
      "ĉĉĉĊ": 8392,
      "pet": 8393,
      "ancer": 8394,
      "herit": 8395,
      "thur": 8396,
      "1947": 8397,
      "ĠPrime": 8398,
      "icip": 8399,
      "DC": 8400,
      "Root": 8401,
      "Ġgain": 8402,
      "Ġoccurred": 8403,
      "ĠOxford": 8404,
      "formance": 8405,
      "bad": 8406,
      "Rad": 8407,
      "Ġanalyt": 8408,
      "Ġclimate": 8409,
      "just": 8410,
      "Ġdivided": 8411,
      "ĠKenn": 8412,
      "Ġmask": 8413,
      "Ġinstrument": 8414,
      "Ġdistingu": 8415,
      "ĠAuthor": 8416,
      "Ġpit": 8417,
      "Ġsections": 8418,
      "Ġhouses": 8419,
      "itical": 8420,
      "anth": 8421,
      "PU": 8422,
      "TA": 8423,
      "Ġawards": 8424,
      "Args": 8425,
      "kg": 8426,
      "none": 8427,
      "ĠRog": 8428,
      "Ġexcit": 8429,
      "Ġcalling": 8430,
      "ĠHung": 8431,
      "ĠUser": 8432,
      "Ġassociation": 8433,
      ")^{\\": 8434,
      "mic": 8435,
      "Ġintroduce": 8436,
      "Ġvon": 8437,
      "ĠLO": 8438,
      "ading": 8439,
      "amber": 8440,
      "ups": 8441,
      "Ġrepresenting": 8442,
      "ucket": 8443,
      "Ġmorph": 8444,
      "rior": 8445,
      ")\\,": 8446,
      "AME": 8447,
      "Ġcoupling": 8448,
      "Ġfinish": 8449,
      "yo": 8450,
      "Ġsexual": 8451,
      "Ġneighborhood": 8452,
      "toggle": 8453,
      "bits": 8454,
      "ceived": 8455,
      "Ġestimates": 8456,
      "Ġguarant": 8457,
      "urer": 8458,
      "Extension": 8459,
      "exception": 8460,
      "Ġcandidates": 8461,
      "Ġacting": 8462,
      "ĠBrook": 8463,
      "GS": 8464,
      "phas": 8465,
      "ĠMond": 8466,
      "email": 8467,
      "ĠBoy": 8468,
      "Rule": 8469,
      "ÅĤ": 8470,
      "Ġlabor": 8471,
      "HTML": 8472,
      "ears": 8473,
      "Ġprimarily": 8474,
      "initial": 8475,
      "Ġuncertain": 8476,
      "rames": 8477,
      "Ġmechanism": 8478,
      "Ġcoefficients": 8479,
      "ĠValue": 8480,
      "Ġopin": 8481,
      "Ġadvantage": 8482,
      "items": 8483,
      "uzz": 8484,
      "Ġflight": 8485,
      "Ġrough": 8486,
      "subsubsection": 8487,
      "____": 8488,
      "Ġperturb": 8489,
      "Ġwaves": 8490,
      "Ġinstalled": 8491,
      "life": 8492,
      "'))": 8493,
      "ĠCat": 8494,
      "Xml": 8495,
      "hentication": 8496,
      "organ": 8497,
      "ĠMedical": 8498,
      "modules": 8499,
      "application": 8500,
      "ictures": 8501,
      "Ġwidely": 8502,
      "Ġsecondary": 8503,
      "ĠCreek": 8504,
      "aration": 8505,
      "ĠUr": 8506,
      "Ġintegral": 8507,
      "nn": 8508,
      "ĠWalk": 8509,
      "phia": 8510,
      "udes": 8511,
      "Ġisol": 8512,
      "Ġtwice": 8513,
      "Boolean": 8514,
      "shape": 8515,
      "admin": 8516,
      "Ġreviews": 8517,
      "ITY": 8518,
      "called": 8519,
      "Ġpicture": 8520,
      "aki": 8521,
      "auto": 8522,
      "Ġanalog": 8523,
      "Ġmotor": 8524,
      "ĠHig": 8525,
      "ĠBerlin": 8526,
      "Ġcompr": 8527,
      "Ġideas": 8528,
      "Ġpal": 8529,
      "ported": 8530,
      "ĠAN": 8531,
      "Ġfifth": 8532,
      "ni": 8533,
      "ĠFacebook": 8534,
      "West": 8535,
      "ĠCorporation": 8536,
      "ĠError": 8537,
      "Symfony": 8538,
      "ĠAM": 8539,
      ")}(": 8540,
      "bullet": 8541,
      "Ġrestaur": 8542,
      "ĠVill": 8543,
      "lets": 8544,
      "insert": 8545,
      "amer": 8546,
      "Ġresear": 8547,
      "ĠBul": 8548,
      "FAULT": 8549,
      "Ġcurves": 8550,
      "ĠRet": 8551,
      "Ġancient": 8552,
      "aught": 8553,
      "Ġtells": 8554,
      "1953": 8555,
      "\")]": 8556,
      "VD": 8557,
      "lig": 8558,
      "........": 8559,
      "Ġconsole": 8560,
      "Ġcrew": 8561,
      "1954": 8562,
      "Ġjson": 8563,
      "Ġspl": 8564,
      "ĠWilson": 8565,
      "Ġcorrelation": 8566,
      "?:": 8567,
      "Storage": 8568,
      "ederation": 8569,
      "illing": 8570,
      "Ġtoward": 8571,
      "ĠPlaces": 8572,
      "hu": 8573,
      "inv": 8574,
      "aug": 8575,
      "Ġsuccessfully": 8576,
      "Gen": 8577,
      "ĠFriday": 8578,
      "British": 8579,
      "Ġaudience": 8580,
      "Ġinvestigation": 8581,
      "Obj": 8582,
      "Ġsides": 8583,
      "ĠAlexander": 8584,
      "Ġmiles": 8585,
      "Ġdownload": 8586,
      "ĠIndust": 8587,
      "elease": 8588,
      "hard": 8589,
      "CI": 8590,
      "iminal": 8591,
      "ĠSi": 8592,
      "Ġmeant": 8593,
      "prec": 8594,
      "Ġplanning": 8595,
      "ĠProfessor": 8596,
      "eless": 8597,
      "Ġmodes": 8598,
      "adelphia": 8599,
      "Ġchannels": 8600,
      "Ġexpat": 8601,
      "ennes": 8602,
      "ierarch": 8603,
      "Ã£o": 8604,
      ".'": 8605,
      "ĠMinn": 8606,
      "Dialog": 8607,
      "rons": 8608,
      "Ġtechnical": 8609,
      "ĠGlobal": 8610,
      "Ġmsg": 8611,
      "ologist": 8612,
      "Ġarbitrary": 8613,
      "Ġstrongly": 8614,
      "They": 8615,
      "Ġfeet": 8616,
      "\\!\\!": 8617,
      "Ġacts": 8618,
      "Ġdie": 8619,
      "Ġappend": 8620,
      ";<": 8621,
      "ĠVictoria": 8622,
      "Ġattributes": 8623,
      "oured": 8624,
      "ĠPakistan": 8625,
      "Ġmeasurement": 8626,
      "Lock": 8627,
      "ĠNOT": 8628,
      "Ġmassive": 8629,
      "clip": 8630,
      "Initial": 8631,
      "ĠThree": 8632,
      "colon": 8633,
      "Ġfinding": 8634,
      "olver": 8635,
      "hens": 8636,
      "ĠRos": 8637,
      "Ġdaily": 8638,
      "ĠBelg": 8639,
      "Ġdistributions": 8640,
      ")).": 8641,
      "Sch": 8642,
      "Ġhockey": 8643,
      ";/": 8644,
      "Transaction": 8645,
      "ĠMir": 8646,
      "important": 8647,
      "ifer": 8648,
      "ĠBell": 8649,
      "'_": 8650,
      "Ġwasn": 8651,
      ")_{": 8652,
      "aga": 8653,
      "Ġspot": 8654,
      "Ġadjust": 8655,
      "Ġ>>": 8656,
      "Äį": 8657,
      "Ġphone": 8658,
      "Ġlooks": 8659,
      "CM": 8660,
      "Ġnotes": 8661,
      "1949": 8662,
      "Ġrequirements": 8663,
      "ĠSaturday": 8664,
      "ĠBecause": 8665,
      "Ġdenotes": 8666,
      "istration": 8667,
      "Ġlisting": 8668,
      "rium": 8669,
      "ĠKim": 8670,
      "Ġleadership": 8671,
      "Ġtroops": 8672,
      "Ġfacilities": 8673,
      "inton": 8674,
      "ĠSus": 8675,
      "sex": 8676,
      "Ġchallenge": 8677,
      "DI": 8678,
      "Ġ<=": 8679,
      "Ġlab": 8680,
      "aks": 8681,
      "ĠFamily": 8682,
      "screen": 8683,
      "cing": 8684,
      "Ġearth": 8685,
      "Ġimproved": 8686,
      "law": 8687,
      "Ġeyes": 8688,
      "ĠBand": 8689,
      "ivery": 8690,
      "Ġil": 8691,
      "keys": 8692,
      "Ġcommit": 8693,
      "ĠRom": 8694,
      "NR": 8695,
      "idel": 8696,
      "acks": 8697,
      "Ġimportance": 8698,
      "Ġtal": 8699,
      "ĠSydney": 8700,
      "olds": 8701,
      "Ġamplit": 8702,
      "Ġphen": 8703,
      "Ġtruth": 8704,
      "Ġliber": 8705,
      "Ġtrees": 8706,
      "ropol": 8707,
      "ĠOnt": 8708,
      "Ġroles": 8709,
      "University": 8710,
      "Ġexpanded": 8711,
      "Custom": 8712,
      "Ġshock": 8713,
      "Ġrect": 8714,
      "ĠGuard": 8715,
      "ĠPhys": 8716,
      "pred": 8717,
      "ĠBad": 8718,
      "Lang": 8719,
      "ented": 8720,
      "Ð°Ð": 8721,
      "ĠOfficial": 8722,
      "Ġadvert": 8723,
      "800": 8724,
      "attribute": 8725,
      "Ġapplic": 8726,
      "Ġcaptured": 8727,
      "Ġbegins": 8728,
      "ĠMult": 8729,
      "ĠIslands": 8730,
      "ocation": 8731,
      "}%": 8732,
      "Music": 8733,
      "esota": 8734,
      "Ġhonor": 8735,
      "Ġcommonly": 8736,
      "Ġodd": 8737,
      "ĠassertEquals": 8738,
      "Ġfigures": 8739,
      "Ġfeaturing": 8740,
      "sel": 8741,
      "Video": 8742,
      "Ġtend": 8743,
      "umes": 8744,
      "Ġdecom": 8745,
      "Ã¡n": 8746,
      "Ġcitizens": 8747,
      "onal": 8748,
      "Ġkeys": 8749,
      "Ġsafe": 8750,
      "ĠURL": 8751,
      "\\_": 8752,
      "icer": 8753,
      "defined": 8754,
      "Ġfocused": 8755,
      "ĠĠĠĠĠĠĠĠĠĠĠĠĠĠĠĠĠĠĠĠĠĠĠĠĠĠĠĠĠĠĠĠĠĠĠĠĠĠĠĠĠĠĠĠĠĠĠĠĠĠĠĠĠĠĠĠĠĠĠĠĠĠĠĠ": 8756,
      "Ġspeech": 8757,
      "Ġbutton": 8758,
      "Wrap": 8759,
      "Ġsust": 8760,
      "ego": 8761,
      "Ġpra": 8762,
      "ĠCorn": 8763,
      "ĠViet": 8764,
      "Ġbaseball": 8765,
      "ificate": 8766,
      "Ġsummary": 8767,
      "Ġregime": 8768,
      "110": 8769,
      "Ġtheoret": 8770,
      "ĠIl": 8771,
      "Ġcriter": 8772,
      "edit": 8773,
      "yard": 8774,
      "inline": 8775,
      "Ġchemical": 8776,
      "ĠRail": 8777,
      "Two": 8778,
      "antry": 8779,
      "ĠLater": 8780,
      "spring": 8781,
      "elly": 8782,
      "Ġhypot": 8783,
      "hl": 8784,
      "Ġacademic": 8785,
      "Ġpartition": 8786,
      "Ġends": 8787,
      "__(": 8788,
      "Ġera": 8789,
      "plugins": 8790,
      "Ġdefin": 8791,
      "Ġplanned": 8792,
      "ĠSher": 8793,
      "Ġmessages": 8794,
      "Ġtrip": 8795,
      "ori": 8796,
      "Ġvehicles": 8797,
      "ĠPM": 8798,
      "picture": 8799,
      "Ġalongside": 8800,
      "zech": 8801,
      "ĠBBC": 8802,
      "Network": 8803,
      "nic": 8804,
      "ĠRen": 8805,
      "ĠWhe": 8806,
      "ĠRegion": 8807,
      "mediate": 8808,
      "sql": 8809,
      "Ġorganized": 8810,
      "Ġeastern": 8811,
      "Ġ+\\": 8812,
      "à¸": 8813,
      "Ġlayers": 8814,
      "]]": 8815,
      "Ġdance": 8816,
      "Ġtrigger": 8817,
      "coq": 8818,
      "Ġcoordinates": 8819,
      "Ġhour": 8820,
      "ĠAction": 8821,
      "Pool": 8822,
      "Ġnewspaper": 8823,
      "ĠToronto": 8824,
      "ĠWho": 8825,
      "ĠGar": 8826,
      "ĠNY": 8827,
      "1951": 8828,
      "super": 8829,
      "Account": 8830,
      "ĠWin": 8831,
      "agonal": 8832,
      "impl": 8833,
      "ĠSa": 8834,
      "ĠBeach": 8835,
      "Ġpolitics": 8836,
      "Ġspatial": 8837,
      "Ġ'/": 8838,
      "etherlands": 8839,
      "MENT": 8840,
      "ĠLew": 8841,
      "ĠMember": 8842,
      "jar": 8843,
      "security": 8844,
      "Ġcrime": 8845,
      "ĠStudies": 8846,
      "ĠBal": 8847,
      "ĠReal": 8848,
      "Ġprogramming": 8849,
      "Ġcapture": 8850,
      "ĠPen": 8851,
      "ĠPolish": 8852,
      "ĠCorps": 8853,
      "JECT": 8854,
      "ĠSpace": 8855,
      "âĢĿ.": 8856,
      "Prop": 8857,
      "Ġng": 8858,
      ",\\,": 8859,
      "Ġcollected": 8860,
      "Ġtechnique": 8861,
      "Ġsomew": 8862,
      "ĠBon": 8863,
      "perp": 8864,
      "Ġathlet": 8865,
      "ben": 8866,
      "ĠMinistry": 8867,
      "ĠSupreme": 8868,
      "Ġscalar": 8869,
      "ĠLocal": 8870,
      "Ġagree": 8871,
      "EXT": 8872,
      "numer": 8873,
      "Ġnarrow": 8874,
      "Ġsoldiers": 8875,
      "also": 8876,
      "wall": 8877,
      "zz": 8878,
      "alid": 8879,
      "oster": 8880,
      "bourne": 8881,
      "Active": 8882,
      "Ġinteractions": 8883,
      "stro": 8884,
      "\\|_{": 8885,
      "Ġeconomy": 8886,
      "ĠĠĠĠĠĠĠĠĠĠĠĠĠĠĠĠĠĠĠĠĠĠĠĠĠ": 8887,
      "axis": 8888,
      "ĠOs": 8889,
      "nership": 8890,
      "ĠIO": 8891,
      "Ġsetup": 8892,
      "Ã¸": 8893,
      "Ġcoal": 8894,
      "tw": 8895,
      "Ġhuge": 8896,
      "Ġaware": 8897,
      "ĠClark": 8898,
      "anna": 8899,
      "Ġaccomp": 8900,
      "Vol": 8901,
      "Ġreader": 8902,
      "forward": 8903,
      "inson": 8904,
      "Ġsubset": 8905,
      "Common": 8906,
      "ĠAnother": 8907,
      "ilib": 8908,
      "Ġhappen": 8909,
      "Ġorders": 8910,
      "Ġsell": 8911,
      "tri": 8912,
      "ĠCopy": 8913,
      "ĠEvery": 8914,
      "High": 8915,
      "Ġminister": 8916,
      "ĠWindows": 8917,
      "Ġcorner": 8918,
      "ĠFair": 8919,
      "ĠArgent": 8920,
      "Austral": 8921,
      "Ġwants": 8922,
      "unities": 8923,
      "Ġgap": 8924,
      "Ġlat": 8925,
      "duces": 8926,
      "Ġdepending": 8927,
      "Ġtrail": 8928,
      "Ġdoor": 8929,
      "ĠAdministr": 8930,
      "}}^": 8931,
      "Ġlargely": 8932,
      "`,": 8933,
      "Ġdiam": 8934,
      "ODO": 8935,
      "Ġdegrees": 8936,
      "_{-": 8937,
      "Ġsupply": 8938,
      "Ġtransferred": 8939,
      "Ġplants": 8940,
      "Ġincident": 8941,
      "protobuf": 8942,
      "password": 8943,
      "acro": 8944,
      "Ġmedium": 8945,
      "hell": 8946,
      "Changed": 8947,
      "ĠSciences": 8948,
      "'}": 8949,
      "reatest": 8950,
      "cmd": 8951,
      "cert": 8952,
      "Ġwallet": 8953,
      "anz": 8954,
      "Ġtransformation": 8955,
      "Step": 8956,
      "Ġfashion": 8957,
      "Ġfreedom": 8958,
      "MB": 8959,
      "{$\\": 8960,
      "Ġproport": 8961,
      "ervative": 8962,
      "Ġbudget": 8963,
      "Meta": 8964,
      "Ġperforming": 8965,
      "ĠRod": 8966,
      "record": 8967,
      "hol": 8968,
      "Ġturns": 8969,
      "Ġlattice": 8970,
      "ĠBC": 8971,
      "Ġmonitor": 8972,
      "Ġsyn": 8973,
      "Ġnewly": 8974,
      "Package": 8975,
      "Ġsilver": 8976,
      "Ġmunicipality": 8977,
      "ĠCount": 8978,
      "Ġreality": 8979,
      "Ġlicense": 8980,
      "ĠKorean": 8981,
      "Channel": 8982,
      "isis": 8983,
      "ĠAsh": 8984,
      "1936": 8985,
      "wait": 8986,
      "Events": 8987,
      "Ġflex": 8988,
      "ĠOlympic": 8989,
      "ĠMcC": 8990,
      "ĠCirc": 8991,
      "Ġadm": 8992,
      "Cap": 8993,
      "Ġplus": 8994,
      "Ġimplemented": 8995,
      "ĠAND": 8996,
      "KEY": 8997,
      "ĠTam": 8998,
      "lik": 8999,
      "orders": 9000,
      "ĠĠĠĠĠĠĠĠĠĠĠĠĠĠĠĠĠĠĠĠĠĠĠĠ": 9001,
      "Ġzone": 9002,
      "Ġdynamic": 9003,
      "Ġfunctional": 9004,
      "ĠIraq": 9005,
      "Del": 9006,
      "Ġlearned": 9007,
      "Ġappearances": 9008,
      "FILE": 9009,
      "Display": 9010,
      "cpp": 9011,
      "operation": 9012,
      "notation": 9013,
      "Ġassistant": 9014,
      "Ġgrew": 9015,
      "adoop": 9016,
      "emon": 9017,
      "Queue": 9018,
      "Ġ$-": 9019,
      "Ġdescribes": 9020,
      "sid": 9021,
      "rub": 9022,
      "Media": 9023,
      "eting": 9024,
      "IE": 9025,
      "Ġcrow": 9026,
      "~$\\": 9027,
      "Ġhtml": 9028,
      "Ġtrend": 9029,
      "ronic": 9030,
      "Ġaffected": 9031,
      "Ġsingular": 9032,
      "ĠRaj": 9033,
      "rase": 9034,
      "ĠMaster": 9035,
      "eness": 9036,
      "Ġprime": 9037,
      "stable": 9038,
      "ĠChristmas": 9039,
      "Ġtranslation": 9040,
      "Ġadvanced": 9041,
      "ancel": 9042,
      "FR": 9043,
      "ĠAvenue": 9044,
      "Ġengineering": 9045,
      "lyph": 9046,
      "Ġahead": 9047,
      "utt": 9048,
      "ĠLast": 9049,
      "regon": 9050,
      "ĠElizabeth": 9051,
      "Ġportion": 9052,
      "aska": 9053,
      "Rest": 9054,
      "1918": 9055,
      "heim": 9056,
      "lan": 9057,
      ".*": 9058,
      "ĠAli": 9059,
      "ĠInf": 9060,
      "Ġlie": 9061,
      "Ġplanet": 9062,
      "ĠAre": 9063,
      "Ġpossibly": 9064,
      "Ġcompeted": 9065,
      "1938": 9066,
      "Descriptor": 9067,
      "Ġmatching": 9068,
      "thread": 9069,
      "Ġrom": 9070,
      "imeq": 9071,
      "iner": 9072,
      "Ġ(*": 9073,
      "Ġprotection": 9074,
      "}^*": 9075,
      "owa": 9076,
      "Ġhero": 9077,
      "TED": 9078,
      "scroll": 9079,
      "Ġvotes": 9080,
      "two": 9081,
      "Ġlimits": 9082,
      "Ġbright": 9083,
      "$).": 9084,
      "ĠWars": 9085,
      "Ġprovince": 9086,
      "erial": 9087,
      "Ġoptical": 9088,
      "Security": 9089,
      "ropical": 9090,
      "Ġfresh": 9091,
      "simeq": 9092,
      "ĠVersion": 9093,
      ")),": 9094,
      "domain": 9095,
      "such": 9096,
      "evin": 9097,
      "rf": 9098,
      "consin": 9099,
      "remark": 9100,
      "Ġdispl": 9101,
      "ivation": 9102,
      "Ident": 9103,
      "ĠWat": 9104,
      "Ġideal": 9105,
      "Ġblog": 9106,
      "Ġsubstant": 9107,
      "Nov": 9108,
      "Ġrepeated": 9109,
      "ĠColl": 9110,
      "Ġdeclared": 9111,
      "hab": 9112,
      "Ġce": 9113,
      "ĠAny": 9114,
      "Best": 9115,
      "ĠPrize": 9116,
      "ĠFre": 9117,
      "Ġexplained": 9118,
      "itled": 9119,
      "asets": 9120,
      "Ġmapping": 9121,
      "ĠSteve": 9122,
      "ĠInternet": 9123,
      "ftware": 9124,
      "mosp": 9125,
      "Ġplease": 9126,
      "ĠMicrosoft": 9127,
      "ĠUsing": 9128,
      "apol": 9129,
      "Ġhabit": 9130,
      "ĠUnivers": 9131,
      "Ġnor": 9132,
      "Runtime": 9133,
      "South": 9134,
      "Ġfactory": 9135,
      "Ġstellar": 9136,
      "Ġextend": 9137,
      "ĠSant": 9138,
      "Ġdestroyed": 9139,
      "Ġbrain": 9140,
      "Ġremote": 9141,
      "$$\\": 9142,
      "Ġ[[": 9143,
      "Ġminimal": 9144,
      "Ġaudio": 9145,
      "Ġobserve": 9146,
      "Ġpromoted": 9147,
      ")\\\\": 9148,
      "ĠOntario": 9149,
      "Ġhappened": 9150,
      "Ġprepar": 9151,
      "area": 9152,
      "Ġinspired": 9153,
      "ĠMarg": 9154,
      "Ġenable": 9155,
      "Ġdrink": 9156,
      "special": 9157,
      "each": 9158,
      "DT": 9159,
      "onical": 9160,
      "Fields": 9161,
      "Ġinnov": 9162,
      "MR": 9163,
      "Ġcancell": 9164,
      "ideos": 9165,
      "ighth": 9166,
      "Ġpod": 9167,
      "ĠWed": 9168,
      "Ġdocuments": 9169,
      "ĠSem": 9170,
      "ĠLive": 9171,
      "ĠFinally": 9172,
      "Ġpassing": 9173,
      "Ġentries": 9174,
      "Timeout": 9175,
      "pmatrix": 9176,
      "isted": 9177,
      "ĠHard": 9178,
      "Ġinvariant": 9179,
      "Ġsurrounding": 9180,
      "urd": 9181,
      "Full": 9182,
      "Ġretri": 9183,
      "Ġemphas": 9184,
      "Ġconsidering": 9185,
      "ĠPage": 9186,
      "Ġrain": 9187,
      "collection": 9188,
      "assertEquals": 9189,
      "=\"@": 9190,
      "Ġcontrovers": 9191,
      "Ġmedian": 9192,
      "ĠReport": 9193,
      "Home": 9194,
      "ï¼": 9195,
      "His": 9196,
      "Ġsubsequent": 9197,
      "TEST": 9198,
      "Perm": 9199,
      "Ġindustrial": 9200,
      "Ġadvance": 9201,
      "Ġdoub": 9202,
      "world": 9203,
      "Ġfell": 9204,
      "ĠCub": 9205,
      "ĠAnton": 9206,
      "semble": 9207,
      "Ġfunding": 9208,
      "ĠPlan": 9209,
      "Ġelem": 9210,
      "Ġdriving": 9211,
      "ortheast": 9212,
      "Ġprincipal": 9213,
      "ðŁ": 9214,
      "ving": 9215,
      "Ġsuggests": 9216,
      "andy": 9217,
      "Ġshell": 9218,
      "Ġinstitutions": 9219,
      "ĠDoug": 9220,
      "Ġbands": 9221,
      "acent": 9222,
      "Ġconvergence": 9223,
      "Ġ\"\"": 9224,
      "weg": 9225,
      "Ġknew": 9226,
      "cknowled": 9227,
      "Arch": 9228,
      "primary": 9229,
      "Ġperman": 9230,
      "Ġfinds": 9231,
      "Send": 9232,
      "$^{-": 9233,
      "Ġmatrices": 9234,
      "ĠRoute": 9235,
      "Ġspring": 9236,
      "addr": 9237,
      "BB": 9238,
      "Scope": 9239,
      "effect": 9240,
      "ĠAbout": 9241,
      "Ġdefense": 9242,
      "actic": 9243,
      "Ġfacility": 9244,
      "utenant": 9245,
      "Ġjavax": 9246,
      "esian": 9247,
      "1937": 9248,
      "Edit": 9249,
      "unsigned": 9250,
      "Ġhear": 9251,
      "profile": 9252,
      ")))": 9253,
      "[:": 9254,
      "Ġburn": 9255,
      "Ġexecution": 9256,
      "ĠRome": 9257,
      "Ġperhaps": 9258,
      "Ġefficiency": 9259,
      "bat": 9260,
      "Ġcomposition": 9261,
      "unes": 9262,
      "International": 9263,
      "Ġ$$": 9264,
      "?âĢĿ": 9265,
      "ĠTok": 9266,
      "ĠExecut": 9267,
      "ĠFund": 9268,
      "^{+": 9269,
      "ĠStadium": 9270,
      "inations": 9271,
      "Ġheav": 9272,
      "worth": 9273,
      "Ġsolo": 9274,
      "Ġrecip": 9275,
      "MI": 9276,
      "adesh": 9277,
      "Ġcoverage": 9278,
      "ĠLandroid": 9279,
      "Ġbeam": 9280,
      "apore": 9281,
      "Thus": 9282,
      "ĠFollowing": 9283,
      "Ġbounds": 9284,
      "Play": 9285,
      "jpg": 9286,
      "////////////////////////////////": 9287,
      "ĠVen": 9288,
      "Ġinjury": 9289,
      "Ġtitles": 9290,
      "Ġlabels": 9291,
      "perial": 9292,
      "Ġhighlight": 9293,
      "ĠEngineering": 9294,
      "ĠNetherlands": 9295,
      "Ġglass": 9296,
      "Ġhousing": 9297,
      "MT": 9298,
      "ĠExt": 9299,
      "101": 9300,
      "Ġconsult": 9301,
      "Ġenvironmental": 9302,
      "Ġtab": 9303,
      "pson": 9304,
      "ĠOt": 9305,
      "astructure": 9306,
      "(){": 9307,
      ")}{\\": 9308,
      "Ġprominent": 9309,
      "Ġachiev": 9310,
      "VID": 9311,
      "Ġserves": 9312,
      "Ġevaluation": 9313,
      "dropdown": 9314,
      "ARY": 9315,
      "Selected": 9316,
      "Ġurban": 9317,
      "Ġspecifically": 9318,
      "Ġregistered": 9319,
      "channel": 9320,
      "Ġscientific": 9321,
      "quarters": 9322,
      "ĠTy": 9323,
      "ĠParam": 9324,
      "Ġhistoric": 9325,
      "Ġreceiving": 9326,
      "txt": 9327,
      "Ġelev": 9328,
      "omorphic": 9329,
      "ĠHind": 9330,
      "HR": 9331,
      "lywood": 9332,
      "ĠMinnesota": 9333,
      "stats": 9334,
      "raham": 9335,
      "arring": 9336,
      "Ġemployed": 9337,
      "Using": 9338,
      "peror": 9339,
      "Ġcopies": 9340,
      "Ġrural": 9341,
      "Ġconstitu": 9342,
      "Ġmanner": 9343,
      "Ġbomb": 9344,
      "Jo": 9345,
      "cb": 9346,
      "Ġyields": 9347,
      "Theorem": 9348,
      "Personal": 9349,
      "Ġencoding": 9350,
      "Association": 9351,
      "Ġphenomen": 9352,
      "ĠElement": 9353,
      "Ġacceler": 9354,
      "Ġentr": 9355,
      "Ġexplain": 9356,
      "selected": 9357,
      "Flags": 9358,
      "properties": 9359,
      "connection": 9360,
      "Ġsymmetric": 9361,
      "Ġbow": 9362,
      ")$-": 9363,
      "parameters": 9364,
      "zona": 9365,
      "Ġ\"/": 9366,
      "ĠEll": 9367,
      "Ñı": 9368,
      "Ġsun": 9369,
      "ICE": 9370,
      "ĠAz": 9371,
      "oses": 9372,
      "Ġfundamental": 9373,
      "LC": 9374,
      "move": 9375,
      "GC": 9376,
      "notes": 9377,
      "Ġ..": 9378,
      "ĠPhiladelphia": 9379,
      "ĠSanta": 9380,
      "avor": 9381,
      "ymph": 9382,
      "ĠGro": 9383,
      "Ġabstract": 9384,
      ")^{-": 9385,
      "Ġanimals": 9386,
      "Bit": 9387,
      "ĠKir": 9388,
      "dict": 9389,
      "ĠAnth": 9390,
      "ĠMic": 9391,
      "alloc": 9392,
      "ntax": 9393,
      "PAR": 9394,
      "UID": 9395,
      "Ġsculpt": 9396,
      "components": 9397,
      "creen": 9398,
      "IST": 9399,
      "Ġinvolving": 9400,
      "Ġchanging": 9401,
      "Ġcharged": 9402,
      "ĠLike": 9403,
      "GR": 9404,
      "uj": 9405,
      "Ġobservation": 9406,
      "ĠSab": 9407,
      "Ġbin": 9408,
      "rat": 9409,
      "words": 9410,
      "Ġcommittee": 9411,
      "ordan": 9412,
      "ĠNations": 9413,
      "exists": 9414,
      "Ġwinners": 9415,
      "Graph": 9416,
      "Ġofficially": 9417,
      "Ġnucle": 9418,
      "ĠLind": 9419,
      "imit": 9420,
      "Items": 9421,
      "Ġwing": 9422,
      "Google": 9423,
      "Ġfish": 9424,
      "ĠFox": 9425,
      "bec": 9426,
      "Ġestate": 9427,
      "Ġpseud": 9428,
      "ĠGaussian": 9429,
      "Ġcolumns": 9430,
      "Ã©e": 9431,
      "former": 9432,
      "Ġchampion": 9433,
      "]:": 9434,
      "Ġconj": 9435,
      "Ġtail": 9436,
      "})$.": 9437,
      "Ġmusicians": 9438,
      "fix": 9439,
      "periment": 9440,
      "amely": 9441,
      "Ret": 9442,
      "ĠBridge": 9443,
      "ĠHun": 9444,
      "ĠFalse": 9445,
      "Ġcustomers": 9446,
      "HL": 9447,
      "Ġaggreg": 9448,
      "ĠLady": 9449,
      "ĠTask": 9450,
      "\">&": 9451,
      "ĠSpring": 9452,
      "events": 9453,
      "ingly": 9454,
      "Ġresident": 9455,
      "Ġperformances": 9456,
      "aux": 9457,
      "Own": 9458,
      "1914": 9459,
      "Ġdefend": 9460,
      "Ġpurposes": 9461,
      "ĠRon": 9462,
      "since": 9463,
      "Ġdanger": 9464,
      "Match": 9465,
      "para": 9466,
      "ĠQueens": 9467,
      "ĠArea": 9468,
      "JSON": 9469,
      "ĠLes": 9470,
      "plot": 9471,
      "Ġmountain": 9472,
      "lean": 9473,
      "Ġpatterns": 9474,
      "Ġpolicies": 9475,
      "ponential": 9476,
      "MAX": 9477,
      "tik": 9478,
      "asters": 9479,
      "pir": 9480,
      "ĠAmazon": 9481,
      "ĠSon": 9482,
      "Ġremark": 9483,
      "ĠInitial": 9484,
      "Widget": 9485,
      "isa": 9486,
      "network": 9487,
      "Ġbalance": 9488,
      "Ġspons": 9489,
      "irement": 9490,
      "person": 9491,
      "save": 9492,
      "mapsto": 9493,
      "sumer": 9494,
      "Ġrecognized": 9495,
      "Ġrotation": 9496,
      "Ġrich": 9497,
      "ĠBall": 9498,
      "tainment": 9499,
      "ĠRevolution": 9500,
      "osophy": 9501,
      "Ġwhereas": 9502,
[...]
