#version: 0.2
Ġ t
i n
h e
Ġ a
o n
Ġ Ġ
e r
Ġt he
r e
a t
e n
o r
a l
Ġ s
a n
Ġ o
i s
i t
e s
e d
a r
Ġ c
Ġ w
i on
Ġ f
Ġo f
Ġ in
n d
Ġ p
i c
Ġ b
l e
ĠĠ ĠĠ
in g
r o
a s
Ġa nd
Ġ \
Ġ d
Ġ m
Ġt o
e l
Ġ $
c t
en t
e t
o u
i l
a m
i g
s t
Ġ S
o m
Ġ h
o l
Ġ re
at ion
Ġ T
r a
Ġ (
Ġ C
Ġ A
i m
Ġt h
Ġ e
o t
Ġ n
Ġ l
Ġ is
i v
c e
i d
{ \
c h
u r
Ġ M
Ġf or
u t
u s
u l
Ġ g
o w
a d
Ġ B
l y
Ġ on
er s
2 0
Ġ P
1 9
e m
u m
Ġ I
it h
i r
l a
q u
Ġ H
Ġa s
ĠĠ Ġ
u n
Ġs t
is t
Ġb e
ĠĠĠĠ ĠĠĠĠ
t er
_ {
Ġ R
t h
s e
Ġ F
Ġc on
o d
Ġw ith
t a
Ġ L
v er
Ġw as
e g
ĠT he
Ġ D
g e
Ġth at
at h
i f
Ġ Ċ
Ġa l
an d
en d
Ġb y
Ġ$ \
Ġ v
he r
Ġ G
Ġ N
r i
Ġ W
Ġa n
Ġp ro
ct ion
ig h
re s
o s
o p
č Ċ
ro m
m ath
Ġ E
it y
p h
at e
Ġa t
o c
p e
a y
v e
Ġd e
Ġw h
es t
u p
a b
â Ģ
u b
ar t
Ġc om
a p
Ġ &
Ġf rom
igh t
Ġ J
e x
} \
i es
a c
Ġe x
u re
in e
o re
} $
al l
^ {
Ġa re
Ġ =
i al
Ġs e
Ġ O
Ġ it
r an
u d
' s
it e
i an
m a
e w
b er
es s
or t
a g
Ġ or
Ġ he
re f
iv e
T he
ic h
Ġ "
Ġw e
p t
Ġ K
il l
m ent
at ed
i p
} }
Ġ U
as s
a k
o g
ar d
( \
an t
20 1
ra c
i z
l d
f t
âĢ ĵ
ar y
e f
n t
i a
ic al
am e
in t
el l
ou r
u e
Ġc h
u nd
eg in
Ġ r
ig n
p er
b egin
e ct
ul t
20 0
) ,
ĠĠĠĠ ĠĠĠ
ex t
ĠI n
it ion
Ġcom p
c l
Ġs h
on g
_ {\
) $
c al
or m
Ġ le
Ġ us
p l
d u
ĠS t
as t
Ġwh ich
en s
Ġ -
0 0
u g
e p
ation s
Ġth is
Ġ V
} {
c es
a re
Ġc l
or d
Ġre s
u st
s o
i re
k s
f f
r m
ĉ ĉ
Ġn ot
a ve
o v
Ġh is
Ġ k
a v
e q
c on
Ġ |
f rac
o st
is h
p ro
) .
1 8
e qu
er e
t her
r ight
} ,
en ce
c c
a ge
ĠC h
r ic
t o
p ort
Ġ un
t ext
la y
Ġ y
Ġw he
an g
c ite
l ow
m er
im e
= "
Ġal so
e ar
a in
id e
Ġ <
i b
Ġc an
t he
la b
ion s
ou s
I n
il d
as e
Ġa p
a ch
r y
Ġw ere
a ct
r u
en er
math b
ter n
Ġ {
ir st
Ġh ave
or k
) ;
Ġh as
f er
lab el
er v
$ ,
er m
w o
o ver
, \
et a
$ .
Ġa d
or y
ou nd
Ġ im
ĠT h
equ ation
ow n
ic e
Ġp art
f orm
ab le
ol d
at es
r it
a ce
- -
in d
Ġs u
om e
le ft
Ġ| |
re e
Ġa b
math cal
e c
cl ud
Ġa r
i e
} )
19 9
Ġon e
} .
1 0
ou t
or s
Ġcon t
ĠU n
i le
k e
f ig
Ġ ro
am p
ĠĠĠĠĠĠĠĠ ĠĠĠĠĠĠĠĠ
ri b
ent s
Ġm od
ta in
ĠH e
Ġf irst
am b
Ġs p
el y
} (
< /
ac k
an ce
Ġ j
ur n
he d
ran s
ou nt
w e
Ġp lay
Ġd is
} ^
ation al
Ġt wo
ou ld
ic s
res s
} _
Ġ Y
ĠI t
c k
c ed
~ \
Ġal l
ro w
o k
p s
al ly
ph a
Ġp er
en ces
s p
Ġit s
d a
Ġ +
n g
Ġo b
n e
Ġ âĢĵ
o se
al pha
f ter
ar k
o b
c ent
ub l
l ine
i el
t e
Ġh ad
Ġthe ir
Ġ qu
at er
s s
Ġb ut
ul ar
/ /
Ġt e
c om
l es
o int
im es
Ġs y
pe ct
Ġd es
) \
or n
l i
Ġe v
Ġs c
Ġ }
ra d
. .
Ġp re
l and
ra ph
ol low
amb da
v el
s um
el ta
un ction
le ct
i ed
$ \
Ġo ther
Ġm e
l l
Ġ if
iel d
ut ion
is s
Ġs et
j ect
ic an
Ġ *
Ġ en
on d
on e
ta b
o ot
at a
an y
Ġde f
as ed
am ma
Ġo ut
ra y
Ġcl ass
ug h
Ġa g
19 8
h o
_ \
i x
1 2
Ġo ver
Ġin t
it ed
ĠĠĠĠĠĠĠĠ ĠĠĠ
o ol
i o
um ber
on s
R ef
Ġfor m
Ġwh o
iv ers
Ġf ollow
Ġt ime
m u
pe c
o f
und er
Ġin ter
in ed
Ġbe en
in al
ic t
Ġs ub
od e
y s
Ġ up
m b
Ġb et
a w
ing s
p os
Ref er
Ġ\ \
Ġn ew
Ġwhe re
Ġcon s
op le
= \
at ive
r am
eg a
res ent
em ber
il m
} _{
Refer ences
mathb b
Ġin clud
ig ma
ar g
Ġc ol
d ot
} ^{
s h
w ard
r al
Ġ her
s ub
v i
Ġre g
s c
Ġsu ch
Ġd ist
ĠS e
g h
Ġcom m
- \
1 7
p r
in ce
ur ing
Ġd if
Ġon ly
st em
u al
ĠĠĠĠ Ġ
1 6
we en
Ġy ear
Ġl oc
mer ican
Ġres ult
ph i
ro up
1 5
an n
Ġc o
Ġt rans
Ġv al
re d
Ġmod el
19 7
if ic
Ġin to
l ambda
ar i
Ġf unction
Ġcon st
ol og
^ {\
Ġ {\
e ople
E x
" >
h at
Ġm ore
le t
iz e
an s
Ġbe c
ro und
Ġthe n
Ġg ener
a il
Ġp l
o x
Ġre c
Ġs up
Ġbet ween
d er
ĠTh is
et h
b all
r on
Ġin d
Ġre t
ĠN ew
ot h
b f
Ġw ork
Ġre l
Ġ under
Ġa cc
con d
Ġs im
Ġwhe n
in s
p i
Ġn e
Ġp ol
Ġa fter
Ġre p
at ing
Ġthe y
t y
ĠC om
a x
p art
Ġp h
Ġp os
ist s
ĠW e
r ing
it ies
al ign
s et
c he
ĠA l
Ġl in
t s
a us
Ġe qu
o y
w id
Ġthe re
oc k
ou gh
Ġa ct
Ġw ill
Ġ [
id ent
c re
Ġsh ow
ou n
p ar
Ġp ar
ĠM ar
le m
re n
u res
ak e
il on
Ġth an
mathb f
Ġs o
ubl ic
ch ool
ĠL e
S t
ru ct
al s
19 6
d ition
Ġof f
is ion
Ġus ed
2 1
Ġpro du
Ġd o
ro ugh
t on
w ay
ad e
is hed
ic k
Ġ( \
Ġp r
it s
Ġc or
le ment
s igma
is e
1 3
Ġdif fer
ĠA r
i ent
Ġk n
at ure
il y
Ġ '
1 4
Ġin v
se ction
p ut
^{ -
Ġf ilm
Ġt ra
} {\
Ġst ud
Ġ Z
b ar
i k
id er
Ġex p
ild e
am es
Ġsy stem
b eta
ver y
ou th
or ld
Ġm at
il ity
l o
Ġs he
Ġs ome
Ġas s
u es
o h
m in
Ġe ach
ĠP ro
math rm
Ġg iv
Ġn umber
ĠD e
t t
oc i
Ġw ould
ur y
g an
el f
ivers ity
as on
g amma
Ġf e
tern al
o ve
at or
h ip
ul l
Ġpro v
y n
c ol
w n
Ġb u
pt ion
Ġl ine
Ġs pec
1 1
e ver
+ \
ire ct
ar s
a ir
Ġ Q
ow er
ĠA merican
m all
iz ed
c y
Ġp eople
Ġan y
is m
" ,
ap t
ar ray
Ġp oint
Ġc ent
* }
Ġo p
ĠF or
r ho
ib le
Ġs erv
* *
or th
2 2
g et
Ġret urn
Ġm ost
ap p
Ġe ff
ep s
en g
^ \
Ġn o
\ \
Ġex t
Ġthe se
on t
ction s
d elta
e v
W e
19 4
Ġs ing
y pe
the ta
m an
as h
Ġ ed
) }
= =
ot e
em b
ĠS h
19 5
Ġo per
us s
Ġs ign
] {
n ing
ta u
Ġ end
Ġd ata
al e
he re
Ġf ound
Ġ .
er t
Ġ ra
at t
Ġth ree
2 5
Ã ©
Ġ es
Ġpro b
Ġs ol
Ġab out
Ġin st
Ġ ent
Ġg o
Ġap pro
ut e
le q
Ġ x
Ġm ay
$ -
Ġm an
Ġs er
c dot
wid th
s y
i er
ĠC ol
Ġw ell
ĠI nd
ion al
Ġth rough
Ġc ase
Ġse cond
Ġg roup
b ig
n u
ir c
iz ation
Ġs ame
3 0
Â ł
Ġo ur
er n
Ġag ain
Ġc ur
}$ .
}$ ,
em ent
ow ever
it t
Ġfollow ing
Ġ i
it em
ric t
fig ure
oot ball
ĠUn ited
a h
am et
T h
Ġpart ic
Ġdiffer ent
Ġf ield
Ġb oth
he n
a j
e e
Ġus e
} (\
Ġn on
ar ly
ar ge
Ġ X
Ġv ari
Ġst ate
qu ad
Ġd uring
ra ct
if e
Ġt erm
ĠA n
eth od
Ġm in
part ial
Ġs ur
ĠUn iversity
m m
v ar
u c
Ġthe m
e y
c ess
t imes
Ġ âĢ
-- --
ar row
Ġdes c
ical ly
( )
a z
o ok
Ġat t
om ega
Ġh im
Ġlin ks
Ġc all
ver t
ran g
g y
Ġper form
Ġde c
eq ref
v al
Ġte am
Ġh igh
our ce
vel op
Ġor der
ou se
Ġp la
Ġyear s
f or
ul ation
re at
Ġgiv en
Ġf in
Ġre le
Ġa c
ft y
eq n
amp le
Ġa m
in fty
Ġus ing
l u
a u
Ġf am
Ex ternal
ur al
t ilde
t en
00 0
at ic
Ġcons ider
Ġle ad
Ġplay ers
iv er
in es
m p
ic es
l ed
Ġwh ile
l ish
iv ed
in ing
ĠA s
ment s
e b
Ġn ame
iv ely
cent er
Ġd et
ĠĠĠĠĠĠĠĠ ĠĠĠĠĠĠĠ
el s
n er
over n
D elta
Ġd irect
in a
us ic
o ber
ĠC on
Ġar t
p m
| \
d ef
ĠS c
ro ss
re t
Ġs mall
ire d
et s
at her
ot her
ĠE ng
u ch
as es
Ġkn own
p le
Ġm ade
2 4
Ġp op
s erv
b y
Ġp ublic
Ġdis c
aus e
ot s
x i
ut h
Ġ z
ro p
oh n
b um
se c
2 3
re nt
Ġc re
iv ing
y le
le y
âĢ Ļ
Ġb ack
Ġbe ing
th s
ist ory
er r
al ity
ĠSt ates
Ġ :
r t
ers on
Ġf act
\ ,
sp ace
- >
Ġw rit
r id
Ġm ed
Ġl ater
ore m
Ġch ar
ar ch
Ġre qu
Ġf our
og raph
Ġap pe
olog y
en n
s im
f ore
" .
Ġst r
Ġt r
Ġm ain
he s
om en
le ction
um n
ĠS he
ot t
ent ial
ĉĉ ĉĉ
pl ic
ount y
m e
Ġb ir
v ed
ĠO n
Ġm any
. ,
y p
Ġde p
Ġf ootball
res p
19 3
} }\
Ġe m
Ġeff ect
ĠC l
Ġe lect
Ġin f
s on
. "
Ġob tain
Ġor ig
)$ .
c er
Ġse ason
ri x
un e
iss ion
5 0
ag ue
v ent
Ġ$ (
an e
Ġresult s
i or
C h
Ġs ince
Ġm ethod
o od
w here
Ġrec ord
Ġrep resent
ĠI s
Ġ ran
Ġ /
Ġb ound
} [
eqn array
O m
v ers
ay s
Ġser ies
Ġde velop
Ġm on
Ġbe fore
i ke
Ġes tab
ar ri
Ġ ,
$ $
Ġinclud ing
Ġb el
Ġl ong
Ġcont in
Ġval ue
Ġdesc rib
Ġal bum
ps i
Ġpar amet
ĠĠ Ċ
as k
Ġm ov
i qu
er y
en cy
ĠF ran
l ang
Ġp resent
Ġst art
Om ega
ĠCom m
s k
o le
ĠA d
s q
P ro
eps ilon
Ġm et
} _{\
) )
in clud
ag es
iv al
ĠS p
.. /
t il
ĠN ational
if ied
Ġan al
le x
C on
are d
vi ew
Ġl arge
ist er
ĠJ ohn
ĠW orld
Ġs chool
Ġ est
g ram
Ġm ass
ĠC ar
Ġme as
Ġb ased
ri pt
ĠP h
ĠM ay
a i
ĠA ust
Ġst ruct
le v
in k
form ation
Ġbec ame
re l
iv es
il la
Ġ //
Ġagain st
Ġr un
la ck
mb ol
ĠW ar
Ġre ce
G amma
in c
an ge
u ro
ch n
Ġap p
Ġ< /
Ġsup port
l og
Ġy ou
ab ility
n ot
ener gy
rib ution
rib ut
ep end
Ġloc al
g es
2 7
an u
Ġse ver
: :
Ġgener al
Ġp res
)$ ,
or ks
resp ond
tern ational
ĠF ig
ĠC an
Ġbu ild
201 0
o id
os s
h i
Ġdes ign
Ġpro per
2 8
^ *
ak ing
et w
| -
Ġchar act
ĠC ounty
ur ther
an k
ur ch
Ġpro cess
Ġex per
2 6
Ġm ult
a id
ps ilon
sq rt
Ġres pect
Ġ$ {\
Ġcon dition
c o
ĠB rit
ra w
Ġop en
Ġb l
ce pt
ag n
Ġ rad
Ġob serv
Ġn ow
Ġad d
u ally
ro du
r and
O n
Ġd r
' ,
Ġc ount
Ġsp ace
Ġg u
am ed
ol ution
Ġfam ily
p or
ian s
e ad
Ġin cre
ĠS chool
ĠJ ul
Ġse e
F or
Ġcall ed
um ent
Ġ čĊ
C om
v en
Ġo wn
it al
Ġim p
v are
f ra
text bf
Ġl ist
Ġg et
vi ous
Ġd ue
f ul
}^ {\
Ġl im
Ġs ong
sub section
rac k
right arrow
Ġpro f
Ġto p
Ġ\ ,
i um
Ġt ype
Ġb ro
b old
ward s
Ġ @
ĠA ss
Ġre ma
m ed
cc ess
r ist
ĠG erm
201 6
i am
Ġprob lem
Ġpos s
Ġsing le
^{ (
um er
ĠS outh
Ġde ath
vare psilon
201 1
} =
Ġun til
ĠA t
ĠN ov
ial ly
raph ics
rang le
pos ition
m od
ar n
Ġf inal
Ġ `
ĠG e
201 5
amp ions
ug ust
Ġcon tain
g er
Ġr ight
r is
201 8
ĠY ork
id ed
ĠE x
ar ian
ant s
im ens
201 4
re ad
201 7
ĠP ar
Ġcor respond
Ġas sum
m l
r ation
Ġre fer
emb ers
201 2
Ġ el
2 9
ir d
Ġv i
are er
om et
Ġc ould
overn ment
ch i
Ġsever al
Ġd en
a f
pt ember
il t
c apt
p on
Ġn ear
ĠO r
) =
Ġb o
4 0
Ġal ong
ith m
Ġare a
201 3
aj or
n on
I t
et y
um b
ĠH owever
ro l
a e
Ġo cc
am ent
n ess
il ar
is ed
c m
Ġt em
it ive
Ġbec ause
Ġ energy
Ġpol it
Ġ u
1 00
h t
20 19
ĠC ent
ct ober
ess age
re en
v es
Ġt est
Ġs cal
anu ary
y m
Ġin it
Ġre st
b orn
Ġal low
capt ion
ĠT e
Ġe very
i j
col or
200 8
Th is
200 9
ist or
Ġest im
eg raphics
includ egraphics
g or
us e
ic a
b m
Ġne ed
Ġm usic
Ġo pt
end ed
Ġv ers
Ġcomm un
id es
Ġad dition
ĠA ugust
a int
Ġst at
t r
ĠR e
d iv
Ġf ind
sp an
ĠMar ch
Ġst and
Ġle ft
Ġw in
var phi
ar m
Ġc al
ĠSe ptember
er o
at eg
at ely
b s
om an
i od
eng th
200 7
ĠI I
m ber
20 20
Ġ very
i ence
pr il
Ġ ident
Ġg ame
le ge
em ph
en e
l im
re m
Ġmeas ure
Ġcur rent
Ġor gan
Ġre f
Ġh and
Ġan n
ĠO ctober
g round
if y
ĠP ol
ĠJ anuary
p lay
Ġab ove
Ġp ower
Ġre m
Ġwith in
Ġint eg
200 6
ect ed
Ġpro gram
Ġfor mer
x im
l ing
Ġt it
t ing
ĠAust ral
p p
Ġplay ed
Ġp ass
w h
re g
Ġoff ic
ap er
ve c
ĠJ une
port s
Ġl arg
A s
at ors
Ġre al
e k
Ġs um
l er
Ġb and
Ġrele ased
Ġle vel
' '
ce mber
A l
at ch
ens ity
om in
. ~\
ĠP r
ĠJul y
l ess
Ġl ife
s ide
v an
Ġcontin u
ord ing
ge q
ograph y
Ġg ra
19 0
pos ed
Ġc ap
od y
S ee
Ġbir ths
Ġim port
fra k
ĠM in
Ġl ast
tab le
& \
B ig
Ġe lement
Ġto t
over line
Ġch ild
ff ic
ĠA pril
Ġev ent
Ġs at
f ace
Ġd i
) ^
gor ithm
ĠW h
. }
ĠG u
Ġev en
> </
ĠN orth
sy mbol
ens ure
ĠA ll
cent ury
pro of
che s
ĠBrit ish
S T
ĠC al
e ction
orm al
im ent
Ġcharact er
Ġw on
u le
ĠE uro
un g
ĠLe ague
Ġa round
ampions hip
ĠNov ember
Ġe arly
Ġf re
Ġhe ad
etw ork
Ġpla ce
am pl
Ġt ri
ific ation
( );
Ġval ues
Ġdo es
ore d
ĠC ity
l ation
is on
( "
Ġth ose
E R
av ing
he m
b ack
Ġex ample
an c
Ġp ubl
Ġd er
ĠDe cember
t rans
ition s
Ġcomp ut
ĠR ep
Ġsim ilar
b e
at s
Ġpartic ular
6 0
Ġsh own
se e
} ).
z e
Ġsh ould
mm et
as ter
ĠM an
l ished
ĠâĢ Ķ
Ġs pect
il it
ĠThe y
Ġqu ant
Ġob ject
ap an
ef f
st r
ref ore
Ġl aw
ĉĉ ĉ
) :
Ġa v
al es
at ter
ĠR eg
Ġcon f
ord s
bold symbol
}, \
Ġfollow s
Ġdescrib ed
w ith
Ġv is
ĠĠĠĠĠĠĠĠ Ġ
ĠSt ate
Ġl ike
Ġdep end
it er
c ul
d is
Ġpre vious
[ \
eb ru
Ġint rodu
i ous
Ġc rit
ebru ary
math frak
Ġfilm s
l ight
../ ../
h am
Ġhe l
if t
200 0
epend ent
ke y
ak es
in o
Ġs elf
Ġse ction
st it
ĠCan ad
lang le
Ġc ity
id d
Ġre ad
A R
> <
ĠC o
ct or
al th
Ġtot al
ĠK ing
or ph
h line
Ġj ust
lev ision
Ġpoint s
en se
c or
d e
ĠR es
U n
Ġd id
at ures
Ġ err
ru ction
ur s
Ġ #
Ġb as
od es
ĠB e
b ra
im al
ect or
18 9
n o
u k
l or
Ġh ig
f ield
Ġdef ined
Ġass oci
ĠA f
200 5
d d
Ġcl os
} }$
Ġcomp et
Ã ¡
ĠW ill
ren ch
Ġm ap
or g
Ġin du
ĠA nd
Ġmodel s
Ġre du
uth or
g in
Ġd em
A merican
p ed
Ġsu ccess
I N
ist ic
Ġs ize
Ġper iod
== ==
Ġl ow
H e
b le
ur b
Ġm embers
Ġen g
c irc
L et
Ġbe h
ĠEuro pe
in ess
L ambda
a ction
n ab
Ġt rad
---- ----
Ġ )
Ġc areer
com m
A n
an ces
Ġshow s
ĠF ebruary
mb ox
st er
Ġte chn
pl it
S S
ĠA rm
s elf
ix ed
op er
app a
Ġl and
se qu
es e
Ġm ake
Ġto wn
20 21
Ġd own
Ġw omen
Ġm ajor
Ġterm s
8 0
Ġd eg
ĠA fter
th ough
Ġpop ulation
yn am
Ġdet erm
Ġd iv
n ew
Ġn amed
Ġw ay
P hi
ld ots
Ġsh ort
u age
Ġw orld
er ed
et ic
Ġcomp let
ug g
200 4
4 5
Ġin formation
# #
Ġ >
Ġst ill
Ġestab lished
Ġpre d
Ġstruct ure
Ġstud y
il le
op e
Ġloc ated
or ies
A T
a pe
3 3
ĠS y
op t
ĠĠĠĠĠĠĠĠĠĠĠĠĠĠĠĠ ĠĠĠĠĠĠĠĠĠĠĠĠĠĠĠĠ
Ġreg ion
ĠP art
Ġp ost
Ġh old
Ġinclud e
Ġdist ribution
i us
er ing
Ġm ember
ĠI f
ĠE d
Ġst ation
s er
Ġex pect
on y
o ad
in ation
Ġcl ub
is f
Ġcom b
th is
Ġl ab
ht ml
Ġre port
Ġbe gan
ĠD ist
Ġ et
Ġle t
ĠB ar
3 2
Ġex ist
. \
le ar
lect ed
c hed
O N
Ġg overnment
T o
an a
l ob
Ġst ates
re am
Ġp erson
ĠB y
eta il
la im
Ġpro ject
Ġa ver
Ġp at
ys is
Ġappro xim
b o
ĠEng lish
ra ft
Ġb est
Ġhe ld
Ġat ta
ad d
ĠJ apan
k appa
s f
ĠS w
l oc
cl ass
ra g
ensure math
em pt
ĠW est
Ġm uch
Ġt yp
3 5
Ġm ark
ĠS up
olog ical
Ġv illa
o ff
ot ential
Ġs aid
Ġb us
ot imes
t ies
ĠH ar
Ġf ac
.. .
Ġ _
ri es
ĠCh rist
ard s
ĠB o
Ġh ome
ĠU S
non umber
Ġc our
ĠH is
R es
Ġstr ong
ent ly
Ġc ar
Ġdisc uss
oun c
ill ion
Ġle g
nab la
a ult
ne y
in ition
s ource
b ut
ol l
ad em
7 5
Ġm ax
Ġorig inal
Ġappe ar
al k
Ġinter est
C l
r um
** **
Ġe p
n ame
9 0
Ġwh at
Ġwith out
Ġal ign
ent ion
ĠM c
iqu e
Ġo ld
} )$
ress ion
Ġa ff
Ġman ag
et er
Ġs ide
iv ate
os p
oc ial
ud e
} ;
Ġv ol
f ord
Ġp o
ĠC or
Ġch o
la ce
Ġm agn
ener al
Ġj o
Ġh ref
iv ity
ide o
our n
Ġan other
Ġb re
Ġ* /
t ime
sub set
m ult
} ),
Ġh ow
cite p
Ġd ensity
ur g
Ġch ang
are nt
ot es
a ul
b l
ond on
Ġmult ip
Ġn ext
b ox
text it
Ġg ames
Ġto ok
Ġc ou
Ġthe ory
ict ion
Ġl a
Ġs pe
Ġs k
L ist
our ces
ce ption
al f
7 0
Ġph ot
Ġbu ilt
w ide
Ġt ake
Ġrece ived
Ġp e
Ġpro t
Ġm ust
\ %
Ġcomp any
Ġfe ature
Ġh ouse
p ose
Ġobtain ed
ir on
id ual
ĠCol lege
ĠAf ric
ĠĠĠĠĠĠĠĠĠĠĠĠĠĠĠĠ ĠĠĠ
P s
d ay
b it
Ġis s
in ally
Ġpubl ished
S igma
Ġst yle
Ġse qu
ĠE l
3 1
ĠR ec
200 3
Ġt imes
Ġth ird
it her
Ġpro m
ĠS an
c ap
A r
Ġn ational
ĠM ed
Ġph ys
Ġtit le
arri ed
Ġal gorithm
Ġd el
Ġar g
m essage
ĠR uss
Ġf urther
ĠN o
Ġa ge
Ġinv ol
Ġposs ible
es c
\ [
a ugh
Ġinclud ed
Ġspec ies
ord er
ro ll
Ġcomp on
}} {
ĠThe re
Ġsign ific
row n
I D
ĠF rench
Ġsat isf
Ġa ut
re w
il es
Ġs ix
200 2
Ġf ive
ĠThe n
Ġserv ed
Ġcomp os
ĠT o
Ġcomp lex
ed er
en c
Ġpos ition
: //
con t
Ġt urn
n a
pl oy
im um
âĢ Ŀ
Ġme an
ĠCh ampionship
ra p
Ġar ch
Ġcent ury
ĠA b
ĠH igh
Ġprof ess
6 4
Ġvers ion
al d
i i
\ !
Ġcont rol
um an
l in
Ġimport ant
Ġh istory
\ |
ĠM e
ric k
us h
in ter
du ct
Ġparamet ers
t d
re st
c ur
al se
es tern
Ġm ot
um e
st yle
Ġn etwork
on es
ĠL ondon
ĠA ir
( '
Ġf ull
ĠĠĠĠ ĠĠ
h old
Ġfunction s
ĠA m
Ġp otential
Ġb orn
Ġconsider ed
Ġd ay
ilit ary
Ġperform ance
con st
o ks
Ġp aper
Ġvi ew
op h
Ġran ge
200 1
N ame
ĠWill iam
pr ime
ĠL et
arg et
/ \
ĠThe se
ty pe
i et
Ġc over
Ġte levision
Ġmat rix
Ġequ ation
Ġl ight
Ġg raph
18 8
ĠGerm an
ĠS ch
Ġ q
wid et
ly mp
Ġl ang
Ġc ross
un ic
ĠCh ar
Ġinv est
Ġ vert
Ġed uc
cl us
Ġplay er
Ġvari ous
ounc il
Ġw ar
d om
6 5
sc ript
Ġcomm on
Ġrespect ively
Ġs it
Ã ³
Ġ` `
it or
ing ton
end s
al y
ab les
Ġe as
Ġlim it
Ġre d
ĠDist rict
R e
I d
Ġind ic
dot s
Ġsol ution
ic le
A S
Ġre se
Ġam ong
widet ilde
u ation
Ġc amp
Ġl ower
ĠS er
ri ption
Ġst ar
p d
re et
Ġconst ant
Ġth ough
Ġof ten
c ode
ĠC up
Ġro le
av y
center ing
Ġwrit ten
ut ions
Ġinit ial
20 22
Ġf ew
Ġse par
Ġtr ue
r ary
3 4
at rix
ul a
R E
c it
ĠH er
ĠP ark
con om
Ġ- -
ĠE n
Ġf lu
y l
Ġserv ice
le g
Ġp air
he ad
{ -
Ġprodu ct
s up
Ġcorrespond ing
n ow
ĠY ou
B y
Ġw orks
Ġaver age
b or
Ġcons ist
Ġbuild ing
ampl es
ĠA ng
Ġm en
Ġsystem s
Ġa ction
ĠD av
I I
ĠAr t
Ġp ort
Ġim pro
op s
i ents
im port
Ġn orth
if f
c ast
Ġr ate
ĠH ouse
Ġex pl
Ġsignific ant
u ck
Ġchild ren
rid ge
i ber
oc us
Ġspec ial
Ġcal cul
sh ip
Ġtra ining
Ġappro ach
Ġrel ations
ĠM on
Ġf ree
iv idual
Ġl ess
ĠB ro
Ġs em
Ġh y
d raw
i ef
Ġc irc
way s
Ġa uthor
Ġanal ysis
as ing
Ġf low
ac he
4 8
ure d
Ġa ir
Ġmat ch
u ild
ĠCom p
oci ation
} -
\ ]
ol ic
ĠO ne
al t
ail able
S h
Ġh owever
Ġ ide
Ġf l
F ig
L iving
Ġp ri
ch ie
Ġd ied
ĠPh il
Ġfe atures
Ġc he
C ol
199 9
Ġev ents
Ġb ook
at ural
' t
Ġw ater
th m
Ġd etail
Ġa rm
an ish
le te
Ġpr im
r ig
ma x
T ype
t op
Ġkn ow
3 6
Ġdif f
Ã Ń
Ġk e
ĠP res
Ġph ase
ak en
ĠL em
Ġvilla ge
ar a
Ġw id
) (
c ing
Ġg e
Ġparamet er
A C
199 0
\ {
9 9
ĠE q
Ġ= >
ĠL a
ĠP l
and om
Ġfre qu
ĠIn ternational
Ġ( $
Ġf ore
ron t
Ġsup er
att le
Ġs w
S e
ex p
our s
Ġtem per
tab ular
ite ct
ot ed
if orn
in n
) =\
Ġhig her
Ġprodu ced
3 8
ĠInd ian
P eople
I nd
z eta
Ġgo od
Ġind ependent
Ġstand ard
Ġd imens
ĠR iver
Ġcon n
ĠThe orem
ĠD iv
Ġp ath
Ġann oun
ĠP er
Ġn eg
om orph
Ġth us
St ring
Ġhe re
Ġs outh
oy al
Ġbec ome
Ġk ey
} +
iforn ia
Ġro und
Ġc laim
Ġc ases
/ >
Ġs on
ĠQ u
is c
Ġle ast
199 8
m ar
b r
Ġin s
Ã ¼
s cal
ĠâĢ ľ
Ġt w
om ent
Ġn ov
ann el
ly ing
oc ument
Ġsy mmet
is ing
ra in
Ġch ange
et t
Ġ& =
v iron
ĠEng land
ĠB l
er a
ĠA g
Ġg en
Ġh aving
land s
or ge
r ite
Ġgroup s
Ġcondition s
id ence
Ġap plic
Ġpro of
r r
B C
ord in
Ġb ase
Ġan t
Ġin c
lob al
Ġprodu ction
Ġb i
Ġk ill
ial s
fer ence
~ ~
Ġp ract
ĠD ep
Ġline ar
Ġb lack
Ġbus iness
g o
Ġc r
c le
H istory
her n
' )
Ġv ector
a ut
ĠM ich
Ġl oss
Ġestab lish
wh ich
st and
oci ety
m ost
" )
} =\
ic o
s in
ar ies
use um
Ġl ay
3 7
Ġl ed
} ]
Ġl ength
| |
4 4
) ^{
ugg est
Ġt ext
par am
h ib
Ġbe com
ĠCal ifornia
c os
og n
Ġc er
b b
u ed
o on
Ġassoci ated
}_ \
O R
h tt
Ġe ar
Ġn umer
5 5
Ġh istor
Ġd at
{ (
ĠAustral ia
; \
Ġav ailable
Ġs ite
pl ies
}\ ,
am a
w w
Ġe ither
" />
Ġg row
Ġd om
Ġim age
Ġfin ite
Ġlin es
val ue
ch an
iv en
Ġcre ated
ab ly
al ax
Ġind ividual
Ġh om
$ )
Ġc ell
Ġcount ry
ĠPart y
, -
om b
Ġsh ip
ĠA c
Ġs ent
Ġdist rict
Ġbel ow
ĠV al
and er
Ġan g
A L
Ġpos itive
p re
V al
Ġen c
a ff
Ġmov ed
Ġl og
Ġreg ular
Ġerr or
o ch
Ġab s
Ġdeath s
Ġh ost
Ġwe ight
ret urn
ĠW hen
0 5
am il
Ġm ale
trans lation
Ġse en
ĠS ince
v ing
w are
{ {\
ur ation
get her
u ff
Ġconst ruct
Ġto gether
3 9
ul es
& .
Ġeng ine
Ġmethod s
ourn al
du c
Ġpr ivate
Ġg round
Ġs ource
ĠSe ction
Ġc ult
b ased
ĠB er
ĠO lymp
199 6
Ġa chie
199 7
}^ \
0 1
Ġdevelop ment
ĠE ast
Ġl ate
ĠA ward
Ġs uggest
ig en
A N
Ġv ia
g en
in ary
Ġr andom
ĠArm y
ress ed
Ġproper ties
Ġrese arch
Ġd ynam
Ġs old
Ġpro posed
Ġf ail
Ġs l
Ġm er
h a
Ġc y
Ġl o
Ġh alf
wide hat
cdot s
Ġf ather
Ġs m
âĢ Ķ
ac es
iv il
4 9
Ġc aus
com p
Ġin put
ell ow
Ġre cent
Ġpl an
Ġhel p
ge bra
ran t
18 7
ĠA mer
Ġin ternational
Ġf em
Ġc ost
Ġf ocus
198 0
Ġv ideo
inc ip
ĠS ec
L E
^ +
p oint
Ġcommun ity
min ist
m on
) }\
D e
A A
Ġn ormal
ĠB el
Ġres p
. ~
Ġyou ng
Ġf und
ĠA ct
Ġ !
g s
itt ed
Ġsur face
ot a
Ġm y
q quad
Ġcou pl
c her
ĠFran ce
Ġm iss
Ġcor re
Ġprov ide
f oot
Ġbro ad
D E
it z
m ing
I f
g color
Ġbeh av
l s
pl ied
ĠInd ia
qu e
ec ess
il ities
ĠT r
pon se
Ġset t
Ġn ode
Ġm illion
ĠP ort
Ġ ill
ac ks
ĠCh urch
Ġannoun ced
ĠW ith
Ġg reat
Ġdeg ree
Ġobserv ed
itt le
ul ated
k n
ĠR oman
Ġstart ed
ort hern
ĠF irst
end ing
text width
n ode
Ġt aken
ap pro
ho od
Ġd ou
Ġde v
ut ure
viron ment
Ġproper ty
s ing
A M
lem ma
cc ording
r ated
Ġn ull
c is
s w
ul ations
ind ow
e h
S E
ac hes
Ġun it
Ġd ire
}} (
s mall
4 7
unic ip
Ġm ater
Ġre view
Ġfact or
Ps i
Ġep is
ce ed
Ġac ross
Ġa ward
& =
s ize
in f
nd er
Ġelement s
Ġz ero
u f
Ġde but
}) \
199 5
ĠM al
y a
v ille
ĠC he
Ġme ans
Ġlarg er
Ġcl ose
a el
} |
ĠCanad a
Ġb gcolor
g ed
ĠS im
Ġc ame
sk ip
it ch
idd le
Ġpolit ic
ĠA nt
Ġacc ount
Ġperform ed
Ġr at
k ed
Ġdef ine
6 6
d s
Ġex ists
ib ility
ra int
Ġatta ck
Ġt re
Ġ\ {
Ġequ ival
S c
ĠN e
Ġe lection
av a
L e
ĠĠĠĠĠĠĠĠ ĠĠĠĠĠ
em s
Ġrel ated
C O
Ã ¶
A fter
Ġconst ruction
Ġ( )
s l
c up
Ġexper iment
ĠC ouncil
med i
ĠS m
id ing
em ents
ribut ions
ĠM or
ĠEurope an
ult s
Ġf ig
Ġquant um
ec ut
Ġcomp ar
ĠP al
ĠTh om
ber t
st ate
9 5
ther n
ens ion
ĠP aul
199 4
ĠAmer ica
d ata
A t
Ġst ring
ĠR ed
] ,
Ġdist ance
Ġcl ust
oun tain
ĠL ist
Ġinf lu
ĠH ol
Ġm oment
I nt
op y
b and
Ġreport ed
Ġpop ular
Ġt rack
Ġs ocial
ac y
ĠR ober
ign ed
Ġlang uage
Ġprob ability
Ġact iv
f unction
ro te
u ra
ĠG eneral
Ġw ent
Ġcontain s
m ap
Ġe mb
w ise
Ġpartic ip
ĠQ ue
Ġv ar
k ing
ou thern
al ian
ĠS um
u el
Ġatt empt
Ġpolit ical
x space
ist ics
Ġdevelop ed
Ġapp oint
ĠJ ames
math sf
Ġt arget
k y
Ġf ixed
Ġinvest ig
art ment
ĠFig ure
at ives
ĠC our
}^{ (
Ġ= =
stit ute
Ġem ploy
Ġacc ess
199 2
Ġscal e
Ġsequ ence
Ġf alse
Ġcent ral
r ame
Ġg alax
Ġag re
ĠDiv ision
Ġreturn ed
ac hed
ĠPres ident
ber g
p ly
i ers
Ġ$ (\
Ġf ri
ĠM ore
qu are
it te
Ġrep la
c ell
ĠSt reet
eff ic
Ġwh ose
Ġl iter
( {\
am s
li ke
an i
E N
I C
197 0
ree k
bs ite
and id
Ġoper ator
Ġsp in
Ġprov ided
Ġexpect ed
Ġintrodu ced
Ġrequ ire
ic ol
read y
) ]
Ġm arried
erm an
st ar
}\ \
ĠGe orge
Ġrequ ired
ar ning
ĉ Ċ
Ġsim ple
iz ing
Ġaddition al
Ġimp lement
G e
Ġarch itect
6 7
ĠR oyal
r d
un c
pro p
k en
I T
ran ch
um p
ĠM a
6 8
av es
ĠF rom
Ġra il
Ġwork ed
oun ter
ĠA p
Ġfield s
m ary
Ġcon c
Ġne igh
Ġh uman
Ġback ground
Ġdef e
ĠL ou
ra ction
d own
199 3
Ġjo ined
ĠS en
i res
Ġm ilitary
l ic
Ġbe gin
k a
Ġbound ary
il i
N ew
g roup
Ġd ays
Ġpred ict
ĠAss ociation
ĠR ich
Ġst ep
equ iv
Ġqu est
Ġm aking
ĠB ra
ĠSt ud
ind ent
Ġl ik
Ġ Ã
ĠLem ma
A d
Ġab le
_ _
m y
Ġel se
y ear
ĠĠĠĠ Ċ
Ġev al
st ring
Ġanal y
umn i
Ġtemper ature
Ġg ive
Ġbet ter
ag o
ĠD em
Ġs ay
// //
oc r
Ġd est
d imens
ĠD es
Ġn atural
Ġclos ed
Ġstud ents
Ġst ory
e in
om s
e ed
A P
ĠUn ion
erv ice
kn own
Ġc apt
Ġb ody
ĠM y
"> <
Ġm em
ri ate
on ic
ĠH all
ut es
m id
ĠAustral ian
Ġlead ing
oot h
if orm
le ctions
ill s
Ġm id
ed d
ear ch
Ġequ ations
pd f
ĠGerm any
18 5
Ġv oid
ĠV ir
Ġdi ag
ta ge
0 8
n ers
ĠDav id
p en
Ġassum e
Ġc ut
u x
el oc
( -
Ġare as
e al
ĠD uring
Ġ& \
ve y
it ar
199 1
ic les
&. &.
Ġw rote
r im
ĠD i
Ġ& &
Ġindu st
Ġm ag
st on
Ġinst ead
at ory
ish ing
m ore
n ote
id a
h space
Ġp ress
all s
rac y
m ark
Ġgra du
Ġacc ording
Ġserv ices
Ġgiv es
A ss
ĠTh us
} :
Ġ Ð
ri an
Ġro ad
] $
n el
Ġh ard
Ġthe refore
Ġex act
}} {\
wo od
Ġpresent ed
al le
ĠP e
Ġpres ident
Ġnov el
ic y
it ing
itt ing
W ith
f rom
Ġ id
ĠB ut
Ġocc ur
ĠCh ina
Ġad v
Ġcor rel
Ġe conom
ĠP at
as ons
at ively
Ġle arning
an ies
E C
ask et
ens ive
P h
Ġopen ed
Ġrec ogn
Ġar r
ĠN or
Ġl ost
0 7
} +\
Ġdom ain
Ġeffect s
S p
ash ington
Ġmultip le
M od
ĠB r
oc al
Ġed ge
Ġr ather
ro id
Ġform ed
e an
4 6
Ġprofess ional
cit et
Ġgo al
Ġc ode
ribut ed
ic ro
Ġst ars
Ġme chan
9 8
Ġal ready
Ġch urch
ar ily
in i
Ġbl ock
Ġdirect ed
Ġsong s
Ġteam s
Ġother s
m s
Ġcent er
) -
ott om
h an
ĠM art
Ġtrans fer
o e
P ar
ĠD r
Ġp ut
ra b
k er
' $
Ġ rac
ĠB ay
ast ic
ĠT rans
Ġcontinu ed
F rom
Ġdirect or
g ress
ĠAc adem
R ec
Ġden ote
Ġrad io
Ġp ur
Ġc ateg
ĠG roup
ĠM ac
Ġst re
d t
end er
l ist
A ll
Ġf ar
Ġal though
plic it
ĠCent er
t ic
ĠM od
Ġst age
ed ge
Ġent ire
n eq
ĠH en
Ġp an
Ġpr incip
0 6
Ġv eloc
I S
C C
ĠM ark
Ġs ample
4 2
ro y
} -\
Ġne ver
* {
Ġ- \
he l
arian t
D ata
ag ed
Ġwork ing
ĠE m
on al
Ġw ant
196 0
Ġcomplet ed
ĠR oad
itte e
Ġhold s
ĠM ary
Ġtrad ition
Ġpart y
F F
Ġn ecess
| ^
ut il
ĠM ex
Ġrecord ed
C ont
Ġsuccess ful
Ġspec ific
a ign
Ġcont ract
oper at
Ġof fer
O b
Ġh or
Ġon ce
Ġinclud es
ĠB lack
Ġc andid
ĠL aw
li ament
Ġcon fig
Ġbre ak
Ġme et
ic ult
u z
ĠPro v
operat orn
umb ers
the orem
ens us
198 9
Ġeduc ation
Ġcon text
Ġset s
S ince
Ġcomp lete
Ġt reat
Ġa way
scal e
u it
) }{
ines e
dimens ional
9 7
ĠR ef
f ill
ell ing
Ġd augh
operatorn ame
ight s
Ġvi ol
it ude
D ef
0 2
la v
ĠComp any
The re
Ġbas is
) {\
r up
no indent
as c
ip p
ĠG reen
Ġs ens
ĠCl ub
ĠS ociety
k i
o o
Ġeffect ive
Ġal most
al a
t est
p ite
Ġcer tain
Ġrele ase
b urg
ĠM usic
Ġco ordin
ou l
Ġalbum s
T e
Ġk m
il ter
ĠG l
Ġt en
ib rary
8 5
Ġbro ther
d en
0 4
Ġcomp ared
0 3
Ġ %
Ġind ex
re y
Ġf lo
w rit
Ġdire ction
Ġg rad
ar io
Ġbel ie
Ġp aint
Ġwe ek
d ag
198 8
Ġmet ric
ĠG ames
ir t
re c
0 9
rib ute
ĠC ont
Ġm ar
Ġup per
Ġcon duct
ĠKing dom
Ġre n
ĠCanad ian
Ġsign ed
Ġqu al
Ġlab el
Ġdat as
ol it
ĠCour t
Ġdef inition
lo ad
Ġf uture
Ġsub ject
o res
Ġcol or
g l
ĠĠĠĠĠĠĠĠĠĠĠĠĠĠĠĠ ĠĠĠĠĠĠĠ
ĠIs land
Ġal ways
5 00
ĠIn stitute
en umer
Ġre v
) }$
Ġequ al
Ġd ocument
Ġstud ies
i ew
ĠW ashington
Ġwe bsite
ĠD ef
Ġcomm and
Ġappe ared
vers e
ad es
$ }
Ġh on
a ctions
Ġg as
F ilm
Ġpri or
asket ball
th at
iz es
Ġl ook
Ġfootball ers
sc r
Ġb en
ĠT own
\ ,\
ch ange
ĠS ing
one y
Ġim plies
n b
est ival
Ġadd ed
ĠD on
it es
ed y
Ġout put
Ġla un
Ġsc he
Ġconst raint
Ġso ft
}} _
Ġfound ed
ĠH istor
Ġelect ed
i os
ĠDep artment
f ile
op l
Ġsu ff
Ġlarg est
at al
= #
Ġw ife
ist ry
emb ly
item ize
li er
-------- --------
Ġra ce
c ial
r ast
4 3
omorph ism
Ġtrans form
ans ion
Ġpart s
ĠJapan ese
Ġco ach
Ġsmall er
4 1
Ġal gebra
le vel
enumer ate
Ġco effic
Ġcol umn
Ġro t
Ġro w
Ġwe ak
ĠC ath
ĠAfric an
Ġne ut
Ġ ver
Ġchang es
Ġinst ance
v space
Ġv ict
os en
ri a
o z
n ce
ne ction
==== ====
Ġre ason
Ġsub sequ
im ents
ĠC ons
ĠT V
Ġde part
] \
ĠT ur
Ġstud ied
C D
ĠIn ter
Ġw ave
b re
Ġpro p
Ġappoint ed
Ġt aking
Ġcon ver
Ġl ive
198 7
h y
Ġres ponse
b our
Ġn uc
S P
us ed
ing u
ĠV ol
on a
en ed
ĠRec ords
Ġrepresent ation
b ound
S et
c ks
Ġfollow ed
S I
Ġcompon ent
Ġelect ron
c an
ĠM et
k m
Ã ¤
i en
Ġmagn etic
ĠCent ral
Ġst atic
all ed
Ġac qu
ad o
Ġpe ak
Ġad van
. )
Ġe ast
un t
8 8
Ġcan not
ĠP ress
ĠAr ch
ĠB est
Ġf ram
Ġfor ce
Ġoffic ial
ĠAng el
Ġal umni
) {
ĠM iss
Ġc ast
Ġ _{
Ġbecom es
amil ton
d ist
Ġle ague
led ge
ad a
Ġun its
u an
Ġad minist
9 6
au ge
ĠR ail
Ġass ist
, "
Ġad j
Ġdesign ed
ĠAcadem y
P l
Ġpro ve
ĠM ad
Ġev olution
t ra
Ġw est
Ġmod ern
ĠRober t
Ġsol utions
Ġincre ase
Ġim ages
ĠC ap
ict ure
er ve
Ġm other
r ish
ĠRuss ian
ĠS o
m it
Ġmax imum
Ġwhe ther
um ents
~ $
**** ****
eder al
198 6
Ġoff ice
Ġdem on
ffic ient
Ġ: =
Ġrel ation
N ot
ĠIt alian
ĠS am
ro s
Ġeff ic
Ð ¾
l ong
ref er
ĠT ra
Ġwh ite
ĠA lex
Ġcompon ents
Ġen vironment
ĠThom as
Ġ und
Ġus ually
Ġto o
ĠG rand
Ġdirect ly
Ġgener ated
ĠM useum
ol ar
n s
Ġf ront
E D
ĠSum mer
Ġstr ateg
ĠWh ile
Ġen ough
at us
( $
la g
Ġy ield
ĠT ex
Ġinter p
" );
Ġtrans ition
Ġg ain
loc ation
w est
Ġm ight
Ġthe orem
enc ies
Ġap plied
Ġsign al
Ġrem ov
198 4
ĠR ad
Ġb ar
}} }
ous ly
Ġresp ons
t urb
Ġreg ard
Ġact ive
ĠS al
ĠAfric a
ĠOlymp ics
Ġexp la
im ate
ag er
ĠZ eal
] .
Ġdiff icult
Ġcon v
Ġc lear
Ġp arent
dis play
ĠR ev
Ġphys ical
Ġex hib
he st
E ng
Ġbir th
ĠG old
Ġnot e
th let
Ġe ight
ol f
Ġc le
in st
Ġro ck
appro x
Ġmark et
Ġprov ides
is es
ĠC ong
Ġche ck
Ġconst it
Ġrest rict
est s
ang le
in ite
ĠG reat
ĠW il
it a
Ġch annel
Ġproblem s
Ġstruct ures
Ġcre ate
Ġt able
\ }$
ĠL eg
198 5
ĠZeal and
Ġc e
Ð °
ĠSy stem
Ġhim self
Ġhe alth
Ġcomp anies
ĠW estern
Val ue
Ġfor ces
Q u
ict or
ĠRep ublic
Ġd omin
ul ly
ĠF ilm
F A
id s
Ġs ound
s plit
7 7
Ġdisc over
z a
Ġincre asing
ĠF ootball
Ġg lobal
p ath
Ġcont ent
Ġt er
Ġh ous
ĠM at
r ate
Ġschool s
ĠU K
clus ion
Ġus er
Ġrepla ced
s el
Ġdiffer ence
Ġgu itar
^ -
or ation
Ġspect rum
L L
Ġin j
Ġst ri
Ġveloc ity
Ġb ox
ĠSc ott
Ġs ources
Ġval id
math scr
ĠChar les
d ate
Ġn umbers
Ġp ast
O S
ĠE ar
ĠLou is
Ġthrough out
` `
ta ct
Ġinvol ved
cre t
l am
ĠS aint
Ġrelations hip
ĠThe refore
Ġclass ical
ar ter
Ġopt im
Ġam ount
en a
Ġt ro
Ġw rite
Ġse lected
w a
Ġus es
ĠVir gin
y ing
Ġorig in
in ct
Ġd one
pec ially
Ġup on
iz ations
Ġestim ate
M S
ess ion
Ġde cre
ĠG o
ust om
ĠY ear
ĠJ ew
ov ers
ĠI nt
Ġp ers
Ġits elf
w ell
ĠM er
M an
ollow ing
mult icol
Ġs ports
Ġcrit ical
L A
Ġsc en
Ġrepresent ed
ĠCar ol
re land
Ġplay ing
Ġsupport ed
ou d
Ġst ations
ĠM ag
Ġmed ia
& &
Ġm unicip
E S
F orm
Ġdaugh ter
198 3
irc raft
ĠK ore
ĠChrist ian
line ar
osp ital
P i
az ine
Ġt akes
Ġ\ ;
Ġloc ation
Ġmon ths
5 8
i ation
multicol umn
Ġe igen
g ence
l ink
ĠCh inese
Ġdis play
ens or
Ġm ention
arn ed
p an
h om
Ġf ire
ĠWh ite
Ġd ram
Ġprevious ly
ĠMin ister
Ġy our
us ical
ant ic
n es
O r
overn or
Ġreg ions
Ġad apt
ind ex
ĠM ont
ew ork
big g
p ing
Ġd raw
Ġtyp es
Ġcamp aign
Ġg ave
ĠTex as
ĠL ab
Ġun ivers
M A
Ġcol lection
ac her
Ġl iving
is ation
) );
N N
P S
6 3
Ġs il
Ġrat io
Ġepis ode
is ions
] ;
ĠMich ael
Ġbuild ings
et her
ot ic
Ġst ated
Ġlist ed
ĠO b
re qu
Ġre ve
Ġvari ables
Ġm ix
y r
ĠD an
Ġw ords
Ġmed al
Ġwid th
Ġun ique
r c
T rans
nb sp
yn om
comm and
Ġto urn
Ġequival ent
198 2
ĠD o
under line
E T
ra el
Ġge omet
Ġac cept
}^{ -
ĠCl ass
un k
195 0
Ġse arch
as tern
) +
l n
ĠP et
Ġallow ed
Ġconn ected
Ġex ecut
ĠT able
ĠT or
Ġobject s
ec k
Ġmat ter
Ġl atter
Ġ\ |
Ġp ay
ĠT om
Ġto wards
at re
g ent
5 7
6 9
Ġrema ins
Ġ/ **
I s
P R
ough t
in os
Ġill ust
id ae
c el
i ra
Ġre ach
duc ation
Cl ass
Ġspe ed
Ġprim ary
Ġal tern
Ġpla ces
Ġout side
Ġf av
alle l
## ##
Ġdeterm ined
Ġf ight
Ġresult ing
Ġp erm
Ġa ud
Ġoper ations
St ate
] [
Ġbehav ior
ĠS ur
us ion
Ġor d
Ġfrequ ency
U S
ĠL at
Ġset ting
l ength
" ;
ar ing
Ġallow s
F C
Ġt rac
ĠH amilton
r as
Ġcon clud
197 9
rr or
Ġpat tern
Ġorig inally
Ġ ess
Ġcurrent ly
ro ad
ian t
ran ge
h and
Ġrel ative
Ġt ry
Ġfem ale
Ġkill ed
text rm
b ul
Ġd on
stand ing
aus s
p x
bo ard
6 1
Ġj ud
ĠL and
A D
ĠPar is
Ġtrans port
ĠP o
Ġj ournal
at form
min us
d i
ĠSe cond
amet er
The n
Ġevent ually
ĠCath olic
Ġde al
} /
The ta
ir m
ĠSup er
pe ople
i ences
oc key
6 2
n y
or ing
m en
n orm
ĠB en
Ġdou ble
ĠJ ose
}} _{
N ote
id ents
198 1
z il
el ine
g ing
f l
Ġa x
mod el
am ily
Ġbo oks
ers ion
Ġto ur
ĠSp anish
Ġd am
Ġfin ished
av al
F L
Ġse ven
T R
< \
{ }
in it
w in
ak er
Ġdemon str
w ar
E n
rad e
ĠFran cis
f ess
ĠN ote
Ġbel ong
Ġ$\ {
Ġm ove
Ġg auge
Ġt ree
Ġch all
Ġacc om
Ġad opt
s pec
ru le
Ġst e
Ġdimens ion
Ġsur v
subset eq
d o
ĠB ill
W h
Ġart ists
an o
t ical
S up
ĠDem ocr
Ġv oc
b ur
pro d
Ġcho ice
Ġt ask
Ġf ile
ol s
ĠM el
Ġinteg ral
V ert
Ġext ended
Ġgener ally
{ $
ĠP lay
ut ch
ĠD ay
ĠSt ring
ĠP eter
ap s
Ġapproxim ately
ĠM ass
ĠF ore
Ġch arge
Ġm akes
Ġro b
ĠA ccording
Ġder iv
Ġright s
inal s
ĠSt e
ack age
air s
Ġrel ig
att ice
Ġst op
Ð µ
ĠC O
Ġ$ |
Ġocc up
ov iet
ĠSc ience
foot note
Ġre ached
ol a
Ġsymmet ry
Ġcon cept
ĠSm ith
197 2
7 8
ĠS ub
ish op
Ġpro ced
htt p
Ġim medi
Ġch art
Ġdetail s
if old
Ġpolitic ian
ĠD el
ĠS ome
ip s
Ġeff ort
un ity
Ġeval u
P r
Ã ¨
O ne
Ġmater ial
Ġ ir
o ice
Ġcons ists
es h
ic ago
197 8
v a
Ġun iform
Ġcour t
ĠG ra
Ġf it
Ġmiss ing
ar p
ac ity
f lo
Ġoper ators
ĠRich ard
re p
ri ef
text tt
x y
Ġinter action
ify ing
Ġcour se
Ex ception
Ġ( -
Ġn ames
197 6
ĠĠĠ Ċ
ĠF lor
ĠV ictor
Ġes pecially
Ġinst it
a ur
d ro
Ġs us
u i
err or
Ġs eg
Ġch arg
Ġrun s
Ġrema ined
Ġor g
Ġad m
Ġsu fficient
etw orks
ĠT er
ĠHen ry
ĠN ot
ĠO ther
Ġexp and
Ġrequ est
ĠFran k
197 4
u a
T V
Ġadd ress
Ġcorre ct
Ġredu ced
Ġquest ion
Ġtra vel
Ġlim ited
ĠL os
Ġfour th
Ġhe nce
Ġdis p
Ġpre c
is her
Ġder ived
ĠP la
ri al
E arly
ĉĉĉĉ ĉ
Ġg l
ĠL ake
g n
re me
b ody
Ġcharact ers
opl us
I M
Ġcount ries
k et
Ġc ivil
ĠI reland
ĠH ill
Ġestablish ments
Ġ( $\
Ġun cer
Ġke ep
Ġd ed
tain ed
Ob ject
} '
ĠS pec
Ġsm ooth
ac c
Ġm ach
I R
A B
Ġimp act
Ġpro te
set minus
Ġstre ng
p ace
Ġpla ced
Ġexp ression
b an
m at
ĠB ur
ta int
ĠR ob
197 5
Ġover all
ĠF ound
Ġ( "
Ġb ur
; "
it le
Ġappe ars
ĠD irect
Ġhig hest
Ġflu x
ĠF l
is k
}} ,
Ġpol icy
ol k
Ġfeature d
197 7
Ġw ord
Ġsc ore
Ġ$ -
Ġpol ynom
( ).
i h
Ä ģ
Ġg old
Ġs en
ĠD u
omet imes
ig an
Ġpl ant
Ġbo ard
ĠH istory
ĠR ock
Ġform s
Ġoper ation
Ġs om
Ġrun ning
ĠP ri
Ġh app
re ater
Ġin equ
Ġaward ed
Ġno ise
a o
cre te
Ġl ittle
st ruct
Ġpres ence
Ġexp ansion
Ġpol ice
ĠC amp
d ec
_ +
Ġd ate
196 8
ĠFor ce
ĠSw ed
\ }
A p
ĠP enn
oc ks
Ð ¸
dag ger
G et
Ġch osen
ir al
Ġd u
la p
Ġd rop
Ġmult i
Ġcontinu ous
ĠP an
ĠE mp
W hen
Ġcur ve
em por
_{ {\
ic on
ind er
ann ing
Ġgalax ies
In f
Ġfri end
_{ (
ĠM il
Ġb all
Ġf all
ĠO ff
Ġlik ely
ĠW omen
ĠW al
ur l
ab s
Ġ er
5 1
A nd
Ġdiag ram
Ġcom e
s u
ub e
Ġcompet ition
Ġsing er
Ġlead ers
Ġfig ure
O C
Ġb ig
Ġfam il
ĠJ ust
ĠIt s
per ty
O T
ric es
a res
r ich
ug by
Ġex plicit
Ġrefer ence
N otes
Ġa ircraft
ĠTh at
Ġneg ative
ou ri
Ġobserv ations
Ġr ule
ell s
Ġgra v
Ġear lier
n av
Ġmot ion
ĠRes earch
8 7
Ġpract ice
Ġwrit er
Ġch ain
197 3
w edge
o ke
ĠVirgin ia
Ġbound ed
Ġsche me
Ġclass es
Ġtra in
Ġd ig
b on
ri z
Ġsc atter
5 2
Ġan im
ĠO ffic
Ġlong er
ist an
Ġform ation
ĠS ta
ĠD en
E E
il s
Ġ! =
Ġd ark
$ _
^{ -\
Ġtrans l
Ġcomp act
M L
esc ription
Ġe mer
ell ar
as hed
Ġiss ue
og le
ĠS un
ĠOr der
ĠChampionship s
Ġvari able
ann ed
line width
pon ent
rup t
Ġiss ues
ar c
Ġbeh ind
al o
v is
O ver
Ġcrit ic
Ġexp ress
il ed
ĠComm ission
Ġsc ored
Ġmod e
Ġrema ining
Ġart ist
Ġhouse hold
ĠĠĠĠĠĠĠĠ ĠĠ
5 4
ir l
iqu es
ĠTe chn
5 6
Ġtourn ament
ĠK e
ĠA pp
ĠL u
Ġhy per
Ġfamil ies
Ġstart ing
Ġneigh bor
)\ ,
d et
y e
K ey
M C
ag ing
Ġdiscuss ed
ĠM o
S C
Ġdec ision
9 4
Ġnot ed
Ġestim ated
Ġs aw
V iew
Ġp ie
S y
Ġde ep
197 1
rough t
Ġpartic le
Ġim m
F urther
B A
Ġn ight
b a
ma in
st ant
Ã³ n
) |
Ġwrit ing
ren ce
Ġvol ume
Ġit er
Ġs ch
al ed
Ġform ula
ĠIt aly
Ġaut om
u racy
Ġpartic les
9 2
ĠN avy
Ġst aff
Ä ĩ
ta g
is l
ĠK h
Ġbroad cast
196 9
ĠMex ico
ĠAr ts
ĠM us
Ġvert ex
Ġcommun ic
ĠM r
Ġsy mbol
ĠIs rael
Ġchang ed
ĠCh icago
p ng
() );
Ġcont ribution
ect s
cl es
Ġlevel s
Ġh yp
ĠAl though
ĠG od
Ġ Â
qu ot
Com p
9 3
s m
Ġcom mer
Ġev idence
ĠAt l
od ing
Ġinterp ret
Ġb asketball
im a
os m
Ġper turb
ef ore
in em
Ġpre m
Ġw ide
ĠO ut
Ġpol ar
p ublic
p c
Ġcol lege
ĠP ublic
Ġplay s
T r
Ġneed ed
Ġsc reen
Ġbegin ning
r ative
ĠC D
ĠK ar
ĠGe org
j s
Ġincre ased
ec ause
ĠT wo
Ġapproxim ation
Ġem ission
" :
Com m
Ġsim ply
ĠSt ar
Ġ$ [
anc ial
Ġcap ital
Ġv eh
Ġnecess ary
pt ions
194 5
Ġlead s
ĠF e
vent ion
ĠC ast
ĠI ll
Eng lish
ĠB rown
Ġs ex
ĠSc ot
Ġran k
Ġ// /
er ia
ĠAngel es
ch o
ud d
st ra
et te
194 0
r at
P T
Ġmoment um
htt ps
B S
196 7
Ġliter ature
Ġcoupl ing
ed s
ĠI m
b t
vers ion
il arly
5 3
Å į
sk i
lang uage
col on
Ġact ress
ul s
Ġex cept
Ġ ens
F irst
Ġthe rm
ric e
Ġwho le
in y
lim its
), \
Ġav oid
i ro
back ground
rick et
Ġconstruct ed
Ġsc ient
Ġn omin
ĠComm ittee
ĠK n
Ġmap s
b ook
E qu
Ġapplic ation
U T
Ġn ature
Ġlay er
Ġst ra
. _
l ov
Ġgo ing
Ġin cor
F T
or ial
ĠF estival
Ġg un
al i
en ced
T ime
E rror
Ġra p
Ġexper iments
arian ce
Ġsub set
at riate
Ġdynam ics
k o
Ġread ing
Ġs ense
ian o
Ġpl ane
en ing
Ġwrit ers
ĠS ervice
du ction
is hes
rop y
oll ary
Ġin side
iv ial
Ġar bit
Ġ| \
sh ire
Ġon line
Ġs af
T est
and a
Ġh ol
Ġmov ement
Ġdec ided
ab it
el t
Ġbl ue
Ġapp ly
Ġar ray
ian a
Ġlead er
Ġun ion
Ġt ax
l t
ww w
B uild
Ġvari ety
ĠPar liament
and s
Ġvoc als
Ġant i
C areer
\! \!
ot ion
19 30
at ur
Ġtradition al
../../ ../../
Ġmeasure d
ĠW ales
sub figure
Ġstat us
sum mary
Ġs quare
Ġent er
ĠCong ress
ĠO per
C an
Ġass ert
P C
ĠU nder
Ġc hem
Ġ\ (
m ann
per p
ĠS oviet
196 4
Ġn orm
Ġdiv ision
r un
Ġknow ledge
Ġc ounter
Ġan c
ĠL ie
ect ors
we ight
che ck
S im
Ġdest roy
Ġp en
Ġf if
ĠC ount
at o
erv ation
Ġcon sequ
ĠProv ince
sy l
Ġmin or
ĠF urther
) /
9 1
R eg
ĠPro position
Ġcaus ed
Ġw indow
it ors
ĠG overnment
ult ure
ĠFlor ida
Ġact or
Ġindust ry
ian ce
ur ity
Ġrad ius
Ġrec over
s ol
Ġhe avy
ad ium
Ġcol l
Ġide a
Ġb order
Ġmean ing
ers e
Ġa im
Ġmat ches
Ġb ranch
ĠRuss ia
ĠE v
Ġpress ure
Ġc red
S er
ĠĠĠĠĠĠĠĠ ĠĠĠĠ
g ra
ot o
S U
l ock
Ġprodu ce
_{ -
van ia
Ġn odes
Ġdatas et
pr int
ĠHistor ic
f low
Ġemb edd
us ing
ĠCarol ina
in ity
}} (\
Ġmechan ism
j ection
Ġ }\
Ġgrow th
Ġc op
Ġs amples
3 00
Ġm ur
Ġequ ip
Ġnumer ical
uf act
align ed
Ġhe ight
Ġmin imum
N e
Ġn etworks
hem at
Ġex amples
Ġl attice
Ġcol lect
Ġident ity
7 2
196 5
ĠH ow
und le
Ġs light
Ġh ot
ĠA wards
ill er
Ġexperiment al
Ġexp on
ĠAss embly
Ġg rand
Film s
res ents
ĠAn n
Ġagre ement
M ar
! --
auss ian
ĠC ur
Ġam plit
w an
Ġj ob
Ġp age
' _
Ġh it
re es
8 6
v ement
Ġsc ience
ĠM ount
az z
ĠF in
Ġr ules
Ġparticular ly
Ġf ace
Ġs low
Ġspect ral
b i
Ġre b
ĠO h
Ġth row
Ġv an
C o
Ġsh ape
196 6
ĠG al
S ub
ubl ican
Ġpr int
ul ed
Ġper cent
ĠBra zil
Ġcult ure
Ġse asons
"> </
tr ue
ĠV er
Ġperson al
Ġsp at
Ġcont rast
Ġdesc ription
5 9
Ġb rought
k in
se ud
Ġcompar ison
ĠII I
m et
ĠH ere
D uring
Ġb ank
Ġe ver
Ġdec ay
ĠO ur
) }(
Ġuncer taint
ent al
in put
Ġelect ric
\ '
Ð ½
Ġf ully
Ġman ufact
= {
Ġsur round
_ *
Ġdescrib e
ef ul
Ġprof ile
8 9
Ġrail way
Ġstud io
Ġsim pl
d r
T ext
con s
P erson
Ġsh all
Ġk ind
Ġl ack
Ġorgan ization
B ar
Ġc are
N o
Ġp urch
em ic
} %
Ġwin ning
ĠF ort
Ġqu ality
7 6
pt on
Ġpan el
ĠS il
Ġf ood
Ġatt ention
Ġc ensus
j o
or al
Ġf rame
ĠT our
. </
,\ ,
Ġf arm
ĠEmp ire
Ġj oint
O ther
Ġa uth
end ix
Ġp ark
Ġtrad e
la w
Ġsatisf ies
ell ed
ĠO ld
8 4
def inition
Ġr iver
ip age
ĠH ence
n eg
Ġch ampionship
c ase
Ġexist ence
g g
Ġatt ended
Ġappear ance
Ġprocess es
Ġvert ices
ir it
19 20
ĠB re
min ipage
e es
if ier
app ing
Ġb ul
Ġcateg ory
d eg
ĠO pen
ĠMart in
Ġso on
ib li
ĠSec ret
ĠL iber
ĠSer ies
j a
om y
Ġopt imal
Ġrele v
Ġs ometimes
S he
os ing
C H
Ġn orthern
all ery
Ġst ream
E vent
Ġdeterm ine
os c
Ã §
= (
re al
Ġcorrespond s
=" +
Ġed ition
ĠM ur
Ġconc ern
Ġs outhern
ir ing
Ġgen us
Ġsim ulations
syl vania
un ct
ĠP ac
M ed
g u
st ack
Ġpl atform
os h
Ġcont roll
ed om
it able
ap ter
Ġinflu ence
Ġclust er
Ġmon th
Ġinit ially
ĠI rish
' );
Ġh tt
) _{
Ġd ual
' \
Ġb rief
Ġdist inct
sel ves
Ġeas ily
Ġed ges
ans as
Ġmention ed
h ire
{ $\
M P
Ġ ult
b in
Ġrep resents
ĠL y
velop ment
as ion
Ġthough t
Ġcon nection
Ġprodu cer
an ks
Ġsh ot
Ġmanag ement
f e
ĠSp ace
= -
ĠH el
he ight
ĠJose ph
Ġco ast
N A
ĠD is
Ġmem ory
rodu ction
ĠReg ister
ĠN orthern
ĠL ove
r ons
Ġw ind
m ission
Ġc arried
( ),
Ġacc uracy
Ġmeasure ments
Ġfram ework
8 2
$ (
ell i
ing er
Ġac adem
Ġident ified
Ġart icle
Ġcalcul ated
Ġdefe ated
Ġin ternal
sh ift
Ġsem i
Ġsol id
R equ
n et
O ut
re a
Ġob ser
hes is
ap ers
as i
ym pt
Ġsepar ate
Ġfor ward
Ġk ing
ĠCol umb
In ter
ĠYou ng
Ġcent re
Ġconsist ent
ĠF orm
E q
Ġhigh ly
Ġcon tact
Ġext ension
Ex p
R ep
Ġre pe
Ġ ?
B e
Ġproced ure
il ib
ĠM ost
Ġ&= &
U R
Ġrep lace
Ġproduct s
H owever
ĠS a
Ġse lect
Ġ\ !
text sc
Ġcon cent
Ġ+ \
Ġpo et
for all
Ġpr ison
ĠH a
Ġm usical
Ġben ef
Ġcol lab
Ġarchitect ure
ĠG r
196 2
ĠL ine
Ġis land
Ġy et
}$ -
I G
Ġro ute
Ġmajor ity
at i
Ġsy n
z ero
N ow
or a
ig a
ĠH aw
en ge
amp ion
E nd
ĠD ou
ĠB us
Ġgo als
ĠW ood
J ohn
Ġsing les
ĠH on
sim eq
Ġcandid ate
res hold
Ġm arg
Ġqu ick
im in
Ġrequ ires
Ġfact ors
.~ (\
ann er
y mmet
E d
Ġres olution
) ^{\
ĠSp ain
Ġend ed
4 00
196 3
Ġse lection
as ks
ĠR em
ro t
Ġf ill
Ñ Ĥ
Ġc ore
Ġw ood
Ġw oman
n ames
Ġapplic ations
ob ile
aw a
the n
c a
ĠO ver
Ġm iddle
Ġcho ose
Ġscal ar
Ġmanag er
Ġg rant
sub subsection
ĠIn f
Ġsup p
Ġc it
Ġm ole
ĠFound ation
oc ation
Ġnew s
Ġrefer red
st ein
ĠS ir
ĠA rab
^{ +
w ork
) ^{-
Ġm oney
Ġassum ption
Ġph il
ers ey
og ue
ĠBo ard
ĠMore over
Ġf raction
Ġform al
Ġcont ributions
Ġpol y
Ġnew sp
Ġcorrel ation
Ġsh ift
Ġf ast
i y
194 4
Ġce le
n ormal
iz er
Ġmost ly
ent h
Ġinequ ality
Ġcoeffic ients
Ġstud ent
ĠR o
ĠB attle
ĠPenn sylvania
lo od
us er
Ġsp ent
Ġsp aces
ult ural
Ġang le
Ġconstraint s
Ġlaun ched
m ond
et urn
ĠH am
idd en
Ġm icro
Ġter rit
H ere
ad y
S pec
: \
Ġint ers
I m
k es
ob ject
Ġprop ag
Ġarg ument
Ġmain ly
ĠU p
8 3
Ġcontain ing
ĠB ob
ĠG reek
S O
Ġde cl
ic ated
Ġc ustom
7 4
Ġ ~
Ġassum ed
Ġt im
un ior
ĠEng ine
O f
ĠC am
ĠT imes
z er
ĠNew s
Ġcom es
Ġus eful
Ġcomp ute
P op
ĠF C
ĠB as
ĠC ross
Ġse cret
ĠT ime
ak a
ĠLe e
ic ity
bul let
el er
Ġopen ing
Ġwh om
8 1
t ri
Ġpass ed
i ography
Ġrecent ly
ĠJ ac
pm atrix
Ġdis k
$ ).
el la
ve x
ĠB ig
Ġsim ulation
Ġsignificant ly
ĠL ong
\ "
ĠU k
Ġprogram s
Ġess ential
in et
Ġmed ical
s pect
stit ution
ĠM ax
Ġactiv ities
z y
7 3
Ñ Ģ
Ġcomb ined
7 9
k ins
if ically
ri um
N S
new command
b lack
Ġmag azine
Ġexist ing
ĠF red
ul ate
t rack
c ases
N et
Ġtreat ment
ĠE ducation
F ield
Ġm ission
Ġdepend s
st o
ĠB C
og ene
ect ing
Ġclass ification
Ġtem por
epend ence
P ath
}^ *
Ġfin ally
Ġde com
T able
Ġtyp ically
ĠAl so
196 1
F ile
ip l
Ġcur ves
ĠCh ief
ven ue
augh t
Ġin sp
Ġown ed
ĠH ot
G B
ole an
Ġstra ight
Ġun known
ĠF re
Ġmod es
Ġth ink
Ġh ours
ĠL ife
Ġon es
Ġsit uation
ĠC la
Ġden otes
Ġdef ault
Ġl oad
Ġinv ariant
Ġb al
Ġ= \
L S
Ġcomm ission
Ġsum mer
Ġed itor
Ġqu ad
pl ate
A dd
Ġr ing
val ues
Ġch ief
ĠS k
ach ing
er ry
Ġincor por
ĠB ank
et ts
b ury
Ġar rang
j i
Ġrel atively
Ġa mb
ar ks
ĠE r
ĠTe am
Ġexper ience
}} ^
Ġl ove
ĠF ield
r ical
u ge
//// ////
Ġbas ic
Ġsoft ware
7 1
Ġv irt
h ouse
ĠVal ley
ĠO l
Ġse cur
' ]
u ations
Ġb attle
Ġdram a
con fig
act ive
ĠC re
Ġconfig uration
Ġincre ases
ib ly
vi ation
Ġfore st
ĠPro fess
b ase
ĠS ocial
t ot
Ġfootball er
Ġact ually
Ġ- ->
y an
la x
Ġnear ly
Ġtechn iques
Ġv ac
A ust
194 2
Ġs plit
) }{\
ĠJ o
Ġus ers
Ġpl ot
Ġl at
ino is
ĠUn ivers
Ġarm y
f in
cur rent
B ack
ĠT w
Ġdepend ence
id ers
Ġpos itions
Ġtechn ology
( (
Ġpair s
if fer
us band
ĠJ im
Ġinter view
et ime
195 6
~ $\
Ġdr um
ost on
enn is
i ency
c ore
C T
w ord
empor ary
L O
ĠS ol
ĠN ow
ern el
bl ock
Ġs n
Ġfail ed
ĠB ase
s ch
Ġex am
e ks
Ġor b
Ġnumer ous
E lement
air man
ĠS ong
Ġf un
[ '
ĠBel g
ĠB ul
al g
Ġcom ment
Ġleg al
arri age
Ġ ;
ĠL in
el a
Ġimmedi ately
Ġmin im
Ġse c
ĠH ig
195 9
194 8
ĠHe alth
O M
Ġc ause
Ġg reater
che n
Ġr ates
Ġt or
195 8
u ages
circ le
th ing
P E
Ġoffic er
Ġcompos ed
Ġcontin ue
Ġprov ed
Ġc ounty
h ar
P er
Ġdet ection
display style
g ener
ach us
$ ^{-
Ġt ensor
h as
D F
Ġdel iver
ĠC amb
Ġcomplet ely
ĠIn c
Ġst able
Ġthem selves
Ġag ent
ĠL i
ran ts
ĠDemocr atic
r ide
or age
Ġneed s
m d
ĠR h
ow ers
Ġg ot
Ġdist ributions
ĠG en
sk y
Ġle arn
ament al
Ġstrateg y
Ġl ived
l en
ag ement
à ¤
Ġcon vert
P I
Ġhor iz
Ġst eps
w er
col umn
Ġbecom ing
ĠS outhern
Ġthe ore
Ġpre vent
for ce
Ġrelev ant
f ect
195 7
Ġv s
ov a
ĠS ar
Ġcommer cial
Ġcon sum
f ree
d x
t itle
ĠRad io
Ġshow ed
Inf o
Ġspect ra
om ic
M ap
Ġte acher
Ġvis ual
Ġm ixed
loc al
Ch ar
m as
)\ \
Ġdis e
ĠBrit ain
ĠD utch
Ġappro aches
ist ers
Ġent ered
Ġro om
Ġth reat
st ream
p ol
Ġold er
it ter
} )$.
n am
omorph ic
Ñ ģ
=" #
$ $\
ĠO x
Ġremov ed
Ġh um
Ġintrodu ce
ĠC ivil
Ġconf ir
Ġact ivity
Ġcar ry
A ccording
Ġsing ular
oc ol
Ġm essage
Ġl ic
Th us
Ġfin ancial
Ġext ra
ĠJ ack
ĠĠĠĠĠĠĠĠĠĠĠĠĠĠĠĠ ĠĠĠĠĠĠĠĠĠĠĠ
Ġsh are
Ġc ard
Ġauth ors
Ġmin utes
ĠI ran
Ġ ice
Ġabs or
h ost
Ġt un
ĠMich igan
i as
t ers
193 9
194 3
Ġpo or
A m
Y ear
et ween
ad or
Ġfl at
Ġext ract
Ġsen ior
r or
ĠJ ud
j e
ab ase
Ġcap acity
Ġeconom ic
il a
ĠR am
Ġg reen
Ġoper ated
Ġin ner
Ġmov ing
ĠM ountain
N R
Ġb ass
Ġstat ement
Ġachie ved
ĠOh io
Ġbe g
achus etts
Ġship s
f act
Ġcomb ination
ĠP ak
C ar
)$ -
Ġsymmet ric
Ġc osm
ay a
Ġb ring
Ġcell s
ĠH y
Ġf a
ap i
194 1
sy ch
res ult
ĠSt ep
S ports
+ +
ĠCar l
ibli ography
G roup
Ġsecur ity
Ġor ient
Fig ure
& -
rem ark
erv ed
ĠT im
Ġb att
Ġre const
Ġinterest ing
Ġl ies
Ġslight ly
u er
pt y
ĠC ro
Ġc orn
ĠAs ian
ist ical
Ġfe ed
ĠEd ward
Ġto day
ĠPac ific
Ġsit es
ma ge
Ġcomput er
Ġf ix
Ġclaim ed
Ġs quad
Ġcommun ities
g raph
M ore
ĠPol and
Ġsp read
A G
Ġe lections
N ational
Ind ex
T E
now led
an cy
Ġin n
Ġm aster
g reg
Ġstreng th
cont in
bur gh
Ġp ick
ict ed
Ġdes cent
Ġp ack
ab ilities
ĠF ri
194 6
Ġfor ced
Ġann ual
ĠL ibrary
acks on
ce an
Ġexp ressed
P art
Å ¡
ĠP eople
H z
map sto
Ġm ountain
ĠR el
ĠJ ersey
Ġindividual s
ar ia
195 5
Ġarbit rary
at ers
m atrix
) _
ĠP ost
Ġpro min
B rit
ex ample
Ġredu ce
ĠDirect or
Ġse a
ĠT op
e ch
gy pt
s ur
195 2
' :
Ġmur der
ĠAs ia
ĠP rem
ud es
O ur
Ġth ick
Ġc am
A b
le ase
ail y
Ġst ay
I ON
ĠO f
Ġappro p
Ġm ut
ĠThe ir
Ġdist ributed
ĠIll inois
Ġc ry
A F
N ode
Ġform at
Ġcomput ed
Ġh usband
ĠM en
ro ph
Ġ },
Ġchall eng
I V
Ġalgorithm s
Ġvict ory
Ġcal c
ter m
Ġe lev
Ġgener ation
Con fig
Ġqu arter
ĠK ent
Ġp refer
ĠRep resent
Ġinter actions
Ġtrac ks
d im
Ġreg ime
Ġhy dro
en ant
ult y
Ġdepart ment
Ġrecord s
Ġsubsequ ently
ĠE ach
ar ant
ur t
Ġocc urs
ĠM ajor
pro b
ĠRep ublican
Ġspat ial
ĠS pr
' }
Ġyield s
The orem
Ġs ampl
c r
ĠHamilton ian
ad el
ut y
Ġorder ed
ĠEar th
ĠScot land
Ġet c
Ġ ...
Ġinteg er
ard en
on ia
Ġact ors
Ġrespons ible
194 7
Ġexact ly
ir ls
ĠB ook
Ġw estern
I P
}} ^{
v est
Ð¾ Ð
Ġm orph
ĠCon ference
ĠM em
Ġn ine
ĠL ord
ĠJ ones
Ġun iversity
f irst
om a
ĠM ah
ĠPort ug
ĠRail way
ĠB oth
Ġre li
Ġas ympt
Ġstat istics
Ġpolitic ians
Ġpar allel
Ġse at
Ġc ru
} &
Ġeas y
ĠT est
Ġnuc le
Ġcoordin ates
ilib rium
ĠR os
ou the
Ġestim ates
c ount
od ot
Ġle ave
ĠCent re
Ġle aving
Res ults
Ġcol on
ĠE lect
Ġmeasure ment
ĠS et
ok en
ĠMass achusetts
Ġimpro ve
Con text
Ġb ottom
ĠQue en
ĠPhil ipp
Ġpolynom ial
c f
Ġra ised
ant ry
v oid
ĠK ong
ris on
ann els
A tt
ic ks
Ġst ellar
Ġc at
195 4
L P
Ġar rest
Ġman ifold
el i
Ġdist ingu
ĠT ri
tain ment
Ġf ilter
Ġp hen
195 3
rel ated
Ġopt ical
ay lor
Ġerr ors
Ġmain tain
$ ;
ĠJ an
_ -
Ġmat rices
ĠG overnor
Ġmeet ing
Ġv ary
ĠB or
res h
Ġcy cl
Ġp il
p age
Ġbe y
pro du
O D
. $
t ik
Ġw alk
Ġmach ine
ĠJ ournal
ric s
Ġsett lement
b acks
og rap
Ġret ired
ot ing
it ation
Ġab ility
Ġtra ined
S ch
Col or
Ġrelig ious
let s
Ġqu ite
Ġmeas ures
Ġl if
ĠJohn son
Ġwe eks
M embers
Ġrema in
: #
ĠE qu
Ġcontain ed
im b
Ġhistor ical
Ġde b
Ġrap id
M M
ĠOff ice
ell ig
Ġv on
C P
Ġserv ing
Ġf ederal
Ġth reshold
Ġtyp ical
T D
194 9
Ġser ve
ĠA ut
ĠG aussian
a ver
Ġas pect
out e
pro position
v in
Ġrecord ing
S w
ific ations
ve ct
sc ill
Ġp ure
Ġstrong ly
$ ~
Ġdes pite
o ir
ab led
d es
Ã ±
ol ved
Ġscatter ing
Ġbey ond
| }
ĠPla ces
Ġcom edy
Un ited
Mod el
Ġmunicip ality
Ġother wise
c ome
Ġa ctions
ĠGeorg ia
ĠB ern
Ġon to
ab el
/ **
ang er
igh ter
B o
t em
g a
Ġatt ract
ĠM u
The se
Ġdis s
Ġf light
Ġ );
Ġtrans formation
g rad
Ġadopt ed
or ter
Ġpur pose
In st
Ġclub s
}( {\
] (
Ġgalax y
al ities
Ġn am
ĠJew ish
Ġex change
Ġlin k
as y
ĠFrancis co
il ation
ĠB al
p o
ĠSh ow
S M
od er
os oph
ĠU r
Ġdiscuss ion
A pp
Ġb r
ĠT em
C ons
Ġh arm
/ *
F e
Ġsh oot
Ġf oot
Ġacqu ired
ĠC E
ĠWilliam s
\| _{
G L
on ly
Ġgiv ing
ĠB ow
Ġ â
Ġh ockey
ĠCo ast
wh ile
av en
c ript
n ect
Ġn ative
p icture
st art
ent y
Brit ish
\ _
Ġass igned
Ġparent s
el d
Ġcirc le
pos es
Ġse ctions
f it
Ġ eth
ĠB oston
Ġex ternal
ĠW ork
Ġseg ment
Ġfore ign
P lay
195 1
S D
ott ed
urb an
Ġre comm
Ġinc ome
Ġw a
Ġ Å
Ġmet al
ĠD et
Ġcover ed
eth ing
\ {\
Ġent ry
Ġst ore
Ġbelie ved
ĠPr ince
ĠC y
ran ce
D on
' ;
E M
oc cer
art ers
15 0
Ġhyp ot
g t
ab eth
Ġ ]
Ġs ister
Ġan sw
ĠG ar
=" ../../../../
Ġnear by
h bar
Ġs qu
" "
ĠThe atre
Ġoffic ers
Requ est
Ġdep th
ig ation
in ner
[ ]
Ġbe am
Ġ$ $
t es
Ġpro ceed
Ġcy cle
ap ache
Ġdiv ided
() )
Ġopt ions
Ġmass es
Ġg rid
ĠH or
A ct
Ġobser ve
00 00
' (
i Äĩ
Ġdiscover ed
ĠE astern
U N
Ġo scill
ĠBl ue
Å Ĥ
m ethod
Ġcont est
Ġpro gress
ind ing
S ize
S ervice
ograph ic
tik z
Ġ} );
y er
Ġsy nt
on to
S R
Ġfe at
c d
ĠP re
1 000
ĠH ung
c s
Ġ/ >
ch ar
ĠOx ford
Ġeffic ient
sec ut
f aces
Ġperson nel
Ġst rict
av el
ĠW ay
ol t
Ġo ption
Ġc ouncil
plic ation
por ation
ĠD ec
) +\
Ġturn ed
ĠG ood
Ġdifferent ial
h u
B ut
Ġb rand
Ġp ain
Ġinter val
Ġsu c
Ġhel ped
Ġf le
ĠPol ish
ĠPro gram
ĠR ay
Ġro ot
s uch
ĠScott ish
Ġprofess or
Ġpro port
Ġres on
Ġv ote
form s
C A
Ġv ectors
{ {
ĠSt an
sy stem
Ġm useum
m ass
ĠB ang
ag raph
bre ak
Ġindic ates
193 6
p ass
Ġg overn
Ġ util
Ġsc ene
Ġconduct ed
und red
ĠL ang
ĠColumb ia
l ict
Ġmagn itude
Ġlang uages
Ġlo op
ri e
il ing
Wh ile
ric ts
b uild
Ġnuc lear
a fter
Ġfam ous
h box
ĠHe ad
b ottom
il er
ĠL ater
ĠE gypt
Ġsatisf y
Ġdiffer ences
Ġc opy
Ġaltern ative
Ġor th
Ġcompet ed
it age
ribut es
Ġgener ate
ĠJ r
) -\
Ġorgan izations
Ã £
un a
act er
ĠG et
ĠJ ean
ion e
str ong
ĠIs lam
Ġsuc ceed
Ġr isk
Ġup d
Ġmod ule
ĠV an
n i
b ed
G C
ĠCor ps
e z
Ġ$ |\
l ines
Ġconver gence
Ġ ensure
Ġb inary
Ġoffer ed
ĠS and
Ġax is
Ġneighbor hood
te en
ĠS pe
ĠM iddle
ĠT re
ĠChar l
Ġmov ie
ĠLat in
Ġde ad
Ġnot ation
s en
Ġle aves
Ġc ities
Ġes c
ĠF ar
pos ite
ĠDe v
Ġc ricket
pro cess
d y
) }_{
Ġprov iding
ac ing
Ġindic ate
ĠP op
Ġse ctor
Ġproject s
Ġdetail ed
Ġquick ly
Ġe mp
ĠC ard
on ical
19 18
b ot
Ġphys ics
st one
1 20
&= &
Ġamplit ude
Ġas ked
Ġe arned
Ġreg ional
ĠC reek
ĠM any
L a
ul f
ĠC r
ã ģ
cl os
Ġhe art
ound s
Ġmin imal
ran e
d ney
ĠM id
Ġpart ies
Ġappear ances
Ġsuggest ed
Ġbehav i
c ong
we b
pect ed
ad ow
Ã¡ n
as ure
emb le
Ġf air
Ġdem and
} }$.
ĠBro ad
Ġl um
m iss
} )$,
ĠL ag
" ),
ild ren
t an
Ġro ugh
193 8
m ma
ul pt
A rt
Ġs ociety
ra wn
Ġb ridge
Ġg ap
Ġobserv ation
E l
t wo
ĠE nd
ĠBer lin
} }$,
ĠEn ter
) },
ĠSen ate
ĠSt ation
Ġcomp are
mod ule
ĠĠĠĠĠĠĠĠ ĠĠĠĠĠĠ
p arent
Ġ rang
Ġacc ur
Ġfor t
C he
Ġwid ely
Ġdec la
th ur
ib r
or i
Ġcom ing
Ġindu ced
op ic
Ġcalcul ations
il ly
Ġcommon ly
H and
~~ ~~
eng er
Ġeas tern
a ug
Ġop port
ĠV i
Ġref lect
Ġ$ {
ell er
ĠH ong
at ically
C E
Ġcit iz
b as
ĠSecret ary
Ġanal og
| _{
Ġext rem
Ġb ad
C ur
writ er
ĠM ov
ze ch
M e
E nt
com ple
Ġreve aled
olog ist
Ġcre w
Ġprim arily
amet ers
C ode
Ġorgan ized
Ġact ing
op en
Ġepis odes
che ster
al so
C ount
ch ang
am in
Ġredu ction
Ġmed ian
Ġp seud
Ġres ist
tern et
}{ |
is con
ĠSe a
Ġs ays
Ġ( !
ĠDe velopment
ĠB a
Ġh op
Ġact ual
p a
M on
g ies
eder ation
Ġy outh
G u
D ist
S L
ĠO k
Ġw all
Ġ ener
R el
IN G
ĠâĢ ĺ
Ġide al
Ġpl ans
}{ (
ut enant
ĠN ight
Ġlaw s
Ġtheore tical
Ġconf lict
A c
ig er
T rack
B ox
ĠB u
ĠA v
ur ies
Ġfe el
$ ),
M R
Ġcele br
D em
m c
Ġprob ably
f inal
Ġdr ug
is er
Ġdeg rees
Ġident ify
ve ctor
Ġreg ister
Ġgo es
ĠF inally
m ad
ĠAlex ander
l ers
. âĢĿ
Ġtro ops
ro vers
ul er
ic ine
ĠKore a
ĠPro ject
Ġphen omen
ĠSpec ial
Ġmark ed
Ġtechn ique
ĠG ame
ograp her
}$ )
193 7
ĠWil son
t ure
ogene ous
Ġtransfer red
Ġlet ter
ĠAr gent
Ġh ospital
Ġdev ice
Ġa wards
Ġcalc ulation
am ber
Ġconfir med
Ġpart ial
ĠVictor ia
) )$
Int roduction
Ġ/ *
r ong
bl ue
Ġass ign
Ġcompos ition
Ġfif th
Ġto ld
Ġfund amental
itz er
Ġexp atriate
c at
Ġhous es
ĠC at
Ġst ories
Ġh ole
Un iversity
ã ĥ
It em
" |
&.&. &.&.
S ection
Ġsay ing
wh ite
Ar ray
rop ical
m es
ĠFurther more
ĠP en
M usic
Ġflu ct
Ġa st
Ġres ources
Ġr ise
[ (
cher s
ĠS i
as er
an ta
Ġconstit u
ĠK en
ut ation
ĠM ot
I F
Aust ral
Ġact s
g ers
ĠOlymp ic
ĠF ollowing
Ġprom oted
Ġbase ball
Ġgraph s
Ġsus p
D P
I A
Ġachie ve
Ġconclud e
Ġch annels
ĠJ ackson
st ract
D es
Ġsecond ary
Ġjo in
Ġang ular
c ular
mult i
ĠW ild
y o
enn es
ĠH ome
if ies
Ġse ems
ĠD ar
Ġcapt ured
ruct ure
Ġt asks
ĠB i
Ġscal es
def ault
u ated
Ġpre p
in du
Ġd raft
b ec
L og
Ġwant ed
S ec
inf o
c ref
Ġtherm al
Ġsur vey
ĠPol ice
p ress
i ated
Ġn arrow
ĠB ir
om er
Ġdimens ions
Ġfav or
ĠIs lands
ĠS u
ĠE st
Ġabs ol
G eneral
R A
Ġth r
nt ario
am i
H T
ĠL im
ĠN etwork
per or
Ġh ar
Ġprogram ming
Ġprov ince
ĠB BC
od ed
C S
ab il
Ġex cit
ĠJ es
Ġclust ers
Ġwork ers
ĠW ater
en ess
D isc
op her
v ol
Ġmanag ed
ĠAnd rew
s he
193 5
Ex t
Ġb it
il bert
Ġpart ition
Ġinst r
ĠV iet
ĠL ittle
Ġal leg
ort he
Ġo il
Ġl ives
Ġv oice
******** ********
ĠA sh
Ġapprop riate
Ġvers ions
Ġmater ials
Ġm arriage
Ġallow ing
ĠF our
Ġex c
Ġiss ued
uff er
S o
ph ia
Ġw ays
ether lands
erv ative
d l
Ġlay ers
z h
Ġcult ural
ĠReg iment
Ġor bit
20 23
Ġf ellow
cc cc
Ġse em
Ġfre edom
ĠTechn ology
Ġfri ends
ĠB uild
C or
Ġs al
n um
h ol
Ġcle arly
val id
L T
Ġmod ified
Ġcon j
ĠIn st
iz abeth
def ine
) }}
u ous
The refore
Ã£ o
arri er
O P
O per
Ġf irm
w eg
Ġ ion
ĠH ospital
ash ion
Ġassoci ation
Ġded icated
ĠSy dney
D A
ĠC a
p ost
Ġoper ating
ad ian
d at
ph as
L em
im age
he t
L ine
Ġinf inite
Ass ociation
Ġpred iction
Ġeffort s
ĠSt and
- $
P olit
ron ze
Ġatta cks
Ġinstr ument
Ġwin ner
Ġc a
> &
st atic
19 19
us es
Ġdepend ing
ĠPl an
ĠMin istry
ĠCol or
c ut
iam ond
Ġmass ive
ec ution
Ġprincip al
Ġshow ing
Ġwhere as
ĠB ell
ru ck
flo or
Ġlim its
Ġexecut ive
ĠÂ £
Ġint ended
Ġbound s
19 14
ĉĉ Ċ
Person al
an th
ck nowled
Ġwh y
big l
ass ert
ĠA tt
Ġsh ared
ic ed
ĠMod el
al ysis
z o
Ġc m
Ġsc hed
ust er
Ġnewsp aper
y les
adel phia
W orld
Ġpromin ent
ect ive
ĠKore an
ĠL o
Ġimplement ation
p resent
omet ric
: }
ĠDan iel
ĠT aylor
ĠC orn
Ä į
f ound
uck y
Ġdig ital
Ġrot ation
re ct
ĠJ er
es tab
$ {\
d b
ĠS und
t x
Ġdescrib es
Ġs pl
Ġcon d
Ġassist ant
Ġart icles
Ġfunction al
Ġra re
i ate
bour ne
P re
Ġcre ation
ĠOffic ial
Ġfeat uring
Ġterm in
k h
Ġp p
Ġo dd
n ic
Ġl ibrary
Ġchem ical
ĠB and
Ġqu e
od ies
ĠS om
Ġcomplex ity
ed ia
Ġband s
ins on
Ġalong side
Ġgrad ient
ev en
com ing
Ġarr ived
Ġp ra
ateg ory
Ġt rib
st able
ĠComm on
ĠB oy
olog ies
l ig
Ġgeomet ry
,\ ,\
Ġk ernel
Ġunder stand
ĠĠĠĠĠĠĠĠĠĠĠĠĠĠĠĠ Ġ
Ġinter face
ĠP ubl
Ġs ides
193 3
d frac
ĠPri ze
" ).
Ġrepresent ing
Ġsold iers
Ġcon vex
c ar
D B
j ava
V ID
Ġord ers
cre ate
Ġcandid ates
form al
ak i
Ġgradu ated
Ġres idents
Ġaccept ed
Ġcharacter istic
se cond
Ġc ov
ĠA ff
al ion
= '
yn c
II I
Ġtest ing
od d
ĠS ant
ĠR aj
big r
ĠB rig
ĠReg ion
Ġcommunic ation
ĠO ntario
b al
ran k
Ġemploy ed
M essage
ĠO s
ra ine
W ill
Ġs rc
Ġprincip le
C L
Ġtri al
Ġtra ffic
ĠP oint
Ġgu arant
19 29
ont al
Ġtre es
em y
' .
( {
b el
Ġimpro ved
Ġoptim ization
tain er
Ġw or
M ethod
Ġneut r
Ġden oted
ĠL es
F inally
M in
oc ated
Ġloc ations
Ġtra ject
% )
Ġp urs
ĠQue ens
S A
Ġimport ance
19 17
Ġsil ver
ĠE p
ĠL ight
Ġl ie
19 28
Ġmat hemat
M B
orn ing
Ġlarg ely
Ġdecom position
Ġf ine
193 4
ĠR ome
art s
Ġpart ners
ĠO p
Ġhon or
P A
ul i
ĠK enn
ĠPr ime
Ġwe b
Ġl ot
ĠB att
ĠPh ys
here nt
er c
V D
ĠSc iences
Ġcoeffic ient
or ig
Ġ[ \
Ġuncertaint y
ak h
Ġs port
Ã ¸
w ater
Ġsub t
Ġle mma
Ġcomput ational
Ġsum mar
ĠTh ree
ĠJust ice
less sim
S ing
Ġa thlet
\ )
dis c
Ġ ign
ĠW in
Ġrece ive
Ġdou b
ĠJ eff
Ġanc ient
ĠJ oe
r s
Ġb omb
medi ate
Ġcomput ation
ĠR un
u um
Man ager
Ġj ava
ĠAn other
ĠV illa
em an
Ġvari ation
ĠU sing
s ign
Ġmed ium
lement ary
AT E
Ġs ail
ĠB ab
f ri
Ġf lag
Ġscal ing
res ults
Ġext ends
p g
form ed
Ġb in
Ġhe at
se y
ac ent
Ġ ^{
Ġex ception
ĠB on
con text
Ġunder standing
Ġeffic iency
Ġpr iv
Ã© e
it ivity
Ġloc ally
Ġacadem ic
$ :
se ct
Ġexpon ential
Ġvert ical
em et
Ġadminist rative
ult ane
Ġth ings
193 2
S ong
Ġt ail
Ġsc ulpt
Ġshe ll
n ext
ĠR a
Ġp it
cont ent
for ward
19 10
ĠS ports
Ġ\ &
includ e
ĠSup reme
Ġdis crete
Ġsubsequ ent
pos s
Ġfig ures
n umber
Ġinvol ving
Ġv en
ĠR og
Ġcoordin ate
Ġren amed
Ġin h
Ġpie ce
======== ========
os a
ĠA st
Ġup date
ke e
Ġ era
m itted
Ġapp arent
Ġp ix
ĠCor poration
c ss
Ġdise ase
iscon sin
Ġto uch
che stra
ĠMc C
Ġconsider ing
ĠF ederal
Ġle tt
per ties
ĠA venue
Ġnot able
$ _{
Ġlist ing
Ġis ol
Ġtw ice
Ġel imin
ĠH uman
Ġprot ected
\ ;
ĠE conom
Ġcou ple
ro om
Ġoff ers
ject ed
P P
a a
Ġsc ript
o or
ĠT ok
Ġadminist ration
Ġperform ing
M en
olit an
Ġc ool
Ġsom ething
Ġco inc
Ġdel ay
Ġown ers
qu arters
00 000
ĠAir port
Ġtrans lation
P ol
ĠMus lim
Ġmultip lic
Ġwin ners
Ġlab or
ĠJ on
ĠN etherlands
ith ub
C R
ĠSe e
^* $
Ġus ual
Ġper fect
Ġnam ely
ĠN ations
ĠL uc
d ev
U sing
x x
Ġent ropy
Ġinst all
I L
Ġ ut
Ġpro pos
Ġr ugby
not es
Ġ$ .
per ial
C ast
ĠR od
19 00
ors hip
Ġm ill
Ġrad iation
ĠAnt on
it o
Ġcapt ure
S outh
hed ral
Ġit em
ve e
f ont
] $.
\ }$.
19 24
] }
Ġexpand ed
D is
Ġn ation
act ory
ĠM arg
he tic
u v
Ġmusic ians
p y
b ro
Ġpl anned
Ġequ ilibrium
ĠTor onto
Ġsuggest s
Ġh undred
ĠM ic
ĉĉĉĉ ĉĉ
w ing
eg er
Ġal one
H E
ĠRev olution
}\ ,\
Ġbl ocks
Ġreturn s
ĠMin nes
Ġreview s
: =
ĠP ower
Ġadvan tage
ynam ic
ĠSt adium
Ġrem ark
Ġ} ;
Ġf erm
Ġass ess
ĠSwed ish
f ort
row s
ĠGu ard
j oint
Ġs la
Ġplan et
ĠA thlet
Ġmin ister
Ġoccur red
ĠMinnes ota
emet ery
Ġinteg ration
ĠL ew
Ġstat istical
ĠJac ob
ĠUS A
Ġrac es
ĠProfess or
m i
B ase
ap pe
193 1
B iography
ĠR en
Ġparticip ated
Ġenc ou
ĠV en
di ag
F R
ĠMed al
c alled
pp ed
og en
Y ou
Ġpro jection
}} _{\
Sy stem
Ġrepresent ations
ĠN C
Ġconsequ ence
Ġem phas
T S
le ad
Ġpr ime
ian g
Ġoffic ially
Ġgrav it
Ġcharg ed
ĠCamb ridge
Ġd oc
Ġtechn ical
y es
Ġconsist ing
Ġwe ap
Ġt al
Ġal t
t frac
ĠF er
Ġro les
Ġ ..
Ġacc eler
Ġcalcul ate
li ent
g r
isl ative
}} )
ĠEl izabeth
,\ \
G erman
Ġpar ish
ĠG ro
Ġst ress
; &
names pace
Ġsol o
ath an
ĠM ain
19 22
he im
erv ices
ur i
N ext
ĠA k
ĠB ad
1 10
Ġequip ment
Ġengine ering
Ġeval uation
Ġ\ ]
Ġw ing
, {\
so ft
Ġflo or
h ard
Ġs urn
ask a
19 27
h r
Ġfac ilities
Ġinc ident
M ay
sc he
Ġm is
A ut
ow a
ev ent
d f
d ir
Ġr ural
uss ion
Ġqu ery
Ġb right
t i
Ġ{ $
ur er
se x
ĠT ai
In ternational
ef e
H is
] )
ĠPrem ier
Ġsatisf ying
let on
ri p
on ed
ud get
Ġpart ner
ĠSan ta
Ġke pt
Ġsurround ing
ĠFore st
ol is
Ġown er
$ };
D escription
Ġweight s
weg ian
-- -
l an
Ġg r
M D
ã Ĥ
Ġrob ust
F rench
Ġ= ==
Ġcol lected
H L
clus ions
ĠM aster
Ġn il
Ġd ial
ĠPak istan
C re
ĠB ecause
ph ant
Ġst ability
ĠOr gan
ĠMed ia
go ogle
ro g
Ġrepresent ative
ĠSer b
h igh
Ġhtt p
ĠDes pite
ĠComm and
Ġt end
19 21
un it
---------------- ----------------
Ġrec all
Ġserv es
Ġch ampion
Ġl y
Al though
Ġgrow ing
Ġsub group
Ġdestroy ed
ĠDu ke
cal e
ust ain
Ġre asons
s pe
ĠS quad
p ackage
Ġestim ation
ellig ence
Ġmot or
Ġexpla ined
eg o
O lymp
m osp
Ä ±
v ature
Ġsol ve
ĠComm unity
go ing
à ¸
ĠD ata
19 25
d oc
Back ground
Ġcon vent
Ġcont rovers
Ġop posite
Ġspec ified
ost er
Ġis omorphism
] $,
Ġmix ing
H S
def ined
bold math
Ġarg uments
it led
Ġhousehold s
}[ \
t w
ĠS her
ur ches
F I
Ġg rew
os is
ĠD er
ma il
ĠPe ak
ron ic
Ġscen ario
ĠM ike
Ġv otes
Ġagre ed
v o
Ġd iver
Ġb os
p lace
ĠBus iness
are n
j an
ĠB ol
ĠB ridge
Ġsufficient ly
Ġst reet
ĠS ab
ast y
ĠPhil adelphia
g ithub
Ġfind ing
ĠK al
p ool
reg on
est ic
ĠStep hen
id el
ĠS us
ĠC as
ĠC ub
Ġres ource
Ġtest s
Ġcon ference
, $
i em
ĠW isconsin
19 12
ĠB rad
Ġab und
ys et
d el
bra ce
Ġt alk
amb ig
ĠA D
Ġp erman
ner gy
pro t
Ġp al
C al
ĠR oute
z en
Ġadd ing
Ġnew ly
Ġag ric
U LL
ang a
f alse
im ately
Ġpredict ed
19 26
R em
Ġit ems
ĠB la
Ã º
Ġpl ants
Ġtit les
Ġext end
ly n
y al
Ġhost ed
Ġatt end
ĠF air
Ġp et
U E
roll er
ch a
s at
Ġsw itch
ĠStud ies
Ġthe ories
ĠO t
au x
T C
}) }
Ġbeg ins
ĠG er
Ġcan cer
19 23
if ts
ĠL ady
Ġhe av
e lement
Ġdatas ets
Ġinterest ed
S ource
Ġsu itable
ap ore
Ġvis it
Ġrem ove
outhe ast
Ġd ance
h ing
script style
ĠH un
long rightarrow
al gorithm
Ġinstit utions
A wards
n ull
] {\
Ġperform ances
U ser
i ota
Ġdefe at
Ġre ports
ig ration
Ġp sych
ĠL og
Ġquest ions
ĠT y
Ġf rag
od ay
ĠU N
$ &
s ort
Ġhigh light
Ġsp irit
Ġp ull
f unc
ĠK ir
Ġir re
Ġdimens ional
i ative
Ġrecogn ition
) )\
at on
Ġth ous
H ead
Ġdam age
25 0
ra ge
Ġlum inos
W omen
Ġinsp ired
du le
Ġg irl
yp es
Ġc ert
l ash
B B
Ġresult ed
ĠB ishop
ĠM un
) </
Ġser ious
al ing
Ġener gies
âĢ ľ
Ġend s
Ġmedal ists
F ollowing
ĠH o
Ġ_ _
Ġtown s
Ġre ally
ps on
U s
f old
ĠH an
Ġspe ak
b rid
ĠT ype
Ġinv erse
it ness
Ġcon ven
Ġphot on
igh th
ĠRe view
Olymp ic
l iving
ens ions
empt yset
con f
Ġcre ating
Ġgain ed
ĠSwed en
Ġbul k
Ġn one
Ã ¢
ĠC zech
agn etic
Ġp icture
ann a
Ġim ag
Ġ ^
Ġm apping
ĠAl f
Ġstart s
ar se
ĠI V
ĠP ass
) }_
Ġc ars
ig ger
ra q
Ġhistor ic
> (
ĠAn th
ĠK im
fin ished
rit ical
ĠInd ust
D R
Ġm ind
Ġout er
al gebra
st ep
pect ive
a is
in ations
Ġvirt ual
Ġg ets
Ġj et
ier arch
Ġdecla red
w orth
ĠW alk
ĠC irc
19 15
ĠW inter
R ight
math op
Ġcompos er
c i
m ers
omet ry
Ġp rice
Ġe q
Ġcollab or
ĠH ay
M et
Ġsub stant
v art
ĠTown ship
k ish
Ġpower ful
Ġfem ales
19 16
N ov
Ġw aves
Ġcontin ues
Ġnov els
Ġexplicit ly
Ġ Î
S ome
ĠMed ical
ĠS M
Ġderiv ative
ĠD am
T H
ĠT al
ĠCap tain
ens is
}} .
ĠS uch
ĠA cc
ĠB udd
ĠC P
ru it
rop olitan
Ġcop ies
or gan
Ġsim ultane
Ġp iano
se arch
ap ed
T P
Ġaff ili
}_{ -
IN E
ĠN S
Ġdev ices
Ġaff ected
Ġp owers
ĠCh ris
Ġturn s
lo op
Ġdiag onal
ĠR om
Ġsuccessful ly
ul y
Ġinvestig ation
Ġbe at
R ead
Ġunder lying
) --
Ġrecogn ized
ĠAd dition
Ġterrit ory
Ġapp lying
P o
Ġfind s
Ġt ag
Ġw orth
Ġne ural
Ġfocus ed
Ġcitiz ens
Ġveh icle
Ġro ll
ĠI N
Ġcan onical
ĠW el
Ġregard ing
Ġtit led
z ing
}} }\
are st
Ġfail ure
ĠIndian a
ol i
ol es
w rite
ol ve
A V
ord an
Ġindust rial
T op
w atch
}) ^
are t
;\ ;\
; </
=" ../
ĠApp endix
Ġpe ace
Ġd ust
Ġrese ar
Ġd ens
Ġinters ection
Ġsw im
ĠMar sh
< !--
C all
Ġclaim s
Ġengine er
Ġre ct
Ġw ild
Ġimplement ed
ri ev
e lect
Ġv ess
if act
Ġs ort
Ġsaf ety
Ġdet ected
Ġpurch ased
ouri er
t iny
ĠD un
ĠW ars
#### ####
u ing
Ġ$ ,
Ġqu ark
6 00
Ġlab els
Ġobject ive
Ġhous ing
och astic
Ġcon cer
p at
}) =
Ġb lood
Ġprocess ing
un te
ĠJ oh
Ġintrodu ction
ĠBar on
act ic
anc ing
ill ery
Ġdr ive
Ġpen al
se ason
Ġest ate
Ġob vious
ĠL ind
par agraph
Ġposs ibly
Ġleaders hip
v ari
Ġlaun ch
riz ona
ĠE u
f s
om ot
Ġs ales
rest ling
^{ *
ipl om
Ġtrans mission
ĠGold en
ĠP ers
E X
P ort
Ġconst ants
B ibliography
Ġveh icles
Ġport ion
ĠG ree
ĠInd ones
osoph y
$ {
Ġdes ired
Ġinter ior
][ ]{
ut ing
Ġcer em
Can adian
indow s
ennes see
ur ations
ĠCon f
Ġfin ish
ut t
D ate
Ġran ked
lap se
Ġbelie ve
Ġrad ial
ĠA li
W rit
Pro perty
ĠMex ican
ĠWe b
M ax
G N
set s
Ġco al
p ur
Sports people
Ġind eed
Ġde ploy
ĠD isc
cis ely
ĠF I
ut ed
Ġpat ients
Ġelectron ic
pon ents
19 13
Ġpar liament
y ard
ĠOr ig
pt o
Ġcr ime
enn a
Ġmax imal
Ġ\ (\
ĠB h
Ġrefer ences
p op
ĠH art
ĠM ilitary
Ġscient ific
Ġt ells
ĠW at
con n
Ġcle an
Ġref ers
E v
O L
Ġb ond
per iment
Ġtop ological
Ġinvestig ate
ĠMar ia
Ġdo ing
z z
ict ures
Ġsequ ences
ĠO regon
}$ }
Ġbrief ly
ar r
M at
sequ ently
Ġpol ic
Ġrepe ated
um es
ent ry
Ġpattern s
is a
E L
ang ular
Ġsup erv
ĠS em
D M
ĠBe ach
ĠK ansas
Ġf iction
+ (
ĠF ox
ĠĠĠĠĠĠĠĠĠĠĠĠĠĠĠĠ ĠĠĠĠĠĠĠĠĠĠĠĠĠĠĠ
Ġcomp lic
ĠA h
Ġtr ivial
p et
Ġfound er
Ġspec ifically
P oint
rop ic
ĠF ire
c all
ĠCO VID
Ġst one
ĠPr im
Ġsol ar
ĠI R
Ġadj acent
Ġc atch
Ġ urban
ĠM ember
app ed
ĠF inal
ĠK el
Ġassum ptions
p ower
Ġsex ual
Pop ulated
Ġn et
t arget
Ġf elt
Ġp ref
Ġag greg
Ġab and
Ġfac ulty
/ (
F M
Ġag ents
Ġcont rad
ĠM ethod
Ġst d
sh ow
}} ^{\
ord on
Ġclos ely
Ġevalu ate
ĠAr thur
ĠW hat
secut ive
b en
Ġh abit
Ġre action
Ġmot iv
un ch
Ġresp ond
ĠMiss ouri
ĠN az
j oy
Ġt urb
sc ape
Ġcorn er
p es
Ġbi as
up s
Ġc overs
Ġand roid
ĠA R
ĠM unicip
ĠS on
ĠM oh
Ġ }{
Ġsuff ered
er ior
Ġadvan ced
ĠCol on
Ġtemper atures
Ġcap tain
Ġb ill
it ative
ĠG L
Ġb ow
Ġint ensity
l ife
g eneral
Ge ography
Ġabsol ute
Ġquad r
H ar
br as
ĠRepresent atives
est ed
Ġquant ities
d ependent
S ty
Ġfrequ ently
Ġder ive
ism s
in var
mod els
ĠEngine ering
int on
Ġexpla in
Ġnot es
Ġpolit ics
( [
Ġoffic ials
Ġindic ated
ĠM ill
Ġtr ust
H el
par ameter
Ġres ident
Ġport ray
on ym
Ġdocument ary
Ġcont emporary
c ard
H ence
ĠG h
og s
ĠComm un
ĠĠĠĠĠĠĠĠ Ċ
Ġasympt otic
Ġposs ibility
ad i
ĠTur key
Ġnon linear
b at
Pro of
M y
Ð º
ĠT ro
ik a
ĠWe ek
B l
pt ic
v ard
ĠH and
ĠAd minist
Ġb oy
ĠH ard
D ec
Ġz one
Ġcl ient
\ }\
qu ery
Ġem pty
Ġth in
d ep
Ġcol le
ĠInd eed
vent h
ĠE s
Ġsc oring
Ġm anner
Ġpass ing
Ġto ward
ĠR on
Ġident ical
ĠAtl antic
B M
qu es
ast ers
Ġvict im
Ġear th
ma ke
w estern
ĠHigh way
et al
math it
Ġdist ricts
osc ow
| }{
Ġspe ech
Ġvis ible
ĠB ru
ĠSur vey
Ġtri ed
ĠDav is
Ġbehavi our
and roid
id ge
Ġse ats
P ublic
Ð »
Ġgrant ed
In put
an es
ĠL ore
bm atrix
sl ant
E m
ĠHig gs
Ġp aid
Ġrec ip
Ġthem e
Ġat mosp
19 11
Ġattempt s
ell o
Ġb ran
flo at
Ġn av
Ġcateg ories
Ġaccur ate
Ġstr ugg
Ġcomm ittee
Res ult
iss on
T ax
ĠG allery
Ġcharg es
ĠLe ad
rom e
ĠBro ok
if er
av ed
Ġsepar ated
Ġcontroll ed
ĠSte ve
ÃŃ a
ĠPhilipp ines
ĠCount ry
Ġembedd ing
ĠF ree
form ance
ic ian
er ies
L ay
ro sc
Ġm iles
column width
form er
ĠCast le
Ġgeneral ized
h aps
ues e
Ġ( {\
ĠDes ign
Ġtre nd
Ġpre par
ĠSt at
he ta
pl ane
Ġf ish
ig rants
cond ition
Ġsatisf ied
Ġlow est
Ġsom ew
ĠG re
EN T
id i
ĠB all
Ġext ensive
Ġsup ply
Ġle arned
Ġre lax
Ġcomput ing
Ġbro ken
Ġc art
Ġpredict ions
P os
yn asty
= .
J apan
S um
ĠS T
Ġsp ac
inc ial
s em
we et
ud i
we alth
ch ron
190 8
ffic ial
S ources
I mage
Ġar c
D S
ge bras
ĠM P
v ements
ĠP y
Ġconc ert
Ġjournal ist
Se cond
ĠL ive
Ġcry st
Ġto ol
Ġred shift
ag a
O ff
ĠF ederation
Ã¼ r
R un
Ġsampl ing
s i
Ġret ire
ĠD own
Ġcl imate
ic ular
Ġg ar
su ccess
Ġcur vature
j av
med skip
Ġide as
Ġdynam ic
C M
Ġm ess
ĠO cean
ĠP ier
ĠColor ado
Ġconvert ed
b u
Ġexpl o
l ast
Ġs ession
ĠP it
Ġl iber
h or
en ame
ĠV o
} ~
iffer ent
clus ive
Ġcall s
Ġb undle
Ġpublic ation
ist ent
Ġarm s
Ġl osing
ne ctions
Ġl iqu
ĠA rea
Ġflow s
T wo
[ -
ĠD ig
Ġmatch ing
Ġf ell
ĠMan agement
f ef
cy cl
ing ham
ĠE ll
Ġr ig
ĠS lov
f i
Ġf ashion
Ġyoung er
ĠNor way
ta il
ist ed
Ġb ra
Ġsch olar
Ġc ab
d iff
ĠLab or
out s
ĠT ennessee
tikz picture
r Ã©
Ġhypot hesis
ĠMary land
ĠJ unior
Ġfac ility
Ġcomp at
Ġmarg in
N umber
Ġinteg rated
ra ined
Ġsp ring
Ġrough ly
ra it
Ġar ts
Ġdynam ical
all ow
p res
Ġpaint ing
arian ts
\ }$,
e en
Ġd rawn
D i
Build er
Ġrequire ments
Ġsp ons
i Ã³n
Ġflu id
ĠMel bourne
Ġmax im
^{ (\
ĠD ue
ĠR ead
at iv
ear s
Ġdef end
ĠBase ball
Ġvilla ges
Ġy ellow
Ġcon secutive
ou st
ĠSing apore
Ġprote ction
and ra
Ġb ronze
ĠCom put
Ġm ac
Lem ma
Ġg overnor
ĠY our
m ember
Ġadv ance
ĠUk raine
Ġf ib
Ġ rom
Ġcamp us
ap es
Ġen h
Ġinter act
ĠJew s
k ov
ĠB an
in er
ĠI raq
C lient
Ġcomp ris
Ġrest aur
ĠGe V
H C
Ġme ant
ĠT a
ject ive
Ġtra ce
eli hood
R ed
Cons ider
Ġpre cisely
Ġpl anning
Ġgrav ity
et ies
Ġch airman
erv es
ĠSh ort
g ar
ĠG ener
ĠLe on
ĠH al
ĠV is
Ġnomin ated
ĠPol it
ent ed
Ġdr iving
Res ponse
} |\
opt ions
ch or
Ġsign als
Ġbur ied
C ell
ict ional
Ġdr iver
Ġsh op
ĠTr ust
and y
Ġaut o
ĠB ack
ĠF amily
Ġeduc ated
Over ride
f lu
la in
Qu ery
reg ular
the less
ut her
Ġstar ring
ord ers
ambig uation
in ction
Ġcharacter istics
ou pl
ĠBo oks
la c
ĠB et
oth ing
B L
Ġnot ice
Ġauthor ities
g est
Ġpl us
Ġd aily
ĠN a
Ġsub s
}} =
W est
Austral ian
G iven
point s
pl ot
ĠIn it
Â °
Ġv ice
ĠS av
og ether
ĠE ven
ph y
ĠOn ly
De ath
ĠSquad ron
ap el
Ġsat ell
ĠF ellow
ER T
ĠR eturn
ĠAnd erson
ĠSt r
ĠSpr ing
ĠM as
b ell
Ġdesign ated
Cur rent
par ison
Ġin fer
Ġsur pr
Ġto ols
Ġmagn et
o is
Ġt aught
r ins
Ġdef in
ers et
Ġposs ess
at in
Ġapproxim ate
ĠR oss
Ġun able
int eg
Ġqu asi
Ġp ool
G R
ĠLew is
S che
g al
Ġsum mary
Ġst orage
8 00
Ġcaus es
ĠSt ock
C ent
Ġcr im
le ep
small skip
ĠMem orial
hen s
ĠM oscow
Ġcam era
Ġb ool
Ġaspect s
Ġtra ins
off s
Ġm es
10 1
os es
Ġpath s
ĠM ir
Ġst ock
Ġr ational
es ian
m n
ad s
ĠK a
ĠFred er
ul se
Sup pose
Ġtri p
f a
ens ed
ĠD or
Ġview s
orthe ast
Ġc atal
Ġlett ers
ĠA rizona
Ġlook ing
ĠĠĠĠĠĠĠĠ ĠĠĠĠĊ
ant ly
iv als
Ġdepend ent
ĠH ur
) })
Ġgl ass
Ġoccup ied
ĠA z
Ġthe atre
Ġ iron
et ch
ĠBro ther
Ġsc ope
Ġinj ury
low er
sub sec
Ġacc ident
Ġabs ence
script size
Ġinterpret ation
Ġn or
iss ip
Ġunivers al
op es
ou red
ou ble
st an
rain ian
Ġpur poses
ĠN orm
ĠK han
Ġdeterm in
c lear
Ġcover age
d on
St ream
ĠMal ays
18 0
X i
Ġy ards
fef efe
ĠG i
G ener
Å «
Ġre ar
itzer land
fig ures
Ġ( ;
Ġro yal
ĠQueens land
Ġcl oud
ĠIn formation
.. .,
Ġf iles
Ġto wer
Ġcorre ctions
ĠA mb
N av
Ġtw enty
ĠH ou
Ġex clud
Ġreturn ing
Ġh idden
Ġbe aut
ĠPhil ip
Ġsh ock
Ġprem ier
Ġop posed
Ġ- >
includ ing
ĠS l
un finished
ĠSec urity
Ġind ependence
> \
Ġv ariance
Ġpro pose
ic ip
Ġfluct uations
Ġluminos ity
12 5
z ed
Ġb illion
Ġvers us
Ġte aching
Ġesc ape
Will iam
P L
Ġrece iving
Ġinter mediate
St art
Ġsc hem
Ġh all
ym n
Ġadj ust
Ġcon clusion
Ġneut ral
Ġhand s
ĠT el
vart heta
ĠS at
Ġentire ly
ĠC ab
B el
og onal
Ġcharacter ized
L i
Ġw alls
Ġ( ,
Ġeigen values
u y
iction ary
R uss
Ġgravit ational
ĠAd am
ant on
Ġequ ality
Ġ ,\
r ine
Ġrac ing
Ġperturb ation
ĠFore ign
Ġp apers
Ġend ing
ĠJ os
R ail
pro perty
Ġextrem ely
Ġser ver
Ġsecond s
Ġp ages
a uthor
& =\
or ney
Ġb or
ĠM it
ĠAff airs
B est
ĠAr k
Ġad vert
Ġpie ces
ot al
Ġformer ly
Ġdrum s
form ing
ĠU s
D av
ĠW rit
d irect
Ġarrest ed
s g
m t
Ġgener ic
ĠB ah
N on
Ġelect ro
Ġproport ional
Ġlo an
Ġb urn
Ġconn ect
Ġcomm ander
Ġdo ctor
Ġadapt ed
am m
pp ing
col n
pro v
ud io
R ad
cl ient
un es
F unction
ĠN one
ĠViet nam
Ġm ales
Ġdrop ped
Ġvac uum
Te levision
Ġvis ited
ĠSe ver
Con st
ta ck
Ġcolumn s
T ra
Ġchang ing
Ġchall enge
ĠAust ria
ĠInf antry
ens es
eng ths
Ġquant ity
Ġcost s
Ġv ir
Ġd x
Ġansw er
: =\
Ġcover ing
ĠM iller
Ġw ins
ik i
l ib
N C
v s
ĠG ib
ĠAd d
f rame
Ġd ie
Ġenvironment al
Ġsucceed ed
Ġent ries
Pro v
Ġf ans
ymmet ric
Ġv anish
ic ation
Ġf il
Ġden se
ĠN Y
Ġte le
rac ks
Ġcirc um
Ġop position
ĠEnter tainment
Ġsim plic
d esc
ĉĉĉĉ ĉĉĉĉ
Ġnot hing
h op
opt ion
Ġd ashed
multi row
Ġhand le
Ġv ocal
H on
om ents
) ^\
port ed
ly wood
r ating
z on
ir ty
od s
id al
N O
Ġsepar ation
com put
b p
Ġcross ing
Ġcrit ics
ĠM ach
Ġcorre ction
rib ed
eng ers
rang ian
dis ambiguation
ock et
z i
s ince
ĠH op
oc ese
Ġis ot
Ġb udget
Pl ot
Ġult imately
ĠKent ucky
Ġsupport ing
190 5
ĠS ervices
. /
ok es
Ä ĥ
R L
ĠK itt
Ġassum ing
Ġsix th
{ |
Ġs ure
he nt
Ġmole cular
Ġanim als
ĠAl bert
S m
Ġcan cell
^* \
Ġeffect ively
is or
ound ed
o a
ĠS C
Ġco aches
Ġw avel
p ers
ĠCon nect
Ġdec or
.. ..
Ġben ch
~ (\
\% $
Ġdomin ated
add ing
ru ctions
U p
Ġph ases
Ġdevelop ing
190 6
Ġbre aking
ĠS ri
Ġsett ings
H er
ous es
igen ous
equ ations
l arge
ĠG a
ĠL ic
empt y
cl ip
A E
v als
Ġdet ector
Ġcl in
er al
P O
St atus
Ġf estival
ĠCh annel
Ġdisc rim
ic ut
Ġauthor ity
ok ing
190 7
Ġrestrict ed
D o
Ġocc asion
L ife
Ġcirc uit
M ult
Ġcoupl ed
ĠEm peror
h l
Ġjud ge
ecut ive
ĠRe al
olog ists
hom a
Ġle ct
190 9
Ġdomin ant
Ġco oper
ir ical
Ġattempt ed
Ġpolar ization
Ġj ump
Sty le
u j
ug in
ĠZ h
ĠChrist mas
ĠB at
cl ose
Ġdep ict
Ġbu ff
r l
Ġat oms
Ġins ert
$ }}
ĠR oy
ĠGree ce
ot on
Ġaff ect
ĠNor wegian
w ick
gl as
Ġen joy
\ |\
r ations
ant e
d escription
Ġdat abase
Ġhead quarters
ĠS ky
w ich
ĠM ult
tain s
D C
ĠE th
ow ski
ond er
Ġfe et
Ġfight ing
la homa
un s
Ġstand s
ĠTok yo
More over
A nt
ĠEar l
Ġarg ued
neg ative
Ġessential ly
Ġpain ter
ĠMon te
Ġvari ations
Ġd ivers
ĠSim on
Ġtre ated
Ġchart s
Ġsp ot
ris is
inst ein
ĠD omin
Ġperiod ic
Ġtry ing
Ġget ting
Ġn ob
EC T
ĠB alt
Ar ch
Ġst ochastic
Ġgeomet ric
not ag
ĠM icro
Ġcons ervation
so le
Ġk in
ĠT urn
im g
Ġv ide
ĠE P
ĠT an
ĠI owa
189 0
k l
ĠA uthor
16 0
ro it
Ġeconom y
Ġexpress ions
Ġst orm
Ġdecre ase
R eturn
ĠU l
Ġs ustain
Ġsurn ame
Ġs izes
qu ant
Ġconfig urations
ĠL ow
um in
ĠW all
ĠB os
Ġan om
ĠN ap
ĠD C
Ġd a
stack rel
Ġequival ence
lab ama
Ġregard ed
Comm and
ax is
R C
W id
Ġold est
P ost
Ġmay or
Ġr ich
Ġop in
Ġsit uated
ĠC ape
U til
Ġprodu cing
ĠD rag
ful ly
Com ponent
D D
ar ithm
ate ur
Ġgu est
ĠG iven
ĠF ord
ub ble
Ġdis estab
ĠF und
Ġinst alled
ĠHar ry
ph p
M ark
Ġs end
but ton
ad ed
n n
w orld
ĠLem mon
Ġ< <
t ree
ĠG ab
sc ope
D r
se lect
ĠAmerican s
es ter
ĠSund ay
is ot
L ong
el ess
n ie
ill ing
Ġcol our
n ol
ul us
ĠFor ces
ĠC ase
l ie
ĠN ev
Not able
Ġc old
ĠSw itzerland
ĠAm ong
Ġmusic ian
app end
Ġneigh bour
ĠR ose
R S
Ġaud ience
ĠF ame
Ġst ages
A ction
el se
ĠO tt
A g
l ad
Ġ$\ {\
el ve
c over
arg s
Ġb odies
, âĢĿ
iven ess
bum s
ĠI d
cor ollary
Ġmanag ers
( -\
Ġpil ot
ĠT ony
Ġpass es
N orth
ag an
Ġdec ades
ĠC atal
ard o
ubl in
12 8
B O
duc ible
Ch rist
ĠHol y
Ġdoc uments
E uro
Ġdire ctions
ĠĠĠĠĠĠĠĠĠĠĠĠĠĠĠĠĠĠĠĠĠĠĠĠĠĠĠĠĠĠĠĠ ĠĠĠĠĠĠĠĠĠĠĠĠĠĠĠĠĠĠĠĠĠĠĠĠĠĠĠĠĠĠĠĠ
ym ph
w all
Ġnot ion
ure au
Ġelect rons
g reen
Ġrepla cing
Ġsports people
the re
p ack
Ġf lav
ĠG rant
C ase
Ġsup ers
Ġhor se
ĠN on
Ġillust rated
ari os
og ram
Ġexpl an
ĠSta ff
Ġdef ense
la gs
ĠF ront
190 4
ĠTh rough
L ast
Ġsing ers
rel ation
els on
Ġsch ol
d am
Ġprom otion
ĠTrans port
im ation
sh ort
Ġredu ces
G A
ĠBatt alion
ik h
ĠCh ile
F ootball
Ġw atch
Ġd iplom
ĠI D
ma g
ann ot
ON T
hip s
b urn
Ġneutr ino
Ġprodu ces
an ced
w ave
ar o
Ġappro ved
Ġf olk
is en
A f
! \
L C
ject ure
Ġdet ect
G o
phant om
um a
Ġhistor ian
Ġre ality
ĠS el
ĠMod ern
ĠN ick
& &\
ĠâĢ ł
s es
B I
lor a
Ġa ired
ĠMan chester
m ode
ĠW olf
E P
K e
Ġtem ple
ĠJ ordan
Ġdemonstr ated
Ġcomb at
Ġdi agn
ub b
V ol
Ġg ate
@ {
' re
rep resent
Ġabsor ption
backs lash
ic ians
Ġres c
Ġded u
L eg
Ġacc ret
Ġex cess
ĠL td
ra ctions
Ġsett led
ĠBill board
ĠJ ane
E ducation
Ġs ons
ĠT en
her ical
pro duct
r in
sy mmet
ĠL ike
mult ip
li k
ad ata
Ġconsist ed
Ġsim ilarly
Ġcompet itions
Ġl ake
ĠF M
act or
iv a
Ġsched uled
$. }
B lock
ct ors
\! \
ache lor
Ġreach ing
' m
ug u
) "
c raft
ag en
Ġtr uth
Ġanaly tic
Ġre produ
Ġfrequ encies
Ġmet all
Ġprote in
Ġconcent ration
Ġpolic ies
Ġsur faces
Ġmer ged
Ġneg ot
ĠB eng
ĠRep ort
Ġdemonstr ate
R I
in cess
ul ating
aw n
inem a
Ġfund ing
Ġf uel
Ġalgebra ic
Song s
f ind
Ġse ed
ĠE ric
Ġ Ä
B orn
Ġc row
}\ |
par allel
Ġex ceed
ĠSpace watch
ol ished
ĠTe levision
Ġcont ributed
Ġm el
Ġcons ult
. \\
s d
Ġreconst ruction
ĠReg ional
ile y
pd ate
ĠS ound
190 3
ĠArm en
ĠC ost
cl ine
RE F
ul ing
Ġnormal ized
Ġshort ly
ĠN ative
us cript
Ġgu ard
Ġref used
st ood
190 1
ĠE nt
Ã© s
Ġb ought
Ġs ave
P at
Ġ( (
lay er
Ġevalu ated
in th
ĠN ULL
ĠS oc
ĠMag azine
ĠWal ter
im ages
ro ps
ĠF ourier
ĠW ind
ĠW y
Ġun s
uer to
R R
ĠB urn
Ġ( ),
Ġwin ter
ene z
ĠW ell
M ilitary
ĠN ever
ĠB ou
ĠSup pose
ta h
Ġdom estic
ĠTur kish
D ep
ce ived
oy d
ĠP a
Ġv ent
x ml
atur ally
ex pected
Ġal ter
ĠS D
invar iant
ivers ary
ĠK at
Ġpract ical
ĠBuild ing
od ge
Ge V
ob s
Ġform ally
Ġsomew hat
Ġm orning
ĠD a
ev in
Ġbo olean
ĠS ix
ĠIn ternet
Ġ{ };
rast ructure
issip pi
ĠAg ain
Ġperman ent
G M
ĠG reg
w s
pro ject
H igh
Ġm obile
Ġbrother s
T T
Ġhe ro
Ġconj ug
Ġappear ing
R O
00000 1
R ev
ĠG lobal
V ideo
ĠK y
requ est
ĠE nergy
iss ions
ĠEx t
ĠO ak
Ind ian
ĠR ab
Ġhold ing
gh an
ist a
m o
Ġh ierarch
LA SS
Ġdeg ener
Ġresist ance
poss ible
ĠC le
c oh
la h
Cont ent
Ġprof iles
ĠMar ine
ĠHow ard
ĠM ap
190 2
g ency
if ul
ĠB efore
W hat
ing ly
ne ver
Ġhoriz ontal
Ġpl as
plic ations
Ġnecess arily
Ġly rics
ĠM L
ĠLin coln
Ġclass ified
Ġimpro vement
ĠL ocal
Ġinvol ves
S te
ĠT rum
rack et
A cc
ĠL iter
ash i
rid ges
er on
)} (\
od ox
ag ues
ĠL ank
An other
;" |
Ġpart ially
ĠB arn
ĠAll en
Ġbound aries
N D
G en
Ġattack ed
- (
Ġcar bon
Ġso le
Ġgener ating
ch ant
Ġopport unity
ian ts
Ġra ise
Ġcontinu um
Ġp ackage
h fill
l arg
ĠI l
Ġro of
Ġm ount
Ġoper a
Ġ\ ,\
ĠH ockey
&= &\
row ser
ol o
Ġap art
| $
ship s
V illa
E ach
Ġsome one
ar ity
Ġp ip
head er
T ag
Ġpre ced
ĠCon stitution
Ġset up
M E
Cl ub
ĠSt one
ĠPortug uese
Ġcaus ing
Ġtop ology
U nder
ĠN ich
ĠBrig ade
ire ction
ĠA labama
Ġpl ate
ĠDi ego
Ġcommission ed
ĠL ast
ĠBr un
G S
ĠOb ject
Ã© t
Ġs an
T Y
ĠBul g
ow nt
B efore
ic ate
ĠW he
Ġcon nections
f ull
Ġuniform ly
ĠD ark
Ġc as
Ġm art
i able
ect ure
ĠJ am
Ġag ed
comple te
ĠG ram
Ġunivers e
Ġheav ily
Ġbel ief
" ]
Ġs and
ĠLab our
ĠN aval
Ġcont ribut
Ġ elli
T em
Ġk ick
Ph il
ĠB rian
la ps
M ost
Ġatta ched
el le
Ġin her
Inst ance
Ġprot ect
clos ed
Ġbro ke
ĠC emetery
Ġwe alth
m aster
form at
Ġincorpor ated
ĠW orks
Ġn om
AM E
ĠH ans
^* (
ĠCommon wealth
ĠB rand
an ia
Ġf resh
ativ istic
O rig
ys ical
ĠCon st
Ġ" ""
ĠCro at
ĠConnect icut
ĠF inn
Ġprec ision
por ated
Ġsimultane ously
ĠF ac
Ġprogram me
enn y
)-- (
od a
Ġl ists
! ]
Ġind ices
Ġkill ing
es ides
Ġinflu enced
Ġread er
H om
M ain
}{ *
ĠH amp
L ink
du ate
n ight
//////// ////////
Ġent ang
Ġdens ities
ut ies
Ġbelong s
Ġdef ines
d est
Ġch ose
ĠC op
Ġmet res
im its
D en
Ġcontrol s
L ocal
ĠSt ory
e le
} );
ph one
serv ice
ĠP rix
Ġrespect ive
ie val
ĠDo ctor
pr ivate
w as
ĠM att
Ġexhib ition
Ġorb ital
Ġs un
Ġtrans verse
ĠN AS
Ġinh abit
$ ^
{ (\
ĠE c
ĠOk lahoma
rom agnetic
ĠD M
Ġp and
inc or
Ġscen es
ĠSen ior
Ġdis put
Ġa id
ĠQue bec
Ġro ots
p red
12 3
ĠI r
Ġc arri
Ġstrict ly
ĠTh ird
Ġent itled
ĠN FL
on omy
Ġfa ith
Ġf ought
Ġregister ed
) (\
d ash
F inal
ub er
ĠC ru
Ġcollab oration
Ġvary ing
Ġg irls
St ar
Ġgun s
Ġh alo
re ll
ĠWh it
foot notes
Ġp ed
ĠC art
text up
nav bar
Ġconf idence
k g
v ia
In it
oc a
rins ic
ch t
aw are
or us
Ġex ecution
st at
18 80
ĠA ge
iam i
Ġstudy ing
ĠN ag
Ġj azz
Ġfound ing
Ġre form
Ġext ent
Ġp y
pos ing
Ġm and
Ġ _{\
T oken
Ġconclud ed
Le ft
T hat
m eta
ĠS U
P res
on i
ĠK er
Ġmain tained
ĠC er
op ter
M c
Ġoff set
Ġorient ation
Ġsens itive
ĠSil ver
Ġcomm ut
Ġc yl
Ġfund s
and o
ob serv
os lav
Ġs ought
Ġsc ores
ĠCh ampions
Ġk il
Ġviol ence
ĠArgent ina
ĠF a
Ġw itness
Ġhot el
m al
B E
Ġpresident ial
r ates
ĠSw iss
ot ter
ĠN ik
im p
g ather
Ġdescrib ing
ic ial
Trans port
Ġliter ary
Ġqual ified
ĠGo ogle
ĠC ra
% .
ĠD om
footnotes ize
Ġp uls
Ġretire ment
d ied
Res ource
Re ception
pro pto
Ġmov es
ĠTai wan
ĠG P
g i
ĠN av
ĠMar c
ĠW ho
Ġdoes n
Ġstand ards
Ġher self
oth s
ud a
Ġtr igger
ple x
refer ence
Ġdi ameter
down arrow
Ġfac ed
Ġdirect ors
Ġsup pose
ĠHou ston
ĠS N
Ġch urches
Ġalleg ed
ynam ics
Ġupd ated
Ġdid n
ĠTem ple
ain ed
ĠNC AA
Ġf itting
ĠR eb
ĠCons ider
Ġliqu id
ĠCol l
Ġin clusion
f ilter
f amily
ĠK az
Ġa ware
Ġquadr atic
ĠSim ilarly
} /\
field s
ĠM i
Ġtempor al
Ġst ead
bin om
$ ^{
Ġre nd
on om
Ġwe ather
S F
Ġtest ed
Ġt ang
ĠAn ne
ograph ical
d epend
ĠA le
Ġt ennis
Ġqu as
ĠD ream
ĠAb out
Ġloss es
| ^{
Ġvide os
f ly
Ġun less
in ces
ĠHe art
Equ al
Ġbal ance
Exp atriate
ĠCh all
cul es
Ġsystem atic
Ñ ĥ
text color
af e
s a
Ġdr iven
Ġconstit ution
ĠS quare
Ġs occer
ĠH u
c ers
var rho
B R
ĠCo oper
Q ue
ar ry
ĠMo ore
Ġhigh way
Ġens emble
Tr ue
al ia
O p
Ġuncertaint ies
ĠCl ark
Ġstraight forward
Ã ¥
Ġpop ulations
our ney
ĠAddition ally
Ġconvent ional
arg ets
Ġdecre ases
) }.
ur is
ĠR ang
ĠK am
Ġs ac
ur d
Ġe c
Ġiter ation
Ġschem es
Ġcall ing
Ġg lu
M T
ro ke
ink ing
up date
ii i
Ġactress es
Ġst ack
Ġext reme
sh ot
$\ ,
ĠBelg ium
Ġh our
ĠK ey
Ġtransl ated
Ġjo ining
ag h
Ġhtt ps
L abel
Ġde leg
Ġhom ogeneous
Ġoper ate
ĠCh ildren
Ġenh ance
Ġthan k
ĠK o
ĠHon or
Ġb rown
Ġprot ocol
R oman
Ġac id
ĠIn n
ĠM and
us hed
Ġ }}
ĠV ice
Ġsy m
it udes
ĠAl ber
189 8
Ġcoll ision
s quare
Ġd ates
Ġprec ise
ay an
B ra
du ctor
ib ration
Ġ+ =
Ġpolynom ials
w hen
ĠAl b
Ġmetric s
y ers
ĠV in
ĠD ur
}) ^{
Ġform ul
Ġmon itor
Ġf old
pl es
Ġdesign s
Ġinvestig ated
ĠP C
pt r
Ġb atter
Ġde viation
ĠDou glas
v as
Ġhum ans
f inals
ĠTer rit
Ġform ulation
ĠOn ce
param s
Ġst ating
Ġg ene
i eg
Ġlin ked
Ġcont ribute
Ġprot est
Ġderiv atives
iem ann
we ak
Ġperiod s
O pen
struct ure
Ġ$ ^{
[ "
Ġoff ices
ĠPat rick
}$ \
Ġf aster
Ġequip ped
Ġag o
Ġen emy
Ġqu ot
or ate
Ġcent uries
ĠOffic er
ĠF le
l ades
Ġinst ances
Ġexecut ed
_{ +
Ac adem
P age
Ġview ed
on se
St at
ĠIslam ic
Hand ler
ĠG ard
ss on
el ian
ĠMiss issippi
ĠLouis iana
j ust
Ġp un
Ġfact ory
Ġt ropical
ab ad
mult line
erm i
ĠG ordon
$ '
Ġb rain
Ġinstit ution
r ator
Ġst adium
Ġconcern s
ĠC all
ol ation
Ġsp here
Ġsupport s
iss ance
Ġex cell
li est
ĠJ ay
ov ation
Ġsol ving
Ġair port
ram a
Ġloc omot
Ġcol ors
etail s
U C
Ġpublic ations
Ġm ir
r ust
e ast
Ġconv olution
com b
ĠOr th
level and
ĠY outh
b ey
in burgh
Ġsubject s
ta ges
Ġdist ances
B lack
Ġstri ke
ur ance
Ġenc ounter
ail ed
ĠStand ard
13 0
ĠS P
ĠB ureau
S H
Ġm oments
Ġtra v
Ġcomplet ion
Ġdiff usion
Ġeduc ational
ĠLiber al
Ġaud io
it i
Ġd ynasty
it ory
ĠPro du
ĠS che
Ġpoet ry
Ġrapid ly
Ġmodel ing
ĠRec ord
Ġste el
tain ing
Ġweap ons
ĠN am
Ġindu ct
E p
Ġat omic
ocr atic
Ġexpl ore
um ption
ĠT un
Ġexpect ation
Ġrelig ion
ĠM C
ri k
) ),
d ensity
ĠB ry
Ġlaw yer
oust ic
ĠD anish
Ġtrans itions
ĠInst ead
ymmet ry
}^{ +
Ġsent ence
ili ary
Ġch ampions
ĠR et
Ġt ight
ĠLie utenant
ch y
enc ing
ch ild
h ist
Build ings
ok ed
*} [
ĠBrazil ian
Ġpan els
Ġorth ogonal
Ġch ance
Ġp le
Ġestablish ment
Ġthrow s
ra v
Ġ ray
ĠH erm
Ġemploy ees
Ġ- --
Ġa head
}. }
Ġsy mp
Ġweight ed
ĠEx ecutive
s ong
ĠR ow
Ġag ree
Ġform ing
if est
Ġprom ote
Ġr uled
Ġisol ated
Ġimmedi ate
Ġent rance
Ġfound ation
unic ations
j son
M ac
ator ial
Ġrestrict ion
The y
ĠPortug al
ĠL am
Ã ´
O ptions
p ush
ĠDen mark
im er
) [
P an
Ġp ione
Ġs oci
ĠPh ill
ĠAnton io
Ġdis appe
ĠR ic
Ġper haps
up arrow
Ġd ip
Ġre ign
ant asy
' _{
p erson
ĠAnth ony
n m
F ilter
Ġrecomm end
b ach
ob j
ĠVilla ge
ĠM oon
Ġf itted
am ents
or f
189 9
im ore
th on
og g
Ġsymbol s
ĠM ath
ret ch
Ġadapt ation
rib e
Ġclos er
Ġmod er
á »
ĠP ref
Ġad ult
Ġcap able
V is
Ġparticip ants
Ġpand emic
ĠEn vironment
r ase
ir cles
Ġsens itivity
ĠH om
Ġunder stood
ĠS ud
ag u
g lobal
Ġworld wide
B bb
U K
Ġexpl os
Ġaband oned
Ġdisp ersion
ĠE very
Ġhy brid
v y
ĠE ag
ĠPlay er
Ġan imal
ĠP uerto
p ot
atur day
Ġ\ [
Ġreconst ruct
h ave
ĠA re
Ġin aug
Ġw ire
Ġdomain s
ĠD al
Ġfill ed
b es
Ġre con
in ch
ram ework
Ġgener ator
ĠJ uan
Ġmid field
ts burgh
ph ase
l on
Ġcrim inal
Ġr ival
hy thm
ĠC ow
ĠN ig
Ġdiagram s
Ġdefin itions
ot te
Ġaccom pan
Ġcorrel ations
en ance
ater n
roll ed
Ġde put
Ġexhib it
ĠPal est
or ro
L R
text sf
end ar
el and
u h
Or der
Ġf ranch
V ersion
Ġm ent
par ameters
Ġm ist
w en
Ġc odes
Ġt el
X X
ĠInd ependent
T A
ĠR y
ĠAb d
d ale
he red
Ġad vent
ul ator
Ġscen arios
up le
ail and
me an
us al
ic ide
âĢ ¦
ĠA ma
Ġ{ $\
ĠHaw ai
ĠOb serv
ist ence
Ġm us
Ġres idual
sp in
ĠD ak
re hens
ĠHer itage
ĠStud ios
ĠEx press
Ġbenef it
R ober
ĠCol omb
Ġman uscript
eb ug
function s
Ġhe ard
red ited
ien ced
ah n
ot ype
Ġbran ches
Ġpropos al
Ġfeed back
ĠP as
ĠHot el
Ġl ift
ĠSt ew
ak ed
ĠLag rangian
We b
ĠP ope
C ap
Ġident ification
Ġcast le
ĠDet roit
ĠR ights
Ġencou rag
Ġf an
er ion
M I
Ġsk y
Ġanc est
ĠS port
$- $
Ġphot o
ĠAl gorithm
a ired
Ġre in
sup er
Ġis lands
G P
Ġn aturally
Ġst ores
ĠLeg islative
ĠAdminist ration
incor porated
Ġo vers
ĠMr s
Ġad vers
) ).
Ġp ush
189 5
ĠN ext
i pe
Ġcor por
G r
ĠF ern
189 7
ĠS n
ĠL ap
Ġm ask
s rc
Ġh air
Ġstrateg ies
Ġsign ature
Ġd ry
ren a
ch ain
comm on
c ross
m atch
Def ault
F actory
Ä «
ĠMe an
ĠÃ ī
k ers
' ).
ĠD ublin
m illion
Ġne arest
Ġt ick
Ġindic ating
ĠIsrael i
ct ic
Ġt ack
ra ble
F amily
Ġl es
out put
ĠSh ar
B undle
] ^
gra v
ĠArch itect
Ġt all
M al
edd ing
ĠS ign
ĠV ari
oc he
D esc
Ġinv ited
Ġsub space
Ġser ial
c ategory
* /
Ġcru cial
Ġinv asion
^+ $
ĠIndones ia
Ġdr ivers
ĠD VD
18 70
ak ers
b ad
all as
cor respond
Ġirre ducible
Ġre jected
Ġpass enger
cknowled g
am an
U I
M ajor
ĠRober ts
7 00
Ġaccount s
ĠCor ollary
Ġneut ron
Ġdisplay ed
h ab
Ġw al
Ġcerem ony
Ġindependent ly
Ġdo or
ÃŃ n
ĠIm perial
ĠP ap
Ġgreat est
. $$
Ġsk ills
F S
ĠH ilbert
Ġadv oc
Ġres erve
f n
Ð ²
ĠF ace
=\ {
Ġread s
W orks
m em
fri end
Ġpres ents
c laim
Ġf lex
Ġv oted
Ġfin ishing
ĠHar ris
Villa ges
Ġfle et
ĠĠ čĊ
Form er
R ow
se p
Ġver ify
Ã «
Ġstrong er
ownt own
Ġpaint ings
Ġd rag
Ġcrit eria
Ġcon vention
189 6
Ġeng ines
ĠOr chestra
ist ant
force ment
as a
Ġelement ary
li ed
ĠP lace
Ġphot ons
It alian
Ġcl er
ĠT oday
Ġsl ope
Ġvol unte
Euro pe
n ik
arg o
ĠĠĠĠĠĠĠĠĠĠĠĠĠĠĠĠ ĠĠĠĠĠ
em en
Ġl aid
Ġclos ure
\| _
Ġb an
Ġe ye
Ġrequire ment
ĠUk rainian
Ġ ~\
writ ten
Ġreplace ment
con v
A ng
S N
Ġmorph ism
Ġeng aged
Japan ese
d rop
GB T
Ġbir ds
Ġcom ments
ĠP ed
Ġferm ion
d ocument
}{ {\
Ġcompar able
Ġcompet e
Ġres igned
Ġaccom mod
ĠE vent
ol id
Ġarr ival
Ġdiscover y
s is
Ġexper t
ĠWel sh
ab y
Ġl aser
Ġv o
Ar g
cont rol
un n
Ġstruct ural
ĠEd inburgh
le e
ĠT ar
Ġbo at
ĠJes us
Ġc ub
ĠMat the
Ġinj ured
m oment
Ġinhabit ants
Rail way
L oad
az ines
Ġinterest s
ĠO F
Ġreson ance
ĠC H
ĠL anc
st atus
ĠP rom
in v
ĠF arm
ĠHar vard
Ġsur g
ä ¸
Ġtraject ory
Ġcirc ular
Ġag ency
Ġh ired
Ġst abil
Ġautom atically
bor ough
S k
Ġpubl isher
ot ional
ĠArk ansas
Ġass embly
Ġg ender
f ather
}^ +
ap olis
Ġcomp ilation
ors es
ĠO bl
Ġj unior
Ġcol lapse
\ },
ĠE arly
I ST
Ġsignific ance
Ġstand ing
ĠFri ed
25 6
M F
erv ing
Ġback ing
Ġpers pective
Ġw rong
, ...,
Ġhol es
uz z
l at
Med al
ĠN ash
ĠWalk er
Ġprom pt
D irect
B ur
han ced
ort ion
ĠH ug
M O
Ġrat ios
Ġrang es
Ġprofess ion
or b
rupt ion
Ġex pos
ac le
$\ \
Ġ ĉ
st ates
Ġf ilt
Ġtouch down
Ġre vers
Big g
dom ain
ĠT ig
ĠC ulture
Ġsatell ite
ta x
Ġs ale
ol ph
S an
w ill
Ġrecord ings
ĠMay or
} >
ĠLa ure
Ġprep ared
ĠG irl
Ġcom ic
osp it
Ġd uration
ri or
Ġdistingu ish
ird s
Ġrev olution
ĠAl ice
Ġdec ade
S ON
um ps
ĠFreder ick
ĠSam uel
Pro position
Ġ ille
ĠB lo
ig ious
ex ists
ĠF il
Ġv ariant
nol imits
uk i
Rec ord
M ich
ry pt
Ġextract ed
Ġrema inder
Ġf iber
ish ops
ĠBow l
ĠR ub
18 60
ourn als
Ġtw elve
Ġsecret ary
Ġint elligence
m outh
ĠFin land
Ġf ont
ĠAl an
ĠSing h
10 5
ane ous
ver b
in ian
Ġpol l
Ġast ron
ĠMalays ia
Che ck
B uffer
Ġan th
part icle
Att ribute
ĠC ode
Form at
prob lem
H ow
l b
ug ment
bt n
ĠCE O
ĠW a
w ho
Ġhom es
ĠH T
Ġf alls
ut s
ux iliary
com ponent
ĠPet ers
Ġ{ }
Ø §
Ġth ing
ĠM Ps
k ern
O fficial
Ġn ick
Ġrelationship s
Ġfav our
V ER
Ġd anger
Ġab stract
c p
ith uan
ir i
ĠL yn
Ġun iqu
Ġsim ulated
Ġsol ved
ou ch
rap y
Ġan not
Ġtransform ations
Ġhoriz on
ĠSever al
Ġcon crete
ĠComm ander
Ġcomm it
ĠU V
ĠW ard
resp onse
C y
st e
ch annel
\ }.
) }$.
Ġpoint ed
ĠD ick
am ing
ĠC R
Ġ{ @
H P
Ġdep icted
un ities
Ġw arm
Ġaccret ion
gress ive
leq slant
00 1
Ġsever e
ĠM iami
Ġpenal ty
Ġcent ers
o i
ĠIn vest
ĠE X
Ġdiscuss ions
enez uel
188 9
C ref
Ġval ley
Ġep och
et ry
Ġsaf e
ĠB art
Ġpra ised
Ġh its
H istor
ĠAust rian
Ġlog arithm
own ed
Ġexp ed
qu est
Ġconstitu ency
ĠN ob
ĠM os
ec ute
Ġfram es
189 2
t or
ourn ament
Ġmin ing
Ġm ob
Out put
Dav id
ĠH ills
Ġcompat ible
Ġbas eline
Ġb low
Ġwindow s
Ã³ w
Ġr ating
Ġanim ated
ĠTra ining
Ġpro position
Ġ\ }
ĠDis ney
ĠT it
ig e
Ġcomm itted
ann y
ĠJ un
ĠLaw rence
Ġinvest ment
en z
Ġcarry ing
Ġatt ribute
ĠN ar
ĠC ensus
) _{\
ĠL INE
Ġrandom ly
Ġ\ {\
ĠG on
Ġne ither
ĠRes erve
ĠN atural
h s
cast ing
14 0
ĠD ave
our se
ĠP ad
ĠT reat
eg et
ĠRail road
Ġf ly
Ġs ell
ie ce
ĠCol lection
s n
Ġloc ality
Ġimp ly
1 15
Ġsimilar ity
ĠD E
Ġparticip ate
ĠG arden
conn ected
Ġc od
ĠH REF
ĠNew ton
Ġmunicip al
ĠR ol
cl ide
ra k
Sc ript
inst ance
ĠM anu
Ġtri es
Ġro utes
Ġ< !--
st d
th rough
ĠTh ailand
ather ine
ĠY an
Ġocc as
189 3
Ġ: :
Ġb ishop
il st
_{ -\
Ġindu ction
ĠR ound
is ations
D ev
ition al
Ġdef ining
St ep
ĠA PI
ĠDe ath
ĠDon ald
ograph ics
ov ed
Ġaccom pl
ĠDef ense
Ġa er
th ick
ĠUn it
ĠAf ghan
Ġclass ic
asc ript
V er
ĠEq s
Ġre aches
erv oir
Ġmembers hip
;\ ;
is lation
ass ador
ĠU tah
Ġch iral
ĠG R
ol ia
Ġg lob
Ġle af
M a
ĠAg ency
ĠHol lywood
ĠDig ital
ĠR ugby
Ġv ision
Ġch apter
ater ial
Ġt ell
Ġsimplic ity
Ġlik elihood
Th om
Ġeigen value
ro ot
or ous
be an
Ġv ic
ab et
Ġpremier ed
F ONT
appro xim
Ġear liest
lem an
I O
Ġinter vals
sc ription
ĠK ings
Ġexper ienced
t b
pl an
ĠMed icine
ĠL as
Ġleg end
ib ilities
ĠMark et
C am
Ġany thing
s v
> >
Ġcosm ological
b etween
do or
H O
Ġunit ary
ĠP ur
ĠI ron
C ON
res pect
che ll
Ġgood s
Ġren ormal
Ġanal ys
1 12
ĠP ear
Ġran king
ug ar
Ġrecover ed
Ġm ort
Ġ\ |\
Ġacc used
Ġmess ages
Ġroad s
ific ial
189 4
iz able
ĠCommun ist
g on
Ī Ĵ
Ġorb its
Ã ł
ĠT ag
Ġcoupl ings
Ġmod ules
ac on
Ġconn ecting
Ġinst rum
Ġinstrum ents
Ġdesc ript
Ġdeliver ed
ĠCar lo
Ġreason able
M arch
tr ivial
ce il
ĠSc ient
at en
or er
Ġcon formal
Ġre new
h al
Ġsec ure
is ition
ĠT amil
bo ards
ol as
big cup
G E
ĠBo ys
188 5
ol y
Ġarm ed
P aul
amp s
Ġschol ars
Ġc oun
ĠBang lades
Ġkeep ing
Ġresear chers
ĠTrum p
N ull
chang ed
sh ould
Ġp ron
F O
spec ial
B U
Ġt argets
roph y
ser ver
Ġmechan ical
u is
Ġch air
ĠHung arian
Ġro ut
Ġcricket ers
Ġphil osophy
L ocation
Ġres id
Ġstation ary
Ġdis contin
clide an
Ġaver aged
Ġtun nel
Ġang les
lay out
Ġn ortheast
j ar
ess ions
Ġoper ates
pr im
S em
Ġcounter part
ĠAl ban
Big l
Ġp up
189 1
Ġground s
Ġarch ae
at ivity
or ient
ill ed
th an
A ugust
Ġaccompan ied
Ġres idence
st s
) >
Ġsmall est
Ġj unction
ĠS R
ĠRoman ia
Cre ate
ĠHistor ical
T O
Ġcon vers
Ġchalleng es
Ġfac ilit
Ġh am
ĠCon c
ĠR yan
ĠB ox
est yle
st ances
Ġal gebras
ĠSoc orro
Ġkin etic
Ġmathemat ical
Ġcho ices
Ġord inary
Russ ian
tot ype
Ġ ),
oc racy
Ġed ited
Ġl ob
Ġarrang ed
Pro duction
b ai
Ġread y
Ġreg ression
ĠAtl anta
at ar
List ener
ĠJoh ann
TY PE
r g
Ġat om
ĠY ang
left arrow
ĠMountain s
Ġgener a
sub equations
. '
T ypes
ĠB uck
Ġsign s
Ġland s
ĠL ear
Def inition
d in
Ġl ens
Ġpers ons
ĠLINE AR
Ñ ı
Ġinput s
re nd
int end
l ate
ĠC are
Ġrec ur
Ġdecre asing
Ġman ip
( &
ĠĠĠĠĠĠĠĠĠĠĠĠĠĠĠĠ ĠĠĠĠ
Ġpres erved
ir ation
Ġtem plate
Ġregular ly
e lection
Cont roller
ĠDep uty
Ġoccup ation
Ġmechanism s
IN T
Ġun us
ĠCont rol
Ġmin ute
Ġphot ograph
}[ !
ine a
ĠSh ah
Ġgrad e
Ġpost erior
ĠB uff
ĠR ace
Ġbusiness es
Sc ott
Ġbelong ing
ĠMont real
Ġagric ultural
over y
Ġcon version
}} ,\
ĠJos Ã©
re tt
ĠHung ary
ĠOtt oman
Ġdistingu ished
ĠMet ropolitan
end if
Ġes cap
Ġevery thing
Ġrow s
T L
ĠP un
p ret
Ġp ole
ĠI mp
J ames
Ġd t
Ġth read
th a
her ic
Ġre ward
Ġround s
Ġinterpret ed
È Ļ
k ar
ĠAss oci
Ġpurch ase
ĠRuss ell
b ridge
Big r
Ġgradu ate
ĠĠĠĠĠĠĠĠĠĠĠĠĠĠĠĠ ĠĠ
R ich
}) =\
f all
{ .
ĠMc K
ĠEqu ation
ĠD at
// /
C F
ĠPal ace
Val id
ordin ate
ĠC hen
Ġassoci ate
Ap J
ug oslav
ĠDe ad
mod ules
m f
\, ,
Ġdis miss
ĠGu ide
if iers
Ġdiv isions
ĠPe ace
Ġnot ably
\, {\
Ġopin ion
Ġsp r
iv ation
Ġconsider able
Ġpract ices
ĠG all
U P
ĠSup port
bar a
script scriptstyle
Ġhost s
N E
Ġsp an
ĠK evin
H D
Ġf lying
Ġunivers ities
Ġstop ped
ĠN et
Ġre tained
Ġsp herical
Ġcomplic ated
j pg
Ġprodu cers
d em
ĠF al
ĠTh ough
ĠF all
viron ments
ind ependent
ĠObl ast
Ġseg ments
ob a
av ity
ri ed
Ġob st
Ġpri ze
ĠAlf red
aint enance
ĠVi enna
ĠKn ight
ĠR ick
Ġincreasing ly
ĠAn na
cy cle
k k
ĠB etween
ĠMor gan
T ube
Ġpix el
Ġt ank
cite alt
Ġbenef its
ter ior
ĠA y
Ġrece ption
B us
l oss
ĠC leveland
ĠOrth odox
Ġt error
Ġpercent age
Ġb ary
Ġneigh b
Ġhe ter
now ledge
b lem
ĠN eb
init ely
ĠP age
n est
Lay out
ĠT ak
M any
188 8
Ġpseud o
oun ced
Ġw aters
orig inal
ĠL ib
Ġanaly ze
F ran
Ġplas ma
iss ue
ĠV ideo
Ġatt ributed
Ġsepar ately
Ġca ref
Ġfun ctor
Ġc risis
ĠCh amber
Ġen able
Ġpeak s
Ġeth nic
Ġvol umes
Ġcour ses
Ġde pos
ĠL ower
Ġh uge
ĠPo isson
Ġus age
Polit ical
ok a
ĠF A
ĠOper ation
Ġsubstant ial
en um
Ġcol lections
un ing
ĠQ CD
def n
Ġgeneral ization
re v
pr ise
Ġreg iment
Se lect
W ork
ĠPubl ishing
ĠC NN
Ġb ed
Ġm it
Ġwith d
ĠH um
l m
b us
Ġestim ator
Ġredu cing
Ġpass engers
ra ce
im ir
Ġv ort
Ġpotential ly
Ġgrow s
ins ula
Ġcompar ing
Ġge odes
ro se
Ġsur ve
10 2
Ġassist ance
ĠD NA
ĠM ission
ĠD ance
ming ham
Ġdesc end
Ġcondition al
Ġshoot ing
Ġf its
tt p
) }$,
iver pool
ĠMc G
Ġste am
ĠMa ur
ĠH as
ĠThom pson
erc ise
ĠT s
ial og
un ately
u able
Ġdis order
Ġscient ists
ĠDe an
in us
Ð ´
al ph
Ġinf rastructure
ĠHamp shire
ĠStew art
let ed
Ġrail road
Ġm ine
ĠD ie
ĠK on
Ġthous ands
Ġcorrespond ence
ill o
Ġsup posed
ang el
pr ison
ĠR io
Ġcomp lement
ar ial
Ġd oll
P M
Ġis omorphic
Ġpartners hip
b ow
Ġnorth west
Ġthan ks
ĠM agn
Ġmed icine
Ġse venth
ĠM es
Ġm eta
Ġjust ice
Ġd ies
w ig
re nder
ĠN E
Ġtri ang
g ment
ĠA ction
ĠF ermi
E st
ord ered
ley ball
' ),
Ġst ored
Ġamplit udes
ĠP rad
cent ral
ĠF ight
ĠCh ampion
ĠSe attle
ĠKenn edy
Ġgener ators
S u
Ġconcern ed
dist ance
Ġcompos ers
Further more
Ġb ars
ĠT am
Ġembedd ed
Ġc ited
ĠC hem
Ġcl ock
Ġsy nd
at ta
ĠG ran
Ġinteg ers
nt z
ĠMar ie
Ġh un
Ġd uty
Ġrest ored
Ġcolon ial
ĠAd ams
E Q
le ased
ĠN i
Ġent ity
ot he
umb ent
n amed
inem at
% %
Å Ł
ĠC rown
' $.
bel ow
on ian
ĠB ull
Ġdam aged
ĠPit tsburgh
val ued
f ast
ĠBru ce
eg as
Ġv ot
ef ined
Ġmer ger
ĠAd vent
ĠA BC
aval ry
isl ature
Se lected
1 13
Ġref uge
Ġcomp ens
Ġass ault
B r
Ã¨ re
Ġstr ings
Ġh al
ĠI S
W E
Ġra in
ant i
Ġpri est
an ion
Å Ħ
ĠS aturday
Ġh ope
\ [\
ib l
Ġpaint ers
b olic
u ary
Ġbig gest
B er
Ġsurv ived
11 1
ĠS af
Ġm ilit
ura ble
Ġc ircles
ev al
Ġmar ine
ov o
ab ove
Ġv eter
Ġgreat ly
ĠB ed
AB LE
f r
ĠN ep
w t
Ġathlet es
ĠA L
AR T
ĠK an
ro d
Ġdec ays
Ġlabel ed
per t
Ã© n
ĠLic ense
ĠW ol
Ġbring ing
pl us
sh aped
ĠC LASS
Ġsing ing
Ġann iversary
ĠI mm
b uf
ov iÄĩ
lect ic
ĠG irls
ĠV ik
K E
Ġfe as
Ġacc um
D et
off set
j k
ĠC ook
P rop
Ġspl itting
Ġdown load
Ġent ering
ĠM A
But ton
ĠCh airman
text normal
ĠW indows
] =
wa it
anc ell
jav ascript
oc y
Ġn a
% ,
et o
Ġs we
es is
Ġbuff er
Å ¾
Ġw rest
ĠAll iance
j u
math tt
Ġstat ements
ent ity
18 65
Ġtri angle
g ame
d ashed
Ġleg islation
se a
int ro
Ġpat ient
Ġd war
ic i
Ġreve als
T ask
Ġrob ot
. (\
ĠF ab
ĠN ame
ĠJ u
og y
Ġconver ges
g ate
ir ates
p he
per iod
Ġc rown
ĠF ive
_{ [
Ġplatform s
or o
ĠBalt imore
Ġspe aking
Ġabund ance
e a
Ġtop ic
class es
Ġsh ut
not in
ĠM ond
av i
ph an
tri angle
ĠU E
D el
ĠRog er
Ġjob s
Ġro oms
ĠCont in
} <
olic y
J une
B as
Ġexper iences
ĠMarg aret
W A
i op
ĠE dition
ĠCamp bell
ĠA M
g ow
Ġpl ots
ĠS ac
ĠN ic
ĠBe at
Ġdef ensive
Ġexplan ation
ĠR iemann
ort on
Ġap plies
ult an
ke ep
Ġs ed
ak s
ent er
Ġrecover y
Ġin ference
an im
Ġfranch ise
zer bai
ĠR ural
188 6
Ġs ight
ĠUp per
Ġpl otted
n or
Ġconven ient
Ġp itch
b oth
Ġres ign
ĠW right
ĠK u
ĠN umber
ĠDi rac
Ġemp irical
Ġinv ent
w right
ĠKel ly
1 16
n ia
Ġdesign er
ran ean
Ġc aught
l as
ar ation
Ġcrow d
m el
ĠMa ine
Ġcred it
Ġharm onic
th ree
t own
L ater
Ġpubl ishing
k ind
Ġa ugment
Ġsum m
init ial
Ġvictim s
B H
ho en
ast e
ĠB ush
188 7
ĠCom ics
Ġturb ul
ĠO ri
g ue
Ġk id
Ġdiss ip
| _
Ġh ill
t ed
Ġg ather
Ġpopular ity
ip art
h arm
ĠCom mer
ĠAn y
Ġcons ervative
Ġg iant
ĠSo ft
V ari
over ty
}{ }
com es
Af ric
H y
ĠOper a
Ġatt ributes
ed ing
requ ency
="../../../../ ../
Ġrespons ibility
ag re
Ġsub section
ĠĠĠĠĠĠĠĠĠĠĠĠĠĠĠĠĠĠĠĠĠĠĠĠĠĠĠĠĠĠĠĠ ĠĠĠ
um ed
Ġadm itted
Ġreal ized
ĠDe ep
Rec all
ĠE ver
inn ers
tri ang
Ġdeput y
ĠCh ang
Ġconcer ning
il k
ar us
ina e
Ġven ues
ĠV iew
ĠAg ric
Ġjud ges
Ġpropag ation
ser ies
Ġgu ide
Ġse es
Ġconcept s
periment al
ĠH ind
sh ape
Ġb inding
Ġsh ares
ma gn
m iral
Ġcent ered
Ġconf irm
Ġprob abilities
D raw
Ġcon e
CO L
Ġperform s
oot st
= -\
ress es
ĠAr n
rem ove
Ġmet ers
Ġ ri
Ġsche dule
Ġbo ys
h ai
ST ATE
Ġkil omet
Col umn
Ġhead s
Equ als
Ġinter ference
Ġcontrad iction
s or
Ġtri ple
Ġinf lation
Ġvan ishes
Ġf ired
Ġsuper con
ĠR ain
iv ated
ĠH ell
T im
Al so
ens ively
old s
Ġdebut ed
il ine
ĠO d
Ġdec isions
Ã ª
Ġelimin ated
Ġclust ering
Ġmy th
get s
Ġan isot
Ġn ar
Ġn aval
Ġsh arp
S ign
Ġinst ruct
V ar
Ġhapp ens
I B
ĠBrother s
Ġs outheast
Ġwavel ength
Ġp ulse
p in
\ }_{
M ode
ĠTh or
L o
com ment
Ġb rig
Ġcomp rehens
ĠM S
ĠTr ue
ĠN elson
ual ity
vious ly
lab le
ov ing
| =
ĠMunicip ality
P e
mid rule
ĠA rena
Ġlic ense
esc ope
ĠMark ov
Ġhydro gen
m ay
apt ist
ĠU C
hib ition
ĠPref ecture
ĠC ass
D at
ĠT ext
Ġf ruit
ĠRef orm
Ġkn ock
Ġcol span
Ġhard ware
D own
Ġe yes
Ġim prison
Ġb id
ĠDak ota
ĠVol ume
ĠMet ro
} ~\
tag on
Ġint rinsic
Ġhel ps
ud den
Ġco herent
Pro t
H M
tot al
ĠI P
new line
um ar
Ġcour ts
con tainer
: </
Ġs elling
' ve
ĠU pon
J uly
Ġm ental
Ġterm inal
d ers
reg ion
Ġph one
o es
ĠR an
Ġme ets
ĠDef inition
pre c
Right arrow
U V
ĠSe ason
Ġcritic ized
ĠA P
ĠMarsh all
ĠMor ris
Ġowners hip
Ġtr unc
Ġland scape
ver age
Ġstead y
ch arge
Ġin vert
ĠG ulf
ĠA C
erm in
Ġout come
Ġ url
j amin
l ass
18 64
ĠAust in
Ġd og
ĠE mer
) &
Ġperturb ations
ootst rap
ĠCh ild
Ġresident ial
ĠP i
ĠRob inson
Ġsuccess or
f ront
ĠColon el
18 50
ĠF isher
st op
ĠL ane
ĠE dd
ou ver
pol y
he rence
um ing
mar ks
f our
b ishop
Ġto ken
Ġar ise
m und
A pril
sing le
d ouble
ĠKar l
b c
^* _
| _{\
ĠLang uage
ĠC ond
Ġcool ing
=" -
ra ise
ĠC el
M art
ĠZ e
ro b
Ġprefer red
Ġm o
ĠS S
Ġr ivers
ad er
Ġsee k
ĠLe ban
L ength
list ed
is ode
ĠFrank lin
per turb
ĠT ol
Ġfrag ment
a uth
P ass
ry st
E lect
Ġcoll isions
ta ke
ĠAthlet ic
comple x
Ġrem ember
ĠT rade
Ġcount s
ĠG ill
i ere
Ġte en
Ġwhe el
B ecause
u ity
Ġdifficult y
ov es
Pro fess
rosc opic
Ġmov ements
Ġd ating
spec ific
}\ ;
ĠG ray
ĠE instein
Ġg ran
Se ptember
Ġoff ensive
Ġg ang
ĠMov ement
Ġb ases
Ġm al
Ġen vironments
Q L
ĠChrist opher
ĠMur ray
Ġprov incial
Ġadm its
Ġsub mar
ĠV enezuel
Ġsu it
Ġcut s
}} )$
ĠK it
ĠD aily
ast s
ĠGl as
et ary
F ix
onom ous
b one
Ġtrans action
1 14
Ġsk in
ĠAuthor ity
188 4
ou ds
ĠD allas
Ġde vi
Ġmarg inal
18 61
Ġcompet ing
ĠK ur
ĠPr incess
ĠR ight
)} _{\
Ġas k
pro fit
ist ing
ĠN eg
Ġchalleng ing
Or gan
ĠD ub
Ġsouth west
Ġnormal ization
ĠS in
St r
Ġstre ets
S ym
ĠSar ah
Ġp or
1 17
Ge orge
Ġcred ited
ĠYear s
Ġrecomm ended
ĠF ood
Ġactiv ist
ĠL iverpool
Ġaff ine
ĠCar ter
Ġtempor ary
Ġrec urs
ĠEconom ic
ĠM aj
Dem ographics
ĠS O
Ġlog ic
Ġamount s
ĠBrook lyn
Le vel
Ġac oustic
Ġrun ner
Ġsit uations
cycl op
Ġphenomen on
A v
Ġ\ :
Ġenc oding
Ġprincip les
el lect
N ames
Ġoffer ing
ĠLank a
p air
q l
Ġret riev
< ?
Ġrem ote
ĠEv ans
ĠS ax
Ġst ood
Ġrestaur ant
le ans
ĠAr ray
Ġdraw ing
=" ../../
ĠM ol
) |\
Ġwhe never
Ġne ur
Ġover lap
ro c
v skip
lim it
Ġmanufact uring
Ġfac es
Ġw ounded
ific ate
\ /
A ccess
v dots
ren cy
ĠL l
b efore
Ġwor st
Ġt ied
orks hire
ĠPat ri
b its
ĠĠĠĠ ĠĠĊ
ĠH it
ĠCon vention
ann on
}} =\
Ġcomp la
ĠSystem s
Ġn an
O ctober
g rid
ĠMad rid
Ġfin it
Ġlat est
g iven
Ġp od
}{* }{
Ġr u
ĠCar ib
Ġprison ers
ĠN ord
ĠSen ator
ĠH orn
ab out
ĠB omb
ro v
Ġend emic
bound ed
t ask
Ġproper ly
Ġfind ings
ug s
e enth
a ud
Ġb anks
ĠR ud
u ct
cre en
Ġm outh
ĠCon stant
Ġgr ass
des ign
lace ment
G reen
n umer
M o
N T
if ting
Ġcompet itive
ho le
Ġstar red
iter ranean
n an
ath y
188 2
Ġpeak ed
ĠH end
Ġhabit at
ĠCons ervative
an aly
Ġcritic ism
Ġdeb ate
ĠPh ot
Ġatmosp here
rid ay
\| ^
ac cess
ĠSchool s
188 1
Ġsyn chron
ĠB asketball
K S
ĠBir mingham
Ġp ot
int o
ia h
pro duction
Rober t
ip er
Ġj uris
f iction
D T
du al
c ient
ĠYou Tube
ĠF ull
ĠStan ley
e ach
duc ational
ot an
per ature
Al umni
Ġfinal s
Ġproject ive
Ġa cknowled
Ġg rey
)= (
t ically
l ater
Ġspac etime
ent ric
ĠWe bsite
18 63
Ġanalog ous
Ġh ip
ibr aries
Ġs now
10 4
st yles
ĠUnivers e
Ġun success
ĠH indu
ĠW ing
f ol
p otential
Ġa u
Ġdefe ating
sy m
ĠJim my
Ġdivers e
Ġvess els
ĠR ap
Ġrac ial
Ġpaint ed
Ġexpos ure
iv an
ĠR ico
Ġsh r
ĠFI FA
ĠW oman
the ory
T own
ĠBanglades h
ĠPol y
Ġdis joint
' )$
B en
ĠAthlet ics
Ġmole cules
U pdate
Ġturn ing
Ġexpon ent
pl er
Config uration
Ġreal istic
ail s
Ġneg lig
rand om
ĠCh art
Ġm m
os opher
Ġcom ed
ĠC it
et on
ist ration
ĠJ e
Ġoper ational
S ur
k w
Ġo x
Ġiter ations
m ate
Ġf ul
ĠA GN
Ġorgan isation
Ġm ile
ĠPol icy
Don ald
t n
ul ner
18 62
Ġsubset s
ĠT rib
ĠCap ital
end ment
ma ker
requ ire
ĠCat hedral
Ġrele g
Ġref lection
c are
Ġmix ture
Ġag encies
et ition
P al
id ay
Ġ} {\
Ġinst ant
ul u
ĠI van
und erset
Ġmark ets
Ġhapp ened
ĠCent ury
UR L
ĠS occer
T ree
M ass
Ġb atch
Ġanaly tical
ĠC rit
Ġweek ly
st ore
ĠA ud
Ġbusiness man
Ġfem in
S chool
ĠT rad
Ġconsider ation
ĠS tage
Ġf iled
it ime
ĠOr leans
Ġteacher s
ĠV ic
ĠW ang
S al
ĠBelg ian
is ons
Ġtraject ories
d z
ĠNorm an
u its
ĠM ak
m arg
ĠBern ard
F rame
i ac
Ch ang
L ang
lear ning
er os
ĠOrgan ization
irt ual
Ġgradu ally
ple te
Sp anish
Ġra w
ĠPort land
aw ay
ĠRes ults
op al
Ġch amber
et he
10 3
c ounter
Ġcrit erion
Ġre verse
Ġrestrict ions
Ġqual ifying
ĠGra ham
i u
Ġf est
D L
Ġim plicit
Ġsw it
in ement
Ġv eget
ĠA qu
CO DE
le in
ĠT ournament
ut r
ĠL ithuan
ĠSerb ia
overs et
G ame
' }\
Ġm ig
ĠC her
ĠR and
' $,
ang o
Ġintegral s
Ġw ish
' ',
f are
ĠC ricket
Ġim possible
Ġweak ly
Ġthe ater
ric ane
Ġorder ing
Ġhead ed
Ġjournal ists
writ ers
Ġcoast al
Ġcho osing
Ġun stable
Ġmon ot
hat tan
ĠCarl os
Al bums
Le ague
Ġ ^{\
J anuary
ĠPr incip
l ined
ĠS mall
ĠP A
Ph ys
ĠB illy
ĠM ong
c z
Ġbo ost
, .
ĠNever theless
T F
Ġguitar ist
Ġcan cel
ur ers
at hered
Ġpo em
Ġforest s
ab i
Ġc ards
Ġcustom ers
ĠF ro
ĠD J
aly mp
Ġcomm une
hol m
ma king
en berg
ĠSt ev
ĠT rophy
J ew
ĠH ad
Ġ })
Ġd uties
Ġentang lement
Refer ence
Ġres ol
A cknowledg
Ġexcell ent
Ġc ous
AT ION
pro perties
Ġnewsp apers
ĠE ston
sub stack
os ph
3 60
$ _{\
Ġ[ ]
Ġtop ics
const ruct
Ã Ł
ĠT ab
ne ur
ĠL P
st age
Ð ¼
h us
ĠJud ge
Ġaccess ible
Ġquot ient
Ġcon jecture
c ussion
Ġph on
ĠV I
B F
ĠFinn ish
ĠChall enge
usal em
Person nel
Ġw ants
man ifold
p mb
ot ten
B P
est im
ars er
K n
Ġen hanced
op les
h ill
188 3
Ġcoupl es
Ġcollect ive
oid al
De cember
s ite
Europe an
fl at
ĠL ud
Ġst im
Ġso il
Ġintrodu cing
ĉĉĉĉ ĉĉĉ
Ġacc ord
Ġe arn
ĠT ob
Ġpix els
om ing
Ġdiv or
ĠY orkshire
Ġhelp ing
ĠB aker
ĠI mage
Ġ& $
Ġcov ariance
Ġv acc
Ġsurround ed
b d
Ġc ot
ling ton
ĠF R
ĠI ce
int s
equ al
Ġd il
Ġprob e
N or
L oc
M ag
Ġb rick
M iss
Ġtown ship
st ory
Ġg arden
b ib
V I
ant ine
Ġslow ly
Ġsh aring
18 75
ĠY ugoslav
t im
id o
Ġre nt
Ġeven ing
Ġpotential s
Ġe cho
id en
anc ouver
25 5
ro ve
Ġres emb
Ġimpro vements
ĠG un
} &\
Ġc up
ĠNig eria
Ġcomb ining
let t
Ġv oting
Ġrec ru
O W
Ġvol tage
ay er
Ġun ity
Ġher itage
Ġco hom
Ġ{ {\
Ġdiscrim in
ĠNaz i
ĠE lementary
Ġland ing
M oths
Ġal coh
Ġdecl ine
' ll
Ġbos on
he et
or ia
_ .
ER R
ub le
' =
B i
ul um
ĠP ictures
ĠE ss
ĠGu y
B N
f iles
oid s
V M
ĠCur rent
Ġj ourney
Ġ* *
Add ress
Ġro se
ĠLim ited
Ġpublic ly
ĠS E
Ġmed ieval
ĠW restling
Ġd y
f ire
Ġpre v
Ġhapp en
ĠS hip
187 8
f il
Ġp ian
W ar
ĠDef ence
ĠBroad way
ĠF r
sh arp
Ġrece iver
Ġl it
$ --
Ġhas h
ĠA the
J o
c ription
ĠB ud
Ġb its
mod al
Ad dition
Ġexp ensive
ham mad
pro file
Pro cess
Ġf ictional
St ation
ĠR u
à ¦
Ġnorm ally
AP I
r floor
uk a
Ġs udden
Ġemer gency
ri el
Ġpass age
w ang
Ġmunicip alities
U M
Ġinstrument al
Wid th
Ġarr ive
ĠS yn
ĠP ut
Ġtransform ed
Ġchild hood
Ġv aries
T arget
ĠF ather
187 6
rist ol
Ġveloc ities
Ġa uxiliary
st ad
Ġwith draw
. ;
Ġpresent ation
ens on
Ġsh orter
ĠH old
ĠSt art
Medal ists
Sh ort
Ġw at
Ġconsum ption
Ġnon zero
ĠJ ava
? "
! "
ĠG ary
Ġparticip ation
Ġind igenous
ar on
V P
A rm
Ġdis cret
Ġtransport ation
re z
ip her
s end
ĠAp ple
p ubl
Ġdeterm ines
Ġb ath
Ġproject ed
ĠA ld
ag on
] ^{
Ġpo ets
Ġfocus es
ĠSt ars
Ġopport unities
ĠN ation
ad ing
Ġint ent
Ġmag azines
s ome
par se
& $
id ad
g ray
gra duate
Nov ember
ĠEu clidean
Ġut ility
ĠMit chell
S l
erm ont
ĠPri or
3 50
Ġcelebr ated
us p
ĠN ad
ĠA zerbai
r aska
ĠPrad esh
Ġc raft
em ale
hem atic
R ob
ĠBl ues
ĠSal v
rict ion
. },
Ġpre t
H en
n ell
Ġf usion
`` `
Ġsuper ior
k t
ĠRoman ian
p read
Ġlong est
Ġlif etime
Ġlo oks
is p
ge on
Ġv ariants
Ġ }$
ĠB H
Ġex it
Ass ume
Ġab use
Un ivers
Ġl engths
Ġexc ited
Ġnot ing
w ords
ĠPier re
Ġsign ing
Ġc ache
. }\
us k
L and
est one
Ġfilm ed
Ġb on
ĠO R
erv ised
ĠSt orm
l floor
Ġpres erve
}_{ {\
Par ameter
ĠS r
ak ia
Ġcomm em
Ġt ie
Ġmeas uring
Ġexcit ation
Ġh ur
iz ers
ey er
ĠR est
au er
ĠF el
Ġindu ces
ab ric
\, .
ĠF ile
L in
F lora
Ġcount ies
ik o
equ ival
m ill
Ġbu y
ĠAng l
Ġsurg ery
ĠElect ric
Ġun like
Ġp ump
ip ped
aster y
}) _{
Tax a
pro totype
}) )
w orks
9 00
18 67
ij ing
Ġcl imb
Prov ider
f ish
ro ck
ĠJ ason
Ġdaugh ters
N P
ov ich
ĠP R
Ġinvol ve
Ġhistor ians
ĠS ymph
me asure
187 9
ĠP ath
Ġnomin ation
Ġh ang
sup p
Ġint ention
Ġelect rical
Ġportray ed
Ġrom antic
ore l
el ines
Ġinf inity
if le
Ġelect oral
St and
Ġline arly
Ġd ream
Ġflo at
Ġcr ash
}, {\
Ġg rown
Ġfrequ ent
Th rough
Ġm aintenance
h alf
Ġrequ iring
Ġappe al
Ġn ations
Ġevery one
ĠMot or
Ġaff airs
Ġf er
ĠMil an
Ġshift ed
math ds
L ou
G old
Ġstay ed
ĠPro test
al is
st ud
Ġwrit es
Ġhundred s
u int
k it
ĠT ower
ĠL GBT
er as
ĠInd ians
ast rop
Com put
Ġart istic
ĠNov a
Ġcorrel ated
ĠF uture
au ra
Ġmiss ions
Ġst ruck
rupt ed
: (
ĠBar ry
D I
int ers
Ġthere by
Ġcy cles
ĠAl aska
ĠP ot
Ġmin i
en ia
Ġconsist ency
) !
Ġpre lim
ĠLore ntz
sub float
W al
Ġsynt hetic
w he
hoen ix
ĠE uler
sup port
Ġon going
)} =
Ġsp arse
Ġrepresent atives
ĠGu inea
ĠTig ers
EE E
Ġinflu ential
Ġapplic able
Ġcond ens
Ġtrad ing
ĠN BA
Ġvalid ation
Ġ$ [\
Ġhom ot
Re lease
Ġcl ar
Ġre tail
b ian
Ġst yles
ud son
ĠJohn ny
Ġs leep
() ->
Ġp overty
Cont rol
je ctions
Ġarrang ement
D ocument
Ġinst ability
Ġchain s
t ar
Ġcolle ges
Ġeas ier
S yn
10 8
Ġflow ers
Ġdev oted
ĠSerb ian
ĠSt ein
^- $
P lace
Ġking dom
Ġpred omin
FF FF
Ġmach ines
Se ason
cc c
trans form
ist ically
' d
ĠC ON
ir k
cons ider
ĠH ero
~ (
Ġtrans mit
ers hip
Ġrang ing
ĠC ultural
Ġl ap
ĠWay ne
Ġguarant ee
ĠJ azz
Rec ip
Hon ours
ĠConf eder
men u
y ll
Ġappoint ment
Ġviol in
ĠMe V
Ġtext s
Ġc la
ĠR acing
ion ed
nt il
ĠThe ater
Ġan ten
Ġhom omorphism
ĠFl ore
Ġattract ed
Ġrec re
ĠMatthe w
D an
I mp
re q
u ilt
ĠP ay
Ġcomb inations
Ġreli ef
s ample
st ery
it ud
h n
ĠM ack
og a
Ġd ated
E ast
Ġstri p
D om
se par
Ġde formation
oth y
ev a
Ġplan ets
ĠNev ada
Oper ation
ĠF ine
ab a
Ġin form
Ġcosm ic
Ġrelax ation
um ann
Ġres olved
Ġf ear
ĠB ranch
Ġo verse
ĠT u
Ġan nu
clus ively
Ġillust rate
Ġv ast
Ġclin ical
$ (\
att r
Ġvess el
Ġbe ar
ĠCarib bean
ĠDel hi
ĠC A
M er
Ġw ides
im it
Ġref lected
Ã¶ r
Ġrequest ed
Ġassign ment
++ )
pro to
Ġch rom
Ch ild
ĠAlber ta
T ab
Z E
an alysis
av an
Ġsu icide
Ġenter tainment
d ict
Ġrece ives
187 1
w rap
ĠGlas gow
ĠLe v
ĠI an
M em
Ġdedu ce
ĠB ased
ia o
ic he
S i
ĠN GC
w al
Pro ject
10 6
ĠM ess
Ġmon ument
Sim ilarly
ĠJer usalem
D ue
r h
ĉ Ġ
c oupl
Ġelli ptic
Ġformul as
ĠR E
U se
st ers
xy gen
sol id
u u
alax y
Ġreli able
Ġim aging
Ġtri als
Ġart illery
Ġcontrovers y
ag ger
G s
Ġsound track
ĠVo iv
ĠP erson
ĠOn line
lead ing
ĠRang ers
Ġchampionship s
187 7
A ir
O K
Ġdef ence
Ġarg ue
Ġanaly zed
Ġalign ment
Disc ography
fort unately
Ġsusp ended
Ġmed als
Ġtrack ing
Ġasympt ot
Des pite
ĠSt ra
U psilon
Ġ( '
Ġhor ror
Ent ity
ĠM other
Ġdec ide
ĠRich mond
Ser ver
ĉ ĠĠĠ
Ġlay out
t re
over ning
Ġt ends
187 4
ĠS eg
Ġadd ressed
= (\
HT ML
art ifact
Ġpost ed
f ac
Ġpure ly
Ġex posed
om p
la re
18 68
rad ius
Ġmechan ics
Ġphot ographer
G O
ĠG il
sim ple
kee per
Ġshe l
J ust
ĠZ one
vert ex
Ġc ust
ĠB ible
ĠPark er
ĠPro t
Ġcryst al
, ~
ĠG az
Thom as
Ġen abled
Ġext ending
ĠS ite
Ġterrit ories
Ent ry
Ġexped ition
elf are
ĠFle et
C N
de ep
ĠEgypt ian
Ġa f
ĠY e
T or
ĠAlex and
u art
ĠN icol
ĠMat hemat
Ġanom al
Ġexist ed
Ġconst rained
187 2
C ache
13 5
{ [
Ġsuff ices
Ġsurv iving
Ġtherm od
Ġas sets
Ġwh ilst
Î ±
hy per
ĠV as
Ġ$\ |
ĠY am
ad ic
ĠP ra
et ta
Ġcommunic ations
om on
e ctions
ĠMic hel
Ġappro val
C V
D iv
respect ively
T ur
ĠK os
Ġcontinu ing
Ġproced ures
Ġne uro
ĠMan hattan
ĠBor ough
ĠHawai i
v ision
Ġinvol vement
G G
bound s
Ġaim s
W S
ĠF lo
pan ic
ĠCharl ie
cast le
Ġl en
ke ys
ĠU SS
. :
res ource
dist ribution
Ġd iversity
Ġm u
um ul
Ġprepar ation
ĠC ov
ĠGr iff
ĠL iga
Ġshe ar
odes hip
ĠAss ume
ĠWar ren
S earch
re pre
Ġpart ly
ĠBl ock
Ġass ass
Ġcatal og
Ġderiv ation
Ġran ks
Ġext ensively
z es
Ġden ied
ĠL uther
ĠPar ish
ĠPolit ical
Ġd owntown
We ek
ellect ual
s un
Ġse p
M or
ĠC S
}= (
ĠL an
ĠK ap
Ġmountain s
' }$
ĠJ ama
ĠCl ar
ĠSer ge
s b
ĠStud io
j et
Ġrele ases
Ġprov es
Ev ents
ĠSong s
}} }$
Ġswim ming
Ġp sy
Ġd ict
S am
deg ree
Ġsymmet ries
g ood
Ġfail s
) |^
Ġunus ual
Sum mary
+ $
and al
im od
Ġhyper bolic
is y
ĠColomb ia
Ġ! ==
Ġaim ed
}\ !
Ġmin isters
Ġdeploy ed
inter face
Ġformal ism
Mod ule
Ġfund ed
187 3
ĠAfghan istan
h aus
ty pes
g rade
10 7
Ġparliament ary
ĠE mb
un iform
Ġim posed
ĠHun ter
Ġel der
Ġse ar
Ġwood en
cons istent
Ġkn ew
Ġf ault
Ġapparent ly
sc reen
ĠCon sequently
cel and
as et
cel ona
Ġp ray
Ã ¦
ch arg
cell color
center line
ĠM ind
ke ley
Ġsubs idi
up per
A lex
ĠAnd y
inc inn
ister ed
Ġf oss
> ,
ĠSe ven
Def unct
Ġre plic
ĠP il
Ġm ic
R T
Ġmar ks
jo in
make box
ig m
h ow
Ġre ly
h um
li x
Ġ )$
Ġb arrier
ĠPer u
ag ar
ari ate
Ġpriv acy
ĠU g
me as
m ut
ab olic
os ed
ac re
ick ing
Ġpo ems
ĠSaint s
t ensor
Ġdecl ined
ĠVoiv odeship
Mich ael
ĠPro te
Ġnumer ically
Ġful fill
Ġfew er
ch itz
Academ ic
d ifferent
qu er
sim ilar
Ġcontroll er
An y
ĠC ou
ĠB achelor
Ġexpl ored
ĠE sp
Ġmathemat ics
Ġequ als
p us
b oy
Ġev ident
van ced
Ġor chestra
Ġphot ography
Ġrep utation
tem plate
Ġc avity
ĠJ osh
fact or
F ebruary
St ud
h skip
Ġb ag
Ġr hythm
Ġwe ar
ĠE ug
**************** ****************
Ġexpla ins
ĠG iants
ĠS z
Ġf urn
le an
Ġm oth
Ġar ises
ĠH D
ĠBen jamin
iv ia
Ġemer ged
aj a
at che
la ced
Ġobtain ing
Ġoutput s
}} }{
Ġt ables
Ġearth qu
ĠFran ces
Ġille gal
Ġ$ <
Ġoccasion ally
er g
Ġo cean
Ġthreat ened
Ġl ose
ak u
O F
Ġpro ton
hold er
Ġnegot i
d ing
ĠK r
Ġh ospit
ĠM ans
}| ^
Ġex ercise
Ġmut ual
En c
Dist ribution
f inite
Ġm anga
Sp ace
ich i
incinn ati
Ġs ax
Ġam ateur
Ġvis iting
Ġdepart ure
Ġprov ision
Ġperson ality
Off set
ĠTra il
O pt
Ġw ider
He ight
ab e
ce p
ard ed
Ex ample
Ġvis itors
Ġcorrect ly
Ġthous and
Ġrig id
ĠV ar
R oyal
Ġprint ed
Ġwides pread
Ġsub stitute
Ġen velop
op ed
Ġdeliver y
ĠBar bara
f ix
Ġke ys
Ġremov al
ĠV ancouver
ĠP ack
cc a
h our
an ne
ĠF light
Ġinst ruction
Ġmarket ing
sp ring
Ġautom atic
ĠBeng al
F ore
Ġsampl ed
Ġexhib its
Ġsynt hes
ett ings
Ġg ram
g io
ĠB G
Ġ ).
C ond
Ġacqu isition
Ġsold ier
Ġsquad ron
Ġcol laps
bor ne
Ġs in
Ġ\, ,
Ġmon arch
ĠVictor ian
Ġart ificial
$& $
ĠS pect
p end
Ġthem es
Ġdisestab lished
red it
Ġelev en
Ġf ishing
ĠF alls
Ġgen re
ĠL iving
ish ment
Ġsent enced
spe ed
ĠAss istant
}. \
Ġcall back
ĠMu hammad
Com mon
T M
Ġfinit ely
Ġext ensions
th in
ier ra
ops is
ok er
ĠMicro soft
Ġh orses
ĠFace book
18 66
ĠAma zon
ĠReturn s
Ġannoun ce
Ġsens or
Ġmir ror
Ġcancell ed
oph one
Ñ Į
Ġcomprehens ive
Inter face
our t
ost ic
ĠY u
( |
Ġm ock
}) -
r f
sup ervised
ul o
Ġobserv ables
ST R
Ġtechn ologies
Ġsp oken
Ġt ens
n one
ĠPrim ary
). }
const ant
ĠCh ron
ĠAbd ul
ow ell
L ab
dev ice
ĠM D
ĠF itz
Ġinj uries
Ġsee ing
= {\
Ġelev ation
Ġgener ates
* \
N L
stand ard
m ir
Ġexpand ing
Ġnomin ations
e lected
K L
re du
U rl
ĠG reater
ĠAp pe
Ġp rices
18 40
ur u
ĠNeb raska
Ġprov en
d ynamic
ĠB ron
olog ically
) )$.
Ġpos it
Ġgener ality
Ġw el
Ġsequ el
Ġman age
it is
ĠMed iterranean
she ll
Ġl ingu
ips chitz
min a
ĠM eg
Ġt ab
Ġconv icted
Ġdoub les
qu ir
ĠO range
ass y
ĠL ad
Ġs ending
18 00
ĠCh ap
Ġad min
ĠT rack
ĠProfess ional
b n
ĠRem ark
Ġin g
Ġm esh
ĠHar rison
ow ed
Ġt y
Ġmiss ed
Ġinv ariance
ent i
in ternal
ĠN ature
ster dam
Ġestablish ing
^ +\
Ġout break
Ġch a
Ġpre gn
Ġsem antic
######## ########
S ever
}( -
Ġsub stit
R ange
ct rine
ĠUE FA
ort ed
ĠE U
F P
al id
ĠSte el
Recip ients
Ġemploy ment
Ġas c
rec ord
H ost
no ise
ĠSpe ed
Ġarchitect ural
ĠAd miral
F ont
Ġins urance
Ġgradu ating
Ġp atch
ĠB ey
Ġannu ally
Re al
Ġste ep
Ġcontinu ity
Ġobserv able
b uffer
Ġremov ing
ĠInd ex
ĠB und
ĠAl bum
ĠAnt ar
Sup er
Ġport rait
Ġexam ine
Ġbir d
Ñ ĭ
hel m
am o
Ġhe ating
Ġlat ent
Ġsym pt
set t
ĠW or
ĠTerrit ory
v c
ĠClass ic
à ¥
Ġdisplay s
\!\! \!\!
O ld
al og
ĠSt re
ĠSh a
ĠUn like
ĠTe le
Ġneighbor ing
b ane
win ning
K ing
Ġlie utenant
ace ae
Pro perties
Ġf at
Over view
Ġ$ $\
Ġdrug s
B ook
A thlet
10 9
Ġp ose
text style
Ġcon clusions
Ġcr imes
g un
comp act
Ġrest oration
Ġacceler ation
Ġe ighth
i at
Ġc arrier
Ġbi ological
iline ar
ĠColl ins
te enth
M usical
in cre
Ġany one
ĠB ris
u ke
ĠR ank
="../../../../ ../../
ounc ill
Ġen ables
N one
ĠH unt
util s
: "
Ġg one
Ġb log
Ġrel ativistic
Ġhe aring
ĠV el
ĠD ate
ã Ģ
Ġphil osopher
ĠP ic
ent e
Ġsc r
w indow
Ġreve al
ĠPer formance
N G
Ġcontrovers ial
b est
m ic
Ġr uling
ĠU se
prot ect
left rightarrow
Ġpred ecess
Ch ange
ĠCub a
Ġthe at
Ġcre ates
ĠPro cess
ĠSpec ifically
ĠB og
ĠR equ
Ġgen etic
Rad io
Ġh ist
c ule
Ġpro hib
Ġfam ili
Ġcon fer
Ġcontribut ing
ST M
sc ar
}\ }$
Ġel astic
ĠA S
ugh ter
Ġcircum stances
b order
Ġsub div
Ġclos est
as p
Ġloc k
m ates
Ġdifficult ies
Ġlimit ing
ro le
Ġmod ification
Ġrece pt
v able
Ġe g
sat isf
c ov
ho ok
f olk
f ixed
Ġst em
Ġbreak s
ela ide
y stem
g art
ĠTw itter
H ol
S aint
Ġr ings
Ġbatt les
Ġre actions
ĠIran ian
ep he
H F
18 69
ĠComm unications
est on
Ġmeet ings
T om
Ĥ ¬
] );
Ġu int
On ly
Ġbeaut iful
ĠFre edom
Ġinf antry
ow s
Ġsegment ation
rick eter
display math
char acter
ĠM ix
mathbb m
our g
W rite
ĠTurn er
m ont
Ġactiv ists
it ian
b ool
ĠS ah
non ym
Ġl ib
Ġagric ulture
Ġex clusively
h ad
ĠB ass
ett i
et ing
ĠF riday
ĠMar s
min ute
em p
Afric an
ĠF u
Ġcross ed
i ors
Ġout per
ĠMin or
k u
ĠNich olas
Ġto w
il ty
t ex
ĠJon athan
Ġactiv ation
ĠB ristol
res ize
ĠV lad
Ġamong st
P D
Ġcre ative
add le
o ys
Ġmultiplic ation
ĠC ob
Ġlo ops
Ġperm ission
Ġequ ally
Ġcous in
Ĩ Ĵ
Ġval uable
ĠB enn
Ġden omin
ĠCh a
Ġlimit ations
Ġvanish ing
Ġfac ing
am l
ĠS ultan
Ġneglig ible
Ġlast ed
Ġb are
uck land
Ġfall ing
Profess ional
Ġdon ated
Ġupd ates
r us
Ġg al
os hi
Ġre un
Ġimag inary
Ġd ub
ick er
Ġelse where
Ġb old
Con nection
Ġferm ions
ĠBe ijing
á º
Ġmat ters
n c
Ġper cussion
ĠG ot
Ġass emb
ĠMean while
ĠBuff alo
Ġbe ach
L y
ine e
Ġdeterm ining
ĠBy z
Ġneighb ors
h ash
ĠLear ning
C ritical
AL L
Ġres ervoir
ĠAn alysis
b ecause
Ġtang ent
Ġd rew
Ġ\ #
Ġsee king
Ġcele b
aut ore
return s
ut o
L ie
Ġviol ation
ĠCan al
Ġdiver gence
n ed
Ġab elian
}_{ (
Ġs aved
ĠS id
ĠJ a
ĠCommission er
Ġ ur
H ung
Ġcarri es
ig ible
( _
COL OR
ĠOver all
Ġt ur
Ġtrans it
Ġw ine
Ġm emb
Ġth irty
ĠSp irit
ĠP ant
let ion
Ġpick ed
Ġmov ies
Ġact ed
Ġcomb ine
OR T
18 48
s yn
J ac
ĠB aptist
Ġam pl
ist ani
Ġqu art
Char les
Ġo xygen
âĢĿ .
}$ ).
Ġexpl oration
ins ky
}}\ ,
Ġre act
ĠStud y
Ġdem olished
Ġfocus ing
Ġd ress
am ount
Un it
Ġconsequ ences
Ġh a
2 20
ĠWith in
Ġphenomen a
' )\
Ġlocomot ives
B oth
ĠC BS
Ġcab inet
Ġs ke
Ġev olved
Ġbench mark
Ġprot ests
K ar
Con tainer
Ġmetall icity
ĠSh ang
Ġag es
d p
Ġqu eries
te chn
ĠB urg
Scott ish
ĠT ang
Ġs s
Ġj ournals
enn ial
ploy ment
ĠE ff
ĠC u
p ine
ĠU lt
ĠPhys ics
ber ry
writ ing
Ġanim ation
Ġin tern
ĠG arc
Ġill ness
Wh ite
Ġsp oke
Ġunder ground
sequ ence
en v
ĠEx ample
ĠD R
Ġafter wards
unic ation
ĠSymph ony
M ale
Ġcohom ology
Ġv ulner
Ġmount ed
ĠMun ich
Ġresc ue
Ġto ler
Ġadv ice
ĠM all
ĠM embers
ĠJ enn
ch ing
ĠArt illery
styles heet
indu ced
Ġin cl
um s
ĠAnd re
ĠWith out
Ġinequ alities
S il
Ġgovern ments
t ml
at z
ir s
an cer
H A
Ġte ach
Ġcompos ite
rat io
ĠĠĠĠĠĠĠĠĠĠĠĠĠĠĠĠ ĠĠĠĠĠĠ
ĠFac ulty
Ġaut hent
Ġwa it
Ġdest ruction
Ġadvert ising
ĠD ol
gener ated
ac o
ĠCl inton
fig s
Com parison
ed a
Ġcons iders
ĠBar celona
Ġw ings
r ically
app y
Ġst rain
sp aces
Ġb ott
S pe
185 9
Ġre lay
n etwork
ĠThe ory
ĠArab ic
B s
ens en
Ġlic ensed
f requency
Ġrep air
G overnment
. ),
B D
h ot
Ġart ifact
Ġyoung est
d n
Ġleg s
c opy
Ġdist urb
ĠRec all
ĠDe ut
\| _{\
Ġtor us
Ã¡ s
ann i
Ġelect romagnetic
ash a
ĠGh ana
Â ½
Ġrow span
h ang
Ġdise ases
ĠR ing
ĠKir k
185 7
m usic
o ons
ĠOl iver
Ġh at
Ġbatter y
Ġfor cing
Jew ish
ĠSa udi
se q
ĠG rey
\ }}
is ch
ĠP os
Ġwind s
Ġsuggest ing
Ġfriend ly
Ġsp ending
ĠN BC
Ġsup plies
big skip
Ġsub mitted
Ġrequ ests
ĠC oul
ort s
S ol
mon th
Ġfact s
ha ust
Ġcl ients
Ġcontain er
N AME
d iction
ph oton
ĠB ond
Th ree
C opy
it ure
i ya
Ġcon gress
Ġcol ony
ĠV egas
)\ ,\
ne e
Ġt ip
old er
Ġtra il
ĠV ersion
ĠE li
urs or
ĠS F
amp a
Ġc os
r ise
Ġclos ing
Ġsm art
}^{ (\
ur st
Ġw et
Ġdisc ip
hor iz
ĠK un
itud inal
ĠTr inity
s qu
Ġimpro ving
Ġmoder ate
olt z
Ġt ub
ĠPhilipp ine
ĠPl ant
app oint
Ġmer chant
ic ing
Ġcard inal
ĠA N
em ed
sh a
Ġ( ).
ĠForm ula
Ġlaw yers
&.&.&.&. &.&.&.&.
ĠVin cent
Ġbeh alf
ear ing
ĠTreat y
P rior
ĠEx p
Ġdeal ing
AC K
Ġj ets
Ġcomp iled
F ound
Film ography
ell ion
Ġmem orial
G raph
ĠComput er
Pos ition
H ttp
artifact Id
en cer
Ġtrib e
Football ers
Ġman ifest
Ġs essions
ĠS ad
Ġnucle i
] _
ĠT erm
Ġg ro
ĠJ erry
Ñģ ÑĤ
or ough
q q
Ġre venue
k an
ĠC old
Ġsurv ive
Ġtw in
ĠD ra
H ome
ĠLe ft
V AL
Ġg host
ph al
Ġhe ar
oth ic
Ġprote ins
ĠG round
Ġatt orney
arri ors
Ġsupport ers
Ġmanifold s
ĠIs a
Ġsh ore
Ġcom ics
Ġarg s
L aw
Ġd amp
ĠH amb
Util s
ĠCharl otte
Ġencourag ed
ĠR oll
ĠLl oyd
ĠL ate
Ġthick ness
Ġc able
ĠM ig
grad ed
Ġw orship
o il
x rightarrow
Ġpar ad
ail ability
12 7
Ġr ising
ĠMor oc
Ġsqu ares
Ġg ray
á ĥ
Ġvari eties
Ġhon our
ĠLu is
Ġcon sp
correspond ing
ag ram
Ġent ers
to ken
Ġpat rol
ĠCost a
ĠHe b
Ġfair ly
Ġn urs
cal cul
Ġmar ry
Ġinn ings
d al
F ree
ĠW es
ĠJ oy
ĠWar ner
ab ul
Ġan ime
Ġcross es
H a
qu et
v ideo
r b
Ġprelim inary
big gl
G allery
ĠN y
Ġ\ }$
Ġagre es
h ig
Ġw restling
loc ks
amil ies
Ġgeodes ic
Ġg ay
Ġoscill ations
om es
ĠM ari
Em pty
Th read
Ġven ue
Ġapp rec
Ġsuff ering
Ġcub ic
Ch inese
Sw ed
Ġc reat
ont r
Ġl i
Ġvot ers
Ġpip eline
H R
R ound
Ġmart ial
Ġdest ination
war z
ĠGon z
ed ed
Ġg ard
Ġt et
* {-
Ġwa iting
t urn
ĠSing les
AT A
B ased
Ġhol omorphic
ĠEx change
ĠT ogether
Bra zil
moment um
en os
Ġstat ue
ĠAl ger
ĠD raft
Ġchar ter
em a
ra ud
Ġdeterm ination
ĠR idge
T I
o ft
um i
ĠAl tern
ĠChe ck
ĠRef er
symmet ric
d or
Ġc ul
Ġinc idents
Ġg allery
hes es
ak ov
Ġcon sole
ĠAm sterdam
Ġsupp ressed
annot ation
P rim
Ġhierarch y
big oplus
P et
17 0
Ġcorpor ate
ĠD ays
ĠO pt
ĠK now
ĠUr ban
S a
Ġlocal ized
ĠLiter ature
Ġaut omorphism
Ġinit iated
Ġfil ename
24 0
m ac
ĠF err
ĠMont ana
ĠCh apter
o om
Ġw ick
con ver
Ġl oyal
ĠĠĠĠ ĠĊ
ĠL O
Ġres olve
ĠEX P
Ġg ates
Ġanalys es
v et
ĠA ccess
ĠP S
Ġd s
am er
ĠP el
ĠUnivers al
Ġbeg un
Ġenc oded
Ġ{ {
Ġfeas ible
Ġreconstruct ed
ta wa
Ġg olf
p olar
R a
ĠDemocr ats
ĠAtt orney
Ġc inema
ĠF un
T our
eb ox
ĠP hoenix
ĠS L
ĠI C
Ġfe e
ĠRog ers
he res
ĠI celand
ancell or
ix on
Ġaggreg ate
re ck
Ġem igrants
ig s
z one
qu al
@ {}
h aw
r v
ĠO bs
Ġab road
ĠTe ch
O ption
Ġvar ied
ĠĠĠĠĠĠĠĠĠĠĠĠĠĠĠĠ ĠĠĠĠĠĠĠĠ
Ġs oph
ĠS now
lik ely
ors ion
ĠBer g
ress ive
ĠW u
F in
ond o
G al
E very
ij k
Ġclaim ing
ĠB uch
Ġperm utation
Ġaltern ate
Ġpar ams
Ġproof s
Ġun cle
Ġ\\ [
as hes
ĠB orn
Ġinteract ing
ĠTer ry
Ġex clusive
Ġ$- $
c ost
ĠMac ed
Ġsettlement s
Ġcas ual
ĠHol land
Ġfilt ers
Ġhon ors
Ġsynt hesis
n ear
Ġsup ern
Ġlabor atory
Ġspe aker
im et
Ġcomp anion
ĠL ions
Ġorient ed
ĠR at
ĠB ird
ig o
Ġsil ent
Ġinflu ences
Ġmonitor ing
Ġb ridges
ĠAd vis
ĠP or
Ġtrib es
c ache
] _{
Ġrad ical
ĠAd elaide
Ġoccas ions
Ġas ks
ĠB ert
Ġad ults
Ġ> =
ĠCre ate
Ġ rib
Ġspirit ual
Ġhel ic
const raint
en burg
Ġcount ing
Ġpro xim
C ho
Ġsh adow
Rich ard
per iments
Ġtravel ed
M ad
ĠT on
ĠM az
Ġde bt
ĠI da
ĠÃ ł
Ġf ighter
~~~~ ~~~~
1 18
W R
f ocus
Ġpe er
Med ia
tem perature
ict s
ic z
\ -
l ies
Ġregular ization
) }^
s outh
ĠCh and
ĠBer keley
Ġb io
ateg y
Ġcal ibration
ĠP le
F ull
ren ew
Ġst retch
Ġkey boards
it ations
Ġsh ifts
Ġmod uli
Ġregard less
autore f
ĠShe l
Ġreported ly
Ġsingular ity
Ġweap on
Ġorgan ised
em pl
Ġparamet riz
~ {\
ĠC lay
18 30
ff ee
st ellar
ĠCra ig
Ġt act
Ġsh apes
ov an
Ġreport ing
ĠBroad casting
ĠConst ruction
$ =
Ġqu arks
Ġc ash
is i
j or
Ġbo ats
ĠB ath
ĠCh i
Ġpref ix
Ġt ension
Ġlocal ization
================ ================
ĠL ost
Ġproport ion
Ġb orders
Ġform ations
Ġadvers arial
em e
ĠK ra
Ġcontinu ously
Ġcap s
Ġsupp lement
ĠH udson
Ġinn ov
Ġcomplet ing
Ġsurpr ising
ol in
med ia
Ġmem or
27 0
quant um
ĠC ad
Ġcred its
ment ioned
ater al
Ġent ities
Ġev ol
Ġbox es
Ġbroadcast ing
ĠT as
p f
Ġf led
Ġnav igation
S ir
ĠS Ã£o
ĠRe yn
Ġwork er
ĠPro p
Ġref ere
Ġscient ist
od ic
' (\
ado op
ĠL ock
Ġext raction
il ia
ĠLeg end
ĠG ate
Ġobserv ational
ĠHer z
n l
Ġphot os
v m
ĠOrig inal
sect s
con nection
On ce
as m
B re
Ġdes ire
ĠB lood
Ġann ih
Ġs alt
Ġneighbour hood
ĠA uckland
Col lection
Ġembedd ings
ĠĠĠĠĠĠĠĠĠĠĠĠĠĠĠĠ ĠĠĠĠĠĠĠĠĠ
Ġminor ity
Ġsupercon duct
ĠIndust ry
al am
}$ ;
Ġcomp ression
ic ious
Ġcooper ation
W indow
ĠMuslim s
Ġo ct
' -
Ġg overning
ĠS ask
ib n
ĠSy ria
Ġx ml
ĠRob in
Ġphys ically
Ġch apel
ĠSpr ings
ĠD iamond
Ġrel ating
cl oud
ĠArmen ian
Pl an
d ebug
e or
ĠArt ist
Ġext inction
ĠM end
Ġcomment ed
ĠS A
Ġdelay ed
Ġdis sol
ĠP DF
Ġp ictures
ĠS ay
Ġ urg
Ġphys ician
Ġcontest ed
igh bor
E conom
ĠT i
Ġhand ling
Ġten ure
at om
ĠC ole
ĠAthe ns
ip per
ampl ing
K O
ain s
tab ility
effic ient
ĠDi ocese
ĠHe avy
group Id
Ġcomp ound
Ġprot otype
ĠT R
Ġclass ifier
ĠCirc uit
D ay
ĠC rim
ĠT ib
Ġover view
Ġlook ed
vol ume
Ġg all
Ġsimpl ified
ĠM ason
ĠPun j
Ġcl ouds
ĠEn cyclop
ĠMar vel
ĠK ol
be h
E V
im eter
sk a
h ou
Ġstrugg le
Ġfest ivals
}} +
Ġcompos itions
ĠI ss
Ġop ponents
Ġsol it
4 50
i ot
Ġorgan isations
Ġdist inction
ĠM idd
ĠMach ine
ĠL en
ĠGl en
ĠTechn ical
n p
co in
ro at
W F
c b
her s
M atch
ic ons
ĠMer c
p ref
Ġprim itive
ĠArgent ine
ĠB right
ĠAb bey
ĠComm ons
Ġdetermin istic
ĠA I
ingu ished
Ġsummar ized
ĠR ange
ĠH ob
Ġkind s
Ġalcoh ol
ĠL is
ath on
OR M
}} -
ĠN iger
ĠCroat ia
th y
iz z
ĠC atherine
ĠMov ie
Ġob j
at ra
ar an
185 8
Ġaccom p
te am
Ġrespons es
ĠM ann
ĠSocial ist
qu arter
ach i
ĠS or
ĠM ust
Ġcoach ing
aut o
J son
ĠH ann
) /\
B T
Call back
}) (
ract ed
ir th
ĠRepresent ative
ĠAzerbai jan
Ġvol can
Ġcateg or
" ))
ĠM asters
Ġdisp lacement
D ou
z ig
ĠCr ime
R et
equ ate
ij i
Ġweek end
Ġn um
ĠR ou
Ġcoal ition
Ġcheck ed
ĠT ask
Ġmodel ed
á ¹
Ġan chor
ĠV ermont
arg ument
Ġout comes
in ated
Ġaffili ated
bigg r
Ġelectric ity
ĠP ont
R ivers
Ġt ube
ĠPar alymp
che l
15 00
Ġm as
bra ham
uch i
& +
ĠP av
Ġel ab
ra pped
ull ivan
Ġf ur
P eter
d ig
ran o
Ġuns igned
re leased
Ġout flow
ĠEd wards
eng ine
ĠGerm ans
dr iven
Ġdis cre
play er
f eld
Ġ( .
Ġphotograph s
Ġfamili ar
Ġev ac
hand ed
ĠL ion
ĠSim ilar
for ced
ĠHer bert
ĠPro of
185 4
Ġtr im
] ]
or ne
ri en
}}\ \
od ore
leg iate
i ology
ĠJ ess
chi at
Ġt ribut
Ġd otted
}} ^{(
Ġview ers
Ġpro spect
former ly
ĠSh aw
ĠH ugh
ht bp
Death s
ant um
ĠK ath
Ã± a
oper ator
Ġdu o
ĠF unction
Ġap artment
ĠPh D
u in
Ġplay offs
Ġens ures
c ritical
ring ton
'' .
ĠNAS A
ĠN HL
Ġobser ver
Ġdef ending
Head er
ĠEx pl
Ð¾Ð ²
AN D
ĠT ree
Ġprem iere
ĠB rew
ĠDiv is
Ġinher ited
^{ {\
} "
S n
ĠCont emporary
ĠB lu
art icle
Bo oks
Ġex port
t is
Ch arts
ex act
ĠH ope
Ġal ph
Ġreg ulations
Ġacc laim
ĠI F
d ays
Ġsymp lectic
}] $
const ruction
Ġdip ole
T otal
ĠJeff erson
Ġassess ment
ĠN an
as ant
ĠC C
ĠS ak
Ðµ Ð½
b ing
Ġrad ii
Ġeffect iveness
Par ameters
ĠBudd hist
ĠPeters burg
ĠF if
id ency
=" _
Ġgu id
ol ition
ĠC incinnati
r if
Ġposs ession
on ies
ĠM ut
Ġmuseum s
ĠS I
185 6
ĠG rade
Ġstrateg ic
it ro
ĠCons erv
ĠFin ance
ĠCh o
tra ining
el o
+ |
ĠPen insula
b ast
Ġfraction al
Sing le
Ġmotiv ated
, (
g it
ĠKen ya
Ġor ange
Ġpurs ue
ĠE rror
re ction
am ination
fra ction
/ .
res olution
Ġ$ -\
on line
op ing
ĠL oc
ĠP sych
equ als
pl ant
18 55
c est
[ {\
rag ue
Ġ ions
ĠS ide
Ä Ł
ĠC ox
Ġed itions
over e
Ġcommand ed
Ġer ected
ĠEth iop
up lic
Ġt ort
Ġspec ify
n as
ap plication
ĠB eck
H ash
p aper
Ġg ymn
det erm
Ġreb uilt
ĠPers ian
Ġk it
w ind
Ġstream s
Ġorig ins
ĠR AF
w i
ĠNep al
Ġlab our
Ġnucle us
Ap plication
g om
Ġinter cept
Ġconcer ts
Ġsurve ys
L ive
Ġmod ular
Ġexclud ed
ard ing
}{ $
Ġpar ks
U LT
F l
Ð ¹
Ġdec ides
set length
Ġenjoy ed
Ġenc oder
it ual
ĠNor folk
ĠN ak
E ff
ĉ čĊ
Ġrel ocated
ĠBulg aria
ces ter
iss a
ur ated
ential ly
iv id
ĠW here
Ġex terior
b ind
ĠVenezuel a
Ġcap abilities
opt imal
ĠAd v
ĠIndust rial
Ġaver aging
und les
Ġing red
Ġdet ectors
ĠCh air
F lo
ut er
inem atic
ĠOper ations
Ġefficient ly
ĠKe ith
Ġfarm ers
tr im
Ġf antasy
Ġmin es
ĠÃ ģ
ĠCom b
Ġco ins
C ity
V ector
IG N
) ~\
Ġsurv iv
ĠPro file
mid t
Ġchem istry
cc entric
Ġident ifying
up t
par a
ĠFil ip
inn ed
C ore
ĠChrist ians
ĠG ay
Ġliber al
ĠScient ific
ĠCo al
s ys
ĠGal actic
Ġprom ising
Ġconsist ently
F rank
ĠN OT
Ġmoment a
Ġsup plied
ĠS ep
Ġdr ift
ub a
ur as
Ã¶ n
ĠD ocument
Ġsub str
ĠAng lo
185 2
qu ality
b ibliography
C a
ĠC F
Ġcl othing
pos itive
Ġrot ating
Ġengine ers
Ġc ricketer
Ġvari ability
ĠC L
doc s
> $
Ġinit iative
end a
Ġhead er
end ers
ush ing
ro e
ph ys
tra ined
V A
th lete
Ġconsider ably
en eg
ff bb
onym ous
ov sky
Sever al
Hel per
}} +\
ĠD est
ĠN at
Ġre nder
): =\
im an
vert ed
Ġvis its
ars ity
Ġind irect
Ġall ocation
harm onic
ĠDrag on
fol io
Ġn eck
aur us
Com b
Nav Bar
Ġbi ography
Ġc argo
Ġparticip ating
Ġpe oples
Ġconn ects
Ã ī
ĠC M
ĠD og
count ry
ri er
Ġqual ify
}] \
B ul
T ool
G D
ĠMag ic
u cc
Ġcertain ly
Ġint ellectual
ĠAl ong
Ġexhib ited
ma xim
ĠMoh am
f ony
ĠG as
ĠPr uss
Ġgrand father
âĢĿ ,
ic us
Ġorigin ated
Ġhomot opy
d omin
Ġpack et
E r
Ġto mb
Ġs ends
ĠT ake
Ġ icon
ĠHe in
Ġsk i
k ens
ex cept
sm ooth
Ġt orn
d irection
pan el
eff ect
Ġflav or
Ġthink ing
Ġmanufact urer
D er
Ġm igration
ĠPer ry
ĠMunicip al
we ek
ĠY uk
Ġcomput ations
ĠA ber
W in
er ts
ĠM Ã¼
Ġinf o
Ġconver ge
ï ¼
Ġpost s
Ġinaug ural
ĠA viation
ĠP M
ĠO ct
comp ass
Ġtal ent
ĠMah ar
Ġvir us
ĠC ot
Ġatt ending
ĠG ang
Ġdis ks
f ramework
ĠM oz
ĠHor se
T ests
ad r
Ġfor th
Ġdem ands
Ġtourn aments
ĠEag les
ĠBris bane
St ore
Ġpay ment
Ġprep are
G rand
ĠP ast
ĠQu est
qu ark
K K
ens ing
Ġspons ored
Ġdevelop ments
Ġdis band
z b
Ġb om
") );
akes pe
Ġdefend ers
ul ates
ĠIn v
iz a
ĠAngl ican
ĠS earch
ĠW alt
ĠEl li
Play ers
ĠHen ri
Ġcivil ian
ĠDel aware
' ,\
ĠMad ison
Ġop ponent
W il
uls ion
ĠMur phy
Ġfor wards
Ġcl ip
inc eton
N a
ai ro
m itt
Ġf ir
Ġg ift
ug ins
Ġcon ductor
Ġex haust
Ġtot ally
Int eger
pl ugin
h yp
ĠM ul
c rit
Î ¿
Ġmat ched
Ġout standing
Ġspecial ized
Ġrot ational
ĠH av
Ġtrad ed
ĉĉĉ Ċ
ĠProte ction
ut ter
ĠW ik
Ġmurder ed
Ġbright ness
Ñ ĩ
Ġs oul
Ġrare ly
Ġshe et
m ix
G a
ĠS ou
Ġvic inity
Ġwor se
est amp
Ġrecip ient
zh ou
Ġdiff ers
J ose
Ġconsum er
Ġcycl ic
ontr ivial
Ġre tain
Christ ian
Ġsympt oms
Ġr is
_{ (\
Ġconcent rated
e u
ĠD ir
Ġdwar f
ĠVal ue
ĠB our
Ġaddress es
Ġsy nonym
Ġmaintain ing
Ġoccur ring
l ia
ht b
ĠL arry
ĠA x
SI ON
ÑĢ Ð°
g ls
Ġplan es
Ġaccur ately
12 4
), (
C amp
T itle
cl uster
}, \\
Ġd ot
ĠB av
ĠP in
Ġrel ies
Ġm or
Ġrespond ed
}\, ,
Ġintrodu ces
hand le
it arian
Ġsubsidi ary
ĠÅ ł
ĠW ed
au kee
Ġman ual
Ġre ven
ub s
Ġre ject
Ġinf ra
ass oci
ĠR ey
h adoop
dep th
o j
17 5
ĠPro blem
ĠHis panic
ber ger
Ġj av
Ġbl ind
B al
Ġmod ify
ĠS ang
Ġg ross
^{ *}
Ġph rase
Ġband width
spec ies
ĠL ux
ĠBe h
\' {
Ġleg islative
ĠLabor atory
Ġwe aring
Ġc ogn
iv ities
Ġant icip
import ant
}$ $
Sing les
P rom
ir us
Ġabs ent
ĠS ox
ĠTh ose
ĠA ctor
Ġsole ly
is an
Ġcoinc ides
H ig
Ġread ers
Ġuniqu ely
ĠJ ar
Par ams
Ġb at
e per
it atively
Ġlogarithm ic
L M
ĠT oy
el astic
is o
Ġsound s
om ial
Des ign
Ġgu ilty
Ġer g
Ġsp end
}_ +
ĠInt elligence
ĠHig her
co ordinate
st ation
ed u
Fig ures
}} }{\
ant ics
ma kers
Men u
Ġas ymmetry
Ġexper ts
comp at
Ġpat ron
Ġver ified
ct x
Ġn inth
Ġbr ings
f g
t z
Ġdual ity
7 50
Ġamb ig
Ġsec ured
Ġr ated
ĠS outheast
ar is
Ġuncer tain
Ġdeg rad
ĠG ust
Ġexc av
Ġg od
ĠSch w
u ador
b ie
av ior
Ġcoinc ide
ĠB A
Ġmake up
ĠBob by
ĠS uz
Ġprov inces
Ġle agues
Ġw edding
Ġt ies
ĠM Ã©
Ġce ased
Ġcyl ind
renew command
grav ity
D utch
ĠAnt i
Comm unes
Ġwithd rew
Z Z
sur face
Ġjuris diction
Ġachie ves
ut a
Ġen forcement
Ġ\, .
E u
met ric
Ġar ising
Ġconjug ate
v or
Ġover come
F our
l iga
M ot
M el
â ĪĴ
ĠFri ends
Ġcommut ative
Ġvalid ity
Ġthr one
ĠSh adow
ĠG lob
marg in
) <
c aster
P arser
S ettings
Ġsus cept
ĠL ink
Ġp adding
apt ers
ĠMan ager
Init ial
st own
ĠĠĠĠĠĠĠĠĠĠĠĠĠĠĠĠĠĠĠĠĠĠĠĠĠĠĠĠĠĠĠĠ ĠĠĠĠĠĠĠ
repre neur
e ing
Ġoption al
ĠJ oint
ĠI ma
Ġst ops
ill es
o ard
cep table
ran es
con vex
12 1
akespe are
Ġqu bit
ĠSt even
Ġminim ize
D ir
ar ma
uc lear
ĠNot ice
ĠDr ive
ew ise
ĠP rice
Ġreprodu ce
S W
Ġpla in
re lax
Ġmat hematic
ĠFlore nce
a ire
Ġcl an
Ġinst ructions
Ind eed
us c
ĠW ag
Ġ ×
ĠInt eg
Ġadapt ive
col head
em ark
; ->
ĠLead er
G lobal
ĠCh ange
Ġpla cing
ĠCamp aign
Ġmanag ing
Ġmer ely
ov en
ĠDen ver
Ġwalk ing
process ing
Ġr ide
ĠSt uart
Ġtrad itions
Ġf ro
Ġfast est
Ġadj oint
Ġm os
Ġse ctors
Ġinf ection
Ġpal ace
ĠC ore
Ġrepe at
em in
2 10
Ġthe rapy
con j
b les
V C
am ic
Ġe le
Ser ial
Ġdisestab lish
Is rael
h agen
g tr
s ig
ĠGe or
Ġbelong ed
ĠProdu ctions
O h
Ġcons ensus
Ġvol leyball
I ter
ĠChristian ity
iv ic
vect ors
B ob
ĠSy l
Ġgra in
the se
de velop
K ind
ac a
Ġjoint ly
Ġlearn s
ogg le
ab atic
}} }}
Ġchar ity
Ġleg acy
ig roup
Ġident ities
st ration
Ġcyl inder
Ġpl astic
uc ks
ĠWars aw
Ġdanger ous
F ar
ĠV ill
ol en
w aukee
with out
Ġgovern ed
ĠA round
ĠE C
O bs
ĠO il
io let
Ġinv oke
Ġ\| _{
de lete
Ġnar rative
Ġviol ent
Ġ" \
Ġmanufact urers
fra g
Ġcampaign s
ot ions
Ġgrad ed
Ġb anned
Ġobserv ing
Ġign ored
und a
Ġcustom er
Ġcons c
Ġdrum mer
185 1
Ġpar ity
ĠBut ler
Ġplay wright
ĠPr ivate
ĠR oche
por ter
ener ate
B ro
at ri
AC E
F rance
Ġneg lect
Ġr id
, }
ĠD od
ĠA B
y y
sw ick
az e
ta ken
}{ $\
l r
18 49
ut ton
ĠSt ill
ĠK ay
Ġdisp ers
ĠMax well
q ed
ĠL ook
Ġdes ert
Ġmicro sc
Bus iness
Ġover ride
ans k
Ġput ting
P y
ĠArch bishop
Ġscatter ed
Tem plate
Ġth ir
Ġin ternet
Ġb ishops
Ġw ard
Ġall iance
ip edia
S ession
Ġto ured
Ġin hib
Ġattempt ing
ie u
p ay
ĠY ale
F ort
der iv
Comp anies
ĠCap it
ig ion
Ġdismiss ed
Ġprov ing
Ġassist ed
ĠIn stit
Ġconf ront
Ġim perial
vel oc
Ġf abric
Ġsla ve
L ight
Ġfin ance
ĠChe l
Ġassum es
R ule
ĠCons ervation
Ġdegener ate
f ilm
ĠInd ependence
' >
ĠC hern
m other
ach t
Ġsimpl est
Ġinstall ation
Ġbeaut y
chang es
Ġobtain s
Ġd iamond
Ġrev ised
Ġinter fer
lo ok
( $\
Ġstand ings
ĠWat son
ĠH ale
ars on
ok u
ĠHar old
ĠGra ce
Ġt anks
ĠTh ai
{ %
Ġperm itted
}} _\
14 4
Ġear ning
Ġi i
ache l
L ike
ĠR aw
AC T
Ġse eds
ĠG ilbert
Ġb aby
Ġrefer ring
Ġpower ed
ĠNot able
ĠHel en
ĠCy cl
Th m
Ġsculpt ure
Con clusion
Ġf asc
ric ks
ĠD ennis
Ġremark able
eth yl
C la
Ġde lete
Ġbor ough
ĠJ in
Ġin formed
ĠCh apel
oc ate
Ġneutr inos
act eria
Ġscholar ship
eff ective
Ġt ons
Con f
ĠFran Ã§
ĠQu arter
foot er
ĠCru z
5 12
Pres ident
N etwork
Ġmod ifications
y ou
ĠU ser
ĠArch ive
Ġbe et
Ġtrac es
Class es
Ġsong writer
Ġcon greg
Ġsp ins
ipp ing
hold ers
( *
ĠN ear
ĠBaron et
Ġl ad
ĠHug hes
unc redited
ĠEx ception
Ġdisput e
f ers
ĠR ivers
}$ ),
Ġscal ed
Ġrad iative
ĠL ac
18 47
Ġalign ed
ix el
Ġsub urb
ĠS ic
ms g
ĠLe eds
n orth
all ing
Ġf ract
Ġrun ners
by ter
ĠS alt
ĠHeb rew
Ġe mail
iv ariate
ty p
ĠTh under
ĠPro duction
Ġt um
Ġcont ents
ĠPed ro
Te am
F ictional
Ġaff ects
ĠK rist
M ont
var pi
ena issance
Ġess ay
Ġb es
h istor
ĠS oul
h ome
Ġguarant ees
-- >
Ġimm igrants
2 30
ĠS NR
}^{ *
ript or
ĠW as
Ġapproxim ations
E F
Ġb ins
Ġread ily
Ġcurrent s
Ġcharacter ization
con nect
r arily
Ġflo od
ĠN R
add ress
comp are
M ean
Q ual
Ġl ying
Ġfor b
ĠD rum
ĠBulg arian
ar th
ryst al
Ġunsuccess ful
185 3
ĠEd itor
ĠLeban on
Not ice
Ġdirect ory
anc el
Ġcomplet es
Ġpreced ing
% ;
C at
ĠS ierra
row th
Ġhonor ary
ĠLe o
Ġgrad ients
Exp ression
B a
Bl ue
Ġreview ed
I rish
Ġreflect s
ĠEXP ECT
et ics
v irtual
ĠR alph
Ġdef ic
atche wan
ĠOt tawa
t ures
. -
ĠPro f
S oviet
}) }\
Ġcut off
ats u
Ġreason ing
Ġrem n
Ġsingular ities
Spec ial
am pton
co q
ĠD elta
Ġbelie ves
ĠArab ia
ent o
names e
Ġco ok
Ġsurv ival
ĠB ald
cho ose
Ġlist en
Ġbe ating
l st
H H
Ġp ushed
osp el
Ġwar ning
Ġel dest
eq q
ĠStan ford
Ġo s
Ġinter change
ĠM ake
Ġcompet itors
P tr
- {\
s ession
il o
ĠSoft ware
Ġg re
Ġc emetery
Ġappro ached
Ġprodu ctions
Sm ith
ĠEnvironment al
P G
Im pl
Ġdisestablish ments
M ex
Ġwas te
P ool
S port
iv o
ĠG or
ĠWe yl
Ġconj unction
Ġcond em
Ġass ists
Ġsl ot
Ġ å
ĠP od
ros so
Ġop ens
ĠHar vey
cl ick
Ġdraft ed
Ġcompris es
ac ional
Ġ* )
)) )
Ġp in
ĠRo om
Ġhelp ful
P erm
at um
`` ``
Ġc umul
}$ :
ĠWell ington
ieg e
ĠHT ML
Ġp ale
vers ely
Ġbranch ing
song writer
T reat
ĠJ en
Ġthe sis
Ġint ens
Ġexplos ion
Ġtarget ed
ĠFin ancial
Ġm ild
^{ [
tagon ist
ĠBG COLOR
Ġal le
ĠSus an
Ġren ov
w ild
ĠCong o
ĠSt ef
ĠBe aut
ew ay
Ġswit ched
) ~
Ġsett lers
ĠRh ode
Ġa ster
ĠMond ay
ĠArn old
E rr
ĠA T
Ġem peror
ĠVir t
est imate
Ġexam ined
ĠProtest ant
Ġtradition ally
isc opal
B etween
12 2
in line
Ġke V
C AR
Ġquant itative
Ġmanufact ured
top rule
outhe astern
Ġaccomp any
Ġprom oting
ark ed
s ens
Ġsimpl er
ĠC ant
Ġatt ractions
Ġdecor ated
ĠScot ia
Ġbatt alion
ĠA er
ĠF ighter
Ġdocument ed
Ġinterview s
ĠAp pro
S eg
ern ame
Sy mbol
Ġnegoti ations
Ġsp ots
Ġinj ection
h all
+ }
ĠAb u
ĠB S
imens ion
Ġrepeated ly
Ġsp iral
Ġcont rary
diag ram
Ġearthqu ake
Ġflight s
ĠR av
r k
ĠH em
bibliography style
ĠAl lied
ĠLat ino
Ġdep ression
F B
cur ve
p b
ĠRel ations
Ġs aint
ĠK in
). $$
Ġtri angular
Ġisot ropic
om atic
] ^{\
qu ote
Ġindust ries
H as
Ġb ay
az i
ĠArchitect ure
ĠWal lace
Ġcop per
ĠD ictionary
Ġrep orter
ĠDou ble
ĠVen ice
ie v
h m
ar in
Ġr ub
Ġincor rect
Ġs ang
Ġtra p
Writ ers
) },\
U L
ĠLu ke
ig ate
Ġexponential ly
ĠByz antine
X T
or bit
ĠCh an
U r
Ġh orn
Ġattract ive
Ġsn ap
ĠZh ang
R ugby
on na
}) ^{-
O O
c ustom
Ġpers u
Ä Ļ
| {\
ff ield
Ġinc umbent
d ue
Ġinsp iration
isc her
ĠRev ival
L ondon
im o
ob i
Val ues
ĠB un
M W
Ġreal ization
M ah
ĠB ak
P RE
if inals
Ġt ruck
Ġarrang ements
ĠWork ers
Ġ[ '
Ġpair ing
}\, .
re view
er ver
str ument
Ġcomp ounds
ON E
Ġlong itudinal
Ġins ight
G ood
Ġ )\
ĠTre as
12 6
]{ ./
C rit
Ġcor ruption
ĠO cc
t racks
Ġir regular
G ET
Ġsh ield
om o
Ġm oral
hy dro
ĠGuard ian
ins ert
b os
au chy
pend icular
ĠS W
P H
ĠEr nest
isher s
ĠM ort
Ġdial ogue
gtr sim
ind a
- $\
it ars
Ġbut ter
Ġbut ton
Ġsum s
amb ers
am y
ist ance
^ *}
l brace
Ġthere after
3 000
ĠEconom ics
ec ker
ĠB ag
G AN
ĠT ed
are a
Cent ral
! !
M eta
Ġeconom ics
Ã Ĺ
ĠC row
): =
elect ron
Ġt on
ĠJ SON
Ġen compass
s per
Ġhun ting
ĠO g
ĠArt ists
ĠE mm
le igh
omet er
Ġmag ic
L iter
ard i
Ġtim ber
Ġa mm
Ġwas n
Ġra ising
gom ery
b org
Ġl ibraries
Ġtravel ing
Ġorgan ic
Ġencounter ed
ro oms
Ġpro g
Ġch ron
ul atory
18 46
iffer ential
Ġv in
Ġgener ations
$ /
f und
Ġcontract s
Ġe ccentric
U RE
H ouses
sh ifts
Ġtreat y
Ġanom aly
Ġint u
c n
Ar gent
con e
Ġdesign ation
ĠB ach
Ġinfra red
ĠP aper
Ġn ontrivial
Ġsubstant ially
ch ildren
Ġabsor bed
p q
iff s
oc ols
G ra
Ġequival ently
ĠFried rich
i ast
Ġ ell
Ġpres erves
Ġshop ping
ĠW ald
clos ure
c op
s ay
Ġd im
ĠGro ve
ĠSh akespeare
ĠManu el
Austral ia
Ġj ury
om i
\, $
R ock
ĠD h
Ġinvestig ations
b racket
Ġrecogn ize
Ġsus pect
}} ^\
am ous
min ster
ĠStud ents
ĠNe il
\\ \
ĠAss ert
is che
Ġsk etch
lev ant
Ġde emed
Ġcomput ers
block List
resize box
Ġrestaur ants
ĠPaul o
tra ce
Ġdo ors
ĠB ear
Ġglu on
DB LP
Ġasymptot ically
ĠN O
Ġt ill
Ġvari ational
e eq
ĠS par
Ġemer ging
ĠKer ala
Ġa qu
Ġassoci ations
ĠA ra
Ġthr iller
y u
f urt
Ġconven ience
ĠK ash
aw s
Ġar row
Ġ+ +
N umer
ar u
Ġspeak ers
orient ed
Ġre organ
iz ard
hom ogeneous
p ic
Ġshall ow
Ġcor on
uck er
in ery
class ical
Ġdevi ations
Ġeg gs
raise box
=" /
l ift
ĠAd vanced
Ġinv alid
L ove
ĠBay esian
)} =\
ĠMal ay
}} )\
the y
ex port
$ }\
Ġrobust ness
Ġsub graph
ĠChe ster
{- }
h im
Ġphys ic
M ur
Ġal ive
en o
Ġdram atic
ĠK il
Ġdiv ide
Ġconsequ ently
ĠNap ole
ĠR ah
ira ble
na issance
ĠArt icle
n ob
ĠQ ual
Eng ine
ĠShang hai
Ġdemonstr ates
L ee
R est
S cale
d an
ap est
ym atrix
ĠDemocr at
Ġ à¤
ĠM ik
Ġl ag
ĠS ex
E ducational
Ġcou p
' ],
Ġevolution ary
e V
Ġdecre ased
se lected
ĠLi u
ĠW i
ĠBrun swick
ĠN N
Ġadd s
Ġim plied
iss ible
m ade
Ġsuperv ised
5 000
{ |\
Ġst ere
ĠNash ville
m iddle
Ġarr iving
v dash
W indows
ĠAir lines
scal ebox
AG E
N OT
ĠS ource
Ġrecogn ised
rep lace
Ġto uring
Ġob sc
Ġcons olid
ĠArch ives
Ġplay off
Ġinv ariants
Ġcut ting
ĠK i
Ġs isters
ish a
Ġfeel ing
Col lege
ĠPhill ips
ail ing
' }(
ĠMe chan
Ġinterp olation
\\ [
Ġpredomin antly
d c
Ġt ribute
f oo
em ail
)$ }
Ser ies
Char acter
B ound
M il
Ġd elta
ĠG T
ĠForm er
Ġflux es
Ġh ull
Ġcent res
Ġl os
Dev ice
ĠI T
H or
Ġres ort
Ġpit cher
S un
ĠK l
ĠDer by
Ġdist ant
At l
ĠGreg ory
cos h
ĠStud ent
d ra
Ġth orough
ag i
Ġapproxim ated
ĠCroat ian
I E
d if
Ġtempor arily
ord ination
Ġpar se
L ittle
bo ys
Ð ·
Ġa z
Ch annel
Ġhapp y
ĠH az
b et
Ġatta ch
ĠG C
ĠAr c
ov ina
E ven
ers hire
ĠR ot
Ġinit i
ex pl
S ocial
eg al
S en
h art
Ġstream ing
ĠT ax
S tack
Ġsusp ension
^* (\
Sh ow
Ġas king
Ġg athered
ĠFilm s
Ġoverse as
Ġrad ar
An n
ĠCl if
Ġaff ord
oot s
= }
Ġweak er
Ġcap ability
ir ts
com ponents
ĠM obile
b is
w alk
ĠĠĠĠĠĠĠĠĠĠĠĠĠĠĠĠ ĠĠĠĠĠĠĠĠĠĠ
Ġaware ness
Ġrec alled
Ġpropos als
Ġr itual
ĠS H
w ent
Ġh o
Ġto urs
}\ )
ĠPal mer
ĠObserv atory
Ġadvent ure
comm ut
Ġnovel ist
ĠM ills
ĠReyn olds
s ized
ĠCard inals
al ong
ĠN athan
ĠBel arus
ĠMar qu
ev ents
lim ited
Ġemphas is
F alse
act ing
ĠEdd ie
sum er
Ġe V
ĠBund es
Ġse vent
ĠA braham
Ġalph abet
ĠĠĠĠĠĠĠ Ċ
Ġel igible
Ġint ense
ĠC T
Tax onomy
g as
ĠFor um
ĠT HE
Ġpop ulated
Ġbon us
âĢ ¢
w p
ĠM uch
() :
Ġarr ives
}) :
Ġhand led
Ġs itting
am ation
av or
Ġem otional
ĠNew castle
Ġguid ance
ĠSh in
bo oks
ĠP on
Ġrenormal ization
la ces
Ġdepart ments
Ġsent ences
Pro duct
ĠConfeder ate
ĠRay mond
bu ilt
ERR OR
Ġperturb ative
Ġaccommod ate
}= -
Un incorporated
Ġfl ash
Ġplan ar
ĠLeon ard
ĠRes ources
Ġpol es
it us
ĠÐ ¿
Ġsubmar ine
R ay
ath i
Ġst ake
h is
ar ound
miss ions
m or
Ġtrans mitted
Ġm amm
ĠSi eg
Ġab bre
ĠK as
Ġr um
T ri
ĠOb ama
C r
f ar
ac les
Ġtermin us
ĠMer it
abil istic
ĠTas man
to String
Ġimpro ves
ĠTun is
ott ingham
Ġper pendicular
sin h
Ġor n
r ators
ĠS oon
Ġque ue
idel ity
ĠT ong
IM E
opt im
Ġmemb rane
Ġgu ests
Ġ\ )
Ġcomb in
ĠSe an
Ġscreen ing
Public ations
C ities
con c
Ġfilm ing
Ġmon op
ĠP ick
lect ric
ĠF low
vel t
Transport ation
ĠSud an
Ġb alls
S uch
Ġdebut s
Me V
l ive
Ġdis abled
ĠE SP
Ġatmosp heric
Ġbl ues
ĠS oph
Ġbrand s
eg u
Ġleg it
Ġ( *
Ġdiscrim ination
ter ms
ĠY a
? :
ack nowled
i est
empor al
Ġpredecess or
ex pect
ĠL A
Ġfif teen
}) ^{\
w yn
ĠPlan ck
Ġwealth y
trans ition
c am
Ġvis cos
Ġtrav elled
Ġconf usion
Ġfavor ite
Ġconsider ations
Ġelimin ate
g us
r brace
umb le
Ġp ul
em ies
v v
sat z
tern oon
bo at
Ġmer ge
ĠG y
Ġaccord ance
~~ ~
Ġguarant eed
Te chn
K A
Ġpull ed
G reek
Ġcorrect ed
ĠWil helm
ĠR osen
F ac
Ġb ind
se en
Ġde ck
)) =
ĠEd ge
Ġhous ed
Ġswitch ing
+ {\
ry s
G F
ĠArm ed
Ġtick et
b ootstrap
ĠB esides
flu id
Ġsk ew
ĠCoul omb
] }\
Ġf raud
Ġmon astery
Ġdef inite
Ġrat ings
Ġinter vention
Ġc attle
Ġtra ct
f x
ĠG olf
H am
M r
Ġcal endar
R oute
bound ary
Lou is
Sche dule
Ġun likely
}. $$
sw itch
Ġgen es
Ġis n
Ġreg istration
Ġtal ks
Ġcert ified
ph ysical
ue z
Ġprov ider
ĠF lying
ha o
el ia
col l
ĠCommer ce
Ġenvelop e
Ġpet ition
ĠP and
Ġim plications
Ġsens ors
Ġro ster
ĠDivis iÃ³n
ĠBenn ett
ut ely
Ã© r
ĠS ul
OR D
Ġprior ity
Ġcamp s
Ġseem ed
g rim
umb ai
ub ert
ĠG W
M ill
W here
Ġinternational ly
ĠH at
Ġto x
it an
Ġb la
18 45
ĠK id
Ġconstitution al
f ive
ich let
i racy
ĠL HC
ĠW ells
not ation
Play er
Ġhospit als
S V
Ġt idal
ĠT otal
Ġb one
Read er
ĠBab y
Ġutil ized
enc ia
ly ph
Ġdiplom atic
Ġadd itive
Ġres erved
Ġoptim ized
ĠC ork
m icro
Ġknow s
ĠP rague
ĠG raph
t p
oc ene
Ġâ ĨĴ
Ġdiv is
h orn
ĠC opy
Ġsl opes
ou x
ĠAl t
I reland
Ġfun eral
Ġund efined
st ead
ĠW onder
os lov
ĠAn cient
ethe less
ĠS V
Ġbas in
ĠLe vel
pro j
Ġmultiplic ity
depend ency
Ġun f
ock er
NR AS
Ġexhib itions
X Y
m aterial
Ù Ħ
14 5
l g
. ).
00 2
U k
ĠB eth
}. $
Ġpre st
ĠP ul
od or
Ġunder go
Ġtrend s
W estern
ĠG host
per m
ĠIn s
ram es
J im
av ier
cor rect
ĠS elf
}; \
Ġg amma
Ġr uler
Ġfacilit ate
ĠR us
m art
p atch
ĠCam eron
li um
Ġcol ored
Ġsynd rome
ĠE sc
ĠE M
Ġbirth day
is ers
Ġstri king
c ity
d ynamics
cor relation
ĠSask atchewan
Ġdig it
OC K
S ta
Ġc ave
Swed ish
ish i
ĠJ ak
19 2
Ġâ Ĥ¬
Ġ Ø
prim ary
by te
Ġout door
Ġr iding
x ymatrix
ĠS lav
ĠA ires
row ing
Ġl akes
Ġ" [
Ġ }(
uss els
ĠAnn ual
ĠEc uador
Ġin coming
ĠPalest ine
Ġg rants
Ġrem ix
Ġexperiment ally
ĠF at
Sym fony
in formation
Ġdetermin ant
Ġdis aster
lement ation
ĠRh odes
ĠPro perty
ĠTe V
Ġenhance ment
## #
Ġland ed
ĠSing le
l ived
Ġs av
ĠCom plex
un i
Ġaccept ance
ph ib
Ġin ert
Ġincorpor ate
M s
ie ve
D IR
| }{\
Ġvent ure
Ġby tes
Ġacqu ire
ĠK rish
Hen ry
ric ulum
S B
p adding
ic ia
el ing
d ie
Ġcommand s
Ġa w
}{ !
g ie
Ġsail ed
ed itor
( :
sh i
ĠP eng
Ġbuild er
Ġm apped
Ġsla ves
c ia
Ã ½
ĠClar ke
AS E
ÅĤ aw
ĠL amb
s olution
Ġun con
ĠG ene
ĠM orning
bottom rule
c od
Ġche cks
Ġper ceived
Ġconstitu encies
Ġin line
ĠE ld
ĠK or
ĠKn ights
w y
im s
ĠHamb urg
ĠW atch
b eq
Ġdevelop ers
oun ce
Ġre write
Ġdef ended
Ġelev ated
che m
Ġno isy
Ġarbit rarily
I ts
L u
ath a
ĠCo hen
Ġdistinct ive
veloc ity
st ed
Ġsuccess ive
under brace
Col umb
Ġinduct ed
Ġkid n
A U
th al
] \\
ĠOt to
P olicy
In v
' ))
ĠV II
ĠS ob
Spec ies
Ġbre ast
t ry
Ġprom ise
Ġqu bits
Ġmole cule
P ower
ĠF ix
Ġme at
Ġconstruct ing
Ġkey board
ĠS ig
ĠL oss
ĠP rest
Ġmin istry
Ġfarm ing
B ad
pr us
osoph ical
Ġ Ã©
diag onal
Ġmet ropolitan
Ġrem arks
I ll
ĠHar bor
as ia
Ġco in
ĠCl oud
Ġcharacter ize
Ġpron ounced
ĠL ess
Ġg raphics
Ġreg ulation
Ġdiv isor
b ol
D O
M ary
Ġphot ometric
Ġm arch
\" {
Ġpres erving
Ġregular ity
ed o
A I
ĠDef ine
b ird
ĠV ent
Ġwrit ings
b x
nes day
ĠRevolution ary
M ountain
ĠCar r
Mult i
ĠD rama
Ġinteg rating
Ġfill ing
ĠOut standing
Ġtun ing
ic as
) *
Ġsp ont
H o
ĠSy rian
Ġescap ed
ad ier
r ift
Ġun incorporated
Ġsc iences
im ination
Rel ated
d v
g p
Ġn inet
ĠM B
ĠG amb
ov anni
Ġcommer c
Ġprof it
n ov
Ġmidfield er
ĠF ly
g auge
ĠS oci
ick en
Ġadvan tages
ĠDomin ican
Ġdou bt
Ġcol ours
ĠP ract
Ġresign ation
PR O
ate ver
ok o
Ġmain stream
Ġ\\ \
ĠO m
stit u
ur bs
Ġf ert
F re
um m
ĠNorth west
Ġt elling
umber land
Ġrect angle
Ġwill ing
to ols
Ġhighlight ed
$ ^{\
ĠDur ham
itt en
arch ive
att ices
ĠF ish
15 5
Ġathlet ics
ĠW inn
ook ie
fe ature
Ġhe x
Ġde als
il ateral
Ġa thlete
il ian
Ġcaus al
ĠGab riel
Ġqu oted
Ġtw ist
Ġimp ose
ĠFran co
ĠTransport ation
Ġcons erved
Ġult ra
im en
Ġover la
B ody
ĠS old
Ġreleg ated
Ġbal anced
ĠAmb assador
b ank
In ternal
Ġdescend ants
C ross
Ġco at
v ens
ĠEs sex
Ġor che
L D
ose x
Writ er
ĠSc ar
orthe astern
ĠAct ress
Ġvort ex
val uation
ĠE le
_{ {
ĠL aura
Ġbond s
lu ence
ĠGu ild
Ġfight ers
Ġtransl ate
ĠSt ore
)$ $
i ph
ĠS ho
18 44
oy age
Ġform ulated
ur c
ĠFellow ship
Ġep id
equ ilibrium
represent ation
f un
Ġcomplex es
at ial
rel ations
ĠD y
ĠS of
ĠAgric ulture
Ġco res
Ġmidfield ers
Ġsk ill
Ġcomp rom
}) }{
Ġab ilities
n al
ow der
Ġstop ping
Ġt ram
ĠR af
Ġspec ification
Ġdoll ars
="../../ ../
p aren
Ġtel escope
ĠB ears
13 6
Ġt enth
Ġun clear
Ġev il
ĠSw an
ĠPer th
Ġf iring
Ġf lags
ĠB ened
ĠO scar
3 20
Ġcan al
Am ong
d m
e igen
ĠO wn
at ics
13 2
Ġviscos ity
ĠR ams
Ġro cks
Ġattend ance
om ed
Ġaut onomous
group s
intend o
ĠIda ho
ĠFig s
ĠO ber
ĠV oice
ĠM old
P arent
[ $
ĠV e
As ync
f m
sec urity
ĠWild life
own er
ĠEncyclop edia
play ing
Ġcont our
ĠL ov
arm s
config uration
us a
Hand le
ĠB it
urs day
am ine
P ers
Ġlist ings
Ġmonth ly
ĠJo an
D oc
idel ines
ess ed
Ġ< =
ĠR enaissance
ĠDe b
colon eqq
Ġover head
oc hem
Ġsum mit
ĠS ony
om ar
it oba
ĠStock holm
Ġac res
ĠÃ Ĺ
ĠOrig inally
ĠH aving
18 37
on so
osp here
ĠPunj ab
Ġend ors
Ġr ice
}}{ (
Ġquant ization
Sche ma
Ġt issue
Ġneg lected
ator ies
ĠY ellow
Ġed itors
equ ence
Ġload ing
Ġn ephe
Å Ļ
ll er
ĠG alaxy
00 5
Ġs hed
Ġmod elling
ĠRe ed
ĠM ine
Ġachie ving
Ġpoor ly
ĠIndones ian
){ $
Ġs oc
h ref
acc ount
ĠL ex
= $
le w
ĠB R
Ġeng agement
rec ated
Ġsummar ize
Ġa viation
ĠGrand e
ĠA j
ĠMont gomery
ur se
Ġpar a
ĠTom my
ĠCo ach
ĠLeg ion
g ments
ill on
d ark
ĠAst ron
I X
ph ot
Ġrest ore
Ġmod ulation
B ill
Ġa xi
ĠN g
pe ction
Ġpl ates
c ott
ĠN A
ĠYugoslav ia
Con clusions
ĠPart ners
m atic
Ġin herent
Ġann ex
hel p
J ud
s ame
cal ar
Ġleg islature
Ġs iege
Ġhist ogram
T w
n ecess
Ã ¯
Ġd ots
ĠPlay ers
. (
Ð ¿
Ġign ore
Ġcart oon
ĠSp encer
produ ced
ĠD ale
ĠV il
ĠAh med
end um
Polit icians
Ġact ively
ĠHit ler
M Hz
Ġb if
Ġport ions
Ġc ad
ĠV ict
Ġpark ing
J ack
ĠAnd rÃ©
Ġpo ison
Ġfail ing
Ġencou rage
ĠKaz akh
com parison
Ġload ed
ĠJ ung
Ġe ase
re ens
Ġun expected
G T
b ers
> ();
Ġen rolled
zy me
Ġbos ons
ĠT rain
Ġpro jections
bor o
ĠL ipschitz
ro us
AT H
Ġpropag ator
ĠI O
Ġhyp ers
Pol ish
sett ings
p her
Ġpar am
ip le
Ġmes on
i ago
ĠP att
Ġ( [
ID S
on ing
p iece
Ġmeas urable
Ġburn ed
open hagen
oc o
Ġext rap
Ġfactor ization
al in
ĠAut o
Ġnames pace
algorithm ic
12 9
N um
Ġs ugar
Ġlog ical
18 41
Ġun ions
ĠD ame
ond e
ent on
Ġillust rates
ĠColumb us
ĠJ unction
it ic
Ġray s
ari um
th ird
ĠD aw
Ġwire less
rap per
ĠA aron
unc an
Ġb oss
C B
Ġbehavi ors
ose velt
at em
ĠSt ories
ĠF oster
Jose ph
ĠR uth
Ġstreng then
18 20
Ġcolle agues
f red
__ (
b g
ĠC inema
Ġpoint ing
Ass ert
Ġwe bs
Ġsp anning
ĠMar x
Ġglob ally
AT O
16 5
ĠDist inguished
ĠDat abase
W a
Ġent hus
1 19
Pro gram
ĠMar io
Pro file
G er
18 39
Ġsqu ared
Ġbrig ade
D ouble
Ġav ailability
ĠMig uel
asc ade
T er
pt ons
Ġprogress ive
Ġgain s
om m
//////////////// ////////////////
Ġcollabor ated
ithm etic
Ġgold en
cess ion
Ġepoch s
Ġsustain ed
Ġmethod ology
Å Ľ
Ġinfer red
ĠK re
Ġsp ell
Ġexception al
Ġpian ist
ĠL ar
ĠEngine ers
Ġmaintain s
Ġt ier
Ġexam ination
Ġinh ab
ĠS olar
f ollowing
Ġprocess ed
bur st
Ġaff air
pl ates
Ġres umed
ĠC MB
ia z
Ġob lig
ĠJama ica
Id ent
Ġph osph
-------------------------------- --------------------------------
ĠJac ques
ing en
Ġz ones
Ġcalcul ating
ĠBu enos
Ġp ist
ĠPhil osophy
Ġtr ump
Ġfeel ings
Leg acy
build ing
n st
egin ning
ĠMethod ist
Ġup coming
ĠL az
Ġcompris ing
Ġgard ens
ab we
Ġneur ons
D ig
Ġf r
Ġdial ect
k al
Ġscreen play
Ġwe aken
nab led
N F
atter ing
Ġnovel ists
[ ->
ĠSecond ary
Ġcam eras
Ġw elfare
Ġnumber ed
Ġapp endix
F oot
ac co
ĠSe bast
ab ling
H amilton
ĠWeek ly
Ġmass less
13 3
ĠSalv ador
Ġfir ms
Ġpione er
13 4
ĠCirc le
ĠPan ama
b rand
Act ive
Ġsuff er
ry ption
st ance
Ġrad i
Field s
Ġf inger
Reg ular
at omic
Ġb is
ĠB od
Ġtravel s
ĠSom erset
ĠA w
Ġpolar ized
) )$,
ĠCon n
J an
Ġqual itative
MA X
Ġt rick
Ġb racket
M NRAS
e ur
ĠUg anda
ĠDec ision
itect ure
)$ )
By tes
ĠRon ald
est rian
M u
le z
Ġimplement s
ĠVal ent
Ġst roke
Ġharm on
con tains
Ġm i
ĠO S
ups ilon
Ġext inct
18 12
th read
Ġconvolution al
Ġdis appoint
ĠMil waukee
Ġexpect ations
Ġle pton
reg ation
Ġcaref ully
.\ ,\
cons ist
Ġfoot age
Ġc oding
rack ets
K M
ĠK ate
Ġbig ger
ĠE ight
ex ception
system s
n atural
ext ension
leg raph
= &
I EEE
he ro
Ġfor g
ve ction
Ġf la
ĠL or
ĠProv incial
E s
B road
rie ve
Ġt one
l ane
f c
lement s
ĠCab inet
Ġval ued
Ġpen et
clip se
Ġanth rop
Ġdepart ed
bre aking
ĠViet namese
Ġl iv
ĠM usical
Ġb eta
Ġcancell ation
Ġind oor
ĠT odd
ĠInit ially
In valid
13 7
l it
and ro
Ġatt raction
Ġtim ing
I con
Ġconflict s
Ġbelief s
ach ment
ar ance
ib a
Ã °
ad apt
Ġsp ur
Ġtor ped
st ats
= [
f amilies
ĠShe ffield
ĠD anny
Ġconduct ing
Ġf ake
ĠD in
"> &
^* _{
Ġtriang les
ĠU RL
Ġtransl ations
c v
an che
} '$
Ġlog o
Ġdocument ation
d iamond
Ġwal ks
h uman
Ġqual ification
un ning
publ ished
ĠM I
Ġsoci eties
lev ard
ĠFran z
ne ut
ĠSp ider
P ack
Cl ick
ĠRead ing
M ath
Ġar rows
ĠC ec
geq slant
c ence
d g
Ġcitiz en
he ld
ĠTib et
t rain
Ġproxim ity
en i
Ġh unt
' +
Ġart work
ĠSus sex
Ġb undles
Ġhistor ically
Ġall ocated
ĠBos nia
Ġd rops
Ï Ħ
ordin ary
Ġpoly mer
el ly
ĠM umbai
ĠO w
ĠĠĠĠĠĠĠĠĠĠĠĠĠĠĠĠ ĠĠĠĠĠĠĠĠĠĠĠĠĠ
Sec urity
F ellow
ĠS uff
amp ed
Ġc rop
ik es
ĠB orel
bo olean
m ock
cor r
Ġa ck
A mb
elect ric
Ġide als
Ġdissol ved
Ġsh ops
Ġbel t
FA ULT
Ġab oard
as ta
Ġc iting
Ġtrans actions
ad joint
av ailable
Ġde eper
) _\
ĠPr inceton
A pi
Ġattack ing
Ġn arr
ess a
18 38
ĠBr as
ĠLiber ty
Ġobject ives
R h
Ġalt itude
an chor
In s
W ang
ĠS ullivan
ess el
Ġport s
Ġreal ize
Dem ocratic
he ng
}$ ~
Ġindu ce
Ġpil ots
@{ }}
Ġen umer
18 35
Ġnick name
ĠAnd roid
imb abwe
Ġmotiv ation
c u
G l
Ġcov ariant
ĠIsa ac
er i
alth ough
bro ok
ĠRe ich
Ġposs ibilities
ĠDav ies
W W
ag ent
Ġc avalry
ob e
Ġcler gy
Ġvolunte ers
l vert
Ġsupp ression
Ġemphas ize
iff e
Ġ$ ^
Res earch
Ġrect angular
Ġbus es
leg al
Ġw arn
$ ~\
Ġcl im
Ġbank rupt
Ġt ape
Ġdr ink
G aussian
are l
Ġdiff e
Ġconsc ious
Pr ivate
] :
ĠP ent
ĠH ass
ter bury
ĠC ut
ĠR F
Ġarchae ological
p rom
ĠF lem
C itations
un ivers
h idden
Ġgu itars
ĠMot ors
Ġs ung
Ġartifact s
h over
ol ly
Ġm ail
the ore
ĠBo olean
fer m
ĠVlad imir
g ov
Ġcry pt
ĠInter est
ess es
z el
or um
ec a
ĠMan ila
ĠI o
Ġtra pped
18 32
P ackage
Ġdissip ation
ern els
quir y
F low
ĠN L
Ġun changed
Ġdeploy ment
ĠK ill
Ġco arse
d dot
ĠJul ian
ore n
ĠJust in
Ġc ouncill
Ġemploy ee
)$ ;
ĠS ter
ĠF alse
F red
Brazil ian
oc c
c ourse
hook rightarrow
g ap
bas ic
la us
F i
ĠCP U
), \\
Par am
Ġarg ues
Ex amples
Ġsurpr ise
Ġex ecute
found ed
Ã© g
Ġdimension less
ĠLuc as
ĠInit ial
A x
Ġsimpl ify
Ġcommem or
ĠInd ies
W ater
Ġthere in
Ġindic ator
Ġg ear
Ġby te
Ġtack le
S to
n Ã©e
Ġb ubble
ĠG es
22 5
ĠFri end
r n
id ity
ĠG Ã¶
ĠR M
e i
weight ed
ĠLore n
Ġdisband ed
ĠThrough out
Ġinteg rate
eg ovina
N orm
ĠBro s
ĠFour th
ĠL ak
us ive
Ġtax es
Ġdepict s
Ġcomp l
-- \
P N
e very
Ġtw isted
ĠS ett
pro gram
C ert
art z
m g
ĠForm ation
let ter
ĠF i
O s
Ġdef ender
C le
sup set
Ġprint ing
emb ourg
}$ &
Ġj u
R F
ĠSaf ety
Ġproceed s
18 42
ern ess
S Y
Ġtrans parent
Ġconf ined
Ġperm it
Ġsever ely
ig ue
Ġpro xy
; <
St orage
C ard
Ġp our
Ġcho ir
Ġp ap
Ġcat hedral
Ġdescript ions
Ġamb assador
Ġgraph ic
ĠSch olar
ĠV ern
P AR
rac le
Ġoccur rence
pat tern
ĠUr ugu
Th ird
Ġshel ter
Ġhol iday
Ġa fore
Ġveter an
ĠN ottingham
m ology
horiz ontal
Ġh ills
ah an
Ġpair wise
Ġinv ersion
Î ½
ĠK umar
E nabled
á ¸
Ġres iding
ĠP red
Ġcon current
ĠAng els
arri ers
Ġc ow
18 36
ĠRo osevelt
m ove
ri ot
um ped
sen al
ĠB elf
Ġpass ion
flu x
ĠC raw
o fficial
ĠCy prus
ĠG and
m ount
Ġr iders
av ia
ĠEag le
å ı
Ġmem oir
M id
be ing
Ġsh ots
Ġannounce ment
Ġdef ect
J ean
Ġd ictionary
Ġab olished
ĠL arge
F IG
Ġcirc ulation
Bo olean
Ġbur st
Ġabund ances
_{ |
Ġen emies
Ġanomal ous
Ġlab elled
Ġn est
ri ke
itte es
ad min
Ġcirc uits
ag onal
Ġvers e
ex ports
ass o
ĠEx ped
ĠR overs
Ã¡ nd
Ġmer ch
Ġres erves
Ġutil ize
So ft
b ys
Ġall ies
l ated
As ian
P ac
SE T
ĠM ade
h p
ra z
Ġcollect ing
Ed itor
im pl
Ġturbul ence
er k
Ġadm issible
sch ild
ing o
Ġmagn itudes
ĠN u
d k
th us
Ġconf used
Ġapprop ri
ĠP aint
stan bul
er ie
M N
ĠPet e
ĠI gn
Ġcommit ment
ol ine
lac ian
oc on
ĠR aid
ateg ories
Ġant is
yn man
J ob
p al
æ ľ
end or
ĠN P
as is
ĠĠĠĠĠĠĠĠĠĠĠĠĠĠĠĠ ĠĠĠĠĠĠĠĠĠĠĠĠ
wid get
Ġpat ent
Ġsear ches
spect or
Ġstructure d
En vironment
Rep ublican
( (\
C I
Re view
scal ar
Ġs overe
ĠÃ ĸ
Ġfore cast
Ġb achelor
Ġtour ist
cm d
Ġpat ches
Ġpri ests
or ers
M ock
ĠMaur ice
Ġconclud es
it ious
ex amples
ĠShort ly
Ġb otan
S ample
Ġprogram mes
18 43
Y P
Ġcomplet eness
Ġpsych ology
ĠAss umption
ĠEll is
Ġop acity
symmet ry
li ers
Ġ[ -
Ġdel iber
ĠTra vel
col span
ĠC openhagen
Ġexplo it
ast ics
f p
Ġsim ulate
Ġacadem y
Ġbary on
}} -\
Ġh ide
Ġfrag ments
L at
r vert
ra h
Ġcopy right
ch ard
E W
land o
ĠHind i
ĠCit iz
ĠPres byter
Ġf ed
Met adata
Ġthermod ynamic
Ġevery where
Ġqu iet
ĠL ok
13 8
ĠArmen ia
atin um
{- .
Ġl ar
ĠM ang
he ll
Fe ature
ass umption
Ġevalu ating
nu cle
ĠF oot
ĠR i
Ġs ou
Ġ$\ |\
@ {\
Ġv ow
la ve
iss ues
st ock
ĠHop kins
j in
Ġarchitect s
ĠK arn
ĠDes ert
ĠIn stitution
EN D
Ġobvious ly
Ġbomb ing
Ġestim ating
Ġmetall ic
aj i
Ġw orn
[ ]{
Through out
an ian
Ġin jective
chi ef
ĠMan itoba
Ġcomm enced
ĠStat istics
V ir
IC E
or ious
> .
( .
el in
integ ral
im i
ĠRod rig
dot ted
ĠJohann es
Ġst ick
Ġinstit ute
ĠOther wise
f ollow
f ail
Ġinterp ol
ol lo
Ġsuperv ision
Ġh ind
emph is
Ġfound ers
Def ine
Ġcon g
Ġstud ios
Ġprot ocols
pot ent
Ġeng age
Ġfl ank
Ġvocal ist
pt ical
Ġreg imes
Ġafore mentioned
ĠHar per
equival ent
f itting
Ġt orsion
ol ics
Âł Âł
ĠWood s
n il
Ġrel ate
Î ¹
ĠEd mund
Ġdepend encies
Ġneighbour ing
Mart in
R ank
ĠAd S
Ġexcit ations
Ġflex ible
T erm
Ġcontroll ing
Ġal pha
Ġburn ing
` .
P a
Ġbu ck
N orthern
Ġ ibn
ĠPar ad
ĠComp etition
Ġoscill ation
Ġtour ism
un ique
Ġalter ed
ari us
Ġnot iced
Ġsus pected
um my
ĠNe umann
M atrix
Ġad i
Ġwavel engths
R oad
Ġtransform s
s pl
ĠHerz egovina
m ask
part y
ĠV a
Ġad op
u ate
c pp
Mod ern
ĠMoroc co
found er
ĠF ul
ĠJul ia
ĠH im
uis ine
Ġvirt ually
Ġrefuge es
ĠGl ou
Arg ument
n od
Ġtermin ology
Sim ilar
Ġen larg
S pr
}= -\
Ġs ake
pe z
ĠC V
Ġd rain
Ġhousehold er
ĠWrit ing
Ġfle w
ĠBro oks
Ġserious ly
din and
å ¤
S ep
Ġpit ched
ĠB ark
ĠH il
Ġapp end
Ġhand ed
ĠRail ways
IT Y
ĠIs le
EC K
ĠW ord
R oot
Ġd ogs
Ġprefer ence
Base ball
ol ith
Ġdist ribut
Ġd ancer
=" ${
Ġm im
Ġret reat
Ġillust ration
Ñ ħ
in j
K h
ĠC osm
proto buf
ĠO wen
ash ire
ĠL iv
A z
ĠT ennis
rosso ver
Ġb ull
ust ers
Ġche ss
D ialog
ĠS creen
Ġprevent ed
Addition al
Ġperfect ly
ĠEvent ually
M icro
ĠA ur
}) +
spe aking
Ġansw ers
ĠC SS
Ġpriv ile
ĠWest minster
Ġtr uly
S ound
Ġback ward
Ġimprison ed
B G
Ġpr ince
Ġimm igration
ĠP rison
Ġfoss il
ĠGr ass
j j
ĠN ine
Ġre forms
cal ing
D u
sc ore
t m
add y
Ġinvert ible
ĠL akes
Ġs weet
ential s
Ġcont ributes
d ependence
Ġs ick
ĠPro duct
rosc opy
W C
ĠCorn wall
Ġlight ing
Ġmy ster
p it
av ian
reg ister
Athlet es
ex pr
G reat
M aster
Ġim per
Ġsupp ress
ĠEx cell
De lete
ig rated
M ember
form ula
Ġbo ards
anim ous
on ial
ĠT alk
ign ment
Ob serv
Ġhe ur
Ġmorph isms
l ceil
Ġaccount ing
Ġfre ely
Ġgrad es
Ġtribut ary
Ġc ant
ĠSD SS
De velopment
. }}
Ġh az
ole v
ĠRepublican s
L ock
Ġsh aped
pos itory
Ġstr at
Ġphil anth
i ens
Ġt ru
ig i
ap or
Ġj son
Ġrev ival
ĠGe off
id y
man uel
ĠRes ource
Ġbe ams
ra its
ĠVol unte
o que
ĠA u
ow ards
Ġjav ax
Ġth rown
Ġcult ures
Polit ics
l iter
int rodu
EX T
t oggle
Ġb ipart
18 15
Ġmiss ile
ous ing
Ġcompar isons
Music ians
pan cy
cond itions
en ian
og o
Ġem issions
Ġdeep ly
ĠPlan et
ĠCle arly
L ag
ĠStev ens
enti eth
Ã© m
rel ativistic
Ġcaref ul
Ġadmin istered
. \,
Ġconvers ation
G Hz
Ġanten na
Ġsign atures
ĠD ob
the ir
T y
ĠT ir
dec ay
Can ada
Ġf ung
ĠF L
ĠPl ate
ĠW orth
ke es
ĠEx amples
Ġhom ology
Ġco herence
Vol ume
l c
ĠGard ens
Ġde form
Ġpar abolic
ras er
web kit
Ġcatal ogue
ul ers
ap a
ĠHol mes
ang ered
ç ļ
im mer
Ġsculpt or
sche me
Ġp ion
ex ternal
ĠGl ass
Ġ\ %
Ġdo ctors
Ar thur
Ġb ell
ĠF ind
Ġdec oder
C red
in ced
al gebras
Ġdevelop er
By te
Ġarchitect ures
Ġhierarch ical
Com ment
ĠBlo om
dec om
d etail
Ġf rust
ĠSc out
Ġk ings
). $
Ġpar agraph
ole cular
Ġbackground s
ĠMal ta
abul ary
R ect
ĠAl bums
be it
Ġchalleng ed
ĠF ast
t ons
Ġt ut
ĠI SO
Al gorithm
Ġto ll
ĠD j
] }$
ä º
ĠG ren
}, $
Ġbi ology
ah l
Ġque en
Ġwal let
Ġsp okes
Ġaf ternoon
ĠC auchy
ĠMarc us
Ġ Ñģ
Ġpro l
Ġspeed s
ĠFe ature
Ġnephe w
ĠN ancy
ĠPar ks
la ir
ij a
^* ,
Ġinteg rable
Ġadvoc ate
n odes
ĠSant iago
Ġexp ans
H I
ĠDev on
U ID
m r
method s
he v
M unicip
Ġm a
Ġhead ing
Ext ension
act ers
Ġunder graduate
B it
B on
Ġpre val
pr ising
Ġver ification
| }\
ĠSh ield
Ġover w
the o
Ġdown stream
Ġpro secut
ber y
Ġtro uble
Ġsearch ing
F il
ĠP L
Ġeth n
* }\
Ġb rowser
ĠCom edy
ĠBudd h
Ġcomment ary
= |
m ot
Ġack nowledge
Ġbre eding
Ġmot ions
)) ^
ĠEn s
period ic
Ġaccompl ished
ĠAn a
inter pret
T ex
D s
Ġcor ps
Ġcur ved
inf all
Cor ollary
ĠIndian apolis
Ġpract ition
Ġent repreneur
Const ruction
hab ilit
ĠCel tic
s ed
es a
b ay
ĠM O
H aw
rest rial
Ġsport ing
{ }\
ĠD raw
ĠA A
){ $\
Ġrefere e
od ia
Ġfor ty
Ġdr ives
W el
per ture
Ġcasual ties
anc ers
Ġrecru ited
, '
ĠHer ald
ĠArch ae
ĠBre ak
\% ,
Ġrout ine
Ġcontinu ation
ĠSch r
mon ton
Ġtalk ing
Ġship ping
Ġactiv ated
Ġarch ive
Ġmob ility
C ustom
ĠC e
ray s
oper ation
ol an
Ġred shifts
ĠN as
oy le
Ġin complete
ĠC ort
Ġlaws uit
ĠD as
Ġtem ples
ĠS aw
De cl
ĠAr g
ĠRiemann ian
_ ;
r ceil
È Ľ
ĠCamp us
Ġn m
a ft
Ø ±
Que ue
ĠPr iv
Ġcert ificate
vari able
K im
|\ ,
par ing
ene ath
Ġgra ins
en able
Ġo mitted
ĠA chie
ynam ical
E A
Ġcap ac
et e
att ribute
{$ {\
vi Äĩ
spect rum
Ġbroad er
ĠM atch
Ġl iver
Ġver b
M AP
pr ises
US A
ĠFa ith
Ġpubl ish
ri o
Ã¨ s
ĠIraq i
VER SION
Ġd rove
ĠP owell
Ġgrand son
ĠGu ang
S at
Ġk ernels
Ġcont raction
Ġke eps
B ern
Ġquarter back
ev olution
OD O
Ġnot ations
Ġfe ud
Ġturbul ent
sc roll
Al tern
)} }\
uk u
ĠMathemat ics
op ened
ĠE ve
Ġco ffee
ĠCard inal
Ġpsych ological
ĠG mina
b la
ĠHe ights
load ed
16 8
script ions
US Y
A uth
ĠLou ise
Ġlight s
L java
Ġdr inking
Ġevent ual
Ġion ization
ĠSh op
ĠT yp
ĠH aus
Ġco ached
ĠM ales
ĠPear l
pl ugins
tx t
ĠS ect
ĠCub an
c ribed
ĠR oth
Const raint
, +
n is
in as
.\ ]
ĠLithuan ia
ĠH ash
ĠK ot
Ġcoun sel
E G
r ity
ĠCl in
Ġcounterpart s
Ġment ions
ĠL isa
Ġy ard
ĠPl anning
Ġprofession als
J ul
am as
oy a
grad ient
ĠA ges
Ġceleb ration
Ġaffili ate
Ġm ilk
n ai
Ġflow er
Ġj ew
14 7
y g
Ġh ook
rel ative
arc sec
Ġman ages
Ġsubgroup s
P red
Ġto kens
W alk
Ġhe m
Ġ" "
Ġpo inter
à ®
f b
ĠBelg rade
L iber
'' $
ĠK lein
ab c
ĠL ip
Ġwid ow
Ġair line
st en
j ud
Ġsequ ential
g ins
Ġkilomet ers
S end
ĠM is
L ead
ĠS FR
Ġathlet ic
B rown
l is
im plies
Ġbox ing
H u
Ġoscill ator
Ġthreat s
)- (
Ġst ret
ĠAp ost
Ġdem ocracy
es ar
ĠH us
ad van
in ia
ĠC ert
ĠPalest inian
ep ing
ĠBr ussels
sp irit
18 34
ĠChar ter
Ġg aps
Ġinher it
Ġsem igroup
Ġso ap
ps frag
ott i
28 0
%% %%
Ġconduct ivity
s elling
C ulture
ĠI sh
ma jor
Ġfollow ers
ĠPak istani
ĠRe id
ĠSta kes
ern er
Ġare na
Ġlocomot ive
y i
SS ERT
L ow
Ġcolon ies
Ġred es
ta king
B ay
Ġd imin
ar ians
ĠRet riev
s al
ĠC avalry
Ġc rops
d etails
Ġr idge
15 2
Ġcomed ian
Ġemp ire
Ġz eros
position s
u pe
Ġalleg ations
Ġnucle on
ĠR ice
ĠGram my
an z
Ġv e
que ue
Ġpres ervation
Ġcorn ers
Ġw ars
Ġbound ing
sh ore
Ġal ien
Ġaddition ally
inter action
Ġwar fare
M arg
Ġg ent
acher s
R en
ĠR ut
im uth
ĠRef s
le ys
am oto
inc ar
Ġgra ve
ĠO z
Ġsem antics
,- .
ĠD uncan
P ak
) )}
ĠRichard son
ĠK err
C NN
ĠU tt
t l
Ġsuccess ion
ĠAcc ount
Ġax es
Ġun ified
ob tained
ĠNiger ian
Ġconv inced
Ġst range
ĠG ent
ĠFrank furt
P resent
IN D
bat im
| $.
ĠH ir
ibl ical
ĠMon th
Ġfif ty
ĠVis ual
h urst
Ġjo ins
ho e
F W
s ave
Ġsimilar ities
un ov
Ġout lined
ĠS ent
Ġfl our
D est
ett es
ĠBas ic
ĠOak land
Ġnom inal
Ġadopt ion
Ġminim izing
13 1
it he
ĠArm strong
ĠSt rong
Ġar ithmetic
d ens
ĠH arm
orig in
ĠMont eneg
ĠPo etry
Ġsl ice
^+ _
ĠP resent
Ġreson ant
Ġm ouse
ĠP ink
ĠAg re
, $$
ĠG othic
Ġred und
W ood
uc as
s ix
Desc riptor
ĠH aven
Ġrecommend ation
AR Y
uzz le
Ġdis agre
ĠA ub
C ategory
Ġperman ently
Ġdesign ers
set up
14 2
Ġanal ogue
Ġsec ular
us ers
ĠA ND
Bel g
ĠBou levard
Ġen zyme
Ġr am
Ġassert ion
Ġt une
Ġinvest ors
Ġalleged ly
C oll
h h
ĠESP N
F K
ĠS qu
Hung arian
ĠPolit ics
Ġhighlight s
Ġant ib
Ġn g
ell ers
Ġprom ised
Ġc rack
Ġcap ita
ap ur
O l
ĠC rist
Ġplace ment
ĠFern ando
ess ages
sp ired
v p
R M
ĠE lection
Ġgain ing
ere k
Ġanisot ropy
ĠGu ards
Ġsurn ames
Ġdamp ing
P ay
ĠEx hibition
ĠP icture
ict ions
ĠLeg islature
ass er
cha ft
Ġ& -
ues day
ĠMc L
map s
to ol
ographer s
U B
ol ute
Nov els
Ġdiscontin ued
ĠEston ia
ot er
ĠTw enty
ĠS weet
ot ypes
lu x
cy l
Ġdemand ed
! }
ĠAll an
Ġ$( {\
Ġins pect
y ang
20 5
C hen
item s
Ġfre estyle
sche ma
og an
ĠH ubble
ad al
Ġbroadcast s
Ġgeneral ize
E nergy
c ock
ĠPr int
H ER
Ġon set
res olved
ĠMet al
Ġfib ers
Ġcons ent
Ġconstit ute
ĠW arriors
Ġcivil ians
ĠExped ition
Ġmeaning ful
m any
ien ne
n ut
aver age
ag le
ĠG ael
ĠParalymp ics
ĠT iger
atter y
dis abled
Ġrecip ients
ĠAb b
Stand ard
Ġdist ortion
Ġins pection
Ġfavor able
V E
Ġp unk
Flo at
^ -\
Ġvict ories
\ @
k el
ĠC av
Ġle x
ph on
Pr int
W ashington
h ops
f eed
ine es
L es
Ġrenew ed
}) }{\
Aut o
ĠPlay Station
Ġau ction
Ġn ice
arri or
18 33
)\ |_{
Ġinf initely
Ġb ats
ĠW ak
Ġuniqu eness
E SS
ĠM TV
intend ent
ric a
Ġadv is
ĠCol in
Ġkn ot
j query
p ent
Ġby pass
Ġch ore
Ġinf ected
Ġfriend ship
ct uary
ĠAl pha
Ġout line
contin uous
ĠT aking
ĠX X
ĠLanc ashire
Ġtheat rical
Ġr h
key word
ĠF olk
Ġad mit
A li
15 6
Disc ussion
U D
ĠTrans it
14 3
bas is
g ary
l os
ĠC ele
ĠF inals
Ġun ve
ĠCont est
ex istence
Ġmain land
Ch ina
Ġac ceptable
Ġch apters
^+ (
Ġvo iced
man ager
ĠAn im
inst all
ce q
Ġachie vements
Ġel imination
Ġtext ure
ĠN acional
}} ;
ĠR L
G rid
T ok
ĠCan terbury
I mm
w oman
ist le
Ġrend ered
Ġrecommend ations
ident ial
Pop ulation
Ġconfer ences
Ġf ractions
ĠC i
L ower
O wn
ĠF iction
ĠâĢ ¢
Ġgradu ation
ĠM ead
ĠK ab
associ ated
P ier
Ġf ol
ĠT all
ĠI BM
Ġed iting
ĠWy oming
ĠDir ichlet
ch air
Ġg rate
ĠM uk
cont roller
ĠTr in
Ġincre ment
Sim ple
Ġbe ars
Ġinn ovation
Ġc f
Ġspec imens
Dis play
Ġselect ing
triang leq
Ġe leg
ĠK om
Ġachie vement
Ð° Ð½
Ġacknowled ged
Ġstrong est
Ġcul min
lin ary
Ġm oll
R o
is cal
Ġpresent ing
D etails
ĠS hen
ĠD O
leg ate
Ġvalid ate
i q
Ġpredict s
ot hes
}: \
ĠMult i
ĠW ool
rag on
ĠEngine er
Ġret iring
Ġhon ours
Ch ildren
ĠClass ical
arm ac
clud ing
A rea
ĠAndrew s
prop ag
y c
ah a
Ġdiplom at
D iff
act s
P rel
oc ent
Ġhost ing
Ġshell s
Ġsurviv ors
Ġgu ards
ĠF actory
ĠG auss
ĠP irates
ĠP orter
Ġhar vest
un ition
Ġa est
Ġpart itions
ĠMar in
Ġprov isions
Ġrap per
oca ust
ĠR ush
trans fer
Ġunder went
pl ots
ĠGener ation
18 31
ill ance
Ġsubstr ate
App endix
. __
N atural
Ġdies el
ah ler
Ġquad rup
J SON
S tage
Ġsoph istic
oy e
Dan iel
Ġra id
Ġpsy chiat
oot ing
D ebug
ĠCr us
Ġspecial ist
ĠA ch
Cont in
ĠWik ipedia
Ġas ymmetric
ild a
add r
un ar
H uman
Ġqu en
Ġconnect ivity
ĠRefer ence
Ġmus cle
V V
ĠIll ust
Equ ation
Sup port
s ided
ul ous
Trans action
ĠFig ures
ĠT at
ĠAm y
ĠKenn eth
çļ Ħ
ur an
Ġun w
que z
} --\
Lang uage
ĠB ee
par amet
Ġphot ometry
ĠC ord
ĠHe aven
Ġrev ol
Ã¤ r
dis k
otter y
Ġincorpor ating
ĠM ull
Ġtrav elling
im pro
ĠV eter
ĠL ay
Ġcommun ist
Ð ³
ly m
Ġspat ially
ce ased
Ġeditor ial
Ġk pc
Ġsp ir
approxim ation
Ġcollaps ed
Ġd uplic
Ġblock ed
C lim
ers en
Bur ials
Ġslow er
ĠB row
ĠWag ner
Ġexecut ives
ĠR andom
Ġper pet
Ġw ore
Ġp m
Ġb er
Ġshort est
Ġport folio
t v
ĠHe ath
Ġp ub
sing ular
ĠSch warz
Ġconc aten
st re
ĠB il
Ġcon qu
ĠUn fortunately
dimens ion
al p
ĠCzech oslov
ĠE state
ik ing
Ġfre ight
Ġsudden ly
Ġavoid ed
ĠC yr
26 0
Ġimp ressive
run ning
ĠH es
ĠJ i
Ġdef ects
che z
Ġb icy
ma ch
ĠA ri
Ġte eth
ĠCal gary
ĠSim pson
Ġr ifle
Ġcompens ation
Orig inal
part icular
==== ==
ibl ings
ĠWed nesday
ĠB iography
ed i
ellig ent
ĠAb original
do es
H K
ke V
ĠBer ry
Ġpret ty
O B
Ġsc andal
Ġiter ative
H ouse
ch art
Ġj ail
pass word
H op
B asketball
Q CD
Ġtransport ed
Ġl ung
ĠH od
. ]
C zech
ĠH ab
ĠR ib
Ġnam ing
ĠAlban ia
ut able
ĠH off
Ġcomp lementary
ĠAh mad
ĠL enn
ĠL omb
ĠL ot
ov i
Ġmod ulo
Pro b
Ġw ake
ant om
Ġfall en
ac ular
ĠPh ase
ĠAddition al
Ġb tn
Ġch ronic
ent ropy
ins ki
Ġbar rel
Mem ory
V i
over view
ut ations
Ġw onder
ell ation
Ġdisc overs
ĠE RA
ĠGi ovanni
ĠC ay
ĠIn g
Ġdemon stration
ĠR S
app endix
ĠFilip ino
Pol y
kins on
16 6
ĠNob el
Ġin scription
se lection
Ġhe ir
Ġcelebr ate
ĠU ntil
ap ing
ty ped
Ġstreng ths
isen berg
Ġen roll
ĠBry an
Ġcon ce
ae us
Ġd Ã©
Ex pr
ific ant
ĠS ym
ĠH ess
ĠBla ke
3 30
law s
ĠT ru
Ar gs
u ine
Ġrock et
Ġnorm s
la ch
ĠF an
ugg ing
ĠP O
Ġaccess ed
Ġax ial
Ġcan on
Ġp ec
cos ystem
Ġadjust ed
ĠBa iley
ĠCol lect
=" ">
ĠZ imbabwe
Ġinter active
C G
Ġconstant ly
Ġtow ers
ad j
Ġcon form
ĠGer ald
ee per
). \
ev o
'' '
Ġmark ing
Stat istics
ĠSh im
Ġdub bed
stad t
Ġth rew
Fellow s
rg b
Ġfa una
ed ges
A uthor
00 3
Ġan satz
Ġsimultane ous
s r
st roke
al most
ĠV ers
Ind ia
Ġfit ness
Sc ope
ĠH alf
Ġan ch
Ġif f
FI LE
ĠM W
Ġh itting
ĠCh ase
Ġmod est
Ġperform ers
Ġvulner able
A st
ĠGib son
S hips
ĠU pdate
15 8
P ref
G rad
c ot
Ġsc an
ash tra
Ï ģ
Ind ividual
ĠD eg
Ġauthor ized
Ġp icks
Nor wegian
f lix
Ġwebs ites
enn ium
Ġtele phone
E t
Ġrefer endum
Ġkill s
TE ST
w ald
ordin ates
P ubl
Ġp ink
col lapse
Ġatt itude
Ġmy stery
Ġview ing
J S
Ġel ite
N ever
on ts
ĠI v
Ab out
be am
Ġh alt
Ġresear cher
ĠK urt
He alth
ĠSol omon
ier i
Ġcount ed
Ġmur ders
S mall
g ang
ĠFer dinand
Ġperson ally
Ġf aint
ĠB rid
Ġdraw s
Ġs or
ip ur
l ore
15 4
th row
omorphism s
Ġsculpt ures
any on
design ated
Ġen act
K P
re ne
b undle
Ġsp acing
g rand
Ġgal actic
Econom y
Ġk inemat
uc a
zh ang
Ġrun time
b rane
ĠW ant
ĠBC E
ĠAgain st
Ä ħ
Ġas p
Ġ( #
ĠP Ã©
R ender
Ġtouchdown s
let te
ĠVirt ual
)} ]
b eck
ho ff
aid en
c ert
en es
I ce
ĠPy thon
ou ter
N ative
Ch ief
ĠY et
c ats
m ith
f re
_+ $
other wise
You ng
k ok
Ġsp anned
En ter
' }{
w ere
rot ate
Ġd ra
li o
Ġint ra
whe el
Ġbeat en
ab lo
Ġthir teen
ĠS pi
ug a
at io
ĠEm ma
ĠH IV
Ġp unct
Ã± o
ĠO ption
ĠTest ament
Ġvo ices
Ġtransmit ter
Ġfilter ing
Ġpurs ued
Ġinv ented
Ġprec ip
}), \
el ong
ĠL if
Ġreb ellion
By Id
cf c
ress ions
Ġra bb
Ab stract
Ġmyth ology
ĠB oh
Ġsh ar
unt ary
20 8
Ġcapt ures
ĠBey ond
Ġrec ruit
Ġsail ing
Chang ed
coupl ing
ater ials
ĠCon v
Ġflo ating
An alysis
ĠB ran
Ġsub sc
ĠEm ily
op a
Ġabsol utely
Ġdomin ate
Rem ark
Ġcompris ed
Ġche st
found land
. ][]{
v ae
Ġf riction
ĠM iles
Ġsax ophone
ĠPhys ical
ĠTan z
Ġcla use
ĠWh y
Ġknow ing
Ġup graded
) ||
I ma
Ġm ature
Ġl ig
rit z
Ġp ill
Ġn ut
rid or
ĠHur ricane
Ġk inematic
% ),
Ġhad ron
Ġdifferent iable
ĠConc ert
C ost
Ġcontext s
Ã§ Ã£o
Ġdivor ce
Ġe at
ĠÐ ²
Ġimprison ment
ĠV III
ck er
ps y
ip eg
ĠLes lie
å ®
Ġf Ã¼r
Ġem itted
m us
5 50
ed e
ĠM oney
-\ !
ho f
A BC
ox y
Ġre bounds
Ġtrunc ated
ip zig
Ġprocess or
Ġst er
ne z
Ġform ats
Ġb rane
ogene ity
Ġra infall
ĠRoberts on
Ġprior i
ĠP om
ĠCar n
14 6
,\,\ ,\,\
ĠNik ol
Ġs a
iling ual
Ġcapt uring
Ġreson ances
Ġmicrosc opic
Ġwatch ing
Ġmagnet ization
f d
ul ators
Ġen abling
ĠAntar ctic
ĠS ons
Ġm sg
ĠFif th
Ġref inement
Ù Ĩ
ĠContin ental
Ġannih ilation
Ġprob abilistic
ĠRol ling
ĠHigh land
H ot
Ġ[ [
Ġgener als
est e
g ard
amb a
ĠBelf ast
Int eg
ĠR ican
C ath
ar ta
Ġfe els
ĠLu cy
Ġf ame
Ġâ ĪĴ
estab lished
ĠN intendo
en ic
T rad
Ġpun ishment
Ġhead quarter
ĠYan kees
Ġbe aring
ugh t
ivid ually
ĠNad u
Ġdiscre pancy
Ġlin king
It ems
ĠLuther an
ĠGlob e
Ġt ent
dist rict
ĠSt ream
., ][]{
ĠPublic ations
sq l
Method s
in her
tem p
ĠLet ters
h ra
y t
Ġemploy ing
Ġb ij
13 9
om ical
Ġprison er
Ġsub stitution
Ġ' /
m ons
c as
ĠLux embourg
H ard
Ġd ancing
ĠB ody
! [
ĠM ale
ĠW ick
Ġev olve
ins k
sc apes
A re
Ġstat istic
ĠInd igenous
ĠP ep
s an
ong o
Ġrele asing
ĠAp ache
}: =\
- }
ĠCh in
Ġo w
Ġinvestig ating
ubb ard
Ġs id
Ġk nee
ot yp
ĠI g
Ġst olen
ĠN ormal
ĠHend erson
re ts
ĠQ ing
iz on
Ġb acteria
Ġspect roscopic
ð Ł
Ġtheorem s
Ġon wards
D epend
ĠLud wig
ĠB anks
Ġhad ronic
ĠAdvis ory
V ictor
ĠF eder
ĠD um
Ġcor ollary
å ħ
t ics
Ġun e
ĠD esc
ĠFight ing
ĠW id
Ġassert Equals
J ECT
ĠCh oice
Con n
U pon
St an
L arge
N ormal
L U
qu in
omet own
ĠLiber ation
Ġisol ation
}} %
ĠTh ursday
Ġper ception
Ġsix teen
Ġv ital
ĠR C
F iles
F uture
Ġtack les
| ,
ah u
Ġpresent er
Ġcontact s
( !
ĠTri ple
he art
ĠM IT
St ructure
with in
ĠA way
ĠD ifferent
ĠCom bat
18 14
Ġdis orders
Ġvolunte er
Ġfermion ic
B ir
Ġsumm ation
_{\ {
ĠDev il
Ġoutper forms
v ir
ĠLe op
Ġamb ient
Art icles
Ġsatell ites
] +
ĠI de
eg an
Ġa perture
commut ative
ch in
w ik
}$ \\
ĠCard iff
Ġl ux
Ġconst rain
T i
Ġdepend ency
Ġfaith ful
15 1
Ġdepos its
ĠAlban ian
ĠSh ir
Ġthe or
ad ors
Ġcomb ines
Ġjud icial
Wid get
}\ |\
Ġst eal
ĠR az
Ġf ate
Ġhypot heses
Ġcryst all
Ġadi abatic
Ġre written
Ġadminist rator
Ġeduc ator
F a
Ġaer ial
e cho
Ġbur ial
ĠR ac
ĠT ampa
ĠHe at
ĠNew port
ĠA ircraft
t un
oltz mann
ir ie
Ġtr ig
Ġcur riculum
ĠSher iff
Ġt uple
Ġsur pass
ĠTy ler
Ġcur rency
Ðµ ÑĢ
hard t
ĠBat man
t uple
un ion
Ġap i
Ġlater al
Ġaff ecting
ĠInt el
Ġprepar ing
erse ctions
Ġshould er
Ġmet adata
ĠE k
charg ed
ĠLin ux
ĠSt okes
Ġpay ing
Ġmill ions
ĠD id
ĠCon fig
Ä Ľ
Ġd ock
van ishing
ĠM ing
Ġell ip
ĠKing ston
M ET
ĠAm endment
um ably
1 200
T ake
Ġwrest ler
Ġren owned
ĠPop ular
N I
ĠBurn s
Acc ount
Ġdem ocratic
s it
Dist rict
Ġf isher
ĠGen eva
ĠAdvent ures
ĠGu itar
mark et
Ġor al
Su ccess
k ernel
Ġround ed
}$ };
Ġdifferent ly
ĠT H
ĠConstant in
C art
] _{\
Ġfarm s
ĠK ang
ĠCh al
anc ies
14 1
Ġleg isl
Ġstation ed
Ġconsum ers
g m
ar ag
Ġins u
t c
ip eline
asc ar
Ġ æ
ĠEmm y
ĠL odge
Ġmu on
Ġanaly tically
ĠSt rat
Ġb ol
ĠH i
18 25
' ^
Ġrelev ance
Ġref ined
ĠT ales
End emic
Ġas set
22 4
18 28
Ġsp ite
build er
ĠOs lo
p u
call back
Ġdisappe ared
Ġinstance of
^* $.
element s
Ġob ey
Ġdevelop s
b inding
14 8
Ġreb els
ĠC ome
G W
ĠM am
Ġspread ing
s z
Bas ic
ĠX I
l um
oc cup
Ġex ile
ne apolis
\% .
ĠQu art
Ġbeet le
Ġassemb led
\ ).
ĠT rent
ac iÃ³n
18 24
Ġadvan ces
Ġ= &
Ġ ip
Ġmorph ology
ograph ies
raph ic
ĠC ann
Ġmen u
Ġpro claim
Ġimpact s
ĠM emphis
Ġat tained
ne um
Ġsur render
ĠEug ene
Ġh tml
cle an
Ġput s
ter y
wild fly
clud e
Ġaud iences
ri ans
ma k
Ġcre ator
cont rolled
Ġbusiness people
") ]
Ġc lay
no align
Cl ose
app ly
il us
Con ver
Ġbif urc
ĠS ED
lass ical
Ġf atal
or p
Ġas h
ĠSlov enia
ced ure
" /
ĠT O
Port ug
re ma
amb o
Ġpre y
Ġestim ators
and i
Ġfluct uation
J ava
Ġgoal keeper
Ġremember ed
ĠF emale
enz ie
' _{\
Ġal umin
$ ^\
d ou
Ġr ally
as ympt
ĠEp iscopal
Ġrecon c
ĠSer ie
Ġnom inee
Ġd ressed
Ġan onymous
Ġsymbol ic
Ġp lease
ER N
Ġreli ability
Ġreb uild
in z
E th
15 7
Ġsepar able
ĠInter view
Ġcheck ing
Ġhealth care
. *
e o
ĠGu atem
Ġed it
16 7
em on
N i
Ù ħ
Ġbl ank
op rano
ĠG overn
}{ .
ĠPrincip al
ĠA part
S ervices
ĠD oll
F E
Ġend point
Ġc uisine
ĠWrit ers
B rien
ĠH ost
ĠD ong
Ġaltern ating
Act ivity
` ,
ed it
ĠG ol
Ġmod ulus
ĠBan ach
am on
id x
Ġb read
ĠM R
W he
] ,\
l attice
Ġad equate
16 00
Ge org
Ġl ip
ĠG rim
in ites
18 26
vers al
14 9
Ġs addle
]{ $
iv ially
Ġliter acy
Ġdraw ings
Ġpuls es
Ġ\ ,\,
ĠK aw
ĠDef ault
Ġend ings
ĠO st
Load er
Ġadv isor
ĠA FC
og on
ar ab
Ġcomp ress
L I
ĠN ode
ĠBas in
V s
ĠSlov akia
Ġwrest lers
Ġconcent rations
ĠAgre ement
ly mouth
Ġhealth y
Ġm all
Ġneighborhood s
Ġincl ination
ĠCh ad
* {\
)\, ,
In formation
magn etic
Ġnational ly
Ġmin us
ĠCur tis
b atch
Ð ±
Ġtri o
O k
Ġliter ally
ĠAn at
sup ported
P aint
Ġinsert ed
Ġloc us
ĠG rad
ĠR achel
rang er
Ġelab orate
sup ers
Ġt ilt
Ã§ a
Ġanaly zing
d h
em er
Ġbank ing
ad h
ĠOr lando
Ġcarri ers
Pan el
M ic
Ġcogn itive
S om
Ġabbre vi
B eh
ic ates
Ġrel ates
ĠV ision
ĠInter state
ĠN ATO
Ġhelic opter
v card
Ġnob le
ĠL t
ST AR
Ġpregn ant
Ġrevolution ary
v ary
Ġmin eral
ch oice
ep age
ĠSur rey
Ġcont ours
tr igger
18 10
ĠStr ateg
ĠM ob
ian i
ĠStaff ord
Ġ" /
Ġlocal ities
Ġfour teen
Ġexpon ents
Ġtrans ient
err ors
ĠR T
and ed
Ġlect ures
ĠBarn es
as aki
Con struct
Ġ$ %
ĠD B
Ġal ert
Ġk ids
ĠCurrent ly
ic ism
Ġse ized
Ġpass ive
ĠP iano
hen ce
Ġb out
Treat ies
ĠChe ss
ĠBrad ley
Ġch ip
ĠR iv
Ġprov iders
ĠPresbyter ian
Ġm il
V an
Ġle ak
Ġretriev al
Ġmot if
KE Y
Ġcumul ative
ĠI stanbul
C ultural
Ġris ks
aw i
ĠF raser
Ġgra phe
St ruct
ura i
ian e
23 5
ĠGl enn
Ġlift ed
ĠB ot
Comp et
ĠDou g
st ars
Ġown s
ĠJenn ifer
scal ing
ĠFranÃ§ ois
ĠGeorg ian
ĠCath olics
mod ern
Ġpro tagonist
ĠJ up
iers hip
Ġident ifies
ĠK yle
Ġs ulf
ĠMar ÃŃa
L os
ra f
ĠH ull
Ġnon negative
ĠW end
Ġen code
ĠBo eing
ĠSm art
Reg ion
ing ale
ĠC lear
=\ ,
y cl
Ã© l
)} ;
}}{ {\
Ġpur ple
oun s
Ġsat uration
if a
O PT
Ġshe af
anc a
r ors
air y
Ġtrigger ed
Ġsc roll
Ġst ones
Ġb rackets
ical s
Ġcr ashed
ĠH els
Ġter rain
col m
Ġmission ary
ĠM essage
{ #
}} [
Ġapproach ing
ĠEthiop ia
Ġd ish
_ ->
al ions
Un ion
p ie
ant le
Ġle ver
ĠAmer icas
Ġast roph
b inary
ĠProgram me
Ġimplement ing
Ġte a
Cy cl
Ġpay ments
T a
d ia
K B
ĠMar cel
ĠLind a
ther mal
ĠHard y
ram id
ag in
p olicy
al la
exp ansion
prob ability
bal ance
pos al
wh ose
Ġrevers ed
A mer
Ġbor row
Ã¡nd ez
Ġfor get
Town s
all i
ĠB j
ĠR oc
Ġsuff ix
SI ZE
ĠColon ial
Ġconvent ions
ros se
Ġrob ots
ĠD ow
ĠE g
ab ol
}\ |_{
ĠF lag
Ġsing let
ĠHead quarters
Ġun em
ine q
T oday
y on
)\ ;
big cap
V ec
t f
Ġexpl oring
L en
21 1
Ġflo ors
ĠEv angel
E c
Ġgather ing
ĠR ule
Ġoptim ize
{ -\
Ġhop ed
ĠEu rop
Ġaccompl ish
re ach
Ġgu ided
ric ia
vi k
ĠCarol ine
ĠCar roll
Ġyield ing
10 24
larg er
D a
ta ine
rad io
ĠM ink
In c
Ġas ide
Ġrel atives
is lav
\ ),
Ob j
ron ts
ĠDisc overy
R ole
p seud
| +
CD M
6 50
ĠTh ings
cest ershire
Line ar
ĠInter ior
ĠV ale
Ġfe es
ĠCon cer
18 29
ounc ing
ĠMax im
Ġserv ant
Ġc ock
ract ing
Ġscreen writer
> :
T s
ĠK aren
ĠFran c
il ion
Ġreflect ing
ay ette
H aving
t u
Ġre dd
ĠF o
uns igned
Ġsett le
fra red
fe at
& #
Ed ge
Ġmanuscript s
Ġs iblings
g overnment
g ender
ĠD ud
ĠRic ci
Ñģ Ðº
j d
Im port
ĠChel sea
Ġ' '
Ġacceler ated
M useum
ĠF W
Ġland mark
Ch art
mem ory
Ġcosm ology
Ġdet erior
ĠA FL
}^{ -\
rel la
Ġt iny
rest rict
im ming
ut z
thin space
Ġe gg
Ġgu ess
Ġpredict ive
ĠCrim inal
F N
Ġcitizens hip
Ġmaxim ize
orm s
pr incip
Ġdomin ates
id ation
}} }(
ĠP D
ĠG M
ĠR egin
F G
Ġinter faces
Ġline up
Ġmyster ious
Ġp ace
ir med
Ġexpla ining
Ġanalog y
X ml
small matrix
yl an
im m
á Ģ
ĠSe lect
ell ite
ĠBened ict
Ġh ub
vert ical
) ]{
Ġr ises
v ac
ĠWork ing
r ar
Ġnation wide
ĠBed ford
Ġreven ge
ĠMor rison
prot ected
Ġsur jective
Ġn od
ĠSpe aker
ĠL ah
conver gence
Ġb eneath
^* $,
rac es
p olit
v on
is le
ĠF BI
j ee
ta k
comb ination
Ġst uff
sw arm
G erm
Ġcondens ate
S ar
x t
. }.
ĠT ropical
sh own
os itory
id an
as an
al an
18 21
ĠBas il
Ġch orus
lac ier
ed ar
ĠG em
ĠTh an
ts d
over ed
}^ -
P ark
ĠLeg al
atri ates
Ġ{ (
sur ance
ĠGib bs
en heim
Ġhon est
ĠNapole on
g ae
ĠH ern
Ġsup erm
per formance
ĠCapit ol
ĠLy on
Ġconsult ant
ipl oma
histor ic
ĠT D
ĠNew foundland
Ġanisot ropic
te ch
Ġpost hum
Ġwid ths
he y
ĠMc Donald
she et
Ġdiscuss ing
f ootball
De ep
Ġl attices
ĠMe h
Ġemer gence
Ġens uring
Ġhop es
Ġspl its
Ġ\ ;\;
ĠC os
ĠK iss
power ed
ĠEston ian
ia e
() ));
Ġingred ients
$ _\
on ormal
et z
ĠM N
Ġspect roscopy
Ġb oot
ak o
ĠB in
Ġdec oding
Ġoverw hel
S ide
to ok
Ġpra ise
T aking
Ġstre ak
C u
00 4
ĠN atal
Ġquant ify
ĠIn spector
Per formance
Ġmer ging
Ġcombin atorial
Ġsu ite
Ġfeed ing
if ax
Ġj ack
Ġfix ing
if iable
\ `
M us
P rem
Ġtest im
necess ary
pl atform
Ġsophistic ated
Ġwh atever
Ġhand ler
observ ed
)\, .
Phys Rev
Ġt ale
Ġch ap
Ġl ac
ĠH iro
Ġdiff use
ĠC laim
ĠC anyon
Ġsw ord
ill ation
Ġdesign ing
ĠBe ing
I l
15 3
ĠPubl ishers
Ag ain
un al
gener ation
Argent ine
at aka
ĠD oc
ĠH ack
Ġdiagn osis
res on
ig ator
Pro xy
Ġexcept ions
ĠRem ix
Histor ic
ĠAd rian
ĠUtt ar
oid es
\% )
ĠNot re
Ġprest igious
v iv
Ġsk ip
Ap pro
re lease
ĠP ine
Ġgraphe ne
Ġ ],
Ġpriv ately
Ġc rossover
ĠM ail
Ġcat aly
F unc
Ġadvert is
ĠK ad
pg f
Ġswim mers
Po inter
å Ń
Ġsub spaces
if les
ĠCour se
Ġinsu fficient
Ġinter pre
Ġpack ages
ĠAchie vement
Ġinhab ited
cl ock
Ġcalcul us
Ġp c
h on
ce ive
Ġprevent ing
18 18
ount ers
ĠPal m
Ġdec oupl
Ġin ject
ĠV ector
Ġrecept or
ide a
We ight
33 3
ĠB ever
assert Equal
ĠBud apest
16 9
Ġball ot
Ġd b
ĠG Hz
ç Ķ
ord e
Ġmet als
Pat tern
; }
n h
ĠCom pton
21 3
multip ut
ĠPop ulation
sub ject
ĠSw ift
Ġgu idelines
)}\ \
Ġst aged
ĠComm unication
ĠR ica
at ched
ĠSh ore
ĠElli ott
Ġaz imuth
Ġh ometown
ĠA ug
ĠSe oul
Ï Ĥ
J on
Ġbos onic
const rained
ĠL R
Ġmac ro
Ġtens ors
ĠMar l
ĠSt op
ver batim
I sl
ĠLand au
Ġautom ated
ĠMethod s
to o
il is
ĠR out
Ġall oc
Ġpar as
ĠAr ctic
Ġcompl iance
ĠWind sor
Ġpack ets
Ġsustain able
ond s
Ġjournal ism
Ġhypers ur
ĠD S
ant is
load ing
ĠMic he
ĠNe ed
ĠAlger ia
}\ {
Ġcell ular
ĠBrad ford
z ier
ĠH R
esc u
20 2
Ġless ons
| <
Ġbre ath
ĠS K
ĠD und
sw orth
Ph ot
Ġorigin ating
Ġdi et
con tact
ĠInt roduction
om al
Sc ience
ident ified
Ġsent iment
IM P
Columb ia
ĠĠĠĠĠĠĠĠĠĠĠĠĠĠĠĠ ĠĠĠĠĠĠĠĠĠĠĠĠĠĠ
An im
Ġvol at
Ġdeleg ate
c orn
Ġdivor ced
Ġxml ns
t k
Ġimp lying
ĠP ars
Ġcongress ional
ĠCh uck
perturb ative
az ar
Ġdel ays
ĠL av
Ġflo oding
Ġinnov ative
compat ible
w ould
Ġf i
ĠF ed
* )
Ġagre ements
ĠF antasy
Ġexp atriates
Ġdes irable
Ġtra ff
Ġaccompany ing
Ġaggreg ation
Ġrom ance
Ġfunction ality
Ġminim ization
Ke ys
! ,
ig rant
exp ression
Ġcot ton
F s
A h
cer taint
Dat abase
ur ities
,\ ;
ĠHar bour
Ġlob by
Ġins ights
Ġf ires
v ity
re pe
ĠS isters
pos able
uch y
Ġcal ib
Ġener get
ĠH MS
Ġem otion
20 9
Ġcontract ed
ĠSh i
Ġback ed
ĠML B
Ġaut umn
ĠEd monton
Part icip
Ġs aving
Ġres et
Ch apter
Ġtimes cale
Time out
Ġparamet ric
L ook
Ġf erry
ĠH ave
ĠTh ir
Ġs ubl
ĠReg ulations
Ġm oon
vis ible
Ġrank ings
w hat
J ones
l f
Ġen listed
Ad minist
' })
ill i
ov al
ices ter
it ational
Ġcon vey
Ġdi ocese
ĠEp isode
Ġpod cast
analy tic
17 2
Ã¡ r
SS M
Ġcongreg ation
ĠExcell ence
al go
ĠMil ton
nt hesis
Ġo k
Ġsuperconduct ing
p n
ĠB alk
A sh
âĢ ł
b h
ĠL ik
_ ,
Ġsens ing
ĠAlexand ria
) }}{
ta iled
Ġr amp
ys on
Ġf o
over rightarrow
Ġ% }
Ġproceed ings
Ġcont amination
ĠLe ipzig
Ġw reck
}{ -
ep pe
che ss
ĠH ood
8 50
T ABLE
section s
Lay er
Ġval ign
Ġs outheastern
Ġnever theless
Ġcle ared
r ases
Ġmo ist
ĠUSS R
Ġfar mer
utt le
Clim ate
ĠE ye
Ġelectron ics
ĠK ann
)$ :
Ġs its
od o
ĠK w
Ġless er
n at
Ġover lo
Ġre ass
aff e
ĠC anton
Ġwick ets
Ġg odd
Ġlett ing
d B
ĠSub sequently
Ġl ighter
ĠLyn n
Ġ$ +
Ġro ok
Ġtri ps
ĠLap lacian
ool s
ĠL LC
ign er
ta gs
Ġmer c
ĠSil va
ĠSab ha
Ġrend ering
Ġru ins
Ġinter im
ĠM otion
Ġcould n
Ad S
Ġterrit orial
re port
' },
f o
Ġr ivals
Ġs ack
18 01
ĠRe in
CT ION
Ġlect urer
ĠLithuan ian
ut f
Pre vious
=" @
3 75
Ġdev ast
st retch
^* )
m k
ar am
gl ass
sh all
Ġwithd rawn
M apping
andid ates
ĠB ronze
23 4
K er
Ġinter ven
Ġind ividually
Ġserv ers
Ġtro ubl
pect ives
ag ers
la ke
Ġnot ions
Ġunder taken
I J
Ġsem ic
P F
Ġw ww
Ġwhe els
ĠJohn s
N V
ad ers
act ivity
n ick
ĠD w
24 5
Ġparticip ant
Ġhon ored
ĠCopy right
Ġsla very
ĠSant os
Ġw are
16 3
Ġtorped o
/ {
P od
ĠN etworks
par ser
NavBar Cell
ĠRes p
ĠAnd rea
amp ire
17 90
Ġmem ories
U ntil
N Y
IT E
M iddle
Ġst ems
ĠR GB
... ]
Acknowledg ements
'' (
ER S
ch urch
sh an
16 2
ĠRetriev ed
ĠAcadem ic
ĠGra duate
ĠRos a
ĠHop f
it Ã©
Ġch lor
]{ @{}
Ġmon uments
Ġtorn ado
deg enerate
ĠL L
ST AT
ĠPla za
ĠBur ton
ĠStart ing
ĠIn side
can onical
F ind
j p
as se
ĠPro gressive
Ġant iqu
ĠLiter ary
d one
q a
pt s
ĠChe ng
Rec ent
Sw iss
Ġo wing
Ġe cosystem
r ina
ut i
Ġdo zen
Ġmultiplic ative
Ġheadquarter ed
Ġamm unition
comm unications
ĠRh ine
S outhern
Ġin ad
ok i
ub ern
Ġstri kes
ĠIm port
F rag
ĠBir th
sem i
ys h
ĠP sy
osp ace
Î µ
Ġfavour ite
le en
Ġf ru
Ġconsp iracy
ĠT roy
CH ECK
S elf
ĠB order
Th ough
Ġcl othes
Ġun c
ogen ic
Ġbin aries
i ary
u o
emb les
ĠGP U
rac use
Ġaugment ed
r ud
ass adors
for table
Ġcl ick
ĠInd ividual
O H
ĠEd gar
Ġplanet ary
im edia
ĠBul ld
ĠSup p
E astern
ĠMerc ury
Ġrem ind
Ġv oyage
Ġsee ks
Ġdepict ing
ĠBar b
d w
f lag
}} |
pl oys
17 7
Ġd ying
ĠAp ollo
Ġinters ects
Sec ret
Ġin sects
ĠS Ã©
Ġpup ils
ĠRec ording
ĠW W
ĠTasman ia
ĠNap les
ov ic
col lection
Ġpres idency
ĠJane iro
Ġthe ology
ĠB ac
Ġfurn iture
ĠEnter prise
c C
ĠMy an
ĠWe ather
em i
ĠK ids
20 4
ĠMin neapolis
w u
ĠHol ocaust
ĠPaul i
ĠV ij
2 15
[ :
spect ral
ĠK illing
ĠMar ion
ĠKazakh stan
ĠAgric ultural
$ ]
æ ĸ
ad dition
in verse
ĠC B
om ers
;\;\ ;\;\
ĠK um
hed ron
Cl oud
ĠMod els
Ġviol ations
Ġproceed ed
Ġroll ing
ĠPrest on
Ġutil izing
ĠZ ero
the m
)= -
ĠBe au
Ġenc ounters
{ }{
Ġl oved
ĠG ross
AM P
Ġoccas ional
ĠE t
Ġcycl ing
Ġafter math
app ings
Ġman ually
ĠN urs
Ġdecl aration
ĠC ustom
Ġthe olog
ĠD ynasty
ag ascar
Ġmed ic
Ġp ipe
ĠÄ Ĳ
Ġgar rison
p ure
ĠCom plete
id ian
ĠB ec
ĠP u
ĠP ale
ĠCh ancellor
ott ing
R am
Ġmotor cycle
Ġprompt ed
Ġel ong
sq cup
ĠMar tha
Ġdoctor ate
S pect
X ML
f u
pro ps
Ġup set
18 22
20 3
Direct ory
ro log
Ġimport ed
ĠHug o
ĠHonor ary
ĠQu antum
- ,
Ġcontest ants
Ġlist ening
Ġgram mar
B ottom
Ġmass acre
Ġdemand ing
p ole
ĠR he
opl an
)^{ -\
rom atic
c amp
ĠG an
Ġde alt
label ed
'' )
Cent er
Ġpray er
Ġstory line
Ġl ith
Ġaccording ly
fri ed
m ixed
Ã ®
}=\ {
Ġe ating
Ġdegener acy
ĠGael ic
}{ (\
)} +\
Ġcomputational ly
ĠC ategory
ĠW inners
Ġspace craft
Ġdrop ping
dor ff
ĠAr senal
by e
ĠI L
Ġpro sec
ta ch
r ub
ĠRich ards
ĠMyan mar
ĠChile an
online cite
ĠBav aria
che t
Ġup grade
ĠParliament ary
Ġpoly t
o ine
Ġb ore
The ir
at op
od ium
Ġperform er
ĠEx per
ĠMin isters
ĠBright on
comm ission
ĠD ew
ge ometric
Ġacknowled ges
ĠA G
Ġcolon el
Ġj umps
Ġresemb les
ĠÄ Į
ym es
ĠGram mar
16 4
ĠN uclear
Ġfre ed
ĠL il
et les
Ġen closed
Z hang
Ġf ran
ĠMidd les
Ġconcept ual
Ġd ir
ogn ition
le af
ĠV at
ĠMem ory
L ists
Ġs ink
Ġsupers ymmetry
ĠC od
Ġarg uing
ĠÐ ¸
Ġper ipher
Ġpurs uit
mer cial
Ġcritic ised
Ġcommunic ate
ar re
ĠG ul
Ġcan vas
ĠMon roe
er als
- )
Ġw ound
Ġn ose
Ġg est
âĢ ĺ
en ko
() {
17 4
Ġpar ishes
Ġpro gen
Ġconst ructions
Que en
ĠSol id
Ġvacc ine
Foot notes
ĠNew man
Tur kish
Ġra pe
Ġbipart ite
G i
res et
Ġtrac ed
ĠSch midt
uli ar
ĠR as
ĠV AL
in ous
Ġshe ep
Ġmathematic ian
f orth
Ã µ
en ary
Ġopin ions
ĠRoche ster
ĠWal sh
Ġst yl
Ġexclud e
m inton
Ġ ic
ce ut
object s
ĠEll en
cover ed
col lect
)} +
Ġsimplic ial
S on
ta ker
Ġsur rend
U SE
ew ard
ĠBel le
t mp
18 13
Ġcons ort
Ġlo ose
Ġpro sper
; /
AD D
) ",
Ex perimental
0000 00
Ġro uting
hold s
27 5
ge ons
ĠWinn ipeg
ab l
Ġdiscip line
ĠR NA
Ġrecurs ive
ob iography
B and
C ivil
Ġn ortheastern
sp here
Ġnob ility
Ġl as
Ġterror ist
Ġp aired
Play ing
h ide
int eger
oh an
Ġplate au
p ark
ĠU FC
ĠP lymouth
Ġv ibr
Ġord ained
ĠA V
Ġbad ly
Ġ} _{
uck et
ĠF ur
Ġkill er
im on
Ġ= ========
Log ger
ĠSerge ant
arma ceut
}) \\
ĠPresident ial
ed uc
ĠVari ous
Ġr ulers
=\ !
Ġimp ression
Ġc ube
Uk rainian
Ġhur ricane
R ot
Ñ Ĩ
ĠLanc aster
Ġwe igh
A u
Ġa wait
ĠG ur
p ri
$\ %
_ (
. <
Ġsk et
head ed
22 2
Ġcab in
ĠV oc
ĠPal omar
ĠC ell
15 9
ĠK end
Ġpost pon
}= {\
ĠLet ter
art e
Ġsp ans
Ġwithdraw al
)}{ (
Ġtend ency
print f
Ġop posing
With out
is odes
ĠStef an
20 6
ry ing
ĠSer ver
Ġmonot onic
Ġ io
new s
Select or
sm outh
Ġf action
18 16
000 1
ĠV id
Ġint ersections
check mark
ĠWes ley
Ġout going
ĠPer iod
Ġbul let
es ome
ro ft
d V
ĠD escription
tabular newline
valid ation
K en
con serv
ĠĠĠĠĠĠĠĠĠĠĠĠĠĠĠĠĠĠĠĠĠĠĠĠĠĠĠĠĠĠĠĠ ĠĠĠĠĠĠĠĠĠĠĠ
t el
Ġimplement ations
l Vert
l ar
ĠPubl ished
/ {\
he x
ĠB ound
ass is
Ġag gressive
cal c
ĠL ines
Ġbatt ing
ĠMaced onia
lym pi
list ing
J P
Ġcar ved
ĠPo incar
ĠCop a
R os
Ġinters ect
ĠRes ponse
Ġaver ages
ĠLap lace
ĠY emen
Ġ& =\
und ers
Ġreg ret
m itting
Ġtransl ator
ĠNet flix
Ch icago
Ġmark er
Ġre he
17 3
itt ers
M i
p ull
al us
Ġsol ver
P ut
en za
Ġen orm
Ġjust ified
)) );
Ġg la
ĠL C
Ġlat ency
sh ared
ĠBal let
Ġsup porter
Ġavoid ing
ik er
A gent
Ġbre ed
Ġsepar ating
itro gen
ĠD A
Ġdiv iding
Cl uster
Z ero
Ġpass word
ĠA sc
Ġgen res
Ġcomp ressed
Ġworks hop
R andom
Te V
ĠC ly
Ġar cs
ĠDep ression
u ating
get Element
W inners
ĠAg ent
}}( {\
Ï ĥ
Ġkit chen
F ailed
ĠTr uth
Ġtre as
ĠAlb any
ĠK od
vi ol
ct ica
With in
ll ll
ĠBur ke
ĠC ool
av g
Ġwat ched
rop olis
ĠGust av
ce ae
F D
at oon
Ġpart on
ely n
B attle
ĠCan cer
m orph
Ġp ig
St op
Ġesc ort
Ġgirl friend
Ġdo ctrine
Ġpoll ution
M G
ĠDen ote
ĠW ave
ĠCon struct
ag ain
ĠP rec
ĠWe i
ĠArm s
Ġbass ist
ĠClif ford
cre ated
ĠField s
Ġbe er
Ġfound ations
ĠJer emy
ile e
r ÃŃ
ol ver
Ġtop ped
Ġexceed s
Ġeng ra
vent ions
ĠJul ius
Rep ort
ĠT uesday
is se
Ġeigen states
Ġcompat ibility
on ce
et ter
G h
Ġexp ense
ĠMc N
ĠAber de
ĠPro gress
Ġdram atically
ĠHay es
16 1
oph on
IV E
ĠB har
row ave
af a
log ger
Ġarm ies
Ġdram at
Ġcardinal ity
y x
ĠGriff ith
Ġab st
uls ive
ĠChief s
Ġ Âł
Ġtet ra
3 40
ract ive
Ġbreak down
l ich
ĠCD P
k ip
Ġw ishes
Ġn ights
ĠL on
Ġrelax ed
N ET
18 23
L ear
ĠU t
ĠM eyer
G od
ĠLe vi
Ġult imate
K a
Ġsw ing
ĠChem ical
um en
Ġhigh ways
Ġlimit ation
* ,
Ġto y
ĠP ere
ĠE R
Com plete
ram ento
Ġd ans
ĠV iv
ĠP T
Ġv ault
A bs
Ġpersonal ities
g lu
Ġcomplic ations
Ġveget ation
ĠI z
ĠY es
Ġhom osex
ĠBrown ian
Comb ining
ben ch
m ud
ard ment
Israel i
Ġvin yl
ĠF on
li u
ĠP ir
l ord
Ġle ase
Ġvis ibility
ĠP omer
ron ics
ĠFer gus
18 27
Ġfinal e
ĠS uk
in ks
ĠDe cl
Cle arly
Ġexp elled
rew s
Ġtransl ates
Ġest ates
ĠP iet
ink i
ili ation
Ġmer gers
Pac ific
Ġv it
ĠW ings
col Last
Ġtor que
ath am
Ġse al
ĠAdvent ure
Ġhold er
ĠB ent
ĠHein rich
ĠF P
ĠS Ne
UT F
Ġl aps
ĠCorn ell
st orage
ĠB end
Ġm ansion
ab ases
s il
ĠA TP
To String
h istory
ou rable
ac cept
ĠC G
ph or
ĠDay ton
at ro
ĠG ir
ĠRec ently
Ġde leted
min imal
Ġemer ge
Ġstat istically
type of
Ġd z
Ġsen ators
ram er
Ġcon sec
any a
Ġsub stance
Ġreg iments
ĠIn surance
17 75
ĠEv olution
Ġpla us
drop down
R NA
ĠKn ox
ĠIn put
Ġham let
ĠV or
Ġhar ass
Ġmore over
Ġaccount ed
ĠEm il
Ġoverla pping
Ġmission aries
G re
i ade
n ar
Ġpract iced
er ick
ic her
Ġsaf ely
Ġfemin ist
Ġp ent
ĠY uan
p rior
Ġmar sh
UT C
inter val
pe ak
Ġ[ ];
ĠSax ony
Ġcylind rical
Ġcor pus
ĠZ amb
ĠJo el
A rab
ĠM ick
ĠD iana
Ġsouth western
ĠN umer
Ġep ic
Ġtrip let
Ġtub es
al tern
Ġg ods
opter a
Ġsc ar
b ug
w ara
ĠHe y
ato es
ĠA U
18 06
ĠOther s
pe i
Ġhard er
Ġab ortion
| ^{\
Ġport raits
@ "
ĠI X
}} ]
lim sup
stit uting
Ġm ad
im ar
}} ^{-
Ġmonot one
requ ired
ĠP ret
ĠK Ã¶
ĠIn ternal
min imum
Ġspec imen
Ġpossess es
ĠE y
ain ing
Ġro d
18 2
CO MP
Ġtermin ated
Ġguitar ists
Ġsupers ymmetric
Con v
Ġstat s
be at
b v
Ġfore ground
M ach
ĠW inner
Ġ[ (
Ġder ives
us ually
Ġco ordination
pol ynom
th ouse
ron es
Ġ.. .,
dec re
M ask
.. ."
haus en
Ġrel uct
ĠAn imal
c ool
os ion
Ġclass ify
Ġour selves
Ġn ond
ann ers
ĠE W
Ġcondem ned
ĠMar co
ĠCommer cial
M ount
Ġterm ed
Ġp ounds
ĠÅ ģ
Prot ocol
Ġ umb
Ġfin ishes
Pro blem
New ton
ĠBra h
Ġlegend ary
Ġforb idden
D uration
m ile
++ ;
)= -\
Ð¾Ð »
Ġst iff
Ġimp ressed
lo o
Ġbankrupt cy
mar ine
Ġb esides
el ic
Ġcryst als
rif ice
17 6
Ġb acter
ĠGu jar
ĠChron icle
0 10
d ad
F ire
ĠEuro vision
ĠRab bi
re ason
ĠM Äģ
Ġd ors
Ġcontin ental
ĠNAS CAR
Ġut ter
ighth ouse
Ġ$( -
ĠSpring field
T urn
21 4
Ġequ ilib
ĠJes se
S ER
ru ce
ĠCla ude
ĠHy per
ĠR ules
Ar ts
Ġmilit ia
ĠK oh
ill iant
ell es
Ġstrugg led
Ġsp heres
ĠTe h
"" "
del ay
C as
Cal ifornia
ĠNS W
Start ing
Ġpat ri
ĠBang kok
3 25
S G
ĠSt yle
ĠCol ony
Ġany where
col First
ĠSuper ior
Ġm eth
LO G
) }^{
c ourt
m apping
load s
ĠWhit ney
Ġh olog
ĠC rystal
Ġformul ae
fl ies
ĠIndust ries
2 12
Ġarray s
ul in
isp here
F ail
S lov
Ed it
lam m
| $,
ĠB rent
ĠKenn y
} <\
f box
Ġworks hops
}^* $
as ium
up ta
ĠM E
Ġentang led
Ġbij ection
Ġtrib al
Ġtag s
ĠUrugu ay
Ġm ath
ĠC apt
Ġmes ons
Ġrecur ring
Ġsched uling
Al t
ast ed
ass embly
Ġcha otic
Ġd ancers
ĠP ione
nav List
Tra ce
se at
ĠBuddh ism
cles iast
Ġassign ments
ĠM ell
l p
Ġapp rent
habilit ation
Ġvirt ue
ĠBol ivia
d eb
Ġsu ited
Ġtoler ance
ad just
ĠF alk
}_{ +
ĠN iel
cal es
part s
b rowser
ĠV ery
Ġseem ingly
ĠMalays ian
Ġequ iv
Ġ ul
im ath
ĠBo hem
Ġremov es
Ġbal let
ĠT ank
cycl ic
ad os
ĠRed s
Ġback up
Ġsk ull
ĠC lement
Ġan ger
ĠCoal ition
Ġst air
17 8
Ġinf l
al one
d yn
Ġsub mit
Ġre print
Ġthrough put
Ġmut ually
D OC
V en
pt iles
Ġviol ated
set counter
ĠSu ccess
Ġge ographical
D etail
Sp in
ĠCre ative
Ad apter
ĠMahar ashtra
Ġ" <
ighbor hood
ced es
AR E
3 80
K it
ant es
zb ek
Ġrev olt
Ġindex ed
Ġbenef icial
Ġninet eenth
il ogy
Ġdes k
k j
Ġtreat ments
Numer ical
B or
Go ogle
ĠMarsh al
, -\
get Name
ĠChem istry
Ġess ays
ĠHun ting
Ġheav ier
ĠC airo
ĠThe odore
Ġexpans ions
Ġem ploys
Ġfilt ration
Ġadv ised
x s
Ġsub species
ĠSing er
d ifferential
comput e
unct ors
Ġcust oms
Ġm arri
sv g
ĠRaid ers
Ġsol ves
Ġcoun table
Ġl ord
Ġd inner
ĠAm ateur
C irc
Up per
pher d
I SE
ĠJul ie
) &=
od rom
ĠMon ument
}$. }
ĠBra ves
enc il
ĠAssoci ate
Ġposit ively
p enter
comp let
ĠK ane
Ġenter prise
Ġdiagn osed
ĠR up
b ons
ĠH ert
ĠN in
ĠTh ames
ĠBor is
% "
Ġperm utations
ys elf
ĠCl ara
ĠAtl as
Ġhum or
&. &
$ ^{+
Col lections
ĠH ousing
Ġqual itatively
ĠB es
Ġstep ped
d ong
Ġillust rations
Ġdegrad ation
ĠS ed
ĠF uj
op us
S QL
am ar
Ġret rieve
cor related
t bl
Be etles
ĠCow boys
Germ any
ch us
{( -
us hes
ord ering
TR UE
Ġquestion ed
( |\
an an
Ġresid ue
ak is
j ob
m h
ĠGarc ia
Ġin clusive
O UT
ĠS ard
ĠF Ã©
oc es
Ġsy l
}: =
Ġcr ust
Ġtem p
Vari able
\ },\
b ranch
Ġgame play
Ġwild life
l ot
R ic
Ġh i
Ġex ports
ĠMad agascar
ĠJam ie
Prim ary
b il
cl iffe
Ġreal m
AA F
ĠRoman ized
Ġteam mate
Ġsac red
Ġnick named
at tack
18 17
ĠIm pro
w ings
ĠR ifle
ĠW on
pre v
c ass
", "
ĠOr d
Ġbi ased
h ouses
Ġaband on
Ġd iving
ĠB ren
ĠW is
ograph s
r times
asc ular
Ġo mit
Ġ+ (
ä »
ĠThom son
18 09
ĠMar ines
ba um
N M
az y
Ġsubmar ines
ĠEn c
ne o
Ðµ ÑĤ
Ġst y
Ġrev ived
() </
ĠPar agu
ĠCub s
ak k
Ġmet er
ĠZ en
Ġan xi
Ġindic ation
ĠChurch ill
ĠHal ifax
ĠD awn
w d
clud ed
desc ribed
$\ {
ĠN ames
B rowser
Ġsocial ist
ĠFe ynman
Ġcon quest
Ġv ig
Ġt ile
ĠP am
ĠCol umn
Ġfort ress
ĠLog an
Ġmanip ulation
ĠB rom
Ġincorpor ates
r ific
Ġb le
bi ased
ord ial
Ġmanufact ure
ist o
p el
os o
Ġinterview ed
da ughter
M as
Ġfl ip
Ġrival ry
Ġn p
ĠH ank
ĠH erman
ĠV it
ĠFl ash
Ġfold ed
omet ime
)} -
ĠE du
oc aml
ĠEr nst
erm o
Ġcor poration
Ġdiscuss es
ĠE yes
I ran
Se lection
ĠH ond
Ġsmooth ing
Ġmet eor
Ġadv ocated
Ġacadem ics
b rief
ann ah
Ġer upt
? }
Ġloc ked
N U
P V
Ġhe lium
ris k
New s
ĠNE AT
y ellow
ĠT ODO
Ġconcent rate
Ġsn ake
E lections
col sep
B all
Ġorth onormal
] =\
ĠJud a
k pc
: [
4 000
f bb
ĠJohn ston
Ġep it
Ġgrand mother
ay e
disc uss
ĠB ian
agn et
Ġscal ars
^{- (
me chan
ĠCrit ics
Ġbatter ies
m ind
ĠCam ero
ĠW rite
ĠMar itime
Ġfl att
OD U
Ġtrump et
Oper ator
Ep isode
ĠWol ver
N ULL
{ +
chang ing
Ġlar vae
or ange
Ġmut ation
} &=&
s sec
ĠW aters
à ¹
M sg
min o
Ġflex ibility
ĠAp plication
ĠSem inary
P b
ĠM iy
ĠB eg
Ñ ĸ
Ġhe ct
Ġair ing
B AR
ĠMar ian
Ġex empl
get own
ĠG ian
Ġam id
Ġsail ors
T aylor
ĠR ash
T x
Q A
Qu est
\, $\
ĠDor othy
ĠL S
ĠE isen
k r
ĠJ ur
Ġinf inites
Û Į
ĠPear son
Ġbox er
rog ate
az a
Ġretriev ed
ĠS tern
à¤ ¾
Ġspont aneous
int roduction
18 19
Ġsur geon
Ġanth ology
dat aset
es que
Ù Ī
ĠMan or
Ġform ulate
ĠLe y
Ġhand ball
rac ing
sc ious
Ġtunnel ing
ad ia
a uc
ĠAd olf
R N
t uning
Ġs ab
Ġcomp ares
ĠFor bes
d ar
ĠI TV
ang les
Ġgen uine
L iga
and in
Stat ement
m eter
Ġdemonstr ating
ĠDem ocracy
ĠR ever
Ġtrans fers
Ġim posing
K al
Ġcon figure
Ġflow ering
Ġb acks
ĠLouis ville
Point s
Ġpres cription
hor se
ĠElect ronic
st eps
ad v
ile vel
Ġp iv
ip linary
', '
M ake
W at
K w
J y
g re
ĠL ed
Ġaccept ing
Ġb ills
ĠAg u
W ild
Ġg amb
Ġreve aling
Ġmac roscopic
and an
Ġb arriers
ĠG Ã¼
ass ets
ant o
Ġref uses
Ġparad igm
hig her
ĠL ep
M ike
R oy
Pl ugin
Ġphysic ist
Ġc ere
Cond ition
ĠM oses
}) +\
Ġtick ets
F ish
W hy
Ġsche ma
18 03
Ġmach inery
Ġcon ceived
}^{ {\
Ġdecla re
() ).
Con stant
ĠMal colm
b rown
refer red
ĠImp act
olith ic
Ġinitial ization
S equence
ĠInd o
ĠM oss
Rec ently
assert Equals
cont rib
ee k
ĠEd win
Ġpropag anda
sign al
dot sc
Ed ward
Ġcust ody
C s
row span
r Vert
Ġ ^{-
Ġlens ing
Ġinteg rity
ĠTel escope
ĠEmer gency
Ġunve iled
role um
typed ef
Ġ" ,
Ġrel ativity
bra him
Ġprohib ited
qu bit
ĠBut ter
press ure
Ġhabit ats
Ġdeleg ation
ĠH ers
Ġcommand ing
add ed
Ġprem ises
Ġt ar
Ġob s
ĠMin i
Par se
fe atures
fact uring
att i
Ġlegit imate
Mex ican
Ġiniti atives
s ocial
Ġassass ination
ĠV ish
18 08
ĠN orton
fil ename
A k
math rel
rypt ed
Ġm s
we ets
Ġbow l
Ġphilanth rop
th ood
Ġcross ings
en abled
Ġtour ists
ĠA bs
P DF
Ġbroad caster
i ar
F ri
rr rr
ĠCharl eston
Ġinstruct or
r ational
Ġbas elines
ĠD ynam
ĠStat istical
4 80
oper ative
Ġenlarg ed
Ġsem ifinals
Vert ex
un ting
ĠL ords
Ġspr int
th rows
ĠP lease
ĠGreen e
r put
cy cles
ĠJ ag
Ġco q
Vis ual
ffbb bb
z t
re li
ĠCo leman
Ġlog ging
Ġrig orous
ĠT E
ow itz
em ann
isc ount
Ġren ovation
Ġprop ri
ir cl
Ġdis advan
ĠSh an
er ial
ĠS erv
Ġleg ally
Ġwitness es
ĠJ ake
Ġsurve illance
Ġg aug
rib le
ik k
alax ies
Ġst ays
ĠDar win
H ub
an ium
rig ger
å Ĳ
Ġdel la
- .
) <\
Ġp ric
ig g
Ġaddress ing
Ġsub urbs
ben ius
Ġsystem atically
C orn
c ue
ĠT ul
ĠSpeed way
Ġc ob
ĠH ag
ĠKos ovo
En um
Ġvi able
bl ank
M ixed
Ġt aste
ope z
Ġflow n
ans on
v ian
ĠDod gers
Ġb lu
ast ings
ĠTanz ania
Ġfib re
ff ff
\ ;\
var sigma
\ &
an ions
ĠUl ster
y am
Ġcollect or
ĠBrown s
Ġaccident ally
on el
Ġin tact
Ġb ones
ĠW ander
Ġp ine
ĠB io
ill ary
Ġd ose
Ð¾ ÑĢ
Ġtheore tically
Ġcont amin
ĠZ ion
Un like
iform es
Ġsuggest ions
Tour ist
sh adow
fore ach
ĠMonteneg ro
imod al
m ust
Ġen force
ce iver
ĠDeut sche
)\ )
pi res
Ġreason ably
con clusion
D eb
Ch ris
' }}
ĠTh anks
Te ams
ĠCraw ford
ES CO
Cath olic
d ated
f lex
ĠL STM
Ġserv ants
ĠTrib une
ir ling
ĠV ert
er cis
Ġs unk
Ġ( +
and e
Ġbas ically
Ġdeleg ates
Const ants
Ġcre am
ĠIs ing
Not ification
Rep resent
ĠBas el
uv ian
Ġinaug urated
ing ers
yn es
Hel p
Ġc ra
Ġprot ecting
Ġplant ed
ĠInn ovation
ĠBeat les
st a
ĠL af
ĠDirect ors
Ã ²
Fore ign
Ġman or
18 4
Ph one
_* $
ĠJ ets
P en
os ely
ĠP H
el ike
Ġacc idents
Mountain s
ĠA udio
Ġmed all
Ġhuman ity
Ġdet ecting
ĠG ospel
J oe
ĠO rt
Ġsub algebra
ĠHeavy weight
j iang
Ġf lora
Ġprom otional
Ġre lying
li que
ident ity
00 7
Ġsen ator
Ġscreen ed
ĠRock y
School s
ĠSouth west
Y Y
ĠG av
Ġpredict ing
FFFF FF
ĠCor por
}| $
Ġliter al
atern al
part ition
ĠLead ership
50 1
Ġemphas ized
Ġboard ing
ĠBul let
Ġp el
M anu
Ġorgan ize
ĠD epend
ĠReg ular
u id
Dom ain
Ġtact ics
ĠKarn ataka
17 1
Ġsh aft
ĠCh amp
Ġspeak s
label s
Ġsub mission
Ġpres cribed
20 7
ĠH oll
}} }_
Ġend angered
ash ing
Ġtun ed
ĠVict ory
ĠI E
Con sequently
ĠRom ans
ĠInit iative
Ġa rose
ĠW er
Ġpol o
99 9
Ġ! !
am az
Ġsuggest ion
z an
sp acing
pref ix
ĠTreas ury
Ġb lo
ex tern
Ġsit com
ĠAnn ie
Ġnorth western
ĠBel t
cap s
R AN
Ġhal os
Ġsem in
ĠGre ens
ĠSebast ian
ĠGreat est
ĠW ong
Ġsub script
30 1
Ġfail ures
ĠLyn ch
Y M
Ġf iscal
pl anes
dis crete
Ġf idelity
Ġcomput es
Ġrenov ated
let cher
L imit
m atter
ĠC I
ĠD ylan
Ġgroup ed
poss ibly
2 16
ĠT itle
Ġlast ing
ĠPort smouth
ĠAr d
Ġresol utions
3 10
× Ļ
Ġrespons ibilities
tikz cd
H ong
Ġaugment ation
ĠX V
ĠSof ia
Ġgar ner
Ġsubdiv ision
b red
}) ]
de velopment
Ġtre ating
Ne ill
bal anced
Ġen v
met adata
F lags
Ġin cent
ĠPl us
M ir
ĠQuart et
et ric
Ġprev ents
ĠKrish na
Ġcomm ute
ev es
Ġpl ural
fact ory
b k
Ġte lev
mod es
test s
ĠPoint s
N eg
Ġm asks
ĠB uc
ĠPol l
Art ists
ĠBet ty
ĠM T
Ġlif estyle
Ġcast ing
en ario
A X
Ġpe ers
Ġsubt le
ĠY osh
ge b
Ġdis charge
it as
ĠGuatem ala
z ar
Ġ= ======
ul lable
sh ots
ĠFl oyd
ĠH odge
b ranes
ĠLat via
ĠH its
Ġport al
A K
ĠĠĠĠĠĠĠĠĠĠĠĠĠĠĠĠ Ċ
ĠS it
B esides
Ġb apt
ĠHerm itian
Ġfro zen
ne ider
ĠWe bb
ĠR ag
S creen
Ġfin anc
uit ively
17 98
Ġdisc s
Addition ally
S K
un ks
18 6
Ġpres umably
comp iler
ĠTour ism
e astern
s chool
ĠPant hers
ĠW AR
ĠAppe als
Ġatt en
Ġre min
ĠR ao
ĠK au
Ġrep airs
e cca
Ġj e
ĠInt eger
ĠB agh
ĠÐ ½
Ġmet re
all classes
et imes
Ã¨ res
pos er
Ġmos que
Ġreg ards
Ġjud gment
18 05
ĠH ubbard
Ġle ar
Ġancest ry
Ġb ilinear
ĠB O
Car thy
ĠDrag ons
Ġc ro
an ch
ĠSte phan
Ã©t ico
ext ra
ĠSh annon
Ġhot els
= ~
Ġk iss
est ock
Ġcancel ed
Ġ( -\
Ġtra ils
od on
ĠRes Net
ĠC risis
ĠP erm
ĠF eb
ĠBro ck
gener ic
ĠSt atus
d ialog
cal a
N amed
Ġdirect ing
io x
Ġkn ots
Ph ase
Ġs ad
Ġeigen vectors
ĠW en
Al g
i w
ath lon
ĠU TC
Ġconstitu ent
ĠBalt ic
ĠDra ke
D IS
L F
ĠG ymn
Ġreleg ation
ĠB erm
Ġreg ulatory
ĠG ates
Ġap par
ĠId ent
in itions
DE s
Ġaccept s
18 3
-> _
y ield
ĠAp plied
ĠN otes
g c
ĠSum mit
× ķ
Äģ n
ĠC FT
av irus
Ġdisc ount
Ġrein force
Ġt iles
Ġkilomet res
ĠHy dro
Arch itecture
}) _
E mb
ain es
Ġdisc ipl
Ġrun way
n els
Ġn urse
ĠU I
Ġph y
ĠCar neg
B ang
Ġtw entieth
Ġdynam ically
ĠRel igion
Ġvisual ization
ĠH ang
Ġfilter ed
Y ang
ĠYuk awa
), $
Comp at
Ġmin ima
Ġreal izes
graph s
Ġpar ser
def i
ercis es
Ġpro poses
dif ference
ans en
cal ed
Ġpen insula
he nd
und efined
Ġd ent
ip el
ĠLank an
by tes
ĠF ra
Ġde ceased
Ġflag ship
ĠG lor
Ġo ak
ast ically
ĠE aster
Ġlack ing
Ġdiscret ization
ap unov
dis p
ĠÂ «
Obs erve
f lags
s igned
Pier re
q i
Ġ{ "
Ġlist ener
ĠSim ple
AL SE
Ġtrain er
ĠD iet
math ring
ort ex
ĠK le
Ġfilm maker
Ġ[ "
B uff
ĠF ut
Ġbr ut
Week ly
Sc ot
der ived
) ">
A ST
ÃŃ s
ĠSpec ies
ari at
Ġcrit ically
Ġcooper ative
b right
ali as
l ishes
)+ (
Ġmamm als
ĠBulld ogs
y en
Ġlif ting
IF AR
+\ !
P ic
30 4
Ġten or
redu ced
ĠUlt imate
og h
O rd
Ġn ested
lem en
Te X
Set ting
Ġwitness ed
clesiast ical
Ġcomm ittees
ĠCarneg ie
ĠTre k
al ore
ĠCl imate
ĠT error
Ġcon ject
ĠLe icester
Ġup stream
ĠAl g
log en
Ġarch ives
comp ress
alo is
Ser bian
te in
ĠGarc ÃŃa
min im
18 11
oul os
An th
ĠDub ai
Ġimplicit ly
Ġf rig
e ither
ĠH ip
Q U
ĠGriff in
nt on
ĠProv idence
Ġremn ants
pe x
C W
W ho
ess ment
erv ille
Ġpro ps
Ġgeomet rical
ĠBre nd
ĠâĢ ¦
ks and
&. &-
Ġveter ans
AN T
art ime
fill ed
hand ler
ma ven
M ix
Ġp ending
C U
ĠE ducational
ĠB ug
qu asi
m ov
ĠSuff olk
ion ic
Ġsuscept ibility
ĠL Ã©
ĠPh oto
ĠWill ie
Ġexplan ations
Ġro oted
pm od
Ġrest art
Ġpec uliar
ĠS ugar
Ġconf inement
ch at
Ã¨ ne
Ġpil grim
Ġlingu istic
Ġal beit
17 94
Ġmand atory
n othing
ank ar
Ġter restrial
ĠCast ro
ikh ail
f ine
ĠC IA
ring e
yl on
Ġres emble
Ġdescend ant
Ġmed i
Ġcoordin ator
ĠChap man
part icles
Ġsm oot
ĠHaw ks
ur ally
ĠF ol
Ġto b
ĠK K
Ġrecre ational
C amb
Sc roll
Ġdisp laced
ĠBald win
Ġperturb ed
ĠSen ators
Li u
e conom
sp ot
Ġval ence
D ar
Ġconstruct or
or ic
Ġqu arters
Ġe ject
ĠK ind
Ġmater nal
Ã¢ te
P laces
Ġm ism
ansk rit
Ġill umin
ĠHero es
3 65
ĠC over
por a
Ġbatt alions
ĠLeban ese
Ġanticip ated
Ġs i
ĠS ind
ĠM ilit
Ġrail ways
function al
Ġmar ble
Ġrot ations
B ERT
P ER
ĠLad ies
Ġin ches
ĠPrim era
ĠConstantin ople
C roat
new page
ĠL ob
und o
Ġmon ks
Ġaccum ulated
Ġb ot
Ġend points
Ġreprodu ced
ĠH appy
18 07
ĠX ML
serv ices
s ampling
Prot ected
17 9
F lor
ĠT ell
Ġtra vers
Ġsal ary
Ġg astrop
Ġ$\ ,
ĠMad h
Gener ic
j ani
ĠG ets
Ġsure ly
ĠK ob
Ġconv oy
) '
Ġs le
lab or
Ġrot ate
p ub
Ġf unc
ch rot
S ix
Amer ica
Ġlim estone
ĠAss uming
Ġvac ant
ĠD P
Ġexpert ise
c F
Ġap olog
ur ring
Ġscript s
Ġgrate ful
ĠTrin idad
rit ic
ion ization
ĠB L
uc us
ist on
Ġpers istent
4 40
n ian
18 1
Ġoff ense
Ġ )^
ĠAl leg
an as
Att ributes
ĠH M
ast on
Ġly ric
R ate
ĠEm irates
Ġfav ored
Ġn avy
c ategories
an ov
ĠR ough
ĠRaj a
domin ated
rm k
Ġ[ ...]
Ġlect ure
Acknowledg ments
C RE
g b
ĠSte am
ĠMes a
á ŀ
ip es
17 95
eps fig
ĠK ul
Alex ander
ĠL al
ĠPatri ots
å Ī
ĠSupport ing
}) _{\
Ġsort ed
BU G
Ê ¼
ocol ate
ĠB Y
Ġcycl ists
Ġup ris
ĠCla ire
ĠConstitution al
the l
][ '
Ġex otic
Ġs lab
ĠH yp
Ġannot ation
P ATH
t body
Ġ" -
Ġblock ing
Ġthreshold s
ĠOl iv
Ġcons erv
tt i
vis ual
Aust rian
S NR
Ġprot ons
ĠC yp
ĠD ry
sc ribed
v id
v ark
utr ino
W N
B ell
ĠĠĠĠĠĠĠĠĠĠĠĠĠĠĠĠĠĠĠĠĠĠĠĠĠĠĠĠĠĠĠĠ Ġ
Ġn ons
Ġvers a
R on
ĠV eh
T yp
ar at
Ġbuild s
)/ (
% ).
Ġj ur
Eng land
Ġsqu ee
Ġan arch
m embers
ag ogue
ĠChe v
Ġabund ant
atern ity
Ġl ane
ex isting
Ġspons or
) &=&
Ġcho oses
Ġm ud
}}$ -
Ġf ights
oc ide
Ġobserv ers
ĠBrun o
Ġreb el
Ġbeh ave
Ġfac ial
ĠSch ol
ĠBla ir
chrot ron
math ord
ĠAt tack
Ġinc idence
Ġpractition ers
ĠS USY
end e
ĠJ ob
\, ,\
ĠMid lands
Ġadm ission
O x
m otion
Ġcommerc ially
olog ne
Q Q
ra pe
">< !--
? )
ich t
Histor ical
d dots
if i
cl amation
ĠB ard
ĠD ul
Ġpro c
ĠProdu cer
ĠPruss ia
C apt
ri que
ary a
ales e
H OD
ĠC W
Ġsubsequ ence
disc ussion
Ġelder ly
Ġtr ivially
Ġ( {
D G
17 00
head ers
tr uth
Ġassess ed
head s
Ġkinemat ics
m tx
Ġsk ating
Ġpromin ence
tab len
ĠPap ua
in en
es pecially
Ġrece ivers
ĠW WE
ĠJup iter
ĠA ce
Ġident ically
Ġcollabor ative
ĠKy iv
em ission
Ġse cre
Ġdem o
Ġl ady
Spr ing
Â ²
ĠD ock
}) -\
ĠM ile
23 2
UR I
it ated
inter est
ĠU nd
Over all
Ġphys icians
ĠL it
Id entity
Ġread only
Ġdig its
ĠQ atar
ĠCond ition
Ġre q
Ġlo ans
em ia
S ync
Ġsm oke
Ġmod elled
Sc ient
Ġun ited
Ġfac ade
}- {\
Ġspecific ations
c io
ta ur
) ^*
Ġpublisher s
ass ic
ĠY ok
B ank
ous and
Ġphon on
ĠH our
ĠR ather
ĠD ise
ain ter
ĠR A
la ge
18 04
'] )
at u
Ġcrown ed
ru z
, ...
ĠS ag
ĠJoh an
par ity
Ġopen ly
ubb les
land ers
}\ !\
ĠB attery
ĠMad onna
Ġacclaim ed
ĠFel ix
18 02
b ag
ph rase
A ff
keep ing
Ġper cept
R od
B an
ĠWin ston
E ll
and ez
ide al
ĠBad en
ĠBrand on
Ġeight een
Ġdecom posed
Ġirre levant
Ġelli ptical
Ġcha os
ĠR oma
ĠV es
utt gart
ĠMur der
} </
Ġc ens
Ġfragment ation
Ġ( _
ĠF O
ĠSup erman
Iter ator
bour g
Ġancest or
at able
Ġw arned
equiv ariant
ĠTe legraph
Ġmiss iles
Ġdiagn ostic
E lection
ĠInd oor
Ġoccup y
qu is
st rict
G ar
ĠAntar ctica
Ġreal izations
Ġcommission er
Ġequ ity
Ġp ic
Ġl oses
ie ved
vent ional
ĠQu int
Ġprefer ences
J eff
&& &&
keep ers
g age
ĠC ul
Ġend owed
H an
IG HT
Ġbom bs
Ã³ pez
D anish
ĠC ash
ĠS ara
ĠS ki
ĠC ave
ius eppe
B oston
Ġsyn tax
Gener ator
3 70
tan h
resp ons
ĠIO Exception
ĠR ip
ph ones
Ġund ers
Ġsub family
ae a
Ġorgan isms
X iv
ĠU P
Ġflow ing
h in
Ġsh aded
Ġpregn ancy
Ġdec is
Ġinv itation
elf th
ĠSp in
ĠEst ab
Ġgovern ance
Comput er
Ġfact ories
ĠB oltzmann
ĠIs abel
ill as
ure n
ĠSh ak
Ġpos es
ĠSic ily
ĠSett lement
0 25
b ins
ĠD erek
F ace
Ġ\ }$.
ex ecute
Ġpenal ties
ĠW an
ind e
ent ang
Ġexplo ited
ĠJosh ua
ĠLis bon
Ġadvan cing
ĠAssoci ated
Ġsup rem
B Y
33 33
L ord
ĠVern on
ĠRe agan
ĠSant o
ĠCh arg
Ġhydro dynamic
.... ....
Ġdisput ed
c ous
ĠFre eman
Ġdisput es
estim ated
ys ics
40 4
Ġattack er
test ing
Ġbutter fly
qu ist
ev ol
se gment
ĠM pc
sh aw
arri e
Ġenorm ous
ren ces
Ġcerem onies
al and
Ġre taining
Ġpro to
n ational
ort e
iz ational
ĠP otter
att ention
Ġtrunc ation
Ex ecut
Ġcontest ant
\ :
} ||
incre asing
te br
it on
SS L
P air
ĠD rew
ost ics
N odes
Ġh iding
17 93
29 0
uff le
ĠCamb odia
M ov
< <
Ġauth ored
Ġd orm
on ge
ĠL ing
L im
ak ala
Ġle mm
bre ve
ĠG B
ic ator
Ġsh ifting
Ġam alg
Sh ape
Ġstay ing
H erm
Ġ ì
Organ izations
ĠJess ica
}\ ]
22 8
ĠN LO
23 1
n r
\ (
Ġred ist
Ġreview er
ici ary
Ġnew er
}{ |\
Ġce iling
th reshold
Ġtechn ological
ĠH ook
ĠK erry
Ġcert ification
ĠE V
Ġloc als
a um
Ġl over
ch id
s ync
nt hetic
ĠP seud
55 5
ĠS ap
im inary
Ġtra iler
ĠH I
ev ille
Ġdon ations
ĠAn aly
small er
ĠKe pler
ĠKash mir
ĠT ate
Ġun bounded
ĠSc ots
n ings
Ġl anes
Ins ert
~ ,
ĠP apers
Ġv ib
Ġar ist
Ġsub urban
)} )$
I gn
ib an
o ise
ĠL ives
ho o
M IN
Pl atform
Ġdestroy ing
al bum
Ġens embles
ĠT arget
ĠĠĠĠĠĠĠĠ ĠĠĊ
ty mology
}_ *
Ġpostpon ed
" `
Municip alities
med ium
ĠSign al
k le
Ġb ug
ĠA F
ĠP itt
ind ices
ugg ed
ingu ish
univers al
St udio
R og
ĠM BA
andid ate
_* \
ĠSe y
Ġparameter ized
Ġcomp iler
Ġacc us
Ġtru cks
acknowled gments
ĠLaure nt
$ |
Ġe lem
p lain
ser ial
it ches
pon ential
ĠMichel le
ĠTerm inal
Ġpolit ically
B ind
od i
Ġin ev
ĠRec ent
ãģ ®
ĠR G
stud y
J ournal
am en
m and
Ġadop ting
Ġco oking
et es
G ordon
ĠHe isenberg
Ġpract ically
rac ed
00 6
Ste ve
Ġdwar fs
17 89
ĠF ant
Ġqu it
ĠM are
ĠM ey
Ġexcess ive
os y
Ġpath way
Ġthread s
ĠFergus on
ĠA ST
Mar ie
ĠJ et
Â »
rob ust
ĠO le
pre p
Ġsh or
_{ *
ĠD L
Ġout lets
Ġrev ision
Ġresidual s
om bo
ign e
Ġestab lishes
Ġpast or
ĠC and
Ġdomin ance
Ġres ides
ĠMoham mad
Ġcontrad ict
ĠSt rait
w itz
c in
App lying
ĠMink owski
ab stract
Ġbox ers
ĠDe velop
Ã¡ lez
ĠGeor ges
aj ax
ĠCla ud
Ġevol ving
ri ent
Ġint elligent
Ġtype of
v x
ib ia
Ġexclud ing
Ġdec oration
Ġbas ement
Den ote
Ġheur istic
Ġrook ie
} ''
Ġt ong
}= (\
ĠNe uro
Ġ{ '
Ġtail s
Ġcler k
out ing
Ġbus y
m oz
Ġimm une
Run time
ex plicit
CO M
Ġdat abases
Ġf ier
[ [
ĠPro perties
Ġknock ed
Ġmod al
Ġspons orship
Ġextrem al
ĠGu adal
en vironment
or ption
Ġswim mer
utr ition
}} /
ĠCons ult
@ \
Ġinvest ed
r p
ĠC ry
Ġrecon naissance
ĠD art
g z
aw k
Ġnational ist
AS H
D ark
ĠBo at
struct ures
ĠHT TP
ĠTe en
ĠCh andra
ĠHels inki
t in
ray ed
Ġske leton
Ġshe ets
Ġl ots
Ġmay be
Ġsp y
Ġparametriz ation
Ġf ocal
Ġg ras
vari ables
S and
Ġp owder
ma ha
Ġpay load
re ation
ĠF erry
ĠY ar
sm ith
Ġdeb ug
j b
w on
Ġvolcan ic
ĠJuda ism
ĠT ucker
Ġ ~~
Ġsc orer
hent ication
ber ra
Ġbu ying
ĠL ima
ĠO lympi
Ġdec ree
ract or
Pro gress
iter ator
b irds
Ġphil osophical
ĠUnder ground
Ġin jected
un o
we i
Ġa ma
ĠC raft
aut s
Har vard
Ġc of
ro cal
ĠB rain
fl ict
agre b
ĠT es
sl ice
Ġle verage
Ġr ider
ĠSe ctions
Ġlin er
ĠFrances co
f air
ĠH ul
Ġdep ot
v ine
ur us
ĠH ok
Ġbom ber
ĠSac ramento
ĠPsych ology
Ġchar m
B BC
ĠTur k
ĠL und
Ġfe ather
aver aged
sign ature
17 99
ĠA SSERT
F un
ĠC areer
Rep ository
17 92
ĠLaw s
ĠC lem
17 58
Ġin land
Î »
ĠAr ist
L B
et us
ĠF en
gu ard
ĠS lam
ac cur
Ġimp urity
ĠHam pton
Ġmob il
g reat
at as
Ġremark ed
ĠHerm ann
17 96
Ġs el
Ġapart ments
ĠM s
Ġfair ness
Ġto ugh
light s
ID E
Orig in
Ġn itrogen
ĠJ orge
ĠT in
trans port
Tex as
ĠB uk
Ġgener ative
determ ined
ĠR ole
ĠAnn iversary
h d
ĠV all
cc ff
ĠR iley
osp in
com be
Ġh ack
ĠR R
Ġac ids
develop ed
ens itive
bas eline
ĠOs aka
un ched
Ġinitial ized
ĠSal em
Rem ove
ob ic
er ef
ĠN ixon
u en
Ġin set
Ġdet ective
he e
ĠLe one
Ġph rases
ĠR O
Ġac ute
ĠJeff rey
Ġlabel ing
ĠAut om
R ace
ĠParad ise
ib us
act ivated
Ġresc ued
Ġclimb ing
Ġlad der
Ġnurs ing
v t
z ens
ih ar
ĠSher man
ert ation
omin ated
Part y
Ġmas cul
P Y
ĠD re
ĠAn imation
Ġemb arked
Ġorigin ates
Ġexpress ing
28 8
eqn o
Ġna ive
Ù Ĭ
ib ald
Ġbroad ly
EN TR
ĠBar oque
Trans form
ph oon
}} },
ĠCor on
quest ion
L am
ĠA la
fl ush
Ġem otions
Ġlong time
ĠLe af
ge x
ĠP ole
Ġra ids
j unit
ex periments
Spe ed
ĠB ash
ĠRober to
." );
Ġsize of
ĠB eginning
Ġpreced ed
Ġfulfill ed
ĠRaf ael
Ġseason al
-------- ----
Ġh oney
Ch urches
Ant i
ĠStre ets
Ġle ather
d ynamical
(\ {
Ġ&= &\
Ġendors ed
}' \
pres ident
Ġ iv
30 3
ol er
Ġencourag ing
Ġmerch ants
ĠPla ins
K ore
igh bour
ĠK ok
ĠCart esian
ĠE ra
K o
ĠM AC
Ġgraph ical
Ġsubject ed
ĠÅ ½
ĠD up
26 4
Ġlik es
D J
Ġab olition
sh ine
ĠAct ive
Ġt uber
ĠS ister
Ġrecur rent
Ġsp elling
Gen us
ĠL oad
Ġtra its
as pect
ĠMy stery
Ġconsum ed
Ġ< \
Ġtob acco
Ġb eds
Ø ¯
On line
ĠAb stract
ĠB P
St ats
Ġem igrated
LE CT
L ic
Ġb ike
jo ined
ĠG ott
Ġas ync
pl ier
Ġtrans cription
ĠB ose
Ġaster oid
prot ocol
z yn
al er
ĠM orton
ĠG A
est y
fac ed
ccff cc
Ġm aj
Pass word
Ġlat itude
os ity
ap shot
Ġtestim ony
ĠTheorem s
F lag
ĠH ear
Ġcon vection
ĠV ick
ĠOri ental
ant ed
Ġobst acles
ĠM ou
Ġd ys
ul la
}\ }
ven ile
Ġevery day
ĠF ear
ĠG O
ler ight
Ġthough ts
P rice
led on
Ġrefer enced
Ġsem icon
ex ist
\, (
strument al
F OR
V R
ĠD olph
Ġde fer
ef ield
ĠBel ow
link ed
H all
ra j
Ġpol ym
Ġcontribut or
Ð½ Ð°
Ġgeomet ries
Ġpseud onym
ĠColomb ian
me ans
3 90
ĠM ets
pr iv
second ary
Ġtel esc
ic ode
ĠP ool
ĠD op
ĠG os
ĠN ou
Ġredes ign
year s
Ġtro phy
o S
Count ry
William s
E tymology
NN s
ĠIss ue
Ġthrow ing
ast ro
ĠSh am
Ġpuls ar
f mf
Ġ\ '
Ġcost ume
ĠWor cester
chen ko
Ġgovern ors
U pd
n om
B rand
paren cy
ĠCon versely
RE AD
E ar
ĠM aking
Ġsp arsity
ĠCl ose
ĠConf ederation
s ent
ĠT aj
ĠW R
id is
Ġhar sh
Ġlux ury
A le
V S
Ġhe ated
17 80
Ġst int
Sp ain
Writ ing
ĠAberde en
ĠSh ould
=" "
)$ \
Hamilton ian
Ġconfir ms
Ġp orn
view s
Ġposition ed
Vir gin
ĠBur ma
ĠBomb ay
Ġeccentric ity
Ġjump ing
- |
id uc
Stud ent
k ir
ĠS ales
Ġsurrend ered
ĠC redit
Ġcar b
Ġin formal
Ġc ascade
ĠF act
Ġ? >
Ġremin is
di ocese
Ġinduct ive
ĉ ĠĠ
as ive
Ġc usp
r ules
100 00
ĠN othing
ĠÅ Į
pro port
Ad am
S ave
It aly
ĠSy racuse
ĠB Ã©
Ġdep ths
Ġurg ed
Ġsc reens
he ed
Ġc anton
udd y
c P
ĠH undred
ĠBu ilt
ĠGard ner
ĉĉĉĉ ĉĉĉĉĉ
pres erving
ĠAdv ance
H art
Ð½ Ð¸
ĠBoy d
ĠT ian
Ġinter rupted
int ed
Ġaltern atives
res olve
up les
ool og
prov ider
Ġre jection
read er
ĠCal vin
E mp
mathb in
ah i
Ġbelie ving
}{* }{\
direct ed
ĠZ hu
spring framework
ĠM atrix
ĠEl is
Ġmar itime
Ġdeb ris
el man
les h
ĠS ach
Ġinvest ments
Ġinvent or
c us
Ġweak ness
u w
} ')
AN G
Ġelectro weak
ĠTunis ia
Ġbicy cle
Ġlik ed
ĠStrateg ic
ĠZ oo
30 5
ilt ers
ĠR ost
ĠS leep
ĠQu in
ĠHum ph
ĠR ally
Ġconscious ness
ĠJ ourney
22 3
Ġhead ers
ump ing
Ġrub ber
itor ium
Ġprotest ers
Ġw rapped
ĠF est
ĠE OS
Ġorbit als
ĠT oul
ĠV ander
ĠRe act
b age
ĠSand ers
ĠN AME
ft en
ĠA sp
ab ar
Ġdis hes
Roman ian
00 8
ĠPat ricia
Ġc ig
Ġobst acle
Ġtarget ing
ĠTri p
sc hem
Ġkn ight
22 7
Ġmultip lied
ĠPerson al
ĠN ortheast
23 8
Form s
ac ency
N AS
ew orks
I ss
Ġstri ps
Ġt u
Ġident ifier
Ġcont ra
Fe atures
ĠB le
Ġspin or
tab s
aff ected
ĠTun nel
C AC
ĠP ag
un til
Con nect
Ġdemonstr ations
c art
ĠSt alin
Con nor
ĠP ok
ĠRequ est
ĠD FT
Mod els
ĠH ours
}) (\
Ġperm its
Mean while
ĠL ub
pro gress
$ }.
ĠPhill ies
ĠSac red
Ch urch
ĠMong ol
Ġproclaim ed
Å ¼
Ġ} ^{
Ġdec iding
Ġ" ...
v ation
ph in
â Ķ
cccc cccc
Ġf us
ĠSt ructure
ãĥ ¼
v b
$ },
prec ision
h aul
ĠF iji
Not Null
ĠVik ings
ĠJen kins
ig nt
ĠY ard
bb ffbb
Ġtraff icking
et ian
Ġdeform ations
Ġcare ers
ĠEmb assy
c S
ĠIn ner
Ġcorrespond ent
Ġc ater
Ġval uation
ham pton
rib es
}^{ *}
Ġfl ute
' "
A udio
ĠK ron
ĠBer gen
ĠPo ems
}) /
N ick
ĠR ising
Ġinstitution al
19 1
C over
Ġper f
50 9
ac io
ian ces
ĠEx perimental
j ah
ter a
ear ly
Ġwalk ed
Ġcont ing
Ġwhere by
ĠCom ment
ĠHel ena
ĠEurop a
ax ter
Ġannot ations
22 9
Ġinsert ion
Ġknock out
co herent
ĠVolunte er
) &\
Ġd w
Ġre opened
ploy ed
Ġf are
}$ }\
ĠAugust us
Ġaccommod ation
Ġex ercises
Ġcompla ints
Ġf unctors
Ġimportant ly
bi as
Ġk a
p k
commission ed
+ (\
Ġreg ulated
ĠSat urn
um per
Ġlog ger
L uc
ik ov
ĠCzechoslov akia
at y
ĠX box
)) =\
ĠS iber
ĠJ ah
Ġpar ade
\ #
IN FO
Style ID
ĠTit an
Ġintu ition
Belg ian
ung en
\| _\
product ive
d uration
b log
cd n
M pc
ĠTel ugu
ĠCare y
[...]
