{
  "version": "1.0",
  "truncation": null,
  "padding": null,
  "added_tokens": [
    {
      "id": 0,
      "content": "[UNK]",
      "single_word": false,
      "lstrip": false,
      "rstrip": false,
      "normalized": false,
      "special": true
    }
  ],
  "normalizer": null,
  "pre_tokenizer": {
    "type": "Sequence",
    "pretokenizers": [
      {
        "type": "Digits",
        "individual_digits": false
      },
      {
        "type": "ByteLevel",
        "add_prefix_space": false,
        "trim_offsets": true,
        "use_regex": true
      }
    ]
  },
  "post_processor": null,
  "decoder": null,
  "model": {
    "type": "BPE",
    "dropout": null,
    "unk_token": "[UNK]",
    "continuing_subword_prefix": null,
    "end_of_word_suffix": null,
    "fuse_unk": false,
    "byte_fallback": false,
    "vocab": {
      "[UNK]": 0,
      "!": 1,
      "\"": 2,
      "#": 3,
      "$": 4,
      "%": 5,
      "&": 6,
      "'": 7,
      "(": 8,
      ")": 9,
      "*": 10,
      "+": 11,
      ",": 12,
      "-": 13,
      ".": 14,
      "/": 15,
      "0": 16,
      "1": 17,
      "2": 18,
      "3": 19,
      "4": 20,
      "5": 21,
      "6": 22,
      "7": 23,
      "8": 24,
      "9": 25,
      ":": 26,
      ";": 27,
      "<": 28,
      "=": 29,
      ">": 30,
      "?": 31,
      "@": 32,
      "A": 33,
      "B": 34,
      "C": 35,
      "D": 36,
      "E": 37,
      "F": 38,
      "G": 39,
      "H": 40,
      "I": 41,
      "J": 42,
      "K": 43,
      "L": 44,
      "M": 45,
      "N": 46,
      "O": 47,
      "P": 48,
      "Q": 49,
      "R": 50,
      "S": 51,
      "T": 52,
      "U": 53,
      "V": 54,
      "W": 55,
      "X": 56,
      "Y": 57,
      "Z": 58,
      "[": 59,
      "\\": 60,
      "]": 61,
      "^": 62,
      "_": 63,
      "`": 64,
      "a": 65,
      "b": 66,
      "c": 67,
      "d": 68,
      "e": 69,
      "f": 70,
      "g": 71,
      "h": 72,
      "i": 73,
      "j": 74,
      "k": 75,
      "l": 76,
      "m": 77,
      "n": 78,
      "o": 79,
      "p": 80,
      "q": 81,
      "r": 82,
      "s": 83,
      "t": 84,
      "u": 85,
      "v": 86,
      "w": 87,
      "x": 88,
      "y": 89,
      "z": 90,
      "{": 91,
      "|": 92,
      "}": 93,
      "~": 94,
      "¡": 95,
      "¢": 96,
      "£": 97,
      "¤": 98,
      "¥": 99,
      "¦": 100,
      "§": 101,
      "¨": 102,
      "©": 103,
      "ª": 104,
      "«": 105,
      "¬": 106,
      "®": 107,
      "¯": 108,
      "°": 109,
      "±": 110,
      "²": 111,
      "³": 112,
      "´": 113,
      "µ": 114,
      "¶": 115,
      "·": 116,
      "¸": 117,
      "¹": 118,
      "º": 119,
      "»": 120,
      "¼": 121,
      "½": 122,
      "¾": 123,
      "¿": 124,
      "Â": 125,
      "Ã": 126,
      "Ä": 127,
      "Å": 128,
      "Æ": 129,
      "Ç": 130,
      "È": 131,
      "É": 132,
      "Ê": 133,
      "Ë": 134,
      "Ì": 135,
      "Í": 136,
      "Î": 137,
      "Ï": 138,
      "Ð": 139,
      "Ñ": 140,
      "Ò": 141,
      "Ó": 142,
      "Ô": 143,
      "Õ": 144,
      "Ö": 145,
      "×": 146,
      "Ø": 147,
      "Ù": 148,
      "Ú": 149,
      "Û": 150,
      "Ü": 151,
      "Ý": 152,
      "Þ": 153,
      "ß": 154,
      "à": 155,
      "á": 156,
      "â": 157,
      "ã": 158,
      "ä": 159,
      "å": 160,
      "æ": 161,
      "ç": 162,
      "è": 163,
      "é": 164,
      "ê": 165,
      "ë": 166,
      "ì": 167,
      "í": 168,
      "î": 169,
      "ï": 170,
      "ð": 171,
      "ó": 172,
      "ô": 173,
      "Ā": 174,
      "ā": 175,
      "Ă": 176,
      "Ą": 177,
      "ą": 178,
      "Ĉ": 179,
      "ĉ": 180,
      "Ċ": 181,
      "ċ": 182,
      "Č": 183,
      "č": 184,
      "Ĕ": 185,
      "Ę": 186,
      "Ě": 187,
      "ě": 188,
      "Ġ": 189,
      "ġ": 190,
      "Ģ": 191,
      "ģ": 192,
      "Ĥ": 193,
      "ĥ": 194,
      "Ħ": 195,
      "ħ": 196,
      "Ĩ": 197,
      "ĩ": 198,
      "Ī": 199,
      "ī": 200,
      "Ĭ": 201,
      "ĭ": 202,
      "Į": 203,
      "į": 204,
      "İ": 205,
      "ı": 206,
      "Ĳ": 207,
      "ĳ": 208,
      "Ĵ": 209,
      "ĵ": 210,
      "Ķ": 211,
      "ķ": 212,
      "ĸ": 213,
      "Ĺ": 214,
      "ĺ": 215,
      "Ļ": 216,
      "ļ": 217,
      "Ľ": 218,
      "ľ": 219,
      "Ŀ": 220,
      "ŀ": 221,
      "Ł": 222,
      "ł": 223,
      "Ń": 224,
      "Ġt": 225,
      "in": 226,
      "he": 227,
      "Ġa": 228,
      "on": 229,
      "ĠĠ": 230,
      "er": 231,
      "Ġthe": 232,
      "re": 233,
      "at": 234,
      "en": 235,
      "or": 236,
      "al": 237,
      "Ġs": 238,
      "an": 239,
      "Ġo": 240,
      "is": 241,
      "it": 242,
      "es": 243,
      "ed": 244,
      "ar": 245,
      "Ġc": 246,
      "Ġw": 247,
      "ion": 248,
      "Ġf": 249,
      "Ġof": 250,
      "Ġin": 251,
      "nd": 252,
      "Ġp": 253,
      "ic": 254,
      "Ġb": 255,
      "le": 256,
      "ĠĠĠĠ": 257,
      "ing": 258,
      "ro": 259,
      "as": 260,
      "Ġand": 261,
      "Ġ\\": 262,
      "Ġd": 263,
      "Ġm": 264,
      "Ġto": 265,
      "el": 266,
      "Ġ$": 267,
      "ct": 268,
      "ent": 269,
      "et": 270,
      "ou": 271,
      "il": 272,
      "am": 273,
      "ig": 274,
      "st": 275,
      "ĠS": 276,
      "om": 277,
      "Ġh": 278,
      "ol": 279,
      "Ġre": 280,
      "ation": 281,
      "ĠT": 282,
      "ra": 283,
      "Ġ(": 284,
      "ĠC": 285,
      "ĠA": 286,
      "im": 287,
      "Ġth": 288,
      "Ġe": 289,
      "ot": 290,
      "Ġn": 291,
      "Ġl": 292,
      "Ġis": 293,
      "iv": 294,
      "ce": 295,
      "id": 296,
      "{\\": 297,
      "ch": 298,
      "ur": 299,
      "ĠM": 300,
      "Ġfor": 301,
      "ut": 302,
      "us": 303,
      "ul": 304,
      "Ġg": 305,
      "ow": 306,
      "ad": 307,
      "ĠB": 308,
      "ly": 309,
      "Ġon": 310,
      "ers": 311,
      "20": 312,
      "ĠP": 313,
      "19": 314,
      "em": 315,
      "um": 316,
      "ĠI": 317,
      "ith": 318,
      "ir": 319,
      "la": 320,
      "qu": 321,
      "ĠH": 322,
      "Ġas": 323,
      "ĠĠĠ": 324,
      "un": 325,
      "Ġst": 326,
      "ist": 327,
      "Ġbe": 328,
      "ĠĠĠĠĠĠĠĠ": 329,
      "ter": 330,
      "_{": 331,
      "ĠR": 332,
      "th": 333,
      "se": 334,
      "ĠF": 335,
      "Ġcon": 336,
      "od": 337,
      "Ġwith": 338,
      "ta": 339,
      "ĠL": 340,
      "ver": 341,
      "Ġwas": 342,
      "eg": 343,
      "ĠThe": 344,
      "ĠD": 345,
      "ge": 346,
      "Ġthat": 347,
      "ath": 348,
      "if": 349,
      "ĠĊ": 350,
      "Ġal": 351,
      "and": 352,
      "end": 353,
      "Ġby": 354,
      "Ġ$\\": 355,
      "Ġv": 356,
      "her": 357,
      "ĠG": 358,
      "ĠN": 359,
      "ri": 360,
      "ĠW": 361,
      "Ġan": 362,
      "Ġpro": 363,
      "ction": 364,
      "igh": 365,
      "res": 366,
      "os": 367,
      "op": 368,
      "čĊ": 369,
      "rom": 370,
      "math": 371,
      "ĠE": 372,
      "ity": 373,
      "ph": 374,
      "ate": 375,
      "Ġat": 376,
      "oc": 377,
      "pe": 378,
      "ay": 379,
      "ve": 380,
      "Ġde": 381,
      "Ġwh": 382,
      "est": 383,
      "up": 384,
      "ab": 385,
      "âĢ": 386,
      "ub": 387,
      "art": 388,
      "Ġcom": 389,
      "ap": 390,
      "Ġ&": 391,
      "Ġfrom": 392,
      "ight": 393,
      "ĠJ": 394,
      "ex": 395,
      "}\\": 396,
      "ies": 397,
      "ac": 398,
      "Ġex": 399,
      "ure": 400,
      "ine": 401,
      "ore": 402,
      "}$": 403,
      "all": 404,
      "^{": 405,
      "Ġare": 406,
      "Ġ=": 407,
      "ial": 408,
      "Ġse": 409,
      "ĠO": 410,
      "Ġit": 411,
      "ran": 412,
      "ud": 413,
      "'s": 414,
      "ite": 415,
      "ian": 416,
      "ma": 417,
      "ew": 418,
      "ber": 419,
      "ess": 420,
      "ort": 421,
      "ag": 422,
      "Ġor": 423,
      "Ġhe": 424,
      "ref": 425,
      "ive": 426,
      "The": 427,
      "ich": 428,
      "Ġ\"": 429,
      "Ġwe": 430,
      "pt": 431,
      "ĠK": 432,
      "ill": 433,
      "ment": 434,
      "ated": 435,
      "ip": 436,
      "}}": 437,
      "ĠU": 438,
      "ass": 439,
      "ak": 440,
      "og": 441,
      "ard": 442,
      "(\\": 443,
      "ant": 444,
      "201": 445,
      "rac": 446,
      "iz": 447,
      "ld": 448,
      "ft": 449,
      "âĢĵ": 450,
      "ary": 451,
      "ef": 452,
      "nt": 453,
      "ia": 454,
      "ical": 455,
      "ame": 456,
      "int": 457,
      "ell": 458,
      "our": 459,
      "ue": 460,
      "Ġch": 461,
      "und": 462,
      "egin": 463,
      "Ġr": 464,
      "ign": 465,
      "per": 466,
      "begin": 467,
      "ect": 468,
      "ult": 469,
      "200": 470,
      "),": 471,
      "ĠĠĠĠĠĠĠ": 472,
      "ext": 473,
      "ĠIn": 474,
      "ition": 475,
      "Ġcomp": 476,
      "cl": 477,
      "Ġsh": 478,
      "ong": 479,
      "_{\\": 480,
      ")$": 481,
      "cal": 482,
      "orm": 483,
      "Ġle": 484,
      "Ġus": 485,
      "pl": 486,
      "du": 487,
      "ĠSt": 488,
      "ast": 489,
      "Ġwhich": 490,
      "ens": 491,
      "Ġ-": 492,
      "00": 493,
      "ug": 494,
      "ep": 495,
      "ations": 496,
      "Ġthis": 497,
      "ĠV": 498,
      "}{": 499,
      "ces": 500,
      "are": 501,
      "Ġcl": 502,
      "ord": 503,
      "Ġres": 504,
      "ust": 505,
      "so": 506,
      "ire": 507,
      "ks": 508,
      "ff": 509,
      "rm": 510,
      "ĉĉ": 511,
      "Ġnot": 512,
      "ave": 513,
      "ov": 514,
      "Ġhis": 515,
      "Ġk": 516,
      "av": 517,
      "eq": 518,
      "con": 519,
      "Ġ|": 520,
      "frac": 521,
      "ost": 522,
      "ish": 523,
      "pro": 524,
      ").": 525,
      "18": 526,
      "equ": 527,
      "ere": 528,
      "ther": 529,
      "right": 530,
      "},": 531,
      "ence": 532,
      "cc": 533,
      "age": 534,
      "ĠCh": 535,
      "ric": 536,
      "to": 537,
      "port": 538,
      "Ġun": 539,
      "text": 540,
      "lay": 541,
      "Ġy": 542,
      "Ġwhe": 543,
      "ang": 544,
      "cite": 545,
      "low": 546,
      "mer": 547,
      "ime": 548,
      "=\"": 549,
      "Ġalso": 550,
      "ear": 551,
      "ain": 552,
      "ide": 553,
      "Ġ<": 554,
      "ib": 555,
      "Ġcan": 556,
      "the": 557,
      "lab": 558,
      "ions": 559,
      "ous": 560,
      "In": 561,
      "ild": 562,
      "ase": 563,
      "Ġap": 564,
      "ach": 565,
      "ry": 566,
      "Ġwere": 567,
      "act": 568,
      "ru": 569,
      "ener": 570,
      "mathb": 571,
      "tern": 572,
      "Ġ{": 573,
      "irst": 574,
      "Ġhave": 575,
      "ork": 576,
      ");": 577,
      "Ġhas": 578,
      "fer": 579,
      "label": 580,
      "erv": 581,
      "$,": 582,
      "erm": 583,
      "wo": 584,
      "over": 585,
      ",\\": 586,
      "eta": 587,
      "$.": 588,
      "Ġad": 589,
      "ory": 590,
      "ound": 591,
      "Ġim": 592,
      "ĠTh": 593,
      "equation": 594,
      "own": 595,
      "ice": 596,
      "Ġpart": 597,
      "form": 598,
      "able": 599,
      "old": 600,
      "ates": 601,
      "rit": 602,
      "ace": 603,
      "--": 604,
      "ind": 605,
      "Ġsu": 606,
      "ome": 607,
      "left": 608,
      "Ġ||": 609,
      "ree": 610,
      "Ġab": 611,
      "mathcal": 612,
      "ec": 613,
      "clud": 614,
      "Ġar": 615,
      "ie": 616,
      "})": 617,
      "199": 618,
      "Ġone": 619,
      "}.": 620,
      "10": 621,
      "out": 622,
      "ors": 623,
      "Ġcont": 624,
      "ĠUn": 625,
      "ile": 626,
      "ke": 627,
      "fig": 628,
      "Ġro": 629,
      "amp": 630,
      "ĠĠĠĠĠĠĠĠĠĠĠĠĠĠĠĠ": 631,
      "rib": 632,
      "ents": 633,
      "Ġmod": 634,
      "tain": 635,
      "ĠHe": 636,
      "Ġfirst": 637,
      "amb": 638,
      "Ġsp": 639,
      "ely": 640,
      "}(": 641,
      "</": 642,
      "ack": 643,
      "ance": 644,
      "Ġj": 645,
      "urn": 646,
      "hed": 647,
      "rans": 648,
      "ount": 649,
      "we": 650,
      "Ġplay": 651,
      "Ġdis": 652,
      "}^": 653,
      "ational": 654,
      "Ġtwo": 655,
      "ould": 656,
      "ics": 657,
      "ress": 658,
      "}_": 659,
      "ĠY": 660,
      "ĠIt": 661,
      "ck": 662,
      "ced": 663,
      "~\\": 664,
      "Ġall": 665,
      "row": 666,
      "ok": 667,
      "ps": 668,
      "ally": 669,
      "pha": 670,
      "Ġper": 671,
      "ences": 672,
      "sp": 673,
      "Ġits": 674,
      "da": 675,
      "Ġ+": 676,
      "ng": 677,
      "Ġob": 678,
      "ne": 679,
      "ĠâĢĵ": 680,
      "ose": 681,
      "alpha": 682,
      "fter": 683,
      "ark": 684,
      "ob": 685,
      "cent": 686,
      "ubl": 687,
      "line": 688,
      "iel": 689,
      "te": 690,
      "Ġhad": 691,
      "Ġtheir": 692,
      "Ġqu": 693,
      "ater": 694,
      "ss": 695,
      "Ġbut": 696,
      "ular": 697,
      "//": 698,
      "Ġte": 699,
      "com": 700,
      "les": 701,
      "oint": 702,
      "imes": 703,
      "Ġsy": 704,
      "pect": 705,
      "Ġdes": 706,
      ")\\": 707,
      "orn": 708,
      "li": 709,
      "Ġev": 710,
      "Ġsc": 711,
      "Ġ}": 712,
      "rad": 713,
      "..": 714,
      "Ġpre": 715,
      "land": 716,
      "raph": 717,
      "ollow": 718,
      "ambda": 719,
      "vel": 720,
      "sum": 721,
      "elta": 722,
      "unction": 723,
      "lect": 724,
      "ied": 725,
      "$\\": 726,
      "Ġother": 727,
      "Ġme": 728,
      "ll": 729,
      "Ġif": 730,
      "ield": 731,
      "ution": 732,
      "iss": 733,
      "Ġset": 734,
      "ject": 735,
      "ican": 736,
      "Ġ*": 737,
      "Ġen": 738,
      "ond": 739,
      "one": 740,
      "tab": 741,
      "oot": 742,
      "ata": 743,
      "any": 744,
      "Ġdef": 745,
      "ased": 746,
      "amma": 747,
      "Ġout": 748,
      "ray": 749,
      "Ġclass": 750,
      "ugh": 751,
      "Ġag": 752,
      "198": 753,
      "ho": 754,
      "_\\": 755,
      "ix": 756,
      "12": 757,
      "Ġover": 758,
      "Ġint": 759,
      "ited": 760,
      "ĠĠĠĠĠĠĠĠĠĠĠ": 761,
      "ool": 762,
      "io": 763,
      "umber": 764,
      "ons": 765,
      "Ref": 766,
      "Ġform": 767,
      "Ġwho": 768,
      "ivers": 769,
      "Ġfollow": 770,
      "Ġtime": 771,
      "mu": 772,
      "pec": 773,
      "of": 774,
      "under": 775,
      "Ġinter": 776,
      "ined": 777,
      "Ġbeen": 778,
      "inal": 779,
      "ict": 780,
      "Ġsub": 781,
      "ode": 782,
      "ys": 783,
      "Ġup": 784,
      "mb": 785,
      "Ġbet": 786,
      "aw": 787,
      "ings": 788,
      "pos": 789,
      "Refer": 790,
      "Ġ\\\\": 791,
      "Ġnew": 792,
      "Ġwhere": 793,
      "Ġcons": 794,
      "ople": 795,
      "=\\": 796,
      "ative": 797,
      "ram": 798,
      "ega": 799,
      "resent": 800,
      "ember": 801,
      "ilm": 802,
      "}_{": 803,
      "References": 804,
      "mathbb": 805,
      "Ġinclud": 806,
      "igma": 807,
      "arg": 808,
      "Ġcol": 809,
      "dot": 810,
      "}^{": 811,
      "sh": 812,
      "ward": 813,
      "ral": 814,
      "Ġher": 815,
      "sub": 816,
      "vi": 817,
      "Ġreg": 818,
      "sc": 819,
      "Ġsuch": 820,
      "Ġdist": 821,
      "ĠSe": 822,
      "gh": 823,
      "Ġcomm": 824,
      "-\\": 825,
      "17": 826,
      "pr": 827,
      "ince": 828,
      "uring": 829,
      "Ġdif": 830,
      "Ġonly": 831,
      "stem": 832,
      "ual": 833,
      "ĠĠĠĠĠ": 834,
      "16": 835,
      "ween": 836,
      "Ġyear": 837,
      "Ġloc": 838,
      "merican": 839,
      "Ġresult": 840,
      "phi": 841,
      "roup": 842,
      "15": 843,
      "ann": 844,
      "Ġco": 845,
      "Ġtrans": 846,
      "Ġval": 847,
      "red": 848,
      "Ġmodel": 849,
      "197": 850,
      "ific": 851,
      "Ġinto": 852,
      "lambda": 853,
      "ari": 854,
      "Ġfunction": 855,
      "Ġconst": 856,
      "olog": 857,
      "^{\\": 858,
      "Ġ{\\": 859,
      "eople": 860,
      "Ex": 861,
      "\">": 862,
      "hat": 863,
      "Ġmore": 864,
      "let": 865,
      "ize": 866,
      "ans": 867,
      "Ġbec": 868,
      "round": 869,
      "Ġthen": 870,
      "Ġgener": 871,
      "ail": 872,
      "Ġpl": 873,
      "ox": 874,
      "Ġrec": 875,
      "Ġsup": 876,
      "Ġbetween": 877,
      "der": 878,
      "ĠThis": 879,
      "eth": 880,
      "ball": 881,
      "ron": 882,
      "Ġind": 883,
      "Ġret": 884,
      "ĠNew": 885,
      "oth": 886,
      "bf": 887,
      "Ġwork": 888,
      "Ġrel": 889,
      "Ġunder": 890,
      "Ġacc": 891,
      "cond": 892,
      "Ġsim": 893,
      "Ġwhen": 894,
      "ins": 895,
      "pi": 896,
      "Ġne": 897,
      "Ġpol": 898,
      "Ġafter": 899,
      "Ġrep": 900,
      "ating": 901,
      "Ġthey": 902,
      "ty": 903,
      "ĠCom": 904,
      "ax": 905,
      "part": 906,
      "Ġph": 907,
      "Ġpos": 908,
      "ists": 909,
      "ĠWe": 910,
      "ring": 911,
      "ities": 912,
      "align": 913,
      "set": 914,
      "che": 915,
      "ĠAl": 916,
      "Ġlin": 917,
      "ts": 918,
      "aus": 919,
      "Ġequ": 920,
      "oy": 921,
      "wid": 922,
      "Ġthere": 923,
      "ock": 924,
      "ough": 925,
      "Ġact": 926,
      "Ġwill": 927,
      "Ġ[": 928,
      "ident": 929,
      "cre": 930,
      "Ġshow": 931,
      "oun": 932,
      "par": 933,
      "Ġpar": 934,
      "ĠMar": 935,
      "lem": 936,
      "ren": 937,
      "ures": 938,
      "ake": 939,
      "ilon": 940,
      "Ġthan": 941,
      "mathbf": 942,
      "Ġso": 943,
      "ublic": 944,
      "chool": 945,
      "ĠLe": 946,
      "St": 947,
      "ruct": 948,
      "als": 949,
      "196": 950,
      "dition": 951,
      "Ġoff": 952,
      "ision": 953,
      "Ġused": 954,
      "21": 955,
      "Ġprodu": 956,
      "Ġdo": 957,
      "rough": 958,
      "ton": 959,
      "way": 960,
      "ade": 961,
      "ished": 962,
      "ick": 963,
      "Ġ(\\": 964,
      "Ġpr": 965,
      "its": 966,
      "Ġcor": 967,
      "lement": 968,
      "sigma": 969,
      "ise": 970,
      "13": 971,
      "Ġdiffer": 972,
      "ĠAr": 973,
      "ient": 974,
      "Ġkn": 975,
      "ature": 976,
      "ily": 977,
      "Ġ'": 978,
      "14": 979,
      "Ġinv": 980,
      "section": 981,
      "put": 982,
      "^{-": 983,
      "Ġfilm": 984,
      "Ġtra": 985,
      "}{\\": 986,
      "Ġstud": 987,
      "ĠZ": 988,
      "bar": 989,
      "ik": 990,
      "ider": 991,
      "Ġexp": 992,
      "ilde": 993,
      "ames": 994,
      "Ġsystem": 995,
      "beta": 996,
      "very": 997,
      "outh": 998,
      "orld": 999,
      "Ġmat": 1000,
      "ility": 1001,
      "lo": 1002,
      "Ġshe": 1003,
      "Ġsome": 1004,
      "Ġass": 1005,
      "ues": 1006,
      "oh": 1007,
      "min": 1008,
      "Ġeach": 1009,
      "ĠPro": 1010,
      "mathrm": 1011,
      "Ġgiv": 1012,
      "Ġnumber": 1013,
      "ĠDe": 1014,
      "tt": 1015,
      "oci": 1016,
      "Ġwould": 1017,
      "ury": 1018,
      "gan": 1019,
      "elf": 1020,
      "iversity": 1021,
      "ason": 1022,
      "gamma": 1023,
      "Ġfe": 1024,
      "ternal": 1025,
      "ove": 1026,
      "ator": 1027,
      "hip": 1028,
      "ull": 1029,
      "Ġprov": 1030,
      "yn": 1031,
      "col": 1032,
      "wn": 1033,
      "Ġbu": 1034,
      "ption": 1035,
      "Ġline": 1036,
      "Ġspec": 1037,
      "11": 1038,
      "ever": 1039,
      "+\\": 1040,
      "irect": 1041,
      "ars": 1042,
      "air": 1043,
      "ĠQ": 1044,
      "ower": 1045,
      "ĠAmerican": 1046,
      "mall": 1047,
      "ized": 1048,
      "cy": 1049,
      "Ġpeople": 1050,
      "Ġany": 1051,
      "ism": 1052,
      "\",": 1053,
      "apt": 1054,
      "array": 1055,
      "Ġpoint": 1056,
      "Ġcent": 1057,
      "*}": 1058,
      "Ġop": 1059,
      "ĠFor": 1060,
      "rho": 1061,
      "ible": 1062,
      "Ġserv": 1063,
      "**": 1064,
      "orth": 1065,
      "22": 1066,
      "get": 1067,
      "Ġreturn": 1068,
      "Ġmost": 1069,
      "app": 1070,
      "Ġeff": 1071,
      "eps": 1072,
      "eng": 1073,
      "^\\": 1074,
      "Ġno": 1075,
      "\\\\": 1076,
      "Ġext": 1077,
      "Ġthese": 1078,
      "ont": 1079,
      "ctions": 1080,
      "delta": 1081,
      "ev": 1082,
      "We": 1083,
      "194": 1084,
      "Ġsing": 1085,
      "ype": 1086,
      "theta": 1087,
      "man": 1088,
      "ash": 1089,
      "Ġed": 1090,
      ")}": 1091,
      "==": 1092,
      "ote": 1093,
      "emb": 1094,
      "ĠSh": 1095,
      "195": 1096,
      "Ġoper": 1097,
      "uss": 1098,
      "Ġsign": 1099,
      "]{": 1100,
      "ning": 1101,
      "tau": 1102,
      "Ġend": 1103,
      "Ġdata": 1104,
      "ale": 1105,
      "here": 1106,
      "Ġfound": 1107,
      "Ġ.": 1108,
      "ert": 1109,
      "Ġra": 1110,
      "att": 1111,
      "Ġthree": 1112,
      "25": 1113,
      "Ã©": 1114,
      "Ġes": 1115,
      "Ġprob": 1116,
      "Ġsol": 1117,
      "Ġabout": 1118,
      "Ġinst": 1119,
      "Ġent": 1120,
      "Ġgo": 1121,
      "Ġappro": 1122,
      "ute": 1123,
      "leq": 1124,
      "Ġx": 1125,
      "Ġmay": 1126,
      "$-": 1127,
      "Ġman": 1128,
      "Ġser": 1129,
      "cdot": 1130,
      "width": 1131,
      "sy": 1132,
      "ier": 1133,
      "ĠCol": 1134,
      "Ġwell": 1135,
      "ĠInd": 1136,
      "ional": 1137,
      "Ġthrough": 1138,
      "Ġcase": 1139,
      "Ġsecond": 1140,
      "Ġgroup": 1141,
      "big": 1142,
      "nu": 1143,
      "irc": 1144,
      "ization": 1145,
      "Ġsame": 1146,
      "30": 1147,
      "Âł": 1148,
      "Ġour": 1149,
      "ern": 1150,
      "Ġagain": 1151,
      "Ġcur": 1152,
      "}$.": 1153,
      "}$,": 1154,
      "ement": 1155,
      "owever": 1156,
      "itt": 1157,
      "Ġfollowing": 1158,
      "Ġi": 1159,
      "item": 1160,
      "rict": 1161,
      "figure": 1162,
      "ootball": 1163,
      "ĠUnited": 1164,
      "ah": 1165,
      "amet": 1166,
      "Th": 1167,
      "Ġpartic": 1168,
      "Ġdifferent": 1169,
      "Ġfield": 1170,
      "Ġboth": 1171,
      "hen": 1172,
      "aj": 1173,
      "ee": 1174,
      "Ġuse": 1175,
      "}(\\": 1176,
      "Ġnon": 1177,
      "arly": 1178,
      "arge": 1179,
      "ĠX": 1180,
      "Ġvari": 1181,
      "Ġstate": 1182,
      "quad": 1183,
      "Ġduring": 1184,
      "ract": 1185,
      "ife": 1186,
      "Ġterm": 1187,
      "ĠAn": 1188,
      "ethod": 1189,
      "Ġmin": 1190,
      "partial": 1191,
      "Ġsur": 1192,
      "ĠUniversity": 1193,
      "mm": 1194,
      "var": 1195,
      "uc": 1196,
      "Ġthem": 1197,
      "ey": 1198,
      "cess": 1199,
      "times": 1200,
      "ĠâĢ": 1201,
      "----": 1202,
      "arrow": 1203,
      "Ġdesc": 1204,
      "ically": 1205,
      "()": 1206,
      "az": 1207,
      "ook": 1208,
      "Ġatt": 1209,
      "omega": 1210,
      "Ġhim": 1211,
      "Ġlinks": 1212,
      "Ġcall": 1213,
      "vert": 1214,
      "rang": 1215,
      "gy": 1216,
      "Ġperform": 1217,
      "Ġdec": 1218,
      "eqref": 1219,
      "val": 1220,
      "Ġteam": 1221,
      "Ġhigh": 1222,
      "ource": 1223,
      "velop": 1224,
      "Ġorder": 1225,
      "ouse": 1226,
      "Ġpla": 1227,
      "Ġyears": 1228,
      "for": 1229,
      "ulation": 1230,
      "reat": 1231,
      "Ġgiven": 1232,
      "Ġfin": 1233,
      "Ġrele": 1234,
      "Ġac": 1235,
      "fty": 1236,
      "eqn": 1237,
      "ample": 1238,
      "Ġam": 1239,
      "infty": 1240,
      "Ġusing": 1241,
      "lu": 1242,
      "au": 1243,
      "Ġfam": 1244,
      "External": 1245,
      "ural": 1246,
      "tilde": 1247,
      "ten": 1248,
      "000": 1249,
      "atic": 1250,
      "Ġconsider": 1251,
      "Ġlead": 1252,
      "Ġplayers": 1253,
      "iver": 1254,
      "ines": 1255,
      "mp": 1256,
      "ices": 1257,
      "led": 1258,
      "Ġwhile": 1259,
      "lish": 1260,
      "ived": 1261,
      "ining": 1262,
      "ĠAs": 1263,
      "ments": 1264,
      "eb": 1265,
      "Ġname": 1266,
      "ively": 1267,
      "center": 1268,
      "Ġdet": 1269,
      "ĠĠĠĠĠĠĠĠĠĠĠĠĠĠĠ": 1270,
      "els": 1271,
      "ner": 1272,
      "overn": 1273,
      "Delta": 1274,
      "Ġdirect": 1275,
      "ina": 1276,
      "usic": 1277,
      "ober": 1278,
      "ĠCon": 1279,
      "Ġart": 1280,
      "pm": 1281,
      "|\\": 1282,
      "def": 1283,
      "ĠSc": 1284,
      "ross": 1285,
      "ret": 1286,
      "Ġsmall": 1287,
      "ired": 1288,
      "ets": 1289,
      "ather": 1290,
      "other": 1291,
      "ĠEng": 1292,
      "uch": 1293,
      "ases": 1294,
      "Ġknown": 1295,
      "ple": 1296,
      "Ġmade": 1297,
      "24": 1298,
      "Ġpop": 1299,
      "serv": 1300,
      "by": 1301,
      "Ġpublic": 1302,
      "Ġdisc": 1303,
      "ause": 1304,
      "ots": 1305,
      "xi": 1306,
      "uth": 1307,
      "Ġz": 1308,
      "rop": 1309,
      "ohn": 1310,
      "bum": 1311,
      "sec": 1312,
      "23": 1313,
      "rent": 1314,
      "Ġcre": 1315,
      "iving": 1316,
      "yle": 1317,
      "ley": 1318,
      "âĢĻ": 1319,
      "Ġback": 1320,
      "Ġbeing": 1321,
      "ths": 1322,
      "istory": 1323,
      "err": 1324,
      "ality": 1325,
      "ĠStates": 1326,
      "Ġ:": 1327,
      "rt": 1328,
      "erson": 1329,
      "Ġfact": 1330,
      "\\,": 1331,
      "space": 1332,
      "->": 1333,
      "Ġwrit": 1334,
      "rid": 1335,
      "Ġmed": 1336,
      "Ġlater": 1337,
      "orem": 1338,
      "Ġchar": 1339,
      "arch": 1340,
      "Ġrequ": 1341,
      "Ġfour": 1342,
      "ograph": 1343,
      "Ġappe": 1344,
      "ology": 1345,
      "enn": 1346,
      "sim": 1347,
      "fore": 1348,
      "\".": 1349,
      "Ġstr": 1350,
      "Ġtr": 1351,
      "Ġmain": 1352,
      "hes": 1353,
      "omen": 1354,
      "lection": 1355,
      "umn": 1356,
      "ĠShe": 1357,
      "ott": 1358,
      "ential": 1359,
      "ĉĉĉĉ": 1360,
      "plic": 1361,
      "ounty": 1362,
      "me": 1363,
      "Ġbir": 1364,
      "ved": 1365,
      "ĠOn": 1366,
      "Ġmany": 1367,
      ".,": 1368,
      "yp": 1369,
      "Ġdep": 1370,
      "Ġfootball": 1371,
      "resp": 1372,
      "193": 1373,
      "}}\\": 1374,
      "Ġem": 1375,
      "Ġeffect": 1376,
      "ĠCl": 1377,
      "Ġelect": 1378,
      "Ġinf": 1379,
      "son": 1380,
      ".\"": 1381,
      "Ġobtain": 1382,
      "Ġorig": 1383,
      ")$.": 1384,
      "cer": 1385,
      "Ġseason": 1386,
      "rix": 1387,
      "une": 1388,
      "ission": 1389,
      "50": 1390,
      "ague": 1391,
      "vent": 1392,
      "Ġ$(": 1393,
      "ane": 1394,
      "Ġresults": 1395,
      "ior": 1396,
      "Ch": 1397,
      "Ġsince": 1398,
      "Ġmethod": 1399,
      "ood": 1400,
      "where": 1401,
      "Ġrecord": 1402,
      "Ġrepresent": 1403,
      "ĠIs": 1404,
      "Ġran": 1405,
      "Ġ/": 1406,
      "Ġbound": 1407,
      "}[": 1408,
      "eqnarray": 1409,
      "Om": 1410,
      "vers": 1411,
      "ays": 1412,
      "Ġseries": 1413,
      "Ġdevelop": 1414,
      "Ġmon": 1415,
      "Ġbefore": 1416,
      "ike": 1417,
      "Ġestab": 1418,
      "arri": 1419,
      "Ġ,": 1420,
      "$$": 1421,
      "Ġincluding": 1422,
      "Ġbel": 1423,
      "Ġlong": 1424,
      "Ġcontin": 1425,
      "Ġvalue": 1426,
      "Ġdescrib": 1427,
      "Ġalbum": 1428,
      "psi": 1429,
      "Ġparamet": 1430,
      "ĠĠĊ": 1431,
      "ask": 1432,
      "Ġmov": 1433,
      "iqu": 1434,
      "ery": 1435,
      "ency": 1436,
      "ĠFran": 1437,
      "lang": 1438,
      "Ġpresent": 1439,
      "Ġstart": 1440,
      "Omega": 1441,
      "ĠComm": 1442,
      "sk": 1443,
      "ole": 1444,
      "ĠAd": 1445,
      "sq": 1446,
      "Pro": 1447,
      "epsilon": 1448,
      "Ġmet": 1449,
      "}_{\\": 1450,
      "))": 1451,
      "includ": 1452,
      "ages": 1453,
      "ival": 1454,
      "ĠSp": 1455,
      "../": 1456,
      "til": 1457,
      "ĠNational": 1458,
      "ified": 1459,
      "Ġanal": 1460,
      "lex": 1461,
      "Con": 1462,
      "ared": 1463,
      "view": 1464,
      "Ġlarge": 1465,
      "ister": 1466,
      "ĠJohn": 1467,
      "ĠWorld": 1468,
      "Ġschool": 1469,
      "Ġest": 1470,
      "gram": 1471,
      "Ġmass": 1472,
      "ĠCar": 1473,
      "Ġmeas": 1474,
      "Ġbased": 1475,
      "ript": 1476,
      "ĠPh": 1477,
      "ĠMay": 1478,
      "ai": 1479,
      "ĠAust": 1480,
      "Ġstruct": 1481,
      "lev": 1482,
      "ink": 1483,
      "formation": 1484,
      "Ġbecame": 1485,
      "rel": 1486,
      "ives": 1487,
      "illa": 1488,
      "Ġ//": 1489,
      "Ġagainst": 1490,
      "Ġrun": 1491,
      "lack": 1492,
      "mbol": 1493,
      "ĠWar": 1494,
      "Ġrece": 1495,
      "Gamma": 1496,
      "inc": 1497,
      "ange": 1498,
      "uro": 1499,
      "chn": 1500,
      "Ġapp": 1501,
      "Ġ</": 1502,
      "Ġsupport": 1503,
      "log": 1504,
      "Ġyou": 1505,
      "ability": 1506,
      "not": 1507,
      "energy": 1508,
      "ribution": 1509,
      "ribut": 1510,
      "epend": 1511,
      "Ġlocal": 1512,
      "ges": 1513,
      "27": 1514,
      "anu": 1515,
      "Ġsever": 1516,
      "::": 1517,
      "Ġgeneral": 1518,
      "Ġpres": 1519,
      ")$,": 1520,
      "orks": 1521,
      "respond": 1522,
      "ternational": 1523,
      "ĠFig": 1524,
      "ĠCan": 1525,
      "Ġbuild": 1526,
      "2010": 1527,
      "oid": 1528,
      "oss": 1529,
      "hi": 1530,
      "Ġdesign": 1531,
      "Ġproper": 1532,
      "28": 1533,
      "^*": 1534,
      "aking": 1535,
      "etw": 1536,
      "|-": 1537,
      "Ġcharact": 1538,
      "ĠCounty": 1539,
      "urther": 1540,
      "ank": 1541,
      "urch": 1542,
      "Ġprocess": 1543,
      "Ġexper": 1544,
      "26": 1545,
      "Ġmult": 1546,
      "aid": 1547,
      "psilon": 1548,
      "sqrt": 1549,
      "Ġrespect": 1550,
      "Ġ${\\": 1551,
      "Ġcondition": 1552,
      "co": 1553,
      "ĠBrit": 1554,
      "raw": 1555,
      "Ġopen": 1556,
      "Ġbl": 1557,
      "cept": 1558,
      "agn": 1559,
      "Ġrad": 1560,
      "Ġobserv": 1561,
      "Ġnow": 1562,
      "Ġadd": 1563,
      "ually": 1564,
      "rodu": 1565,
      "rand": 1566,
      "On": 1567,
      "Ġdr": 1568,
      "',": 1569,
      "Ġcount": 1570,
      "Ġspace": 1571,
      "Ġgu": 1572,
      "amed": 1573,
      "olution": 1574,
      "Ġfamily": 1575,
      "por": 1576,
      "ians": 1577,
      "ead": 1578,
      "Ġincre": 1579,
      "ĠSchool": 1580,
      "ĠJul": 1581,
      "Ġsee": 1582,
      "For": 1583,
      "Ġcalled": 1584,
      "ument": 1585,
      "ĠčĊ": 1586,
      "Com": 1587,
      "ven": 1588,
      "Ġown": 1589,
      "ital": 1590,
      "Ġimp": 1591,
      "vare": 1592,
      "fra": 1593,
      "textbf": 1594,
      "Ġlist": 1595,
      "Ġget": 1596,
      "vious": 1597,
      "Ġdue": 1598,
      "ful": 1599,
      "}^{\\": 1600,
      "Ġlim": 1601,
      "Ġsong": 1602,
      "subsection": 1603,
      "rack": 1604,
      "rightarrow": 1605,
      "Ġprof": 1606,
      "Ġtop": 1607,
      "Ġ\\,": 1608,
      "ium": 1609,
      "Ġtype": 1610,
      "Ġbro": 1611,
      "bold": 1612,
      "wards": 1613,
      "Ġ@": 1614,
      "ĠAss": 1615,
      "Ġrema": 1616,
      "med": 1617,
      "ccess": 1618,
      "rist": 1619,
      "ĠGerm": 1620,
      "2016": 1621,
      "iam": 1622,
      "Ġproblem": 1623,
      "Ġposs": 1624,
      "Ġsingle": 1625,
      "^{(": 1626,
      "umer": 1627,
      "ĠSouth": 1628,
      "Ġdeath": 1629,
      "varepsilon": 1630,
      "2011": 1631,
      "}=": 1632,
      "Ġuntil": 1633,
      "ĠAt": 1634,
      "ĠNov": 1635,
      "ially": 1636,
      "raphics": 1637,
      "rangle": 1638,
      "position": 1639,
      "mod": 1640,
      "arn": 1641,
      "Ġfinal": 1642,
      "Ġ`": 1643,
      "ĠGe": 1644,
      "2015": 1645,
      "ampions": 1646,
      "ugust": 1647,
      "Ġcontain": 1648,
      "ger": 1649,
      "Ġright": 1650,
      "ris": 1651,
      "2018": 1652,
      "ĠYork": 1653,
      "ided": 1654,
      "ĠEx": 1655,
      "arian": 1656,
      "ants": 1657,
      "imens": 1658,
      "2014": 1659,
      "read": 1660,
      "2017": 1661,
      "ĠPar": 1662,
      "Ġcorrespond": 1663,
      "Ġassum": 1664,
      "ml": 1665,
      "ration": 1666,
      "Ġrefer": 1667,
      "embers": 1668,
      "2012": 1669,
      "Ġel": 1670,
      "29": 1671,
      "ird": 1672,
      "Ġvi": 1673,
      "areer": 1674,
      "omet": 1675,
      "Ġcould": 1676,
      "overnment": 1677,
      "chi": 1678,
      "Ġseveral": 1679,
      "Ġden": 1680,
      "af": 1681,
      "ptember": 1682,
      "ilt": 1683,
      "capt": 1684,
      "pon": 1685,
      "Ġnear": 1686,
      "ĠOr": 1687,
      ")=": 1688,
      "Ġbo": 1689,
      "40": 1690,
      "Ġalong": 1691,
      "ithm": 1692,
      "Ġarea": 1693,
      "2013": 1694,
      "ajor": 1695,
      "non": 1696,
      "It": 1697,
      "ety": 1698,
      "umb": 1699,
      "ĠHowever": 1700,
      "rol": 1701,
      "ae": 1702,
      "Ġocc": 1703,
      "ament": 1704,
      "ness": 1705,
      "ilar": 1706,
      "ised": 1707,
      "cm": 1708,
      "Ġtem": 1709,
      "itive": 1710,
      "Ġbecause": 1711,
      "Ġenergy": 1712,
      "Ġpolit": 1713,
      "Ġu": 1714,
      "100": 1715,
      "ht": 1716,
      "2019": 1717,
      "ĠCent": 1718,
      "ctober": 1719,
      "essage": 1720,
      "reen": 1721,
      "ves": 1722,
      "Ġtest": 1723,
      "Ġscal": 1724,
      "anuary": 1725,
      "ym": 1726,
      "Ġinit": 1727,
      "Ġrest": 1728,
      "born": 1729,
      "Ġallow": 1730,
      "caption": 1731,
      "ĠTe": 1732,
      "Ġevery": 1733,
      "ij": 1734,
      "color": 1735,
      "2008": 1736,
      "This": 1737,
      "2009": 1738,
      "istor": 1739,
      "Ġestim": 1740,
      "egraphics": 1741,
      "includegraphics": 1742,
      "gor": 1743,
      "use": 1744,
      "ica": 1745,
      "bm": 1746,
      "Ġneed": 1747,
      "Ġmusic": 1748,
      "Ġopt": 1749,
      "ended": 1750,
      "Ġvers": 1751,
      "Ġcommun": 1752,
      "ides": 1753,
      "Ġaddition": 1754,
      "ĠAugust": 1755,
      "aint": 1756,
      "Ġstat": 1757,
      "tr": 1758,
      "ĠRe": 1759,
      "div": 1760,
      "Ġfind": 1761,
      "span": 1762,
      "ĠMarch": 1763,
      "Ġstand": 1764,
      "Ġleft": 1765,
      "Ġwin": 1766,
      "varphi": 1767,
      "arm": 1768,
      "Ġcal": 1769,
      "ĠSeptember": 1770,
      "ero": 1771,
      "ateg": 1772,
      "ately": 1773,
      "bs": 1774,
      "oman": 1775,
      "iod": 1776,
      "ength": 1777,
      "2007": 1778,
      "ĠII": 1779,
      "mber": 1780,
      "2020": 1781,
      "Ġvery": 1782,
      "ience": 1783,
      "pril": 1784,
      "Ġident": 1785,
      "Ġgame": 1786,
      "lege": 1787,
      "emph": 1788,
      "ene": 1789,
      "lim": 1790,
      "rem": 1791,
      "Ġmeasure": 1792,
      "Ġcurrent": 1793,
      "Ġorgan": 1794,
      "Ġref": 1795,
      "Ġhand": 1796,
      "Ġann": 1797,
      "ĠOctober": 1798,
      "ground": 1799,
      "ify": 1800,
      "ĠPol": 1801,
      "ĠJanuary": 1802,
      "play": 1803,
      "Ġabove": 1804,
      "Ġpower": 1805,
      "Ġrem": 1806,
      "Ġwithin": 1807,
      "Ġinteg": 1808,
      "2006": 1809,
      "ected": 1810,
      "Ġprogram": 1811,
      "Ġformer": 1812,
      "xim": 1813,
      "ling": 1814,
      "Ġtit": 1815,
      "ting": 1816,
      "ĠAustral": 1817,
      "pp": 1818,
      "Ġplayed": 1819,
      "Ġpass": 1820,
      "wh": 1821,
      "reg": 1822,
      "Ġoffic": 1823,
      "aper": 1824,
      "vec": 1825,
      "ĠJune": 1826,
      "ports": 1827,
      "Ġlarg": 1828,
      "As": 1829,
      "ators": 1830,
      "Ġreal": 1831,
      "ek": 1832,
      "Ġsum": 1833,
      "ler": 1834,
      "Ġband": 1835,
      "Ġreleased": 1836,
      "Ġlevel": 1837,
      "''": 1838,
      "cember": 1839,
      "Al": 1840,
      "atch": 1841,
      "ensity": 1842,
      "omin": 1843,
      ".~\\": 1844,
      "ĠPr": 1845,
      "ĠJuly": 1846,
      "less": 1847,
      "Ġlife": 1848,
      "side": 1849,
      "van": 1850,
      "Ġcontinu": 1851,
      "ording": 1852,
      "geq": 1853,
      "ography": 1854,
      "Ġgra": 1855,
      "190": 1856,
      "posed": 1857,
      "Ġcap": 1858,
      "ody": 1859,
      "See": 1860,
      "Ġbirths": 1861,
      "Ġimport": 1862,
      "frak": 1863,
      "ĠMin": 1864,
      "Ġlast": 1865,
      "table": 1866,
      "&\\": 1867,
      "Big": 1868,
      "Ġelement": 1869,
      "Ġtot": 1870,
      "overline": 1871,
      "Ġchild": 1872,
      "ffic": 1873,
      "ĠApril": 1874,
      "Ġevent": 1875,
      "Ġsat": 1876,
      "face": 1877,
      "Ġdi": 1878,
      ")^": 1879,
      "gorithm": 1880,
      "ĠWh": 1881,
      ".}": 1882,
      "ĠGu": 1883,
      "Ġeven": 1884,
      "></": 1885,
      "ĠNorth": 1886,
      "symbol": 1887,
      "ensure": 1888,
      "ĠAll": 1889,
      "century": 1890,
      "proof": 1891,
      "ches": 1892,
      "ĠBritish": 1893,
      "ST": 1894,
      "ĠCal": 1895,
      "ection": 1896,
      "ormal": 1897,
      "iment": 1898,
      "Ġcharacter": 1899,
      "Ġwon": 1900,
      "ule": 1901,
      "ĠEuro": 1902,
      "ung": 1903,
      "ĠLeague": 1904,
      "Ġaround": 1905,
      "ampionship": 1906,
      "ĠNovember": 1907,
      "Ġearly": 1908,
      "Ġfre": 1909,
      "Ġhead": 1910,
      "etwork": 1911,
      "Ġplace": 1912,
      "ampl": 1913,
      "Ġtri": 1914,
      "ification": 1915,
      "();": 1916,
      "Ġvalues": 1917,
      "Ġdoes": 1918,
      "ored": 1919,
      "ĠCity": 1920,
      "lation": 1921,
      "ison": 1922,
      "(\"": 1923,
      "Ġthose": 1924,
      "ER": 1925,
      "aving": 1926,
      "hem": 1927,
      "back": 1928,
      "Ġexample": 1929,
      "anc": 1930,
      "Ġpubl": 1931,
      "Ġder": 1932,
      "ĠDecember": 1933,
      "trans": 1934,
      "itions": 1935,
      "Ġcomput": 1936,
      "ĠRep": 1937,
      "Ġsimilar": 1938,
      "be": 1939,
      "ats": 1940,
      "Ġparticular": 1941,
      "60": 1942,
      "Ġshown": 1943,
      "see": 1944,
      "}).": 1945,
      "ze": 1946,
      "Ġshould": 1947,
      "mmet": 1948,
      "aster": 1949,
      "ĠMan": 1950,
      "lished": 1951,
      "ĠâĢĶ": 1952,
      "Ġspect": 1953,
      "ilit": 1954,
      "ĠThey": 1955,
      "Ġquant": 1956,
      "Ġobject": 1957,
      "apan": 1958,
      "eff": 1959,
      "str": 1960,
      "refore": 1961,
      "Ġlaw": 1962,
      "ĉĉĉ": 1963,
      "):": 1964,
      "Ġav": 1965,
      "ales": 1966,
      "atter": 1967,
      "ĠReg": 1968,
      "Ġconf": 1969,
      "ords": 1970,
      "boldsymbol": 1971,
      "},\\": 1972,
      "Ġfollows": 1973,
      "Ġdescribed": 1974,
      "with": 1975,
      "Ġvis": 1976,
      "ĠĠĠĠĠĠĠĠĠ": 1977,
      "ĠState": 1978,
      "Ġlike": 1979,
      "Ġdepend": 1980,
      "iter": 1981,
      "cul": 1982,
      "dis": 1983,
      "Ġprevious": 1984,
      "[\\": 1985,
      "ebru": 1986,
      "Ġintrodu": 1987,
      "ious": 1988,
      "Ġcrit": 1989,
      "ebruary": 1990,
      "mathfrak": 1991,
      "Ġfilms": 1992,
      "light": 1993,
      "../../": 1994,
      "ham": 1995,
      "Ġhel": 1996,
      "ift": 1997,
      "2000": 1998,
      "ependent": 1999,
      "key": 2000,
      "akes": 2001,
      "ino": 2002,
      "Ġself": 2003,
      "Ġsection": 2004,
      "stit": 2005,
      "ĠCanad": 2006,
      "langle": 2007,
      "Ġcity": 2008,
      "idd": 2009,
      "Ġread": 2010,
      "AR": 2011,
      "><": 2012,
      "ĠCo": 2013,
      "ctor": 2014,
      "alth": 2015,
      "Ġtotal": 2016,
      "ĠKing": 2017,
      "orph": 2018,
      "hline": 2019,
      "Ġjust": 2020,
      "levision": 2021,
      "Ġpoints": 2022,
      "ense": 2023,
      "cor": 2024,
      "de": 2025,
      "ĠRes": 2026,
      "Un": 2027,
      "Ġdid": 2028,
      "atures": 2029,
      "Ġerr": 2030,
      "ruction": 2031,
      "urs": 2032,
      "Ġ#": 2033,
      "Ġbas": 2034,
      "odes": 2035,
      "ĠBe": 2036,
      "bra": 2037,
      "imal": 2038,
      "ector": 2039,
      "189": 2040,
      "no": 2041,
      "uk": 2042,
      "lor": 2043,
      "Ġhig": 2044,
      "field": 2045,
      "Ġdefined": 2046,
      "Ġassoci": 2047,
      "ĠAf": 2048,
      "2005": 2049,
      "dd": 2050,
      "Ġclos": 2051,
      "}}$": 2052,
      "Ġcompet": 2053,
      "Ã¡": 2054,
      "ĠWill": 2055,
      "rench": 2056,
      "Ġmap": 2057,
      "org": 2058,
      "Ġindu": 2059,
      "ĠAnd": 2060,
      "Ġmodels": 2061,
      "Ġredu": 2062,
      "uthor": 2063,
      "gin": 2064,
      "Ġdem": 2065,
      "American": 2066,
      "ped": 2067,
      "Ġsuccess": 2068,
      "IN": 2069,
      "istic": 2070,
      "Ġsize": 2071,
      "Ġperiod": 2072,
      "====": 2073,
      "Ġlow": 2074,
      "He": 2075,
      "ble": 2076,
      "urb": 2077,
      "Ġmembers": 2078,
      "Ġeng": 2079,
      "circ": 2080,
      "Let": 2081,
      "Ġbeh": 2082,
      "ĠEurope": 2083,
      "iness": 2084,
      "Lambda": 2085,
      "action": 2086,
      "nab": 2087,
      "Ġtrad": 2088,
      "--------": 2089,
      "Ġ)": 2090,
      "Ġcareer": 2091,
      "comm": 2092,
      "An": 2093,
      "ances": 2094,
      "Ġshows": 2095,
      "ĠFebruary": 2096,
      "mbox": 2097,
      "ster": 2098,
      "Ġtechn": 2099,
      "plit": 2100,
      "SS": 2101,
      "ĠArm": 2102,
      "self": 2103,
      "ixed": 2104,
      "oper": 2105,
      "appa": 2106,
      "Ġland": 2107,
      "sequ": 2108,
      "ese": 2109,
      "Ġmake": 2110,
      "Ġtown": 2111,
      "2021": 2112,
      "Ġdown": 2113,
      "Ġwomen": 2114,
      "Ġmajor": 2115,
      "Ġterms": 2116,
      "80": 2117,
      "Ġdeg": 2118,
      "ĠAfter": 2119,
      "though": 2120,
      "Ġpopulation": 2121,
      "ynam": 2122,
      "Ġdeterm": 2123,
      "Ġdiv": 2124,
      "new": 2125,
      "Ġnamed": 2126,
      "Ġway": 2127,
      "Phi": 2128,
      "ldots": 2129,
      "Ġshort": 2130,
      "uage": 2131,
      "Ġworld": 2132,
      "ered": 2133,
      "etic": 2134,
      "Ġcomplet": 2135,
      "ugg": 2136,
      "2004": 2137,
      "45": 2138,
      "Ġinformation": 2139,
      "##": 2140,
      "Ġ>": 2141,
      "Ġstill": 2142,
      "Ġestablished": 2143,
      "Ġpred": 2144,
      "Ġstructure": 2145,
      "Ġstudy": 2146,
      "ille": 2147,
      "ope": 2148,
      "Ġlocated": 2149,
      "ories": 2150,
      "AT": 2151,
      "ape": 2152,
      "33": 2153,
      "ĠSy": 2154,
      "opt": 2155,
      "ĠĠĠĠĠĠĠĠĠĠĠĠĠĠĠĠĠĠĠĠĠĠĠĠĠĠĠĠĠĠĠĠ": 2156,
      "Ġregion": 2157,
      "ĠPart": 2158,
      "Ġpost": 2159,
      "Ġhold": 2160,
      "Ġinclude": 2161,
      "Ġdistribution": 2162,
      "ius": 2163,
      "ering": 2164,
      "Ġmember": 2165,
      "ĠIf": 2166,
      "ĠEd": 2167,
      "Ġstation": 2168,
      "ser": 2169,
      "Ġexpect": 2170,
      "ony": 2171,
      "oad": 2172,
      "ination": 2173,
      "Ġclub": 2174,
      "isf": 2175,
      "Ġcomb": 2176,
      "this": 2177,
      "Ġlab": 2178,
      "html": 2179,
      "Ġreport": 2180,
      "Ġbegan": 2181,
      "ĠDist": 2182,
      "Ġet": 2183,
      "Ġlet": 2184,
      "ĠBar": 2185,
      "32": 2186,
      "Ġexist": 2187,
      ".\\": 2188,
      "lear": 2189,
      "lected": 2190,
      "ched": 2191,
      "ON": 2192,
      "Ġgovernment": 2193,
      "To": 2194,
      "ana": 2195,
      "lob": 2196,
      "Ġstates": 2197,
      "ream": 2198,
      "Ġperson": 2199,
      "ĠBy": 2200,
      "etail": 2201,
      "laim": 2202,
      "Ġproject": 2203,
      "Ġaver": 2204,
      "Ġpat": 2205,
      "ysis": 2206,
      "Ġapproxim": 2207,
      "bo": 2208,
      "ĠEnglish": 2209,
      "raft": 2210,
      "Ġbest": 2211,
      "Ġheld": 2212,
      "Ġatta": 2213,
      "add": 2214,
      "ĠJapan": 2215,
      "kappa": 2216,
      "sf": 2217,
      "ĠSw": 2218,
      "loc": 2219,
      "class": 2220,
      "rag": 2221,
      "ensuremath": 2222,
      "empt": 2223,
      "ĠWest": 2224,
      "Ġmuch": 2225,
      "Ġtyp": 2226,
      "35": 2227,
      "Ġmark": 2228,
      "ĠSup": 2229,
      "ological": 2230,
      "Ġvilla": 2231,
      "off": 2232,
      "otential": 2233,
      "Ġsaid": 2234,
      "Ġbus": 2235,
      "otimes": 2236,
      "ties": 2237,
      "ĠHar": 2238,
      "Ġfac": 2239,
      "...": 2240,
      "Ġ_": 2241,
      "ries": 2242,
      "ĠChrist": 2243,
      "ards": 2244,
      "ĠBo": 2245,
      "Ġhome": 2246,
      "ĠUS": 2247,
      "nonumber": 2248,
      "Ġcour": 2249,
      "ĠHis": 2250,
      "Res": 2251,
      "Ġstrong": 2252,
      "ently": 2253,
      "Ġcar": 2254,
      "Ġdiscuss": 2255,
      "ounc": 2256,
      "illion": 2257,
      "Ġleg": 2258,
      "nabla": 2259,
      "ault": 2260,
      "ney": 2261,
      "inition": 2262,
      "source": 2263,
      "but": 2264,
      "oll": 2265,
      "adem": 2266,
      "75": 2267,
      "Ġmax": 2268,
      "Ġoriginal": 2269,
      "Ġappear": 2270,
      "alk": 2271,
      "Ġinterest": 2272,
      "Cl": 2273,
      "rum": 2274,
      "****": 2275,
      "Ġep": 2276,
      "name": 2277,
      "90": 2278,
      "Ġwhat": 2279,
      "Ġwithout": 2280,
      "Ġalign": 2281,
      "ention": 2282,
      "ĠMc": 2283,
      "ique": 2284,
      "Ġold": 2285,
      "})$": 2286,
      "ression": 2287,
      "Ġaff": 2288,
      "Ġmanag": 2289,
      "eter": 2290,
      "Ġside": 2291,
      "ivate": 2292,
      "osp": 2293,
      "ocial": 2294,
      "ude": 2295,
      "};": 2296,
      "Ġvol": 2297,
      "ford": 2298,
      "Ġpo": 2299,
      "ĠCor": 2300,
      "Ġcho": 2301,
      "lace": 2302,
      "Ġmagn": 2303,
      "eneral": 2304,
      "Ġjo": 2305,
      "Ġhref": 2306,
      "ivity": 2307,
      "ideo": 2308,
      "ourn": 2309,
      "Ġanother": 2310,
      "Ġbre": 2311,
      "Ġ*/": 2312,
      "time": 2313,
      "subset": 2314,
      "mult": 2315,
      "}),": 2316,
      "Ġhow": 2317,
      "citep": 2318,
      "Ġdensity": 2319,
      "urg": 2320,
      "Ġchang": 2321,
      "arent": 2322,
      "otes": 2323,
      "aul": 2324,
      "bl": 2325,
      "ondon": 2326,
      "Ġmultip": 2327,
      "Ġnext": 2328,
      "box": 2329,
      "textit": 2330,
      "Ġgames": 2331,
      "Ġtook": 2332,
      "Ġcou": 2333,
      "Ġtheory": 2334,
      "iction": 2335,
      "Ġla": 2336,
      "Ġspe": 2337,
      "Ġsk": 2338,
      "List": 2339,
      "ources": 2340,
      "ception": 2341,
      "alf": 2342,
      "70": 2343,
      "Ġphot": 2344,
      "Ġbuilt": 2345,
      "wide": 2346,
      "Ġtake": 2347,
      "Ġreceived": 2348,
      "Ġpe": 2349,
      "Ġprot": 2350,
      "Ġmust": 2351,
      "\\%": 2352,
      "Ġcompany": 2353,
      "Ġfeature": 2354,
      "Ġhouse": 2355,
      "pose": 2356,
      "Ġobtained": 2357,
      "iron": 2358,
      "idual": 2359,
      "ĠCollege": 2360,
      "ĠAfric": 2361,
      "ĠĠĠĠĠĠĠĠĠĠĠĠĠĠĠĠĠĠĠ": 2362,
      "Ps": 2363,
      "day": 2364,
      "bit": 2365,
      "Ġiss": 2366,
      "inally": 2367,
      "Ġpublished": 2368,
      "Sigma": 2369,
      "Ġstyle": 2370,
      "Ġsequ": 2371,
      "ĠEl": 2372,
      "31": 2373,
      "ĠRec": 2374,
      "2003": 2375,
      "Ġtimes": 2376,
      "Ġthird": 2377,
      "ither": 2378,
      "Ġprom": 2379,
      "ĠSan": 2380,
      "cap": 2381,
      "Ar": 2382,
      "Ġnational": 2383,
      "ĠMed": 2384,
      "Ġphys": 2385,
      "Ġtitle": 2386,
      "arried": 2387,
      "Ġalgorithm": 2388,
      "Ġdel": 2389,
      "Ġarg": 2390,
      "message": 2391,
      "ĠRuss": 2392,
      "Ġfurther": 2393,
      "ĠNo": 2394,
      "Ġage": 2395,
      "Ġinvol": 2396,
      "Ġpossible": 2397,
      "esc": 2398,
      "\\[": 2399,
      "augh": 2400,
      "Ġincluded": 2401,
      "Ġspecies": 2402,
      "order": 2403,
      "roll": 2404,
      "Ġcompon": 2405,
      "}}{": 2406,
      "ĠThere": 2407,
      "Ġsignific": 2408,
      "rown": 2409,
      "ID": 2410,
      "ĠFrench": 2411,
      "Ġsatisf": 2412,
      "Ġaut": 2413,
      "rew": 2414,
      "iles": 2415,
      "Ġsix": 2416,
      "2002": 2417,
      "Ġfive": 2418,
      "ĠThen": 2419,
      "Ġserved": 2420,
      "Ġcompos": 2421,
      "ĠTo": 2422,
      "Ġcomplex": 2423,
      "eder": 2424,
      "enc": 2425,
      "Ġposition": 2426,
      "://": 2427,
      "cont": 2428,
      "Ġturn": 2429,
      "na": 2430,
      "ploy": 2431,
      "imum": 2432,
      "âĢĿ": 2433,
      "Ġmean": 2434,
      "ĠChampionship": 2435,
      "rap": 2436,
      "Ġarch": 2437,
      "Ġcentury": 2438,
      "ĠAb": 2439,
      "ĠHigh": 2440,
      "Ġprofess": 2441,
      "64": 2442,
      "Ġversion": 2443,
      "ald": 2444,
      "ii": 2445,
      "\\!": 2446,
      "Ġcontrol": 2447,
      "uman": 2448,
      "lin": 2449,
      "Ġimportant": 2450,
      "Ġhistory": 2451,
      "\\|": 2452,
      "ĠMe": 2453,
      "rick": 2454,
      "ush": 2455,
      "inter": 2456,
      "duct": 2457,
      "Ġparameters": 2458,
      "td": 2459,
      "rest": 2460,
      "cur": 2461,
      "alse": 2462,
      "estern": 2463,
      "Ġmot": 2464,
      "ume": 2465,
      "style": 2466,
      "Ġnetwork": 2467,
      "ones": 2468,
      "ĠLondon": 2469,
      "ĠAir": 2470,
      "('": 2471,
      "Ġfull": 2472,
      "ĠĠĠĠĠĠ": 2473,
      "hold": 2474,
      "Ġfunctions": 2475,
      "ĠAm": 2476,
      "Ġpotential": 2477,
      "Ġborn": 2478,
      "Ġconsidered": 2479,
      "Ġday": 2480,
      "ilitary": 2481,
      "Ġperformance": 2482,
      "const": 2483,
      "oks": 2484,
      "Ġpaper": 2485,
      "Ġview": 2486,
      "oph": 2487,
      "Ġrange": 2488,
      "2001": 2489,
      "Name": 2490,
      "ĠWilliam": 2491,
      "prime": 2492,
      "ĠLet": 2493,
      "arget": 2494,
      "/\\": 2495,
      "ĠThese": 2496,
      "type": 2497,
      "iet": 2498,
      "Ġcover": 2499,
      "Ġtelevision": 2500,
      "Ġmatrix": 2501,
      "Ġequation": 2502,
      "Ġlight": 2503,
      "Ġgraph": 2504,
      "188": 2505,
      "ĠGerman": 2506,
      "ĠSch": 2507,
      "Ġq": 2508,
      "widet": 2509,
      "lymp": 2510,
      "Ġlang": 2511,
      "Ġcross": 2512,
      "unic": 2513,
      "ĠChar": 2514,
      "Ġinvest": 2515,
      "Ġvert": 2516,
      "Ġeduc": 2517,
      "clus": 2518,
      "Ġplayer": 2519,
      "Ġvarious": 2520,
      "ouncil": 2521,
      "Ġwar": 2522,
      "dom": 2523,
      "65": 2524,
      "script": 2525,
      "Ġcommon": 2526,
      "Ġrespectively": 2527,
      "Ġsit": 2528,
      "Ã³": 2529,
      "Ġ``": 2530,
      "itor": 2531,
      "ington": 2532,
      "ends": 2533,
      "aly": 2534,
      "ables": 2535,
      "Ġeas": 2536,
      "Ġlimit": 2537,
      "Ġred": 2538,
      "ĠDistrict": 2539,
      "Re": 2540,
      "Id": 2541,
      "Ġindic": 2542,
      "dots": 2543,
      "Ġsolution": 2544,
      "icle": 2545,
      "AS": 2546,
      "Ġrese": 2547,
      "Ġamong": 2548,
      "widetilde": 2549,
      "uation": 2550,
      "Ġcamp": 2551,
      "Ġlower": 2552,
      "ĠSer": 2553,
      "ription": 2554,
      "Ġstar": 2555,
      "pd": 2556,
      "reet": 2557,
      "Ġconstant": 2558,
      "Ġthough": 2559,
      "Ġoften": 2560,
      "code": 2561,
      "ĠCup": 2562,
      "Ġrole": 2563,
      "avy": 2564,
      "centering": 2565,
      "Ġwritten": 2566,
      "utions": 2567,
      "Ġinitial": 2568,
      "2022": 2569,
      "Ġfew": 2570,
      "Ġsepar": 2571,
      "Ġtrue": 2572,
      "rary": 2573,
      "34": 2574,
      "atrix": 2575,
      "ula": 2576,
      "RE": 2577,
      "cit": 2578,
      "ĠHer": 2579,
      "ĠPark": 2580,
      "conom": 2581,
      "Ġ--": 2582,
      "ĠEn": 2583,
      "Ġflu": 2584,
      "yl": 2585,
      "Ġservice": 2586,
      "leg": 2587,
      "Ġpair": 2588,
      "head": 2589,
      "{-": 2590,
      "Ġproduct": 2591,
      "sup": 2592,
      "Ġcorresponding": 2593,
      "now": 2594,
      "ĠYou": 2595,
      "By": 2596,
      "Ġworks": 2597,
      "Ġaverage": 2598,
      "bor": 2599,
      "Ġconsist": 2600,
      "Ġbuilding": 2601,
      "amples": 2602,
      "ĠAng": 2603,
      "Ġmen": 2604,
      "Ġsystems": 2605,
      "Ġaction": 2606,
      "ĠDav": 2607,
      "II": 2608,
      "ĠArt": 2609,
      "Ġport": 2610,
      "Ġimpro": 2611,
      "ops": 2612,
      "ients": 2613,
      "import": 2614,
      "Ġnorth": 2615,
      "iff": 2616,
      "cast": 2617,
      "Ġrate": 2618,
      "ĠHouse": 2619,
      "Ġexpl": 2620,
      "Ġsignificant": 2621,
      "uck": 2622,
      "Ġchildren": 2623,
      "ridge": 2624,
      "iber": 2625,
      "ocus": 2626,
      "Ġspecial": 2627,
      "Ġcalcul": 2628,
      "ship": 2629,
      "Ġtraining": 2630,
      "Ġapproach": 2631,
      "Ġrelations": 2632,
      "ĠMon": 2633,
      "Ġfree": 2634,
      "ividual": 2635,
      "Ġless": 2636,
      "ĠBro": 2637,
      "Ġsem": 2638,
      "Ġhy": 2639,
      "draw": 2640,
      "ief": 2641,
      "Ġcirc": 2642,
      "ways": 2643,
      "Ġauthor": 2644,
      "Ġanalysis": 2645,
      "asing": 2646,
      "Ġflow": 2647,
      "ache": 2648,
      "48": 2649,
      "ured": 2650,
      "Ġair": 2651,
      "Ġmatch": 2652,
      "uild": 2653,
      "ĠComp": 2654,
      "ociation": 2655,
      "}-": 2656,
      "\\]": 2657,
      "olic": 2658,
      "ĠOne": 2659,
      "alt": 2660,
      "ailable": 2661,
      "Sh": 2662,
      "Ġhowever": 2663,
      "Ġide": 2664,
      "Ġfl": 2665,
      "Fig": 2666,
      "Living": 2667,
      "Ġpri": 2668,
      "chie": 2669,
      "Ġdied": 2670,
      "ĠPhil": 2671,
      "Ġfeatures": 2672,
      "Ġche": 2673,
      "Col": 2674,
      "1999": 2675,
      "Ġevents": 2676,
      "Ġbook": 2677,
      "atural": 2678,
      "'t": 2679,
      "Ġwater": 2680,
      "thm": 2681,
      "Ġdetail": 2682,
      "Ġarm": 2683,
      "anish": 2684,
      "lete": 2685,
      "Ġprim": 2686,
      "rig": 2687,
      "max": 2688,
      "Type": 2689,
      "top": 2690,
      "Ġknow": 2691,
      "36": 2692,
      "Ġdiff": 2693,
      "ÃŃ": 2694,
      "Ġke": 2695,
      "ĠPres": 2696,
      "Ġphase": 2697,
      "aken": 2698,
      "ĠLem": 2699,
      "Ġvillage": 2700,
      "ara": 2701,
      "Ġwid": 2702,
      ")(": 2703,
      "cing": 2704,
      "Ġge": 2705,
      "Ġparameter": 2706,
      "AC": 2707,
      "1990": 2708,
      "\\{": 2709,
      "99": 2710,
      "ĠEq": 2711,
      "Ġ=>": 2712,
      "ĠLa": 2713,
      "ĠPl": 2714,
      "andom": 2715,
      "Ġfrequ": 2716,
      "ĠInternational": 2717,
      "Ġ($": 2718,
      "Ġfore": 2719,
      "ront": 2720,
      "Ġsuper": 2721,
      "attle": 2722,
      "Ġsw": 2723,
      "Se": 2724,
      "exp": 2725,
      "ours": 2726,
      "Ġtemper": 2727,
      "tabular": 2728,
      "itect": 2729,
      "oted": 2730,
      "iforn": 2731,
      "inn": 2732,
      ")=\\": 2733,
      "Ġhigher": 2734,
      "Ġproduced": 2735,
      "38": 2736,
      "ĠIndian": 2737,
      "People": 2738,
      "Ind": 2739,
      "zeta": 2740,
      "Ġgood": 2741,
      "Ġindependent": 2742,
      "Ġstandard": 2743,
      "Ġdimens": 2744,
      "ĠRiver": 2745,
      "Ġconn": 2746,
      "ĠTheorem": 2747,
      "ĠDiv": 2748,
      "Ġpath": 2749,
      "Ġannoun": 2750,
      "ĠPer": 2751,
      "Ġneg": 2752,
      "omorph": 2753,
      "Ġthus": 2754,
      "String": 2755,
      "Ġhere": 2756,
      "Ġsouth": 2757,
      "oyal": 2758,
      "Ġbecome": 2759,
      "Ġkey": 2760,
      "}+": 2761,
      "ifornia": 2762,
      "Ġround": 2763,
      "Ġclaim": 2764,
      "Ġcases": 2765,
      "/>": 2766,
      "Ġson": 2767,
      "ĠQu": 2768,
      "isc": 2769,
      "Ġleast": 2770,
      "1998": 2771,
      "mar": 2772,
      "br": 2773,
      "Ġins": 2774,
      "Ã¼": 2775,
      "scal": 2776,
      "ĠâĢľ": 2777,
      "Ġtw": 2778,
      "oment": 2779,
      "Ġnov": 2780,
      "annel": 2781,
      "lying": 2782,
      "ocument": 2783,
      "Ġsymmet": 2784,
      "ising": 2785,
      "rain": 2786,
      "Ġchange": 2787,
      "ett": 2788,
      "Ġ&=": 2789,
      "viron": 2790,
      "ĠEngland": 2791,
      "ĠBl": 2792,
      "era": 2793,
      "ĠAg": 2794,
      "Ġgen": 2795,
      "Ġhaving": 2796,
      "lands": 2797,
      "orge": 2798,
      "rite": 2799,
      "Ġgroups": 2800,
      "Ġconditions": 2801,
      "idence": 2802,
      "Ġapplic": 2803,
      "Ġproof": 2804,
      "rr": 2805,
      "BC": 2806,
      "ordin": 2807,
      "Ġbase": 2808,
      "Ġant": 2809,
      "Ġinc": 2810,
      "lobal": 2811,
      "Ġproduction": 2812,
      "Ġbi": 2813,
      "Ġkill": 2814,
      "ials": 2815,
      "ference": 2816,
      "~~": 2817,
      "Ġpract": 2818,
      "ĠDep": 2819,
      "Ġlinear": 2820,
      "Ġblack": 2821,
      "Ġbusiness": 2822,
      "go": 2823,
      "Ġcr": 2824,
      "cle": 2825,
      "History": 2826,
      "hern": 2827,
      "')": 2828,
      "Ġvector": 2829,
      "aut": 2830,
      "ĠMich": 2831,
      "Ġloss": 2832,
      "Ġestablish": 2833,
      "which": 2834,
      "stand": 2835,
      "ociety": 2836,
      "most": 2837,
      "\")": 2838,
      "}=\\": 2839,
      "ico": 2840,
      "sin": 2841,
      "aries": 2842,
      "useum": 2843,
      "Ġlay": 2844,
      "37": 2845,
      "Ġled": 2846,
      "}]": 2847,
      "Ġlength": 2848,
      "||": 2849,
      "44": 2850,
      ")^{": 2851,
      "uggest": 2852,
      "Ġtext": 2853,
      "param": 2854,
      "hib": 2855,
      "Ġbecom": 2856,
      "ĠCalifornia": 2857,
      "cos": 2858,
      "ogn": 2859,
      "Ġcer": 2860,
      "bb": 2861,
      "ued": 2862,
      "oon": 2863,
      "Ġassociated": 2864,
      "}_\\": 2865,
      "OR": 2866,
      "htt": 2867,
      "Ġear": 2868,
      "Ġnumer": 2869,
      "55": 2870,
      "Ġhistor": 2871,
      "Ġdat": 2872,
      "{(": 2873,
      "ĠAustralia": 2874,
      ";\\": 2875,
      "Ġavailable": 2876,
      "Ġsite": 2877,
      "plies": 2878,
      "}\\,": 2879,
      "ama": 2880,
      "ww": 2881,
      "Ġeither": 2882,
      "\"/>": 2883,
      "Ġgrow": 2884,
      "Ġdom": 2885,
      "Ġimage": 2886,
      "Ġfinite": 2887,
      "Ġlines": 2888,
      "value": 2889,
      "chan": 2890,
      "iven": 2891,
      "Ġcreated": 2892,
      "ably": 2893,
      "alax": 2894,
      "Ġindividual": 2895,
      "Ġhom": 2896,
      "$)": 2897,
      "Ġcell": 2898,
      "Ġcountry": 2899,
      "ĠParty": 2900,
      ",-": 2901,
      "omb": 2902,
      "Ġship": 2903,
      "ĠAc": 2904,
      "Ġsent": 2905,
      "Ġdistrict": 2906,
      "Ġbelow": 2907,
      "ĠVal": 2908,
      "ander": 2909,
      "Ġang": 2910,
      "AL": 2911,
      "Ġpositive": 2912,
      "pre": 2913,
      "Val": 2914,
      "Ġenc": 2915,
      "aff": 2916,
      "Ġmoved": 2917,
      "Ġlog": 2918,
      "Ġregular": 2919,
      "Ġerror": 2920,
      "och": 2921,
      "Ġabs": 2922,
      "Ġdeaths": 2923,
      "Ġhost": 2924,
      "Ġweight": 2925,
      "return": 2926,
      "ĠWhen": 2927,
      "05": 2928,
      "amil": 2929,
      "Ġmale": 2930,
      "translation": 2931,
      "Ġseen": 2932,
      "ĠSince": 2933,
      "ving": 2934,
      "ware": 2935,
      "{{\\": 2936,
      "uration": 2937,
      "gether": 2938,
      "uff": 2939,
      "Ġconstruct": 2940,
      "Ġtogether": 2941,
      "39": 2942,
      "ules": 2943,
      "&.": 2944,
      "Ġengine": 2945,
      "Ġmethods": 2946,
      "ournal": 2947,
      "duc": 2948,
      "Ġprivate": 2949,
      "Ġground": 2950,
      "Ġsource": 2951,
      "ĠSection": 2952,
      "Ġcult": 2953,
      "based": 2954,
      "ĠBer": 2955,
      "ĠOlymp": 2956,
      "1996": 2957,
      "Ġachie": 2958,
      "1997": 2959,
      "}^\\": 2960,
      "01": 2961,
      "Ġdevelopment": 2962,
      "ĠEast": 2963,
      "Ġlate": 2964,
      "ĠAward": 2965,
      "Ġsuggest": 2966,
      "igen": 2967,
      "AN": 2968,
      "Ġvia": 2969,
      "gen": 2970,
      "inary": 2971,
      "Ġrandom": 2972,
      "ĠArmy": 2973,
      "ressed": 2974,
      "Ġproperties": 2975,
      "Ġresearch": 2976,
      "Ġdynam": 2977,
      "Ġsold": 2978,
      "Ġproposed": 2979,
      "Ġfail": 2980,
      "Ġsl": 2981,
      "Ġmer": 2982,
      "ha": 2983,
      "Ġcy": 2984,
      "Ġlo": 2985,
      "Ġhalf": 2986,
      "widehat": 2987,
      "cdots": 2988,
      "Ġfather": 2989,
      "Ġsm": 2990,
      "âĢĶ": 2991,
      "aces": 2992,
      "ivil": 2993,
      "49": 2994,
      "Ġcaus": 2995,
      "comp": 2996,
      "Ġinput": 2997,
      "ellow": 2998,
      "Ġrecent": 2999,
      "Ġplan": 3000,
      "Ġhelp": 3001,
      "gebra": 3002,
      "rant": 3003,
      "187": 3004,
      "ĠAmer": 3005,
      "Ġinternational": 3006,
      "Ġfem": 3007,
      "Ġcost": 3008,
      "Ġfocus": 3009,
      "1980": 3010,
      "Ġvideo": 3011,
      "incip": 3012,
      "ĠSec": 3013,
      "LE": 3014,
      "^+": 3015,
      "point": 3016,
      "Ġcommunity": 3017,
      "minist": 3018,
      "mon": 3019,
      ")}\\": 3020,
      "De": 3021,
      "AA": 3022,
      "Ġnormal": 3023,
      "ĠBel": 3024,
      "Ġresp": 3025,
      ".~": 3026,
      "Ġyoung": 3027,
      "Ġfund": 3028,
      "ĠAct": 3029,
      "Ġ!": 3030,
      "gs": 3031,
      "itted": 3032,
      "Ġsurface": 3033,
      "ota": 3034,
      "Ġmy": 3035,
      "qquad": 3036,
      "Ġcoupl": 3037,
      "cher": 3038,
      "ĠFrance": 3039,
      "Ġmiss": 3040,
      "Ġcorre": 3041,
      "Ġprovide": 3042,
      "foot": 3043,
      "Ġbroad": 3044,
      "DE": 3045,
      "itz": 3046,
      "ming": 3047,
      "If": 3048,
      "gcolor": 3049,
      "Ġbehav": 3050,
      "ls": 3051,
      "plied": 3052,
      "ĠIndia": 3053,
      "que": 3054,
      "ecess": 3055,
      "ilities": 3056,
      "ĠTr": 3057,
      "ponse": 3058,
      "Ġsett": 3059,
      "Ġnode": 3060,
      "Ġmillion": 3061,
      "ĠPort": 3062,
      "Ġill": 3063,
      "acks": 3064,
      "ĠChurch": 3065,
      "Ġannounced": 3066,
      "ĠWith": 3067,
      "Ġgreat": 3068,
      "Ġdegree": 3069,
      "Ġobserved": 3070,
      "ittle": 3071,
      "ulated": 3072,
      "kn": 3073,
      "ĠRoman": 3074,
      "Ġstarted": 3075,
      "orthern": 3076,
      "ĠFirst": 3077,
      "ending": 3078,
      "textwidth": 3079,
      "node": 3080,
      "Ġtaken": 3081,
      "appro": 3082,
      "hood": 3083,
      "Ġdou": 3084,
      "Ġdev": 3085,
      "uture": 3086,
      "vironment": 3087,
      "Ġproperty": 3088,
      "sing": 3089,
      "AM": 3090,
      "lemma": 3091,
      "ccording": 3092,
      "rated": 3093,
      "Ġnull": 3094,
      "cis": 3095,
      "sw": 3096,
      "ulations": 3097,
      "indow": 3098,
      "eh": 3099,
      "SE": 3100,
      "aches": 3101,
      "Ġunit": 3102,
      "Ġdire": 3103,
      "}}(": 3104,
      "small": 3105,
      "47": 3106,
      "unicip": 3107,
      "Ġmater": 3108,
      "Ġreview": 3109,
      "Ġfactor": 3110,
      "Psi": 3111,
      "Ġepis": 3112,
      "ceed": 3113,
      "Ġacross": 3114,
      "Ġaward": 3115,
      "&=": 3116,
      "size": 3117,
      "inf": 3118,
      "nder": 3119,
      "Ġelements": 3120,
      "Ġzero": 3121,
      "uf": 3122,
      "Ġdebut": 3123,
      "})\\": 3124,
      "1995": 3125,
      "ĠMal": 3126,
      "ya": 3127,
      "ville": 3128,
      "ĠChe": 3129,
      "Ġmeans": 3130,
      "Ġlarger": 3131,
      "Ġclose": 3132,
      "ael": 3133,
      "}|": 3134,
      "ĠCanada": 3135,
      "Ġbgcolor": 3136,
      "ged": 3137,
      "ĠSim": 3138,
      "Ġcame": 3139,
      "skip": 3140,
      "itch": 3141,
      "iddle": 3142,
      "Ġpolitic": 3143,
      "ĠAnt": 3144,
      "Ġaccount": 3145,
      "Ġperformed": 3146,
      "Ġrat": 3147,
      "ked": 3148,
      "Ġdefine": 3149,
      "66": 3150,
      "ds": 3151,
      "Ġexists": 3152,
      "ibility": 3153,
      "raint": 3154,
      "Ġattack": 3155,
      "Ġtre": 3156,
      "Ġ\\{": 3157,
      "Ġequival": 3158,
      "Sc": 3159,
      "ĠNe": 3160,
      "Ġelection": 3161,
      "ava": 3162,
      "Le": 3163,
      "ĠĠĠĠĠĠĠĠĠĠĠĠĠ": 3164,
      "ems": 3165,
      "Ġrelated": 3166,
      "CO": 3167,
      "Ã¶": 3168,
      "After": 3169,
      "Ġconstruction": 3170,
      "Ġ()": 3171,
      "sl": 3172,
      "cup": 3173,
      "Ġexperiment": 3174,
      "ĠCouncil": 3175,
      "medi": 3176,
      "ĠSm": 3177,
      "iding": 3178,
      "ements": 3179,
      "ributions": 3180,
      "ĠMor": 3181,
      "ĠEuropean": 3182,
      "ults": 3183,
      "Ġfig": 3184,
      "Ġquantum": 3185,
      "ecut": 3186,
      "Ġcompar": 3187,
      "ĠPal": 3188,
      "ĠThom": 3189,
      "bert": 3190,
      "state": 3191,
      "95": 3192,
      "thern": 3193,
      "ension": 3194,
      "ĠPaul": 3195,
      "1994": 3196,
      "ĠAmerica": 3197,
      "data": 3198,
      "At": 3199,
      "Ġstring": 3200,
      "ĠRed": 3201,
      "],": 3202,
      "Ġdistance": 3203,
      "Ġclust": 3204,
      "ountain": 3205,
      "ĠList": 3206,
      "Ġinflu": 3207,
      "ĠHol": 3208,
      "Ġmoment": 3209,
      "Int": 3210,
      "opy": 3211,
      "band": 3212,
      "Ġreported": 3213,
      "Ġpopular": 3214,
      "Ġtrack": 3215,
      "Ġsocial": 3216,
      "acy": 3217,
      "ĠRober": 3218,
      "igned": 3219,
      "Ġlanguage": 3220,
      "Ġprobability": 3221,
      "Ġactiv": 3222,
      "function": 3223,
      "rote": 3224,
      "ura": 3225,
      "ĠGeneral": 3226,
      "Ġwent": 3227,
      "Ġcontains": 3228,
      "map": 3229,
      "Ġemb": 3230,
      "wise": 3231,
      "Ġparticip": 3232,
      "ĠQue": 3233,
      "Ġvar": 3234,
      "king": 3235,
      "outhern": 3236,
      "alian": 3237,
      "ĠSum": 3238,
      "uel": 3239,
      "Ġattempt": 3240,
      "Ġpolitical": 3241,
      "xspace": 3242,
      "istics": 3243,
      "Ġdeveloped": 3244,
      "Ġappoint": 3245,
      "ĠJames": 3246,
      "mathsf": 3247,
      "Ġtarget": 3248,
      "ky": 3249,
      "Ġfixed": 3250,
      "Ġinvestig": 3251,
      "artment": 3252,
      "ĠFigure": 3253,
      "atives": 3254,
      "ĠCour": 3255,
      "}^{(": 3256,
      "Ġ==": 3257,
      "stitute": 3258,
      "Ġemploy": 3259,
      "Ġaccess": 3260,
      "1992": 3261,
      "Ġscale": 3262,
      "Ġsequence": 3263,
      "Ġfalse": 3264,
      "Ġcentral": 3265,
      "rame": 3266,
      "Ġgalax": 3267,
      "Ġagre": 3268,
      "ĠDivision": 3269,
      "Ġreturned": 3270,
      "ached": 3271,
      "ĠPresident": 3272,
      "berg": 3273,
      "ply": 3274,
      "iers": 3275,
      "Ġ$(\\": 3276,
      "Ġfri": 3277,
      "ĠMore": 3278,
      "quare": 3279,
      "itte": 3280,
      "Ġrepla": 3281,
      "cell": 3282,
      "ĠStreet": 3283,
      "effic": 3284,
      "Ġwhose": 3285,
      "Ġliter": 3286,
      "({\\": 3287,
      "ams": 3288,
      "like": 3289,
      "ani": 3290,
      "EN": 3291,
      "IC": 3292,
      "1970": 3293,
      "reek": 3294,
      "bsite": 3295,
      "andid": 3296,
      "Ġoperator": 3297,
      "Ġspin": 3298,
      "Ġprovided": 3299,
      "Ġexpected": 3300,
      "Ġintroduced": 3301,
      "Ġrequire": 3302,
      "icol": 3303,
      "ready": 3304,
      ")]": 3305,
      "Ġmarried": 3306,
      "erman": 3307,
      "star": 3308,
      "}\\\\": 3309,
      "ĠGeorge": 3310,
      "Ġrequired": 3311,
      "arning": 3312,
      "ĉĊ": 3313,
      "Ġsimple": 3314,
      "izing": 3315,
      "Ġadditional": 3316,
      "Ġimplement": 3317,
      "Ge": 3318,
      "Ġarchitect": 3319,
      "67": 3320,
      "ĠRoyal": 3321,
      "rd": 3322,
      "unc": 3323,
      "prop": 3324,
      "ken": 3325,
      "IT": 3326,
      "ranch": 3327,
      "ump": 3328,
      "ĠMa": 3329,
      "68": 3330,
      "aves": 3331,
      "ĠFrom": 3332,
      "Ġrail": 3333,
      "Ġworked": 3334,
      "ounter": 3335,
      "ĠAp": 3336,
      "Ġfields": 3337,
      "mary": 3338,
      "Ġconc": 3339,
      "Ġneigh": 3340,
      "Ġhuman": 3341,
      "Ġbackground": 3342,
      "Ġdefe": 3343,
      "ĠLou": 3344,
      "raction": 3345,
      "down": 3346,
      "1993": 3347,
      "Ġjoined": 3348,
      "ĠSen": 3349,
      "ires": 3350,
      "Ġmilitary": 3351,
      "lic": 3352,
      "Ġbegin": 3353,
      "ka": 3354,
      "Ġboundary": 3355,
      "ili": 3356,
      "New": 3357,
      "group": 3358,
      "Ġdays": 3359,
      "Ġpredict": 3360,
      "ĠAssociation": 3361,
      "ĠRich": 3362,
      "Ġstep": 3363,
      "equiv": 3364,
      "Ġquest": 3365,
      "Ġmaking": 3366,
      "ĠBra": 3367,
      "ĠStud": 3368,
      "indent": 3369,
      "Ġlik": 3370,
      "ĠÃ": 3371,
      "ĠLemma": 3372,
      "Ad": 3373,
      "Ġable": 3374,
      "__": 3375,
      "my": 3376,
      "Ġelse": 3377,
      "year": 3378,
      "ĠĠĠĠĊ": 3379,
      "Ġeval": 3380,
      "string": 3381,
      "Ġanaly": 3382,
      "umni": 3383,
      "Ġtemperature": 3384,
      "Ġgive": 3385,
      "Ġbetter": 3386,
      "ago": 3387,
      "ĠDem": 3388,
      "Ġsay": 3389,
      "////": 3390,
      "ocr": 3391,
      "Ġdest": 3392,
      "dimens": 3393,
      "ĠDes": 3394,
      "Ġnatural": 3395,
      "Ġclosed": 3396,
      "Ġstudents": 3397,
      "Ġstory": 3398,
      "ein": 3399,
      "oms": 3400,
      "eed": 3401,
      "AP": 3402,
      "ĠUnion": 3403,
      "ervice": 3404,
      "known": 3405,
      "Ġcapt": 3406,
      "Ġbody": 3407,
      "ĠMy": 3408,
      "\"><": 3409,
      "Ġmem": 3410,
      "riate": 3411,
      "onic": 3412,
      "ĠHall": 3413,
      "utes": 3414,
      "mid": 3415,
      "ĠAustralian": 3416,
      "Ġleading": 3417,
      "ooth": 3418,
      "iform": 3419,
      "lections": 3420,
      "ills": 3421,
      "Ġmid": 3422,
      "edd": 3423,
      "earch": 3424,
      "Ġequations": 3425,
      "pdf": 3426,
      "ĠGermany": 3427,
      "185": 3428,
      "Ġvoid": 3429,
      "ĠVir": 3430,
      "Ġdiag": 3431,
      "tage": 3432,
      "08": 3433,
      "ners": 3434,
      "ĠDavid": 3435,
      "pen": 3436,
      "Ġassume": 3437,
      "Ġcut": 3438,
      "ux": 3439,
      "eloc": 3440,
      "(-": 3441,
      "Ġareas": 3442,
      "eal": 3443,
      "ĠDuring": 3444,
      "Ġ&\\": 3445,
      "vey": 3446,
      "itar": 3447,
      "1991": 3448,
      "icles": 3449,
      "&.&.": 3450,
      "Ġwrote": 3451,
      "rim": 3452,
      "ĠDi": 3453,
      "Ġ&&": 3454,
      "Ġindust": 3455,
      "Ġmag": 3456,
      "ston": 3457,
      "Ġinstead": 3458,
      "atory": 3459,
      "ishing": 3460,
      "more": 3461,
      "note": 3462,
      "ida": 3463,
      "hspace": 3464,
      "Ġpress": 3465,
      "alls": 3466,
      "racy": 3467,
      "mark": 3468,
      "Ġgradu": 3469,
      "Ġaccording": 3470,
      "Ġservices": 3471,
      "Ġgives": 3472,
      "Ass": 3473,
      "ĠThus": 3474,
      "}:": 3475,
      "ĠÐ": 3476,
      "rian": 3477,
      "Ġroad": 3478,
      "]$": 3479,
      "nel": 3480,
      "Ġhard": 3481,
      "Ġtherefore": 3482,
      "Ġexact": 3483,
      "}}{\\": 3484,
      "wood": 3485,
      "Ġpresented": 3486,
      "alle": 3487,
      "ĠPe": 3488,
      "Ġpresident": 3489,
      "Ġnovel": 3490,
      "icy": 3491,
      "iting": 3492,
      "itting": 3493,
      "With": 3494,
      "from": 3495,
      "Ġid": 3496,
      "ĠBut": 3497,
      "Ġoccur": 3498,
      "ĠChina": 3499,
      "Ġadv": 3500,
      "Ġcorrel": 3501,
      "Ġeconom": 3502,
      "ĠPat": 3503,
      "asons": 3504,
      "atively": 3505,
      "Ġlearning": 3506,
      "anies": 3507,
      "EC": 3508,
      "asket": 3509,
      "ensive": 3510,
      "Ph": 3511,
      "Ġopened": 3512,
      "Ġrecogn": 3513,
      "Ġarr": 3514,
      "ĠNor": 3515,
      "Ġlost": 3516,
      "07": 3517,
      "}+\\": 3518,
      "Ġdomain": 3519,
      "Ġeffects": 3520,
      "Sp": 3521,
      "ashington": 3522,
      "Ġmultiple": 3523,
      "Mod": 3524,
      "ĠBr": 3525,
      "ocal": 3526,
      "Ġedge": 3527,
      "Ġrather": 3528,
      "roid": 3529,
      "Ġformed": 3530,
      "ean": 3531,
      "46": 3532,
      "Ġprofessional": 3533,
      "citet": 3534,
      "Ġgoal": 3535,
      "Ġcode": 3536,
      "ributed": 3537,
      "icro": 3538,
      "Ġstars": 3539,
      "Ġmechan": 3540,
      "98": 3541,
      "Ġalready": 3542,
      "Ġchurch": 3543,
      "arily": 3544,
      "ini": 3545,
      "Ġblock": 3546,
      "Ġdirected": 3547,
      "Ġsongs": 3548,
      "Ġteams": 3549,
      "Ġothers": 3550,
      "ms": 3551,
      "Ġcenter": 3552,
      ")-": 3553,
      "ottom": 3554,
      "han": 3555,
      "ĠMart": 3556,
      "Ġtransfer": 3557,
      "oe": 3558,
      "Par": 3559,
      "ĠDr": 3560,
      "Ġput": 3561,
      "rab": 3562,
      "ker": 3563,
      "'$": 3564,
      "Ġrac": 3565,
      "ĠBay": 3566,
      "astic": 3567,
      "ĠTrans": 3568,
      "Ġcontinued": 3569,
      "From": 3570,
      "Ġdirector": 3571,
      "gress": 3572,
      "ĠAcadem": 3573,
      "Rec": 3574,
      "Ġdenote": 3575,
      "Ġradio": 3576,
      "Ġpur": 3577,
      "Ġcateg": 3578,
      "ĠGroup": 3579,
      "ĠMac": 3580,
      "Ġstre": 3581,
      "dt": 3582,
      "ender": 3583,
      "list": 3584,
      "All": 3585,
      "Ġfar": 3586,
      "Ġalthough": 3587,
      "plicit": 3588,
      "ĠCenter": 3589,
      "tic": 3590,
      "ĠMod": 3591,
      "Ġstage": 3592,
      "edge": 3593,
      "Ġentire": 3594,
      "neq": 3595,
      "ĠHen": 3596,
      "Ġpan": 3597,
      "Ġprincip": 3598,
      "06": 3599,
      "Ġveloc": 3600,
      "IS": 3601,
      "CC": 3602,
      "ĠMark": 3603,
      "Ġsample": 3604,
      "42": 3605,
      "roy": 3606,
      "}-\\": 3607,
      "Ġnever": 3608,
      "*{": 3609,
      "Ġ-\\": 3610,
      "hel": 3611,
      "ariant": 3612,
      "Data": 3613,
      "aged": 3614,
      "Ġworking": 3615,
      "ĠEm": 3616,
      "onal": 3617,
      "Ġwant": 3618,
      "1960": 3619,
      "Ġcompleted": 3620,
      "ĠRoad": 3621,
      "ittee": 3622,
      "Ġholds": 3623,
      "ĠMary": 3624,
      "Ġtradition": 3625,
      "Ġparty": 3626,
      "FF": 3627,
      "Ġnecess": 3628,
      "|^": 3629,
      "util": 3630,
      "ĠMex": 3631,
      "Ġrecorded": 3632,
      "Cont": 3633,
      "Ġsuccessful": 3634,
      "Ġspecific": 3635,
      "aign": 3636,
      "Ġcontract": 3637,
      "operat": 3638,
      "Ġoffer": 3639,
      "Ob": 3640,
      "Ġhor": 3641,
      "Ġonce": 3642,
      "Ġincludes": 3643,
      "ĠBlack": 3644,
      "Ġcandid": 3645,
      "ĠLaw": 3646,
      "liament": 3647,
      "Ġconfig": 3648,
      "Ġbreak": 3649,
      "Ġmeet": 3650,
      "icult": 3651,
      "uz": 3652,
      "ĠProv": 3653,
      "operatorn": 3654,
      "umbers": 3655,
      "theorem": 3656,
      "ensus": 3657,
      "1989": 3658,
      "Ġeducation": 3659,
      "Ġcontext": 3660,
      "Ġsets": 3661,
      "Since": 3662,
      "Ġcomplete": 3663,
      "Ġtreat": 3664,
      "Ġaway": 3665,
      "scale": 3666,
      "uit": 3667,
      ")}{": 3668,
      "inese": 3669,
      "dimensional": 3670,
      "97": 3671,
      "ĠRef": 3672,
      "fill": 3673,
      "elling": 3674,
      "Ġdaugh": 3675,
      "operatorname": 3676,
      "ights": 3677,
      "Ġviol": 3678,
      "itude": 3679,
      "Def": 3680,
      "02": 3681,
      "lav": 3682,
      "ĠCompany": 3683,
      "There": 3684,
      "Ġbasis": 3685,
      "){\\": 3686,
      "rup": 3687,
      "noindent": 3688,
      "asc": 3689,
      "ipp": 3690,
      "ĠGreen": 3691,
      "Ġsens": 3692,
      "ĠClub": 3693,
      "ĠSociety": 3694,
      "ki": 3695,
      "oo": 3696,
      "Ġeffective": 3697,
      "Ġalmost": 3698,
      "ala": 3699,
      "test": 3700,
      "pite": 3701,
      "Ġcertain": 3702,
      "Ġrelease": 3703,
      "burg": 3704,
      "ĠMusic": 3705,
      "Ġcoordin": 3706,
      "oul": 3707,
      "Ġalbums": 3708,
      "Te": 3709,
      "Ġkm": 3710,
      "ilter": 3711,
      "ĠGl": 3712,
      "Ġten": 3713,
      "ibrary": 3714,
      "85": 3715,
      "Ġbrother": 3716,
      "den": 3717,
      "04": 3718,
      "Ġcompared": 3719,
      "03": 3720,
      "Ġ%": 3721,
      "Ġindex": 3722,
      "rey": 3723,
      "Ġflo": 3724,
      "writ": 3725,
      "Ġdirection": 3726,
      "Ġgrad": 3727,
      "ario": 3728,
      "Ġbelie": 3729,
      "Ġpaint": 3730,
      "Ġweek": 3731,
      "dag": 3732,
      "1988": 3733,
      "Ġmetric": 3734,
      "ĠGames": 3735,
      "irt": 3736,
      "rec": 3737,
      "09": 3738,
      "ribute": 3739,
      "ĠCont": 3740,
      "Ġmar": 3741,
      "Ġupper": 3742,
      "Ġconduct": 3743,
      "ĠKingdom": 3744,
      "Ġren": 3745,
      "ĠCanadian": 3746,
      "Ġsigned": 3747,
      "Ġqual": 3748,
      "Ġlabel": 3749,
      "Ġdatas": 3750,
      "olit": 3751,
      "ĠCourt": 3752,
      "Ġdefinition": 3753,
      "load": 3754,
      "Ġfuture": 3755,
      "Ġsubject": 3756,
      "ores": 3757,
      "Ġcolor": 3758,
      "gl": 3759,
      "ĠĠĠĠĠĠĠĠĠĠĠĠĠĠĠĠĠĠĠĠĠĠĠ": 3760,
      "ĠIsland": 3761,
      "Ġalways": 3762,
      "500": 3763,
      "ĠInstitute": 3764,
      "enumer": 3765,
      "Ġrev": 3766,
      ")}$": 3767,
      "Ġequal": 3768,
      "Ġdocument": 3769,
      "Ġstudies": 3770,
      "iew": 3771,
      "ĠWashington": 3772,
      "Ġwebsite": 3773,
      "ĠDef": 3774,
      "Ġcommand": 3775,
      "Ġappeared": 3776,
      "verse": 3777,
      "ades": 3778,
      "$}": 3779,
      "Ġhon": 3780,
      "actions": 3781,
      "Ġgas": 3782,
      "Film": 3783,
      "Ġprior": 3784,
      "asketball": 3785,
      "that": 3786,
      "izes": 3787,
      "Ġlook": 3788,
      "Ġfootballers": 3789,
      "scr": 3790,
      "Ġben": 3791,
      "ĠTown": 3792,
      "\\,\\": 3793,
      "change": 3794,
      "ĠSing": 3795,
      "oney": 3796,
      "Ġimplies": 3797,
      "nb": 3798,
      "estival": 3799,
      "Ġadded": 3800,
      "ĠDon": 3801,
      "ites": 3802,
      "edy": 3803,
      "Ġoutput": 3804,
      "Ġlaun": 3805,
      "Ġsche": 3806,
      "Ġconstraint": 3807,
      "Ġsoft": 3808,
      "}}_": 3809,
      "Ġfounded": 3810,
      "ĠHistor": 3811,
      "Ġelected": 3812,
      "ios": 3813,
      "ĠDepartment": 3814,
      "file": 3815,
      "opl": 3816,
      "Ġsuff": 3817,
      "Ġlargest": 3818,
      "atal": 3819,
      "=#": 3820,
      "Ġwife": 3821,
      "istry": 3822,
      "embly": 3823,
      "itemize": 3824,
      "lier": 3825,
      "----------------": 3826,
      "Ġrace": 3827,
      "cial": 3828,
      "rast": 3829,
      "43": 3830,
      "omorphism": 3831,
      "Ġtransform": 3832,
      "ansion": 3833,
      "Ġparts": 3834,
      "ĠJapanese": 3835,
      "Ġcoach": 3836,
      "Ġsmaller": 3837,
      "41": 3838,
      "Ġalgebra": 3839,
      "level": 3840,
      "enumerate": 3841,
      "Ġcoeffic": 3842,
      "Ġcolumn": 3843,
      "Ġrot": 3844,
      "Ġrow": 3845,
      "Ġweak": 3846,
      "ĠCath": 3847,
      "ĠAfrican": 3848,
      "Ġneut": 3849,
      "Ġver": 3850,
      "Ġchanges": 3851,
      "Ġinstance": 3852,
      "vspace": 3853,
      "Ġvict": 3854,
      "osen": 3855,
      "ria": 3856,
      "oz": 3857,
      "nce": 3858,
      "nection": 3859,
      "========": 3860,
      "Ġreason": 3861,
      "Ġsubsequ": 3862,
      "iments": 3863,
      "ĠCons": 3864,
      "ĠTV": 3865,
      "Ġdepart": 3866,
      "]\\": 3867,
      "ĠTur": 3868,
      "Ġstudied": 3869,
      "CD": 3870,
      "ĠInter": 3871,
      "Ġwave": 3872,
      "bre": 3873,
      "Ġprop": 3874,
      "Ġappointed": 3875,
      "Ġtaking": 3876,
      "Ġconver": 3877,
      "Ġlive": 3878,
      "1987": 3879,
      "hy": 3880,
      "Ġresponse": 3881,
      "bour": 3882,
      "Ġnuc": 3883,
      "SP": 3884,
      "used": 3885,
      "ingu": 3886,
      "ĠVol": 3887,
      "ona": 3888,
      "ened": 3889,
      "ĠRecords": 3890,
      "Ġrepresentation": 3891,
      "bound": 3892,
      "Set": 3893,
      "cks": 3894,
      "Ġfollowed": 3895,
      "SI": 3896,
      "Ġcomponent": 3897,
      "Ġelectron": 3898,
      "can": 3899,
      "ĠMet": 3900,
      "km": 3901,
      "Ã¤": 3902,
      "ien": 3903,
      "Ġmagnetic": 3904,
      "ĠCentral": 3905,
      "Ġstatic": 3906,
      "alled": 3907,
      "Ġacqu": 3908,
      "ado": 3909,
      "Ġpeak": 3910,
      "Ġadvan": 3911,
      ".)": 3912,
      "Ġeast": 3913,
      "unt": 3914,
      "88": 3915,
      "Ġcannot": 3916,
      "ĠPress": 3917,
      "ĠArch": 3918,
      "ĠBest": 3919,
      "Ġfram": 3920,
      "Ġforce": 3921,
      "Ġofficial": 3922,
      "ĠAngel": 3923,
      "Ġalumni": 3924,
      "){": 3925,
      "ĠMiss": 3926,
      "Ġcast": 3927,
      "Ġ_{": 3928,
      "Ġbecomes": 3929,
      "amilton": 3930,
      "dist": 3931,
      "Ġleague": 3932,
      "ledge": 3933,
      "ada": 3934,
      "Ġunits": 3935,
      "uan": 3936,
      "Ġadminist": 3937,
      "96": 3938,
      "auge": 3939,
      "ĠRail": 3940,
      "Ġassist": 3941,
      ",\"": 3942,
      "Ġadj": 3943,
      "Ġdesigned": 3944,
      "ĠAcademy": 3945,
      "Pl": 3946,
      "Ġprove": 3947,
      "ĠMad": 3948,
      "Ġevolution": 3949,
      "tra": 3950,
      "Ġwest": 3951,
      "Ġmodern": 3952,
      "ĠRobert": 3953,
      "Ġsolutions": 3954,
      "Ġincrease": 3955,
      "Ġimages": 3956,
      "ĠCap": 3957,
      "icture": 3958,
      "erve": 3959,
      "Ġmother": 3960,
      "rish": 3961,
      "ĠRussian": 3962,
      "ĠSo": 3963,
      "mit": 3964,
      "Ġmaximum": 3965,
      "Ġwhether": 3966,
      "uments": 3967,
      "~$": 3968,
      "********": 3969,
      "ederal": 3970,
      "1986": 3971,
      "Ġoffice": 3972,
      "Ġdemon": 3973,
      "fficient": 3974,
      "Ġ:=": 3975,
      "Ġrelation": 3976,
      "Not": 3977,
      "ĠItalian": 3978,
      "ĠSam": 3979,
      "ros": 3980,
      "Ġeffic": 3981,
      "Ð¾": 3982,
      "long": 3983,
      "refer": 3984,
      "ĠTra": 3985,
      "Ġwhite": 3986,
      "ĠAlex": 3987,
      "Ġcomponents": 3988,
      "Ġenvironment": 3989,
      "ĠThomas": 3990,
      "Ġund": 3991,
      "Ġusually": 3992,
      "Ġtoo": 3993,
      "ĠGrand": 3994,
      "Ġdirectly": 3995,
      "Ġgenerated": 3996,
      "ĠMuseum": 3997,
      "olar": 3998,
      "ns": 3999,
      "Ġfront": 4000,
      "ED": 4001,
      "ĠSummer": 4002,
      "Ġstrateg": 4003,
      "ĠWhile": 4004,
      "Ġenough": 4005,
      "atus": 4006,
      "($": 4007,
      "lag": 4008,
      "Ġyield": 4009,
      "ĠTex": 4010,
      "Ġinterp": 4011,
      "\");": 4012,
      "Ġtransition": 4013,
      "Ġgain": 4014,
      "location": 4015,
      "west": 4016,
      "Ġmight": 4017,
      "Ġtheorem": 4018,
      "encies": 4019,
      "Ġapplied": 4020,
      "Ġsignal": 4021,
      "Ġremov": 4022,
      "1984": 4023,
      "ĠRad": 4024,
      "Ġbar": 4025,
      "}}}": 4026,
      "ously": 4027,
      "Ġrespons": 4028,
      "turb": 4029,
      "Ġregard": 4030,
      "Ġactive": 4031,
      "ĠSal": 4032,
      "ĠAfrica": 4033,
      "ĠOlympics": 4034,
      "Ġexpla": 4035,
      "imate": 4036,
      "ager": 4037,
      "ĠZeal": 4038,
      "].": 4039,
      "Ġdifficult": 4040,
      "Ġconv": 4041,
      "Ġclear": 4042,
      "Ġparent": 4043,
      "display": 4044,
      "ĠRev": 4045,
      "Ġphysical": 4046,
      "Ġexhib": 4047,
      "hest": 4048,
      "Eng": 4049,
      "Ġbirth": 4050,
      "ĠGold": 4051,
      "Ġnote": 4052,
      "thlet": 4053,
      "Ġeight": 4054,
      "olf": 4055,
      "Ġcle": 4056,
      "inst": 4057,
      "Ġrock": 4058,
      "approx": 4059,
      "Ġmarket": 4060,
      "Ġprovides": 4061,
      "ises": 4062,
      "ĠCong": 4063,
      "Ġcheck": 4064,
      "Ġconstit": 4065,
      "Ġrestrict": 4066,
      "ests": 4067,
      "angle": 4068,
      "inite": 4069,
      "ĠGreat": 4070,
      "ĠWil": 4071,
      "ita": 4072,
      "Ġchannel": 4073,
      "Ġproblems": 4074,
      "Ġstructures": 4075,
      "Ġcreate": 4076,
      "Ġtable": 4077,
      "\\}$": 4078,
      "ĠLeg": 4079,
      "1985": 4080,
      "ĠZealand": 4081,
      "Ġce": 4082,
      "Ð°": 4083,
      "ĠSystem": 4084,
      "Ġhimself": 4085,
      "Ġhealth": 4086,
      "Ġcompanies": 4087,
      "ĠWestern": 4088,
      "Value": 4089,
      "Ġforces": 4090,
      "Qu": 4091,
      "ictor": 4092,
      "ĠRepublic": 4093,
      "Ġdomin": 4094,
      "ully": 4095,
      "ĠFilm": 4096,
      "FA": 4097,
      "ids": 4098,
      "Ġsound": 4099,
      "split": 4100,
      "77": 4101,
      "Ġdiscover": 4102,
      "za": 4103,
      "Ġincreasing": 4104,
      "ĠFootball": 4105,
      "Ġglobal": 4106,
      "path": 4107,
      "Ġcontent": 4108,
      "Ġter": 4109,
      "Ġhous": 4110,
      "ĠMat": 4111,
      "rate": 4112,
      "Ġschools": 4113,
      "ĠUK": 4114,
      "clusion": 4115,
      "Ġuser": 4116,
      "Ġreplaced": 4117,
      "sel": 4118,
      "Ġdifference": 4119,
      "Ġguitar": 4120,
      "^-": 4121,
      "oration": 4122,
      "Ġspectrum": 4123,
      "LL": 4124,
      "Ġinj": 4125,
      "Ġstri": 4126,
      "Ġvelocity": 4127,
      "Ġbox": 4128,
      "ĠScott": 4129,
      "Ġsources": 4130,
      "Ġvalid": 4131,
      "mathscr": 4132,
      "ĠCharles": 4133,
      "date": 4134,
      "Ġnumbers": 4135,
      "Ġpast": 4136,
      "OS": 4137,
      "ĠEar": 4138,
      "ĠLouis": 4139,
      "Ġthroughout": 4140,
      "``": 4141,
      "tact": 4142,
      "Ġinvolved": 4143,
      "cret": 4144,
      "lam": 4145,
      "ĠSaint": 4146,
      "Ġrelationship": 4147,
      "ĠTherefore": 4148,
      "Ġclassical": 4149,
      "arter": 4150,
      "Ġoptim": 4151,
      "Ġamount": 4152,
      "ena": 4153,
      "Ġtro": 4154,
      "Ġwrite": 4155,
      "Ġselected": 4156,
      "wa": 4157,
      "Ġuses": 4158,
      "ĠVirgin": 4159,
      "ying": 4160,
      "Ġorigin": 4161,
      "inct": 4162,
      "Ġdone": 4163,
      "pecially": 4164,
      "Ġupon": 4165,
      "izations": 4166,
      "Ġestimate": 4167,
      "MS": 4168,
      "ession": 4169,
      "Ġdecre": 4170,
      "ĠGo": 4171,
      "ustom": 4172,
      "ĠYear": 4173,
      "ĠJew": 4174,
      "overs": 4175,
      "ĠInt": 4176,
      "Ġpers": 4177,
      "Ġitself": 4178,
      "well": 4179,
      "ĠMer": 4180,
      "Man": 4181,
      "ollowing": 4182,
      "multicol": 4183,
      "Ġsports": 4184,
      "Ġcritical": 4185,
      "LA": 4186,
      "Ġscen": 4187,
      "Ġrepresented": 4188,
      "ĠCarol": 4189,
      "reland": 4190,
      "Ġplaying": 4191,
      "Ġsupported": 4192,
      "oud": 4193,
      "Ġstations": 4194,
      "ĠMag": 4195,
      "Ġmedia": 4196,
      "&&": 4197,
      "Ġmunicip": 4198,
      "ES": 4199,
      "Form": 4200,
      "Ġdaughter": 4201,
      "1983": 4202,
      "ircraft": 4203,
      "ĠKore": 4204,
      "ĠChristian": 4205,
      "linear": 4206,
      "ospital": 4207,
      "Pi": 4208,
      "azine": 4209,
      "Ġtakes": 4210,
      "Ġ\\;": 4211,
      "Ġlocation": 4212,
      "Ġmonths": 4213,
      "58": 4214,
      "iation": 4215,
      "multicolumn": 4216,
      "Ġeigen": 4217,
      "gence": 4218,
      "link": 4219,
      "ĠChinese": 4220,
      "Ġdisplay": 4221,
      "ensor": 4222,
      "Ġmention": 4223,
      "arned": 4224,
      "pan": 4225,
      "hom": 4226,
      "Ġfire": 4227,
      "ĠWhite": 4228,
      "Ġdram": 4229,
      "Ġpreviously": 4230,
      "ĠMinister": 4231,
      "Ġyour": 4232,
      "usical": 4233,
      "antic": 4234,
      "nes": 4235,
      "Or": 4236,
      "overnor": 4237,
      "Ġregions": 4238,
      "Ġadapt": 4239,
      "index": 4240,
      "ĠMont": 4241,
      "ework": 4242,
      "bigg": 4243,
      "ping": 4244,
      "Ġdraw": 4245,
      "Ġtypes": 4246,
      "Ġcampaign": 4247,
      "Ġgave": 4248,
      "ĠTexas": 4249,
      "ĠLab": 4250,
      "Ġunivers": 4251,
      "MA": 4252,
      "Ġcollection": 4253,
      "acher": 4254,
      "Ġliving": 4255,
      "isation": 4256,
      "));": 4257,
      "NN": 4258,
      "PS": 4259,
      "63": 4260,
      "Ġsil": 4261,
      "Ġratio": 4262,
      "Ġepisode": 4263,
      "isions": 4264,
      "];": 4265,
      "ĠMichael": 4266,
      "Ġbuildings": 4267,
      "ether": 4268,
      "otic": 4269,
      "Ġstated": 4270,
      "Ġlisted": 4271,
      "ĠOb": 4272,
      "requ": 4273,
      "Ġreve": 4274,
      "Ġvariables": 4275,
      "Ġmix": 4276,
      "yr": 4277,
      "ĠDan": 4278,
      "Ġwords": 4279,
      "Ġmedal": 4280,
      "Ġwidth": 4281,
      "Ġunique": 4282,
      "rc": 4283,
      "Trans": 4284,
      "nbsp": 4285,
      "ynom": 4286,
      "command": 4287,
      "Ġtourn": 4288,
      "Ġequivalent": 4289,
      "1982": 4290,
      "ĠDo": 4291,
      "underline": 4292,
      "ET": 4293,
      "rael": 4294,
      "Ġgeomet": 4295,
      "Ġaccept": 4296,
      "}^{-": 4297,
      "ĠClass": 4298,
      "unk": 4299,
      "1950": 4300,
      "Ġsearch": 4301,
      "astern": 4302,
      ")+": 4303,
      "ln": 4304,
      "ĠPet": 4305,
      "Ġallowed": 4306,
      "Ġconnected": 4307,
      "Ġexecut": 4308,
      "ĠTable": 4309,
      "ĠTor": 4310,
      "Ġobjects": 4311,
      "eck": 4312,
      "Ġmatter": 4313,
      "Ġlatter": 4314,
      "Ġ\\|": 4315,
      "Ġpay": 4316,
      "ĠTom": 4317,
      "Ġtowards": 4318,
      "atre": 4319,
      "gent": 4320,
      "57": 4321,
      "69": 4322,
      "Ġremains": 4323,
      "Ġ/**": 4324,
      "Is": 4325,
      "PR": 4326,
      "ought": 4327,
      "inos": 4328,
      "Ġillust": 4329,
      "idae": 4330,
      "cel": 4331,
      "ira": 4332,
      "Ġreach": 4333,
      "ducation": 4334,
      "Class": 4335,
      "Ġspeed": 4336,
      "Ġprimary": 4337,
      "Ġaltern": 4338,
      "Ġplaces": 4339,
      "Ġoutside": 4340,
      "Ġfav": 4341,
      "allel": 4342,
      "####": 4343,
      "Ġdetermined": 4344,
      "Ġfight": 4345,
      "Ġresulting": 4346,
      "Ġperm": 4347,
      "Ġaud": 4348,
      "Ġoperations": 4349,
      "State": 4350,
      "][": 4351,
      "Ġbehavior": 4352,
      "ĠSur": 4353,
      "usion": 4354,
      "Ġord": 4355,
      "Ġfrequency": 4356,
      "US": 4357,
      "ĠLat": 4358,
      "Ġsetting": 4359,
      "length": 4360,
      "\";": 4361,
      "aring": 4362,
      "Ġallows": 4363,
      "FC": 4364,
      "Ġtrac": 4365,
      "ĠHamilton": 4366,
      "ras": 4367,
      "Ġconclud": 4368,
      "1979": 4369,
      "rror": 4370,
      "Ġpattern": 4371,
      "Ġoriginally": 4372,
      "Ġess": 4373,
      "Ġcurrently": 4374,
      "road": 4375,
      "iant": 4376,
      "range": 4377,
      "hand": 4378,
      "Ġrelative": 4379,
      "Ġtry": 4380,
      "Ġfemale": 4381,
      "Ġkilled": 4382,
      "textrm": 4383,
      "bul": 4384,
      "Ġdon": 4385,
      "standing": 4386,
      "auss": 4387,
      "px": 4388,
      "board": 4389,
      "61": 4390,
      "Ġjud": 4391,
      "ĠLand": 4392,
      "AD": 4393,
      "ĠParis": 4394,
      "Ġtransport": 4395,
      "ĠPo": 4396,
      "Ġjournal": 4397,
      "atform": 4398,
      "minus": 4399,
      "di": 4400,
      "ĠSecond": 4401,
      "ameter": 4402,
      "Then": 4403,
      "Ġeventually": 4404,
      "ĠCatholic": 4405,
      "Ġdeal": 4406,
      "}/": 4407,
      "Theta": 4408,
      "irm": 4409,
      "ĠSuper": 4410,
      "people": 4411,
      "iences": 4412,
      "ockey": 4413,
      "62": 4414,
      "ny": 4415,
      "oring": 4416,
      "men": 4417,
      "norm": 4418,
      "ĠBen": 4419,
      "Ġdouble": 4420,
      "ĠJose": 4421,
      "}}_{": 4422,
      "Note": 4423,
      "idents": 4424,
      "1981": 4425,
      "zil": 4426,
      "eline": 4427,
      "ging": 4428,
      "fl": 4429,
      "Ġax": 4430,
      "model": 4431,
      "amily": 4432,
      "Ġbooks": 4433,
      "ersion": 4434,
      "Ġtour": 4435,
      "ĠSpanish": 4436,
      "Ġdam": 4437,
      "Ġfinished": 4438,
      "aval": 4439,
      "FL": 4440,
      "Ġseven": 4441,
      "TR": 4442,
      "<\\": 4443,
      "{}": 4444,
      "init": 4445,
      "win": 4446,
      "aker": 4447,
      "Ġdemonstr": 4448,
      "war": 4449,
      "En": 4450,
      "rade": 4451,
      "ĠFrancis": 4452,
      "fess": 4453,
      "ĠNote": 4454,
      "Ġbelong": 4455,
      "Ġ$\\{": 4456,
      "Ġmove": 4457,
      "Ġgauge": 4458,
      "Ġtree": 4459,
      "Ġchall": 4460,
      "Ġaccom": 4461,
      "Ġadopt": 4462,
      "spec": 4463,
      "rule": 4464,
      "Ġste": 4465,
      "Ġdimension": 4466,
      "Ġsurv": 4467,
      "subseteq": 4468,
      "do": 4469,
      "ĠBill": 4470,
      "Wh": 4471,
      "Ġartists": 4472,
      "ano": 4473,
      "tical": 4474,
      "Sup": 4475,
      "ĠDemocr": 4476,
      "Ġvoc": 4477,
      "bur": 4478,
      "prod": 4479,
      "Ġchoice": 4480,
      "Ġtask": 4481,
      "Ġfile": 4482,
      "ols": 4483,
      "ĠMel": 4484,
      "Ġintegral": 4485,
      "Vert": 4486,
      "Ġextended": 4487,
      "Ġgenerally": 4488,
      "{$": 4489,
      "ĠPlay": 4490,
      "utch": 4491,
      "ĠDay": 4492,
      "ĠString": 4493,
      "ĠPeter": 4494,
      "aps": 4495,
      "Ġapproximately": 4496,
      "ĠMass": 4497,
      "ĠFore": 4498,
      "Ġcharge": 4499,
      "Ġmakes": 4500,
      "Ġrob": 4501,
      "ĠAccording": 4502,
      "Ġderiv": 4503,
      "Ġrights": 4504,
      "inals": 4505,
      "ĠSte": 4506,
      "ackage": 4507,
      "airs": 4508,
      "Ġrelig": 4509,
      "attice": 4510,
      "Ġstop": 4511,
      "Ðµ": 4512,
      "ĠCO": 4513,
      "Ġ$|": 4514,
      "Ġoccup": 4515,
      "oviet": 4516,
      "ĠScience": 4517,
      "footnote": 4518,
      "Ġreached": 4519,
      "ola": 4520,
      "Ġsymmetry": 4521,
      "Ġconcept": 4522,
      "ĠSmith": 4523,
      "1972": 4524,
      "78": 4525,
      "ĠSub": 4526,
      "ishop": 4527,
      "Ġproced": 4528,
      "http": 4529,
      "Ġimmedi": 4530,
      "Ġchart": 4531,
      "Ġdetails": 4532,
      "ifold": 4533,
      "Ġpolitician": 4534,
      "ĠDel": 4535,
      "ĠSome": 4536,
      "ips": 4537,
      "Ġeffort": 4538,
      "unity": 4539,
      "Ġevalu": 4540,
      "Pr": 4541,
      "Ã¨": 4542,
      "One": 4543,
      "Ġmaterial": 4544,
      "Ġir": 4545,
      "oice": 4546,
      "Ġconsists": 4547,
      "esh": 4548,
      "icago": 4549,
      "1978": 4550,
      "va": 4551,
      "Ġuniform": 4552,
      "Ġcourt": 4553,
      "ĠGra": 4554,
      "Ġfit": 4555,
      "Ġmissing": 4556,
      "arp": 4557,
      "acity": 4558,
      "flo": 4559,
      "Ġoperators": 4560,
      "ĠRichard": 4561,
      "rep": 4562,
      "rief": 4563,
      "texttt": 4564,
      "xy": 4565,
      "Ġinteraction": 4566,
      "ifying": 4567,
      "Ġcourse": 4568,
      "Exception": 4569,
      "Ġ(-": 4570,
      "Ġnames": 4571,
      "1976": 4572,
      "ĠĠĠĊ": 4573,
      "ĠFlor": 4574,
      "ĠVictor": 4575,
      "Ġespecially": 4576,
      "Ġinstit": 4577,
      "aur": 4578,
      "dro": 4579,
      "Ġsus": 4580,
      "ui": 4581,
      "error": 4582,
      "Ġseg": 4583,
      "Ġcharg": 4584,
      "Ġruns": 4585,
      "Ġremained": 4586,
      "Ġorg": 4587,
      "Ġadm": 4588,
      "Ġsufficient": 4589,
      "etworks": 4590,
      "ĠTer": 4591,
      "ĠHenry": 4592,
      "ĠNot": 4593,
      "ĠOther": 4594,
      "Ġexpand": 4595,
      "Ġrequest": 4596,
      "ĠFrank": 4597,
      "1974": 4598,
      "ua": 4599,
      "TV": 4600,
      "Ġaddress": 4601,
      "Ġcorrect": 4602,
      "Ġreduced": 4603,
      "Ġquestion": 4604,
      "Ġtravel": 4605,
      "Ġlimited": 4606,
      "ĠLos": 4607,
      "Ġfourth": 4608,
      "Ġhence": 4609,
      "Ġdisp": 4610,
      "Ġprec": 4611,
      "isher": 4612,
      "Ġderived": 4613,
      "ĠPla": 4614,
      "rial": 4615,
      "Early": 4616,
      "ĉĉĉĉĉ": 4617,
      "Ġgl": 4618,
      "ĠLake": 4619,
      "gn": 4620,
      "reme": 4621,
      "body": 4622,
      "Ġcharacters": 4623,
      "oplus": 4624,
      "IM": 4625,
      "Ġcountries": 4626,
      "ket": 4627,
      "Ġcivil": 4628,
      "ĠIreland": 4629,
      "ĠHill": 4630,
      "Ġestablishments": 4631,
      "Ġ($\\": 4632,
      "Ġuncer": 4633,
      "Ġkeep": 4634,
      "Ġded": 4635,
      "tained": 4636,
      "Object": 4637,
      "}'": 4638,
      "ĠSpec": 4639,
      "Ġsmooth": 4640,
      "acc": 4641,
      "Ġmach": 4642,
      "IR": 4643,
      "AB": 4644,
      "Ġimpact": 4645,
      "Ġprote": 4646,
      "setminus": 4647,
      "Ġstreng": 4648,
      "pace": 4649,
      "Ġplaced": 4650,
      "Ġexpression": 4651,
      "ban": 4652,
      "mat": 4653,
      "ĠBur": 4654,
      "taint": 4655,
      "ĠRob": 4656,
      "1975": 4657,
      "Ġoverall": 4658,
      "ĠFound": 4659,
      "Ġ(\"": 4660,
      "Ġbur": 4661,
      ";\"": 4662,
      "itle": 4663,
      "Ġappears": 4664,
      "ĠDirect": 4665,
      "Ġhighest": 4666,
      "Ġflux": 4667,
      "ĠFl": 4668,
      "isk": 4669,
      "}},": 4670,
      "Ġpolicy": 4671,
      "olk": 4672,
      "Ġfeatured": 4673,
      "1977": 4674,
      "Ġword": 4675,
      "Ġscore": 4676,
      "Ġ$-": 4677,
      "Ġpolynom": 4678,
      "().": 4679,
      "ih": 4680,
      "Äģ": 4681,
      "Ġgold": 4682,
      "Ġsen": 4683,
      "ĠDu": 4684,
      "ometimes": 4685,
      "igan": 4686,
      "Ġplant": 4687,
      "Ġboard": 4688,
      "ĠHistory": 4689,
      "ĠRock": 4690,
      "Ġforms": 4691,
      "Ġoperation": 4692,
      "Ġsom": 4693,
      "Ġrunning": 4694,
      "ĠPri": 4695,
      "Ġhapp": 4696,
      "reater": 4697,
      "Ġinequ": 4698,
      "Ġawarded": 4699,
      "Ġnoise": 4700,
      "ao": 4701,
      "crete": 4702,
      "Ġlittle": 4703,
      "struct": 4704,
      "Ġpresence": 4705,
      "Ġexpansion": 4706,
      "Ġpolice": 4707,
      "ĠCamp": 4708,
      "dec": 4709,
      "_+": 4710,
      "Ġdate": 4711,
      "1968": 4712,
      "ĠForce": 4713,
      "ĠSwed": 4714,
      "\\}": 4715,
      "Ap": 4716,
      "ĠPenn": 4717,
      "ocks": 4718,
      "Ð¸": 4719,
      "dagger": 4720,
      "Get": 4721,
      "Ġchosen": 4722,
      "iral": 4723,
      "Ġdu": 4724,
      "lap": 4725,
      "Ġdrop": 4726,
      "Ġmulti": 4727,
      "Ġcontinuous": 4728,
      "ĠPan": 4729,
      "ĠEmp": 4730,
      "When": 4731,
      "Ġcurve": 4732,
      "empor": 4733,
      "_{{\\": 4734,
      "icon": 4735,
      "inder": 4736,
      "anning": 4737,
      "Ġgalaxies": 4738,
      "Inf": 4739,
      "Ġfriend": 4740,
      "_{(": 4741,
      "ĠMil": 4742,
      "Ġball": 4743,
      "Ġfall": 4744,
      "ĠOff": 4745,
      "Ġlikely": 4746,
      "ĠWomen": 4747,
      "ĠWal": 4748,
      "url": 4749,
      "abs": 4750,
      "Ġer": 4751,
      "51": 4752,
      "And": 4753,
      "Ġdiagram": 4754,
      "Ġcome": 4755,
      "su": 4756,
      "ube": 4757,
      "Ġcompetition": 4758,
      "Ġsinger": 4759,
      "Ġleaders": 4760,
      "Ġfigure": 4761,
      "OC": 4762,
      "Ġbig": 4763,
      "Ġfamil": 4764,
      "ĠJust": 4765,
      "ĠIts": 4766,
      "perty": 4767,
      "OT": 4768,
      "rices": 4769,
      "ares": 4770,
      "rich": 4771,
      "ugby": 4772,
      "Ġexplicit": 4773,
      "Ġreference": 4774,
      "Notes": 4775,
      "Ġaircraft": 4776,
      "ĠThat": 4777,
      "Ġnegative": 4778,
      "ouri": 4779,
      "Ġobservations": 4780,
      "Ġrule": 4781,
      "ells": 4782,
      "Ġgrav": 4783,
      "Ġearlier": 4784,
      "nav": 4785,
      "Ġmotion": 4786,
      "ĠResearch": 4787,
      "87": 4788,
      "Ġpractice": 4789,
      "Ġwriter": 4790,
      "Ġchain": 4791,
      "1973": 4792,
      "wedge": 4793,
      "oke": 4794,
      "ĠVirginia": 4795,
      "Ġbounded": 4796,
      "Ġscheme": 4797,
      "Ġclasses": 4798,
      "Ġtrain": 4799,
      "Ġdig": 4800,
      "bon": 4801,
      "riz": 4802,
      "Ġscatter": 4803,
      "52": 4804,
      "Ġanim": 4805,
      "ĠOffic": 4806,
      "Ġlonger": 4807,
      "istan": 4808,
      "Ġformation": 4809,
      "ĠSta": 4810,
      "ĠDen": 4811,
      "EE": 4812,
      "ils": 4813,
      "Ġ!=": 4814,
      "Ġdark": 4815,
      "$_": 4816,
      "^{-\\": 4817,
      "Ġtransl": 4818,
      "Ġcompact": 4819,
      "ML": 4820,
      "escription": 4821,
      "Ġemer": 4822,
      "ellar": 4823,
      "ashed": 4824,
      "Ġissue": 4825,
      "ogle": 4826,
      "ĠSun": 4827,
      "ĠOrder": 4828,
      "ĠChampionships": 4829,
      "Ġvariable": 4830,
      "anned": 4831,
      "linewidth": 4832,
      "ponent": 4833,
      "rupt": 4834,
      "Ġissues": 4835,
      "arc": 4836,
      "Ġbehind": 4837,
      "alo": 4838,
      "vis": 4839,
      "Over": 4840,
      "Ġcritic": 4841,
      "Ġexpress": 4842,
      "iled": 4843,
      "ĠCommission": 4844,
      "Ġscored": 4845,
      "Ġmode": 4846,
      "Ġremaining": 4847,
      "Ġartist": 4848,
      "Ġhousehold": 4849,
      "ĠĠĠĠĠĠĠĠĠĠ": 4850,
      "54": 4851,
      "irl": 4852,
      "iques": 4853,
      "ĠTechn": 4854,
      "56": 4855,
      "Ġtournament": 4856,
      "ĠKe": 4857,
      "ĠApp": 4858,
      "ĠLu": 4859,
      "Ġhyper": 4860,
      "Ġfamilies": 4861,
      "Ġstarting": 4862,
      "Ġneighbor": 4863,
      ")\\,": 4864,
      "det": 4865,
      "ye": 4866,
      "Key": 4867,
      "MC": 4868,
      "aging": 4869,
      "Ġdiscussed": 4870,
      "ĠMo": 4871,
      "SC": 4872,
      "Ġdecision": 4873,
      "94": 4874,
      "Ġnoted": 4875,
      "Ġestimated": 4876,
      "Ġsaw": 4877,
      "View": 4878,
      "Ġpie": 4879,
      "Sy": 4880,
      "Ġdeep": 4881,
      "1971": 4882,
      "rought": 4883,
      "Ġparticle": 4884,
      "Ġimm": 4885,
      "Further": 4886,
      "BA": 4887,
      "Ġnight": 4888,
      "ba": 4889,
      "main": 4890,
      "stant": 4891,
      "Ã³n": 4892,
      ")|": 4893,
      "Ġwriting": 4894,
      "rence": 4895,
      "Ġvolume": 4896,
      "Ġiter": 4897,
      "Ġsch": 4898,
      "aled": 4899,
      "Ġformula": 4900,
      "ĠItaly": 4901,
      "Ġautom": 4902,
      "uracy": 4903,
      "Ġparticles": 4904,
      "92": 4905,
      "ĠNavy": 4906,
      "Ġstaff": 4907,
      "Äĩ": 4908,
      "tag": 4909,
      "isl": 4910,
      "ĠKh": 4911,
      "Ġbroadcast": 4912,
      "1969": 4913,
      "ĠMexico": 4914,
      "ĠArts": 4915,
      "ĠMus": 4916,
      "Ġvertex": 4917,
      "Ġcommunic": 4918,
      "ĠMr": 4919,
      "Ġsymbol": 4920,
      "ĠIsrael": 4921,
      "Ġchanged": 4922,
      "ĠChicago": 4923,
      "png": 4924,
      "());": 4925,
      "Ġcontribution": 4926,
      "ects": 4927,
      "cles": 4928,
      "Ġlevels": 4929,
      "Ġhyp": 4930,
      "ĠAlthough": 4931,
      "ĠGod": 4932,
      "ĠÂ": 4933,
      "quot": 4934,
      "Comp": 4935,
      "93": 4936,
      "sm": 4937,
      "Ġcommer": 4938,
      "Ġevidence": 4939,
      "ĠAtl": 4940,
      "oding": 4941,
      "Ġinterpret": 4942,
      "Ġbasketball": 4943,
      "ima": 4944,
      "osm": 4945,
      "Ġperturb": 4946,
      "efore": 4947,
      "inem": 4948,
      "Ġprem": 4949,
      "Ġwide": 4950,
      "ĠOut": 4951,
      "Ġpolar": 4952,
      "public": 4953,
      "pc": 4954,
      "Ġcollege": 4955,
      "ĠPublic": 4956,
      "Ġplays": 4957,
      "Tr": 4958,
      "Ġneeded": 4959,
      "Ġscreen": 4960,
      "Ġbeginning": 4961,
      "rative": 4962,
      "ĠCD": 4963,
      "ĠKar": 4964,
      "ĠGeorg": 4965,
      "js": 4966,
      "Ġincreased": 4967,
      "ecause": 4968,
      "ĠTwo": 4969,
      "Ġapproximation": 4970,
      "Ġemission": 4971,
      "\":": 4972,
      "Comm": 4973,
      "Ġsimply": 4974,
      "ĠStar": 4975,
      "Ġ$[": 4976,
      "ancial": 4977,
      "Ġcapital": 4978,
      "Ġveh": 4979,
      "Ġnecessary": 4980,
      "ptions": 4981,
      "1945": 4982,
      "Ġleads": 4983,
      "ĠFe": 4984,
      "vention": 4985,
      "ĠCast": 4986,
      "ĠIll": 4987,
      "English": 4988,
      "ĠBrown": 4989,
      "Ġsex": 4990,
      "ĠScot": 4991,
      "Ġrank": 4992,
      "Ġ///": 4993,
      "eria": 4994,
      "ĠAngeles": 4995,
      "cho": 4996,
      "udd": 4997,
      "stra": 4998,
      "ette": 4999,
      "1940": 5000,
      "rat": 5001,
      "PT": 5002,
      "Ġmomentum": 5003,
      "https": 5004,
      "BS": 5005,
      "1967": 5006,
      "Ġliterature": 5007,
      "Ġcoupling": 5008,
      "eds": 5009,
      "ĠIm": 5010,
      "bt": 5011,
      "version": 5012,
      "ilarly": 5013,
      "53": 5014,
      "Åį": 5015,
      "ski": 5016,
      "language": 5017,
      "colon": 5018,
      "Ġactress": 5019,
      "uls": 5020,
      "Ġexcept": 5021,
      "Ġens": 5022,
      "First": 5023,
      "Ġtherm": 5024,
      "rice": 5025,
      "Ġwhole": 5026,
      "iny": 5027,
      "limits": 5028,
      "),\\": 5029,
      "Ġavoid": 5030,
      "iro": 5031,
      "background": 5032,
      "ricket": 5033,
      "Ġconstructed": 5034,
      "Ġscient": 5035,
      "Ġnomin": 5036,
      "ĠCommittee": 5037,
      "ĠKn": 5038,
      "Ġmaps": 5039,
      "book": 5040,
      "Equ": 5041,
      "Ġapplication": 5042,
      "UT": 5043,
      "Ġnature": 5044,
      "Ġlayer": 5045,
      "Ġstra": 5046,
      "._": 5047,
      "lov": 5048,
      "Ġgoing": 5049,
      "Ġincor": 5050,
      "FT": 5051,
      "orial": 5052,
      "ĠFestival": 5053,
      "Ġgun": 5054,
      "ali": 5055,
      "enced": 5056,
      "Time": 5057,
      "Error": 5058,
      "Ġrap": 5059,
      "Ġexperiments": 5060,
      "ariance": 5061,
      "Ġsubset": 5062,
      "atriate": 5063,
      "Ġdynamics": 5064,
      "ko": 5065,
      "Ġreading": 5066,
      "Ġsense": 5067,
      "iano": 5068,
      "Ġplane": 5069,
      "ening": 5070,
      "Ġwriters": 5071,
      "ĠService": 5072,
      "duction": 5073,
      "ishes": 5074,
      "ropy": 5075,
      "ollary": 5076,
      "Ġinside": 5077,
      "ivial": 5078,
      "Ġarbit": 5079,
      "Ġ|\\": 5080,
      "shire": 5081,
      "Ġonline": 5082,
      "Ġsaf": 5083,
      "Test": 5084,
      "anda": 5085,
      "Ġhol": 5086,
      "Ġmovement": 5087,
      "Ġdecided": 5088,
      "abit": 5089,
      "elt": 5090,
      "Ġblue": 5091,
      "Ġapply": 5092,
      "Ġarray": 5093,
      "iana": 5094,
      "Ġleader": 5095,
      "Ġunion": 5096,
      "Ġtax": 5097,
      "lt": 5098,
      "www": 5099,
      "Build": 5100,
      "Ġvariety": 5101,
      "ĠParliament": 5102,
      "ands": 5103,
      "Ġvocals": 5104,
      "Ġanti": 5105,
      "Career": 5106,
      "\\!\\!": 5107,
      "otion": 5108,
      "1930": 5109,
      "atur": 5110,
      "Ġtraditional": 5111,
      "../../../../": 5112,
      "Ġmeasured": 5113,
      "ĠWales": 5114,
      "subfigure": 5115,
      "Ġstatus": 5116,
      "summary": 5117,
      "Ġsquare": 5118,
      "Ġenter": 5119,
      "ĠCongress": 5120,
      "ĠOper": 5121,
      "Can": 5122,
      "Ġassert": 5123,
      "PC": 5124,
      "ĠUnder": 5125,
      "Ġchem": 5126,
      "Ġ\\(": 5127,
      "mann": 5128,
      "perp": 5129,
      "ĠSoviet": 5130,
      "1964": 5131,
      "Ġnorm": 5132,
      "Ġdivision": 5133,
      "run": 5134,
      "Ġknowledge": 5135,
      "Ġcounter": 5136,
      "Ġanc": 5137,
      "ĠLie": 5138,
      "ectors": 5139,
      "weight": 5140,
      "check": 5141,
      "Sim": 5142,
      "Ġdestroy": 5143,
      "Ġpen": 5144,
      "Ġfif": 5145,
      "ĠCount": 5146,
      "ato": 5147,
      "ervation": 5148,
      "Ġconsequ": 5149,
      "ĠProvince": 5150,
      "syl": 5151,
      "Ġminor": 5152,
      "ĠFurther": 5153,
      ")/": 5154,
      "91": 5155,
      "Reg": 5156,
      "ĠProposition": 5157,
      "Ġcaused": 5158,
      "Ġwindow": 5159,
      "itors": 5160,
      "ĠGovernment": 5161,
      "ulture": 5162,
      "ĠFlorida": 5163,
      "Ġactor": 5164,
      "Ġindustry": 5165,
      "iance": 5166,
      "urity": 5167,
      "Ġradius": 5168,
      "Ġrecover": 5169,
      "sol": 5170,
      "Ġheavy": 5171,
      "adium": 5172,
      "Ġcoll": 5173,
      "Ġidea": 5174,
      "Ġborder": 5175,
      "Ġmeaning": 5176,
      "erse": 5177,
      "Ġaim": 5178,
      "Ġmatches": 5179,
      "Ġbranch": 5180,
      "ĠRussia": 5181,
      "ĠEv": 5182,
      "Ġpressure": 5183,
      "Ġcred": 5184,
      "Ser": 5185,
      "ĠĠĠĠĠĠĠĠĠĠĠĠ": 5186,
      "gra": 5187,
      "oto": 5188,
      "SU": 5189,
      "lock": 5190,
      "Ġproduce": 5191,
      "_{-": 5192,
      "vania": 5193,
      "Ġnodes": 5194,
      "Ġdataset": 5195,
      "print": 5196,
      "ĠHistoric": 5197,
      "flow": 5198,
      "Ġembedd": 5199,
      "using": 5200,
      "ĠCarolina": 5201,
      "inity": 5202,
      "}}(\\": 5203,
      "Ġmechanism": 5204,
      "jection": 5205,
      "Ġ}\\": 5206,
      "Ġgrowth": 5207,
      "Ġcop": 5208,
      "Ġsamples": 5209,
      "300": 5210,
      "Ġmur": 5211,
      "Ġequip": 5212,
      "Ġnumerical": 5213,
      "ufact": 5214,
      "aligned": 5215,
      "Ġheight": 5216,
      "Ġminimum": 5217,
      "Ne": 5218,
      "Ġnetworks": 5219,
      "hemat": 5220,
      "Ġexamples": 5221,
      "Ġlattice": 5222,
      "Ġcollect": 5223,
      "Ġidentity": 5224,
      "72": 5225,
      "1965": 5226,
      "ĠHow": 5227,
      "undle": 5228,
      "Ġslight": 5229,
      "Ġhot": 5230,
      "ĠAwards": 5231,
      "iller": 5232,
      "Ġexperimental": 5233,
      "Ġexpon": 5234,
      "ĠAssembly": 5235,
      "Ġgrand": 5236,
      "Films": 5237,
      "resents": 5238,
      "ĠAnn": 5239,
      "Ġagreement": 5240,
      "Mar": 5241,
      "!--": 5242,
      "aussian": 5243,
      "ĠCur": 5244,
      "Ġamplit": 5245,
      "wan": 5246,
      "Ġjob": 5247,
      "Ġpage": 5248,
      "'_": 5249,
      "Ġhit": 5250,
      "rees": 5251,
      "86": 5252,
      "vement": 5253,
      "Ġscience": 5254,
      "ĠMount": 5255,
      "azz": 5256,
      "ĠFin": 5257,
      "Ġrules": 5258,
      "Ġparticularly": 5259,
      "Ġface": 5260,
      "Ġslow": 5261,
      "Ġspectral": 5262,
      "bi": 5263,
      "Ġreb": 5264,
      "ĠOh": 5265,
      "Ġthrow": 5266,
      "Ġvan": 5267,
      "Co": 5268,
      "Ġshape": 5269,
      "1966": 5270,
      "ĠGal": 5271,
      "Sub": 5272,
      "ublican": 5273,
      "Ġprint": 5274,
      "uled": 5275,
      "Ġpercent": 5276,
      "ĠBrazil": 5277,
      "Ġculture": 5278,
      "Ġseasons": 5279,
      "\"></": 5280,
      "true": 5281,
      "ĠVer": 5282,
      "Ġpersonal": 5283,
      "Ġspat": 5284,
      "Ġcontrast": 5285,
      "Ġdescription": 5286,
      "59": 5287,
      "Ġbrought": 5288,
      "kin": 5289,
      "seud": 5290,
      "Ġcomparison": 5291,
      "ĠIII": 5292,
      "met": 5293,
      "ĠHere": 5294,
      "During": 5295,
      "Ġbank": 5296,
      "Ġever": 5297,
      "Ġdecay": 5298,
      "ĠOur": 5299,
      ")}(": 5300,
      "Ġuncertaint": 5301,
      "ental": 5302,
      "input": 5303,
      "Ġelectric": 5304,
      "\\'": 5305,
      "Ð½": 5306,
      "Ġfully": 5307,
      "Ġmanufact": 5308,
      "={": 5309,
      "Ġsurround": 5310,
      "_*": 5311,
      "Ġdescribe": 5312,
      "eful": 5313,
      "Ġprofile": 5314,
      "89": 5315,
      "Ġrailway": 5316,
      "Ġstudio": 5317,
      "Ġsimpl": 5318,
      "dr": 5319,
      "Text": 5320,
      "cons": 5321,
      "Person": 5322,
      "Ġshall": 5323,
      "Ġkind": 5324,
      "Ġlack": 5325,
      "Ġorganization": 5326,
      "Bar": 5327,
      "Ġcare": 5328,
      "No": 5329,
      "Ġpurch": 5330,
      "emic": 5331,
      "}%": 5332,
      "Ġwinning": 5333,
      "ĠFort": 5334,
      "Ġquality": 5335,
      "76": 5336,
      "pton": 5337,
      "Ġpanel": 5338,
      "ĠSil": 5339,
      "Ġfood": 5340,
      "Ġattention": 5341,
      "Ġcensus": 5342,
      "jo": 5343,
      "oral": 5344,
      "Ġframe": 5345,
      "ĠTour": 5346,
      ".</": 5347,
      ",\\,": 5348,
      "Ġfarm": 5349,
      "ĠEmpire": 5350,
      "Ġjoint": 5351,
      "Other": 5352,
      "Ġauth": 5353,
      "endix": 5354,
      "Ġpark": 5355,
      "Ġtrade": 5356,
      "law": 5357,
      "Ġsatisfies": 5358,
      "elled": 5359,
      "ĠOld": 5360,
      "84": 5361,
      "definition": 5362,
      "Ġriver": 5363,
      "ipage": 5364,
      "ĠHence": 5365,
      "neg": 5366,
      "Ġchampionship": 5367,
      "case": 5368,
      "Ġexistence": 5369,
      "gg": 5370,
      "Ġattended": 5371,
      "Ġappearance": 5372,
      "Ġprocesses": 5373,
      "Ġvertices": 5374,
      "irit": 5375,
      "1920": 5376,
      "ĠBre": 5377,
      "minipage": 5378,
      "ees": 5379,
      "ifier": 5380,
      "apping": 5381,
      "Ġbul": 5382,
      "Ġcategory": 5383,
      "deg": 5384,
      "ĠOpen": 5385,
      "ĠMartin": 5386,
      "Ġsoon": 5387,
      "ibli": 5388,
      "ĠSecret": 5389,
      "ĠLiber": 5390,
      "ĠSeries": 5391,
      "ja": 5392,
      "omy": 5393,
      "Ġoptimal": 5394,
      "Ġrelev": 5395,
      "Ġsometimes": 5396,
      "She": 5397,
      "osing": 5398,
      "CH": 5399,
      "Ġnorthern": 5400,
      "allery": 5401,
      "Ġstream": 5402,
      "Event": 5403,
      "Ġdetermine": 5404,
      "osc": 5405,
      "Ã§": 5406,
      "=(": 5407,
      "real": 5408,
      "Ġcorresponds": 5409,
      "=\"+": 5410,
      "Ġedition": 5411,
      "ĠMur": 5412,
      "Ġconcern": 5413,
      "Ġsouthern": 5414,
      "iring": 5415,
      "Ġgenus": 5416,
      "Ġsimulations": 5417,
      "sylvania": 5418,
      "unct": 5419,
      "ĠPac": 5420,
      "Med": 5421,
      "gu": 5422,
      "stack": 5423,
      "Ġplatform": 5424,
      "osh": 5425,
      "Ġcontroll": 5426,
      "edom": 5427,
      "itable": 5428,
      "apter": 5429,
      "Ġinfluence": 5430,
      "Ġcluster": 5431,
      "Ġmonth": 5432,
      "Ġinitially": 5433,
      "ĠIrish": 5434,
      "');": 5435,
      "Ġhtt": 5436,
      ")_{": 5437,
      "Ġdual": 5438,
      "'\\": 5439,
      "Ġbrief": 5440,
      "Ġdistinct": 5441,
      "selves": 5442,
      "Ġeasily": 5443,
      "Ġedges": 5444,
      "ansas": 5445,
      "Ġmentioned": 5446,
      "hire": 5447,
      "{$\\": 5448,
      "MP": 5449,
      "Ġult": 5450,
      "bin": 5451,
      "Ġrepresents": 5452,
      "ĠLy": 5453,
      "velopment": 5454,
      "asion": 5455,
      "Ġthought": 5456,
      "Ġconnection": 5457,
      "Ġproducer": 5458,
      "anks": 5459,
      "Ġshot": 5460,
      "Ġmanagement": 5461,
      "fe": 5462,
      "ĠSpace": 5463,
      "=-": 5464,
      "ĠHel": 5465,
      "height": 5466,
      "ĠJoseph": 5467,
      "Ġcoast": 5468,
      "NA": 5469,
      "ĠDis": 5470,
      "Ġmemory": 5471,
      "roduction": 5472,
      "ĠRegister": 5473,
      "ĠNorthern": 5474,
      "ĠLove": 5475,
      "rons": 5476,
      "Ġwind": 5477,
      "mission": 5478,
      "Ġcarried": 5479,
      "(),": 5480,
      "Ġaccuracy": 5481,
      "Ġmeasurements": 5482,
      "Ġframework": 5483,
      "82": 5484,
      "$(": 5485,
      "elli": 5486,
      "inger": 5487,
      "Ġacadem": 5488,
      "Ġidentified": 5489,
      "Ġarticle": 5490,
      "Ġcalculated": 5491,
      "Ġdefeated": 5492,
      "Ġinternal": 5493,
      "shift": 5494,
      "Ġsemi": 5495,
      "Ġsolid": 5496,
      "Requ": 5497,
      "net": 5498,
      "Out": 5499,
      "rea": 5500,
      "Ġobser": 5501,
      "hesis": 5502,
      "apers": 5503,
      "asi": 5504,
      "ympt": 5505,
      "Ġseparate": 5506,
      "Ġforward": 5507,
      "Ġking": 5508,
      "ĠColumb": 5509,
      "Inter": 5510,
      "ĠYoung": 5511,
      "Ġcentre": 5512,
      "Ġconsistent": 5513,
      "ĠForm": 5514,
      "Eq": 5515,
      "Ġhighly": 5516,
      "Ġcontact": 5517,
      "Ġextension": 5518,
      "Exp": 5519,
      "Rep": 5520,
      "Ġrepe": 5521,
      "Ġ?": 5522,
      "Be": 5523,
      "Ġprocedure": 5524,
      "ilib": 5525,
      "ĠMost": 5526,
      "Ġ&=&": 5527,
      "UR": 5528,
      "Ġreplace": 5529,
      "Ġproducts": 5530,
      "However": 5531,
      "ĠSa": 5532,
      "Ġselect": 5533,
      "Ġ\\!": 5534,
      "textsc": 5535,
      "Ġconcent": 5536,
      "Ġ+\\": 5537,
      "Ġpoet": 5538,
      "forall": 5539,
      "Ġprison": 5540,
      "ĠHa": 5541,
      "Ġmusical": 5542,
      "Ġbenef": 5543,
      "Ġcollab": 5544,
      "Ġarchitecture": 5545,
      "ĠGr": 5546,
      "1962": 5547,
      "ĠLine": 5548,
      "Ġisland": 5549,
      "Ġyet": 5550,
      "}$-": 5551,
      "IG": 5552,
      "Ġroute": 5553,
      "Ġmajority": 5554,
      "ati": 5555,
      "Ġsyn": 5556,
      "zero": 5557,
      "Now": 5558,
      "ora": 5559,
      "iga": 5560,
      "ĠHaw": 5561,
      "enge": 5562,
      "ampion": 5563,
      "End": 5564,
      "ĠDou": 5565,
      "ĠBus": 5566,
      "Ġgoals": 5567,
      "ĠWood": 5568,
      "John": 5569,
      "Ġsingles": 5570,
      "ĠHon": 5571,
      "simeq": 5572,
      "Ġcandidate": 5573,
      "reshold": 5574,
      "Ġmarg": 5575,
      "Ġquick": 5576,
      "imin": 5577,
      "Ġrequires": 5578,
      "Ġfactors": 5579,
      ".~(\\": 5580,
      "anner": 5581,
      "ymmet": 5582,
      "Ed": 5583,
      "Ġresolution": 5584,
      ")^{\\": 5585,
      "ĠSpain": 5586,
      "Ġended": 5587,
      "400": 5588,
      "1963": 5589,
      "Ġselection": 5590,
      "asks": 5591,
      "ĠRem": 5592,
      "rot": 5593,
      "Ġfill": 5594,
      "ÑĤ": 5595,
      "Ġcore": 5596,
      "Ġwood": 5597,
      "Ġwoman": 5598,
      "names": 5599,
      "Ġapplications": 5600,
      "obile": 5601,
      "awa": 5602,
      "then": 5603,
      "ca": 5604,
      "ĠOver": 5605,
      "Ġmiddle": 5606,
      "Ġchoose": 5607,
      "Ġscalar": 5608,
      "Ġmanager": 5609,
      "Ġgrant": 5610,
      "subsubsection": 5611,
      "ĠInf": 5612,
      "Ġsupp": 5613,
      "Ġcit": 5614,
      "Ġmole": 5615,
      "ĠFoundation": 5616,
      "ocation": 5617,
      "Ġnews": 5618,
      "Ġreferred": 5619,
      "stein": 5620,
      "ĠSir": 5621,
      "ĠArab": 5622,
      "^{+": 5623,
      "work": 5624,
      ")^{-": 5625,
      "Ġmoney": 5626,
      "Ġassumption": 5627,
      "Ġphil": 5628,
      "ersey": 5629,
      "ogue": 5630,
      "ĠBoard": 5631,
      "ĠMoreover": 5632,
      "Ġfraction": 5633,
      "Ġformal": 5634,
      "Ġcontributions": 5635,
      "Ġpoly": 5636,
      "Ġnewsp": 5637,
      "Ġcorrelation": 5638,
      "Ġshift": 5639,
      "Ġfast": 5640,
      "iy": 5641,
      "1944": 5642,
      "Ġcele": 5643,
      "normal": 5644,
      "izer": 5645,
      "Ġmostly": 5646,
      "enth": 5647,
      "Ġinequality": 5648,
      "Ġcoefficients": 5649,
      "Ġstudent": 5650,
      "ĠRo": 5651,
      "ĠBattle": 5652,
      "ĠPennsylvania": 5653,
      "lood": 5654,
      "user": 5655,
      "Ġspent": 5656,
      "Ġspaces": 5657,
      "ultural": 5658,
      "Ġangle": 5659,
      "Ġconstraints": 5660,
      "Ġlaunched": 5661,
      "mond": 5662,
      "eturn": 5663,
      "ĠHam": 5664,
      "idden": 5665,
      "Ġmicro": 5666,
      "Ġterrit": 5667,
      "Here": 5668,
      "ady": 5669,
      "Spec": 5670,
      ":\\": 5671,
      "Ġinters": 5672,
      "Im": 5673,
      "kes": 5674,
      "object": 5675,
      "Ġpropag": 5676,
      "Ġargument": 5677,
      "Ġmainly": 5678,
      "ĠUp": 5679,
      "83": 5680,
      "Ġcontaining": 5681,
      "ĠBob": 5682,
      "ĠGreek": 5683,
      "SO": 5684,
      "Ġdecl": 5685,
      "icated": 5686,
      "Ġcustom": 5687,
      "74": 5688,
      "Ġ~": 5689,
      "Ġassumed": 5690,
      "Ġtim": 5691,
      "unior": 5692,
      "ĠEngine": 5693,
      "Of": 5694,
      "ĠCam": 5695,
      "ĠTimes": 5696,
      "zer": 5697,
      "ĠNews": 5698,
      "Ġcomes": 5699,
      "Ġuseful": 5700,
      "Ġcompute": 5701,
      "Pop": 5702,
      "ĠFC": 5703,
      "ĠBas": 5704,
      "ĠCross": 5705,
      "Ġsecret": 5706,
      "ĠTime": 5707,
      "aka": 5708,
      "ĠLee": 5709,
      "icity": 5710,
      "bullet": 5711,
      "eler": 5712,
      "Ġopening": 5713,
      "Ġwhom": 5714,
      "81": 5715,
      "tri": 5716,
      "Ġpassed": 5717,
      "iography": 5718,
      "Ġrecently": 5719,
      "ĠJac": 5720,
      "pmatrix": 5721,
      "Ġdisk": 5722,
      "$).": 5723,
      "ella": 5724,
      "vex": 5725,
      "ĠBig": 5726,
      "Ġsimulation": 5727,
      "Ġsignificantly": 5728,
      "ĠLong": 5729,
      "\\\"": 5730,
      "ĠUk": 5731,
      "Ġprograms": 5732,
      "Ġessential": 5733,
      "inet": 5734,
      "Ġmedical": 5735,
      "spect": 5736,
      "stitution": 5737,
      "ĠMax": 5738,
      "Ġactivities": 5739,
      "zy": 5740,
      "73": 5741,
      "ÑĢ": 5742,
      "Ġcombined": 5743,
      "79": 5744,
      "kins": 5745,
      "ifically": 5746,
      "rium": 5747,
      "NS": 5748,
      "newcommand": 5749,
      "black": 5750,
      "Ġmagazine": 5751,
      "Ġexisting": 5752,
      "ĠFred": 5753,
      "ulate": 5754,
      "track": 5755,
      "cases": 5756,
      "Net": 5757,
      "Ġtreatment": 5758,
      "ĠEducation": 5759,
      "Field": 5760,
      "Ġmission": 5761,
      "Ġdepends": 5762,
      "sto": 5763,
      "ĠBC": 5764,
      "ogene": 5765,
      "ecting": 5766,
      "Ġclassification": 5767,
      "Ġtempor": 5768,
      "ependence": 5769,
      "Path": 5770,
      "}^*": 5771,
      "Ġfinally": 5772,
      "Ġdecom": 5773,
      "Table": 5774,
      "Ġtypically": 5775,
      "ĠAlso": 5776,
      "1961": 5777,
      "File": 5778,
      "ipl": 5779,
      "Ġcurves": 5780,
      "ĠChief": 5781,
      "venue": 5782,
      "aught": 5783,
      "Ġinsp": 5784,
      "Ġowned": 5785,
      "ĠHot": 5786,
      "GB": 5787,
      "olean": 5788,
      "Ġstraight": 5789,
      "Ġunknown": 5790,
      "ĠFre": 5791,
      "Ġmodes": 5792,
      "Ġthink": 5793,
      "Ġhours": 5794,
      "ĠLife": 5795,
      "Ġones": 5796,
      "Ġsituation": 5797,
      "ĠCla": 5798,
      "Ġdenotes": 5799,
      "Ġdefault": 5800,
      "Ġload": 5801,
      "Ġinvariant": 5802,
      "Ġbal": 5803,
      "Ġ=\\": 5804,
      "LS": 5805,
      "Ġcommission": 5806,
      "Ġsummer": 5807,
      "Ġeditor": 5808,
      "Ġquad": 5809,
      "plate": 5810,
      "Add": 5811,
      "Ġring": 5812,
      "values": 5813,
      "Ġchief": 5814,
      "ĠSk": 5815,
      "aching": 5816,
      "erry": 5817,
      "Ġincorpor": 5818,
      "ĠBank": 5819,
      "etts": 5820,
      "bury": 5821,
      "Ġarrang": 5822,
      "ji": 5823,
      "Ġrelatively": 5824,
      "Ġamb": 5825,
      "arks": 5826,
      "ĠEr": 5827,
      "ĠTeam": 5828,
      "Ġexperience": 5829,
      "}}^": 5830,
      "Ġlove": 5831,
      "ĠField": 5832,
      "rical": 5833,
      "uge": 5834,
      "////////": 5835,
      "Ġbasic": 5836,
      "Ġsoftware": 5837,
      "71": 5838,
      "Ġvirt": 5839,
      "house": 5840,
      "ĠValley": 5841,
      "ĠOl": 5842,
      "Ġsecur": 5843,
      "']": 5844,
      "uations": 5845,
      "Ġbattle": 5846,
      "Ġdrama": 5847,
      "config": 5848,
      "active": 5849,
      "ĠCre": 5850,
      "Ġconfiguration": 5851,
      "Ġincreases": 5852,
      "ibly": 5853,
      "viation": 5854,
      "Ġforest": 5855,
      "ĠProfess": 5856,
      "base": 5857,
      "ĠSocial": 5858,
      "tot": 5859,
      "Ġfootballer": 5860,
      "Ġactually": 5861,
      "Ġ-->": 5862,
      "yan": 5863,
      "lax": 5864,
      "Ġnearly": 5865,
      "Ġtechniques": 5866,
      "Ġvac": 5867,
      "Aust": 5868,
      "1942": 5869,
      "Ġsplit": 5870,
      ")}{\\": 5871,
      "ĠJo": 5872,
      "Ġusers": 5873,
      "Ġplot": 5874,
      "Ġlat": 5875,
      "inois": 5876,
      "ĠUnivers": 5877,
      "Ġarmy": 5878,
      "fin": 5879,
      "current": 5880,
      "Back": 5881,
      "ĠTw": 5882,
      "Ġdependence": 5883,
      "iders": 5884,
      "Ġpositions": 5885,
      "Ġtechnology": 5886,
      "((": 5887,
      "Ġpairs": 5888,
      "iffer": 5889,
      "usband": 5890,
      "ĠJim": 5891,
      "Ġinterview": 5892,
      "etime": 5893,
      "1956": 5894,
      "~$\\": 5895,
      "Ġdrum": 5896,
      "oston": 5897,
      "ennis": 5898,
      "iency": 5899,
      "core": 5900,
      "CT": 5901,
      "word": 5902,
      "emporary": 5903,
      "LO": 5904,
      "ĠSol": 5905,
      "ĠNow": 5906,
      "ernel": 5907,
      "block": 5908,
      "Ġsn": 5909,
      "Ġfailed": 5910,
      "ĠBase": 5911,
      "sch": 5912,
      "Ġexam": 5913,
      "eks": 5914,
      "Ġorb": 5915,
      "Ġnumerous": 5916,
      "Element": 5917,
      "airman": 5918,
      "ĠSong": 5919,
      "Ġfun": 5920,
      "['": 5921,
      "ĠBelg": 5922,
      "ĠBul": 5923,
      "alg": 5924,
      "Ġcomment": 5925,
      "Ġlegal": 5926,
      "arriage": 5927,
      "Ġ;": 5928,
      "ĠLin": 5929,
      "ela": 5930,
      "Ġimmediately": 5931,
      "Ġminim": 5932,
      "Ġsec": 5933,
      "ĠHig": 5934,
      "1959": 5935,
      "1948": 5936,
      "ĠHealth": 5937,
      "OM": 5938,
      "Ġcause": 5939,
      "Ġgreater": 5940,
      "chen": 5941,
      "Ġrates": 5942,
      "Ġtor": 5943,
      "1958": 5944,
      "uages": 5945,
      "circle": 5946,
      "thing": 5947,
      "PE": 5948,
      "Ġofficer": 5949,
      "Ġcomposed": 5950,
      "Ġcontinue": 5951,
      "Ġproved": 5952,
      "Ġcounty": 5953,
      "har": 5954,
      "Per": 5955,
      "Ġdetection": 5956,
      "displaystyle": 5957,
      "gener": 5958,
      "achus": 5959,
      "$^{-": 5960,
      "Ġtensor": 5961,
      "has": 5962,
      "DF": 5963,
      "Ġdeliver": 5964,
      "ĠCamb": 5965,
      "Ġcompletely": 5966,
      "ĠInc": 5967,
      "Ġstable": 5968,
      "Ġthemselves": 5969,
      "Ġagent": 5970,
      "ĠLi": 5971,
      "rants": 5972,
      "ĠDemocratic": 5973,
      "ride": 5974,
      "orage": 5975,
      "Ġneeds": 5976,
      "md": 5977,
      "ĠRh": 5978,
      "owers": 5979,
      "Ġgot": 5980,
      "Ġdistributions": 5981,
      "ĠGen": 5982,
      "sky": 5983,
      "Ġlearn": 5984,
      "amental": 5985,
      "Ġstrategy": 5986,
      "Ġlived": 5987,
      "len": 5988,
      "agement": 5989,
      "à¤": 5990,
      "Ġconvert": 5991,
      "PI": 5992,
      "Ġhoriz": 5993,
      "Ġsteps": 5994,
      "wer": 5995,
      "column": 5996,
      "Ġbecoming": 5997,
      "ĠSouthern": 5998,
      "Ġtheore": 5999,
      "Ġprevent": 6000,
      "force": 6001,
      "Ġrelevant": 6002,
      "fect": 6003,
      "1957": 6004,
      "Ġvs": 6005,
      "ova": 6006,
      "ĠSar": 6007,
      "Ġcommercial": 6008,
      "Ġconsum": 6009,
      "free": 6010,
      "dx": 6011,
      "title": 6012,
      "ĠRadio": 6013,
      "Ġshowed": 6014,
      "Info": 6015,
      "Ġspectra": 6016,
      "omic": 6017,
      "Map": 6018,
      "Ġteacher": 6019,
      "Ġvisual": 6020,
      "Ġmixed": 6021,
      "local": 6022,
      "Char": 6023,
      "mas": 6024,
      ")\\\\": 6025,
      "Ġdise": 6026,
      "ĠBritain": 6027,
      "ĠDutch": 6028,
      "Ġapproaches": 6029,
      "isters": 6030,
      "Ġentered": 6031,
      "Ġroom": 6032,
      "Ġthreat": 6033,
      "stream": 6034,
      "pol": 6035,
      "Ġolder": 6036,
      "itter": 6037,
      "})$.": 6038,
      "nam": 6039,
      "omorphic": 6040,
      "Ñģ": 6041,
      "=\"#": 6042,
      "$$\\": 6043,
      "ĠOx": 6044,
      "Ġremoved": 6045,
      "Ġhum": 6046,
      "Ġintroduce": 6047,
      "ĠCivil": 6048,
      "Ġconfir": 6049,
      "Ġactivity": 6050,
      "Ġcarry": 6051,
      "According": 6052,
      "Ġsingular": 6053,
      "ocol": 6054,
      "Ġmessage": 6055,
      "Ġlic": 6056,
      "Thus": 6057,
      "Ġfinancial": 6058,
      "Ġextra": 6059,
      "ĠJack": 6060,
      "ĠĠĠĠĠĠĠĠĠĠĠĠĠĠĠĠĠĠĠĠĠĠĠĠĠĠĠ": 6061,
      "Ġshare": 6062,
      "Ġcard": 6063,
      "Ġauthors": 6064,
      "Ġminutes": 6065,
      "ĠIran": 6066,
      "Ġice": 6067,
      "Ġabsor": 6068,
      "host": 6069,
      "Ġtun": 6070,
      "ĠMichigan": 6071,
      "ias": 6072,
      "ters": 6073,
      "1939": 6074,
      "1943": 6075,
      "Ġpoor": 6076,
      "Am": 6077,
      "Year": 6078,
      "etween": 6079,
      "ador": 6080,
      "Ġflat": 6081,
      "Ġextract": 6082,
      "Ġsenior": 6083,
      "ror": 6084,
      "ĠJud": 6085,
      "je": 6086,
      "abase": 6087,
      "Ġcapacity": 6088,
      "Ġeconomic": 6089,
      "ila": 6090,
      "ĠRam": 6091,
      "Ġgreen": 6092,
      "Ġoperated": 6093,
      "Ġinner": 6094,
      "Ġmoving": 6095,
      "ĠMountain": 6096,
      "NR": 6097,
      "Ġbass": 6098,
      "Ġstatement": 6099,
      "Ġachieved": 6100,
      "ĠOhio": 6101,
      "Ġbeg": 6102,
      "achusetts": 6103,
      "Ġships": 6104,
      "fact": 6105,
      "Ġcombination": 6106,
      "ĠPak": 6107,
      "Car": 6108,
      ")$-": 6109,
      "Ġsymmetric": 6110,
      "Ġcosm": 6111,
      "aya": 6112,
      "Ġbring": 6113,
      "Ġcells": 6114,
      "ĠHy": 6115,
      "Ġfa": 6116,
      "api": 6117,
      "1941": 6118,
      "sych": 6119,
      "result": 6120,
      "ĠStep": 6121,
      "Sports": 6122,
      "++": 6123,
      "ĠCarl": 6124,
      "ibliography": 6125,
      "Group": 6126,
      "Ġsecurity": 6127,
      "Ġorient": 6128,
      "Figure": 6129,
      "&-": 6130,
      "remark": 6131,
      "erved": 6132,
      "ĠTim": 6133,
      "Ġbatt": 6134,
      "Ġreconst": 6135,
      "Ġinteresting": 6136,
      "Ġlies": 6137,
      "Ġslightly": 6138,
      "uer": 6139,
      "pty": 6140,
      "ĠCro": 6141,
      "Ġcorn": 6142,
      "ĠAsian": 6143,
      "istical": 6144,
      "Ġfeed": 6145,
      "ĠEdward": 6146,
      "Ġtoday": 6147,
      "ĠPacific": 6148,
      "Ġsites": 6149,
      "mage": 6150,
      "Ġcomputer": 6151,
      "Ġfix": 6152,
      "Ġclaimed": 6153,
      "Ġsquad": 6154,
      "Ġcommunities": 6155,
      "graph": 6156,
      "More": 6157,
      "ĠPoland": 6158,
      "Ġspread": 6159,
      "AG": 6160,
      "Ġelections": 6161,
      "National": 6162,
      "Index": 6163,
      "TE": 6164,
      "nowled": 6165,
      "ancy": 6166,
      "Ġinn": 6167,
      "Ġmaster": 6168,
      "greg": 6169,
      "Ġstrength": 6170,
      "contin": 6171,
      "burgh": 6172,
      "Ġpick": 6173,
      "icted": 6174,
      "Ġdescent": 6175,
      "Ġpack": 6176,
      "abilities": 6177,
      "ĠFri": 6178,
      "1946": 6179,
      "Ġforced": 6180,
      "Ġannual": 6181,
      "ĠLibrary": 6182,
      "ackson": 6183,
      "cean": 6184,
      "Ġexpressed": 6185,
      "Part": 6186,
      "Å¡": 6187,
      "ĠPeople": 6188,
      "Hz": 6189,
      "mapsto": 6190,
      "Ġmountain": 6191,
      "ĠRel": 6192,
      "ĠJersey": 6193,
      "Ġindividuals": 6194,
      "aria": 6195,
      "1955": 6196,
      "Ġarbitrary": 6197,
      "aters": 6198,
      "matrix": 6199,
      ")_": 6200,
      "ĠPost": 6201,
      "Ġpromin": 6202,
      "Brit": 6203,
      "example": 6204,
      "Ġreduce": 6205,
      "ĠDirector": 6206,
      "Ġsea": 6207,
      "ĠTop": 6208,
      "ech": 6209,
      "gypt": 6210,
      "sur": 6211,
      "1952": 6212,
      "':": 6213,
      "Ġmurder": 6214,
      "ĠAsia": 6215,
      "ĠPrem": 6216,
      "udes": 6217,
      "Our": 6218,
      "Ġthick": 6219,
      "Ġcam": 6220,
      "Ab": 6221,
      "lease": 6222,
      "aily": 6223,
      "Ġstay": 6224,
      "ION": 6225,
      "ĠOf": 6226,
      "Ġapprop": 6227,
      "Ġmut": 6228,
      "ĠTheir": 6229,
      "Ġdistributed": 6230,
      "ĠIllinois": 6231,
      "Ġcry": 6232,
      "AF": 6233,
      "Node": 6234,
      "Ġformat": 6235,
      "Ġcomputed": 6236,
      "Ġhusband": 6237,
      "ĠMen": 6238,
      "roph": 6239,
      "Ġ},": 6240,
      "Ġchalleng": 6241,
      "IV": 6242,
      "Ġalgorithms": 6243,
      "Ġvictory": 6244,
      "Ġcalc": 6245,
      "term": 6246,
      "Ġelev": 6247,
      "Ġgeneration": 6248,
      "Config": 6249,
      "Ġquarter": 6250,
      "ĠKent": 6251,
      "Ġprefer": 6252,
      "ĠRepresent": 6253,
      "Ġinteractions": 6254,
      "Ġtracks": 6255,
      "dim": 6256,
      "Ġregime": 6257,
      "Ġhydro": 6258,
      "enant": 6259,
      "ulty": 6260,
      "Ġdepartment": 6261,
      "Ġrecords": 6262,
      "Ġsubsequently": 6263,
      "ĠEach": 6264,
      "arant": 6265,
      "urt": 6266,
      "Ġoccurs": 6267,
      "ĠMajor": 6268,
      "prob": 6269,
      "ĠRepublican": 6270,
      "Ġspatial": 6271,
      "ĠSpr": 6272,
      "'}": 6273,
      "Ġyields": 6274,
      "Theorem": 6275,
      "Ġsampl": 6276,
      "cr": 6277,
      "ĠHamiltonian": 6278,
      "adel": 6279,
      "uty": 6280,
      "Ġordered": 6281,
      "ĠEarth": 6282,
      "ĠScotland": 6283,
      "Ġetc": 6284,
      "Ġ...": 6285,
      "Ġinteger": 6286,
      "arden": 6287,
      "onia": 6288,
      "Ġactors": 6289,
      "Ġresponsible": 6290,
      "1947": 6291,
      "Ġexactly": 6292,
      "irls": 6293,
      "ĠBook": 6294,
      "Ġwestern": 6295,
      "IP": 6296,
      "}}^{": 6297,
      "vest": 6298,
      "Ð¾Ð": 6299,
      "Ġmorph": 6300,
      "ĠConference": 6301,
      "ĠMem": 6302,
      "Ġnine": 6303,
      "ĠLord": 6304,
      "ĠJones": 6305,
      "Ġuniversity": 6306,
      "first": 6307,
      "oma": 6308,
      "ĠMah": 6309,
      "ĠPortug": 6310,
      "ĠRailway": 6311,
      "ĠBoth": 6312,
      "Ġreli": 6313,
      "Ġasympt": 6314,
      "Ġstatistics": 6315,
      "Ġpoliticians": 6316,
      "Ġparallel": 6317,
      "Ġseat": 6318,
      "Ġcru": 6319,
      "}&": 6320,
      "Ġeasy": 6321,
      "ĠTest": 6322,
      "Ġnucle": 6323,
      "Ġcoordinates": 6324,
      "ilibrium": 6325,
      "ĠRos": 6326,
      "outhe": 6327,
      "Ġestimates": 6328,
      "count": 6329,
      "odot": 6330,
      "Ġleave": 6331,
      "ĠCentre": 6332,
      "Ġleaving": 6333,
      "Results": 6334,
      "Ġcolon": 6335,
      "ĠElect": 6336,
      "Ġmeasurement": 6337,
      "ĠSet": 6338,
      "oken": 6339,
      "ĠMassachusetts": 6340,
      "Ġimprove": 6341,
      "Context": 6342,
      "Ġbottom": 6343,
      "ĠQueen": 6344,
      "ĠPhilipp": 6345,
      "Ġpolynomial": 6346,
      "cf": 6347,
      "Ġraised": 6348,
      "antry": 6349,
      "void": 6350,
      "ĠKong": 6351,
      "rison": 6352,
      "annels": 6353,
      "Att": 6354,
      "icks": 6355,
      "Ġstellar": 6356,
      "Ġcat": 6357,
      "1954": 6358,
      "LP": 6359,
      "Ġarrest": 6360,
      "Ġmanifold": 6361,
      "eli": 6362,
      "Ġdistingu": 6363,
      "ĠTri": 6364,
      "tainment": 6365,
      "Ġfilter": 6366,
      "Ġphen": 6367,
      "1953": 6368,
      "related": 6369,
      "Ġoptical": 6370,
      "aylor": 6371,
      "Ġerrors": 6372,
      "Ġmaintain": 6373,
      "$;": 6374,
      "ĠJan": 6375,
      "_-": 6376,
      "Ġmatrices": 6377,
      "ĠGovernor": 6378,
      "Ġmeeting": 6379,
      "Ġvary": 6380,
      "ĠBor": 6381,
      "resh": 6382,
      "Ġcycl": 6383,
      "Ġpil": 6384,
      "page": 6385,
      "Ġbey": 6386,
      "produ": 6387,
      "OD": 6388,
      ".$": 6389,
      "tik": 6390,
      "Ġwalk": 6391,
      "Ġmachine": 6392,
      "ĠJournal": 6393,
      "rics": 6394,
      "Ġsettlement": 6395,
      "backs": 6396,
      "ograp": 6397,
      "Ġretired": 6398,
      "oting": 6399,
      "itation": 6400,
      "Ġability": 6401,
      "Ġtrained": 6402,
      "Sch": 6403,
      "Color": 6404,
      "Ġreligious": 6405,
      "lets": 6406,
      "Ġquite": 6407,
      "Ġmeasures": 6408,
      "Ġlif": 6409,
      "ĠJohnson": 6410,
      "Ġweeks": 6411,
      "Members": 6412,
      "Ġremain": 6413,
      ":#": 6414,
      "ĠEqu": 6415,
      "Ġcontained": 6416,
      "imb": 6417,
      "Ġhistorical": 6418,
      "Ġdeb": 6419,
      "Ġrapid": 6420,
      "MM": 6421,
      "ĠOffice": 6422,
      "ellig": 6423,
      "Ġvon": 6424,
      "CP": 6425,
      "Ġserving": 6426,
      "Ġfederal": 6427,
      "Ġthreshold": 6428,
      "Ġtypical": 6429,
      "TD": 6430,
      "1949": 6431,
      "Ġserve": 6432,
      "ĠAut": 6433,
      "ĠGaussian": 6434,
      "aver": 6435,
      "Ġaspect": 6436,
      "oute": 6437,
      "proposition": 6438,
      "vin": 6439,
      "Ġrecording": 6440,
      "Sw": 6441,
      "ifications": 6442,
      "vect": 6443,
      "scill": 6444,
      "Ġpure": 6445,
      "Ġstrongly": 6446,
      "$~": 6447,
      "Ġdespite": 6448,
      "oir": 6449,
      "abled": 6450,
      "des": 6451,
      "Ã±": 6452,
      "olved": 6453,
      "Ġscattering": 6454,
      "Ġbeyond": 6455,
      "|}": 6456,
      "ĠPlaces": 6457,
      "Ġcomedy": 6458,
      "United": 6459,
      "Model": 6460,
      "Ġmunicipality": 6461,
      "Ġotherwise": 6462,
      "come": 6463,
      "Ġactions": 6464,
      "ĠGeorgia": 6465,
      "ĠBern": 6466,
      "Ġonto": 6467,
      "abel": 6468,
      "/**": 6469,
      "anger": 6470,
      "ighter": 6471,
      "Bo": 6472,
      "tem": 6473,
      "ga": 6474,
      "Ġattract": 6475,
      "ĠMu": 6476,
      "These": 6477,
      "Ġdiss": 6478,
      "Ġflight": 6479,
      "Ġ);": 6480,
      "Ġtransformation": 6481,
      "grad": 6482,
      "Ġadopted": 6483,
      "orter": 6484,
      "Ġpurpose": 6485,
      "Inst": 6486,
      "Ġclubs": 6487,
      "}({\\": 6488,
      "](": 6489,
      "Ġgalaxy": 6490,
      "alities": 6491,
      "Ġnam": 6492,
      "ĠJewish": 6493,
      "Ġexchange": 6494,
      "Ġlink": 6495,
      "asy": 6496,
      "ĠFrancisco": 6497,
      "ilation": 6498,
      "ĠBal": 6499,
      "po": 6500,
      "ĠShow": 6501,
      "SM": 6502,
      "oder": 6503,
      "osoph": 6504,
      "ĠUr": 6505,
      "Ġdiscussion": 6506,
      "App": 6507,
      "Ġbr": 6508,
      "ĠTem": 6509,
      "Cons": 6510,
      "Ġharm": 6511,
      "/*": 6512,
      "Fe": 6513,
      "Ġshoot": 6514,
      "Ġfoot": 6515,
      "Ġacquired": 6516,
      "ĠCE": 6517,
      "ĠWilliams": 6518,
      "\\|_{": 6519,
      "GL": 6520,
      "only": 6521,
      "Ġgiving": 6522,
      "ĠBow": 6523,
      "Ġâ": 6524,
      "Ġhockey": 6525,
      "ĠCoast": 6526,
      "while": 6527,
      "aven": 6528,
      "cript": 6529,
      "nect": 6530,
      "Ġnative": 6531,
      "picture": 6532,
      "start": 6533,
      "enty": 6534,
      "British": 6535,
      "\\_": 6536,
      "Ġassigned": 6537,
      "Ġparents": 6538,
      "eld": 6539,
      "Ġcircle": 6540,
      "poses": 6541,
      "Ġsections": 6542,
      "fit": 6543,
      "Ġeth": 6544,
      "ĠBoston": 6545,
      "Ġexternal": 6546,
      "ĠWork": 6547,
      "Ġsegment": 6548,
      "Ġforeign": 6549,
      "Play": 6550,
      "1951": 6551,
      "SD": 6552,
      "otted": 6553,
      "urban": 6554,
      "Ġrecomm": 6555,
      "Ġincome": 6556,
      "Ġwa": 6557,
      "ĠÅ": 6558,
      "Ġmetal": 6559,
      "ĠDet": 6560,
      "Ġcovered": 6561,
      "ething": 6562,
      "\\{\\": 6563,
      "Ġentry": 6564,
      "Ġstore": 6565,
      "Ġbelieved": 6566,
      "ĠPrince": 6567,
      "ĠCy": 6568,
      "rance": 6569,
      "Don": 6570,
      "';": 6571,
      "EM": 6572,
      "occer": 6573,
      "arters": 6574,
      "150": 6575,
      "Ġhypot": 6576,
      "gt": 6577,
      "abeth": 6578,
      "Ġ]": 6579,
      "Ġsister": 6580,
      "Ġansw": 6581,
      "ĠGar": 6582,
      "=\"../../../../": 6583,
      "Ġnearby": 6584,
      "hbar": 6585,
      "Ġsqu": 6586,
      "\"\"": 6587,
      "ĠTheatre": 6588,
      "Ġofficers": 6589,
      "Request": 6590,
      "Ġdepth": 6591,
      "igation": 6592,
      "inner": 6593,
      "[]": 6594,
      "Ġbeam": 6595,
      "Ġ$$": 6596,
      "tes": 6597,
      "Ġproceed": 6598,
      "Ġcycle": 6599,
      "apache": 6600,
      "Ġdivided": 6601,
      "())": 6602,
      "Ġoptions": 6603,
      "Ġmasses": 6604,
      "Ġgrid": 6605,
      "ĠHor": 6606,
      "Act": 6607,
      "Ġobserve": 6608,
      "0000": 6609,
      "'(": 6610,
      "iÄĩ": 6611,
      "Ġdiscovered": 6612,
      "ĠEastern": 6613,
      "UN": 6614,
      "Ġoscill": 6615,
      "ĠBlue": 6616,
      "ÅĤ": 6617,
      "method": 6618,
      "Ġcontest": 6619,
      "Ġprogress": 6620,
      "inding": 6621,
      "Size": 6622,
      "Service": 6623,
      "ographic": 6624,
      "tikz": 6625,
      "Ġ});": 6626,
      "yer": 6627,
      "Ġsynt": 6628,
      "onto": 6629,
      "SR": 6630,
      "Ġfeat": 6631,
      "cd": 6632,
      "ĠPre": 6633,
      "1000": 6634,
      "ĠHung": 6635,
      "cs": 6636,
      "Ġ/>": 6637,
      "char": 6638,
      "ĠOxford": 6639,
      "Ġefficient": 6640,
      "secut": 6641,
      "faces": 6642,
      "Ġpersonnel": 6643,
      "Ġstrict": 6644,
      "avel": 6645,
      "ĠWay": 6646,
      "olt": 6647,
      "Ġoption": 6648,
      "Ġcouncil": 6649,
      "plication": 6650,
      "poration": 6651,
      "ĠDec": 6652,
      ")+\\": 6653,
      "Ġturned": 6654,
      "ĠGood": 6655,
      "Ġdifferential": 6656,
      "hu": 6657,
      "But": 6658,
      "Ġbrand": 6659,
      "Ġpain": 6660,
      "Ġinterval": 6661,
      "Ġsuc": 6662,
      "Ġhelped": 6663,
      "Ġfle": 6664,
      "ĠPolish": 6665,
      "ĠProgram": 6666,
      "ĠRay": 6667,
      "Ġroot": 6668,
      "such": 6669,
      "ĠScottish": 6670,
      "Ġprofessor": 6671,
      "Ġproport": 6672,
      "Ġreson": 6673,
      "Ġvote": 6674,
      "forms": 6675,
      "CA": 6676,
      "Ġvectors": 6677,
      "{{": 6678,
      "ĠStan": 6679,
      "system": 6680,
      "Ġmuseum": 6681,
      "mass": 6682,
      "ĠBang": 6683,
      "agraph": 6684,
      "break": 6685,
      "Ġindicates": 6686,
      "1936": 6687,
      "pass": 6688,
      "Ġgovern": 6689,
      "Ġutil": 6690,
      "Ġscene": 6691,
      "Ġconducted": 6692,
      "undred": 6693,
      "ĠLang": 6694,
      "ĠColumbia": 6695,
      "lict": 6696,
      "Ġmagnitude": 6697,
      "Ġlanguages": 6698,
      "Ġloop": 6699,
      "rie": 6700,
      "iling": 6701,
      "While": 6702,
      "ricts": 6703,
      "build": 6704,
      "Ġnuclear": 6705,
      "after": 6706,
      "Ġfamous": 6707,
      "hbox": 6708,
      "ĠHead": 6709,
      "bottom": 6710,
      "iler": 6711,
      "ĠLater": 6712,
      "ĠEgypt": 6713,
      "Ġsatisfy": 6714,
      "Ġdifferences": 6715,
      "Ġcopy": 6716,
      "Ġalternative": 6717,
      "Ġorth": 6718,
      "Ġcompeted": 6719,
      "itage": 6720,
      "ributes": 6721,
      "Ġgenerate": 6722,
      "ĠJr": 6723,
      ")-\\": 6724,
      "Ġorganizations": 6725,
      "Ã£": 6726,
      "una": 6727,
      "acter": 6728,
      "ĠGet": 6729,
      "ĠJean": 6730,
      "ione": 6731,
      "strong": 6732,
      "ĠIslam": 6733,
      "Ġsucceed": 6734,
      "Ġrisk": 6735,
      "Ġupd": 6736,
      "Ġmodule": 6737,
      "ĠVan": 6738,
      "ni": 6739,
      "bed": 6740,
      "GC": 6741,
      "ĠCorps": 6742,
      "ez": 6743,
      "Ġ$|\\": 6744,
      "lines": 6745,
      "Ġconvergence": 6746,
      "Ġensure": 6747,
      "Ġbinary": 6748,
      "Ġoffered": 6749,
      "ĠSand": 6750,
      "Ġaxis": 6751,
      "Ġneighborhood": 6752,
      "teen": 6753,
      "ĠSpe": 6754,
      "ĠMiddle": 6755,
      "ĠTre": 6756,
      "ĠCharl": 6757,
      "Ġmovie": 6758,
      "ĠLatin": 6759,
      "Ġdead": 6760,
      "Ġnotation": 6761,
      "sen": 6762,
      "Ġleaves": 6763,
      "Ġcities": 6764,
      "Ġesc": 6765,
      "ĠFar": 6766,
      "posite": 6767,
      "ĠDev": 6768,
      "Ġcricket": 6769,
      "process": 6770,
      "dy": 6771,
      ")}_{": 6772,
      "Ġproviding": 6773,
      "acing": 6774,
      "Ġindicate": 6775,
      "ĠPop": 6776,
      "Ġsector": 6777,
      "Ġprojects": 6778,
      "Ġdetailed": 6779,
      "Ġquickly": 6780,
      "Ġemp": 6781,
      "ĠCard": 6782,
      "onical": 6783,
      "1918": 6784,
      "bot": 6785,
      "Ġphysics": 6786,
      "stone": 6787,
      "120": 6788,
      "&=&": 6789,
      "Ġamplitude": 6790,
      "Ġasked": 6791,
      "Ġearned": 6792,
      "Ġregional": 6793,
      "ĠCreek": 6794,
      "ĠMany": 6795,
      "La": 6796,
      "ulf": 6797,
      "ĠCr": 6798,
      "ãģ": 6799,
      "clos": 6800,
      "Ġheart": 6801,
      "ounds": 6802,
      "Ġminimal": 6803,
      "rane": 6804,
      "dney": 6805,
      "ĠMid": 6806,
      "Ġparties": 6807,
      "Ġappearances": 6808,
      "Ġsuggested": 6809,
      "Ġbehavi": 6810,
      "cong": 6811,
      "web": 6812,
      "pected": 6813,
      "adow": 6814,
      "Ã¡n": 6815,
      "asure": 6816,
      "emble": 6817,
      "Ġfair": 6818,
      "Ġdemand": 6819,
      "}}$.": 6820,
      "ĠBroad": 6821,
      "Ġlum": 6822,
      "miss": 6823,
      "})$,": 6824,
      "ĠLag": 6825,
      "\"),": 6826,
      "ildren": 6827,
      "tan": 6828,
      "Ġrough": 6829,
      "1938": 6830,
      "mma": 6831,
      "ulpt": 6832,
      "Art": 6833,
      "Ġsociety": 6834,
      "rawn": 6835,
      "Ġbridge": 6836,
      "Ġgap": 6837,
      "Ġobservation": 6838,
      "El": 6839,
      "two": 6840,
      "ĠEnd": 6841,
      "ĠBerlin": 6842,
      "}}$,": 6843,
      "ĠEnter": 6844,
      ")},": 6845,
      "ĠSenate": 6846,
      "ĠStation": 6847,
      "Ġcompare": 6848,
      "module": 6849,
      "ĠĠĠĠĠĠĠĠĠĠĠĠĠĠ": 6850,
      "parent": 6851,
      "Ġrang": 6852,
      "Ġaccur": 6853,
      "Ġfort": 6854,
      "Che": 6855,
      "Ġwidely": 6856,
      "Ġdecla": 6857,
      "thur": 6858,
      "ibr": 6859,
      "ori": 6860,
      "Ġcoming": 6861,
      "Ġinduced": 6862,
      "opic": 6863,
      "Ġcalculations": 6864,
      "illy": 6865,
      "Ġcommonly": 6866,
      "Hand": 6867,
      "~~~~": 6868,
      "enger": 6869,
      "Ġeastern": 6870,
      "aug": 6871,
      "Ġopport": 6872,
      "ĠVi": 6873,
      "Ġreflect": 6874,
      "Ġ${": 6875,
      "eller": 6876,
      "ĠHong": 6877,
      "atically": 6878,
      "CE": 6879,
      "Ġcitiz": 6880,
      "bas": 6881,
      "ĠSecretary": 6882,
      "Ġanalog": 6883,
      "|_{": 6884,
      "Ġextrem": 6885,
      "Ġbad": 6886,
      "Cur": 6887,
      "writer": 6888,
      "ĠMov": 6889,
      "zech": 6890,
      "Me": 6891,
      "Ent": 6892,
      "comple": 6893,
      "Ġrevealed": 6894,
      "ologist": 6895,
      "Ġcrew": 6896,
      "Ġprimarily": 6897,
      "ameters": 6898,
      "Code": 6899,
      "Ġorganized": 6900,
      "Ġacting": 6901,
      "open": 6902,
      "Ġepisodes": 6903,
      "chester": 6904,
      "also": 6905,
      "Count": 6906,
      "chang": 6907,
      "amin": 6908,
      "Ġreduction": 6909,
      "Ġmedian": 6910,
      "Ġpseud": 6911,
      "Ġresist": 6912,
      "ternet": 6913,
      "}{|": 6914,
      "iscon": 6915,
      "ĠSea": 6916,
      "Ġsays": 6917,
      "Ġ(!": 6918,
      "ĠDevelopment": 6919,
      "ĠBa": 6920,
      "Ġhop": 6921,
      "Ġactual": 6922,
      "pa": 6923,
      "Mon": 6924,
      "gies": 6925,
      "ederation": 6926,
      "Ġyouth": 6927,
      "Gu": 6928,
      "Dist": 6929,
      "SL": 6930,
      "ĠOk": 6931,
      "Ġwall": 6932,
      "Ġener": 6933,
      "Rel": 6934,
      "ING": 6935,
      "ĠâĢĺ": 6936,
      "Ġideal": 6937,
      "Ġplans": 6938,
      "}{(": 6939,
      "utenant": 6940,
      "ĠNight": 6941,
      "Ġlaws": 6942,
      "Ġtheoretical": 6943,
      "Ġconflict": 6944,
      "Ac": 6945,
      "iger": 6946,
      "Track": 6947,
      "Box": 6948,
      "ĠBu": 6949,
      "ĠAv": 6950,
      "uries": 6951,
      "Ġfeel": 6952,
      "$),": 6953,
      "MR": 6954,
      "Ġcelebr": 6955,
      "Dem": 6956,
      "mc": 6957,
      "Ġprobably": 6958,
      "final": 6959,
      "Ġdrug": 6960,
      "iser": 6961,
      "Ġdegrees": 6962,
      "Ġidentify": 6963,
      "vector": 6964,
      "Ġregister": 6965,
      "Ġgoes": 6966,
      "ĠFinally": 6967,
      "mad": 6968,
      "ĠAlexander": 6969,
      "lers": 6970,
      ".âĢĿ": 6971,
      "Ġtroops": 6972,
      "rovers": 6973,
      "uler": 6974,
      "icine": 6975,
      "ĠKorea": 6976,
      "ĠProject": 6977,
      "Ġphenomen": 6978,
      "ĠSpecial": 6979,
      "Ġmarked": 6980,
      "Ġtechnique": 6981,
      "ĠGame": 6982,
      "ographer": 6983,
      "}$)": 6984,
      "1937": 6985,
      "ĠWilson": 6986,
      "ture": 6987,
      "ogeneous": 6988,
      "Ġtransferred": 6989,
      "Ġletter": 6990,
      "ĠArgent": 6991,
      "Ġhospital": 6992,
      "Ġdevice": 6993,
      "Ġawards": 6994,
      "Ġcalculation": 6995,
      "amber": 6996,
      "Ġconfirmed": 6997,
      "Ġpartial": 6998,
      "ĠVictoria": 6999,
      "))$": 7000,
      "Introduction": 7001,
      "Ġ/*": 7002,
      "rong": 7003,
      "blue": 7004,
      "Ġassign": 7005,
      "Ġcomposition": 7006,
      "Ġfifth": 7007,
      "Ġtold": 7008,
      "Ġfundamental": 7009,
      "itzer": 7010,
      "Ġexpatriate": 7011,
      "cat": 7012,
      "Ġhouses": 7013,
      "ĠCat": 7014,
      "Ġstories": 7015,
      "Ġhole": 7016,
      "University": 7017,
      "ãĥ": 7018,
      "Item": 7019,
      "\"|": 7020,
      "&.&.&.&.": 7021,
      "Section": 7022,
      "Ġsaying": 7023,
      "white": 7024,
      "Array": 7025,
      "ropical": 7026,
      "mes": 7027,
      "ĠFurthermore": 7028,
      "ĠPen": 7029,
      "Music": 7030,
      "Ġfluct": 7031,
      "Ġast": 7032,
      "Ġresources": 7033,
      "Ġrise": 7034,
      "[(": 7035,
      "chers": 7036,
      "ĠSi": 7037,
      "aser": 7038,
      "anta": 7039,
      "Ġconstitu": 7040,
      "ĠKen": 7041,
      "utation": 7042,
      "ĠMot": 7043,
      "IF": 7044,
      "Austral": 7045,
      "Ġacts": 7046,
      "gers": 7047,
      "ĠOlympic": 7048,
      "ĠFollowing": 7049,
      "Ġpromoted": 7050,
      "Ġbaseball": 7051,
      "Ġgraphs": 7052,
      "Ġsusp": 7053,
      "DP": 7054,
      "IA": 7055,
      "Ġachieve": 7056,
      "Ġconclude": 7057,
      "Ġchannels": 7058,
      "ĠJackson": 7059,
      "stract": 7060,
      "Des": 7061,
      "Ġsecondary": 7062,
      "Ġjoin": 7063,
      "Ġangular": 7064,
      "cular": 7065,
      "multi": 7066,
      "ĠWild": 7067,
      "yo": 7068,
      "ennes": 7069,
      "ĠHome": 7070,
      "ifies": 7071,
      "Ġseems": 7072,
      "ĠDar": 7073,
      "Ġcaptured": 7074,
      "ructure": 7075,
      "Ġtasks": 7076,
      "ĠBi": 7077,
      "Ġscales": 7078,
      "default": 7079,
      "uated": 7080,
      "Ġprep": 7081,
      "indu": 7082,
      "Ġdraft": 7083,
      "bec": 7084,
      "Log": 7085,
      "Ġwanted": 7086,
      "Sec": 7087,
      "info": 7088,
      "cref": 7089,
      "Ġthermal": 7090,
      "Ġsurvey": 7091,
      "ĠPolice": 7092,
      "press": 7093,
      "iated": 7094,
      "Ġnarrow": 7095,
      "ĠBir": 7096,
      "omer": 7097,
      "Ġdimensions": 7098,
      "Ġfavor": 7099,
      "ĠIslands": 7100,
      "ĠSu": 7101,
      "ĠEst": 7102,
      "Ġabsol": 7103,
      "General": 7104,
      "RA": 7105,
      "Ġthr": 7106,
      "ntario": 7107,
      "ami": 7108,
      "HT": 7109,
      "ĠLim": 7110,
      "ĠNetwork": 7111,
      "peror": 7112,
      "Ġhar": 7113,
      "Ġprogramming": 7114,
      "Ġprovince": 7115,
      "ĠBBC": 7116,
      "oded": 7117,
      "CS": 7118,
      "abil": 7119,
      "Ġexcit": 7120,
      "ĠJes": 7121,
      "Ġclusters": 7122,
      "Ġworkers": 7123,
      "ĠWater": 7124,
      "eness": 7125,
      "Disc": 7126,
      "opher": 7127,
      "vol": 7128,
      "Ġmanaged": 7129,
      "ĠAndrew": 7130,
      "she": 7131,
      "1935": 7132,
      "Ext": 7133,
      "Ġbit": 7134,
      "ilbert": 7135,
      "Ġpartition": 7136,
      "Ġinstr": 7137,
      "ĠViet": 7138,
      "ĠLittle": 7139,
      "Ġalleg": 7140,
      "orthe": 7141,
      "Ġoil": 7142,
      "Ġlives": 7143,
      "Ġvoice": 7144,
      "****************": 7145,
      "ĠAsh": 7146,
      "Ġappropriate": 7147,
      "Ġversions": 7148,
      "Ġmaterials": 7149,
      "Ġmarriage": 7150,
      "Ġallowing": 7151,
      "ĠFour": 7152,
      "Ġexc": 7153,
      "Ġissued": 7154,
      "uffer": 7155,
      "So": 7156,
      "phia": 7157,
      "Ġways": 7158,
      "etherlands": 7159,
      "ervative": 7160,
      "dl": 7161,
      "Ġlayers": 7162,
      "zh": 7163,
      "Ġcultural": 7164,
      "ĠRegiment": 7165,
      "Ġorbit": 7166,
      "2023": 7167,
      "Ġfellow": 7168,
      "cccc": 7169,
      "Ġseem": 7170,
      "Ġfreedom": 7171,
      "ĠTechnology": 7172,
      "Ġfriends": 7173,
      "ĠBuild": 7174,
      "Cor": 7175,
      "Ġsal": 7176,
      "num": 7177,
      "hol": 7178,
      "Ġclearly": 7179,
      "valid": 7180,
      "LT": 7181,
      "Ġmodified": 7182,
      "Ġconj": 7183,
      "ĠInst": 7184,
      "izabeth": 7185,
      "define": 7186,
      ")}}": 7187,
      "uous": 7188,
      "Therefore": 7189,
      "Ã£o": 7190,
      "arrier": 7191,
      "OP": 7192,
      "Oper": 7193,
      "Ġfirm": 7194,
      "weg": 7195,
      "Ġion": 7196,
      "ĠHospital": 7197,
      "ashion": 7198,
      "Ġassociation": 7199,
      "Ġdedicated": 7200,
      "ĠSydney": 7201,
      "DA": 7202,
      "ĠCa": 7203,
      "post": 7204,
      "Ġoperating": 7205,
      "adian": 7206,
      "dat": 7207,
      "phas": 7208,
      "Lem": 7209,
      "image": 7210,
      "het": 7211,
      "Line": 7212,
      "Ġinfinite": 7213,
      "Association": 7214,
      "Ġprediction": 7215,
      "Ġefforts": 7216,
      "ĠStand": 7217,
      "-$": 7218,
      "Polit": 7219,
      "ronze": 7220,
      "Ġattacks": 7221,
      "Ġinstrument": 7222,
      "Ġwinner": 7223,
      "Ġca": 7224,
      ">&": 7225,
      "static": 7226,
      "1919": 7227,
      "uses": 7228,
      "Ġdepending": 7229,
      "ĠPlan": 7230,
      "ĠMinistry": 7231,
      "ĠColor": 7232,
      "cut": 7233,
      "iamond": 7234,
      "Ġmassive": 7235,
      "ecution": 7236,
      "Ġprincipal": 7237,
      "Ġshowing": 7238,
      "Ġwhereas": 7239,
      "ĠBell": 7240,
      "ruck": 7241,
      "floor": 7242,
      "Ġlimits": 7243,
      "Ġexecutive": 7244,
      "ĠÂ£": 7245,
      "Ġintended": 7246,
      "Ġbounds": 7247,
      "1914": 7248,
      "ĉĉĊ": 7249,
      "Personal": 7250,
      "anth": 7251,
      "cknowled": 7252,
      "Ġwhy": 7253,
      "bigl": 7254,
      "assert": 7255,
      "ĠAtt": 7256,
      "Ġshared": 7257,
      "iced": 7258,
      "ĠModel": 7259,
      "alysis": 7260,
      "zo": 7261,
      "Ġcm": 7262,
      "Ġsched": 7263,
      "uster": 7264,
      "Ġnewspaper": 7265,
      "yles": 7266,
      "adelphia": 7267,
      "World": 7268,
      "Ġprominent": 7269,
      "ective": 7270,
      "ĠKorean": 7271,
      "ĠLo": 7272,
      "Ġimplementation": 7273,
      "present": 7274,
      "ometric": 7275,
      ":}": 7276,
      "ĠDaniel": 7277,
      "ĠTaylor": 7278,
      "ĠCorn": 7279,
      "Äį": 7280,
      "found": 7281,
      "ucky": 7282,
      "Ġdigital": 7283,
      "Ġrotation": 7284,
      "rect": 7285,
      "ĠJer": 7286,
      "estab": 7287,
      "${\\": 7288,
      "db": 7289,
      "ĠSund": 7290,
      "tx": 7291,
      "Ġdescribes": 7292,
      "Ġspl": 7293,
      "Ġcond": 7294,
      "Ġassistant": 7295,
      "Ġarticles": 7296,
      "Ġfunctional": 7297,
      "Ġrare": 7298,
      "iate": 7299,
      "bourne": 7300,
      "Pre": 7301,
      "Ġcreation": 7302,
      "ĠOfficial": 7303,
      "Ġfeaturing": 7304,
      "Ġtermin": 7305,
      "kh": 7306,
      "Ġpp": 7307,
      "Ġodd": 7308,
      "nic": 7309,
      "Ġlibrary": 7310,
      "Ġchemical": 7311,
      "ĠBand": 7312,
      "Ġque": 7313,
      "odies": 7314,
      "ĠSom": 7315,
      "Ġcomplexity": 7316,
      "edia": 7317,
      "Ġbands": 7318,
      "inson": 7319,
      "Ġalongside": 7320,
      "Ġgradient": 7321,
      "even": 7322,
      "coming": 7323,
      "Ġarrived": 7324,
      "Ġpra": 7325,
      "ategory": 7326,
      "Ġtrib": 7327,
      "stable": 7328,
      "ĠCommon": 7329,
      "ĠBoy": 7330,
      "ologies": 7331,
      "lig": 7332,
      "Ġgeometry": 7333,
      ",\\,\\": 7334,
      "Ġkernel": 7335,
      "Ġunderstand": 7336,
      "ĠĠĠĠĠĠĠĠĠĠĠĠĠĠĠĠĠ": 7337,
      "Ġinterface": 7338,
      "ĠPubl": 7339,
      "Ġsides": 7340,
      "1933": 7341,
      "dfrac": 7342,
      "ĠPrize": 7343,
      "\").": 7344,
      "Ġrepresenting": 7345,
      "Ġsoldiers": 7346,
      "Ġconvex": 7347,
      "car": 7348,
      "DB": 7349,
      "java": 7350,
      "VID": 7351,
      "Ġorders": 7352,
      "create": 7353,
      "Ġcandidates": 7354,
      "formal": 7355,
      "aki": 7356,
      "Ġgraduated": 7357,
      "Ġresidents": 7358,
      "Ġaccepted": 7359,
      "Ġcharacteristic": 7360,
      "second": 7361,
      "Ġcov": 7362,
      "ĠAff": 7363,
      "alion": 7364,
      "='": 7365,
      "ync": 7366,
      "III": 7367,
      "Ġtesting": 7368,
      "odd": 7369,
      "ĠSant": 7370,
      "ĠRaj": 7371,
      "bigr": 7372,
      "ĠBrig": 7373,
      "ĠRegion": 7374,
      "Ġcommunication": 7375,
      "ĠOntario": 7376,
      "bal": 7377,
      "rank": 7378,
      "Ġemployed": 7379,
      "Message": 7380,
      "ĠOs": 7381,
      "raine": 7382,
      "Will": 7383,
      "Ġsrc": 7384,
      "Ġprinciple": 7385,
      "CL": 7386,
      "Ġtrial": 7387,
      "Ġtraffic": 7388,
      "ĠPoint": 7389,
      "Ġguarant": 7390,
      "1929": 7391,
      "ontal": 7392,
      "Ġtrees": 7393,
      "emy": 7394,
      "'.": 7395,
      "({": 7396,
      "bel": 7397,
      "Ġimproved": 7398,
      "Ġoptimization": 7399,
      "tainer": 7400,
      "Ġwor": 7401,
      "Method": 7402,
      "Ġneutr": 7403,
      "Ġdenoted": 7404,
      "ĠLes": 7405,
      "Finally": 7406,
      "Min": 7407,
      "ocated": 7408,
      "Ġlocations": 7409,
      "Ġtraject": 7410,
      "%)": 7411,
      "Ġpurs": 7412,
      "ĠQueens": 7413,
      "SA": 7414,
      "Ġimportance": 7415,
      "1917": 7416,
      "Ġsilver": 7417,
      "ĠEp": 7418,
      "ĠLight": 7419,
      "Ġlie": 7420,
      "1928": 7421,
      "Ġmathemat": 7422,
      "MB": 7423,
      "orning": 7424,
      "Ġlargely": 7425,
      "Ġdecomposition": 7426,
      "Ġfine": 7427,
      "1934": 7428,
      "ĠRome": 7429,
      "arts": 7430,
      "Ġpartners": 7431,
      "ĠOp": 7432,
      "Ġhonor": 7433,
      "PA": 7434,
      "uli": 7435,
      "ĠKenn": 7436,
      "ĠPrime": 7437,
      "Ġweb": 7438,
      "Ġlot": 7439,
      "ĠBatt": 7440,
      "ĠPhys": 7441,
      "herent": 7442,
      "erc": 7443,
      "VD": 7444,
      "ĠSciences": 7445,
      "Ġcoefficient": 7446,
      "orig": 7447,
      "Ġ[\\": 7448,
      "Ġuncertainty": 7449,
      "akh": 7450,
      "Ġsport": 7451,
      "Ã¸": 7452,
      "water": 7453,
      "Ġsubt": 7454,
      "Ġlemma": 7455,
      "Ġcomputational": 7456,
      "Ġsummar": 7457,
      "ĠThree": 7458,
      "ĠJustice": 7459,
      "lesssim": 7460,
      "Sing": 7461,
      "Ġathlet": 7462,
      "\\)": 7463,
      "disc": 7464,
      "Ġign": 7465,
      "ĠWin": 7466,
      "Ġreceive": 7467,
      "Ġdoub": 7468,
      "ĠJeff": 7469,
      "Ġancient": 7470,
      "ĠJoe": 7471,
      "rs": 7472,
      "Ġbomb": 7473,
      "mediate": 7474,
      "Ġcomputation": 7475,
      "ĠRun": 7476,
      "uum": 7477,
      "Manager": 7478,
      "Ġjava": 7479,
      "ĠAnother": 7480,
      "ĠVilla": 7481,
      "eman": 7482,
      "Ġvariation": 7483,
      "ĠUsing": 7484,
      "sign": 7485,
      "Ġmedium": 7486,
      "lementary": 7487,
      "ATE": 7488,
      "Ġsail": 7489,
      "ĠBab": 7490,
      "fri": 7491,
      "Ġflag": 7492,
      "Ġscaling": 7493,
      "results": 7494,
      "Ġextends": 7495,
      "pg": 7496,
      "formed": 7497,
      "Ġbin": 7498,
      "Ġheat": 7499,
      "sey": 7500,
      "acent": 7501,
      "Ġ^{": 7502,
      "Ġexception": 7503,
      "ĠBon": 7504,
      "context": 7505,
      "Ġunderstanding": 7506,
      "Ġefficiency": 7507,
      "Ġpriv": 7508,
      "Ã©e": 7509,
      "itivity": 7510,
      "Ġlocally": 7511,
      "Ġacademic": 7512,
      "$:": 7513,
      "sect": 7514,
      "Ġexponential": 7515,
      "Ġvertical": 7516,
      "emet": 7517,
      "Ġadministrative": 7518,
      "ultane": 7519,
      "Ġthings": 7520,
      "1932": 7521,
      "Song": 7522,
      "Ġtail": 7523,
      "Ġsculpt": 7524,
      "Ġshell": 7525,
      "next": 7526,
      "ĠRa": 7527,
      "Ġpit": 7528,
      "content": 7529,
      "forward": 7530,
      "1910": 7531,
      "ĠSports": 7532,
      "Ġ\\&": 7533,
      "include": 7534,
      "ĠSupreme": 7535,
      "Ġdiscrete": 7536,
      "Ġsubsequent": 7537,
      "poss": 7538,
      "Ġfigures": 7539,
      "number": 7540,
      "Ġinvolving": 7541,
      "Ġven": 7542,
      "ĠRog": 7543,
      "Ġcoordinate": 7544,
      "Ġrenamed": 7545,
      "Ġinh": 7546,
      "Ġpiece": 7547,
      "================": 7548,
      "osa": 7549,
      "ĠAst": 7550,
      "Ġupdate": 7551,
      "kee": 7552,
      "Ġera": 7553,
      "mitted": 7554,
      "Ġapparent": 7555,
      "Ġpix": 7556,
      "ĠCorporation": 7557,
      "css": 7558,
      "Ġdisease": 7559,
      "isconsin": 7560,
      "Ġtouch": 7561,
      "chestra": 7562,
      "ĠMcC": 7563,
      "Ġconsidering": 7564,
      "ĠFederal": 7565,
      "Ġlett": 7566,
      "perties": 7567,
      "ĠAvenue": 7568,
      "Ġnotable": 7569,
      "$_{": 7570,
      "Ġlisting": 7571,
      "Ġisol": 7572,
      "Ġtwice": 7573,
      "Ġelimin": 7574,
      "ĠHuman": 7575,
      "Ġprotected": 7576,
      "\\;": 7577,
      "ĠEconom": 7578,
      "Ġcouple": 7579,
      "room": 7580,
      "Ġoffers": 7581,
      "jected": 7582,
      "PP": 7583,
      "aa": 7584,
      "Ġscript": 7585,
      "oor": 7586,
      "ĠTok": 7587,
      "Ġadministration": 7588,
      "Ġperforming": 7589,
      "Men": 7590,
      "olitan": 7591,
      "Ġcool": 7592,
      "Ġsomething": 7593,
      "Ġcoinc": 7594,
      "Ġdelay": 7595,
      "Ġowners": 7596,
      "quarters": 7597,
      "00000": 7598,
      "ĠAirport": 7599,
      "Ġtranslation": 7600,
      "Pol": 7601,
      "ĠMuslim": 7602,
      "Ġmultiplic": 7603,
      "Ġwinners": 7604,
      "Ġlabor": 7605,
      "ĠJon": 7606,
      "ĠNetherlands": 7607,
      "ithub": 7608,
      "CR": 7609,
      "ĠSee": 7610,
      "^*$": 7611,
      "Ġusual": 7612,
      "Ġperfect": 7613,
      "Ġnamely": 7614,
      "ĠNations": 7615,
      "ĠLuc": 7616,
      "dev": 7617,
      "Using": 7618,
      "xx": 7619,
      "Ġentropy": 7620,
      "Ġinstall": 7621,
      "IL": 7622,
      "Ġut": 7623,
      "Ġpropos": 7624,
      "Ġrugby": 7625,
      "notes": 7626,
      "Ġ$.": 7627,
      "perial": 7628,
      "Cast": 7629,
      "ĠRod": 7630,
      "1900": 7631,
      "orship": 7632,
      "Ġmill": 7633,
      "Ġradiation": 7634,
      "ĠAnton": 7635,
      "ito": 7636,
      "Ġcapture": 7637,
      "South": 7638,
      "hedral": 7639,
      "Ġitem": 7640,
      "vee": 7641,
      "font": 7642,
      "]$.": 7643,
      "\\}$.": 7644,
      "1924": 7645,
      "]}": 7646,
      "Ġexpanded": 7647,
      "Dis": 7648,
      "Ġnation": 7649,
      "actory": 7650,
      "ĠMarg": 7651,
      "hetic": 7652,
      "uv": 7653,
      "Ġmusicians": 7654,
      "py": 7655,
      "bro": 7656,
      "Ġplanned": 7657,
      "Ġequilibrium": 7658,
      "ĠToronto": 7659,
      "Ġsuggests": 7660,
      "Ġhundred": 7661,
      "ĠMic": 7662,
      "ĉĉĉĉĉĉ": 7663,
      "wing": 7664,
      "eger": 7665,
      "Ġalone": 7666,
      "HE": 7667,
      "ĠRevolution": 7668,
      "}\\,\\": 7669,
      "Ġblocks": 7670,
      "Ġreturns": 7671,
      "ĠMinnes": 7672,
      "Ġreviews": 7673,
      ":=": 7674,
      "ĠPower": 7675,
      "Ġadvantage": 7676,
      "ynamic": 7677,
      "ĠStadium": 7678,
      "Ġremark": 7679,
      "Ġ};": 7680,
      "Ġferm": 7681,
      "Ġassess": 7682,
      "ĠSwedish": 7683,
      "fort": 7684,
      "rows": 7685,
      "ĠGuard": 7686,
      "joint": 7687,
      "Ġsla": 7688,
      "Ġplanet": 7689,
      "ĠAthlet": 7690,
      "Ġminister": 7691,
      "Ġoccurred": 7692,
      "ĠMinnesota": 7693,
      "emetery": 7694,
      "Ġintegration": 7695,
      "ĠLew": 7696,
      "Ġstatistical": 7697,
      "ĠJacob": 7698,
      "ĠUSA": 7699,
      "Ġraces": 7700,
      "ĠProfessor": 7701,
      "mi": 7702,
      "Base": 7703,
      "appe": 7704,
      "1931": 7705,
      "Biography": 7706,
      "ĠRen": 7707,
      "Ġparticipated": 7708,
      "Ġencou": 7709,
      "ĠVen": 7710,
      "diag": 7711,
      "FR": 7712,
      "ĠMedal": 7713,
      "called": 7714,
      "pped": 7715,
      "ogen": 7716,
      "You": 7717,
      "Ġprojection": 7718,
      "}}_{\\": 7719,
      "System": 7720,
      "Ġrepresentations": 7721,
      "ĠNC": 7722,
      "Ġconsequence": 7723,
      "Ġemphas": 7724,
      "TS": 7725,
      "lead": 7726,
      "Ġprime": 7727,
      "iang": 7728,
      "Ġofficially": 7729,
      "Ġgravit": 7730,
      "Ġcharged": 7731,
      "ĠCambridge": 7732,
      "Ġdoc": 7733,
      "Ġtechnical": 7734,
      "yes": 7735,
      "Ġconsisting": 7736,
      "Ġweap": 7737,
      "Ġtal": 7738,
      "Ġalt": 7739,
      "tfrac": 7740,
      "ĠFer": 7741,
      "Ġroles": 7742,
      "Ġ..": 7743,
      "Ġacceler": 7744,
      "Ġcalculate": 7745,
      "lient": 7746,
      "gr": 7747,
      "islative": 7748,
      "}})": 7749,
      "ĠElizabeth": 7750,
      ",\\\\": 7751,
      "German": 7752,
      "Ġparish": 7753,
      "ĠGro": 7754,
      "Ġstress": 7755,
      ";&": 7756,
      "namespace": 7757,
      "Ġsolo": 7758,
      "athan": 7759,
      "ĠMain": 7760,
      "1922": 7761,
      "heim": 7762,
      "ervices": 7763,
      "uri": 7764,
      "Next": 7765,
      "ĠAk": 7766,
      "ĠBad": 7767,
      "110": 7768,
      "Ġequipment": 7769,
      "Ġengineering": 7770,
      "Ġevaluation": 7771,
      "Ġ\\]": 7772,
      "Ġwing": 7773,
      ",{\\": 7774,
      "soft": 7775,
      "Ġfloor": 7776,
      "hard": 7777,
      "Ġsurn": 7778,
      "aska": 7779,
      "1927": 7780,
      "hr": 7781,
      "Ġfacilities": 7782,
      "Ġincident": 7783,
      "May": 7784,
      "sche": 7785,
      "Ġmis": 7786,
      "Aut": 7787,
      "owa": 7788,
      "event": 7789,
      "df": 7790,
      "dir": 7791,
      "Ġrural": 7792,
      "ussion": 7793,
      "Ġquery": 7794,
      "Ġbright": 7795,
      "ti": 7796,
      "Ġ{$": 7797,
      "urer": 7798,
      "sex": 7799,
      "ĠTai": 7800,
      "International": 7801,
      "efe": 7802,
      "His": 7803,
      "])": 7804,
      "ĠPremier": 7805,
      "Ġsatisfying": 7806,
      "leton": 7807,
      "rip": 7808,
      "oned": 7809,
      "udget": 7810,
      "Ġpartner": 7811,
      "ĠSanta": 7812,
      "Ġkept": 7813,
      "Ġsurrounding": 7814,
      "ĠForest": 7815,
      "olis": 7816,
      "Ġowner": 7817,
      "$};": 7818,
      "Description": 7819,
      "Ġweights": 7820,
      "wegian": 7821,
      "---": 7822,
      "lan": 7823,
      "Ġgr": 7824,
      "MD": 7825,
      "ãĤ": 7826,
      "Ġrobust": 7827,
      "French": 7828,
      "Ġ===": 7829,
      "Ġcollected": 7830,
      "HL": 7831,
      "clusions": 7832,
      "ĠMaster": 7833,
      "Ġnil": 7834,
      "Ġdial": 7835,
      "ĠPakistan": 7836,
      "Cre": 7837,
      "ĠBecause": 7838,
      "phant": 7839,
      "Ġstability": 7840,
      "ĠOrgan": 7841,
      "ĠMedia": 7842,
      "google": 7843,
      "rog": 7844,
      "Ġrepresentative": 7845,
      "ĠSerb": 7846,
      "high": 7847,
      "Ġhttp": 7848,
      "ĠDespite": 7849,
      "ĠCommand": 7850,
      "Ġtend": 7851,
      "1921": 7852,
      "unit": 7853,
      "--------------------------------": 7854,
      "Ġrecall": 7855,
      "Ġserves": 7856,
      "Ġchampion": 7857,
      "Ġly": 7858,
      "Although": 7859,
      "Ġgrowing": 7860,
      "Ġsubgroup": 7861,
      "Ġdestroyed": 7862,
      "ĠDuke": 7863,
      "cale": 7864,
      "ustain": 7865,
      "Ġreasons": 7866,
      "spe": 7867,
      "ĠSquad": 7868,
      "package": 7869,
      "Ġestimation": 7870,
      "elligence": 7871,
      "Ġmotor": 7872,
      "Ġexplained": 7873,
      "ego": 7874,
      "Olymp": 7875,
      "mosp": 7876,
      "Ä±": 7877,
      "vature": 7878,
      "Ġsolve": 7879,
      "ĠCommunity": 7880,
      "going": 7881,
      "à¸": 7882,
      "ĠData": 7883,
      "1925": 7884,
      "doc": 7885,
      "Background": 7886,
      "Ġconvent": 7887,
      "Ġcontrovers": 7888,
      "Ġopposite": 7889,
      "Ġspecified": 7890,
      "oster": 7891,
      "Ġisomorphism": 7892,
      "]$,": 7893,
      "Ġmixing": 7894,
      "HS": 7895,
      "defined": 7896,
      "boldmath": 7897,
      "Ġarguments": 7898,
      "itled": 7899,
      "Ġhouseholds": 7900,
      "}[\\": 7901,
      "tw": 7902,
      "ĠSher": 7903,
      "urches": 7904,
      "FI": 7905,
      "Ġgrew": 7906,
      "osis": 7907,
      "ĠDer": 7908,
      "mail": 7909,
      "ĠPeak": 7910,
      "ronic": 7911,
      "Ġscenario": 7912,
      "ĠMike": 7913,
      "Ġvotes": 7914,
      "Ġagreed": 7915,
      "vo": 7916,
      "Ġdiver": 7917,
      "Ġbos": 7918,
      "place": 7919,
      "ĠBusiness": 7920,
      "aren": 7921,
      "jan": 7922,
      "ĠBol": 7923,
      "ĠBridge": 7924,
      "Ġsufficiently": 7925,
      "Ġstreet": 7926,
      "ĠSab": 7927,
      "asty": 7928,
      "ĠPhiladelphia": 7929,
      "github": 7930,
      "Ġfinding": 7931,
      "ĠKal": 7932,
      "pool": 7933,
      "regon": 7934,
      "estic": 7935,
      "ĠStephen": 7936,
      "idel": 7937,
      "ĠSus": 7938,
      "ĠCas": 7939,
      "ĠCub": 7940,
      "Ġresource": 7941,
      "Ġtests": 7942,
      "Ġconference": 7943,
      ",$": 7944,
      "iem": 7945,
      "ĠWisconsin": 7946,
      "1912": 7947,
      "ĠBrad": 7948,
      "Ġabund": 7949,
      "yset": 7950,
      "del": 7951,
      "brace": 7952,
      "Ġtalk": 7953,
      "ambig": 7954,
      "ĠAD": 7955,
      "Ġperman": 7956,
      "nergy": 7957,
      "prot": 7958,
      "Ġpal": 7959,
      "Cal": 7960,
      "ĠRoute": 7961,
      "zen": 7962,
      "Ġadding": 7963,
      "Ġnewly": 7964,
      "Ġagric": 7965,
      "ULL": 7966,
      "anga": 7967,
      "false": 7968,
      "imately": 7969,
      "Ġpredicted": 7970,
      "1926": 7971,
      "Rem": 7972,
      "Ġitems": 7973,
      "ĠBla": 7974,
      "Ãº": 7975,
      "Ġplants": 7976,
      "Ġtitles": 7977,
      "Ġextend": 7978,
      "lyn": 7979,
      "yal": 7980,
      "Ġhosted": 7981,
      "Ġattend": 7982,
      "ĠFair": 7983,
      "Ġpet": 7984,
      "UE": 7985,
      "roller": 7986,
      "cha": 7987,
      "sat": 7988,
      "Ġswitch": 7989,
      "ĠStudies": 7990,
      "Ġtheories": 7991,
      "ĠOt": 7992,
      "aux": 7993,
      "TC": 7994,
      "})}": 7995,
      "Ġbegins": 7996,
      "ĠGer": 7997,
      "Ġcancer": 7998,
      "1923": 7999,
      "ifts": 8000,
      "ĠLady": 8001,
      "Ġheav": 8002,
      "element": 8003,
      "Ġdatasets": 8004,
      "Ġinterested": 8005,
      "Source": 8006,
      "Ġsuitable": 8007,
      "apore": 8008,
      "Ġvisit": 8009,
      "Ġremove": 8010,
      "outheast": 8011,
      "Ġdance": 8012,
      "hing": 8013,
      "scriptstyle": 8014,
      "ĠHun": 8015,
      "longrightarrow": 8016,
      "algorithm": 8017,
      "Ġinstitutions": 8018,
      "Awards": 8019,
      "null": 8020,
      "]{\\": 8021,
      "Ġperformances": 8022,
      "User": 8023,
      "iota": 8024,
      "Ġdefeat": 8025,
      "Ġreports": 8026,
      "igration": 8027,
      "Ġpsych": 8028,
      "ĠLog": 8029,
      "Ġquestions": 8030,
      "ĠTy": 8031,
      "Ġfrag": 8032,
      "oday": 8033,
      "ĠUN": 8034,
      "$&": 8035,
      "sort": 8036,
      "Ġhighlight": 8037,
      "Ġspirit": 8038,
      "Ġpull": 8039,
      "func": 8040,
      "ĠKir": 8041,
      "Ġirre": 8042,
      "Ġdimensional": 8043,
      "iative": 8044,
      "Ġrecognition": 8045,
      "))\\": 8046,
      "aton": 8047,
      "Ġthous": 8048,
      "Head": 8049,
      "Ġdamage": 8050,
      "250": 8051,
      "rage": 8052,
      "Ġluminos": 8053,
      "Women": 8054,
      "Ġinspired": 8055,
      "dule": 8056,
      "Ġgirl": 8057,
      "ypes": 8058,
      "Ġcert": 8059,
      "lash": 8060,
      "BB": 8061,
      "Ġresulted": 8062,
      "ĠBishop": 8063,
      "ĠMun": 8064,
      ")</": 8065,
      "Ġserious": 8066,
      "aling": 8067,
      "Ġenergies": 8068,
      "âĢľ": 8069,
      "Ġends": 8070,
      "Ġmedalists": 8071,
      "Following": 8072,
      "ĠHo": 8073,
      "Ġ__": 8074,
      "Ġtowns": 8075,
      "Ġreally": 8076,
      "pson": 8077,
      "Us": 8078,
      "fold": 8079,
      "ĠHan": 8080,
      "Ġspeak": 8081,
      "brid": 8082,
      "ĠType": 8083,
      "Ġinverse": 8084,
      "itness": 8085,
      "Ġconven": 8086,
      "Ġphoton": 8087,
      "ighth": 8088,
      "ĠReview": 8089,
      "Olympic": 8090,
      "living": 8091,
      "ensions": 8092,
      "emptyset": 8093,
      "conf": 8094,
      "Ġcreating": 8095,
      "Ġgained": 8096,
      "ĠSweden": 8097,
      "Ġbulk": 8098,
      "Ġnone": 8099,
      "Ã¢": 8100,
      "ĠCzech": 8101,
      "agnetic": 8102,
      "Ġpicture": 8103,
      "anna": 8104,
      "Ġimag": 8105,
      "Ġ^": 8106,
      "Ġmapping": 8107,
      "ĠAlf": 8108,
      "Ġstarts": 8109,
      "arse": 8110,
      "ĠIV": 8111,
      "ĠPass": 8112,
      ")}_": 8113,
      "Ġcars": 8114,
      "igger": 8115,
      "raq": 8116,
      "Ġhistoric": 8117,
      ">(": 8118,
      "ĠAnth": 8119,
      "ĠKim": 8120,
      "finished": 8121,
      "ritical": 8122,
      "ĠIndust": 8123,
      "DR": 8124,
      "Ġmind": 8125,
      "Ġouter": 8126,
      "algebra": 8127,
      "step": 8128,
      "pective": 8129,
      "ais": 8130,
      "inations": 8131,
      "Ġvirtual": 8132,
      "Ġgets": 8133,
      "Ġjet": 8134,
      "ierarch": 8135,
      "Ġdeclared": 8136,
      "worth": 8137,
      "ĠWalk": 8138,
      "ĠCirc": 8139,
      "1915": 8140,
      "ĠWinter": 8141,
      "Right": 8142,
      "mathop": 8143,
      "Ġcomposer": 8144,
      "ci": 8145,
      "mers": 8146,
      "ometry": 8147,
      "Ġprice": 8148,
      "Ġeq": 8149,
      "Ġcollabor": 8150,
      "ĠHay": 8151,
      "Met": 8152,
      "Ġsubstant": 8153,
      "vart": 8154,
      "ĠTownship": 8155,
      "kish": 8156,
      "Ġpowerful": 8157,
      "Ġfemales": 8158,
      "1916": 8159,
      "Nov": 8160,
      "Ġwaves": 8161,
      "Ġcontinues": 8162,
      "Ġnovels": 8163,
      "Ġexplicitly": 8164,
      "ĠÎ": 8165,
      "Some": 8166,
      "ĠMedical": 8167,
      "ĠSM": 8168,
      "Ġderivative": 8169,
      "ĠDam": 8170,
      "TH": 8171,
      "ĠTal": 8172,
      "ĠCaptain": 8173,
      "ensis": 8174,
      "}}.": 8175,
      "ĠSuch": 8176,
      "ĠAcc": 8177,
      "ĠBudd": 8178,
      "ĠCP": 8179,
      "ruit": 8180,
      "ropolitan": 8181,
      "Ġcopies": 8182,
      "organ": 8183,
      "Ġsimultane": 8184,
      "Ġpiano": 8185,
      "search": 8186,
      "aped": 8187,
      "TP": 8188,
      "Ġaffili": 8189,
      "}_{-": 8190,
      "INE": 8191,
      "ĠNS": 8192,
      "Ġdevices": 8193,
      "Ġaffected": 8194,
      "Ġpowers": 8195,
      "ĠChris": 8196,
      "Ġturns": 8197,
      "loop": 8198,
      "Ġdiagonal": 8199,
      "ĠRom": 8200,
      "Ġsuccessfully": 8201,
      "uly": 8202,
      "Ġinvestigation": 8203,
      "Ġbeat": 8204,
      "Read": 8205,
      "Ġunderlying": 8206,
      ")--": 8207,
      "Ġrecognized": 8208,
      "ĠAddition": 8209,
      "Ġterritory": 8210,
      "Ġapplying": 8211,
      "Po": 8212,
      "Ġfinds": 8213,
      "Ġtag": 8214,
      "Ġworth": 8215,
      "Ġneural": 8216,
      "Ġfocused": 8217,
      "Ġcitizens": 8218,
      "Ġvehicle": 8219,
      "Ġroll": 8220,
      "ĠIN": 8221,
      "Ġcanonical": 8222,
      "ĠWel": 8223,
      "Ġregarding": 8224,
      "Ġtitled": 8225,
      "zing": 8226,
      "}}}\\": 8227,
      "arest": 8228,
      "Ġfailure": 8229,
      "ĠIndiana": 8230,
      "oli": 8231,
      "oles": 8232,
      "write": 8233,
      "olve": 8234,
      "AV": 8235,
      "ordan": 8236,
      "Ġindustrial": 8237,
      "Top": 8238,
      "watch": 8239,
      "})^": 8240,
      "aret": 8241,
      ";\\;\\": 8242,
      ";</": 8243,
      "=\"../": 8244,
      "ĠAppendix": 8245,
      "Ġpeace": 8246,
      "Ġdust": 8247,
      "Ġresear": 8248,
      "Ġdens": 8249,
      "Ġintersection": 8250,
      "Ġswim": 8251,
      "ĠMarsh": 8252,
      "<!--": 8253,
      "Call": 8254,
      "Ġclaims": 8255,
      "Ġengineer": 8256,
      "Ġrect": 8257,
      "Ġwild": 8258,
      "Ġimplemented": 8259,
      "riev": 8260,
      "elect": 8261,
      "Ġvess": 8262,
      "ifact": 8263,
      "Ġsort": 8264,
      "Ġsafety": 8265,
      "Ġdetected": 8266,
      "Ġpurchased": 8267,
      "ourier": 8268,
      "tiny": 8269,
      "ĠDun": 8270,
      "ĠWars": 8271,
      "########": 8272,
      "uing": 8273,
      "Ġ$,": 8274,
      "Ġquark": 8275,
      "600": 8276,
      "Ġlabels": 8277,
      "Ġobjective": 8278,
      "Ġhousing": 8279,
      "ochastic": 8280,
      "Ġconcer": 8281,
      "pat": 8282,
      "})=": 8283,
      "Ġblood": 8284,
      "Ġprocessing": 8285,
      "unte": 8286,
      "ĠJoh": 8287,
      "Ġintroduction": 8288,
      "ĠBaron": 8289,
      "actic": 8290,
      "ancing": 8291,
      "illery": 8292,
      "Ġdrive": 8293,
      "Ġpenal": 8294,
      "season": 8295,
      "Ġestate": 8296,
      "Ġobvious": 8297,
      "ĠLind": 8298,
      "paragraph": 8299,
      "Ġpossibly": 8300,
      "Ġleadership": 8301,
      "vari": 8302,
      "Ġlaunch": 8303,
      "rizona": 8304,
      "ĠEu": 8305,
      "fs": 8306,
      "omot": 8307,
      "Ġsales": 8308,
      "restling": 8309,
      "^{*": 8310,
      "iplom": 8311,
      "Ġtransmission": 8312,
      "ĠGolden": 8313,
      "ĠPers": 8314,
      "EX": 8315,
      "Port": 8316,
      "Ġconstants": 8317,
      "Bibliography": 8318,
      "Ġvehicles": 8319,
      "Ġportion": 8320,
      "ĠGree": 8321,
      "ĠIndones": 8322,
      "osophy": 8323,
      "${": 8324,
      "Ġdesired": 8325,
      "Ġinterior": 8326,
      "][]{": 8327,
      "uting": 8328,
      "Ġcerem": 8329,
      "Canadian": 8330,
      "indows": 8331,
      "ennessee": 8332,
      "urations": 8333,
      "ĠConf": 8334,
      "Ġfinish": 8335,
      "utt": 8336,
      "Date": 8337,
      "Ġranked": 8338,
      "lapse": 8339,
      "Ġbelieve": 8340,
      "Ġradial": 8341,
      "ĠAli": 8342,
      "Writ": 8343,
      "Property": 8344,
      "ĠMexican": 8345,
      "ĠWeb": 8346,
      "Max": 8347,
      "GN": 8348,
      "sets": 8349,
      "Ġcoal": 8350,
      "pur": 8351,
      "Sportspeople": 8352,
      "Ġindeed": 8353,
      "Ġdeploy": 8354,
      "ĠDisc": 8355,
      "cisely": 8356,
      "ĠFI": 8357,
      "uted": 8358,
      "Ġpatients": 8359,
      "Ġelectronic": 8360,
      "ponents": 8361,
      "1913": 8362,
      "Ġparliament": 8363,
      "yard": 8364,
      "ĠOrig": 8365,
      "pto": 8366,
      "Ġcrime": 8367,
      "enna": 8368,
      "Ġmaximal": 8369,
      "Ġ\\(\\": 8370,
      "ĠBh": 8371,
      "Ġreferences": 8372,
      "pop": 8373,
      "ĠHart": 8374,
      "ĠMilitary": 8375,
      "Ġscientific": 8376,
      "Ġtells": 8377,
      "ĠWat": 8378,
      "conn": 8379,
      "Ġclean": 8380,
      "Ġrefers": 8381,
      "Ev": 8382,
      "OL": 8383,
      "Ġbond": 8384,
      "periment": 8385,
      "Ġtopological": 8386,
      "Ġinvestigate": 8387,
      "ĠMaria": 8388,
      "Ġdoing": 8389,
      "zz": 8390,
      "ictures": 8391,
      "Ġsequences": 8392,
      "ĠOregon": 8393,
      "}$}": 8394,
      "Ġbriefly": 8395,
      "arr": 8396,
      "Mat": 8397,
      "sequently": 8398,
      "Ġpolic": 8399,
      "Ġrepeated": 8400,
      "umes": 8401,
      "entry": 8402,
      "Ġpatterns": 8403,
      "isa": 8404,
      "EL": 8405,
      "angular": 8406,
      "Ġsuperv": 8407,
      "ĠSem": 8408,
      "DM": 8409,
      "ĠBeach": 8410,
      "ĠKansas": 8411,
      "Ġfiction": 8412,
      "+(": 8413,
      "ĠFox": 8414,
      "ĠĠĠĠĠĠĠĠĠĠĠĠĠĠĠĠĠĠĠĠĠĠĠĠĠĠĠĠĠĠĠ": 8415,
      "Ġcomplic": 8416,
      "ĠAh": 8417,
      "Ġtrivial": 8418,
      "pet": 8419,
      "Ġfounder": 8420,
      "Ġspecifically": 8421,
      "Point": 8422,
      "ropic": 8423,
      "ĠFire": 8424,
      "call": 8425,
      "ĠCOVID": 8426,
      "Ġstone": 8427,
      "ĠPrim": 8428,
      "Ġsolar": 8429,
      "ĠIR": 8430,
      "Ġadjacent": 8431,
      "Ġcatch": 8432,
      "Ġurban": 8433,
      "ĠMember": 8434,
      "apped": 8435,
      "ĠFinal": 8436,
      "ĠKel": 8437,
      "Ġassumptions": 8438,
      "power": 8439,
      "Ġsexual": 8440,
      "Populated": 8441,
      "Ġnet": 8442,
      "target": 8443,
      "Ġfelt": 8444,
      "Ġpref": 8445,
      "Ġaggreg": 8446,
      "Ġaband": 8447,
      "Ġfaculty": 8448,
      "/(": 8449,
      "FM": 8450,
      "Ġagents": 8451,
      "Ġcontrad": 8452,
      "ĠMethod": 8453,
      "Ġstd": 8454,
      "show": 8455,
      "}}^{\\": 8456,
      "ordon": 8457,
      "Ġclosely": 8458,
      "Ġevaluate": 8459,
      "ĠArthur": 8460,
      "ĠWhat": 8461,
      "secutive": 8462,
      "ben": 8463,
      "Ġhabit": 8464,
      "Ġreaction": 8465,
      "Ġmotiv": 8466,
      "unch": 8467,
      "Ġrespond": 8468,
      "ĠMissouri": 8469,
      "ĠNaz": 8470,
      "joy": 8471,
      "Ġturb": 8472,
      "scape": 8473,
      "Ġcorner": 8474,
      "pes": 8475,
      "Ġbias": 8476,
      "ups": 8477,
      "Ġcovers": 8478,
      "Ġandroid": 8479,
      "ĠAR": 8480,
      "ĠMunicip": 8481,
      "ĠSon": 8482,
      "ĠMoh": 8483,
      "Ġ}{": 8484,
      "Ġsuffered": 8485,
      "erior": 8486,
      "Ġadvanced": 8487,
      "ĠColon": 8488,
      "Ġtemperatures": 8489,
      "Ġcaptain": 8490,
      "Ġbill": 8491,
      "itative": 8492,
      "ĠGL": 8493,
      "Ġbow": 8494,
      "Ġintensity": 8495,
      "life": 8496,
      "general": 8497,
      "Geography": 8498,
      "Ġabsolute": 8499,
      "Ġquadr": 8500,
      "Har": 8501,
      "bras": 8502,
      "ĠRepresentatives": 8503,
      "ested": 8504,
      "Ġquantities": 8505,
      "dependent": 8506,
      "Sty": 8507,
      "Ġfrequently": 8508,
      "Ġderive": 8509,
      "isms": 8510,
      "invar": 8511,
      "models": 8512,
      "ĠEngineering": 8513,
      "inton": 8514,
      "Ġexplain": 8515,
      "Ġnotes": 8516,
      "Ġpolitics": 8517,
      "([": 8518,
      "Ġofficials": 8519,
      "Ġindicated": 8520,
      "ĠMill": 8521,
      "Ġtrust": 8522,
      "Hel": 8523,
      "parameter": 8524,
      "Ġresident": 8525,
      "Ġportray": 8526,
      "onym": 8527,
      "Ġdocumentary": 8528,
      "Ġcontemporary": 8529,
      "card": 8530,
      "Hence": 8531,
      "ĠGh": 8532,
      "ogs": 8533,
      "ĠCommun": 8534,
      "ĠĠĠĠĠĠĠĠĊ": 8535,
      "Ġasymptotic": 8536,
      "Ġpossibility": 8537,
      "adi": 8538,
      "ĠTurkey": 8539,
      "Ġnonlinear": 8540,
      "bat": 8541,
      "Proof": 8542,
      "My": 8543,
      "Ðº": 8544,
      "ĠTro": 8545,
      "ika": 8546,
      "ĠWeek": 8547,
      "Bl": 8548,
      "ptic": 8549,
      "vard": 8550,
      "ĠHand": 8551,
      "ĠAdminist": 8552,
      "Ġboy": 8553,
      "ĠHard": 8554,
      "Dec": 8555,
      "Ġzone": 8556,
      "Ġclient": 8557,
      "\\}\\": 8558,
      "query": 8559,
      "Ġempty": 8560,
      "Ġthin": 8561,
      "dep": 8562,
      "Ġcolle": 8563,
      "ĠIndeed": 8564,
      "venth": 8565,
      "ĠEs": 8566,
      "Ġscoring": 8567,
      "Ġmanner": 8568,
      "Ġpassing": 8569,
      "Ġtoward": 8570,
      "ĠRon": 8571,
      "Ġidentical": 8572,
      "ĠAtlantic": 8573,
      "BM": 8574,
      "ques": 8575,
      "asters": 8576,
      "Ġvictim": 8577,
      "Ġearth": 8578,
      "make": 8579,
      "western": 8580,
      "ĠHighway": 8581,
      "etal": 8582,
      "mathit": 8583,
      "Ġdistricts": 8584,
      "oscow": 8585,
      "|}{": 8586,
      "Ġspeech": 8587,
      "Ġvisible": 8588,
      "ĠBru": 8589,
      "ĠSurvey": 8590,
      "Ġtried": 8591,
      "ĠDavis": 8592,
      "Ġbehaviour": 8593,
      "android": 8594,
      "idge": 8595,
      "Ġseats": 8596,
      "Public": 8597,
      "Ð»": 8598,
      "Ġgranted": 8599,
      "Input": 8600,
      "anes": 8601,
      "ĠLore": 8602,
      "bmatrix": 8603,
      "slant": 8604,
      "Em": 8605,
      "ĠHiggs": 8606,
      "Ġpaid": 8607,
      "Ġrecip": 8608,
      "Ġtheme": 8609,
      "Ġatmosp": 8610,
      "1911": 8611,
      "Ġattempts": 8612,
      "ello": 8613,
      "Ġbran": 8614,
      "float": 8615,
      "Ġnav": 8616,
      "Ġcategories": 8617,
      "Ġaccurate": 8618,
      "Ġstrugg": 8619,
      "Ġcommittee": 8620,
      "Result": 8621,
      "isson": 8622,
      "Tax": 8623,
      "ĠGallery": 8624,
      "Ġcharges": 8625,
      "ĠLead": 8626,
      "rome": 8627,
      "ĠBrook": 8628,
      "ifer": 8629,
      "aved": 8630,
      "Ġseparated": 8631,
      "Ġcontrolled": 8632,
      "ĠSteve": 8633,
      "ÃŃa": 8634,
      "ĠPhilippines": 8635,
      "ĠCountry": 8636,
      "Ġembedding": 8637,
      "ĠFree": 8638,
      "formance": 8639,
      "ician": 8640,
      "eries": 8641,
      "Lay": 8642,
      "rosc": 8643,
      "Ġmiles": 8644,
      "columnwidth": 8645,
      "former": 8646,
      "ĠCastle": 8647,
      "Ġgeneralized": 8648,
      "haps": 8649,
      "uese": 8650,
      "Ġ({\\": 8651,
      "ĠDesign": 8652,
      "Ġtrend": 8653,
      "Ġprepar": 8654,
      "ĠStat": 8655,
      "heta": 8656,
      "plane": 8657,
      "Ġfish": 8658,
      "igrants": 8659,
      "condition": 8660,
      "Ġsatisfied": 8661,
      "Ġlowest": 8662,
      "Ġsomew": 8663,
      "ĠGre": 8664,
      "ENT": 8665,
      "idi": 8666,
      "ĠBall": 8667,
      "Ġextensive": 8668,
      "Ġsupply": 8669,
      "Ġlearned": 8670,
      "Ġrelax": 8671,
      "Ġcomputing": 8672,
      "Ġbroken": 8673,
      "Ġcart": 8674,
      "Ġpredictions": 8675,
      "Pos": 8676,
      "ynasty": 8677,
      "=.": 8678,
      "Japan": 8679,
      "Sum": 8680,
      "ĠST": 8681,
      "Ġspac": 8682,
      "incial": 8683,
      "sem": 8684,
      "weet": 8685,
      "udi": 8686,
      "wealth": 8687,
      "chron": 8688,
      "1908": 8689,
      "fficial": 8690,
      "Sources": 8691,
      "Image": 8692,
      "Ġarc": 8693,
      "DS": 8694,
      "gebras": 8695,
      "ĠMP": 8696,
      "vements": 8697,
      "ĠPy": 8698,
      "Ġconcert": 8699,
      "Ġjournalist": 8700,
      "Second": 8701,
      "ĠLive": 8702,
      "Ġcryst": 8703,
      "Ġtool": 8704,
      "Ġredshift": 8705,
      "aga": 8706,
      "Off": 8707,
      "ĠFederation": 8708,
      "Ã¼r": 8709,
      "Run": 8710,
      "Ġsampling": 8711,
      "si": 8712,
      "Ġretire": 8713,
      "ĠDown": 8714,
      "Ġclimate": 8715,
      "icular": 8716,
      "Ġgar": 8717,
      "success": 8718,
      "Ġcurvature": 8719,
      "jav": 8720,
      "medskip": 8721,
      "Ġideas": 8722,
      "Ġdynamic": 8723,
      "CM": 8724,
      "Ġmess": 8725,
      "ĠOcean": 8726,
      "ĠPier": 8727,
      "ĠColorado": 8728,
      "Ġconverted": 8729,
      "bu": 8730,
      "Ġexplo": 8731,
      "last": 8732,
      "Ġsession": 8733,
      "ĠPit": 8734,
      "Ġliber": 8735,
      "hor": 8736,
      "ename": 8737,
      "ĠVo": 8738,
      "}~": 8739,
      "ifferent": 8740,
      "clusive": 8741,
      "Ġcalls": 8742,
      "Ġbundle": 8743,
      "Ġpublication": 8744,
      "istent": 8745,
      "Ġarms": 8746,
      "Ġlosing": 8747,
      "nections": 8748,
      "Ġliqu": 8749,
      "ĠArea": 8750,
      "Ġflows": 8751,
      "Two": 8752,
      "[-": 8753,
      "ĠDig": 8754,
      "Ġmatching": 8755,
      "Ġfell": 8756,
      "ĠManagement": 8757,
      "fef": 8758,
      "cycl": 8759,
      "ingham": 8760,
      "ĠEll": 8761,
      "Ġrig": 8762,
      "ĠSlov": 8763,
      "fi": 8764,
      "Ġfashion": 8765,
      "Ġyounger": 8766,
      "ĠNorway": 8767,
      "tail": 8768,
      "isted": 8769,
      "Ġbra": 8770,
      "Ġscholar": 8771,
      "Ġcab": 8772,
      "diff": 8773,
      "ĠLabor": 8774,
      "outs": 8775,
      "ĠTennessee": 8776,
      "tikzpicture": 8777,
      "rÃ©": 8778,
      "Ġhypothesis": 8779,
      "ĠMaryland": 8780,
      "ĠJunior": 8781,
      "Ġfacility": 8782,
      "Ġcompat": 8783,
      "Ġmargin": 8784,
      "Number": 8785,
      "Ġintegrated": 8786,
      "rained": 8787,
      "Ġspring": 8788,
      "Ġroughly": 8789,
      "rait": 8790,
      "Ġarts": 8791,
      "Ġdynamical": 8792,
      "allow": 8793,
      "pres": 8794,
      "Ġpainting": 8795,
      "ariants": 8796,
      "\\}$,": 8797,
      "een": 8798,
      "Ġdrawn": 8799,
      "Di": 8800,
      "Builder": 8801,
      "Ġrequirements": 8802,
      "Ġspons": 8803,
      "iÃ³n": 8804,
      "Ġfluid": 8805,
      "ĠMelbourne": 8806,
      "Ġmaxim": 8807,
      "^{(\\": 8808,
      "ĠDue": 8809,
      "ĠRead": 8810,
      "ativ": 8811,
      "ears": 8812,
      "Ġdefend": 8813,
      "ĠBaseball": 8814,
      "Ġvillages": 8815,
      "Ġyellow": 8816,
      "Ġconsecutive": 8817,
      "oust": 8818,
      "ĠSingapore": 8819,
      "Ġprotection": 8820,
      "andra": 8821,
      "Ġbronze": 8822,
      "ĠComput": 8823,
      "Ġmac": 8824,
      "Lemma": 8825,
      "Ġgovernor": 8826,
      "ĠYour": 8827,
      "member": 8828,
      "Ġadvance": 8829,
      "ĠUkraine": 8830,
      "Ġfib": 8831,
      "Ġrom": 8832,
      "Ġcampus": 8833,
      "apes": 8834,
      "Ġenh": 8835,
      "Ġinteract": 8836,
      "ĠJews": 8837,
      "kov": 8838,
      "ĠBan": 8839,
      "iner": 8840,
      "ĠIraq": 8841,
      "Client": 8842,
      "Ġcompris": 8843,
      "Ġrestaur": 8844,
      "ĠGeV": 8845,
      "HC": 8846,
      "Ġmeant": 8847,
      "ĠTa": 8848,
      "jective": 8849,
      "Ġtrace": 8850,
      "elihood": 8851,
      "Red": 8852,
      "Consider": 8853,
      "Ġprecisely": 8854,
      "Ġplanning": 8855,
      "Ġgravity": 8856,
      "eties": 8857,
      "Ġchairman": 8858,
      "erves": 8859,
      "ĠShort": 8860,
      "gar": 8861,
      "ĠGener": 8862,
      "ĠLeon": 8863,
      "ĠHal": 8864,
      "ĠVis": 8865,
      "Ġnominated": 8866,
      "ĠPolit": 8867,
      "ented": 8868,
      "Ġdriving": 8869,
      "Response": 8870,
      "}|\\": 8871,
      "options": 8872,
      "chor": 8873,
      "Ġsignals": 8874,
      "Ġburied": 8875,
      "Cell": 8876,
      "ictional": 8877,
      "Ġdriver": 8878,
      "Ġshop": 8879,
      "ĠTrust": 8880,
      "andy": 8881,
      "Ġauto": 8882,
      "ĠBack": 8883,
      "ĠFamily": 8884,
      "Ġeducated": 8885,
      "Override": 8886,
      "flu": 8887,
      "lain": 8888,
      "Query": 8889,
      "regular": 8890,
      "theless": 8891,
      "uther": 8892,
      "Ġstarring": 8893,
      "orders": 8894,
      "ambiguation": 8895,
      "inction": 8896,
      "Ġcharacteristics": 8897,
      "oupl": 8898,
      "ĠBooks": 8899,
      "lac": 8900,
      "ĠBet": 8901,
      "othing": 8902,
      "BL": 8903,
      "Ġnotice": 8904,
      "Ġauthorities": 8905,
      "gest": 8906,
      "Ġplus": 8907,
      "Ġdaily": 8908,
      "ĠNa": 8909,
      "Ġsubs": 8910,
      "}}=": 8911,
      "West": 8912,
      "Australian": 8913,
      "Given": 8914,
      "points": 8915,
      "plot": 8916,
      "ĠInit": 8917,
      "Â°": 8918,
      "Ġvice": 8919,
      "ĠSav": 8920,
      "ogether": 8921,
      "ĠEven": 8922,
      "phy": 8923,
      "ĠOnly": 8924,
      "Death": 8925,
      "ĠSquadron": 8926,
      "apel": 8927,
      "Ġsatell": 8928,
      "ĠFellow": 8929,
      "ERT": 8930,
      "ĠReturn": 8931,
      "ĠAnderson": 8932,
      "ĠStr": 8933,
      "ĠSpring": 8934,
      "ĠMas": 8935,
      "bell": 8936,
      "Ġdesignated": 8937,
      "Current": 8938,
      "parison": 8939,
      "Ġinfer": 8940,
      "Ġsurpr": 8941,
      "Ġtools": 8942,
      "Ġmagnet": 8943,
      "ois": 8944,
      "Ġtaught": 8945,
      "rins": 8946,
      "Ġdefin": 8947,
      "erset": 8948,
      "Ġpossess": 8949,
      "atin": 8950,
      "Ġapproximate": 8951,
      "ĠRoss": 8952,
      "Ġunable": 8953,
      "integ": 8954,
      "Ġquasi": 8955,
      "Ġpool": 8956,
      "GR": 8957,
      "ĠLewis": 8958,
      "Sche": 8959,
      "gal": 8960,
      "Ġsummary": 8961,
      "Ġstorage": 8962,
      "800": 8963,
      "Ġcauses": 8964,
      "ĠStock": 8965,
      "Cent": 8966,
      "Ġcrim": 8967,
      "leep": 8968,
      "smallskip": 8969,
      "ĠMemorial": 8970,
      "hens": 8971,
      "ĠMoscow": 8972,
      "Ġcamera": 8973,
      "Ġbool": 8974,
      "Ġaspects": 8975,
      "Ġtrains": 8976,
      "offs": 8977,
      "Ġmes": 8978,
      "101": 8979,
      "oses": 8980,
      "Ġpaths": 8981,
      "ĠMir": 8982,
      "Ġstock": 8983,
      "Ġrational": 8984,
      "esian": 8985,
      "mn": 8986,
      "ads": 8987,
      "ĠKa": 8988,
      "ĠFreder": 8989,
      "ulse": 8990,
      "Suppose": 8991,
      "Ġtrip": 8992,
      "fa": 8993,
      "ensed": 8994,
      "ĠDor": 8995,
      "Ġviews": 8996,
      "ortheast": 8997,
      "Ġcatal": 8998,
      "Ġletters": 8999,
      "ĠArizona": 9000,
      "Ġlooking": 9001,
      "ĠĠĠĠĠĠĠĠĠĠĠĠĊ": 9002,
      "antly": 9003,
      "ivals": 9004,
      "Ġdependent": 9005,
      "ĠHur": 9006,
      ")})": 9007,
      "Ġglass": 9008,
      "Ġoccupied": 9009,
      "ĠAz": 9010,
      "Ġtheatre": 9011,
      "Ġiron": 9012,
      "etch": 9013,
      "ĠBrother": 9014,
      "Ġscope": 9015,
      "Ġinjury": 9016,
      "lower": 9017,
      "subsec": 9018,
      "Ġaccident": 9019,
      "Ġabsence": 9020,
      "scriptsize": 9021,
      "Ġinterpretation": 9022,
      "Ġnor": 9023,
      "issip": 9024,
      "Ġuniversal": 9025,
      "opes": 9026,
      "oured": 9027,
      "ouble": 9028,
      "stan": 9029,
      "rainian": 9030,
      "Ġpurposes": 9031,
      "ĠNorm": 9032,
      "ĠKhan": 9033,
      "Ġdetermin": 9034,
      "clear": 9035,
      "Ġcoverage": 9036,
      "don": 9037,
      "Stream": 9038,
      "ĠMalays": 9039,
      "180": 9040,
      "Xi": 9041,
      "Ġyards": 9042,
      "fefefe": 9043,
      "ĠGi": 9044,
      "Gener": 9045,
      "Å«": 9046,
      "Ġrear": 9047,
      "itzerland": 9048,
      "figures": 9049,
      "Ġ(;": 9050,
      "Ġroyal": 9051,
      "ĠQueensland": 9052,
      "Ġcloud": 9053,
      "ĠInformation": 9054,
      "...,": 9055,
      "Ġfiles": 9056,
      "Ġtower": 9057,
      "Ġcorrections": 9058,
      "ĠAmb": 9059,
      "Nav": 9060,
      "Ġtwenty": 9061,
      "ĠHou": 9062,
      "Ġexclud": 9063,
      "Ġreturning": 9064,
      "Ġhidden": 9065,
      "Ġbeaut": 9066,
      "ĠPhilip": 9067,
      "Ġshock": 9068,
      "Ġpremier": 9069,
      "Ġopposed": 9070,
      "Ġ->": 9071,
      "including": 9072,
      "ĠSl": 9073,
      "unfinished": 9074,
      "ĠSecurity": 9075,
      "Ġindependence": 9076,
      ">\\": 9077,
      "Ġvariance": 9078,
      "Ġpropose": 9079,
      "icip": 9080,
      "Ġfluctuations": 9081,
      "Ġluminosity": 9082,
      "125": 9083,
      "zed": 9084,
      "Ġbillion": 9085,
      "Ġversus": 9086,
      "Ġteaching": 9087,
      "Ġescape": 9088,
      "William": 9089,
      "PL": 9090,
      "Ġreceiving": 9091,
      "Ġintermediate": 9092,
      "Start": 9093,
      "Ġschem": 9094,
      "Ġhall": 9095,
      "ymn": 9096,
      "Ġadjust": 9097,
      "Ġconclusion": 9098,
      "Ġneutral": 9099,
      "Ġhands": 9100,
      "ĠTel": 9101,
      "vartheta": 9102,
      "ĠSat": 9103,
      "Ġentirely": 9104,
      "ĠCab": 9105,
      "Bel": 9106,
      "ogonal": 9107,
      "Ġcharacterized": 9108,
      "Li": 9109,
      "Ġwalls": 9110,
      "Ġ(,": 9111,
      "Ġeigenvalues": 9112,
      "uy": 9113,
      "ictionary": 9114,
      "Russ": 9115,
      "Ġgravitational": 9116,
      "ĠAdam": 9117,
      "anton": 9118,
      "Ġequality": 9119,
      "Ġ,\\": 9120,
      "rine": 9121,
      "Ġracing": 9122,
      "Ġperturbation": 9123,
      "ĠForeign": 9124,
      "Ġpapers": 9125,
      "Ġending": 9126,
      "ĠJos": 9127,
      "Rail": 9128,
      "property": 9129,
      "Ġextremely": 9130,
      "Ġserver": 9131,
      "Ġseconds": 9132,
      "Ġpages": 9133,
      "author": 9134,
      "&=\\": 9135,
      "orney": 9136,
      "Ġbor": 9137,
      "ĠMit": 9138,
      "ĠAffairs": 9139,
      "Best": 9140,
      "ĠArk": 9141,
      "Ġadvert": 9142,
      "Ġpieces": 9143,
      "otal": 9144,
      "Ġformerly": 9145,
      "Ġdrums": 9146,
      "forming": 9147,
      "ĠUs": 9148,
      "Dav": 9149,
      "ĠWrit": 9150,
      "direct": 9151,
      "Ġarrested": 9152,
      "sg": 9153,
      "mt": 9154,
      "Ġgeneric": 9155,
      "ĠBah": 9156,
      "Non": 9157,
      "Ġelectro": 9158,
      "Ġproportional": 9159,
      "Ġloan": 9160,
      "Ġburn": 9161,
      "Ġconnect": 9162,
      "Ġcommander": 9163,
      "Ġdoctor": 9164,
      "Ġadapted": 9165,
      "amm": 9166,
      "pping": 9167,
      "coln": 9168,
      "prov": 9169,
      "udio": 9170,
      "Rad": 9171,
      "client": 9172,
      "unes": 9173,
      "Function": 9174,
      "ĠNone": 9175,
      "ĠVietnam": 9176,
      "Ġmales": 9177,
      "Ġdropped": 9178,
      "Ġvacuum": 9179,
      "Television": 9180,
      "Ġvisited": 9181,
      "ĠSever": 9182,
      "Const": 9183,
      "tack": 9184,
      "Ġcolumns": 9185,
      "Tra": 9186,
      "Ġchanging": 9187,
      "Ġchallenge": 9188,
      "ĠAustria": 9189,
      "ĠInfantry": 9190,
      "enses": 9191,
      "engths": 9192,
      "Ġquantity": 9193,
      "Ġcosts": 9194,
      "Ġvir": 9195,
      "Ġdx": 9196,
      "Ġanswer": 9197,
      ":=\\": 9198,
      "Ġcovering": 9199,
      "ĠMiller": 9200,
      "Ġwins": 9201,
      "iki": 9202,
      "lib": 9203,
      "NC": 9204,
      "vs": 9205,
      "ĠGib": 9206,
      "ĠAdd": 9207,
      "frame": 9208,
      "Ġdie": 9209,
      "Ġenvironmental": 9210,
      "Ġsucceeded": 9211,
      "Ġentries": 9212,
      "Prov": 9213,
      "Ġfans": 9214,
      "ymmetric": 9215,
      "Ġvanish": 9216,
      "ication": 9217,
      "Ġfil": 9218,
      "Ġdense": 9219,
      "ĠNY": 9220,
      "Ġtele": 9221,
      "racks": 9222,
      "Ġcircum": 9223,
      "Ġopposition": 9224,
      "ĠEntertainment": 9225,
      "Ġsimplic": 9226,
      "desc": 9227,
      "ĉĉĉĉĉĉĉĉ": 9228,
      "Ġnothing": 9229,
      "hop": 9230,
      "option": 9231,
      "Ġdashed": 9232,
      "multirow": 9233,
      "Ġhandle": 9234,
      "Ġvocal": 9235,
      "Hon": 9236,
      "oments": 9237,
      ")^\\": 9238,
      "ported": 9239,
      "lywood": 9240,
      "rating": 9241,
      "zon": 9242,
      "irty": 9243,
      "ods": 9244,
      "idal": 9245,
      "NO": 9246,
      "Ġseparation": 9247,
      "comput": 9248,
      "bp": 9249,
      "Ġcrossing": 9250,
      "Ġcritics": 9251,
      "ĠMach": 9252,
      "Ġcorrection": 9253,
      "ribed": 9254,
      "engers": 9255,
      "rangian": 9256,
      "disambiguation": 9257,
      "ocket": 9258,
      "zi": 9259,
      "since": 9260,
      "ĠHop": 9261,
      "ocese": 9262,
      "Ġisot": 9263,
      "Ġbudget": 9264,
      "Plot": 9265,
      "Ġultimately": 9266,
      "ĠKentucky": 9267,
      "Ġsupporting": 9268,
      "1905": 9269,
      "ĠServices": 9270,
      "./": 9271,
      "okes": 9272,
      "Äĥ": 9273,
      "RL": 9274,
      "ĠKitt": 9275,
      "Ġassuming": 9276,
      "Ġsixth": 9277,
      "{|": 9278,
      "Ġsure": 9279,
      "hent": 9280,
      "Ġmolecular": 9281,
      "Ġanimals": 9282,
      "ĠAlbert": 9283,
      "Sm": 9284,
      "Ġcancell": 9285,
      "^*\\": 9286,
      "Ġeffectively": 9287,
      "isor": 9288,
      "ounded": 9289,
      "oa": 9290,
      "ĠSC": 9291,
      "Ġcoaches": 9292,
      "Ġwavel": 9293,
      "pers": 9294,
      "ĠConnect": 9295,
      "Ġdecor": 9296,
      "....": 9297,
      "Ġbench": 9298,
      "~(\\": 9299,
      "\\%$": 9300,
      "Ġdominated": 9301,
      "adding": 9302,
      "ructions": 9303,
      "Up": 9304,
      "Ġphases": 9305,
      "Ġdeveloping": 9306,
      "1906": 9307,
      "Ġbreaking": 9308,
      "ĠSri": 9309,
      "Ġsettings": 9310,
      "Her": 9311,
      "ouses": 9312,
      "igenous": 9313,
      "equations": 9314,
      "large": 9315,
      "ĠGa": 9316,
      "ĠLic": 9317,
      "empty": 9318,
      "clip": 9319,
      "AE": 9320,
      "vals": 9321,
      "Ġdetector": 9322,
      "Ġclin": 9323,
      "eral": 9324,
      "PO": 9325,
      "Status": 9326,
      "Ġfestival": 9327,
      "ĠChannel": 9328,
      "Ġdiscrim": 9329,
      "icut": 9330,
      "Ġauthority": 9331,
      "oking": 9332,
      "1907": 9333,
      "Ġrestricted": 9334,
      "Do": 9335,
      "Ġoccasion": 9336,
      "Life": 9337,
      "Ġcircuit": 9338,
      "Mult": 9339,
      "Ġcoupled": 9340,
      "ĠEmperor": 9341,
      "hl": 9342,
      "Ġjudge": 9343,
      "ecutive": 9344,
      "ĠReal": 9345,
      "ologists": 9346,
      "homa": 9347,
      "Ġlect": 9348,
      "1909": 9349,
      "Ġdominant": 9350,
      "Ġcooper": 9351,
      "irical": 9352,
      "Ġattempted": 9353,
      "Ġpolarization": 9354,
      "Ġjump": 9355,
      "Style": 9356,
      "uj": 9357,
      "ugin": 9358,
      "ĠZh": 9359,
      "ĠChristmas": 9360,
      "ĠBat": 9361,
      "close": 9362,
      "Ġdepict": 9363,
      "Ġbuff": 9364,
      "rl": 9365,
      "Ġatoms": 9366,
      "Ġinsert": 9367,
      "$}}": 9368,
      "ĠRoy": 9369,
      "ĠGreece": 9370,
      "oton": 9371,
      "Ġaffect": 9372,
      "ĠNorwegian": 9373,
      "wick": 9374,
      "glas": 9375,
      "Ġenjoy": 9376,
      "\\|\\": 9377,
      "rations": 9378,
      "ante": 9379,
      "description": 9380,
      "Ġdatabase": 9381,
      "Ġheadquarters": 9382,
      "ĠSky": 9383,
      "wich": 9384,
      "ĠMult": 9385,
      "tains": 9386,
      "DC": 9387,
      "ĠEth": 9388,
      "owski": 9389,
      "onder": 9390,
      "Ġfeet": 9391,
      "Ġfighting": 9392,
      "lahoma": 9393,
      "uns": 9394,
      "Ġstands": 9395,
      "ĠTokyo": 9396,
      "Moreover": 9397,
      "Ant": 9398,
      "ĠEarl": 9399,
      "Ġargued": 9400,
      "negative": 9401,
      "Ġessentially": 9402,
      "Ġpainter": 9403,
      "ĠMonte": 9404,
      "Ġvariations": 9405,
      "Ġdivers": 9406,
      "ĠSimon": 9407,
      "Ġtreated": 9408,
      "Ġcharts": 9409,
      "Ġspot": 9410,
      "risis": 9411,
      "instein": 9412,
      "ĠDomin": 9413,
      "Ġperiodic": 9414,
      "Ġtrying": 9415,
      "Ġgetting": 9416,
      "Ġnob": 9417,
      "ECT": 9418,
      "ĠBalt": 9419,
      "Arch": 9420,
      "Ġstochastic": 9421,
      "Ġgeometric": 9422,
      "notag": 9423,
      "ĠMicro": 9424,
      "Ġconservation": 9425,
      "sole": 9426,
      "Ġkin": 9427,
      "ĠTurn": 9428,
      "img": 9429,
      "Ġvide": 9430,
      "ĠEP": 9431,
      "ĠTan": 9432,
      "ĠIowa": 9433,
      "1890": 9434,
      "kl": 9435,
      "ĠAuthor": 9436,
      "160": 9437,
      "roit": 9438,
      "Ġeconomy": 9439,
      "Ġexpressions": 9440,
      "Ġstorm": 9441,
      "Ġdecrease": 9442,
      "Return": 9443,
      "ĠUl": 9444,
      "Ġsustain": 9445,
[...]
