#version: 0.2
Ġ Ġ
Ġ t
i n
Ġ a
h e
e r
o n
r e
Ġt he
ĠĠ ĠĠ
a t
e n
o r
Ġ s
a n
e s
i s
i t
a l
Ġ o
Ġ w
e d
Ġ c
a r
Ġ f
n d
in g
Ġ p
Ġ b
Ġ in
Ġo f
i on
i c
a s
o u
l e
Ġa nd
Ġ m
r o
Ġt o
Ġ d
en t
Ġ h
i l
s t
c t
Ġ S
e t
e l
o m
ĠĠ Ġ
a m
Ġ re
Ġ C
Ġ T
Ġ A
Ġt h
ĠĠĠĠ ĠĠĠĠ
Ġ n
Ġ l
o l
i d
Ġ (
â Ģ
u r
a d
a c
Ġ M
Ġ e
i g
o t
at ion
u t
i v
i m
Ġ I
Ġ g
u s
a y
Ġ is
Ġf or
Ġ P
Ġ B
l y
er s
Ġ on
o w
c e
c h
i r
u l
u n
e m
t er
Ġb e
a g
Ġs t
Ġ H
it h
2 0
Ġ R
Ġ D
o d
i f
s e
is t
Ġ F
Ġa s
t h
u m
Ġ v
Ġ L
he r
Ġw ith
Ġw as
1 9
Ġth at
a v
Ġ W
an d
a b
es t
Ġ N
ĠĠĠĠ ĠĠĠ
a p
Ġ G
at e
v er
o p
Ġa l
Ġc on
ĠT he
o c
Ġa n
r i
Ġ E
e w
p e
Ġw h
ro m
q u
re s
Ġ it
a in
h t
Ġ =
Ġa t
Ġb y
o s
es s
Ġ J
il l
Ġp ro
or t
Ġ r
Ġ he
Ġd e
ĉ ĉ
ou r
Ġ y
it y
Ġc om
< /
u b
Ġ O
ar t
o re
a k
en d
= "
ct ion
Ġ "
u p
al l
Ġf rom
) ;
i es
Ġs e
l d
as s
âĢ Ļ
Ġ or
Ġe x
n t
am e
m ent
' s
an t
Ġa re
- -
p t
u d
Ġ {
Ġ $
iv e
u e
e x
ar d
o g
Ġ U
in e
ig ht
Ġ âĢ
Ġ <
ag e
p l
b er
ac k
Ġ K
i al
u re
Ġc l
20 1
u st
i a
o v
g e
e ct
/ /
Ġc h
r a
ĠĠĠĠĠĠĠĠ ĠĠĠ
ĠS t
T he
i p
p ort
r ou
an s
. .
Ġ \
Ġth is
Ġp l
el l
as t
Ġ *
Ġs h
ar y
at ed
c l
av e
č Ċ
ic h
e f
0 0
Ġt r
o st
k e
i z
ou t
Ġn ot
Ġ le
a re
on g
e ar
ul t
ĠI n
p er
i re
Ġh is
f f
i an
or d
Ġ us
o k
Ġ V
ic al
c on
or m
Ġw e
Ġ Ċ
Ġ }
ur n
or k
ic e
ig n
id e
u c
ab le
ĠC h
) ,
at h
ou ld
" >
om e
in d
Ġh ave
er e
ion s
e p
Ġ j
Ġcom p
Ġh as
ac e
Ġ k
Ġy ou
r y
in t
Ġin t
t her
Ġa b
s o
Ġcon t
is h
e g
an g
20 0
im e
Ġ -
ou s
i le
Ġw he
Ġre s
it e
Ġwh ich
i b
as e
m er
en c
Ġ un
er v
en ce
ĠĠĠĠĠĠĠĠ ĠĠĠĠĠĠĠĠ
a ct
g h
ex t
Ġal l
Ġa d
I n
ation s
en s
Ġw ere
) .
ou nt
or y
Ġa r
e c
ĠĠĠĠ Ġ
u nd
ub l
t r
Ġ |
Ġc an
on e
e v
a il
an ce
it ion
* *
Ġ if
Ġb ut
ter n
ĠT h
1 8
il d
c om
r u
Ġa p
l i
Ġ &
o b
ow n
t urn
Ġthe ir
Ġcl ass
res s
Ġn ew
ac h
Ġ im
g et
Ġal so
r ic
ir st
Ġ '
f orm
ou nd
ent s
l l
Ġwh o
Ġ Y
Ġa c
f er
Ġg o
Ġo ut
r it
Ġon e
y pe
k s
al ly
âĢ Ŀ
Ġ up
s p
re e
od e
p ro
he d
o ok
or s
on t
Ġw ill
Ġh ad
ĠH e
n e
u g
ĠU n
( )
j ect
t e
= =
Ġs c
Ġd o
Ġp art
-- --
at a
Ġthe y
f t
Ġp er
am p
ĠI t
ar k
Ġ her
ubl ic
ro w
1 0
Ġd is
Ġm e
ĠâĢ ĵ
ak e
Ġit s
at es
Ġ en
f ter
Ġa g
w o
Ġm an
Ġpl ay
ol l
Ġt e
s s
a w
n g
p h
o ol
er t
at er
Ġe v
ing s
ol d
{ \
Ġf irst
cl ud
Ġm ore
el y
Ġy ear
âĢ ĵ
o se
Ġo ther
i e
Ġs p
ation al
c ess
Ġp re
oc k
u ch
Ġbe en
ri b
Ġ| |
Ġre turn
Ġw ork
r ing
m an
w e
is s
re f
op le
Ġs o
i ew
Ġo ver
ĠA r
an c
ĠĠĠĠĠĠĠĠ ĠĠĠĠĠĠĠ
le ct
el f
Ġab out
Ġ ro
Ġ qu
ic k
ay s
19 9
ĠâĢ ľ
ul l
er y
Ġp e
o y
on s
l es
ad e
l and
on d
Ġd es
pe c
i o
i el
Ġ [
al s
Ġre c
ig h
Ġt ime
s h
en er
et h
em ber
al ue
S t
Ġof f
Ġp r
m s
Ġt wo
y st
us e
r ap
" ,
Ġcom m
it ed
Ġl i
or n
d u
o ver
ic s
Ġn e
Ġ //
Ġint o
p s
E x
in k
iv ers
r am
un ction
i ed
Ġw ould
Ġwhe n
o int
mer ic
re at
ic t
ĠC om
v el
a id
Ġin clud
1 2
s c
Ġ und
ĠN ew
our ce
enc es
Ġs he
- >
Ġbe c
re d
o ot
in al
p r
as ed
i x
Ġg et
w ard
Ġk n
iel d
ĉĉ ĉĉ
Ġin d
Ġas s
u al
rou nd
v e
Ġ </
_ {
Ġde f
i ous
pt ion
Ġa fter
: :
pe ct
t t
ol og
a x
Ġth an
Ġthe re
ĠM ar
Ġs et
or ld
Ġs up
Ġa ct
Ġpe ople
Ġs ome
o od
.. /
iz e
Ġin ter
ur ing
Ġb et
ĠS e
Ġ @
Ġ /
yst em
Ġan y
p ar
y s
Ġf il
Ġat t
if ic
e b
am es
id ent
Ġp ublic
1 5
w n
Ġon ly
1 6
re n
Ġ .
Ġf l
ĠA l
ov e
1 7
Ġund er
Ġre g
an n
Ġo p
le t
Ġb l
Ġn ame
at ive
Ġf e
Ġc ol
em ent
Ġb u
t y
p os
Ġ +
al e
Ġthe m
p ut
ch ool
it ies
a h
Ġo b
ĠP ro
19 8
Ġn o
le ment
ul ar
Ġa m
Ġs erv
is e
at ing
rou gh
ĠA meric
Ġs ub
Ġad d
Ġ end
R ef
t he
m l
rou p
ĠS h
Ġwhe re
a z
Ġh im
ou gh
Ġcon s
c he
ĠTh is
Ġs aid
Ġin v
t s
c re
as h
Ġp ol
Ġl oc
Ġ$ \
an ge
Ġv ar
ot h
il y
o h
( "
ess age
1 1
ar g
t on
c ent
Ġtr ans
Ġre l
as on
( );
n c
ist s
s et
con d
is hed
Ġm od
oll ow
in s
ap p
a ir
ow er
if e
Ġli ke
Ġm ost
Ġy our
ire ct
.. .
i ent
Ġo ur
g an
res ent
Ġre m
Ġm ay
at ch
r al
is ion
T h
Ġb ack
Ġpro v
ar s
er r
at t
u es
um ber
Ġe m
it t
Ġcon st
Ġst ud
h ip
Ġth rough
e e
in ce
Ġyear s
m ath
an k
d er
Ġp os
it s
E R
m in
d iv
u res
Ġp h
Ref er
Ġs pec
' ,
Ġag ain
sp an
we en
ut ion
Ġc o
en g
1 4
1 3
Ġthe n
n ing
b all
Ġf unction
ĠT r
o id
o x
> </
Ġin st
ivers ity
m a
a use
Ġj ust
19 7
d uc
rap h
Ġwh at
Ġs uch
Ġc all
---- ----
Ġ ent
at or
ĠC l
oc i
at ic
r ay
Ġ :
t o
Refer ences
el s
w ay
i er
c c
ke y
Ġd if
ĠA n
ra ct
or th
in es
ou se
Ġsh ow
Ġfor m
Ġus ed
Ġ Z
a u
et er
r ight
il ity
P ro
Ġbet ween
an y
em b
Ġh ow
Ġm y
c k
Ġe ver
3 0
ou th
e ad
ot her
le ction
ut e
e qu
ers on
n er
Ġw ell
l ine
ib le
ru ct
ur y
Ġf ollow
> <
f l
** **
Ġg r
ut h
ĠI nd
I N
f ig
he n
o ad
at ure
y m
re nt
: //
s on
C h
O N
} }
v ent
l ed
2 5
Ġ* /
t ext
Ġar t
i k
../ ../
ĠS c
p on
Ġd ata
Ġd ist
Ġs er
tern al
er n
Ġbe ing
' t
a j
ic es
Ġres ult
ag es
us s
Ġ #
== ==
Ġthe se
Ġ Q
Ġf ound
Ġc ent
im es
Ġus e
Ġ ed
Ġte am
re ad
19 6
^ {
Ġre qu
2 1
Ġl ine
Ġac c
Ġc ould
Ġch ar
f ore
ĠF r
Ġ el
Ġm ade
ĠC ol
e y
d ay
Ġs ur
f r
c ol
ĠW h
ĉĉ ĉ
ĠD e
ht ml
Ġe ar
id er
ar ch
b le
Ġst art
Ġf am
ĠAmeric an
Ġc ur
is m
eth od
. "
Ġs ign
Ġd uring
at her
e ver
iv ing
iv es
th is
t en
ĠĠĠĠĠĠĠĠ Ġ
ment s
2 2
S tr
Ġs m
r on
Ġc ount
Ġman y
ĠĠĠĠĠĠĠĠ ĠĠĠĠĠĠĠĠĠĠĠ
Ġg ener
Ġc re
iz ed
00 0
Ġth ree
Ġs ystem
Ġex t
et s
ĠUn iversity
ant s
( '
Ġo wn
Ġt ype
Ġbe fore
us ic
Ġm ed
w w
in a
Ġl ong
iv er
Ġm in
ĠC on
ak ing
Ġh ref
t ain
ĠA d
ĠL e
f ul
b y
ĠI s
Ġh igh
v iew
Ġle ad
o f
) )
Ġn ow
Ã ©
Ġe ff
Ġ est
ĠF or
ire d
Ġwh ile
Ġne ed
Ġse cond
Ġd id
} \
p le
ri pt
Ġg u
ĠUn ited
5 0
Ġdif fer
Ġm on
t ing
ĠS p
C om
ĠW e
Ġ i
_ _
olog y
Ġp ar
ĠB l
Ġre le
Ġst r
Ġse e
vel op
} $
R E
in ed
oh n
ab el
Ġn umber
N ame
Ġv alue
le y
Ġr ight
ĠE x
s ource
ac he
g ram
Ġex p
ĠS he
ĠP h
ĠA s
ĠA nd
Ġd r
o ber
S T
tr ans
n ame
Ġde c
Ġde velop
Ġm ov
Ġp oint
pl ic
m essage
Ġs im
i ence
A T
I t
y le
Ġb r
en n
T ype
Ġb oth
Ġo per
od y
t d
l ation
u ff
um ent
a f
Ġever y
Ġw rit
ur al
ro ss
2 4
un e
ce pt
ĠCom m
Ġsh ould
ist ory
iv ed
ion al
Ġm ake
C on
are d
om en
ĠE ng
ot t
it le
is ter
im port
Ġr un
Ġb el
Ġs ame
o le
Ġd irect
Ġs ing
ĠP l
as k
Ġf in
ĠM ay
du ct
I d
Ġsup port
Ġbec ause
Ġhe l
19 4
Ġev en
s elf
Ġl ist
A r
ers ion
b r
al se
Ġe ach
par am
âĢ ľ
Ġkn ow
u ally
C ont
ch n
in ks
it al
Ġre ad
Ġs elf
Str ing
form ation
ou nc
C l
al th
Ġagain st
Ġre p
Ġl ast
an e
u ro
Ġp op
ab l
Ġw orld
a ult
Ġc ar
20 19
A R
ical ly
ad d
Ġc ap
es c
in ess
ht t
t il
ric t
. âĢĿ
ĠâĢ Ķ
201 8
Ġrec ord
Ġv ery
Ġfil m
ction s
ĠO n
or g
c es
oot ball
t a
y n
ce ption
Ġbu ild
y p
Ġ= >
Ġd own
Ġst ate
Ġinclud ing
eg in
ot e
ar m
re turn
Ġw ay
w ork
2 3
b ack
ĠR e
ĠP r
Ġs chool
ro l
Ġper form
R es
ĠB r
Ġl ook
e k
g y
iv ate
Ġt er
ĠO r
Ġs l
O R
Ġdis c
ain s
Ġh and
( \
a i
al k
Ġt est
Ġdo es
Ġg ame
Ġm ain
iss ion
} ,
en se
Ġap pe
ĠSt ates
ĠJ ohn
Ġf our
th s
/ >
re am
Ġap p
b l
Ġse ason
og raph
Ġplay ers
Ġch ild
st r
cl ass
Ġl ife
ĠC ount
L ist
Ġop en
ro p
ir d
n ment
g ht
Ġcomm un
d d
Ġth ose
Ġex per
i ev
Â ł
at s
Ġdes c
) :
iv en
Ġc ase
v en
. ,
Ġcont in
ĠC ar
Ġc are
Ġp ass
d ef
Ġ !
m p
T r
c ode
E N
Ġre port
Ġhe ad
e le
Ġgo ver
u le
Ġde p
b egin
u ly
et y
Ġm uch
ak es
re m
i um
if ied
us iness
m ed
b um
Ġpart ic
Ġc or
Ġl ater
Ġan n
Ġim p
tern ational
uc k
# #
Ġap pro
enc y
iz ation
r ist
Ġdiffer ent
al ity
ĠW orld
re en
er man
Ġdes ign
19 5
Ġv al
ial ly
m y
i or
Ġc he
Ġl inks
f o
Ġb ook
Ġa v
ĠA ss
ur ch
ĠY ou
ag ue
" />
p ed
ĠC an
201 7
o ard
qu e
Ġf inal
n ess
O n
ĠJ an
b s
Ġgo od
ĠC ent
201 6
g er
c o
Ġkn own
are nt
Ġre ce
Ġg roup
am b
v al
t ype
2 6
Ġp erson
ĠN ational
Ġ _
Ġa round
A L
Ġw in
" .
ul ation
amp le
c al
Ġs ince
p or
Ġor ig
ĠA ll
2 8
ĠA ust
ĠU S
Ġm et
Ġp res
Ġf ind
Ġst ill
Ġc r
uth or
Ġ X
I D
ĠG r
Ġus ing
Ġser ies
s ide
emb ers
i ans
ĠR es
2 7
it ions
uc cess
ĠN ov
Ġpro gram
ĠH ow
Ġfam ily
os s
Ġg l
ĠY ork
Ex ternal
Ġ >
Ġs ol
ĠW ar
trans lation
Ġcur rent
um m
Ġto p
Ġb ro
Ġc our
Ġd on
i am
201 5
is ed
m od
Ġm ark
f or
Ġv oid
ain ing
av ing
_ {\
l er
Ġd ay
1 00
Ġw ant
le ft
Ġtr ue
Ġv is
201 4
Ġe qu
ac es
ĠThe y
Ġhe re
Ġpro f
ĠM an
Ġm usic
A S
Ġpl ace
Ġpol it
us h
as es
Ġf r
if y
Ġ= =
s er
le x
ar get
Ġfollow ing
l oc
ĠS chool
Ġf act
Ġim port
Ġp ost
b e
le ar
Ġpro cess
Ġor gan
ĠA ug
pl ay
ow s
) $
Ġn ull
ro ll
ir c
L E
id ed
A N
re g
per ty
Ġsm all
Ġchar act
Ġt ake
c ur
id es
2 9
u ild
ĠO ct
ill ion
Ġoff ic
Ġe lect
um n
Ġl aw
Ġev ent
} {
Ġal bum
u ary
ot s
our n
Ġs om
ar n
aj or
Ġf ield
U n
4 0
Ġse ver
en e
Ġth ink
Th is
ĠA t
in c
as ter
Ġcall ed
ĠB e
Ġb re
ĠP ar
eng th
b ar
end s
p re
Ġel se
ward s
ĠB rit
Ġun til
Ġor der
Ġf ootball
ĠA pr
pon se
v ar
du ction
A n
Ġ )
Ġin formation
y l
ĠCount y
Ġp at
r ation
T o
ĠMar ch
201 3
201 0
ĠP ol
op e
ĠS outh
id th
Ġloc al
Ġp ower
Ġb est
om an
id d
Ġst at
Ġre f
Ġp resent
Ġs ong
Ġm ar
ĠJ uly
Ġd el
W e
ĠB ut
pt ember
v ious
Ġ --
201 2
Ġh ome
W h
19 3
ĠJ une
ang u
Ġn on
Ġest abl
op t
Ġd et
port s
um b
Ġeff ect
Ġst and
et a
rib ut
, âĢĿ
he s
av a
Ġad v
err or
ĠT e
Ġle ft
ain ed
Ġo ld
Ġre st
ĠE uro
iv al
Ġare a
am ed
Ġ ke
l ess
ar ge
Ġde ath
201 1
ĠI f
Ġle g
Ġpro t
" )
f ace
ol v
l abel
he re
al es
ĠF l
A s
Ġm ethod
Ġbec ame
ri ed
ĠA m
ra w
end ed
Ġis s
Ġhel p
at ely
iv ely
con t
et work
is on
"> <
Ġin cre
ĠM in
ĠâĢ ĺ
Ġf alse
g r
H e
Ġp rom
un g
fer ence
Ġn ear
Ġle vel
B y
ri es
Ġb ased
âĢ ¦
Ġpos s
âĢ Ķ
um p
Ġ x
ĠG u
duc ed
Ġn ext
ĠC o
Ġan other
it or
Ġex pl
Ġ `
ĠG e
I T
oc ial
r m
er ing
on y
r or
Ġs ay
ĠAug ust
ord s
Ġb ir
ĠSt ate
Ġman ag
ĠA p
n ew
ne y
f ield
m e
Ġm at
ĠApr il
Ġg reat
ect ed
erv ice
a im
ĠC ity
le ge
C ol
ĠSe ptember
Ġd em
Ġcons ider
l ing
um an
Ġre al
he ad
m ber
fr ac
Ġpr ivate
il t
Ġpro ject
Ġen g
ore d
ou ght
A l
ĠE d
ist or
ĠĠĠĠĠĠĠĠĠĠĠĠĠĠĠĠ ĠĠĠĠĠĠĠ
ac y
Ġte chn
ĠOct ober
le g
ĠC al
ĠJan uary
Ġc ity
A C
Ġal ong
Ġcomp any
Ġw on
ur s
pl oy
Ġs k
g round
**** ****
ord ing
Ġgover nment
Ġwith in
ide o
S h
Ġl and
Ġin c
ap e
Ġo cc
ĠĠĠĠĠĠĠĠ ĠĠĠĠĠ
e q
n ot
ep end
-------- --------
u k
ĠN orth
Ġw omen
ce mber
il it
Ġt itle
Ġ id
b ject
ĠM ed
ĠF eb
ent ly
Ġb usiness
ain t
g in
er ed
ĠG erman
o ff
Ġsever al
Ġg iven
st ring
ĠAust ral
Ġre t
ĠW ill
Ġs pe
Ġf ew
Ġs uccess
Ġm ust
s ub
" );
d ata
E S
am ent
Ġear ly
ĠR eg
3 2
Ġex pect
it er
w ays
u ed
ĠEuro pe
v ers
ap t
Ġfor mer
l ish
ĠN o
ou n
ĠCh rist
or ies
Ġdesc rib
200 9
Ġob ject
re qu
ir on
D ata
t ime
d ate
V alue
se arch
her n
ĠR ep
Ġwith out
che s
em s
ic le
oc ument
amp ions
Ġm embers
6 0
a e
Ġst ring
Ġt urn
un c
ĠNov ember
Ġ key
ĠM c
ra ft
itt le
ĠA f
us ed
v alue
ail able
ĠA ir
com m
F or
Ġp ubl
ition al
con om
ĠH ar
ru ary
ĠA b
w it
Ġo pt
200 8
l oad
Ġv iew
Ġ z
ur ther
Ġm ajor
Ġinter est
Ġbe h
ĠB ar
) );
Ġinv est
ĠDe cember
ad a
ac ed
I nd
anc es
ab ility
Ġa ut
Ġp o
Ġ ,
Ġin it
S c
ĠP art
ro id
in ation
h am
ate g
st it
Ġch ang
n b
htt p
ĠThe re
Ġs ays
Ġl a
ure d
le v
Ġserv ice
i od
an a
Ġsing le
Ġplay ed
ri ption
ent ial
I C
Ġwe ek
8 0
Ġcomp et
on es
Ġsh ort
ent ion
Ġt em
Ġm ult
Ġrep resent
a ction
ĠĠĠĠ ĠĠ
r is
Ġst ruct
ord er
al f
re w
// //
Ġrele ased
Ġall ow
Ġde v
ust om
Ġinclud e
w are
ard s
A M
E C
a ut
angu age
g o
S e
ap an
a ff
Ġg row
Ġw ar
os p
w h
Ġgo ing
Ġar g
ar i
ĠK ing
Ġto o
Ġc amp
Ġchild ren
b ut
$ .
S et
} )
Ġ/ **
Ġl arge
ĠS up
c ite
E r
Ġmod el
ight s
Ġst ory
200 7
ver t
ĠI I
our ces
ww w
ĠFeb ruary
ĠD r
Ġ Â
Ġ ident
b f
Ġto ok
| -
Ġw ater
i et
==== ====
Ġm en
E D
st er
col or
il ar
ĠE l
our s
Ġin s
z e
um er
Ġact iv
p x
d a
Ġd ue
nb sp
ĠBrit ish
ĠW est
re et
Ġa ff
umm ary
ĠT o
Ġf ull
3 3
$ ,
op y
Ġan al
if t
Ġh tt
in o
Ġne ver
Ġre ally
ograph y
ĠĠĠĠĠĠĠĠĠĠĠĠĠĠĠĠ ĠĠĠĠĠĠĠĠĠĠĠĠĠĠĠĠ
ab ly
art ment
ific ation
] ;
ĠH er
Ġtr y
it ive
al d
ress ion
ag n
Ġh istory
st and
Ġcon d
ond on
( $
Ġ et
og le
Ġf ore
end ing
r ite
Ġp ut
Ġl im
Ġcount ry
a ul
in ter
Ġj o
em pt
l og
ĠE n
Ġp ort
ob al
ur g
c ed
ic y
Ex ception
ĠP res
Ġpro ble
P h
Ġh ouse
lect ed
Ġh app
Ġres p
i ke
Ġb and
c ast
ap s
6 4
Ġto wn
Ġ& &
ert ain
200 6
Ġa ir
Ġst yle
Ġcon f
Ġs ide
b orn
ad em
ĠA fter
g est
il le
Ġg ames
Ġcharact er
il es
Ġcont rol
ĠHow ever
ed er
re t
ĠR uss
Ġav ailable
a it
ĠH is
i ef
ĠAr t
Ġl ess
G et
Ġst atic
Ġle t
ĠLe ague
equ ation
Ġto t
Ġb ig
Ġm ember
ph a
, "
iv id
op h
ren ch
v iron
ĠA g
P l
u f
E T
ib r
Ġa uthor
} .
es e
Ġr ad
Ġe p
at ors
Ġ// /
Ġvar i
Ġhe ld
ol ution
Ġf ive
Ġcomp let
um e
] ,
Ġc rit
C O
Ġc ell
' )
I S
is ing
Ġs it
R e
Ġc a
ampions hip
is c
ail s
Ġf ri
pos ed
Ġv ersion
t est
Ġb o
d e
Ġe lement
id ge
Ġcare er
N ot
ĠD av
con st
Ġt yp
it her
ĠG l
Ġac cess
s k
Ġcl os
ĠAf ric
Ġl arg
loc ation
Ġs ize
U S
Ġt ri
Ġch ange
A P
ĠH ouse
ĠM e
.. ..
f ile
ĠC he
re st
ĠSt ring
S ee
19 0
o on
th ing
T est
Ġprof ess
ag er
op s
O bject
Ġqu est
Ġed uc
Ġf ac
ĠS er
ru ction
R O
M od
b b
ĠP er
Ġk ill
9 0
ĠL ondon
, \
Ġpro duct
ounc il
ut il
Ġe as
sc ript
at ures
P ar
ĠC or
ater ial
20 00
V iew
Ġt ext
3 5
Ġs ix
Ġm illion
Ġc over
I m
Ġc ult
Ġ! =
Ġ ide
Ġex ample
it em
3 1
al ign
ing ton
L L
ĠO ff
Ġ %
d om
n a
ĠA c
Ġbe gan
ru g
Ġstud y
Ġd i
s ize
eth ing
ĠJ apan
ap er
( ).
Ġyou ng
one y
Ġf ree
Ġpre vious
Ġth ird
r c
ĠEng lish
i que
l ist
ut ure
ĠCh ar
A p
Ġv ol
ĠR ec
Ġt imes
th ough
N ew
Ã ¡
row n
Ġimport ant
am a
oci ation
Ġa ge
4 5
Ġn ational
Ġar r
ĠS ch
i ol
Ġd ays
Ġan t
Ġb as
Ġcommun ity
ĠCom p
ĠC ont
i ents
ĠR ev
read y
Ġper iod
ĠP ark
f ord
Ġtr ack
Ġg ot
Ġof ten
Ġf ile
e ople
Ġpos ition
ĠQ u
Ġh aving
A ll
math cal
} (
Ġrece ived
ĠH igh
Ġn amed
um mer
Ġbet ter
A meric
ir l
Ġcl aim
Ġhe alth
ĠB y
al t
Ġfil ms
ĠD ist
Ġcont ent
] .
Ġ enc
Ġt arget
im ate
Ġresult s
Ġcl ub
Ġspec ial
Ġh ard
Ġam ong
() );
Ġrequ est
at us
Ġcom e
ul es
s erv
ĠW ith
200 5
ĠI m
im ent
ir t
Ġc ame
s w
ak en
t op
rib ute
Ġbec ome
ab or
I ON
M an
o ice
v es
Ġro le
Ġor g
Ġd iv
viron ment
b ox
f unction
ĠA ct
ĠB ro
Cl ass
7 0
ev el
pl es
er a
Ġorig inal
Ġgener al
ĠO ne
ict ion
am s
O r
ĠL a
ip s
ĠCol lege
Ġbuild ing
od es
Ġof fer
ilit ary
Ġatt ack
Ġdevelop ment
Ġm ight
Ġg en
et ers
ear ch
in clud
Ġcon c
W ith
oc r
cent ury
Ġs ite
Ġh old
Ġph ot
Ġl ittle
Ġtr ad
Ġc ost
A nd
ĠA ng
g ed
ĠĠĠĠ Ċ
Ġh ig
. _
Ġp ract
Ġre fer
Ġbir ths
h old
ens ion
Er ror
at ter
" ;
l ink
ec ut
n ers
Ġbu ilt
Ġh uman
Ġme et
end er
ourn al
ĠIn ternational
Ġke ep
ĠS w
Ġb ase
Ġs ocial
Ġpartic ular
Ġp ay
u it
p ublic
Ġcom b
Ġle ast
Ġv ill
id ence
att le
plic ation
ail ed
ĠWill iam
Ġm aking
if f
n ow
ener al
Ġf ar
Ġf und
Ġbel iev
ĠD ep
Ġa way
D E
Ġme an
ur ation
Ġtot al
per t
Ġal ways
Ġpop ulation
es tern
c her
og n
ĉĉĉĉ ĉ
y d
Ġind ust
Ġl og
Ġac ross
Ġre pl
r an
Ġbre ak
Ġpubl ished
Ġinv olv
ĠS m
ĠE m
j s
} ^
Ġn etwork
Ġcre ate
Americ an
Ġsom ething
Ġloc ated
Ġas k
ect or
l in
p en
Ġre search
20 20
Ġv ideo
ĠM ich
n av
p art
Ġe lection
Ġh ost
Ġme as
ĠPh il
ĠS o
Ġto get
ĠW hen
Ġtoget her
rou ps
nd er
u x
Ġmark et
Ġre view
p ath
ind ex
ip p
oci ety
. </
ric k
and s
com p
Ġsim ilar
e h
Ġsp ace
Ġwork ing
m ost
Ġappe ar
Ġim pro
i us
et t
d is
p ly
olog ical
[ '
el ta
Ġplay er
ĠTh at
9 9
Ġal ready
ĠS ystem
as c
200 4
K ey
Ġex ist
o or
Ġl ight
ic ro
g ress
Ġth ings
Ġl ow
al pha
Ġstart ed
Ġestabl ished
Ġinclud ed
a el
" :
ĠAmeric a
Ġp ast
Ġw ent
ĠPres ident
b ook
Ġp ri
ac hed
Q u
} _
Ġp ot
i j
Ġp ath
re l
au gh
I s
Ġcomm on
p ace
ĠF rench
min ist
oc us
Ġstr ong
if orn
s ummary
Ġth ough
Ġind ivid
Ġstud ents
ur l
om in
R equ
Ġs ent
h ib
ill s
Ġe conom
Ġst ation
Ġb ody
y ear
Ġc lear
ack age
htt ps
Ġt ra
o e
un ic
Ġf urther
Ġ ?
Ġli k
Ġm iss
ĠS an
B C
b ol
I nt
Ġm atch
Ġserv ices
u el
Ġar ch
Ġdescrib ed
u ation
Ġpoint s
A D
ess ion
Ġres pect
Ġann ounc
ag s
"> </
Ġin fl
iforn ia
Ġl ove
or ge
I G
le te
op er
3 4
ar a
ad es
ic a
Ġcent ury
3 6
7 5
Ġa ction
Ġab le
av el
' );
B l
ay er
u i
Ġint ro
o o
Ġev ents
Ġd est
ct or
Ġem ploy
Ġsign ific
ign ed
Ġs ug
Ġab ove
~ \
Ġfe ature
Ġfe el
A t
U T
ĠIt al
Ġw ind
Ġmed ia
Ġth row
Ġs w
ĠM on
ag ed
f in
Ġposs ible
Ġd ou
U R
ist ic
O T
ĠG o
er m
Ġt w
F ile
ud e
Ġcre ated
g l
Ġpl an
Ġprov ide
ur b
Ġoffic ial
Ġh alf
id s
Ġd eter
re c
w idth
ic o
ĠThe se
( ),
amb da
Ġl ive
T R
itt ed
Ġother s
ĠN ot
Ġl ot
Ġse en
om b
m en
ell ing
I f
ys is
ĠInd ia
ĠSt ud
Ġth ought
Ġspec ies
Ġb orn
ĠInd ian
n o
ir m
T ime
3 8
Ġpr im
it ing
ĠM y
D ef
Ġadd ress
A dd
Ġrel ations
à ¤
Ġon ce
ĠV al
200 3
iv il
c er
l ang
idd le
um ents
ou d
Ġen er
Ġeng ine
Ġvar ious
Ġserv ed
av y
Ġwork s
Ġr ound
du ce
Ġc al
Ġwe bs
orm al
Ġm ot
ĠC up
re ed
en ed
E n
Ġpolit ical
em ents
IN G
ĠRep ublic
E vent
Ġt reat
Ġus er
Ġr ange
=" ../../
S S
Ġpro duction
ĠC our
Ġass ert
he l
ĠCal ifornia
Ġacc ount
ib ility
b or
Ġte lev
use um
d own
$ \
n ect
Ġs ound
se qu
av es
Ġal ign
Ġc oll
Ġm ass
Ġl ate
ic on
' ]
a ign
ĠS ec
B ut
Ġst ep
Ġm em
ĠNew s
Ġs on
Ġph ys
Ġg ive
Ġp arent
an ies
Ġn ight
land s
ĠDist rict
ip le
F orm
Ġwrit ten
ar ray
T ext
! --
ĠL ist
in n
t able
un k
m on
O ver
Ġre d
it te
Ġass oci
am ma
se e
Ġshow s
Ġr a
ak er
Ã ³
Ġsup er
s y
ĠAustral ia
Ġme ans
ix ed
Ġh istor
ĠM ark
Ġp ress
ann el
Ġ );
an ch
l im
ĠD em
Ġl ed
3 7
c hed
Ġche ck
Ġn ov
un ity
Ġf uture
Ġt re
F l
ly mp
is k
ĠCh ampionship
Ġs ource
ĠE ast
Ġe ither
0 1
b ody
m at
200 1
Ġd ocument
5 5
ish ing
ĠD on
Ġpar am
3 9
Ġperform ance
ĠEng land
Ġdisc uss
ĠR ed
st ate
h a
pos ition
Ġ/ >
id ing
ĠS en
Ġc ustom
Ġj ob
e ction
Ġtelev ision
cl us
ĠP at
a ur
Ġpro b
oy al
Ġd ied
200 2
4 4
ĠN e
Ġ err
Ġreg ion
rib ution
Ġm aterial
E lement
m et
c le
Ġcour se
I M
Ġres ponse
Ġbe gin
at ural
ef f
m d
p oint
Ġbl ack
ab les
ĠP ort
St ate
ro te
b t
Ġs ym
sh ip
as ing
Ġcomp os
se ction
Ġ error
m u
Ġannounc ed
In fo
Ġf em
Ġrequ ire
un ch
ibr ary
Ġf ather
in ary
F rom
Ġsignific ant
s l
o at
ĠI nt
Ġd one
Ġhow ever
Ġset t
Ġb i
Ġc ou
o ke
g roup
and er
ĠL aw
pert ies
Ġb ar
ĠĠ Ċ
ĠC ouncil
F il
Ġto day
ĠD es
Ġin ternational
Ġs old
Ġexper ience
Ġn orth
ver age
i ber
ĠSt reet
epend ent
Ġwh y
=" +
Ġsug gest
l ength
Ġen ough
ĠG over
ĠA nt
P ath
ok en
ĠCent er
qu ot
ĠD o
oc al
Ġk ind
Ġob serv
ĠDav id
w ith
Ġb en
Ġcomp ut
il ities
res p
ne ction
all s
Ġc reat
st ance
ĠR iver
Ġst op
18 9
) \
Ġnew s
6 5
Ġpres ident
ig ation
A d
Ġpartic ip
4 8
Ġa ud
Ġex c
Requ est
Ġan im
Ġmon ths
ic les
Ġ es
ĠU K
ri x
Ġro ad
Ġc ertain
ĠP al
ĠTr ans
Ġbl ock
Ġind ic
F ield
Ġg roups
us er
se c
f rom
ole an
Ġener gy
le ase
Ġep is
Y ou
The re
E qu
Ġm er
Ġpart y
F F
Ġpro perty
Ġcl ose
/ **
18 8
N ode
r ide
Ġrele ase
o res
i res
ĠJ ames
Ġt aken
= \
Ã Ń
Ġatt empt
ĠCan ada
it es
Ġter m
ĠB er
g es
i ation
Ġ( )
Ġorig in
qu ad
C H
O S
Ġhtt p
} ^{
p m
Ġc ode
Ġde al
Ġp age
ar ing
us ing
ut es
Ġm om
b oard
Ã ¼
ĠM al
Ġgr ad
/ *
Ġg round
ĠD iv
0 5
Ġfr ont
ag o
ĠM or
ĠP aul
ĠT V
Ġreport ed
Ġf ire
ĠEurope an
un t
v ille
Ġrequ ired
ce ed
n own
ig ma
Ġwebs ite
Ġfe atures
w here
ac ing
ap i
Ġdid n
Ġm akes
ĠH ol
er o
ay out
Ġc irc
ĠPart y
Ġmov ed
con fig
Ġs outh
' re
h at
Ġm ove
Ġa ward
v oid
wo od
r up
ĠB el
ĠR ober
ĠCh ina
() )
s m
Ġf av
at al
D e
Ind ex
Ġin f
it ect
Ġm ax
at form
ell ow
ĠBl ack
ra z
n es
Ġare as
ar ter
Ġint eg
Ġunder stand
is es
Ġs uff
A fter
F r
Ġprov ided
ec ess
Ġpop ular
Ġadd ition
at ory
Ġp ur
ĠIn stit
C C
Ġadd ed
Ġs af
Ġab s
y a
' :
ar ies
} ;
6 6
ĠTh om
Ġ\ \
Tr ans
b it
Ġs at
Ġval ues
Ġresp ons
Ġl anguage
i ers
ens ive
ĠCh urch
pon ent
Ġw rote
un n
Ġwhe ther
Ġm oney
} _{
med i
ott om
ĠF irst
Ġt able
ash ington
ro y
P r
Cont ext
M ap
Ġl ost
Ġv ia
Ġb it
g ing
B uild
ĠG eneral
ou l
Ġproble m
Ġwork ed
ĠG roup
in it
ames pace
id a
I L
Ġent ire
Con fig
0 7
iv ity
. )
` `
ĠFr ance
ĠS im
Ġv iol
ĠM r
Ġv ict
Ġdif f
ad ian
Ġbro ad
ĠF il
Ġvill age
an ks
et urn
Ġ Ã
ĠIn ter
Ġro om
20 21
ĠG et
U N
Res ult
itte e
Ġcomp anies
Ġy et
199 9
ĠR ich
Ġse par
Ġf ight
Ġconsider ed
Ġh on
199 0
p i
Ġcon fig
ab led
ch iev
Ġ ill
t es
Ġob tain
Ġsub ject
Ġc y
Ġar ray
ĠĠĠĠĠĠĠĠĠĠĠĠĠĠĠĠ ĠĠĠĠĠĠĠĠĠĠĠ
ĠS k
esc ription
H E
Ġ u
Ġre ason
r ad
Ġt alk
Ġc ross
Ġ Ð
c y
Ġm ilitary
Ġse x
Ġr out
Ġpro duced
A ss
l ight
Ġdef ault
ĠE ar
v ed
Ġv ot
p ose
Ġde g
ri an
Ġde cl
Ġrec ogn
ĠA ward
Ġc ut
Ġpro duc
oun ter
_ \
Ġcol or
Ġth ing
C T
ach ing
pro t
Ġ ...
Ġm ag
e al
im um
Wh at
g en
Ġcont ext
Ġf ood
Ġr ather
m it
Ġin j
Ġdoes n
H ow
b ased
ul ated
cc ording
ist ry
Ġre v
Ġ( !
Ġacc ording
A G
Ġt ell
Ġto ld
O M
Ġh om
Ġt ax
4 9
Ġac cept
w ord
com ing
A B
ol ic
Ġl o
at ives
ri p
N o
m ar
ort hern
ĠDep artment
ĠM art
ar row
A tt
cur ity
ĠWh at
I P
Ġper cent
Ġs ure
ĠQ ue
ad o
Ġcont ract
tr ue
Ġen vironment
S ervice
Ġimp lement
Ġright s
Ġcamp aign
cent er
ud d
Ġbel ow
Ġhim self
Ġd er
Ġm id
' ;
ĠF rom
ĠD an
Ġal most
P eople
in ing
c d
ĠGe orge
Ġm ale
Ġmon th
n s
Ġinfl u
l or
Ġeduc ation
el t
Ġ/ *
h o
ĠD ay
Ġdist rict
ĠM od
l t
ag ement
ap ache
Ġa verage
Ġbeh ind
m ing
Ġm essage
Ġst ar
res ult
ag ing
Ġinclud es
Ġ{ \
R ec
Ġim age
ov ed
ĠJ ust
Ġsystem s
d t
Ġ} );
eder al
it ar
Ġso ft
Ġse ction
O f
air s
ĠO lymp
v ersion
st on
ĠAss ociation
0 8
ĠF in
ug ht
Ġreturn ed
Ġn eg
Ġexpect ed
******** ********
out hern
Ġdirect or
4 7
S p
H and
osp ital
ob ject
Ġt our
Ġindust ry
ĠU p
ar r
Ġsuccess ful
Ġb ound
math bb
S er
Ġoff ice
ot o
Ġact ually
Ġle arn
S E
al a
ĠCour t
pec ially
Ġtr aining
L O
Ġperson al
p ite
ot a
t itle
as ons
and id
h ood
Ġter ms
- \
Ġquest ion
Ġf ig
S ize
pl ate
Ġin put
Ġpol ice
Ġd en
ig ital
Ġ ens
Ġm other
ĠM usic
ĠJ ack
p ing
199 8
[ ]
Ġdis play
^ {\
ĠH all
ĠD i
ĠFr anc
## ##
Ġd ate
il i
in put
augh ter
Ġpre d
Ġchang es
Ġch all
ĠW ashington
Ġplay ing
H istory
ut ions
m ap
Ġl iter
Ġcol lection
Ġopt ions
pr int
Ġback ground
L iving
ec k
Ġ-- >
ra el
ve y
O D
ĠL ou
ĠC ons
C ode
Ġwh ite
Ġf ocus
0 4
It em
Ġpro te
In ter
ĠCl ass
est ival
ĠR oad
Ġl ink
m ark
V al
n or
I I
an ia
Ġf ace
Ġfri end
ĠAr my
Ġt aking
re ct
el ves
ch an
Ġiss ues
Ġeff ort
Ġe y
ol ar
U p
0 9
ĠM ore
0 6
Ġim m
ĠB ook
ĠS l
ac her
Ġl ower
EN T
st yle
e ed
ĠAr ch
l ambda
Ġp ers
Ġr ace
om et
ĠG od
Ġvis it
Ar ray
an i
Ġinst ead
" "
ul ly
Ġl iving
g a
Ġb oard
u z
Ġl oss
ul a
E d
ĠD irect
S P
Ġst ates
ĠD ef
R eg
Ġde but
+ +
Ġst age
c all
ber g
Ġf all
Ġup on
Ġinst ance
5 00
Ġ} ,
Ġst re
Ġd am
Ġteam s
Ġhig her
ic ult
ache s
Ġa chiev
ph i
M essage
us es
O ut
resp ond
anc ial
Ġam ount
anc ed
ĠP ress
iz ing
Ġb ring
ĠGerman y
et ic
ĠG reen
r ain
Ġdevelop ed
evel op
am ples
ass ert
//// ////
Ġind ex
Ġiss ue
M L
ree k
uff er
Ġcomp lex
Ġapp oint
Ġsh own
Ġlead ers
r d
en ing
ou ch
ĠHe alth
emb ly
Ġs il
Ġrelations hip
ĠR oman
Ġc ases
n ode
ĠC ong
Ġcom es
ri a
Ð °
\ \
Ġr ate
at ur
o z
ĠP e
Ġdeath s
Ġg irl
Ġmod ern
h ing
Ġt en
Com p
199 6
Ġspec ific
bl ock
Ġprofess ional
i ences
ch ange
Ġs us
F A
b and
Ġinst all
ress ed
ines e
id ay
Ġb order
ĠM ount
li ke
Ġcon duct
198 0
R ead
Ġpr int
ist ics
4 6
ĠS ing
ep s
c ount
Ã ¶
ĠM ont
Ġwho le
Ġag o
Ġ __
at ab
ĠM ex
av en
re y
ĠComp any
Ġd om
ĠMich ael
Ġassoci ated
ĠC am
cre ate
Ġc ast
ĠC ap
ele br
am ily
im ately
ĠDem ocr
18 7
Ġro ck
Ġh or
ĠInstit ute
an el
Ġad minist
0 2
m ission
in fo
Ġass ist
y nc
k a
199 7
ĠTr ump
n et
st ruct
Ġc red
ĠY ear
roll er
ĠUn ion
C ount
Ġtechn ology
rup t
Ġpolit ic
enc ed
Ġestabl ish
Ġstruct ure
ĠM et
ĠM ary
Ġcomp on
T E
Ġpot ential
0 3
Ġbro ther
ĠAng el
Ġse em
Ġinit ial
Ġcons ist
ĠS am
ĠL eg
Ġreg ular
Ġs aw
ĠIn c
Ġb ad
ĠM ac
cont ent
W hen
Ġits elf
pl it
ĠI N
irt ual
Ġlead ing
Ġcent er
Ġh ours
Ġgl obal
Ġout side
Ġcontin ue
i qu
cre t
Ġcurrent ly
ĠWh ite
j oy
ĠAd d
Ġj ava
h and
Ġs em
Ġsong s
Ġhe art
Ġstand ard
20 22
Ġj ud
Ġre ve
ann ing
Ġex ecut
includ e
= '
ian ce
ex as
ĠR oyal
i os
Ġprom ot
Ġpol icy
Ġdisc over
o ch
pl ied
Ġjo ined
Ġreg ard
Ġgo al
="../../ ../../
Ġben ef
ĠA lex
Ġw ife
s up
li ent
j ava
Ġopen ed
o om
ic ense
r ated
ĠCl ub
Ġcour t
Ġst aff
n ext
def ault
Ġcomm and
Ġcap t
ĠJ ew
; &
Ġwrit ing
Ġse arch
Ġh it
Ġbook s
Ġon line
Ġdef e
Ġm ap
Ġlik ely
ang er
L og
e an
ĠIs land
I R
A A
Ġrec ent
ob ile
itt ing
Ð ¾
Ġes pecially
Ġlook ing
ĠV ir
Ġdo ing
ĠB est
il on
Ġl ength
Ġinvolv ed
Ġqu ick
Ġ= ==
ĠD is
ĠN or
ber t
or ing
yn am
ef ore
ip al
ĠE v
Ġp ain
on a
ĠM iss
Ġg ave
Ġop port
h an
Ġt akes
k en
' m
Ġcontin ued
ĠO ut
ic ation
Ġrun ning
Ġstat us
4 2
and roid
Ġm us
ail way
O ff
Ġnov el
ĠW ork
ĠS ociety
b ase
O P
id ents
w rit
Ġf ail
ateg ory
Ġcount ries
Ġcharact ers
f il
ĠV ol
p arent
ĠT om
rou ght
b eta
n ov
ĠAustral ian
led ge
ĠG old
ĠM ag
Ġb ox
B ar
ĠB en
ref ore
ast ic
erv e
ail y
Ġcom ment
Ġh ot
b uild
if ier
ĠP ublic
i i
li er
Ġw ords
Ġs rc
ro s
ĠAfric a
5 8
ly ing
Com m
Ġmanag ement
Ġd raw
ic ial
e ch
Ġwho se
Ġart icle
ĠC r
ĠS ome
ĠAc adem
al ed
Ġpri or
Ġ( \
Man ager
Ġrel ated
Ġmar ried
ĠT ur
Ġh ous
en a
ag on
P ol
Ġanal ysis
ed y
ĠDiv ision
ĠO f
h i
Ġn ecess
Ġw oman
ol f
Ġneed s
Ġdesign ed
le m
Ġch urch
C all
im al
Ġcomp lete
wit ch
ĠM er
Ġb g
mer c
u ge
Ġthrough out
Ġsc reen
c el
ĠG reat
Ġs ens
y r
ĠB ay
k nown
oc ation
ic ient
ĠS al
e es
ribut ed
s um
Ġsh are
m ax
Ġmult iple
in i
ire ction
S ub
O L
Ġm ind
ĠTe chn
g t
ĠM ad
Ġse qu
ĠRober t
Ġac qu
ĠM us
E nt
6 7
199 5
g le
and om
Ġocc ur
F L
Ġqu al
Ġrel ig
ri ate
Ġschool s
M A
Ġcond itions
or age
sy ch
ask et
uf act
ĉĉĉĉ ĉĉ
Ġ: =
U LL
ĠSc ott
st art
act ive
Ġfor ce
---------------- ----------------
math bf
an ish
Ġn ode
S ystem
Ġw atch
e in
} {\
Ġcomplet ed
Ġimp act
ĠM at
ĠH am
Ġread ing
Ġse curity
Ġfor ward
ri al
Ġc andid
ul ations
Ġ} ;
Ġget ting
5 7
z er
Ġindivid ual
plic ations
w in
ir it
ub e
Ġadd itional
an o
> &
A c
197 0
Ġp aper
Ġso on
C E
v is
ap ter
O ne
il ies
Ġide a
ĠS ur
Ġsign ed
b ed
Ġg e
ĠIs rael
5 9
E m
l a
Ġe ight
def ine
ĠT est
I V
Ġn atural
Par am
Ġdiff icult
r un
at est
T able
ĠS ervice
Ġtr avel
sp ace
ĠCent ral
re ate
Ġf requ
ĠW eb
Ġbg color
ĠAfric an
M P
f ort
Ġch o
ĠWh ile
Col or
ro om
oc ks
ĠT own
Ġv eh
le an
Ġcan not
ĠRes earch
Ar g
Ġcom ing
ĠT exas
ĠM useum
Mod el
M ed
ĠI r
duc ation
oc ol
Ġloc ation
Ġal though
T D
199 4
Ġperform ed
6 8
ain er
b re
ĠPro v
ĠH en
=" #
k i
ĠAn n
Ġcont act
Ġact ive
Ġask ed
ang le
ĠE r
om a
Ġdev ice
199 2
Ġconc ern
w ide
ĠThom as
math rm
ĠRuss ian
Ġw ord
Ġsur v
ĠS ub
Ġv ers
ĠChrist ian
is her
az ine
Ġfollow ed
a res
el ine
ar ning
Ġw alk
M S
ver y
a ud
M ar
Ġdec ision
^{ -
Ġst e
go ogle
ĠR ad
Ġto ol
ĠD el
li ament
Ġdef ined
it ch
c ss
ĠR ob
Ġpart s
he t
st atic
f ect
Ġincre ase
m m
P E
ev ent
P ost
P re
ĠD uring
Ġv er
ĠG ames
Ġen joy
Ġbeliev e
Ġarch itect
e ks
Ġprob ably
arg in
con text
Ġl oad
4 3
A b
ist an
Ġneed ed
Ġmin utes
ĠP ost
ĠF ound
qu are
ĠSc ience
b urg
Ġpat ients
Ġmom ent
ĠGr and
Ġd ram
n ed
pec ial
b on
Ġm ount
ĠT or
Ġcon v
ar ily
ild e
G roup
ĠCan adian
Ġbir th
f ess
ee k
ms elves
ĠB ill
ri ef
x y
Ġp ick
Ġkill ed
enc ies
in ition
r ong
Ð µ
m ore
Ġrad io
Ġepis ode
Ġdou ble
Ġconst ruction
Ġproduct s
S he
Ġmod els
ĠAir port
Ġdeter min
Ġtrans fer
ĠCh inese
com es
ĠW il
Ġcor respond
ĠC ath
Ġcult ure
Ġconst ruct
at re
che ck
Ġout put
Ġappe ared
ict or
p age
ĠF ore
Ġd rop
Ġb all
U ser
Ġprov ides
ĠMin ister
Ġappro ach
ĠP re
we b
ed s
ill ed
Ġthe mselves
y ing
Ġrecord ed
ant ic
Ġne igh
p ackage
act ory
w ise
val id
ur t
atab ase
ac ity
c ell
Ġs ports
opt ion
Ġpl ant
' ve
b ig
le vel
Ġelement s
s igma
Ġallow ed
Ġs y
ĠA P
4 1
Ġe mer
merc ial
ĠCar ol
ĠSup er
Ġs en
Ġev idence
Ġsh ip
Ġ row
Ġun it
j o
C he
Ġr isk
5 6
Ġse ven
Ġwant ed
Res ponse
c ore
ĠSm ith
Ġstud ies
Ġde ep
Ġo ption
=" ../
Ġl ines
Ġbeh av
un s
Ġpl aces
ĠFl or
b o
Qu ery
Ġlong er
ĠA re
res h
Ġlarg est
======== ========
ĠH ill
ĠK ore
Ġst ay
umb ers
ur ity
Ġw or
ĠW estern
Ġmov ie
199 3
Ġc opy
pl ace
Ġpl atform
Ġcent ral
i ant
Ġc ivil
Ã ¤
ĠKing dom
Ġth reat
ic ago
ev e
G e
Ġappro x
Ġinter view
ew ork
c ome
pt y
s q
Ġj ournal
Ġmat ter
Pro perty
Ġinst it
d oc
Ġany thing
con s
Ġnot hing
he st
u als
ĠJapan ese
w ell
ĠT er
Ġc elebr
ie ce
ĠR ock
E nd
ent al
l am
por ary
Ġn ames
E E
ĠLou is
ĠVir gin
Ġqu ality
d ev
Ġsc ient
Ġk m
Ġcap ital
S C
E ng
B e
Ġw rite
p ress
Ġse ems
Ġl abel
M ethod
ĠH istory
ĠS et
AS S
ĠC amp
ult ure
est s
c a
Ġus ually
ĠB re
Ġval id
Ġap plication
ro ad
8 8
ĠFr ank
Ġleg al
ĠĠĠĠĠĠĠĠ ĠĠĠĠ
Ġd aughter
Ġto wards
Ġgrow th
S o
Ġsome one
umn i
Ġp urch
Ġmeas ure
Ġim medi
ant a
g amma
ĠFranc is
ĠSt ar
m itted
Ġst ream
Ġb rought
p at
Ġ â
pt ions
Ġtreat ment
u a
z a
Ġus es
Ġwe eks
Ġcal c
Ġfem ale
| |
; </
il s
Ġfri ends
ith ub
ens ity
Ġs ense
ens us
C lient
Ġm ention
Ġ$ (
ĠO ther
Ġproble ms
ĠA N
Ġmain tain
Ġlevel s
tern et
Ġde ad
Ġr ank
ow ers
re land
Ġdis e
cur rent
Over ride
u ate
Ġpre vent
Ġqu ite
Ġtry ing
h ost
m ethod
b our
ust er
Ġs n
asket ball
Ġb oy
Ġpr inc
r id
d o
Ġ ess
it a
evelop ment
Ġdem on
Th at
Ġb ank
Ġl ack
199 1
ur a
ĠAcadem y
ĠP eter
Ġform ed
ĠĠĠĠĠĠĠĠ ĠĠ
ĠComm ission
Ġn ormal
Ġchang ed
d elta
mod el
9 5
Ġco ach
is ions
u ated
' '
Ð ¸
Ġf a
Ġse lected
eg a
Ġmethod s
Ġw idth
Ġn il
k y
Ġtem per
sh ire
f alse
y les
Ġprim ary
Ġp ark
en ge
Ġm ach
th let
Ġmeet ing
Ġart ists
ĠO pen
ĠJ ose
ĠZ eal
Ġpro p
w est
Ġdirect ed
Ġhtt ps
ĠH istor
ĠW omen
t ab
Ġtyp es
Ġan sw
con tain
Ġdeg ree
tt y
he m
ĠS und
Ġg old
+ \
ĠCong ress
Ġb ool
g or
Ġm ur
Ġsim ple
rem e
Ġfor ces
st ant
er ia
Ġpract ice
Ġaut om
S ource
Ġcont ains
ĠU s
Ġcell s
ĠK e
Ġh um
d b
ind ow
Ġsur face
Ġwrit er
N A
ourn ament
wit ter
ound s
ĠZeal and
x i
Ġcol umn
196 0
Ġn umer
Ġest im
re ater
L e
it iz
it ation
Ġsh all
Ġt al
ĠChar les
orn ing
Ġoper ation
ĠL os
ial og
Ġle ague
* }
Ġeffect s
Ġsh ot
Ġdec ided
ram ework
Ġpre m
ak ers
ĠM el
Ġbe aut
A ct
ĠJ ul
Ġin side
i as
Im age
Ġch arg
n amespace
Ġrec ently
Ġ( $
ĠR ef
ang ed
ic ks
D ate
ĠRich ard
ild ren
Ġex hib
v est
d r
Ġconst it
7 7
) }
ic an
Ġsay ing
Ġart ist
A m
en ame
ĠGover nment
Ġtrans port
Ġp ack
Ġf un
g ithub
ous ly
C L
Ġsc ience
idd en
Ġear lier
Ġb ur
ph p
Build er
^ \
> (
t imes
ad y
Ġ esc
ord in
iz es
Ġs ummer
d ir
Ġs pect
Ġd rug
N S
Ġoper ations
ĠItal ian
Ġfin ished
Ġun ique
pect ed
Ġt it
Ġtr ade
ĠA v
Ġgu itar
ym bol
ĠĠĠĠĠĠĠĠĠĠĠĠĠĠĠĠ Ġ
Ġdet ails
Ġthe ory
Ġevery thing
st ream
Ġl ives
ĠB ig
ond er
is l
d l
ĠL ake
Ġme chan
C an
T H
ĠSt r
so ft
Ġfin ancial
Ġinvest ig
ig r
Ġsoft ware
ĠPar is
or a
ĠRec ords
Ġc ause
Ġw ait
m iss
ĠN ow
ov ers
ĠRev iew
Ġelect ed
et her
ĠS y
Ġman ufact
E L
Ġlead er
Ch ar
5 1
] (
Ġfam ilies
ĠS ummer
H ead
Ġhe ight
Ġsom et
Ġand roid
irc raft
ĠO ver
Ġag re
Ġh op
opt ions
ĠRuss ia
5 2
ĠB ur
ĠĠĠĠĠĠĠĠĠĠĠĠĠĠĠĠ ĠĠĠĠĠĠĠĠĠĠĠĠĠĠĠ
l o
5 4
Ġintro duced
Ġt im
ar io
ĠComm ittee
Ġst d
Ġind ependent
im s
E X
iz ations
ul ate
or ial
Ġfound ed
il er
S up
Ġcon cept
198 9
t em
Ġg raph
h as
P art
Ġprevious ly
D is
6 9
T V
00 00
gr ad
Ġth us
Ġmed ical
Ġis n
Ġw est
Ġle ave
Ġincre ased
Ġcol lect
ify ing
it ude
ĠO per
Ġe ast
ĠT ime
EC T
Ġin sp
erv ices
at in
Ġal tern
ell a
ot ype
r t
Ġbuild ings
im age
y t
ĠR ead
F C
) </
Ġpro perties
p ass
Ġmov ement
a ctions
Ġprot ected
B ack
Ġbegin ning
F irst
ig an
Ġclos ed
and a
Ġsim ply
ann ed
< !--
ir ing
Ġpos itive
ĠH el
Ġfav or
r ho
as tern
Ġalbum s
Ġde b
im in
Ġpass ed
U s
B A
ĠR em
Ġd ark
Ġcl ient
Ġstud ent
Ġexp and
Ġant i
ĠM ass
ĠThe n
Ġst ories
5 3
ĠCh icago
ill er
ĠA tt
ĠB oard
' ll
Ġus ers
ur rent
er c
p ost
Ġun its
Ġsh oot
az z
Ġdirect ly
ĠC E
Ġex act
ol a
Ġc atch
g u
] )
$ -
Ġse cret
Ġcom pl
ron ic
ĠFlor ida
ill a
Ġm agn
n u
Ġlim ited
Ġdel iver
ĠD ec
c ase
h ouse
M y
Ġeconom ic
is f
cl ient
os h
Ġcol lege
Ġcompet ition
U L
n ull
ĠP ri
Ġappoint ed
s im
198 8
ate gy
= #
fig ure
Ġfin ally
Ġst ri
or al
Ġgr and
anc y
St ream
ĠI reland
e lement
ĠSer ies
B S
is ation
ĠR el
Ex t
Ġse lect
Ġres ource
ĠC D
at ively
ĠL ife
U til
Ġex cept
Ġc am
Ġsp ent
Ġdist ribution
ĠT imes
Ġmiss ing
et te
ict ure
Ġin ternal
Ġit em
n ected
Ġg as
Ġorgan ization
Ġre ference
ĠUS A
for ce
ĠO b
Ġactiv ities
ĠAt l
Ġet c
Ġs ort
Ġfollow s
u ke
7 8
ĠFil m
Ġdemon str
ON T
i en
ĠPro gram
Ġdest roy
B ase
ric s
Ġturn ed
Ġre ached
Ġf oot
Ġst ore
ĠY our
Ġun s
ell ig
ĠAr ts
Ġrun s
! !
Ġn ature
Ġf ailed
Ġan c
ol k
( (
Ġparent s
Ġext ra
app ing
O C
Ġc ard
P os
ĠDirect or
Ġw ide
qu ery
Ġstart ing
Ġsc hed
ĠV ictor
Ġ er
a o
Ġn umbers
ĠL and
G o
Ġre comm
ĠF orm
in ct
Ġcomp ared
or ph
H T
ĠMex ico
ĠCath olic
or por
Ġpro gress
Ġav oid
Ġf arm
Ġbo olean
ĠO ur
ĠI ll
Ġ( "
Ġf ast
ĠB ank
ĠO F
ĠM o
y th
ĠF estival
d en
u ct
ĠPl ay
the ta
ĠGe org
j ust
Ġlim it
Ġevery one
ribut es
Ġpresent ed
ĠÂ £
raz il
y an
ĠAngel es
iz er
ĠO h
ĠB usiness
al ing
St atus
und le
Ġpl ans
Ġmanag er
Ġtrad itional
R ep
Ġsc ore
ĠI S
Ġevent ually
Ġbl ood
D r
Ġwe b
Ġqu ant
ĠS il
ĠN ULL
in ner
ĠM ost
Ġr ules
ĠF ootball
ĠT op
Ġactiv ity
ĠP et
Ġform at
Ġopen ing
ĠP enn
Ġwe ight
ĠO l
Ġprot ect
9 8
vent ion
Ġcontin u
ĠFor ce
Ġequ ip
ĠE ducation
3 00
Ġse c
Ġs ch
Ġcrit ic
Ġw ays
Ġm iddle
yl v
ĠM il
R A
ven ue
Ġsomet imes
Ġincre asing
198 7
unc hed
ĠB rown
im ens
ent y
ĠU nder
t au
in st
ĠT wo
ĠA ccording
Ġcond ition
Ġst ated
im b
Ġlarg er
Ġn ation
Ġgo es
u an
Ġpl aced
ĠM ur
ar ian
Ġmult i
ic i
ĠC ast
Ġa w
O per
Ġp aint
ĠS ince
ĠD ata
ic ated
C o
E ar
ĠOff ice
Ġr ap
art s
n on
id ers
Ġr at
fin ished
Ġspe ed
Ġrem ain
Ġh ar
Ġn av
Ġparticular ly
ĠAr ab
ĠD en
P er
Ġser ious
Ġget s
Ġm ix
ĠSec ret
Ġp en
Ġphys ical
ĠSe cond
ĠD ev
Ġqu arter
p o
ĠSc ot
gor ith
it z
eb ug
AT E
b ur
ĠT our
d f
Ġsc en
ĠE nd
at o
Ġrem ains
he ight
ĠVirgin ia
U E
ĠSe e
F I
Ġm is
198 6
add ing
Ġw id
Ġreg ister
ĠI ran
vers e
j av
Ġfour th
ĠM em
ĠB o
Ġsc ene
h aps
Ġprogram s
ĠJ ournal
ĠGo ogle
] {
ĠK n
Ġab ility
D on
ĠSp anish
v ision
ĠG en
Ġsupport ed
Ġor d
ĠMart in
Ġfunction s
Ġg ives
Ġsub sequ
6 3
Ð ½
Ġcon nection
arg s
Ġcon nect
l ock
Ġnear ly
Ġpro posed
ĉ Ċ
le q
Ġent ry
Ġte acher
ĠW ind
Ġass um
ĠL ong
ĠV er
ĠP eople
N av
ĠJ o
Ġv oice
Ġknow ledge
ut ch
Ġ ir
Ġmean ing
Ġpat tern
ĠF ace
row ser
Ġw ood
c m
Ġed itor
ĠS ocial
Ġbe g
Ġd irection
Ġwind ow
Equ al
erv ed
ĠG ood
Ġatt ention
Ġpre p
In put
Ġquest ions
row s
198 4
ĠItal y
ĠC L
ĠH ot
Ġst ations
Ġproject s
U M
Ġre li
ib ly
Ġd ed
ĠS un
ab it
Ġb al
ef ul
str ong
Ġv ote
part ial
ĠB i
ĠPro ject
ian a
Ġcou ple
Ġsc ale
L ine
Ġchall eng
ĠW ood
Ġeas y
ing er
Ñ Ĥ
ft y
Ġorigin ally
f unc
t arget
Ġcom mercial
requ est
tr ack
ish op
c an
198 5
) (
Ġr ule
ĠF e
fl ict
Ġc op
G L
Ġd igital
Ġem b
Ġlist ed
Ġ< <
Ġplay s
d ated
ing u
ĠOr der
p ol
f irst
P S
} (\
6 2
Ġtrans l
ĠSt ep
Ġcor rect
Ġ+ =
A ction
ĠO ld
ul ed
In stance
ĠK h
Ġev al
Ġhig hest
H el
erv ation
Ġoff ers
l ib
Ġ- >
ĠG L
Ġcomput er
ĠJ un
Ġover all
m as
g ent
ĠOlymp ics
Ġm icro
oc key
Ġb us
Ġcoll abor
Ġconst ant
f oot
Ġp m
Ġall ows
m ine
Ġgr ant
Ġle arning
ug in
Ġfootball ers
Ġstre ng
ĠF ig
Ġsol ution
ĠFound ation
ry pt
Ġsur round
) {
Ġpart ners
Ġnecess ary
Ġun ivers
ĠĠĠĠĠĠĠĠ ĠĠĠĠĠĠ
Ġo il
ill ing
Ġh ol
Ġv s
Ġal umni
P oint
all ery
az on
ĠHen ry
ĠR eturn
Ġup date
> >
T Y
Ġf air
Ġrepl aced
b a
und er
ĠR os
Ġfeature d
ĠEng ine
um s
ol ve
l ong
Ġa ircraft
Ġpo or
n el
ĠTe am
E M
Ġdep end
Ġre pe
Ġrece ive
atur day
Ġf elt
Ġres ources
Ġfore ign
pro perty
T oken
L ast
6 1
Ġmem ory
Ġsur pr
ĠĠĠĠĠĠĠĠ Ċ
Ġ ult
ind ing
t ings
f e
ĠIt s
ĠD ou
ĠSw ed
Hand ler
as ion
Ġfield s
9 7
ri age
ul f
ad ata
Ġpr ison
D elta
ex p
ĠK ar
es ter
Ġgo als
yp es
Cont ent
ĠE mp
rib e
und red
Ġt ouch
ĠT HE
ĠT im
Ġh ope
Ġb attle
ĠA wards
ĠSh ow
ist ance
Ġw rong
Ġre b
Ġpr ice
g n
Ġocc up
ome ga
Ġl atest
as y
os ing
ĠJ im
Ġal leg
op en
ĠL ove
ĠM ain
Ġgener ally
Ġtr ain
app end
19 50
ĠJ ud
Ġp ull
Ġappe ars
ec ause
wh ich
Ġper fect
Ġmin or
r l
ian o
Ġm ission
in em
but ton
we et
W eb
Ġn one
Ġsl ow
Ġhand s
us ion
Ġpre tty
us band
Ġbas is
ĠMan agement
Ġf if
Ġw orth
Ġeffect ive
Ġp le
head er
Ġac adem
Ġche m
Ġs ociety
N ull
ĠP ac
\ ,
ri er
ĠA ut
ĠH ome
Ġwin ning
I A
Ġsol id
P s
Ġrem ained
g s
ak s
Ġquick ly
Ġbu y
Ġch ief
ĠVal ley
ĠD evelopment
al le
Ġca used
Ġar rest
Ġann ual
Ġstat ement
Ġpre c
Ġsc ored
ĠL ee
( {
it ors
J ohn
Ġmur der
ig ger
m ember
eg er
g reg
Ġt ro
Ġrout e
n am
ĠI D
ĠIn st
Ġs ources
St art
t x
ĠH aw
ev en
ĠMed ia
in fty
ock et
Ġany one
Ġrecord s
Ġw ild
Ñ Ģ
ĠL et
ch ar
ĠSund ay
198 3
G ener
Ġt ask
if ul
Ġaward ed
P C
}$ ,
st ract
Ġg reen
ĠM a
Ġg iving
ĠF ort
Ġf ans
Ġbroad cast
ĠB uild
" ).
}$ .
Ġinst r
ĠB oy
Ġco ast
ov iet
er ry
p ack
ĠS ol
Ġex am
Ġlaw s
4 00
oot h
Ġhigh ly
ĠG ar
Ġbr and
Com ponent
Ġreport s
Ġm unic
Ġend ed
O ptions
ĠD et
ĠW ed
Ġser ver
ĠPro fess
" ),
Ġcar ry
Ġhouse hold
Ġn uc
un finished
fl ow
Ġch annel
Ġtrans form
Ġexp ression
r s
Ġv oc
Ġparam eters
k ing
n y
Ġf ederal
ard en
reed om
ĠW ell
Ġwh om
T S
Ġf irm
or ter
w rite
er em
Ġresp ond
V ER
ĠEar th
od ay
Ã ¨
at i
Ġfl ow
Ġset ting
Ġm aster
D o
a ught
al i
Ġth r
198 2
L ink
ĠE p
ĠL ibrary
f ind
Def ault
Ġl ab
k ins
c apt
ĠO p
Ġt ree
Ġad apt
ad ium
eq n
ĠT re
ig en
Ġinter face
Ġim ages
os c
ĠCh ief
Ġdem and
Att ribute
Ġ čĊ
in y
Pro v
it ness
ĠCarol ina
Ġfor ms
icro soft
Ġm ode
M et
ore m
Ġ eth
Ġc orn
Ġdise ase
Ġre ach
ĠYou ng
le ep
Ġmajor ity
Ġs al
Ġh y
ĠFr iday
Ġp sych
Ġsing er
em porary
Ġph il
Ġd oc
ĠM ov
C ar
[ "
ra ight
Ġla unched
at ers
ot al
il ed
? âĢĿ
br idge
Ġv ert
Ġvari ety
l ast
Ġexist ing
od ing
W ork
ĠG al
P age
Ġmed al
Ġmov ing
Ġelect ric
Ġobtain ed
ĠC O
ĠL iber
Ġnot ed
ĠL in
Ġse lection
Ġed ition
Ġcomp ar
se lect
R un
Ġm argin
Ġcommun ities
Ã³ n
T op
Ġbe comes
Ġc ook
~ ~
loc al
pe ople
Ġdes pite
ch o
Ġwas n
Ġset s
u id
Ġmus ical
B uffer
Ġ Î
Ġimpro v
Ġt ournament
ĠF ield
ĠN one
back ground
Ġ" ""
Ġexper iment
on ic
Ġar m
Ġdist ance
Ġent er
Ġindivid uals
Ġthrow s
T C
Ap p
Ġh ospital
Ġs ales
Ġv ac
Ġm orning
bt n
Ġnot e
Ä ģ
Ġfe ed
197 9
yd ro
we ight
Ġsaf ety
Ġ ign
ĠA M
AM E
$ $
ĠB as
Ġbe y
Ġhe ard
ylv ania
ict ed
or ation
Ġsen ior
ĠO bject
Ġrespect ively
Ġrec over
O ther
Ġsit uation
N umber
ĠHe ad
Bl ock
li e
Ġcan cer
ic ine
i h
ri z
Ġc ounter
Ġext ends
Ġlet ter
Ġs u
ĠS pe
L et
ĠG ame
ĠĠĠĠĠĠĠĠ ĠĠĠĠĊ
Ġun c
Ġopport unity
ollow ing
Ġchar ge
ĠN etwork
Ġcomplet ely
ff ic
ab y
Ġdiffer ence
Ġexp ress
ĠS ar
ost on
ĠL og
ult ural
os is
Ġc lean
ĠH ere
x ml
Ġs end
Ġhel ped
ĠB razil
Ġse a
Ġwrit ers
act er
Ġro ll
Ġbey ond
ĠM en
Ġb illion
j son
O W
F unction
Ġrem ember
C A
ers ey
l anguage
Ġpress ure
Ġill ust
Ġimmedi ately
Ġinterest ing
pl ies
Ġshow ed
av ed
Ġf ully
Ġold er
old s
ĠP an
ĠIr ish
k m
ĠAl though
Ġd u
ap ers
Ġcrit ical
Ġc itiz
F actory
ĠCent re
Ġra ised
Ġcont r
ash ion
b ottom
Ġg reater
ĠS ervices
ud get
Ġoffic er
ĠB ob
ent ry
pt r
ter m
ĠP ak
ĠM ot
Ġin form
Ġhe avy
id get
ic ens
d raw
ri end
Ġl if
if act
ĠB ase
Ġens ure
G r
% %
i ro
E l
U P
i ate
ĠE lect
ur ance
Ġthe refore
ĠAss embly
Ġfil es
Ġreturn s
ĠM ond
G B
ear s
s pec
eq ref
Ġan g
Ġsat isf
.... ....
ans as
C D
t ilde
Ġm ut
Ġm ess
Ġdr ive
ĠJohn son
Ġp oll
ell ed
clus ion
Ġh usband
198 1
Ġsus p
Ġk ing
k rain
Ġad ult
Ġth ous
nav bar
Ġch oice
Ġbl ue
Ġsh ared
Ġpo et
j a
ans ion
om y
Ġsit es
ell er
i pe
ĠFace book
ĠS aint
Ġact or
l en
Ġenc our
cher s
R em
Ġb asketball
ĠJ ones
S I
ful ly
ã ģ
Ġro b
Ġapprox imately
ĠEn ter
Ġact ual
ak a
ĠW eek
Ġrepresent ed
st atus
ĠIs lam
Ġ{ @
197 2
m ond
roll ed
p ers
Ġsym bol
Ġjo in
if orm
Ġp iece
9 6
Che ck
Ġd ynam
Ñ ģ
Ġmost ly
Ġbe coming
Ġass ess
Ġpres ence
re al
aw a
Ġon es
Ġwork ers
P L
al let
Ġstud io
8 5
ab s
Ġcont ribut
b i
ut y
ir med
Ġrespons ible
Ġcent re
Ġfig ure
mod ule
âĢĿ .
Ġp air
Ġv an
Ġla unch
ĠJose ph
Ġis land
ĠS aturday
R eturn
ĠAl so
ce an
Ġgrow ing
pr ivate
s ylvania
L oad
Ġpro duce
d ing
Ġr andom
ĠCol umb
im a
l ines
ã ĥ
197 6
B ox
so le
ong s
Ġprov iding
T e
pre t
ot ic
ĠAs ia
s rc
Ġey es
ĠM ax
Ġcons um
C ell
ĠN orthern
Ġal one
8 7
l s
Ġpolitic ian
he nt
ic ate
ĠSp ain
ĠN avy
ser ver
ĠP o
Ġmat ches
* /
ĠT ra
ĠS and
w ar
ele te
p p
T P
RE F
y e
ĠU N
Ar t
ĠC ross
Ġr iver
Ġim ag
Tr ue
Ġdiv ision
Ġit ems
anc ing
Ġequ al
d ep
Ġfor ced
Ġst ars
Res ource
Ġaut o
w an
ig ration
Ġch ance
Ġeffort s
Ġpr iv
Ġserv e
are er
im g
ĠThe ir
Ġcompon ent
in et
amp ion
Ġsepar ate
Ġinflu ence
Ġ ]
M ore
' d
k er
ĠBrit ain
Ġcl in
Ġl ived
ch i
197 8
Ġsp read
Ġoffer ed
r ate
Ġbu ff
ist ers
M en
Ġpart ies
ĠPar liament
Ġac com
g ener
W rit
Ġfore st
Ġb rief
S A
p ng
I O
ag ram
ac ement
Ġpur pose
ĠWilliam s
AT ION
Ġnew sp
Ġobject s
Ġle aving
ig inal
D esc
Ġrelig ious
pro ject
ĠL ord
k o
dis play
; "
Ġs uc
olog ies
ĠP ower
Ġstruct ures
ir a
p c
ad ow
Ġspec ified
Ġs uit
p ush
ĠComm unity
Ġparam eter
v ant
id ae
P R
Ġlook s
ĠCon ference
Ġem ail
Ġs ave
ra ction
197 5
cl ose
s ite
Ġown ers
ĠCor por
ĠBl ue
c os
Ġsmall er
he ast
m ain
Ġcall s
Ear ly
Ġpre fer
am in
ĠB et
Ġcomm ission
Ġimpro ve
Ġh undred
197 4
ĠI d
cl os
Ġvict ory
d escription
im ents
air man
ĠSen ate
N ext
Ð¾ Ð
pro p
D et
Ġpro per
Ġw all
Ex p
8 9
Comm and
Ġst rug
plic it
ĠL ine
Ġqu e
Ġinc ome
g ment
Ġact ress
Ġph ase
ang es
7 2
ur ies
O m
ĠS ir
Ġagre ement
Ġdep artment
Ġrem oved
Ġd og
Ġb ill
Ġc at
Ġtr ust
Ġn ative
ĠS T
Ġother wise
196 8
t ag
ĠP M
ĠReg ister
ĠW ales
erson al
stand ing
$ {
V ersion
Ġs ession
Ġwe ap
197 7
olv ed
ĠTechn ology
s pect
Ġg un
D es
IN T
y cl
ad or
D A
ec ution
Ġ ice
ug by
Ġsh op
ĠF ire
Ġst raight
M ay
Ġappear ance
ĠS pecial
Ġr an
ĠC ard
Ġas pect
Ã §
og rap
M at
197 3
os oph
Ġfam ous
ĠH on
Ġd omin
S ON
I F
S pec
ĠM u
Ġp aid
Ġclaim s
s g
ĠL uc
Ġcon cent
on ly
ĠDemocr atic
ar ks
| \
ĠRad io
out e
gy pt
m es
ĠII I
Ġm ill
ĉĉĉĉ ĉĉĉĉ
Ġproduc er
ĠJew ish
urb an
" ]
anc he
it an
Ġdram a
Ġro t
y er
ĠS outhern
Ġc ities
AB LE
ĠW ater
Ġofficial s
Ġp il
ĠChampionship s
Ġatt ended
D escription
Ġ q
rel ated
} );
ig er
X X
r um
Ġd ensity
Ġhe ar
Ġro ot
Ġbehav ior
Ġr are
i ated
ĠH uman
Ġsp irit
Ġown ed
8 6
ã Ĥ
Ġcreat ing
ĠC all
ĠW ay
ĠB ow
m eta
M in
im inal
Ġcap acity
Ġneigh bor
ĠT ele
Ġcom ments
am m
ellig ence
cd ot
P op
ay ers
urs day
ĠFrancis co
ob j
Ġs outhern
Ġcar ried
Ġrem ove
C reate
ĠR h
Ġmag azine
R el
Ġap plied
ar p
Ġse asons
Ġrem aining
Ġph one
b ury
ĠP op
Ġown er
Ġter rit
Ġt ried
ĠE conom
Ġcon flict
capt ion
ĠT em
Ġsl ight
Ġkn ew
raph ics
Ġn ine
ĠEmp ire
ay lor
ĠC ivil
p y
uck y
Ġf le
Ġse at
Ġcon nected
C R
D uring
Ġpart ner
oun ce
Ġcl imate
197 1
196 9
form at
ĠH or
Ġdesc ription
P A
ĠT ype
Ġent ered
Ġap plications
Ġn orthern
% )
Ġch ampionship
R ev
enn is
ĠS ports
Ġv irtual
ar ia
s ervice
Ġ ;
ch ild
Ġed ge
Ġmanag ed
Ġup per
ĠP rem
Ġacc ur
B ig
Ġcont ain
The y
Ġtri al
ĠP ubl
Ġsc ript
ino is
d et
Ġorgan izations
V is
ĠCar l
ers e
Ġw ants
ĠF red
che n
asc ript
Ġmax imum
Ġcult ural
end if
ĠW in
it age
Ġreve aled
Ġs yn
Ġfr ame
ĠL ab
ĠCo ast
Wh ile
Ġcost s
A ut
Not es
Ġobserv ed
Ġa im
lection s
Ġhistor ical
Ġsc he
ĠPac ific
k in
Ġr ac
Ġbl og
ĠL ead
ĠN ight
Ġvol ume
ĠThe atre
Ġmod ule
ĠS oviet
Ġfact or
Ġfl oor
T ag
r ich
Form at
Ġestablish ments
l ayout
est ic
il ing
ef t
Ġtemper ature
Ġb att
am ing
Ġnumer ous
Ġa ctions
od ies
P RO
ĠR am
Ġstud ied
Ġrest rict
f ont
m ult
Ġeas ily
Ġappro p
IN E
ind er
im ation
ĠW all
fr ont
om s
Ġd raft
ed ia
194 0
Ġal t
Ġf re
Ġex ception
ĠW ild
ĠScot land
est ed
ues day
eqn array
ĠJ on
A V
pro cess
ĠB oston
il ly
7 6
ang ing
ack s
Ġcandid ate
iqu es
s en
ĠM iddle
et ing
bur gh
Ġbe at
Ġadminist ration
h ar
Ġabs ol
Ġident ified
ic ed
Ġres idents
G l
rom e
' .
S l
St yle
Ġt ick
gorith m
ĠM ike
Eng lish
Ġke pt
Ġs witch
ple te
eps ilon
Ġf ont
Ġcount y
ĠB attle
ole c
ĠG reek
ĠE X
Ġ( (
Ġmaterial s
ĠPol ice
ĠQue en
Ġf ine
wh ile
Ġfil ter
F ONT
Cont roller
ĠJ eff
P ort
Ġvoc als
ab eth
ak ed
is hes
Ġr ail
ĠUn ivers
Ġh uge
Ġdis s
M on
Ġcon ference
ĠAnd rew
Ġadminist r
Ġsex ual
ren ce
Ġar my
ĠPenn sylvania
Ġp lease
Ġw ear
c ar
Ġst reet
19 30
Equ als
ent ially
il a
ĠOh io
nes day
at as
Ġa uth
ĠF ree
Ġoffic ers
Ġbas ic
7 9
S ec
Ġdev ices
ps i
ĠMich igan
ĠR E
Ġop in
sm all
Ġc ert
Ġread y
Ġcon vert
List ener
Ġaud ience
contain er
Ġcre w
ĠK en
ool s
O pen
ult y
B r
ont o
ĠA ff
Ġcover ed
at tr
ĠMus lim
ruct ure
ig in
el a
U I
ĠJ ac
sh ow
leg al
Ġpower ful
ĠMond ay
Ġc ore
ĠCh ris
Ġmet al
Ġclass es
b in
ĠIn formation
Ġ url
Ġfe et
ent h
Ġun ion
Ġcontin ues
Ġp et
ĠH ospital
} [
Ġs ust
pon ents
and on
ĠM ah
ĠR un
Ġun iversity
pos es
ĠB ul
ĠJ es
ĠCol or
Ġaff ect
Ġmach ine
ad el
Ġelection s
i pl
}} \
Ġb ottom
g ate
l ife
196 7
Ġin nov
Ġhand le
man n
Ġmention ed
Ġc ars
Ġdo or
e z
Ġcor por
ĠM any
angu ages
Ġatt ract
Ġatt end
194 5
un ities
Ġp urs
Ġhapp ened
ĠU krain
Ġfe at
ĠJ ersey
Ġdetermin ed
Ġext ended
u y
ĠH a
ĠE ven
Ġrest aur
M ode
} _{\
un te
A ccording
av al
he et
ĠV is
Ġrel ative
v a
Ġs ister
as ure
Ġem ot
Ġref lect
h r
res ponse
app ed
Ġfl ag
ĠJ oe
Ġdam age
Ġm iles
n umber
sc ale
st ein
ov a
Ġgener ation
cl es
Ġpro ced
S im
eng er
Ġapp ly
ĠSt and
Ġveh icle
ograph ic
ip ality
i y
f ound
( &
ĠAs ian
i Ä
Ġw el
ĠO x
ec es
Ġequip ment
Ġm obile
Ġsh ape
Ġad vert
Ġp ages
Ġcustom ers
st ra
ric es
stit ution
f inal
Ġl atter
Ġl ibrary
ĠV an
T O
fil ter
ĠK ent
il ton
ĠPhil ipp
S R
D irect
8 2
Ġlook ed
oc used
A F
Ġj oint
Ġc ool
st d
Ġoper ating
ĠF ar
os en
w er
th at
Ġw onder
igh ter
a uthor
Ġsp ot
Ġc ouncil
f it
Ġ util
D F
196 4
ĠF amily
tt p
ĠA cc
d s
ĠJ r
Ġsign al
Ġpol ic
Ġansw er
T ask
T em
Ġra ise
Ġtr av
Ġexecut ive
Ġf ix
ĠL em
ĠW al
Ġclaim ed
Ġt ag
Ġadv ant
og en
old er
Ġiss ued
Ġa f
es h
Ġad opt
Ġeconom y
ap ed
)$ .
ĠAp p
Ġstr ateg
port ed
ĠDan iel
ĠHistor ic
Ġs umm
comm on
Ġconc ert
ĠO k
Om ega
Ġa head
9 4
Ġon to
ĠM id
Ġde cre
//////// ////////
ĠL im
up date
Ġext rem
ex pected
N ow
ĠSe a
ru it
Ġa ware
Ġsequ ence
ĠJack son
ors hip
param s
el er
em ic
Ġrecord ing
19 20
L ength
8 4
ĠE very
7 4
rem ove
ĠJust ice
av er
15 0
ĠâĢ ¦
et ch
pro v
m t
ĠSec urity
ĠH T
Ġag reed
h or
ĠGeorg ia
Ġme ant
ath an
ĠK ong
// /
Col umn
ĠMed ical
et ts
Ġview s
Ġre asons
ĠDes ign
W ill
as ks
Ġd aily
Ġre duced
Ġn et
UR L
Ġexact ly
ĠG irl
ĠB ack
Ġfor t
Ġear th
K E
q l
ur i
ul s
Se lect
d es
ĠN S
ER R
G amma
Ġ\ ,
l ig
ĠIll inois
M ax
Ġdefe ated
ĠSecret ary
9 3
ĠProv ince
Ġk ids
Ġs ample
ĠT witter
Ġp ush
ĠL icense
our ney
art ers
el se
ĠD own
Ġtrack s
N e
Ġd ream
Ġh arm
196 5
it ory
ird s
ĠE gypt
int on
_ .
as er
ĠOr gan
Ġr ailway
ĠN Y
Ġun known
is er
Ġsup ply
Ġstr ategy
om ic
ann ot
âĢĿ ,
Ġreg ional
sec ut
A ust
Val id
Ġag ree
L abel
Ġident ity
Ġp p
Ġarg ument
ific ations
Ġyou th
B O
AN D
L ocation
Ġunderstand ing
F e
Ġre duce
um in
Add ress
ĠGl obal
Ġdiscover ed
ĠSt an
Ġleaders hip
c s
ĠG i
ner gy
Ġcompon ents
Ġs port
ĠWh o
ph one
Ġf ixed
D ev
Ġide as
F ig
Ġdeter mine
Fil ter
Ġs ell
se ar
ĠC ro
Ã ¢
Ġdr iver
ay a
c ks
Ġserv ing
ut s
jav ascript
Ġart icles
< ?
cl aim
ph y
ĠSt e
ra q
C urrent
Ġr ates
ach us
Ġst orage
or ney
But ton
Ġ$ {\
B undle
r ical
Ġh our
n ce
al y
el ess
196 6
ict ures
Ġag ent
F O
Ġc row
d ec
Ġhold s
w ater
at ically
Ġbeaut iful
ĠâĢ ¢
Ġinit ially
Ġcol on
b ra
m ir
Ġhapp en
ĠR o
9 2
ars er
Å į
ain ts
1 000
Ġ ut
in ent
Ġre ality
Ġto ward
Tr ack
ĠD isc
S ome
ĠH and
B I
M e
az ing
Ġtra ffic
Ġse ctor
Ġprof ile
ĠBro ok
Ġdep art
ĠInd ust
im ary
al ysis
Ġsaf e
ĠPol it
M embers
if ically
Ġcont aining
c or
7 1
ĠF our
Ġbeliev ed
Ġwin ner
O ur
Ġb ass
âĢ ĺ
are t
B U
af e
Ġrefer red
ĠRepublic an
Ġgener ated
anc er
c it
ion e
Ġhe ro
oth ing
ĠT w
ĠKore a
ef ined
Ġpolit ics
out put
Ġex ists
Ġmar riage
m ail
v ec
ĠTh ursday
. ;
un a
n ic
ĠF C
od ed
w rap
N ational
f a
In it
Ġequ ival
ot ed
ĠB oth
Ġpl anning
Ġoper ator
C areer
Ġh yp
ĠL ittle
E v
Ġf resh
Ġcomb ined
Ġact ors
ĠCL ASS
Ġn omin
on ym
go ing
Ġ< !--
ĠBro ad
ens or
Ġper haps
Ġf ellow
Ġt rou
end ar
Ġsc ope
ou ble
ograp her
Ġc ensus
ĠAb out
: </
p ower
Ġcom edy
Ġl ock
ĠL i
iz abeth
U rl
Ġcon clud
a fter
Ġw estern
ĠB or
ĠB ern
7 3
m ut
ĠD ar
Fr ame
op her
Ġcr ime
ent ed
Ġst ock
Ġcorrespond ing
ĠA uthor
n amed
Ġm ixed
In st
OR T
S ince
men u
Ġ> >
C al
Ġneg ative
Ġ! ==
Ġinvest igation
ĠEd ward
Ġliter ature
st ar
opy right
Ġf it
Ġcitiz ens
ĠF ederal
ĠIn ternet
T ypes
clus ive
Ġfl ight
od d
D ec
Ġen h
' ).
à ¥
Ġbr ain
v are
ĠK ey
ĠPr ince
Ġf an
ro vers
re es
Ġconduct ed
ĠAp ple
Ġanc ient
n um
Ġsk ills
bre ak
Off set
s pe
achus etts
Ġinc orpor
O p
G u
ins on
Ġrequ ires
Ġm useum
k it
ps ilon
ab ilities
Ġint ended
Ġd anger
Ġb ed
Ġfact ors
et ime
Ġfail ure
ĠP oint
Up date
Ġs quare
Ġchall enge
ĠM ethod
Ġem pty
iv ery
Q L
Ġshow ing
Ġco ordin
sc ope
] [
ĠA R
Ġded icated
Ġp al
Ġregard ing
ĠÂ »
Ġ il
u ing
ĠPol icy
^{ (
Ġre sear
ĠRe port
L ayout
ĠT uesday
f ree
Ġb ul
off set
? :
Ġarr ived
8 3
Ġpolitic ians
Ġs quad
ĠPr ime
D S
ĠB ang
AL L
r angle
prot otype
is ms
sq rt
Ġz ero
Ġcons ult
M ark
ĠChrist mas
c ap
Ġcons ists
ĠSt at
Ġapp arent
ra wn
Ġsh ips
ĠH y
ĠL u
ĠE ach
Ġtell s
Ġen em
Ġd oll
ĠR et
Ġfund ing
ik i
A re
Ã ±
Ġresult ing
ĠC oll
l ers
Ø §
ĠMc C
ĠP ass
ateg ories
Ġre form
Ġd ance
os a
Ġ ~
ĠW rit
Ġtr uth
ĠWed nesday
Ġex change
Ġanim als
Prov ider
ĠBe ach
b an
el ly
col umn
Ġcho ose
Ġthink ing
c irc
Ser ver
Ġob j
oc cer
ĠB BC
Ġpro pos
Ġp i
ĠĠĠĠĠĠĠĠĠĠĠĠĠĠĠĠ ĠĠĠĠĠĠĠĠĠĠĠĠĠĠĠĠĠĠĠ
9 1
sc ape
8 1
ĠV iew
en ant
Ġmot or
ĠH REF
c i
Ġemploy ees
Ġsy nt
ĠGover nor
ĠE astern
ec ute
Ġreg ions
C ons
Ġconf irmed
Ġsett lement
d esc
C ache
Y ear
Ġc ategory
Ġpl ants
Ġinterest ed
196 3
ER T
g ency
Ġmat rix
if er
E W
ok es
ens ions
ĠR om
ĠAP I
W orld
Ġch art
ĠK im
Ġob vious
j i
Ġnot es
st yles
atal og
^ *
Ġtrans ition
Ġfac ilities
ĠR ay
ri e
o ir
Ġattack s
l ook
Ġvis ual
H ome
Ġsuc ceed
Ġl abor
p resent
Ġc rick
Ġf ell
g ers
ĠS om
Ġcall back
Ġle aves
Ġbig gest
ĠL ight
Ġa x
ap os
Ġs un
++ )
ĠSt ation
ĠM ic
i at
P O
T ree
p ool
D B
ĠM ap
te en
C S
A Y
ĠH ong
ĠO tt
ĠW alk
**************** ****************
ov es
ĠT aylor
Ġb udget
C ase
Ġhapp y
on ia
d i
let s
Ġtri p
D ep
Ġfl oat
ĠR og
T arget
Ġqu ery
Ġtest ing
)$ ,
P at
Ġinj ury
st one
z en
Out put
ĠL o
Ġcomm it
fr ame
in er
ST R
ĠRep resent
Ġv en
ĠCE O
the n
ĠS her
Ġthe rap
`` `
CO L
Ġv ir
Ġb omb
Ġ rom
p et
ĠC a
ĠD utch
Ġpat ient
Ġpro ceed
ĠPl an
Ġle tt
Ġviol ence
im er
Ġin fo
ĠL atin
Ġd atabase
ĠStud ies
Ġinter pret
in stance
ĠO R
ĠM ajor
Ġprofess or
ul pt
right arrow
196 2
b ro
Ġdef inition
ot es
Ġbr idge
ĠT ri
ĠW is
Ġam b
res ents
Fil ms
ĠPort ug
Ġtest s
o es
Ġthem e
Ġmain ly
Ġa wards
Ġcre ation
I B
Ġd ig
ĠD E
W idth
Ġr ise
Ġprote ction
K e
Ġstart s
M O
Ġwe ak
sub section
ĠEx t
Ġpl ot
AR T
ĠOb ama
Ġter min
Ġey e
hen s
Ġpos itions
Ġb urn
Ġcam era
ĠA ud
Ġtool s
Ġaltern ative
Ġinvest ment
Ġestim ated
ĠSp ring
Ġv ector
Ġcred it
ain e
ly n
Ġus eful
ĠProfess or
olog ist
ĠC ur
ĠL ive
Ġcall ing
ĠK enn
ĠL y
em ph
S che
yd ney
Ġsh ift
ur er
B rit
ĠCorpor ation
S U
requ ire
ĠB ell
writ er
S H
Ġhous es
an th
p op
Ġhous ing
Ġdom ain
ĠM aster
ĠS us
S m
Ġdef ine
Ġp it
Ġg one
Ġarchitect ure
Ġa st
R ow
ann a
Ġenvironment al
Ġsing les
ĠG ener
ol es
s d
Ġpl anned
S earch
Ġear ned
Ġp icture
ut t
Ġext ension
ĠF und
V D
ke e
Ac cess
Ġtyp ically
ĠRe al
ar ant
D em
ĠAd minist
Ġsom ew
Ġre tain
ĠC H
ĠJ ean
Ġbr anch
Ġp anel
ĠPak istan
ĠL ike
epend ence
N O
ĠL ew
Un ited
Ġ[ ]
Ġgirl s
c at
C P
ĠSt eve
fr ast
cre te
? ?
Ġsp in
Ġst uff
y o
ly wood
am ber
Ġsur vey
he mat
ĠSe ction
ĠGu ard
ĠP en
Ġrap id
ĠColumb ia
Ġf uel
ĠF ile
pect ive
ev in
Ġreview s
C ON
Ġaccept ed
ost er
Ġepis odes
un it
ĠMass achusetts
ĠComm on
Ġw arm
n ote
Ġr ain
Ġfin ish
Ġallow ing
c ript
Ġlead s
Ġcommun ication
ĠWil son
Ġdist inct
Z E
Ġl ayer
ĠScott ish
Ġpred ict
ĠR od
ĠI raq
Ġsol utions
S w
ĠC at
ĠL ast
Ġf ashion
ĠV ill
ĠSp ace
Ġbeg ins
194 4
Ġacadem ic
ud a
ap se
f s
1 20
adel ph
d est
Ġnuc lear
r as
St at
Ġm ist
Ġline ar
ES S
ĠM att
a a
Ġm yst
Ġth read
ĠPol and
B ook
Ġfeat uring
Ġoff set
ĠTh ree
ĠF air
L ocal
Ġs plit
Ġnot ice
ĠTor onto
ĠA k
Ġspe ech
Ġbel ong
ĠSup reme
Ġveh icles
ĠR en
Ġdown load
pt on
Ġtrad ition
Ġfr ag
Ġf ant
Ġtalk ing
Ġdi agn
Ġclub s
ĠAmeric ans
} =
Ġapprop riate
ĠW ars
Ġcon sequ
Ġpro of
ĠA sh
gr ade
Ġoper ated
Ġret ired
Ġgl ass
enn es
ĠF ox
Ġher self
Ġd ie
196 1
Ġ` `
l aw
text bf
Ġclear ly
Ġdescrib e
adelph ia
Ġgover n
Ġcon vers
erv ative
ĠB ad
s or
. /
B o
ĠIn it
ide os
a is
}^ {\
s ign
Ġhon or
Ġopt im
ĠM ir
uz z
d rop
B i
ĠOx ford
ĠD aily
pos ite
fl oat
y ard
TY PE
h ab
Ġacqu ired
ro ot
Ġt error
Ġmin ister
Ġcomb ination
ecut ive
Ġarg uments
S D
it o
ĠB on
ĠC orn
? "
ic ip
se y
p es
th ur
oc ated
ĠAN D
Ġ* *
Ġ era
Pro t
m em
ad s
u int
Ġexper i
ript or
Ġconfig uration
Ġsm art
or row
c ard
Ġstep s
iction ary
Ġfac ility
L a
Ġstreng th
Ġmay be
Ġoccur red
Ġform ation
Result s
ry st
Ġnear by
#### ####
Ġg rew
Go ogle
="../../../../ ../
P H
Ġf ocused
Ġdef ense
ĠA D
Ġalong side
p an
ur d
w s
sk ip
ici ency
ĠF re
Ġh air
Ġperson nel
âĢ ¢
Ġcould n
iz ont
Ġhe at
Ġm ys
Ġn om
act or
Ġin n
ĠB ol
ĠW he
am l
Ġch ain
R ed
Ġl ies
Ġprote in
Ġa thlet
Ġbenef it
Ġsignificant ly
Ġslight ly
IG N
) =
ĠT ro
) ]
v in
Ġprocess ing
ĠAss ert
ĠN OT
Ġcl oud
Ġexc ell
un ct
F in
Å ¡
Ġdist ributed
E nc
ĠIs lands
ĠA L
Pro ject
Ġres ident
ploy ment
Ġprocess es
Ġn orm
Ġex erc
sh ould
ĠC reek
ĠB a
tem plate
Ġrel atively
pro of
Ġp ra
Ġt end
class es
ink ing
Un it
ĠTh us
Ġorder ed
Ġpe ace
Ġstand ards
Ġch osen
Ch ild
Ġte le
frast ructure
r ig
ir ty
Ġcontr ast
Ġfif th
Ġdr iving
Ġli ber
b les
( _
ĠV iet
unn y
Ġtechn ical
Ent ry
Ġsp ring
S ing
ĠVictor ia
d ocument
ĠAlex ander
Ġy ield
ĠR ights
Ġf ish
ĠBer lin
ic er
ou red
' ),
w a
alle l
ord ers
Ġs and
in ity
D own
Ġbuff er
R L
f riend
ĠSc iences
ĠEl izabeth
n ight
I ST
eg o
b al
Ġexp ansion
Ġfund s
ĠOn ly
s el
p a
ĠA venue
up s
am i
Ġdevelop ing
ĠM icrosoft
ov ing
Ġk ick
ipp ing
195 8
ri ev
Ġp ackage
Ġbusiness es
ell o
ac le
ĠN ame
ĠAm azon
b ound
ĠChe ck
ĉĉĉĉ ĉĉĉ
Ġtw ice
ri or
ob e
P o
u v
ol is
ĠE st
return s
Ġcr is
Ġsuggest ed
Ġpre par
Ġphot o
het ic
Ġass ociation
id el
Ġcy cl
ĠTr ust
195 9
wh ite
Un iversity
res ource
Ġco al
194 2
Ġl anguages
ĠU se
Ġcorn er
empt y
S L
Ġrele vant
Ġr ich
ap ore
Ġacc ident
u ilt
ann els
Or der
od er
Ġp an
ĠH u
ĠE vent
Ġre ject
S ports
à ¸
Ġsecond s
us hed
Ġdef end
A cc
pos s
ĠS a
k ind
Ġ icon
Inter face
Ġpol y
Ġmot ion
Ġs ale
195 6
Ġpl us
ĠB and
s ort
i able
ĠIn vest
Ġun less
ĠT al
Ġw ave
ĠPh ys
ent ity
ad er
Ġact ing
Ġadv anced
Ġfig ures
iÄ ĩ
eder ation
ast e
Ġbenef its
Post ed
Ġf ear
ĠC are
ĠB ecause
al o
ĠAre a
Ġrep resents
sc he
Ġro les
: #
Ġport ion
ĠAn th
O K
pl ing
ĠA li
Ġsold iers
W E
F urther
ĠT am
art ifact
il ation
Ġrequire ments
ĠWind ows
Ġdec ades
ĠFore st
Ġn or
d ist
ĠC irc
Ġexper t
ĠI P
194 8
Ġfight ing
ĠS on
vare psilon
ap pe
Ġrecomm end
Q ue
C M
Ġdet ail
ĠE nt
Ġinstr ument
UL T
Ġindust rial
Ġac comp
d irect
A g
ate ver
ad ing
ĠAr ray
Ġvers ions
duc ing
Head er
The se
Ġfa ith
Ġjob s
() ->
Ġcertain ly
H ere
Ġex amples
ann er
ĠBel g
let on
Ġf reedom
ĠWh y
Ġmin imum
Ġconstruct ed
Ġsp ons
av id
omet ry
Ġend s
Ġprim arily
ra ham
Ġev olution
Ġadvant age
Ġh ydro
se cond
Ġbase ball
( [
Ġhistor ic
um es
AC K
un es
ĠE U
ĠAr m
Ġdiscuss ion
Param eter
Ġtre es
Ġtro ops
ed ge
ĠAn y
ow a
ĠS ydney
] );
it led
Ġ ::
p lement
193 9
if ies
Ġloc ations
Ġmon itor
: "
AP I
Ġdoc uments
Â °
6 00
ĠR ail
ast ers
W indow
w orth
ĠS anta
ag a
Ġsil ver
ĠS ant
W rite
con f
Ġnewsp aper
c are
ĠAr gent
Ġk id
ĠR on
Ġcont rovers
osoph y
Ġgu y
195 7
cons in
Ġweek end
ĠA ction
cont rol
} ).
Ġtre nd
ĠDon ald
Ġ urban
ĠE nergy
Call back
Ġinstit utions
ĠN ote
Ġcompos ed
Ġlearn ed
ĠReturn s
Ġadv ance
t ree
ĠT H
ĠD ate
Ġpi eces
riz ona
Ġper man
ap es
Ġwe ather
Ġs ides
N ov
ĠB al
Ġhot el
as hed
25 0
Ġcomm ittee
se x
ent er
ĠBook s
is a
g ar
Ġmeas ures
Ġl en
em an
Ġpolic ies
or i
Ġhold ing
ĠEngine ering
Ġvari able
ib li
re ference
Ġscient ific
ĠH ind
or gan
ĠN C
ĠO nt
ps on
Ġauthor ities
c ache
Ġspe ak
eng ers
ĠH ung
id i
b efore
N on
Ġfavor ite
ether lands
ä ¸
Ġadd ing
Ġdel ay
l an
epend ency
Ġad vent
Ġarg s
it able
par se
ĠN ic
Ġinc ident
Ġest ate
Ġlarg ely
Ġimplement ation
Th read
Ġfootball er
Ġengine ering
M M
bour ne
P ublic
ect ive
k es
k now
b ool
{ {
194 3
ĠH ard
Ġinit i
Ġag ency
Ġr ural
ob s
Ġinsp ired
re nder
ĠSt ory
Ġn arr
ĠV en
ĠAnt on
=" -
ĠK ir
Ġr h
Ġass igned
er al
Ġsett ings
ĠE qu
Ġcl ick
ak i
Ġfind ing
ĠR ailway
Ġfav our
Ġgen us
ak h
Mod ule
Ġrepresent ation
ĠS u
ĠEn vironment
ist ration
Ġr ul
B L
194 1
Ġl y
Wh y
Ġg ain
Cont rol
ĠAd v
Ġopport unities
Ġu int
H is
ĠMin istry
ph as
sc ription
EN D
M ult
ĠU r
ick er
Ġst orm
j ection
os es
h igh
Ġh ockey
ric ts
Util s
Cont ainer
Ġeas tern
ot hes
Ġvot es
st rap
Pro cess
ĠE ll
. '
Ġthous ands
Ġopin ion
Ġsem i
H S
Ġb ow
194 6
ĠT y
Pos ition
d ates
ct x
f ix
ĠW el
ĠIn s
T ER
ĠB all
Ġcont emporary
Ġs an
t ure
b uffer
ĠStep hen
Ġar ms
S ign
Ġsol o
. \
ĠS at
Ġ Å
Ġalleg ed
reg on
ĠP C
Ġw rap
Ġsubsequ ently
sh all
ĠKore an
j e
Ġsee ing
Ent ity
ĠL td
Ġsub s
Ġrece iving
Ġe lev
ask a
() :
ĠP age
Ġc art
ĠAn other
Ġpartners hip
ĠOff icial
ĠH un
ĉ ĠĠĠ
Ġwid ely
p g
ĠPri ze
ĠL ind
Ġpost ed
Ġr ing
195 5
He ight
ĠS ong
Ã £
ap h
O b
Brit ish
Sc ript
Ġtechn iques
M usic
h ow
Ġex ternal
Ġcandid ates
ĠC reate
ĠC ON
Ġexp ressed
Ġc ab
Ġmys elf
Ġw ish
ĠR ome
ĠP ers
ĠL abor
Ġsche me
Ġident ify
Ġprot est
ĠH ay
Ġm el
ĠR aj
ant ry
Ġmount ain
ĠC ub
im ension
c r
Ġsupport ing
N one
ĠW at
udd en
ing ham
Ġknow s
Ġe c
s v
Ġmark ed
ĠCh ildren
val ues
Ġwin ners
ĠC re
izont al
Ġis ol
Set tings
ĠM ath
Ġsch olar
Ġag ric
Ġfl at
ĠT oday
ĠN ick
L evel
L ong
ĠF urther
ĠL ady
S outh
Ġauthor ity
Ġret ail
Ġj ourney
Ġm olec
m atch
Ġs leep
Ġnew ly
ce ived
ĠS ab
J ust
195 2
Ä ±
Ġappro ved
Ġd ivers
Ġregister ed
Ġn ice
out s
Ġp hen
G erman
Ġf iction
const ruct
ĠOlymp ic
ze ch
put e
Ġassist ant
ĠTr ue
ou ri
Ġclass ical
ĠD am
comm and
Ġv ent
ĠL ocal
D isc
194 7
ĠN ations
ĠCount ry
c ert
Ġac id
Ġc erem
Ġcr iminal
t oken
Ġtit les
Ġfind s
Ġseem ed
Ġsur g
aw n
sk y
ik a
ades h
oot strap
Ch ange
ĠG reg
Ġextrem ely
Config uration
Ġad just
Ġgu ard
d ed
m osp
v as
T A
ro t
Ġanim al
ĠMin nes
a ug
ĠDav is
util s
Ġlist en
Ð º
n ap
} /
ĠG er
ct ors
ĠC A
ĠL ater
R I
Ġimport ance
yth on
Ġarrest ed
r im
Ġe cho
ĠSt adium
ĠF ood
Ġad j
ĠĠĠĠĠĠĠĠĠĠĠĠĠĠĠĠ ĠĠĠĠĠ
Ġdestroy ed
ig a
V AL
ĠT ok
Ġsecond ary
r ine
f iles
Ġoffer ing
z z
ire ment
Ġpro ve
t ml
ĠBr ad
Ġposs ibly
Ġcom fort
Ġv on
H O
uss ian
ar ry
Ġwould n
ĠC y
Ġent r
ĠF inal
ĠC ode
Rec ord
an z
Ġprov ince
L C
Ġb atter
ro ke
195 3
Ġrecogn ized
ĠMinnes ota
N et
s f
ĠRev olution
Ġjud ge
ren cy
Ġprogram ming
; ->
ĠT urn
P ass
ĠPl aces
Ġw itness
Ġsurround ing
Ġcol lected
Aust ral
ĠSup port
Ġte aching
Ġneg ot
Ġinstall ed
Ġequival ent
Ġaff ected
ĠTur key
ĠPhil adelphia
Ġturn s
ĠK r
Ġanal y
ĠM ill
ing ly
per ial
Ġp ool
Ġl osing
ord an
8 00
Ġch ampion
Ġ{ }
Ġit er
195 4
ne ctions
Ġcharg es
eg raphics
w indow
Em pty
includ egraphics
Ġcont est
Ġass ign
Ġf estival
Ġfl ood
ĠGold en
Ġdiffer ences
Ġhe av
w ing
Ġx ml
are n
Ġsc ulpt
Ġare n
Ġoffic ially
Ġcy cle
AG E
Ð »
Ġs ac
rop ical
Ġs qu
Ġconcern s
Ġserv es
ĠPol ish
Ġmarket ing
H L
Ġappear ances
a uth
ĠD er
Ġsuccessful ly
if est
artifact Id
Ġfeel ing
an es
ect s
ast y
ĠIn f
igr ants
ge q
Ġv ision
ĠE th
in ternal
b ul
Ġneighbor hood
D ocument
Ġne ut
ĠL es
Ġachiev ed
ĠCor ps
m box
Ġc old
Ġr aces
Ġauth ors
Ġthan ks
ĠN et
Ġr ough
ĠE ric
tain ment
Ġsw im
ĠU t
and y
Ġnetwork s
Ġc e
R ange
ic ian
init ely
ĠE s
Ġst one
Ġchem ical
ĠOnt ario
1 10
Ġpurch ase
Ġl icense
Ġres olution
st ack
c f
="../../../../ ../../
. }
M E
Ġeven ing
Ġdecl ared
How ever
Ġh abit
ĠComm and
ĠCam bridge
med ia
Ġimpro ved
H ttp
Ġdiv ided
app a
ĠA h
Ġclass ic
ĠBr idge
V er
194 9
ĠN etherlands
sh ot
Ġchang ing
Ġentire ly
che stra
pr ise
Ġca ught
ĠM A
fr ak
ĠB h
Ġw ins
L ambda
b oy
ĠL ie
ĠAd am
b ec
Con nection
J an
d at
att ers
ĠReg ion
Ġdep th
ĠI l
er ies
n ormal
Ġgu ide
G eneral
ist ant
ial ize
Ġact s
Ġmusic ians
B est
ow nt
Ġsup posed
Ġmass ive
Ġp od
Ġcover age
over line
ĠF ord
Ġar ts
ĠAl b
ĠTur k
aw s
var phi
se ason
Ġexpand ed
Ġse ats
imens ional
Ġbal ance
anche ster
Ġcar bon
C ast
Ġap art
Ġexp at
Ġaud io
S O
Ġachiev e
Ġcapt ured
Ġb ond
Ġsh ut
Ġspec ifically
Ġdrop ped
Ġrel ation
ĠQue ens
Ġdo ctor
Ġrepl ace
P M
Ġcris is
ĠR oss
Ġsub stant
Ġhom es
Ġup dated
ra it
Ġ ×
Ĥ ¬
a us
Ġg al
ĠC as
Ã¡ n
Ġpur poses
. ~\
Ġfil ed
Ġap plic
Ġadopt ed
ĠEx ecutive
__ __
Ġy ards
b m
Ġg ar
Å Ĥ
ĠC ost
Ġtransfer red
ĠS ym
qu arters
Ġrat io
f aces
Ġrec ip
Ġleg isl
Ġjust ice
ĠF er
ant ly
ĠSe ason
Ġperform ances
ĠB C
Ġal gorithm
Ġrepe ated
ĠT able
ess ions
Ġem phas
ĠWis consin
ĠD C
Ġatt ribute
ĠColor ado
Ġder ived
Ġst rict
ĠR equ
! "
Ġtem plate
ĠG ree
ivers ary
T wo
Ġcont ainer
Ġpl ane
u ous
Ab out
Ġres c
An y
enc ing
Ġdem ocr
ro ve
r ange
Ġw arn
ific ate
Im pl
ĠV ideo
Ġcomm itted
im ages
Ġcommon ly
Ġyoung er
uc ks
Ġcirc um
equ al
p df
Ġfound er
ĠM ult
In ternational
V ari
ĠB ru
195 1
e en
ĠJew s
Ġchalleng es
ĠComm unic
Ġst ress
. $
ol itan
ĠT O
Ġexist ence
g raph
ĠB at
Ġw ing
ĠSt aff
Ġn ob
T itle
Ġ* )
c oh
f ly
Ġelect ronic
Ġh all
ĠSh ort
ĠM ember
ĠG allery
Ġorgan ized
Ġgrant ed
ĠCon f
Ġs um
Ġclin ical
ch ron
Ġb an
ĠS ign
Ph i
Ġc ru
dev ice
ĠGu ide
) ^
ennes see
uc ed
ĠLew is
u ations
Ġab andon
Ġman ner
& \
Ġwe alth
N AME
ĠM oh
Ġann ounce
group Id
ĠPer form
ron ze
ĠEX P
Ġpract ices
let ed
Ġv ess
D P
Ġprofess ion
Ġsust ain
Ġcamp us
om er
Ġvol unte
Ġfrequ ency
Ġdefe at
ĠM P
Ġp adding
N ote
ĠPrem ier
Ġp ed
ĠSing apore
Ġprep ared
ar c
ĠSch olar
Ġel imin
Ġdes cent
Ġn arrow
Ġc as
s end
Ġtre ated
ĠSt ock
ili ar
c ut
% ;
: (
J son
ĠW inter
ĠF I
Ġbut ton
ĠMod el
ag ger
um a
per or
b ell
ĠA z
Ġpromot ed
Ġcor re
miss ions
Ġend ing
ad i
red it
Ġb ought
ou ston
} ),
iss ue
d el
ĠDes pite
[ \
Ġweap ons
ĠS ep
Ġp owers
ag an
Ġtrans action
Ġdom estic
Ġphot os
ĠI mp
Ġf ramework
Ġin ner
Ġcustom er
}, \
y al
ĠS em
ĠL ear
Ġto ken
S k
U se
Ġl ie
ĠHar ry
Ġmed ium
Ġhelp ing
Ġwin ter
v an
ĠBro ther
ĠPh ot
Ġ iron
Ġm ent
D ist
el d
Ġpass ing
ĠHam ilton
iv als
ul ating
Ġdiscuss ed
Cl ick
Ġhost ed
ĠL ook
Ġequ ation
Ã ¸
V ideo
Ġerr ors
ĠS af
Oper ation
R C
ĠL ow
Ġexper iences
ĠA rizona
Ġz one
") );
H ash
Ġhigh light
Ġhor se
Ġpublic ation
19 18
193 6
m aster
Ġre action
Ġshoot ing
h ol
ac cess
Ġsound s
ĠCont rol
Ġt or
ĠSo ft
Ġyour self
ĠN on
Ġcharg ed
Back ground
ĠB udd
s i
f all
ĠP it
H igh
ex ample
R ight
Ġbro ken
Ġca uses
Ġsuff ered
N N
Ġlist ing
Ġvis ible
ĠM iller
Ġrem ote
ĠL ev
ĠT ext
Ã£ o
Ġs amples
Pol it
D i
Ġex pos
Ġexpl ained
Ġstand ing
ï ¿
w orld
Ġkill ing
P T
Par ams
Ġf ill
ĠR est
Ġmin ute
w eg
Ġass ume
Ġm ort
r ub
CO DE
Ar ch
Ġmark ets
oper ation
D O
Ġstat istics
Ġcompet ed
> ,
Ġcont ained
S M
G en
Ġw ww
C ore
ĠSwed en
Sche ma
Ġapp rec
cont in
Ġl ay
Ġop position
if fer
Ġw at
U RE
Ch rist
Ġt on
o en
he ll
ĠO regon
Ġgreat est
Ġpurch ased
ĠB rian
ĠAg ain
Ġmov ies
Ġocc asion
Ġent ertain
ug ins
ĠI V
Ġprom inent
Ġgener ate
ĠAtl antic
ag en
ĠL at
Ġstrug g
av or
ram es
O ption
Ġstop ped
Ġadv oc
Ġsec ure
Ġgu est
Ġm ental
Ġreturn ing
Ġhel ps
ï¿ ½
ĠN FL
Ġbel ief
ĠP u
b as
lang le
ĠMount ain
D raw
styles heet
Ġ" \
ĠD eb
og y
Ġrepresent ing
Ġun able
ile y
ĠD igital
Pro perties
Ġdel ivery
ĠA ge
mod al
Ġord ers
pro duct
Ġattempt s
est ion
ĠH o
m o
Ġhum ans
Ġgu ess
Ġsk in
ang a
L A
Ġo dd
Ġh idden
Ġinterest s
Ġmess ages
COL OR
ann y
Ġcon ver
Ġadministr ative
Ġint elligence
M ain
Ġdou bt
ref ix
ĠN az
ip eline
ack et
h u
Ġcreat ive
re ll
s es
Ġp un
D D
ab ric
Ġperform ing
ĠCap tain
math frak
Ġl icens
ĠMag azine
Ġext ract
gl obal
Ġwatch ing
l n
R ad
Ġe g
Ġsp end
iv ation
m ad
Ġtr uly
M em
Ġg ene
Ġsched uled
ang ers
L S
ĠChar l
Ġdeb ate
Ġprogram me
Ġ à¤
Ġocc urs
d ebug
Ġg ender
Ġcap tain
F ont
" ))
ĠD uke
Ġexperi enced
ĠA st
Ġscen es
V ert
Ġd ry
ist ed
Ġbehav i
Ġt aught
Ġb odies
ĠI T
cl ick
Ġmunic ipality
el le
t ask
Ġsuff icient
ĠB G
ĠB att
ĠAff airs
du ctions
! âĢĿ
Ġdocument ary
Ġover ride
ĠD om
i ples
d ict
Ġterrit ory
J o
ĠE N
Ġresult ed
x x
Ġl it
ms g
Ġplan et
add ress
193 8
Ġesc ape
Ġbl ocks
ĠInd ones
ĠS av
Ġins ert
ĠP rom
col n
ĠG h
Ġhe aring
Ġwait ing
ch a
ual ity
B efore
iam i
Ġg ained
ur ches
doc s
OR D
ĠD ark
Ġc ash
Ġrelig ion
Se cond
Ġhapp ens
Ġdeliver ed
Ġj ump
" |
ag ues
b ind
ĠLe on
Ġte en
Ġf illed
E ach
Ġv ideos
% ,
is lation
Ġ> =
ĠH as
all ow
and ra
ĠR ose
inem a
h ash
ens ure
Ġam azing
ĠMem orial
R et
H ost
ĠCh annel
G E
Col lection
d elete
ĠEnter tainment
Ġdet ailed
ĠBuild ing
ĠE lement
P ersonal
is ode
L eft
V ID
Ġcompar ison
Ġexcell ent
st ances
Ġin tern
ut enant
Ġsuggest s
Ġen able
ĠCom put
erv es
ĠJ er
enn a
Ġsp aces
ĠR a
trans form
Men u
ĠB ab
m id
ĠPhilipp ines
Ġprom ote
k g
Ġtw enty
Ġcommun ic
Ġgrad uated
ĠB u
Ġvari ables
ĠK ansas
ar on
ens es
& #
ro g
ĠHot el
ĠCon nect
C ap
ter ed
s plit
re ens
ĠR yan
Ġrecogn ition
Ġp iano
ĠTrans port
og gle
ĠM ilitary
fort un
19 14
Ġp ure
ĠG il
ER S
Ġp rices
ple x
mer ce
193 7
ĠM ach
ic ide
ord on
j an
P res
rou d
st op
D ir
ĠIndian a
Ġaspect s
Ã© e
em et
ĠĠĠĠĠĠĠĠĠĠĠĠĠĠĠĠ ĠĠĠĠ
Ġadv ice
Ġlo an
new s
Ġconstit u
Ġform al
Ġult imately
ĠT ony
ĠFore ign
Ġgu ys
h ard
Ġworld wide
ĠBr ig
v ard
Ġcont rolled
Ġm ir
Ġcl ients
T ube
Ġhas h
pl ed
ĠT ai
Ġat mosp
st ore
ĠOn ce
ĠEx ception
Ġc overs
m ode
ĠA thlet
iz z
mod els
D R
param eter
Ġinvolv ing
con nect
Ġse gment
Ġtyp ical
iven ess
ro it
Ġexpl ain
Ġfact ory
Ġbring ing
rupt ion
Ġfrequ ently
V ol
ĠP ot
Ġf lex
16 0
en z
o is
inter face
Ġlett ers
Ġm il
Ġsh ock
ĠAnd erson
Ġsol ar
s ession
Ġs udden
pl om
As ync
ĠJ am
iam ond
% .
ol i
f amily
Ġsee k
ĠMed icine
h line
St ar
Ġvis ited
ĠR eb
ten ance
ir ation
ĠS P
ĠB ishop
jo in
Ġrespons ibility
ĠF ollowing
hold er
Ġfil ename
ĠK at
Ġse vent
Ġex plicit
A nt
================ ================
ĠH an
ĠPal est
Ġli qu
Ġinstit ution
r ant
Ġparticip ated
ad ed
Ġprot ocol
Ġpain ting
ĠD ead
Ġs oul
Ġser ial
ĠS ound
osc ow
b order
ĉĉ Ċ
Ġdec ade
Ġgu arant
Ġsh ares
Ġcapt ure
br id
or ough
c oll
Ġf ly
ater n
ĠC ab
Ġv el
ð Ł
igh th
Ġa id
ament al
H er
ic ians
ĠO s
az a
Ġw a
ell i
T im
Ġeff icient
m ake
ĠSwed ish
10 1
D avid
Ġc le
Ġpar ams
Ġsubsequ ent
sup port
b olds
i ac
Hand le
ĠT ennessee
F ound
W est
ag h
sc ious
Ġlink ed
Nav Bar
M ost
n ames
) "
19 17
ĠMar ia
Ġb right
ĠF ac
se ct
ĠSt art
v ector
bl ing
Ġindic ate
Ġext ensive
bolds ymbol
-- -
F R
ĠH art
st ep
ar ation
Ġess ential
Ġun iform
Ġprinc ipal
m i
ĠR oute
ĠL iter
Ġn odes
ĠC ook
K ind
Ġin frastructure
Ġv eter
IT Y
Ġarr ang
D T
H as
Ġs we
Ġin line
poss ible
abl a
ĠSim on
Ġkeep ing
gh an
ĠThe refore
Ġres istance
Ġcomb at
ĠC ond
St ud
Ġm ac
P ORT
Ġpar liament
ĠK han
ore t
St ore
l ow
ĠJ oh
Ġre nd
ov en
ell s
ĠC ru
ĠO N
W omen
ĠM anchester
ĠD ream
Ġmunic ipal
om ot
res hold
field s
Ġdis pl
ĠA T
ĠHol lywood
ty pes
ian g
Ġbro ke
ĠAss oci
ĠAdminist ration
Ġcop ies
j ar
Ġrestaur ant
Ġsupport s
Refer ence
Ġimp ress
ĠCol lection
Ġtit led
ĠF all
Ph one
l ah
D om
Ġc ache
Î ±
ĠSk y
U K
Ġstand s
ĠD u
us al
O ct
ĠTh rough
d am
igen ous
over y
Ġtown s
Ġacc used
emet ery
Ġl oved
ff ee
ist ent
D C
Ġvict ims
Ġw alls
Ġl ose
b ad
Ġfac ulty
Ġde leg
Ġthan k
out heast
ĠCh all
}} $
Ġm and
S ession
T ags
Ġe le
Hel per
ag g
Ġdist ingu
ap pro
ern ame
fo o
ĠS pec
est amp
b ot
ĠC ase
re tt
ob uf
Ġbound ary
Ġre nt
F T
ot imes
ul ator
G A
Ġr acing
ĠJ ane
Ġc raft
ĠJes us
force ment
Ġstri ke
au x
Ġpil ot
ĠMiss ouri
weg ian
f n
se ud
L ab
Int eger
ĠB efore
h ire
St ep
rop olitan
n ie
Ġn um
ke ys
ĠS E
ĠMal ays
The n
Ġac know
AT H
19 00
Ġnot able
ĠO cean
Ġjournal ist
Ġab use
193 5
Ġt um
ĠDi ego
ĠP ier
Ġsc oring
ĠK evin
Ġnov els
ast s
ĠCast le
p atch
Ġhousehold s
ĠOff icer
ĠN orm
ĠMar c
Dev ice
Ġprov ed
ĠOn line
f ire
Ġ" /
B R
ĠMod ern
A v
Ġst ores
at ar
ĠSt one
Ġre new
Ġg od
be an
M ich
Ġear n
Ġaccount s
Ġtal ks
Ġth ick
ĠAc cess
ac c
ax y
ĠS i
ld ots
Ġexhib ition
w all
ĠD NA
Ġinteg r
Ġdec isions
m b
Ġy ellow
Ġair port
Ġdr ivers
ab ama
Ġdescrib es
sh op
d ot
g ame
A uthor
ĠO bs
w idget
Ġt err
ĠUkrain e
ĠK al
19 19
Ġint ers
Ġwh atever
Ġgover nor
Ġin ternet
ail ing
Ġhead er
co in
ĠR oy
in ch
Ġpe ak
call ed
ĠS ix
L oc
Ġcap able
Exp ression
Ġconsist ent
hand le
Ã º
Ġre ar
t ool
ef e
Ġband s
ers hip
ĠHe art
Sh ow
c lear
Ġclos ely
OR M
ĠPr inc
ang o
' ],
ĠSen ior
Ġpr ime
Ġde lete
B E
( -
Ġmeas ured
Ġw ound
ĠSystem s
ĠD or
ĠAr thur
Ġinter action
( :
m ic
ĠN ext
cre en
ĠMar g
he red
ĠPat rick
els on
Ġent ity
Ġmed ian
Ġin h
ĠP ay
c raft
emb le
ĠB ox
ĠR oll
Ġo vers
ĠCh ild
Ġboy s
N orth
Ġw rest
Ġtr igger
Ġs now
v ol
AT A
Ġpresident ial
Ġh its
Ġg ather
enn y
E uro
oc ity
Ġin her
193 3
sc reen
includ ing
ĠP R
Ġund efined
og ether
al ion
ĠFr ont
ind ows
ĠM un
wit zer
25 5
ĠH op
ĠF ull
ĠH ur
sk i
b ass
in ations
Ġj av
ip ped
f ull
y ers
Ġst ret
iss ions
ix el
y es
19 29
Ġbr ings
in cess
ĉ Ġ
AC T
Ġro of
Ġv ocal
Ġins urance
A pr
Ġm outh
ĠMed al
Ġread er
On ly
Ġdeg rees
Ġrelationship s
Ġparticip ants
Ġresear chers
Ass ociation
ĠC zech
ial s
s ur
pre ne
Ġv ul
Ġabs or
ĠI owa
li k
Ġengine er
ac ent
ut her
Ġv ice
Ġrec all
P arent
Ġthe atre
p erson
Ġcontribut ions
Ġf at
ĠMex ican
ag u
Ġscient ists
Ġrank ed
ĠDe ath
c up
Ġtr ained
ownt own
L eg
d on
t im
ubl ished
Ġse ctions
Ġw ire
ĠB urn
ĠNor way
Ġrem ark
A ug
Ap plication
ĠReg ional
P tr
ir th
Ġmod ified
r ase
= {
M C
Ġop posite
193 4
Con st
Al though
Ġdef initely
ic ious
ĠN ig
re prene
Ġe at
n i
ant e
cl oud
Ġteacher s
Ġconcern ed
to String
Ġcon vent
Ġch annels
Ġb aby
Med ia
Ġeduc ational
Ġdrug s
ĠA S
ĠG ab
ĠHigh way
M T
d y
Ġcl uster
sh ips
ic ons
Ġv ary
Ġv o
ol ver
ĠH ouston
Ġbo at
Ġconf irm
ĠReg iment
en v
w estern
ĠSur vey
Ġcollabor ation
D IR
Ġv eg
Ġcomp ris
Ġlo op
Pl ay
witzer land
Ġman age
m ont
Ġag ents
G R
ol id
s ystem
ĠDis ney
Ġexpat riate
Ġst rip
off s
ab et
est abl
olog ists
Ġs elling
N ames
ĠH al
ache lor
Ġle ct
19 10
Ġinc red
Ġemb od
O h
atas et
ĠM oon
ĠC ustom
ĠG a
Ġst ack
Ġke ys
r at
Ġcompos er
Ġc os
ĠAr k
ĠM ake
ĠEx per
Ġstre ets
ĠB arn
Ġt ail
Ġclos er
ĠAnd roid
ĠS quare
al so
app oint
fer red
T ele
om orph
ĠGree ce
Ġrepresent ative
Ġt ack
Ġcrow d
n abla
Ġinj ured
F ull
19 28
Ġ ),
Ġno ise
Ġd rawn
Ġk it
Ġemer gency
ĠC ulture
Ġabsol ute
Ġdec or
pl ugin
Ġaccom pl
ĠViet nam
Ġh un
ĠArt icle
Ñ ĥ
f ast
ĠM as
ĠHol y
ĠJ ay
os l
Ġse ed
ĠD omin
ol as
aud i
ĠRec ord
F rench
Ġintro duction
oun sel
Ġenem y
Ġpass ion
_ ;
ge bra
d oor
ĠMary land
ĠIsrael i
Ġcons umer
Ġenc ounter
Ġw aves
ĠMel bourne
Ġ urg
âĢ ī
ERR OR
b el
ĠSil ver
az e
Ġemploy ed
Ġd ress
ĠAll en
a ire
193 2
Ġlaw yer
=" /
ĠMark et
ĠCon stitution
H ar
ĠCol on
av ity
st an
ĠJ ordan
ĠV alue
ĠLin coln
S igma
Ġdist ricts
ĠN a
Ġr ugby
Ġcont ribution
Ġcorpor ate
D el
ĠB ry
Ġr ide
w ait
ud es
Ġpers pective
att ribute
ĠS C
Val ues
en um
ĠM it
w ick
ĠN umber
equ als
ĠP sych
Ġatt ached
Ġleg islation
} )$
$ (
Ġshe ll
ĠB alt
Ġgood s
s ing
ĠLeg isl
Ġfem ales
set tings
ĠM oscow
ru ctions
w ich
& &
Ġaut hent
ĠV eg
ĠH ig
Ġleg end
Ġ[ '
ĠPhil ip
ĠMr s
Ġind eed
ist a
Ġdirect ory
Ġre duction
ĠW atch
Ġsm ooth
ĠO ak
ĠU ser
ition ally
Ġca using
De cl
all as
ĠIslam ic
ex port
F alse
ĠF ederation
Ġincre ases
Ġh aven
ĠPe ak
u ction
uss ion
int end
Ġs pl
c p
coh ol
Ġd ates
ĠL O
Ġop posed
Ġch airman
ĠEXP ECT
ibli ography
L ife
Ġtop ic
Ġsym met
Ġus ual
Ġeas ier
) /
à ¦
Ġsp ending
Ġrev olution
aw ay
Ġfe els
c ustom
AC E
Ġst ood
ĠDo ctor
b at
ad min
ure au
Ġfam iliar
ĠV ice
ov al
non umber
Ġw ine
Ġcompos ition
t n
B ody
ĠP ath
D ebug
Ġhundred s
Ġtrans lation
ern el
Ġsp oke
Ġsign s
Ġste el
foot er
el lect
Ġs ought
Ġcon sole
c ing
ensure math
ĠE nc
E very
ch ant
Ġperman ent
Ġ ing
S ym
Ġinv oke
lah oma
Ġst ored
Ġro yal
Ġpar ish
ut ely
ott ed
Ġf ra
i Ã³n
Ġuns igned
) -
Ġelect ron
Ġd ialog
ĠSer b
Ġref used
] ]
Tem plate
Ġm ine
G O
=" _
ĠN ap
al ty
au ge
r ations
Ġext ent
AS E
ĠÂ ·
Ġre nder
Ġthe rm
M any
d em
Ġt all
J apan
ĠK now
C or
ĠMat the
Ph oto
and o
l ay
ĠB ush
ĠAg ency
Ġass ault
Ġn amespace
A ng
ĠCl inton
N C
Ġread ers
S pe
Ġm atters
ĠI ss
ĠMo ore
ĠGr ant
Ġpl ate
qu es
Ġ\ !
Bl ack
Ġ} )
it als
Ġhy per
f ill
ĠP lease
sub set
Ġphot ograph
Ġent itled
Ġwill ing
Ġun f
Ġf aced
ĠS quad
Ġwor st
RO M
Ġaff ili
Ġsim pl
Ġtechn ique
gress ive
ĠBG COLOR
U D
Ġvisit ors
Ġc ards
ĠF ri
Ġch apter
ene z
W ell
ĠS ite
ĠW olf
v ing
iv a
Param eters
rec ord
Ġinv ited
Writ er
Ġbrother s
19 22
Ġpost s
12 3
in f
Ġfr anch
Ġdet ect
Ġ( '
Will iam
Ġt rib
iv acy
ubl in
Ġk il
Ġcr ash
ĠAl f
ĠV i
che ll
Ġport ray
Ġor ient
Arg ument
o a
Ġask ing
ĠLab our
Ġsched ule
Ġde ploy
text it
ĠF le
Ġsp r
P U
%% %%
b urn
we alth
f ol
ĠT en
ĠN AS
un ior
ĠCh ap
ĠK y
Ġs oci
Ph il
ĠD VD
ĠF arm
uck et
Ġmanag ers
al id
Ġd a
Ġindic ated
Ġsee king
ĠJun ior
Ġpers ons
ĠT R
ĠM iami
## #
{ }
Ser ial
193 1
ous es
ot te
19 24
Read er
Ġaccom mod
Ġsh aring
Ġspe aking
Ġb anks
Ġm ock
d isc
ab il
Ġappe al
Ġre named
l ights
ĠHT ML
P P
AN T
G ET
and al
An other
ĠHow ard
ig e
Ġexperiment al
Ġconstit ution
Ġcomp re
in th
Ġin hib
Ġsub t
Ġpar se
ert o
reg ister
ell ite
arg o
Ġly rics
Ġw ed
ĠD ave
ĠKent ucky
Ġpoet ry
w ords
Ġmen u
v m
W A
ĠAnth ony
og s
Ã© s
Ġso le
M ENT
Ġf olk
p ur
Class es
Ġoper ate
Er r
19 16
Ġwas te
ro ph
Ġm aps
ok ed
="../../ ../
Ġpar allel
19 15
Ġvot ed
Ġint ent
Ġg uns
Ġc ro
ol ly
g i
st at
n eg
Ġag ed
Ġbur ied
Ġproduc ing
Ġst able
Ġdis appe
ĠE c
Ġcan cell
ĠEx pl
Ġput ting
ĠCon st
Ġt ight
19 27
Ġcol our
Ass ert
if ts
m al
our se
em ail
Ġsup erv
Ġag encies
Ġcon nections
ĠS port
Ġl es
ĠF A
Ġmov es
Ġindic ates
ĠYear s
Ġexpl ore
ir ms
\ !
Ġaff ord
E p
ĠL yn
ist ical
ĠE ff
ĠD un
ĠB ah
hed ral
iv ated
Ġass embly
ĠH om
A f
Ġattempt ed
Ġfor g
ĠYou Tube
F ind
ĠHar ris
U nder
19 12
ĠW here
Ġsix th
he im
II I
ĠC reat
Ī Ĵ
V ector
ĠP ed
Ġeng aged
ĠAl abama
ĠC rit
ock er
h ome
Ġb rowser
ipp i
Ġdanger ous
ĠM unic
ch or
Ġdep ending
D L
ĠN ev
Ġcrit ics
block List
Ġconvert ed
ĠC ape
Met adata
Ġch air
Ġquant um
Ġpay ment
Ġrequest s
P RE
ins ert
ra h
ĠY outh
ot ion
. [
ĠG ard
w id
ob by
ĠR ick
Ġcom ic
ĠPl ace
ik h
ĠU RL
mat rix
com ponent
ig ious
ĠPro te
gl as
i est
ĠDemocr ats
Ġpass es
New s
pr ime
Ġmechan ism
S y
ĠT reat
Ġsk y
Ġs ed
Ġprem ier
Ġtal ent
ĠR ub
I con
Ã¼ r
ĠTown ship
tern oon
f ony
ĠChe m
Ġautom atically
h us
ĠTok yo
7 00
Ġqual ified
p anel
qu ir
ĠR ow
Ġil legal
Ġmom ents
ĠJ ava
Ġsomew hat
hens ive
Ġparticip ate
Ġstrong ly
Ġp ictures
-- >
unn el
Ġby tes
Ġdis miss
ou st
ĠH ans
Ġtra il
ill ery
Ġturn ing
R ele
Ġposs ibility
od ge
Ġphen omen
es ome
Ġdi plom
h over
sh ort
ĠS ri
Ġvert ical
el and
ĠPh oto
ĠE P
Ġreport ing
Ġprom pt
p adding
Ġbo ost
ĠFig ure
Ġadult s
ĠĠĠĠĠĠĠĠĠĠĠĠĠĠĠĠ ĠĠĠĠĠĠĠĠĠĠĠĠĠĠĠĠĠĠĠĠĠĠĠ
Ġf lying
Ġmagn etic
ok ing
Ġide al
b ootstrap
ĠR ight
ÃŃ a
Bi ography
Ġsever e
\ "
Ġincreasing ly
Ġo k
Ġcon ven
Ġs ummary
Ġsurg ery
Ġfew er
Ġdynam ic
ĠSe ver
put ation
-------------------------------- --------------------------------
O lymp
Ġmiss ed
Ġl ists
Ġcont ributed
D oc
re q
ach ment
v o
ĠS witzerland
Ġo s
Ġpro spect
Ġm al
ĠMan ager
âĢĻ .
Ġexpl an
R ender
> ();
Ġtr ains
ĠD ur
Ġwhe el
ĠZ h
M r
Field s
Ġoff ices
In valid
19 25
Ev ents
Ġassist ance
arch y
Ġenjoy ed
R oot
d ouble
Ġproced ure
Ġheav ily
Ġentertain ment
Ġnomin ated
19 21
ĠV ersion
Ġassum ed
u able
Ġdec ide
Ġpattern s
ĠDef ense
ĠAf ghan
Ġshe l
Ġadvert ising
19 26
ĠN ative
Ġass ets
Ġinv ent
Ġwor se
ĠC op
19 23
Ġprop ag
Ġtechn ologies
Ġhead s
Ġpubl isher
ro le
G ame
cit ep
Ġpromot ion
J uly
ish ment
ĠN O
ĠBar on
ĠT a
Ġimplement ed
Ġr ating
er on
dis abled
is ition
r ons
Ġre venue
Ġhon est
ĠCl ark
ĠMar ine
ic ut
Ġt elling
p are
ï ¼
Ġst im
Ġr aw
B M
\ [
ĠSar ah
I ter
y ou
ĠAl bert
Ġr ig
Ġs urn
ĠHer itage
Ġconsider ing
ĠM O
ĠP y
s uccess
Ġp itch
act s
ĠInst ead
Ġexpl os
Ġinter ior
Ġlim its
Ġroom s
inst all
ĠRes ult
in line
Ġdesign ated
ĠT el
k h
ĠHaw ai
imens ions
} "
St ack
Ġfin ite
ĠT OD
em en
Ġkn ock
ĠK elly
Ġby te
ĠN av
Fil m
web kit
os ph
Ġco aches
Ġrefer ences
S ION
Ġprov ider
F IG
Ġsubject s
= >
ĠL as
Ġrecomm ended
equ iv
by te
Ġcerem ony
ĠJac ob
el ve
AR Y
ĠN ich
Ġr is
C am
Ġj azz
Ap i
Ġl aid
ĠEx press
Ġapparent ly
E ST
re place
ĠC R
ĠP ut
v irtual
ĠInd ex
ĠK a
12 5
Ġjo ining
ot ten
Ġtherap y
Ġar bit
J une
Ġexerc ise
F eb
P arser
sp ring
ut ies
Ġeffect ively
Ġwalk ing
ĠR ey
pro fit
g ence
k appa
mon th
ĠBase ball
ru le
Ġpro port
Ġg iant
Ġto wer
Ġfl o
Ġon going
Ġold est
ut ed
ĠCap ital
Ġprob ability
IC E
d ependency
Ġch ose
ĠI O
end ment
( *
Can adian
ĠE ag
c opy
inc ial
Ġsett led
d eg
Ġfound ation
Ġatt ributes
C ustom
Ġ[ [
Ġper mission
ĠE mer
Ġh a
Ġref ers
E Q
Ġwrit es
l iving
Ġen abled
medi ate
ĠL ib
ard o
GB T
Ġpropos al
ĠRepresent atives
} -
Ġv irt
Ġne uro
secut ive
ĠN ik
end a
ĠCol omb
iss ippi
Ġattack ed
ur is
Ġfac ing
Ġvill ages
ĠPro t
Ġbeaut y
Ġde bt
ĠF a
W here
ch ildren
T ax
M arch
ĠE ver
oy d
D I
over ty
ĠG all
Ġre in
Ù Ħ
", "
fortun ately
F ollowing
ĠArch itect
ĠCh ange
ĠPro cess
ph ony
ĠAd vent
{ -
Ġex tr
rec ated
ort heast
ĠG ib
Ġdep ends
Ġm o
Ġfe e
ĠV o
Ġkey board
ĠAnd re
Ġgrow n
ĠSc ient
ĠD a
r ison
ĠN ob
ĠM S
Ä į
Ġr ub
ĠDet roit
Ġv ast
Ġpart ial
Ġb es
ess ed
er ick
ĠMay or
ĠEx p
âĢĻ ,
ĠN ever
IV E
Ġwar ning
r in
Ġexpos ure
aut o
Ġref uge
Ġmay or
Ġp up
R ect
Ġconvers ation
Ġstar ring
ĠWh it
Ġspect rum
anc el
Ġgr ade
> .
ĠG arden
ĠL eb
Ġgr id
ĠSe attle
ĠB os
od a
il st
Ġex ceed
Ġf asc
Ġpre gn
Ġcontinu ous
Ġund ert
. âĢĻ
Ġag greg
Pol icy
f ramework
Ġpre v
Ġf ought
l ad
M D
Ġsus pect
Arg s
ĠTh ird
S ch
Ġap i
point s
it ems
Ġcharacter istics
ol ars
Ġo x
Ġd ies
Ġroad s
rib ed
Ġdr ag
ic ity
` .
B B
Ġfl u
e ah
ar o
D ay
ex ports
Ġr ival
By tes
Ġs ter
ĠAuthor ity
LO C
ĠF ellow
Ġs am
B el
Ġmed icine
Ġext end
ang el
ĠComm un
Ġj son
Ġsign ature
ĠF uture
12 8
Y es
P aul
Ġm ask
Ġm ales
ĠAm ong
ĠR ound
Ed itor
level and
ĠVill age
ic he
Ġs aved
D ialog
Ġex it
S ources
; \
Ġm ob
wh o
Ġvot ers
S ET
Ġd uty
N etwork
ank a
Ġacc ord
Ġrepl acement
Id ent
ter y
' >
Ġl ake
Ġhead quarters
Ġh ur
at ible
Ġex ecution
Ġconf idence
ĠAn ne
Ġland scape
Ġanc est
or ry
ram a
F ree
Ġf aster
ĠAust ria
Ġex port
En abled
ues e
ĠTr aining
ĠTurk ish
}} {
ri k
Ġoper ators
W S
ou ter
Ġdoll ars
u h
u j
Ġr id
prot obuf
Ġest imate
Ġacc eler
Ġw aters
ĠFor ces
ĠP a
Ġt ries
Ġg ift
ĠL ink
Ġt ank
clos ed
Î ¿
Ġp roud
d ale
ĠG ordon
") ]
ĠSoft ware
Def inition
ac ht
Ġcomp are
Ā Ā
Ġf ired
over nment
on i
Ġst ages
ĠW y
re nd
ĠIm m
Ġexper iments
Desc riptor
M c
Ġb rown
Ġre ct
Ġeth nic
ĠJ os
Ġun us
Ġsym pt
call back
ĠEd ition
L P
Ġmaintain ed
Ġus age
ĠLa ure
Ġliter ary
Ġcarry ing
ĠPh ill
N um
ĠJ ason
Ġappro aches
up le
roll ing
A wards
ĠU l
Ġinteg rated
Ġqu iet
ĠJ SON
H R
ĠD ick
Ġpass enger
in ian
ĠF ind
ac on
Ġmanufact uring
, -
Ġse es
st ood
Ġne ither
ĠBow l
Ġg ate
Ġem bed
Ġre aching
c md
Ġb irds
Ġb on
Ġvul ner
Ġt ab
Ã ¥
Ġ& =
Ġde pos
ĠMc G
19 13
ĠB uff
18 0
Ġregular ly
z y
ate ur
app y
Ġcontrol s
Ġd ict
Ġmod er
ĠR ab
Ð° Ð
u ating
LO G
st ers
EX T
es is
onym ous
Ġs itting
ĠTem ple
ĠStand ard
Ġs ight
Test s
Ġst ick
ĠOk lahoma
p ay
Ġcompet e
ĠS earch
ĠV in
ĠMor gan
sq l
Ġform ula
ĠCont in
pl ant
R ober
Ġres erved
Ġad min
Ġb ronze
ane ous
f ocus
ĠH ug
Ġl ayout
as p
Ġtrans mission
Ġr u
av i
ĠAtl anta
Ġstat ements
Ġcover ing
V ar
D elete
13 0
Ġn ut
ĠS n
W rap
De ath
Ġg arden
ĠEar ly
Ġan gle
ibr aries
Ġg ap
Ġind ependence
Se lected
ĠC urrent
Ġfac ilit
el i
Ġocc as
Ġp y
__ (
Ġcent uries
EC K
ĠS che
ul us
se a
Ġimmedi ate
Ġthought s
p res
pl ugins
Ġbe ar
Ġup dates
ĠAnton io
Ġsurpr ise
C rit
ĠTr ade
Ġret irement
li x
M I
reg ion
ĠRober ts
ol o
t ip
im ore
ĠL am
Ġs ons
z h
ĠSt ew
ĠAl an
im m
Ch anged
Ġre cept
Ġhealth y
Ġt asks
ens is
ather ine
od ec
ap olis
ist ol
By te
d imensional
Ġpass engers
ĠWal ter
Ġann iversary
ĠG ram
annot ation
ip her
Ġeduc ated
Ġexper ts
Ġsing ing
ab out
or ne
Ġrout es
V I
Ġwind ows
t oggle
C I
ryst al
bo olean
clud e
Act ive
Ġfind ings
Ġdivers e
op l
form s
L ook
R S
KE Y
M iss
ym n
C ent
Ġf aces
ado op
Com mon
ict ional
ur ers
ost ic
Ġres id
Ġexpl ains
Ġhor ror
Ġshort ly
Ġs ad
Al so
ĠWalk er
as i
Ġwel come
Ġcol le
Ġinj uries
C opy
ĠT ag
oc a
TE ST
w atch
ren a
Ġdirect ors
ĠIm age
T ab
ts burgh
Ġdiscover y
Ġim possible
Sec urity
ĠUp date
i ot
Ġdr ums
Ġvict im
ĠC ow
it is
ĠB eng
Ġclass ification
are st
Ġab stract
plic ated
R est
25 6
Ġpre ced
Ġaf ternoon
ul atory
Â ©
Ġeff iciency
ĠF OR
Ġl ib
t ry
ĠK am
ĠQueens land
Olymp ic
Trans port
Ġfunction al
ĠA le
ĠEd itor
s a
Ġtest ed
Ġfor th
ĠBl ock
Ġpercent age
yn asty
ĠB ureau
Ġcon secutive
Ġad mitted
ĠJ osh
j pg
Bo olean
Ġc ategories
d ots
b uf
oc ese
ĠK it
Ġcl ar
w en
S pace
ĠUn it
Ġcomm ander
19 11
Ġcour ses
iev al
Ġadv is
Ġmag ic
Ġformer ly
sc ribe
Ġbe ach
20 23
ors es
h y
ĠSing h
Ġp apers
Ġmat hemat
ct ic
Ġg ang
Ġappro val
Ġdest ination
duc es
ail and
ly ph
Ġdesign s
ĠS O
Ġmain tenance
v y
Ġfund amental
Ġmet res
est yle
Ġgr ass
an im
J ECT
Ġs weet
anc ell
Ġtarget s
or iginal
Ġed ited
ĠTe ch
il ty
S an
Ġn g
Ġdes ire
Ġexpl o
ĠB ull
amb ig
Ġbre aking
Ġrequest ed
Ġm or
Ġev il
H P
ĠS in
Ġtem ple
Ġl ift
us cript
Ġpick ed
Ġa er
ĠP as
ĠH ills
ĠMe an
Ġh am
Ġf alls
ĠAl bum
op ter
Ġad m
ĠB eck
ĠTele vision
ON E
raz y
Ġpriv acy
oen ix
Ġentr ance
Ġw allet
Ġem p
end or
S end
ang ular
ĠBe at
F inal
Ġreg ime
ĠS pr
Ġgrad uate
ag ment
is ations
Ġexp ensive
on na
ib ilities
Ġcirc uit
Ġsy nd
Dis play
ĠS uch
ĠL A
Ġunc ertain
Ġveg et
Ġar med
; <
ol ph
Ġfor get
Ġsuit able
M ember
ĠCl in
S am
Ġcon j
Ġ+ +
Ġs ending
Ġvot ing
Ġexc ited
S ur
al ian
Ġsucceed ed
Ġpull ed
Ġphil osophy
ĠArgent ina
Ġ ur
ac ew
Ġcircum stances
sp ir
Ġmedal ists
d ers
Apr il
ĠS H
ĠNor wegian
M ock
ĠB an
ug s
Ext ension
Ġex posed
ĠB us
Ġsc ores
in als
........ ........
Ġconclud ed
F amily
con nection
cl ip
th read
Ġemot ional
Ġex cess
ĠS ac
Ġassess ment
ĠUs ing
o op
ĠY an
Ch annel
Ġmembers hip
Ġy es
Ġh at
Ġro se
am an
Euro pe
ĠÂ ©
b en
H on
fl u
~~ ~~
Ġvers us
Ġplatform s
ester day
m ock
Ġl ots
ĠF ame
Ġemploy ment
Ġmusic ian
ĠAust in
c ategory
ĠF inn
ĠY es
ĠSy ria
O wn
Ġfle et
J ames
Ġg ay
Ġdis appoint
Ġso il
ĠP ur
aw are
Ġwear ing
ĠL anguage
ab ad
Ġcommunic ations
Ġeng ines
/ \
a ired
ch annel
g reen
Don ald
Ġaccur ate
ol t
Ġdef in
Ġpract ical
Ġd imension
ĠBru ce
Ġabandon ed
g ments
Ġben ch
ĠT ask
Ġan th
Ġexecut ed
Gl obal
IM E
Ġrecover y
Ġestablish ment
Ġbeliev es
W indows
Ġdep ict
ĠP A
ĠT s
Ġprom ise
ĠF ive
ib l
se curity
V E
R ule
ĠĠĠĠĠĠĠĠĠĠĠĠĠĠĠĠ ĠĠ
FA ULT
Ġdesign er
F S
i ere
Ġext reme
ĠEconom ic
ind ent
M B
ip er
ĠDe an
arg ument
Ġarg ued
ro c
om as
enez uel
Ġwhere as
Ġdr iven
wid et
Form er
f ather
Ġstr uck
ĠCh ile
St orage
bar a
Mich ael
amp s
od ox
ul ous
rib le
Ġs occer
' ))
ort ion
eng ine
Str uct
ro duction
ĠPro duct
Ġal ive
d x
Ġreli ef
Ġpri ze
b ing
Ġatt orney
Ġh ook
ov ak
Ġdisplay ed
Ġsent ence
ĠThom pson
IN D
H ER
form er
Ġproper ly
ed u
ĠConnect icut
add r
Ġb id
ep ing
hel p
Ġowners hip
ĠPl ayer
er k
ĠN atural
ist ing
Ġreject ed
ĠLim ited
Ġcomplet ion
ri ers
Ġp ul
al g
` ,
ap plication
Ġaccomp an
ĠMiss issippi
\ %
A ud
Acc ount
Ġal cohol
Ġcomp ens
Ġassert Equals
Ġliqu id
ap y
ĠFin ancial
Ġconcent ration
R ich
Ġte ach
anc hes
Ġsynt hes
are a
Ġfranch ise
ĠEr ror
ĠM and
X ml
Ġt act
ĠAll iance
T ool
In s
M eta
Ġb ott
Austral ian
ĠĠĠĠĠĠĠĠĠĠĠĠĠĠĠĠ ĠĠĠĠĠĠĠĠĠ
ĠLouis iana
ĠD ublin
P ackage
Ġ< =
ia h
ĠM eg
Ġsepar ated
f ef
Sh ort
Ġc atalog
er g
M atch
in burgh
Ġint r
ĠBr un
P lease
le tt
ry ing
Ġf ruit
z o
Se ction
Ġre pro
ĠD ocument
um ps
line ar
w ig
play er
i ations
ĠTh ose
ĠNC AA
d ependent
ĠE q
ess ages
ĠSm all
ĠMc K
Ġchild hood
Ġdet ection
Ġbatter y
riev ed
pro file
Ġpot entially
ĠDou glas
l on
Ġoper a
it ter
ĠH ell
gr id
ĠT ax
ĠBelg ium
ĠW as
Ġde put
ĠP ope
os ed
ne ver
uns igned
w ild
Ġdr ink
ol y
190 8
Ġsit uated
Ġoff ensive
Ġb one
Ġcontinu ing
ac o
ĠD ance
B ibliography
ĠC opyright
ul i
N OT
L ock
Ġoption al
st ory
ĠVeg as
ĠStud ios
ĠSw iss
Ġmy th
S QL
ĠH amp
G rid
Ġpresent ation
Ġfact s
sup er
Ġh ole
HT ML
ĠK itt
n one
ĠK az
Ġcompet itive
ĠM aur
Ġ' /
widet ilde
Ġadj acent
Ġ( *
Ġtem porary
B as
er as
pl us
g ov
Ġdraw ing
Ġtouch down
Ġhead ed
M al
Ġtop ics
ĠD allas
Ġcont roller
Ġsecret ary
Ġinflu enced
Ġsub stit
ĠK ings
ĠH oll
m argin
Ġs av
Ġh ate
Ġhost s
un ning
Ġproduc ers
P ool
co q
Ġcr uc
Ġn ations
Ġher itage
Ġmeet ings
at ial
ĠCh airman
s uch
le ans
im it
ĠI ron
} +
m aterial
ed it
Ġ Ø
Ġconsum ers
ĠCh ampions
fol io
ĠSchool s
ĠAn na
Ġch arts
ĠInd ependent
ential s
ĠPe ace
ĠIndones ia
Ġabs ence
c over
li est
F M
ĠS ource
Ġhe nce
or ia
t wo
Ġ{ };
Ġnav igation
ĠF alse
ĠRes ource
M ac
Ġent ries
Ġ$ {
ific ial
Ã© t
ĠTr ack
l ate
] :
Ġt ennis
Ġpoint ed
ĠRes erve
Ġm it
ex ception
Ġ ðŁ
ĠR oom
ograph ical
Ġh ired
ĠEm peror
Ġt urb
Ġoccup ied
ĠT ake
Ġdist ribut
Ġme ets
w as
ynam ic
Ġstrug gle
ĠRes ources
Ġm ilit
Ġbehavi our
I ES
Ġcirc le
ĠT rib
hed ule
Sports people
Ġfeed back
. *
Ġinstr uments
_ ->
Ġch urches
Ge ography
ĠM ission
ĠLaw rence
Ġground s
Ġhe ll
Ġax is
ct rine
ĠD ak
Ġout er
Ġrele ases
L java
in ces
X T
B P
ĠJud ge
b led
Y our
C ond
iz able
Ġweek ly
Ġbig ger
ĠHon or
ĠP RO
ĠB O
ĠSt ill
ĠF unction
og a
Ġdisc ipl
ra ig
ĠAr men
Aug ust
) ).
Ġt ub
Ob j
ĠD O
ĠRuss ell
ĠM other
\ ]
Ġobserv ations
Ġst adium
ĠHistor ical
ĠTra il
ĠS audi
Ġgu ests
Ġpublic ations
Ġmin ing
ĠB ou
C r
ĠM agn
Ñ ı
ĠHar vard
Ġcommit ment
ĠCo oper
Ġprinc iples
re ement
ĠP resent
Ġenh ance
ĠS oc
Ġrem ind
ĠMalays ia
yt ics
Ġour s
Ġint ellect
ĠCommon wealth
pass word
Ġup coming
ow ed
ĠN ation
ĠRef er
Ġo cean
Ġp ione
Ġe lem
ĠNig eria
ĠUt ah
com ment
fef efe
Ġd uration
Ġcre ates
Ġcalc ulated
ĠGirl s
Ġd ual
Pop ulated
up l
Ġaw ait
Ġatmosp here
ĠJ uan
Ġabsol utely
Å «
Ġj unior
Ind ian
in v
Ġfriend ly
Ġpl enty
Ġelect ro
ĠRog er
ĠF ather
Ġunivers e
ĠD ub
i op
P erson
Ġr uled
oth s
M us
ag raph
at on
Ġcook ies
ĠAb d
Ġtrou ble
Ġin fin
idel ines
ĠB art
J ob
Ġh ill
og ue
m outh
en ess
Ġt ied
Ġmill ions
Ġres erve
Ġdef ensive
leg es
ĠM os
com plete
S ymbol
Ġwonder ful
ĠAcc ount
iver pool
ĠO d
Ġconsist ing
U ID
, '
ĠAg ric
bor ough
Char acter
ĠAl ber
e per
Que ue
op es
Ġexc iting
bl ack
ĠKenn edy
ĠPortug al
Y PE
hold ers
\ |
ĠE ss
ĠChrist opher
c pp
Ġ ri
Ġb in
Ġb are
Ġpl astic
ear ing
st e
Ġr aid
ĠAb b
Ġtot ally
ĠG ulf
Ġmin im
Ġtem por
ĠS el
ir ates
Ġst yles
Ġal ert
Ġinvest ors
ĠVol ume
b ow
oc he
ĠA BC
ĠStud y
Ġfound ing
ĠPal ace
in ction
ĠM D
ĠP ap
h adoop
tab ular
Ġr ising
Ġtrad ing
Ġjav ax
Ġstrateg ies
Eng ine
Ġpark ing
18 90
Ġt ough
Ġland s
Ġadd s
Ġvis iting
ĠWeb site
N T
omet ric
ĠTh ough
ĠS ud
\ {
or er
ĠL ang
ĠEar l
Ġpaint ings
L ike
ĠAn alysis
ĠAd ams
Ġdis k
MA X
ou ver
he rent
E P
Pre vious
Ġsc atter
Ed it
Ġth in
ĠDen mark
Ġslow ly
Ġorgan isation
IG HT
g on
ĠH it
Ġcon crete
W idget
Ġcon clusion
Ġvac c
iss ance
s ave
ĠD al
Ġfall ing
if iers
Ġloss es
Ġanim ation
Ġpubl ishing
ĠN ag
ĠTai wan
Ġinteg er
ĠH ockey
ĠN BA
Ġdemonstr ated
m aking
Ġm sg
Ġprov ision
ash i
Ps i
re ated
ĠM ind
nt ax
ĠF ern
er ver
Ġsign ing
Ġhand ler
Ġin aug
Ġinstance of
ĠP ack
Ġfem in
Ġequ ations
Ġprior ity
ĠL iving
ĠOr th
ĠPu erto
Ġtr uck
Trans action
Ġco ffee
P al
Ġinteg ration
Pro p
ĠTh ailand
rom ise
ĠB ed
Ġtick et
Ġeval uation
Ġsim ult
Ġpop ulations
Ġinh abit
B it
Ġm ile
as m
J SON
Ġgen re
Ġreg ulations
ĠBl ood
Ġgen etic
G ood
Ġaccess ible
ĠW oman
Ġc ref
G S
ows ki
ĠCommunic ations
or ous
ĠN ature
Ġste am
ĠBul g
b us
Ġ( ;
ĠV ar
im pl
C ategory
Ġback ing
Ġcons ervation
S em
Ġfin ishing
h att
ĠBl og
Ġprep are
Ġinv ention
ĠO ption
Ġex clusive
ĠMot or
Ġarr ival
omet imes
ĠR ap
Ġprinc iple
ĠK er
let ter
Ġbeh alf
H z
M ET
D an
ĠF ant
ĠL ane
Ġhand ling
duc er
Ġmar ine
Ġobject ive
Ġs in
ĠP ear
ĠF ight
Ġcolumn s
ĠC ole
Ġbuild er
uk i
Ġpartic les
) ),
Ġel ig
ust ers
tx t
Ġcon front
=" "
U C
ĠMov ie
ĠC art
Ġincorpor ated
art icle
ĠB ible
s ince
z ed
E ducation
ĠCent ury
Ġd ial
Ad apter
Ġsing ers
Ġcour ts
claim ed
ĠM ort
Ġreve als
Ġd ating
Ġset up
Ġaddress es
Ġto m
ĠSen ator
I X
w hen
3 60
Ġf est
Ġrapid ly
ĠC leveland
Ġpro hib
Ġdis abled
Ġtrans formation
Fl ags
10 2
as hes
F ore
ĠMatthe w
ĠN elson
Ġbre ath
Ġcol ors
Ġco eff
let ion
Ġpres ents
ĠWork s
Ġsur ve
fer ences
B re
Ġs le
Ġthous and
ĠT ar
ĠW ard
ĠP rix
Ġ Ä
ane ously
ĠIndust ry
Ġstrateg ic
"> &
Ġas ks
end ers
Pr int
Ġcommission ed
Ġre ign
ĠR ace
Ġcritic ism
Ġhard ware
Ġinst ruct
Ġre putation
Ġimprov ement
Ġcon version
cent ering
Ġrough ly
ĠCro at
ĠF el
t ons
Ġunivers ities
ĠSp irit
Ġparticip ation
sh ape
R T
_ ,
Ġunder stood
Ġtransport ation
Ġanim ated
ĠMar s
pos ing
Ġpain ter
it ure
i ology
Ġnarr ative
ĠIn v
ious ly
Ġcopy right
ic ol
Ġapplic able
( !
th rows
Ġinvestig ate
Ġimpress ive
Ġathlet es
Ġlist ening
ĠG re
ĠAtt orney
Ġweap on
Ġh tml
190 5
Ġfant asy
Ġsp okes
ĠLiber al
ro ck
m akers
Ġcompet itions
Ġb inding
Time out
@ "
Ġcur ve
olv es
P anel
Fe ature
up load
I E
Ġrep orter
ĠS ex
ĠDel hi
Ġinv alid
Ġacknow led
Ġsign als
Ġm art
ĠBill board
Ġnuc le
Ġis lands
ĠCl oud
Ġt ur
h ill
Ġar c
ĠOr leans
ĠĠĠĠĠĠ Ċ
Ġhistor ian
10 5
Ġcr imes
ri el
or us
W in
Ġd iversity
Ġb ird
Ġb ath
ĠC hen
Ġd owntown
th rough
s in
ĠDef ault
red ited
FI LE
n etwork
ĠJ enn
it ro
ĠN E
() ).
rad ius
que ue
Ġent reprene
P e
Ġman ip
B en
Ġl augh
Ġent ering
ĠO m
ambig uation
Ġhigh way
ĠH old
I mp
Ġsuff ering
import ant
ounc ed
et ween
ĠThe orem
iss ues
Ġbr ands
Ġresident ial
T otal
Ġdise ases
ĠPar am
Ġbrief ly
ĠTr avel
eter min
t i
Ġâ Ĩ
bl og
Ġa ired
Ġserious ly
c am
ĠM embers
ĠBe h
Ġen forcement
Ġcont ribute
ĠG ets
Ġcrit eria
Ġn ick
Ġsupport ers
ĠEd inburgh
Ġb inary
ĠH ave
Ġd ire
Ġcompre hensive
Ġelectric ity
ail ability
ĠC ore
190 6
ĠK l
ed ing
Ġarbit r
ĉĉĉ Ċ
ev ents
Ã ´
u its
Ï Ħ
Ġp overty
s is
ĠN ep
Ġhol iday
Ġout come
ĠPro p
St and
Ġfl ash
Ġrad iation
Ġinter actions
man ager
Ġadapt ed
N G
190 9
Ġmov ements
ĠOper a
Rev iew
ĠPolit ical
Ġunder lying
ĠChall enge
ĠSquad ron
ip h
Ġstr ings
ts d
1 15
ĠIm perial
Ġint ention
Ġwith draw
sc roll
se lected
Ġp airs
al ia
ĠF al
$ )
Ġdi agram
Ġf ault
ĠStud io
ĠF M
Ġtransl ated
Oct ober
Fl oat
ĠN ash
A lex
Ġsub mitted
ĠPubl ishing
ĠD ue
Ġinv asion
Ġh ide
ĠPart ners
Ġemploy ee
h our
Ġprefer red
w ill
v i
ĠStew art
Ġc up
m aker
Ġaccur acy
Ġcl ock
ĠBrook lyn
Ġfra ud
Ġinform ed
ĠCar ter
av an
P ay
=" @
j amin
ill iant
Ġpass word
Ġg auge
ol ished
u is
ĠW ord
Sc ope
ĠRel ations
==== ==
ĠT her
Ġvel ocity
ĠFin ally
Ġmar ks
Ġsup plement
Ġconsum ption
ĠP ract
e lect
ĠN aval
Ġ$ .
ĠC ancer
Ġregard ed
Ġden ied
or ient
mod ules
av ia
R oute
ĠO S
} ]
ĠAnd y
Ġf urn
ĠP eters
} =\
ĠOper ation
Ġfarm ers
et ary
M er
Ġinst ruction
Ġterm inal
ĠB it
ĠCamp bell
Ġmonitor ing
ah a
Ġsympt oms
Ġaware ness
iff s
Ġdecl ine
A uth
Ġgovern ments
P ER
et ition
nov ation
ele gate
ĠOr chestra
ã Ģ
ĠB ey
Ġcent ers
Ġre act
Ġestim ates
190 7
ĠOrgan ization
ĠPat ri
Ġcollection s
M sg
o i
ig ate
ĠPortug uese
Ġ[ ];
Ġconv inc
Ġt ou
nt il
anc ouver
Ġres ign
Ġop ens
Ġw ond
Ġed ges
ĠQue bec
Ġh ip
ĠRob inson
ĠD id
Ġmatch ing
Ġwed ding
Ġrec ru
Ġreg istration
er ning
ĠA SS
ĠBang l
s he
Pro xy
Tele vision
P erm
Ġclos ing
ĠH ub
Ġb ot
e ach
on om
rupt ed
ĠBudd h
Ġcont ents
Ġresc ue
Ġpo em
Ġpen alty
It ems
Ġspirit ual
z eta
th a
ed itor
Ġcomp act
Ġc rown
Ġrespect ive
Ġwat ched
lem ma
ĠD J
ev a
Ġte ch
for ward
ĠKn ight
Ġfl ags
ache l
Ġcrick et
ĠG ro
ĠDr ive
Ġl at
P ub
Ġpol ar
Ġn eck
ell ar
) ^{
win ning
ul um
Ġmer ged
ĠPit tsburgh
ĠMar shall
Ġtri als
Ġconsist ed
ĠĠĠ Ċ
On ce
h l
Ġjud ges
ĠL GBT
Rober t
ĠW right
Ġcons ervative
ge on
Ġrespons es
1 12
ĠL l
Ġb oss
Ġap ps
) =\
P AR
n umer
and ed
y ll
Ġgu ilty
as a
result s
Ġconf ident
os itory
Ġal ter
Ġa ver
def ined
Ġres idence
we ek
ĠG ary
ĠPr int
Ġ% }
ĠTer rit
f ish
cont roller
Ġaim ed
Ġlab els
ĠP un
Ġf old
. ~
um ped
n an
Ġadvent ure
ĠPro perty
Ġopt ical
V P
Wh o
Act ivity
Ġch ampions
fl ags
Ġro ots
Mem ory
Se ptember
Ġmid field
OC K
Ġproced ures
m illion
ĠMor ris
m ates
ĠC ass
Ġinvolv es
Ġpay ing
Ġthe ater
clos ure
ik ip
ĠSt ore
Ġt ie
O ld
R ob
F P
ort ed
SI ZE
Ġm oral
Pl ot
ĠChar lie
t witter
Ġr um
Ġintro duce
190 4
ĠMur ray
ĠMic hel
Ġsu icide
Log ger
Ġrel ax
Ġphot ographer
Ä ĥ
ĠLem mon
en berg
n est
j query
ĠL ag
Ġsp an
W R
Ġess entially
Ġ( ,
ic ing
B orn
Ġperson ality
Ġtemper atures
Ġph arm
Fig ure
Ġgu id
Direct ory
Prot ocol
ul er
Ġn urs
ĠC OM
Ġmet ers
Ġdynam ics
Ġexplan ation
Ab stract
ric ane
Ġf unny
ay an
Lab els
F iles
Ġnecess arily
Ġiniti ative
ĠFin ance
Ġill ness
Ġnorm ally
z one
Ġs ick
Ġk ne
Ġcl imb
az ines
irm ingham
ĠBrazil ian
Ġenc oding
k t
s ch
b its
)) )
work s
T om
ĠFin land
ĠSam uel
Ġneigh bour
ateg or
ĠMet ro
Ġsc al
ĠSp acew
)) );
Ġaccompan ied
by tes
10 4
ex ternal
Ġwork er
Det ails
ant on
Ġf ib
ĠBalt imore
ann on
ug g
ĠB uck
Ġlow est
ist ence
Ġant icip
ĠArk ansas
Ġs essions
Ġdevelop ers
Ġsevent h
ĠPr ivate
ĠM icro
Ġst ake
In ternal
Ġtw elve
) }\
it ative
ĠA rena
ĠSt ars
ĠN eg
itar ian
az y
Ġm ail
Ġdes ired
Ġcho ices
ble m
if ting
ĠCh amber
Ġshop ping
re ation
ĠT ig
Ġreve al
Ġimag ine
Ġim plies
Ġagric ultural
ĠA qu
ĠA C
ĠSaf ety
Ġth reshold
ĠMarg aret
Ġdo ors
9 00
Ġmanag ing
C ur
D est
f i
Ġl ayers
Ġm ouse
Ġrul ing
ĠSpacew atch
Ġinnov ation
l ab
ĠJ u
Ġhapp ening
Ġsurpr ising
m ate
c b
ad r
st ats
_ (
ĠPort land
hand ler
Con n
Ġrom antic
ĠInf antry
w p
hip s
ic ular
Ġw er
ail ure
Ġmach ines
Ġamount s
Sc ott
Ġman uscript
m ove
Ġm m
Ġd b
Ġre ception
Ġjournal ists
dis ambiguation
Ġdam aged
ĠR ain
Ñ ĭ
ick ing
igin ally
Ġre ducing
Ġreason able
eth yl
Ġconst rain
ĠA I
Ġto x
r ift
Ġmeasure ments
Rele ase
ĠBoy s
Ġc ited
te am
ĠL anc
G raph
Ġst ating
Ġland ing
Ġinvolv ement
Ġat tr
ign ment
view s
Ġant ib
Pro duct
osp itals
ust ed
Ġst ead
pos itory
ĠD est
ĠCar ib
Cl ub
ĠSh ah
ĠAp pe
Ġimplement s
pro perties
Ġd iet
ĠT ob
k w
Ġent hus
cd ots
Ġconvent ional
ĠV enezuel
ĠDep uty
ĠG raham
{ {\
RE AD
um ph
Ã ł
ĠRes p
Ġstudy ing
Ġbl ow
Ġoper ates
Ġbl ind
Ġrep air
ĠJon athan
190 1
Ġval uable
ĠAfghan istan
h ai
A ir
F ootball
ĠM es
Ġout standing
W ar
Ġw et
Ġsubstant ial
ack ed
Ġreal ized
Ġto w
O bs
ĠC emetery
Ġsurv ive
Ġunus ual
sche ma
Ġast ron
Ġb tn
Ġsk ill
Ġphys ics
ĠProte ction
ikip edia
M ilitary
iz on
Ġencour age
it ivity
et ry
Ġmeasure ment
ax is
Ġt issue
elf are
Ġcut s
Ġfl uid
ĠV ik
H istor
ĠPl ant
Ġloc omot
id al
Sym fony
() ));
room s
dom in
ir i
aught ers
sc ar
ag ic
Ġperiod s
ĠBatt alion
ĠCom ics
ĠMar ie
Ġprote ins
Ġlog ic
Ġfair ly
ĠF IG
Ġ" "
ab e
drop down
appro x
Ġthem es
() {
ĠSh ar
Ġrecord ings
ĠM L
ĠBrother s
ot ing
Ġt ropical
wide hat
emb r
ĠBet ween
B egin
Not Null
Ġf ishing
Ġmin i
ĠS A
Ġre ward
b es
ĠTh anks
Î ¹
Re port
Ġsudden ly
own er
ĠD og
ĠJ ess
ĠTh ings
ĠU lt
em pl
Ġcast le
ĠS D
S uccess
Ġprof it
Ġexp ed
um ar
ent le
ber ry
ĠPr ice
Jan uary
th m
ĠThe ater
Ġsurn ame
Cl ose
g ow
Ġsat ellite
ĠĠĠĠĠĠĠĠĠĠĠĠĠĠĠĠ ĠĠĠĠĠĠĠĠ
Ġinnov ative
ĠEnvironment al
Ġart istic
ĠA G
Ġ( ),
ĠMain e
ĠFor um
ĠElect ric
Ġl ux
ç ļ
Ġthe oret
ĠBar ry
Nov ember
ĠFurther more
oc ate
ĠK ath
14 0
atur ally
Ġsol ve
e ast
Ġcon scious
Ġinter act
Or gan
T ABLE
ĠOr iginal
ĠSh ould
Off icial
Ġrac ial
Ġdog s
dom ain
ĠN i
iv ia
V ill
ĠC rown
com ponents
Ġlik ed
190 3
Ġmount ains
By Id
ĠPr incess
18 80
ĠL iverpool
Ġdiv or
Ġme at
Ġcut ting
Ġap artment
; /
her s
//////////////// ////////////////
he astern
ĠF reedom
Ġsit uations
in os
ĠG ill
ĠMont real
Ġstay ed
Ġarr anged
ĠâĢ ł
ĠS N
Ġhop es
ĠF ried
LE CT
Con f
ĠAd vis
Ġsch olars
Ġloc ally
ac count
ĠAnn ual
h s
ĠDan ish
Ġal gebra
am ents
ass ets
Ġprint ed
L in
}^ \
t otal
Ġpublic ly
Ġde als
olv ing
[ :
ĠC ou
Ġl ights
ane an
back s
P G
ef ully
Ġbus y
Ġlaw yers
Em ail
ĠC atal
++ ;
ush ing
S en
Ġfl ows
ick en
z i
ĠM obile
Ġmin imal
Ġt ort
Ġre verse
Ġel der
om ing
ĠMay be
ĠH end
ĠSt orm
ĠMuslim s
Ġconst r
f are
ag ers
aps ed
ĠLear ning
}_ \
G reen
Ġviol ent
Ġleg acy
ĠJim my
d ays
set s
t ar
M ajor
Ġacqu isition
ĠN am
Ġinst ances
Ġpri est
ch ain
Ġb le
Not able
Ġinterview s
b ie
Ġorgan ic
ĠGu y
B N
ah n
á »
cept ions
ra its
Ġsurv ived
on omy
sh ift
E ven
Ġc ul
D ouble
g it
ĠM ess
ĠCon vention
Ðµ Ð
ĠG un
ĠCh apter
ĠM i
Ġdef ence
assert Equal
ĠD ie
Ġb ind
an ne
Ġkeep s
Ġp ushed
ĠMark eting
Ġth rown
Ġfin ance
ĠF L
ĠBl ues
Ġstr ange
P D
const ruction
ĠV AL
ul u
Ġcross ing
ĠP S
Ġtick ets
ĠR io
ĠSt ev
En ter
ĠPerform ance
pr imary
Ġany where
ĠStud ents
Ġfe es
ĠT ower
Ġcon qu
Ġj uris
Ġsurv ival
Ġb old
Ġp ub
ĠH D
Pro file
ĠM ust
oth y
Ġinstall ation
ĠRef orm
Ġdet ected
( {\
Ġequip ped
ĠMore over
Ġag es
Ġconc erning
Ġd uties
ir k
Ġg olf
Ġb ag
Ġleg s
ill o
T oday
av is
Ġwh ilst
190 2
ĠCr ime
Ġc able
Ġd iam
I AL
ĠPr ivacy
Å Ł
Ġs alt
Ġpl ain
p in
Ġl oyal
ĠEx change
Ġrespond ed
ĠĠĠĠĠĠĠĠĠĠĠĠĠĠĠĠ ĠĠĠĠĠĠ
ĠFrank lin
as ant
Ġinterpret ation
çļ Ħ
spec ific
t own
ĠB E
Ġres olve
n orm
Ġbe er
De cember
the less
ĠAl ice
st age
Ġillust r
ĠRepublic ans
Ġpr on
ĠPh oenix
M art
Ġi Phone
ĠWar ren
Ġcan cel
Con str
pr ison
hatt an
ur u
ĠMar vel
ĠDr agon
Ġ( +
Ġcelebr ate
Ġfl owers
In v
ĠUkrain ian
d p
ĠBr and
op ed
og ram
c ia
ĠF em
Ġque ue
op les
rou s
Ġris ks
Ġmet ric
Ġcompl iance
Ġder iv
ĠStud ent
pl atform
ĠJ azz
fin als
G C
ty ped
orpor ated
Hel p
ĠT oy
ĠMad rid
op ic
Ac adem
bl ue
Ġelect rical
Ã «
Ġsp ir
ĠAr g
Ġign ore
J ack
ĠP od
-> _
tr igger
* )
ĠT ree
assert Equals
ect ure
n ia
Ġclass ified
enc er
Ġre con
ĠWay ne
Ġstret ch
usal em
}\ ,
ra id
app ly
3 50
h ot
ov o
Ġ\ {
z ym
âĢ¦ .
in her
Ġvari ation
Ġcelebr ated
ĠAdd itionally
Ġdocument ation
ym p
Ġj oy
O UT
ĠB ond
ĠBrig ade
Ġeng age
oust ic
ĠB aker
ĠEv ans
ĠG on
Î ½
V A
Ġa ims
s ome
n ik
He alth
ĠMit chell
Ġdeal ing
O pt
grad uate
En um
ĠI L
IT E
Ġprofession als
Ġdest ruction
Ġm orph
par ison
Ġc ounsel
prot ected
Ġpartic le
Ġview ed
ch anged
ook ie
ack ing
Ñ Į
im p
ĠSt age
S chool
}^{ (
Ġcom ed
Ġle af
Load er
Feb ruary
ĠSever al
o j
Ġc rypt
id en
Ġt one
Ġindic ating
gorith ms
ĠC ensus
Ġrad ius
Ġthreat ened
Ġsp oken
Ke ys
Ġappoint ment
Ġrestaur ants
E lect
Ġf ake
Ġconsequ ences
Ġg all
Ġproduc es
ĠI an
s ong
=" ">
Ġlik es
ĠR y
Ġarch ae
Ġcred its
Ġhyp othes
Pro fess
AR D
ond a
Ġaff airs
Ġisol ated
Ġprov iders
Ġsac r
Ġeng agement
ĠD ays
type of
Sup port
Ġvir us
t mp
key word
Ge orge
ĠF am
à¤ ¾
Ġf unc
Ġsh ots
h al
Ġs a
Ġassoci ate
VER SION
Ġsports people
Ä «
ad ies
Ġd imensions
Sc roll
C ity
ig o
J ava
ig s
ĠP ast
Ġf ol
l g
at hered
Ġmoment um
ĠCl ar
M ount
ĠCO VID
h idden
Ġver ify
Ġliber al
ap ing
Ġwalk ed
ĠJ e
Ġimm igration
^ +
ab a
ĠY et
Ġput s
Ġrh yth
Sup er
ĠSte el
part y
Re al
ĠO wn
ce ive
ĠEp isode
Ġload ed
Ġs ail
t ers
Ġcons ent
verse as
rop y
Ġvol umes
ĠC her
Ġb its
m ay
B rowser
Ġelse where
ĠComput er
Ġcl im
ĠB illy
lik ely
ĠSim ilar
Ġoper ational
ĠN ad
=" ${
'] )
Ġs ke
C opyright
Ġsusp ended
f old
Ġknow ing
Ġsens itive
Ġpaint ed
ĠR and
Ġreal ize
Ġst em
Ġphot ography
ĠP il
ĠV ari
ĠPri or
p red
g g
Ġcomp ilation
om es
Ġdes ert
S eg
Ġsurpr ised
v ideo
ĠPolit ics
ĠA y
Ġdis establ
ij ing
ĠBroad way
ann es
Ġencour aged
e lection
Ġid x
Ġinf ection
ĠS U
t or
Ġchalleng ing
Ġdeput y
Ġgen es
Ġm apping
ĠM aj
Ġperson ally
Ġbre ast
Select or
R oman
it err
ĠStan ley
it ations
P rior
Ġhas n
Ġp seud
Ġreported ly
Ġsc r
Ġf n
ĠF isher
ĠA nc
Sing le
ĠPl us
P ATH
ĠV iol
Reg ister
v ia
ĠĠĠĠĠĠĠĠĠĠĠĠĠĠĠĠ ĠĠĠĠĠĠĠĠĠĠĠĠĠ
Ġactiv ist
Ġd ir
Ġres igned
viron ments
iffer ent
Ġear liest
Ġto ler
ĠN eb
Ġadapt ation
Ġre ven
ĠT ak
sc r
Ġinter val
Ġobvious ly
Ġem br
Ġab und
ĠAr n
not es
ĠPl anning
Ġchar ity
Ġpopular ity
Ġaccord ance
ĠM essage
Ġround s
ĠS I
ter ior
ĠCon fig
ra ctions
ĠS oul
i ors
ĠAn al
Pl ayer
t w
Ġval ley
ĠClass ic
Ġsurround ed
ĠShe l
Ġ ).
Ġd ated
em ed
av ery
D iv
Ġw orship
NavBar Cell
ĠM Ps
Ġinhabit ants
ĠDak ota
N E
Ġspe aker
est one
L ayer
Ġb ull
m ask
ut f
ine a
Ġrad ical
Ġpath s
min ute
ĠLeb an
Ġorgan isations
Ġd ust
d in
web pack
H OD
cel ona
xy gen
W eek
ĠI ce
Ġst ability
t ools
c ription
Ġob lig
Â ®
clud ed
l u
Ġs oph
1 17
struct or
ĠP ad
cast ing
Ġrest ored
et he
our t
Pres ident
Ch ildren
ĠDo es
N Y
} :
Ġr ational
al ks
Element s
Ġhy brid
ss on
ĠO ri
Ġrepresent atives
ĠPark er
C oll
Ġcap abilities
writ ten
Ġsuper ior
ik es
å ı
ĠC ert
Ġstrong er
or o
ish ops
Ġgreat ly
Ġcoast al
r ays
iss a
Ġcon gress
b rowser
M ill
Ġfeel ings
b g
Ġinst ructions
Ġ( @
ĠDe ep
ĠB rew
IN FO
Ġpe er
Ġven ue
B ur
ĠCom ment
ĠH ash
Ġtax es
Rem ove
list ed
Ġh urt
Ġ{ {
ol en
Ġrecogn ize
C ert
id o
Ġannounce ment
Ġ io
Ġcol span
Ġg ram
ĠT an
. ),
Com ment
ĠTOD O
ĠMount ains
h ide
ĠAss istant
B usiness
it i
V M
Ġfrag ment
Ġdem ands
ĠV ancouver
Des pite
ĠIm ages
Ġswim ming
Ġt ables
Ġappear ing
Ġb oot
ĠCh ampion
ĠHamp shire
ĠKar l
ol s
r ish
Pro gram
ĠMov ement
ĠS now
ĠM yst
Ġnot iced
Ġf inger
text width
Ġmil k
10 3
RE S
s ymbol
Ġc ous
Ġrun ner
Ġy esterday
ĠM ack
par ser
U LE
em on
b ai
ĠHawai i
Ġg am
Ġbe am
Ġb ike
Ø ±
ins ula
ĠGr ad
ĠP ant
An not
id ges
Ġex ecute
Ġsignific ance
k ov
iv an
Ġres ort
ĠHun ter
}) \
ĠC ultural
up id
ĠWel sh
Ġt iny
S ummary
;" |
ok er
ĠWeek ly
Ġscen ario
R ussian
ĠB es
ud son
ĠCarib bean
ĠFred erick
ĠP os
Ġfr ust
Ġposs ess
Ġcollect ive
ĠUr ban
ĠO il
ĠH unt
ĠT ed
u er
10 6
ect ors
{ (
Ġactress es
Ġd inner
it ime
ĠBangl adesh
ĠP ictures
Ġsh arp
iment al
Ġpo inter
param eters
Ġm arg
on ed
ĠH orn
ĠR ugby
Ġb ars
al ph
ĠMet ropolitan
O B
up t
} </
ĠM om
Ġout comes
. :
Ġsustain able
Ġbr anches
mut able
p read
Ġconstruct or
Pl ugin
Ġkind s
Ġimprov ements
Ġn am
ĠC T
ĠComm ander
ĠH ad
Ġtr ick
ĠSpe ed
ĠIran ian
Ġansw ers
Ġf ulf
Ġliter ally
Wh ite
Ù ħ
ac re
Ġra ising
ĠJ oy
Ġdemonstr ate
Ġs izes
s pecial
ĠLegisl ative
or ro
Ġcolon ial
IP T
Ġpra ised
Ġcontrovers ial
ĠL anka
189 8
######## ########
Ġmet adata
Ġamong st
kee per
Att ributes
ĠBar bara
ech o
Ġreg ulation
Ġprepar ation
ann ah
T er
Ġcoll apse
× Ļ
Ġsound track
ĠC ell
Ġres on
ik o
ue z
ĠN BC
Ġactiv ists
Ġmonth ly
ĠChrist ians
ĠGl as
Ġt aste
H A
rick et
Ġform ing
oid s
Ġvis its
Ġth inks
Ġbi ological
Ġacc um
) ">
ation ally
', '
ys ical
X ML
ĠA the
& =
Ġconstrain ts
r idge
Mat rix
Ġch ap
ION S
Ġdepend ent
Cont act
Ġident ical
Ġex clus
ĠAl aska
og ene
config uration
1 16
Par se
Ġbound aries
Ġsil ent
Ġcas ual
m ers
dep th
F unc
B Y
contain s
ĠE R
ah o
Ġneut ral
ĠN ode
Ġtr ace
Th ree
Ġleg it
ĠK on
Ġgr ab
D uration
. __
ĠPr imary
RE E
S W
Init ial
Ġb io
Ġ ..
Ġimprov ing
S Y
Ġf raction
ĠMag ic
Ġprison ers
if le
ĠProfess ional
Ġrail road
[ $
Ġh orses
F ix
out ube
ĠCh ron
ĠP oll
q quad
Ġche cks
hor izontal
le ased
f lix
Aut o
Ġprot ests
Ġconcept s
n il
Ġlicens ed
ĠB irmingham
r ise
z ero
Ġapp end
Ġcompet ing
Ġcruc ial
Ġconsider able
ĠInst agram
nap shot
um my
ĠP erson
ĠW AR
Ġsup plied
11 1
w hel
ĠColl ins
Ġmod es
u in
Ġh al
T T
ĠM ong
ĠF BI
Ġwound ed
AD D
ĠL android
Af ric
ĠSt ories
Pat tern
F E
ĠM all
Work s
M ake
ĠSt re
th row
r age
Ġp and
Ġsup plies
Ġdeep ly
iterr anean
spe ed
Ġtrans parent
ĠRail road
A K
Japan ese
qu is
Ġmer ely
Ġdis ag
}} (
Ġregard less
rim ination
W atch
ides pread
ĠI E
Ġbr illiant
ĠR ot
Ġmolec ular
ĠS umm
ĠH IV
18 70
ĠÃ ī
Ġn a
ĠHind u
uc lear
S ync
Ġdecl ined
w he
Ġrepl acing
} |
Ġdesc end
â Ĥ¬
ops is
um ed
UT F
ĠBe aut
le e
Ġcomp lement
Ġover l
Ġours elves
Ġco inc
ace ae
cast le
ST AT
Ġemer ged
tes y
Ġany way
ĠCarl os
ob i
Ġord inary
ĠS ide
lim it
el ing
ĠC os
ĠC lear
D atabase
Ġdis aster
Ġwebs ites
ĠB omb
Ġvess els
ĠP i
Ġch rom
ĠHung ary
ĠL INE
pro to
ater al
Ġsize of
Ġinsp iration
Ġt ip
ĠBern ard
Ġexpl oration
Ġspe akers
ri ors
ĠArch ives
ĠElement ary
= (
Ġj u
erv ing
Ġinter vention
l arge
Ġ( _
Ġinst ant
log ger
Ġdeb ug
ĠE T
p air
ĠCom ments
ĠJohn ny
ĠSe lect
Ġobserv ation
L INE
ĠT alk
d ialog
ĠLie utenant
on al
ĠT ol
Ġfavour ite
Î µ
Ġrece ives
Ġf ails
18 99
Ġven ues
âĢ ĭ
ĠS ay
Ġcon vention
Ġexpect ations
Ġtrans actions
ĠĠĠĠĠĠĠĠĠĠĠĠĠĠĠĠĠĠĠĠĠĠĠĠĠĠĠĠĠĠĠĠ ĠĠĠĠĠĠĠĠĠĠĠ
Ġfocus es
ĠJer usalem
ul ates
intend o
Cl oud
Ġfl ights
Ġclaim ing
met adata
St ation
ĠPh D
ath on
b ach
ling ton
ĠP L
Ġdel ight
Ġ( -
pro ps
ĠR ud
ĠArab ia
ĠL ore
Ġw ider
Ġdes k
ĠTam il
ĠC BS
Ġind igenous
Ġinters ection
Ġass ass
Ġj Query
Ġf oss
Are a
× ķ
ĠCon cert
Ġident ification
Ġbreak s
ĠR ic
Ġpart ition
M aster
ĠIO Exception
ĠL oc
Ġbirth day
Ġnewsp apers
ĠM s
ĠEv ents
$ /
Ġg ro
Ġprov en
ĠIn n
ĠNe ed
ident ifier
U ST
ĠC raig
ĠChe l
Ġrare ly
ens on
Ġdecre ase
ĠBen jamin
Ġup load
B ro
L ive
Ġv ital
Ġrece iver
d im
ĠF alls
Ġc m
ĠA ld
ĠK u
pt ic
{ $
Pl ace
ĠInt elligence
Ġmechan isms
apt ist
t ies
Ġconstant ly
CH ECK
Stat ement
Ġmechan ical
S N
uck er
To String
Ġg ard
Ġphotograph s
Ġthe ories
Ġab road
Ġarr ive
Reg ion
Ġcomp ound
ĠCamp aign
Ġtarget ed
Ġdep ression
ic it
ĠL ith
d one
Ġche ap
ĠAlf red
Ġann ot
Ġ ion
Ġconsider ation
ĠVi enna
Ġd rew
Ġf irms
D en
ĠUp per
ĠAust rian
ĠOr ange
ĠInd ians
Po inter
Ġillust rated
ĠE dd
Ġbu ying
be at
uk a
ac er
Ġun like
Ġpost er
Pr ivate
Ġp ars
Ġconnect ing
ĠL ower
Ġun expected
FF FF
ĠCh art
ĠMan hattan
ym met
z es
Ġe ase
N ULL
Ġcolle agues
Ġd ynasty
m und
zer bai
Ġch ronic
ĠC arm
Ù Ĩ
iv o
ĠS ett
ĠZ one
Ġs wit
Ġunivers al
face book
d ied
iz ers
ĠCharl otte
yt ic
ĠR ico
Ġdis order
Ġfund ed
ograph ics
ĠM ak
Ġhabit at
ĠN ord
print f
Ġdiv isions
Ġ" <
res et
Ġinteg ral
Europe an
Ġas ide
Ġrot ation
ĠS M
ĠT ournament
w right
ĠW ang
get Name
B ecause
ĠE li
ĠL uke
M apping
is an
ĠOper ations
ol ia
C ard
Ġr ivers
us r
Ġ= ========
Ġpart ially
Ġden ote
ĠCommun ist
Ġdist urb
Ġdr inking
ĠH ope
ĠG as
ĠSh op
} '
ĠK o
Ġview ers
Ġrequire ment
l ayer
st able
Ġe ating
ĠArt ist
ĠS occer
em or
iz ard
O F
l ia
Ġfl ower
g ood
v c
Ident ifier
10 8
Ġread s
per form
ip per
Ġmus cle
s witch
Ġdomin ant
J ul
ult an
ot ton
Ã ª
Ġwith d
u art
Ġdo ctors
A E
Ġpre fix
Ġshe et
ĠC redit
Ġrel ating
ĠâĨ Ĵ
D id
Ġcomfort able
Ġguid ance
f ixed
x it
. -
Ġf ro
wrap per
Ġmem orial
oc ent
ĠLeg al
Ġc ock
Ġvess el
ĠF ine
Ġtype of
Ġhead ing
igr ant
ĠPubl ished
Ġhop ing
ĠU pon
ĠDou ble
Ġperfect ly
Ex pat
ĠWith out
v et
con n
ĠAnt i
Ġfrequ ent
ĠFri ends
e enth
ĠL eft
sw arm
Ġsp ark
00 1
Ġcal endar
c in
| }
It alian
b one
ĠCont ent
ĠRe act
Ġretain ed
k ar
Ġd ub
Ġbeg un
ĠG ray
Ġg ear
O k
ĠR acing
Ġor th
Ġequ ally
Rep ository
Ġpriv ile
Ġcharacter ized
Ġdialog ue
x is
Ġpass age
Ġunder ground
189 5
H C
ourn als
ĠOl iver
b ishop
ĠAp plication
Q U
Ġass emb
Ġthe orem
ĠP ref
ob a
RE D
Ġstruct ural
Re ception
Ġmyst ery
the re
Ġl ap
ĠB ron
ĠSt even
init ial
Ġc inema
S pecial
St op
Ġpet ition
Sc ale
ĠS ony
Ġaddress ed
ok a
189 6
Ġbatt les
ĠOrth odox
ut ter
Run time
ĠS elf
æ ľ
om m
Ġfl ux
wild fly
ĠCons ervative
Ġt ill
Ġform ally
own ed
Ex pr
ĠGr iff
ĠCon stant
Ġdram atic
Ġob st
Ġim prison
ĠV I
ex ists
ĠJ a
Ġdemocr acy
ĠGi ants
ĠF ab
ĠL ess
ri eve
Ġrestrict ions
â Ĩ
Ġelig ible
Ġsurv iv
Ġh unt
Ġg allery
ĠAl tern
ĠP aper
ham mad
ĠS QL
â ĪĴ
ĠCommission er
av ior
US A
Mult i
Ġbas ically
F ailed
Ġindust ries
od s
Ġcor ruption
e ctions
f eed
hib ition
Ġposs ession
ĠL LC
ĠK rist
ĠS R
ĠS W
ï »
St ats
ew ay
Ġking dom
Ġen v
v als
Ġsens or
In formation
Ġearth qu
Ġign ored
ĠF err
head ers
ĠBl oom
ĠW or
Ġhealth care
\ '
l ined
Ġrem oval
m ac
Ġem issions
Ġanal ys
Expat riate
ĠObs erv
189 7
ĠN at
Ġpro xy
M icrosoft
Ġch amber
ams ung
Ġeval uate
is ons
ĠNaz i
book s
ac cept
id ad
Ġsequ ences
b est
ĠB asketball
et ies
ex tern
Ġcl othing
prot ocol
ow ell
og an
ĠRoman ia
Ġun con
us c
ĠDen ver
pos al
S ervices
ĠB ud
Ġcount ies
M OD
ĠO pt
Ġcar rier
ĠDef ence
Ġ ip
he ro
Ġp ace
ev al
S ocket
ĠResult s
Ġd at
L ight
f iction
Ġemer ging
ĠCo al
C F
ier ra
pl an
build ing
det ails
e i
ĠK an
Ġcontract s
Ġforest s
ĠĠĠĠĠĠĠĠĠĠĠĠĠĠĠĠ ĠĠĠĠĠĠĠĠĠĠ
ĠNAS A
g un
Ġcomput ing
p ot
ĠL E
im ated
Ġw idespread
Ġwhere in
Ã© n
Ġre vers
Ġas ync
Ġsub mit
ĠJ en
ĠG T
ĠLead er
Ġnot ably
10 7
En vironment
ĠMin or
lo op
L ou
ĠC row
Ġagric ulture
in ar
Ġ$ (\
Ġoccasion ally
ri um
ĠG ot
Ġrestrict ed
un ches
yn om
Iter ator
ĠNev ada
as ma
Ġâ Ĥ¬
G old
S al
Al bum
Ġm oon
ĠV el
ĠG erm
ĠS even
ĠSal v
pan ic
ĠAg reement
ĠSt ream
typed ef
Ġdomin ated
out ing
A gent
Ġtrack ing
Ġarg ue
ra f
Ġsimult aneously
ĠS ales
e a
writ ing
ĠCh air
Ġsyn chron
Ġas c
Ġrow s
-------- ----
E st
Ġr anks
j d
ĠM ans
Ġgener ic
E ff
cos ystem
18 60
em a
th an
ĠW IT
ar us
enn ial
Ġres erv
Ġmiss ions
b rief
ous ing
Ġ ui
apt ers
om on
s ol
ĠG row
ĠC S
L iter
Ġd aughters
ch t
S ep
Ġh ang
ĠT it
os opher
ĠD rug
Ġincred ible
BU G
Ġcomplex ity
ÃŃ n
uss ia
Ã¶ r
P I
Ġf abric
ĠComm ons
}\ \
Im port
Ġdescrib ing
Ġnom ination
Ġp or
Ġwood en
re ck
ĠK ate
ĠU g
ord inary
f ers
Polit ical
Ġtr ump
ĠC er
M ut
ĠN ar
Ġman ifest
ĠM ason
ĠG ate
Ġpay ments
Ġdiscuss ions
Ġre q
Rad io
Ġcond em
Ġpred icted
m ount
AN G
ĠAut o
ed a
( __
Vari able
Ġcontrovers y
Ġarrang ement
et on
por ter
Ġte a
Ser ies
ĠL ost
Ġmix ing
Ġmem ories
Ġint ensity
Ġrob ust
S equ
ĠP ersonal
ĠK il
us ers
ke ley
ley ball
ĠJust in
Ġc ow
build er
put ed
ant i
ro v
M s
u ana
Ġm ad
Ġb rick
cle an
all oc
Ġf uck
Ġkit chen
ĠW ing
ĠL P
ĠBr anch
Ġn ortheast
Ġmet a
ĠK ap
à ®
Â Ģ
Ġcheck ed
Pro duction
Ġcharacter istic
ĠSm art
Ġcorre lation
ĠW rest
Ġf er
ĠSpr ings
m ade
no indent
12 7
ĠM aterial
ĠInt eg
Ġmain stream
N or
ish ments
" `
b uilt
Ġtyp ename
o ft
ĠPol y
erem y
ick ets
umer ate
re v
Ġvert ex
ĠUnivers al
ĠNorm an
ĠRes ponse
count ry
erm ont
Ġminor ity
Ġpo ems
Å ¾
Ġn an
Ġatt ending
et o
Ġcom plicated
pl ane
Ġtransl ate
Ġem ission
ak u
Ġk in
Ġoccup ation
Ġpromot ing
Ġsubs idi
P eter
Ġ" ,
Ġmem or
Ġcomp ute
Ġth irty
ĠMon th
Ġtext s
Us ing
Ġthreat s
Ġ' '
fil ename
ĠBar celona
Sim ple
Ġt ies
ĠRequ est
ÂĢ Â
ri en
Ġpod cast
ĠPro test
E ast
á ĥ
ĠB Y
ĠĠĠĠĠĠĠĠĠĠĠĠĠĠĠĠĠĠĠĠĠĠĠĠĠĠĠĠĠĠĠĠ ĠĠĠĠĠĠĠĠĠĠĠĠĠĠĠĠĠĠĠĠĠĠĠĠĠĠĠĠĠĠĠĠ
Ġstat istical
ĉĉĉĉ ĉĉĉĉĉ
L anguage
Ġcampaign s
reg ular
oc hem
Ġenem ies
i w
Ġop ponents
Ġconv icted
ph ot
Ġautom atic
amp a
Ġsomew here
Ġanal yst
Ġj ail
b ian
r ank
ĠF itz
ĠN iger
re pe
Ġl ic
g ression
ĠC ome
Ġt ale
S ER
P ower
T ur
ir ts
p refix
Ġmanufact urer
ĠH im
ron es
ent o
Ġc ogn
Tr ace
Ġ{ '
Ġvari ant
ur se
Ġarbitr ary
Ġexist ed
ĠMar sh
Ġdiam eter
ĠC old
J ew
Ġstream ing
ĠCor p
Ġb ishop
is p
Ġ[ "
act eria
ĠB M
ĠF ROM
att ributes
im ir
Ġfin als
Ð¸ Ð
b n
Ġst yl
Ġco operation
ĠBe ijing
Ġst ops
Ġpre t
ch arge
rub y
S ongs
abl ing
Ġpro secut
Â ·
Â »
ĠTurn er
Build ings
Ġlimit ations
duc ational
Tr ump
ro ps
ab i
greg ation
ick et
iat ric
Ġrank ing
Ġrecover ed
ï» ¿
() </
Ġlist ener
F ace
L en
ĠO cc
ĠB ird
arg ed
Ġr iding
Ġreli able
ĠR ural
Ġint ense
ĠLem ma
Ġrepe at
Ġb at
Ġdepart ure
Ġd ataset
Ġxml ns
Gener ic
Ġan chor
ĠR at
Ġrep ly
mar ks
Ġg athered
cond ition
ĠS ad
ĠTh or
t ags
ĠR angers
w ind
P ublished
Ġl ens
ĠColomb ia
r andom
ĠL ock
] $
S il
Te am
Ġm os
ĠReview s
p icker
Ġsn ap
ĠB enn
Ġr anging
189 3
Ġembod iment
Ġcritic ized
Ġed it
ĠHung arian
ex pr
Ġgener ations
Ġex ha
Ġcan n
Ġr ab
Pro ps
th y
G reat
o ons
ĠEconom ics
or ious
Ġmagn itude
Ġth orough
Ġveter an
G P
ĠWar ner
Ġqual ifying
ĠGlas gow
Ġm g
Ġc odes
Ġcom ics
ĠO bl
bor ne
Ġmed ieval
ĠI F
equ ality
mir al
ari ant
ĠPr im
m ill
Ġp in
cel and
Ġdis pute
on ce
Ġfocus ing
it udes
M R
Ġph rase
ĠLiter ature
Ġ& \
ĠL evel
B ound
< !
Ġpurs ue
Ġinflu ential
Ġdevelop ments
Ġre un
Ġvent ure
Th omas
Ġconstitu ency
Ġann ually
F ORM
ĠN ear
ĠMach ine
tab s
Ġh ub
cy cle
c uda
ĠC le
ĠConst ruction
Ġp ump
gener ated
st ud
Ġph osph
ĠAlex and
10 9
O ST
L ondon
act ic
Ġdevelop er
T HE
l iter
Ġcur rency
um i
us k
Ġbel ongs
ro se
Trans form
ĠOtt oman
Ġw ake
Ġess ay
ĠHar rison
Ġut ility
Ġt y
Ġen vironments
Ġsold ier
ĠRich mond
J S
an ion
ig ion
ĠIndust rial
w alk
M ont
z ing
Ï ģ
Ġimm igrants
ĠP el
ĠFac ulty
Ġ" -
ĠSh a
Ġsug ar
ver e
Ġ å
x space
Ġlif etime
ĠJ ama
m other
des ign
Ġtem p
ĠPr adesh
ĠKir k
Res ources
N odes
sv g
ĠL arry
g roups
Ġ âĢĻ
sh aped
ĠJos Ã©
s em
189 2
ĠSt ein
Ġper mit
Ġgl ob
Ġlong est
is ely
Ġmag azines
UN D
M ad
Ġfoot age
188 9
Ġinn ings
ĠG reater
ĠJ erry
Ġvolunte ers
re port
inc inn
nav List
Ġp ic
Ġnorth west
fe ature
Ġmet ab
ĠL uther
in ated
Ġe q
Ġins ight
Ġlog o
ĠSoc orro
spir acy
ĠSe an
ĠEgypt ian
Ġas p
Ġcan on
Ġintellect ual
ĠM ut
An n
iter ator
inc orporated
ĠR ing
b rew
quir y
AN CE
pl er
Ġr it
Ġl oud
Des ign
u ates
? )
ĠW W
def inition
Ġexhib it
H ub
K ing
ĠPro duction
r b
prov ider
Ġex ports
Ġwer en
Ġn aturally
ash a
ĠCat hedral
ĠSer ge
ĠTechn ical
Ġpan els
ĠT ib
Ġinc idents
B AR
i ative
ĠU I
min us
Ġre aches
ord ered
Ġpremier ed
Ġexclus ively
asc ular
Ã¨ re
Ġdispl ays
im mer
Ġcare fully
vious ly
ĠRob in
ĠPro f
ry ption
Ġcol leges
ĠR ange
Down load
Ã© r
ĠAthlet ic
Ï ĥ
Ġf ighter
B ad
Ġh int
ĠH ost
Ġover whel
at ile
Ġopt imal
. <
a uc
Th rough
G M
L Y
Ġrest ore
Ġg ross
ĠM ul
ix on
ĠLINE AR
Ġdes per
Ġen zym
id ency
N ET
ust ain
Ġneigh b
hent ication
Ġh ier
Ġsh adow
Ġ? >
Ġc tx
CO MP
ost ics
ĠFl ight
Ġcomput ers
h space
p iece
Ġm igration
Ġhel ic
Ġscient ist
Ġrob ot
ĠB ased
Gener ator
ĠIs a
ĠKe ith
onom ous
ĠS ongs
F i
P ress
incinn ati
Ġsc hem
At tr
ĠMil an
j unit
Ġcoordin ates
n n
Ġsim ulation
Ġj ew
am er
ĠYork shire
ID E
." );
= -
att ice
ĠO t
ĠVin cent
R ole
ĠP ra
Ġper mitted
ĠB ass
A li
Ġart ificial
Pass word
Ġdec ay
ĠColon el
f x
au er
Over view
Ġtheoret ical
Ġbul k
Ġmanufact urers
ug osl
ac co
Ġpar ks
ĠG ay
clip se
Ġcert ificate
Ġde cent
Ġcorrect ly
Ġo xygen
f d
ex ecute
Ġal gorithms
Ġin ject
Ġsh ore
Ġelect oral
C lear
189 1
Ġguitar ist
u um
Ġnam ely
ster dam
ach ine
Rich ard
ĠL ion
189 4
Ġun likely
Ġing red
f olk
comm unic
Ġal ien
Ġf ur
pl ates
Ġlab our
Ġprov incial
ĠCl imate
v s
Ġcou ples
11 4
Const ants
h ave
ĠCost a
ĠL ud
B ased
r aska
ĠB ra
ers et
Ġsl ot
ĠG round
ĠSer ver
Ġnav al
Ġgraph ics
aval ry
Ġj et
c ussion
ĠMean while
Ġf o
Ġatt itude
Ġap plies
ĠC C
en able
ac les
Ġt el
aj ax
Ġdifficult y
r ative
ĠMed iterranean
Ġm ice
Ġhon our
M el
il ia
Inst all
P i
Ġb orders
il ib
on ies
ounc ill
Ġin sect
as ia
ĠFl ore
ĠCru z
ĠB right
Ġengine ers
Ġprem iere
j u
Ġhigh lights
Ġfant astic
L aw
Ġparticip ating
yn chron
; }
Ġexplicit ly
id x
res ources
ĠW i
Ġcap s
ar se
p u
r ac
ĠKen ya
ĠRead ing
ĠS aints
ene ath
ĠB ody
sp irit
ĠN HL
Ġche st
l ass
is cal
Ġse gments
ĠY ang
ocr atic
d ig
ĠCons ult
Ġcount s
umb ent
Ġ= ======
ic ht
ach i
ix els
over ed
FL AG
Ġattract ed
ĠV eter
Ġper t
ac ular
as is
om ed
m aven
Col lections
Ġcred ited
ĠSus an
ĠAp pro
P ad
ĠM asters
ĠM oz
ĠM ol
Ġreview ed
188 5
ID S
Ġtrend s
ĠL ux
Ġsp atial
ivid ual
ie ge
Ġcelebr ation
pl ier
Ġtherm al
p ull
Ġj ury
Ġatt ributed
L and
Ġdire ctions
18 65
- $
Ġgrad ually
Ġg rey
Ġsp ots
l ive
Ġadmin ister
d iction
tem p
, âĢĻ
ĠS ug
clus ions
Ġbi as
ĠSt op
188 8
il iation
Jo in
ĠSh ang
over nor
ĠO K
Ġhun ting
Pro gress
Ġenh anced
ĠCub a
Ġbon us
Ġdeploy ed
Ġr ated
Ã ¦
if def
Ġwire less
re lease
Ġlight ing
ĠDer by
requ ired
M ath
m oz
S ocial
OR Y
ace ut
ĠInt eger
Ġcomm ands
Ġ ul
om i
t ail
Ġrom ance
ĠVictor ian
h op
h aw
l at
Ġsuccess or
Ġmaintain ing
W he
oe ing
ĠY O
}} {\
Ġinvestig ated
Ġp ian
L ater
et ics
j ob
Ġch a
Ġg host
ĠM oney
circ le
Ġr ally
Ġpat ent
Ġup grade
Th anks
? >
AT ED
ĠI M
Ġf ictional
ĠM ade
E V
ĠTig ers
com b
Ġlaws uit
ĠFI FA
Ġ rib
Ġcl er
ĠHT TP
Se lection
Ġelimin ated
ĠGr ace
Ġres et
Ġout door
Ġres emb
W el
Ġpubl ish
ĠMad ison
ĠTer ry
er ious
Ġspec ify
Ġload ing
1 18
Ġst roke
Ġattempt ing
Ġvo ices
Ġcompos ers
Ġgover ning
t body
uck land
Ġshould n
Ġgu idelines
ĠY am
Ġcoal ition
div ision
Ġcult ures
Fr ank
ĠPier re
he art
ĠSt atus
wh at
Ġc razy
Ġsuggest ing
ĠD raft
Ġl ung
ĠPer ry
t ures
P ers
Ġbo ats
P refix
T own
ym ph
ĠAir lines
ĠH ence
Ġhead ers
Ġpl ugin
Ġco aching
n al
ĠP ic
Ġass et
ill ance
Ġl oves
Med al
{ %
Ġrecip ient
Ġsh ops
Ġdesc ript
Ġind uced
eff ect
Ġb anned
Ġde ck
ĠSy rian
osp el
Ġcl ip
sh ared
ĠT un
Ġcomment ed
) +
ĠR ank
ĠMu hammad
ey er
Ġpres erved
ĠPer u
N amespace
ĠE ug
ĠL isa
Di agn
H en
ĠGuard ian
Ġdel iber
L D
ĠAN Y
ur able
Ġsub mar
ĠMur phy
F ollow
XX XX
ĠWhe ther
ĠArch ive
Ġad equ
Ġin clusion
ĠI R
Ġco ins
US E
Ġlog ger
Ġman ual
oper ative
f c
ĠM C
all classes
pre v
ĠCont act
Ã³ w
ĠS ax
ĠDemocr at
Ġclos ure
Ġp ipeline
Ġst eal
Ġb read
av it
Is rael
ens ively
ec ca
Ġc ub
sh ore
Bl ue
Ġeg gs
ĠT on
W ait
Ġt unnel
Ġop ponent
H D
it ol
ĠY u
cont rib
Cl uster
Ġbelong ing
Ġcam eras
R ailway
â Ħ
Ġdef ending
Ġreg ulatory
ĠAlber ta
Ġe ighth
iv ic
ĠF if
ĠE le
serv ices
Gener ated
Ġmount ed
ĠG olf
ip es
ĠLa ura
Ġt ons
ĠP in
IN S
qu al
ĠV lad
ĠCam eron
Ġassum ption
ĠPar ish
Ġind epend
Ġst ats
Ġsec ured
ĠWrit ing
Ù Ī
th al
Ġt orn
us ername
Ġl ip
Ġact ed
ĠGr an
">< !--
re z
Ġapp lying
ĠRe lease
Ġne arest
g ie
Ġ _{
Ġcl othes
Ġt ap
Ġpart ly
Ġfol ks
Ġh ospitals
Ġmod ules
ĠL en
eli hood
Ġsome how
B T
ĠL ate
Ġpro s
}} }
ĠC ricket
i u
ĠC lient
Ġdu o
ĠS r
P resent
oc y
w oman
ĠB achelor
ĠP red
OM E
Ðµ Ð½
ĠCl ay
ĠS S
g b
ĠW es
PO ST
/ "
err ors
Ġwor ry
Ch ina
ent ine
oper at
ĠH em
ĠG rey
H ave
ĠThe ory
Vill ages
t ri
Ġsynd rome
B D
ĠT ogether
r h
sh adow
ĠA my
j ango
sc al
ĠMont ana
c ases
et e
Con nect
log in
Ġhol es
Ġsc rap
Vol ume
Ġb om
Ġvari ations
Ġcancell ed
al is
Ġro cks
Head ers
ĠNich olas
c od
ĠA aron
Ġsent enced
ĠK ids
C reat
hol m
Pub Med
ĠBr istol
sequ ently
det ail
ĠS id
Ġarrang ements
function s
ĠB ath
ff ff
ut ers
Ġdebut ed
B oth
ro at
Ġbl ank
Ġvulner able
Ġdream s
coll apse
ĠM E
par atus
comp iler
AL SE
M ass
Ġun ve
int eg
writ ers
Ġtalk ed
sing le
Ġsepar ation
ing ers
Ġnot ion
r ating
Ġprogress ive
ax ies
Ġpro x
ĠGal axy
Ġmon ument
U ri
sh a
ĠP ont
ĠG iven
ĠBre ak
C ross
Ñģ ÑĤ
ĠTre as
r ition
Ġfilm ed
ut o
Ġt ags
Ġshould er
Ġthe at
Ġprom ised
in ating
$ }
Ġcompris es
ĠE state
aj a
Ġmed ic
Ġdelay ed
Ġ- \
S ave
Ġpres erve
ĠF ish
ĠA zerbai
iv ial
or rect
Ġoccas ions
Ġsymbol s
ne q
ĠM orning
ĠF un
iv ities
Ġnom ine
check ed
Ġg aming
ĠASS ERT
Ġm arch
ĠS oph
Ġpack et
Ġl os
vis ible
Ġst upid
Ġan ime
ĠCh and
ĠW onder
! )
Ġr ice
Ġsub sc
l ibrary
Ġl ying
ĠF O
ĠG P
Ġfore ver
ĠV ent
Ġm ic
akes pe
Ġc md
G F
nd ef
t c
ĠY e
Ġcar ries
Ġ ^
av ailable
(' .
N ative
Å Ħ
c ross
Ġsh ipping
Ġexpert ise
Ġpand emic
Ġstar red
C amp
ed ed
Ġpower ed
Ġrec ruit
orn ame
Ġtum or
Ġmist ake
Ġbe ating
air y
col lection
ĠF iction
Ġc ir
au kee
ĠLead ership
Ġsouth west
ĠGh ana
ina e
Ġse ar
m usic
os ity
de cl
ĠMor oc
Ġcompris ing
TE XT
Ġalleg ations
or f
Ġtra iler
ĠD ig
ĠAgain st
Ġm es
ĠW alt
Ġpro ps
Ġdon ated
et ta
ĠLO G
Ġl ang
ĠE V
Ġuns uccess
Ġsp ell
Ġdistingu ished
opt ional
ĠMc L
un ique
f ight
Ġimm un
ser ies
Ġless ons
Ġcompens ation
Ġb ug
Ð¾Ð ²
ĠD iamond
L ove
UR I
Ġspons ored
j ud
à¥ į
Ġfore ach
Ġun w
ĠF ro
ant ed
Ġequ ality
Ġp atch
ĠH udson
Ġpre domin
aster y
Ġsuff er
) }{
ĠK id
ĠK ay
ĠT otal
Ġg rap
ĠFe ature
ent e
) }$
ĠFinn ish
Ġent ities
Ġfail ing
o an
Ġam id
Ġexpand ing
Ġdiagn osis
Ġb orrow
Ġguarant ee
ĠK os
Ġcorrespond s
ĠS eg
Ġbusiness man
Ġt weet
ĠCont emporary
Ġr anges
ĠM uch
TR Y
ĠBelg ian
ĠBuff alo
ĠN an
aceut ical
col Last
ĠC ars
ĠB aby
Ġgrow s
Ġs outheast
Un ivers
ag ar
Char les
ĠL ot
Ġsc ales
ph ant
Ġsusp ension
ĠV irtual
/ .
} +\
st ock
Ġpro l
evel oper
op edia
Ġwind s
Ġinv olve
ĠSing le
s elling
ĠCl are
ĠO scar
operat orname
Ġnegot iations
Ġt ribe
188 7
- (
F our
ĠC amb
Ġge ometry
Ġrefer ring
ĠE SP
ĠCirc uit
T or
d c
Ġlux ury
G overnment
ĠC elebr
Ġaccomp any
2 20
ĠVenezuel a
Ġ' <
ĠUnivers e
Ġw ings
Le ague
st orage
Ġsc roll
Ġim aging
g om
ĠTro phy
ar ms
Ġhand led
ĠSh aw
Ġdo i
Ġevery where
ent i
P N
ĠAb u
ĠWat son
ĠGu inea
ĠZ e
18 50
Ġp ric
c rit
Ġre ly
Ġen ables
Ġphys ician
EE EE
ac eful
agon al
atern al
Ġapprec iate
Ġgener a
____ ____
Ġcomp atible
math sf
Se ason
ĠN ort
Ġprocess or
on ian
Ġcomp iled
Ġrecommend ations
t k
ĠC ad
Ġ ],
M ean
ĠGon z
ph ones
sup ported
18 00
ĠCreat ive
2 13
Ġthere by
ab is
end um
Ġobserv e
Ġemphas is
Q ual
op al
Ġmin isters
Ġanal og
Ġremain der
Ġlegisl ative
ĠQu arter
st ad
Text ure
ĠWork ing
] \
ile vel
Ġspe aks
( @
Ġl unch
Ġrest oration
ĠC ob
Ġadvert is
Ġag enda
t age
est on
Ġcont rad
ĠL ions
Ġp ounds
ĠG host
Ġte eth
ĠÃ ł
ĠSe pt
iz a
Ġd il
x s
fl ag
M o
Ġdec ides
Ġf ert
Ġwe ird
Ġcross ed
Ġb atch
ĠR ules
ĠM ix
Ġsing ular
bl ank
Ġb ases
ag i
Ġhuman ity
Ġp ill
ĠI C
Ġfl av
Ġm amm
Ġpaint ers
Ġinstrument al
S creen
Ġend ors
ĠChristian ity
; )
ĠR u
Ġcous in
ĠC itiz
ĠP le
I LL
b old
ĠAp ache
ĠN othing
abet es
grad ed
Ġtele phone
F ramework
Ġprov isions
ĠS pect
Ġtrad itions
less ly
ĠForm er
ĠNov a
Ġport folio
ĠHel p
ĠH at
; ">
Ġa qu
Vis ible
R ock
akespe are
Ġtour ism
Ġc argo
Ġpred ecess
Ġpo ets
ĠConf eder
ellig ent
ĠE ston
EL D
Ġmir ror
Ġcab inet
Ġs aving
ĠP ul
ĠT ab
u ce
Ġcomp ounds
ĠL com
Ġin duct
ub ble
ĠB our
Ġsumm it
ash ing
ĠCom merce
Ġalleged ly
Ġsl ave
ĠBe ing
Ġsub str
test s
Ġrequ iring
> :
ĠPro file
Ġt ribute
en abled
ha us
Ġt ar
ĠTr ad
ĠMer c
ycl ing
P od
ind a
Ġde eper
ĠCon c
Ġp arser
Ġ ];
Ġ( âĢľ
col First
Ġany more
Ġfall en
part s
eng ths
w aukee
Wrap per
ĠR av
Ġtw in
Ġsequ el
pro gress
ĠMat hemat
p aper
ĠBl u
Ġexam ination
ĠAthlet ics
as ync
24 0
ĠW a
Ġviol in
ĠE C
ĠCons ervation
Ġqual ify
Ġaud iences
Ġl iv
Fl ag
ort s
Ġpre st
Inter val
ĠStr ateg
oc aml
Ġscreen ing
ex pect
Ġpar ad
b ers
Ġe cosystem
AS H
id ays
ĠN AME
ĠLu is
Ġinher ited
ĠF u
Sp anish
ĠEd wards
Ġst uck
ĠNe il
b ane
18 61
P an
V R
Ġaltern ate
18 64
ist ani
ĠT u
Ġor chestra
ĠWh ich
Book s
B ill
ĠAl t
t ok
text tt
ĠA er
ĠE lection
Fl ow
ĠLabor atory
op ath
ass embly
ĠS or
Ġab ilities
$ _
S ever
Ġwar rant
Ġactiv ation
us p
AR G
OR K
Ġl aser
Ġcrick eters
Ġster e
Ġmer ge
Ġcitiz en
Ġplay offs
be ing
ĠSerb ia
ĠEth iop
EN SE
con nected
Ġterrit ories
vert ed
op ts
Ġt ensor
Ġportray ed
Ġo verseas
ĠFle et
B al
Ġs oc
Ġremark able
Ġlabor atory
Ġbut ter
Ġhand ed
ĠSe b
ar an
188 6
ĠB ot
Ġmix ture
Ġrepeated ly
Ġfest ivals
on ing
ĠN intendo
Ġassert That
Ġassign ment
UT C
ĠI celand
Ġestabl ishing
qu arter
li ed
> ::
the me
ĠC ris
Ġav ailability
am med
ĠS alt
Sh ould
ĠDr ag
ĠT erm
pl ot
ĠBeng al
run ner
ĠE sp
R ound
Ġact ively
ĠD rama
ĠH aving
ĠV ict
her ic
Ġwhe never
ĠĠĠĠĠĠĠĠĠĠĠĠĠĠĠĠ ĠĠĠĠĠĠĠĠĠĠĠĠ
J im
Ġpo ison
v space
ĠK ill
: \
Ġuncertain ty
in valid
ĠÐ ¿
æ ĸ
Ġre actions
Ġv ibr
Ġp uzz
OW N
m its
ah l
Ġgraph ic
s n
ĠTh ank
ro e
Ġl ibraries
h alf
Reg istry
Dom ain
e or
Ġstri king
ke ep
Ġdev oted
et al
the orem
Ġpol ynom
itte es
ĠNe uro
L ear
str ument
d iff
h is
sign ature
ĠNet flix
Method s
sen al
all ing
Ġemot ion
Ġinflu ences
ĠFr an
Ġsk i
Ġac oustic
ĠRog ers
ari os
Ġtown ship
Ġrat ings
=" $
ĠS ox
Ex ecut
down load
Ġoff ense
om atic
ĠAm sterdam
Ġro ster
Ġarchitect ural
a que
ĠBer keley
Ġdefe ating
Ġgold en
| ^
ish a
ĠP ick
Ġconsequ ence
ĠEag les
ĠX ML
Ġt ube
Ġprepar ing
Ġev ac
Ġev ident
Ġcre am
s un
Ġam ateur
ĠD esc
Ġorient ation
' ));
he ld
Ġult imate
ose x
ĠIns urance
Ġv e
Ġentreprene ur
ir s
ĠĠĠĠĠĠĠĠĠĠĠĠĠĠĠĠ Ċ
ĠB aptist
ĠPhilipp ine
f our
Ġrout ine
TR UE
Ġsymmet ry
ur st
ĠArray List
xi ety
Ġcontribut ing
Ġtime out
Ġcon n
pol y
Ġres olved
P OS
ĠS L
âĦ ¢
4 50
ard ed
re p
Ġh itting
ĠJ ob
che ster
ĠHoll and
ĠD raw
Ġbr ig
ĠEl li
ĠH um
Ġor bit
Ġj unction
Ġton ight
ĠQu est
ull ivan
' $
R oyal
ĠC atherine
Ġenter prise
VAL UE
it r
ĠWith in
Th ank
Man agement
) {\
. ",
ĠNeb raska
Ġdo zen
Ġqu ote
ĠSh ip
M ouse
ĠM end
i ating
Ġ{ "
ĠHor se
Ġsurv iving
Ġvalid ation
Ġland ed
Ġe uro
Ġfl ed
d atabase
Ġs ync
ĠJenn ifer
! [
ĠFil ms
188 4
ar ity
Ġ> >>
Ġev olved
chn ology
Fin ally
ĠNew ton
n ative
Ġtransform ed
Ġb unch
11 3
LOC K
ĠCont ract
en h
ĠFant asy
Ġ[ ],
Ġbr ut
Ġm ood
ag ent
Ġp ole
Ġd rove
Ġmod ify
az i
ĠJ oint
33 33
check box
ĠTransport ation
Ġfor um
ĠD elta
the y
ĠPh arm
AM P
ĠC SS
x html
ela ide
Ġtravel ed
Vert ex
C apt
Ġconvinc ed
Ġpers u
L ead
Ġref lected
Ġafter wards
Ġb ay
ĠI van
ĠP DF
Ġtrans it
Ġs isters
Ġappro ached
Ġl ady
ĠPalest inian
Ġmoder ate
ĠC ant
ĠRefer ence
Ġdis p
at omic
Ġsur f
Ġt rem
Ġloc ality
Ġdo se
ĠM ail
look ing
Ġnumer ical
h ref
ĠQ ual
ĠAdv anced
Ġexped ition
ĠÃ Ĺ
Ġchem istry
ĠS uccess
L android
form ed
p ine
ĠD ise
ĠF ed
be h
Ġep ic
if ice
Ġexam ined
ij uana
Ġhor izontal
pl oad
Ġl obby
ut er
Ð ²
Ġor al
ric ulum
sh ops
is ch
ent in
Ġel ite
ĠA w
Ġbank ing
Ġf ate
ĠF riend
min ster
Ġde emed
ĠK le
cd n
Aud io
ĠB ir
ĠCh i
Ġaw esome
C enter
index Of
Ġpl ural
U CT
for ced
ub a
Ġsub scription
n ob
l as
Ġbound ed
18 62
land o
Ġmurder ed
Ġh orn
in ery
Ġphil osopher
B ind
Ġt ract
ĠSim ple
Ġopin ions
Ġhe ter
ĠD atabase
Ġport rait
Rel ated
} -\
Ñ ĩ
Ġple asure
hell o
Ġcou pled
H am
ĠAdd ress
{ "
ĠTe acher
Ġac res
Ġproport ion
Ġeconom ics
Ġgr ave
ĠGl en
ol ute
Ġrele g
Ġed iting
Ġt un
ĠMunic ipal
C ulture
Ġcomm emor
Ġre plic
ĠD ennis
Ġpe oples
ĠAnt ar
188 2
ĠV as
Ġpre val
sc ience
am ine
ĠIss ue
ĠD ictionary
Ù Ĭ
18 63
Ġpush ing
g eneral
Ġtravel ing
Ġper pet
ĠLl oyd
add y
ĠIl legal
Ġwild life
Ġbur st
Ġco q
Ġclos est
ĠV oice
Ġple ased
ĠR T
ĠC ov
par a
ĠR i
Ġsh it
Ġsearch ing
ator ial
F ar
ĠJeff erson
Ã Ł
Ġfore cast
Ġparliament ary
S u
ĠB und
Ġbound s
Ġsatisf ied
) ->
im ony
Ġdr ives
embr ane
Ph ot
Ġdev ast
D OM
om o
An imation
F ire
t z
Ġboard s
ĠM ann
ĠU TC
f lex
Ġprint ing
M ag
ĠA uckland
Ġrem oving
ĠT itle
... </
os hi
Ġorgan ised
item ize
13 5
cur s
ĠArchitect ure
Ġcur ves
Ġsm oke
Ġmax im
ĠD oc
ĠDe cl
ĠForm ula
Ġphenomen on
Ġth rew
Ġdismiss ed
h um
Ġt ips
Ġcomplet ing
ou p
f am
Ġap ilevel
est ing
17 0
Ġnomin ations
Ġlast ed
arch ive
ĠIS O
ĠJ ar
. ]
Ġg est
ow der
Ġeval uated
(' #
ĠH az
Cont in
Ð° Ð½
Ġbelief s
Ġall iance
Ġdef ines
ĠRepresent ative
Ġcou pling
Ġcalc ulate
Ġeng aging
Ġt mp
act ivity
ĠGr ade
con duct
m ouse
e u
pat tern
b c
ch ing
Ġrepl ied
p ub
Ġscholar ship
ri ber
AC H
ast rop
Ġsur faces
ett ers
Ġw ars
th lete
Ġchar set
188 1
pro gram
Ġdepart ments
Ġin equality
Ġl uck
time out
ĠSym phony
ĠH ttp
Ð ´
Ġf rames
c ity
re present
Ġmin istry
oy s
s ys
Ġb ills
M ary
ĠR ivers
ĠC urt
ĠF oot
Ġf itted
Ġc ust
spring framework
\ ,\
ĠN athan
Ġdifferent ial
Ġkill er
Ex ample
Ġall ies
ĠWrest ling
Ġburn ing
under line
Ġe igen
ox y
Ġsche ma
Ġconf used
Ġman if
Ġph ones
ĠEN D
ĠMar io
J ose
ĠD anny
Ġall oc
ich i
(' /
ack er
Ġsh ield
Ġt anks
Ġd ancing
ĠR idge
ring ton
ĠA round
ancell or
ĠR ou
ĠS um
ĠB orn
ĠS uz
U G
Ġf atal
M ask
Ġbl ame
Ġg entle
C red
Ġhar vest
ĠCons erv
ĠArt ists
Ġang ular
ä »
Ġorig ins
Ġinput s
g ba
Ġm ath
D elegate
Ġend emic
Christ ian
n odes
ĠCon n
Ġor ange
ess a
Ġhelp ful
Ġcamp s
ĠCE LL
J ud
ĠR achel
Ġprocess ed
ĠL oad
Ġstat ue
Ġcomput ed
l it
Ġt ours
Ġyoung est
Ġsub stance
" ],
om al
Ġdoll ar
ĠCo ach
hab ilit
Ġintegr ity
cit et
Ġd ish
ĠS ah
print ln
ä º
ĠB urg
r ass
Ġfast est
ĠB eth
Ġsc andal
ar as
Ġk iss
Rep ublic
Ġstream s
S ite
ov iÄĩ
Ġtr im
Pl an
ĠBor ough
Sh ape
Ġpsych ological
ĠBob by
Ġa uction
ĠR aw
ĠLin ux
ĠD escription
ac a
cl uster
ĠMun ich
Ġas h
}} _
Ġcompet itors
umb ai
ĠH E
Ġc yl
Ġsh orter
ĠAgric ulture
ĠB R
... ]
ol ine
ĠD od
Ġdisc rimination
atter y
ĠS olar
pol icy
Ġp ending
ĠD h
Ġinter mediate
Ġter rible
F ac
Ġd ying
ĠF ly
ovak ia
ĠNash ville
ig ator
ĠW rite
ocol ate
Ġwarn ed
he w
Ġaff air
Sk ip
Ġsus pected
Ġne ur
ĠW orth
b ank
Ġal pha
Ġa est
ĠT odd
ĠNep al
ĠHel en
Ġenthus i
Ġgener ating
Ġcompl aint
id ation
resp ons
Ġs id
th ree
Ġvert ices
Ġsw ing
Ġgal axies
I gn
ĠUn like
Ġsimilar ly
s ample
t ra
g ies
ot he
ĠLeg end
ĠL is
D rop
Ġl ov
Ġg ig
ĠN EW
qu er
Ġup set
Ġb eneath
av ier
Ġindepend ently
I Z
ĠAl ong
br and
Ġdecre ased
Ġserv ers
numer us
av ers
fl oor
Ġdifficult ies
Ġimp ression
ĠI de
Ġap paratus
clud es
numerus form
ĠB ear
M IN
Ġw elfare
ĠMunic ipality
ĠU E
ĠPhys ics
Ġattract ive
ĠMethod s
W ord
ĠC incinnati
Ġrev ised
Ġen orm
Ġal ias
ott a
Ġhard er
pr ises
ĠMed ic
Ġmass es
ĠL ex
ĠK ur
Ġbox es
ĠEnter prise
ĠWild life
V C
Ġnull ptr
ad ows
Ġwrest ling
Ġh yd
ĠM B
ul in
o ose
Ġback up
ĠR aid
G ER
Ġin ches
clud ing
( --
ĠCan al
cre ated
Com plete
ok u
ur ations
Ġret reat
Ġaf raid
D ictionary
Ġlog ging
R ay
Ġob sc
Ġass ists
Ġchampionship s
me an
ĠF ast
Ġele ven
CT YPE
Ġfunction ality
ĠP ent
ĠT rip
ĠD B
Ġk ernel
p al
ĠBre xit
L ower
Ġvolunte er
ick ed
ĠHar vey
Ġinit iated
ĠWell s
Ġt ension
ĠCol lect
Ġc oc
en umerate
IL D
Ġste ep
al ymp
Ġm d
Ġtrib es
Un known
%%%% %%%%
ĠAd ult
Ġmunicipal ities
ĠC P
ĠA ber
Ġl ingu
Ġsee ks
te enth
Ġc rop
Ġtack le
n ut
ab ul
ĠLiber ty
Ġt ape
Ġse cre
ic ients
ĠT arget
Ġpat rol
ro d
Ġcoordin ate
hel per
ern ess
Ġport s
Ġn ose
Ġse eds
ilt ers
Ġspecial ist
Ġb undle
Ġquarter back
sy nc
Ġquant ity
12 4
Ġopt s
agon ist
STR ING
Ġh az
Ġcons olid
7 50
Ġsp o
Ġhistor ians
×ķ ×
Ġconstitution al
Ġbu f
ik ing
D ou
Ġyield s
en os
EEEE FF
pro d
Ġ\ ;
ç Ķ
Ġcivil ian
am azon
Ġhydro gen
' ];
am o
ĠAnd r
ĠR ule
HT TP
Ġag gressive
ĠInd eed
ist ically
or igin
Ġc attle
ps y
ij i
D M
Ġf iber
power ed
ĠV ic
ast ed
ĠM idd
Ġprem ium
ĠRem ove
ĠP arent
Ġequ ity
ke es
ĠSh are
Al umni
ĠS ets
ĠEd ge
Ġgr ants
ĠA F
un ting
im o
å ®
ar ance
Ch ris
187 6
Ġs ax
ĠY ugosl
ĠAr c
ĠTr inity
Ġprec ision
ia o
Ġch at
Ġsatisf y
S ample
ĠTr ain
Ġmed als
Ġtrad ed
AT O
Ġcomment ary
ĠTerrit ory
ĠB og
ĠK un
Ġim plications
Ġbel t
ell ers
Ġj ournals
ĠK el
Ġlif estyle
å ħ
Ġexam ine
ĠSh akespeare
Ġi OS
agn etic
rad io
ĠAthe ns
Ġamb ass
bro ok
Ġbare ly
Ġover come
Ch inese
ĠArab ic
Ġt x
ĠN ancy
Ġlock ed
Res earch
dest roy
Ġhar ass
B ER
Ġcap ability
Ġdisc ount
yl an
Ġelev ation
w art
ub er
Ġmuseum s
ĠEm ma
ID TH
ĠInter view
Ġmer ger
ab we
Ġsc ream
ens itive
Ġstrugg ling
Ġcommun icate
test ing
() ))
ĠAm endment
Ġpro be
ĠAv iation
Ind ia
Ġun cle
Ġsc reens
ĠOak land
N R
B er
c ott
Ġs hed
re ach
cur sor
Ġtom orrow
Ġbar rier
ĠCons ider
Ã¡ s
ĠS ultan
Ġdocument ed
ĠC NN
Ġbar rel
Ġplay off
Ġ@ "
Ġdis orders
ĠCom edy
Ġconsist ently
ens en
Ġinter active
ĠBo olean
Ġan ger
r imin
Ġmyst erious
y cle
m n
ĠV ery
Ġbr idges
Ġburn ed
P red
Ġdou bles
Ġroll ing
Ġjuris diction
Ġen um
Cons umer
spect or
Ġinher it
uss els
Ġattend ance
< <
Ġiniti atives
W ater
Ġcop per
Ġconcert s
f actory
ĠAb stract
ĠN AV
Û Į
DE FAULT
Ġembed ded
Ġ( [
A z
H or
Ġtyp ed
Ġreg iment
bre aking
Ġhost ing
Ø§ ÙĦ
F uture
******************************** ********************************
ĠV ermont
Ġst abil
ĠS yn
Ġevery day
ĠC F
Ġcare ful
Ġst olen
p icture
se par
mit ter
Ġgrad uating
ĠH ob
ĠBut ler
Ġhon ors
ĠS oon
d istance
dr iver
Rec ip
pro xy
T y
ov an
PRO JECT
sp ot
Ã Ĺ
ĠS old
el o
amp ed
Ġs orry
ĠPlay ers
ver b
mult i
ess ment
off icial
Ġvalid ate
ol ition
ĠBr is
DO CTYPE
M a
ĠHe avy
side bar
Fr agment
Ġpack ages
Ġpregn ant
ĠHer o
ch anges
Ġent ert
Ġgr an
Ġexpress ions
S un
ook s
ĠLeon ard
ell ion
Ġp ale
Q UE
187 8
Ġjo ins
Ġaggreg ate
gom ery
Ġh ung
w arning
ov ich
ĠTh under
et ter
fl at
Ġpro jection
b id
Ġy ard
RE SS
INT ER
ĠHig her
Dem ographics
ur ring
Argument Exception
Ġm anga
Ġpropos als
k an
ĠOver all
ĠC IA
run time
ĠS outheast
Ġgl ad
Ġm eth
ir ical
Ġintern ationally
ĠK ash
B uff
Ed ge
Ġevery body
ĠPhill ips
io x
ĠM aced
Ġfun eral
ĠPref ecture
get Element
ĠG oth
Ġsust ained
imb abwe
j et
ĠPet e
z ens
E conom
È Ļ
Ġdep icted
ah an
Ġart ifact
vol ume
Ġident ifier
cess ion
Ġview ing
H ot
ai ro
ĠR alph
ĠCo hen
comm ons
VAL ID
}^{ -
con sole
Ġn p
z b
T our
oph one
ĠB ald
rou te
int o
Ġgrand father
Return s
ĠJ eremy
all ed
ĠHar per
el ia
âĢ¦ ]
Ġpay load
Ġprec isely
cret ion
if ndef
ĠSt uart
construct or
ĠPar ks
is or
LE D
Ġtour ist
Ġwealth y
Ġw ard
Ġearthqu ake
l ic
Ġfor cing
F ocus
Ġr iders
re act
ĠE ld
Ġcert ified
mult icol
p rom
z ant
Ġhypothes is
m g
ĠC over
ĠStr ategy
Ġachiev ement
it ic
ĠL icens
Ġd ad
Ġarr ives
12 2
int ers
en o
Ad min
Ġsubstit ute
A I
_ );
Ġair line
Date Time
D b
Ġart work
14 4
h uman
b ird
ĠS ierra
Ġr ape
Ġper ceived
inn ed
m ans
tr l
ph al
Re act
Ġver b
ĠG ra
ĠUn fortunately
Ġsm ile
Ġfriend ship
Ġc atal
le ading
Ġtext ure
F ort
UT H
b oth
Ġad mit
ĠSp ider
Ġcl usters
ĠAm bass
L uc
ĠObl ast
... "
ĠA LL
h in
ener gy
j or
ĠW inn
anc ers
ĠB egin
grad le
ĠG R
aud io
Sec ret
ĠScient ific
is i
A X
ex it
Ġp ipe
Ġm ild
boy s
188 3
Ġmake up
Ġstep ped
Ġle an
ĠY ellow
Ġmer chant
ert on
Ġart illery
Ġconven ient
isher s
Ġvary ing
i eg
lim ited
Ġpl acing
ĠInd ependence
ist le
ag ination
ĠOtt awa
"" "
M ove
Ġsub set
ĠPer haps
Ġcou p
Ġsk ip
Ġs b
c z
Ġcur sor
K ar
AT CH
ĠS ak
Ġsumm ar
NavBar Font
Ġj e
Ġencounter ed
ĠMet al
Ġgather ing
re ction
Ġins pect
m atic
Ġinc orrect
sc ill
Ġd ense
Ġrep ublic
Ġde ployment
Ġprec ise
% "
ĠC ut
Ġres erves
Ġfarm ing
th rift
P UT
Ġimpact s
ĠM atch
Ġang ry
Ġnob le
'] ['
b inding
ĠR ah
other apy
ĠAct ive
ĠStat istics
ĠR s
ĠD R
ĠSc ar
AR N
ĠP av
Ġselect or
Requ ired
ĠR af
multicol umn
at um
math scr
Ġw alks
ep h
iss et
Ġkne e
S at
ĠAnc ient
Ġrecogn ised
Ġfight ers
Afric an
}} ,
Ġcomb ine
ĠM ig
ĠG ene
Ġback ed
!! !
Ġelement ary
187 1
p el
Ġphys ically
Ġdis contin
ĠG uild
ĠTh an
Ġim plied
The ta
Ġmult ip
ĠE sc
N D
Ġper cussion
m ind
Ġpre lim
Ġf iring
ĠC elt
H ol
m ons
18 75
ĠSt ef
T ake
om eters
w x
ĠStan ford
Ġrefuge es
à¤ °
p ression
Ġsim ulations
L ib
Ġt we
ĠWork ers
ĠV ector
ĀĀ ĀĀ
Bas ic
ĠMem ory
ĠD ol
Ġterror ist
HER E
Ġdetermin ation
Form s
Ġsubsidi ary
al am
ĠI v
Ġimm une
Ġde leted
Y Y
ĠF R
ch at
ict ions
SE LECT
ĠP att
Ġtal ented
ĠB uc
Ġd iver
Ġs ends
187 9
Ġapprox imation
p ython
ĠEm ily
\ }$
Ġconstr aint
ĠC inema
Ġagre ements
ĠP icture
Ġextra ordinary
Ġear ning
Ġgal axy
Ï Ģ
h all
plic ity
Ġc ave
ĠAd elaide
Ġmat ched
SS L
Ġmathemat ics
Ġgener ator
Ġl attice
Ġown s
ĠT ry
0000 0000
ĠHug hes
mark et
ĠBat man
Ġto ll
ard ing
Ġover view
Ġins pe
Ġident ifying
f etch
Ġesc aped
A h
Ġcomm une
ri o
ĠCirc le
Ġten ure
ĠK ind
Ġcon form
alt ies
Ġarch ive
S cal
Ġan ten
ĠR AF
ĠW H
ĠPlan et
ĠSud an
Ġseem ingly
ĠVol unte
Ġwork shop
i pt
H ouse
Ġext ending
ĠAct or
ON G
f ail
IC ENSE
Id entity
ĠW ait
Ġch ances
Dr iver
ĠSI ZE
=\ "
ĠB uch
Oper ator
M ike
Ġinfin ite
f eld
Gr and
Ġattack ing
im edia
ia z
Ġrend ered
ĠAb raham
u ity
Ġfollow ers
es ian
B eh
I ll
m itting
Ġam pl
s ay
Ġap olog
r ang
Ġd upl
Ġc ov
col lect
Ġprogram mes
Ġprom ising
Ġad s
ul ative
ĠL ov
qu et
ĠFil ip
ĠPro ductions
trans ition
Ġn inth
Or iginal
T IME
P ubl
ĠIn put
ĠÎ ¼
Ġfacilit ate
M ex
Ġse ctors
ced es
ĠD eg
Ġhero es
Ġam plit
Ġco in
Ġin fer
w iki
Ġcol ony
ĠPun j
ĠS creen
18 68
C RE
ĠB ach
ĠAv ailable
ĠSp ot
Ġb acteria
Ġch ron
Ġcons ensus
olog ically
Ġexpl oring
ĠIn novation
ĠWood s
ĠMe chan
ep per
×Ļ ×
Ġb uses
ĠG ang
ĠHe brew
ĠTreat y
MET HOD
ĠGab riel
Ġco at
Austral ia
st own
am pton
c atch
ili ary
) [
Ġqu oted
å Ī
k n
urs or
und efined
ĠLeban on
Ġelev ated
Ġel abor
Jew ish
on ial
Ġed itors
comp ile
Ġconfig ured
bo ost
Stand ard
og g
ĠTy ler
Ġc inem
Ġman ages
n l
ĠG ov
ĠDel aware
aur us
Ġprotect ing
at ibility
S F
Ġhe m
Ġreflect s
d al
Ġp a
ah u
ĠK umar
ĠK in
ĠM ock
er ie
ĠMus ical
Ġlegend ary
O H
Ġicon ic
ĠShang hai
ĠOption al
ĠBey ond
Ġdemocr atic
Ġap pl
ĠSh adow
ĠCar r
ĠFa ith
R a
oll o
ĠO P
B order
ch art
ok o
15 00
h ou
ĠTib et
Ġc od
Ġper f
ĠEx cell
ĠMe eting
Ġadvoc ate
Ġtim ing
ĠRod rig
ĠTh r
i ov
Ġnob ody
18 67
ĠGl ass
Ġflex ible
ĠBer g
m un
y y
ĠCroat ia
ar re
Ġhum or
Ġvar ied
Ġmolec ules
l ater
Ġmer ch
ilib rium
J on
K n
Ġmar ry
Sm ith
ĠCom plex
Ġsculpt ure
Ġinvestig ations
Ġt ut
ĠBas ic
ĠVis ual
ĠT ang
ex per
Ġs s
ill es
Ġrid ic
ĠM az
} %
Ġacqu ire
, ...
ĠLe o
12 1
N ormal
ĠB io
M or
Ġviol ation
Id s
Ġvol unt
Con stant
ex ec
RE G
Ġm ature
ĠA ve
Ġcalc ulation
ĠEn s
Draw ing
c aster
á º
Ġn ights
ST ATE
Not ification
ast ing
Ġs its
ĠP ain
ĠCamp us
Ġrecept or
ĠF oster
Ġdesign ers
. ).
Ġmart ial
R aw
Ġsens itivity
ĠL an
Ï Ĥ
ĠGerm ans
Ġthr iller
Ġsole ly
Ġdist inction
nc y
s u
Ġv it
ex cept
ĠA B
Ġv ic
ĠKe ep
Ġsc an
ĠAbb ey
W arning
ut ton
Ġpoll ution
Ġcheck ing
ĠPhil osophy
us a
Ġsh r
ĠAud io
Ġcirc ular
Ã ī
Ġhard ly
Ġassoci ations
Ġpe aked
Ġblock ed
ĠS z
ph an
ty pen
187 2
ĠH amb
Ġf ract
script ions
Academ ic
T ok
ourn aments
ĠM is
um ble
ĠG O
Dan iel
Sequ ence
Ġpert urb
Ġdr um
So ft
qu ality
* {
ĠS weet
Ġgard ens
amb ers
L ittle
Ġthrow ing
Ġspect ral
Ġconclud e
ev ille
ic ator
ĠB irth
ĠB ak
Ġrun ners
187 7
ĠComp etition
L ibrary
ĠZh ang
ig rated
Ġinaug ural
å ¤
Ġa ug
s ized
Ġchalleng ed
ĠC ox
Ġun n
Ġprevent ion
Ġtri ple
Ġjud gment
Ġcalc ulations
rypt ed
tr ace
Ġmut ual
ĠD oll
List en
Ġso vere
om eter
j Query
se q
Ġ ig
Ġimp ressed
ĠD aw
ĠRe ed
ĠLuc as
B ob
get Value
Ġent ers
st orm
ĠS F
ĠC ould
c ass
re ts
Ġpred iction
ah oo
Ġassist ed
Ġmanufact ured
ur bs
Ġcon vey
ll a
Ġlog ical
Ġhad n
Ġaffili ated
Ġsl ide
Ġun em
ins ky
ĠW u
Comp iler
B razil
Ġvirt ually
Ch art
g al
ry s
ĠS EC
Ġprof iles
k l
Ġwe igh
lim its
found er
Ġport ions
187 3
Ġm asc
Ġed itions
c ourse
ĠRon ald
ĠNew castle
r ator
B etween
ĠM IT
ĠHer bert
J P
2 10
2 30
ext ension
B ul
Ġinvest ments
Ġdepend ence
est ers
Ġle ts
ĠTo o
oper ator
Ġre nown
ĠTh ai
Ġcent res
Cent ral
Ġeditor ial
AM ES
Ġball ot
re leased
AC C
t ed
ĠC u
il o
Ġ" $
Ġperform s
Th us
s r
Ġpl asma
ĠRey n
187 4
ĠR uth
Ġdeleg ate
App end
ĠMar x
Ġincred ibly
ĠClar ke
Ġpal ace
ĠH av
ar ound
oc o
ĠRet rieved
z ip
Ġdecl are
ĠEnc ycl
F act
od ore
res olve
ann i
Ġg ains
Ġpr ayer
Ġsw ord
Ġsil ence
Ġprom ises
te ch
ĠPen insula
Ġ\ "
(" /
ĠSp encer
US ER
ĠVen ice
ot ypes
Ġscal ar
Ġpar agraph
Ġauthor ized
Ġcon spiracy
p ressed
Ġtr adem
Sy ntax
Ġpat ron
ĠHu gh
ĠO w
ĠDown load
ele m
T F
y outube
ĠAg ent
ĠSher iff
ĠF at
End point
ĠLe eds
u ador
ver ter
ĠChel sea
ĠHill ary
ĠS urg
am ation
Ġrad ar
ĠSerb ian
l ies
am ination
pl ain
Ġcan vas
ĠEdd ie
Ġwrap ped
B ottom
ask at
Profess ional
ress es
g lyph
ĠC G
op ing
ĠHar bor
P air
Ġschem es
Ġchar ter
ĠImp act
ĠS end
Ġspecial ized
ĠHit ler
sub ject
our g
Ġad option
M ur
L I
us ive
Ġh ills
Ġp ink
bor o
ĠT as
Ġlo ose
Ġto k
Ġnot ing
Ġgr avity
Ġcompl aints
ĠW ag
ĠTr uth
Ġcr ack
typen ame
ar in
Ġm ines
Ġp orn
e lected
Ġn erv
ĠIm port
P rom
ĠG M
Ġcollect ing
Count ry
ere k
ĠTechn ologies
m c
d ie
sim ple
Ġab ortion
p b
ĠIn ternal
d k
at ra
Ġatt ractions
Person nel
ĠMult i
Album s
Ġref lection
Ġin ev
im en
if i
Ġor b
Ġliter al
Ġac ute
Ġexplos ion
Ġconflict s
Ġall Classes
H y
att ed
ĠPers ian
friend ly
ĠSumm it
d n
Ġanaly zed
ad der
> )
ĠC OL
ĠRoman ian
Ġp icks
Ġanth rop
ĠD OM
Ġal arm
ash board
unc an
ĠallClasses Link
Ġw orn
Ġind irect
ĠWall ace
int age
Ġeffect iveness
M ov
f ive
requ ency
Ġdraw s
ĠMov ies
' _
ĠS ter
n ell
3 20
Ġremember ed
ut ic
sp ired
Ġexecut ives
ĠTh read
ĠNor folk
Ġch ip
' }
l ower
M oths
ĠS witch
ĠL iga
d uration
Ġp our
ĠTom my
ff ield
Ġl iver
m el
Ġsettlement s
ĠAzerbai jan
i ya
A ST
it ars
Ġout break
Ġpat ri
put er
Ġval ign
Ġmeas uring
P y
Ġ æ
it us
ĠP ython
Det ail
ĠMil waukee
c amp
ĠCommunic ation
Ġprot otype
Ġshel ter
) |
h istory
Ġrhyth m
ĠColumb us
Ã± a
as se
met ic
Ġt une
Ġf ires
em ia
c ano
Ġpro c
stand ard
om ething
ĠDou g
om ar
oot ing
Ġsepar ately
Ġt sd
Ø§ Ø
Ġsc ar
Ġwant ing
ri ke
Ġhot els
inher it
ĠG raph
IO Exception
Ġpl ates
Ġsoci eties
ĠSeb ast
Ġl ucky
ĠF actory
P ac
Ġmark er
Ġsup pose
ow ing
Î »
Test Case
Ġdeliver ing
Ġfl our
ecess ary
Ex ecution
Ġtri ps
Ġim posed
ĠBro s
ĠBuddh ist
ĠGil bert
Ġline up
Ġarr iving
Can ada
Ġtempor arily
18 40
qu ote
ĠG and
yl um
ĠV ision
ĠCh a
Ġstri kes
ĠHis panic
s quare
ĠR ams
Ġ" [
inst ein
l icens
utt le
ĠDe al
ĠAl ger
select or
ell ows
Us ers
K it
Ġcompos itions
row se
ĠM ob
L imit
U B
3 000
Ġhop ed
Ġaccompl ished
P Y
MOD ULE
ĠCour se
Ġim perial
aged y
he alth
18 69
g us
ĠS amsung
A bs
Ġexp enses
ĠPl atform
ĠJ ung
ĠBl ake
g ender
Dist ribution
12 6
omorph ism
ĠG or
ion ed
Ä Ł
log o
ĠH ale
m ass
exp ression
D EC
ong ue
Ġstr ain
Ġ rip
Ġg onna
align ed
ĠAdvent ure
Ġf ed
I l
Ġ' \
ĠHol mes
ĠS ave
18 66
an imation
ĠH alf
ĠId aho
sl ice
ĠBulg aria
osoph ical
ĠC raw
ĠLet ter
D ATA
ĠS oci
ĠNot es
D er
ĠPalest ine
get s
S erv
art a
Ġbl ues
r ors
Ġread only
Ġmer c
ce iver
) ",
' \
t ake
ĠChap el
enc ia
Ġa ux
ĠG rove
Ġemot ions
f und
Ġstead y
cal c
j ack
Ġim per
Ġw ore
Ġstay ing
ĠD ale
al in
ĠTre k
Ad v
ordin ate
C md
Ġdetermin ing
Ġshift ed
ĠCr iminal
Ġe leg
Ġflo ating
Ġsam pling
ĠCom b
ĠM ills
ys ics
Ġbroadcast ing
ĠJul ian
B road
am y
Ġfle w
ĠH erman
ĠS uff
k et
Ġfoss il
ĠNorth west
Ġb ab
Ġfood s
Ġens uring
Ġd iamond
eg al
g oto
h istor
Ġcon ce
om p
ĠF ont
T L
Ġcho osing
Ġsystem atic
Ġmet rics
Fr ance
Ġdefin itions
ĠFour th
Ġconj unction
W alk
ĠD ynam
G allery
Ġin cent
hem atic
Ġconf usion
f g
ĠMarc us
pro duction
ĠArn old
us hes
J ournal
Ġdistribut ions
Ġre nov
Ġst unning
ĠFlore nce
S ir
Ġ" ",
G iven
ĠCom mercial
Ġs ang
Ġbet a
Sp an
Ġsh aped
ĠHer ald
u ine
17 5
Ġsurve illance
ĠWe ather
Ġut ter
is Empty
t f
e ur
ĠJ in
m itt
ĠR ena
rop ic
Event Listener
Ġsc iences
C G
Ġm igr
Ġf itness
Ġb rows
Ġm i
ĠM umbai
ĠD I
F n
Ġens emble
Ġan xiety
Ġmind s
ĠCl ose
ĠEag le
Ġre duces
T erm
object s
ĠT ell
PH P
ro sc
an al
od o
Ġp ixel
ĠPar ad
Ġt ent
em e
ĠĠĠĠĠĠĠĠĠĠĠĠĠĠĠĠ ĠĠĠĠĠĠĠĠĠĠĠĠĠĠ
Ġbank rupt
vent ions
ĠR ole
ĠPr ison
mer ge
Ġcreat or
w edge
Ġobject ives
qu in
C ALL
RA Y
de ep
Ġrock et
om pass
kw args
Ġdem olished
ra ising
ext end
pare ncy
Ġsynthes is
Ġaccept ance
ĠGreg ory
Medal ists
ĠBroad casting
Ġh ist
rict ion
F ailure
Ġcoeff icients
** *
Ġexhib ited
C AR
ĠFl ash
Sc hedule
j ax
Ġdig it
op ol
st roke
Ġafford able
Ġjournal ism
var iant
ĠN ak
Ġaccept able
ĠAr med
Ġdivor ce
id y
Sw ed
Ġpl ug
ĠMan uel
Ġhighlight ed
ĠPal mer
Ġsu ite
Ġbi ography
ĠF an
art et
Ġmiss ile
UM M
Ġreform s
W ashington
Ġf isher
ĠS ale
Ġdepend encies
Ġaccess ed
S aint
Ġtour ing
ric ks
Ġbi ology
Ġcart oon
ĠG az
Ġch apters
/ {
Ġexc av
Ġeg g
Ġint rig
valid ate
ond s
E val
ĠE D
Ġcont ested
b rit
ĠSc ript
top ic
ĠHer z
ĠLat ino
Ġpract ition
Ġdistinct ive
Ġpro sec
}} _{
iet ies
K O
St age
ĠD M
Th row
ĠCong o
che m
Ġadv ised
En umer
ĠCard inals
Ġt ang
Ġtradition ally
S elf
ĠE ight
Ġrel ay
Ġpredict ions
const ant
ĠR F
h n
ĠR us
< \
b age
ĠR ice
Ġme al
: [
Hon ours
In f
ĠCh ang
Ġh oney
Ġpar a
F eed
Ġcont rolling
ĠI gn
ph abet
="../../../../../../ ../
Ġoptim ization
C ounter
ĠAL IGN
Ġins ights
ĠJ ake
Ġall ocated
Ġcal m
p ublished
Ġkid n
... )
ett i
ĠK aren
Ġsl aves
Ġcompar able
Ġo scill
Ġenorm ous
ur as
ĠESP N
ul ators
ces ter
Ġcook ing
ĠDisc overy
" ].
Ġloc als
Pl atform
Ġcy ber
ĠCl ick
Ġv ectors
Ġ' ';
Ġmin eral
s chool
NS String
vel t
Us age
cal endar
Ġpro ductions
ĠTer ms
ĠB order
Ġfl uct
vert ical
ĠGard ens
Ġpregn ancy
ĠD ame
ĠF ix
Ġtrav els
or p
In ner
Ġb icy
N EW
l oss
Ġthr one
ĠR oche
ĠSocial ist
ĠS ometimes
Ġsh oes
Ġdecl aration
Ġf iscal
pr us
Ġreserv oir
M ah
ĠS ang
ap is
Rem ote
Ġst ellar
ody nam
M AN
Ġwhe els
Ġw is
ĠEvery thing
h arm
Ġb er
load er
link ed
Ġpil ots
ol utions
Ġwor ried
AT TR
ord ination
rug u
Ġfif teen
Ġsett le
F UN
Set ting
Ġpen et
AT OR
ĠPeters burg
At l
em ption
role um
Crit ical
ad ers
EN TRY
Ġvari ants
pol it
path y
epend encies
opl us
Ġrele asing
ot yp
ĠArch bishop
ĠMont gomery
Ġanalys es
M obile
Ġhold er
ĠBenn ett
W allet
Valid ation
Ġconcent rations
ĠBrook s
ĠSt yle
Ġdr unk
Ġz ones
t v
14 5
Input Stream
# {
O l
Fl ora
Ġlo ans
ĠHar old
S ql
Ġb out
Ġgot ten
ĠI g
ut a
g age
Ġpos it
ĠR C
th ird
ORD ER
ĠT rou
ĠTh ink
ĠOr lando
text rm
arg uments
ĠNAV BAR
ic ates
ĠAn imal
Ġprelim inary
ĠLe ave
il ateral
12 9
Ġun t
Ġmet all
Tax a
Ġor che
Ġab oard
leg iate
ĠÃ ¢
K S
ting ham
Ġs ql
Ġb alls
Ġabs ent
Ġfilm ing
A IN
g overnor
av in
Ġh anging
ew idth
AR CH
Le ave
B inding
ĠPed ro
Ġreal istic
Ġcle ared
ĠBris bane
Mus ical
Ġo w
ĠDes ert
ic ia
ĠH ousing
ĠSh ir
g ary
Ġh o
rel ations
Ġthe sis
Ġdr ain
Ġexha ust
as ures
Ġd ining
5 000
Sp ring
ingu ished
Ġstreng the
V ir
Col lege
ĠY ale
Ġlie utenant
att a
ĠSl oven
ogen ic
Ġbad ly
Ġpra ise
Ġcancell ation
R ate
c ost
ĠArmen ian
> \
Ġdefend ers
Ġal umin
ĠP rest
ĠKn ights
Ġmon ster
Ġansw ered
F oot
ĠF ollow
bul let
Ġ} }
Ġinterpret ed
Ġinf antry
Ġaccommod ate
man uel
Ġform ats
Ġsurviv ors
ĠJo an
ĠBet ter
al ert
Group Name
M ale
m om
ĠCh oice
S ar
ĠAng lo
d agger
ĠYan kees
ĠPract ice
w ent
ĠGover n
ĠP eng
er ion
ĠX box
T ile
ic ism
pect ives
Ġinter ference
1 19
D IS
B ean
Ġper missions
Ġmod al
Ġprov inces
Ġassum ing
å Ĳ
Ġsquad ron
Ġm embrane
foot note
Scott ish
F older
ond e
Ġad mission
Î ·
ĠB oeing
Ġpost ing
ĠN y
Ġper ception
ĠSh in
ĠS ans
Ġbond s
Ġodd s
Ġlocomot ives
Ġch lor
ĠUE FA
ĠP H
ä ½
Ġcomp aring
O cc
Ġ$\ {
> "
p it
ou x
ate ful
Ġtreat y
Ġinv ariant
W C
Ġv ig
w ave
Ġo ct
Ġdist ant
ï¼ Į
ĠAng l
cer pt
att ing
Ġtox ic
Ġtour ists
Ġpe ers
ĠMot ors
Ġ" ";
unt ed
ib ration
ĠK as
ĠClin ical
over view
Ġdistingu ish
b d
Ġre construction
Ġrenown ed
st o
fil m
Ġ\ (
oot s
Ġdraft ed
Ġconnect s
et own
ĠN ut
Ġf ru
ĠG ust
H uman
in yl
Fr anc
Ġarg ues
ĠÂ §
m ov
Ġexception al
ar u
Up dated
Ġp ig
ul ent
Ġdr ummer
Ġpsych ology
Ġproceed ings
ĠC apt
ĠC lean
MO DE
ĠH il
Add itional
G ui
est rian
s ocket
open h
st ation
Object s
mem ory
Ġep id
Ġaccount ing
orient ed
Ġc oh
Str ategy
add le
ag in
Ġconscious ness
ĠEx ample
Ġav iation
C ould
ĠWell ington
Ġf ame
Ġpun ishment
an alysis
Ġle agues
Ġactiv ated
Z one
am ous
Sh are
at ics
Ġpoint ing
_ +
Ġext ensively
RE CT
ĠB ears
Ġsoph istic
ĠP and
Ġdiplom atic
Ġvol tage
K A
BL IC
Ġch ore
comm it
Ġconduct ing
AP P
ĠAmbass ador
ch air
subset eq
ĠSimilar ly
ĠT all
Ġacknowled ged
^ ^
orne ys
ĠW ald
ĠRe ports
H ung
Ġtrav elling
Ġreport ers
Ġem bar
Ġhom eless
Â ½
m os
Dep artment
do i
Ġm oth
G EN
Ġpack ed
Ġcons iders
ĠB ert
ym pt
Ġbeat en
uc he
Ġproject ed
t p
ind uced
ĠLi u
Ġare na
load ing
Ġrecall ed
Ġemp ire
stan bul
Ġmag ical
ew ise
ig ue
B us
Ġaffect s
Ġdecor ated
Ġcoll ision
Ġr gba
Ġden otes
ĠE ve
ib e
Ġpr ay
ĠF eder
cent ral
Ġbott le
ĠE ye
ĠMot ion
Ġ$ _
G rad
Ġkill s
p ages
Ġs ocket
Ġd ressed
Ġrefer endum
nt hes
ĠO C
play ing
Ġagre es
Ġsubstant ially
ĠP ink
Ġdo zens
ĠC M
Ã© d
Ġwarm ing
Ġc ig
Disc ography
ĠCal c
Ġelimin ate
Ġcommand ed
B IT
{ $\
Ġen abling
eg u
Ġunc lear
ĠPal m
h ad
Ġtarget ing
Recip ients
Ġm ere
P ut
ov sky
Cond ition
ĠZ imbabwe
Ġfil ters
ĠNS W
ĠExper ience
Ġnot ification
Ġinfl ation
Ġtim ber
re ason
Ġde com
Ġch icken
Ġswit ched
Ġg ray
Ġdef ining
ĠÂ «
Ġque en
âĢĿ )
ĠCont ext
on er
Ġwe ights
Map per
former ly
Ġtreat ments
ĠJul ia
ĠInvest ment
Ġachiev ements
18 30
ĠAh med
PORT ED
/ _
f urt
: `
Ġt ournaments
ĠU til
var iable
any on
Ins ert
ark er
Ġexcept ions
at able
omorph ic
Ġr amp
ĠU P
arr ison
ĠSw an
OL D
Ġd im
iz za
set minus
U pload
ub ern
ĠS ustain
Ġcour age
18 59
Ġal tered
Ġsport ing
Ġdiscuss ing
run ning
Ġcro ps
ĠCom plete
AN S
ĠBry an
ĠH R
W estern
ĠR an
18 48
g row
in us
Ġa thlete
ĠB ag
Ġc rystal
ĠW ant
k ers
Ġs ew
Ġep it
Ġveter ans
ĠHe in
We ight
ibl ings
h im
Ġle ase
Ġtest imony
Ġgirl friend
Ġf usion
Ġenc ompass
ĠEmer gency
w ear
ap or
N a
ĠM ine
ĠR O
Ġin cl
Ġch ains
ĠAn a
Ġdemand ed
Ġsav ings
ĠV illa
c ounter
ĠT iger
ĠU nd
Ġover flow
ull ah
Ġst om
Ġinvestig ating
J ac
Ex pl
ĠT i
k al
ing o
Ġ ib
Ġpit cher
G od
en burg
/ ">
ĠS V
b x
ract ed
Ġn ic
Ġhistor ically
Ġm a
C B
ĠBy zant
Ġenc oded
Per form
sp acing
ĠEm ploy
Ġdom ains
Null able
direct ory
ast ics
ĠE ST
read er
ĠSand ers
uch i
Ġingred ients
ĠK or
Ġtri o
A thlet
Ġche ese
S ong
S ound
SC R
C ursor
Ġgrad ient
Ġmeaning ful
Con structor
oca ust
cl one
Ġbul let
ĠL akes
Ġqu it
Ġbreak fast
ĠWar riors
Ġintro ducing
Ġfar ms
ĠDet ails
ĠW als
R PC
te chn
ĠQu estion
f mt
ĠQu ant
Ġemploy er
ĠVis it
Ġc ad
Ġc ryst
ĠF ashion
ĠId ent
: @"
Ġfif ty
Ġgu ards
Ġcreat ures
Direct or
ĠAl pha
ĠK yle
Ġg aining
Ġnation wide
ĠCol in
ut ing
Ġbe ars
ĠInstit ution
T ri
b is
m ag
\ }
ĠC ategory
w d
ĠL java
ĠN g
Ġdisappe ared
Ġform ations
S ide
re a
Ġneighb ors
Ġpresent ing
Ġw ishes
t ensor
ĠSt rong
Ġkeyboard s
roll ers
ĠUg anda
Lou is
act ers
bas ic
ĠS ig
P ack
Ġd ens
to Be
ĠMc Donald
T x
Ġoccur ring
_{ (
ĠW ikipedia
Ġext ensions
re view
ie u
ĠM ik
ĠY emen
Ġresear cher
T w
ĠL ac
Ġbelong ed
Ġen rolled
Ġfurn iture
ĠE t
Ġcl an
Ġin comp
Sever al
Ġexp ense
ul ing
Ġsh apes
ĠPo etry
Ġun ions
Ġstrict ly
Ġwork shops
Ġorigin ated
ĠU ntil
Valid ator
Ex per
pre c
ĠP O
FI ELD
Ġperform ers
18 57
Ġcogn itive
m ma
getElement ById
ĠIn side
ĠHe aven
Ġc iting
ĠMan ufact
am as
S EC
Ġc ry
r and
LE S
ap l
el astic
ĠN as
if iable
ĠRay mond
Serial izer
C irc
Ġt ens
M id
ct uary
EE E
Ġatt raction
ĠCard inal
ĠHen ri
ĠMichel le
ĠAdd itional
Ġapprop ri
Point s
Ġf are
H ard
Ġg rip
olec ular
ĠSpe aker
Ġfle e
uls ion
ĠAng els
Ġauthent ication
" =>
G N
V irtual
ĠProduct s
D ATE
Ġconsult ant
DE BUG
ĠâĢ Ŀ
ĠArgent ine
And rew
ĠCol umn
Ġcl one
Ġf ingers
ĠA CT
at z
ĠBr ussels
p her
ĠVlad imir
ĠSur v
habilit ation
ĠB ent
ĠW E
method s
v or
ĠL ED
min a
Ġalign ment
ĠK ol
Ġnot ation
Ġrepresent ations
dr iven
ang ered
() ),
Ġg ymn
Ġoverwhel ming
Ġresign ation
20 2
Ġdr illing
hel m
ĠPop ular
Ġfasc inating
Ġ" .
Ġdef ended
Ġsatisf ies
ĠLind a
ĠL ak
ĠD in
L ow
m art
le en
ir us
Ġsc rew
Ġsac red
Ġvac uum
Ġrad i
_{ {\
qu est
Ġgr ain
M aterial
Ġcir cles
Ġ_ ,
ad v
ĠJ ets
Ġchap el
amp ire
ĠK re
esc o
Ġprevent ed
AV E
Ġshe ep
S napshot
ĠM illion
Ġ' ',
Ġcru ise
Ġexpl ored
uis ine
ig g
ĠPer iod
Ġrow span
T ra
Ġ Ñģ
C ong
trans action
An alysis
or um
ĠB anks
ĠS askat
ĠIraq i
en stein
is co
ER E
Ġcab in
Ġdon ations
int ell
Ġcontact s
Log in
ic z
Ġadminister ed
ian e
Do es
Ġmort ality
r r
Ġpre ference
Ġbe ings
Ġdel ta
S port
ex pl
M il
ĠCh an
Ġmodel ing
dis able
V ICE
Ġf its
f ar
'] );
Ġf ears
ĠN urs
Ġde ce
Ġf mt
Ġbomb ing
L at
aw i
nav igation
ĠInter est
ext ra
ĠL amb
Ġbroad er
ri ent
ĠN A
Ġgl obe
Ġdef ender
ĠGener ation
E q
names e
Ġforg otten
âĢ ²
Ġguarant eed
set up
ĠUS B
ĠDi ocese
ĉ čĊ
19 2
Ġc emetery
Ġh ire
dep recated
Ġsong writer
W ORD
lev ard
G roups
J eff
Ġp ocket
ĠEr nest
end ors
Ġre pository
Ġind ices
ĠBr ain
Ġ$ |
Ġcivil ians
ĠPlay Station
Ġembod iments
ĠBrad ley
P DF
ogene ous
ĠW er
Ġdis able
Ġor n
ish i
ĠR isk
ĠHe at
Ġcycl ing
Ġint ens
Ġlett ing
Ġsal ary
ĠSol utions
in fl
Ġpr ide
ator ies
ĠÐ ²
ĠS ullivan
con v
Ġqu ad
Ġfor wards
Ġrot ate
s ocial
Ġlegisl ature
Ġinn ocent
W il
l ag
l arg
Ġjo ke
b ug
oy age
A xis
ĠO wen
ĠK E
AS K
ĠT error
w yn
Cont ents
Ġb ell
loc ks
Ġsure ly
head ing
Imp lement
Ġnerv ous
Ac cept
ĠKaz akh
ĠG am
Ġcool ing
ip el
ĠCustom er
R NA
gu ard
Ġgr ades
Add r
% ),
ort ex
ĠEll is
Ġf older
m obile
pro b
iff e
Ġlic ence
ĠCh ase
Ġke en
Ġreb uilt
ĠB ever
ĠO g
Ġcour tesy
ol an
av o
Ġle ather
ĠRh ode
ĠA ur
or ic
ĠM Ã¼
Ġpoor ly
Def unct
ĠW ould
h art
Ġph ases
ĠStev ens
I rish
." ""
Ġdemand ing
whe el
ĠVo iv
Ġn ep
re b
40 4
Ġinj ection
ĠUs ed
Ġscen arios
Ġlegit imate
Ġd ictionary
ĠH ait
Ġel if
Ġtrav elled
Ġst ones
Ġplay wright
t ouch
S V
Ġreal m
ĠPer th
ĠF olk
18 58
ĠMont e
ĠG OP
Ġref ere
Jose ph
Ġf ool
app le
man agement
13 2
io let
ar ians
Ġassum ptions
p ad
Ġ( #
lig a
ĠSw ift
b org
Ġgovern ance
á ¹
st ates
Ġim pl
sw ick
ĠIsa ac
st ed
ĠB ened
Hen ry
Res p
Ġer ected
Ġp ension
Ġsm oking
high light
Ġelder ly
ĠInd igenous
Ġt ier
Ġd ys
ats u
Ġsufficient ly
Pol y
Ġcook ie
ĠRo ose
z ig
ĠS ession
Ġint elligent
c us
C at
Î ¼
ĠHop kins
b p
Ġan onymous
Ġencour aging
2 25
ĠGl enn
Ġ( $\
s heet
ĠBar r
Ġc ere
Ġmechan ics
sub mit
velop e
Ġat omic
Ġn inet
ĠQ uality
les h
C ONT
Err ors
Ġmathemat ical
ĠS ic
g irl
Ġbe aring
Ġhe aling
ov ic
Ġob l
ethe less
Ġexhib itions
S ort
Ġfor ty
Annot ation
Ġin herent
Ġbre ach
Ġf itting
Ġstop ping
intell ij
ĠHe ights
pl acement
ipe g
ĠAdvis ory
Ġgod s
comp are
ĠDub ai
ĠA bs
Ġhon ored
Am ount
Ġmagn et
ĠChe ster
igh bor
cf g
l ord
ĠN ine
Off ice
Ġh ind
15 5
ĠSing les
Ġex terior
Ġdiscipl ine
Ġtr ucks
Seg ment
ĠB ee
m k
Ġstrugg led
Own er
int ro
CL A
ĠFl ag
I ran
Ġun lock
ĠĠĠĠĠĠĠĠĠĠĠĠĠĠĠĠĠĠĠĠĠĠĠĠĠĠĠĠĠĠĠĠ Ġ
Render er
r ame
T ech
Ġw are
uff icient
Ġlov ely
ber ger
ĠH ass
Ġpres um
18 54
Ġadequ ate
Ġ$ $
St eve
D ES
d irection
ĠLeg ion
p ubl
ĠP owell
You ng
ĠAssoci ate
Ġaffect ing
Ġpropag anda
Ġsh a
ĠPro position
Ġrecip ients
Ġprest igious
Ġcust ody
Ġl on
Ġrel ocated
w arn
ĠCab inet
I ss
ĠJam ie
ĠPro gress
ĠZ ero
ĠPhys ical
Ġrun time
Ġobtain ing
ĠWest minster
lin ewidth
sequ ence
Â Ń
Ġfeed ing
Ġdies el
Ġf ung
ro tt
ĠJess ica
ĠSh ield
Ġrac ist
Ġp unk
ĠMaur ice
g overnment
Sh ared
Ġsc aling
ond o
c op
Mean while
ibl ical
ategor ized
ir teen
ĠCar n
Ġdisestabl ished
Ġs ung
Ġf ut
Ġr ings
Ġassess ed
M ot
Ġen act
Sm all
c red
Ġok ay
Ġpl acement
ĠDev il
s it
Ġre ass
Ġsaf ely
Ġ' ./
, $
L IN
Ġh iding
Ġpredecess or
Ġl akes
Ġcorre ction
Ġbas eline
F OR
Ġsh ame
A W
ir al
W ed
Ġs ne
Ġim plicit
is che
ĠSc i
ph ase
Ġvis itor
Ġpres c
Ġhelic opter
out heastern
Ġpri ests
ĠOther s
ĠC ec
ĠM I
ĠD uncan
ĠBa iley
ĠF ighter
ĠV e
qu ant
assert True
Ġmod ification
Ġrem arks
Ġdifferent ly
Ġconduct or
ĠEc uador
cent ric
ĠNap ole
Ġstand ings
ĠV ers
ĠWrit er
et r
Nav igation
ĠMoroc co
odes hip
ĠPar alymp
atin um
Ġem ails
Ġw age
ic ers
ĠV eh
ĠHur ricane
Ġmem oir
ĠM ull
L iber
â Ķ
st rip
Ġhe ating
m iddle
Ġhous ed
ĠT ampa
Col lect
Pr imary
T imer
g art
An im
ĠCoal ition
ĠN ATO
ĠIndian apolis
R ows
T yp
as ive
Ġachiev ing
Ġquant ities
ĠSus sex
ĠArm strong
ser ial
Ext ensions
Ġir re
ph rase
Ġprof its
ĠClass es
Ġearn ings
f ac
Ġann oy
ĠNever theless
Ġexc it
Ġb orough
ĠN uclear
element s
LO W
ĠAssoci ated
at io
ĠP U
isc her
m essages
ound ing
ici ary
T I
T reat
in formation
ĠM iles
ĠL odge
Ġplan es
Ġanaly ze
Ġâ ĪĴ
Ġconvers ations
Ġd imin
ram ento
Ġcr imin
Ġport al
Ġ" %
sh are
Ġre vel
bre v
tool tip
ĠW ire
ĠCy prus
Ġc ant
Ġpros per
Ġp ixels
Ġambass ador
ol ith
ĠNiger ian
Ġb ones
Ġcy cles
CR IPT
ĠM aking
h orn
ĠC av
ĠFellow ship
ĠA sp
int eger
Ġthere after
H tml
Ġbe et
Ġspe eds
ard i
ĠGrad uate
ĠProgram me
od ium
Ġcontr ary
Ġm eter
M ic
2 11
ĠD ylan
Ġj ack
13 6
ĠOther wise
ĠWAR R
Dep th
ĠJama ica
ĠRena issance
Ġinter cept
udd y
oy le
16 5
ĠCap itol
D ependency
Ġcomp anion
N ER
ĠAr ctic
he nd
com fort
ĠE g
Ð ¼
Ġdiagn osed
d ark
ath a
Ġsub mission
Ġrel atives
Ch ief
Ġwrit ings
ĠArt illery
ĠĠĠĠĠĠĠĠ ĠĠĊ
c orn
Ġinc umbent
Ġgame play
Miss ing
Ġmod est
Ġd rops
Ġr ivals
ring e
Ġdi abetes
Ġstrugg les
Ġv i
h ole
ĠShe ffield
Ġfrequ encies
Pr inc
HE AD
N BC
J oe
ĠF lying
ĠBor is
ĠP E
ĠÃ ģ
c ock
Ġout s
O s
e conom
ĠJ ak
Ġleg ally
Ġsem if
ĠC atalog
ĠC anyon
Ġsatisf ying
b atch
Ch arts
18 55
ĠH aven
Ġweak ness
Ġce ased
st ick
at om
Ġc um
ĠMu eller
H ello
c as
ĠP AR
Ġsens ors
tr im
And roid
Ġtra ff
S ame
Ġbox ing
Ġspokes man
Ġoccas ional
at em
Ġop acity
Ġposs ibilities
ĠReyn olds
N P
com ed
cont act
ĠGrand e
n p
ĠK i
Ġh alt
ĠA ub
c reat
Ġb ishops
Ġanticip ated
ĠTour ism
T ON
ĠHe ath
for Each
spec ies
con str
S te
s pl
ĠC rist
Ġlisten ers
Ġnav bar
th ood
ĠL ar
ĠEx hibition
ĠBuild er
ap a
ĠA A
ĉ ĠĠĠĠĠ
ĠC ork
Ġsp y
Ġstud ios
rem arks
ĠB ec
Int roduction
ĠE M
v d
ĠProm ise
" /
ug u
L y
Ġcl ause
Ġdead line
Th ough
ĠO z
Ġ" >
Ġch unk
Ġmaintain s
ĠDec ision
es a
Ġadvant ages
C ost
ĠVoiv odeship
Ġw it
FF ER
Ġd ivid
openh agen
em p
ĠRoose velt
cont ents
im an
ĠPan ama
ĠL il
Dr ag
Ġmarg inal
g ae
s b
ĠS aw
Ġrac ism
atas ets
Ġemploy ers
Ġhar sh
U ntil
iev e
ĠDomin ican
Ġcitizens hip
Ġtok ens
ac iÃ³n
sc apes
Ġmist akes
und a
Ġexpl aining
ident ial
H u
m are
o os
Ġl ig
) _
ĠRel igion
rid or
ĠS Ã£o
ipl inary
Face book
Ġf ights
Ġshall ow
Ge org
Ø ¯
ĠM ead
Ġpath way
R andom
On line
Ðµ ÑĢ
ĠS ed
ĠL ok
Ġprevent ing
ĠL it
ĠCurrent ly
R ot
Ġl ymph
Ġhand ful
al ter
Ġres ist
Ġmetab ol
Ġsmart phone
n ational
ĠAcadem ic
op a
Ġsh irt
Ġtact ics
Ġvir al
Ġsl avery
ĠRest aur
Ġs ys
ir ate
Ġh ab
Ġgu itars
Ġdead ly
ac ious
ro b
n ai
ist r
n ick
Ġvers e
atab ases
in as
Ġgen uine
ĠL oss
^{ -\
F IN
in ers
on ne
on so
k ed
IC K
ĠD j
ĠEs sex
Fe atures
ĠWars aw
Ġsan ctions
Ġcorrespond ence
ĠPresident ial
ment ed
Ġend point
ĠPear l
N AS
is ers
Ġterror ism
ĠA x
en es
ĠPro perties
Mart in
k u
ht m
ag ne
he imer
Ġem peror
ĠL if
ol and
Ġacc us
ĠT X
Ġinterview ed
Res olver
Ġsett lers
Ġgu ided
CO M
S witch
ĠT ool
Ġdraw ings
ĠC ord
im ination
ĠInit iative
ac ies
H a
Ã ¯
res ize
Ġt ends
Diagn ostics
Ġ( ).
Mon th
Ġdrop ping
ĠCont est
Ġperman ently
18 56
te le
T ouch
l icense
ĠCons umer
Ġso ap
ĠBi ology
pi pe
re ne
Ġpro pose
Pl ayers
Ġinvest ed
ĠTun is
s afe
ĠRe id
VI EW
er als
Ġpop ulated
ĠN R
Sc hed
Ġam endment
ĠInit ial
a ude
Ï ħ
Ġt ired
ĠH app
Ġadv ers
na issance
ĠInt el
?? ??
Ġper ipher
oci ated
IC ATION
Ġf u
The me
Ġaddress ing
ĠB uy
Ġ[ âĢ¦]
Ġne ural
Ġsub urb
et es
Ġmat rices
ĠT err
et ric
ij a
Ġflood ing
ĠChem ical
13 3
Z ero
Ġel dest
ĠEm ail
Ġcur ious
ĠStock holm
Av ailable
oc ene
Ġ' .
Ġ-- -
Ã¶ n
Ġreven ge
!! !!
ĠComp anies
T urn
å Ń
ĠF est
Ġcon ferences
Enc oded
Ġqu eries
var i
ĠA chiev
Ġvol leyball
Ġstart up
Cal ifornia
Ġbre eding
Ġt ear
ĠC ool
ĠV ern
Ġneighbor ing
ĠH appy
pr ising
H ey
ĠR NA
Ġclass room
f ox
ĠKer ala
if ference
r f
Ġ' %
I ts
ĠH us
Ġtra ject
Ġmidfield er
mont on
Ġro ok
Ġinstitution al
sl ide
Ep isode
ol er
Ġdist ances
Ġl umin
hand ed
Ġr ifle
Ġcan al
ĠI BM
ii i
Art icle
im ity
ĠB L
Ġurg ed
ĠN HS
Ġaccommod ation
Ġtrans mitted
ĠS ure
Ġathlet ic
ĠH arm
et ooth
T M
T AG
Ġj s
Ġpick ing
Ġspect acular
olog ic
Am ong
Col umb
Ġpurs uit
Ġsecre ts
B ay
ĠPak istani
ĠElect ronic
ĠU C
ĠL or
Ġcent ered
Ġf etch
ĠAd vert
ĠT E
Ch icago
âĢ¦ âĢ¦
ne apolis
Ġunder graduate
and ro
f b
unc redited
St ub
Ġgrad uation
ĠW IDTH
ap prop
get Id
13 8
Ġ} \
Ġcol ours
und ay
Ġret rieve
Ġrespons ibilities
Ġdesign ation
oll ary
Ġimplement ing
Ġembar rass
M essages
brit ies
Ġf ram
Ġdel ivers
ĠChar acter
is ure
ĠA ri
Ġig et
ĠK urt
ron ics
Ġvis ibility
Ġunsuccess ful
Film ography
en eg
ĠSecond ary
^ -
ĠPaul o
D utch
Ġli ability
Ġspr int
ĠKr ish
Ġins ult
Ġrevolution ary
Ġtw ist
ĠConfeder ate
ph is
song writer
ĠCh ad
ob ic
Ġqu ot
_{ -
s ig
ĠL etters
ill on
Ù ĩ
Ġex cluded
ari us
un ks
am ic
oc om
ĠGar cia
ĠMig uel
ĠG em
Ġs ulf
Ġcare ers
H aving
Ġcomp elling
En v
ĠRem ember
Ġcomp iler
Ġdr inks
ĠS qu
ĠH ir
D ue
Ġtr ap
we ather
S B
Ġun ity
Ġbl ess
B rien
N amed
With out
ist on
Ġfor b
Ġinspe ction
P ak
l inks
un i
. (
k el
Ġcell ular
it ary
Ġd ump
Ġr ush
Ġkick ed
Ġscatter ing
mod ern
Ġmar ijuana
ĠR ush
oy a
od ia
ĠT yp
Ġcontinu ously
Ġrenew ed
ant om
j oint
ĠMer cedes
az ar
Ġp enn
Ġcomp ass
sh ine
t re
cl ock
Ġcomb ining
ĠGe off
ĠArch ae
Not Found
Ġstre ak
May be
ĠB B
EN CE
Ġt ears
Ġexpl ores
ĠAl lied
ss l
IT ION
St atic
F ive
p end
Ġcelebr ity
) *
Ġlog in
ĠDE FAULT
i ago
Ġsk illed
ag le
Ġdis ability
Ġred es
ĠG ir
ett es
Ġsynt hetic
Ġspec ification
er i
ĠSalv ador
Ġlaunch ing
ĠSh ore
ĠG y
N V
L oop
Ġsp here
Ġvar ies
27 0
ĠConfig uration
am mat
en i
ĠFem ale
ĠUp dated
N ick
um per
Ġpr ince
Ex port
Pre v
Ġinv ented
ĠNY C
Ġt oured
F red
Ġisol ation
Ġwithd rew
ĠEll en
Ġcur riculum
Spe ed
Ġvar ieties
ĠOut put
Ġderiv ative
ĠAr senal
Ġbur den
ch ief
IN ST
Ġtra ils
Ġpe aceful
Wel come
ur ated
Ġdam ages
le ases
led on
ĠP orter
Ġadv ances
Ġsurve ys
ac ional
ĠM ale
Ġscr atch
ĠDur ham
ĠSe qu
Ġfl avor
Ġworld s
Ġpione er
ĠG ren
Ġharm ony
Tim estamp
" },
N ever
act ual
ff f
la us
Ġer upt
Ġglob ally
W ild
ĠV A
Ġterr ain
Ġt ribut
ĠLyn ch
'' '
ele brities
ĠJ S
ĠJeff rey
ĠW A
ĠOut standing
ĠJul ie
are l
Process or
ĠN J
ĠL atest
che wan
Ġsup press
Ġprotest ers
B ounds
Ġind oor
an mar
ass ign
Ġjud icial
Ġproceed s
Y eah
load ed
iss on
ĠS UMM
Ġcor rupt
Ġf i
ĠG A
h ook
Ġcor ps
ĠStrateg ic
Ġn urse
ian ces
13 4
Ġm akers
yt ical
Ġdial ect
cc cc
M AP
ĠBrun swick
Ġhe aven
aid en
Ġwe aken
M ir
Ġpre view
13 1
Ġd ock
ĠP ars
Decl aration
Ġen roll
Ġpull ing
Ġcul min
N F
N eed
Ġannounc es
Ġla unches
à¥ ĩ
ĠH P
ĠDirect ors
ĠP D
Ġf illing
Ġment ions
acter ial
unk nown
ĠCarol ine
16 8
UN T
be it
Ġ" '
Ġcorpor ations
in is
d an
Ġ< -
Ġprof ound
s an
Ġal i
Ġcons erv
Ġsever ely
ric ia
ĠAbd ul
t alk
emb ourg
il ion
og o
ĠAd miral
L ee
ĠPublic ations
ĠPr ague
Ã ĥ
ĠPut in
ĠBel arus
Ġdem o
intend ent
Ġaver aged
l ain
esters hire
im plement
ĠCh uck
Ġtim estamp
abl o
IC T
on ica
ed o
Ġless on
F K
Ġto b
le ys
Ġfar mer
pr iv
Ġop posing
ed uc
em ann
ĠCris is
pr ice
~ $
Ġsk etch
ĠEconom y
Ġc ord
Ġ\ |
ĠD as
let te
CE PT
Ġgraph s
ammat ory
Ġs ake
Ġnomine e
ĠB eg
Constr aint
W H
Comp anies
m aps
Ġche ss
Th ird
Ġsustain ability
ĠMan ila
ĠIndones ian
Ġsacr ifice
] ))
ĠAnn iversary
Ġf t
ĠB av
Ġsome body
Ġmat hematic
Pol ice
C reated
Ġdon ation
Ġbel oved
ĠNob el
work ing
Â Ĵ
ĠFran Ã§
ĠB udget
com pute
Ġdis crete
ĠGen eva
Ġse ized
Ġob s
Ġwar fare
ĠD evelop
Ġcoll apsed
se lection
ĠW end
Ġb ucket
Ġwis dom
Ġb ail
âĢ¦ âĢĿ
Ġgl ac
ĠSu ite
M achine
V O
Ġsubmar ine
N UM
Ġrel uct
Ġsmall est
18 52
valid ation
Ġd ot
Ġst ocks
it zer
d og
(" #
Ġvacc ine
Ġm aj
Ġgo ogle
CL ASS
que z
g io
Fore ign
ĠPunj ab
Ġcomp r
Ġd ancer
ir ie
Ġmon astery
ĠPot ter
enz ie
Mod ern
Ġemb ark
R oll
ĠSim pson
re po
R ivers
ĠS ummary
ĠT ex
ĠRevolution ary
m embers
Ġn erve
Ġbut tons
ĠJes se
Vis ual
ĠNot tingham
ĠP anel
Ġpoly mer
ĠGib son
Ġex empl
Ġsup ern
UR N
put es
ĠS ize
ĠE aster
Ġphil anth
ĠWrit ers
ĠAd rian
ĠGl obe
ol ics
ĠCol lections
aj i
W ood
ĠJ son
Ġrit ual
Ġtechn ological
ap est
aint ed
r ules
le af
ĠL arge
Ġentert aining
ĠW R
~~~~ ~~~~
ĠLyn n
al one
Ġst ub
Ġpian ist
ĠHamb urg
f its
ur an
Ġcompos ite
Sim ilar
Ġcl ay
ĠMin i
bl ob
ĠCa uc
Football ers
ĠE L
Com par
u ctor
Ġmet ropolitan
stit ute
ĠAdvent ures
Ġcoeff icient
Ġover night
Ex pect
Ġkil ometers
B its
Ġred irect
Ġe ager
Ġsurg ical
Ġcloud s
T unes
ĠV a
ĠTas man
ĠAg es
Ġpoll s
Ġdiscuss es
Ġall ocation
Ġam bit
Ġenjoy ing
0000 00
flu ence
er ial
atic an
s ed
sp in
26 0
Ġp ap
andid ate
Ġtrigger ed
L os
rem ote
ĠLou ise
C ath
ĠK end
Wh ich
gener ate
Ġmand atory
Ġnurs ing
w al
con vert
ic us
ĠS K
Ġcount ed
Âł Âł
Ġmark ing
Ġadministr ator
f red
Arg uments
Ġprom in
Ġg ifts
ĠBr andon
Ġun anim
Ġimportant ly
ĠD awn
B inary
D eb
sc ala
m ix
ĠE val
ĠFer gus
D igital
sh al
CON FIG
ad en
Ġde alt
Ġdark ness
Ġspect ra
Ġalt itude
V ictor
Ð ¿
ĠC rystal
Ġunve iled
= [
ĠPl aza
ĠRh odes
Ġe ars
In c
ĠK arn
ĠDav ies
ĠLaw s
ĠP ere
er os
PAR AM
ĠProtest ant
iz ational
ne um
Ġnation ally
sc ore
Ġh ack
op ened
Ġ{ },
col m
14 7
ĠN atal
aff e
ĠAngl ican
ĠSol omon
; |
è ¯
Car l
Ġless er
Ġwitness es
ĠP HP
Ġconcent rated
ĠTw enty
13 7
Ġhe x
Ġcomp ly
ĠSom erset
ĠLegisl ature
Ġcomput ation
Ġ| \
osp ace
R en
> ;
v ation
Ġat oms
Ġfound ers
col on
ex ecut
Ġund ers
Ġc ens
ol in
18 51
Ġprop ri
Ġdemonstr ation
Ġpredomin antly
ul o
Ġcorpor ation
Ġimport ed
Ġfinal e
Ġsl ope
Ġviol ations
Ġse al
struct ure
S K
sur face
ĠC el
Ġl ane
rou ter
ĠMal ta
ad vant
Ġlist ings
del ay
N I
\ _
Ġt ongue
U A
all a
Ġrel ate
ĠLear n
Ġdiagn ostic
es ar
Ġdiss olved
Dep recated
ĠPl ate
ĠPrinc eton
Ġlift ed
p kg
G T
ĠC ycl
Ġbuild s
Ġa ster
Ã ½
un ion
16 9
ge ons
isc opal
RE T
g if
S plit
CC ESS
au i
enc ode
ĠC ash
um en
Ġmod ifications
Ġrestrict ion
ĠDe lete
Ġre organ
> ()
I reland
ĠCub an
Ġadjust ed
_ )
Th ose
z el
Ġaccompany ing
Ġn aming
Ġun ited
LE MENT
tr ain
Ġint im
Ġinf ected
Ġdepart ed
Ġwh is
Ġs iblings
Ġroll ed
ĠIll ust
Ġequ ilibrium
M iddle
Ġl engths
Ġp ose
ĠR ut
ĠPh one
Ġnovel ist
ĠPsych ology
id ity
rypt o
Ġrul er
ĠRichard son
ĠCre ates
Ġkil omet
r pc
Ġs ailing
ĠMethod ist
Ġeth ics
Us es
K im
Ġrem ix
ĠJ as
Ġn od
em it
Ġacadem y
ĠA ires
ev es
Sign ature
m ology
ĉ ĠĠĠĠĠĠĠ
Ġb reat
G reg
Ġin coming
Ġreb ounds
ĠMA X
ĠS erv
Ġautom ated
Ġconsider ably
ĠCom ponent
15 2
sub figure
ĠB elf
est e
Ġby pass
R h
Ġsubt le
Ġv inyl
nob r
ĠAl ban
Ġco oper
Ġclass Name
ĠH ack
ĠScot ia
Ġabund ance
b ecause
3 30
H F
Ġcross es
r ina
ĠC I
Ġext inct
ĠĠĠĠĠĠĠĠĠĠĠĠĠĠĠĠĠĠĠĠĠĠĠĠĠĠĠĠĠĠĠĠ ĠĠĠĠĠ
Ġthread s
Ġprompt ed
Ġan ch
pat cher
H older
Ġ$ [
Ġrend ering
Ã ĳ
Ġimag ination
B atch
ĠRev ival
Ġbar riers
Ġign or
av ian
Ġtax p
J ean
Ġsort s
ĠAndrew s
Ġorder ing
ĠTri ple
cl ub
ĠBou levard
R eb
ĠE is
Ġcreat ivity
Cal c
ĠV il
Ġpolit ically
un ar
Ġem igrants
Ġrecru ited
ĠBur ton
Death s
S yn
Ġout lets
Ġwel comed
Ġpres ervation
ar th
ĠKenn eth
ĠAn im
Ġfe as
ĠEncycl opedia
Ġmo ist
Ġacc idents
D evelopment
Ġal ike
Ġcred entials
Ġheart s
ae us
ĠÅ ł
ĠDise ase
se en
Obs erver
ĠResp ons
K en
cur rency
Ġc otton
Ġp s
atern ity
ĠR ES
ad h
Ġlearn s
Ġdisc overs
Ġtherap e
gu ide
Ġce iling
im eter
ĠF ut
Sc ience
Ġil leg
ĠA id
tim estamp
u ania
Ġneighbour hood
ĠBulg arian
ĠT anz
ĠR ac
Ġcreat ure
n is
i ary
Ġcast ing
Ġreve aling
Ġpolynom ial
Y P
ri ans
Ġsophistic ated
ount ers
Ġg reet
includ es
36 5
Ġfrag ments
Ñ Ĩ
R oad
by e
ic ion
14 3
ĠA ch
Ġspread ing
Ġmob ility
Ġcharg ing
ĠCorpor ate
glyph icon
he tt
idd ing
imb ledon
Ġtr agedy
cont rolled
ib a
ĠEngine ers
IM IT
ĠPh ase
Ġa ria
ĠC areer
ĠÂ ±
ogn ition
Ġrecon c
ĠZ ion
enti eth
Ġtr apped
Ġaccept ing
ĠLuc y
Ġbas in
ĠF ul
ĠMon itor
al an
Ġpar as
ĠAll an
Ġgrand mother
M ust
ĠC yr
un al
ĠAct ress
Ġpassion ate
C ategories
Ġtreat ing
ut ory
Ġsp otted
All oc
10 24
.* ;
IS E
Ġcle ver
Ġdis hes
new command
ĠH our
Ġrev ision
ĠG ive
Ġar ise
ĠP oss
ĠBar ack
ĠJ ur
Ġcirc ulation
t l
Ġtrem end
Ġpit ched
EN V
ĠCom ic
g ement
Ġl ob
Ġout line
ĠIn fo
Res et
ĠCon nection
po inter
Ġflo ors
ul p
n m
Ġacknow ledge
ĠPatri ots
ĠAut om
Ġcompr ised
Ġc ouncill
ĠPrinc ipal
Ġprec ip
Ġhonor ary
R ules
ĉĉĉĉ ĉĉĉĉĉĉ
ov ina
Ġtyped ef
IL ITY
Ġswitch ing
Ġpup ils
Ġdescend ants
ĠN ames
ĠCorn wall
ĠBarn es
m ile
re pository
can vas
ĠCal gary
ĠMe et
Stat istics
es ity
Ġpul se
Ġaut onomous
ĠUn less
by ter
Or igin
Rec ent
ul se
Ġ' ''
Ġmot ivated
Ġdis band
D iff
il ogy
Ġgr avit
el ong
p id
Ġextract ed
Al t
Ġd irty
ĠLink ed
Ġdescript ions
ĠEngine er
Ġtra its
Ġcelebr ating
Ġvac ation
Ġdepos its
Ġp uls
ran o
ĠR andom
ĠProgram s
ĠF ocus
Ġsuggest ions
mid t
Ġplace holder
d ating
est y
ar is
Ġthreat ening
re ational
"> (
ace y
Ġac ids
og ical
ĠM ang
Ġpublisher s
Ġexhib its
L es
b etween
ĠRes erved
Ġinstit ute
C ancel
ĠStand ards
Ġg ates
Pr ice
w i
ĠIt em
S n
ĠOr iginally
Is lam
Ġrecommend ation
ĠTreat ment
Ġdisappoint ed
ĠGr id
Ġdetermin es
rem ark
Ġadv erse
ĠEvery one
Am azon
Ġequ als
os i
CO MM
ĠK ra
Ġs our
Ġdis pers
Dem ocratic
Î º
Ġsol ving
ad oc
Ġrest art
Ġsynt ax
Ġcho ir
Ġbal anced
ĠC raft
ri ends
Ġk ings
found ed
s outh
Ġamplit ude
sl o
ĠTrans it
B uf
ĠC openhagen
Ä ĩ
Array List
ĠP am
ASS ERT
Ġbl ast
Run ning
ĠT ales
ag ma
log ging
ins ic
ĠSte am
am ount
Ġcount ing
Ġp unch
Ġexpect ing
re lation
Ġre construct
IS H
umber land
Ġl oving
ĠQu ery
h p
18 49
ĠStep han
Ġinvent ory
Ġb ip
r ice
Option al
ĠYO U
ĠExcell ence
ĠA V
Ġhom osex
ĠST ART
ĠML B
ĠImp lement
am on
orm an
ĠC ort
ĠT ouch
ĠAlexand ria
ĠApp end
B ank
Ġs ailed
Cont ains
add ed
eff ective
Ġw reck
im ming
ĠH ood
ĠMur der
pre ced
Ġus ername
anch or
ĠJac ques
Ġret ro
ĠB od
Ġassemb led
Ġb ags
Ġin hab
M IT
licens es
Ġtable t
Ġlabel ed
U ES
Americ a
ĠS of
ĠBurn s
Ġc er
Ġlack ing
ĠCh in
ĠIss ues
ĠA way
L R
ĠV II
Ġqual ification
ĠT OP
Ext ra
ĠMathemat ics
Ġfre ely
ĠT ong
ĠFranc o
ĠQ atar
Ġam end
enc il
ob serv
ĠGu itar
char acter
Ġin quiry
Ġquestion ed
em ale
Ġatt ach
n st
ĠD ow
uc es
ĠB rah
Ġconv ince
ĠO ptions
14 6
ĠH off
18 53
ĠWy oming
ĠJosh ua
Run ner
Ġir regular
Ġtob acco
ĠT D
ant o
Ġambit ious
: '
ĠJoh annes
ĠI stanbul
Ġdemonstr ates
ĠWinn ipeg
r ag
Ch anges
Ġle ak
ĠMan it
anc a
Ġphys ic
Ġang les
ord e
Ġconst ants
Ġsec ular
Ġ ----------------------------------------------------------------
ĠCar lo
Ġref use
ft en
) }(
ĠBos nia
Ġcha os
ert s
__ )
az ed
Ġarchitect s
ĠToy ota
ber y
rel ative
L icense
ĠProt ocol
ĠD iana
Ġstreng then
Ġaffili ate
ĠChem istry
ĠK oh
Ġrespect ed
ĠK erry
Cons ider
Ġcar riers
Ġpress ed
i ological
Ġspons or
Ġsubstr ate
Al tern
Ġcrick eter
V EL
cons ider
Ġpure ly
S oviet
ri ages
ĠAndre a
Ġem power
view port
Ex pected
ĠT rent
Ġthere of
Ġsh ifts
Ġann ex
ĠEx amples
grad ient
Ġv ow
ĠD ebug
OR S
ĠS leep
Ġdr agon
Ġwitness ed
ĠT ennis
Ġi Pad
c n
Ð° ÑĤ
ĠDemocr acy
> '
Ġ_ .
man y
Ġfin ancing
Ġd ign
ed e
Ġabsor ption
in ion
Ġwithdraw al
Ġmemor able
Ġinitial ize
get Instance
Ġcomb inations
Ġenzym e
Ġun iqu
Ġcr ashed
ĠD rop
2 12
Ġmur ders
Â «
ĠViet namese
F rames
28 0
ĠA uth
Leg acy
Ġ$ -
Con sole
au f
ĠBes ides
Ġat om
Ġim g
Ġra ises
ĠDev on
5 12
Sub ject
Ġtag ged
Ġs ink
String Builder
6 50
ĠW aters
Ġperform er
Ġconsult ation
Ġdebut s
Ġtouchdown s
M att
Tag ged
l ift
Fr iday
ĠTreas ury
class Name
b oat
H OME
um ing
A nc
ll er
Ġtheat rical
ĠHind i
Ġcom plications
Ġclean ing
ĠD ir
Be en
ĠJoh ann
sol r
ĠC ities
Ġindic ation
Ġclin ic
Met rics
18 42
Re pe
ĠEvent ually
Ġch orus
ĠBur ke
ĠC PU
Enc oding
Ġinter vals
Ġnick name
per p
b u
Ġph on
Ġcann abis
Ġread ily
ĠL I
Ġr ic
ĠDe ut
ĠCurt is
en za
pos er
ĠBeaut y
Ġopen ly
Ġt a
Ġup graded
H aw
ĠB row
ĠTrib une
STAT US
Ġsl ice
Ġb achelor
ĠMyst ery
ĠL iv
Ġcost ume
amm ad
Ġelectron ics
Ġbl end
he y
Ġblock ing
Ġ&= &
create Element
ĠKash mir
ĠFin als
ĠO ber
ĠIndust ries
ne ys
Ġbow l
Ġt enth
Ġsent ences
Ġhol y
Ġsymmet ric
kins on
( ['
ĠVal id
u uid
ĠHand le
Ġfl ank
ĠBy te
ĠFr anz
Ġcert ification
is ive
Ġbet ray
* ,
ĠInd ies
ĠIn cre
Ġmother s
ĠSUMM ARY
Ġc uisine
Con vert
U nd
Ġlast ing
Ġfe ud
Ġm ud
ot er
Ġden y
ĠAb original
neg ative
ong o
Ġlect ure
Ġpro to
Ġbatter ies
il ian
Ġcongress ional
Ġkn ife
Ġinter change
ĠVeter ans
Ġl over
Ġp el
ig i
Ġsuggest ion
on line
ĠP or
ab c
per m
esc ope
Ġflex ibility
ĠCelt ic
Ġgover ned
Pro to
Ġlocal ized
Ġvict ories
ĠGrow th
ĠT es
,\ ,
99 9
ĠInt o
B rian
p ark
ox ic
Ġauthent ic
ĠIs le
ir able
gr ades
Prior ity
ĠFif th
ec a
Ġsh ar
Ġreg ards
Ġinsert ed
ĠM T
Ġtow ers
Pl us
Ap ple
is le
em in
ĠMal ay
ĠMem phis
Ñ ħ
ĠP ok
ĠExp ression
Ġconver gence
ĠW ine
18 47
ĠJo el
Ġathlet ics
Ġb ats
r av
res a
Ġphys icians
ĠEv il
Ġwood s
Ġb ol
ĠK ab
Reg ular
Br idge
Ġtra uma
S ix
18 43
Ġprem ises
ĠA ce
ĠMic he
uc ci
Ġtrans c
ĠHend erson
Column s
ĠZ amb
ĠH ip
ĠĠĠĠĠĠĠĠĠĠĠĠĠĠĠĠ ĠĠĠĠĊ
gr and
m and
ĠL ives
Ġc ater
st ead
g reat
L i
Ġrev ival
ĠFried rich
Ġundert aken
ĠB AS
ĠW on
ĠE DT
ĠR out
Ġarg uing
L o
Ġtransport ed
ath i
ĠP om
ĠRoll ing
Ġqual ities
p rior
Ġcollabor ative
Ġt u
Ġcomp ression
ĠCl aire
Ġs iege
[] {
l ane
Output Stream
( ()
Ġadvent ures
ĠF E
ĠPr ide
Ġaer ial
i ator
com plex
Ġscatter ed
gener ation
Ġtri umph
Te chn
ĠTh ing
Ġcasual ties
ĠC ounsel
c ong
ĠB in
Ġhere in
ĠEx ped
Rec ords
E s
}} (\
ĠR ather
Ġworth y
Writ ten
repe at
ĠGram my
lear ning
66 66
Ġqu otes
En able
Ġcollabor ated
ĠJ et
ĠJ unction
Ar thur
be ans
BP ACK
Ġprot agonist
Ġconven ience
esc ue
Ġv m
Ġintro duces
ĠField s
. ',
Ġc her
ĠHer oes
Ġadvis or
ĠD iet
ĠUn c
An th
Ign ore
;| &
13 9
Ex ists
av ern
Co in
Ġhol idays
Ġstom ach
DE X
FI X
S i
In vest
im i
k ok
Ġadm its
Ġin ning
column s
Ġv ault
ĠR iv
Ġbes ide
ĠMor rison
w t
il ers
Ġaut umn
Ġpre y
Ã¤ r
car bon
Ġd ip
Ġappro aching
Ġsk ull
oun ge
Ġcor on
Pr im
Ġpro gression
ing en
Ġend e
r ab
14 9
second ary
con cat
Ġfre ight
Ġpar ade
Ġun e
Ġhier archy
h h
× Ķ
ĠH ab
Ġprim itive
Ġm aker
ĠD y
Ġbatt alion
D irection
ĠAl leg
ĠMer it
Ġwond ering
Ġse aled
t elling
ĠDi agn
ĠD w
Sh ader
uff le
Ġl ar
od ic
ier ce
Ġmon arch
ĠJ ourney
ĠBas in
text ure
Ġland mark
Sep ar
St ill
E th
s at
ch urch
20 3
Ġ| =
Ġcomed ian
l b
communic ations
OP T
Ġrap per
Ġarchae ological
ĠB il
Ch apter
Ġ& #
Ġoblig ations
Ġknock ed
ope z
Ġis ot
ĠSant iago
Ġround ed
an ium
Ġwork place
Ġsol ved
sc ss
r ases
Ġ{ %
Ġsleep ing
D H
od ot
Ġinv erse
Ġnew er
trans port
ĠNot able
Part ition
ĠRe ich
20 5
Ġtrust ed
ĠInt roduction
ĠSac ramento
ĠDiv is
with out
Ġconsist ency
ĠCl aim
c ancel
Ġ Ø§ÙĦ
ĠCert ificate
Ġqu arters
Ġreb els
Ġscript s
Ġt ile
": "
L EN
ĠNot re
ĠMaterial s
g z
20 8
ĠEug ene
ĠB A
ĠL ed
Ġproduct ivity
L im
2 15
N orthern
ĠSaskat chewan
Ġhand les
Ġgen res
Ġadvoc ates
Ġg odd
Ġc ats
Ġadvoc acy
Ġprison er
= %
Ġ Ã©
Ġfulf ill
Ġp ad
Sc ore
Ġsp are
head ed
ĠR anch
ĠClass ical
am ar
oun s
ĠHol ocaust
ĠGer ald
ĠS ons
ĠH od
ĠEnt ry
ĠD im
Ġj umped
Ap pe
ut ral
Ġany body
Ġz oom
14 2
Ġunder go
ĠĠĠĠĠĠĠĠĠĠĠĠĠĠĠĠĠĠĠĠĠĠĠĠĠĠĠĠĠĠĠĠ ĠĠĠĠĠĠĠĠĠĠĠĠĠĠĠ
def er
ĠAst ron
ĠIn spector
ĠL ars
vent ory
Ġcomb ines
C ities
ok ia
in cre
Ġ= \
ĠEthiop ia
Line ar
k ill
ĠSt ructure
se cret
ĠCon vert
ĠAp ollo
Ġir r
ĠBu enos
å Ĭ
ĠD rew
Ġal igned
Ġfin est
Ġpur ple
Ġr outer
U r
Ġiter ation
ic acy
R UN
ru ce
Ġpres idency
P acket
ĠEff ect
c ats
ĠCon vers
an ian
ĠAmeric as
Ġp owder
Ġrenew able
ĠAp ost
Ġdiv ide
ĠI sh
uc le
ĠBre nd
b inary
ĠCar p
P rem
k top
Ġnew est
Ġche er
Ġh i
y u
R ugby
.. ...
ĠLore n
ock ets
Ġprov es
d ynamic
d ocker
Ġfl aw
T imes
ĠChar ter
Re ason
ĠInter ior
ĠM TV
ĠSh im
ĠLog an
Ġ ĉ
ĉĉ ĠĠĠ
uk u
Ġclimb ing
ĠC B
ener ation
ĠK w
ĠPod cast
if a
Ð¾Ð »
ge o
4 80
ver ify
he x
ĠW ak
un lock
Ġaccur ately
Ġt ender
ment ioned
Ġcomm enced
Ġmain land
Ġdes erve
ĠU rugu
ex amples
Ġindic ator
ĠL ines
Ġexerc ises
ĠStat ement
ĠH ern
ĠForm ation
Ġ uri
Art icles
ĠLes lie
Ġas ympt
ĠJ ed
Ġnews letter
s am
Ġd ancers
st en
Ġlik elihood
Ġs el
Ġeth ical
ĠS TR
Ġfin anc
Ġprox imity
55 5
Int eg
Aut hentication
Ġdesper ate
Ġret ire
ĠByzant ine
itt ers
ĠCar roll
Ġl apt
Ġposition ed
Writ ers
ĠBi ography
Ġtradem ark
Ġind ie
Ġinter im
ĠMin neapolis
F N
18 46
emb ed
spe aking
Fil ed
Ġneighborhood s
ĠUS D
is se
20 4
Ġavoid ed
sd k
ĠAh mad
Ġcolon ies
SO UR
Ġcorn ers
Ġprefer ences
Ġbom bs
Ġd Ã©
Sing les
rest rial
Ġmanufact ure
Ġrem oves
Ch ain
ĠBl air
ĠAp plied
ĠSt orage
Ġcontact ed
ĠOtt o
ĠG C
Ġneg lig
Ġac claimed
ĠShe ll
Ġh orm
ĠM old
Ġconfig urations
U krain
Ġs ender
Ver ify
Ġunder went
( .
Ġto ile
Ġutil ized
P romise
W arn
ĠE RA
Un ion
ĠM ode
Ø ª
ĠLe af
Ġcon clusions
ĠCl if
ĠBen ef
Ġw avel
S aturday
g em
ĠIm prov
l ar
Ġgener ates
Ġsort ed
Ġdisc rimin
Ġinf ections
ĠS cre
Ġres umed
Part icip
ĠK iss
Ġo d
ph ib
Ġvocal ist
14 8
Struct ure
] +
Ġt d
Ġcanon ical
P aint
ĠT rial
Ġgr ateful
ĠÐ ½
per iod
abric ator
ĠAnd ers
g mail
Ġtrib al
Ġch ocolate
Ġtim eline
Ġlect ures
et ed
Ġbenef icial
ĠF ay
om it
================================ ================================
ĠRock y
o que
Ġad mir
Ġstrong est
enn ium
ĠP ine
Ġliter acy
big g
Ġfemin ist
ĠK aw
Comm unity
Ġcomput ational
mom ent
th ouse
Ġgot o
ĠM R
ĠG E
D ig
ass y
Ġdis closure
Ġmotor cycle
ĠDev ice
ĠS ul
ific ates
ĠB rent
Ġhom etown
L IST
y our
Ġ ug
Ġref uses
ĠD erek
ĠTr av
ud er
Ġr am
Ġestim ation
ĠRoberts on
[ (
Ġtrans cription
art icles
Ġprohib ited
Ġspir its
Ġy eah
Ġsuccess ion
ĠT ABLE
ĠA sc
ĠCh rome
ĠEm irates
A sh
sm ith
Ġstraight forward
ĠHor ror
Ġnetwork ing
Ã© g
Ġlink ing
................ ................
Ġwid ow
Polit ics
ĠS hen
ĠCo q
if ully
ĠPhot ography
ĠG ates
} &
ĠN u
Ġdef icit
ĠAll ah
_ *
Ġyour s
Ġto mb
ĠM oss
Ġspec imens
ĠF o
/* !
ĠL L
Ġevent ual
Ġbes ides
Ġ+ \
Ġv ine
ĠT ir
M ail
fin ite
Error f
stit u
Del ay
Liter al
Ġm all
ĠCroat ian
ric a
Ġche f
30 1
Ġb ust
ĠP iano
Ġcor p
lyn n
ĠMc Car
) _{
ĠC lement
angel ical
ĠVAL IGN
ly mouth
ĠBM W
Ġesc al
ĠS ai
Ġretail ers
g iving
ĠElli ott
ĠB end
ĠK ick
sw ing
G al
om ore
The ir
Ġinter pre
Ġdo ctrine
Cont ract
Comp at
Ġmot ivation
g ang
LE TE
st eps
ĠCy ber
Arch itect
S on
Ġult ra
Ġcler gy
ĠCom ing
ĠP apers
Ġmyth ology
O O
ĠCitiz ens
iber n
H op
m us
Ġserv ant
ad ic
at ivity
f p
ew ard
ĠRes ort
ĠLiter ary
ĠC and
ĠEm my
ĠB allet
ĠÐ ¸
at iv
Ġl adies
STR UCT
Ġint imate
( /
Ġn est
ĠJ obs
Part y
Ġ' #
Ġpreced ing
ĠL abel
ĠTe h
Ġboy friend
int s
Ġb eds
Ġd os
Ġcon current
Ġval ued
G ate
Ġb arg
ect ing
ĠBr as
Ġdram atically
uff ix
Ġplan ets
Ġin duction
ĠAp art
ĠFrank furt
ĠSebast ian
Ġt ales
Transport ation
Ġtri angle
ĠTe en
Ġgar age
Ġbre ed
Ġbit ter
rom agnetic
h urst
ĠPro b
Ġvill ain
b ard
F ixed
le z
Ġpl ots
ast ro
Public ations
ymmet ric
abul ary
Ġl as
ĠGi ov
alth ough
ip ur
N atural
ir atory
ĠT roy
Ġd airy
Ġafter math
ad os
ĠR as
ĠV R
Ġ[ ...]
anc o
ĠW ords
ash ire
As ian
C a
à¤ ¿
r ink
ĠN in
qu estion
str ings
Ġh ug
Ġoutput s
Ġtem ples
Ġre fr
end o
ĠAn at
Ġsign aling
ribut ions
LO AD
Ġjump ing
ĠD ob
vert ex
æ ĺ
ĠT yr
ĠSom ething
Ġimprison ed
Republic an
d anger
Ġdis patch
Ġoff shore
ag ine
Cl imate
per ature
ik er
Ġg orge
ĠIn g
Qu estion
SP AN
Ġinsect s
oh an
ĠS ara
ĠW ool
ĠTh ought
Ġr ises
Ġillust rations
D ynamic
ĠS ent
ad ier
it ud
est ock
ĠH onda
Ġn ons
Ġob server
F ictional
Ġcru el
Ġsculpt ures
ĠS ays
Ġpron ounced
18 44
ort ium
Ġbot an
M u
Ġbas ement
ĠDist inguished
ĠAss essment
B on
N L
ven ile
ĠX X
ĠB S
Ġb ore
Ġbe aches
rib ers
ĠIllegal ArgumentException
ĠW ol
Ġartifact s
ĠE ducational
Ġsp ite
h ydro
Ġoffer ings
ĠH i
Ġproport ional
ĠMy anmar
process or
Ġreven ues
o qu
Po jo
Ġreg ression
Ġess ays
Que en
Ġbed room
\! \!
> %
Ġsup ers
Im ages
U t
m ust
ĠS ens
Å Ļ
! ,
ter bury
en ue
ĠMon roe
Ġtempor al
% ).
ĠH ook
Ġjust ify
Ġarch ives
ĠKE Y
50 9
t imer
14 1
Ġaest hetic
ic ode
ĠL enn
) ^{\
O G
en ary
ise cond
Ġr ats
Cal endar
C odec
inter pret
y led
war f
ĠV atican
cl ine
Ġinter ven
ĠHun ting
t le
in x
ĠRaid ers
ices ter
Ġg ly
Ġ* ,
Execut or
ĠS event
ak o
== =
n ings
Ġ! !
Ġinv itation
âĢĿ :
Ġcrimin als
è ¿
ĠIn tern
Ġfail ures
ĠPop ulation
, .
Ġconfirm ation
ãĢ Ĥ
Ġbe ats
greg ate
ĠCase y
ĠP ackage
ĠBul let
au ce
ĠArmen ia
âĶ Ģ
(' <
Ġm eg
ĠSouth west
Ġo h
Ġst aged
Ġdestroy ing
und ers
ĠReg ulations
Vis it
Trans ition
ĠT ow
S ol
q a
ib an
ĠBened ict
ĠY a
ĠMod ule
ĠV iv
M EM
W O
Ġre str
Ġar row
Ġc af
ĠG ross
Ġse am
em er
ĠLeg acy
Ġin cons
æ ķ
ĠFern ando
h d
Ġplant ed
itro gen
Ġatmosp heric
Ġthick ness
9 11
50 1
' ].
w ik
Ġflag ship
ĠHealth care
Ġtou ched
Ġd in
Ġexpect ation
Ġconv iction
ours es
Spec ies
ãĥ ¼
anc ies
Ġexperi encing
), \
Ġdel ays
Ġal phabet
18 45
OT T
Ġw ise
andid ates
C trl
ident ity
ra red
ĠB ug
lib s
Ġdest inations
ed ar
ak ov
get Type
Ġac cent
l p
Ġw ages
ĠPart icip
(" %
Ġincorpor ate
Ġdist ribute
ĠMc N
Com parison
Ġrandom ly
he rence
B ool
Ġn aked
Ġpack aging
Ġwork force
Ġhapp iness
Ġnon profit
deg ree
Ġ- =
T exas
Ġdesk top
od or
15 3
l ated
Ġtrans cript
Ġref resh
ĠI ter
Ġcomm od
ER Y
Ġi Tunes
ÅĤ aw
D a
Ġf erry
Ġsuper hero
ĠP ool
op ard
Ġdub bed
ĠĠĠĠĠĠĠĠĠĠĠĠĠĠĠĠĠĠĠĠĠĠĠĠĠĠĠĠĠĠĠĠ ĠĠ
fin ity
ĠF eed
ãģ ®
oc ide
ĠJohn s
Int ro
Ġcustom s
ĠChron icle
ĠFr aser
sub subsection
w ire
ĠWag ner
av our
Ġgen ome
s ime
s ix
al ias
board s
ig m
allow ed
ĠJava Script
Ġrob ots
ĠLith uania
M ix
15 1
ĠCom bat
gl ass
ed ly
Ġfro zen
Ġbe ef
ar ium
ĠÎ ±
$ ).
pl iers
ain es
ĠGu est
Ġinst antly
ott age
l int
ĠEd mund
ĠFight ing
L ICENSE
A ctions
Ġc ached
preced ented
ĠEd monton
Ġtor ped
ĠTH IS
W ay
v ars
ĠAr ms
ĠTr in
is o
ely n
ĠEv olution
ann ers
Ġbro ker
Ġprotocol s
T ry
ato es
Ġqu adr
ĠG B
ĠSp ons
Pac ific
l ived
ĠS ER
Ġinter faces
ros so
ĠTest ament
amb a
ĠPro ducer
Ġtack les
o in
Ġview er
Ġpe aks
ĠM ove
Ġres iding
ion ic
Ġcontin ent
Ġaccept s
Ġfix ture
t iny
ĠNetwork s
eg ovina
Ġexcess ive
ĠArt icles
display Name
de en
Ġcatalog ue
>< !--
ĠReb ecca
ble ms
Ġtort ure
ĠR B
eg an
Ġsuff ix
ĠE asy
Ġvo iced
Ġl in
W W
sime q
b ay
ograph s
Ġgram mar
ft s
Ġen force
Ġsur pass
Ġdevelop s
Ġs ab
ĠG aza
t ax
Ġm s
m ys
Ġre lying
D ER
Ġder ive
ĠMerc ury
Ġres ume
ĠB ac
Ġmac ro
ĠNew port
Ġvar iance
cass andra
C lean
Ġfort une
Ġembr ace
ĠAn imation
Ġexp end
d eb
ĠR ica
ĠAsh ley
For ce
Ġvolunt ary
U AL
ĠL uck
Ġmark ers
ard e
f older
Ġ' "
Ġen gr
ĠL ocation
ĠHol iday
ĠAnn ie
Ġc avalry
WE BPACK
3 80
H i
Ġs uck
Ġpers istent
ĠChe f
ĠSp art
ĠFe atures
s hell
ĠL ip
avor ite
ĠAppe als
f ake
16 6
et z
list ener
y g
A IL
ĠRos en
ĠL ik
Ġf s
The refore
Ġrain fall
Ġpars ed
Ġsp ray
Ġaud it
ph oto
German y
zh ou
Ġart ic
Ġb uck
ib ling
urch ase
ĠLog ger
z ier
ĠGr ass
Ġvot er
ĠBre tt
A ff
Ġc ement
ad al
lin ux
Ġto ss
ĠMar tha
Ġcontribut or
ĠR oth
ĠBright on
) }}
ĠUlt imate
S a
Ġto y
ĠM Ã©
Ad am
Ġconstitu encies
18 39
inter val
ĠM ets
Ġwarn ings
b usiness
Qu ant
ĠHay es
ĠZ en
ex ecution
ĠBar b
Ġrook ie
3 40
out ed
ĠProv incial
æ Ī
the m
S uch
Ġlim iting
ĠSe oul
head s
Perm ission
Ġcap ac
ĠPhot os
Ġancest ors
sh i
00 5
Ġnot ify
N eg
Ġapprec iated
Ġinduct ed
Ġaccident ally
ĠG ospel
Ġtrans parency
ch rome
ass ic
ĠU FC
15 4
ANT IES
ist o
Ġm im
Ġsur render
Ġinf ant
18 37
ĠHigh land
Ġrub ber
sw er
ographer s
[ -
en vironment
Ġgr at
ĠBeat les
Ġdis putes
IC S
d evelop
Ġcomp romise
set ting
b eck
p n
ĠO UT
Ġtr aces
G reek
ĠU RI
ump y
ĠIn j
ĠCan on
ĠLux embourg
ĠCr us
Ġpriv ately
ig hed
umb led
AR K
ĠEd it
ĠG reens
ild a
Ġro d
Ġsup porter
ĠP rec
gener ator
G a
Å Ľ
Ġtrans plant
and ez
ĠLicens ed
B rown
Ġper mits
Ġtherape utic
ĠI o
Ġa u
Ġenc ryption
A st
ĠSh i
$ $\
d ue
ĠD S
annot ations
Ġloyal ty
ĠK ang
Ġreli ability
Ġst ab
B attle
18 5
ur ities
Ġteen age
j in
Ġc and
ĠW imbledon
Ã± o
Ġp iv
ac cur
15 6
he res
Ġrank ings
ĠF ear
Ġsem ic
Ġfe ver
Swed ish
ty p
Ġhur ricane
Ġunem ployment
Ġseason al
) ?
uch y
Ġreson ance
w y
D TD
own ers
Ðµ ÑĤ
Ġapp rent
mun ition
if les
ĠH els
Ġreg ulated
ĠGl ou
(" \
text sc
æ Ĺ
ĠYugosl avia
Ġexcit ement
og l
Ġde ar
Ġcar ved
ĠUs ers
ien ne
at uring
ant le
Ġabsor bed
Ġcoordin ator
ĠManit oba
r ance
Ġst ir
Ġelect rons
Al pha
ear ly
ve e
ath y
ĠOcc up
oc on
Ġshe ets
Ġdou b
ĠCal endar
G irl
lev ant
Ġk g
ĠViol ence
o ct
ĠH ours
Ġshow case
Ġl oses
Ãĳ Ãĳ
ĠP irates
ĠD ad
med ium
Ġparticip ant
ific ant
IM PORTED
Ġru ins
or ate
Ġcrit ically
y on
ĠS Y
V an
c ourt
alt Color
ograp hed
Ġprosec ution
ĠS it
or ida
Ġchemical s
Ġener gies
ĠSl av
Ġbuy ers
Ġh iring
Ġbur ial
Ġshock ed
30 4
Ġdam n
ĠF resh
33 3
1 200
ĠWARR ANTIES
os ion
Ġbo om
ĠGa ussian
he ars
Ġexcell ence
Ġbankrupt cy
Ġwas h
Ġelabor ate
h box
ew ater
b ey
Ġl l
p ref
ur ious
Ġconstit ute
H ouses
Ġstory line
ĠU tt
H AND
ĠH annah
ĠMar l
ak y
Ġbreak down
= $
Ġnumber ed
Id x
f actor
22 2
uan ian
Ġint act
umb n
Ġdiv ine
ĠM oses
r us
ĠBelf ast
Ġp ays
ĠR ib
ĠWil helm
Stud io
Ġpersonal ities
h ouses
Ġbre w
Ġextra ction
ĠSant os
ĠPar se
c ies
ĠN ormal
Ġproduct ive
BU FFER
Ġdisag ree
Ġr ider
L ists
Ġsus cept
Ġharass ment
ĠR ig
ĠV ert
Ġins isted
P et
ĠH ann
ĠRom ance
b undle
pr im
Ġhor izon
for all
Ġinstruct or
ĠKn ox
Ġo l
yl on
ĠP ub
ign ore
ever y
Ġdet ector
Ġbrut al
enc oding
d ad
ĠBut ter
Ġlong time
ĠBer ry
bl er
ĠD IS
18 35
ĠL t
18 12
Ġtoler ance
Â ²
ĠFilip ino
cl er
.~ (\
phot on
L u
j ournal
St an
$ ^{-
ĠA FC
Ġrel ates
Ġfru its
h it
ï¿½ ï¿½
ĠDar win
ĠM uk
ĠP eg
Sc ient
ih ad
c ence
h aul
Ġ ì
ĠM ET
ĠW inner
ĠContin ental
ĠC V
A BC
AR S
UT E
Ġnormal ized
Ġsl ip
ud ge
pre vious
ĠÃ ĸ
× ¨
an ol
D ark
ĠT itan
Ġbi om
Ġfavor able
Ġreg istry
Ġcontain ers
Ġ eter
Ġapprox imate
rit z
QUE ST
è ®
Ġl ord
ĠMO RE
F ood
15 8
Ġpen alties
Ġ' @
E U
ĠBeh ind
Ġtop ped
Ġ` ``
Ġsacr ific
Ġam ino
fr agment
Ġsen ator
ĠGoth ic
ĠCath olics
Ġmed ication
Ġsuperv ision
Ġg em
ĠChe ss
h pp
ĠC opy
ĠSing er
Ġdisestabl ishments
ang les
ne z
ew s
pos itions
ĠSur rey
Ġdeter ior
r ans
Ġthe or
ĠG ur
ĠRich ards
Fr ont
iz arre
Ġaltern atives
at aka
ap ur
get Message
5 50
ĠM eyer
ĠIP v
k le
Â ±
Ġexpect s
Ġhe ir
Ġp ine
Ġsm ell
Ġd ent
18 41
Ġident ifies
ben ch
Ġnow here
Ġphenomen a
s ym
Ġemer ge
Ġf el
get Class
ht ra
ĠP ione
B log
Ġconsum ed
Ġsupposed ly
rend ered
ĠT ru
um ption
Ġjew el
Ġsex ually
AR RAY
ĠU V
ĠMar co
byter ian
h ang
ĠFergus on
any a
Ġpromot ional
Ġrent al
ĠZ ach
Ġst arter
ĠD ong
aw k
t ot
20 6
con current
ĠWIT H
Ġf oster
Ġens ures
is ible
Ap ply
ĠHall ow
J un
Ġcondem ned
pro duced
Ġprol ifer
ĠAlbum s
ĠS ou
Ġsurprising ly
l is
Comm unes
es se
ĠF ra
ĠF DA
Ġcap ita
Ġl anes
Ġmicro sc
Ġunn ecessary
O FF
ĠSt ruct
P ane
Ġf ab
Ġp anc
ĠSer ial
ĠSand y
Ġd y
ĠJ i
Ġde pr
ĠQu ick
yst er
Ġpresent er
Ġdesc riptor
ĠSup erman
ĠLib ya
S and
ĠRos a
Mon itor
ĠEston ia
Ġgrand son
v iol
Inst ruction
Ġgl uc
ĠĠĠĠĠĠĠĠĠĠĠĠĠĠĠĠĠĠĠĠĠĠĠĠĠĠĠĠĠĠĠĠ ĠĠĠĠ
Arch ive
ĠKazakh stan
Ġprotect ive
Do ctrine
ĠFor bes
je ctions
ĠInit ially
G er
j b
ros se
Ġjoint ly
Ġr het
Ġprivile ge
Ġtim er
ĠVict ory
Ġo ught
ill ary
pon ential
Ð¾ ÑĢ
Ġn u
ĠCh arg
Ġbehavi ors
he e
ath am
Ġconsult ing
Ġpartnership s
ĠC ult
ar ag
ĠK ane
Ġag ing
omb ie
iod iversity
Load ing
15 7
Top ic
Ġw x
path s
Ke ep
uc c
ĠGu atem
as ide
ĠSt akes
Ġanal ytics
display style
Ġ-- ></
D J
Ġf Ã¼r
ĠE yes
Ġgrad uates
Ġconnect ivity
ip ment
__ ,
Ġmob il
) },
B and
et itive
rit is
Ġdis rupt
Ġess ence
ĠF ou
up per
ĠC i
Ġgr ace
S unday
Ġv iable
Ph abricator
Ass embly
ordin ator
f u
Ġinv ite
Ġgen ius
ĠMon ster
ĠS ymbol
Ġsatisf action
á ¸
per cent
Ġback s
ĠCard iff
ĉ ĠĠ
ass is
< >();
Ġb is
ĠSt ra
NO DE
Mult iple
l ore
ol ate
18 38
Ġim plant
ĠDirect ory
HO UT
ĠAgric ultural
j as
C y
ĠMil ton
Ġ ^{
Com b
Ġfound ations
Ġpric ing
ĠG Ã¶
Ġpurs ued
ĠLouis ville
ĠR ise
ĠNew man
Tur k
w ald
Ġa pt
ĠG it
K h
ĠHar bour
tim eline
N ON
Ġnep hew
Ġb ush
Ġst ays
C op
Ġcommun ist
ĠL inks
m apping
Ġw itch
ĠWind sor
ĠRun time
}$ -
product ive
hard t
ma jor
bass y
ff bb
ĠC ounter
Ġderiv atives
Ġcollect or
Loc ale
Ġchrom os
Ġridic ulous
ĠIn valid
Ġrec k
T ex
Ġv endors
fe atures
Sup ported
ĠRail ways
à §
Ġenc ounters
ĠW WE
old ing
Ġreleg ated
Ġd imensional
ĠAtt ack
ĠCraw ford
ĠGu ang
Ġtraff icking
ĠG ael
ject ed
ĠCl ara
/ )
ĠB ren
not ify
Ġrad ial
Ġteen ager
Ġdepos it
Ġdis advant
Ġam big
Ġb other
Ġrec urs
Ġh aul
R on
å ľ
Ġs i
Ġload s
Ġbeliev ing
Ġc b
Ġm esh
IT S
Ġrep airs
Ġcub ic
ĠL ay
ĠR id
S ummer
ĠT ank
ĠH ers
ĠAr s
Ġpract iced
B oard
} ",
16 7
Ġremind ed
ĠJo in
Ġte aches
arm ing
pl aced
ĠChief s
R ank
pl oma
ĠMat rix
ĠL adies
Const ruction
Ġreason ing
pr agma
Ñ ĸ
ĠK ot
Ġfil ing
Ġdet ective
w at
ra is
ount ain
! </
parent s
Ġmort gage
Ġpurch asing
ur ai
Ġpurs uing
ES CO
ec hes
ĠMal colm
ĠS isters
b ons
get String
Ġin clusive
Ġtr ivial
Ġcat hedral
ĠKnow ledge
L ines
Ġpl ed
M ond
ĠChe v
C ome
I ENT
en ic
Ã¨ s
Ġth roat
nd ez
ĠW ave
ĠWals h
ĠG MT
ival ent
Ġtermin us
ĠStaff ord
? !
18 20
y en
ut down
Ġavoid ing
m ith
ĠTOD AY
ĠBr ady
ĠCar bon
gr ass
Test ing
Ġanten na
Ġinvest or
Ġvalid ity
etermin ed
Ġs aves
Data Type
ĠSol id
can ic
Ġmass acre
ĠWes ley
ĠM ental
K K
Ġlater al
Ġhop efully
T asks
Ġd irt
ĠLanc ashire
ex isting
Ġevolution ary
Cert ificate
Ġl ighter
ĉĉĉĉ Ċ
Ġkilomet res
yr ac
Ġl od
Name Link
ĠMax im
ĠW ins
ĠDr ake
exp and
Ġimag ery
E ducational
Ġhel per
Ġacadem ics
ov y
40 1
m ot
Un iform
Ġt et
ĠW HERE
Bre ak
Ġloc ate
Ġsl ower
R ussia
ink i
Ġtrans fers
P a
External Task
Ġvol atile
ad ors
op us
Ġlit igation
ans on
ĠA j
Ġpl aint
Ġassert True
Ġpreval ence
ĠHe y
Con verter
ĠPre vention
% "><
Sc ene
Ġab brev
Ġill umin
à ¹
Or iginally
it Ã©
Ġcont amin
Ġcontin ental
ad ia
Ġaut obi
ĠGu ards
Ġwid get
Ġunder way
Sh adow
CRE ATE
Eff ect
F actor
he ng
ĠH M
Ġrec reational
Ġ( %
ĠMon ica
N umer
ĠPant hers
G it
ĠA IDS
ĠB oss
Ġconj ug
ĠStef an
= &
Ġd iving
ĠM ick
att en
Ġret iring
ĠNot ice
ĠM ats
Ġwh ites
f act
Ġveget ation
let es
ĠGreat est
p oll
Ġdeleg ation
E c
Ġex ponent
Ġres ur
fl ush
Ġrefer enced
Ġreb ellion
G IN
Ġox ide
Cam era
ig nt
ĠC ay
Ġn ort
ch anging
Ġmot if
Ġdis charge
Ġdr ift
ĠMax well
} ))
ĠD ust
ĠNov el
ĠChrist ine
Ġhaz ard
ug gest
18 36
es p
ĠSil va
s il
ĠB oat
ĠRep ly
Ġdepict s
ur ally
Lear n
ĠHerz egovina
T alk
G RO
ĠShort ly
Ġbrig ade
d jango
ĠBr id
Oper ations
Ġme als
ĠH oney
approp riate
Ġtr agic
Ð ·
ĠAltern ative
ExternalTask Pojo
Ġab olished
ĠForm at
Ġl ith
Ar ts
Ġde grad
Ġconcept ual
Let ter
ĠLaure n
ĠH ear
Ġd st
Ġst ance
C art
26 4
Ġinteg rate
000 1
Com mit
File Name
' "
Ġeduc ator
ud s
Step hen
Ġtremend ous
ĠB ound
h om
ĠKenn y
ch ard
Ġr ides
ĠP ray
Ġorgan isms
Ġveget ables
th ink
ĠMar ian
ĠDe leg
Ġa z
and i
Ġdepend ency
ĠQu inn
Ġdet ention
ĠAngel a
Ġc ake
Ġm ate
ĠDep ression
ĠBas il
ĠRodrig uez
Ġc elebrities
Ġserv ants
TER N
Ġre ver
Pol ish
ĠBed ford
le igh
add Class
Ġthorough ly
Ġpractition ers
Ġdesign ing
ĠCh ancellor
Ġatt orneys
er oon
Ġr ushing
15 9
Ġbab ies
up iter
Ġm igrants
Ġapart ments
Ġsocial ist
ĠPro gressive
p matrix
Ġunf air
AT URE
ĠSett lement
se at
Ġdr ill
ĠThrough out
ĠM add
ograph ies
ĠB rief
ĠBeaut iful
ĠM t
Ġimprison ment
å į
Ġinvestig ators
an ions
ĠKing ston
ĠSol o
ĠS ue
ĠL az
D ead
å Ľ
ĠK ad
Ġden oted
Â £
Ġtorn ado
ĠS ister
Ġste ering
ĠTra ffic
ĠGriff in
ĠJen kins
W I
× ľ
Ġcomp rom
18 32
ke eping
ĠV it
-------- --
Ġmet als
ĠStr at
ĠTim othy
E ric
Ġf ence
Ġco ached
Ġd rought
ĠN ull
Ġatt achment
Ġinsp iring
track s
n ar
upload s
ĠF ramework
Rep resent
ĠL opez
Ġfilm maker
Ġdece ased
ot ics
Ġperiod ic
S ex
Ġver ified
ĠHug o
22 4
Re ceived
ĠF act
ag ain
Ġw and
ancell ation
ch in
ĠPubl ishers
C over
Ġobl igation
ĠAm b
Ġca ution
Ġreason ably
Ġillustr ates
W ORK
c mp
din and
L ev
ĠR d
ĠN H
ĠDay ton
Ġprec ious
Ġmiss iles
Ġte ens
ol ation
Ġefficient ly
Ġd atabases
Ġflow ing
N U
IN VALID
k ward
Ġtransl ations
ĠBaron et
ine z
Ġtr am
Ġun incorporated
Ġneighbour ing
print s
ĠAtl as
) ^{-
Ġelect r
Ġtend ency
F all
ĠB T
ĠG ut
Ġcommission er
Ġin complete
ĠT ah
ith metic
pher d
C V
Ġp ond
ĠDis play
ĠH iro
B a
us ions
Ġoverl ap
ore st
Ġrem n
ĠN om
**** **
d st
ĠArg ument
Ġt ensions
ent on
res pect
Ġorgan ize
ĠThe me
S hip
he ets
al ore
Ġfe ather
Ġsnap shot
ott i
ref resh
ĠWork shop
ING S
Ġex empt
ĠPoint s
ap hor
Ġover look
pos itive
Read y
contin ue
ĠS par
cl air
y ards
T uple
ĠMar ion
Ġgu ides
W D
ĠV III
Ġide ology
Ġtr ainer
pre pare
Ġcond ens
ĠF ALSE
ĠL omb
Track er
ĠM M
ĠO slo
Ġtr ig
ne ath
ĠKle in
A H
sc hed
af a
v id
ĠR az
Ñģ Ðº
Ġp av
Ġ' -
ĠMont eneg
D ar
ĠAm anda
Ġlaw makers
He art
Ġimport s
anth a
Ġrecruit ment
Ġsem antic
) }{\
i q
ĠExt ra
Ġmos que
elect ric
Ġun precedented
ĠHard y
Ġh ilar
Ġex ile
ĠPer fect
Ġd atasets
ĠSug ar
ĠH ydro
ĠBro ck
Ġsuspect s
Ġstruct ured
ific ent
Ġinsp ire
ous el
Ġdirect ing
ĠStart ing
Ġdr one
Ge ometry
16 4
Up per
ys on
Ġ um
st reet
oc cup
ĠRes olution
Ġkid ney
ĠH ull
ĠPro ceed
ĠRub y
M icro
Ġillust rate
ĠL av
Ġplural ity
Ġge ometric
ĠR andy
ĠEd gar
ĠInvest ig
ĠR S
ĠMult iple
Ġb ugs
ĠNap les
D ry
ĠT ropical
it ated
C redit
ĠG ol
al bum
dis patch
F ast
W at
ĠT win
ĠIm mutable
ĠCub s
Ġle x
ĠM ile
up dated
ĠLiber ation
S us
Î ³
Ġ[ \
Ġgl ory
ĠTest s
ĠC ul
ĠRab bi
Ġox id
Ġimm igrant
Control s
Ġn s
ĠD ry
fam ilies
Ġtrans itions
ell ation
Ġgar ner
Ġadvis ory
Ġst amp
() ">
h ra
Ġcol ored
r v
ĠP lymouth
ĠB le
ploy ed
Ġmidfield ers
ĠFl oyd
Ġth irteen
ĠP T
ĠAlb any
Histor ic
Med ical
Ġpath ways
Ġlocomot ive
m ms
ins ki
Ġo ak
Ġfunction ing
local host
Ġsear ches
Ġincre ment
Ġterror ists
ĠHallow een
O x
Ex amples
Ġarr ays
ĠMoh ammed
Ġwrap per
ĠBry ant
Î ²
Ġsymbol ic
att ach
ĠS ame
00 2
F re
Ġver ification
Ġprospect s
Ġcapt uring
jav ax
Ġdecre ases
ĠBrad ford
Ġmach inery
ĠC od
ier re
R oy
ĠG DP
ring ing
fl ies
Dest roy
ud o
d ag
Ġgoal keeper
ĠRoche ster
S outhern
ĠSc ore
Ġbroadcast s
Ġf lesh
ĠP ale
Ġhuman itarian
Ġshut down
Ind ust
Tax onomy
histor ic
ĠWin ners
Ġmethod ology
ĠChurch ill
if ax
Ġsh ower
Ġmot iv
Brazil ian
merc ially
ĠTanz ania
t m
F D
ĠM aps
ade qu
ĠAt omic
Ã§ Ã£o
__ _
Ġannot ation
t one
act iv
ĠMar cel
Ġcr ude
ĠBe ast
h bar
ĠTerm inal
] ).
ram id
ĠDr iver
Ġsen ators
ĠAr r
Ġto oth
Ġwhe at
] }
ĠLook ing
Ġche aper
Ġk w
ĠAchiev ement
pl iance
Ġoccur rence
b ucket
ĠRe in
Ġrat ios
or ah
Ġsn ake
C ivil
B ACK
t el
L atest
Ġdeleg ates
Ġfaith ful
Ġselect ing
ĠD A
H om
Ġl ag
Play ing
Table Row
ĠMar itime
ĠA ws
Ġport able
Ġorche str
ĠAntar ctic
× ª
Ġatt itudes
ĠBit coin
Ġposter ior
ĠL on
log ical
al ong
D istance
ĠR oc
Ġch ase
Ġfresh man
9 78
her ical
ob ia
Ġt s
ĠR ip
Ġend angered
Ġdefault s
Ġpil gr
ĠNapole on
br as
and in
Ġtal ents
Ġphil osophical
Ġthe ft
: -
Ġst air
raw l
ĠR overs
ract or
ĠA ircraft
BO OL
Ġgodd ess
il ight
ĠSub ject
Ġnav igate
end point
t an
EX P
16 1
ac ion
16 2
f ailed
Ġfl ies
ĠAp ply
ĠLy on
ĠE z
Ġ" #
ĠCom par
ĠSpring field
D am
ĠTe aching
ide a
Ġrece ipt
ĠCars on
r ust
s z
Un incorporated
T en
g re
Ġman ually
Ġexpress ing
yrac use
De ep
Polit icians
respons ive
Ġm asters
el ic
ĠHamilton ian
b uff
Ġreflect ing
ĠGand hi
ĠB P
ST ART
year s
or ers
fore ach
ĠPrest on
Ġsh ifting
Ġdis par
Ġm aternal
ĠSp ark
ĠPartners hip
ch arged
Ġmolec ule
Ġmand ate
Ġdiscontin ued
L V
Ġspec ulation
ĠImm igration
Mod ified
ĠOp port
ĠRuss ians
M arg
Ġg a
17 7
Ġinter ventions
Menu Item
Ġvic inity
Ġsu ited
Ġwithd rawn
C N
ogen esis
ĠRe ally
ĠZ oo
Ġpro long
ĠB uilt
ant es
Ġint ake
ĠT at
ĠE y
Ġrun way
Ġscr ut
ĠInter state
B ot
20 7
Ġsix teen
ĠD ifferent
Ġam munition
Ġon wards
ĠNort on
aras htra
Ġo c
post s
Ġpharm aceutical
ĠAssoci ates
it ely
Ġw ounds
Ġr ay
S G
ĠB ast
ĠGL int
ĠE k
ĠB har
ust ering
Ġcomp ile
quarter ed
list en
ĠLud wig
ell ular
ĠParad ise
ĠC OP
Ġpers pectives
Ġle ver
ias m
Mod els
ile e
ĠCond itions
ĠJud a
ĠS ev
per ed
ĠRead er
Ġresc ued
ip zig
Ad minist
Ġham mer
} )$.
U pon
ĠG PS
23 5
ĠRec ent
Ġb arn
re x
H I
Ġprint s
ĠX I
Ġlog s
Ġover head
ĠCan terbury
Ġspace craft
ĠS ites
Ġel imination
3 75
an an
Ġrespond ing
Ġfuck ing
Ġdeliber ately
Ġout lined
Ġf et
Ġsp ont
ĠL ah
Ġassass ination
ĠRec ording
e o
ĠCre ated
Ġn ost
ĠH its
Ġdiplom at
ĠSloven ia
li o
B rad
Ġc ure
Ġexc use
ĠH err
EV ENT
port ion
Ġident ities
ĠTre nd
p ent
L em
ĠK och
Ġcomm ittees
ĠMan or
Ġbal let
ĠEst abl
U V
v ik
Ant i
mal ink
Ġb oring
ors che
ĠRel igious
ĠCon struct
ĠBel le
I ce
Ġr ushed
Ġpresum ably
ĠD um
T witter
ĠM ing
ĠProject s
ĠP itt
Ġinvest ing
ĠAv engers
Ġsur geon
Ġb und
ind ices
" ];
Ġd w
ig ins
çĶ ¨
ĉĉĉĉĉĉ Ċ
Ġsimilar ity
St ates
Ġthe ology
Ġn it
Ġrefere e
." )
F und
Ġreb el
Ġde er
f uture
ĠC rew
Tem p
17 8
find er
Hash Map
Ġsent iment
Ġadv ancing
Ġcrew s
v endor
ict s
ĠER R
em y
Ġqu asi
ĠN iel
ĠUn ity
Ġdec iding
K evin
em por
trans fer
G G
S afe
u cl
38 8
Ġwh it
ĠInvest igation
Ġb ubble
Get ty
Serv let
ĠSt a
IS S
il io
Ġgener ous
Ġmut ations
Mark er
ounc es
Ġc rap
ĠNad u
Ġrec ount
Ġproceed ed
s igned
et c
PRO C
ĠNic ole
Ġhe ated
18 2
Ġentreprene urs
ĠPet erson
work er
Dec imal
3 10
ĠS eth
Ġrel ies
Ġbreath ing
ĠAp plications
S ets
j ah
ĠCh anges
ĠSy nd
> ${
ĠR iley
mat ches
Ġfl ip
Ġbicy cle
Ġb os
L ess
Ġin ch
Dist rict
Ġf right
16 00
Ġalt ogether
or se
or get
Vir gin
ĠB alk
ym e
IS O
ĠResp ond
Ag ain
Ġn ec
Ġmet eor
not ification
ĠÐ º
Ġdecom position
Ġcelebr ates
Ġre build
Ġb ully
AC ING
in ement
ĠR A
con c
app ings
Ġgener als
Ġadd r
ĠB ronze
Ġdis abilities
it les
Ġpal m
Stud ent
l atest
ĠTR UE
i ast
Ġl ac
Ġfac ial
ri ot
ĠCongress ional
Base ball
}} ^
Start ing
Ġbench mark
ĠFor ward
sk a
Ġun fortunately
Build ing
eck er
g ins
Ġpass ive
Ġdelight ed
4 20
ĠTh row
Ġcontract or
Ġv oyage
Ġp ec
ĠI EEE
Ġbath room
Ġph rases
Ġs q
T X
t ile
ĠV ale
we bs
ĠAdv ance
ĠCow boys
Ġb anner
Ġsim plicity
l ov
ah i
Ġcivil ization
Sl ot
ĠR ising
Ġp unct
Ġd orm
Ex ecute
ĠOr t
ĠPl at
c v
ug a
ĠId entity
ĠSher man
Ġpost pon
Ġtem pt
se ed
sub scribe
Ġcell padding
eal ous
ĠRe uters
C U
ĠZ ag
ĠCrit ical
ĠFr ances
Mod ifier
ĠW ings
Ar r
ĠExt ension
ĠExped ition
ĠD olph
Ġass ured
Ġout let
stat ement
Ġdepict ing
Ġl aps
ĠR up
ĠD ied
Ġpress ing
ĠE lections
aw esome
es ch
Ġ' _
Ġdis closed
Ġvol cano
Ġhost ile
let cher
Ġsculpt or
cur ities
w allet
He ap
ib us
Ġs or
Ġhold ers
Ġanalyst s
St rip
Port ug
Ġt issues
Ġbatt ing
ĠK om
ari at
ĠMaced onia
29 6
Ġindivid ually
map sto
Bel g
Ġst raw
red irect
Ġfour teen
sw orth
C AC
ĠTrans fer
f rames
ian i
Ġib n
Ġpain ful
Ġlim itation
amazon aws
ter min
B all
ĠV all
es pecially
om ics
erm ark
IC AL
ĠSl ovakia
ĠAl ways
ass o
c art
ĠObserv atory
eb ook
uk h
Ġhon ours
Ġnovel ists
Ġd well
ĠL und
ĠHead quarters
ĠB ash
Un ique
Ġsw ift
ĉĉ čĊ
cond itions
gl ob
asc ar
ĠInst all
ad itional
Ġint ensive
ĠOr igin
Tr igger
d elegate
Ġc c
Ġg el
Ġarm or
Ġorg ans
Ġemb ry
ĠPU BLIC
Ã °
ios ity
Ġcop ied
Ġto ys
ĠG ender
Ġnut rition
ĠD ew
F ALSE
ĠD ee
ĠV oc
Ġend less
ĠAlb ania
ĠLuther an
Ġm ol
em i
Ġs her
re duce
Work er
cl s
asc ade
Ġmut ation
p od
ĠW olver
ĠIN TO
sm art
C AP
P ipeline
um ann
à¤ ¨
Ã© m
Ġconv ex
Ġinc idence
? ,
ĠN ice
Ġcl oth
ct ree
qu ire
Ġl overs
Per iod
nthes is
ĠW indow
ordin ates
Ġover r
Ġadd iction
ĠBang kok
ĠRestaur ant
Ġf ond
il ine
op rano
ĠR he
g raphics
r n
ran ch
osa urs
; (
Ġb ure
u o
d id
ro ft
Ġg i
Ġval ve
Ġse ating
17 6
ĠMe asure
Ġfre estyle
Ġas ylum
Ġpharm ac
Ġcan c
ĠFre eman
pos ium
Ġsub urbs
ĠGo ing
p aid
ĠL af
Ġnurs es
17 2
project s
ĠColon ial
ell ites
Int ent
ĠDivis iÃ³n
so lete
Ġsubs id
Ġp H
Sur face
ECT ION
es que
met ric
Ġin k
ul as
ĠN ass
ĠBab a
ĠB iden
Ġtransl ator
B oston
Ġpromot es
Ġm ansion
ĠEnt ity
ĠLa unch
Ġbackground s
Ġded ication
Ġd ive
pe g
Ġorgan izing
C annot
f av
é Ģ
C orn
och astic
ĠWIT HOUT
ar ma
AN GE
Ġdecre asing
ĠColl abor
ced ure
Ġment or
ĠS v
Ġair ports
ĠL iz
Ġemp irical
ĠV ander
16 3
ĠL ap
Ġam ended
ĠGiov anni
epend ing
ĠBald win
ignt y
In side
Ġlicens es
econom ic
h ig
Ġcur v
ĠL ords
Ġob esity
Ġsubject ed
Ġstake holders
oy e
ĠGeorg ian
Ġcompass ion
Ġweight ed
Ġmanuscript s
h yd
Ġpan ic
ĠW ere
ĠSh ows
Ġrec urring
ĠT YPE
Ġhead line
Ġhousehold er
ĠHy per
Ġinter fer
ĠS tern
Israel i
f un
in ians
l ists
od i
Ġdes erves
Ġret riev
ĠB U
N ic
Ġh ull
Ġsuccess ive
Ass et
m ud
at en
stad t
ĠS ylv
Ġret ros
Ã Ĥ
Ġdel icious
ĠR ever
Ġapprec iation
is odes
Ġw ines
ar iance
ia e
B ern
osp here
ĠDod gers
Q t
fl uid
Ġassum es
Ġg aps
ĠFal con
)\ ,
Ġt uple
Ġp aired
ce ans
Ġj am
ab stract
Ġcontinu ity
FLAG S
Ġmid night
ĠCamb odia
N othing
Sub scribe
dec ode
Ex it
Ġswe pt
roph ic
ĠGriff ith
Ġdisband ed
Ġs unk
ins k
ĠY uk
Ġimp ly
ĠN ixon
ĠV ick
Ġre per
t ec
ĠAct ivity
loc ale
ĠWeb b
do es
Ġcorre ctions
âĢ ł
ĠSc hedule
Ġw ished
ĠV ac
ĠM ales
Ġcell spacing
Ġtro phy
Ġmon uments
Ġeduc ators
Ġsub urban
EN S
bra him
Ġr idge
Ġtermin ated
e clipse
Ġsoc io
ra ise
Pop ulation
ĠO st
are tt
Ġfirm ly
A ge
or ian
sh ots
ĠLanc aster
w omen
c u
Ġloc ale
ĠTr avis
ĠB agh
Ġinf ect
Ġcolle ague
b ral
f est
Ġboard ing
ud ed
ĠReg ulation
Ġform ulation
Look up
ĠN L
ĠG roups
SCR IPT
am oto
Ġl azy
Ġdevast ating
ry n
ĠM ilit
ĠR ide
ac ements
id an
Ġcon ceived
Ġn as
Ġtr unc
/ (
Ġpast or
c ached
sl ash
Ġneur ons
RO W
no frame
ĠH ed
Be ing
op ens
ĠEm ployment
T ip
s al
ĠUn known
Ġc ass
ight y
Ġrival ry
ĠTe a
Ġarm ies
Ġhabit ats
ĠG ET
ocr acy
ĠEv an
Ġgeneral ized
Ġcounter part
Ġec ological
E nergy
') ->
sm outh
W all
Ġfl own
Ġsimilar ities
**************************************************************** ********
Ġ umb
Ġar ising
ĠWeek end
B F
E G
S eq
=" {{
cl amation
Ġcl ips
ĠG an
Ġrevers ed
Ġout rage
ä¸ Ń
tain ing
Ġaw kward
SU CCESS
ĠVal ues
ĠTrans form
get Attribute
Ã§ a
ĠBud apest
R os
ĠHait i
Ġrul ers
ĠSc out
> .</
ĠP ush
Ġappe als
found land
] ->
is ot
ĠW ade
Ġ\ &
ant is
br ace
Ġdest ruct
Ġprior ities
ĠSh aron
ADD ING
18 34
.... ..
cs v
ĠCorn ell
Ġre novation
id ian
ĠR escue
ĠC ann
Ġnav ig
An al
iling ual
Ġge ographical
ir ling
Ġinter rupted
Ġn ested
Ġlack s
zb ek
Ġshoot er
Ġvulner ability
desc ribe
os o
Ġshould ers
Character Offset
Pay ment
P K
à ¯
EN ABLE
Ne ill
ĠIS BN
20 9
se ek
Ġtop ology
Us ed
D ave
ant ics
ob o
Ġexplos ive
Ġquiet ly
itt en
Ġthr ust
Ġport raits
Ġprov ing
ar am
pl ays
ĠK urd
Ġhor r
ĠC airo
ĠD ialog
n om
Trans fer
amm ation
u en
ĠRom ans
ĠN amed
Ġsl opes
Ġlicens ing
ĠGener ated
ĠCzech osl
ĠBel grade
T ools
Ġflu ores
Ġl ion
ĠFl ow
n orth
Ġpseud o
C are
Ġterrit orial
nt on
ĠG ian
ĠE ra
ĠAr row
ĠSpec ies
W F
ĠDom ain
ĠSuper ior
al gorithm
ĠS ach
ĠTele graph
INS ERT
Ġr ust
The orem
Ġtub es
w ang
ĠCorn er
Ġspons orship
Ġsusp icious
S ent
Ġrec reation
ram er
rain e
ĠMcCar thy
ĠR AM
ure n
ĠAc cept
w on
col span
trans late
Ġcontext s
Ġenter prises
ĠLe icester
al con
ĠPres byterian
Ġover time
aut s
ĠBul ld
Gu ard
ĠUS SR
Ġcycl ists
Ġsuper b
ot on
ĠH ank
Look ing
Ġst iff
Ġher b
ĠRe agan
}^ *
E O
as an
ĠM anning
27 5
Ġanal ytical
ĠRem ix
ĠWill ie
Ġstation ed
H ong
Ļ Ĥ
Ġpoll ing
SOUR CE
ĠTeh ran
ĠM ell
ĠL ey
30 3
(' ./
pe x
ĠJack ie
ĠDrag ons
OS E
ier i
ĠPart ner
Ġâ Ķ
Ġabs urd
Ġs inc
Ġsomet ime
Ġacceler ation
ĠGreen e
ĠH BO
l uc
Ġeff icacy
Ġcompl ain
Ġex pr
30 2
elastic search
ĠCh al
il is
inter est
>( <
Ġal ly
it as
uche ss
Ġd iox
ak is
RES ULT
ak t
z on
Ġres il
Ġutil ize
P ing
stitution al
Ġdi agonal
Ġsil ly
Ġco ordination
ĠOC aml
qu o
Comp letion
Ġorb ital
fr ag
Ġo v
br is
ha o
Ġaux iliary
ĠV ij
ĠMan ual
ĠS ally
Ġcontin uation
Ġappro ve
ĠMan aging
ov i
ĠCh o
ĠCh am
ĠM ist
)\ \
Ġsed iment
Ġl ined
ĠMar athon
ĠB ORDER
Ġ# {
ĠO mar
Ġconsider ations
Ġtre asure
Ġdivor ced
Ġm apped
ond uctor
ĠPl ain
ĠUnder ground
Ġiter ator
ĠBund es
se gment
Ġpr incess
Su ite
Ġalumin um
M useum
script s
Ġeleg ant
Ġint u
rol ogy
ev o
B BC
Ġt iles
ace ous
Ġcar n
V AR
over n
Ġconfig ure
Ġcard iac
ĠJan et
now led
WA RE
ĠNo ah
View Controller
ĠHold ings
p ending
Ġin scription
Ġ< ?
Ġdispl acement
ĠĠĠĠĠĠĠĠĠĠĠĠĠĠĠĠĠĠĠĠĠĠĠĠĠĠĠĠĠĠĠĠ ĠĠĠĠĠĠ
process ing
ĠSac red
v ae
Ġcom mercially
Ġcrow ds
ĠD und
ĠG ul
Ġcount less
ĠR ally
ib i
Ġcon gregation
Ġfact ories
ĠWhe el
F ederal
t oc
Ġtechn ically
Ġenjoy s
ĠAlger ia
Ġrele v
With in
Comp are
Ġge ographic
_ [
ĠC AN
> `
af ka
Ġminim ize
Ġrelig ions
OTT OM
18 33
Ġprev ents
Ġinev itable
p aces
Sen ior
B ASE
Ġcomp rise
Ġhab its
H arry
Ġteam mate
Ġbreak through
olith ic
Ġw olf
Ġre habilitation
re li
Ġg ym
ĠAnal ytics
ĠChrist ie
Ġpract ically
iov ascular
ow itz
TH ER
X Y
Ġendors ed
k ernel
Ġpuzz le
Ġsp ac
Ġbu zz
ĠZ el
ĠOff icers
Ġg it
ĠF uj
Ġen listed
Ġref res
ĠSoph ie
ĠF i
Ġmanif old
Ñ Ī
ĠEl se
Ġmus cles
ct ica
ĠChap man
Ġl ips
Ġraid s
Ġth y
ĠF iles
Ġsub group
f illed
18 4
icult ural
Sh op
ĠEff ects
Bit map
ĠNS String
ĠAr d
ĠConstitution al
ang led
ĠSerge ant
ress ing
A U
IT IONS
To o
Eng land
ĠS afe
ĠTre vor
Ġmon sters
Ġlength y
ĠG ore
Ġinter pol
Ġser um
Ġd x
u ably
ĠT urb
Ġenc ode
/ #
p ic
ĠG iant
18 15
Ã© l
23 2
Ġdeb ates
P ADDING
ĠN Z
Ġfin ishes
R R
In cre
T s
ĠT ucker
Met ric
P ush
Ġpri zes
Ġv endor
Ġcom merce
ĠTag ged
ĠH ort
Ġv intage
ĠCam era
ighth ouse
Ġf action
ol esc
Ġvirt ue
Ä ħ
ĠU m
Ġmar ble
ĠGram mar
Are Equal
ĠDream s
Ġland scapes
Ä Ļ
Ġtax i
Ġj okes
ĠM ouse
Ġ' ,
Ġcelebr ations
or is
ĠMon ument
- ">
] ),
ĠQu int
Me et
ĠEth ics
17 4
$ ;
}} ^{
Ġp ound
Ġphot on
ĠA CC
ĠG amb
Ġimp ose
Ġsec uring
met rics
ĠMir ror
Ġrefuge e
Work ing
Ġintent ions
ĠC ly
Trans lation
bl ocks
ĠC avalry
ĠBe er
Ġrout ing
iol a
Ġ======= =
ĠB rom
SH A
V ec
esc ape
Ġmist aken
ĠTe ams
L ost
Ġvibr ant
Ġshel f
ĠS TE
ĠO H
Ġd umb
Ġman eu
att i
ocy tes
T ony
j iang
Ġexp ose
Ġhe ct
Ġl uc
Ġab ort
sh aw
ĠSab ha
ow l
Ġun ified
ar ith
ĠT ools
ĠV M
Ġcont ributes
mon ary
ĠL al
ĠTh u
po i
tool bar
ĠJohn ston
Ġgate way
Ġorient ed
sp ons
Ġprint f
H it
Ġt ast
ĠD ud
Ġbr ass
Ġfund raising
;\ ;\
P ark
ĠW it
Ġillust ration
Ġ ub
ĠC ave
ĠBrown s
ĠPat ricia
ĠCast ro
n Ã©e
oc ur
app ers
Ar rays
Î ¯
J ones
ĠM atter
ĠPr iv
ert ation
ĠDor othy
Ġspokes person
Ġconfident ial
ĠOr d
P oll
cl i
Ġord in
Sm art
rosso ver
l ot
ĠN acional
un ts
ĠQ ing
d ependencies
hor se
ĠCo ffee
Ġposit ively
Ġcost umes
C ultural
ĠSt ay
unn els
ĠĠĠĠ ĠĊ
d aughter
Ġch ips
Ġd t
ist ries
ĠW id
Ġover t
è ¡
ge ometry
ĠCl aud
F ail
ou bt
ut z
Ġf reed
Ġp neum
IT LE
ochem ical
to ctree
ĠN um
at u
im on
ĠCharl eston
N ING
Ġcont ing
Alex ander
ĠInt ro
ĠSup erv
ON D
ĠSpe ech
ĠWin ston
at an
Ġdeal er
Lin q
) }_{
ĠM am
Cl os
inn y
ĠSpeed way
ap o
Ġmar itime
Reg istration
Ġre ef
m eter
b read
Ġs ued
Ġis instance
Ar ab
ĠV id
C zech
Ġon set
Ġsu its
Ġret rieved
r ino
ap on
ĠSuff olk
P en
ĠSc ene
uit ar
K N
âĢ ³
ĠPat tern
ap ps
com ments
res olution
Ġtre as
ing e
Ġro de
red uc
ĠSurg ery
W P
ind ependent
ĠBe a
ĠE PA
17 1
Ġcalc ium
ib les
eff icient
] </
Ġdiff ers
g c
Ġbl amed
ĠUtt ar
ĠL ub
Ġincorpor ating
Ġ elli
itud inal
Ġdou bled
x sd
W ARN
sh irt
Ġcancel ed
t asks
Ġmon etary
Ġsynchron ized
Ġred und
Ġc ivic
Ġprospect ive
ĠTit ans
" ])
Ä Ľ
C itations
Ġesc ort
ESS AGE
ĠFer dinand
Ġex cerpt
ier archy
ĠSc ots
tr on
ĠPro blem
RE NT
ĠMod els
ul k
ote chnology
lin ing
Ġasp ir
A ctor
author ized
Ġhor rible
ĠSt alin
Ġinform al
Ġovers ee
Ġfa una
aa aa
ĠHam mer
Ġt urt
ĠCon cept
ĠIs abel
Ġcor related
Ġm oll
Mut able
ok i
Ġre actor
Sh arp
Ġchar m
Ġhigh ways
Ġdis gu
ĠBet ty
Ġar th
Comp any
ĠStr ange
do ors
Ġwrest ler
s ame
google apis
m x
ĠA FL
Ġsp arse
ĠEm bassy
'] ))
ĠHol ly
o ating
Ġc oding
Ġn itrogen
Ġrec ipe
Ġspec imen
ĠMy ers
ext ensions
ĠTes la
M unic
Ġent ropy
Ġb apt
ĠRE AD
ad ians
lect ric
ĠLa ur
F a
ĠReg ular
ĠFel ix
Ġfluct uations
lab els
ĠAber deen
Ġthe aters
ĠFl at
Ġaw ful
[ [
D NA
D isk
Ġp ent
ug ged
ee le
ush i
MP L
ĠR M
All ow
r ates
par agraph
ĠGet ty
UP DATE
ĠN ortheast
ĠBron cos
8 50
inc ome
ĠAir ways
Ġperipher al
Ġanth ology
Ġext inction
ĠMin ing
ĠMar qu
ĠD ynasty
fore st
ĠBrun o
Ġinv oked
Ġor phan
Ġwat ches
ĠB irds
Ġend ings
cept or
dr ag
Ġcond itional
Ed ward
Ġremind s
ĠP owers
St ock
100 00
Con nor
ĠAppe al
AR GET
Ġh ood
ĠB j
Ġex ec
Ġpurch ases
dl ib
ĠConstant in
Sc ot
ĠR um
Ġnon linear
ĠChe ng
... ,
Ġcapt ures
w br
' (
che l
Ġrein force
18 3
Ġpartner ed
/ ?
Ġspec ially
ĠMalays ian
Ġcom eb
Ġshare holders
}{ (
ĠW ong
Ġcontribut ors
W as
S ky
s yn
R og
ear chers
Has Been
ĠCon sequently
I FI
umm ing
ĠK IND
script style
ĠB erm
ĠInd o
comm ission
ĠS B
Ġsol ic
Ġple asant
Ex press
Ġtouch ing
Ġaccording ly
ĠLook s
ne e
Ġpe pt
opt im
in ject
Ġ. =
Ġtribut ary
ĠW iki
Form atter
In ternet
Rev ision
$ {\
Ġt att
ĠL ank
com merce
erv ille
Ġch ol
ener ate
e ous
ĠMin isters
Ġsign atures
d ings
ĠE rik
ard on
Ġwell s
Ġquant itative
ĠCole man
op oly
ak k
ĠInd ividual
ĠJul ius
ĠY eah
17 9
Ġdiff usion
^{ +
ĠInter face
S rc
V ery
L com
ĠAr ist
g iven
az ure
Ġab normal
Ġencour ages
ĠW itch
ĠCon v
ĠD owntown
atter ed
dr ive
ĠT aking
Ġmamm als
Ġspecific ations
ĠEp iscopal
establ ished
set Text
30 8
Ġhonest ly
ÂĢÂ Ļ
in itions
ĠEv idence
Ġ" ${
18 31
ĠAl most
ĠÐ ´
ĠP aint
Ġpre jud
rib es
Ġbeaut ifully
i oc
Athlet es
ĠBuddh ism
Ġenroll ment
eg en
Path s
ĠR ate
Ġes p
ĠStre ets
stats models
d h
ĠSal em
Ġa apt
Ġp ile
Ġhead lines
B ang
Mond ay
Conf irm
Th ursday
y ang
Ġdon or
ĠEnt reprene
pro position
Ġspl itting
ĠSc ale
Ġun stable
Ġexp ans
Rem ember
ag ogue
Set up
V IS
Ġteam mates
ĠMes a
pro ved
Ġs odium
ĠM N
um atic
Ġcar b
pt ical
Ġcre ep
Ġb ite
og e
Ġbr ave
Ġcomp atibility
ĠQuest ions
Ġlo os
ĠNAS CAR
keep ers
ne ider
19 1
Ch unk
Ġlist ened
Par is
Ġsell s
ĠAs k
ED T
Cath olic
il tr
riz z
ĠVolunte er
ĠH ond
Ġtrou bles
Ġbott les
h appy
ops y
Ġspons ors
Ġgall eries
ribut or
pack ages
ĠVern on
F s
ĠBr aves
ĠBar rett
ĠFil ter
Pe er
arg v
c ookie
l oo
iss an
isecond s
ĠP P
man ifest
Ġreal izes
Ġsubsc ribers
go al
ur red
Ġabsor b
I p
f w
ĠV ista
og h
" ?>
ĠRaf ael
ĠD art
Ġcompar isons
ĠS SL
Ġadv iser
parent ly
itor ium
Ġc ategor
ĠK ai
ĠSh am
in qu
f ilters
b ial
Ali as
Ġf oo
ĠP ir
Columb ia
Ġad apter
Ġunder neath
Part ial
al gebra
Ġly ric
ĠMid lands
A k
ĠEven ing
Ġcl erk
cam era
b oot
Ġhe d
Ġconclud es
Ġmasc ul
aint ies
ĠDate Time
Rad ius
Ġen umer
Debug ger
Ġinhab ited
rop olis
et ches
ĠF en
)$ -
ĠOpt im
__ ["
Ġdefend ant
ĠTher apy
ag ascar
Ġl enses
ĠI z
Ġat he
Ġsax ophone
Ġcounter parts
Ġp sy
* >(
c estershire
ĠEld er
L ord
Pro of
ĠAg u
dat etime
Ġem it
ĠTon ight
ĠPat rol
ĠCall ed
Ġcritic ised
ĠBol ivia
o ak
Ġdiscipl ines
perform ance
el in
Ġins ufficient
sl ider
ĠSh ane
Ġpol ym
pay ment
Ġgorge ous
\ )
E astern
T am
Ġcos m
f ried
Ð° ÑĢ
Ġdirect ive
ĠMon ter
à¥ Ģ
Ġsupport ive
Ġlect urer
ynchron ous
Ġap ple
Ġrecru iting
Ġj ur
ĠRun ning
T a
ĠC inem
arm ed
ĠDem on
s ent
ĠS ET
R od
ĠS G
Ġsw ap
Ġneg lect
Ġcompl ained
################ ################
as aki
Ġrec ycling
Ġliv estock
Leg al
Ġdis posal
ĠPar ade
Ð¸ ÑĤ
ĠAndr Ã©
[...]
