{
  "version": "1.0",
  "truncation": null,
  "padding": null,
  "added_tokens": [
    {
      "id": 0,
      "content": "[UNK]",
      "single_word": false,
      "lstrip": false,
      "rstrip": false,
      "normalized": false,
      "special": true
    }
  ],
  "normalizer": null,
  "pre_tokenizer": {
    "type": "Sequence",
    "pretokenizers": [
      {
        "type": "Digits",
        "individual_digits": false
      },
      {
        "type": "ByteLevel",
        "add_prefix_space": false,
        "trim_offsets": true,
        "use_regex": true
      }
    ]
  },
  "post_processor": null,
  "decoder": null,
  "model": {
    "type": "BPE",
    "dropout": null,
    "unk_token": "[UNK]",
    "continuing_subword_prefix": null,
    "end_of_word_suffix": null,
    "fuse_unk": false,
    "byte_fallback": false,
    "vocab": {
      "[UNK]": 0,
      "!": 1,
      "\"": 2,
      "#": 3,
      "$": 4,
      "%": 5,
      "&": 6,
      "'": 7,
      "(": 8,
      ")": 9,
      "*": 10,
      "+": 11,
      ",": 12,
      "-": 13,
      ".": 14,
      "/": 15,
      "0": 16,
      "1": 17,
      "2": 18,
      "3": 19,
      "4": 20,
      "5": 21,
      "6": 22,
      "7": 23,
      "8": 24,
      "9": 25,
      ":": 26,
      ";": 27,
      "<": 28,
      "=": 29,
      ">": 30,
      "?": 31,
      "@": 32,
      "A": 33,
      "B": 34,
      "C": 35,
      "D": 36,
      "E": 37,
      "F": 38,
      "G": 39,
      "H": 40,
      "I": 41,
      "J": 42,
      "K": 43,
      "L": 44,
      "M": 45,
      "N": 46,
      "O": 47,
      "P": 48,
      "Q": 49,
      "R": 50,
      "S": 51,
      "T": 52,
      "U": 53,
      "V": 54,
      "W": 55,
      "X": 56,
      "Y": 57,
      "Z": 58,
      "[": 59,
      "\\": 60,
      "]": 61,
      "^": 62,
      "_": 63,
      "`": 64,
      "a": 65,
      "b": 66,
      "c": 67,
      "d": 68,
      "e": 69,
      "f": 70,
      "g": 71,
      "h": 72,
      "i": 73,
      "j": 74,
      "k": 75,
      "l": 76,
      "m": 77,
      "n": 78,
      "o": 79,
      "p": 80,
      "q": 81,
      "r": 82,
      "s": 83,
      "t": 84,
      "u": 85,
      "v": 86,
      "w": 87,
      "x": 88,
      "y": 89,
      "z": 90,
      "{": 91,
      "|": 92,
      "}": 93,
      "~": 94,
      "¡": 95,
      "¢": 96,
      "£": 97,
      "¤": 98,
      "¥": 99,
      "¦": 100,
      "§": 101,
      "¨": 102,
      "©": 103,
      "ª": 104,
      "«": 105,
      "¬": 106,
      "®": 107,
      "¯": 108,
      "°": 109,
      "±": 110,
      "²": 111,
      "³": 112,
      "´": 113,
      "µ": 114,
      "¶": 115,
      "·": 116,
      "¸": 117,
      "¹": 118,
      "º": 119,
      "»": 120,
      "¼": 121,
      "½": 122,
      "¾": 123,
      "¿": 124,
      "Â": 125,
      "Ã": 126,
      "Ä": 127,
      "Å": 128,
      "Æ": 129,
      "Ç": 130,
      "È": 131,
      "É": 132,
      "Ê": 133,
      "Ë": 134,
      "Ì": 135,
      "Í": 136,
      "Î": 137,
      "Ï": 138,
      "Ð": 139,
      "Ñ": 140,
      "Ò": 141,
      "Ó": 142,
      "Ô": 143,
      "Õ": 144,
      "Ö": 145,
      "×": 146,
      "Ø": 147,
      "Ù": 148,
      "Ú": 149,
      "Û": 150,
      "Ü": 151,
      "Ý": 152,
      "Þ": 153,
      "ß": 154,
      "à": 155,
      "á": 156,
      "â": 157,
      "ã": 158,
      "ä": 159,
      "å": 160,
      "æ": 161,
      "ç": 162,
      "è": 163,
      "é": 164,
      "ê": 165,
      "ë": 166,
      "ì": 167,
      "í": 168,
      "î": 169,
      "ï": 170,
      "ð": 171,
      "ñ": 172,
      "ó": 173,
      "ô": 174,
      "Ā": 175,
      "ā": 176,
      "Ă": 177,
      "ă": 178,
      "Ą": 179,
      "ą": 180,
      "Ć": 181,
      "ć": 182,
      "Ĉ": 183,
      "ĉ": 184,
      "Ċ": 185,
      "ċ": 186,
      "Č": 187,
      "č": 188,
      "Ď": 189,
      "ď": 190,
      "Đ": 191,
      "đ": 192,
      "Ē": 193,
      "ē": 194,
      "Ĕ": 195,
      "ĕ": 196,
      "Ė": 197,
      "ė": 198,
      "Ę": 199,
      "ę": 200,
      "Ě": 201,
      "ě": 202,
      "Ĝ": 203,
      "ĝ": 204,
      "Ğ": 205,
      "ğ": 206,
      "Ġ": 207,
      "ġ": 208,
      "Ģ": 209,
      "ģ": 210,
      "Ĥ": 211,
      "ĥ": 212,
      "Ħ": 213,
      "ħ": 214,
      "Ĩ": 215,
      "ĩ": 216,
      "Ī": 217,
      "ī": 218,
      "Ĭ": 219,
      "ĭ": 220,
      "Į": 221,
      "į": 222,
      "İ": 223,
      "ı": 224,
      "Ĳ": 225,
      "ĳ": 226,
      "Ĵ": 227,
      "ĵ": 228,
      "Ķ": 229,
      "ķ": 230,
      "ĸ": 231,
      "Ĺ": 232,
      "ĺ": 233,
      "Ļ": 234,
      "ļ": 235,
      "Ľ": 236,
      "ľ": 237,
      "Ŀ": 238,
      "ŀ": 239,
      "Ł": 240,
      "ł": 241,
      "Ń": 242,
      "ĠĠ": 243,
      "Ġt": 244,
      "in": 245,
      "Ġa": 246,
      "he": 247,
      "er": 248,
      "on": 249,
      "re": 250,
      "Ġthe": 251,
      "ĠĠĠĠ": 252,
      "at": 253,
      "en": 254,
      "or": 255,
      "Ġs": 256,
      "an": 257,
      "es": 258,
      "is": 259,
      "it": 260,
      "al": 261,
      "Ġo": 262,
      "Ġw": 263,
      "ed": 264,
      "Ġc": 265,
      "ar": 266,
      "Ġf": 267,
      "nd": 268,
      "ing": 269,
      "Ġp": 270,
      "Ġb": 271,
      "Ġin": 272,
      "Ġof": 273,
      "ion": 274,
      "ic": 275,
      "as": 276,
      "ou": 277,
      "le": 278,
      "Ġand": 279,
      "Ġm": 280,
      "ro": 281,
      "Ġto": 282,
      "Ġd": 283,
      "ent": 284,
      "Ġh": 285,
      "il": 286,
      "st": 287,
      "ct": 288,
      "ĠS": 289,
      "et": 290,
      "el": 291,
      "om": 292,
      "ĠĠĠ": 293,
      "am": 294,
      "Ġre": 295,
      "ĠC": 296,
      "ĠT": 297,
      "ĠA": 298,
      "Ġth": 299,
      "ĠĠĠĠĠĠĠĠ": 300,
      "Ġn": 301,
      "Ġl": 302,
      "ol": 303,
      "id": 304,
      "Ġ(": 305,
      "âĢ": 306,
      "ur": 307,
      "ad": 308,
      "ac": 309,
      "ĠM": 310,
      "Ġe": 311,
      "ig": 312,
      "ot": 313,
      "ation": 314,
      "ut": 315,
      "iv": 316,
      "im": 317,
      "ĠI": 318,
      "Ġg": 319,
      "us": 320,
      "ay": 321,
      "Ġis": 322,
      "Ġfor": 323,
      "ĠP": 324,
      "ĠB": 325,
      "ly": 326,
      "ers": 327,
      "Ġon": 328,
      "ow": 329,
      "ce": 330,
      "ch": 331,
      "ir": 332,
      "ul": 333,
      "un": 334,
      "em": 335,
      "ter": 336,
      "Ġbe": 337,
      "ag": 338,
      "Ġst": 339,
      "ĠH": 340,
      "ith": 341,
      "20": 342,
      "ĠR": 343,
      "ĠD": 344,
      "od": 345,
      "if": 346,
      "se": 347,
      "ist": 348,
      "ĠF": 349,
      "Ġas": 350,
      "th": 351,
      "um": 352,
      "Ġv": 353,
      "ĠL": 354,
      "her": 355,
      "Ġwith": 356,
      "Ġwas": 357,
      "19": 358,
      "Ġthat": 359,
      "av": 360,
      "ĠW": 361,
      "and": 362,
      "ab": 363,
      "est": 364,
      "ĠN": 365,
      "ĠĠĠĠĠĠĠ": 366,
      "ap": 367,
      "ĠG": 368,
      "ate": 369,
      "ver": 370,
      "op": 371,
      "Ġal": 372,
      "Ġcon": 373,
      "ĠThe": 374,
      "oc": 375,
      "Ġan": 376,
      "ri": 377,
      "ĠE": 378,
      "ew": 379,
      "pe": 380,
      "Ġwh": 381,
      "rom": 382,
      "qu": 383,
      "res": 384,
      "Ġit": 385,
      "ain": 386,
      "ht": 387,
      "Ġ=": 388,
      "Ġat": 389,
      "Ġby": 390,
      "os": 391,
      "ess": 392,
      "ĠJ": 393,
      "ill": 394,
      "Ġpro": 395,
      "ort": 396,
      "Ġr": 397,
      "Ġhe": 398,
      "Ġde": 399,
      "ĉĉ": 400,
      "our": 401,
      "Ġy": 402,
      "ity": 403,
      "Ġcom": 404,
      "</": 405,
      "ub": 406,
      "ĠO": 407,
      "art": 408,
      "ore": 409,
      "ak": 410,
      "end": 411,
      "=\"": 412,
      "ction": 413,
      "Ġ\"": 414,
      "up": 415,
      "all": 416,
      "Ġfrom": 417,
      ");": 418,
      "ies": 419,
      "Ġse": 420,
      "ld": 421,
      "ass": 422,
      "âĢĻ": 423,
      "Ġor": 424,
      "Ġex": 425,
      "nt": 426,
      "ame": 427,
      "ment": 428,
      "'s": 429,
      "ant": 430,
      "Ġare": 431,
      "--": 432,
      "pt": 433,
      "ud": 434,
      "Ġ{": 435,
      "Ġ$": 436,
      "ive": 437,
      "ue": 438,
      "ex": 439,
      "ard": 440,
      "og": 441,
      "ĠU": 442,
      "ine": 443,
      "ight": 444,
      "ĠâĢ": 445,
      "Ġ<": 446,
      "age": 447,
      "pl": 448,
      "ber": 449,
      "ack": 450,
      "ĠK": 451,
      "ial": 452,
      "ure": 453,
      "Ġcl": 454,
      "201": 455,
      "ust": 456,
      "ia": 457,
      "ov": 458,
      "ge": 459,
      "ect": 460,
      "//": 461,
      "Ġch": 462,
      "ra": 463,
      "ĠĠĠĠĠĠĠĠĠĠĠ": 464,
      "ĠSt": 465,
      "The": 466,
      "ip": 467,
      "port": 468,
      "rou": 469,
      "ans": 470,
      "..": 471,
      "Ġ\\": 472,
      "Ġthis": 473,
      "Ġpl": 474,
      "ell": 475,
      "ast": 476,
      "Ġ*": 477,
      "Ġsh": 478,
      "ary": 479,
      "ated": 480,
      "cl": 481,
      "ave": 482,
      "čĊ": 483,
      "ich": 484,
      "ef": 485,
      "00": 486,
      "Ġtr": 487,
      "ost": 488,
      "ke": 489,
      "iz": 490,
      "out": 491,
      "Ġnot": 492,
      "Ġle": 493,
      "are": 494,
      "ong": 495,
      "ear": 496,
      "ult": 497,
      "ĠIn": 498,
      "per": 499,
      "ire": 500,
      "Ġhis": 501,
      "ff": 502,
      "ian": 503,
      "ord": 504,
      "Ġus": 505,
      "ok": 506,
      "ĠV": 507,
      "ical": 508,
      "con": 509,
      "orm": 510,
      "Ġwe": 511,
      "ĠĊ": 512,
      "Ġ}": 513,
      "urn": 514,
      "ork": 515,
      "ice": 516,
      "ign": 517,
      "ide": 518,
      "uc": 519,
      "able": 520,
      "ĠCh": 521,
      "),": 522,
      "ath": 523,
      "ould": 524,
      "\">": 525,
      "ome": 526,
      "ind": 527,
      "Ġhave": 528,
      "ere": 529,
      "ions": 530,
      "ep": 531,
      "Ġj": 532,
      "Ġcomp": 533,
      "Ġhas": 534,
      "ace": 535,
      "Ġk": 536,
      "Ġyou": 537,
      "ry": 538,
      "int": 539,
      "Ġint": 540,
      "ther": 541,
      "Ġab": 542,
      "so": 543,
      "Ġcont": 544,
      "ish": 545,
      "eg": 546,
      "ang": 547,
      "200": 548,
      "ime": 549,
      "Ġ-": 550,
      "ous": 551,
      "ile": 552,
      "Ġwhe": 553,
      "Ġres": 554,
      "ite": 555,
      "Ġwhich": 556,
      "ib": 557,
      "ase": 558,
      "mer": 559,
      "enc": 560,
      "Ġun": 561,
      "erv": 562,
      "ence": 563,
      "ĠĠĠĠĠĠĠĠĠĠĠĠĠĠĠĠ": 564,
      "act": 565,
      "gh": 566,
      "ext": 567,
      "Ġall": 568,
      "Ġad": 569,
      "In": 570,
      "ations": 571,
      "ens": 572,
      "Ġwere": 573,
      ").": 574,
      "ount": 575,
      "ory": 576,
      "Ġar": 577,
      "ec": 578,
      "ĠĠĠĠĠ": 579,
      "und": 580,
      "ubl": 581,
      "tr": 582,
      "Ġ|": 583,
      "Ġcan": 584,
      "one": 585,
      "ev": 586,
      "ail": 587,
      "ance": 588,
      "ition": 589,
      "**": 590,
      "Ġif": 591,
      "Ġbut": 592,
      "tern": 593,
      "ĠTh": 594,
      "18": 595,
      "ild": 596,
      "com": 597,
      "ru": 598,
      "Ġap": 599,
      "li": 600,
      "Ġ&": 601,
      "ob": 602,
      "own": 603,
      "turn": 604,
      "Ġtheir": 605,
      "Ġclass": 606,
      "ress": 607,
      "Ġnew": 608,
      "ach": 609,
      "Ġim": 610,
      "get": 611,
      "Ġalso": 612,
      "ric": 613,
      "irst": 614,
      "Ġ'": 615,
      "form": 616,
      "ound": 617,
      "ents": 618,
      "ll": 619,
      "Ġwho": 620,
      "ĠY": 621,
      "Ġac": 622,
      "fer": 623,
      "Ġgo": 624,
      "Ġout": 625,
      "rit": 626,
      "Ġone": 627,
      "ype": 628,
      "ks": 629,
      "ally": 630,
      "âĢĿ": 631,
      "Ġup": 632,
      "sp": 633,
      "ree": 634,
      "ode": 635,
      "pro": 636,
      "hed": 637,
      "ook": 638,
      "ors": 639,
      "ont": 640,
      "Ġwill": 641,
      "Ġhad": 642,
      "ĠHe": 643,
      "ne": 644,
      "ug": 645,
      "ĠUn": 646,
      "()": 647,
      "ject": 648,
      "te": 649,
      "==": 650,
      "Ġsc": 651,
      "Ġdo": 652,
      "Ġpart": 653,
      "----": 654,
      "ata": 655,
      "Ġthey": 656,
      "ft": 657,
      "Ġper": 658,
      "amp": 659,
      "ĠIt": 660,
      "ark": 661,
      "Ġher": 662,
      "ublic": 663,
      "row": 664,
      "10": 665,
      "Ġdis": 666,
      "Ġme": 667,
      "ĠâĢĵ": 668,
      "ake": 669,
      "Ġits": 670,
      "ates": 671,
      "Ġen": 672,
      "fter": 673,
      "Ġag": 674,
      "wo": 675,
      "Ġman": 676,
      "Ġplay": 677,
      "oll": 678,
      "Ġte": 679,
      "ss": 680,
      "aw": 681,
      "ng": 682,
      "ph": 683,
      "ool": 684,
      "ert": 685,
      "ater": 686,
      "Ġev": 687,
      "ings": 688,
      "old": 689,
      "{\\": 690,
      "Ġfirst": 691,
      "clud": 692,
      "Ġmore": 693,
      "ely": 694,
      "Ġyear": 695,
      "âĢĵ": 696,
      "ose": 697,
      "Ġother": 698,
      "ie": 699,
      "Ġsp": 700,
      "ational": 701,
      "cess": 702,
      "Ġpre": 703,
      "ock": 704,
      "uch": 705,
      "Ġbeen": 706,
      "rib": 707,
      "Ġ||": 708,
      "Ġreturn": 709,
      "Ġwork": 710,
      "ring": 711,
      "man": 712,
      "we": 713,
      "iss": 714,
      "ref": 715,
      "ople": 716,
      "Ġso": 717,
      "iew": 718,
      "Ġover": 719,
      "ĠAr": 720,
      "anc": 721,
      "ĠĠĠĠĠĠĠĠĠĠĠĠĠĠĠ": 722,
      "lect": 723,
      "elf": 724,
      "Ġabout": 725,
      "Ġro": 726,
      "Ġqu": 727,
      "ick": 728,
      "ays": 729,
      "199": 730,
      "ĠâĢľ": 731,
      "ull": 732,
      "ery": 733,
      "Ġpe": 734,
      "oy": 735,
      "ons": 736,
      "les": 737,
      "ade": 738,
      "land": 739,
      "ond": 740,
      "Ġdes": 741,
      "pec": 742,
      "io": 743,
      "iel": 744,
      "Ġ[": 745,
      "als": 746,
      "Ġrec": 747,
      "igh": 748,
      "Ġtime": 749,
      "sh": 750,
      "ener": 751,
      "eth": 752,
      "ember": 753,
      "alue": 754,
      "St": 755,
      "Ġoff": 756,
      "Ġpr": 757,
      "ms": 758,
      "Ġtwo": 759,
      "yst": 760,
      "use": 761,
      "rap": 762,
      "\",": 763,
      "Ġcomm": 764,
      "ited": 765,
      "Ġli": 766,
      "orn": 767,
      "du": 768,
      "over": 769,
      "ics": 770,
      "Ġne": 771,
      "Ġ//": 772,
      "Ġinto": 773,
      "ps": 774,
      "Ex": 775,
      "ink": 776,
      "ivers": 777,
      "ram": 778,
      "unction": 779,
      "ied": 780,
      "Ġwould": 781,
      "Ġwhen": 782,
      "oint": 783,
      "meric": 784,
      "reat": 785,
      "ict": 786,
      "ĠCom": 787,
      "vel": 788,
      "aid": 789,
      "Ġinclud": 790,
      "12": 791,
      "sc": 792,
      "Ġund": 793,
      "ĠNew": 794,
      "ource": 795,
      "ences": 796,
      "Ġshe": 797,
      "->": 798,
      "Ġbec": 799,
      "red": 800,
      "oot": 801,
      "inal": 802,
      "pr": 803,
      "ased": 804,
      "ix": 805,
      "Ġget": 806,
      "ward": 807,
      "Ġkn": 808,
      "ield": 809,
      "ĉĉĉĉ": 810,
      "Ġind": 811,
      "Ġass": 812,
      "ual": 813,
      "round": 814,
      "ve": 815,
      "Ġ</": 816,
      "_{": 817,
      "Ġdef": 818,
      "ious": 819,
      "ption": 820,
      "Ġafter": 821,
      "::": 822,
      "pect": 823,
      "tt": 824,
      "olog": 825,
      "ax": 826,
      "Ġthan": 827,
      "Ġthere": 828,
      "ĠMar": 829,
      "Ġset": 830,
      "orld": 831,
      "Ġsup": 832,
      "Ġact": 833,
      "Ġpeople": 834,
      "Ġsome": 835,
      "ood": 836,
      "../": 837,
      "ize": 838,
      "Ġinter": 839,
      "uring": 840,
      "Ġbet": 841,
      "ĠSe": 842,
      "Ġ@": 843,
      "Ġ/": 844,
      "ystem": 845,
      "Ġany": 846,
      "par": 847,
      "ys": 848,
      "Ġfil": 849,
      "Ġatt": 850,
      "ific": 851,
      "eb": 852,
      "ames": 853,
      "ident": 854,
      "Ġpublic": 855,
      "15": 856,
      "wn": 857,
      "Ġonly": 858,
      "16": 859,
      "ren": 860,
      "Ġ.": 861,
      "Ġfl": 862,
      "ĠAl": 863,
      "ove": 864,
      "17": 865,
      "Ġunder": 866,
      "Ġreg": 867,
      "ann": 868,
      "Ġop": 869,
      "let": 870,
      "Ġbl": 871,
      "Ġname": 872,
      "ative": 873,
      "Ġfe": 874,
      "Ġcol": 875,
      "ement": 876,
      "Ġbu": 877,
      "ty": 878,
      "pos": 879,
      "Ġ+": 880,
      "ale": 881,
      "Ġthem": 882,
      "put": 883,
      "chool": 884,
      "ities": 885,
      "ah": 886,
      "Ġob": 887,
      "ĠPro": 888,
      "198": 889,
      "Ġno": 890,
      "lement": 891,
      "ular": 892,
      "Ġam": 893,
      "Ġserv": 894,
      "ise": 895,
      "ating": 896,
      "rough": 897,
      "ĠAmeric": 898,
      "Ġsub": 899,
      "Ġadd": 900,
      "Ġend": 901,
      "Ref": 902,
      "the": 903,
      "ml": 904,
      "roup": 905,
      "ĠSh": 906,
      "Ġwhere": 907,
      "az": 908,
      "Ġhim": 909,
      "ough": 910,
      "Ġcons": 911,
      "che": 912,
      "ĠThis": 913,
      "Ġsaid": 914,
      "Ġinv": 915,
      "ts": 916,
      "cre": 917,
      "ash": 918,
      "Ġpol": 919,
      "Ġloc": 920,
      "Ġ$\\": 921,
      "ange": 922,
      "Ġvar": 923,
      "oth": 924,
      "ily": 925,
      "oh": 926,
      "(\"": 927,
      "essage": 928,
      "11": 929,
      "arg": 930,
      "ton": 931,
      "cent": 932,
      "Ġtrans": 933,
      "Ġrel": 934,
      "ason": 935,
      "();": 936,
      "nc": 937,
      "ists": 938,
      "set": 939,
      "cond": 940,
      "ished": 941,
      "Ġmod": 942,
      "ollow": 943,
      "ins": 944,
      "app": 945,
      "air": 946,
      "ower": 947,
      "ife": 948,
      "Ġlike": 949,
      "Ġmost": 950,
      "Ġyour": 951,
      "irect": 952,
      "...": 953,
      "ient": 954,
      "Ġour": 955,
      "gan": 956,
      "resent": 957,
      "Ġrem": 958,
      "Ġmay": 959,
      "atch": 960,
      "ral": 961,
      "ision": 962,
      "Th": 963,
      "Ġback": 964,
      "Ġprov": 965,
      "ars": 966,
      "err": 967,
      "att": 968,
      "ues": 969,
      "umber": 970,
      "Ġem": 971,
      "itt": 972,
      "Ġconst": 973,
      "Ġstud": 974,
      "hip": 975,
      "Ġthrough": 976,
      "ee": 977,
      "ince": 978,
      "Ġyears": 979,
      "math": 980,
      "ank": 981,
      "der": 982,
      "Ġpos": 983,
      "its": 984,
      "ER": 985,
      "min": 986,
      "div": 987,
      "ures": 988,
      "Ġph": 989,
      "Refer": 990,
      "Ġspec": 991,
      "',": 992,
      "Ġagain": 993,
      "span": 994,
      "ween": 995,
      "ution": 996,
      "Ġco": 997,
      "eng": 998,
      "14": 999,
      "13": 1000,
      "Ġthen": 1001,
      "ning": 1002,
      "ball": 1003,
      "Ġfunction": 1004,
      "ĠTr": 1005,
      "oid": 1006,
      "ox": 1007,
      "></": 1008,
      "Ġinst": 1009,
      "iversity": 1010,
      "ma": 1011,
      "ause": 1012,
      "Ġjust": 1013,
      "197": 1014,
      "duc": 1015,
      "raph": 1016,
      "Ġwhat": 1017,
      "Ġsuch": 1018,
      "Ġcall": 1019,
      "--------": 1020,
      "Ġent": 1021,
      "ator": 1022,
      "ĠCl": 1023,
      "oci": 1024,
      "atic": 1025,
      "ray": 1026,
      "Ġ:": 1027,
      "to": 1028,
      "References": 1029,
      "els": 1030,
      "way": 1031,
      "ier": 1032,
      "cc": 1033,
      "key": 1034,
      "Ġdif": 1035,
      "ĠAn": 1036,
      "ract": 1037,
      "orth": 1038,
      "ines": 1039,
      "ouse": 1040,
      "Ġshow": 1041,
      "Ġform": 1042,
      "Ġused": 1043,
      "ĠZ": 1044,
      "au": 1045,
      "eter": 1046,
      "right": 1047,
      "ility": 1048,
      "Pro": 1049,
      "Ġbetween": 1050,
      "any": 1051,
      "emb": 1052,
      "Ġhow": 1053,
      "Ġmy": 1054,
      "ck": 1055,
      "Ġever": 1056,
      "30": 1057,
      "outh": 1058,
      "ead": 1059,
      "other": 1060,
      "lection": 1061,
      "ute": 1062,
      "equ": 1063,
      "erson": 1064,
      "ner": 1065,
      "Ġwell": 1066,
      "line": 1067,
      "ible": 1068,
      "ruct": 1069,
      "ury": 1070,
      "Ġfollow": 1071,
      "><": 1072,
      "fl": 1073,
      "****": 1074,
      "Ġgr": 1075,
      "uth": 1076,
      "ĠInd": 1077,
      "IN": 1078,
      "fig": 1079,
      "hen": 1080,
      "oad": 1081,
      "ature": 1082,
      "ym": 1083,
      "rent": 1084,
      "://": 1085,
      "son": 1086,
      "Ch": 1087,
      "ON": 1088,
      "}}": 1089,
      "vent": 1090,
      "led": 1091,
      "25": 1092,
      "Ġ*/": 1093,
      "text": 1094,
      "Ġart": 1095,
      "ik": 1096,
      "../../": 1097,
      "ĠSc": 1098,
      "pon": 1099,
      "Ġdata": 1100,
      "Ġdist": 1101,
      "Ġser": 1102,
      "ternal": 1103,
      "ern": 1104,
      "Ġbeing": 1105,
      "'t": 1106,
      "aj": 1107,
      "ices": 1108,
      "Ġresult": 1109,
      "ages": 1110,
      "uss": 1111,
      "Ġ#": 1112,
      "====": 1113,
      "Ġthese": 1114,
      "ĠQ": 1115,
      "Ġfound": 1116,
      "Ġcent": 1117,
      "imes": 1118,
      "Ġuse": 1119,
      "Ġed": 1120,
      "Ġteam": 1121,
      "read": 1122,
      "196": 1123,
      "^{": 1124,
      "Ġrequ": 1125,
      "21": 1126,
      "Ġline": 1127,
      "Ġacc": 1128,
      "Ġcould": 1129,
      "Ġchar": 1130,
      "fore": 1131,
      "ĠFr": 1132,
      "Ġel": 1133,
      "Ġmade": 1134,
      "ĠCol": 1135,
      "ey": 1136,
      "day": 1137,
      "Ġsur": 1138,
      "fr": 1139,
      "col": 1140,
      "ĠWh": 1141,
      "ĉĉĉ": 1142,
      "ĠDe": 1143,
      "html": 1144,
      "Ġear": 1145,
      "ider": 1146,
      "arch": 1147,
      "ble": 1148,
      "Ġstart": 1149,
      "Ġfam": 1150,
      "ĠAmerican": 1151,
      "Ġcur": 1152,
      "ism": 1153,
      "ethod": 1154,
      ".\"": 1155,
      "Ġsign": 1156,
      "Ġduring": 1157,
      "ather": 1158,
      "ever": 1159,
      "iving": 1160,
      "ives": 1161,
      "this": 1162,
      "ten": 1163,
      "ĠĠĠĠĠĠĠĠĠ": 1164,
      "ments": 1165,
      "22": 1166,
      "Str": 1167,
      "Ġsm": 1168,
      "ron": 1169,
      "Ġcount": 1170,
      "Ġmany": 1171,
      "ĠĠĠĠĠĠĠĠĠĠĠĠĠĠĠĠĠĠĠ": 1172,
      "Ġgener": 1173,
      "Ġcre": 1174,
      "ized": 1175,
      "000": 1176,
      "Ġthree": 1177,
      "Ġsystem": 1178,
      "Ġext": 1179,
      "ets": 1180,
      "ĠUniversity": 1181,
      "ants": 1182,
      "('": 1183,
      "Ġown": 1184,
      "Ġtype": 1185,
      "Ġbefore": 1186,
      "usic": 1187,
      "Ġmed": 1188,
      "ww": 1189,
      "ina": 1190,
      "Ġlong": 1191,
      "iver": 1192,
      "Ġmin": 1193,
      "ĠCon": 1194,
      "aking": 1195,
      "Ġhref": 1196,
      "tain": 1197,
      "ĠAd": 1198,
      "ĠLe": 1199,
      "ful": 1200,
      "by": 1201,
      "ĠIs": 1202,
      "Ġhigh": 1203,
      "view": 1204,
      "Ġlead": 1205,
      "of": 1206,
      "))": 1207,
      "Ġnow": 1208,
      "Ã©": 1209,
      "Ġeff": 1210,
      "Ġest": 1211,
      "ĠFor": 1212,
      "ired": 1213,
      "Ġwhile": 1214,
      "Ġneed": 1215,
      "Ġsecond": 1216,
      "Ġdid": 1217,
      "}\\": 1218,
      "ple": 1219,
      "ript": 1220,
      "Ġgu": 1221,
      "ĠUnited": 1222,
      "50": 1223,
      "Ġdiffer": 1224,
      "Ġmon": 1225,
      "ting": 1226,
      "ĠSp": 1227,
      "Com": 1228,
      "ĠWe": 1229,
      "Ġi": 1230,
      "__": 1231,
      "ology": 1232,
      "Ġpar": 1233,
      "ĠBl": 1234,
      "Ġrele": 1235,
      "Ġstr": 1236,
      "Ġsee": 1237,
      "velop": 1238,
      "}$": 1239,
      "RE": 1240,
      "ined": 1241,
      "ohn": 1242,
      "abel": 1243,
      "Ġnumber": 1244,
      "Name": 1245,
      "Ġvalue": 1246,
      "ley": 1247,
      "Ġright": 1248,
      "ĠEx": 1249,
      "source": 1250,
      "ache": 1251,
      "gram": 1252,
      "Ġexp": 1253,
      "ĠShe": 1254,
      "ĠPh": 1255,
      "ĠAs": 1256,
      "ĠAnd": 1257,
      "Ġdr": 1258,
      "ober": 1259,
      "ST": 1260,
      "trans": 1261,
      "name": 1262,
      "Ġdec": 1263,
      "Ġdevelop": 1264,
      "Ġmov": 1265,
      "Ġpoint": 1266,
      "plic": 1267,
      "message": 1268,
      "Ġsim": 1269,
      "ience": 1270,
      "AT": 1271,
      "It": 1272,
      "yle": 1273,
      "Ġbr": 1274,
      "enn": 1275,
      "Type": 1276,
      "Ġboth": 1277,
      "Ġoper": 1278,
      "ody": 1279,
      "td": 1280,
      "lation": 1281,
      "uff": 1282,
      "ument": 1283,
      "af": 1284,
      "Ġevery": 1285,
      "Ġwrit": 1286,
      "ural": 1287,
      "ross": 1288,
      "24": 1289,
      "une": 1290,
      "cept": 1291,
      "ĠComm": 1292,
      "Ġshould": 1293,
      "istory": 1294,
      "ived": 1295,
      "ional": 1296,
      "Ġmake": 1297,
      "Con": 1298,
      "ared": 1299,
      "omen": 1300,
      "ĠEng": 1301,
      "ott": 1302,
      "itle": 1303,
      "ister": 1304,
      "import": 1305,
      "Ġrun": 1306,
      "Ġbel": 1307,
      "Ġsame": 1308,
      "ole": 1309,
      "Ġdirect": 1310,
      "Ġsing": 1311,
      "ĠPl": 1312,
      "ask": 1313,
      "Ġfin": 1314,
      "ĠMay": 1315,
      "duct": 1316,
      "Id": 1317,
      "Ġsupport": 1318,
      "Ġbecause": 1319,
      "Ġhel": 1320,
      "194": 1321,
      "Ġeven": 1322,
      "self": 1323,
      "Ġlist": 1324,
      "Ar": 1325,
      "ersion": 1326,
      "br": 1327,
      "alse": 1328,
      "Ġeach": 1329,
      "param": 1330,
      "âĢľ": 1331,
      "Ġknow": 1332,
      "ually": 1333,
      "Cont": 1334,
      "chn": 1335,
      "inks": 1336,
      "ital": 1337,
      "Ġread": 1338,
      "Ġself": 1339,
      "String": 1340,
      "formation": 1341,
      "ounc": 1342,
      "Cl": 1343,
      "alth": 1344,
      "Ġagainst": 1345,
      "Ġrep": 1346,
      "Ġlast": 1347,
      "ane": 1348,
      "uro": 1349,
      "Ġpop": 1350,
      "abl": 1351,
      "Ġworld": 1352,
      "ault": 1353,
      "Ġcar": 1354,
      "2019": 1355,
      "AR": 1356,
      "ically": 1357,
      "add": 1358,
      "Ġcap": 1359,
      "esc": 1360,
      "iness": 1361,
      "htt": 1362,
      "til": 1363,
      "rict": 1364,
      ".âĢĿ": 1365,
      "ĠâĢĶ": 1366,
      "2018": 1367,
      "Ġrecord": 1368,
      "Ġvery": 1369,
      "Ġfilm": 1370,
      "ctions": 1371,
      "ĠOn": 1372,
      "org": 1373,
      "ces": 1374,
      "ootball": 1375,
      "ta": 1376,
      "yn": 1377,
      "ception": 1378,
      "Ġbuild": 1379,
      "yp": 1380,
      "Ġ=>": 1381,
      "Ġdown": 1382,
      "Ġstate": 1383,
      "Ġincluding": 1384,
      "egin": 1385,
      "ote": 1386,
      "arm": 1387,
      "return": 1388,
      "Ġway": 1389,
      "work": 1390,
      "23": 1391,
      "back": 1392,
      "ĠRe": 1393,
      "ĠPr": 1394,
      "Ġschool": 1395,
      "rol": 1396,
      "Ġperform": 1397,
      "Res": 1398,
      "ĠBr": 1399,
      "Ġlook": 1400,
      "ek": 1401,
      "gy": 1402,
      "ivate": 1403,
      "Ġter": 1404,
      "ĠOr": 1405,
      "Ġsl": 1406,
      "OR": 1407,
      "Ġdisc": 1408,
      "ains": 1409,
      "Ġhand": 1410,
      "(\\": 1411,
      "ai": 1412,
      "alk": 1413,
      "Ġtest": 1414,
      "Ġdoes": 1415,
      "Ġgame": 1416,
      "Ġmain": 1417,
      "ission": 1418,
      "},": 1419,
      "ense": 1420,
      "Ġappe": 1421,
      "ĠStates": 1422,
      "ĠJohn": 1423,
      "Ġfour": 1424,
      "ths": 1425,
      "/>": 1426,
      "ream": 1427,
      "Ġapp": 1428,
      "bl": 1429,
      "Ġseason": 1430,
      "ograph": 1431,
      "Ġplayers": 1432,
      "Ġchild": 1433,
      "str": 1434,
      "class": 1435,
      "Ġlife": 1436,
      "ĠCount": 1437,
      "List": 1438,
      "Ġopen": 1439,
      "rop": 1440,
      "ird": 1441,
      "nment": 1442,
      "ght": 1443,
      "Ġcommun": 1444,
      "dd": 1445,
      "Ġthose": 1446,
      "Ġexper": 1447,
      "iev": 1448,
      "Âł": 1449,
      "ats": 1450,
      "Ġdesc": 1451,
      "):": 1452,
      "iven": 1453,
      "Ġcase": 1454,
      "ven": 1455,
      ".,": 1456,
      "Ġcontin": 1457,
      "ĠCar": 1458,
      "Ġcare": 1459,
      "Ġpass": 1460,
      "def": 1461,
      "Ġ!": 1462,
      "mp": 1463,
      "Tr": 1464,
      "code": 1465,
      "EN": 1466,
      "Ġreport": 1467,
      "Ġhead": 1468,
      "ele": 1469,
      "Ġgover": 1470,
      "ule": 1471,
      "Ġdep": 1472,
      "begin": 1473,
      "uly": 1474,
      "ety": 1475,
      "Ġmuch": 1476,
      "akes": 1477,
      "rem": 1478,
      "ium": 1479,
      "ified": 1480,
      "usiness": 1481,
      "med": 1482,
      "bum": 1483,
      "Ġpartic": 1484,
      "Ġcor": 1485,
      "Ġlater": 1486,
      "Ġann": 1487,
      "Ġimp": 1488,
      "ternational": 1489,
      "uck": 1490,
      "##": 1491,
      "Ġappro": 1492,
      "ency": 1493,
      "ization": 1494,
      "rist": 1495,
      "Ġdifferent": 1496,
      "ality": 1497,
      "ĠWorld": 1498,
      "reen": 1499,
      "erman": 1500,
      "Ġdesign": 1501,
      "195": 1502,
      "Ġval": 1503,
      "ially": 1504,
      "my": 1505,
      "ior": 1506,
      "Ġche": 1507,
      "Ġlinks": 1508,
      "fo": 1509,
      "Ġbook": 1510,
      "Ġav": 1511,
      "ĠAss": 1512,
      "urch": 1513,
      "ĠYou": 1514,
      "ague": 1515,
      "\"/>": 1516,
      "ped": 1517,
      "ĠCan": 1518,
      "2017": 1519,
      "oard": 1520,
      "que": 1521,
      "Ġfinal": 1522,
      "ness": 1523,
      "On": 1524,
      "ĠJan": 1525,
      "bs": 1526,
      "Ġgood": 1527,
      "ĠCent": 1528,
      "2016": 1529,
      "ger": 1530,
      "co": 1531,
      "Ġknown": 1532,
      "arent": 1533,
      "Ġrece": 1534,
      "Ġgroup": 1535,
      "amb": 1536,
      "val": 1537,
      "type": 1538,
      "26": 1539,
      "Ġperson": 1540,
      "ĠNational": 1541,
      "Ġ_": 1542,
      "Ġaround": 1543,
      "AL": 1544,
      "Ġwin": 1545,
      "\".": 1546,
      "ulation": 1547,
      "ample": 1548,
      "cal": 1549,
      "Ġsince": 1550,
      "por": 1551,
      "Ġorig": 1552,
      "ĠAll": 1553,
      "28": 1554,
      "ĠAust": 1555,
      "ĠUS": 1556,
      "Ġmet": 1557,
      "Ġpres": 1558,
      "Ġfind": 1559,
      "Ġstill": 1560,
      "Ġcr": 1561,
      "uthor": 1562,
      "ĠX": 1563,
      "ID": 1564,
      "ĠGr": 1565,
      "Ġusing": 1566,
      "Ġseries": 1567,
      "side": 1568,
      "embers": 1569,
      "ians": 1570,
      "ĠRes": 1571,
      "27": 1572,
      "itions": 1573,
      "uccess": 1574,
      "ĠNov": 1575,
      "Ġprogram": 1576,
      "ĠHow": 1577,
      "Ġfamily": 1578,
      "oss": 1579,
      "Ġgl": 1580,
      "ĠYork": 1581,
      "External": 1582,
      "Ġ>": 1583,
      "Ġsol": 1584,
      "ĠWar": 1585,
      "translation": 1586,
      "Ġcurrent": 1587,
      "umm": 1588,
      "Ġtop": 1589,
      "Ġbro": 1590,
      "Ġcour": 1591,
      "Ġdon": 1592,
      "iam": 1593,
      "2015": 1594,
      "ised": 1595,
      "mod": 1596,
      "Ġmark": 1597,
      "for": 1598,
      "Ġvoid": 1599,
      "aining": 1600,
      "aving": 1601,
      "_{\\": 1602,
      "ler": 1603,
      "Ġday": 1604,
      "100": 1605,
      "Ġwant": 1606,
      "left": 1607,
      "Ġtrue": 1608,
      "Ġvis": 1609,
      "2014": 1610,
      "Ġequ": 1611,
      "aces": 1612,
      "ĠThey": 1613,
      "Ġhere": 1614,
      "Ġprof": 1615,
      "ĠMan": 1616,
      "Ġmusic": 1617,
      "AS": 1618,
      "Ġplace": 1619,
      "Ġpolit": 1620,
      "ush": 1621,
      "ases": 1622,
      "Ġfr": 1623,
      "ify": 1624,
      "Ġ==": 1625,
      "ser": 1626,
      "lex": 1627,
      "arget": 1628,
      "Ġfollowing": 1629,
      "loc": 1630,
      "ĠSchool": 1631,
      "Ġfact": 1632,
      "Ġimport": 1633,
      "Ġpost": 1634,
      "be": 1635,
      "lear": 1636,
      "Ġprocess": 1637,
      "Ġorgan": 1638,
      "ĠAug": 1639,
      "play": 1640,
      "ows": 1641,
      ")$": 1642,
      "Ġnull": 1643,
      "roll": 1644,
      "irc": 1645,
      "LE": 1646,
      "ided": 1647,
      "AN": 1648,
      "reg": 1649,
      "perty": 1650,
      "Ġsmall": 1651,
      "Ġcharact": 1652,
      "Ġtake": 1653,
      "cur": 1654,
      "ides": 1655,
      "29": 1656,
      "uild": 1657,
      "ĠOct": 1658,
      "illion": 1659,
      "Ġoffic": 1660,
      "Ġelect": 1661,
      "umn": 1662,
      "Ġlaw": 1663,
      "Ġevent": 1664,
      "}{": 1665,
      "Ġalbum": 1666,
      "uary": 1667,
      "ots": 1668,
      "ourn": 1669,
      "Ġsom": 1670,
      "arn": 1671,
      "ajor": 1672,
      "Ġfield": 1673,
      "Un": 1674,
      "40": 1675,
      "Ġsever": 1676,
      "ene": 1677,
      "Ġthink": 1678,
      "This": 1679,
      "ĠAt": 1680,
      "inc": 1681,
      "aster": 1682,
      "Ġcalled": 1683,
      "ĠBe": 1684,
      "Ġbre": 1685,
      "ĠPar": 1686,
      "ength": 1687,
      "bar": 1688,
      "ends": 1689,
      "pre": 1690,
      "Ġelse": 1691,
      "wards": 1692,
      "ĠBrit": 1693,
      "Ġuntil": 1694,
      "Ġorder": 1695,
      "Ġfootball": 1696,
      "ĠApr": 1697,
      "ponse": 1698,
      "var": 1699,
      "duction": 1700,
      "An": 1701,
      "Ġ)": 1702,
      "Ġinformation": 1703,
      "yl": 1704,
      "ĠCounty": 1705,
      "Ġpat": 1706,
      "ration": 1707,
      "To": 1708,
      "ĠMarch": 1709,
      "2013": 1710,
      "2010": 1711,
      "ĠPol": 1712,
      "ope": 1713,
      "ĠSouth": 1714,
      "idth": 1715,
      "Ġlocal": 1716,
      "Ġpower": 1717,
      "Ġbest": 1718,
      "oman": 1719,
      "idd": 1720,
      "Ġstat": 1721,
      "Ġref": 1722,
      "Ġpresent": 1723,
      "Ġsong": 1724,
      "Ġmar": 1725,
      "ĠJuly": 1726,
      "Ġdel": 1727,
      "We": 1728,
      "ĠBut": 1729,
      "ptember": 1730,
      "vious": 1731,
      "Ġ--": 1732,
      "2012": 1733,
      "Ġhome": 1734,
      "Wh": 1735,
      "193": 1736,
      "ĠJune": 1737,
      "angu": 1738,
      "Ġnon": 1739,
      "Ġestabl": 1740,
      "opt": 1741,
      "Ġdet": 1742,
      "ports": 1743,
      "umb": 1744,
      "Ġeffect": 1745,
      "Ġstand": 1746,
      "eta": 1747,
      "ribut": 1748,
      ",âĢĿ": 1749,
      "hes": 1750,
      "ava": 1751,
      "Ġadv": 1752,
      "error": 1753,
      "ĠTe": 1754,
      "Ġleft": 1755,
      "ained": 1756,
      "Ġold": 1757,
      "Ġrest": 1758,
      "ĠEuro": 1759,
      "ival": 1760,
      "Ġarea": 1761,
      "amed": 1762,
      "Ġke": 1763,
      "less": 1764,
      "arge": 1765,
      "Ġdeath": 1766,
      "2011": 1767,
      "ĠIf": 1768,
      "Ġleg": 1769,
      "Ġprot": 1770,
      "\")": 1771,
      "face": 1772,
      "olv": 1773,
      "label": 1774,
      "here": 1775,
      "ales": 1776,
      "ĠFl": 1777,
      "As": 1778,
      "Ġmethod": 1779,
      "Ġbecame": 1780,
      "ried": 1781,
      "ĠAm": 1782,
      "raw": 1783,
      "ended": 1784,
      "Ġiss": 1785,
      "Ġhelp": 1786,
      "ately": 1787,
      "ively": 1788,
      "cont": 1789,
      "etwork": 1790,
      "ison": 1791,
      "\"><": 1792,
      "Ġincre": 1793,
      "ĠMin": 1794,
      "ĠâĢĺ": 1795,
      "Ġfalse": 1796,
      "gr": 1797,
      "He": 1798,
      "Ġprom": 1799,
      "ung": 1800,
      "ference": 1801,
      "Ġnear": 1802,
      "Ġlevel": 1803,
      "By": 1804,
      "ries": 1805,
      "Ġbased": 1806,
      "âĢ¦": 1807,
      "Ġposs": 1808,
      "âĢĶ": 1809,
      "ump": 1810,
      "Ġx": 1811,
      "ĠGu": 1812,
      "duced": 1813,
      "Ġnext": 1814,
      "ĠCo": 1815,
      "Ġanother": 1816,
      "itor": 1817,
      "Ġexpl": 1818,
      "Ġ`": 1819,
      "ĠGe": 1820,
      "IT": 1821,
      "ocial": 1822,
      "rm": 1823,
      "ering": 1824,
      "ony": 1825,
      "ror": 1826,
      "Ġsay": 1827,
      "ĠAugust": 1828,
      "ords": 1829,
      "Ġbir": 1830,
      "ĠState": 1831,
      "Ġmanag": 1832,
      "ĠAp": 1833,
      "new": 1834,
      "ney": 1835,
      "field": 1836,
      "me": 1837,
      "Ġmat": 1838,
      "ĠApril": 1839,
      "Ġgreat": 1840,
      "ected": 1841,
      "ervice": 1842,
      "aim": 1843,
      "ĠCity": 1844,
      "lege": 1845,
      "Col": 1846,
      "ĠSeptember": 1847,
      "Ġdem": 1848,
      "Ġconsider": 1849,
      "ling": 1850,
      "uman": 1851,
      "Ġreal": 1852,
      "head": 1853,
      "mber": 1854,
      "frac": 1855,
      "Ġprivate": 1856,
      "ilt": 1857,
      "Ġproject": 1858,
      "Ġeng": 1859,
      "ored": 1860,
      "ought": 1861,
      "Al": 1862,
      "ĠEd": 1863,
      "istor": 1864,
      "ĠĠĠĠĠĠĠĠĠĠĠĠĠĠĠĠĠĠĠĠĠĠĠ": 1865,
      "acy": 1866,
      "Ġtechn": 1867,
      "ĠOctober": 1868,
      "leg": 1869,
      "ĠCal": 1870,
      "ĠJanuary": 1871,
      "Ġcity": 1872,
      "AC": 1873,
      "Ġalong": 1874,
      "Ġcompany": 1875,
      "Ġwon": 1876,
      "urs": 1877,
      "ploy": 1878,
      "Ġsk": 1879,
      "ground": 1880,
      "********": 1881,
      "ording": 1882,
      "Ġgovernment": 1883,
      "Ġwithin": 1884,
      "ideo": 1885,
      "Sh": 1886,
      "Ġland": 1887,
      "Ġinc": 1888,
      "ape": 1889,
      "Ġocc": 1890,
      "ĠĠĠĠĠĠĠĠĠĠĠĠĠ": 1891,
      "eq": 1892,
      "not": 1893,
      "epend": 1894,
      "----------------": 1895,
      "uk": 1896,
      "ĠNorth": 1897,
      "Ġwomen": 1898,
      "cember": 1899,
      "ilit": 1900,
      "Ġtitle": 1901,
      "Ġid": 1902,
      "bject": 1903,
      "ĠMed": 1904,
      "ĠFeb": 1905,
      "ently": 1906,
      "Ġbusiness": 1907,
      "aint": 1908,
      "gin": 1909,
      "ered": 1910,
      "ĠGerman": 1911,
      "off": 1912,
      "Ġseveral": 1913,
      "Ġgiven": 1914,
      "string": 1915,
      "ĠAustral": 1916,
      "Ġret": 1917,
      "ĠWill": 1918,
      "Ġspe": 1919,
      "Ġfew": 1920,
      "Ġsuccess": 1921,
      "Ġmust": 1922,
      "sub": 1923,
      "\");": 1924,
      "data": 1925,
      "ES": 1926,
      "ament": 1927,
      "Ġearly": 1928,
      "ĠReg": 1929,
      "32": 1930,
      "Ġexpect": 1931,
      "iter": 1932,
      "ways": 1933,
      "ued": 1934,
      "ĠEurope": 1935,
      "vers": 1936,
      "apt": 1937,
      "Ġformer": 1938,
      "lish": 1939,
      "ĠNo": 1940,
      "oun": 1941,
      "ĠChrist": 1942,
      "ories": 1943,
      "Ġdescrib": 1944,
      "2009": 1945,
      "Ġobject": 1946,
      "requ": 1947,
      "iron": 1948,
      "Data": 1949,
      "time": 1950,
      "date": 1951,
      "Value": 1952,
      "search": 1953,
      "hern": 1954,
      "ĠRep": 1955,
      "Ġwithout": 1956,
      "ches": 1957,
      "ems": 1958,
      "icle": 1959,
      "ocument": 1960,
      "ampions": 1961,
      "Ġmembers": 1962,
      "60": 1963,
      "ae": 1964,
      "Ġstring": 1965,
      "Ġturn": 1966,
      "unc": 1967,
      "ĠNovember": 1968,
      "Ġkey": 1969,
      "ĠMc": 1970,
      "raft": 1971,
      "ittle": 1972,
      "ĠAf": 1973,
      "used": 1974,
      "value": 1975,
      "ailable": 1976,
      "ĠAir": 1977,
      "comm": 1978,
      "For": 1979,
      "Ġpubl": 1980,
      "itional": 1981,
      "conom": 1982,
      "ĠHar": 1983,
      "ruary": 1984,
      "ĠAb": 1985,
      "wit": 1986,
      "Ġopt": 1987,
      "2008": 1988,
      "load": 1989,
      "Ġview": 1990,
      "Ġz": 1991,
      "urther": 1992,
      "Ġmajor": 1993,
      "Ġinterest": 1994,
      "Ġbeh": 1995,
      "ĠBar": 1996,
      "));": 1997,
      "Ġinvest": 1998,
      "ĠDecember": 1999,
      "ada": 2000,
      "aced": 2001,
      "Ind": 2002,
      "ances": 2003,
      "ability": 2004,
      "Ġaut": 2005,
      "Ġpo": 2006,
      "Ġ,": 2007,
      "Ġinit": 2008,
      "Sc": 2009,
      "ĠPart": 2010,
      "roid": 2011,
      "ination": 2012,
      "ham": 2013,
      "ateg": 2014,
      "stit": 2015,
      "Ġchang": 2016,
      "nb": 2017,
      "http": 2018,
      "ĠThere": 2019,
      "Ġsays": 2020,
      "Ġla": 2021,
      "ured": 2022,
      "lev": 2023,
      "Ġservice": 2024,
      "iod": 2025,
      "ana": 2026,
      "Ġsingle": 2027,
      "Ġplayed": 2028,
      "ription": 2029,
      "ential": 2030,
      "IC": 2031,
      "Ġweek": 2032,
      "80": 2033,
      "Ġcompet": 2034,
      "ones": 2035,
      "Ġshort": 2036,
      "ention": 2037,
      "Ġtem": 2038,
      "Ġmult": 2039,
      "Ġrepresent": 2040,
      "action": 2041,
      "ĠĠĠĠĠĠ": 2042,
      "ris": 2043,
      "Ġstruct": 2044,
      "order": 2045,
      "alf": 2046,
      "rew": 2047,
      "////": 2048,
      "Ġreleased": 2049,
      "Ġallow": 2050,
      "Ġdev": 2051,
      "ustom": 2052,
      "Ġinclude": 2053,
      "ware": 2054,
      "ards": 2055,
      "AM": 2056,
      "EC": 2057,
      "aut": 2058,
      "anguage": 2059,
      "go": 2060,
      "Se": 2061,
      "apan": 2062,
      "aff": 2063,
      "Ġgrow": 2064,
      "Ġwar": 2065,
      "osp": 2066,
      "wh": 2067,
      "Ġgoing": 2068,
      "Ġarg": 2069,
      "ari": 2070,
      "ĠKing": 2071,
      "Ġtoo": 2072,
      "Ġcamp": 2073,
      "Ġchildren": 2074,
      "but": 2075,
      "$.": 2076,
      "Set": 2077,
      "})": 2078,
      "Ġ/**": 2079,
      "Ġlarge": 2080,
      "ĠSup": 2081,
      "cite": 2082,
      "Er": 2083,
      "Ġmodel": 2084,
      "ights": 2085,
      "Ġstory": 2086,
      "2007": 2087,
      "vert": 2088,
      "ĠII": 2089,
      "ources": 2090,
      "www": 2091,
      "ĠFebruary": 2092,
      "ĠDr": 2093,
      "ĠÂ": 2094,
      "Ġident": 2095,
      "bf": 2096,
      "Ġtook": 2097,
      "|-": 2098,
      "Ġwater": 2099,
      "iet": 2100,
      "========": 2101,
      "Ġmen": 2102,
      "ED": 2103,
      "ster": 2104,
      "color": 2105,
      "ilar": 2106,
      "ĠEl": 2107,
      "ours": 2108,
      "Ġins": 2109,
      "ze": 2110,
      "umer": 2111,
      "Ġactiv": 2112,
      "px": 2113,
      "da": 2114,
      "Ġdue": 2115,
      "nbsp": 2116,
      "ĠBritish": 2117,
      "ĠWest": 2118,
      "reet": 2119,
      "Ġaff": 2120,
      "ummary": 2121,
      "ĠTo": 2122,
      "Ġfull": 2123,
      "33": 2124,
      "$,": 2125,
      "opy": 2126,
      "Ġanal": 2127,
      "ift": 2128,
      "Ġhtt": 2129,
      "ino": 2130,
      "Ġnever": 2131,
      "Ġreally": 2132,
      "ography": 2133,
      "ĠĠĠĠĠĠĠĠĠĠĠĠĠĠĠĠĠĠĠĠĠĠĠĠĠĠĠĠĠĠĠĠ": 2134,
      "ably": 2135,
      "artment": 2136,
      "ification": 2137,
      "];": 2138,
      "ĠHer": 2139,
      "Ġtry": 2140,
      "itive": 2141,
      "ald": 2142,
      "ression": 2143,
      "agn": 2144,
      "Ġhistory": 2145,
      "stand": 2146,
      "Ġcond": 2147,
      "ondon": 2148,
      "($": 2149,
      "Ġet": 2150,
      "ogle": 2151,
      "Ġfore": 2152,
      "ending": 2153,
      "rite": 2154,
      "Ġput": 2155,
      "Ġlim": 2156,
      "Ġcountry": 2157,
      "aul": 2158,
      "inter": 2159,
      "Ġjo": 2160,
      "empt": 2161,
      "log": 2162,
      "ĠEn": 2163,
      "Ġport": 2164,
      "obal": 2165,
      "urg": 2166,
      "ced": 2167,
      "icy": 2168,
      "Exception": 2169,
      "ĠPres": 2170,
      "Ġproble": 2171,
      "Ph": 2172,
      "Ġhouse": 2173,
      "lected": 2174,
      "Ġhapp": 2175,
      "Ġresp": 2176,
      "ike": 2177,
      "Ġband": 2178,
      "cast": 2179,
      "aps": 2180,
      "64": 2181,
      "Ġtown": 2182,
      "Ġ&&": 2183,
      "ertain": 2184,
      "2006": 2185,
      "Ġair": 2186,
      "Ġstyle": 2187,
      "Ġconf": 2188,
      "Ġside": 2189,
      "born": 2190,
      "adem": 2191,
      "ĠAfter": 2192,
      "gest": 2193,
      "ille": 2194,
      "Ġgames": 2195,
      "Ġcharacter": 2196,
      "iles": 2197,
      "Ġcontrol": 2198,
      "ĠHowever": 2199,
      "eder": 2200,
      "ret": 2201,
      "ĠRuss": 2202,
      "Ġavailable": 2203,
      "ait": 2204,
      "ĠHis": 2205,
      "ief": 2206,
      "ĠArt": 2207,
      "Ġless": 2208,
      "Get": 2209,
      "Ġstatic": 2210,
      "Ġlet": 2211,
      "ĠLeague": 2212,
      "equation": 2213,
      "Ġtot": 2214,
      "Ġbig": 2215,
      "Ġmember": 2216,
      "pha": 2217,
      ",\"": 2218,
      "ivid": 2219,
      "oph": 2220,
      "rench": 2221,
      "viron": 2222,
      "ĠAg": 2223,
      "Pl": 2224,
      "uf": 2225,
      "ET": 2226,
      "ibr": 2227,
      "Ġauthor": 2228,
      "}.": 2229,
      "ese": 2230,
      "Ġrad": 2231,
      "Ġep": 2232,
      "ators": 2233,
      "Ġ///": 2234,
      "Ġvari": 2235,
      "Ġheld": 2236,
      "olution": 2237,
      "Ġfive": 2238,
      "Ġcomplet": 2239,
      "ume": 2240,
      "],": 2241,
      "Ġcrit": 2242,
      "CO": 2243,
      "Ġcell": 2244,
      "')": 2245,
      "IS": 2246,
      "ising": 2247,
      "Ġsit": 2248,
      "Re": 2249,
      "Ġca": 2250,
      "ampionship": 2251,
      "isc": 2252,
      "ails": 2253,
      "Ġfri": 2254,
      "posed": 2255,
      "Ġversion": 2256,
      "test": 2257,
      "Ġbo": 2258,
      "de": 2259,
      "Ġelement": 2260,
      "idge": 2261,
      "Ġcareer": 2262,
      "Not": 2263,
      "ĠDav": 2264,
      "const": 2265,
      "Ġtyp": 2266,
      "ither": 2267,
      "ĠGl": 2268,
      "Ġaccess": 2269,
      "sk": 2270,
      "Ġclos": 2271,
      "ĠAfric": 2272,
      "Ġlarg": 2273,
      "location": 2274,
      "Ġsize": 2275,
      "US": 2276,
      "Ġtri": 2277,
      "Ġchange": 2278,
      "AP": 2279,
      "ĠHouse": 2280,
      "ĠMe": 2281,
      "....": 2282,
      "file": 2283,
      "ĠChe": 2284,
      "rest": 2285,
      "ĠString": 2286,
      "See": 2287,
      "190": 2288,
      "oon": 2289,
      "thing": 2290,
      "Test": 2291,
      "Ġprofess": 2292,
      "ager": 2293,
      "ops": 2294,
      "Object": 2295,
      "Ġquest": 2296,
      "Ġeduc": 2297,
      "Ġfac": 2298,
      "ĠSer": 2299,
      "ruction": 2300,
      "RO": 2301,
      "Mod": 2302,
      "bb": 2303,
      "ĠPer": 2304,
      "Ġkill": 2305,
      "90": 2306,
      "ĠLondon": 2307,
      ",\\": 2308,
      "Ġproduct": 2309,
      "ouncil": 2310,
      "util": 2311,
      "Ġeas": 2312,
      "script": 2313,
      "atures": 2314,
      "Par": 2315,
      "ĠCor": 2316,
      "aterial": 2317,
      "2000": 2318,
      "View": 2319,
      "Ġtext": 2320,
      "35": 2321,
      "Ġsix": 2322,
      "Ġmillion": 2323,
      "Ġcover": 2324,
      "Im": 2325,
      "Ġcult": 2326,
      "Ġ!=": 2327,
      "Ġide": 2328,
      "Ġexample": 2329,
      "item": 2330,
      "31": 2331,
      "align": 2332,
      "ington": 2333,
      "LL": 2334,
      "ĠOff": 2335,
      "Ġ%": 2336,
      "dom": 2337,
      "na": 2338,
      "ĠAc": 2339,
      "Ġbegan": 2340,
      "rug": 2341,
      "Ġstudy": 2342,
      "Ġdi": 2343,
      "size": 2344,
      "ething": 2345,
      "ĠJapan": 2346,
      "aper": 2347,
      "().": 2348,
      "Ġyoung": 2349,
      "oney": 2350,
      "Ġfree": 2351,
      "Ġprevious": 2352,
      "Ġthird": 2353,
      "rc": 2354,
      "ĠEnglish": 2355,
      "ique": 2356,
      "list": 2357,
      "uture": 2358,
      "ĠChar": 2359,
      "Ap": 2360,
      "Ġvol": 2361,
      "ĠRec": 2362,
      "Ġtimes": 2363,
      "though": 2364,
      "New": 2365,
      "Ã¡": 2366,
      "rown": 2367,
      "Ġimportant": 2368,
      "ama": 2369,
      "ociation": 2370,
      "Ġage": 2371,
      "45": 2372,
      "Ġnational": 2373,
      "Ġarr": 2374,
      "ĠSch": 2375,
      "iol": 2376,
      "Ġdays": 2377,
      "Ġant": 2378,
      "Ġbas": 2379,
      "Ġcommunity": 2380,
      "ĠComp": 2381,
      "ĠCont": 2382,
      "ients": 2383,
      "ĠRev": 2384,
      "ready": 2385,
      "Ġperiod": 2386,
      "ĠPark": 2387,
      "ford": 2388,
      "Ġtrack": 2389,
      "Ġgot": 2390,
      "Ġoften": 2391,
      "Ġfile": 2392,
      "eople": 2393,
      "Ġposition": 2394,
      "ĠQu": 2395,
      "Ġhaving": 2396,
      "All": 2397,
      "mathcal": 2398,
      "}(": 2399,
      "Ġreceived": 2400,
      "ĠHigh": 2401,
      "Ġnamed": 2402,
      "ummer": 2403,
      "Ġbetter": 2404,
      "Americ": 2405,
      "irl": 2406,
      "Ġclaim": 2407,
      "Ġhealth": 2408,
      "ĠBy": 2409,
      "alt": 2410,
      "Ġfilms": 2411,
      "ĠDist": 2412,
      "Ġcontent": 2413,
      "].": 2414,
      "Ġenc": 2415,
      "Ġtarget": 2416,
      "imate": 2417,
      "Ġresults": 2418,
      "Ġclub": 2419,
      "Ġspecial": 2420,
      "Ġhard": 2421,
      "Ġamong": 2422,
      "());": 2423,
      "Ġrequest": 2424,
      "atus": 2425,
      "Ġcome": 2426,
      "ules": 2427,
      "serv": 2428,
      "ĠWith": 2429,
      "2005": 2430,
      "ĠIm": 2431,
      "iment": 2432,
      "irt": 2433,
      "Ġcame": 2434,
      "sw": 2435,
      "aken": 2436,
      "top": 2437,
      "ribute": 2438,
      "Ġbecome": 2439,
      "abor": 2440,
      "ION": 2441,
      "Man": 2442,
      "oice": 2443,
      "ves": 2444,
      "Ġrole": 2445,
      "Ġorg": 2446,
      "Ġdiv": 2447,
      "vironment": 2448,
      "box": 2449,
      "function": 2450,
      "ĠAct": 2451,
      "ĠBro": 2452,
      "Class": 2453,
      "70": 2454,
      "evel": 2455,
      "ples": 2456,
      "era": 2457,
      "Ġoriginal": 2458,
      "Ġgeneral": 2459,
      "ĠOne": 2460,
      "iction": 2461,
      "ams": 2462,
      "Or": 2463,
      "ĠLa": 2464,
      "ips": 2465,
      "ĠCollege": 2466,
      "Ġbuilding": 2467,
      "odes": 2468,
      "Ġoffer": 2469,
      "ilitary": 2470,
      "Ġattack": 2471,
      "Ġdevelopment": 2472,
      "Ġmight": 2473,
      "Ġgen": 2474,
      "eters": 2475,
      "earch": 2476,
      "includ": 2477,
      "Ġconc": 2478,
      "With": 2479,
      "ocr": 2480,
      "century": 2481,
      "Ġsite": 2482,
      "Ġhold": 2483,
      "Ġphot": 2484,
      "Ġlittle": 2485,
      "Ġtrad": 2486,
      "Ġcost": 2487,
      "And": 2488,
      "ĠAng": 2489,
      "ged": 2490,
      "ĠĠĠĠĊ": 2491,
      "Ġhig": 2492,
      "._": 2493,
      "Ġpract": 2494,
      "Ġrefer": 2495,
      "Ġbirths": 2496,
      "hold": 2497,
      "ension": 2498,
      "Error": 2499,
      "atter": 2500,
      "\";": 2501,
      "link": 2502,
      "ecut": 2503,
      "ners": 2504,
      "Ġbuilt": 2505,
      "Ġhuman": 2506,
      "Ġmeet": 2507,
      "ender": 2508,
      "ournal": 2509,
      "ĠInternational": 2510,
      "Ġkeep": 2511,
      "ĠSw": 2512,
      "Ġbase": 2513,
      "Ġsocial": 2514,
      "Ġparticular": 2515,
      "Ġpay": 2516,
      "uit": 2517,
      "public": 2518,
      "Ġcomb": 2519,
      "Ġleast": 2520,
      "Ġvill": 2521,
      "idence": 2522,
      "attle": 2523,
      "plication": 2524,
      "ailed": 2525,
      "ĠWilliam": 2526,
      "Ġmaking": 2527,
      "iff": 2528,
      "now": 2529,
      "eneral": 2530,
      "Ġfar": 2531,
      "Ġfund": 2532,
      "Ġbeliev": 2533,
      "ĠDep": 2534,
      "Ġaway": 2535,
      "DE": 2536,
      "Ġmean": 2537,
      "uration": 2538,
      "Ġtotal": 2539,
      "pert": 2540,
      "Ġalways": 2541,
      "Ġpopulation": 2542,
      "estern": 2543,
      "cher": 2544,
      "ogn": 2545,
      "ĉĉĉĉĉ": 2546,
      "yd": 2547,
      "Ġindust": 2548,
      "Ġlog": 2549,
      "Ġacross": 2550,
      "Ġrepl": 2551,
      "ran": 2552,
      "Ġbreak": 2553,
      "Ġpublished": 2554,
      "Ġinvolv": 2555,
      "ĠSm": 2556,
      "ĠEm": 2557,
      "js": 2558,
      "}^": 2559,
      "Ġnetwork": 2560,
      "Ġcreate": 2561,
      "American": 2562,
      "Ġsomething": 2563,
      "Ġlocated": 2564,
      "Ġask": 2565,
      "ector": 2566,
      "lin": 2567,
      "pen": 2568,
      "Ġresearch": 2569,
      "2020": 2570,
      "Ġvideo": 2571,
      "ĠMich": 2572,
      "nav": 2573,
      "part": 2574,
      "Ġelection": 2575,
      "Ġhost": 2576,
      "Ġmeas": 2577,
      "ĠPhil": 2578,
      "ĠSo": 2579,
      "Ġtoget": 2580,
      "ĠWhen": 2581,
      "Ġtogether": 2582,
      "roups": 2583,
      "nder": 2584,
      "ux": 2585,
      "Ġmarket": 2586,
      "Ġreview": 2587,
      "path": 2588,
      "index": 2589,
      "ipp": 2590,
      "ociety": 2591,
      ".</": 2592,
      "rick": 2593,
      "ands": 2594,
      "comp": 2595,
      "Ġsimilar": 2596,
      "eh": 2597,
      "Ġspace": 2598,
      "Ġworking": 2599,
      "most": 2600,
      "Ġappear": 2601,
      "Ġimpro": 2602,
      "ius": 2603,
      "ett": 2604,
      "dis": 2605,
      "ply": 2606,
      "ological": 2607,
      "['": 2608,
      "elta": 2609,
      "Ġplayer": 2610,
      "ĠThat": 2611,
      "99": 2612,
      "Ġalready": 2613,
      "ĠSystem": 2614,
      "asc": 2615,
      "2004": 2616,
      "Key": 2617,
      "Ġexist": 2618,
      "oor": 2619,
      "Ġlight": 2620,
      "icro": 2621,
      "gress": 2622,
      "Ġthings": 2623,
      "Ġlow": 2624,
      "alpha": 2625,
      "Ġstarted": 2626,
      "Ġestablished": 2627,
      "Ġincluded": 2628,
      "ael": 2629,
      "\":": 2630,
      "ĠAmerica": 2631,
      "Ġpast": 2632,
      "Ġwent": 2633,
      "ĠPresident": 2634,
      "book": 2635,
      "Ġpri": 2636,
      "ached": 2637,
      "Qu": 2638,
      "}_": 2639,
      "Ġpot": 2640,
      "ij": 2641,
      "Ġpath": 2642,
      "rel": 2643,
      "augh": 2644,
      "Is": 2645,
      "Ġcommon": 2646,
      "pace": 2647,
      "ĠFrench": 2648,
      "minist": 2649,
      "ocus": 2650,
      "Ġstrong": 2651,
      "iforn": 2652,
      "summary": 2653,
      "Ġthough": 2654,
      "Ġindivid": 2655,
      "Ġstudents": 2656,
      "url": 2657,
      "omin": 2658,
      "Requ": 2659,
      "Ġsent": 2660,
      "hib": 2661,
      "ills": 2662,
      "Ġeconom": 2663,
      "Ġstation": 2664,
      "Ġbody": 2665,
      "year": 2666,
      "Ġclear": 2667,
      "ackage": 2668,
      "https": 2669,
      "Ġtra": 2670,
      "oe": 2671,
      "unic": 2672,
      "Ġfurther": 2673,
      "Ġ?": 2674,
      "Ġlik": 2675,
      "Ġmiss": 2676,
      "ĠSan": 2677,
      "BC": 2678,
      "bol": 2679,
      "Int": 2680,
      "Ġmatch": 2681,
      "Ġservices": 2682,
      "uel": 2683,
      "Ġarch": 2684,
      "Ġdescribed": 2685,
      "uation": 2686,
      "Ġpoints": 2687,
      "AD": 2688,
      "ession": 2689,
      "Ġrespect": 2690,
      "Ġannounc": 2691,
      "ags": 2692,
      "\"></": 2693,
      "Ġinfl": 2694,
      "ifornia": 2695,
      "Ġlove": 2696,
      "orge": 2697,
      "IG": 2698,
      "lete": 2699,
      "oper": 2700,
      "34": 2701,
      "ara": 2702,
      "ades": 2703,
      "ica": 2704,
      "Ġcentury": 2705,
      "36": 2706,
      "75": 2707,
      "Ġaction": 2708,
      "Ġable": 2709,
      "avel": 2710,
      "');": 2711,
      "Bl": 2712,
      "ayer": 2713,
      "ui": 2714,
      "Ġintro": 2715,
      "oo": 2716,
      "Ġevents": 2717,
      "Ġdest": 2718,
      "ctor": 2719,
      "Ġemploy": 2720,
      "Ġsignific": 2721,
      "igned": 2722,
      "Ġsug": 2723,
      "Ġabove": 2724,
      "~\\": 2725,
      "Ġfeature": 2726,
      "Ġfeel": 2727,
      "At": 2728,
      "UT": 2729,
      "ĠItal": 2730,
      "Ġwind": 2731,
      "Ġmedia": 2732,
      "Ġthrow": 2733,
      "Ġsw": 2734,
      "ĠMon": 2735,
      "aged": 2736,
      "fin": 2737,
      "Ġpossible": 2738,
      "Ġdou": 2739,
      "UR": 2740,
      "istic": 2741,
      "OT": 2742,
      "ĠGo": 2743,
      "erm": 2744,
      "Ġtw": 2745,
      "File": 2746,
      "ude": 2747,
      "Ġcreated": 2748,
      "gl": 2749,
      "Ġplan": 2750,
      "Ġprovide": 2751,
      "urb": 2752,
      "Ġofficial": 2753,
      "Ġhalf": 2754,
      "ids": 2755,
      "Ġdeter": 2756,
      "rec": 2757,
      "width": 2758,
      "ico": 2759,
      "ĠThese": 2760,
      "(),": 2761,
      "ambda": 2762,
      "Ġlive": 2763,
      "TR": 2764,
      "itted": 2765,
      "Ġothers": 2766,
      "ĠNot": 2767,
      "Ġlot": 2768,
      "Ġseen": 2769,
      "omb": 2770,
      "men": 2771,
      "elling": 2772,
      "If": 2773,
      "ysis": 2774,
      "ĠIndia": 2775,
      "ĠStud": 2776,
      "Ġthought": 2777,
      "Ġspecies": 2778,
      "Ġborn": 2779,
      "ĠIndian": 2780,
      "no": 2781,
      "irm": 2782,
      "Time": 2783,
      "38": 2784,
      "Ġprim": 2785,
      "iting": 2786,
      "ĠMy": 2787,
      "Def": 2788,
      "Ġaddress": 2789,
      "Add": 2790,
      "Ġrelations": 2791,
      "à¤": 2792,
      "Ġonce": 2793,
      "ĠVal": 2794,
      "2003": 2795,
      "ivil": 2796,
      "cer": 2797,
      "lang": 2798,
      "iddle": 2799,
      "uments": 2800,
      "oud": 2801,
      "Ġener": 2802,
      "Ġengine": 2803,
      "Ġvarious": 2804,
      "Ġserved": 2805,
      "avy": 2806,
      "Ġworks": 2807,
      "Ġround": 2808,
      "duce": 2809,
      "Ġcal": 2810,
      "Ġwebs": 2811,
      "ormal": 2812,
      "Ġmot": 2813,
      "ĠCup": 2814,
      "reed": 2815,
      "ened": 2816,
      "En": 2817,
      "Ġpolitical": 2818,
      "ements": 2819,
      "ING": 2820,
      "ĠRepublic": 2821,
      "Event": 2822,
      "Ġtreat": 2823,
      "Ġuser": 2824,
      "Ġrange": 2825,
      "=\"../../": 2826,
      "SS": 2827,
      "Ġproduction": 2828,
      "ĠCour": 2829,
      "Ġassert": 2830,
      "hel": 2831,
      "ĠCalifornia": 2832,
      "Ġaccount": 2833,
      "ibility": 2834,
      "bor": 2835,
      "Ġtelev": 2836,
      "useum": 2837,
      "down": 2838,
      "$\\": 2839,
      "nect": 2840,
      "Ġsound": 2841,
      "sequ": 2842,
      "aves": 2843,
      "Ġalign": 2844,
      "Ġcoll": 2845,
      "Ġmass": 2846,
      "Ġlate": 2847,
      "icon": 2848,
      "']": 2849,
      "aign": 2850,
      "ĠSec": 2851,
      "But": 2852,
      "Ġstep": 2853,
      "Ġmem": 2854,
      "ĠNews": 2855,
      "Ġson": 2856,
      "Ġphys": 2857,
      "Ġgive": 2858,
      "Ġparent": 2859,
      "anies": 2860,
      "Ġnight": 2861,
      "lands": 2862,
      "ĠDistrict": 2863,
      "iple": 2864,
      "Form": 2865,
      "Ġwritten": 2866,
      "array": 2867,
      "Text": 2868,
      "!--": 2869,
      "ĠList": 2870,
      "inn": 2871,
      "table": 2872,
      "unk": 2873,
      "mon": 2874,
      "Over": 2875,
      "Ġred": 2876,
      "itte": 2877,
      "Ġassoci": 2878,
      "amma": 2879,
      "see": 2880,
      "Ġshows": 2881,
      "Ġra": 2882,
      "aker": 2883,
      "Ã³": 2884,
      "Ġsuper": 2885,
      "sy": 2886,
      "ĠAustralia": 2887,
      "Ġmeans": 2888,
      "ixed": 2889,
      "Ġhistor": 2890,
      "ĠMark": 2891,
      "Ġpress": 2892,
      "annel": 2893,
      "Ġ);": 2894,
      "anch": 2895,
      "lim": 2896,
      "ĠDem": 2897,
      "Ġled": 2898,
      "37": 2899,
      "ched": 2900,
      "Ġcheck": 2901,
      "Ġnov": 2902,
      "unity": 2903,
      "Ġfuture": 2904,
      "Ġtre": 2905,
      "Fl": 2906,
      "lymp": 2907,
      "isk": 2908,
      "ĠChampionship": 2909,
      "Ġsource": 2910,
      "ĠEast": 2911,
      "Ġeither": 2912,
      "01": 2913,
      "body": 2914,
      "mat": 2915,
      "2001": 2916,
      "Ġdocument": 2917,
      "55": 2918,
      "ishing": 2919,
      "ĠDon": 2920,
      "Ġparam": 2921,
      "39": 2922,
      "Ġperformance": 2923,
      "ĠEngland": 2924,
      "Ġdiscuss": 2925,
      "ĠRed": 2926,
      "state": 2927,
      "ha": 2928,
      "position": 2929,
      "Ġ/>": 2930,
      "iding": 2931,
      "ĠSen": 2932,
      "Ġcustom": 2933,
      "Ġjob": 2934,
      "ection": 2935,
      "Ġtelevision": 2936,
      "clus": 2937,
      "ĠPat": 2938,
      "aur": 2939,
      "Ġprob": 2940,
      "oyal": 2941,
      "Ġdied": 2942,
      "2002": 2943,
      "44": 2944,
      "ĠNe": 2945,
      "Ġerr": 2946,
      "Ġregion": 2947,
      "ribution": 2948,
      "Ġmaterial": 2949,
      "Element": 2950,
      "met": 2951,
      "cle": 2952,
      "Ġcourse": 2953,
      "IM": 2954,
      "Ġresponse": 2955,
      "Ġbegin": 2956,
      "atural": 2957,
      "eff": 2958,
      "md": 2959,
      "point": 2960,
      "Ġblack": 2961,
      "ables": 2962,
      "ĠPort": 2963,
      "State": 2964,
      "rote": 2965,
      "bt": 2966,
      "Ġsym": 2967,
      "ship": 2968,
      "asing": 2969,
      "Ġcompos": 2970,
      "section": 2971,
      "Ġerror": 2972,
      "mu": 2973,
      "Ġannounced": 2974,
      "Info": 2975,
      "Ġfem": 2976,
      "Ġrequire": 2977,
      "unch": 2978,
      "ibrary": 2979,
      "Ġfather": 2980,
      "inary": 2981,
      "From": 2982,
      "Ġsignificant": 2983,
      "sl": 2984,
      "oat": 2985,
      "ĠInt": 2986,
      "Ġdone": 2987,
      "Ġhowever": 2988,
      "Ġsett": 2989,
      "Ġbi": 2990,
      "Ġcou": 2991,
      "oke": 2992,
      "group": 2993,
      "ander": 2994,
      "ĠLaw": 2995,
      "perties": 2996,
      "Ġbar": 2997,
      "ĠĠĊ": 2998,
      "ĠCouncil": 2999,
      "Fil": 3000,
      "Ġtoday": 3001,
      "ĠDes": 3002,
      "Ġinternational": 3003,
      "Ġsold": 3004,
      "Ġexperience": 3005,
      "Ġnorth": 3006,
      "verage": 3007,
      "iber": 3008,
      "ĠStreet": 3009,
      "ependent": 3010,
      "Ġwhy": 3011,
      "=\"+": 3012,
      "Ġsuggest": 3013,
      "length": 3014,
      "Ġenough": 3015,
      "ĠGover": 3016,
      "ĠAnt": 3017,
      "Path": 3018,
      "oken": 3019,
      "ĠCenter": 3020,
      "quot": 3021,
      "ĠDo": 3022,
      "ocal": 3023,
      "Ġkind": 3024,
      "Ġobserv": 3025,
      "ĠDavid": 3026,
      "with": 3027,
      "Ġben": 3028,
      "Ġcomput": 3029,
      "ilities": 3030,
      "resp": 3031,
      "nection": 3032,
      "alls": 3033,
      "Ġcreat": 3034,
      "stance": 3035,
      "ĠRiver": 3036,
      "Ġstop": 3037,
      "189": 3038,
      ")\\": 3039,
      "Ġnews": 3040,
      "65": 3041,
      "Ġpresident": 3042,
      "igation": 3043,
      "Ad": 3044,
      "Ġparticip": 3045,
      "48": 3046,
      "Ġaud": 3047,
      "Ġexc": 3048,
      "Request": 3049,
      "Ġanim": 3050,
      "Ġmonths": 3051,
      "icles": 3052,
      "Ġes": 3053,
      "ĠUK": 3054,
      "rix": 3055,
      "Ġroad": 3056,
      "Ġcertain": 3057,
      "ĠPal": 3058,
      "ĠTrans": 3059,
      "Ġblock": 3060,
      "Ġindic": 3061,
      "Field": 3062,
      "Ġgroups": 3063,
      "user": 3064,
      "sec": 3065,
      "from": 3066,
      "olean": 3067,
      "Ġenergy": 3068,
      "lease": 3069,
      "Ġepis": 3070,
      "You": 3071,
      "There": 3072,
      "Equ": 3073,
      "Ġmer": 3074,
      "Ġparty": 3075,
      "FF": 3076,
      "Ġproperty": 3077,
      "Ġclose": 3078,
      "/**": 3079,
      "188": 3080,
      "Node": 3081,
      "ride": 3082,
      "Ġrelease": 3083,
      "ores": 3084,
      "ires": 3085,
      "ĠJames": 3086,
      "Ġtaken": 3087,
      "=\\": 3088,
      "ÃŃ": 3089,
      "Ġattempt": 3090,
      "ĠCanada": 3091,
      "ites": 3092,
      "Ġterm": 3093,
      "ĠBer": 3094,
      "ges": 3095,
      "iation": 3096,
      "Ġ()": 3097,
      "Ġorigin": 3098,
      "quad": 3099,
      "CH": 3100,
      "OS": 3101,
      "Ġhttp": 3102,
      "}^{": 3103,
      "pm": 3104,
      "Ġcode": 3105,
      "Ġdeal": 3106,
      "Ġpage": 3107,
      "aring": 3108,
      "using": 3109,
      "utes": 3110,
      "Ġmom": 3111,
      "board": 3112,
      "Ã¼": 3113,
      "ĠMal": 3114,
      "Ġgrad": 3115,
      "/*": 3116,
      "Ġground": 3117,
      "ĠDiv": 3118,
      "05": 3119,
      "Ġfront": 3120,
      "ago": 3121,
      "ĠMor": 3122,
      "ĠPaul": 3123,
      "ĠTV": 3124,
      "Ġreported": 3125,
      "Ġfire": 3126,
      "ĠEuropean": 3127,
      "unt": 3128,
      "ville": 3129,
      "Ġrequired": 3130,
      "ceed": 3131,
      "nown": 3132,
      "igma": 3133,
      "Ġwebsite": 3134,
      "Ġfeatures": 3135,
      "where": 3136,
      "acing": 3137,
      "api": 3138,
      "Ġdidn": 3139,
      "Ġmakes": 3140,
      "ĠHol": 3141,
      "ero": 3142,
      "ayout": 3143,
      "Ġcirc": 3144,
      "ĠParty": 3145,
      "Ġmoved": 3146,
      "config": 3147,
      "Ġsouth": 3148,
      "'re": 3149,
      "hat": 3150,
      "Ġmove": 3151,
      "Ġaward": 3152,
      "void": 3153,
      "wood": 3154,
      "rup": 3155,
      "ĠBel": 3156,
      "ĠRober": 3157,
      "ĠChina": 3158,
      "())": 3159,
      "sm": 3160,
      "Ġfav": 3161,
      "atal": 3162,
      "De": 3163,
      "Index": 3164,
      "Ġinf": 3165,
      "itect": 3166,
      "Ġmax": 3167,
      "atform": 3168,
      "ellow": 3169,
      "ĠBlack": 3170,
      "raz": 3171,
      "nes": 3172,
      "Ġareas": 3173,
      "arter": 3174,
      "Ġinteg": 3175,
      "Ġunderstand": 3176,
      "ises": 3177,
      "Ġsuff": 3178,
      "After": 3179,
      "Fr": 3180,
      "Ġprovided": 3181,
      "ecess": 3182,
      "Ġpopular": 3183,
      "Ġaddition": 3184,
      "atory": 3185,
      "Ġpur": 3186,
      "ĠInstit": 3187,
      "CC": 3188,
      "Ġadded": 3189,
      "Ġsaf": 3190,
      "Ġabs": 3191,
      "ya": 3192,
      "':": 3193,
      "aries": 3194,
      "};": 3195,
      "66": 3196,
      "ĠThom": 3197,
      "Ġ\\\\": 3198,
      "Trans": 3199,
      "bit": 3200,
      "Ġsat": 3201,
      "Ġvalues": 3202,
      "Ġrespons": 3203,
      "Ġlanguage": 3204,
      "iers": 3205,
      "ensive": 3206,
      "ĠChurch": 3207,
      "ponent": 3208,
      "Ġwrote": 3209,
      "unn": 3210,
      "Ġwhether": 3211,
      "Ġmoney": 3212,
      "}_{": 3213,
      "medi": 3214,
      "ottom": 3215,
      "ĠFirst": 3216,
      "Ġtable": 3217,
      "ashington": 3218,
      "roy": 3219,
      "Pr": 3220,
      "Context": 3221,
      "Map": 3222,
      "Ġlost": 3223,
      "Ġvia": 3224,
      "Ġbit": 3225,
      "ging": 3226,
      "Build": 3227,
      "ĠGeneral": 3228,
      "oul": 3229,
      "Ġproblem": 3230,
      "Ġworked": 3231,
      "ĠGroup": 3232,
      "init": 3233,
      "amespace": 3234,
      "ida": 3235,
      "IL": 3236,
      "Ġentire": 3237,
      "Config": 3238,
      "07": 3239,
      "ivity": 3240,
      ".)": 3241,
      "``": 3242,
      "ĠFrance": 3243,
      "ĠSim": 3244,
      "Ġviol": 3245,
      "ĠMr": 3246,
      "Ġvict": 3247,
      "Ġdiff": 3248,
      "adian": 3249,
      "Ġbroad": 3250,
      "ĠFil": 3251,
      "Ġvillage": 3252,
      "anks": 3253,
      "eturn": 3254,
      "ĠÃ": 3255,
      "ĠInter": 3256,
      "Ġroom": 3257,
      "2021": 3258,
      "ĠGet": 3259,
      "UN": 3260,
      "Result": 3261,
      "ittee": 3262,
      "Ġcompanies": 3263,
      "Ġyet": 3264,
      "1999": 3265,
      "ĠRich": 3266,
      "Ġsepar": 3267,
      "Ġfight": 3268,
      "Ġconsidered": 3269,
      "Ġhon": 3270,
      "1990": 3271,
      "pi": 3272,
      "Ġconfig": 3273,
      "abled": 3274,
      "chiev": 3275,
      "Ġill": 3276,
      "tes": 3277,
      "Ġobtain": 3278,
      "Ġsubject": 3279,
      "Ġcy": 3280,
      "Ġarray": 3281,
      "ĠĠĠĠĠĠĠĠĠĠĠĠĠĠĠĠĠĠĠĠĠĠĠĠĠĠĠ": 3282,
      "ĠSk": 3283,
      "escription": 3284,
      "HE": 3285,
      "Ġu": 3286,
      "Ġreason": 3287,
      "rad": 3288,
      "Ġtalk": 3289,
      "Ġcross": 3290,
      "ĠÐ": 3291,
      "cy": 3292,
      "Ġmilitary": 3293,
      "Ġsex": 3294,
      "Ġrout": 3295,
      "Ġproduced": 3296,
      "Ass": 3297,
      "light": 3298,
      "Ġdefault": 3299,
      "ĠEar": 3300,
      "ved": 3301,
      "Ġvot": 3302,
      "pose": 3303,
      "Ġdeg": 3304,
      "rian": 3305,
      "Ġdecl": 3306,
      "Ġrecogn": 3307,
      "ĠAward": 3308,
      "Ġcut": 3309,
      "Ġproduc": 3310,
      "ounter": 3311,
      "_\\": 3312,
      "Ġcolor": 3313,
      "Ġthing": 3314,
      "CT": 3315,
      "aching": 3316,
      "prot": 3317,
      "Ġ...": 3318,
      "Ġmag": 3319,
      "eal": 3320,
      "imum": 3321,
      "What": 3322,
      "gen": 3323,
      "Ġcontext": 3324,
      "Ġfood": 3325,
      "Ġrather": 3326,
      "mit": 3327,
      "Ġinj": 3328,
      "Ġdoesn": 3329,
      "How": 3330,
      "based": 3331,
      "ulated": 3332,
      "ccording": 3333,
      "istry": 3334,
      "Ġrev": 3335,
      "Ġ(!": 3336,
      "Ġaccording": 3337,
      "AG": 3338,
      "Ġtell": 3339,
      "Ġtold": 3340,
      "OM": 3341,
      "Ġhom": 3342,
      "Ġtax": 3343,
      "49": 3344,
      "Ġaccept": 3345,
      "word": 3346,
      "coming": 3347,
      "AB": 3348,
      "olic": 3349,
      "Ġlo": 3350,
      "atives": 3351,
      "rip": 3352,
      "No": 3353,
      "mar": 3354,
      "orthern": 3355,
      "ĠDepartment": 3356,
      "ĠMart": 3357,
      "arrow": 3358,
      "Att": 3359,
      "curity": 3360,
      "ĠWhat": 3361,
      "IP": 3362,
      "Ġpercent": 3363,
      "Ġsure": 3364,
      "ĠQue": 3365,
      "ado": 3366,
      "Ġcontract": 3367,
      "true": 3368,
      "Ġenvironment": 3369,
      "Service": 3370,
      "Ġimplement": 3371,
      "Ġrights": 3372,
      "Ġcampaign": 3373,
      "center": 3374,
      "udd": 3375,
      "Ġbelow": 3376,
      "Ġhimself": 3377,
      "Ġder": 3378,
      "Ġmid": 3379,
      "';": 3380,
      "ĠFrom": 3381,
      "ĠDan": 3382,
      "Ġalmost": 3383,
      "People": 3384,
      "ining": 3385,
      "cd": 3386,
      "ĠGeorge": 3387,
      "Ġmale": 3388,
      "Ġmonth": 3389,
      "ns": 3390,
      "Ġinflu": 3391,
      "lor": 3392,
      "Ġeducation": 3393,
      "elt": 3394,
      "Ġ/*": 3395,
      "ho": 3396,
      "ĠDay": 3397,
      "Ġdistrict": 3398,
      "ĠMod": 3399,
      "lt": 3400,
      "agement": 3401,
      "apache": 3402,
      "Ġaverage": 3403,
      "Ġbehind": 3404,
      "ming": 3405,
      "Ġmessage": 3406,
      "Ġstar": 3407,
      "result": 3408,
      "aging": 3409,
      "Ġincludes": 3410,
      "Ġ{\\": 3411,
      "Rec": 3412,
      "Ġimage": 3413,
      "oved": 3414,
      "ĠJust": 3415,
      "Ġsystems": 3416,
      "dt": 3417,
      "Ġ});": 3418,
      "ederal": 3419,
      "itar": 3420,
      "Ġsoft": 3421,
      "Ġsection": 3422,
      "Of": 3423,
      "airs": 3424,
      "ĠOlymp": 3425,
      "version": 3426,
      "ston": 3427,
      "ĠAssociation": 3428,
      "08": 3429,
      "ĠFin": 3430,
      "ught": 3431,
      "Ġreturned": 3432,
      "Ġneg": 3433,
      "Ġexpected": 3434,
      "****************": 3435,
      "outhern": 3436,
      "Ġdirector": 3437,
      "47": 3438,
      "Sp": 3439,
      "Hand": 3440,
      "ospital": 3441,
      "object": 3442,
      "Ġtour": 3443,
      "Ġindustry": 3444,
      "ĠUp": 3445,
      "arr": 3446,
      "Ġsuccessful": 3447,
      "Ġbound": 3448,
      "mathbb": 3449,
      "Ser": 3450,
      "Ġoffice": 3451,
      "oto": 3452,
      "Ġactually": 3453,
      "Ġlearn": 3454,
      "SE": 3455,
      "ala": 3456,
      "ĠCourt": 3457,
      "pecially": 3458,
      "Ġtraining": 3459,
      "LO": 3460,
      "Ġpersonal": 3461,
      "pite": 3462,
      "ota": 3463,
      "title": 3464,
      "asons": 3465,
      "andid": 3466,
      "hood": 3467,
      "Ġterms": 3468,
      "-\\": 3469,
      "Ġquestion": 3470,
      "Ġfig": 3471,
      "Size": 3472,
      "plate": 3473,
      "Ġinput": 3474,
      "Ġpolice": 3475,
      "Ġden": 3476,
      "igital": 3477,
      "Ġens": 3478,
      "Ġmother": 3479,
      "ĠMusic": 3480,
      "ĠJack": 3481,
      "ping": 3482,
      "1998": 3483,
      "[]": 3484,
      "Ġdisplay": 3485,
      "^{\\": 3486,
      "ĠHall": 3487,
      "ĠDi": 3488,
      "ĠFranc": 3489,
      "####": 3490,
      "Ġdate": 3491,
      "ili": 3492,
      "input": 3493,
      "aughter": 3494,
      "Ġpred": 3495,
      "Ġchanges": 3496,
      "Ġchall": 3497,
      "ĠWashington": 3498,
      "Ġplaying": 3499,
      "History": 3500,
      "utions": 3501,
      "map": 3502,
      "Ġliter": 3503,
      "Ġcollection": 3504,
      "Ġoptions": 3505,
      "print": 3506,
      "Ġbackground": 3507,
      "Living": 3508,
      "eck": 3509,
      "Ġ-->": 3510,
      "rael": 3511,
      "vey": 3512,
      "OD": 3513,
      "ĠLou": 3514,
      "ĠCons": 3515,
      "Code": 3516,
      "Ġwhite": 3517,
      "Ġfocus": 3518,
      "04": 3519,
      "Item": 3520,
      "Ġprote": 3521,
      "Inter": 3522,
      "ĠClass": 3523,
      "estival": 3524,
      "ĠRoad": 3525,
      "Ġlink": 3526,
      "mark": 3527,
      "Val": 3528,
      "nor": 3529,
      "II": 3530,
      "ania": 3531,
      "Ġface": 3532,
      "Ġfriend": 3533,
      "ĠArmy": 3534,
      "Ġtaking": 3535,
      "rect": 3536,
      "elves": 3537,
      "chan": 3538,
      "Ġissues": 3539,
      "Ġeffort": 3540,
      "Ġey": 3541,
      "olar": 3542,
      "Up": 3543,
      "09": 3544,
      "ĠMore": 3545,
      "06": 3546,
      "Ġimm": 3547,
      "ĠBook": 3548,
      "ĠSl": 3549,
      "acher": 3550,
      "Ġlower": 3551,
      "ENT": 3552,
      "style": 3553,
      "eed": 3554,
      "ĠArch": 3555,
      "lambda": 3556,
      "Ġpers": 3557,
      "Ġrace": 3558,
      "omet": 3559,
      "ĠGod": 3560,
      "Ġvisit": 3561,
      "Array": 3562,
      "ani": 3563,
      "Ġinstead": 3564,
      "\"\"": 3565,
      "ully": 3566,
      "Ġliving": 3567,
      "ga": 3568,
      "Ġboard": 3569,
      "uz": 3570,
      "Ġloss": 3571,
      "ula": 3572,
      "Ed": 3573,
      "ĠDirect": 3574,
      "SP": 3575,
      "Ġstates": 3576,
      "ĠDef": 3577,
      "Reg": 3578,
      "Ġdebut": 3579,
      "++": 3580,
      "Ġstage": 3581,
      "call": 3582,
      "berg": 3583,
      "Ġfall": 3584,
      "Ġupon": 3585,
      "Ġinstance": 3586,
      "500": 3587,
      "Ġ},": 3588,
      "Ġstre": 3589,
      "Ġdam": 3590,
      "Ġteams": 3591,
      "Ġhigher": 3592,
      "icult": 3593,
      "aches": 3594,
      "Ġachiev": 3595,
      "phi": 3596,
      "Message": 3597,
      "uses": 3598,
      "Out": 3599,
      "respond": 3600,
      "ancial": 3601,
      "Ġamount": 3602,
      "anced": 3603,
      "ĠPress": 3604,
      "izing": 3605,
      "Ġbring": 3606,
      "ĠGermany": 3607,
      "etic": 3608,
      "ĠGreen": 3609,
      "rain": 3610,
      "Ġdeveloped": 3611,
      "evelop": 3612,
      "amples": 3613,
      "assert": 3614,
      "////////": 3615,
      "Ġindex": 3616,
      "Ġissue": 3617,
      "ML": 3618,
      "reek": 3619,
      "uffer": 3620,
      "Ġcomplex": 3621,
      "Ġappoint": 3622,
      "Ġshown": 3623,
      "Ġleaders": 3624,
      "rd": 3625,
      "ening": 3626,
      "ouch": 3627,
      "ĠHealth": 3628,
      "embly": 3629,
      "Ġsil": 3630,
      "Ġrelationship": 3631,
      "ĠRoman": 3632,
      "Ġcases": 3633,
      "node": 3634,
      "ĠCong": 3635,
      "Ġcomes": 3636,
      "ria": 3637,
      "Ð°": 3638,
      "\\\\": 3639,
      "Ġrate": 3640,
      "atur": 3641,
      "oz": 3642,
      "ĠPe": 3643,
      "Ġdeaths": 3644,
      "Ġgirl": 3645,
      "Ġmodern": 3646,
      "hing": 3647,
      "Ġten": 3648,
      "Comp": 3649,
      "1996": 3650,
      "Ġspecific": 3651,
      "block": 3652,
      "Ġprofessional": 3653,
      "iences": 3654,
      "change": 3655,
      "Ġsus": 3656,
      "FA": 3657,
      "band": 3658,
      "Ġinstall": 3659,
      "ressed": 3660,
      "inese": 3661,
      "iday": 3662,
      "Ġborder": 3663,
      "ĠMount": 3664,
      "like": 3665,
      "Ġconduct": 3666,
      "1980": 3667,
      "Read": 3668,
      "Ġprint": 3669,
      "istics": 3670,
      "46": 3671,
      "ĠSing": 3672,
      "eps": 3673,
      "count": 3674,
      "Ã¶": 3675,
      "ĠMont": 3676,
      "Ġwhole": 3677,
      "Ġago": 3678,
      "Ġ__": 3679,
      "atab": 3680,
      "ĠMex": 3681,
      "aven": 3682,
      "rey": 3683,
      "ĠCompany": 3684,
      "Ġdom": 3685,
      "ĠMichael": 3686,
      "Ġassociated": 3687,
      "ĠCam": 3688,
      "create": 3689,
      "Ġcast": 3690,
      "ĠCap": 3691,
      "elebr": 3692,
      "amily": 3693,
      "imately": 3694,
      "ĠDemocr": 3695,
      "187": 3696,
      "Ġrock": 3697,
      "Ġhor": 3698,
      "ĠInstitute": 3699,
      "anel": 3700,
      "Ġadminist": 3701,
      "02": 3702,
      "mission": 3703,
      "info": 3704,
      "Ġassist": 3705,
      "ync": 3706,
      "ka": 3707,
      "1997": 3708,
      "ĠTrump": 3709,
      "net": 3710,
      "struct": 3711,
      "Ġcred": 3712,
      "ĠYear": 3713,
      "roller": 3714,
      "ĠUnion": 3715,
      "Count": 3716,
      "Ġtechnology": 3717,
      "rupt": 3718,
      "Ġpolitic": 3719,
      "enced": 3720,
      "Ġestablish": 3721,
      "Ġstructure": 3722,
      "ĠMet": 3723,
      "ĠMary": 3724,
      "Ġcompon": 3725,
      "TE": 3726,
      "Ġpotential": 3727,
      "03": 3728,
      "Ġbrother": 3729,
      "ĠAngel": 3730,
      "Ġseem": 3731,
      "Ġinitial": 3732,
      "Ġconsist": 3733,
      "ĠSam": 3734,
      "ĠLeg": 3735,
      "Ġregular": 3736,
      "Ġsaw": 3737,
      "ĠInc": 3738,
      "Ġbad": 3739,
      "ĠMac": 3740,
      "content": 3741,
      "When": 3742,
      "Ġitself": 3743,
      "plit": 3744,
      "ĠIN": 3745,
      "irtual": 3746,
      "Ġleading": 3747,
      "Ġcenter": 3748,
      "Ġhours": 3749,
      "Ġglobal": 3750,
      "Ġoutside": 3751,
      "Ġcontinue": 3752,
      "iqu": 3753,
      "cret": 3754,
      "Ġcurrently": 3755,
      "ĠWhite": 3756,
      "joy": 3757,
      "ĠAdd": 3758,
      "Ġjava": 3759,
      "hand": 3760,
      "Ġsem": 3761,
      "Ġsongs": 3762,
      "Ġheart": 3763,
      "Ġstandard": 3764,
      "2022": 3765,
      "Ġjud": 3766,
      "Ġreve": 3767,
      "anning": 3768,
      "Ġexecut": 3769,
      "include": 3770,
      "='": 3771,
      "iance": 3772,
      "exas": 3773,
      "ĠRoyal": 3774,
      "ios": 3775,
      "Ġpromot": 3776,
      "Ġpolicy": 3777,
      "Ġdiscover": 3778,
      "och": 3779,
      "plied": 3780,
      "Ġjoined": 3781,
      "Ġregard": 3782,
      "Ġgoal": 3783,
      "=\"../../../../": 3784,
      "Ġbenef": 3785,
      "ĠAlex": 3786,
      "Ġwife": 3787,
      "sup": 3788,
      "lient": 3789,
      "java": 3790,
      "Ġopened": 3791,
      "oom": 3792,
      "icense": 3793,
      "rated": 3794,
      "ĠClub": 3795,
      "Ġcourt": 3796,
      "Ġstaff": 3797,
      "next": 3798,
      "default": 3799,
      "Ġcommand": 3800,
      "Ġcapt": 3801,
      "ĠJew": 3802,
      ";&": 3803,
      "Ġwriting": 3804,
      "Ġsearch": 3805,
      "Ġhit": 3806,
      "Ġbooks": 3807,
      "Ġonline": 3808,
      "Ġdefe": 3809,
      "Ġmap": 3810,
      "Ġlikely": 3811,
      "anger": 3812,
      "Log": 3813,
      "ean": 3814,
      "ĠIsland": 3815,
      "IR": 3816,
      "AA": 3817,
      "Ġrecent": 3818,
      "obile": 3819,
      "itting": 3820,
      "Ð¾": 3821,
      "Ġespecially": 3822,
      "Ġlooking": 3823,
      "ĠVir": 3824,
      "Ġdoing": 3825,
      "ĠBest": 3826,
      "ilon": 3827,
      "Ġlength": 3828,
      "Ġinvolved": 3829,
      "Ġquick": 3830,
      "Ġ===": 3831,
      "ĠDis": 3832,
      "ĠNor": 3833,
      "bert": 3834,
      "oring": 3835,
      "ynam": 3836,
      "efore": 3837,
      "ipal": 3838,
      "ĠEv": 3839,
      "Ġpain": 3840,
      "ona": 3841,
      "ĠMiss": 3842,
      "Ġgave": 3843,
      "Ġopport": 3844,
      "han": 3845,
      "Ġtakes": 3846,
      "ken": 3847,
      "'m": 3848,
      "Ġcontinued": 3849,
      "ĠOut": 3850,
      "ication": 3851,
      "Ġrunning": 3852,
      "Ġstatus": 3853,
      "42": 3854,
      "android": 3855,
      "Ġmus": 3856,
      "ailway": 3857,
      "Off": 3858,
      "Ġnovel": 3859,
      "ĠWork": 3860,
      "ĠSociety": 3861,
      "base": 3862,
      "OP": 3863,
      "idents": 3864,
      "writ": 3865,
      "Ġfail": 3866,
      "ategory": 3867,
      "Ġcountries": 3868,
      "Ġcharacters": 3869,
      "fil": 3870,
      "ĠVol": 3871,
      "parent": 3872,
      "ĠTom": 3873,
      "rought": 3874,
      "beta": 3875,
      "nov": 3876,
      "ĠAustralian": 3877,
      "ledge": 3878,
      "ĠGold": 3879,
      "ĠMag": 3880,
      "Ġbox": 3881,
      "Bar": 3882,
      "ĠBen": 3883,
      "refore": 3884,
      "astic": 3885,
      "erve": 3886,
      "aily": 3887,
      "Ġcomment": 3888,
      "Ġhot": 3889,
      "build": 3890,
      "ifier": 3891,
      "ĠPublic": 3892,
      "ii": 3893,
      "lier": 3894,
      "Ġwords": 3895,
      "Ġsrc": 3896,
      "ros": 3897,
      "ĠAfrica": 3898,
      "58": 3899,
      "lying": 3900,
      "Comm": 3901,
      "Ġmanagement": 3902,
      "Ġdraw": 3903,
      "icial": 3904,
      "ech": 3905,
      "Ġwhose": 3906,
      "Ġarticle": 3907,
      "ĠCr": 3908,
      "ĠSome": 3909,
      "ĠAcadem": 3910,
      "aled": 3911,
      "Ġprior": 3912,
      "Ġ(\\": 3913,
      "Manager": 3914,
      "Ġrelated": 3915,
      "Ġmarried": 3916,
      "ĠTur": 3917,
      "Ġhous": 3918,
      "ena": 3919,
      "agon": 3920,
      "Pol": 3921,
      "Ġanalysis": 3922,
      "edy": 3923,
      "ĠDivision": 3924,
      "ĠOf": 3925,
      "hi": 3926,
      "Ġnecess": 3927,
      "Ġwoman": 3928,
      "olf": 3929,
      "Ġneeds": 3930,
      "Ġdesigned": 3931,
      "lem": 3932,
      "Ġchurch": 3933,
      "Call": 3934,
      "imal": 3935,
      "Ġcomplete": 3936,
      "witch": 3937,
      "ĠMer": 3938,
      "Ġbg": 3939,
      "merc": 3940,
      "uge": 3941,
      "Ġthroughout": 3942,
      "Ġscreen": 3943,
      "cel": 3944,
      "ĠGreat": 3945,
      "Ġsens": 3946,
      "yr": 3947,
      "ĠBay": 3948,
      "known": 3949,
      "ocation": 3950,
      "icient": 3951,
      "ĠSal": 3952,
      "ees": 3953,
      "ributed": 3954,
      "sum": 3955,
      "Ġshare": 3956,
      "max": 3957,
      "Ġmultiple": 3958,
      "ini": 3959,
      "irection": 3960,
      "Sub": 3961,
      "OL": 3962,
      "Ġmind": 3963,
      "ĠTechn": 3964,
      "gt": 3965,
      "ĠMad": 3966,
      "Ġsequ": 3967,
      "ĠRobert": 3968,
      "Ġacqu": 3969,
      "ĠMus": 3970,
      "Ent": 3971,
      "67": 3972,
      "1995": 3973,
      "gle": 3974,
      "andom": 3975,
      "Ġoccur": 3976,
      "FL": 3977,
      "Ġqual": 3978,
      "Ġrelig": 3979,
      "riate": 3980,
      "Ġschools": 3981,
      "MA": 3982,
      "Ġconditions": 3983,
      "orage": 3984,
      "sych": 3985,
      "asket": 3986,
      "ufact": 3987,
      "ĉĉĉĉĉĉ": 3988,
      "Ġ:=": 3989,
      "ULL": 3990,
      "ĠScott": 3991,
      "start": 3992,
      "active": 3993,
      "Ġforce": 3994,
      "--------------------------------": 3995,
      "mathbf": 3996,
      "anish": 3997,
      "Ġnode": 3998,
      "System": 3999,
      "Ġwatch": 4000,
      "ein": 4001,
      "}{\\": 4002,
      "Ġcompleted": 4003,
      "Ġimpact": 4004,
      "ĠMat": 4005,
      "ĠHam": 4006,
      "Ġreading": 4007,
      "Ġsecurity": 4008,
      "Ġforward": 4009,
      "rial": 4010,
      "Ġcandid": 4011,
      "ulations": 4012,
      "Ġ};": 4013,
      "Ġgetting": 4014,
      "57": 4015,
      "zer": 4016,
      "Ġindividual": 4017,
      "plications": 4018,
      "win": 4019,
      "irit": 4020,
      "ube": 4021,
      "Ġadditional": 4022,
      "ano": 4023,
      ">&": 4024,
      "Ac": 4025,
      "1970": 4026,
      "Ġpaper": 4027,
      "Ġsoon": 4028,
      "CE": 4029,
      "vis": 4030,
      "apter": 4031,
      "One": 4032,
      "ilies": 4033,
      "Ġidea": 4034,
      "ĠSur": 4035,
      "Ġsigned": 4036,
      "bed": 4037,
      "Ġge": 4038,
      "ĠIsrael": 4039,
      "59": 4040,
      "Em": 4041,
      "la": 4042,
      "Ġeight": 4043,
      "define": 4044,
      "ĠTest": 4045,
      "IV": 4046,
      "Ġnatural": 4047,
      "Param": 4048,
      "Ġdifficult": 4049,
      "run": 4050,
      "atest": 4051,
      "Table": 4052,
      "ĠService": 4053,
      "Ġtravel": 4054,
      "space": 4055,
      "ĠCentral": 4056,
      "reate": 4057,
      "Ġfrequ": 4058,
      "ĠWeb": 4059,
      "Ġbgcolor": 4060,
      "ĠAfrican": 4061,
      "MP": 4062,
      "fort": 4063,
      "Ġcho": 4064,
      "ĠWhile": 4065,
      "Color": 4066,
      "room": 4067,
      "ocks": 4068,
      "ĠTown": 4069,
      "Ġveh": 4070,
      "lean": 4071,
      "Ġcannot": 4072,
      "ĠResearch": 4073,
      "Arg": 4074,
      "Ġcoming": 4075,
      "ĠTexas": 4076,
      "ĠMuseum": 4077,
      "Model": 4078,
      "Med": 4079,
      "ĠIr": 4080,
      "ducation": 4081,
      "ocol": 4082,
      "Ġlocation": 4083,
      "Ġalthough": 4084,
      "TD": 4085,
      "1994": 4086,
      "Ġperformed": 4087,
      "68": 4088,
      "ainer": 4089,
      "bre": 4090,
      "ĠProv": 4091,
      "ĠHen": 4092,
      "=\"#": 4093,
      "ki": 4094,
      "ĠAnn": 4095,
      "Ġcontact": 4096,
      "Ġactive": 4097,
      "Ġasked": 4098,
      "angle": 4099,
      "ĠEr": 4100,
      "oma": 4101,
      "Ġdevice": 4102,
      "1992": 4103,
      "Ġconcern": 4104,
      "wide": 4105,
      "ĠThomas": 4106,
      "mathrm": 4107,
      "ĠRussian": 4108,
      "Ġword": 4109,
      "Ġsurv": 4110,
      "ĠSub": 4111,
      "Ġvers": 4112,
      "ĠChristian": 4113,
      "isher": 4114,
      "azine": 4115,
      "Ġfollowed": 4116,
      "ares": 4117,
      "eline": 4118,
      "arning": 4119,
      "Ġwalk": 4120,
      "MS": 4121,
      "very": 4122,
      "aud": 4123,
      "Mar": 4124,
      "Ġdecision": 4125,
      "^{-": 4126,
      "Ġste": 4127,
      "google": 4128,
      "ĠRad": 4129,
      "Ġtool": 4130,
      "ĠDel": 4131,
      "liament": 4132,
      "Ġdefined": 4133,
      "itch": 4134,
      "css": 4135,
      "ĠRob": 4136,
      "Ġparts": 4137,
      "het": 4138,
      "static": 4139,
      "fect": 4140,
      "Ġincrease": 4141,
      "mm": 4142,
      "PE": 4143,
      "event": 4144,
      "Post": 4145,
      "Pre": 4146,
      "ĠDuring": 4147,
      "Ġver": 4148,
      "ĠGames": 4149,
      "Ġenjoy": 4150,
      "Ġbelieve": 4151,
      "Ġarchitect": 4152,
      "eks": 4153,
      "Ġprobably": 4154,
      "argin": 4155,
      "context": 4156,
      "Ġload": 4157,
      "43": 4158,
      "Ab": 4159,
      "istan": 4160,
      "Ġneeded": 4161,
      "Ġminutes": 4162,
      "ĠPost": 4163,
      "ĠFound": 4164,
      "quare": 4165,
      "ĠScience": 4166,
      "burg": 4167,
      "Ġpatients": 4168,
      "Ġmoment": 4169,
      "ĠGrand": 4170,
      "Ġdram": 4171,
      "ned": 4172,
      "pecial": 4173,
      "bon": 4174,
      "Ġmount": 4175,
      "ĠTor": 4176,
      "Ġconv": 4177,
      "arily": 4178,
      "ilde": 4179,
      "Group": 4180,
      "ĠCanadian": 4181,
      "Ġbirth": 4182,
      "fess": 4183,
      "eek": 4184,
      "mselves": 4185,
      "ĠBill": 4186,
      "rief": 4187,
      "xy": 4188,
      "Ġpick": 4189,
      "Ġkilled": 4190,
      "encies": 4191,
      "inition": 4192,
      "rong": 4193,
      "Ðµ": 4194,
      "more": 4195,
      "Ġradio": 4196,
      "Ġepisode": 4197,
      "Ġdouble": 4198,
      "Ġconstruction": 4199,
      "Ġproducts": 4200,
      "She": 4201,
      "Ġmodels": 4202,
      "ĠAirport": 4203,
      "Ġdetermin": 4204,
      "Ġtransfer": 4205,
      "ĠChinese": 4206,
      "comes": 4207,
      "ĠWil": 4208,
      "Ġcorrespond": 4209,
      "ĠCath": 4210,
      "Ġculture": 4211,
      "Ġconstruct": 4212,
      "atre": 4213,
      "check": 4214,
      "Ġoutput": 4215,
      "Ġappeared": 4216,
      "ictor": 4217,
      "page": 4218,
      "ĠFore": 4219,
      "Ġdrop": 4220,
      "Ġball": 4221,
      "User": 4222,
      "Ġprovides": 4223,
      "ĠMinister": 4224,
      "Ġapproach": 4225,
      "ĠPre": 4226,
      "web": 4227,
      "eds": 4228,
      "illed": 4229,
      "Ġthemselves": 4230,
      "ying": 4231,
      "Ġrecorded": 4232,
      "antic": 4233,
      "Ġneigh": 4234,
      "package": 4235,
      "actory": 4236,
      "wise": 4237,
      "valid": 4238,
      "urt": 4239,
      "atabase": 4240,
      "acity": 4241,
      "cell": 4242,
      "Ġsports": 4243,
      "option": 4244,
      "Ġplant": 4245,
      "'ve": 4246,
      "big": 4247,
      "level": 4248,
      "Ġelements": 4249,
      "sigma": 4250,
      "Ġallowed": 4251,
      "Ġsy": 4252,
      "ĠAP": 4253,
      "41": 4254,
      "Ġemer": 4255,
      "mercial": 4256,
      "ĠCarol": 4257,
      "ĠSuper": 4258,
      "Ġsen": 4259,
      "Ġevidence": 4260,
      "Ġship": 4261,
      "Ġrow": 4262,
      "Ġunit": 4263,
      "jo": 4264,
      "Che": 4265,
      "Ġrisk": 4266,
      "56": 4267,
      "Ġseven": 4268,
      "Ġwanted": 4269,
      "Response": 4270,
      "core": 4271,
      "ĠSmith": 4272,
      "Ġstudies": 4273,
      "Ġdeep": 4274,
      "Ġoption": 4275,
      "=\"../": 4276,
      "Ġlines": 4277,
      "Ġbehav": 4278,
      "uns": 4279,
      "Ġplaces": 4280,
      "ĠFlor": 4281,
      "bo": 4282,
      "Query": 4283,
      "Ġlonger": 4284,
      "ĠAre": 4285,
      "resh": 4286,
      "Ġlargest": 4287,
      "================": 4288,
      "ĠHill": 4289,
      "ĠKore": 4290,
      "Ġstay": 4291,
      "umbers": 4292,
      "urity": 4293,
      "Ġwor": 4294,
      "ĠWestern": 4295,
      "Ġmovie": 4296,
      "1993": 4297,
      "Ġcopy": 4298,
      "place": 4299,
      "Ġplatform": 4300,
      "Ġcentral": 4301,
      "iant": 4302,
      "Ġcivil": 4303,
      "Ã¤": 4304,
      "ĠKingdom": 4305,
      "Ġthreat": 4306,
      "icago": 4307,
      "eve": 4308,
      "Ge": 4309,
      "Ġapprox": 4310,
      "Ġinterview": 4311,
      "ework": 4312,
      "come": 4313,
      "pty": 4314,
      "sq": 4315,
      "Ġjournal": 4316,
      "Ġmatter": 4317,
      "Property": 4318,
      "Ġinstit": 4319,
      "doc": 4320,
      "Ġanything": 4321,
      "cons": 4322,
      "Ġnothing": 4323,
      "hest": 4324,
      "uals": 4325,
      "ĠJapanese": 4326,
      "well": 4327,
      "ĠTer": 4328,
      "Ġcelebr": 4329,
      "iece": 4330,
      "ĠRock": 4331,
      "End": 4332,
      "ental": 4333,
      "lam": 4334,
      "porary": 4335,
      "Ġnames": 4336,
      "EE": 4337,
      "ĠLouis": 4338,
      "ĠVirgin": 4339,
      "Ġquality": 4340,
      "dev": 4341,
      "Ġscient": 4342,
      "Ġkm": 4343,
      "Ġcapital": 4344,
      "SC": 4345,
      "Eng": 4346,
      "Be": 4347,
      "Ġwrite": 4348,
      "press": 4349,
      "Ġseems": 4350,
      "Ġlabel": 4351,
      "Method": 4352,
      "ĠHistory": 4353,
      "ĠSet": 4354,
      "ASS": 4355,
      "ĠCamp": 4356,
      "ulture": 4357,
      "ests": 4358,
      "ca": 4359,
      "Ġusually": 4360,
      "ĠBre": 4361,
      "Ġvalid": 4362,
      "Ġapplication": 4363,
      "road": 4364,
      "88": 4365,
      "ĠFrank": 4366,
      "Ġlegal": 4367,
      "ĠĠĠĠĠĠĠĠĠĠĠĠ": 4368,
      "Ġdaughter": 4369,
      "Ġtowards": 4370,
      "Ġgrowth": 4371,
      "So": 4372,
      "Ġsomeone": 4373,
      "umni": 4374,
      "Ġpurch": 4375,
      "Ġmeasure": 4376,
      "Ġimmedi": 4377,
      "anta": 4378,
      "gamma": 4379,
      "ĠFrancis": 4380,
      "ĠStar": 4381,
      "mitted": 4382,
      "Ġstream": 4383,
      "Ġbrought": 4384,
      "pat": 4385,
      "Ġâ": 4386,
      "ptions": 4387,
      "Ġtreatment": 4388,
      "ua": 4389,
      "za": 4390,
      "Ġuses": 4391,
      "Ġweeks": 4392,
      "Ġcalc": 4393,
      "Ġfemale": 4394,
      "||": 4395,
      ";</": 4396,
      "ils": 4397,
      "Ġfriends": 4398,
      "ithub": 4399,
      "ensity": 4400,
      "Ġsense": 4401,
      "ensus": 4402,
      "Client": 4403,
      "Ġmention": 4404,
      "Ġ$(": 4405,
      "ĠOther": 4406,
      "Ġproblems": 4407,
      "ĠAN": 4408,
      "Ġmaintain": 4409,
      "Ġlevels": 4410,
      "ternet": 4411,
      "Ġdead": 4412,
      "Ġrank": 4413,
      "owers": 4414,
      "reland": 4415,
      "Ġdise": 4416,
      "current": 4417,
      "Override": 4418,
      "uate": 4419,
      "Ġprevent": 4420,
      "Ġquite": 4421,
      "Ġtrying": 4422,
      "host": 4423,
      "method": 4424,
      "bour": 4425,
      "uster": 4426,
      "Ġsn": 4427,
      "asketball": 4428,
      "Ġboy": 4429,
      "Ġprinc": 4430,
      "rid": 4431,
      "do": 4432,
      "Ġess": 4433,
      "ita": 4434,
      "evelopment": 4435,
      "Ġdemon": 4436,
      "That": 4437,
      "Ġbank": 4438,
      "Ġlack": 4439,
      "1991": 4440,
      "ura": 4441,
      "ĠAcademy": 4442,
      "ĠPeter": 4443,
      "Ġformed": 4444,
      "ĠĠĠĠĠĠĠĠĠĠ": 4445,
      "ĠCommission": 4446,
      "Ġnormal": 4447,
      "Ġchanged": 4448,
      "delta": 4449,
      "model": 4450,
      "95": 4451,
      "Ġcoach": 4452,
      "isions": 4453,
      "uated": 4454,
      "''": 4455,
      "Ð¸": 4456,
      "Ġfa": 4457,
      "Ġselected": 4458,
      "ega": 4459,
      "Ġmethods": 4460,
      "Ġwidth": 4461,
      "Ġnil": 4462,
      "ky": 4463,
      "Ġtemper": 4464,
      "shire": 4465,
      "false": 4466,
      "yles": 4467,
      "Ġprimary": 4468,
      "Ġpark": 4469,
      "enge": 4470,
      "Ġmach": 4471,
      "thlet": 4472,
      "Ġmeeting": 4473,
      "Ġartists": 4474,
      "ĠOpen": 4475,
      "ĠJose": 4476,
      "ĠZeal": 4477,
      "Ġprop": 4478,
      "west": 4479,
      "Ġdirected": 4480,
      "Ġhttps": 4481,
      "ĠHistor": 4482,
      "ĠWomen": 4483,
      "tab": 4484,
      "Ġtypes": 4485,
      "Ġansw": 4486,
      "contain": 4487,
      "Ġdegree": 4488,
      "tty": 4489,
      "hem": 4490,
      "ĠSund": 4491,
      "Ġgold": 4492,
      "+\\": 4493,
      "ĠCongress": 4494,
      "Ġbool": 4495,
      "gor": 4496,
      "Ġmur": 4497,
      "Ġsimple": 4498,
      "reme": 4499,
      "Ġforces": 4500,
      "stant": 4501,
      "eria": 4502,
      "Ġpractice": 4503,
      "Ġautom": 4504,
      "Source": 4505,
      "Ġcontains": 4506,
      "ĠUs": 4507,
      "Ġcells": 4508,
      "ĠKe": 4509,
      "Ġhum": 4510,
      "db": 4511,
      "indow": 4512,
      "Ġsurface": 4513,
      "Ġwriter": 4514,
      "NA": 4515,
      "ournament": 4516,
      "witter": 4517,
      "ounds": 4518,
      "ĠZealand": 4519,
      "xi": 4520,
      "Ġcolumn": 4521,
      "1960": 4522,
      "Ġnumer": 4523,
      "Ġestim": 4524,
      "reater": 4525,
      "Le": 4526,
      "itiz": 4527,
      "itation": 4528,
      "Ġshall": 4529,
      "Ġtal": 4530,
      "ĠCharles": 4531,
      "orning": 4532,
      "Ġoperation": 4533,
      "ĠLos": 4534,
      "ialog": 4535,
      "Ġleague": 4536,
      "*}": 4537,
      "Ġeffects": 4538,
      "Ġshot": 4539,
      "Ġdecided": 4540,
      "ramework": 4541,
      "Ġprem": 4542,
      "akers": 4543,
      "ĠMel": 4544,
      "Ġbeaut": 4545,
      "Act": 4546,
      "ĠJul": 4547,
      "Ġinside": 4548,
      "ias": 4549,
      "Image": 4550,
      "Ġcharg": 4551,
      "namespace": 4552,
      "Ġrecently": 4553,
      "Ġ($": 4554,
      "ĠRef": 4555,
      "anged": 4556,
      "icks": 4557,
      "Date": 4558,
      "ĠRichard": 4559,
      "ildren": 4560,
      "Ġexhib": 4561,
      "vest": 4562,
      "dr": 4563,
      "Ġconstit": 4564,
      "77": 4565,
      ")}": 4566,
      "ican": 4567,
      "Ġsaying": 4568,
      "Ġartist": 4569,
      "Am": 4570,
      "ename": 4571,
      "ĠGovernment": 4572,
      "Ġtransport": 4573,
      "Ġpack": 4574,
      "Ġfun": 4575,
      "github": 4576,
      "ously": 4577,
      "CL": 4578,
      "Ġscience": 4579,
      "idden": 4580,
      "Ġearlier": 4581,
      "Ġbur": 4582,
      "php": 4583,
      "Builder": 4584,
      "^\\": 4585,
      ">(": 4586,
      "times": 4587,
      "ady": 4588,
      "Ġesc": 4589,
      "ordin": 4590,
      "izes": 4591,
      "Ġsummer": 4592,
      "dir": 4593,
      "Ġspect": 4594,
      "Ġdrug": 4595,
      "NS": 4596,
      "Ġoperations": 4597,
      "ĠItalian": 4598,
      "Ġfinished": 4599,
      "Ġunique": 4600,
      "pected": 4601,
      "Ġtit": 4602,
      "Ġtrade": 4603,
      "ĠAv": 4604,
      "Ġguitar": 4605,
      "ymbol": 4606,
      "ĠĠĠĠĠĠĠĠĠĠĠĠĠĠĠĠĠ": 4607,
      "Ġdetails": 4608,
      "Ġtheory": 4609,
      "Ġeverything": 4610,
      "stream": 4611,
      "Ġlives": 4612,
      "ĠBig": 4613,
      "onder": 4614,
      "isl": 4615,
      "dl": 4616,
      "ĠLake": 4617,
      "Ġmechan": 4618,
      "Can": 4619,
      "TH": 4620,
      "ĠStr": 4621,
      "soft": 4622,
      "Ġfinancial": 4623,
      "Ġinvestig": 4624,
      "igr": 4625,
      "Ġsoftware": 4626,
      "ĠParis": 4627,
      "ora": 4628,
      "ĠRecords": 4629,
      "Ġcause": 4630,
      "Ġwait": 4631,
      "miss": 4632,
      "ĠNow": 4633,
      "overs": 4634,
      "ĠReview": 4635,
      "Ġelected": 4636,
      "ether": 4637,
      "ĠSy": 4638,
      "Ġmanufact": 4639,
      "EL": 4640,
      "Ġleader": 4641,
      "Char": 4642,
      "51": 4643,
      "](": 4644,
      "Ġfamilies": 4645,
      "ĠSummer": 4646,
      "Head": 4647,
      "Ġheight": 4648,
      "Ġsomet": 4649,
      "Ġandroid": 4650,
      "ircraft": 4651,
      "ĠOver": 4652,
      "Ġagre": 4653,
      "Ġhop": 4654,
      "options": 4655,
      "ĠRussia": 4656,
      "52": 4657,
      "ĠBur": 4658,
      "ĠĠĠĠĠĠĠĠĠĠĠĠĠĠĠĠĠĠĠĠĠĠĠĠĠĠĠĠĠĠĠ": 4659,
      "lo": 4660,
      "54": 4661,
      "Ġintroduced": 4662,
      "Ġtim": 4663,
      "ario": 4664,
      "ĠCommittee": 4665,
      "Ġstd": 4666,
      "Ġindependent": 4667,
      "ims": 4668,
      "EX": 4669,
      "izations": 4670,
      "ulate": 4671,
      "orial": 4672,
      "Ġfounded": 4673,
      "iler": 4674,
      "Sup": 4675,
      "Ġconcept": 4676,
      "1989": 4677,
      "tem": 4678,
      "Ġgraph": 4679,
      "has": 4680,
      "Part": 4681,
      "Ġpreviously": 4682,
      "Dis": 4683,
      "69": 4684,
      "TV": 4685,
      "0000": 4686,
      "grad": 4687,
      "Ġthus": 4688,
      "Ġmedical": 4689,
      "Ġisn": 4690,
      "Ġwest": 4691,
      "Ġleave": 4692,
      "Ġincreased": 4693,
      "Ġcollect": 4694,
      "ifying": 4695,
      "itude": 4696,
      "ĠOper": 4697,
      "Ġeast": 4698,
      "ĠTime": 4699,
      "ECT": 4700,
      "Ġinsp": 4701,
      "ervices": 4702,
      "atin": 4703,
      "Ġaltern": 4704,
      "ella": 4705,
      "otype": 4706,
      "rt": 4707,
      "Ġbuildings": 4708,
      "image": 4709,
      "yt": 4710,
      "ĠRead": 4711,
      "FC": 4712,
      ")</": 4713,
      "Ġproperties": 4714,
      "pass": 4715,
      "Ġmovement": 4716,
      "actions": 4717,
      "Ġprotected": 4718,
      "Back": 4719,
      "Ġbeginning": 4720,
      "First": 4721,
      "igan": 4722,
      "Ġclosed": 4723,
      "anda": 4724,
      "Ġsimply": 4725,
      "anned": 4726,
      "<!--": 4727,
      "iring": 4728,
      "Ġpositive": 4729,
      "ĠHel": 4730,
      "Ġfavor": 4731,
      "rho": 4732,
      "astern": 4733,
      "Ġalbums": 4734,
      "Ġdeb": 4735,
      "imin": 4736,
      "Ġpassed": 4737,
      "Us": 4738,
      "BA": 4739,
      "ĠRem": 4740,
      "Ġdark": 4741,
      "Ġclient": 4742,
      "Ġstudent": 4743,
      "Ġexpand": 4744,
      "Ġanti": 4745,
      "ĠMass": 4746,
      "ĠThen": 4747,
      "Ġstories": 4748,
      "53": 4749,
      "ĠChicago": 4750,
      "iller": 4751,
      "ĠAtt": 4752,
      "ĠBoard": 4753,
      "'ll": 4754,
      "Ġusers": 4755,
      "urrent": 4756,
      "erc": 4757,
      "post": 4758,
      "Ġunits": 4759,
      "Ġshoot": 4760,
      "azz": 4761,
      "Ġdirectly": 4762,
      "ĠCE": 4763,
      "Ġexact": 4764,
      "ola": 4765,
      "Ġcatch": 4766,
      "gu": 4767,
      "])": 4768,
      "$-": 4769,
      "Ġsecret": 4770,
      "Ġcompl": 4771,
      "ronic": 4772,
      "ĠFlorida": 4773,
      "illa": 4774,
      "Ġmagn": 4775,
      "nu": 4776,
      "Ġlimited": 4777,
      "Ġdeliver": 4778,
      "ĠDec": 4779,
      "case": 4780,
      "house": 4781,
      "My": 4782,
      "Ġeconomic": 4783,
      "isf": 4784,
      "client": 4785,
      "osh": 4786,
      "Ġcollege": 4787,
      "Ġcompetition": 4788,
      "UL": 4789,
      "null": 4790,
      "ĠPri": 4791,
      "Ġappointed": 4792,
      "sim": 4793,
      "1988": 4794,
      "ategy": 4795,
      "=#": 4796,
      "figure": 4797,
      "Ġfinally": 4798,
      "Ġstri": 4799,
      "oral": 4800,
      "Ġgrand": 4801,
      "ancy": 4802,
      "Stream": 4803,
      "ĠIreland": 4804,
      "element": 4805,
      "ĠSeries": 4806,
      "BS": 4807,
      "isation": 4808,
      "ĠRel": 4809,
      "Ext": 4810,
      "Ġselect": 4811,
      "Ġresource": 4812,
      "ĠCD": 4813,
      "atively": 4814,
      "ĠLife": 4815,
      "Util": 4816,
      "Ġexcept": 4817,
      "Ġcam": 4818,
      "Ġspent": 4819,
      "Ġdistribution": 4820,
      "ĠTimes": 4821,
      "Ġmissing": 4822,
      "ette": 4823,
      "icture": 4824,
      "Ġinternal": 4825,
      "Ġitem": 4826,
      "nected": 4827,
      "Ġgas": 4828,
      "Ġorganization": 4829,
      "Ġreference": 4830,
      "ĠUSA": 4831,
      "force": 4832,
      "ĠOb": 4833,
      "Ġactivities": 4834,
      "ĠAtl": 4835,
      "Ġetc": 4836,
      "Ġsort": 4837,
      "Ġfollows": 4838,
      "uke": 4839,
      "78": 4840,
      "ĠFilm": 4841,
      "Ġdemonstr": 4842,
      "ONT": 4843,
      "ien": 4844,
      "ĠProgram": 4845,
      "Ġdestroy": 4846,
      "Base": 4847,
      "rics": 4848,
      "Ġturned": 4849,
      "Ġreached": 4850,
      "Ġfoot": 4851,
      "Ġstore": 4852,
      "ĠYour": 4853,
      "Ġuns": 4854,
      "ellig": 4855,
      "ĠArts": 4856,
      "Ġruns": 4857,
      "!!": 4858,
      "Ġnature": 4859,
      "Ġfailed": 4860,
      "Ġanc": 4861,
      "olk": 4862,
      "((": 4863,
      "Ġparents": 4864,
      "Ġextra": 4865,
      "apping": 4866,
      "OC": 4867,
      "Ġcard": 4868,
      "Pos": 4869,
      "ĠDirector": 4870,
      "Ġwide": 4871,
      "query": 4872,
      "Ġstarting": 4873,
      "Ġsched": 4874,
      "ĠVictor": 4875,
      "Ġer": 4876,
      "ao": 4877,
      "Ġnumbers": 4878,
      "ĠLand": 4879,
      "Go": 4880,
      "Ġrecomm": 4881,
      "ĠForm": 4882,
      "inct": 4883,
      "Ġcompared": 4884,
      "orph": 4885,
      "HT": 4886,
      "ĠMexico": 4887,
      "ĠCatholic": 4888,
      "orpor": 4889,
      "Ġprogress": 4890,
      "Ġavoid": 4891,
      "Ġfarm": 4892,
      "Ġboolean": 4893,
      "ĠOur": 4894,
      "ĠIll": 4895,
      "Ġ(\"": 4896,
      "Ġfast": 4897,
      "ĠBank": 4898,
      "ĠOF": 4899,
      "ĠMo": 4900,
      "yth": 4901,
      "ĠFestival": 4902,
      "den": 4903,
      "uct": 4904,
      "ĠPlay": 4905,
      "theta": 4906,
      "ĠGeorg": 4907,
      "just": 4908,
      "Ġlimit": 4909,
      "Ġeveryone": 4910,
      "ributes": 4911,
      "Ġpresented": 4912,
      "ĠÂ£": 4913,
      "razil": 4914,
      "yan": 4915,
      "ĠAngeles": 4916,
      "izer": 4917,
      "ĠOh": 4918,
      "ĠBusiness": 4919,
      "aling": 4920,
      "Status": 4921,
      "undle": 4922,
      "Ġplans": 4923,
      "Ġmanager": 4924,
      "Ġtraditional": 4925,
      "Rep": 4926,
      "Ġscore": 4927,
      "ĠIS": 4928,
      "Ġeventually": 4929,
      "Ġblood": 4930,
      "Dr": 4931,
      "Ġweb": 4932,
      "Ġquant": 4933,
      "ĠSil": 4934,
      "ĠNULL": 4935,
      "inner": 4936,
      "ĠMost": 4937,
      "Ġrules": 4938,
      "ĠFootball": 4939,
      "ĠTop": 4940,
      "Ġactivity": 4941,
      "ĠPet": 4942,
      "Ġformat": 4943,
      "Ġopening": 4944,
      "ĠPenn": 4945,
      "Ġweight": 4946,
      "ĠOl": 4947,
      "Ġprotect": 4948,
      "98": 4949,
      "vention": 4950,
      "Ġcontinu": 4951,
      "ĠForce": 4952,
      "Ġequip": 4953,
      "ĠEducation": 4954,
      "300": 4955,
      "Ġsec": 4956,
      "Ġsch": 4957,
      "Ġcritic": 4958,
      "Ġways": 4959,
      "Ġmiddle": 4960,
      "ylv": 4961,
      "ĠMil": 4962,
      "RA": 4963,
      "venue": 4964,
      "Ġsometimes": 4965,
      "Ġincreasing": 4966,
      "1987": 4967,
      "unched": 4968,
      "ĠBrown": 4969,
      "imens": 4970,
      "enty": 4971,
      "ĠUnder": 4972,
      "tau": 4973,
      "inst": 4974,
      "ĠTwo": 4975,
      "ĠAccording": 4976,
      "Ġcondition": 4977,
      "Ġstated": 4978,
      "imb": 4979,
      "Ġlarger": 4980,
      "Ġnation": 4981,
      "Ġgoes": 4982,
      "uan": 4983,
      "Ġplaced": 4984,
      "ĠMur": 4985,
      "arian": 4986,
      "Ġmulti": 4987,
      "ici": 4988,
      "ĠCast": 4989,
      "Ġaw": 4990,
      "Oper": 4991,
      "Ġpaint": 4992,
      "ĠSince": 4993,
      "ĠData": 4994,
      "icated": 4995,
      "Co": 4996,
      "Ear": 4997,
      "ĠOffice": 4998,
      "Ġrap": 4999,
      "arts": 5000,
      "non": 5001,
      "iders": 5002,
      "Ġrat": 5003,
      "finished": 5004,
      "Ġspeed": 5005,
      "Ġremain": 5006,
      "Ġhar": 5007,
      "Ġnav": 5008,
      "Ġparticularly": 5009,
      "ĠArab": 5010,
      "ĠDen": 5011,
      "Per": 5012,
      "Ġserious": 5013,
      "Ġgets": 5014,
      "Ġmix": 5015,
      "ĠSecret": 5016,
      "Ġpen": 5017,
      "Ġphysical": 5018,
      "ĠSecond": 5019,
      "ĠDev": 5020,
      "Ġquarter": 5021,
      "po": 5022,
      "ĠScot": 5023,
      "gorith": 5024,
      "itz": 5025,
      "ebug": 5026,
      "ATE": 5027,
      "bur": 5028,
      "ĠTour": 5029,
      "df": 5030,
      "Ġscen": 5031,
      "ĠEnd": 5032,
      "ato": 5033,
      "Ġremains": 5034,
      "height": 5035,
      "ĠVirginia": 5036,
      "UE": 5037,
      "ĠSee": 5038,
      "FI": 5039,
      "Ġmis": 5040,
      "1986": 5041,
      "adding": 5042,
      "Ġwid": 5043,
      "Ġregister": 5044,
      "ĠIran": 5045,
      "verse": 5046,
      "jav": 5047,
      "Ġfourth": 5048,
      "ĠMem": 5049,
      "ĠBo": 5050,
      "Ġscene": 5051,
      "haps": 5052,
      "Ġprograms": 5053,
      "ĠJournal": 5054,
      "ĠGoogle": 5055,
      "]{": 5056,
      "ĠKn": 5057,
      "Ġability": 5058,
      "Don": 5059,
      "ĠSpanish": 5060,
      "vision": 5061,
      "ĠGen": 5062,
      "Ġsupported": 5063,
      "Ġord": 5064,
      "ĠMartin": 5065,
      "Ġfunctions": 5066,
      "Ġgives": 5067,
      "Ġsubsequ": 5068,
      "63": 5069,
      "Ð½": 5070,
      "Ġconnection": 5071,
      "args": 5072,
      "Ġconnect": 5073,
      "lock": 5074,
      "Ġnearly": 5075,
      "Ġproposed": 5076,
      "ĉĊ": 5077,
      "leq": 5078,
      "Ġentry": 5079,
      "Ġteacher": 5080,
      "ĠWind": 5081,
      "Ġassum": 5082,
      "ĠLong": 5083,
      "ĠVer": 5084,
      "ĠPeople": 5085,
      "Nav": 5086,
      "ĠJo": 5087,
      "Ġvoice": 5088,
      "Ġknowledge": 5089,
      "utch": 5090,
      "Ġir": 5091,
      "Ġmeaning": 5092,
      "Ġpattern": 5093,
      "ĠFace": 5094,
      "rowser": 5095,
      "Ġwood": 5096,
      "cm": 5097,
      "Ġeditor": 5098,
      "ĠSocial": 5099,
      "Ġbeg": 5100,
      "Ġdirection": 5101,
      "Ġwindow": 5102,
      "Equal": 5103,
      "erved": 5104,
      "ĠGood": 5105,
      "Ġattention": 5106,
      "Ġprep": 5107,
      "Input": 5108,
      "Ġquestions": 5109,
      "rows": 5110,
      "1984": 5111,
      "ĠItaly": 5112,
      "ĠCL": 5113,
      "ĠHot": 5114,
      "Ġstations": 5115,
      "Ġprojects": 5116,
      "UM": 5117,
      "Ġreli": 5118,
      "ibly": 5119,
      "Ġded": 5120,
      "ĠSun": 5121,
      "abit": 5122,
      "Ġbal": 5123,
      "eful": 5124,
      "strong": 5125,
      "Ġvote": 5126,
      "partial": 5127,
      "ĠBi": 5128,
      "ĠProject": 5129,
      "iana": 5130,
      "Ġcouple": 5131,
      "Ġscale": 5132,
      "Line": 5133,
      "Ġchalleng": 5134,
      "ĠWood": 5135,
      "Ġeasy": 5136,
      "inger": 5137,
      "ÑĤ": 5138,
      "fty": 5139,
      "Ġoriginally": 5140,
      "func": 5141,
      "target": 5142,
      "Ġcommercial": 5143,
      "request": 5144,
      "track": 5145,
      "ishop": 5146,
      "can": 5147,
      "1985": 5148,
      ")(": 5149,
      "Ġrule": 5150,
      "ĠFe": 5151,
      "flict": 5152,
      "Ġcop": 5153,
      "GL": 5154,
      "Ġdigital": 5155,
      "Ġemb": 5156,
      "Ġlisted": 5157,
      "Ġ<<": 5158,
      "Ġplays": 5159,
      "dated": 5160,
      "ingu": 5161,
      "ĠOrder": 5162,
      "pol": 5163,
      "first": 5164,
      "PS": 5165,
      "}(\\": 5166,
      "62": 5167,
      "Ġtransl": 5168,
      "ĠStep": 5169,
      "Ġcorrect": 5170,
      "Ġ+=": 5171,
      "Action": 5172,
      "ĠOld": 5173,
      "uled": 5174,
      "Instance": 5175,
      "ĠKh": 5176,
      "Ġeval": 5177,
      "Ġhighest": 5178,
      "Hel": 5179,
      "ervation": 5180,
      "Ġoffers": 5181,
      "lib": 5182,
      "Ġ->": 5183,
      "ĠGL": 5184,
      "Ġcomputer": 5185,
      "ĠJun": 5186,
      "Ġoverall": 5187,
      "mas": 5188,
      "gent": 5189,
      "ĠOlympics": 5190,
      "Ġmicro": 5191,
      "ockey": 5192,
      "Ġbus": 5193,
      "Ġcollabor": 5194,
      "Ġconstant": 5195,
      "foot": 5196,
      "Ġpm": 5197,
      "Ġallows": 5198,
      "mine": 5199,
      "Ġgrant": 5200,
      "Ġlearning": 5201,
      "ugin": 5202,
      "Ġfootballers": 5203,
      "Ġstreng": 5204,
      "ĠFig": 5205,
      "Ġsolution": 5206,
      "ĠFoundation": 5207,
      "rypt": 5208,
      "Ġsurround": 5209,
      "){": 5210,
      "Ġpartners": 5211,
      "Ġnecessary": 5212,
      "Ġunivers": 5213,
      "ĠĠĠĠĠĠĠĠĠĠĠĠĠĠ": 5214,
      "Ġoil": 5215,
      "illing": 5216,
      "Ġhol": 5217,
      "Ġvs": 5218,
      "Ġalumni": 5219,
      "Point": 5220,
      "allery": 5221,
      "azon": 5222,
      "ĠHenry": 5223,
      "ĠReturn": 5224,
      "Ġupdate": 5225,
      ">>": 5226,
      "TY": 5227,
      "Ġfair": 5228,
      "Ġreplaced": 5229,
      "ba": 5230,
      "under": 5231,
      "ĠRos": 5232,
      "Ġfeatured": 5233,
      "ĠEngine": 5234,
      "ums": 5235,
      "olve": 5236,
      "long": 5237,
      "Ġaircraft": 5238,
      "Ġpoor": 5239,
      "nel": 5240,
      "ĠTeam": 5241,
      "EM": 5242,
      "Ġdepend": 5243,
      "Ġrepe": 5244,
      "Ġreceive": 5245,
      "aturday": 5246,
      "Ġfelt": 5247,
      "Ġresources": 5248,
      "Ġforeign": 5249,
      "property": 5250,
      "Token": 5251,
      "Last": 5252,
      "61": 5253,
      "Ġmemory": 5254,
      "Ġsurpr": 5255,
      "ĠĠĠĠĠĠĠĠĊ": 5256,
      "Ġult": 5257,
      "inding": 5258,
      "tings": 5259,
      "fe": 5260,
      "ĠIts": 5261,
      "ĠDou": 5262,
      "ĠSwed": 5263,
      "Handler": 5264,
      "asion": 5265,
      "Ġfields": 5266,
      "97": 5267,
      "riage": 5268,
      "ulf": 5269,
      "adata": 5270,
      "Ġprison": 5271,
      "Delta": 5272,
      "exp": 5273,
      "ĠKar": 5274,
      "ester": 5275,
      "Ġgoals": 5276,
      "ypes": 5277,
      "Content": 5278,
      "ĠEmp": 5279,
      "ribe": 5280,
      "undred": 5281,
      "Ġtouch": 5282,
      "ĠTHE": 5283,
      "ĠTim": 5284,
      "Ġhope": 5285,
      "Ġbattle": 5286,
      "ĠAwards": 5287,
      "ĠShow": 5288,
      "istance": 5289,
      "Ġwrong": 5290,
      "Ġreb": 5291,
      "Ġprice": 5292,
      "gn": 5293,
      "Ġoccup": 5294,
      "omega": 5295,
      "Ġlatest": 5296,
      "asy": 5297,
      "osing": 5298,
      "ĠJim": 5299,
      "Ġalleg": 5300,
      "open": 5301,
      "ĠLove": 5302,
      "ĠMain": 5303,
      "Ġgenerally": 5304,
      "Ġtrain": 5305,
      "append": 5306,
      "1950": 5307,
      "ĠJud": 5308,
      "Ġpull": 5309,
      "Ġappears": 5310,
      "ecause": 5311,
      "which": 5312,
      "Ġperfect": 5313,
      "Ġminor": 5314,
      "rl": 5315,
      "iano": 5316,
      "Ġmission": 5317,
      "inem": 5318,
      "button": 5319,
      "weet": 5320,
      "Web": 5321,
      "Ġnone": 5322,
      "Ġslow": 5323,
      "Ġhands": 5324,
      "usion": 5325,
      "Ġpretty": 5326,
      "usband": 5327,
      "Ġbasis": 5328,
      "ĠManagement": 5329,
      "Ġfif": 5330,
      "Ġworth": 5331,
      "Ġeffective": 5332,
      "Ġple": 5333,
      "header": 5334,
      "Ġacadem": 5335,
      "Ġchem": 5336,
      "Ġsociety": 5337,
      "Null": 5338,
      "ĠPac": 5339,
      "\\,": 5340,
      "rier": 5341,
      "ĠAut": 5342,
      "ĠHome": 5343,
      "Ġwinning": 5344,
      "IA": 5345,
      "Ġsolid": 5346,
      "Ps": 5347,
      "Ġremained": 5348,
      "gs": 5349,
      "aks": 5350,
      "Ġquickly": 5351,
      "Ġbuy": 5352,
      "Ġchief": 5353,
      "ĠValley": 5354,
      "ĠDevelopment": 5355,
      "alle": 5356,
      "Ġcaused": 5357,
      "Ġarrest": 5358,
      "Ġannual": 5359,
      "Ġstatement": 5360,
      "Ġprec": 5361,
      "Ġscored": 5362,
      "ĠLee": 5363,
      "({": 5364,
      "itors": 5365,
      "John": 5366,
      "Ġmurder": 5367,
      "igger": 5368,
      "member": 5369,
      "eger": 5370,
      "greg": 5371,
      "Ġtro": 5372,
      "Ġroute": 5373,
      "nam": 5374,
      "ĠID": 5375,
      "ĠInst": 5376,
      "Ġsources": 5377,
      "Start": 5378,
      "tx": 5379,
      "ĠHaw": 5380,
      "even": 5381,
      "ĠMedia": 5382,
      "infty": 5383,
      "ocket": 5384,
      "Ġanyone": 5385,
      "Ġrecords": 5386,
      "Ġwild": 5387,
      "ÑĢ": 5388,
      "ĠLet": 5389,
      "char": 5390,
      "ĠSunday": 5391,
      "1983": 5392,
      "Gener": 5393,
      "Ġtask": 5394,
      "iful": 5395,
      "Ġawarded": 5396,
      "PC": 5397,
      "}$,": 5398,
      "stract": 5399,
      "Ġgreen": 5400,
      "ĠMa": 5401,
      "Ġgiving": 5402,
      "ĠFort": 5403,
      "Ġfans": 5404,
      "Ġbroadcast": 5405,
      "ĠBuild": 5406,
      "\").": 5407,
      "}$.": 5408,
      "Ġinstr": 5409,
      "ĠBoy": 5410,
      "Ġcoast": 5411,
      "oviet": 5412,
      "erry": 5413,
      "pack": 5414,
      "ĠSol": 5415,
      "Ġexam": 5416,
      "Ġlaws": 5417,
      "400": 5418,
      "ooth": 5419,
      "Ġhighly": 5420,
      "ĠGar": 5421,
      "Ġbrand": 5422,
      "Component": 5423,
      "Ġreports": 5424,
      "Ġmunic": 5425,
      "Ġended": 5426,
      "Options": 5427,
      "ĠDet": 5428,
      "ĠWed": 5429,
      "Ġserver": 5430,
      "ĠProfess": 5431,
      "\"),": 5432,
      "Ġcarry": 5433,
      "Ġhousehold": 5434,
      "Ġnuc": 5435,
      "unfinished": 5436,
      "flow": 5437,
      "Ġchannel": 5438,
      "Ġtransform": 5439,
      "Ġexpression": 5440,
      "rs": 5441,
      "Ġvoc": 5442,
      "Ġparameters": 5443,
      "king": 5444,
      "ny": 5445,
      "Ġfederal": 5446,
      "arden": 5447,
      "reedom": 5448,
      "ĠWell": 5449,
      "Ġwhom": 5450,
      "TS": 5451,
      "Ġfirm": 5452,
      "orter": 5453,
      "write": 5454,
      "erem": 5455,
      "Ġrespond": 5456,
      "VER": 5457,
      "ĠEarth": 5458,
      "oday": 5459,
      "Ã¨": 5460,
      "ati": 5461,
      "Ġflow": 5462,
      "Ġsetting": 5463,
      "Ġmaster": 5464,
      "Do": 5465,
      "aught": 5466,
      "ali": 5467,
      "Ġthr": 5468,
      "1982": 5469,
      "Link": 5470,
      "ĠEp": 5471,
      "ĠLibrary": 5472,
      "find": 5473,
      "Default": 5474,
      "Ġlab": 5475,
      "kins": 5476,
      "capt": 5477,
      "ĠOp": 5478,
      "Ġtree": 5479,
      "Ġadapt": 5480,
      "adium": 5481,
      "eqn": 5482,
      "ĠTre": 5483,
      "igen": 5484,
      "Ġinterface": 5485,
      "Ġimages": 5486,
      "osc": 5487,
      "ĠChief": 5488,
      "Ġdemand": 5489,
      "Attribute": 5490,
      "ĠčĊ": 5491,
      "iny": 5492,
      "Prov": 5493,
      "itness": 5494,
      "ĠCarolina": 5495,
      "Ġforms": 5496,
      "icrosoft": 5497,
      "Ġmode": 5498,
      "Met": 5499,
      "orem": 5500,
      "Ġeth": 5501,
      "Ġcorn": 5502,
      "Ġdisease": 5503,
      "Ġreach": 5504,
      "ĠYoung": 5505,
      "leep": 5506,
      "Ġmajority": 5507,
      "Ġsal": 5508,
      "Ġhy": 5509,
      "ĠFriday": 5510,
      "Ġpsych": 5511,
      "Ġsinger": 5512,
      "emporary": 5513,
      "Ġphil": 5514,
      "Ġdoc": 5515,
      "ĠMov": 5516,
      "Car": 5517,
      "[\"": 5518,
      "raight": 5519,
      "Ġlaunched": 5520,
      "aters": 5521,
      "otal": 5522,
      "iled": 5523,
      "?âĢĿ": 5524,
      "bridge": 5525,
      "Ġvert": 5526,
      "Ġvariety": 5527,
      "last": 5528,
      "Ġexisting": 5529,
      "oding": 5530,
      "Work": 5531,
      "ĠGal": 5532,
      "Page": 5533,
      "Ġmedal": 5534,
      "Ġmoving": 5535,
      "Ġelectric": 5536,
      "Ġobtained": 5537,
      "ĠCO": 5538,
      "ĠLiber": 5539,
      "Ġnoted": 5540,
      "ĠLin": 5541,
      "Ġselection": 5542,
      "Ġedition": 5543,
      "Ġcompar": 5544,
      "select": 5545,
      "Run": 5546,
      "Ġmargin": 5547,
      "Ġcommunities": 5548,
      "Ã³n": 5549,
      "Top": 5550,
      "Ġbecomes": 5551,
      "Ġcook": 5552,
      "~~": 5553,
      "local": 5554,
      "people": 5555,
      "Ġdespite": 5556,
      "cho": 5557,
      "Ġwasn": 5558,
      "Ġsets": 5559,
      "uid": 5560,
      "Ġmusical": 5561,
      "Buffer": 5562,
      "ĠÎ": 5563,
      "Ġimprov": 5564,
      "Ġtournament": 5565,
      "ĠField": 5566,
      "ĠNone": 5567,
      "background": 5568,
      "Ġ\"\"\"": 5569,
      "Ġexperiment": 5570,
      "onic": 5571,
      "Ġarm": 5572,
      "Ġdistance": 5573,
      "Ġenter": 5574,
      "Ġindividuals": 5575,
      "Ġthrows": 5576,
      "TC": 5577,
      "App": 5578,
      "Ġhospital": 5579,
      "Ġsales": 5580,
      "Ġvac": 5581,
      "Ġmorning": 5582,
      "btn": 5583,
      "Ġnote": 5584,
      "Äģ": 5585,
      "Ġfeed": 5586,
      "1979": 5587,
      "ydro": 5588,
      "weight": 5589,
      "Ġsafety": 5590,
      "Ġign": 5591,
      "ĠAM": 5592,
      "AME": 5593,
      "$$": 5594,
      "ĠBas": 5595,
      "Ġbey": 5596,
      "Ġheard": 5597,
      "ylvania": 5598,
      "icted": 5599,
      "oration": 5600,
      "Ġsenior": 5601,
      "ĠObject": 5602,
      "Ġrespectively": 5603,
      "Ġrecover": 5604,
      "Other": 5605,
      "Ġsituation": 5606,
      "Number": 5607,
      "ĠHead": 5608,
      "Block": 5609,
      "lie": 5610,
      "Ġcancer": 5611,
      "icine": 5612,
      "ih": 5613,
      "riz": 5614,
      "Ġcounter": 5615,
      "Ġextends": 5616,
      "Ġletter": 5617,
      "Ġsu": 5618,
      "ĠSpe": 5619,
      "Let": 5620,
      "ĠGame": 5621,
      "ĠĠĠĠĠĠĠĠĠĠĠĠĊ": 5622,
      "Ġunc": 5623,
      "Ġopportunity": 5624,
      "ollowing": 5625,
      "Ġcharge": 5626,
      "ĠNetwork": 5627,
      "Ġcompletely": 5628,
      "ffic": 5629,
      "aby": 5630,
      "Ġdifference": 5631,
      "Ġexpress": 5632,
      "ĠSar": 5633,
      "oston": 5634,
      "ĠLog": 5635,
      "ultural": 5636,
      "osis": 5637,
      "Ġclean": 5638,
      "ĠHere": 5639,
      "xml": 5640,
      "Ġsend": 5641,
      "Ġhelped": 5642,
      "ĠBrazil": 5643,
      "Ġsea": 5644,
      "Ġwriters": 5645,
      "acter": 5646,
      "Ġroll": 5647,
      "Ġbeyond": 5648,
      "ĠMen": 5649,
      "Ġbillion": 5650,
      "json": 5651,
      "OW": 5652,
      "Function": 5653,
      "Ġremember": 5654,
      "CA": 5655,
      "ersey": 5656,
      "language": 5657,
      "Ġpressure": 5658,
      "Ġillust": 5659,
      "Ġimmediately": 5660,
      "Ġinteresting": 5661,
      "plies": 5662,
      "Ġshowed": 5663,
      "aved": 5664,
      "Ġfully": 5665,
      "Ġolder": 5666,
      "olds": 5667,
      "ĠPan": 5668,
      "ĠIrish": 5669,
      "km": 5670,
      "ĠAlthough": 5671,
      "Ġdu": 5672,
      "apers": 5673,
      "Ġcritical": 5674,
      "Ġcitiz": 5675,
      "Factory": 5676,
      "ĠCentre": 5677,
      "Ġraised": 5678,
      "Ġcontr": 5679,
      "ashion": 5680,
      "bottom": 5681,
      "Ġgreater": 5682,
      "ĠServices": 5683,
      "udget": 5684,
      "Ġofficer": 5685,
      "ĠBob": 5686,
      "entry": 5687,
      "ptr": 5688,
      "term": 5689,
      "ĠPak": 5690,
      "ĠMot": 5691,
      "Ġinform": 5692,
      "Ġheavy": 5693,
      "idget": 5694,
      "icens": 5695,
      "draw": 5696,
      "riend": 5697,
      "Ġlif": 5698,
      "ifact": 5699,
      "ĠBase": 5700,
      "Ġensure": 5701,
      "Gr": 5702,
      "%%": 5703,
      "iro": 5704,
      "El": 5705,
      "UP": 5706,
      "iate": 5707,
      "ĠElect": 5708,
      "urance": 5709,
      "Ġtherefore": 5710,
      "ĠAssembly": 5711,
      "Ġfiles": 5712,
      "Ġreturns": 5713,
      "ĠMond": 5714,
      "GB": 5715,
      "ears": 5716,
      "spec": 5717,
      "eqref": 5718,
      "Ġang": 5719,
      "Ġsatisf": 5720,
      "........": 5721,
      "ansas": 5722,
      "CD": 5723,
      "tilde": 5724,
      "Ġmut": 5725,
      "Ġmess": 5726,
      "Ġdrive": 5727,
      "ĠJohnson": 5728,
      "Ġpoll": 5729,
      "elled": 5730,
      "clusion": 5731,
      "Ġhusband": 5732,
      "1981": 5733,
      "Ġsusp": 5734,
      "Ġking": 5735,
      "krain": 5736,
      "Ġadult": 5737,
      "Ġthous": 5738,
      "navbar": 5739,
      "Ġchoice": 5740,
      "Ġblue": 5741,
      "Ġshared": 5742,
      "Ġpoet": 5743,
      "ja": 5744,
      "ansion": 5745,
      "omy": 5746,
      "Ġsites": 5747,
      "eller": 5748,
      "ipe": 5749,
      "ĠFacebook": 5750,
      "ĠSaint": 5751,
      "Ġactor": 5752,
      "len": 5753,
      "Ġencour": 5754,
      "chers": 5755,
      "Rem": 5756,
      "Ġbasketball": 5757,
      "ĠJones": 5758,
      "SI": 5759,
      "fully": 5760,
      "ãģ": 5761,
      "Ġrob": 5762,
      "Ġapproximately": 5763,
      "ĠEnter": 5764,
      "Ġactual": 5765,
      "aka": 5766,
      "ĠWeek": 5767,
      "Ġrepresented": 5768,
      "status": 5769,
      "ĠIslam": 5770,
      "Ġ{@": 5771,
      "1972": 5772,
      "mond": 5773,
      "rolled": 5774,
      "pers": 5775,
      "Ġsymbol": 5776,
      "Ġjoin": 5777,
      "iform": 5778,
      "Ġpiece": 5779,
      "96": 5780,
      "Check": 5781,
      "Ġdynam": 5782,
      "Ñģ": 5783,
      "Ġmostly": 5784,
      "Ġbecoming": 5785,
      "Ġassess": 5786,
      "Ġpresence": 5787,
      "real": 5788,
      "awa": 5789,
      "Ġones": 5790,
      "Ġworkers": 5791,
      "PL": 5792,
      "allet": 5793,
      "Ġstudio": 5794,
      "85": 5795,
      "abs": 5796,
      "Ġcontribut": 5797,
      "bi": 5798,
      "uty": 5799,
      "irmed": 5800,
      "Ġresponsible": 5801,
      "Ġcentre": 5802,
      "Ġfigure": 5803,
      "module": 5804,
      "âĢĿ.": 5805,
      "Ġpair": 5806,
      "Ġvan": 5807,
      "Ġlaunch": 5808,
      "ĠJoseph": 5809,
      "Ġisland": 5810,
      "ĠSaturday": 5811,
      "Return": 5812,
      "ĠAlso": 5813,
      "cean": 5814,
      "Ġgrowing": 5815,
      "private": 5816,
      "sylvania": 5817,
      "Load": 5818,
      "Ġproduce": 5819,
      "ding": 5820,
      "Ġrandom": 5821,
      "ĠColumb": 5822,
      "ima": 5823,
      "lines": 5824,
      "ãĥ": 5825,
      "1976": 5826,
      "Box": 5827,
      "sole": 5828,
      "ongs": 5829,
      "Ġproviding": 5830,
      "Te": 5831,
      "pret": 5832,
      "otic": 5833,
      "ĠAsia": 5834,
      "src": 5835,
      "Ġeyes": 5836,
      "ĠMax": 5837,
      "Ġconsum": 5838,
      "Cell": 5839,
      "ĠNorthern": 5840,
      "Ġalone": 5841,
      "87": 5842,
      "ls": 5843,
      "Ġpolitician": 5844,
      "hent": 5845,
      "icate": 5846,
      "ĠSpain": 5847,
      "ĠNavy": 5848,
      "server": 5849,
      "ĠPo": 5850,
      "Ġmatches": 5851,
      "*/": 5852,
      "ĠTra": 5853,
      "ĠSand": 5854,
      "war": 5855,
      "elete": 5856,
      "pp": 5857,
      "TP": 5858,
      "REF": 5859,
      "ye": 5860,
      "ĠUN": 5861,
      "Art": 5862,
      "ĠCross": 5863,
      "Ġriver": 5864,
      "Ġimag": 5865,
      "True": 5866,
      "Ġdivision": 5867,
      "Ġitems": 5868,
      "ancing": 5869,
      "Ġequal": 5870,
      "dep": 5871,
      "Ġforced": 5872,
      "Ġstars": 5873,
      "Resource": 5874,
      "Ġauto": 5875,
      "wan": 5876,
      "igration": 5877,
      "Ġchance": 5878,
      "Ġefforts": 5879,
      "Ġpriv": 5880,
      "Ġserve": 5881,
      "areer": 5882,
      "img": 5883,
      "ĠTheir": 5884,
      "Ġcomponent": 5885,
      "inet": 5886,
      "ampion": 5887,
      "Ġseparate": 5888,
      "Ġinfluence": 5889,
      "Ġ]": 5890,
      "More": 5891,
      "'d": 5892,
      "ker": 5893,
      "ĠBritain": 5894,
      "Ġclin": 5895,
      "Ġlived": 5896,
      "chi": 5897,
      "1978": 5898,
      "Ġspread": 5899,
      "Ġoffered": 5900,
      "rate": 5901,
      "Ġbuff": 5902,
      "isters": 5903,
      "Men": 5904,
      "Ġparties": 5905,
      "ĠParliament": 5906,
      "Ġaccom": 5907,
      "gener": 5908,
      "Writ": 5909,
      "Ġforest": 5910,
      "Ġbrief": 5911,
      "SA": 5912,
      "png": 5913,
      "IO": 5914,
      "agram": 5915,
      "acement": 5916,
      "Ġpurpose": 5917,
      "ĠWilliams": 5918,
      "ATION": 5919,
      "Ġnewsp": 5920,
      "Ġobjects": 5921,
      "Ġleaving": 5922,
      "iginal": 5923,
      "Desc": 5924,
      "Ġreligious": 5925,
      "project": 5926,
      "ĠLord": 5927,
      "ko": 5928,
      "display": 5929,
      ";\"": 5930,
      "Ġsuc": 5931,
      "ologies": 5932,
      "ĠPower": 5933,
      "Ġstructures": 5934,
      "ira": 5935,
      "pc": 5936,
      "adow": 5937,
      "Ġspecified": 5938,
      "Ġsuit": 5939,
      "push": 5940,
      "ĠCommunity": 5941,
      "Ġparameter": 5942,
      "vant": 5943,
      "idae": 5944,
      "PR": 5945,
      "Ġlooks": 5946,
      "ĠConference": 5947,
      "Ġemail": 5948,
      "Ġsave": 5949,
      "raction": 5950,
      "1975": 5951,
      "close": 5952,
      "site": 5953,
      "Ġowners": 5954,
      "ĠCorpor": 5955,
      "ĠBlue": 5956,
      "cos": 5957,
      "Ġsmaller": 5958,
      "heast": 5959,
      "main": 5960,
      "Ġcalls": 5961,
      "Early": 5962,
      "Ġprefer": 5963,
      "amin": 5964,
      "ĠBet": 5965,
      "Ġcommission": 5966,
      "Ġimprove": 5967,
      "Ġhundred": 5968,
      "1974": 5969,
      "ĠId": 5970,
      "clos": 5971,
      "Ġvictory": 5972,
      "description": 5973,
      "iments": 5974,
      "airman": 5975,
      "ĠSenate": 5976,
      "Next": 5977,
      "Ð¾Ð": 5978,
      "prop": 5979,
      "Det": 5980,
      "Ġproper": 5981,
      "Ġwall": 5982,
      "Exp": 5983,
      "89": 5984,
      "Command": 5985,
      "Ġstrug": 5986,
      "plicit": 5987,
      "ĠLine": 5988,
      "Ġque": 5989,
      "Ġincome": 5990,
      "gment": 5991,
      "Ġactress": 5992,
      "Ġphase": 5993,
      "anges": 5994,
      "72": 5995,
      "uries": 5996,
      "Om": 5997,
      "ĠSir": 5998,
      "Ġagreement": 5999,
      "Ġdepartment": 6000,
      "Ġremoved": 6001,
      "Ġdog": 6002,
      "Ġbill": 6003,
      "Ġcat": 6004,
      "Ġtrust": 6005,
      "Ġnative": 6006,
      "ĠST": 6007,
      "Ġotherwise": 6008,
      "1968": 6009,
      "tag": 6010,
      "ĠPM": 6011,
      "ĠRegister": 6012,
      "ĠWales": 6013,
      "ersonal": 6014,
      "standing": 6015,
      "${": 6016,
      "Version": 6017,
      "Ġsession": 6018,
      "Ġweap": 6019,
      "1977": 6020,
      "olved": 6021,
      "ĠTechnology": 6022,
      "spect": 6023,
      "Ġgun": 6024,
      "Des": 6025,
      "INT": 6026,
      "ycl": 6027,
      "ador": 6028,
      "DA": 6029,
      "ecution": 6030,
      "Ġice": 6031,
      "ugby": 6032,
      "Ġshop": 6033,
      "ĠFire": 6034,
      "Ġstraight": 6035,
      "May": 6036,
      "Ġappearance": 6037,
      "ĠSpecial": 6038,
      "Ġran": 6039,
      "ĠCard": 6040,
      "Ġaspect": 6041,
      "Ã§": 6042,
      "ograp": 6043,
      "Mat": 6044,
      "1973": 6045,
      "osoph": 6046,
      "Ġfamous": 6047,
      "ĠHon": 6048,
      "Ġdomin": 6049,
      "SON": 6050,
      "IF": 6051,
      "Spec": 6052,
      "ĠMu": 6053,
      "Ġpaid": 6054,
      "Ġclaims": 6055,
      "sg": 6056,
      "ĠLuc": 6057,
      "Ġconcent": 6058,
      "only": 6059,
      "ĠDemocratic": 6060,
      "arks": 6061,
      "|\\": 6062,
      "ĠRadio": 6063,
      "oute": 6064,
      "gypt": 6065,
      "mes": 6066,
      "ĠIII": 6067,
      "Ġmill": 6068,
      "ĉĉĉĉĉĉĉĉ": 6069,
      "Ġproducer": 6070,
      "ĠJewish": 6071,
      "urban": 6072,
      "\"]": 6073,
      "anche": 6074,
      "itan": 6075,
      "Ġdrama": 6076,
      "Ġrot": 6077,
      "yer": 6078,
      "ĠSouthern": 6079,
      "Ġcities": 6080,
      "ABLE": 6081,
      "ĠWater": 6082,
      "Ġofficials": 6083,
      "Ġpil": 6084,
      "ĠChampionships": 6085,
      "Ġattended": 6086,
      "Description": 6087,
      "Ġq": 6088,
      "related": 6089,
      "});": 6090,
      "iger": 6091,
      "XX": 6092,
      "rum": 6093,
      "Ġdensity": 6094,
      "Ġhear": 6095,
      "Ġroot": 6096,
      "Ġbehavior": 6097,
      "Ġrare": 6098,
      "iated": 6099,
      "ĠHuman": 6100,
      "Ġspirit": 6101,
      "Ġowned": 6102,
      "86": 6103,
      "ãĤ": 6104,
      "Ġcreating": 6105,
      "ĠCall": 6106,
      "ĠWay": 6107,
      "ĠBow": 6108,
      "meta": 6109,
      "Min": 6110,
      "iminal": 6111,
      "Ġcapacity": 6112,
      "Ġneighbor": 6113,
      "ĠTele": 6114,
      "Ġcomments": 6115,
      "amm": 6116,
      "elligence": 6117,
      "cdot": 6118,
      "Pop": 6119,
      "ayers": 6120,
      "ursday": 6121,
      "ĠFrancisco": 6122,
      "obj": 6123,
      "Ġsouthern": 6124,
      "Ġcarried": 6125,
      "Ġremove": 6126,
      "Create": 6127,
      "ĠRh": 6128,
      "Ġmagazine": 6129,
      "Rel": 6130,
      "Ġapplied": 6131,
      "arp": 6132,
      "Ġseasons": 6133,
      "Ġremaining": 6134,
      "Ġphone": 6135,
      "bury": 6136,
      "ĠPop": 6137,
      "Ġowner": 6138,
      "Ġterrit": 6139,
      "Ġtried": 6140,
      "ĠEconom": 6141,
      "Ġconflict": 6142,
      "caption": 6143,
      "ĠTem": 6144,
      "Ġslight": 6145,
      "Ġknew": 6146,
      "raphics": 6147,
      "Ġnine": 6148,
      "ĠEmpire": 6149,
      "aylor": 6150,
      "ĠCivil": 6151,
      "py": 6152,
      "ucky": 6153,
      "Ġfle": 6154,
      "Ġseat": 6155,
      "Ġconnected": 6156,
      "CR": 6157,
      "During": 6158,
      "Ġpartner": 6159,
      "ounce": 6160,
      "Ġclimate": 6161,
      "1971": 6162,
      "1969": 6163,
      "format": 6164,
      "ĠHor": 6165,
      "Ġdescription": 6166,
      "PA": 6167,
      "ĠType": 6168,
      "Ġentered": 6169,
      "Ġapplications": 6170,
      "Ġnorthern": 6171,
      "%)": 6172,
      "Ġchampionship": 6173,
      "Rev": 6174,
      "ennis": 6175,
      "ĠSports": 6176,
      "Ġvirtual": 6177,
      "aria": 6178,
      "service": 6179,
      "Ġ;": 6180,
      "child": 6181,
      "Ġedge": 6182,
      "Ġmanaged": 6183,
      "Ġupper": 6184,
      "ĠPrem": 6185,
      "Ġaccur": 6186,
      "Big": 6187,
      "Ġcontain": 6188,
      "They": 6189,
      "Ġtrial": 6190,
      "ĠPubl": 6191,
      "Ġscript": 6192,
      "inois": 6193,
      "det": 6194,
      "Ġorganizations": 6195,
      "Vis": 6196,
      "ĠCarl": 6197,
      "erse": 6198,
      "Ġwants": 6199,
      "ĠFred": 6200,
      "chen": 6201,
      "ascript": 6202,
      "Ġmaximum": 6203,
      "Ġcultural": 6204,
      "endif": 6205,
      "ĠWin": 6206,
      "itage": 6207,
      "Ġrevealed": 6208,
      "Ġsyn": 6209,
      "Ġframe": 6210,
      "ĠLab": 6211,
      "ĠCoast": 6212,
      "While": 6213,
      "Ġcosts": 6214,
      "Aut": 6215,
      "Notes": 6216,
      "Ġobserved": 6217,
      "Ġaim": 6218,
      "lections": 6219,
      "Ġhistorical": 6220,
      "Ġsche": 6221,
      "ĠPacific": 6222,
      "kin": 6223,
      "Ġrac": 6224,
      "Ġblog": 6225,
      "ĠLead": 6226,
      "ĠNight": 6227,
      "Ġvolume": 6228,
      "ĠTheatre": 6229,
      "Ġmodule": 6230,
      "ĠSoviet": 6231,
      "Ġfactor": 6232,
      "Ġfloor": 6233,
      "Tag": 6234,
      "rich": 6235,
      "Format": 6236,
      "Ġestablishments": 6237,
      "layout": 6238,
      "estic": 6239,
      "iling": 6240,
      "eft": 6241,
      "Ġtemperature": 6242,
      "Ġbatt": 6243,
      "aming": 6244,
      "Ġnumerous": 6245,
      "Ġactions": 6246,
      "odies": 6247,
      "PRO": 6248,
      "ĠRam": 6249,
      "Ġstudied": 6250,
      "Ġrestrict": 6251,
      "font": 6252,
      "mult": 6253,
      "Ġeasily": 6254,
      "Ġapprop": 6255,
      "INE": 6256,
      "inder": 6257,
      "imation": 6258,
      "ĠWall": 6259,
      "front": 6260,
      "oms": 6261,
      "Ġdraft": 6262,
      "edia": 6263,
      "1940": 6264,
      "Ġalt": 6265,
      "Ġfre": 6266,
      "Ġexception": 6267,
      "ĠWild": 6268,
      "ĠScotland": 6269,
      "ested": 6270,
      "uesday": 6271,
      "eqnarray": 6272,
      "ĠJon": 6273,
      "AV": 6274,
      "process": 6275,
      "ĠBoston": 6276,
      "illy": 6277,
      "76": 6278,
      "anging": 6279,
      "acks": 6280,
      "Ġcandidate": 6281,
      "iques": 6282,
      "sen": 6283,
      "ĠMiddle": 6284,
      "eting": 6285,
      "burgh": 6286,
      "Ġbeat": 6287,
      "Ġadministration": 6288,
      "har": 6289,
      "Ġabsol": 6290,
      "Ġidentified": 6291,
      "iced": 6292,
      "Ġresidents": 6293,
      "Gl": 6294,
      "rome": 6295,
      "'.": 6296,
      "Sl": 6297,
      "Style": 6298,
      "Ġtick": 6299,
      "gorithm": 6300,
      "ĠMike": 6301,
      "English": 6302,
      "Ġkept": 6303,
      "Ġswitch": 6304,
      "plete": 6305,
      "epsilon": 6306,
      "Ġfont": 6307,
      "Ġcounty": 6308,
      "ĠBattle": 6309,
      "olec": 6310,
      "ĠGreek": 6311,
      "ĠEX": 6312,
      "Ġ((": 6313,
      "Ġmaterials": 6314,
      "ĠPolice": 6315,
      "ĠQueen": 6316,
      "Ġfine": 6317,
      "while": 6318,
      "Ġfilter": 6319,
      "FONT": 6320,
      "Controller": 6321,
      "ĠJeff": 6322,
      "Port": 6323,
      "Ġvocals": 6324,
      "abeth": 6325,
      "aked": 6326,
      "ishes": 6327,
      "Ġrail": 6328,
      "ĠUnivers": 6329,
      "Ġhuge": 6330,
      "Ġdiss": 6331,
      "Mon": 6332,
      "Ġconference": 6333,
      "ĠAndrew": 6334,
      "Ġadministr": 6335,
      "Ġsexual": 6336,
      "rence": 6337,
      "Ġarmy": 6338,
      "ĠPennsylvania": 6339,
      "Ġplease": 6340,
      "Ġwear": 6341,
      "car": 6342,
      "Ġstreet": 6343,
      "1930": 6344,
      "Equals": 6345,
      "entially": 6346,
      "ila": 6347,
      "ĠOhio": 6348,
      "nesday": 6349,
      "atas": 6350,
      "Ġauth": 6351,
      "ĠFree": 6352,
      "Ġofficers": 6353,
      "Ġbasic": 6354,
      "79": 6355,
      "Sec": 6356,
      "Ġdevices": 6357,
      "psi": 6358,
      "ĠMichigan": 6359,
      "ĠRE": 6360,
      "Ġopin": 6361,
      "small": 6362,
      "Ġcert": 6363,
      "Ġready": 6364,
      "Ġconvert": 6365,
      "Listener": 6366,
      "Ġaudience": 6367,
      "container": 6368,
      "Ġcrew": 6369,
      "ĠKen": 6370,
      "ools": 6371,
      "Open": 6372,
      "ulty": 6373,
      "Br": 6374,
      "onto": 6375,
      "ĠAff": 6376,
      "Ġcovered": 6377,
      "attr": 6378,
      "ĠMuslim": 6379,
      "ructure": 6380,
      "igin": 6381,
      "ela": 6382,
      "UI": 6383,
      "ĠJac": 6384,
      "show": 6385,
      "legal": 6386,
      "Ġpowerful": 6387,
      "ĠMonday": 6388,
      "Ġcore": 6389,
      "ĠChris": 6390,
      "Ġmetal": 6391,
      "Ġclasses": 6392,
      "bin": 6393,
      "ĠInformation": 6394,
      "Ġurl": 6395,
      "Ġfeet": 6396,
      "enth": 6397,
      "Ġunion": 6398,
      "Ġcontinues": 6399,
      "Ġpet": 6400,
      "ĠHospital": 6401,
      "}[": 6402,
      "Ġsust": 6403,
      "ponents": 6404,
      "andon": 6405,
      "ĠMah": 6406,
      "ĠRun": 6407,
      "Ġuniversity": 6408,
      "poses": 6409,
      "ĠBul": 6410,
      "ĠJes": 6411,
      "ĠColor": 6412,
      "Ġaffect": 6413,
      "Ġmachine": 6414,
      "adel": 6415,
      "Ġelections": 6416,
      "ipl": 6417,
      "}}\\": 6418,
      "Ġbottom": 6419,
      "gate": 6420,
      "life": 6421,
      "1967": 6422,
      "Ġinnov": 6423,
      "Ġhandle": 6424,
      "mann": 6425,
      "Ġmentioned": 6426,
      "Ġcars": 6427,
      "Ġdoor": 6428,
      "ez": 6429,
      "Ġcorpor": 6430,
      "ĠMany": 6431,
      "anguages": 6432,
      "Ġattract": 6433,
      "Ġattend": 6434,
      "1945": 6435,
      "unities": 6436,
      "Ġpurs": 6437,
      "Ġhappened": 6438,
      "ĠUkrain": 6439,
      "Ġfeat": 6440,
      "ĠJersey": 6441,
      "Ġdetermined": 6442,
      "Ġextended": 6443,
      "uy": 6444,
      "ĠHa": 6445,
      "ĠEven": 6446,
      "Ġrestaur": 6447,
      "Mode": 6448,
      "}_{\\": 6449,
      "unte": 6450,
      "According": 6451,
      "aval": 6452,
      "heet": 6453,
      "ĠVis": 6454,
      "Ġrelative": 6455,
      "va": 6456,
      "Ġsister": 6457,
      "asure": 6458,
      "Ġemot": 6459,
      "Ġreflect": 6460,
      "hr": 6461,
      "response": 6462,
      "apped": 6463,
      "Ġflag": 6464,
      "ĠJoe": 6465,
      "Ġdamage": 6466,
      "Ġmiles": 6467,
      "number": 6468,
      "scale": 6469,
      "stein": 6470,
      "ova": 6471,
      "Ġgeneration": 6472,
      "cles": 6473,
      "Ġproced": 6474,
      "Sim": 6475,
      "enger": 6476,
      "Ġapply": 6477,
      "ĠStand": 6478,
      "Ġvehicle": 6479,
      "ographic": 6480,
      "ipality": 6481,
      "iy": 6482,
      "found": 6483,
      "(&": 6484,
      "ĠAsian": 6485,
      "iÄ": 6486,
      "Ġwel": 6487,
      "ĠOx": 6488,
      "eces": 6489,
      "Ġequipment": 6490,
      "Ġmobile": 6491,
      "Ġshape": 6492,
      "Ġadvert": 6493,
      "Ġpages": 6494,
      "Ġcustomers": 6495,
      "stra": 6496,
      "rices": 6497,
      "stitution": 6498,
      "final": 6499,
      "Ġlatter": 6500,
      "Ġlibrary": 6501,
      "ĠVan": 6502,
      "TO": 6503,
      "filter": 6504,
      "ĠKent": 6505,
      "ilton": 6506,
      "ĠPhilipp": 6507,
      "SR": 6508,
      "Direct": 6509,
      "82": 6510,
      "Ġlooked": 6511,
      "ocused": 6512,
      "AF": 6513,
      "Ġjoint": 6514,
      "Ġcool": 6515,
      "std": 6516,
      "Ġoperating": 6517,
      "ĠFar": 6518,
      "osen": 6519,
      "wer": 6520,
      "that": 6521,
      "Ġwonder": 6522,
      "ighter": 6523,
      "author": 6524,
      "Ġspot": 6525,
      "Ġcouncil": 6526,
      "fit": 6527,
      "Ġutil": 6528,
      "DF": 6529,
      "1964": 6530,
      "ĠFamily": 6531,
      "ttp": 6532,
      "ĠAcc": 6533,
      "ds": 6534,
      "ĠJr": 6535,
      "Ġsignal": 6536,
      "Ġpolic": 6537,
      "Ġanswer": 6538,
      "Task": 6539,
      "Tem": 6540,
      "Ġraise": 6541,
      "Ġtrav": 6542,
      "Ġexecutive": 6543,
      "Ġfix": 6544,
      "ĠLem": 6545,
      "ĠWal": 6546,
      "Ġclaimed": 6547,
      "Ġtag": 6548,
      "Ġadvant": 6549,
      "ogen": 6550,
      "older": 6551,
      "Ġissued": 6552,
      "Ġaf": 6553,
      "esh": 6554,
      "Ġadopt": 6555,
      "Ġeconomy": 6556,
      "aped": 6557,
      ")$.": 6558,
      "ĠApp": 6559,
      "Ġstrateg": 6560,
      "ported": 6561,
      "ĠDaniel": 6562,
      "ĠHistoric": 6563,
      "Ġsumm": 6564,
      "common": 6565,
      "Ġconcert": 6566,
      "ĠOk": 6567,
      "Omega": 6568,
      "Ġahead": 6569,
      "94": 6570,
      "Ġonto": 6571,
      "ĠMid": 6572,
      "Ġdecre": 6573,
      "////////////////": 6574,
      "ĠLim": 6575,
      "update": 6576,
      "Ġextrem": 6577,
      "expected": 6578,
      "Now": 6579,
      "ĠSea": 6580,
      "ruit": 6581,
      "Ġaware": 6582,
      "Ġsequence": 6583,
      "ĠJackson": 6584,
      "orship": 6585,
      "params": 6586,
      "eler": 6587,
      "emic": 6588,
      "Ġrecording": 6589,
      "1920": 6590,
      "Length": 6591,
      "84": 6592,
      "ĠEvery": 6593,
      "74": 6594,
      "remove": 6595,
      "ĠJustice": 6596,
      "aver": 6597,
      "150": 6598,
      "ĠâĢ¦": 6599,
      "etch": 6600,
      "prov": 6601,
      "mt": 6602,
      "ĠSecurity": 6603,
      "ĠHT": 6604,
      "Ġagreed": 6605,
      "hor": 6606,
      "ĠGeorgia": 6607,
      "Ġmeant": 6608,
      "athan": 6609,
      "ĠKong": 6610,
      "///": 6611,
      "Column": 6612,
      "ĠMedical": 6613,
      "etts": 6614,
      "Ġviews": 6615,
      "Ġreasons": 6616,
      "ĠDesign": 6617,
      "Will": 6618,
      "asks": 6619,
      "Ġdaily": 6620,
      "Ġreduced": 6621,
      "Ġnet": 6622,
      "URL": 6623,
      "Ġexactly": 6624,
      "ĠGirl": 6625,
      "ĠBack": 6626,
      "Ġfort": 6627,
      "Ġearth": 6628,
      "KE": 6629,
      "ql": 6630,
      "uri": 6631,
      "uls": 6632,
      "Select": 6633,
      "des": 6634,
      "ĠNS": 6635,
      "ERR": 6636,
      "Gamma": 6637,
      "Ġ\\,": 6638,
      "lig": 6639,
      "ĠIllinois": 6640,
      "Max": 6641,
      "Ġdefeated": 6642,
      "ĠSecretary": 6643,
      "93": 6644,
      "ĠProvince": 6645,
      "Ġkids": 6646,
      "Ġsample": 6647,
      "ĠTwitter": 6648,
      "Ġpush": 6649,
      "ĠLicense": 6650,
      "ourney": 6651,
      "arters": 6652,
      "else": 6653,
      "ĠDown": 6654,
      "Ġtracks": 6655,
      "Ne": 6656,
      "Ġdream": 6657,
      "Ġharm": 6658,
      "1965": 6659,
      "itory": 6660,
      "irds": 6661,
      "ĠEgypt": 6662,
      "inton": 6663,
      "_.": 6664,
      "aser": 6665,
      "ĠOrgan": 6666,
      "Ġrailway": 6667,
      "ĠNY": 6668,
      "Ġunknown": 6669,
      "iser": 6670,
      "Ġsupply": 6671,
      "Ġstrategy": 6672,
      "omic": 6673,
      "annot": 6674,
      "âĢĿ,": 6675,
      "Ġregional": 6676,
      "secut": 6677,
      "Aust": 6678,
      "Valid": 6679,
      "Ġagree": 6680,
      "Label": 6681,
      "Ġidentity": 6682,
      "Ġpp": 6683,
      "Ġargument": 6684,
      "ifications": 6685,
      "Ġyouth": 6686,
      "BO": 6687,
      "AND": 6688,
      "Location": 6689,
      "Ġunderstanding": 6690,
      "Fe": 6691,
      "Ġreduce": 6692,
      "umin": 6693,
      "Address": 6694,
      "ĠGlobal": 6695,
      "Ġdiscovered": 6696,
      "ĠStan": 6697,
      "Ġleadership": 6698,
      "cs": 6699,
      "ĠGi": 6700,
      "nergy": 6701,
      "Ġcomponents": 6702,
      "Ġsport": 6703,
      "ĠWho": 6704,
      "phone": 6705,
      "Ġfixed": 6706,
      "Dev": 6707,
      "Ġideas": 6708,
      "Fig": 6709,
      "Ġdetermine": 6710,
      "Filter": 6711,
      "Ġsell": 6712,
      "sear": 6713,
      "ĠCro": 6714,
      "Ã¢": 6715,
      "Ġdriver": 6716,
      "aya": 6717,
      "cks": 6718,
      "Ġserving": 6719,
      "uts": 6720,
      "javascript": 6721,
      "Ġarticles": 6722,
      "<?": 6723,
      "claim": 6724,
      "phy": 6725,
      "ĠSte": 6726,
      "raq": 6727,
      "Current": 6728,
      "Ġrates": 6729,
      "achus": 6730,
      "Ġstorage": 6731,
      "orney": 6732,
      "Button": 6733,
      "Ġ${\\": 6734,
      "Bundle": 6735,
      "rical": 6736,
      "Ġhour": 6737,
      "nce": 6738,
      "aly": 6739,
      "eless": 6740,
      "1966": 6741,
      "ictures": 6742,
      "Ġagent": 6743,
      "FO": 6744,
      "Ġcrow": 6745,
      "dec": 6746,
      "Ġholds": 6747,
      "water": 6748,
      "atically": 6749,
      "Ġbeautiful": 6750,
      "ĠâĢ¢": 6751,
      "Ġinitially": 6752,
      "Ġcolon": 6753,
      "bra": 6754,
      "mir": 6755,
      "Ġhappen": 6756,
      "ĠRo": 6757,
      "92": 6758,
      "arser": 6759,
      "Åį": 6760,
      "aints": 6761,
      "1000": 6762,
      "Ġut": 6763,
      "inent": 6764,
      "Ġreality": 6765,
      "Ġtoward": 6766,
      "Track": 6767,
      "ĠDisc": 6768,
      "Some": 6769,
      "ĠHand": 6770,
      "BI": 6771,
      "Me": 6772,
      "azing": 6773,
      "Ġtraffic": 6774,
      "Ġsector": 6775,
      "Ġprofile": 6776,
      "ĠBrook": 6777,
      "Ġdepart": 6778,
      "ĠIndust": 6779,
      "imary": 6780,
      "alysis": 6781,
      "Ġsafe": 6782,
      "ĠPolit": 6783,
      "Members": 6784,
      "ifically": 6785,
      "Ġcontaining": 6786,
      "cor": 6787,
      "71": 6788,
      "ĠFour": 6789,
      "Ġbelieved": 6790,
      "Ġwinner": 6791,
      "Our": 6792,
      "Ġbass": 6793,
      "âĢĺ": 6794,
      "aret": 6795,
      "BU": 6796,
      "afe": 6797,
      "Ġreferred": 6798,
      "ĠRepublican": 6799,
      "Ġgenerated": 6800,
      "ancer": 6801,
      "cit": 6802,
      "ione": 6803,
      "Ġhero": 6804,
      "othing": 6805,
      "ĠTw": 6806,
      "ĠKorea": 6807,
      "efined": 6808,
      "Ġpolitics": 6809,
      "output": 6810,
      "Ġexists": 6811,
      "Ġmarriage": 6812,
      "mail": 6813,
      "vec": 6814,
      "ĠThursday": 6815,
      ".;": 6816,
      "una": 6817,
      "nic": 6818,
      "ĠFC": 6819,
      "oded": 6820,
      "wrap": 6821,
      "National": 6822,
      "fa": 6823,
      "Init": 6824,
      "Ġequival": 6825,
      "oted": 6826,
      "ĠBoth": 6827,
      "Ġplanning": 6828,
      "Ġoperator": 6829,
      "Career": 6830,
      "Ġhyp": 6831,
      "ĠLittle": 6832,
      "Ev": 6833,
      "Ġfresh": 6834,
      "Ġcombined": 6835,
      "Ġactors": 6836,
      "ĠCLASS": 6837,
      "Ġnomin": 6838,
      "onym": 6839,
      "going": 6840,
      "Ġ<!--": 6841,
      "ĠBroad": 6842,
      "ensor": 6843,
      "Ġperhaps": 6844,
      "Ġfellow": 6845,
      "Ġtrou": 6846,
      "endar": 6847,
      "Ġscope": 6848,
      "ouble": 6849,
      "ographer": 6850,
      "Ġcensus": 6851,
      "ĠAbout": 6852,
      ":</": 6853,
      "power": 6854,
      "Ġcomedy": 6855,
      "Ġlock": 6856,
      "ĠLi": 6857,
      "izabeth": 6858,
      "Url": 6859,
      "Ġconclud": 6860,
      "after": 6861,
      "Ġwestern": 6862,
      "ĠBor": 6863,
      "ĠBern": 6864,
      "73": 6865,
      "mut": 6866,
      "ĠDar": 6867,
      "Frame": 6868,
      "opher": 6869,
      "Ġcrime": 6870,
      "ented": 6871,
      "Ġstock": 6872,
      "Ġcorresponding": 6873,
      "ĠAuthor": 6874,
      "named": 6875,
      "Ġmixed": 6876,
      "Inst": 6877,
      "ORT": 6878,
      "Since": 6879,
      "menu": 6880,
      "Ġ>>": 6881,
      "Cal": 6882,
      "Ġnegative": 6883,
      "Ġ!==": 6884,
      "Ġinvestigation": 6885,
      "ĠEdward": 6886,
      "Ġliterature": 6887,
      "star": 6888,
      "opyright": 6889,
      "Ġfit": 6890,
      "Ġcitizens": 6891,
      "ĠFederal": 6892,
      "ĠInternet": 6893,
      "Types": 6894,
      "clusive": 6895,
      "Ġflight": 6896,
      "odd": 6897,
      "Dec": 6898,
      "Ġenh": 6899,
      "').": 6900,
      "à¥": 6901,
      "Ġbrain": 6902,
      "vare": 6903,
      "ĠKey": 6904,
      "ĠPrince": 6905,
      "Ġfan": 6906,
      "rovers": 6907,
      "rees": 6908,
      "Ġconducted": 6909,
      "ĠApple": 6910,
      "Ġancient": 6911,
      "num": 6912,
      "Ġskills": 6913,
      "break": 6914,
      "Offset": 6915,
      "spe": 6916,
      "achusetts": 6917,
      "Ġincorpor": 6918,
      "Op": 6919,
      "Gu": 6920,
      "inson": 6921,
      "Ġrequires": 6922,
      "Ġmuseum": 6923,
      "kit": 6924,
      "psilon": 6925,
      "abilities": 6926,
      "Ġintended": 6927,
      "Ġdanger": 6928,
      "Ġbed": 6929,
      "Ġfactors": 6930,
      "etime": 6931,
      "Ġfailure": 6932,
      "ĠPoint": 6933,
      "Update": 6934,
      "Ġsquare": 6935,
      "Ġchallenge": 6936,
      "ĠMethod": 6937,
      "Ġempty": 6938,
      "ivery": 6939,
      "QL": 6940,
      "Ġshowing": 6941,
      "Ġcoordin": 6942,
      "scope": 6943,
      "][": 6944,
      "ĠAR": 6945,
      "Ġdedicated": 6946,
      "Ġpal": 6947,
      "Ġregarding": 6948,
      "ĠÂ»": 6949,
      "Ġil": 6950,
      "uing": 6951,
      "ĠPolicy": 6952,
      "^{(": 6953,
      "Ġresear": 6954,
      "ĠReport": 6955,
      "Layout": 6956,
      "ĠTuesday": 6957,
      "free": 6958,
      "Ġbul": 6959,
      "offset": 6960,
      "?:": 6961,
      "Ġarrived": 6962,
      "83": 6963,
      "Ġpoliticians": 6964,
      "Ġsquad": 6965,
      "ĠPrime": 6966,
      "DS": 6967,
      "ĠBang": 6968,
      "ALL": 6969,
      "rangle": 6970,
      "prototype": 6971,
      "isms": 6972,
      "sqrt": 6973,
      "Ġzero": 6974,
      "Ġconsult": 6975,
      "Mark": 6976,
      "ĠChristmas": 6977,
      "cap": 6978,
      "Ġconsists": 6979,
      "ĠStat": 6980,
      "Ġapparent": 6981,
      "rawn": 6982,
      "Ġships": 6983,
      "ĠHy": 6984,
      "ĠLu": 6985,
      "ĠEach": 6986,
      "Ġtells": 6987,
      "Ġenem": 6988,
      "Ġdoll": 6989,
      "ĠRet": 6990,
      "Ġfunding": 6991,
      "iki": 6992,
      "Are": 6993,
      "Ã±": 6994,
      "Ġresulting": 6995,
      "ĠColl": 6996,
      "lers": 6997,
      "Ø§": 6998,
      "ĠMcC": 6999,
      "ĠPass": 7000,
      "ategories": 7001,
      "Ġreform": 7002,
      "Ġdance": 7003,
      "osa": 7004,
      "Ġ~": 7005,
      "ĠWrit": 7006,
      "Ġtruth": 7007,
      "ĠWednesday": 7008,
      "Ġexchange": 7009,
      "Ġanimals": 7010,
      "Provider": 7011,
      "ĠBeach": 7012,
      "ban": 7013,
      "elly": 7014,
      "column": 7015,
      "Ġchoose": 7016,
      "Ġthinking": 7017,
      "circ": 7018,
      "Server": 7019,
      "Ġobj": 7020,
      "occer": 7021,
      "ĠBBC": 7022,
      "Ġpropos": 7023,
      "Ġpi": 7024,
      "ĠĠĠĠĠĠĠĠĠĠĠĠĠĠĠĠĠĠĠĠĠĠĠĠĠĠĠĠĠĠĠĠĠĠĠ": 7025,
      "91": 7026,
      "scape": 7027,
      "81": 7028,
      "ĠView": 7029,
      "enant": 7030,
      "Ġmotor": 7031,
      "ĠHREF": 7032,
      "ci": 7033,
      "Ġemployees": 7034,
      "Ġsynt": 7035,
      "ĠGovernor": 7036,
      "ĠEastern": 7037,
      "ecute": 7038,
      "Ġregions": 7039,
      "Cons": 7040,
      "Ġconfirmed": 7041,
      "Ġsettlement": 7042,
      "desc": 7043,
      "Cache": 7044,
      "Year": 7045,
      "Ġcategory": 7046,
      "Ġplants": 7047,
      "Ġinterested": 7048,
      "1963": 7049,
      "ERT": 7050,
      "gency": 7051,
      "Ġmatrix": 7052,
      "ifer": 7053,
      "EW": 7054,
      "okes": 7055,
      "ensions": 7056,
      "ĠRom": 7057,
      "ĠAPI": 7058,
      "World": 7059,
      "Ġchart": 7060,
      "ĠKim": 7061,
      "Ġobvious": 7062,
      "ji": 7063,
      "Ġnotes": 7064,
      "styles": 7065,
      "atalog": 7066,
      "^*": 7067,
      "Ġtransition": 7068,
      "Ġfacilities": 7069,
      "ĠRay": 7070,
      "rie": 7071,
      "oir": 7072,
      "Ġattacks": 7073,
      "look": 7074,
      "Ġvisual": 7075,
      "Home": 7076,
      "Ġsucceed": 7077,
      "Ġlabor": 7078,
      "present": 7079,
      "Ġcrick": 7080,
      "Ġfell": 7081,
      "gers": 7082,
      "ĠSom": 7083,
      "Ġcallback": 7084,
      "Ġleaves": 7085,
      "Ġbiggest": 7086,
      "ĠLight": 7087,
      "Ġax": 7088,
      "apos": 7089,
      "Ġsun": 7090,
      "++)": 7091,
      "ĠStation": 7092,
      "ĠMic": 7093,
      "iat": 7094,
      "PO": 7095,
      "Tree": 7096,
      "pool": 7097,
      "DB": 7098,
      "ĠMap": 7099,
      "teen": 7100,
      "CS": 7101,
      "AY": 7102,
      "ĠHong": 7103,
      "ĠOtt": 7104,
      "ĠWalk": 7105,
      "********************************": 7106,
      "oves": 7107,
      "ĠTaylor": 7108,
      "Ġbudget": 7109,
      "Case": 7110,
      "Ġhappy": 7111,
      "onia": 7112,
      "di": 7113,
      "lets": 7114,
      "Ġtrip": 7115,
      "Dep": 7116,
      "Ġfloat": 7117,
      "ĠRog": 7118,
      "Target": 7119,
      "Ġquery": 7120,
      "Ġtesting": 7121,
      ")$,": 7122,
      "Pat": 7123,
      "Ġinjury": 7124,
      "stone": 7125,
      "zen": 7126,
      "Output": 7127,
      "ĠLo": 7128,
      "Ġcommit": 7129,
      "frame": 7130,
      "iner": 7131,
      "STR": 7132,
      "ĠRepresent": 7133,
      "Ġven": 7134,
      "ĠCEO": 7135,
      "then": 7136,
      "ĠSher": 7137,
      "Ġtherap": 7138,
      "```": 7139,
      "COL": 7140,
      "Ġvir": 7141,
      "Ġbomb": 7142,
      "Ġrom": 7143,
      "pet": 7144,
      "ĠCa": 7145,
      "ĠDutch": 7146,
      "Ġpatient": 7147,
      "Ġproceed": 7148,
      "ĠPlan": 7149,
      "Ġlett": 7150,
      "Ġviolence": 7151,
      "imer": 7152,
      "Ġinfo": 7153,
      "ĠLatin": 7154,
      "Ġdatabase": 7155,
      "ĠStudies": 7156,
      "Ġinterpret": 7157,
      "instance": 7158,
      "ĠOR": 7159,
      "ĠMajor": 7160,
      "Ġprofessor": 7161,
      "ulpt": 7162,
      "rightarrow": 7163,
      "1962": 7164,
      "bro": 7165,
      "Ġdefinition": 7166,
      "otes": 7167,
      "Ġbridge": 7168,
      "ĠTri": 7169,
      "ĠWis": 7170,
      "Ġamb": 7171,
      "resents": 7172,
      "Films": 7173,
      "ĠPortug": 7174,
      "Ġtests": 7175,
      "oes": 7176,
      "Ġtheme": 7177,
      "Ġmainly": 7178,
      "Ġawards": 7179,
      "Ġcreation": 7180,
      "IB": 7181,
      "Ġdig": 7182,
      "ĠDE": 7183,
      "Width": 7184,
      "Ġrise": 7185,
      "Ġprotection": 7186,
      "Ke": 7187,
      "Ġstarts": 7188,
      "MO": 7189,
      "Ġweak": 7190,
      "subsection": 7191,
      "ĠExt": 7192,
      "Ġplot": 7193,
      "ART": 7194,
      "ĠObama": 7195,
      "Ġtermin": 7196,
      "Ġeye": 7197,
      "hens": 7198,
      "Ġpositions": 7199,
      "Ġburn": 7200,
      "Ġcamera": 7201,
      "ĠAud": 7202,
      "Ġtools": 7203,
      "Ġalternative": 7204,
      "Ġinvestment": 7205,
      "Ġestimated": 7206,
      "ĠSpring": 7207,
      "Ġvector": 7208,
      "Ġcredit": 7209,
      "aine": 7210,
      "lyn": 7211,
      "Ġuseful": 7212,
      "ĠProfessor": 7213,
      "ologist": 7214,
      "ĠCur": 7215,
      "ĠLive": 7216,
      "Ġcalling": 7217,
      "ĠKenn": 7218,
      "ĠLy": 7219,
      "emph": 7220,
      "Sche": 7221,
      "ydney": 7222,
      "Ġshift": 7223,
      "urer": 7224,
      "Brit": 7225,
      "ĠCorporation": 7226,
      "SU": 7227,
      "require": 7228,
      "ĠBell": 7229,
      "writer": 7230,
      "SH": 7231,
      "Ġhouses": 7232,
      "anth": 7233,
      "pop": 7234,
      "Ġhousing": 7235,
      "Ġdomain": 7236,
      "ĠMaster": 7237,
      "ĠSus": 7238,
      "Sm": 7239,
      "Ġdefine": 7240,
      "Ġpit": 7241,
      "Ġgone": 7242,
      "Ġarchitecture": 7243,
      "Ġast": 7244,
      "Row": 7245,
      "anna": 7246,
      "Ġenvironmental": 7247,
      "Ġsingles": 7248,
      "ĠGener": 7249,
      "oles": 7250,
      "sd": 7251,
      "Ġplanned": 7252,
      "Search": 7253,
      "Ġearned": 7254,
      "Ġpicture": 7255,
      "utt": 7256,
      "Ġextension": 7257,
      "ĠFund": 7258,
      "VD": 7259,
      "kee": 7260,
      "Access": 7261,
      "Ġtypically": 7262,
      "ĠReal": 7263,
      "arant": 7264,
      "Dem": 7265,
      "ĠAdminist": 7266,
      "Ġsomew": 7267,
      "Ġretain": 7268,
      "ĠCH": 7269,
      "ĠJean": 7270,
      "Ġbranch": 7271,
      "Ġpanel": 7272,
      "ĠPakistan": 7273,
      "ĠLike": 7274,
      "ependence": 7275,
      "NO": 7276,
      "ĠLew": 7277,
      "United": 7278,
      "Ġ[]": 7279,
      "Ġgirls": 7280,
      "cat": 7281,
      "CP": 7282,
      "ĠSteve": 7283,
      "frast": 7284,
      "crete": 7285,
      "??": 7286,
      "Ġspin": 7287,
      "Ġstuff": 7288,
      "yo": 7289,
      "lywood": 7290,
      "amber": 7291,
      "Ġsurvey": 7292,
      "hemat": 7293,
      "ĠSection": 7294,
      "ĠGuard": 7295,
      "ĠPen": 7296,
      "Ġrapid": 7297,
      "ĠColumbia": 7298,
      "Ġfuel": 7299,
      "ĠFile": 7300,
      "pective": 7301,
      "evin": 7302,
      "Ġreviews": 7303,
      "CON": 7304,
      "Ġaccepted": 7305,
      "oster": 7306,
      "Ġepisodes": 7307,
      "unit": 7308,
      "ĠMassachusetts": 7309,
      "ĠCommon": 7310,
      "Ġwarm": 7311,
      "note": 7312,
      "Ġrain": 7313,
      "Ġfinish": 7314,
      "Ġallowing": 7315,
      "cript": 7316,
      "Ġleads": 7317,
      "Ġcommunication": 7318,
      "ĠWilson": 7319,
      "Ġdistinct": 7320,
      "ZE": 7321,
      "Ġlayer": 7322,
      "ĠScottish": 7323,
      "Ġpredict": 7324,
      "ĠRod": 7325,
      "ĠIraq": 7326,
      "Ġsolutions": 7327,
      "Sw": 7328,
      "ĠCat": 7329,
      "ĠLast": 7330,
      "Ġfashion": 7331,
      "ĠVill": 7332,
      "ĠSpace": 7333,
      "Ġbegins": 7334,
      "1944": 7335,
      "Ġacademic": 7336,
      "uda": 7337,
      "apse": 7338,
      "fs": 7339,
      "120": 7340,
      "adelph": 7341,
      "dest": 7342,
      "Ġnuclear": 7343,
      "ras": 7344,
      "Stat": 7345,
      "Ġmist": 7346,
      "Ġlinear": 7347,
      "ESS": 7348,
      "ĠMatt": 7349,
      "aa": 7350,
      "Ġmyst": 7351,
      "Ġthread": 7352,
      "ĠPoland": 7353,
      "Book": 7354,
      "Ġfeaturing": 7355,
      "Ġoffset": 7356,
      "ĠThree": 7357,
      "ĠFair": 7358,
      "Local": 7359,
      "Ġsplit": 7360,
      "Ġnotice": 7361,
      "ĠToronto": 7362,
      "ĠAk": 7363,
      "Ġspeech": 7364,
      "Ġbelong": 7365,
      "ĠSupreme": 7366,
      "Ġvehicles": 7367,
      "ĠRen": 7368,
      "Ġdownload": 7369,
      "pton": 7370,
      "Ġtradition": 7371,
      "Ġfrag": 7372,
      "Ġfant": 7373,
      "Ġtalking": 7374,
      "Ġdiagn": 7375,
      "Ġclubs": 7376,
      "ĠAmericans": 7377,
      "}=": 7378,
      "Ġappropriate": 7379,
      "ĠWars": 7380,
      "Ġconsequ": 7381,
      "Ġproof": 7382,
      "ĠAsh": 7383,
      "grade": 7384,
      "Ġoperated": 7385,
      "Ġretired": 7386,
      "Ġglass": 7387,
      "ennes": 7388,
      "ĠFox": 7389,
      "Ġherself": 7390,
      "Ġdie": 7391,
      "1961": 7392,
      "Ġ``": 7393,
      "law": 7394,
      "textbf": 7395,
      "Ġclearly": 7396,
      "Ġdescribe": 7397,
      "adelphia": 7398,
      "Ġgovern": 7399,
      "Ġconvers": 7400,
      "ervative": 7401,
      "ĠBad": 7402,
      "sor": 7403,
      "./": 7404,
      "Bo": 7405,
      "ĠInit": 7406,
      "ideos": 7407,
      "ais": 7408,
      "}^{\\": 7409,
      "sign": 7410,
      "Ġhonor": 7411,
      "Ġoptim": 7412,
      "ĠMir": 7413,
      "uzz": 7414,
      "drop": 7415,
      "Bi": 7416,
      "ĠOxford": 7417,
      "ĠDaily": 7418,
      "posite": 7419,
      "float": 7420,
      "yard": 7421,
      "TYPE": 7422,
      "hab": 7423,
      "Ġacquired": 7424,
      "root": 7425,
      "Ġterror": 7426,
      "Ġminister": 7427,
      "Ġcombination": 7428,
      "ecutive": 7429,
      "Ġarguments": 7430,
      "SD": 7431,
      "ito": 7432,
      "ĠBon": 7433,
      "ĠCorn": 7434,
      "?\"": 7435,
      "icip": 7436,
      "sey": 7437,
      "pes": 7438,
      "thur": 7439,
      "ocated": 7440,
      "ĠAND": 7441,
      "Ġ**": 7442,
      "Ġera": 7443,
      "Prot": 7444,
      "mem": 7445,
      "ads": 7446,
      "uint": 7447,
      "Ġexperi": 7448,
      "riptor": 7449,
      "Ġconfiguration": 7450,
      "Ġsmart": 7451,
      "orrow": 7452,
      "card": 7453,
      "Ġsteps": 7454,
      "ictionary": 7455,
      "Ġfacility": 7456,
      "La": 7457,
      "Ġstrength": 7458,
      "Ġmaybe": 7459,
      "Ġoccurred": 7460,
      "Ġformation": 7461,
      "Results": 7462,
      "ryst": 7463,
      "Ġnearby": 7464,
      "########": 7465,
      "Ġgrew": 7466,
      "Google": 7467,
      "=\"../../../../../": 7468,
      "PH": 7469,
      "Ġfocused": 7470,
      "Ġdefense": 7471,
      "ĠAD": 7472,
      "Ġalongside": 7473,
      "pan": 7474,
      "urd": 7475,
      "ws": 7476,
      "skip": 7477,
      "iciency": 7478,
      "ĠFre": 7479,
      "Ġhair": 7480,
      "Ġpersonnel": 7481,
      "âĢ¢": 7482,
      "Ġcouldn": 7483,
      "izont": 7484,
      "Ġheat": 7485,
      "Ġmys": 7486,
      "Ġnom": 7487,
      "actor": 7488,
      "Ġinn": 7489,
      "ĠBol": 7490,
      "ĠWhe": 7491,
      "aml": 7492,
      "Ġchain": 7493,
      "Red": 7494,
      "Ġlies": 7495,
      "Ġprotein": 7496,
      "Ġathlet": 7497,
      "Ġbenefit": 7498,
      "Ġsignificantly": 7499,
      "Ġslightly": 7500,
      "IGN": 7501,
      ")=": 7502,
      "ĠTro": 7503,
      ")]": 7504,
      "vin": 7505,
      "Ġprocessing": 7506,
      "ĠAssert": 7507,
      "ĠNOT": 7508,
      "Ġcloud": 7509,
      "Ġexcell": 7510,
      "unct": 7511,
      "Fin": 7512,
      "Å¡": 7513,
      "Ġdistributed": 7514,
      "Enc": 7515,
      "ĠIslands": 7516,
      "ĠAL": 7517,
      "Project": 7518,
      "Ġresident": 7519,
      "ployment": 7520,
      "Ġprocesses": 7521,
      "Ġnorm": 7522,
      "Ġexerc": 7523,
      "should": 7524,
      "ĠCreek": 7525,
      "ĠBa": 7526,
      "template": 7527,
      "Ġrelatively": 7528,
      "proof": 7529,
      "Ġpra": 7530,
      "Ġtend": 7531,
      "classes": 7532,
      "inking": 7533,
      "Unit": 7534,
      "ĠThus": 7535,
      "Ġordered": 7536,
      "Ġpeace": 7537,
      "Ġstandards": 7538,
      "Ġchosen": 7539,
      "Child": 7540,
      "Ġtele": 7541,
      "frastructure": 7542,
      "rig": 7543,
      "irty": 7544,
      "Ġcontrast": 7545,
      "Ġfifth": 7546,
      "Ġdriving": 7547,
      "Ġliber": 7548,
      "bles": 7549,
      "(_": 7550,
      "ĠViet": 7551,
      "unny": 7552,
      "Ġtechnical": 7553,
      "Entry": 7554,
      "Ġspring": 7555,
      "Sing": 7556,
      "ĠVictoria": 7557,
      "document": 7558,
      "ĠAlexander": 7559,
      "Ġyield": 7560,
      "ĠRights": 7561,
      "Ġfish": 7562,
      "ĠBerlin": 7563,
      "icer": 7564,
      "oured": 7565,
      "'),": 7566,
      "wa": 7567,
      "allel": 7568,
      "orders": 7569,
      "Ġsand": 7570,
      "inity": 7571,
      "Down": 7572,
      "Ġbuffer": 7573,
      "RL": 7574,
      "friend": 7575,
      "ĠSciences": 7576,
      "ĠElizabeth": 7577,
      "night": 7578,
      "IST": 7579,
      "ego": 7580,
      "bal": 7581,
      "Ġexpansion": 7582,
      "Ġfunds": 7583,
      "ĠOnly": 7584,
      "sel": 7585,
      "pa": 7586,
      "ĠAvenue": 7587,
      "ups": 7588,
      "ami": 7589,
      "Ġdeveloping": 7590,
      "ĠMicrosoft": 7591,
      "oving": 7592,
      "Ġkick": 7593,
      "ipping": 7594,
      "1958": 7595,
      "riev": 7596,
      "Ġpackage": 7597,
      "Ġbusinesses": 7598,
      "ello": 7599,
      "acle": 7600,
      "ĠName": 7601,
      "ĠAmazon": 7602,
      "bound": 7603,
      "ĠCheck": 7604,
      "ĉĉĉĉĉĉĉ": 7605,
      "Ġtwice": 7606,
      "rior": 7607,
      "obe": 7608,
      "Po": 7609,
      "uv": 7610,
      "olis": 7611,
      "ĠEst": 7612,
      "returns": 7613,
      "Ġcris": 7614,
      "Ġsuggested": 7615,
      "Ġprepar": 7616,
      "Ġphoto": 7617,
      "hetic": 7618,
      "Ġassociation": 7619,
      "idel": 7620,
      "Ġcycl": 7621,
      "ĠTrust": 7622,
      "1959": 7623,
      "white": 7624,
      "University": 7625,
      "resource": 7626,
      "Ġcoal": 7627,
      "1942": 7628,
      "Ġlanguages": 7629,
      "ĠUse": 7630,
      "Ġcorner": 7631,
      "empty": 7632,
      "SL": 7633,
      "Ġrelevant": 7634,
      "Ġrich": 7635,
      "apore": 7636,
      "Ġaccident": 7637,
      "uilt": 7638,
      "annels": 7639,
      "Order": 7640,
      "oder": 7641,
      "Ġpan": 7642,
      "ĠHu": 7643,
      "ĠEvent": 7644,
      "Ġreject": 7645,
      "Sports": 7646,
      "à¸": 7647,
      "Ġseconds": 7648,
      "ushed": 7649,
      "Ġdefend": 7650,
      "Acc": 7651,
      "poss": 7652,
      "ĠSa": 7653,
      "kind": 7654,
      "Ġicon": 7655,
      "Interface": 7656,
      "Ġpoly": 7657,
      "Ġmotion": 7658,
      "Ġsale": 7659,
      "1956": 7660,
      "Ġplus": 7661,
      "ĠBand": 7662,
      "sort": 7663,
      "iable": 7664,
      "ĠInvest": 7665,
      "Ġunless": 7666,
      "ĠTal": 7667,
      "Ġwave": 7668,
      "ĠPhys": 7669,
      "entity": 7670,
      "ader": 7671,
      "Ġacting": 7672,
      "Ġadvanced": 7673,
      "Ġfigures": 7674,
      "iÄĩ": 7675,
      "ederation": 7676,
      "aste": 7677,
      "Ġbenefits": 7678,
      "Posted": 7679,
      "Ġfear": 7680,
      "ĠCare": 7681,
      "ĠBecause": 7682,
      "alo": 7683,
      "ĠArea": 7684,
      "Ġrepresents": 7685,
      "sche": 7686,
      "Ġroles": 7687,
      ":#": 7688,
      "Ġportion": 7689,
      "ĠAnth": 7690,
      "OK": 7691,
      "pling": 7692,
      "ĠAli": 7693,
      "Ġsoldiers": 7694,
      "WE": 7695,
      "Further": 7696,
      "ĠTam": 7697,
      "artifact": 7698,
      "ilation": 7699,
      "Ġrequirements": 7700,
      "ĠWindows": 7701,
      "Ġdecades": 7702,
      "ĠForest": 7703,
      "Ġnor": 7704,
      "dist": 7705,
      "ĠCirc": 7706,
      "Ġexpert": 7707,
      "ĠIP": 7708,
      "1948": 7709,
      "Ġfighting": 7710,
      "ĠSon": 7711,
      "varepsilon": 7712,
      "appe": 7713,
      "Ġrecommend": 7714,
      "Que": 7715,
      "CM": 7716,
      "Ġdetail": 7717,
      "ĠEnt": 7718,
      "Ġinstrument": 7719,
      "ULT": 7720,
      "Ġindustrial": 7721,
      "Ġaccomp": 7722,
      "direct": 7723,
      "Ag": 7724,
      "atever": 7725,
      "ading": 7726,
      "ĠArray": 7727,
      "Ġversions": 7728,
      "ducing": 7729,
      "Header": 7730,
      "These": 7731,
      "Ġfaith": 7732,
      "Ġjobs": 7733,
      "()->": 7734,
      "Ġcertainly": 7735,
      "Here": 7736,
      "Ġexamples": 7737,
      "anner": 7738,
      "ĠBelg": 7739,
      "leton": 7740,
      "Ġfreedom": 7741,
      "ĠWhy": 7742,
      "Ġminimum": 7743,
      "Ġconstructed": 7744,
      "Ġspons": 7745,
      "avid": 7746,
      "ometry": 7747,
      "Ġends": 7748,
      "Ġprimarily": 7749,
      "raham": 7750,
      "Ġevolution": 7751,
      "Ġadvantage": 7752,
      "Ġhydro": 7753,
      "second": 7754,
      "Ġbaseball": 7755,
      "([": 7756,
      "Ġhistoric": 7757,
      "umes": 7758,
      "ACK": 7759,
      "unes": 7760,
      "ĠEU": 7761,
      "ĠArm": 7762,
      "Ġdiscussion": 7763,
      "Parameter": 7764,
      "Ġtrees": 7765,
      "Ġtroops": 7766,
      "edge": 7767,
      "ĠAny": 7768,
      "owa": 7769,
      "ĠSydney": 7770,
      "]);": 7771,
      "itled": 7772,
      "Ġ::": 7773,
      "plement": 7774,
      "1939": 7775,
      "ifies": 7776,
      "Ġlocations": 7777,
      "Ġmonitor": 7778,
      ":\"": 7779,
      "API": 7780,
      "Ġdocuments": 7781,
      "Â°": 7782,
      "600": 7783,
      "ĠRail": 7784,
      "asters": 7785,
      "Window": 7786,
      "worth": 7787,
      "ĠSanta": 7788,
      "aga": 7789,
      "Ġsilver": 7790,
      "ĠSant": 7791,
      "Write": 7792,
      "conf": 7793,
      "Ġnewspaper": 7794,
      "care": 7795,
      "ĠArgent": 7796,
      "Ġkid": 7797,
      "ĠRon": 7798,
      "Ġcontrovers": 7799,
      "osophy": 7800,
      "Ġguy": 7801,
      "1957": 7802,
      "consin": 7803,
      "Ġweekend": 7804,
      "ĠAction": 7805,
      "control": 7806,
      "}).": 7807,
      "Ġtrend": 7808,
      "ĠDonald": 7809,
      "Ġurban": 7810,
      "ĠEnergy": 7811,
      "Callback": 7812,
      "Ġinstitutions": 7813,
      "ĠNote": 7814,
      "Ġcomposed": 7815,
      "Ġlearned": 7816,
      "ĠReturns": 7817,
      "Ġadvance": 7818,
      "tree": 7819,
      "ĠTH": 7820,
      "ĠDate": 7821,
      "Ġpieces": 7822,
      "rizona": 7823,
      "Ġperman": 7824,
      "apes": 7825,
      "Ġweather": 7826,
      "Ġsides": 7827,
      "Nov": 7828,
      "ĠBal": 7829,
      "Ġhotel": 7830,
      "ashed": 7831,
      "250": 7832,
      "Ġcommittee": 7833,
      "sex": 7834,
      "enter": 7835,
      "ĠBooks": 7836,
      "isa": 7837,
      "gar": 7838,
      "Ġmeasures": 7839,
      "Ġlen": 7840,
      "eman": 7841,
      "Ġpolicies": 7842,
      "ori": 7843,
      "Ġholding": 7844,
      "ĠEngineering": 7845,
      "Ġvariable": 7846,
      "ibli": 7847,
      "reference": 7848,
      "Ġscientific": 7849,
      "ĠHind": 7850,
      "organ": 7851,
      "ĠNC": 7852,
      "ĠOnt": 7853,
      "pson": 7854,
      "Ġauthorities": 7855,
      "cache": 7856,
      "Ġspeak": 7857,
      "engers": 7858,
      "ĠHung": 7859,
      "idi": 7860,
      "before": 7861,
      "Non": 7862,
      "Ġfavorite": 7863,
      "etherlands": 7864,
      "ä¸": 7865,
      "Ġadding": 7866,
      "Ġdelay": 7867,
      "lan": 7868,
      "ependency": 7869,
      "Ġadvent": 7870,
      "Ġargs": 7871,
      "itable": 7872,
      "parse": 7873,
      "ĠNic": 7874,
      "Ġincident": 7875,
      "Ġestate": 7876,
      "Ġlargely": 7877,
      "Ġimplementation": 7878,
      "Thread": 7879,
      "Ġfootballer": 7880,
      "Ġengineering": 7881,
      "MM": 7882,
      "bourne": 7883,
      "Public": 7884,
      "ective": 7885,
      "kes": 7886,
      "know": 7887,
      "bool": 7888,
      "{{": 7889,
      "1943": 7890,
      "ĠHard": 7891,
      "Ġiniti": 7892,
      "Ġagency": 7893,
      "Ġrural": 7894,
      "obs": 7895,
      "Ġinspired": 7896,
      "render": 7897,
      "ĠStory": 7898,
      "Ġnarr": 7899,
      "ĠVen": 7900,
      "ĠAnton": 7901,
      "=\"-": 7902,
      "ĠKir": 7903,
      "Ġrh": 7904,
      "Ġassigned": 7905,
      "eral": 7906,
      "Ġsettings": 7907,
      "ĠEqu": 7908,
      "Ġclick": 7909,
      "aki": 7910,
      "Ġfinding": 7911,
      "ĠRailway": 7912,
      "Ġfavour": 7913,
      "Ġgenus": 7914,
      "akh": 7915,
      "Module": 7916,
      "Ġrepresentation": 7917,
      "ĠSu": 7918,
      "ĠEnvironment": 7919,
      "istration": 7920,
      "Ġrul": 7921,
      "BL": 7922,
      "1941": 7923,
      "Ġly": 7924,
      "Why": 7925,
      "Ġgain": 7926,
      "Control": 7927,
      "ĠAdv": 7928,
      "Ġopportunities": 7929,
      "Ġuint": 7930,
      "His": 7931,
      "ĠMinistry": 7932,
      "phas": 7933,
      "scription": 7934,
      "END": 7935,
      "Mult": 7936,
      "ĠUr": 7937,
      "icker": 7938,
      "Ġstorm": 7939,
      "jection": 7940,
      "oses": 7941,
      "high": 7942,
      "Ġhockey": 7943,
      "ricts": 7944,
      "Utils": 7945,
      "Container": 7946,
      "Ġeastern": 7947,
      "othes": 7948,
      "Ġvotes": 7949,
      "strap": 7950,
      "Process": 7951,
      "ĠEll": 7952,
      ".'": 7953,
      "Ġthousands": 7954,
      "Ġopinion": 7955,
      "Ġsemi": 7956,
      "HS": 7957,
      "Ġbow": 7958,
      "1946": 7959,
      "ĠTy": 7960,
      "Position": 7961,
      "dates": 7962,
      "ctx": 7963,
      "fix": 7964,
      "ĠWel": 7965,
      "ĠIns": 7966,
      "TER": 7967,
      "ĠBall": 7968,
      "Ġcontemporary": 7969,
      "Ġsan": 7970,
      "ture": 7971,
      "buffer": 7972,
      "ĠStephen": 7973,
      "Ġarms": 7974,
      "Sign": 7975,
      "Ġsolo": 7976,
      ".\\": 7977,
      "ĠSat": 7978,
      "ĠÅ": 7979,
      "Ġalleged": 7980,
      "regon": 7981,
      "ĠPC": 7982,
      "Ġwrap": 7983,
      "Ġsubsequently": 7984,
      "shall": 7985,
      "ĠKorean": 7986,
      "je": 7987,
      "Ġseeing": 7988,
      "Entity": 7989,
      "ĠLtd": 7990,
      "Ġsubs": 7991,
      "Ġreceiving": 7992,
      "Ġelev": 7993,
      "aska": 7994,
      "():": 7995,
      "ĠPage": 7996,
      "Ġcart": 7997,
      "ĠAnother": 7998,
      "Ġpartnership": 7999,
      "ĠOfficial": 8000,
      "ĠHun": 8001,
      "ĉĠĠĠ": 8002,
      "Ġwidely": 8003,
      "pg": 8004,
      "ĠPrize": 8005,
      "ĠLind": 8006,
      "Ġposted": 8007,
      "Ġring": 8008,
      "1955": 8009,
      "Height": 8010,
      "ĠSong": 8011,
      "Ã£": 8012,
      "aph": 8013,
      "Ob": 8014,
      "British": 8015,
      "Script": 8016,
      "Ġtechniques": 8017,
      "Music": 8018,
      "how": 8019,
      "Ġexternal": 8020,
      "Ġcandidates": 8021,
      "ĠCreate": 8022,
      "ĠCON": 8023,
      "Ġexpressed": 8024,
      "Ġcab": 8025,
      "Ġmyself": 8026,
      "Ġwish": 8027,
      "ĠRome": 8028,
      "ĠPers": 8029,
      "ĠLabor": 8030,
      "Ġscheme": 8031,
      "Ġidentify": 8032,
      "Ġprotest": 8033,
      "ĠHay": 8034,
      "Ġmel": 8035,
      "ĠRaj": 8036,
      "antry": 8037,
      "Ġmountain": 8038,
      "ĠCub": 8039,
      "imension": 8040,
      "cr": 8041,
      "Ġsupporting": 8042,
      "None": 8043,
      "ĠWat": 8044,
      "udden": 8045,
      "ingham": 8046,
      "Ġknows": 8047,
      "Ġec": 8048,
      "sv": 8049,
      "Ġmarked": 8050,
      "ĠChildren": 8051,
      "values": 8052,
      "Ġwinners": 8053,
      "ĠCre": 8054,
      "izontal": 8055,
      "Ġisol": 8056,
      "Settings": 8057,
      "ĠMath": 8058,
      "Ġscholar": 8059,
      "Ġagric": 8060,
      "Ġflat": 8061,
      "ĠToday": 8062,
      "ĠNick": 8063,
      "Level": 8064,
      "Long": 8065,
      "ĠFurther": 8066,
      "ĠLady": 8067,
      "South": 8068,
      "Ġauthority": 8069,
      "Ġretail": 8070,
      "Ġjourney": 8071,
      "Ġmolec": 8072,
      "match": 8073,
      "Ġsleep": 8074,
      "Ġnewly": 8075,
      "ceived": 8076,
      "ĠSab": 8077,
      "Just": 8078,
      "1952": 8079,
      "Ä±": 8080,
      "Ġapproved": 8081,
      "Ġdivers": 8082,
      "Ġregistered": 8083,
      "Ġnice": 8084,
      "outs": 8085,
      "Ġphen": 8086,
      "German": 8087,
      "Ġfiction": 8088,
      "construct": 8089,
      "ĠOlympic": 8090,
      "zech": 8091,
      "pute": 8092,
      "Ġassistant": 8093,
      "ĠTrue": 8094,
      "ouri": 8095,
      "Ġclassical": 8096,
      "ĠDam": 8097,
      "command": 8098,
      "Ġvent": 8099,
      "ĠLocal": 8100,
      "Disc": 8101,
      "1947": 8102,
      "ĠNations": 8103,
      "ĠCountry": 8104,
      "cert": 8105,
      "Ġacid": 8106,
      "Ġcerem": 8107,
      "Ġcriminal": 8108,
      "token": 8109,
      "Ġtitles": 8110,
      "Ġfinds": 8111,
      "Ġseemed": 8112,
      "Ġsurg": 8113,
      "awn": 8114,
      "sky": 8115,
      "ika": 8116,
      "adesh": 8117,
      "ootstrap": 8118,
      "Change": 8119,
      "ĠGreg": 8120,
      "Ġextremely": 8121,
      "Configuration": 8122,
      "Ġadjust": 8123,
      "Ġguard": 8124,
      "ded": 8125,
      "mosp": 8126,
      "vas": 8127,
      "TA": 8128,
      "rot": 8129,
      "Ġanimal": 8130,
      "ĠMinnes": 8131,
      "aug": 8132,
      "ĠDavis": 8133,
      "utils": 8134,
      "Ġlisten": 8135,
      "Ðº": 8136,
      "nap": 8137,
      "}/": 8138,
      "ĠGer": 8139,
      "ctors": 8140,
      "ĠCA": 8141,
      "ĠLater": 8142,
      "RI": 8143,
      "Ġimportance": 8144,
      "ython": 8145,
      "Ġarrested": 8146,
      "rim": 8147,
      "Ġecho": 8148,
      "ĠStadium": 8149,
      "ĠFood": 8150,
      "Ġadj": 8151,
      "ĠĠĠĠĠĠĠĠĠĠĠĠĠĠĠĠĠĠĠĠĠ": 8152,
      "Ġdestroyed": 8153,
      "iga": 8154,
      "VAL": 8155,
      "ĠTok": 8156,
      "Ġsecondary": 8157,
      "rine": 8158,
      "files": 8159,
      "Ġoffering": 8160,
      "zz": 8161,
      "irement": 8162,
      "Ġprove": 8163,
      "tml": 8164,
      "ĠBrad": 8165,
      "Ġpossibly": 8166,
      "Ġcomfort": 8167,
      "Ġvon": 8168,
      "HO": 8169,
      "ussian": 8170,
      "arry": 8171,
      "Ġwouldn": 8172,
      "ĠCy": 8173,
      "Ġentr": 8174,
      "ĠFinal": 8175,
      "ĠCode": 8176,
      "Record": 8177,
      "anz": 8178,
      "Ġprovince": 8179,
      "LC": 8180,
      "Ġbatter": 8181,
      "roke": 8182,
      "1953": 8183,
      "Ġrecognized": 8184,
      "ĠMinnesota": 8185,
      "Net": 8186,
      "sf": 8187,
      "ĠRevolution": 8188,
      "Ġjudge": 8189,
      "rency": 8190,
      "Ġprogramming": 8191,
      ";->": 8192,
      "ĠTurn": 8193,
      "Pass": 8194,
      "ĠPlaces": 8195,
      "Ġwitness": 8196,
      "Ġsurrounding": 8197,
      "Ġcollected": 8198,
      "Austral": 8199,
      "ĠSupport": 8200,
      "Ġteaching": 8201,
      "Ġnegot": 8202,
      "Ġinstalled": 8203,
      "Ġequivalent": 8204,
      "Ġaffected": 8205,
      "ĠTurkey": 8206,
      "ĠPhiladelphia": 8207,
      "Ġturns": 8208,
      "ĠKr": 8209,
      "Ġanaly": 8210,
      "ĠMill": 8211,
      "ingly": 8212,
      "perial": 8213,
      "Ġpool": 8214,
      "Ġlosing": 8215,
      "ordan": 8216,
      "800": 8217,
      "Ġchampion": 8218,
      "Ġ{}": 8219,
      "Ġiter": 8220,
      "1954": 8221,
      "nections": 8222,
      "Ġcharges": 8223,
      "egraphics": 8224,
      "window": 8225,
      "Empty": 8226,
      "includegraphics": 8227,
      "Ġcontest": 8228,
      "Ġassign": 8229,
      "Ġfestival": 8230,
      "Ġflood": 8231,
      "ĠGolden": 8232,
      "Ġdifferences": 8233,
      "Ġheav": 8234,
      "wing": 8235,
      "Ġxml": 8236,
      "aren": 8237,
      "Ġsculpt": 8238,
      "Ġaren": 8239,
      "Ġofficially": 8240,
      "Ġcycle": 8241,
      "AGE": 8242,
      "Ð»": 8243,
      "Ġsac": 8244,
      "ropical": 8245,
      "Ġsqu": 8246,
      "Ġconcerns": 8247,
      "Ġserves": 8248,
      "ĠPolish": 8249,
      "Ġmarketing": 8250,
      "HL": 8251,
      "Ġappearances": 8252,
      "auth": 8253,
      "ĠDer": 8254,
      "Ġsuccessfully": 8255,
      "ifest": 8256,
      "artifactId": 8257,
      "Ġfeeling": 8258,
      "anes": 8259,
      "ects": 8260,
      "asty": 8261,
      "ĠInf": 8262,
      "igrants": 8263,
      "geq": 8264,
      "Ġvision": 8265,
      "ĠEth": 8266,
      "internal": 8267,
      "bul": 8268,
      "Ġneighborhood": 8269,
      "Document": 8270,
      "Ġneut": 8271,
      "ĠLes": 8272,
      "Ġachieved": 8273,
      "ĠCorps": 8274,
      "mbox": 8275,
      "Ġcold": 8276,
      "Ġraces": 8277,
      "Ġauthors": 8278,
      "Ġthanks": 8279,
      "ĠNet": 8280,
      "Ġrough": 8281,
      "ĠEric": 8282,
      "tainment": 8283,
      "Ġswim": 8284,
      "ĠUt": 8285,
      "andy": 8286,
      "Ġnetworks": 8287,
      "Ġce": 8288,
      "Range": 8289,
      "ician": 8290,
      "initely": 8291,
      "ĠEs": 8292,
      "Ġstone": 8293,
      "Ġchemical": 8294,
      "ĠOntario": 8295,
      "110": 8296,
      "Ġpurchase": 8297,
      "Ġlicense": 8298,
      "Ġresolution": 8299,
      "stack": 8300,
      "cf": 8301,
      "=\"../../../../../../": 8302,
      ".}": 8303,
      "ME": 8304,
      "Ġevening": 8305,
      "Ġdeclared": 8306,
      "However": 8307,
      "Ġhabit": 8308,
      "ĠCommand": 8309,
      "ĠCambridge": 8310,
      "media": 8311,
      "Ġimproved": 8312,
      "Http": 8313,
      "Ġdivided": 8314,
      "appa": 8315,
      "ĠAh": 8316,
      "Ġclassic": 8317,
      "ĠBridge": 8318,
      "Ver": 8319,
      "1949": 8320,
      "ĠNetherlands": 8321,
      "shot": 8322,
      "Ġchanging": 8323,
      "Ġentirely": 8324,
      "chestra": 8325,
      "prise": 8326,
      "Ġcaught": 8327,
      "ĠMA": 8328,
      "frak": 8329,
      "ĠBh": 8330,
      "Ġwins": 8331,
      "Lambda": 8332,
      "boy": 8333,
      "ĠLie": 8334,
      "ĠAdam": 8335,
      "bec": 8336,
      "Connection": 8337,
      "Jan": 8338,
      "dat": 8339,
      "atters": 8340,
      "ĠRegion": 8341,
      "Ġdepth": 8342,
      "ĠIl": 8343,
      "eries": 8344,
      "normal": 8345,
      "Ġguide": 8346,
      "General": 8347,
      "istant": 8348,
      "ialize": 8349,
      "Ġacts": 8350,
      "Ġmusicians": 8351,
      "Best": 8352,
      "ownt": 8353,
      "Ġsupposed": 8354,
      "Ġmassive": 8355,
      "Ġpod": 8356,
      "Ġcoverage": 8357,
      "overline": 8358,
      "ĠFord": 8359,
      "Ġarts": 8360,
      "ĠAlb": 8361,
      "ĠTurk": 8362,
      "aws": 8363,
      "varphi": 8364,
      "season": 8365,
      "Ġexpanded": 8366,
      "Ġseats": 8367,
      "imensional": 8368,
      "Ġbalance": 8369,
      "anchester": 8370,
      "Ġcarbon": 8371,
      "Cast": 8372,
      "Ġapart": 8373,
      "Ġexpat": 8374,
      "Ġaudio": 8375,
      "SO": 8376,
      "Ġachieve": 8377,
      "Ġcaptured": 8378,
      "Ġbond": 8379,
      "Ġshut": 8380,
      "Ġspecifically": 8381,
      "Ġdropped": 8382,
      "Ġrelation": 8383,
      "ĠQueens": 8384,
      "Ġdoctor": 8385,
      "Ġreplace": 8386,
      "PM": 8387,
      "Ġcrisis": 8388,
      "ĠRoss": 8389,
      "Ġsubstant": 8390,
      "Ġhomes": 8391,
      "Ġupdated": 8392,
      "rait": 8393,
      "Ġ×": 8394,
      "Ĥ¬": 8395,
      "aus": 8396,
      "Ġgal": 8397,
      "ĠCas": 8398,
      "Ã¡n": 8399,
      "Ġpurposes": 8400,
      ".~\\": 8401,
      "Ġfiled": 8402,
      "Ġapplic": 8403,
      "Ġadopted": 8404,
      "ĠExecutive": 8405,
      "____": 8406,
      "Ġyards": 8407,
      "bm": 8408,
      "Ġgar": 8409,
      "ÅĤ": 8410,
      "ĠCost": 8411,
      "Ġtransferred": 8412,
      "ĠSym": 8413,
      "quarters": 8414,
      "Ġratio": 8415,
      "faces": 8416,
      "Ġrecip": 8417,
      "Ġlegisl": 8418,
      "Ġjustice": 8419,
      "ĠFer": 8420,
      "antly": 8421,
      "ĠSeason": 8422,
      "Ġperformances": 8423,
      "ĠBC": 8424,
      "Ġalgorithm": 8425,
      "Ġrepeated": 8426,
      "ĠTable": 8427,
      "essions": 8428,
      "Ġemphas": 8429,
      "ĠWisconsin": 8430,
      "ĠDC": 8431,
      "Ġattribute": 8432,
      "ĠColorado": 8433,
      "Ġderived": 8434,
      "Ġstrict": 8435,
      "ĠRequ": 8436,
      "!\"": 8437,
      "Ġtemplate": 8438,
      "ĠGree": 8439,
      "iversary": 8440,
      "Two": 8441,
      "Ġcontainer": 8442,
      "Ġplane": 8443,
      "uous": 8444,
      "About": 8445,
      "Ġresc": 8446,
      "Any": 8447,
      "encing": 8448,
      "Ġdemocr": 8449,
      "rove": 8450,
      "range": 8451,
      "Ġwarn": 8452,
      "ificate": 8453,
      "Impl": 8454,
      "ĠVideo": 8455,
      "Ġcommitted": 8456,
      "images": 8457,
      "Ġcommonly": 8458,
      "Ġyounger": 8459,
      "ucks": 8460,
      "Ġcircum": 8461,
      "equal": 8462,
      "pdf": 8463,
      "Ġfounder": 8464,
      "ĠMult": 8465,
      "International": 8466,
      "Vari": 8467,
      "ĠBru": 8468,
      "1951": 8469,
      "een": 8470,
      "ĠJews": 8471,
      "Ġchallenges": 8472,
      "ĠCommunic": 8473,
      "Ġstress": 8474,
      ".$": 8475,
      "olitan": 8476,
      "ĠTO": 8477,
      "Ġexistence": 8478,
      "graph": 8479,
      "ĠBat": 8480,
      "Ġwing": 8481,
      "ĠStaff": 8482,
      "Ġnob": 8483,
      "Title": 8484,
      "Ġ*)": 8485,
      "coh": 8486,
      "fly": 8487,
      "Ġelectronic": 8488,
      "Ġhall": 8489,
      "ĠShort": 8490,
      "ĠMember": 8491,
      "ĠGallery": 8492,
      "Ġorganized": 8493,
      "Ġgranted": 8494,
      "ĠConf": 8495,
      "Ġsum": 8496,
      "Ġclinical": 8497,
      "chron": 8498,
      "Ġban": 8499,
      "ĠSign": 8500,
      "Phi": 8501,
      "Ġcru": 8502,
      "device": 8503,
      "ĠGuide": 8504,
      ")^": 8505,
      "ennessee": 8506,
      "uced": 8507,
      "ĠLewis": 8508,
      "uations": 8509,
      "Ġabandon": 8510,
      "Ġmanner": 8511,
      "&\\": 8512,
      "Ġwealth": 8513,
      "NAME": 8514,
      "ĠMoh": 8515,
      "Ġannounce": 8516,
      "groupId": 8517,
      "ĠPerform": 8518,
      "ronze": 8519,
      "ĠEXP": 8520,
      "Ġpractices": 8521,
      "leted": 8522,
      "Ġvess": 8523,
      "DP": 8524,
      "Ġprofession": 8525,
      "Ġsustain": 8526,
      "Ġcampus": 8527,
      "omer": 8528,
      "Ġvolunte": 8529,
      "Ġfrequency": 8530,
      "Ġdefeat": 8531,
      "ĠMP": 8532,
      "Ġpadding": 8533,
      "Note": 8534,
      "ĠPremier": 8535,
      "Ġped": 8536,
      "ĠSingapore": 8537,
      "Ġprepared": 8538,
      "arc": 8539,
      "ĠScholar": 8540,
      "Ġelimin": 8541,
      "Ġdescent": 8542,
      "Ġnarrow": 8543,
      "Ġcas": 8544,
      "send": 8545,
      "Ġtreated": 8546,
      "ĠStock": 8547,
      "iliar": 8548,
      "cut": 8549,
      "%;": 8550,
      ":(": 8551,
      "Json": 8552,
      "ĠWinter": 8553,
      "ĠFI": 8554,
      "Ġbutton": 8555,
      "ĠModel": 8556,
      "agger": 8557,
      "uma": 8558,
      "peror": 8559,
      "bell": 8560,
      "ĠAz": 8561,
      "Ġpromoted": 8562,
      "Ġcorre": 8563,
      "missions": 8564,
      "Ġending": 8565,
      "adi": 8566,
      "redit": 8567,
      "Ġbought": 8568,
      "ouston": 8569,
      "}),": 8570,
      "issue": 8571,
      "del": 8572,
      "ĠDespite": 8573,
      "[\\": 8574,
      "Ġweapons": 8575,
      "ĠSep": 8576,
      "Ġpowers": 8577,
      "agan": 8578,
      "Ġtransaction": 8579,
      "Ġdomestic": 8580,
      "Ġphotos": 8581,
      "ĠImp": 8582,
      "Ġframework": 8583,
      "Ġinner": 8584,
      "Ġcustomer": 8585,
      "},\\": 8586,
      "yal": 8587,
      "ĠSem": 8588,
      "ĠLear": 8589,
      "Ġtoken": 8590,
      "Sk": 8591,
      "Use": 8592,
      "Ġlie": 8593,
      "ĠHarry": 8594,
      "Ġmedium": 8595,
      "Ġhelping": 8596,
      "Ġwinter": 8597,
      "van": 8598,
      "ĠBrother": 8599,
      "ĠPhot": 8600,
      "Ġiron": 8601,
      "Ġment": 8602,
      "Dist": 8603,
      "eld": 8604,
      "Ġpassing": 8605,
      "ĠHamilton": 8606,
      "ivals": 8607,
      "ulating": 8608,
      "Ġdiscussed": 8609,
      "Click": 8610,
      "Ġhosted": 8611,
      "ĠLook": 8612,
      "Ġequation": 8613,
      "Ã¸": 8614,
      "Video": 8615,
      "Ġerrors": 8616,
      "ĠSaf": 8617,
      "Operation": 8618,
      "RC": 8619,
      "ĠLow": 8620,
      "Ġexperiences": 8621,
      "ĠArizona": 8622,
      "Ġzone": 8623,
      "\"));": 8624,
      "Hash": 8625,
      "Ġhighlight": 8626,
      "Ġhorse": 8627,
      "Ġpublication": 8628,
      "1918": 8629,
      "1936": 8630,
      "master": 8631,
      "Ġreaction": 8632,
      "Ġshooting": 8633,
      "hol": 8634,
      "access": 8635,
      "Ġsounds": 8636,
      "ĠControl": 8637,
      "Ġtor": 8638,
      "ĠSoft": 8639,
      "Ġyourself": 8640,
      "ĠNon": 8641,
      "Ġcharged": 8642,
      "Background": 8643,
      "ĠBudd": 8644,
      "si": 8645,
      "fall": 8646,
      "ĠPit": 8647,
      "High": 8648,
      "example": 8649,
      "Right": 8650,
      "Ġbroken": 8651,
      "Ġcauses": 8652,
      "Ġsuffered": 8653,
      "NN": 8654,
      "Ġlisting": 8655,
      "Ġvisible": 8656,
      "ĠMiller": 8657,
      "Ġremote": 8658,
      "ĠLev": 8659,
      "ĠText": 8660,
      "Ã£o": 8661,
      "Ġsamples": 8662,
      "Polit": 8663,
      "Di": 8664,
      "Ġexpos": 8665,
      "Ġexplained": 8666,
      "Ġstanding": 8667,
      "ï¿": 8668,
      "world": 8669,
      "Ġkilling": 8670,
      "PT": 8671,
      "Params": 8672,
      "Ġfill": 8673,
      "ĠRest": 8674,
      "Ġminute": 8675,
      "weg": 8676,
      "Ġassume": 8677,
      "Ġmort": 8678,
      "rub": 8679,
      "CODE": 8680,
      "Arch": 8681,
      "Ġmarkets": 8682,
      "operation": 8683,
      "DO": 8684,
      "Ġstatistics": 8685,
      "Ġcompeted": 8686,
      ">,": 8687,
      "Ġcontained": 8688,
      "SM": 8689,
      "Gen": 8690,
      "Ġwww": 8691,
      "Core": 8692,
      "ĠSweden": 8693,
      "Schema": 8694,
      "Ġapprec": 8695,
      "contin": 8696,
      "Ġlay": 8697,
      "Ġopposition": 8698,
      "iffer": 8699,
      "Ġwat": 8700,
      "URE": 8701,
      "Christ": 8702,
      "Ġton": 8703,
      "oen": 8704,
      "hell": 8705,
      "ĠOregon": 8706,
      "Ġgreatest": 8707,
      "Ġpurchased": 8708,
      "ĠBrian": 8709,
      "ĠAgain": 8710,
      "Ġmovies": 8711,
      "Ġoccasion": 8712,
      "Ġentertain": 8713,
      "ugins": 8714,
      "ĠIV": 8715,
      "Ġprominent": 8716,
      "Ġgenerate": 8717,
      "ĠAtlantic": 8718,
      "agen": 8719,
      "ĠLat": 8720,
      "Ġstrugg": 8721,
      "avor": 8722,
      "rames": 8723,
      "Option": 8724,
      "Ġstopped": 8725,
      "Ġadvoc": 8726,
      "Ġsecure": 8727,
      "Ġguest": 8728,
      "Ġmental": 8729,
      "Ġreturning": 8730,
      "Ġhelps": 8731,
      "ï¿½": 8732,
      "ĠNFL": 8733,
      "Ġbelief": 8734,
      "ĠPu": 8735,
      "bas": 8736,
      "langle": 8737,
      "ĠMountain": 8738,
      "Draw": 8739,
      "stylesheet": 8740,
      "Ġ\"\\": 8741,
      "ĠDeb": 8742,
      "ogy": 8743,
      "Ġrepresenting": 8744,
      "Ġunable": 8745,
      "iley": 8746,
      "ĠDigital": 8747,
      "Properties": 8748,
      "Ġdelivery": 8749,
      "ĠAge": 8750,
      "modal": 8751,
      "Ġorders": 8752,
      "product": 8753,
      "Ġattempts": 8754,
      "estion": 8755,
      "ĠHo": 8756,
      "mo": 8757,
      "Ġhumans": 8758,
      "Ġguess": 8759,
      "Ġskin": 8760,
      "anga": 8761,
      "LA": 8762,
      "Ġodd": 8763,
      "Ġhidden": 8764,
      "Ġinterests": 8765,
      "Ġmessages": 8766,
      "COLOR": 8767,
      "anny": 8768,
      "Ġconver": 8769,
      "Ġadministrative": 8770,
      "Ġintelligence": 8771,
      "Main": 8772,
      "Ġdoubt": 8773,
      "refix": 8774,
      "ĠNaz": 8775,
      "ipeline": 8776,
      "acket": 8777,
      "hu": 8778,
      "Ġcreative": 8779,
      "rell": 8780,
      "ses": 8781,
      "Ġpun": 8782,
      "DD": 8783,
      "abric": 8784,
      "Ġperforming": 8785,
      "ĠCaptain": 8786,
      "mathfrak": 8787,
      "Ġlicens": 8788,
      "ĠMagazine": 8789,
      "Ġextract": 8790,
      "global": 8791,
      "Ġwatching": 8792,
      "ln": 8793,
      "Rad": 8794,
      "Ġeg": 8795,
      "Ġspend": 8796,
      "ivation": 8797,
      "mad": 8798,
      "Ġtruly": 8799,
      "Mem": 8800,
      "Ġgene": 8801,
      "Ġscheduled": 8802,
      "angers": 8803,
      "LS": 8804,
      "ĠCharl": 8805,
      "Ġdebate": 8806,
      "Ġprogramme": 8807,
      "Ġà¤": 8808,
      "Ġoccurs": 8809,
      "debug": 8810,
      "Ġgender": 8811,
      "Ġcaptain": 8812,
      "Font": 8813,
      "\"))": 8814,
      "ĠDuke": 8815,
      "Ġexperienced": 8816,
      "ĠAst": 8817,
      "Ġscenes": 8818,
      "Vert": 8819,
      "Ġdry": 8820,
      "isted": 8821,
      "Ġbehavi": 8822,
      "Ġtaught": 8823,
      "Ġbodies": 8824,
      "ĠIT": 8825,
      "click": 8826,
      "Ġmunicipality": 8827,
      "elle": 8828,
      "task": 8829,
      "Ġsufficient": 8830,
      "ĠBG": 8831,
      "ĠBatt": 8832,
      "ĠAffairs": 8833,
      "ductions": 8834,
      "!âĢĿ": 8835,
      "Ġdocumentary": 8836,
      "Ġoverride": 8837,
      "ĠDom": 8838,
      "iples": 8839,
      "dict": 8840,
      "Ġterritory": 8841,
      "Jo": 8842,
      "ĠEN": 8843,
      "Ġresulted": 8844,
      "xx": 8845,
      "Ġlit": 8846,
      "msg": 8847,
      "Ġplanet": 8848,
      "address": 8849,
      "1938": 8850,
      "Ġescape": 8851,
      "Ġblocks": 8852,
      "ĠIndones": 8853,
      "ĠSav": 8854,
      "Ġinsert": 8855,
      "ĠProm": 8856,
      "coln": 8857,
      "ĠGh": 8858,
      "Ġhearing": 8859,
      "Ġwaiting": 8860,
      "cha": 8861,
      "uality": 8862,
      "Before": 8863,
      "iami": 8864,
      "Ġgained": 8865,
      "urches": 8866,
      "docs": 8867,
      "ORD": 8868,
      "ĠDark": 8869,
      "Ġcash": 8870,
      "Ġreligion": 8871,
      "Second": 8872,
      "Ġhappens": 8873,
      "Ġdelivered": 8874,
      "Ġjump": 8875,
      "\"|": 8876,
      "agues": 8877,
      "bind": 8878,
      "ĠLeon": 8879,
      "Ġteen": 8880,
      "Ġfilled": 8881,
      "Each": 8882,
      "Ġvideos": 8883,
      "%,": 8884,
      "islation": 8885,
      "Ġ>=": 8886,
      "ĠHas": 8887,
      "allow": 8888,
      "andra": 8889,
      "ĠRose": 8890,
      "inema": 8891,
      "hash": 8892,
      "ensure": 8893,
      "Ġamazing": 8894,
      "ĠMemorial": 8895,
      "Ret": 8896,
      "Host": 8897,
      "ĠChannel": 8898,
      "GE": 8899,
      "Collection": 8900,
      "delete": 8901,
      "ĠEntertainment": 8902,
      "Ġdetailed": 8903,
      "ĠBuilding": 8904,
      "ĠElement": 8905,
      "Personal": 8906,
      "isode": 8907,
      "Left": 8908,
      "VID": 8909,
      "Ġcomparison": 8910,
      "Ġexcellent": 8911,
      "stances": 8912,
      "Ġintern": 8913,
      "utenant": 8914,
      "Ġsuggests": 8915,
      "Ġenable": 8916,
      "ĠComput": 8917,
      "erves": 8918,
      "ĠJer": 8919,
      "enna": 8920,
      "Ġspaces": 8921,
      "ĠRa": 8922,
      "transform": 8923,
      "Menu": 8924,
      "ĠBab": 8925,
      "mid": 8926,
      "ĠPhilippines": 8927,
      "Ġpromote": 8928,
      "kg": 8929,
      "Ġtwenty": 8930,
      "Ġcommunic": 8931,
      "Ġgraduated": 8932,
      "ĠBu": 8933,
      "Ġvariables": 8934,
      "ĠKansas": 8935,
      "aron": 8936,
      "enses": 8937,
      "&#": 8938,
      "rog": 8939,
      "ĠHotel": 8940,
      "ĠConnect": 8941,
      "Cap": 8942,
      "tered": 8943,
      "split": 8944,
      "reens": 8945,
      "ĠRyan": 8946,
      "Ġrecognition": 8947,
      "Ġpiano": 8948,
      "ĠTransport": 8949,
      "oggle": 8950,
      "ĠMilitary": 8951,
      "fortun": 8952,
      "1914": 8953,
      "Ġpure": 8954,
      "ĠGil": 8955,
      "ERS": 8956,
      "Ġprices": 8957,
      "plex": 8958,
      "merce": 8959,
      "1937": 8960,
      "ĠMach": 8961,
      "icide": 8962,
      "ordon": 8963,
      "jan": 8964,
      "Pres": 8965,
      "roud": 8966,
      "stop": 8967,
      "Dir": 8968,
      "ĠIndiana": 8969,
      "Ġaspects": 8970,
      "Ã©e": 8971,
      "emet": 8972,
      "ĠĠĠĠĠĠĠĠĠĠĠĠĠĠĠĠĠĠĠĠ": 8973,
      "Ġadvice": 8974,
      "Ġloan": 8975,
      "news": 8976,
      "Ġconstitu": 8977,
      "Ġformal": 8978,
      "Ġultimately": 8979,
      "ĠTony": 8980,
      "ĠForeign": 8981,
      "Ġguys": 8982,
      "hard": 8983,
      "Ġworldwide": 8984,
      "ĠBrig": 8985,
      "vard": 8986,
      "Ġcontrolled": 8987,
      "Ġmir": 8988,
      "Ġclients": 8989,
      "Tube": 8990,
      "Ġhash": 8991,
      "pled": 8992,
      "ĠTai": 8993,
      "Ġatmosp": 8994,
      "store": 8995,
      "ĠOnce": 8996,
      "ĠException": 8997,
      "Ġcovers": 8998,
      "mode": 8999,
      "ĠAthlet": 9000,
      "izz": 9001,
      "models": 9002,
      "DR": 9003,
      "parameter": 9004,
      "Ġinvolving": 9005,
      "connect": 9006,
      "Ġsegment": 9007,
      "Ġtypical": 9008,
      "iveness": 9009,
      "roit": 9010,
      "Ġexplain": 9011,
      "Ġfactory": 9012,
      "Ġbringing": 9013,
      "ruption": 9014,
      "Ġfrequently": 9015,
      "Vol": 9016,
      "ĠPot": 9017,
      "Ġflex": 9018,
      "160": 9019,
      "enz": 9020,
      "ois": 9021,
      "interface": 9022,
      "Ġletters": 9023,
      "Ġmil": 9024,
      "Ġshock": 9025,
      "ĠAnderson": 9026,
      "Ġsolar": 9027,
      "session": 9028,
      "Ġsudden": 9029,
      "plom": 9030,
      "Async": 9031,
      "ĠJam": 9032,
      "iamond": 9033,
      "%.": 9034,
      "oli": 9035,
      "family": 9036,
      "Ġseek": 9037,
      "ĠMedicine": 9038,
      "hline": 9039,
      "Star": 9040,
      "Ġvisited": 9041,
      "ĠReb": 9042,
      "tenance": 9043,
      "iration": 9044,
      "ĠSP": 9045,
      "ĠBishop": 9046,
      "join": 9047,
      "Ġresponsibility": 9048,
      "ĠFollowing": 9049,
      "holder": 9050,
      "Ġfilename": 9051,
      "ĠKat": 9052,
      "Ġsevent": 9053,
      "Ġexplicit": 9054,
      "Ant": 9055,
      "================================": 9056,
      "ĠHan": 9057,
      "ĠPalest": 9058,
      "Ġliqu": 9059,
      "Ġinstitution": 9060,
      "rant": 9061,
      "Ġparticipated": 9062,
      "aded": 9063,
      "Ġprotocol": 9064,
      "Ġpainting": 9065,
      "ĠDead": 9066,
      "Ġsoul": 9067,
      "Ġserial": 9068,
      "ĠSound": 9069,
      "oscow": 9070,
      "border": 9071,
      "ĉĉĊ": 9072,
      "Ġdecade": 9073,
      "Ġguarant": 9074,
      "Ġshares": 9075,
      "Ġcapture": 9076,
      "brid": 9077,
      "orough": 9078,
      "coll": 9079,
      "Ġfly": 9080,
      "atern": 9081,
      "ĠCab": 9082,
      "Ġvel": 9083,
      "ðŁ": 9084,
      "ighth": 9085,
      "Ġaid": 9086,
      "amental": 9087,
      "Her": 9088,
      "icians": 9089,
      "ĠOs": 9090,
      "aza": 9091,
      "Ġwa": 9092,
      "elli": 9093,
      "Tim": 9094,
      "Ġefficient": 9095,
      "make": 9096,
      "ĠSwedish": 9097,
      "101": 9098,
      "David": 9099,
      "Ġcle": 9100,
      "Ġparams": 9101,
      "Ġsubsequent": 9102,
      "support": 9103,
      "bolds": 9104,
      "iac": 9105,
      "Handle": 9106,
      "ĠTennessee": 9107,
      "Found": 9108,
      "West": 9109,
      "agh": 9110,
      "scious": 9111,
      "Ġlinked": 9112,
      "NavBar": 9113,
      "Most": 9114,
      "names": 9115,
      ")\"": 9116,
      "1917": 9117,
      "ĠMaria": 9118,
      "Ġbright": 9119,
      "ĠFac": 9120,
      "sect": 9121,
      "ĠStart": 9122,
      "vector": 9123,
      "bling": 9124,
      "Ġindicate": 9125,
      "Ġextensive": 9126,
      "boldsymbol": 9127,
      "---": 9128,
      "FR": 9129,
      "ĠHart": 9130,
      "step": 9131,
      "aration": 9132,
      "Ġessential": 9133,
      "Ġuniform": 9134,
      "Ġprincipal": 9135,
      "mi": 9136,
      "ĠRoute": 9137,
      "ĠLiter": 9138,
      "Ġnodes": 9139,
      "ĠCook": 9140,
      "Kind": 9141,
      "Ġinfrastructure": 9142,
      "Ġveter": 9143,
      "ITY": 9144,
      "Ġarrang": 9145,
      "DT": 9146,
      "Has": 9147,
      "Ġswe": 9148,
      "Ġinline": 9149,
      "possible": 9150,
      "abla": 9151,
      "ĠSimon": 9152,
      "Ġkeeping": 9153,
      "ghan": 9154,
      "ĠTherefore": 9155,
      "Ġresistance": 9156,
      "Ġcombat": 9157,
      "ĠCond": 9158,
      "Stud": 9159,
      "Ġmac": 9160,
      "PORT": 9161,
      "Ġparliament": 9162,
      "ĠKhan": 9163,
      "oret": 9164,
      "Store": 9165,
      "low": 9166,
      "ĠJoh": 9167,
      "Ġrend": 9168,
      "oven": 9169,
      "ells": 9170,
      "ĠCru": 9171,
      "ĠON": 9172,
      "Women": 9173,
      "ĠManchester": 9174,
      "ĠDream": 9175,
      "Ġmunicipal": 9176,
      "omot": 9177,
      "reshold": 9178,
      "fields": 9179,
      "Ġdispl": 9180,
      "ĠAT": 9181,
      "ĠHollywood": 9182,
      "types": 9183,
      "iang": 9184,
      "Ġbroke": 9185,
      "ĠAssoci": 9186,
      "ĠAdministration": 9187,
      "Ġcopies": 9188,
      "jar": 9189,
      "Ġrestaurant": 9190,
      "Ġsupports": 9191,
      "Reference": 9192,
      "Ġimpress": 9193,
      "ĠCollection": 9194,
      "Ġtitled": 9195,
      "ĠFall": 9196,
      "Phone": 9197,
      "lah": 9198,
      "Dom": 9199,
      "Ġcache": 9200,
      "Î±": 9201,
      "ĠSky": 9202,
      "UK": 9203,
      "Ġstands": 9204,
      "ĠDu": 9205,
      "usal": 9206,
      "Oct": 9207,
      "ĠThrough": 9208,
      "dam": 9209,
      "igenous": 9210,
      "overy": 9211,
      "Ġtowns": 9212,
      "Ġaccused": 9213,
      "emetery": 9214,
      "Ġloved": 9215,
      "ffee": 9216,
      "istent": 9217,
      "DC": 9218,
      "Ġvictims": 9219,
      "Ġwalls": 9220,
      "Ġlose": 9221,
      "bad": 9222,
      "Ġfaculty": 9223,
      "Ġdeleg": 9224,
      "Ġthank": 9225,
      "outheast": 9226,
      "ĠChall": 9227,
      "}}$": 9228,
      "Ġmand": 9229,
      "Session": 9230,
      "Tags": 9231,
      "Ġele": 9232,
      "Helper": 9233,
      "agg": 9234,
      "Ġdistingu": 9235,
      "appro": 9236,
      "ername": 9237,
      "foo": 9238,
      "ĠSpec": 9239,
      "estamp": 9240,
      "bot": 9241,
      "ĠCase": 9242,
      "rett": 9243,
      "obuf": 9244,
      "Ġboundary": 9245,
      "Ġrent": 9246,
      "FT": 9247,
      "otimes": 9248,
      "ulator": 9249,
      "GA": 9250,
      "Ġracing": 9251,
      "ĠJane": 9252,
      "Ġcraft": 9253,
      "ĠJesus": 9254,
      "forcement": 9255,
      "Ġstrike": 9256,
      "aux": 9257,
      "Ġpilot": 9258,
      "ĠMissouri": 9259,
      "wegian": 9260,
      "fn": 9261,
      "seud": 9262,
      "Lab": 9263,
      "Integer": 9264,
      "ĠBefore": 9265,
      "hire": 9266,
      "Step": 9267,
      "ropolitan": 9268,
      "nie": 9269,
      "Ġnum": 9270,
      "keys": 9271,
      "ĠSE": 9272,
      "ĠMalays": 9273,
      "Then": 9274,
      "Ġacknow": 9275,
      "ATH": 9276,
      "1900": 9277,
      "Ġnotable": 9278,
      "ĠOcean": 9279,
      "Ġjournalist": 9280,
      "Ġabuse": 9281,
      "1935": 9282,
      "Ġtum": 9283,
      "ĠDiego": 9284,
      "ĠPier": 9285,
      "Ġscoring": 9286,
      "ĠKevin": 9287,
      "Ġnovels": 9288,
      "asts": 9289,
      "ĠCastle": 9290,
      "patch": 9291,
      "Ġhouseholds": 9292,
      "ĠOfficer": 9293,
      "ĠNorm": 9294,
      "ĠMarc": 9295,
      "Device": 9296,
      "Ġproved": 9297,
      "ĠOnline": 9298,
      "fire": 9299,
      "Ġ\"/": 9300,
      "BR": 9301,
      "ĠModern": 9302,
      "Av": 9303,
      "Ġstores": 9304,
      "atar": 9305,
      "ĠStone": 9306,
      "Ġrenew": 9307,
      "Ġgod": 9308,
      "bean": 9309,
      "Mich": 9310,
      "Ġearn": 9311,
      "Ġaccounts": 9312,
      "Ġtalks": 9313,
      "Ġthick": 9314,
      "ĠAccess": 9315,
      "acc": 9316,
      "axy": 9317,
      "ĠSi": 9318,
      "ldots": 9319,
      "Ġexhibition": 9320,
      "wall": 9321,
      "ĠDNA": 9322,
      "Ġintegr": 9323,
      "Ġdecisions": 9324,
      "mb": 9325,
      "Ġyellow": 9326,
      "Ġairport": 9327,
      "Ġdrivers": 9328,
      "abama": 9329,
      "Ġdescribes": 9330,
      "shop": 9331,
      "dot": 9332,
      "game": 9333,
      "Author": 9334,
      "ĠObs": 9335,
      "widget": 9336,
      "Ġterr": 9337,
      "ĠUkraine": 9338,
      "ĠKal": 9339,
      "1919": 9340,
      "Ġinters": 9341,
      "Ġwhatever": 9342,
      "Ġgovernor": 9343,
      "Ġinternet": 9344,
      "ailing": 9345,
      "Ġheader": 9346,
      "coin": 9347,
      "ĠRoy": 9348,
      "inch": 9349,
      "Ġpeak": 9350,
      "called": 9351,
      "ĠSix": 9352,
      "Loc": 9353,
      "Ġcapable": 9354,
      "Expression": 9355,
      "Ġconsistent": 9356,
      "handle": 9357,
      "Ãº": 9358,
      "Ġrear": 9359,
      "tool": 9360,
      "efe": 9361,
      "Ġbands": 9362,
      "ership": 9363,
      "ĠHeart": 9364,
      "Show": 9365,
      "clear": 9366,
      "Ġclosely": 9367,
      "ORM": 9368,
      "ĠPrinc": 9369,
      "ango": 9370,
      "'],": 9371,
      "ĠSenior": 9372,
      "Ġprime": 9373,
      "Ġdelete": 9374,
      "BE": 9375,
      "(-": 9376,
      "Ġmeasured": 9377,
      "Ġwound": 9378,
      "ĠSystems": 9379,
      "ĠDor": 9380,
      "ĠArthur": 9381,
      "Ġinteraction": 9382,
      "(:": 9383,
      "mic": 9384,
      "ĠNext": 9385,
      "creen": 9386,
      "ĠMarg": 9387,
      "hered": 9388,
      "ĠPatrick": 9389,
      "elson": 9390,
      "Ġentity": 9391,
      "Ġmedian": 9392,
      "Ġinh": 9393,
      "ĠPay": 9394,
      "craft": 9395,
      "emble": 9396,
      "ĠBox": 9397,
      "ĠRoll": 9398,
      "Ġovers": 9399,
      "ĠChild": 9400,
      "Ġboys": 9401,
      "North": 9402,
      "Ġwrest": 9403,
      "Ġtrigger": 9404,
      "Ġsnow": 9405,
      "vol": 9406,
      "ATA": 9407,
      "Ġpresidential": 9408,
      "Ġhits": 9409,
      "Ġgather": 9410,
      "enny": 9411,
      "Euro": 9412,
      "ocity": 9413,
      "Ġinher": 9414,
      "1933": 9415,
      "screen": 9416,
      "including": 9417,
      "ĠPR": 9418,
      "Ġundefined": 9419,
      "ogether": 9420,
      "alion": 9421,
      "ĠFront": 9422,
      "indows": 9423,
      "ĠMun": 9424,
      "witzer": 9425,
      "255": 9426,
      "ĠHop": 9427,
      "ĠFull": 9428,
      "ĠHur": 9429,
      "ski": 9430,
      "bass": 9431,
      "inations": 9432,
      "Ġjav": 9433,
      "ipped": 9434,
      "full": 9435,
      "yers": 9436,
      "Ġstret": 9437,
      "issions": 9438,
      "ixel": 9439,
      "yes": 9440,
      "1929": 9441,
      "Ġbrings": 9442,
      "incess": 9443,
      "ĉĠ": 9444,
      "ACT": 9445,
      "Ġroof": 9446,
      "Ġvocal": 9447,
      "Ġinsurance": 9448,
      "Apr": 9449,
      "Ġmouth": 9450,
      "ĠMedal": 9451,
      "Ġreader": 9452,
      "Only": 9453,
      "Ġdegrees": 9454,
      "Ġrelationships": 9455,
      "Ġparticipants": 9456,
      "Ġresearchers": 9457,
      "Association": 9458,
      "ĠCzech": 9459,
      "ials": 9460,
      "sur": 9461,
      "prene": 9462,
      "Ġvul": 9463,
      "Ġabsor": 9464,
      "ĠIowa": 9465,
      "lik": 9466,
      "Ġengineer": 9467,
      "acent": 9468,
      "uther": 9469,
      "Ġvice": 9470,
      "Ġrecall": 9471,
      "Parent": 9472,
      "Ġtheatre": 9473,
      "person": 9474,
      "Ġcontributions": 9475,
      "Ġfat": 9476,
      "ĠMexican": 9477,
      "agu": 9478,
      "Ġscientists": 9479,
      "Ġranked": 9480,
      "ĠDeath": 9481,
      "cup": 9482,
      "Ġtrained": 9483,
      "owntown": 9484,
      "Leg": 9485,
      "don": 9486,
      "tim": 9487,
      "ublished": 9488,
      "Ġsections": 9489,
      "Ġwire": 9490,
      "ĠBurn": 9491,
      "ĠNorway": 9492,
      "Ġremark": 9493,
      "Aug": 9494,
[...]
