{"[UNK]":0,"!":1,"\"":2,"#":3,"$":4,"%":5,"&":6,"'":7,"(":8,")":9,"*":10,"+":11,",":12,"-":13,".":14,"/":15,"0":16,"1":17,"2":18,"3":19,"4":20,"5":21,"6":22,"7":23,"8":24,"9":25,":":26,";":27,"<":28,"=":29,">":30,"?":31,"@":32,"A":33,"B":34,"C":35,"D":36,"E":37,"F":38,"G":39,"H":40,"I":41,"J":42,"K":43,"L":44,"M":45,"N":46,"O":47,"P":48,"Q":49,"R":50,"S":51,"T":52,"U":53,"V":54,"W":55,"X":56,"Y":57,"Z":58,"[":59,"\\":60,"]":61,"^":62,"_":63,"`":64,"a":65,"b":66,"c":67,"d":68,"e":69,"f":70,"g":71,"h":72,"i":73,"j":74,"k":75,"l":76,"m":77,"n":78,"o":79,"p":80,"q":81,"r":82,"s":83,"t":84,"u":85,"v":86,"w":87,"x":88,"y":89,"z":90,"{":91,"|":92,"}":93,"~":94,"¡":95,"¢":96,"£":97,"¤":98,"¥":99,"¦":100,"§":101,"¨":102,"©":103,"ª":104,"«":105,"¬":106,"®":107,"¯":108,"°":109,"±":110,"²":111,"³":112,"´":113,"µ":114,"¶":115,"·":116,"¸":117,"¹":118,"º":119,"»":120,"¼":121,"½":122,"¾":123,"¿":124,"Â":125,"Ã":126,"Ä":127,"Å":128,"Æ":129,"Ç":130,"È":131,"É":132,"Ê":133,"Ë":134,"Ì":135,"Í":136,"Î":137,"Ï":138,"Ð":139,"Ñ":140,"Ò":141,"Ó":142,"Ô":143,"Õ":144,"Ö":145,"×":146,"Ø":147,"Ù":148,"Ú":149,"Û":150,"Ü":151,"Ý":152,"Þ":153,"ß":154,"à":155,"á":156,"â":157,"ã":158,"ä":159,"å":160,"æ":161,"ç":162,"è":163,"é":164,"ê":165,"ë":166,"ì":167,"í":168,"î":169,"ï":170,"ð":171,"ñ":172,"ó":173,"ô":174,"Ā":175,"ā":176,"Ă":177,"ă":178,"Ą":179,"ą":180,"Ć":181,"ć":182,"Ĉ":183,"ĉ":184,"Ċ":185,"ċ":186,"Č":187,"č":188,"Ď":189,"ď":190,"Đ":191,"đ":192,"Ē":193,"ē":194,"Ĕ":195,"ĕ":196,"Ė":197,"ė":198,"Ę":199,"ę":200,"Ě":201,"ě":202,"Ĝ":203,"ĝ":204,"Ğ":205,"ğ":206,"Ġ":207,"ġ":208,"Ģ":209,"ģ":210,"Ĥ":211,"ĥ":212,"Ħ":213,"ħ":214,"Ĩ":215,"ĩ":216,"Ī":217,"ī":218,"Ĭ":219,"ĭ":220,"Į":221,"į":222,"İ":223,"ı":224,"Ĳ":225,"ĳ":226,"Ĵ":227,"ĵ":228,"Ķ":229,"ķ":230,"ĸ":231,"Ĺ":232,"ĺ":233,"Ļ":234,"ļ":235,"Ľ":236,"ľ":237,"Ŀ":238,"ŀ":239,"Ł":240,"ł":241,"Ń":242,"ĠĠ":243,"Ġt":244,"in":245,"Ġa":246,"he":247,"er":248,"on":249,"re":250,"Ġthe":251,"ĠĠĠĠ":252,"at":253,"en":254,"or":255,"Ġs":256,"an":257,"es":258,"is":259,"it":260,"al":261,"Ġo":262,"Ġw":263,"ed":264,"Ġc":265,"ar":266,"Ġf":267,"nd":268,"ing":269,"Ġp":270,"Ġb":271,"Ġin":272,"Ġof":273,"ion":274,"ic":275,"as":276,"ou":277,"le":278,"Ġand":279,"Ġm":280,"ro":281,"Ġto":282,"Ġd":283,"ent":284,"Ġh":285,"il":286,"st":287,"ct":288,"ĠS":289,"et":290,"el":291,"om":292,"ĠĠĠ":293,"am":294,"Ġre":295,"ĠC":296,"ĠT":297,"ĠA":298,"Ġth":299,"ĠĠĠĠĠĠĠĠ":300,"Ġn":301,"Ġl":302,"ol":303,"id":304,"Ġ(":305,"âĢ":306,"ur":307,"ad":308,"ac":309,"ĠM":310,"Ġe":311,"ig":312,"ot":313,"ation":314,"ut":315,"iv":316,"im":317,"ĠI":318,"Ġg":319,"us":320,"ay":321,"Ġis":322,"Ġfor":323,"ĠP":324,"ĠB":325,"ly":326,"ers":327,"Ġon":328,"ow":329,"ce":330,"ch":331,"ir":332,"ul":333,"un":334,"em":335,"ter":336,"Ġbe":337,"ag":338,"Ġst":339,"ĠH":340,"ith":341,"20":342,"ĠR":343,"ĠD":344,"od":345,"if":346,"se":347,"ist":348,"ĠF":349,"Ġas":350,"th":351,"um":352,"Ġv":353,"ĠL":354,"her":355,"Ġwith":356,"Ġwas":357,"19":358,"Ġthat":359,"av":360,"ĠW":361,"and":362,"ab":363,"est":364,"ĠN":365,"ĠĠĠĠĠĠĠ":366,"ap":367,"ĠG":368,"ate":369,"ver":370,"op":371,"Ġal":372,"Ġcon":373,"ĠThe":374,"oc":375,"Ġan":376,"ri":377,"ĠE":378,"ew":379,"pe":380,"Ġwh":381,"rom":382,"qu":383,"res":384,"Ġit":385,"ain":386,"ht":387,"Ġ=":388,"Ġat":389,"Ġby":390,"os":391,"ess":392,"ĠJ":393,"ill":394,"Ġpro":395,"ort":396,"Ġr":397,"Ġhe":398,"Ġde":399,"ĉĉ":400,"our":401,"Ġy":402,"ity":403,"Ġcom":404,"</":405,"ub":406,"ĠO":407,"art":408,"ore":409,"ak":410,"end":411,"=\"":412,"ction":413,"Ġ\"":414,"up":415,"all":416,"Ġfrom":417,");":418,"ies":419,"Ġse":420,"ld":421,"ass":422,"âĢĻ":423,"Ġor":424,"Ġex":425,"nt":426,"ame":427,"ment":428,"'s":429,"ant":430,"Ġare":431,"--":432,"pt":433,"ud":434,"Ġ{":435,"Ġ$":436,"ive":437,"ue":438,"ex":439,"ard":440,"og":441,"ĠU":442,"ine":443,"ight":444,"ĠâĢ":445,"Ġ<":446,"age":447,"pl":448,"ber":449,"ack":450,"ĠK":451,"ial":452,"ure":453,"Ġcl":454,"201":455,"ust":456,"ia":457,"ov":458,"ge":459,"ect":460,"//":461,"Ġch":462,"ra":463,"ĠĠĠĠĠĠĠĠĠĠĠ":464,"ĠSt":465,"The":466,"ip":467,"port":468,"rou":469,"ans":470,"..":471,"Ġ\\":472,"Ġthis":473,"Ġpl":474,"ell":475,"ast":476,"Ġ*":477,"Ġsh":478,"ary":479,"ated":480,"cl":481,"ave":482,"čĊ":483,"ich":484,"ef":485,"00":486,"Ġtr":487,"ost":488,"ke":489,"iz":490,"out":491,"Ġnot":492,"Ġle":493,"are":494,"ong":495,"ear":496,"ult":497,"ĠIn":498,"per":499,"ire":500,"Ġhis":501,"ff":502,"ian":503,"ord":504,"Ġus":505,"ok":506,"ĠV":507,"ical":508,"con":509,"orm":510,"Ġwe":511,"ĠĊ":512,"Ġ}":513,"urn":514,"ork":515,"ice":516,"ign":517,"ide":518,"uc":519,"able":520,"ĠCh":521,"),":522,"ath":523,"ould":524,"\">":525,"ome":526,"ind":527,"Ġhave":528,"ere":529,"ions":530,"ep":531,"Ġj":532,"Ġcomp":533,"Ġhas":534,"ace":535,"Ġk":536,"Ġyou":537,"ry":538,"int":539,"Ġint":540,"ther":541,"Ġab":542,"so":543,"Ġcont":544,"ish":545,"eg":546,"ang":547,"200":548,"ime":549,"Ġ-":550,"ous":551,"ile":552,"Ġwhe":553,"Ġres":554,"ite":555,"Ġwhich":556,"ib":557,"ase":558,"mer":559,"enc":560,"Ġun":561,"erv":562,"ence":563,"ĠĠĠĠĠĠĠĠĠĠĠĠĠĠĠĠ":564,"act":565,"gh":566,"ext":567,"Ġall":568,"Ġad":569,"In":570,"ations":571,"ens":572,"Ġwere":573,").":574,"ount":575,"ory":576,"Ġar":577,"ec":578,"ĠĠĠĠĠ":579,"und":580,"ubl":581,"tr":582,"Ġ|":583,"Ġcan":584,"one":585,"ev":586,"ail":587,"ance":588,"ition":589,"**":590,"Ġif":591,"Ġbut":592,"tern":593,"ĠTh":594,"18":595,"ild":596,"com":597,"ru":598,"Ġap":599,"li":600,"Ġ&":601,"ob":602,"own":603,"turn":604,"Ġtheir":605,"Ġclass":606,"ress":607,"Ġnew":608,"ach":609,"Ġim":610,"get":611,"Ġalso":612,"ric":613,"irst":614,"Ġ'":615,"form":616,"ound":617,"ents":618,"ll":619,"Ġwho":620,"ĠY":621,"Ġac":622,"fer":623,"Ġgo":624,"Ġout":625,"rit":626,"Ġone":627,"ype":628,"ks":629,"ally":630,"âĢĿ":631,"Ġup":632,"sp":633,"ree":634,"ode":635,"pro":636,"hed":637,"ook":638,"ors":639,"ont":640,"Ġwill":641,"Ġhad":642,"ĠHe":643,"ne":644,"ug":645,"ĠUn":646,"()":647,"ject":648,"te":649,"==":650,"Ġsc":651,"Ġdo":652,"Ġpart":653,"----":654,"ata":655,"Ġthey":656,"ft":657,"Ġper":658,"amp":659,"ĠIt":660,"ark":661,"Ġher":662,"ublic":663,"row":664,"10":665,"Ġdis":666,"Ġme":667,"ĠâĢĵ":668,"ake":669,"Ġits":670,"ates":671,"Ġen":672,"fter":673,"Ġag":674,"wo":675,"Ġman":676,"Ġplay":677,"oll":678,"Ġte":679,"ss":680,"aw":681,"ng":682,"ph":683,"ool":684,"ert":685,"ater":686,"Ġev":687,"ings":688,"old":689,"{\\":690,"Ġfirst":691,"clud":692,"Ġmore":693,"ely":694,"Ġyear":695,"âĢĵ":696,"ose":697,"Ġother":698,"ie":699,"Ġsp":700,"ational":701,"cess":702,"Ġpre":703,"ock":704,"uch":705,"Ġbeen":706,"rib":707,"Ġ||":708,"Ġreturn":709,"Ġwork":710,"ring":711,"man":712,"we":713,"iss":714,"ref":715,"ople":716,"Ġso":717,"iew":718,"Ġover":719,"ĠAr":720,"anc":721,"ĠĠĠĠĠĠĠĠĠĠĠĠĠĠĠ":722,"lect":723,"elf":724,"Ġabout":725,"Ġro":726,"Ġqu":727,"ick":728,"ays":729,"199":730,"ĠâĢľ":731,"ull":732,"ery":733,"Ġpe":734,"oy":735,"ons":736,"les":737,"ade":738,"land":739,"ond":740,"Ġdes":741,"pec":742,"io":743,"iel":744,"Ġ[":745,"als":746,"Ġrec":747,"igh":748,"Ġtime":749,"sh":750,"ener":751,"eth":752,"ember":753,"alue":754,"St":755,"Ġoff":756,"Ġpr":757,"ms":758,"Ġtwo":759,"yst":760,"use":761,"rap":762,"\",":763,"Ġcomm":764,"ited":765,"Ġli":766,"orn":767,"du":768,"over":769,"ics":770,"Ġne":771,"Ġ//":772,"Ġinto":773,"ps":774,"Ex":775,"ink":776,"ivers":777,"ram":778,"unction":779,"ied":780,"Ġwould":781,"Ġwhen":782,"oint":783,"meric":784,"reat":785,"ict":786,"ĠCom":787,"vel":788,"aid":789,"Ġinclud":790,"12":791,"sc":792,"Ġund":793,"ĠNew":794,"ource":795,"ences":796,"Ġshe":797,"->":798,"Ġbec":799,"red":800,"oot":801,"inal":802,"pr":803,"ased":804,"ix":805,"Ġget":806,"ward":807,"Ġkn":808,"ield":809,"ĉĉĉĉ":810,"Ġind":811,"Ġass":812,"ual":813,"round":814,"ve":815,"Ġ</":816,"_{":817,"Ġdef":818,"ious":819,"ption":820,"Ġafter":821,"::":822,"pect":823,"tt":824,"olog":825,"ax":826,"Ġthan":827,"Ġthere":828,"ĠMar":829,"Ġset":830,"orld":831,"Ġsup":832,"Ġact":833,"Ġpeople":834,"Ġsome":835,"ood":836,"../":837,"ize":838,"Ġinter":839,"uring":840,"Ġbet":841,"ĠSe":842,"Ġ@":843,"Ġ/":844,"ystem":845,"Ġany":846,"par":847,"ys":848,"Ġfil":849,"Ġatt":850,"ific":851,"eb":852,"ames":853,"ident":854,"Ġpublic":855,"15":856,"wn":857,"Ġonly":858,"16":859,"ren":860,"Ġ.":861,"Ġfl":862,"ĠAl":863,"ove":864,"17":865,"Ġunder":866,"Ġreg":867,"ann":868,"Ġop":869,"let":870,"Ġbl":871,"Ġname":872,"ative":873,"Ġfe":874,"Ġcol":875,"ement":876,"Ġbu":877,"ty":878,"pos":879,"Ġ+":880,"ale":881,"Ġthem":882,"put":883,"chool":884,"ities":885,"ah":886,"Ġob":887,"ĠPro":888,"198":889,"Ġno":890,"lement":891,"ular":892,"Ġam":893,"Ġserv":894,"ise":895,"ating":896,"rough":897,"ĠAmeric":898,"Ġsub":899,"Ġadd":900,"Ġend":901,"Ref":902,"the":903,"ml":904,"roup":905,"ĠSh":906,"Ġwhere":907,"az":908,"Ġhim":909,"ough":910,"Ġcons":911,"che":912,"ĠThis":913,"Ġsaid":914,"Ġinv":915,"ts":916,"cre":917,"ash":918,"Ġpol":919,"Ġloc":920,"Ġ$\\":921,"ange":922,"Ġvar":923,"oth":924,"ily":925,"oh":926,"(\"":927,"essage":928,"11":929,"arg":930,"ton":931,"cent":932,"Ġtrans":933,"Ġrel":934,"ason":935,"();":936,"nc":937,"ists":938,"set":939,"cond":940,"ished":941,"Ġmod":942,"ollow":943,"ins":944,"app":945,"air":946,"ower":947,"ife":948,"Ġlike":949,"Ġmost":950,"Ġyour":951,"irect":952,"...":953,"ient":954,"Ġour":955,"gan":956,"resent":957,"Ġrem":958,"Ġmay":959,"atch":960,"ral":961,"ision":962,"Th":963,"Ġback":964,"Ġprov":965,"ars":966,"err":967,"att":968,"ues":969,"umber":970,"Ġem":971,"itt":972,"Ġconst":973,"Ġstud":974,"hip":975,"Ġthrough":976,"ee":977,"ince":978,"Ġyears":979,"math":980,"ank":981,"der":982,"Ġpos":983,"its":984,"ER":985,"min":986,"div":987,"ures":988,"Ġph":989,"Refer":990,"Ġspec":991,"',":992,"Ġagain":993,"span":994,"ween":995,"ution":996,"Ġco":997,"eng":998,"14":999,"13":1000,"Ġthen":1001,"ning":1002,"ball":1003,"Ġfunction":1004,"ĠTr":1005,"oid":1006,"ox":1007,"></":1008,"Ġinst":1009,"iversity":1010,"ma":1011,"ause":1012,"Ġjust":1013,"197":1014,"duc":1015,"raph":1016,"Ġwhat":1017,"Ġsuch":1018,"Ġcall":1019,"--------":1020,"Ġent":1021,"ator":1022,"ĠCl":1023,"oci":1024,"atic":1025,"ray":1026,"Ġ:":1027,"to":1028,"References":1029,"els":1030,"way":1031,"ier":1032,"cc":1033,"key":1034,"Ġdif":1035,"ĠAn":1036,"ract":1037,"orth":1038,"ines":1039,"ouse":1040,"Ġshow":1041,"Ġform":1042,"Ġused":1043,"ĠZ":1044,"au":1045,"eter":1046,"right":1047,"ility":1048,"Pro":1049,"Ġbetween":1050,"any":1051,"emb":1052,"Ġhow":1053,"Ġmy":1054,"ck":1055,"Ġever":1056,"30":1057,"outh":1058,"ead":1059,"other":1060,"lection":1061,"ute":1062,"equ":1063,"erson":1064,"ner":1065,"Ġwell":1066,"line":1067,"ible":1068,"ruct":1069,"ury":1070,"Ġfollow":1071,"><":1072,"fl":1073,"****":1074,"Ġgr":1075,"uth":1076,"ĠInd":1077,"IN":1078,"fig":1079,"hen":1080,"oad":1081,"ature":1082,"ym":1083,"rent":1084,"://":1085,"son":1086,"Ch":1087,"ON":1088,"}}":1089,"vent":1090,"led":1091,"25":1092,"Ġ*/":1093,"text":1094,"Ġart":1095,"ik":1096,"../../":1097,"ĠSc":1098,"pon":1099,"Ġdata":1100,"Ġdist":1101,"Ġser":1102,"ternal":1103,"ern":1104,"Ġbeing":1105,"'t":1106,"aj":1107,"ices":1108,"Ġresult":1109,"ages":1110,"uss":1111,"Ġ#":1112,"====":1113,"Ġthese":1114,"ĠQ":1115,"Ġfound":1116,"Ġcent":1117,"imes":1118,"Ġuse":1119,"Ġed":1120,"Ġteam":1121,"read":1122,"196":1123,"^{":1124,"Ġrequ":1125,"21":1126,"Ġline":1127,"Ġacc":1128,"Ġcould":1129,"Ġchar":1130,"fore":1131,"ĠFr":1132,"Ġel":1133,"Ġmade":1134,"ĠCol":1135,"ey":1136,"day":1137,"Ġsur":1138,"fr":1139,"col":1140,"ĠWh":1141,"ĉĉĉ":1142,"ĠDe":1143,"html":1144,"Ġear":1145,"ider":1146,"arch":1147,"ble":1148,"Ġstart":1149,"Ġfam":1150,"ĠAmerican":1151,"Ġcur":1152,"ism":1153,"ethod":1154,".\"":1155,"Ġsign":1156,"Ġduring":1157,"ather":1158,"ever":1159,"iving":1160,"ives":1161,"this":1162,"ten":1163,"ĠĠĠĠĠĠĠĠĠ":1164,"ments":1165,"22":1166,"Str":1167,"Ġsm":1168,"ron":1169,"Ġcount":1170,"Ġmany":1171,"ĠĠĠĠĠĠĠĠĠĠĠĠĠĠĠĠĠĠĠ":1172,"Ġgener":1173,"Ġcre":1174,"ized":1175,"000":1176,"Ġthree":1177,"Ġsystem":1178,"Ġext":1179,"ets":1180,"ĠUniversity":1181,"ants":1182,"('":1183,"Ġown":1184,"Ġtype":1185,"Ġbefore":1186,"usic":1187,"Ġmed":1188,"ww":1189,"ina":1190,"Ġlong":1191,"iver":1192,"Ġmin":1193,"ĠCon":1194,"aking":1195,"Ġhref":1196,"tain":1197,"ĠAd":1198,"ĠLe":1199,"ful":1200,"by":1201,"ĠIs":1202,"Ġhigh":1203,"view":1204,"Ġlead":1205,"of":1206,"))":1207,"Ġnow":1208,"Ã©":1209,"Ġeff":1210,"Ġest":1211,"ĠFor":1212,"ired":1213,"Ġwhile":1214,"Ġneed":1215,"Ġsecond":1216,"Ġdid":1217,"}\\":1218,"ple":1219,"ript":1220,"Ġgu":1221,"ĠUnited":1222,"50":1223,"Ġdiffer":1224,"Ġmon":1225,"ting":1226,"ĠSp":1227,"Com":1228,"ĠWe":1229,"Ġi":1230,"__":1231,"ology":1232,"Ġpar":1233,"ĠBl":1234,"Ġrele":1235,"Ġstr":1236,"Ġsee":1237,"velop":1238,"}$":1239,"RE":1240,"ined":1241,"ohn":1242,"abel":1243,"Ġnumber":1244,"Name":1245,"Ġvalue":1246,"ley":1247,"Ġright":1248,"ĠEx":1249,"source":1250,"ache":1251,"gram":1252,"Ġexp":1253,"ĠShe":1254,"ĠPh":1255,"ĠAs":1256,"ĠAnd":1257,"Ġdr":1258,"ober":1259,"ST":1260,"trans":1261,"name":1262,"Ġdec":1263,"Ġdevelop":1264,"Ġmov":1265,"Ġpoint":1266,"plic":1267,"message":1268,"Ġsim":1269,"ience":1270,"AT":1271,"It":1272,"yle":1273,"Ġbr":1274,"enn":1275,"Type":1276,"Ġboth":1277,"Ġoper":1278,"ody":1279,"td":1280,"lation":1281,"uff":1282,"ument":1283,"af":1284,"Ġevery":1285,"Ġwrit":1286,"ural":1287,"ross":1288,"24":1289,"une":1290,"cept":1291,"ĠComm":1292,"Ġshould":1293,"istory":1294,"ived":1295,"ional":1296,"Ġmake":1297,"Con":1298,"ared":1299,"omen":1300,"ĠEng":1301,"ott":1302,"itle":1303,"ister":1304,"import":1305,"Ġrun":1306,"Ġbel":1307,"Ġsame":1308,"ole":1309,"Ġdirect":1310,"Ġsing":1311,"ĠPl":1312,"ask":1313,"Ġfin":1314,"ĠMay":1315,"duct":1316,"Id":1317,"Ġsupport":1318,"Ġbecause":1319,"Ġhel":1320,"194":1321,"Ġeven":1322,"self":1323,"Ġlist":1324,"Ar":1325,"ersion":1326,"br":1327,"alse":1328,"Ġeach":1329,"param":1330,"âĢľ":1331,"Ġknow":1332,"ually":1333,"Cont":1334,"chn":1335,"inks":1336,"ital":1337,"Ġread":1338,"Ġself":1339,"String":1340,"formation":1341,"ounc":1342,"Cl":1343,"alth":1344,"Ġagainst":1345,"Ġrep":1346,"Ġlast":1347,"ane":1348,"uro":1349,"Ġpop":1350,"abl":1351,"Ġworld":1352,"ault":1353,"Ġcar":1354,"2019":1355,"AR":1356,"ically":1357,"add":1358,"Ġcap":1359,"esc":1360,"iness":1361,"htt":1362,"til":1363,"rict":1364,".âĢĿ":1365,"ĠâĢĶ":1366,"2018":1367,"Ġrecord":1368,"Ġvery":1369,"Ġfilm":1370,"ctions":1371,"ĠOn":1372,"org":1373,"ces":1374,"ootball":1375,"ta":1376,"yn":1377,"ception":1378,"Ġbuild":1379,"yp":1380,"Ġ=>":1381,"Ġdown":1382,"Ġstate":1383,"Ġincluding":1384,"egin":1385,"ote":1386,"arm":1387,"return":1388,"Ġway":1389,"work":1390,"23":1391,"back":1392,"ĠRe":1393,"ĠPr":1394,"Ġschool":1395,"rol":1396,"Ġperform":1397,"Res":1398,"ĠBr":1399,"Ġlook":1400,"ek":1401,"gy":1402,"ivate":1403,"Ġter":1404,"ĠOr":1405,"Ġsl":1406,"OR":1407,"Ġdisc":1408,"ains":1409,"Ġhand":1410,"(\\":1411,"ai":1412,"alk":1413,"Ġtest":1414,"Ġdoes":1415,"Ġgame":1416,"Ġmain":1417,"ission":1418,"},":1419,"ense":1420,"Ġappe":1421,"ĠStates":1422,"ĠJohn":1423,"Ġfour":1424,"ths":1425,"/>":1426,"ream":1427,"Ġapp":1428,"bl":1429,"Ġseason":1430,"ograph":1431,"Ġplayers":1432,"Ġchild":1433,"str":1434,"class":1435,"Ġlife":1436,"ĠCount":1437,"List":1438,"Ġopen":1439,"rop":1440,"ird":1441,"nment":1442,"ght":1443,"Ġcommun":1444,"dd":1445,"Ġthose":1446,"Ġexper":1447,"iev":1448,"Âł":1449,"ats":1450,"Ġdesc":1451,"):":1452,"iven":1453,"Ġcase":1454,"ven":1455,".,":1456,"Ġcontin":1457,"ĠCar":1458,"Ġcare":1459,"Ġpass":1460,"def":1461,"Ġ!":1462,"mp":1463,"Tr":1464,"code":1465,"EN":1466,"Ġreport":1467,"Ġhead":1468,"ele":1469,"Ġgover":1470,"ule":1471,"Ġdep":1472,"begin":1473,"uly":1474,"ety":1475,"Ġmuch":1476,"akes":1477,"rem":1478,"ium":1479,"ified":1480,"usiness":1481,"med":1482,"bum":1483,"Ġpartic":1484,"Ġcor":1485,"Ġlater":1486,"Ġann":1487,"Ġimp":1488,"ternational":1489,"uck":1490,"##":1491,"Ġappro":1492,"ency":1493,"ization":1494,"rist":1495,"Ġdifferent":1496,"ality":1497,"ĠWorld":1498,"reen":1499,"erman":1500,"Ġdesign":1501,"195":1502,"Ġval":1503,"ially":1504,"my":1505,"ior":1506,"Ġche":1507,"Ġlinks":1508,"fo":1509,"Ġbook":1510,"Ġav":1511,"ĠAss":1512,"urch":1513,"ĠYou":1514,"ague":1515,"\"/>":1516,"ped":1517,"ĠCan":1518,"2017":1519,"oard":1520,"que":1521,"Ġfinal":1522,"ness":1523,"On":1524,"ĠJan":1525,"bs":1526,"Ġgood":1527,"ĠCent":1528,"2016":1529,"ger":1530,"co":1531,"Ġknown":1532,"arent":1533,"Ġrece":1534,"Ġgroup":1535,"amb":1536,"val":1537,"type":1538,"26":1539,"Ġperson":1540,"ĠNational":1541,"Ġ_":1542,"Ġaround":1543,"AL":1544,"Ġwin":1545,"\".":1546,"ulation":1547,"ample":1548,"cal":1549,"Ġsince":1550,"por":1551,"Ġorig":1552,"ĠAll":1553,"28":1554,"ĠAust":1555,"ĠUS":1556,"Ġmet":1557,"Ġpres":1558,"Ġfind":1559,"Ġstill":1560,"Ġcr":1561,"uthor":1562,"ĠX":1563,"ID":1564,"ĠGr":1565,"Ġusing":1566,"Ġseries":1567,"side":1568,"embers":1569,"ians":1570,"ĠRes":1571,"27":1572,"itions":1573,"uccess":1574,"ĠNov":1575,"Ġprogram":1576,"ĠHow":1577,"Ġfamily":1578,"oss":1579,"Ġgl":1580,"ĠYork":1581,"External":1582,"Ġ>":1583,"Ġsol":1584,"ĠWar":1585,"translation":1586,"Ġcurrent":1587,"umm":1588,"Ġtop":1589,"Ġbro":1590,"Ġcour":1591,"Ġdon":1592,"iam":1593,"2015":1594,"ised":1595,"mod":1596,"Ġmark":1597,"for":1598,"Ġvoid":1599,"aining":1600,"aving":1601,"_{\\":1602,"ler":1603,"Ġday":1604,"100":1605,"Ġwant":1606,"left":1607,"Ġtrue":1608,"Ġvis":1609,"2014":1610,"Ġequ":1611,"aces":1612,"ĠThey":1613,"Ġhere":1614,"Ġprof":1615,"ĠMan":1616,"Ġmusic":1617,"AS":1618,"Ġplace":1619,"Ġpolit":1620,"ush":1621,"ases":1622,"Ġfr":1623,"ify":1624,"Ġ==":1625,"ser":1626,"lex":1627,"arget":1628,"Ġfollowing":1629,"loc":1630,"ĠSchool":1631,"Ġfact":1632,"Ġimport":1633,"Ġpost":1634,"be":1635,"lear":1636,"Ġprocess":1637,"Ġorgan":1638,"ĠAug":1639,"play":1640,"ows":1641,")$":1642,"Ġnull":1643,"roll":1644,"irc":1645,"LE":1646,"ided":1647,"AN":1648,"reg":1649,"perty":1650,"Ġsmall":1651,"Ġcharact":1652,"Ġtake":1653,"cur":1654,"ides":1655,"29":1656,"uild":1657,"ĠOct":1658,"illion":1659,"Ġoffic":1660,"Ġelect":1661,"umn":1662,"Ġlaw":1663,"Ġevent":1664,"}{":1665,"Ġalbum":1666,"uary":1667,"ots":1668,"ourn":1669,"Ġsom":1670,"arn":1671,"ajor":1672,"Ġfield":1673,"Un":1674,"40":1675,"Ġsever":1676,"ene":1677,"Ġthink":1678,"This":1679,"ĠAt":1680,"inc":1681,"aster":1682,"Ġcalled":1683,"ĠBe":1684,"Ġbre":1685,"ĠPar":1686,"ength":1687,"bar":1688,"ends":1689,"pre":1690,"Ġelse":1691,"wards":1692,"ĠBrit":1693,"Ġuntil":1694,"Ġorder":1695,"Ġfootball":1696,"ĠApr":1697,"ponse":1698,"var":1699,"duction":1700,"An":1701,"Ġ)":1702,"Ġinformation":1703,"yl":1704,"ĠCounty":1705,"Ġpat":1706,"ration":1707,"To":1708,"ĠMarch":1709,"2013":1710,"2010":1711,"ĠPol":1712,"ope":1713,"ĠSouth":1714,"idth":1715,"Ġlocal":1716,"Ġpower":1717,"Ġbest":1718,"oman":1719,"idd":1720,"Ġstat":1721,"Ġref":1722,"Ġpresent":1723,"Ġsong":1724,"Ġmar":1725,"ĠJuly":1726,"Ġdel":1727,"We":1728,"ĠBut":1729,"ptember":1730,"vious":1731,"Ġ--":1732,"2012":1733,"Ġhome":1734,"Wh":1735,"193":1736,"ĠJune":1737,"angu":1738,"Ġnon":1739,"Ġestabl":1740,"opt":1741,"Ġdet":1742,"ports":1743,"umb":1744,"Ġeffect":1745,"Ġstand":1746,"eta":1747,"ribut":1748,",âĢĿ":1749,"hes":1750,"ava":1751,"Ġadv":1752,"error":1753,"ĠTe":1754,"Ġleft":1755,"ained":1756,"Ġold":1757,"Ġrest":1758,"ĠEuro":1759,"ival":1760,"Ġarea":1761,"amed":1762,"Ġke":1763,"less":1764,"arge":1765,"Ġdeath":1766,"2011":1767,"ĠIf":1768,"Ġleg":1769,"Ġprot":1770,"\")":1771,"face":1772,"olv":1773,"label":1774,"here":1775,"ales":1776,"ĠFl":1777,"As":1778,"Ġmethod":1779,"Ġbecame":1780,"ried":1781,"ĠAm":1782,"raw":1783,"ended":1784,"Ġiss":1785,"Ġhelp":1786,"ately":1787,"ively":1788,"cont":1789,"etwork":1790,"ison":1791,"\"><":1792,"Ġincre":1793,"ĠMin":1794,"ĠâĢĺ":1795,"Ġfalse":1796,"gr":1797,"He":1798,"Ġprom":1799,"ung":1800,"ference":1801,"Ġnear":1802,"Ġlevel":1803,"By":1804,"ries":1805,"Ġbased":1806,"âĢ¦":1807,"Ġposs":1808,"âĢĶ":1809,"ump":1810,"Ġx":1811,"ĠGu":1812,"duced":1813,"Ġnext":1814,"ĠCo":1815,"Ġanother":1816,"itor":1817,"Ġexpl":1818,"Ġ`":1819,"ĠGe":1820,"IT":1821,"ocial":1822,"rm":1823,"ering":1824,"ony":1825,"ror":1826,"Ġsay":1827,"ĠAugust":1828,"ords":1829,"Ġbir":1830,"ĠState":1831,"Ġmanag":1832,"ĠAp":1833,"new":1834,"ney":1835,"field":1836,"me":1837,"Ġmat":1838,"ĠApril":1839,"Ġgreat":1840,"ected":1841,"ervice":1842,"aim":1843,"ĠCity":1844,"lege":1845,"Col":1846,"ĠSeptember":1847,"Ġdem":1848,"Ġconsider":1849,"ling":1850,"uman":1851,"Ġreal":1852,"head":1853,"mber":1854,"frac":1855,"Ġprivate":1856,"ilt":1857,"Ġproject":1858,"Ġeng":1859,"ored":1860,"ought":1861,"Al":1862,"ĠEd":1863,"istor":1864,"ĠĠĠĠĠĠĠĠĠĠĠĠĠĠĠĠĠĠĠĠĠĠĠ":1865,"acy":1866,"Ġtechn":1867,"ĠOctober":1868,"leg":1869,"ĠCal":1870,"ĠJanuary":1871,"Ġcity":1872,"AC":1873,"Ġalong":1874,"Ġcompany":1875,"Ġwon":1876,"urs":1877,"ploy":1878,"Ġsk":1879,"ground":1880,"********":1881,"ording":1882,"Ġgovernment":1883,"Ġwithin":1884,"ideo":1885,"Sh":1886,"Ġland":1887,"Ġinc":1888,"ape":1889,"Ġocc":1890,"ĠĠĠĠĠĠĠĠĠĠĠĠĠ":1891,"eq":1892,"not":1893,"epend":1894,"----------------":1895,"uk":1896,"ĠNorth":1897,"Ġwomen":1898,"cember":1899,"ilit":1900,"Ġtitle":1901,"Ġid":1902,"bject":1903,"ĠMed":1904,"ĠFeb":1905,"ently":1906,"Ġbusiness":1907,"aint":1908,"gin":1909,"ered":1910,"ĠGerman":1911,"off":1912,"Ġseveral":1913,"Ġgiven":1914,"string":1915,"ĠAustral":1916,"Ġret":1917,"ĠWill":1918,"Ġspe":1919,"Ġfew":1920,"Ġsuccess":1921,"Ġmust":1922,"sub":1923,"\");":1924,"data":1925,"ES":1926,"ament":1927,"Ġearly":1928,"ĠReg":1929,"32":1930,"Ġexpect":1931,"iter":1932,"ways":1933,"ued":1934,"ĠEurope":1935,"vers":1936,"apt":1937,"Ġformer":1938,"lish":1939,"ĠNo":1940,"oun":1941,"ĠChrist":1942,"ories":1943,"Ġdescrib":1944,"2009":1945,"Ġobject":1946,"requ":1947,"iron":1948,"Data":1949,"time":1950,"date":1951,"Value":1952,"search":1953,"hern":1954,"ĠRep":1955,"Ġwithout":1956,"ches":1957,"ems":1958,"icle":1959,"ocument":1960,"ampions":1961,"Ġmembers":1962,"60":1963,"ae":1964,"Ġstring":1965,"Ġturn":1966,"unc":1967,"ĠNovember":1968,"Ġkey":1969,"ĠMc":1970,"raft":1971,"ittle":1972,"ĠAf":1973,"used":1974,"value":1975,"ailable":1976,"ĠAir":1977,"comm":1978,"For":1979,"Ġpubl":1980,"itional":1981,"conom":1982,"ĠHar":1983,"ruary":1984,"ĠAb":1985,"wit":1986,"Ġopt":1987,"2008":1988,"load":1989,"Ġview":1990,"Ġz":1991,"urther":1992,"Ġmajor":1993,"Ġinterest":1994,"Ġbeh":1995,"ĠBar":1996,"));":1997,"Ġinvest":1998,"ĠDecember":1999,"ada":2000,"aced":2001,"Ind":2002,"ances":2003,"ability":2004,"Ġaut":2005,"Ġpo":2006,"Ġ,":2007,"Ġinit":2008,"Sc":2009,"ĠPart":2010,"roid":2011,"ination":2012,"ham":2013,"ateg":2014,"stit":2015,"Ġchang":2016,"nb":2017,"http":2018,"ĠThere":2019,"Ġsays":2020,"Ġla":2021,"ured":2022,"lev":2023,"Ġservice":2024,"iod":2025,"ana":2026,"Ġsingle":2027,"Ġplayed":2028,"ription":2029,"ential":2030,"IC":2031,"Ġweek":2032,"80":2033,"Ġcompet":2034,"ones":2035,"Ġshort":2036,"ention":2037,"Ġtem":2038,"Ġmult":2039,"Ġrepresent":2040,"action":2041,"ĠĠĠĠĠĠ":2042,"ris":2043,"Ġstruct":2044,"order":2045,"alf":2046,"rew":2047,"////":2048,"Ġreleased":2049,"Ġallow":2050,"Ġdev":2051,"ustom":2052,"Ġinclude":2053,"ware":2054,"ards":2055,"AM":2056,"EC":2057,"aut":2058,"anguage":2059,"go":2060,"Se":2061,"apan":2062,"aff":2063,"Ġgrow":2064,"Ġwar":2065,"osp":2066,"wh":2067,"Ġgoing":2068,"Ġarg":2069,"ari":2070,"ĠKing":2071,"Ġtoo":2072,"Ġcamp":2073,"Ġchildren":2074,"but":2075,"$.":2076,"Set":2077,"})":2078,"Ġ/**":2079,"Ġlarge":2080,"ĠSup":2081,"cite":2082,"Er":2083,"Ġmodel":2084,"ights":2085,"Ġstory":2086,"2007":2087,"vert":2088,"ĠII":2089,"ources":2090,"www":2091,"ĠFebruary":2092,"ĠDr":2093,"ĠÂ":2094,"Ġident":2095,"bf":2096,"Ġtook":2097,"|-":2098,"Ġwater":2099,"iet":2100,"========":2101,"Ġmen":2102,"ED":2103,"ster":2104,"color":2105,"ilar":2106,"ĠEl":2107,"ours":2108,"Ġins":2109,"ze":2110,"umer":2111,"Ġactiv":2112,"px":2113,"da":2114,"Ġdue":2115,"nbsp":2116,"ĠBritish":2117,"ĠWest":2118,"reet":2119,"Ġaff":2120,"ummary":2121,"ĠTo":2122,"Ġfull":2123,"33":2124,"$,":2125,"opy":2126,"Ġanal":2127,"ift":2128,"Ġhtt":2129,"ino":2130,"Ġnever":2131,"Ġreally":2132,"ography":2133,"ĠĠĠĠĠĠĠĠĠĠĠĠĠĠĠĠĠĠĠĠĠĠĠĠĠĠĠĠĠĠĠĠ":2134,"ably":2135,"artment":2136,"ification":2137,"];":2138,"ĠHer":2139,"Ġtry":2140,"itive":2141,"ald":2142,"ression":2143,"agn":2144,"Ġhistory":2145,"stand":2146,"Ġcond":2147,"ondon":2148,"($":2149,"Ġet":2150,"ogle":2151,"Ġfore":2152,"ending":2153,"rite":2154,"Ġput":2155,"Ġlim":2156,"Ġcountry":2157,"aul":2158,"inter":2159,"Ġjo":2160,"empt":2161,"log":2162,"ĠEn":2163,"Ġport":2164,"obal":2165,"urg":2166,"ced":2167,"icy":2168,"Exception":2169,"ĠPres":2170,"Ġproble":2171,"Ph":2172,"Ġhouse":2173,"lected":2174,"Ġhapp":2175,"Ġresp":2176,"ike":2177,"Ġband":2178,"cast":2179,"aps":2180,"64":2181,"Ġtown":2182,"Ġ&&":2183,"ertain":2184,"2006":2185,"Ġair":2186,"Ġstyle":2187,"Ġconf":2188,"Ġside":2189,"born":2190,"adem":2191,"ĠAfter":2192,"gest":2193,"ille":2194,"Ġgames":2195,"Ġcharacter":2196,"iles":2197,"Ġcontrol":2198,"ĠHowever":2199,"eder":2200,"ret":2201,"ĠRuss":2202,"Ġavailable":2203,"ait":2204,"ĠHis":2205,"ief":2206,"ĠArt":2207,"Ġless":2208,"Get":2209,"Ġstatic":2210,"Ġlet":2211,"ĠLeague":2212,"equation":2213,"Ġtot":2214,"Ġbig":2215,"Ġmember":2216,"pha":2217,",\"":2218,"ivid":2219,"oph":2220,"rench":2221,"viron":2222,"ĠAg":2223,"Pl":2224,"uf":2225,"ET":2226,"ibr":2227,"Ġauthor":2228,"}.":2229,"ese":2230,"Ġrad":2231,"Ġep":2232,"ators":2233,"Ġ///":2234,"Ġvari":2235,"Ġheld":2236,"olution":2237,"Ġfive":2238,"Ġcomplet":2239,"ume":2240,"],":2241,"Ġcrit":2242,"CO":2243,"Ġcell":2244,"')":2245,"IS":2246,"ising":2247,"Ġsit":2248,"Re":2249,"Ġca":2250,"ampionship":2251,"isc":2252,"ails":2253,"Ġfri":2254,"posed":2255,"Ġversion":2256,"test":2257,"Ġbo":2258,"de":2259,"Ġelement":2260,"idge":2261,"Ġcareer":2262,"Not":2263,"ĠDav":2264,"const":2265,"Ġtyp":2266,"ither":2267,"ĠGl":2268,"Ġaccess":2269,"sk":2270,"Ġclos":2271,"ĠAfric":2272,"Ġlarg":2273,"location":2274,"Ġsize":2275,"US":2276,"Ġtri":2277,"Ġchange":2278,"AP":2279,"ĠHouse":2280,"ĠMe":2281,"....":2282,"file":2283,"ĠChe":2284,"rest":2285,"ĠString":2286,"See":2287,"190":2288,"oon":2289,"thing":2290,"Test":2291,"Ġprofess":2292,"ager":2293,"ops":2294,"Object":2295,"Ġquest":2296,"Ġeduc":2297,"Ġfac":2298,"ĠSer":2299,"ruction":2300,"RO":2301,"Mod":2302,"bb":2303,"ĠPer":2304,"Ġkill":2305,"90":2306,"ĠLondon":2307,",\\":2308,"Ġproduct":2309,"ouncil":2310,"util":2311,"Ġeas":2312,"script":2313,"atures":2314,"Par":2315,"ĠCor":2316,"aterial":2317,"2000":2318,"View":2319,"Ġtext":2320,"35":2321,"Ġsix":2322,"Ġmillion":2323,"Ġcover":2324,"Im":2325,"Ġcult":2326,"Ġ!=":2327,"Ġide":2328,"Ġexample":2329,"item":2330,"31":2331,"align":2332,"ington":2333,"LL":2334,"ĠOff":2335,"Ġ%":2336,"dom":2337,"na":2338,"ĠAc":2339,"Ġbegan":2340,"rug":2341,"Ġstudy":2342,"Ġdi":2343,"size":2344,"ething":2345,"ĠJapan":2346,"aper":2347,"().":2348,"Ġyoung":2349,"oney":2350,"Ġfree":2351,"Ġprevious":2352,"Ġthird":2353,"rc":2354,"ĠEnglish":2355,"ique":2356,"list":2357,"uture":2358,"ĠChar":2359,"Ap":2360,"Ġvol":2361,"ĠRec":2362,"Ġtimes":2363,"though":2364,"New":2365,"Ã¡":2366,"rown":2367,"Ġimportant":2368,"ama":2369,"ociation":2370,"Ġage":2371,"45":2372,"Ġnational":2373,"Ġarr":2374,"ĠSch":2375,"iol":2376,"Ġdays":2377,"Ġant":2378,"Ġbas":2379,"Ġcommunity":2380,"ĠComp":2381,"ĠCont":2382,"ients":2383,"ĠRev":2384,"ready":2385,"Ġperiod":2386,"ĠPark":2387,"ford":2388,"Ġtrack":2389,"Ġgot":2390,"Ġoften":2391,"Ġfile":2392,"eople":2393,"Ġposition":2394,"ĠQu":2395,"Ġhaving":2396,"All":2397,"mathcal":2398,"}(":2399,"Ġreceived":2400,"ĠHigh":2401,"Ġnamed":2402,"ummer":2403,"Ġbetter":2404,"Americ":2405,"irl":2406,"Ġclaim":2407,"Ġhealth":2408,"ĠBy":2409,"alt":2410,"Ġfilms":2411,"ĠDist":2412,"Ġcontent":2413,"].":2414,"Ġenc":2415,"Ġtarget":2416,"imate":2417,"Ġresults":2418,"Ġclub":2419,"Ġspecial":2420,"Ġhard":2421,"Ġamong":2422,"());":2423,"Ġrequest":2424,"atus":2425,"Ġcome":2426,"ules":2427,"serv":2428,"ĠWith":2429,"2005":2430,"ĠIm":2431,"iment":2432,"irt":2433,"Ġcame":2434,"sw":2435,"aken":2436,"top":2437,"ribute":2438,"Ġbecome":2439,"abor":2440,"ION":2441,"Man":2442,"oice":2443,"ves":2444,"Ġrole":2445,"Ġorg":2446,"Ġdiv":2447,"vironment":2448,"box":2449,"function":2450,"ĠAct":2451,"ĠBro":2452,"Class":2453,"70":2454,"evel":2455,"ples":2456,"era":2457,"Ġoriginal":2458,"Ġgeneral":2459,"ĠOne":2460,"iction":2461,"ams":2462,"Or":2463,"ĠLa":2464,"ips":2465,"ĠCollege":2466,"Ġbuilding":2467,"odes":2468,"Ġoffer":2469,"ilitary":2470,"Ġattack":2471,"Ġdevelopment":2472,"Ġmight":2473,"Ġgen":2474,"eters":2475,"earch":2476,"includ":2477,"Ġconc":2478,"With":2479,"ocr":2480,"century":2481,"Ġsite":2482,"Ġhold":2483,"Ġphot":2484,"Ġlittle":2485,"Ġtrad":2486,"Ġcost":2487,"And":2488,"ĠAng":2489,"ged":2490,"ĠĠĠĠĊ":2491,"Ġhig":2492,"._":2493,"Ġpract":2494,"Ġrefer":2495,"Ġbirths":2496,"hold":2497,"ension":2498,"Error":2499,"atter":2500,"\";":2501,"link":2502,"ecut":2503,"ners":2504,"Ġbuilt":2505,"Ġhuman":2506,"Ġmeet":2507,"ender":2508,"ournal":2509,"ĠInternational":2510,"Ġkeep":2511,"ĠSw":2512,"Ġbase":2513,"Ġsocial":2514,"Ġparticular":2515,"Ġpay":2516,"uit":2517,"public":2518,"Ġcomb":2519,"Ġleast":2520,"Ġvill":2521,"idence":2522,"attle":2523,"plication":2524,"ailed":2525,"ĠWilliam":2526,"Ġmaking":2527,"iff":2528,"now":2529,"eneral":2530,"Ġfar":2531,"Ġfund":2532,"Ġbeliev":2533,"ĠDep":2534,"Ġaway":2535,"DE":2536,"Ġmean":2537,"uration":2538,"Ġtotal":2539,"pert":2540,"Ġalways":2541,"Ġpopulation":2542,"estern":2543,"cher":2544,"ogn":2545,"ĉĉĉĉĉ":2546,"yd":2547,"Ġindust":2548,"Ġlog":2549,"Ġacross":2550,"Ġrepl":2551,"ran":2552,"Ġbreak":2553,"Ġpublished":2554,"Ġinvolv":2555,"ĠSm":2556,"ĠEm":2557,"js":2558,"}^":2559,"Ġnetwork":2560,"Ġcreate":2561,"American":2562,"Ġsomething":2563,"Ġlocated":2564,"Ġask":2565,"ector":2566,"lin":2567,"pen":2568,"Ġresearch":2569,"2020":2570,"Ġvideo":2571,"ĠMich":2572,"nav":2573,"part":2574,"Ġelection":2575,"Ġhost":2576,"Ġmeas":2577,"ĠPhil":2578,"ĠSo":2579,"Ġtoget":2580,"ĠWhen":2581,"Ġtogether":2582,"roups":2583,"nder":2584,"ux":2585,"Ġmarket":2586,"Ġreview":2587,"path":2588,"index":2589,"ipp":2590,"ociety":2591,".</":2592,"rick":2593,"ands":2594,"comp":2595,"Ġsimilar":2596,"eh":2597,"Ġspace":2598,"Ġworking":2599,"most":2600,"Ġappear":2601,"Ġimpro":2602,"ius":2603,"ett":2604,"dis":2605,"ply":2606,"ological":2607,"['":2608,"elta":2609,"Ġplayer":2610,"ĠThat":2611,"99":2612,"Ġalready":2613,"ĠSystem":2614,"asc":2615,"2004":2616,"Key":2617,"Ġexist":2618,"oor":2619,"Ġlight":2620,"icro":2621,"gress":2622,"Ġthings":2623,"Ġlow":2624,"alpha":2625,"Ġstarted":2626,"Ġestablished":2627,"Ġincluded":2628,"ael":2629,"\":":2630,"ĠAmerica":2631,"Ġpast":2632,"Ġwent":2633,"ĠPresident":2634,"book":2635,"Ġpri":2636,"ached":2637,"Qu":2638,"}_":2639,"Ġpot":2640,"ij":2641,"Ġpath":2642,"rel":2643,"augh":2644,"Is":2645,"Ġcommon":2646,"pace":2647,"ĠFrench":2648,"minist":2649,"ocus":2650,"Ġstrong":2651,"iforn":2652,"summary":2653,"Ġthough":2654,"Ġindivid":2655,"Ġstudents":2656,"url":2657,"omin":2658,"Requ":2659,"Ġsent":2660,"hib":2661,"ills":2662,"Ġeconom":2663,"Ġstation":2664,"Ġbody":2665,"year":2666,"Ġclear":2667,"ackage":2668,"https":2669,"Ġtra":2670,"oe":2671,"unic":2672,"Ġfurther":2673,"Ġ?":2674,"Ġlik":2675,"Ġmiss":2676,"ĠSan":2677,"BC":2678,"bol":2679,"Int":2680,"Ġmatch":2681,"Ġservices":2682,"uel":2683,"Ġarch":2684,"Ġdescribed":2685,"uation":2686,"Ġpoints":2687,"AD":2688,"ession":2689,"Ġrespect":2690,"Ġannounc":2691,"ags":2692,"\"></":2693,"Ġinfl":2694,"ifornia":2695,"Ġlove":2696,"orge":2697,"IG":2698,"lete":2699,"oper":2700,"34":2701,"ara":2702,"ades":2703,"ica":2704,"Ġcentury":2705,"36":2706,"75":2707,"Ġaction":2708,"Ġable":2709,"avel":2710,"');":2711,"Bl":2712,"ayer":2713,"ui":2714,"Ġintro":2715,"oo":2716,"Ġevents":2717,"Ġdest":2718,"ctor":2719,"Ġemploy":2720,"Ġsignific":2721,"igned":2722,"Ġsug":2723,"Ġabove":2724,"~\\":2725,"Ġfeature":2726,"Ġfeel":2727,"At":2728,"UT":2729,"ĠItal":2730,"Ġwind":2731,"Ġmedia":2732,"Ġthrow":2733,"Ġsw":2734,"ĠMon":2735,"aged":2736,"fin":2737,"Ġpossible":2738,"Ġdou":2739,"UR":2740,"istic":2741,"OT":2742,"ĠGo":2743,"erm":2744,"Ġtw":2745,"File":2746,"ude":2747,"Ġcreated":2748,"gl":2749,"Ġplan":2750,"Ġprovide":2751,"urb":2752,"Ġofficial":2753,"Ġhalf":2754,"ids":2755,"Ġdeter":2756,"rec":2757,"width":2758,"ico":2759,"ĠThese":2760,"(),":2761,"ambda":2762,"Ġlive":2763,"TR":2764,"itted":2765,"Ġothers":2766,"ĠNot":2767,"Ġlot":2768,"Ġseen":2769,"omb":2770,"men":2771,"elling":2772,"If":2773,"ysis":2774,"ĠIndia":2775,"ĠStud":2776,"Ġthought":2777,"Ġspecies":2778,"Ġborn":2779,"ĠIndian":2780,"no":2781,"irm":2782,"Time":2783,"38":2784,"Ġprim":2785,"iting":2786,"ĠMy":2787,"Def":2788,"Ġaddress":2789,"Add":2790,"Ġrelations":2791,"à¤":2792,"Ġonce":2793,"ĠVal":2794,"2003":2795,"ivil":2796,"cer":2797,"lang":2798,"iddle":2799,"uments":2800,"oud":2801,"Ġener":2802,"Ġengine":2803,"Ġvarious":2804,"Ġserved":2805,"avy":2806,"Ġworks":2807,"Ġround":2808,"duce":2809,"Ġcal":2810,"Ġwebs":2811,"ormal":2812,"Ġmot":2813,"ĠCup":2814,"reed":2815,"ened":2816,"En":2817,"Ġpolitical":2818,"ements":2819,"ING":2820,"ĠRepublic":2821,"Event":2822,"Ġtreat":2823,"Ġuser":2824,"Ġrange":2825,"=\"../../":2826,"SS":2827,"Ġproduction":2828,"ĠCour":2829,"Ġassert":2830,"hel":2831,"ĠCalifornia":2832,"Ġaccount":2833,"ibility":2834,"bor":2835,"Ġtelev":2836,"useum":2837,"down":2838,"$\\":2839,"nect":2840,"Ġsound":2841,"sequ":2842,"aves":2843,"Ġalign":2844,"Ġcoll":2845,"Ġmass":2846,"Ġlate":2847,"icon":2848,"']":2849,"aign":2850,"ĠSec":2851,"But":2852,"Ġstep":2853,"Ġmem":2854,"ĠNews":2855,"Ġson":2856,"Ġphys":2857,"Ġgive":2858,"Ġparent":2859,"anies":2860,"Ġnight":2861,"lands":2862,"ĠDistrict":2863,"iple":2864,"Form":2865,"Ġwritten":2866,"array":2867,"Text":2868,"!--":2869,"ĠList":2870,"inn":2871,"table":2872,"unk":2873,"mon":2874,"Over":2875,"Ġred":2876,"itte":2877,"Ġassoci":2878,"amma":2879,"see":2880,"Ġshows":2881,"Ġra":2882,"aker":2883,"Ã³":2884,"Ġsuper":2885,"sy":2886,"ĠAustralia":2887,"Ġmeans":2888,"ixed":2889,"Ġhistor":2890,"ĠMark":2891,"Ġpress":2892,"annel":2893,"Ġ);":2894,"anch":2895,"lim":2896,"ĠDem":2897,"Ġled":2898,"37":2899,"ched":2900,"Ġcheck":2901,"Ġnov":2902,"unity":2903,"Ġfuture":2904,"Ġtre":2905,"Fl":2906,"lymp":2907,"isk":2908,"ĠChampionship":2909,"Ġsource":2910,"ĠEast":2911,"Ġeither":2912,"01":2913,"body":2914,"mat":2915,"2001":2916,"Ġdocument":2917,"55":2918,"ishing":2919,"ĠDon":2920,"Ġparam":2921,"39":2922,"Ġperformance":2923,"ĠEngland":2924,"Ġdiscuss":2925,"ĠRed":2926,"state":2927,"ha":2928,"position":2929,"Ġ/>":2930,"iding":2931,"ĠSen":2932,"Ġcustom":2933,"Ġjob":2934,"ection":2935,"Ġtelevision":2936,"clus":2937,"ĠPat":2938,"aur":2939,"Ġprob":2940,"oyal":2941,"Ġdied":2942,"2002":2943,"44":2944,"ĠNe":2945,"Ġerr":2946,"Ġregion":2947,"ribution":2948,"Ġmaterial":2949,"Element":2950,"met":2951,"cle":2952,"Ġcourse":2953,"IM":2954,"Ġresponse":2955,"Ġbegin":2956,"atural":2957,"eff":2958,"md":2959,"point":2960,"Ġblack":2961,"ables":2962,"ĠPort":2963,"State":2964,"rote":2965,"bt":2966,"Ġsym":2967,"ship":2968,"asing":2969,"Ġcompos":2970,"section":2971,"Ġerror":2972,"mu":2973,"Ġannounced":2974,"Info":2975,"Ġfem":2976,"Ġrequire":2977,"unch":2978,"ibrary":2979,"Ġfather":2980,"inary":2981,"From":2982,"Ġsignificant":2983,"sl":2984,"oat":2985,"ĠInt":2986,"Ġdone":2987,"Ġhowever":2988,"Ġsett":2989,"Ġbi":2990,"Ġcou":2991,"oke":2992,"group":2993,"ander":2994,"ĠLaw":2995,"perties":2996,"Ġbar":2997,"ĠĠĊ":2998,"ĠCouncil":2999,"Fil":3000,"Ġtoday":3001,"ĠDes":3002,"Ġinternational":3003,"Ġsold":3004,"Ġexperience":3005,"Ġnorth":3006,"verage":3007,"iber":3008,"ĠStreet":3009,"ependent":3010,"Ġwhy":3011,"=\"+":3012,"Ġsuggest":3013,"length":3014,"Ġenough":3015,"ĠGover":3016,"ĠAnt":3017,"Path":3018,"oken":3019,"ĠCenter":3020,"quot":3021,"ĠDo":3022,"ocal":3023,"Ġkind":3024,"Ġobserv":3025,"ĠDavid":3026,"with":3027,"Ġben":3028,"Ġcomput":3029,"ilities":3030,"resp":3031,"nection":3032,"alls":3033,"Ġcreat":3034,"stance":3035,"ĠRiver":3036,"Ġstop":3037,"189":3038,")\\":3039,"Ġnews":3040,"65":3041,"Ġpresident":3042,"igation":3043,"Ad":3044,"Ġparticip":3045,"48":3046,"Ġaud":3047,"Ġexc":3048,"Request":3049,"Ġanim":3050,"Ġmonths":3051,"icles":3052,"Ġes":3053,"ĠUK":3054,"rix":3055,"Ġroad":3056,"Ġcertain":3057,"ĠPal":3058,"ĠTrans":3059,"Ġblock":3060,"Ġindic":3061,"Field":3062,"Ġgroups":3063,"user":3064,"sec":3065,"from":3066,"olean":3067,"Ġenergy":3068,"lease":3069,"Ġepis":3070,"You":3071,"There":3072,"Equ":3073,"Ġmer":3074,"Ġparty":3075,"FF":3076,"Ġproperty":3077,"Ġclose":3078,"/**":3079,"188":3080,"Node":3081,"ride":3082,"Ġrelease":3083,"ores":3084,"ires":3085,"ĠJames":3086,"Ġtaken":3087,"=\\":3088,"ÃŃ":3089,"Ġattempt":3090,"ĠCanada":3091,"ites":3092,"Ġterm":3093,"ĠBer":3094,"ges":3095,"iation":3096,"Ġ()":3097,"Ġorigin":3098,"quad":3099,"CH":3100,"OS":3101,"Ġhttp":3102,"}^{":3103,"pm":3104,"Ġcode":3105,"Ġdeal":3106,"Ġpage":3107,"aring":3108,"using":3109,"utes":3110,"Ġmom":3111,"board":3112,"Ã¼":3113,"ĠMal":3114,"Ġgrad":3115,"/*":3116,"Ġground":3117,"ĠDiv":3118,"05":3119,"Ġfront":3120,"ago":3121,"ĠMor":3122,"ĠPaul":3123,"ĠTV":3124,"Ġreported":3125,"Ġfire":3126,"ĠEuropean":3127,"unt":3128,"ville":3129,"Ġrequired":3130,"ceed":3131,"nown":3132,"igma":3133,"Ġwebsite":3134,"Ġfeatures":3135,"where":3136,"acing":3137,"api":3138,"Ġdidn":3139,"Ġmakes":3140,"ĠHol":3141,"ero":3142,"ayout":3143,"Ġcirc":3144,"ĠParty":3145,"Ġmoved":3146,"config":3147,"Ġsouth":3148,"'re":3149,"hat":3150,"Ġmove":3151,"Ġaward":3152,"void":3153,"wood":3154,"rup":3155,"ĠBel":3156,"ĠRober":3157,"ĠChina":3158,"())":3159,"sm":3160,"Ġfav":3161,"atal":3162,"De":3163,"Index":3164,"Ġinf":3165,"itect":3166,"Ġmax":3167,"atform":3168,"ellow":3169,"ĠBlack":3170,"raz":3171,"nes":3172,"Ġareas":3173,"arter":3174,"Ġinteg":3175,"Ġunderstand":3176,"ises":3177,"Ġsuff":3178,"After":3179,"Fr":3180,"Ġprovided":3181,"ecess":3182,"Ġpopular":3183,"Ġaddition":3184,"atory":3185,"Ġpur":3186,"ĠInstit":3187,"CC":3188,"Ġadded":3189,"Ġsaf":3190,"Ġabs":3191,"ya":3192,"':":3193,"aries":3194,"};":3195,"66":3196,"ĠThom":3197,"Ġ\\\\":3198,"Trans":3199,"bit":3200,"Ġsat":3201,"Ġvalues":3202,"Ġrespons":3203,"Ġlanguage":3204,"iers":3205,"ensive":3206,"ĠChurch":3207,"ponent":3208,"Ġwrote":3209,"unn":3210,"Ġwhether":3211,"Ġmoney":3212,"}_{":3213,"medi":3214,"ottom":3215,"ĠFirst":3216,"Ġtable":3217,"ashington":3218,"roy":3219,"Pr":3220,"Context":3221,"Map":3222,"Ġlost":3223,"Ġvia":3224,"Ġbit":3225,"ging":3226,"Build":3227,"ĠGeneral":3228,"oul":3229,"Ġproblem":3230,"Ġworked":3231,"ĠGroup":3232,"init":3233,"amespace":3234,"ida":3235,"IL":3236,"Ġentire":3237,"Config":3238,"07":3239,"ivity":3240,".)":3241,"``":3242,"ĠFrance":3243,"ĠSim":3244,"Ġviol":3245,"ĠMr":3246,"Ġvict":3247,"Ġdiff":3248,"adian":3249,"Ġbroad":3250,"ĠFil":3251,"Ġvillage":3252,"anks":3253,"eturn":3254,"ĠÃ":3255,"ĠInter":3256,"Ġroom":3257,"2021":3258,"ĠGet":3259,"UN":3260,"Result":3261,"ittee":3262,"Ġcompanies":3263,"Ġyet":3264,"1999":3265,"ĠRich":3266,"Ġsepar":3267,"Ġfight":3268,"Ġconsidered":3269,"Ġhon":3270,"1990":3271,"pi":3272,"Ġconfig":3273,"abled":3274,"chiev":3275,"Ġill":3276,"tes":3277,"Ġobtain":3278,"Ġsubject":3279,"Ġcy":3280,"Ġarray":3281,"ĠĠĠĠĠĠĠĠĠĠĠĠĠĠĠĠĠĠĠĠĠĠĠĠĠĠĠ":3282,"ĠSk":3283,"escription":3284,"HE":3285,"Ġu":3286,"Ġreason":3287,"rad":3288,"Ġtalk":3289,"Ġcross":3290,"ĠÐ":3291,"cy":3292,"Ġmilitary":3293,"Ġsex":3294,"Ġrout":3295,"Ġproduced":3296,"Ass":3297,"light":3298,"Ġdefault":3299,"ĠEar":3300,"ved":3301,"Ġvot":3302,"pose":3303,"Ġdeg":3304,"rian":3305,"Ġdecl":3306,"Ġrecogn":3307,"ĠAward":3308,"Ġcut":3309,"Ġproduc":3310,"ounter":3311,"_\\":3312,"Ġcolor":3313,"Ġthing":3314,"CT":3315,"aching":3316,"prot":3317,"Ġ...":3318,"Ġmag":3319,"eal":3320,"imum":3321,"What":3322,"gen":3323,"Ġcontext":3324,"Ġfood":3325,"Ġrather":3326,"mit":3327,"Ġinj":3328,"Ġdoesn":3329,"How":3330,"based":3331,"ulated":3332,"ccording":3333,"istry":3334,"Ġrev":3335,"Ġ(!":3336,"Ġaccording":3337,"AG":3338,"Ġtell":3339,"Ġtold":3340,"OM":3341,"Ġhom":3342,"Ġtax":3343,"49":3344,"Ġaccept":3345,"word":3346,"coming":3347,"AB":3348,"olic":3349,"Ġlo":3350,"atives":3351,"rip":3352,"No":3353,"mar":3354,"orthern":3355,"ĠDepartment":3356,"ĠMart":3357,"arrow":3358,"Att":3359,"curity":3360,"ĠWhat":3361,"IP":3362,"Ġpercent":3363,"Ġsure":3364,"ĠQue":3365,"ado":3366,"Ġcontract":3367,"true":3368,"Ġenvironment":3369,"Service":3370,"Ġimplement":3371,"Ġrights":3372,"Ġcampaign":3373,"center":3374,"udd":3375,"Ġbelow":3376,"Ġhimself":3377,"Ġder":3378,"Ġmid":3379,"';":3380,"ĠFrom":3381,"ĠDan":3382,"Ġalmost":3383,"People":3384,"ining":3385,"cd":3386,"ĠGeorge":3387,"Ġmale":3388,"Ġmonth":3389,"ns":3390,"Ġinflu":3391,"lor":3392,"Ġeducation":3393,"elt":3394,"Ġ/*":3395,"ho":3396,"ĠDay":3397,"Ġdistrict":3398,"ĠMod":3399,"lt":3400,"agement":3401,"apache":3402,"Ġaverage":3403,"Ġbehind":3404,"ming":3405,"Ġmessage":3406,"Ġstar":3407,"result":3408,"aging":3409,"Ġincludes":3410,"Ġ{\\":3411,"Rec":3412,"Ġimage":3413,"oved":3414,"ĠJust":3415,"Ġsystems":3416,"dt":3417,"Ġ});":3418,"ederal":3419,"itar":3420,"Ġsoft":3421,"Ġsection":3422,"Of":3423,"airs":3424,"ĠOlymp":3425,"version":3426,"ston":3427,"ĠAssociation":3428,"08":3429,"ĠFin":3430,"ught":3431,"Ġreturned":3432,"Ġneg":3433,"Ġexpected":3434,"****************":3435,"outhern":3436,"Ġdirector":3437,"47":3438,"Sp":3439,"Hand":3440,"ospital":3441,"object":3442,"Ġtour":3443,"Ġindustry":3444,"ĠUp":3445,"arr":3446,"Ġsuccessful":3447,"Ġbound":3448,"mathbb":3449,"Ser":3450,"Ġoffice":3451,"oto":3452,"Ġactually":3453,"Ġlearn":3454,"SE":3455,"ala":3456,"ĠCourt":3457,"pecially":3458,"Ġtraining":3459,"LO":3460,"Ġpersonal":3461,"pite":3462,"ota":3463,"title":3464,"asons":3465,"andid":3466,"hood":3467,"Ġterms":3468,"-\\":3469,"Ġquestion":3470,"Ġfig":3471,"Size":3472,"plate":3473,"Ġinput":3474,"Ġpolice":3475,"Ġden":3476,"igital":3477,"Ġens":3478,"Ġmother":3479,"ĠMusic":3480,"ĠJack":3481,"ping":3482,"1998":3483,"[]":3484,"Ġdisplay":3485,"^{\\":3486,"ĠHall":3487,"ĠDi":3488,"ĠFranc":3489,"####":3490,"Ġdate":3491,"ili":3492,"input":3493,"aughter":3494,"Ġpred":3495,"Ġchanges":3496,"Ġchall":3497,"ĠWashington":3498,"Ġplaying":3499,"History":3500,"utions":3501,"map":3502,"Ġliter":3503,"Ġcollection":3504,"Ġoptions":3505,"print":3506,"Ġbackground":3507,"Living":3508,"eck":3509,"Ġ-->":3510,"rael":3511,"vey":3512,"OD":3513,"ĠLou":3514,"ĠCons":3515,"Code":3516,"Ġwhite":3517,"Ġfocus":3518,"04":3519,"Item":3520,"Ġprote":3521,"Inter":3522,"ĠClass":3523,"estival":3524,"ĠRoad":3525,"Ġlink":3526,"mark":3527,"Val":3528,"nor":3529,"II":3530,"ania":3531,"Ġface":3532,"Ġfriend":3533,"ĠArmy":3534,"Ġtaking":3535,"rect":3536,"elves":3537,"chan":3538,"Ġissues":3539,"Ġeffort":3540,"Ġey":3541,"olar":3542,"Up":3543,"09":3544,"ĠMore":3545,"06":3546,"Ġimm":3547,"ĠBook":3548,"ĠSl":3549,"acher":3550,"Ġlower":3551,"ENT":3552,"style":3553,"eed":3554,"ĠArch":3555,"lambda":3556,"Ġpers":3557,"Ġrace":3558,"omet":3559,"ĠGod":3560,"Ġvisit":3561,"Array":3562,"ani":3563,"Ġinstead":3564,"\"\"":3565,"ully":3566,"Ġliving":3567,"ga":3568,"Ġboard":3569,"uz":3570,"Ġloss":3571,"ula":3572,"Ed":3573,"ĠDirect":3574,"SP":3575,"Ġstates":3576,"ĠDef":3577,"Reg":3578,"Ġdebut":3579,"++":3580,"Ġstage":3581,"call":3582,"berg":3583,"Ġfall":3584,"Ġupon":3585,"Ġinstance":3586,"500":3587,"Ġ},":3588,"Ġstre":3589,"Ġdam":3590,"Ġteams":3591,"Ġhigher":3592,"icult":3593,"aches":3594,"Ġachiev":3595,"phi":3596,"Message":3597,"uses":3598,"Out":3599,"respond":3600,"ancial":3601,"Ġamount":3602,"anced":3603,"ĠPress":3604,"izing":3605,"Ġbring":3606,"ĠGermany":3607,"etic":3608,"ĠGreen":3609,"rain":3610,"Ġdeveloped":3611,"evelop":3612,"amples":3613,"assert":3614,"////////":3615,"Ġindex":3616,"Ġissue":3617,"ML":3618,"reek":3619,"uffer":3620,"Ġcomplex":3621,"Ġappoint":3622,"Ġshown":3623,"Ġleaders":3624,"rd":3625,"ening":3626,"ouch":3627,"ĠHealth":3628,"embly":3629,"Ġsil":3630,"Ġrelationship":3631,"ĠRoman":3632,"Ġcases":3633,"node":3634,"ĠCong":3635,"Ġcomes":3636,"ria":3637,"Ð°":3638,"\\\\":3639,"Ġrate":3640,"atur":3641,"oz":3642,"ĠPe":3643,"Ġdeaths":3644,"Ġgirl":3645,"Ġmodern":3646,"hing":3647,"Ġten":3648,"Comp":3649,"1996":3650,"Ġspecific":3651,"block":3652,"Ġprofessional":3653,"iences":3654,"change":3655,"Ġsus":3656,"FA":3657,"band":3658,"Ġinstall":3659,"ressed":3660,"inese":3661,"iday":3662,"Ġborder":3663,"ĠMount":3664,"like":3665,"Ġconduct":3666,"1980":3667,"Read":3668,"Ġprint":3669,"istics":3670,"46":3671,"ĠSing":3672,"eps":3673,"count":3674,"Ã¶":3675,"ĠMont":3676,"Ġwhole":3677,"Ġago":3678,"Ġ__":3679,"atab":3680,"ĠMex":3681,"aven":3682,"rey":3683,"ĠCompany":3684,"Ġdom":3685,"ĠMichael":3686,"Ġassociated":3687,"ĠCam":3688,"create":3689,"Ġcast":3690,"ĠCap":3691,"elebr":3692,"amily":3693,"imately":3694,"ĠDemocr":3695,"187":3696,"Ġrock":3697,"Ġhor":3698,"ĠInstitute":3699,"anel":3700,"Ġadminist":3701,"02":3702,"mission":3703,"info":3704,"Ġassist":3705,"ync":3706,"ka":3707,"1997":3708,"ĠTrump":3709,"net":3710,"struct":3711,"Ġcred":3712,"ĠYear":3713,"roller":3714,"ĠUnion":3715,"Count":3716,"Ġtechnology":3717,"rupt":3718,"Ġpolitic":3719,"enced":3720,"Ġestablish":3721,"Ġstructure":3722,"ĠMet":3723,"ĠMary":3724,"Ġcompon":3725,"TE":3726,"Ġpotential":3727,"03":3728,"Ġbrother":3729,"ĠAngel":3730,"Ġseem":3731,"Ġinitial":3732,"Ġconsist":3733,"ĠSam":3734,"ĠLeg":3735,"Ġregular":3736,"Ġsaw":3737,"ĠInc":3738,"Ġbad":3739,"ĠMac":3740,"content":3741,"When":3742,"Ġitself":3743,"plit":3744,"ĠIN":3745,"irtual":3746,"Ġleading":3747,"Ġcenter":3748,"Ġhours":3749,"Ġglobal":3750,"Ġoutside":3751,"Ġcontinue":3752,"iqu":3753,"cret":3754,"Ġcurrently":3755,"ĠWhite":3756,"joy":3757,"ĠAdd":3758,"Ġjava":3759,"hand":3760,"Ġsem":3761,"Ġsongs":3762,"Ġheart":3763,"Ġstandard":3764,"2022":3765,"Ġjud":3766,"Ġreve":3767,"anning":3768,"Ġexecut":3769,"include":3770,"='":3771,"iance":3772,"exas":3773,"ĠRoyal":3774,"ios":3775,"Ġpromot":3776,"Ġpolicy":3777,"Ġdiscover":3778,"och":3779,"plied":3780,"Ġjoined":3781,"Ġregard":3782,"Ġgoal":3783,"=\"../../../../":3784,"Ġbenef":3785,"ĠAlex":3786,"Ġwife":3787,"sup":3788,"lient":3789,"java":3790,"Ġopened":3791,"oom":3792,"icense":3793,"rated":3794,"ĠClub":3795,"Ġcourt":3796,"Ġstaff":3797,"next":3798,"default":3799,"Ġcommand":3800,"Ġcapt":3801,"ĠJew":3802,";&":3803,"Ġwriting":3804,"Ġsearch":3805,"Ġhit":3806,"Ġbooks":3807,"Ġonline":3808,"Ġdefe":3809,"Ġmap":3810,"Ġlikely":3811,"anger":3812,"Log":3813,"ean":3814,"ĠIsland":3815,"IR":3816,"AA":3817,"Ġrecent":3818,"obile":3819,"itting":3820,"Ð¾":3821,"Ġespecially":3822,"Ġlooking":3823,"ĠVir":3824,"Ġdoing":3825,"ĠBest":3826,"ilon":3827,"Ġlength":3828,"Ġinvolved":3829,"Ġquick":3830,"Ġ===":3831,"ĠDis":3832,"ĠNor":3833,"bert":3834,"oring":3835,"ynam":3836,"efore":3837,"ipal":3838,"ĠEv":3839,"Ġpain":3840,"ona":3841,"ĠMiss":3842,"Ġgave":3843,"Ġopport":3844,"han":3845,"Ġtakes":3846,"ken":3847,"'m":3848,"Ġcontinued":3849,"ĠOut":3850,"ication":3851,"Ġrunning":3852,"Ġstatus":3853,"42":3854,"android":3855,"Ġmus":3856,"ailway":3857,"Off":3858,"Ġnovel":3859,"ĠWork":3860,"ĠSociety":3861,"base":3862,"OP":3863,"idents":3864,"writ":3865,"Ġfail":3866,"ategory":3867,"Ġcountries":3868,"Ġcharacters":3869,"fil":3870,"ĠVol":3871,"parent":3872,"ĠTom":3873,"rought":3874,"beta":3875,"nov":3876,"ĠAustralian":3877,"ledge":3878,"ĠGold":3879,"ĠMag":3880,"Ġbox":3881,"Bar":3882,"ĠBen":3883,"refore":3884,"astic":3885,"erve":3886,"aily":3887,"Ġcomment":3888,"Ġhot":3889,"build":3890,"ifier":3891,"ĠPublic":3892,"ii":3893,"lier":3894,"Ġwords":3895,"Ġsrc":3896,"ros":3897,"ĠAfrica":3898,"58":3899,"lying":3900,"Comm":3901,"Ġmanagement":3902,"Ġdraw":3903,"icial":3904,"ech":3905,"Ġwhose":3906,"Ġarticle":3907,"ĠCr":3908,"ĠSome":3909,"ĠAcadem":3910,"aled":3911,"Ġprior":3912,"Ġ(\\":3913,"Manager":3914,"Ġrelated":3915,"Ġmarried":3916,"ĠTur":3917,"Ġhous":3918,"ena":3919,"agon":3920,"Pol":3921,"Ġanalysis":3922,"edy":3923,"ĠDivision":3924,"ĠOf":3925,"hi":3926,"Ġnecess":3927,"Ġwoman":3928,"olf":3929,"Ġneeds":3930,"Ġdesigned":3931,"lem":3932,"Ġchurch":3933,"Call":3934,"imal":3935,"Ġcomplete":3936,"witch":3937,"ĠMer":3938,"Ġbg":3939,"merc":3940,"uge":3941,"Ġthroughout":3942,"Ġscreen":3943,"cel":3944,"ĠGreat":3945,"Ġsens":3946,"yr":3947,"ĠBay":3948,"known":3949,"ocation":3950,"icient":3951,"ĠSal":3952,"ees":3953,"ributed":3954,"sum":3955,"Ġshare":3956,"max":3957,"Ġmultiple":3958,"ini":3959,"irection":3960,"Sub":3961,"OL":3962,"Ġmind":3963,"ĠTechn":3964,"gt":3965,"ĠMad":3966,"Ġsequ":3967,"ĠRobert":3968,"Ġacqu":3969,"ĠMus":3970,"Ent":3971,"67":3972,"1995":3973,"gle":3974,"andom":3975,"Ġoccur":3976,"FL":3977,"Ġqual":3978,"Ġrelig":3979,"riate":3980,"Ġschools":3981,"MA":3982,"Ġconditions":3983,"orage":3984,"sych":3985,"asket":3986,"ufact":3987,"ĉĉĉĉĉĉ":3988,"Ġ:=":3989,"ULL":3990,"ĠScott":3991,"start":3992,"active":3993,"Ġforce":3994,"--------------------------------":3995,"mathbf":3996,"anish":3997,"Ġnode":3998,"System":3999,"Ġwatch":4000,"ein":4001,"}{\\":4002,"Ġcompleted":4003,"Ġimpact":4004,"ĠMat":4005,"ĠHam":4006,"Ġreading":4007,"Ġsecurity":4008,"Ġforward":4009,"rial":4010,"Ġcandid":4011,"ulations":4012,"Ġ};":4013,"Ġgetting":4014,"57":4015,"zer":4016,"Ġindividual":4017,"plications":4018,"win":4019,"irit":4020,"ube":4021,"Ġadditional":4022,"ano":4023,">&":4024,"Ac":4025,"1970":4026,"Ġpaper":4027,"Ġsoon":4028,"CE":4029,"vis":4030,"apter":4031,"One":4032,"ilies":4033,"Ġidea":4034,"ĠSur":4035,"Ġsigned":4036,"bed":4037,"Ġge":4038,"ĠIsrael":4039,"59":4040,"Em":4041,"la":4042,"Ġeight":4043,"define":4044,"ĠTest":4045,"IV":4046,"Ġnatural":4047,"Param":4048,"Ġdifficult":4049,"run":4050,"atest":4051,"Table":4052,"ĠService":4053,"Ġtravel":4054,"space":4055,"ĠCentral":4056,"reate":4057,"Ġfrequ":4058,"ĠWeb":4059,"Ġbgcolor":4060,"ĠAfrican":4061,"MP":4062,"fort":4063,"Ġcho":4064,"ĠWhile":4065,"Color":4066,"room":4067,"ocks":4068,"ĠTown":4069,"Ġveh":4070,"lean":4071,"Ġcannot":4072,"ĠResearch":4073,"Arg":4074,"Ġcoming":4075,"ĠTexas":4076,"ĠMuseum":4077,"Model":4078,"Med":4079,"ĠIr":4080,"ducation":4081,"ocol":4082,"Ġlocation":4083,"Ġalthough":4084,"TD":4085,"1994":4086,"Ġperformed":4087,"68":4088,"ainer":4089,"bre":4090,"ĠProv":4091,"ĠHen":4092,"=\"#":4093,"ki":4094,"ĠAnn":4095,"Ġcontact":4096,"Ġactive":4097,"Ġasked":4098,"angle":4099,"ĠEr":4100,"oma":4101,"Ġdevice":4102,"1992":4103,"Ġconcern":4104,"wide":4105,"ĠThomas":4106,"mathrm":4107,"ĠRussian":4108,"Ġword":4109,"Ġsurv":4110,"ĠSub":4111,"Ġvers":4112,"ĠChristian":4113,"isher":4114,"azine":4115,"Ġfollowed":4116,"ares":4117,"eline":4118,"arning":4119,"Ġwalk":4120,"MS":4121,"very":4122,"aud":4123,"Mar":4124,"Ġdecision":4125,"^{-":4126,"Ġste":4127,"google":4128,"ĠRad":4129,"Ġtool":4130,"ĠDel":4131,"liament":4132,"Ġdefined":4133,"itch":4134,"css":4135,"ĠRob":4136,"Ġparts":4137,"het":4138,"static":4139,"fect":4140,"Ġincrease":4141,"mm":4142,"PE":4143,"event":4144,"Post":4145,"Pre":4146,"ĠDuring":4147,"Ġver":4148,"ĠGames":4149,"Ġenjoy":4150,"Ġbelieve":4151,"Ġarchitect":4152,"eks":4153,"Ġprobably":4154,"argin":4155,"context":4156,"Ġload":4157,"43":4158,"Ab":4159,"istan":4160,"Ġneeded":4161,"Ġminutes":4162,"ĠPost":4163,"ĠFound":4164,"quare":4165,"ĠScience":4166,"burg":4167,"Ġpatients":4168,"Ġmoment":4169,"ĠGrand":4170,"Ġdram":4171,"ned":4172,"pecial":4173,"bon":4174,"Ġmount":4175,"ĠTor":4176,"Ġconv":4177,"arily":4178,"ilde":4179,"Group":4180,"ĠCanadian":4181,"Ġbirth":4182,"fess":4183,"eek":4184,"mselves":4185,"ĠBill":4186,"rief":4187,"xy":4188,"Ġpick":4189,"Ġkilled":4190,"encies":4191,"inition":4192,"rong":4193,"Ðµ":4194,"more":4195,"Ġradio":4196,"Ġepisode":4197,"Ġdouble":4198,"Ġconstruction":4199,"Ġproducts":4200,"She":4201,"Ġmodels":4202,"ĠAirport":4203,"Ġdetermin":4204,"Ġtransfer":4205,"ĠChinese":4206,"comes":4207,"ĠWil":4208,"Ġcorrespond":4209,"ĠCath":4210,"Ġculture":4211,"Ġconstruct":4212,"atre":4213,"check":4214,"Ġoutput":4215,"Ġappeared":4216,"ictor":4217,"page":4218,"ĠFore":4219,"Ġdrop":4220,"Ġball":4221,"User":4222,"Ġprovides":4223,"ĠMinister":4224,"Ġapproach":4225,"ĠPre":4226,"web":4227,"eds":4228,"illed":4229,"Ġthemselves":4230,"ying":4231,"Ġrecorded":4232,"antic":4233,"Ġneigh":4234,"package":4235,"actory":4236,"wise":4237,"valid":4238,"urt":4239,"atabase":4240,"acity":4241,"cell":4242,"Ġsports":4243,"option":4244,"Ġplant":4245,"'ve":4246,"big":4247,"level":4248,"Ġelements":4249,"sigma":4250,"Ġallowed":4251,"Ġsy":4252,"ĠAP":4253,"41":4254,"Ġemer":4255,"mercial":4256,"ĠCarol":4257,"ĠSuper":4258,"Ġsen":4259,"Ġevidence":4260,"Ġship":4261,"Ġrow":4262,"Ġunit":4263,"jo":4264,"Che":4265,"Ġrisk":4266,"56":4267,"Ġseven":4268,"Ġwanted":4269,"Response":4270,"core":4271,"ĠSmith":4272,"Ġstudies":4273,"Ġdeep":4274,"Ġoption":4275,"=\"../":4276,"Ġlines":4277,"Ġbehav":4278,"uns":4279,"Ġplaces":4280,"ĠFlor":4281,"bo":4282,"Query":4283,"Ġlonger":4284,"ĠAre":4285,"resh":4286,"Ġlargest":4287,"================":4288,"ĠHill":4289,"ĠKore":4290,"Ġstay":4291,"umbers":4292,"urity":4293,"Ġwor":4294,"ĠWestern":4295,"Ġmovie":4296,"1993":4297,"Ġcopy":4298,"place":4299,"Ġplatform":4300,"Ġcentral":4301,"iant":4302,"Ġcivil":4303,"Ã¤":4304,"ĠKingdom":4305,"Ġthreat":4306,"icago":4307,"eve":4308,"Ge":4309,"Ġapprox":4310,"Ġinterview":4311,"ework":4312,"come":4313,"pty":4314,"sq":4315,"Ġjournal":4316,"Ġmatter":4317,"Property":4318,"Ġinstit":4319,"doc":4320,"Ġanything":4321,"cons":4322,"Ġnothing":4323,"hest":4324,"uals":4325,"ĠJapanese":4326,"well":4327,"ĠTer":4328,"Ġcelebr":4329,"iece":4330,"ĠRock":4331,"End":4332,"ental":4333,"lam":4334,"porary":4335,"Ġnames":4336,"EE":4337,"ĠLouis":4338,"ĠVirgin":4339,"Ġquality":4340,"dev":4341,"Ġscient":4342,"Ġkm":4343,"Ġcapital":4344,"SC":4345,"Eng":4346,"Be":4347,"Ġwrite":4348,"press":4349,"Ġseems":4350,"Ġlabel":4351,"Method":4352,"ĠHistory":4353,"ĠSet":4354,"ASS":4355,"ĠCamp":4356,"ulture":4357,"ests":4358,"ca":4359,"Ġusually":4360,"ĠBre":4361,"Ġvalid":4362,"Ġapplication":4363,"road":4364,"88":4365,"ĠFrank":4366,"Ġlegal":4367,"ĠĠĠĠĠĠĠĠĠĠĠĠ":4368,"Ġdaughter":4369,"Ġtowards":4370,"Ġgrowth":4371,"So":4372,"Ġsomeone":4373,"umni":4374,"Ġpurch":4375,"Ġmeasure":4376,"Ġimmedi":4377,"anta":4378,"gamma":4379,"ĠFrancis":4380,"ĠStar":4381,"mitted":4382,"Ġstream":4383,"Ġbrought":4384,"pat":4385,"Ġâ":4386,"ptions":4387,"Ġtreatment":4388,"ua":4389,"za":4390,"Ġuses":4391,"Ġweeks":4392,"Ġcalc":4393,"Ġfemale":4394,"||":4395,";</":4396,"ils":4397,"Ġfriends":4398,"ithub":4399,"ensity":4400,"Ġsense":4401,"ensus":4402,"Client":4403,"Ġmention":4404,"Ġ$(":4405,"ĠOther":4406,"Ġproblems":4407,"ĠAN":4408,"Ġmaintain":4409,"Ġlevels":4410,"ternet":4411,"Ġdead":4412,"Ġrank":4413,"owers":4414,"reland":4415,"Ġdise":4416,"current":4417,"Override":4418,"uate":4419,"Ġprevent":4420,"Ġquite":4421,"Ġtrying":4422,"host":4423,"method":4424,"bour":4425,"uster":4426,"Ġsn":4427,"asketball":4428,"Ġboy":4429,"Ġprinc":4430,"rid":4431,"do":4432,"Ġess":4433,"ita":4434,"evelopment":4435,"Ġdemon":4436,"That":4437,"Ġbank":4438,"Ġlack":4439,"1991":4440,"ura":4441,"ĠAcademy":4442,"ĠPeter":4443,"Ġformed":4444,"ĠĠĠĠĠĠĠĠĠĠ":4445,"ĠCommission":4446,"Ġnormal":4447,"Ġchanged":4448,"delta":4449,"model":4450,"95":4451,"Ġcoach":4452,"isions":4453,"uated":4454,"''":4455,"Ð¸":4456,"Ġfa":4457,"Ġselected":4458,"ega":4459,"Ġmethods":4460,"Ġwidth":4461,"Ġnil":4462,"ky":4463,"Ġtemper":4464,"shire":4465,"false":4466,"yles":4467,"Ġprimary":4468,"Ġpark":4469,"enge":4470,"Ġmach":4471,"thlet":4472,"Ġmeeting":4473,"Ġartists":4474,"ĠOpen":4475,"ĠJose":4476,"ĠZeal":4477,"Ġprop":4478,"west":4479,"Ġdirected":4480,"Ġhttps":4481,"ĠHistor":4482,"ĠWomen":4483,"tab":4484,"Ġtypes":4485,"Ġansw":4486,"contain":4487,"Ġdegree":4488,"tty":4489,"hem":4490,"ĠSund":4491,"Ġgold":4492,"+\\":4493,"ĠCongress":4494,"Ġbool":4495,"gor":4496,"Ġmur":4497,"Ġsimple":4498,"reme":4499,"Ġforces":4500,"stant":4501,"eria":4502,"Ġpractice":4503,"Ġautom":4504,"Source":4505,"Ġcontains":4506,"ĠUs":4507,"Ġcells":4508,"ĠKe":4509,"Ġhum":4510,"db":4511,"indow":4512,"Ġsurface":4513,"Ġwriter":4514,"NA":4515,"ournament":4516,"witter":4517,"ounds":4518,"ĠZealand":4519,"xi":4520,"Ġcolumn":4521,"1960":4522,"Ġnumer":4523,"Ġestim":4524,"reater":4525,"Le":4526,"itiz":4527,"itation":4528,"Ġshall":4529,"Ġtal":4530,"ĠCharles":4531,"orning":4532,"Ġoperation":4533,"ĠLos":4534,"ialog":4535,"Ġleague":4536,"*}":4537,"Ġeffects":4538,"Ġshot":4539,"Ġdecided":4540,"ramework":4541,"Ġprem":4542,"akers":4543,"ĠMel":4544,"Ġbeaut":4545,"Act":4546,"ĠJul":4547,"Ġinside":4548,"ias":4549,"Image":4550,"Ġcharg":4551,"namespace":4552,"Ġrecently":4553,"Ġ($":4554,"ĠRef":4555,"anged":4556,"icks":4557,"Date":4558,"ĠRichard":4559,"ildren":4560,"Ġexhib":4561,"vest":4562,"dr":4563,"Ġconstit":4564,"77":4565,")}":4566,"ican":4567,"Ġsaying":4568,"Ġartist":4569,"Am":4570,"ename":4571,"ĠGovernment":4572,"Ġtransport":4573,"Ġpack":4574,"Ġfun":4575,"github":4576,"ously":4577,"CL":4578,"Ġscience":4579,"idden":4580,"Ġearlier":4581,"Ġbur":4582,"php":4583,"Builder":4584,"^\\":4585,">(":4586,"times":4587,"ady":4588,"Ġesc":4589,"ordin":4590,"izes":4591,"Ġsummer":4592,"dir":4593,"Ġspect":4594,"Ġdrug":4595,"NS":4596,"Ġoperations":4597,"ĠItalian":4598,"Ġfinished":4599,"Ġunique":4600,"pected":4601,"Ġtit":4602,"Ġtrade":4603,"ĠAv":4604,"Ġguitar":4605,"ymbol":4606,"ĠĠĠĠĠĠĠĠĠĠĠĠĠĠĠĠĠ":4607,"Ġdetails":4608,"Ġtheory":4609,"Ġeverything":4610,"stream":4611,"Ġlives":4612,"ĠBig":4613,"onder":4614,"isl":4615,"dl":4616,"ĠLake":4617,"Ġmechan":4618,"Can":4619,"TH":4620,"ĠStr":4621,"soft":4622,"Ġfinancial":4623,"Ġinvestig":4624,"igr":4625,"Ġsoftware":4626,"ĠParis":4627,"ora":4628,"ĠRecords":4629,"Ġcause":4630,"Ġwait":4631,"miss":4632,"ĠNow":4633,"overs":4634,"ĠReview":4635,"Ġelected":4636,"ether":4637,"ĠSy":4638,"Ġmanufact":4639,"EL":4640,"Ġleader":4641,"Char":4642,"51":4643,"](":4644,"Ġfamilies":4645,"ĠSummer":4646,"Head":4647,"Ġheight":4648,"Ġsomet":4649,"Ġandroid":4650,"ircraft":4651,"ĠOver":4652,"Ġagre":4653,"Ġhop":4654,"options":4655,"ĠRussia":4656,"52":4657,"ĠBur":4658,"ĠĠĠĠĠĠĠĠĠĠĠĠĠĠĠĠĠĠĠĠĠĠĠĠĠĠĠĠĠĠĠ":4659,"lo":4660,"54":4661,"Ġintroduced":4662,"Ġtim":4663,"ario":4664,"ĠCommittee":4665,"Ġstd":4666,"Ġindependent":4667,"ims":4668,"EX":4669,"izations":4670,"ulate":4671,"orial":4672,"Ġfounded":4673,"iler":4674,"Sup":4675,"Ġconcept":4676,"1989":4677,"tem":4678,"Ġgraph":4679,"has":4680,"Part":4681,"Ġpreviously":4682,"Dis":4683,"69":4684,"TV":4685,"0000":4686,"grad":4687,"Ġthus":4688,"Ġmedical":4689,"Ġisn":4690,"Ġwest":4691,"Ġleave":4692,"Ġincreased":4693,"Ġcollect":4694,"ifying":4695,"itude":4696,"ĠOper":4697,"Ġeast":4698,"ĠTime":4699,"ECT":4700,"Ġinsp":4701,"ervices":4702,"atin":4703,"Ġaltern":4704,"ella":4705,"otype":4706,"rt":4707,"Ġbuildings":4708,"image":4709,"yt":4710,"ĠRead":4711,"FC":4712,")</":4713,"Ġproperties":4714,"pass":4715,"Ġmovement":4716,"actions":4717,"Ġprotected":4718,"Back":4719,"Ġbeginning":4720,"First":4721,"igan":4722,"Ġclosed":4723,"anda":4724,"Ġsimply":4725,"anned":4726,"<!--":4727,"iring":4728,"Ġpositive":4729,"ĠHel":4730,"Ġfavor":4731,"rho":4732,"astern":4733,"Ġalbums":4734,"Ġdeb":4735,"imin":4736,"Ġpassed":4737,"Us":4738,"BA":4739,"ĠRem":4740,"Ġdark":4741,"Ġclient":4742,"Ġstudent":4743,"Ġexpand":4744,"Ġanti":4745,"ĠMass":4746,"ĠThen":4747,"Ġstories":4748,"53":4749,"ĠChicago":4750,"iller":4751,"ĠAtt":4752,"ĠBoard":4753,"'ll":4754,"Ġusers":4755,"urrent":4756,"erc":4757,"post":4758,"Ġunits":4759,"Ġshoot":4760,"azz":4761,"Ġdirectly":4762,"ĠCE":4763,"Ġexact":4764,"ola":4765,"Ġcatch":4766,"gu":4767,"])":4768,"$-":4769,"Ġsecret":4770,"Ġcompl":4771,"ronic":4772,"ĠFlorida":4773,"illa":4774,"Ġmagn":4775,"nu":4776,"Ġlimited":4777,"Ġdeliver":4778,"ĠDec":4779,"case":4780,"house":4781,"My":4782,"Ġeconomic":4783,"isf":4784,"client":4785,"osh":4786,"Ġcollege":4787,"Ġcompetition":4788,"UL":4789,"null":4790,"ĠPri":4791,"Ġappointed":4792,"sim":4793,"1988":4794,"ategy":4795,"=#":4796,"figure":4797,"Ġfinally":4798,"Ġstri":4799,"oral":4800,"Ġgrand":4801,"ancy":4802,"Stream":4803,"ĠIreland":4804,"element":4805,"ĠSeries":4806,"BS":4807,"isation":4808,"ĠRel":4809,"Ext":4810,"Ġselect":4811,"Ġresource":4812,"ĠCD":4813,"atively":4814,"ĠLife":4815,"Util":4816,"Ġexcept":4817,"Ġcam":4818,"Ġspent":4819,"Ġdistribution":4820,"ĠTimes":4821,"Ġmissing":4822,"ette":4823,"icture":4824,"Ġinternal":4825,"Ġitem":4826,"nected":4827,"Ġgas":4828,"Ġorganization":4829,"Ġreference":4830,"ĠUSA":4831,"force":4832,"ĠOb":4833,"Ġactivities":4834,"ĠAtl":4835,"Ġetc":4836,"Ġsort":4837,"Ġfollows":4838,"uke":4839,"78":4840,"ĠFilm":4841,"Ġdemonstr":4842,"ONT":4843,"ien":4844,"ĠProgram":4845,"Ġdestroy":4846,"Base":4847,"rics":4848,"Ġturned":4849,"Ġreached":4850,"Ġfoot":4851,"Ġstore":4852,"ĠYour":4853,"Ġuns":4854,"ellig":4855,"ĠArts":4856,"Ġruns":4857,"!!":4858,"Ġnature":4859,"Ġfailed":4860,"Ġanc":4861,"olk":4862,"((":4863,"Ġparents":4864,"Ġextra":4865,"apping":4866,"OC":4867,"Ġcard":4868,"Pos":4869,"ĠDirector":4870,"Ġwide":4871,"query":4872,"Ġstarting":4873,"Ġsched":4874,"ĠVictor":4875,"Ġer":4876,"ao":4877,"Ġnumbers":4878,"ĠLand":4879,"Go":4880,"Ġrecomm":4881,"ĠForm":4882,"inct":4883,"Ġcompared":4884,"orph":4885,"HT":4886,"ĠMexico":4887,"ĠCatholic":4888,"orpor":4889,"Ġprogress":4890,"Ġavoid":4891,"Ġfarm":4892,"Ġboolean":4893,"ĠOur":4894,"ĠIll":4895,"Ġ(\"":4896,"Ġfast":4897,"ĠBank":4898,"ĠOF":4899,"ĠMo":4900,"yth":4901,"ĠFestival":4902,"den":4903,"uct":4904,"ĠPlay":4905,"theta":4906,"ĠGeorg":4907,"just":4908,"Ġlimit":4909,"Ġeveryone":4910,"ributes":4911,"Ġpresented":4912,"ĠÂ£":4913,"razil":4914,"yan":4915,"ĠAngeles":4916,"izer":4917,"ĠOh":4918,"ĠBusiness":4919,"aling":4920,"Status":4921,"undle":4922,"Ġplans":4923,"Ġmanager":4924,"Ġtraditional":4925,"Rep":4926,"Ġscore":4927,"ĠIS":4928,"Ġeventually":4929,"Ġblood":4930,"Dr":4931,"Ġweb":4932,"Ġquant":4933,"ĠSil":4934,"ĠNULL":4935,"inner":4936,"ĠMost":4937,"Ġrules":4938,"ĠFootball":4939,"ĠTop":4940,"Ġactivity":4941,"ĠPet":4942,"Ġformat":4943,"Ġopening":4944,"ĠPenn":4945,"Ġweight":4946,"ĠOl":4947,"Ġprotect":4948,"98":4949,"vention":4950,"Ġcontinu":4951,"ĠForce":4952,"Ġequip":4953,"ĠEducation":4954,"300":4955,"Ġsec":4956,"Ġsch":4957,"Ġcritic":4958,"Ġways":4959,"Ġmiddle":4960,"ylv":4961,"ĠMil":4962,"RA":4963,"venue":4964,"Ġsometimes":4965,"Ġincreasing":4966,"1987":4967,"unched":4968,"ĠBrown":4969,"imens":4970,"enty":4971,"ĠUnder":4972,"tau":4973,"inst":4974,"ĠTwo":4975,"ĠAccording":4976,"Ġcondition":4977,"Ġstated":4978,"imb":4979,"Ġlarger":4980,"Ġnation":4981,"Ġgoes":4982,"uan":4983,"Ġplaced":4984,"ĠMur":4985,"arian":4986,"Ġmulti":4987,"ici":4988,"ĠCast":4989,"Ġaw":4990,"Oper":4991,"Ġpaint":4992,"ĠSince":4993,"ĠData":4994,"icated":4995,"Co":4996,"Ear":4997,"ĠOffice":4998,"Ġrap":4999,"arts":5000,"non":5001,"iders":5002,"Ġrat":5003,"finished":5004,"Ġspeed":5005,"Ġremain":5006,"Ġhar":5007,"Ġnav":5008,"Ġparticularly":5009,"ĠArab":5010,"ĠDen":5011,"Per":5012,"Ġserious":5013,"Ġgets":5014,"Ġmix":5015,"ĠSecret":5016,"Ġpen":5017,"Ġphysical":5018,"ĠSecond":5019,"ĠDev":5020,"Ġquarter":5021,"po":5022,"ĠScot":5023,"gorith":5024,"itz":5025,"ebug":5026,"ATE":5027,"bur":5028,"ĠTour":5029,"df":5030,"Ġscen":5031,"ĠEnd":5032,"ato":5033,"Ġremains":5034,"height":5035,"ĠVirginia":5036,"UE":5037,"ĠSee":5038,"FI":5039,"Ġmis":5040,"1986":5041,"adding":5042,"Ġwid":5043,"Ġregister":5044,"ĠIran":5045,"verse":5046,"jav":5047,"Ġfourth":5048,"ĠMem":5049,"ĠBo":5050,"Ġscene":5051,"haps":5052,"Ġprograms":5053,"ĠJournal":5054,"ĠGoogle":5055,"]{":5056,"ĠKn":5057,"Ġability":5058,"Don":5059,"ĠSpanish":5060,"vision":5061,"ĠGen":5062,"Ġsupported":5063,"Ġord":5064,"ĠMartin":5065,"Ġfunctions":5066,"Ġgives":5067,"Ġsubsequ":5068,"63":5069,"Ð½":5070,"Ġconnection":5071,"args":5072,"Ġconnect":5073,"lock":5074,"Ġnearly":5075,"Ġproposed":5076,"ĉĊ":5077,"leq":5078,"Ġentry":5079,"Ġteacher":5080,"ĠWind":5081,"Ġassum":5082,"ĠLong":5083,"ĠVer":5084,"ĠPeople":5085,"Nav":5086,"ĠJo":5087,"Ġvoice":5088,"Ġknowledge":5089,"utch":5090,"Ġir":5091,"Ġmeaning":5092,"Ġpattern":5093,"ĠFace":5094,"rowser":5095,"Ġwood":5096,"cm":5097,"Ġeditor":5098,"ĠSocial":5099,"Ġbeg":5100,"Ġdirection":5101,"Ġwindow":5102,"Equal":5103,"erved":5104,"ĠGood":5105,"Ġattention":5106,"Ġprep":5107,"Input":5108,"Ġquestions":5109,"rows":5110,"1984":5111,"ĠItaly":5112,"ĠCL":5113,"ĠHot":5114,"Ġstations":5115,"Ġprojects":5116,"UM":5117,"Ġreli":5118,"ibly":5119,"Ġded":5120,"ĠSun":5121,"abit":5122,"Ġbal":5123,"eful":5124,"strong":5125,"Ġvote":5126,"partial":5127,"ĠBi":5128,"ĠProject":5129,"iana":5130,"Ġcouple":5131,"Ġscale":5132,"Line":5133,"Ġchalleng":5134,"ĠWood":5135,"Ġeasy":5136,"inger":5137,"ÑĤ":5138,"fty":5139,"Ġoriginally":5140,"func":5141,"target":5142,"Ġcommercial":5143,"request":5144,"track":5145,"ishop":5146,"can":5147,"1985":5148,")(":5149,"Ġrule":5150,"ĠFe":5151,"flict":5152,"Ġcop":5153,"GL":5154,"Ġdigital":5155,"Ġemb":5156,"Ġlisted":5157,"Ġ<<":5158,"Ġplays":5159,"dated":5160,"ingu":5161,"ĠOrder":5162,"pol":5163,"first":5164,"PS":5165,"}(\\":5166,"62":5167,"Ġtransl":5168,"ĠStep":5169,"Ġcorrect":5170,"Ġ+=":5171,"Action":5172,"ĠOld":5173,"uled":5174,"Instance":5175,"ĠKh":5176,"Ġeval":5177,"Ġhighest":5178,"Hel":5179,"ervation":5180,"Ġoffers":5181,"lib":5182,"Ġ->":5183,"ĠGL":5184,"Ġcomputer":5185,"ĠJun":5186,"Ġoverall":5187,"mas":5188,"gent":5189,"ĠOlympics":5190,"Ġmicro":5191,"ockey":5192,"Ġbus":5193,"Ġcollabor":5194,"Ġconstant":5195,"foot":5196,"Ġpm":5197,"Ġallows":5198,"mine":5199,"Ġgrant":5200,"Ġlearning":5201,"ugin":5202,"Ġfootballers":5203,"Ġstreng":5204,"ĠFig":5205,"Ġsolution":5206,"ĠFoundation":5207,"rypt":5208,"Ġsurround":5209,"){":5210,"Ġpartners":5211,"Ġnecessary":5212,"Ġunivers":5213,"ĠĠĠĠĠĠĠĠĠĠĠĠĠĠ":5214,"Ġoil":5215,"illing":5216,"Ġhol":5217,"Ġvs":5218,"Ġalumni":5219,"Point":5220,"allery":5221,"azon":5222,"ĠHenry":5223,"ĠReturn":5224,"Ġupdate":5225,">>":5226,"TY":5227,"Ġfair":5228,"Ġreplaced":5229,"ba":5230,"under":5231,"ĠRos":5232,"Ġfeatured":5233,"ĠEngine":5234,"ums":5235,"olve":5236,"long":5237,"Ġaircraft":5238,"Ġpoor":5239,"nel":5240,"ĠTeam":5241,"EM":5242,"Ġdepend":5243,"Ġrepe":5244,"Ġreceive":5245,"aturday":5246,"Ġfelt":5247,"Ġresources":5248,"Ġforeign":5249,"property":5250,"Token":5251,"Last":5252,"61":5253,"Ġmemory":5254,"Ġsurpr":5255,"ĠĠĠĠĠĠĠĠĊ":5256,"Ġult":5257,"inding":5258,"tings":5259,"fe":5260,"ĠIts":5261,"ĠDou":5262,"ĠSwed":5263,"Handler":5264,"asion":5265,"Ġfields":5266,"97":5267,"riage":5268,"ulf":5269,"adata":5270,"Ġprison":5271,"Delta":5272,"exp":5273,"ĠKar":5274,"ester":5275,"Ġgoals":5276,"ypes":5277,"Content":5278,"ĠEmp":5279,"ribe":5280,"undred":5281,"Ġtouch":5282,"ĠTHE":5283,"ĠTim":5284,"Ġhope":5285,"Ġbattle":5286,"ĠAwards":5287,"ĠShow":5288,"istance":5289,"Ġwrong":5290,"Ġreb":5291,"Ġprice":5292,"gn":5293,"Ġoccup":5294,"omega":5295,"Ġlatest":5296,"asy":5297,"osing":5298,"ĠJim":5299,"Ġalleg":5300,"open":5301,"ĠLove":5302,"ĠMain":5303,"Ġgenerally":5304,"Ġtrain":5305,"append":5306,"1950":5307,"ĠJud":5308,"Ġpull":5309,"Ġappears":5310,"ecause":5311,"which":5312,"Ġperfect":5313,"Ġminor":5314,"rl":5315,"iano":5316,"Ġmission":5317,"inem":5318,"button":5319,"weet":5320,"Web":5321,"Ġnone":5322,"Ġslow":5323,"Ġhands":5324,"usion":5325,"Ġpretty":5326,"usband":5327,"Ġbasis":5328,"ĠManagement":5329,"Ġfif":5330,"Ġworth":5331,"Ġeffective":5332,"Ġple":5333,"header":5334,"Ġacadem":5335,"Ġchem":5336,"Ġsociety":5337,"Null":5338,"ĠPac":5339,"\\,":5340,"rier":5341,"ĠAut":5342,"ĠHome":5343,"Ġwinning":5344,"IA":5345,"Ġsolid":5346,"Ps":5347,"Ġremained":5348,"gs":5349,"aks":5350,"Ġquickly":5351,"Ġbuy":5352,"Ġchief":5353,"ĠValley":5354,"ĠDevelopment":5355,"alle":5356,"Ġcaused":5357,"Ġarrest":5358,"Ġannual":5359,"Ġstatement":5360,"Ġprec":5361,"Ġscored":5362,"ĠLee":5363,"({":5364,"itors":5365,"John":5366,"Ġmurder":5367,"igger":5368,"member":5369,"eger":5370,"greg":5371,"Ġtro":5372,"Ġroute":5373,"nam":5374,"ĠID":5375,"ĠInst":5376,"Ġsources":5377,"Start":5378,"tx":5379,"ĠHaw":5380,"even":5381,"ĠMedia":5382,"infty":5383,"ocket":5384,"Ġanyone":5385,"Ġrecords":5386,"Ġwild":5387,"ÑĢ":5388,"ĠLet":5389,"char":5390,"ĠSunday":5391,"1983":5392,"Gener":5393,"Ġtask":5394,"iful":5395,"Ġawarded":5396,"PC":5397,"}$,":5398,"stract":5399,"Ġgreen":5400,"ĠMa":5401,"Ġgiving":5402,"ĠFort":5403,"Ġfans":5404,"Ġbroadcast":5405,"ĠBuild":5406,"\").":5407,"}$.":5408,"Ġinstr":5409,"ĠBoy":5410,"Ġcoast":5411,"oviet":5412,"erry":5413,"pack":5414,"ĠSol":5415,"Ġexam":5416,"Ġlaws":5417,"400":5418,"ooth":5419,"Ġhighly":5420,"ĠGar":5421,"Ġbrand":5422,"Component":5423,"Ġreports":5424,"Ġmunic":5425,"Ġended":5426,"Options":5427,"ĠDet":5428,"ĠWed":5429,"Ġserver":5430,"ĠProfess":5431,"\"),":5432,"Ġcarry":5433,"Ġhousehold":5434,"Ġnuc":5435,"unfinished":5436,"flow":5437,"Ġchannel":5438,"Ġtransform":5439,"Ġexpression":5440,"rs":5441,"Ġvoc":5442,"Ġparameters":5443,"king":5444,"ny":5445,"Ġfederal":5446,"arden":5447,"reedom":5448,"ĠWell":5449,"Ġwhom":5450,"TS":5451,"Ġfirm":5452,"orter":5453,"write":5454,"erem":5455,"Ġrespond":5456,"VER":5457,"ĠEarth":5458,"oday":5459,"Ã¨":5460,"ati":5461,"Ġflow":5462,"Ġsetting":5463,"Ġmaster":5464,"Do":5465,"aught":5466,"ali":5467,"Ġthr":5468,"1982":5469,"Link":5470,"ĠEp":5471,"ĠLibrary":5472,"find":5473,"Default":5474,"Ġlab":5475,"kins":5476,"capt":5477,"ĠOp":5478,"Ġtree":5479,"Ġadapt":5480,"adium":5481,"eqn":5482,"ĠTre":5483,"igen":5484,"Ġinterface":5485,"Ġimages":5486,"osc":5487,"ĠChief":5488,"Ġdemand":5489,"Attribute":5490,"ĠčĊ":5491,"iny":5492,"Prov":5493,"itness":5494,"ĠCarolina":5495,"Ġforms":5496,"icrosoft":5497,"Ġmode":5498,"Met":5499,"orem":5500,"Ġeth":5501,"Ġcorn":5502,"Ġdisease":5503,"Ġreach":5504,"ĠYoung":5505,"leep":5506,"Ġmajority":5507,"Ġsal":5508,"Ġhy":5509,"ĠFriday":5510,"Ġpsych":5511,"Ġsinger":5512,"emporary":5513,"Ġphil":5514,"Ġdoc":5515,"ĠMov":5516,"Car":5517,"[\"":5518,"raight":5519,"Ġlaunched":5520,"aters":5521,"otal":5522,"iled":5523,"?âĢĿ":5524,"bridge":5525,"Ġvert":5526,"Ġvariety":5527,"last":5528,"Ġexisting":5529,"oding":5530,"Work":5531,"ĠGal":5532,"Page":5533,"Ġmedal":5534,"Ġmoving":5535,"Ġelectric":5536,"Ġobtained":5537,"ĠCO":5538,"ĠLiber":5539,"Ġnoted":5540,"ĠLin":5541,"Ġselection":5542,"Ġedition":5543,"Ġcompar":5544,"select":5545,"Run":5546,"Ġmargin":5547,"Ġcommunities":5548,"Ã³n":5549,"Top":5550,"Ġbecomes":5551,"Ġcook":5552,"~~":5553,"local":5554,"people":5555,"Ġdespite":5556,"cho":5557,"Ġwasn":5558,"Ġsets":5559,"uid":5560,"Ġmusical":5561,"Buffer":5562,"ĠÎ":5563,"Ġimprov":5564,"Ġtournament":5565,"ĠField":5566,"ĠNone":5567,"background":5568,"Ġ\"\"\"":5569,"Ġexperiment":5570,"onic":5571,"Ġarm":5572,"Ġdistance":5573,"Ġenter":5574,"Ġindividuals":5575,"Ġthrows":5576,"TC":5577,"App":5578,"Ġhospital":5579,"Ġsales":5580,"Ġvac":5581,"Ġmorning":5582,"btn":5583,"Ġnote":5584,"Äģ":5585,"Ġfeed":5586,"1979":5587,"ydro":5588,"weight":5589,"Ġsafety":5590,"Ġign":5591,"ĠAM":5592,"AME":5593,"$$":5594,"ĠBas":5595,"Ġbey":5596,"Ġheard":5597,"ylvania":5598,"icted":5599,"oration":5600,"Ġsenior":5601,"ĠObject":5602,"Ġrespectively":5603,"Ġrecover":5604,"Other":5605,"Ġsituation":5606,"Number":5607,"ĠHead":5608,"Block":5609,"lie":5610,"Ġcancer":5611,"icine":5612,"ih":5613,"riz":5614,"Ġcounter":5615,"Ġextends":5616,"Ġletter":5617,"Ġsu":5618,"ĠSpe":5619,"Let":5620,"ĠGame":5621,"ĠĠĠĠĠĠĠĠĠĠĠĠĊ":5622,"Ġunc":5623,"Ġopportunity":5624,"ollowing":5625,"Ġcharge":5626,"ĠNetwork":5627,"Ġcompletely":5628,"ffic":5629,"aby":5630,"Ġdifference":5631,"Ġexpress":5632,"ĠSar":5633,"oston":5634,"ĠLog":5635,"ultural":5636,"osis":5637,"Ġclean":5638,"ĠHere":5639,"xml":5640,"Ġsend":5641,"Ġhelped":5642,"ĠBrazil":5643,"Ġsea":5644,"Ġwriters":5645,"acter":5646,"Ġroll":5647,"Ġbeyond":5648,"ĠMen":5649,"Ġbillion":5650,"json":5651,"OW":5652,"Function":5653,"Ġremember":5654,"CA":5655,"ersey":5656,"language":5657,"Ġpressure":5658,"Ġillust":5659,"Ġimmediately":5660,"Ġinteresting":5661,"plies":5662,"Ġshowed":5663,"aved":5664,"Ġfully":5665,"Ġolder":5666,"olds":5667,"ĠPan":5668,"ĠIrish":5669,"km":5670,"ĠAlthough":5671,"Ġdu":5672,"apers":5673,"Ġcritical":5674,"Ġcitiz":5675,"Factory":5676,"ĠCentre":5677,"Ġraised":5678,"Ġcontr":5679,"ashion":5680,"bottom":5681,"Ġgreater":5682,"ĠServices":5683,"udget":5684,"Ġofficer":5685,"ĠBob":5686,"entry":5687,"ptr":5688,"term":5689,"ĠPak":5690,"ĠMot":5691,"Ġinform":5692,"Ġheavy":5693,"idget":5694,"icens":5695,"draw":5696,"riend":5697,"Ġlif":5698,"ifact":5699,"ĠBase":5700,"Ġensure":5701,"Gr":5702,"%%":5703,"iro":5704,"El":5705,"UP":5706,"iate":5707,"ĠElect":5708,"urance":5709,"Ġtherefore":5710,"ĠAssembly":5711,"Ġfiles":5712,"Ġreturns":5713,"ĠMond":5714,"GB":5715,"ears":5716,"spec":5717,"eqref":5718,"Ġang":5719,"Ġsatisf":5720,"........":5721,"ansas":5722,"CD":5723,"tilde":5724,"Ġmut":5725,"Ġmess":5726,"Ġdrive":5727,"ĠJohnson":5728,"Ġpoll":5729,"elled":5730,"clusion":5731,"Ġhusband":5732,"1981":5733,"Ġsusp":5734,"Ġking":5735,"krain":5736,"Ġadult":5737,"Ġthous":5738,"navbar":5739,"Ġchoice":5740,"Ġblue":5741,"Ġshared":5742,"Ġpoet":5743,"ja":5744,"ansion":5745,"omy":5746,"Ġsites":5747,"eller":5748,"ipe":5749,"ĠFacebook":5750,"ĠSaint":5751,"Ġactor":5752,"len":5753,"Ġencour":5754,"chers":5755,"Rem":5756,"Ġbasketball":5757,"ĠJones":5758,"SI":5759,"fully":5760,"ãģ":5761,"Ġrob":5762,"Ġapproximately":5763,"ĠEnter":5764,"Ġactual":5765,"aka":5766,"ĠWeek":5767,"Ġrepresented":5768,"status":5769,"ĠIslam":5770,"Ġ{@":5771,"1972":5772,"mond":5773,"rolled":5774,"pers":5775,"Ġsymbol":5776,"Ġjoin":5777,"iform":5778,"Ġpiece":5779,"96":5780,"Check":5781,"Ġdynam":5782,"Ñģ":5783,"Ġmostly":5784,"Ġbecoming":5785,"Ġassess":5786,"Ġpresence":5787,"real":5788,"awa":5789,"Ġones":5790,"Ġworkers":5791,"PL":5792,"allet":5793,"Ġstudio":5794,"85":5795,"abs":5796,"Ġcontribut":5797,"bi":5798,"uty":5799,"irmed":5800,"Ġresponsible":5801,"Ġcentre":5802,"Ġfigure":5803,"module":5804,"âĢĿ.":5805,"Ġpair":5806,"Ġvan":5807,"Ġlaunch":5808,"ĠJoseph":5809,"Ġisland":5810,"ĠSaturday":5811,"Return":5812,"ĠAlso":5813,"cean":5814,"Ġgrowing":5815,"private":5816,"sylvania":5817,"Load":5818,"Ġproduce":5819,"ding":5820,"Ġrandom":5821,"ĠColumb":5822,"ima":5823,"lines":5824,"ãĥ":5825,"1976":5826,"Box":5827,"sole":5828,"ongs":5829,"Ġproviding":5830,"Te":5831,"pret":5832,"otic":5833,"ĠAsia":5834,"src":5835,"Ġeyes":5836,"ĠMax":5837,"Ġconsum":5838,"Cell":5839,"ĠNorthern":5840,"Ġalone":5841,"87":5842,"ls":5843,"Ġpolitician":5844,"hent":5845,"icate":5846,"ĠSpain":5847,"ĠNavy":5848,"server":5849,"ĠPo":5850,"Ġmatches":5851,"*/":5852,"ĠTra":5853,"ĠSand":5854,"war":5855,"elete":5856,"pp":5857,"TP":5858,"REF":5859,"ye":5860,"ĠUN":5861,"Art":5862,"ĠCross":5863,"Ġriver":5864,"Ġimag":5865,"True":5866,"Ġdivision":5867,"Ġitems":5868,"ancing":5869,"Ġequal":5870,"dep":5871,"Ġforced":5872,"Ġstars":5873,"Resource":5874,"Ġauto":5875,"wan":5876,"igration":5877,"Ġchance":5878,"Ġefforts":5879,"Ġpriv":5880,"Ġserve":5881,"areer":5882,"img":5883,"ĠTheir":5884,"Ġcomponent":5885,"inet":5886,"ampion":5887,"Ġseparate":5888,"Ġinfluence":5889,"Ġ]":5890,"More":5891,"'d":5892,"ker":5893,"ĠBritain":5894,"Ġclin":5895,"Ġlived":5896,"chi":5897,"1978":5898,"Ġspread":5899,"Ġoffered":5900,"rate":5901,"Ġbuff":5902,"isters":5903,"Men":5904,"Ġparties":5905,"ĠParliament":5906,"Ġaccom":5907,"gener":5908,"Writ":5909,"Ġforest":5910,"Ġbrief":5911,"SA":5912,"png":5913,"IO":5914,"agram":5915,"acement":5916,"Ġpurpose":5917,"ĠWilliams":5918,"ATION":5919,"Ġnewsp":5920,"Ġobjects":5921,"Ġleaving":5922,"iginal":5923,"Desc":5924,"Ġreligious":5925,"project":5926,"ĠLord":5927,"ko":5928,"display":5929,";\"":5930,"Ġsuc":5931,"ologies":5932,"ĠPower":5933,"Ġstructures":5934,"ira":5935,"pc":5936,"adow":5937,"Ġspecified":5938,"Ġsuit":5939,"push":5940,"ĠCommunity":5941,"Ġparameter":5942,"vant":5943,"idae":5944,"PR":5945,"Ġlooks":5946,"ĠConference":5947,"Ġemail":5948,"Ġsave":5949,"raction":5950,"1975":5951,"close":5952,"site":5953,"Ġowners":5954,"ĠCorpor":5955,"ĠBlue":5956,"cos":5957,"Ġsmaller":5958,"heast":5959,"main":5960,"Ġcalls":5961,"Early":5962,"Ġprefer":5963,"amin":5964,"ĠBet":5965,"Ġcommission":5966,"Ġimprove":5967,"Ġhundred":5968,"1974":5969,"ĠId":5970,"clos":5971,"Ġvictory":5972,"description":5973,"iments":5974,"airman":5975,"ĠSenate":5976,"Next":5977,"Ð¾Ð":5978,"prop":5979,"Det":5980,"Ġproper":5981,"Ġwall":5982,"Exp":5983,"89":5984,"Command":5985,"Ġstrug":5986,"plicit":5987,"ĠLine":5988,"Ġque":5989,"Ġincome":5990,"gment":5991,"Ġactress":5992,"Ġphase":5993,"anges":5994,"72":5995,"uries":5996,"Om":5997,"ĠSir":5998,"Ġagreement":5999,"Ġdepartment":6000,"Ġremoved":6001,"Ġdog":6002,"Ġbill":6003,"Ġcat":6004,"Ġtrust":6005,"Ġnative":6006,"ĠST":6007,"Ġotherwise":6008,"1968":6009,"tag":6010,"ĠPM":6011,"ĠRegister":6012,"ĠWales":6013,"ersonal":6014,"standing":6015,"${":6016,"Version":6017,"Ġsession":6018,"Ġweap":6019,"1977":6020,"olved":6021,"ĠTechnology":6022,"spect":6023,"Ġgun":6024,"Des":6025,"INT":6026,"ycl":6027,"ador":6028,"DA":6029,"ecution":6030,"Ġice":6031,"ugby":6032,"Ġshop":6033,"ĠFire":6034,"Ġstraight":6035,"May":6036,"Ġappearance":6037,"ĠSpecial":6038,"Ġran":6039,"ĠCard":6040,"Ġaspect":6041,"Ã§":6042,"ograp":6043,"Mat":6044,"1973":6045,"osoph":6046,"Ġfamous":6047,"ĠHon":6048,"Ġdomin":6049,"SON":6050,"IF":6051,"Spec":6052,"ĠMu":6053,"Ġpaid":6054,"Ġclaims":6055,"sg":6056,"ĠLuc":6057,"Ġconcent":6058,"only":6059,"ĠDemocratic":6060,"arks":6061,"|\\":6062,"ĠRadio":6063,"oute":6064,"gypt":6065,"mes":6066,"ĠIII":6067,"Ġmill":6068,"ĉĉĉĉĉĉĉĉ":6069,"Ġproducer":6070,"ĠJewish":6071,"urban":6072,"\"]":6073,"anche":6074,"itan":6075,"Ġdrama":6076,"Ġrot":6077,"yer":6078,"ĠSouthern":6079,"Ġcities":6080,"ABLE":6081,"ĠWater":6082,"Ġofficials":6083,"Ġpil":6084,"ĠChampionships":6085,"Ġattended":6086,"Description":6087,"Ġq":6088,"related":6089,"});":6090,"iger":6091,"XX":6092,"rum":6093,"Ġdensity":6094,"Ġhear":6095,"Ġroot":6096,"Ġbehavior":6097,"Ġrare":6098,"iated":6099,"ĠHuman":6100,"Ġspirit":6101,"Ġowned":6102,"86":6103,"ãĤ":6104,"Ġcreating":6105,"ĠCall":6106,"ĠWay":6107,"ĠBow":6108,"meta":6109,"Min":6110,"iminal":6111,"Ġcapacity":6112,"Ġneighbor":6113,"ĠTele":6114,"Ġcomments":6115,"amm":6116,"elligence":6117,"cdot":6118,"Pop":6119,"ayers":6120,"ursday":6121,"ĠFrancisco":6122,"obj":6123,"Ġsouthern":6124,"Ġcarried":6125,"Ġremove":6126,"Create":6127,"ĠRh":6128,"Ġmagazine":6129,"Rel":6130,"Ġapplied":6131,"arp":6132,"Ġseasons":6133,"Ġremaining":6134,"Ġphone":6135,"bury":6136,"ĠPop":6137,"Ġowner":6138,"Ġterrit":6139,"Ġtried":6140,"ĠEconom":6141,"Ġconflict":6142,"caption":6143,"ĠTem":6144,"Ġslight":6145,"Ġknew":6146,"raphics":6147,"Ġnine":6148,"ĠEmpire":6149,"aylor":6150,"ĠCivil":6151,"py":6152,"ucky":6153,"Ġfle":6154,"Ġseat":6155,"Ġconnected":6156,"CR":6157,"During":6158,"Ġpartner":6159,"ounce":6160,"Ġclimate":6161,"1971":6162,"1969":6163,"format":6164,"ĠHor":6165,"Ġdescription":6166,"PA":6167,"ĠType":6168,"Ġentered":6169,"Ġapplications":6170,"Ġnorthern":6171,"%)":6172,"Ġchampionship":6173,"Rev":6174,"ennis":6175,"ĠSports":6176,"Ġvirtual":6177,"aria":6178,"service":6179,"Ġ;":6180,"child":6181,"Ġedge":6182,"Ġmanaged":6183,"Ġupper":6184,"ĠPrem":6185,"Ġaccur":6186,"Big":6187,"Ġcontain":6188,"They":6189,"Ġtrial":6190,"ĠPubl":6191,"Ġscript":6192,"inois":6193,"det":6194,"Ġorganizations":6195,"Vis":6196,"ĠCarl":6197,"erse":6198,"Ġwants":6199,"ĠFred":6200,"chen":6201,"ascript":6202,"Ġmaximum":6203,"Ġcultural":6204,"endif":6205,"ĠWin":6206,"itage":6207,"Ġrevealed":6208,"Ġsyn":6209,"Ġframe":6210,"ĠLab":6211,"ĠCoast":6212,"While":6213,"Ġcosts":6214,"Aut":6215,"Notes":6216,"Ġobserved":6217,"Ġaim":6218,"lections":6219,"Ġhistorical":6220,"Ġsche":6221,"ĠPacific":6222,"kin":6223,"Ġrac":6224,"Ġblog":6225,"ĠLead":6226,"ĠNight":6227,"Ġvolume":6228,"ĠTheatre":6229,"Ġmodule":6230,"ĠSoviet":6231,"Ġfactor":6232,"Ġfloor":6233,"Tag":6234,"rich":6235,"Format":6236,"Ġestablishments":6237,"layout":6238,"estic":6239,"iling":6240,"eft":6241,"Ġtemperature":6242,"Ġbatt":6243,"aming":6244,"Ġnumerous":6245,"Ġactions":6246,"odies":6247,"PRO":6248,"ĠRam":6249,"Ġstudied":6250,"Ġrestrict":6251,"font":6252,"mult":6253,"Ġeasily":6254,"Ġapprop":6255,"INE":6256,"inder":6257,"imation":6258,"ĠWall":6259,"front":6260,"oms":6261,"Ġdraft":6262,"edia":6263,"1940":6264,"Ġalt":6265,"Ġfre":6266,"Ġexception":6267,"ĠWild":6268,"ĠScotland":6269,"ested":6270,"uesday":6271,"eqnarray":6272,"ĠJon":6273,"AV":6274,"process":6275,"ĠBoston":6276,"illy":6277,"76":6278,"anging":6279,"acks":6280,"Ġcandidate":6281,"iques":6282,"sen":6283,"ĠMiddle":6284,"eting":6285,"burgh":6286,"Ġbeat":6287,"Ġadministration":6288,"har":6289,"Ġabsol":6290,"Ġidentified":6291,"iced":6292,"Ġresidents":6293,"Gl":6294,"rome":6295,"'.":6296,"Sl":6297,"Style":6298,"Ġtick":6299,"gorithm":6300,"ĠMike":6301,"English":6302,"Ġkept":6303,"Ġswitch":6304,"plete":6305,"epsilon":6306,"Ġfont":6307,"Ġcounty":6308,"ĠBattle":6309,"olec":6310,"ĠGreek":6311,"ĠEX":6312,"Ġ((":6313,"Ġmaterials":6314,"ĠPolice":6315,"ĠQueen":6316,"Ġfine":6317,"while":6318,"Ġfilter":6319,"FONT":6320,"Controller":6321,"ĠJeff":6322,"Port":6323,"Ġvocals":6324,"abeth":6325,"aked":6326,"ishes":6327,"Ġrail":6328,"ĠUnivers":6329,"Ġhuge":6330,"Ġdiss":6331,"Mon":6332,"Ġconference":6333,"ĠAndrew":6334,"Ġadministr":6335,"Ġsexual":6336,"rence":6337,"Ġarmy":6338,"ĠPennsylvania":6339,"Ġplease":6340,"Ġwear":6341,"car":6342,"Ġstreet":6343,"1930":6344,"Equals":6345,"entially":6346,"ila":6347,"ĠOhio":6348,"nesday":6349,"atas":6350,"Ġauth":6351,"ĠFree":6352,"Ġofficers":6353,"Ġbasic":6354,"79":6355,"Sec":6356,"Ġdevices":6357,"psi":6358,"ĠMichigan":6359,"ĠRE":6360,"Ġopin":6361,"small":6362,"Ġcert":6363,"Ġready":6364,"Ġconvert":6365,"Listener":6366,"Ġaudience":6367,"container":6368,"Ġcrew":6369,"ĠKen":6370,"ools":6371,"Open":6372,"ulty":6373,"Br":6374,"onto":6375,"ĠAff":6376,"Ġcovered":6377,"attr":6378,"ĠMuslim":6379,"ructure":6380,"igin":6381,"ela":6382,"UI":6383,"ĠJac":6384,"show":6385,"legal":6386,"Ġpowerful":6387,"ĠMonday":6388,"Ġcore":6389,"ĠChris":6390,"Ġmetal":6391,"Ġclasses":6392,"bin":6393,"ĠInformation":6394,"Ġurl":6395,"Ġfeet":6396,"enth":6397,"Ġunion":6398,"Ġcontinues":6399,"Ġpet":6400,"ĠHospital":6401,"}[":6402,"Ġsust":6403,"ponents":6404,"andon":6405,"ĠMah":6406,"ĠRun":6407,"Ġuniversity":6408,"poses":6409,"ĠBul":6410,"ĠJes":6411,"ĠColor":6412,"Ġaffect":6413,"Ġmachine":6414,"adel":6415,"Ġelections":6416,"ipl":6417,"}}\\":6418,"Ġbottom":6419,"gate":6420,"life":6421,"1967":6422,"Ġinnov":6423,"Ġhandle":6424,"mann":6425,"Ġmentioned":6426,"Ġcars":6427,"Ġdoor":6428,"ez":6429,"Ġcorpor":6430,"ĠMany":6431,"anguages":6432,"Ġattract":6433,"Ġattend":6434,"1945":6435,"unities":6436,"Ġpurs":6437,"Ġhappened":6438,"ĠUkrain":6439,"Ġfeat":6440,"ĠJersey":6441,"Ġdetermined":6442,"Ġextended":6443,"uy":6444,"ĠHa":6445,"ĠEven":6446,"Ġrestaur":6447,"Mode":6448,"}_{\\":6449,"unte":6450,"According":6451,"aval":6452,"heet":6453,"ĠVis":6454,"Ġrelative":6455,"va":6456,"Ġsister":6457,"asure":6458,"Ġemot":6459,"Ġreflect":6460,"hr":6461,"response":6462,"apped":6463,"Ġflag":6464,"ĠJoe":6465,"Ġdamage":6466,"Ġmiles":6467,"number":6468,"scale":6469,"stein":6470,"ova":6471,"Ġgeneration":6472,"cles":6473,"Ġproced":6474,"Sim":6475,"enger":6476,"Ġapply":6477,"ĠStand":6478,"Ġvehicle":6479,"ographic":6480,"ipality":6481,"iy":6482,"found":6483,"(&":6484,"ĠAsian":6485,"iÄ":6486,"Ġwel":6487,"ĠOx":6488,"eces":6489,"Ġequipment":6490,"Ġmobile":6491,"Ġshape":6492,"Ġadvert":6493,"Ġpages":6494,"Ġcustomers":6495,"stra":6496,"rices":6497,"stitution":6498,"final":6499,"Ġlatter":6500,"Ġlibrary":6501,"ĠVan":6502,"TO":6503,"filter":6504,"ĠKent":6505,"ilton":6506,"ĠPhilipp":6507,"SR":6508,"Direct":6509,"82":6510,"Ġlooked":6511,"ocused":6512,"AF":6513,"Ġjoint":6514,"Ġcool":6515,"std":6516,"Ġoperating":6517,"ĠFar":6518,"osen":6519,"wer":6520,"that":6521,"Ġwonder":6522,"ighter":6523,"author":6524,"Ġspot":6525,"Ġcouncil":6526,"fit":6527,"Ġutil":6528,"DF":6529,"1964":6530,"ĠFamily":6531,"ttp":6532,"ĠAcc":6533,"ds":6534,"ĠJr":6535,"Ġsignal":6536,"Ġpolic":6537,"Ġanswer":6538,"Task":6539,"Tem":6540,"Ġraise":6541,"Ġtrav":6542,"Ġexecutive":6543,"Ġfix":6544,"ĠLem":6545,"ĠWal":6546,"Ġclaimed":6547,"Ġtag":6548,"Ġadvant":6549,"ogen":6550,"older":6551,"Ġissued":6552,"Ġaf":6553,"esh":6554,"Ġadopt":6555,"Ġeconomy":6556,"aped":6557,")$.":6558,"ĠApp":6559,"Ġstrateg":6560,"ported":6561,"ĠDaniel":6562,"ĠHistoric":6563,"Ġsumm":6564,"common":6565,"Ġconcert":6566,"ĠOk":6567,"Omega":6568,"Ġahead":6569,"94":6570,"Ġonto":6571,"ĠMid":6572,"Ġdecre":6573,"////////////////":6574,"ĠLim":6575,"update":6576,"Ġextrem":6577,"expected":6578,"Now":6579,"ĠSea":6580,"ruit":6581,"Ġaware":6582,"Ġsequence":6583,"ĠJackson":6584,"orship":6585,"params":6586,"eler":6587,"emic":6588,"Ġrecording":6589,"1920":6590,"Length":6591,"84":6592,"ĠEvery":6593,"74":6594,"remove":6595,"ĠJustice":6596,"aver":6597,"150":6598,"ĠâĢ¦":6599,"etch":6600,"prov":6601,"mt":6602,"ĠSecurity":6603,"ĠHT":6604,"Ġagreed":6605,"hor":6606,"ĠGeorgia":6607,"Ġmeant":6608,"athan":6609,"ĠKong":6610,"///":6611,"Column":6612,"ĠMedical":6613,"etts":6614,"Ġviews":6615,"Ġreasons":6616,"ĠDesign":6617,"Will":6618,"asks":6619,"Ġdaily":6620,"Ġreduced":6621,"Ġnet":6622,"URL":6623,"Ġexactly":6624,"ĠGirl":6625,"ĠBack":6626,"Ġfort":6627,"Ġearth":6628,"KE":6629,"ql":6630,"uri":6631,"uls":6632,"Select":6633,"des":6634,"ĠNS":6635,"ERR":6636,"Gamma":6637,"Ġ\\,":6638,"lig":6639,"ĠIllinois":6640,"Max":6641,"Ġdefeated":6642,"ĠSecretary":6643,"93":6644,"ĠProvince":6645,"Ġkids":6646,"Ġsample":6647,"ĠTwitter":6648,"Ġpush":6649,"ĠLicense":6650,"ourney":6651,"arters":6652,"else":6653,"ĠDown":6654,"Ġtracks":6655,"Ne":6656,"Ġdream":6657,"Ġharm":6658,"1965":6659,"itory":6660,"irds":6661,"ĠEgypt":6662,"inton":6663,"_.":6664,"aser":6665,"ĠOrgan":6666,"Ġrailway":6667,"ĠNY":6668,"Ġunknown":6669,"iser":6670,"Ġsupply":6671,"Ġstrategy":6672,"omic":6673,"annot":6674,"âĢĿ,":6675,"Ġregional":6676,"secut":6677,"Aust":6678,"Valid":6679,"Ġagree":6680,"Label":6681,"Ġidentity":6682,"Ġpp":6683,"Ġargument":6684,"ifications":6685,"Ġyouth":6686,"BO":6687,"AND":6688,"Location":6689,"Ġunderstanding":6690,"Fe":6691,"Ġreduce":6692,"umin":6693,"Address":6694,"ĠGlobal":6695,"Ġdiscovered":6696,"ĠStan":6697,"Ġleadership":6698,"cs":6699,"ĠGi":6700,"nergy":6701,"Ġcomponents":6702,"Ġsport":6703,"ĠWho":6704,"phone":6705,"Ġfixed":6706,"Dev":6707,"Ġideas":6708,"Fig":6709,"Ġdetermine":6710,"Filter":6711,"Ġsell":6712,"sear":6713,"ĠCro":6714,"Ã¢":6715,"Ġdriver":6716,"aya":6717,"cks":6718,"Ġserving":6719,"uts":6720,"javascript":6721,"Ġarticles":6722,"<?":6723,"claim":6724,"phy":6725,"ĠSte":6726,"raq":6727,"Current":6728,"Ġrates":6729,"achus":6730,"Ġstorage":6731,"orney":6732,"Button":6733,"Ġ${\\":6734,"Bundle":6735,"rical":6736,"Ġhour":6737,"nce":6738,"aly":6739,"eless":6740,"1966":6741,"ictures":6742,"Ġagent":6743,"FO":6744,"Ġcrow":6745,"dec":6746,"Ġholds":6747,"water":6748,"atically":6749,"Ġbeautiful":6750,"ĠâĢ¢":6751,"Ġinitially":6752,"Ġcolon":6753,"bra":6754,"mir":6755,"Ġhappen":6756,"ĠRo":6757,"92":6758,"arser":6759,"Åį":6760,"aints":6761,"1000":6762,"Ġut":6763,"inent":6764,"Ġreality":6765,"Ġtoward":6766,"Track":6767,"ĠDisc":6768,"Some":6769,"ĠHand":6770,"BI":6771,"Me":6772,"azing":6773,"Ġtraffic":6774,"Ġsector":6775,"Ġprofile":6776,"ĠBrook":6777,"Ġdepart":6778,"ĠIndust":6779,"imary":6780,"alysis":6781,"Ġsafe":6782,"ĠPolit":6783,"Members":6784,"ifically":6785,"Ġcontaining":6786,"cor":6787,"71":6788,"ĠFour":6789,"Ġbelieved":6790,"Ġwinner":6791,"Our":6792,"Ġbass":6793,"âĢĺ":6794,"aret":6795,"BU":6796,"afe":6797,"Ġreferred":6798,"ĠRepublican":6799,"Ġgenerated":6800,"ancer":6801,"cit":6802,"ione":6803,"Ġhero":6804,"othing":6805,"ĠTw":6806,"ĠKorea":6807,"efined":6808,"Ġpolitics":6809,"output":6810,"Ġexists":6811,"Ġmarriage":6812,"mail":6813,"vec":6814,"ĠThursday":6815,".;":6816,"una":6817,"nic":6818,"ĠFC":6819,"oded":6820,"wrap":6821,"National":6822,"fa":6823,"Init":6824,"Ġequival":6825,"oted":6826,"ĠBoth":6827,"Ġplanning":6828,"Ġoperator":6829,"Career":6830,"Ġhyp":6831,"ĠLittle":6832,"Ev":6833,"Ġfresh":6834,"Ġcombined":6835,"Ġactors":6836,"ĠCLASS":6837,"Ġnomin":6838,"onym":6839,"going":6840,"Ġ<!--":6841,"ĠBroad":6842,"ensor":6843,"Ġperhaps":6844,"Ġfellow":6845,"Ġtrou":6846,"endar":6847,"Ġscope":6848,"ouble":6849,"ographer":6850,"Ġcensus":6851,"ĠAbout":6852,":</":6853,"power":6854,"Ġcomedy":6855,"Ġlock":6856,"ĠLi":6857,"izabeth":6858,"Url":6859,"Ġconclud":6860,"after":6861,"Ġwestern":6862,"ĠBor":6863,"ĠBern":6864,"73":6865,"mut":6866,"ĠDar":6867,"Frame":6868,"opher":6869,"Ġcrime":6870,"ented":6871,"Ġstock":6872,"Ġcorresponding":6873,"ĠAuthor":6874,"named":6875,"Ġmixed":6876,"Inst":6877,"ORT":6878,"Since":6879,"menu":6880,"Ġ>>":6881,"Cal":6882,"Ġnegative":6883,"Ġ!==":6884,"Ġinvestigation":6885,"ĠEdward":6886,"Ġliterature":6887,"star":6888,"opyright":6889,"Ġfit":6890,"Ġcitizens":6891,"ĠFederal":6892,"ĠInternet":6893,"Types":6894,"clusive":6895,"Ġflight":6896,"odd":6897,"Dec":6898,"Ġenh":6899,"').":6900,"à¥":6901,"Ġbrain":6902,"vare":6903,"ĠKey":6904,"ĠPrince":6905,"Ġfan":6906,"rovers":6907,"rees":6908,"Ġconducted":6909,"ĠApple":6910,"Ġancient":6911,"num":6912,"Ġskills":6913,"break":6914,"Offset":6915,"spe":6916,"achusetts":6917,"Ġincorpor":6918,"Op":6919,"Gu":6920,"inson":6921,"Ġrequires":6922,"Ġmuseum":6923,"kit":6924,"psilon":6925,"abilities":6926,"Ġintended":6927,"Ġdanger":6928,"Ġbed":6929,"Ġfactors":6930,"etime":6931,"Ġfailure":6932,"ĠPoint":6933,"Update":6934,"Ġsquare":6935,"Ġchallenge":6936,"ĠMethod":6937,"Ġempty":6938,"ivery":6939,"QL":6940,"Ġshowing":6941,"Ġcoordin":6942,"scope":6943,"][":6944,"ĠAR":6945,"Ġdedicated":6946,"Ġpal":6947,"Ġregarding":6948,"ĠÂ»":6949,"Ġil":6950,"uing":6951,"ĠPolicy":6952,"^{(":6953,"Ġresear":6954,"ĠReport":6955,"Layout":6956,"ĠTuesday":6957,"free":6958,"Ġbul":6959,"offset":6960,"?:":6961,"Ġarrived":6962,"83":6963,"Ġpoliticians":6964,"Ġsquad":6965,"ĠPrime":6966,"DS":6967,"ĠBang":6968,"ALL":6969,"rangle":6970,"prototype":6971,"isms":6972,"sqrt":6973,"Ġzero":6974,"Ġconsult":6975,"Mark":6976,"ĠChristmas":6977,"cap":6978,"Ġconsists":6979,"ĠStat":6980,"Ġapparent":6981,"rawn":6982,"Ġships":6983,"ĠHy":6984,"ĠLu":6985,"ĠEach":6986,"Ġtells":6987,"Ġenem":6988,"Ġdoll":6989,"ĠRet":6990,"Ġfunding":6991,"iki":6992,"Are":6993,"Ã±":6994,"Ġresulting":6995,"ĠColl":6996,"lers":6997,"Ø§":6998,"ĠMcC":6999,"ĠPass":7000,"ategories":7001,"Ġreform":7002,"Ġdance":7003,"osa":7004,"Ġ~":7005,"ĠWrit":7006,"Ġtruth":7007,"ĠWednesday":7008,"Ġexchange":7009,"Ġanimals":7010,"Provider":7011,"ĠBeach":7012,"ban":7013,"elly":7014,"column":7015,"Ġchoose":7016,"Ġthinking":7017,"circ":7018,"Server":7019,"Ġobj":7020,"occer":7021,"ĠBBC":7022,"Ġpropos":7023,"Ġpi":7024,"ĠĠĠĠĠĠĠĠĠĠĠĠĠĠĠĠĠĠĠĠĠĠĠĠĠĠĠĠĠĠĠĠĠĠĠ":7025,"91":7026,"scape":7027,"81":7028,"ĠView":7029,"enant":7030,"Ġmotor":7031,"ĠHREF":7032,"ci":7033,"Ġemployees":7034,"Ġsynt":7035,"ĠGovernor":7036,"ĠEastern":7037,"ecute":7038,"Ġregions":7039,"Cons":7040,"Ġconfirmed":7041,"Ġsettlement":7042,"desc":7043,"Cache":7044,"Year":7045,"Ġcategory":7046,"Ġplants":7047,"Ġinterested":7048,"1963":7049,"ERT":7050,"gency":7051,"Ġmatrix":7052,"ifer":7053,"EW":7054,"okes":7055,"ensions":7056,"ĠRom":7057,"ĠAPI":7058,"World":7059,"Ġchart":7060,"ĠKim":7061,"Ġobvious":7062,"ji":7063,"Ġnotes":7064,"styles":7065,"atalog":7066,"^*":7067,"Ġtransition":7068,"Ġfacilities":7069,"ĠRay":7070,"rie":7071,"oir":7072,"Ġattacks":7073,"look":7074,"Ġvisual":7075,"Home":7076,"Ġsucceed":7077,"Ġlabor":7078,"present":7079,"Ġcrick":7080,"Ġfell":7081,"gers":7082,"ĠSom":7083,"Ġcallback":7084,"Ġleaves":7085,"Ġbiggest":7086,"ĠLight":7087,"Ġax":7088,"apos":7089,"Ġsun":7090,"++)":7091,"ĠStation":7092,"ĠMic":7093,"iat":7094,"PO":7095,"Tree":7096,"pool":7097,"DB":7098,"ĠMap":7099,"teen":7100,"CS":7101,"AY":7102,"ĠHong":7103,"ĠOtt":7104,"ĠWalk":7105,"********************************":7106,"oves":7107,"ĠTaylor":7108,"Ġbudget":7109,"Case":7110,"Ġhappy":7111,"onia":7112,"di":7113,"lets":7114,"Ġtrip":7115,"Dep":7116,"Ġfloat":7117,"ĠRog":7118,"Target":7119,"Ġquery":7120,"Ġtesting":7121,")$,":7122,"Pat":7123,"Ġinjury":7124,"stone":7125,"zen":7126,"Output":7127,"ĠLo":7128,"Ġcommit":7129,"frame":7130,"iner":7131,"STR":7132,"ĠRepresent":7133,"Ġven":7134,"ĠCEO":7135,"then":7136,"ĠSher":7137,"Ġtherap":7138,"```":7139,"COL":7140,"Ġvir":7141,"Ġbomb":7142,"Ġrom":7143,"pet":7144,"ĠCa":7145,"ĠDutch":7146,"Ġpatient":7147,"Ġproceed":7148,"ĠPlan":7149,"Ġlett":7150,"Ġviolence":7151,"imer":7152,"Ġinfo":7153,"ĠLatin":7154,"Ġdatabase":7155,"ĠStudies":7156,"Ġinterpret":7157,"instance":7158,"ĠOR":7159,"ĠMajor":7160,"Ġprofessor":7161,"ulpt":7162,"rightarrow":7163,"1962":7164,"bro":7165,"Ġdefinition":7166,"otes":7167,"Ġbridge":7168,"ĠTri":7169,"ĠWis":7170,"Ġamb":7171,"resents":7172,"Films":7173,"ĠPortug":7174,"Ġtests":7175,"oes":7176,"Ġtheme":7177,"Ġmainly":7178,"Ġawards":7179,"Ġcreation":7180,"IB":7181,"Ġdig":7182,"ĠDE":7183,"Width":7184,"Ġrise":7185,"Ġprotection":7186,"Ke":7187,"Ġstarts":7188,"MO":7189,"Ġweak":7190,"subsection":7191,"ĠExt":7192,"Ġplot":7193,"ART":7194,"ĠObama":7195,"Ġtermin":7196,"Ġeye":7197,"hens":7198,"Ġpositions":7199,"Ġburn":7200,"Ġcamera":7201,"ĠAud":7202,"Ġtools":7203,"Ġalternative":7204,"Ġinvestment":7205,"Ġestimated":7206,"ĠSpring":7207,"Ġvector":7208,"Ġcredit":7209,"aine":7210,"lyn":7211,"Ġuseful":7212,"ĠProfessor":7213,"ologist":7214,"ĠCur":7215,"ĠLive":7216,"Ġcalling":7217,"ĠKenn":7218,"ĠLy":7219,"emph":7220,"Sche":7221,"ydney":7222,"Ġshift":7223,"urer":7224,"Brit":7225,"ĠCorporation":7226,"SU":7227,"require":7228,"ĠBell":7229,"writer":7230,"SH":7231,"Ġhouses":7232,"anth":7233,"pop":7234,"Ġhousing":7235,"Ġdomain":7236,"ĠMaster":7237,"ĠSus":7238,"Sm":7239,"Ġdefine":7240,"Ġpit":7241,"Ġgone":7242,"Ġarchitecture":7243,"Ġast":7244,"Row":7245,"anna":7246,"Ġenvironmental":7247,"Ġsingles":7248,"ĠGener":7249,"oles":7250,"sd":7251,"Ġplanned":7252,"Search":7253,"Ġearned":7254,"Ġpicture":7255,"utt":7256,"Ġextension":7257,"ĠFund":7258,"VD":7259,"kee":7260,"Access":7261,"Ġtypically":7262,"ĠReal":7263,"arant":7264,"Dem":7265,"ĠAdminist":7266,"Ġsomew":7267,"Ġretain":7268,"ĠCH":7269,"ĠJean":7270,"Ġbranch":7271,"Ġpanel":7272,"ĠPakistan":7273,"ĠLike":7274,"ependence":7275,"NO":7276,"ĠLew":7277,"United":7278,"Ġ[]":7279,"Ġgirls":7280,"cat":7281,"CP":7282,"ĠSteve":7283,"frast":7284,"crete":7285,"??":7286,"Ġspin":7287,"Ġstuff":7288,"yo":7289,"lywood":7290,"amber":7291,"Ġsurvey":7292,"hemat":7293,"ĠSection":7294,"ĠGuard":7295,"ĠPen":7296,"Ġrapid":7297,"ĠColumbia":7298,"Ġfuel":7299,"ĠFile":7300,"pective":7301,"evin":7302,"Ġreviews":7303,"CON":7304,"Ġaccepted":7305,"oster":7306,"Ġepisodes":7307,"unit":7308,"ĠMassachusetts":7309,"ĠCommon":7310,"Ġwarm":7311,"note":7312,"Ġrain":7313,"Ġfinish":7314,"Ġallowing":7315,"cript":7316,"Ġleads":7317,"Ġcommunication":7318,"ĠWilson":7319,"Ġdistinct":7320,"ZE":7321,"Ġlayer":7322,"ĠScottish":7323,"Ġpredict":7324,"ĠRod":7325,"ĠIraq":7326,"Ġsolutions":7327,"Sw":7328,"ĠCat":7329,"ĠLast":7330,"Ġfashion":7331,"ĠVill":7332,"ĠSpace":7333,"Ġbegins":7334,"1944":7335,"Ġacademic":7336,"uda":7337,"apse":7338,"fs":7339,"120":7340,"adelph":7341,"dest":7342,"Ġnuclear":7343,"ras":7344,"Stat":7345,"Ġmist":7346,"Ġlinear":7347,"ESS":7348,"ĠMatt":7349,"aa":7350,"Ġmyst":7351,"Ġthread":7352,"ĠPoland":7353,"Book":7354,"Ġfeaturing":7355,"Ġoffset":7356,"ĠThree":7357,"ĠFair":7358,"Local":7359,"Ġsplit":7360,"Ġnotice":7361,"ĠToronto":7362,"ĠAk":7363,"Ġspeech":7364,"Ġbelong":7365,"ĠSupreme":7366,"Ġvehicles":7367,"ĠRen":7368,"Ġdownload":7369,"pton":7370,"Ġtradition":7371,"Ġfrag":7372,"Ġfant":7373,"Ġtalking":7374,"Ġdiagn":7375,"Ġclubs":7376,"ĠAmericans":7377,"}=":7378,"Ġappropriate":7379,"ĠWars":7380,"Ġconsequ":7381,"Ġproof":7382,"ĠAsh":7383,"grade":7384,"Ġoperated":7385,"Ġretired":7386,"Ġglass":7387,"ennes":7388,"ĠFox":7389,"Ġherself":7390,"Ġdie":7391,"1961":7392,"Ġ``":7393,"law":7394,"textbf":7395,"Ġclearly":7396,"Ġdescribe":7397,"adelphia":7398,"Ġgovern":7399,"Ġconvers":7400,"ervative":7401,"ĠBad":7402,"sor":7403,"./":7404,"Bo":7405,"ĠInit":7406,"ideos":7407,"ais":7408,"}^{\\":7409,"sign":7410,"Ġhonor":7411,"Ġoptim":7412,"ĠMir":7413,"uzz":7414,"drop":7415,"Bi":7416,"ĠOxford":7417,"ĠDaily":7418,"posite":7419,"float":7420,"yard":7421,"TYPE":7422,"hab":7423,"Ġacquired":7424,"root":7425,"Ġterror":7426,"Ġminister":7427,"Ġcombination":7428,"ecutive":7429,"Ġarguments":7430,"SD":7431,"ito":7432,"ĠBon":7433,"ĠCorn":7434,"?\"":7435,"icip":7436,"sey":7437,"pes":7438,"thur":7439,"ocated":7440,"ĠAND":7441,"Ġ**":7442,"Ġera":7443,"Prot":7444,"mem":7445,"ads":7446,"uint":7447,"Ġexperi":7448,"riptor":7449,"Ġconfiguration":7450,"Ġsmart":7451,"orrow":7452,"card":7453,"Ġsteps":7454,"ictionary":7455,"Ġfacility":7456,"La":7457,"Ġstrength":7458,"Ġmaybe":7459,"Ġoccurred":7460,"Ġformation":7461,"Results":7462,"ryst":7463,"Ġnearby":7464,"########":7465,"Ġgrew":7466,"Google":7467,"=\"../../../../../":7468,"PH":7469,"Ġfocused":7470,"Ġdefense":7471,"ĠAD":7472,"Ġalongside":7473,"pan":7474,"urd":7475,"ws":7476,"skip":7477,"iciency":7478,"ĠFre":7479,"Ġhair":7480,"Ġpersonnel":7481,"âĢ¢":7482,"Ġcouldn":7483,"izont":7484,"Ġheat":7485,"Ġmys":7486,"Ġnom":7487,"actor":7488,"Ġinn":7489,"ĠBol":7490,"ĠWhe":7491,"aml":7492,"Ġchain":7493,"Red":7494,"Ġlies":7495,"Ġprotein":7496,"Ġathlet":7497,"Ġbenefit":7498,"Ġsignificantly":7499,"Ġslightly":7500,"IGN":7501,")=":7502,"ĠTro":7503,")]":7504,"vin":7505,"Ġprocessing":7506,"ĠAssert":7507,"ĠNOT":7508,"Ġcloud":7509,"Ġexcell":7510,"unct":7511,"Fin":7512,"Å¡":7513,"Ġdistributed":7514,"Enc":7515,"ĠIslands":7516,"ĠAL":7517,"Project":7518,"Ġresident":7519,"ployment":7520,"Ġprocesses":7521,"Ġnorm":7522,"Ġexerc":7523,"should":7524,"ĠCreek":7525,"ĠBa":7526,"template":7527,"Ġrelatively":7528,"proof":7529,"Ġpra":7530,"Ġtend":7531,"classes":7532,"inking":7533,"Unit":7534,"ĠThus":7535,"Ġordered":7536,"Ġpeace":7537,"Ġstandards":7538,"Ġchosen":7539,"Child":7540,"Ġtele":7541,"frastructure":7542,"rig":7543,"irty":7544,"Ġcontrast":7545,"Ġfifth":7546,"Ġdriving":7547,"Ġliber":7548,"bles":7549,"(_":7550,"ĠViet":7551,"unny":7552,"Ġtechnical":7553,"Entry":7554,"Ġspring":7555,"Sing":7556,"ĠVictoria":7557,"document":7558,"ĠAlexander":7559,"Ġyield":7560,"ĠRights":7561,"Ġfish":7562,"ĠBerlin":7563,"icer":7564,"oured":7565,"'),":7566,"wa":7567,"allel":7568,"orders":7569,"Ġsand":7570,"inity":7571,"Down":7572,"Ġbuffer":7573,"RL":7574,"friend":7575,"ĠSciences":7576,"ĠElizabeth":7577,"night":7578,"IST":7579,"ego":7580,"bal":7581,"Ġexpansion":7582,"Ġfunds":7583,"ĠOnly":7584,"sel":7585,"pa":7586,"ĠAvenue":7587,"ups":7588,"ami":7589,"Ġdeveloping":7590,"ĠMicrosoft":7591,"oving":7592,"Ġkick":7593,"ipping":7594,"1958":7595,"riev":7596,"Ġpackage":7597,"Ġbusinesses":7598,"ello":7599,"acle":7600,"ĠName":7601,"ĠAmazon":7602,"bound":7603,"ĠCheck":7604,"ĉĉĉĉĉĉĉ":7605,"Ġtwice":7606,"rior":7607,"obe":7608,"Po":7609,"uv":7610,"olis":7611,"ĠEst":7612,"returns":7613,"Ġcris":7614,"Ġsuggested":7615,"Ġprepar":7616,"Ġphoto":7617,"hetic":7618,"Ġassociation":7619,"idel":7620,"Ġcycl":7621,"ĠTrust":7622,"1959":7623,"white":7624,"University":7625,"resource":7626,"Ġcoal":7627,"1942":7628,"Ġlanguages":7629,"ĠUse":7630,"Ġcorner":7631,"empty":7632,"SL":7633,"Ġrelevant":7634,"Ġrich":7635,"apore":7636,"Ġaccident":7637,"uilt":7638,"annels":7639,"Order":7640,"oder":7641,"Ġpan":7642,"ĠHu":7643,"ĠEvent":7644,"Ġreject":7645,"Sports":7646,"à¸":7647,"Ġseconds":7648,"ushed":7649,"Ġdefend":7650,"Acc":7651,"poss":7652,"ĠSa":7653,"kind":7654,"Ġicon":7655,"Interface":7656,"Ġpoly":7657,"Ġmotion":7658,"Ġsale":7659,"1956":7660,"Ġplus":7661,"ĠBand":7662,"sort":7663,"iable":7664,"ĠInvest":7665,"Ġunless":7666,"ĠTal":7667,"Ġwave":7668,"ĠPhys":7669,"entity":7670,"ader":7671,"Ġacting":7672,"Ġadvanced":7673,"Ġfigures":7674,"iÄĩ":7675,"ederation":7676,"aste":7677,"Ġbenefits":7678,"Posted":7679,"Ġfear":7680,"ĠCare":7681,"ĠBecause":7682,"alo":7683,"ĠArea":7684,"Ġrepresents":7685,"sche":7686,"Ġroles":7687,":#":7688,"Ġportion":7689,"ĠAnth":7690,"OK":7691,"pling":7692,"ĠAli":7693,"Ġsoldiers":7694,"WE":7695,"Further":7696,"ĠTam":7697,"artifact":7698,"ilation":7699,"Ġrequirements":7700,"ĠWindows":7701,"Ġdecades":7702,"ĠForest":7703,"Ġnor":7704,"dist":7705,"ĠCirc":7706,"Ġexpert":7707,"ĠIP":7708,"1948":7709,"Ġfighting":7710,"ĠSon":7711,"varepsilon":7712,"appe":7713,"Ġrecommend":7714,"Que":7715,"CM":7716,"Ġdetail":7717,"ĠEnt":7718,"Ġinstrument":7719,"ULT":7720,"Ġindustrial":7721,"Ġaccomp":7722,"direct":7723,"Ag":7724,"atever":7725,"ading":7726,"ĠArray":7727,"Ġversions":7728,"ducing":7729,"Header":7730,"These":7731,"Ġfaith":7732,"Ġjobs":7733,"()->":7734,"Ġcertainly":7735,"Here":7736,"Ġexamples":7737,"anner":7738,"ĠBelg":7739,"leton":7740,"Ġfreedom":7741,"ĠWhy":7742,"Ġminimum":7743,"Ġconstructed":7744,"Ġspons":7745,"avid":7746,"ometry":7747,"Ġends":7748,"Ġprimarily":7749,"raham":7750,"Ġevolution":7751,"Ġadvantage":7752,"Ġhydro":7753,"second":7754,"Ġbaseball":7755,"([":7756,"Ġhistoric":7757,"umes":7758,"ACK":7759,"unes":7760,"ĠEU":7761,"ĠArm":7762,"Ġdiscussion":7763,"Parameter":7764,"Ġtrees":7765,"Ġtroops":7766,"edge":7767,"ĠAny":7768,"owa":7769,"ĠSydney":7770,"]);":7771,"itled":7772,"Ġ::":7773,"plement":7774,"1939":7775,"ifies":7776,"Ġlocations":7777,"Ġmonitor":7778,":\"":7779,"API":7780,"Ġdocuments":7781,"Â°":7782,"600":7783,"ĠRail":7784,"asters":7785,"Window":7786,"worth":7787,"ĠSanta":7788,"aga":7789,"Ġsilver":7790,"ĠSant":7791,"Write":7792,"conf":7793,"Ġnewspaper":7794,"care":7795,"ĠArgent":7796,"Ġkid":7797,"ĠRon":7798,"Ġcontrovers":7799,"osophy":7800,"Ġguy":7801,"1957":7802,"consin":7803,"Ġweekend":7804,"ĠAction":7805,"control":7806,"}).":7807,"Ġtrend":7808,"ĠDonald":7809,"Ġurban":7810,"ĠEnergy":7811,"Callback":7812,"Ġinstitutions":7813,"ĠNote":7814,"Ġcomposed":7815,"Ġlearned":7816,"ĠReturns":7817,"Ġadvance":7818,"tree":7819,"ĠTH":7820,"ĠDate":7821,"Ġpieces":7822,"rizona":7823,"Ġperman":7824,"apes":7825,"Ġweather":7826,"Ġsides":7827,"Nov":7828,"ĠBal":7829,"Ġhotel":7830,"ashed":7831,"250":7832,"Ġcommittee":7833,"sex":7834,"enter":7835,"ĠBooks":7836,"isa":7837,"gar":7838,"Ġmeasures":7839,"Ġlen":7840,"eman":7841,"Ġpolicies":7842,"ori":7843,"Ġholding":7844,"ĠEngineering":7845,"Ġvariable":7846,"ibli":7847,"reference":7848,"Ġscientific":7849,"ĠHind":7850,"organ":7851,"ĠNC":7852,"ĠOnt":7853,"pson":7854,"Ġauthorities":7855,"cache":7856,"Ġspeak":7857,"engers":7858,"ĠHung":7859,"idi":7860,"before":7861,"Non":7862,"Ġfavorite":7863,"etherlands":7864,"ä¸":7865,"Ġadding":7866,"Ġdelay":7867,"lan":7868,"ependency":7869,"Ġadvent":7870,"Ġargs":7871,"itable":7872,"parse":7873,"ĠNic":7874,"Ġincident":7875,"Ġestate":7876,"Ġlargely":7877,"Ġimplementation":7878,"Thread":7879,"Ġfootballer":7880,"Ġengineering":7881,"MM":7882,"bourne":7883,"Public":7884,"ective":7885,"kes":7886,"know":7887,"bool":7888,"{{":7889,"1943":7890,"ĠHard":7891,"Ġiniti":7892,"Ġagency":7893,"Ġrural":7894,"obs":7895,"Ġinspired":7896,"render":7897,"ĠStory":7898,"Ġnarr":7899,"ĠVen":7900,"ĠAnton":7901,"=\"-":7902,"ĠKir":7903,"Ġrh":7904,"Ġassigned":7905,"eral":7906,"Ġsettings":7907,"ĠEqu":7908,"Ġclick":7909,"aki":7910,"Ġfinding":7911,"ĠRailway":7912,"Ġfavour":7913,"Ġgenus":7914,"akh":7915,"Module":7916,"Ġrepresentation":7917,"ĠSu":7918,"ĠEnvironment":7919,"istration":7920,"Ġrul":7921,"BL":7922,"1941":7923,"Ġly":7924,"Why":7925,"Ġgain":7926,"Control":7927,"ĠAdv":7928,"Ġopportunities":7929,"Ġuint":7930,"His":7931,"ĠMinistry":7932,"phas":7933,"scription":7934,"END":7935,"Mult":7936,"ĠUr":7937,"icker":7938,"Ġstorm":7939,"jection":7940,"oses":7941,"high":7942,"Ġhockey":7943,"ricts":7944,"Utils":7945,"Container":7946,"Ġeastern":7947,"othes":7948,"Ġvotes":7949,"strap":7950,"Process":7951,"ĠEll":7952,".'":7953,"Ġthousands":7954,"Ġopinion":7955,"Ġsemi":7956,"HS":7957,"Ġbow":7958,"1946":7959,"ĠTy":7960,"Position":7961,"dates":7962,"ctx":7963,"fix":7964,"ĠWel":7965,"ĠIns":7966,"TER":7967,"ĠBall":7968,"Ġcontemporary":7969,"Ġsan":7970,"ture":7971,"buffer":7972,"ĠStephen":7973,"Ġarms":7974,"Sign":7975,"Ġsolo":7976,".\\":7977,"ĠSat":7978,"ĠÅ":7979,"Ġalleged":7980,"regon":7981,"ĠPC":7982,"Ġwrap":7983,"Ġsubsequently":7984,"shall":7985,"ĠKorean":7986,"je":7987,"Ġseeing":7988,"Entity":7989,"ĠLtd":7990,"Ġsubs":7991,"Ġreceiving":7992,"Ġelev":7993,"aska":7994,"():":7995,"ĠPage":7996,"Ġcart":7997,"ĠAnother":7998,"Ġpartnership":7999,"ĠOfficial":8000,"ĠHun":8001,"ĉĠĠĠ":8002,"Ġwidely":8003,"pg":8004,"ĠPrize":8005,"ĠLind":8006,"Ġposted":8007,"Ġring":8008,"1955":8009,"Height":8010,"ĠSong":8011,"Ã£":8012,"aph":8013,"Ob":8014,"British":8015,"Script":8016,"Ġtechniques":8017,"Music":8018,"how":8019,"Ġexternal":8020,"Ġcandidates":8021,"ĠCreate":8022,"ĠCON":8023,"Ġexpressed":8024,"Ġcab":8025,"Ġmyself":8026,"Ġwish":8027,"ĠRome":8028,"ĠPers":8029,"ĠLabor":8030,"Ġscheme":8031,"Ġidentify":8032,"Ġprotest":8033,"ĠHay":8034,"Ġmel":8035,"ĠRaj":8036,"antry":8037,"Ġmountain":8038,"ĠCub":8039,"imension":8040,"cr":8041,"Ġsupporting":8042,"None":8043,"ĠWat":8044,"udden":8045,"ingham":8046,"Ġknows":8047,"Ġec":8048,"sv":8049,"Ġmarked":8050,"ĠChildren":8051,"values":8052,"Ġwinners":8053,"ĠCre":8054,"izontal":8055,"Ġisol":8056,"Settings":8057,"ĠMath":8058,"Ġscholar":8059,"Ġagric":8060,"Ġflat":8061,"ĠToday":8062,"ĠNick":8063,"Level":8064,"Long":8065,"ĠFurther":8066,"ĠLady":8067,"South":8068,"Ġauthority":8069,"Ġretail":8070,"Ġjourney":8071,"Ġmolec":8072,"match":8073,"Ġsleep":8074,"Ġnewly":8075,"ceived":8076,"ĠSab":8077,"Just":8078,"1952":8079,"Ä±":8080,"Ġapproved":8081,"Ġdivers":8082,"Ġregistered":8083,"Ġnice":8084,"outs":8085,"Ġphen":8086,"German":8087,"Ġfiction":8088,"construct":8089,"ĠOlympic":8090,"zech":8091,"pute":8092,"Ġassistant":8093,"ĠTrue":8094,"ouri":8095,"Ġclassical":8096,"ĠDam":8097,"command":8098,"Ġvent":8099,"ĠLocal":8100,"Disc":8101,"1947":8102,"ĠNations":8103,"ĠCountry":8104,"cert":8105,"Ġacid":8106,"Ġcerem":8107,"Ġcriminal":8108,"token":8109,"Ġtitles":8110,"Ġfinds":8111,"Ġseemed":8112,"Ġsurg":8113,"awn":8114,"sky":8115,"ika":8116,"adesh":8117,"ootstrap":8118,"Change":8119,"ĠGreg":8120,"Ġextremely":8121,"Configuration":8122,"Ġadjust":8123,"Ġguard":8124,"ded":8125,"mosp":8126,"vas":8127,"TA":8128,"rot":8129,"Ġanimal":8130,"ĠMinnes":8131,"aug":8132,"ĠDavis":8133,"utils":8134,"Ġlisten":8135,"Ðº":8136,"nap":8137,"}/":8138,"ĠGer":8139,"ctors":8140,"ĠCA":8141,"ĠLater":8142,"RI":8143,"Ġimportance":8144,"ython":8145,"Ġarrested":8146,"rim":8147,"Ġecho":8148,"ĠStadium":8149,"ĠFood":8150,"Ġadj":8151,"ĠĠĠĠĠĠĠĠĠĠĠĠĠĠĠĠĠĠĠĠĠ":8152,"Ġdestroyed":8153,"iga":8154,"VAL":8155,"ĠTok":8156,"Ġsecondary":8157,"rine":8158,"files":8159,"Ġoffering":8160,"zz":8161,"irement":8162,"Ġprove":8163,"tml":8164,"ĠBrad":8165,"Ġpossibly":8166,"Ġcomfort":8167,"Ġvon":8168,"HO":8169,"ussian":8170,"arry":8171,"Ġwouldn":8172,"ĠCy":8173,"Ġentr":8174,"ĠFinal":8175,"ĠCode":8176,"Record":8177,"anz":8178,"Ġprovince":8179,"LC":8180,"Ġbatter":8181,"roke":8182,"1953":8183,"Ġrecognized":8184,"ĠMinnesota":8185,"Net":8186,"sf":8187,"ĠRevolution":8188,"Ġjudge":8189,"rency":8190,"Ġprogramming":8191,";->":8192,"ĠTurn":8193,"Pass":8194,"ĠPlaces":8195,"Ġwitness":8196,"Ġsurrounding":8197,"Ġcollected":8198,"Austral":8199,"ĠSupport":8200,"Ġteaching":8201,"Ġnegot":8202,"Ġinstalled":8203,"Ġequivalent":8204,"Ġaffected":8205,"ĠTurkey":8206,"ĠPhiladelphia":8207,"Ġturns":8208,"ĠKr":8209,"Ġanaly":8210,"ĠMill":8211,"ingly":8212,"perial":8213,"Ġpool":8214,"Ġlosing":8215,"ordan":8216,"800":8217,"Ġchampion":8218,"Ġ{}":8219,"Ġiter":8220,"1954":8221,"nections":8222,"Ġcharges":8223,"egraphics":8224,"window":8225,"Empty":8226,"includegraphics":8227,"Ġcontest":8228,"Ġassign":8229,"Ġfestival":8230,"Ġflood":8231,"ĠGolden":8232,"Ġdifferences":8233,"Ġheav":8234,"wing":8235,"Ġxml":8236,"aren":8237,"Ġsculpt":8238,"Ġaren":8239,"Ġofficially":8240,"Ġcycle":8241,"AGE":8242,"Ð»":8243,"Ġsac":8244,"ropical":8245,"Ġsqu":8246,"Ġconcerns":8247,"Ġserves":8248,"ĠPolish":8249,"Ġmarketing":8250,"HL":8251,"Ġappearances":8252,"auth":8253,"ĠDer":8254,"Ġsuccessfully":8255,"ifest":8256,"artifactId":8257,"Ġfeeling":8258,"anes":8259,"ects":8260,"asty":8261,"ĠInf":8262,"igrants":8263,"geq":8264,"Ġvision":8265,"ĠEth":8266,"internal":8267,"bul":8268,"Ġneighborhood":8269,"Document":8270,"Ġneut":8271,"ĠLes":8272,"Ġachieved":8273,"ĠCorps":8274,"mbox":8275,"Ġcold":8276,"Ġraces":8277,"Ġauthors":8278,"Ġthanks":8279,"ĠNet":8280,"Ġrough":8281,"ĠEric":8282,"tainment":8283,"Ġswim":8284,"ĠUt":8285,"andy":8286,"Ġnetworks":8287,"Ġce":8288,"Range":8289,"ician":8290,"initely":8291,"ĠEs":8292,"Ġstone":8293,"Ġchemical":8294,"ĠOntario":8295,"110":8296,"Ġpurchase":8297,"Ġlicense":8298,"Ġresolution":8299,"stack":8300,"cf":8301,"=\"../../../../../../":8302,".}":8303,"ME":8304,"Ġevening":8305,"Ġdeclared":8306,"However":8307,"Ġhabit":8308,"ĠCommand":8309,"ĠCambridge":8310,"media":8311,"Ġimproved":8312,"Http":8313,"Ġdivided":8314,"appa":8315,"ĠAh":8316,"Ġclassic":8317,"ĠBridge":8318,"Ver":8319,"1949":8320,"ĠNetherlands":8321,"shot":8322,"Ġchanging":8323,"Ġentirely":8324,"chestra":8325,"prise":8326,"Ġcaught":8327,"ĠMA":8328,"frak":8329,"ĠBh":8330,"Ġwins":8331,"Lambda":8332,"boy":8333,"ĠLie":8334,"ĠAdam":8335,"bec":8336,"Connection":8337,"Jan":8338,"dat":8339,"atters":8340,"ĠRegion":8341,"Ġdepth":8342,"ĠIl":8343,"eries":8344,"normal":8345,"Ġguide":8346,"General":8347,"istant":8348,"ialize":8349,"Ġacts":8350,"Ġmusicians":8351,"Best":8352,"ownt":8353,"Ġsupposed":8354,"Ġmassive":8355,"Ġpod":8356,"Ġcoverage":8357,"overline":8358,"ĠFord":8359,"Ġarts":8360,"ĠAlb":8361,"ĠTurk":8362,"aws":8363,"varphi":8364,"season":8365,"Ġexpanded":8366,"Ġseats":8367,"imensional":8368,"Ġbalance":8369,"anchester":8370,"Ġcarbon":8371,"Cast":8372,"Ġapart":8373,"Ġexpat":8374,"Ġaudio":8375,"SO":8376,"Ġachieve":8377,"Ġcaptured":8378,"Ġbond":8379,"Ġshut":8380,"Ġspecifically":8381,"Ġdropped":8382,"Ġrelation":8383,"ĠQueens":8384,"Ġdoctor":8385,"Ġreplace":8386,"PM":8387,"Ġcrisis":8388,"ĠRoss":8389,"Ġsubstant":8390,"Ġhomes":8391,"Ġupdated":8392,"rait":8393,"Ġ×":8394,"Ĥ¬":8395,"aus":8396,"Ġgal":8397,"ĠCas":8398,"Ã¡n":8399,"Ġpurposes":8400,".~\\":8401,"Ġfiled":8402,"Ġapplic":8403,"Ġadopted":8404,"ĠExecutive":8405,"____":8406,"Ġyards":8407,"bm":8408,"Ġgar":8409,"ÅĤ":8410,"ĠCost":8411,"Ġtransferred":8412,"ĠSym":8413,"quarters":8414,"Ġratio":8415,"faces":8416,"Ġrecip":8417,"Ġlegisl":8418,"Ġjustice":8419,"ĠFer":8420,"antly":8421,"ĠSeason":8422,"Ġperformances":8423,"ĠBC":8424,"Ġalgorithm":8425,"Ġrepeated":8426,"ĠTable":8427,"essions":8428,"Ġemphas":8429,"ĠWisconsin":8430,"ĠDC":8431,"Ġattribute":8432,"ĠColorado":8433,"Ġderived":8434,"Ġstrict":8435,"ĠRequ":8436,"!\"":8437,"Ġtemplate":8438,"ĠGree":8439,"iversary":8440,"Two":8441,"Ġcontainer":8442,"Ġplane":8443,"uous":8444,"About":8445,"Ġresc":8446,"Any":8447,"encing":8448,"Ġdemocr":8449,"rove":8450,"range":8451,"Ġwarn":8452,"ificate":8453,"Impl":8454,"ĠVideo":8455,"Ġcommitted":8456,"images":8457,"Ġcommonly":8458,"Ġyounger":8459,"ucks":8460,"Ġcircum":8461,"equal":8462,"pdf":8463,"Ġfounder":8464,"ĠMult":8465,"International":8466,"Vari":8467,"ĠBru":8468,"1951":8469,"een":8470,"ĠJews":8471,"Ġchallenges":8472,"ĠCommunic":8473,"Ġstress":8474,".$":8475,"olitan":8476,"ĠTO":8477,"Ġexistence":8478,"graph":8479,"ĠBat":8480,"Ġwing":8481,"ĠStaff":8482,"Ġnob":8483,"Title":8484,"Ġ*)":8485,"coh":8486,"fly":8487,"Ġelectronic":8488,"Ġhall":8489,"ĠShort":8490,"ĠMember":8491,"ĠGallery":8492,"Ġorganized":8493,"Ġgranted":8494,"ĠConf":8495,"Ġsum":8496,"Ġclinical":8497,"chron":8498,"Ġban":8499,"ĠSign":8500,"Phi":8501,"Ġcru":8502,"device":8503,"ĠGuide":8504,")^":8505,"ennessee":8506,"uced":8507,"ĠLewis":8508,"uations":8509,"Ġabandon":8510,"Ġmanner":8511,"&\\":8512,"Ġwealth":8513,"NAME":8514,"ĠMoh":8515,"Ġannounce":8516,"groupId":8517,"ĠPerform":8518,"ronze":8519,"ĠEXP":8520,"Ġpractices":8521,"leted":8522,"Ġvess":8523,"DP":8524,"Ġprofession":8525,"Ġsustain":8526,"Ġcampus":8527,"omer":8528,"Ġvolunte":8529,"Ġfrequency":8530,"Ġdefeat":8531,"ĠMP":8532,"Ġpadding":8533,"Note":8534,"ĠPremier":8535,"Ġped":8536,"ĠSingapore":8537,"Ġprepared":8538,"arc":8539,"ĠScholar":8540,"Ġelimin":8541,"Ġdescent":8542,"Ġnarrow":8543,"Ġcas":8544,"send":8545,"Ġtreated":8546,"ĠStock":8547,"iliar":8548,"cut":8549,"%;":8550,":(":8551,"Json":8552,"ĠWinter":8553,"ĠFI":8554,"Ġbutton":8555,"ĠModel":8556,"agger":8557,"uma":8558,"peror":8559,"bell":8560,"ĠAz":8561,"Ġpromoted":8562,"Ġcorre":8563,"missions":8564,"Ġending":8565,"adi":8566,"redit":8567,"Ġbought":8568,"ouston":8569,"}),":8570,"issue":8571,"del":8572,"ĠDespite":8573,"[\\":8574,"Ġweapons":8575,"ĠSep":8576,"Ġpowers":8577,"agan":8578,"Ġtransaction":8579,"Ġdomestic":8580,"Ġphotos":8581,"ĠImp":8582,"Ġframework":8583,"Ġinner":8584,"Ġcustomer":8585,"},\\":8586,"yal":8587,"ĠSem":8588,"ĠLear":8589,"Ġtoken":8590,"Sk":8591,"Use":8592,"Ġlie":8593,"ĠHarry":8594,"Ġmedium":8595,"Ġhelping":8596,"Ġwinter":8597,"van":8598,"ĠBrother":8599,"ĠPhot":8600,"Ġiron":8601,"Ġment":8602,"Dist":8603,"eld":8604,"Ġpassing":8605,"ĠHamilton":8606,"ivals":8607,"ulating":8608,"Ġdiscussed":8609,"Click":8610,"Ġhosted":8611,"ĠLook":8612,"Ġequation":8613,"Ã¸":8614,"Video":8615,"Ġerrors":8616,"ĠSaf":8617,"Operation":8618,"RC":8619,"ĠLow":8620,"Ġexperiences":8621,"ĠArizona":8622,"Ġzone":8623,"\"));":8624,"Hash":8625,"Ġhighlight":8626,"Ġhorse":8627,"Ġpublication":8628,"1918":8629,"1936":8630,"master":8631,"Ġreaction":8632,"Ġshooting":8633,"hol":8634,"access":8635,"Ġsounds":8636,"ĠControl":8637,"Ġtor":8638,"ĠSoft":8639,"Ġyourself":8640,"ĠNon":8641,"Ġcharged":8642,"Background":8643,"ĠBudd":8644,"si":8645,"fall":8646,"ĠPit":8647,"High":8648,"example":8649,"Right":8650,"Ġbroken":8651,"Ġcauses":8652,"Ġsuffered":8653,"NN":8654,"Ġlisting":8655,"Ġvisible":8656,"ĠMiller":8657,"Ġremote":8658,"ĠLev":8659,"ĠText":8660,"Ã£o":8661,"Ġsamples":8662,"Polit":8663,"Di":8664,"Ġexpos":8665,"Ġexplained":8666,"Ġstanding":8667,"ï¿":8668,"world":8669,"Ġkilling":8670,"PT":8671,"Params":8672,"Ġfill":8673,"ĠRest":8674,"Ġminute":8675,"weg":8676,"Ġassume":8677,"Ġmort":8678,"rub":8679,"CODE":8680,"Arch":8681,"Ġmarkets":8682,"operation":8683,"DO":8684,"Ġstatistics":8685,"Ġcompeted":8686,">,":8687,"Ġcontained":8688,"SM":8689,"Gen":8690,"Ġwww":8691,"Core":8692,"ĠSweden":8693,"Schema":8694,"Ġapprec":8695,"contin":8696,"Ġlay":8697,"Ġopposition":8698,"iffer":8699,"Ġwat":8700,"URE":8701,"Christ":8702,"Ġton":8703,"oen":8704,"hell":8705,"ĠOregon":8706,"Ġgreatest":8707,"Ġpurchased":8708,"ĠBrian":8709,"ĠAgain":8710,"Ġmovies":8711,"Ġoccasion":8712,"Ġentertain":8713,"ugins":8714,"ĠIV":8715,"Ġprominent":8716,"Ġgenerate":8717,"ĠAtlantic":8718,"agen":8719,"ĠLat":8720,"Ġstrugg":8721,"avor":8722,"rames":8723,"Option":8724,"Ġstopped":8725,"Ġadvoc":8726,"Ġsecure":8727,"Ġguest":8728,"Ġmental":8729,"Ġreturning":8730,"Ġhelps":8731,"ï¿½":8732,"ĠNFL":8733,"Ġbelief":8734,"ĠPu":8735,"bas":8736,"langle":8737,"ĠMountain":8738,"Draw":8739,"stylesheet":8740,"Ġ\"\\":8741,"ĠDeb":8742,"ogy":8743,"Ġrepresenting":8744,"Ġunable":8745,"iley":8746,"ĠDigital":8747,"Properties":8748,"Ġdelivery":8749,"ĠAge":8750,"modal":8751,"Ġorders":8752,"product":8753,"Ġattempts":8754,"estion":8755,"ĠHo":8756,"mo":8757,"Ġhumans":8758,"Ġguess":8759,"Ġskin":8760,"anga":8761,"LA":8762,"Ġodd":8763,"Ġhidden":8764,"Ġinterests":8765,"Ġmessages":8766,"COLOR":8767,"anny":8768,"Ġconver":8769,"Ġadministrative":8770,"Ġintelligence":8771,"Main":8772,"Ġdoubt":8773,"refix":8774,"ĠNaz":8775,"ipeline":8776,"acket":8777,"hu":8778,"Ġcreative":8779,"rell":8780,"ses":8781,"Ġpun":8782,"DD":8783,"abric":8784,"Ġperforming":8785,"ĠCaptain":8786,"mathfrak":8787,"Ġlicens":8788,"ĠMagazine":8789,"Ġextract":8790,"global":8791,"Ġwatching":8792,"ln":8793,"Rad":8794,"Ġeg":8795,"Ġspend":8796,"ivation":8797,"mad":8798,"Ġtruly":8799,"Mem":8800,"Ġgene":8801,"Ġscheduled":8802,"angers":8803,"LS":8804,"ĠCharl":8805,"Ġdebate":8806,"Ġprogramme":8807,"Ġà¤":8808,"Ġoccurs":8809,"debug":8810,"Ġgender":8811,"Ġcaptain":8812,"Font":8813,"\"))":8814,"ĠDuke":8815,"Ġexperienced":8816,"ĠAst":8817,"Ġscenes":8818,"Vert":8819,"Ġdry":8820,"isted":8821,"Ġbehavi":8822,"Ġtaught":8823,"Ġbodies":8824,"ĠIT":8825,"click":8826,"Ġmunicipality":8827,"elle":8828,"task":8829,"Ġsufficient":8830,"ĠBG":8831,"ĠBatt":8832,"ĠAffairs":8833,"ductions":8834,"!âĢĿ":8835,"Ġdocumentary":8836,"Ġoverride":8837,"ĠDom":8838,"iples":8839,"dict":8840,"Ġterritory":8841,"Jo":8842,"ĠEN":8843,"Ġresulted":8844,"xx":8845,"Ġlit":8846,"msg":8847,"Ġplanet":8848,"address":8849,"1938":8850,"Ġescape":8851,"Ġblocks":8852,"ĠIndones":8853,"ĠSav":8854,"Ġinsert":8855,"ĠProm":8856,"coln":8857,"ĠGh":8858,"Ġhearing":8859,"Ġwaiting":8860,"cha":8861,"uality":8862,"Before":8863,"iami":8864,"Ġgained":8865,"urches":8866,"docs":8867,"ORD":8868,"ĠDark":8869,"Ġcash":8870,"Ġreligion":8871,"Second":8872,"Ġhappens":8873,"Ġdelivered":8874,"Ġjump":8875,"\"|":8876,"agues":8877,"bind":8878,"ĠLeon":8879,"Ġteen":8880,"Ġfilled":8881,"Each":8882,"Ġvideos":8883,"%,":8884,"islation":8885,"Ġ>=":8886,"ĠHas":8887,"allow":8888,"andra":8889,"ĠRose":8890,"inema":8891,"hash":8892,"ensure":8893,"Ġamazing":8894,"ĠMemorial":8895,"Ret":8896,"Host":8897,"ĠChannel":8898,"GE":8899,"Collection":8900,"delete":8901,"ĠEntertainment":8902,"Ġdetailed":8903,"ĠBuilding":8904,"ĠElement":8905,"Personal":8906,"isode":8907,"Left":8908,"VID":8909,"Ġcomparison":8910,"Ġexcellent":8911,"stances":8912,"Ġintern":8913,"utenant":8914,"Ġsuggests":8915,"Ġenable":8916,"ĠComput":8917,"erves":8918,"ĠJer":8919,"enna":8920,"Ġspaces":8921,"ĠRa":8922,"transform":8923,"Menu":8924,"ĠBab":8925,"mid":8926,"ĠPhilippines":8927,"Ġpromote":8928,"kg":8929,"Ġtwenty":8930,"Ġcommunic":8931,"Ġgraduated":8932,"ĠBu":8933,"Ġvariables":8934,"ĠKansas":8935,"aron":8936,"enses":8937,"&#":8938,"rog":8939,"ĠHotel":8940,"ĠConnect":8941,"Cap":8942,"tered":8943,"split":8944,"reens":8945,"ĠRyan":8946,"Ġrecognition":8947,"Ġpiano":8948,"ĠTransport":8949,"oggle":8950,"ĠMilitary":8951,"fortun":8952,"1914":8953,"Ġpure":8954,"ĠGil":8955,"ERS":8956,"Ġprices":8957,"plex":8958,"merce":8959,"1937":8960,"ĠMach":8961,"icide":8962,"ordon":8963,"jan":8964,"Pres":8965,"roud":8966,"stop":8967,"Dir":8968,"ĠIndiana":8969,"Ġaspects":8970,"Ã©e":8971,"emet":8972,"ĠĠĠĠĠĠĠĠĠĠĠĠĠĠĠĠĠĠĠĠ":8973,"Ġadvice":8974,"Ġloan":8975,"news":8976,"Ġconstitu":8977,"Ġformal":8978,"Ġultimately":8979,"ĠTony":8980,"ĠForeign":8981,"Ġguys":8982,"hard":8983,"Ġworldwide":8984,"ĠBrig":8985,"vard":8986,"Ġcontrolled":8987,"Ġmir":8988,"Ġclients":8989,"Tube":8990,"Ġhash":8991,"pled":8992,"ĠTai":8993,"Ġatmosp":8994,"store":8995,"ĠOnce":8996,"ĠException":8997,"Ġcovers":8998,"mode":8999,"ĠAthlet":9000,"izz":9001,"models":9002,"DR":9003,"parameter":9004,"Ġinvolving":9005,"connect":9006,"Ġsegment":9007,"Ġtypical":9008,"iveness":9009,"roit":9010,"Ġexplain":9011,"Ġfactory":9012,"Ġbringing":9013,"ruption":9014,"Ġfrequently":9015,"Vol":9016,"ĠPot":9017,"Ġflex":9018,"160":9019,"enz":9020,"ois":9021,"interface":9022,"Ġletters":9023,"Ġmil":9024,"Ġshock":9025,"ĠAnderson":9026,"Ġsolar":9027,"session":9028,"Ġsudden":9029,"plom":9030,"Async":9031,"ĠJam":9032,"iamond":9033,"%.":9034,"oli":9035,"family":9036,"Ġseek":9037,"ĠMedicine":9038,"hline":9039,"Star":9040,"Ġvisited":9041,"ĠReb":9042,"tenance":9043,"iration":9044,"ĠSP":9045,"ĠBishop":9046,"join":9047,"Ġresponsibility":9048,"ĠFollowing":9049,"holder":9050,"Ġfilename":9051,"ĠKat":9052,"Ġsevent":9053,"Ġexplicit":9054,"Ant":9055,"================================":9056,"ĠHan":9057,"ĠPalest":9058,"Ġliqu":9059,"Ġinstitution":9060,"rant":9061,"Ġparticipated":9062,"aded":9063,"Ġprotocol":9064,"Ġpainting":9065,"ĠDead":9066,"Ġsoul":9067,"Ġserial":9068,"ĠSound":9069,"oscow":9070,"border":9071,"ĉĉĊ":9072,"Ġdecade":9073,"Ġguarant":9074,"Ġshares":9075,"Ġcapture":9076,"brid":9077,"orough":9078,"coll":9079,"Ġfly":9080,"atern":9081,"ĠCab":9082,"Ġvel":9083,"ðŁ":9084,"ighth":9085,"Ġaid":9086,"amental":9087,"Her":9088,"icians":9089,"ĠOs":9090,"aza":9091,"Ġwa":9092,"elli":9093,"Tim":9094,"Ġefficient":9095,"make":9096,"ĠSwedish":9097,"101":9098,"David":9099,"Ġcle":9100,"Ġparams":9101,"Ġsubsequent":9102,"support":9103,"bolds":9104,"iac":9105,"Handle":9106,"ĠTennessee":9107,"Found":9108,"West":9109,"agh":9110,"scious":9111,"Ġlinked":9112,"NavBar":9113,"Most":9114,"names":9115,")\"":9116,"1917":9117,"ĠMaria":9118,"Ġbright":9119,"ĠFac":9120,"sect":9121,"ĠStart":9122,"vector":9123,"bling":9124,"Ġindicate":9125,"Ġextensive":9126,"boldsymbol":9127,"---":9128,"FR":9129,"ĠHart":9130,"step":9131,"aration":9132,"Ġessential":9133,"Ġuniform":9134,"Ġprincipal":9135,"mi":9136,"ĠRoute":9137,"ĠLiter":9138,"Ġnodes":9139,"ĠCook":9140,"Kind":9141,"Ġinfrastructure":9142,"Ġveter":9143,"ITY":9144,"Ġarrang":9145,"DT":9146,"Has":9147,"Ġswe":9148,"Ġinline":9149,"possible":9150,"abla":9151,"ĠSimon":9152,"Ġkeeping":9153,"ghan":9154,"ĠTherefore":9155,"Ġresistance":9156,"Ġcombat":9157,"ĠCond":9158,"Stud":9159,"Ġmac":9160,"PORT":9161,"Ġparliament":9162,"ĠKhan":9163,"oret":9164,"Store":9165,"low":9166,"ĠJoh":9167,"Ġrend":9168,"oven":9169,"ells":9170,"ĠCru":9171,"ĠON":9172,"Women":9173,"ĠManchester":9174,"ĠDream":9175,"Ġmunicipal":9176,"omot":9177,"reshold":9178,"fields":9179,"Ġdispl":9180,"ĠAT":9181,"ĠHollywood":9182,"types":9183,"iang":9184,"Ġbroke":9185,"ĠAssoci":9186,"ĠAdministration":9187,"Ġcopies":9188,"jar":9189,"Ġrestaurant":9190,"Ġsupports":9191,"Reference":9192,"Ġimpress":9193,"ĠCollection":9194,"Ġtitled":9195,"ĠFall":9196,"Phone":9197,"lah":9198,"Dom":9199,"Ġcache":9200,"Î±":9201,"ĠSky":9202,"UK":9203,"Ġstands":9204,"ĠDu":9205,"usal":9206,"Oct":9207,"ĠThrough":9208,"dam":9209,"igenous":9210,"overy":9211,"Ġtowns":9212,"Ġaccused":9213,"emetery":9214,"Ġloved":9215,"ffee":9216,"istent":9217,"DC":9218,"Ġvictims":9219,"Ġwalls":9220,"Ġlose":9221,"bad":9222,"Ġfaculty":9223,"Ġdeleg":9224,"Ġthank":9225,"outheast":9226,"ĠChall":9227,"}}$":9228,"Ġmand":9229,"Session":9230,"Tags":9231,"Ġele":9232,"Helper":9233,"agg":9234,"Ġdistingu":9235,"appro":9236,"ername":9237,"foo":9238,"ĠSpec":9239,"estamp":9240,"bot":9241,"ĠCase":9242,"rett":9243,"obuf":9244,"Ġboundary":9245,"Ġrent":9246,"FT":9247,"otimes":9248,"ulator":9249,"GA":9250,"Ġracing":9251,"ĠJane":9252,"Ġcraft":9253,"ĠJesus":9254,"forcement":9255,"Ġstrike":9256,"aux":9257,"Ġpilot":9258,"ĠMissouri":9259,"wegian":9260,"fn":9261,"seud":9262,"Lab":9263,"Integer":9264,"ĠBefore":9265,"hire":9266,"Step":9267,"ropolitan":9268,"nie":9269,"Ġnum":9270,"keys":9271,"ĠSE":9272,"ĠMalays":9273,"Then":9274,"Ġacknow":9275,"ATH":9276,"1900":9277,"Ġnotable":9278,"ĠOcean":9279,"Ġjournalist":9280,"Ġabuse":9281,"1935":9282,"Ġtum":9283,"ĠDiego":9284,"ĠPier":9285,"Ġscoring":9286,"ĠKevin":9287,"Ġnovels":9288,"asts":9289,"ĠCastle":9290,"patch":9291,"Ġhouseholds":9292,"ĠOfficer":9293,"ĠNorm":9294,"ĠMarc":9295,"Device":9296,"Ġproved":9297,"ĠOnline":9298,"fire":9299,"Ġ\"/":9300,"BR":9301,"ĠModern":9302,"Av":9303,"Ġstores":9304,"atar":9305,"ĠStone":9306,"Ġrenew":9307,"Ġgod":9308,"bean":9309,"Mich":9310,"Ġearn":9311,"Ġaccounts":9312,"Ġtalks":9313,"Ġthick":9314,"ĠAccess":9315,"acc":9316,"axy":9317,"ĠSi":9318,"ldots":9319,"Ġexhibition":9320,"wall":9321,"ĠDNA":9322,"Ġintegr":9323,"Ġdecisions":9324,"mb":9325,"Ġyellow":9326,"Ġairport":9327,"Ġdrivers":9328,"abama":9329,"Ġdescribes":9330,"shop":9331,"dot":9332,"game":9333,"Author":9334,"ĠObs":9335,"widget":9336,"Ġterr":9337,"ĠUkraine":9338,"ĠKal":9339,"1919":9340,"Ġinters":9341,"Ġwhatever":9342,"Ġgovernor":9343,"Ġinternet":9344,"ailing":9345,"Ġheader":9346,"coin":9347,"ĠRoy":9348,"inch":9349,"Ġpeak":9350,"called":9351,"ĠSix":9352,"Loc":9353,"Ġcapable":9354,"Expression":9355,"Ġconsistent":9356,"handle":9357,"Ãº":9358,"Ġrear":9359,"tool":9360,"efe":9361,"Ġbands":9362,"ership":9363,"ĠHeart":9364,"Show":9365,"clear":9366,"Ġclosely":9367,"ORM":9368,"ĠPrinc":9369,"ango":9370,"'],":9371,"ĠSenior":9372,"Ġprime":9373,"Ġdelete":9374,"BE":9375,"(-":9376,"Ġmeasured":9377,"Ġwound":9378,"ĠSystems":9379,"ĠDor":9380,"ĠArthur":9381,"Ġinteraction":9382,"(:":9383,"mic":9384,"ĠNext":9385,"creen":9386,"ĠMarg":9387,"hered":9388,"ĠPatrick":9389,"elson":9390,"Ġentity":9391,"Ġmedian":9392,"Ġinh":9393,"ĠPay":9394,"craft":9395,"emble":9396,"ĠBox":9397,"ĠRoll":9398,"Ġovers":9399,"ĠChild":9400,"Ġboys":9401,"North":9402,"Ġwrest":9403,"Ġtrigger":9404,"Ġsnow":9405,"vol":9406,"ATA":9407,"Ġpresidential":9408,"Ġhits":9409,"Ġgather":9410,"enny":9411,"Euro":9412,"ocity":9413,"Ġinher":9414,"1933":9415,"screen":9416,"including":9417,"ĠPR":9418,"Ġundefined":9419,"ogether":9420,"alion":9421,"ĠFront":9422,"indows":9423,"ĠMun":9424,"witzer":9425,"255":9426,"ĠHop":9427,"ĠFull":9428,"ĠHur":9429,"ski":9430,"bass":9431,"inations":9432,"Ġjav":9433,"ipped":9434,"full":9435,"yers":9436,"Ġstret":9437,"issions":9438,"ixel":9439,"yes":9440,"1929":9441,"Ġbrings":9442,"incess":9443,"ĉĠ":9444,"ACT":9445,"Ġroof":9446,"Ġvocal":9447,"Ġinsurance":9448,"Apr":9449,"Ġmouth":9450,"ĠMedal":9451,"Ġreader":9452,"Only":9453,"Ġdegrees":9454,"Ġrelationships":9455,"Ġparticipants":9456,"Ġresearchers":9457,"Association":9458,"ĠCzech":9459,"ials":9460,"sur":9461,"prene":9462,"Ġvul":9463,"Ġabsor":9464,"ĠIowa":9465,"lik":9466,"Ġengineer":9467,"acent":9468,"uther":9469,"Ġvice":9470,"Ġrecall":9471,"Parent":9472,"Ġtheatre":9473,"person":9474,"Ġcontributions":9475,"Ġfat":9476,"ĠMexican":9477,"agu":9478,"Ġscientists":9479,"Ġranked":9480,"ĠDeath":9481,"cup":9482,"Ġtrained":9483,"owntown":9484,"Leg":9485,"don":9486,"tim":9487,"ublished":9488,"Ġsections":9489,"Ġwire":9490,"ĠBurn":9491,"ĠNorway":9492,"Ġremark":9493,"Aug":9494,"Application":9495,"ĠRegional":9496,"Ptr":9497,"irth":9498,"Ġmodified":9499,"rase":9500,"={":9501,"MC":9502,"Ġopposite":9503,"1934":9504,"Const":9505,"Although":9506,"Ġdefinitely":9507,"icious":9508,"ĠNig":9509,"reprene":9510,"Ġeat":9511,"ni":9512,"ante":9513,"cloud":9514,"Ġteachers":9515,"Ġconcerned":9516,"toString":9517,"Ġconvent":9518,"Ġchannels":9519,"Ġbaby":9520,"Media":9521,"Ġeducational":9522,"Ġdrugs":9523,"ĠAS":9524,"ĠGab":9525,"ĠHighway":9526,"MT":9527,"dy":9528,"Ġcluster":9529,"ships":9530,"icons":9531,"Ġvary":9532,"Ġvo":9533,"olver":9534,"ĠHouston":9535,"Ġboat":9536,"Ġconfirm":9537,"ĠRegiment":9538,"env":9539,"western":9540,"ĠSurvey":9541,"Ġcollaboration":9542,"DIR":9543,"Ġveg":9544,"Ġcompris":9545,"Ġloop":9546,"Play":9547,"witzerland":9548,"Ġmanage":9549,"mont":9550,"Ġagents":9551,"GR":9552,"olid":9553,"system":9554,"ĠDisney":9555,"Ġexpatriate":9556,"Ġstrip":9557,"offs":9558,"abet":9559,"establ":9560,"ologists":9561,"Ġselling":9562,"Names":9563,"ĠHal":9564,"achelor":9565,"Ġlect":9566,"1910":9567,"Ġincred":9568,"Ġembod":9569,"Oh":9570,"ataset":9571,"ĠMoon":9572,"ĠCustom":9573,"ĠGa":9574,"Ġstack":9575,"Ġkeys":9576,"rat":9577,"Ġcomposer":9578,"Ġcos":9579,"ĠArk":9580,"ĠMake":9581,"ĠExper":9582,"Ġstreets":9583,"ĠBarn":9584,"Ġtail":9585,"Ġcloser":9586,"ĠAndroid":9587,"ĠSquare":9588,"also":9589,"appoint":9590,"ferred":9591,"Tele":9592,"omorph":9593,"ĠGreece":9594,"Ġrepresentative":9595,"Ġtack":9596,"Ġcrowd":9597,"nabla":9598,"Ġinjured":9599,"Full":9600,"1928":9601,"Ġ),":9602,"Ġnoise":9603,"Ġdrawn":9604,"Ġkit":9605,"Ġemergency":9606,"ĠCulture":9607,"Ġabsolute":9608,"Ġdecor":9609,"plugin":9610,"Ġaccompl":9611,"ĠVietnam":9612,"Ġhun":9613,"ĠArticle":9614,"Ñĥ":9615,"fast":9616,"ĠMas":9617,"ĠHoly":9618,"ĠJay":9619,"osl":9620,"Ġseed":9621,"ĠDomin":9622,"olas":9623,"audi":9624,"ĠRecord":9625,"French":9626,"Ġintroduction":9627,"ounsel":9628,"Ġenemy":9629,"Ġpassion":9630,"_;":9631,"gebra":9632,"door":9633,"ĠMaryland":9634,"ĠIsraeli":9635,"Ġconsumer":9636,"Ġencounter":9637,"Ġwaves":9638,"ĠMelbourne":9639,"Ġurg":9640,"âĢī":9641,"ERROR":9642,"bel":9643,"ĠSilver":9644,"aze":9645,"Ġemployed":9646,"Ġdress":9647,"ĠAllen":9648,"aire":9649,"1932":9650,"Ġlawyer":9651,"=\"/":9652,"ĠMarket":9653,"ĠConstitution":9654,"Har":9655,"ĠColon":9656,"avity":9657,"stan":9658,"ĠJordan":9659,"ĠValue":9660,"ĠLincoln":9661,"Sigma":9662,"Ġdistricts":9663,"ĠNa":9664,"Ġrugby":9665,"Ġcontribution":9666,"Ġcorporate":9667,"Del":9668,"ĠBry":9669,"Ġride":9670,"wait":9671,"udes":9672,"Ġperspective":9673,"attribute":9674,"ĠSC":9675,"Values":9676,"enum":9677,"ĠMit":9678,"wick":9679,"ĠNumber":9680,"equals":9681,"ĠPsych":9682,"Ġattached":9683,"Ġlegislation":9684,"})$":9685,"$(":9686,"Ġshell":9687,"ĠBalt":9688,"Ġgoods":9689,"sing":9690,"ĠLegisl":9691,"Ġfemales":9692,"settings":9693,"ĠMoscow":9694,"ructions":9695,"wich":9696,"&&":9697,"Ġauthent":9698,"ĠVeg":9699,"ĠHig":9700,"Ġlegend":9701,"Ġ['":9702,"ĠPhilip":9703,"ĠMrs":9704,"Ġindeed":9705,"ista":9706,"Ġdirectory":9707,"Ġreduction":9708,"ĠWatch":9709,"Ġsmooth":9710,"ĠOak":9711,"ĠUser":9712,"itionally":9713,"Ġcausing":9714,"Decl":9715,"allas":9716,"ĠIslamic":9717,"export":9718,"False":9719,"ĠFederation":9720,"Ġincreases":9721,"Ġhaven":9722,"ĠPeak":9723,"uction":9724,"ussion":9725,"intend":9726,"Ġspl":9727,"cp":9728,"cohol":9729,"Ġdates":9730,"ĠLO":9731,"Ġopposed":9732,"Ġchairman":9733,"ĠEXPECT":9734,"ibliography":9735,"Life":9736,"Ġtopic":9737,"Ġsymmet":9738,"Ġusual":9739,"Ġeasier":9740,")/":9741,"à¦":9742,"Ġspending":9743,"Ġrevolution":9744,"away":9745,"Ġfeels":9746,"custom":9747,"ACE":9748,"Ġstood":9749,"ĠDoctor":9750,"bat":9751,"admin":9752,"ureau":9753,"Ġfamiliar":9754,"ĠVice":9755,"oval":9756,"nonumber":9757,"Ġwine":9758,"Ġcomposition":9759,"tn":9760,"Body":9761,"ĠPath":9762,"Debug":9763,"Ġhundreds":9764,"Ġtranslation":9765,"ernel":9766,"Ġspoke":9767,"Ġsigns":9768,"Ġsteel":9769,"footer":9770,"ellect":9771,"Ġsought":9772,"Ġconsole":9773,"cing":9774,"ensuremath":9775,"ĠEnc":9776,"Every":9777,"chant":9778,"Ġpermanent":9779,"Ġing":9780,"Sym":9781,"Ġinvoke":9782,"lahoma":9783,"Ġstored":9784,"Ġroyal":9785,"Ġparish":9786,"utely":9787,"otted":9788,"Ġfra":9789,"iÃ³n":9790,"Ġunsigned":9791,")-":9792,"Ġelectron":9793,"Ġdialog":9794,"ĠSerb":9795,"Ġrefused":9796,"]]":9797,"Template":9798,"Ġmine":9799,"GO":9800,"=\"_":9801,"ĠNap":9802,"alty":9803,"auge":9804,"rations":9805,"Ġextent":9806,"ASE":9807,"ĠÂ·":9808,"Ġrender":9809,"Ġtherm":9810,"Many":9811,"dem":9812,"Ġtall":9813,"Japan":9814,"ĠKnow":9815,"Cor":9816,"ĠMatthe":9817,"Photo":9818,"ando":9819,"lay":9820,"ĠBush":9821,"ĠAgency":9822,"Ġassault":9823,"Ġnamespace":9824,"Ang":9825,"ĠClinton":9826,"NC":9827,"Ġreaders":9828,"Spe":9829,"Ġmatters":9830,"ĠIss":9831,"ĠMoore":9832,"ĠGrant":9833,"Ġplate":9834,"ques":9835,"Ġ\\!":9836,"Black":9837,"Ġ})":9838,"itals":9839,"Ġhyper":9840,"fill":9841,"ĠPlease":9842,"subset":9843,"Ġphotograph":9844,"Ġentitled":9845,"Ġwilling":9846,"Ġunf":9847,"Ġfaced":9848,"ĠSquad":9849,"Ġworst":9850,"ROM":9851,"Ġaffili":9852,"Ġsimpl":9853,"Ġtechnique":9854,"gressive":9855,"ĠBGCOLOR":9856,"UD":9857,"Ġvisitors":9858,"Ġcards":9859,"ĠFri":9860,"Ġchapter":9861,"enez":9862,"Well":9863,"ĠSite":9864,"ĠWolf":9865,"ving":9866,"iva":9867,"Parameters":9868,"record":9869,"Ġinvited":9870,"Writer":9871,"Ġbrothers":9872,"1922":9873,"Ġposts":9874,"123":9875,"inf":9876,"Ġfranch":9877,"Ġdetect":9878,"Ġ('":9879,"William":9880,"Ġtrib":9881,"ivacy":9882,"ublin":9883,"Ġkil":9884,"Ġcrash":9885,"ĠAlf":9886,"ĠVi":9887,"chell":9888,"Ġportray":9889,"Ġorient":9890,"Argument":9891,"oa":9892,"Ġasking":9893,"ĠLabour":9894,"Ġschedule":9895,"Ġdeploy":9896,"textit":9897,"ĠFle":9898,"Ġspr":9899,"PU":9900,"%%%%":9901,"burn":9902,"wealth":9903,"fol":9904,"ĠTen":9905,"ĠNAS":9906,"unior":9907,"ĠChap":9908,"ĠKy":9909,"Ġsoci":9910,"Phil":9911,"ĠDVD":9912,"ĠFarm":9913,"ucket":9914,"Ġmanagers":9915,"alid":9916,"Ġda":9917,"Ġindicated":9918,"Ġseeking":9919,"ĠJunior":9920,"Ġpersons":9921,"ĠTR":9922,"ĠMiami":9923,"###":9924,"{}":9925,"Serial":9926,"1931":9927,"ouses":9928,"otte":9929,"1924":9930,"Reader":9931,"Ġaccommod":9932,"Ġsharing":9933,"Ġspeaking":9934,"Ġbanks":9935,"Ġmock":9936,"disc":9937,"abil":9938,"Ġappeal":9939,"Ġrenamed":9940,"lights":9941,"ĠHTML":9942,"PP":9943,"ANT":9944,"GET":9945,"andal":9946,"Another":9947,"ĠHoward":9948,"ige":9949,"Ġexperimental":9950,"Ġconstitution":9951,"Ġcompre":9952,"inth":9953,"Ġinhib":9954,"Ġsubt":9955,"Ġparse":9956,"erto":9957,"register":9958,"ellite":9959,"argo":9960,"Ġlyrics":9961,"Ġwed":9962,"ĠDave":9963,"ĠKentucky":9964,"Ġpoetry":9965,"words":9966,"Ġmenu":9967,"vm":9968,"WA":9969,"ĠAnthony":9970,"ogs":9971,"Ã©s":9972,"Ġsole":9973,"MENT":9974,"Ġfolk":9975,"pur":9976,"Classes":9977,"Ġoperate":9978,"Err":9979,"1916":9980,"Ġwaste":9981,"roph":9982,"Ġmaps":9983,"oked":9984,"=\"../../../":9985,"Ġparallel":9986,"1915":9987,"Ġvoted":9988,"Ġintent":9989,"Ġguns":9990,"Ġcro":9991,"olly":9992,"gi":9993,"stat":9994,"neg":9995,"Ġaged":9996,"Ġburied":9997,"Ġproducing":9998,"Ġstable":9999,"Ġdisappe":10000,"ĠEc":10001,"Ġcancell":10002,"ĠExpl":10003,"Ġputting":10004,"ĠConst":10005,"Ġtight":10006,"1927":10007,"Ġcolour":10008,"Assert":10009,"ifts":10010,"mal":10011,"ourse":10012,"email":10013,"Ġsuperv":10014,"Ġagencies":10015,"Ġconnections":10016,"ĠSport":10017,"Ġles":10018,"ĠFA":10019,"Ġmoves":10020,"Ġindicates":10021,"ĠYears":10022,"Ġexplore":10023,"irms":10024,"\\!":10025,"Ġafford":10026,"Ep":10027,"ĠLyn":10028,"istical":10029,"ĠEff":10030,"ĠDun":10031,"ĠBah":10032,"hedral":10033,"ivated":10034,"Ġassembly":10035,"ĠHom":10036,"Af":10037,"Ġattempted":10038,"Ġforg":10039,"ĠYouTube":10040,"Find":10041,"ĠHarris":10042,"Under":10043,"1912":10044,"ĠWhere":10045,"Ġsixth":10046,"heim":10047,"III":10048,"ĠCreat":10049,"ĪĴ":10050,"Vector":10051,"ĠPed":10052,"Ġengaged":10053,"ĠAlabama":10054,"ĠCrit":10055,"ocker":10056,"home":10057,"Ġbrowser":10058,"ippi":10059,"Ġdangerous":10060,"ĠMunic":10061,"chor":10062,"Ġdepending":10063,"DL":10064,"ĠNev":10065,"Ġcritics":10066,"blockList":10067,"Ġconverted":10068,"ĠCape":10069,"Metadata":10070,"Ġchair":10071,"Ġquantum":10072,"Ġpayment":10073,"Ġrequests":10074,"PRE":10075,"insert":10076,"rah":10077,"ĠYouth":10078,"otion":10079,".[":10080,"ĠGard":10081,"wid":10082,"obby":10083,"ĠRick":10084,"Ġcomic":10085,"ĠPlace":10086,"ikh":10087,"ĠURL":10088,"matrix":10089,"component":10090,"igious":10091,"ĠProte":10092,"glas":10093,"iest":10094,"ĠDemocrats":10095,"Ġpasses":10096,"News":10097,"prime":10098,"Ġmechanism":10099,"Sy":10100,"ĠTreat":10101,"Ġsky":10102,"Ġsed":10103,"Ġpremier":10104,"Ġtalent":10105,"ĠRub":10106,"Icon":10107,"Ã¼r":10108,"ĠTownship":10109,"ternoon":10110,"fony":10111,"ĠChem":10112,"Ġautomatically":10113,"hus":10114,"ĠTokyo":10115,"700":10116,"Ġqualified":10117,"panel":10118,"quir":10119,"ĠRow":10120,"Ġillegal":10121,"Ġmoments":10122,"ĠJava":10123,"Ġsomewhat":10124,"hensive":10125,"Ġparticipate":10126,"Ġstrongly":10127,"Ġpictures":10128,"-->":10129,"unnel":10130,"Ġbytes":10131,"Ġdismiss":10132,"oust":10133,"ĠHans":10134,"Ġtrail":10135,"illery":10136,"Ġturning":10137,"Rele":10138,"Ġpossibility":10139,"odge":10140,"Ġphenomen":10141,"esome":10142,"Ġdiplom":10143,"hover":10144,"short":10145,"ĠSri":10146,"Ġvertical":10147,"eland":10148,"ĠPhoto":10149,"ĠEP":10150,"Ġreporting":10151,"Ġprompt":10152,"padding":10153,"Ġboost":10154,"ĠFigure":10155,"Ġadults":10156,"ĠĠĠĠĠĠĠĠĠĠĠĠĠĠĠĠĠĠĠĠĠĠĠĠĠĠĠĠĠĠĠĠĠĠĠĠĠĠĠ":10157,"Ġflying":10158,"Ġmagnetic":10159,"oking":10160,"Ġideal":10161,"bootstrap":10162,"ĠRight":10163,"ÃŃa":10164,"Biography":10165,"Ġsevere":10166,"\\\"":10167,"Ġincreasingly":10168,"Ġok":10169,"Ġconven":10170,"Ġsummary":10171,"Ġsurgery":10172,"Ġfewer":10173,"Ġdynamic":10174,"ĠSever":10175,"putation":10176,"----------------------------------------------------------------":10177,"Olymp":10178,"Ġmissed":10179,"Ġlists":10180,"Ġcontributed":10181,"Doc":10182,"req":10183,"achment":10184,"vo":10185,"ĠSwitzerland":10186,"Ġos":10187,"Ġprospect":10188,"Ġmal":10189,"ĠManager":10190,"âĢĻ.":10191,"Ġexplan":10192,"Render":10193,">();":10194,"Ġtrains":10195,"ĠDur":10196,"Ġwheel":10197,"ĠZh":10198,"Mr":10199,"Fields":10200,"Ġoffices":10201,"Invalid":10202,"1925":10203,"Events":10204,"Ġassistance":10205,"archy":10206,"Ġenjoyed":10207,"Root":10208,"double":10209,"Ġprocedure":10210,"Ġheavily":10211,"Ġentertainment":10212,"Ġnominated":10213,"1921":10214,"ĠVersion":10215,"Ġassumed":10216,"uable":10217,"Ġdecide":10218,"Ġpatterns":10219,"ĠDefense":10220,"ĠAfghan":10221,"Ġshel":10222,"Ġadvertising":10223,"1926":10224,"ĠNative":10225,"Ġassets":10226,"Ġinvent":10227,"Ġworse":10228,"ĠCop":10229,"1923":10230,"Ġpropag":10231,"Ġtechnologies":10232,"Ġheads":10233,"Ġpublisher":10234,"role":10235,"Game":10236,"citep":10237,"Ġpromotion":10238,"July":10239,"ishment":10240,"ĠNO":10241,"ĠBaron":10242,"ĠTa":10243,"Ġimplemented":10244,"Ġrating":10245,"eron":10246,"disabled":10247,"isition":10248,"rons":10249,"Ġrevenue":10250,"Ġhonest":10251,"ĠClark":10252,"ĠMarine":10253,"icut":10254,"Ġtelling":10255,"pare":10256,"ï¼":10257,"Ġstim":10258,"Ġraw":10259,"BM":10260,"\\[":10261,"ĠSarah":10262,"Iter":10263,"you":10264,"ĠAlbert":10265,"Ġrig":10266,"Ġsurn":10267,"ĠHeritage":10268,"Ġconsidering":10269,"ĠMO":10270,"ĠPy":10271,"success":10272,"Ġpitch":10273,"acts":10274,"ĠInstead":10275,"Ġexplos":10276,"Ġinterior":10277,"Ġlimits":10278,"Ġrooms":10279,"install":10280,"ĠResult":10281,"inline":10282,"Ġdesignated":10283,"ĠTel":10284,"kh":10285,"ĠHawai":10286,"imensions":10287,"}\"":10288,"Stack":10289,"Ġfinite":10290,"ĠTOD":10291,"emen":10292,"Ġknock":10293,"ĠKelly":10294,"Ġbyte":10295,"ĠNav":10296,"Film":10297,"webkit":10298,"osph":10299,"Ġcoaches":10300,"Ġreferences":10301,"SION":10302,"Ġprovider":10303,"FIG":10304,"Ġsubjects":10305,"=>":10306,"ĠLas":10307,"Ġrecommended":10308,"equiv":10309,"byte":10310,"Ġceremony":10311,"ĠJacob":10312,"elve":10313,"ARY":10314,"ĠNich":10315,"Ġris":10316,"Cam":10317,"Ġjazz":10318,"Api":10319,"Ġlaid":10320,"ĠExpress":10321,"Ġapparently":10322,"EST":10323,"replace":10324,"ĠCR":10325,"ĠPut":10326,"virtual":10327,"ĠIndex":10328,"ĠKa":10329,"125":10330,"Ġjoining":10331,"otten":10332,"Ġtherapy":10333,"Ġarbit":10334,"June":10335,"Ġexercise":10336,"Feb":10337,"Parser":10338,"spring":10339,"uties":10340,"Ġeffectively":10341,"Ġwalking":10342,"ĠRey":10343,"profit":10344,"gence":10345,"kappa":10346,"month":10347,"ĠBaseball":10348,"rule":10349,"Ġproport":10350,"Ġgiant":10351,"Ġtower":10352,"Ġflo":10353,"Ġongoing":10354,"Ġoldest":10355,"uted":10356,"ĠCapital":10357,"Ġprobability":10358,"ICE":10359,"dependency":10360,"Ġchose":10361,"ĠIO":10362,"endment":10363,"(*":10364,"Canadian":10365,"ĠEag":10366,"copy":10367,"incial":10368,"Ġsettled":10369,"deg":10370,"Ġfoundation":10371,"Ġattributes":10372,"Custom":10373,"Ġ[[":10374,"Ġpermission":10375,"ĠEmer":10376,"Ġha":10377,"Ġrefers":10378,"EQ":10379,"Ġwrites":10380,"living":10381,"Ġenabled":10382,"mediate":10383,"ĠLib":10384,"ardo":10385,"GBT":10386,"Ġproposal":10387,"ĠRepresentatives":10388,"}-":10389,"Ġvirt":10390,"Ġneuro":10391,"secutive":10392,"ĠNik":10393,"enda":10394,"ĠColomb":10395,"issippi":10396,"Ġattacked":10397,"uris":10398,"Ġfacing":10399,"Ġvillages":10400,"ĠProt":10401,"Ġbeauty":10402,"Ġdebt":10403,"ĠFa":10404,"Where":10405,"children":10406,"Tax":10407,"March":10408,"ĠEver":10409,"oyd":10410,"DI":10411,"overty":10412,"ĠGall":10413,"Ġrein":10414,"ÙĦ":10415,"\",\"":10416,"fortunately":10417,"Following":10418,"ĠArchitect":10419,"ĠChange":10420,"ĠProcess":10421,"phony":10422,"ĠAdvent":10423,"{-":10424,"Ġextr":10425,"recated":10426,"ortheast":10427,"ĠGib":10428,"Ġdepends":10429,"Ġmo":10430,"Ġfee":10431,"ĠVo":10432,"Ġkeyboard":10433,"ĠAndre":10434,"Ġgrown":10435,"ĠScient":10436,"ĠDa":10437,"rison":10438,"ĠNob":10439,"ĠMS":10440,"Äį":10441,"Ġrub":10442,"ĠDetroit":10443,"Ġvast":10444,"Ġpartial":10445,"Ġbes":10446,"essed":10447,"erick":10448,"ĠMayor":10449,"ĠExp":10450,"âĢĻ,":10451,"ĠNever":10452,"IVE":10453,"Ġwarning":10454,"rin":10455,"Ġexposure":10456,"auto":10457,"Ġrefuge":10458,"Ġmayor":10459,"Ġpup":10460,"Rect":10461,"Ġconversation":10462,"Ġstarring":10463,"ĠWhit":10464,"Ġspectrum":10465,"ancel":10466,"Ġgrade":10467,">.":10468,"ĠGarden":10469,"ĠLeb":10470,"Ġgrid":10471,"ĠSeattle":10472,"ĠBos":10473,"oda":10474,"ilst":10475,"Ġexceed":10476,"Ġfasc":10477,"Ġpregn":10478,"Ġcontinuous":10479,"Ġundert":10480,".âĢĻ":10481,"Ġaggreg":10482,"Policy":10483,"framework":10484,"Ġprev":10485,"Ġfought":10486,"lad":10487,"MD":10488,"Ġsuspect":10489,"Args":10490,"ĠThird":10491,"Sch":10492,"Ġapi":10493,"points":10494,"items":10495,"Ġcharacteristics":10496,"olars":10497,"Ġox":10498,"Ġdies":10499,"Ġroads":10500,"ribed":10501,"Ġdrag":10502,"icity":10503,"`.":10504,"BB":10505,"Ġflu":10506,"eah":10507,"aro":10508,"Day":10509,"exports":10510,"Ġrival":10511,"Bytes":10512,"Ġster":10513,"ĠAuthority":10514,"LOC":10515,"ĠFellow":10516,"Ġsam":10517,"Bel":10518,"Ġmedicine":10519,"Ġextend":10520,"angel":10521,"ĠCommun":10522,"Ġjson":10523,"Ġsignature":10524,"ĠFuture":10525,"128":10526,"Yes":10527,"Paul":10528,"Ġmask":10529,"Ġmales":10530,"ĠAmong":10531,"ĠRound":10532,"Editor":10533,"leveland":10534,"ĠVillage":10535,"iche":10536,"Ġsaved":10537,"Dialog":10538,"Ġexit":10539,"Sources":10540,";\\":10541,"Ġmob":10542,"who":10543,"Ġvoters":10544,"SET":10545,"Ġduty":10546,"Network":10547,"anka":10548,"Ġaccord":10549,"Ġreplacement":10550,"Ident":10551,"tery":10552,"'>":10553,"Ġlake":10554,"Ġheadquarters":10555,"Ġhur":10556,"atible":10557,"Ġexecution":10558,"Ġconfidence":10559,"ĠAnne":10560,"Ġlandscape":10561,"Ġancest":10562,"orry":10563,"rama":10564,"Free":10565,"Ġfaster":10566,"ĠAustria":10567,"Ġexport":10568,"Enabled":10569,"uese":10570,"ĠTraining":10571,"ĠTurkish":10572,"}}{":10573,"rik":10574,"Ġoperators":10575,"WS":10576,"outer":10577,"Ġdollars":10578,"uh":10579,"uj":10580,"Ġrid":10581,"protobuf":10582,"Ġestimate":10583,"Ġacceler":10584,"Ġwaters":10585,"ĠForces":10586,"ĠPa":10587,"Ġtries":10588,"Ġgift":10589,"ĠLink":10590,"Ġtank":10591,"closed":10592,"Î¿":10593,"Ġproud":10594,"dale":10595,"ĠGordon":10596,"\")]":10597,"ĠSoftware":10598,"Definition":10599,"acht":10600,"Ġcompare":10601,"ĀĀ":10602,"Ġfired":10603,"overnment":10604,"oni":10605,"Ġstages":10606,"ĠWy":10607,"rend":10608,"ĠImm":10609,"Ġexperiments":10610,"Descriptor":10611,"Mc":10612,"Ġbrown":10613,"Ġrect":10614,"Ġethnic":10615,"ĠJos":10616,"Ġunus":10617,"Ġsympt":10618,"callback":10619,"ĠEdition":10620,"LP":10621,"Ġmaintained":10622,"Ġusage":10623,"ĠLaure":10624,"Ġliterary":10625,"Ġcarrying":10626,"ĠPhill":10627,"Num":10628,"ĠJason":10629,"Ġapproaches":10630,"uple":10631,"rolling":10632,"Awards":10633,"ĠUl":10634,"Ġintegrated":10635,"Ġquiet":10636,"ĠJSON":10637,"HR":10638,"ĠDick":10639,"Ġpassenger":10640,"inian":10641,"ĠFind":10642,"acon":10643,"Ġmanufacturing":10644,",-":10645,"Ġsees":10646,"stood":10647,"Ġneither":10648,"ĠBowl":10649,"Ġgate":10650,"Ġembed":10651,"Ġreaching":10652,"cmd":10653,"Ġbirds":10654,"Ġbon":10655,"Ġvulner":10656,"Ġtab":10657,"Ã¥":10658,"Ġ&=":10659,"Ġdepos":10660,"ĠMcG":10661,"1913":10662,"ĠBuff":10663,"180":10664,"Ġregularly":10665,"zy":10666,"ateur":10667,"appy":10668,"Ġcontrols":10669,"Ġdict":10670,"Ġmoder":10671,"ĠRab":10672,"Ð°Ð":10673,"uating":10674,"LOG":10675,"sters":10676,"EXT":10677,"esis":10678,"onymous":10679,"Ġsitting":10680,"ĠTemple":10681,"ĠStandard":10682,"Ġsight":10683,"Tests":10684,"Ġstick":10685,"ĠOklahoma":10686,"pay":10687,"Ġcompete":10688,"ĠSearch":10689,"ĠVin":10690,"ĠMorgan":10691,"sql":10692,"Ġformula":10693,"ĠContin":10694,"plant":10695,"Rober":10696,"Ġreserved":10697,"Ġadmin":10698,"Ġbronze":10699,"aneous":10700,"focus":10701,"ĠHug":10702,"Ġlayout":10703,"asp":10704,"Ġtransmission":10705,"Ġru":10706,"avi":10707,"ĠAtlanta":10708,"Ġstatements":10709,"Ġcovering":10710,"Var":10711,"Delete":10712,"130":10713,"Ġnut":10714,"ĠSn":10715,"Wrap":10716,"Death":10717,"Ġgarden":10718,"ĠEarly":10719,"Ġangle":10720,"ibraries":10721,"Ġgap":10722,"Ġindependence":10723,"Selected":10724,"ĠCurrent":10725,"Ġfacilit":10726,"eli":10727,"Ġoccas":10728,"Ġpy":10729,"__(":10730,"Ġcenturies":10731,"ECK":10732,"ĠSche":10733,"ulus":10734,"sea":10735,"Ġimmediate":10736,"Ġthoughts":10737,"pres":10738,"plugins":10739,"Ġbear":10740,"Ġupdates":10741,"ĠAntonio":10742,"Ġsurprise":10743,"Crit":10744,"ĠTrade":10745,"Ġretirement":10746,"lix":10747,"MI":10748,"region":10749,"ĠRoberts":10750,"olo":10751,"tip":10752,"imore":10753,"ĠLam":10754,"Ġsons":10755,"zh":10756,"ĠStew":10757,"ĠAlan":10758,"imm":10759,"Changed":10760,"Ġrecept":10761,"Ġhealthy":10762,"Ġtasks":10763,"ensis":10764,"atherine":10765,"odec":10766,"apolis":10767,"istol":10768,"Byte":10769,"dimensional":10770,"Ġpassengers":10771,"ĠWalter":10772,"Ġanniversary":10773,"ĠGram":10774,"annotation":10775,"ipher":10776,"Ġeducated":10777,"Ġexperts":10778,"Ġsinging":10779,"about":10780,"orne":10781,"Ġroutes":10782,"VI":10783,"Ġwindows":10784,"toggle":10785,"CI":10786,"rystal":10787,"boolean":10788,"clude":10789,"Active":10790,"Ġfindings":10791,"Ġdiverse":10792,"opl":10793,"forms":10794,"Look":10795,"RS":10796,"KEY":10797,"Miss":10798,"ymn":10799,"Cent":10800,"Ġfaces":10801,"adoop":10802,"Common":10803,"ictional":10804,"urers":10805,"ostic":10806,"Ġresid":10807,"Ġexplains":10808,"Ġhorror":10809,"Ġshortly":10810,"Ġsad":10811,"Also":10812,"ĠWalker":10813,"asi":10814,"Ġwelcome":10815,"Ġcolle":10816,"Ġinjuries":10817,"Copy":10818,"ĠTag":10819,"oca":10820,"TEST":10821,"watch":10822,"rena":10823,"Ġdirectors":10824,"ĠImage":10825,"Tab":10826,"tsburgh":10827,"Ġdiscovery":10828,"Ġimpossible":10829,"Security":10830,"ĠUpdate":10831,"iot":10832,"Ġdrums":10833,"Ġvictim":10834,"ĠCow":10835,"itis":10836,"ĠBeng":10837,"Ġclassification":10838,"arest":10839,"Ġabstract":10840,"plicated":10841,"Rest":10842,"256":10843,"Ġpreced":10844,"Ġafternoon":10845,"ulatory":10846,"Â©":10847,"Ġefficiency":10848,"ĠFOR":10849,"Ġlib":10850,"try":10851,"ĠKam":10852,"ĠQueensland":10853,"Olympic":10854,"Transport":10855,"Ġfunctional":10856,"ĠAle":10857,"ĠEditor":10858,"sa":10859,"Ġtested":10860,"Ġforth":10861,"ĠBlock":10862,"Ġpercentage":10863,"ynasty":10864,"ĠBureau":10865,"Ġconsecutive":10866,"Ġadmitted":10867,"ĠJosh":10868,"jpg":10869,"Boolean":10870,"Ġcategories":10871,"dots":10872,"buf":10873,"ocese":10874,"ĠKit":10875,"Ġclar":10876,"wen":10877,"Space":10878,"ĠUnit":10879,"Ġcommander":10880,"1911":10881,"Ġcourses":10882,"ieval":10883,"Ġadvis":10884,"Ġmagic":10885,"Ġformerly":10886,"scribe":10887,"Ġbeach":10888,"2023":10889,"orses":10890,"hy":10891,"ĠSingh":10892,"Ġpapers":10893,"Ġmathemat":10894,"ctic":10895,"Ġgang":10896,"Ġapproval":10897,"Ġdestination":10898,"duces":10899,"ailand":10900,"lyph":10901,"Ġdesigns":10902,"ĠSO":10903,"Ġmaintenance":10904,"vy":10905,"Ġfundamental":10906,"Ġmetres":10907,"estyle":10908,"Ġgrass":10909,"anim":10910,"JECT":10911,"Ġsweet":10912,"ancell":10913,"Ġtargets":10914,"original":10915,"Ġedited":10916,"ĠTech":10917,"ilty":10918,"San":10919,"Ġng":10920,"Ġdesire":10921,"Ġexplo":10922,"ĠBull":10923,"ambig":10924,"Ġbreaking":10925,"Ġrequested":10926,"Ġmor":10927,"Ġevil":10928,"HP":10929,"ĠSin":10930,"Ġtemple":10931,"Ġlift":10932,"uscript":10933,"Ġpicked":10934,"Ġaer":10935,"ĠPas":10936,"ĠHills":10937,"ĠMean":10938,"Ġham":10939,"Ġfalls":10940,"ĠAlbum":10941,"opter":10942,"Ġadm":10943,"ĠBeck":10944,"ĠTelevision":10945,"ONE":10946,"razy":10947,"Ġprivacy":10948,"oenix":10949,"Ġentrance":10950,"Ġwallet":10951,"Ġemp":10952,"endor":10953,"Send":10954,"angular":10955,"ĠBeat":10956,"Final":10957,"Ġregime":10958,"ĠSpr":10959,"Ġgraduate":10960,"agment":10961,"isations":10962,"Ġexpensive":10963,"onna":10964,"ibilities":10965,"Ġcircuit":10966,"Ġsynd":10967,"Display":10968,"ĠSuch":10969,"ĠLA":10970,"Ġuncertain":10971,"Ġveget":10972,"Ġarmed":10973,";<":10974,"olph":10975,"Ġforget":10976,"Ġsuitable":10977,"Member":10978,"ĠClin":10979,"Sam":10980,"Ġconj":10981,"Ġ++":10982,"Ġsending":10983,"Ġvoting":10984,"Ġexcited":10985,"Sur":10986,"alian":10987,"Ġsucceeded":10988,"Ġpulled":10989,"Ġphilosophy":10990,"ĠArgentina":10991,"Ġur":10992,"acew":10993,"Ġcircumstances":10994,"spir":10995,"Ġmedalists":10996,"ders":10997,"April":10998,"ĠSH":10999,"ĠNorwegian":11000,"Mock":11001,"ĠBan":11002,"ugs":11003,"Extension":11004,"Ġexposed":11005,"ĠBus":11006,"Ġscores":11007,"inals":11008,"................":11009,"Ġconcluded":11010,"Family":11011,"connection":11012,"clip":11013,"thread":11014,"Ġemotional":11015,"Ġexcess":11016,"ĠSac":11017,"Ġassessment":11018,"ĠUsing":11019,"oop":11020,"ĠYan":11021,"Channel":11022,"Ġmembership":11023,"Ġyes":11024,"Ġhat":11025,"Ġrose":11026,"aman":11027,"Europe":11028,"ĠÂ©":11029,"ben":11030,"Hon":11031,"flu":11032,"~~~~":11033,"Ġversus":11034,"Ġplatforms":11035,"esterday":11036,"mock":11037,"Ġlots":11038,"ĠFame":11039,"Ġemployment":11040,"Ġmusician":11041,"ĠAustin":11042,"category":11043,"ĠFinn":11044,"ĠYes":11045,"ĠSyria":11046,"Own":11047,"Ġfleet":11048,"James":11049,"Ġgay":11050,"Ġdisappoint":11051,"Ġsoil":11052,"ĠPur":11053,"aware":11054,"Ġwearing":11055,"ĠLanguage":11056,"abad":11057,"Ġcommunications":11058,"Ġengines":11059,"/\\":11060,"aired":11061,"channel":11062,"green":11063,"Donald":11064,"Ġaccurate":11065,"olt":11066,"Ġdefin":11067,"Ġpractical":11068,"Ġdimension":11069,"ĠBruce":11070,"Ġabandoned":11071,"gments":11072,"Ġbench":11073,"ĠTask":11074,"Ġanth":11075,"Ġexecuted":11076,"Global":11077,"IME":11078,"Ġrecovery":11079,"Ġestablishment":11080,"Ġbelieves":11081,"Windows":11082,"Ġdepict":11083,"ĠPA":11084,"ĠTs":11085,"Ġpromise":11086,"ĠFive":11087,"ibl":11088,"security":11089,"VE":11090,"Rule":11091,"ĠĠĠĠĠĠĠĠĠĠĠĠĠĠĠĠĠĠ":11092,"FAULT":11093,"Ġdesigner":11094,"FS":11095,"iere":11096,"Ġextreme":11097,"ĠEconomic":11098,"indent":11099,"MB":11100,"iper":11101,"ĠDean":11102,"argument":11103,"Ġargued":11104,"roc":11105,"omas":11106,"enezuel":11107,"Ġwhereas":11108,"Ġdriven":11109,"widet":11110,"Former":11111,"father":11112,"Ġstruck":11113,"ĠChile":11114,"Storage":11115,"bara":11116,"Michael":11117,"amps":11118,"odox":11119,"ulous":11120,"rible":11121,"Ġsoccer":11122,"'))":11123,"ortion":11124,"engine":11125,"Struct":11126,"roduction":11127,"ĠProduct":11128,"Ġalive":11129,"dx":11130,"Ġrelief":11131,"Ġprize":11132,"bing":11133,"Ġattorney":11134,"Ġhook":11135,"ovak":11136,"Ġdisplayed":11137,"Ġsentence":11138,"ĠThompson":11139,"IND":11140,"HER":11141,"former":11142,"Ġproperly":11143,"edu":11144,"ĠConnecticut":11145,"addr":11146,"Ġbid":11147,"eping":11148,"help":11149,"Ġownership":11150,"ĠPlayer":11151,"erk":11152,"ĠNatural":11153,"isting":11154,"Ġrejected":11155,"ĠLimited":11156,"Ġcompletion":11157,"riers":11158,"Ġpul":11159,"alg":11160,"`,":11161,"application":11162,"Ġaccompan":11163,"ĠMississippi":11164,"\\%":11165,"Aud":11166,"Account":11167,"Ġalcohol":11168,"Ġcompens":11169,"ĠassertEquals":11170,"Ġliquid":11171,"apy":11172,"ĠFinancial":11173,"Ġconcentration":11174,"Rich":11175,"Ġteach":11176,"anches":11177,"Ġsynthes":11178,"area":11179,"Ġfranchise":11180,"ĠError":11181,"ĠMand":11182,"Xml":11183,"Ġtact":11184,"ĠAlliance":11185,"Tool":11186,"Ins":11187,"Meta":11188,"Ġbott":11189,"Australian":11190,"ĠĠĠĠĠĠĠĠĠĠĠĠĠĠĠĠĠĠĠĠĠĠĠĠĠ":11191,"ĠLouisiana":11192,"ĠDublin":11193,"Package":11194,"Ġ<=":11195,"iah":11196,"ĠMeg":11197,"Ġseparated":11198,"fef":11199,"Short":11200,"Ġcatalog":11201,"erg":11202,"Match":11203,"inburgh":11204,"Ġintr":11205,"ĠBrun":11206,"Please":11207,"lett":11208,"rying":11209,"Ġfruit":11210,"zo":11211,"Section":11212,"Ġrepro":11213,"ĠDocument":11214,"umps":11215,"linear":11216,"wig":11217,"player":11218,"iations":11219,"ĠThose":11220,"ĠNCAA":11221,"dependent":11222,"ĠEq":11223,"essages":11224,"ĠSmall":11225,"ĠMcK":11226,"Ġchildhood":11227,"Ġdetection":11228,"Ġbattery":11229,"rieved":11230,"profile":11231,"Ġpotentially":11232,"ĠDouglas":11233,"lon":11234,"Ġopera":11235,"itter":11236,"ĠHell":11237,"grid":11238,"ĠTax":11239,"ĠBelgium":11240,"ĠWas":11241,"Ġdeput":11242,"ĠPope":11243,"osed":11244,"never":11245,"unsigned":11246,"wild":11247,"Ġdrink":11248,"oly":11249,"1908":11250,"Ġsituated":11251,"Ġoffensive":11252,"Ġbone":11253,"Ġcontinuing":11254,"aco":11255,"ĠDance":11256,"Bibliography":11257,"ĠCopyright":11258,"uli":11259,"NOT":11260,"Lock":11261,"Ġoptional":11262,"story":11263,"ĠVegas":11264,"ĠStudios":11265,"ĠSwiss":11266,"Ġmyth":11267,"SQL":11268,"ĠHamp":11269,"Grid":11270,"Ġpresentation":11271,"Ġfacts":11272,"super":11273,"Ġhole":11274,"HTML":11275,"ĠKitt":11276,"none":11277,"ĠKaz":11278,"Ġcompetitive":11279,"ĠMaur":11280,"Ġ'/":11281,"widetilde":11282,"Ġadjacent":11283,"Ġ(*":11284,"Ġtemporary":11285,"Bas":11286,"eras":11287,"plus":11288,"gov":11289,"Ġdrawing":11290,"Ġtouchdown":11291,"Ġheaded":11292,"Mal":11293,"Ġtopics":11294,"ĠDallas":11295,"Ġcontroller":11296,"Ġsecretary":11297,"Ġinfluenced":11298,"Ġsubstit":11299,"ĠKings":11300,"ĠHoll":11301,"margin":11302,"Ġsav":11303,"Ġhate":11304,"Ġhosts":11305,"unning":11306,"Ġproducers":11307,"Pool":11308,"coq":11309,"Ġcruc":11310,"Ġnations":11311,"Ġheritage":11312,"Ġmeetings":11313,"atial":11314,"ĠChairman":11315,"such":11316,"leans":11317,"imit":11318,"ĠIron":11319,"}+":11320,"material":11321,"edit":11322,"ĠØ":11323,"Ġconsumers":11324,"ĠChampions":11325,"folio":11326,"ĠSchools":11327,"ĠAnna":11328,"Ġcharts":11329,"ĠIndependent":11330,"entials":11331,"ĠPeace":11332,"ĠIndonesia":11333,"Ġabsence":11334,"cover":11335,"liest":11336,"FM":11337,"ĠSource":11338,"Ġhence":11339,"oria":11340,"two":11341,"Ġ{};":11342,"Ġnavigation":11343,"ĠFalse":11344,"ĠResource":11345,"Mac":11346,"Ġentries":11347,"Ġ${":11348,"ificial":11349,"Ã©t":11350,"ĠTrack":11351,"late":11352,"]:":11353,"Ġtennis":11354,"Ġpointed":11355,"ĠReserve":11356,"Ġmit":11357,"exception":11358,"ĠðŁ":11359,"ĠRoom":11360,"ographical":11361,"Ġhired":11362,"ĠEmperor":11363,"Ġturb":11364,"Ġoccupied":11365,"ĠTake":11366,"Ġdistribut":11367,"Ġmeets":11368,"was":11369,"ynamic":11370,"Ġstruggle":11371,"ĠResources":11372,"Ġmilit":11373,"Ġbehaviour":11374,"IES":11375,"Ġcircle":11376,"ĠTrib":11377,"hedule":11378,"Sportspeople":11379,"Ġfeedback":11380,".*":11381,"Ġinstruments":11382,"_->":11383,"Ġchurches":11384,"Geography":11385,"ĠMission":11386,"ĠLawrence":11387,"Ġgrounds":11388,"Ġhell":11389,"Ġaxis":11390,"ctrine":11391,"ĠDak":11392,"Ġouter":11393,"Ġreleases":11394,"Ljava":11395,"inces":11396,"XT":11397,"BP":11398,"ĠJudge":11399,"bled":11400,"Your":11401,"Cond":11402,"izable":11403,"Ġweekly":11404,"Ġbigger":11405,"ĠHonor":11406,"ĠPRO":11407,"ĠBO":11408,"ĠStill":11409,"ĠFunction":11410,"oga":11411,"Ġdiscipl":11412,"raig":11413,"ĠArmen":11414,"August":11415,")).":11416,"Ġtub":11417,"Obj":11418,"ĠDO":11419,"ĠRussell":11420,"ĠMother":11421,"\\]":11422,"Ġobservations":11423,"Ġstadium":11424,"ĠHistorical":11425,"ĠTrail":11426,"ĠSaudi":11427,"Ġguests":11428,"Ġpublications":11429,"Ġmining":11430,"ĠBou":11431,"Cr":11432,"ĠMagn":11433,"Ñı":11434,"ĠHarvard":11435,"Ġcommitment":11436,"ĠCooper":11437,"Ġprinciples":11438,"reement":11439,"ĠPresent":11440,"Ġenhance":11441,"ĠSoc":11442,"Ġremind":11443,"ĠMalaysia":11444,"ytics":11445,"Ġours":11446,"Ġintellect":11447,"ĠCommonwealth":11448,"password":11449,"Ġupcoming":11450,"owed":11451,"ĠNation":11452,"ĠRefer":11453,"Ġocean":11454,"Ġpione":11455,"Ġelem":11456,"ĠNigeria":11457,"ĠUtah":11458,"comment":11459,"fefefe":11460,"Ġduration":11461,"Ġcreates":11462,"Ġcalculated":11463,"ĠGirls":11464,"Ġdual":11465,"Populated":11466,"upl":11467,"Ġawait":11468,"Ġatmosphere":11469,"ĠJuan":11470,"Ġabsolutely":11471,"Å«":11472,"Ġjunior":11473,"Indian":11474,"inv":11475,"Ġfriendly":11476,"Ġplenty":11477,"Ġelectro":11478,"ĠRoger":11479,"ĠFather":11480,"Ġuniverse":11481,"ĠDub":11482,"iop":11483,"Person":11484,"Ġruled":11485,"oths":11486,"Mus":11487,"agraph":11488,"aton":11489,"Ġcookies":11490,"ĠAbd":11491,"Ġtrouble":11492,"Ġinfin":11493,"idelines":11494,"ĠBart":11495,"Job":11496,"Ġhill":11497,"ogue":11498,"mouth":11499,"eness":11500,"Ġtied":11501,"Ġmillions":11502,"Ġreserve":11503,"Ġdefensive":11504,"leges":11505,"ĠMos":11506,"complete":11507,"Symbol":11508,"Ġwonderful":11509,"ĠAccount":11510,"iverpool":11511,"ĠOd":11512,"Ġconsisting":11513,"UID":11514,",'":11515,"ĠAgric":11516,"borough":11517,"Character":11518,"ĠAlber":11519,"eper":11520,"Queue":11521,"opes":11522,"Ġexciting":11523,"black":11524,"ĠKennedy":11525,"ĠPortugal":11526,"YPE":11527,"holders":11528,"\\|":11529,"ĠEss":11530,"ĠChristopher":11531,"cpp":11532,"Ġri":11533,"Ġbin":11534,"Ġbare":11535,"Ġplastic":11536,"earing":11537,"ste":11538,"Ġraid":11539,"ĠAbb":11540,"Ġtotally":11541,"ĠGulf":11542,"Ġminim":11543,"Ġtempor":11544,"ĠSel":11545,"irates":11546,"Ġstyles":11547,"Ġalert":11548,"Ġinvestors":11549,"ĠVolume":11550,"bow":11551,"oche":11552,"ĠABC":11553,"ĠStudy":11554,"Ġfounding":11555,"ĠPalace":11556,"inction":11557,"ĠMD":11558,"ĠPap":11559,"hadoop":11560,"tabular":11561,"Ġrising":11562,"Ġtrading":11563,"Ġjavax":11564,"Ġstrategies":11565,"Engine":11566,"Ġparking":11567,"1890":11568,"Ġtough":11569,"Ġlands":11570,"Ġadds":11571,"Ġvisiting":11572,"ĠWebsite":11573,"NT":11574,"ometric":11575,"ĠThough":11576,"ĠSud":11577,"\\{":11578,"orer":11579,"ĠLang":11580,"ĠEarl":11581,"Ġpaintings":11582,"Like":11583,"ĠAnalysis":11584,"ĠAdams":11585,"Ġdisk":11586,"MAX":11587,"ouver":11588,"herent":11589,"EP":11590,"Previous":11591,"Ġscatter":11592,"Edit":11593,"Ġthin":11594,"ĠDenmark":11595,"Ġslowly":11596,"Ġorganisation":11597,"IGHT":11598,"gon":11599,"ĠHit":11600,"Ġconcrete":11601,"Widget":11602,"Ġconclusion":11603,"Ġvacc":11604,"issance":11605,"save":11606,"ĠDal":11607,"Ġfalling":11608,"ifiers":11609,"Ġlosses":11610,"Ġanimation":11611,"Ġpublishing":11612,"ĠNag":11613,"ĠTaiwan":11614,"Ġinteger":11615,"ĠHockey":11616,"ĠNBA":11617,"Ġdemonstrated":11618,"making":11619,"Ġmsg":11620,"Ġprovision":11621,"ashi":11622,"Psi":11623,"reated":11624,"ĠMind":11625,"ntax":11626,"ĠFern":11627,"erver":11628,"Ġsigning":11629,"Ġhandler":11630,"Ġinaug":11631,"Ġinstanceof":11632,"ĠPack":11633,"Ġfemin":11634,"Ġequations":11635,"Ġpriority":11636,"ĠLiving":11637,"ĠOrth":11638,"ĠPuerto":11639,"Ġtruck":11640,"Transaction":11641,"Ġcoffee":11642,"Pal":11643,"Ġintegration":11644,"Prop":11645,"ĠThailand":11646,"romise":11647,"ĠBed":11648,"Ġticket":11649,"Ġevaluation":11650,"Ġsimult":11651,"Ġpopulations":11652,"Ġinhabit":11653,"Bit":11654,"Ġmile":11655,"asm":11656,"JSON":11657,"Ġgenre":11658,"Ġregulations":11659,"ĠBlood":11660,"Ġgenetic":11661,"Good":11662,"Ġaccessible":11663,"ĠWoman":11664,"Ġcref":11665,"GS":11666,"owski":11667,"ĠCommunications":11668,"orous":11669,"ĠNature":11670,"Ġsteam":11671,"ĠBulg":11672,"bus":11673,"Ġ(;":11674,"ĠVar":11675,"impl":11676,"Category":11677,"Ġbacking":11678,"Ġconservation":11679,"Sem":11680,"Ġfinishing":11681,"hatt":11682,"ĠBlog":11683,"Ġprepare":11684,"Ġinvention":11685,"ĠOption":11686,"Ġexclusive":11687,"ĠMotor":11688,"Ġarrival":11689,"ometimes":11690,"ĠRap":11691,"Ġprinciple":11692,"ĠKer":11693,"letter":11694,"Ġbehalf":11695,"Hz":11696,"MET":11697,"Dan":11698,"ĠFant":11699,"ĠLane":11700,"Ġhandling":11701,"ducer":11702,"Ġmarine":11703,"Ġobjective":11704,"Ġsin":11705,"ĠPear":11706,"ĠFight":11707,"Ġcolumns":11708,"ĠCole":11709,"Ġbuilder":11710,"uki":11711,"Ġparticles":11712,")),":11713,"Ġelig":11714,"usters":11715,"txt":11716,"Ġconfront":11717,"=\"\"":11718,"UC":11719,"ĠMovie":11720,"ĠCart":11721,"Ġincorporated":11722,"article":11723,"ĠBible":11724,"since":11725,"zed":11726,"Education":11727,"ĠCentury":11728,"Ġdial":11729,"Adapter":11730,"Ġsingers":11731,"Ġcourts":11732,"claimed":11733,"ĠMort":11734,"Ġreveals":11735,"Ġdating":11736,"Ġsetup":11737,"Ġaddresses":11738,"Ġtom":11739,"ĠSenator":11740,"IX":11741,"when":11742,"360":11743,"Ġfest":11744,"Ġrapidly":11745,"ĠCleveland":11746,"Ġprohib":11747,"Ġdisabled":11748,"Ġtransformation":11749,"Flags":11750,"102":11751,"ashes":11752,"Fore":11753,"ĠMatthew":11754,"ĠNelson":11755,"Ġbreath":11756,"Ġcolors":11757,"Ġcoeff":11758,"letion":11759,"Ġpresents":11760,"ĠWorks":11761,"Ġsurve":11762,"ferences":11763,"Bre":11764,"Ġsle":11765,"Ġthousand":11766,"ĠTar":11767,"ĠWard":11768,"ĠPrix":11769,"ĠÄ":11770,"aneously":11771,"ĠIndustry":11772,"Ġstrategic":11773,"\">&":11774,"Ġasks":11775,"enders":11776,"Print":11777,"Ġcommissioned":11778,"Ġreign":11779,"ĠRace":11780,"Ġcriticism":11781,"Ġhardware":11782,"Ġinstruct":11783,"Ġreputation":11784,"Ġimprovement":11785,"Ġconversion":11786,"centering":11787,"Ġroughly":11788,"ĠCroat":11789,"ĠFel":11790,"tons":11791,"Ġuniversities":11792,"ĠSpirit":11793,"Ġparticipation":11794,"shape":11795,"RT":11796,"_,":11797,"Ġunderstood":11798,"Ġtransportation":11799,"Ġanimated":11800,"ĠMars":11801,"posing":11802,"Ġpainter":11803,"iture":11804,"iology":11805,"Ġnarrative":11806,"ĠInv":11807,"iously":11808,"Ġcopyright":11809,"icol":11810,"Ġapplicable":11811,"(!":11812,"throws":11813,"Ġinvestigate":11814,"Ġimpressive":11815,"Ġathletes":11816,"Ġlistening":11817,"ĠGre":11818,"ĠAttorney":11819,"Ġweapon":11820,"Ġhtml":11821,"1905":11822,"Ġfantasy":11823,"Ġspokes":11824,"ĠLiberal":11825,"rock":11826,"makers":11827,"Ġcompetitions":11828,"Ġbinding":11829,"Timeout":11830,"@\"":11831,"Ġcurve":11832,"olves":11833,"Panel":11834,"Feature":11835,"upload":11836,"IE":11837,"Ġreporter":11838,"ĠSex":11839,"ĠDelhi":11840,"Ġinvalid":11841,"Ġacknowled":11842,"Ġsignals":11843,"Ġmart":11844,"ĠBillboard":11845,"Ġnucle":11846,"Ġislands":11847,"ĠCloud":11848,"Ġtur":11849,"hill":11850,"Ġarc":11851,"ĠOrleans":11852,"ĠĠĠĠĠĠĊ":11853,"Ġhistorian":11854,"105":11855,"Ġcrimes":11856,"riel":11857,"orus":11858,"Win":11859,"Ġdiversity":11860,"Ġbird":11861,"Ġbath":11862,"ĠChen":11863,"Ġdowntown":11864,"through":11865,"sin":11866,"ĠDefault":11867,"redited":11868,"FILE":11869,"network":11870,"ĠJenn":11871,"itro":11872,"ĠNE":11873,"()).":11874,"radius":11875,"queue":11876,"Ġentreprene":11877,"Pe":11878,"Ġmanip":11879,"Ben":11880,"Ġlaugh":11881,"Ġentering":11882,"ĠOm":11883,"ambiguation":11884,"Ġhighway":11885,"ĠHold":11886,"Imp":11887,"Ġsuffering":11888,"important":11889,"ounced":11890,"etween":11891,"ĠTheorem":11892,"issues":11893,"Ġbrands":11894,"Ġresidential":11895,"Total":11896,"Ġdiseases":11897,"ĠParam":11898,"Ġbriefly":11899,"ĠTravel":11900,"etermin":11901,"ti":11902,"ĠâĨ":11903,"blog":11904,"Ġaired":11905,"Ġseriously":11906,"cam":11907,"ĠMembers":11908,"ĠBeh":11909,"Ġenforcement":11910,"Ġcontribute":11911,"ĠGets":11912,"Ġcriteria":11913,"Ġnick":11914,"Ġsupporters":11915,"ĠEdinburgh":11916,"Ġbinary":11917,"ĠHave":11918,"Ġdire":11919,"Ġcomprehensive":11920,"Ġelectricity":11921,"ailability":11922,"ĠCore":11923,"1906":11924,"ĠKl":11925,"eding":11926,"Ġarbitr":11927,"ĉĉĉĊ":11928,"events":11929,"Ã´":11930,"uits":11931,"ÏĦ":11932,"Ġpoverty":11933,"sis":11934,"ĠNep":11935,"Ġholiday":11936,"Ġoutcome":11937,"ĠProp":11938,"Stand":11939,"Ġflash":11940,"Ġradiation":11941,"Ġinteractions":11942,"manager":11943,"Ġadapted":11944,"NG":11945,"1909":11946,"Ġmovements":11947,"ĠOpera":11948,"Review":11949,"ĠPolitical":11950,"Ġunderlying":11951,"ĠChallenge":11952,"ĠSquadron":11953,"iph":11954,"Ġstrings":11955,"tsd":11956,"115":11957,"ĠImperial":11958,"Ġintention":11959,"Ġwithdraw":11960,"scroll":11961,"selected":11962,"Ġpairs":11963,"alia":11964,"ĠFal":11965,"$)":11966,"Ġdiagram":11967,"Ġfault":11968,"ĠStudio":11969,"ĠFM":11970,"Ġtranslated":11971,"October":11972,"Float":11973,"ĠNash":11974,"Alex":11975,"Ġsubmitted":11976,"ĠPublishing":11977,"ĠDue":11978,"Ġinvasion":11979,"Ġhide":11980,"ĠPartners":11981,"Ġemployee":11982,"hour":11983,"Ġpreferred":11984,"will":11985,"vi":11986,"ĠStewart":11987,"Ġcup":11988,"maker":11989,"Ġaccuracy":11990,"Ġclock":11991,"ĠBrooklyn":11992,"Ġfraud":11993,"Ġinformed":11994,"ĠCarter":11995,"avan":11996,"Pay":11997,"=\"@":11998,"jamin":11999,"illiant":12000,"Ġpassword":12001,"Ġgauge":12002,"olished":12003,"uis":12004,"ĠWord":12005,"Scope":12006,"ĠRelations":12007,"======":12008,"ĠTher":12009,"Ġvelocity":12010,"ĠFinally":12011,"Ġmarks":12012,"Ġsupplement":12013,"Ġconsumption":12014,"ĠPract":12015,"elect":12016,"ĠNaval":12017,"Ġ$.":12018,"ĠCancer":12019,"Ġregarded":12020,"Ġdenied":12021,"orient":12022,"modules":12023,"avia":12024,"Route":12025,"ĠOS":12026,"}]":12027,"ĠAndy":12028,"Ġfurn":12029,"ĠPeters":12030,"}=\\":12031,"ĠOperation":12032,"Ġfarmers":12033,"etary":12034,"Mer":12035,"Ġinstruction":12036,"Ġterminal":12037,"ĠBit":12038,"ĠCampbell":12039,"Ġmonitoring":12040,"aha":12041,"Ġsymptoms":12042,"Ġawareness":12043,"iffs":12044,"Ġdecline":12045,"Auth":12046,"Ġgovernments":12047,"PER":12048,"etition":12049,"novation":12050,"elegate":12051,"ĠOrchestra":12052,"ãĢ":12053,"ĠBey":12054,"Ġcenters":12055,"Ġreact":12056,"Ġestimates":12057,"1907":12058,"ĠOrganization":12059,"ĠPatri":12060,"Ġcollections":12061,"Msg":12062,"oi":12063,"igate":12064,"ĠPortuguese":12065,"Ġ[];":12066,"Ġconvinc":12067,"Ġtou":12068,"ntil":12069,"ancouver":12070,"Ġresign":12071,"Ġopens":12072,"Ġwond":12073,"Ġedges":12074,"ĠQuebec":12075,"Ġhip":12076,"ĠRobinson":12077,"ĠDid":12078,"Ġmatching":12079,"Ġwedding":12080,"Ġrecru":12081,"Ġregistration":12082,"erning":12083,"ĠASS":12084,"ĠBangl":12085,"she":12086,"Proxy":12087,"Television":12088,"Perm":12089,"Ġclosing":12090,"ĠHub":12091,"Ġbot":12092,"each":12093,"onom":12094,"rupted":12095,"ĠBuddh":12096,"Ġcontents":12097,"Ġrescue":12098,"Ġpoem":12099,"Ġpenalty":12100,"Items":12101,"Ġspiritual":12102,"zeta":12103,"tha":12104,"editor":12105,"Ġcompact":12106,"Ġcrown":12107,"Ġrespective":12108,"Ġwatched":12109,"lemma":12110,"ĠDJ":12111,"eva":12112,"Ġtech":12113,"forward":12114,"ĠKnight":12115,"Ġflags":12116,"achel":12117,"Ġcricket":12118,"ĠGro":12119,"ĠDrive":12120,"Ġlat":12121,"Pub":12122,"Ġpolar":12123,"Ġneck":12124,"ellar":12125,")^{":12126,"winning":12127,"ulum":12128,"Ġmerged":12129,"ĠPittsburgh":12130,"ĠMarshall":12131,"Ġtrials":12132,"Ġconsisted":12133,"ĠĠĠĊ":12134,"Once":12135,"hl":12136,"Ġjudges":12137,"ĠLGBT":12138,"Robert":12139,"ĠWright":12140,"Ġconservative":12141,"geon":12142,"Ġresponses":12143,"112":12144,"ĠLl":12145,"Ġboss":12146,"Ġapps":12147,")=\\":12148,"PAR":12149,"numer":12150,"anded":12151,"yll":12152,"Ġguilty":12153,"asa":12154,"results":12155,"Ġconfident":12156,"ository":12157,"Ġalter":12158,"Ġaver":12159,"defined":12160,"Ġresidence":12161,"week":12162,"ĠGary":12163,"ĠPrint":12164,"Ġ%}":12165,"ĠTerrit":12166,"fish":12167,"controller":12168,"Ġaimed":12169,"Ġlabels":12170,"ĠPun":12171,"Ġfold":12172,".~":12173,"umped":12174,"nan":12175,"Ġadventure":12176,"ĠProperty":12177,"Ġoptical":12178,"VP":12179,"Who":12180,"Activity":12181,"Ġchampions":12182,"flags":12183,"Ġroots":12184,"Memory":12185,"September":12186,"Ġmidfield":12187,"OCK":12188,"Ġprocedures":12189,"million":12190,"ĠMorris":12191,"mates":12192,"ĠCass":12193,"Ġinvolves":12194,"Ġpaying":12195,"Ġtheater":12196,"closure":12197,"ikip":12198,"ĠStore":12199,"Ġtie":12200,"Old":12201,"Rob":12202,"FP":12203,"orted":12204,"SIZE":12205,"Ġmoral":12206,"Plot":12207,"ĠCharlie":12208,"twitter":12209,"Ġrum":12210,"Ġintroduce":12211,"1904":12212,"ĠMurray":12213,"ĠMichel":12214,"Ġsuicide":12215,"Logger":12216,"Ġrelax":12217,"Ġphotographer":12218,"Äĥ":12219,"ĠLemmon":12220,"enberg":12221,"nest":12222,"jquery":12223,"ĠLag":12224,"Ġspan":12225,"WR":12226,"Ġessentially":12227,"Ġ(,":12228,"icing":12229,"Born":12230,"Ġpersonality":12231,"Ġtemperatures":12232,"Ġpharm":12233,"Figure":12234,"Ġguid":12235,"Directory":12236,"Protocol":12237,"uler":12238,"Ġnurs":12239,"ĠCOM":12240,"Ġmeters":12241,"Ġdynamics":12242,"Ġexplanation":12243,"Abstract":12244,"ricane":12245,"Ġfunny":12246,"ayan":12247,"Labels":12248,"Files":12249,"Ġnecessarily":12250,"Ġinitiative":12251,"ĠFinance":12252,"Ġillness":12253,"Ġnormally":12254,"zone":12255,"Ġsick":12256,"Ġkne":12257,"Ġclimb":12258,"azines":12259,"irmingham":12260,"ĠBrazilian":12261,"Ġencoding":12262,"kt":12263,"sch":12264,"bits":12265,")))":12266,"works":12267,"Tom":12268,"ĠFinland":12269,"ĠSamuel":12270,"Ġneighbour":12271,"ategor":12272,"ĠMetro":12273,"Ġscal":12274,"ĠSpacew":12275,")));":12276,"Ġaccompanied":12277,"bytes":12278,"104":12279,"external":12280,"Ġworker":12281,"Details":12282,"anton":12283,"Ġfib":12284,"ĠBaltimore":12285,"annon":12286,"ugg":12287,"ĠBuck":12288,"Ġlowest":12289,"istence":12290,"Ġanticip":12291,"ĠArkansas":12292,"Ġsessions":12293,"Ġdevelopers":12294,"Ġseventh":12295,"ĠPrivate":12296,"ĠMicro":12297,"Ġstake":12298,"Internal":12299,"Ġtwelve":12300,")}\\":12301,"itative":12302,"ĠArena":12303,"ĠStars":12304,"ĠNeg":12305,"itarian":12306,"azy":12307,"Ġmail":12308,"Ġdesired":12309,"Ġchoices":12310,"blem":12311,"ifting":12312,"ĠChamber":12313,"Ġshopping":12314,"reation":12315,"ĠTig":12316,"Ġreveal":12317,"Ġimagine":12318,"Ġimplies":12319,"Ġagricultural":12320,"ĠAqu":12321,"ĠAC":12322,"ĠSafety":12323,"Ġthreshold":12324,"ĠMargaret":12325,"Ġdoors":12326,"900":12327,"Ġmanaging":12328,"Cur":12329,"Dest":12330,"fi":12331,"Ġlayers":12332,"Ġmouse":12333,"Ġruling":12334,"ĠSpacewatch":12335,"Ġinnovation":12336,"lab":12337,"ĠJu":12338,"Ġhappening":12339,"Ġsurprising":12340,"mate":12341,"cb":12342,"adr":12343,"stats":12344,"_(":12345,"ĠPortland":12346,"handler":12347,"Conn":12348,"Ġromantic":12349,"ĠInfantry":12350,"wp":12351,"hips":12352,"icular":12353,"Ġwer":12354,"ailure":12355,"Ġmachines":12356,"Ġamounts":12357,"Scott":12358,"Ġmanuscript":12359,"move":12360,"Ġmm":12361,"Ġdb":12362,"Ġreception":12363,"Ġjournalists":12364,"disambiguation":12365,"Ġdamaged":12366,"ĠRain":12367,"Ñĭ":12368,"icking":12369,"iginally":12370,"Ġreducing":12371,"Ġreasonable":12372,"ethyl":12373,"Ġconstrain":12374,"ĠAI":12375,"Ġtox":12376,"rift":12377,"Ġmeasurements":12378,"Release":12379,"ĠBoys":12380,"Ġcited":12381,"team":12382,"ĠLanc":12383,"Graph":12384,"Ġstating":12385,"Ġlanding":12386,"Ġinvolvement":12387,"Ġattr":12388,"ignment":12389,"views":12390,"Ġantib":12391,"Product":12392,"ospitals":12393,"usted":12394,"Ġstead":12395,"pository":12396,"ĠDest":12397,"ĠCarib":12398,"Club":12399,"ĠShah":12400,"ĠAppe":12401,"Ġimplements":12402,"properties":12403,"Ġdiet":12404,"ĠTob":12405,"kw":12406,"Ġenthus":12407,"cdots":12408,"Ġconventional":12409,"ĠVenezuel":12410,"ĠDeputy":12411,"ĠGraham":12412,"{{\\":12413,"READ":12414,"umph":12415,"Ãł":12416,"ĠResp":12417,"Ġstudying":12418,"Ġblow":12419,"Ġoperates":12420,"Ġblind":12421,"Ġrepair":12422,"ĠJonathan":12423,"1901":12424,"Ġvaluable":12425,"ĠAfghanistan":12426,"hai":12427,"Air":12428,"Football":12429,"ĠMes":12430,"Ġoutstanding":12431,"War":12432,"Ġwet":12433,"Ġsubstantial":12434,"acked":12435,"Ġrealized":12436,"Ġtow":12437,"Obs":12438,"ĠCemetery":12439,"Ġsurvive":12440,"Ġunusual":12441,"schema":12442,"Ġastron":12443,"Ġbtn":12444,"Ġskill":12445,"Ġphysics":12446,"ĠProtection":12447,"ikipedia":12448,"Military":12449,"izon":12450,"Ġencourage":12451,"itivity":12452,"etry":12453,"Ġmeasurement":12454,"axis":12455,"Ġtissue":12456,"elfare":12457,"Ġcuts":12458,"Ġfluid":12459,"ĠVik":12460,"Histor":12461,"ĠPlant":12462,"Ġlocomot":12463,"idal":12464,"Symfony":12465,"()));":12466,"rooms":12467,"domin":12468,"iri":12469,"aughters":12470,"scar":12471,"agic":12472,"Ġperiods":12473,"ĠBattalion":12474,"ĠComics":12475,"ĠMarie":12476,"Ġproteins":12477,"Ġlogic":12478,"Ġfairly":12479,"ĠFIG":12480,"Ġ\"\"":12481,"abe":12482,"dropdown":12483,"approx":12484,"Ġthemes":12485,"(){":12486,"ĠShar":12487,"Ġrecordings":12488,"ĠML":12489,"ĠBrothers":12490,"oting":12491,"Ġtropical":12492,"widehat":12493,"embr":12494,"ĠBetween":12495,"Begin":12496,"NotNull":12497,"Ġfishing":12498,"Ġmini":12499,"ĠSA":12500,"Ġreward":12501,"bes":12502,"ĠThanks":12503,"Î¹":12504,"Report":12505,"Ġsuddenly":12506,"owner":12507,"ĠDog":12508,"ĠJess":12509,"ĠThings":12510,"ĠUlt":12511,"empl":12512,"Ġcastle":12513,"ĠSD":12514,"Success":12515,"Ġprofit":12516,"Ġexped":12517,"umar":12518,"entle":12519,"berry":12520,"ĠPrice":12521,"January":12522,"thm":12523,"ĠTheater":12524,"Ġsurname":12525,"Close":12526,"gow":12527,"Ġsatellite":12528,"ĠĠĠĠĠĠĠĠĠĠĠĠĠĠĠĠĠĠĠĠĠĠĠĠ":12529,"Ġinnovative":12530,"ĠEnvironmental":12531,"Ġartistic":12532,"ĠAG":12533,"Ġ(),":12534,"ĠMaine":12535,"ĠForum":12536,"ĠElectric":12537,"Ġlux":12538,"çļ":12539,"Ġtheoret":12540,"ĠBarry":12541,"November":12542,"ĠFurthermore":12543,"ocate":12544,"ĠKath":12545,"140":12546,"aturally":12547,"Ġsolve":12548,"east":12549,"Ġconscious":12550,"Ġinteract":12551,"Organ":12552,"TABLE":12553,"ĠOriginal":12554,"ĠShould":12555,"Official":12556,"Ġracial":12557,"Ġdogs":12558,"domain":12559,"ĠNi":12560,"ivia":12561,"Vill":12562,"ĠCrown":12563,"components":12564,"Ġliked":12565,"1903":12566,"Ġmountains":12567,"ById":12568,"ĠPrincess":12569,"1880":12570,"ĠLiverpool":12571,"Ġdivor":12572,"Ġmeat":12573,"Ġcutting":12574,"Ġapartment":12575,";/":12576,"hers":12577,"////////////////////////////////":12578,"heastern":12579,"ĠFreedom":12580,"Ġsituations":12581,"inos":12582,"ĠGill":12583,"ĠMontreal":12584,"Ġstayed":12585,"Ġarranged":12586,"ĠâĢł":12587,"ĠSN":12588,"Ġhopes":12589,"ĠFried":12590,"LECT":12591,"Conf":12592,"ĠAdvis":12593,"Ġscholars":12594,"Ġlocally":12595,"account":12596,"ĠAnnual":12597,"hs":12598,"ĠDanish":12599,"Ġalgebra":12600,"aments":12601,"assets":12602,"Ġprinted":12603,"Lin":12604,"}^\\":12605,"total":12606,"Ġpublicly":12607,"Ġdeals":12608,"olving":12609,"[:":12610,"ĠCou":12611,"Ġlights":12612,"anean":12613,"backs":12614,"PG":12615,"efully":12616,"Ġbusy":12617,"Ġlawyers":12618,"Email":12619,"ĠCatal":12620,"++;":12621,"ushing":12622,"Sen":12623,"Ġflows":12624,"icken":12625,"zi":12626,"ĠMobile":12627,"Ġminimal":12628,"Ġtort":12629,"Ġreverse":12630,"Ġelder":12631,"oming":12632,"ĠMaybe":12633,"ĠHend":12634,"ĠStorm":12635,"ĠMuslims":12636,"Ġconstr":12637,"fare":12638,"agers":12639,"apsed":12640,"ĠLearning":12641,"}_\\":12642,"Green":12643,"Ġviolent":12644,"Ġlegacy":12645,"ĠJimmy":12646,"days":12647,"sets":12648,"tar":12649,"Major":12650,"Ġacquisition":12651,"ĠNam":12652,"Ġinstances":12653,"Ġpriest":12654,"chain":12655,"Ġble":12656,"Notable":12657,"Ġinterviews":12658,"bie":12659,"Ġorganic":12660,"ĠGuy":12661,"BN":12662,"ahn":12663,"á»":12664,"ceptions":12665,"raits":12666,"Ġsurvived":12667,"onomy":12668,"shift":12669,"Even":12670,"Ġcul":12671,"Double":12672,"git":12673,"ĠMess":12674,"ĠConvention":12675,"ÐµÐ":12676,"ĠGun":12677,"ĠChapter":12678,"ĠMi":12679,"Ġdefence":12680,"assertEqual":12681,"ĠDie":12682,"Ġbind":12683,"anne":12684,"Ġkeeps":12685,"Ġpushed":12686,"ĠMarketing":12687,"Ġthrown":12688,"Ġfinance":12689,"ĠFL":12690,"ĠBlues":12691,"Ġstrange":12692,"PD":12693,"construction":12694,"ĠVAL":12695,"ulu":12696,"Ġcrossing":12697,"ĠPS":12698,"Ġtickets":12699,"ĠRio":12700,"ĠStev":12701,"Enter":12702,"ĠPerformance":12703,"primary":12704,"Ġanywhere":12705,"ĠStudents":12706,"Ġfees":12707,"ĠTower":12708,"Ġconqu":12709,"Ġjuris":12710,"Ġsurvival":12711,"Ġbold":12712,"Ġpub":12713,"ĠHD":12714,"Profile":12715,"ĠMust":12716,"othy":12717,"Ġinstallation":12718,"ĠReform":12719,"Ġdetected":12720,"({\\":12721,"Ġequipped":12722,"ĠMoreover":12723,"Ġages":12724,"Ġconcerning":12725,"Ġduties":12726,"irk":12727,"Ġgolf":12728,"Ġbag":12729,"Ġlegs":12730,"illo":12731,"Today":12732,"avis":12733,"Ġwhilst":12734,"1902":12735,"ĠCrime":12736,"Ġcable":12737,"Ġdiam":12738,"IAL":12739,"ĠPrivacy":12740,"ÅŁ":12741,"Ġsalt":12742,"Ġplain":12743,"pin":12744,"Ġloyal":12745,"ĠExchange":12746,"Ġresponded":12747,"ĠĠĠĠĠĠĠĠĠĠĠĠĠĠĠĠĠĠĠĠĠĠ":12748,"ĠFranklin":12749,"asant":12750,"Ġinterpretation":12751,"çļĦ":12752,"specific":12753,"town":12754,"ĠBE":12755,"Ġresolve":12756,"norm":12757,"Ġbeer":12758,"December":12759,"theless":12760,"ĠAlice":12761,"stage":12762,"Ġillustr":12763,"ĠRepublicans":12764,"Ġpron":12765,"ĠPhoenix":12766,"Mart":12767,"ĠiPhone":12768,"ĠWarren":12769,"Ġcancel":12770,"Constr":12771,"prison":12772,"hattan":12773,"uru":12774,"ĠMarvel":12775,"ĠDragon":12776,"Ġ(+":12777,"Ġcelebrate":12778,"Ġflowers":12779,"Inv":12780,"ĠUkrainian":12781,"dp":12782,"ĠBrand":12783,"oped":12784,"ogram":12785,"cia":12786,"ĠFem":12787,"Ġqueue":12788,"oples":12789,"rous":12790,"Ġrisks":12791,"Ġmetric":12792,"Ġcompliance":12793,"Ġderiv":12794,"ĠStudent":12795,"platform":12796,"ĠJazz":12797,"finals":12798,"GC":12799,"typed":12800,"orporated":12801,"Help":12802,"ĠToy":12803,"ĠMadrid":12804,"opic":12805,"Academ":12806,"blue":12807,"Ġelectrical":12808,"Ã«":12809,"Ġspir":12810,"ĠArg":12811,"Ġignore":12812,"Jack":12813,"ĠPod":12814,"->_":12815,"trigger":12816,"*)":12817,"ĠTree":12818,"assertEquals":12819,"ecture":12820,"nia":12821,"Ġclassified":12822,"encer":12823,"Ġrecon":12824,"ĠWayne":12825,"Ġstretch":12826,"usalem":12827,"}\\,":12828,"raid":12829,"apply":12830,"350":12831,"hot":12832,"ovo":12833,"Ġ\\{":12834,"zym":12835,"âĢ¦.":12836,"inher":12837,"Ġvariation":12838,"Ġcelebrated":12839,"ĠAdditionally":12840,"Ġdocumentation":12841,"ymp":12842,"Ġjoy":12843,"OUT":12844,"ĠBond":12845,"ĠBrigade":12846,"Ġengage":12847,"oustic":12848,"ĠBaker":12849,"ĠEvans":12850,"ĠGon":12851,"Î½":12852,"VA":12853,"Ġaims":12854,"some":12855,"nik":12856,"Health":12857,"ĠMitchell":12858,"Ġdealing":12859,"Opt":12860,"graduate":12861,"Enum":12862,"ĠIL":12863,"ITE":12864,"Ġprofessionals":12865,"Ġdestruction":12866,"Ġmorph":12867,"parison":12868,"Ġcounsel":12869,"protected":12870,"Ġparticle":12871,"Ġviewed":12872,"changed":12873,"ookie":12874,"acking":12875,"ÑĮ":12876,"imp":12877,"ĠStage":12878,"School":12879,"}^{(":12880,"Ġcomed":12881,"Ġleaf":12882,"Loader":12883,"February":12884,"ĠSeveral":12885,"oj":12886,"Ġcrypt":12887,"iden":12888,"Ġtone":12889,"Ġindicating":12890,"gorithms":12891,"ĠCensus":12892,"Ġradius":12893,"Ġthreatened":12894,"Ġspoken":12895,"Keys":12896,"Ġappointment":12897,"Ġrestaurants":12898,"Elect":12899,"Ġfake":12900,"Ġconsequences":12901,"Ġgall":12902,"Ġproduces":12903,"ĠIan":12904,"song":12905,"=\"\">":12906,"Ġlikes":12907,"ĠRy":12908,"Ġarchae":12909,"Ġcredits":12910,"Ġhypothes":12911,"Profess":12912,"ARD":12913,"onda":12914,"Ġaffairs":12915,"Ġisolated":12916,"Ġproviders":12917,"Ġsacr":12918,"Ġengagement":12919,"ĠDays":12920,"typeof":12921,"Support":12922,"Ġvirus":12923,"tmp":12924,"keyword":12925,"George":12926,"ĠFam":12927,"à¤¾":12928,"Ġfunc":12929,"Ġshots":12930,"hal":12931,"Ġsa":12932,"Ġassociate":12933,"VERSION":12934,"Ġsportspeople":12935,"Ä«":12936,"adies":12937,"Ġdimensions":12938,"Scroll":12939,"City":12940,"igo":12941,"Java":12942,"igs":12943,"ĠPast":12944,"Ġfol":12945,"lg":12946,"athered":12947,"Ġmomentum":12948,"ĠClar":12949,"Mount":12950,"ĠCOVID":12951,"hidden":12952,"Ġverify":12953,"Ġliberal":12954,"aping":12955,"Ġwalked":12956,"ĠJe":12957,"Ġimmigration":12958,"^+":12959,"aba":12960,"ĠYet":12961,"Ġputs":12962,"Ġrhyth":12963,"Super":12964,"ĠSteel":12965,"party":12966,"Real":12967,"ĠOwn":12968,"ceive":12969,"ĠEpisode":12970,"Ġloaded":12971,"Ġsail":12972,"ters":12973,"Ġconsent":12974,"verseas":12975,"ropy":12976,"Ġvolumes":12977,"ĠCher":12978,"Ġbits":12979,"may":12980,"Browser":12981,"Ġelsewhere":12982,"ĠComputer":12983,"Ġclim":12984,"ĠBilly":12985,"likely":12986,"ĠSimilar":12987,"Ġoperational":12988,"ĠNad":12989,"=\"${":12990,"'])":12991,"Ġske":12992,"Copyright":12993,"Ġsuspended":12994,"fold":12995,"Ġknowing":12996,"Ġsensitive":12997,"Ġpainted":12998,"ĠRand":12999,"Ġrealize":13000,"Ġstem":13001,"Ġphotography":13002,"ĠPil":13003,"ĠVari":13004,"ĠPrior":13005,"pred":13006,"gg":13007,"Ġcompilation":13008,"omes":13009,"Ġdesert":13010,"Seg":13011,"Ġsurprised":13012,"video":13013,"ĠPolitics":13014,"ĠAy":13015,"Ġdisestabl":13016,"ijing":13017,"ĠBroadway":13018,"annes":13019,"Ġencouraged":13020,"election":13021,"Ġidx":13022,"Ġinfection":13023,"ĠSU":13024,"tor":13025,"Ġchallenging":13026,"Ġdeputy":13027,"Ġgenes":13028,"Ġmapping":13029,"ĠMaj":13030,"Ġpersonally":13031,"Ġbreast":13032,"Selector":13033,"Roman":13034,"iterr":13035,"ĠStanley":13036,"itations":13037,"Prior":13038,"Ġhasn":13039,"Ġpseud":13040,"Ġreportedly":13041,"Ġscr":13042,"Ġfn":13043,"ĠFisher":13044,"ĠAnc":13045,"Single":13046,"ĠPlus":13047,"PATH":13048,"ĠViol":13049,"Register":13050,"via":13051,"ĠĠĠĠĠĠĠĠĠĠĠĠĠĠĠĠĠĠĠĠĠĠĠĠĠĠĠĠĠ":13052,"Ġactivist":13053,"Ġdir":13054,"Ġresigned":13055,"vironments":13056,"ifferent":13057,"Ġearliest":13058,"Ġtoler":13059,"ĠNeb":13060,"Ġadaptation":13061,"Ġreven":13062,"ĠTak":13063,"scr":13064,"Ġinterval":13065,"Ġobviously":13066,"Ġembr":13067,"Ġabund":13068,"ĠArn":13069,"notes":13070,"ĠPlanning":13071,"Ġcharity":13072,"Ġpopularity":13073,"Ġaccordance":13074,"ĠMessage":13075,"Ġrounds":13076,"ĠSI":13077,"terior":13078,"ĠConfig":13079,"ractions":13080,"ĠSoul":13081,"iors":13082,"ĠAnal":13083,"Player":13084,"tw":13085,"Ġvalley":13086,"ĠClassic":13087,"Ġsurrounded":13088,"ĠShel":13089,"Ġ).":13090,"Ġdated":13091,"emed":13092,"avery":13093,"Div":13094,"Ġworship":13095,"NavBarCell":13096,"ĠMPs":13097,"Ġinhabitants":13098,"ĠDakota":13099,"NE":13100,"Ġspeaker":13101,"estone":13102,"Layer":13103,"Ġbull":13104,"mask":13105,"utf":13106,"inea":13107,"Ġradical":13108,"Ġpaths":13109,"minute":13110,"ĠLeban":13111,"Ġorganisations":13112,"Ġdust":13113,"din":13114,"webpack":13115,"HOD":13116,"celona":13117,"xygen":13118,"Week":13119,"ĠIce":13120,"Ġstability":13121,"tools":13122,"cription":13123,"Ġoblig":13124,"Â®":13125,"cluded":13126,"lu":13127,"Ġsoph":13128,"117":13129,"structor":13130,"ĠPad":13131,"casting":13132,"Ġrestored":13133,"ethe":13134,"ourt":13135,"President":13136,"Children":13137,"ĠDoes":13138,"NY":13139,"}:":13140,"Ġrational":13141,"alks":13142,"Elements":13143,"Ġhybrid":13144,"sson":13145,"ĠOri":13146,"Ġrepresentatives":13147,"ĠParker":13148,"Coll":13149,"Ġcapabilities":13150,"written":13151,"Ġsuperior":13152,"ikes":13153,"åı":13154,"ĠCert":13155,"Ġstronger":13156,"oro":13157,"ishops":13158,"Ġgreatly":13159,"Ġcoastal":13160,"rays":13161,"issa":13162,"Ġcongress":13163,"browser":13164,"Mill":13165,"Ġfeelings":13166,"bg":13167,"Ġinstructions":13168,"Ġ(@":13169,"ĠDeep":13170,"ĠBrew":13171,"INFO":13172,"Ġpeer":13173,"Ġvenue":13174,"Bur":13175,"ĠComment":13176,"ĠHash":13177,"Ġtaxes":13178,"Remove":13179,"listed":13180,"Ġhurt":13181,"Ġ{{":13182,"olen":13183,"Ġrecognize":13184,"Cert":13185,"ido":13186,"Ġannouncement":13187,"Ġio":13188,"Ġcolspan":13189,"Ġgram":13190,"ĠTan":13191,".),":13192,"Comment":13193,"ĠTODO":13194,"ĠMountains":13195,"hide":13196,"ĠAssistant":13197,"Business":13198,"iti":13199,"VM":13200,"Ġfragment":13201,"Ġdemands":13202,"ĠVancouver":13203,"Despite":13204,"ĠImages":13205,"Ġswimming":13206,"Ġtables":13207,"Ġappearing":13208,"Ġboot":13209,"ĠChampion":13210,"ĠHampshire":13211,"ĠKarl":13212,"ols":13213,"rish":13214,"Program":13215,"ĠMovement":13216,"ĠSnow":13217,"ĠMyst":13218,"Ġnoticed":13219,"Ġfinger":13220,"textwidth":13221,"Ġmilk":13222,"103":13223,"RES":13224,"symbol":13225,"Ġcous":13226,"Ġrunner":13227,"Ġyesterday":13228,"ĠMack":13229,"parser":13230,"ULE":13231,"emon":13232,"bai":13233,"ĠHawaii":13234,"Ġgam":13235,"Ġbeam":13236,"Ġbike":13237,"Ø±":13238,"insula":13239,"ĠGrad":13240,"ĠPant":13241,"Annot":13242,"idges":13243,"Ġexecute":13244,"Ġsignificance":13245,"kov":13246,"ivan":13247,"Ġresort":13248,"ĠHunter":13249,"})\\":13250,"ĠCultural":13251,"upid":13252,"ĠWelsh":13253,"Ġtiny":13254,"Summary":13255,";\"|":13256,"oker":13257,"ĠWeekly":13258,"Ġscenario":13259,"Russian":13260,"ĠBes":13261,"udson":13262,"ĠCaribbean":13263,"ĠFrederick":13264,"ĠPos":13265,"Ġfrust":13266,"Ġpossess":13267,"Ġcollective":13268,"ĠUrban":13269,"ĠOil":13270,"ĠHunt":13271,"ĠTed":13272,"uer":13273,"106":13274,"ectors":13275,"{(":13276,"Ġactresses":13277,"Ġdinner":13278,"itime":13279,"ĠBangladesh":13280,"ĠPictures":13281,"Ġsharp":13282,"imental":13283,"Ġpointer":13284,"parameters":13285,"Ġmarg":13286,"oned":13287,"ĠHorn":13288,"ĠRugby":13289,"Ġbars":13290,"alph":13291,"ĠMetropolitan":13292,"OB":13293,"upt":13294,"}</":13295,"ĠMom":13296,"Ġoutcomes":13297,".:":13298,"Ġsustainable":13299,"Ġbranches":13300,"mutable":13301,"pread":13302,"Ġconstructor":13303,"Plugin":13304,"Ġkinds":13305,"Ġimprovements":13306,"Ġnam":13307,"ĠCT":13308,"ĠCommander":13309,"ĠHad":13310,"Ġtrick":13311,"ĠSpeed":13312,"ĠIranian":13313,"Ġanswers":13314,"Ġfulf":13315,"Ġliterally":13316,"White":13317,"Ùħ":13318,"acre":13319,"Ġraising":13320,"ĠJoy":13321,"Ġdemonstrate":13322,"Ġsizes":13323,"special":13324,"ĠLegislative":13325,"orro":13326,"Ġcolonial":13327,"IPT":13328,"Ġpraised":13329,"Ġcontroversial":13330,"ĠLanka":13331,"1898":13332,"################":13333,"Ġmetadata":13334,"Ġamongst":13335,"keeper":13336,"Attributes":13337,"ĠBarbara":13338,"echo":13339,"Ġregulation":13340,"Ġpreparation":13341,"annah":13342,"Ter":13343,"Ġcollapse":13344,"×Ļ":13345,"Ġsoundtrack":13346,"ĠCell":13347,"Ġreson":13348,"iko":13349,"uez":13350,"ĠNBC":13351,"Ġactivists":13352,"Ġmonthly":13353,"ĠChristians":13354,"ĠGlas":13355,"Ġtaste":13356,"HA":13357,"ricket":13358,"Ġforming":13359,"oids":13360,"Ġvisits":13361,"Ġthinks":13362,"Ġbiological":13363,"Ġaccum":13364,")\">":13365,"ationally":13366,"','":13367,"ysical":13368,"XML":13369,"ĠAthe":13370,"&=":13371,"Ġconstraints":13372,"ridge":13373,"Matrix":13374,"Ġchap":13375,"IONS":13376,"Ġdependent":13377,"Contact":13378,"Ġidentical":13379,"Ġexclus":13380,"ĠAlaska":13381,"ogene":13382,"configuration":13383,"116":13384,"Parse":13385,"Ġboundaries":13386,"Ġsilent":13387,"Ġcasual":13388,"mers":13389,"depth":13390,"Func":13391,"BY":13392,"contains":13393,"ĠER":13394,"aho":13395,"Ġneutral":13396,"ĠNode":13397,"Ġtrace":13398,"Three":13399,"Ġlegit":13400,"ĠKon":13401,"Ġgrab":13402,"Duration":13403,".__":13404,"ĠPrimary":13405,"REE":13406,"SW":13407,"Initial":13408,"Ġbio":13409,"Ġ..":13410,"Ġimproving":13411,"SY":13412,"Ġfraction":13413,"ĠMagic":13414,"Ġprisoners":13415,"ifle":13416,"ĠProfessional":13417,"Ġrailroad":13418,"[$":13419,"Ġhorses":13420,"Fix":13421,"outube":13422,"ĠChron":13423,"ĠPoll":13424,"qquad":13425,"Ġchecks":13426,"horizontal":13427,"leased":13428,"flix":13429,"Auto":13430,"Ġprotests":13431,"Ġconcepts":13432,"nil":13433,"Ġlicensed":13434,"ĠBirmingham":13435,"rise":13436,"zero":13437,"Ġappend":13438,"Ġcompeting":13439,"Ġcrucial":13440,"Ġconsiderable":13441,"ĠInstagram":13442,"napshot":13443,"ummy":13444,"ĠPerson":13445,"ĠWAR":13446,"Ġsupplied":13447,"111":13448,"whel":13449,"ĠCollins":13450,"Ġmodes":13451,"uin":13452,"Ġhal":13453,"TT":13454,"ĠMong":13455,"ĠFBI":13456,"Ġwounded":13457,"ADD":13458,"ĠLandroid":13459,"Afric":13460,"ĠStories":13461,"Pattern":13462,"FE":13463,"ĠMall":13464,"Works":13465,"Make":13466,"ĠStre":13467,"throw":13468,"rage":13469,"Ġpand":13470,"Ġsupplies":13471,"Ġdeeply":13472,"iterranean":13473,"speed":13474,"Ġtransparent":13475,"ĠRailroad":13476,"AK":13477,"Japanese":13478,"quis":13479,"Ġmerely":13480,"Ġdisag":13481,"}}(":13482,"Ġregardless":13483,"rimination":13484,"Watch":13485,"idespread":13486,"ĠIE":13487,"Ġbrilliant":13488,"ĠRot":13489,"Ġmolecular":13490,"ĠSumm":13491,"ĠHIV":13492,"1870":13493,"ĠÃī":13494,"Ġna":13495,"ĠHindu":13496,"uclear":13497,"Sync":13498,"Ġdeclined":13499,"whe":13500,"Ġreplacing":13501,"}|":13502,"Ġdescend":13503,"âĤ¬":13504,"opsis":13505,"umed":13506,"UTF":13507,"ĠBeaut":13508,"lee":13509,"Ġcomplement":13510,"Ġoverl":13511,"Ġourselves":13512,"Ġcoinc":13513,"aceae":13514,"castle":13515,"STAT":13516,"Ġemerged":13517,"tesy":13518,"Ġanyway":13519,"ĠCarlos":13520,"obi":13521,"Ġordinary":13522,"ĠSide":13523,"limit":13524,"eling":13525,"ĠCos":13526,"ĠClear":13527,"Database":13528,"Ġdisaster":13529,"Ġwebsites":13530,"ĠBomb":13531,"Ġvessels":13532,"ĠPi":13533,"Ġchrom":13534,"ĠHungary":13535,"ĠLINE":13536,"proto":13537,"ateral":13538,"Ġsizeof":13539,"Ġinspiration":13540,"Ġtip":13541,"ĠBernard":13542,"Ġexploration":13543,"Ġspeakers":13544,"riors":13545,"ĠArchives":13546,"ĠElementary":13547,"=(":13548,"Ġju":13549,"erving":13550,"Ġintervention":13551,"large":13552,"Ġ(_":13553,"Ġinstant":13554,"logger":13555,"Ġdebug":13556,"ĠET":13557,"pair":13558,"ĠComments":13559,"ĠJohnny":13560,"ĠSelect":13561,"Ġobservation":13562,"LINE":13563,"ĠTalk":13564,"dialog":13565,"ĠLieutenant":13566,"onal":13567,"ĠTol":13568,"Ġfavourite":13569,"Îµ":13570,"Ġreceives":13571,"Ġfails":13572,"1899":13573,"Ġvenues":13574,"âĢĭ":13575,"ĠSay":13576,"Ġconvention":13577,"Ġexpectations":13578,"Ġtransactions":13579,"ĠĠĠĠĠĠĠĠĠĠĠĠĠĠĠĠĠĠĠĠĠĠĠĠĠĠĠĠĠĠĠĠĠĠĠĠĠĠĠĠĠĠĠ":13580,"Ġfocuses":13581,"ĠJerusalem":13582,"ulates":13583,"intendo":13584,"Cloud":13585,"Ġflights":13586,"Ġclaiming":13587,"metadata":13588,"Station":13589,"ĠPhD":13590,"athon":13591,"bach":13592,"lington":13593,"ĠPL":13594,"Ġdelight":13595,"Ġ(-":13596,"props":13597,"ĠRud":13598,"ĠArabia":13599,"ĠLore":13600,"Ġwider":13601,"Ġdesk":13602,"ĠTamil":13603,"ĠCBS":13604,"Ġindigenous":13605,"Ġintersection":13606,"Ġassass":13607,"ĠjQuery":13608,"Ġfoss":13609,"Area":13610,"×ķ":13611,"ĠConcert":13612,"Ġidentification":13613,"Ġbreaks":13614,"ĠRic":13615,"Ġpartition":13616,"Master":13617,"ĠIOException":13618,"ĠLoc":13619,"Ġbirthday":13620,"Ġnewspapers":13621,"ĠMs":13622,"ĠEvents":13623,"$/":13624,"Ġgro":13625,"Ġproven":13626,"ĠInn":13627,"ĠNeed":13628,"identifier":13629,"UST":13630,"ĠCraig":13631,"ĠChel":13632,"Ġrarely":13633,"enson":13634,"Ġdecrease":13635,"ĠBenjamin":13636,"Ġupload":13637,"Bro":13638,"Live":13639,"Ġvital":13640,"Ġreceiver":13641,"dim":13642,"ĠFalls":13643,"Ġcm":13644,"ĠAld":13645,"ĠKu":13646,"ptic":13647,"{$":13648,"Place":13649,"ĠIntelligence":13650,"Ġmechanisms":13651,"aptist":13652,"ties":13653,"Ġconstantly":13654,"CHECK":13655,"Statement":13656,"Ġmechanical":13657,"SN":13658,"ucker":13659,"ToString":13660,"Ġgard":13661,"Ġphotographs":13662,"Ġtheories":13663,"Ġabroad":13664,"Ġarrive":13665,"Region":13666,"Ġcompound":13667,"ĠCampaign":13668,"Ġtargeted":13669,"Ġdepression":13670,"icit":13671,"ĠLith":13672,"done":13673,"Ġcheap":13674,"ĠAlfred":13675,"Ġannot":13676,"Ġion":13677,"Ġconsideration":13678,"ĠVienna":13679,"Ġdrew":13680,"Ġfirms":13681,"Den":13682,"ĠUpper":13683,"ĠAustrian":13684,"ĠOrange":13685,"ĠIndians":13686,"Pointer":13687,"Ġillustrated":13688,"ĠEdd":13689,"Ġbuying":13690,"beat":13691,"uka":13692,"acer":13693,"Ġunlike":13694,"Ġposter":13695,"Private":13696,"Ġpars":13697,"Ġconnecting":13698,"ĠLower":13699,"Ġunexpected":13700,"FFFF":13701,"ĠChart":13702,"ĠManhattan":13703,"ymmet":13704,"zes":13705,"Ġease":13706,"NULL":13707,"Ġcolleagues":13708,"Ġdynasty":13709,"mund":13710,"zerbai":13711,"Ġchronic":13712,"ĠCarm":13713,"ÙĨ":13714,"ivo":13715,"ĠSett":13716,"ĠZone":13717,"Ġswit":13718,"Ġuniversal":13719,"facebook":13720,"died":13721,"izers":13722,"ĠCharlotte":13723,"ytic":13724,"ĠRico":13725,"Ġdisorder":13726,"Ġfunded":13727,"ographics":13728,"ĠMak":13729,"Ġhabitat":13730,"ĠNord":13731,"printf":13732,"Ġdivisions":13733,"Ġ\"<":13734,"reset":13735,"Ġintegral":13736,"European":13737,"Ġaside":13738,"Ġrotation":13739,"ĠSM":13740,"ĠTournament":13741,"wright":13742,"ĠWang":13743,"getName":13744,"Because":13745,"ĠEli":13746,"ĠLuke":13747,"Mapping":13748,"isan":13749,"ĠOperations":13750,"olia":13751,"Card":13752,"Ġrivers":13753,"usr":13754,"Ġ=========":13755,"Ġpartially":13756,"Ġdenote":13757,"ĠCommunist":13758,"Ġdisturb":13759,"Ġdrinking":13760,"ĠHope":13761,"ĠGas":13762,"ĠShop":13763,"}'":13764,"ĠKo":13765,"Ġviewers":13766,"Ġrequirement":13767,"layer":13768,"stable":13769,"Ġeating":13770,"ĠArtist":13771,"ĠSoccer":13772,"emor":13773,"izard":13774,"OF":13775,"lia":13776,"Ġflower":13777,"good":13778,"vc":13779,"Identifier":13780,"108":13781,"Ġreads":13782,"perform":13783,"ipper":13784,"Ġmuscle":13785,"switch":13786,"Ġdominant":13787,"Jul":13788,"ultan":13789,"otton":13790,"Ãª":13791,"Ġwithd":13792,"uart":13793,"Ġdoctors":13794,"AE":13795,"Ġprefix":13796,"Ġsheet":13797,"ĠCredit":13798,"Ġrelating":13799,"ĠâĨĴ":13800,"Did":13801,"Ġcomfortable":13802,"Ġguidance":13803,"fixed":13804,"xit":13805,".-":13806,"Ġfro":13807,"wrapper":13808,"Ġmemorial":13809,"ocent":13810,"ĠLegal":13811,"Ġcock":13812,"Ġvessel":13813,"ĠFine":13814,"Ġtypeof":13815,"Ġheading":13816,"igrant":13817,"ĠPublished":13818,"Ġhoping":13819,"ĠUpon":13820,"ĠDouble":13821,"Ġperfectly":13822,"Expat":13823,"ĠWithout":13824,"vet":13825,"conn":13826,"ĠAnti":13827,"Ġfrequent":13828,"ĠFriends":13829,"eenth":13830,"ĠLeft":13831,"swarm":13832,"Ġspark":13833,"001":13834,"Ġcalendar":13835,"cin":13836,"|}":13837,"Italian":13838,"bone":13839,"ĠContent":13840,"ĠReact":13841,"Ġretained":13842,"kar":13843,"Ġdub":13844,"Ġbegun":13845,"ĠGray":13846,"Ġgear":13847,"Ok":13848,"ĠRacing":13849,"Ġorth":13850,"Ġequally":13851,"Repository":13852,"Ġprivile":13853,"Ġcharacterized":13854,"Ġdialogue":13855,"xis":13856,"Ġpassage":13857,"Ġunderground":13858,"1895":13859,"HC":13860,"ournals":13861,"ĠOliver":13862,"bishop":13863,"ĠApplication":13864,"QU":13865,"Ġassemb":13866,"Ġtheorem":13867,"ĠPref":13868,"oba":13869,"RED":13870,"Ġstructural":13871,"Reception":13872,"Ġmystery":13873,"there":13874,"Ġlap":13875,"ĠBron":13876,"ĠSteven":13877,"initial":13878,"Ġcinema":13879,"Special":13880,"Stop":13881,"Ġpetition":13882,"Scale":13883,"ĠSony":13884,"Ġaddressed":13885,"oka":13886,"1896":13887,"Ġbattles":13888,"ĠOrthodox":13889,"utter":13890,"Runtime":13891,"ĠSelf":13892,"æľ":13893,"omm":13894,"Ġflux":13895,"wildfly":13896,"ĠConservative":13897,"Ġtill":13898,"Ġformally":13899,"owned":13900,"Expr":13901,"ĠGriff":13902,"ĠConstant":13903,"Ġdramatic":13904,"Ġobst":13905,"Ġimprison":13906,"ĠVI":13907,"exists":13908,"ĠJa":13909,"Ġdemocracy":13910,"ĠGiants":13911,"ĠFab":13912,"ĠLess":13913,"rieve":13914,"Ġrestrictions":13915,"âĨ":13916,"Ġeligible":13917,"Ġsurviv":13918,"Ġhunt":13919,"Ġgallery":13920,"ĠAltern":13921,"ĠPaper":13922,"hammad":13923,"ĠSQL":13924,"âĪĴ":13925,"ĠCommissioner":13926,"avior":13927,"USA":13928,"Multi":13929,"Ġbasically":13930,"Failed":13931,"Ġindustries":13932,"ods":13933,"Ġcorruption":13934,"ections":13935,"feed":13936,"hibition":13937,"Ġpossession":13938,"ĠLLC":13939,"ĠKrist":13940,"ĠSR":13941,"ĠSW":13942,"ï»":13943,"Stats":13944,"eway":13945,"Ġkingdom":13946,"Ġenv":13947,"vals":13948,"Ġsensor":13949,"Information":13950,"Ġearthqu":13951,"Ġignored":13952,"ĠFerr":13953,"headers":13954,"ĠBloom":13955,"ĠWor":13956,"Ġhealthcare":13957,"\\'":13958,"lined":13959,"Ġremoval":13960,"mac":13961,"Ġemissions":13962,"Ġanalys":13963,"Expatriate":13964,"ĠObserv":13965,"1897":13966,"ĠNat":13967,"Ġproxy":13968,"Microsoft":13969,"Ġchamber":13970,"amsung":13971,"Ġevaluate":13972,"isons":13973,"ĠNazi":13974,"books":13975,"accept":13976,"idad":13977,"Ġsequences":13978,"best":13979,"ĠBasketball":13980,"eties":13981,"extern":13982,"Ġclothing":13983,"protocol":13984,"owell":13985,"ogan":13986,"ĠRomania":13987,"Ġuncon":13988,"usc":13989,"ĠDenver":13990,"posal":13991,"Services":13992,"ĠBud":13993,"Ġcounties":13994,"MOD":13995,"ĠOpt":13996,"Ġcarrier":13997,"ĠDefence":13998,"Ġip":13999,"hero":14000,"Ġpace":14001,"eval":14002,"Socket":14003,"ĠResults":14004,"Ġdat":14005,"Light":14006,"fiction":14007,"Ġemerging":14008,"ĠCoal":14009,"CF":14010,"ierra":14011,"plan":14012,"building":14013,"details":14014,"ei":14015,"ĠKan":14016,"Ġcontracts":14017,"Ġforests":14018,"ĠĠĠĠĠĠĠĠĠĠĠĠĠĠĠĠĠĠĠĠĠĠĠĠĠĠ":14019,"ĠNASA":14020,"gun":14021,"Ġcomputing":14022,"pot":14023,"ĠLE":14024,"imated":14025,"Ġwidespread":14026,"Ġwherein":14027,"Ã©n":14028,"Ġrevers":14029,"Ġasync":14030,"Ġsubmit":14031,"ĠJen":14032,"ĠGT":14033,"ĠLeader":14034,"Ġnotably":14035,"107":14036,"Environment":14037,"ĠMinor":14038,"loop":14039,"Lou":14040,"ĠCrow":14041,"Ġagriculture":14042,"inar":14043,"Ġ$(\\":14044,"Ġoccasionally":14045,"rium":14046,"ĠGot":14047,"Ġrestricted":14048,"unches":14049,"ynom":14050,"Iterator":14051,"ĠNevada":14052,"asma":14053,"ĠâĤ¬":14054,"Gold":14055,"Sal":14056,"Album":14057,"Ġmoon":14058,"ĠVel":14059,"ĠGerm":14060,"ĠSeven":14061,"ĠSalv":14062,"panic":14063,"ĠAgreement":14064,"ĠStream":14065,"typedef":14066,"Ġdominated":14067,"outing":14068,"Agent":14069,"Ġtracking":14070,"Ġargue":14071,"raf":14072,"Ġsimultaneously":14073,"ĠSales":14074,"ea":14075,"writing":14076,"ĠChair":14077,"Ġsynchron":14078,"Ġasc":14079,"Ġrows":14080,"------------":14081,"Est":14082,"Ġranks":14083,"jd":14084,"ĠMans":14085,"Ġgeneric":14086,"Eff":14087,"cosystem":14088,"1860":14089,"ema":14090,"than":14091,"ĠWIT":14092,"arus":14093,"ennial":14094,"Ġreserv":14095,"Ġmissions":14096,"brief":14097,"ousing":14098,"Ġui":14099,"apters":14100,"omon":14101,"sol":14102,"ĠGrow":14103,"ĠCS":14104,"Liter":14105,"Ġdaughters":14106,"cht":14107,"Sep":14108,"Ġhang":14109,"ĠTit":14110,"osopher":14111,"ĠDrug":14112,"Ġincredible":14113,"BUG":14114,"Ġcomplexity":14115,"ÃŃn":14116,"ussia":14117,"Ã¶r":14118,"PI":14119,"Ġfabric":14120,"ĠCommons":14121,"}\\\\":14122,"Import":14123,"Ġdescribing":14124,"Ġnomination":14125,"Ġpor":14126,"Ġwooden":14127,"reck":14128,"ĠKate":14129,"ĠUg":14130,"ordinary":14131,"fers":14132,"Political":14133,"Ġtrump":14134,"ĠCer":14135,"Mut":14136,"ĠNar":14137,"Ġmanifest":14138,"ĠMason":14139,"ĠGate":14140,"Ġpayments":14141,"Ġdiscussions":14142,"Ġreq":14143,"Radio":14144,"Ġcondem":14145,"Ġpredicted":14146,"mount":14147,"ANG":14148,"ĠAuto":14149,"eda":14150,"(__":14151,"Variable":14152,"Ġcontroversy":14153,"Ġarrangement":14154,"eton":14155,"porter":14156,"Ġtea":14157,"Series":14158,"ĠLost":14159,"Ġmixing":14160,"Ġmemories":14161,"Ġintensity":14162,"Ġrobust":14163,"Sequ":14164,"ĠPersonal":14165,"ĠKil":14166,"users":14167,"keley":14168,"leyball":14169,"ĠJustin":14170,"Ġcow":14171,"builder":14172,"puted":14173,"anti":14174,"rov":14175,"Ms":14176,"uana":14177,"Ġmad":14178,"Ġbrick":14179,"clean":14180,"alloc":14181,"Ġfuck":14182,"Ġkitchen":14183,"ĠWing":14184,"ĠLP":14185,"ĠBranch":14186,"Ġnortheast":14187,"Ġmeta":14188,"ĠKap":14189,"à®":14190,"ÂĢ":14191,"Ġchecked":14192,"Production":14193,"Ġcharacteristic":14194,"ĠSmart":14195,"Ġcorrelation":14196,"ĠWrest":14197,"Ġfer":14198,"ĠSprings":14199,"made":14200,"noindent":14201,"127":14202,"ĠMaterial":14203,"ĠInteg":14204,"Ġmainstream":14205,"Nor":14206,"ishments":14207,"\"`":14208,"built":14209,"Ġtypename":14210,"oft":14211,"ĠPoly":14212,"eremy":14213,"ickets":14214,"umerate":14215,"rev":14216,"Ġvertex":14217,"ĠUniversal":14218,"ĠNorman":14219,"ĠResponse":14220,"country":14221,"ermont":14222,"Ġminority":14223,"Ġpoems":14224,"Å¾":14225,"Ġnan":14226,"Ġattending":14227,"eto":14228,"Ġcomplicated":14229,"plane":14230,"Ġtranslate":14231,"Ġemission":14232,"aku":14233,"Ġkin":14234,"Ġoccupation":14235,"Ġpromoting":14236,"Ġsubsidi":14237,"Peter":14238,"Ġ\",":14239,"Ġmemor":14240,"Ġcompute":14241,"Ġthirty":14242,"ĠMonth":14243,"Ġtexts":14244,"Using":14245,"Ġthreats":14246,"Ġ''":14247,"filename":14248,"ĠBarcelona":14249,"Simple":14250,"Ġties":14251,"ĠRequest":14252,"ÂĢÂ":14253,"rien":14254,"Ġpodcast":14255,"ĠProtest":14256,"East":14257,"áĥ":14258,"ĠBY":14259,"ĠĠĠĠĠĠĠĠĠĠĠĠĠĠĠĠĠĠĠĠĠĠĠĠĠĠĠĠĠĠĠĠĠĠĠĠĠĠĠĠĠĠĠĠĠĠĠĠĠĠĠĠĠĠĠĠĠĠĠĠĠĠĠĠ":14260,"Ġstatistical":14261,"ĉĉĉĉĉĉĉĉĉ":14262,"Language":14263,"Ġcampaigns":14264,"regular":14265,"ochem":14266,"Ġenemies":14267,"iw":14268,"Ġopponents":14269,"Ġconvicted":14270,"phot":14271,"Ġautomatic":14272,"ampa":14273,"Ġsomewhere":14274,"Ġanalyst":14275,"Ġjail":14276,"bian":14277,"rank":14278,"ĠFitz":14279,"ĠNiger":14280,"repe":14281,"Ġlic":14282,"gression":14283,"ĠCome":14284,"Ġtale":14285,"SER":14286,"Power":14287,"Tur":14288,"irts":14289,"prefix":14290,"Ġmanufacturer":14291,"ĠHim":14292,"rones":14293,"ento":14294,"Ġcogn":14295,"Trace":14296,"Ġ{'":14297,"Ġvariant":14298,"urse":14299,"Ġarbitrary":14300,"Ġexisted":14301,"ĠMarsh":14302,"Ġdiameter":14303,"ĠCold":14304,"Jew":14305,"Ġstreaming":14306,"ĠCorp":14307,"Ġbishop":14308,"isp":14309,"Ġ[\"":14310,"acteria":14311,"ĠBM":14312,"ĠFROM":14313,"attributes":14314,"imir":14315,"Ġfinals":14316,"Ð¸Ð":14317,"bn":14318,"Ġstyl":14319,"Ġcooperation":14320,"ĠBeijing":14321,"Ġstops":14322,"Ġpret":14323,"charge":14324,"ruby":14325,"Songs":14326,"abling":14327,"Ġprosecut":14328,"Â·":14329,"Â»":14330,"ĠTurner":14331,"Buildings":14332,"Ġlimitations":14333,"ducational":14334,"Trump":14335,"rops":14336,"abi":14337,"gregation":14338,"icket":14339,"iatric":14340,"Ġranking":14341,"Ġrecovered":14342,"ï»¿":14343,"()</":14344,"Ġlistener":14345,"Face":14346,"Len":14347,"ĠOcc":14348,"ĠBird":14349,"arged":14350,"Ġriding":14351,"Ġreliable":14352,"ĠRural":14353,"Ġintense":14354,"ĠLemma":14355,"Ġrepeat":14356,"Ġbat":14357,"Ġdeparture":14358,"Ġdataset":14359,"Ġxmlns":14360,"Generic":14361,"Ġanchor":14362,"ĠRat":14363,"Ġreply":14364,"marks":14365,"Ġgathered":14366,"condition":14367,"ĠSad":14368,"ĠThor":14369,"tags":14370,"ĠRangers":14371,"wind":14372,"Published":14373,"Ġlens":14374,"ĠColombia":14375,"random":14376,"ĠLock":14377,"]$":14378,"Sil":14379,"Team":14380,"Ġmos":14381,"ĠReviews":14382,"picker":14383,"Ġsnap":14384,"ĠBenn":14385,"Ġranging":14386,"1893":14387,"Ġembodiment":14388,"Ġcriticized":14389,"Ġedit":14390,"ĠHungarian":14391,"expr":14392,"Ġgenerations":14393,"Ġexha":14394,"Ġcann":14395,"Ġrab":14396,"Props":14397,"thy":14398,"Great":14399,"oons":14400,"ĠEconomics":14401,"orious":14402,"Ġmagnitude":14403,"Ġthorough":14404,"Ġveteran":14405,"GP":14406,"ĠWarner":14407,"Ġqualifying":14408,"ĠGlasgow":14409,"Ġmg":14410,"Ġcodes":14411,"Ġcomics":14412,"ĠObl":14413,"borne":14414,"Ġmedieval":14415,"ĠIF":14416,"equality":14417,"miral":14418,"ariant":14419,"ĠPrim":14420,"mill":14421,"Ġpin":14422,"celand":14423,"Ġdispute":14424,"once":14425,"Ġfocusing":14426,"itudes":14427,"MR":14428,"Ġphrase":14429,"ĠLiterature":14430,"Ġ&\\":14431,"ĠLevel":14432,"Bound":14433,"<!":14434,"Ġpursue":14435,"Ġinfluential":14436,"Ġdevelopments":14437,"Ġreun":14438,"Ġventure":14439,"Thomas":14440,"Ġconstituency":14441,"Ġannually":14442,"FORM":14443,"ĠNear":14444,"ĠMachine":14445,"tabs":14446,"Ġhub":14447,"cycle":14448,"cuda":14449,"ĠCle":14450,"ĠConstruction":14451,"Ġpump":14452,"generated":14453,"stud":14454,"Ġphosph":14455,"ĠAlexand":14456,"109":14457,"OST":14458,"London":14459,"actic":14460,"Ġdeveloper":14461,"THE":14462,"liter":14463,"Ġcurrency":14464,"umi":14465,"usk":14466,"Ġbelongs":14467,"rose":14468,"Transform":14469,"ĠOttoman":14470,"Ġwake":14471,"Ġessay":14472,"ĠHarrison":14473,"Ġutility":14474,"Ġty":14475,"Ġenvironments":14476,"Ġsoldier":14477,"ĠRichmond":14478,"JS":14479,"anion":14480,"igion":14481,"ĠIndustrial":14482,"walk":14483,"Mont":14484,"zing":14485,"Ïģ":14486,"Ġimmigrants":14487,"ĠPel":14488,"ĠFaculty":14489,"Ġ\"-":14490,"ĠSha":14491,"Ġsugar":14492,"vere":14493,"Ġå":14494,"xspace":14495,"Ġlifetime":14496,"ĠJama":14497,"mother":14498,"design":14499,"Ġtemp":14500,"ĠPradesh":14501,"ĠKirk":14502,"Resources":14503,"Nodes":14504,"svg":14505,"ĠLarry":14506,"groups":14507,"ĠâĢĻ":14508,"shaped":14509,"ĠJosÃ©":14510,"sem":14511,"1892":14512,"ĠStein":14513,"Ġpermit":14514,"Ġglob":14515,"Ġlongest":14516,"isely":14517,"Ġmagazines":14518,"UND":14519,"Mad":14520,"Ġfootage":14521,"1889":14522,"Ġinnings":14523,"ĠGreater":14524,"ĠJerry":14525,"Ġvolunteers":14526,"report":14527,"incinn":14528,"navList":14529,"Ġpic":14530,"Ġnorthwest":14531,"feature":14532,"Ġmetab":14533,"ĠLuther":14534,"inated":14535,"Ġeq":14536,"Ġinsight":14537,"Ġlogo":14538,"ĠSocorro":14539,"spiracy":14540,"ĠSean":14541,"ĠEgyptian":14542,"Ġasp":14543,"Ġcanon":14544,"Ġintellectual":14545,"ĠMut":14546,"Ann":14547,"iterator":14548,"incorporated":14549,"ĠRing":14550,"brew":14551,"quiry":14552,"ANCE":14553,"pler":14554,"Ġrit":14555,"Ġloud":14556,"Design":14557,"uates":14558,"?)":14559,"ĠWW":14560,"definition":14561,"Ġexhibit":14562,"Hub":14563,"King":14564,"ĠProduction":14565,"rb":14566,"provider":14567,"Ġexports":14568,"Ġweren":14569,"Ġnaturally":14570,"asha":14571,"ĠCathedral":14572,"ĠSerge":14573,"ĠTechnical":14574,"Ġpanels":14575,"ĠTib":14576,
[...]
