#version: 0.2
Ġ t
i n
h e
Ġ a
o n
r e
Ġt he
e r
a t
Ġ s
e n
Ġ o
a l
i t
o r
i s
a n
Ġ w
e s
Ġ c
a r
e d
Ġ f
i on
Ġo f
n d
Ġ p
Ġ b
Ġ in
in g
i c
l e
r o
Ġa nd
Ġ \
Ġ m
Ġ d
a s
Ġ Ġ
Ġt o
Ġ $
o u
e l
c t
en t
e t
i g
Ġ h
Ġt h
i l
o m
s t
r a
Ġ re
at ion
Ġ e
i m
Ġ T
Ġ S
o l
o t
Ġ n
a m
Ġ l
Ġ is
Ġ (
{ \
Ġ A
Ġ C
v e
i d
c e
Ġf or
Ġ g
u t
c h
l y
o w
â Ģ
u s
u r
Ġ on
v er
Ġ M
Ġ I
Ġb e
u l
it h
Ġth at
a d
q u
Ġs t
a b
s e
_ {
Ġ B
u m
Ġ P
i r
a y
2 0
Ġa s
Ġw ith
ĠĠ ĠĠ
Ġc on
u n
e m
e g
t er
at h
Ġ$ \
Ġ H
o d
r i
Ġa l
Ġ F
en d
i f
Ġa n
Ġw e
ĠT he
Ġ R
he r
Ġp ro
ig h
g e
Ġ D
is t
t h
Ġ L
Ġ W
t a
m ath
Ġb y
an d
u re
Ġ Ċ
ct ion
Ġw h
er s
o s
p h
p p
it y
Ġ N
1 9
Ġ &
Ġa t
Ġ it
Ġ G
Ġ v
Ġw as
Ġa re
ro m
igh t
a c
} \
i v
Ġe x
o re
Ġc om
Ġ E
at e
} $
o p
es t
Ġd e
^ {
t e
ar t
il l
re s
i es
č Ċ
Ġs e
m a
Ġf rom
o c
Ġ y
it e
in e
u b
p e
i al
Ġ he
es s
an t
u p
Ġo r
i ve
e w
Ġ J
l d
u d
p t
al l
m ent
T he
âĢ Ļ
a k
re f
a g
Ġ r
Ġ O
} }
( \
re n
p l
or t
ic h
ra c
Ġs h
a ve
ou r
el l
eg in
f t
b egin
f e
ic al
Ġth is
b er
re d
Ġ us
20 1
o g
Ġc h
ar d
i z
at ed
' s
Ġn ot
_ {\
u nd
p er
) $
Ġ le
u st
c al
x t
Ġ U
p s
Ġ âĢ
Ġ K
Ġcom p
ul t
r an
in t
it ion
} {
or m
ig n
Ġ k
ar y
ĠI n
Ġh ave
i an
0 0
Ġ -
Ġc an
Ġs u
c l
Ġp l
en s
ation s
as t
i a
on g
d e
Ġwh ich
f rac
e q
Ġre s
e ar
Ġ =
o st
, \
as s
d u
id e
r m
Ġw he
g h
c ite
u e
t her
e qu
} )
a in
Ġal l
ou n
r ight
or k
ĠĠĠĠ ĠĠĠĠ
Ġa b
Ġc l
t o
a ce
c c
i p
t he
ĠĠ Ġ
Ġh as
am e
ab el
Ġ un
ou s
Ġ V
im e
te xt
ou ld
s o
ab le
om e
or d
ac k
i b
a v
math b
a p
a ct
Ġ im
Ġh is
en ce
on d
a ch
o k
} ,
$ ,
f f
as e
ou t
r u
l abel
r ic
$ .
Ġa pp
Ġ "
20 0
i e
ion s
a ge
et a
) ,
ĠT h
an g
equ ation
Ġa d
r y
ol l
ĠS t
en er
i k
a re
Ġon e
Ġ j
Ġs p
f orm
math cal
Ġm e
1 0
in d
i re
} .
fe ren
Ġal so
el y
ĠC h
ic e
Ġp art
. .
c es
al ly
w o
ow n
o ver
o v
} (
Ġb ut
er m
Ġn e
le ft
) .
Ġm od
ou nd
is h
ol d
Ġcon t
re e
Ġy ou
Ġd is
er v
or s
n e
} ^
an ce
Ġwe re
ent s
or y
Ġ qu
Ġthe ir
~ \
Ġw ill
ar k
f ig
o se
} _
ir st
ro w
at es
I n
am b
Ġo ut
Ġp er
m er
ta in
Ġe v
ph a
w e
Ġa r
Ġo b
cl ud
on e
res s
ver s
ri b
pe ct
d a
al pha
p ro
1 8
Ġ Y
l ine
c om
Ġ ro
ic s
Ġt wo
Ġd o
âĢ Ŀ
Ġm ore
i le
) \
Ġit s
Ġ en
im es
s um
e p
Ġ |
Ġthe y
Ġo ther
$ \
Ġs y
l l
o ve
ul ar
r it
ter n
p le
Ġt e
Ġ up
amb da
e ct
Ġf irst
Ġm an
el ta
Ġs o
v el
k s
o b
m b
Ġs c
c ent
ĠH e
ĠI t
Ġa g
Ġ +
o int
p ort
Ġo ver
oun t
ran s
o ok
Ġwh o
ver y
ut ion
Ġt ime
ar i
am ma
on s
u gh
c a
_ \
Ġbe en
h o
y s
oll ow
he d
Ġw ork
Ġh ad
h at
m u
Ġd es
Ġd if
Ġb et
Ġ her
Ġ\ \
ĠU n
Ġo ur
ak e
ation al
= \
ĠW e
o f
ig ma
d ot
Ġ if
Ġthe re
c k
f ter
ra ph
Ġs et
} ^{
1 2
mathb b
i el
} _{
Ġcon s
at er
Ġwhe re
ing s
- \
c ed
Ġt ra
Ġg o
ĠâĢ ĵ
und er
Ġth an
eg a
Ġon ly
v i
l es
s ub
Ġsu ch
Ġf ollow
ay s
a w
Ġs ub
ra m
at ure
le ct
Ġmod el
is s
Ġab out
ĠS e
Ġp re
Ġin to
at ive
Ġn ew
ic t
ph i
i ed
Ġan y
Ġy ear
Ġs ome
Ġre l
f in
Ġwhe n
un ction
^ {\
ot h
u al
an s
ik e
um ber
Ġfor m
Ġa cc
ra y
a pp
j ect
Ġ {\
as ed
Ġin t
ĠâĢ ľ
Ġre g
res ent
iel d
l ambda
pe c
d ition
Ġs im
st em
c re
c on
19 9
ou gh
us e
s s
Ġw ould
il d
ol og
p i
Ġof f
Ġp e
Ġthe n
Ġk n
i x
Ġpl ay
Ġres ult
l ic
b f
Ġd ist
et h
Ġ ra
ĠTh is
Ġt rans
Ġp h
Ġin ter
p os
Ġsh ow
at ing
if ic
n ing
Ġg ener
at a
we en
Ġf l
p art
op le
Ġc or
Ġp os
1 1
Ġcom m
pt ion
Ġc o
a x
s p
ro und
in ce
t il
mathb f
fe ct
Ġ under
le m
Ġe qu
Ġdif feren
it ies
is e
o x
âĢ ĵ
ĠR e
il on
Ġbet ween
se ction
s igma
Ġn o
w ard
ps ilon
ar g
il ity
ro ugh
Ġin clud
1 5
s c
a il
l and
w id
Ġf unction
ic k
p r
Ġv al
id ent
Ġs he
Ġthe se
Ġf e
e x
} {\
r al
Ġ( \
o y
al ign
it ed
Ġthe m
s h
ro up
ĠA n
ĠD e
^{ -
Ġsy stem
Ġa ct
r on
iz e
W e
ment s
Ġl oc
Ġe ach
it s
b eta
R e
Ġcon st
Ġp ol
or n
Ġb l
Ġf in
u g
Ġst ud
ow er
1 6
t s
al s
t t
c ess
Ġpro v
o ol
Ġg iv
ib le
ur n
Ġin v
Ġre c
d er
ur ing
Ġpro b
i vers
Ġp oint
u es
g amma
Ġs a
Ġa fter
Ġs m
+ \
ĠC om
1 7
i o
Ġ [
Ġpro du
in s
Ġm ay
math rm
Ġm ost
Ġus e
ĠN ew
Ġp ar
b ar
Ġus ed
i ent
us s
* }
he n
ĠA l
Ġm at
c ond
1 3
il y
or ld
oc k
s et
ad e
mer ic
r ho
ru ct
a ir
f fect
c y
^ \
ĠP ro
Ġpe ople
T h
is m
Ġc ol
ĠF or
ist s
Ġw ell
Ġs ol
ar ch
in k
) }
Ġa m
$ -
an n
1 4
re at
ot e
] {
d elta
Ġin d
Ġdifferen t
t on
the ta
fig ure
ar ray
he re
it t
Ġapp ro
Ġd ata
Ġ est
Ġth rough
ta u
c dot
u ch
Ġ| |
he s
Ġh ow
o ot
le q
Ġex t
\ \
e ver
Ġn umber
iz ed
Ġsu pp
Ġl ike
r t
y n
p end
w n
}$ ,
ĉ ĉ
Ġre p
Ġs ign
}$ .
Ġc ase
am p
Ġs ame
Ġ Z
ction s
in es
Ġ ent
an ge
Ġex p
n u
od e
le t
} (\
Ġas s
19 8
Ġ Q
Ġv ari
Ġs ur
ical ly
Ġs pec
Ġg et
il m
ab l
o od
Ġ {
wid th
Ġpart ic
Ġ i
Ġcl ass
Ġn on
Ġse e
b ig
ct or
Ġb ack
Ġh im
iz ation
ar row
oc i
Ġc ur
m in
part ial
ĠE n
Ġy our
3 0
ch ool
ri v
Ġj ust
Ġb oth
2 5
Ġwh at
ul l
as on
Ġsa id
p ar
eq ref
Ġh igh
t imes
Ġ x
Ġus ing
as h
it em
g y
Ġl ine
ra ct
el f
i er
ĠL e
o h
is ion
ar ge
Ġag ain
at or
er ing
Ġd ire
.. .
ren t
s y
om ega
Ġt erm
ar s
ff ic
f l
ca use
Ġb u
an y
2 1
Ġf act
p m
Ġd et
m m
Ġin st
f ul
ĠA s
a h
ft y
ĠA meric
til de
Ġa c
Ġdis c
p ut
eq n
ĠĠĠĠĠĠĠĠ ĠĠĠĠĠĠĠĠ
Ġo per
in ed
in fty
am ple
ĠC on
ĠS h
Ġ X
if e
vel op
Ġ ed
Ġg roup
Ġm y
qu ad
Ġth ree
Ġm in
t y
- -
g an
ub lic
Ġf ield
Ġe m
Ġc ent
c er
Ġyear s
Ġgiv en
ic es
Ġ end
Ġc ould
am et
en g
iv ely
ot s
Ġst ate
f or
form ation
u c
ivers ity
| \
re st
Ġper form
Ġe very
ir c
ot her
Ġfollow ing
f ore
ion al
as es
Ġn ow
D elta
2 2
Ġne ed
Ġde c
k e
Ġf ound
Ġle ad
. ,
Ġst r
Ġde fin
m an
Ġm em
ut e
al ity
Ġs erv
Ġs ing
Ġse cond
t en
ure s
n er
Ġbe ing
Ġman y
Ġe ffect
w ay
ro ss
Ġwh ile
eth od
se c
Ġex per
Ġp r
ran g
Ġs er
Ġsm all
am es
Ġat t
Ġc all
Ġor der
or th
is hed
Ġb el
olog y
ar ly
19 7
id er
5 0
et s
ent ial
Ġob s
sp ace
Ġ z
s im
al e
\ ,
x i
t ing
at her
Ġev en
Ġ very
h i
in ing
ore m
Ġp a
ak ing
Ġc a
ul ation
ers on
ut h
ur al
Ġbe cause
00 0
Ġdes c
Ġe le
ĠC l
em ent
c ol
Ġl ong
ab ility
ĠI nd
b e
Ġan al
p en
)$ .
Ġresult s
} [
Ġr ight
Ġar t
w here
ĠS c
} }\
feren ces
a z
vi ew
b all
ou th
Ġf am
ant s
20 19
ĠĠĠĠ ĠĠĠ
2 4
w ork
Ġm ade
Ġex pl
Ġt y
en e
l ed
v ar
Ġob tain
Ġm on
$ $
Ġre qu
an k
Ġkn ow
in al
p ond
at t
ch n
Ġdo es
Ġd uring
Ġf ilm
m ber
eqn array
ou se
i qu
Ġf ind
a j
ri x
Ġc re
Ġg u
Ġme as
v ed
ur y
e psilon
Ġ$ (
O m
Ġw ay
Ġm ethod
v en
Ġst art
Ġch ar
ag es
Ġde velop
Ġb ound
er n
Ġm ass
Ġs ince
Ġbe fore
Ġsh ould
ener gy
} _{\
Ġp resent
ver t
s q
a u
en cy
m e
Ġre f
a red
Om ega
Ġpar amet
i ence
Th is
re l
Ġk e
ps i
d ay
Ġm ed
Ġcont in
b y
Ġpro cess
Ġd i
Ġ .
el s
ter s
an e
Ġprob lem
Ġd id
Ġte am
ĠUn iversity
2 3
Ġc ount
ĠF ig
r um
over n
Ġ u
Ġre t
Ġth ose
^ *
Re ferences
ĠA r
Ġs l
19 6
h ip
ce pt
ang le
r id
n ess
Ġpos s
u ally
201 8
Ġm ake
Ġcon dition
Ġ }
Ġres pect
ĠH ow
Ġrep resent
Ġre le
ra d
)$ ,
Ġbe c
g l
rib ution
le x
ĠO n
Ġsp ace
G amma
b ers
g ram
Ġin cre
' t
n ot
Ġo wn
Ġm ain
ĠB e
ar l
iss ion
Ġre al
ric t
Ġm ult
at ic
Ġsupp ort
sq rt
ĠC ol
Ġad d
ĠA nd
i or
Ġobs erv
f ra
Ġl arge
Ġd own
âĢ ľ
Ġm uch
Ġ$ {\
ĠI s
res pond
v al
Ġm et
ag n
sub section
E x
ĠB l
in clud
Ġde f
iv es
Ġv i
text bf
us ic
Ġhe l
v ent
Ġe lect
Ġpro per
mb ol
F or
le y
Ġfe ature
ĠAmeric an
et work
Ġw rit
in a
) =
Ġl im
Ġc ar
} =
ro du
v es
er t
Ġh and
raph ics
. âĢĿ
Ġp res
ro p
Ġl ast
ĠA d
Ġ energy
v are
if ied
Ġp op
Ġf our
b m
Ġt r
ot t
201 7
4 0
right arrow
it al
Ġgener al
vi ous
ĠĠ Ċ
Ġre ad
ar n
ar m
y le
ol ution
I t
Ġas sum
^{ (
ĠS he
ur ther
oh n
s on
vare psilon
om en
Ġw orld
Ġr un
Ġchar act
g er
Ġst ruct
S e
}^ {\
Ġin formation
l ess
Ġhe re
i red
er r
Ġin de
ut ions
ĠP h
Ġto p
o ber
r ation
Ġ ve
os s
it ive
rang le
S t
e k
Ġl ook
Ġ ,
b s
Ġre m
al th
Ġst and
Ġinclud ing
re ad
im ens
Ġb ased
Ġloc al
Ġd en
201 6
Ġra d
ak es
Ġgo od
Ġcomm un
tern al
Ġdesc rib
ith m
Ġcor respond
i ous
iv ed
g g
Ġin s
Ġ\ ,
ct ed
at eg
Ġo pen
Ġkn own
2 7
e b
b old
um n
g et
ĠP l
Ġst ill
Ġp ower
Ġa round
Ã ©
Ġdes ign
ca ption
te rest
Ġor ig
Ġagain st
ĠUn ited
2 6
ĠM ar
. "
o le
id es
Ġs cal
c m
Ġc al
eg raphics
includ egraphics
al k
Ġmeas ure
Ġall ow
Ġg l
A s
om et
Ġre st
Ġo pt
il ar
ist ory
Ġ ident
' '
in ess
n on
Ġb as
ro l
2 8
Ġab ove
an c
ial ly
Ġt ake
Ġest im
g or
ĠI f
Ġval ue
Ġle vel
em ber
in c
et y
ir d
re m
id ed
Ġa v
iv al
ĠT e
en n
/ /
un e
um er
at ely
ra w
is ed
ch i
m ed
em ph
ĠM ay
20 20
i j
ĠS p
ĠCom m
c o
s k
Ġim port
201 5
var phi
H e
i am
Ġre port
. ~\
ord ing
r ing
Ġle t
Ġ čĊ
Ġs at
Ġv is
th s
t ab
Ġt est
Ġint eg
i ver
. }
Ġg ame
) ^
r and
Ġp at
fra k
r ist
ge q
Ġt ri
Ġpro f
u ro
Ġhel p
Ġb est
Ġd ue
Ġt em
er o
Ġm ov
Ġte chn
Ġc he
Ġst at
201 4
r is
Ġcons ider
Ġl ife
Ġs chool
og raph
1 00
gor ithm
Ġbe h
Ġad dition
Ġth ough
Ġcon tain
pro of
Ġsing le
ĠĠĠĠ Ġ
en se
& \
in ks
Ġser ies
p or
ens ity
Ġs up
Ġs pect
ĠE x
Ġle ft
w h
ens ure
t al
ĠW h
over line
Ġcomp ut
Ġwith in
2 9
ĠR es
Ġin terest
w w
g es
if y
ub l
Ġpartic ular
Ġre ma
Ġ '
am pl
at ors
ĠJ an
Ġbu ild
Ġm ark
Ġg ra
} ,\
[ \
Ġex ample
pos ition
Ġsh own
av ing
b l
re en
ref ore
Ġre ce
Ġl ater
Ġfam ily
Ġs um
Ġqu ant
Ġal ong
i um
Ġn ear
Ġh y
C h
orm al
ord s
ĠA ll
ĠHow ever
Ġpro gram
at ch
Ġb ook
Ġp ublic
Ġn etwork
201 3
Ġ et
ĠJ ohn
ac es
Ġp erson
l im
ĠâĢ Ķ
us iness
ve c
Ġb ro
sy mbol
Ġd em
x im
Ġp ass
ver al
ĠThe y
Ġcall ed
}) .
Ġl ist
math frak
B ig
Ġmodel s
Ġval ues
Ġo cc
âĢ ¦
Ġl ow
c ul
rac k
Ġf re
A n
Ġde pend
Ġp ost
4 5
overn ment
or ies
iv ing
Ġth ink
ĠA t
Ġw ant
h line
Ġd on
Ġstud y
cc ess
Ġm ust
y m
201 2
Ġin it
Ġc le
ĠC ent
ri pt
bold symbol
ĠC an
Ġfollow s
oot ball
L et
Ġsim ilar
Ġcur rent
Ġs ay
Ġre du
Ġdisc uss
mm et
od y
i od
Ġin c
Ġch ild
201 0
Ġpl ace
Ġp red
Ġwith out
Ġcharact er
l og
Ġl arg
L ambda
Ġex pect
Ġse ason
ĠF ran
Ġl aw
in ation
Ġc our
a i
Ġs our
6 0
Ġdet erm
ĠT o
ward s
ys is
ot ential
Ġim p
im al
ĠSt ates
Ġterm s
Ġ :
} }$
: //
Ġshow s
ĠC ount
l angle
ĠB ut
aj or
se e
e ps
tern ational
Ġme an
ur s
Ġhe ad
) ;
or ph
Ġh ig
ld ots
Ġplay ers
Ġse ction
Ġ el
Ġch o
Ġ <
ist ic
E R
ent ion
Ġcon ne
Ġc are
201 1
b ra
Ġd ay
a im
ĠA ust
Ġse veral
os ed
mb ox
3 5
o ad
ian s
Ġor gan
ĠN ational
19 5
Ġapp ear
Ġs pe
ĠW orld
Ġan other
Ġcontin u
ur ch
im ent
ĠU S
ĠO r
Ġd om
Ġpoint s
et ic
ific ation
eta il
yn am
Ġc ap
op e
Ġ /
de f
b um
Ġinv est
com m
Ġ `
Ġf ew
le ction
is f
S T
Ġdefin ed
er y
Ġan n
v an
on t
app a
ĠG e
Ġw in
Ġne xt
Ġh old
is on
Ġd er
w ays
P hi
Ġare a
Ġstr ong
Ġdist ribution
Ġest abl
c he
Â ł
if t
Ġis s
w ith
ĠO ct
b le
Ġint rodu
Ġposs ible
cite p
u ary
op er
feren ce
ĠâĢ ĺ
O n
Ġl inks
ri es
cent er
Ġpro ject
Ġd el
ĠY ork
o ard
ĠA ug
uth or
Ġimport ant
Ġre se
Ġdire ct
pl ay
Ġ vers
Ġc ou
, âĢĿ
A l
Ġpre vious
as k
ur b
Ġph ot
Ġn ame
re g
ĠM an
Ġg reat
Ġh um
Ġc rit
ĠS chool
Ġ ide
f ace
a ps
3 3
i ents
Ġass oci
ĠJ u
m od
m p
Ġprodu ct
Ġcom b
Ġun til
ic le
it ud
re t
at ter
ĠP ol
ill ion
o or
text it
Ġm usic
k appa
e ad
Ġe as
end ed
e c
Ġstruct ure
it her
ot imes
Ġp otential
n o
st and
Ġs k
iv ity
Ġpol it
ĠW ar
Ġb re
" ,
ir on
ĠThe n
Ġm agn
Ġob ject
ag ue
Ġex ist
ffic ient
. \
c ur
pos ed
ĠR ep
sub set
f er
Ġexp ress
pl ic
} )$
200 9
A R
Ġl a
Ġh ome
Ġl ess
en ces
8 0
ĠThe re
at s
9 0
Ġd eg
Ġo pp
Ġf ull
Ġpos ition
non umber
m ult
Ġto tal
id d
iqu e
ight s
is ter
Ġt urn
s f
Ġst ates
ix ed
an ces
19 4
Ġb and
Ġoff ic
pl oy
Ġch ang
ĠY ou
\ %
ĠA pr
Ġev ent
b ack
Ġg row
Ġt imes
Ġle g
ore d
pend ent
Ġres p
st it
Ġvi ew
Ġf ree
ensure math
Ġsat isf
y l
oc ial
ab ly
) )
Ġper iod
ĠS outh
Ġpa per
3 1
ri end
om an
Ġim pro
abl a
Ġm om
iv id
c irc
" .
Ġpl an
Ġal gorithm
Ġen g
ĠC o
\ |
pt ember
as ter
Ġsign ific
in o
200 8
olog ical
eng th
n abla
is c
Ġa ver
u x
s m
ĠB y
ĠG u
ĠM arch
Ġo ld
ail able
Ġthe ory
S igma
A T
ang u
ne y
a ction
itt le
ĠS te
Ġal bum
ĠL et
I I
Ġcon f
uro pe
Ġf urther
Ġcont rol
ĠB rit
Ġs ize
g round
Ġd ensity
Ġcomp lex
Ġsu ccess
ru ction
Ġse qu
se qu
Ġobtain ed
Ġto o
âĢ Ķ
Ġqu est
Ġappro xim
ĠF l
\ !
Ġle ast
u pp
al f
g in
Ġperform ance
Ġbet ter
cl us
Ġret urn
Ġd etail
Ġty p
os p
A S
Ġsh ort
b it
c it
il de
re am
Ġch ange
Ġe arly
Ġpred ict
}) ,
Ġcomp on
ĠJan uary
Ġstand ard
u le
c hed
Ġrec ord
w ide
ĠCount y
Ġsol ution
un g
Ġappro ach
Ġl ight
}} {
Ġph ys
it er
Ġs ide
Ġm ot
Ġs it
dot s
Ġs ong
3 6
a e
le ge
i pp
Ġreg ion
Ġat ta
Ġ- -
Ġm ajor
ĠC ar
th ough
il t
e red
im um
ove mber
ĠN o
Ġm ax
ĠJ une
ĠM in
us ed
I f
Ġde ath
Ġanal ysis
0 5
Ġl and
Ġcomp let
Ġparamet ers
Ġre cent
g ed
Ex ternal
c hes
ĠC ity
al es
is ing
Ġinv ol
Ġr ate
i i
ĠAug ust
ce mber
Ġb usiness
s ide
od es
ĠOct ober
7 5
I N
Ġbec ame
Ġ >
Ġs om
P ro
3 4
9 9
Ġfin al
3 2
Ġmat rix
Ġlim it
Ġre d
c ap
200 7
Ġg raph
ĠSe ptember
\ [
erm an
ĠC al
er tain
Ġman ag
ĠJu ly
ĠM ed
0 1
ĠSt ate
Ġty pe
ĠM e
Ġv ol
Ġfunction s
P s
F ig
Ġf ootball
col or
ĠApr il
am ed
} -
st r
Ġequ ation
wid et
u ck
n ew
Ġcomp any
il it
200 6
ĠCh rist
l ing
Ġsystem s
Ġind ic
Ġr ange
ide o
b ox
ĠAust ral
Ġinclud e
per ature
Ġconst ant
z e
Ġgo ing
c or
Ġdescrib ed
ĠF eb
con om
u ation
{ -
u k
Ġav ailable
pr ime
/ \
ĠE d
Ġa ction
Ġc ity
t ies
C om
ab les
ip le
um ent
ar ning
Ġsignific ant
Ġg overnment
A N
our n
oun g
Ġw on
7 0
ĠN e
widet ilde
cent ering
ist or
ĠN orth
B y
Ġmem bers
a f
ĠE urope
m at
Ġa ut
r im
Ġh app
as ing
Ġapp lic
Ġ q
} ;
Ġc oll
o id
ri ed
ĠThe se
h am
em pt
Ġ err
Ġfor mer
Ġse em
Ġ` `
on es
ĠN ovember
Ġh ard
id ence
Ġb ir
Ġrespect ively
ch ie
ĠS o
Ġse en
st er
ob al
us h
C on
= "
ac ed
Ġm ar
and om
ampl es
Ġpro m
v iron
T o
Ġre ally
Ġcorrespond ing
Ġbel ie
3 8
Ġcal cul
Ġm ight
ĠW ill
n ow
l er
Ġp ubl
s elf
p d
Ġw omen
ĠA f
Ġc ost
Ġ es
Ġne ver
ĠA pp
ut ure
il le
m ost
Ġtra ining
Ġe p
Ġg ive
t able
ĠDe cember
ĠP art
Ġprov ide
Ġhig her
ĠW ith
Ġal ways
Ġp air
ĠM c
ak en
t ic
ivid ual
Ġs ays
Ġc over
ad a
Ġdif f
rib ut
le v
Ġ ver
gl ish
Ġl ower
our s
) :
Ġrel ations
Ġspec ial
Ġcomp et
ide red
Ġp ut
Ġf oc
et er
il es
tab ular
Ġw ater
Ġof ten
ĠA ss
Ġcondition s
ra ft
ent ly
Ġc ross
Ġme ans
3 7
Ġst ory
Ġph ase
Ġam ong
Ġp ract
) =\
ĠE q
Ġfeature s
lect ed
st yle
Ġd imens
) (
Ġf und
D e
Ġl ik
at ural
Ġm ove
ĠC or
i us
} +
ru ary
th m
c le
Ġm ap
Ġ Â
\ {
z eta
Ġab s
Ġc ell
Ġst ar
Ġwe ek
o ff
3 9
on y
Ġpro te
on al
in ally
Ġn eg
an a
; \
Ġorig inal
Ġc ases
Ġsup er
ĠR eg
Ġb ig
or g
ĠH ar
al ax
ĠA b
ĠO ne
Ġbec ome
get her
re w
Ġto gether
f ield
ial s
ĠEn g
Ġbel ow
ĠB ar
Ġcl aim
ĠThe orem
Ġcons idered
ic y
Ġf ore
Ġs w
Ġe ither
Ġde v
Ġh aving
Ġh istory
Ġac ross
Ġtem perature
Ġaver age
ograph y
O N
om orph
Ġcons ist
Ġpro of
read y
Ġc irc
Ġf ive
Ġ& =
Ġrese arch
ac y
Ġth ird
Ġf ram
ĠP e
Ġbl ack
a ul
} ]
) ^{
t ime
E S
4 8
v ing
ly ing
b ased
Ġg e
a ut
Ġfre qu
Ġf ar
Ġinit ial
Ġa ir
Ġse par
e ction
} =\
amp ions
) }\
ĠS y
Ġsu gg
\ ]
Ġsugg est
Ġmom ent
Ġar g
Ġl oss
200 5
s l
pp er
Ġto ok
Ġh om
ap an
Ġcomm on
r ary
Ġr andom
ĠA fter
in ary
Ġd at
Ġin fl
h old
ron t
Ġline ar
em ma
Ġd ynam
e y
Ġl ay
Ġvari ous
ĠK ing
20 00
ĠW est
k et
wh ich
ex p
Ġind ividual
Ġplay ed
ĠA ir
Ġacc ount
Ġth us
{ (
Ġd iv
Ġchild ren
ition s
Ġparamet er
Ġpos itive
ot es
Ġf ac
Ġ( $
it or
Ġcount ry
itud e
Ġb i
Ġab le
Ġcom e
Ġa uthor
i ps
Ġw r
ab or
Ġen c
en c
Ġp ath
Ġt re
Ġp ri
$ )
9 5
ĠP r
Ġre pl
Ġsy mmet
Ġim age
Ġ #
ri e
Ġcor re
angu age
ra in
ĠFeb ruary
c os
ĠE l
d is
Ġg ames
ra p
oun c
Ġfin ite
Ġrele ased
Ġre view
ĠM ore
Ġhow ever
th ing
0 6
ch an
0 4
Ġan g
ort s
d raw
n a
Ġh ouse
Ġbeh av
Ġhum an
viron ment
Ġserv ice
Ġal ready
re et
eth ing
Ġinde pendent
uss ian
Ġa chie
ure d
w are
ĠSe ction
Ġen ough
~ ~
Ġt it
ow s
}^ \
Ġl ittle
Ġl ines
i ber
cdot s
am ent
ĠW hen
Ġs em
0 8
U n
ĠM on
ĠS ch
ro ll
Ġmethod s
ond on
Ġve ctor
du ct
Ġpop ulation
Ġc amp
ener al
ĠS w
b r
Ġro le
a int
ĠP res
Ġm aking
ĠP ar
Ġassoci ated
}_ \
ĠA m
Ġcommun ity
Ġa way
Ġacc ess
he l
Ġe mb
b or
Ġd ays
t i
200 4
ib ility
Ġm en
. ~
Ġt w
ma x
row n
ĠP ark
Ġa ge
Ġf riend
ĠTh at
il ities
ver se
A C
ĠĠĠĠ ĠĠ
s cal
Ġn ormal
Ġobserv ed
Ġc y
Ġv ia
O R
ar ian
6 5
Ġcomp le
ĠG l
e e
Ġhe alth
ĠD av
} |
ra g
og n
h ib
Ġinvest ig
ĠBrit ish
Ġde b
Ġw ar
Ġc ertain
Ġj o
Ġg round
Ġm ater
ĠA rt
Ġfact or
Ġt aken
}\ ,
Ġsour ce
Ġg en
Ġpro posed
ul ations
Ġto wn
pl it
Ġs ix
Ġbe com
^ +
| -
cre t
one y
{ {\
ĠH is
Ġf uture
Ġ ill
ge bra
Ġsim ple
Ġem ploy
z z
ul a
Ġunder stand
ĠI I
ĠAf ric
Ġev ents
Ġex act
Ġre ason
op s
Ġs elf
ed er
Ġmult i
Ġdevelop ment
Ġc ult
Ġar ch
op t
Ġcl ose
I S
H ow
ĠL a
0 7
Ġh alf
Ġt arg
n ers
et ing
q quad
Ġas k
r ant
Ġcomp ar
ĠA g
}) \
er ve
f ord
lem ma
I C
0 2
es e
ul es
Ġproper ties
Ġk ill
ar ies
Ġr at
Ġed uc
Ġcou pl
0 3
text width
ĠS ince
Ġgroup s
4 4
Ġvers ion
Ġg ot
d om
ĠS an
ad em
ĠQ u
wide hat
ĠH am
Ġpr im
ord er
Ġsur face
um e
Ġp ress
ir m
Ġhe ld
end ing
& =
b ur
ell ing
ord in
Ġwork s
Ġn umer
itt ed
ir l
Ġwrit ten
Ġs ocial
ard s
Ġprof ess
Ġm illion
ourn al
, -
o ch
Ġsom ething
Ġs ite
s w
com p
Ġmem ber
Ġcon cer
Ġz ero
}} (
Ġsc he
am a
w ise
B C
0 9
ĠP er
ĠFig ure
Ġle arning
Ġde p
Ġreg ular
20 21
ĠEn glish
Ġke ep
a pe
c up
ĠL ondon
Ġt ry
Ġanal y
ple ment
Ġcl ust
Ġdef ine
ĠB ro
Ġ\ {
ot ed
ren ch
ig en
Ġf ig
s ing
ĠJ apan
Ġg alax
sc ript
Ġev al
Ġd ou
, "
Ġquant um
Ġc e
te x
app ro
h y
a ugh
A L
o on
h tt
ish ing
itt ing
Ġinclud ed
Ġrel ated
b orn
ĠT ra
Ġbuild ing
Ġke y
ho od
ĠH ouse
Ġc ame
Ġp riv
con t
Ġl og
Ġth ings
al y
ĠH igh
Ġa rm
Ġl ength
x space
}^{ (
Ġexper iment
Ġequ ival
Ġcare er
ort un
he ad
ĠD ep
ĠCom p
Ġc ut
Ġpro p
e v
Ps i
ict ion
Ġle arn
Ġacc ording
Ġp ast
d d
f oot
Ġ )
5 5
Ġprob ability
Se e
ĠS m
Ġex ists
Ġs ens
ie f
ic ro
med i
Ġw id
Ġprodu ction
Ġr ather
ĠS er
Ġp ort
ĠLe ague
The re
Ġn ational
in ter
Ġv ideo
Ġind ust
Ġs ent
ounc il
6 4
ĠA rm
Ġbe gan
Ġdet ect
Ġlarg er
g en
ac hes
Ġf ixed
rib utions
Ġwork ing
Ġad v
Ġloc ated
iz ing
b b
Ġdist ance
it ing
o e
y ing
c ast
ĠCol lege
Ġrece ived
Ġf ail
r ated
math sf
Ġst ation
ing ton
ear ch
ri ption
av y
Ġd one
Ġst ep
i et
Ġexpect ed
Ġal most
200 3
Ġm akes
Ġother s
ed d
Ġgiv es
Ġscal e
ĠD ist
Ġconst ra
t op
Ġin put
Ġt reat
u ed
Ġne cess
Ġ$ (\
Ġp ay
ĠH er
Ġann oun
Ġstud ents
Ġrequ ire
Ġfe el
on ic
m ore
Ġw ind
4 9
}\ \
Ġsp in
Ġcl os
Ġsequ ence
Ġm iss
rac y
ĠM y
Ġcour se
h a
ra ction
sm all
s el
Ġtr ue
Ġassum e
l in
l ike
um p
Ġon ce
Ġpubl ished
t r
id s
E N
Ġl ove
Ġd ri
] $
ast ic
ut es
Ġeffect s
pd f
Ġele ments
Ġestabl ished
Ġwhe ther
av es
Ġbu ilt
Ġim pl
ic ol
ult s
( {\
S S
Ġn amed
Ġk ind
Ġl o
c ell
Ġact iv
a ff
Ġwh y
er a
Ġte xt
ilit ary
Ġp ur
ill s
ite ct
ann el
lev ision
m id
id ing
ind ent
p oint
iv en
Ġapp l
Ġb o
ĠM ark
Ġfilm s
Ġconst ruct
oper at
Ġcor rel
at rix
Ġfoc us
cit et
Ġexpl ain
om s
Ġ& \
oci ety
pp ed
Ġl ot
Ġag re
Ġh ost
Ġmat ter
Ġwh ose
Ġn atural
it ch
her s
ĠL emma
Ġmat ch
um b
Ġun it
ĠIn ternational
Ġprov ided
Ġproper ty
bs ite
Ġquest ion
Ġy oung
l i
Ġc r
Ġdi ag
Ġref er
Ġs ound
200 2
u ff
4 7
ce ed
al t
g ress
Ġcl ub
A meric
is k
A M
ar th
P h
Ġserv ices
ta ct
b ook
E D
ĠS im
operat orn
Ġoper ator
Ġe conom
equ iv
s up
g o
Ġs qu
e al
i res
d en
Ġent ire
es tern
op y
ta ge
led ge
Ġcle ar
ww w
ore s
operatorn ame
Ġp an
ĠM ich
ĠWill iam
att le
d imens
) -
Ġstart ed
Ġaddition al
a pt
ĠTh us
Ġme chan
ĠS up
rid ge
con st
Ġt aking
idd le
Ġpre c
Ġw ent
ĠF rom
Ġs ample
Ġdeg ree
Ġstr ateg
Ġrequ ired
ĠĠĠĠĠĠĠĠ ĠĠĠ
Ġthe refore
Ġbe gin
Ġcan not
ou d
Ġimpro ve
c ing
sk ip
Ġreport ed
Ġed ge
) ]
Ġerr or
Ġh or
} :
ic ult
el oc
Ġv ill
pro p
Ġspec ies
if f
ĠAmeric a
Ġfl ow
ct ors
Ġb ody
ic les
Ġn ov
Ġexper ience
Ġele ment
Ġequ ations
st ar
im ate
Ġp o
Ġeffect ive
}} {\
Ġim plement
ĠRe c
uc le
ĠPh il
Ġspec ific
il i
Ġdat as
ar a
m ark
} +\
ĠD es
ĠPres ident
200 1
8 5
Ġwe ight
S h
Ġst ars
ĠC he
ove red
Ġcomple te
Ġplay er
a el
. )
Ġatta ck
Ġmult iple
ĠSt ud
Ġne igh
4 6
Ġl abel
if orn
Ġbound ary
f act
ari ant
Ã ¡
Ġext ens
r ast
min ist
' $
Ġch all
Ġcomp ared
Ġen vironment
ĠF irst
o oth
re c
I T
e xt
at ives
at ively
Ġe ver
Ġfield s
oc al
n eq
Ġden ote
Ġdifferen ce
Ġh tt
C l
Ġro und
Ġpresent ed
it es
Ġb ar
Ġg as
ĠAn g
A P
9 7
s in
Ġnot e
Ġdom ain
ul ated
ĠĠĠĠĠĠĠĠĠĠĠĠĠĠĠĠ ĠĠĠĠĠĠĠĠĠĠĠĠĠĠĠĠ
Ġbro ad
r ig
Ġd oc
Ġt rack
} -\
~ $
ist ics
it z
iforn ia
.. ..
Ġeng ine
Ġl ive
st e
h space
cur ity
de fin
N ew
ĠA ct
Ġl ate
9 8
u el
Ġsol utions
Ġv eloc
Ġso ft
cent ury
se mb
om b
te e
ar c
E C
ed ge
Ġe ff
Ġchang es
at ory
Ġinst ead
Ġgl obal
) }{
Ġ- \
Americ an
k n
ar ing
ust om
Ġin du
y ear
Ġa ff
Ġcent ral
| ^
Ġw ords
Ġinfl u
Ġlead ing
Ġpartic ip
Ġvi ol
no indent
Ġb ase
Ġde al
um bers
Ġst yle
Ġcent ury
A nd
Ġsub ject
p a
ul ly
Ġbas is
9 6
umer ate
or ge
th at
pec ially
al le
and s
Ġn ight
ĠM or
en ed
m on
Ġincre ase
ĠS erv
and id
Ġal ign
Ġcomp an
p ly
o ph
ĠNew s
Ġcontain s
ol ic
E n
Ġmed ia
Ġwe ak
Ġdem on
ĠG o
Ġto day
Ġprodu ced
Ġbir ths
Ġcre ated
$ }
Ġt akes
ot a
Ġf all
ĠD o
Ġim ages
Ġthough t
is es
Ġset s
Ġc ateg
Ġtarg et
Ġnew s
m ar
Ġl iter
en umerate
ĠF rench
Ġcon ver
un ic
ress ion
Ġw ave
ĠA c
U S
ict ure
land s
d ag
on se
ĠCh ampions
the orem
dimens ional
il ton
Ġmet ric
Ġd est
Ġpolit ical
ou l
Ġmark et
Ġadd ress
Ġproblem s
iv il
if orm
Ġact ually
Ġin f
Ġrec ogn
ĠAustral ia
Ġdiff icult
end s
n ote
nd er
ĠP at
ĠN ot
Ġdid n
Ġf av
I D
Ġhold s
] \
Ġco e
Ġf il
Ġ vert
Ġresp ons
Ġn ode
ber g
Ġl ed
Ġpro t
ve y
B e
Ġconst ruction
ĠCon t
ĠInd ia
use um
Ġprov ides
d own
ĠV al
P l
Ġam ount
Ġy et
Ġdefin ition
Ġwho le
oun ter
Ġconstra int
ĠD em
Ġfl u
k y
a ctions
A A
Ġb orn
Ġcl osed
ru g
Ġimpl ies
Ġatt empt
Ġm er
ĠAss oci
Ġdire ction
Ġtra dition
ĠL aw
Ġb ene
Ġpri or
) }$
k ing
Ġche ck
Ġj ob
item ize
Ġpr inc
r s
Ġst e
Ġpro ve
6 7
P S
Ġf un
im ents
A t
Ġl anguage
C C
in ated
ĠCal ifornia
ĠCent er
a ign
ar ily
h t
Ġstud ies
v ille
Ġperform ed
g ing
Ġback ground
ĉ Ċ
ĠC our
Ġdevelop ed
O S
Ġimp act
ĠT V
v space
sc r
Ġs ense
W hat
sh ip
ĠW hat
ĠE ast
Ġex ec
ĠRep ublic
oc r
Ġmagn etic
Ġun ique
stit ute
Ġinter p
Ġopt im
Ġco ordin
Ġbre ak
scal e
5 9
in n
Ġtrans form
Ġare as
Ġpop ular
ĠU K
S ince
ĠT r
Ġlik ely
Ġev olution
ĠInd ian
Ġm ention
Ġset t
mult icol
Ġequ al
iz es
ad d
it ter
Ġreg ard
M S
8 8
ur ation
Ġh istor
Ġphys ical
f ill
Ġsc en
Ġcomp os
Ġr ank
Ġal gebra
ell ow
m ing
Ġocc ur
omorph ism
multicol umn
le ase
Ġa ud
op l
un ch
oy al
Ġbl ock
Ġwe bsite
b and
n ode
Ġad van
}} _
W hen
Ġrel ation
Ġserv ed
Ġro ad
Ġintrodu ced
cc ording
Ġinclud es
Ġdirect ly
r up
appro x
ĠD i
her n
\ ,\
Ġcompon ents
ren g
ĠDav id
Ġse arch
ir t
( -
pp ing
u it
Ġbecom es
Ġspect rum
Ġcom es
Ġs on
ĠEng land
Ġa ffect
ric k
ĠT rans
Ġsign al
ous ly
m y
Ġrepresent ation
Ġits elf
Ġf em
ĠO ur
Ġth ing
' ,
Ġdetail s
7 7
Ġn ucle
Ġide a
N N
Ġmon ths
L e
4 2
or ing
at ur
Ġep is
P i
ic a
Ġt alk
Ġf ront
Ġf it
Ġcho ice
Ġro t
an ks
Ġt ell
Ġelect ron
Ġad m
Ġ ess
art ment
clus ion
ĠBl ack
ĠSt reet
ĠM al
h an
ari o
Ġac cept
6 6
Ġincre asing
ĠP aul
Ġy ield
ĠH ol
Ġcent er
}} }
ĠP al
Ġadd ed
\ }$
ĠG erman
Ġf ather
Ġpart y
Ġpol icy
ĠC ons
Ġon line
Ġgener ated
Ġf ace
Ġgo al
u ra
ĠJ e
ĠThe refore
r ate
Ġre n
l a
Ġm oney
y a
es c
Ġp ric
Ġcompon ent
Ġst age
ber t
ĠS en
Ġ *
Ġwh ite
Ġin ternational
le ment
v olution
Ġl ink
Ġtrans ition
et t
wo od
Ġm ag
Ġtit le
Ġ _{
hi ps
ĠEurope an
Ġs old
Ġsmall er
199 9
Ġca pt
C D
ĠM od
rum p
Ġn umbers
p ite
Ġup d
au ge
Ġre ve
Ġsh all
P e
Ġsour ces
Ġwr ite
Ġsy n
ĠDist rict
ĠG roup
sel ves
5 00
^ -
Ġs ure
199 8
Ġd ied
our ces
math scr
us ion
Ġc andid
Ġne ut
t urb
ĠB el
Ġt ens
4 3
Ġ\ ;
ĠC up
Ġcrit ical
g ence
comm and
ic o
a ult
ĠR ed
ĠJ ames
ĠB er
ĠR iver
Ġ ri
kn own
ĠCh ina
and er
W h
Ġes pecially
ran ch
Ġad j
Ġn orth
Ġannoun ced
port s
f it
i ation
ĠC ouncil
The n
{ $
Ġup on
Ġmax imum
end er
Y ou
Ġsim ply
Ġestim ate
Ġu pper
l or
Ġbeh ind
os en
ol ar
Ġt ax
Ġde cre
Ġ ut
n ce
Ġl ost
k en
ro te
c ial
I R
Ġveloc ity
Ġiss ues
6 8
Ġarch itect
Ġpres ident
Ġte levision
Ġc ode
ri an
ĠCan ada
A fter
Ġiss ue
Ġ\ |
Ġro b
Ġdemon str
Ġde ep
l ight
ot ic
Ġg re
Ġappl ied
Ġst ri
ut ive
W ith
ĠCh ar
ĠM a
Ġsuccess ful
R es
ĠT able
ĠP ort
am s
Ġqu ite
Ġrat io
A r
Ġthe orem
Ġfor ce
ag ed
le g
as ons
Ġspe ed
) +
ott om
A ll
c an
Ġp ers
ĠH all
Ġout side
Ġcon text
Ġpart s
Ġqu ality
Ġallow s
Ġneed s
qu e
text tt
Ġper cent
A d
Ġcommun ic
Ġperson al
ic it
Ġtrans l
ĠR ich
Ġf ood
en ing
Ġcont ract
du c
Ġl at
ac hed
st ate
ru le
5 7
our ce
Ġh on
i en
Ġp ie
Ġcont ent
Ġm id
Ġdoes n
ĠR ober
Ġeval u
Ġin j
4 1
Ġdeterm ined
ribut ed
199 0
Ġneed ed
ce ption
an ish
Ġe igen
5 8
Ġbehav ior
Ġe y
ad es
Ġresp onse
ra b
Ġb it
ĠWh ile
ri ate
ĠTh om
Ġs us
i ers
ma il
Ġse x
oun tain
ans ion
Ġe arl
Ġd ark
Ġout put
Ġc ustom
Ġg ain
ly mp
n es
Ġrele ase
ĠG a
& &
F rom
| |
ĠHe re
Ġb all
ĠG eneral
ren ce
b ound
ĠD iv
199 7
Ġal though
Ġset ting
ew ork
O ne
ig ital
ag ing
Ġmov ed
Ġre ach
l oad
The ta
Ġa ward
Ġwork ed
ĠPart y
Ġcompan ies
Ġm ess
Ġhim self
ĠRes earch
us es
al d
c ome
Ġto ld
Ġindust ry
ch ange
ra z
c ks
Ġs outh
Ġtrans fer
Ġ rac
Ġrest rict
Ġp erm
i os
in os
id a
Ġch arg
Ġknow ledge
Ġvari ables
Ġcre ate
' re
Ġto wards
H E
ash ington
Ġrad io
Ġart icle
Ġinvol ved
p ot
5 6
ov ed
Ġinterest ing
Ġill ust
ĠN ote
Ġfrequ ency
}^{ -
I nd
Ġst reng
n s
Ġus es
Ġw ord
Ġh ot
Ġev idence
t ical
ĠG od
t ra
Ġm ind
Ġequival ent
199 6
Ġv ict
ri er
subset eq
Ġconne cted
Ġnov el
A D
ĠE m
Ġcamp aign
Ġb ring
ĠDep artment
Ġmater ial
< \
o ice
ĠB ook
st on
) ,\
Ġp ack
g ra
Ġpro ced
Ġfor ward
k er
Ã ³
a res
Ġreg ions
b re
ub e
i ences
Ġus er
Ġseem s
} '
ĠCh urch
is ions
s plit
Ġ ir
el t
yn om
anc ial
Ġim medi
Ġus ually
Ġp ref
n y
T e
o o
ĠD r
Ġ und
Ġpe ak
Ġm ilitary
Ġf ire
Ġtra vel
Ġto ol
Ġo p
Ġg rad
Ġlevel s
7 8
Ġpat tern
ĠJ ust
Ġim m
G e
r d
Ġexpress ion
Ġb ox
ĠĠ ĠĊ
ta int
enc ies
Ġtyp es
E T
ĠD ay
Ġdimens ion
Ġch arge
att ice
ĠA ward
ĠD ire
Ġeduc ation
is ation
ĠIn stitute
est s
Ġcon cept
ĠN ow
Ġestabl ish
Ġ$\ {
Ġge omet
ag o
min us
Ġ ...
Ġno ise
under line
Ġval id
Ġgrow th
Ġlook ing
Ġal tern
it tee
big g
_ +
Ġw rote
Ġb r
ĠCour t
Ġdesign ed
Ġinter action
ĠB ay
Ġex hib
Ġdo ing
Ġfl ux
Ġinde x
Ġt er
Ġlong er
Ġw alk
Ġoff ice
pro d
Ġrel ative
ort hern
line ar
ĠJ ack
Ġd am
ĠG reen
text rm
Ġrema ins
h ing
}} _{
Ġthrough out
Ġcol or
Ġm ach
ĠO f
Ġd raw
B ut
Ġag o
in ct
Ġvis it
ĠĠĠĠĠĠĠĠ Ġ
Ġde cl
at al
Ġlarg est
ĠG erm
ma p
ĠFran ce
Ġcol umn
Ġqu ick
Ġnecess ary
ent al
el i
Ġmon th
ib rary
ok e
ĉĉ ĉĉ
Ġopp ortun
] ,
Ġsu fficient
Ġun cer
Ġtechn ology
foot note
Ġdec ision
el ine
{ }
re p
ther n
Ġproduct s
l ong
Ġeas y
alle l
S p
Ġam pl
Ġh ol
Ġt able
n g
Ġsm ooth
Ġb ur
Ġright s
Ġs il
Ġobject s
d ist
ĠM art
Ġpol ice
Ġl iving
ĠM usic
le vel
S c
Ġd riv
eder al
Ġrun ning
ad ian
n orm
Ġg auge
un t
Ġobserv ations
Ġst ra
cl ass
N ote
20 22
O M
ĠHe alth
Ġmod ern
Ġvill age
ran ge
Ġw or
oc ks
Ġb ad
ens ive
Ġbelie ve
Ġr isk
Ġrecent ly
Ġt ask
in i
Ġm other
Ġe mer
Ġins ide
Ġsh are
Ġd ra
Ġgalax ies
if old
in y
he st
Ġ( $\
Ġt en
s ize
Ġf ight
g roup
k a
Ġch annel
Ġ$ |
ĠF e
Ġoper ators
ste in
Ġt ro
S o
ĠGe orge
ĠAssoci ation
Ġder iv
ell ar
ren ts
Ġh ours
Ġpres ence
ĠO ff
y ond
Ġcon clud
Ġ @
w a
ĠSc ience
Ġinteg ral
Ġplay ing
Ġres id
b ul
Ġn ature
Ġcon tact
Ġele ction
ou thern
Ã ¼
In t
Ġcon fig
an i
all ed
Ġqu al
Ġdiag ram
ip al
Ġpriv ate
te red
dag ger
Ġhe art
Ġm ale
Ġclass ical
as c
P R
as hed
t rans
w ell
\ '
em ents
} /
iz ations
u ild
O ur
ĠIn ter
ĠP ress
Ġm or
O T
ĠR oad
Ġgra v
Ġdiscuss ed
ĠR uss
Ġstud ied
ed y
dis play
Ġad apt
Ġass ist
Ġa x
Ġem ission
E E
Ġhe nce
u racy
Ã Ń
Ġfig ure
ĠQ ue
at form
u ge
Ġneg ative
ot o
Ġdire ctor
set minus
Ġacc om
Ġg irl
Ġun iform
opl us
Ġb oard
d s
Ġcour t
Ġac qu
Ġcol lection
Ġw a
Ġor d
199 5
Ġcomp act
e ared
Ġapp ly
M ore
Ġresult ing
j oy
Ġa im
cre te
ĠTe chn
ĠW ashington
Ġrele v
ĠW ork
Ġs aw
Ġatt ention
Ġfollow ed
à ¤
Ġlim ited
ĠS ur
8 6
Ġsymmet ry
ĠS l
Ġra ce
ĠHam ilton
Ġlead ers
Ġlead s
est ival
Ġgra du
Ġcontinu ous
se y
ĠV ol
Ġaut om
Ġcom ing
Ġin fin
5 2
Ġcorre ct
8 7
ĠT w
N ow
ĠG ra
ĠS um
Ġto ur
Ġpract ice
^{ -\
Ġhy per
F F
ing u
V ert
b our
He re
Ġan sw
Ġbook s
Ġass ign
_{ (
Ġve h
omet imes
um ents
ab s
Ġad minist
ro s
}} ,
Ġapplic ation
Ġmot ion
Ġstruct ures
-- --
Ġg ave
Ġcur ve
Ġeas ily
Ġ row
Ġwrit ing
Ġw all
Ġ$ -
Ġin equ
w edge
Ġtreat ment
5 4
9 4
Ġsche me
ĠAr ch
f unction
Ġloc ation
Ġallow ed
* {
line width
) |
d ro
ĠB r
Ġpol ynom
Ġteam s
Ġcount ries
em s
f rom
Ġv ac
Ġprob ably
M C
ist ry
Ġj ud
osp ital
Ġdist rict
Ġdoc ument
ant ic
Ġsur v
L L
Ġp age
il ies
ĠM at
Ġon es
\ }
Ġpartic les
B l
Ġcurrent ly
ri a
9 3
Ġro om
p ose
ĠY ear
ĠS ome
Ġus ers
ĠWh ite
rup t
Ġcon sum
ĠMich ael
Ġredu ced
5 1
ĠIn t
ĠS ing
Ġinst ance
d i
Ġd ed
Ġmechan ism
Ġs amples
g s
] .
Ġ$ [
Ġthe rm
d et
rie f
ree k
Ġl ack
Ġappear s
Ġget ting
Ġar riv
Ġpress ure
l n
Ġexper iments
Ġover all
Ġearl ier
ak er
5 3
198 0
Ġs eg
de red
Ġro ck
ines e
Ġexpl icit
ify ing
Ġcho ose
iqu es
Ġse curity
on a
Ġpartic le
is l
Ġdatas et
Ġst aff
ĠC ap
Ġtrans port
Pe ople
Ġthem selves
Ġso on
Ġin n
ĠN or
Ġf ully
Ġme et
ĠArm y
Ġel se
n el
Ġact ive
7 6
pec ial
199 4
Ġch ain
Ġd r
Ġexact ly
ar p
us ing
ar ter
Ġl atter
Ġcom ment
Ġdynam ics
Ġexp ansion
Ġc red
I M
arian ce
ĠM ary
rodu ction
Ġprofess ional
ĠAng el
A B
Ġad opt
ĠL ou
ĠM ac
ĠS upp
b oard
Ġm aps
Ġcont ribution
ĠB est
Ġv an
Ġtrans m
ĠL eg
p an
ĠF ound
9 2
Ġsupport ed
Ġstart ing
Ġ Ã
ĠAfric a
Ġinterp ret
Ġw oman
Ġder ived
ĠD an
ĠS am
Ġp ick
ĠA lex
ĠIs land
Ġdou ble
rough t
Ġcharact ers
ac ing
ĠM ag
Ġf ast
ĠGerm any
ĠM r
Ġw atch
Ġc am
Ġmeasure d
ĠV ir
os ing
Ġse lected
sub figure
Ġbound ed
Ġch osen
ĠM et
ma z
ĠUn ion
Ġcon sequ
ĠO lymp
Ġfram ework
Ġrelations hip
199 2
Ġc os
v ol
Ġde part
Ġask ed
ro y
ĠC ong
Ġapproxim ation
Ġt ree
Ġmanag ement
ke y
ĠP o
Ġprevious ly
Ġsl ight
Ġclass es
Ġmin imum
ĠG old
ĠComp any
Ġmain tain
re me
Ġcoupl ing
Ġread ing
ĠT om
ĠD on
lim its
Ġ( -
ĠT rump
Ġce le
a ur
ĠS ociety
erv ed
Ġprim ary
) {\
' m
Ġd ate
rop y
Ġlay er
ĠB ur
Ġfact ors
Ġcontinu ed
ol f
Ġf ill
Ġchall eng
Ġw ife
ĠD is
Ġcontin ue
Ġk m
v is
Ġbro ther
Ġver tex
k i
)\ ,
r or
f ess
ĠR oman
re y
Ġcompar ison
ĠS ub
Ġemb edd
Ġd augh
uth ors
g n
Ġform ula
Ġbl ue
Ġsc reen
Ġper turb
Ġnetwork s
ĠK e
Ġgener ally
Ġform ed
Ġcol lect
Ġun its
ar an
Ġper fect
Ġapp oint
ĠM er
Ġpl ane
Ġan ti
Ġsit uation
am ily
fe red
Ġar bit
Ġe ight
ĠR oyal
{ $\
$ _
_{ {\
ĠAustral ian
Ġuncer taint
ough t
Ġm icro
ĠB o
align ed
Ġn orm
ĠJ er
ĠT ur
Ġpat ients
col on
Ġmoment um
Ġh it
Ġw ide
ĠO ut
Ġ _
m es
Ġvol ume
L E
vent ion
~ $\
Ġdeb ut
Ġan t
Ġoper ations
cl es
Ġess ential
Ġp ark
erv ation
ĠF in
\! \!
b on
Ġpan el
oll ary
il arly
Ġoff er
Ġnot hing
Ġr ule
riv ial
il s
Ġsub set
Ġsc ore
Ġreve al
Ġvari able
ĠRe f
ĠT ex
Ġform s
_{ -
ĠAc adem
Ġext ended
Ġoffic ial
_ *
Ġmod e
al ian
Ġco ach
Ġsl ow
Ġm us
Ġc ast
Ġsp at
Ġmean ing
Ġfor ces
el er
u fact
w rit
ac ity
ib ly
Ġche m
Ġpol ar
air s
Ġbel ong
Ġincre ased
Ġconst it
Ġdis play
S P
Ġtra in
Ġsub sequ
Ġnumer ical
Ġen joy
ĠI m
Ġdeterm ine
Ġapplic ations
8 9
Ġsong s
en ge
ir al
7 2
Ġhigh ly
Ġcomplet ely
How ever
ul s
ĠM ad
Ġcell s
Ġform ation
ĠIs ra
Ġst ay
N o
ri al
i ency
D F
Ġg r
L iving
Ġachie ve
i pl
Ġre ference
al o
Ġ\ (
,\ ,
Ġrel ig
om in
ĠF urther
ĠO ther
b a
Ġsome one
Ġfe ed
ĠR ob
ĠR ad
Ġt rac
in de
Ġwid th
ian ce
ĠT own
Ġd ro
ĠG reat
M e
Ġacc uracy
Ġprocess es
ĠM iss
199 3
c ons
Ġopen ed
ĠCl ub
ĠPro position
Ġr ules
Ġit er
ob ile
Ġl attice
Ġmov ie
Ġneigh bor
Ġex amples
] [
pl ace
ĠN ov
I s
sh ift
Ġorig in
Ġet c
Ġconsist ent
S C
Ġh ope
Ġjo ined
Ġsc ient
Ġschool s
re es
Ġmin utes
Ġuse ful
ĠM ex
m as
um an
ing er
C ol
Ġh ous
Ġr ates
ĠPl ay
Ġw ays
Ġdeath s
Ġreturn ed
Ġany thing
y pe
ĠJ ew
Ġexp on
Ġsim pl
Ġquest ions
Ġstra ight
Ġde fe
c is
Ġagre ement
Ġrelev ant
ag ement
Ġcont rast
Ġstat ement
Ġwant ed
iz on
ĠS al
iam ent
p ers
Ġexp and
a per
Ġprodu ce
ĠRe view
Ã ¶
Ġopt imal
U R
Ġ| \
ĠB re
Ġspect ral
Ġ }\
H istory
Ġsim ulations
z a
ĠAn n
Ġpl atform
Ġav oid
N A
9 1
Ġsh ape
Ġext ra
ĠW il
Ġbe yond
x y
res ents
duc ation
Ġparticular ly
ĠSc ott
ĠRober t
m s
ĠDem ocr
ed om
ffic ients
ĠC O
text sc
6 3
Ġmar ried
htt p
) }(
Ġinter view
Ġestim ated
Ġrad ius
htt ps
e ks
ĠP et
Ġpolit ic
in em
Ġth reat
d o
w ar
v est
Ġmeasure ments
Ġrequ ires
Ġsc ience
end ix
ĠM us
Ġpro gress
ĠH ence
Ġmem ory
Ġ ult
g ent
Ġch urch
Ġtry ing
ail y
* *
ĠF ilm
ĠSup er
Ġident ity
Ġcomplet ed
ress ed
ĠM useum
is hes
bur g
Ġcont roll
Ġsy mbol
Ġsa f
s er
ol it
ir ing
Ġstrateg y
er ia
I G
Ġst eps
un k
sub subsection
ruct ure
Ġvari ety
Ġrecord ed
Ġex am
ĠO b
Ġb al
ĠCent ral
ĠH en
}} (\
Ġsatisf ies
Ġmin im
Ġgo es
ĠDiv ision
Ġhig hest
Ġcult ure
} %
i ant
et her
Ġca use
Ġf air
Ġdescrib e
defin ition
ĠD uring
S O
3 00
Ġc ore
E M
Ġrepresent ed
Ġst op
Ġapp eared
og le
l o
rib ute
y mmet
ĠS un
Ġexperiment al
Ġres olution
Ġdis e
ĠChrist ian
Ġcalcul ated
Ġdire cted
! !
Ġmention ed
Ġsignificant ly
ĠD el
197 0
Ġse ven
Ġpl aces
' _
Ġd ual
ca pe
Ġ: =
Ġepis ode
8 4
Ġfriend s
Ġrun s
Ġv s
) _{
ĠP ublic
j ection
over y
Ġappro p
it able
Ġclust er
Ġtra de
ĠH ill
Ġcons ists
v a
B S
Ġdec ay
F L
Ġsol id
al a
ĠM o
ĠF ore
ĠA re
az ine
E q
ĠAfric an
in f
it a
Ġre comm
) ^{\
' \
Ġcap ital
199 1
Ġm ix
Ġoper ation
ĠSy stem
Ġbegin ning
ĠThom as
Ġex c
it ar
av en
6 2
Ġle ave
) /
Ġb ul
y r
ollow ing
pro du
Ġra il
Ġbir th
b ody
ur t
Ġfam ilies
Ġc ounter
ĠTex as
s pect
ĠCl ass
Ġcorrel ation
Ġab ility
Ġcons id
ĠP ost
ric es
}$ -
Ġb rought
Ġnear ly
ĠSm ith
ĠV i
Ġelect ric
an o
h aps
ĠCh inese
.~ (\
Ġrep resents
Ġan im
Ġfl at
N ot
Ġopp os
ĠIn st
Ġf raction
bl ack
Ġinst it
Ġvert ices
ĠR ussian
for all
Ġ+ \
ob s
r ish
Ġkill ed
ĠB en
Ġassum ption
Ġre pe
Ġj ournal
at re
Ġexist ence
l am
I V
Ġfin ally
Ġshow ed
Fig ure
Ġsqu are
: \
Ġp en
S he
Ġg overn
Ġcorrespond s
ĠSt ar
Ġproced ure
app ing
\ _
Ġfin ancial
Ġident ified
Ġconne ct
' ve
ĉĉ ĉ
Ġevery thing
Ġdet ection
st o
ĠG rand
Ġpl ot
b o
Ġbe aut
Ġex cept
ĠMore over
Ġra p
Ġde ad
Ġleg al
6 1
i ra
Ġn odes
Ġm ole
$ ^{-
) ^{-
Ġtradition al
ym pt
Ġbas ic
ĠH istory
k m
tern et
u ations
Ġpa int
ir it
ang er
Ġhe avy
d eg
Ġ&= &
A pp
Ġliter ature
ĠB ill
ad o
P C
ens us
sim eq
if ically
ict or
Ġt as
Ġsign ed
Ġc ivil
ĠComm un
7 3
or por
N et
ty pe
ann ed
ĠU nder
Ġpl ant
6 9
Ġsh ift
D A
S im
ĠIn c
Ġact ivity
ond er
F T
ĠC a
Ġcon cent
Ġsc atter
Ġw orth
Ġdiscuss ion
Ġfav or
ow ers
Ġcoe fficients
Ġb rand
Ġf arm
Ġsp aces
Ġsoft ware
om a
Ġincre ases
ri ent
Ġget s
sy ch
tt y
Ġgre ater
u a
Ġt al
S U
Ġc ry
7 4
b i
r at
Ġocc up
ĠW estern
Ġprof ile
Ġf irm
Ġp urch
C O
8 2
res hold
ĠL ist
Ġst ated
mer cial
st ant
ran e
ĠSer ies
ĠCar ol
Ġed ges
Ġsay ing
Ġs en
y p
og ene
Ġa uthors
8 3
Ġconstraint s
per p
$ $\
Ġapproxim ately
Ġg un
ĠFl or
Ġre ached
Ġl ives
Ġdec ided
ab ilities
bul let
ĠR ock
ot ion
i h
ĠS ta
c ases
ĠG ames
D E
Ġme eting
ĠJapan ese
$ ).
Ġsur pr
ĠMin ister
h and
Ġg old
Ġsum m
Ġrema ining
Ġconne ction
Ġ ensure
= (
ĠL u
F C
Ġcle arly
7 9
ĠS a
Ġm is
ĠT or
e ed
Ġexist ing
8 1
7 1
T V
w in
B A
ĠC arl
Ġdom in
Ġs n
Ġp ain
Ġdesc ription
Ġdepend s
Ġsim ulation
Ġcomp ute
}^ *
Ġim ag
il ib
p ng
ĠAl so
Ġappro aches
Ġse lection
ĠL at
Ġstud ent
Ġgiv ing
ap ter
ĠC ath
Ġinequ ality
Ġdaugh ter
a rent
ind er
ĠP eter
Ġang le
Ġse lect
en a
ĠPro gram
Ġinflu ence
ud d
= -
Ġcateg ory
Ġs ometimes
Ġc ard
Ġhtt p
for ce
val ue
A b
The se
ul ate
Ġtechn iques
velop ment
z ero
Ġpre m
G B
Ġmed ical
Ġmov ing
ed s
Ġis n
Ġchang ed
Ġfem ale
198 9
ĠB rown
Ġarg ument
ĠCan adian
n ed
Ġlist ed
un c
Ġj oint
re land
Ġgener ation
Ġredu ce
ri z
ĠPro v
Ġdist inct
Ġintrodu ce
em por
c ular
ol a
Ġg reen
ĠC amp
ĠE v
an cy
Ġvis ual
Ġb ank
M A
pm atrix
ĠKing dom
ot ing
ĠÂ £
Ġdist ributions
ar r
Ġden otes
Ġcon duct
d t
Ġsh ot
Ġstreng th
n ormal
Ġas pect
ament al
ve x
ĠAl though
Ġm iddle
Ġimmedi ately
irc raft
it ely
ĠComm ission
Ġc ru
ist an
g u
Ġevent ually
Ġb rief
ĠT wo
Ġd rug
Ġsp orts
ĠServ ice
Ġnot ed
Ġcur ves
) }{\
k in
Ġmod es
ĠFran cis
Ġ â
Ġprop ag
ĠVir gin
ĠSe cond
^{ +
f ree
ri um
ĠAcadem y
l ig
Ġcomput er
= {
Ġdev ice
Ġc it
et te
Ġst ories
Ġabs ol
Ġturn ed
ck now
Ġman ufact
C S
and a
s u
}} ^
Ġm ur
ĠPe ople
b ut
ĠY our
Ġun ivers
ell ig
ĠK ore
Ġcomb ination
Ġh arm
al g
ĠC D
p c
< /
Ġwe eks
ĠM ost
w est
Ġob vious
Ġsur round
ark s
Ġp ure
Ġinter actions
c el
ĠJ ose
Ġevery one
Ġcoll abor
Ġscal ar
Ġactiv ities
Ġthe ore
Ġpur pose
I P
ĠChampions hip
Ġfram e
ĠFran k
h om
ĠM el
Ġcont ributions
L P
_ _
Ġqu as
ĠO ver
ap ers
k es
4 00
ĠRich ard
Ġca used
Ġ= \
ĠDe f
ill er
Ġmove ment
Ġdepend ence
)\ \
? âĢĿ
Ġrepl aced
ic ago
Ġ Ð
ro ad
ad y
ma in
$ (
Ġe fficient
Ġstr ing
oc ol
L S
' )
Ġst ream
Ġst ellar
Ġoff ers
com ing
err or
e ch
ĠB i
s ol
T hat
Ġunderstand ing
Ġcou ple
r as
og ue
Ġco ol
Ġlead er
Ġp hen
Ġass ess
il ed
Ġm ut
r r
Ġalgorithm s
Ġcl oud
Ġor b
Ġp oor
Ġcar ry
Ġe ffic
N e
Ġcon v
th let
Ġinv ariant
ĠR em
ĠW omen
ven ue
Ġprogram s
re al
y er
Ġser ious
h ouse
Ġpric e
Ġmiss ing
R E
Ġart ists
iver se
ĠFound ation
ĠH a
ĠS u
Ġg rand
I F
Ġs ampl
Ġspect ra
display style
Ġslight ly
Ġrel atively
ĠG overnment
ĠPl an
ĠZ eal
Ġa mb
ult ure
omorph ic
ĠJ ournal
Ġpl ays
Ġcom pl
r ich
T S
Ġf ine
se ud
Ġrema in
s ur
Ġpl aced
Ġon to
Ġabs or
Ġform al
new command
M y
ĠR o
ĠM em
} )$.
Ġext rem
ĠChar les
Ġt im
Ġclass ification
e es
198 8
Ġopt ical
Th us
ĠLou is
Ġ ~
ĠS und
Ġdem and
ĠDe c
m ann
Ġcos m
ĠD en
F irst
ĠE arth
mod el
Ġst able
ĠR el
ĠA ccording
r ons
ol k
ĠĠĠĠĠĠĠĠ ĠĠĠĠĠĠĠ
Ġspat ial
ĠZeal and
Ġsh ip
Ġinst rum
Ġp ull
Ġeconom ic
Ġn ames
ĠJ ul
Ġpre vent
196 0
st ack
) {
C H
Ġan c
ĠB oard
Ġsing ular
ĠP re
as ure
Ġr ing
L O
Ġcon vers
ad ing
ĠB ig
sk i
ĠM ass
Ġt ru
os h
Ġw est
ic ks
st ra
ess ion
)$ -
c her
amet er
Ġl if
Ġquick ly
ĠL ife
Ġreg ime
Ġart ist
onal d
Ġcon du
_ -
Ġpol y
Ġextens ion
Ġsum mer
Ġprote ct
ĠL ake
Ġe ast
Ġother wise
umn i
Ġident ify
ĠP an
Ġfour th
Ġa ctions
Ġmeas ures
Ġse cret
ter m
Ġsc ene
Ġacc ur
th is
Ġqu ad
Ġ er
Wh ile
Ġcompet ition
Ġdou b
Ġpair s
i able
ĠL os
Ġmach ine
und red
Ġf oot
ĠB usiness
Ġestim ates
Ġspe ak
Ġext ract
ent y
Ġsit es
' ll
Ġassum ed
ĠO ffic
ou ra
Ġtens or
Ġmeasure ment
Ġbene f
ĠCong ress
ĠUS A
pro b
ern el
ĠL and
N R
Ġbehav i
mat rix
Ġb ottom
ag s
map sto
Ġrepl ace
m et
Ġmin or
ĠRuss ia
P ost
I A
ĠDire ctor
od ot
Ġg rant
Ġcele br
Ġbl ood
ĠL ie
he mat
Ġmajor ity
rem ark
ust ain
ur ning
ĠT op
Ġsymmet ric
se ct
I ON
Ġcol lege
Ġsp read
Ġorgan ization
y an
Q u
he m
Ġsepar ate
g color
ĠIt s
om y
198 7
com position
ac her
Ġres ources
Ġcomb ined
Ġansw er
Ġle ague
ĠU p
ell i
res h
Ġex cit
b an
idd en
Ġhtt ps
Ġpie ce
Ġcal c
Ġwr ong
p re
er c
Ġth reshold
Ġapprop riate
ĠPar is
C A
ĠĠĠĠ Ċ
Ġgalax y
Ġpa rents
Ġcomput ed
Ġconstruct ed
ĠE qu
olog ies
ĠH el
d x
ag er
ĠGa ussian
ĠE ducation
\| _{
c r
Ġdis k
Ġarbit rary
ĠT ime
IN G
ĠIt alian
t ri
Ġmat rices
Ġyield s
am ely
Ġd u
H z
or ter
ĠFlor ida
ĠT imes
ell ed
ĠH istor
Ġprov iding
Ġsp ent
ach ing
ĠI reland
) _
S te
semb ly
n eg
Ġgu itar
Ġin ner
Ġproject s
ag raph
ĠH ot
ĠO pen
The orem
Ġt or
as tern
ĠF ace
Ġo dd
al se
Ġb ranch
ist ical
at o
L A
Ġrequ est
Ġtrans formation
Ġe arn
Ġpart ners
Ġexpress ed
ro t
ĠK n
Ġt un
ful ly
ay lor
Ġref lect
Ġpl ans
Ġcar ried
Ġcomp are
Ġdifferen ces
Ġsh oot
$ ;
ill a
}} ^{
ĠHamilton ian
Ġindividual s
ĠH y
ĠComm ittee
Ġf ix
Ġv oice
Ġopen ing
ĠE ach
pot hes
Ġd igital
Ġf a
pt on
ĠRec ords
R A
Ġas ympt
Ġobs erve
pos es
fl ict
Ġcandid ate
Ġdetail ed
Ġprov ed
ro om
ĠAt l
Ġem p
ĠC am
g est
vi ation
E O
Ġv irt
pt ions
Ġfound ed
ac c
ig an
198 6
b in
or ation
Ġse ctor
b el
ĠO h
Ġm orph
Ġb gcolor
Ġmost ly
ĠAr ts
ĠA M
ĠOff ice
Ġelect ed
Ġmass ive
Ġc op
Ġag ent
ell a
Ġmass es
ĠG ood
ĠB ank
Ġn om
Ġin form
Ġf elt
ct ic
ilib rium
Ġany one
Ġpar allel
ĠS T
Ġerr ors
pro position
Ġs ch
g raph
\ "
Ġth ick
Ġin ternal
Ġtyp ical
it ation
Ġfin ished
Ġpre tty
Ġide al
Ġcontain ing
Ġc at
m c
ĠS ol
Ġl um
F urther
\ {\
ott ed
198 4
Ġbuild ings
ĠS il
Ġtyp ically
Ġarchitect ure
Ġo rient
ĠV ictor
ĠM ur
ĠAngel es
Ġman ifold
Ġv ary
Ġlat est
ĠF estival
ud e
wh ile
Ġ$ $
ab il
Ġorig inally
Ġhand s
en ch
Ġstat us
Ġla un
Ġres on
Ġcy cle
Ġshow ing
ĠPro fess
Ġstrong ly
mult i
Ġrap id
Ġl ic
Ġpolynom ial
d im
ĠS aint
Ġwrit er
ĠJ o
198 5
Ġal one
if ul
az z
rid ay
Ġredu ction
Ġtem por
Ġcomm and
N D
Ġcap acity
M od
Ġdes pite
h bar
Ġr ise
Ġinterest ed
qu are
Ġn ation
H S
Ġhe ight
n et
ĠR ail
M ar
com ple
ĠN etwork
P A
ĠJ un
h box
p ol
ic ity
Ġcrit ic
sc ill
G C
Ġsem i
es h
raz il
Ġlaw s
ĠMart in
Ġrespons ible
ut ed
Ġhor izon
Ġalbum s
Ġa st
' (
ĠCh icago
ĠL ove
ĠI ran
Ġa ircraft
Ġconfig uration
t ik
Ġwas n
Ġl oad
Ġact ual
Ġreport s
$ ~
Ġcommunic ation
Ġb us
ĠM il
g a
od ing
ed ia
Ġp le
Ġex change
ĠM ont
C an
ĠB ob
ĠI ll
Ġopportun ity
Ġ ign
ĠSc ot
Ġsaf ety
as y
' }
Ġpr int
ĠH ig
at ically
P r
}( {\
ist ed
as ion
r ical
- $
ĠP M
Ġachie ved
Ġe mail
ĠT our
ĠS ocial
Ġbe g
Ġsu ff
Ġcoordin ates
ĠO l
ash ion
Ġappoint ed
ĠD u
Ġre v
Ġtra ined
ĠF re
Ġscatter ing
Ġrece ive
Ġm ission
ri ve
Ġs al
Ġconver gence
l ines
Ġposition s
Re c
âĢĿ .
ĠP ri
U T
F ilm
pi red
ic ated
Ġdri ve
ĠAir port
oc ation
et ime
atur day
Ġgener ate
P T
m it
ĠL y
S M
Ġsatisf y
c ase
Ġpro port
Ġqu arter
Ġpro ceed
) +\
Ġve ctors
ipp ed
Ġse c
h ab
ĠEng ine
Ġdep th
Ġcomput ation
stit ution
ri age
or ial
it ors
Ġrec all
Ġp icture
ĠC ur
ul ed
Ġcent re
Ġun ion
Ġaltern ative
ĠW ood
Ġdise ase
if feren
Ġw ood
O r
ĠI II
Ġst ru
Ġconsid ering
in v
Ġmagn itude
ĠSum mer
Ġhy dro
Ġobserv ation
Ġfund amental
c ript
k l
&= &
Ġac adem
} &
ĠIsra el
k o
Ã ¤
m ass
is her
Ġnucle ar
Ġh ar
Ġv ote
Ġro ll
M R
we ight
s pec
m l
Ġgrow ing
ĠSe cret
rel ated
Ġo scill
Ġag ree
C ons
ĠCath olic
Ġseg ment
Ġex ternal
ĠF ootball
ĠT er
Ġ ener
pos s
Ġhe at
Ġpre p
ĠW ind
Ġtest ing
Ġphen omen
ĠThe ir
Ġfre edom
Ġp m
Ġtr ust
C o
Ġpredict ion
tik z
Ġf ans
al ysis
Ġg ap
s ch
Ġs ociety
The y
Ġs plit
Ġre const
om ic
ĠP enn
op ic
Ġb attle
Ġw ild
ĠH aw
Ġmater ials
Ġmin imal
t z
ĠB et
ĠM ax
Ġ %
Ġch ampions
i as
Ġgu aran
ĠJ ud
ĠC ast
Ġse a
Ġcommun ities
Ġinter val
Ġth ous
ĠLe e
es ter
Ġbe am
Ġinc orpor
Ġc opy
ĠL i
Ġwin ning
Ġtas ks
Ġcom ments
Ġindu ced
Ġdifferent ial
Ġb right
k ins
Ġpass ed
c ong
ĠJ im
p icture
ĠVirgin ia
J ohn
S upp
Ġann ual
ĠGe org
Ġf if
ve re
ic ine
ĠMex ico
ĠFor ce
val ues
ĠDe velopment
ut ch
ĠG al
Ġfunction al
anc ing
ĠF orm
Ġtheore tical
}{ (
ce an
Ġhe ard
ĠE ven
Ġdev ices
) }}
ann els
il ing
Ġst ations
Ġsur vey
ri f
) }_{
Ġent er
itud es
b ed
Ġut il
| _{
ĠSe e
15 0
Ġatt ract
198 3
Ġ ;
ĠSp anish
id ers
Ġch ance
in ner
Ġh undred
art s
ĠCh ild
Ġeff ort
os c
ĠSp ace
Ġh op
ĠS k
m ma
Ġsh ared
d iv
Ġcalcul ations
le ctions
ĠF inally
ear s
ĠCent re
S A
Ġus ual
Ġinde ed
ĠA rab
Ġtr uth
ĠĠĠĠĠĠĠĠ ĠĠ
) },
ran k
Ġindic ates
Ġto uch
ĠO ld
Ġgo als
) -\
} )$,
s is
ĠS pr
Ġapp arent
S ub
Ġc ook
ĠA wards
} }$,
Ġcle an
ov ing
ro ph
ĠT HE
sh ire
ĠPro ject
ĠS pe
Ġcirc le
ĠSh ow
Ġlook s
S ch
Ġey es
Ġra re
Ġsyn the
Ġcontain ed
os is
Ġconclud e
p at
Ġcom mercial
ay er
}{ |
Int roduction
Ġampl itude
Ġh ole
c ref
ĠV er
} }$.
$ ),
ip age
Ġse ctions
F e
T r
c hen
min ipage
Ġhy pothes
Ġinter act
}$ )
Ġl ies
ĠO per
Ġres pond
arl iament
Ġindic ate
ogene ous
Ġo il
ĠIt aly
Ġser ve
or a
Ġst ore
Ġ eth
og s
Ġnot ation
Ġclust ers
Ġmess age
Ġeff orts
ard en
Ġmet al
ĠSund ay
Ġfore ign
ĠHen ry
ĠTe am
Ġmain ly
ĠG all
omet ric
) )$
C P
ĠH ome
Ġre asons
Ġs ort
Ġun known
Ð °
ta g
Ġb inary
we et
Ġres ol
stand ing
Ġmor ning
S E
Ġcalc ulation
ĠTechn ology
ĠB u
Ġpower ful
ian a
ĠL ong
Ġide as
od ay
Ġto urn
Ġeffic iency
S R
ĠGo ogle
it ness
Ġtherm al
in u
ĠJ ac
ĠA ut
Ġm arg
Ġtre nd
Ġcost s
Ġrec ords
Ġadvan tage
c at
Ġlay ers
Ġst ress
g ies
Ġlet ter
Ġwork ers
Ġar rang
l aw
Ġfind ing
Ġor th
ĠT im
Ġpr ison
Ġflu ct
Ġtra d
Ġacc eler
m en
ĠFurther more
ĠVal ley
the n
Ġocc urs
198 2
Ġappear ance
ĠMed ia
ĠSw ed
Ġrema ined
Ġm aster
av al
ĠE nd
Ġfeature d
f s
L a
av el
F inally
ir med
ĠY oung
Ġ$ |\
Ġm ixed
en ess
con ne
ound s
ĠB oth
t w
i ro
go ing
C M
ĠW al
Ġfore st
ĠD ou
Ġdest roy
Ġplan et
Ġo ption
Ġgraph s
Ġhouse hold
s he
f ort
Ġa part
Ġlim its
Ġrefer red
Ġtri al
it ivity
cknow led
Ġc ov
Ġro ugh
Ð ¾
,\ \
ro id
ell er
Ġar rest
S I
p hen
pect ive
id el
Ġold er
M an
ov a
Ġwh om
Ġch ief
Ġw at
[ (
Ġbu y
ĠFace book
ĠE r
Ġchem ical
: }
Ġphys ics
ĠD ata
Ġscal es
ĠK h
Ġrem oved
Ġimport ance
Ġv oc
Ġover l
ut y
Ġg rid
f aces
,\ ,\
ĠT re
D P
ib r
s uch
197 9
Ġanal og
ab y
Ġuncertaint y
Ġle aving
Ġop in
Ġ ice
ĠA v
C E
Ġhelp ed
aw a
Ġmanag er
O ther
i y
Ġph il
ĠP ac
ĠE mp
Ġb ill
I m
ĠU sing
Ġdimens ions
A ccording
Ġr ang
Ġlo op
m osp
ĠP arliament
j e
Ġs pl
19 50
Ġst rict
od er
t wo
Ġsom ew
Ġlaun ched
Ġdist ributed
col umn
he ight
ĠE lect
Ġtechn ique
er gy
00 00
~~ ~~
ian o
Ġco ast
Ġoptim ization
C T
Ġbecom ing
R O
ĠI N
Ġax is
Ġexplain ed
ific ations
1 20
The refore
ĠEx p
ĠJ ones
Ġnot ice
Ġgrad ient
Ġdist ingu
Ġdeg rees
P er
Ġb illion
Ġcl in
ish op
ic an
cl aim
Ġ[ \
Ġeval uation
ult ural
Ġt end
p g
C ont
ĠCh ief
Ġpart ies
ĠG ame
ict ed
us band
Ġs le
ĠServ ices
ĠAs ia
. $
he rent
Ġend ed
Ġke pt
Ġinteg er
Ġthan k
Ġres ist
Ġf ederal
i ate
st ream
ĠMan agement
w an
ĠE conom
a o
Ġcan cer
Ġcon flict
ock ey
Ġtra ject
Ġ( )
ĠS ar
im a
Ġrot ation
Ġwe b
od d
P P
Ġdis app
ens ion
Ġsol ve
og en
ph as
Ġd ust
Ġed ition
Ġcit iz
Ġr an
198 1
Ġcon j
ut ation
g reg
ĠF riday
Ġneighbor hood
\ ;
Ġcomplex ity
ĠL ag
Ġb und
ĠS M
Ġpart ial
Ġh uge
u an
script style
Ġjo in
Ġs ales
Ġscen ario
Ġkn ew
Ġleg isl
en ced
Ġcl imate
ĠB as
ĠL ibrary
g ar
Ġinfin ite
D o
Ġcoe fficient
Ġlearn ed
Ġim plic
ograph ic
Ġra ised
ind ing
Ġm ill
Ġmot iv
Ġis land
Ġrem ark
ad ium
Ġimplement ation
Ġst o
Ġclaim s
ature s
Ġc overed
Ġal umni
D S
Ġfor ced
ĠA cc
Ġsub t
Ġdepend ing
Ġto ward
Ġk ernel
ĠW ay
Ġimpro ved
Ġaward ed
ĠS aturday
Ġsol ar
t frac
ifferen t
i xt
un ct
ĠG en
Ġhe ar
Ġsp irit
empor ary
Ġsuggest s
ĠH or
Ġchall enge
Ġmus ical
Ġw onder
ĠG re
t ed
cc cc
ip ment
Ġwhere as
am m
ex ample
Ġexpon ential
Ġtri ed
ĠIs lam
] }
Ġro ute
1 000
Ġtool s
ĠOlymp ics
Ġinn ov
ch ang
Ġprinc iple
Ġsh ock
g rad
Ġdis crete
ĠJohn son
ph ant
ĠC r
Ġrob ust
Ġreg ist
v in
Ġper haps
b ury
if ts
F A
d ata
ud get
Ġscal ing
if ies
Ġtechn ical
Ġch annels
Ġof fered
Ġ\ &
ĠL iber
$ :
ĠJose ph
ĠSt at
ĠB razil
Ġturn s
ĠCarol ina
Ġact s
ic ed
Ġsen ior
g ers
j a
as er
Ġstat istics
ĠBe cause
Ġinit ially
Ġpro pos
ĠM en
Ġev ol
a ver
ĠPh ys
Ġel im
Ġfam ous
Ġang ular
Ġpart ition
ĠS and
ĠC ross
Ġ ion
at i
ĠT aylor
Ġdriv ing
ĠE p
ĠB al
ĠI ma
Ġbas ket
Ġl ab
ch o
or age
Ġreveal ed
Ġtra ffic
fl ow
$ {\
Ġp seud
E L
] $.
Ġor bit
Ġbroad cast
ond ay
= #
Ġregard ing
ĠL in
F R
igh ter
' d
t d
n ame
Ġp il
Ġs un
ĠW all
Ġdatas ets
Ġm unic
Ġveh icle
ĠB ra
Ġsub group
i ated
in ations
bl ue
Ġatta cks
Ġp oll
Ġadd ing
Ġcy cl
Ġnumer ous
[ -
ĠHe ad
, {\
Ġla unch
Ġ Î
ĠI rish
Ġsatisf ying
clus ions
197 8
Ġsing er
j i
ĠDes ign
L ist
ron ic
Ġle aves
Ġpol ic
Ġallow ing
Ġcon vex
Ġsuggest ed
Ġk ing
Ġde composition
^* $
Ġw ants
197 6
Ġ$ {
in et
Ġexpl ore
Ġinvestig ation
so ft
g ener
Ġoffic er
U sing
Ġent ry
on ical
ĠE very
Ġre b
% )
ĠA G
ĠC oll
St ate
ing ly
I L
el ess
ĠG r
Ġdiv ision
ĠCommun ity
Ã ¨
Ġpa id
Ġsc ored
Ġsp ot
Ġden oted
od ies
Ġfail ed
l ow
m iss
}\ ,\
ĠD own
ĠL ine
sp an
m ond
Ġinc ome
t est
ĠM iddle
Ġab und
re qu
Ġent ropy
E d
Ġal le
er ies
uild ing
Ġhistor ical
ĠâĢ ¢
Ġpredict ed
Ġf ile
is ely
Ġvari ation
Ġfootball ers
$ _{
sy stem
ĠD et
ĠL ord
ot al
ellig ence
ĠEn ter
Ġhapp en
ĠWe ek
T rans
ut ing
act er
Ġdisc overed
Ġar c
Ġinteg ration
Ġed itor
Ġcontin ues
Ġact or
A G
197 5
che ck
ĠH uman
Ġcon ven
script size
| }
Ġwind ow
im b
ĠC are
Ġwe ap
t an
Ġwrit ers
ĠP ower
ĠR am
Ġcondu cted
Ġfil ter
Ġread y
h ol
ov iet
urb an
âĢĿ ,
Ġre ality
Ġlum inos
Ġart icles
ĠF ree
Ġc m
ĠIn formation
Ġl ived
Ġ ens
Ġh usband
Ġcre ating
ĠN orthern
Ġh ospital
) --
ĠC y
p ath
Ġcom plic
fl oor
ĠB ow
âĢ ĺ
Ġm ountain
Ġcharacter istic
Ġb oy
Ġlook ed
Ġtre es
iz er
Ġex cell
for ward
Ġstart s
Ġb ra
Ġaccur ate
ĠL ab
197 4
ĠW ater
Ġrel ax
ta il
Ġor dered
bra ce
Ġdel ay
ak a
Ġmed ium
197 2
ĠM any
Ġrelig ious
Ġst ability
Ġgeomet ry
Ġadopt ed
ĠT ri
Ġdis s
Ġord ers
Ġvict im
Ġri ver
d frac
Ġn ine
big l
\ }$.
ĠW ales
Ġen h
Ġplan ning
, $
Ġpl us
i ative
Ġs ustain
Ġstat istical
Ġp ix
Ġp sych
) )\
D M
Ġmat ches
ost on
ĠC re
197 7
Ġcharg ed
] {\
Ġrepresent ations
clus ive
Ġcompos ition
gy pt
L C
ĠOr der
Ġprocess ing
di ag
Ġbound s
| }{
ĠSt and
Ġp lease
Ġrad iation
ult ane
c d
Ġsy m
Ġcoordin ate
Ġstud io
d es
e ff
Ġf erm
ĠE ll
w ater
Ġph one
Ä ģ
Ġn or
Ġpro jection
ĠA tt
Ġis ol
] $,
Ġrem ember
Ġc ities
Ġdo or
Ġcalcul ate
: =
Ġhapp ened
ĠU k
ur ies
ĠS pecial
r un
ĠD isc
Ġact ing
S ome
Ġbl og
A ss
os oph
Ġ& &
Ġle mma
y e
Ð ¸
ĠCon ference
ĠP ak
s en
j o
Ġpo et
ĠMod el
it age
Ġn amely
Ġconf irmed
erson al
Ġman ner
sy l
am ing
big r
ĠPol icy
ĠâĢ ¦
ĠR et
Ġp urs
Ġmulti plic
Ġrequire ments
all s
\ )
am in
Ġbehavi our
ĠS ports
Ġs ides
ig ation
ans as
Ġorgan izations
C R
ĠN ight
ĠChrist mas
Ġm obile
O L
Ġb os
ĠM u
Ġsum mar
Ġequ ilibrium
o z
ĠDe v
os es
Ġdetect ed
}} _{\
Ġwe ights
Ġcult ural
Ġp p
ic on
Ġoper ating
ĠCol umb
D uring
Ġm iles
Ġdimens ional
h ost
ab eth
Ġgrav it
Ġpe ace
Ġco inc
ĠSp ain
Ġ id
Ġem phas
h u
Ġat mosp
el d
Ġpref er
van ia
Ġ\ !
h ar
vert ed
less sim
math op
ĠCh arl
d isc
Ġband s
anc he
{ {
ĠMc C
Ġc row
pr int
Ġevalu ate
ore n
Ġcon d
ĠĠĠĠĠĠĠĠ ĠĠĠĠ
O P
bm atrix
Ġdescrib es
Ġcandid ates
tain ed
Ġd rop
Ġd aily
ĠW ell
ĠBl ue
Ġview s
Ġcustom ers
Ġqu e
Ġro ot
ib li
ĠU s
Ġbe at
Ġcor por
b al
ugh t
Ġtrac ks
l ocal
it ative
ĠBrit ain
ĠWilliam s
N S
ran ce
ig ration
Ġnew sp
b as
197 3
Ġsufficient ly
Ġf le
Ġinvestig ate
Ġfl oor
Ġmed al
Ġconsequ ence
Ġneut r
ac hel
Ġd ream
ĠTw itter
Ġdam age
Ġmod ified
Ġextrem ely
l ife
Ġown ers
Ġadj ust
Ġcam era
ĠRad io
" )
il bert
Ġcon ference
A m
Ġl ie
Ġun f
Ġclaim ed
b rid
ru it
ĠAs sum
Ġobject ive
Ġloc ally
or al
air man
ĠF amily
Ġposs ibility
c f
ĠI R
angu ages
Ġloc ations
Ġ ur
ĠF ield
Ġpredict ions
Ġtourn ament
196 8
ab ase
][ ]{
if ier
ĠPhil ipp
Ð µ
S L
rib e
ĠC ard
Ġit ems
Ġt ail
il a
Ġad vert
up s
Ġfe et
Ġupd ate
Ġag ents
ĠSe c
}} }\
ĠM icro
Ġfl ight
}[ \
Ġb in
Ġis omorphism
Ġn arrow
ĠJe ff
Ġposs ibly
ĠW ed
ĠB ern
Ġj ump
Ġrest aur
pe ople
Ġext end
Ġinc ident
ĠS uch
ĠN avy
Ġwid ely
act ic
N ext
Ġthe ories
erv ative
is ters
ĠM ike
el a
u ing
og rap
M ed
j oint
ĠV an
Ġf an
Ġe arth
ĠF ort
ĠW ho
Ġw arm
d y
Ġbasket ball
Ġr ich
Ġbi as
amp ion
uck y
C or
Ġrecomm end
Ġestim ation
ĠSt r
Ġ\ ]
ject ive
Ġbeaut iful
ĠC le
l ength
R eg
Ġme ant
Ġunder lying
ĠPol ice
s upp
ide os
ĠAn t
x x
Ġs outhern
Ġbene fit
Ġne ural
ĠF red
ĠG overn
e f
R ep
Ġapp lying
ict ures
he t
ĠAnd rew
c alled
Ġdynam ic
Se ction
Ġaud ience
Ġc old
ul f
urs day
Ġsu itable
v ature
}} )
Ġcomm ission
= =
rim inal
al gorithm
m n
Ġfoc used
Ġp et
ĠJ on
z er
ĠH on
ĠW ild
ĠK en
ys et
Ġp ages
ĠDemocr atic
ens ities
ĠS outhern
est ic
Ġequ ipment
Ġinvol ving
Ġmanag ed
Ġpr ime
ĠCor por
Ġchang ing
av a
Ġter rit
Ġinter section
us al
pect ed
f ile
ĠB or
ĠScot land
P U
1 10
Ġth r
ĠM ot
Ġthink ing
ve e
a a
ĠSen ate
Ġn orthern
Ġfig ures
ris on
Ġsub stant
Ġtest s
Ġc ars
Ġin verse
ĠFrancis co
i ota
Ġsk ills
long rightarrow
Ġvert ical
in du
Ġaffect ed
st one
S et
ĠInd eed
ult y
Ġp owers
Ġsex ual
$ &
ĠR a
Ġspe ech
Ġpattern s
sk y
ĠF und
Ġcall s
Ġvict ory
z en
Ġmod ul
iven ess
u er
ĠT est
ĠJ oe
empt yset
ĠApp endix
Ġoppos ite
M ay
Ã³ n
ĠS ir
at uring
ĠC ivil
g ency
Ġd anger
ĠJew ish
par agraph
Ġb rain
Ġa head
ĠC amb
Ġland s
R el
ĠThe atre
ues day
c ar
Ġded icated
Ġener gies
Ġoffic ials
Ġcre w
196 9
Ġred shift
197 1
Ġre action
o ir
Ġqu ark
s at
}) =
Ġmod ule
Ġsa fe
enn is
our ney
Ġconf irm
ar se
Ġmag azine
u um
ent h
al i
Ġk ids
Ø §
bur gh
fl u
i em
Ġatt end
Ġsampl ing
Ġf alse
t iny
Ġse at
ĠMed ical
ird s
Ġassum ptions
ĠL im
c ut
Ġenc oura
Ġdis pers
Ġst reet
Ġcertain ly
p ost
ĠO F
$ };
Ġb ond
r ative
ĠB a
V D
Ġh our
+ (
}) }
Ġdepart ment
et al
Ġown ed
Ġeconom y
ĠCh ris
De f
st able
e le
un te
Ġun iversity
Ġresid ents
l ist
ric ket
h ow
ĠP rem
ĠM ountain
Ġfind s
ric s
E l
Ġpolitic ian
R ight
Ġcol lected
Ġcont rad
E arly
set s
id ae
Ġdi ver
Ġopt ions
il ation
ug by
A rt
Ġrese arc
Ġ( "
Ġprec isely
M L
Ġex ception
al gebra
ĠPac ific
ad er
Ġnear by
O C
D es
Ġphot o
Ġdra ma
ĠJer sey
Ġ$ .
over s
Ġatt ended
ĠP riv
ink ing
Ġse asons
ĠWil son
nes day
Ġact ress
Ġd ig
Ġp ush
ĠM id
ĠS ong
pt ic
syl vania
Ġcomput ing
^{ *
Ġdes ired
Ġbelie ved
Ġto w
ath an
Ġcomm it
Ġbl ocks
ĠV is
Ġcomp osed
res p
P re
ĠA P
Ġcover age
Ġhe ro
if er
Ġt ick
ou rier
Ġey e
ĠEmp ire
ĠR ay
Ġl abor
rap y
b ot
Ġexper t
Ġtemperature s
agn etic
Ġ ^
ĠU N
Ġcapt ure
ĠQue en
Ġw ish
Ġdiag onal
M P
Ġthan ks
Ġsecond ary
t own
}} .
ep end
ign ed
Ġdiv ided
b ro
Ġspec ifically
medi ate
oth ing
Ġmax imal
h ang
Ġexpl o
och astic
com es
ĠM onday
ĠB ol
on ly
S D
form s
ĠJ es
Ġf ashion
ĠT em
Ġtell s
Ġprot ocol
ill ing
Ġend s
ĠN Y
Ġ\ (\
Ġexplicit ly
a fter
o om
D on
ion e
br as
g r
Ġ ]
ynam ic
Ġcharg es
ad el
P ar
AT E
ĠAb out
in er
Ġ$ ,
Ġcon vent
Ġsequ ences
G u
Ġs ister
Ġrec ording
Ġperform ing
Ġcr ime
ain s
C L
Ġhapp ens
Ġoffic ers
Ġm apping
U N
c oh
Ġarm y
ro sc
Ġs ave
Ġchalleng es
Ġfail ure
}) ^
S m
196 7
Ġsm art
Ġderiv ative
res ults
P art
hen s
O ver
ĠAn other
ĠMus lim
on to
Ġreview s
ĠJack son
Ġre produ
ĠB ul
Ġpart ner
ĠCo ast
de pendent
Ġb order
;\ ;\
ĠG reek
uss ion
Ġmark ed
Ġfa ith
Ġembedd ing
ĠU l
iz abeth
ĠM ajor
B I
eng er
Ġd ie
}} ^{\
Ġto t
Ġaspect s
Ġf resh
Ġsc hed
Ġassign ed
ra q
ĠGeorg ia
ĠM ount
ph one
Ġpolic ies
Ġadminist ration
ris is
Ġsp ort
Ġtre ated
Ġtr ig
ins on
Ġbenef its
ren ew
ĠL ittle
âĢ ¢
Ġprote ction
ĠA R
Ġint ensity
ĠG irl
Ġmom ents
f i
ĠE gypt
Ġent ered
ĠB ell
Ġs end
Ġdef ense
ent ed
ĠB ack
Ġpro min
re ct
ĠW at
h l
19 40
poss ible
or i
ĠJ r
Ġint ended
t rivial
Ġabsol ute
eli hood
ire ct
Ġsim ultane
ĠGl obal
Ġb ed
pend ence
er ry
int eg
25 0
} ~
a ug
ĠMich igan
Ġprodu cer
bre ak
Ġgl ass
En glish
ĠL ight
G L
ĠF ar
ĠJust ice
il ly
ĠO x
Ġhapp y
em ic
Ġsign als
Ġcomput ational
ĠDan iel
Ġenvironment al
Ġphot on
Ġt rivial
Ġfund ing
ol es
Ġd ial
Ġquad r
ĠIn f
Ġelectron ic
Ġtw ice
Ġdi agn
Ġcre ation
Ġent ertain
rop ic
Ġleaders hip
Ġr ig
int on
ĠW in
im ately
id ents
ad s
Ġw el
ge bras
M M
Ġprop ose
ant ly
Ġgrav ity
g al
ig er
Ġconf idence
) }_
ĠAs ian
ortun ately
Ġcateg ories
Ġl iber
erv es
}_{ -
Ġcirc um
Al though
Ġd rum
Ġpat ient
ĠM as
ĠG ar
ĠSe a
Ġnon linear
ĠK ong
Ġveh icles
Ġsatisf ied
Ġfac ilities
iqu id
re ll
Ġsupp ly
Ġs ell
ĠOh io
Ġcont ribut
on ent
E P
Ġbul k
Ġder ive
ĠD un
}$ }
Ġc ert
Ġmax im
ĠB oston
ĠChampions hips
st ep
n am
ĠP ubl
ĠEn ergy
not es
T ra
ĠM ah
Ġiss ued
ĠS oviet
Ġrepe ated
ver b
Ġcount y
ĠInd ust
E nd
Ġexec utive
ino is
Ġtop ological
b et
ĠC at
Ġinteg rated
n n
Ġimplement ed
ĠA st
maz on
ad or
Ġpur poses
II I
19 30
st ract
F orm
Ġbeg ins
Ġemploy ed
Ġtransm ission
ĠC ro
Ġprinc ipal
ust er
on ed
or row
form al
ul se
Ġasympt otic
19 45
sl ash
Ġv ir
in ity
ĠA T
196 4
Ġh ab
ch ar
Ġ ^{
Ġflu id
Ġ( {\
Ġvoc als
z y
Ġt urb
E W
Ġw aves
Ġinvest ment
pl ane
ĠK a
Ġ{ $
t rack
or ney
Ġform at
Ġj et
Ġpolit ics
Ġtransl ation
Ġtalk ing
Ġmat hemat
pl ot
Ġdel iver
Ġindic ated
ib ration
ier arch
Ġbro ken
Ġst ock
p o
math it
ĠPol it
Ġg one
}} =
ĠP op
" >
Ġconst ants
Ġdevelop ing
ĠOr gan
Ġmot or
, ...
ou pl
ĠRepublic an
C are
ĠA sh
Ġorgan ized
ĠG i
Ġrad ial
Ġl ibrary
Ġhypothes is
Ġfor t
multi row
196 5
ĠSt an
p ic
renew command
Ġinvol ve
Ġlarg ely
Ġcor ner
Ġluminos ity
ĠB attle
ĠIn ternet
Ġm ist
Ġd raft
Ġentire ly
ĠS P
ĠH ospital
Ġquant ities
Ġpre par
st ood
act ive
p age
T able
an ta
Pro of
Ġexpl an
te en
er ior
Ġdynam ical
er g
Ġreg ional
G iven
ord an
\ }$,
Ġbal ance
fin ition
Ġgen us
Ġele ctions
ĠW alk
\ }\
ĠA ff
column width
ĠK ent
e per
av ed
ĠC M
Ġmar riage
rim in
A ust
Ġyou th
r ating
Ġcommon ly
Ġestablish ments
c are
Ġcry st
Ġnecess arily
Ġv ariance
inde x
il er
ĠS om
ĠRep ort
Ġserv ing
Ġcred it
Ġgeneral ized
Ġen em
ac ent
s pe
Ġcol on
Ġanc ient
Ġcons ult
l ik
Ġl ens
pl an
ĠL o
Ġc ouncil
Ġth row
Ġcitiz ens
pro cess
Ġanim als
ĠPenn sylvania
/ (
ĠSc iences
Ġbig gest
ĠS i
ĠBe ach
semb le
ĠF our
Ġnot es
ĠPr ince
; "
ic ular
lic k
Ġp ool
os a
Ġf ellow
app ed
Ġmon itor
D R
ph ia
Ġmix ing
& =\
sub sec
ĠSe curity
Ġfl av
A F
is er
figure s
Ġa w
Ġh air
Ġgu ess
ĠF ederal
h ire
Ġhe av
Ġher self
m i
Ġpl as
^{ (\
Ġdec ades
196 6
ĠSecret ary
w ing
form ance
ĠR om
pt y
ĠAs sembly
T wo
Ġvers ions
ĠÂ »
N otes
ve ctor
Ġmay be
v art
Ġr ational
ĠG et
Ġ rom
Ġemploy ees
Ġclos ely
H ence
Ġscient ific
Ġmorph ism
Ġprim arily
ĠĠĠĠĠĠĠĠ ĠĠĠĠĠ
B M
ar ity
ur ations
ĠEx per
u zz
L emma
ĠWe b
ĠL ike
ĠE U
ĠC as
omet ry
ĠS us
ĠProfess or
Ġst uff
Ġviol ence
atur ally
ro g
: =\
Ġst orage
} |\
Ġn et
Ġarriv ed
G o
a ud
Ġinst all
---- ----
ĠB BC
6 00
pt o
ac he
Ġsw itch
p ass
Ġb udget
ĠBro ok
W hy
Ġh idden
ve ct
ĠS et
W ill
Ġcon clusion
Ġf rag
Ġbre aking
Ġins pired
Ġn ice
B ack
ĠStud ies
itz er
Ġdemonstr ate
Ġopin ion
ro vers
ĠE xt
Ġaccept ed
Ġhigh light
Ġcharacter istics
Ġex pos
ĠL ear
^* \
Ġcur vature
Ġpen al
Ġf ant
Ġown er
ibli ography
c ode
Ġrecogn ition
Ġact ors
Ġn ative
ys elf
ĠS pec
ĠEd ward
Ġfeed back
ject ed
ĠP oint
Ġshe ll
Ġw itness
ĠB rad
ĠA uthor
Ġcontroll ed
Ġmagn et
Ġv ision
Ġd oll
Ġeffect ively
ĠBro ad
Ġacadem ic
am ber
ĠT O
et ts
Ġrepresent ing
re hens
ne ver
he ta
ĠL ew
ĠCol or
Ġl anguages
ate ver
P M
ĠTh ree
Ġident ical
ur ance
ĠK im
ĠR h
ĠOb ama
Ġinter face
T C
ĠTh ursday
P Y
w ord
an ced
tikz picture
e lect
Ġsurround ing
Ġessential ly
N ational
ob e
ay a
ĠWh y
Ġsubsequ ent
defin ed
h as
Ġassum ing
Ġcould n
rast ructure
Ġm es
Ġd ance
Ġpie ces
) })
Ġstru gg
Ġa f
ĠR ights
G l
Ġmur der
ĠO bs
Ġsupp ose
Ġsu c
19 20
fin ite
( (
Ġe q
? "
ĠP a
Ġrepresent ative
red uc
Res ults
Ġexcell ent
ĠG iven
Ġclos er
Ġadvan ced
ap es
Ġcan onical
Ġunivers al
the re
Ġquas i
Ġca ref
Ġpract ical
H C
\ |\
ĠRe al
i est
Ġm useum
.... ....
f irst
Ġinter ior
ĠD C
Ġw estern
Ġlabel s
Ġp al
du le
Ġknow s
ĠB oy
Ġ }{
Ġsee ing
Ġex erc
Ġb ridge
Ġcar bon
B ar
ap se
ymmet ric
Ġlow est
v ari
s a
par ison
ĠT uesday
ĠL ast
Ġpass ing
Ä ĩ
Ġcom edy
B i
Ġvers us
Ġcorre ctions
Ġsk y
sl ant
Ġinterpret ation
k ers
Ġsim plic
ĠAg ain
Ġca uses
] (
h igh
Ġpl ants
ĠL ive
P ol
Ġst re
ĠF C
Ġ era
Ġimprove ment
ĠC EO
Ġassoci ation
ĠM P
Ġsub m
Ġt ight
Ġstrateg ies
ip ality
ari os
Ġdri ver
Ġb ench
al so
Ġf ish
at on
Ġmed ian
qu ar
Ġde ploy
ĠA ge
Ġcont est
Ġdeterm in
ĠF air
ĠKore a
An other
Ġn one
Ġte acher
Ġanaly z
Ġun less
ĠW rit
Ġapp eal
ĠP en
Ġcorre ction
Ġun iverse
ĠE astern
00 1
ĠRep resent
Ġmole cular
Ġwin ner
ad ow
fin ed
ĠApp le
Ġagre ed
Ġsup erv
ul er
Ġapproxim ate
ĠIn vest
f riend
S F
Ġout er
Ġ iron
D C
ĠB ang
Ġmatch ing
Ã §
ps on
ĠAmeric ans
Ġd ashed
ĠC R
Ġacqu ired
Ġgirl s
ist ent
Ġintrodu ction
Ġopportun ities
Ġp apers
l oc
Ġstandard s
Ġin sp
ach us
Ġf ell
Ġengine ering
dition al
Ġepis odes
8 00
Ġd ram
o at
Å į
ud den
ĠWed nesday
A ct
ĠE st
ĠGe V
ĠC ase
Ġpers pective
ly wood
un a
Ġdra wn
Ġjob s
D isc
r ite
Ġsuc ceed
Ġfluct uations
Ġpath s
Ġte le
ĠHig gs
Ġabs ence
Ġadv ance
Ġvac uum
Ġsp ac
ĠSt ation
am i
de c
O ut
u z
ren e
a us
ĠBook s
el ly
dition ally
ĠIll inois
olog ist
phant om
Ġdefe ated
d el
Ġa p
Ġdepend ent
Ġgener ic
Ġenh ance
Ġneut ral
at he
Ġport ion
ĠI raq
ov es
Ġf uel
w orld
ĠH un
f ram
ĠV ill
h ard
Ġdecre ase
Ġan om
Ġk in
Ġbund le
Ġf ear
ĠAn y
Ġk ick
Ġexc ited
Ġgu y
u ce
ĠR un
Ġdoc uments
is a
Ĥ ¬
Ġ\ ,\
ĠAd minist
Ġarm s
Ġpl anned
ĠA ud
med skip
u v
Ġoper ated
Com m
Ġequ ality
Ġext ent
Ġtri p
Ġex clud
p et
b ell
Ġreturn s
u ction
ĠUn ivers
Supp ose
Ġprogram ming
Ġfl ag
Ġquant ity
Ġst ochastic
Ġfe aturing
Ġfin ish
Ġf aster
Ġnot ion
Ġb ass
Ġsupport ing
Ġdire ctions
ĠOn ly
g eneral
ĠProv ince
ĠM ult
e ffect
ĠPro du
Ġtra ce
Ġhous ing
ĠB ase
achus etts
Ġsomew hat
ost er
Ġarg uments
Ġgu ide
Ġz one
ĠS C
ĠC orn
Ġhous es
Ġt error
> >
l anguage
ĠHistor ic
fe ction
A p
Ġsup ers
= .
Ġm yself
Ġag greg
Ġ ,\
ĠH ong
ub ble
ipl es
ĠT it
sequ ently
Ġc atal
on ia
Ġgravit ational
Ġwe ather
at us
Ġcoupl ed
vent ure
ric e
O D
ĠEl izabeth
( -\
Ġrail way
ann a
in ction
Ġinj ury
Ġstand s
ĠC A
More over
vart heta
ĠS U
R R
Ġp it
Ġv ideos
ĠCom put
y o
Ġcomp at
ĠLat in
form ed
Ġdemonstr ated
Ġden se
ĠH ard
F l
u ated
ĠSt ory
Ñ Ĥ
Ġse vere
Ġconcer ns
n i
Ġfac ility
ĠP C
\% $
Ġv en
Post ed
not ag
Ġbusiness es
Ġex cess
r ations
og onal
d esc
Ġsupp osed
ĠSte ve
ir ical
down arrow
ra ine
Ġcapt ured
equ ations
Ġkeep ing
Ġc ensus
ĠG R
Ġsens itive
Ġth in
}{ *
em bers
Ġsuccessful ly
lo op
) ^\
and y
Ġv on
$\ \
in stein
ĠSte phen
ĠM aster
Ġsc ores
Ġem ot
Ġsh ips
M on
Ġconsist ing
iss on
ĠF ire
Ġdetect or
Ġsett ings
Ġthous ands
Ġread er
ĠN C
Ġfund s
ĠS at
Ġclass ic
ht ml
Ð ½
Ġsubsequ ently
196 3
Ġs izes
d r
ak i
ĠN on
og ether
ĠPr ime
Ġevalu ated
Ġsat ell
maz ing
enn es
ĠH o
d ney
w ave
$- $
Ġcover ing
ĠC H
ik i
reg ular
E G
196 2
in put
Ġprof iles
Ġw avel
Ġmov es
ĠB C
the less
Ġperturb ation
Ġabsor ption
Ġsecond s
. \\
ĠR ou
ĠH om
}\ |
ĠM ic
ac hers
ul ating
ĠTr ust
Ġc ir
ou the
In ter
ap ed
erv ing
rit ical
X i
par amet
ii i
at iv
d iff
es ides
. ;
Ġm ac
ger y
Ġrem ove
-- -
text up
ĠE u
ĠB on
G eneral
Ġcrow d
are st
back ground
Ġprote in
Ġextens ive
Ġch art
Ġeigen values
Ġwould n
back slash
s es
Ġmanufact ure
Ġserv es
O W
Ġfif th
Ġre ferences
Ġa wards
C al
rang ian
ĠCon ne
ĠS N
Ġreason able
Ġcover s
Ġequival ence
Ġfavor ite
in st
r ants
ĠP R
Ġexpress ions
m ary
Ġsp ring
ak ed
Ġunder stood
ri ff
r ins
us hed
L R
Ġhel ps
Ġdown load
ĠD utch
T op
cal e
on ym
ill ed
Ġrelations hips
Ġpolitic ians
ĠS ab
Ġdes cent
Ġsepar ation
Ġsupp l
\! \
Ġalong side
Ġperiod ic
D av
w orth
Ġpriv acy
t em
out s
Ġext reme
Ġcol le
Ġhot el
O f
ĠJe an
^* (
Ġtri ang
math tt
Ġro les
s ign
Ġfill ed
Ġsh ut
Ġvis ible
ĠD M
ien ced
Ġprofess or
Ġrough ly
e z
Ġb ow
~ (\
ĠAn th
Ġcont ribute
Ġhon or
Ġpa rent
C ar
Ġex ceed
ĠK ar
ĠE s
Ġis ot
ĠB and
Ġacc ident
ĠPort ug
Ġ$\ {\
ĠN a
Ġc as
ĠK enn
ĠC irc
ject ure
th ur
oc cer
B ox
Ġredu ces
se x
oun ger
ĠOx ford
is ot
Ġearn ed
eng ths
A V
le ts
L i
ap ore
Ġph ases
ĠR og
um es
Ġindust rial
J an
n ight
f old
Ġproport ional
Ġs quad
Ġk id
ĠPak istan
Ġcol our
text color
ad ed
ĠGovern or
ul pt
Ġwa it
ĠRe v
Ġat oms
en z
cl ine
Ġgener ating
Ġg rew
Ġparticip ants
ĠEngine ering
ĠOn ce
Ġinstit utions
ord ers
D B
G a
Ġf ra
Ġp ra
ĠColumb ia
B ook
ru ctions
Ġfight ing
ĠM arg
f ound
Ġsub s
ili ar
Ġhold ing
al ing
ir k
iss ions
Ġvari ations
ad i
H T
j ust
ĠSup reme
adel phia
ĠV iet
ec utive
Ġseem ed
Ġem pty
ĠAlex ander
Ġin fer
Ġposs ess
ĠF ox
od ed
Ġ urban
ĠGu ard
Ġst ead
ok es
18 0
H L
Ġdef end
Ġc atch
Ġoccur red
Ġcru cial
rag on
Ġfeel ing
an th
ĠRe ad
ors hip
ĠNe xt
C he
Ġadv oc
ir ty
ĠVictor ia
Un iversity
ĠF ollowing
! \
ĠG ro
neg ative
ĠM ov
wh ite
ver age
Ġele v
10 1
ĠIs lands
up arrow
Ġad vers
ĠCl ark
ĠT al
ask a
eg o
ĠAd am
Ġp erman
EN T
ĠMass achusetts
cond ition
b p
Ġdeg ener
$ ^
cor ollary
Ġapp rec
Ġa thlet
Ñ Ģ
Ġperform ances
re nd
reduc ible
Ġb ran
Ġsc ript
Care er
r ust
ĠB all
ĠIn n
v s
B rit
Ġcho ices
ĠF ood
Ġf lex
n ic
Cons ider
)-- (
Ġdriv en
ĠMin istry
ĠScott ish
H ome
Ġcontinu um
Ġh alo
Al so
v als
Ã ±
' .
ident ial
Un ited
Ġpres ents
Ġl P
ric ts
ĠL ind
ĠFore st
ĠE th
Ġinter mediate
ĠA mazon
196 1
ren cy
Ġcontrol s
Ġtri ple
ĠI V
Ġre ct
Ġpost ed
b ottom
Ġvirt ual
ipp ing
ĠM ethod
em an
Ġtru ly
ol is
Ġupd ated
R em
E qu
Ġmark eting
Ġsold iers
tain ment
Ġan imal
ĠD am
Ġs ale
Ġj ourney
ĠR od
Ġsing les
Ġcon sec
Ġresearc hers
ro b
w art
Ġc art
ĠL abor
ĠAn ton
includ ing
ĠPh ot
Ġtest ed
c ious
Ġrecogn ized
in ate
Ġsp ons
Ġinvol ves
Ġfrequ ently
ĠP ass
om ent
L T
en ant
ant um
194 4
Ġsh o
Ġd x
Ġclub s
ĠU r
ĠB ad
rom e
Ġcomple ment
P D
Ġdomin ant
! ]
ĠInst ead
ĠR en
rel ation
Ġexper iences
Ġscen arios
es ian
Ġnew ly
c s
ĠB ru
id ay
ax is
Ġv ent
bold math
Ġent ries
$. }
ĠL td
Ġg ar
Ġtop ic
p ool
b u
J ust
ĠC reek
ĠW ars
Ġf ib
Ġcirc uit
ĠS ky
Ġdec isions
ĠT oday
ev in
ĠA venue
form ing
Ġperson nel
Ġwor st
osoph y
Ġd ensities
Ġcom fort
ak s
ĠN ever
c i
v o
ons in
Ġf itting
au x
T H
ĠBer lin
r ates
Ġdisc over
cont inu
ĠCorpor ation
Ġpublic ation
circ le
Ġb att
Ġfl ows
et ies
Ġclin ical
ĠM ain
G A
f ast
ar ry
isc onsin
Ġpolar ization
eng ers
Film s
Ġsound s
or ig
Ġfrequ encies
R ed
Ġret ired
Ġoff ering
S w
ĠReg ister
Ġl iquid
ib ilities
ĠMon te
augh t
ĠSupp ose
I ST
ĠT am
he im
edd ing
Ġcons ervation
Ġconfig urations
Ġsens itivity
Ġaud io
Ġconcer ned
ĠS em
abl ed
A g
Ġhistor ic
Ġrespect ive
ĠF ourier
Ġhum ans
ĠW he
Ġprec ision
Ġp ot
ĠPro te
ĠA p
Ġp uls
Ġprep ared
Ġs ession
Ġconj ug
Ġstraight forward
Ġm el
Ġre ward
P op
Ġco al
ĠTor onto
ep ing
Ġn aturally
Ġd og
S um
ĠR os
Ġte aching
ĠN AS
Ġmult ip
Ġcont rovers
ine ar
ĠL og
se cond
cur rent
Ġt ang
ĠPol and
ĠS ep
Ġare n
Ġcall ing
Ġpromin ent
Ġwe alth
Ġmov ies
As sum
W orld
Ġg ate
Ġweek end
Ġelect rons
Ġes cape
W ork
D em
Ġexpand ed
Ġuniform ly
: :
ut ely
ĠChild ren
l arge
ĠH ung
Ġwor se
ĠL uc
B O
st ic
Ġconcent ration
Ġprec ise
Ġacc ret
Ġsur faces
Ġrec ip
op en
force ment
op her
G R
Ġdat abase
Ġag ency
Ġp un
Ġr id
H om
ens or
Ġdiff usion
ĠV ideo
ĠDes pite
Ġrestrict ed
Ġcont emporary
Ġstrong er
ĠS ant
&= &\
Ġtro ub
ain ed
Ġf iction
| ^{
Ġsepar ated
C ref
Ġeas ier
> \
Ġpract ices
or ters
Ġb an
Ġcop ies
lement ary
Ġst ret
p ed
195 8
Ġstand ing
S outh
195 9
Ġm as
rib ed
T A
)} (\
Ġb odies
Ġs ail
Ġsp an
Ġrec over
ĠM ill
Ġn arr
*} [
Ġsystem atic
mod ule
ether lands
195 6
Ġh ierarch
Ġbase ball
Ġest ate
Ġgeomet ric
ĠSan ta
ing ham
Ġsim ilarly
Ġuncertaint ies
âĢ ĭ
Ġdom inated
ĠD ark
Ġthem e
Ġyour self
Ġhand le
Ġadj acent
stack rel
ĠO FF
Ġmodel ing
Ġorb ital
of fe
Ġres ource
ĠInd epend
sy mmet
ĠA k
Ġst atic
ĠTh rough
Ġar ray
ĠN ick
Ġf er
it led
ateg ory
ress ive
A c
Ġcomm ittee
vers ion
foot notes
ook ing
cy cl
Ġattempt s
Ġillust rated
Ġcap able
Ġsol ving
ĠL ater
st ances
ĠH ay
ar ithm
Ġdro pped
Ġb atter
el esc
Ġco oper
Ġpric es
Ġn ull
han ced
inv ariant
Ġl ift
Ġauthor ities
Ġnormal ized
ĠEn vironment
Ġref ers
Ġst ages
ĠV en
point s
Ġwall s
Ġsil ver
Ġinvestig ated
Ġ riv
rep resent
eder ation
ĠJac ob
Ġdec ade
h fill
ĠSy dney
Ġsw im
Ġpl ate
Ġbrief ly
ĠAre a
Ġtro ops
ĠI S
Ġsec ure
Ġanal ys
12 5
Ġeven ing
| $
l s
Ġag ric
194 8
H is
b rane
Ġlet ters
footnotes ize
Ġs udden
Ġcl ick
Ġcharacter ized
Ġmin ister
ĠC all
Ġp ip
Ġsign s
Ġspe aking
Ġm ir
i ot
Ġpotential ly
ag ram
Ġguaran te
ð Ł
_{ +
Ġsche mes
ĠDav is
Ġauthor ity
Ġanaly tic
Ġst ack
Ġb urn
Ġgu ard
script scriptstyle
Ġscen es
Ġnewsp aper
ĠS on
ĠOn t
ĠB an
Ġin clusion
$\ ,
bour ne
$ ^{
Ġl osing
rop ical
Ġquadr atic
e en
rupt ion
ĠD onald
! âĢĿ
Ġc ab
B est
ĠW el
ĠI T
Ġaccount s
Ġimmedi ate
ĠComm on
c ount
ĠBel g
p res
Ġca ught
Ġrece iving
p he
left arrow
Ġspec ified
Ġs ac
ĠM ach
Ġst orm
Ġne ither
Ã ¢
str ong
Ġv ess
195 7
Ġs we
Ġtransfer red
Ġprofess ion
Ġsumm ary
ul ing
12 8
ĠL ady
V i
{ (\
D ist
ĠT ok
Ġprodu ces
y stem
her ical
err ing
) (\
ch ron
N C
Ġsh aring
Ġexper ienced
ĠD igital
Ġhelp ing
ak h
pro pto
u i
Ġal t
Ġmet all
Ġg ender
Ġre ar
u on
Ġc risis
Ġwatch ing
Ġprogram me
ĠJ ordan
Ġb omb
}$ \
Ġalle ged
Ġro ots
ow a
S pec
hed ral
Ġgreat est
Ġ elli
Ġde viation
Ġconstit u
Ġresult ed
Ġneutr ino
ĠB at
ĠG rant
ĠSe ason
erm i
A E
ord on
Ġinterest s
Ġcl ients
Ġm ental
Ġhom es
g reen
Ġpurch ase
B B
op es
ymmet ry
ĠN et
Ġfav our
reg on
Ġsur ve
Ġme re
it o
Ġult imately
19 39
Ġdecre ases
ĠD ar
G M
se p
Ġexpect ation
' _{
- (
er on
Ġform ulation
st ruct
Ġhom ogeneous
Ġr ural
Ġconvent ional
` `
Ġt ack
ĠC ost
Ġstrict ly
ive red
Ġhorizon tal
Ġs an
Ġp ed
ph ys
Ġm ent
194 2
n ol
Ġs and
Ġ _{\
Ġfind ings
Ñ ģ
Ġbas eline
ian g
ĠCount ry
re r
Ġassist ant
} /\
ic ial
sc he
Ġh all
Ġpan els
ag a
Ġc riminal
Ġmetric s
Ġend ing
m al
l ock
}^{ +
ig u
Ġchampions hip
Ġinst ant
Ġphot os
ub b
Ġdist ances
ĠF R
Ġbr ings
ma ke
Ġy ounger
ell o
* \
T R
Ġgu ys
i very
Ġd im
Ge V
Ġvary ing
Ġim possible
Ġdoub t
Ġtit les
ik a
Ġdiagram s
) }.
Ġiter ation
ow ered
Ġsimultane ously
Ġdestroy ed
ĠN umber
U nder
Â °
Ġpoint ed
E V
Ġwin ter
Ġlink ed
t es
or ough
Ġsent ence
Ġw ire
ĠMin nes
Ġst one
rom agnetic
ĠSpr ing
Ġcomm itted
Ġdiscuss ions
Ġjud ge
Ch rist
ynam ics
Ġcollabor ation
ou ri
Ġv otes
ĠOr ig
are t
Ġtrans itions
Ġg ene
ĠHot el
Ġind ices
Ġbound aries
Ġadv ice
ĉĉ Ċ
Ġjust ice
Ġun able
ol i
G et
Ġfl ood
s quare
Ġderiv atives
c ription
M ost
ou red
Ġdispers ion
ort ion
Ġresid ual
ph in
p in
ĠL em
Ġeas tern
Ġsp end
ĠD NA
v y
ĠR aj
Ġwa iting
if est
I ma
Ġneg ot
Ġar ts
C ur
Ġfact s
Ġce rem
Ġvol unte
Ġcomm ut
og ram
H D
Ab out
g ather
c raft
Ġcl ient
ĠMinnes ota
Ġw ins
Ġcomplic ated
Ġsto pped
Ġout come
ã ģ
Ġhy brid
{ .
is or
Ġsol o
ĠĠĠĠĠĠĠĠ ĠĠĠĠĠĠ
u able
Ġcrit eria
U C
195 5
O h
Ġpop ulations
ĠB rand
Ġalgebra ic
tr ue
Ġread ers
] ^
Ġtempor al
Ġchalleng ing
M ark
Ġcorrel ations
e ven
riz ona
ĠD er
Ġh un
Ġcamp us
h ave
Ġs ight
Ġmechanism s
ĠOlymp ic
w as
Ġso le
Ġde fect
Ġl ose
l ers
Ġdo ctor
Ġg all
Ġappro ved
Ġconne ctions
ta ges
ĠSta ff
d f
Ġa ware
Ġresist ance
ab et
er al
ĠR ome
Ġab use
Ġreal ized
Ġident ification
ast y
ĠLew is
ur ity
F ollowing
Aust ral
Ġdeb ate
Ġc odes
PY G
Ġl y
ow ski
Ġf its
Ġmod er
Ġcoll ision
Ġn ob
ĠL ocal
Ġcre ative
ĠTur key
ut r
ĠB udd
Ġg iant
Ġinf rastructure
Ġocc asion
ĠSim ilarly
Ġelect ro
Ġre tail
Ġorient ation
el le
ĠAr gent
Ġmark ets
ĠA ND
Ġqu ery
Ġ ille
or gan
ĠR ose
Ġsk in
Ù Ħ
ĠS D
Ġch a
Ġcomp rehens
ph y
pl es
Ġab and
Ġpropos al
ĠMed icine
194 6
ĠGu ide
par allel
ig a
ixt ure
Ġcon volution
ĠPro b
ĠS ign
in als
ĠC ub
ativ istic
ĠA D
ĠSt adium
194 1
E xt
Ġrapid ly
ĠC ru
Ġint elligence
O V
ĠM att
art ing
cknowled g
ĠN ations
ĠI D
ĠBro ther
id i
Ġarrest ed
iment al
}. }
over set
p resent
Ġannoun ce
writ er
Ġf aces
Ġro ut
P L
Ġwh atever
ĠM iller
Ġstat ements
Ġrestrict ion
Ġrat ios
ar on
{ |
Ġdefin es
ĠH and
Ġm ort
Ġprodu cing
ĠGall ery
Ġf ly
ĠB ridge
un it
ic ian
the w
Ġa id
c ore
Ġs oul
ĠD ra
Ġcustom er
ĠN etherlands
195 2
st ruction
iam ond
\| _
S ports
ĠM L
ant ry
oc racy
y ers
ĠP rim
ĠRail way
id al
ĠVi ew
rins ic
194 3
form er
ĠAl gorithm
per t
Ġch apter
Ġread s
is en
ĠT ype
B R
og y
Ġir reducible
Ġf iles
Ġplas ma
Ġy ellow
ĠComm unic
Ġ !
el ian
Ġregist ered
ĠPol ish
ĠCor ps
Ġsupport s
Ġt ag
ĠPri ze
fe fe
Â ©
Ġweap ons
ok en
Ġb ought
Ġset up
B L
Ġrandom ly
Ġorth ogonal
qu ote
Ġkill ing
ĠSing apore
& &\
$ '
cul es
com b
Ġdom estic
ĠPhil adelphia
Ġperiod s
n m
ĠCamb ridge
ĠOnt ario
cl osed
ĠL ow
Ġtrans verse
A ut
Ġd ry
Ġf old
ul ner
Ġa mazing
red it
ĠG er
V ar
Ġv ice
ur l
Ġhe aring
ĠR ight
Ġhab it
Ġh ockey
ĠL es
=\ {
ĠF inal
bin om
ort he
ĠK now
Ġsc ulpt
194 7
Ġpolynom ials
ivers ary
Ġqu ot
oc ument
Ġit em
Ġfac ilit
Ġv ot
ak ers
Ġautom atically
Ġrob ot
pro duct
F M
F S
Ġtraject ory
n um
Ġf estival
ĠW isconsin
Ġexhib it
Ġl oved
m o
ĠMag azine
Ġprom ote
Ġoffic ially
me an
ar ia
195 4
? ?
Ġgain ed
ĠGold en
Ġdel ivery
ĠC NN
ol ation
Ġaccom pl
ĠH ou
ĠE ric
row s
ĠF act
par ameter
igh th
Ġres c
j pg
Ġra ise
ĠR yan
Ġbring ing
Right arrow
ĠAd d
ĠT ro
ĠColor ado
per ty
Ġcolumn s
\, {\
S ing
Ġtop ology
M c
d ensity
ĠP age
od ge
Ġreconst ruction
Ġaff ili
se ason
ĠM C
ad ers
Ġtot ally
Ġst abil
s ince
Ġc ro
Ġan tic
ĠLag rangian
ĠO cean
fin al
ĠRe volution
ens es
Ġa wa
Ġview ed
ĠEx ecutive
g ets
f fered
cl ip
Ġ$ ^{
ze ch
ĠCh all
ĠSupp ort
Ġcol ors
i pe
( $
Ġy ards
M usic
Ġmin ute
on ents
Ġdel ivered
ĠKore an
coh ol
Ġbo ost
ĠBe fore
pr ise
im its
ag en
d on
quar ters
Ġen able
ĠD ue
Ġform ul
Ġlik elihood
Ġconcer n
Ġ\ |\
ly n
ĠC ook
}) ^{
Ġtarg ets
ĠReg ion
Brit ish
Ġreg ression
Ġf iber
Ġdi verse
Ġser ver
V al
ur g
com put
cre en
Ġwin ners
ĠG ree
Ġaccom mod
Ġpil ot
en ance
ĠM S
ĠMal ays
ĠI d
Ġopp osed
osp it
Ġdefin itions
Ġdomain s
w atch
per ial
w hen
T E
Ġun iqu
k h
ĠN S
Ġcross ing
Ġrac es
Ġpref e
Ġweight ed
Ġpack age
Ġ( +
con duct
Ġtw enty
Com p
Ġ\ [
m ad
in it
ĠDe ad
) _{\
Ġsh ares
Ġcompar able
ĠW inter
Ġanaly ze
ĠT erm
ĠT ai
O b
Ġrequire ment
195 3
Ġmon ot
Ġrelig ion
Cl ass
anche ster
ĠT urn
Ġad ult
Ġfam iliar
Ġpart ially
Ġdefin itely
Ġw ing
Ġdec ide
Ġgener ator
Ġw ww
Ġen semble
194 9
ĠOn line
Ġsp here
ĠK at
ĠF ac
enn a
Ġconven ient
aw n
D is
Ġvis ited
ĠH art
ph ot
ĠR oss
Ġat omic
Ġse ats
B H
ĠQue ens
Ġexpos ure
Ġhost ed
Ġsymbol s
M T
h av
l ink
int s
viron ments
Ġexec ution
ile y
Ġ ~\
Ġra in
Ġfound er
iem ann
Ġac id
y ard
E very
Ġsee k
ĠU V
ĠM A
ĠHar ry
Ġoppos ition
Ġb ath
ĠCor ollary
Ġhor se
Ġexplan ation
ĠG ener
D r
ĠW atch
ed ing
small skip
Ġstudy ing
Ġfootball er
Ġprov ince
ĠAG N
Ġindu ction
Ġin tern
Ġtechn ologies
gra de
Ð¾ Ð
Ġatmosp here
Ġloss es
ĠB rian
Ġaccret ion
p ower
res pect
Ġsub space
st s
Ġshoot ing
B E
Ġreson ance
in ating
Ġcomp ens
Ġin ternet
Ġm ob
a ire
Ġ\ {\
offe e
w ill
Ġlist en
Ġneigh b
Ġexpl os
ĠWind ows
195 1
+ +
à ¥
Ġc ash
Ġch ampion
ĠMar sh
Ġsol ved
Ġisol ated
Ġsim ulated
ĠMe an
Ġferm ion
ers et
Ġrespons ibility
ĠD ream
w eg
ag ues
c ross
Ġm m
ir ation
ĠD aily
Ġproper ly
Ġprote cted
oc ated
y al
Ġa ug
p red
Ġnot able
h ou
Ġs now
che stra
ĠL oren
Ġsl ope
part icle
! "
ĠM oh
Ġinst ances
off s
ĠS to
Ġh ur
p es
Ġstruct ural
Ġbelong s
Ġm outh
Ġtransform ations
Ġn av
Ġdisc overy
ĠAnd erson
um a
Ġhol es
Ġsubject s
p ace
ic ide
Ġm ask
Ġg ather
Ġl aser
Ġbench mark
olit an
ĠT a
ri or
ear ing
ĠF ord
) [
ane ous
i ability
Ġstri ke
et ary
U p
Ġsh arp
Ġhundred s
ĠS af
le te
ennes see
Ġ- --
gra v
ĠEnter tainment
ĠCon f
Y ear
Ġc oun
u f
mult line
ific ial
Å ¡
ĠA h
. $$
ĉ Ġ
Ġt aught
oc y
Ġappear ances
Ġpurch ased
T ube
Ġimp ly
Ġslow ly
ĠInd ones
Ġ //
d ire
Ġpar l
Ġsimplic ity
Ġre act
Ġgu est
us cript
Ġsu ffered
Ġdescrib ing
ĠCap tain
Ġworld wide
um ps
ound ed
Ġsu it
Ġinc red
Ġneigh bour
Ġinstit ution
angle ment
Ġsurpr ising
Ġc ub
Ġextract ed
iam i
cor respond
Ġch ose
Se cond
Ġconsec utive
Ġphot ons
Ġupd ates
Ġprom oted
ĠW here
ĠN FL
Ġdecl ared
D i
ĠO regon
Ġdis pl
var rho
Ġm al
W ell
Ġprom pt
m f
Ġcompar ing
Ġsit uations
enc ing
ĠH ur
per or
Ã¡ n
st at
Ġord inary
ual ity
Ġh ist
Ġdefe at
Ġrestaur ant
H er
Ġmusic ians
ĠI P
Ġinstrum ent
M F
r g
im p
D T
ĠP A
I d
Ġt urning
be red
ĠÂ ·
Ġpresent ation
Ġhon est
Ġsch olar
Ġre new
ĠUk raine
ĠH ilbert
e h
Ġconcer t
) }$.
ra ge
Ġt on
^+ $
Ġte en
Ġch iral
Ġse es
ĠC ond
Ġequ ipped
text sf
ĠF ull
Ġkin etic
ig rants
Ġredu cing
B bb
ĠDu ke
th rough
ĠHol lywood
Ch ar
ĠPl aces
Ġret ire
Ġterrit ory
ĠAtl antic
ta ke
ov al
ĠSur vey
ĠH an
Ġ> >
az a
ud i
ĠB uilding
ce ived
S up
Ġf at
om er
ĠP ers
ĠPal est
ĠAl f
Ġincreasing ly
Ġreg ul
ic ation
Ġb are
Ġpass ion
Ġreach ing
Ġe at
Ġrec overy
Ġexplain s
Ġpass es
ĠIn it
Ġb ars
}{ {\
cl os
13 0
a is
Ġrank ed
Ġal gebras
ĠK al
mid rule
\ }.
Ġinde pendence
her ic
M in
ĠO t
ĠCast le
Ġh ang
Ġman age
Ġpre ced
ĠSim on
opy right
d oor
ĠSh ort
v ard
ass um
Ġp ray
T ime
Ġatta ched
P ublic
ph ase
Ġman ip
con f
Big g
at as
ĠLe on
Ġpro position
ar ma
ĠD om
u y
ĠCont rol
Ġh aven
as p
Ġd ip
big cup
ĠP it
Ap J
du ate
ir th
19 36
ow ed
Ġexp ensive
Ġver ify
Be cause
ism s
Ġappl ies
ĠT ony
ch ing
function s
ĠS n
In ternational
D ata
Ġput ting
C ent
" |
ment ation
Ġexper ts
L ast
Ġre in
ĠG ib
P olit
ck er
Ġindependent ly
Ġm eta
sub equations
St ar
ĠS ound
ĠQ CD
Ġf ol
ĠS av
er ion
ĠSwed en
od cast
Ġinter vals
ĠD or
Ġv ast
ĠM it
Ġre form
prob lem
H O
Ġoper ate
Ġsh op
Ġc ricket
ĠC ab
Ġsimilar ity
Ġ{ $\
ĠTrans port
Ġscient ists
Ġgrant ed
Ġwhe never
st ructure
Ġbl ow
p op
Ġd iversity
R C
Pro position
Ġconsider ation
Ġc yl
ĠJ ane
ĠMicro soft
ag an
G E
Ġt um
ĠP lease
e ah
Dav id
ĠE dition
W est
Ġsign ature
Ġ{ };
ĠChe m
or ous
Ġv o
Ġwill ing
ce il
Ġabund ance
ĠJes us
ask et
T T
Ġca using
ĠPrem ier
ĠS O
ĠPr inc
ĠP y
Ġg od
gh an
ĠG h
ĠH D
k ish
H ar
Ġask ing
Ġrepl acing
el lect
st ring
ri ers
ip art
ĠDis ney
ĠM ilitary
Ġcounter part
ist ant
ĠI mm
ĠA mb
ã ĥ
ra ce
@ {
ron ze
ast s
ok ing
it chen
}^ +
em et
Ġdocument ary
Ġexhib ition
ĠHe art
Ġre nd
f ull
Ġhe ter
Ġro of
Ġbro ke
Ġheav ily
Ġabsol utely
ĠMark et
Ġin ference
or b
ograp her
Ġh its
Ġmat ters
d ifferent
ĠS her
Ġmess ages
def n
Ġcoupl ings
ut s
iss ue
Ġfac ulty
els on
ĠSt ock
inem a
Ġc reat
Ġcut s
Ġpseud o
}[ !
s pecial
Ġst im
pl ate
ch ain
pl om
rack et
p ur
Re ad
P o
Ġdesign s
l ights
Se c
ĠDe ath
Ġclass ified
16 0
Ġc raft
\ },
ĠN az
ect or
Ġdanger ous
ĠJew s
_{ -\
ip ation
ĠPhilipp ines
ĠA ction
ot ype
ĠC hen
ĠEn t
ic ians
Ġemp irical
as i
Ġre tain
comple te
Ġgood s
Ġl ists
ym ph
ĠM ember
Ġdefin ing
U K
ens ed
ĠOffic ial
,... ,
k ern
Ġv eter
ĠA rizona
Ġeduc ational
ĠCons ider
Ġre volution
Ġcomb at
M embers
Ġturb ul
ĠE P
ĠSt one
Ġse ed
Ġle ct
Ġr ide
Ġdisplay ed
vent h
sp in
Ġsc oring
Ġpercent age
Ġeigen value
ĠAff airs
st ery
Ġstation ary
Ġst ores
ch a
Ġcosm ological
ĠC P
ĠFore ign
Ġair port
Ġen vironments
ĠAn alysis
Ġbo ys
E X
ex per
ĠEq s
Ġout l
ĠEqu ation
Ġconcept s
Ġwas te
}} ,\
_{ [
ĠJ am
at ics
Ġaff ord
h ot
ĠR oy
oci ation
Ġfe els
Ġ ram
n ie
Ġpro spect
Ġloc k
Ġarg ued
ĠA L
Ġapparent ly
Ġren ormal
ĠO s
A ug
ĠMar ia
conne cted
Ġreve als
Ġ Å
f ont
Ġp ulse
Ġtal ks
ĠLab our
ĠMem orial
is ition
new s
: #
ĠAdminist ration
Ġadminist rative
and ra
19 38
ĠMod ern
Ġconsum ption
leq slant
est abl
p rec
Ġn an
Ġexp at
Ġshe l
ub er
Ġret urning
Ġass ert
ĠSystem s
M at
s ource
Ġl es
ĠAm ong
ĠK ansas
ĠM un
be c
Ġhard ware
Ġep och
Re f
M ich
Ġpost s
Ġadapt ed
Ġsett lement
ĠCo oper
Further more
ĠK evin
is ode
Ġm ine
Ġprot est
ura ble
Ġphot ograph
Ġfall s
Ġregard ed
Ġm and
Ġleg end
Ġamount s
19 18
ut enant
Ġpix el
ĠJ oh
ĠT H
al ities
Ġb aby
Ġins ert
res ult
f ortunately
ist ence
Ġstead y
Ġang les
se m
u h
K e
ĠDo ctor
Ġsched uled
ĠB arn
Ġret rie
az e
Ġre vers
ed u
Ġm il
ĠL iter
ĠH op
ĠG un
Ġprem ie
ĠA z
7 00
Ġpaint ing
Ġdrug s
Ġ\ }
Ġdistingu ish
Ġin hab
St ud
Ġf ab
ĠP ur
ĠC art
Ġdri vers
% .
ĠRes ults
bet ween
Ġst ick
pro te
ar ial
ĠF arm
Ph ys
ĠĠĠĠĠĠĠĠĠĠĠĠĠĠĠĠ ĠĠĠ
st ates
Ġfe as
Ġtown s
Ġp ictures
aw are
Ġcompat ible
Ġb ott
Ġpartners hip
Ã £
ĠSwed ish
Ġconcer ning
Ġindic ating
Ġreal istic
ĠA thlet
Ġan not
oc a
. âĢĻ
pro v
aw ay
Ġgener ators
w ich
Ġorb its
Ġembedd ed
Ġdis put
}) =\
un es
sh ips
ĠF riend
c over
O ct
R S
Ġmod ules
ĠMar c
id en
emet ery
ĠS quare
ĠM ir
Ġvisit ors
ili ary
or ry
Ġh a
st an
ang a
Ġe c
Ġth read
ĠOffic er
Ġsche dule
ĠM rs
ĠH al
ĠF all
Ġcoll apse
alax y
ĠN ig
Ġappear ing
ĠB ab
ind s
Ġon going
Ġguaran tee
ess ions
R I
Ġacc ord
Ġext ends
spec ific
Ġm it
Ġpost erior
ĠM oon
nol imits
Ġsatell ite
Ġf itted
u j
Ġn a
f ol
| _{\
ĠT an
) &
Bl ack
Ġte achers
) }$,
ic ate
w t
rep rene
Ġins urance
H igh
d ra
Ġv ulner
Ġvictim s
ĠAg ency
âĢĻ .
Ġexerc ise
arg et
col n
Ġsignific ance
Ġhead s
10 5
ĠĠĠĠĠĠĠĠĠĠĠĠĠĠĠĠĠĠĠĠĠĠĠĠĠĠĠĠĠĠĠĠ ĠĠĠĠĠĠĠĠĠĠĠĠĠĠĠĠĠĠĠĠĠĠĠĠĠĠĠĠĠĠĠĠ
ĠA I
G S
ĠF ermi
Ġarg ue
P res
Ġd ress
ĠCom ple
appro xim
new line
cl ide
ĠP ier
Ġcorpor ate
Ġreconst ruct
Ġsee king
Ġdep ict
c ers
ator ial
}{* }{
19 37
P at
;\ ;
Ġwalk ing
Ġm ount
d ash
Ġcan cell
Ġbo at
at in
ĠIndian a
Ġgeneral ization
ĠAr thur
g ot
12 3
ĠR E
Ġtal ent
Ġassess ment
w ho
Ġmiss ed
Ġcon formal
inde pendent
v ia
Ġout comes
Ġclust ering
Ġlands cape
Ġcon crete
ut her
roll ed
ï ¿
ĠHol y
Ġnov els
Ġh al
text normal
G en
p ie
n umber
Ġpresident ial
ĠC ulture
Ġclos ure
B el
ur ches
\ [\
ĠAd ditionally
Ġs elling
at ivity
ĠB ox
Ġcirc ular
olog ists
ĠV in
ĠTra ining
Ġstre ets
qu es
ĠU se
Ġcon verted
Ġge odes
Ġen hanced
ĠK ey
Ġd uration
ĠCh annel
Ġobvious ly
ĠTh ough
n t
Ġemer gency
Ġprinc iples
Ġunit ary
Ġgradu ated
Ġtop ics
ann er
ĠÂ ©
Ġenjoy ed
ĠB rig
Ġdecre asing
Ġcondition al
Ġinput s
Ġp iano
w all
Be fore
ro ke
Ġfew er
âĢĻ ,
\ }_{
H A
Ġim aging
3 60
}\ ;
ĠStand ard
Ġmunic ipality
Ġaim s
Ġad ults
enn y
Ġconsequ ences
Ġw arn
ĠM anchester
Ġenem y
l m
Ġlog arithm
Ġis omorphic
it le
ĠF uture
19 00
il st
p ress
Ġ ?
Ġdif fer
D ep
th ick
Ġfram es
Ġun us
Ġl it
ĠC C
mod els
Ã© e
Ġcir cles
Ġar ise
Ġparticip ate
et he
Ġthe atre
Ġsp ending
Ġne arest
w ick
Ġsmall est
Ġconvers ation
N on
k ov
] =
} >
ĠR oll
Ġcho osing
Mod el
Ġcomprehens ive
Ġrac ing
ra ise
H am
d em
Ġcompet itive
Ġtra v
ĠSen ior
clide an
ï¿ ½
on om
Ġprov en
ath y
Ġfor get
ĠIsra eli
aint enance
Ġpl ots
ĠPat rick
in cess
in ch
vious ly
Ġpl otted
Ġy es
ĠK han
he rence
Ġs ad
Ġst ood
l ation
h or
ĠMiss ouri
Ġs oci
ro it
ĠAn ne
fra red
Ġampl itudes
Ġp ump
Ġd il
Ġrel iable
Y es
ĠN GC
Pl ay
ĠPh oto
ĠHou ston
' $.
ĠT ennessee
hen tic
Ġlabel ed
N orth
Ġb anks
ab ama
ĠO ak
un ing
ĠM D
Ġparl iament
IN E
ĠI ss
Ġassist ance
ĠF a
m oment
ĠN orm
Ġste el
Ġcarry ing
Ġelement ary
Ġperman ent
M ult
an es
Ġparticip ated
Ġsp oke
Ġref lection
Ġre cept
paramet ers
Ġat om
Ġcomp ris
l ower
Ġreport ing
N E
}{ }
Ġsc ope
Ġoccup ied
ren ess
Ġhousehold s
14 0
Ġgrow n
ĠP ot
ĠAl ice
ell s
Ġd ates
Ġmechan ical
Ġs ought
Ġp itch
Ġprob abilities
ĠY es
ma king
Ġde pos
Ġproced ures
o is
ou stic
19 35
ribut es
osc ow
ann y
V ID
ich ol
ĠAnth ony
Ġst ored
Rec all
Ġneut ron
Ġf aced
Ġdi ameter
Ġjournal ist
Ġfor th
Ġjo ining
ĠAll en
y les
ra ys
im m
ĠJ ay
Ġcons ervative
Ġfl o
j u
ous es
Ġre plic
Ġrese mb
ĠW as
Ġcent ers
ab ove
outhe ast
) >
l arg
ĠB ishop
ĠEx pl
Ġre aches
Ġneg lig
ch or
not in
gress ive
ĠL ib
Ġv ocal
Ġengine er
} ~\
M r
Ġas sets
Ġmunic ipal
ĠG ab
ĠSc ient
ĠPl ace
rest ling
^* _
mer ce
Ġsh r
Ġfair ly
Ġtra ins
ma gn
Ġf lying
Ġcontrad iction
tern oon
ĠP ut
itzer land
rosc opic
Ġla ugh
\| ^
ĠYou Tube
ĠT en
ar o
ĠCon stitution
per iod
Ġne ur
Ġconver ges
Ġtit led
Ġlist ing
ĠA C
Ġaccess ible
M any
Ġarriv al
igen ous
c oll
Ġcompet ed
E ach
K S
Ġcomplet ion
Ġcr ash
Ġacc used
v ens
( [
ort ed
Ġan isot
Ġcool ing
Ġsus pect
ER S
Ġsubstant ial
v dots
Ġthough ts
Ġlic ense
ĠN atural
ĠDi rac
F P
m ethod
W omen
AT ION
Ġlo an
$ }}
f r
Ġsub section
ist a
U psilon
Ġf asc
Ġfound ation
\, ,
Ġcap tain
s i
P ersonal
Ġsub sc
G P
ĠI r
m ic
ĠCl inton
ĠCl in
Ġd war
ĠDe finition
rop olitan
ĠG reg
ot he
)= (
writ ten
ĠMark ov
b ow
t b
Ġcorrespond ence
u in
ĠIslam ic
R et
Ġinst alled
is ations
Ġbre ath
b es
Ġf ul
al ed
- >
\ /
Ġdis cret
Å Ĥ
Ġun cle
ĠH as
cy cle
Will iam
Ġro yal
cite alt
Ġk il
Ġsp herical
ure au
. }\
t ically
Ġcont ributed
ĠF ellow
Ġpro ud
gl as
R L
ĠC ode
ĠHar ris
pl us
Ġt elling
Ġint ent
Ġequ ally
11 1
Ġcommunic ations
fl oat
Ġar rive
19 17
Ġpers ons
Ġb rown
Ġrec ur
ĠF er
th an
Ġphenomen on
Ġharm onic
Ġre venue
Ġco herent
Ġcollect ive
ĠDi ego
a uthor
Ġval uable
D I
Ġcook ies
Ġde vi
Ġk inem
Ġbig ger
Ġag encies
Ġdec or
Ġacc um
i ac
Ġestim ator
Ġc av
ĠA ccess
ĠPo isson
h r
ĠLear ning
}_{ {\
Ġt all
ĠViet nam
Ġro oms
ĠNor way
d am
all as
ĠLeg isl
ĠF ront
Ġlog ic
weg ian
Ġsle ep
Ġtra il
f ront
ĠĠ čĊ
se a
ĠS ri
Ġentertain ment
d ashed
B P
Ġre ly
le arning
J u
Ġaccom pan
Ġent itled
sh op
it i
Ã ¸
at ta
Ġcount s
ĠM and
A f
Ġdef ault
Ġattempt ed
Ġpropag ation
ĠU pd
Ġexam ine
Ġtow er
ĠI owa
ĠTh ird
Ġrang es
ut t
Ġrespons es
Ġh am
el and
um in
ĠC ra
Ġqu iet
Ġpenal ty
int end
ch arge
ĠB ry
ĠMo ore
ĠSar ah
Ġph r
ĠB ush
W here
}} =\
Ġprob e
$ _{\
Ġspac etime
Ġspl itting
ĠSo ft
Ġplatform s
Ġform ing
est ion
ĠS port
re tt
old s
ĠG ard
Ġa ux
ER T
Ġwe ar
Ġsurpr ise
New s
B r
Ġadvert ising
Ġlegisl ation
Ġinterpret ed
l ie
ĠSil ver
ma g
Ġform ally
d riv
Ġd t
19 14
ist ically
P aul
m ode
un ning
Ġsepar ately
ubl ished
Ġinv ited
l oss
Ġ ..
Ġtrack ing
Ġhealth y
Ġvac c
ĠS ix
Ġa cknowled
Ġinfl ation
ĠV ice
ash i
Ġfem ales
ĠI mp
ĠP S
ĠP rom
ĠTh ose
athe red
bel ow
ra it
ĠReg ional
1 12
Ġcircum stances
ĠDe ep
Ġreplace ment
E ven
ĠT ake
Ġfil ed
ard o
ĠP ay
b ian
M ax
ĠRou te
O O
Ġwhe el
ĠArch itect
Ġpeak s
Ġaver aged
ĠMel bourne
Ġadm its
rac le
ov en
ik h
L ong
L M
el ve
= -\
19 33
Ġb at
Ġab stract
ex pected
& $
G reen
ĠR on
ĠS ite
Ġanaly tical
ĠM iami
iz z
An y
Ġref used
Ġb ary
b c
ĠR iemann
Ġimprove ments
Ġapplic able
ĠR ab
Ġanalyz ed
ors es
Ġwavel ength
Ġbrother s
ĠE c
eg as
Ġkind s
F i
J o
ĠSc he
ĠPriv acy
own ed
ĠGree ce
Ġconclud ed
const ra
ut ies
ah oma
ĠSy ria
b olic
oid al
ob by
f il
ĠC e
ĠE mer
Ġrecomm ended
Î ±
Ġdec ays
Ġt rib
Ġadapt ation
ĠReg iment
19 34
val ued
ĠF ederation
over ty
idel ines
. [
l u
Ġcon e
Ġhydro gen
ĠB urn
Ġe gg
Ph il
achel or
Ġr ating
ĠB att
R T
Ġvan ishes
st ers
Ġch air
Ġlaw yer
M D
det erm
. (\
Ġmaintain ed
Ã£ o
Ġs itting
Ġdes ire
19 19
E A
i Äĩ
Ġb id
per turb
om ot
ĠR ic
Ð º
Ġg ift
ester day
Ġcon vention
Ġtri angle
Ġmanag ers
est yle
| =
rac ks
ĠHigh way
th ree
19 29
ĠD VD
Ġman uscript
Ġint rinsic
Ġev il
r ator
on i
ĠP DF
Ġmathemat ical
Ġmonitor ing
ig ious
ĠStr ateg
Ġcy cles
ĠC zech
Ex per
Ġd uty
Ġsur gery
ĠF il
Ġdeb t
cent ly
ol y
Ġf olk
ĠMat thew
Ġperform s
Ġgovern or
Ġcov ariance
ĠT reat
Ġinj ured
ĠComm and
etail s
Ġreal ize
Ġob lig
Ġinstrum ents
R ad
Ġw ine
Ġexpl oration
ĠY outh
Ġeng aged
che ll
n an
oy d
' )$
ĠDemocr ats
in ian
Ġf ranch
am an
ĠMar ine
ffic ial
l b
Ġport ray
C ast
D esc
Ġb row
p otential
elesc ope
} <
Ġmarg inal
ĠT y
Ġtri es
Ġpoet ry
ĠH um
Ġfac ing
Ġpro sec
19 10
od a
h skip
A dd
is ons
es is
Ph oto
Ġh o
Ġpick ed
Ä į
Ġconnect ing
ocr atic
Ġdis order
lic ation
M en
Ġbran ches
ish ment
b ase
G r
the ory
ĠMary land
Ġcompl aint
tri angle
U M
p ack
w estern
kl ahoma
Ġcl ock
( {
Ġs in
ĠL yn
W rit
sh ort
ĠLa ure
st ance
Ġcoll isions
Ġwel come
Ġdisc rimin
Ġsens or
ĠJun ior
hy thm
Ġch ap
Ġtraject ories
Ġus age
Ġc ards
w en
ma kers
Ar ch
ĠAr k
ĠB h
Ġins ight
lik ely
pro fit
Ġb irds
ĠWh it
ĠAl i
phin x
}} )$
Ġre fe
19 28
T rack
ot yp
re ement
Ġgun s
arg o
ĠCh ap
er ver
Ġregular ly
Ġal cohol
int ro
Ġthe rapy
Ġ ðŁ
ĠS ho
app y
or us
ĠHow ard
Ġdifficult y
B D
Ġemot ional
ĠE arl
ic i
Ġinter ference
ubl in
Ġsym pt
Ġbur ied
Ġexcit ing
ren a
Ġh at
Ġf ruit
. '
h us
Ġdis joint
ĠCol lection
id ance
Ġinteg ers
Ġbeaut y
ST ATE
Ġsix th
em b
p y
H M
ol o
Ġcom ic
ĠB os
ank a
L ife
Ġin hib
place ment
ĠCap ital
Ġag ed
ĠA S
V ol
Ġproject ive
Ġdis miss
du al
E s
Ġin g
Ġmole cules
Ġdraw ing
ĠW a
ĠEconom ic
Ġprefer red
Ġ à¤
A pr
ĠD ave
y es
ĠN ob
" :
| _
oun ced
p erson
or ient
Ġh ate
E m
Ġa er
Ġmed icine
Ġdesc ript
al ion
Ġent anglement
Ġv oted
10 2
Ġrow s
ic ious
Ġfun ctor
ĠF A
Ġme ets
st ead
f a
Ġla id
Ġconsist ency
ur i
ĠM i
ĠMex ican
Ġnormal ization
Ġsett led
ĠB ased
ã Ĥ
Ġkn ock
er as
l av
re v
im ages
ri p
Ġmag ic
Ġen ables
ĠR at
19 32
Ġdesign ated
G erman
Ġj un
ĠStud y
qu ir
ĠCarl o
ig m
or ne
J apan
f all
ĠN av
rid ges
Ġgreat ly
ĠR ick
) |\
ĠC ape
ĠH erm
ĠCol on
g iven
Ġb on
Ġco aches
tri ang
ĠB ah
ĠDef ense
Ġille gal
Ġag es
G s
ĠM ess
ry st
Ġgra de
Ġdist ricts
Ġdeal ing
ĠBl og
t ree
' }\
Ġpar ish
Ġactiv ation
Ġpre gn
end a
Ġdep icted
ist ing
ĠS quad
Ġwrit es
Ġhelp ful
ĠAl abama
ĠTok yo
Ġent ity
Ġmach ines
per ties
ĠHaw ai
R ober
in th
ho le
Ġle af
ĠCh ile
v skip
Ġf usion
Ġsurv ival
B s
. },
ot te
Ġp ron
Ġo cean
Ġshort ly
F rench
ĠW olf
Ġr ugby
Ġaddress ed
id ation
A cknowledg
Big l
Ġoff ices
Ġoverl ap
Ġiter ations
Ġtr unc
Ġenc oun
Ġconstit ution
m ay
Ġl ots
is ks
Ġut ility
Ġ ×
im age
ĠO p
le e
) ).
Ġc od
Ġconsum er
id ity
ourn als
Ġveloc ities
Ġanalog ous
Ġch airman
Ġinv ent
ĠD ick
Ġillust rate
B N
C a
Ġintrodu cing
Ġref uge
ent ric
c ard
Ġdri ft
ĠLin coln
st ud
Ġpure ly
ĠUn iverse
Ġaff ine
Ġimpro ving
Ġm ic
ĠAf ghan
ĠSw itzerland
Ġperturb ations
ĠM oscow
% ,
25 6
ĠD a
ĠD omin
Ġcompos er
' $,
Ġwind ows
Ġpar ad
ĠCh ang
ĠBow l
O U
Ġmanufact uring
l an
ellect ual
19 22
Ġb ag
Ġroad s
Ġsch ol
Ġman ifest
L eg
Ġbelie f
Ġcorrel ated
Ġco hom
Ġlat ent
Ġconvers ion
g i
Ġpull ed
Ġocc as
je ctions
Ġsuper ior
Ġattack ed
re z
ĠW W
ĠE arly
ari ous
Big r
fin ement
Ġsegment ation
Ġinflu enced
ĠL A
Ġfore cast
ĠC T
ĠAnd roid
g ood
ĠNew ton
bl ock
sub stack
M a
ĠM ove
Ġg arden
Ġsu ffic
raz y
Ġcomb inations
Ġg ro
el ines
Ġbatter y
Ġaf ternoon
Ġsubset s
Ġprov es
3 50
}) _{
Ġorder ing
ig e
Ġgrow s
P N
v able
à ¸
Ġun like
sy m
Ġcompet e
Ġour selves
chang ed
b oth
19 31
ĠBar on
A re
Ġb oot
erv ised
Ġprom otion
Ġass ault
Ġp ole
Ġvol tage
Ġold est
ĠW ol
Ġex posed
ĠR ub
EE E
Ġperfect ly
ĠA N
)} =
Ġtri als
Ġsynthe tic
Ġmembers hip
b at
ĠR y
V I
ĠH ans
Ġseg ments
Ġinst ability
Ġmill ions
ĠPh ill
B F
i at
ĠE uro
ren ces
d ale
mathbb m
__ __
ĠTra de
Ġansw ers
ĠMic hel
Ġproject ed
Ġo x
r in
we alth
ĠK elly
center line
ĠExp ress
Ġmin ing
19 27
ers ion
Ġ$ [\
Ġm o
Ġful fill
ĠL as
Ġimag ine
Ġdi plom
19 24
Ġve get
Ġchain s
ĠS S
Ġra w
Ġcryst al
Ä ±
Ġbe ach
d z
f requ
Ġal ter
Ġcerem ony
T ags
Vi ew
'' ,
Ġm ixture
b ib
ov ation
Ġly rics
ĠVill age
ather ine
ĠMed al
rib le
Ġaut o
Ġpl enty
} &\
H y
Ġrem ote
Ġ ĉ
Ġb its
ĠTe ch
Ã º
ĠCh o
R ich
{ [
ĠRober ts
ul ous
Ġun stable
ser ies
ĠH ug
ĠTem ple
Ġdeterm ination
D en
Ġev ident
on omy
ĠSt ill
en um
p mb
ur is
Ġse ar
ĠG ordon
Ġcent ered
Ġcour ses
Ġst range
r c
ĠWith out
if ting
10 4
Ġent ering
ĠE ag
ĠP ack
iz able
comple x
ta h
Ġacceler ation
ĠAl bert
display math
ĠL am
ĠG arden
s phinx
Ġvot ers
ject s
Ġs weet
ill ery
Ġterm in
j k
ĠD E
Ġdeterm ines
lem an
] ^{
âĢ¦ .
Ġwonder ful
ost ic
Ġte ach
Ġconstra ined
Ġcrit erion
ĠE instein
Ġlif etime
Ġcomb ining
}}\ ,
ĠM ars
de p
Ġdist urb
Ġv oting
ĠP as
ĠJ ason
art icle
Ġcre ates
ĠMor gan
Ġcrit ics
ĠWalk er
ĠK o
ĠMalays ia
indu ced
Ġsk et
ĠTra vel
it ro
et ry
Ġun ity
Ġhor ror
le ments
let ter
ĠG ram
Ġtun nel
ĠK am
M ain
Ġadd s
Ġanc est
â Ĥ¬
ĠG ene
iv a
Ġthous and
man ifold
Ġcl ar
Ġhost s
ĠHer itage
we ak
L D
Ġb inding
ĠIn s
le ton
Ġs av
Ġdoll ars
Ġpublic ations
ĠT ax
ĠS F
Ġre verse
Ġrec overed
Ġoff ensive
Ġanom al
Ġwat ers
P E
Ġgen etic
it is
our se
ĠP ed
b t
Ġent rance
os ph
Ġinst ruct
Ġtrad ing
Ġrelax ation
ĠKent ucky
Ġr uled
ĠS R
ĠBase ball
d ie
Ġcontinu ing
Assum e
Ġt ends
Ġincorpor ated
Ġcon jecture
Ġpay ment
Ġd a
Ġs ending
ĠS E
ĠRec ord
Ġdisapp oint
Ġfall ing
Ġcon clusions
Ġindu ces
ag u
Ġweak ly
Ġexpat riate
op ter
ĠE vent
ĠK y
ĠSchool s
Ġpos it
S ong
o il
ĠR ound
Ġgl ob
f ire
Ġmark s
cent ral
cc c
ater n
ict ional
il ty
gl ing
n or
W A
ter ior
ĠAust ria
bound ed
k g
Ġadm itted
Ġf ought
Ġanalys es
Ġcorrect ly
Ġso il
E v
T M
ic ing
ac le
l ad
ĠSe attle
Ġup coming
Ġbos on
Ġexpon ent
ang el
ene z
Ġtransform ed
Ġconsider able
C N
GB T
Ġren amed
hy per
Ġtroub le
V er
ĠYear s
xy gen
ĠP ract
Ġcosm ic
S ource
ĠLim ited
Ġeng ines
Ġex clusive
Ġintegral s
Ġdisc ipl
ĠW y
ag on
n ik
Back ground
Ġemploy ment
D D
Ġ{ {\
Ġ$- $
Ġin fect
Ġcommit ment
ĠMay or
ĠD ur
)} _{\
Ġpass engers
Ġhe ll
Ġp ione
Ġmer ger
ĠTh anks
ĠJ osh
Ġm ales
ow ing
ph an
Ġw al
Ġexpand ing
ES S
Ġ$\ |
Ġgr ass
Ġnon zero
er k
Ġnorm ally
Ġinter sect
Ġj azz
oc he
A U
Ġsing ing
Re v
Ġpro hib
Ġnot iced
r h
O bs
Ġassoci ate
ĠS el
Ã© s
Ġmir ror
d ou
Ġpotential s
Ġ$ <
Ġvari ant
ul um
Ġneighb ors
Ġcent uries
19 26
ĠP sych
ĠS in
l ayer
Ġing red
ac on
Ġrestrict ions
19 21
ex pl
G ood
Ġad venture
Ġnom inated
J ames
ĠS earch
~ (
Ġult ra
Ġcele b
Ġgu ests
Ġinnov ation
19 25
Ġh ospit
Ġal ive
ipp i
ĠF ive
ĠV o
ect ure
im ation
ĠZ e
Ġregard less
ĠH u
Ġpl astic
c oupl
le ading
Ġg ang
Ġg ay
b urn
ĠAssum e
val uation
ex ists
Ġphil osophy
be cause
h ist
V ideo
ock et
gl obal
Ġ Ø
Ī Ĵ
M arch
Ġhe lic
ĠW i
Ġtrend s
Ġto ler
Ġexcit ation
Ġpass enger
ie val
Ġrang ing
ia h
Ġexpl ored
ĠMan ager
ĠDe an
Ġvill ages
k ay
ĠTown ship
C ap
s ome
( )
Ġrece iver
Ġmere ly
ĠO pt
}} }$
ĠN ature
19 12
Ġm aintenance
e an
Ġen velop
Ġgradu ate
Sim ilarly
Ġquot ient
Ġrank ing
ĠY an
Ġbelie ves
g t
ĠAtl anta
d if
Ġd ies
Ġfocus es
A cc
im ore
Ġ& $
Ġpublic ly
Ġimplic it
on na
Ġline arly
Ġsy nd
Ġliter ary
Ġ$ $\
ĠNAS A
1 18
Ġsp arse
Ġout per
D an
Ġeffect iveness
ĠFin ancial
ĠB ureau
ĠN ash
V is
om as
Ġpro ton
b its
Ġbreak s
}_ +
if iers
o a
i op
ĠB us
asket ball
ĠC atal
oid s
Ġterm inal
ok ed
ĠPe ace
ctic ut
g ame
Ġded uce
U E
Ġpix els
Ġ }{\
Ġtherm od
On ce
ĠY et
ĠAl an
Ġcloud s
19 23
ro d
Ġl ake
Ġob st
Ġdirect ors
Ġ }$
ĠL iver
M art
c ounter
ann on
end ar
Ġreg ister
Ġtrans pa
Ġmeas uring
Ġdecl ine
Ġann iversary
Ġinj uries
Ġa de
u u
ion ed
ĠAuthor ity
ĠTra il
Ġr ising
M al
ĠY ang
ĠT R
}, {\
ĠI C
ch ant
ail s
orthe ast
ÃŃ a
ĠMov ie
Ġserious ly
. /
um ul
Ġke eps
Ġbe ar
ĠAnd re
u is
19 16
Ġo vers
ĠSm all
ateg ories
Ġstrugg le
Ġw ider
ang ers
con v
Ġinvest ors
}( -
ĠChall enge
ment ed
and al
l floor
S i
X X
Ġappro val
Ġre actions
& -
ograph ical
empt y
L abel
A v
Ġsuffic es
= (\
h al
ĠCh apter
ĠO klahoma
Ġin her
the y
' }$
ĠUn it
ĠTur kish
Ġmove ments
Le ft
Ġinform ed
ug s
Ġconsum ers
Ġrel ief
Ġcaref ully
O rig
ĠRepresent atives
dist ribution
$ (\
Ġso ph
ĠC S
i ar
Ġd y
ha ust
Ġhead quarters
ĠPe ak
Ġan th
bar a
ĠFred er
Ġan ten
G ra
ĠIma ge
at ar
ĠE ffect
Ġhol iday
ĠTai wan
}= (
Pro b
P G
}) )
ĠL ink
Ġpri ze
ĠDet roit
Ġsit uated
Ġart ificial
ail ability
ĠD ol
Ġwe aring
yn the
Ġde formation
ab out
B ased
Ġplan ets
Ġqual ified
Ġthere by
Ġmay or
Ass ociation
ĠF M
Ġs ons
ĠB ou
Ġriv al
Ġsurv ive
9 00
T ype
ĠBr un
Ġjud g
umer ical
Ġdr ink
19 15
on z
au ra
Ġexec uted
ant i
Ġvalid ation
D onald
ĠEu clidean
Ġmin i
Ġast ron
m ission
ĠCon cer
ĠB uck
ĠN ik
olog ically
ĠAg ric
Ġcomb ine
Ġweek ly
ĠPro cess
ĠD al
r floor
un ity
Ġas sembly
Ġoutput s
iv ation
Ġc offee
sup er
Ġprepar ation
Ġsem antic
ĠH old
Ġground s
Ġdeterm ining
Ġf ired
C V
ĠC L
Ġvis iting
ĠWal ter
ĠDou glas
Ġmicro sc
Ġretire ment
ĠMc G
inc ial
m ers
S y
an alysis
Ġestablish ment
am ents
Ġformal ism
Ġrequ iring
ĠP aper
, ~
im od
H I
Ġ ^{\
l ov
Ġimp ressive
us er
ĠH ad
Ġdef ensive
Ġevery where
\, .
Ġnumer ically
Ġ }}
E r
Ġassign ment
w rite
ĠH oll
cont in
ĠS pect
in burgh
ues e
}. \
ĠK az
ĠC ow
ud a
ĠAust in
Ġtransport ation
equ ival
Ġcap abilities
ĠCol omb
ploy ment
Ġviol ation
Ġacqu isition
ik ip
respect ively
at ers
sup ervised
Ġop ens
ĠLoren tz
Ġre jected
ĠE ss
Mich ael
E urope
ĠH ell
Ġt ank
ĠCur rent
Ġencoura ge
rain ian
Ġg host
Ġto ugh
Ġint ention
ĠMe V
Ġrec urs
Ġmeet ings
Des pite
ĠN ichol
Ġstar ring
ĠM ap
ĠIndepend ent
Ĩ Ĵ
C ase
Â ®
ĠB ull
Ġstru ck
Ġro se
B oth
) )$.
deg ree
p air
Ġ\, ,
Ġgener ates
fram e
ĠA le
Ġelse where
ĠSpec ifically
Ġdis ag
f ather
N L
fl at
OR E
ĠP ear
Ġwat ched
2 20
10 3
10 8
Ġl engths
tt ing
Ġchild hood
Ph one
im ated
Ġnarr ative
Ġto m
Ġpres erve
ĠF ant
Ġstrateg ic
P lease
ĠC it
Ġfin itely
Ġhapp ening
Ġunus ual
iss ippi
ĠPart ners
ens is
Ġch arts
11 5
Ġre con
). }
Ġcal ibration
}^{ (\
ĠJ os
Ġb il
W ho
ĠFor ces
fact or
me as
Ġbox es
ĠB H
ĠM unic
Ġround s
Ġmusic ian
od ox
Re view
ĠH ills
J une
) !
ĠCh ange
ĠNig eria
ma ker
Ġaut hentic
ĠLaw rence
Ġsh orter
Ġsus pend
Ġsuggest ing
ri k
AN D
ter y
AR T
ap olis
Ġfle et
Ġeduc ated
Ġparticip ation
Ġknow ing
Can adian
B T
Ġcut ting
Ġne ck
Ġarm ed
Ġelli ptic
ĠAll iance
Ġhom ot
F eb
Ġaccompan ied
E p
Ġrema inder
S an
qu ality
ĠD R
is y
Ġlo ops
ĠTe levision
tem perature
Ġaim ed
do i
at tered
M I
13 5
ah n
F I
b d
P ort
int o
or ia
st age
ĠL ane
cre asing
sub float
erv oir
Ġaux iliary
ĠF ame
c hers
sing le
Ġhom omorphism
an ia
ate ur
ed ition
Ġnot ing
av or
Ġin fection
ĠIn terest
}) -
ĠM ission
ĠCh airman
ĠT ag
Ġatt orney
Ġhead ed
ĠAl ber
ĠI ron
Ġel astic
ĠFor um
Ġexpect ations
Ġt ables
R ob
uk i
ch annel
Ġf ault
driv en
s ized
Ġmy th
Ġstr ings
hold ers
Ġkey board
Ġcont ra
Ġsc an
i ors
ver tex
Ġinfin ity
Ġtem ple
ĠF le
Ġbelong ing
Ġsampl ed
ĠN ative
id ge
Ġimplic ations
ĠMc K
ĠIndones ia
S er
ĠH ave
ĠD O
ul ator
sim ple
Ġv aries
Ġreg ulations
F ree
ĠM eg
Ġrece ives
Ġformul as
n od
Ġmechan ics
Ġsyn chron
Ġbeh alf
uch y
Ġtransl ated
Ġprof it
ib l
Ġfant asy
ĠPro duct
Ġar ises
end ment
ĠSm art
ĠAl bum
Ju ly
Ġfocus ing
sim ilar
Ġadm it
Ġsh ifts
ĠNever theless
Ġas ks
ho en
Ġfail s
^- $
ĠW ard
Ġref lected
ĠT ar
Ġremark able
ĠBru ce
Form er
level and
Ġlimit ing
}} }{
l ades
B ur
Ġt ied
Ġasympt ot
u its
ikip edia
Ġhe ating
D ec
Ġs urn
ĠR ot
le in
B o
Th rough
Ġf urn
ĠP ap
ab olic
fol io
ail ed
i ology
ĠD ublin
Ġro utes
Ġtens ion
ro se
ĠIndust ry
) |^
ĠF ried
10 6
Ġpark ing
ts burgh
Ġes cap
Ġbas ically
Ġr isks
bl ing
Ġr um
S pe
f our
g ate
h arm
Ġgener ality
ĠJud ge
Ġaband oned
ater al
ag h
Ġrele ases
Ġd ating
ĠU C
Ġawa reness
ĠD id
ĠM other
Ġimag inary
alt imore
Jan uary
Ġpre lim
ail and
sol id
bs ites
Ġb ases
Ġrecogn ize
n ell
Ġatt ributed
ĠRec all
ra ble
d or
ple ctic
al ia
Ġsc r
ĠSe veral
rict ion
Ġn ations
ĠWe bsite
ĠRuss ell
Ġmut ual
Ġk ne
De ath
\| _{\
ĠD allas
Ġbar rier
Ġneglig ible
ik es
Ġelect rical
U V
Ġun likely
A lex
Ġp ose
Ġcatal og
Ġch rom
Ġbu ff
Ġde als
Ġbl ind
Ġfranch ise
O lymp
Ġproport ion
Ġis lands
Ġdispl ays
Ġtru ck
Ġim posed
Ã¼ r
w ords
Bi ography
Ġfriend ly
ĠA BC
Ġc up
Ġsubm itted
Ġj unction
ĠS ac
ĠR ace
Ġperm ission
Ġrep utation
uer to
Ġcond ens
Ġs ick
** **
ĠM os
ĠC os
du e
u ced
ĠN ation
Ġformer ly
Aug ust
T ax
Austral ian
Ġgu idance
tag on
co ordin
ch t
S ur
ĠSt ars
G D
S ol
âĢ ī
Ġpip eline
Ġsuff ering
}{ $
rim ination
g ov
igh ters
ch arg
ĠRem ark
Ġdrum s
' =
H on
Ġleg s
ĠAd v
ĠEd itor
ĠStud ios
or tex
Ġ\ :
ious ly
m outh
Ġdesign er
Ġo xygen
Ġpass age
ĠJ enn
ĠAnton io
Ġshift ed
}_{ (
ĠM ake
Ġpres erved
Ġc ited
und erset
Ġb ronze
u ct
z ing
Ġfrequ ent
g ray
Ġst rain
ĠConne cticut
Apr il
Ġgen re
Ġaccord ance
Ġderiv ation
Ġefficient ly
Ġcount ing
Ġident ifying
Ġscreen ing
ĠPer formance
sat isf
ĠQueens land
Ġde eper
Ġph on
Ġd ogs
onom ous
Ġrepresent atives
Ġshe ar
Ġprom ising
Ġdise ases
Ġover come
y ou
ĠH IV
Ġfact ory
Ġresol ved
b one
Ġdest ination
is hers
ĠD rive
ĠSaf ety
Ġoper ational
Ġvari ability
P I
ĠN eg
Ġinnov ative
Ġfra ud
Ġoper ates
Ġdem ands
Ġsk ill
Ġst ake
Ġres erved
G roup
Ġspirit ual
Ġal leg
Ġg al
ir i
clos ure
ĠM agn
Ima ge
ĠL anc
Ġrec ru
as a
ĠL iving
Ġweap on
ĠB ible
iz ers
Ġlimit ations
Ġp overty
ĠB ed
Ġs ke
Ġc rack
Ġfun ny
' )\
ill iant
Ġbi ological
Ġsudden ly
ĠCan cer
Y our
G G
ern and
ĠThom pson
Ġmodul i
ĠNot ice
er ts
Ġed ited
l iving
M ac
19 11
ĠOr th
Ġb ird
de ep
19 13
Ġvan ishing
ari ate
Ġperson ality
Ġl ying
ĠB uff
ĠB eng
it ure
C le
ĠI l
elf are
Ġher itage
Ġrem oving
f amily
ĠChrist opher
Ġf rust
Ġemer ging
Ġpubl ishing
Ġf ro
ĠNor wegian
me asure
m ates
Ġcontinu ity
d ate
Ġc ust
ĠSw iss
Ġinv ariance
left rightarrow
Ġinteract ing
M et
yn asty
sh arp
ĠF ather
Ġdistingu ished
s n
ĠBl ood
Ġclass ifier
Ġobserv ables
Ġcomm ander
ĠD ance
Ġprep are
ĠCon sequently
ĠD ak
erv ations
em pl
Ġrel ating
ĠPal ace
Ġm ile
Ġh ired
ĠT s
ĠN ag
e ast
b oy
i Ã³n
N P
Ġcon c
ĠN ic
Ù Ĭ
Ġpay ing
ĠRes erve
ibr aries
b est
Ġmarg in
ĠRes ources
ĠInt eg
ĠA qu
ĠE mb
Ġl ad
r ong
ĠS ud
Ġrem oval
Ġde leg
Ġfl ash
}$ ).
Ġapp s
S em
Ġphys ically
ĠH ope
Ġextens ions
ore f
um ann
claim ed
Ġfe e
onym ous
Ġc ot
act s
E st
Ġconsist ently
T om
^ +\
ĠK ings
Ġhyper bolic
Ġalign ment
w ang
Ġin cl
A uthor
}| ^
r ine
M or
20 23
ĠL anguage
A wards
Ġd amp
C ount
Ġh ill
ĠAd ams
ul us
ĠChe ck
Ġy esterday
Ġcheck ed
Ġmulti pl
Ġcompos ite
Ġb atch
Ġth orough
im port
Ġsw it
ari ants
ĠF inn
Ġpre v
Oct ober
Ġst ating
se par
Ġab elian
Ġsympt oms
ĠHistor ical
ĠAtt orney
ĠCent ury
Ġdev oted
Ġarrang ed
Th ree
on line
ch itz
ass ador
w p
Ġprodu cers
ĠVol ume
Ġperm utation
] )
ab ad
Ġt ropical
Ġcohom ology
e re
Ġprov ision
ĠĠĠĠĠĠĠĠĠĠĠĠĠĠĠĠ Ġ
Ġthick ness
Ġphenomen a
ĠR ain
ment ioned
iction ary
Ġfeas ible
ĠM ater
Ġcons cious
Ġel ig
O s
ĠE T
Ġwh ilst
og a
Ġautom atic
Ġvol umes
Ġsymmet ries
ĠArgent ina
Ġequ als
row th
27 0
ĠProb lem
m ate
am ps
Ġse p
ĠHar vard
itud inal
Ġs occer
Ġrep air
ĠBelg ium
d ers
ĠThe ory
ĠR ow
ĠW ang
ĠPubl ishing
}\ }$
Ġdevelop ers
w he
Ġfarm ers
ĠLe ft
ĠW right
ĠPro p
L ike
}} +
bor ough
Ù ħ
Ġtarget ed
p ing
ĠEd inburgh
Ġtor us
Ġpat ch
Ġfund ed
Ġemploy ee
ĠPhil ip
ĠB art
ĠAn na
ĠMur ray
ĠL ook
as ant
ĠK arl
h alf
am ination
Ġens ures
Ġcompet ing
Ġtouch down
st ellar
Ġac oustic
ĠSing h
Ġm art
ĠAnd y
Ġprofession als
ĠAb d
ict ions
Ġsh apes
10 7
Ġpaint ings
Ġmor al
ampl ing
Ġwalk ed
Ġowners hip
Ġflav or
st ory
ĠP ope
ĠEm peror
back s
ĠV egas
ĠBe at
Ġcritic ism
ific ate
she ll
Ġoccup ation
c ient
ĠCharl ie
Ġdo ors
Ġbrand s
an aly
ch ild
ĠF al
Ġspe aker
van ced
Ġorgan isation
ĠT un
An g
ĠW ord
Ġ ic
Ġover view
Ġdiver gence
ĠD ub
comp act
b ad
ĠS L
no ise
Ġattract ive
ip her
ĠG W
Ġrad ical
Ind eed
Ġsucceed ed
Ġs essions
ĠR an
Ġfab ric
ips chitz
ĠF OR
Ġt iny
Ġsurve ys
ĠW oman
Ġent reprene
Ġsup ern
Ġcav ity
s ample
ĠApp ro
ou ver
ĠHon or
M s
M us
Ex p
Ġfem in
Ġcan cel
utr ition
Ġade qu
19 08
e fficient
Ġf inger
ro ck
ĠN OT
ĠD J
he res
Ġlik ed
ĠSa udi
Cur rent
K L
ĠG alaxy
Ġunivers ities
ĠPlay er
Ġm ig
Ġdis cre
lev ant
ĠS A
ors ion
Ġcl im
ĠKn ight
est ed
i eg
] _{
ĠCommunic ations
Ġcour ts
s ite
er os
Desc ription
Ġtrans it
iss ance
Ġbus y
E F
Ġferm ions
m atic
al ph
ol ly
Ġgen es
Ġsupp orters
ps hire
Ġcr imes
t ensor
ir ates
Ġobtain ing
ĠV I
ĠE uler
ĠAl b
clus ively
ĠWork s
m t
Ġr ings
Ġmultiplic ation
Ġmet res
Ġrepe at
w ind
Ġj ets
Ġw et
ĠS H
Ġcol lections
an ne
ĠStud io
Ġtw elve
Ġjun ior
et ition
Ġinit iative
Î ¿
h ad
Ġ )$
ĠB S
\ -
a use
Ġmotiv ated
win ning
su ccess
ĠP ra
Ġexhib its
Ġex haust
dom ain
ĠF un
Ġgovern ments
Ġdial ogue
rel ax
Ġinterview s
Ġantic ip
Ġconsid ers
Ġtrig ger
Ġinhab it
ĠK ur
Ġres erve
Ġent hus
Ġf est
ĠAl tern
Ġvir us
Ġcons ent
Ġenc ounter
Ġde put
De cember
= {\
be an
ĠMot or
Ġir re
ĠT rib
Ġdest ruction
Ġte ch
Ġtang ent
ik ing
ĠH it
ort on
Ġadvers arial
Me an
ĠNC AA
ab i
ĠS oc
ĠPet ers
ick ing
ĠK ir
ĠGra ham
oun ce
ĠK ra
Ġsurpr ised
Ġd otted
Ġent ities
vent ures
Ġobserv able
ĠArt icle
res olution
^{ [
b ach
Ġlist ening
Ï Ħ
Ġhealth care
Ġm ilit
Ġembedd ings
ay an
Ġmar ine
10 9
_{ {
ĠCr ime
Ġsqu ares
es ome
Ġmoder ate
ĠS W
Ġaccur ately
Fig ures
Ġt ie
Ġill ness
ĠC oul
M o
C y
11 3
Ġgradu ally
}\ !
text style
Se ptember
Ġl ux
ĠF L
ĠN elson
l ast
) }^
Ġt issue
ou ch
b ridge
big skip
lect ric
Ġext ending
Ġb old
Ġeng age
dist ance
ri el
Ġany where
Ġmet ers
Ġoscill ations
) ),
ĠRog er
Ġtick ets
be ing
ĠMiss issippi
Ġch urches
ĠC ass
ĠRob inson
, .
Å «
Ġmem or
\ }}
Ġatt ributes
H P
ĠProte ction
Olymp ic
Ġenc oder
Ġhol omorphic
Col or
ĠD ragon
am er
Ġgeodes ic
ĠT el
ĠSp irit
Ġfound ing
Ġto x
ĠGirl s
ĠMor ris
Ġshe et
, (
f ish
Ġregular ization
Ġrel ativistic
}$ ;
Ġvari ants
c ule
Ġen forcement
B as
c ov
Ġsu icide
ĠRes p
L ocal
Ġcontroll er
Ġpo em
ĠSch olar
@ {}
ĠG ary
Ġp ushed
Ġinter vention
ĠR est
Ġrecord ings
aut oref
ge on
$& $
ail ing
ens ing
h ill
Ġcelebr ated
Ġn ick
ss on
ĠMem bers
iv ated
ĠLiver pool
M ethod
Ġw arning
ĠL P
Ġext raction
Î ½
P rop
Ġf ishing
Ġaffect s
om i
Ġl ights
N ame
ĠK itt
z o
atch ing
Ġcar rier
J ack
frequ ency
Ġoff set
j amin
Ġt ur
opt imal
Ð »
ge red
ĠMay be
Ġvis its
Ġagre es
hoen ix
Ġt ennis
Ġsurround ed
ĠK er
ĠE C
ard ed
Ġr uling
Ġwind s
Ġcomp ression
Ġt ip
ĠSen ator
un iform
ic he
Ġtw ist
Ġwor ry
Ġperson ally
Ġt act
Ġleg it
ĠSte wart
Ġathlet es
Ġreflect s
Ġsho pping
Ġm esh
ĠP ad
Ġin aug
add le
um ar
ĠTh ings
Ġgre y
Ġhigh way
Ġapart ment
Ġeng agement
k k
end ers
in ces
Ġst adium
. :
Ġpopular ity
sh aped
ent er
ĠMar vel
Ġadapt ive
Ġagric ultural
Ġvari ed
ĠCro at
irm ingham
Ġar ising
j an
S en
Ġw edding
Ġn urs
ĠH ero
Ġeth nic
Ġout standing
sh ape
ush ing
rand om
ĠN i
ĠPhys ics
ĠT rack
ĠAnn ual
Ġnegot i
f an
roph ys
Ġg ent
ad ic
ĠDen mark
Ġt ube
Ġwith draw
Ġnucle i
M W
\!\! \!\!
ĠJon athan
ĠBo ys
l as
Ġinv asion
Ġb ull
( |
Ġdevelop ments
Ġmedal ists
Ġclos ing
ĠU tah
sc ar
ĠDire ct
Ġhierarch y
Ġmy ster
g on
ick en
ĠLe aders
B uild
Ġviol ent
Ġmod ification
Ġval ley
Ġtempor ary
im ir
ĠCont in
Ġconsist ed
P al
r l
. -
ĠE ver
Ġhand ling
ĠT ig
tain ing
AS S
ĠCom ics
Ġcar ries
ĠDep uty
ĠPortug al
Ġt ub
Ġachie ves
r ically
Ġamong st
Ġsynthe sis
Ġcontract s
Ġclos est
or o
Ġv anish
all ing
ĠEnvironment al
prote ct
ig ate
ĠLouis iana
ĠCamp bell
Ġk itchen
Ġfor cing
ĠC rit
Ġfin ishing
ĠEv ans
correspond ing
em ark
ĠG ran
O pen
Ġdi am
ĠI an
tra ined
ĠRel ations
O per
Ġrem ind
Ġqu arks
Ġ\ }$
ot er
ro oms
24 0
)\ ,\
nu cle
Ġo m
' (\
m aster
Com parison
P a
ĠM ind
ĠBet ween
Th anks
F in
M O
Ġv ic
Ġh urt
Ġg rate
ĠP il
M ass
Ġann ih
Ġp y
Ġem issions
ĠAss istant
K K
Ġs aved
Ġinequ alities
t urn
as ters
00 2
Ġmanag ing
Ġelectric ity
le ans
Ġinf o
Ġlocal ization
ĠP ath
math ds
cc a
Rober t
ob i
Ġevol ved
19 05
f und
Ġgener ations
pos ing
U L
Ġw ra
}} -
Ġde let
vers ely
Ġgu ilty
anc ouver
amb ig
Ġrad ii
Ġcommission ed
Ġl oyal
ĠI ce
t ot
Ġfe es
US A
ĠStud ents
Ġsecret ary
Ġg ram
Ġdeep ly
ĠA B
ĠPolit ical
Ġrom antic
Ġs ed
N ovember
au er
as g
D el
Ġse ctors
con j
Ġb oss
Ġelect romagnetic
gg ed
Ġexam ined
st art
iv als
U s
Ġrare ly
con ver
D et
Ġd rag
Ġbright ness
ĠN O
ĠGu y
Ind ian
oe ing
h n
fig s
Ġres idential
as hes
Ġc able
or se
ĠAd vis
Ġver ified
B re
) {$
Ġtas te
ĠTh ailand
Ġrequ ests
c ritical
iss a
B et
Ġsac rif
$- -
Ġb le
all ow
red ited
pos itive
em ed
ĠPol y
ou rag
Ġanim ated
Ġmanifold s
b n
}) (
roph y
Ġorient ed
Ġun s
ĠWar ren
Ġcelebr ate
Ġinvolve ment
Ġ\\ [
ard ing
Ġprote ins
Pl ot
Ġoper a
ĠP rice
ĠF ab
Ġc ogn
Ġprom ise
ĠRo om
l ab
Ġad s
T w
ĠB ond
ess ed
orig inal
Ġcaref ul
Ġint u
ĠDel hi
Ġcontinu ously
Ġins ights
Ġth inks
ĠF ind
h s
ĠCom ments
ill o
V P
Ġrestaur ants
Ġconstant ly
ĠReview s
Ġwire less
ĠCommon wealth
ĠPl us
ĠP ref
Ġdemonstr ates
* {\
or dered
Ġwe bsites
st atic
Ġland ing
Ġfin ance
ĠO pp
omet er
stand ard
Ġsuff er
Ġcont rary
): =\
B ibliography
Ġrac ial
Ġobserv ational
18 90
Ġprior ity
Ġfraction al
Ġtax es
field s
Ġme at
ĠG ill
ĠLiber al
ĠKenn edy
se en
oc ese
Ġext inction
p us
Ġorgan ic
Ġsustain able
ĠCl oud
Ġm i
Ġtick et
z i
x rightarrow
Ġreg ulation
ĠElect ric
ĠOrgan ization
ĠMat hemat
Ġlik es
Ġre ign
pol y
Ġsuper conduct
Ġste ep
plic it
Ġint ense
ĠJ ess
w hel
Ġquant itative
d ing
ĠGal actic
v c
Ġaut omorphism
ĠSam uel
t re
Ġrece ption
em p
Ġdram atic
Ġcateg or
S am
Ġd inner
Ġhop es
Ġany way
Ġt one
rel im
Ġpro xim
Ġvess el
r ise
ĠSe x
ĠC emetery
ĠInst agram
Ġre cre
ĠMar ie
l ied
Ġcam eras
erv ice
_{ (\
Ġ\ #
Ġarrang ement
iv an
g as
Ġposs ibilities
ambig uation
Ġcomp rom
ĠBe ck
moment um
Ġdesc end
ĠMarg aret
G old
ĠSt ories
symmet ric
L ear
b ran
rat io
Ġsub stit
ĠFin ance
ab e
Ġsummar ized
Ġint ellectual
ĠPolit ics
Ġintrodu ces
' ,\
cont ent
S N
Ġhistor ian
Ġhy p
ut ter
sp aces
Ġlabor atory
ĠB R
ract ed
Ġm a
}} +\
EC T
ĠBrook lyn
D own
ord inary
ĠCon vention
Ġpl ug
ĠAfghan istan
Ġas ide
f are
Ġsingular ity
), (
char acter
Ġdetermin istic
S al
Ġuniqu ely
Ġdual ity
Ġr ub
ĠR and
Ġproof s
Ġband width
Ġinst ructions
Ge ography
] ]
ĠM ath
~ {\
rupt ed
Ġfeel ings
V M
Ġregist ration
oth y
Ġmer ged
Ġf ake
gl s
Ġcoupl es
O ff
Ġcompan ion
lades h
o ys
Ġcoll aps
p ret
ĠRepublic ans
Ġprint ed
em en
ĠStud ent
Ġres idence
Ġsens ors
m ade
Ġcompet itions
comp onent
g un
ĠM obile
ĠCh amber
o ft
ĠO tt
ĠPro of
up le
Ġmem brane
r Ã©
Ġstream ing
Ġrel ies
c ost
B orn
Ġst em
ber ry
h our
Ġas semb
}$ $
mod ules
re cted
ĠC ON
Ġsupp ressed
ĠArm en
D ou
it atively
Ġcl imb
t ion
Ġthe ater
ut or
Ġliter ally
Ġa ired
ĠOr chestra
sh ifts
) ~\
Ġd uties
ĠEx ample
}] $
ĠCar ter
upp er
Ġs ends
F ran
ĠN eb
ĠBl ues
ĠArch ives
Ġsus cept
ĠP un
En g
S ources
ĠL l
ant on
Ġrep orter
Ġmetall icity
ĠSh ah
Ġenc oding
) /\
Ġb one
enez uel
Ġpart ly
ĠP uerto
Ġbut ton
Ġstri p
sh ot
Ġund e
big gl
Ġprelim inary
vert ible
}] \
Ġthem es
Ġpl ain
Ġdeg rad
Ġv in
n ames
Ġminim ize
he tic
+ $
ĠB aker
},\ \
Ġsing ers
Ġinsp iration
Ġd ict
Ġdown town
Ġpar agraph
Ġc rown
Ġra ising
Ġr anks
ĠPh D
ĠOr leans
Ġput s
us p
g p
Ġprov iders
Ġch amber
top rule
ĠH ockey
Ġsh adow
Ġmeaning ful
Ġexclud ed
H el
ang led
ig s
Ġdifficult ies
ĠSquad ron
Ġdam aged
Rel ated
tra ining
f its
Ġsp okes
ĠC leveland
ira ble
Ġsp r
Ġb ol
az ines
19 06
Ġpred e
fl ix
Ġres ident
E ducation
Ġhigh lights
b ibliography
ĠPortug uese
ĠC rown
t or
Ġh ip
19 09
Ġden ied
ĠSte p
spe ed
Ġsign ing
ĠN BA
p olar
ĠN aval
ĠBrother s
ĠDo es
ĠG ulf
Ġencoura ged
N T
od ic
AL L
rane an
Sc ott
Ġstay ed
ĠL GBT
Ġemer ged
19 07
n as
Ġmaintain ing
the se
ĠJu an
bre aking
ĠL ang
T oday
n l
Ġun expected
Con clusion
en berg
ĠF isher
Ġfirm s
Ġqu bit
] ;
ĠT ower
ĠM s
ach ment
ĠP os
Ġsp ots
F inal
H R
cess ion
ĠS tage
W ar
idel ity
ĠP ast
c p
ĠNe v
Ġh orses
ĠO R
be y
effect ive
Ġsole ly
qu antum
ĠB altimore
ĠUn fortunately
ĠS ay
ĠD ie
17 0
" ;
Ġdel ight
I E
Ġart istic
ĠSim ilar
Ġinit i
ĠL ower
Ġne uro
Ġcharacter ization
Ġread ily
ĠS elf
ĠR achel
ĠLe ban
et o
Ġs ake
F O
Ġdiv or
ĠTer rit
G AN
ĠJim my
d in
yl er
Ġreview ed
Pl an
Ġimpro ves
Ġw ings
Ġst yles
st ation
d ays
ĠBrazil ian
ĠPort land
ed a
ric ane
Ġflex ible
^{ {\
Ġearl iest
== ==
Ġdetect ors
Ġfil ters
work s
Ġexception al
Ġtext s
cl ose
[ {\
] _
] }\
Ġsupp lement
Ġcl ip
Ġjournal ists
ĠClass ic
raise box
el ing
Ġresc ue
ĠH orn
sequ ence
el se
N ov
Ġreason ing
Ġjud ges
Ġcons ensus
Ġtrans f
Ġsequ ential
Ġmem ories
Ġcycl ic
Ġliber al
ĠD ays
Ġsomew here
}} ^{(
ĠAcc ount
l ay
Ġel der
Ex ample
ĠPr incess
Ġsol it
e ach
ĠC el
e or
K ey
Ġprov ing
Ġman ual
+ |
ĠE le
Ġconver ge
A ir
L aw
m illion
ĠColl ins
Sports people
op les
$ =
ĠA y
ĠP i
}}\ \
à ¦
gra duate
Ġi Phone
Ġsurv ived
se arch
writ ing
Ġback ing
um s
Ġf ract
ne cess
ĠBill board
g ue
ĠThe ater
l r
ĠFin land
Ġm ild
p read
C s
it ian
Ġflux es
Ġbu ying
Ġchar ity
Ġf uck
Ġsh ots
D ue
Ġparamet riz
Te levision
Ġbal anced
desc ription
i u
Ġer g
ĠN E
Ġpres um
k ar
Ġrequest ed
war z
ĠMet ro
re ction
Ġschol ars
Ġmod ular
big oplus
s un
Not ice
ne xt
Ġhas n
we b
Ġd ot
Ġpoint ing
Ġaddress es
ĠP ersonal
ĠS now
ĠComput er
Ġâ ĨĴ
19 04
Ġc ul
us ive
Ġsimpl ified
ST M
Pro fess
Ġguarante es
op ing
ĠIm perial
ĠPit tsburgh
Ġex it
ub s
11 4
ĠF em
Ġrest ored
Ġche ap
Ġsub str
Ġcooper ation
h h
Ġsome how
Ġres ign
S W
bigg r
Ġtim ing
Ġj ack
h ig
ĠInter view
ĠC her
Ġex clusively
f ly
Ġav ailability
Ġhard er
ĠMarsh all
q q
Ġcopy right
n est
ĠM I
ĠD og
B en
ol ished
ement ia
ĠM es
id ering
M ajor
ĠPark er
Ġcontrad ict
" ).
F s
ta ck
w er
abl ing
Ġt ort
it arian
cal cul
ĠFre edom
Ġste am
Ġcomput ations
ĠT ob
Ġsp oken
ĠSpe ed
Ġprov ider
set length
Ġind irect
ang ular
P oint
ĠG T
Ġv ital
ĠWel sh
Ù Ĩ
F amily
ĠC ele
u ous
ĠE V
arm ac
ass oci
ĠUr ban
ke e
Ġg ran
Ġconven ience
Ġphotograph s
Ġm igration
ĠFrank lin
4 50
usal em
ĠInt elligence
ĠL anka
te chn
book s
Ġb om
Ġgain s
Ġdip ole
Ġf ur
uris d
j et
ĠSh an
Ġt ill
Ġreprodu ce
ĠP rix
ĠR ap
' -
ellig ent
ij ing
F ind
ĠSt ore
Ġrot ating
Ġbr illiant
Ġmountain s
ok er
ra ctions
ĠE M
qu ant
ĠHun ter
Ġlocal ized
c ribed
th in
pro ve
Ġmodel ed
Ġj oy
ore l
t otal
Ġexponential ly
Ġr hythm
Ġcolle agues
Ġthreat s
t ics
ĠPat ri
L og
n etwork
ht bp
Ġqu eries
L o
Ġlaw yers
~~~~ ~~~~
pp ers
Ġin herent
is ers
Ġre vol
ĠUl t
" ),
ry pt
ĠN ep
Ġmonth ly
Ġre ven
ation ally
ĠWay ne
Ġdis placement
11 6
Ġdr inking
res ize
Ġaff airs
Ġg athered
ĠC row
Ġst up
ĠF ly
Ġcomput ers
com ment
tain s
Ġleg acy
Ġpain ter
ĠL en
Ġident ities
T ag
ain ing
Ġreal ization
ĠP red
Ġphot ography
s qu
Ġant ib
cc entric
ant ed
ĠM ason
th on
ĠEv ents
ĠEp isode
H a
Ġcur rents
Ġg olf
Ġse venth
Ġi i
ĠInf antry
cknow ledge
* {-
pend icular
anc ell
Ġ ions
ĠK u
om atic
ine a
const ant
ĠMont real
Ù Ī
ĠC E
ĠSt ra
Ġcomfort able
ĠShe l
Ġs alt
}} }{\
ĠM ack
Ġ$ -\
l ass
x it
s ong
eb ox
Ġven ue
ĠK an
- {\
Ġsubstant ially
Ġsuppl ies
om on
Ġnot ably
ĠMean while
Pop ulated
Ġconjug ate
S ign
Ġbur st
Ġm ad
Ġ[ -
b ia
+ }
Ġg ates
ĠEconom ics
Ø§ ÙĦ
ĠWith in
Ġthreat ened
T est
col head
Ġcontribut ing
S k
F ull
Ġcast le
et ics
Ġflow ers
b ing
Ġste re
uc ks
Ġwork er
v v
Ġca ps
P O
ul u
Ġspeak ers
ĠUp on
Ġcon qu
Ġinn oc
Ġdwar f
Ġrecommend ations
ĠD rug
ĠO S
ĠP ictures
make box
ĠH end
it ory
Ġsure ly
ĠU pper
2 30
lim it
ener ate
ĠMa ine
ĠH ind
A tt
r ity
Re al
Ġsearch ing
ĠCar ib
H H
Ġlong est
ĠCO VID
Ġforest s
Ġguarante ed
ĠTe le
ĠC ensus
cos ystem
Ġkil omet
c z
ĠT ak
ab a
}) }\
O pt
Ġcross ed
Ġprim itive
g tr
Ġa cknowledge
ol s
se q
ĠR io
con vex
ĠLe vel
l ate
Ġhomot opy
ĠSt orm
Sum mary
Ġcl ot
Ġsp ins
Ġdis aster
iv ities
Ġbre ast
F lor
Ġj u
Ġbe er
w alk
asg ow
! )
Ġadvan tages
d ynamic
Ġw ides
ĠS oul
Ġobserv ing
Ġh ook
Ġst ops
Ġinstrum ental
Ġcub ic
ĠN ap
Ġcor ruption
Ġgu idelines
Ġcommut ative
T or
l brace
is p
ro v
Ġte a
eq q
à ®
Ge orge
Ġresol ve
ĠChrist ians
Ġindust ries
ĠB irmingham
H ol
Ġvalid ity
Ġg ray
ar ation
in formation
Ġorgan isations
eth yl
resize box
Ġdis ks
igh bor
L u
Ġcontrovers ial
Ġc ock
ĠInd ex
hat tan
'' .
Ġg ear
s ort
ht b
Ġappoint ment
Ġre tained
establ ished
port ed
an te
am ous
ĠQue bec
L and
ul i
& +
] ^{\
Ġrespond ed
Ġcoinc ides
p f
Ġestabl ishing
ĠAn ti
ew ise
ĠUk rainian
ond a
Ġhead ing
Ġattract ed
le ased
om ial
b ining
ĠMuslim s
e u
ĠAl aska
out ube
as te
omin ations
D ay
R ail
Ġextens ively
play er
Ġtrans action
ĠAr n
op ed
erv atory
Ġc umul
M ilitary
Ġb es
ĠSte el
Ġp in
Ġtra p
ĠSoft ware
ĠJ azz
ĠT alk
id o
Ġb ins
ĠPri or
atas et
Ġsequ el
Ġw ake
ĠCh a
Ġpred omin
Ġdeploy ed
Ġor ange
Ġfit ness
Ġ rib
Ġb ike
ĠMark eting
ĠBatt alion
Ġneg lect
Ġdist ant
f g
Ġdegener ate
ric ks
Ġcoun sel
ann es
Ġstri king
continu ous
Ġminor ity
ĠMit chell
Ġsimpl est
ĠP resent
18 80
Ġport folio
Ġsimpl er
Ġwal ks
19 03
19 01
Ġplan es
w hat
sh ow
Ġvari eties
Ġdes k
Ġdiam ond
ĠF ine
ma xim
Ġser ial
11 7
dis ambiguation
b us
Ġfavour ite
est one
Ġmy stery
re view
ĠĠĠĠĠĠĠĠĠĠĠĠĠĠĠĠ ĠĠ
Ġsuspend ed
ĠP ic
ĠNe ed
ĠG riff
Ġh az
l t
D ire
ĠL ic
ĠM aj
Ġsus p
R oman
Ġ\, .
Ġign ored
oc us
ur u
Wh ite
ĠBar bara
ok a
, }
S a
Ġlect ure
Ġfill ing
Ġbirth day
Ġp ace
ri ors
Ġconf ront
ĠN ame
ĠM all
par am
T HE
Ġexpl oring
Ġcap ability
al og
Ġdef ence
Ã ¥
ia o
M E
ĠVi enna
Ġannounce ment
Z Z
Ġdro ps
$ }\
Ġamb igu
uls ion
ucle ar
Ġup grad
Ġhop ing
}^{ *
Ġpri est
ĠC arn
12 2
Ġincred ible
Ac adem
bottom rule
Ġrem arks
NR AS
Ġconsider ably
ll i
ĉĉĉĉ ĉ
ĠV ancouver
Ġc ous
ĠBar ry
L ie
sm ooth
Ġsto pping
. ),
ĠC redit
ĠF ight
h uman
ĠArk ansas
ĠC ultural
min ute
Ġfacilit ate
ack s
N G
Ġclaim ing
ĠS olar
ĠM ust
Ġdecre ased
Ġwe ren
ins ula
Ġle tting
}{ $\
ĠP ant
ĠIran ian
Ġfor got
Ġvari ational
Ġin duct
C opyright
Ø ±
Ġarch ae
Ġpubl isher
L ine
ĠN ear
Ġref erring
ĠO il
ĠBe aut
iter ranean
Ġtack le
ĠM O
lic ations
c rit
Ġisot ropic
pr ison
Ġdem ocracy
Ġswim ming
v as
Ġillust rates
Ġanom aly
des ign
ens en
Ġem otion
) ~
Ġinvestig ations
bibliography style
Ġsurv iv
st ration
chi at
um m
Ġtw isted
^* (\
Ġob sc
). $$
ĠMad rid
Ġ âĢĻ
ĠCh air
ĠC op
D O
ĠMa ur
ag g
Pre vious
ĠG ot
l en
Ġpriv ile
Af ric
Ġsent ences
Ġglob ally
ap ing
H istor
}$ ),
lim ited
Ġrel ate
Ġel abor
Ġc ow
em or
o es
Ġover whel
ick ets
ĠMove ment
c ategory
ĠProfess ional
ron es
ig roup
Ġb io
Ġaver aging
ĠB ron
ĠEx change
Ġres ort
. ]
Ġoccasion ally
Ġpaint ed
Ġconsider ations
ack now
Ġconf usion
Ġign ore
on ing
IF A
Ġl oud
Ġelim inated
y ll
Ġke V
fra ction
Ġobtain s
Ġmethod ology
ĠĠĠĠĠĠĠĠĠĠĠĠĠĠĠĠ ĠĠĠĠĠĠĠ
( $\
> <
W S
Ġassum es
ing ers
ĠD at
ĠN ar
â Ĩ
V ill
ĠC ore
ĠStan ley
Ġt rick
ĠB illy
ĠG ray
N Y
}. $
ĠBl ock
F ootball
A I
im pl
ĠUn like
Ġcorre cted
Ġcas ual
Ġqu art
ĠSe ven
Ġe ating
Ġover se
Ġpar ity
Ġdo ctors
ĠPl ant
Ġdiagn osis
ĠÃ ī
Ġapproxim ations
Ġtravel ing
Ġrepeated ly
Ġexpert ise
Ġart if
Ġcom ed
\' {
che m
l at
Ġut ter
Ġbeg un
om ed
ut o
ta king
]{ ./
Ġneighbor ing
Ġsym plectic
Ġelim inate
-------- --------
o pp
ĠFl ight
Î ¹
ĠĠĠĠĠĠ ĠĊ
Ġreported ly
ĠD anish
R a
Ġsingular ities
ĠK ath
Ġdep ression
De finition
ĠĠĠĠ ĠĊ
Ġinflu ences
ĠB esides
cell color
ĠA rena
he ro
ĠOper a
M ad
Ã ´
ag ers
F D
Ġinstall ation
Ġp uzz
ĠUnivers al
ij k
act eria
ĠC u
Ġr u
ĠIma ges
Ġ( @
f ixed
Ġvulner able
ig o
ĠS yn
ĠG PU
Ġmoment a
ĠSte ven
Ġt et
pi racy
ĠM ix
B er
00 5
iss ible
12 1
Ġmid field
Ġobs erver
Ġoccur ring
es y
Ġcy ber
Ġprot ests
ist ance
Not able
N O
Ġpurs ue
n amed
ĠCon tact
Ġcut off
T L
ol en
Ġscal ed
R ussian
oth s
ĠMach ine
Ġpair ing
S chool
ĠBang ladesh
it ime
ac re
l ies
ĠT ru
Ġpropos als
Feb ruary
}; \
Ġalign ed
C I
ĠJer usalem
Ġan xi
Ġdiv ide
Ġnucle us
ĠLeg end
ĠT ogether
ĠC hel
ve ctors
ĠO d
Ġunder ground
Ġlong itudinal
P an
e a
im eter
ĠDak ota
L y
Ġin frared
cho ose
Ġan nu
od s
Ġenc ourag
Ġview ers
ĠLeg al
' }(
Ġcomp ound
Ġt ape
Ġball s
J ac
n c
ĠN at
th a
pa per
Ġ( ,
ĠHung ary
$ ^{\
or rect
ĠB rew
cos h
ĠCh ampion
P et
Ġca usal
Ġgra in
)} =\
Ste p
ces ter
ĠAlf red
T ER
) )=
Ġstr at
Ġweak er
Ġgrad ients
Ġdepart ure
ĠL LC
Ġmiss ions
Ġaccept ance
T P
ĠCl imate
Ġphr ase
Ġrobust ness
ĠJ en
Ġt ale
Ġn ut
ĠL ock
s yn
}} )\
n ia
A K
Ġinhabit ants
) <
Ġp odcast
pie ce
Ġv ib
Ġchem istry
Ġhabit at
intend o
bor ne
ĠBroad way
A rm
aw s
ĠY u
S uch
comm unic
Ġphot ometric
Ġdist inction
Ġswitch ing
Th m
Ġm oon
Ġult imate
qu ark
Ġmotiv ation
Ġg amma
Ġe ase
Ġcoinc ide
Ġabs ent
ann ah
Ġrig id
Ġwides pread
Ġins pe
Ġcoast al
ourn ament
Ġres ervoir
oc hem
| }{\
Ġg ard
ĠR ugby
Ġmain stream
ole cular
d est
v ision
ĠMon th
quir y
ĠF alls
ĠComm ander
C re
ĠT ab
Ġloc omot
ĠC PU
Ġent ers
ĠRe ading
ĠT ree
Ġcl othing
ĠHam pshire
Ġactiv ists
Ġgrad ed
Ġlight ing
ĠE mm
te ch
Ġcampaign s
)} ,\
we ek
x ym
S un
Ġst rang
Ġprom oting
Ġemphas is
^{ *}
abil istic
ĠPrim ary
ĠRe yn
ĠS ource
Ġb orrow
Ġactiv ist
ĠG as
f un
ĠM Ps
ov o
Ġvess els
g age
19 02
ĠP hoenix
over ning
Ġ( ),
ov ich
gtr sim
l isted
Ġsil ent
ĠG ate
ĠId ent
ĠRet urn
Ġb unch
ĠCon struction
acknow led
ĠBay esian
ĠPriv ate
ud son
ress ing
Ġlogarithm ic
Ġas ymmetry
): =
ĠCh ron
s we
ĠL isa
Ġsum s
li ers
ĠMag ic
i w
Sup er
G al
const ruction
ĠSe pt
ĠB ud
ĠA ld
Ġcomplet es
Ġf oss
Ġg ym
Ġcolon ial
r brace
s ens
ro at
h ook
mid t
ĠD est
ri en
Ġh ide
ĠArab ia
ĠInd ians
Ġatmosp heric
ex act
Ġ Ä
Ġfl ights
fefe fe
ĠC ome
Ġâ Ĥ¬
ĠR ank
Ġj urisd
Ġsp ont
Ġenem ies
with out
Ġbur ning
Ġp or
ĠBar cel
ir ts
Ġevolution ary
de v
F ore
Ġcred its
ĠJohn ny
ĠR F
ĠC ell
Ġcon vert
ĠMountain s
r arily
ĠL ad
P eter
Ġfor b
ä ¸
ab atic
ĠE ve
Ġimp ose
Ġany more
vol ume
Ġfol ks
mon th
Ġinj ection
Ġ ray
ĠJ oy
Ġmat ched
19 0
K ing
Ġparticip ating
Ġenvelop e
Ġd rew
| {\
fra g
l attice
Ġmod elling
rist ol
Ġland mark
ĠK il
var pi
Ġmanufacture r
Ġvis cos
T ext
ĠK os
In f
Ġshould er
Ġven ues
12 4
Ġinst ruction
St ation
ĠWh ich
Ġv it
] \\
}$ :
Ġqual itative
ph ones
iv ariate
Ã ł
ĠR equ
Ġv ortex
Ġ{ }
C arl
Ġab road
Ġbranch ing
ith uan
Ġearth qu
Ġres igned
Ġb ubble
our t
> $
S il
ryst al
Ġoptim ized
ĠHawai i
Ġdefin ite
as m
ĠGra ce
Europe an
17 5
Ġdisc rimination
ĠCra ig
ĠR ud
Ġt ies
S u
D u
og raphics
)$ $
hen g
re k
Ġass ass
ĠCons ervative
ĠL ess
ĠH R
Ġdes per
S H
G reat
B a
Ġc oding
ĠBen jamin
Ġnon trivial
Ġpet ition
ĠG il
Ġlog ical
ĠO range
n ear
Ġth irty
is o
ĠT oy
ĠF el
ĠTe xt
Ġinteg rating
Ġopin ions
}} _\
ĠO N
og an
atter ing
Ġqu bits
Ġimpact s
Ġinflu ential
load s
re ck
An n
F our
ĠMet ropolitan
Ġp sy
Ġ{ {
S ever
ĠO wn
T im
ĠRob in
Ġno isy
ĠE lementary
p q
Ġess ay
ĠWrit ing
Ð ²
Ġimm igration
ĠC ustom
am ic
q ed
inn ed
diag ram
Ġcomp ilation
Ġp and
Ġall ocation
or bit
Ġ( ;
Ġsp iral
Ġv ar
Ġcharacter ize
u ine
}{ !
Ġatt itude
ĠN ad
s d
ĠG round
Ġch ronic
Ġbrow ser
Ġenhance ment
ress es
ĠA the
e lection
st op
Ġd ated
Ġsurn ame
ac ular
ĠCoul omb
Ġfant astic
Ġstret ch
12 7
Ġri vers
Ġw ond
Rich ard
it ual
ĠPlan ning
xym atrix
H en
}. $$
Ġgall ery
Ġneighbour hood
e eq
Ġdel iber
rg b
Ġapprec iate
Ġincorpor ate
hem atic
ĠF iction
ĠLe ader
ĠSus an
hol m
or ious
under brace
C oll
ĠFreder ick
Ġim per
Ġobject ives
Ġdeput y
sin h
Ġdaugh ters
ĠB enn
)$ }
Ġtem plate
p ay
os lav
Ġking dom
o ons
ĠO k
Ġcon gress
Ġdevi ations
ie ve
r b
Ġd ivid
Ġposs ession
Ġprison ers
U P
algorithm ic
ĠN am
Ġadj oint
ĠProdu ction
Ġdecl ined
Ġd s
On ly
o i
Ġsoph istic
ĠS eg
met ric
Ġachie ving
Ġtw in
Ġdisc ount
re b
Ġpro jections
ĠM ans
vel oc
ow ell
cre ts
ĠK irk
ĠBern ard
ĠK ate
Ġsub graph
ĠBrig ade
pl ac
F ollow
ĠKen ya
Ġpoly mer
dep th
S l
Ġs oc
ĠCarib bean
Ph ot
Ġdelay ed
m d
ĠBl u
Ġfl ower
}= -
Ġaccept able
ĠGl asgow
Ġdifferent ly
Ġmil k
ĠC BS
^ *}
ab ol
Ġw ounded
ĠTh ank
Com put
Ġvolunte ers
att ices
ĠCamp aign
ĠFriend s
e V
ĠComp an
ĠU g
Ġde com
process ing
w right
ĠOl iver
Ġinc ons
ĠV ari
fra id
Ġfore ver
Ġep id
pr im
Ġmod ify
2 10
uss ia
ĠLe v
Ġelig ible
14 4
ik o
is an
r us
ro us
qu et
Ġbehavi ors
f iction
ĠP oll
ĠWe yl
N or
Ġc razy
Ġnewsp apers
ĠS ect
T ake
Ġa fore
Ġn m
Ġatt ribute
Ġvo ices
W in
ac o
colon eqq
om ing
ĠH aving
ĠOrth odox
O fficial
ros so
00 3
M NRAS
Ġact ively
ĠO cc
ĠIs a
asc ular
P H
C ho
Ä ĥ
ag ger
Ġcompens ation
Ġrat ings
ĠTurn er
ĠP L
j ud
ĠLabor atory
ĠV enezuel
Ġtr im
ĠM oney
ĠR acing
mult ip
Ġinteg rate
5 12
Ġrout ine
G O
ĠC old
18 70
Ġpre val
Ġal ien
m ont
Ġreconstruct ed
grav ity
Ġcoach ing
r f
ĠE X
Ġst uck
ric ulum
ĠEth iop
DB LP
Ġrom ance
we ets
ĠMan hattan
2 25
Ġsqu ared
ĠAust rian
cur ve
ĠTr ue
ĠPro perty
C am
n atural
p x
Ġhighlight ed
IC E
Ġequival ently
ĠLie utenant
ous ing
Ġcor ners
ĠWork ing
hand ed
Ġbond s
Ġe ccentric
ĠGi ants
ĠJ ava
ĠN BC
ĠK l
ethe less
ig g
Ġperturb ative
Ġwood en
........ ........
p ublic
ass y
Ġrad iative
Ġf ed
h aw
Ġri f
ĠL ost
Ġpra ised
ĠTam il
T O
le tt
Ġexam ination
at z
ĠV ery
ĠBarcel ona
em e
Ġexist ed
Ġmen u
ĠS ide
- $\
K n
ĠB orn
Ġpo ems
k ens
Ġevalu ating
T ur
ĠP ick
Ġmod ifications
Ġatt ending
C NN
Ġst yl
ĠSt art
Ġsh ield
uck er
Ġcomp ounds
Ġtrans actions
ĠCommission er
e enth
G Hz
Ġl unch
}} }}
â Ħ
3 20
Ġemb od
Ġquant ization
class ical
Ġexplos ion
Ġd ose
ill ance
ĠNev ada
Ġbelie fs
for ced
Ġconf ident
Ġen abled
Ġl ung
Pres ident
b ie
m ir
Ġmeas urable
Ġ )\
ĠN N
irt ual
Ġapproxim ated
Ġagric ulture
ĠS ony
act ing
ĠBe ing
Ġd ots
St at
ash ing
less ly
Ġrest oration
Ġl oves
Ġext rap
Ġp up
Ġneutr inos
ath on
ro le
ol in
ĠB apt
Ġloc ality
Th omas
Ġasymptot ically
ph abet
Ġs hed
Ġturbul ence
Ġdec ides
Ġenc oded
form ations
ĠF ed
S earch
ar us
Ġto ken
ĠD ise
Ġinv ariants
ĠS ad
Ġsummar ize
Ġin comp
Ġmob ility
ĠBe ijing
ĠTechn ical
Ġpre t
Ġper pendicular
Ġr iding
m ill
ĠJ a
Ġdes ert
ĠBre ak
ĠN ord
Ġmist ake
phys ical
ars ity
Ġdiv isions
ob ject
Ġless ons
Ġapprop ri
ĠCons ult
Ġo w
fin als
uk a
Ġdiff ers
12 6
ove re
Ġb eta
Ġcom ics
ĠFig s
ĠF BI
Ġregular ity
ĠR u
ĠZ one
od ium
Ġo ct
ĠF itz
ĠT ib
s g
ĠP rad
Ġsear ches
ĠMur phy
Ġsp ell
ro c
ĠAn aly
Ġbon us
Ġab ilities
}\, ,
ĠLu ke
Ġe V
Ġal arm
+ {\
ah a
Ġneur ons
ĠP el
res ol
O ld
Ġviscos ity
U D
ham mad
Th ank
}} ^\
}) :
Ġexplo it
phot on
ĠS NR
hav ior
ĠA aron
Ġj ew
de pend
Q ue
rem y
ĠD A
ĠAg reement
te es
acknowled g
ĠĠĠĠĠĠĠĠĠĠĠĠĠĠĠĠ ĠĠĠĠ
En t
Ġdriv es
cel and
Ġsus pic
18 95
ĠK on
Ġmanufacture rs
Ġtra pped
Ġtalk ed
g rid
Ġrot ational
ĠC ert
Ġgr ants
ĠComm ons
der iv
Ġutil ize
Ġbatt les
ab ul
> </
ĠC ox
18 99
ak u
18 98
Ġuncer tain
m other
t rim
e als
Ġp owered
Ġprocess ed
Ġcalcul ating
I EEE
P ress
pi res
Ġinc orrect
Ñ ĥ
in terest
ĠW or
ĠM uch
ĠSh ould
Ġengine ers
augh ter
diag onal
Ġc inema
= >
h um
Ġcomb in
Ġceleb ration
7 50
Ġsp ark
Ġcons erved
Ġtrac es
Ġin ert
}) ^{\
Ġindic ator
Ġqu oted
ĠCo al
Ġaggreg ate
Ġvent ure
Ġind igenous
Ġche st
ash a
Ġh ack
Con clusions
Ġinterp olation
Ġgrate ful
Ġt une
Ġdif fe
Ġhun ting
Japan ese
ĠG P
cl uster
cor relation
bran es
ĠP erson
ĠAl ban
ol id
Ġpo ison
Ġsc attered
ĠB asketball
Ġprogress ive
ap or
ĠE lection
I O
Ġoff ense
ĠCarl os
Ġh ref
ĠG rey
osp here
hom ogeneous
Ġe ar
Ġb read
14 5
ĠLiter ature
Ġ\ )
Ġto uc
Ġsub stitute
S che
{ }\
L U
ĠC arm
} '$
Ġsub mit
Ġhard ly
Ġinfer red
St and
ke ley
b os
ĠB ranch
Ġadd itive
W el
ĠSpr ings
Ġout door
M el
ĠSy rian
Ġl ap
rad ius
Ġens uring
Ġcompl iance
ĠP le
ĠL an
rel ations
Ġbos ons
ĠCle arly
ĠL arry
Ġsub div
Ġsk ew
ĠCom ment
ier ra
ĠK rist
Ġover head
cast le
Ġor g
Ġinteract ive
stit u
Ġe cosystem
Ġd ub
Ġspec ify
Ġinv ention
ter ms
uch i
ĠG raph
ta ken
ĠC ov
Ġhom ology
ig ion
Ġaccount ing
ac les
ĠCharl otte
Ġpol es
Ġclot hes
ical s
Ġf aint
ĠHar rison
Trans port
, âĢĻ
ars on
Ġview ing
ĠCl aim
{- }
ĠOper ations
K E
ĠB ird
ĠFac ulty
) _\
hib ition
is cal
Ġreg ret
[ ]
M N
Ġmed ieval
Ġtransm itted
ĠSe an
ĠF ram
Ġconcent rated
cont rol
ou p
on ian
ĠAd vanced
Ġindu ce
Ġst eal
Ġpe er
ĠF r
ĠDef ence
ĠC ole
ent ry
ĠT u
Ġim prison
Ġch at
F W
Ġcyl inder
ĠL ion
it ious
C ity
ak ov
e very
}$ &
Ġill um
p any
t itle
Ġcon g
ĠArch ive
Ġpres erves
Ġcan n
Ġg raphics
ĠNorm an
Ã «
ĠOver all
Ġh itting
Ġscient ist
E ast
Ġin sect
l ag
chang es
Ġhospit als
Ġpres erving
Ġhe m
Ġsl ot
s ay
ĠD ifferent
ĠAn gl
Ġcont ents
Ġdream s
ĠEgypt ian
f re
Ġin ev
ĠL uther
He alth
cl ing
Ġper ception
ĠOper ation
Ġpay ments
Ġcond em
th al
riv ing
Ġactress es
Ġg aps
ĠLem mon
an im
k t
Ä «
M er
c n
Ġmass less
Ġutil ized
ĠCost a
Ġbare ly
ĠB E
par ing
Ġrail road
sc ope
Ġred shifts
B ro
}) ^{-
ur d
ĠD ir
Ġneg lected
Ġattempt ing
}{ .
R F
ĠH indu
Ġar row
ĠRail road
{ |\
L in
ĠMult i
Ġregul atory
is dom
Ġ( âĢľ
id ad
ool s
ĠPer haps
Ġcommunic ate
ĠN iger
Ġexperiment ally
Ġsubs idi
ĠT otal
Ġthere in
âĢ¦ ]
Ġk pc
ĠR S
Ġopp onents
F rank
Ġdi et
Ġpack et
et on
Ġun w
Ġbroad er
b x
Ġp ill
Ġex terior
ĠJust in
amp a
ĠA ra
ob a
Ġre write
Ġdetermin ant
bur st
? )
Ġvirt ually
Ġnom ination
U pd
Ġj ail
Ġappro ached
Ġte eth
ix on
bound ary
ĠS ales
Ġveter an
cor r
dire ction
Ġ\| _{
Ġsynd rome
fe ctions
Ġad op
Ġin coming
ĠNet flix
ĠScient ific
z h
S pecial
ĠDen ver
C r
Ġmot ions
M iss
Ġacqu ire
ĠCat hedral
ĠOrig inal
le ep
un ion
Ġconj unction
Ġwe ird
B usiness
ĠN A
Ġopp onent
ĠMas ters
!! !
ĠK el
Ġg ross
Ġcount ies
il ia
Ġhand ed
Work s
\\ \
Ġse eds
Ġsuccess or
ic z
Ġgl uon
akes pe
/ .
ĠSh a
Ġabund ances
Ġlab our
P erson
Ġrenormal ization
Ch ina
Ġf ate
ta x
}) }{
ĠNaz i
25 5
18 97
Ġfactor ization
ĠZ hang
\, $
Ġrep ly
Ġsat ur
ce q
m und
ĠMe chan
Ġrec ruit
ĠM ak
comp ass
Ġpreced ing
ĠS ymph
fl ux
M ag
Ġarrang ements
Ġp ic
Ġb orders
sur ance
Ġtour ism
Ġlic ensed
abet es
. (
ĠKe ith
Or gan
Ġcontrovers y
ĠM E
}, $
Is ra
ster dam
Ġannu ally
f olk
âĦ ¢
ĠR ing
Ġatta ch
Ġplan ar
Ġlearn s
Ġarbit rarily
Ġm ail
15 5
ĠI de
) )$,
ra pe
ol ia
ĠR av
ish ops
period ic
part y
$ ~\
IV E
Ġsports people
G N
ĠC OM
Ġqu ar
Sp ace
Ġingred ients
l on
Ġc ores
row ing
Ġsimpl ify
ĠL ot
Bl ue
Ġsu gar
ĠMed iterranean
Ġmultiplic ity
Ġaltern ate
ĠY uk
Ġl os
ÃŃ n
O H
W W
ĠArt ist
Ġfre ely
Ġstructure d
comm ut
ĠC V
Che ck
Ġmathemat ics
ĠHung arian
Ġl ingu
ĠG M
Ġple asure
ĠV eter
rosc opy
Ġun ve
15 00
re ens
ĠRoman ia
Ġcheck ing
Ġhuman ity
Ġmon op
ult an
orient ed
Cl ub
ref e
Ġperm itted
ind a
ra h
ĠTig ers
ine e
Ġph osph
Ġencoun tered
L ove
Ġint rig
equ ilibrium
Ġtom orrow
C all
ĠFant asy
e val
Ġconf used
Ġmar ry
Ġpoor ly
be at
Ga ussian
ĠPro f
H F
Ġdevelop er
com parison
18 00
ĠTer ry
Ġanomal ous
Ġen orm
ĠSh aw
p riv
id ency
Ġstreng ths
Ġpark s
ĠWar ner
I B
Ġcomplex es
Ġemphas ize
f m
Ġt ips
Ġinit iated
Ġepoch s
Ġjoint ly
Ġgl ad
Sever al
u art
z ed
MS E
Ġmole cule
b ast
ĠG olf
Ġdisput e
y y
ĠAlex and
. ).
ĠR angers
Ġperm it
Label s
^* _{
ĠF ast
D L
Ġcont our
Ġform ulated
Ġsee ks
ĠB right
Me V
Ġcap ac
Ġan ne
Ġcontroll ing
Ġpush ing
Ġsusp ension
Ġprotocol s
cast ing
om es
ĠR ico
ĠJer ry
ĠW ing
ord ination
ĠB oeing
ore r
system s
Ġpen et
C ross
ĠQu est
ick ed
18 96
Ġm amm
Ġw rest
Ġconvolution al
ĠAl ong
Ġtun ing
ĠIndust rial
ĠS r
ĠSal v
cycl op
elect ron
}$ ~
ot an
c u
produ ction
sur face
ĠW es
ĠC er
@{ }}
akespe are
Ġa uction
Ġsh ore
Ġval ued
ern els
hy dro
Ġcontribut es
inc orpor
ĠArchitect ure
Ġl ip
is ible
ĠTerm s
Ġg est
Ġgold en
Ġsh ops
ĠL HC
Ġmus cle
sat z
b is
Polit ical
Ġcyl ind
ĠTe V
Ġhad n
duc ational
cat en
L ou
Ġcross es
Ġshould n
Ġcult ures
ĠIn v
Ġpro l
ĠBl oom
Ġhy pers
C F
Ġrad ar
Ġcomplet ing
E lect
Ġcompar isons
Res earch
ĠAd m
t ar
Ġn ortheast
s olution
ĠYork shire
ĠW onder
) "
Ġinvestig ating
am ine
Ġde emed
ĠV ent
ĠG ay
ul ates
_{ |
Ġarchitect ures
ĠVin cent
Var id
F ix
b en
Ġd ynasty
j or
ĠWat son
ĠL aura
the ir
ĠV erm
ĠPlan ck
Ġk iss
Ġl ov
Ġlay out
ĠN icol
Ġcoal ition
ĠI o
). $
N a
Ġag enda
L ondon
Ġl ibraries
P V
us k
Ġmagn itudes
Ġimm un
as ia
ĠInn ovation
\ `
r aska
ro e
em a
ĠL ux
ĠP T
\" {
rie ved
on ies
Ġra ys
ri ver
ber ger
Ch ild
Ġg aming
Ġconsequ ently
13 2
Ġroll ing
Ġillust ration
Ġsold ier
G ame
Ġdiscuss ing
= }
ĠLegisl ative
overe ign
Ġbl ank
Ġuncle ar
L ater
i ref
Ġde ck
so le
Ġthe sis
E u
Ġar rows
G T
}\ ;\
hold er
Ġc er
ĠW orth
am ilies
v et
S B
}\ )
d dot
ĠE state
ish ments
Ġmes on
Ġcompris es
ĠC ot
Ġas set
18 60
Ġcry pt
Ġreg imes
Ġt ons
Ġmount ed
ĠD iamond
s it
)$ )
d ied
ĠB aby
ich i
Ġb rick
und le
( "
ĠCl ay
Ġsub stance
Ġcomplet eness
bound s
Ġlux ury
ĠMer c
Ġ< /
Ġimp ression
Ġspeed s
ĠY am
Ġ ),
ĠC hern
ĠCommun ist
ĠS id
Ġsuperv ised
Ġcol ored
iv ic
osp el
L ee
ĠSe lect
st ad
ĠSong s
Ġcolle ges
Ġw elfare
ĠT ol
ĠT aking
Ġinc idents
P riv
ĠI L
Ġpl acing
ĠC ut
Ġint ra
Ġprom ised
Ġspeak s
Ġconv icted
f ollowing
Ġsubgroup s
W il
v ity
ĠMor ning
assum ption
ar ound
ĠSt ri
Ġmag azines
the o
Ġexp ans
ant ine
Ġ$\ |\
ĠG arc
pg f
Ġcol ours
sup set
Ġdisapp ear
Ġs aving
est on
ĠSpace watch
ĠAut o
ĠL O
Ġg a
Ġdec oder
Ġwar rant
ĠB achelor
ipp er
w al
G ener
D s
Ġqu ote
v d
Ġa qu
k ind
Te chn
J ew
ĠK ids
}) +
reg ion
ĠD ig
ĠQ ual
Ġdescript ions
ĠR ural
Ġbut ter
ĠMad ison
b ol
Î µ
Ġf ictional
Ġoccas ions
Ġunder go
] }$
ĠPer ry
j s
Ġmod ulation
dot ted
Ġthermod ynamic
S ocial
ur se
1 19
im et
Ġt orn
ĠT yp
Ġfoot age
ich let
Ġcon ce
e ctions
ĠJ oint
ner gy
ĠH E
ĠFilm s
Ġrelev ance
Ġstream s
Ġp our
ĠM ut
Ġseem ingly
ĠCon stant
ond o
Ġprom ot
Ġn ights
ĠAgain st
Ġcomment ed
Ġorgan ised
Ġorig ins
Ġafter wards
ĠL ipschitz
ĠN an
ĠHe b
is ors
ĠC ricket
Ġconstruct ing
ĠHig her
ĠHor se
ĠR T
b eq
ant ics
Ġche cks
L ocation
Ġaccom pany
AT O
Ġstup id
Ġt ab
Ġf ighter
Ġafore mentioned
Ġact ed
ĠAlber ta
Ġsm ile
Ġw orship
ĠGuard ian
init ial
Ġco herence
ound ing
M ap
ĠS ug
Ġprefe rence
Ġin jective
ilt ration
f ar
Ġfast est
Ġmed ic
ĠD ate
Ġj ury
Ġvic inity
13 6
r ators
Ġas c
to o
qu al
f eld
ID S
ĠB og
scal ebox
Ġ ell
Ġper ceived
Ġele g
Ġhar vest
Ġprepar ing
cur ities
Ġaw esome
f n
Ġselect ing
Ġpro s
ĠG host
Ġeconom ics
du ctor
dou ble
ĠB A
Ġm apped
It alian
Ġbu ck
Ġfall en
C lick
Ġun c
Ġd ish
act or
ĠCon sum
ĠVictor ian
ĠO scar
d ynamics
ĠAssum ption
12 9
Ġegg s
G H
Ġhist ogram
ĠParliament ary
c ir
Ġout break
ĠAir lines
Ġnav igation
Ġsy mp
L ive
Ã© n
ĠMin or
Ġl uck
Ġsurv iving
amb ers
Ġv end
ĠA x
Sh ort
Ġs orry
ĠSer ge
arc sec
ĉ čĊ
ĠT rain
empor al
Ġn ons
bour g
ĠCo hen
ac co
Ġapp endix
ĠF u
Ġle ver
y on
Ġexec ut
Ġt orsion
Ġeng aging
Ġalleg ations
m g
ĠSte vens
ĠF unction
Ġcollect ing
Ġm ock
ĠCam eron
ho e
}\, .
opt im
Ġas p
ĠCamp us
Ġevol ve
Ġin cent
Ġdro ve
con fig
Ġlo ose
z es
\\ [
ĠBe yond
im s
im it
Ġton ight
Ġple ased
h op
Ġimportant ly
itt en
ops is
ur istic
Ġpat ent
ĠĠĠĠĠĠĠĠ Ċ
N ever
Ġa fraid
Ġc ave
pan cy
ĠT ournament
ĠCom edy
d irect
Ġrad i
Ġtradition s
ĠMax well
w s
Ġoccur rence
Ġep ic
pect ives
ĠEd wards
ĠEd ge
ĠĠĠĠĠĠĠĠĠĠĠĠĠĠĠĠ ĠĠĠĠĠ
Ġoutl ined
m ix
Ġgen uine
at om
Ag ain
;" |
it ol
Ġb ipart
ĠAm y
Ġm arch
ĠGre ater
Ġd up
iv ia
Ġconnect ivity
Ġes c
Ġcov ariant
Ġinc hes
P roduction
ĠK it
Ġsket ch
ph al
ĠT on
are r
Ġrecommend ation
ĠSing le
J im
re ach
Ġt elescope
Ġsound track
Ġhand led
l ook
ĠMil an
ĠS occer
ĠM ol
ĠL arge
unt ed
Equ ation
spect rum
Ġrev ised
Ġconnect s
ĠCre ative
Ġp ul
18 88
oper ator
Ġbund les
ĠY e
3 000
ams ung
ĠGu inea
Ġbe ams
Ġbl ame
â ĪĴ
in ced
the m
Ġcritic ized
Ġarriv es
s ame
g auge
ĠK ay
Ġoscill ation
inc inn
or ro
ĠK id
ens ions
Re ception
ĠV oice
Ġbackground s
ĠDef ine
E Q
ĠC F
Ġun e
ĠReyn olds
C ond
bl og
ĠH im
Ġsophistic ated
ĠDra ma
Ġr ated
Se ason
ĠNichol as
Ġsec ured
AC K
Ġcell ular
Ġter rible
ah ler
ĠPalest inian
ĠDemocr at
Ġrect angle
13 7
Ġpl ates
Ġtransm it
Ġdefect s
def ine
),\ \
at ial
Ġbe ating
Ġdef ending
Ġa z
18 85
ĠH at
ic ip
13 4
}) ,\
ĠW ikipedia
H aving
ĠC ob
Ġbo ats
Ġprov isions
Ġequ ity
Ġvol can
ĠB ristol
)$ ;
ĠC ad
)} }\
Ġpresent ing
Ġinspe ction
Ġsp ir
ĠFe ature
US Y
l st
Ġpair wise
Ġatt raction
Ġautom ated
Ġfail ing
Ch apter
Ġdo zen
vent ions
Ġaud iences
h all
ha o
the ore
ĠCl a
ĠM R
veloc ity
Ġir regular
inf o
ĠAb u
os hi
Ġadjust ed
g ap
P ublished
m arg
ent i
Ġpers u
ir s
ĠJenn ifer
integ ral
Ġspons ored
L em
Ġgovern ed
Ġconstitu ency
O l
Ġmyster ious
Ġbreak fast
ĠOtt oman
Ġcal endar
F re
r ceil
Ġtum or
ĠAthlet ic
Ġanten na
ĠT rophy
ĠL ate
ag ar
Ġan chor
Ġsuppl ied
F OR
Ġco arse
Ġgraph ic
iff s
" =>
Ġproceed s
ĠOther wise
pt ive
ĠGl en
ĠPier re
ĠFig ures
per m
Ġrec y
Ġbr ut
Ġke ys
c op
Ġpre st
Gl obal
Ġcur rency
d l
Go ogle
ĠN intendo
T otal
Ġle ak
plac ian
ĠA V
ta ur
Ġturbul ent
h is
Ġim pe
ĠA viation
Ġprede cess
F ace
bra ham
ĠCru z
ym p
e igen
ĠV ic
ol ph
incinn ati
Ġadm issible
im ony
.. /
f erm
ĠF ro
Ġimm une
Ġpredict s
Ġrel ay
Ġconclud es
ĠNe il
Ġpredict ive
b ank
ĠM ong
ĠB io
ĠH ER
ull ivan
13 3
Ġb ishop
iv o
Ġnorth west
em bered
ĠChristian ity
Ġpremie re
f itting
ĠD ocument
b ishop
ĠF ish
)- (
Ġm im
ĠColomb ia
coordin ate
M ot
Ġto urs
'' $
ĠCirc uit
weight ed
Ġm ood
Ġt idal
Ġinteg rity
Ġtra ct
Ġr ally
Ġadequ ate
Ã© t
Ġrun ner
ĠRog ers
Ġwild life
necess ary
Ġaccompl ished
s outh
Ġp ion
ab is
Ġsupp ression
Ġsl ave
ĠMu hammad
18 89
W he
ĠE R
Ġcon fined
ev olution
Al bum
sh ops
Ġed iting
conne ction
00 4
Ġin version
umb ent
Ġimm igrants
.\ ]
r n
he ld
k u
ĠF if
ĠS ent
as is
Ġmetall ic
ĠRich mond
Song s
~~ ~
harm onic
ir us
ĠB ath
ĠF an
ĠN R
ĠV ik
IT Y
ĠSte in
Ġj ournals
ĠBuff alo
he art
| }\
Ġa xi
u cc
av an
ĠB our
const ruct
Ġk ernels
Ġinn ings
ĠCit iz
el astic
Ġth rown
ĠK ol
ĠSaint s
Ġdig it
Ex pat
G F
Ġm os
Ġestim ating
Ġpat ches
ĠS FR
ĠI celand
Ġexcit ations
Ġconv inced
Ġpsych ological
alth ough
Ġdimension less
pl er
ub a
ĠL ud
Ġemot ions
am y
tw itter
Ġcitiz en
Ġevery day
Sm ith
ĠA verage
ĠN HL
Ġl ady
ĠCh and
ke eper
l ceil
Ġc argo
In it
ole an
ard i
ĠLi u
ĠC N
ess a
Ġtriang les
H ig
h ind
ĠTransport ation
Ġconduct ivity
Ġel ite
^* ,
Ġsw ing
al gebras
Ġinteg rable
ĠL INE
}}{ (
U ST
ley ball
Ġpand emic
pan ic
ĠCons ervation
ĠP D
Ġ Ø§ÙĦ
Ġa pert
c in
Ġm ice
Ġun changed
ĠHel en
ĠP H
Ġmon ument
Ġr itual
ĠH udson
Ġrel iability
g om
ba ij
d ir
ĠK r
Ġro cks
Ġspecial ized
Ġarchitect ural
mathb in
Ġz ones
Ġwavel engths
ĠPro t
op al
Ġsubt le
Ġph ones
represent ation
Ġper pet
Ġl iv
Ġhost ing
id ays
ĠR O
16 5
pe red
cl ed
Ġthe at
Ã¨ re
ĠBer g
Sc ript
ĠO bl
ĠM ade
Ġabsor bed
Ġbene ath
ce ut
ĠL ions
et ta
ĠCub a
ĠAd S
Disc ussion
18 92
Ġaut onomous
s creen
18 93
ĠB uild
ĠCont emporary
pl ain
Ġdiss ipation
Ġelect oral
Ġcapt ures
Ġtransform s
Ġshall ow
J ul
Char les
swe red
Ġen abling
j ar
18 94
Ġadopt ion
ut ations
ĠI van
f ac
Ġl obby
Ġt ribute
ĠU E
zer baij
Q CD
ad van
C at
d n
Ġn ose
Ġe ighth
Ġan ime
ĠR ivers
Ġtreat ments
Ġp ounds
Un ivers
Ġtele phone
land o
Ġevery body
ĠRiemann ian
Con tact
ĠRe lease
99 9
ĠF IFA
Ġconcent rations
Ï ģ
ĠV el
Ġkne e
Ġn aval
am o
l vert
de pendence
Ġguitar ist
Ġaccommod ate
ed e
ĠCa uchy
ĠIn surance
Ġsign atures
Ġd ying
Ã ª
ĠN HS
ĠBat man
as ive
ĠA round
ĠB ass
Ġlog o
a ft
Ġred und
Ġd ivers
Ġe cho
ĠEx cell
Ġcompos ers
conne ct
Ġenter prise
ĠC ant
ĠG L
arma ceut
Ġcancell ed
., ][]{
ul in
Ham ilton
) )^
\, (
w oman
ĠM ig
Ġfin als
h m
18 50
ĠD raft
! }
ĠH em
ĠFle et
ĠAm sterdam
Ġver ification
}} -\
Ġsub mar
Ġrepl ied
ĠPar ish
Ġaffect ing
anc ies
Ġoverse as
ĠH unt
ĠK ind
Ġdev ast
Ġqual ifying
Expat riate
Ġrem n
AC E
ogene ity
ĠM ari
Ġapp ar
, +
We ek
Ġflex ibility
Ġcounterpart s
ĠWeek ly
Ġb ay
Ġsh it
r k
ĠIn stit
ĠBre xit
Ġcont raction
sh ore
be it
Ġalleged ly
Ġg overning
ĠCh an
Ġdiv isor
um i
ĠT ed
ĠSl ov
âĢ¦ âĢ¦
T own
Ġ\ %
ins ky
Ġnegoti ations
ĠColon el
Ġimplement ing
Ġin vertible
S yn
ĠR ules
Ġdon ated
Ġhar ass
] _{\
Ġprot otype
R ay
× Ļ
ela ide
Ġrob ots
ĠT i
am ount
Ġor al
ĠSh ar
Ġmind s
Ġsl ower
Ġcatal ogue
Ġstreng the
M id
ounc ill
Ġcred ited
Ġsubstr ate
( (\
ĠStat istics
Ù İ
ĠA w
Ġb anned
pen cer
Ġdu o
Ġp icks
rug gling
b ane
ĠB it
Ġfilm ed
Ġhon our
Ġprem ium
Ġsm oke
un s
ĠR L
ĠL ithuan
f ive
ĠJos Ã©
Ġenthus i
pro file
5 000
\% ,
App endix
ĠC over
cons istent
Ġpe oples
ty p
* }\
a qu
ell ers
t arget
Ġif f
ĠG A
comm on
Ġtra iler
rosso ver
al ong
Ġspect roscopic
Ġscholar ship
Ġ },
Ġcomb ines
Ġback ward
Ġhero es
( );
20 5
Ġide als
g rim
mer c
18 91
ograp hers
ĠA da
symmet ry
T rump
Ġh ung
Ġconduct ing
otyp es
B G
ur ious
Ġanisot ropy
gh ai
Ġb racket
Ġt weet
sec urity
Ġv oid
Th ough
Ġcam ps
Ġfib ers
B ase
Ġsim ulate
Am ong
Ġa est
ĠPh ase
ĠM ann
Ġang ry
Ġanim ation
Ġint elligent
sch ild
ĠB orel
Ġcous in
^+ _
Ġcomplement ary
Ġentreprene ur
Ġag gressive
G all
ĠLl oyd
ups ilon
imens ion
Ġminim izing
Ġlaws uit
ĠR idge
M ur
Ġexplain ing
Ġsh ar
ĠD elta
ĠD ementia
ĠHar vey
Ġinfin itely
Ġen compass
B ay
W E
ĠC atherine
Ġcogn itive
s elling
ĠAst ron
Ġkill er
Ġre ject
ha us
ist le
ĠB omb
I LL
Ġsouth west
ĠY ug
d p
ĠG onz
n one
incorpor ated
Ġprov incial
P rodu
ow der
AC T
$ ]
Ġele ven
ĠSh akespeare
w ig
Ġproxim ity
Ð ´
W atch
ys on
Ġcert ified
Ġser vers
Ġ\\ \
Ġqual ify
Ġelev ation
pro perties
ĠPer u
Ġcontact s
miss ions
Ġren t
ta wa
oc co
ĠH ob
Ġdemand ing
ĠSymph ony
P DF
Ġextra ordinary
Ġjo ins
ĠAgric ulture
pot ent
Ġle pton
}{ -
ass er
Cor ollary
ĠB eth
ĠGh ana
ĠV ision
ĠR V
Ġion ization
Ġfaith ful
K M
c ussion
Ġpeak ed
ĠBer keley
z ens
Ġun success
Ġpremie red
m ot
d b
Ġinfect ed
Ġ$ ^
Ġuniqu eness
associ ated
ĠOak land
Ġbl ues
Ġreson ant
ĠF O
ĠMe eting
\ @
Ġterrit ories
pro j
ĠJ ama
}) ;
Ġconflict s
W ang
Ġt rump
ed ed
ĠM ort
f ollow
Ġdown stream
Ġh orn
Ġv ort
Ġpron ounced
Ġimpl ied
Ġincred ibly
Ġco pper
ĠAr c
C amp
Ġdoll ar
R o
clud ing
b uild
conom ic
Ġste pped
non ym
T aking
Ġcompris ing
r ised
pr ising
in ar
writ ers
sh ould
az i
Ġgather ing
Ġc asc
ess age
Ġbel t
Ġstar red
eps f
Ġspecial ist
air y
Ġassoci ations
.. ...
Ġgeneral ize
Ġtal ented
ĠDe ut
ĠW u
K A
or f
ur st
ish a
ĠRef s
Ġoptim ize
im g
ĠQu arter
Ġnorm s
Ġm g
K im
Ġn ic
Ġtriang ular
d ark
ak ia
dec ay
Ġto kens
ĠPr int
ĠMov ies
Ġfollow ers
C AR
Ġad i
ad joint
ĠAnt ar
R ock
Ġd ressed
au kee
ĠM end
Ġsent enced
Ġexhib ited
Ġan swered
ĠK in
ĠS ah
ĠLeaders hip
ĠM om
ĠR ange
Ġtravel ed
ĠM arl
ĠFran ces
Ġcompet itors
sp ot
sc ribe
ĠS ED
Build ings
ust ers
D er
Ġrid ic
f ilm
ĠMar x
Ġall ies
ynam ical
ĠD rag
ĠSer bia
Â »
ĠNeb raska
ĠNov a
iz a
ĠArab ic
Ġdeploy ment
ĠG Hz
Ġsuggest ions
Com ple
Ã Ĺ
un ting
}- -\
Ġfor um
I ll
Å Ł
Ġam id
Des ign
Ġex port
Ġwork shop
Ġbank ing
aval ry
Ġadvan ces
tagon ist
Ġphot ometry
@ {\
Ġsc ream
ĠS EC
Q L
ĠB ene
is i
)\ ;
ps y
P ower
13 8
ĠM ick
Ġstrong est
Ġquarter back
Ġspat ially
Book s
ĠComple x
M icro
. ][]{
ĠF at
qu is
Ġs isters
ĠT odd
Ġconstit ute
Ġnob ody
ĠMont ana
ĠPhill ips
Ġportray ed
Ġsh ipping
F G
ĠEm ma
Ġrecept or
Ġdomin ate
ĠJeff erson
d rop
Ġch ances
ĠCom merce
Ġphys ician
Ġro ster
f p
Def ine
Ġcab inet
ast ed
Ġer up
Ġup set
ĠN ancy
Ġdesign ers
He ad
ĠI da
Ġm ouse
Ġrel ates
ĠUpd ate
Ġn est
ĠPhilipp ine
ĠSp ot
th lete
ĠK ill
taint y
Ġcomp iled
Ġaddress ing
K a
Ġpres cription
Ġd ancing
ling ton
Ġcha os
ĠLuc as
I X
AN T
I ts
13 1
Ġviol in
Ġmur dered
ĠAd venture
Ġiniti atives
ne red
Ġnot ations
ĠK ap
fin ing
ĠK un
Ġic onic
, $$
ĠF err
Ġassert ion
N orm
18 65
Ġs outheast
ry s
hab ilit
ĠE ug
ur c
ĠImp act
Ġdraw s
Ġdebut ed
ue z
M B
qu ot
ific ant
ĠPro test
Ġport rait
Ġpropag ator
ĠE ston
Ġle an
Ġdist ribut
Ġbi ology
ie v
pos al
ĠBob by
B ill
ke ep
Ġ icon
ĠB ody
ĠS z
rape ut
app rop
geq slant
Ġelli pt
G W
Ġlif estyle
ogen ic
L ittle
Ġoutper forms
ens ely
Ġanalyz ing
m el
Ġsus pected
ĠS ax
ĠN J
Ġf iring
Ġmod est
if iable
Ġmaxim ize
ĠP ent
ã Ģ
Ġt ribe
ĠHill ary
Ġsustain ed
ĠAl t
A h
ĠP RO
Ġsem igroup
ĠDe velop
ĠLeban on
Ġt rem
ĠIss ue
aver age
Ġp ian
ad ows
equ al
Ġb acteria
ĠAthlet ics
Ġland ed
Ġres cal
Ġl ag
ĠE sp
Ġlegisl ative
S at
Ġjudg ment
Ġ& -
ke V
Ġreason ably
J ose
L at
add y
Ġle verage
ob tained
ĠMet al
Sim ilar
Ġ }(
ĠD ennis
ĠM ario
Ġdis sol
Ġsk i
le en
B ob
ĠPlan et
Ñ ı
}} ;
ĠEm ily
ĠF ix
Ġgu ided
ĠNe umann
Ġfra ctions
Ġboard s
ĠJ ar
N umber
Ġdepart ments
Ġachieve ment
Ġpolar ized
ast ing
ore nce
Ġhas h
ach t
Ġprob abilistic
ith ub
p b
ke es
ĠM T
Ġfix ing
Ġspan ning
ĠH ost
Ġconvers ations
... ]
Ġcompos itions
ĠI SO
Or der
am med
Ġanal ogue
Ġl ucky
à¤ ¾
ĠEag les
ĠSD SS
}: \
Ġpubl ish
qu er
ffic iency
Ġbusiness man
Ch ris
Ġre fined
Ġdis orders
Q U
b uilding
s pl
Ġdes irable
Ġdim in
iz ard
c one
Ġt ent
ĠV A
Ġcent res
ĠE D
pt ons
Ġapproach ing
Ġarriv ing
Ġb ug
c ott
ĠB row
Ġsh aped
m ind
ac cess
ĠB ert
ĠStr ong
Ġth rew
Ġrest ore
Ġsn aps
Ġphot ographer
Ġsc andal
b ay
ĠB ear
ĠR oche
Ġco in
Ġd ad
Ġfest ivals
ĠM is
yn man
Ġvolunte er
18 87
ĠH ubble
g iving
Ġn od
Ġfl ed
S ystem
hook rightarrow
ĠB egin
Ġdistinct ive
Ġw ishes
á »
ĠS ale
Ġrelax ed
ĠN ak
Ġbur den
ĠRepresent ative
G raph
ah l
ĠGra de
Ġanalog y
ĠC urt
ĠM N
ĠNep al
st ore
ve ction
Ġprotect ing
L ag
h art
uck land
Ġb ridges
fl ows
n orth
o ided
Ġout line
)\ |_{
Ġpract ition
d v
ĠG oth
Ġpart itions
| $.
ĠCh art
}= -\
Ġpuls es
S to
ĠN one
ĠPrad esh
F IG
Ġsc ar
ĠHel p
Rad io
ĠNash ville
Ġped est
Ġrecogn ised
ĠCM B
Ġfriend ship
ĠBelg ian
ĠF IG
Ġcons piracy
coupl ing
ivid ually
Ġcirc uits
ĠN EW
ĠHoll and
_{\ {
ĠP in
Ġw ars
th us
Ġener get
Ġal phabet
ĠBapt ist
ĠSh are
ĠD eg
w aukee
impl ies
aster y
Ġinter cept
Ġac res
ĠForm er
n b
J ud
L arge
ret urn
Ġst ruggling
ancell or
V R
Ġw restling
Ġmorphism s
Ġdiscre pancy
ĠLINE AR
Ġp ink
ĠB ris
Ġr ice
pr ises
Ġfermion ic
Ġtown ship
ĠCol lect
Ġde cent
Ġkid n
ĠFa ith
ri ft
Ġspread ing
ateg or
ab we
Ġbenef icial
g ie
x pos
Ġreson ances
eg al
E ffect
Ġexp ense
pa ren
Ġsur f
Ġenorm ous
Ġstri kes
Ġf ingers
ĠH az
O K
ex cept
Ġam ateur
E nergy
ĠSu z
Ġle ts
Mart in
D iv
Ġcou p
Ġplace ment
^+ (
ĠLe ave
Ġstat istically
no align
Ġswit ched
ĠVis ual
ĠR A
ĠW restling
ĠA ber
Ġhot els
ĠW ire
Christ ian
pl ant
ĠP av
rol og
Ġindic ation
ĠN athan
Ġgal actic
Ġfunction ality
R oyal
Ġs its
ĠWell s
ther mal
Ġon set
Ġlab elled
20 2
Ġcharg ing
âĢĿ )
Ġdamp ing
chang ing
Ġinvest ments
ĠHug hes
Ġprefe rences
ĠFinn ish
ĠT as
ĠCo ach
DA Y
B ra
T s
ij i
sup ers
M ary
Ġgener a
ĠS old
ĠD anny
Ġprior i
)} ]
Ġrele g
med ia
Ġcumul ative
ĠT ang
Ġblock ed
Ġpoll ution
Ġwe igh
small matrix
e vent
m usic
Ġmem orial
om o
Ġst roke
ĠSo on
ĠFil ip
Ġdismiss ed
ĠTib et
Ġhierarch ical
F ield
Ġev ac
ent ropy
Phys Rev
ĠM W
flu ence
M edia
Ġburn ed
Ġf ool
14 7
Ġf o
pi x
M ike
b racket
Ġmin istry
ĠClin ical
Ġco at
Ġlast ed
ĠHe avy
Ġch ip
Ġassist ed
ĠV ict
ĠTh or
ĠMethod s
aj a
Ġattack ing
Ġemer ge
Ġstay ing
Ġdist ortion
re x
ill ation
Ġh ub
Ġdiscuss es
ĠSoc orro
er ie
ĠBl ake
h ome
k el
gar ia
ĠGl ass
ĠPal m
Ġlift ed
ĠT D
}$ \\
ov an
Ġmin isters
^* $.
f unc
ĠDou ble
19 2
Ġkn ot
imb abwe
Ġsuccess ive
Ġpray er
Ġcomment ary
Ġob ey
ens on
ĠStan ford
{ #
k now
ac a
ĠM ul
Ġbar rel
Ġc f
V V
Ġlock ed
Ġn um
Ġconst rain
ĠE ld
Ġprogram mes
Rail way
ĠS ustain
sc apes
Ġhum or
I J
, '
ach i
rel ativistic
as ta
ast rop
arm s
3 30
ocol ate
or ption
ĠPract ice
Ġspec ification
Ġmicrosc opic
ĠO ri
v dash
y pos
ph p
Rem ark
Ġart work
Ġpre vention
ĠB L
Ġwant ing
ĠS ett
og g
ounc ing
Ġprint ing
Ġsaf ely
m art
al p
ĠS yl
Ġkinem atic
gom ery
_+ $
Ġiter ative
Ġcol ony
Ġsumm it
G rand
Ġplay offs
n ov
b ird
Ġyoung est
ĠN P
ĠV lad
ex istence
Ġfasc inating
ĠMo z
Ġlegit imate
H ER
- )
ĠProgram me
Ġgrand father
\ >
Ġ( .
18 86
ĠE SP
ĠTh an
Ġdo i
Ġax es
ĠB ir
ern ess
ĠSol utions
ag ain
Ġmagnet ization
st ock
v or
ne ut
ĠLiber ty
ĠBor ough
al most
Ġp unct
ĠR osen
Ġfarm ing
ĠD aw
w ould
ose x
flu id
ĠV as
Ġstat ue
vi o
S ym
Ġtri ps
ring ton
ĠSc i
}\ |\
ĠRep ly
Ġb uses
Ġdemon stration
G re
18 61
ĠD od
equival ent
Ġar ithm
}\ {
ut ton
Ġwarn ed
Ġ ).
Ġup grade
Ġbar riers
app endix
ĠAn cient
ĠReg ist
ĠA ve
Ġphil os
Ġsens ing
Ġmaintain s
Ġout flow
Ġb if
us a
Ġra pe
Ġman ages
Ġm ature
Ġtour ist
Ġav oided
Ġrefuge es
Ġch ron
14 8
Ġt anks
umb ai
Ġtrans ient
\ ).
Ġgra ins
Ġcivil ian
ator ies
be ck
Ġdem ocratic
ĠF ernand
Ġlov ely
ĠS creen
ĠA er
) ]{
ess el
amp ire
ĠSt re
Ġsw ord
ĠTr inity
Ġsuperv ision
G overnment
Ġdocument ed
ĠS ox
p it
m r
}: =\
Ġcont ours
Ġtrad ed
Med al
ĠL amb
ĠS alt
Ġcon caten
Ġdesign ing
rack ets
Ġpo ets
B al
m em
Ġbut t
ĠA F
Ġto y
Ġan onymous
av ier
Ġwhere in
Ã Ł
t le
ĠS ob
ced es
Ġannih ilation
d g
ĠTh under
ĠExper ience
ar u
Ġterror ist
ĠCan al
Ġst iff
ĠSh ip
Ġproceed ings
Ġcomm emor
Ġquant ify
Ġpregn ant
part icular
ĠLe o
def ault
ract ing
in j
an cer
15 2
ĠJe remy
Ġdiss ip
Ġb ab
im ates
ĠObs ervatory
Ġgot ten
cons cious
Ġn erv
am pton
plement ation
Ġax ial
Ġintern ationally
ĠStrateg y
Ġexp edition
Ġfilter ing
Ġl iver
ow ards
Ġmodul o
Ġdram atically
van ishing
M il
Ġdefe ating
Ġdifferent iable
Ġdial ect
ĠCh i
Ġ$( {\
ĠTre k
S ta
C OM
ĠC opyright
ĠĠĠĠĠĠĠĠĠĠĠĠĠĠĠĠ ĠĠĠĠĠĠĠĠ
Mean while
ĠRe ed
ic iency
isen berg
in aries
j ournal
ĠY a
ĠB und
T D
rell a
sc ience
Ġbary on
Ġpar a
ĠS or
Ġspect roscopy
Ġn ominations
J P
Ġor chestra
ĠAd elaide
Ġw ard
ĠP or
Ġant is
ĠL ik
Ġt riv
Ġrem embered
S ir
le igh
ai ro
is ch
ĠG ang
Ġdeliver ing
Ġb ills
Ġsett le
14 6
co in
ĠBut ler
Ġc rop
Ġsc reens
Ġrecip ient
|\ ,
Ġtranspa rent
at ile
Ġas ymmetric
Ġsurve illance
Ġchap ters
Ġin complete
Ġsc iences
Ġap olog
g re
Ġamb ient
ĠC I
m iddle
Ġs id
ĠG O
Sp anish
20 8
ĠNetwork s
Ġg onna
ĠForm ula
magn etic
Ġload ed
Ġanticip ated
ĠTr uth
z one
gl ass
Ġair line
ĠN y
Ġimp ressed
rend um
Ġsumm ation
aur us
Ġencourag ing
ĠS ak
18 64
ĠM aced
Ġmon arch
Ġirre levant
ĠPet e
oc ate
approxim ation
ĠMin i
om p
F ar
Ġy ard
r v
ĠD oc
bas is
Ġme al
other wise
Ġsc ra
is se
Ġtradition ally
B ern
Ġd elta
Ġnucle on
). \
Ø§ Ø
ĠS ometimes
ĠCirc le
Ġst olen
Ġplay off
ĠR andom
ĠSu ccess
ĠLin ux
Ġsupers ymmetry
ĠEnter prise
ĠHol mes
S ar
ĠR ule
ĠWhe ther
ĠLu is
Mult i
oc on
ju ana
13 9
Ġactiv ated
Ġcomplaint s
Ġsqu ee
ĠGr ass
Â ·
form ula
l iter
Ġal ert
ĠProdu ctions
Ġworld s
Ġearthqu ake
$ ^\
am ation
Ġtrib es
ĠT yler
Ġfun eral
Ġcert ificate
Ġst unning
Ġvi able
. }}
g ical
st ars
v on
14 3
^* $,
ĠPark s
Ġan satz
Ġweak ness
do es
ĠM ail
ĠQ uality
Ġjurisd iction
ĉ ĠĠĠ
res a
Ġins pect
ĠM az
14 2
ĠB ald
ah an
Ġsu ite
c am
Ġ[ âĢ¦]
Ġlimit ation
ĠD oll
ĠD etails
ĠR uth
Ġlegend ary
Ġ$ %
Ġun ified
enn ial
ĠP icture
Ġcor ollary
Ġall iance
Ġcancell ation
Ġsp acing
) {$\
in z
ĠFellow ship
cyclop edia
ĠCon stitu
Ġcal m
Through out
18 81
ĠBeng al
Ġsil ence
Ġtarg eting
h d
l um
Ġin clusive
Ind ia
we re
Ġelev ated
te enth
Ġacknowled ges
Ġatt ractions
Dan iel
H ouse
Ġhom eless
Ġwarm ing
et erm
l ive
Ġsat uration
Ġaff air
Vill ages
ĠC lick
Ġdest ro
Ġhe x
tz mann
ĠN ine
ent e
ĠÃ ł
ĠConf eder
z hang
ĠO K
pl ots
Ġprocess or
Ġten ure
ged y
ĠI F
Ġwitness es
,\,\ ,\,\
H o
Ġb esides
ĠB irth
ong ue
d B
par a
Ġinc idence
Ġtun ed
Ġwealth y
pp e
Ġfeed ing
Ġed itors
Ġa viation
ĠDe b
Ġattend ance
Ġmuseum s
Ġcricket ers
C G
im uth
Ġpl aus
Ġfluct uation
p her
h orn
v ary
Ġmort ality
ĠWood s
Ġchampions hips
}\ |_{
uss els
ed i
Ġbos onic
Ġnot ions
ĠBi ology
ats u
Ġh ull
ĠY ellow
Ġcontinu ation
ĠB Y
Ġde ce
= $
ĠBet ter
15 4
ol ated
ĠSt uart
Ġmin us
Ġsl opes
ĠArt ists
on ically
Ġhypothes es
ĠC inema
ĠB uch
{- .
ĠH alf
per formance
se g
. \,
\% .
ĠV e
var iance
inc ar
18 84
ĠGa uss
Ġb rig
ĠI M
Ġagre ements
ut ers
}} |
Ġter rif
Ġhop ed
Ġadvoc ate
D id
Ġbad ly
Ġb rane
comb ination
ĠâĢ ł
Ġpain ters
Ġemploy er
Ġst ays
Ġparad igm
ho o
P os
ĠS outheast
ol ine
heim er
Ġdel ays
ĠA braham
Ġacknowled ged
Ġdec oupl
H aw
re a
ĠSch r
Å Ħ
ĠCor p
Ġlink ing
c v
Ġchalleng ed
Ġz eros
Ġbin aries
Ġinv al
it ic
Ġf atal
ĠMun ich
Ġal tered
ĠC ould
Ġincre ment
}) }{\
18 82
Ġind oor
ĠF ollow
ĠL oss
comp are
Ġrandom ized
Afric an
t im
Ġdiff use
ĠComp etition
n p
ĠB un
cont rolled
ox ide
ĠH i
vers al
Ġconcer ts
00 6
Ġun ions
Ġaccording ly
ĠW A
Ġback ed
=\ !
Ġmart ial
OR T
ĠV ersion
Ġmodul us
}} %
Ġlens ing
p al
Ġpass ive
Ġartif acts
ĠSh op
in ality
de velop
We b
J on
J ournal
ï ¼
Ġwe aken
[ ]{
Ġr iders
Ġsimultane ous
Ġf riction
ĠA zerbaij
Ġcor on
ĠCl if
ĠMathemat ics
bro ok
Ġign or
ck e
Ġres um
perturb ative
Ġtrav elling
Ġflo ating
15 6
G od
ĠH ub
ĠDel aware
Ġsl ice
nod enum
00 7
ĠPubl ished
Ï ĥ
ĠLet ter
bo ys
Ġconstitution al
Ġque ue
Ġsp ite
bas ic
{ -\
Ġcal ib
}}{ {\
Ġwor ried
eg er
k an
Ġfrag ments
Ġmake up
Cent ral
R equ
ĠDir ichlet
28 0
Ġpat rol
ff ield
] ,\
un ov
ĠO w
o S
l ater
ĠĠĠĠĠĠĠĠĠĠĠĠĠĠĠĠ ĠĠĠĠĠĠ
P ad
Ġc inem
c ro
con c
ĠL is
ĠAssoci ate
} ''
Ġmanufact ured
ĠB ach
Ġind ividually
Ġsoci eties
Ġast ero
× ķ
ĠL ac
Ġal umin
H uman
int rodu
ĠL ex
Re cently
k al
Ġparliament ary
d c
H ot
i ov
Ġtravel s
Ġf ighters
Ġfood s
en ius
ĠGro ve
Ġs ax
26 0
rol ogy
ĠM ills
ry ing
Ġhang ing
ĠRep orts
m un
r vert
à ´
st own
gener ation
obs erved
ĠR C
Ġpregn ancy
Ġtre ating
The ir
Ġeditor ial
with in
Ġcont amination
v ideo
Ġd ys
B on
Ġhon ors
pro ved
R en
c ot
ĠH ale
co e
Ġmag ical
Ġconscious ness
ĠS ierra
Ġnom inal
ĠS ure
Ġgra phe
Ġdro pping
Ġl attices
ter min
Ġm eth
Ġse vent
Ġt ar
ĠJ in
ĠT es
out put
Ġisol ation
Ġthrow ing
Ġp c
ĠCom mercial
Ġcontext s
Ġsculpt ure
' _{\
ĠG y
ĠV a
Ġs ne
Ġtheorem s
ĠP ul
cond itions
Ġhistor ians
ist ency
Ġafford able
t v
Ġcon vey
d m
ĠAthe ns
Ġinnoc ent
ĠInt el
Ġnon negative
Ġmon ster
Ġsl aves
Ġdomin ates
ia z
.\ ,\
Y M
ĠPlay ers
ĠVenezuel a
Ch inese
Ġac ute
Austral ia
ĠWall ace
Ġs lic
Ġs addle
ĠA part
Ġpe cul
Ġoverwhel ming
)}\ \
ĠG ov
ring e
ol ition
Ġbott le
u ating
ĠC incinnati
ĠA U
ĠE volution
ĠEvery thing
at ra
ĠG ilbert
ĠTerrit ory
ie u
Ġaddition ally
oc c
Ġcl arity
Ġsimilar ities
Ġm ath
ĠInt roduction
}^ -
t rain
Ġsub script
Ġend emic
et ti
Ġper cept
Ġemploy ing
Ġcart oon
) *
Ġfl our
V ir
ĠâĢ Ŀ
Ġcomm ands
ĠMod els
t x
ĠEd die
roll ing
Ġorig inated
ĠWild life
C hen
Ġassess ed
$\ %
ĠMus ical
' +
el ia
ĠM B
pred ict
omorphism s
ĠRe cently
ĠIndepend ence
ar re
eng ine
Ġpick ing
ĠH ousing
Ġdo ct
u ilt
Ġmunicipal ities
ĠWork ers
ĠDe al
h im
ĉĉĉĉ ĉĉĉĉ
Ġn il
ĠPro file
Ġsupers ymmetric
Ġcha otic
ĠTh ink
Ġsatell ites
Ġpredomin antly
d ig
Ġp ale
ĠArn old
prop ag
Ġodd s
ĠL oc
ae v
Ġadm ission
Ġreflect ing
Ġd ining
Ġcur riculum
ĠLeon ard
ass o
row ave
18 5
Ġl ane
Ġdoub les
ĠSum mit
ĠR alph
Ġgard ens
s ig
un i
ĠShan ghai
g ithub
Ġacceler ated
Ġbuff er
L ab
c od
ur red
ĠQu antum
Ġanaly tically
Ġaffili ated
Ġo kay
Ġas h
Ġv ibr
ĠCh oice
scal ing
ĠG amb
Ġquad rup
Ġavoid ing
ĉĉ ĉĊ
osoph ical
ĠP eng
ple t
Ġhad ronic
Ġr h
Ġpar abolic
Ġcur ious
or ic
com pos
r ors
Ġco ins
Ġpat ri
Ġp orts
amet ers
roll er
sq cup
Ġpost ing
S n
Ġmer ch
Â ½
en os
ĠTo o
Ã³ w
u ate
Ġvol unt
el o
and o
ĠHar bor
IN T
Ġstat istic
dimens ion
Ġto ll
ĠE sc
triang leq
m any
Ġpsych ology
AR D
Ġforgot ten
Ġe arning
ĠE ye
act ory
Ġident ifies
Ġh ire
16 6
Con ne
l it
st ret
yl an
Ġw orn
ĠPen insula
Ï Ĥ
abul ary
ĠVerm ont
15 7
Ġbi ased
Ġem itted
h p
Ġtour ists
Ġsho es
U se
ĠSand ers
Ġjust ified
Ġtermin ology
Ġsurprising ly
b rand
ist ani
T F
Ġbe aring
Ġs ink
Ġpres cribed
ill ary
ĠGener ation
ĠIn side
bi ased
K O
ra ising
ĠH amb
Le ague
Ġrock et
Ġappar atus
Ġshe af
Ġt ap
m icro
Ġrec alled
L ink
ina e
ĠSc ar
ĠP O
L ow
Cle arly
s or
Ġb ij
ut er
til ity
Ġpil ots
ĠSud an
ĠAP I
Ġm anga
)\, ,
&& &&
ĠK ash
o j
y u
sc ore
ĠAb bey
ĠPar ad
Ġevol ving
us hes
d ocument
IF AR
gener ated
Ġan ger
ĠF oster
Ġvacc ine
Ġun em
Ġincorpor ating
Ġres erves
18 78
ĠSh adow
Ġf ires
Ġfro zen
k ip
Ġprom ises
Ġoscill ator
F rance
T ri
Ġsubsidi ary
ĠA uckland
P ass
ĠT ask
Rep ublic
Ġbreak down
( '
W ind
14 9
il o
Ġadi abatic
ĠInvest ment
Ġanisot ropic
Ġmist akes
ĠCommunic ation
Ġa u
ps frag
ĠR isk
xt on
Ġcon form
Ġcook ing
ĠAd ditional
Ġclean ing
anc ers
ĠVal ent
Ex pl
Ġarch ive
b v
math rel
ĠR ather
Ġsur jective
ib n
ĠWe ather
. }.
od ore
ĠNor folk
/ {\
ĠB ag
ĠS pencer
T our
ynthe sis
Ġab bre
mb f
Ġtransl ations
Ġc attle
Ġapert ure
ĠX box
Ġthr iller
S om
[- >
check mark
22 4
Ġf idelity
N AS
Ġcombin atorial
Ġbe ings
Ġsing let
Ġdocument ation
U I
16 7
^* )
ĠC riminal
Ġanth rop
P rior
p olit
O p
ber y
ĠTreat y
a very
ig ue
Ġfoss il
Ġcomp elling
elling ton
Ġsup erm
ill es
ĠBudd hist
es ters
Ġsav ings
Ð ¼
16 8
ĠRes taur
Le ave
Ġmed als
S ep
Ġcou rage
ĠT E
ĠD ale
ag i
Ġper ipher
mark et
Ġcollabor ative
amp ed
Ġshel ter
ĠBenn ett
Ġw age
ĠPhys ical
ĠTit le
D om
ĠYan kees
id y
us c
n al
Ġcre atures
ixt ures
6 50
ew ay
CD M
0 10
ĠVen ice
s al
Å ¾
Ġviol ations
ĠLe eds
ra ment
ress ions
Ġtempor arily
14 1
Ġcre am
Ġdevelop s
over rightarrow
Ġ= >
L ead
as ympt
min ster
ĠU ser
Ġprevent ing
ĠColl abor
ĠN L
S aint
Ġtechn ological
Ġfle w
N i
^ -\
sche me
Ġexecut ives
Ġp ig
Ġins u
Ġminim ization
V A
Ġsh ame
Al tern
se lect
pr inc
Pro v
# #
In terest
ĠIm port
Ġsevere ly
ĠChap el
ĠM iles
ole v
ĠIn stitution
erv atives
Ġom itted
Ġmed i
arr ass
Ġhal os
bal ance
Ġtox ic
rac es
Ġk g
ĠHeb rew
sp ring
Ġc ad
= [
ĠCont ent
18 62
Ġtag ged
17 4
v ac
ĠM ob
ĠHall ow
I ES
ĠA ctor
ĠTechn ologies
B rown
ĠCond ition
Ġs overeign
an ch
Ġpract ically
Ġyield ing
Ġgraphe ne
Ġpredict ing
ĠF ashion
Y oung
Ā Ā
18 63
sing ular
Ġdec oding
$ _\
Ġre finement
ou x
Ġv ig
bre ve
s chool
Ġsimplic ial
Ġcar riers
ĠCroat ia
ra ctor
$ {
Ġreg ards
dra wn
Y eah
Ġep it
W al
t g
Ġgain ing
Ġp ist
Ġaccommod ation
Ġchar ter
im en
ĠN othing
Ġport ions
Ġrac ist
16 3
W ater
ort ing
it an
Ġreg iment
Ġspl its
scal ar
ĠK lein
exp ansion
am on
Ġh int
ĠH ugh
Ġcom merc
Ġcro ps
Ġch icken
Ġsu ited
' }{
Ġn utrition
ĠF o
H ard
ann i
M u
ĠS oci
Ġg ig
S pect
Ġd rain
Ġpat ron
W ashington
ĠW ag
sk a
Ġf ron
18 83
Ġexp enses
ĠJul ia
ĠFl ash
A BC
h agen
ĠM aking
s ided
ĠMunic ipal
ĠR oth
p ine
ĠC ou
Ġtrig gered
Ġsubm ission
Ġaug mented
ĠOt tawa
ĠC raw
Ġhad ron
ĠBro s
ĠK illing
X Y
Ġshow er
Ġexpl ores
ĠMarc us
) }}{
EN D
ess ment
S V
24 5
He y
as ury
Te am
ĠD rum
uls ive
Ġret reat
Ġcon greg
Ġast rophys
, [
Ġl on
hen ce
ink owski
resol ved
ĠGard ens
itro gen
Ġconfirm s
r ational
}^{ -\
Ġde alt
Ġconcept ual
ine es
Ġj oke
Ġ[ [
)} +
Ġbroadcast ing
ĠYug oslav
ĠHar per
v ir
ĠL E
ins ki
ĠGreg ory
Ġestim ators
ĠPhil osophy
Ġtend ency
ĠW ould
big cap
Ġse cular
ĠSp ider
ĠD L
les h
che l
ĠB rain
Ġcirc ulation
Ġc ube
Ġsem antics
ĠAdm iral
ĠT at
am as
Ġtrunc ated
ant om
Ġsub stitution
ĠOr lando
Ġown s
Ġcomp rised
Ġpost er
ĠS weet
Ġtransl ate
ĠBan ach
ĠB ent
ah u
Ġmet als
sh own
ĠAn imal
Dist ribution
V an
on ormal
Ġ= &
Ġplanet ary
f ix
Ġpric ing
Ġaltern atives
23 5
ĠTh ai
ĠTom my
| ,
15 1
Ġinher ited
Ġin ad
ĠR G
ĠHit ler
In stead
L AS
Ġm ines
Ġex empl
Ġcondu ctor
Ġc ree
res on
conver gence
ĠS ultan
Ġgovern ance
uc he
ĠV ar
are a
k ed
Ġspect acular
Ġ\ ,\,
im o
Ġbul let
Ġdisapp eared
Ġlater al
reg ation
ĠĠĠĠ ĠĠĊ
Ġgirl friend
H u
iz za
ĠO z
De ep
15 8
Ġarithm etic
T erm
Ġbound ing
Ġtest imony
Ġhand ful
ĠSer bian
Ġass ists
Ġadv ised
Ġdis p
15 3
ĠC IA
ĠM ine
ĠNew castle
tra ce
Sc ience
Ġanxi ety
av g
friend ly
'' '
Ġrac ism
ract ive
Ġdepict s
Ġgradu ating
s v
Ġc rossover
on ics
] =\
ĠB ak
ĠK umar
ĠH ab
ĠK as
ĠPref ecture
ĠRes erved
ĠKe ep
Ġcur ved
ĠS V
W alk
Can ada
Ġr ic
Ġsp anned
ĠNe uro
Ġpur ple
ĠP rison
Ġspace craft
un ed
as ures
cl ock
Ġab oard
v oy
Ġcount ed
ĠR aw
Al umni
ĠR ena
Ġresearc her
Ñ Į
it ations
18 76
Ġst om
Ġed itions
Ġw ore
AS E
R NA
ĠN otes
c aster
Ġfurn iture
Ġp ocket
Ġn inth
Ġarg ues
ĠEx amples
Ġmiss ile
Ġjournal ism
est imate
Ġj e
=\ ,
Ġchar m
label ed
isc her
ĠFl orence
}{* }{\
C B
F E
ĠSch warz
ad j
ie re
Ġcor n
ĠCong o
ĠChel sea
Ġneighborhood s
n at
ĠM ORE
Ġmer gers
ook s
Ġinaug ural
F unction
Ġaccess ed
Ġ á
T yp
ĠVal ue
deg enerate
ĠA ub
Ġent angled
Ġed it
Ġpath way
Ġbank rupt
Q A
Ġshort est
Ġh oney
out ing
Ġcl ause
SS M
Ġlat ency
ĠD S
\ ),
ĠNorth west
Ġdetect ing
ĠThrough out
y outube
18 79
che t
Ġreveal ing
Ġfif teen
Ġf iscal
Ġpro gen
Ġim perial
)= -
St ring
Ġh ills
ĠH av
15 9
Ġdo zens
ĠMah ar
), $
Ġren owned
ma ps
Ġf ru
ol ence
Ġl un
Ġbuild s
Ã¼ n
ĠAr ctic
Ġf ier
Over view
Ġhistor ically
Ġcourt esy
}=\ {
Ġcosm ology
8 50
on ential
Ġaccept ing
Ġwhe els
cm d
ĠP rec
Com bining
ĠR ice
Ġtoler ance
Ġsepar able
Ret urn
ĠMunic ipality
T B
Ġpull ing
ĠLear n
av ailable
ark er
Ġpr ide
he ll
Ġdivor ce
Ġprof ound
Ġgra ve
ĠProduct s
b ands
com fort
im edia
tabular newline
Ġrele asing
Ġexpon ents
k pc
ĠM atch
ĠZ imbabwe
ĠAm endment
Ġre wards
Ġg amb
ĠL ov
)} +\
Ġsc rew
li u
ĠInit iative
Ġrun ners
ĠCour se
ĠM ull
Ġf ame
online cite
Te ch
,\ ;
Ã ¦
ĠSt ream
ĠRod rig
Ġdiscipl ine
oy le
)^{ -\
ĠW R
Ġv iral
Ġexceed s
t ask
m ons
Th ird
Ġpun ishment
Acknowledg ements
Ġarc s
w ent
ĠHer bert
Ġcru ise
Ġor che
Dire ctor
Ġgl obe
Ġcat aly
in as
ar ab
ĠEm ploy
leg raph
ĠIll ust
Ġsurviv ors
ĠP and
Ġmer ge
ĠHis panic
Ġsymbol ic
Ġbe ars
ĠHer z
% ),
}) \\
Ġhe aling
al in
c ock
ĠA A
by e
Ġlo ans
Ġattack er
ĠK err
inter action
Ġinter change
ĠL ED
f c
Ġprodu ctions
j j
ĠF W
Ġspont aneous
in ery
ok o
2 12
ĠJ ung
\% )
Ġmer ging
old er
ris k
18 75
ĠSpe aker
ĠE ight
old ing
ĠUn til
ĠC oun
Sing le
ĠSing les
u ons
cy l
wh ose
ĠL R
F il
d ict
36 5
En ter
}^{ {\
cer pt
Ġcomputation ally
Ġsh ifting
N F
P age
Ġpres ervation
Jew ish
ĠAud io
prob ability
constra ined
Ġfif ty
ĠGab riel
)$ :
ari um
Ġcomp ass
Dem ographics
ĠApp lied
Ġdis abled
Ġemer gence
ĠA bs
ĠSur v
Ġab ortion
ed ges
d al
d iamond
p ublished
Ġdegener acy
Ġman ually
w y
Ġan ch
ĠN ATO
Ġenjoy ing
Ġpack ed
{ +
ĠC ay
ĠChe ster
L B
Ġpos es
Ġres ur
im an
ĠA u
Ġprof its
Ġemp ire
ĠEag le
ĠM umbai
ĠClark e
ĠR ah
18 71
Ġtens ors
Ġtor que
)}{ (
C ong
th ird
Ġcryst all
Y S
Ġbeh ave
re ma
ĠD NN
Ġfl ip
ipl inary
Ġke en
Ġless er
product ive
i ya
ĠS amsung
iss ues
Ġre written
Ġinter fer
Ġutil izing
it us
ĠEmer gency
ĠLa placian
be am
AR S
y ang
Ġque en
Ġimp lying
Ġmorph ology
spec ies
Ġadvers ary
ĠA ri
M ex
H and
H K
Ġexc av
ĠDisc overy
ĠAmb assador
Ġload ing
Ġtranspa rency
Ġline up
ĠHe aven
Ġam en
ĠR if
ĠRe form
Ġexplan ations
ĠA LL
ace ae
ĠUg anda
ph on
Ġdepend ency
Ġemail s
ĠMot ors
Ġche ese
Ġj umps
Ġwork shops
Ġpack ages
ĠEconom y
ab ases
f iles
k j
Ġra ises
ĠDat abase
ign er
ĠÂ ±
ĠBul garia
sen al
P ac
ĠPo etry
Ġrefe rendum
ĠAv ailable
ĠG B
ov ic
Ġprop ri
È Ļ
ĠB rid
Th ose
Ġ$ +
ĠN u
Pro ject
Ġex otic
Ġsal ary
Ġc ens
rag ue
ĠR us
Ġwid ths
!! !!
is he
ĠT X
l ia
ell ows
Ġen force
=" #
;\;\ ;\;\
5 50
oc o
Ġbi ography
ĠGu ild
ĠSw an
plan es
Ġcab in
Ġalt itude
Ġt ired
P ut
um ble
ĠRoman ian
ĠPal mer
Ġsustain ability
Ġpal ace
g ender
ced ure
Ġsett lements
ĠT rad
L ight
Ġdel ivers
Ġrig orous
Ġw isdom
ĠS I
ĠS qu
Ġbas elines
ĠSw ift
Ġh iding
Ġper cussion
Ġro d
ĠPop ular
Ġelabor ate
Ġl ighter
ess ing
ĠMont gomery
ĠGerm ans
in us
ĠHallow een
P b
Ġcomm od
rest rial
m us
eg u
ĠJ ob
Ġsy nonym
spect ral
M aster
ĠG az
C ON
Ġblock chain
Ġdegrad ation
section s
elect ric
Ex amples
z hou
lim sup
inter pret
B razil
w yn
Ġth ir
00 8
pro gram
Ġmac ro
rot ate
Ġtrem end
IS E
Ġexclud e
commut ative
ro ot
ll ll
E vent
em ption
Ġincl ination
Ġgra ce
ĠW E
Ġp iv
Ġsm oking
ĠM illion
ĠTour ism
^{ '
ian e
ie ce
ĠD ame
Ġto uring
Ġsatisf action
Ad ditional
be fore
Ġsup rem
H i
Ġmultiplic ative
T W
ac cept
ĠPer iod
Ġlack ing
in cre
Ġc ache
Ġprec ip
er red
count ry
le ges
Ġcor pus
U B
group s
ĠL it
ub le
Ġclass ify
ag onal
An alysis
Ġsent iment
ĠJ up
produ ced
ĠCond itions
Ġless on
Ġloc us
Ġp orn
}$ };
With out
ab c
ange red
c ia
Ġc ig
ĠVol unte
ĠDise ase
ĠHop kins
Ġstrugg les
Pl ace
uis ine
B ad
un ivers
Ġhypers ur
ĠW H
Ġjust ify
ĠMichel le
ĠJess ica
18 40
3 70
multip ut
l c
Ġnerv ous
il inear
ch air
ingu ished
ĠIsa ac
eg el
ĠKa ren
ĠN urs
ĠOther s
est e
ĠRet rieved
Ġfore ground
ĠMater ials
And rew
Ġs orts
us on
ĠBer ry
ur as
ĠSe bast
Ġparamet ric
3 75
al go
Ġachieve ments
M ah
ĠY ale
F red
ok u
18 68
Ġtrust ed
Academ ic
{ %
import ant
Ġb icy
in vest
Ġposit ively
ĠS uff
Ġle x
c orn
ĠJo an
ĠGe or
ĠC B
Ġ{ (
Ġvirt ue
ĠN uclear
Ġperm utations
ĠMil waukee
Ġbre eding
ĠApp lication
g art
ĠJ ake
ON E
Ġadvert is
n othing
leg iate
any on
pl oys
Ġess ence
Ġpra ise
ĠChem istry
ĠÃ Ĺ
ĠG rad
ish i
Ġcapt uring
Ġg ly
ĠB anks
ĠFran co
Ġprevent ed
az y
at im
Ġr ises
ĠFour th
Ġout going
ĠCol in
ĠH appy
St r
ut a
m ans
C W
ll a
Ġaug mentation
) )}
Ġto mb
pre ced
ĠO P
t uning
Ġdemand ed
ĠP ink
ĠF P
Ġg aug
emph is
ĠS ym
ak ar
Ġmin eral
Ġdef ender
Ġemploy ers
be cca
$ /
ĠE W
Ġkill s
@ {-
Ġare na
Ġde ple
ĠR ams
Ġall ocated
in ous
18 72
ĠH us
ĠCh arg
Ġtimes cale
Ġsuperconduct ing
C K
Ġnews letter
found er
Ġc ra
âĢ¦ âĢĿ
Ġdon ations
rid or
ĠD y
Ġy eah
Ġren ov
ĠP rest
ĠI BM
eg an
he alth
ast ics
yl on
' :
ĠC W
18 77
Ġden omin
qu bit
Ġ= =
| <
im er
Ġdis advan
Ġsub spaces
Con f
], [
ĠPalest ine
ĠMan ufact
Ġimm ers
20 4
I mp
i ens
re nder
ĠL S
Ġann oy
ĠH app
trans ition
os ity
Ġgu ards
Ġelectron ics
ph or
ĠT ell
Ġse crets
Col lege
} <\
ĠT all
Ġpa ired
ĠBrook s
Ã¡ s
orne ys
Ġrect angular
Ġinter faces
ĠR R
ĠAng els
Ġin fections
Ġop acity
ĠM ale
Ġtext ure
Ġoccas ional
ĠDer by
Ġen larg
Ġvis ibility
ĠPan el
ĠBris bane
_* $
ĠLe vi
pl ates
Ġl ob
Ġre forms
sw ick
ĠDen ote
Ġs i
n ut
Ġd ump
Ġathlet ic
ĠShe riff
Ġfarm s
Ġmer chant
Ġqual itatively
Ġmut ation
sum mary
ty pes
Al gorithm
Ġparticip ant
ĠJul ian
hel m
Ï Ģ
Ġdecor ated
ĠAl pha
ĠColumb us
imod al
ĠAh med
ĠZ ero
ĠHe at
Ġ& =\
Ġart illery
ĠC ool
Ġbipart ite
sp here
p se
is ure
h istor
Ġindic ators
Ġcomm ute
charg ed
ĠV illa
chie ve
ĠG or
}} [
18 73
ĠHar old
ran o
ĠPlay Station
Ġre un
Ġf ears
Ad S
20 3
ask at
hed ron
Ġcomp ares
HT ML
z ig
habilit ation
av i
Ġemb arrass
ick et
2 17
ĠP ain
1 200
pm od
Ġfavor able
Ġelder ly
Ġb en
Ġcare ers
Ġpresum ably
M ill
ĠRe cent
ĠV eh
Z hang
Ġment ions
sh i
ĠLind a
\ ;\
approp riate
C ard
ol ith
Ġconcent rate
ĠDou g
Ġsystem atically
ĠSt yle
Ġa thlete
oll o
graph s
Ġprogress ion
ĠInvest ig
J eff
Ġ... ,
-\ !
Ġcomplic ations
18 67
UR E
ĠPeters burg
ĠAngl o
Ġle ather
ĠK or
ĠLet ters
clip se
Ġsol ves
ĠCompan ies
Ġsm oot
_* \
z el
az ar
ĠIda ho
e lement
ĠR ush
ĠConcer t
Ġrecon c
it he
Ġim posing
Ġmer c
Ġdi abetes
) }^{
i q
ĠR ac
pl ess
n ick
Ġmonot onic
ĠCele br
Ġf ut
sm ith
Ġsched uling
ĠDes ert
ĠG and
Ġsp heres
Ġen rolled
play ing
ĠB O
B ound
Ġb ones
Ġpecul iar
B esides
ry ption
Dep artment
c amp
Ġdiagn ostic
ĠR GB
Ġpar as
Ġblock ing
A x
p seud
Ġat ten
S und
Ġround ed
cons ider
re leased
( |\
Ġbeat en
m orph
20 6
ĠW ant
os i
b ys
Ġb rackets
Ġsport ing
zy me
is ory
m ology
ĠAcadem ic
ĠKn ights
Ġmanip ulation
ĠK i
Ġpop ulated
om al
Ġnation wide
Ġf are
Ġprest igious
IM E
Ġinsu fficient
ĠK yle
Ġfilm ing
p ent
ett es
Ġencoun ters
)\, .
ĠBro ck
L os
et e
ĠM ik
ĠE S
Ġmore over
l ined
it ars
ĠP apers
tikz cd
enc ia
ĠComple te
Wh ich
Ġauthor ized
Ġfle e
Ġescap ed
Ġcondens ate
ast ro
ĠDown load
Profess ional
H ung
hig her
Ġthr one
P y
ĠMc Donald
Ġsuscept ibility
Ġp upp
Ġfail ures
ol an
ĠPun j
B ER
ĠR AF
Ġaz imuth
ĠH ess
m ut
ices ter
} &=&
Ñ ĭ
ĠH arm
Ġclass room
Ġcreat or
ri ans
ĠRe id
]{ $
Ġball ot
c ategor
Ġpropag anda
18 74
Ġrif le
2 15
ĠBy z
ĠHer ald
Ġst ones
ting ham
R un
Ġsome body
Ġtact ics
Ġvisual ization
es pecially
Ġcl an
ĠG ross
Ġce iling
Ġviol ated
i ological
App ro
Ġl ib
ĠðŁ ĺ
c ity
ov iÄĩ
Ġinv ented
ĠO g
Ġdr inks
Ġ* /
Person nel
C ritical
pr us
F ort
Ġretrie val
Ġf iltration
ĠObl ast
Ġsl avery
}}( {\
Ġmut ually
itect ure
ĠBry an
ma jor
22 2
Album s
pro perty
bal anced
ĠBrad ley
Ġb ump
ĠSl oven
te am
at ible
ĠGra duate
Ġg y
ox y
ott i
bor o
m ac
J oe
ĠD raw
ili ation
Ġeigen states
im als
ĠEll is
Ġport al
Ġco ordination
oph one
Sm all
Ġmonot one
Ġt ilt
Ġw orm
Ġobst acles
fill ed
Ġwitness ed
Ġreprodu ced
Ġre ass
ĠT M
ĠConstitu ency
Ġt ears
be k
Ġinvest ed
3 40
= &
Over all
ĠðŁ Ļ
K B
Ġc iting
At l
ric ting
ine q
ĠF erg
Ġgrad es
Ġl iability
18 4
ĠO wen
Ġup load
Ġsmart phone
i pt
Ġexec ute
Ġst ocks
ĠBroad casting
Ġveter ans
Ġform ats
ba um
Ġcle ared
Ġd ash
og on
rob enius
e lected
ĠL ands
ĠHe ights
... ,
ĠPl atform
Ġc rimin
Ġout s
_* (
Ġgod s
}} }(
Ġinstitution al
Ġi OS
ĠW alt
18 66
ig rant
ĠCom b
Ġperform ers
Ġstreng then
Ġpers pectives
Ġw ound
Sp in
Ġemb ry
if fe
ĠG OP
ĠV R
ĠInd ividual
Ġdemonstr ating
Ġsuggest ion
Ste ve
ĠKaz akh
Ġpers istent
en o
Ġd z
Ġro oted
ĠBa iley
W estern
t abl
)+ (
g io
Ġnever theless
ĠIraq i
Re lease
Ġtourn aments
i ago
rob ust
f ind
ĠShe ffield
Ġde comp
Ġpref ix
N I
s ys
}) +\
C ost
ĠE L
)= -\
Ġdark ness
al is
ĠR s
Ġperm its
ĠCh uck
\ #
Ġsmooth ing
Rec ip
Ġfac ial
ps line
tr uth
Ġw are
Ġrep orters
Ġbelong ed
ĠCom pton
um my
Ġform ulate
Ġelim ination
ĠEthiop ia
s b
Ġrep ublic
c as
ch oice
ĠR af
Ġinterp re
l ene
)}\ ,
disc uss
N umerical
er ting
a ired
Ġrefe ree
Jose ph
Ġsem ic
ĠW ellington
Ġimag ination
Re cent
Ġlif ting
sc ription
col sep
27 5
Ġg ifts
ĠG rowth
ĠSt ring
Ġreven ge
ĠG ust
^{- (
pe ak
ĠB B
ĠBrown ian
18 69
ĠBel ow
ĠArt illery
Ġaggreg ation
Ġhar sh
S port
ĠE ST
Ġtra ils
at ility
ĠT error
}$. }
ĠL akes
Ġre vel
Ġcon ferences
Ġinsert ed
Ġtrav elled
ĠLand au
F ive
Ġn inet
Ġin quiry
Ġshock ed
A st
se mi
)} -
cre ation
ĠSto kes
Ġeth n
Ġdem olished
et ric
vel t
ĠL iga
16 1
Ġexhib itions
Ġb ell
Ġpre y
ĠPresident ial
Per formance
ct uary
Ġp ipe
Ġexpans ions
stit uting
l ift
K h
ĠF oot
Ġrespons ibilities
Un fortunately
Ġe ars
AT A
we i
2 11
c b
Ġtrans cript
m itt
ĠAl ger
ĠCy ber
Ġequ iv
}^* $
Ġ( (
Ġthere after
Ġca f
Ġcust ody
Ġb out
g irl
Ġro ok
em ia
Ġch lor
let te
in en
{( -
Ġforb idden
p rom
ĠPers ian
V C
rac ed
ull ah
Ġkick ed
bu ilt
Ch arl
Ġexpect s
]{ @{}
Ġaltern ating
ĠRay mond
Ġl oses
b les
H ave
Ġcre ature
al am
Ġfor ty
ĠP ont
)\ )
ĠArm ed
Ġdiscret ization
ĠRic ci
Ġdead line
Ġterror ism
Ġconvent ions
ĠCoal ition
M ont
f o
Ġsignal ing
ĠS USY
ĠDav ies
Ġr ush
oper ative
Sw ed
ĠR NA
min imal
for th
p owered
ĠAt tack
Ġsol ver
Ġbil inear
ĠM otion
Int eg
Pol ice
a uc
ur bs
n ai
ĠS ullivan
sh ine
Ġtru cks
Ã± a
) &=
Ġre he
names e
st rap
ĠHe ath
ĠD h
Ġbre ach
ĠC ategory
Ġprov inces
Te V
Ġna ive
c ool
ĠO m
Ġfrag ment
Ġd ock
il ateral
ĠBur g
Ġdiplom atic
Ġreb ell
Ġsl ip
C lim
st eps
16 2
Ġinterview ed
O UR
c end
ĠT ampa
Ġl ig
ĠS aw
verb atim
Ġad min
Ġsupp ress
trans fer
Ġdis par
b age
Ã ī
der ived
Ġex pend
Ġcivil ians
ĠS K
f air
Hen ry
P ath
ĠN ormal
Com pan
Ġre feren
ĠRes Net
ĠBas ic
18 30
Ġshe ets
Ġassemb led
s r
Ġdiagn osed
Ġpredecess or
Ġconst ructions
ian i
i encing
Exper imental
en burg
Ġl as
Ġal ike
ĠSu ite
j ee
- }
ĠSh ield
Ġhaz ard
ras er
Ġtheore tically
Ġtriple t
Ġcho oses
ĠMan uel
an ic
Ġaver ages
17 6
oot s
) <\
Ġadminist ered
ubb ard
c C
Ġpsy chiat
Ġter rain
he v
3 25
Ġs ang
ĠP aint
ĠAll ah
oc aly
ĠF ra
ĠL ay
b org
Ġdrum mer
l ooking
Ġcomp ly
Ġshe ep
ff icking
Ġdraw ings
C ode
ĠJam ie
ill on
Ġmet abol
ĠSocial ist
em er
St ill
it ational
}) ]
In s
Ġ$( -
}= {\
Ġal pha
att ention
T ex
ĠH ass
raph ic
ĠPaul i
Ġconv ince
Ġb ust
cl oud
ĠG ive
rest rict
othe rapy
d an
con text
ĠExcell ence
er vers
Ġdivid ing
So ft
ĠAssum ing
Ġcontain er
t n
V E
Ġl akes
Ġqual ities
Ġhe aven
ĠHy per
rug u
ĠDec ision
ĠQu estion
mon ton
l ived
rapeut ic
N M
ĠÃ ģ
Ġshell s
f urt
Ġlaunch ing
ac cur
uc as
Ġsuper position
ma re
ĠT elescope
ors che
Ġour s
' ^
Ġle agues
m or
D G
Ġoverl apping
om ers
| +
ĠS cre
Ġcommun e
Ġsem if
atin um
Ġse ver
Ġwond ering
ĠF I
ĠE mail
uth ored
Ġimplement ations
J y
Ġtransport ed
ĠCh ase
Ġcard inality
p n
ograph s
ĠRh ode
s ix
ĠP odcast
Ġdes erve
ĠX ia
hold s
un n
ĠDev il
Ġworth y
B ul
ra v
Ġpurs uit
ĠAssoci ated
ne um
con clusion
_{ *
Ġstud ios
ĠHor ror
different ial
at able
pp ler
Com mon
Ġperturb ed
Ġrel atives
17 7
Ġdefend ers
Ġarg uing
Ġplaus ible
Ġ\ ;\
\ &
en es
ĠB ears
et imes
cal es
Ġbas in
Ġh unt
ĠRat ings
M Hz
New ton
ĠCle an
oca ust
ĠStand ards
kins on
16 9
Ġpit cher
Ġleg ally
Ġconsult ant
ĠTreat ment
Ġtre asure
oc cup
M ale
S eries
av ia
ang o
ĠSt op
Ġtreat y
B ERT
Ġbij ection
Ġcryst als
Ġbif urc
Do es
ĠAdvis ory
Ġm ism
ĠArt icles
lic an
Ġexpress ing
IR E
ari juana
Ġpassion ate
Ġe uro
ĠAn a
Ġgr at
Ġdescend ants
Com ment
Ġthorough ly
at op
16 4
] &
ĠH I
Ġsh ocks
ĠHard y
ug g
17 8
Ġoption al
Ġf ung
and ro
iz ational
E U
g ive
ĠA way
b k
ĠK K
Ġh alt
st en
Ġappropri ately
Ġnecess ity
ĠW end
}{ (\
ri o
Ġaccount ed
uit ively
alax ies
me ans
T em
il ogy
ron ics
ĠWar riors
ĠPy thon
vent ional
Ġstrugg led
Ġd ictionary
ĠN LO
Ġmes ons
ĠCap itol
18 8
)\ |
bb ed
Ð¾Ð ²
0 12
ut z
T I
Ġbel oved
former ly
] +
rit ies
ĠL ar
Ġrecur rent
ĠSh in
Ġcomprom ise
Ġdis hes
el ong
Ġcle ver
ric ia
Ġl oving
rel ative
Ġproduct ivity
function al
Ġtrans cription
ĠDire ctors
0 11
18 59
Ġca ution
ov sky
ĠNY C
Ġdynam ically
ĠLat ino
i ably
col m
ĠChem ical
s sec
ĠSus sex
ann ot
preced ented
ĠK urt
ĠG ent
I ran
Ġth roat
ĠCorpor ate
ĠGR B
$\ {
Ġp ond
Ġcon current
Ġhon ored
ĠPh one
sm ash
Ġmot if
Ġinf antry
ĠRel igion
Ġret ro
I rish
eps fig
ĠConsum er
ident ified
iat ric
ĠH z
Ġm akers
ĠD P
g overnment
ĠM ead
Ġsubsc ription
ĠRena issance
Ġp ub
ĠA ur
lev ard
ĠAndrew s
Ġsac red
18 48
Ġorth onormal
ĠSol id
3 80
l ocation
Ġc usp
W ood
idd ing
Ġphys ic
Ġcompat ibility
Ġcorpor ations
ĠH ack
Ġtem pt
}{ |\
Ġrenew ed
ĠUS D
20 7
continu ity
ĠPo incar
set counter
Ġo racle
Ġform ations
Ġperman ently
ĠResp ons
n ice
ĠF ul
ĠLe ad
Ġcycl ing
enz ie
G er
ĠB ever
Ġroll ed
Cal ifornia
}} ^{-
Ġrend ering
Ġsacrif ice
Ġcon finement
Ġeth ical
ĠPer th
Ġtim ber
ĠC risis
ĠBarn es
}) _
Ġen jo
Ġfl aw
\ },\
ĠElect ronic
R ound
Ġlabel ing
dor ff
pol ynom
f mf
Ġheart s
bo at
M ic
d at
s ampling
g ic
et ch
com ed
Ġcelebr ity
ĠC av
Ġdis charge
ĠL inks
ĠAg ent
Ġwra pped
R N
k ernel
ed o
Ġcomp ress
ĠEx hibition
Ġhapp iness
ĠH S
Ġresol utions
ĠG C
Ġqu it
ft en
Ġreal m
m ount
ĠF ri
ĠRichard son
rom atic
Ġsp o
f b
ĠG PS
Ġchap el
Ġb acter
ĠCl are
d oc
Ġt ongue
ĠBr ussels
m atter
ĠĠĠĠĠĠĠĠĠĠĠĠĠĠĠĠ ĠĠĠĠĠĠĠĠĠĠĠ
Ġre min
Ġen rich
On line
cor related
m os
ĠEv il
Ġag ing
Ġacc us
ĠAzerbaij an
ĠN W
ĠT iger
ĠC ities
Ġinfin ites
R P
}: =
Ġrevolution ary
ĠB P
| $,
Ġtrunc ation
- ,
t ens
ol and
Ġtransf ers
Ġsquad ron
n is
Ġf ights
ĠGib bs
A thlet
20 9
Ġdisag ree
Ġca ption
Ġbi ases
p ole
Ġver se
Ġfin est
18 7
is im
ĠPublic ations
ĠC andid
Ġpeace ful
ĠN as
ĠCont ract
Ġkeyboard s
Ġtet ra
S pr
Ġopp osing
ĠCard inals
desc ribed
Ġcon sole
ib a
ĠUE FA
cal ar
E t
J e
Ġnow here
Ġcert ification
v ct
id an
Ġdef ended
Ġpath ways
Ġdraft ed
re ason
{ }{
ĠH aven
Ġdifferent iation
ĠCurrent ly
ĠL or
Ġemp ower
ĠÎ ¼
ĠESP N
clud ed
Ġdet erior
olog ic
Ġpro poses
Ġint ensive
ĠHa us
Ġcollaps ed
[ $
n ull
ĠN om
ĠV ers
ĠCh ad
ĠE N
Ġassign ments
n ational
Ġtunnel ing
ĠDe cl
Ġbl ast
ĠNiger ian
Ġcontest ed
23 1
Ġtransl ates
_+ (
Ġbow l
item ent
Ġprem ises
Ġload s
Ġsur pass
dis crete
ogn ition
ĠEvery one
ĠS of
ane y
T ab
Ġem ploys
def i
u ke
ĠC anyon
c ourse
ing o
a it
ĠF olk
ĠD iet
ĠEvent ually
oy age
udd y
ol er
ĠR M
ĠTh r
Ad am
om ical
p ion
Ġe rected
ul atory
ĠAd vert
Ġp ension
alo is
a ine
it ches
ĠSh ore
ud s
D ate
ĠGe off
ĠPut in
Ġ\ ;\;
ĠIn g
eqn o
Ġal beit
ĠSh i
Ġpack ets
Ġcommand ed
Flor a
Ġad verse
Ġcomput es
od ia
Ġfil tered
Ġm uon
Ġmem oir
Ġpossess es
Ġpart on
Ġint im
Ch ief
Ġby pass
Ġcan al
Ġrend ered
Ġentertain ing
Ġ ''
act ers
Î »
Ġp ap
ĠP owell
e ak
on de
Ġhol idays
Ġkilomet ers
Ġsh irt
Ġresid ue
Ġtra its
Ġdam ages
, -\
Ġunder graduate
Ġreg ulated
Ġwrit ings
sa fe
ĠTh orn
er als
ogen esis
ĠDun can
analy tic
it ance
ĠT rial
ĠS hen
Ġfin ishes
ĠP erm
ĠV ern
Ġhous ed
Ġphon on
v t
ath a
Ġo mit
co herent
X iv
Ġlocomot ives
w u
st orm
ĠI MF
Ġstre ak
pp y
Ġd ans
ĠD B
rm k
18 57
Ġrespect ed
Acknowledg ments
Ġro uting
ĠĠĠĠĠĠĠĠĠĠĠĠĠĠĠĠ ĠĠĠĠĠĠĠĠĠ
Ġsepar ating
Ġinter ventions
ĠN H
t elling
Ġdies el
Ġtem per
Ġend e
Ġgame play
Ġw ise
ĠL if
18 9
ĠHen ri
ĠI SM
0 25
th ood
ĠChar acter
Ġc emetery
ari us
J ones
l ap
Ġch ore
Ġpress ures
Ġdisc overs
ĠI sh
op a
ud ed
Ġenc ode
Ġ\ '
Ġdis ability
ĠI gn
ĠP om
Ġmark ing
ĠGene va
stan bul
C ategories
ĠF ighter
Ġeth ics
Ġback bone
Ġdead ly
ĠF lying
L es
ge ometric
b ons
Ã© l
Ġnum bered
Con sequently
Scott ish
Ġh olog
es ar
me chan
ow itz
ram id
Ġk it
Ġste ering
+ }$
w ear
| ^{\
ĠR ut
ĠP orter
ĠY OU
ĠPear l
ĠL odge
Ġag gress
Ġprev ents
armaceut ical
Ġrel uct
ĠPed ro
Ġrun time
Ġconstit utes
Ġimpe achment
ne ighbor
Ġdisc s
ad v
st ed
Ġres il
ĠCam era
In st
Ġob l
23 4
ĠC rystal
10 16
ĠRes ort
rac ing
ĠEn cyclopedia
ĠBrun swick
Ġdepos its
Ġ ~~
30 4
18 3
Ġcount able
d rew
Ġresign ation
mod es
Ġo wing
ar in
ĠPsych ology
Ġsp otted
R ank
Ġr uler
ĠHur ricane
Ġpe ers
Ġkinem atics
y i
ĠD I
oun ge
Ġcons olid
Ġlie utenant
ĠLaw s
Ġfair ness
lass ical
ĠMe et
Ġfl are
Ad ditionally
Ġsatur ated
Ġintu itive
Ġram p
ĠV II
Ġpost p
n ar
ĠBrand on
Ġgener ative
y g
ĠLu cy
Ġun necessary
Ġtra gedy
Ġdon ation
ĠC ork
ĠP on
) &=&
Ġse al
ca ps
Ġhe d
In put
Ġcreat ivity
Ġamb itious
Ġunde rest
J un
ĠCab inet
ibl ings
ĠM pc
dis k
Ġp unk
arm acy
m ove
T aylor
ĠF est
}| $
A sh
N etwork
Ġwh is
ĠMem ory
ĠJosh ua
H or
Ġund ers
ĠM TV
}^{ [
ĠSt arting
vio let
ĠK rish
Ġdisappoint ed
ĠG ren
Ġin ject
Ġheav ier
Ġnob le
ĠJ obs
ĠL L
ĠAd ventures
ĠBu y
F K
ĠO H
ĠLeg ion
ĠProgram s
g arian
Ġw ors
un al
Ġminim a
ĠW er
ĠK end
B ol
acknowledg ments
Ġdat abases
\/ }
Ġn urse
ĠD in
Ġpubl ishers
Ġtub es
Medal ists
ĠD j
Ġbes ide
ĠHerm itian
ĠTas man
N ick
Ġtri o
rot ron
17 2
d ia
Ġlast ing
Ġdep ths
Ġmac roscopic
ĠS ays
Ġobst acle
r ina
ph ib
ĠDev on
Ġexper iencing
h alo
cycl ic
im ag
ĠFe ynman
ĠAd ult
ĠHop f
}) -\
Ġexplo ited
IS A
Ġlaun ches
ĠMed ic
ici ary
ok i
Ġce ased
C as
Ġaer ial
s om
p ref
Ġ å
ĠG ur
Ġvill ain
g ary
Ġemb ark
Ġhelic opter
int roduction
id uc
ĠN g
ĠYuk awa
ĠEr nest
ĠWrit er
Ġrevers ed
Ġunder taken
Ġdef icit
ĠDur ham
Ġab st
ĠEs sex
ĠEll i
Ġjump ing
Ġf u
s il
ma ch
Ġmo ist
ĠB in
Ġsh or
ĠDe leg
E ll
an ol
ibl ical
ob j
ĠMer cedes
and ed
Ġâ ĪĴ
ide al
ĠPar al
Ġillust rations
Ġreb uilt
Ġc ats
ob ic
ĠPhot os
Ġrid ge
r ar
av in
Ġend orse
Orig inal
F iled
ĠSim pson
ĠEr ror
ĠVis it
ĠMy stery
ĠA j
ed uc
Ch ang
Bet ween
Ġconfirm ation
Ġexcess ive
F un
Ġvers a
b undle
IG HT
ra de
ĠPrinc ipal
- .
30 1
ad just
ĠClass ical
Ġpione er
Ġfor wards
2 13
ĠInd igenous
hor izon
Gall ery
G erm
ĠF resh
o fficial
ou b
p ark
D iff
Ġref use
ĠW ave
Ġsk illed
Ġkn ife
Ġany body
ose velt
ĠFem ale
Ġo ught
17 1
Ġwork place
Ġfar mer
vari able
R h
Ġsh aded
ĠHol iday
Val ue
Ġst er
Ġdeb ris
Ġcor rupt
Lou is
ĠIss ues
Ġpr ince
$ |
D a
à¥ į
Ġho pping
Ġpre view
H op
str ut
Ġcong ru
Ġprot ons
Ġeigen vectors
Ġflood ing
and e
Hon ours
c A
Ġm aj
ĠC FT
Ġbomb ing
ch rotron
ij a
wart z
part icles
Mod ern
Ġb ags
Ġe ager
anc el
ĠU nd
she et
ĠSecond ary
A ud
D eb
ĠT ales
aw i
Ġjud icial
ĠB od
gg ing
h ots
Ġb ush
ĠBel arus
Ġpros per
L iber
Ġpoll s
disc ussion
Ġcul min
Ġmic rowave
ĠSe ctions
ord ial
Mus ical
av our
poss ibly
ĠArgent ine
op ath
ĠInd ies
Ġrel ocated
ĠJul ie
ĠM M
}} /
Ġcomp ressed
rec ord
su cc
ĠAbd ul
ct s
atter y
Pro te
Ġgeomet rical
Ġlegisl ature
outhe astern
ant le
P rim
Obs erve
K w
f red
ĠD awn
Prob lem
ĠCare er
Ġformul ae
Ġen roll
Ġmas ks
Ġunf ortunately
Ġb arg
E th
ĠS askat
Ġthreshold s
Ġfrag mentation
an z
33 3
Ġpolit ically
Ġprospect s
Ġc ant
Ġfil ament
B rien
Ġun con
Ġneighbour ing
$ ^{+
Ġthrough put
Ġthreat ening
Tax a
ĠC ec
Ġart ic
Ġriv als
cer y
Ġw reck
ĠML B
em ission
\, $\
}[ (
'' (
Ġsong writer
ad r
l ib
Ġm elt
Ġmark ers
Ġph armac
ĠWest minster
Ġrank ings
on so
ad ata
Ġimplicit ly
Ġdam n
Ġcrit ically
qu estion
Ġse am
ĠT ot
ĠKnow ledge
ĠF ile
17 3
ĠM AR
ĠPan ama
Ñģ ÑĤ
}} ]
rament o
ĠRem ember
ĠB ened
Ġf t
ĠT ennis
Ġspecific ations
aj i
ĠJeff rey
An t
P relim
ĠE aster
Ġgr asp
$ },
au f
ag le
d V
ĠAnn iversary
N GC
ol ating
Ġhe ated
18 2
[ $\
_ +\
Se lected
spect or
}) _{\
agn et
Ġle ase
A ction
l ang
Ġsub urb
Ġback up
hard t
Ġch ord
Ġcast ing
stret ch
he nd
y en
Ġor n
ĠDub ai
}= (\
ĠS B
ĠPaul o
Ġtow ers
ĠL M
}( [
Ġla pt
}) /
ubb les
I sl
ĠI g
Ġaccompany ing
Ġrem ix
Un like
Ġsett lers
Ġun ited
'' )
G I
Ġenerget ic
ĠW inn
omet own
Ã ¯
ĠFact ory
ĠEngine er
ĠL ooking
not ation
ĠTe en
Ġexam ining
ort ium
Ġb orough
18 6
../ ../
open hagen
f alse
Ġdesper ate
M AP
Ġloc als
Ġfib re
Ġintu ition
up ta
Ġamb assador
Ġre de
ĠW IT
ud er
en ario
4 80
Ġbl end
d h
Ġs ulf
ore sc
Ġhe uristic
ĠO DI
ĠJ ourney
ingu ish
Ġsle eping
i ants
m om
Ġfoc al
P red
Ġg reet
Ġun bounded
ĠDet ect
Ġp unch
sc attering
Disc ography
ĠR onald
ho ff
rog ate
M arc
Ġcelebr ating
det ect
an mar
ĠD ictionary
Ġproblem atic
print s
ĠGib son
Ġmand atory
ĠM atter
f u
Ġh ug
Ġred es
ĠM inkowski
ĠLa place
ĠS ic
Ġfund ament
Ġt weets
ĠP sy
phys ics
Ġheter ogeneous
Ġen umer
ĠRe ference
Ġp el
iling ual
Ġconsult ation
Ã¶ n
ST AR
ĠC ash
ĠTw enty
dom inated
Ġd ragon
Ġad ventures
Inter view
Ġunf air
Ġhel ium
M arg
ĠArch bishop
Ġbet ray
ĠD ylan
u pe
Ġto ile
ĠEngine ers
Ġoblig ations
Ġj am
ĠZ ion
ĠMan ila
With in
V ictor
Ġfound ers
Ġnetwork ing
rit ic
16 00
Ġche ss
at em
ess ential
ĠCarol ine
Ġ\ }$.
Ġdesign ation
ĠPot ter
ĠBudd h
Ġadop ting
Lear n
ĠðŁĻ Ĥ
Jo in
ferm ion
Ġval uation
ĠJo el
ĠSom erset
R ic
m ile
ĠSant iago
ĠH off
A mb
V S
el in
ĠSte phan
Ġeleg ant
he y
ur ally
Ġrecru ited
b end
Ġhold er
tan h
Ġhe ights
att i
K P
ĠD iana
Ġext inct
Ġexpect ing
wa it
ĠB MW
orthe astern
50 1
Ġsmooth ly
ĠB M
Ġgrand mother
Ġc of
ir atory
Den ote
ĠX X
ĠMor occo
can onical
ew ard
ar is
Ġprohib ited
Ġat tained
m kern
Ġ( -\
Ġtriv ially
Ġfin anc
t m
im on
ĠMar in
ĠH O
M oths
Ġn itrogen
Ġrecurs ive
ĠB order
In vest
pres erving
Ġn erve
Ġbur sts
22 3
Ġcitizens hip
ell ation
ĠSol omon
Ġenjo ys
n om
Ġunsuccess ful
S us
rac ies
Ġar rays
Ġflow ing
Ġunve iled
Ġh orm
ac ional
Ġupd ating
roph ic
es se
ers en
DE s
Ġsail ing
ĠEc u
ĠNob el
Ġsur ge
Ġur ged
Ġle mm
Ġcompan ions
Ġprem ier
Ġluminos ities
ĠP am
Ġsur gical
ĠDisc ussion
t u
Ġpro xy
Ġsl ide
Ġm ate
Ġj er
new page
Ġearn ings
ug u
Ġinst antly
ĠTun is
Wel come
ĠPop ulation
che ster
min imum
ĠMal ta
Ġresemb les
se min
ĠGrand e
}$ }\
Ġsuper hero
Ġwar fare
Ġb er
May be
ex pect
Ġhist ories
Ġm arijuana
qu asi
Ġthe rap
fe ature
Ġfound ations
Ġnation ally
ĠMig uel
K en
gra ined
exper iments
ĠIndian apolis
Ġt enth
in creasing
em bourg
con cept
" ]
i ary
Ġsp arsity
Ġfin ale
ĠM Hz
enti eth
ĠAut om
ĠSom ething
Ġun precedented
In formation
ĠRes ource
ĠGl obe
song writer
Ġpractition ers
ĠP ix
Ġparameter ized
ir ate
ĠF E
red uced
Ġindex ed
) ^*
ĠToy ota
\!\! \!
ĠArmen ian
ĠStat ement
Li u
Ġsubsequ ence
er i
Ġen act
ĠIs le
C u
Lear ning
umber land
ĠHe y
Ġsub algebra
Ġcooper ative
Ġin tact
ĠDist ribution
Ġexcept ions
edd y
AM E
ĠN Z
Ġun anim
ri ages
Ġprompt ed
ĠLyn n
F ac
tabl en
ell ite
Ġc uisine
Ġam endment
Ġgu ides
ĠCy prus
$. \\
ir ie
var sigma
Ġpro tagonist
Ġdis rupt
Ġ[ ...]
tt i
que z
App lying
ĠSo ph
Ġestabl ishes
Ġbatter ies
ĠS ou
Ġclass ifiers
pre ceq
Ġappeal ing
Ġpreval ence
4 000
ĠP ine
18 58
mat ory
Ġaccum ulation
is che
Ġwel comed
ĠPrinc eton
Ġb ugs
determ ined
3 10
ul ent
chie f
Ġcalcul us
×Ļ ×
Ġdes erves
ĠSw itch
ogen ous
supp ort
Ġto b
mod ern
o qu
ĠG aza
Ġrot ations
Ġcru el
ĠH il
Ġval ence
ear ly
j in
Ġadv isor
if ully
Ġm aker
Ġoff line
Ġkn ots
Ġcylind rical
ĠIs ing
$. \
Ġgradu ation
W ed
al one
Ġgl ac
ĠRh odes
im ization
Ġgu itars
Ġannoun ces
Ġlad der
Ġinc umbent
re rs
Ġcon vol
on ts
26 5
stud y
T reat
ope z
Ġhol y
Ġc her
ir ling
a ffect
ĠPro gress
U k
grad ient
ĠL ak
ĠB elf
na issance
be en
Ġgeomet ries
ĠD ow
ĠM ell
Ġscal ars
ing le
Ġcon ject
Ġout lets
Ġdomin ance
it ively
Ġimp urity
Ġet ern
mark s
Ġt ear
Ġche er
ĠR ise
Col umb
ĠLib ya
V s
Ġeffic acy
Face book
onic a
Ġres ume
E mail
ĠS Ã£o
Ġgen res
ĠM IT
Ġmet eor
Ù ĩ
Ġrenew able
Ġplay wright
is le
Ġre jection
Ġf ont
Ġplate au
ra its
Ġproduct ive
Ġinform ative
P ic
Ġident ically
Ġbe et
Ġsubject ed
add ing
Ġtrad emark
Ġk a
Ġsan ctions
contin ued
Ġl ymph
Ġem peror
l Vert
ĠF lem
ĠL C
ĠE valuation
Ġfin ancing
F ound
Ġcorpor ation
ĠMe asure
)( -
trans lation
F B
ĠHe isenberg
ĠG AN
Ġacc idents
ĠI SS
ĠH P
97 8
ĠCl aire
Ġstake holders
Ġpri ests
ĠC ord
x p
v ation
Ġam end
ĠBar ack
Ġphil anth
F und
Ġfulfill ed
Ġstom ach
Ġvis c
f ine
Ġl over
et itive
t p
Ġd ign
semb les
rick eter
Recip ients
B road
s ervice
intend ent
ĠLe icester
Ġex clusion
ĠGl enn
ap est
Ġint imate
vect ive
Ġco h
Ġdis established
ĠDi ocese
)$ \
Ġt ags
cy cles
condition al
ĠW ords
etail ed
à¤ °
whe el
Ġch ips
Ġcondition ing
ĠBol tzmann
ĠVlad imir
Ġtremend ous
Ġanaly st
Ġmemor able
22 8
ĠLic ense
Ġtouc hed
Ġobs ervers
Ġsuper gravity
ot ics
}\ ]
Ġmet ast
T unes
ĠWrit ers
F riday
ĠEcu ador
ĠG ol
ad ays
ĠEll en
A u
Ġin ch
Ġrecip ients
}}$ -
e ither
ĠSt rat
omet ime
ĠSch midt
ĠC rist
}_ *
Ġconsum ed
role um
Ġtri um
Ġcr ashed
ĠTre nd
ca pt
Ġintersection s
R oad
T a
ĠRom ance
Ġintrig uing
D igital
ke ys
Ġseason al
ĠC IFAR
im i
ĠDem ocracy
ĠStock holm
d dots
Ġsu ck
Ġorbit als
Ġsuccess ion
F low
M ake
s an
(\ {
Ġabund ant
Spec ifically
×ķ ×
fin itely
10 24
all a
Ġcl ay
pro ject
child ren
Ġnurs ing
000 1
itt y
at omy
Ġposition ed
Ġflo ors
$ }.
Ġvin yl
Ġgen ome
Ġquestion ed
Ġclimb ing
le ad
Ġin jected
ĠW ine
Ġopt ically
Def unct
ĠS ter
ĠM ang
ĠBeaut y
N EW
en za
ĠSh annon
ym es
he avy
ell ular
Ġpuls ar
ne ys
ĠGarc ia
ĠA ges
Ġevent ual
ĠAct ress
Ġchemical s
ĠC AR
ĠCustom er
Ġund erm
Ġt ales
z t
ĠMon itor
dom in
Ġn aked
up date
Ġtim est
il ion
Ġpuzz le
Ġbed room
Ġhor iz
m atch
ant o
... "
Ġresidual s
A ccess
osp in
V ari
Ġqual ification
Ġpro c
ĠL il
comp onents
Ġdec iding
Sh ow
Ġdepos it
Ġf r
ĠEn c
Ġvac ation
Plan ck
2 16
ta cted
accur ate
S K
Ġp ent
ne apolis
Ġshow case
Ġmet er
ĠHind i
ĠWars aw
Ġsp ans
30 5
Ġca us
b ring
ĠB ren
Ġmach inery
ĠArch ae
ĠCr us
run ning
Ġover night
reng th
an chor
Ġmat hematic
ĠCorn ell
h size
t bl
ĠPhot ography
ĠL ines
ĠNot tingham
F a
Ġsem icon
Ġalt ogether
Ø ª
ĠB ound
fil ter
Ġint ens
9 11
cor rect
Ġwithdraw al
ĠU RL
ĠTown s
ĠN amely
18 55
ĠIndones ian
Ġvalid ate
Ġre organ
ĠD ob
v x
Ġincons istent
ĠIo T
Ġdepend encies
Ġdwar fs
Ġk ings
) &=\
b h
cm id
Ev ents
st ability
[ [
P rom
Ġc ris
Ġpro long
Ġm oth
ĠK oh
Ġbuy ers
osp ace
row eak
ke eping
z on
AN N
Ġaffili ate
Ġne u
Ġopen ly
Ġdest inations
Ġlect ures
S aturday
ĠTheorem s
I mm
el ike
ĠFe atures
cmid rule
0 15
ĠZ h
Ġt ier
Ã¶ r
cccc cccc
K er
ap a
ĠCoun sel
og o
ĠTrans it
constra int
Ġst ems
ĠL iv
Ġaband on
ce ive
18 54
Ġg odd
ĠH ook
Ġinduct ive
ĠDe rek
ĠCom ing
Ġbre ed
e ref
Â Ģ
ĠJama ica
}\ }
Ġsp y
ĠMor rison
23 8
Ġend points
D ifferent
ĠK erry
go ogle
ĠProtest ant
ĠK re
v b
19 3
D U
ud es
amm ad
ĠM emphis
ĠPl aza
Ġmut ations
ir ically
ĠKenn eth
rom y
Ġperform er
Ġvis ually
ĠJup iter
Ġex changes
grad ed
C art
Ġbe ats
Ġcor ps
Ġgram mar
ĠInst rum
y t
ĠL uck
equiv ariant
)/ (
Ġdup lic
Ġbe ef
up t
Ġclar ify
Ġingred ient
ĠB ose
Ġreal izations
Ġaccum ulated
im mer
Ġflav our
ce y
Ġbath room
Ġspokes man
Ġg erm
Con struction
ĠCont est
Ġapprec iated
ĠViet namese
ieg e
Ġto ss
Ġqu otes
ĠC ul
is ive
th ose
ĠNap ole
ĠElli ott
ĠSc ore
Ġen zyme
struct ures
ĠAd rian
Ġel ong
ĠBel t
ĠBou levard
thin space
ĠJoh annes
ĠEffect s
Ġemb race
qu est
)] \
Ġboy friend
M ath
at omic
18 56
Ġso ap
ans k
~ ,
rr rr
Ġille g
oura ge
a id
ĠIn to
ĠV it
aver aged
ĠArm strong
ĠSup erman
ĠUpd ated
Ġupgrad ed
ĠP oss
imens ional
Ġhope fully
ĠAll ied
ĠAb b
inf all
Ġsk ip
ĠInit ially
enn ium
Ġrev ival
ut ors
Ġthere of
Ġsubmar ine
c ue
ĠS ara
17 9
ĠCon c
Ġend ors
ov ina
Ġdelet ed
ol ves
Ġnom inee
Ġsear ched
rt imes
ĠLou ise
Ġambigu ity
ov ie
Ġdet ections
v id
ĠH od
Tr ue
Ġbe aches
Ġtransm itter
Ġarchitect s
Te X
ĠNS W
Cont in
Ġsp are
Ġcontext ual
ian ces
ph r
Ġel dest
ĠW ake
ven ile
Ġadvoc acy
Ġes cal
t racks
ĠMerc ury
Ġ( ).
)\ }$
L ooking
ĠS ens
abl o
B rian
en ic
ĠJes se
Ġexerc ises
Ġprot esters
ak is
ĠGu itar
ĠPro ceed
ĠB oh
Ġr ul
ĠPoint s
mon ot
Ġd irty
Ġre lying
Ġpurs ued
3 45
ĠCont inu
ĠN atal
Ġgra b
Er ror
ĠAr senal
ik er
Ġde formations
ric a
Ġorb ifold
Ø ¯
em ale
j ournals
ĠAngel a
Ġf ond
Ġw ages
ĠC apt
Ġgener ous
Ġre pos
Ġden y
Ġess ays
Ġcrow ds
Ġadjust ment
R am
or um
are l
and ing
Ġwas h
}' \
oc ene
ĠZ ar
Ġlist ings
De v
ch ap
ĠC yr
Ġcl ips
23 2
ĠInter ior
Ġconv inc
communic ations
Ġne phe
Ġl ith
Ġreal ised
press ure
P ark
ĠB T
ang les
ĠCom pl
Ġevalu ations
Ġdub bed
ĠR ate
ĠUlt imate
T er
Ġst ance
ĠMethod ist
ĠR AM
Ġbroad ly
Ġremind ed
l p
ro cal
Ġincorpor ates
D utch
ĠOut standing
B V
Ġp owder
ĠP rague
Ġcontin ent
ĠWat ers
Ġman s
Ġsuff ers
Ġstand ings
Ġn ond
Ġanaly tics
Ġcon tacted
ic ates
ĠJ et
ĠW ald
ĠFl o
Ġg orge
Ġun supervised
29 0
G rad
isp here
ĠĠĠĠĠĠĠĠĠĠĠĠĠĠĠĠ ĠĠĠĠĠĠĠĠĠĠ
) &\
ed ar
ĠM idd
ĠLyn ch
Ġt ribut
ĠRo osevelt
St an
W ould
\ }^
w ald
ur an
Ġwith drew
ap unov
j p
Ġrecur rence
W H
Ġs iblings
Ġcolon ies
Ġto ured
ĠFran Ã§
Ġaut umn
Rec ord
ynthe tic
Ġs el
Ġridic ulous
ote chn
ĠBurn s
Ġharass ment
Ġtrac ed
\, ,\
Ġcost ume
Ġt iles
Ġexcell ence
ĠCom parison
ĠW id
Ġ& &\
ĠS ame
Ge org
ĠS ang
ĠTan z
ÂĢ Â
ĠAll an
@ \
ag ent
ab stract
ĠInterest ingly
Ġcrimin als
os ion
Ġvis itor
ĠNov el
28 8
h urst
Ġbreath ing
Ġdecom posed
Ġo h
Ġre nder
Ġy r
ĠR ole
ĠLegisl ature
{ }^
Se lect
ĠL STM
ĠCar r
Ġdissol ved
Ġmet ropolitan
st rom
ion ization
Ġnovel ist
m ember
Ġp ays
af fe
Ġscan ning
ĠR ica
op ard
Ġopt imum
ĠCar roll
Ġhydro dynamic
Ġthread s
Ġse ized
18 51
Ġinvest or
head ed
Ġnew est
Hamilton ian
rop olis
ĠComput ing
ph il
inter acting
22 7
y ield
le ys
Ġjump ed
[ -\
Ġphys icians
q n
Ġpoly t
Ġsk ull
Ġ ub
ĠTri ple
ĠIndust ries
ĠChar ter
d og
Ġpot ato
Ġh iring
Ġpenal ties
unc redited
work ing
ĠQu art
ĠOrig inally
G reek
Ġb ats
ĠT arget
ĠU P
ĠM Ã©
}\ }_{
oy a
Ġfre ed
Ġcho ir
Ġfold ed
30 3
ĠHamb urg
' =\
ĠMal ay
Ġaest hetic
T ok
W F
c ould
Ġspons or
ex amples
0000 0000
H erm
Ġs ack
ĠW D
ĠG rim
Ġg ri
Clim ate
ĠHend erson
pl aced
Ġtransform ing
d k
ĠP U
ater ial
art icles
se lection
own ers
A H
Ġlad ies
Ġintersect s
2 14
Ġ ^{-
Ġlic ence
ĠF ay
red shift
ĠL ives
Ġdon or
ĠRam an
spe aking
c all
ĠLes lie
ĠP ok
ĠUS B
Ġreprodu ction
Ġtechn ically
}\ !\
Ġimag ery
Ġf oster
ĠW on
dot sc
orth y
= |
J ean
Ġpos ed
24 1
ĠMil ky
Ġb ail
pro port
ĠS ul
os ition
en ary
Ġoffer ings
ĠR ib
Ġcod imension
ĠH T
Ġrel ativity
ĠS equ
ĠComp ared
or ov
ĠA CC
ĠFried rich
Ġtob acco
ol ute
I reland
ĠNew man
w at
Ġscr atch
m ixed
Ġloc ate
year s
ĠR ash
figure d
Ġdestro ying
Ġanaly se
Ġadvoc ates
Ġinev itable
ĠFl ag
lik elihood
Î ¼
Ġn ar
0 13
ĠCorn wall
Ġb other
utr ino
ĠG em
uff le
Child ren
ĠB ran
Ġforth coming
Ġpup ils
B ell
Ġgraph ical
Ġanomal ies
A z
U r
] )$
Ġst ir
Ġl anes
i ol
n umerical
ĠPartners hip
Ġinitial ization
uzz y
ĠB rief
Ġin set
ĠP E
Ġdr one
ĠB av
ys h
Ġcot ton
ll er
ĠUl tra
Ġexclud ing
}} },
Ġequ ilib
val id
' })
Ġn aming
ĠH odge
A W
US E
Ġmod elled
Compan ies
ĠFif th
ĠH ood
( .
Ġl iqu
22 6
orig in
ĠG ates
Ġcr ust
Ġbom bs
Isra el
g old
}{! }{
ĠS ig
Ġover d
ĠCle ar
Ġtra uma
ĠM ets
Ġframework s
ĠAng lican
Ġnav ig
Ġt ric
Ġadminist rator
b eg
che wan
ĠBas in
Ġthrow s
Ġch ocolate
Ġpack ing
Ġmultipl ied
ĠCitiz ens
Ġtheat rical
M att
Ġt elesc
H as
Ġthe or
ure r
ul ators
Con v
Ġemer ges
Ġabbre vi
Ġt uple
Ġun t
refe rence
v p
ĠB il
sh a
Ġac claimed
am oto
ĠD ial
ĠCons idering
D ark
ĠC openhagen
ĠH ours
ib an
ĠObs erve
ĠStrateg ic
T ilde
d w
ĠP orsche
Ġprison er
)) =\
ĠT ong
spect ra
le af
ĠPl ate
re ra
rit z
Ch icago
m ask
math ring
ĠO ber
ID E
Ġinv itation
}_{ +
in verse
sub script
Ep isode
et ed
**** ****
exp onential
B rand
Ø ©
Ġre vis
min a
Ġvoc abulary
ĠCel tic
J S
as aki
arth y
Ä Ł
ĠY emen
Ġphenomen ological
Ġdimensional ity
iz arre
osp heric
Ġacadem y
ig hed
Ġinsect s
et able
cl air
IS S
Ġmal icious
AN S
Ġplant ed
) }_\
AS H
m ust
s gn
ak y
% ).
ĠM F
ĠMy r
pl oma
am matory
arl ing
Ġsupposed ly
E arth
P ak
00 9
Ġw and
p ure
red uction
B all
ĠFran z
S ervice
ĠK L
Ġprob able
ou cester
ĠSh ir
categor ized
ann ers
Ġlack s
Ġmother s
Ġdis band
Ġdis closure
Ġsil icon
Ġinstit ute
Ġcann abis
ĠB iden
g ard
ĠCub an
Ġjew el
ĠMon ica
Ġexplo iting
ĠField s
Ġapp rent
Ġvol leyball
Ġcoordin ator
ĠMe yer
Ġt il
v phantom
s ocial
ĠHealth care
Ġdepart ed
W ild
ĠS ave
ĠBre nd
um per
ĠIn tern
ĠBul let
ĠGer ald
ĠAss essment
Ġc ouncill
ĠIn j
Ġab rupt
ĠQ atar
ĠS it
ier i
t ogether
ĠW ick
Ġhospit ality
dif ference
Ġprol ifer
Ġemphas ized
Ġcontradict s
Ġon t
Ġqu iver
d ed
Ġ< \
Ġign oring
Per haps
ios ity
small er
Ġinsp ire
ĠOcc up
}$ \,
ĠRe in
ĠQuest ions
im ath
Ġcontract ed
Ġspin or
ĠCom ic
w i
am ura
Ġviol ating
Ġt u
Ġmon astery
Ġanalys ed
ĠK iss
ĠTri p
Ar gent
w iki
Ġinsp iring
= ~
Ġst air
bi as
r Vert
Id ent
Ġat tain
Ġinter stellar
arm ing
ĠSp in
Ġpres idency
$ [
l k
cent ric
ĠH our
Ġmidfield er
ĠOb viously
ular ity
Ġt at
ĠCurt is
Ġind ie
Ġorgan ize
Ġpriv ately
Ġpartners hips
Tra ining
ru ck
Q ual
Ġmur ders
m k
ĠRevolution ary
S ix
Ġl ips
ĠÂ «
ĠA ch
pen se
ĠCo ordin
ĠEd monton
mult iple
S elf
c ub
}- {\
Ġvict ories
ĠF DA
Ġdecl are
ĠLog an
Ġevol ves
E conom
de composition
Ġrub ber
N atural
e ur
r put
. ''
Ġcomm utes
\ :
e i
Ġpol ym
pa id
Ġthr ust
Ġquar ters
Ġspir its
ishe ries
k ward
ar ians
ĠVo iv
Ġunder went
Americ a
Ġdenomin ator
Ġremin is
Ġc and
ĠRe y
A bs
AR Y
Ġexc itement
M em
y x
18 36
Ġrec ipe
un cer
ĠHun ting
Ġs ab
ĠTre asury
ĠS ons
g ae
Ġpiece wise
Ġknock ed
c ies
Ġconduct ance
rad iation
Ġgen ius
Ġdie lectric
og l
big wedge
ash ire
ol ics
ĠB ERT
ĠForm ation
Ġanne x
Ġencoura ges
Ġannot ation
ĠAndre a
R ou
Ñ ĩ
B ey
ĠBur ton
Ġsh aft
ĠGu est
ĠHy dro
! ,
Ġwood s
ĠS ed
Ġad vent
rib ing
Ġinvest ing
ĠK om
Art icle
Ġdiv ine
Ġpit ched
W R
b right
ĠG DP
ruct ive
Ġclin ic
ĠGram my
ĠD w
ĠByz antine
Ar thur
Ġreal izes
Ġ& +
ĠA ires
arent ly
ĠU FC
ĠM uk
St art
18 49
ĠBor is
ĠS ue
Ġliter acy
ĠA chieve
ĠAmeric as
H all
Ġsail ed
d ynamical
18 52
Ġspec ially
ĠA CT
ant is
ic us
ĠD ro
opl an
ĠF raser
Ġcr ude
ĠM AC
0 50
Ġ }^{
Ġinv ite
Ġce ase
us ions
á º
IT E
Ġax ion
g ine
ĠB udget
ĠWy oming
ĠV arious
lig a
Ġdeliber ately
Ġbrut al
Ġ ug
h aul
R ivers
4 40
B K
d ish
ath i
ĠL F
Ġend owed
s P
st roke
oul os
Ġinterpret ations
Ġb ishops
ĠScot ia
b inding
ĠRe becca
)} )$
Ġprec ious
Ġcat hedral
ĠSand y
ĠB end
ĠRoberts on
Ġt ile
ĠL ah
ĠExper imental
ĠAgric ultural
) ]$
Ġnon profit
C ategory
pro t
T i
ock ets
Ġg ut
s ight
est ock
isc opal
ĠD rew
Ġin take
Ġst ab
R oy
ĠCon cept
22 9
k le
Ġmark er
ER Y
ĠBel le
ĠTO DAY
g ust
und a
norm als
Ġg ases
ol ate
ac ency
23 7
sl ashed
ĠPre vious
Ġinstant aneous
Sund ay
Y et
b il
Ġrow span
18 1
Ġcross ings
Ġtack les
ĠK arn
Ġinter im
by ter
Ġorigin ating
Bel ow
ĠBos nia
ĠJ ets
ĠHigh land
Ġaim ing
in fl
ig i
Ġen closed
Germ any
ĠFilip ino
Ġthe ft
ĠC raft
ĠRe ich
for cing
Ġsynthe s
d ens
ri pp
Ġselect ive
ĠOt to
ĠCl ose
ĠA post
ĠC ry
ten eg
k r
ER N
ĠW ool
ĠDomin ican
Ġbre w
Bl ock
Ġpurs uing
Ġcust oms
ter bury
)} -\
ĠIm prove
ĠE ducational
ĠVeter ans
+ (\
ĠCal gary
th y
Ġinvent ory
ĠB ian
Ġsu cc
Ġam ino
Ġprivile ge
Ġend point
Ġembod iment
ĠP I
Ġloyal ty
marg in
Ġprior ities
Ġfix es
p ract
Ġun seen
7 20
Ġdoub led
âĨ ĳ
ĠK itchen
Ġextrem al
Ġpian ist
ĠApp lications
ĠResp onse
or ange
ĠE OS
ĠTrans former
un ique
ĠD ad
ie ved
D IF
oura ble
ĠF ear
ific ent
Ġbi om
ine z
ĠSte am
ĠClif ford
ĠM old
ĠCh in
S G
Ġcost ly
T ree
m essage
ĠK aw
g rand
Ġun lock
Ġc ure
ĠDra ke
C U
Ġaccompl ish
IC K
ĠMal colm
Ġathlet ics
) }}{\
up loads
Ġcon gest
ĠD ust
Ġeccentric ity
fe as
Ġres iding
Ġcol span
tex cmd
Ġac ids
Ġ&= &\
ĠH ers
ĠD ong
ĠAct ually
Ġneighb ours
Ġsubdiv ision
ĠT ry
ĠG D
mm ode
Ġref uses
Ġprotect ive
Ġs iege
Ġunder way
Ġmult ivariate
Ġspec imens
^* $-
Ġpropag ating
b led
}) }$
Ġaccept s
Ġlens es
Ġ$< $
ĠCal cul
ef ault
ĠM ental
g ro
ĠR um
ma ha
Ġfunction als
____ ____
in finite
ĠJac ques
o an
Ġexc use
th ia
t uple
Ġmain land
Ġfree ze
}\, {\
ited efault
Ġpa ren
ĠBi ography
mc itedefault
Ġconv iction
mb le
ĠCho ose
Film ography
Ġachie vable
ĠKazakh stan
Ġche aper
Ġtrib al
odes hip
ĠL iz
Ġdelight ed
ĠConfeder ate
le ases
ru ce
Ġmyth ology
c ology
ĠA ircraft
Ġb achelor
ĠSt ark
est y
ĠMan it
ĠSte fan
ĠPr ide
m otion
ĠF robenius
Ġorgan isms
4 20
Ġinsert ion
Ġprosec ution
ĠHero es
ĠRestaur ant
ce ans
ud ge
ĠY eah
in ters
ail ure
Ġhom osex
Ġt ender
le an
ĠF ut
Ġch orus
A X
ruct ures
ĠCon versely
Ġafter math
Ġme als
Ġpass word
Ġimplic ation
C ities
Ġsubt raction
ĠGre ens
Ġb ore
ĠG ym
iel sen
ĠCard iff
Ġveget ables
L oc
ĠKer ala
Ġdoct rine
p ub
Ġfil ing
ĠH onda
ĠAsh ley
h ouses
Ġf lesh
ac er
ne ider
ĠLiter ary
s rc
Ġpress ed
board s
' ]
Ġde position
ĠOpp ortun
v ie
}) )$
add plot
Ġvot er
Ġphr ases
Ġ }_{
ĠGi ov
Ġfuck ing
ĠSalv ador
Ġm ol
Ġst ressed
})- (\
Ġnick name
Ġfru its
ĠC i
Ġman eu
á ¹
ch urch
Fe ature
L F
ĠA W
ifferen ti
Ġtort ure
24 3
bib item
18 47
appro ach
ed ged
Ġconf idential
b g
Â Ń
ĠR iv
us ers
os o
24 4
ĠSy nd
ĠMc N
Ġmer it
Ġparametriz ation
Vis it
ric hed
iod iversity
ĠBr as
Ġf isher
u ably
Ġver b
Ġepid emic
ĠI stanbul
ĠZ ach
method s
ĠÅ ł
Ġscr ut
R andom
Pr inc
od i
Ġren tal
Ġtouchdown s
F ile
c ats
ĠWire less
Ġsubstit uting
if mmode
Ġfirm ly
ul k
ĠIn spector
ĠPak istani
m and
Ġf art
Ġacceler ate
paramet ric
Ġre ck
Ġ- >
ĠJ ur
G ar
l ore
al tern
Ġaff irm
L Y
Ġb reat
ĠM g
omb ie
ord ering
Ġfun ctors
Ġd ancer
}( (
ĠAlexand ria
Ġr ides
Ġ[ (
larg er
ĠV il
ax ter
Ġr het
Ġdispl aced
Ġcasc ade
amb a
Ġrook ie
ĠE b
Ġancest ors
Ġab normal
Ġback s
ĠQu inn
ĠProject s
Priv ate
Ġswit ches
Ġterm ination
o ise
Ġbenchmark s
Y ang
m eter
Ġup stream
ĠBund es
ÑĢ Ð°
Ġwork force
Ġsm ell
ĠTe a
An th
Ġinfinites imal
ĠM oss
C ome
Ġge ographical
ĠL ecture
ĠGriff ith
Ġlingu istic
Ġsur render
Ġview point
Ġlength y
Ġb itter
Ġcongress ional
| (
ore tical
ĠV irtual
ĠBl air
Ġconver gent
O B
Ġarch ives
ĠK ang
ĠInit ial
ĠJoh ann
Ġdif fraction
Ġcoinc idence
Ġbreak through
Ġretail ers
Ġbelie ving
acc ording
us ually
univers al
ĠZ en
Ġsynchron ization
ard less
Ġvisc ous
ĠP SF
ren s
mod al
Ġwhere by
Stand ard
Ġsub manifold
Ġpurch asing
Ġra infall
Ġfre ight
Ġbab ies
k ok
bes gue
ĠNot re
Ġh ometown
Ġswe ep
Que en
ly mouth
ĠCroat ian
S ound
Ġbox ing
I AL
L ook
Ġg ad
ĠRev ival
ĠClin ic
P ier
n r
cal c
In c
ĠMult iple
ĠH M
Ġra bb
26 4
Ġdem o
Pac ific
atic an
Ġaccident ally
Ġinteg rand
ch ard
Ġtim eline
Ġequiv ariant
ĠFerg uson
Ġen sembles
normal font
[ ]{\
}^{ *}
normals ize
Play ers
set up
Ġmed ication
De velopment
th ouse
ĠP ool
own er
Ġterm ed
ĠMar co
ĠDay ton
Ġpersonal ities
Ġvend ors
Ġem igrants
Ġannot ations
ĠAltern atively
station ary
sl ow
B rad
Ð ¹
ĠR he
ub ert
ograph ies
ĠR B
18 53
Ġcondition ed
ĠWork shop
Ġconsult ing
ip es
' ),
B u
ĠG ospel
hy p
3 15
ĠApp eals
ĠSac ramento
ĠVoiv odeship
ĠKe pler
Ġp ile
ane ously
Le vel
ĠHor izon
D raw
h in
de en
30 6
it ated
ex plicit
ĠApp eal
Ġide ology
ĠTit ans
ĠProt ocol
Ġro pe
19 1
\| _\
ll l
bro ken
ĠRoll ing
+ {
Ġb is
Ġfunction ing
Ġm ud
ĠPer fect
Ġtax i
Up on
Ġfemin ist
inos a
Ġfort une
Ġf erry
Ġhonor ary
Ġstar ter
V en
ne ath
Ġtens ions
ĠSur rey
Ġcollabor ated
ĠS Ne
ess es
Ġlit igation
Ġd ent
oper ators
Ġfl ags
Ob ject
Ġcl ump
Ġcol oring
Ġshould ers
ĠT roy
ĠRe ally
Ġpr imes
24 8
t l
Ġoccup y
Ġb eds
Ġd Ã©
ĠCard inal
ĠAh mad
V ery
ĠTag ged
M ills
ĠAssoci ates
Ġteen age
ĠTrib une
M pc
Ġrecept ors
R est
h ran
ĠH ir
ta ker
ĠBut ter
m oving
abel ian
Ġfl ank
Ġell ips
ĠR H
per fect
Ġbu zz
Ġ$ >
ĠTh ing
{$ {\
inos ity
Ġmotor cycle
ĠLaure n
ĠWal sh
Tag ged
Ġra id
any a
ĠGo ing
ĠEv idence
ĠBe hind
Ġant iqu
B or
rotate box
Ġarm or
ĠP V
Ġcomm enced
opt ical
ĠFin als
ĠD as
Ġfe ver
Ġox id
ra k
Ġam ple
Ġdetect ive
ek ing
Ġfeas ibility
Never theless
Ġh i
ION S
M i
ath olic
ĠM oses
ĠTes la
Ġun biased
ĠE t
Ġdist ribute
Ġgar age
ĠJ unction
24 7
Ġup ward
Ġreb els
ĠTe acher
head s
ĠEm irates
ĠRoche ster
s bury
ĠK ab
Ġsuper b
Ġgradu ates
ob ia
Ġarchae ological
R M
Ġl ord
Ġr ats
Ġbehav es
Ġdisput es
m v
av ian
Ġte aches
Ġprem ise
ĠCl aud
Ġretrie ved
ĠHol ocaust
c H
Com pet
ĠMy anmar
Ġprec urs
ful ness
Ġdemonstr ations
ĠU T
am inated
Ġdiv ides
ĠMon roe
in berg
Ġtem plates
g ences
ĠL ed
Ġins isted
Ġrece ivers
Ġd ancers
Ġl ar
âĢ ²
Ġc ement
Ġpri ors
ĠFram ework
in ent
sh ock
ing e
ĠU AV
Sc ient
Ġh ind
ĠChief s
Ġcasual ties
g reat
ĠLy on
ĠE yes
Ġf iduc
sl o
Ð½ Ð¸
d ar
ĠC ars
du ality
ĠZ amb
b A
ĠPatri ots
n st
eg e
part ition
| >
Î ·
11 00
rang er
Ġunder going
Ġspin ning
Ġansw ering
' }}
sh ows
Ġexplo itation
s z
effect s
AM S
ĠI EEE
igu ous
N orthern
Ġdis ruption
Ġhonest ly
23 6
** *
Ġimprison ed
ĠLe besgue
ON D
Ġra pper
Ġinv isible
Ġreven ues
ĠWes ley
K ar
S ho
23 3
E instein
Ġtail s
r ather
Ġint ensities
pher d
18 46
P resent
Ġ\| _
Ġdecay ing
Ġst amp
ĠW rite
ĠKing ston
A verage
Ġc ob
ĠK S
ĠPre vention
Football ers
W at
ĠScholar ship
oresc ence
R os
N B
re ctions
text backslash
ĠR ES
ĠH ank
ĠApp lying
ĠIR S
d ad
Ġd B
Ġcon es
Ġannot ated
Ġse curities
ans on
ĠAnn ie
ĠF uk
Ġmention ing
Assum ing
Ġcompass ion
G ordon
ĠNot able
ĠSat urn
B ank
Ġde formed
Ġprior it
id ian
fin ity
ĠE k
ĠPunj ab
erv ices
Ġrecruit ment
oun ces
ĠNe u
Ġbehavior al
Ġint end
| |\
ĠEd mund
Ġalle vi
Ġre combination
Ġdr unk
ĠA id
Ġchrom os
oc ide
2 21
ĠThe rapy
ĠMaur ice
Ġpress ing
w avel
ĠE ar
tab colsep
ĠGroup s
h on
}' _
Writ ten
Ġ umb
am ar
other mal
Ġcl ergy
rit is
Tex as
ĠH ull
}) (\
Ġrev ision
ĠInf o
Ġswe pt
Ġsp ray
Ġwind ing
Ind epend
Ġassoci ates
L iter
al an
Ġoblig ation
F ood
Ġb end
Ġs mu
Ġcalib rated
as se
Ġsl iding
Ġland scapes
ĠMajor ana
ĠAltern ative
Ġsp ike
Ġcomed ian
if ference
arch y
ĠP ione
ap i
OR D
Ġinf ant
ĠV III
es que
Ġlif ts
ĠLithuan ia
ĠK ane
30 2
Ġgre edy
Sim on
ĠAtl as
Ġvolunt ary
ĠN SF
Ġwid ow
Ġflag ship
b ag
Ġstory line
Ġc ake
ou st
Ġtem ples
ixt y
ĠSh ows
Ġcap ita
eal ous
R ussia
Ġbr ighter
Ġp ier
Ġd well
min ent
ĠLeg acy
ĠP G
ĠP ray
uc us
Polit ics
ĠN T
st ill
Ġimport ed
Q C
ĠP itt
ĠMin neapolis
P rem
A k
ĠH C
Ġinform al
Left rightarrow
Ġstack ed
Ste phen
ĠHay es
ĠPant hers
n h
24 6
Ġstra ins
q a
Ġdecl aration
T alk
Ġrein forcement
ĠR oh
ĠHar bour
ĠWag ner
23 9
par box
Ġe ject
ĠA FC
ĠBu enos
Ġv ow
As ian
el ic
Ġh aul
read s
ĠMer it
ĠLux embourg
ĠS par
Ġsculpt ures
ĠL un
+\ !
Sh are
S on
Ġis ometry
cur ves
Ġweight ing
^- _
Ġ( #
Ġru ins
ĠT T
Ġc ricketer
av oid
Ġnew er
d iss
re ed
Ġunem ployment
vis ual
found ed
Ġvocal ist
g rowth
ĠN I
P B
v ine
ĠB j
t emporal
ĠK w
ad h
read ing
Ġtal ents
ĠSt range
align at
ters on
Ch arts
Ed itor
Ġresemb le
pe z
Ġsupp orter
k it
c F
Ġpoint wise
Ġout ward
Ġtra vers
ood y
Ġsn ake
S oviet
Death s
ĠSing er
Ġw itch
ale z
face book
Ġresum ed
mat rices
le z
Ġl i
arm ed
Ġvo iced
' )$.
A da
en ched
Ġins ult
) ^{(
Ġde er
pos ium
Ġexplos ive
Ġm all
ire ment
Ġspec ulation
und e
}} }_
Ġs aves
pro ving
Ġdem ographic
Ġs ung
d iver
Ġelim inating
Ġadd iction
Ġg iants
Ġdel icious
Ġcon ceived
ĠAccording ly
Ġsyn chrotron
ĠArmen ia
Ġcl oth
Ġpar ade
yn es
Pro gram
Ġconstitu ent
ĠB ot
Ġserv ant
Ġbas ement
Ġst aged
em ail
ĠW inner
ĠG alois
Ġinvestig ators
4 60
ĉĉĉĉ ĉĉ
Ġper sec
ten ess
um en
Ġch ase
il ian
l ier
ed it
Ġredu ctions
N H
ampl itude
i ating
ch in
)} ;
Ġinstruct or
conj ug
28 5
;\;\ ;
F uture
Ġded uced
l ot
Ġrespect s
Ġto oth
ĠDo ppler
ĠBur ke
Ġattach ment
18 45
sub ject
Ġglass es
ĠD FT
class ification
g ang
Ã© r
,- .
S NR
ĠT ate
ĠN in
ĠE RA
Ġge ographic
Ġgeodes ics
ĠS cal
Ġcar ved
im ming
r p
Ġpain ful
Ġsp ine
Ġlo os
determ in
= &\
18 20
ĠFight ing
3 12
Ġprom otes
ely n
Ġrest ra
ĠTrans fer
ĠM olecular
ĠJacob ian
C ov
ĠK ick
ĠJacob i
Ġ\ [\
> }[
Ġin ning
st ick
ne e
ĠWil helm
Ġmit igate
ight ing
ĠH ear
Ġend less
d ataset
}| ^{
Ġdeal ers
ĠEm ployment
D iamond
ram s
ĠStaff ord
Q R
gu ide
Ġredund ant
ĠSe y
ex ist
Ġl aps
ĠC ave
Ġde ar
ele ments
Pol y
var nothing
Ġacc ent
ĠCy cl
Ġneur on
$ +$
n ings
f ried
ain es
10 86
ĠChron icle
er re
ĠMe h
Let ter
ĠL on
Ġcont ing
Ġorgan izing
App le
Ġt a
}_{ [
con sum
lem en
ĠMar tha
op ened
Ġo pi
40 1
P ER
Ġtouch ing
iqu it
atas ets
ĠL t
, ~\
q w
Ġbankrupt cy
G overn
ort ions
}^* \
Ġsoc io
o que
ĠSer ver
ĠPear son
pe x
ol esc
ĠMu eller
}) \,
set t
Ġvit amin
ĠSouth west
gener ic
Ġte ens
ta iled
Ġden oting
T en
\ (
fore st
b R
e conomic
Ġb arn
Ġh il
Ġcelebr ates
ĠC ock
ĠBre tt
follow s
? !
29 5
ĠReg ulation
ĠSuper ior
ĠAp ollo
IN D
Ġsupern ova
Ġtra gic
fore ach
Ġc ord
Ġyour s
Ġto ys
De cl
ĠM BA
ĠH ubbard
Ġatt itudes
ograp hed
& +\
ire cted
3 90
Ġske leton
bra ket
Ġd irt
ĠDar win
ĠWW E
ĠD W
ĠJohn s
ĠSaskat chewan
ĠAct ive
B an
Ġre fin
K W
Ġ& $\
ĠG ut
24 2
B BC
ener ation
Ġbur ial
at um
ĠC ult
deriv ative
_{ |\
Ġsix teen
dire cted
P F
x u
Ġin k
Ġl overs
] ^-
Ġf right
}} :
Ġred ist
E mb
Ġc oc
Ġn it
ĠG E
Alex ander
IC S
^- (
ear chers
Ġbul ge
Ġrepe ating
pat tern
ĠC lem
itch ing
), $$
ĠNic ole
ĠSebast ian
Ġvort ices
be e
ĠU rugu
Ġstret ched
Ġdiffe omorphism
Ġion ized
ĠGoth ic
Ġ um
eg ovina
pa rent
g am
sim ulation
F ire
ra j
up quote
ĠKh al
Ġastrophys ical
riv ed
Ġse as
neut ral
Ġquas ars
ĠH ann
==== ====
M n
Ġd airy
ĠAm anda
ĠLanc ashire
ĠAb original
sphinx upquote
ĠNe ural
Comm unity
ĠProdu cer
ĠS ister
ĠWe iss
Ġemp irically
ĠBrad y
ĠBelf ast
ĠG es
I Z
S ty
enc il
obs erv
ĠWi Fi
Ġc ater
lim inf
ĠSc ript
ĠDiv is
ĠH annah
ĠS G
Ġsolit on
M as
z yn
Ġt urt
Ġreview ing
Ġsever ity
Pl us
} &=
Down load
E arl
ĠGreat est
Ġmanuscript s
Transport ation
Ġinval id
P aper
ĠV ac
qu in
Ġche f
ass is
ĠNew port
AT ED
H ill
}{ @{}
bo xt
AN G
ĠBeaut iful
ĠBright on
Ġdebut s
worth y
Ġpromot ional
bf series
Ġelect roweak
Ġbatt alion
he at
zz o
Ġcontribut or
Ġharm ful
ĠEss ential
Ġp ine
Ġfe ather
B and
g b
ĠUs ers
ug ging
Ġalumin um
rib es
Ġret ros
Î º
ĠF ern
Ph ase
Ġteen ager
ĠM n
ĠF IR
Ġw ished
ĠCase y
ĠI v
Ġperipher al
ĠA IDS
Ġdecomp ose
ĠPart ner
U LL
Ġsh out
ĠEth ics
Ġtable t
St arting
act ivity
b ial
Ġceleb rities
g cd
ĠQu ick
ĠBul garian
ĠUn categorized
ĠPart icip
Ġhelic ity
qu ist
Ġsil ly
ĠP iano
Ġpack aging
Ġcon verse
Ġded ication
Ġcivil ization
le f
ĠLink ed
ĠW ins
ĠSch ol
ĠPet erson
ĠGl oucester
Ġ )^
Public ation
ĠEv angel
ĠTest ament
ĠKenn y
Ġconjug ation
ib les
app er
array stretch
ĠCom bat
Ġbo om
normal ized
Ġcit ation
b rown
ĠChrist ine
}+ {\
cross ing
c ourt
ĠMon ster
ĠGriff in
om ar
ĠR as
- |
ĠC arson
ĠÎ ±
ĠH els
ĠRich ards
F ictional
th reshold
Ġautom ation
ĠSt ay
assum ing
the refore
ĠCon v
Ġn oun
aut o
Ġcollect ively
Ġass ured
ĠCo leman
Ġterror ists
Ġdepos ited
ĠT W
ĠEug ene
2 18
Ġb oring
ĠHe in
ign ment
ĠCraw ford
an ium
En vironment
it Ã©
Ġ\ >
Ġvib rant
G irl
Ġde x
Ġref lex
ĠCar bon
cor por
Ġfav ored
AG E
D am
le arn
ĠP ars
ugh ter
ĠWe re
ploy ed
zz i
7 37
H ouses
l ord
ro ots
ĠE van
A J
w r
meas ured
on ial
Ġp ending
ist on
Ġi Tunes
ias m
ile e
Ġrem oves
ĠB rent
I l
ĠS isters
Ġch ir
ĠTre asure
d yn
| ^{-
ĠL abel
ac ies
sh aw
24 9
Ġapart ments
ĠP irates
Dem ocratic
Ġr ider
Ġpresent ations
N s
Ġflav ors
Ġnephe w
Ġretrie ve
ĠC ritical
Ġgl ory
rast ically
Ġaw kward
- {
ĠEmm y
100 00
aint ed
25 3
ĠRes olution
c art
f amilies
cl ub
Ġshe aves
ig ens
' _\
ĠUs ed
Ġvir ial
ĠMur der
}) ^\
ĠV or
40 5
ĠFernand o
) ||
rib ers
ĠSim ple
ĠDem on
rab ility
, +\
O x
S ize
ĠCh andra
r atic
Ġsle e
^{* }$
ĠM aps
Ġmort gage
0 14
ad ia
Ġspons ors
ĠM RI
ĠProp het
eng es
/ (\
s us
ip olar
ĠC ann
ast ings
arting ale
K R
oc ur
In v
ĠN ice
Ġrep airs
Ġcar n
ĠTr in
0000 00
ĠL az
AM P
4 35
D irect
P en
in el
Ġdel icate
Init ial
Ġapprec iation
Ġthe rapeutic
m ith
ry n
Ġsystem ic
ĠT ank
ĠProv incial
Ġintent ions
Ġ iv
ĠR d
ĠPrest on
ĠN V
Ġphil osophical
Ġt uber
ĠR osa
ĠThom son
sens itive
ver gence
Ġair ports
Ġarg uably
ĠN M
Ġtorn ado
iment ary
ĠH ST
list ing
od inger
oph ys
Ġreminis cent
P ing
IM P
9 80
Ġhur ricane
Ġde lete
Ġref lections
Ġproceed ed
g m
Ġbroadcast s
t f
Ġn odd
ĠE A
Ġhab its
Ġlow ered
ins k
Ġlum inous
Ġcontra ctor
ĠDep ression
' },
ĠCl air
at io
om ore
ta k
Ġle ptons
sw orth
ĠFrank furt
26 1
Ġon wards
ĠReg ular
Ġrecover ing
Ġphilos opher
Ġcount less
)= {\
Ġsurround ings
ĠWind sor
Ġoverl ook
Ġaw ful
en ko
it ably
ĠP od
Ġstri ps
boxt imes
ad ors
Ġcompar ative
Ġple asant
Ġveget ation
la us
in frared
Ġd ive
ĠJ P
ĠMan or
Ġtun n
M ountain
ĠWe ight
ĠCh ancellor
Ġrem inds
ĠEs pecially
Ġm s
PYG Z
I r
M g
Ġ il
v ae
Ġc raw
part s
Ġmass acre
yl um
ĠWin ners
}' (
O A
Ġend angered
Ġt ut
ĠE rd
ĠOb ject
gu ard
Ġerg odic
] -
Be ing
class es
urs ion
Ġimpact ed
Ġinv olution
Ġgent le
Res p
Ġqu int
18 37
min im
ĠMax im
Ġsen ator
Ġazimuth al
ar ag
ĠWhit ney
ĠSob olev
Ġint ric
ĠE y
ĠJen kins
B W
up les
ĠC ust
ĠR ising
30 8
ĠBudd ha
Ġquiet ly
ĠM H
und ers
pol icy
Ġec ological
Ġopt ics
ĠS ally
Ġcon vection
ĠBe havior
Ġrevers al
Ġlight weight
Ġbran es
L inear
Ġsex ually
Ġenc ryption
ä º
B log
it ored
Ġ Ã©
Ġhor rif
Ġannih il
Ġserv ants
Ġreleg ated
Ï ħ
Ġmiss iles
in ians
qu ire
ĠTw in
Ġdown ward
Ġabs urd
ev ol
w d
^* _{\
ĠM ist
pin ion
ve rest
à ¯
Ġt issues
Ġmob il
sign al
? }
ĠM ight
ĠR az
ĠD G
em ann
su fficient
"=> "
\ -\
F oot
Ġfrust ration
k ill
an ian
Ġnotice able
ĠT ickets
integ ration
ar ner
ĠRom ney
Ġrecru iting
Ġd iving
ĠD up
ĠBra h
Ġwhere ver
Ġtim ely
Qu antum
r ally
s ed
Ġcard iac
make cell
app ings
Ġhor rible
ta ine
Ġrece ipt
AC S
Ġbroad band
ext ension
ros se
Ġentreprene urs
Ġfair y
' |
ink i
Upd ate
ho f
ĠK ob
ct ive
land er
Ġter restrial
ĠRuss ians
obs ervations
/ -
text subscript
Ġpal m
Ġtight ly
Â «
rad io
' ).
Ġ }}\
Ġre bounds
clud e
}+ (
p rior
ĠC ertain
ĠT ables
Ġdiscipl ines
Ġcalc ium
ĠSant os
ĠEston ia
M AN
ĠRel ated
ĠW ong
18 44
ĠBeat les
Ġu ph
general ized
se lected
end e
ĠCan terbury
ĠJ as
ex cit
Ġnon empty
Ġatt orneys
ĠFre eman
Art icles
0 20
Ġp i
Ġhost ile
Ġqu ench
Ġretain ing
6 40
ĠT S
Ġselect s
Ġmist aken
Ġinad equ
u o
ĠM t
30 7
Ġadv ancing
fill draw
Writ ers
d S
ĠS kin
en vironment
Ġlinear ized
Ġmand ate
18 12
Ġrel ied
ĠAlbum s
18 39
Ġp neum
ĠD ew
ĠA sc
N BC
Ġfl ies
Ġgl uc
Ġb otan
ĠSl av
ĠCart esian
ĠEd gar
and i
t alk
arc s
Ġint r
Ġastero id
Â ±
ĠT ouch
ĠSt ructure
pot he
T itle
ĠL omb
K T
ip ed
Ind ividual
Ġvulner ability
Ġprob es
mind ed
ĠTe aching
atta ck
ch at
op hers
ĠWor cester
cer tain
ĠU z
ĠUnder ground
anth a
ĠH iro
Ġtra fficking
Ġ- (
25 8
Ġflat ten
Ġsu its
Ġsupp lementary
Hig gs
Ġrecre ational
+ |\
Ġcard inal
th ink
ĠRel igious
Ġr ushing
Ġoff shore
Ġi Pad
Ġisomorphism s
Ġval ve
Ġdevast ating
- (\
},\ ,
ĠF eder
Ġscreen ed
sol utions
Ġlong time
ĠSche me
ĠP owers
ocy cle
ĠDor othy
Ġt el
ĠK ad
Ġadv isory
Orig inally
ĠT urb
ĠBe ast
ĠMar ian
Ġorgan izational
en i
ĠR andy
maxim um
Ġf als
ĠJohn ston
resp ons
ĠContin ental
ran king
Ġpl a
ĠÃ ĸ
ï ¬
Ġf ence
ĠJo in
Ġcook ie
i our
Ġf ulf
ĠEu rop
Ġsl ots
ens itive
mu ch
Ġanten nas
st d
ĠL ip
ĠV iv
cer t
Un til
Ġdirect ing
Ġflu ids
Ġlemm as
Ġcondu ction
diff usion
K D
Ind ex
p enter
Ġex changed
A ff
Ù ģ
[...]
