{
  "version": "1.0",
  "truncation": null,
  "padding": null,
  "added_tokens": [
    {
      "id": 0,
      "content": "[UNK]",
      "single_word": false,
      "lstrip": false,
      "rstrip": false,
      "normalized": false,
      "special": true
    }
  ],
  "normalizer": null,
  "pre_tokenizer": {
    "type": "Sequence",
    "pretokenizers": [
      {
        "type": "Digits",
        "individual_digits": false
      },
      {
        "type": "ByteLevel",
        "add_prefix_space": false,
        "trim_offsets": true,
        "use_regex": true
      }
    ]
  },
  "post_processor": null,
  "decoder": null,
  "model": {
    "type": "BPE",
    "dropout": null,
    "unk_token": "[UNK]",
    "continuing_subword_prefix": null,
    "end_of_word_suffix": null,
    "fuse_unk": false,
    "byte_fallback": false,
    "vocab": {
      "[UNK]": 0,
      "!": 1,
      "\"": 2,
      "#": 3,
      "$": 4,
      "%": 5,
      "&": 6,
      "'": 7,
      "(": 8,
      ")": 9,
      "*": 10,
      "+": 11,
      ",": 12,
      "-": 13,
      ".": 14,
      "/": 15,
      "0": 16,
      "1": 17,
      "2": 18,
      "3": 19,
      "4": 20,
      "5": 21,
      "6": 22,
      "7": 23,
      "8": 24,
      "9": 25,
      ":": 26,
      ";": 27,
      "<": 28,
      "=": 29,
      ">": 30,
      "?": 31,
      "@": 32,
      "A": 33,
      "B": 34,
      "C": 35,
      "D": 36,
      "E": 37,
      "F": 38,
      "G": 39,
      "H": 40,
      "I": 41,
      "J": 42,
      "K": 43,
      "L": 44,
      "M": 45,
      "N": 46,
      "O": 47,
      "P": 48,
      "Q": 49,
      "R": 50,
      "S": 51,
      "T": 52,
      "U": 53,
      "V": 54,
      "W": 55,
      "X": 56,
      "Y": 57,
      "Z": 58,
      "[": 59,
      "\\": 60,
      "]": 61,
      "^": 62,
      "_": 63,
      "`": 64,
      "a": 65,
      "b": 66,
      "c": 67,
      "d": 68,
      "e": 69,
      "f": 70,
      "g": 71,
      "h": 72,
      "i": 73,
      "j": 74,
      "k": 75,
      "l": 76,
      "m": 77,
      "n": 78,
      "o": 79,
      "p": 80,
      "q": 81,
      "r": 82,
      "s": 83,
      "t": 84,
      "u": 85,
      "v": 86,
      "w": 87,
      "x": 88,
      "y": 89,
      "z": 90,
      "{": 91,
      "|": 92,
      "}": 93,
      "~": 94,
      "¡": 95,
      "¢": 96,
      "£": 97,
      "¤": 98,
      "¥": 99,
      "¦": 100,
      "§": 101,
      "¨": 102,
      "©": 103,
      "ª": 104,
      "«": 105,
      "¬": 106,
      "®": 107,
      "¯": 108,
      "°": 109,
      "±": 110,
      "²": 111,
      "³": 112,
      "´": 113,
      "µ": 114,
      "¶": 115,
      "·": 116,
      "¸": 117,
      "¹": 118,
      "º": 119,
      "»": 120,
      "¼": 121,
      "½": 122,
      "¾": 123,
      "¿": 124,
      "Â": 125,
      "Ã": 126,
      "Ä": 127,
      "Å": 128,
      "Æ": 129,
      "Ç": 130,
      "È": 131,
      "É": 132,
      "Ê": 133,
      "Ë": 134,
      "Ì": 135,
      "Í": 136,
      "Î": 137,
      "Ï": 138,
      "Ð": 139,
      "Ñ": 140,
      "Ò": 141,
      "Ó": 142,
      "Ô": 143,
      "Õ": 144,
      "Ö": 145,
      "×": 146,
      "Ø": 147,
      "Ù": 148,
      "Ú": 149,
      "Û": 150,
      "Ü": 151,
      "Ý": 152,
      "Þ": 153,
      "ß": 154,
      "à": 155,
      "á": 156,
      "â": 157,
      "ã": 158,
      "ä": 159,
      "å": 160,
      "æ": 161,
      "ç": 162,
      "è": 163,
      "é": 164,
      "ê": 165,
      "ë": 166,
      "ì": 167,
      "í": 168,
      "î": 169,
      "ï": 170,
      "ð": 171,
      "ó": 172,
      "ô": 173,
      "Ā": 174,
      "ā": 175,
      "Ă": 176,
      "ă": 177,
      "Ą": 178,
      "ą": 179,
      "Ć": 180,
      "ć": 181,
      "Ĉ": 182,
      "ĉ": 183,
      "Ċ": 184,
      "ċ": 185,
      "Č": 186,
      "č": 187,
      "Ď": 188,
      "ď": 189,
      "Đ": 190,
      "đ": 191,
      "Ē": 192,
      "ē": 193,
      "Ĕ": 194,
      "ĕ": 195,
      "Ė": 196,
      "ė": 197,
      "Ę": 198,
      "ę": 199,
      "Ě": 200,
      "ě": 201,
      "Ĝ": 202,
      "ĝ": 203,
      "Ğ": 204,
      "ğ": 205,
      "Ġ": 206,
      "ġ": 207,
      "Ģ": 208,
      "ģ": 209,
      "Ĥ": 210,
      "ĥ": 211,
      "Ħ": 212,
      "ħ": 213,
      "Ĩ": 214,
      "ĩ": 215,
      "Ī": 216,
      "ī": 217,
      "Ĭ": 218,
      "ĭ": 219,
      "Į": 220,
      "į": 221,
      "İ": 222,
      "ı": 223,
      "Ĳ": 224,
      "ĳ": 225,
      "Ĵ": 226,
      "ĵ": 227,
      "Ķ": 228,
      "ķ": 229,
      "ĸ": 230,
      "Ĺ": 231,
      "ĺ": 232,
      "Ļ": 233,
      "ļ": 234,
      "Ľ": 235,
      "ľ": 236,
      "Ŀ": 237,
      "ŀ": 238,
      "Ł": 239,
      "ł": 240,
      "Ń": 241,
      "Ġt": 242,
      "in": 243,
      "he": 244,
      "Ġa": 245,
      "on": 246,
      "re": 247,
      "Ġthe": 248,
      "er": 249,
      "at": 250,
      "Ġs": 251,
      "en": 252,
      "Ġo": 253,
      "al": 254,
      "it": 255,
      "or": 256,
      "is": 257,
      "an": 258,
      "Ġw": 259,
      "es": 260,
      "Ġc": 261,
      "ar": 262,
      "ed": 263,
      "Ġf": 264,
      "ion": 265,
      "Ġof": 266,
      "nd": 267,
      "Ġp": 268,
      "Ġb": 269,
      "Ġin": 270,
      "ing": 271,
      "ic": 272,
      "le": 273,
      "ro": 274,
      "Ġand": 275,
      "Ġ\\": 276,
      "Ġm": 277,
      "Ġd": 278,
      "as": 279,
      "ĠĠ": 280,
      "Ġto": 281,
      "Ġ$": 282,
      "ou": 283,
      "el": 284,
      "ct": 285,
      "ent": 286,
      "et": 287,
      "ig": 288,
      "Ġh": 289,
      "Ġth": 290,
      "il": 291,
      "om": 292,
      "st": 293,
      "ra": 294,
      "Ġre": 295,
      "ation": 296,
      "Ġe": 297,
      "im": 298,
      "ĠT": 299,
      "ĠS": 300,
      "ol": 301,
      "ot": 302,
      "Ġn": 303,
      "am": 304,
      "Ġl": 305,
      "Ġis": 306,
      "Ġ(": 307,
      "{\\": 308,
      "ĠA": 309,
      "ĠC": 310,
      "ve": 311,
      "id": 312,
      "ce": 313,
      "Ġfor": 314,
      "Ġg": 315,
      "ut": 316,
      "ch": 317,
      "ly": 318,
      "ow": 319,
      "âĢ": 320,
      "us": 321,
      "ur": 322,
      "Ġon": 323,
      "ver": 324,
      "ĠM": 325,
      "ĠI": 326,
      "Ġbe": 327,
      "ul": 328,
      "ith": 329,
      "Ġthat": 330,
      "ad": 331,
      "qu": 332,
      "Ġst": 333,
      "ab": 334,
      "se": 335,
      "_{": 336,
      "ĠB": 337,
      "um": 338,
      "ĠP": 339,
      "ir": 340,
      "ay": 341,
      "20": 342,
      "Ġas": 343,
      "Ġwith": 344,
      "ĠĠĠĠ": 345,
      "Ġcon": 346,
      "un": 347,
      "em": 348,
      "eg": 349,
      "ter": 350,
      "ath": 351,
      "Ġ$\\": 352,
      "ĠH": 353,
      "od": 354,
      "ri": 355,
      "Ġal": 356,
      "ĠF": 357,
      "end": 358,
      "if": 359,
      "Ġan": 360,
      "Ġwe": 361,
      "ĠThe": 362,
      "ĠR": 363,
      "her": 364,
      "Ġpro": 365,
      "igh": 366,
      "ge": 367,
      "ĠD": 368,
      "ist": 369,
      "th": 370,
      "ĠL": 371,
      "ĠW": 372,
      "ta": 373,
      "math": 374,
      "Ġby": 375,
      "and": 376,
      "ure": 377,
      "ĠĊ": 378,
      "ction": 379,
      "Ġwh": 380,
      "ers": 381,
      "os": 382,
      "ph": 383,
      "pp": 384,
      "ity": 385,
      "ĠN": 386,
      "19": 387,
      "Ġ&": 388,
      "Ġat": 389,
      "Ġit": 390,
      "ĠG": 391,
      "Ġv": 392,
      "Ġwas": 393,
      "Ġare": 394,
      "rom": 395,
      "ight": 396,
      "ac": 397,
      "}\\": 398,
      "iv": 399,
      "Ġex": 400,
      "ore": 401,
      "Ġcom": 402,
      "ĠE": 403,
      "ate": 404,
      "}$": 405,
      "op": 406,
      "est": 407,
      "Ġde": 408,
      "^{": 409,
      "te": 410,
      "art": 411,
      "ill": 412,
      "res": 413,
      "ies": 414,
      "čĊ": 415,
      "Ġse": 416,
      "ma": 417,
      "Ġfrom": 418,
      "oc": 419,
      "Ġy": 420,
      "ite": 421,
      "ine": 422,
      "ub": 423,
      "pe": 424,
      "ial": 425,
      "Ġhe": 426,
      "ess": 427,
      "ant": 428,
      "up": 429,
      "Ġor": 430,
      "ive": 431,
      "ew": 432,
      "ĠJ": 433,
      "ld": 434,
      "ud": 435,
      "pt": 436,
      "all": 437,
      "ment": 438,
      "The": 439,
      "âĢĻ": 440,
      "ak": 441,
      "ref": 442,
      "ag": 443,
      "Ġr": 444,
      "ĠO": 445,
      "}}": 446,
      "(\\": 447,
      "ren": 448,
      "pl": 449,
      "ort": 450,
      "ich": 451,
      "rac": 452,
      "Ġsh": 453,
      "ave": 454,
      "our": 455,
      "ell": 456,
      "egin": 457,
      "ft": 458,
      "begin": 459,
      "fe": 460,
      "ical": 461,
      "Ġthis": 462,
      "ber": 463,
      "red": 464,
      "Ġus": 465,
      "201": 466,
      "og": 467,
      "Ġch": 468,
      "ard": 469,
      "iz": 470,
      "ated": 471,
      "'s": 472,
      "Ġnot": 473,
      "_{\\": 474,
      "und": 475,
      "per": 476,
      ")$": 477,
      "Ġle": 478,
      "ust": 479,
      "cal": 480,
      "xt": 481,
      "ĠU": 482,
      "ps": 483,
      "ĠâĢ": 484,
      "ĠK": 485,
      "Ġcomp": 486,
      "ult": 487,
      "ran": 488,
      "int": 489,
      "ition": 490,
      "}{": 491,
      "orm": 492,
      "ign": 493,
      "Ġk": 494,
      "ary": 495,
      "ĠIn": 496,
      "Ġhave": 497,
      "ian": 498,
      "00": 499,
      "Ġ-": 500,
      "Ġcan": 501,
      "Ġsu": 502,
      "cl": 503,
      "Ġpl": 504,
      "ens": 505,
      "ations": 506,
      "ast": 507,
      "ia": 508,
      "ong": 509,
      "de": 510,
      "Ġwhich": 511,
      "frac": 512,
      "eq": 513,
      "Ġres": 514,
      "ear": 515,
      "Ġ=": 516,
      "ost": 517,
      ",\\": 518,
      "ass": 519,
      "du": 520,
      "ide": 521,
      "rm": 522,
      "Ġwhe": 523,
      "gh": 524,
      "cite": 525,
      "ue": 526,
      "ther": 527,
      "equ": 528,
      "})": 529,
      "ain": 530,
      "Ġall": 531,
      "oun": 532,
      "right": 533,
      "ork": 534,
      "ĠĠĠĠĠĠĠĠ": 535,
      "Ġab": 536,
      "Ġcl": 537,
      "to": 538,
      "ace": 539,
      "cc": 540,
      "ip": 541,
      "the": 542,
      "ĠĠĠ": 543,
      "Ġhas": 544,
      "ame": 545,
      "abel": 546,
      "Ġun": 547,
      "ous": 548,
      "ĠV": 549,
      "ime": 550,
      "text": 551,
      "ould": 552,
      "so": 553,
      "able": 554,
      "ome": 555,
      "ord": 556,
      "ack": 557,
      "ib": 558,
      "av": 559,
      "mathb": 560,
      "ap": 561,
      "act": 562,
      "Ġim": 563,
      "Ġhis": 564,
      "ence": 565,
      "ond": 566,
      "ach": 567,
      "ok": 568,
      "},": 569,
      "$,": 570,
      "ff": 571,
      "ase": 572,
      "out": 573,
      "ru": 574,
      "label": 575,
      "ric": 576,
      "$.": 577,
      "Ġapp": 578,
      "Ġ\"": 579,
      "200": 580,
      "ie": 581,
      "ions": 582,
      "age": 583,
      "eta": 584,
      "),": 585,
      "ĠTh": 586,
      "ang": 587,
      "equation": 588,
      "Ġad": 589,
      "ry": 590,
      "oll": 591,
      "ĠSt": 592,
      "ener": 593,
      "ik": 594,
      "are": 595,
      "Ġone": 596,
      "Ġj": 597,
      "Ġsp": 598,
      "form": 599,
      "mathcal": 600,
      "Ġme": 601,
      "10": 602,
      "ind": 603,
      "ire": 604,
      "}.": 605,
      "feren": 606,
      "Ġalso": 607,
      "ely": 608,
      "ĠCh": 609,
      "ice": 610,
      "Ġpart": 611,
      "..": 612,
      "ces": 613,
      "ally": 614,
      "wo": 615,
      "own": 616,
      "over": 617,
      "ov": 618,
      "}(": 619,
      "Ġbut": 620,
      "erm": 621,
      "Ġne": 622,
      "left": 623,
      ").": 624,
      "Ġmod": 625,
      "ound": 626,
      "ish": 627,
      "old": 628,
      "Ġcont": 629,
      "ree": 630,
      "Ġyou": 631,
      "Ġdis": 632,
      "erv": 633,
      "ors": 634,
      "ne": 635,
      "}^": 636,
      "ance": 637,
      "Ġwere": 638,
      "ents": 639,
      "ory": 640,
      "Ġqu": 641,
      "Ġtheir": 642,
      "~\\": 643,
      "Ġwill": 644,
      "ark": 645,
      "fig": 646,
      "ose": 647,
      "}_": 648,
      "irst": 649,
      "row": 650,
      "ates": 651,
      "In": 652,
      "amb": 653,
      "Ġout": 654,
      "Ġper": 655,
      "mer": 656,
      "tain": 657,
      "Ġev": 658,
      "pha": 659,
      "we": 660,
      "Ġar": 661,
      "Ġob": 662,
      "clud": 663,
      "one": 664,
      "ress": 665,
      "vers": 666,
      "rib": 667,
      "pect": 668,
      "da": 669,
      "alpha": 670,
      "pro": 671,
      "18": 672,
      "ĠY": 673,
      "line": 674,
      "com": 675,
      "Ġro": 676,
      "ics": 677,
      "Ġtwo": 678,
      "Ġdo": 679,
      "âĢĿ": 680,
      "Ġmore": 681,
      "ile": 682,
      ")\\": 683,
      "Ġits": 684,
      "Ġen": 685,
      "imes": 686,
      "sum": 687,
      "ep": 688,
      "Ġ|": 689,
      "Ġthey": 690,
      "Ġother": 691,
      "$\\": 692,
      "Ġsy": 693,
      "ll": 694,
      "ove": 695,
      "ular": 696,
      "rit": 697,
      "tern": 698,
      "ple": 699,
      "Ġte": 700,
      "Ġup": 701,
      "ambda": 702,
      "ect": 703,
      "Ġfirst": 704,
      "Ġman": 705,
      "elta": 706,
      "Ġso": 707,
      "vel": 708,
      "ks": 709,
      "ob": 710,
      "mb": 711,
      "Ġsc": 712,
      "cent": 713,
      "ĠHe": 714,
      "ĠIt": 715,
      "Ġag": 716,
      "Ġ+": 717,
      "oint": 718,
      "port": 719,
      "Ġover": 720,
      "ount": 721,
      "rans": 722,
      "ook": 723,
      "Ġwho": 724,
      "very": 725,
      "ution": 726,
      "Ġtime": 727,
      "ari": 728,
      "amma": 729,
      "ons": 730,
      "ugh": 731,
      "ca": 732,
      "_\\": 733,
      "Ġbeen": 734,
      "ho": 735,
      "ys": 736,
      "ollow": 737,
      "hed": 738,
      "Ġwork": 739,
      "Ġhad": 740,
      "hat": 741,
      "mu": 742,
      "Ġdes": 743,
      "Ġdif": 744,
      "Ġbet": 745,
      "Ġher": 746,
      "Ġ\\\\": 747,
      "ĠUn": 748,
      "Ġour": 749,
      "ake": 750,
      "ational": 751,
      "=\\": 752,
      "ĠWe": 753,
      "of": 754,
      "igma": 755,
      "dot": 756,
      "Ġif": 757,
      "Ġthere": 758,
      "ck": 759,
      "fter": 760,
      "raph": 761,
      "Ġset": 762,
      "}^{": 763,
      "12": 764,
      "mathbb": 765,
      "iel": 766,
      "}_{": 767,
      "Ġcons": 768,
      "ater": 769,
      "Ġwhere": 770,
      "ings": 771,
      "-\\": 772,
      "ced": 773,
      "Ġtra": 774,
      "Ġgo": 775,
      "ĠâĢĵ": 776,
      "under": 777,
      "Ġthan": 778,
      "ega": 779,
      "Ġonly": 780,
      "vi": 781,
      "les": 782,
      "sub": 783,
      "Ġsuch": 784,
      "Ġfollow": 785,
      "ays": 786,
      "aw": 787,
      "Ġsub": 788,
      "ram": 789,
      "ature": 790,
      "lect": 791,
      "Ġmodel": 792,
      "iss": 793,
      "Ġabout": 794,
      "ĠSe": 795,
      "Ġpre": 796,
      "Ġinto": 797,
      "ative": 798,
      "Ġnew": 799,
      "ict": 800,
      "phi": 801,
      "ied": 802,
      "Ġany": 803,
      "Ġyear": 804,
      "Ġsome": 805,
      "Ġrel": 806,
      "fin": 807,
      "Ġwhen": 808,
      "unction": 809,
      "^{\\": 810,
      "oth": 811,
      "ual": 812,
      "ans": 813,
      "ike": 814,
      "umber": 815,
      "Ġform": 816,
      "Ġacc": 817,
      "ray": 818,
      "app": 819,
      "ject": 820,
      "Ġ{\\": 821,
      "ased": 822,
      "Ġint": 823,
      "ĠâĢľ": 824,
      "Ġreg": 825,
      "resent": 826,
      "ield": 827,
      "lambda": 828,
      "pec": 829,
      "dition": 830,
      "Ġsim": 831,
      "stem": 832,
      "cre": 833,
      "con": 834,
      "199": 835,
      "ough": 836,
      "use": 837,
      "ss": 838,
      "Ġwould": 839,
      "ild": 840,
      "olog": 841,
      "pi": 842,
      "Ġoff": 843,
      "Ġpe": 844,
      "Ġthen": 845,
      "Ġkn": 846,
      "ix": 847,
      "Ġplay": 848,
      "Ġresult": 849,
      "lic": 850,
      "bf": 851,
      "Ġdist": 852,
      "eth": 853,
      "Ġra": 854,
      "ĠThis": 855,
      "Ġtrans": 856,
      "Ġph": 857,
      "Ġinter": 858,
      "pos": 859,
      "Ġshow": 860,
      "ating": 861,
      "ific": 862,
      "ning": 863,
      "Ġgener": 864,
      "ata": 865,
      "ween": 866,
      "Ġfl": 867,
      "part": 868,
      "ople": 869,
      "Ġcor": 870,
      "Ġpos": 871,
      "11": 872,
      "Ġcomm": 873,
      "ption": 874,
      "Ġco": 875,
      "ax": 876,
      "sp": 877,
      "round": 878,
      "ince": 879,
      "til": 880,
      "mathbf": 881,
      "fect": 882,
      "Ġunder": 883,
      "lem": 884,
      "Ġequ": 885,
      "Ġdifferen": 886,
      "ities": 887,
      "ise": 888,
      "ox": 889,
      "âĢĵ": 890,
      "ĠRe": 891,
      "ilon": 892,
      "Ġbetween": 893,
      "section": 894,
      "sigma": 895,
      "Ġno": 896,
      "ward": 897,
      "psilon": 898,
      "arg": 899,
      "ility": 900,
      "rough": 901,
      "Ġinclud": 902,
      "15": 903,
      "sc": 904,
      "ail": 905,
      "land": 906,
      "wid": 907,
      "Ġfunction": 908,
      "ick": 909,
      "pr": 910,
      "Ġval": 911,
      "ident": 912,
      "Ġshe": 913,
      "Ġthese": 914,
      "Ġfe": 915,
      "ex": 916,
      "}{\\": 917,
      "ral": 918,
      "Ġ(\\": 919,
      "oy": 920,
      "align": 921,
      "ited": 922,
      "Ġthem": 923,
      "sh": 924,
      "roup": 925,
      "ĠAn": 926,
      "ĠDe": 927,
      "^{-": 928,
      "Ġsystem": 929,
      "Ġact": 930,
      "ron": 931,
      "ize": 932,
      "We": 933,
      "ments": 934,
      "Ġloc": 935,
      "Ġeach": 936,
      "its": 937,
      "beta": 938,
      "Re": 939,
      "Ġconst": 940,
      "Ġpol": 941,
      "orn": 942,
      "Ġbl": 943,
      "Ġfin": 944,
      "ug": 945,
      "Ġstud": 946,
      "ower": 947,
      "16": 948,
      "ts": 949,
      "als": 950,
      "tt": 951,
      "cess": 952,
      "Ġprov": 953,
      "ool": 954,
      "Ġgiv": 955,
      "ible": 956,
      "urn": 957,
      "Ġinv": 958,
      "Ġrec": 959,
      "der": 960,
      "uring": 961,
      "Ġprob": 962,
      "ivers": 963,
      "Ġpoint": 964,
      "ues": 965,
      "gamma": 966,
      "Ġsa": 967,
      "Ġafter": 968,
      "Ġsm": 969,
      "+\\": 970,
      "ĠCom": 971,
      "17": 972,
      "io": 973,
      "Ġ[": 974,
      "Ġprodu": 975,
      "ins": 976,
      "Ġmay": 977,
      "mathrm": 978,
      "Ġmost": 979,
      "Ġuse": 980,
      "ĠNew": 981,
      "Ġpar": 982,
      "bar": 983,
      "Ġused": 984,
      "ient": 985,
      "uss": 986,
      "*}": 987,
      "hen": 988,
      "ĠAl": 989,
      "Ġmat": 990,
      "cond": 991,
      "13": 992,
      "ily": 993,
      "orld": 994,
      "ock": 995,
      "set": 996,
      "ade": 997,
      "meric": 998,
      "rho": 999,
      "ruct": 1000,
      "air": 1001,
      "ffect": 1002,
      "cy": 1003,
      "^\\": 1004,
      "ĠPro": 1005,
      "Ġpeople": 1006,
      "Th": 1007,
      "ism": 1008,
      "Ġcol": 1009,
      "ĠFor": 1010,
      "ists": 1011,
      "Ġwell": 1012,
      "Ġsol": 1013,
      "arch": 1014,
      "ink": 1015,
      ")}": 1016,
      "Ġam": 1017,
      "$-": 1018,
      "ann": 1019,
      "14": 1020,
      "reat": 1021,
      "ote": 1022,
      "]{": 1023,
      "delta": 1024,
      "Ġind": 1025,
      "Ġdifferent": 1026,
      "ton": 1027,
      "theta": 1028,
      "figure": 1029,
      "array": 1030,
      "here": 1031,
      "itt": 1032,
      "Ġappro": 1033,
      "Ġdata": 1034,
      "Ġest": 1035,
      "Ġthrough": 1036,
      "tau": 1037,
      "cdot": 1038,
      "uch": 1039,
      "Ġ||": 1040,
      "hes": 1041,
      "Ġhow": 1042,
      "oot": 1043,
      "leq": 1044,
      "Ġext": 1045,
      "\\\\": 1046,
      "ever": 1047,
      "Ġnumber": 1048,
      "ized": 1049,
      "Ġsupp": 1050,
      "Ġlike": 1051,
      "rt": 1052,
      "yn": 1053,
      "pend": 1054,
      "wn": 1055,
      "}$,": 1056,
      "ĉĉ": 1057,
      "Ġrep": 1058,
      "Ġsign": 1059,
      "}$.": 1060,
      "Ġcase": 1061,
      "amp": 1062,
      "Ġsame": 1063,
      "ĠZ": 1064,
      "ctions": 1065,
      "ines": 1066,
      "Ġent": 1067,
      "ange": 1068,
      "Ġexp": 1069,
      "nu": 1070,
      "ode": 1071,
      "let": 1072,
      "}(\\": 1073,
      "Ġass": 1074,
      "198": 1075,
      "ĠQ": 1076,
      "Ġvari": 1077,
      "Ġsur": 1078,
      "ically": 1079,
      "Ġspec": 1080,
      "Ġget": 1081,
      "ilm": 1082,
      "abl": 1083,
      "ood": 1084,
      "Ġ{": 1085,
      "width": 1086,
      "Ġpartic": 1087,
      "Ġi": 1088,
      "Ġclass": 1089,
      "Ġnon": 1090,
      "Ġsee": 1091,
      "big": 1092,
      "ctor": 1093,
      "Ġback": 1094,
      "Ġhim": 1095,
      "ization": 1096,
      "arrow": 1097,
      "oci": 1098,
      "Ġcur": 1099,
      "min": 1100,
      "partial": 1101,
      "ĠEn": 1102,
      "Ġyour": 1103,
      "30": 1104,
      "chool": 1105,
      "riv": 1106,
      "Ġjust": 1107,
      "Ġboth": 1108,
      "25": 1109,
      "Ġwhat": 1110,
      "ull": 1111,
      "ason": 1112,
      "Ġsaid": 1113,
      "par": 1114,
      "eqref": 1115,
      "Ġhigh": 1116,
      "times": 1117,
      "Ġx": 1118,
      "Ġusing": 1119,
      "ash": 1120,
      "item": 1121,
      "gy": 1122,
      "Ġline": 1123,
      "ract": 1124,
      "elf": 1125,
      "ier": 1126,
      "ĠLe": 1127,
      "oh": 1128,
      "ision": 1129,
      "arge": 1130,
      "Ġagain": 1131,
      "ator": 1132,
      "ering": 1133,
      "Ġdire": 1134,
      "...": 1135,
      "rent": 1136,
      "sy": 1137,
      "omega": 1138,
      "Ġterm": 1139,
      "ars": 1140,
      "ffic": 1141,
      "fl": 1142,
      "cause": 1143,
      "Ġbu": 1144,
      "any": 1145,
      "21": 1146,
      "Ġfact": 1147,
      "pm": 1148,
      "Ġdet": 1149,
      "mm": 1150,
      "Ġinst": 1151,
      "ful": 1152,
      "ĠAs": 1153,
      "ah": 1154,
      "fty": 1155,
      "ĠAmeric": 1156,
      "tilde": 1157,
      "Ġac": 1158,
      "Ġdisc": 1159,
      "put": 1160,
      "eqn": 1161,
      "ĠĠĠĠĠĠĠĠĠĠĠĠĠĠĠĠ": 1162,
      "Ġoper": 1163,
      "ined": 1164,
      "infty": 1165,
      "ample": 1166,
      "ĠCon": 1167,
      "ĠSh": 1168,
      "ĠX": 1169,
      "ife": 1170,
      "velop": 1171,
      "Ġed": 1172,
      "Ġgroup": 1173,
      "Ġmy": 1174,
      "quad": 1175,
      "Ġthree": 1176,
      "Ġmin": 1177,
      "ty": 1178,
      "--": 1179,
      "gan": 1180,
      "ublic": 1181,
      "Ġfield": 1182,
      "Ġem": 1183,
      "Ġcent": 1184,
      "cer": 1185,
      "Ġyears": 1186,
      "Ġgiven": 1187,
      "ices": 1188,
      "Ġend": 1189,
      "Ġcould": 1190,
      "amet": 1191,
      "eng": 1192,
      "ively": 1193,
      "ots": 1194,
      "Ġstate": 1195,
      "for": 1196,
      "formation": 1197,
      "uc": 1198,
      "iversity": 1199,
      "|\\": 1200,
      "rest": 1201,
      "Ġperform": 1202,
      "Ġevery": 1203,
      "irc": 1204,
      "other": 1205,
      "Ġfollowing": 1206,
      "fore": 1207,
      "ional": 1208,
      "ases": 1209,
      "Ġnow": 1210,
      "Delta": 1211,
      "22": 1212,
      "Ġneed": 1213,
      "Ġdec": 1214,
      "ke": 1215,
      "Ġfound": 1216,
      "Ġlead": 1217,
      ".,": 1218,
      "Ġstr": 1219,
      "Ġdefin": 1220,
      "man": 1221,
      "Ġmem": 1222,
      "ute": 1223,
      "ality": 1224,
      "Ġserv": 1225,
      "Ġsing": 1226,
      "Ġsecond": 1227,
      "ten": 1228,
      "ures": 1229,
      "ner": 1230,
      "Ġbeing": 1231,
      "Ġmany": 1232,
      "Ġeffect": 1233,
      "way": 1234,
      "ross": 1235,
      "Ġwhile": 1236,
      "ethod": 1237,
      "sec": 1238,
      "Ġexper": 1239,
      "Ġpr": 1240,
      "rang": 1241,
      "Ġser": 1242,
      "Ġsmall": 1243,
      "ames": 1244,
      "Ġatt": 1245,
      "Ġcall": 1246,
      "Ġorder": 1247,
      "orth": 1248,
      "ished": 1249,
      "Ġbel": 1250,
      "ology": 1251,
      "arly": 1252,
      "197": 1253,
      "ider": 1254,
      "50": 1255,
      "ets": 1256,
      "ential": 1257,
      "Ġobs": 1258,
      "space": 1259,
      "Ġz": 1260,
      "sim": 1261,
      "ale": 1262,
      "\\,": 1263,
      "xi": 1264,
      "ting": 1265,
      "ather": 1266,
      "Ġeven": 1267,
      "Ġvery": 1268,
      "hi": 1269,
      "ining": 1270,
      "orem": 1271,
      "Ġpa": 1272,
      "aking": 1273,
      "Ġca": 1274,
      "ulation": 1275,
      "erson": 1276,
      "uth": 1277,
      "ural": 1278,
      "Ġbecause": 1279,
      "000": 1280,
      "Ġdesc": 1281,
      "Ġele": 1282,
      "ĠCl": 1283,
      "ement": 1284,
      "col": 1285,
      "Ġlong": 1286,
      "ability": 1287,
      "ĠInd": 1288,
      "be": 1289,
      "Ġanal": 1290,
      "pen": 1291,
      ")$.": 1292,
      "Ġresults": 1293,
      "}[": 1294,
      "Ġright": 1295,
      "Ġart": 1296,
      "where": 1297,
      "ĠSc": 1298,
      "}}\\": 1299,
      "ferences": 1300,
      "az": 1301,
      "view": 1302,
      "ball": 1303,
      "outh": 1304,
      "Ġfam": 1305,
      "ants": 1306,
      "2019": 1307,
      "ĠĠĠĠĠĠĠ": 1308,
      "24": 1309,
      "work": 1310,
      "Ġmade": 1311,
      "Ġexpl": 1312,
      "Ġty": 1313,
      "ene": 1314,
      "led": 1315,
      "var": 1316,
      "Ġobtain": 1317,
      "Ġmon": 1318,
      "$$": 1319,
      "Ġrequ": 1320,
      "ank": 1321,
      "Ġknow": 1322,
      "inal": 1323,
      "pond": 1324,
      "att": 1325,
      "chn": 1326,
      "Ġdoes": 1327,
      "Ġduring": 1328,
      "Ġfilm": 1329,
      "mber": 1330,
      "eqnarray": 1331,
      "ouse": 1332,
      "iqu": 1333,
      "Ġfind": 1334,
      "aj": 1335,
      "rix": 1336,
      "Ġcre": 1337,
      "Ġgu": 1338,
      "Ġmeas": 1339,
      "ved": 1340,
      "ury": 1341,
      "epsilon": 1342,
      "Ġ$(": 1343,
      "Om": 1344,
      "Ġway": 1345,
      "Ġmethod": 1346,
      "ven": 1347,
      "Ġstart": 1348,
      "Ġchar": 1349,
      "ages": 1350,
      "Ġdevelop": 1351,
      "Ġbound": 1352,
      "ern": 1353,
      "Ġmass": 1354,
      "Ġsince": 1355,
      "Ġbefore": 1356,
      "Ġshould": 1357,
      "energy": 1358,
      "}_{\\": 1359,
      "Ġpresent": 1360,
      "vert": 1361,
      "sq": 1362,
      "au": 1363,
      "ency": 1364,
      "me": 1365,
      "Ġref": 1366,
      "ared": 1367,
      "Omega": 1368,
      "Ġparamet": 1369,
      "ience": 1370,
      "This": 1371,
      "rel": 1372,
      "Ġke": 1373,
      "psi": 1374,
      "day": 1375,
      "Ġmed": 1376,
      "Ġcontin": 1377,
      "by": 1378,
      "Ġprocess": 1379,
      "Ġdi": 1380,
      "Ġ.": 1381,
      "els": 1382,
      "ters": 1383,
      "ane": 1384,
      "Ġproblem": 1385,
      "Ġdid": 1386,
      "Ġteam": 1387,
      "ĠUniversity": 1388,
      "23": 1389,
      "Ġcount": 1390,
      "ĠFig": 1391,
      "rum": 1392,
      "overn": 1393,
      "Ġu": 1394,
      "Ġret": 1395,
      "Ġthose": 1396,
      "^*": 1397,
      "References": 1398,
      "ĠAr": 1399,
      "Ġsl": 1400,
      "196": 1401,
      "hip": 1402,
      "cept": 1403,
      "angle": 1404,
      "rid": 1405,
      "ness": 1406,
      "Ġposs": 1407,
      "ually": 1408,
      "2018": 1409,
      "Ġmake": 1410,
      "Ġcondition": 1411,
      "Ġ}": 1412,
      "Ġrespect": 1413,
      "ĠHow": 1414,
      "Ġrepresent": 1415,
      "Ġrele": 1416,
      "rad": 1417,
      ")$,": 1418,
      "Ġbec": 1419,
      "gl": 1420,
      "ribution": 1421,
      "lex": 1422,
      "ĠOn": 1423,
      "Ġspace": 1424,
      "Gamma": 1425,
      "bers": 1426,
      "gram": 1427,
      "Ġincre": 1428,
      "'t": 1429,
      "not": 1430,
      "Ġown": 1431,
      "Ġmain": 1432,
      "ĠBe": 1433,
      "arl": 1434,
      "ission": 1435,
      "Ġreal": 1436,
      "rict": 1437,
      "Ġmult": 1438,
      "atic": 1439,
      "Ġsupport": 1440,
      "sqrt": 1441,
      "ĠCol": 1442,
      "Ġadd": 1443,
      "ĠAnd": 1444,
      "ior": 1445,
      "Ġobserv": 1446,
      "fra": 1447,
      "Ġlarge": 1448,
      "Ġdown": 1449,
      "âĢľ": 1450,
      "Ġmuch": 1451,
      "Ġ${\\": 1452,
      "ĠIs": 1453,
      "respond": 1454,
      "val": 1455,
      "Ġmet": 1456,
      "agn": 1457,
      "subsection": 1458,
      "Ex": 1459,
      "ĠBl": 1460,
      "includ": 1461,
      "Ġdef": 1462,
      "ives": 1463,
      "Ġvi": 1464,
      "textbf": 1465,
      "usic": 1466,
      "Ġhel": 1467,
      "vent": 1468,
      "Ġelect": 1469,
      "Ġproper": 1470,
      "mbol": 1471,
      "For": 1472,
      "ley": 1473,
      "Ġfeature": 1474,
      "ĠAmerican": 1475,
      "etwork": 1476,
      "Ġwrit": 1477,
      "ina": 1478,
      ")=": 1479,
      "Ġlim": 1480,
      "Ġcar": 1481,
      "}=": 1482,
      "rodu": 1483,
      "ves": 1484,
      "ert": 1485,
      "Ġhand": 1486,
      "raphics": 1487,
      ".âĢĿ": 1488,
      "Ġpres": 1489,
      "rop": 1490,
      "Ġlast": 1491,
      "ĠAd": 1492,
      "Ġenergy": 1493,
      "vare": 1494,
      "ified": 1495,
      "Ġpop": 1496,
      "Ġfour": 1497,
      "bm": 1498,
      "Ġtr": 1499,
      "ott": 1500,
      "2017": 1501,
      "40": 1502,
      "rightarrow": 1503,
      "ital": 1504,
      "Ġgeneral": 1505,
      "vious": 1506,
      "ĠĠĊ": 1507,
      "Ġread": 1508,
      "arn": 1509,
      "arm": 1510,
      "yle": 1511,
      "olution": 1512,
      "It": 1513,
      "Ġassum": 1514,
      "^{(": 1515,
      "ĠShe": 1516,
      "urther": 1517,
      "ohn": 1518,
      "son": 1519,
      "varepsilon": 1520,
      "omen": 1521,
      "Ġworld": 1522,
      "Ġrun": 1523,
      "Ġcharact": 1524,
      "ger": 1525,
      "Ġstruct": 1526,
      "Se": 1527,
      "}^{\\": 1528,
      "Ġinformation": 1529,
      "less": 1530,
      "Ġhere": 1531,
      "ired": 1532,
      "err": 1533,
      "Ġinde": 1534,
      "utions": 1535,
      "ĠPh": 1536,
      "Ġtop": 1537,
      "ober": 1538,
      "ration": 1539,
      "Ġve": 1540,
      "oss": 1541,
      "itive": 1542,
      "rangle": 1543,
      "St": 1544,
      "ek": 1545,
      "Ġlook": 1546,
      "Ġ,": 1547,
      "bs": 1548,
      "Ġrem": 1549,
      "alth": 1550,
      "Ġstand": 1551,
      "Ġincluding": 1552,
      "read": 1553,
      "imens": 1554,
      "Ġbased": 1555,
      "Ġlocal": 1556,
      "Ġden": 1557,
      "2016": 1558,
      "Ġrad": 1559,
      "akes": 1560,
      "Ġgood": 1561,
      "Ġcommun": 1562,
      "ternal": 1563,
      "Ġdescrib": 1564,
      "ithm": 1565,
      "Ġcorrespond": 1566,
      "ious": 1567,
      "ived": 1568,
      "gg": 1569,
      "Ġins": 1570,
      "Ġ\\,": 1571,
      "cted": 1572,
      "ateg": 1573,
      "Ġopen": 1574,
      "Ġknown": 1575,
      "27": 1576,
      "eb": 1577,
      "bold": 1578,
      "umn": 1579,
      "get": 1580,
      "ĠPl": 1581,
      "Ġstill": 1582,
      "Ġpower": 1583,
      "Ġaround": 1584,
      "Ã©": 1585,
      "Ġdesign": 1586,
      "caption": 1587,
      "terest": 1588,
      "Ġorig": 1589,
      "Ġagainst": 1590,
      "ĠUnited": 1591,
      "26": 1592,
      "ĠMar": 1593,
      ".\"": 1594,
      "ole": 1595,
      "ides": 1596,
      "Ġscal": 1597,
      "cm": 1598,
      "Ġcal": 1599,
      "egraphics": 1600,
      "includegraphics": 1601,
      "alk": 1602,
      "Ġmeasure": 1603,
      "Ġallow": 1604,
      "Ġgl": 1605,
      "As": 1606,
      "omet": 1607,
      "Ġrest": 1608,
      "Ġopt": 1609,
      "ilar": 1610,
      "istory": 1611,
      "Ġident": 1612,
      "''": 1613,
      "iness": 1614,
      "non": 1615,
      "Ġbas": 1616,
      "rol": 1617,
      "28": 1618,
      "Ġabove": 1619,
      "anc": 1620,
      "ially": 1621,
      "Ġtake": 1622,
      "Ġestim": 1623,
      "gor": 1624,
      "ĠIf": 1625,
      "Ġvalue": 1626,
      "Ġlevel": 1627,
      "ember": 1628,
      "inc": 1629,
      "ety": 1630,
      "ird": 1631,
      "rem": 1632,
      "ided": 1633,
      "Ġav": 1634,
      "ival": 1635,
      "ĠTe": 1636,
      "enn": 1637,
      "//": 1638,
      "une": 1639,
      "umer": 1640,
      "ately": 1641,
      "raw": 1642,
      "ised": 1643,
      "chi": 1644,
      "med": 1645,
      "emph": 1646,
      "ĠMay": 1647,
      "2020": 1648,
      "ij": 1649,
      "ĠSp": 1650,
      "ĠComm": 1651,
      "co": 1652,
      "sk": 1653,
      "Ġimport": 1654,
      "2015": 1655,
      "varphi": 1656,
      "He": 1657,
      "iam": 1658,
      "Ġreport": 1659,
      ".~\\": 1660,
      "ording": 1661,
      "ring": 1662,
      "Ġlet": 1663,
      "ĠčĊ": 1664,
      "Ġsat": 1665,
      "Ġvis": 1666,
      "ths": 1667,
      "tab": 1668,
      "Ġtest": 1669,
      "Ġinteg": 1670,
      "iver": 1671,
      ".}": 1672,
      "Ġgame": 1673,
      ")^": 1674,
      "rand": 1675,
      "Ġpat": 1676,
      "frak": 1677,
      "rist": 1678,
      "geq": 1679,
      "Ġtri": 1680,
      "Ġprof": 1681,
      "uro": 1682,
      "Ġhelp": 1683,
      "Ġbest": 1684,
      "Ġdue": 1685,
      "Ġtem": 1686,
      "ero": 1687,
      "Ġmov": 1688,
      "Ġtechn": 1689,
      "Ġche": 1690,
      "Ġstat": 1691,
      "2014": 1692,
      "ris": 1693,
      "Ġconsider": 1694,
      "Ġlife": 1695,
      "Ġschool": 1696,
      "ograph": 1697,
      "100": 1698,
      "gorithm": 1699,
      "Ġbeh": 1700,
      "Ġaddition": 1701,
      "Ġthough": 1702,
      "Ġcontain": 1703,
      "proof": 1704,
      "Ġsingle": 1705,
      "ĠĠĠĠĠ": 1706,
      "ense": 1707,
      "&\\": 1708,
      "inks": 1709,
      "Ġseries": 1710,
      "por": 1711,
      "ensity": 1712,
      "Ġsup": 1713,
      "Ġspect": 1714,
      "ĠEx": 1715,
      "Ġleft": 1716,
      "wh": 1717,
      "ensure": 1718,
      "tal": 1719,
      "ĠWh": 1720,
      "overline": 1721,
      "Ġcomput": 1722,
      "Ġwithin": 1723,
      "29": 1724,
      "ĠRes": 1725,
      "Ġinterest": 1726,
      "ww": 1727,
      "ges": 1728,
      "ify": 1729,
      "ubl": 1730,
      "Ġparticular": 1731,
      "Ġrema": 1732,
      "Ġ'": 1733,
      "ampl": 1734,
      "ators": 1735,
      "ĠJan": 1736,
      "Ġbuild": 1737,
      "Ġmark": 1738,
      "Ġgra": 1739,
      "},\\": 1740,
      "[\\": 1741,
      "Ġexample": 1742,
      "position": 1743,
      "Ġshown": 1744,
      "aving": 1745,
      "bl": 1746,
      "reen": 1747,
      "refore": 1748,
      "Ġrece": 1749,
      "Ġlater": 1750,
      "Ġfamily": 1751,
      "Ġsum": 1752,
      "Ġquant": 1753,
      "Ġalong": 1754,
      "ium": 1755,
      "Ġnear": 1756,
      "Ġhy": 1757,
      "Ch": 1758,
      "ormal": 1759,
      "ords": 1760,
      "ĠAll": 1761,
      "ĠHowever": 1762,
      "Ġprogram": 1763,
      "atch": 1764,
      "Ġbook": 1765,
      "Ġpublic": 1766,
      "Ġnetwork": 1767,
      "2013": 1768,
      "Ġet": 1769,
      "ĠJohn": 1770,
      "aces": 1771,
      "Ġperson": 1772,
      "lim": 1773,
      "ĠâĢĶ": 1774,
      "usiness": 1775,
      "vec": 1776,
      "Ġbro": 1777,
      "symbol": 1778,
      "Ġdem": 1779,
      "xim": 1780,
      "Ġpass": 1781,
      "veral": 1782,
      "ĠThey": 1783,
      "Ġcalled": 1784,
      "}).": 1785,
      "Ġlist": 1786,
      "mathfrak": 1787,
      "Big": 1788,
      "Ġmodels": 1789,
      "Ġvalues": 1790,
      "Ġocc": 1791,
      "âĢ¦": 1792,
      "Ġlow": 1793,
      "cul": 1794,
      "rack": 1795,
      "Ġfre": 1796,
      "An": 1797,
      "Ġdepend": 1798,
      "Ġpost": 1799,
      "45": 1800,
      "overnment": 1801,
      "ories": 1802,
      "iving": 1803,
      "Ġthink": 1804,
      "ĠAt": 1805,
      "Ġwant": 1806,
      "hline": 1807,
      "Ġdon": 1808,
      "Ġstudy": 1809,
      "ccess": 1810,
      "Ġmust": 1811,
      "ym": 1812,
      "2012": 1813,
      "Ġinit": 1814,
      "Ġcle": 1815,
      "ĠCent": 1816,
      "ript": 1817,
      "boldsymbol": 1818,
      "ĠCan": 1819,
      "Ġfollows": 1820,
      "ootball": 1821,
      "Let": 1822,
      "Ġsimilar": 1823,
      "Ġcurrent": 1824,
      "Ġsay": 1825,
      "Ġredu": 1826,
      "Ġdiscuss": 1827,
      "mmet": 1828,
      "ody": 1829,
      "iod": 1830,
      "Ġinc": 1831,
      "Ġchild": 1832,
      "2010": 1833,
      "Ġplace": 1834,
      "Ġpred": 1835,
      "Ġwithout": 1836,
      "Ġcharacter": 1837,
      "log": 1838,
      "Ġlarg": 1839,
      "Lambda": 1840,
      "Ġexpect": 1841,
      "Ġseason": 1842,
      "ĠFran": 1843,
      "Ġlaw": 1844,
      "ination": 1845,
      "Ġcour": 1846,
      "ai": 1847,
      "Ġsour": 1848,
      "60": 1849,
      "Ġdeterm": 1850,
      "ĠTo": 1851,
      "wards": 1852,
      "ysis": 1853,
      "otential": 1854,
      "Ġimp": 1855,
      "imal": 1856,
      "ĠStates": 1857,
      "Ġterms": 1858,
      "Ġ:": 1859,
      "}}$": 1860,
      "://": 1861,
      "Ġshows": 1862,
      "ĠCount": 1863,
      "langle": 1864,
      "ĠBut": 1865,
      "ajor": 1866,
      "see": 1867,
      "eps": 1868,
      "ternational": 1869,
      "Ġmean": 1870,
      "urs": 1871,
      "Ġhead": 1872,
      ");": 1873,
      "orph": 1874,
      "Ġhig": 1875,
      "ldots": 1876,
      "Ġplayers": 1877,
      "Ġsection": 1878,
      "Ġel": 1879,
      "Ġcho": 1880,
      "Ġ<": 1881,
      "istic": 1882,
      "ER": 1883,
      "ention": 1884,
      "Ġconne": 1885,
      "Ġcare": 1886,
      "2011": 1887,
      "bra": 1888,
      "Ġday": 1889,
      "aim": 1890,
      "ĠAust": 1891,
      "Ġseveral": 1892,
      "osed": 1893,
      "mbox": 1894,
      "35": 1895,
      "oad": 1896,
      "ians": 1897,
      "Ġorgan": 1898,
      "ĠNational": 1899,
      "195": 1900,
      "Ġappear": 1901,
      "Ġspe": 1902,
      "ĠWorld": 1903,
      "Ġanother": 1904,
      "Ġcontinu": 1905,
      "urch": 1906,
      "iment": 1907,
      "ĠUS": 1908,
      "ĠOr": 1909,
      "Ġdom": 1910,
      "Ġpoints": 1911,
      "etic": 1912,
      "ification": 1913,
      "etail": 1914,
      "ynam": 1915,
      "Ġcap": 1916,
      "ope": 1917,
      "Ġ/": 1918,
      "def": 1919,
      "bum": 1920,
      "Ġinvest": 1921,
      "comm": 1922,
      "Ġ`": 1923,
      "Ġfew": 1924,
      "lection": 1925,
      "isf": 1926,
      "ST": 1927,
      "Ġdefined": 1928,
      "ery": 1929,
      "Ġann": 1930,
      "van": 1931,
      "ont": 1932,
      "appa": 1933,
      "ĠGe": 1934,
      "Ġwin": 1935,
      "Ġnext": 1936,
      "Ġhold": 1937,
      "ison": 1938,
      "Ġder": 1939,
      "ways": 1940,
      "Phi": 1941,
      "Ġarea": 1942,
      "Ġstrong": 1943,
      "Ġdistribution": 1944,
      "Ġestabl": 1945,
      "che": 1946,
      "Âł": 1947,
      "ift": 1948,
      "Ġiss": 1949,
      "with": 1950,
      "ĠOct": 1951,
      "ble": 1952,
      "Ġintrodu": 1953,
      "Ġpossible": 1954,
      "citep": 1955,
      "uary": 1956,
      "oper": 1957,
      "ference": 1958,
      "ĠâĢĺ": 1959,
      "On": 1960,
      "Ġlinks": 1961,
      "ries": 1962,
      "center": 1963,
      "Ġproject": 1964,
      "Ġdel": 1965,
      "ĠYork": 1966,
      "oard": 1967,
      "ĠAug": 1968,
      "uthor": 1969,
      "Ġimportant": 1970,
      "Ġrese": 1971,
      "Ġdirect": 1972,
      "play": 1973,
      "Ġvers": 1974,
      "Ġcou": 1975,
      ",âĢĿ": 1976,
      "Al": 1977,
      "Ġprevious": 1978,
      "ask": 1979,
      "urb": 1980,
      "Ġphot": 1981,
      "Ġname": 1982,
      "reg": 1983,
      "ĠMan": 1984,
      "Ġgreat": 1985,
      "Ġhum": 1986,
      "Ġcrit": 1987,
      "ĠSchool": 1988,
      "Ġide": 1989,
      "face": 1990,
      "aps": 1991,
      "33": 1992,
      "ients": 1993,
      "Ġassoci": 1994,
      "ĠJu": 1995,
      "mod": 1996,
      "mp": 1997,
      "Ġproduct": 1998,
      "Ġcomb": 1999,
      "Ġuntil": 2000,
      "icle": 2001,
      "itud": 2002,
      "ret": 2003,
      "atter": 2004,
      "ĠPol": 2005,
      "illion": 2006,
      "oor": 2007,
      "textit": 2008,
      "Ġmusic": 2009,
      "kappa": 2010,
      "ead": 2011,
      "Ġeas": 2012,
      "ended": 2013,
      "ec": 2014,
      "Ġstructure": 2015,
      "ither": 2016,
      "otimes": 2017,
      "Ġpotential": 2018,
      "no": 2019,
      "stand": 2020,
      "Ġsk": 2021,
      "ivity": 2022,
      "Ġpolit": 2023,
      "ĠWar": 2024,
      "Ġbre": 2025,
      "\",": 2026,
      "iron": 2027,
      "ĠThen": 2028,
      "Ġmagn": 2029,
      "Ġobject": 2030,
      "ague": 2031,
      "Ġexist": 2032,
      "fficient": 2033,
      ".\\": 2034,
      "cur": 2035,
      "posed": 2036,
      "ĠRep": 2037,
      "subset": 2038,
      "fer": 2039,
      "Ġexpress": 2040,
      "plic": 2041,
      "})$": 2042,
      "2009": 2043,
      "AR": 2044,
      "Ġla": 2045,
      "Ġhome": 2046,
      "Ġless": 2047,
      "ences": 2048,
      "80": 2049,
      "ĠThere": 2050,
      "ats": 2051,
      "90": 2052,
      "Ġdeg": 2053,
      "Ġopp": 2054,
      "Ġfull": 2055,
      "Ġposition": 2056,
      "nonumber": 2057,
      "mult": 2058,
      "Ġtotal": 2059,
      "idd": 2060,
      "ique": 2061,
      "ights": 2062,
      "ister": 2063,
      "Ġturn": 2064,
      "sf": 2065,
      "Ġstates": 2066,
      "ixed": 2067,
      "ances": 2068,
      "194": 2069,
      "Ġband": 2070,
      "Ġoffic": 2071,
      "ploy": 2072,
      "Ġchang": 2073,
      "ĠYou": 2074,
      "\\%": 2075,
      "ĠApr": 2076,
      "Ġevent": 2077,
      "back": 2078,
      "Ġgrow": 2079,
      "Ġtimes": 2080,
      "Ġleg": 2081,
      "ored": 2082,
      "pendent": 2083,
      "Ġresp": 2084,
      "stit": 2085,
      "Ġview": 2086,
      "Ġfree": 2087,
      "ensuremath": 2088,
      "Ġsatisf": 2089,
      "yl": 2090,
      "ocial": 2091,
      "ably": 2092,
      "))": 2093,
      "Ġperiod": 2094,
      "ĠSouth": 2095,
      "Ġpaper": 2096,
      "31": 2097,
      "riend": 2098,
      "oman": 2099,
      "Ġimpro": 2100,
      "abla": 2101,
      "Ġmom": 2102,
      "ivid": 2103,
      "circ": 2104,
      "\".": 2105,
      "Ġplan": 2106,
      "Ġalgorithm": 2107,
      "Ġeng": 2108,
      "ĠCo": 2109,
      "\\|": 2110,
      "ptember": 2111,
      "aster": 2112,
      "Ġsignific": 2113,
      "ino": 2114,
      "2008": 2115,
      "ological": 2116,
      "ength": 2117,
      "nabla": 2118,
      "isc": 2119,
      "Ġaver": 2120,
      "ux": 2121,
      "sm": 2122,
      "ĠBy": 2123,
      "ĠGu": 2124,
      "ĠMarch": 2125,
      "Ġold": 2126,
      "ailable": 2127,
      "Ġtheory": 2128,
      "Sigma": 2129,
      "AT": 2130,
      "angu": 2131,
      "ney": 2132,
      "action": 2133,
      "ittle": 2134,
      "ĠSte": 2135,
      "Ġalbum": 2136,
      "ĠLet": 2137,
      "II": 2138,
      "Ġconf": 2139,
      "urope": 2140,
      "Ġfurther": 2141,
      "Ġcontrol": 2142,
      "ĠBrit": 2143,
      "Ġsize": 2144,
      "ground": 2145,
      "Ġdensity": 2146,
      "Ġcomplex": 2147,
      "Ġsuccess": 2148,
      "ruction": 2149,
      "Ġsequ": 2150,
      "sequ": 2151,
      "Ġobtained": 2152,
      "Ġtoo": 2153,
      "âĢĶ": 2154,
      "Ġquest": 2155,
      "Ġapproxim": 2156,
      "ĠFl": 2157,
      "\\!": 2158,
      "Ġleast": 2159,
      "upp": 2160,
      "alf": 2161,
      "gin": 2162,
      "Ġperformance": 2163,
      "Ġbetter": 2164,
      "clus": 2165,
      "Ġreturn": 2166,
      "Ġdetail": 2167,
      "Ġtyp": 2168,
      "osp": 2169,
      "AS": 2170,
      "Ġshort": 2171,
      "bit": 2172,
      "cit": 2173,
      "ilde": 2174,
      "ream": 2175,
      "Ġchange": 2176,
      "Ġearly": 2177,
      "Ġpredict": 2178,
      "}),": 2179,
      "Ġcompon": 2180,
      "ĠJanuary": 2181,
      "Ġstandard": 2182,
      "ule": 2183,
      "ched": 2184,
      "Ġrecord": 2185,
      "wide": 2186,
      "ĠCounty": 2187,
      "Ġsolution": 2188,
      "ung": 2189,
      "Ġapproach": 2190,
      "Ġlight": 2191,
      "}}{": 2192,
      "Ġphys": 2193,
      "iter": 2194,
      "Ġside": 2195,
      "Ġmot": 2196,
      "Ġsit": 2197,
      "dots": 2198,
      "Ġsong": 2199,
      "36": 2200,
      "ae": 2201,
      "lege": 2202,
      "ipp": 2203,
      "Ġregion": 2204,
      "Ġatta": 2205,
      "Ġ--": 2206,
      "Ġmajor": 2207,
      "ĠCar": 2208,
      "though": 2209,
      "ilt": 2210,
      "ered": 2211,
      "imum": 2212,
      "ovember": 2213,
      "ĠNo": 2214,
      "Ġmax": 2215,
      "ĠJune": 2216,
      "ĠMin": 2217,
      "used": 2218,
      "If": 2219,
      "Ġdeath": 2220,
      "Ġanalysis": 2221,
      "05": 2222,
      "Ġland": 2223,
      "Ġcomplet": 2224,
      "Ġparameters": 2225,
      "Ġrecent": 2226,
      "ged": 2227,
      "External": 2228,
      "ches": 2229,
      "ĠCity": 2230,
      "ales": 2231,
      "ising": 2232,
      "Ġinvol": 2233,
      "Ġrate": 2234,
      "ii": 2235,
      "ĠAugust": 2236,
      "cember": 2237,
      "Ġbusiness": 2238,
      "side": 2239,
      "odes": 2240,
      "ĠOctober": 2241,
      "75": 2242,
      "IN": 2243,
      "Ġbecame": 2244,
      "Ġ>": 2245,
      "Ġsom": 2246,
      "Pro": 2247,
      "34": 2248,
      "99": 2249,
      "Ġfinal": 2250,
      "32": 2251,
      "Ġmatrix": 2252,
      "Ġlimit": 2253,
      "Ġred": 2254,
      "cap": 2255,
      "2007": 2256,
      "Ġgraph": 2257,
      "ĠSeptember": 2258,
      "\\[": 2259,
      "erman": 2260,
      "ĠCal": 2261,
      "ertain": 2262,
      "Ġmanag": 2263,
      "ĠJuly": 2264,
      "ĠMed": 2265,
      "01": 2266,
      "ĠState": 2267,
      "Ġtype": 2268,
      "ĠMe": 2269,
      "Ġvol": 2270,
      "Ġfunctions": 2271,
      "Ps": 2272,
      "Fig": 2273,
      "Ġfootball": 2274,
      "color": 2275,
      "ĠApril": 2276,
      "amed": 2277,
      "}-": 2278,
      "str": 2279,
      "Ġequation": 2280,
      "widet": 2281,
      "uck": 2282,
      "new": 2283,
      "Ġcompany": 2284,
      "ilit": 2285,
      "2006": 2286,
      "ĠChrist": 2287,
      "ling": 2288,
      "Ġsystems": 2289,
      "Ġindic": 2290,
      "Ġrange": 2291,
      "ideo": 2292,
      "box": 2293,
      "ĠAustral": 2294,
      "Ġinclude": 2295,
      "perature": 2296,
      "Ġconstant": 2297,
      "ze": 2298,
      "Ġgoing": 2299,
      "cor": 2300,
      "Ġdescribed": 2301,
      "ĠFeb": 2302,
      "conom": 2303,
      "uation": 2304,
      "{-": 2305,
      "uk": 2306,
      "Ġavailable": 2307,
      "prime": 2308,
      "/\\": 2309,
      "ĠEd": 2310,
      "Ġaction": 2311,
      "Ġcity": 2312,
      "ties": 2313,
      "Com": 2314,
      "ables": 2315,
      "iple": 2316,
      "ument": 2317,
      "arning": 2318,
      "Ġsignificant": 2319,
      "Ġgovernment": 2320,
      "AN": 2321,
      "ourn": 2322,
      "oung": 2323,
      "Ġwon": 2324,
      "70": 2325,
      "ĠNe": 2326,
      "widetilde": 2327,
      "centering": 2328,
      "istor": 2329,
      "ĠNorth": 2330,
      "By": 2331,
      "Ġmembers": 2332,
      "af": 2333,
      "ĠEurope": 2334,
      "mat": 2335,
      "Ġaut": 2336,
      "rim": 2337,
      "Ġhapp": 2338,
      "asing": 2339,
      "Ġapplic": 2340,
      "Ġq": 2341,
      "};": 2342,
      "Ġcoll": 2343,
      "oid": 2344,
      "ried": 2345,
      "ĠThese": 2346,
      "ham": 2347,
      "empt": 2348,
      "Ġerr": 2349,
      "Ġformer": 2350,
      "Ġseem": 2351,
      "Ġ``": 2352,
      "ones": 2353,
      "ĠNovember": 2354,
      "Ġhard": 2355,
      "idence": 2356,
      "Ġbir": 2357,
      "Ġrespectively": 2358,
      "chie": 2359,
      "ĠSo": 2360,
      "Ġseen": 2361,
      "ster": 2362,
      "obal": 2363,
      "ush": 2364,
      "Con": 2365,
      "=\"": 2366,
      "aced": 2367,
      "Ġmar": 2368,
      "andom": 2369,
      "amples": 2370,
      "Ġprom": 2371,
      "viron": 2372,
      "To": 2373,
      "Ġreally": 2374,
      "Ġcorresponding": 2375,
      "Ġbelie": 2376,
      "38": 2377,
      "Ġcalcul": 2378,
      "Ġmight": 2379,
      "ĠWill": 2380,
      "now": 2381,
      "ler": 2382,
      "Ġpubl": 2383,
      "self": 2384,
      "pd": 2385,
      "Ġwomen": 2386,
      "ĠAf": 2387,
      "Ġcost": 2388,
      "Ġes": 2389,
      "Ġnever": 2390,
      "ĠApp": 2391,
      "uture": 2392,
      "ille": 2393,
      "most": 2394,
      "Ġtraining": 2395,
      "Ġep": 2396,
      "Ġgive": 2397,
      "table": 2398,
      "ĠDecember": 2399,
      "ĠPart": 2400,
      "Ġprovide": 2401,
      "Ġhigher": 2402,
      "ĠWith": 2403,
      "Ġalways": 2404,
      "Ġpair": 2405,
      "ĠMc": 2406,
      "aken": 2407,
      "tic": 2408,
      "ividual": 2409,
      "Ġsays": 2410,
      "Ġcover": 2411,
      "ada": 2412,
      "Ġdiff": 2413,
      "ribut": 2414,
      "lev": 2415,
      "Ġver": 2416,
      "glish": 2417,
      "Ġlower": 2418,
      "ours": 2419,
      "):": 2420,
      "Ġrelations": 2421,
      "Ġspecial": 2422,
      "Ġcompet": 2423,
      "idered": 2424,
      "Ġput": 2425,
      "Ġfoc": 2426,
      "eter": 2427,
      "iles": 2428,
      "tabular": 2429,
      "Ġwater": 2430,
      "Ġoften": 2431,
      "ĠAss": 2432,
      "Ġconditions": 2433,
      "raft": 2434,
      "ently": 2435,
      "Ġcross": 2436,
      "Ġmeans": 2437,
      "37": 2438,
      "Ġstory": 2439,
      "Ġphase": 2440,
      "Ġamong": 2441,
      "Ġpract": 2442,
      ")=\\": 2443,
      "ĠEq": 2444,
      "Ġfeatures": 2445,
      "lected": 2446,
      "style": 2447,
      "Ġdimens": 2448,
      ")(": 2449,
      "Ġfund": 2450,
      "De": 2451,
      "Ġlik": 2452,
      "atural": 2453,
      "Ġmove": 2454,
      "ĠCor": 2455,
      "ius": 2456,
      "}+": 2457,
      "ruary": 2458,
      "thm": 2459,
      "cle": 2460,
      "Ġmap": 2461,
      "ĠÂ": 2462,
      "\\{": 2463,
      "zeta": 2464,
      "Ġabs": 2465,
      "Ġcell": 2466,
      "Ġstar": 2467,
      "Ġweek": 2468,
      "off": 2469,
      "39": 2470,
      "ony": 2471,
      "Ġprote": 2472,
      "onal": 2473,
      "inally": 2474,
      "Ġneg": 2475,
      "ana": 2476,
      ";\\": 2477,
      "Ġoriginal": 2478,
      "Ġcases": 2479,
      "Ġsuper": 2480,
      "ĠReg": 2481,
      "Ġbig": 2482,
      "org": 2483,
      "ĠHar": 2484,
      "alax": 2485,
      "ĠAb": 2486,
      "ĠOne": 2487,
      "Ġbecome": 2488,
      "gether": 2489,
      "rew": 2490,
      "Ġtogether": 2491,
      "field": 2492,
      "ials": 2493,
      "ĠEng": 2494,
      "Ġbelow": 2495,
      "ĠBar": 2496,
      "Ġclaim": 2497,
      "ĠTheorem": 2498,
      "Ġconsidered": 2499,
      "icy": 2500,
      "Ġfore": 2501,
      "Ġsw": 2502,
      "Ġeither": 2503,
      "Ġdev": 2504,
      "Ġhaving": 2505,
      "Ġhistory": 2506,
      "Ġacross": 2507,
      "Ġtemperature": 2508,
      "Ġaverage": 2509,
      "ography": 2510,
      "ON": 2511,
      "omorph": 2512,
      "Ġconsist": 2513,
      "Ġproof": 2514,
      "ready": 2515,
      "Ġcirc": 2516,
      "Ġfive": 2517,
      "Ġ&=": 2518,
      "Ġresearch": 2519,
      "acy": 2520,
      "Ġthird": 2521,
      "Ġfram": 2522,
      "ĠPe": 2523,
      "Ġblack": 2524,
      "aul": 2525,
      "}]": 2526,
      ")^{": 2527,
      "time": 2528,
      "ES": 2529,
      "48": 2530,
      "ving": 2531,
      "lying": 2532,
      "based": 2533,
      "Ġge": 2534,
      "aut": 2535,
      "Ġfrequ": 2536,
      "Ġfar": 2537,
      "Ġinitial": 2538,
      "Ġair": 2539,
      "Ġsepar": 2540,
      "ection": 2541,
      "}=\\": 2542,
      "ampions": 2543,
      ")}\\": 2544,
      "ĠSy": 2545,
      "Ġsugg": 2546,
      "\\]": 2547,
      "Ġsuggest": 2548,
      "Ġmoment": 2549,
      "Ġarg": 2550,
      "Ġloss": 2551,
      "2005": 2552,
      "sl": 2553,
      "pper": 2554,
      "Ġtook": 2555,
      "Ġhom": 2556,
      "apan": 2557,
      "Ġcommon": 2558,
      "rary": 2559,
      "Ġrandom": 2560,
      "ĠAfter": 2561,
      "inary": 2562,
      "Ġdat": 2563,
      "Ġinfl": 2564,
      "hold": 2565,
      "ront": 2566,
      "Ġlinear": 2567,
      "emma": 2568,
      "Ġdynam": 2569,
      "ey": 2570,
      "Ġlay": 2571,
      "Ġvarious": 2572,
      "ĠKing": 2573,
      "2000": 2574,
      "ĠWest": 2575,
      "ket": 2576,
      "which": 2577,
      "exp": 2578,
      "Ġindividual": 2579,
      "Ġplayed": 2580,
      "ĠAir": 2581,
      "Ġaccount": 2582,
      "Ġthus": 2583,
      "{(": 2584,
      "Ġdiv": 2585,
      "Ġchildren": 2586,
      "itions": 2587,
      "Ġparameter": 2588,
      "Ġpositive": 2589,
      "otes": 2590,
      "Ġfac": 2591,
      "Ġ($": 2592,
      "itor": 2593,
      "Ġcountry": 2594,
      "itude": 2595,
      "Ġbi": 2596,
      "Ġable": 2597,
      "Ġcome": 2598,
      "Ġauthor": 2599,
      "ips": 2600,
      "Ġwr": 2601,
      "abor": 2602,
      "Ġenc": 2603,
      "enc": 2604,
      "Ġpath": 2605,
      "Ġtre": 2606,
      "Ġpri": 2607,
      "$)": 2608,
      "95": 2609,
      "ĠPr": 2610,
      "Ġrepl": 2611,
      "Ġsymmet": 2612,
      "Ġimage": 2613,
      "Ġ#": 2614,
      "rie": 2615,
      "Ġcorre": 2616,
      "anguage": 2617,
      "rain": 2618,
      "ĠFebruary": 2619,
      "cos": 2620,
      "ĠEl": 2621,
      "dis": 2622,
      "Ġgames": 2623,
      "rap": 2624,
      "ounc": 2625,
      "Ġfinite": 2626,
      "Ġreleased": 2627,
      "Ġreview": 2628,
      "ĠMore": 2629,
      "Ġhowever": 2630,
      "thing": 2631,
      "06": 2632,
      "chan": 2633,
      "04": 2634,
      "Ġang": 2635,
      "orts": 2636,
      "draw": 2637,
      "na": 2638,
      "Ġhouse": 2639,
      "Ġbehav": 2640,
      "Ġhuman": 2641,
      "vironment": 2642,
      "Ġservice": 2643,
      "Ġalready": 2644,
      "reet": 2645,
      "ething": 2646,
      "Ġindependent": 2647,
      "ussian": 2648,
      "Ġachie": 2649,
      "ured": 2650,
      "ware": 2651,
      "ĠSection": 2652,
      "Ġenough": 2653,
      "~~": 2654,
      "Ġtit": 2655,
      "ows": 2656,
      "}^\\": 2657,
      "Ġlittle": 2658,
      "Ġlines": 2659,
      "iber": 2660,
      "cdots": 2661,
      "ament": 2662,
      "ĠWhen": 2663,
      "Ġsem": 2664,
      "08": 2665,
      "Un": 2666,
      "ĠMon": 2667,
      "ĠSch": 2668,
      "roll": 2669,
      "Ġmethods": 2670,
      "ondon": 2671,
      "Ġvector": 2672,
      "duct": 2673,
      "Ġpopulation": 2674,
      "Ġcamp": 2675,
      "eneral": 2676,
      "ĠSw": 2677,
      "br": 2678,
      "Ġrole": 2679,
      "aint": 2680,
      "ĠPres": 2681,
      "Ġmaking": 2682,
      "ĠPar": 2683,
      "Ġassociated": 2684,
      "}_\\": 2685,
      "ĠAm": 2686,
      "Ġcommunity": 2687,
      "Ġaway": 2688,
      "Ġaccess": 2689,
      "hel": 2690,
      "Ġemb": 2691,
      "bor": 2692,
      "Ġdays": 2693,
      "ti": 2694,
      "2004": 2695,
      "ibility": 2696,
      "Ġmen": 2697,
      ".~": 2698,
      "Ġtw": 2699,
      "max": 2700,
      "rown": 2701,
      "ĠPark": 2702,
      "Ġage": 2703,
      "Ġfriend": 2704,
      "ĠThat": 2705,
      "ilities": 2706,
      "verse": 2707,
      "AC": 2708,
      "ĠĠĠĠĠĠ": 2709,
      "scal": 2710,
      "Ġnormal": 2711,
      "Ġobserved": 2712,
      "Ġcy": 2713,
      "Ġvia": 2714,
      "OR": 2715,
      "arian": 2716,
      "65": 2717,
      "Ġcomple": 2718,
      "ĠGl": 2719,
      "ee": 2720,
      "Ġhealth": 2721,
      "ĠDav": 2722,
      "}|": 2723,
      "rag": 2724,
      "ogn": 2725,
      "hib": 2726,
      "Ġinvestig": 2727,
      "ĠBritish": 2728,
      "Ġdeb": 2729,
      "Ġwar": 2730,
      "Ġcertain": 2731,
      "Ġjo": 2732,
      "Ġground": 2733,
      "Ġmater": 2734,
      "ĠArt": 2735,
      "Ġfactor": 2736,
      "Ġtaken": 2737,
      "}\\,": 2738,
      "Ġsource": 2739,
      "Ġgen": 2740,
      "Ġproposed": 2741,
      "ulations": 2742,
      "Ġtown": 2743,
      "plit": 2744,
      "Ġsix": 2745,
      "Ġbecom": 2746,
      "^+": 2747,
      "|-": 2748,
      "cret": 2749,
      "oney": 2750,
      "{{\\": 2751,
      "ĠHis": 2752,
      "Ġfuture": 2753,
      "Ġill": 2754,
      "gebra": 2755,
      "Ġsimple": 2756,
      "Ġemploy": 2757,
      "zz": 2758,
      "ula": 2759,
      "Ġunderstand": 2760,
      "ĠII": 2761,
      "ĠAfric": 2762,
      "Ġevents": 2763,
      "Ġexact": 2764,
      "Ġreason": 2765,
      "ops": 2766,
      "Ġself": 2767,
      "eder": 2768,
      "Ġmulti": 2769,
      "Ġdevelopment": 2770,
      "Ġcult": 2771,
      "Ġarch": 2772,
      "opt": 2773,
      "Ġclose": 2774,
      "IS": 2775,
      "How": 2776,
      "ĠLa": 2777,
      "07": 2778,
      "Ġhalf": 2779,
      "Ġtarg": 2780,
      "ners": 2781,
      "eting": 2782,
      "qquad": 2783,
      "Ġask": 2784,
      "rant": 2785,
      "Ġcompar": 2786,
      "ĠAg": 2787,
      "})\\": 2788,
      "erve": 2789,
      "ford": 2790,
      "lemma": 2791,
      "IC": 2792,
      "02": 2793,
      "ese": 2794,
      "ules": 2795,
      "Ġproperties": 2796,
      "Ġkill": 2797,
      "aries": 2798,
      "Ġrat": 2799,
      "Ġeduc": 2800,
      "Ġcoupl": 2801,
      "03": 2802,
      "textwidth": 2803,
      "ĠSince": 2804,
      "Ġgroups": 2805,
      "44": 2806,
      "Ġversion": 2807,
      "Ġgot": 2808,
      "dom": 2809,
      "ĠSan": 2810,
      "adem": 2811,
      "ĠQu": 2812,
      "widehat": 2813,
      "ĠHam": 2814,
      "Ġprim": 2815,
      "order": 2816,
      "Ġsurface": 2817,
      "ume": 2818,
      "Ġpress": 2819,
      "irm": 2820,
      "Ġheld": 2821,
      "ending": 2822,
      "&=": 2823,
      "bur": 2824,
      "elling": 2825,
      "ordin": 2826,
      "Ġworks": 2827,
      "Ġnumer": 2828,
      "itted": 2829,
      "irl": 2830,
      "Ġwritten": 2831,
      "Ġsocial": 2832,
      "ards": 2833,
      "Ġprofess": 2834,
      "Ġmillion": 2835,
      "ournal": 2836,
      ",-": 2837,
      "och": 2838,
      "Ġsomething": 2839,
      "Ġsite": 2840,
      "sw": 2841,
      "comp": 2842,
      "Ġmember": 2843,
      "Ġconcer": 2844,
      "Ġzero": 2845,
      "}}(": 2846,
      "Ġsche": 2847,
      "ama": 2848,
      "wise": 2849,
      "BC": 2850,
      "09": 2851,
      "ĠPer": 2852,
      "ĠFigure": 2853,
      "Ġlearning": 2854,
      "Ġdep": 2855,
      "Ġregular": 2856,
      "2021": 2857,
      "ĠEnglish": 2858,
      "Ġkeep": 2859,
      "ape": 2860,
      "cup": 2861,
      "ĠLondon": 2862,
      "Ġtry": 2863,
      "Ġanaly": 2864,
      "plement": 2865,
      "Ġclust": 2866,
      "Ġdefine": 2867,
      "ĠBro": 2868,
      "Ġ\\{": 2869,
      "oted": 2870,
      "rench": 2871,
      "igen": 2872,
      "Ġfig": 2873,
      "sing": 2874,
      "ĠJapan": 2875,
      "Ġgalax": 2876,
      "script": 2877,
      "Ġeval": 2878,
      "Ġdou": 2879,
      ",\"": 2880,
      "Ġquantum": 2881,
      "Ġce": 2882,
      "tex": 2883,
      "appro": 2884,
      "hy": 2885,
      "augh": 2886,
      "AL": 2887,
      "oon": 2888,
      "htt": 2889,
      "ishing": 2890,
      "itting": 2891,
      "Ġincluded": 2892,
      "Ġrelated": 2893,
      "born": 2894,
      "ĠTra": 2895,
      "Ġbuilding": 2896,
      "Ġkey": 2897,
      "hood": 2898,
      "ĠHouse": 2899,
      "Ġcame": 2900,
      "Ġpriv": 2901,
      "cont": 2902,
      "Ġlog": 2903,
      "Ġthings": 2904,
      "aly": 2905,
      "ĠHigh": 2906,
      "Ġarm": 2907,
      "Ġlength": 2908,
      "xspace": 2909,
      "}^{(": 2910,
      "Ġexperiment": 2911,
      "Ġequival": 2912,
      "Ġcareer": 2913,
      "ortun": 2914,
      "head": 2915,
      "ĠDep": 2916,
      "ĠComp": 2917,
      "Ġcut": 2918,
      "Ġprop": 2919,
      "ev": 2920,
      "Psi": 2921,
      "iction": 2922,
      "Ġlearn": 2923,
      "Ġaccording": 2924,
      "Ġpast": 2925,
      "dd": 2926,
      "foot": 2927,
      "Ġ)": 2928,
      "55": 2929,
      "Ġprobability": 2930,
      "See": 2931,
      "ĠSm": 2932,
      "Ġexists": 2933,
      "Ġsens": 2934,
      "ief": 2935,
      "icro": 2936,
      "medi": 2937,
      "Ġwid": 2938,
      "Ġproduction": 2939,
      "Ġrather": 2940,
      "ĠSer": 2941,
      "Ġport": 2942,
      "ĠLeague": 2943,
      "There": 2944,
      "Ġnational": 2945,
      "inter": 2946,
      "Ġvideo": 2947,
      "Ġindust": 2948,
      "Ġsent": 2949,
      "ouncil": 2950,
      "64": 2951,
      "ĠArm": 2952,
      "Ġbegan": 2953,
      "Ġdetect": 2954,
      "Ġlarger": 2955,
      "gen": 2956,
      "aches": 2957,
      "Ġfixed": 2958,
      "ributions": 2959,
      "Ġworking": 2960,
      "Ġadv": 2961,
      "Ġlocated": 2962,
      "izing": 2963,
      "bb": 2964,
      "Ġdistance": 2965,
      "iting": 2966,
      "oe": 2967,
      "ying": 2968,
      "cast": 2969,
      "ĠCollege": 2970,
      "Ġreceived": 2971,
      "Ġfail": 2972,
      "rated": 2973,
      "mathsf": 2974,
      "Ġstation": 2975,
      "ington": 2976,
      "earch": 2977,
      "ription": 2978,
      "avy": 2979,
      "Ġdone": 2980,
      "Ġstep": 2981,
      "iet": 2982,
      "Ġexpected": 2983,
      "Ġalmost": 2984,
      "2003": 2985,
      "Ġmakes": 2986,
      "Ġothers": 2987,
      "edd": 2988,
      "Ġgives": 2989,
      "Ġscale": 2990,
      "ĠDist": 2991,
      "Ġconstra": 2992,
      "top": 2993,
      "Ġinput": 2994,
      "Ġtreat": 2995,
      "ued": 2996,
      "Ġnecess": 2997,
      "Ġ$(\\": 2998,
      "Ġpay": 2999,
      "ĠHer": 3000,
      "Ġannoun": 3001,
      "Ġstudents": 3002,
      "Ġrequire": 3003,
      "Ġfeel": 3004,
      "onic": 3005,
      "more": 3006,
      "Ġwind": 3007,
      "49": 3008,
      "}\\\\": 3009,
      "Ġspin": 3010,
      "Ġclos": 3011,
      "Ġsequence": 3012,
      "Ġmiss": 3013,
      "racy": 3014,
      "ĠMy": 3015,
      "Ġcourse": 3016,
      "ha": 3017,
      "raction": 3018,
      "small": 3019,
      "sel": 3020,
      "Ġtrue": 3021,
      "Ġassume": 3022,
      "lin": 3023,
      "like": 3024,
      "ump": 3025,
      "Ġonce": 3026,
      "Ġpublished": 3027,
      "tr": 3028,
      "ids": 3029,
      "EN": 3030,
      "Ġlove": 3031,
      "Ġdri": 3032,
      "]$": 3033,
      "astic": 3034,
      "utes": 3035,
      "Ġeffects": 3036,
      "pdf": 3037,
      "Ġelements": 3038,
      "Ġestablished": 3039,
      "Ġwhether": 3040,
      "aves": 3041,
      "Ġbuilt": 3042,
      "Ġimpl": 3043,
      "icol": 3044,
      "ults": 3045,
      "({\\": 3046,
      "SS": 3047,
      "Ġnamed": 3048,
      "Ġkind": 3049,
      "Ġlo": 3050,
      "cell": 3051,
      "Ġactiv": 3052,
      "aff": 3053,
      "Ġwhy": 3054,
      "era": 3055,
      "Ġtext": 3056,
      "ilitary": 3057,
      "Ġpur": 3058,
      "ills": 3059,
      "itect": 3060,
      "annel": 3061,
      "levision": 3062,
      "mid": 3063,
      "iding": 3064,
      "indent": 3065,
      "point": 3066,
      "iven": 3067,
      "Ġappl": 3068,
      "Ġbo": 3069,
      "ĠMark": 3070,
      "Ġfilms": 3071,
      "Ġconstruct": 3072,
      "operat": 3073,
      "Ġcorrel": 3074,
      "atrix": 3075,
      "Ġfocus": 3076,
      "citet": 3077,
      "Ġexplain": 3078,
      "oms": 3079,
      "Ġ&\\": 3080,
      "ociety": 3081,
      "pped": 3082,
      "Ġlot": 3083,
      "Ġagre": 3084,
      "Ġhost": 3085,
      "Ġmatter": 3086,
      "Ġwhose": 3087,
      "Ġnatural": 3088,
      "itch": 3089,
      "hers": 3090,
      "ĠLemma": 3091,
      "Ġmatch": 3092,
      "umb": 3093,
      "Ġunit": 3094,
      "ĠInternational": 3095,
      "Ġprovided": 3096,
      "Ġproperty": 3097,
      "bsite": 3098,
      "Ġquestion": 3099,
      "Ġyoung": 3100,
      "li": 3101,
      "Ġcr": 3102,
      "Ġdiag": 3103,
      "Ġrefer": 3104,
      "Ġsound": 3105,
      "2002": 3106,
      "uff": 3107,
      "47": 3108,
      "ceed": 3109,
      "alt": 3110,
      "gress": 3111,
      "Ġclub": 3112,
      "Americ": 3113,
      "isk": 3114,
      "AM": 3115,
      "arth": 3116,
      "Ph": 3117,
      "Ġservices": 3118,
      "tact": 3119,
      "book": 3120,
      "ED": 3121,
      "ĠSim": 3122,
      "operatorn": 3123,
      "Ġoperator": 3124,
      "Ġeconom": 3125,
      "equiv": 3126,
      "sup": 3127,
      "go": 3128,
      "Ġsqu": 3129,
      "eal": 3130,
      "ires": 3131,
      "den": 3132,
      "Ġentire": 3133,
      "estern": 3134,
      "opy": 3135,
      "tage": 3136,
      "ledge": 3137,
      "Ġclear": 3138,
      "www": 3139,
      "ores": 3140,
      "operatorname": 3141,
      "Ġpan": 3142,
      "ĠMich": 3143,
      "ĠWilliam": 3144,
      "attle": 3145,
      "dimens": 3146,
      ")-": 3147,
      "Ġstarted": 3148,
      "Ġadditional": 3149,
      "apt": 3150,
      "ĠThus": 3151,
      "Ġmechan": 3152,
      "ĠSup": 3153,
      "ridge": 3154,
      "const": 3155,
      "Ġtaking": 3156,
      "iddle": 3157,
      "Ġprec": 3158,
      "Ġwent": 3159,
      "ĠFrom": 3160,
      "Ġsample": 3161,
      "Ġdegree": 3162,
      "Ġstrateg": 3163,
      "Ġrequired": 3164,
      "ĠĠĠĠĠĠĠĠĠĠĠ": 3165,
      "Ġtherefore": 3166,
      "Ġbegin": 3167,
      "Ġcannot": 3168,
      "oud": 3169,
      "Ġimprove": 3170,
      "cing": 3171,
      "skip": 3172,
      "Ġreported": 3173,
      "Ġedge": 3174,
      ")]": 3175,
      "Ġerror": 3176,
      "Ġhor": 3177,
      "}:": 3178,
      "icult": 3179,
      "eloc": 3180,
      "Ġvill": 3181,
      "prop": 3182,
      "Ġspecies": 3183,
      "iff": 3184,
      "ĠAmerica": 3185,
      "Ġflow": 3186,
      "ctors": 3187,
      "Ġbody": 3188,
      "icles": 3189,
      "Ġnov": 3190,
      "Ġexperience": 3191,
      "Ġelement": 3192,
      "Ġequations": 3193,
      "star": 3194,
      "imate": 3195,
      "Ġpo": 3196,
      "Ġeffective": 3197,
      "}}{\\": 3198,
      "Ġimplement": 3199,
      "ĠRec": 3200,
      "ucle": 3201,
      "ĠPhil": 3202,
      "Ġspecific": 3203,
      "ili": 3204,
      "Ġdatas": 3205,
      "ara": 3206,
      "mark": 3207,
      "}+\\": 3208,
      "ĠDes": 3209,
      "ĠPresident": 3210,
      "2001": 3211,
      "85": 3212,
      "Ġweight": 3213,
      "Sh": 3214,
      "Ġstars": 3215,
      "ĠChe": 3216,
      "overed": 3217,
      "Ġcomplete": 3218,
      "Ġplayer": 3219,
      "ael": 3220,
      ".)": 3221,
      "Ġattack": 3222,
      "Ġmultiple": 3223,
      "ĠStud": 3224,
      "Ġneigh": 3225,
      "46": 3226,
      "Ġlabel": 3227,
      "iforn": 3228,
      "Ġboundary": 3229,
      "fact": 3230,
      "ariant": 3231,
      "Ã¡": 3232,
      "Ġextens": 3233,
      "rast": 3234,
      "minist": 3235,
      "'$": 3236,
      "Ġchall": 3237,
      "Ġcompared": 3238,
      "Ġenvironment": 3239,
      "ĠFirst": 3240,
      "ooth": 3241,
      "rec": 3242,
      "IT": 3243,
      "ext": 3244,
      "atives": 3245,
      "atively": 3246,
      "Ġever": 3247,
      "Ġfields": 3248,
      "ocal": 3249,
      "neq": 3250,
      "Ġdenote": 3251,
      "Ġdifference": 3252,
      "Ġhtt": 3253,
      "Cl": 3254,
      "Ġround": 3255,
      "Ġpresented": 3256,
      "ites": 3257,
      "Ġbar": 3258,
      "Ġgas": 3259,
      "ĠAng": 3260,
      "AP": 3261,
      "97": 3262,
      "sin": 3263,
      "Ġnote": 3264,
      "Ġdomain": 3265,
      "ulated": 3266,
      "ĠĠĠĠĠĠĠĠĠĠĠĠĠĠĠĠĠĠĠĠĠĠĠĠĠĠĠĠĠĠĠĠ": 3267,
      "Ġbroad": 3268,
      "rig": 3269,
      "Ġdoc": 3270,
      "Ġtrack": 3271,
      "}-\\": 3272,
      "~$": 3273,
      "istics": 3274,
      "itz": 3275,
      "ifornia": 3276,
      "....": 3277,
      "Ġengine": 3278,
      "Ġlive": 3279,
      "ste": 3280,
      "hspace": 3281,
      "curity": 3282,
      "defin": 3283,
      "New": 3284,
      "ĠAct": 3285,
      "Ġlate": 3286,
      "98": 3287,
      "uel": 3288,
      "Ġsolutions": 3289,
      "Ġveloc": 3290,
      "Ġsoft": 3291,
      "century": 3292,
      "semb": 3293,
      "omb": 3294,
      "tee": 3295,
      "arc": 3296,
      "EC": 3297,
      "edge": 3298,
      "Ġeff": 3299,
      "Ġchanges": 3300,
      "atory": 3301,
      "Ġinstead": 3302,
      "Ġglobal": 3303,
      ")}{": 3304,
      "Ġ-\\": 3305,
      "American": 3306,
      "kn": 3307,
      "aring": 3308,
      "ustom": 3309,
      "Ġindu": 3310,
      "year": 3311,
      "Ġaff": 3312,
      "Ġcentral": 3313,
      "|^": 3314,
      "Ġwords": 3315,
      "Ġinflu": 3316,
      "Ġleading": 3317,
      "Ġparticip": 3318,
      "Ġviol": 3319,
      "noindent": 3320,
      "Ġbase": 3321,
      "Ġdeal": 3322,
      "umbers": 3323,
      "Ġstyle": 3324,
      "Ġcentury": 3325,
      "And": 3326,
      "Ġsubject": 3327,
      "pa": 3328,
      "ully": 3329,
      "Ġbasis": 3330,
      "96": 3331,
      "umerate": 3332,
      "orge": 3333,
      "that": 3334,
      "pecially": 3335,
      "alle": 3336,
      "ands": 3337,
      "Ġnight": 3338,
      "ĠMor": 3339,
      "ened": 3340,
      "mon": 3341,
      "Ġincrease": 3342,
      "ĠServ": 3343,
      "andid": 3344,
      "Ġalign": 3345,
      "Ġcompan": 3346,
      "ply": 3347,
      "oph": 3348,
      "ĠNews": 3349,
      "Ġcontains": 3350,
      "olic": 3351,
      "En": 3352,
      "Ġmedia": 3353,
      "Ġweak": 3354,
      "Ġdemon": 3355,
      "ĠGo": 3356,
      "Ġtoday": 3357,
      "Ġproduced": 3358,
      "Ġbirths": 3359,
      "Ġcreated": 3360,
      "$}": 3361,
      "Ġtakes": 3362,
      "ota": 3363,
      "Ġfall": 3364,
      "ĠDo": 3365,
      "Ġimages": 3366,
      "Ġthought": 3367,
      "ises": 3368,
      "Ġsets": 3369,
      "Ġcateg": 3370,
      "Ġtarget": 3371,
      "Ġnews": 3372,
      "mar": 3373,
      "Ġliter": 3374,
      "enumerate": 3375,
      "ĠFrench": 3376,
      "Ġconver": 3377,
      "unic": 3378,
      "ression": 3379,
      "Ġwave": 3380,
      "ĠAc": 3381,
      "US": 3382,
      "icture": 3383,
      "lands": 3384,
      "dag": 3385,
      "onse": 3386,
      "ĠChampions": 3387,
      "theorem": 3388,
      "dimensional": 3389,
      "ilton": 3390,
      "Ġmetric": 3391,
      "Ġdest": 3392,
      "Ġpolitical": 3393,
      "oul": 3394,
      "Ġmarket": 3395,
      "Ġaddress": 3396,
      "Ġproblems": 3397,
      "ivil": 3398,
      "iform": 3399,
      "Ġactually": 3400,
      "Ġinf": 3401,
      "Ġrecogn": 3402,
      "ĠAustralia": 3403,
      "Ġdifficult": 3404,
      "ends": 3405,
      "note": 3406,
      "nder": 3407,
      "ĠPat": 3408,
      "ĠNot": 3409,
      "Ġdidn": 3410,
      "Ġfav": 3411,
      "ID": 3412,
      "Ġholds": 3413,
      "]\\": 3414,
      "Ġcoe": 3415,
      "Ġfil": 3416,
      "Ġvert": 3417,
      "Ġrespons": 3418,
      "Ġnode": 3419,
      "berg": 3420,
      "Ġled": 3421,
      "Ġprot": 3422,
      "vey": 3423,
      "Be": 3424,
      "Ġconstruction": 3425,
      "ĠCont": 3426,
      "ĠIndia": 3427,
      "useum": 3428,
      "Ġprovides": 3429,
      "down": 3430,
      "ĠVal": 3431,
      "Pl": 3432,
      "Ġamount": 3433,
      "Ġyet": 3434,
      "Ġdefinition": 3435,
      "Ġwhole": 3436,
      "ounter": 3437,
      "Ġconstraint": 3438,
      "ĠDem": 3439,
      "Ġflu": 3440,
      "ky": 3441,
      "actions": 3442,
      "AA": 3443,
      "Ġborn": 3444,
      "Ġclosed": 3445,
      "rug": 3446,
      "Ġimplies": 3447,
      "Ġattempt": 3448,
      "Ġmer": 3449,
      "ĠAssoci": 3450,
      "Ġdirection": 3451,
      "Ġtradition": 3452,
      "ĠLaw": 3453,
      "Ġbene": 3454,
      "Ġprior": 3455,
      ")}$": 3456,
      "king": 3457,
      "Ġcheck": 3458,
      "Ġjob": 3459,
      "itemize": 3460,
      "Ġprinc": 3461,
      "rs": 3462,
      "Ġste": 3463,
      "Ġprove": 3464,
      "67": 3465,
      "PS": 3466,
      "Ġfun": 3467,
      "iments": 3468,
      "At": 3469,
      "Ġlanguage": 3470,
      "CC": 3471,
      "inated": 3472,
      "ĠCalifornia": 3473,
      "ĠCenter": 3474,
      "aign": 3475,
      "arily": 3476,
      "ht": 3477,
      "Ġstudies": 3478,
      "ville": 3479,
      "Ġperformed": 3480,
      "ging": 3481,
      "Ġbackground": 3482,
      "ĉĊ": 3483,
      "ĠCour": 3484,
      "Ġdeveloped": 3485,
      "OS": 3486,
      "Ġimpact": 3487,
      "ĠTV": 3488,
      "vspace": 3489,
      "scr": 3490,
      "Ġsense": 3491,
      "What": 3492,
      "ship": 3493,
      "ĠWhat": 3494,
      "ĠEast": 3495,
      "Ġexec": 3496,
      "ĠRepublic": 3497,
      "ocr": 3498,
      "Ġmagnetic": 3499,
      "Ġunique": 3500,
      "stitute": 3501,
      "Ġinterp": 3502,
      "Ġoptim": 3503,
      "Ġcoordin": 3504,
      "Ġbreak": 3505,
      "scale": 3506,
      "59": 3507,
      "inn": 3508,
      "Ġtransform": 3509,
      "Ġareas": 3510,
      "Ġpopular": 3511,
      "ĠUK": 3512,
      "Since": 3513,
      "ĠTr": 3514,
      "Ġlikely": 3515,
      "Ġevolution": 3516,
      "ĠIndian": 3517,
      "Ġmention": 3518,
      "Ġsett": 3519,
      "multicol": 3520,
      "Ġequal": 3521,
      "izes": 3522,
      "add": 3523,
      "itter": 3524,
      "Ġregard": 3525,
      "MS": 3526,
      "88": 3527,
      "uration": 3528,
      "Ġhistor": 3529,
      "Ġphysical": 3530,
      "fill": 3531,
      "Ġscen": 3532,
      "Ġcompos": 3533,
      "Ġrank": 3534,
      "Ġalgebra": 3535,
      "ellow": 3536,
      "ming": 3537,
      "Ġoccur": 3538,
      "omorphism": 3539,
      "multicolumn": 3540,
      "lease": 3541,
      "Ġaud": 3542,
      "opl": 3543,
      "unch": 3544,
      "oyal": 3545,
      "Ġblock": 3546,
      "Ġwebsite": 3547,
      "band": 3548,
      "node": 3549,
      "Ġadvan": 3550,
      "}}_": 3551,
      "When": 3552,
      "Ġrelation": 3553,
      "Ġserved": 3554,
      "Ġroad": 3555,
      "Ġintroduced": 3556,
      "ccording": 3557,
      "Ġincludes": 3558,
      "Ġdirectly": 3559,
      "rup": 3560,
      "approx": 3561,
      "ĠDi": 3562,
      "hern": 3563,
      "\\,\\": 3564,
      "Ġcomponents": 3565,
      "reng": 3566,
      "ĠDavid": 3567,
      "Ġsearch": 3568,
      "irt": 3569,
      "(-": 3570,
      "pping": 3571,
      "uit": 3572,
      "Ġbecomes": 3573,
      "Ġspectrum": 3574,
      "Ġcomes": 3575,
      "Ġson": 3576,
      "ĠEngland": 3577,
      "Ġaffect": 3578,
      "rick": 3579,
      "ĠTrans": 3580,
      "Ġsignal": 3581,
      "ously": 3582,
      "my": 3583,
      "Ġrepresentation": 3584,
      "Ġitself": 3585,
      "Ġfem": 3586,
      "ĠOur": 3587,
      "Ġthing": 3588,
      "',": 3589,
      "Ġdetails": 3590,
      "77": 3591,
      "Ġnucle": 3592,
      "Ġidea": 3593,
      "NN": 3594,
      "Ġmonths": 3595,
      "Le": 3596,
      "42": 3597,
      "oring": 3598,
      "atur": 3599,
      "Ġepis": 3600,
      "Pi": 3601,
      "ica": 3602,
      "Ġtalk": 3603,
      "Ġfront": 3604,
      "Ġfit": 3605,
      "Ġchoice": 3606,
      "Ġrot": 3607,
      "anks": 3608,
      "Ġtell": 3609,
      "Ġelectron": 3610,
      "Ġadm": 3611,
      "Ġess": 3612,
      "artment": 3613,
      "clusion": 3614,
      "ĠBlack": 3615,
      "ĠStreet": 3616,
      "ĠMal": 3617,
      "han": 3618,
      "ario": 3619,
      "Ġaccept": 3620,
      "66": 3621,
      "Ġincreasing": 3622,
      "ĠPaul": 3623,
      "Ġyield": 3624,
      "ĠHol": 3625,
      "Ġcenter": 3626,
      "}}}": 3627,
      "ĠPal": 3628,
      "Ġadded": 3629,
      "\\}$": 3630,
      "ĠGerman": 3631,
      "Ġfather": 3632,
      "Ġparty": 3633,
      "Ġpolicy": 3634,
      "ĠCons": 3635,
      "Ġonline": 3636,
      "Ġgenerated": 3637,
      "Ġface": 3638,
      "Ġgoal": 3639,
      "ura": 3640,
      "ĠJe": 3641,
      "ĠTherefore": 3642,
      "rate": 3643,
      "Ġren": 3644,
      "la": 3645,
      "Ġmoney": 3646,
      "ya": 3647,
      "esc": 3648,
      "Ġpric": 3649,
      "Ġcomponent": 3650,
      "Ġstage": 3651,
      "bert": 3652,
      "ĠSen": 3653,
      "Ġ*": 3654,
      "Ġwhite": 3655,
      "Ġinternational": 3656,
      "lement": 3657,
      "volution": 3658,
      "Ġlink": 3659,
      "Ġtransition": 3660,
      "ett": 3661,
      "wood": 3662,
      "Ġmag": 3663,
      "Ġtitle": 3664,
      "Ġ_{": 3665,
      "hips": 3666,
      "ĠEuropean": 3667,
      "Ġsold": 3668,
      "Ġsmaller": 3669,
      "1999": 3670,
      "Ġcapt": 3671,
      "CD": 3672,
      "ĠMod": 3673,
      "rump": 3674,
      "Ġnumbers": 3675,
      "pite": 3676,
      "Ġupd": 3677,
      "auge": 3678,
      "Ġreve": 3679,
      "Ġshall": 3680,
      "Pe": 3681,
      "Ġsources": 3682,
      "Ġwrite": 3683,
      "Ġsyn": 3684,
      "ĠDistrict": 3685,
      "ĠGroup": 3686,
      "selves": 3687,
      "500": 3688,
      "^-": 3689,
      "Ġsure": 3690,
      "1998": 3691,
      "Ġdied": 3692,
      "ources": 3693,
      "mathscr": 3694,
      "usion": 3695,
      "Ġcandid": 3696,
      "Ġneut": 3697,
      "turb": 3698,
      "ĠBel": 3699,
      "Ġtens": 3700,
      "43": 3701,
      "Ġ\\;": 3702,
      "ĠCup": 3703,
      "Ġcritical": 3704,
      "gence": 3705,
      "command": 3706,
      "ico": 3707,
      "ault": 3708,
      "ĠRed": 3709,
      "ĠJames": 3710,
      "ĠBer": 3711,
      "ĠRiver": 3712,
      "Ġri": 3713,
      "known": 3714,
      "ĠChina": 3715,
      "ander": 3716,
      "Wh": 3717,
      "Ġespecially": 3718,
      "ranch": 3719,
      "Ġadj": 3720,
      "Ġnorth": 3721,
      "Ġannounced": 3722,
      "ports": 3723,
      "fit": 3724,
      "iation": 3725,
      "ĠCouncil": 3726,
      "Then": 3727,
      "{$": 3728,
      "Ġupon": 3729,
      "Ġmaximum": 3730,
      "ender": 3731,
      "You": 3732,
      "Ġsimply": 3733,
      "Ġestimate": 3734,
      "Ġupper": 3735,
      "lor": 3736,
      "Ġbehind": 3737,
      "osen": 3738,
      "olar": 3739,
      "Ġtax": 3740,
      "Ġdecre": 3741,
      "Ġut": 3742,
      "nce": 3743,
      "Ġlost": 3744,
      "ken": 3745,
      "rote": 3746,
      "cial": 3747,
      "IR": 3748,
      "Ġvelocity": 3749,
      "Ġissues": 3750,
      "68": 3751,
      "Ġarchitect": 3752,
      "Ġpresident": 3753,
      "Ġtelevision": 3754,
      "Ġcode": 3755,
      "rian": 3756,
      "ĠCanada": 3757,
      "After": 3758,
      "Ġissue": 3759,
      "Ġ\\|": 3760,
      "Ġrob": 3761,
      "Ġdemonstr": 3762,
      "Ġdeep": 3763,
      "light": 3764,
      "otic": 3765,
      "Ġgre": 3766,
      "Ġapplied": 3767,
      "Ġstri": 3768,
      "utive": 3769,
      "With": 3770,
      "ĠChar": 3771,
      "ĠMa": 3772,
      "Ġsuccessful": 3773,
      "Res": 3774,
      "ĠTable": 3775,
      "ĠPort": 3776,
      "ams": 3777,
      "Ġquite": 3778,
      "Ġratio": 3779,
      "Ar": 3780,
      "Ġtheorem": 3781,
      "Ġforce": 3782,
      "aged": 3783,
      "leg": 3784,
      "asons": 3785,
      "Ġspeed": 3786,
      ")+": 3787,
      "ottom": 3788,
      "All": 3789,
      "can": 3790,
      "Ġpers": 3791,
      "ĠHall": 3792,
      "Ġoutside": 3793,
      "Ġcontext": 3794,
      "Ġparts": 3795,
      "Ġquality": 3796,
      "Ġallows": 3797,
      "Ġneeds": 3798,
      "que": 3799,
      "texttt": 3800,
      "Ġpercent": 3801,
      "Ad": 3802,
      "Ġcommunic": 3803,
      "Ġpersonal": 3804,
      "icit": 3805,
      "Ġtransl": 3806,
      "ĠRich": 3807,
      "Ġfood": 3808,
      "ening": 3809,
      "Ġcontract": 3810,
      "duc": 3811,
      "Ġlat": 3812,
      "ached": 3813,
      "state": 3814,
      "rule": 3815,
      "57": 3816,
      "ource": 3817,
      "Ġhon": 3818,
      "ien": 3819,
      "Ġpie": 3820,
      "Ġcontent": 3821,
      "Ġmid": 3822,
      "Ġdoesn": 3823,
      "ĠRober": 3824,
      "Ġevalu": 3825,
      "Ġinj": 3826,
      "41": 3827,
      "Ġdetermined": 3828,
      "ributed": 3829,
      "1990": 3830,
      "Ġneeded": 3831,
      "ception": 3832,
      "anish": 3833,
      "Ġeigen": 3834,
      "58": 3835,
      "Ġbehavior": 3836,
      "Ġey": 3837,
      "ades": 3838,
      "Ġresponse": 3839,
      "rab": 3840,
      "Ġbit": 3841,
      "ĠWhile": 3842,
      "riate": 3843,
      "ĠThom": 3844,
      "Ġsus": 3845,
      "iers": 3846,
      "mail": 3847,
      "Ġsex": 3848,
      "ountain": 3849,
      "ansion": 3850,
      "Ġearl": 3851,
      "Ġdark": 3852,
      "Ġoutput": 3853,
      "Ġcustom": 3854,
      "Ġgain": 3855,
      "lymp": 3856,
      "nes": 3857,
      "Ġrelease": 3858,
      "ĠGa": 3859,
      "&&": 3860,
      "From": 3861,
      "||": 3862,
      "ĠHere": 3863,
      "Ġball": 3864,
      "ĠGeneral": 3865,
      "rence": 3866,
      "bound": 3867,
      "ĠDiv": 3868,
      "1997": 3869,
      "Ġalthough": 3870,
      "Ġsetting": 3871,
      "ework": 3872,
      "One": 3873,
      "igital": 3874,
      "aging": 3875,
      "Ġmoved": 3876,
      "Ġreach": 3877,
      "load": 3878,
      "Theta": 3879,
      "Ġaward": 3880,
      "Ġworked": 3881,
      "ĠParty": 3882,
      "Ġcompanies": 3883,
      "Ġmess": 3884,
      "Ġhimself": 3885,
      "ĠResearch": 3886,
      "uses": 3887,
      "ald": 3888,
      "come": 3889,
      "Ġtold": 3890,
      "Ġindustry": 3891,
      "change": 3892,
      "raz": 3893,
      "cks": 3894,
      "Ġsouth": 3895,
      "Ġtransfer": 3896,
      "Ġrac": 3897,
      "Ġrestrict": 3898,
      "Ġperm": 3899,
      "ios": 3900,
      "inos": 3901,
      "ida": 3902,
      "Ġcharg": 3903,
      "Ġknowledge": 3904,
      "Ġvariables": 3905,
      "Ġcreate": 3906,
      "'re": 3907,
      "Ġtowards": 3908,
      "HE": 3909,
      "ashington": 3910,
      "Ġradio": 3911,
      "Ġarticle": 3912,
      "Ġinvolved": 3913,
      "pot": 3914,
      "56": 3915,
      "oved": 3916,
      "Ġinteresting": 3917,
      "Ġillust": 3918,
      "ĠNote": 3919,
      "Ġfrequency": 3920,
      "}^{-": 3921,
      "Ind": 3922,
      "Ġstreng": 3923,
      "ns": 3924,
      "Ġuses": 3925,
      "Ġword": 3926,
      "Ġhot": 3927,
      "Ġevidence": 3928,
      "tical": 3929,
      "ĠGod": 3930,
      "tra": 3931,
      "Ġmind": 3932,
      "Ġequivalent": 3933,
      "1996": 3934,
      "Ġvict": 3935,
      "rier": 3936,
      "subseteq": 3937,
      "Ġconnected": 3938,
      "Ġnovel": 3939,
      "AD": 3940,
      "ĠEm": 3941,
      "Ġcampaign": 3942,
      "Ġbring": 3943,
      "ĠDepartment": 3944,
      "Ġmaterial": 3945,
      "<\\": 3946,
      "oice": 3947,
      "ĠBook": 3948,
      "ston": 3949,
      "),\\": 3950,
      "Ġpack": 3951,
      "gra": 3952,
      "Ġproced": 3953,
      "Ġforward": 3954,
      "ker": 3955,
      "Ã³": 3956,
      "ares": 3957,
      "Ġregions": 3958,
      "bre": 3959,
      "ube": 3960,
      "iences": 3961,
      "Ġuser": 3962,
      "Ġseems": 3963,
      "}'": 3964,
      "ĠChurch": 3965,
      "isions": 3966,
      "split": 3967,
      "Ġir": 3968,
      "elt": 3969,
      "ynom": 3970,
      "ancial": 3971,
      "Ġimmedi": 3972,
      "Ġusually": 3973,
      "Ġpref": 3974,
      "ny": 3975,
      "Te": 3976,
      "oo": 3977,
      "ĠDr": 3978,
      "Ġund": 3979,
      "Ġpeak": 3980,
      "Ġmilitary": 3981,
      "Ġfire": 3982,
      "Ġtravel": 3983,
      "Ġtool": 3984,
      "Ġop": 3985,
      "Ġgrad": 3986,
      "Ġlevels": 3987,
      "78": 3988,
      "Ġpattern": 3989,
      "ĠJust": 3990,
      "Ġimm": 3991,
      "Ge": 3992,
      "rd": 3993,
      "Ġexpression": 3994,
      "Ġbox": 3995,
      "ĠĠĠĊ": 3996,
      "taint": 3997,
      "encies": 3998,
      "Ġtypes": 3999,
      "ET": 4000,
      "ĠDay": 4001,
      "Ġdimension": 4002,
      "Ġcharge": 4003,
      "attice": 4004,
      "ĠAward": 4005,
      "ĠDire": 4006,
      "Ġeducation": 4007,
      "isation": 4008,
      "ĠInstitute": 4009,
      "ests": 4010,
      "Ġconcept": 4011,
      "ĠNow": 4012,
      "Ġestablish": 4013,
      "Ġ$\\{": 4014,
      "Ġgeomet": 4015,
      "ago": 4016,
      "minus": 4017,
      "Ġ...": 4018,
      "Ġnoise": 4019,
      "underline": 4020,
      "Ġvalid": 4021,
      "Ġgrowth": 4022,
      "Ġlooking": 4023,
      "Ġaltern": 4024,
      "ittee": 4025,
      "bigg": 4026,
      "_+": 4027,
      "Ġwrote": 4028,
      "Ġbr": 4029,
      "ĠCourt": 4030,
      "Ġdesigned": 4031,
      "Ġinteraction": 4032,
      "ĠBay": 4033,
      "Ġexhib": 4034,
      "Ġdoing": 4035,
      "Ġflux": 4036,
      "Ġindex": 4037,
      "Ġter": 4038,
      "Ġlonger": 4039,
      "Ġwalk": 4040,
      "Ġoffice": 4041,
      "prod": 4042,
      "Ġrelative": 4043,
      "orthern": 4044,
      "linear": 4045,
      "ĠJack": 4046,
      "Ġdam": 4047,
      "ĠGreen": 4048,
      "textrm": 4049,
      "Ġremains": 4050,
      "hing": 4051,
      "}}_{": 4052,
      "Ġthroughout": 4053,
      "Ġcolor": 4054,
      "Ġmach": 4055,
      "ĠOf": 4056,
      "Ġdraw": 4057,
      "But": 4058,
      "Ġago": 4059,
      "inct": 4060,
      "Ġvisit": 4061,
      "ĠĠĠĠĠĠĠĠĠ": 4062,
      "Ġdecl": 4063,
      "atal": 4064,
      "Ġlargest": 4065,
      "ĠGerm": 4066,
      "map": 4067,
      "ĠFrance": 4068,
      "Ġcolumn": 4069,
      "Ġquick": 4070,
      "Ġnecessary": 4071,
      "ental": 4072,
      "eli": 4073,
      "Ġmonth": 4074,
      "ibrary": 4075,
      "oke": 4076,
      "ĉĉĉĉ": 4077,
      "Ġopportun": 4078,
      "],": 4079,
      "Ġsufficient": 4080,
      "Ġuncer": 4081,
      "Ġtechnology": 4082,
      "footnote": 4083,
      "Ġdecision": 4084,
      "eline": 4085,
      "{}": 4086,
      "rep": 4087,
      "thern": 4088,
      "Ġproducts": 4089,
      "long": 4090,
      "Ġeasy": 4091,
      "allel": 4092,
      "Sp": 4093,
      "Ġampl": 4094,
      "Ġhol": 4095,
      "Ġtable": 4096,
      "ng": 4097,
      "Ġsmooth": 4098,
      "Ġbur": 4099,
      "Ġrights": 4100,
      "Ġsil": 4101,
      "Ġobjects": 4102,
      "dist": 4103,
      "ĠMart": 4104,
      "Ġpolice": 4105,
      "Ġliving": 4106,
      "ĠMusic": 4107,
      "level": 4108,
      "Sc": 4109,
      "Ġdriv": 4110,
      "ederal": 4111,
      "Ġrunning": 4112,
      "adian": 4113,
      "norm": 4114,
      "Ġgauge": 4115,
      "unt": 4116,
      "Ġobservations": 4117,
      "Ġstra": 4118,
      "class": 4119,
      "Note": 4120,
      "2022": 4121,
      "OM": 4122,
      "ĠHealth": 4123,
      "Ġmodern": 4124,
      "Ġvillage": 4125,
      "range": 4126,
      "Ġwor": 4127,
      "ocks": 4128,
      "Ġbad": 4129,
      "ensive": 4130,
      "Ġbelieve": 4131,
      "Ġrisk": 4132,
      "Ġrecently": 4133,
      "Ġtask": 4134,
      "ini": 4135,
      "Ġmother": 4136,
      "Ġemer": 4137,
      "Ġinside": 4138,
      "Ġshare": 4139,
      "Ġdra": 4140,
      "Ġgalaxies": 4141,
      "ifold": 4142,
      "iny": 4143,
      "hest": 4144,
      "Ġ($\\": 4145,
      "Ġten": 4146,
      "size": 4147,
      "Ġfight": 4148,
      "group": 4149,
      "ka": 4150,
      "Ġchannel": 4151,
      "Ġ$|": 4152,
      "ĠFe": 4153,
      "Ġoperators": 4154,
      "stein": 4155,
      "Ġtro": 4156,
      "So": 4157,
      "ĠGeorge": 4158,
      "ĠAssociation": 4159,
      "Ġderiv": 4160,
      "ellar": 4161,
      "rents": 4162,
      "Ġhours": 4163,
      "Ġpresence": 4164,
      "ĠOff": 4165,
      "yond": 4166,
      "Ġconclud": 4167,
      "Ġ@": 4168,
      "wa": 4169,
      "ĠScience": 4170,
      "Ġintegral": 4171,
      "Ġplaying": 4172,
      "Ġresid": 4173,
      "bul": 4174,
      "Ġnature": 4175,
      "Ġcontact": 4176,
      "Ġelection": 4177,
      "outhern": 4178,
      "Ã¼": 4179,
      "Int": 4180,
      "Ġconfig": 4181,
      "ani": 4182,
      "alled": 4183,
      "Ġqual": 4184,
      "Ġdiagram": 4185,
      "ipal": 4186,
      "Ġprivate": 4187,
      "tered": 4188,
      "dagger": 4189,
      "Ġheart": 4190,
      "Ġmale": 4191,
      "Ġclassical": 4192,
      "asc": 4193,
      "PR": 4194,
      "ashed": 4195,
      "trans": 4196,
      "well": 4197,
      "\\'": 4198,
      "ements": 4199,
      "}/": 4200,
      "izations": 4201,
      "uild": 4202,
      "Our": 4203,
      "ĠInter": 4204,
      "ĠPress": 4205,
      "Ġmor": 4206,
      "OT": 4207,
      "ĠRoad": 4208,
      "Ġgrav": 4209,
      "Ġdiscussed": 4210,
      "ĠRuss": 4211,
      "Ġstudied": 4212,
      "edy": 4213,
      "display": 4214,
      "Ġadapt": 4215,
      "Ġassist": 4216,
      "Ġax": 4217,
      "Ġemission": 4218,
      "EE": 4219,
      "Ġhence": 4220,
      "uracy": 4221,
      "ÃŃ": 4222,
      "Ġfigure": 4223,
      "ĠQue": 4224,
      "atform": 4225,
      "uge": 4226,
      "Ġnegative": 4227,
      "oto": 4228,
      "Ġdirector": 4229,
      "setminus": 4230,
      "Ġaccom": 4231,
      "Ġgirl": 4232,
      "Ġuniform": 4233,
      "oplus": 4234,
      "Ġboard": 4235,
      "ds": 4236,
      "Ġcourt": 4237,
      "Ġacqu": 4238,
      "Ġcollection": 4239,
      "Ġwa": 4240,
      "Ġord": 4241,
      "1995": 4242,
      "Ġcompact": 4243,
      "eared": 4244,
      "Ġapply": 4245,
      "More": 4246,
      "Ġresulting": 4247,
      "joy": 4248,
      "Ġaim": 4249,
      "crete": 4250,
      "ĠTechn": 4251,
      "ĠWashington": 4252,
      "Ġrelev": 4253,
      "ĠWork": 4254,
      "Ġsaw": 4255,
      "Ġattention": 4256,
      "Ġfollowed": 4257,
      "à¤": 4258,
      "Ġlimited": 4259,
      "ĠSur": 4260,
      "86": 4261,
      "Ġsymmetry": 4262,
      "ĠSl": 4263,
      "Ġrace": 4264,
      "ĠHamilton": 4265,
      "Ġleaders": 4266,
      "Ġleads": 4267,
      "estival": 4268,
      "Ġgradu": 4269,
      "Ġcontinuous": 4270,
      "sey": 4271,
      "ĠVol": 4272,
      "Ġautom": 4273,
      "Ġcoming": 4274,
      "Ġinfin": 4275,
      "52": 4276,
      "Ġcorrect": 4277,
      "87": 4278,
      "ĠTw": 4279,
      "Now": 4280,
      "ĠGra": 4281,
      "ĠSum": 4282,
      "Ġtour": 4283,
      "Ġpractice": 4284,
      "^{-\\": 4285,
      "Ġhyper": 4286,
      "FF": 4287,
      "ingu": 4288,
      "Vert": 4289,
      "bour": 4290,
      "Here": 4291,
      "Ġansw": 4292,
      "Ġbooks": 4293,
      "Ġassign": 4294,
      "_{(": 4295,
      "Ġveh": 4296,
      "ometimes": 4297,
      "uments": 4298,
      "abs": 4299,
      "Ġadminist": 4300,
      "ros": 4301,
      "}},": 4302,
      "Ġapplication": 4303,
      "Ġmotion": 4304,
      "Ġstructures": 4305,
      "----": 4306,
      "Ġgave": 4307,
      "Ġcurve": 4308,
      "Ġeasily": 4309,
      "Ġrow": 4310,
      "Ġwriting": 4311,
      "Ġwall": 4312,
      "Ġ$-": 4313,
      "Ġinequ": 4314,
      "wedge": 4315,
      "Ġtreatment": 4316,
      "54": 4317,
      "94": 4318,
      "Ġscheme": 4319,
      "ĠArch": 4320,
      "function": 4321,
      "Ġlocation": 4322,
      "Ġallowed": 4323,
      "*{": 4324,
      "linewidth": 4325,
      ")|": 4326,
      "dro": 4327,
      "ĠBr": 4328,
      "Ġpolynom": 4329,
      "Ġteams": 4330,
      "Ġcountries": 4331,
      "ems": 4332,
      "from": 4333,
      "Ġvac": 4334,
      "Ġprobably": 4335,
      "MC": 4336,
      "istry": 4337,
      "Ġjud": 4338,
      "ospital": 4339,
      "Ġdistrict": 4340,
      "Ġdocument": 4341,
      "antic": 4342,
      "Ġsurv": 4343,
      "LL": 4344,
      "Ġpage": 4345,
      "ilies": 4346,
      "ĠMat": 4347,
      "Ġones": 4348,
      "\\}": 4349,
      "Ġparticles": 4350,
      "Bl": 4351,
      "Ġcurrently": 4352,
      "ria": 4353,
      "93": 4354,
      "Ġroom": 4355,
      "pose": 4356,
      "ĠYear": 4357,
      "ĠSome": 4358,
      "Ġusers": 4359,
      "ĠWhite": 4360,
      "rupt": 4361,
      "Ġconsum": 4362,
      "ĠMichael": 4363,
      "Ġreduced": 4364,
      "51": 4365,
      "ĠInt": 4366,
      "ĠSing": 4367,
      "Ġinstance": 4368,
      "di": 4369,
      "Ġded": 4370,
      "Ġmechanism": 4371,
      "Ġsamples": 4372,
      "gs": 4373,
      "].": 4374,
      "Ġ$[": 4375,
      "Ġtherm": 4376,
      "det": 4377,
      "rief": 4378,
      "reek": 4379,
      "Ġlack": 4380,
      "Ġappears": 4381,
      "Ġgetting": 4382,
      "Ġarriv": 4383,
      "Ġpressure": 4384,
      "ln": 4385,
      "Ġexperiments": 4386,
      "Ġoverall": 4387,
      "Ġearlier": 4388,
      "aker": 4389,
      "53": 4390,
      "1980": 4391,
      "Ġseg": 4392,
      "dered": 4393,
      "Ġrock": 4394,
      "inese": 4395,
      "Ġexplicit": 4396,
      "ifying": 4397,
      "Ġchoose": 4398,
      "iques": 4399,
      "Ġsecurity": 4400,
      "ona": 4401,
      "Ġparticle": 4402,
      "isl": 4403,
      "Ġdataset": 4404,
      "Ġstaff": 4405,
      "ĠCap": 4406,
      "Ġtransport": 4407,
      "People": 4408,
      "Ġthemselves": 4409,
      "Ġsoon": 4410,
      "Ġinn": 4411,
      "ĠNor": 4412,
      "Ġfully": 4413,
      "Ġmeet": 4414,
      "ĠArmy": 4415,
      "Ġelse": 4416,
      "nel": 4417,
      "Ġactive": 4418,
      "76": 4419,
      "pecial": 4420,
      "1994": 4421,
      "Ġchain": 4422,
      "Ġdr": 4423,
      "Ġexactly": 4424,
      "arp": 4425,
      "using": 4426,
      "arter": 4427,
      "Ġlatter": 4428,
      "Ġcomment": 4429,
      "Ġdynamics": 4430,
      "Ġexpansion": 4431,
      "Ġcred": 4432,
      "IM": 4433,
      "ariance": 4434,
      "ĠMary": 4435,
      "roduction": 4436,
      "Ġprofessional": 4437,
      "ĠAngel": 4438,
      "AB": 4439,
      "Ġadopt": 4440,
      "ĠLou": 4441,
      "ĠMac": 4442,
      "ĠSupp": 4443,
      "board": 4444,
      "Ġmaps": 4445,
      "Ġcontribution": 4446,
      "ĠBest": 4447,
      "Ġvan": 4448,
      "Ġtransm": 4449,
      "ĠLeg": 4450,
      "pan": 4451,
      "ĠFound": 4452,
      "92": 4453,
      "Ġsupported": 4454,
      "Ġstarting": 4455,
      "ĠÃ": 4456,
      "ĠAfrica": 4457,
      "Ġinterpret": 4458,
      "Ġwoman": 4459,
      "Ġderived": 4460,
      "ĠDan": 4461,
      "ĠSam": 4462,
      "Ġpick": 4463,
      "ĠAlex": 4464,
      "ĠIsland": 4465,
      "Ġdouble": 4466,
      "rought": 4467,
      "Ġcharacters": 4468,
      "acing": 4469,
      "ĠMag": 4470,
      "Ġfast": 4471,
      "ĠGermany": 4472,
      "ĠMr": 4473,
      "Ġwatch": 4474,
      "Ġcam": 4475,
      "Ġmeasured": 4476,
      "ĠVir": 4477,
      "osing": 4478,
      "Ġselected": 4479,
      "subfigure": 4480,
      "Ġbounded": 4481,
      "Ġchosen": 4482,
      "ĠMet": 4483,
      "maz": 4484,
      "ĠUnion": 4485,
      "Ġconsequ": 4486,
      "ĠOlymp": 4487,
      "Ġframework": 4488,
      "Ġrelationship": 4489,
      "1992": 4490,
      "Ġcos": 4491,
      "vol": 4492,
      "Ġdepart": 4493,
      "Ġasked": 4494,
      "roy": 4495,
      "ĠCong": 4496,
      "Ġapproximation": 4497,
      "Ġtree": 4498,
      "Ġmanagement": 4499,
      "key": 4500,
      "ĠPo": 4501,
      "Ġpreviously": 4502,
      "Ġslight": 4503,
      "Ġclasses": 4504,
      "Ġminimum": 4505,
      "ĠGold": 4506,
      "ĠCompany": 4507,
      "Ġmaintain": 4508,
      "reme": 4509,
      "Ġcoupling": 4510,
      "Ġreading": 4511,
      "ĠTom": 4512,
      "ĠDon": 4513,
      "limits": 4514,
      "Ġ(-": 4515,
      "ĠTrump": 4516,
      "Ġcele": 4517,
      "aur": 4518,
      "ĠSociety": 4519,
      "erved": 4520,
      "Ġprimary": 4521,
      "){\\": 4522,
      "'m": 4523,
      "Ġdate": 4524,
      "ropy": 4525,
      "Ġlayer": 4526,
      "ĠBur": 4527,
      "Ġfactors": 4528,
      "Ġcontinued": 4529,
      "olf": 4530,
      "Ġfill": 4531,
      "Ġchalleng": 4532,
      "Ġwife": 4533,
      "ĠDis": 4534,
      "Ġcontinue": 4535,
      "Ġkm": 4536,
      "vis": 4537,
      "Ġbrother": 4538,
      "Ġvertex": 4539,
      "ki": 4540,
      ")\\,": 4541,
      "ror": 4542,
      "fess": 4543,
      "ĠRoman": 4544,
      "rey": 4545,
      "Ġcomparison": 4546,
      "ĠSub": 4547,
      "Ġembedd": 4548,
      "Ġdaugh": 4549,
      "uthors": 4550,
      "gn": 4551,
      "Ġformula": 4552,
      "Ġblue": 4553,
      "Ġscreen": 4554,
      "Ġperturb": 4555,
      "Ġnetworks": 4556,
      "ĠKe": 4557,
      "Ġgenerally": 4558,
      "Ġformed": 4559,
      "Ġcollect": 4560,
      "Ġunits": 4561,
      "aran": 4562,
      "Ġperfect": 4563,
      "Ġappoint": 4564,
      "ĠMer": 4565,
      "Ġplane": 4566,
      "Ġanti": 4567,
      "Ġsituation": 4568,
      "amily": 4569,
      "fered": 4570,
      "Ġarbit": 4571,
      "Ġeight": 4572,
      "ĠRoyal": 4573,
      "{$\\": 4574,
      "$_": 4575,
      "_{{\\": 4576,
      "ĠAustralian": 4577,
      "Ġuncertaint": 4578,
      "ought": 4579,
      "Ġmicro": 4580,
      "ĠBo": 4581,
      "aligned": 4582,
      "Ġnorm": 4583,
      "ĠJer": 4584,
      "ĠTur": 4585,
      "Ġpatients": 4586,
      "colon": 4587,
      "Ġmomentum": 4588,
      "Ġhit": 4589,
      "Ġwide": 4590,
      "ĠOut": 4591,
      "Ġ_": 4592,
      "mes": 4593,
      "Ġvolume": 4594,
      "LE": 4595,
      "vention": 4596,
      "~$\\": 4597,
      "Ġdebut": 4598,
      "Ġant": 4599,
      "Ġoperations": 4600,
      "cles": 4601,
      "Ġessential": 4602,
      "Ġpark": 4603,
      "ervation": 4604,
      "ĠFin": 4605,
      "\\!\\!": 4606,
      "bon": 4607,
      "Ġpanel": 4608,
      "ollary": 4609,
      "ilarly": 4610,
      "Ġoffer": 4611,
      "Ġnothing": 4612,
      "Ġrule": 4613,
      "rivial": 4614,
      "ils": 4615,
      "Ġsubset": 4616,
      "Ġscore": 4617,
      "Ġreveal": 4618,
      "Ġvariable": 4619,
      "ĠRef": 4620,
      "ĠTex": 4621,
      "Ġforms": 4622,
      "_{-": 4623,
      "ĠAcadem": 4624,
      "Ġextended": 4625,
      "Ġofficial": 4626,
      "_*": 4627,
      "Ġmode": 4628,
      "alian": 4629,
      "Ġcoach": 4630,
      "Ġslow": 4631,
      "Ġmus": 4632,
      "Ġcast": 4633,
      "Ġspat": 4634,
      "Ġmeaning": 4635,
      "Ġforces": 4636,
      "eler": 4637,
      "ufact": 4638,
      "writ": 4639,
      "acity": 4640,
      "ibly": 4641,
      "Ġchem": 4642,
      "Ġpolar": 4643,
      "airs": 4644,
      "Ġbelong": 4645,
      "Ġincreased": 4646,
      "Ġconstit": 4647,
      "Ġdisplay": 4648,
      "SP": 4649,
      "Ġtrain": 4650,
      "Ġsubsequ": 4651,
      "Ġnumerical": 4652,
      "Ġenjoy": 4653,
      "ĠIm": 4654,
      "Ġdetermine": 4655,
      "Ġapplications": 4656,
      "89": 4657,
      "Ġsongs": 4658,
      "enge": 4659,
      "iral": 4660,
      "72": 4661,
      "Ġhighly": 4662,
      "Ġcompletely": 4663,
      "However": 4664,
      "uls": 4665,
      "ĠMad": 4666,
      "Ġcells": 4667,
      "Ġformation": 4668,
      "ĠIsra": 4669,
      "Ġstay": 4670,
      "No": 4671,
      "rial": 4672,
      "iency": 4673,
      "DF": 4674,
      "Ġgr": 4675,
      "Living": 4676,
      "Ġachieve": 4677,
      "ipl": 4678,
      "Ġreference": 4679,
      "alo": 4680,
      "Ġ\\(": 4681,
      ",\\,": 4682,
      "Ġrelig": 4683,
      "omin": 4684,
      "ĠFurther": 4685,
      "ĠOther": 4686,
      "ba": 4687,
      "Ġsomeone": 4688,
      "Ġfeed": 4689,
      "ĠRob": 4690,
      "ĠRad": 4691,
      "Ġtrac": 4692,
      "inde": 4693,
      "Ġwidth": 4694,
      "iance": 4695,
      "ĠTown": 4696,
      "Ġdro": 4697,
      "ĠGreat": 4698,
      "Me": 4699,
      "Ġaccuracy": 4700,
      "Ġprocesses": 4701,
      "ĠMiss": 4702,
      "1993": 4703,
      "cons": 4704,
      "Ġopened": 4705,
      "ĠClub": 4706,
      "ĠProposition": 4707,
      "Ġrules": 4708,
      "Ġiter": 4709,
      "obile": 4710,
      "Ġlattice": 4711,
      "Ġmovie": 4712,
      "Ġneighbor": 4713,
      "Ġexamples": 4714,
      "][": 4715,
      "place": 4716,
      "ĠNov": 4717,
      "Is": 4718,
      "shift": 4719,
      "Ġorigin": 4720,
      "Ġetc": 4721,
      "Ġconsistent": 4722,
      "SC": 4723,
      "Ġhope": 4724,
      "Ġjoined": 4725,
      "Ġscient": 4726,
      "Ġschools": 4727,
      "rees": 4728,
      "Ġminutes": 4729,
      "Ġuseful": 4730,
      "ĠMex": 4731,
      "mas": 4732,
      "uman": 4733,
      "inger": 4734,
      "Col": 4735,
      "Ġhous": 4736,
      "Ġrates": 4737,
      "ĠPlay": 4738,
      "Ġways": 4739,
      "Ġdeaths": 4740,
      "Ġreturned": 4741,
      "Ġanything": 4742,
      "ype": 4743,
      "ĠJew": 4744,
      "Ġexpon": 4745,
      "Ġsimpl": 4746,
      "Ġquestions": 4747,
      "Ġstraight": 4748,
      "Ġdefe": 4749,
      "cis": 4750,
      "Ġagreement": 4751,
      "Ġrelevant": 4752,
      "agement": 4753,
      "Ġcontrast": 4754,
      "Ġstatement": 4755,
      "Ġwanted": 4756,
      "izon": 4757,
      "ĠSal": 4758,
      "iament": 4759,
      "pers": 4760,
      "Ġexpand": 4761,
      "aper": 4762,
      "Ġproduce": 4763,
      "ĠReview": 4764,
      "Ã¶": 4765,
      "Ġoptimal": 4766,
      "UR": 4767,
      "Ġ|\\": 4768,
      "ĠBre": 4769,
      "Ġspectral": 4770,
      "Ġ}\\": 4771,
      "History": 4772,
      "Ġsimulations": 4773,
      "za": 4774,
      "ĠAnn": 4775,
      "Ġplatform": 4776,
      "Ġavoid": 4777,
      "NA": 4778,
      "91": 4779,
      "Ġshape": 4780,
      "Ġextra": 4781,
      "ĠWil": 4782,
      "Ġbeyond": 4783,
      "xy": 4784,
      "resents": 4785,
      "ducation": 4786,
      "Ġparticularly": 4787,
      "ĠScott": 4788,
      "ĠRobert": 4789,
      "ms": 4790,
      "ĠDemocr": 4791,
      "edom": 4792,
      "fficients": 4793,
      "ĠCO": 4794,
      "textsc": 4795,
      "63": 4796,
      "Ġmarried": 4797,
      "http": 4798,
      ")}(": 4799,
      "Ġinterview": 4800,
      "Ġestimated": 4801,
      "Ġradius": 4802,
      "https": 4803,
      "eks": 4804,
      "ĠPet": 4805,
      "Ġpolitic": 4806,
      "inem": 4807,
      "Ġthreat": 4808,
      "do": 4809,
      "war": 4810,
      "vest": 4811,
      "Ġmeasurements": 4812,
      "Ġrequires": 4813,
      "Ġscience": 4814,
      "endix": 4815,
      "ĠMus": 4816,
      "Ġprogress": 4817,
      "ĠHence": 4818,
      "Ġmemory": 4819,
      "Ġult": 4820,
      "gent": 4821,
      "Ġchurch": 4822,
      "Ġtrying": 4823,
      "aily": 4824,
      "**": 4825,
      "ĠFilm": 4826,
      "ĠSuper": 4827,
      "Ġidentity": 4828,
      "Ġcompleted": 4829,
      "ressed": 4830,
      "ĠMuseum": 4831,
      "ishes": 4832,
      "burg": 4833,
      "Ġcontroll": 4834,
      "Ġsymbol": 4835,
      "Ġsaf": 4836,
      "ser": 4837,
      "olit": 4838,
      "iring": 4839,
      "Ġstrategy": 4840,
      "eria": 4841,
      "IG": 4842,
      "Ġsteps": 4843,
      "unk": 4844,
      "subsubsection": 4845,
      "ructure": 4846,
      "Ġvariety": 4847,
      "Ġrecorded": 4848,
      "Ġexam": 4849,
      "ĠOb": 4850,
      "Ġbal": 4851,
      "ĠCentral": 4852,
      "ĠHen": 4853,
      "}}(\\": 4854,
      "Ġsatisfies": 4855,
      "Ġminim": 4856,
      "Ġgoes": 4857,
      "ĠDivision": 4858,
      "Ġhighest": 4859,
      "Ġculture": 4860,
      "}%": 4861,
      "iant": 4862,
      "ether": 4863,
      "Ġcause": 4864,
      "Ġfair": 4865,
      "Ġdescribe": 4866,
      "definition": 4867,
      "ĠDuring": 4868,
      "SO": 4869,
      "300": 4870,
      "Ġcore": 4871,
      "EM": 4872,
      "Ġrepresented": 4873,
      "Ġstop": 4874,
      "Ġappeared": 4875,
      "ogle": 4876,
      "lo": 4877,
      "ribute": 4878,
      "ymmet": 4879,
      "ĠSun": 4880,
      "Ġexperimental": 4881,
      "Ġresolution": 4882,
      "Ġdise": 4883,
      "ĠChristian": 4884,
      "Ġcalculated": 4885,
      "Ġdirected": 4886,
      "!!": 4887,
      "Ġmentioned": 4888,
      "Ġsignificantly": 4889,
      "ĠDel": 4890,
      "1970": 4891,
      "Ġseven": 4892,
      "Ġplaces": 4893,
      "'_": 4894,
      "Ġdual": 4895,
      "cape": 4896,
      "Ġ:=": 4897,
      "Ġepisode": 4898,
      "84": 4899,
      "Ġfriends": 4900,
      "Ġruns": 4901,
      "Ġvs": 4902,
      ")_{": 4903,
      "ĠPublic": 4904,
      "jection": 4905,
      "overy": 4906,
      "Ġapprop": 4907,
      "itable": 4908,
      "Ġcluster": 4909,
      "Ġtrade": 4910,
      "ĠHill": 4911,
      "Ġconsists": 4912,
      "va": 4913,
      "BS": 4914,
      "Ġdecay": 4915,
      "FL": 4916,
      "Ġsolid": 4917,
      "ala": 4918,
      "ĠMo": 4919,
      "ĠFore": 4920,
      "ĠAre": 4921,
      "azine": 4922,
      "Eq": 4923,
      "ĠAfrican": 4924,
      "inf": 4925,
      "ita": 4926,
      "Ġrecomm": 4927,
      ")^{\\": 4928,
      "'\\": 4929,
      "Ġcapital": 4930,
      "1991": 4931,
      "Ġmix": 4932,
      "Ġoperation": 4933,
      "ĠSystem": 4934,
      "Ġbeginning": 4935,
      "ĠThomas": 4936,
      "Ġexc": 4937,
      "itar": 4938,
      "aven": 4939,
      "62": 4940,
      "Ġleave": 4941,
      ")/": 4942,
      "Ġbul": 4943,
      "yr": 4944,
      "ollowing": 4945,
      "produ": 4946,
      "Ġrail": 4947,
      "Ġbirth": 4948,
      "body": 4949,
      "urt": 4950,
      "Ġfamilies": 4951,
      "Ġcounter": 4952,
      "ĠTexas": 4953,
      "spect": 4954,
      "ĠClass": 4955,
      "Ġcorrelation": 4956,
      "Ġability": 4957,
      "Ġconsid": 4958,
      "ĠPost": 4959,
      "rices": 4960,
      "}$-": 4961,
      "Ġbrought": 4962,
      "Ġnearly": 4963,
      "ĠSmith": 4964,
      "ĠVi": 4965,
      "Ġelectric": 4966,
      "ano": 4967,
      "haps": 4968,
      "ĠChinese": 4969,
      ".~(\\": 4970,
      "Ġrepresents": 4971,
      "Ġanim": 4972,
      "Ġflat": 4973,
      "Not": 4974,
      "Ġoppos": 4975,
      "ĠInst": 4976,
      "Ġfraction": 4977,
      "black": 4978,
      "Ġinstit": 4979,
      "Ġvertices": 4980,
      "ĠRussian": 4981,
      "forall": 4982,
      "Ġ+\\": 4983,
      "obs": 4984,
      "rish": 4985,
      "Ġkilled": 4986,
      "ĠBen": 4987,
      "Ġassumption": 4988,
      "Ġrepe": 4989,
      "Ġjournal": 4990,
      "atre": 4991,
      "Ġexistence": 4992,
      "lam": 4993,
      "IV": 4994,
      "Ġfinally": 4995,
      "Ġshowed": 4996,
      "Figure": 4997,
      "Ġsquare": 4998,
      ":\\": 4999,
      "Ġpen": 5000,
      "She": 5001,
      "Ġgovern": 5002,
      "Ġcorresponds": 5003,
      "ĠStar": 5004,
      "Ġprocedure": 5005,
      "apping": 5006,
      "\\_": 5007,
      "Ġfinancial": 5008,
      "Ġidentified": 5009,
      "Ġconnect": 5010,
      "'ve": 5011,
      "ĉĉĉ": 5012,
      "Ġeverything": 5013,
      "Ġdetection": 5014,
      "sto": 5015,
      "ĠGrand": 5016,
      "Ġplot": 5017,
      "bo": 5018,
      "Ġbeaut": 5019,
      "Ġexcept": 5020,
      "ĠMoreover": 5021,
      "Ġrap": 5022,
      "Ġdead": 5023,
      "Ġlegal": 5024,
      "61": 5025,
      "ira": 5026,
      "Ġnodes": 5027,
      "Ġmole": 5028,
      "$^{-": 5029,
      ")^{-": 5030,
      "Ġtraditional": 5031,
      "ympt": 5032,
      "Ġbasic": 5033,
      "ĠHistory": 5034,
      "km": 5035,
      "ternet": 5036,
      "uations": 5037,
      "Ġpaint": 5038,
      "irit": 5039,
      "anger": 5040,
      "Ġheavy": 5041,
      "deg": 5042,
      "Ġ&=&": 5043,
      "App": 5044,
      "Ġliterature": 5045,
      "ĠBill": 5046,
      "ado": 5047,
      "PC": 5048,
      "ensus": 5049,
      "simeq": 5050,
      "ifically": 5051,
      "ictor": 5052,
      "Ġtas": 5053,
      "Ġsigned": 5054,
      "Ġcivil": 5055,
      "ĠCommun": 5056,
      "73": 5057,
      "orpor": 5058,
      "Net": 5059,
      "type": 5060,
      "anned": 5061,
      "ĠUnder": 5062,
      "Ġplant": 5063,
      "69": 5064,
      "Ġshift": 5065,
      "DA": 5066,
      "Sim": 5067,
      "ĠInc": 5068,
      "Ġactivity": 5069,
      "onder": 5070,
      "FT": 5071,
      "ĠCa": 5072,
      "Ġconcent": 5073,
      "Ġscatter": 5074,
      "Ġworth": 5075,
      "Ġdiscussion": 5076,
      "Ġfavor": 5077,
      "owers": 5078,
      "Ġcoefficients": 5079,
      "Ġbrand": 5080,
      "Ġfarm": 5081,
      "Ġspaces": 5082,
      "Ġsoftware": 5083,
      "oma": 5084,
      "Ġincreases": 5085,
      "rient": 5086,
      "Ġgets": 5087,
      "sych": 5088,
      "tty": 5089,
      "Ġgreater": 5090,
      "ua": 5091,
      "Ġtal": 5092,
      "SU": 5093,
      "Ġcry": 5094,
      "74": 5095,
      "bi": 5096,
      "rat": 5097,
      "Ġoccup": 5098,
      "ĠWestern": 5099,
      "Ġprofile": 5100,
      "Ġfirm": 5101,
      "Ġpurch": 5102,
      "CO": 5103,
      "82": 5104,
      "reshold": 5105,
      "ĠList": 5106,
      "Ġstated": 5107,
      "mercial": 5108,
      "stant": 5109,
      "rane": 5110,
      "ĠSeries": 5111,
      "ĠCarol": 5112,
      "Ġedges": 5113,
      "Ġsaying": 5114,
      "Ġsen": 5115,
      "yp": 5116,
      "ogene": 5117,
      "Ġauthors": 5118,
      "83": 5119,
      "Ġconstraints": 5120,
      "perp": 5121,
      "$$\\": 5122,
      "Ġapproximately": 5123,
      "Ġgun": 5124,
      "ĠFlor": 5125,
      "Ġreached": 5126,
      "Ġlives": 5127,
      "Ġdecided": 5128,
      "abilities": 5129,
      "bullet": 5130,
      "ĠRock": 5131,
      "otion": 5132,
      "ih": 5133,
      "ĠSta": 5134,
      "cases": 5135,
      "ĠGames": 5136,
      "DE": 5137,
      "Ġmeeting": 5138,
      "ĠJapanese": 5139,
      "$).": 5140,
      "Ġsurpr": 5141,
      "ĠMinister": 5142,
      "hand": 5143,
      "Ġgold": 5144,
      "Ġsumm": 5145,
      "Ġremaining": 5146,
      "Ġconnection": 5147,
      "Ġensure": 5148,
      "=(": 5149,
      "ĠLu": 5150,
      "FC": 5151,
      "Ġclearly": 5152,
      "79": 5153,
      "ĠSa": 5154,
      "Ġmis": 5155,
      "ĠTor": 5156,
      "eed": 5157,
      "Ġexisting": 5158,
      "81": 5159,
      "71": 5160,
      "TV": 5161,
      "win": 5162,
      "BA": 5163,
      "ĠCarl": 5164,
      "Ġdomin": 5165,
      "Ġsn": 5166,
      "Ġpain": 5167,
      "Ġdescription": 5168,
      "Ġdepends": 5169,
      "Ġsimulation": 5170,
      "Ġcompute": 5171,
      "}^*": 5172,
      "Ġimag": 5173,
      "ilib": 5174,
      "png": 5175,
      "ĠAlso": 5176,
      "Ġapproaches": 5177,
      "Ġselection": 5178,
      "ĠLat": 5179,
      "Ġstudent": 5180,
      "Ġgiving": 5181,
      "apter": 5182,
      "ĠCath": 5183,
      "Ġinequality": 5184,
      "Ġdaughter": 5185,
      "arent": 5186,
      "inder": 5187,
      "ĠPeter": 5188,
      "Ġangle": 5189,
      "Ġselect": 5190,
      "ena": 5191,
      "ĠProgram": 5192,
      "Ġinfluence": 5193,
      "udd": 5194,
      "=-": 5195,
      "Ġcategory": 5196,
      "Ġsometimes": 5197,
      "Ġcard": 5198,
      "Ġhttp": 5199,
      "force": 5200,
      "value": 5201,
      "Ab": 5202,
      "These": 5203,
      "ulate": 5204,
      "Ġtechniques": 5205,
      "velopment": 5206,
      "zero": 5207,
      "Ġprem": 5208,
      "GB": 5209,
      "Ġmedical": 5210,
      "Ġmoving": 5211,
      "eds": 5212,
      "Ġisn": 5213,
      "Ġchanged": 5214,
      "Ġfemale": 5215,
      "1989": 5216,
      "ĠBrown": 5217,
      "Ġargument": 5218,
      "ĠCanadian": 5219,
      "ned": 5220,
      "Ġlisted": 5221,
      "unc": 5222,
      "Ġjoint": 5223,
      "reland": 5224,
      "Ġgeneration": 5225,
      "Ġreduce": 5226,
      "riz": 5227,
      "ĠProv": 5228,
      "Ġdistinct": 5229,
      "Ġintroduce": 5230,
      "empor": 5231,
      "cular": 5232,
      "ola": 5233,
      "Ġgreen": 5234,
      "ĠCamp": 5235,
      "ĠEv": 5236,
      "ancy": 5237,
      "Ġvisual": 5238,
      "Ġbank": 5239,
      "MA": 5240,
      "pmatrix": 5241,
      "ĠKingdom": 5242,
      "oting": 5243,
      "ĠÂ£": 5244,
      "Ġdistributions": 5245,
      "arr": 5246,
      "Ġdenotes": 5247,
      "Ġconduct": 5248,
      "dt": 5249,
      "Ġshot": 5250,
      "Ġstrength": 5251,
      "normal": 5252,
      "Ġaspect": 5253,
      "amental": 5254,
      "vex": 5255,
      "ĠAlthough": 5256,
      "Ġmiddle": 5257,
      "Ġimmediately": 5258,
      "ircraft": 5259,
      "itely": 5260,
      "ĠCommission": 5261,
      "Ġcru": 5262,
      "istan": 5263,
      "gu": 5264,
      "Ġeventually": 5265,
      "Ġbrief": 5266,
      "ĠTwo": 5267,
      "Ġdrug": 5268,
      "Ġsports": 5269,
      "ĠService": 5270,
      "Ġnoted": 5271,
      "Ġcurves": 5272,
      ")}{\\": 5273,
      "kin": 5274,
      "Ġmodes": 5275,
      "ĠFrancis": 5276,
      "Ġâ": 5277,
      "Ġpropag": 5278,
      "ĠVirgin": 5279,
      "ĠSecond": 5280,
      "^{+": 5281,
      "free": 5282,
      "rium": 5283,
      "ĠAcademy": 5284,
      "lig": 5285,
      "Ġcomputer": 5286,
      "={": 5287,
      "Ġdevice": 5288,
      "Ġcit": 5289,
      "ette": 5290,
      "Ġstories": 5291,
      "Ġabsol": 5292,
      "Ġturned": 5293,
      "cknow": 5294,
      "Ġmanufact": 5295,
      "CS": 5296,
      "anda": 5297,
      "su": 5298,
      "}}^": 5299,
      "Ġmur": 5300,
      "ĠPeople": 5301,
      "but": 5302,
      "ĠYour": 5303,
      "Ġunivers": 5304,
      "ellig": 5305,
      "ĠKore": 5306,
      "Ġcombination": 5307,
      "Ġharm": 5308,
      "alg": 5309,
      "ĠCD": 5310,
      "pc": 5311,
      "</": 5312,
      "Ġweeks": 5313,
      "ĠMost": 5314,
      "west": 5315,
      "Ġobvious": 5316,
      "Ġsurround": 5317,
      "arks": 5318,
      "Ġpure": 5319,
      "Ġinteractions": 5320,
      "cel": 5321,
      "ĠJose": 5322,
      "Ġeveryone": 5323,
      "Ġcollabor": 5324,
      "Ġscalar": 5325,
      "Ġactivities": 5326,
      "Ġtheore": 5327,
      "Ġpurpose": 5328,
      "IP": 5329,
      "ĠChampionship": 5330,
      "Ġframe": 5331,
      "ĠFrank": 5332,
      "hom": 5333,
      "ĠMel": 5334,
      "Ġcontributions": 5335,
      "LP": 5336,
      "__": 5337,
      "Ġquas": 5338,
      "ĠOver": 5339,
      "apers": 5340,
      "kes": 5341,
      "400": 5342,
      "ĠRichard": 5343,
      "Ġcaused": 5344,
      "Ġ=\\": 5345,
      "ĠDef": 5346,
      "iller": 5347,
      "Ġmovement": 5348,
      "Ġdependence": 5349,
      ")\\\\": 5350,
      "?âĢĿ": 5351,
      "Ġreplaced": 5352,
      "icago": 5353,
      "ĠÐ": 5354,
      "road": 5355,
      "ady": 5356,
      "main": 5357,
      "$(": 5358,
      "Ġefficient": 5359,
      "Ġstring": 5360,
      "ocol": 5361,
      "LS": 5362,
      "')": 5363,
      "Ġstream": 5364,
      "Ġstellar": 5365,
      "Ġoffers": 5366,
      "coming": 5367,
      "error": 5368,
      "ech": 5369,
      "ĠBi": 5370,
      "sol": 5371,
      "That": 5372,
      "Ġunderstanding": 5373,
      "Ġcouple": 5374,
      "ras": 5375,
      "ogue": 5376,
      "Ġcool": 5377,
      "Ġleader": 5378,
      "Ġphen": 5379,
      "Ġassess": 5380,
      "iled": 5381,
      "Ġmut": 5382,
      "rr": 5383,
      "Ġalgorithms": 5384,
      "Ġcloud": 5385,
      "Ġorb": 5386,
      "Ġpoor": 5387,
      "Ġcarry": 5388,
      "Ġeffic": 5389,
      "Ne": 5390,
      "Ġconv": 5391,
      "thlet": 5392,
      "Ġinvariant": 5393,
      "ĠRem": 5394,
      "ĠWomen": 5395,
      "venue": 5396,
      "Ġprograms": 5397,
      "real": 5398,
      "yer": 5399,
      "Ġserious": 5400,
      "house": 5401,
      "Ġprice": 5402,
      "Ġmissing": 5403,
      "RE": 5404,
      "Ġartists": 5405,
      "iverse": 5406,
      "ĠFoundation": 5407,
      "ĠHa": 5408,
      "ĠSu": 5409,
      "Ġgrand": 5410,
      "IF": 5411,
      "Ġsampl": 5412,
      "Ġspectra": 5413,
      "displaystyle": 5414,
      "Ġslightly": 5415,
      "Ġrelatively": 5416,
      "ĠGovernment": 5417,
      "ĠPlan": 5418,
      "ĠZeal": 5419,
      "Ġamb": 5420,
      "ulture": 5421,
      "omorphic": 5422,
      "ĠJournal": 5423,
      "Ġplays": 5424,
      "Ġcompl": 5425,
      "rich": 5426,
      "TS": 5427,
      "Ġfine": 5428,
      "seud": 5429,
      "Ġremain": 5430,
      "sur": 5431,
      "Ġplaced": 5432,
      "Ġonto": 5433,
      "Ġabsor": 5434,
      "Ġformal": 5435,
      "newcommand": 5436,
      "My": 5437,
      "ĠRo": 5438,
      "ĠMem": 5439,
      "})$.": 5440,
      "Ġextrem": 5441,
      "ĠCharles": 5442,
      "Ġtim": 5443,
      "Ġclassification": 5444,
      "ees": 5445,
      "1988": 5446,
      "Ġoptical": 5447,
      "Thus": 5448,
      "ĠLouis": 5449,
      "Ġ~": 5450,
      "ĠSund": 5451,
      "Ġdemand": 5452,
      "ĠDec": 5453,
      "mann": 5454,
      "Ġcosm": 5455,
      "ĠDen": 5456,
      "First": 5457,
      "ĠEarth": 5458,
      "model": 5459,
      "Ġstable": 5460,
      "ĠRel": 5461,
      "ĠAccording": 5462,
      "rons": 5463,
      "olk": 5464,
      "ĠĠĠĠĠĠĠĠĠĠĠĠĠĠĠ": 5465,
      "Ġspatial": 5466,
      "ĠZealand": 5467,
      "Ġship": 5468,
      "Ġinstrum": 5469,
      "Ġpull": 5470,
      "Ġeconomic": 5471,
      "Ġnames": 5472,
      "ĠJul": 5473,
      "Ġprevent": 5474,
      "1960": 5475,
      "stack": 5476,
      "){": 5477,
      "CH": 5478,
      "Ġanc": 5479,
      "ĠBoard": 5480,
      "Ġsingular": 5481,
      "ĠPre": 5482,
      "asure": 5483,
      "Ġring": 5484,
      "LO": 5485,
      "Ġconvers": 5486,
      "ading": 5487,
      "ĠBig": 5488,
      "ski": 5489,
      "ĠMass": 5490,
      "Ġtru": 5491,
      "osh": 5492,
      "Ġwest": 5493,
      "icks": 5494,
      "stra": 5495,
      "ession": 5496,
      ")$-": 5497,
      "cher": 5498,
      "ameter": 5499,
      "Ġlif": 5500,
      "Ġquickly": 5501,
      "ĠLife": 5502,
      "Ġregime": 5503,
      "Ġartist": 5504,
      "onald": 5505,
      "Ġcondu": 5506,
      "_-": 5507,
      "Ġpoly": 5508,
      "Ġextension": 5509,
      "Ġsummer": 5510,
      "Ġprotect": 5511,
      "ĠLake": 5512,
      "Ġeast": 5513,
      "Ġotherwise": 5514,
      "umni": 5515,
      "Ġidentify": 5516,
      "ĠPan": 5517,
      "Ġfourth": 5518,
      "Ġactions": 5519,
      "Ġmeasures": 5520,
      "Ġsecret": 5521,
      "term": 5522,
      "Ġscene": 5523,
      "Ġaccur": 5524,
      "this": 5525,
      "Ġquad": 5526,
      "Ġer": 5527,
      "While": 5528,
      "Ġcompetition": 5529,
      "Ġdoub": 5530,
      "Ġpairs": 5531,
      "iable": 5532,
      "ĠLos": 5533,
      "Ġmachine": 5534,
      "undred": 5535,
      "Ġfoot": 5536,
      "ĠBusiness": 5537,
      "Ġestimates": 5538,
      "Ġspeak": 5539,
      "Ġextract": 5540,
      "enty": 5541,
      "Ġsites": 5542,
      "'ll": 5543,
      "Ġassumed": 5544,
      "ĠOffic": 5545,
      "oura": 5546,
      "Ġtensor": 5547,
      "Ġmeasurement": 5548,
      "Ġbenef": 5549,
      "ĠCongress": 5550,
      "ĠUSA": 5551,
      "prob": 5552,
      "ernel": 5553,
      "ĠLand": 5554,
      "NR": 5555,
      "Ġbehavi": 5556,
      "matrix": 5557,
      "Ġbottom": 5558,
      "ags": 5559,
      "mapsto": 5560,
      "Ġreplace": 5561,
      "met": 5562,
      "Ġminor": 5563,
      "ĠRussia": 5564,
      "Post": 5565,
      "IA": 5566,
      "ĠDirector": 5567,
      "odot": 5568,
      "Ġgrant": 5569,
      "Ġcelebr": 5570,
      "Ġblood": 5571,
      "ĠLie": 5572,
      "hemat": 5573,
      "Ġmajority": 5574,
      "remark": 5575,
      "ustain": 5576,
      "urning": 5577,
      "ĠTop": 5578,
      "Ġsymmetric": 5579,
      "sect": 5580,
      "ION": 5581,
      "Ġcollege": 5582,
      "Ġspread": 5583,
      "Ġorganization": 5584,
      "yan": 5585,
      "Qu": 5586,
      "hem": 5587,
      "Ġseparate": 5588,
      "gcolor": 5589,
      "ĠIts": 5590,
      "omy": 5591,
      "1987": 5592,
      "composition": 5593,
      "acher": 5594,
      "Ġresources": 5595,
      "Ġcombined": 5596,
      "Ġanswer": 5597,
      "Ġleague": 5598,
      "ĠUp": 5599,
      "elli": 5600,
      "resh": 5601,
      "Ġexcit": 5602,
      "ban": 5603,
      "idden": 5604,
      "Ġhttps": 5605,
      "Ġpiece": 5606,
      "Ġcalc": 5607,
      "Ġwrong": 5608,
      "pre": 5609,
      "erc": 5610,
      "Ġthreshold": 5611,
      "Ġappropriate": 5612,
      "ĠParis": 5613,
      "CA": 5614,
      "ĠĠĠĠĊ": 5615,
      "Ġgalaxy": 5616,
      "Ġparents": 5617,
      "Ġcomputed": 5618,
      "Ġconstructed": 5619,
      "ĠEqu": 5620,
      "ologies": 5621,
      "ĠHel": 5622,
      "dx": 5623,
      "ager": 5624,
      "ĠGaussian": 5625,
      "ĠEducation": 5626,
      "\\|_{": 5627,
      "cr": 5628,
      "Ġdisk": 5629,
      "Ġarbitrary": 5630,
      "ĠTime": 5631,
      "ING": 5632,
      "ĠItalian": 5633,
      "tri": 5634,
      "Ġmatrices": 5635,
      "Ġyields": 5636,
      "amely": 5637,
      "Ġdu": 5638,
      "Hz": 5639,
      "orter": 5640,
      "ĠFlorida": 5641,
      "ĠTimes": 5642,
      "elled": 5643,
      "ĠHistor": 5644,
      "Ġproviding": 5645,
      "Ġspent": 5646,
      "aching": 5647,
      "ĠIreland": 5648,
      ")_": 5649,
      "Ste": 5650,
      "sembly": 5651,
      "neg": 5652,
      "Ġguitar": 5653,
      "Ġinner": 5654,
      "Ġprojects": 5655,
      "agraph": 5656,
      "ĠHot": 5657,
      "ĠOpen": 5658,
      "Theorem": 5659,
      "Ġtor": 5660,
      "astern": 5661,
      "ĠFace": 5662,
      "Ġodd": 5663,
      "alse": 5664,
      "Ġbranch": 5665,
      "istical": 5666,
      "ato": 5667,
      "LA": 5668,
      "Ġrequest": 5669,
      "Ġtransformation": 5670,
      "Ġearn": 5671,
      "Ġpartners": 5672,
      "Ġexpressed": 5673,
      "rot": 5674,
      "ĠKn": 5675,
      "Ġtun": 5676,
      "fully": 5677,
      "aylor": 5678,
      "Ġreflect": 5679,
      "Ġplans": 5680,
      "Ġcarried": 5681,
      "Ġcompare": 5682,
      "Ġdifferences": 5683,
      "Ġshoot": 5684,
      "$;": 5685,
      "illa": 5686,
      "}}^{": 5687,
      "ĠHamiltonian": 5688,
      "Ġindividuals": 5689,
      "ĠHy": 5690,
      "ĠCommittee": 5691,
      "Ġfix": 5692,
      "Ġvoice": 5693,
      "Ġopening": 5694,
      "ĠEach": 5695,
      "pothes": 5696,
      "Ġdigital": 5697,
      "Ġfa": 5698,
      "pton": 5699,
      "ĠRecords": 5700,
      "RA": 5701,
      "Ġasympt": 5702,
      "Ġobserve": 5703,
      "poses": 5704,
      "flict": 5705,
      "Ġcandidate": 5706,
      "Ġdetailed": 5707,
      "Ġproved": 5708,
      "room": 5709,
      "ĠAtl": 5710,
      "Ġemp": 5711,
      "ĠCam": 5712,
      "gest": 5713,
      "viation": 5714,
      "EO": 5715,
      "Ġvirt": 5716,
      "ptions": 5717,
      "Ġfounded": 5718,
      "acc": 5719,
      "igan": 5720,
      "1986": 5721,
      "bin": 5722,
      "oration": 5723,
      "Ġsector": 5724,
      "bel": 5725,
      "ĠOh": 5726,
      "Ġmorph": 5727,
      "Ġbgcolor": 5728,
      "Ġmostly": 5729,
      "ĠArts": 5730,
      "ĠAM": 5731,
      "ĠOffice": 5732,
      "Ġelected": 5733,
      "Ġmassive": 5734,
      "Ġcop": 5735,
      "Ġagent": 5736,
      "ella": 5737,
      "Ġmasses": 5738,
      "ĠGood": 5739,
      "ĠBank": 5740,
      "Ġnom": 5741,
      "Ġinform": 5742,
      "Ġfelt": 5743,
      "ctic": 5744,
      "ilibrium": 5745,
      "Ġanyone": 5746,
      "Ġparallel": 5747,
      "ĠST": 5748,
      "Ġerrors": 5749,
      "proposition": 5750,
      "Ġsch": 5751,
      "graph": 5752,
      "\\\"": 5753,
      "Ġthick": 5754,
      "Ġinternal": 5755,
      "Ġtypical": 5756,
      "itation": 5757,
      "Ġfinished": 5758,
      "Ġpretty": 5759,
      "Ġideal": 5760,
      "Ġcontaining": 5761,
      "Ġcat": 5762,
      "mc": 5763,
      "ĠSol": 5764,
      "Ġlum": 5765,
      "Further": 5766,
      "\\{\\": 5767,
      "otted": 5768,
      "1984": 5769,
      "Ġbuildings": 5770,
      "ĠSil": 5771,
      "Ġtypically": 5772,
      "Ġarchitecture": 5773,
      "Ġorient": 5774,
      "ĠVictor": 5775,
      "ĠMur": 5776,
      "ĠAngeles": 5777,
      "Ġmanifold": 5778,
      "Ġvary": 5779,
      "Ġlatest": 5780,
      "ĠFestival": 5781,
      "ude": 5782,
      "while": 5783,
      "Ġ$$": 5784,
      "abil": 5785,
      "Ġoriginally": 5786,
      "Ġhands": 5787,
      "ench": 5788,
      "Ġstatus": 5789,
      "Ġlaun": 5790,
      "Ġreson": 5791,
      "Ġcycle": 5792,
      "Ġshowing": 5793,
      "ĠProfess": 5794,
      "Ġstrongly": 5795,
      "multi": 5796,
      "Ġrapid": 5797,
      "Ġlic": 5798,
      "Ġpolynomial": 5799,
      "dim": 5800,
      "ĠSaint": 5801,
      "Ġwriter": 5802,
      "ĠJo": 5803,
      "1985": 5804,
      "Ġalone": 5805,
      "iful": 5806,
      "azz": 5807,
      "riday": 5808,
      "Ġreduction": 5809,
      "Ġtempor": 5810,
      "Ġcommand": 5811,
      "ND": 5812,
      "Ġcapacity": 5813,
      "Mod": 5814,
      "Ġdespite": 5815,
      "hbar": 5816,
      "Ġrise": 5817,
      "Ġinterested": 5818,
      "quare": 5819,
      "Ġnation": 5820,
      "HS": 5821,
      "Ġheight": 5822,
      "net": 5823,
      "ĠRail": 5824,
      "Mar": 5825,
      "comple": 5826,
      "ĠNetwork": 5827,
      "PA": 5828,
      "ĠJun": 5829,
      "hbox": 5830,
      "pol": 5831,
      "icity": 5832,
      "Ġcritic": 5833,
      "scill": 5834,
      "GC": 5835,
      "Ġsemi": 5836,
      "esh": 5837,
      "razil": 5838,
      "Ġlaws": 5839,
      "ĠMartin": 5840,
      "Ġresponsible": 5841,
      "uted": 5842,
      "Ġhorizon": 5843,
      "Ġalbums": 5844,
      "Ġast": 5845,
      "'(": 5846,
      "ĠChicago": 5847,
      "ĠLove": 5848,
      "ĠIran": 5849,
      "Ġaircraft": 5850,
      "Ġconfiguration": 5851,
      "tik": 5852,
      "Ġwasn": 5853,
      "Ġload": 5854,
      "Ġactual": 5855,
      "Ġreports": 5856,
      "$~": 5857,
      "Ġcommunication": 5858,
      "Ġbus": 5859,
      "ĠMil": 5860,
      "ga": 5861,
      "oding": 5862,
      "edia": 5863,
      "Ġple": 5864,
      "Ġexchange": 5865,
      "ĠMont": 5866,
      "Can": 5867,
      "ĠBob": 5868,
      "ĠIll": 5869,
      "Ġopportunity": 5870,
      "Ġign": 5871,
      "ĠScot": 5872,
      "Ġsafety": 5873,
      "asy": 5874,
      "'}": 5875,
      "Ġprint": 5876,
      "ĠHig": 5877,
      "atically": 5878,
      "Pr": 5879,
      "}({\\": 5880,
      "isted": 5881,
      "asion": 5882,
      "rical": 5883,
      "-$": 5884,
      "ĠPM": 5885,
      "Ġachieved": 5886,
      "Ġemail": 5887,
      "ĠTour": 5888,
      "ĠSocial": 5889,
      "Ġbeg": 5890,
      "Ġsuff": 5891,
      "Ġcoordinates": 5892,
      "ĠOl": 5893,
      "ashion": 5894,
      "Ġappointed": 5895,
      "ĠDu": 5896,
      "Ġrev": 5897,
      "Ġtrained": 5898,
      "ĠFre": 5899,
      "Ġscattering": 5900,
      "Ġreceive": 5901,
      "Ġmission": 5902,
      "rive": 5903,
      "Ġsal": 5904,
      "Ġconvergence": 5905,
      "lines": 5906,
      "Ġpositions": 5907,
      "Rec": 5908,
      "âĢĿ.": 5909,
      "ĠPri": 5910,
      "UT": 5911,
      "Film": 5912,
      "pired": 5913,
      "icated": 5914,
      "Ġdrive": 5915,
      "ĠAirport": 5916,
      "ocation": 5917,
      "etime": 5918,
      "aturday": 5919,
      "Ġgenerate": 5920,
      "PT": 5921,
      "mit": 5922,
      "ĠLy": 5923,
      "SM": 5924,
      "Ġsatisfy": 5925,
      "case": 5926,
      "Ġproport": 5927,
      "Ġquarter": 5928,
      "Ġproceed": 5929,
      ")+\\": 5930,
      "Ġvectors": 5931,
      "ipped": 5932,
      "Ġsec": 5933,
      "hab": 5934,
      "ĠEngine": 5935,
      "Ġdepth": 5936,
      "Ġcomputation": 5937,
      "stitution": 5938,
      "riage": 5939,
      "orial": 5940,
      "itors": 5941,
      "Ġrecall": 5942,
      "Ġpicture": 5943,
      "ĠCur": 5944,
      "uled": 5945,
      "Ġcentre": 5946,
      "Ġunion": 5947,
      "Ġalternative": 5948,
      "ĠWood": 5949,
      "Ġdisease": 5950,
      "ifferen": 5951,
      "Ġwood": 5952,
      "Or": 5953,
      "ĠIII": 5954,
      "Ġstru": 5955,
      "Ġconsidering": 5956,
      "inv": 5957,
      "Ġmagnitude": 5958,
      "ĠSummer": 5959,
      "Ġhydro": 5960,
      "Ġobservation": 5961,
      "Ġfundamental": 5962,
      "cript": 5963,
      "kl": 5964,
      "&=&": 5965,
      "Ġacadem": 5966,
      "}&": 5967,
      "ĠIsrael": 5968,
      "ko": 5969,
      "Ã¤": 5970,
      "mass": 5971,
      "isher": 5972,
      "Ġnuclear": 5973,
      "Ġhar": 5974,
      "Ġvote": 5975,
      "Ġroll": 5976,
      "MR": 5977,
      "weight": 5978,
      "spec": 5979,
      "ml": 5980,
      "Ġgrowing": 5981,
      "ĠSecret": 5982,
      "related": 5983,
      "Ġoscill": 5984,
      "Ġagree": 5985,
      "Cons": 5986,
      "ĠCatholic": 5987,
      "Ġsegment": 5988,
      "Ġexternal": 5989,
      "ĠFootball": 5990,
      "ĠTer": 5991,
      "Ġener": 5992,
      "poss": 5993,
      "Ġheat": 5994,
      "Ġprep": 5995,
      "ĠWind": 5996,
      "Ġtesting": 5997,
      "Ġphenomen": 5998,
      "ĠTheir": 5999,
      "Ġfreedom": 6000,
      "Ġpm": 6001,
      "Ġtrust": 6002,
      "Co": 6003,
      "Ġprediction": 6004,
      "tikz": 6005,
      "Ġfans": 6006,
      "alysis": 6007,
      "Ġgap": 6008,
      "sch": 6009,
      "Ġsociety": 6010,
      "They": 6011,
      "Ġsplit": 6012,
      "Ġreconst": 6013,
      "omic": 6014,
      "ĠPenn": 6015,
      "opic": 6016,
      "Ġbattle": 6017,
      "Ġwild": 6018,
      "ĠHaw": 6019,
      "Ġmaterials": 6020,
      "Ġminimal": 6021,
      "tz": 6022,
      "ĠBet": 6023,
      "ĠMax": 6024,
      "Ġ%": 6025,
      "Ġchampions": 6026,
      "ias": 6027,
      "Ġguaran": 6028,
      "ĠJud": 6029,
      "ĠCast": 6030,
      "Ġsea": 6031,
      "Ġcommunities": 6032,
      "Ġinterval": 6033,
      "Ġthous": 6034,
      "ĠLee": 6035,
      "ester": 6036,
      "Ġbeam": 6037,
      "Ġincorpor": 6038,
      "Ġcopy": 6039,
      "ĠLi": 6040,
      "Ġwinning": 6041,
      "Ġtasks": 6042,
      "Ġcomments": 6043,
      "Ġinduced": 6044,
      "Ġdifferential": 6045,
      "Ġbright": 6046,
      "kins": 6047,
      "Ġpassed": 6048,
      "cong": 6049,
      "ĠJim": 6050,
      "picture": 6051,
      "ĠVirginia": 6052,
      "John": 6053,
      "Supp": 6054,
      "Ġannual": 6055,
      "ĠGeorg": 6056,
      "Ġfif": 6057,
      "vere": 6058,
      "icine": 6059,
      "ĠMexico": 6060,
      "ĠForce": 6061,
      "values": 6062,
      "ĠDevelopment": 6063,
      "utch": 6064,
      "ĠGal": 6065,
      "Ġfunctional": 6066,
      "ancing": 6067,
      "ĠForm": 6068,
      "Ġtheoretical": 6069,
      "}{(": 6070,
      "cean": 6071,
      "Ġheard": 6072,
      "ĠEven": 6073,
      "Ġdevices": 6074,
      ")}}": 6075,
      "annels": 6076,
      "iling": 6077,
      "Ġstations": 6078,
      "Ġsurvey": 6079,
      "rif": 6080,
      ")}_{": 6081,
      "Ġenter": 6082,
      "itudes": 6083,
      "bed": 6084,
      "Ġutil": 6085,
      "|_{": 6086,
      "ĠSee": 6087,
      "150": 6088,
      "Ġattract": 6089,
      "1983": 6090,
      "Ġ;": 6091,
      "ĠSpanish": 6092,
      "iders": 6093,
      "Ġchance": 6094,
      "inner": 6095,
      "Ġhundred": 6096,
      "arts": 6097,
      "ĠChild": 6098,
      "Ġeffort": 6099,
      "osc": 6100,
      "ĠSpace": 6101,
      "Ġhop": 6102,
      "ĠSk": 6103,
      "mma": 6104,
      "Ġshared": 6105,
      "div": 6106,
      "Ġcalculations": 6107,
      "lections": 6108,
      "ĠFinally": 6109,
      "ears": 6110,
      "ĠCentre": 6111,
      "SA": 6112,
      "Ġusual": 6113,
      "Ġindeed": 6114,
      "ĠArab": 6115,
      "Ġtruth": 6116,
      "ĠĠĠĠĠĠĠĠĠĠ": 6117,
      ")},": 6118,
      "rank": 6119,
      "Ġindicates": 6120,
      "Ġtouch": 6121,
      "ĠOld": 6122,
      "Ġgoals": 6123,
      ")-\\": 6124,
      "})$,": 6125,
      "sis": 6126,
      "ĠSpr": 6127,
      "Ġapparent": 6128,
      "Sub": 6129,
      "Ġcook": 6130,
      "ĠAwards": 6131,
      "}}$,": 6132,
      "Ġclean": 6133,
      "oving": 6134,
      "roph": 6135,
      "ĠTHE": 6136,
      "shire": 6137,
      "ĠProject": 6138,
      "ĠSpe": 6139,
      "Ġcircle": 6140,
      "ĠShow": 6141,
      "Ġlooks": 6142,
      "Sch": 6143,
      "Ġeyes": 6144,
      "Ġrare": 6145,
      "Ġsynthe": 6146,
      "Ġcontained": 6147,
      "osis": 6148,
      "Ġconclude": 6149,
      "pat": 6150,
      "Ġcommercial": 6151,
      "ayer": 6152,
      "}{|": 6153,
      "Introduction": 6154,
      "Ġamplitude": 6155,
      "Ġhole": 6156,
      "cref": 6157,
      "ĠVer": 6158,
      "}}$.": 6159,
      "$),": 6160,
      "ipage": 6161,
      "Ġsections": 6162,
      "Fe": 6163,
      "Tr": 6164,
      "chen": 6165,
      "minipage": 6166,
      "Ġhypothes": 6167,
      "Ġinteract": 6168,
      "}$)": 6169,
      "Ġlies": 6170,
      "ĠOper": 6171,
      "Ġrespond": 6172,
      "arliament": 6173,
      "Ġindicate": 6174,
      "ogeneous": 6175,
      "Ġoil": 6176,
      "ĠItaly": 6177,
      "Ġserve": 6178,
      "ora": 6179,
      "Ġstore": 6180,
      "Ġeth": 6181,
      "ogs": 6182,
      "Ġnotation": 6183,
      "Ġclusters": 6184,
      "Ġmessage": 6185,
      "Ġefforts": 6186,
      "arden": 6187,
      "Ġmetal": 6188,
      "ĠSunday": 6189,
      "Ġforeign": 6190,
      "ĠHenry": 6191,
      "ĠTeam": 6192,
      "Ġmainly": 6193,
      "ĠGall": 6194,
      "ometric": 6195,
      "))$": 6196,
      "CP": 6197,
      "ĠHome": 6198,
      "Ġreasons": 6199,
      "Ġsort": 6200,
      "Ġunknown": 6201,
      "Ð°": 6202,
      "tag": 6203,
      "Ġbinary": 6204,
      "weet": 6205,
      "Ġresol": 6206,
      "standing": 6207,
      "Ġmorning": 6208,
      "SE": 6209,
      "Ġcalculation": 6210,
      "ĠTechnology": 6211,
      "ĠBu": 6212,
      "Ġpowerful": 6213,
      "iana": 6214,
      "ĠLong": 6215,
      "Ġideas": 6216,
      "oday": 6217,
      "Ġtourn": 6218,
      "Ġefficiency": 6219,
      "SR": 6220,
      "ĠGoogle": 6221,
      "itness": 6222,
      "Ġthermal": 6223,
      "inu": 6224,
      "ĠJac": 6225,
      "ĠAut": 6226,
      "Ġmarg": 6227,
      "Ġtrend": 6228,
      "Ġcosts": 6229,
      "Ġrecords": 6230,
      "Ġadvantage": 6231,
      "cat": 6232,
      "Ġlayers": 6233,
      "Ġstress": 6234,
      "gies": 6235,
      "Ġletter": 6236,
      "Ġworkers": 6237,
      "Ġarrang": 6238,
      "law": 6239,
      "Ġfinding": 6240,
      "Ġorth": 6241,
      "ĠTim": 6242,
      "Ġprison": 6243,
      "Ġfluct": 6244,
      "Ġtrad": 6245,
      "Ġacceler": 6246,
      "men": 6247,
      "ĠFurthermore": 6248,
      "ĠValley": 6249,
      "then": 6250,
      "Ġoccurs": 6251,
      "1982": 6252,
      "Ġappearance": 6253,
      "ĠMedia": 6254,
      "ĠSwed": 6255,
      "Ġremained": 6256,
      "Ġmaster": 6257,
      "aval": 6258,
      "ĠEnd": 6259,
      "Ġfeatured": 6260,
      "fs": 6261,
      "La": 6262,
      "avel": 6263,
      "Finally": 6264,
      "irmed": 6265,
      "ĠYoung": 6266,
      "Ġ$|\\": 6267,
      "Ġmixed": 6268,
      "eness": 6269,
      "conne": 6270,
      "ounds": 6271,
      "ĠBoth": 6272,
      "tw": 6273,
      "iro": 6274,
      "going": 6275,
      "CM": 6276,
      "ĠWal": 6277,
      "Ġforest": 6278,
      "ĠDou": 6279,
      "Ġdestroy": 6280,
      "Ġplanet": 6281,
      "Ġoption": 6282,
      "Ġgraphs": 6283,
      "Ġhousehold": 6284,
      "she": 6285,
      "fort": 6286,
      "Ġapart": 6287,
      "Ġlimits": 6288,
      "Ġreferred": 6289,
      "Ġtrial": 6290,
      "itivity": 6291,
      "cknowled": 6292,
      "Ġcov": 6293,
      "Ġrough": 6294,
      "Ð¾": 6295,
      ",\\\\": 6296,
      "roid": 6297,
      "eller": 6298,
      "Ġarrest": 6299,
      "SI": 6300,
      "phen": 6301,
      "pective": 6302,
      "idel": 6303,
      "Ġolder": 6304,
      "Man": 6305,
      "ova": 6306,
      "Ġwhom": 6307,
      "Ġchief": 6308,
      "Ġwat": 6309,
      "[(": 6310,
      "Ġbuy": 6311,
      "ĠFacebook": 6312,
      "ĠEr": 6313,
      "Ġchemical": 6314,
      ":}": 6315,
      "Ġphysics": 6316,
      "ĠData": 6317,
      "Ġscales": 6318,
      "ĠKh": 6319,
      "Ġremoved": 6320,
      "Ġimportance": 6321,
      "Ġvoc": 6322,
      "Ġoverl": 6323,
      "uty": 6324,
      "Ġgrid": 6325,
      "faces": 6326,
      ",\\,\\": 6327,
      "ĠTre": 6328,
      "DP": 6329,
      "ibr": 6330,
      "such": 6331,
      "1979": 6332,
      "Ġanalog": 6333,
      "aby": 6334,
      "Ġuncertainty": 6335,
      "Ġleaving": 6336,
      "Ġopin": 6337,
      "Ġice": 6338,
      "ĠAv": 6339,
      "CE": 6340,
      "Ġhelped": 6341,
      "awa": 6342,
      "Ġmanager": 6343,
      "Other": 6344,
      "iy": 6345,
      "Ġphil": 6346,
      "ĠPac": 6347,
      "ĠEmp": 6348,
      "Ġbill": 6349,
      "Im": 6350,
      "ĠUsing": 6351,
      "Ġdimensions": 6352,
      "According": 6353,
      "Ġrang": 6354,
      "Ġloop": 6355,
      "mosp": 6356,
      "ĠParliament": 6357,
      "je": 6358,
      "Ġspl": 6359,
      "1950": 6360,
      "Ġstrict": 6361,
      "oder": 6362,
      "two": 6363,
      "Ġsomew": 6364,
      "Ġlaunched": 6365,
      "Ġdistributed": 6366,
      "column": 6367,
      "height": 6368,
      "ĠElect": 6369,
      "Ġtechnique": 6370,
      "ergy": 6371,
      "0000": 6372,
      "~~~~": 6373,
      "iano": 6374,
      "Ġcoast": 6375,
      "Ġoptimization": 6376,
      "CT": 6377,
      "Ġbecoming": 6378,
      "RO": 6379,
      "ĠIN": 6380,
      "Ġaxis": 6381,
      "Ġexplained": 6382,
      "ifications": 6383,
      "120": 6384,
      "Therefore": 6385,
      "ĠExp": 6386,
      "ĠJones": 6387,
      "Ġnotice": 6388,
      "Ġgradient": 6389,
      "Ġdistingu": 6390,
      "Ġdegrees": 6391,
      "Per": 6392,
      "Ġbillion": 6393,
      "Ġclin": 6394,
      "ishop": 6395,
      "ican": 6396,
      "claim": 6397,
      "Ġ[\\": 6398,
      "Ġevaluation": 6399,
      "ultural": 6400,
      "Ġtend": 6401,
      "pg": 6402,
      "Cont": 6403,
      "ĠChief": 6404,
      "Ġparties": 6405,
      "ĠGame": 6406,
      "icted": 6407,
      "usband": 6408,
      "Ġsle": 6409,
      "ĠServices": 6410,
      "ĠAsia": 6411,
      ".$": 6412,
      "herent": 6413,
      "Ġended": 6414,
      "Ġkept": 6415,
      "Ġinteger": 6416,
      "Ġthank": 6417,
      "Ġresist": 6418,
      "Ġfederal": 6419,
      "iate": 6420,
      "stream": 6421,
      "ĠManagement": 6422,
      "wan": 6423,
      "ĠEconom": 6424,
      "ao": 6425,
      "Ġcancer": 6426,
      "Ġconflict": 6427,
      "ockey": 6428,
      "Ġtraject": 6429,
      "Ġ()": 6430,
      "ĠSar": 6431,
      "ima": 6432,
      "Ġrotation": 6433,
      "Ġweb": 6434,
      "odd": 6435,
      "PP": 6436,
      "Ġdisapp": 6437,
      "ension": 6438,
      "Ġsolve": 6439,
      "ogen": 6440,
      "phas": 6441,
      "Ġdust": 6442,
      "Ġedition": 6443,
      "Ġcitiz": 6444,
      "Ġran": 6445,
      "1981": 6446,
      "Ġconj": 6447,
      "utation": 6448,
      "greg": 6449,
      "ĠFriday": 6450,
      "Ġneighborhood": 6451,
      "\\;": 6452,
      "Ġcomplexity": 6453,
      "ĠLag": 6454,
      "Ġbund": 6455,
      "ĠSM": 6456,
      "Ġpartial": 6457,
      "Ġhuge": 6458,
      "uan": 6459,
      "scriptstyle": 6460,
      "Ġjoin": 6461,
      "Ġsales": 6462,
      "Ġscenario": 6463,
      "Ġknew": 6464,
      "Ġlegisl": 6465,
      "enced": 6466,
      "Ġclimate": 6467,
      "ĠBas": 6468,
      "ĠLibrary": 6469,
      "gar": 6470,
      "Ġinfinite": 6471,
      "Do": 6472,
      "Ġcoefficient": 6473,
      "Ġlearned": 6474,
      "Ġimplic": 6475,
      "ographic": 6476,
      "Ġraised": 6477,
      "inding": 6478,
      "Ġmill": 6479,
      "Ġmotiv": 6480,
      "Ġisland": 6481,
      "Ġremark": 6482,
      "adium": 6483,
      "Ġimplementation": 6484,
      "Ġsto": 6485,
      "Ġclaims": 6486,
      "atures": 6487,
      "Ġcovered": 6488,
      "Ġalumni": 6489,
      "DS": 6490,
      "Ġforced": 6491,
      "ĠAcc": 6492,
      "Ġsubt": 6493,
      "Ġdepending": 6494,
      "Ġtoward": 6495,
      "Ġkernel": 6496,
      "ĠWay": 6497,
      "Ġimproved": 6498,
      "Ġawarded": 6499,
      "ĠSaturday": 6500,
      "Ġsolar": 6501,
      "tfrac": 6502,
      "ifferent": 6503,
      "ixt": 6504,
      "unct": 6505,
      "ĠGen": 6506,
      "Ġhear": 6507,
      "Ġspirit": 6508,
      "emporary": 6509,
      "Ġsuggests": 6510,
      "ĠHor": 6511,
      "Ġchallenge": 6512,
      "Ġmusical": 6513,
      "Ġwonder": 6514,
      "ĠGre": 6515,
      "ted": 6516,
      "cccc": 6517,
      "ipment": 6518,
      "Ġwhereas": 6519,
      "amm": 6520,
      "example": 6521,
      "Ġexponential": 6522,
      "Ġtried": 6523,
      "ĠIslam": 6524,
      "]}": 6525,
      "Ġroute": 6526,
      "1000": 6527,
      "Ġtools": 6528,
      "ĠOlympics": 6529,
      "Ġinnov": 6530,
      "chang": 6531,
      "Ġprinciple": 6532,
      "Ġshock": 6533,
      "grad": 6534,
      "Ġdiscrete": 6535,
      "ĠJohnson": 6536,
      "phant": 6537,
      "ĠCr": 6538,
      "Ġrobust": 6539,
      "Ġregist": 6540,
      "vin": 6541,
      "Ġperhaps": 6542,
      "bury": 6543,
      "ifts": 6544,
      "FA": 6545,
      "data": 6546,
      "udget": 6547,
      "Ġscaling": 6548,
      "ifies": 6549,
      "Ġtechnical": 6550,
      "Ġchannels": 6551,
      "Ġoffered": 6552,
      "Ġ\\&": 6553,
      "ĠLiber": 6554,
      "$:": 6555,
      "ĠJoseph": 6556,
      "ĠStat": 6557,
      "ĠBrazil": 6558,
      "Ġturns": 6559,
      "ĠCarolina": 6560,
      "Ġacts": 6561,
      "iced": 6562,
      "Ġsenior": 6563,
      "gers": 6564,
      "ja": 6565,
      "aser": 6566,
      "Ġstatistics": 6567,
      "ĠBecause": 6568,
      "Ġinitially": 6569,
      "Ġpropos": 6570,
      "ĠMen": 6571,
      "Ġevol": 6572,
      "aver": 6573,
      "ĠPhys": 6574,
      "Ġelim": 6575,
      "Ġfamous": 6576,
      "Ġangular": 6577,
      "Ġpartition": 6578,
      "ĠSand": 6579,
      "ĠCross": 6580,
      "Ġion": 6581,
      "ati": 6582,
      "ĠTaylor": 6583,
      "Ġdriving": 6584,
      "ĠEp": 6585,
      "ĠBal": 6586,
      "ĠIma": 6587,
      "Ġbasket": 6588,
      "Ġlab": 6589,
      "cho": 6590,
      "orage": 6591,
      "Ġrevealed": 6592,
      "Ġtraffic": 6593,
      "flow": 6594,
      "${\\": 6595,
      "Ġpseud": 6596,
      "EL": 6597,
      "]$.": 6598,
      "Ġorbit": 6599,
      "Ġbroadcast": 6600,
      "onday": 6601,
      "=#": 6602,
      "Ġregarding": 6603,
      "ĠLin": 6604,
      "FR": 6605,
      "ighter": 6606,
      "'d": 6607,
      "td": 6608,
      "name": 6609,
      "Ġpil": 6610,
      "Ġsun": 6611,
      "ĠWall": 6612,
      "Ġdatasets": 6613,
      "Ġmunic": 6614,
      "Ġvehicle": 6615,
      "ĠBra": 6616,
      "Ġsubgroup": 6617,
      "iated": 6618,
      "inations": 6619,
      "blue": 6620,
      "Ġattacks": 6621,
      "Ġpoll": 6622,
      "Ġadding": 6623,
      "Ġcycl": 6624,
      "Ġnumerous": 6625,
      "[-": 6626,
      "ĠHead": 6627,
      ",{\\": 6628,
      "Ġlaunch": 6629,
      "ĠÎ": 6630,
      "ĠIrish": 6631,
      "Ġsatisfying": 6632,
      "clusions": 6633,
      "1978": 6634,
      "Ġsinger": 6635,
      "ji": 6636,
      "ĠDesign": 6637,
      "List": 6638,
      "ronic": 6639,
      "Ġleaves": 6640,
      "Ġpolic": 6641,
      "Ġallowing": 6642,
      "Ġconvex": 6643,
      "Ġsuggested": 6644,
      "Ġking": 6645,
      "Ġdecomposition": 6646,
      "^*$": 6647,
      "Ġwants": 6648,
      "1976": 6649,
      "Ġ${": 6650,
      "inet": 6651,
      "Ġexplore": 6652,
      "Ġinvestigation": 6653,
      "soft": 6654,
      "gener": 6655,
      "Ġofficer": 6656,
      "Using": 6657,
      "Ġentry": 6658,
      "onical": 6659,
      "ĠEvery": 6660,
      "Ġreb": 6661,
      "%)": 6662,
      "ĠAG": 6663,
      "ĠColl": 6664,
      "State": 6665,
      "ingly": 6666,
      "IL": 6667,
      "eless": 6668,
      "ĠGr": 6669,
      "Ġdivision": 6670,
      "ĠCommunity": 6671,
      "Ã¨": 6672,
      "Ġpaid": 6673,
      "Ġscored": 6674,
      "Ġspot": 6675,
      "Ġdenoted": 6676,
      "odies": 6677,
      "Ġfailed": 6678,
      "low": 6679,
      "miss": 6680,
      "}\\,\\": 6681,
      "ĠDown": 6682,
      "ĠLine": 6683,
      "span": 6684,
      "mond": 6685,
      "Ġincome": 6686,
      "test": 6687,
      "ĠMiddle": 6688,
      "Ġabund": 6689,
      "requ": 6690,
      "Ġentropy": 6691,
      "Ed": 6692,
      "Ġalle": 6693,
      "eries": 6694,
      "uilding": 6695,
      "Ġhistorical": 6696,
      "ĠâĢ¢": 6697,
      "Ġpredicted": 6698,
      "Ġfile": 6699,
      "isely": 6700,
      "Ġvariation": 6701,
      "Ġfootballers": 6702,
      "$_{": 6703,
      "system": 6704,
      "ĠDet": 6705,
      "ĠLord": 6706,
      "otal": 6707,
      "elligence": 6708,
      "ĠEnter": 6709,
      "Ġhappen": 6710,
      "ĠWeek": 6711,
      "Trans": 6712,
      "uting": 6713,
      "acter": 6714,
      "Ġdiscovered": 6715,
      "Ġarc": 6716,
      "Ġintegration": 6717,
      "Ġeditor": 6718,
      "Ġcontinues": 6719,
      "Ġactor": 6720,
      "AG": 6721,
      "1975": 6722,
      "check": 6723,
      "ĠHuman": 6724,
      "Ġconven": 6725,
      "scriptsize": 6726,
      "|}": 6727,
      "Ġwindow": 6728,
      "imb": 6729,
      "ĠCare": 6730,
      "Ġweap": 6731,
      "tan": 6732,
      "Ġwriters": 6733,
      "ĠPower": 6734,
      "ĠRam": 6735,
      "Ġconducted": 6736,
      "Ġfilter": 6737,
      "Ġready": 6738,
      "hol": 6739,
      "oviet": 6740,
      "urban": 6741,
      "âĢĿ,": 6742,
      "Ġreality": 6743,
      "Ġluminos": 6744,
      "Ġarticles": 6745,
      "ĠFree": 6746,
      "Ġcm": 6747,
      "ĠInformation": 6748,
      "Ġlived": 6749,
      "Ġens": 6750,
      "Ġhusband": 6751,
      "Ġcreating": 6752,
      "ĠNorthern": 6753,
      "Ġhospital": 6754,
      ")--": 6755,
      "ĠCy": 6756,
      "path": 6757,
      "Ġcomplic": 6758,
      "floor": 6759,
      "ĠBow": 6760,
      "âĢĺ": 6761,
      "Ġmountain": 6762,
      "Ġcharacteristic": 6763,
      "Ġboy": 6764,
      "Ġlooked": 6765,
      "Ġtrees": 6766,
      "izer": 6767,
      "Ġexcell": 6768,
      "forward": 6769,
      "Ġstarts": 6770,
      "Ġbra": 6771,
      "Ġaccurate": 6772,
      "ĠLab": 6773,
      "1974": 6774,
      "ĠWater": 6775,
      "Ġrelax": 6776,
      "tail": 6777,
      "Ġordered": 6778,
      "brace": 6779,
      "Ġdelay": 6780,
      "aka": 6781,
      "Ġmedium": 6782,
      "1972": 6783,
      "ĠMany": 6784,
      "Ġreligious": 6785,
      "Ġstability": 6786,
      "Ġgeometry": 6787,
      "Ġadopted": 6788,
      "ĠTri": 6789,
      "Ġdiss": 6790,
      "Ġorders": 6791,
      "Ġvictim": 6792,
      "Ġriver": 6793,
      "dfrac": 6794,
      "Ġnine": 6795,
      "bigl": 6796,
      "\\}$.": 6797,
      "ĠWales": 6798,
      "Ġenh": 6799,
      "Ġplanning": 6800,
      ",$": 6801,
      "Ġplus": 6802,
      "iative": 6803,
      "Ġsustain": 6804,
      "Ġstatistical": 6805,
      "Ġpix": 6806,
      "Ġpsych": 6807,
      "))\\": 6808,
      "DM": 6809,
      "Ġmatches": 6810,
      "oston": 6811,
      "ĠCre": 6812,
      "1977": 6813,
      "Ġcharged": 6814,
      "]{\\": 6815,
      "Ġrepresentations": 6816,
      "clusive": 6817,
      "Ġcomposition": 6818,
      "gypt": 6819,
      "LC": 6820,
      "ĠOrder": 6821,
      "Ġprocessing": 6822,
      "diag": 6823,
      "Ġbounds": 6824,
      "|}{": 6825,
      "ĠStand": 6826,
      "Ġplease": 6827,
      "Ġradiation": 6828,
      "ultane": 6829,
      "cd": 6830,
      "Ġsym": 6831,
      "Ġcoordinate": 6832,
      "Ġstudio": 6833,
      "des": 6834,
      "eff": 6835,
      "Ġferm": 6836,
      "ĠEll": 6837,
      "water": 6838,
      "Ġphone": 6839,
      "Äģ": 6840,
      "Ġnor": 6841,
      "Ġprojection": 6842,
      "ĠAtt": 6843,
      "Ġisol": 6844,
      "]$,": 6845,
      "Ġremember": 6846,
      "Ġcities": 6847,
      "Ġdoor": 6848,
      "Ġcalculate": 6849,
      ":=": 6850,
      "Ġhappened": 6851,
      "ĠUk": 6852,
      "uries": 6853,
      "ĠSpecial": 6854,
      "run": 6855,
      "ĠDisc": 6856,
      "Ġacting": 6857,
      "Some": 6858,
      "Ġblog": 6859,
      "Ass": 6860,
      "osoph": 6861,
      "Ġ&&": 6862,
      "Ġlemma": 6863,
      "ye": 6864,
      "Ð¸": 6865,
      "ĠConference": 6866,
      "ĠPak": 6867,
      "sen": 6868,
      "jo": 6869,
      "Ġpoet": 6870,
      "ĠModel": 6871,
      "itage": 6872,
      "Ġnamely": 6873,
      "Ġconfirmed": 6874,
      "ersonal": 6875,
      "Ġmanner": 6876,
      "syl": 6877,
      "aming": 6878,
      "bigr": 6879,
      "ĠPolicy": 6880,
      "ĠâĢ¦": 6881,
      "ĠRet": 6882,
      "Ġpurs": 6883,
      "Ġmultiplic": 6884,
      "Ġrequirements": 6885,
      "alls": 6886,
      "\\)": 6887,
      "amin": 6888,
      "Ġbehaviour": 6889,
      "ĠSports": 6890,
      "Ġsides": 6891,
      "igation": 6892,
      "ansas": 6893,
      "Ġorganizations": 6894,
      "CR": 6895,
      "ĠNight": 6896,
      "ĠChristmas": 6897,
      "Ġmobile": 6898,
      "OL": 6899,
      "Ġbos": 6900,
      "ĠMu": 6901,
      "Ġsummar": 6902,
      "Ġequilibrium": 6903,
      "oz": 6904,
      "ĠDev": 6905,
      "oses": 6906,
      "Ġdetected": 6907,
      "}}_{\\": 6908,
      "Ġweights": 6909,
      "Ġcultural": 6910,
      "Ġpp": 6911,
      "icon": 6912,
      "Ġoperating": 6913,
      "ĠColumb": 6914,
      "During": 6915,
      "Ġmiles": 6916,
      "Ġdimensional": 6917,
      "host": 6918,
      "abeth": 6919,
      "Ġgravit": 6920,
      "Ġpeace": 6921,
      "Ġcoinc": 6922,
      "ĠSpain": 6923,
      "Ġid": 6924,
      "Ġemphas": 6925,
      "hu": 6926,
      "Ġatmosp": 6927,
      "eld": 6928,
      "Ġprefer": 6929,
      "vania": 6930,
      "Ġ\\!": 6931,
      "har": 6932,
      "verted": 6933,
      "lesssim": 6934,
      "mathop": 6935,
      "ĠCharl": 6936,
      "disc": 6937,
      "Ġbands": 6938,
      "anche": 6939,
      "{{": 6940,
      "ĠMcC": 6941,
      "Ġcrow": 6942,
      "print": 6943,
      "Ġevaluate": 6944,
      "oren": 6945,
      "Ġcond": 6946,
      "ĠĠĠĠĠĠĠĠĠĠĠĠ": 6947,
      "OP": 6948,
      "bmatrix": 6949,
      "Ġdescribes": 6950,
      "Ġcandidates": 6951,
      "tained": 6952,
      "Ġdrop": 6953,
      "Ġdaily": 6954,
      "ĠWell": 6955,
      "ĠBlue": 6956,
      "Ġviews": 6957,
      "Ġcustomers": 6958,
      "Ġque": 6959,
      "Ġroot": 6960,
      "ibli": 6961,
      "ĠUs": 6962,
      "Ġbeat": 6963,
      "Ġcorpor": 6964,
      "bal": 6965,
      "ught": 6966,
      "Ġtracks": 6967,
      "local": 6968,
      "itative": 6969,
      "ĠBritain": 6970,
      "ĠWilliams": 6971,
      "NS": 6972,
      "rance": 6973,
      "igration": 6974,
      "Ġnewsp": 6975,
      "bas": 6976,
      "1973": 6977,
      "Ġsufficiently": 6978,
      "Ġfle": 6979,
      "Ġinvestigate": 6980,
      "Ġfloor": 6981,
      "Ġmedal": 6982,
      "Ġconsequence": 6983,
      "Ġneutr": 6984,
      "achel": 6985,
      "Ġdream": 6986,
      "ĠTwitter": 6987,
      "Ġdamage": 6988,
      "Ġmodified": 6989,
      "Ġextremely": 6990,
      "life": 6991,
      "Ġowners": 6992,
      "Ġadjust": 6993,
      "Ġcamera": 6994,
      "ĠRadio": 6995,
      "\")": 6996,
      "ilbert": 6997,
      "Ġconference": 6998,
      "Am": 6999,
      "Ġlie": 7000,
      "Ġunf": 7001,
      "Ġclaimed": 7002,
      "brid": 7003,
      "ruit": 7004,
      "ĠAssum": 7005,
      "Ġobjective": 7006,
      "Ġlocally": 7007,
      "oral": 7008,
      "airman": 7009,
      "ĠFamily": 7010,
      "Ġpossibility": 7011,
      "cf": 7012,
      "ĠIR": 7013,
      "anguages": 7014,
      "Ġlocations": 7015,
      "Ġur": 7016,
      "ĠField": 7017,
      "Ġpredictions": 7018,
      "Ġtournament": 7019,
      "1968": 7020,
      "abase": 7021,
      "][]{": 7022,
      "ifier": 7023,
      "ĠPhilipp": 7024,
      "Ðµ": 7025,
      "SL": 7026,
      "ribe": 7027,
      "ĠCard": 7028,
      "Ġitems": 7029,
      "Ġtail": 7030,
      "ila": 7031,
      "Ġadvert": 7032,
      "ups": 7033,
      "Ġfeet": 7034,
      "Ġupdate": 7035,
      "Ġagents": 7036,
      "ĠSec": 7037,
      "}}}\\": 7038,
      "ĠMicro": 7039,
      "Ġflight": 7040,
      "}[\\": 7041,
      "Ġbin": 7042,
      "Ġisomorphism": 7043,
      "Ġnarrow": 7044,
      "ĠJeff": 7045,
      "Ġpossibly": 7046,
      "ĠWed": 7047,
      "ĠBern": 7048,
      "Ġjump": 7049,
      "Ġrestaur": 7050,
      "people": 7051,
      "Ġextend": 7052,
      "Ġincident": 7053,
      "ĠSuch": 7054,
      "ĠNavy": 7055,
      "Ġwidely": 7056,
      "actic": 7057,
      "Next": 7058,
      "Ġtheories": 7059,
      "ervative": 7060,
      "isters": 7061,
      "ĠMike": 7062,
      "ela": 7063,
      "uing": 7064,
      "ograp": 7065,
      "Med": 7066,
      "joint": 7067,
      "ĠVan": 7068,
      "Ġfan": 7069,
      "Ġearth": 7070,
      "ĠFort": 7071,
      "ĠWho": 7072,
      "Ġwarm": 7073,
      "dy": 7074,
      "Ġbasketball": 7075,
      "Ġrich": 7076,
      "Ġbias": 7077,
      "ampion": 7078,
      "ucky": 7079,
      "Cor": 7080,
      "Ġrecommend": 7081,
      "Ġestimation": 7082,
      "ĠStr": 7083,
      "Ġ\\]": 7084,
      "jective": 7085,
      "Ġbeautiful": 7086,
      "ĠCle": 7087,
      "length": 7088,
      "Reg": 7089,
      "Ġmeant": 7090,
      "Ġunderlying": 7091,
      "ĠPolice": 7092,
      "supp": 7093,
      "ideos": 7094,
      "ĠAnt": 7095,
      "xx": 7096,
      "Ġsouthern": 7097,
      "Ġbenefit": 7098,
      "Ġneural": 7099,
      "ĠFred": 7100,
      "ĠGovern": 7101,
      "ef": 7102,
      "Rep": 7103,
      "Ġapplying": 7104,
      "ictures": 7105,
      "het": 7106,
      "ĠAndrew": 7107,
      "called": 7108,
      "Ġdynamic": 7109,
      "Section": 7110,
      "Ġaudience": 7111,
      "Ġcold": 7112,
      "ulf": 7113,
      "ursday": 7114,
      "Ġsuitable": 7115,
      "vature": 7116,
      "}})": 7117,
      "Ġcommission": 7118,
      "==": 7119,
      "riminal": 7120,
      "algorithm": 7121,
      "mn": 7122,
      "Ġfocused": 7123,
      "Ġpet": 7124,
      "ĠJon": 7125,
      "zer": 7126,
      "ĠHon": 7127,
      "ĠWild": 7128,
      "ĠKen": 7129,
      "yset": 7130,
      "Ġpages": 7131,
      "ĠDemocratic": 7132,
      "ensities": 7133,
      "ĠSouthern": 7134,
      "estic": 7135,
      "Ġequipment": 7136,
      "Ġinvolving": 7137,
      "Ġmanaged": 7138,
      "Ġprime": 7139,
      "ĠCorpor": 7140,
      "Ġchanging": 7141,
      "ava": 7142,
      "Ġterrit": 7143,
      "Ġintersection": 7144,
      "usal": 7145,
      "pected": 7146,
      "file": 7147,
      "ĠBor": 7148,
      "ĠScotland": 7149,
      "PU": 7150,
      "110": 7151,
      "Ġthr": 7152,
      "ĠMot": 7153,
      "Ġthinking": 7154,
      "vee": 7155,
      "aa": 7156,
      "ĠSenate": 7157,
      "Ġnorthern": 7158,
      "Ġfigures": 7159,
      "rison": 7160,
      "Ġsubstant": 7161,
      "Ġtests": 7162,
      "Ġcars": 7163,
      "Ġinverse": 7164,
      "ĠFrancisco": 7165,
      "iota": 7166,
      "Ġskills": 7167,
      "longrightarrow": 7168,
      "Ġvertical": 7169,
      "indu": 7170,
      "Ġaffected": 7171,
      "stone": 7172,
      "Set": 7173,
      "ĠIndeed": 7174,
      "ulty": 7175,
      "Ġpowers": 7176,
      "Ġsexual": 7177,
      "$&": 7178,
      "ĠRa": 7179,
      "Ġspeech": 7180,
      "Ġpatterns": 7181,
      "sky": 7182,
      "ĠFund": 7183,
      "Ġcalls": 7184,
      "Ġvictory": 7185,
      "zen": 7186,
      "Ġmodul": 7187,
      "iveness": 7188,
      "uer": 7189,
      "ĠTest": 7190,
      "ĠJoe": 7191,
      "emptyset": 7192,
      "ĠAppendix": 7193,
      "Ġopposite": 7194,
      "May": 7195,
      "Ã³n": 7196,
      "ĠSir": 7197,
      "aturing": 7198,
      "ĠCivil": 7199,
      "gency": 7200,
      "Ġdanger": 7201,
      "ĠJewish": 7202,
      "paragraph": 7203,
      "Ġbrain": 7204,
      "Ġahead": 7205,
      "ĠCamb": 7206,
      "Ġlands": 7207,
      "Rel": 7208,
      "ĠTheatre": 7209,
      "uesday": 7210,
      "car": 7211,
      "Ġdedicated": 7212,
      "Ġenergies": 7213,
      "Ġofficials": 7214,
      "Ġcrew": 7215,
      "1969": 7216,
      "Ġredshift": 7217,
      "1971": 7218,
      "Ġreaction": 7219,
      "oir": 7220,
      "Ġquark": 7221,
      "sat": 7222,
      "})=": 7223,
      "Ġmodule": 7224,
      "Ġsafe": 7225,
      "ennis": 7226,
      "ourney": 7227,
      "Ġconfirm": 7228,
      "arse": 7229,
      "Ġmagazine": 7230,
      "uum": 7231,
      "enth": 7232,
      "ali": 7233,
      "Ġkids": 7234,
      "Ø§": 7235,
      "burgh": 7236,
      "flu": 7237,
      "iem": 7238,
      "Ġattend": 7239,
      "Ġsampling": 7240,
      "Ġfalse": 7241,
      "tiny": 7242,
      "Ġseat": 7243,
      "ĠMedical": 7244,
      "irds": 7245,
      "Ġassumptions": 7246,
      "ĠLim": 7247,
      "cut": 7248,
      "Ġencoura": 7249,
      "Ġdispers": 7250,
      "Ġstreet": 7251,
      "Ġcertainly": 7252,
      "post": 7253,
      "ĠOF": 7254,
      "$};": 7255,
      "Ġbond": 7256,
      "rative": 7257,
      "ĠBa": 7258,
      "VD": 7259,
      "Ġhour": 7260,
      "+(": 7261,
      "})}": 7262,
      "Ġdepartment": 7263,
      "etal": 7264,
      "Ġowned": 7265,
      "Ġeconomy": 7266,
      "ĠChris": 7267,
      "Def": 7268,
      "stable": 7269,
      "ele": 7270,
      "unte": 7271,
      "Ġuniversity": 7272,
      "Ġresidents": 7273,
      "list": 7274,
      "ricket": 7275,
      "how": 7276,
      "ĠPrem": 7277,
      "ĠMountain": 7278,
      "Ġfinds": 7279,
      "rics": 7280,
      "El": 7281,
      "Ġpolitician": 7282,
      "Right": 7283,
      "Ġcollected": 7284,
      "Ġcontrad": 7285,
      "Early": 7286,
      "sets": 7287,
      "idae": 7288,
      "Ġdiver": 7289,
      "Ġoptions": 7290,
      "ilation": 7291,
      "ugby": 7292,
      "Art": 7293,
      "Ġresearc": 7294,
      "Ġ(\"": 7295,
      "Ġprecisely": 7296,
      "ML": 7297,
      "Ġexception": 7298,
      "algebra": 7299,
      "ĠPacific": 7300,
      "ader": 7301,
      "Ġnearby": 7302,
      "OC": 7303,
      "Des": 7304,
      "Ġphoto": 7305,
      "Ġdrama": 7306,
      "ĠJersey": 7307,
      "Ġ$.": 7308,
      "overs": 7309,
      "Ġattended": 7310,
      "ĠPriv": 7311,
      "inking": 7312,
      "Ġseasons": 7313,
      "ĠWilson": 7314,
      "nesday": 7315,
      "Ġactress": 7316,
      "Ġdig": 7317,
      "Ġpush": 7318,
      "ĠMid": 7319,
      "ĠSong": 7320,
      "ptic": 7321,
      "sylvania": 7322,
      "Ġcomputing": 7323,
      "^{*": 7324,
      "Ġdesired": 7325,
      "Ġbelieved": 7326,
      "Ġtow": 7327,
      "athan": 7328,
      "Ġcommit": 7329,
      "Ġblocks": 7330,
      "ĠVis": 7331,
      "Ġcomposed": 7332,
      "resp": 7333,
      "Pre": 7334,
      "ĠAP": 7335,
      "Ġcoverage": 7336,
      "Ġhero": 7337,
      "ifer": 7338,
      "Ġtick": 7339,
      "ourier": 7340,
      "Ġeye": 7341,
      "ĠEmpire": 7342,
      "ĠRay": 7343,
      "Ġlabor": 7344,
      "rapy": 7345,
      "bot": 7346,
      "Ġexpert": 7347,
      "Ġtemperatures": 7348,
      "agnetic": 7349,
      "Ġ^": 7350,
      "ĠUN": 7351,
      "Ġcapture": 7352,
      "ĠQueen": 7353,
      "Ġwish": 7354,
      "Ġdiagonal": 7355,
      "MP": 7356,
      "Ġthanks": 7357,
      "Ġsecondary": 7358,
      "town": 7359,
      "}}.": 7360,
      "epend": 7361,
      "igned": 7362,
      "Ġdivided": 7363,
      "bro": 7364,
      "Ġspecifically": 7365,
      "mediate": 7366,
      "othing": 7367,
      "Ġmaximal": 7368,
      "hang": 7369,
      "Ġexplo": 7370,
      "ochastic": 7371,
      "comes": 7372,
      "ĠMonday": 7373,
      "ĠBol": 7374,
      "only": 7375,
      "SD": 7376,
      "forms": 7377,
      "ĠJes": 7378,
      "Ġfashion": 7379,
      "ĠTem": 7380,
      "Ġtells": 7381,
      "Ġprotocol": 7382,
      "illing": 7383,
      "Ġends": 7384,
      "ĠNY": 7385,
      "Ġ\\(\\": 7386,
      "Ġexplicitly": 7387,
      "after": 7388,
      "oom": 7389,
      "Don": 7390,
      "ione": 7391,
      "bras": 7392,
      "gr": 7393,
      "Ġ]": 7394,
      "ynamic": 7395,
      "Ġcharges": 7396,
      "adel": 7397,
      "Par": 7398,
      "ATE": 7399,
      "ĠAbout": 7400,
      "iner": 7401,
      "Ġ$,": 7402,
      "Ġconvent": 7403,
      "Ġsequences": 7404,
      "Gu": 7405,
      "Ġsister": 7406,
      "Ġrecording": 7407,
      "Ġperforming": 7408,
      "Ġcrime": 7409,
      "ains": 7410,
      "CL": 7411,
      "Ġhappens": 7412,
      "Ġofficers": 7413,
      "Ġmapping": 7414,
      "UN": 7415,
      "coh": 7416,
      "Ġarmy": 7417,
      "rosc": 7418,
      "Ġsave": 7419,
      "Ġchallenges": 7420,
      "Ġfailure": 7421,
      "})^": 7422,
      "Sm": 7423,
      "1967": 7424,
      "Ġsmart": 7425,
      "Ġderivative": 7426,
      "results": 7427,
      "Part": 7428,
      "hens": 7429,
      "Over": 7430,
      "ĠAnother": 7431,
      "ĠMuslim": 7432,
      "onto": 7433,
      "Ġreviews": 7434,
      "ĠJackson": 7435,
      "Ġreprodu": 7436,
      "ĠBul": 7437,
      "Ġpartner": 7438,
      "ĠCoast": 7439,
      "dependent": 7440,
      "Ġborder": 7441,
      ";\\;\\": 7442,
      "ĠGreek": 7443,
      "ussion": 7444,
      "Ġmarked": 7445,
      "Ġfaith": 7446,
      "Ġembedding": 7447,
      "ĠUl": 7448,
      "izabeth": 7449,
      "ĠMajor": 7450,
      "BI": 7451,
      "enger": 7452,
      "Ġdie": 7453,
      "}}^{\\": 7454,
      "Ġtot": 7455,
      "Ġaspects": 7456,
      "Ġfresh": 7457,
      "Ġsched": 7458,
      "Ġassigned": 7459,
      "raq": 7460,
      "ĠGeorgia": 7461,
      "ĠMount": 7462,
      "phone": 7463,
      "Ġpolicies": 7464,
      "Ġadministration": 7465,
      "risis": 7466,
      "Ġsport": 7467,
      "Ġtreated": 7468,
      "Ġtrig": 7469,
      "inson": 7470,
      "Ġbenefits": 7471,
      "renew": 7472,
      "ĠLittle": 7473,
      "âĢ¢": 7474,
      "Ġprotection": 7475,
      "ĠAR": 7476,
      "Ġintensity": 7477,
      "ĠGirl": 7478,
      "Ġmoments": 7479,
      "fi": 7480,
      "ĠEgypt": 7481,
      "Ġentered": 7482,
      "ĠBell": 7483,
      "Ġsend": 7484,
      "Ġdefense": 7485,
      "ented": 7486,
      "ĠBack": 7487,
      "Ġpromin": 7488,
      "rect": 7489,
      "ĠWat": 7490,
      "hl": 7491,
      "1940": 7492,
      "possible": 7493,
      "ori": 7494,
      "ĠJr": 7495,
      "Ġintended": 7496,
      "trivial": 7497,
      "Ġabsolute": 7498,
      "elihood": 7499,
      "irect": 7500,
      "Ġsimultane": 7501,
      "ĠGlobal": 7502,
      "Ġbed": 7503,
      "pendence": 7504,
      "erry": 7505,
      "integ": 7506,
      "250": 7507,
      "}~": 7508,
      "aug": 7509,
      "ĠMichigan": 7510,
      "Ġproducer": 7511,
      "break": 7512,
      "Ġglass": 7513,
      "English": 7514,
      "ĠLight": 7515,
      "GL": 7516,
      "ĠFar": 7517,
      "ĠJustice": 7518,
      "illy": 7519,
      "ĠOx": 7520,
      "Ġhappy": 7521,
      "emic": 7522,
      "Ġsignals": 7523,
      "Ġcomputational": 7524,
      "ĠDaniel": 7525,
      "Ġenvironmental": 7526,
      "Ġphoton": 7527,
      "Ġtrivial": 7528,
      "Ġfunding": 7529,
      "oles": 7530,
      "Ġdial": 7531,
      "Ġquadr": 7532,
      "ĠInf": 7533,
      "Ġelectronic": 7534,
      "Ġtwice": 7535,
      "Ġdiagn": 7536,
      "Ġcreation": 7537,
      "Ġentertain": 7538,
      "ropic": 7539,
      "Ġleadership": 7540,
      "Ġrig": 7541,
      "inton": 7542,
      "ĠWin": 7543,
      "imately": 7544,
      "idents": 7545,
      "ads": 7546,
      "Ġwel": 7547,
      "gebras": 7548,
      "MM": 7549,
      "Ġpropose": 7550,
      "antly": 7551,
      "Ġgravity": 7552,
      "gal": 7553,
      "iger": 7554,
      "Ġconfidence": 7555,
      ")}_": 7556,
      "ĠAsian": 7557,
      "ortunately": 7558,
      "Ġcategories": 7559,
      "Ġliber": 7560,
      "erves": 7561,
      "}_{-": 7562,
      "Ġcircum": 7563,
      "Although": 7564,
      "Ġdrum": 7565,
      "Ġpatient": 7566,
      "ĠMas": 7567,
      "ĠGar": 7568,
      "ĠSea": 7569,
      "Ġnonlinear": 7570,
      "ĠKong": 7571,
      "Ġvehicles": 7572,
      "Ġsatisfied": 7573,
      "Ġfacilities": 7574,
      "iquid": 7575,
      "rell": 7576,
      "Ġsupply": 7577,
      "Ġsell": 7578,
      "ĠOhio": 7579,
      "Ġcontribut": 7580,
      "onent": 7581,
      "EP": 7582,
      "Ġbulk": 7583,
      "Ġderive": 7584,
      "ĠDun": 7585,
      "}$}": 7586,
      "Ġcert": 7587,
      "Ġmaxim": 7588,
      "ĠBoston": 7589,
      "ĠChampionships": 7590,
      "step": 7591,
      "nam": 7592,
      "ĠPubl": 7593,
      "ĠEnergy": 7594,
      "notes": 7595,
      "Tra": 7596,
      "ĠMah": 7597,
      "Ġissued": 7598,
      "ĠSoviet": 7599,
      "Ġrepeated": 7600,
      "verb": 7601,
      "Ġcounty": 7602,
      "ĠIndust": 7603,
      "End": 7604,
      "Ġexecutive": 7605,
      "inois": 7606,
      "Ġtopological": 7607,
      "bet": 7608,
      "ĠCat": 7609,
      "Ġintegrated": 7610,
      "nn": 7611,
      "Ġimplemented": 7612,
      "ĠAst": 7613,
      "mazon": 7614,
      "ador": 7615,
      "Ġpurposes": 7616,
      "III": 7617,
      "1930": 7618,
      "stract": 7619,
      "Form": 7620,
      "Ġbegins": 7621,
      "Ġemployed": 7622,
      "Ġtransmission": 7623,
      "ĠCro": 7624,
      "Ġprincipal": 7625,
      "uster": 7626,
      "oned": 7627,
      "orrow": 7628,
      "formal": 7629,
      "ulse": 7630,
      "Ġasymptotic": 7631,
      "1945": 7632,
      "slash": 7633,
      "Ġvir": 7634,
      "inity": 7635,
      "ĠAT": 7636,
      "1964": 7637,
      "Ġhab": 7638,
      "char": 7639,
      "Ġ^{": 7640,
      "Ġfluid": 7641,
      "Ġ({\\": 7642,
      "Ġvocals": 7643,
      "zy": 7644,
      "Ġturb": 7645,
      "EW": 7646,
      "Ġwaves": 7647,
      "Ġinvestment": 7648,
      "plane": 7649,
      "ĠKa": 7650,
      "Ġ{$": 7651,
      "track": 7652,
      "orney": 7653,
      "Ġformat": 7654,
      "Ġjet": 7655,
      "Ġpolitics": 7656,
      "Ġtranslation": 7657,
      "Ġtalking": 7658,
      "Ġmathemat": 7659,
      "plot": 7660,
      "Ġdeliver": 7661,
      "Ġindicated": 7662,
      "ibration": 7663,
      "ierarch": 7664,
      "Ġbroken": 7665,
      "Ġstock": 7666,
      "po": 7667,
      "mathit": 7668,
      "ĠPolit": 7669,
      "Ġgone": 7670,
      "}}=": 7671,
      "ĠPop": 7672,
      "\">": 7673,
      "Ġconstants": 7674,
      "Ġdeveloping": 7675,
      "ĠOrgan": 7676,
      "Ġmotor": 7677,
      ",...": 7678,
      "oupl": 7679,
      "ĠRepublican": 7680,
      "Care": 7681,
      "ĠAsh": 7682,
      "Ġorganized": 7683,
      "ĠGi": 7684,
      "Ġradial": 7685,
      "Ġlibrary": 7686,
      "Ġhypothesis": 7687,
      "Ġfort": 7688,
      "multirow": 7689,
      "1965": 7690,
      "ĠStan": 7691,
      "pic": 7692,
      "renewcommand": 7693,
      "Ġinvolve": 7694,
      "Ġlargely": 7695,
      "Ġcorner": 7696,
      "Ġluminosity": 7697,
      "ĠBattle": 7698,
      "ĠInternet": 7699,
      "Ġmist": 7700,
      "Ġdraft": 7701,
      "Ġentirely": 7702,
      "ĠSP": 7703,
      "ĠHospital": 7704,
      "Ġquantities": 7705,
      "Ġprepar": 7706,
      "stood": 7707,
      "active": 7708,
      "page": 7709,
      "Table": 7710,
      "anta": 7711,
      "Proof": 7712,
      "Ġexplan": 7713,
      "teen": 7714,
      "erior": 7715,
      "Ġdynamical": 7716,
      "erg": 7717,
      "Ġregional": 7718,
      "Given": 7719,
      "ordan": 7720,
      "\\}$,": 7721,
      "Ġbalance": 7722,
      "finition": 7723,
      "Ġgenus": 7724,
      "Ġelections": 7725,
      "ĠWalk": 7726,
      "\\}\\": 7727,
      "ĠAff": 7728,
      "columnwidth": 7729,
      "ĠKent": 7730,
      "eper": 7731,
      "aved": 7732,
      "ĠCM": 7733,
      "Ġmarriage": 7734,
      "rimin": 7735,
      "Aust": 7736,
      "Ġyouth": 7737,
      "rating": 7738,
      "Ġcommonly": 7739,
      "Ġestablishments": 7740,
      "care": 7741,
      "Ġcryst": 7742,
      "Ġnecessarily": 7743,
      "Ġvariance": 7744,
      "index": 7745,
      "iler": 7746,
      "ĠSom": 7747,
      "ĠReport": 7748,
      "Ġserving": 7749,
      "Ġcredit": 7750,
      "Ġgeneralized": 7751,
      "Ġenem": 7752,
      "acent": 7753,
      "spe": 7754,
      "Ġcolon": 7755,
      "Ġancient": 7756,
      "Ġconsult": 7757,
      "lik": 7758,
      "Ġlens": 7759,
      "plan": 7760,
      "ĠLo": 7761,
      "Ġcouncil": 7762,
      "Ġthrow": 7763,
      "Ġcitizens": 7764,
      "process": 7765,
      "Ġanimals": 7766,
      "ĠPennsylvania": 7767,
      "/(": 7768,
      "ĠSciences": 7769,
      "Ġbiggest": 7770,
      "ĠSi": 7771,
      "ĠBeach": 7772,
      "semble": 7773,
      "ĠFour": 7774,
      "Ġnotes": 7775,
      "ĠPrince": 7776,
      ";\"": 7777,
      "icular": 7778,
      "lick": 7779,
      "Ġpool": 7780,
      "osa": 7781,
      "Ġfellow": 7782,
      "apped": 7783,
      "Ġmonitor": 7784,
      "DR": 7785,
      "phia": 7786,
      "Ġmixing": 7787,
      "&=\\": 7788,
      "subsec": 7789,
      "ĠSecurity": 7790,
      "Ġflav": 7791,
      "AF": 7792,
      "iser": 7793,
      "figures": 7794,
      "Ġaw": 7795,
      "Ġhair": 7796,
      "Ġguess": 7797,
      "ĠFederal": 7798,
      "hire": 7799,
      "Ġheav": 7800,
      "Ġherself": 7801,
      "mi": 7802,
      "Ġplas": 7803,
      "^{(\\": 7804,
      "Ġdecades": 7805,
      "1966": 7806,
      "ĠSecretary": 7807,
      "wing": 7808,
      "formance": 7809,
      "ĠRom": 7810,
      "pty": 7811,
      "ĠAssembly": 7812,
      "Two": 7813,
      "Ġversions": 7814,
      "ĠÂ»": 7815,
      "Notes": 7816,
      "vector": 7817,
      "Ġmaybe": 7818,
      "vart": 7819,
      "Ġrational": 7820,
      "ĠGet": 7821,
      "Ġrom": 7822,
      "Ġemployees": 7823,
      "Ġclosely": 7824,
      "Hence": 7825,
      "Ġscientific": 7826,
      "Ġmorphism": 7827,
      "Ġprimarily": 7828,
      "ĠĠĠĠĠĠĠĠĠĠĠĠĠ": 7829,
      "BM": 7830,
      "arity": 7831,
      "urations": 7832,
      "ĠExper": 7833,
      "uzz": 7834,
      "Lemma": 7835,
      "ĠWeb": 7836,
      "ĠLike": 7837,
      "ĠEU": 7838,
      "ĠCas": 7839,
      "ometry": 7840,
      "ĠSus": 7841,
      "ĠProfessor": 7842,
      "Ġstuff": 7843,
      "Ġviolence": 7844,
      "aturally": 7845,
      "rog": 7846,
      ":=\\": 7847,
      "Ġstorage": 7848,
      "}|\\": 7849,
      "Ġnet": 7850,
      "Ġarrived": 7851,
      "Go": 7852,
      "aud": 7853,
      "Ġinstall": 7854,
      "--------": 7855,
      "ĠBBC": 7856,
      "600": 7857,
      "pto": 7858,
      "ache": 7859,
      "Ġswitch": 7860,
      "pass": 7861,
      "Ġbudget": 7862,
      "ĠBrook": 7863,
      "Why": 7864,
      "Ġhidden": 7865,
      "vect": 7866,
      "ĠSet": 7867,
      "Will": 7868,
      "Ġconclusion": 7869,
      "Ġfrag": 7870,
      "Ġbreaking": 7871,
      "Ġinspired": 7872,
      "Ġnice": 7873,
      "Back": 7874,
      "ĠStudies": 7875,
      "itzer": 7876,
      "Ġdemonstrate": 7877,
      "Ġopinion": 7878,
      "rovers": 7879,
      "ĠExt": 7880,
      "Ġaccepted": 7881,
      "Ġhighlight": 7882,
      "Ġcharacteristics": 7883,
      "Ġexpos": 7884,
      "ĠLear": 7885,
      "^*\\": 7886,
      "Ġcurvature": 7887,
      "Ġpenal": 7888,
      "Ġfant": 7889,
      "Ġowner": 7890,
      "ibliography": 7891,
      "code": 7892,
      "Ġrecognition": 7893,
      "Ġactors": 7894,
      "Ġnative": 7895,
      "yself": 7896,
      "ĠSpec": 7897,
      "ĠEdward": 7898,
      "Ġfeedback": 7899,
      "jected": 7900,
      "ĠPoint": 7901,
      "Ġshell": 7902,
      "Ġwitness": 7903,
      "ĠBrad": 7904,
      "ĠAuthor": 7905,
      "Ġcontrolled": 7906,
      "Ġmagnet": 7907,
      "Ġvision": 7908,
      "Ġdoll": 7909,
      "Ġeffectively": 7910,
      "ĠBroad": 7911,
      "Ġacademic": 7912,
      "amber": 7913,
      "ĠTO": 7914,
      "etts": 7915,
      "Ġrepresenting": 7916,
      "rehens": 7917,
      "never": 7918,
      "heta": 7919,
      "ĠLew": 7920,
      "ĠColor": 7921,
      "Ġlanguages": 7922,
      "atever": 7923,
      "PM": 7924,
      "ĠThree": 7925,
      "Ġidentical": 7926,
      "urance": 7927,
      "ĠKim": 7928,
      "ĠRh": 7929,
      "ĠObama": 7930,
      "Ġinterface": 7931,
      "TC": 7932,
      "ĠThursday": 7933,
      "PY": 7934,
      "word": 7935,
      "anced": 7936,
      "tikzpicture": 7937,
      "elect": 7938,
      "Ġsurrounding": 7939,
      "Ġessentially": 7940,
      "National": 7941,
      "obe": 7942,
      "aya": 7943,
      "ĠWhy": 7944,
      "Ġsubsequent": 7945,
      "defined": 7946,
      "has": 7947,
      "Ġassuming": 7948,
      "Ġcouldn": 7949,
      "rastructure": 7950,
      "Ġmes": 7951,
      "Ġdance": 7952,
      "Ġpieces": 7953,
      ")})": 7954,
      "Ġstrugg": 7955,
      "Ġaf": 7956,
      "ĠRights": 7957,
      "Gl": 7958,
      "Ġmurder": 7959,
      "ĠObs": 7960,
      "Ġsuppose": 7961,
      "Ġsuc": 7962,
      "1920": 7963,
      "finite": 7964,
      "((": 7965,
      "Ġeq": 7966,
      "?\"": 7967,
      "ĠPa": 7968,
      "Ġrepresentative": 7969,
      "reduc": 7970,
      "Results": 7971,
      "Ġexcellent": 7972,
      "ĠGiven": 7973,
      "Ġcloser": 7974,
      "Ġadvanced": 7975,
      "apes": 7976,
      "Ġcanonical": 7977,
      "Ġuniversal": 7978,
      "there": 7979,
      "Ġquasi": 7980,
      "Ġcaref": 7981,
      "Ġpractical": 7982,
      "HC": 7983,
      "\\|\\": 7984,
      "ĠReal": 7985,
      "iest": 7986,
      "Ġmuseum": 7987,
      "........": 7988,
      "first": 7989,
      "Ġinterior": 7990,
      "ĠDC": 7991,
      "Ġwestern": 7992,
      "Ġlabels": 7993,
      "Ġpal": 7994,
      "dule": 7995,
      "Ġknows": 7996,
      "ĠBoy": 7997,
      "Ġ}{": 7998,
      "Ġseeing": 7999,
      "Ġexerc": 8000,
      "Ġbridge": 8001,
      "Ġcarbon": 8002,
      "Bar": 8003,
      "apse": 8004,
      "ymmetric": 8005,
      "Ġlowest": 8006,
      "vari": 8007,
      "sa": 8008,
      "parison": 8009,
      "ĠTuesday": 8010,
      "ĠLast": 8011,
      "Ġpassing": 8012,
      "Äĩ": 8013,
      "Ġcomedy": 8014,
      "Bi": 8015,
      "Ġversus": 8016,
      "Ġcorrections": 8017,
      "Ġsky": 8018,
      "slant": 8019,
      "Ġinterpretation": 8020,
      "kers": 8021,
      "Ġsimplic": 8022,
      "ĠAgain": 8023,
      "Ġcauses": 8024,
      "](": 8025,
      "high": 8026,
      "Ġplants": 8027,
      "ĠLive": 8028,
      "Pol": 8029,
      "Ġstre": 8030,
      "ĠFC": 8031,
      "Ġera": 8032,
      "Ġimprovement": 8033,
      "ĠCEO": 8034,
      "Ġassociation": 8035,
      "ĠMP": 8036,
      "Ġsubm": 8037,
      "Ġtight": 8038,
      "Ġstrategies": 8039,
      "ipality": 8040,
      "arios": 8041,
      "Ġdriver": 8042,
      "Ġbench": 8043,
      "also": 8044,
      "Ġfish": 8045,
      "aton": 8046,
      "Ġmedian": 8047,
      "quar": 8048,
      "Ġdeploy": 8049,
      "ĠAge": 8050,
      "Ġcontest": 8051,
      "Ġdetermin": 8052,
      "ĠFair": 8053,
      "ĠKorea": 8054,
      "Another": 8055,
      "Ġnone": 8056,
      "Ġteacher": 8057,
      "Ġanalyz": 8058,
      "Ġunless": 8059,
      "ĠWrit": 8060,
      "Ġappeal": 8061,
      "ĠPen": 8062,
      "Ġcorrection": 8063,
      "Ġuniverse": 8064,
      "ĠEastern": 8065,
      "001": 8066,
      "ĠRepresent": 8067,
      "Ġmolecular": 8068,
      "Ġwinner": 8069,
      "adow": 8070,
      "fined": 8071,
      "ĠApple": 8072,
      "Ġagreed": 8073,
      "Ġsuperv": 8074,
      "uler": 8075,
      "Ġapproximate": 8076,
      "ĠInvest": 8077,
      "friend": 8078,
      "SF": 8079,
      "Ġouter": 8080,
      "Ġiron": 8081,
      "DC": 8082,
      "ĠBang": 8083,
      "Ġmatching": 8084,
      "Ã§": 8085,
      "pson": 8086,
      "ĠAmericans": 8087,
      "Ġdashed": 8088,
      "ĠCR": 8089,
      "Ġacquired": 8090,
      "Ġgirls": 8091,
      "istent": 8092,
      "Ġintroduction": 8093,
      "Ġopportunities": 8094,
      "Ġpapers": 8095,
      "loc": 8096,
      "Ġstandards": 8097,
      "Ġinsp": 8098,
      "achus": 8099,
      "Ġfell": 8100,
      "Ġengineering": 8101,
      "ditional": 8102,
      "Ġepisodes": 8103,
      "800": 8104,
      "Ġdram": 8105,
      "oat": 8106,
      "Åį": 8107,
      "udden": 8108,
      "ĠWednesday": 8109,
      "Act": 8110,
      "ĠEst": 8111,
      "ĠGeV": 8112,
      "ĠCase": 8113,
      "Ġperspective": 8114,
      "lywood": 8115,
      "una": 8116,
      "Ġdrawn": 8117,
      "Ġjobs": 8118,
      "Disc": 8119,
      "rite": 8120,
      "Ġsucceed": 8121,
      "Ġfluctuations": 8122,
      "Ġpaths": 8123,
      "Ġtele": 8124,
      "ĠHiggs": 8125,
      "Ġabsence": 8126,
      "Ġadvance": 8127,
      "Ġvacuum": 8128,
      "Ġspac": 8129,
      "ĠStation": 8130,
      "ami": 8131,
      "dec": 8132,
      "Out": 8133,
      "uz": 8134,
      "rene": 8135,
      "aus": 8136,
      "ĠBooks": 8137,
      "elly": 8138,
      "ditionally": 8139,
      "ĠIllinois": 8140,
      "ologist": 8141,
      "phantom": 8142,
      "Ġdefeated": 8143,
      "del": 8144,
      "Ġap": 8145,
      "Ġdependent": 8146,
      "Ġgeneric": 8147,
      "Ġenhance": 8148,
      "Ġneutral": 8149,
      "athe": 8150,
      "Ġportion": 8151,
      "ĠIraq": 8152,
      "oves": 8153,
      "Ġfuel": 8154,
      "world": 8155,
      "ĠHun": 8156,
      "fram": 8157,
      "ĠVill": 8158,
      "hard": 8159,
      "Ġdecrease": 8160,
      "Ġanom": 8161,
      "Ġkin": 8162,
      "Ġbundle": 8163,
      "Ġfear": 8164,
      "ĠAny": 8165,
      "Ġkick": 8166,
      "Ġexcited": 8167,
      "Ġguy": 8168,
      "uce": 8169,
      "ĠRun": 8170,
      "Ġdocuments": 8171,
      "isa": 8172,
      "Ĥ¬": 8173,
      "Ġ\\,\\": 8174,
      "ĠAdminist": 8175,
      "Ġarms": 8176,
      "Ġplanned": 8177,
      "ĠAud": 8178,
      "medskip": 8179,
      "uv": 8180,
      "Ġoperated": 8181,
      "Comm": 8182,
      "Ġequality": 8183,
      "Ġextent": 8184,
      "Ġtrip": 8185,
      "Ġexclud": 8186,
      "pet": 8187,
      "bell": 8188,
      "Ġreturns": 8189,
      "uction": 8190,
      "ĠUnivers": 8191,
      "Suppose": 8192,
      "Ġprogramming": 8193,
      "Ġflag": 8194,
      "Ġquantity": 8195,
      "Ġstochastic": 8196,
      "Ġfeaturing": 8197,
      "Ġfinish": 8198,
      "Ġfaster": 8199,
      "Ġnotion": 8200,
      "Ġbass": 8201,
      "Ġsupporting": 8202,
      "Ġdirections": 8203,
      "ĠOnly": 8204,
      "general": 8205,
      "ĠProvince": 8206,
      "ĠMult": 8207,
      "effect": 8208,
      "ĠProdu": 8209,
      "Ġtrace": 8210,
      "Ġhousing": 8211,
      "ĠBase": 8212,
      "achusetts": 8213,
      "Ġsomewhat": 8214,
      "oster": 8215,
      "Ġarguments": 8216,
      "Ġguide": 8217,
      "Ġzone": 8218,
      "ĠSC": 8219,
      "ĠCorn": 8220,
      "Ġhouses": 8221,
      "Ġterror": 8222,
      ">>": 8223,
      "language": 8224,
      "ĠHistoric": 8225,
      "fection": 8226,
      "Ap": 8227,
      "Ġsupers": 8228,
      "=.": 8229,
      "Ġmyself": 8230,
      "Ġaggreg": 8231,
      "Ġ,\\": 8232,
      "ĠHong": 8233,
      "ubble": 8234,
      "iples": 8235,
      "ĠTit": 8236,
      "sequently": 8237,
      "Ġcatal": 8238,
      "onia": 8239,
      "Ġgravitational": 8240,
      "Ġweather": 8241,
      "atus": 8242,
      "Ġcoupled": 8243,
      "venture": 8244,
      "rice": 8245,
      "OD": 8246,
      "ĠElizabeth": 8247,
      "(-\\": 8248,
      "Ġrailway": 8249,
      "anna": 8250,
      "inction": 8251,
      "Ġinjury": 8252,
      "Ġstands": 8253,
      "ĠCA": 8254,
      "Moreover": 8255,
      "vartheta": 8256,
      "ĠSU": 8257,
      "RR": 8258,
      "Ġpit": 8259,
      "Ġvideos": 8260,
      "ĠComput": 8261,
      "yo": 8262,
      "Ġcompat": 8263,
      "ĠLatin": 8264,
      "formed": 8265,
      "Ġdemonstrated": 8266,
      "Ġdense": 8267,
      "ĠHard": 8268,
      "Fl": 8269,
      "uated": 8270,
      "ĠStory": 8271,
      "ÑĤ": 8272,
      "Ġsevere": 8273,
      "Ġconcerns": 8274,
      "ni": 8275,
      "Ġfacility": 8276,
      "ĠPC": 8277,
      "\\%$": 8278,
      "Ġven": 8279,
      "Posted": 8280,
      "notag": 8281,
      "Ġbusinesses": 8282,
      "Ġexcess": 8283,
      "rations": 8284,
      "ogonal": 8285,
      "desc": 8286,
      "Ġsupposed": 8287,
      "ĠSteve": 8288,
      "irical": 8289,
      "downarrow": 8290,
      "raine": 8291,
      "Ġcaptured": 8292,
      "equations": 8293,
      "Ġkeeping": 8294,
      "Ġcensus": 8295,
      "ĠGR": 8296,
      "Ġsensitive": 8297,
      "Ġthin": 8298,
      "}{*": 8299,
      "embers": 8300,
      "Ġsuccessfully": 8301,
      "loop": 8302,
      ")^\\": 8303,
      "andy": 8304,
      "Ġvon": 8305,
      "$\\\\": 8306,
      "instein": 8307,
      "ĠStephen": 8308,
      "ĠMaster": 8309,
      "Ġscores": 8310,
      "Ġemot": 8311,
      "Ġships": 8312,
      "Mon": 8313,
      "Ġconsisting": 8314,
      "isson": 8315,
      "ĠFire": 8316,
      "Ġdetector": 8317,
      "Ġsettings": 8318,
      "Ġthousands": 8319,
      "Ġreader": 8320,
      "ĠNC": 8321,
      "Ġfunds": 8322,
      "ĠSat": 8323,
      "Ġclassic": 8324,
      "html": 8325,
      "Ð½": 8326,
      "Ġsubsequently": 8327,
      "1963": 8328,
      "Ġsizes": 8329,
      "dr": 8330,
      "aki": 8331,
      "ĠNon": 8332,
      "ogether": 8333,
      "ĠPrime": 8334,
      "Ġevaluated": 8335,
      "Ġsatell": 8336,
      "mazing": 8337,
      "ennes": 8338,
      "ĠHo": 8339,
      "dney": 8340,
      "wave": 8341,
      "$-$": 8342,
      "Ġcovering": 8343,
      "ĠCH": 8344,
      "iki": 8345,
      "regular": 8346,
      "EG": 8347,
      "1962": 8348,
      "input": 8349,
      "Ġprofiles": 8350,
      "Ġwavel": 8351,
      "Ġmoves": 8352,
      "ĠBC": 8353,
      "theless": 8354,
      "Ġperturbation": 8355,
      "Ġabsorption": 8356,
      "Ġseconds": 8357,
      ".\\\\": 8358,
      "ĠRou": 8359,
      "ĠHom": 8360,
      "}\\|": 8361,
      "ĠMic": 8362,
      "achers": 8363,
      "ulating": 8364,
      "ĠTrust": 8365,
      "Ġcir": 8366,
      "outhe": 8367,
      "Inter": 8368,
      "aped": 8369,
      "erving": 8370,
      "ritical": 8371,
      "Xi": 8372,
      "paramet": 8373,
      "iii": 8374,
      "ativ": 8375,
      "diff": 8376,
      "esides": 8377,
      ".;": 8378,
      "Ġmac": 8379,
      "gery": 8380,
      "Ġremove": 8381,
      "---": 8382,
      "textup": 8383,
      "ĠEu": 8384,
      "ĠBon": 8385,
      "General": 8386,
      "Ġcrowd": 8387,
      "arest": 8388,
      "background": 8389,
      "Ġprotein": 8390,
      "Ġextensive": 8391,
      "Ġchart": 8392,
      "Ġeigenvalues": 8393,
      "Ġwouldn": 8394,
      "backslash": 8395,
      "ses": 8396,
      "Ġmanufacture": 8397,
      "Ġserves": 8398,
      "OW": 8399,
      "Ġfifth": 8400,
      "Ġreferences": 8401,
      "Ġawards": 8402,
      "Cal": 8403,
      "rangian": 8404,
      "ĠConne": 8405,
      "ĠSN": 8406,
      "Ġreasonable": 8407,
      "Ġcovers": 8408,
      "Ġequivalence": 8409,
      "Ġfavorite": 8410,
      "inst": 8411,
      "rants": 8412,
      "ĠPR": 8413,
      "Ġexpressions": 8414,
      "mary": 8415,
      "Ġspring": 8416,
      "aked": 8417,
      "Ġunderstood": 8418,
      "riff": 8419,
      "rins": 8420,
      "ushed": 8421,
      "LR": 8422,
      "Ġhelps": 8423,
      "Ġdownload": 8424,
      "ĠDutch": 8425,
      "Top": 8426,
      "cale": 8427,
      "onym": 8428,
      "illed": 8429,
      "Ġrelationships": 8430,
      "Ġpoliticians": 8431,
      "ĠSab": 8432,
      "Ġdescent": 8433,
      "Ġseparation": 8434,
      "Ġsuppl": 8435,
      "\\!\\": 8436,
      "Ġalongside": 8437,
      "Ġperiodic": 8438,
      "Dav": 8439,
      "worth": 8440,
      "Ġprivacy": 8441,
      "tem": 8442,
      "outs": 8443,
      "Ġextreme": 8444,
      "Ġcolle": 8445,
      "Ġhotel": 8446,
      "Of": 8447,
      "ĠJean": 8448,
      "^*(": 8449,
      "Ġtriang": 8450,
      "mathtt": 8451,
      "Ġroles": 8452,
      "sign": 8453,
      "Ġfilled": 8454,
      "Ġshut": 8455,
      "Ġvisible": 8456,
      "ĠDM": 8457,
      "ienced": 8458,
      "Ġprofessor": 8459,
      "Ġroughly": 8460,
      "ez": 8461,
      "Ġbow": 8462,
      "~(\\": 8463,
      "ĠAnth": 8464,
      "Ġcontribute": 8465,
      "Ġhonor": 8466,
      "Ġparent": 8467,
      "Car": 8468,
      "Ġexceed": 8469,
      "ĠKar": 8470,
      "ĠEs": 8471,
      "Ġisot": 8472,
      "ĠBand": 8473,
      "Ġaccident": 8474,
      "ĠPortug": 8475,
      "Ġ$\\{\\": 8476,
      "ĠNa": 8477,
      "Ġcas": 8478,
      "ĠKenn": 8479,
      "ĠCirc": 8480,
      "jecture": 8481,
      "thur": 8482,
      "occer": 8483,
      "Box": 8484,
      "Ġreduces": 8485,
      "sex": 8486,
      "ounger": 8487,
      "ĠOxford": 8488,
      "isot": 8489,
      "Ġearned": 8490,
      "engths": 8491,
      "AV": 8492,
      "lets": 8493,
      "Li": 8494,
      "apore": 8495,
      "Ġphases": 8496,
      "ĠRog": 8497,
      "umes": 8498,
      "Ġindustrial": 8499,
      "Jan": 8500,
      "night": 8501,
      "fold": 8502,
      "Ġproportional": 8503,
      "Ġsquad": 8504,
      "Ġkid": 8505,
      "ĠPakistan": 8506,
      "Ġcolour": 8507,
      "textcolor": 8508,
      "aded": 8509,
      "ĠGovernor": 8510,
      "ulpt": 8511,
      "Ġwait": 8512,
      "ĠRev": 8513,
      "Ġatoms": 8514,
      "enz": 8515,
      "cline": 8516,
      "Ġgenerating": 8517,
      "Ġgrew": 8518,
      "Ġparticipants": 8519,
      "ĠEngineering": 8520,
      "ĠOnce": 8521,
      "Ġinstitutions": 8522,
      "orders": 8523,
      "DB": 8524,
      "Ga": 8525,
      "Ġfra": 8526,
      "Ġpra": 8527,
      "ĠColumbia": 8528,
      "Book": 8529,
      "ructions": 8530,
      "Ġfighting": 8531,
      "ĠMarg": 8532,
      "found": 8533,
      "Ġsubs": 8534,
      "iliar": 8535,
      "Ġholding": 8536,
      "aling": 8537,
      "irk": 8538,
      "issions": 8539,
      "Ġvariations": 8540,
      "adi": 8541,
      "HT": 8542,
      "just": 8543,
      "ĠSupreme": 8544,
      "adelphia": 8545,
      "ĠViet": 8546,
      "ecutive": 8547,
      "Ġseemed": 8548,
      "Ġempty": 8549,
      "ĠAlexander": 8550,
      "Ġinfer": 8551,
      "Ġpossess": 8552,
      "ĠFox": 8553,
      "oded": 8554,
      "Ġurban": 8555,
      "ĠGuard": 8556,
      "Ġstead": 8557,
      "okes": 8558,
      "180": 8559,
      "HL": 8560,
      "Ġdefend": 8561,
      "Ġcatch": 8562,
      "Ġoccurred": 8563,
      "Ġcrucial": 8564,
      "ragon": 8565,
      "Ġfeeling": 8566,
      "anth": 8567,
      "ĠRead": 8568,
      "orship": 8569,
      "ĠNext": 8570,
      "Che": 8571,
      "Ġadvoc": 8572,
      "irty": 8573,
      "ĠVictoria": 8574,
      "University": 8575,
      "ĠFollowing": 8576,
      "!\\": 8577,
      "ĠGro": 8578,
      "negative": 8579,
      "ĠMov": 8580,
      "white": 8581,
      "verage": 8582,
      "Ġelev": 8583,
      "101": 8584,
      "ĠIslands": 8585,
      "uparrow": 8586,
      "Ġadvers": 8587,
      "ĠClark": 8588,
      "ĠTal": 8589,
      "aska": 8590,
      "ego": 8591,
      "ĠAdam": 8592,
      "Ġperman": 8593,
      "ENT": 8594,
      "ĠMassachusetts": 8595,
      "condition": 8596,
      "bp": 8597,
      "Ġdegener": 8598,
      "$^": 8599,
      "corollary": 8600,
      "Ġapprec": 8601,
      "Ġathlet": 8602,
      "ÑĢ": 8603,
      "Ġperformances": 8604,
      "rend": 8605,
      "reducible": 8606,
      "Ġbran": 8607,
      "Ġscript": 8608,
      "Career": 8609,
      "rust": 8610,
      "ĠBall": 8611,
      "ĠInn": 8612,
      "vs": 8613,
      "Brit": 8614,
      "Ġchoices": 8615,
      "ĠFood": 8616,
      "Ġflex": 8617,
      "nic": 8618,
      "Consider": 8619,
      ")--(": 8620,
      "Ġdriven": 8621,
      "ĠMinistry": 8622,
      "ĠScottish": 8623,
      "Home": 8624,
      "Ġcontinuum": 8625,
      "Ġhalo": 8626,
      "Also": 8627,
      "vals": 8628,
      "Ã±": 8629,
      "'.": 8630,
      "idential": 8631,
      "United": 8632,
      "Ġpresents": 8633,
      "ĠlP": 8634,
      "ricts": 8635,
      "ĠLind": 8636,
      "ĠForest": 8637,
      "ĠEth": 8638,
      "Ġintermediate": 8639,
      "ĠAmazon": 8640,
      "1961": 8641,
      "rency": 8642,
      "Ġcontrols": 8643,
      "Ġtriple": 8644,
      "ĠIV": 8645,
      "Ġrect": 8646,
      "Ġposted": 8647,
      "bottom": 8648,
      "Ġvirtual": 8649,
      "ipping": 8650,
      "ĠMethod": 8651,
      "eman": 8652,
      "Ġtruly": 8653,
      "olis": 8654,
      "Ġupdated": 8655,
      "Rem": 8656,
      "Equ": 8657,
      "Ġmarketing": 8658,
      "Ġsoldiers": 8659,
      "tainment": 8660,
      "Ġanimal": 8661,
      "ĠDam": 8662,
      "Ġsale": 8663,
      "Ġjourney": 8664,
      "ĠRod": 8665,
      "Ġsingles": 8666,
      "Ġconsec": 8667,
      "Ġresearchers": 8668,
      "rob": 8669,
      "wart": 8670,
      "Ġcart": 8671,
      "ĠLabor": 8672,
      "ĠAnton": 8673,
      "including": 8674,
      "ĠPhot": 8675,
      "Ġtested": 8676,
      "cious": 8677,
      "Ġrecognized": 8678,
      "inate": 8679,
      "Ġspons": 8680,
      "Ġinvolves": 8681,
      "Ġfrequently": 8682,
      "ĠPass": 8683,
      "oment": 8684,
      "LT": 8685,
      "enant": 8686,
      "antum": 8687,
      "1944": 8688,
      "Ġsho": 8689,
      "Ġdx": 8690,
      "Ġclubs": 8691,
      "ĠUr": 8692,
      "ĠBad": 8693,
      "rome": 8694,
      "Ġcomplement": 8695,
      "PD": 8696,
      "Ġdominant": 8697,
      "!]": 8698,
      "ĠInstead": 8699,
      "ĠRen": 8700,
      "relation": 8701,
      "Ġexperiences": 8702,
      "Ġscenarios": 8703,
      "esian": 8704,
      "Ġnewly": 8705,
      "cs": 8706,
      "ĠBru": 8707,
      "iday": 8708,
      "axis": 8709,
      "Ġvent": 8710,
      "boldmath": 8711,
      "Ġentries": 8712,
      "$.}": 8713,
      "ĠLtd": 8714,
      "Ġgar": 8715,
      "Ġtopic": 8716,
      "pool": 8717,
      "bu": 8718,
      "Just": 8719,
      "ĠCreek": 8720,
      "ĠWars": 8721,
      "Ġfib": 8722,
      "Ġcircuit": 8723,
      "ĠSky": 8724,
      "Ġdecisions": 8725,
      "ĠToday": 8726,
      "evin": 8727,
      "ĠAvenue": 8728,
      "forming": 8729,
      "Ġpersonnel": 8730,
      "Ġworst": 8731,
      "osophy": 8732,
      "Ġdensities": 8733,
      "Ġcomfort": 8734,
      "aks": 8735,
      "ĠNever": 8736,
      "ci": 8737,
      "vo": 8738,
      "onsin": 8739,
      "Ġfitting": 8740,
      "aux": 8741,
      "TH": 8742,
      "ĠBerlin": 8743,
      "rates": 8744,
      "Ġdiscover": 8745,
      "continu": 8746,
      "ĠCorporation": 8747,
      "Ġpublication": 8748,
      "circle": 8749,
      "Ġbatt": 8750,
      "Ġflows": 8751,
      "eties": 8752,
      "Ġclinical": 8753,
      "ĠMain": 8754,
      "GA": 8755,
      "fast": 8756,
      "arry": 8757,
      "isconsin": 8758,
      "Ġpolarization": 8759,
      "engers": 8760,
      "Films": 8761,
      "Ġsounds": 8762,
      "orig": 8763,
      "Ġfrequencies": 8764,
      "Red": 8765,
      "Ġretired": 8766,
      "Ġoffering": 8767,
      "Sw": 8768,
      "ĠRegister": 8769,
      "Ġliquid": 8770,
      "ibilities": 8771,
      "ĠMonte": 8772,
      "aught": 8773,
      "ĠSuppose": 8774,
      "IST": 8775,
      "ĠTam": 8776,
      "heim": 8777,
      "edding": 8778,
      "Ġconservation": 8779,
      "Ġconfigurations": 8780,
      "Ġsensitivity": 8781,
      "Ġaudio": 8782,
      "Ġconcerned": 8783,
      "ĠSem": 8784,
      "abled": 8785,
      "Ag": 8786,
      "Ġhistoric": 8787,
      "Ġrespective": 8788,
      "ĠFourier": 8789,
      "Ġhumans": 8790,
      "ĠWhe": 8791,
      "Ġprecision": 8792,
      "Ġpot": 8793,
      "ĠProte": 8794,
      "ĠAp": 8795,
      "Ġpuls": 8796,
      "Ġprepared": 8797,
      "Ġsession": 8798,
      "Ġconjug": 8799,
      "Ġstraightforward": 8800,
      "Ġmel": 8801,
      "Ġreward": 8802,
      "Pop": 8803,
      "Ġcoal": 8804,
      "ĠToronto": 8805,
      "eping": 8806,
      "Ġnaturally": 8807,
      "Ġdog": 8808,
      "Sum": 8809,
      "ĠRos": 8810,
      "Ġteaching": 8811,
      "ĠNAS": 8812,
      "Ġmultip": 8813,
      "Ġcontrovers": 8814,
      "inear": 8815,
      "ĠLog": 8816,
      "second": 8817,
      "current": 8818,
      "Ġtang": 8819,
      "ĠPoland": 8820,
      "ĠSep": 8821,
      "Ġaren": 8822,
      "Ġcalling": 8823,
      "Ġprominent": 8824,
      "Ġwealth": 8825,
      "Ġmovies": 8826,
      "Assum": 8827,
      "World": 8828,
      "Ġgate": 8829,
      "Ġweekend": 8830,
      "Ġelectrons": 8831,
      "Ġescape": 8832,
      "Work": 8833,
      "Dem": 8834,
      "Ġexpanded": 8835,
      "Ġuniformly": 8836,
      "::": 8837,
      "utely": 8838,
      "ĠChildren": 8839,
      "large": 8840,
      "ĠHung": 8841,
      "Ġworse": 8842,
      "ĠLuc": 8843,
      "BO": 8844,
      "stic": 8845,
      "Ġconcentration": 8846,
      "Ġprecise": 8847,
      "Ġaccret": 8848,
      "Ġsurfaces": 8849,
      "Ġrecip": 8850,
      "open": 8851,
      "forcement": 8852,
      "opher": 8853,
      "GR": 8854,
      "Ġdatabase": 8855,
      "Ġagency": 8856,
      "Ġpun": 8857,
      "Ġrid": 8858,
      "Hom": 8859,
      "ensor": 8860,
      "Ġdiffusion": 8861,
      "ĠVideo": 8862,
      "ĠDespite": 8863,
      "Ġrestricted": 8864,
      "Ġcontemporary": 8865,
      "Ġstronger": 8866,
      "ĠSant": 8867,
      "&=&\\": 8868,
      "Ġtroub": 8869,
      "ained": 8870,
      "Ġfiction": 8871,
      "|^{": 8872,
      "Ġseparated": 8873,
      "Cref": 8874,
      "Ġeasier": 8875,
      ">\\": 8876,
      "Ġpractices": 8877,
      "orters": 8878,
      "Ġban": 8879,
      "Ġcopies": 8880,
      "lementary": 8881,
      "Ġstret": 8882,
      "ped": 8883,
      "1958": 8884,
      "Ġstanding": 8885,
      "South": 8886,
      "1959": 8887,
      "Ġmas": 8888,
      "ribed": 8889,
      "TA": 8890,
      ")}(\\": 8891,
      "Ġbodies": 8892,
      "Ġsail": 8893,
      "Ġspan": 8894,
      "Ġrecover": 8895,
      "ĠMill": 8896,
      "Ġnarr": 8897,
      "*}[": 8898,
      "Ġsystematic": 8899,
      "module": 8900,
      "etherlands": 8901,
      "1956": 8902,
      "Ġhierarch": 8903,
      "Ġbaseball": 8904,
      "Ġestate": 8905,
      "Ġgeometric": 8906,
      "ĠSanta": 8907,
      "ingham": 8908,
      "Ġsimilarly": 8909,
      "Ġuncertainties": 8910,
      "âĢĭ": 8911,
      "Ġdominated": 8912,
      "ĠDark": 8913,
      "Ġtheme": 8914,
      "Ġyourself": 8915,
      "Ġhandle": 8916,
      "Ġadjacent": 8917,
      "stackrel": 8918,
      "ĠOFF": 8919,
      "Ġmodeling": 8920,
      "Ġorbital": 8921,
      "offe": 8922,
      "Ġresource": 8923,
      "ĠIndepend": 8924,
      "symmet": 8925,
      "ĠAk": 8926,
      "Ġstatic": 8927,
      "ĠThrough": 8928,
      "Ġarray": 8929,
      "ĠNick": 8930,
      "Ġfer": 8931,
      "itled": 8932,
      "ategory": 8933,
      "ressive": 8934,
      "Ac": 8935,
      "Ġcommittee": 8936,
      "version": 8937,
      "footnotes": 8938,
      "ooking": 8939,
      "cycl": 8940,
      "Ġattempts": 8941,
      "Ġillustrated": 8942,
      "Ġcapable": 8943,
      "Ġsolving": 8944,
      "ĠLater": 8945,
      "stances": 8946,
      "ĠHay": 8947,
      "arithm": 8948,
      "Ġdropped": 8949,
      "Ġbatter": 8950,
      "elesc": 8951,
      "Ġcooper": 8952,
      "Ġprices": 8953,
      "Ġnull": 8954,
      "hanced": 8955,
      "invariant": 8956,
      "Ġlift": 8957,
      "Ġauthorities": 8958,
      "Ġnormalized": 8959,
      "ĠEnvironment": 8960,
      "Ġrefers": 8961,
      "Ġstages": 8962,
      "ĠVen": 8963,
      "points": 8964,
      "Ġwalls": 8965,
      "Ġsilver": 8966,
      "Ġinvestigated": 8967,
      "Ġriv": 8968,
      "represent": 8969,
      "ederation": 8970,
      "ĠJacob": 8971,
      "Ġdecade": 8972,
      "hfill": 8973,
      "ĠSydney": 8974,
      "Ġswim": 8975,
      "Ġplate": 8976,
      "Ġbriefly": 8977,
      "ĠArea": 8978,
      "Ġtroops": 8979,
      "ĠIS": 8980,
      "Ġsecure": 8981,
      "Ġanalys": 8982,
      "125": 8983,
      "Ġevening": 8984,
      "|$": 8985,
      "ls": 8986,
      "Ġagric": 8987,
      "1948": 8988,
      "His": 8989,
      "brane": 8990,
      "Ġletters": 8991,
      "footnotesize": 8992,
      "Ġsudden": 8993,
      "Ġclick": 8994,
      "Ġcharacterized": 8995,
      "Ġminister": 8996,
      "ĠCall": 8997,
      "Ġpip": 8998,
      "Ġsigns": 8999,
      "Ġspeaking": 9000,
      "Ġmir": 9001,
      "iot": 9002,
      "Ġpotentially": 9003,
      "agram": 9004,
      "Ġguarante": 9005,
      "ðŁ": 9006,
      "_{+": 9007,
      "Ġschemes": 9008,
      "ĠDavis": 9009,
      "Ġauthority": 9010,
      "Ġanalytic": 9011,
      "Ġstack": 9012,
      "Ġburn": 9013,
      "Ġguard": 9014,
      "scriptscriptstyle": 9015,
      "Ġscenes": 9016,
      "Ġnewspaper": 9017,
      "ĠSon": 9018,
      "ĠOnt": 9019,
      "ĠBan": 9020,
      "Ġinclusion": 9021,
      "$\\,": 9022,
      "bourne": 9023,
      "$^{": 9024,
      "Ġlosing": 9025,
      "ropical": 9026,
      "Ġquadratic": 9027,
      "een": 9028,
      "ruption": 9029,
      "ĠDonald": 9030,
      "!âĢĿ": 9031,
      "Ġcab": 9032,
      "Best": 9033,
      "ĠWel": 9034,
      "ĠIT": 9035,
      "Ġaccounts": 9036,
      "Ġimmediate": 9037,
      "ĠCommon": 9038,
      "count": 9039,
      "ĠBelg": 9040,
      "pres": 9041,
      "Ġcaught": 9042,
      "Ġreceiving": 9043,
      "phe": 9044,
      "leftarrow": 9045,
      "Ġspecified": 9046,
      "Ġsac": 9047,
      "ĠMach": 9048,
      "Ġstorm": 9049,
      "Ġneither": 9050,
      "Ã¢": 9051,
      "strong": 9052,
      "Ġvess": 9053,
      "1957": 9054,
      "Ġswe": 9055,
      "Ġtransferred": 9056,
      "Ġprofession": 9057,
      "Ġsummary": 9058,
      "uling": 9059,
      "128": 9060,
      "ĠLady": 9061,
      "Vi": 9062,
      "{(\\": 9063,
      "Dist": 9064,
      "ĠTok": 9065,
      "Ġproduces": 9066,
      "ystem": 9067,
      "herical": 9068,
      "erring": 9069,
      ")(\\": 9070,
      "chron": 9071,
      "NC": 9072,
      "Ġsharing": 9073,
      "Ġexperienced": 9074,
      "ĠDigital": 9075,
      "Ġhelping": 9076,
      "akh": 9077,
      "propto": 9078,
      "ui": 9079,
      "Ġalt": 9080,
      "Ġmetall": 9081,
      "Ġgender": 9082,
      "Ġrear": 9083,
      "uon": 9084,
      "Ġcrisis": 9085,
      "Ġwatching": 9086,
      "Ġprogramme": 9087,
      "ĠJordan": 9088,
      "Ġbomb": 9089,
      "}$\\": 9090,
      "Ġalleged": 9091,
      "Ġroots": 9092,
      "owa": 9093,
      "Spec": 9094,
      "hedral": 9095,
      "Ġgreatest": 9096,
      "Ġelli": 9097,
      "Ġdeviation": 9098,
      "Ġconstitu": 9099,
      "Ġresulted": 9100,
      "Ġneutrino": 9101,
      "ĠBat": 9102,
      "ĠGrant": 9103,
      "ĠSeason": 9104,
      "ermi": 9105,
      "AE": 9106,
      "ordon": 9107,
      "Ġinterests": 9108,
      "Ġclients": 9109,
      "Ġmental": 9110,
      "Ġhomes": 9111,
      "green": 9112,
      "Ġpurchase": 9113,
      "BB": 9114,
      "opes": 9115,
      "ymmetry": 9116,
      "ĠNet": 9117,
      "Ġfavour": 9118,
      "regon": 9119,
      "Ġsurve": 9120,
      "Ġmere": 9121,
      "ito": 9122,
      "Ġultimately": 9123,
      "1939": 9124,
      "Ġdecreases": 9125,
      "ĠDar": 9126,
      "GM": 9127,
      "sep": 9128,
      "Ġexpectation": 9129,
      "'_{": 9130,
      "-(": 9131,
      "eron": 9132,
      "Ġformulation": 9133,
      "struct": 9134,
      "Ġhomogeneous": 9135,
      "Ġrural": 9136,
      "Ġconventional": 9137,
      "``": 9138,
      "Ġtack": 9139,
      "ĠCost": 9140,
      "Ġstrictly": 9141,
      "ivered": 9142,
      "Ġhorizontal": 9143,
      "Ġsan": 9144,
      "Ġped": 9145,
      "phys": 9146,
      "Ġment": 9147,
      "1942": 9148,
      "nol": 9149,
      "Ġsand": 9150,
      "Ġ_{\\": 9151,
      "Ġfindings": 9152,
      "Ñģ": 9153,
      "Ġbaseline": 9154,
      "iang": 9155,
      "ĠCountry": 9156,
      "rer": 9157,
      "Ġassistant": 9158,
      "}/\\": 9159,
      "icial": 9160,
      "sche": 9161,
      "Ġhall": 9162,
      "Ġpanels": 9163,
      "aga": 9164,
      "Ġcriminal": 9165,
      "Ġmetrics": 9166,
      "Ġending": 9167,
      "mal": 9168,
      "lock": 9169,
      "}^{+": 9170,
      "igu": 9171,
      "Ġchampionship": 9172,
      "Ġinstant": 9173,
      "Ġphotos": 9174,
      "ubb": 9175,
      "Ġdistances": 9176,
      "ĠFR": 9177,
      "Ġbrings": 9178,
      "make": 9179,
      "Ġyounger": 9180,
      "ello": 9181,
      "*\\": 9182,
      "TR": 9183,
      "Ġguys": 9184,
      "ivery": 9185,
      "Ġdim": 9186,
      "GeV": 9187,
      "Ġvarying": 9188,
      "Ġimpossible": 9189,
      "Ġdoubt": 9190,
      "Ġtitles": 9191,
      "ika": 9192,
      "Ġdiagrams": 9193,
      ")}.": 9194,
      "Ġiteration": 9195,
      "owered": 9196,
      "Ġsimultaneously": 9197,
      "Ġdestroyed": 9198,
      "ĠNumber": 9199,
      "Under": 9200,
      "Â°": 9201,
      "Ġpointed": 9202,
      "EV": 9203,
      "Ġwinter": 9204,
      "Ġlinked": 9205,
      "tes": 9206,
      "orough": 9207,
      "Ġsentence": 9208,
      "Ġwire": 9209,
      "ĠMinnes": 9210,
      "Ġstone": 9211,
      "romagnetic": 9212,
      "ĠSpring": 9213,
      "Ġcommitted": 9214,
      "Ġdiscussions": 9215,
      "Ġjudge": 9216,
      "Christ": 9217,
      "ynamics": 9218,
      "Ġcollaboration": 9219,
      "ouri": 9220,
      "Ġvotes": 9221,
      "ĠOrig": 9222,
      "aret": 9223,
      "Ġtransitions": 9224,
      "Ġgene": 9225,
      "ĠHotel": 9226,
      "Ġindices": 9227,
      "Ġboundaries": 9228,
      "Ġadvice": 9229,
      "ĉĉĊ": 9230,
      "Ġjustice": 9231,
      "Ġunable": 9232,
      "oli": 9233,
      "Get": 9234,
      "Ġflood": 9235,
      "square": 9236,
      "Ġderivatives": 9237,
      "cription": 9238,
      "Most": 9239,
      "oured": 9240,
      "Ġdispersion": 9241,
      "ortion": 9242,
      "Ġresidual": 9243,
      "phin": 9244,
      "pin": 9245,
      "ĠLem": 9246,
      "Ġeastern": 9247,
      "Ġspend": 9248,
      "ĠDNA": 9249,
      "vy": 9250,
      "ĠRaj": 9251,
      "Ġwaiting": 9252,
      "ifest": 9253,
      "Ima": 9254,
      "Ġnegot": 9255,
      "Ġarts": 9256,
      "Cur": 9257,
      "Ġfacts": 9258,
      "Ġcerem": 9259,
      "Ġvolunte": 9260,
      "Ġcommut": 9261,
      "ogram": 9262,
      "HD": 9263,
      "About": 9264,
      "gather": 9265,
      "craft": 9266,
      "Ġclient": 9267,
      "ĠMinnesota": 9268,
      "Ġwins": 9269,
      "Ġcomplicated": 9270,
      "Ġstopped": 9271,
      "Ġoutcome": 9272,
      "ãģ": 9273,
      "Ġhybrid": 9274,
      "{.": 9275,
      "isor": 9276,
      "Ġsolo": 9277,
      "ĠĠĠĠĠĠĠĠĠĠĠĠĠĠ": 9278,
      "uable": 9279,
      "Ġcriteria": 9280,
      "UC": 9281,
      "1955": 9282,
      "Oh": 9283,
      "Ġpopulations": 9284,
      "ĠBrand": 9285,
      "Ġalgebraic": 9286,
      "true": 9287,
      "Ġreaders": 9288,
      "]^": 9289,
      "Ġtemporal": 9290,
      "Ġchallenging": 9291,
      "Mark": 9292,
      "Ġcorrelations": 9293,
      "even": 9294,
      "rizona": 9295,
      "ĠDer": 9296,
      "Ġhun": 9297,
      "Ġcampus": 9298,
      "have": 9299,
      "Ġsight": 9300,
      "Ġmechanisms": 9301,
      "ĠOlympic": 9302,
      "was": 9303,
      "Ġsole": 9304,
      "Ġdefect": 9305,
      "Ġlose": 9306,
      "lers": 9307,
      "Ġdoctor": 9308,
      "Ġgall": 9309,
      "Ġapproved": 9310,
      "Ġconnections": 9311,
      "tages": 9312,
      "ĠStaff": 9313,
      "df": 9314,
      "Ġaware": 9315,
      "Ġresistance": 9316,
      "abet": 9317,
      "eral": 9318,
      "ĠRome": 9319,
      "Ġabuse": 9320,
      "Ġrealized": 9321,
      "Ġidentification": 9322,
      "asty": 9323,
      "ĠLewis": 9324,
      "urity": 9325,
      "Following": 9326,
      "Austral": 9327,
      "Ġdebate": 9328,
      "Ġcodes": 9329,
      "PYG": 9330,
      "Ġly": 9331,
      "owski": 9332,
      "Ġfits": 9333,
      "Ġmoder": 9334,
      "Ġcollision": 9335,
      "Ġnob": 9336,
      "ĠLocal": 9337,
      "Ġcreative": 9338,
      "ĠTurkey": 9339,
      "utr": 9340,
      "ĠBudd": 9341,
      "Ġgiant": 9342,
      "Ġinfrastructure": 9343,
      "Ġoccasion": 9344,
      "ĠSimilarly": 9345,
      "Ġelectro": 9346,
      "Ġretail": 9347,
      "Ġorientation": 9348,
      "elle": 9349,
      "ĠArgent": 9350,
      "Ġmarkets": 9351,
      "ĠAND": 9352,
      "Ġquery": 9353,
      "Ġille": 9354,
      "organ": 9355,
      "ĠRose": 9356,
      "Ġskin": 9357,
      "ÙĦ": 9358,
      "ĠSD": 9359,
      "Ġcha": 9360,
      "Ġcomprehens": 9361,
      "phy": 9362,
      "ples": 9363,
      "Ġaband": 9364,
      "Ġproposal": 9365,
      "ĠMedicine": 9366,
      "1946": 9367,
      "ĠGuide": 9368,
      "parallel": 9369,
      "iga": 9370,
      "ixture": 9371,
      "Ġconvolution": 9372,
      "ĠProb": 9373,
      "ĠSign": 9374,
      "inals": 9375,
      "ĠCub": 9376,
      "ativistic": 9377,
      "ĠAD": 9378,
      "ĠStadium": 9379,
      "1941": 9380,
      "Ext": 9381,
      "Ġrapidly": 9382,
      "ĠCru": 9383,
      "Ġintelligence": 9384,
      "OV": 9385,
      "ĠMatt": 9386,
      "arting": 9387,
      "cknowledg": 9388,
      "ĠNations": 9389,
      "ĠID": 9390,
      "ĠBrother": 9391,
      "idi": 9392,
      "Ġarrested": 9393,
      "imental": 9394,
      "}.}": 9395,
      "overset": 9396,
      "present": 9397,
      "Ġannounce": 9398,
      "writer": 9399,
      "Ġfaces": 9400,
      "Ġrout": 9401,
      "PL": 9402,
      "Ġwhatever": 9403,
      "ĠMiller": 9404,
      "Ġstatements": 9405,
      "Ġrestriction": 9406,
      "Ġratios": 9407,
      "aron": 9408,
      "{|": 9409,
[...]
