#version: 0.2
Ġ t
h e
i n
Ġ a
e r
o n
Ġt he
r e
a t
e n
Ġ o
Ġ s
a n
o r
i s
a l
i t
e d
e s
Ġ w
a r
Ġ c
Ġo f
Ġ f
n d
Ġ in
i on
Ġ p
Ġ b
i c
in g
Ġa nd
a s
r o
Ġ Ġ
l e
Ġ m
Ġ d
Ġt o
o u
en t
i l
Ġ h
e l
Ġ S
c t
o m
s t
Ġ C
Ġ T
Ġ re
a m
e t
Ġ A
Ġt h
o l
i g
Ġ \
at ion
Ġ l
Ġ n
r a
Ġ (
Ġ e
o t
i m
Ġ M
i v
Ġ $
Ġ is
i d
c h
u r
c e
Ġf or
u t
u s
Ġ I
Ġ B
l y
Ġ g
Ġ on
â Ģ
Ġ P
er s
a d
2 0
o w
i r
1 9
ĠĠ ĠĠ
Ġ H
Ġb e
it h
a y
e m
u l
Ġa s
t er
Ġs t
Ġw as
Ġ R
u n
Ġ F
is t
Ġ D
u m
Ġth at
Ġ L
Ġw ith
ĠT he
v er
t h
he r
o s
Ġa l
Ġc on
a b
Ġ W
{ \
an d
Ġ N
Ġ G
a g
Ġb y
q u
Ġa n
i f
o d
Ġp ro
Ġw h
o p
Ġ E
r i
a c
Ġa t
Ġ v
es t
e ct
ro m
e c
re s
it y
a v
Ġ J
at e
ig h
en d
o c
Ġc om
a in
Ġ it
p p
Ġf rom
Ġ Ċ
ar t
i es
Ġ he
e g
il l
at h
_ {
Ġ O
o re
u b
e w
al l
Ġe x
Ġa re
' s
u d
an t
e p
or t
Ġo r
es s
s e
b er
igh t
a k
u re
i al
l d
e f
m ent
Ġ U
u p
iv e
i an
g e
a p
Ġ$ \
Ġ K
ar d
ic h
in e
T he
p h
Ġ r
20 1
i a
n t
at ed
âĢ ĵ
ou r
o v
m ath
Ġp l
Ġ y
Ġ "
Ġc h
ar y
o g
i p
ion s
u nd
el l
e x
Ġw e
ĠS t
e ar
ic al
Ġ &
ĠI n
u st
20 0
Ġs p
on g
Ġs h
Ġ le
Ġh is
č Ċ
u g
as t
r an
av e
it e
Ġcom p
i z
Ġn ot
} \
Ġs e
ig n
am e
a re
} $
Ġ V
Ġwh ich
u e
^ {
o st
âĢ Ļ
u c
i re
ĠC h
k s
as s
or d
Ġ k
ul t
Ġth is
) ,
Ġ us
ĠĠ Ġ
c l
er e
ct ion
is h
ĠĠĠĠ ĠĠĠĠ
m er
s o
t her
f f
Ġd e
ation s
0 0
p t
en c
p l
ra c
p er
1 8
en s
f t
or m
Ġc l
ag e
Ġre s
Ġh ave
Ġw he
en ce
Ġh as
Ġ un
ou s
re f
r ic
Ġw ere
t a
Ġal so
it ion
m a
or k
r y
id e
ac k
on d
er v
in t
Ġcon t
om e
im e
Ġin t
} }
Ġs u
( \
Ġa b
i b
Ġ -
Ġ |
ou t
an g
a ce
ter n
Ġc an
) .
Ġa d
ic e
ou ld
ir st
Ġa r
Ġal l
a ct
a ch
ex t
ou nt
Ġ =
ĠT h
Ġa pp
Ġ j
or y
ĠU n
eg in
r it
c c
o k
ĠH e
o ver
Ġp art
b egin
i e
il d
ab le
Ġ im
ow n
ol l
c al
er m
w o
Ġon e
f er
as e
at es
r u
Ġthe ir
) $
i k
ou nd
ation al
_ {\
re e
I n
Ġ Y
Ġh ad
ĠI t
19 9
in d
ent s
or s
Ġ ro
Ġ âĢ
he d
Ġpl ay
Ġf irst
Ġb ut
al ly
e y
Ġit s
cl ud
ol d
el y
en er
Ġd is
an ce
. .
Ġwh o
Ġ âĢĵ
am p
1 0
res s
} {
r m
f ter
Ġt e
n g
i le
Ġ| |
f orm
Ġp er
at er
an y
r ight
or n
p ort
ra d
l ic
ar k
t he
f rac
e op
Ġre c
a w
Ġt wo
Ġa g
Ġo ther
e q
ug h
Ġy ear
Ġm e
enc es
ĠA l
Ġo ut
v el
w e
eop le
e qu
l and
on s
o b
Ġe v
ri b
ic s
Ġbe en
os e
\ \
mer ic
} ,
Ġ her
Ġbe c
Ġs c
t e
s s
is s
Ġthe y
it ed
le ct
ect ion
iv ers
l es
Ġd es
Ġp re
ab el
o ol
Ġ qu
ing s
i ed
ro w
Ġo ver
ran s
em ber
d u
Ġm ore
a il
Ġ up
t ext
Ġcom m
as ed
on e
math b
g h
an s
ur n
19 8
und er
o y
Ġt ime
s p
Ġin clud
âĢ Ŀ
Ġm od
o od
Ġ en
Ġcon s
Ġw ork
Ġw ill
c ite
ul ar
al s
ro p
Ġn ew
w ard
o int
il m
ak e
Ġd o
Ġin d
r am
i o
Ġy ou
ur ing
Ġs y
$ ,
on t
o ot
l abel
i el
ĠN ew
$ .
v e
1 2
Ġb et
oll ow
am b
Ġint o
ol og
Ġo b
, \
Ġin ter
h ip
Ġas s
ĠC om
Ġa ct
Ġs ub
equ ation
Ġre g
ĠM ar
1 7
Ġ under
ef er
im es
c ent
a us
math cal
v i
at ive
Ġof f
ra ph
ic t
ut ion
ĠA meric
Ġwhe re
e e
le ft
Ġwhe n
ou gh
an c
Ġs o
re d
j ect
} )
Ġre l
i x
Ġa fter
R efer
Ġp eople
Ġw ould
ch ool
Ġthe re
Ġk n
Ġn e
19 7
1 5
Refer ences
Ġd ef
it ies
Ġon ly
Ġab out
t ain
} .
Ġsu ch
an n
or ld
re n
r al
ro und
ver y
Ġa cc
id ent
Ġth an
p s
ro ugh
Ġfor m
res ent
in ce
Ġs et
l l
1 6
Ġs he
ar i
Ġp ol
Ġl oc
} (
u al
ad e
if ic
iel d
Ġf ollow
Ġc o
at ing
ĠâĢ ľ
we en
ay s
t s
b all
Ġex p
l ine
ot h
in al
Ġs erv
f ig
p r
et a
Ġn um
ub lic
} ^
Ġs ec
Ġd ec
ist s
ro up
Ġd if
Ġs ome
ĠA r
Ġst ud
Ġd ist
p ro
Ġat t
d uc
Ġt rans
ĠTh is
is ion
w n
g an
d er
c ess
ivers ity
~ \
ic k
il y
Ġ if
Ġbet ween
Ġthe n
y s
d a
oc k
o h
Ġp r
} _
ph a
Ġf l
o ok
19 6
is hed
Ġf ilm
t on
n e
Ġp h
st em
et h
y p
ĠD e
Ġin v
ar g
Ġp os
Ġpro v
ĠĠĠĠ ĠĠĠ
Ġan y
ik e
al pha
oc i
Ġc ol
2 1
as on
a x
Ġthe m
Ġl in
t ed
Ġm ost
ur y
u res
t o
Ġ est
1 3
ĉ ĉ
is e
in ed
a id
Ġg ener
a h
1 4
Ġ +
ow er
Ġt ra
re at
Ġyear s
ire ct
ou th
Ġin c
m b
Ġf e
in s
he s
at a
if e
ou n
Ġb u
Ġsh ow
it s
ĠL e
a ir
Ġ Z
is m
ab l
Ġm an
am es
or th
a pp
e ver
ĠS h
Ġ ra
Ġre m
em ent
Ġres ult
Ġh im
o f
ment s
i er
Ġn o
ĠAmeric an
ĠP ro
Ġus ed
el ta
Ġth rough
amb da
c om
E x
Ġc ent
) \
over n
h at
m an
ĠW e
il ity
Ġsp ec
Ġa c
ra y
Ġag ain
= "
t t
Ġcon st
he n
$ \
ar s
u es
Ġs im
el s
Ġm ay
Ġad d
Ġo ur
am ma
at ure
1 1
ĠI nd
o x
Ġre p
as h
Ġdif fer
ĠUn iversity
Ġthe se
Ġsu pp
em b
Ġ ed
ĠUn ited
ov e
Ġb l
Ġw ell
Ġa m
s c
Ġf un
Ġ ent
_ \
vel op
Ġf ound
ĠS p
ru ct
19 4
us s
i ent
Ġcl ass
al e
Ġsy stem
er n
ra ct
a z
m u
Ġg o
w ay
ar n
ib le
ĠF or
19 5
ĠA n
in n
Ġth ree
id er
aus e
Ġre t
a j
Ġ end
t en
Ġd uring
3 0
e v
Ġe ff
ĠS c
h o
mathb b
c on
ers on
Ġf am
ou se
Ġ Q
Ġres p
Ã ©
ĠC ol
iz ed
Ġm at
Ġd ep
2 2
el f
Ġe qu
ot s
Ġnum ber
le m
ion al
Ġ {
tern al
Ġv al
= \
} ^{
t ing
Ġar t
Ġ\ \
} _{
Ġm on
Ġc or
r on
ut e
Ġte am
er ies
ul l
Ġe ach
ig ma
ĠA s
Ġs ign
e b
m in
u ch
iv ing
Ġs m
ĠC l
Ġp ar
Ġin st
Ġd et
Ġm ade
Ġs ing
Ġs ur
iz e
Ġle ad
t y
ar ly
2 5
us ic
s ub
Ġex t
ce pt
Ġsec ond
iv es
Ġg roup
od e
Ġp oint
in a
eg a
- -
an k
in es
oot ball
Ġc all
Ġbe ing
o ber
ot her
Ġdis c
et s
Ġo per
Ġb oth
Ġs aid
Ġc ount
at her
Ġre le
ow ever
Ġcomp le
- \
^ {\
iv en
p le
Ġm any
Ġs ame
Ġh igh
ph i
Â ł
iv er
g y
t le
Ġf in
oh n
ur al
iv ed
Ġ [
en g
Ġd irect
an ge
) ;
Ġ <
ic es
Ġst ate
ĠE ng
Ġb ack
Ġst r
ist ory
Ġe m
Ġm in
ĠSt ates
Ġpart ic
Ġ {\
l ambda
ut h
al ign
ĠI s
Ġm ed
ĠĠĠĠĠĠĠĠ ĠĠĠĠĠĠĠĠ
i am
Ġus e
en n
00 0
Ġc ur
ric t
ĠS he
T h
le y
Ġwh ile
. "
olog y
Ġch ar
ar l
p os
f ore
Ġv ari
om en
Ġp op
at or
ĠC on
Ġde velop
ant s
Ġpro b
Ġw rit
ical ly
Ġc re
b f
p art
Ġlin ks
Ġplay ers
ĠCom m
/ /
ep t
Ġ .
. ,
Ġdiffer ent
Ġs chool
un e
p en
ire d
in c
ro ss
b um
Ġm ov
y n
p i
ot e
Ġbe fore
S t
iz ation
Ġkn own
Ġper form
s h
Ġinclud ing
Ġfollow ing
ag es
ul ation
th s
ir c
Ġl ine
Ġt erm
mathb f
il on
Ġrec ord
Ġl ater
g ram
ap t
Ex ternal
Ġe lect
ak ing
re nt
Ġs ol
oun c
2 4
og raph
Ġf our
Ġapp ro
in k
du ct
Ġdes c
l ed
Ġo wn
ĠC ount
Ġb el
Ġl ong
overn ment
ĠB l
iss ion
ar ri
Ġm ain
et er
f ul
Ġc ase
a u
Ġl ike
Ġor der
r id
ĠJ an
v ed
Ġe le
ĠP h
Ġn on
2 3
Ġse ason
ĠM ay
ĠF ran
Ġc ould
tern ational
ĠO n
b y
er t
Ġagain st
ĠJ ohn
Ġwh at
Ġj ust
Ġp ublic
ĠA d
al ity
r ing
f l
are d
u ally
Ġst art
ag ue
" ,
s igma
ĠN ational
Ġcons ider
Ġcont in
s y
W e
Ġr ight
Ġd ata
Ġb ir
Ġg u
ch n
" .
^{ -
s ection
Ġmod el
ub l
} {\
b ar
Ġf act
Ġre qu
as es
vi ew
ial ly
Ġsupp ort
it ions
19 3
Ġc are
ĠW orld
ur ch
Ġ X
c es
ild e
Ġn ow
he re
i ence
is ter
Ġest abl
Ġs ince
i or
re t
it al
f or
Ġal bum
Ġsm all
Ġbec ause
s um
ect ed
Ġf ootball
b eta
e an
Ġ( \
Ġor ig
ĠP l
Ġ '
Ġd r
al th
Ġf ield
r ist
Ġp res
s on
iv ely
Ġs eries
at ic
ĠA ust
Ġse e
Ġcomm un
ep s
5 0
v ent
m p
et y
w id
ian s
Ġbec ame
ĠC an
g amma
ar ge
is c
a i
Ġbu ild
Ġg iven
v en
Ġfam ily
Ġd id
Ġfun ction
Ġex per
k e
math rm
c ol
Ġret urn
ĠY ork
* }
Ġn ame
s et
Ġpol it
Ġt r
u ary
ĠA nd
t il
+ \
Ġl ife
ĠJ u
amp le
duc ed
ĠN ov
Ġse ver
Ġe very
ĠB rit
Ġan n
Ġus ing
enc y
ar m
Ġt yp
Ġne ed
le t
Ġw orld
Ġv i
Ġ }
o o
ĠS chool
r is
Ġ very
Ġdes ign
in ess
Ġeff ect
du ction
r and
ar ch
ĠCount y
ĠC ent
Ġre ce
form ation
Ġo pen
c k
Ġr un
20 20
201 0
c d
ĠO r
p or
g et
C h
in ing
r ho
ain s
Ġpro f
ĠW ar
Ġch ild
ri pt
m m
^ \
emb ers
Ġth ose
Ġl aw
ug ust
Ġb ro
Ġs ong
ĠS outh
2 6
i ous
i qu
ĠâĢ Ķ
id ed
v ers
2 7
Ġde ath
Ġp resent
Ġg et
Ġpro gram
m e
aj or
\\ \\
ept ember
2 8
qu ad
ar ray
Ġor gan
iv al
Ġm usic
or ks
if ied
Ġm y
ĠA ss
d elta
y le
er ing
] {
s erv
a f
Ġoff ic
the ta
Ġun til
Ġev en
ĠR e
p ut
$ -
) }
ĠO ct
Ġb ased
Ġm et
an e
ĠG erm
ta u
r ation
i um
Ġcall ed
201 6
le q
ĠMar ch
am ed
Ġrep resent
ĠE x
201 8
ĠA t
os s
ot t
201 7
Ġdesc rib
ward s
Ġ x
ir d
Ġex pl
d ay
ar row
m ber
Ġ i
ĠT e
Ġs l
is ed
ĠG e
201 4
pr il
201 5
Ġre port
as k
Ġp erson
u rop
Ġinc re
201 1
Ġchar act
ĠA ugust
le ge
20 19
eth od
ĠS eptember
Ġloc al
n er
ist or
us iness
Ġs uc
}$ .
Ġhe l
n ess
ĠJan uary
201 2
Ġare a
re en
}$ ,
ĠW h
om an
Ġl ast
ĠJ une
o ard
Ġg ame
ill ion
ce mber
201 3
Ġl ist
at t
Ġsever al
2 9
} (\
ĠAl l
ĠOct ober
b ig
Ġl arge
Ġh ow
Ġc our
ĠThe y
Ġm ake
ĠJu ly
fig ure
ĠR ep
Ġpro cess
Ġn ear
t imes
Ġpl ace
Ġc ap
m ed
O n
ro l
ran g
Ġ z
ĠP ol
amp ions
end ed
< /
ur ther
Ġcon d
at ely
Ġg overnment
Ġw ay
Ġpos s
vi ous
Ġre st
le v
Ġa round
ĠA pril
id es
200 8
v al
Ġst at
Ġo cc
um n
l ish
Ġp ass
ĠSt ate
200 9
us e
er y
| -
ab ility
ĠP r
ow s
rac k
Ġ ,
b orn
ver t
v es
Ġp ower
eq ref
Ġfor mer
n u
r um
Ġal ong
il it
ent ly
Ġst and
ĠAust ral
Ġre f
4 0
ĠDe cember
ĠNov ember
ak es
Ġsh ould
.. ..
I t
ĠU S
ĠN orth
Ġdo es
av ing
. âĢĿ
it em
ĠC ity
Ġf ind
os ed
Ġto p
part ial
Ġd ue
ĠG u
uth or
re ad
u ed
ĠE urop
Ġim port
ĠĠĠĠ Ġ
on y
a e
our n
rib ut
ft y
Ġwith in
en se
ord ing
il t
Ġgener al
Ġe arly
Ġle g
Ġm uch
b s
ĠC al
ang u
Ġplay ed
ĠM an
i od
200 7
s ide
in fty
ĠI I
s ec
ep end
Ġre fer
Ġan al
ac es
Ġc ity
er r
ĠE d
ĠA f
Ġpro per
a im
Ġhe ad
Ġd own
Ġw on
eq n
e k
Ġsing le
Ġh and
t ilde
Ġp ubl
al k
st it
Ġrele ased
Ġresult s
ag n
Ġpro t
Ġl it
ĠH owever
eb ru
ol ution
ĠCan ad
Ġw omen
Ġl and
Ġle ft
Ġre ad
Ġt rad
ebru ary
Ġcon f
ent ial
200 6
Ġ rad
ĠC o
Ġst ill
ur s
en e
Ġapp ear
Th is
oc ial
Ġcur rent
Ġt ri
ĠB e
Ġm embers
ĠBrit ish
Ġis s
Ġst ruct
Ġm ult
Ġd em
om ega
p ar
Ġl im
Ġadd ition
Ġre al
Ġ *
et w
re l
al es
Ġa v
Ġme as
p m
Ġprob lem
Ġob tain
r t
res p
Ġhel p
Ġen g
un g
ĠW ill
ĠĠĠĠĠĠĠĠ ĠĠĠ
Ġob serv
od y
ĠCh rist
ĠC ar
ograph y
Ġh ome
ra w
ĠR es
ap an
Ġle vel
wid th
Ġkn ow
he m
at s
Ġad v
Ġm ajor
uc k
as ter
19 0
1 00
Ġb and
ĠR eg
om in
ĠF l
Ġm ark
um an
Ġm ass
Ġt it
l ess
Ġm ethod
| \
ĠK ing
D elta
Ġresp ect
ain ed
Ġv ers
o ad
Ġl arg
ff ic
er ed
H e
ĠF ebruary
Ġ ener
ore m
ore d
h am
Ġsuc cess
Ġte chn
Ġcomp any
Ġv is
Ġd ay
Ġcomp et
Ġp at
ri x
ĠLe ague
h i
it ive
ord s
Ġt ake
F or
Ġev ent
up er
l ing
con om
Ġg l
v ar
ampions hip
is on
Ġcare er
Ġpro ject
ĠS ec
ĠM in
x i
Ġ ident
Ġb ound
Ġb est
il le
om et
Ġinter est
Ġman ag
A l
ug g
i pp
er tain
end s
Ġ el
g or
rib ution
Ġo pp
e ed
a ugh
S ee
ĠS y
Ġbir ths
Ġt est
o le
Ġp ost
Ġf inal
ĠP art
il ar
Ġsp ace
he st
cent ury
c it
Ġin formation
s k
Ġt em
i ef
z e
Ġc ar
ac ed
Ġth ough
ren ch
ed er
Ġin it
le ction
id d
ĠM c
\ ,
Ġfilm s
Ġm ember
l er
ure d
sp ace
Ġc rit
A s
anc es
our ce
A meric
Ġper iod
d ef
ĠA rm
ĠP ar
re m
lev ision
in o
Ġan other
ĠM ed
if y
Ġ u
200 0
âĢ Ķ
' t
n ot
Ġo pt
Ġbe gan
200 5
Ġto wn
ĠH is
ri es
Ġb usiness
Ġo ld
os p
6 0
Ġa ff
Ġbe h
Ġn ational
.. .
ect or
at ors
Ġto t
Ġs um
Ġed uc
es e
Ġf re
i j
18 9
)$ .
Ġsh ort
re g
u le
ĠY ou
Ġcharact er
Ġg ood
Ġhe ld
w here
Ġh istory
re w
ĠA fter
Ġre se
an a
e ad
Ġim p
Ġcon c
ĠW est
ra ft
cd ot
Ġpartic ular
ent al
} }\
ĠN o
um e
ĠGe or
g round
th ough
Ġto ok
l in
Ġinclud e
ap er
ĠH ar
ur g
u k
ad em
Ġinv est
ĠA b
ĠAf ric
at ch
Ġpar am
Ġy our
Ġpro m
ĠB ar
Ġ /
} [
Ġn amed
ĠThe re
iv id
er o
ĠEng lish
Ġpop ulation
c hes
Ġener gy
o or
Ġ$ (
ĠE l
Americ an
Ġprof ess
ĠJ apan
Ã ¡
ĠD ist
ĠĠ Ċ
c ed
al f
ĠS w
g es
Ġestabl ished
c o
Ġex ample
âĢ ľ
Ġb as
in ation
Ġin f
Ġval ue
ru ction
Ġpre vious
Ġde b
eqn array
pl oy
Ġwith out
oci ation
Ġm ust
Ġd el
ond on
Ġcount ry
Ġchild ren
Ġs k
ĠS e
ĠP res
ĠR uss
e ak
Ġc r
al d
200 4
Ġh ig
Ġa uthor
Ġcl ub
ĠC or
Ġb ook
a ul
eps ilon
Ġh ouse
20 21
ir on
Ġdescrib ed
in clud
angu age
ent ion
row n
resp ond
Ġall ow
$ $
Ġj o
ing ton
Ġg rad
ĠCol lege
i et
Ġc amp
Ġs it
Ġloc ated
um b
w w
Ġf ive
f ord
iv ision
s q
Ġint ro
Ġch ang
Ġrece ived
} _{\
C om
Ġn ext
Ġst re
O m
Ġs ection
, âĢĿ
8 0
ĠB ut
ilit ary
es p
Ġab ove
Ġimport ant
Ġa ge
Ġv ill
Ġcon n
Ġ :
ĠR ec
ard s
g er
op e
l im
Ġe p
Ġact iv
ĠA m
Ġinv ol
Ġf ew
g ed
A n
Ġpubl ished
Ġtot al
ific ation
Ġs ix
Ġstud y
um ent
ain t
Ġsim ilar
ĠA ct
Ġg ames
Ġt urn
w h
Ġl a
s im
ĠF ig
Ġg reat
ounc il
e al
on es
Ġh old
G amma
em pt
3 5
art ment
ps i
olog ical
^ *
ang le
Ġcent ury
oo ks
4 5
Ġd en
ĠL ondon
ener al
x im
Ġm illion
Ġserv ed
etw ork
Ġc le
P ro
at ter
ide o
Ġth ird
ps ilon
mb ol
arri ed
Om ega
ic le
Ġest im
Ġst ation
w ays
Ġam ong
ap e
Ġre pl
ĠI f
Ġbe g
3 1
ĠE n
ur b
ist ic
)$ ,
Ġd eg
im ens
a ff
Ġof ten
Ġw ant
ear ch
es tern
Ġf ac
Ġc al
Ġbu ilt
ĠA ir
ĠD av
l i
ĠH ouse
f ield
ch i
Ġorig inal
ĠWill iam
ĠB y
Ġle arn
Ġb orn
Ġt imes
ĠAr t
um ber
Ġm en
b l
f ic
b e
Ġw ater
c hed
Ġserv ice
op h
Ġhe re
Ġl ow
se qu
col or
at ures
ĠH igh
ĠF rench
Ġpoint s
Ġs at
ric k
s elf
are nt
U n
Ġs cal
Ġs ide
ight s
v are
or ies
Ġv ol
Ġs ay
Ġcor respond
200 3
us h
Ġb re
es c
ĠD ep
ĠH er
Ġc over
Ġpro duct
Ġex ist
sq rt
m it
re st
oci ety
our ces
Ġbuild ing
Ġcom b
Ġ et
ab or
Ġcl aim
Ġd i
Ġf ull
r ont
Ġvi ew
" >
Ġ$ {\
ra k
Ġl ess
Ġcommun ity
cent er
Ġdet erm
ĠCom p
st and
he l
Ġinclud ed
Ġa ir
Ġ ide
Ġw ar
y l
Ġint eg
Ġstr ong
7 0
Ġf ore
i ber
ac ks
ĠIn ternational
ĠP ark
ict ion
Ġshow s
) )
Ġd er
Ġreg ion
Ġro le
ĠB ro
vare psilon
b le
ak en
Ġc ult
ra p
inn ing
Ġcomp ut
ĠG l
3 3
Ġbec ome
b ack
ct ions
raph ics
ĠA ng
200 2
: //
u ation
right arrow
lect ed
o ff
Ġa ver
Ġspec ial
it her
Ġme an
ec ut
ith m
ort s
Ġrese arch
ref ore
et ers
Ġp ract
Ġar ch
Ġspec ies
Ġdevelop ment
Ġ čĊ
Ġle t
Ġf urther
ĠS ch
n a
Ġph ot
op er
un ic
Ġp ot
Ġcont rol
sub section
Ġsign ific
ens ure
end ing
Ġind ivid
Ġw orks
ĠDist rict
if orn
od es
ĠIt al
Ġth ink
on st
} =
A R
Ġg row
Ġst ates
Ġpro pos
Ġph ys
^{ (
200 1
iqu e
is ing
Ġterm s
Ġyou ng
ot es
Ġcomm on
id ence
Ġte levision
}^ {\
ra g
ĠCh ampionship
ĠGerm an
ĠA g
ĠPh il
Ġob ject
Ġem ploy
ab ly
Ġdisc uss
text bf
Ġf und
h old
oc us
iforn ia
epend ent
Ġe conom
ourn al
i us
og n
Ġs ocial
am a
os ition
Ġin s
18 8
fl u
Ġvari ous
Ġrel ations
ap s
9 0
Ġplay er
Ġpos ition
r ant
ĠO ne
Ġhe alth
am pl
Ġh aving
min ist
Ġ\ ,
Ġd on
ail able
b m
' '
) =
ĠT o
Ġd ied
ĠThe se
d e
it or
Ġl ook
Ġan t
Ġc ou
Ġsh own
ly mp
v iron
Ġin ternational
our s
A S
n ing
du ce
Ġfe ature
im al
Ġp ri
iv il
Ġwrit ten
Ġe as
Ġk ill
at tle
7 5
ĠM ich
Ġm ot
apt ion
o id
) :
le x
Ġposs ible
Ġal ign
Ġst yle
Ġpre d
r ated
ens ity
ra in
ial s
ĠP er
Ġch o
Ġc ame
o on
eng th
Ġtit le
c ul
il es
ĠC our
Ġtyp e
Ġst ory
pl ay
ĠC up
op s
t ies
ĠPres ident
in ally
Ġstud ents
et ic
ud e
rang le
Ġh istor
c m
ĠInd ian
ounc ed
Ġc oll
includ eg
includeg raphics
f ace
if f
Ġexp ress
Ġch ange
E R
Ġf ree
ĠCal ifornia
m y
d om
m od
rid ge
Ġpr iv
use um
orm al
Ġs w
av y
Ġa ut
Ġpolit ical
Ġh uman
em ph
ep ar
Ġconsider ed
ĠL a
ys is
Ġim pro
yp e
ĠAmeric a
Ġl ed
Ġfollow s
Ġn orth
Ġass oci
ĠS an
Ã ³
Ġp ort
Ġh owever
Ġs on
w ith
oy al
c aption
\\\\ \\\\
ĠM on
c ast
ĠEng land
Ġsp ect
n on
ar a
Ġc ost
i ents
ĠRep ublic
n ow
land s
ĠM e
A T
ĠA c
3 6
h ib
get her
Ġto gether
ix ed
om b
ĠQ u
Ġg en
b or
y m
Ġt w
if t
18 6
Ġf ri
at ural
Ġle ast
r ig
Ġav ailable
ĠSt re
var phi
ch ie
Ġval ues
Ġind ust
Ġqu est
Ġpr im
Ġn ov
199 0
ĠW hen
ĠR iver
Ġvers ion
Ġev ents
Ġs ent
. ~\
Ġne ver
Ġsignific ant
ĠAustral ia
ut ure
Ġd ays
an ish
gor ithm
c he
ic o
3 2
cl us
Ġperform ance
t ab
b old
ic y
Ġstart ed
er a
e le
Ġw ent
Ġserv ices
Ġar g
Ġ enc
m ost
Ġf ather
Ġvill age
ĠS m
Ġpro duction
3 4
a ut
over line
Ġl ight
ge q
Ġappro xim
Ġs ite
Ġa ction
a ction
a el
or ph
Ġw in
ĠE ast
ĠInd ia
Ġf ocus
Ġmod els
Ġbel ie
viron ment
ro ll
her n
u x
Ġs outh
B C
pro of
Ġl ate
ic a
ac y
Ġwork ing
Ġmult ip
Ġestabl ish
Ġqu ant
C on
u pp
199 9
t ime
l og
Ġstruct ure
Ġp ut
her s
u el
Ġapp lic
as ing
Ġpl an
Ġre d
Ġs ize
& \
Ġst ar
ĠPart y
Ġac ross
ob al
I N
Ġdist rict
S p
Ġdef ined
ĠCh urch
r ary
Ġpro duced
S T
ĠW ith
Ġs old
Ġcre ated
ar ies
Ã Ń
Ġgroup s
3 8
Ġaver age
B ig
e h
and er
Ġmov ed
Ġme et
Ġc irc
Ġro und
, "
r ate
Ġgo ing
ect s
Ġp o
L iving
Ġprov ide
Ġre view
ĠCanad a
Ġse en
et t
P eople
e ep
ain ing
yn am
al t
) ^
Ġwe ek
n o
ir l
Ġh alf
ut ions
fer ence
ir m
Ġc ross
ers hip
it te
ar ian
Ġcomple x
Ġc ases
ac hed
Ġind ic
Ġsur v
Ġm aking
Ġeng ine
Ġm ater
Ġs epar
mm et
ĠA ward
is f
ĠC ouncil
Ġann ounced
ĠD r
Ġr ange
ot ed
Ġpartic ip
Ġb i
. }
Ġh ost
em ents
4 8
ĠEurop ean
I D
ur ity
n ey
Ġf em
Ġf ail
ĠFran ce
Ã ¼
ĠB er
Ġab le
Ġdist ribution
ĠIn stit
il ities
Ġa ward
i i
Ġpres ident
w ide
ol ic
Ġtra ining
w are
199 8
ĠâĢ ĺ
* *
Ġthe ory
Ġacc ess
ĠCour t
ĠA pp
L et
Ġh om
h a
Ġs elf
im ent
Ġv ideo
9 9
Ġ Â
ugg est
}, \
oc r
it ing
3 7
am s
Ġc aus
Ġn etwork
Ġm iss
I I
n ew
Ġof fer
ĠSt ud
Ġwork ed
y ear
idd le
an ies
err or
ĠL aw
ĠT r
Ġsystem s
} ).
Ġm ilitary
Ġ `
C l
ord er
ec ess
Ġbec om
ce ed
ro te
Ġg round
ĠV al
ĠP al
ĠJ ames
Ġag re
Ġdeath s
Ġbl ack
ul a
v ing
c le
Ġacc ount
Ġbro ad
ĠB el
ĠCh ina
Ġcons ist
Ġother s
Ġmeas ure
Ġn eg
Ġm ale
ĠS en
im um
Ġt aken
ĠA nt
C A
Ġele ction
ell s
st er
ĠArm y
Ġme ans
Ġm agn
ĠA cc
ill s
Ġc he
am ent
o e
Ġeduc ation
Ġvi ol
Ġbet ter
[ \
Ġs om
b ra
Ġs uggest
h line
ort hern
ĠO lymp
H istory
ra b
eder al
4 4
Ġr ate
em s
Ġl ower
ĠP aul
Ġd oc
it z
Ġk ey
ĠCh ar
198 0
ĠG eneral
v ille
f rak
Ġp aper
Ġmat ch
Ġin flu
Ġl ik
Ġpop ular
ĠM or
ĠR ober
Ġt re
Ġm er
bs ite
ĠP ort
ĠTh om
se e
Ġdet ail
ĠD em
b it
inc ip
c er
Ġd iv
ĠM y
199 6
Ġpro duc
Ġcon v
L ambda
v ec
ash ington
ition al
-- --
g ress
Ġr ul
Ġhig her
Ġe ither
c y
Ġse qu
Ġfe atures
ĠF irst
20 22
Ġapp oint
at ives
u f
Ġh y
ĠStre et
Ġto o
ĠM al
Ġa chie
d d
Ġh ard
} }$
Ġreport ed
Ġappro ach
he ad
18 7
5 5
ĠS o
Ġare as
Ġep is
P l
Ġl oss
Ġsh ip
199 7
Ġatt empt
ĠCent er
3 9
Ġrec ogn
Ġh app
ou ther
Ġ ill
ĠR oman
ĠAss ociation
r im
ag o
ar th
ĠR ed
ĠDav id
ĠThe n
Ġde v
Ġp ay
ĠGeor ge
it ect
Ġa way
Ġf ar
Ġass um
ĠS erv
h ood
Ġpot ential
il i
Ġmark et
Ġ #
Ġh on
cept ion
Ġal ways
l angle
Ġm ax
at ory
outher n
a ign
Ġs em
Ġp ast
ld ots
Ġb ase
s el
Ġobtain ed
m on
id ing
read y
ĠQ ue
ĠDep artment
Ġc ertain
Ġatt ack
Ġm om
b ased
Ġdeb ut
y a
s m
le g
O N
ĠH ol
ĠR ich
math frak
ib ility
ab les
Ġl anguage
ly ing
ot a
Ġp ress
Ġdirect or
4 9
P s
ra z
Ġw rote
Ġ )
Ġl ive
itte e
Ġg ive
ot imes
Ġcom e
Ġcont ract
in ition
ut es
ar ing
oc al
6 5
Ġprov ided
u ff
Ġf uture
Ġd est
in ary
air s
is l
Ġreg ular
Ġb en
B y
ra v
Ġm arried
Ġpolit ic
Ġfre qu
erm an
Ġcond itions
app a
ensure math
Ġpart y
sy mbol
an ia
Ġanal ysis
ĠL ou
m ar
Ġab s
Ġm ight
A r
Ġs uper
P hi
ic les
unic ip
Ġdevelop ed
k y
Ġcomp on
ate g
Ġp ur
s f
Ġsat isf
S h
ĠGerm any
o ch
ell ing
A fter
ĠP at
ĠTh at
pp er
199 5
Ġcl ose
Ġstand ard
Ġdeg ree
Ġd ensity
ĠW ashington
ĠBl ack
Ġ rac
um er
ĠR oyal
ecut ive
Ġinvest ig
k ed
Ġb ody
Ġd ou
Ġc y
ĠUn ion
ĠEurop e
Ġcour t
ĠH all
Ġcon duct
Ġro ad
Ġjo ined
id a
Ġt reat
ĠJ os
ĠS im
av es
ree k
4 7
nd er
wo od
ber g
Ġre v
in ter
Ġb ig
Ġg e
Ġ- -
om s
| |
Ġtem per
Ġbel ow
197 0
4 6
Ġsub ject
Ġon ce
ĠV ir
T o
ch an
en ed
Ġal ready
Ġth us
ĠS um
Ġright s
ort un
Ġch urch
ri an
Ã ¶
Ġf ig
ĠH am
ĠD ivision
Ġl ost
199 4
bold symbol
ac hes
as ons
s w
= =
Ġt ext
g in
ĠComp any
ript ion
ĠV ol
a ult
Ġm id
Ġt rack
0 5
Ġfun ctions
ens ive
ĉĉ ĉĉ
b and
Ġoff ice
Ġlit er
ĠInstit ute
mb ox
c irc
Ġcomp anies
Ġv ia
Ġresp ons
ĠF rom
st on
k i
an i
ampl es
} )$
Ġw id
Ġprofess ional
ĠD on
Ġproper ty
med i
Ġacc ording
um p
Ġg raph
ad d
ish ing
it ar
. \
Ġrespect ively
199 2
ex p
sub set
cit ep
Ġmon ths
ĠL et
ĠU K
Ġra il
ĠM ary
and id
Ġcl os
ĠM art
Ġassoci ated
e ared
ann el
n own
Ġwh ose
Ġrequ ire
ĠE m
Ġad minist
Ġnum er
Ġrel ated
ĠG roup
Ġm ag
Ġconst ruction
Ġv ict
r as
Ġal gorithm
ĠC ong
Ġcontin ued
Ġreturn ed
ĠM ount
ĠĠĠĠĠĠĠĠ ĠĠĠĠĠĠĠ
Ġre ally
Ġdef e
qu e
E S
Ġlit tle
The re
Ġent ire
text it
) (
ad es
ul ations
ou l
n abl
Ġd om
' ,
Ġl o
Ġsong s
199 3
Ġconst ant
N ew
.... ....
Ġwe bsite
im ate
ul ated
ĠAustral ian
ĠC ont
Ġr ather
id s
Ġe mb
ber t
ines e
Ġw r
ĠM ark
h t
ar c
Ġpos itive
or g
0 1
Ġlead ing
b b
ĠM usic
o res
Ġpriv ate
Ġrele ase
k appa
non umber
I f
ra el
ĠM ex
Ġt en
Ġlin es
Ġlim it
ĠAc adem
Ġar r
Ġrequ ired
it ch
all s
A N
ct or
ĠD uring
Ġcont ribut
Ġm em
ĠS ociety
g color
Ġass ist
Ġ >
nabl a
Ġsol ution
ĠP ress
Ġre ason
} ),
a ur
u ild
Ġinit ial
Ġcontin u
c or
r d
Ġs ays
ĠC ons
Ġcount ries
A C
Ġind ependent
Ġopen ed
g en
ep h
Ġ Ã
Ġsuccess ful
g l
Ġw ind
ri ate
ay er
ĠG od
Ġm other
Ġal most
Ġp ath
Ġwhe ther
m ult
ĠS ince
i res
Ġt ax
it ude
âĢ ¦
Ġbro ther
on se
Ġteam s
Ġmed ia
Ġperform ed
Ġpropos ed
Ġcond ition
e es
Ġnov el
Ġj ud
ect ions
ach ing
ist ics
A t
Ġinclud es
Ġs ound
Ġla un
ell ow
ĠT rans
ĠM ore
_ _
Ġn atural
Ġconst ruct
iz ing
Ġ vert
Ġn ecess
e in
c ont
ĠN or
d en
b ox
ĠR oad
iam ent
18 5
Ġhim self
Ġim pl
Ġw ife
d is
Ġd augh
Ġp ain
Ġtr ue
199 1
ask et
Ġc ut
Ġunder stand
Ġup on
umn i
Ġra ce
Ġconc ern
Ġen vironment
Ġschool s
Ġl iving
iv ity
\ %
pt ion
Ġs er
Ġr ank
. )
it t
arg et
oun ter
}} {
Ġcent ral
I nd
th m
Ġmod ern
ĠAfric an
ĠC ath
it es
ĠG reen
k a
ĠD i
ple ment
Ġrel ig
Ġb gcolor
Ġt ry
eth ing
ĠJ ew
Ġs ource
Ġh ous
i ers
Ġf ront
ĠT V
ran ch
Ġcamp aign
Ġp ers
m ing
Ġl ength
p d
end er
ar ter
ĠH en
ar ily
Ġg overn
re am
Ġmat rix
Ġc op
ĠAr ch
S c
Ġcour se
ag ed
Ġm ap
ĠS l
Ġaddition al
9 5
I S
ĠC ap
Ġne igh
\ |
Ġcomple ted
t r
Ġreg ard
ĠCanad ian
Ġrecord ed
ur k
ĠIs land
Ġph ase
ĠM iss
Ġal though
Ġst age
d ots
Ġan g
ĠAng el
ĠI m
ef f
ĠL em
Ġg ot
n el
ĠAfric a
Ġac cept
ĠS er
ec ially
Ġp arent
Ġbeh av
l or
Ġde al
Ġpr incip
is es
ĠCl ub
th ing
Ġpro p
196 0
osp ital
ro y
Ġocc ur
est ival
ĠT ex
S igma
Ġf ight
Ġoffic ial
Ġch all
uc le
g o
Ġequ ation
ens ion
Ġadd ed
qu are
Ġgo al
anc ial
u it
Ġm ar
Ġin j
st yle
6 4
Ġt aking
Ġdirect ed
Ġindivid ual
Ġintro duced
l ike
Ġrelations hip
ĠN e
\ [
rac y
Ġrad io
Ġb oard
us ed
} ;
Ġc andid
Ġen ough
Ġcal cul
fic ult
ed y
Ġac qu
ĠIn ter
b urg
ist ry
Ġparam eters
Ġper cent
Ġk eep
Ġth ings
ĠB ay
r up
ĠK h
Ġinvol ved
ol it
t ic
Ġp e
wh ich
Ġqu al
i ences
Ġa ud
h tt
l ied
Ġsign ed
re y
Ġlarg est
on a
ĠChrist ian
ĠB r
is ions
Ġe arl
ĠPro v
Ġf ire
ec k
ĠS ing
Ġl og
ĠL ist
un ction
it er
ĠR ev
in i
u ated
Ġform ed
Ġk ind
ĠKing dom
/ \
Ġapp eared
Ġconst it
Ġ esp
Ġf av
enc ed
ĠD irect
Ġsu ff
at al
ĠRober t
W h
ĠT own
Ġinst it
f ess
Ġplay ing
Ġd one
d raw
Ġinst ead
Ġtrans fer
Ġsh all
Ġd imens
O R
ord in
ĠM useum
ens us
Ġcorrespond ing
ĠS al
198 9
l ant
ĠM r
Ġthrough out
\ !
Ġim age
P h
ĠWh ile
Ġsur face
Ġlarg er
and om
ĠRuss ian
Ġdif ficult
t able
at rix
u z
Ġiss ues
re c
d own
ĠS am
Ġpri or
Ġro ck
ĠS ection
Ġ q
Ġarch itect
ĠG reat
ri a
Ġpol ice
ig en
Ġc ast
ĠL eg
ĠCent ral
ĠFran c
Ġt er
ib rary
led ge
Ġfound ed
ĠThom as
ĠM ont
Ġb ooks
Ġe ight
Ġelect ed
Ġquest ion
Ġtrans l
Ġe ver
and s
id ents
ĠY ear
p rop
Ġj ob
Ġexper ience
ĠH istor
ĠA lex
5 00
ĠM ad
ĠJapan ese
Ġam ount
ĠMin ister
F ig
ult s
Ġindust ry
ĠB est
il ies
Ġc apt
ĠMich ael
port s
Ġmom ent
Ġalbum s
Ġwh ite
Ġdisc over
c ell
Ġv ir
ign ed
Ġchang es
Ġcent er
ĠW estern
is k
ough t
duc ation
u ra
Ġ @
198 8
asket ball
Ġl ot
Ġele ments
ĠCh inese
ĠAcadem y
Ġstud ies
0 8
ĠC O
ol f
Ġcl osed
ĠSc ott
op p
Ġc ivil
Ġappoint ed
ĠG old
Ġbir th
4 2
wid et
ire ction
Ġpol icy
r ish
ic ro
k nown
al a
Ġl abel
ĠWh ite
Ġg ave
Ġun it
Ġfollow ed
Ġdesign ed
ĠW il
ĠTex as
Ġdep end
ict or
Ġiss ue
Ġfor ce
Ġto day
ĠIs rael
ĠG o
Ġmethod s
cl ass
ĠN ot
Ġpro of
Ġh or
} -
Ġim m
Ġits elf
Ġt ro
d s
0 7
ĠG ames
Ġs ex
ĠD o
Ġl ove
ĠG rand
Ġexp ected
Ġincre ase
Ġ( )
E C
Ġf it
0 6
G e
{ -
Ġsom ething
ĠM et
ĠVir gin
r ast
Ġr at
I C
Ġdec l
Ġs af
ĠJ ust
Ġperson al
Ġcont ains
Ġmon ey
Ġcor re
ĠK ore
Ġdoc ument
Ġspec ific
mer c
anc ed
Ġcurrent ly
ĠĠĠĠ ĠĠ
Ġmultip le
Ġn ormal
Ġimp act
b ers
Ġadd ress
ĠR ad
ĠCar ol
Ġtra vel
ĠM ac
Ġ` `
ĠD ay
om orph
b oard
an ks
8 5
widet ilde
Ġcomple te
w rit
ĠLou is
ĠO ff
Ġst ri
w ise
re land
Ġm akes
( )
Ġpresent ed
Ġesp ecially
Ġdec ision
Ġim plement
- >
ĠRec ords
Ġb o
Ġben ef
Ġn ight
L ist
ĠComm ission
Ġrec ent
us p
ĠD ef
Ġto ur
ĠF ilm
m ore
Ġpart s
Ġcon ver
Ġd am
Ġle ague
Ġcle ar
ta ct
Ġbre ak
Ġproper ties
Ġfor ces
ĠDem ocr
iz ations
cent ering
c ap
ĠT ra
ad a
ĠM us
ĠM er
en a
az ine
sp an
Ġs up
Ġout side
ĠM ag
4 3
as c
6 6
m s
ww w
est s
Ġeffect s
i os
R es
u als
ĠChar les
ĠB ill
ĠM od
Ġcol lect
ress ion
Ġbas is
R e
\ ]
ĠH ow
\ {
w est
Ġ( $
Ġline ar
t rans
Ġfe el
198 7
Ġthough t
Ġgl obal
ro s
4 1
Ġe ast
Ġobserv ed
ele b
0 9
Ġgu itar
an o
om p
Ġm us
Ġd ynam
th let
ĠSc ience
m ark
ĠItal ian
Ġj ournal
ak er
ĠZ eal
Ġb ar
b our
ar io
ect ive
op t
Ġd ram
n y
Ġin sp
ra ction
Ġdaugh ter
C ol
ĠHe alth
Ġsim ple
S S
at ively
Ġst aff
inn er
c os
C C
ĠThe orem
u ate
rough t
Ġthe refore
ĠH istory
198 6
Ġback ground
pr ime
Ġus ually
Ġex hib
at re
z eta
Ġdist ance
Ġpl aces
Ġcan not
ĠZeal and
Ġcap ital
Ġe arn
Ġo p
Ġsy mmet
ĠM at
Ġse ven
un t
s cal
; \
Ġs il
) =\
} +
ĠR ail
ĠSm ith
Ġev idence
F ilm
re me
ĠE q
8 8
ĠCath olic
Ġpre c
Ġw est
irc raft
ret ary
Ġre ve
Ġ und
ĠT om
sel ves
Ġs en
Ġme chan
Ġk m
l a
Ġprov ides
Ġlearn ing
Ġcou pl
Ġfootball ers
d ot
tab ular
Ġf all
ĠC he
ist an
un k
198 4
Ġequ ival
9 7
Ġkill ed
Ġ //
Ġproblem s
Ġbeh ind
or ing
ĠRes earch
uf act
E N
l am
Ġsub sequ
ast ic
A ll
ĠFl or
Ġf ood
ĠL at
st ate
Ġex act
on ic
Ġg ives
Ġ ess
Ġw ords
Ġfin ite
Ġsc ient
o z
ĠO b
Ġd at
al ax
Ġso ft
Ġco ach
Ġparam eter
A M
ĠD an
0 2
ok e
Ġfl ow
ĠCong ress
ĠB en
I T
il ed
Ġg as
~ ~
Ġe mer
ĠF ore
Ġbuild ings
y ing
ess age
Ġc ust
as tern
Ġmat ter
Ġs aw
Ġal umni
ol a
198 5
ic ago
: :
ĠS ome
ĠFran k
Ġresp onse
Ġcre ate
Ġart ists
Ġr andom
pp ed
Ġlik ely
A L
all ed
Ġwrit ing
ĠSum mer
Ġh it
Ġanal y
a res
k ing
ĠT or
Ġd raw
Ġpl ann
omet imes
Ġfact or
emb ly
ed d
0 4
0 3
Ġexper im
Ġact ive
ĠG overnment
Ġt akes
ch ange
om m
Ġt arget
o ice
ĠPar is
Ġepis ode
ri al
t op
} =\
Ġde ep
Ġnew s
enc ies
Ġd ate
{ (
erv e
Ġcomple t
ĠNew s
ĠP ublic
Ġfem ale
D e
Ġcomp os
ĠF ound
Ġp an
com m
A P
w ell
T e
ac c
Ġm ention
ĠE v
al le
ĠF ootball
} ]
Ġm ove
Ġs ens
il ton
re p
ĠOlymp ics
Ġele ment
Ġst ated
ĠComm ittee
ĠF in
Ġc red
ous ly
Ġst ars
Ġeconom ic
Ġallow ed
Ġeffect ive
ro ad
U S
ĠP eter
) ^{
) }\
ĠS uper
Ġcol lection
ov ed
Ġstud ent
Ã ¤
it a
ĠL os
ad o
Ġwho le
Ġf ul
Ġscal e
b re
ĠS ur
Ġtemper ature
ĠRich ard
ĠI nt
ĠD el
Ġpract ice
ic it
Ġun ivers
Ġincre asing
Ġmater ial
9 8
om a
ma x
W ith
Ġto wards
Ġprevious ly
Ġv ector
vent ion
ĠM ass
195 0
Ġto ld
ĠC amp
m l
Ġmon th
Ġmain tain
7 7
ĠR ock
Ġun its
Ġcomp ared
$ )
ĠR ob
Ġre n
ĠTe chn
. ~
p oint
Ġpred ict
et her
ĠI reland
198 3
Ġtrans port
s ing
Ġleg al
ut y
ge bra
Ġ& =
Ġfam ilies
Ġex ists
Ġoper ations
Ġev al
Ġcult ure
is ation
g rad
ov ers
Ġor d
Ġevent ually
el t
Ġm unicip
Ġcol lege
ĠĠĠĠĠĠĠĠĠĠĠĠĠĠĠĠ ĠĠĠĠĠĠĠĠĠĠĠĠĠĠĠĠ
ig ital
Ġst ep
Ġpl ant
ĠH ill
ing u
ĠD es
p e
W hen
f oot
Ġad j
Ġre b
Ġst ations
ĠComm un
por ary
Ġh tt
Ġon line
Ġdist ribut
= #
if orm
Ġopp ortun
raz il
Ġim medi
Ġdem onst
9 6
oot h
A nd
Ġun c
merc ial
ĠP enn
Ġp erm
Ġm ount
it iz
ĠSp anish
Ġphys ical
Ġorig inally
Ġsc ience
Ġmanag ement
p ly
Ġan im
ĠP ri
Ġto urn
am ily
ĠW omen
ĠM el
Ġd irection
av al
Ġinter p
sc ript
Ġdirect ly
ĠO ffic
198 2
Ġprim ary
Ġb rought
Ġz ero
Ġide a
and ed
Ġbl ock
ov iet
Ġb ox
Ġfield s
ĠB oard
ĠSec ond
Ġart ist
Ġrem ains
Ġst e
sy ch
il s
vers e
Ġcharact ers
ĠAcc ording
Ġtechn ology
r ative
E ng
A cc
Ġc ell
Ġch arg
ĠS ant
ĠIn c
\\\\\\\\ \\\\\\\\
Ġf ixed
ĠV ictor
Ġfin ancial
iz es
Ġp air
}_ \
Ġact ually
B l
Ġb ring
Ġ Ð
Ġv eh
s hip
Ġfin ished
ĠAn n
os en
Ġbeg inning
Ġmov ement
197 9
ish op
em ic
Ġdec ided
Ġs ch
Ġart icle
Ġwe ight
Ġocc up
oy s
in ct
Ġt alk
Ġorgan ization
ig an
Ġre ached
Ġb ur
ĠHen ry
ĠO ther
Ġlist ed
Ġhold s
Ġnum bers
u ct
u ge
app ro
um ents
ĠVirgin ia
Ġ< /
l v
w a
Ġus es
Ġcon cept
ĠT er
Ġstud ied
Ġearl ier
E D
y r
cd ots
Ġcommun ic
Ġlim ited
ĠL ake
Ġdef ine
Ġy et
c up
{ {\
ĉĉ ĉ
ĠCh icago
ĠFor ce
or por
6 7
y e
}^ \
z a
Ġrepl aced
Ġg old
al y
Ġs ources
Ġ ver
ans ion
u ro
Ġn ucle
Ġrem ained
A ss
Ġw ord
ĠGeor g
Ġlong er
ĠServ ice
ĠMex ico
Ġpre m
ri ef
Ġcl ust
Ġbecom es
Ġwrit er
i ra
R ec
Ġal tern
ol k
F L
Ġw oman
Ġsequ ence
Ġ error
F rom
i ation
Ġcomp ar
Ġb ank
ĠTh us
ell a
Ġmed al
A d
Ġmed ical
l ight
ĠS up
Ġf ace
Ġlead er
ock ey
k m
5 8
B A
ur ation
Ġb all
re ater
ĠSt e
Ġwh y
Ġorig in
6 8
ollow ing
Ġcompet ition
5 7
ĠFlor ida
}) \
ĠB rown
Ġaward ed
Ġd omin
Ġc eleb
ĠAr ts
ag on
Ġgener ally
Ġread ing
Ġcrit ic
Ġprogram s
Ġd ed
Ġrepresent ed
" )
rum p
ut ch
ĠĠĠĠĠĠĠĠ Ġ
ĠRuss ia
ĠAngel es
Ġfour th
Ġv oc
ĠCl ass
Ġg irl
Ġso on
lem ma
ir it
ult ure
id ae
i en
M S
198 1
l o
Ġp urch
ĠC arl
math sf
en ing
Ġn ature
Ġfri end
Ġincre ased
ess ion
Ġgrow th
ateg ory
Ġcom es
Ġsh are
F A
ĠS ub
i h
Ġinter view
Ġsp eed
a ud
( {\
Ġhig hest
Ġelect ron
Ġpl at
r or
Ġa ircraft
Ġf arm
ec ial
Ġfeature d
le vel
Ġs ense
Ġloc ation
Ġcrit ical
Ġf ederal
ac ing
}\ ,
Ġ ut
Ġch art
g ing
ĠSw ed
S ince
Ġsp in
q quad
Ġcontin ue
197 6
wide hat
Ġp ric
Ġpl aced
rac ks
Ġman ufact
Ġrun ning
Ġchang ed
Ġtrad e
Ġequ al
Ġstruct ures
ĠS un
Ġg rand
ĠL and
Ġset s
ef fic
velop ment
& =
Ġvis it
Ġeff ic
C O
^ +
Ġrem ain
197 2
ian ce
ĠE mp
ict ure
Ġneed ed
n ce
Ġthem selves
ĠItal y
Ġnot e
Ġ\ {
197 8
ur t
ra int
st ein
ĠT urk
Ġsmall er
or al
Ġun ique
ag ing
ĠSc ot
st ar
ĠP e
b on
ify ing
ud d
ic ol
Ġg rant
Ġg un
ĠFig ure
Ġsupport ed
Ġfri ends
Ġs usp
clus ion
Ġactiv ities
Ġsing er
d iv
text width
Ġh ours
Ġoper ator
un c
L e
Ġapproxim ately
ĠR ef
Ġin put
Ġsec urity
Ġhouse hold
Ġdel iver
Ġparticular ly
Ġfor ward
Ġse lected
u a
and a
b ur
at ur
O ne
Ġcont ent
197 4
or ial
T V
arl iament
Ġnot ed
Ġth reat
Ġprob ability
Ġm ur
Ġed ge
Ġp ref
f in
}^{ (
197 5
Ġdis e
os ing
ĠI ll
Ġant i
com p
act ions
Ġcol or
Ġp eak
ur rent
Ġexp ect
Ġ er
} |
st ant
Ġac adem
5 6
ĠD en
Ġmean ing
ip s
Ġquant um
ĠE ducation
h y
ĠO ut
ic an
Ġcont ext
Ġproduct s
197 7
sm all
ĠC ast
Ġlevel s
C D
ĠOr der
al se
Ġpolitic ian
I s
Ġsc en
Ps i
b ook
ĠIt s
p ose
Ġpr ison
Ġbound ary
P S
ĠT w
f ill
Ġl ack
Ġn omin
Ġan c
Ġm ix
Ġnecess ary
g ent
Ã ¨
ĠP an
Ġqu ick
Ġass ume
Ġsc reen
ian a
ult ural
Ġstre ng
A A
ĠS eries
Ġtrad itional
Ġin n
Ġsp l
Ġc ode
196 8
Ġappear s
Ġr ule
ĠM a
hest er
ĠSt ar
F C
Ġu pper
az z
n ote
Ġex cept
Ġt able
Ġcomm it
Ġwr ite
Ġsp ent
Ġdiffer ence
ĠPro fess
ĠSy stem
ran ge
ian o
Ġrun s
n s
Ġh ot
et te
ĠU nder
Ġp ark
ac ity
ffic ient
ĠT imes
Ġmin or
ĠCarol ina
c her
ab it
ĠO h
Ġapp lied
Ġf ram
Ġm ach
Ġrec ently
, -
197 3
Ġover all
le ment
Ġg alax
l oad
ou d
ag ement
ĠN avy
Ġplay s
Ġs ociety
}} (
c el
Ġtyp es
Ġf if
Ġro w
ag ram
pl it
}\ \
ub e
ol s
h ire
Ġleg isl
ĠAl though
Ġset t
pd f
ĠT wo
Ġim ages
Ġreve al
Ġchar ge
Ġneed s
ĠDirect or
Ġform s
Ġw ide
augh t
ott om
k en
Ġmiss ing
Ġcon clud
Ġ$ (\
Ġsim ply
Ġknow ledge
ĠF estival
t d
) ]
ĠK n
Ġst ay
ind ent
us ion
ot ion
Ġs ometimes
Ġagre ement
ill er
E arly
Ġmeet ing
ĠB re
ĠS aint
Ġdid n
u ke
m id
7 8
ĠO l
ĠC D
Ġill ust
Ġl atter
Ġte ac
Ġs earch
.. /
Ġp en
Ġn ames
Ä ģ
197 1
d imens
Ġl ives
ail y
g s
r ich
v ement
Ġas ked
Ġsc ored
Ġdest roy
Ġqu ality
at o
er ia
Ġcon tact
Ġco ordin
O S
ir ing
m en
ĠA rab
Ġestablish ments
Ġbroad cast
Ġsp ort
w ar
th is
ĠW hat
Ġdef inition
Ġmajor ity
ĠP arliament
Ġb asketball
ĠJ ournal
ĠLem ma
ĠV i
ĠB ur
Ġdeterm ined
erv ation
ug by
are er
Ġbel ong
Ġtourn ament
I nt
Ġa im
ĠS ol
Ġb r
Ġcaus ed
Ġcoll abor
R E
ed om
Ġph il
) -
Ġstart ing
Ġwant ed
ĠM o
Ġf irm
Ġro t
Ġl ic
Ġmax imum
ec ause
Ġdo ing
ĠO f
c a
Ġhe art
ĠD is
ent h
el oc
S he
Ġparent s
ĠF re
Ġcol umn
194 0
Ġsp eak
Ġtrans form
ĠMart in
Ġcommun ities
ĠM ost
196 9
ic ated
Ġch annel
oc ks
ĠL ife
Ġcor rel
Ġsum mer
ie ce
en ge
ven ue
Ġsc ore
Ġsp orts
ĠS ocial
Ġwrit ers
ar p
Ġgo als
ĠB razil
B S
b an
Ġ ir
d ro
e ks
ĠP et
ĠCol umb
ĠB ank
ip l
ri z
ĠS k
Ġtra in
Ġwh om
Ġc hem
Ġc ause
Ġreg ions
ĠJos eph
Ġl ay
Ġsh ot
ĠA wards
ĠP ac
Ġfore ign
Ġsch ol
Ġrul es
ot o
Ġd ark
Ġall ows
es h
ag er
Ġlaw s
Ã³ n
Ġ( "
Ġmov ie
Ġs ample
Ġtreat ment
Ġpro gress
ĠChampionship s
Ġoffic er
Ġcom ment
Ġm ission
ĠS il
ĠS oviet
for ce
ĠD ec
Ġbehav ior
ĠB o
Ġcust om
rib ute
t ra
Ġext ended
Ġsur round
5 9
ĠA re
ĠI ran
Ġconn ected
ans as
Ġchall eng
196 7
194 5
oper at
isc o
Ġ ens
ĠL iber
Ġvari ety
S e
arri age
Ġsol utions
Ġpat tern
ĠO per
ot ic
ed ge
v ant
5 2
Ġdou ble
rup t
ĠW ood
Ġrel ation
ĠT rump
r at
cit et
operat orn
Ġch ief
Ġend ed
Ġ esc
Ġd u
Ġdec re
ĠM os
Ġact ress
ill a
Ġcho ice
ĠJ ud
equ iv
x space
Ġstat us
i ro
th at
ĠO ld
Ġd ivision
ers ey
ĠFound ation
Ġw inning
ĠI rish
ĠW ales
r ants
Ġnear ly
Ġrelig ious
5 1
N otes
mit ted
ĠP ost
Ġequ ations
Ġtrans ition
ĠM il
Ġmus ical
Ġr isk
operatorn ame
Ġdr ug
in em
Ġapplic ation
as ion
ĠM ur
ĠCh ief
Ġpres ence
Ġco ast
ow ers
Ġrec over
m ission
Ġf r
Ġev olution
Ġact or
in f
3 00
anc y
Ġindivid uals
Ġbelie ve
Ġstud io
Ġche ck
Ġc itiz
ing er
19 30
Ġdes p
w an
] ,
Ġcom ing
ad y
Ġn ode
Ġk ing
i as
l ong
Ġas p
ect ors
Ġfig ure
Ġneigh bor
Ġcomm and
Ġcom mercial
Ġpro ve
196 4
Ġro om
Ġatt ention
Ġwe eks
Ġ ult
Ġcomm ission
sy lv
] $
Ġdetail s
f rom
Ġaut om
ĠOff ice
Ġse em
ĠAt lant
ĠEng ine
v est
ĠN orthern
Ġp ack
7 6
im in
Ġoper ation
ĠP eople
ĠT our
ĠG ra
Ġsign al
Ġclass ical
" |
Ġpro ced
Ġvoc als
Ġinst rum
Ġpre vent
} :
Ġatt ended
ee k
us band
a o
he me
Ġrepresent ation
5 4
Ġset ting
Ġun ion
ĠH on
Ġann ual
ad ium
Ġv eloc
on om
Ġinflu ence
Ġth ing
ĠE r
ĠG overn
st r
J ohn
val ue
Ġresult ing
he ast
s in
sylv ania
Ġpass ed
Ġmanag er
}} {\
ĠL ove
Ġelect ric
it tle
Ġl ived
Ġm iddle
ari ant
Ġqu ite
Ġinc ome
cl es
N ot
Ġplat form
Ġnew sp
ĠII I
ef ul
Ġ& \
ell ig
Ġin side
h ouse
ap ers
Ġh ol
Ġh um
Ġsit uation
scal e
C an
ĠYou ng
Ġter rit
Ġse asons
l ig
Ġwe ak
av en
Eng lish
Ä ĩ
D uring
ĠJ er
ou ri
E T
ĠB ig
ĠEmp ire
Ġrequ est
Ġsen ior
Ġed ition
ĠSp ain
el ine
Ġsc hed
ent ially
Ġc ounter
ĠO ur
Ġcompon ents
Ð °
Å į
ang er
Ġp le
ĠL ee
Ġst ra
Ġre duced
ĠO ver
Ġcons ists
ĠG all
Ġmagn etic
ĉ Ċ
Ġr iver
Ġmin utes
n ode
Ġp age
ĠP o
Ġpo et
ruct ure
ou ra
Ġb attle
Ġb rief
196 5
Ġden ote
V ID
sk ip
ĠJ im
Ġn orthern
Ġlaun ched
} +\
ed ia
5 3
Ġopen ing
Ġne ut
Ġup d
dimens ional
A D
Ð ¾
Ġdis s
ĠH aw
is her
ĠProv ince
ĠHistor ic
Ġb it
Ġatt ract
Ġs outhern
Ġrem aining
Ġis land
Ġhigh ly
ĠN ow
Ġwork ers
9 3
Ġset tle
196 6
Ġpr int
k ins
Ġqu arter
Ġch ampionship
y an
par am
ed s
at i
Ġpro duce
9 4
im b
8 6
Ġle ave
t ype
ĠAss embly
m ary
or a
Ġw a
sc r
Ġst ories
Ġproduc er
Ġstat ement
amp ion
Ġra p
Ġcompon ent
alle l
Ġp oor
n eq
Ġsay ing
Ġ eth
oc ation
av a
Ġex am
air man
em porary
Ġgener ated
ĠH el
Ġestim ated
n es
the orem
it ation
op l
k o
Ġw alk
ĠC ivil
Ġab ility
im a
is hes
Ġm ind
Ġpl ans
ĠPro gram
Ġdis play
at riate
Ġw ood
19 20
ĠR el
ĠS ir
Ġsy mbol
ric s
Ġproject s
ent y
8 7
ĠVal ley
in os
ĠG en
Ġsim pl
re te
Ġn ation
ap ter
Ġpart n
Ġbecom ing
ĠSp ace
Ġs eg
O r
---- ----
N A
Ġr an
ĠSec retary
P R
9 2
ĠJ o
Ġp ick
Ġrefer red
m ond
ĠV er
ain e
ĠPenn sylvania
h space
ĠH ot
Ġprob ably
Ġclass es
t ical
Ġcorre ct
Ġnumer ous
al i
ĠG reek
Ġful ly
und red
Ġb ad
Ġro b
Ġrecord s
Ġliter ature
| ^
ect ing
ĠD ou
ĠThe refore
Ġpress ure
d ag
Ġrespons ible
Ġy ield
ĠB ook
' $
a ith
Y ou
ost on
ĠP rop
c an
ĠS pr
ĠG r
ĠR et
ĠBrit ain
ĠL ord
au ge
Ġimpl ies
Ġobject s
ew ork
ell ed
Ġc arried
C areer
ob ile
ĠJew ish
g roup
Ġfin ally
ĠR o
s ize
Ġcent re
ĠF e
Ġar rest
Ġorgan izations
Ġind ex
n ame
Ġappear ance
tern et
ĠP ak
Ġhelp ed
ot ing
v is
Ġh usband
ul es
iqu es
Ġconst raint
Ġv ote
Ġpart ies
umer ate
Ġ- \
Ġmost ly
) }{
gy pt
ef ore
Ġcar ry
M A
v a
Ġar rang
er c
} -\
Ġdep artment
Ġhe avy
Ġt ree
omorph ism
Ġown ed
Ġen j
Ġequival ent
ĠIs lam
Ġmag azine
in et
B ut
f ect
Ġrail way
d i
t ers
Ġl if
Ġw ays
Ġal gebra
ĠE lect
ĠC ross
al o
ib ly
m as
Ġun iversity
sh ire
Ġc ensus
ar ia
ĠAs ia
Ġactiv ity
ĠF red
Ġmur der
Ġcount y
ĠH a
Ġb us
Ġsepar ate
ĠS upp
it able
ĠU k
Ġre ach
n am
or ter
P r
> </
stit ution
Ġrec omm
ĠHam ilton
ĠL ong
Ġra ised
ĠB ob
m iss
ĠC amb
ĠS outhern
ren ce
Ġinst ance
Ġde ad
Ġexp ansion
Ġpl ot
in y
ic ine
Ġan sw
ĠO pen
ul s
ĠF ort
Ġb rand
( );
m ann
$ }
Ġco effic
O ther
ult y
Ġed itor
Ġsp read
ĠU p
Ġt ask
l anguage
v ey
ht ml
Ġserv e
Ġapp ly
ĠDemocr atic
ĠDe velopment
Ġa mb
en umerate
h ing
ĠE arth
Ġval id
os oph
Ġch osen
Ġold er
Ġhistor ical
ĠO x
Ġmult i
à ¤
ress ed
Ġopt im
ĠT ime
~ $
etw orks
ĠJ ack
og ue
et ts
at ers
Ġrefer ence
esp ite
Ġs quare
I R
g u
d o
Ġf ast
) }$
c ome
Ġar my
ĠF C
un ior
l ist
Ġdefe ated
ĠB i
Ġneg ative
no indent
Ġmention ed
Ġg reater
196 3
Ġfor ced
ĠTe am
( "
Ġmat ches
Ġad op
Ġrat io
Ġcont roll
196 2
Film s
Ġp urs
Ġcon sequ
Ġsu fficient
9 1
Ġeff orts
math scr
C ont
d ist
ound s
F F
Ġro ute
e en
Ġw or
Ġfore st
Ġse ems
ĠCon n
Ġse a
W hat
Ġav oid
s er
ĠL y
Ġdis p
Ġb al
g ence
Ġspect rum
Ġident ified
Ġcandid ate
i y
ĠPhil ipp
S P
ĠMich igan
or ation
F urther
Ġinit ially
ĠOh io
Ġlead ers
Ġcont ain
Ġspl it
ĠPl ay
Ġfav or
Ġdesp ite
Ġl at
ĠSt at
f it
D ef
Ġturn ed
ino is
P erson
por ation
ĠJ ones
id ers
ĠG i
w ork
b ury
Ġcap acity
Ġform ation
ĠC am
k er
ĠReg ister
Ġpur pose
Ġent ered
inn ers
pos ition
ĠM iddle
' re
Ġout put
Ġmot ion
Ġimmedi ately
ĠT re
j a
ĠGeorg ia
Ġrel ative
c hest
Ġdom ain
Ġus er
Ġm aster
Ġc ities
ĠB attle
ĠL ibrary
Ġdram a
ist ers
ak a
ate gor
ĠM ah
Ġconf lic
Ġdat as
Ġfail ed
ĠCh ild
] \
s up
hem at
Ġw ave
ĠUS A
7 2
ĠW ork
Ġt al
ĠPac ific
urb an
ĠPro t
Ġelect ions
ĠJohn son
( -
ĠJ ac
Ġbe y
Ġthe orem
ĠA tt
b ody
Ġoffic ers
Ġapp rop
L E
194 4
Ġf ill
Ġf il
I m
M an
ev en
Ġdr um
Ġident ity
Ġsurv ey
ĠUn ivers
Ġj oint
Ġexpress ion
b a
Ġsh oot
ann er
ĠS ar
ĠB as
ĠThe ir
sp eople
rad e
ĠJ ersey
Ġexist ing
ĠS und
Com p
ĠCon ference
ĠP re
Ġmov ing
Ġsing les
Ġn ine
ĠT im
Ġst op
Ġstr ing
Ġ â
Ġag o
Ġbey ond
orn ey
Ġo il
Ġfact ors
\ ,\
Acc ording
Ġlead s
N o
Ġfam ous
b ul
Ġres ources
item ize
ĠS ong
ĠJ ul
ĠG ood
ĠR os
w in
pl ace
ĠCent re
ĠScot land
Ġsl ight
ach us
ĠE conom
Ġdou b
Ġfrequ ency
appro x
Ġg iving
Ġun iform
Ġconstruct ed
Ġcon cent
acks on
Ġh op
ĠT op
ĠRad io
D on
bur gh
8 9
Ġder ived
}} _
ĠAs ian
Ġp aint
ĠD et
Ġh ospital
Ġcomput er
ĠR h
196 1
m ap
Ġel se
Ġb illion
ard en
ee ch
epend ence
Ġh yp
Ġoffer ed
ĠF ri
ĠH ere
orn ing
Ġvol ume
Ġvict ory
ĠAd d
ir al
Ġrepl ace
}} }
ad or
ĠSen ate
A pp
Ġcomplet ely
enn is
s l
Ġb order
Ġp p
' )
P i
Ġt ens
Ġestim ate
l oy
am m
Ġclaim ed
Ġv an
Ġunc ertain
Ġpro ceed
ĠC r
y er
Ġp il
ĠQue en
ĠG al
ĠB ul
ĠL ie
Ġcult ural
Ġ ...
Ġser ious
ĠB usiness
Ġt im
ĠH uman
N N
ĠCO VID
Ġf air
Ġdise ase
Ġc rick
ir med
Ġadminist ration
Ġlook ing
Ġc ard
Ġinit i
Ġdiscuss ed
D E
Ð ¸
Q u
v space
Ġon es
ĠM em
ĠT ri
achus etts
ĠWilliam s
ĠO k
ĠM ax
Ġm arriage
og rap
Ġs n
M od
it age
Ġserv ing
er b
Ġg reen
Ġtri al
ĠK ong
Ġsl ow
Ġprov iding
it ors
A ust
Ġbelie ved
Ġf oot
Ġinc orpor
if ically
Ġinterest ing
6 3
\ }$
T rans
P ar
Ġveloc ity
ol ved
Ġcol on
Ã §
ĠEx p
Ð µ
ris on
ĠL ine
N ote
ĠE gypt
ĠFranc isco
Ġc orn
Ġar m
ĠÂ £
ad el
ĠEd ward
h an
ĠT ro
ĠK ent
Ġdeterm ine
ĠB oston
Ġn orm
ĠH y
ĠT able
ĠM en
Ġshow ed
Ġprofess or
Ġquick ly
Ġreg ional
Ġge omet
os m
Ġsc heme
Ġcon fig
ĠB C
u an
4 00
Ġ _{
ur ies
Ġsoft ware
Ġle aving
aw a
uth ors
194 2
> <
Ġbl ue
Ġb ranch
Ġpre p
Ġmain ly
Ġm icro
Ġrep e
ĠC ro
stand ing
back ground
Ġiss ued
il a
ĠIll inois
op y
Ġlet ter
re al
Ġacc om
yn om
6 2
194 8
ib li
195 6
Ġc ategory
ĠF urther
Ġbas ic
Ġd ro
The n
Ġdist inct
ay a
ĠIn st
8 4
S ec
ĠR am
ab eth
Ġtry ing
Ġgo es
ĠL uc
ĠM any
ĠU r
Ġexist ence
Ġs ure
195 9
ran ce
195 8
Ġvari ables
M C
ĠM u
ĠMc C
ĠF ield
Ġgen us
Ġeas ily
he t
) +
Ġex ecutive
Ġa x
ĠC E
Ġb ass
en ant
N ational
ĠB ow
mult icol
Ġsc ene
ĠP rem
htt p
Ġ ice
Ġm useum
Ġdoes n
Ġcou ple
Ġsit es
anc ing
el er
Ġc ells
ĠPol and
^ -
ĠAl so
ĠD utch
Ġsy n
Ġget ting
Ġmechan ism
Ġpat ients
Ġb ul
ce an
Ġconn ection
Ġact ors
b o
ĠF ederal
Ġdimens ion
ic ks
# #
multicol umn
Ġw estern
p re
S I
ĠW al
Ġv oice
Ġc ouncil
Ġenj oy
Ġh arm
Ġg rav
ĠSt ep
L L
s plit
Ġarchitect ure
ic ity
e z
ĠRep resent
ĠThe atre
Ġpro min
Ġrecord ing
ter m
we ight
Ġ _
angu ages
ĠB et
Ġcont ribution
195 7
Ġp sych
ĠCh arl
193 9
Ġcont rast
8 3
Ġpolitic ians
Ġpos itions
Ġet c
Ġse at
Ġrece ive
ĠRe view
Ġs ector
Ġimpro ve
Ġvir t
Ġpe ace
Ġres idents
Ġder iv
Ġref lect
as hed
ul ate
ĠS and
8 2
ĠColumb ia
ĠJust ice
Ġth ous
ĠM ov
ĠPort ug
t rack
Ġg auge
Ġsh ape
Ġh undred
Ġcomb ined
ĠM ajor
ab s
Ġs al
Ġin form
ĠGovern or
ĠMass achusetts
Ġapplic ations
ound ed
ent ed
ear s
ĠR em
ay lor
F irst
Ġr ates
ĠCo ast
Ġcover ed
t urb
htt ps
ĠE astern
Ġact ions
7 4
] [
erv ed
Ġrest rict
r ical
ĠĠĠĠĠĠĠĠĠĠĠĠĠĠĠĠ ĠĠĠ
l ies
el a
Ġmem ory
6 1
ĠV an
Ġcitiz ens
re es
Ġstra ight
Ġfootball er
ov a
res ents
ĠSup reme
Ġoper ated
Ġs quad
as y
Ġa st
Ġmin imum
in it
Ġmeas ures
Ġ\ ;
Ġth r
Ġdep art
Ġsub s
ĠJ r
Ġgener ation
194 1
ĠH ung
Ġret ired
Ġrequ ires
Ġearn ed
Ġex amples
c ons
I A
Ġtyp ically
Ġconduct ed
ĠB ase
Ġf le
7 3
un ct
s en
Ġs ister
& &
194 3
ĠM id
Ġresp ond
in ity
Ġpref er
ĠN ote
Ġe igen
S O
art ers
Wh ile
6 9
Ġext ra
f e
text rm
ĠW ay
Ġcontinu ous
Ġship s
l aw
ĠB ern
Ġsome one
R A
ĠA ff
194 6
Ġdiscover ed
Ġcom edy
Ġb ill
ĠA p
ĠKore a
Ġse lect
N e
] .
Ġquest ions
ĠSt an
g n
ĠH ome
Ġeas y
ac he
8 1
uild ing
Ġf alse
ph y
it ter
Ġd igital
Ġprocess es
S o
Ġinter action
Ġent er
k ey
B rit
ar ant
Ġc ore
b i
ĠTechn ology
Ġclaim s
Ġbl ood
Ġf elt
ĠJ es
ĠPr ince
ĠSh ow
a un
Ġsm ooth
Ġim pos
ĠW ind
ĠMus lim
Ġin equ
ĠPro ject
C o
Ġrem oved
Ġre form
Ġgrow ing
ĠA z
B i
u er
Ġyou th
Ġm is
od ay
E d
ĠE ll
ĠB oth
Ġstr ugg
Ġint ers
il arly
ĠEn ter
ell er
Ġcomp osed
195 5
Ġcon vers
ĠOx ford
ĠT em
ur ance
Ġoper ators
I V
uc ed
Ġstr ate
Ġoffic ials
Ġpol ic
Ġ ensure
ĠW all
H E
at uring
194 7
Ġsaf ety
Ġstrate gy
pt on
Ġsol id
{ $
Ġtr ust
ma z
Ġcont est
Ġv s
P A
7 1
Ġfe ed
Ġopportun ity
ĠSe a
A m
7 9
Ġpl ane
j i
Ġhe nce
Ġp et
Ġsem i
Ġc am
subset eq
Ġrel atively
ĠRepublic an
aus s
Ġre duce
ĠIn f
ĠG h
uck y
195 2
}^{ -
h aps
ĠU N
ĠE nd
Un ited
olog ist
d et
u ations
ĠSp ecial
Ġass ess
Ġacadem ic
Ġt racks
S C
ont o
Ġun known
Ġnot hing
ip ment
ĠE p
res h
M ar
ĠHe ad
l ation
ĠLat in
Ġoff ers
Ġacqu ired
Ġn etworks
Ġpan el
Ġperson nel
Ġp aid
Ġsubsequ ently
ĠJ ackson
ĠW ater
am ing
i ant
un n
P op
R ep
Ġrep resents
ĠScott ish
o ir
Ġsp irit
Ġlead ership
ro vers
Ġad apt
Ġreport s
est ic
Ġdef end
Ġexpl icit
ĠPol ice
Ġobserv ations
ĠDe v
ĠH ong
Ġn ative
Ġcho ose
A b
ion e
V ert
Ġcontribut ions
I d
I M
G B
ĠA v
on ia
ĠL ab
Ã ±
ac hel
te en
Ġorder ed
ĠL i
min us
att ice
Ġeff ort
Ġmod e
ĠC y
Ġcl imate
ro om
Ġadop ted
Ġclub s
ĠBro ad
ellig ence
Ġl ies
O T
ĠH ospital
ĠBl ue
S E
195 4
l n
igh ter
The ta
vi ation
H owever
Ġprof ile
Ġreveal ed
Ġs ales
Ġus ers
== ==
ĠProfess or
am in
u i
Ġ err
ĠAnd rew
ĠB al
x y
ĠK enn
Ġl abor
w er
ĠN ight
ell ar
Ġhy per
Ġno ise
Ġex c
Ġstr ateg
Ġm ole
Ġv ac
ar ks
194 9
Ġthe rm
Ġw atch
ograph ic
ĠK e
S U
Ġra re
Ġfor t
big g
Ġm ut
N ame
Ġjo in
Ġst ore
Ġcre w
Ġman if
Ġunderstand ing
under line
. [
Ġbe aut
Ġrap id
Ġag ent
s ch
Ġcomp l
ĠRail way
Ġart icles
id th
15 0
Ġext rem
ister ed
om er
Ġrele vant
Å ¡
oc cer
ict ed
Ġadv ant
the n
n orm
Ġ id
Ġar bit
line ar
i ency
k in
c ript
Ġwe ap
el d
Ġ\ |
Ġal one
195 3
at us
Ġmater ials
Ġal le
ond er
Ġsex ual
ĠL u
ĠT est
Ġdi agram
Ġa wards
Ġeconom y
ĠL ittle
V al
ĠCor ps
il ly
ĠR ay
ĠB ang
ĠC oll
ad ing
Ġform al
Ġfl ux
Ġm ixed
Ġd raft
Ġsignificant ly
Ġnucle ar
ĠBel g
N ow
f ile
Ġres olution
ĠA ut
ĠC ard
Ġpol ynom
on ent
ul pt
ab ilities
Ġcan cer
Ġhous es
Ġcons um
Ġinstit utions
ĠF ar
Ġ* /
Ġa part
Ġse lection
a is
ĠJ oe
< \
Ġother wise
Ġprim arily
........ ........
r ations
Ġwid th
Ġsuc ceed
L A
Ġr ise
ĠCommun ity
Ġm ill
Ġext ension
ant ry
ĠAmeric ans
Ġexpress ed
Ġw orth
Ġmanag ed
ĠG ar
ig ration
Ġexper iment
Ġfac ilities
ĠH or
ĠF orm
iz abeth
ful ly
E n
Ġvict im
Ġdes cent
Ġ$\ {
ipp ed
Ġm aps
ric ts
Ġc er
erv ative
Ġl iber
j ection
ĠĠ ĠĊ
Ġtro ops
Ġdescrib e
B e
Ġoper ating
ĠV iet
ĠW ild
ann ing
ĠM ot
on ed
ition ally
Ġform ula
Ġbeg in
ris is
ri ev
ĠF our
h ar
D A
ak ers
Ġint ended
or ough
Ġachie ved
od ies
M ed
ĠAlex ander
cl aim
olog ies
ĠO nt
Ġpass eng
Ġto uch
ĠMan agement
ĠE ach
Ġmeas ured
d r
th ur
Ġmet al
itz er
Ġhe ight
it ness
' m
Ġdesc ription
c ond
Ġded icated
195 1
Ġex change
Ġt rib
Ġsc atter
Ġr ing
ĠJ eff
Ġcomp act
st one
ĠPl aces
v in
ot hes
rel ated
T ype
Ġhon or
Ġatt end
Ġfl at
Ġex ecut
Ġin h
Ġpartic les
Ġf ell
A rt
Ġp iece
Ġanc ient
: #
b ed
ĠĠĠĠ Ċ
Ġp oll
a ug
Ġact ing
og le
Ġh ockey
d ney
../ ../
S A
Ġin ternal
ĠK en
Ġa uthors
em y
u racy
Ġj ourn
ĠOr gan
ud get
Ġconf irmed
Ġcur ve
Ġdem and
ig er
Brit ish
{ }
ĠF er
Ġre asons
Ġcont aining
Ġres ist
Ġus eful
ĠP op
Ġmet ric
Ġcost s
Ġarr ived
Ġany thing
ag s
eder ation
E E
D F
Ġsymmet ry
Ġnear by
ra q
ĠG irl
Ġh ref
ins on
ap ed
ĠAd minist
inn es
set minus
ony m
ash ion
Ġhous ing
Ġbase ball
S im
ra wn
S ub
Ġc ert
_{ {\
Ġc at
ĠMin istry
g reg
sk y
Ġem ission
Ġfl u
ad er
Ġcon ference
Ġexact ly
Ġcontin ues
Ġarg ument
ĠPol ish
ĠS ee
se ud
ĠMed ical
ĠIs lands
foot note
ĠSt ation
al g
ph ia
z y
Ġprov ince
app ing
Ġcomb ination
ze ch
ĠStud ies
r ons
Ġaltern ative
Ġtechn iques
ĠN ations
am ber
Ġvari able
Ġpric e
ĠDan iel
Ġconsist ent
Ġc ry
ĠBer lin
Ġpolit ics
Ġwid ely
ĠVictor ia
ĠSc iences
O b
Ġre tain
Ġstreng th
Ġch ain
Ġv on
} /
ĠL ater
Y ear
text tt
ĠL im
M ore
r ating
ĠC a
Ð ½
Ġfre edom
ĠPr ime
Ġem p
dag ger
ĠB BC
Ġop in
ers ion
Ġdiv ided
Ġb ridge
Ġ era
Ġbound ed
Ġpol ar
Ġg rew
Ġ Å
dis play
Ġinterp ret
innes ota
h and
m at
Ġm arg
Ġfram ework
b ut
ĠE st
ĠWil son
Ġl anguages
Ġmin ister
Ġeas tern
Ġpart ner
ĠB oy
Ġs ust
19 18
Ġw inner
p ol
193 6
} '
ific ations
it led
ĠMed ia
y es
Ġ$ |
ĠGu ard
Ġmunicip ality
att al
Ġepis odes
Ġexperim ents
Ġg ra
ĠC orn
l ines
ĠAr gent
Ġcr ime
Ġmach ine
adel phia
Å Ĥ
Ġl ayer
ic ed
Ġslight ly
Ġb omb
ĠC reek
Ġfif th
Ġdiscuss ion
ĠB ra
Ġnewsp aper
$ _
Ġequ ipment
O ur
}} ,
n ic
in ite
ut enant
ĠCol or
m et
i ec
ĠG ame
comm and
Ġent ry
hen s
U T
Ġk ept
pos es
Ġstre et
Ġsold iers
as i
Ġsp aces
Ġown er
rop y
Ġsur pr
Ġhy dro
Ġagre ed
ul f
Ex p
ĠOlymp ic
Ġcompar ison
Ġprot ection
Ġvis ual
Ġevery thing
pro d
( '
Ġauthor ity
act ive
Ġsh ared
Ġprov ed
Ġcy cl
c ode
Ġpartic le
ĠPak istan
wh ile
Ġsuggest ed
g est
_ *
Ġassist ant
s ource
Ġon to
S w
idd en
ĠU l
Ġsy nt
ph as
ibli ography
ru le
ĠCor poration
Ġs amples
Com m
ĠOnt ario
Ġteac her
i able
Ġapprop riate
^{ -\
Ġass igned
ĠP ower
Ġexperim ental
il ing
ĠK ar
ĠC at
Ġappear ances
Ġdif f
ĠR od
ĠN etwork
ĠComm on
duc ing
Ġen h
Ġ( $\
ind er
_ +
if ul
ĠPri ze
ĠJ ean
Ġform at
ch o
Ġhand s
j o
** **
u ing
M embers
ĠB ell
R C
v an
ether lands
Ġf ans
Ġper fect
Ġlarg ely
Ġw ild
am ental
un te
Ġim ag
ĠP en
Ġcre ation
Ġst eps
Ġv ar
Ġtransfer red
A F
\ }
193 8
ĠCon f
Ġp ra
Ġorgan ized
or i
and emic
Ġcont ained
y o
ĠH ig
P C
Ġatt acks
Ġcamp us
oc ated
Ġt ell
writ er
Ġ$ -
Ġdynam ics
ĠL ew
Ġneighbor hood
Ġalong side
The se
Ġcop y
Ġgrad uated
Ġa p
ĠV ill
Ġaccept ed
Ġschol ars
Ġimport ance
Ġle aves
Ġass ociation
im ately
ĠSt and
Ġassum ed
r ass
i est
Ġr ural
con st
Ġact s
Ġide as
ĠJ on
r ates
P er
Ġdist ingu
a ver
Ġact ual
ĠT aylor
ĠC re
ĠP ubl
ul ed
os h
ĠS ports
H ere
i Äĩ
R eg
Ġs ections
ab y
out e
T r
ĠServ ices
f ri
Ġp hen
Ġp it
* {
193 7
Ġprom oted
ew idth
Ġcompet ed
Ġgalax ies
Ġun s
ors hip
ĠR og
Ġpol y
Ġcre ating
Ġscient ific
Ã¡ n
ĠB and
Ġ: =
d t
Ġstat istics
Ġplann ed
ant ic
ĠR ome
ĠKore an
Ġm iles
ma il
ĠB ol
r un
Ġcle arly
Ġc arri
Ġenvironment al
ri e
Ġregard ing
Ġtri ed
l ers
Ġcol le
et ime
Ġincre ases
b ec
ĠRev olution
Ġviol ence
Ġadminist rative
O ver
n et
enn ess
ro duction
Ġrecogn ized
l av
i ate
I P
Ġfl oor
Ġa thlet
S port
Ġemploy ees
ĠAs h
es ter
Ġest ate
Ġw all
ing ham
B ack
ĠAir port
im port
ĠO s
Ġfe aturing
an th
Ġpro te
Ġb oy
Ġcomm ittee
ĠE qu
ĠSy dney
) |
Ġlin k
i eg
os is
Ġf ile
Ñ Ģ
% )
Ġd ual
Ġmoment um
ner gy
col on
Ġag ric
Ġproced ure
ĠSund ay
ĠM aster
ig a
H ow
Ġpower ful
ra ine
Ġsp eech
M y
edd ing
Ġocc urs
Ġle tt
ĠM ike
Ġro les
Ġcommon ly
Ġallow ing
ĠTor onto
ĠInd ust
E l
per or
S R
opl us
W ill
Ġ$ [
Ġhtt p
ĠC ub
ons in
Ġveh icle
Ġhtt ps
ar ry
now led
Un iversity
w edge
Ġv en
Ġserv es
Ġfund ing
Ġc ars
Ġhe ard
ath an
Ġengine ering
Ġfig ures
as ks
Ġreg ime
isc onsin
ĠA venue
ĠEl izabeth
ak h
Ġfocus ed
Ġc ategor
Ġb ottom
per ial
d ec
ĠB a
}} _{
Ġcont rovers
Ġclass ification
ĠPol it
Ġcl in
Ġapp arent
Ġinterest ed
go ing
ut ed
Ġe arth
Ġachie ve
ĠA k
ud es
Ġto ward
ĠY our
sp ec
Aust ral
St ate
ĠB rad
ĠS a
Ġdiffer ences
Ġm essage
Ġplann ing
D em
ĠO t
ĠTh ree
Ġapproxim ation
Ġauthor ities
Ġoccur red
Ġr ang
M P
ĠS om
Ġp erman
w ater
Ġg ets
ĠL ight
Ġsp ot
Ġfr ame
osoph y
ĠMore over
ow a
Ġtra ffic
ĠT am
Ġo ri
ĠC irc
ĠB on
M usic
ig ation
Ġvert ex
Ġfl ight
em an
Ġtechn ical
Ġcandid ates
Ġsol o
ur er
chest ra
Ġpromin ent
Ġd rop
Ġsec ret
b ound
l ife
Ġindust rial
Ġpl ants
ĠA st
olit an
e aking
Ġbe at
ur ches
st ream
Ġmot or
Ġsc ulpt
Ġdam age
Ġ urban
Ġmusic ians
Ġcons ult
Ġenc oura
h ol
ro t
Ġt end
ĠI raq
ĠB ecause
ĠCamb ridge
Ġro ugh
\\\\\\\\\\\\\\\\ \\\\\\\\\\\\\\\\
Ġinvestig ation
Ġem phas
lin ewidth
oll ary
Ġdis app
H is
Ġconstit u
ost er
ĠAl b
il ation
; "
og s
ĠF amily
Ġl ab
Ġrequire ments
se y
Ġf ine
Ġpur poses
Ġme ant
ĠSec urity
C H
ap h
Ġchem ical
ĠCh ris
iv ial
Ġshow ing
Ġh ar
esc ription
ĠE ven
Ġcoupl ing
M L
Ġte aching
Ġf ellow
he im
or age
Ġdr ive
Ġlaun ch
p an
o is
ĠM innesota
ĠP ers
I G
G u
pr int
d ata
Ġcommunic ation
Ġdec ades
Ġdec ay
ask a
Ġh ope
ist ical
art s
us ing
ĠS her
Ġhistor ic
Ġabs ol
ĠD isc
al ities
âĢĿ .
Ġres ident
193 5
ron ze
at ial
ĠF ollowing
od d
rop ical
arian ce
ly n
Ġst able
ĠĠĠĠĠĠĠĠ ĠĠĠĠĠ
bour ne
Ġsil ver
are n
Ġf aith
), \
' ve
qu arters
ĠReg iment
Ġident ify
Ġp andemic
Ġtra ined
am i
og en
ĠQue ens
Ġsecond ary
19 14
Ġs ides
Ġterm in
ĠSant a
Ġtyp ical
Ġconflic t
ĠAnt on
ĠR aj
Ġrese arc
Ġparticip ated
w eg
ĠN etherlands
R O
Ġevery one
) {\
Ġprot ect
m es
int on
ĠB u
ol is
Ġco al
Ġprop ag
ap ore
G eneral
Ġd aily
ĠAn other
Ġsub stant
ĠT ok
ĠF air
g g
C ons
Ġwe b
19 19
Ġst ock
Ġt or
Ġs ail
Ġp ull
Ġd ance
Ġacc omp
Ġsupp ly
Ġnot es
P olit
per p
D P
Ġf ix
Ġv ary
Ġinteg ral
un ch
Ġabs or
Ġro ll
ĠS T
f unction
Ġprogram ming
ĠM ain
ĠPhil adelphia
ag raph
1 20
Ġdevelop ing
Ġfail ure
id el
Ġmark ed
Ġopt imal
Ġpar allel
Ġcalcul ated
193 3
Ġl oad
ĠS u
Ġaud ience
Ġn ull
W orld
Ġexp atriate
ĠReg ion
19 17
ĠH ence
A c
bl ack
ru it
Ġoffic ially
Ġa ware
ĠR en
ad ian
Ġprincip al
Ġacc uracy
r s
Ġre ality
ĠAn th
ta il
ĠPh ys
Ġs qu
M ay
Ġtw ice
Ġfac ility
Ġnumer ical
Ġpar l
Ġtest ing
Ġcapt ured
Ġ( -
Ġd ial
Ġinvest ment
Ġbeg ins
Ġit er
Ġcy cle
g a
Ġstrong ly
Ġl attice
Ġt un
reg on
Ġfe et
n eg
riz ona
ur d
ak i
ĠP oint
ĠR ights
Ġaff ected
f ree
Ġrad ius
ĠFore st
Ġappro aches
Ġ ign
pp ing
g ers
lim its
ipl om
P ost
ĠK im
S ch
_{ (
ĠF und
for mer
h u
Ġdecl ared
ĠOffic ial
Ġp ure
Ġcirc um
Ġch ampion
\ '
Ġsurround ing
Ġord ers
Ġpolic ies
ĠN Y
L O
Ġclust er
Ġreview s
Ġper turb
Ġ ;
if fer
Ġsettle ment
Ġapp eal
Ġchall enge
ict ures
Ġl y
Ġn arrow
ig rants
Ġmass ive
Ġ !
f ort
ĠF ire
ĠR om
ĠW isconsin
S outh
Ġcr im
ĠW eek
as ure
Ġv otes
ro g
Ġm orning
g ency
ĠEngine ering
Ġang le
P ol
193 4
Ġnot ice
ĠD espite
a fter
)\ ,
d isc
ĠB rig
it i
Ġinequ ality
ĠIn formation
Ġspect ral
at ically
m ain
b ro
it le
sub figure
ĠV en
ĠCl ark
Ġcor por
hip s
d eg
Ġexp and
p c
ĠG er
S et
Ġinsp ired
Ġp al
Ġ| \
Ġdep ends
op her
Ġdistribut ed
19 29
ĠH ay
Ġinn ov
Ġvert ices
n i
ĠL abor
ĠS et
) /
Ġdestroy ed
ĠW alk
Ġloc ations
Ġf raction
ĠK el
L P
Ġcont emporary
Ġlearn ed
Ġrac es
Ġmed ian
c hen
Ġgrant ed
P art
Ġ= >
Ġveh icles
opp ing
Ġg ain
Ġre ject
T A
V D
eter y
se x
os ure
end ix
Ġfind ing
Ġl ie
Ġdeg rees
auss ian
} %
Ġrec ip
Ġinc ident
ann a
Ġn ar
Ġs ort
S M
L a
ĠL ady
Ġbenef it
em etery
Ġbehav i
Ġnot able
Ġcer em
eg o
Person al
ĠH ind
mod el
Ġel imin
Ġrest aur
ĠProp osition
Ġl ibrary
Ġmount ain
19 28
Ġn odes
Ġt ells
Ġcall s
Ġfac ulty
bre ak
t an
Ġt aught
Ġar ts
Ġacc ur
Ġdetail ed
ĠPrem ier
19 00
Ġvers ions
ĠK ansas
Ġhor iz
ĠD uke
Ġw inners
U N
ps on
Ġrec onst
Ġfund s
ĠC ur
D isc
Ġphys ic
Ñ Ĥ
b in
Ġbusiness es
res hold
Ġsim ulations
Ñ ģ
Ġexp anded
ĠW ell
le an
are t
est abl
Ġanim als
Ġexpl ained
Ġele v
Ġp owers
Ġc osm
{ $\
ut ation
Ġf iction
Ġcorrespond s
i ary
z o
ĠJew s
ĠChrist mas
Ġtit les
) }(
Ġ& &
ĠS ab
Ġcharg ed
S ome
ĠPl an
ĠW ars
.~ (\
Ġob vious
g al
ĠSwed en
el i
Ã £
Ä į
ly wood
Ġemploy ed
Ġperform ances
ĠMed al
Ġmeasure ments
Ġterrit ory
Ġin ner
Ġwr ong
Ġut il
ĠB udd
ĠDav is
Ġthe ore
d es
ĠIndian a
Ġc ool
Ġqu ad
ord an
Ġassum ption
Ġresult ed
Ġinj ury
ĠBe ach
ĠSwed ish
19 10
193 2
Ã ¸
Ġeffic ient
we et
Ġaff ili
Ġtre es
Ġpen al
Ġpro port
ĠK ir
ĠSte ve
us es
Ġex erc
Ġadvant age
ĠN az
ĠM ember
Ġstand ards
E M
og y
emb le
ĠF ox
atur day
Ġam pl
ann els
Ġth row
Ġth ick
Ġhe av
T hat
Ġret ire
ĠA thlet
ĠTr ust
Ġjud ge
Ġnew ly
Ġed ges
}} (\
St ring
ĠCon stitution
Ġp icture
Ã© e
c ases
y al
Ġinvol ving
Ġperform ing
Ġopp os
ind ing
Ġrem ember
w orth
Ġhousehold s
def inition
Ġview s
Ġsatisf ies
iv ate
Ġmin im
N ov
el ess
Ġfl ag
Ġfound er
y mmet
ro id
Ġsubsequ ent
Ġrepresent ative
ab il
\! \!
z en
om y
Ġp iano
Ġhost ed
ĠSt adium
Ġrecogn ition
al so
Ġtr uth
le ep
attal ion
Ġ %
ĠGl obal
Ġadv anced
rop olitan
trans lation
enness ee
ĠB ad
Ġpurch ased
ran k
Ġadv ance
l ength
Ġsuff ered
Ġag ency
Ġad vert
Ġcle an
Ġfund amental
ric es
A dd
ĠL es
Ġpre par
Ġcrim inal
c ase
Ġprot est
L C
ast ers
Ġover l
In ter
) ^{\
c ular
ĠS on
w ing
ĠG ree
Ġappro ved
Ġren amed
ĠJes us
Ġab and
Ġor b
Ġcomp osition
ĠW at
19 22
ĠT y
ron ic
Ġsp ons
ĠInd ones
Ġdefe at
Ġphen omen
Ġdatas et
Ġspec ifically
ĠAtlant ic
) _{
ĠG ro
Ġdef ense
ens es
Ġdev ice
b r
ĠT al
Ġex cit
ast y
Ġdo ctor
Ġdescrib es
iz er
ĠF ree
ĠMiss ouri
ĠLeg isl
ĠTurk ey
ĠDes ign
ĠL o
In ternational
Ġdocument ary
Ġg ained
Ġf ish
align ed
Ġre duction
oc ol
ĠB ishop
Ġexper i
Ġn or
old s
st ring
ĠM ic
Ass ociation
193 1
ol n
Ġpar ish
ĠL ind
ĠS us
v ard
iec es
r ator
Ġc risis
Ġ }\
ĠColor ado
ĠM ill
Ġcap tain
Ġparl iament
Ġconstraint s
P re
Ġext ract
Ġintro duce
ĠStep hen
ĠGold en
ĠA h
tain ment
Ġindic ate
ĠM ilitary
ic ation
Ġrepresent ing
19 24
od ing
Ġsc ript
}$ -
Ġbenef its
Ġhe at
rast ructure
Ġis ol
Ġv ess
sc ape
Ġimpro ved
19 27
Ġp airs
os a
rid ay
N et
Ġband s
og ene
Res ults
ĠR on
Ġsuggest s
Ġr ugby
Ġsp ring
ord ers
j an
Ġcompos er
m osp
Ġcorrel ation
ĠJac ob
Ġex ternal
ch ang
Ġgu arant
ĠC zech
ym pt
Ġseg ment
Ġinter actions
for all
ik a
ĠD iv
C T
ĠB at
Ġansw er
Ġh abit
y ard
Ġinterest s
ĠD er
weg ian
Al though
F l
ĠO regon
s ime
ĠFranc is
Ġyoung er
le ts
H z
ic on
Ġent ertain
Ġpublic ation
= (
ang a
uc cess
Ġrem ov
it o
ok en
' _
Ġdom estic
om ing
k et
igh th
ĠH un
ĠMar g
ic ial
Ġcol lected
ĠBro ok
Ġre pro
sime q
Â °
Ġ ~
O ut
Ġestim ates
E nd
Ġch ance
c ow
p ath
er al
L S
out heast
ĠAff airs
Ġlist ing
ret urn
Ġdep th
ĠB ooks
iam ond
ir t
m ad
oun ce
Ġdel ay
Ġport ion
G erman
Ġnov els
Ġc reat
Ġcharg es
Ġend s
Ġsw im
ĠA uthor
ĠHow ard
Ġb udget
Ġst rict
ĠCount ry
_{ -
F T
ĠL ive
Ġco oper
if er
Ġneg ot
Ġst one
Ġpartn ership
ran e
Ġbel ief
Ġm anner
abl ed
Ġsom ew
Ġwe alth
Ġsk ills
is a
C P
H S
or ge
ĠD own
Ġw arn
D ist
ĠAl f
ĠD am
Ġper haps
Ġindic ates
ĠCap tain
Ġass ign
: \
ĠSer b
ĠW ho
bul let
Ġ rom
il ib
Ġkn ew
ĠBro ther
Ġplan et
Ġdet ection
ĠIn ternet
st ances
ĠMar ia
Ġtit led
Ġtown s
Ġide al
Ġd ivers
ot al
W omen
Ġ Î
B ar
z ero
Ġmod es
Ġacc ident
ĠE th
Ġalle ged
ĠA rizona
19 21
19 26
Ġte le
II I
Ä ±
ab ase
ut ies
S y
// //
Ġfight ing
om ot
Ġtw enty
ĠMar sh
Ġg ap
19 25
Ġhe ro
ĠEx ecutive
s es
1 000
H L
Ġm orph
19 23
ĠB ru
Ġsupport ing
Ġconc ert
ĠS quad
Ġfind s
Ġw itness
ĠMary land
ĠB all
Ġrem ark
ri um
Ġengine er
Ġb ond
ĠF ace
Ġmed ium
Ġj ur
ain ts
1 10
act er
in als
u v
Ġrece iving
s uch
ag a
Ġrelig ion
p ng
he tic
Ġthem e
Ġfin ish
Ġinstit ution
Ġsim ulation
Ġpr ime
19 12
Ġconstit ution
Bi ography
ĠLew is
on al
ĠFore ign
ĠW inter
F rench
Ġopp osition
ail s
Ġlim its
con n
~ $\
ĠP ass
ac ent
Ġtrans formation
6 00
Ġden otes
Ġc e
Ġatt ribut
Ġt error
ĠL ike
Ġjust ice
Ġar ms
Ġarrest ed
A ct
ĠF inal
25 0
' \
Cl ass
Ġcoeffic ients
ĠAre a
l ah
R S
ĠO p
Ġinst all
Ġext ensive
m essage
ĠE nergy
re qu
ter ed
com ing
âĢĿ ,
Ġsh ift
clus ive
ind ex
Ġtre nd
Ġlo an
Ġstart s
Ġdist ricts
ĠJ oh
pt ions
ĠC as
re ll
C ast
ĠSing apore
ol es
tt y
Ġgovern or
ĠAr thur
u ous
Ġscal ar
agon al
Ġd oll
ke ep
Ġfrequ ently
,\ ,
or gan
Ġult imately
Ġs urn
Ġl osing
p resent
text sc
Ġrank ed
enn a
Ġse vent
Ġinst ruct
Ġpers p
Ġf ashion
Ġst ress
ĠH al
ĠW rit
sub subsection
Ġres id
$ ^{-
I ON
Ġeduc ational
ĠSpr ing
Ġad m
ol i
Ġprincip le
v ements
Ch ar
ĠI N
D r
A B
ĠA D
ĠM oh
Ġc row
ers e
ĠH an
ĠC op
Ġmat hemat
Ġwas n
P P
ĠP it
ĠGall ery
Ġprov inc
av el
if ies
Ġit ems
ĠT ennessee
Ġpain ting
p ool
Ġs an
ĠR oute
S m
ĠH ard
Ġtechn ique
Ġadv oc
Ġv ice
ĠD ar
ĠB ridge
Ġcur ves
ol id
r r
ĠS em
Ġo dd
Ġw rest
Ġdoc uments
ĠTown ship
ian g
R el
ĠHol y
ĠG re
Ġposs ibly
= -
ĠE very
ĠT ai
ef e
ĠMem orial
Ġ+ \
Ġy ards
ĠS av
Ġjournal ist
ĠE U
S ong
ann ed
T S
Ġsup erv
Ġexper t
Ġb urn
Ġn et
ĠI V
The y
ĠCast le
st o
T rack
k es
ever al
Ġany one
Ġdr iving
Ġc atal
| }
Ġclos ely
achel or
Fig ure
ĠH o
Ġun able
ĠR oss
ĠComm and
Ġal t
Ġadd ing
Ġw ing
19 16
Ã£ o
Ġtrad ition
ĠCol on
D av
Ġtens or
ap es
Ð¾ Ð
st ack
Ġun f
hed ral
Ġcaus es
Ġdepend ence
M e
Ġhapp ened
y ers
19 15
ĠL ag
Ġopin ion
ĠBar on
Ġsuccessful ly
Ġimplement ation
oth ing
Ġentire ly
ĠB h
) {
$ (
ĠH ou
Ġcal c
ĠM ond
E q
Ġh uge
Ġd anger
Ġcommit ted
al ysis
ĠMount ain
Ġs ac
on ents
ir ty
ĠM iller
um es
anc hester
Ã º
Ġcomp ute
ill ery
ĠOr ig
Ġphys ics
Ġoppos ite
Ġc ab
Ġextrem ely
ĠViet nam
iv als
ĠM un
om ic
O lymp
ĠÂ §
ĠRepresent atives
ut her
ĠH art
Ġc overs
ĠSt ock
Ġ&= &
Ġasp ects
Ġdr iver
ec ution
Ġdev ices
Ġse ats
ĠCon st
an es
Ġr ich
Ġfem ales
Ġcirc le
Ġp ages
ect ic
ell o
Ġattempt s
ĠPhilipp ines
and y
$ ).
ĠK al
Ġrepe ated
sk i
as er
Ġconcern s
Ġin fl
b acks
Ġent itled
out s
Ġs ampl
Ġh all
am ely
w estern
Th us
Ġa head
Ġess ential
Ġintro duction
J an
ĠF ederation
oc racy
ure au
Ġgirl s
ĠRep ort
ord on
Ġerr ors
b ot
is er
ob e
Ġsing ular
Ġtransl ation
Ġag ree
ĠRe al
n ormal
ov en
ĠCE O
itzer land
Ġelectron ic
ink ing
Ġjob s
Ġb rain
c alled
in v
in ations
ĠLe on
Ġdep ending
Ġcorn er
Ġfl ood
Ġch annels
Ġn ob
M on
Ġac k
= {
c i
ĠOffic er
ĠE arl
z h
ib r
Ġpass ing
ĠPal est
Ġp un
Ġdep loy
Ġm and
c oh
Ġp ieces
ĠP eak
Ġch airman
}^ *
Ġprofess ion
S ing
ĠAdminist ration
D ata
ĠA M
Ġconsider ing
w atch
Ġsymmet ric
Ġdistribut ions
}} ^
Ġf uel
h ard
Ġopt ical
et ies
ĠNor way
ĠChild ren
Ġhold ing
Ġcop ies
force ment
ĠUk raine
gh an
ĠB ack
Ġopt ion
' .
A wards
amb ig
ĠPol icy
Ġchalleng es
c f
duc es
ren e
Ġf estival
Ġlett ers
ev in
Ġsp atial
inc oln
b al
ĠN orm
Ġtest s
lic ation
8 00
O M
m outh
Ġcover age
Ġdesign ated
ĠEn vironment
l iving
ic ip
ap el
Ġopp osed
er ick
Ġcon vent
Ġspect ra
Ġsh if
Ġwind ow
ens is
Ġd ig
ograp her
he rent
Ġcapt ure
ĠAr k
ĠMex ican
" ;
) ^{-
ĠW in
Ġv acc
j e
aw n
ĠA N
ab ama
B I
S upp
Ġthe atre
V i
we alth
ing ly
Ġwhere as
ĠIn vest
or row
ĠP ier
Ġturn s
ivers ary
Ġc art
Ġhom es
Ġv ent
g ener
Ġconfig uration
Ġj ump
Ġexpl ain
Ġm ess
ĠAnd erson
ag ues
Ġth reshold
Ġad opt
re hens
ĠV is
Ġa id
F ollowing
Ġocc asion
ipp i
Ġalgorithm s
ĠT a
Ã ¢
Ġf resh
19 13
Ġthous ands
ĠHigh way
omorph ic
ĠAb out
Ġnomin ated
ĠSur vey
Can adian
Ġh our
ĠS aturday
if ier
new command
oc ese
ĠFurther more
ĠF inally
B uild
b ell
ĠMos cow
m atrix
Ġrev olution
Ġgener ate
g ies
IN G
Ġinv ariant
Ġperm it
Ġvis ited
ĠDon ald
G l
ĠR un
Ġhe ar
Ġopportun ities
p ass
Ġg all
sp ect
ĠM unicip
Ch rist
Ġend ing
Ġb ow
Ġarbit rary
E P
ĠA ud
G C
pm atrix
d y
ues e
c are
ul i
Ġst orm
Ġto ols
end ment
R uss
ir us
ĠPr im
ĠT urn
Ġis n
Ġreturn ing
ad s
Ġro yal
igen ous
Ġv oid
Olymp ic
ĠK er
ĠI owa
Ġbur ied
Ġmod ified
Ġref ers
act or
ĠD or
Ġs av
Ġ\ (
} )$.
wh ite
Ġdi agn
uss ion
ĠD C
ĠEnter tainment
g ar
rap y
ĠTh rough
Ġre action
Ġor th
O P
) }{\
D S
ĠSt aff
sh ift
Ġcred it
ĠT oday
Ġsol ar
ĠĠĠĠĠĠĠĠ ĠĠ
Ġmedal ists
Ġl iqu
Ġst ellar
ĠV ice
Ġm ental
ik i
f ound
che ck
lah oma
Ġ= \
ĠS at
ple te
ur l
ĠM P
Ġs ale
ĠS uch
le te
Ġcomp ris
Ġe c
ĠL ast
Ġgl ass
Ġobserv ation
Ġdec om
erv es
et ing
ad i
Ġchang ing
Ġbig gest
il bert
Ġind ependence
Ġrecomm end
ad ed
ric e
Ġsaf e
ra ce
ĠAd am
Ġsc oring
ot ional
ĠHar ry
ĠF ord
Ġw ins
Ġind eed
Ġdis k
Ġpolynom ial
Ġopt ions
F e
Ġher self
Ġyield s
ĠMod ern
Ġd iplom
ag an
Ġm ist
Ġprocess ing
Ġsy m
l ay
ĠB arn
um in
CA A
Ġgu ard
au x
ĠMal ays
Ġsched uled
W est
ĠC ab
t ure
$ $\
Ġprom ote
riev ed
Ġweap ons
" /
Ġcontroll ed
Ġposs ibility
ĠF riday
J apan
Ġb ought
^{ +
U R
ĠWe b
Ġres on
b rid
Ġg rid
Ġconsist ing
c r
rem ark
Ġan imal
ffic ial
Ġm el
ĠL td
ĠAd v
Ġeffic iency
Ġv ocal
Ġb odies
olog ists
ant ly
Ġbro ken
ĠE s
the w
Ġat mosp
Ġlo op
Ġmeasure ment
Ġshe ll
Ġpresident ial
Ġeduc ated
qu es
includ ing
M M
19 11
Ġref used
ib b
ĠKh an
Ġs ought
Ġrac ing
d im
ĠA mb
ro c
Ġro ot
ĠSt ory
m ers
Will iam
Ġacc eler
ĠKent ucky
ra it
ectic ut
Ġpart ial
Ġus ual
Ġd rawn
t wo
ĠMel bourne
Ġex cell
se ason
Ġobserv e
O C
Ġworld wide
Ġas k
Ġdro pped
ĠS ri
ĠI ss
Ġcon j
ĠU s
iss ippi
Ġpract ices
p a
ĠF I
Ġst atic
The orem
ult ane
ĠI d
Ġgreat est
Ġs ession
yn asty
Ġb right
Ġth in
off s
st ract
ĠB alt
u ating
Ġ iron
ĠBase ball
ÃŃ a
t ri
in st
Ġs un
ĠJ unior
Pl ay
Ġmin imal
ch a
Ġdo ct
Ġcrit ics
ern el
Ġcomp lic
us al
Ġsub set
Ġag ents
Ġmass es
Ġlegisl ation
b el
Ġpers ons
Ġhyp othes
Ġport ray
ĠOn ly
t i
Ġar c
ro it
Ġreg istered
Ġstar ring
ip e
Ġvill ages
c ut
ow nt
T ax
p ur
Ġp seud
h box
Ġlat est
ĠH and
ĠO ak
T C
Ġad ap
ĠD ata
Ġz one
ĠTrans port
Ġposs ess
P ublic
ĠSim on
ĠSh ort
ĠG et
ĠM ir
ĠD u
Ġm ent
Ġo vers
) _
Ġ ille
c ount
Ġarg ued
og ether
t est
oc ument
Ġdisc rim
Ġs ave
enc ing
h r
Ġd ie
Ġmagn itude
z er
ust er
)$ -
ocr atic
Ġle ct
Ġdo or
ĠO cean
}} ^{
Ġprogram me
Ġprot ected
e lect
ĠMed icine
ĠIslam ic
ict ional
Ġtheore tical
ous es
ĠC are
Ġvol unte
Ġcomb at
Ġcomput ed
Ġext ent
Ġc as
B ibliography
Ġperman ent
Ġdec ade
r Ã©
__ __
ĠM att
ĠMag azine
S D
Ġpil ot
ĠA P
ad ow
f aces
Ġmat rices
ĠSen ior
ĠAl bert
N R
l an
Ġg ender
ĠJ ordan
ĠGree ce
Ġmot iv
Sport speople
anc er
Ġgu est
( $
ĠT ony
Ġprem ier
inem a
Ġbrother s
els on
20 23
ag h
ilib rium
map sto
ou red
le ase
pro b
Ġv ision
ĠR oy
ĠD omin
ĠG reg
ĠF ront
Ġwin ter
Ġs oci
E L
Ġatt orney
ĠE ric
ĠSw itzerland
Ġindic ated
h ost
p x
Ġint elligence
ĠWh it
Ġcall ing
ĠC ost
Ġf an
ĠComm unic
Ġrespons ibility
C or
Ġaff ect
Ġattempt ed
ĠG rant
190 8
Ġmanag ers
il er
ĠAg ain
d on
ĠB uilding
ag en
Ġstand s
Ġjourn ey
ĠM anchester
Ġsatisf y
Ġb ronze
l ow
Ġhe aring
Ġv ide
Ġa f
ĠAl abama
Ġdirect ors
Ġcontribut ed
ĠB efore
Ġsub stit
Ġexhib ition
ĠMod el
ĠN ick
Ġtre ated
ĠK ey
ĠIn n
ric ted
ĠAss oci
op ic
iven ess
ĠN FL
in er
Ġdifferent ial
Ġfunction al
H on
Ġs ell
or ig
Ġcons ecutive
Ġe ye
Ġreturn s
Ġh ole
ĠC P
ar o
Ġcategor ies
ĠAust ria
Ġcoordin ates
r ine
ĠB rian
os es
Ġold est
Ġcar bon
iam i
Ġas ympt
P res
ic ide
Ã¼ r
ĠA ge
m ma
ĠK at
Ġsix th
ĠL ow
Ġad ult
Ġinter ior
c at
ubl in
ĠH om
Ġd iver
Ġk ick
Ġf aced
ĠOb ama
Ġres c
k h
Ġw ants
P rop
d x
ĠT el
ĠH ur
ĠV o
Ġhot el
S F
B est
ym n
ĠReg ional
Ġpl us
Ġy ellow
Ġf iled
rit ical
ĠIsrael i
Ġprom otion
in th
Pop ulated
Ġt ail
ĠD un
ile y
Ġthe ories
Ġformer ly
Ġbeaut iful
ĠL iter
gl as
ĠR oll
ĠL incoln
ĠB urn
rom e
Ġbe am
Ġkill ing
Ġesc ape
Back ground
Ġlaw yer
) \\
ĠF ame
"> <
z i
Ġread y
rain ian
ĠP ot
Ġm obile
Ġcom ments
ort heast
Ġso le
od ot
ĠAb b
rib ed
fl ow
S ection
Ġto wer
ĠS ix
ĠT en
Ġcon ven
Ġbro ke
Ġgalax y
u y
ĠE c
ĠAm ong
ĠJan e
Ġcollabor ation
ĠB os
Ġsur g
app ed
er ts
Ġconver ted
Ġt urb
g raph
T wo
Ge ography
ot he
ism s
Ġco aches
Ġcan on
Ġtra ins
ĠN ev
ok es
$ ~
Ġc old
n ight
v ol
ĠCh annel
ĠFor ces
id ge
f irst
ĠC ape
ĠS i
ĠConn ecticut
ene z
ens ed
Ġimplement ed
ĠB ah
Ġhead quarters
ple x
Sp ec
Ġsh ut
Ġresearc hers
ã ĥ
\ "
Ġv ot
h om
ĠM icro
agn etic
Ġext end
ĠGo ogle
st ic
Ġst orage
ĠTok yo
um a
Ġcomp are
ĠG aussian
Ġoccup ied
i Ã³n
ef t
en h
Ġn one
o om
Ġinf rastructure
Ġtrans mission
c ar
Ġstre am
t em
pt y
Ġre new
he ight
per ty
Ġw arm
opp ed
ĠW olf
' (
Ġdec isions
Ġsett led
Ġwe ather
ĠDi ego
ĠR a
Ġhapp en
c ious
l ov
ĠF ac
ener gy
h as
ĠB rand
ĠM ach
Ġconclud e
Ġj azz
E r
over ty
el ve
$ ;
ĠM as
Ġt asks
ĠB ab
od ox
Ġdrum s
ĠS M
S L
I L
ĠW he
ĠN ap
Ġloc ally
ĠO tt
sc ill
Ġgrad uate
Ġbrief ly
Ġad vent
r ite
cc cc
Ġmusic ian
in cess
Ġtherm al
ĠSt one
D C
ur i
Ġthink ing
ĠĠĠĠĠĠĠĠĠĠĠĠĠĠĠĠ ĠĠĠĠĠĠĠ
Ġ= =
ĠH op
Ġcomm ander
Ġw alls
ik h
osp it
M en
Ġretire ment
Ġassist ance
Ġexperi enced
is d
Ġs ons
Ġprep ared
Ġproduc ing
ell ite
ĠS ound
Ġoff ices
Ġv eter
ĠC le
us hed
Ġp apers
Ġmay or
Ġpat ient
ĠHamilton ian
Ġadj ust
Ġf olk
B M
y les
Ġch apter
O f
Ġsust ain
ĠCol omb
Ġexper iences
ĠC ase
Ġexpl o
Ġscient ists
ĠD rag
ĠQueens land
ĠDo ctor
ambig uation
el le
\ _
ta h
n b
Ġsecond s
Ġcover ing
ĠAll en
c ur
Ġcent uries
form ance
ol ar
ĠOk lahoma
enn y
ill ing
ĠTurk ish
Ġto ol
Ġeffect ively
L ife
ĠB ureau
Ġag encies
so ft
ĠHou ston
h op
. $
prop osition
, $
ĠB or
Ġinter val
Ġcour ts
ĠBill board
Ġe yes
Ġsh ock
Ġd uty
ĠJ am
ist ed
Ġt ick
Ġf rag
ĠE P
ĠHol lywood
' ll
Ġhum ans
w ich
Ġdimens ions
De ath
ĠCh ile
G roup
Ġjo ining
val ues
in ction
ĠSquad ron
ap se
ĠS ky
uer to
v o
Ġrot ation
ĠAf ghan
Ġref uge
c ong
Ġf ranch
ĠLab our
Ġconcern ed
ĠB an
ĠTem ple
Ġsee k
Ġf ought
st an
Ġp ool
Ġly rics
Ġfound ing
f r
Ġhistor ian
Ġcon clusion
ĠMiss issippi
Ġhor se
Ġrefer ences
ĠAl i
Ġtem ple
Ġf ear
ĠR ose
ol ve
un a
Ġconclud ed
ig ious
s ible
ĠC all
s he
ĠL ank
\ {\
ĠĠĠĠĠĠĠĠ ĠĠĠĠ
ĠMar ine
10 1
ard o
ce ived
189 0
Ġstand ing
Ġscen es
] ;
a a
Ġb in
Ġrad iation
H er
ĠWal ter
un es
Ġn amely
Austral ian
Ġb inary
Ġobject ive
Ġgood s
s ur
ĠN AS
Ġm ales
Ġch urches
Ġtem por
l ink
f inal
Ġinteg ration
ĠW y
Ġscatter ing
w ick
ĠM it
Ġv ectors
ĠHe art
Ġb an
"/ >
ĠN ich
Ġsucceed ed
IN E
Ġind uced
Ġfound ation
Ġscal es
ĠMar c
ĠS quare
oun sel
el lect
ĠL og
Ġp ush
ĠP y
A nt
Ġeval uation
Ġair port
ĠN on
ĠS af
G A
ĠCon c
Ġcustom ers
Ġeng aged
Ġconver gence
}( {\
Ġ ion
Ġnot ation
ant asy
c ing
ĠW orks
Ġm ort
Ġpurch ase
az a
190 5
act ic
Ġun less
Ġco inc
á ĥ
N orth
Ġre ar
Ġk il
Ġrough ly
l ik
Å «
m ass
Ġpro sec
Ġpattern s
p ower
on i
Ġst ability
Ġcharacter istic
R I
Ġqual ified
Ġadj acent
Ġstri ke
ed ition
Ġestablish ment
Ġrelationship s
ã ģ
Ġhigh light
Ġfl uct
Ġaccom pl
ĠG ram
m i
Ġinteg rated
" ),
C ount
Ġdep ict
ag u
C al
Ġsu itable
Ġres ource
ant e
Ġsit uated
Ġlay ers
_ -
ĠH ans
et al
act s
ex ample
ĠU sing
t ik
Con n
Ġsol ve
display style
Ġdeb ate
ra ined
} &
ĠCo oper
Ġown ers
are st
Ġp ed
Ġoper ate
C M
Ġshort ly
a ire
ate ur
Ġvari ation
S ources
ĠN ig
re ct
ĠNor wegian
Ġsubs id
\| _{
Ġra ise
ĠAb d
Ġconf irm
ĠDef ense
ĠArm en
Ġliter ary
Ġheav ily
ĠTh ird
Ġbu y
Ġpre ced
Ġv o
Ġab und
ĠEm peror
ĠR eb
medi ate
M ost
190 6
Ġw el
Ġbl ocks
Ġchart s
Ġabs ence
ph ant
Ġo scill
Ġbal ance
Ġacc used
ĠPat rick
Ġax is
Ġh air
on na
o at
Ġvert ical
Ġmark ets
Ġphot o
ĠDis ney
Ġph one
m ont
I F
Ġs end
und le
h igh
Ġinteg er
Ġregard ed
Ġco ok
Ġsim ultane
ug u
H C
Ġcharacter istics
rupt ion
Ġpain ter
% .
Ġc ov
U K
el and
ĠI r
Ġvictim s
Ġcomplex ity
Ġag ed
Ġresist ance
Ġsepar ated
Ġcaus ing
ĠTe levision
190 9
p o
ĠN ative
st ood
ĠSil ver
Ġex clud
G et
i ated
d am
Ġre aching
al ian
ie val
Ġtri p
iv a
Ġori ent
Ġinv ited
Ġhelp ing
ĠHar ris
ol o
Ġext ens
Ġab use
Ġphot ograph
Ġor g
dis ambiguation
Ġex ceed
Ġmaintain ed
Ġre nt
ipp ing
A f
Ġor bit
ĠT an
H ar
Ġen emy
Ġb at
B orn
Ġaccur ate
mer ce
Ġk id
h ab
ĠD ue
Ġrec all
Ġpart ition
D o
l en
Ġinflu enced
Ġro of
up s
Ġmon itor
Ġc atch
ĠAg ency
Ġch ose
ars h
ĠM ethod
ĠTai wan
ĠN aval
Ġparticip ants
Ġre tail
ĠLouis iana
l ad
00 00
Ġdec or
Ġclust ers
b urn
ĠMo ore
Ġmix ing
O L
~~ ~~
str ong
ill ed
the less
190 7
Ġteac hers
C ent
ar on
Ġparticip ate
Ġsupp osed
C E
ĠA T
Ġcr uc
Ġdeliver ed
pro fit
Ġattack ed
Ġstat istical
rid ges
l s
in ian
all as
Ġd ates
od er
ĠFace book
ĠAnth ony
u j
Ġ( ,
ist ant
F M
it ivity
Ġtemper atures
Ġlow est
Ġl ake
Ġcam era
ĠZ h
ĠHot el
b at
Ġbring ing
f ef
ogene ous
ut ing
Ġstat ements
ĠN a
Ġuncertain ty
ĠSp ec
ro ph
D ec
ĠK y
els h
arn er
r in
E qu
ĠM and
us cript
id en
Ġcommission ed
on ly
Ġl ooks
ĠInf antry
Ġst ages
ell i
ĠS ud
C ar
Ġb atter
Ġpersp ective
Ġaccount s
Ġch air
Ġs and
Ġreg ul
ĠS C
ort ion
Ph il
Ġt rac
Ġconsequ ence
T op
ĠG ard
Ġdis miss
ĠD ark
Ġ$ $
ĠIn s
Ġinters ection
ĠâĢ ¦
ĠR ey
Ġg ar
-------- --------
Ġex cess
' }
Ġv oted
Ġrem ove
col umn
Te levision
Ġinterpret ation
Ġfl ows
K ey
ĠL ocal
ph one
m c
Ġgraph s
ĠSt r
yp es
Ġg one
Ġc ru
Ġr is
ĠY outh
Ġclass ic
Ġconn ect
ĠJ ay
ang el
ĠC atal
ĠAn ne
ĠOn ce
ist a
ĠP ope
aw are
ĠHar vard
" ).
E v
fri end
tik z
Ġcalcul ations
Ġ ri
ĠB ush
Ġlin ked
ĠBelg ium
t es
arch y
ol ished
M c
Ġoper a
Ġinh abit
ish ment
Ġtra v
ĠAl ber
Ġgun s
F inally
Ġpass es
ĠArgent ina
Ġob lig
Ġcertain ly
Ġunivers ities
l ades
Ġcons ervation
Ġfil ter
Ġtr ig
ĠM oon
ĠK am
Ġpoet ry
ac her
Ġr ational
Ġa ired
Ġb ed
at he
Ġex ception
ĠB eng
ĠG ab
} )$,
Ġunder lying
ĠC ook
Ġl aid
Ġpropos al
Ġ\ !
Ġun cle
Ġsomew hat
An other
Dav id
Ġinvestig ate
fef efe
ĠPortug uese
R ail
Int roduction
Ġ( ;
Ġemploy ment
bl ue
Ġunder t
Ġinf inite
ĠCommon wealth
Ġn om
) +\
Ġadap ted
190 4
ĠCh all
ĠEx per
ĠN et
ĠQue bec
Ġb ran
N S
Ġsing ers
Ġins urance
ĠCom put
ĠB ry
M ich
) )$
}{ |
ĠT rib
ĠSy m
} }$.
im ore
Ġr ig
is or
p et
ĠP rad
Ä ĥ
ab ad
is ely
ir ation
ĠB ou
Ġreg ulations
Ġsw itch
Ġpredict ed
ant on
Ġcrow d
Ġpract ical
ĠN ever
on av
ĠBr un
ĠS port
in put
Ġoffer ing
ĠB ir
l ocal
) },
not es
Ġvis ible
ot ype
ows ki
O D
ĠE ag
Ġvers us
Ġincorpor ated
ĠH amp
ak ed
ĠEconom ic
Ġcalc ulation
ownt own
ĠI S
p icture
ĠMc G
Ġemer gency
ĠAl bum
Ġpublic ations
M in
Ġvirt ual
Ġbehavi our
Ġpred iction
ograph ical
clus ions
B el
Ã© s
o a
ĠPh ill
ĠD ick
p at
ĠS oc
Ġphil osophy
ĠE nt
Ġcerem ony
ĠF inn
Ġgeomet ry
Ġp ray
ĠW ed
Ġfav our
u um
ĠHer itage
Ġin aug
Ġnecess arily
| _{
A G
Ġcl er
Ġcap able
sequ ently
at on
ĠHon or
ĠR ab
Ġsent ence
Ġmed icine
N ext
Ġinst alled
) -\
Ġass ault
ĠL in
ĠM iami
p ot
l ock
ĠT reat
rehens ive
Ġs occer
ĠRober ts
s ort
) }_{
ĠHaw ai
Ar ch
Ġampl itude
Ġp ione
ĠG ordon
} }$,
D escription
Ġacc ord
Ġag greg
Ġd ust
L em
Ġsc ope
ĠG ener
GB T
Ġsub t
Ġpre tty
lement ary
ĠMond ay
Ġass ert
Ġinj ured
Ġincreasing ly
h bar
Ġimmedi ate
Ġsum mary
Ġscen ario
ĠPro duct
Ġcompet itions
ĠN ob
Ġunivers al
Ġar ray
Ġaccom mod
level and
Ġrul ed
Ġsh ares
g i
Ġcircum stances
sy stem
Ġste el
Ġcol our
W rit
ram a
Ġar med
iss ions
p ed
190 1
S te
Ġpro hib
onom y
Ġvide os
d ale
Ġprote in
red ited
{ {
ĠInst ead
ĠBul g
O ct
ell ows
ĠMat thew
cy cl
ĠDet roit
ĠDou glas
p ublic
Ġsever e
ĠC ulture
&= &
ĠB attalion
Ġcomp ens
ot te
Ġlic ense
190 3
ĠMr s
Ġst ores
n ers
[ (
T ime
ĠH u
ĠA maz
F orm
Ġsurn ame
omet ric
Ġsee ing
Ġmer ch
12 5
ĠOr th
er on
od s
ĠVill age
it ative
Ġt ack
Ġt all
Ġconsist ed
ĠN CAA
aud i
ĠDen mark
ili ar
ic ular
Ġ( ),
ĠF arm
v y
ĠD ak
Ġm art
The refore
Ġmat ters
Ġpaint ings
Ġfill ed
ĠF le
Ġ Ä
Ġcour ses
ĠSt ew
D R
ĠR yan
Ã© t
Ġleg end
E ducation
Ġspec ified
ĠF ood
P ort
ut s
ĠN ik
ĠG ib
od ed
$ ),
J u
Sec ond
in burgh
R et
ra ge
s upp
ĠTer rit
Ġaband oned
ĠSw iss
ĠI l
}$ )
ĠP uerto
ĠMc K
ĠPhil ip
ĠP rix
Ġcont rad
Ġbre aking
ĠC emetery
f ather
D M
ĠA R
Ġsubject s
ĠM ult
Ġsum mar
Ġcan cell
ĠInd eed
ĠD al
Not able
ĠN ic
ail and
Ġjur isd
Ġm ac
Ġ$ |\
arg o
ĠAnton io
Ġde leg
int end
ĠD aily
ĠA le
Ġdis establ
Ġland s
iss ance
Ġmov ies
ts burgh
ist ent
Ġg ather
Ġstudy ing
Ġprov ision
Ġout er
im ents
um inos
ub b
L eg
Ġm ob
ĠK l
st al
Ġarg uments
os lav
Ġcom ic
ĠT HE
ĠS P
A g
ĠD ublin
Ġatt ached
ĠL as
Ġtalk ing
ĠSe ason
ri ed
for ward
ut t
ĠE arly
Ġac id
Ind ian
sec ond
hy thm
ĠPe ace
Ġd ry
ĠD VD
Ġdisc rete
Ġground s
190 2
Ġte en
onav irus
Ġcorpor ate
ĠDe ath
Ġabsol ute
ess ions
ch ar
Ġshoot ing
init ely
ĠD igital
V ill
ĠLiber al
C L
Ġsec retary
ĠC ode
u ilt
Ġaccomp an
ct ic
Ġg ene
Ġess entially
U nder
roll ed
Ġapp lying
ĠT ur
ĠCro at
Ġmarket ing
Ġpro jection
Ġsec ure
Ġunivers e
Ġmet res
Ġenc ounter
T able
op ter
Ġt ennis
p age
F ootball
à ¸
Ð º
Ġsport speople
M ilitary
Ġdr ivers
Ġf ib
Ġinstrum ent
and ra
18 80
ib l
Ġstre ets
Ġj et
or us
Ġb anks
r c
Ġext reme
C he
em en
ĠIndones ia
ĠN ag
C S
Ġre ign
b en
Ġbir ds
Ġpop ulations
Ġlook ed
ĠK evin
eg et
T E
Ġh ired
Ġcomput ational
Ġcoeffic ient
ĠP ed
ĠL ore
Ġr ival
Ġcompet e
Ġloss es
ail ed
Ġprincip les
ap olis
ĠV in
is ition
ĠK az
ap l
E urop
ĠPl ace
od ge
ex ual
Ġident ical
ortun ately
Ġneigh bour
i ot
Ġsynt hes
n ie
pr ise
ĠPortug al
ĠMay or
ĠC ru
Ġbo at
et ween
enez uel
Ġst opped
ĠS in
p op
Ġst ating
Ġdynam ic
Ġst ret
ĠBudd h
Ġregular ly
Ġexp on
ib ilities
Ġmod ule
Ġthan k
Pl ot
" :
Ġclos er
Val ue
Ġcl oud
ar ma
}{ (
Ġan th
i em
ĠT s
rep rene
urs day
=" #
Ġmanufact uring
ĠCh ampions
Ġconf idence
ĠD ur
Ġre in
ĠS el
Ġperiod s
Ġse ed
ĠP ap
Ġreject ed
ĠK itt
ĠDe ad
ort ed
Ġinvol ves
ĠH ills
Ġtouch down
Ġl ists
ann e
Ġal leg
Ġc aught
ĠSc ient
it ational
w ord
Ġsp eaking
Ġdeb t
Ġf ly
- $
Ġp overty
ã Ĥ
Ġm ilit
Ġexpl an
Ġeth nic
Ġn av
r ity
Ġdrug s
en ess
ol t
Ġhigh way
Ġang ular
ĠStud ios
ĠF il
Ġbul k
ject ive
` `
Ġent rance
R ober
ĠK arl
ird s
St ar
Ġexpl os
ĠAnd re
ĠRec ord
Ġocc as
Ġtra ject
Ġclin ical
Ġpl ate
ch t
ĠP a
Ġsupport s
Ġhundred s
Ġb rown
Ġvir us
Ġupd ate
ĠE uro
ect ure
ĠR ow
Ġgovern ments
Ġn ations
ĠCh airman
t w
Ġad mitted
le ton
Ġmembers hip
uz z
ĠL yn
Ġneut ral
ĠD ave
Ġkeep ing
Ġinter face
ĠEx t
ĠN atural
Ġd og
nes day
( (
att les
ont al
ĠR ang
Ġexpl ore
ĠI mm
c re
Ġdr iven
c ref
Ġoptim ization
ĠBrig ade
id ay
Ġro ots
est yle
Ġh its
ud den
ĠBow l
: }
Ġdemonst rated
ĠF M
ĠL ear
ĠP M
ri k
Ġreason able
ub er
Bl ack
Ġden oted
h or
ten ance
Ġcarry ing
c ks
Ġtransl ated
' d
grad e
Ġw aves
Ġsufficient ly
ĠH ockey
ĠCont rol
ĠAl an
Ġdomin ated
Ġpartn ers
Ġconcent ration
Ġ urg
E lect
Ġrel ax
Ġcl ar
Ġcont ribute
Ġw aters
ĠBrazil ian
u h
Ġsp ending
Ġjud g
ip age
Ġcomput ation
Ġclass ified
gress ive
Ġann iversary
Ġanc est
Ġanal og
uc ks
ors es
Ġrepresent ations
Ġrel ief
M ark
ĠB ible
Ġconv ex
R ef
ell ip
Ġk e
w ho
,\ ,\
Ġgrad e
ĠLie utenant
ĠLaw rence
ĠS n
ĠC ow
ĠL ang
ĠAtlant a
ĠC ond
Ġst adium
ĠD NA
ĠCon vention
c ore
ĠF all
ĠOr chestra
Ġmin ute
Ġpasseng er
Ġdes ired
Ġrob ust
min ipage
Cl ub
M us
Ġtro ub
u able
Ġbound s
ĠCap ital
A tt
d ie
R ed
ann y
Ġgrad ient
G M
od a
Ġass ets
ĠL am
Ġexplicit ly
Ġres idence
Ġk ids
ĠLa ure
Ġann ounce
Ġs elling
Ġroad s
ash i
ĠT rade
Ġdep os
M at
c raft
av or
G o
13 0
Ġre ct
ve e
E p
Ġunder stood
ol y
ia h
a uc
Ġequ ality
Ġliqu id
Ġs oul
ic ate
Ġcre ative
is ations
k ov
ĠRes erve
ol ly
Ġc ited
ĠHistor ical
Ġcoordin ate
Ġsub st
ĠAg ric
Ġdiscover y
Ġrapid ly
eli hood
Ġsu it
7 00
Ġsatisf ying
Ġh idden
b as
Ġscal ing
an ch
ĠR ub
18 0
l ie
Ġinv asion
Ġinterp re
Ġb oys
M arch
ynam ic
Ġbl og
Ġp ul
p arent
Ġcross ing
ĠK o
ul ner
Ġw ish
ĠAn y
ĠSam uel
Ġcharacter ized
ather ine
Ġqu e
Ġsign s
Ġhapp y
ĠKel ly
ĠL anc
Ġspirit ual
Ġdef in
Ġcirc uit
Ġrac ial
ĠD a
ĠEd inburgh
Ġfac ilit
Ġagric ultural
est ed
n ames
Ġsub group
Ġgu ide
Ġdomin ant
ĠB uck
Ġv oting
. '
Ġkey board
Ġent ropy
ĠP ref
Ġdepend ent
mult i
Ġis lands
Ġne ither
Ġprom pt
R oman
Ġthan ks
Ġt ru
Ġmer ged
ĠO F
ĠM i
che ll
al ing
Ġle mma
ĠKenn edy
fl oor
ĠM ean
ay an
ĠExp ress
es ides
C R
ĠE mer
ĠSupp ort
B O
ĠInd ependent
pos ed
ĠSe attle
Ġast ron
ĠH oll
ues day
en z
Ġhel ps
w orld
ĠR ick
oc a
ass ador
Ġlabel s
Ġcent ers
and o
op es
Ġrespect ive
p res
Ġrest ricted
Vi ew
cl osed
ĠGu ide
Ġdesign s
ĠArk ansas
Ġappro val
Ġre nd
ast e
p ost
ĠDep uty
ĠD anish
S um
Ġk ernel
U p
U sing
ĠWalk er
Ġr ating
For mer
âĢ ħ
ĠR y
" );
S er
Ġj unior
Ġmom ents
id al
ĠS ign
Ġal coh
big l
ast s
Ġpenal ty
ĠJu an
T ube
Ġun us
ĠH ug
Ġre venue
pl ane
Ġint ensity
Ġadv ice
az ines
Ġeven ing
d ied
ĠC hem
eg as
ĠN av
a ired
] {\
Ġsee king
G L
Ġfact ory
bar a
Ġsing ing
c s
ĠAuthor ity
b t
ĠIm perial
Ġshe l
he astern
in ch
at in
ĠTh ough
Ġhapp ens
T R
ĠR est
ĠJ ess
w all
Ġin fer
w en
A ut
ĠJ un
Ġcomplet ion
ĠG arden
Ġ$ {
Ġmod er
Ã ´
Ġloc omot
Ġview ed
Ġdet ected
Ġform ally
Ġp ip
ĠSpace watch
Ġinv ent
pro t
Ġsign als
Ġcrick et
Ġres erve
Ġdivers e
H igh
ess ed
is ode
Ġequ ilibrium
Ġ ?
Ġw onder
189 8
J ames
ĠAdd itionally
Ġimpro vement
Ġ// /
ĠRet rieved
ĠC art
ĠP eters
int eg
ah n
Ġtest ed
E m
^* $
Ġch ampions
arri er
Ġsatisf ied
Ġtem pl
Ġpost ed
B B
Ġsubstant ial
Ġarr ival
pr ison
ig e
ab et
Ġf er
ug ar
ĠBru ce
Ġman uscript
ro ke
ĠB ull
ĠA ction
ĠPh ot
ĠP erson
Ġexerc ise
ĠG a
G N
P aul
R em
Ġinstrum ents
ra ud
Ġeng ines
ĠM ission
S erv
Ġinhabit ants
ol ph
ĠU tah
Ġsp oke
) }}
Ġc ash
ĠB art
ĠAtt orney
A V
ĠBang lades
Ġint ellect
Ġmov es
Ġbi as
Ġst ood
ĠN ash
Ġfin ishing
Ġconcern ing
ĠP age
Ġd ens
oth s
Ġfranch ise
Ġack nowled
Ġis omorphism
ĠB us
O rig
ĠF ather
Ġdef ault
Ġassum ptions
ĠP as
tr ue
In f
u ction
189 9
Ġparticip ation
M R
Ġanim ated
Ġfle et
Ġtw elve
Ġpri ze
ul ating
ĠK ings
Ġa er
iffer ent
Ġon going
Ġd uties
ate ver
ĠR ight
A E
ĠM aur
Ac adem
il st
Ġexecut ed
: =
ĠRef orm
ĠF ern
ĠP ear
Ġappear ing
ĠMalays ia
? âĢĿ
z ed
Ġc m
á »
Ġm ine
Ġmunicip al
V ideo
Ġcalcul ate
Ġapp rec
Ġstrateg ies
Ġint ent
g r
Ġprec isely
Ġadapt ation
d oor
18 70
l as
Ġproduc es
Ġcast le
ĠTh ailand
] $.
ater n
Ġland scape
Ġpoint ed
f i
Ġcl ient
Ġnot ion
Ġflu id
ĠL ib
Ġrepl acing
ĠTw itter
Ð »
big r
Ġpric es
ĠBe at
act ory
Ġf lying
Ġb ra
Ġ[ \
ĠB uff
Ġpercent age
Ġpasseng ers
ĠT ig
bor ough
R ad
Ġel ig
Ġderiv ative
Ġmole cular
atur ally
Ġin her
ul us
ĠC ensus
ĠC hen
Ġrecord ings
usal em
ĠLem mon
ĠR ound
ic ians
is p
Ġtransport ation
ch ild
Ġs ter
Ġmin ing
Ġdis pl
ĠCh amber
Ġeval uate
ish ops
Ġra in
ĠT it
Ġactress es
ĠMor gan
Ġproduc ers
A ugust
m n
ĠSing h
Ġmy th
Re ception
ol as
; "|
S W
Ġv ast
Ġaud io
ed ing
Ġd a
Ġrecover y
\ ;
ĠFred erick
ĠUk rainian
Ġgrav ity
ĠLegisl ative
Ġsequ ences
it udes
rop ic
fin als
Ġres igned
ĠPal ace
iver pool
Ġdecre ase
i ability
Ġmid field
Exp atriate
Ġs leep
+ +
ĠComm ander
O per
ĠAll iance
m illion
Ġown ership
ĠE ver
Ġd iam
ĠP sych
ĠTra ining
Song s
ĠN ar
Q Q
ĠThom pson
Ġd rag
am an
Ġbound aries
ont in
Ġed ited
Ġd ynasty
Ġh al
Ġs udden
$ :
ĠN ext
Ġrequire ment
Ġpri est
J une
ĠN E
Ġearl iest
M any
Ġp ix
m o
\ }$.
Ġpubl ishing
Ġback ing
ĠFin land
ĠP rom
ge b
Ġconn ections
ĠY e
ĠDe an
Ġcomput ing
Ġsp end
Ġemb edd
Ġsepar ation
ar se
ĠCommun ist
B ox
un ctions
er ted
Ġex ecution
189 7
Ġem pty
ĠT ype
S ource
Ġt ropical
) )\
Ġdemonst rate
Ġad ults
ĠOb serv
ĠÃ ī
j oint
] }
ĠI ron
or f
ĠAust in
$ _{
Ġt ight
ret ion
Ġille gal
ph ony
Ġdeliver y
ĠSt ring
g eneral
Ġdimens ional
ĠD allas
ĠR ace
Ġsh op
Ġen forcement
ÃŃ n
Ġassoci ate
p g
et ch
Ġf alls
ĠC leveland
ĠMon te
Ġte ach
ss on
) "
M al
Ġben ch
ĠCent ury
Ġhead s
Ġh am
Ġcolon ial
reg ular
Ġsc hem
P at
C onst
Ġprov isions
it arian
p ace
ic ations
Ġupd ated
inc orpor
? "
ud a
ĠT ar
ĠCol lection
189 5
aw ay
ĠV ideo
ĠRuss ell
F lor
ĠSchool s
em i
}\ ,\
Ġdec line
Ġhypothes is
ĠLe ad
G en
Ġst ead
ov es
er ior
Ġaccompan ied
ĠK now
Ġemploy ee
or ia
Ġsc ores
Ġb os
] (
ĠStew art
Ġdecom position
le ans
ĠFri ed
Ġentertain ment
arg ets
s ong
Ġtechn ologies
om as
ys elf
eng er
189 6
Ġden ied
ĠAd ams
Ġcompet itive
Ġarch ae
Ex t
end ar
ĠAn na
e ast
math op
Ġresident ial
T H
ĠC ov
Ġsurv ived
1 15
M ajor
Ġreplace ment
ĠOrgan ization
ĠJud ge
ĠPl ayer
ĠPrad esh
Ġcontinu ing
ew here
Ġmeet ings
Ġvisit ors
ĠA BC
ath y
ĠâĢ ¢
Ġoper ates
Ġchild hood
Ġm apping
1 12
j u
Ġequ ipped
ĠHung ary
Ġmar ine
es ign
ĠOrth odox
$ {\
P E
ĠN ep
ĠAd vent
B efore
Ġstrugg le
ĠT un
ific ial
long rightarrow
ĠH as
Ã ¥
Ġro oms
d ep
ow ed
Ġjud ges
ĠBalt imore
Ġaff ord
Ġfeel ing
ĠP C
e lection
10 5
ren a
ĠYear s
re ement
Ġbeh alf
Ġpart ially
Ġd ies
Ġimpos sible
sum mary
ĠStand ard
ĠPubl ishing
ist ration
w as
ĠB ox
ob s
Ġenh ance
ĠG un
Ġtri es
Ġrestaur ant
Ġmov ements
ĠSar ah
% ,
Ġn ick
ĠD ance
âĢ ¢
B E
Ġph r
i op
ook ing
ĠC rown
Ġillust rated
AT E
b ase
Ġl ose
ĠâĢ ł
Ġ\ ]
Ġh ur
Ġinter act
Ġrestrict ions
O W
ĠKn ight
R ich
Ġener gies
qu ir
ĠS ac
16 0
Ġg rown
j ust
or ro
ĠSh ah
ĠB oys
In st
st ery
Ġh ang
ĠD ream
Ġsk y
ĠN elson
row s
ĠP ur
Ä «
Ġwor st
he nt
ĠW ard
ĠG ulf
Ġsched ule
Ġext ends
Ġneut r
Build ings
ĠPit tsburgh
Ġcl ients
Ġmax im
n est
ou stic
Ġpra ised
, {\
.. .,
ĠMont real
Ġsk in
Ġsignific ance
Ġc raft
Ġg ate
ĠN eb
mod ule
Ī Ĵ
ĠO d
ĠM L
Ġprison ers
t frac
ress ive
ĠS everal
def ined
Don ald
Ġl uminos
Ġt ank
ĠW right
grad uate
Ġf aster
Ġsub section
ĠW elsh
Ġpre gn
Ġcritic ism
ĠBrother s
Ġw at
art ing
Ġs now
Ġdat abase
ĠAlf red
ĠMet ropolitan
Ġf lex
ĠC M
ĠSen ator
cul es
re tt
Ġexcell ent
Ġathlet es
Ju ly
J ust
F inal
Ġher itage
Ġim prison
Ġg rass
uk i
}} )
ĠRog er
d ers
Ġwe ights
F amily
ot ten
ĠF ive
Ġcon vention
Ġcrit eria
cast ing
ĠAfghan istan
ĠH it
ĠChrist opher
Ġpres ents
Ġconc rete
Ġfem in
ĠMarg aret
ĠOn line
Ġw ire
ĠP ho
ag g
Ob ject
f il
Ġin clusion
ĠOr leans
se a
Ġh un
ĠR io
ĠCl inton
] $,
ine a
Ġtem porary
Ġcons ervative
ear ing
Ġstr uck
Ġinv erse
ran ean
ĠR ic
urrent ly
ourn ament
u is
il k
ĠBet ween
ĠJer usalem
Ġent ries
Ġse es
m aster
Ġquant ities
Ġcr imes
H ome
ĠSystem s
Ġsy nd
b ottom
ĠLe ban
ĠCont in
ĠM Ps
Ġcomp at
Ġdec ide
Ġthe ater
Ġdiv or
Ġin duct
Ġ ^{
s is
H istor
ĠC ra
Ġmagn et
incorpor ated
Ġh ier
Ġent ering
ĠC H
Ġtra ce
ospit als
Ġcontrol s
ĠWed nesday
D i
Ġform ing
Ġg ay
ang ular
irm ingham
C ap
B N
ĠM aine
Ġm outh
Ġg ang
Ġjournal ists
ĠV enezuel
ĠYou Tube
P M
ĠW oman
Ġcruc ial
am ents
ins ula
st able
c ient
ur ers
our se
Ġcollect ions
ĠNig eria
Trans port
D ep
Ġread er
x x
ac on
Ġc rown
Ġfind ings
Ġsevent h
Ġme ets
em ploy
Ã «
Ġoccup ation
bra ce
erb ai
m al
or ous
Ġtown ship
s ign
Ġsampl ing
Ġf erm
Ġsat ellite
St ud
Ġhand le
ro sc
u its
ĠN ation
Ġfact s
Ġrad ial
ĠRob inson
c ard
ĠN eg
r atic
ĠCar ter
Ġres ign
Ġsu icide
ĠMount ains
ub ble
ĠCo le
ĠSy ria
h us
e enth
Ġvot ers
Ġdi agonal
ir i
il ty
ĠC arn
ĠTh ursday
Ġro utes
Sc ott
ĠU C
v ature
Ġbran ches
Russ ian
Ġsym pt
Ġhy brid
d irect
ob by
p ack
Ġrail road
Ġrecomm ended
Ġseem ed
A pril
ĠF al
Ġdirect ions
s at
Ġrul ing
Ġpot entially
ouri er
Japan ese
Ġcon form
Ġconf ront
c hers
Ġisol ated
Ġmanif old
Ġwith draw
we b
Ġb ishop
itect ure
ĠF ight
ĠAust rian
Ġn urs
iss ue
ĠVi ew
ĠHamp shire
12 8
h ow
Ġfac ing
ĠJoh ann
n av
ug oslav
ĠBrook lyn
ĠDemocr ats
Ġill ness
amp s
er g
Ġrepresent atives
}) =
ri p
ĠOtt oman
}) }
ĠN BA
iction ary
Ġwrit es
Ġdescrib ing
Ġvari ations
ĠFrank lin
Ġorgan isation
It alian
Ġaff airs
Ġsimultane ously
Ġnegot i
Ġ ]
m aking
Ġreport ing
ers et
Jan uary
Ġfor th
Ġcommunic ations
188 9
ir ical
Ġit em
Ġcolumn s
ĠGirl s
ĠK a
Ġexp osure
Ġpass ion
Ġweek end
ĠG iven
Ġexper ts
ĠG ill
Ġf ired
ĠMur ray
Ġre cept
b es
Ġestim ation
S an
ĠCamp bell
Ġtop ological
ĠRail road
ĠF r
g ow
Ġreal ized
on ian
Ġne ural
Ġwind ows
Ġhead ed
Ġconvent ional
ob i
z z
ĠP un
Ġdiv isions
the re
Ġstrateg ic
anc ell
T est
less sim
Ġappoint ment
ĠH ell
t own
Ġkn ock
ĠRoman ia
ĠH erm
;\ ;\
ou ver
Ġre ception
Ġturn ing
es is
Ġv eget
ĠVi enna
em pl
F ran
ĠW W
Ġl es
F I
Ġdep uty
ĠH orn
elf are
ĠS ite
ĠC er
claim ed
Ġm ir
Ġpr on
red it
189 2
Ġconstitu ency
ĠP ad
ĠR ugby
j amin
Ġdisc ip
Ġfavor ite
Ġdef ensive
Ġenjoy ed
R ight
Ġconsider able
an im
ĠE ss
O fficial
Ġpack age
is hers
Ġcanon ical
! !
f all
b ridge
Ġasp ect
och astic
p erson
Ġdown load
Ġcom fort
apt ist
G iven
Ġsurg ery
ĠMov ement
Oct ober
ubl ished
i u
Ġp itch
ĠDak ota
1 17
ir ates
M r
Ġdam aged
ĠF ull
Ġpet ition
if ts
Ġpublic ly
al ia
Ġrec on
Ġcon qu
ort on
i ac
over y
Ġtop ic
ĠD om
art he
Ġnot ably
A ng
Ġdesign er
ĠF el
ĠPolit ical
i ere
Ġtop ics
Ġactiv ist
ĠW a
Ġval ley
ĠPat ri
Ġass embly
ĠI mp
ĠD ie
ar us
Ġarrang ed
Ġsim ilarly
Ġdet ect
1 14
ĠM ap
ĠHung arian
Ġconv inc
189 3
Ġdes ire
ĠO ri
Ġint ention
pro cess
Ġd ating
Ġpath s
ĠCh ampion
et ry
ro se
189 4
1 13
res ults
ĠL ane
Ġd iversity
Vill ages
F R
Ġmatch ing
ĠR ain
ĠA y
ill o
Ġro se
Ġdoll ars
][ ]{
ys et
Ġs ight
ĠL iverpool
Ġcomple ment
ĠT uesday
Ġfam iliar
ĠMar ie
Ġpopular ity
d frac
i ota
D et
ĠM es
}} .
ĠT rad
Ġsh aring
Ġdraw ing
Ġtri ple
omet ry
Ġbelie ves
S eptember
W orks
N E
ĠA qu
Ġob st
em or
Ġcomp rehensive
ĠVol ume
ĠV ik
Ġamount s
Ġgener ic
Ġmarg in
f ont
d ependent
Ġord inary
b ach
18 60
Ġpay ment
Ġdatas ets
ĠG P
Pro fess
ĠApp endix
n ik
}} _{\
Ġp od
en berg
ĠSec ret
as p
}) ^
Ġpres c
ĠT erm
\\\\\\\\\\\\\\\\\\\\\\\\\\\\\\\\ \\\\\\\\\\\\\\\\\\\\\\\\\\\\\\\\
ĠG rad
cal e
ĠAl ice
ĠLank a
EN T
eop les
h ai
u in
l arg
Ġexpl ains
ĠMic hel
Ġwill ing
onym ous
ĠS audi
Ġf iles
Ġoff ensive
Ġf asc
Ġfeed back
Ġre ducing
ob a
Ã ł
Ġtr ivial
Rail way
Ġinter mediate
par agraph
et ary
Ġbe ar
m iral
y cl
re ams
Ġpremier ed
Ġder ive
com es
Ġv ulner
Ġconsider ation
ĠCom ics
. :
os c
Ġrep utation
ĠK u
v ari
Ġkn ows
ĠC A
189 1
ĠTam il
Ġstrong er
Ġgreat ly
Ġconst ants
Ġsens itive
U C
ter y
) }_
ĠL ith
ĠPri or
Ġlist en
Ġren ov
Ġmet ers
en ix
eng ths
Ġc ards
188 5
H T
Ġf est
ĠI D
Ġmain tenance
it ol
Ġt ied
empt yset
Ġcollect ive
ograph ics
ĠPr incip
Ġt argets
i at
ĠMarsh all
f s
Ġcommit ment
Ġhost s
ĠB ed
ĠMor ris
Ġexhib it
al gorithm
ĠH old
ĠCh ang
Ġman age
A p
Ġpredict ions
ĠR oc
ĠF A
Ġsuff ering
ĠOper a
B L
R ead
lic k
Ġceleb rated
end a
Ġcomp ilation
Ġwith d
==== ====
Ġart istic
d in
cont in
ĠM agn
Ġso il
$ };
Ġ{ $
l on
Ġ ellip
ĠM other
Ġrest ored
Ġre vers
Ġn ortheast
ĠEv ans
Ġcol ors
ĠAr n
ĠAss istant
athe red
l t
ĠO bl
ĠPort land
e o
Ġplatform s
Ġfl o
Ġven ues
}[ \
Ġwhe el
hat tan
d ate
| }{
Ġf ruit
Ġcompos ers
iter ranean
d el
ĠJ ason
Ġweek ly
ip er
Ġin ternet
ĠC ass
Ġvol umes
}} ^{\
Ġatmosp here
Ġcr ash
Ġro ut
ĠBanglades h
Ġm yself
Ġthous and
Ġinvol vement
ĠEd ition
ĠL INE
âĢ ĺ
Ġinj uries
in stein
Ġwe ar
ĠS ev
Med al
Ġapparent ly
ov o
s a
Ġretain ed
ĠI T
Ġnewsp apers
Ġdoub t
iss on
n umber
y ll
H om
ĠW ol
Ġat oms
Ġdesc end
Ġphot on
Ġph ases
Ġgeneral ized
ĠV ari
188 8
Ġstay ed
m aker
th rough
Ġrec re
ibb ean
Ġan ch
Ġident ification
Ġassum ing
ĠD ub
ĠH end
Ġdisplay ed
Ġind epend
ĠJos Ã©
Cons ider
ul um
Ġan om
Ġdiscuss ions
a uthor
Ġrec ru
g ate
Ġreve als
Ġchalleng ing
al gebra
ĠPr incess
ĠL GBT
Ġmax imal
Ġquant ity
f are
rack et
Rober t
w right
Ġst im
Ġsub mitted
Ġs ed
Ġd ense
Ġnon linear
n ia
Ġsett ings
Ġdistingu ished
ĠP ay
}) ;
Ġv ic
Ġd ream
Ġexp ensive
Ġbr ings
ĠI R
Ġ$ .
ch ron
ĠEx pl
Ġsp r
Ġtrad ing
Ġbelong s
ĠNaz i
em ed
V ol
De cember
ĠUn it
Ge orge
nb sp
ĠGra ham
ĠM S
ij ing
ock et
geb ras
k ee
ĠK it
Ġg arden
l ocation
Polit ical
Ġhor ror
Af ric
Ġsy mp
ult an
Ġr ivers
Ġprovinc ial
N on
ĠAd vis
ĠSp irit
Ġout break
D B
Ġfocus es
form ing
ĠZ e
Ġm ile
Ġgen re
Ġproced ures
ĠR ico
ĠMark et
ric ane
ĠSoc orro
Ġrank ing
Ġtru ly
Ġsit uations
Ġh ill
s lant
Ġdef orm
b ishop
op edia
og ram
st ep
ĠG ary
l ash
Ġk in
hold ers
Ġa w
Ġconsequ ences
bl ock
Ġelect ro
Ã³ w
ch ing
ĠMad rid
ĠR ud
ĠL uther
Ġprop ose
p read
Ġvis iting
Ġent ity
ĠF uture
ĠStan ley
L ast
Ġexpress ions
Ġeas ier
Ġdiam eter
ĠP ut
um ption
pro v
Ġpl as
Ġd ress
Ġb ot
Ġst uff
ĠE sp
ic ian
it ations
ĠB achelor
ĠC R
Ġconsum ption
ĠĠĠĠĠĠĠĠ ĠĠĠĠĠĠ
ĠMet ro
Ġdis order
Ġtal ent
E FA
Ġcolle ges
Ġoper ational
v ector
Mich ael
ur ations
D T
ĠApp le
Ġreconst ruction
ou pl
Ġcould n
at ar
ĠN ad
ĠBroad way
Ġadvert ising
Ġm es
vious ly
= .
ĠB ey
ĠM aj
ĠLINE AR
h l
ol ving
186 5
con f
Ġwa it
ĠLim ited
ĠF isher
Al bum
and al
Ġclos ure
ĠUp on
ĠInd ians
ĠL ower
ĠGl as
g reen
Ġb on
ĠArt icle
anc ouver
Ġsound s
Ġpriv acy
Ġdanger ous
Ġ\ &
Ġjurisd iction
-- -
ĠTh ose
Pro of
ĠM A
us er
Ġw ides
ish ments
ĠCons ervative
Ġste am
Ġking dom
Ġrel ating
Ġequival ence
Ġd ated
ro ck
$ &
ĠJim my
Ġw ounded
ĠR ural
Ġm it
ĠWh y
bm atrix
rep resent
ug s
Ġkil omet
ĠW here
Ġwa iting
Ġm al
ĠT ak
Ġn aturally
Ġcom ed
Ġinflu ential
ari os
script size
b oy
Nov ember
ys ical
Ġen able
L ong
Ġdise ases
Ġattribut ed
Ġexc ited
Ġassess ment
iv an
it ime
he w
ĠB irmingham
Ġg iant
Ġtri als
F ield
Ġqu asi
Ġcons umer
Ġb id
Ġs izes
Ġcoast al
Ġf aces
ĠM ack
10 2
al ph
Ġlaw yers
ator ial
Ġremain der
Ġtrans mit
ĠFin ancial
D is
Ġrecover ed
o es
Ġaccess ible
Ġint r
rick et
Ġdeterm in
Ġsup ers
Ġloc ality
ĠM C
Ġm or
Ġn aval
Ġpo em
st s
Ġperson ality
ĠJ azz
Ġasympt otic
Ġm ask
ĠWe bsite
Ġelement ary
ĠRes p
ge on
ĠK an
ĠB orn
Ġcrick eters
Ġliber al
Ġt ag
Ġ }{
ĠC el
ĠB aker
ĠThe ater
Ã¨ re
R ev
Ġmiss ed
l u
st ory
Ġcritic ized
Ġcho ices
Ġproport ional
Ġcompet ing
ii i
im ental
ĠJ enn
ab ric
et on
ĠB eck
ley ball
Ġaim ed
le e
Pro duction
M art
Ġnorth west
ĠDel hi
ĠWar ren
ĠB illy
p eople
con v
Ġpain ted
iff s
as a
Ġstruct ural
Ġas king
ĠG on
ĠHig gs
Ġsm art
Å Ħ
Ġhabit at
id ance
Ġexp osed
umb ent
P o
Ġround s
az e
Ġcoll apse
Ġf ishing
Ġc odes
Å Ł
lo op
Ġl oved
ĠFre edom
ĠSt ev
w inning
Ġiniti ative
\ )
Ġalcoh ol
Ġw ings
Ġvac uum
Ġcount ies
G R
ann on
Ġsymbol s
Ġqu ark
Ġfor g
Ġcred ited
Ġs in
ĠW rest
ĠU pper
ĠColon el
aval ry
N C
M ain
ĠL anguage
et he
Ġapp lies
v als
ick ing
Ġprot ests
f amily
Ġconcept s
Ġrom antic
ul er
^{ *
Ġpan els
ĠN ature
ĠBern ard
Ġsh r
list ed
Ġpres erved
um ed
um ps
Ġc ous
Ġinvestig ated
Ġout come
ĠR ap
et ition
ĠQ ual
Ġapplic able
d est
ar ation
Ġvary ing
Ġt el
Ġapproxim ate
E very
Ġorient ation
ĠC ultural
Ġcooper ation
Ġm oral
Ġc rop
bold math
Ġsupport ers
op en
Ġthreat ened
ĠCommunic ations
Ġf at
Ġphot ography
Ġg re
Ġent reprene
verse as
Ġre ward
Ġpaint ers
ĠChrist ians
red uc
ĠM ess
) --
Ġconvers ion
ĠJos h
ĠN i
Ġc ounsel
Ġconn ecting
ham mad
}} }\
Ġsur faces
188 7
Ġem otional
Ġel der
ĠI P
if le
j s
sc ar
Ġvess els
ĠMot or
ĠG ran
ĠGu y
Ġread ers
v ia
ific ate
Ġput ting
Ġconv icted
Ġdecl ined
ĠE vent
ĠC ry
Ġf urn
14 0
Ġbelong ing
ĠSt ars
exp ected
Ġelect oral
Ġr ising
ĠAmaz on
ens or
Ġc ir
H O
ĠProt ection
ĠDef ence
writ ten
or o
im ir
Ġcoupl ed
Ġelect rons
Ġfund ed
H ence
et ric
m ates
E nt
form s
vers ion
ĠS R
. ;
Ġgener a
ĠDe ep
188 6
av i
erv oir
Ġsub mar
ĠConf eder
th a
n amed
ĠAl aska
Ġemb edding
} ~
Ġcon sp
/ (
Ġhe lic
Ġthem es
G P
Ġdebut ed
ĠSm all
ens on
Ġproper ly
ĠMit chell
10 4
Ġmechan ical
erm ont
Ġd owntown
}} =
ĠM embers
186 4
Ġdest ruction
L ine
Ġactiv ists
{ |
ĠCub a
ĠCommission er
D espite
ĠP ictures
Ġwides pread
ane ous
: =\
Ġsuccess or
oth y
ĠSt rate
Ġcounter part
B ur
ov ing
Lem ma
ĠB enn
Ġens emble
Ġfluct uations
ĠBl ues
Ġe at
Ġaccord ance
ĠA rena
11 1
Ġb undle
t iny
Ġguitar ist
Ġread s
Ġland ing
Ġstrict ly
t z
m ate
D ou
f ront
Ġsystem atic
ĠOper ation
Ġstri p
column width
pl ot
Ġcomplic ated
Ġgrav itational
par ison
ĠCons ider
Ġfin ance
W A
18 50
Ġrad ical
Col or
Ġencoura ged
s ince
ĠH um
\ }$,
Ġp m
f iction
duc ational
Ġdaugh ters
ĠS U
Ġacqu isition
Ġe q
script style
Ġfit ted
Ġforest s
e als
k l
Ġab road
Ġstar red
Ġ/ **
ĠT ol
Ġpass age
Ġreconst ruct
n an
Ġo cean
Ġhoriz ontal
Ġman ip
ul u
ĠPro b
Ġcor onavirus
ĠAlber ta
g un
ĉĉĉĉ ĉ
}_{ -
ĠV egas
ĠT ower
ĠSim ilarly
w ill
ĠMan hattan
Q ue
}$ }
) );
ĠT ax
Ġemer ged
ĠC arm
ĠAz erbai
Ġm ig
Ġnomin ation
Ġunus ual
Ġelectric ity
Ġp ian
Ġcl imb
Ġaut o
l oc
Ġexist ed
ut ely
R R
ĠT ob
Ġaddress ed
D I
Ġsign ing
Ġpresent ation
\ }\
ĠK um
Ġre duces
ĠA the
Ġass ass
ĠC rit
ĠMuslim s
ĠB ud
Ġdef ence
Ġab stract
Ġe mail
186 1
ok a
Ġd ot
Ġprec ise
ol ia
Ġschem es
Ġc od
Ġphot os
at ics
ĠJohn ny
ĠCat hedral
orks hire
D an
ĠNev ada
Ġann ually
T ext
Ġmechanism s
Ġmed ieval
ĠNorm an
ri el
ens ing
ĠEgypt ian
È Ļ
Ġsusp ended
X i
erv ing
om ent
Ġgener ating
Ġad min
J ew
or er
Ġp ictures
Ġsign ature
Ġtal ks
ĠM ind
ĠB asketball
pt o
Ġcon fer
. âĢĻ
ĠCharl ie
ĠV I
Ġmount ains
ĠIran ian
ĠMar s
Ġ ^
f ol
Ġv ariance
Ġcut s
un it
at iv
ra ham
ok ed
Ġcur vature
ĠL iving
iv ia
Ġnorm ally
Ġout l
Ġs outheast
Ġsurround ed
Ġ( {\
Ġw ine
J os
Ġex port
Ġindepend ently
188 4
ĠWay ne
D en
est one
m und
Ġt ur
c over
arthe ta
ĠL P
Ġcontrovers y
Europ ean
it ure
ok ing
. ),
Ġne arest
ĠCar ibbean
sc ription
ĠP il
} |\
Ġaim s
ĠNew ton
Ġnar rative
Ġful fill
Ġc yl
f ly
Ã© n
ol utions
Ġw ww
Ġcoupl es
ĠD M
ĠPh D
n um
Ġcorre ction
ĠHe b
enc er
Ġo x
v artheta
Ġindic ating
ĠL ud
op al
Ġeval uated
Ġgu ilty
Ġfrequ encies
Ġviol in
os ph
ĠM eg
Ġelimin ated
ĠIn sp
Ġsp oken
ĠAthlet ic
Ġdep icted
Ġsympt oms
Ġdifficult y
Ġre aches
Ġarg ue
Ġpick ed
ĠU g
Ġtax es
nowled g
ren cy
Ġdeal ing
Ġthe rapy
Ġcon gress
ynam ics
Ġ els
Ġreg ulation
10 3
G S
ymmet ric
ĠSal v
Ġt ang
em n
ĠP ack
v ision
z ing
Ġautom atically
Ġneigh b
Ġqual ifying
Ġbusiness man
Ġmag azines
ĠStud y
S ports
Ġa maz
ur ities
ĠT ournament
Ġtun nel
l arge
Ġrem ote
Ġagric ulture
Ġluminos ity
ĠS ax
Ġwor se
Supp ose
cl ip
Ġh at
^* \
th an
ĠB omb
Ġfrequ ent
ĠUr ban
Ġcontrovers ial
Ġw avel
Ġgen etic
Ġmet all
3 50
ĠCh air
ĠEnvironment al
ĠH ad
Ġdef ines
Ġle af
Ġvari ant
## ##
Ġst abil
r aska
ĠCirc uit
Ġf oss
L T
per ties
& =\
le ased
Ġmer ger
Ġf ee
Ġ$ ,
ĠGe V
Ġmem or
Ġgrad ually
im p
ĠBar bara
ĠWind ows
ĠR and
Ġser ial
Ġsouth west
v s
ue z
Ġmiss ions
Ġdynam ical
res ult
Al so
Ġmar ks
12 3
1 16
d em
l ights
par allel
More over
ĠTro phy
. </
B R
Ġslow ly
L ater
ĠW ang
f n
ff ee
ĠCarl os
Ġwas te
ĠN ord
ak s
Ġt ie
ĠElect ric
au ra
ĠPark er
B ecause
Ĥ ¬
Ġrele ases
Ġmay be
Ġple ase
ĠHawai i
le tt
ĠFin ance
an ion
uc l
ĠL ad
ud son
Ġmess ages
Ġval uable
ter ior
Ġcomm ut
Ġf raud
P al
g t
Ġind igenous
ĠA ld
ĠAnd y
ĠFri ends
un ity
app y
tikz picture
ĉĉ Ċ
Ġterrit ories
o ks
av an
Ġwh atever
Ġpurs ue
Ġsupp lies
] )
o ons
P T
neg ative
em ale
Ġ es
ĠN am
ĠC rim
ut r
Ġschol ar
188 1
ab i
[ -
ex pl
S chool
ac re
Ġal ter
ĠProfess ional
ed ed
Ġt elling
al ed
ĠF ellow
Ex ception
ov iÄĩ
Ġviol ent
h ill
Ġperiod ic
Ġp y
hib ition
clus ively
Ġb rick
ĠI an
ĠFI FA
Ġminor ity
186 3
Ġbe ach
Ġcl ock
Ġuns uccess
it is
arn ing
X X
k g
M ult
ĠColl ins
ĠC her
Ġloc k
ĠS N
B r
Ġfin als
Ġsp ac
Ġrang es
es ian
Ġflow ers
ĠV ic
ĠChall enge
Ġcorre ctions
o i
ĠProt est
M ax
Ġacc um
Ġr anks
ĠRet urn
ĠBen jamin
ra ys
Ġabsor ption
Ġus age
Ñ ĥ
ĠH ero
Ġout standing
Ġlegisl ative
ĠBe ijing
Ġestablish ing
Ġis ot
ĠT ib
Ġb ars
Ġvess el
Ġinform ed
Ã¶ r
ĠA C
ĠS D
! "
rib e
Ġconvers ation
Ġw ars
Ġth irty
Ġarrang ement
Ġd ashed
**** ****
L og
pan ic
Ġfew er
Ġanal ys
Ġf old
ĠMunicip ality
ot ton
Ġprefer red
ĠY ugoslav
A rm
ta ch
ĠPol y
ater al
ĠCh art
ĠGlas gow
f ast
rist ol
d ash
Ġels ewhere
sh aped
E X
Ġaware ness
10 6
9 00
ĠS S
b ow
ĠY orkshire
Ġv anish
og a
Ġdem ocracy
Ġgeomet ric
ĠAthlet ics
con fig
ev a
^{ (\
ili ary
Ġmill ions
Ġred shift
h arm
iv ation
onom ous
w ig
Ġfall ing
ĠB ron
Ġb aby
ĠIndust ry
ject ure
s u
ĠV ancouver
ĠE le
Ġg olf
fig ures
om on
H am
ro v
188 2
A lex
p ent
Ġb rig
Ġimpro vements
ĠEx change
Ġmodel ing
Ġelig ible
ĠN BC
ĠGr iff
Ġat tain
ina e
Ġrequest ed
F S
Ġsur re
her ic
Ġimpos ed
M et
Ġlong est
Ġgrow s
Ġelect rical
point s
E vent
Ġfarm ers
âĢ¦ âĢ¦
Ġsurv ive
ver age
ĠBl ood
over e
Ġphotograph s
' :
Ġs essions
Ġterm inal
Ġsupp ose
Å ¾
Mod el
Ġprint ed
Ġinstrum ental
Ġj ury
Ġtext s
Ġrecogn ize
Ġrele g
b ad
Ġperm ission
Ġprepar ation
Ġlic ensed
186 2
Ġag es
ĠRe ad
Ġsent enced
Ġcustom er
Ġf ictional
R ele
hem atic
o an
im age
R L
qu ot
equ ate
Ġdefe ating
+ (
Ġsuper ior
ĠSp eak
Ġas c
Ġpubl isher
Ġsound track
ibr aries
ĠP A
em in
Ġattract ed
our t
, \\
re z
E ach
V I
ĠE ff
Ġprof iles
T own
ĠM ak
Ġrun ner
Ġexplan ation
ĠE M
Ġr hythm
eb ox
chi at
Ġposs ession
Ġbi ological
og onal
ĠFac ulty
Ġcred its
ik ip
ĠD J
ĠW ing
Ġl oyal
Ġrad i
Ġch amber
ĠGu inea
Ġsol ving
Ġorgan isations
writ ers
t itle
f old
idel ines
Ġc up
ĠY ang
ĠEn cycl
Ġbeg un
Ġcompar able
ĠCon stant
Ġsit ting
ĠJon athan
ĠBar ry
ĠC BS
ĠM all
Ġbeaut y
i ors
ĠBelg ian
O ff
ĠBe h
) })
ĠFl ore
ĠI ce
ant i
viron ments
S am
end ers
ĠM ans
ĠSerb ia
G O
ĠMed iterranean
B er
aster y
Ġdev oted
ĠSte el
Ġexpon ential
ĠB urg
ĠSer ge
math it
Ġd uration
Ġt ort
int ro
m akers
Ġchar ity
Ġf ract
Ġk it
Ã ª
ey er
rang ian
ou ch
Ġgu y
ĠSo ft
ar an
Ġwe aring
is ons
Ġto w
Ġreg ister
ĠComm ons
ĠPref ecture
ĠPer u
g ic
it ects
Ġdist ances
F ebruary
ĠNov a
osp el
ĠTurn er
ist ence
loy d
Ġr id
Ġfl ower
orig inal
E st
Ġsh arp
Ġw ider
Ġin tern
Ġcan n
ĠHun ter
er as
Ĩ Ĵ
ĠCh apter
ucle ar
O h
ob ject
Ġimm igrants
T T
rom agnetic
multi row
ĠP ant
Ġviol ation
H en
h our
Ġbo ost
Ġtra il
Ġre ven
af e
ĠMil an
Ġun like
Ġh ip
ĠStud io
188 3
T ra
cont ent
Ġdistingu ish
ĠColomb ia
ĠF ine
ĠSl ov
ĠE lementary
ĠF itz
Ġwatch ing
ĠS aints
Ġh orses
ĠEconom ics
ĠTig ers
ĠR E
ĠSt age
Ġconstitution al
U s
Ġwalk ing
Ġfilm ed
is cal
Ġreg iment
ĠRel ations
Ġwh ilst
Ġrequ iring
H A
ĠObl ast
w ind
Ġdis put
Ġst ochastic
ĠMu hammad
ĠHind u
Ġfit ting
Ġclos ing
c ussion
ĠSong s
g ame
ĠN umber
. \\
\% $
Ġamong st
ak u
ĠL ock
ke ley
Ġf ault
ĠJ ama
sub sec
sy chiat
ass y
G E
Ġrang ing
Ġprot ocol
inc inn
s i
anc he
Ġt on
à ¥
re v
ĠTe le
Ġsp here
Ġ! =
cy cle
ĠTe ch
Ġinst ances
Ġdisc ontin
Ġact ed
ĠPho enix
B ase
Sp anish
nt il
Ġpar agraph
ĠS even
ĠE mb
$ ^{
Ġann ounc
hol m
ĠRich mond
ow ell
ĠF am
ch arge
Ġpart ly
L and
Ġb attles
Ġhistor ians
Ġprov en
Ġb are
ak ia
Î ±
Ġcons cious
ĠTra il
Ġphysic ian
Ġderiv atives
Al umni
ĠSp eed
Ġmanag ing
ĠT ag
L aw
Ġmach ines
Ġare n
z es
ĠS occer
Ġbir d
ĠChristian ity
~ (\
ĠO range
ĠF alls
Ġphenomen on
Ġpo ems
Ġkind s
N or
Ġindust ries
Ġorb ital
D irect
) ^\
Post ed
Ġat omic
Ġant icip
Ġst ake
G reen
Ġpolar ization
ĠS r
Ġmer ely
ĠJ e
phant om
() );
Ġinvol ve
r ators
ik o
Ġalgebra ic
Ġpeak ed
born e
Ab out
ĠW arner
ĠS id
\ |\
ikip edia
Ġinvest ors
Ġ ,\
Ġpred omin
Ġdisp ute
Ġb ases
ĠE ston
w orks
ĠCr ime
Ġpre v
Ġswim ming
ĠAm endment
Se ason
or b
uk a
iv ated
Le ague
Ġeigen values
at as
Ġd rew
U r
ĠIs a
Ġclaim ing
Ġimm igration
Ġencoura ge
ĠPier re
Ġqu ot
Ġmunicip alities
Ġremov al
Ġphil os
ieg e
Ġsold ier
Ġrep air
Ġatt ending
ĠHar rison
G all
incinn ati
id ad
h al
Ġris ks
Ġp uls
ĠW or
ĠClass ic
187 8
B en
ĠPl ant
L ou
Ġres emb
u on
Th omas
ar ithm
Ġimpro ving
ĠR acing
Ġsum m
Ġre un
//// ////
ĠE ug
te enth
ĠB aptist
Ġst em
ĠStud ents
ĠMin or
m ember
18 75
ier ra
Ġdis ag
Ġinterview s
sc he
ir k
Ġsurv iving
Ġb ath
med skip
ĠAlex and
R equ
her ical
Ġequ ally
ĠZ one
Ġparliament ary
id ency
Ġmin isters
amp a
m ethod
ro d
Ġjudg ment
Ġdem ands
Ġfriend ly
Ġapart ment
Ġdeg ener
enn ial
Ġcons ent
ĠP ra
t re
187 6
S al
Pres ident
M ount
ĠSt orm
ib ration
Ġp up
ĠM ong
ĠPar ish
un ning
ĠCh ron
Ġsac r
Ġleg it
j ar
ĠUnivers al
ri or
st ra
ast rop
Dem ographics
Ġc inema
Ġdefin itions
10 7
Ġpres erve
Ġs we
Ġor chestra
is ot
cel and
ĠG ray
Ġex clusive
Ġgrad uating
Ġoccasion ally
ĠMan ager
Ġleg acy
ist ing
ĠIn it
Ġlab our
Ġweap on
sh ort
Ġven ue
ant um
G old
ĠLiter ature
ĠFinn ish
Ġinterpre ted
ĠM ath
Ġarr ive
Ġd ict
Ġcirc ular
mar ks
Ġlif etime
Ġrece ives
Ġ$\ {\
ab e
ĠSt ein
ĠUl t
( {
ent ry
ag ar
ĠM D
Ġst ored
ĠVictor ian
ĠMicro soft
ta wa
Ġh alo
Ġgu idance
ot on
Ġcoll ision
ĠSh ang
u art
om es
st at
ĠRang ers
ĠC ricket
or ient
Ġac oustic
Or gan
Ġdepart ure
Ġhol es
Ġb orders
Ġmar ry
Ġev il
Ġref lected
Ġchampionship s
A ir
ĠTreat y
Ġfocus ing
ĠB ranch
ĠPer formance
Ġc ub
c urrent
Ġportray ed
Ġc ul
ĠK os
Ġpo ets
R ob
Ġrespond ed
ĠF ab
Ġcontract s
ĠFle et
ĠS oul
Er ror
ĠT u
Ġfair ly
ol in
Ġsurpr ising
ĠArab ia
Ġprep are
et o
M ac
ĠG reater
Ġsens itivity
ĠF erm
Ġwould n
z ant
aly mp
Ġscient ist
Ġthe at
ĠAd miral
ĠCharl otte
fin ite
own ed
ĠS O
ĠNeb raska
w ave
Ġsw it
Ġreported ly
Ġh ospitals
ĠW as
ĠC hel
L R
ĠBar cel
Ġrest oration
10 8
ĠG il
ĠC old
ĠJer ry
Ġb io
as ant
Ġwood en
187 1
b p
ĠUnivers e
Ġst yles
Ġg ard
duc er
Th rough
Ġhydro gen
H D
Ġexpect ation
Ġunder ground
d iff
ar ity
oc y
Ġprec ision
Ġfe els
ĠF ro
it ory
ĠG ot
ict ions
Ġthere by
H el
ĠAn im
on ies
oc ent
Ġscen arios
u ates
Ġuniform ly
ĠP ast
Ġdevelop ments
ĠR AF
n n
Ġstraight forward
Ġp ole
Ġprof it
Ġtravel ed
miss ions
us k
Ġ\ (\
Ġe g
187 9
Ġser ver
Ġcomm emor
Ġf antasy
ĠNich olas
186 7
ac o
Ġuncertain ties
ur u
ol ation
Ġdet ector
Ġresc ue
e a
C re
Ġcre ates
Ġsurv iv
au er
Ġl aser
not ag
Ġform ulation
ed a
f our
Ġd x
ix on
M ap
................ ................
Ġex clusively
Ġsp an
Ġexp edition
Ġw et
^* (
Ġearth qu
Ġintellect ual
Ġcas ual
L ocal
Ġinc idents
ĠC NN
Ġvacc ine
ivid ual
ref er
u ity
Ġdon ated
Ġ ur
ĠP ract
Wh y
Ġdiff usion
g ather
conn ected
ĠK r
ĠW atch
ot ions
Ġqu ery
Ġprom oting
ĠF ellows
m d
Ġhealth care
H P
ĠWrest ling
ĠD og
ĠMar vel
Ġinc red
E ast
ĠB orough
u ce
Person nel
Ġeng age
ĠSt ra
Ġmathemat ical
ĠWith out
ster dam
st e
ĠMov ie
Ġconj ug
l ast
Ġcan cel
ĠMor oc
ĠS E
oo lean
Ġjourn als
equ ations
in us
Ġg ross
T im
Ġhe ter
Ġe ighth
ut or
Ġmem orial
Ġal ive
Ġwork er
ĠOl iver
Ð ²
Ġad vers
Ġconfig urations
ĠTre as
ĠInt elligence
em p
Ġinst ruction
cor ollary
Ġexpand ing
Ġw orship
Ġ\ ,\
Ġdef ining
Ġpred ecess
C urrent
ab a
Ġde emed
Ġcolle agues
Ġr ide
f ish
ĠSym phony
stack rel
ine e
ĠVin cent
b one
Ġseg ments
Ø §
Ġpar ks
t or
Ġpro ud
est on
ĠSt ill
tern oon
y stem
ĠShe l
g on
Ġt act
187 7
Ġperturb ation
Ġquad ratic
Ġcomm une
St ation
ĠSupp ose
Ġele ven
Ġev ident
ĠRob in
ux iliary
cast le
Ġregard less
st ad
Ġarchitect ural
rel ation
25 6
Ġdecre ases
Ġen vironments
min ute
ĠGi ants
f ire
Ġart ificial
186 8
ĠD ays
ĠGh ana
Ġcoal ition
Ġdeterm ination
P D
ĠFran ces
Ġmonitor ing
ĠJ oy
ĠR ot
( ).
US A
| ^{
h aw
Ġg od
st atic
Ġlast ed
ĠPr iv
Ġass emb
ĠO pp
Album s
ĠRoman ian
ic he
Ġnomin ations
Ġc able
Ġut ility
Ã Ł
Ġs ick
el ian
Ġo xy
St at
Ġp ump
w hen
ĠFl ight
T om
18 00
Ġ{ };
ur ring
Ġmathemat ics
r ise
m ay
um i
Ġspeak er
ĠA L
Ġpost s
Ġdiscrim ination
Ġmin i
h fill
ĠMah ar
ab out
ĠEth iop
Ġf ighter
f ull
Ġprofession als
Ġhard ware
M ass
Ġoccas ions
ĠBuff alo
Ġcontribut ing
ic ing
ĠJ ose
ĠBeng al
ĠQu est
- (
3 60
P an
Ġg rey
Ġre ly
f ortunately
ap i
187 2
Ġrestrict ion
ĠS ad
ĠS ay
av ed
Ġco aching
ow ing
Ġinnov ation
ĠRes ources
Ġs oph
ĠH ope
Ġdifficult ies
ĠP R
Ġn an
Ġn a
Ġen act
ush ing
ĠBarcel ona
Ġgener ations
Ġpriv ile
our g
ĠS now
reduc ible
s or
ac le
ĠL en
ĠArab ic
C all
Ġre verse
oph one
( -\
Ġbatter y
r h
Ġn ice
in ated
Ġt ies
ĠAnn ual
v ect
00 1
or ious
Ġaver aged
ĠG R
comm unic
Ġto ler
Ġf iber
ĠLear ning
Ġdist urb
s per
ax is
ĠTerrit ory
H y
Ġcous in
ĠCap itol
g us
ĠN at
I ST
ancell or
sh ot
Ġas ks
Ġsl ope
Ġdeploy ed
Ġwhen ever
ĠCo al
ĠCh ange
ĠP i
Ġyoung est
ĠI van
ĠV lad
Ġcancell ed
ĠTr inity
Ġam ateur
ĠSerb ian
Ġinsp iration
Ġg ram
ĠSt even
Ġdoct ors
ch arg
Ġcount s
keep er
Ġparticip ating
)} (\
Ġcir cles
b oth
lect ions
ĠV el
am o
ĠKir k
ĠF if
ob serv
Ġview ers
s quare
ĠK ap
ĠMont ana
Ġrare ly
Ġra ising
ĠL ic
Ġbl ind
Ġguarant ee
P oint
Ġsurpr ise
M oths
Ġdisapp oint
ig s
Ġmed als
Ġhon our
Ġdo ors
inf o
ĠMean while
$. }
ap ing
Ġdial ogue
Ġgall ery
M iss
augh ter
10 9
ĠThe ory
Ġtrad itions
ĠArt ist
ĠP el
ĠC ust
Ġnot ing
Ġleg s
Ġcarri er
Ġreg istration
ĠB ristol
ĠB ond
p red
og an
Ġinf ection
Ġc a
Ġstat ue
. -
187 4
Un ivers
ĠAnt ar
cl osure
Ġtransform ed
ĠF ourier
ĠComput er
W ork
ĠRog ers
um ing
ĠM ason
Ġcontinu um
Ġsmall est
ĠMad ison
Ġeconom ics
ĠY et
ĠCarl o
ov ich
Ġd il
Char les
id o
ha ust
lik ely
Ġsav ed
EC T
Ġcab inet
ig ion
Ġnormal ized
ĠIndust rial
ĠS z
Ġd ub
p in
Ġsequ el
Ġpre lim
! ]
' );
f olk
ĠCan al
ĠJeff erson
writ ing
ĠPl at
ĠS eb
Ġs ax
"> </
Ġsepar ately
ĠN iger
Ġopp onents
K ing
ĠWith in
ĠFor um
Ġten ure
Ġt y
ĠStud ent
Ġp eoples
Serv ice
Ġhealth y
ĠB ased
Ġdesc ript
ĠB M
ĠK on
Ġrep orter
ĠBer keley
Ġdens ities
ĠOper ations
ist ani
Ġsh ore
ag ers
sp ecial
et ta
187 3
ĠG arc
âĢĻ ,
ĠA ug
ĠL arry
Ġform ul
Ġart illery
Ġst ack
Rich ard
Ġfe es
Ġun iqu
Ġs ending
O pen
' _{
Ġhom ogeneous
18 40
Ġinfl ation
t age
Ġtrans verse
ĠS ah
Ġst eep
Ġem issions
n m
Medal ists
l ia
l ater
do i
com mon
Ġnegoti ations
Ġr u
Ġserious ly
il ia
ort ex
Ġhon ors
186 6
Ġind ices
ĠV as
ĠM aced
Ġcom ics
V P
Ġcompens ation
M ad
Ġrestaur ants
Ġm anga
Ġbu ff
Ġdis aster
ĠT rack
ĠY ank
Ġtrib e
it ting
Ġpolynom ials
Ġcivil ian
F P
Ñ ı
Ch ild
akes pe
Ġess ay
ĠNAS A
Ġmarg inal
ela ide
Ġfl ed
Ġinflu ences
h ave
ace ae
Ġanaly tic
m ir
ĠH D
pl us
ĠH udson
ĠMat hemat
ĠĠĠĠĠĠĠĠĠĠĠĠĠĠĠĠ ĠĠĠĠĠĠĠĠĠĠĠ
ĠP ub
ĠP ic
Ġsil ent
Ġev olved
ĠAn alysis
Ġvis its
Ġlog ic
W eb
Ġhon est
Flor a
Ġadv is
F rance
Ġtr uck
ĠT ogether
ĠK le
ĠM asters
Ġemer ging
Ġpermit ted
R oyal
ĠG rey
Ġmix ture
al am
akespe are
Ġdom ains
e ach
Ġtrib es
ĠVenezuel a
B D
uc c
Ġcorrespond ence
Ġfest ivals
ĠT ake
& &\
ĠI M
st ers
Ġw al
Ġin g
S k
Ġlik elihood
ĠDel aware
Ġre act
ĠAg reement
Ġdeep ly
ri en
ser ver
Ġc ogn
ins ic
am er
chang ed
ĠHeb rew
U M
arri ors
Ġtop ology
ĠKen ya
ig o
ond a
S uper
ĠCl are
Ġneg lig
iz ers
ĠC ad
Ġsustain able
ĠS ultan
Ġcampaign s
ĠB und
ĠTechn ical
as ia
Tax a
Ġsc r
Ge V
ĠB rew
Hon ours
it ro
Ġenh anced
> \
Ġent ities
Ġb inding
ber ry
ĠCh and
st art
ĠA I
ĠCost a
à ¦
Ġm ic
Ġqual ify
iv ic
ĠNever theless
ĠH unt
Ġcor ruption
ĠPrim ary
ant a
Ġtrans itions
ling ton
re ck
ĠG round
Ġplas ma
g om
ol ves
ĠAnt i
Afric an
n ol
Ġexpl oration
Ġrel iable
ounc ill
ell ion
c z
Ġscholars hip
ĠCra ig
ĠS eg
ash a
e lected
ĠV ermont
ress es
$- $
á º
ĠL ost
t ag
Ġcl othing
er ion
Ġsquad ron
Ġd ip
Ġun ity
Ġup coming
ĠR ank
Th ree
Ġsubstit ute
iz z
ĠCl ay
Ġg rants
Ġsol ved
Ġengine ers
Ġdiagram s
ĠY am
Ġcent ered
ĠArch ives
ĠL iga
Ġproject ed
Ġeng agement
ĠArt illery
ath on
}\ |
ograp hers
sp eed
Ġmole cules
. ).
eth yl
g ov
ĠO il
re ts
C amp
Ġiniti ated
is an
ĠSpr ings
G overnment
Ġent hus
Ġde viation
Ġprem iere
Ġw edding
ĠB ass
ew ay
c ross
ĠK ath
Ġcarri es
Ġl ap
ĠMer c
ĠI da
ĠT ang
Ġf ur
Ġend emic
th ree
ou rag
im its
sy mmet
ĠD iamond
ĠTh or
Ġrecip ient
Ġcomple ting
D el
ĠEd itor
mon th
ro oms
Ġdist inction
o j
Ġg ift
. _
P L
S ur
S en
Ġcitiz en
ĠR at
ol en
Ġreal ize
ĠL ions
&= &\
ĠR u
fr ame
ĠCons erv
ĠU se
Ġarrang ements
\! \
Ġj unction
Ġsec ured
B bb
math tt
ic i
Ġproport ion
ich i
Ġdismiss ed
Ġin duction
ĠB og
qu arter
Ġmanufact urer
ĠKe ith
Ġmultip lic
m ean
Ġr it
ĠRepublic ans
iv odes
ĠDemocr at
! \
' ]
ĠLu is
ĠH ann
. /
Ġdep ression
Jew ish
ĠSy rian
ĠÂ »
ord inary
( [
Ġmaintain ing
ol ition
Ġafter wards
ĠG ay
rup ted
Ġset up
Ġtot ally
ĠF u
Ġmuseum s
Ġgener ator
Ġar ise
Ġr ub
Ġl ingu
ĠTer ry
ĠConst ruction
ail ing
Ġfirm s
Ġneutr ino
Ġp ushed
b ane
w he
ic ious
ĠEd wards
Ġdram atic
}{ *
Ġtrans it
ĉĉĉĉ ĉĉĉĉ
ĠAm sterdam
Ġout comes
Ġcross ed
ok er
ĠRepresent ative
B razil
Ġ },
ĠC ob
Academ ic
Ġbo ats
ĠAzerbai jan
M a
up t
Ġextens ively
ĠK un
i ya
Ġmin istry
Ġrespons es
ub a
F O
g rav
ip art
Ġinter ference
ull ivan
ip ients
ĠCom merce
im er
Ġanaly ze
P eter
ĠL ate
ĠCont emporary
$ }}
Ġrece iver
Ġrob ot
Disc ography
Ġconven ient
ĠU V
ĠP ont
AR T
Ġelev ation
Ġassign ment
H ung
uch y
Ġinter vention
186 9
Ġbrand s
Ġcol span
Ġorig ins
is ch
ĠUn like
Ġdef ending
Wh ite
field s
Ġemphas is
Ġim perial
ĠMun ich
ĠT on
ur st
m other
ul ous
Is rael
Ġspons ored
Ġhoriz on
Ġplay offs
Ġwrest ling
ĠCamp aign
Ġhol iday
ĠMc L
Ġpre st
ĠR ing
ĠPh oto
ĠDen ver
ĠSocial ist
h um
Ġcons iders
Ġtempor al
Ġper cussion
Ġgrand father
Ġweight ed
m ill
Ġpl ain
ĠDr ive
ĠAl gorithm
ĠLe v
f eld
Ġcut ting
ĠB ot
ura ble
ĠPr inc
k ar
backs lash
| $
Ġcomp aring
ĠAcc ount
Ġbreak s
Ġdoub les
Ġturb ul
Ġsh orter
H and
ĠH ous
ĠGra ce
Ġtarget ed
ĠM ig
ĠL loyd
ĠLe ader
Ġpar ad
Ġpull ed
r als
Ġconf ident
uck land
Ġref lection
R T
ivodes hip
ent e
esc ope
Ġdisp ersion
Ġadvent ure
Ġa ug
Ġphr ase
ĠF un
ĠG ate
ĠA S
Ġdepart ments
13 5
ĠSh ar
ĠP rice
ĠInt eg
Ġsl ave
Ġch a
l oss
ost ic
ĠEag les
ĠPer ry
Ã ¦
ex per
Ġad mit
ĠP le
ĠQu arter
Ġconsum ers
ins ky
d ou
Ġsurv ival
Ġcomment ed
ĠB ird
ent i
AS S
Ġcho osing
cl ine
ĠTib et
Ġfe as
Ġport rait
Ġop ens
ail ability
Ġra w
Pl ace
ark ed
{ (\
Ġstead y
Ġannounce ment
Rep ublic
ymmet ry
V ar
M or
Ġlabel ed
aj a
et ics
Ġconc erts
Ġn eck
Ġcoll aps
Ġs ectors
s ite
Ġpat rol
Ġlabor atory
ra h
Ġdem olished
ĠCh ap
ĠI celand
Ġimp ly
hel m
L i
ĠStan ford
g ood
Ġgl ob
ĠH amb
Ġsettle ments
ĠM end
Ġdef initely
Ġbelief s
Ġrefuge es
new s
m ag
Ġprior ity
Ġg host
olog ically
Ġext ending
Ġpat ent
param eter
Ġmart ial
Ġcon greg
Ġauthor ized
Ġde als
des ign
er i
F rank
Ġ$ ^{
ĠC incinnati
re ction
ĠC atherine
we ek
( ))
ĠM ann
Ġembedd ed
Ġne ur
E ven
lic an
ĠBl ock
Ġyour self
ĠN HL
iss a
Ġan ime
ir th
} /\
Ġiter ation
ĠL an
Ġpay ing
down arrow
Ġtrans c
Ġre actions
l ag
Ġextract ed
Ġoxy gen
ĠT O
Ġt um
Ġqu iet
Ġreson ance
oth ic
Ġshif ted
apt ers
Ġlie utenant
ĠVo ivodeship
P ath
ĠCl in
Ġmanif est
C ode
b est
Ġch rom
Ġpay ments
text up
ĠRes ults
quir y
Ġlocomot ives
st age
Ġwarn ing
J o
w rite
Ġth read
Ġperform s
Ġautom atic
D D
Ġf ilt
O ld
! --
om ed
Ġcompat ible
mod els
ĠCh i
ĠJ a
Ġpers u
Ġb ridges
ĠL uke
hold er
Ġdeterm ining
Ġmut ual
Ġamaz ing
ĠC C
ĠD raft
un s
Ġmorph ism
G ener
th lete
ĠW es
ĠSaf ety
Ġo verseas
ĠHis panic
St ep
Ġhop es
Ġto x
ĠMar x
$ ^
Ġw ick
Ġcert ified
Christ ian
Ġsh opping
inv ariant
ĠI C
Ġinternational ly
Ġcopy right
Ġabund ance
Ġfram es
em ies
F ile
ĠOt tawa
Ġaffili ated
Ġreview ed
circ le
ĠLeban on
Ġfeel ings
Ġcon vert
Ġintro ducing
Ġrat ios
ĠP oll
Ġorth ogonal
L M
AT ION
Ġearn ing
f am
ĠL ion
Ġmon ument
Ġcol ony
Ġgu ests
Ġch ains
) }.
ĠL is
Ġthreat s
ĠGuard ian
Ġf its
ann i
H M
ĠL ux
Ġt ribut
C ase
ĠDrag on
ĠH ugh
Ġvent ure
Ġmanufact urers
Ġm m
ĠCons ervation
Ġs oc
ĠEm ploy
ĠBroad casting
ĠPolit ics
ĠPhilipp ine
ĠT ext
2 20
h alf
uck er
Ġb anned
ĠD at
aun a
fl oat
ĠPen insula
Ġbi ography
\| _
Ġexam ine
ĠC urt
fol io
Ġsub mit
um s
ĠY u
Ġun employ
Ġmonth ly
ĠScient ific
rac le
Ġg athered
Ġgu ess
ĠL eft
m usic
ĠMur phy
o il
Ġb orrow
ĠW alt
Ġabsol utely
ĠT oy
Pro v
b n
au kee
ph ase
Ġover t
W eek
Ġat om
Ġchem istry
ĠBy zant
E conom
ĠE mm
Ġmain stream
E F
ag i
Ġreal istic
B re
ĠPhys ics
Ġremark able
Def unct
as hes
ĠB right
18 30
Ġaf ternoon
Ġg r
Sw ed
ĠP aper
Ġpeak s
r ust
ĠHer z
Ġorgan ised
Ġtreat y
rap e
ie v
ĠBer g
L y
ĠSud an
for ced
Ġdr ink
ĠB iden
ĠGon z
Ġtw in
Ġsuggest ing
im ony
pro pto
ĠU EFA
ĠA viation
Se lected
Im age
Ġveter an
b us
ĠP ath
e or
ĠS yn
N ode
Ġdu o
Ġdisestabl ished
18 48
c oll
spec ific
d rop
Ġt orn
val id
) [
E A
iz able
Ġb old
ĠNep al
ĠP S
Ġc argo
$ \\
pro duct
Ġbig ger
im m
ĠSh akespeare
dist ance
}$ \
Ġsubsid iary
ric ulum
ĠCh apel
ativ istic
ĠB ert
ment ation
Ġstreng then
opy right
ĠAd elaide
185 9
on ing
Ġsimilar ity
Ġrem ind
r ide
ĠO scar
ĠDe ut
Ġup grad
F ore
Ġprovinc es
ĠRo om
ordin ate
iem ann
Ġpl astic
Ġinter vals
{ .
Ġwind s
at ra
ĠS ide
Ġstr ings
}) ^{
Ġinn ings
ĠHig her
ĠSing les
ĠInd ex
Ġd war
Ġproceed ings
Ġprote ins
ist ically
ho le
ĠAl ger
ĠP ul
bin om
Ġnob le
ĠJ oint
cl ose
ĠAl tern
Ġtravel ing
ĠDi ocese
Ġt ons
ĠF err
Ġpl aint
ol ars
Ġmerch ant
foot notes
up arrow
ĠAthe ns
en os
ĠProv inc
Ġpe er
ĠM ust
Ġrefer ring
all ing
Ġmet rics
Ġinnov ative
Ã¡ s
ĠB uch
Ġbirth day
ĠC u
ist ance
ĠMach ine
ĠSus an
ĠO pt
Ġb om
ask at
Ġcap s
ĠCor ollary
Ġr um
Ġv aries
ĠPalest inian
ĠV eter
ĠHer bert
d oc
ĠCor p
B oth
T or
Ġt ribute
Ġm ines
ur se
if iers
int o
leg iate
Ġinf antry
Sh ort
Ġtraject ory
ĠBuddh ist
ĠD ra
im ages
ut o
Ġfl ights
S il
b uild
Ġlimit ations
em a
Ġsub space
Ġmag ic
ĠMag ic
L ike
g rim
w t
Ġcons olid
Ġh aven
S l
W here
os hi
ĠM ix
ĠG as
Ġcap abilities
Mus ical
G r
Ġattempt ing
Ġw elfare
ĠR ou
h aus
ij i
ord ered
185 7
Ġanim ation
ĠBe aut
Pro t
uc es
ĠY ale
od ore
Ġbroadcast ing
ĠAb raham
ĠW el
Ġrandom ly
ĠP av
Ġm os
ĠOver all
Rec ipients
Ġver ify
ĠO cc
A thlet
Ġmoder ate
f a
ir s
ars on
Ġgovern ing
Rad io
Ġdispl ays
ĠN ear
a very
A v
ĠA er
Ch inese
Ġdec ides
$\ ,
we ak
Ġexpl ored
) (\
ac co
ĠW u
min a
M T
Scott ish
now ledge
h n
*} [
Ġfr ust
ĠLag rangian
footnotes ize
Ġ\ [
Ġassist ed
Ġsimpl icity
t ree
d ing
Ġtroub le
ĠA ber
w aukee
Ġch apel
ĠGerm ans
Ġmurder ed
Ġrequ ests
ĠAl ong
Ġcomp ound
ĠR an
Ġprom ise
Ġex haust
}. }
Ġa qu
Ġtrad ed
ĠHoll and
y ou
ĠPers ian
Ġover w
ĠS hip
l ang
p y
Ġcamp s
Profess ional
Ġtri angle
ĠPr ivate
Ġl iv
Ġrev ised
Ġir reducible
re a
ĠH ob
r us
Ġceleb rate
Ġsole ly
[ '
left arrow
Ġwealth y
d ev
ĠTra vel
Ġang les
p ine
ĠN C
Ġb oot
ĠEncycl opedia
est im
ĠCru z
Ġinst ant
ĠK rist
=\ {
Ġadm its
t x
ĉ Ġ
Ġorgan ic
Ġobvious ly
ĠSh aw
Ġsim ulated
Ġvulner able
Ġmount ed
ĠS outheast
âĢĻ .
Ġaut hent
Ġel abor
Ġcou p
ig m
ĠWat son
Ġregul atory
Ġfail s
ĠPeters burg
H R
] ^
st ud
Ġopp onent
m ake
Ġdem ocratic
Ġkin etic
B ook
Ġperson ally
gom ery
C arl
Ġdelay ed
om o
Ġrepeated ly
ĠC S
Ġm oth
Par am
it ted
rag ue
Ġer ected
Ġpropos als
Ġpl ots
appro xim
Ġcontest ed
ĠForm ula
Ġadd s
ĠArmen ian
Ġs alt
ĠB ath
Ġexam ination
ens en
ĠCroat ia
ĠC row
ĠLabor atory
Ġep id
Ġ à¤
Ġhand ling
Ġcool ing
ĠAgric ulture
ĠIn v
ĠGl en
el ing
mult line
ĠT ab
Ġcorrel ations
ĠN an
place ment
Ġtransform ations
Ġqu as
Ġbas eline
ring ton
Ġs isters
Ġclos est
Ġsk i
M er
ĠTransport ation
ĠH ilbert
ĠD est
ip her
ĠInd ependence
Ġcomp iled
Ġâ ĨĴ
T oday
resp ect
ĠĠĠĠĠĠĠĠĠĠĠĠĠĠĠĠĠĠĠĠĠĠĠĠĠĠĠĠĠĠĠĠ ĠĠĠĠĠĠĠĠĠĠĠĠĠĠĠĠĠĠĠĠĠĠĠĠĠĠĠĠĠĠĠĠ
ĠH av
ĠA round
Ġex it
Ġact ively
ver ted
be ing
S ir
ĠR ena
Ġdecre asing
ov an
leq slant
ĠG rade
M ont
ĠD od
et e
Ġtour ism
M ag
Ġpat ron
ro at
t ar
eg u
ĠN y
Ġinaug ural
l ayer
Ġvar ied
Ġsculpt ure
os ity
Ġb oss
ĠĠĠĠĠĠĠĠĠĠĠĠĠĠĠĠ Ġ
Ġgu ys
W ind
Ġdest ination
Ã± a
Ġemp irical
qu is
Ġneighbor ing
Ġ ic
ĠH IV
ĠR ivers
Ġpark ing
Ġt ends
Ġv ital
Ġprelim inary
Ġmod ules
Ġâ Ĥ¬
ia o
ĠHel en
Ġvolunte ers
Ġs overe
He ad
ĠAN D
Ġdiscrim in
s uper
Ġphys ically
ĠAb u
ĠW onder
) ).
V ari
Ġd iet
M ethod
ou ds
Ġalleg ations
ĠN eed
ĠK ay
\, {\
Ġm amm
ĠNor folk
ĠÂ ·
( ),
ĠT ed
Ġimp ressive
Ġret ro
Ġlaws uit
ĠG T
Ġspecial ized
U P
ĠM uch
Ġsc iences
est ers
An y
b etween
V is
ach i
qu er
Ġfor cing
Ġappro ached
1 18
Ġtrans action
Ġed itions
ĠAbb ey
Ġth orough
Ġn il
Ġmeas uring
Ġour selves
Ġl ift
l m
ĠA uckland
qu est
int ers
og ical
j ud
raz y
Ġspeak ers
u ador
ĠProduct ions
ĠPun j
Ġf ro
Ġpsych ology
Ġt one
Ġreg ression
D ev
ID S
Ġprov iders
Ġac res
Ġcult ures
Ġm arch
Ġ _{\
ĠWork ers
M el
ris bane
g ets
ĠM ick
ĠL ink
ion ed
Ġsoci eties
Ġthough ts
b ing
it ic
ĠS ox
Ġev ac
Ġcal endar
B usiness
az i
ĠC L
ard ed
M ale
Ġsk ill
Ġdefend ant
Ġcond emn
Ġfun ctor
th ick
Ġint ense
ĠFor mer
Ġprov ider
act eria
vel t
Ġme at
us c
Ġhun ting
ĠN icol
ĠMunicip al
ĠPro cess
ĠBut ler
Or der
Ġcatal og
Ġall iance
st ructure
ĠBulg aria
ĠS uz
Ġover come
h ang
Ġres olved
ĠAng lo
ĠInn ov
Ġtick et
at ivity
fl at
ĠIm age
Ġ\ {\
Ġfun eral
) _{\
ft en
Ġc av
ĠS or
Ġf iscal
W S
ĠNe il
ĠSl oven
Ġun ions
ĠR alph
com put
onom ic
Ġknow ing
Ġinstall ation
Ġprogress ive
Ġph on
ĠPhill ips
ĠCong o
ĠArgent ine
Ġun likely
Ġann ot
O K
d ensity
ĠL ett
Ġrecommend ations
ment ed
ĠL ess
Ġrecogn ised
ĠM ut
Ġf abric
Ġobtain ing
ĠL A
ĠY es
T our
Ġs ad
og g
Ġcomm anded
Ġtrend s
id i
is i
ucl ide
Ġins ight
ant ed
Ġdel iber
M E
im pl
Ġs us
Ġsong writer
Ġbank rupt
Ġb ull
le ading
Ġconsist ently
Ġreflect s
S ched
ĠK ur
' ;
Ġsuff er
Ġdr inking
Ġt ables
Ġcond itional
Ġto mb
osoph ical
Ġbre ast
B ooks
omp ass
â ĪĴ
Ġrel ay
Ġaccomp any
ĠC itiz
ine ar
ra red
ĠS ean
d ays
ces ter
st ruct
ĠA x
Ġcons ensus
Ġdrum mer
ĠNash ville
ĠM ater
ab is
Ġcomp rom
Ġn inth
ĠBob by
)-- (
Ġcl im
ec ca
Ġend ors
ĠArch bishop
ĠHe avy
Ġrow span
Ġm igration
ĠHar old
re leased
ĠC ox
$ '
text color
Ġlog arithm
ĠPalest ine
y st
Ind ex
Ġrow s
Ġkeyboard s
f und
Ġpost erior
Ġex empt
Ġapprop ri
ĠLeg al
ry s
Ġco ffee
Ġagre ements
ul ator
ac a
te chn
ĠLeg end
Ġcon e
ĠSp ect
Ġdeterm ines
Ġf usion
ĠM ort
ĠD ennis
ul ative
ĠHe in
d al
Prop osition
th on
Ġtrack ing
ic z
ut ical
Ġst ick
Ġper pet
j pg
ĠArch itecture
Ġgener ators
ett i
M ah
ĠH at
Ġphot ographer
Ġm o
ĠT as
____ ____
ĠSt uart
W ar
Ġdefend ers
Ġb il
Ġcomb ining
st ates
Ġfast est
Ġ rib
T urk
umb le
former ly
he ld
Ġth ir
Ġstation ary
Ġexc av
ops is
ĠM oz
form ed
Rele ase
agon ist
Ġj ail
ĠFerm i
p rec
sc ope
Ġr ated
Ġch ron
Ġsplit ting
ĠPro duction
Ġcor poration
B as
Ġsupp lement
Ġdiplom atic
ach t
Ch ina
D ue
D ay
iz a
ĠPl anning
G ood
}{ {\
Ġg ymn
Ġc um
Ġpure ly
\ },
Ġland ed
Ġthr one
ro b
185 4
Gall ery
C ity
h ad
Ġcont rary
Ġal gebras
\ }.
Sm ith
ĠHor se
H F
ov sky
am ep
Ġcompet itors
Ġsl aves
N O
Ġvari ants
Ð ´
Ġimpl ications
185 8
Ġaltern ate
Ġper ceived
An n
ĠC ant
Ġarg ues
ĠĠ čĊ
Ġres erved
ind a
Ġplan ets
ĠP od
F our
Ġm as
Ġconstant ly
Ġform ations
Ġcomput ers
lin ary
ub s
Ġmanufact ured
ai ro
Ġexhib ited
Ġadvoc ate
Football ers
ar is
Ġpsych ological
ĠAcc ess
M o
ĠS A
l ass
7 50
Ġident ifying
ĠL ov
Ġconv olution
Ġchar ter
ĠSt ories
Ġexhib its
ĠFlore nce
AT A
f ilm
Ġmechan ics
ĠV ent
M ex
m ade
e i
Ġh ung
Film ography
id ity
d esc
Ġattend ance
ric ks
Ġacc retion
Ġremov ing
Ġlegisl ature
Ġpos it
Ġorigin ated
St and
s eries
S aint
ĠS ierra
ĠÃ Ĺ
Ġplay off
ĠG ilbert
ĠK i
Ġrel ocated
Ġ( ).
Ġphot ons
ĠHar vey
] ]
Ġden omin
ev ent
alax y
ir ts
Ġbe ating
Ġexpect ations
he ro
AT O
Ġcoupl ings
ĠCh an
Ġrec alled
Î ¿
ĠS elf
amb ers
Ġenc ourag
Ġfail ing
rib le
ĠArch ive
Ġfl av
qu al
Dist ribution
Ġpal ace
ĠM orning
ĠN one
Ġcent res
ĠLe o
Ġind irect
ro le
k ern
=" ../../
F in
Ġproduct ions
Ä Ł
Ġ ),
c aster
Ġep och
ĠArn old
it ious
Ġt ill
Ġwe bs
itte es
Ġto uring
B P
Ġmir ror
Ġall ies
ĠW ells
ĠJ ava
L ondon
ĠS oph
ĠHug hes
ĠConfeder ate
ĠG olf
Ġtrad itionally
Ġagre es
ed e
umb ai
Ġto urs
op ing
ipp er
Ġl ad
Ġpro xim
C ritical
Ġing red
Ġim aging
C AR
ĠTh under
Ġen ables
ĠB our
sp in
ĠS oci
Ġreb uilt
d ivision
Ġres ort
Ġde vi
ĠP ent
Ġ/ *
On ce
Ġmake up
Ġvo ices
Ġst ops
Ġeg gs
ĠI v
L ie
ĠFilm s
Ġhapp ening
ĠM az
Ġdraft ed
s ome
ĠAct or
he rence
ĠHit ler
Ġwel come
D ate
}^{ +
m f
Ġliter ally
Ã ī
ĠHen ri
Ġeffect iveness
S em
ĠB rid
ĠArm ed
art a
Ġreform s
Ġassoci ations
cor respond
Ġm emb
ĠShang hai
R ock
l ower
Ġcompos itions
M s
Ġneut ron
Ġs ear
l ate
eg al
l ier
Ġbelong ed
ab ul
\ /
Ġneighb ors
Ġce ased
Ġr iding
Ġen abled
Â ½
Ġsum mit
ĠSpeak er
b ie
en burg
it ely
Ġaccount ing
17 0
om i
Ġt ension
ĠH aving
ĠApp ro
Ġsudden ly
Ġent ers
Big g
Ġsp ots
Ġorb its
cent ral
ĠH em
Ġass ists
Ġres ervoir
Ġt anks
ingu ished
ro us
th al
so le
ĠLat ino
l b
Ġcosm ological
Ġsust ained
F ree
ĠT ree
Ã¶ n
ar r
ĠS Ã£o
ĠB ald
Ġen emies
Con text
ĠR ange
18 55
Ġoff set
unc redited
U E
ĠG ust
Ġ\ |\
Ġf ert
Ġpl acing
uth ored
Ġunder graduate
Ġsubst ance
Ġem igrants
row th
uclide an
Ġtourn aments
Ġco herent
Ġinvestig ations
4 50
Ġn inet
ĠAn cient
ĠP ick
Ġthe sis
S ocial
Ġjud icial
, ...,
Ġplay wright
ĠK ash
^+ $
ĠWall ace
ish a
Ġceleb ration
w art
ĠS F
ĠS askat
Ġunit ary
Ġanth rop
ĠG ang
185 6
G rand
ĠB eth
ä ¸
st own
prob lem
Ġb le
min ster
Ġiniti atives
ĠV ict
Ġthere after
Ġt ip
Ġaccept ance
el o
ĠS alt
Ġl engths
Ġint ens
Ġc emetery
ĠColumb us
ĠM ul
Ġout door
Ġbl ues
h istor
Ġcon clusions
arma ce
ĠFil ip
intend o
B o
. $$
Ġal ien
ĠR osen
Ã© l
ĠPar alymp
R ound
empt y
Ġfight ers
ose velt
ĠC ore
Ġw av
ed u
Ret urn
Ġaggreg ate
Ġsusp ension
Ġg ran
ash tra
ĠO wn
ĠGreg ory
Ġattract ions
k ind
Ġ- --
s d
ĠR idge
Ġachie vement
Ġvol unt
Ph ys
Ġenc ompass
R ivers
var rho
mult ip
Ġ( âĢľ
Inf o
names e
ER T
T D
isc opal
oid al
ch annel
Ġprom ised
roll er
ĠLe eds
v as
ĠF BI
Ġv isc
ĠVen ice
uls ion
ĠE sc
Ġarr iving
=" +
ĠLeon ard
Ġconflic ts
big cup
av ier
small skip
Ġatt itude
ran o
Ġh az
Ġto ugh
Ġorder ing
Ġb ishops
Ġimpact s
end um
Ġabs ent
ve ill
L ive
ĠAl t
te am
Ġb ay
L ove
h in
k an
os exual
Ġfarm ing
Ġinstruct ions
Ġt issue
) }$.
Ġfl ash
ut ton
K n
ĠC ON
Ġle agues
Ġin hib
B ased
pp e
sw ick
Ġbl ow
ĠB ach
tr ivial
ĠS ak
k n
Ġs weet
Ġb achelor
ĠBl u
} >
Ġwrit ings
in ery
g io
ĠU pd
ĠProtest ant
Ġconduct or
Ġas ide
Further more
over ed
ibl ical
i racy
Ġsett lers
Austral ia
J ac
V A
C oll
P rior
Ġp or
N P
ie ve
Ġj u
ust ain
EE E
Ġsp herical
Ġupd ates
v et
}^ +
arm s
ĠM ills
ĠF a
Ġvari eties
ĠN athan
ĠF eb
Ġcare fully
ĠAll ied
Ġne uro
Ġem peror
ass ert
K S
ĠSt ef
Ġexclud ed
ĠK id
ch ain
Ġgu idelines
Ġhe ating
Ġpul se
Ġm ail
Ġst range
ĠA aron
ap est
ab we
Ġferm ion
Ġch ronic
Ġpseud o
24 0
_{ -\
M ary
ĠS oon
Ġrep ublic
ĠRey n
ĠC ancer
ĠMont gomery
ĠJ en
er os
}) =\
Ġanaly zed
z ig
Ġvol tage
Ġimm ig
Ġprogram mes
}[ !
S everal
ĠRe ading
Ġoccur ring
Ġcy cles
Ġa viation
ut ter
ĠBel arus
Ġcontrad iction
w oman
Ġhistor ically
ĠM s
ew ise
ĠJust in
ĠB risbane
ĠD ocument
L eft
Ġfor get
ĠOrig inal
ĠEd die
ĠPro file
Ġc attle
it us
ĠPhil osophy
Ġan ten
ĠF at
ĠCon sequently
ĠMe chan
Ġd ogs
ĠR efer
as m
& -
185 2
Ġprom ising
;\ ;
ĠB aby
Ġ ~\
if ted
det erm
ĠTr ue
ĠDer by
uch i
Can ada
@ {
ard i
Ġen rolled
ĠEr nest
ĠAng lican
Ġqu oted
Ġsh ops
ill es
Ġl ying
Ġfif teen
com b
ĠLiber ty
armace utical
aw s
ĠRe ed
in ement
Ġc oc
Ġs ugar
15 00
lig a
ff ield
Con fig
Ġbon us
Ġh orn
ĠPar am
B ro
cond uct
ĠR ah
Ġconvinc ed
Ġto ured
ĠR av
def n
Ġaud iences
Ġdesign ation
ĠA w
ĠCam eron
d f
Ġart if
Ġmy stery
Ġemploy er
Ġdis band
th in
Ġw ard
Ġexpert ise
hab ilit
Ð ¼
Ġl ots
Ġstri king
Ġpropos ition
Ġpower ed
am ination
Ġbre ath
ĠF aith
uss els
ce il
arri ers
nol imits
s outh
found er
L o
un ing
veill ance
Ġinteg ers
Ġcomp ounds
ĠC ou
i ast
ĠArt ists
ĠRon ald
f ive
Ġb its
Ġsynd rome
c ott
Ġfoot age
h s
val ued
ĠPr uss
Ġcross es
Ġdiss ip
}_{ {\
ĠD rama
m ode
ĠSh a
U L
ol an
ĠD elta
N umber
Ġro ster
J ud
T ER
am ation
Ġhonor ary
er en
Ġpropag ation
Ġconduct ing
ĠHar bor
Ġkid n
it ars
ĠD id
Ġch iral
B H
Ġnot iced
ĠF ish
Ġt ub
ra pped
ĠC hester
Ġab ilities
cos ystem
Ġchalleng ed
Ġalleged ly
ĠB ak
p ing
ĠDiv is
p ay
Ġob sc
ĠSp encer
Ġshe et
Ġobject ives
ver b
ĠBro s
ur as
b c
art et
imb abwe
Ġeigen value
f ers
ĠHamb urg
ag ger
ĠMan uel
pl an
Ġbox es
12 2
h all
ro e
ĠE instein
ĠH az
Ġless ons
Ġb arrier
Ġpro sp
ĠÃ ł
Ġcorrect ly
ĠT alk
ĠE ld
Ġcomb ine
Ġexhib itions
ĠPed ro
out heastern
part icle
Ġoverw hel
lect ic
ick en
ĠO z
Ġequ ity
Ġis omorphic
ĠAl ban
ĠM ik
Ġexam ined
Ġp ale
Ex per
ib n
ĠEqu ation
\ [\
ĠGh ost
Ġexcit ing
ĠJ ar
ord ination
h ot
Ġcompl aint
Ġcl an
Ġl ights
Ġoverl ap
ah an
ev al
Ġlim iting
Ġfacilit ate
Ġres erves
ĠP in
ĠWars aw
K O
ĠB av
_{ +
p aren
J im
ĠV oice
sh ow
ĠAdv anced
iv ities
op ed
wa it
Ġinc umbent
I O
Ġb es
Ġinher ited
Ġmotiv ated
Ġansw ers
he res
P e
Ġcry st
ber ger
ĠÃ ģ
12 1
ind ependent
ĠMon th
ĠS ang
Ġfor b
Ġun expected
al is
ĠGro ve
Ġg ent
ĠR uth
pr us
Ġexp enses
ĠR aid
ĠR ule
Ġcontinu ously
Ġrun ners
b ek
Ġearthqu ake
ĠW ag
cite alt
Ġanaly tical
Ġcompl iance
Ġr ings
ok o
[ ]
sub equations
Ġthr iller
Ġtempor arily
s elling
song writer
Ã© r
12 4
ĠT odd
D own
b les
Ġ{ $\
Ġattribut es
ĠS earch
ur ated
Ġdes ert
qu et
Ġplot ted
ĠK ol
Ġant ib
Ġcoll isions
ĠAir lines
ster ious
ĠM Ã¼
b oys
G erm
ĠL aura
B F
Ġstand ings
ĠD rum
12 7
Death s
ĠNew castle
Ġbut ter
Ġadopt ion
In it
Ġburn ed
pr ises
Ġres olve
Sy stem
ĠFour th
ĠRena issance
Ġacqu ire
Ġaff ects
Ġneighbour hood
per ature
im s
t yp
Ġpat ri
Ġover view
Ġrad ar
Ġstre aming
ĠEq s
count ry
Ġtrav elled
an ie
Ġhuman ity
ĠBl oom
al in
Ġge odes
Ġdocument ed
B ill
ĠC ert
ĠN ame
ĠK ate
ĠCh o
deg ree
P G
Ġin ject
185 1
W ell
script scriptstyle
Ġprob e
Ġs ang
ĠW ord
overs et
t ically
d or
Ġdev ast
Ġconcent rated
Ġwithd rew
Ġ\ }
w ang
Ġvol leyball
Ġt ube
Ġproject ive
ĠScot ia
Ġvirt ually
ut a
sy m
Ġw ake
Ġsupp lied
i ology
il o
ĠS ony
um m
f act
ig ate
Ġinput s
Ġto m
Col lege
ĠN ak
Ġcrick eter
text sf
ec a
Ġsub urb
Ch arts
if ting
ĠCy cl
Ġsurvey s
ĠNorth west
) }$,
text normal
ĠRay mond
ĠÅ ł
orn e
) >
Ġbank ing
Ġin ference
Ġinter cept
Ġco ins
ĠAgain st
Ġpri ests
f urt
Ġa thlete
Ġpip eline
Ġsubstant ially
Ġbe et
Ġrat ings
Ġconv ey
pr im
Ġart work
Ġillust rate
17 5
if old
ĠTh ai
K K
ĠG az
mid t
Ġterror ist
Ġlist ening
ĠNap ole
ĠO m
ĠM Ã©
Ġp ill
18 49
ĠD O
Ġg rain
ĠM ol
h is
Ġgeneral ization
Ġprov es
Ġel dest
Ġhous ed
Ġbond s
ĠL ot
Ġdevelop ers
che wan
b ooks
n ell
Ġcom merc
\ }_{
Ġanalog ous
Ġbroad er
h anded
S ign
ĠD ig
ĠG ene
ĠWeek ly
ĠRh odes
ĠB ear
ĠRo osevelt
ĠG or
ĠCo ach
ĠCl imate
C am
Ġel ite
ar u
Ġcitizens hip
Ġor chest
Ġpract ition
Ġtele phone
Ġn ep
ĠWell ington
abl ing
Ġm i
185 3
ĠH ave
Ġunsuccess ful
Ġ );
W il
am pton
av ia
Ġse eds
ĠStat istics
ĠAr c
Ġcomb inations
Ġb one
Ġtri ang
ĠS ey
if ice
Ġconn ects
F il
ĠR aw
Ġpix el
Ġ ..
Ġref ere
Rec ord
the ory
Ġsh ots
ĠFran Ã§
f alse
Ġwat ched
ĠB ened
I rish
Ġto ll
Ġtour ist
enti eth
oy age
ck nowledg
ĠW orth
Ġaddress es
ĠUg anda
Ġst rain
ex ists
Ġwavel ength
ĠF ul
ard ing
ic us
ak ov
S yn
d l
ĠPar ks
Ġc rack
Ġfilm ing
Ġdistinct ive
at en
h ou
Ġen roll
Ġcry stal
t b
ĠBenn ett
def ine
ĠO g
ĠRh ode
Ġcontinu ity
Ġcop per
ond o
Hen ry
Ġcompris es
ĠD aw
ĠD ame
ĠM umbai
ĠV II
Ġinvest ments
AN D
ĠE state
Ġattract ive
Ġor ange
Ġresign ation
it ud
Ġimpl icit
Ġm ild
ov ina
Ġtra ct
at ri
Ġmet ropolitan
ĠC T
Ġre nown
Ġv ib
ull ah
M ur
ans k
) ),
U pd
ĠBrun swick
Ġboard s
Ġlay out
m oment
isc he
ĠIda ho
ĠMon ey
ĠN S
Ġpray er
ĠB ent
Ġb orough
Ġ-- >
ad ic
Ġhom ot
a it
ĠAmb assador
ĠF ighter
Ġ/ >
Ġscreen ing
Sp ecial
bor o
ĠO w
ting ham
unc an
18 47
Ġestim ator
ĠEc uador
Ġrec ruit
Sp ace
N T
Ġmem oir
ol ics
Ġdef ended
bro ok
W ho
j or
w ent
Ġmon ot
Ġmat hematic
Ġke eps
Ġl ibraries
Ġ ×
fl ix
L ittle
h m
ah l
D utch
em ark
ĠB uild
ĠCo hen
ĠRev ival
Ġcomment ary
Ñ ĭ
Ġexplos ion
ĠEngine ers
Ġprint ing
w yn
ĠG amb
Ġtr ump
Ġav ailability
ĠK ra
ĠWild life
Ġgard ens
Ġa uxiliary
ern ess
amep lay
Ġhelp ful
S oviet
ĠS ic
ĠCrim inal
um ann
Ġc ow
ĠL LC
Comp anies
L ocation
Ġsub sc
Ġsh ield
R esp
ph abet
Ġpro l
Ġdecre ased
Ġpian ist
ES S
Ġphenomen a
ĠProb lem
dr iven
ĠMus ical
Man ager
ethe less
Ġfor wards
st ore
oid s
Ġnovel ist
Ġtim ber
f unctions
el ly
em e
Ġf ont
ĠAdvis ory
Ġl ens
ĠF oster
Ġpredecess or
Ġspect rosc
Con f
eg er
ĠR ams
st ock
Ġpreced ing
ĠR oth
ĠLuc as
ĠA ra
ĠEp isode
p iece
bre aking
Ġro cks
Ġanom al
\, ,
ĠClark e
ĠS old
am y
H ol
Ġinst ability
ĠE SP
s ized
Ġsynt hetic
ĠP ain
el ia
ĠIsa ac
Ġcomp anion
ill iant
Ġcrit erion
Ġren ormal
omin ated
Ġdro ve
12 6
Ġrevolution ary
ĠD ictionary
w al
Ġachie vements
ĠJ in
ph al
}} ,\
ĠP rague
ĠN ancy
Ġb ary
Ġhand ed
ĠR equ
ĠTest ament
om atic
ER S
Ġgold en
Ġaccommod ate
Ġwebs ites
el ines
ĠC hes
Ġaff air
S i
ĠC ec
Ġen orm
Ġgovern ed
Ġprepar ing
Ġaccompl ished
param eters
arm ac
ĠM ake
Ġuncle ar
Ġelimin ate
. ]
Ġp ace
Ġprob abilities
Ġt rick
Ġswit ched
á ¹
Ġgen es
Ġor al
ĠK ill
c ounter
ĠHop kins
Ġmiss ile
B T
Ġr ice
ĠL amb
ĠĠĠĠĠĠĠĠ Ċ
ĠGu ild
ĠTun is
ĠSc he
ac cess
ĠFran co
ĠMil waukee
Ġdivor ce
im ination
Ġsee ks
Ġfall en
ĠOak land
by ter
Ġdeep er
Ġalign ment
Ġfoss il
Ġs ep
Ġgraph ic
M ean
Ġconsist ency
ĠT itle
Am ong
ĠSeb ast
Ġquarter back
Ġsubmar ine
ĠD h
Ġcert ificate
ll a
w ords
Ġeth n
ĠS ul
ĠNot able
ĠWork ing
ĠIn iti
Ġre organ
Ġmod ification
Ġh a
Ġbus es
g ie
isc her
ac ional
O pt
Ġg ear
Ġdec ays
Ġs hed
ĠPo isson
b uilding
land o
ĠCom b
ff bb
Sing les
ant astic
Ġin cl
h uman
ĠT rav
inn ed
ĠKn ights
Ġsec ular
Ġacknowled ged
L abel
new line
ĠBulg arian
i ens
Ġmon astery
ĠPal mer
ie u
ĠInter view
ator ies
h ra
ĠTh ings
ĠCirc le
Ġf ol
ĠCard inals
F re
Ġconf usion
ph p
ĠT ong
ĠD ise
Ġconsider ably
Cent ral
al id
ĠC ork
und a
ll i
ĠW ald
/ *
Ġperfect ly
Ġc inem
ect ives
e u
ĠCar r
Ġsusp ected
ĠPan ama
Ġintr insic
Ġvolunte er
New s
Ġhighlight ed
Ġc ave
per iod
Ġhigh lights
C ref
Ġl ux
Ġ( !
ĠDef inition
ĠPaul o
Ġg ro
Ġan isot
ĠZh ang
Ġgrad uation
Ġadmin istered
Ġl os
Ġfif ty
qu ality
c ule
ĠSc reen
Ġign ored
Ġg ains
Ġrepe at
Ġsl avery
Ġt ape
Ġopin ions
ĠD eg
ĠMark ov
ĠE lection
}{ }
ĠRevolution ary
Ġwar rant
Ġam endment
ĠL ac
D esign
rict ion
iz on
N G
Ġbi ology
sh ore
Ġab oard
_{ [
Ġpit cher
Ar gent
spec ies
ĠJo an
Ġachie ving
ĠLe vel
Ġport folio
Ġconver ges
Ġtest imony
ĠTom my
Ġpredomin antly
ĠMar io
Ġhead ing
Ġam end
Ġshif ts
row ser
Ġcosm ic
ish i
18 46
ĠD anny
ugh t
Ġemp ire
Ġanalys es
Ġevery where
ĠBro oks
ĠP rison
Ġphil anth
ub ert
W estern
Ġcontroll er
ĠFried rich
ĠIndones ian
ĠAh med
ĠW ikipedia
Ġsynthes is
Ġsyn chron
Ġpun ishment
Ġch apters
v dots
re b
ar ians
m un
ĠMed ic
Ġin herent
Ġgra ve
ĠJ ak
ĠComp etition
Lou is
Comm unes
ĠS uff
ĠR iemann
Ġconj unction
ow der
ĠE ight
ĠPrinc eton
Ġstre ams
Jos eph
esters hire
ac hers
ĠM ade
1 19
N Y
Play ers
nt z
Ġtr unc
ment ioned
M D
er ry
Ġprot otype
ĠC raw
v oid
Requ est
rec ord
B etween
Ġclust ering
plit udes
Ġd t
ĠIn g
Ġcon jecture
Ġcur rency
Ġam ended
ok u
âĢ ł
Ġwonder ful
ĠVal ent
ur bs
ĠInstit ution
ĠPro f
= -\
if inals
ool s
leg raph
f requ
ĠL isa
let ter
ĠM obile
ĠJ ur
ĠWrit ing
oe ing
ĠY ellow
Big l
ĠRod rig
Ġl ib
oc hem
Ġencounter ed
Ġpod cast
w alk
ĠC inema
Ġc iting
en eg
ĠByzant ine
In s
p ers
Ġput s
Ġfriends hip
ĠPet e
Ġdecor ated
Ġpre val
Ġrest ore
ĠP DF
h im
Ġl ung
ĠP eng
Ġfle w
i ph
Ġt ale
h art
Ġo ct
iv o
it an
i ago
oc ene
Ġun stable
Ġab ortion
Ġanch or
d z
ph ib
ĠF ly
oc ate
Ġ }}
S ize
ia z
Ġl obby
ort heastern
ar am
ĠOr d
ĠGab riel
Ġp sychiat
Ġar ising
ĠT rain
ĠP rest
umb ers
add le
Ġhier archy
aur us
Ġspecial ist
Ġtalk ed
Te chn
Ġh ist
ĠCab inet
angle ment
ĠK il
ĠF iction
ĠA B
Ä Ļ
ĠS ig
Ġpione er
Ġconf used
S N
Ġde ce
ĠKer ala
ang ered
Ġed itors
Ġsh apes
Ap J
Ġpo ison
Ġexp onent
ĠCub an
Ġarr ives
Ġrul er
Ġextens ions
ĠFellows hip
Ġtack le
Ġm ilk
ÅĤ aw
Ġfor ty
Ġd iamond
Ġinstit ute
ĠMethod ist
d b
ĠW inn
Ġar ises
Ġg al
intend ent
ĠAp ost
ĠJ ung
Ġdescend ants
T reat
ĠHar per
ĠInter est
Ġlo ans
im mer
Ġelev ated
P O
iz ard
Ġdec k
ĠMal ay
s ay
Ġspac etime
ang o
ĠC eleb
b ank
g art
the y
not in
^* _
zh ou
ĠG y
Ġf iring
sc reen
_{ {
ĠNob el
Ġspeak s
om eter
Com mon
ĠA GN
Ġsent ences
K E
c all
Ġd ivid
Ġsup ern
Ġsens or
G reat
ĠO st
Ġremember ed
I reland
ĠGrand e
Ġrelax ation
int s
Ġbas ically
enh agen
ĠTas man
Ġdeg rad
Ind ia
ĠSw an
el in
Ġhar ass
ĠJama ica
Ġexecut ives
ĠR us
Ġb attalion
Ġdevelop er
ĠW als
ĠO R
h ops
ĠS ullivan
Ġam plitudes
ĠS ept
Ġlog o
Ġcivil ians
F ictional
ent o
rit ic
emb ourg
sen al
Ġsurviv ors
Ġcur riculum
Ġesc aped
Ġpro sper
Ġco at
Ġr ally
ĠF oot
Ġimag ine
Ġcorrel ated
}) _{
ĠCamp us
ĠB egin
Ġsail ed
Ġmem ories
c ano
Ġ- >
ĠKaz akh
Ġresid ual
Ġtrans actions
Ġsubs ets
se lect
ĠOut standing
ĠYugoslav ia
ab olic
V er
ĠWood s
row ing
Res earch
ĠD E
Ġo w
Ġany where
Ġeditor ial
Ġpil ots
ĠP resent
Ġfollow ers
| _{\
umber land
Ġconform al
Ġdepart ed
Ġex terior
M O
Ġplan es
L D
Ġvan ishes
J ack
U k
ĠAng els
he v
bo at
ĠDi rac
Ġmaintain s
Re view
Ġens uring
Ġcart oon
! âĢĿ
ac les
ST ATE
ain er
Ġh ate
ĠH im
ĠEx cell
Ġaff ine
ĠL ex
Ġem otion
Ġf ate
ath a
ĠH ess
Rec all
Ġdoct rine
ĠK as
Ġann ex
ĠLi u
Ġrem arks
Ġproceed s
all ow
Ġcollect ing
im o
Ġresearc her
ã Ģ
ract ed
equ ival
2 30
ens ions
Ġcler gy
ĠStock holm
b ecause
ira ble
ĠDirect ors
ĠE C
ey n
Ġexcept ional
Ġshe ar
Ġd ying
ess a
Ġcon ce
ĠPlay ers
D raw
ĠB un
ul o
in ks
Ġjoint ly
Ġsc andal
Ġfl our
Ev ents
Ġdist ant
% ),
Ġdis orders
ĠJul ian
ĠEs sex
Bl ue
igh bor
Ġsh ipping
Ġcount ing
reg ation
ĠV illa
Ġinduct ed
ĠR ice
ĠDe b
J ul
Ġcompos ite
Ġnation wide
R eal
O l
R ugby
ĠPlan et
Ġg ates
ĠS of
ĠId ent
ĠPear l
ĠSh in
ĠUn fortunately
Ġl akes
Ġ( +
Ġen velop
ĠB ag
ĠMoroc co
Ġcan al
ĠEag le
ov anni
ound ing
Ġbomb ing
ri er
def ault
at em
T w
Ġb read
ĠP os
ats u
ĠP att
ĠCy prus
Ġprevent ed
Right arrow
am med
Ġg ray
ĠGram my
Ġf ame
emph is
ĠT otal
Ġamb assador
}{* }{
Ġdo zen
Ġb ag
U psilon
h orn
ĠQ CD
ĠOrig inally
Ġpregn ant
Ã Ĺ
le arning
ĠPar ad
Ġper ception
ĠBat man
p her
ot er
Ġparam et
Ġtravel s
Ġweak ly
Pre vious
Ġacceler ation
os lov
Ġharm onic
uff er
Col umb
cont rol
b u
g iven
ĠPer th
in as
Ġim per
u ania
ĠLegisl ature
man uel
is dom
Ġcollabor ated
ĠT ask
ĠDist inguished
a ude
ĠC IA
Ġconst rained
Ġcam eras
g overnment
ĠT all
P ac
ĠA ires
Ġhand led
yl um
Ġpost p
ĠDec ision
/ **
n al
Ġlik ed
or um
anc k
Ġtherm od
Ġrec urs
ĠIns urance
h ig
ĠSaskat chewan
Ġnep hew
Ġpubl ish
ĠS ter
m ount
p ress
' $.
v skip
F K
ĠAct ress
c ost
Big r
ĠAm y
Ġjournal ism
uc he
Ġult imate
ell ers
V M
Ġw orn
ij a
ĠF lying
t racks
Ġconfer ences
ĠWil helm
Q ual
Ġman ual
Ġlight ing
Ġat tach
oca ust
15 5
ik es
ĠInd igenous
it ian
Ġa uction
ĠE T
lev ard
Ġentreprene ur
ĠAssoci ate
18 45
v or
ĠN urs
part y
ĠReyn olds
P ass
Ġt ram
Ġe cosystem
Ġvers e
Ġrenown ed
ĠA ges
ĠL or
f ight
Ġcomm enced
Ġb ills
Over view
K e
}\ ;
ĠViet namese
ĠInd ies
Ġf inger
ars ity
ĠGard ens
Ġprot ecting
Ġph osph
ik ing
az ar
Ġgather ing
Ġhar vest
Ġdisestabl ishments
I E
ĠR af
Ġc ad
ra ble
atch ing
Ġmon arch
b olic
14 5
Ġext raction
Ġir re
ĠBe ing
ene ath
mid rule
Ġaccur ately
ĠF lem
Ġprest igious
ac ular
ĠHe aven
Ġfore cast
Ġsever ely
ĠLeg ion
ĠBre ak
Ġadvert is
Ġconsult ant
er k
ram ework
Ġun ve
C V
2 10
li ers
ĠR ules
I X
ĠS W
j k
Ġcho ir
ab ove
ĠW i
Sc ript
ĠHous ing
Ġcont ents
Ġbel t
Writ ers
av ior
3 20
Ġn est
ĠM ull
Ġs ung
S H
Ġt enth
ĠS H
ĠA chie
ĠMig uel
'' ,
Ġattack ing
Ġgovern ance
r ong
ĠZ imbabwe
Ġun anim
ĠD ate
ĠBi ography
Transport ation
Ġret reat
Ġsk etch
ĠE ve
ĠShe ffield
Ġdiv ide
Ġco hom
ĠG and
op a
R ay
k t
ĠIm ages
ĠJac ques
Ġt et
d ir
ĠT R
ĠV e
ĠCom plex
ĠP icture
Ġcl ouds
ra its
Ġw age
Ġnormal ization
ber y
}} =\
ĠBos nia
E lement
Ġs ends
Ġv e
Ġe cho
Ġdis joint
ol ine
Ġbas in
Ġman ages
ĠC oul
ĠL akes
}} )$
b ird
add y
Ġinf ected
ĠHer ald
Ġveloc ities
Ġmeaning ful
Ġj ew
bel ow
ĠCom edy
H ouses
Ġball ot
Ġconstit ute
ĠD y
Ġdis pos
t arget
Ġveter ans
Ġfound ers
Ġdiscip line
ĠVlad imir
Ġinc om
ĠN ATO
ĠCa uc
Ġrefer endum
Ġ ĉ
ĠMer it
} <
re ens
ĠB ears
Ġguarant eed
Ġhop ed
Ġinh ab
Ġl iability
sh arp
Ġpoll ution
Ġpat ch
ĠF olk
Ġgrad es
Te am
s v
ĠL oc
Ġinter change
ist le
Ġass et
ah u
od ic
18 37
et ter
orient ed
Ġpop ulated
Ġmidfield er
or rect
ĠOt to
Ġh ills
Ġdis abled
Ġcap ability
u ition
m ans
bt n
Ġburn ing
ĠV ern
enc ia
anc ers
ar ial
ĠL if
stan bul
Ġj oy
l at
Ã ¯
Ġz ones
Ġdebut s
Ġstud ios
ab ol
ĠDur ham
Ġsh aped
ĠVol unte
Ġathlet ics
n ull
âĢ ī
Ġad equate
$ _{\
eck er
Ġair line
Ġhom eless
Ġread ily
14 4
Ġdef ender
ra ve
\| ^
M ot
Ġconsp iracy
C ities
er ie
Ġint ellig
ĠSalv ador
ri ke
Comm and
Ġe ating
Ġoff ense
display math
) &
Ġimp ose
Ġall ocation
Ġsurpr ised
ith ub
ĠB R
ĠCroat ian
Ġarchae ological
at um
ĠAbd ul
child ren
ĠArmen ia
ĠIraq i
ĠSt ore
Ġcrop s
e ur
ĠT ampa
] ^{
is en
ĠBaron et
à ¬
a qu
18 12
ill on
oy d
Ġ{ {\
Ġstat ute
Ġdem anded
Ġbr ut
Ġori ented
Ġstret ch
n ecess
ĠSoft ware
Ġsport ing
Ġun w
| =
fin ished
ed o
ĠCor por
Ġa est
Ġsal ary
G al
ĠSch olars
me as
C y
s un
18 20
Ġsp ell
d ashed
lic ations
ĠVir t
Ġgu itars
Ġatt raction
Ġind uces
Ġm oon
ct uary
Ġth rown
ĠC hern
ĠB od
Ġport ions
n st
mathbb m
angel ical
con text
16 5
ĠOb ject
Ġp ap
ĠMan it
Ġlik es
Ġp uzz
Ġellip tic
re et
s em
Ġrem ix
ĠApp eals
Ġwar fare
Sim ilarly
Ġf atal
ĠSpec ifically
Ġtermin us
Ġwe aken
12 9
Ġtraject ories
ut il
Pro b
Ã© g
Ġrespons ibilities
H a
Ġsusp ect
Ġf isher
Ġlegend ary
Dan iel
Ġqual ification
Ġg aining
Ġexp ense
serv ice
ĠC ann
on so
an z
ĠS ent
le igh
Ġemploy ers
chang es
ĠL iv
Ġth rew
S un
Ġown s
G ame
ĠMot ors
Ġnon zero
ĠSc ar
Ġir regular
) |\
ĠG C
ĠFran z
Ġamb ig
ĠY uk
Ġathlet ic
Ġscatter ed
Ġdiagn osis
Ġval ued
in ating
he art
Ġg raphics
ĠSol omon
Ġin cent
Ġdemonst rates
Ġenc oding
ĠN g
ĠSing le
Ġcompris ing
} ~\
ĠPo etry
W ashington
âĢ ĭ
ĠBr ussels
o fficial
Ġle ase
ĠM old
C at
ou x
Ġch ore
ast ics
He alth
Ġp unk
ĠL oss
Ġperturb ations
Ġag enda
Ġcare ful
r ically
ĠMarc us
ul ates
Ġhon ored
ĠP on
cre ate
ĠR achel
and ro
Ġn ut
ĠBey ond
C le
play ing
Î ½
Ġd ancing
Ġdam ages
Ġhe m
d an
Ġrel atives
Ġfle e
Ġ& $
27 0
A U
Ġl iver
ĠPerson al
oy a
Â ©
ĠG ren
k w
b ian
Ġimprison ed
ĠProvinc ial
Ġs iege
E s
Ġconstitu encies
ĠCh a
Ġrev ival
il ian
ere k
ĠSecond ary
ĠSus sex
Î ¹
ourn ey
add ing
Ġc ro
] =
Ġjo ins
ond e
Ġp ist
)= (
ĠMax well
Ġpres ervation
itud inal
Ġviol ations
ĠN intendo
ĠC ut
Ġst eal
ĠC ome
ĠHe ights
Ġcard inal
Ġte eth
ĠCl if
Ar ray
ĠEll is
Ġrenew ed
ĠGl ass
ĠN O
tri angle
ĠG ent
Ġextra ordinary
Ġhost ing
Ġrel ate
ĠS ource
ĠA j
ig ue
T M
13 6
ĠWest minster
Ġdiss olved
ĠJenn ifer
om ers
im en
ĠL ak
Sum mary
Public ations
Ġkilomet ers
Ġnational ly
Ġfin itely
ĠTh anks
Ġco in
ĠBu enos
Ġd inner
ec ute
ĠSh i
W ater
Ġtick ets
Ġlearn s
ĠHol mes
ari um
Ġt iny
At lant
ĠDomin ican
ĠThrough out
Ġinter fer
ĠDav ies
at z
Ġline arly
Ġp ounds
ph an
3 000
ĠCommunic ation
D O
lim ited
oll o
ad ier
E G
Ġhom omorphism
io let
T O
Ġm ad
Ġgener ates
es a
Ġbre eding
13 2
am ine
ĠF ras
Ġdis ability
ĠDou ble
tt ar
Ġpl ates
Ġbus y
)} _{\
Ġinc ons
ĠM idd
est rian
Ġd imin
ĠDes ert
Ġglob ally
ĠB ras
com plex
l ib
Ġcor ps
uan ian
Ġexpl oring
ĠSol ar
Ġ });
ĠMaur ice
ur red
ĠT H
}_ +
at ta
. (\
Ġadvant ages
un al
Ġk ings
Ġcust ody
ĠAnd rÃ©
18 39
en i
mod ules
Ġpoor ly
Ġe ase
pro ject
ĠRe ich
Ġst roke
Ġst olen
Ġdisapp ear
Ġimprison ment
Ġs rc
eg ovina
Ġj ets
Ġpre vention
ĠH us
Ġag gressive
u ant
Ġacadem y
c ity
ch air
ĠC redit
ĠSom erset
Ġperman ently
ĠD uncan
Ġimp ression
ĠIndian apolis
Ġthin ks
Ġy ard
ĠO wen
Ġin ad
ter bury
On ly
ĠPunj ab
effic ient
Ġvic inity
s n
art icle
Ġmy sterious
se arch
Ġwild life
ĠK or
ĠSp ider
ĠJul ia
per turb
ry pt
Ġext inction
ĠE uclidean
ĠSim ilar
G reek
ĠGen eva
Ġdraw s
Ï Ħ
A z
Ġphilos opher
Ġra pe
c ia
c ov
18 44
ind uced
ĠPsych ology
Ġsl ot
Ġnick name
L ink
Tax onomy
ra id
Ġlo ops
| _
as an
Ġche ss
Dem ocratic
Ġunder go
ĠE X
ar in
on ial
ĠM ang
aj i
mont on
L uc
ĠV ersion
Ġcul min
Ġposs ibilities
ĠSl av
Ġcirc ulation
iff e
Ġb rew
Ġk inem
b d
Ġlist ings
Ġenter prise
Ġc hest
It em
ĠD ol
ĠK rish
Ġb ott
stand ard
ĠR ac
p olit
is o
ĠTy ler
Ph oto
Ġcov ariance
Ġshel ter
ĠL ook
Ġh ide
ĠS ex
Ġsuperv ision
Ġl augh
th ood
cond ition
Ġarch itects
Ġcry pt
T P
heim er
Ġstri kes
Ġrel ies
f red
j av
Ġind oor
Ġpron ounced
eg an
ĠCamb od
Ġthick ness
ĠNiger ian
ĠRe id
yl an
Ġcl othes
A ction
Ġsupp ressed
ĠLead ership
ĠBl ake
C r
N L
Ġiter ations
Ġsh adow
Ġres umed
ĠStev ens
ar v
M edia
od or
ys ics
Ġimag inary
Ġsol it
Un incorporated
ra ise
Ġaff ecting
ĠN A
Ġdr ives
Ġun incorporated
Ġadv isor
bor g
om ical
B ob
is y
ĠEm ma
ĠJohann es
Ġformul as
Ġbox ing
W in
Ġreleg ated
sp eaking
ul ing
ĠUr ugu
Ġlegit imate
j et
im eter
ress ing
Ġstrugg ling
Ġrecru ited
ĠBa iley
Ġvocal ist
ĠKum ar
st ation
C ON
F red
Ġwalk ed
de ep
Ġtrac es
Ġactiv ation
eff ective
ĠK arn
Ġrecip ients
Ġcasual ties
du al
Ġins ert
el se
Ġal tered
Ġqu een
ĠPak istani
ĠR ush
u ine
Spec ies
Ch ief
ĠArm strong
Ġbar rel
ĠBry an
F ar
Ġab olished
Ġvalid ity
18 38
osp here
ĠPro perty
ĠEvent ually
ĠN GC
' )$
Ġfavour ite
ĠP owell
Ġcol ours
Ġcl ause
ĠDivis iÃ³n
n ov
ĠU ntil
Ġaut onomous
ĠMal ta
ĠS ep
pro duced
ĠO ber
e on
Ġtim ing
Ġabsor bed
\\\\\\\\\\\\\\\\\\\\\\\\\\\\\\\\\\\\\\\\\\\\\\\\\\\\\\\\\\\\\\\\ \\\\\\\\\\\\\\\\\\\\\\\\\\\\\\\\\\\\\\\\\\\\\\\\\\\\\\\\\\\\\\\\
ic iary
st ead
rate ful
" "
Swed ish
Ġ icon
}^{ (\
A cknowledg
ĠMahar ashtra
Ġdis placement
ĠAssoci ated
Ġhit ting
Ġd reams
de velop
el ong
Ġtrig ger
Ġ âĢĻ
utr ition
Ġsp arse
arri or
Ġ }{\
Ġphysic ians
. },
F B
ash ire
Ġconsider ations
ĠNet flix
Ġbeat en
ys on
d ict
en o
Ġbe ars
ĠO S
Ġp ose
Ġreason ing
ĠMet al
Ġwal ks
us a
ĠTreas ury
ad r
es ar
18 41
18 35
L ee
Ġob s
ĠF ind
Ġbos on
ĠH arm
ĠT iger
Ġnurs ing
us ive
Ġbu ying
Ġsac red
Ġy es
Ġdig it
as is
ch itz
d escription
ack ed
Ġrac ism
ĠAss ume
ĠYank ees
ĠAr ctic
Ã ½
18 36
Ġc avalry
he ng
flu ence
Ġd y
Ġcontroll ing
sing le
Ġprison er
ĠNot tingham
ĠA ub
Ġpre t
Mart in
Ġam id
Ġpra ise
Ġintro duces
par a
Ġgl ac
Ġwire less
ĠH ass
Ġcommun ist
o que
ĠM TV
ĠGib son
Ġunemploy ment
Ġtra p
ĠGe off
ĠCons ult
Ġmod ifications
byter ian
ap a
Ġinc orrect
ĠCr us
ĠPh ase
ĠSh ield
ĠCorn wall
ĠObserv atory
ig g
ĠAst ron
ĠGl obe
ing en
th ird
ĠP ink
Ġpix els
Ġt une
F oot
Ġident ities
im an
umer ical
ĠAndrew s
Ġw ore
ĠB esides
Ġrem n
Ġlat ent
a ft
ĠN R
Com put
sub stack
ap ur
ĠB ody
Ġsem ic
Ġconv iction
d epend
ĠR ut
zy me
l ab
ath i
ib a
Ġvict ories
col m
Ġcorpor ations
Ġtor ped
amp ed
E ducational
B ul
Ġded uce
Ġsqu ares
Ġack nowledge
' }\
Ar thur
Ġcommunic ate
uis ine
c u
Ġcolon ies
f actor
Ġimm une
Ġleg ally
Ġbur den
harm onic
f ounded
ibl ings
ĠMan ila
sim ilar
ch ief
Ġt ier
Ġmain land
n ai
ĠInvest ment
Ġequ als
Ġpotential s
Ġare na
Ġrecon c
p ublished
Ġtouchdown s
al og
Pro perty
ĠMc Donald
Ġtrans mitted
Ġdisp ers
13 3
Ġquot ient
ĠESP N
Ġup set
ĠD j
ĠP orter
Ġfeas ible
Ġperform ers
ĠChe ck
Ġaffili ate
ĠAn a
\ -
ĠK ids
ĠTw enty
ĠLett ers
ĠC urrent
ent ric
ĠB anks
am as
ĠCh ase
rang er
ĠPublic ations
Ġenorm ous
Ġext inct
ll er
ĠShort ly
W al
m us
Ġ ).
ol and
ĠSant iago
k u
= (\
ĠCol in
ĠCath olics
ĠD oll
Ġnav igation
Ass ume
he y
13 4
Ġdesign ers
/ .
ar ound
g ithub
Ġcogn itive
ĠCop enhagen
ĠKenn eth
ĠCard inal
Ġpro ton
ĠP lease
Ġbe er
ĠH aven
Ġb acteria
Ġrout ine
I ts
Ġpr ince
B rien
I B
ĠEthiop ia
ou p
up le
includ e
b its
Ġs ke
ĠP and
Ġwitness es
P ak
Å Ļ
Ġ" [
Ġtheat rical
}) -
Ġel astic
. }\
18 43
ĠS aw
Ġh ind
oc ols
ot ypes
re asing
ĠM onst
Ġcongress ional
ĠN as
Ġflex ible
cc c
Ġpres idency
Ġaver aging
v ideo
Ġmod est
L iber
Ġwid ow
Ġs its
com plete
Ġtempl es
ĠH od
Ġpen et
Ġsp ir
ij k
Def inition
Ġb ell
ĠIs le
V ER
ĠPr int
st ed
Ġinteg rity
Ġcav ity
ĠLith uania
ĠFif th
ĠIniti ative
c ategory
Ġinstitution al
ĠC yr
oot s
ĠN ine
ĠCh oice
Ġalt itude
Ġback ed
war z
Ġincorpor ate
ĠT i
Ġens ures
b ey
13 7
Ġsearch ing
ĠS weet
ĠHerz egovina
Ġhop ing
Ġcontrad ict
ĠInit ially
ĠGrad uate
im it
ĠNad u
av ian
ĠK in
ut er
Ġrock et
Ġdisapp eared
ĠD in
pro file
ad vant
Ġevent ual
Ġefficient ly
F ull
, âĢĻ
Ġatt ribute
ĠGener ation
C a
Ġsampl ed
Ġcomfort able
Ġtrig g
s g
Ġment ions
G s
Ġreconstruct ed
Ġdiff ers
Ġnom inee
sp ring
Â ·
ĠM iles
ĠNot ice
ĠBrad ley
Ġshall ow
ategor ies
Ġharm on
Ġpl enty
---------------- ----------------
ĠSher iff
Ġutil ized
Ġad mission
ĠW ey
V ir
l ore
l ived
}) )
Ġcomp ression
Ġab bre
ĠB A
Ġaddress ing
, .
Ġinv ented
Ġep ic
Ġproxim ity
st op
Ġprohib ited
ĠA ur
ĠB elf
m t
ip linary
Ġmidfield ers
ym ph
Ġconscious ness
ĠC N
T ag
ah a
Ġmat ched
Ġmus cle
eng ers
Ġte a
inf all
ĠK urt
ond s
ĠRichard son
Ġto uc
Ġc os
Ġarch ive
ĠHe ath
pot ential
Ġpresent ing
Ġhard er
Ġres iding
Ñ Į
O p
ĠOr lando
Ġh urt
ĠSt eph
18 42
á ŀ
Ġterror ism
ĠStr ong
Ġeng aging
ĠEm ily
ĠRem ark
ĠF R
Ġfre ely
t ensor
Ġp orts
18 32
omet own
Ġevery body
Ġbehavi ors
Ġg amb
Ġdiagn osed
ĠR overs
Ġbrig ade
Ġall ocated
Ġ( '
Ñģ ÑĤ
enn ium
Ġm ature
ĠB S
ĠF ed
re view
im od
ĠCh ad
Ġsoph istic
As ian
Ġcond ens
dom ain
Ð¾Ð ²
ĠChel sea
gl obal
ĠC rist
P y
z ens
D es
Ġmin eral
Pol ish
any on
a que
Polit icians
Ġtrav elling
ari ate
P rim
ĠJ unction
Ġ ^{\
Ġgu ards
ĠV il
Ġr ifle
25 5
ĠSim pson
ĠI SO
Ġpit ched
A uthor
Mod ern
Ġderiv ation
ĠM ead
Ġnumber ed
ĠArch ae
ĠAcadem ic
t ot
ne apolis
Ġnumer ically
K A
Ġfre ed
13 1
Ġt aste
re ach
Ġc ouncill
ĠI gn
ĠPop ular
ĠĠĠĠĠĠĠĠĠĠĠĠĠĠĠĠ ĠĠĠĠĠĠĠĠĠĠĠĠĠĠĠ
Ġplace ment
Ġb ats
duct ions
ĠPresident ial
em por
Ġlif estyle
G od
U D
Ġfarm s
Ġm il
s ep
c ss
R un
Ġvalid ation
Ġbe aring
Ġneg lect
Ġbe ings
oy le
' $,
Ġaccept able
Ġkit chen
ged y
ĠRoll ing
Ġwarn ed
Ġadv ances
Ġinvestig ating
ĠCre ative
Ġm ock
Ġdeform ation
Ġthe ology
es y
ĠB H
ob o
Ġadv ised
Ġprim itive
Ġsegment ation
Ġsur veillance
Ġminim ize
Ġsuff ices
Ġmon op
Ġpurs ued
Ġcub ic
Ġtri ps
ĠTr uth
ĠAlbum s
Ġcomed ian
ĠLet ter
d ra
, '
Ġtra pped
Ġexcit ation
ĠV ar
ex cept
w p
Ġadminist rator
ips chitz
Ġb atch
Ġs aving
aw i
air y
op ened
ol ith
T otal
miss ible
Ġsus cept
Ġv in
c ock
Ġfill ing
tle ment
ĠLore n
ĠD R
f ar
ĠK eep
ĠCoal ition
Ġcl ick
ol ence
Ex ample
F r
raph ic
Ġfe ud
Ġ$- $
om ar
ĠW arriors
, ~
Ġbr illiant
pr ising
p it
Ġinf inity
Ġnovel ists
ĠChar ter
ros so
Ġmemb rane
xi ety
Ġb alls
Ġwe igh
Ġ$ <
ĠG alaxy
Ġtr im
Ġdisband ed
)} =
be it
Ġevolution ary
orm s
V E
b uilt
orm an
ĠD ob
vent ions
D om
m ology
C ur
pro duction
Ġtre as
ĠLes lie
ĠM ine
Ġh ub
Ġmodel ed
Ġaut obi
Ġtempl ate
}, {\
ĠHur ricane
Ġ$ [\
Ġed iting
ĠDr ug
ĠEd mund
Ġinj ection
Ġalign ed
Ġbench mark
Ġdecl aration
ĠConc ert
ĠLou ise
Ġcommission er
Ġdifferent ly
Ġelect romagnetic
ĠInnov ation
Ġl oves
Ġkey s
ari us
ig i
as ive
w y
} &\
eed s
ĠPhys ical
Ġrecommend ation
ĠBou levard
ĠCel tic
ĠK aren
Ġ ions
ĠDev on
ĠB ec
ri ans
Ġinter im
Ġdiscuss ing
â Ĩ
ĠH alf
Ġs or
Ġnucle us
Ġw ond
ĠWy oming
& $
ĠGu ards
Ġimplement ing
Ġcheck ed
ash ing
Ġdeploy ment
Ġd ish
ĠB ark
ĠTh an
ĠProgram me
Ġpresc ribed
ĠV a
à ®
oot ing
d ifferent
respect ively
Ġevery day
E ff
Ġinteg rals
ĠCol lect
Res ult
go ogle
habilit ation
Ġprevent ing
ĠImp act
ĠS ons
Ġvo iced
Ġre ass
ĠEmer gency
Ġtra ff
d eb
ĠEx hibition
Ġ\, ,
le z
Bl ock
erv ised
ĠInter ior
H uman
ĠGer ald
Ġ$\ |
Ġinterview ed
comp onent
kins on
ĠAmeric as
t ures
Ġcap ita
ight ed
ĠY an
Ġtransport ed
ap or
Ġmet aph
Ġw ishes
Ġrom ance
B s
Ġthrow s
ĠLuther an
Ġb icy
Ġshould er
ĠLind a
l ive
J ean
ĠC F
Ġcompris ed
Ġh ook
ĠManit oba
Ġal phabet
ĠBir th
Ġhomot opy
C ross
Ġseem ingly
ĠF ast
ĠPl ate
O s
ĠN uclear
ester day
Ġland mark
ĠChem ical
ar ag
Ġsp okes
Ġdepos its
ap ache
ĠAut o
Ġh unt
22 5
Ġann ih
}= (
stit u
Ġemp ower
Ġpoint ing
ĠSh adow
Ġenc oded
Ġd ancer
ĠLore ntz
ĠEngine er
c hel
rest rial
ĠF OR
Ġin ev
Ġrele asing
s ol
ed uc
ĠLux embourg
i ott
Ġrot ating
Ġdepict s
Ġso ap
ĠHind i
ĠGl ou
Ġisol ation
Ġbur ial
ĉĉĉ Ċ
Ġdial ect
Ġd rain
In put
et ed
Rel ated
b ounded
ĠOther s
ĠAll an
ĠFin als
Ġprem ises
$ (\
rid or
ĠRoberts on
Ġdes per
Ġsuccess ion
Ġmur ders
Ġswe ep
Ġst opping
Ġh ull
Ġprov ing
he ne
an ic
Ġcann abis
ed i
Ġtechn ological
Ġfre ight
ut ory
ĠG rim
Ġco ached
Ġobserv ing
ĠHe at
Ġbankrupt cy
Ġcomp ly
t im
ĠPal m
P ower
\ }}
que z
b ib
all i
Ġc ock
Ġeduc ator
Ġaccess ed
u ros
Ġdemonst ration
Ġra bb
M ill
on ne
ĠTrans it
ĠC ord
Ġas h
ĠClass ical
p ret
Ġs ew
an alysis
Ġdraw ings
á ¸
opt ion
he nd
Ġ __
g ender
ĠForm ation
ĠM emphis
Ġcare ers
Ġkn ee
Ġneglig ible
Th ough
^ ^
Sched ule
ili ation
Ġinsp ection
H ouse
Ġcl ip
Ġe cc
B rown
Ġc ant
ĠG Ã¶
Ġmultip lication
Brazil ian
ĠG ospel
Ġsuccess ive
ĠT ir
ly mouth
ĠV ers
Ġinequ alities
Ġche cks
reg ion
G overn
lev ant
Ġfavor able
Ġgrand son
pp ers
C lim
Ã© m
Ã¤ r
ĠRail ways
Ġhum or
Ġsculpt ures
QQ QQ
Ġdon ations
ĠLanc ashire
g ary
Republic an
alth ough
Ġtow ers
C ho
Ġdoll ar
ÑĢ Ð°
U LL
Ġoblig ations
Ġpregn ancy
u ctor
ĠT at
Ġs id
ĠBened ict
Ġgener ality
c p
Ġview ing
Ġsummar ized
Ġcomm ittees
Ġcreat or
Ġspeed s
r ar
ĠAb original
Ġdwar f
ĠC ir
h urst
ĠC osm
Ġ{ }
ae us
V C
ograph ies
Ġse ized
ĠFe ature
Ġsem antic
V R
nd ez
Ġfun ny
Ġsp ont
Ġspread ing
{ [
Polit ics
n ational
n orth
ĠC av
ĠCont est
Ġgu ided
ĠMathemat ics
; &
m ind
Ġen abling
L ead
U ser
Ġreb ellion
13 8
M essage
Å Ľ
ĠG othic
ĠF eder
ay ette
Ġneighborhood s
ĠE t
ian e
Ġen larg
Ġconsequ ently
load s
ad ers
ĠC urrently
ĠL O
âĢĿ )
Ġmyth ology
Ġcount ed
ĠI F
al ong
ĠCorn ell
ĠBurn s
F i
p end
it he
ĠHend erson
~ (
ath olic
ant om
Ġsculpt or
M il
ĠN otes
) )$.
din and
ip le
c oupl
ĠCan terbury
ĠGu itar
Ġassum es
ĠDou g
ĠDev il
K L
ĠK ab
Ġguarant ees
M id
Ġt ent
Ġt rem
\, .
Ġent anglement
Ġret iring
ole cular
Ġinter ven
Ġblock ed
Ġsuperv ised
Ġp ension
ĠPrincip al
B ad
Ġf ed
Ġprec ip
ĠÃ ĸ
ett es
ĠAh mad
Ġwithdraw al
Ġneighbour ing
Ġj ack
d ue
ĠCom ment
Ġv ig
Ġfl ank
Ġmist ake
ĠM is
ĠAn at
}. \
Ob serv
Ġmotiv ation
Ġpurs uit
n ership
Ġster e
ĠRel igion
Ġshe ep
U V
hes is
enz ie
l r
Ġkill er
Ġliter acy
Ġj ava
ĠS L
D er
Ġ }$
ĠGeorg ian
c hem
ĠFrank furt
Ġra id
s al
ĠL t
ĠAl pha
ĠCar roll
id ation
communic ations
ĠC ell
Ġstrugg led
Ġtour ists
L es
ĠSt art
Ġtransl ations
Ġsurre nder
Ġformal ism
n ear
g ray
Ð ¹
Ġb eneath
ĠSum mit
elect ric
B road
um en
Ġs ake
Th ird
Ġtreat ments
m ic
Ġclass room
V ictor
ric ia
ĠI BM
Ġde alt
le ted
Ġhe ll
pos itive
G G
Ġcon g
ĠSc out
ir ie
Ġprof its
est e
Ġp icks
F unction
Ġimp ressed
ern er
Ġcompl aints
frequ ency
K im
ĠJer emy
ĠInsp ector
ĠM BA
Ġprefer ence
ĠTr in
ĠGu ang
Ġinvest ed
S eries
Ġatmosp heric
ĠL arge
ĠH ir
Ġfit ness
ĠDisc overy
Ġst ones
Ġcurrent s
D eb
ĠM I
ĠM O
onna issance
ĠA part
ĠLaw s
ĠH off
Ġadvoc acy
Ġflood ing
ĠL az
aid en
Ġuniqu ely
Ġd up
ipl oma
) |^
Ġcol ored
You ng
ore f
Ġlog ical
ĠIss ue
Ġste pped
}( -
Ġfin ancing
Ġv ow
ĠY emen
sk a
ĠPriv acy
18 34
duct ive
Ġlect ures
R oad
or p
ten ess
ĠAdd itional
Ġmob ility
ĠCom mercial
Ġra infall
ĠDem ocracy
ĠL ok
Ù Ħ
ĠHol ocaust
ĠCal gary
S ar
M B
y t
r g
Ġinc omp
sp ot
Ġob server
ien ne
Ġinteract ing
ĠB io
ĠSc hed
Ġsw ing
Y es
ĠP red
Ġbal anced
Ġtribut ary
De velopment
W ood
ha o
abet es
ĠT error
Ġbackground s
Ġs iblings
Ġunder went
Ġmicro sc
Ġcyl ind
B a
pro perty
ĠTan z
P rom
am ous
Ġstay ing
p mb
x rightarrow
Ġout per
Tr ue
Ġcert ification
Ge org
Ġver ified
ĠKing ston
Ġbot an
og o
ribut ions
Ġins ights
n is
Base ball
' =
Ġsimpl ified
char acter
ĠA G
ĠM ob
ĠLiber ation
ĠH ale
Ġline up
Ġrend ered
ĠPop ulation
Ġmer c
I ll
le en
ĠD as
ĠAgric ultural
Ġmethod ology
Ġg ods
ĠWe ather
ĠFern ando
ĠSm art
Ġoutput s
Ġhelic opter
P et
Ġartif acts
Ġrel uct
ĠAn imal
Ġdies el
Ġb out
Ġcr ashed
Ġworks hops
ĠAdvent ures
Ġelder ly
ĠK iss
Ġsomew here
Ġra pper
A mb
Leg acy
Ġon wards
5 000
t otal
ĠEnter prise
Ġult ra
ĠL odge
ĠS qu
ĠW ak
abl o
Ġconf ined
N orthern
Ġkill s
sh ould
ĠW end
Ġterrit orial
Ġwor ry
C itations
Ġswitch ing
s ix
ĠCl oud
um ph
Ġcongreg ation
18 15
Ġencourag ing
Ġsw ord
T Y
or ic
ĠA ch
ĠGl enn
r floor
ĠB ore
Ġinter active
ĠMar in
ĠB il
Ġexpl aining
w ald
ild a
W F
Ġess ays
op hers
Ġdiplom at
ĠX X
Ġprompt ed
Ġw ages
Ġf ake
ĠB order
Ġw are
Ġtrib al
ĠF antasy
Ġprosec ution
equ al
Ġcontact s
ĠHigh land
Ġarg uing
Ġvanish ing
Ġf ru
Ġab elian
Ġcarri ers
ĠL enn
Ġundert aken
Ġprot agonist
f unc
* \
tem perature
ĠUS S
Ġem otions
ĠBer ry
Germ any
ĠN atal
ĠEmm y
ĠWag ner
Ġsocial ist
ĠR ather
ĠPlay Station
l ift
ĠGu atem
quarter ed
ren ew
Ġreb ounds
g rand
Ġthir teen
Ġconclud es
ug a
Ġg est
ov i
ĠCurt is
Ġob ey
IC E
o ided
col span
Ï ģ
Ġprocess ed
c hester
Ġch orus
Ġpolit ically
Ġsp iral
Ġmole cule
ĠV ision
ĠĠĠĠĠĠĠĠĠĠĠĠĠĠĠĠ ĠĠĠĠ
Ġe gg
il ion
Ġg rap
ĠV III
ĠLud wig
ĠM ail
Ġpup ils
Ġex ile
L iter
Ch ris
Ġstrugg les
ĠEp iscopal
Ch ang
28 0
ĠCl aud
ĠIll ust
Ġafter math
W R
Ġdemand ing
en ic
}} }$
m ons
n ut
ĠGi ovanni
ĠSh ir
ip ur
Ġflo ors
Ġserv ant
T ri
if ax
ĠA ircraft
in ar
Ġv it
W C
in is
Ġgrand mother
ĠG ael
s olid
r ors
Ðµ Ð½
Ġh ometown
ĠSh ore
ĠI stanbul
Qu ery
k al
Ġ= ==
amm ad
ĠEug ene
Ġ$ $\
ĠDat abase
lic t
Ġfin anc
ick er
f ind
Ġb arriers
}\ }$
hy dro
ĠT ennis
ĠD iana
l floor
Ġin quiry
Ġinc hes
ĠS isters
Ġmod ular
J on
T ex
Ġtri o
en za
Ġf ires
Ġcohom ology
Ġassemb led
ĠA ri
' }$
Ġ å
Is lam
Ġs le
Ġsl opes
ĠB ever
ĠCl aim
Ġw eren
Ġl ob
Ġp ink
Ġhon ours
vert ex
ud ed
Ġrepro duce
ĠWrit ers
im g
Ġtang ent
Ġfl avor
ato es
Ġaer ial
H or
Ġvari ability
Ġopp osing
ĠF emale
Ġrel ates
Ġbroadcast s
Ġincred ible
r ina
Ġc otton
an aly
ĠD ale
Ġstrong est
ĠP orts
Ġland sc
n ext
Ġpriv ately
ors ion
Ġcyl inder
P N
P ier
ad ows
Ġdocument ation
Ġn ights
und erset
Ġpre y
ĠNot re
Ġconven ience
="../../ ../../
Ġfell ows
ĠPl us
mod ern
Ġfaith ful
ĠL ords
ĠPl aza
ĠC anyon
Ġcap ac
Ġobserv ational
}} }{
ĠPer iod
Ġdisc overs
lim it
Ġecc entric
ĠEston ia
s ets
ĠDec l
M aster
14 3
ĠH ost
Ġcor p
ĠIS BN
S ty
Ġproof s
Ch arl
Ġpeace ful
N av
is le
Ġdisc ipl
ĠMont eneg
ĠÂ ©
be h
M arc
Ġto b
ess es
Ġlocal ization
Ġbad ly
oc o
let te
n Ã©e
v able
Ġn urse
yn c
A re
C ond
ĠLyn n
Ġdub bed
] ^{\
Ġpres erving
charg ed
G rad
b racket
Ġcal ibration
ĠT ales
ĠContin ental
rit z
Ġen force
c n
Ġ\ :
ĠApp lied
Ġra y
ĠZ ion
Through out
ĠBur ton
ins ki
asc ular
dist ribution
Ġdescript ions
ele ment
ĠBeat les
Ġr iders
Ġmod ify
Ġhyper bolic
in formation
Ġsur pass
ĠP iano
Ġ} ;
). }
ĠBarn es
ĠG L
ĠTri ple
Ġdiscontin ued
h ome
er als
ĠT rent
F ort
Ġ ibn
ag le
ĠGr ass
ess ing
ric a
Ġsens ors
ĠL it
Ġsp ite
Ġsyn onym
ĠL ar
vi Äĩ
ĠGal actic
14 7
Ġmon uments
Ġav oided
Bel g
an mar
Ġper former
k k
e ah
18 33
R a
v dash
Ġdisput es
Ġanticip ated
et z
Ġdec ent
Ġcou rage
Ġcl ay
Sing le
sub float
ĠA way
ĠSt akes
ef ield
Ġmod uli
Ġlocomot ive
Ind eed
3 30
comp act
ĠR F
Ġurg ed
Ġless er
26 0
all a
Ġhard ly
Ġmark ing
te b
Ġrig id
c ritical
g ang
Ġt ab
L at
Ġdot ted
Ġfore ver
ĠExp edition
^- $
h skip
Ġgener als
ĠMor rison
Ġfar mer
fam ilies
b eck
Ġsum s
ĠCh ancellor
16 6
ĠAnd ers
Ġacc us
ĠMe V
Ġb apt
Ġreb els
P I
Ġprop ri
act ing
ĠL ives
ĠS ustain
ĠMin neapolis
H aw
im edia
w i
Ġp in
tri ang
Ġm esh
Ġsc ar
Ġdiver gence
f ocus
j iang
Ġp our
ch ant
app rop
ĠEx ample
F ix
ĠMos es
mark et
Ġr ivals
Ġworks hop
Ġasympt ot
Ġtw ist
ĠInter state
Ġimpl ied
M I
E th
ĠR iv
Ġpurs uant
head ed
ĠE RA
ĠNew port
aut oref
paren cy
14 9
s epar
ĠExcell ence
ĠSe lect
Ġaut omorphism
15 6
s ect
role um
ĠFras er
u fficient
Ġl oud
out put
Ġspec ify
Ġdes k
val uation
ĠJud a
ĠL av
S a
ĠN u
ĠJo el
Ġinv ariance
Ġfurn iture
Ġgirl friend
M u
ps y
Ġoverwhel ming
Ġmanuscript s
idel ity
Music ians
Ġsh ar
Ġoutl ined
ĠSur rey
st ellar
Ġdevelop s
ĠN acional
C zech
Ġprof ound
ĠBur ke
at aka
Athlet es
Ġquant itative
ĠE ye
ĠB oeing
Ġhousehold er
erv ous
iz ational
ĠCzech oslov
ĠVeter ans
ĠD um
ĠE uler
Ġr amp
Ġcondemn ed
less ly
18 31
is ive
ell ites
j in
Ġd ign
aus es
Ġmand atory
Ġign ore
T ake
ad al
Ġn aming
Ġoccur rence
> >
ĠWes ley
Ġrit ual
Ġpropag anda
Ġperm utation
Ġfour teen
Ġple asure
un iform
ip eg
Ġobserv ables
ĠFer gus
um ably
ur ate
Ġhas n
em er
ot yp
ST M
un i
rol ogy
Ġobserv able
Ġb er
left rightarrow
ĠSand ers
ĠLy on
Ġdo i
F OR
d ocument
v ance
m el
own er
Ġplaint iff
rand om
Ġoccas ional
Ġthe or
Ġc ens
center line
en ame
) !
Ġstre ak
Ġcounterpart s
Ġg aps
ĠPart ners
he ll
ĠAntar ctic
ad h
ĠC os
= {\
pr ivate
S erb
Ġinv ari
G raph
ran es
ast ed
B al
l it
k el
w hat
Ġd ressed
Ġquestion ed
Ġlic ence
Ġal umin
? ?
Ġexp end
ĠH i
Ġfound ations
Ġsail ing
uk u
Ġnon profit
Ġsp anning
= '
ĠIn side
rag on
ĠVis ual
ĠBas in
Ġac claimed
ĠPres byterian
tain ed
F ac
ĠMar ri
Ġfemin ist
ag ne
ĠC risis
ĠK w
pre ced
ĠH ood
Ġhot els
ĠP or
ĠMy anmar
v c
Ġ )$
Ġsix teen
ĠCon vers
ĠEd monton
Ġdet erior
ĠAchie vement
Ġgen uine
}) (
y u
ĠR i
Ġcollaps ed
ĠFilip ino
Pro ject
ĠDo es
ĠBar b
anc ies
ĠAlexand ria
ĠJ al
Ġcharacter ization
ĠF an
b efore
s ample
ĠD ow
ĠR T
Ġsub tle
eful ly
Ġl ip
Ġsurn ames
ĠS hen
Art icles
H aving
ĠCour se
Ġsymmet ries
ĠCh uck
14 1
ĠLuc y
Ġcons erv
Ġn ose
ord e
Ġcomplex es
Que en
it Ã©
Ġun ited
ĠM ales
ĠD raw
Ã¡ r
ĠWind sor
Ġrecept or
eng ine
arth y
Ġadapt ive
c op
ĠEd ge
Ġap olog
15 4
Ġcontribut es
Ġcat hedral
Ġtack les
L os
M unicip
ĠG A
Ã± o
$ --
R est
ĠZ ag
ĠE ducational
Ġbut ton
ĠJohn s
Ġactiv ated
ne um
s chool
ĠMaced onia
ron es
ĠRec all
ĠC ounsel
ĠP Ã©
ĠCom bat
Ġnucle i
sh ape
ĠChem istry
Ġen zyme
I ran
Ġeth ics
ct ors
AS T
ĠF L
Ġm ere
c ourse
ĠTre k
Ġc uisine
pl ant
Ġd ock
S at
m ile
Ġm asks
ĠW ool
Ġinf ections
Ġm arri
ĠFight ing
Ã© d
Ġfilt ers
O k
Ġaff irm
C N
[ {\
ĠV ery
Ġhier arch
Ġproject ions
ĠB ess
sup ervised
Ġr ic
ĠP irates
Ġpar as
18 14
Ġlit igation
St atus
ĠMe eting
Reg ular
Ġtal ented
Ġsupp orter
Ġm eta
atter y
Ġreason ably
T er
B ern
Ġresp ected
ĉ ĠĠĠ
les h
E W
m ith
io x
Ch icago
Ġdivor ced
oc he
Ġreal ization
Ġfeed ing
ĠK yle
Com parison
M ike
Ġwitness ed
Ġe ar
15 2
ĠSt rat
ĠEll iott
ĠAlb ania
ĠP lymouth
ĠEll en
ort ing
Pop ulation
Ġinteg rate
Ġmot if
hy per
Ġdrop s
ĠSloven ia
Ġtrans parent
Ġcust oms
A ud
Ġmission ary
ĠConstant in
un ar
Ã¨ s
Ġlif ted
Ġins ects
ĠAlb any
Ġpush ing
ĠSac ram
i ership
ĠL omb
Ġpract iced
Ġm isc
Ġsimpl er
ĠB ran
G a
Add itional
}| ^
Ġfraction al
il ogy
Ġreven ge
with out
Ġnorm s
ĠU nd
gl s
Ġmanif olds
ĠP ars
Ġprot ocols
Ġlast ing
Ġvolunt ary
ĠĠĠĠĠĠĠĠĠĠĠĠĠĠĠĠ ĠĠ
Ġspec imens
Ġcycl ing
Ġlux ury
ĠL apl
)\ ,\
D esc
W alk
Ġroll ing
ĠB it
ĠG mina
ĠInst agram
vol ume
ĠC avalry
is ible
is ers
ig nt
ĠL eop
ra ising
$ }\
Ġpro c
Ġcoinc ide
ĠD ylan
ĠBal let
Ġsuper conduct
in ate
ĠCarol ine
S u
ec onomic
m ut
ĠH ab
Ġast ero
Ġw reck
And rew
ĠPubl ishers
rape ut
Ġep it
Ġte ch
ĠSp art
Ġide als
ge ons
S up
ch urch
Ġel imination
Ġf auna
con ver
^ +\
ĠColon ial
ĠSuper ior
Ġdisc rep
Ġaut umn
Ġreven ues
dep th
Ġwav ef
ĠK re
ĠML B
ĠM ale
Ġang ry
Ġelabor ate
H ot
Ġstruct ured
ced es
Ġparticip ant
Ġlocal ized
Ġninet eenth
Ġb ol
Ġrefere e
Ġfre estyle
}$ ).
ay e
Ġch lor
Ġm ood
ĠX I
v iv
ĠMc N
ĠSp ot
Ġbre ach
14 6
com ment
17 4
Ġpenal ties
Ġv oyage
Ġtend ency
ĠL ah
Ġstation ed
le man
Ġhuman itarian
Ġpoly mer
ra f
}} +
ĠMon roe
Ġgen res
Port ug
sim ple
Ġp ig
Ġrel ativistic
ar re
Ġwe aker
Ġafford able
ĠD oc
Ġdef inite
ĠChe ss
Ġst aged
Ġcontin ent
cont rolled
__ _
ĠFer dinand
Ġl ady
Ġtob acco
13 9
ĠCard iff
Ġem ig
Ġb ind
ist o
ĠPract ice
d at
on el
Ġhur ricane
oun s
ĠAd rian
script ions
Ġsur f
ĠPro gress
Ġdram atically
Cal ifornia
ĠIm pro
Ġar row
ins k
Gl obal
N atural
}\ !
ĠEd gar
ĠT D
ĠC ort
Ġgrad uates
Ġan onymous
ĠG ov
Ġbul let
Ġprotest ers
Hung arian
A I
if les
ĠReg ulations
P ublished
Ġt ar
Ġtact ics
the m
Ġtw entieth
ĠS ales
ĠInt roduction
ĠOs lo
ĉĉĉĉ ĉĉ
k ok
atic an
Ġmanufact ure
amb a
Ġf ier
Ġhero es
Ġille g
ĠK end
rac ed
Ġadjust ed
Ġpast or
cons ider
ram id
d ig
Ġopen ly
ĠT yp
S n
Ñ ĩ
T s
ĠF actory
Ġmort g
Ġaccompany ing
Ġacadem ics
ĠT ru
ĠP L
Ġr ises
Ġa fore
os itory
H ig
ĠM ing
Ġin scription
T erm
ĠH ern
Ġfrag ments
Const ruction
id an
ĠBl og
ĠSem inary
Ġaband on
20 2
Ġmand ate
Ġsophistic ated
ĠK aw
ĠS ometimes
ĠR ica
ĠG M
le ys
es ch
Ġsome how
Ġbl ank
Ġsupp ression
Ġhold er
ĠApp eal
Ġlo ose
L ight
ard e
g irl
Ġsan ctions
hard t
Sc ience
Ġincom plete
B on
ur an
U I
ĠMal colm
ĠR out
rat io
Ġcommut ative
ĠCh in
ĠMark eting
osp ace
pl ate
ĠL ay
ier i
Ġby pass
ĠPro of
Ġple ased
ĠDep ression
ĠM IT
}}\ ,
Ġinv ention
ĠKle in
ad ata
Ġsax ophone
Ġout lets
ĠMin isters
Ph ot
ĠMan ufact
ĠAndre a
15 1
Ġsaf ely
Ġer g
20 8
om ial
Pac ific
ĠS uccess
Ġcab in
ĠLiter ary
ass oci
are a
im ming
ĠW aters
an ian
Ġper f
14 2
an ions
ĠA u
\!\! \!\!
Ġm oll
m art
14 8
Ġâ ĪĴ
ĠStaff ord
ĠSerge ant
arch ive
ĠRos a
necess ary
ĠD w
oy e
ad ors
Ġgrad ed
no ise
ac iÃ³n
Ġwrest ler
power ed
ĠC i
me asure
it ated
ĠParalymp ics
$ =
ĠT roy
d ynamic
Ġl i
B asketball
20 5
pack age
to o
Ġsen ators
she ll
ĠBelf ast
eg ie
ĠAlban ian
Ġst d
ĠW ick
Ġant is
Ġf are
ain es
da ugh
l iter
ĠR egin
F ellows
ĠAn aly
Ġf o
Ġrul ers
Ġcle ared
con c
ĠConstitution al
ĠBed ford
di ag
Ġutil ize
ĠHug o
ount ain
L ab
ĠM uk
Ġcr imin
18 25
$ {
K h
ĠM ilton
ip zig
ĠDay ton
V an
Ġapproach ing
asc ar
ĠL ip
Ġsacr ifice
Ġgoal keeper
ĠPot ter
ĠMar ion
C F
Ġscal ed
y g
oc c
Ġhe ir
Dist rict
en ary
N ever
Ġreg ards
IN T
ĠH ack
Ġw ors
ĠV isc
ĠEn s
Ġst uck
ĠBC E
Ġhom osexual
Ġimm un
te e
15 3
Com b
ĠN SW
Ġdo zens
m arg
Ġconstruct ing
ĠBel grade
o qu
Ġor n
Ġoblig ation
ĠHead quarters
P age
ĠA sc
Up on
16 7
Ġsav ings
ĠU FC
dou ble
found land
Ġtel escope
Ġapp rent
x ym
Cl ient
Ġlect urer
ass o
~~~~ ~~~~
Ġh o
... ]
Ġs ulf
Ġsingular ity
ĠH aus
ir ate
Ġen listed
Ġb ore
ian i
Ġsimilar ities
ĠCon v
Ġlong itudinal
im i
Ġdis advant
Nov els
init ial
ĠBas il
Ġrot ational
ĠW ant
uc ci
it ance
ĠL ey
tt i
ens itive
c ats
Ġm aj
Ġdisc ret
Ġm all
ĠJess e
z one
Ġp ec
ĠMar tha
ĠS ou
ĠTour ism
ĠJ ourney
Ġcontain er
ĠCom plete
15 8
att ers
Ġtra iler
sp aces
ĠNapole on
c amp
ĠM oss
othe rapy
T rad
Ġconvers ations
ĠO bs
Ġbur st
ĠBud apest
Ġgeodes ic
18 28
Ġvirt ue
N a
Ġru ins
Ġ( (
Ġingred ients
S uch
Ġmilit ia
Ġsub division
ĠB alk
ĠK ad
G D
Ġpar ity
iling ual
ul in
Ġillust rates
B U
ĠH R
K ar
de en
preced ented
establ ished
ĠM E
design ated
Ġter rain
AM E
Ġtri angular
15 7
Ġtre ating
AC E
Ġcollabor ative
Ġemer gence
ĠE k
ĠSe oul
ĠAdvent ure
thin space
Ġre he
oc cup
R en
Ġpersonal ities
Ġemphas ize
Ġg odd
ices ter
Ġproceed ed
Clim ate
00 2
Ġemer ge
histor ic
ple t
form al
Ġord ained
Ġdr ift
Ġtor us
Ġinc oming
Ġdetermin istic
id ays
ĠĠĠĠ ĠĊ
O H
ann ah
Ġviol ated
): =\
ĠJ i
ĠLanc aster
Ġupgrad ed
v ens
Ġpresent er
ĠMar l
ĠFl oyd
ĠInvest ig
ĠM am
ven ile
Ġillust ration
ĠJam ie
Ġferm ions
Ġimmig rant
Ġcell ular
È Ľ
ĠD ynasty
Ġrank ings
ĠS EC
ĠT ell
ĠG em
Ġmetall icity
ari at
S pr
Ġund ers
ĠCraw ford
ĠM otion
ĠP rec
Ġenact ed
ĠI L
ĠHe y
ĠK ang
ron ics
ĠCitiz ens
op le
ros se
Ġwithd rawn
sequ ence
18 29
ĠNik ol
ĠH els
Ġele g
Ġoscill ations
Nor wegian
ĠW it
if ference
au f
play er
ant le
Ġdis abilities
Ġqu eries
Ġand roid
Ġdual ity
as aki
rac use
Ġh arsh
ĠD ew
ĠH ull
ĠBi ology
per t
oura ble
Ġneur ons
Ġp unct
ĠG ates
Cont in
] _
Ġm im
Ġpres erves
ĠEv olution
ott i
Î µ
R h
l ined
Ġorgan ize
ĠG ross
ĠDar win
ific ant
ĠKazakh stan
ĠF ile
Ġan xiety
Bur ials
ĠD und
16 00
Ġafore mentioned
anc a
ĠNAS CAR
Ġcomplic ations
ĠT ow
Ġdi ocese
Ġsymbol ic
Ġdoctor ate
Ġr idge
port ed
ch in
5 12
A sh
Ġdiscuss es
Ġcatal ogue
ent er
Ġro ok
'' .
g ae
Ġcontin uation
abul ary
cer pt
19 2
ĠAr senal
f u
ï ¼
ĠC ool
Ġcancell ation
ĠV id
ĠA A
are l
Ġcontract ed
Ġdeliver ing
Ġse al
Ġwhe els
ĠZ amb
Ġg rateful
T ags
ĠL ik
Ġcrit ically
ĠE g
Cont ent
Ġneg lected
ĠBund es
Ġfilm maker
Ġexcept ions
ĠR ib
ĠNew man
ribut ed
V s
Ġam mun
ly m
k ers
Ġv ortex
ES CO
Ġflux es
Ġtermin ology
Ep isode
upp er
ĠTown s
Ġb uck
ĠTh ir
ĠFor bes
mit t
ess ment
Ġmet als
ĠG ut
\| _{\
F E
Ġaccept ing
Ġic onic
Ġdet ention
cho ose
ely n
ignt y
con stant
ĠCov id
ĠB end
res olution
Ġins ufficient
ug in
Orig inal
Ġveget ation
Ġdirect ing
ĠM atch
Ġadvoc ates
com ed
Ġdepict ing
Ġadvis ory
ov ic
ĠA FL
ĠC od
Pr ivate
B ay
ĠGriff ith
St an
ĠBuddh ism
Ġc oding
Ġst yl
Ġentreprene urs
Ġund erm
ĠC ed
ĠMe h
Ġphil osophical
Ġb ubble
Ġdef ect
18 10
clud ing
ĠBel le
Ġo k
ĠRom ans
ĠJ ake
Ġreflect ing
gl ass
ĠRe in
Ġfood s
P H
Ġacc idents
S earch
S om
b ol
Ġover head
ĠP ione
c ro
ĠFl ag
Ġrecre ational
Ġassass ination
ĠG ul
Ð ·
Ġtorn ado
P rem
ĠIndust ries
ĠG ol
- {\
d ad
can ic
Ġcycl ic
Ġqu arters
Ġmass acre
f re
math ds
ĠMerc ury
ĠK ot
ura i
ĠEconom y
Ġmob il
Ġb is
Ä Ľ
th ouse
ĠU ttar
v ation
Ġpair ing
Ġrenew able
Ġorgan izing
omet ime
Ġun ified
ĠA FC
Ġconver ge
ass er
op rano
ĠC ay
16 8
est ock
ĠM aking
ro ot
if iable
ĠUS SR
Ġag gress
Ġmod elling
Ġdece ased
ĠJul ie
st en
the se
ont r
Ġbuff er
Ġb und
Ġfer ry
ile e
Che ck
Ġbare ly
m em
G T
Ġinstruct or
ul se
Ġscreen writer
Ġre vel
Ġhead quartered
Ġspace craft
ĠCry stal
j ee
Ġe ject
C I
Ġpurs uing
ĠBrad ford
c ot
18 24
An th
5 50
ĠI g
Ġd ra
ĠEx amples
Ġm eter
Ġammun ition
ik er
ĠParliament ary
ĠRab bi
in ia
Ġthe olog
Ġpl ural
ĠHard y
Ġsimpl est
Ġpe ers
Ġstory line
Ġtox ic
ĠS NR
Ġd ancers
ĠB ren
Ġbenef icial
Ġaccommod ation
ĠS it
ĠFri end
ĠKenn y
ious ly
Ġinf rared
z el
Ġcomb ines
Ġcorrect ed
Ġb ones
ĠBar ack
Ġincorpor ating
ĠAlger ia
! ,
xym atrix
Ġg amma
ĠD arl
Ġdis par
Ġband width
ĠPart nership
' ),
M arg
ĠM eyer
ath am
Ġend ings
$& $
F W
ri o
Ġbass ist
ĠDod gers
ĠBul let
Ġinhab ited
C ivil
c am
ĠBor is
pend icular
Ġr h
Ġsm oke
c ence
qu ery
) /\
E Q
ĠR ican
Ġimpro ves
( |
ĠI z
@ {}
Ġintellig ent
rosso ver
ing ers
head er
ĠSouth west
h ouses
ĠMax im
18 01
ell ation
n as
ĠV iv
Ġm a
Ġs unk
Ġdiv ine
Ġcook ing
stad t
Ġf ran
ĠStrate gic
n atural
Ġrep eal
Ġport raits
P ark
Ġdis charge
Ġform ats
Ġgl obe
ro ve
ĠH iro
h ook
Ġany more
ort ium
act ers
Ġlect ure
Ġrevers ed
H o
ĠSw ift
ĠJosh ua
ore n
Ġdef ic
cess ion
am oto
W W
r n
g as
amp ire
Ġspons or
t urn
Ġl ig
ĠRich ards
> &
}{ $
ĠM orm
ĠSant os
pres ident
Ġprom ises
ĠHar bour
Ġachie ves
ĠElect ronic
Ġcoinc ides
% ).
]{ ./
J oe
Ġo mitted
Ġregular ization
Ġcomput ations
Ġ< <
Ġsub mission
Ġdesign ing
Ġ\ }$
ĠChron icle
ĠTe h
ĠSlov akia
ĠL il
P DF
c estershire
Ġcar ved
ĠRel igious
20 3
ĠB ronze
ĠZ ero
Ġs a
21 3
ĠC anton
Ġparamet riz
ib an
Ġpractition ers
Ġbatter ies
Ġre print
ĠV it
Ä ħ
ĠP am
ĠD ir
Ġnever theless
Ġanom aly
Ġload ed
Ġpro spect
Ġte aches
Ġform ulated
Ġexp ans
Ġto ken
}_{ (
Ġf a
Ġf ights
Ġto pped
Ġweak ness
Ġcorn ers
t ics
tra ined
18 26
Ġcom merce
Ġpol es
Ġred sh
ĠMichel le
N AS
ĠSup erman
ĠP apers
Ġunve iled
pol ar
il is
Ġcomp ass
ri ot
Ġdro pping
Ste ve
ĠDise ase
ĠBl air
r l
ĠĠĠĠĠĠĠĠĠĠĠĠĠĠĠĠ ĠĠĠĠĠ
Ġ Ø
ĠR id
ĠSh ould
] _{
Ġ\ #
p air
ĠT oo
ĠC ash
cf c
ĠLouis ville
======== ========
el ic
Ġvin yl
. (
Ġrad ii
Econom y
ĠFranÃ§ ois
6 50
ĠP ere
15 9
}] $
U se
ĠB ac
oc ide
di agram
S ound
Ġf Ã¼r
Ġpil grim
correspond ing
M useum
St ream
Ġdec ree
Ġg arn
Ġc ig
p ush
ĠMar ian
p aper
big oplus
ĠSer ie
Ġge ographical
Ġaf raid
s qu
' ).
Ġwrest lers
or ers
ĠChief s
Ġconsult ing
ĠBra h
Ġdeleg ation
Town s
ĠC and
ĠSebast ian
b il
Ġpack et
big skip
ĠPro gressive
ia e
Ġdip ole
Ġsn ap
ĠS tern
iss ues
Ġco ordination
Ġelectron ics
A h
S ym
ĠP ine
Ġexplo it
Ġbal let
Ġprem ium
S B
e very
' (\
à ´
ĠWals h
ĠL ed
ĠK ind
ĠT ank
ĠHay es
Ġlong time
ĠPrest on
erm ark
Ġlett ing
! [
ampl ing
Ġhol y
ĠAp ollo
Ġapprec iate
ĠC airo
In c
Ġfil ing
J eff
any a
ec hes
G i
Ġcy ber
Z Z
Ġadd itive
F ederal
ĠR oh
ĠEv ents
Ġindic ator
t v
ev o
symmet ric
g iving
Ġart ic
ĠI de
Ġbeet le
ĠB rent
Ġhe aven
Ġun changed
ĠBright on
ĠRe agan
ON E
M ic
Ġ\\ [
Ġhon ey
it atively
ur rection
ĠR ever
ĠDe al
Ġfinal e
Ġb eds
Ġhigh ways
Ġrec ycl
Ġt ap
Ġg ameplay
ĠDub ai
Resp onse
Y our
St art
Ġeth ical
Ġmort ality
sw orth
Ġmind s
Ġon set
Ġest ates
Ġimport ed
ĠD awn
ruct ive
ĠRock y
Ġexpl ores
Ï Ĥ
Ġch ances
}}\ \
ĠChe ng
C ultural
ĠRec ording
E c
ow itz
The ir
Ġend angered
Ġconcent rations
Oper ation
Ġcon ceived
ĠU z
Ġserv ants
ĠGre ens
Mean while
Ġreport ers
Ġimportant ly
keep ing
P ers
I J
Ġl ith
am ic
be at
Q L
ĠD esc
ĠH ond
S outhern
Ġreveal ing
Ġreg ulated
opt imal
cal cul
Ġd ots
ĠLyn ch
ĠC areer
}. $
H ard
or bit
Ġm ouse
Ġcomplet es
Ġbright ness
b ay
Ġt idal
ĠRaid ers
Ġal arm
It aly
cles iast
Ġrect angular
ĠBre nd
ĠF o
}$ ;
ĠW ings
Ġg aming
ogen ic
ĠHonor ary
Ġun con
ĠArm s
Ġround ed
ĠCl ara
Ġillust rations
1 200
ĠWill ie
Ġtr ucks
ĠSpring field
ur ally
ub le
Ġdel ays
M F
18 18
Ġpubl ishers
16 3
Ġident ifies
c ourt
Ġin duce
S hips
Ġn ervous
ob ic
Ġant iqu
ĠJ ets
Ġche ap
j ava
Ġa u
Ġqu it
Ġac ute
pos itions
rell a
c in
ĠC ly
Ġcre am
Ġinteg rating
Ġa rose
ĠComp anies
u o
Ġmotor cycle
Ġhol omorphic
18 13
Ġsen ator
Ġarm ies
Ġreal m
ĠN othing
se at
ĠA bs
ĠB rain
Ġhe x
Ġsur geon
Ġcapt uring
ĠD ud
g rid
ount ers
ĠMar ines
Ġra ys
ring e
ĠE N
ĠHun ting
' -
Ġd s
ĠAnn ie
Ġm ath
Ġarch ives
ĠChurch ill
Americ a
Ġut ter
b os
st roke
on er
ĠHal ifax
Ġpost hum
Ġcast ing
Ġd ys
ope z
or ate
if a
Ġmiss iles
sm ooth
q q
il ateral
Ġspec ification
ĠG DP
Ġf u
Ġamb itious
Ġsign atures
ĠH app
ĠR ifle
ĠO N
pent er
Ġwork force
Alex ander
Ġdisc ount
os i
ĠD ong
Ġsk ull
) }^
t ex
ĠJul ius
Ã °
D L
}{ $\
Ġassess ed
ĠK urd
Ġref uses
ĠTrib une
pos s
Ġb ike
Ġs outheastern
ru ce
sat isf
ĠQ ing
ĠGarc ia
Columb ia
Ġloc ked
bl og
Ġansw ered
Ġsurre nd
ĠV atican
min ent
am on
Ġjust ified
ba um
by e
Ġas ymmetry
Ġadj oint
M Hz
ĠSch olar
ĠRoc hester
Ġexcess ive
ĠJuda ism
Ġembedd ings
18 21
ĠCharl eston
ĠRem ix
Ġflo ating
Ġins isted
ĠD iet
ĠE aster
ĠThom son
sch ild
Ġeval uating
Ġg rab
en stein
Ġv end
ship s
moment um
ĠK om
rel ax
ĠLib ya
Ġm ansion
Ġin ert
\\ \
Ġb acter
Ġun precedented
eff ect
est y
, (
M em
Ġl aps
Ġd amp
Ñģ Ðº
ĠC ities
b is
=" ../
ĠS ed
ma xim
Ġflex ibility
ĠE R
Ġk iss
Ġp ending
ort ic
Ġlin king
H H
ĠC over
ĠC lement
ĠM W
Ġcur ved
Ġsure ly
Ġdr unk
Ġlocal ities
K en
Ġpartnership s
Ġend e
ĠH appy
ĠF ur
ĠG an
Ġconvent ions
Ġrenov ation
}} +\
al p
ĠC ategory
arri e
Ġhang ing
ĠR C
Ġcoordin ator
Histor ic
G er
Israel i
ĠNew foundland
I mp
Ġi i
Ad minist
A rab
ograph s
.. ."
n one
Ġt ong
ĠD rew
ne z
ĠI X
I CA
get own
pher d
ĠV eh
Ġun e
Ġindic ation
ĠB j
Â »
l ooking
21 1
ighth ouse
ĠM R
renew command
ĠKer ry
Ġclass ifier
C ong
Ġbre ed
ink i
Ġa z
m agn
ĠT aking
Ġex empl
ch ard
Ġins erted
ĠTh r
Ġwant ing
ĠUS D
ond uct
whe el
ĠBol ivia
og h
' )\
ĠThe odore
16 4
Ġinv itation
Ġlater al
ĠN ixon
ĠMar ÃŃa
ik k
ĠMar co
Ġdep r
ob j
ĠAnd roid
ĠA sp
Ġl ag
Ġtrans cript
ĠSing er
Ġexperi encing
Ġdef ects
ang led
Ġrec urring
Ġs ab
Ġb ipart
ĠS ag
ĠEm irates
Ġcontest ants
ĠQ atar
Ġhand ful
Ġmamm als
ĠFergus on
Ġpar ishes
ĠM illion
var pi
Ġcompar isons
Ġcomm od
atern al
Ġreg imes
17 90
ĠAr ist
ĠF ont
ook ie
Ġbelie ving
Ġg ig
Ġsk illed
Ġassert ion
M icro
Ġautom ated
ĠT ropical
ĠV ale
Ġin clusive
ĠK oh
rit ies
S ol
ĠN OT
Ġbreak down
ĠCast ro
Ġdis ks
oc es
Ġ Âł
im ar
Al tern
ĠS leep
rac es
Ġthere in
Ġc ere
Ġthrow ing
pe z
ĠGreen e
ym es
ĠSil va
ĠNap les
Ġconnect ivity
m ot
ĠL E
b ibliography
T am
ĠM om
te ch
stitution al
Ġadv ancing
ĠChile an
Ġper pendicular
ĠWinn ipeg
Ġqu ote
oura ge
Ġperm its
Ġenc ounters
Ġdomin ate
Ġlack ing
Ġstat utory
En vironment
ĠStrate gy
ĠJane iro
ut ors
Ġadv ocated
ph ones
Ġbom bs
, [
Not ice
Ġbusiness people
ch y
ĠAg ent
Ġfor um
Ġtrem end
m atch
ĠMar cel
y on
Ġout s
FF FF
H op
Ġd im
ĠS ever
Ã¡ ndez
Ġvi able
ĠPatri ots
ĠPro ducer
ĠKn ox
cept ions
X T
Ġceleb rity
ĠH MS
Ġcler k
Ġlogarithm ic
in z
}$ $
Ġcritic ised
Ġcomm ands
Ġconcept ual
ĠMidd les
n ick
Ġprom otional
ĠIn ternal
uc a
Ġfact ories
Ġint im
f ootball
50 1
Ġn ortheastern
Ġovers ee
ĠTasman ia
Ġsub div
sh i
Ġsl ower
Ġcon sole
ĠN iel
Ġan ger
23 5
ĠD erek
od ium
Ġver b
F ound
ĠE y
ĠEston ian
daugh ter
ĠCow boys
di ocese
ĠR az
ĠH ook
lect ric
End emic
as se
em ia
ak k
ĠJess ica
Ġg ifts
Ġp orn
16 9
Ġreg ret
An im
Ġp ars
scal ebox
ĠN L
Ġout line
Ġsear ches
m ix
Ġgra ce
d ia
Ġexp elled
20 6
ĠRh ine
ĠMar itime
ĠStand ards
Ġrel iability
Ġinform al
Ġthe aters
ĠFl ash
e eq
Ï ĥ
ĠZ en
Ġcha os
fig s
ĠAnn iversary
Ġdefend ants
d irection
Ġexpon entially
Ġqual ities
Ġstr at
Ġmission aries
ĠDra ke
Ġdet ectors
r arily
Ġtransl ator
ĠLog an
ĠJeff rey
******** ********
ĠEd win
ĠCrit ics
l ar
Ġke V
Ġbat ting
3 40
Ġd Ã©
ass adors
it als
Ġbet a
Ġcontin ental
ĠDor othy
x it
\' {
ĠJohn ston
Ġsub urbs
Ġcomprom ise
C ard
ine es
d g
ĠBas ic
ĠInd o
Ġf oster
ag ascar
Ġstreng ths
u u
pt ons
co ordinate
Fig ures
Ġconjug ate
Ġsec urities
ĠSh op
ĠP iet
ach ment
24 5
Ġter rible
Ġscreen play
Ġp ub
ater ial
Ġb esides
er ver
ĠGreat est
& +
ĠG W
ĠEr nst
m atic
Ġf ears
ĠT ul
ĠC e
Ġg ly
ĠLe ipzig
ĠÂ «
on ey
Ġl over
ĠJ ob
ant o
ĠSch midt
Ġenc oder
Ġwarm ing
Ġco res
b order
ĠK err
}} ^{(
Ġobtain s
d ens
rop olis
Ġtorped o
G F
n ed
s an
Ġeduc ators
Ġin vert
ĠCh al
Ġsuggest ion
Ġsp at
ĠS ister
ĠH ert
ĠDe velop
ĠTanz ania
Ind ividual
Ġnational ist
Ġide ology
ĠCongress ional
let cher
T I
Ġrepl ied
stit ute
Ġpostp oned
Ġsustain ability
h p
Ġint rig
ant es
Ġcons ec
S on
en es
gener ation
~ {\
ust ers
f rag
Ġexerc ises
iat ric
ĠLic ense
atri ates
Ġqual itative
Ġavoid ing
Ġad verse
aff e
Ġlimit ation
Comp et
fil ter
enn es
Ġvot er
Ġk een
Ġup ris
ĠBrown s
Ġpr ide
ĠR ee
//////// ////////
ĠB har
ĠJ up
Ġr am
J ones
17 99
ĠUrugu ay
Ġp iv
opter a
T urn
Ġany way
ĠB agh
fl ies
ĠW inner
and in
out ube
en ue
2 12
up date
l is
ĠCont ract
Ġb arg
Ġeng ra
UT C
art e
atter ing
ak o
Ġd ose
ĠAt las
attal ions
ugg ed
ĠMy stery
) ~\
Treat ies
Ġint ensive
Conn or
Ġwel comed
Form at
ĠS cal
ĠP arent
qu ant
Ġcomb in
Ġplant ed
Ġsp ins
+ {\
ĠR as
ĠTh ames
pol y
Ar ts
ener ate
Ġbranch ing
ĠAnd hra
ĠSol id
AC T
arv ae
ĠTe en
yl on
ĠEst abl
i q
Ġre nder
T y
Ne ill
ĠKash mir
Ġatt itudes
set length
ĠN in
97 8
ĠIm port
}} }{\
17 75
ĠBet ter
ĠPer haps
Turk ish
ĠG av
Ġmach inery
R oy
Ġtransl ate
Ġshell s
ĠCarn egie
Child ren
ĠB row
Ġtrans fers
Ġdispl aced
Ġrelig ions
m ud
Ġinv alid
de velopment
T rump
" ]
Ġnecess ity
atern ity
ĠGael ic
Ġc ivic
Ġmos que
ĠKos ovo
Ġenvelop e
p rom
ri pp
Ġemphas ized
ĠY a
an an
ut z
ĠC B
th us
os ion
l ord
ĠMan or
}} -
Ġhe ct
Ġpur ple
I ce
arg s
ou b
ĠRes ource
in um
+ $
ĠN orton
ĠGu jar
ocol ate
ĠRe lease
l ace
E astern
Ġswim mers
Ġvir al
Ġdisput ed
Ġmater nal
Ġle ak
Ġdeleg ates
ĠBro ck
Ġkilomet res
ĠClin ical
Ġancest ors
ogn ition
b eq
is ure
ĠS uk
Ġconv ince
So ft
big gl
< !--
ĠR ash
Ġqu arks
Ġsuper hero
dist rict
ant ics
ĠCambod ia
ĠR S
Build er
Ġtraff icking
ĠF act
Ġconsult ation
on ation
17 2
Ġsat ellites
Ġapproxim ations
ĠSab ha
ĠCl aude
ĠLith uanian
ox y
Ġrefuge e
con j
at ro
ĠCal vin
Ġradi ative
g ue
ĠFre eman
Ġsoc io
17 6
ĠBet ty
Ġ$ -\
ĠW id
Ġinn ocent
Ġattain ed
iffer ential
ĠAP I
Ġph ones
Ġtra ils
ĠH our
the ning
Ġcharacter ize
conv ex
us hes
Ġf action
IT Y
' ,\
à¤ ¾
Ġturbul ence
ĠV ij
) ||
ĠGuatem ala
ĠAg u
ĠMalays ian
Ġrival ry
Ġboard ing
ct ica
ĠF est
ĠK ann
Ġdown stream
med ia
Ġmac ro
Ġmeas urable
AL L
Ġt weet
Ġapp eals
ĠG ir
Con clusion
Ġin tact
ĠA IDS
ĠD A
ian ces
18 22
ĠSpec ies
ĠF ut
Ġsub urban
ĠAm ateur
ĠS ara
id ian
ĠE is
ĠWin ston
vent h
ĠRep orts
16 1
ĠD ifferent
ĠBe a
f ixed
^{ [
Ġmar itime
Ex pl
ul atory
ress ions
s it
Ġtun ing
ĠSh im
imens ion
ĠQual ity
16 2
Ġbroad caster
Ġrev ived
Ġge ographic
Ġpref ix
M N
ĠL ines
y ang
ĠGust av
ĠEm il
es que
Ġloc als
C atholic
ĠV oc
tra ining
est imate
_{ (\
Ġlaunch ing
ĠChap man
ĠW ong
Ġtort ure
Ġqu art
Ġac claim
ag ogue
Ġmed ic
Ġenroll ment
Ġinf ect
ĠTechn ologies
le ges
ĠN H
ĠReview s
Count ry
Ġfl own
ĠC ave
ĠMon ument
Con c
Ġteam mate
ĠMon ica
Ġbl acks
Ġd ent
Ġorgan isms
p f
ĠP u
ĠRec re
Ġre jo
ĠBo hem
Ġfl ags
oph on
D ocument
ĠPre vention
run ning
ĠDecl aration
; </
Ġcal ib
Ġproceed ing
Ġgar rison
Ġ\, .
is ors
ĠJen kins
Ġsp y
rel im
Ch apter
ĠHa iti
Ġmot ions
Ġindivid ually
AR S
Ed ward
Ġhabit ats
ĠEvery thing
Ġepid emic
on ge
ĠC ul
ĠCom ments
Ġsup rem
Ġcancel ed
Ġanaly st
ĠL HC
Ġ[ ...]
Ġb ab
L in
Ġh iding
ĠPro ceed
ĠField s
Argent ine
ĠE yes
ĠĠĠĠĠĠĠĠ ĠĠĠĠĊ
AA F
Ġfort une
Ġhaz ard
Ġn itro
ĠWe bb
lem en
ĠN J
}) }\
? )
un ion
Ġcontext s
sc ience
Ġnav ig
ĠSt alin
m g
Ġev olve
ĠF DA
ast ings
ĠBut ter
Ġturbul ent
Ġar rows
Ġrep airs
m inton
Ġce iling
ent on
Ġch ip
Ġsacr ific
class es
Ġtarget ing
ĠImm igration
n h
Ġa xi
ad ia
ĠSt arting
ĠB oh
load ed
Ġw isdom
Ġbl ame
ote chn
ĠWW E
ĠHein rich
Ġl ighter
ĠW inners
Ġ{ {
Ġdestroy ing
ĠL af
ĠSc ots
ĠH erman
20 4
ĠInst rum
ta iled
Ġcrimin als
Ġnob ility
Ġinf o
fri ed
Ġconqu est
ex act
sh ine
Ġtw isted
ĠC ock
ĠFred er
Ġb acks
Ġcons erved
Ġdec iding
L ay
ĠB Y
ĠBrand on
ĠPar agu
ĠVict ory
Ġcapt ures
ĠL ap
ann ot
h yp
e ch
ĠAd olf
Ġselect ing
ju ana
18 27
ithm etic
Ġacceler ated
ĠV ick
cl air
Ġv ault
Ġcalcul ating
Ġdram at
make box
3 75
Ġord in
Ġcru ise
ris k
ĠTe legraph
% ;
ĠC apt
ac cept
ĠBang kok
d n
er ting
on o
Ġup grade
Ġer upt
ĠF alk
ĠAct s
ĠGram mar
ograp hed
ĠD ock
por a
ew ater
Ar g
Ġaccident ally
Ġdevi ations
22 4
is odes
ĠÄ Į
Ġtra gedy
Ġexp atriates
Ġ umb
Ġb ool
ĠR ole
Ġmet eor
ih ar
asc ade
ĠU t
S ix
ĠSpeed way
18 16
ari juana
A BC
p ark
Ġodd s
ĠB eg
), (
grav ity
) <
Ġexcell ence
Ġsome body
Ġreb el
Ġdef icit
Ġmo ist
ĠMar qu
Ġjust ify
P a
os o
Ġemploy ing
'' '
Ġto y
^* (\
cha ft
Ġrel ie
ident ified
// /
Ġab st
Ġdegener ate
Ġex ports
pro perties
Ex amples
Ġan at
- $\
ud er
irt ual
Ġex clusion
Ġp upp
Ġl unch
ĠStat istical
ic ism
en ia
Ġro d
Ġtermin ated
ĠGard ner
Ġmetall ic
col head
}] \
Ġst ip
Ġw ound
Ġtrigg ered
op us
C amb
R os
Ġle ather
Ã§ a
st rap
ĠSc ript
Ġthe rap
ĠA ve
ray ed
Ġphilanth rop
Ġrein force
N ick
Ġenhance ment
k le
and i
bra him
ĠCom pos
Ġrect angle
Ġrec ount
iv ariate
urs or
ĠMcC arthy
Ġcerem onies
r ÃŃ
v ectors
ĠS V
i ab
ol ent
Ġendors ed
ĠM Äģ
Ġrel ied
y i
Ġsu ite
Ġsubstit uted
ĠBel t
Ġ( #
Ġo wing
Ġvac ant
Ġl ane
ĠB in
Ġcollect or
Ġte lev
Ġtrac ed
Ham ilton
Ġamend ments
ĠK od
ĠMer cedes
F s
20 9
Ġcolon el
A st
Ġprivile ge
Ġf ut
Ġh ire
resp onse
che t
Ġfail ures
ĠBald win
Ġ| ___
ĠSec urities
Ġmathematic ian
Ġharass ment
at ile
rie ve
et us
ĠY ah
t el
Ġb ins
Ġpl ed
Ġhost ile
ĠE ra
Ġair ports
Ġn erve
Ġsouth western
Ġess ence
J ournal
Ġopt ional
Sp ain
Ġcharg ing
ĠNurs ing
ĠBav aria
Ġc ater
ĠB rom
Ġchar itable
ĠTim othy
Sw iss
ĠGriff in
Ġwick ets
ĠD ial
Ġint ra
ĠReb ecca
Fran c
Ġtrust ees
8 50
Ġtens ions
Ġbas ement
E U
}, \\
clesiast ical
Ġbow l
com mit
Ġcommand ing
iod iversity
ĠWhit ney
sp ective
18 17
Ġcreat ures
ĠLad ies
U til
Ġp ic
ĠR ise
cl ient
Ġrecre ation
W he
Ġdet ective
Ġsent iment
ĠW on
ĠStef an
L ow
ontr ivial
Ġaccording ly
ĠS I
Ġbut t
Ġcolle ague
L oc
se en
ric ting
ĠFC R
18 23
ced ure
Ġmother s
Ġb racket
ĠC raft
P os
ĠN etworks
30 1
bigg r
f m
n l
Acc ess
nt on
Ġabbre vi
ma jor
ĠPorts mouth
}$ ),
ĠBra ves
Ġre ver
Ġsovere ignty
E ll
r v
Ġkid ney
ho e
Ġinf ant
Se lect
Ġflag ship
Ġener get
Ġanth ology
Ġind ie
on c
ĠBul ld
es ome
C B
ĠVal ue
Ġgra ins
Over ride
ic ia
unn ers
ĠA pr
Ġwork place
ĠPant hers
ht bp
ĠG O
Ġsu ited
ĠH ank
and ez
] \\
cl uster
ĠCub s
Ġb ail
Ġpar ade
ĠH its
Ġhe aling
Ġrun way
Le vel
Ġm arsh
Ġapart ments
ĠEmb assy
ĠM ey
Ġcontribut or
o ine
anc el
Ġsubmar ines
Ġb rowser
ĠHero es
olog ne
ĠLeban ese
Ġaccount ed
prot ect
ĠK ane
Ġm eth
18 19
old er
Ġ( .
17 3
Ġapp ar
Ġsil ence
qu antum
aut s
Ġlab elled
Tex as
ĠSen ators
Ġsub species
ubb ard
U ST
Ġknock ed
Ġcaus al
ĠS ale
y en
ĠL ep
Ġp ipe
ĠSher man
L ear
l attice
ht b
ĠSacram ento
l brace
Ġeconom ist
Ġcommerc ially
P resent
ĠUnder ground
Ġres il
C ulture
ĠG ian
ĠR he
Ġsymp lectic
ĠNeg ro
ĠRed s
17 7
G h
ĠR it
Ġsit com
Ġdiscipl ines
ĠPap ua
Ġsail ors
ĠSy lv
ogram s
Ġcirc uits
Ġnom inal
Ġm apped
in qu
H ong
Ġun rest
ack ing
Ġbe ams
T ok
rack ets
Ġenthus i
ĠC V
Ġenj oys
ĠOcc up
Ġmed i
ĠCon cer
Ġs aint
ĠM atter
ĠMur der
Ġque ue
Ġret riev
Ġbox er
ĠF O
18 03
ĠInt el
ĠLe one
ĠWhe ther
Ġas ylum
ĠBay esian
Ġdes irable
rel ations
ĠB erm
ĠH ed
ott age
ĠMov ies
ĠCol ony
ĠYe ah
M iddle
Ġmer ge
ĠH ear
ĠLe icester
Ġcapital ism
ast on
Ġes cal
R on
Ġfort ress
P lease
Ġinaug urated
tain ing
Ġtoler ance
el man
r f
Ġsub graph
Un ion
Sc ot
Ġclimb ing
Ġisot ropic
Ġair ing
Ġlock down
Ġa uthored
ĠH ers
Ġph armaceutical
Uk rainian
et erm
ch us
Ġtro phy
Play ing
chang ing
Ġrent al
Ġmy st
ĠAdv ance
ill i
class ical
ĠRefer ence
Ġearn ings
R oute
ĠS Ã©
ĠIs abel
ĠLat via
ĠSuff olk
ap o
Ġmar ble
f erm
Ġcont ing
Ġover th
as ium
ĠCl aire
R ank
ĠWol ver
the ir
Ġspons orship
cl iffe
Ġpres umably
Ġtrain er
l ook
Ġd iving
ĠApp lication
R o
Ġle ver
att i
C ert
l st
Ġanten na
ĠF uj
rad ius
ĠWe i
ĠSub sequently
Ġwor ried
Ġtransmit ter
ĠCh urches
Ġst air
Ġpass ive
Ġapproxim ated
s yn
Ġautom obile
Id ent
Ġper ipher
ah i
36 5
m eta
Ġm ud
ission ed
Ġvacc ines
00 5
Ġly ric
ĠGaz ette
ĠF ear
f g
m and
Ġn avy
ev ille
W ild
Ġcont amin
n etwork
Ġd elta
ph oton
ĠM N
Ã ®
18 06
ass is
ĠAd ult
ĠN P
Sc ient
Ġaltern atives
Ġment or
abil istic
ĠÐ ¿
Ġrev ision
c od
Ġal beit
Ġcooper ative
ain ted
und ers
Phil ipp
G AN
ĠX V
ĠM T
ĠM ell
atas et
Ġr het
Ġmon ster
Ġtra uma
ĠSh an
it ism
ost a
the l
Ġex ecute
ert ation
opt ions
ĠUC LA
ĠCoul omb
Ġfrag ment
ĠTrin idad
ĠE b
ĠSand y
Sim ilar
Ġexpress ing
Ġpec uli
Ġst y
^ *}
Ġr ushing
Ġinter f
app er
ĠProgram s
Ġdemonst rating
ĠCD P
Ġh i
st ars
Ġsc reens
Ġcut off
)} =\
ĠCauc as
Ġre lic
33 3
Ġphysic ist
se q
27 5
in ians
Ġdecl are
ĠLin ux
Ġmet abol
ĠN N
erv ille
Ġst ems
Ġpersp ectives
): =
Ġequival ently
ĠC opyright
Pro gram
Ġab olition
I mm
m are
Ġrob ots
ĠH ours
Ġanaly zing
Ġspokes man
With in
Mar ie
ĠMult i
ĠEuro vision
ĠTh ink
I l
22 2
Ġinfer red
et les
ĠCam ero
Ġterm ination
m any
ĠCle ar
Ġrele vance
eq q
ĠAber deen
Ġfol ks
Ġresc ued
Ġst ance
ĠPart icip
ĠSt yle
ĠSac red
g tr
> $
en ko
F ire
ĠP ray
Ġattorney s
b irds
Ġref use
om al
Ġback ward
Ġaddition ally
ĠM ilit
ĠCase y
Ġguitar ists
Ġb ure
ĠC yp
Ġred und
Ġnick named
Ġd ining
Ġsex ually
Ġham let
ĠH undred
Ġback up
ĠMad agascar
ĠD S
andid ates
ĠMoh ammed
Ġexp ed
T HE
Ġmas cul
Ġcheck ing
bibliography style
Ġapp endix
uv ian
Ġsuggest ions
Ġthreat ening
int ed
Ġvol cano
ĠOther wise
Ġliber ty
Ġfib ers
t rim
Ġrenov ated
ĠMonteneg ro
Ġfunction ing
Ġref ined
U ntil
ĠCole man
Ġforg otten
ĠN GO
ĠTibet an
Ġsk et
on et
Â §
av ailable
Ġded ication
set t
ĠG am
ĠV A
18 09
ak is
z an
Ġsp ur
Ġtest ified
Ġd efer
Ġh orm
ĠQu artet
ter ms
Ġmoment a
Ġpos ed
w ere
ĠAsh ley
ĠP itt
AS E
Ġexperiment ally
Ġkick ed
Ġprot ective
Ġpath way
ĠB le
ĠProv idence
Ġanomal ous
Ġnurs es
O x
ĠT ucker
17 1
Ġbroad ly
ĠK Ã¶
Ġill umin
Ġfe at
ĠTh ank
Ġbl ast
Ġd ella
Ġh ab
* {-
)) =
ĠÄ Ĳ
art ime
ack er
ĠP owers
flu x
Ġrub ber
ĠWrit er
E nergy
rew s
Ġd ors
Ġeight een
ĠP erm
). $$
) },\
B attle
Ġfe ather
ĠB E
ĠB O
text style
Ġshare holders
Ġseason al
ĠBegin ning
ol er
res iz
pl aced
Ġfac ial
ĠQu int
he alth
Ġl as
Ġload ing
l oo
ĠM B
Ġsubject ed
ĠBeaut y
ok esp
resiz ebox
+ |
2 15
att ices
Ġcorrespond ent
ospit ality
i ade
j ani
Ġdi abetes
Ġpre jud
P enn
ĠE du
ĠAr g
lym pi
on line
T ypes
ĠTh ing
ho ff
const ruct
c yl
f un
Ġd ictionary
Ġher b
Ġfe ver
wart z
urg ical
Ġemploy s
ĠLeg acy
ĠHy dro
Ġtub es
L ord
Ġdis hes
form at
Ġgrad ients
ĠM ile
20 7
ĠPear son
Th m
ĠMem ory
s ided
ĠR ao
Ġinvest or
ĠCP U
Ġcouncil s
ĠLis bon
Ġd ad
ĠCle arly
Ġposit ively
l ich
but ton
Ġincred ibly
g ins
ĠC W
ĠP omer
ĠSt op
ĠB att
ill ary
Ġsn ake
ĠV all
Ġacc redited
ĠCare y
ur istic
ist ries
ĠAT P
ĠOffic ers
b rand
ĠSet tlement
Ġlength y
ĠCh arg
Ġcont ra
Ġl oses
Ġp ent
ĠSh ak
ut ral
vel oc
ĠPr ide
18 2
par ams
Ġpat ches
Ġclin ic
ĠL uck
ĠUl ster
Ġgram mar
Ġhom ology
St age
Ġcivil ization
cl amation
17 8
Vir gin
Ġpen insula
ob ia
ĠCons umer
Ġfro zen
n or
ĠP RO
ĠF ix
Ġbreak through
names pace
ĠKarn ataka
ov al
L im
Ġo st
Ġtransform s
ĠPl anck
Ġ æ
ir ling
Ġden y
ph ot
com fort
urg ery
Ġcum ulative
Ġinvari ants
ĠI o
re ason
ot ta
Ġspot ted
Ġmod ulation
Ġf antastic
Russ ia
Ġri ot
T F
ĠUlt imate
Ġmultiplic ity
ĠGib bs
Ġterm ed
ĠAss umption
Orig inally
B rian
ĠJack ie
Ġtrad emark
ĠC arson
}; \
arm acy
ĠP O
}^{ *
system s
Ġqu bit
Ġrook ie
ĠBrad y
Ġreleg ation
Ġappeal ed
Ġpack ages
af a
Eng ine
Ġpromin ence
Ad am
ĠUN ESCO
ĠR isk
Ġan arch
C ycl
W ang
ĠA id
21 4
ĠSal em
Ġm arijuana
Ġgovern ors
ĠParad ise
ide a
Mex ican
ist on
Ġpost er
ĠN ormal
key s
al ore
ĠR w
Ġmon ks
ef ined
ear ly
Ġred esign
led on
ĠC lem
OR E
MS E
Foot notes
part icular
Ġflow ing
ĠReg ular
ĠT rial
erm o
ĠMay be
18 07
ĠToy ota
Ġfin ishes
d ark
Ġpol o
ĠU ser
equival ent
ĠD art
ĠÅ ģ
Sty le
k it
Ġresemb les
18 11
Ġlack ed
Ġinvent or
b et
Ġc ord
ĠSch r
ĠP all
ĠO K
ĠL ing
ĠM ets
Ġsk ew
bur st
Ġemb arked
Ġph armac
Ġdon ation
Ñ ħ
ĠConstantin ople
ĠP ale
\\ [
H I
Ġre per
man ifold
Ġinterp olation
ĠGand hi
}} _\
Ġpreced ed
ĠSh annon
bound ary
top rule
ĠR ising
ĠSof ia
ĠQu inn
keep ers
$ ^{\
st d
ĠL und
ĠPubl ished
Ġsem ifinals
Ġp owder
approp riate
v card
AC K
D iv
23 4
Ġc razy
}$ :
Ġnorth western
ĠPat ricia
Ġl arvae
Ġsh oes
Ġoptim ized
Ġra ises
ĠOr t
Ġexplo itation
Ġd ump
plement ation
ĠG ymn
esp ecially
Ġet ern
Ġchemical s
Ġutil izing
Ġtum or
ĠS ach
Ġconcent rate
Ġpres idents
t ry
Ġarbit rarily
Stat istics
ĠD ynam
udd y
Ġtrans parency
os ely
Ġcomp elling
Ġteen ager
ĠCop a
e astern
ĠW ire
ĠV augh
Ġsu ed
Ġfl oat
ĠRec ent
School s
Ġp av
- ,
g reat
aw k
ĠVari ous
Sm all
Ġo ak
ĠSh am
Ġcontact ed
ĠVirt ual
^{ *}
}, $
Ġworld s
ĠS K
ce q
}$ &
18 4
Ġre write
Ġst ays
ĠD up
ĠBas el
Ġf ores
clip se
ĠR NA
Ġpress ures
ib ia
Ġabund ant
Ġfl ora
Ġcontest ant
c v
Ġw ished
ar ra
inc ome
Ġdoctor al
ĠAdminist rative
C ategory
Fore ign
olith ic
Ġproduct ive
b red
ĠF ashion
app end
Ġder ives
Ġconstit utes
ĠOl iv
Ġconsum ed
ĠOri ental
ans on
Ġceleb rating
Ġd orm
rac ing
18 08
s ocial
ĠN ortheast
Ġhistor ies
C hen
z on
e eches
W inners
ĠR andom
and an
Ġra ids
c ue
Ġcont our
Pier re
Ġc ache
18 02
Ġdead line
) {$
Ġal ike
Ġinf ring
Ġg ospel
ĠL ipschitz
18 05
}= -
Ġp el
ĠFel ix
ĠBalt ic
ĠLa ur
is se
ep age
}. $$
met ric
Ġca ution
Ġapp ell
Ġp enn
ĠG os
isp here
Ġvari ational
ĠWh ich
st eps
Ġenter prises
B all
ĠW ords
18 04
). $
ĠPl ains
der iv
Ġflower ing
Ġst int
ber ra
Art icle
ĠBrun o
ce ae
Ġnew er
Ġrail ways
Ġres ides
refer ence
ĠSupport ing
h d
Ġen closed
17 00
head s
ighbor hood
[ ->
Ø ±
ĠX box
ĠG Ã¼
ĠMar athon
Ġten or
] }\
use ppe
f iles
Ġbos ons
ĠGl ac
Ġloyal ty
Ġpoll s
Ġancest ry
ĠY uan
ĠAr d
Ġthere of
f orth
oint ed
Ġbo om
r brace
En ter
en heim
ĠFull er
C K
ĠW ander
ĠAngel a
ĠElect oral
ol ute
Ġar ist
ĠArch itect
Ġb ud
Ġd well
Ġpro claimed
ar rass
Ġsupp ress
Ġteen age
ĠCom ic
Ġalt ar
at ched
Ġapplic ant
Ġcomplement ary
Ġad s
Ġpresc ription
h aul
comm ut
ru z
Ġst rang
Ġshe ets
p es
ĠR andy
oper ation
3 80
ĠA F
}$ ~
ĠCour ts
itor ium
q ed
Ġg rat
ĠMin i
Mod ule
ĠS ugar
S V
ort e
ĠHaw ks
th y
Ġspec imen
ass ic
Ġcost ume
ĠPal omar
ar b
ri que
Ġt ales
Ġman or
ar ine
Ġpropos es
ĠUnivers ities
it as
18 3
Ġfin est
}) :
Ġdisc retion
Ġcollect ively
Ġdemonst rations
99 99
ĠHam mer
pt r
Ġl ac
Ġdepos it
Ġoff shore
Ġext rap
17 98
ĠC inem
ĠĠĠĠĠĠ ĠĊ
Ġaest hetic
ĠF resh
Ġco arse
ĠS ard
ĠAl leg
ĠIm ag
Ġincorpor ates
H u
Ġsm oking
Ġinfl amm
ĠB udget
Ġhol idays
Ġcar b
const raint
ĠV ander
( $\
Ġl uck
ĠG aza
olog ic
Ġregular ity
ĠBoy d
ĠSt rait
ĠVern on
Ġlim estone
h istory
å ¤
ore tical
ĠFer ry
Ġa per
Ġinv ersion
O U
Ġp ine
Ġmist akes
Ġsummar ize
)$ }
Ġt ender
Ġbehavior al
Ġmerch ants
Â ®
od ied
Comm un
c io
ER E
Ġsubst rate
Ph one
Ġsimpl ify
Ð ¿
ĠSh aron
ĠRef uge
ĠB ast
Ġnot orious
Ġscreen ed
Ġfresh man
m ac
l io
T a
Ġpost ing
Ġreg iments
ĠDocument ary
F ive
Ġed it
Ġaut onomy
Cap tain
ĠI TV
gtr sim
um ar
Ġsp ans
ä º
Ġpossess es
Ġtra its
ikh ail
he ed
Ġk g
Ġam en
Ag ain
process ing
os ures
Ġmag ical
Ġb unch
}) ^{\
Ġunf air
ĠPhot ography
ĠMes a
Ġl anes
own ers
Ġsingular ities
M os
st atus
Ġimag ery
ĠW inc
ĠCh ambers
ĠT ry
Ġimpact ed
Ġadv iser
D u
Ġb ust
Res ource
om ore
Ġy esterday
ĠH utch
Ġad missible
> (
C ell
Ġp aired
Ġgall eries
Ġsh aft
Ġc af
ĠS ind
ĠAv iv
lin ec
small matrix
ĠCom par
Ġb oolean
Ġe V
ĠAltern ative
ĠD re
ĠVen us
Ġdeal er
p ic
ĠB ash
Ġsec uring
Ġjump ing
Histor ical
Ġc ement
ĠR up
ĠG ad
ĠGarc ÃŃa
ĠĠĠĠ ĠĠĊ
Rec ent
ĠD ee
Ġplan ar
ĠD ust
How ard
r il
m iddle
ur rence
Ġpassion ate
Ġp ier
ĠSy racuse
ĠT ah
Ġd rown
Ġno isy
Ġpro long
Ġle x
ĠJan et
29 0
ic ates
Ġt uber
up ta
Ġphot ometric
B BC
Ġag ing
ĠCorpor ate
ĠD ul
Ġsupposed ly
ne ider
Ġport al
Ġcryst all
ĠM ental
cor rect
Ġoccup y
Ġemb assy
Ġro oted
L arge
ĠHum ph
z t
ĠExper ience
Ġnob ody
Ġfru its
Ġ\| _{
Ġcycl ists
I EEE
un ivers
ĠNic arag
Ġvers es
al an
#### ####
A k
ĠSax ony
ĠPet erson
v ary
Ġsc an
ĠGeor ges
Ġdoub led
Ġdetermin ant
Ġserv ers
Ġn ontrivial
ĠS ieg
ĠOs aka
ĠC lean
ĠF iji
ĠBo at
ĠH E
ĠH uss
ĠMid lands
ĠY osh
ĠLank an
w ara
Ġthe ft
ĠW ins
ig roup
Ġsusp ic
anth a
sin h
Ġimpos ing
S ta
Ġch at
ĠChe v
R og
ĠTel ugu
ĠAl g
represent ation
Ġb ush
Ġpartner ed
ell es
Ġdest inations
ĠE z
f bb
Ġforb idden
ok i
e us
ĠT rum
Ġe y
Ġcor rupt
ĠSch warz
ĠAntar ctica
Ġdis rupt
Ġcal m
G I
ir atory
OR T
}} }}
board s
B egin
ĠBur ma
ĠProduct s
{ |\
S und
an ium
Ġfasc inating
Ġn ons
ĠJ ag
ĠMc Cl
ĠStre ets
te in
Ġn ic
' }(
Ġf t
Ġorigin ating
Ġpurch asing
Ġt ips
Ġsimultane ous
ĠK ais
ast ro
inter est
ĠMic he
ĠJoh an
roll ing
G H
ĠD uff
Ġgl uon
ĠV or
Ġver ification
sur face
Ġin ception
iform es
Ġschol arly
l ated
hor se
ĠL on
ĠTe V
w ings
in sp
ĠD reams
ĠW A
Elect ions
+ }
Ġcrown ed
us ually
ĠEld er
ĠL iz
ĠDeut sche
c rit
Ġg ras
ĠJ et
18 1
Ġb iblical
ĠPatri arch
ĠJoy ce
}) ^{-
Ġaccept s
ĠLe vi
ĠTeh ran
Ġreal izes
al us
Ġres olutions
17 9
Ġin land
ĠChrist ine
Ġge ography
Ġvisc osity
ĠH M
pos sible
= }
ĠTor res
Ġneutr inos
Ġorg ans
r b
ĠRober to
s olution
ab ella
ĠRes olution
Ġm igrants
ĠNov el
Un like
ĠL Ã©
Ġassign ments
w itz
ip es
land ers
ans en
ĠHeavy weight
Ġsqu ared
ag ain
ma ha
Ġsl ice
Ġconstit uted
Ġc rossover
ĠMorm on
Ġthermod ynamic
ĠH ew
ĠG ott
Ġasymptot ically
he e
ry n
work ing
ĠG ur
Ġenlarg ed
Ġsp anned
ĠC ros
Ġhapp iness
al and
ov sk
Ġdis closure
Ġaud ition
ĠVisc ount
4 80
Ġcontract or
Ġshif ting
17 58
Ġdomin ance
unc iation
ĠW ilm
ard ment
Ġme al
ĠCon tact
ĠW er
ĠN ou
Ġalt ogether
Ġbicy cle
}) }{
ident ial
ĠCo ch
Pr ince
R am
on ica
ĠR iley
ĠBeaut iful
Ġsp elling
ĠS ue
Ġf rig
Ġst amp
Ġdiv isor
Ġclean ing
Ġliv estock
Ġam alg
ĠP ok
Ġre habilitation
ĠV ish
Direct or
Ġinter rog
Ġec ological
Ġtrump et
ĠMoh ammad
Ġdeleg ate
al one
qu in
17 89
ĠIss ues
s eg
K ore
Ġfac ade
Ġor phan
ĠWor cester
Ġgovernment al
disc iplinary
Ġsatisf action
T itle
| {\
onst ruction
ĠVolunte er
c as
Ġsw ept
ĠRoman ized
B oston
elf th
d ynamics
R eb
ĠBe ast
Ġter restrial
ĠM orton
Ġse as
ram er
gener ated
ĠPri est
ĠR ig
Ġfav ored
ĠDef ine
ĠT ate
Î »
Ù ħ
ĠD ry
ĠF letcher
, }
Ġun necessary
ĠEv il
Ġp neum
Ġceleb rations
Ġactiv ism
B ank
h ya
B ang
D s
art on
ĠAlex andra
Ġm asters
f its
ĠDrag ons
Ġto ile
ĠL opez
17 95
Ġrep ly
i ov
lyn n
Ġunc ons
Ġminor ities
ĠH ul
17 94
ĠEl is
ĠColomb ian
Ġclar ity
ĠW ave
ĠNe umann
year s
Ġadvent ures
Ġteach ings
E le
âĢ ²
Be etles
f ix
$\ ,$
Ġrev olt
Ġin jective
Ġh alls
Ġco herence
T ab
ĠH ollow
Ġnot ions
Ġspir its
Ġpione ering
V ersion
Ġw it
Ġpers istent
Ġdead ly
ĠEth ics
Ġcont raction
at ible
Ġv ort
Ġdis gu
ĠCanad ians
b led
ess e
ary a
17 93
ĠSic ily
O t
P ress
ĠPl ain
Ġsovere ign
Art ists
m ak
ĠR ough
Sim on
ĠKnow ledge
Ġstat istic
ĠM iz
oul os
Ġsan ction
Ġob l
Ġvol canic
cl ock
Ġconsolid ated
it on
f ollowing
ĠLe af
17 92
Ġsp are
Inst ance
ĠHerm ann
Ġmortg age
Ġunder way
cor relation
Ġre opened
ĠM VP
) *
Ġen v
Ġdist ortion
Ġproduct ivity
Char acter
ĠD uck
ab ases
ood y
Ġceleb rities
Ġharm ony
}{ !
ĠG rav
Ġlic ensing
ĠP T
Ġsecret ly
Ġpr incess
Ġne u
Ġhand ball
}} )\
ĠVik ings
Mount ains
Ġf el
Ġpract ically
3 25
Ġscr ut
Ã¨ res
Ġprogress ion
Ġadop ting
ĠShe ll
ĠHuman ities
w ould
ĠA ce
ĠR ag
Ġcreat ivity
ĠKrish na
ĠB ug
Ġanal ogy
ĠReg ulation
Sh ow
Ġst iff
ĠZ el
Ġassoci ates
Ġver dict
le w
âĢ¦âĢ¦ âĢ¦âĢ¦
r ational
Ġre jection
Ġwhere by
red its
Ġtremend ous
Ġmet re
ĠRev enue
ĠHann ah
ĠK och
ac ian
ip el
N I
Ġm akers
ns ic
Ġmemor able
ĠN em
Ġr ush
F ish
Ġar ithmetic
William s
ĠSid ney
Ġle an
ĠRec ently
Ġphilos ophers
ĠHels inki
ĠZ ach
Ġst ressed
Ġres emble
Ch urch
ĠH omer
ĠR um
In formation
ĠInd ividual
ĠBuck ingham
ĠClif ford
ĠHe arts
Ġaccum ulated
Ġvill ain
ĠSl am
Ant i
anc o
Ġplanet ary
Ġgar age
) ~
t ask
s z
Ġretain ing
ĠRaf ael
ĠY ard
raise box
K P
ĠJ ub
Ġrac ist
D eep
Ġr ider
Ġind ef
Ġpick ing
l Ã©t
R od
v ian
Ġpart itions
ĠEmploy ment
ĠT in
Te ams
Ġexam ining
ĠPruss ia
ĠPoint s
Ġapp s
Ġemb ry
) )$,
ĠL ub
ĠGl ad
Ġdeliber ately
ency cl
ĠMarsh al
ĠPo ems
3 70
Ġoff ence
Ġmaxim ize
Ġp ocket
ĠD ixon
Ġred ist
orth y
an us
ĠM iy
ential s
Ġprofession ally
Ġanal ogue
Ġdon or
IV E
let ion
Ġobserv ers
Ġreview er
× Ļ
Ġfl ies
Ġlandsc apes
T re
F ri
ĠColl abor
co in
ĠTunis ia
ĠDen is
Ġacknowled ges
Ġal ly
at u
) </
ĠFig s
ĠThe ological
ĠSt ark
Ġmer it
Ġrend ering
ard y
og on
ad ays
Ġrein forced
Ġhyp ers
ĠR ip
sm ith
inos a
ĠTerm inal
at isf
Ġev olving
ĠSouth ampton
Ġadvers arial
bour g
Ġsk ating
99 9
Ġexclud e
Tour ist
k ens
Ġs our
ep ler
ĠAle ks
ĠDeg ree
ĠT aj
pro port
ĠSD SS
Ġgodd ess
se in
ra j
ĠBol ton
Ġparad igm
ĠAnim ation
c ry
Ġwh it
ĠĠĠĠĠĠĠĠĠĠĠĠĠĠĠĠĠĠĠĠĠĠĠĠĠĠĠĠĠĠĠĠ ĠĠĠ
ang ers
Ġhold ers
ugg ing
qu ark
ĠB uk
Te ch
cos h
Ð ±
ĠH T
Ġfl ute
Ġmed all
ĠHart ford
t n
Ġviol ating
Ġobst acles
ĠH BO
haus en
Ġt orsion
Ġphys i
ĠH il
em ann
Ġcourt esy
ut ers
ae a
ĠA V
ĠBer gen
Ġplate au
ĠJ orge
ĠRaj a
ĠH onda
Ġprom otes
ĠSch w
ire ment
Ġdeb ates
Ġcru el
Ã ²
Ġst up
ĠEven ing
Ġcountry side
Pl aces
Ġtask ed
ĠAud io
Un it
Ġmorph ology
ĠH os
ĠW ade
ĠZ oo
Ġdem o
ud i
Comp onent
ĠNorth western
nt hesis
ĠO le
og ues
aver age
Ġwhe at
ĠDavid son
Ġs her
ĠMatthew s
Ġd w
Ġac ids
Ġdet ained
Ġinvent ory
N i
Ġsp o
cl ub
St r
son ian
okesp erson
y ards
Ġn od
Ġb arn
ĠB attery
Ġpro xy
Ġ\ \\
ĠN ames
Ġbit ter
Ġun m
isc hen
friend ly
Ġal ert
Ġass erted
Ġmagn itudes
Cont rol
Ġl acks
ĠB ian
ĠL al
ĠRodrig uez
Ġinv aded
Ġdegrad ation
oper ative
Ġprob able
Ġbutter fly
Ġall ied
Ġs ink
Ġshould n
Ġsurg ical
ĠO ce
\" {
Ġcrew s
Ġde an
E lection
g ap
ĠF unction
Ġsub stances
ĠAr gy
ĠResp onse
Ġfinanc ially
Ġse ating
az y
Ġboy friend
Ġl od
Ġspecific ations
Week ly
ĠHam pton
CD ATA
Ã¨ ne
Ð ³
el astic
ĠHol ly
C opyright
di agonal
p al
ĠPan el
Ġsy ll
Ġt il
ack nowledg
F ind
L iga
ĠN ULL
B rad
C roat
ĠH ang
Ġprefer ences
Spr ing
ĠPat rol
IS E
sat z
c ool
ĠMad onna
M as
Ġstat ues
ĠHill ary
)- (
ĠFrances co
ĠPier ce
ĠBron cos
Ġt err
ĠN HS
Ġgot ten
Ġm ice
Don nell
Ġperturb ative
ĠAssoci ates
ĠS ki
ĠF i
Ġorgan izational
Ġvis ibility
Ġkn ot
s ig
Ġimm unity
St arting
ĠF en
sc ribed
fit ting
h on
ĠR oma
Ġdist ribute
Ġs el
ĠNE AT
H as
ĠP ablo
ĠK ul
ex istence
ĠInd oor
Ġtransl ates
ĠCon rad
17 96
d p
y c
Ġcont amination
Ġinter rupted
anish ing
Ġposition ed
Ġrenormal ization
Ġtong ue
es i
Ġpossess ed
ĠC it
ĠM ald
elect ron
Ġcont empl
ram s
requ est
Ġsurrend ered
Ġbure auc
ĠConf ederation
ĠTit ans
Ġd iox
ĠHy der
ĠR A
Ġsequ ential
d ed
Ġwh olly
R F
ĠC ologne
Ġbuild s
t ake
ĠH ok
L ag
Ġh iring
nav bar
á Ģ
ĠT oul
J er
ales e
Ġel ong
ĠA U
G Hz
d h
ĠW elfare
ĠPer forming
v ars
a q
am ar
uche ss
ĠHand book
le af
Part icip
Ġmist aken
Step hen
imb ledon
supp ort
develop ed
ew ard
E arl
ĠC reat
ĠCh rys
ĠM are
ne ver
ĠI b
Ġsched uling
ĠKy iv
Ġdis asters
Ġcoordin ated
t itled
st re
ĠB urk
Eng land
ĠW H
Par is
d m
nd on
Ġval uation
Ġrecogn izes
Ġf aint
Ġl ucky
colon eqq
ĠH ipp
Ġtext ure
bottom rule
Cre ate
Th ose
Ġn it
Ġaffili ation
d ong
l ot
ĠT ick
Ġs ometime
ign e
Q U
Ġsim ulate
ĠCount ies
ĠCec il
Ġestim ating
ih ad
ĠBron x
Ġbom ber
ĠCh amp
Ġdivid ing
Ä Ĺ
n at
Ġin mates
ĠAut om
sc ore
Ġbund les
)$ )
Ġimag ination
Out put
Ù Ĩ
S che
Ġins urg
Over all
Ġsleep ing
old ing
ĠMon ter
Ġexceed s
ĠR ally
Ġsc out
DB LP
Ġt unn
Ġpredict s
Ġax es
Ġremark ed
Ġdeb ris
ĠB uc
u w
ĠGu adal
Ġtriang les
S eg
Ġpar a
ĠT ale
ĠB L
Ġir rig
Ġlisten ers
d ar
g auge
Ġupris ing
et i
anch or
Ġbes ide
Ġmer ging
Ġbl amed
opt ers
Ġdiss olution
Ġsm ugg
ĠTre vor
Ġprev ents
3 10
Ġrig orous
ĠUpd ate
Ġinc idence
ĠSc andin
H ind
n ar
Ġfactor ization
Ġsurprising ly
mar ine
sup set
Ġconv oy
ĠK ai
opt im
al most
us ions
ĠHol iday
2 16
ĠD res
Ġri ots
under brace
Ġdecl ining
ĠBudd ha
ĠY i
D igital
Ġex otic
eal ous
Ġ )\
Ġg i
ine z
ĠNo ah
Ġdispos al
C orn
law s
art en
Ġhierarch ical
ĠS ally
ĠC rom
ĠD owntown
Med ical
ĠP omp
ad j
ĠSt range
Ġshock ed
hold s
ĠAtt ack
Ġfix ing
Ġcomment ator
Ġovert urn
ĠP f
ĠPut in
Ġlingu istic
G irl
Con clusions
J S
ĠD ion
Upd ate
ĠWey l
^* ,
Ġmer gers
Ġprint s
algorithm ic
ĠC otton
Ġhad n
Ġsl ip
Ġfold ed
om ach
CA F
Ġsub stitution
p q
x ml
Ġgen ome
ĠJup iter
Har vard
red itation
ĠTe achers
ĠRecre ation
ĠP ool
sec urity
Ġuniqu eness
Ġprocess or
Ġtim eline
ĠM oor
ai res
ĠLam bert
Ġvis itor
ĠJackson ville
Ġsepar ating
ĠOrgan isation
roph ic
utt gart
Ġg ases
ix el
ĠCan berra
ĠL ima
Ġcr ust
ĠAnth rop
Ġexclud ing
Ġwavel engths
Ġsub scription
Ġinf initely
ull a
ĠHon ey
ĠT ian
Ġprior ities
ĠP ole
inn ings
ansk rit
Ġb if
ĠK ub
pl ays
Ġinter ventions
Ġsoc ially
L ists
T en
s il
Ġsl ide
P ut
17 80
ĠM ira
ĠL ands
ĠGen esis
ue bl
pred ict
ure n
22 7
Ġc arn
Ġrece ip
t un
Ġint imate
t rain
ĠD olph
On line
Ġdec oration
Count y
ĠLeop old
l ap
Ġm aker
ĠCa esar
ĠSant o
ĠIr ving
ĠK rak
ĠCh ic
Ġbel oved
Ġvis a
Ġex changes
Ġcons c
pl anes
ĠF ischer
et itive
ĠE rik
Ġspec ially
Ġh urd
Ġl ord
22 6
Ġbr ass
ĠH yp
}\, ,
M ember
P ot
Ġspec ulation
ĠRuss ians
ĠS eth
Ġhe ated
^{ {\
Ġconfirm ation
ĠB ard
Ġsubgroup s
L u
c ole
ĠChen nai
ĠK ick
30 5
ĠBu ilt
B eh
N ull
Ġcook ies
Ġin ability
ĠT ay
com be
ĠRoad s
w ana
ĠWe ber
oper ator
Ġreg ulate
ĠL uk
ral tar
ger ald
B us
ĠS iber
Ġrem ake
K er
pro gram
n c
ĠG rowth
Ġman eu
ĠProceed ings
Ġmen u
Ġnational ism
le in
ĠMc D
N BA
Ġres ume
Ġsum mon
Ã³ pez
Ġemb arrass
Ġstar ter
ĠBry ant
ĠAct ing
Ġfund ament
ĠPrim era
Ġautobi ography
Ġpeculi ar
Ġamb ient
cur ve
ĠM und
ĠNaz is
at hetic
n ian
Ġproblem atic
Ġpolar ized
Ġnar rator
rapeut ic
">< ![
Ġinters ections
R P
Ġn m
ĠWeb ster
ĠMarri age
Ġm ate
ĠT uc
B ound
}} ^\
Add ress
ĠMong ol
ĠCh oir
ĠE ar
ĠMy ers
Ġhas h
ĠArt icles
R ace
Ġlin er
Ġmut ation
Ġsed iment
]] ></
Ġnitro gen
ĠB irds
Ġcl ips
Ġd os
ĠW an
Ġestabl ishes
Ġ$\ |\
ight y
}} %
Ġrec onnaissance
Ġcommand ers
v ine
ĠH ubble
Ġadd iction
Ġde er
Ġdep ot
ĠB ee
B rand
ĠC ritical
ĠMay a
ĠMater ials
ĠC ult
Ġsh irt
Ġrid ic
Ġexcit ations
Ġconqu ered
Ġhect ares
ĠBulld ogs
Ġcreat ure
Ġtal ents
Ġnarrow ly
end e
Ġmarket ed
" (
h h
ĠV and
int age
ĠChrist ie
Stud io
rosc opic
ĠResp ons
od on
ĠSt ro
Ġfunction ality
w ear
Ġinterpret ations
emb les
esc u
pot ent
Ġc it
Ġne o
yn a
T aylor
ĠĠĠĠĠĠĠĠĠĠĠĠĠĠĠĠ ĠĠĠĠĠĠ
Ch annel
math rel
aut o
ĠCzechoslov akia
id y
26 4
ĠM its
th ia
Ġmin erals
ow l
ĠC SS
Equ al
Ġincons istent
H all
o ise
Ġstake holders
T ree
P ay
ĠC ivic
17 76
Ã¢ te
F ace
Ġfulfill ed
Ġf riction
ĠInvest igation
)} }\
ĠEurop a
Ġmass less
c orn
r k
Ġ Ã©
ĠB ound
Ġheav ier
Ġg astrop
ul ent
Ġpl aus
Ġindic ators
e V
ĠP eg
ordin ates
ĠGeoff rey
ĠBer ks
NR AS
fill ed
ĠV inc
equ ilibrium
Ġworth y
ĠCorn er
an ol
ĠDet ective
19 1
ĠAr lington
oph yll
ust om
30 3
ĠĠĠĠĠĠĠĠĠĠĠĠĠĠĠĠ ĠĠĠĠĠĠĠĠ
Ġbl u
Def ault
ĠPhill ies
ĠAll ah
EN D
ĠT racy
ĠBar rett
Ġs lic
Ġcompet itor
Ġsw orn
Ġrelax ed
ĠD unn
ank ar
St ructure
yl ogen
ĠRecord ings
Ġrehe ars
ĠH P
ĠK ok
Ġj umps
H al
ĠSy nd
al bum
Ġpe as
men u
Ġl ov
Ġoscill ation
L oad
Ġopt ed
ĠBomb ay
h of
ĠY ak
arm ed
lass ical
Ġrepro duction
M i
Ġapplic ants
Ġb rak
trans ition
Ġphr ases
ĠJ as
Ġcomple teness
associ ated
b ins
ev olution
ĠSu ite
ĠA us
ĠHy per
J P
ĠRap ids
Â ²
form ula
ĠSup erv
22 3
uls ive
l ane
40 1
od i
art y
Ġfe ared
veloc ity
ĠPers p
im pro
ĠCom pton
}) +
âĨ ĳ
ĠCl ose
ĠB oss
ot i
ot ics
lÃ©t ico
ĠHold ings
Ġpublic ity
m our
Ġse am
ruct ures
vent ional
} '$
ĠUS C
Ġinstruct ed
ĠR oland
for cing
Ġat he
rib es
com parison
che z
Ġ }(
Ġapprec iation
ĠC ertain
00 3
ĠEx tra
Ġabund ances
ast ically
b age
unning ham
30 4
× ķ
Ġmon etary
Ġ* *
wh ose
ĠBar oque
T aking
ce ive
Ġintent ions
ĠGu est
ib i
ĠFig ures
23 2
Ġbe aches
Ġcomm ence
Serb ian
Ġ+ =
Cor ollary
Ġs aints
ĠBe au
Ġexplos ive
Ġprol ific
}}{ (
ich let
Ġstory t
ut ations
Ġpri zes
Ġmorph isms
R NA
ĠK ob
Äģ n
Ġski ing
Ġo ath
ĠT arget
Ġaltern ating
Pol y
Ġle ased
ys h
empt ion
i ol
ar f
iss ued
Ġsp elled
G re
Aust rian
ĠC ounter
ant an
rol og
Ġw artime
Ġwood s
24 7
D a
Ġsp ark
ĠDist ribution
s ame
ĠZ hu
arn ation
Ġinstall ations
Ġsett ling
ĠRel ief
ĠT ill
group s
, ...
ĠS utton
Ġmel ody
w u
ĠTw in
Ġhar bour
ma ils
ĠNew sp
Profess or
M atch
M att
rac ies
Ġcov ariant
3 35
Ġsc orer
rom atic
: (
Pl ayer
23 8
ĠGeor getown
R om
Ġepoch s
ĠBore l
e ous
Ġem itted
ax ter
Ġcho oses
ĠBrit t
erman ent
Ġbox ers
ern els
Sum mer
ĠJ ah
Atlant ic
ĠArab ian
Ġencoura ges
g ren
Me V
Ġdiagn ostic
pi res
Ġremn ants
ĠTh ous
Ġout flow
Ġemig rated
en um
as o
larg est
Ġf als
ĠV ed
ĠHawai ian
Å ¼
Ï Ģ
ĠJ S
Ġswim mer
ar ro
mod al
ĠBen ef
Ġse iz
ĠD ors
ĠTerm s
Ġprecip itation
D ivision
Ã¡ lez
ĠCher ry
B ir
rab ility
Ġdepos ited
Organ izations
Ġre ef
Ġch icken
ĠY ok
ĠCol leges
H arry
ong o
S us
Ġv est
Ġro de
- )
Ġcompl ained
Ġspont aneous
ĠM add
ty mology
ur us
Ġeconom ies
ĠPre viously
ĠC BC
ĉ čĊ
ĠPhil harmonic
ĠN W
s uccess
ĠEns emble
Ġb attalions
err ill
Ġfract ions
M ov
Ġinvest ing
ĠEv a
Ġrobust ness
A le
d iamond
Ġpubl ishes
m r
Ġres ide
Ġoffer ings
ĠNicol as
Ġdem ographic
at an
ĠHel p
Ġmanip ulation
ĠS ikh
ĠC AR
il us
)$ $
Ġastero id
B G
R ow
e ight
ff cc
d ependence
oz a
( (\
ĠL ut
ĠW yn
B and
ĠBullet in
ĠM t
ĠGi ant
Ġspect acular
Ġesc ort
ĠAlber to
p ref
ĠAm anda
ĠBeh ind
Ġquant ization
is eries
ĠK atherine
Ġsix ty
Ġblock ing
ĠProt ocol
ĠDaw son
ol esc
D anish
U RE
Ġast roph
Ġrem inis
Ġtr ilogy
comp are
Ġpair wise
22 9
ĠH ubbard
ĠL L
Ġminim izing
Ġ" ...
Ġquad rup
Ġle pton
Ġpat ents
F un
ĠL C
Ġunsuccess fully
Ġs orts
Ġal pha
ĠEv an
hook rightarrow
b ling
f ollow
oo le
ĠLaure nt
E t
or is
al gebras
Ġprosec utor
E ric
Ġch im
relim inary
Ġteam mates
ot ive
ĠTe aching
ĠMonst er
Ġc ure
Add itionally
T unes
ĠE rd
Ġdirect ory
), \\
Ġprop he
ĠM anning
| }{\
ĠHel ena
Americ ans
Ġsqu ee
ib ald
Ġannounc es
ar cer
op ol
ĠSoph ie
ĠL ars
Ġover time
Ġtrust ed
ĠÅ ½
r ase
l p
ĠZ ur
RO M
Ġsuccess es
comp onents
Ġsp eeches
Ġimpro v
on ical
ed itor
ĠIn tern
Ġfilter ing
Ġmes on
conn ection
ĠFal con
Ġmedal ist
otechn ology
Ġex cerpt
Ġmark er
t rad
idd ing
Ġknock out
un ov
ĠX avier
ĠSol utions
Ġnetwork ing
Ġign or
{- }
Ġh aul
Ġif f
ĠS ect
C ore
st orm
ĠHond uras
B ell
Ġtra vers
ther mal
spect rum
G aussian
Ġw ounds
ĠSt rike
[ "
ad os
load ing
Ġloc ate
ĠAss essment
Ġpreval ent
E gypt
RE F
Ġle verage
Ġmot ors
ĠConc ord
ĠHam mond
ĠB org
ĠâĢ Ŀ
Ġb anner
Ġc ass
Ġcinem at
if inal
Ġmult ic
Ġinvert ible
Col umn
] }$
Ġo ught
ĠN ass
ric anes
Ġdescend ant
Gold en
Ġj oke
c one
K al
Ġgamb ling
Ġst ocks
Ġelimin ating
ĠSol o
Ġveget ables
ÃŃ o
C as
Ġp ond
ed it
Ġt we
ĠB P
23 1
ĠShir ley
A K
Ġless on
Ġthr ust
Ġliber ation
c ies
ind e
Ġdis qual
Ġconf inement
Ġvac ation
ĠB ols
Ġg roc
gu ard
ĠB rief
ib us
Ġdevast ating
flu id
p eak
ar ab
ĠT act
od us
ĠPh yll
âĢ¦ ]
Conn ell
Ġpup il
2 21
um my
ĠT es
Ġmin ers
26 5
ĠUz bek
S ide
ĠTra ffic
å ®
ĠG ould
Ġcont empor
Ġcor ridor
ĠTon ight
With out
ĠHy de
Ġc f
Ġdesc ended
Ġref usal
ĠBull s
ur ia
ĠP ill
Ġsuff ix
trans fer
ĠSix th
Ġres ided
arn a
Ġdec isive
Ġdepend ency
Ġaug mented
it ate
ĠS aid
Ġtra gic
ĠRever end
D oc
ĠWill is
Ġunanim ous
ĠEl vis
Ġab rupt
ÃŃ s
T ony
p b
ĠZag reb
Ġo re
Ġf us
asc ript
Ð° Ð½
ĠTe ams
ĠCa uchy
ĠC umberland
ari ous
Ġsk ept
o op
ĠF res
geq slant
Ġpl aque
Ġadd itions
^* _{
ph ysical
ĠIn ner
Ġb rackets
Ġpract icing
Ġmut ually
S ax
Ġdimension less
Ġprosp ects
H ost
N etwork
ĠJournal ism
Ġc anton
Ġe ager
Pro duct
ĠBad en
ĠC ould
Ġqu bits
Ġdisc s
per formance
cc ffcc
Ġfront ier
Ġchrom os
= |
ĠEd en
Ġdestroy er
ĠEv idence
Ġion ization
Ġdis m
Ġmet ro
4 40
ard on
Ġdiscrep ancy
Ġto oth
)$ ;
Ġancest or
Init ial
ĠH astings
ĠMÄģ ori
cl er
ĠKh al
ĠT urb
ek a
Ġwhere in
Ġphot ographers
ĠHaw k
Ġjew el
ĠW en
im ag
Ġacqu is
$ ~\
Ġdisc ourse
ĠAbd ullah
ĠRou ge
Ġdiox ide
air d
ĠEurope ans
Ġn aked
L GBT
ĠLe ave
ĠB enson
Ġconfident ial
f eed
ĠR ex
Ġpl ug
Ne il
ut an
Pro perties
itt ers
Ġcrow ds
B esides
pl er
M ixed
ĠDiv ine
Ġl ymph
her ty
ath lon
Ġf ool
Ġmod ulo
lean or
ĠCar penter
l ifting
Refer ence
her ry
ust rial
Ġshort est
Ġc ris
m eter
ĠD ag
ee le
ener ation
ra pper
ĠO lympi
Ġsem in
Ġconvolution al
. }}
ĠBre tt
Ġhe d
ys c
Ġmarri ages
ĠCom pl
Ġemb race
ĠMod els
Ġaccus ations
j ournal
Writ ing
ĠM ant
Ġwe ird
l ain
p ole
ĠMap le
T oken
Ġun p
ĠNY C
}\ )
Ġdissip ation
ĠPort rait
Ġsh ipped
c b
Ġsexual ity
ĠZ ar
ĠFront ier
ĠM ist
ann ers
Ġbuild er
ĠRes cue
ĠE D
ĠGujar at
Ġap ost
å Ń
Ġinter faces
Ġgreen house
ĠSev enth
Ġam phib
ec o
Ġinvestig ators
ĠShe ikh
}\, .
ĠKu wait
Ġdrag on
Ch ange
ĠBar r
ĠÐ ²
Ġredsh ifts
Ġcan vas
Ġpal m
ĠI st
ul ance
Ġpers ecution
b illion
ch id
ĠB es
Ġgl ad
ĠJos ef
ĠMethod s
C W
Ġconduct ivity
John son
Ġmed ication
b rown
ĠR O
ĠNic ole
Europ e
Ġreun ited
Ġheart s
ĠAugust ine
ĠSuper intendent
olk ata
Ġtrust ee
ass umption
ĠTe acher
\, $
ĠElect ions
Ġfinal ist
Ġrespond ents
Ġexplan ations
fl ight
Ġre lying
ĠV on
Ù Ĭ
ĠÃ ĵ
v id
Ġthe ological
Ġins ign
ĠTreat ment
ĠCom ing
Ġas ymmetric
Ġch aired
Ġc and
ĠTal iban
Ġacqu iring
] _{\
w rote
ĠBow ie
ST AR
Ġw rapped
ĠFor ward
_{ |
el ius
Ġaver ages
, +
E u
w omen
at able
ĠL inn
Ġsh rine
Ġtact ical
direct ed
Ġw itch
å ħ
ĠGl ory
cor r
ne ath
ĠSom alia
ĠS ail
Phys Rev
G W
Ġbomb ers
Ġmicrosc opic
ĠAugust us
Ġincre ment
L ength
Ġauthent ic
~~ ~
ĠConcer to
ĠRes istance
F inn
ys hire
ol ades
ĠClass ics
do es
Ġuncons cious
M oh
d og
ĠB ates
Ġcampus es
impl ies
Ġdiff use
F ood
ab ar
ĠStand ing
ĠBah rain
ĠPatt erson
ou st
ve z
Mult i
M W
k ill
Ġretail ers
ĠP oss
ĠCar bon
,\,\ ,\,\
æ ľ
Pr ime
Ġpro se
ĠP ip
udd in
ĠH ak
ĠT ud
ĠBel ow
ĠNor wich
ĠBre xit
ĠR Ã©
b right
ĠM ons
Ġche ese
Ġrecruit ment
AR D
ffbb bb
ĠP ag
Ġ" ""
is bury
ĠH ub
ĠÄ °
Ġdign ity
Ġp ays
ĠP D
ĠLaure n
Ġles bian
O ffic
h ak
P F
Ġbe ats
ĠScholars hip
w ik
Ġappoint ments
Ġarchitect ures
Ġappar atus
Per formance
Ġsp heres
Ġen forced
ĠR ust
ĠF ors
Ġcan c
J ackson
at io
Ġinad equate
Ġd ans
eth oven
k ip
Ġtechn ically
M NRAS
f air
Ġo mit
Ġfresh water
pp en
Ġcl oth
ĠMid west
Ġmar ched
ĠPoly techn
ĠH ip
Ġstri ps
Ġtun ed
y y
Ġ }_{
ail ure
L ew
ĠF uk
le ad
P ub
Ġacc ent
ĠQu antum
IM E
ĠSh ot
Ġ[ -
import ant
22 8
ĠW o
Ġcycl ist
ĠD anger
ĠFerr ari
ĠL ect
Ġr ushed
Ġover night
28 8
Ġsp ouse
Ġthorough ly
ĠY as
ĠStat ement
T el
ib les
Ã¶ m
le ague
Ġselect ive
Ġen rich
Ġstri pped
Ġad ul
ĠK O
l ceil
Ġdif fe
ag ara
est ead
ĠMe et
Ġannih ilation
ĠP ond
sp irit
Equ ation
T i
Ġstat istically
Ġunder going
Ġspl its
Ñ Ĩ
Ġdiscover ies
ex isting
Ġmon archy
ĠAng ola
Ch art
Ġopp ose
Ġch ord
ĠSc i
Ġm ills
ĠCamero on
]{ $
ĠW is
Ġnegot iate
y x
Ã¼ ck
Municip alities
ĠHyder abad
Ġanisot ropy
ĠL ump
Ġrest ruct
Al ong
ĠSt uttgart
Ġbeh ave
E tymology
C art
ĠP BS
ol ver
Ġimp lying
Ġpuls es
âĢ¦ .
ĠR ider
ĠBM W
ĠL uz
al om
et ian
t ier
al ach
ĠR B
ĠD ad
Com mercial
eron aut
Ġrecover ing
Ġce ase
ĠA th
ĠMad ras
Ġuniform s
Mex ico
U B
aw ks
Ġdec oder
ST R
ĠK ant
Ġdisappoint ed
Ġcell o
J oh
Ġdrain age
Ġinfect ious
Ġax ial
T ask
bal ance
Ġw ives
Ġdomin ates
Ġdisag re
ĠTrav is
ĠÃ ĩ
Ġdecl aring
Ġexplo ited
Ġnational ity
ĠNob le
eb ack
Ġpric ing
Ġsp acing
Ch urches
Ġgarn ered
ĠVenezuel an
ĠHall ow
Ġcompass ion
ĠEx eter
Ġharm ful
wer p
ĠPar ade
bre ve
Ġstreng thening
Ġconfirm s
Ġ' '
s om
ĠQuest ion
_{ *
ĠBagh dad
Roman ian
Ġcryst als
Ġadminist rators
Ġpull ing
ĠD epend
qu ote
ef ord
ĠFore ver
Disc ussion
23 3
Ġcolumn ist
ĠInit ial
off set
inst ance
ĠH err
Ġconstitu ent
ĠClay ton
r ne
ĠW are
Ġfoss ils
ĠMick ey
Ġ Ñģ
ac io
ĠAl z
ĠFl ower
Ðµ ÑĢ
olog na
pos ium
ipe i
Ġrese ar
Ġundert ook
u ably
Ġ ....
a ic
ur c
Ġt ut
L ake
ract ing
ias m
w on
play ed
Ġunder water
ret ch
Ġg onna
ĠElect rical
Î ¼
ĠBl ind
bb ffbb
Ġdark ness
ĠNiel sen
ĠK em
s rc
weight ed
ĠJes uit
Ġbot tle
ter a
iz za
Ġrece ivers
ad joint
pro j
F actory
ĠWe ap
Ġrepro ductive
umin ous
Ġwaters hed
the o
ĠCont ent
ĠMid land
Ġcomp anions
ĠAl most
Arch itecture
ĠQuarter ly
Ġdr inks
Ġshort age
Ġfund raising
st ones
h ash
ĠW R
dd ot
Ġcha otic
Ġc ats
est o
ge ois
Ġspr int
= $
ĠRef s
ĠR ost
ĠLe igh
E V
Ġkn ife
Int eg
ĠRem ember
Ġreson ant
rang ed
Ġviol a
Ġh alt
ĠMed ieval
Ġmut ations
ĠE rie
ĠO maha
ĠMe asure
29 5
Ġrefer enced
ĠGod d
Ġhypothes es
ĠL R
ĠSt okes
New ton
Fe ature
sh aw
ent in
em on
Ġmar athon
omot ive
)) ^
ĠArch diocese
ĠGib raltar
ĠI EEE
Ġret re
ĠPer cy
Ġprogress ed
ĠLind say
Ġprosper ity
ĠSat urn
L atin
N BC
af ia
Ġview er
ĠPack ers
Ġdef unct
Ġt ear
ĠK ras
-\ !
ĠL Ã³pez
[...]
