{"[UNK]":0,"!":1,"\"":2,"#":3,"$":4,"%":5,"&":6,"'":7,"(":8,")":9,"*":10,"+":11,",":12,"-":13,".":14,"/":15,"0":16,"1":17,"2":18,"3":19,"4":20,"5":21,"6":22,"7":23,"8":24,"9":25,":":26,";":27,"<":28,"=":29,">":30,"?":31,"@":32,"A":33,"B":34,"C":35,"D":36,"E":37,"F":38,"G":39,"H":40,"I":41,"J":42,"K":43,"L":44,"M":45,"N":46,"O":47,"P":48,"Q":49,"R":50,"S":51,"T":52,"U":53,"V":54,"W":55,"X":56,"Y":57,"Z":58,"[":59,"\\":60,"]":61,"^":62,"_":63,"`":64,"a":65,"b":66,"c":67,"d":68,"e":69,"f":70,"g":71,"h":72,"i":73,"j":74,"k":75,"l":76,"m":77,"n":78,"o":79,"p":80,"q":81,"r":82,"s":83,"t":84,"u":85,"v":86,"w":87,"x":88,"y":89,"z":90,"{":91,"|":92,"}":93,"~":94,"¡":95,"¢":96,"£":97,"¤":98,"¥":99,"¦":100,"§":101,"¨":102,"©":103,"ª":104,"«":105,"¬":106,"®":107,"¯":108,"°":109,"±":110,"²":111,"³":112,"´":113,"µ":114,"¶":115,"·":116,"¸":117,"¹":118,"º":119,"»":120,"¼":121,"½":122,"¾":123,"¿":124,"Â":125,"Ã":126,"Ä":127,"Å":128,"Æ":129,"Ç":130,"È":131,"É":132,"Ê":133,"Ë":134,"Ì":135,"Í":136,"Î":137,"Ï":138,"Ð":139,"Ñ":140,"Ò":141,"Ó":142,"Ô":143,"Õ":144,"Ö":145,"×":146,"Ø":147,"Ù":148,"Ú":149,"Û":150,"Ü":151,"Ý":152,"Þ":153,"ß":154,"à":155,"á":156,"â":157,"ã":158,"ä":159,"å":160,"æ":161,"ç":162,"è":163,"é":164,"ê":165,"ë":166,"ì":167,"í":168,"î":169,"ï":170,"ð":171,"ó":172,"ô":173,"Ā":174,"ā":175,"Ă":176,"ă":177,"Ą":178,"ą":179,"Ć":180,"ć":181,"Ĉ":182,"ĉ":183,"Ċ":184,"ċ":185,"Č":186,"č":187,"Ď":188,"ď":189,"Đ":190,"đ":191,"Ē":192,"ē":193,"Ĕ":194,"ĕ":195,"Ė":196,"ė":197,"Ę":198,"ę":199,"Ě":200,"ě":201,"Ĝ":202,"ĝ":203,"Ğ":204,"ğ":205,"Ġ":206,"ġ":207,"Ģ":208,"ģ":209,"Ĥ":210,"ĥ":211,"Ħ":212,"ħ":213,"Ĩ":214,"ĩ":215,"Ī":216,"ī":217,"Ĭ":218,"ĭ":219,"Į":220,"į":221,"İ":222,"ı":223,"Ĳ":224,"ĳ":225,"Ĵ":226,"ĵ":227,"Ķ":228,"ķ":229,"ĸ":230,"Ĺ":231,"ĺ":232,"Ļ":233,"ļ":234,"Ľ":235,"ľ":236,"Ŀ":237,"ŀ":238,"Ł":239,"ł":240,"Ń":241,"Ġt":242,"he":243,"in":244,"Ġa":245,"er":246,"on":247,"Ġthe":248,"re":249,"at":250,"en":251,"Ġo":252,"Ġs":253,"an":254,"or":255,"is":256,"al":257,"it":258,"ed":259,"es":260,"Ġw":261,"ar":262,"Ġc":263,"Ġof":264,"Ġf":265,"nd":266,"Ġin":267,"ion":268,"Ġp":269,"Ġb":270,"ic":271,"ing":272,"Ġand":273,"as":274,"ro":275,"ĠĠ":276,"le":277,"Ġm":278,"Ġd":279,"Ġto":280,"ou":281,"ent":282,"il":283,"Ġh":284,"el":285,"ĠS":286,"ct":287,"om":288,"st":289,"ĠC":290,"ĠT":291,"Ġre":292,"am":293,"et":294,"ĠA":295,"Ġth":296,"ol":297,"ig":298,"Ġ\\":299,"ation":300,"Ġl":301,"Ġn":302,"ra":303,"Ġ(":304,"Ġe":305,"ot":306,"im":307,"ĠM":308,"iv":309,"Ġ$":310,"Ġis":311,"id":312,"ch":313,"ur":314,"ce":315,"Ġfor":316,"ut":317,"us":318,"ĠI":319,"ĠB":320,"ly":321,"Ġg":322,"Ġon":323,"âĢ":324,"ĠP":325,"ers":326,"ad":327,"20":328,"ow":329,"ir":330,"19":331,"ĠĠĠĠ":332,"ĠH":333,"Ġbe":334,"ith":335,"ay":336,"em":337,"ul":338,"Ġas":339,"ter":340,"Ġst":341,"Ġwas":342,"ĠR":343,"un":344,"ĠF":345,"ist":346,"ĠD":347,"um":348,"Ġthat":349,"ĠL":350,"Ġwith":351,"ĠThe":352,"ver":353,"th":354,"her":355,"os":356,"Ġal":357,"Ġcon":358,"ab":359,"ĠW":360,"{\\":361,"and":362,"ĠN":363,"ĠG":364,"ag":365,"Ġby":366,"qu":367,"Ġan":368,"if":369,"od":370,"Ġpro":371,"Ġwh":372,"op":373,"ĠE":374,"ri":375,"ac":376,"Ġat":377,"Ġv":378,"est":379,"ect":380,"rom":381,"ec":382,"res":383,"ity":384,"av":385,"ĠJ":386,"ate":387,"igh":388,"end":389,"oc":390,"Ġcom":391,"ain":392,"Ġit":393,"pp":394,"Ġfrom":395,"ĠĊ":396,"art":397,"ies":398,"Ġhe":399,"eg":400,"ill":401,"ath":402,"_{":403,"ĠO":404,"ore":405,"ub":406,"ew":407,"all":408,"Ġex":409,"Ġare":410,"'s":411,"ud":412,"ant":413,"ep":414,"ort":415,"Ġor":416,"ess":417,"se":418,"ber":419,"ight":420,"ak":421,"ure":422,"ial":423,"ld":424,"ef":425,"ment":426,"ĠU":427,"up":428,"ive":429,"ian":430,"ge":431,"ap":432,"Ġ$\\":433,"ĠK":434,"ard":435,"ich":436,"ine":437,"The":438,"ph":439,"Ġr":440,"201":441,"ia":442,"nt":443,"ated":444,"âĢĵ":445,"our":446,"ov":447,"math":448,"Ġpl":449,"Ġy":450,"Ġ\"":451,"Ġch":452,"ary":453,"og":454,"ip":455,"ions":456,"und":457,"ell":458,"ex":459,"Ġwe":460,"ĠSt":461,"ear":462,"ical":463,"Ġ&":464,"ĠIn":465,"ust":466,"200":467,"Ġsp":468,"ong":469,"Ġsh":470,"Ġle":471,"Ġhis":472,"čĊ":473,"ug":474,"ast":475,"ran":476,"ave":477,"ite":478,"Ġcomp":479,"iz":480,"Ġnot":481,"}\\":482,"Ġse":483,"ign":484,"ame":485,"are":486,"}$":487,"ĠV":488,"Ġwhich":489,"ue":490,"^{":491,"ost":492,"âĢĻ":493,"uc":494,"ire":495,"ĠCh":496,"ks":497,"ass":498,"ord":499,"Ġk":500,"ult":501,"Ġthis":502,"),":503,"Ġus":504,"ĠĠĠ":505,"cl":506,"ere":507,"ction":508,"ish":509,"ĠĠĠĠĠĠĠĠ":510,"mer":511,"so":512,"ther":513,"ff":514,"Ġde":515,"ations":516,"00":517,"pt":518,"enc":519,"pl":520,"rac":521,"per":522,"18":523,"ens":524,"ft":525,"orm":526,"Ġcl":527,"age":528,"Ġres":529,"Ġhave":530,"Ġwhe":531,"ence":532,"Ġhas":533,"Ġun":534,"ous":535,"ref":536,"ric":537,"Ġwere":538,"ta":539,"Ġalso":540,"ition":541,"ma":542,"ork":543,"ry":544,"ide":545,"ack":546,"ond":547,"erv":548,"int":549,"Ġcont":550,"ome":551,"ime":552,"Ġint":553,"}}":554,"Ġsu":555,"(\\":556,"Ġab":557,"ib":558,"Ġ-":559,"Ġ|":560,"out":561,"ang":562,"ace":563,"tern":564,"Ġcan":565,").":566,"Ġad":567,"ice":568,"ould":569,"irst":570,"Ġar":571,"Ġall":572,"act":573,"ach":574,"ext":575,"ount":576,"Ġ=":577,"ĠTh":578,"Ġapp":579,"Ġj":580,"ory":581,"ĠUn":582,"egin":583,"rit":584,"cc":585,"ok":586,"ĠHe":587,"over":588,"Ġpart":589,"begin":590,"ie":591,"ild":592,"able":593,"Ġim":594,"own":595,"oll":596,"cal":597,"erm":598,"wo":599,"Ġone":600,"fer":601,"ase":602,"ates":603,"ru":604,"Ġtheir":605,")$":606,"ik":607,"ound":608,"ational":609,"_{\\":610,"ree":611,"In":612,"ĠY":613,"Ġhad":614,"ĠIt":615,"199":616,"ind":617,"ents":618,"ors":619,"Ġro":620,"ĠâĢ":621,"hed":622,"Ġplay":623,"Ġfirst":624,"Ġbut":625,"ally":626,"ey":627,"Ġits":628,"clud":629,"old":630,"ely":631,"ener":632,"Ġdis":633,"ance":634,"..":635,"Ġwho":636,"ĠâĢĵ":637,"amp":638,"10":639,"ress":640,"}{":641,"rm":642,"fter":643,"Ġte":644,"ng":645,"ile":646,"Ġ||":647,"form":648,"Ġper":649,"ater":650,"any":651,"right":652,"orn":653,"port":654,"rad":655,"lic":656,"ark":657,"the":658,"frac":659,"eop":660,"Ġrec":661,"aw":662,"Ġtwo":663,"Ġag":664,"Ġother":665,"eq":666,"ugh":667,"Ġyear":668,"Ġme":669,"ences":670,"ĠAl":671,"Ġout":672,"vel":673,"we":674,"eople":675,"equ":676,"land":677,"ons":678,"ob":679,"Ġev":680,"rib":681,"ics":682,"Ġbeen":683,"ose":684,"\\\\":685,"meric":686,"},":687,"Ġher":688,"Ġbec":689,"Ġsc":690,"te":691,"ss":692,"iss":693,"Ġthey":694,"ited":695,"lect":696,"ection":697,"ivers":698,"les":699,"Ġdes":700,"Ġpre":701,"abel":702,"ool":703,"Ġqu":704,"ings":705,"ied":706,"row":707,"Ġover":708,"rans":709,"ember":710,"du":711,"Ġmore":712,"ail":713,"Ġup":714,"text":715,"Ġcomm":716,"ased":717,"one":718,"mathb":719,"gh":720,"ans":721,"urn":722,"198":723,"under":724,"oy":725,"Ġtime":726,"sp":727,"Ġinclud":728,"âĢĿ":729,"Ġmod":730,"ood":731,"Ġen":732,"Ġcons":733,"Ġwork":734,"Ġwill":735,"cite":736,"ular":737,"als":738,"rop":739,"Ġnew":740,"ward":741,"oint":742,"ilm":743,"ake":744,"Ġdo":745,"Ġind":746,"ram":747,"io":748,"Ġyou":749,"uring":750,"Ġsy":751,"$,":752,"ont":753,"oot":754,"label":755,"iel":756,"ĠNew":757,"$.":758,"ve":759,"12":760,"Ġbet":761,"ollow":762,"amb":763,"Ġinto":764,"olog":765,"Ġob":766,",\\":767,"Ġinter":768,"hip":769,"Ġass":770,"ĠCom":771,"Ġact":772,"Ġsub":773,"equation":774,"Ġreg":775,"ĠMar":776,"17":777,"Ġunder":778,"efer":779,"imes":780,"cent":781,"aus":782,"mathcal":783,"vi":784,"ative":785,"Ġoff":786,"raph":787,"ict":788,"ution":789,"ĠAmeric":790,"Ġwhere":791,"ee":792,"left":793,"Ġwhen":794,"ough":795,"anc":796,"Ġso":797,"red":798,"ject":799,"})":800,"Ġrel":801,"ix":802,"Ġafter":803,"Refer":804,"Ġpeople":805,"Ġwould":806,"chool":807,"Ġthere":808,"Ġkn":809,"Ġne":810,"197":811,"15":812,"References":813,"Ġdef":814,"ities":815,"Ġonly":816,"Ġabout":817,"tain":818,"}.":819,"Ġsuch":820,"ann":821,"orld":822,"ren":823,"ral":824,"round":825,"very":826,"Ġacc":827,"ident":828,"Ġthan":829,"ps":830,"rough":831,"Ġform":832,"resent":833,"ince":834,"Ġset":835,"ll":836,"16":837,"Ġshe":838,"ari":839,"Ġpol":840,"Ġloc":841,"}(":842,"ual":843,"ade":844,"ific":845,"ield":846,"Ġfollow":847,"Ġco":848,"ating":849,"ĠâĢľ":850,"ween":851,"ays":852,"ts":853,"ball":854,"Ġexp":855,"line":856,"oth":857,"inal":858,"Ġserv":859,"fig":860,"pr":861,"eta":862,"Ġnum":863,"ublic":864,"}^":865,"Ġsec":866,"Ġdec":867,"ists":868,"roup":869,"Ġdif":870,"Ġsome":871,"ĠAr":872,"Ġstud":873,"Ġdist":874,"pro":875,"Ġatt":876,"duc":877,"Ġtrans":878,"ĠThis":879,"ision":880,"wn":881,"gan":882,"der":883,"cess":884,"iversity":885,"~\\":886,"ick":887,"ily":888,"Ġif":889,"Ġbetween":890,"Ġthen":891,"ys":892,"da":893,"ock":894,"oh":895,"Ġpr":896,"}_":897,"pha":898,"Ġfl":899,"ook":900,"196":901,"ished":902,"Ġfilm":903,"ton":904,"ne":905,"Ġph":906,"stem":907,"eth":908,"yp":909,"ĠDe":910,"Ġinv":911,"arg":912,"Ġpos":913,"Ġprov":914,"ĠĠĠĠĠĠĠ":915,"Ġany":916,"ike":917,"alpha":918,"oci":919,"Ġcol":920,"21":921,"ason":922,"ax":923,"Ġthem":924,"Ġlin":925,"ted":926,"Ġmost":927,"ury":928,"ures":929,"to":930,"Ġest":931,"13":932,"ĉĉ":933,"ise":934,"ined":935,"aid":936,"Ġgener":937,"ah":938,"14":939,"Ġ+":940,"ower":941,"Ġtra":942,"reat":943,"Ġyears":944,"irect":945,"outh":946,"Ġinc":947,"mb":948,"Ġfe":949,"ins":950,"hes":951,"ata":952,"ife":953,"oun":954,"Ġbu":955,"Ġshow":956,"its":957,"ĠLe":958,"air":959,"ĠZ":960,"ism":961,"abl":962,"Ġman":963,"ames":964,"orth":965,"app":966,"ever":967,"ĠSh":968,"Ġra":969,"Ġrem":970,"ement":971,"Ġresult":972,"Ġhim":973,"of":974,"ments":975,"ier":976,"Ġno":977,"ĠAmerican":978,"ĠPro":979,"Ġused":980,"elta":981,"Ġthrough":982,"ambda":983,"com":984,"Ex":985,"Ġcent":986,")\\":987,"overn":988,"hat":989,"man":990,"ĠWe":991,"ility":992,"Ġspec":993,"Ġac":994,"ray":995,"Ġagain":996,"=\"":997,"tt":998,"Ġconst":999,"hen":1000,"$\\":1001,"ars":1002,"ues":1003,"Ġsim":1004,"els":1005,"Ġmay":1006,"Ġadd":1007,"Ġour":1008,"amma":1009,"ature":1010,"11":1011,"ĠInd":1012,"ox":1013,"Ġrep":1014,"ash":1015,"Ġdiffer":1016,"ĠUniversity":1017,"Ġthese":1018,"Ġsupp":1019,"emb":1020,"Ġed":1021,"ĠUnited":1022,"ove":1023,"Ġbl":1024,"Ġwell":1025,"Ġam":1026,"sc":1027,"Ġfun":1028,"Ġent":1029,"_\\":1030,"velop":1031,"Ġfound":1032,"ĠSp":1033,"ruct":1034,"194":1035,"uss":1036,"ient":1037,"Ġclass":1038,"ale":1039,"Ġsystem":1040,"ern":1041,"ract":1042,"az":1043,"mu":1044,"Ġgo":1045,"way":1046,"arn":1047,"ible":1048,"ĠFor":1049,"195":1050,"ĠAn":1051,"inn":1052,"Ġthree":1053,"ider":1054,"ause":1055,"Ġret":1056,"aj":1057,"Ġend":1058,"ten":1059,"Ġduring":1060,"30":1061,"ev":1062,"Ġeff":1063,"ĠSc":1064,"ho":1065,"mathbb":1066,"con":1067,"erson":1068,"Ġfam":1069,"ouse":1070,"ĠQ":1071,"Ġresp":1072,"Ã©":1073,"ĠCol":1074,"ized":1075,"Ġmat":1076,"Ġdep":1077,"22":1078,"elf":1079,"Ġequ":1080,"ots":1081,"Ġnumber":1082,"lem":1083,"ional":1084,"Ġ{":1085,"ternal":1086,"Ġval":1087,"=\\":1088,"}^{":1089,"ting":1090,"Ġart":1091,"Ġ\\\\":1092,"}_{":1093,"Ġmon":1094,"Ġcor":1095,"ron":1096,"ute":1097,"Ġteam":1098,"eries":1099,"ull":1100,"Ġeach":1101,"igma":1102,"ĠAs":1103,"Ġsign":1104,"eb":1105,"min":1106,"uch":1107,"iving":1108,"Ġsm":1109,"ĠCl":1110,"Ġpar":1111,"Ġinst":1112,"Ġdet":1113,"Ġmade":1114,"Ġsing":1115,"Ġsur":1116,"ize":1117,"Ġlead":1118,"ty":1119,"arly":1120,"25":1121,"usic":1122,"sub":1123,"Ġext":1124,"cept":1125,"Ġsecond":1126,"ives":1127,"Ġgroup":1128,"ode":1129,"Ġpoint":1130,"ina":1131,"ega":1132,"--":1133,"ank":1134,"ines":1135,"ootball":1136,"Ġcall":1137,"Ġbeing":1138,"ober":1139,"other":1140,"Ġdisc":1141,"ets":1142,"Ġoper":1143,"Ġboth":1144,"Ġsaid":1145,"Ġcount":1146,"ather":1147,"Ġrele":1148,"owever":1149,"Ġcomple":1150,"-\\":1151,"^{\\":1152,"iven":1153,"ple":1154,"Ġmany":1155,"Ġsame":1156,"Ġhigh":1157,"phi":1158,"Âł":1159,"iver":1160,"gy":1161,"tle":1162,"Ġfin":1163,"ohn":1164,"ural":1165,"ived":1166,"Ġ[":1167,"eng":1168,"Ġdirect":1169,"ange":1170,");":1171,"Ġ<":1172,"ices":1173,"Ġstate":1174,"ĠEng":1175,"Ġback":1176,"Ġstr":1177,"istory":1178,"Ġem":1179,"Ġmin":1180,"ĠStates":1181,"Ġpartic":1182,"Ġ{\\":1183,"lambda":1184,"uth":1185,"align":1186,"ĠIs":1187,"Ġmed":1188,"ĠĠĠĠĠĠĠĠĠĠĠĠĠĠĠĠ":1189,"iam":1190,"Ġuse":1191,"enn":1192,"000":1193,"Ġcur":1194,"rict":1195,"ĠShe":1196,"Th":1197,"ley":1198,"Ġwhile":1199,".\"":1200,"ology":1201,"Ġchar":1202,"arl":1203,"pos":1204,"fore":1205,"Ġvari":1206,"omen":1207,"Ġpop":1208,"ator":1209,"ĠCon":1210,"Ġdevelop":1211,"ants":1212,"Ġprob":1213,"Ġwrit":1214,"ically":1215,"Ġcre":1216,"bf":1217,"part":1218,"Ġlinks":1219,"Ġplayers":1220,"ĠComm":1221,"//":1222,"ept":1223,"Ġ.":1224,".,":1225,"Ġdifferent":1226,"Ġschool":1227,"une":1228,"pen":1229,"ired":1230,"inc":1231,"ross":1232,"bum":1233,"Ġmov":1234,"yn":1235,"pi":1236,"ote":1237,"Ġbefore":1238,"St":1239,"ization":1240,"Ġknown":1241,"Ġperform":1242,"sh":1243,"Ġincluding":1244,"Ġfollowing":1245,"ages":1246,"ulation":1247,"ths":1248,"irc":1249,"Ġline":1250,"Ġterm":1251,"mathbf":1252,"ilon":1253,"Ġrecord":1254,"Ġlater":1255,"gram":1256,"apt":1257,"External":1258,"Ġelect":1259,"aking":1260,"rent":1261,"Ġsol":1262,"ounc":1263,"24":1264,"ograph":1265,"Ġfour":1266,"Ġappro":1267,"ink":1268,"duct":1269,"Ġdesc":1270,"led":1271,"Ġown":1272,"ĠCount":1273,"Ġbel":1274,"Ġlong":1275,"overnment":1276,"ĠBl":1277,"ission":1278,"arri":1279,"Ġmain":1280,"eter":1281,"ful":1282,"Ġcase":1283,"au":1284,"Ġlike":1285,"Ġorder":1286,"rid":1287,"ĠJan":1288,"ved":1289,"Ġele":1290,"ĠPh":1291,"Ġnon":1292,"23":1293,"Ġseason":1294,"ĠMay":1295,"ĠFran":1296,"Ġcould":1297,"ternational":1298,"ĠOn":1299,"by":1300,"ert":1301,"Ġagainst":1302,"ĠJohn":1303,"Ġwhat":1304,"Ġjust":1305,"Ġpublic":1306,"ĠAd":1307,"ality":1308,"ring":1309,"fl":1310,"ared":1311,"ually":1312,"Ġstart":1313,"ague":1314,"\",":1315,"sigma":1316,"ĠNational":1317,"Ġconsider":1318,"Ġcontin":1319,"sy":1320,"We":1321,"Ġright":1322,"Ġdata":1323,"Ġbir":1324,"Ġgu":1325,"chn":1326,"\".":1327,"^{-":1328,"section":1329,"Ġmodel":1330,"ubl":1331,"}{\\":1332,"bar":1333,"Ġfact":1334,"Ġrequ":1335,"ases":1336,"view":1337,"ially":1338,"Ġsupport":1339,"itions":1340,"193":1341,"Ġcare":1342,"ĠWorld":1343,"urch":1344,"ĠX":1345,"ces":1346,"ilde":1347,"Ġnow":1348,"here":1349,"ience":1350,"ister":1351,"Ġestabl":1352,"Ġsince":1353,"ior":1354,"ret":1355,"ital":1356,"for":1357,"Ġalbum":1358,"Ġsmall":1359,"Ġbecause":1360,"sum":1361,"ected":1362,"Ġfootball":1363,"beta":1364,"ean":1365,"Ġ(\\":1366,"Ġorig":1367,"ĠPl":1368,"Ġ'":1369,"Ġdr":1370,"alth":1371,"Ġfield":1372,"rist":1373,"Ġpres":1374,"son":1375,"ively":1376,"Ġseries":1377,"atic":1378,"ĠAust":1379,"Ġsee":1380,"Ġcommun":1381,"eps":1382,"50":1383,"vent":1384,"mp":1385,"ety":1386,"wid":1387,"ians":1388,"Ġbecame":1389,"ĠCan":1390,"gamma":1391,"arge":1392,"isc":1393,"ai":1394,"Ġbuild":1395,"Ġgiven":1396,"ven":1397,"Ġfamily":1398,"Ġdid":1399,"Ġfunction":1400,"Ġexper":1401,"ke":1402,"mathrm":1403,"col":1404,"Ġreturn":1405,"ĠYork":1406,"*}":1407,"Ġname":1408,"set":1409,"Ġpolit":1410,"Ġtr":1411,"uary":1412,"ĠAnd":1413,"til":1414,"+\\":1415,"Ġlife":1416,"ĠJu":1417,"ample":1418,"duced":1419,"ĠNov":1420,"Ġsever":1421,"Ġevery":1422,"ĠBrit":1423,"Ġann":1424,"Ġusing":1425,"ency":1426,"arm":1427,"Ġtyp":1428,"Ġneed":1429,"let":1430,"Ġworld":1431,"Ġvi":1432,"Ġ}":1433,"oo":1434,"ĠSchool":1435,"ris":1436,"Ġvery":1437,"Ġdesign":1438,"iness":1439,"Ġeffect":1440,"duction":1441,"rand":1442,"arch":1443,"ĠCounty":1444,"ĠCent":1445,"Ġrece":1446,"formation":1447,"Ġopen":1448,"ck":1449,"Ġrun":1450,"2020":1451,"2010":1452,"cd":1453,"ĠOr":1454,"por":1455,"get":1456,"Ch":1457,"ining":1458,"rho":1459,"ains":1460,"Ġprof":1461,"ĠWar":1462,"Ġchild":1463,"ript":1464,"mm":1465,"^\\":1466,"embers":1467,"Ġthose":1468,"Ġlaw":1469,"ugust":1470,"Ġbro":1471,"Ġsong":1472,"ĠSouth":1473,"26":1474,"ious":1475,"iqu":1476,"ĠâĢĶ":1477,"ided":1478,"vers":1479,"27":1480,"Ġdeath":1481,"Ġpresent":1482,"Ġget":1483,"Ġprogram":1484,"me":1485,"ajor":1486,"\\\\\\\\":1487,"eptember":1488,"28":1489,"quad":1490,"array":1491,"Ġorgan":1492,"ival":1493,"Ġmusic":1494,"orks":1495,"ified":1496,"Ġmy":1497,"ĠAss":1498,"delta":1499,"yle":1500,"ering":1501,"]{":1502,"serv":1503,"af":1504,"Ġoffic":1505,"theta":1506,"Ġuntil":1507,"Ġeven":1508,"ĠRe":1509,"put":1510,"$-":1511,")}":1512,"ĠOct":1513,"Ġbased":1514,"Ġmet":1515,"ane":1516,"ĠGerm":1517,"tau":1518,"ration":1519,"ium":1520,"Ġcalled":1521,"2016":1522,"leq":1523,"ĠMarch":1524,"amed":1525,"Ġrepresent":1526,"ĠEx":1527,"2018":1528,"ĠAt":1529,"oss":1530,"ott":1531,"2017":1532,"Ġdescrib":1533,"wards":1534,"Ġx":1535,"ird":1536,"Ġexpl":1537,"day":1538,"arrow":1539,"mber":1540,"Ġi":1541,"ĠTe":1542,"Ġsl":1543,"ised":1544,"ĠGe":1545,"2014":1546,"pril":1547,"2015":1548,"Ġreport":1549,"ask":1550,"Ġperson":1551,"urop":1552,"Ġincre":1553,"2011":1554,"Ġcharact":1555,"ĠAugust":1556,"lege":1557,"2019":1558,"ethod":1559,"ĠSeptember":1560,"Ġlocal":1561,"ner":1562,"istor":1563,"usiness":1564,"Ġsuc":1565,"}$.":1566,"Ġhel":1567,"ness":1568,"ĠJanuary":1569,"2012":1570,"Ġarea":1571,"reen":1572,"}$,":1573,"ĠWh":1574,"oman":1575,"Ġlast":1576,"ĠJune":1577,"oard":1578,"Ġgame":1579,"illion":1580,"cember":1581,"2013":1582,"Ġlist":1583,"att":1584,"Ġseveral":1585,"29":1586,"}(\\":1587,"ĠAll":1588,"ĠOctober":1589,"big":1590,"Ġlarge":1591,"Ġhow":1592,"Ġcour":1593,"ĠThey":1594,"Ġmake":1595,"ĠJuly":1596,"figure":1597,"ĠRep":1598,"Ġprocess":1599,"Ġnear":1600,"times":1601,"Ġplace":1602,"Ġcap":1603,"med":1604,"On":1605,"rol":1606,"rang":1607,"Ġz":1608,"ĠPol":1609,"ampions":1610,"ended":1611,"</":1612,"urther":1613,"Ġcond":1614,"ately":1615,"Ġgovernment":1616,"Ġway":1617,"Ġposs":1618,"vious":1619,"Ġrest":1620,"lev":1621,"Ġaround":1622,"ĠApril":1623,"ides":1624,"2008":1625,"val":1626,"Ġstat":1627,"Ġocc":1628,"umn":1629,"lish":1630,"Ġpass":1631,"ĠState":1632,"2009":1633,"use":1634,"ery":1635,"|-":1636,"ability":1637,"ĠPr":1638,"ows":1639,"rack":1640,"Ġ,":1641,"born":1642,"vert":1643,"ves":1644,"Ġpower":1645,"eqref":1646,"Ġformer":1647,"nu":1648,"rum":1649,"Ġalong":1650,"ilit":1651,"ently":1652,"Ġstand":1653,"ĠAustral":1654,"Ġref":1655,"40":1656,"ĠDecember":1657,"ĠNovember":1658,"akes":1659,"Ġshould":1660,"....":1661,"It":1662,"ĠUS":1663,"ĠNorth":1664,"Ġdoes":1665,"aving":1666,".âĢĿ":1667,"item":1668,"ĠCity":1669,"Ġfind":1670,"osed":1671,"Ġtop":1672,"partial":1673,"Ġdue":1674,"ĠGu":1675,"uthor":1676,"read":1677,"ued":1678,"ĠEurop":1679,"Ġimport":1680,"ĠĠĠĠĠ":1681,"ony":1682,"ae":1683,"ourn":1684,"ribut":1685,"fty":1686,"Ġwithin":1687,"ense":1688,"ording":1689,"ilt":1690,"Ġgeneral":1691,"Ġearly":1692,"Ġleg":1693,"Ġmuch":1694,"bs":1695,"ĠCal":1696,"angu":1697,"Ġplayed":1698,"ĠMan":1699,"iod":1700,"2007":1701,"side":1702,"infty":1703,"ĠII":1704,"sec":1705,"epend":1706,"Ġrefer":1707,"Ġanal":1708,"aces":1709,"Ġcity":1710,"err":1711,"ĠEd":1712,"ĠAf":1713,"Ġproper":1714,"aim":1715,"Ġhead":1716,"Ġdown":1717,"Ġwon":1718,"eqn":1719,"ek":1720,"Ġsingle":1721,"Ġhand":1722,"tilde":1723,"Ġpubl":1724,"alk":1725,"stit":1726,"Ġreleased":1727,"Ġresults":1728,"agn":1729,"Ġprot":1730,"Ġlit":1731,"ĠHowever":1732,"ebru":1733,"olution":1734,"ĠCanad":1735,"Ġwomen":1736,"Ġland":1737,"Ġleft":1738,"Ġread":1739,"Ġtrad":1740,"ebruary":1741,"Ġconf":1742,"ential":1743,"2006":1744,"Ġrad":1745,"ĠCo":1746,"Ġstill":1747,"urs":1748,"ene":1749,"Ġappear":1750,"This":1751,"ocial":1752,"Ġcurrent":1753,"Ġtri":1754,"ĠBe":1755,"Ġmembers":1756,"ĠBritish":1757,"Ġiss":1758,"Ġstruct":1759,"Ġmult":1760,"Ġdem":1761,"omega":1762,"par":1763,"Ġlim":1764,"Ġaddition":1765,"Ġreal":1766,"Ġ*":1767,"etw":1768,"rel":1769,"ales":1770,"Ġav":1771,"Ġmeas":1772,"pm":1773,"Ġproblem":1774,"Ġobtain":1775,"rt":1776,"resp":1777,"Ġhelp":1778,"Ġeng":1779,"ung":1780,"ĠWill":1781,"ĠĠĠĠĠĠĠĠĠĠĠ":1782,"Ġobserv":1783,"ody":1784,"ĠChrist":1785,"ĠCar":1786,"ography":1787,"Ġhome":1788,"raw":1789,"ĠRes":1790,"apan":1791,"Ġlevel":1792,"width":1793,"Ġknow":1794,"hem":1795,"ats":1796,"Ġadv":1797,"Ġmajor":1798,"uck":1799,"aster":1800,"190":1801,"100":1802,"Ġband":1803,"ĠReg":1804,"omin":1805,"ĠFl":1806,"Ġmark":1807,"uman":1808,"Ġmass":1809,"Ġtit":1810,"less":1811,"Ġmethod":1812,"|\\":1813,"ĠKing":1814,"Delta":1815,"Ġrespect":1816,"ained":1817,"Ġvers":1818,"oad":1819,"Ġlarg":1820,"ffic":1821,"ered":1822,"He":1823,"ĠFebruary":1824,"Ġener":1825,"orem":1826,"ored":1827,"ham":1828,"Ġsuccess":1829,"Ġtechn":1830,"Ġcompany":1831,"Ġvis":1832,"Ġday":1833,"Ġcompet":1834,"Ġpat":1835,"rix":1836,"ĠLeague":1837,"hi":1838,"itive":1839,"ords":1840,"Ġtake":1841,"For":1842,"Ġevent":1843,"uper":1844,"ling":1845,"conom":1846,"Ġgl":1847,"var":1848,"ampionship":1849,"ison":1850,"Ġcareer":1851,"Ġproject":1852,"ĠSec":1853,"ĠMin":1854,"xi":1855,"Ġident":1856,"Ġbound":1857,"Ġbest":1858,"ille":1859,"omet":1860,"Ġinterest":1861,"Ġmanag":1862,"Al":1863,"ugg":1864,"ipp":1865,"ertain":1866,"ends":1867,"Ġel":1868,"gor":1869,"ribution":1870,"Ġopp":1871,"eed":1872,"augh":1873,"See":1874,"ĠSy":1875,"Ġbirths":1876,"Ġtest":1877,"ole":1878,"Ġpost":1879,"Ġfinal":1880,"ĠPart":1881,"ilar":1882,"Ġspace":1883,"hest":1884,"century":1885,"cit":1886,"Ġinformation":1887,"sk":1888,"Ġtem":1889,"ief":1890,"ze":1891,"Ġcar":1892,"aced":1893,"Ġthough":1894,"rench":1895,"eder":1896,"Ġinit":1897,"lection":1898,"idd":1899,"ĠMc":1900,"\\,":1901,"Ġfilms":1902,"Ġmember":1903,"ler":1904,"ured":1905,"space":1906,"Ġcrit":1907,"As":1908,"ances":1909,"ource":1910,"Americ":1911,"Ġperiod":1912,"def":1913,"ĠArm":1914,"ĠPar":1915,"rem":1916,"levision":1917,"ino":1918,"Ġanother":1919,"ĠMed":1920,"ify":1921,"Ġu":1922,"2000":1923,"âĢĶ":1924,"'t":1925,"not":1926,"Ġopt":1927,"Ġbegan":1928,"2005":1929,"Ġtown":1930,"ĠHis":1931,"ries":1932,"Ġbusiness":1933,"Ġold":1934,"osp":1935,"60":1936,"Ġaff":1937,"Ġbeh":1938,"Ġnational":1939,"...":1940,"ector":1941,"ators":1942,"Ġtot":1943,"Ġsum":1944,"Ġeduc":1945,"ese":1946,"Ġfre":1947,"ij":1948,"189":1949,")$.":1950,"Ġshort":1951,"reg":1952,"ule":1953,"ĠYou":1954,"Ġcharacter":1955,"Ġgood":1956,"Ġheld":1957,"where":1958,"Ġhistory":1959,"rew":1960,"ĠAfter":1961,"Ġrese":1962,"ana":1963,"ead":1964,"Ġimp":1965,"Ġconc":1966,"ĠWest":1967,"raft":1968,"cdot":1969,"Ġparticular":1970,"ental":1971,"}}\\":1972,"ĠNo":1973,"ume":1974,"ĠGeor":1975,"ground":1976,"though":1977,"Ġtook":1978,"lin":1979,"Ġinclude":1980,"aper":1981,"ĠHar":1982,"urg":1983,"uk":1984,"adem":1985,"Ġinvest":1986,"ĠAb":1987,"ĠAfric":1988,"atch":1989,"Ġparam":1990,"Ġyour":1991,"Ġprom":1992,"ĠBar":1993,"Ġ/":1994,"}[":1995,"Ġnamed":1996,"ĠThere":1997,"ivid":1998,"ero":1999,"ĠEnglish":2000,"Ġpopulation":2001,"ches":2002,"Ġenergy":2003,"oor":2004,"Ġ$(":2005,"ĠEl":2006,"American":2007,"Ġprofess":2008,"ĠJapan":2009,"Ã¡":2010,"ĠDist":2011,"ĠĠĊ":2012,"ced":2013,"alf":2014,"ĠSw":2015,"ges":2016,"Ġestablished":2017,"co":2018,"Ġexample":2019,"âĢľ":2020,"Ġbas":2021,"ination":2022,"Ġinf":2023,"Ġvalue":2024,"ruction":2025,"Ġprevious":2026,"Ġdeb":2027,"eqnarray":2028,"ploy":2029,"Ġwithout":2030,"ociation":2031,"Ġmust":2032,"Ġdel":2033,"ondon":2034,"Ġcountry":2035,"Ġchildren":2036,"Ġsk":2037,"ĠSe":2038,"ĠPres":2039,"ĠRuss":2040,"eak":2041,"Ġcr":2042,"ald":2043,"2004":2044,"Ġhig":2045,"Ġauthor":2046,"Ġclub":2047,"ĠCor":2048,"Ġbook":2049,"aul":2050,"epsilon":2051,"Ġhouse":2052,"2021":2053,"iron":2054,"Ġdescribed":2055,"includ":2056,"anguage":2057,"ention":2058,"rown":2059,"respond":2060,"Ġallow":2061,"$$":2062,"Ġjo":2063,"ington":2064,"Ġgrad":2065,"ĠCollege":2066,"iet":2067,"Ġcamp":2068,"Ġsit":2069,"Ġlocated":2070,"umb":2071,"ww":2072,"Ġfive":2073,"ford":2074,"ivision":2075,"sq":2076,"Ġintro":2077,"Ġchang":2078,"Ġreceived":2079,"}_{\\":2080,"Com":2081,"Ġnext":2082,"Ġstre":2083,"Om":2084,"Ġsection":2085,",âĢĿ":2086,"80":2087,"ĠBut":2088,"ilitary":2089,"esp":2090,"Ġabove":2091,"Ġimportant":2092,"Ġage":2093,"Ġvill":2094,"Ġconn":2095,"Ġ:":2096,"ĠRec":2097,"ards":2098,"ger":2099,"ope":2100,"lim":2101,"Ġep":2102,"Ġactiv":2103,"ĠAm":2104,"Ġinvol":2105,"Ġfew":2106,"ged":2107,"An":2108,"Ġpublished":2109,"Ġtotal":2110,"ification":2111,"Ġsix":2112,"Ġstudy":2113,"ument":2114,"aint":2115,"Ġsimilar":2116,"ĠAct":2117,"Ġgames":2118,"Ġturn":2119,"wh":2120,"Ġla":2121,"sim":2122,"ĠFig":2123,"Ġgreat":2124,"ouncil":2125,"eal":2126,"ones":2127,"Ġhold":2128,"Gamma":2129,"empt":2130,"35":2131,"artment":2132,"psi":2133,"ological":2134,"^*":2135,"angle":2136,"Ġcentury":2137,"ooks":2138,"45":2139,"Ġden":2140,"ĠLondon":2141,"eneral":2142,"xim":2143,"Ġmillion":2144,"Ġserved":2145,"etwork":2146,"Ġcle":2147,"Pro":2148,"atter":2149,"ideo":2150,"Ġthird":2151,"psilon":2152,"mbol":2153,"arried":2154,"Omega":2155,"icle":2156,"Ġestim":2157,"Ġstation":2158,"ways":2159,"Ġamong":2160,"ape":2161,"Ġrepl":2162,"ĠIf":2163,"Ġbeg":2164,"31":2165,"ĠEn":2166,"urb":2167,"istic":2168,")$,":2169,"Ġdeg":2170,"imens":2171,"aff":2172,"Ġoften":2173,"Ġwant":2174,"earch":2175,"estern":2176,"Ġfac":2177,"Ġcal":2178,"Ġbuilt":2179,"ĠAir":2180,"ĠDav":2181,"li":2182,"ĠHouse":2183,"field":2184,"chi":2185,"Ġoriginal":2186,"ĠWilliam":2187,"ĠBy":2188,"Ġlearn":2189,"Ġborn":2190,"Ġtimes":2191,"ĠArt":2192,"umber":2193,"Ġmen":2194,"bl":2195,"fic":2196,"be":2197,"Ġwater":2198,"ched":2199,"Ġservice":2200,"oph":2201,"Ġhere":2202,"Ġlow":2203,"sequ":2204,"color":2205,"atures":2206,"ĠHigh":2207,"ĠFrench":2208,"Ġpoints":2209,"Ġsat":2210,"rick":2211,"self":2212,"arent":2213,"Un":2214,"Ġscal":2215,"Ġside":2216,"ights":2217,"vare":2218,"ories":2219,"Ġvol":2220,"Ġsay":2221,"Ġcorrespond":2222,"2003":2223,"ush":2224,"Ġbre":2225,"esc":2226,"ĠDep":2227,"ĠHer":2228,"Ġcover":2229,"Ġproduct":2230,"Ġexist":2231,"sqrt":2232,"mit":2233,"rest":2234,"ociety":2235,"ources":2236,"Ġbuilding":2237,"Ġcomb":2238,"Ġet":2239,"abor":2240,"Ġclaim":2241,"Ġdi":2242,"Ġfull":2243,"ront":2244,"Ġview":2245,"\">":2246,"Ġ${\\":2247,"rak":2248,"Ġless":2249,"Ġcommunity":2250,"center":2251,"Ġdeterm":2252,"ĠComp":2253,"stand":2254,"hel":2255,"Ġincluded":2256,"Ġair":2257,"Ġide":2258,"Ġwar":2259,"yl":2260,"Ġinteg":2261,"Ġstrong":2262,"70":2263,"Ġfore":2264,"iber":2265,"acks":2266,"ĠInternational":2267,"ĠPark":2268,"iction":2269,"Ġshows":2270,"))":2271,"Ġder":2272,"Ġregion":2273,"Ġrole":2274,"ĠBro":2275,"varepsilon":2276,"ble":2277,"aken":2278,"Ġcult":2279,"rap":2280,"inning":2281,"Ġcomput":2282,"ĠGl":2283,"33":2284,"Ġbecome":2285,"back":2286,"ctions":2287,"raphics":2288,"ĠAng":2289,"2002":2290,"://":2291,"uation":2292,"rightarrow":2293,"lected":2294,"off":2295,"Ġaver":2296,"Ġspecial":2297,"ither":2298,"Ġmean":2299,"ecut":2300,"ithm":2301,"orts":2302,"Ġresearch":2303,"refore":2304,"eters":2305,"Ġpract":2306,"Ġarch":2307,"Ġspecies":2308,"Ġdevelopment":2309,"ĠčĊ":2310,"Ġlet":2311,"Ġfurther":2312,"ĠSch":2313,"na":2314,"Ġphot":2315,"oper":2316,"unic":2317,"Ġpot":2318,"Ġcontrol":2319,"subsection":2320,"Ġsignific":2321,"ensure":2322,"ending":2323,"Ġindivid":2324,"Ġworks":2325,"ĠDistrict":2326,"iforn":2327,"odes":2328,"ĠItal":2329,"Ġthink":2330,"onst":2331,"}=":2332,"AR":2333,"Ġgrow":2334,"Ġstates":2335,"Ġpropos":2336,"Ġphys":2337,"^{(":2338,"2001":2339,"ique":2340,"ising":2341,"Ġterms":2342,"Ġyoung":2343,"otes":2344,"Ġcommon":2345,"idence":2346,"Ġtelevision":2347,"}^{\\":2348,"rag":2349,"ĠChampionship":2350,"ĠGerman":2351,"ĠAg":2352,"ĠPhil":2353,"Ġobject":2354,"Ġemploy":2355,"ably":2356,"Ġdiscuss":2357,"textbf":2358,"Ġfund":2359,"hold":2360,"ocus":2361,"ifornia":2362,"ependent":2363,"Ġeconom":2364,"ournal":2365,"ius":2366,"ogn":2367,"Ġsocial":2368,"ama":2369,"osition":2370,"Ġins":2371,"188":2372,"flu":2373,"Ġvarious":2374,"Ġrelations":2375,"aps":2376,"90":2377,"Ġplayer":2378,"Ġposition":2379,"rant":2380,"ĠOne":2381,"Ġhealth":2382,"ampl":2383,"Ġhaving":2384,"minist":2385,"Ġ\\,":2386,"Ġdon":2387,"ailable":2388,"bm":2389,"''":2390,")=":2391,"ĠTo":2392,"Ġdied":2393,"ĠThese":2394,"de":2395,"itor":2396,"Ġlook":2397,"Ġant":2398,"Ġcou":2399,"Ġshown":2400,"lymp":2401,"viron":2402,"Ġinternational":2403,"ours":2404,"AS":2405,"ning":2406,"duce":2407,"Ġfeature":2408,"imal":2409,"Ġpri":2410,"ivil":2411,"Ġwritten":2412,"Ġeas":2413,"Ġkill":2414,"attle":2415,"75":2416,"ĠMich":2417,"Ġmot":2418,"aption":2419,"oid":2420,"):":2421,"lex":2422,"Ġpossible":2423,"Ġalign":2424,"Ġstyle":2425,"Ġpred":2426,"rated":2427,"ensity":2428,"rain":2429,"ials":2430,"ĠPer":2431,"Ġcho":2432,"Ġcame":2433,"oon":2434,"ength":2435,"Ġtitle":2436,"cul":2437,"iles":2438,"ĠCour":2439,"Ġtype":2440,"Ġstory":2441,"play":2442,"ĠCup":2443,"ops":2444,"ties":2445,"ĠPresident":2446,"inally":2447,"Ġstudents":2448,"etic":2449,"ude":2450,"rangle":2451,"Ġhistor":2452,"cm":2453,"ĠIndian":2454,"ounced":2455,"Ġcoll":2456,"includeg":2457,"includegraphics":2458,"face":2459,"iff":2460,"Ġexpress":2461,"Ġchange":2462,"ER":2463,"Ġfree":2464,"ĠCalifornia":2465,"my":2466,"dom":2467,"mod":2468,"ridge":2469,"Ġpriv":2470,"useum":2471,"ormal":2472,"Ġsw":2473,"avy":2474,"Ġaut":2475,"Ġpolitical":2476,"Ġhuman":2477,"emph":2478,"epar":2479,"Ġconsidered":2480,"ĠLa":2481,"ysis":2482,"Ġimpro":2483,"ype":2484,"ĠAmerica":2485,"Ġled":2486,"Ġfollows":2487,"Ġnorth":2488,"Ġassoci":2489,"ĠSan":2490,"Ã³":2491,"Ġport":2492,"Ġhowever":2493,"Ġson":2494,"with":2495,"oyal":2496,"caption":2497,"\\\\\\\\\\\\\\\\":2498,"ĠMon":2499,"cast":2500,"ĠEngland":2501,"Ġspect":2502,"non":2503,"ara":2504,"Ġcost":2505,"ients":2506,"ĠRepublic":2507,"now":2508,"lands":2509,"ĠMe":2510,"AT":2511,"ĠAc":2512,"36":2513,"hib":2514,"gether":2515,"Ġtogether":2516,"ixed":2517,"omb":2518,"ĠQu":2519,"Ġgen":2520,"bor":2521,"ym":2522,"Ġtw":2523,"ift":2524,"186":2525,"Ġfri":2526,"atural":2527,"Ġleast":2528,"rig":2529,"Ġavailable":2530,"ĠStre":2531,"varphi":2532,"chie":2533,"Ġvalues":2534,"Ġindust":2535,"Ġquest":2536,"Ġprim":2537,"Ġnov":2538,"1990":2539,"ĠWhen":2540,"ĠRiver":2541,"Ġversion":2542,"Ġevents":2543,"Ġsent":2544,".~\\":2545,"Ġnever":2546,"Ġsignificant":2547,"ĠAustralia":2548,"uture":2549,"Ġdays":2550,"anish":2551,"gorithm":2552,"che":2553,"ico":2554,"32":2555,"clus":2556,"Ġperformance":2557,"tab":2558,"bold":2559,"icy":2560,"Ġstarted":2561,"era":2562,"ele":2563,"Ġwent":2564,"Ġservices":2565,"Ġarg":2566,"Ġenc":2567,"most":2568,"Ġfather":2569,"Ġvillage":2570,"ĠSm":2571,"Ġproduction":2572,"34":2573,"aut":2574,"overline":2575,"Ġlight":2576,"geq":2577,"Ġapproxim":2578,"Ġsite":2579,"Ġaction":2580,"action":2581,"ael":2582,"orph":2583,"Ġwin":2584,"ĠEast":2585,"ĠIndia":2586,"Ġfocus":2587,"Ġmodels":2588,"Ġbelie":2589,"vironment":2590,"roll":2591,"hern":2592,"ux":2593,"Ġsouth":2594,"BC":2595,"proof":2596,"Ġlate":2597,"ica":2598,"acy":2599,"Ġworking":2600,"Ġmultip":2601,"Ġestablish":2602,"Ġquant":2603,"Con":2604,"upp":2605,"1999":2606,"time":2607,"log":2608,"Ġstructure":2609,"Ġput":2610,"hers":2611,"uel":2612,"Ġapplic":2613,"asing":2614,"Ġplan":2615,"Ġred":2616,"Ġsize":2617,"&\\":2618,"Ġstar":2619,"ĠParty":2620,"Ġacross":2621,"obal":2622,"IN":2623,"Ġdistrict":2624,"Sp":2625,"Ġdefined":2626,"ĠChurch":2627,"rary":2628,"Ġproduced":2629,"ST":2630,"ĠWith":2631,"Ġsold":2632,"Ġcreated":2633,"aries":2634,"ÃŃ":2635,"Ġgroups":2636,"38":2637,"Ġaverage":2638,"Big":2639,"eh":2640,"ander":2641,"Ġmoved":2642,"Ġmeet":2643,"Ġcirc":2644,"Ġround":2645,",\"":2646,"rate":2647,"Ġgoing":2648,"ects":2649,"Ġpo":2650,"Living":2651,"Ġprovide":2652,"Ġreview":2653,"ĠCanada":2654,"Ġseen":2655,"ett":2656,"People":2657,"eep":2658,"aining":2659,"ynam":2660,"alt":2661,")^":2662,"Ġweek":2663,"no":2664,"irl":2665,"Ġhalf":2666,"utions":2667,"ference":2668,"irm":2669,"Ġcross":2670,"ership":2671,"itte":2672,"arian":2673,"Ġcomplex":2674,"Ġcases":2675,"ached":2676,"Ġindic":2677,"Ġsurv":2678,"Ġmaking":2679,"Ġengine":2680,"Ġmater":2681,"Ġsepar":2682,"mmet":2683,"ĠAward":2684,"isf":2685,"ĠCouncil":2686,"Ġannounced":2687,"ĠDr":2688,"Ġrange":2689,"oted":2690,"Ġparticip":2691,"Ġbi":2692,".}":2693,"Ġhost":2694,"ements":2695,"48":2696,"ĠEuropean":2697,"ID":2698,"urity":2699,"ney":2700,"Ġfem":2701,"Ġfail":2702,"ĠFrance":2703,"Ã¼":2704,"ĠBer":2705,"Ġable":2706,"Ġdistribution":2707,"ĠInstit":2708,"ilities":2709,"Ġaward":2710,"ii":2711,"Ġpresident":2712,"wide":2713,"olic":2714,"Ġtraining":2715,"ware":2716,"1998":2717,"ĠâĢĺ":2718,"**":2719,"Ġtheory":2720,"Ġaccess":2721,"ĠCourt":2722,"ĠApp":2723,"Let":2724,"Ġhom":2725,"ha":2726,"Ġself":2727,"iment":2728,"Ġvideo":2729,"99":2730,"ĠÂ":2731,"uggest":2732,"},\\":2733,"ocr":2734,"iting":2735,"37":2736,"ams":2737,"Ġcaus":2738,"Ġnetwork":2739,"Ġmiss":2740,"II":2741,"new":2742,"Ġoffer":2743,"ĠStud":2744,"Ġworked":2745,"year":2746,"iddle":2747,"anies":2748,"error":2749,"ĠLaw":2750,"ĠTr":2751,"Ġsystems":2752,"}).":2753,"Ġmilitary":2754,"Ġ`":2755,"Cl":2756,"order":2757,"ecess":2758,"Ġbecom":2759,"ceed":2760,"rote":2761,"Ġground":2762,"ĠVal":2763,"ĠPal":2764,"ĠJames":2765,"Ġagre":2766,"Ġdeaths":2767,"Ġblack":2768,"ula":2769,"ving":2770,"cle":2771,"Ġaccount":2772,"Ġbroad":2773,"ĠBel":2774,"ĠChina":2775,"Ġconsist":2776,"Ġothers":2777,"Ġmeasure":2778,"Ġneg":2779,"Ġmale":2780,"ĠSen":2781,"imum":2782,"Ġtaken":2783,"ĠAnt":2784,"CA":2785,"Ġelection":2786,"ells":2787,"ster":2788,"ĠArmy":2789,"Ġmeans":2790,"Ġmagn":2791,"ĠAcc":2792,"ills":2793,"Ġche":2794,"ament":2795,"oe":2796,"Ġeducation":2797,"Ġviol":2798,"Ġbetter":2799,"[\\":2800,"Ġsom":2801,"bra":2802,"Ġsuggest":2803,"hline":2804,"orthern":2805,"ĠOlymp":2806,"History":2807,"rab":2808,"ederal":2809,"44":2810,"Ġrate":2811,"ems":2812,"Ġlower":2813,"ĠPaul":2814,"Ġdoc":2815,"itz":2816,"Ġkey":2817,"ĠChar":2818,"1980":2819,"ĠGeneral":2820,"ville":2821,"frak":2822,"Ġpaper":2823,"Ġmatch":2824,"Ġinflu":2825,"Ġlik":2826,"Ġpopular":2827,"ĠMor":2828,"ĠRober":2829,"Ġtre":2830,"Ġmer":2831,"bsite":2832,"ĠPort":2833,"ĠThom":2834,"see":2835,"Ġdetail":2836,"ĠDem":2837,"bit":2838,"incip":2839,"cer":2840,"Ġdiv":2841,"ĠMy":2842,"1996":2843,"Ġproduc":2844,"Ġconv":2845,"Lambda":2846,"vec":2847,"ashington":2848,"itional":2849,"----":2850,"gress":2851,"Ġrul":2852,"Ġhigher":2853,"Ġeither":2854,"cy":2855,"Ġsequ":2856,"Ġfeatures":2857,"ĠFirst":2858,"2022":2859,"Ġappoint":2860,"atives":2861,"uf":2862,"Ġhy":2863,"ĠStreet":2864,"Ġtoo":2865,"ĠMal":2866,"Ġachie":2867,"dd":2868,"Ġhard":2869,"}}$":2870,"Ġreported":2871,"Ġapproach":2872,"head":2873,"187":2874,"55":2875,"ĠSo":2876,"Ġareas":2877,"Ġepis":2878,"Pl":2879,"Ġloss":2880,"Ġship":2881,"1997":2882,"Ġattempt":2883,"ĠCenter":2884,"39":2885,"Ġrecogn":2886,"Ġhapp":2887,"outher":2888,"Ġill":2889,"ĠRoman":2890,"ĠAssociation":2891,"rim":2892,"ago":2893,"arth":2894,"ĠRed":2895,"ĠDavid":2896,"ĠThen":2897,"Ġdev":2898,"Ġpay":2899,"ĠGeorge":2900,"itect":2901,"Ġaway":2902,"Ġfar":2903,"Ġassum":2904,"ĠServ":2905,"hood":2906,"Ġpotential":2907,"ili":2908,"Ġmarket":2909,"Ġ#":2910,"Ġhon":2911,"ception":2912,"Ġalways":2913,"langle":2914,"Ġmax":2915,"atory":2916,"outhern":2917,"aign":2918,"Ġsem":2919,"Ġpast":2920,"ldots":2921,"Ġbase":2922,"sel":2923,"Ġobtained":2924,"mon":2925,"iding":2926,"ready":2927,"ĠQue":2928,"ĠDepartment":2929,"Ġcertain":2930,"Ġattack":2931,"Ġmom":2932,"based":2933,"Ġdebut":2934,"ya":2935,"sm":2936,"leg":2937,"ON":2938,"ĠHol":2939,"ĠRich":2940,"mathfrak":2941,"ibility":2942,"ables":2943,"Ġlanguage":2944,"lying":2945,"ota":2946,"Ġpress":2947,"Ġdirector":2948,"49":2949,"Ps":2950,"raz":2951,"Ġwrote":2952,"Ġ)":2953,"Ġlive":2954,"ittee":2955,"Ġgive":2956,"otimes":2957,"Ġcome":2958,"Ġcontract":2959,"inition":2960,"utes":2961,"aring":2962,"ocal":2963,"65":2964,"Ġprovided":2965,"uff":2966,"Ġfuture":2967,"Ġdest":2968,"inary":2969,"airs":2970,"isl":2971,"Ġregular":2972,"Ġben":2973,"By":2974,"rav":2975,"Ġmarried":2976,"Ġpolitic":2977,"Ġfrequ":2978,"erman":2979,"Ġconditions":2980,"appa":2981,"ensuremath":2982,"Ġparty":2983,"symbol":2984,"ania":2985,"Ġanalysis":2986,"ĠLou":2987,"mar":2988,"Ġabs":2989,"Ġmight":2990,"Ar":2991,"Ġsuper":2992,"Phi":2993,"icles":2994,"unicip":2995,"Ġdeveloped":2996,"ky":2997,"Ġcompon":2998,"ateg":2999,"Ġpur":3000,"sf":3001,"Ġsatisf":3002,"Sh":3003,"ĠGermany":3004,"och":3005,"elling":3006,"After":3007,"ĠPat":3008,"ĠThat":3009,"pper":3010,"1995":3011,"Ġclose":3012,"Ġstandard":3013,"Ġdegree":3014,"Ġdensity":3015,"ĠWashington":3016,"ĠBlack":3017,"Ġrac":3018,"umer":3019,"ĠRoyal":3020,"ecutive":3021,"Ġinvestig":3022,"ked":3023,"Ġbody":3024,"Ġdou":3025,"Ġcy":3026,"ĠUnion":3027,"ĠEurope":3028,"Ġcourt":3029,"ĠHall":3030,"Ġconduct":3031,"Ġroad":3032,"Ġjoined":3033,"ida":3034,"Ġtreat":3035,"ĠJos":3036,"ĠSim":3037,"aves":3038,"reek":3039,"47":3040,"nder":3041,"wood":3042,"berg":3043,"Ġrev":3044,"inter":3045,"Ġbig":3046,"Ġge":3047,"Ġ--":3048,"oms":3049,"||":3050,"Ġtemper":3051,"Ġbelow":3052,"1970":3053,"46":3054,"Ġsubject":3055,"Ġonce":3056,"ĠVir":3057,"To":3058,"chan":3059,"ened":3060,"Ġalready":3061,"Ġthus":3062,"ĠSum":3063,"Ġrights":3064,"ortun":3065,"Ġchurch":3066,"rian":3067,"Ã¶":3068,"Ġfig":3069,"ĠHam":3070,"ĠDivision":3071,"Ġlost":3072,"1994":3073,"boldsymbol":3074,"aches":3075,"asons":3076,"sw":3077,"==":3078,"Ġtext":3079,"gin":3080,"ĠCompany":3081,"ription":3082,"ĠVol":3083,"ault":3084,"Ġmid":3085,"Ġtrack":3086,"05":3087,"Ġfunctions":3088,"ensive":3089,"ĉĉĉĉ":3090,"band":3091,"Ġoffice":3092,"Ġliter":3093,"ĠInstitute":3094,"mbox":3095,"circ":3096,"Ġcompanies":3097,"Ġvia":3098,"Ġrespons":3099,"ĠFrom":3100,"ston":3101,"ki":3102,"ani":3103,"amples":3104,"})$":3105,"Ġwid":3106,"Ġprofessional":3107,"ĠDon":3108,"Ġproperty":3109,"medi":3110,"Ġaccording":3111,"ump":3112,"Ġgraph":3113,"add":3114,"ishing":3115,"itar":3116,".\\":3117,"Ġrespectively":3118,"1992":3119,"exp":3120,"subset":3121,"citep":3122,"Ġmonths":3123,"ĠLet":3124,"ĠUK":3125,"Ġrail":3126,"ĠMary":3127,"andid":3128,"Ġclos":3129,"ĠMart":3130,"Ġassociated":3131,"eared":3132,"annel":3133,"nown":3134,"Ġwhose":3135,"Ġrequire":3136,"ĠEm":3137,"Ġadminist":3138,"Ġnumer":3139,"Ġrelated":3140,"ĠGroup":3141,"Ġmag":3142,"Ġconstruction":3143,"Ġvict":3144,"ras":3145,"Ġalgorithm":3146,"ĠCong":3147,"Ġcontinued":3148,"Ġreturned":3149,"ĠMount":3150,"ĠĠĠĠĠĠĠĠĠĠĠĠĠĠĠ":3151,"Ġreally":3152,"Ġdefe":3153,"que":3154,"ES":3155,"Ġlittle":3156,"There":3157,"Ġentire":3158,"textit":3159,")(":3160,"ades":3161,"ulations":3162,"oul":3163,"nabl":3164,"Ġdom":3165,"',":3166,"Ġlo":3167,"Ġsongs":3168,"1993":3169,"Ġconstant":3170,"New":3171,"........":3172,"Ġwebsite":3173,"imate":3174,"ulated":3175,"ĠAustralian":3176,"ĠCont":3177,"Ġrather":3178,"ids":3179,"Ġemb":3180,"bert":3181,"inese":3182,"Ġwr":3183,"ĠMark":3184,"ht":3185,"arc":3186,"Ġpositive":3187,"org":3188,"01":3189,"Ġleading":3190,"bb":3191,"ĠMusic":3192,"ores":3193,"Ġprivate":3194,"Ġrelease":3195,"kappa":3196,"nonumber":3197,"If":3198,"rael":3199,"ĠMex":3200,"Ġten":3201,"Ġlines":3202,"Ġlimit":3203,"ĠAcadem":3204,"Ġarr":3205,"Ġrequired":3206,"itch":3207,"alls":3208,"AN":3209,"ctor":3210,"ĠDuring":3211,"Ġcontribut":3212,"Ġmem":3213,"ĠSociety":3214,"gcolor":3215,"Ġassist":3216,"Ġ>":3217,"nabla":3218,"Ġsolution":3219,"ĠPress":3220,"Ġreason":3221,"}),":3222,"aur":3223,"uild":3224,"Ġinitial":3225,"Ġcontinu":3226,"cor":3227,"rd":3228,"Ġsays":3229,"ĠCons":3230,"Ġcountries":3231,"AC":3232,"Ġindependent":3233,"Ġopened":3234,"gen":3235,"eph":3236,"ĠÃ":3237,"Ġsuccessful":3238,"gl":3239,"Ġwind":3240,"riate":3241,"ayer":3242,"ĠGod":3243,"Ġmother":3244,"Ġalmost":3245,"Ġpath":3246,"Ġwhether":3247,"mult":3248,"ĠSince":3249,"ires":3250,"Ġtax":3251,"itude":3252,"âĢ¦":3253,"Ġbrother":3254,"onse":3255,"Ġteams":3256,"Ġmedia":3257,"Ġperformed":3258,"Ġproposed":3259,"Ġcondition":3260,"ees":3261,"Ġnovel":3262,"Ġjud":3263,"ections":3264,"aching":3265,"istics":3266,"At":3267,"Ġincludes":3268,"Ġsound":3269,"Ġlaun":3270,"ellow":3271,"ĠTrans":3272,"ĠMore":3273,"__":3274,"Ġnatural":3275,"Ġconstruct":3276,"izing":3277,"Ġvert":3278,"Ġnecess":3279,"ein":3280,"cont":3281,"ĠNor":3282,"den":3283,"box":3284,"ĠRoad":3285,"iament":3286,"185":3287,"Ġhimself":3288,"Ġimpl":3289,"Ġwife":3290,"dis":3291,"Ġdaugh":3292,"Ġpain":3293,"Ġtrue":3294,"1991":3295,"asket":3296,"Ġcut":3297,"Ġunderstand":3298,"Ġupon":3299,"umni":3300,"Ġrace":3301,"Ġconcern":3302,"Ġenvironment":3303,"Ġschools":3304,"Ġliving":3305,"ivity":3306,"\\%":3307,"ption":3308,"Ġser":3309,"Ġrank":3310,".)":3311,"itt":3312,"arget":3313,"ounter":3314,"}}{":3315,"Ġcentral":3316,"Ind":3317,"thm":3318,"Ġmodern":3319,"ĠAfrican":3320,"ĠCath":3321,"ites":3322,"ĠGreen":3323,"ka":3324,"ĠDi":3325,"plement":3326,"Ġrelig":3327,"Ġbgcolor":3328,"Ġtry":3329,"ething":3330,"ĠJew":3331,"Ġsource":3332,"Ġhous":3333,"iers":3334,"Ġfront":3335,"ĠTV":3336,"ranch":3337,"Ġcampaign":3338,"Ġpers":3339,"ming":3340,"Ġlength":3341,"pd":3342,"ender":3343,"arter":3344,"ĠHen":3345,"arily":3346,"Ġgovern":3347,"ream":3348,"Ġmatrix":3349,"Ġcop":3350,"ĠArch":3351,"Sc":3352,"Ġcourse":3353,"aged":3354,"Ġmap":3355,"ĠSl":3356,"Ġadditional":3357,"95":3358,"IS":3359,"ĠCap":3360,"Ġneigh":3361,"\\|":3362,"Ġcompleted":3363,"tr":3364,"Ġregard":3365,"ĠCanadian":3366,"Ġrecorded":3367,"urk":3368,"ĠIsland":3369,"Ġphase":3370,"ĠMiss":3371,"Ġalthough":3372,"Ġstage":3373,"dots":3374,"Ġang":3375,"ĠAngel":3376,"ĠIm":3377,"eff":3378,"ĠLem":3379,"Ġgot":3380,"nel":3381,"ĠAfrica":3382,"Ġaccept":3383,"ĠSer":3384,"ecially":3385,"Ġparent":3386,"Ġbehav":3387,"lor":3388,"Ġdeal":3389,"Ġprincip":3390,"ises":3391,"ĠClub":3392,"thing":3393,"Ġprop":3394,"1960":3395,"ospital":3396,"roy":3397,"Ġoccur":3398,"estival":3399,"ĠTex":3400,"Sigma":3401,"Ġfight":3402,"Ġofficial":3403,"Ġchall":3404,"ucle":3405,"go":3406,"Ġequation":3407,"ension":3408,"Ġadded":3409,"quare":3410,"Ġgoal":3411,"ancial":3412,"uit":3413,"Ġmar":3414,"Ġinj":3415,"style":3416,"64":3417,"Ġtaking":3418,"Ġdirected":3419,"Ġindividual":3420,"Ġintroduced":3421,"like":3422,"Ġrelationship":3423,"ĠNe":3424,"\\[":3425,"racy":3426,"Ġradio":3427,"Ġboard":3428,"used":3429,"};":3430,"Ġcandid":3431,"Ġenough":3432,"Ġcalcul":3433,"ficult":3434,"edy":3435,"Ġacqu":3436,"ĠInter":3437,"burg":3438,"istry":3439,"Ġparameters":3440,"Ġpercent":3441,"Ġkeep":3442,"Ġthings":3443,"ĠBay":3444,"rup":3445,"ĠKh":3446,"Ġinvolved":3447,"olit":3448,"tic":3449,"Ġpe":3450,"which":3451,"Ġqual":3452,"iences":3453,"Ġaud":3454,"htt":3455,"lied":3456,"Ġsigned":3457,"rey":3458,"Ġlargest":3459,"ona":3460,"ĠChristian":3461,"ĠBr":3462,"isions":3463,"Ġearl":3464,"ĠProv":3465,"Ġfire":3466,"eck":3467,"ĠSing":3468,"Ġlog":3469,"ĠList":3470,"unction":3471,"iter":3472,"ĠRev":3473,"ini":3474,"uated":3475,"Ġformed":3476,"Ġkind":3477,"ĠKingdom":3478,"/\\":3479,"Ġappeared":3480,"Ġconstit":3481,"Ġesp":3482,"Ġfav":3483,"enced":3484,"ĠDirect":3485,"Ġsuff":3486,"atal":3487,"ĠRobert":3488,"Wh":3489,"ĠTown":3490,"Ġinstit":3491,"fess":3492,"Ġplaying":3493,"Ġdone":3494,"draw":3495,"Ġinstead":3496,"Ġtransfer":3497,"Ġshall":3498,"Ġdimens":3499,"OR":3500,"ordin":3501,"ĠMuseum":3502,"ensus":3503,"Ġcorresponding":3504,"ĠSal":3505,"1989":3506,"lant":3507,"ĠMr":3508,"Ġthroughout":3509,"\\!":3510,"Ġimage":3511,"Ph":3512,"ĠWhile":3513,"Ġsurface":3514,"Ġlarger":3515,"andom":3516,"ĠRussian":3517,"Ġdifficult":3518,"table":3519,"atrix":3520,"uz":3521,"Ġissues":3522,"rec":3523,"down":3524,"ĠSam":3525,"Ġprior":3526,"Ġrock":3527,"ĠSection":3528,"Ġq":3529,"Ġarchitect":3530,"ĠGreat":3531,"ria":3532,"Ġpolice":3533,"igen":3534,"Ġcast":3535,"ĠLeg":3536,"ĠCentral":3537,"ĠFranc":3538,"Ġter":3539,"ibrary":3540,"ledge":3541,"Ġfounded":3542,"ĠThomas":3543,"ĠMont":3544,"Ġbooks":3545,"Ġeight":3546,"Ġelected":3547,"Ġquestion":3548,"Ġtransl":3549,"Ġever":3550,"ands":3551,"idents":3552,"ĠYear":3553,"prop":3554,"Ġjob":3555,"Ġexperience":3556,"ĠHistor":3557,"ĠAlex":3558,"500":3559,"ĠMad":3560,"ĠJapanese":3561,"Ġamount":3562,"ĠMinister":3563,"Fig":3564,"ults":3565,"Ġindustry":3566,"ĠBest":3567,"ilies":3568,"Ġcapt":3569,"ĠMichael":3570,"ports":3571,"Ġmoment":3572,"Ġalbums":3573,"Ġwhite":3574,"Ġdiscover":3575,"cell":3576,"Ġvir":3577,"igned":3578,"Ġchanges":3579,"Ġcenter":3580,"ĠWestern":3581,"isk":3582,"ought":3583,"ducation":3584,"ura":3585,"Ġ@":3586,"1988":3587,"asketball":3588,"Ġlot":3589,"Ġelements":3590,"ĠChinese":3591,"ĠAcademy":3592,"Ġstudies":3593,"08":3594,"ĠCO":3595,"olf":3596,"Ġclosed":3597,"ĠScott":3598,"opp":3599,"Ġcivil":3600,"Ġappointed":3601,"ĠGold":3602,"Ġbirth":3603,"42":3604,"widet":3605,"irection":3606,"Ġpolicy":3607,"rish":3608,"icro":3609,"known":3610,"ala":3611,"Ġlabel":3612,"ĠWhite":3613,"Ġgave":3614,"Ġunit":3615,"Ġfollowed":3616,"Ġdesigned":3617,"ĠWil":3618,"ĠTexas":3619,"Ġdepend":3620,"ictor":3621,"Ġissue":3622,"Ġforce":3623,"Ġtoday":3624,"ĠIsrael":3625,"ĠGo":3626,"Ġmethods":3627,"class":3628,"ĠNot":3629,"Ġproof":3630,"Ġhor":3631,"}-":3632,"Ġimm":3633,"Ġitself":3634,"Ġtro":3635,"ds":3636,"07":3637,"ĠGames":3638,"Ġsex":3639,"ĠDo":3640,"Ġlove":3641,"ĠGrand":3642,"Ġexpected":3643,"Ġincrease":3644,"Ġ()":3645,"EC":3646,"Ġfit":3647,"06":3648,"Ge":3649,"{-":3650,"Ġsomething":3651,"ĠMet":3652,"ĠVirgin":3653,"rast":3654,"Ġrat":3655,"IC":3656,"Ġdecl":3657,"Ġsaf":3658,"ĠJust":3659,"Ġpersonal":3660,"Ġcontains":3661,"Ġmoney":3662,"Ġcorre":3663,"ĠKore":3664,"Ġdocument":3665,"Ġspecific":3666,"merc":3667,"anced":3668,"Ġcurrently":3669,"ĠĠĠĠĠĠ":3670,"Ġmultiple":3671,"Ġnormal":3672,"Ġimpact":3673,"bers":3674,"Ġaddress":3675,"ĠRad":3676,"ĠCarol":3677,"Ġtravel":3678,"ĠMac":3679,"Ġ``":3680,"ĠDay":3681,"omorph":3682,"board":3683,"anks":3684,"85":3685,"widetilde":3686,"Ġcomplete":3687,"writ":3688,"ĠLouis":3689,"ĠOff":3690,"Ġstri":3691,"wise":3692,"reland":3693,"Ġmakes":3694,"()":3695,"Ġpresented":3696,"Ġespecially":3697,"Ġdecision":3698,"Ġimplement":3699,"->":3700,"ĠRecords":3701,"Ġbo":3702,"Ġbenef":3703,"Ġnight":3704,"List":3705,"ĠCommission":3706,"Ġrecent":3707,"usp":3708,"ĠDef":3709,"Ġtour":3710,"ĠFilm":3711,"more":3712,"Ġparts":3713,"Ġconver":3714,"Ġdam":3715,"Ġleague":3716,"Ġclear":3717,"tact":3718,"Ġbreak":3719,"Ġproperties":3720,"Ġforces":3721,"ĠDemocr":3722,"izations":3723,"centering":3724,"cap":3725,"ĠTra":3726,"ada":3727,"ĠMus":3728,"ĠMer":3729,"ena":3730,"azine":3731,"span":3732,"Ġsup":3733,"Ġoutside":3734,"ĠMag":3735,"43":3736,"asc":3737,"66":3738,"ms":3739,"www":3740,"ests":3741,"Ġeffects":3742,"ios":3743,"Res":3744,"uals":3745,"ĠCharles":3746,"ĠBill":3747,"ĠMod":3748,"Ġcollect":3749,"ression":3750,"Ġbasis":3751,"Re":3752,"\\]":3753,"ĠHow":3754,"\\{":3755,"west":3756,"Ġ($":3757,"Ġlinear":3758,"trans":3759,"Ġfeel":3760,"1987":3761,"Ġthought":3762,"Ġglobal":3763,"ros":3764,"41":3765,"Ġeast":3766,"Ġobserved":3767,"eleb":3768,"09":3769,"Ġguitar":3770,"ano":3771,"omp":3772,"Ġmus":3773,"Ġdynam":3774,"thlet":3775,"ĠScience":3776,"mark":3777,"ĠItalian":3778,"Ġjournal":3779,"aker":3780,"ĠZeal":3781,"Ġbar":3782,"bour":3783,"ario":3784,"ective":3785,"opt":3786,"Ġdram":3787,"ny":3788,"Ġinsp":3789,"raction":3790,"Ġdaughter":3791,"Col":3792,"ĠHealth":3793,"Ġsimple":3794,"SS":3795,"atively":3796,"Ġstaff":3797,"inner":3798,"cos":3799,"CC":3800,"ĠTheorem":3801,"uate":3802,"rought":3803,"Ġtherefore":3804,"ĠHistory":3805,"1986":3806,"Ġbackground":3807,"prime":3808,"Ġusually":3809,"Ġexhib":3810,"atre":3811,"zeta":3812,"Ġdistance":3813,"Ġplaces":3814,"Ġcannot":3815,"ĠZealand":3816,"Ġcapital":3817,"Ġearn":3818,"Ġop":3819,"Ġsymmet":3820,"ĠMat":3821,"Ġseven":3822,"unt":3823,"scal":3824,";\\":3825,"Ġsil":3826,")=\\":3827,"}+":3828,"ĠRail":3829,"ĠSmith":3830,"Ġevidence":3831,"Film":3832,"reme":3833,"ĠEq":3834,"88":3835,"ĠCatholic":3836,"Ġprec":3837,"Ġwest":3838,"ircraft":3839,"retary":3840,"Ġreve":3841,"Ġund":3842,"ĠTom":3843,"selves":3844,"Ġsen":3845,"Ġmechan":3846,"Ġkm":3847,"la":3848,"Ġprovides":3849,"Ġlearning":3850,"Ġcoupl":3851,"Ġfootballers":3852,"dot":3853,"tabular":3854,"Ġfall":3855,"ĠChe":3856,"istan":3857,"unk":3858,"1984":3859,"Ġequival":3860,"97":3861,"Ġkilled":3862,"Ġ//":3863,"Ġproblems":3864,"Ġbehind":3865,"oring":3866,"ĠResearch":3867,"ufact":3868,"EN":3869,"lam":3870,"Ġsubsequ":3871,"astic":3872,"All":3873,"ĠFlor":3874,"Ġfood":3875,"ĠLat":3876,"state":3877,"Ġexact":3878,"onic":3879,"Ġgives":3880,"Ġess":3881,"Ġwords":3882,"Ġfinite":3883,"Ġscient":3884,"oz":3885,"ĠOb":3886,"Ġdat":3887,"alax":3888,"Ġsoft":3889,"Ġcoach":3890,"Ġparameter":3891,"AM":3892,"ĠDan":3893,"02":3894,"oke":3895,"Ġflow":3896,"ĠCongress":3897,"ĠBen":3898,"IT":3899,"iled":3900,"Ġgas":3901,"~~":3902,"Ġemer":3903,"ĠFore":3904,"Ġbuildings":3905,"ying":3906,"essage":3907,"Ġcust":3908,"astern":3909,"Ġmatter":3910,"Ġsaw":3911,"Ġalumni":3912,"ola":3913,"1985":3914,"icago":3915,"::":3916,"ĠSome":3917,"ĠFrank":3918,"Ġresponse":3919,"Ġcreate":3920,"Ġartists":3921,"Ġrandom":3922,"pped":3923,"Ġlikely":3924,"AL":3925,"alled":3926,"Ġwriting":3927,"ĠSummer":3928,"Ġhit":3929,"Ġanaly":3930,"ares":3931,"king":3932,"ĠTor":3933,"Ġdraw":3934,"Ġplann":3935,"ometimes":3936,"Ġfactor":3937,"embly":3938,"edd":3939,"04":3940,"03":3941,"Ġexperim":3942,"Ġactive":3943,"ĠGovernment":3944,"Ġtakes":3945,"change":3946,"omm":3947,"Ġtarget":3948,"oice":3949,"ĠParis":3950,"Ġepisode":3951,"rial":3952,"top":3953,"}=\\":3954,"Ġdeep":3955,"Ġnews":3956,"encies":3957,"Ġdate":3958,"{(":3959,"erve":3960,"Ġcomplet":3961,"ĠNews":3962,"ĠPublic":3963,"Ġfemale":3964,"De":3965,"Ġcompos":3966,"ĠFound":3967,"Ġpan":3968,"comm":3969,"AP":3970,"well":3971,"Te":3972,"acc":3973,"Ġmention":3974,"ĠEv":3975,"alle":3976,"ĠFootball":3977,"}]":3978,"Ġmove":3979,"Ġsens":3980,"ilton":3981,"rep":3982,"ĠOlympics":3983,"Ġelement":3984,"Ġstated":3985,"ĠCommittee":3986,"ĠFin":3987,"Ġcred":3988,"ously":3989,"Ġstars":3990,"Ġeconomic":3991,"Ġallowed":3992,"Ġeffective":3993,"road":3994,"US":3995,"ĠPeter":3996,")^{":3997,")}\\":3998,"ĠSuper":3999,"Ġcollection":4000,"oved":4001,"Ġstudent":4002,"Ã¤":4003,"ita":4004,"ĠLos":4005,"ado":4006,"Ġwhole":4007,"Ġful":4008,"Ġscale":4009,"bre":4010,"ĠSur":4011,"Ġtemperature":4012,"ĠRichard":4013,"ĠInt":4014,"ĠDel":4015,"Ġpractice":4016,"icit":4017,"Ġunivers":4018,"Ġincreasing":4019,"Ġmaterial":4020,"98":4021,"oma":4022,"max":4023,"With":4024,"Ġtowards":4025,"Ġpreviously":4026,"Ġvector":4027,"vention":4028,"ĠMass":4029,"1950":4030,"Ġtold":4031,"ĠCamp":4032,"ml":4033,"Ġmonth":4034,"Ġmaintain":4035,"77":4036,"ĠRock":4037,"Ġunits":4038,"Ġcompared":4039,"$)":4040,"ĠRob":4041,"Ġren":4042,"ĠTechn":4043,".~":4044,"point":4045,"Ġpredict":4046,"ether":4047,"ĠIreland":4048,"1983":4049,"Ġtransport":4050,"sing":4051,"Ġlegal":4052,"uty":4053,"gebra":4054,"Ġ&=":4055,"Ġfamilies":4056,"Ġexists":4057,"Ġoperations":4058,"Ġeval":4059,"Ġculture":4060,"isation":4061,"grad":4062,"overs":4063,"Ġord":4064,"Ġeventually":4065,"elt":4066,"Ġmunicip":4067,"Ġcollege":4068,"ĠĠĠĠĠĠĠĠĠĠĠĠĠĠĠĠĠĠĠĠĠĠĠĠĠĠĠĠĠĠĠĠ":4069,"igital":4070,"Ġstep":4071,"Ġplant":4072,"ĠHill":4073,"ingu":4074,"ĠDes":4075,"pe":4076,"When":4077,"foot":4078,"Ġadj":4079,"Ġreb":4080,"Ġstations":4081,"ĠCommun":4082,"porary":4083,"Ġhtt":4084,"Ġonline":4085,"Ġdistribut":4086,"=#":4087,"iform":4088,"Ġopportun":4089,"razil":4090,"Ġimmedi":4091,"Ġdemonst":4092,"96":4093,"ooth":4094,"And":4095,"Ġunc":4096,"mercial":4097,"ĠPenn":4098,"Ġperm":4099,"Ġmount":4100,"itiz":4101,"ĠSpanish":4102,"Ġphysical":4103,"Ġoriginally":4104,"Ġscience":4105,"Ġmanagement":4106,"ply":4107,"Ġanim":4108,"ĠPri":4109,"Ġtourn":4110,"amily":4111,"ĠWomen":4112,"ĠMel":4113,"Ġdirection":4114,"aval":4115,"Ġinterp":4116,"script":4117,"Ġdirectly":4118,"ĠOffic":4119,"1982":4120,"Ġprimary":4121,"Ġbrought":4122,"Ġzero":4123,"Ġidea":4124,"anded":4125,"Ġblock":4126,"oviet":4127,"Ġbox":4128,"Ġfields":4129,"ĠBoard":4130,"ĠSecond":4131,"Ġartist":4132,"Ġremains":4133,"Ġste":4134,"sych":4135,"ils":4136,"verse":4137,"Ġcharacters":4138,"ĠAccording":4139,"Ġtechnology":4140,"rative":4141,"Eng":4142,"Acc":4143,"Ġcell":4144,"Ġcharg":4145,"ĠSant":4146,"ĠInc":4147,"\\\\\\\\\\\\\\\\\\\\\\\\\\\\\\\\":4148,"Ġfixed":4149,"ĠVictor":4150,"Ġfinancial":4151,"izes":4152,"Ġpair":4153,"}_\\":4154,"Ġactually":4155,"Bl":4156,"Ġbring":4157,"ĠÐ":4158,"Ġveh":4159,"ship":4160,"Ġfinished":4161,"ĠAnn":4162,"osen":4163,"Ġbeginning":4164,"Ġmovement":4165,"1979":4166,"ishop":4167,"emic":4168,"Ġdecided":4169,"Ġsch":4170,"Ġarticle":4171,"Ġweight":4172,"Ġoccup":4173,"oys":4174,"inct":4175,"Ġtalk":4176,"Ġorganization":4177,"igan":4178,"Ġreached":4179,"Ġbur":4180,"ĠHenry":4181,"ĠOther":4182,"Ġlisted":4183,"Ġholds":4184,"Ġnumbers":4185,"uct":4186,"uge":4187,"appro":4188,"uments":4189,"ĠVirginia":4190,"Ġ</":4191,"lv":4192,"wa":4193,"Ġuses":4194,"Ġconcept":4195,"ĠTer":4196,"Ġstudied":4197,"Ġearlier":4198,"ED":4199,"yr":4200,"cdots":4201,"Ġcommunic":4202,"Ġlimited":4203,"ĠLake":4204,"Ġdefine":4205,"Ġyet":4206,"cup":4207,"{{\\":4208,"ĉĉĉ":4209,"ĠChicago":4210,"ĠForce":4211,"orpor":4212,"67":4213,"ye":4214,"}^\\":4215,"za":4216,"Ġreplaced":4217,"Ġgold":4218,"aly":4219,"Ġsources":4220,"Ġver":4221,"ansion":4222,"uro":4223,"Ġnucle":4224,"Ġremained":4225,"Ass":4226,"Ġword":4227,"ĠGeorg":4228,"Ġlonger":4229,"ĠService":4230,"ĠMexico":4231,"Ġprem":4232,"rief":4233,"Ġclust":4234,"Ġbecomes":4235,"Ġwriter":4236,"ira":4237,"Rec":4238,"Ġaltern":4239,"olk":4240,"FL":4241,"Ġwoman":4242,"Ġsequence":4243,"Ġerror":4244,"From":4245,"iation":4246,"Ġcompar":4247,"Ġbank":4248,"ĠThus":4249,"ella":4250,"Ġmedal":4251,"Ad":4252,"Ġmedical":4253,"light":4254,"ĠSup":4255,"Ġface":4256,"Ġleader":4257,"ockey":4258,"km":4259,"58":4260,"BA":4261,"uration":4262,"Ġball":4263,"reater":4264,"ĠSte":4265,"Ġwhy":4266,"Ġorigin":4267,"68":4268,"ollowing":4269,"Ġcompetition":4270,"57":4271,"ĠFlorida":4272,"})\\":4273,"ĠBrown":4274,"Ġawarded":4275,"Ġdomin":4276,"Ġceleb":4277,"ĠArts":4278,"agon":4279,"Ġgenerally":4280,"Ġreading":4281,"Ġcritic":4282,"Ġprograms":4283,"Ġded":4284,"Ġrepresented":4285,"\")":4286,"rump":4287,"utch":4288,"ĠĠĠĠĠĠĠĠĠ":4289,"ĠRussia":4290,"ĠAngeles":4291,"Ġfourth":4292,"Ġvoc":4293,"ĠClass":4294,"Ġgirl":4295,"Ġsoon":4296,"lemma":4297,"irit":4298,"ulture":4299,"idae":4300,"ien":4301,"MS":4302,"1981":4303,"lo":4304,"Ġpurch":4305,"ĠCarl":4306,"mathsf":4307,"ening":4308,"Ġnature":4309,"Ġfriend":4310,"Ġincreased":4311,"ession":4312,"Ġgrowth":4313,"ategory":4314,"Ġcomes":4315,"Ġshare":4316,"FA":4317,"ĠSub":4318,"ih":4319,"Ġinterview":4320,"Ġspeed":4321,"aud":4322,"({\\":4323,"Ġhighest":4324,"Ġelectron":4325,"Ġplat":4326,"ror":4327,"Ġaircraft":4328,"Ġfarm":4329,"ecial":4330,"Ġfeatured":4331,"level":4332,"Ġsense":4333,"Ġlocation":4334,"Ġcritical":4335,"Ġfederal":4336,"acing":4337,"}\\,":4338,"Ġut":4339,"Ġchart":4340,"ging":4341,"ĠSwed":4342,"Since":4343,"Ġspin":4344,"qquad":4345,"Ġcontinue":4346,"1976":4347,"widehat":4348,"Ġpric":4349,"Ġplaced":4350,"racks":4351,"Ġmanufact":4352,"Ġrunning":4353,"Ġchanged":4354,"Ġtrade":4355,"Ġequal":4356,"Ġstructures":4357,"ĠSun":4358,"Ġgrand":4359,"ĠLand":4360,"Ġsets":4361,"effic":4362,"velopment":4363,"&=":4364,"Ġvisit":4365,"Ġeffic":4366,"CO":4367,"^+":4368,"Ġremain":4369,"1972":4370,"iance":4371,"ĠEmp":4372,"icture":4373,"Ġneeded":4374,"nce":4375,"Ġthemselves":4376,"ĠItaly":4377,"Ġnote":4378,"Ġ\\{":4379,"1978":4380,"urt":4381,"raint":4382,"stein":4383,"ĠTurk":4384,"Ġsmaller":4385,"oral":4386,"Ġunique":4387,"aging":4388,"ĠScot":4389,"star":4390,"ĠPe":4391,"bon":4392,"ifying":4393,"udd":4394,"icol":4395,"Ġgrant":4396,"Ġgun":4397,"ĠFigure":4398,"Ġsupported":4399,"Ġfriends":4400,"Ġsusp":4401,"clusion":4402,"Ġactivities":4403,"Ġsinger":4404,"div":4405,"textwidth":4406,"Ġhours":4407,"Ġoperator":4408,"unc":4409,"Le":4410,"Ġapproximately":4411,"ĠRef":4412,"Ġinput":4413,"Ġsecurity":4414,"Ġhousehold":4415,"Ġdeliver":4416,"Ġparticularly":4417,"Ġforward":4418,"Ġselected":4419,"ua":4420,"anda":4421,"bur":4422,"atur":4423,"One":4424,"Ġcontent":4425,"1974":4426,"orial":4427,"TV":4428,"arliament":4429,"Ġnoted":4430,"Ġthreat":4431,"Ġprobability":4432,"Ġmur":4433,"Ġedge":4434,"Ġpref":4435,"fin":4436,"}^{(":4437,"1975":4438,"Ġdise":4439,"osing":4440,"ĠIll":4441,"Ġanti":4442,"comp":4443,"actions":4444,"Ġcolor":4445,"Ġpeak":4446,"urrent":4447,"Ġexpect":4448,"Ġer":4449,"}|":4450,"stant":4451,"Ġacadem":4452,"56":4453,"ĠDen":4454,"Ġmeaning":4455,"ips":4456,"Ġquantum":4457,"ĠEducation":4458,"hy":4459,"ĠOut":4460,"ican":4461,"Ġcontext":4462,"Ġproducts":4463,"1977":4464,"small":4465,"ĠCast":4466,"Ġlevels":4467,"CD":4468,"ĠOrder":4469,"alse":4470,"Ġpolitician":4471,"Is":4472,"Ġscen":4473,"Psi":4474,"book":4475,"ĠIts":4476,"pose":4477,"Ġprison":4478,"Ġboundary":4479,"PS":4480,"ĠTw":4481,"fill":4482,"Ġlack":4483,"Ġnomin":4484,"Ġanc":4485,"Ġmix":4486,"Ġnecessary":4487,"gent":4488,"Ã¨":4489,"ĠPan":4490,"Ġquick":4491,"Ġassume":4492,"Ġscreen":4493,"iana":4494,"ultural":4495,"Ġstreng":4496,"AA":4497,"ĠSeries":4498,"Ġtraditional":4499,"Ġinn":4500,"Ġspl":4501,"Ġcode":4502,"1968":4503,"Ġappears":4504,"Ġrule":4505,"ĠMa":4506,"hester":4507,"ĠStar":4508,"FC":4509,"Ġupper":4510,"azz":4511,"note":4512,"Ġexcept":4513,"Ġtable":4514,"Ġcommit":4515,"Ġwrite":4516,"Ġspent":4517,"Ġdifference":4518,"ĠProfess":4519,"ĠSystem":4520,"range":4521,"iano":4522,"Ġruns":4523,"ns":4524,"Ġhot":4525,"ette":4526,"ĠUnder":4527,"Ġpark":4528,"acity":4529,"fficient":4530,"ĠTimes":4531,"Ġminor":4532,"ĠCarolina":4533,"cher":4534,"abit":4535,"ĠOh":4536,"Ġapplied":4537,"Ġfram":4538,"Ġmach":4539,"Ġrecently":4540,",-":4541,"1973":4542,"Ġoverall":4543,"lement":4544,"Ġgalax":4545,"load":4546,"oud":4547,"agement":4548,"ĠNavy":4549,"Ġplays":4550,"Ġsociety":4551,"}}(":4552,"cel":4553,"Ġtypes":4554,"Ġfif":4555,"Ġrow":4556,"agram":4557,"plit":4558,"}\\\\":4559,"ube":4560,"ols":4561,"hire":4562,"Ġlegisl":4563,"ĠAlthough":4564,"Ġsett":4565,"pdf":4566,"ĠTwo":4567,"Ġimages":4568,"Ġreveal":4569,"Ġcharge":4570,"Ġneeds":4571,"ĠDirector":4572,"Ġforms":4573,"Ġwide":4574,"aught":4575,"ottom":4576,"ken":4577,"Ġmissing":4578,"Ġconclud":4579,"Ġ$(\\":4580,"Ġsimply":4581,"Ġknowledge":4582,"ĠFestival":4583,"td":4584,")]":4585,"ĠKn":4586,"Ġstay":4587,"indent":4588,"usion":4589,"otion":4590,"Ġsometimes":4591,"Ġagreement":4592,"iller":4593,"Early":4594,"Ġmeeting":4595,"ĠBre":4596,"ĠSaint":4597,"Ġdidn":4598,"uke":4599,"mid":4600,"78":4601,"ĠOl":4602,"ĠCD":4603,"Ġillust":4604,"Ġlatter":4605,"Ġteac":4606,"Ġsearch":4607,"../":4608,"Ġpen":4609,"Ġnames":4610,"Äģ":4611,"1971":4612,"dimens":4613,"Ġlives":4614,"aily":4615,"gs":4616,"rich":4617,"vement":4618,"Ġasked":4619,"Ġscored":4620,"Ġdestroy":4621,"Ġquality":4622,"ato":4623,"eria":4624,"Ġcontact":4625,"Ġcoordin":4626,"OS":4627,"iring":4628,"men":4629,"ĠArab":4630,"Ġestablishments":4631,"Ġbroadcast":4632,"Ġsport":4633,"war":4634,"this":4635,"ĠWhat":4636,"Ġdefinition":4637,"Ġmajority":4638,"ĠParliament":4639,"Ġbasketball":4640,"ĠJournal":4641,"ĠLemma":4642,"ĠVi":4643,"ĠBur":4644,"Ġdetermined":4645,"ervation":4646,"ugby":4647,"areer":4648,"Ġbelong":4649,"Ġtournament":4650,"Int":4651,"Ġaim":4652,"ĠSol":4653,"Ġbr":4654,"Ġcaused":4655,"Ġcollabor":4656,"RE":4657,"edom":4658,"Ġphil":4659,")-":4660,"Ġstarting":4661,"Ġwanted":4662,"ĠMo":4663,"Ġfirm":4664,"Ġrot":4665,"Ġlic":4666,"Ġmaximum":4667,"ecause":4668,"Ġdoing":4669,"ĠOf":4670,"ca":4671,"Ġheart":4672,"ĠDis":4673,"enth":4674,"eloc":4675,"She":4676,"Ġparents":4677,"ĠFre":4678,"Ġcolumn":4679,"1940":4680,"Ġspeak":4681,"Ġtransform":4682,"ĠMartin":4683,"Ġcommunities":4684,"ĠMost":4685,"1969":4686,"icated":4687,"Ġchannel":4688,"ocks":4689,"ĠLife":4690,"Ġcorrel":4691,"Ġsummer":4692,"iece":4693,"enge":4694,"venue":4695,"Ġscore":4696,"Ġsports":4697,"ĠSocial":4698,"Ġwriters":4699,"arp":4700,"Ġgoals":4701,"ĠBrazil":4702,"BS":4703,"ban":4704,"Ġir":4705,"dro":4706,"eks":4707,"ĠPet":4708,"ĠColumb":4709,"ĠBank":4710,"ipl":4711,"riz":4712,"ĠSk":4713,"Ġtrain":4714,"Ġwhom":4715,"Ġchem":4716,"Ġcause":4717,"Ġregions":4718,"ĠJoseph":4719,"Ġlay":4720,"Ġshot":4721,"ĠAwards":4722,"ĠPac":4723,"Ġforeign":4724,"Ġschol":4725,"Ġrules":4726,"oto":4727,"Ġdark":4728,"Ġallows":4729,"esh":4730,"ager":4731,"Ġlaws":4732,"Ã³n":4733,"Ġ(\"":4734,"Ġmovie":4735,"Ġsample":4736,"Ġtreatment":4737,"Ġprogress":4738,"ĠChampionships":4739,"Ġofficer":4740,"Ġcomment":4741,"Ġmission":4742,"ĠSil":4743,"ĠSoviet":4744,"force":4745,"ĠDec":4746,"Ġbehavior":4747,"ĠBo":4748,"Ġcustom":4749,"ribute":4750,"tra":4751,"Ġextended":4752,"Ġsurround":4753,"59":4754,"ĠAre":4755,"ĠIran":4756,"Ġconnected":4757,"ansas":4758,"Ġchalleng":4759,"1967":4760,"1945":4761,"operat":4762,"isco":4763,"Ġens":4764,"ĠLiber":4765,"Ġvariety":4766,"Se":4767,"arriage":4768,"Ġsolutions":4769,"Ġpattern":4770,"ĠOper":4771,"otic":4772,"edge":4773,"vant":4774,"52":4775,"Ġdouble":4776,"rupt":4777,"ĠWood":4778,"Ġrelation":4779,"ĠTrump":4780,"rat":4781,"citet":4782,"operatorn":4783,"Ġchief":4784,"Ġended":4785,"Ġesc":4786,"Ġdu":4787,"Ġdecre":4788,"ĠMos":4789,"Ġactress":4790,"illa":4791,"Ġchoice":4792,"ĠJud":4793,"equiv":4794,"xspace":4795,"Ġstatus":4796,"iro":4797,"that":4798,"ĠOld":4799,"Ġdivision":4800,"ersey":4801,"ĠFoundation":4802,"Ġwinning":4803,"ĠIrish":4804,"ĠWales":4805,"rants":4806,"Ġnearly":4807,"Ġreligious":4808,"51":4809,"Notes":4810,"mitted":4811,"ĠPost":4812,"Ġequations":4813,"Ġtransition":4814,"ĠMil":4815,"Ġmusical":4816,"Ġrisk":4817,"operatorname":4818,"Ġdrug":4819,"inem":4820,"Ġapplication":4821,"asion":4822,"ĠMur":4823,"ĠChief":4824,"Ġpresence":4825,"Ġcoast":4826,"owers":4827,"Ġrecover":4828,"mission":4829,"Ġfr":4830,"Ġevolution":4831,"Ġactor":4832,"inf":4833,"300":4834,"ancy":4835,"Ġindividuals":4836,"Ġbelieve":4837,"Ġstudio":4838,"Ġcheck":4839,"Ġcitiz":4840,"inger":4841,"1930":4842,"Ġdesp":4843,"wan":4844,"],":4845,"Ġcoming":4846,"ady":4847,"Ġnode":4848,"Ġking":4849,"ias":4850,"long":4851,"Ġasp":4852,"ectors":4853,"Ġfigure":4854,"Ġneighbor":4855,"Ġcommand":4856,"Ġcommercial":4857,"Ġprove":4858,"1964":4859,"Ġroom":4860,"Ġattention":4861,"Ġweeks":4862,"Ġult":4863,"Ġcommission":4864,"sylv":4865,"]$":4866,"Ġdetails":4867,"from":4868,"Ġautom":4869,"ĠOffice":4870,"Ġseem":4871,"ĠAtlant":4872,"ĠEngine":4873,"vest":4874,"ĠNorthern":4875,"Ġpack":4876,"76":4877,"imin":4878,"Ġoperation":4879,"ĠPeople":4880,"ĠTour":4881,"ĠGra":4882,"Ġsignal":4883,"Ġclassical":4884,"\"|":4885,"Ġproced":4886,"Ġvocals":4887,"Ġinstrum":4888,"Ġprevent":4889,"}:":4890,"Ġattended":4891,"eek":4892,"usband":4893,"ao":4894,"heme":4895,"Ġrepresentation":4896,"54":4897,"Ġsetting":4898,"Ġunion":4899,"ĠHon":4900,"Ġannual":4901,"adium":4902,"Ġveloc":4903,"onom":4904,"Ġinfluence":4905,"Ġthing":4906,"ĠEr":4907,"ĠGovern":4908,"str":4909,"John":4910,"value":4911,"Ġresulting":4912,"heast":4913,"sin":4914,"sylvania":4915,"Ġpassed":4916,"Ġmanager":4917,"}}{\\":4918,"ĠLove":4919,"Ġelectric":4920,"ittle":4921,"Ġlived":4922,"Ġmiddle":4923,"ariant":4924,"Ġquite":4925,"Ġincome":4926,"cles":4927,"Not":4928,"Ġplatform":4929,"Ġnewsp":4930,"ĠIII":4931,"eful":4932,"Ġ&\\":4933,"ellig":4934,"Ġinside":4935,"house":4936,"apers":4937,"Ġhol":4938,"Ġhum":4939,"Ġsituation":4940,"scale":4941,"Can":4942,"ĠYoung":4943,"Ġterrit":4944,"Ġseasons":4945,"lig":4946,"Ġweak":4947,"aven":4948,"English":4949,"Äĩ":4950,"During":4951,"ĠJer":4952,"ouri":4953,"ET":4954,"ĠBig":4955,"ĠEmpire":4956,"Ġrequest":4957,"Ġsenior":4958,"Ġedition":4959,"ĠSpain":4960,"eline":4961,"Ġsched":4962,"entially":4963,"Ġcounter":4964,"ĠOur":4965,"Ġcomponents":4966,"Ð°":4967,"Åį":4968,"anger":4969,"Ġple":4970,"ĠLee":4971,"Ġstra":4972,"Ġreduced":4973,"ĠOver":4974,"Ġconsists":4975,"ĠGall":4976,"Ġmagnetic":4977,"ĉĊ":4978,"Ġriver":4979,"Ġminutes":4980,"node":4981,"Ġpage":4982,"ĠPo":4983,"Ġpoet":4984,"ructure":4985,"oura":4986,"Ġbattle":4987,"Ġbrief":4988,"1965":4989,"Ġdenote":4990,"VID":4991,"skip":4992,"ĠJim":4993,"Ġnorthern":4994,"Ġlaunched":4995,"}+\\":4996,"edia":4997,"53":4998,"Ġopening":4999,"Ġneut":5000,"Ġupd":5001,"dimensional":5002,"AD":5003,"Ð¾":5004,"Ġdiss":5005,"ĠHaw":5006,"isher":5007,"ĠProvince":5008,"ĠHistoric":5009,"Ġbit":5010,"Ġattract":5011,"Ġsouthern":5012,"Ġremaining":5013,"Ġisland":5014,"Ġhighly":5015,"ĠNow":5016,"Ġworkers":5017,"93":5018,"Ġsettle":5019,"1966":5020,"Ġprint":5021,"kins":5022,"Ġquarter":5023,"Ġchampionship":5024,"yan":5025,"param":5026,"eds":5027,"ati":5028,"Ġproduce":5029,"94":5030,"imb":5031,"86":5032,"Ġleave":5033,"type":5034,"ĠAssembly":5035,"mary":5036,"ora":5037,"Ġwa":5038,"scr":5039,"Ġstories":5040,"Ġproducer":5041,"Ġstatement":5042,"ampion":5043,"Ġrap":5044,"Ġcomponent":5045,"allel":5046,"Ġpoor":5047,"neq":5048,"Ġsaying":5049,"Ġeth":5050,"ocation":5051,"ava":5052,"Ġexam":5053,"airman":5054,"emporary":5055,"Ġgenerated":5056,"ĠHel":5057,"Ġestimated":5058,"nes":5059,"theorem":5060,"itation":5061,"opl":5062,"ko":5063,"Ġwalk":5064,"ĠCivil":5065,"Ġability":5066,"ima":5067,"ishes":5068,"Ġmind":5069,"Ġplans":5070,"ĠProgram":5071,"Ġdisplay":5072,"atriate":5073,"Ġwood":5074,"1920":5075,"ĠRel":5076,"ĠSir":5077,"Ġsymbol":5078,"rics":5079,"Ġprojects":5080,"enty":5081,"87":5082,"ĠValley":5083,"inos":5084,"ĠGen":5085,"Ġsimpl":5086,"rete":5087,"Ġnation":5088,"apter":5089,"Ġpartn":5090,"Ġbecoming":5091,"ĠSpace":5092,"Ġseg":5093,"Or":5094,"--------":5095,"NA":5096,"Ġran":5097,"ĠSecretary":5098,"PR":5099,"92":5100,"ĠJo":5101,"Ġpick":5102,"Ġreferred":5103,"mond":5104,"ĠVer":5105,"aine":5106,"ĠPennsylvania":5107,"hspace":5108,"ĠHot":5109,"Ġprobably":5110,"Ġclasses":5111,"tical":5112,"Ġcorrect":5113,"Ġnumerous":5114,"ali":5115,"ĠGreek":5116,"Ġfully":5117,"undred":5118,"Ġbad":5119,"Ġrob":5120,"Ġrecords":5121,"Ġliterature":5122,"|^":5123,"ecting":5124,"ĠDou":5125,"ĠTherefore":5126,"Ġpressure":5127,"dag":5128,"Ġresponsible":5129,"Ġyield":5130,"ĠBook":5131,"'$":5132,"aith":5133,"You":5134,"oston":5135,"ĠProp":5136,"can":5137,"ĠSpr":5138,"ĠGr":5139,"ĠRet":5140,"ĠBritain":5141,"ĠLord":5142,"auge":5143,"Ġimplies":5144,"Ġobjects":5145,"ework":5146,"elled":5147,"Ġcarried":5148,"Career":5149,"obile":5150,"ĠJewish":5151,"group":5152,"Ġfinally":5153,"ĠRo":5154,"size":5155,"Ġcentre":5156,"ĠFe":5157,"Ġarrest":5158,"Ġorganizations":5159,"Ġindex":5160,"name":5161,"Ġappearance":5162,"ternet":5163,"ĠPak":5164,"Ġhelped":5165,"oting":5166,"vis":5167,"Ġhusband":5168,"ules":5169,"iques":5170,"Ġconstraint":5171,"Ġvote":5172,"Ġparties":5173,"umerate":5174,"Ġ-\\":5175,"Ġmostly":5176,")}{":5177,"gypt":5178,"efore":5179,"Ġcarry":5180,"MA":5181,"va":5182,"Ġarrang":5183,"erc":5184,"}-\\":5185,"Ġdepartment":5186,"Ġheavy":5187,"Ġtree":5188,"omorphism":5189,"Ġowned":5190,"Ġenj":5191,"Ġequivalent":5192,"ĠIslam":5193,"Ġmagazine":5194,"inet":5195,"But":5196,"fect":5197,"Ġrailway":5198,"di":5199,"ters":5200,"Ġlif":5201,"Ġways":5202,"Ġalgebra":5203,"ĠElect":5204,"ĠCross":5205,"alo":5206,"ibly":5207,"mas":5208,"Ġuniversity":5209,"shire":5210,"Ġcensus":5211,"aria":5212,"ĠAsia":5213,"Ġactivity":5214,"ĠFred":5215,"Ġmurder":5216,"Ġcounty":5217,"ĠHa":5218,"Ġbus":5219,"Ġseparate":5220,"ĠSupp":5221,"itable":5222,"ĠUk":5223,"Ġreach":5224,"nam":5225,"orter":5226,"Pr":5227,"></":5228,"stitution":5229,"Ġrecomm":5230,"ĠHamilton":5231,"ĠLong":5232,"Ġraised":5233,"ĠBob":5234,"miss":5235,"ĠCamb":5236,"ĠSouthern":5237,"rence":5238,"Ġinstance":5239,"Ġdead":5240,"Ġexpansion":5241,"Ġplot":5242,"iny":5243,"icine":5244,"Ġansw":5245,"ĠOpen":5246,"uls":5247,"ĠFort":5248,"Ġbrand":5249,"();":5250,"mann":5251,"$}":5252,"Ġcoeffic":5253,"Other":5254,"ulty":5255,"Ġeditor":5256,"Ġspread":5257,"ĠUp":5258,"Ġtask":5259,"language":5260,"vey":5261,"html":5262,"Ġserve":5263,"Ġapply":5264,"ĠDemocratic":5265,"ĠDevelopment":5266,"Ġamb":5267,"enumerate":5268,"hing":5269,"ĠEarth":5270,"Ġvalid":5271,"osoph":5272,"Ġchosen":5273,"Ġolder":5274,"Ġhistorical":5275,"ĠOx":5276,"Ġmulti":5277,"à¤":5278,"ressed":5279,"Ġoptim":5280,"ĠTime":5281,"~$":5282,"etworks":5283,"ĠJack":5284,"ogue":5285,"etts":5286,"aters":5287,"Ġreference":5288,"espite":5289,"Ġsquare":5290,"IR":5291,"gu":5292,"do":5293,"Ġfast":5294,")}$":5295,"come":5296,"Ġarmy":5297,"ĠFC":5298,"unior":5299,"list":5300,"Ġdefeated":5301,"ĠBi":5302,"Ġnegative":5303,"noindent":5304,"Ġmentioned":5305,"Ġgreater":5306,"1963":5307,"Ġforced":5308,"ĠTeam":5309,"(\"":5310,"Ġmatches":5311,"Ġadop":5312,"Ġratio":5313,"Ġcontroll":5314,"1962":5315,"Films":5316,"Ġpurs":5317,"Ġconsequ":5318,"Ġsufficient":5319,"91":5320,"Ġefforts":5321,"mathscr":5322,"Cont":5323,"dist":5324,"ounds":5325,"FF":5326,"Ġroute":5327,"een":5328,"Ġwor":5329,"Ġforest":5330,"Ġseems":5331,"ĠConn":5332,"Ġsea":5333,"What":5334,"Ġavoid":5335,"ser":5336,"ĠLy":5337,"Ġdisp":5338,"Ġbal":5339,"gence":5340,"Ġspectrum":5341,"Ġidentified":5342,"Ġcandidate":5343,"iy":5344,"ĠPhilipp":5345,"SP":5346,"ĠMichigan":5347,"oration":5348,"Further":5349,"Ġinitially":5350,"ĠOhio":5351,"Ġleaders":5352,"Ġcontain":5353,"Ġsplit":5354,"ĠPlay":5355,"Ġfavor":5356,"Ġdespite":5357,"Ġlat":5358,"ĠStat":5359,"fit":5360,"Def":5361,"Ġturned":5362,"inois":5363,"Person":5364,"poration":5365,"ĠJones":5366,"iders":5367,"ĠGi":5368,"work":5369,"bury":5370,"Ġcapacity":5371,"Ġformation":5372,"ĠCam":5373,"ker":5374,"ĠRegister":5375,"Ġpurpose":5376,"Ġentered":5377,"inners":5378,"position":5379,"ĠMiddle":5380,"'re":5381,"Ġoutput":5382,"Ġmotion":5383,"Ġimmediately":5384,"ĠTre":5385,"ja":5386,"ĠGeorgia":5387,"Ġrelative":5388,"chest":5389,"Ġdomain":5390,"Ġuser":5391,"Ġmaster":5392,"Ġcities":5393,"ĠBattle":5394,"ĠLibrary":5395,"Ġdrama":5396,"isters":5397,"aka":5398,"ategor":5399,"ĠMah":5400,"Ġconflic":5401,"Ġdatas":5402,"Ġfailed":5403,"ĠChild":5404,"]\\":5405,"sup":5406,"hemat":5407,"Ġwave":5408,"ĠUSA":5409,"72":5410,"ĠWork":5411,"Ġtal":5412,"ĠPacific":5413,"urban":5414,"ĠProt":5415,"Ġelections":5416,"ĠJohnson":5417,"(-":5418,"ĠJac":5419,"Ġbey":5420,"Ġtheorem":5421,"ĠAtt":5422,"body":5423,"Ġofficers":5424,"Ġapprop":5425,"LE":5426,"1944":5427,"Ġfill":5428,"Ġfil":5429,"Im":5430,"Man":5431,"even":5432,"Ġdrum":5433,"Ġidentity":5434,"Ġsurvey":5435,"ĠUnivers":5436,"Ġjoint":5437,"Ġexpression":5438,"ba":5439,"Ġshoot":5440,"anner":5441,"ĠSar":5442,"ĠBas":5443,"ĠTheir":5444,"speople":5445,"rade":5446,"ĠJersey":5447,"Ġexisting":5448,"ĠSund":5449,"Comp":5450,"ĠConference":5451,"ĠPre":5452,"Ġmoving":5453,"Ġsingles":5454,"Ġnine":5455,"ĠTim":5456,"Ġstop":5457,"Ġstring":5458,"Ġâ":5459,"Ġago":5460,"Ġbeyond":5461,"orney":5462,"Ġoil":5463,"Ġfactors":5464,"\\,\\":5465,"According":5466,"Ġleads":5467,"No":5468,"Ġfamous":5469,"bul":5470,"Ġresources":5471,"itemize":5472,"ĠSong":5473,"ĠJul":5474,"ĠGood":5475,"ĠRos":5476,"win":5477,"place":5478,"ĠCentre":5479,"ĠScotland":5480,"Ġslight":5481,"achus":5482,"ĠEconom":5483,"Ġdoub":5484,"Ġfrequency":5485,"approx":5486,"Ġgiving":5487,"Ġuniform":5488,"Ġconstructed":5489,"Ġconcent":5490,"ackson":5491,"Ġhop":5492,"ĠTop":5493,"ĠRadio":5494,"Don":5495,"burgh":5496,"89":5497,"Ġderived":5498,"}}_":5499,"ĠAsian":5500,"Ġpaint":5501,"ĠDet":5502,"Ġhospital":5503,"Ġcomputer":5504,"ĠRh":5505,"1961":5506,"map":5507,"Ġelse":5508,"Ġbillion":5509,"arden":5510,"eech":5511,"ependence":5512,"Ġhyp":5513,"Ġoffered":5514,"ĠFri":5515,"ĠHere":5516,"orning":5517,"Ġvolume":5518,"Ġvictory":5519,"ĠAdd":5520,"iral":5521,"Ġreplace":5522,"}}}":5523,"ador":5524,"ĠSenate":5525,"App":5526,"Ġcompletely":5527,"ennis":5528,"sl":5529,"Ġborder":5530,"Ġpp":5531,"')":5532,"Pi":5533,"Ġtens":5534,"Ġestimate":5535,"loy":5536,"amm":5537,"Ġclaimed":5538,"Ġvan":5539,"Ġuncertain":5540,"Ġproceed":5541,"ĠCr":5542,"yer":5543,"Ġpil":5544,"ĠQueen":5545,"ĠGal":5546,"ĠBul":5547,"ĠLie":5548,"Ġcultural":5549,"Ġ...":5550,"Ġserious":5551,"ĠBusiness":5552,"Ġtim":5553,"ĠHuman":5554,"NN":5555,"ĠCOVID":5556,"Ġfair":5557,"Ġdisease":5558,"Ġcrick":5559,"irmed":5560,"Ġadministration":5561,"Ġlooking":5562,"Ġcard":5563,"Ġiniti":5564,"Ġdiscussed":5565,"DE":5566,"Ð¸":5567,"Qu":5568,"vspace":5569,"Ġones":5570,"ĠMem":5571,"ĠTri":5572,"achusetts":5573,"ĠWilliams":5574,"ĠOk":5575,"ĠMax":5576,"Ġmarriage":5577,"ograp":5578,"Ġsn":5579,"Mod":5580,"itage":5581,"Ġserving":5582,"erb":5583,"Ġgreen":5584,"Ġtrial":5585,"ĠKong":5586,"Ġslow":5587,"Ġproviding":5588,"itors":5589,"Aust":5590,"Ġbelieved":5591,"Ġfoot":5592,"Ġincorpor":5593,"ifically":5594,"Ġinteresting":5595,"63":5596,"\\}$":5597,"Trans":5598,"Par":5599,"Ġvelocity":5600,"olved":5601,"Ġcolon":5602,"Ã§":5603,"ĠExp":5604,"Ðµ":5605,"rison":5606,"ĠLine":5607,"Note":5608,"ĠEgypt":5609,"ĠFrancisco":5610,"Ġcorn":5611,"Ġarm":5612,"ĠÂ£":5613,"adel":5614,"ĠEdward":5615,"han":5616,"ĠTro":5617,"ĠKent":5618,"Ġdetermine":5619,"ĠBoston":5620,"Ġnorm":5621,"ĠHy":5622,"ĠTable":5623,"ĠMen":5624,"Ġshowed":5625,"Ġprofessor":5626,"Ġquickly":5627,"Ġregional":5628,"Ġgeomet":5629,"osm":5630,"Ġscheme":5631,"Ġconfig":5632,"ĠBC":5633,"uan":5634,"400":5635,"Ġ_{":5636,"uries":5637,"Ġsoftware":5638,"Ġleaving":5639,"awa":5640,"uthors":5641,"1942":5642,"><":5643,"Ġblue":5644,"Ġbranch":5645,"Ġprep":5646,"Ġmainly":5647,"Ġmicro":5648,"Ġrepe":5649,"ĠCro":5650,"standing":5651,"background":5652,"Ġissued":5653,"ila":5654,"ĠIllinois":5655,"opy":5656,"Ġletter":5657,"real":5658,"Ġaccom":5659,"ynom":5660,"62":5661,"1948":5662,"ibli":5663,"1956":5664,"Ġcategory":5665,"ĠFurther":5666,"Ġbasic":5667,"Ġdro":5668,"Then":5669,"Ġdistinct":5670,"aya":5671,"ĠInst":5672,"84":5673,"Sec":5674,"ĠRam":5675,"abeth":5676,"Ġtrying":5677,"Ġgoes":5678,"ĠLuc":5679,"ĠMany":5680,"ĠUr":5681,"Ġexistence":5682,"Ġsure":5683,"1959":5684,"rance":5685,"1958":5686,"Ġvariables":5687,"MC":5688,"ĠMu":5689,"ĠMcC":5690,"ĠField":5691,"Ġgenus":5692,"Ġeasily":5693,"het":5694,")+":5695,"Ġexecutive":5696,"Ġax":5697,"ĠCE":5698,"Ġbass":5699,"enant":5700,"National":5701,"ĠBow":5702,"multicol":5703,"Ġscene":5704,"ĠPrem":5705,"http":5706,"Ġice":5707,"Ġmuseum":5708,"Ġdoesn":5709,"Ġcouple":5710,"Ġsites":5711,"ancing":5712,"eler":5713,"Ġcells":5714,"ĠPoland":5715,"^-":5716,"ĠAlso":5717,"ĠDutch":5718,"Ġsyn":5719,"Ġgetting":5720,"Ġmechanism":5721,"Ġpatients":5722,"Ġbul":5723,"cean":5724,"Ġconnection":5725,"Ġactors":5726,"bo":5727,"ĠFederal":5728,"Ġdimension":5729,"icks":5730,"##":5731,"multicolumn":5732,"Ġwestern":5733,"pre":5734,"SI":5735,"ĠWal":5736,"Ġvoice":5737,"Ġcouncil":5738,"Ġenjoy":5739,"Ġharm":5740,"Ġgrav":5741,"ĠStep":5742,"LL":5743,"split":5744,"Ġarchitecture":5745,"icity":5746,"ez":5747,"ĠRepresent":5748,"ĠTheatre":5749,"Ġpromin":5750,"Ġrecording":5751,"term":5752,"weight":5753,"Ġ_":5754,"anguages":5755,"ĠBet":5756,"Ġcontribution":5757,"1957":5758,"Ġpsych":5759,"ĠCharl":5760,"1939":5761,"Ġcontrast":5762,"83":5763,"Ġpoliticians":5764,"Ġpositions":5765,"Ġetc":5766,"Ġseat":5767,"Ġreceive":5768,"ĠReview":5769,"Ġsector":5770,"Ġimprove":5771,"Ġvirt":5772,"Ġpeace":5773,"Ġresidents":5774,"Ġderiv":5775,"Ġreflect":5776,"ashed":5777,"ulate":5778,"ĠSand":5779,"82":5780,"ĠColumbia":5781,"ĠJustice":5782,"Ġthous":5783,"ĠMov":5784,"ĠPortug":5785,"track":5786,"Ġgauge":5787,"Ġshape":5788,"Ġhundred":5789,"Ġcombined":5790,"ĠMajor":5791,"abs":5792,"Ġsal":5793,"Ġinform":5794,"ĠGovernor":5795,"ĠMassachusetts":5796,"Ġapplications":5797,"ounded":5798,"ented":5799,"ears":5800,"ĠRem":5801,"aylor":5802,"First":5803,"Ġrates":5804,"ĠCoast":5805,"Ġcovered":5806,"turb":5807,"https":5808,"ĠEastern":5809,"Ġactions":5810,"74":5811,"][":5812,"erved":5813,"Ġrestrict":5814,"rical":5815,"ĠĠĠĠĠĠĠĠĠĠĠĠĠĠĠĠĠĠĠ":5816,"lies":5817,"ela":5818,"Ġmemory":5819,"61":5820,"ĠVan":5821,"Ġcitizens":5822,"rees":5823,"Ġstraight":5824,"Ġfootballer":5825,"ova":5826,"resents":5827,"ĠSupreme":5828,"Ġoperated":5829,"Ġsquad":5830,"asy":5831,"Ġast":5832,"Ġminimum":5833,"init":5834,"Ġmeasures":5835,"Ġ\\;":5836,"Ġthr":5837,"Ġdepart":5838,"Ġsubs":5839,"ĠJr":5840,"Ġgeneration":5841,"1941":5842,"ĠHung":5843,"Ġretired":5844,"Ġrequires":5845,"Ġearned":5846,"Ġexamples":5847,"cons":5848,"IA":5849,"Ġtypically":5850,"Ġconducted":5851,"ĠBase":5852,"Ġfle":5853,"73":5854,"unct":5855,"sen":5856,"Ġsister":5857,"&&":5858,"1943":5859,"ĠMid":5860,"Ġrespond":5861,"inity":5862,"Ġprefer":5863,"ĠNote":5864,"Ġeigen":5865,"SO":5866,"arters":5867,"While":5868,"69":5869,"Ġextra":5870,"fe":5871,"textrm":5872,"ĠWay":5873,"Ġcontinuous":5874,"Ġships":5875,"law":5876,"ĠBern":5877,"Ġsomeone":5878,"RA":5879,"ĠAff":5880,"1946":5881,"Ġdiscovered":5882,"Ġcomedy":5883,"Ġbill":5884,"ĠAp":5885,"ĠKorea":5886,"Ġselect":5887,"Ne":5888,"].":5889,"Ġquestions":5890,"ĠStan":5891,"gn":5892,"ĠHome":5893,"Ġeasy":5894,"ache":5895,"81":5896,"uilding":5897,"Ġfalse":5898,"phy":5899,"itter":5900,"Ġdigital":5901,"Ġprocesses":5902,"So":5903,"Ġinteraction":5904,"Ġenter":5905,"key":5906,"Brit":5907,"arant":5908,"Ġcore":5909,"bi":5910,"ĠTechnology":5911,"Ġclaims":5912,"Ġblood":5913,"Ġfelt":5914,"ĠJes":5915,"ĠPrince":5916,"ĠShow":5917,"aun":5918,"Ġsmooth":5919,"Ġimpos":5920,"ĠWind":5921,"ĠMuslim":5922,"Ġinequ":5923,"ĠProject":5924,"Co":5925,"Ġremoved":5926,"Ġreform":5927,"Ġgrowing":5928,"ĠAz":5929,"Bi":5930,"uer":5931,"Ġyouth":5932,"Ġmis":5933,"oday":5934,"Ed":5935,"ĠEll":5936,"ĠBoth":5937,"Ġstrugg":5938,"Ġinters":5939,"ilarly":5940,"ĠEnter":5941,"eller":5942,"Ġcomposed":5943,"1955":5944,"Ġconvers":5945,"ĠOxford":5946,"ĠTem":5947,"urance":5948,"Ġoperators":5949,"IV":5950,"uced":5951,"Ġstrate":5952,"Ġofficials":5953,"Ġpolic":5954,"Ġensure":5955,"ĠWall":5956,"HE":5957,"aturing":5958,"1947":5959,"Ġsafety":5960,"Ġstrategy":5961,"pton":5962,"Ġsolid":5963,"{$":5964,"Ġtrust":5965,"maz":5966,"Ġcontest":5967,"Ġvs":5968,"PA":5969,"71":5970,"Ġfeed":5971,"Ġopportunity":5972,"ĠSea":5973,"Am":5974,"79":5975,"Ġplane":5976,"ji":5977,"Ġhence":5978,"Ġpet":5979,"Ġsemi":5980,"Ġcam":5981,"subseteq":5982,"Ġrelatively":5983,"ĠRepublican":5984,"auss":5985,"Ġreduce":5986,"ĠInf":5987,"ĠGh":5988,"ucky":5989,"1952":5990,"}^{-":5991,"haps":5992,"ĠUN":5993,"ĠEnd":5994,"United":5995,"ologist":5996,"det":5997,"uations":5998,"ĠSpecial":5999,"Ġassess":6000,"Ġacademic":6001,"Ġtracks":6002,"SC":6003,"onto":6004,"Ġunknown":6005,"Ġnothing":6006,"ipment":6007,"ĠEp":6008,"resh":6009,"Mar":6010,"ĠHead":6011,"lation":6012,"ĠLatin":6013,"Ġoffers":6014,"Ġacquired":6015,"Ġnetworks":6016,"Ġpanel":6017,"Ġpersonnel":6018,"Ġpaid":6019,"Ġsubsequently":6020,"ĠJackson":6021,"ĠWater":6022,"aming":6023,"iant":6024,"unn":6025,"Pop":6026,"Rep":6027,"Ġrepresents":6028,"ĠScottish":6029,"oir":6030,"Ġspirit":6031,"Ġleadership":6032,"rovers":6033,"Ġadapt":6034,"Ġreports":6035,"estic":6036,"Ġdefend":6037,"Ġexplicit":6038,"ĠPolice":6039,"Ġobservations":6040,"ĠDev":6041,"ĠHong":6042,"Ġnative":6043,"Ġchoose":6044,"Ab":6045,"ione":6046,"Vert":6047,"Ġcontributions":6048,"Id":6049,"IM":6050,"GB":6051,"ĠAv":6052,"onia":6053,"ĠLab":6054,"Ã±":6055,"achel":6056,"teen":6057,"Ġordered":6058,"ĠLi":6059,"minus":6060,"attice":6061,"Ġeffort":6062,"Ġmode":6063,"ĠCy":6064,"Ġclimate":6065,"room":6066,"Ġadopted":6067,"Ġclubs":6068,"ĠBroad":6069,"elligence":6070,"Ġlies":6071,"OT":6072,"ĠHospital":6073,"ĠBlue":6074,"SE":6075,"1954":6076,"ln":6077,"ighter":6078,"Theta":6079,"viation":6080,"However":6081,"Ġprofile":6082,"Ġrevealed":6083,"Ġsales":6084,"Ġusers":6085,"====":6086,"ĠProfessor":6087,"amin":6088,"ui":6089,"Ġerr":6090,"ĠAndrew":6091,"ĠBal":6092,"xy":6093,"ĠKenn":6094,"Ġlabor":6095,"wer":6096,"ĠNight":6097,"ellar":6098,"Ġhyper":6099,"Ġnoise":6100,"Ġexc":6101,"Ġstrateg":6102,"Ġmole":6103,"Ġvac":6104,"arks":6105,"1949":6106,"Ġtherm":6107,"Ġwatch":6108,"ographic":6109,"ĠKe":6110,"SU":6111,"Ġrare":6112,"Ġfort":6113,"bigg":6114,"Ġmut":6115,"Name":6116,"Ġjoin":6117,"Ġstore":6118,"Ġcrew":6119,"Ġmanif":6120,"Ġunderstanding":6121,"underline":6122,".[":6123,"Ġbeaut":6124,"Ġrapid":6125,"Ġagent":6126,"sch":6127,"Ġcompl":6128,"ĠRailway":6129,"Ġarticles":6130,"idth":6131,"150":6132,"Ġextrem":6133,"istered":6134,"omer":6135,"Ġrelevant":6136,"Å¡":6137,"occer":6138,"icted":6139,"Ġadvant":6140,"then":6141,"norm":6142,"Ġid":6143,"Ġarbit":6144,"linear":6145,"iency":6146,"kin":6147,"cript":6148,"Ġweap":6149,"eld":6150,"Ġ\\|":6151,"Ġalone":6152,"1953":6153,"atus":6154,"Ġmaterials":6155,"Ġalle":6156,"onder":6157,"Ġsexual":6158,"ĠLu":6159,"ĠTest":6160,"Ġdiagram":6161,"Ġawards":6162,"Ġeconomy":6163,"ĠLittle":6164,"Val":6165,"ĠCorps":6166,"illy":6167,"ĠRay":6168,"ĠBang":6169,"ĠColl":6170,"ading":6171,"Ġformal":6172,"Ġflux":6173,"Ġmixed":6174,"Ġdraft":6175,"Ġsignificantly":6176,"Ġnuclear":6177,"ĠBelg":6178,"Now":6179,"file":6180,"Ġresolution":6181,"ĠAut":6182,"ĠCard":6183,"Ġpolynom":6184,"onent":6185,"ulpt":6186,"abilities":6187,"Ġcancer":6188,"Ġhouses":6189,"Ġconsum":6190,"Ġinstitutions":6191,"ĠFar":6192,"Ġ*/":6193,"Ġapart":6194,"Ġselection":6195,"ais":6196,"ĠJoe":6197,"<\\":6198,"Ġotherwise":6199,"Ġprimarily":6200,"................":6201,"rations":6202,"Ġwidth":6203,"Ġsucceed":6204,"LA":6205,"Ġrise":6206,"ĠCommunity":6207,"Ġmill":6208,"Ġextension":6209,"antry":6210,"ĠAmericans":6211,"Ġexpressed":6212,"Ġworth":6213,"Ġmanaged":6214,"ĠGar":6215,"igration":6216,"Ġexperiment":6217,"Ġfacilities":6218,"ĠHor":6219,"ĠForm":6220,"izabeth":6221,"fully":6222,"En":6223,"Ġvictim":6224,"Ġdescent":6225,"Ġ$\\{":6226,"ipped":6227,"Ġmaps":6228,"ricts":6229,"Ġcer":6230,"ervative":6231,"Ġliber":6232,"jection":6233,"ĠĠĠĊ":6234,"Ġtroops":6235,"Ġdescribe":6236,"Be":6237,"Ġoperating":6238,"ĠViet":6239,"ĠWild":6240,"anning":6241,"ĠMot":6242,"oned":6243,"itionally":6244,"Ġformula":6245,"Ġbegin":6246,"risis":6247,"riev":6248,"ĠFour":6249,"har":6250,"DA":6251,"akers":6252,"Ġintended":6253,"orough":6254,"Ġachieved":6255,"odies":6256,"Med":6257,"ĠAlexander":6258,"claim":6259,"ologies":6260,"ĠOnt":6261,"Ġpasseng":6262,"Ġtouch":6263,"ĠManagement":6264,"ĠEach":6265,"Ġmeasured":6266,"dr":6267,"thur":6268,"Ġmetal":6269,"itzer":6270,"Ġheight":6271,"itness":6272,"'m":6273,"Ġdescription":6274,"cond":6275,"Ġdedicated":6276,"1951":6277,"Ġexchange":6278,"Ġtrib":6279,"Ġscatter":6280,"Ġring":6281,"ĠJeff":6282,"Ġcompact":6283,"stone":6284,"ĠPlaces":6285,"vin":6286,"othes":6287,"related":6288,"Type":6289,"Ġhonor":6290,"Ġattend":6291,"Ġflat":6292,"Ġexecut":6293,"Ġinh":6294,"Ġparticles":6295,"Ġfell":6296,"Art":6297,"Ġpiece":6298,"Ġancient":6299,":#":6300,"bed":6301,"ĠĠĠĠĊ":6302,"Ġpoll":6303,"aug":6304,"Ġacting":6305,"ogle":6306,"Ġhockey":6307,"dney":6308,"../../":6309,"SA":6310,"Ġinternal":6311,"ĠKen":6312,"Ġauthors":6313,"emy":6314,"uracy":6315,"Ġjourn":6316,"ĠOrgan":6317,"udget":6318,"Ġconfirmed":6319,"Ġcurve":6320,"Ġdemand":6321,"iger":6322,"British":6323,"{}":6324,"ĠFer":6325,"Ġreasons":6326,"Ġcontaining":6327,"Ġresist":6328,"Ġuseful":6329,"ĠPop":6330,"Ġmetric":6331,"Ġcosts":6332,"Ġarrived":6333,"Ġanything":6334,"ags":6335,"ederation":6336,"EE":6337,"DF":6338,"Ġsymmetry":6339,"Ġnearby":6340,"raq":6341,"ĠGirl":6342,"Ġhref":6343,"inson":6344,"aped":6345,"ĠAdminist":6346,"innes":6347,"setminus":6348,"onym":6349,"ashion":6350,"Ġhousing":6351,"Ġbaseball":6352,"Sim":6353,"rawn":6354,"Sub":6355,"Ġcert":6356,"_{{\\":6357,"Ġcat":6358,"ĠMinistry":6359,"greg":6360,"sky":6361,"Ġemission":6362,"Ġflu":6363,"ader":6364,"Ġconference":6365,"Ġexactly":6366,"Ġcontinues":6367,"Ġargument":6368,"ĠPolish":6369,"ĠSee":6370,"seud":6371,"ĠMedical":6372,"ĠIslands":6373,"footnote":6374,"ĠStation":6375,"alg":6376,"phia":6377,"zy":6378,"Ġprovince":6379,"apping":6380,"Ġcombination":6381,"zech":6382,"ĠStudies":6383,"rons":6384,"Ġalternative":6385,"Ġtechniques":6386,"ĠNations":6387,"amber":6388,"Ġvariable":6389,"Ġprice":6390,"ĠDaniel":6391,"Ġconsistent":6392,"Ġcry":6393,"ĠBerlin":6394,"Ġpolitics":6395,"Ġwidely":6396,"ĠVictoria":6397,"ĠSciences":6398,"Ob":6399,"Ġretain":6400,"Ġstrength":6401,"Ġchain":6402,"Ġvon":6403,"}/":6404,"ĠLater":6405,"Year":6406,"texttt":6407,"ĠLim":6408,"More":6409,"rating":6410,"ĠCa":6411,"Ð½":6412,"Ġfreedom":6413,"ĠPrime":6414,"Ġemp":6415,"dagger":6416,"ĠBBC":6417,"Ġopin":6418,"ersion":6419,"Ġdivided":6420,"Ġbridge":6421,"Ġera":6422,"Ġbounded":6423,"Ġpolar":6424,"Ġgrew":6425,"ĠÅ":6426,"display":6427,"Ġinterpret":6428,"innesota":6429,"hand":6430,"mat":6431,"Ġmarg":6432,"Ġframework":6433,"but":6434,"ĠEst":6435,"ĠWilson":6436,"Ġlanguages":6437,"Ġminister":6438,"Ġeastern":6439,"Ġpartner":6440,"ĠBoy":6441,"Ġsust":6442,"1918":6443,"Ġwinner":6444,"pol":6445,"1936":6446,"}'":6447,"ifications":6448,"itled":6449,"ĠMedia":6450,"yes":6451,"Ġ$|":6452,"ĠGuard":6453,"Ġmunicipality":6454,"attal":6455,"Ġepisodes":6456,"Ġexperiments":6457,"Ġgra":6458,"ĠCorn":6459,"lines":6460,"ĠArgent":6461,"Ġcrime":6462,"Ġmachine":6463,"adelphia":6464,"ÅĤ":6465,"Ġlayer":6466,"iced":6467,"Ġslightly":6468,"Ġbomb":6469,"ĠCreek":6470,"Ġfifth":6471,"Ġdiscussion":6472,"ĠBra":6473,"Ġnewspaper":6474,"$_":6475,"Ġequipment":6476,"Our":6477,"}},":6478,"nic":6479,"inite":6480,"utenant":6481,"ĠColor":6482,"met":6483,"iec":6484,"ĠGame":6485,"command":6486,"Ġentry":6487,"hens":6488,"UT":6489,"Ġkept":6490,"poses":6491,"Ġstreet":6492,"Ġsoldiers":6493,"asi":6494,"Ġspaces":6495,"Ġowner":6496,"ropy":6497,"Ġsurpr":6498,"Ġhydro":6499,"Ġagreed":6500,"ulf":6501,"Exp":6502,"ĠOlympic":6503,"Ġcomparison":6504,"Ġprotection":6505,"Ġvisual":6506,"Ġeverything":6507,"prod":6508,"('":6509,"Ġauthority":6510,"active":6511,"Ġshared":6512,"Ġproved":6513,"Ġcycl":6514,"code":6515,"Ġparticle":6516,"ĠPakistan":6517,"while":6518,"Ġsuggested":6519,"gest":6520,"_*":6521,"Ġassistant":6522,"source":6523,"Ġonto":6524,"Sw":6525,"idden":6526,"ĠUl":6527,"Ġsynt":6528,"phas":6529,"ibliography":6530,"rule":6531,"ĠCorporation":6532,"Ġsamples":6533,"Comm":6534,"ĠOntario":6535,"Ġteacher":6536,"iable":6537,"Ġappropriate":6538,"^{-\\":6539,"Ġassigned":6540,"ĠPower":6541,"Ġexperimental":6542,"iling":6543,"ĠKar":6544,"ĠCat":6545,"Ġappearances":6546,"Ġdiff":6547,"ĠRod":6548,"ĠNetwork":6549,"ĠCommon":6550,"ducing":6551,"Ġenh":6552,"Ġ($\\":6553,"inder":6554,"_+":6555,"iful":6556,"ĠPrize":6557,"ĠJean":6558,"Ġformat":6559,"cho":6560,"Ġhands":6561,"jo":6562,"****":6563,"uing":6564,"Members":6565,"ĠBell":6566,"RC":6567,"van":6568,"etherlands":6569,"Ġfans":6570,"Ġperfect":6571,"Ġlargely":6572,"Ġwild":6573,"amental":6574,"unte":6575,"Ġimag":6576,"ĠPen":6577,"Ġcreation":6578,"Ġsteps":6579,"Ġvar":6580,"Ġtransferred":6581,"AF":6582,"\\}":6583,"1938":6584,"ĠConf":6585,"Ġpra":6586,"Ġorganized":6587,"ori":6588,"andemic":6589,"Ġcontained":6590,"yo":6591,"ĠHig":6592,"PC":6593,"Ġattacks":6594,"Ġcampus":6595,"ocated":6596,"Ġtell":6597,"writer":6598,"Ġ$-":6599,"Ġdynamics":6600,"ĠLew":6601,"Ġneighborhood":6602,"Ġalongside":6603,"These":6604,"Ġcopy":6605,"Ġgraduated":6606,"Ġap":6607,"ĠVill":6608,"Ġaccepted":6609,"Ġscholars":6610,"Ġimportance":6611,"Ġleaves":6612,"Ġassociation":6613,"imately":6614,"ĠStand":6615,"Ġassumed":6616,"rass":6617,"iest":6618,"Ġrural":6619,"const":6620,"Ġacts":6621,"Ġideas":6622,"ĠJon":6623,"rates":6624,"Per":6625,"Ġdistingu":6626,"aver":6627,"Ġactual":6628,"ĠTaylor":6629,"ĠCre":6630,"ĠPubl":6631,"uled":6632,"osh":6633,"ĠSports":6634,"Here":6635,"iÄĩ":6636,"Reg":6637,"Ġsections":6638,"aby":6639,"oute":6640,"Tr":6641,"ĠServices":6642,"fri":6643,"Ġphen":6644,"Ġpit":6645,"*{":6646,"1937":6647,"Ġpromoted":6648,"ewidth":6649,"Ġcompeted":6650,"Ġgalaxies":6651,"Ġuns":6652,"orship":6653,"ĠRog":6654,"Ġpoly":6655,"Ġcreating":6656,"Ġscientific":6657,"Ã¡n":6658,"ĠBand":6659,"Ġ:=":6660,"dt":6661,"Ġstatistics":6662,"Ġplanned":6663,"antic":6664,"ĠRome":6665,"ĠKorean":6666,"Ġmiles":6667,"mail":6668,"ĠBol":6669,"run":6670,"Ġclearly":6671,"Ġcarri":6672,"Ġenvironmental":6673,"rie":6674,"Ġregarding":6675,"Ġtried":6676,"lers":6677,"Ġcolle":6678,"etime":6679,"Ġincreases":6680,"bec":6681,"ĠRevolution":6682,"Ġviolence":6683,"Ġadministrative":6684,"Over":6685,"net":6686,"enness":6687,"roduction":6688,"Ġrecognized":6689,"lav":6690,"iate":6691,"IP":6692,"Ġfloor":6693,"Ġathlet":6694,"Sport":6695,"Ġemployees":6696,"ĠAsh":6697,"ester":6698,"Ġestate":6699,"Ġwall":6700,"ingham":6701,"Back":6702,"ĠAirport":6703,"import":6704,"ĠOs":6705,"Ġfeaturing":6706,"anth":6707,"Ġprote":6708,"Ġboy":6709,"Ġcommittee":6710,"ĠEqu":6711,"ĠSydney":6712,")|":6713,"Ġlink":6714,"ieg":6715,"osis":6716,"Ġfile":6717,"ÑĢ":6718,"%)":6719,"Ġdual":6720,"Ġmomentum":6721,"nergy":6722,"colon":6723,"Ġagric":6724,"Ġprocedure":6725,"ĠSunday":6726,"ĠMaster":6727,"iga":6728,"How":6729,"Ġpowerful":6730,"raine":6731,"Ġspeech":6732,"My":6733,"edding":6734,"Ġoccurs":6735,"Ġlett":6736,"ĠMike":6737,"Ġroles":6738,"Ġcommonly":6739,"Ġallowing":6740,"ĠToronto":6741,"ĠIndust":6742,"El":6743,"peror":6744,"SR":6745,"oplus":6746,"Will":6747,"Ġ$[":6748,"Ġhttp":6749,"ĠCub":6750,"onsin":6751,"Ġvehicle":6752,"Ġhttps":6753,"arry":6754,"nowled":6755,"University":6756,"wedge":6757,"Ġven":6758,"Ġserves":6759,"Ġfunding":6760,"Ġcars":6761,"Ġheard":6762,"athan":6763,"Ġengineering":6764,"Ġfigures":6765,"asks":6766,"Ġregime":6767,"isconsin":6768,"ĠAvenue":6769,"ĠElizabeth":6770,"akh":6771,"Ġfocused":6772,"Ġcategor":6773,"Ġbottom":6774,"perial":6775,"dec":6776,"ĠBa":6777,"}}_{":6778,"Ġcontrovers":6779,"Ġclassification":6780,"ĠPolit":6781,"Ġclin":6782,"Ġapparent":6783,"Ġinterested":6784,"going":6785,"uted":6786,"Ġearth":6787,"Ġachieve":6788,"ĠAk":6789,"udes":6790,"Ġtoward":6791,"ĠYour":6792,"spec":6793,"Austral":6794,"State":6795,"ĠBrad":6796,"ĠSa":6797,"Ġdifferences":6798,"Ġmessage":6799,"Ġplanning":6800,"Dem":6801,"ĠOt":6802,"ĠThree":6803,"Ġapproximation":6804,"Ġauthorities":6805,"Ġoccurred":6806,"Ġrang":6807,"MP":6808,"ĠSom":6809,"Ġperman":6810,"water":6811,"Ġgets":6812,"ĠLight":6813,"Ġspot":6814,"Ġframe":6815,"osophy":6816,"ĠMoreover":6817,"owa":6818,"Ġtraffic":6819,"ĠTam":6820,"Ġori":6821,"ĠCirc":6822,"ĠBon":6823,"Music":6824,"igation":6825,"Ġvertex":6826,"Ġflight":6827,"eman":6828,"Ġtechnical":6829,"Ġcandidates":6830,"Ġsolo":6831,"urer":6832,"chestra":6833,"Ġprominent":6834,"Ġdrop":6835,"Ġsecret":6836,"bound":6837,"life":6838,"Ġindustrial":6839,"Ġplants":6840,"ĠAst":6841,"olitan":6842,"eaking":6843,"Ġbeat":6844,"urches":6845,"stream":6846,"Ġmotor":6847,"Ġsculpt":6848,"Ġdamage":6849,"Ġurban":6850,"Ġmusicians":6851,"Ġconsult":6852,"Ġencoura":6853,"hol":6854,"rot":6855,"Ġtend":6856,"ĠIraq":6857,"ĠBecause":6858,"ĠCambridge":6859,"Ġrough":6860,"\\\\\\\\\\\\\\\\\\\\\\\\\\\\\\\\\\\\\\\\\\\\\\\\\\\\\\\\\\\\\\\\":6861,"Ġinvestigation":6862,"Ġemphas":6863,"linewidth":6864,"ollary":6865,"Ġdisapp":6866,"His":6867,"Ġconstitu":6868,"oster":6869,"ĠAlb":6870,"ilation":6871,";\"":6872,"ogs":6873,"ĠFamily":6874,"Ġlab":6875,"Ġrequirements":6876,"sey":6877,"Ġfine":6878,"Ġpurposes":6879,"Ġmeant":6880,"ĠSecurity":6881,"CH":6882,"aph":6883,"Ġchemical":6884,"ĠChris":6885,"ivial":6886,"Ġshowing":6887,"Ġhar":6888,"escription":6889,"ĠEven":6890,"Ġcoupling":6891,"ML":6892,"Ġteaching":6893,"Ġfellow":6894,"heim":6895,"orage":6896,"Ġdrive":6897,"Ġlaunch":6898,"pan":6899,"ois":6900,"ĠMinnesota":6901,"ĠPers":6902,"IG":6903,"Gu":6904,"print":6905,"data":6906,"Ġcommunication":6907,"Ġdecades":6908,"Ġdecay":6909,"aska":6910,"Ġhope":6911,"istical":6912,"arts":6913,"using":6914,"ĠSher":6915,"Ġhistoric":6916,"Ġabsol":6917,"ĠDisc":6918,"alities":6919,"âĢĿ.":6920,"Ġresident":6921,"1935":6922,"ronze":6923,"atial":6924,"ĠFollowing":6925,"odd":6926,"ropical":6927,"ariance":6928,"lyn":6929,"Ġstable":6930,"ĠĠĠĠĠĠĠĠĠĠĠĠĠ":6931,"bourne":6932,"Ġsilver":6933,"aren":6934,"Ġfaith":6935,"),\\":6936,"'ve":6937,"quarters":6938,"ĠRegiment":6939,"Ġidentify":6940,"Ġpandemic":6941,"Ġtrained":6942,"ami":6943,"ogen":6944,"ĠQueens":6945,"Ġsecondary":6946,"1914":6947,"Ġsides":6948,"Ġtermin":6949,"ĠSanta":6950,"Ġtypical":6951,"Ġconflict":6952,"ĠAnton":6953,"ĠRaj":6954,"Ġresearc":6955,"Ġparticipated":6956,"weg":6957,"ĠNetherlands":6958,"RO":6959,"Ġeveryone":6960,"){\\":6961,"Ġprotect":6962,"mes":6963,"inton":6964,"ĠBu":6965,"olis":6966,"Ġcoal":6967,"Ġpropag":6968,"apore":6969,"General":6970,"Ġdaily":6971,"ĠAnother":6972,"Ġsubstant":6973,"ĠTok":6974,"ĠFair":6975,"gg":6976,"Cons":6977,"Ġweb":6978,"1919":6979,"Ġstock":6980,"Ġtor":6981,"Ġsail":6982,"Ġpull":6983,"Ġdance":6984,"Ġaccomp":6985,"Ġsupply":6986,"Ġnotes":6987,"Polit":6988,"perp":6989,"DP":6990,"Ġfix":6991,"Ġvary":6992,"Ġintegral":6993,"unch":6994,"Ġabsor":6995,"Ġroll":6996,"ĠST":6997,"function":6998,"Ġprogramming":6999,"ĠMain":7000,"ĠPhiladelphia":7001,"agraph":7002,"120":7003,"Ġdeveloping":7004,"Ġfailure":7005,"idel":7006,"Ġmarked":7007,"Ġoptimal":7008,"Ġparallel":7009,"Ġcalculated":7010,"1933":7011,"Ġload":7012,"ĠSu":7013,"Ġaudience":7014,"Ġnull":7015,"World":7016,"Ġexpatriate":7017,"ĠRegion":7018,"1917":7019,"ĠHence":7020,"Ac":7021,"black":7022,"ruit":7023,"Ġofficially":7024,"Ġaware":7025,"ĠRen":7026,"adian":7027,"Ġprincipal":7028,"Ġaccuracy":7029,"rs":7030,"Ġreality":7031,"ĠAnth":7032,"tail":7033,"ĠPhys":7034,"Ġsqu":7035,"May":7036,"Ġtwice":7037,"Ġfacility":7038,"Ġnumerical":7039,"Ġparl":7040,"Ġtesting":7041,"Ġcaptured":7042,"Ġ(-":7043,"Ġdial":7044,"Ġinvestment":7045,"Ġbegins":7046,"Ġiter":7047,"Ġcycle":7048,"ga":7049,"Ġstrongly":7050,"Ġlattice":7051,"Ġtun":7052,"regon":7053,"Ġfeet":7054,"neg":7055,"rizona":7056,"urd":7057,"aki":7058,"ĠPoint":7059,"ĠRights":7060,"Ġaffected":7061,"free":7062,"Ġradius":7063,"ĠForest":7064,"Ġapproaches":7065,"Ġign":7066,"pping":7067,"gers":7068,"limits":7069,"iplom":7070,"Post":7071,"ĠKim":7072,"Sch":7073,"_{(":7074,"ĠFund":7075,"former":7076,"hu":7077,"Ġdeclared":7078,"ĠOfficial":7079,"Ġpure":7080,"Ġcircum":7081,"Ġchampion":7082,"\\'":7083,"Ġsurrounding":7084,"Ġorders":7085,"Ġpolicies":7086,"ĠNY":7087,"LO":7088,"Ġcluster":7089,"Ġreviews":7090,"Ġperturb":7091,"Ġ;":7092,"iffer":7093,"Ġsettlement":7094,"Ġappeal":7095,"Ġchallenge":7096,"ictures":7097,"Ġly":7098,"Ġnarrow":7099,"igrants":7100,"Ġmassive":7101,"Ġ!":7102,"fort":7103,"ĠFire":7104,"ĠRom":7105,"ĠWisconsin":7106,"South":7107,"Ġcrim":7108,"ĠWeek":7109,"asure":7110,"Ġvotes":7111,"rog":7112,"Ġmorning":7113,"gency":7114,"ĠEngineering":7115,"Ġangle":7116,"Pol":7117,"1934":7118,"Ġnotice":7119,"ĠDespite":7120,"after":7121,")\\,":7122,"disc":7123,"ĠBrig":7124,"iti":7125,"Ġinequality":7126,"ĠInformation":7127,"Ġspectral":7128,"atically":7129,"main":7130,"bro":7131,"itle":7132,"subfigure":7133,"ĠVen":7134,"ĠClark":7135,"Ġcorpor":7136,"hips":7137,"deg":7138,"Ġexpand":7139,"pc":7140,"ĠGer":7141,"Set":7142,"Ġinspired":7143,"Ġpal":7144,"Ġ|\\":7145,"Ġdepends":7146,"opher":7147,"Ġdistributed":7148,"1929":7149,"ĠHay":7150,"Ġinnov":7151,"Ġvertices":7152,"ni":7153,"ĠLabor":7154,"ĠSet":7155,")/":7156,"Ġdestroyed":7157,"ĠWalk":7158,"Ġlocations":7159,"Ġfraction":7160,"ĠKel":7161,"LP":7162,"Ġcontemporary":7163,"Ġlearned":7164,"Ġraces":7165,"Ġmedian":7166,"chen":7167,"Ġgranted":7168,"Part":7169,"Ġ=>":7170,"Ġvehicles":7171,"opping":7172,"Ġgain":7173,"Ġreject":7174,"TA":7175,"VD":7176,"etery":7177,"sex":7178,"osure":7179,"endix":7180,"Ġfinding":7181,"Ġlie":7182,"Ġdegrees":7183,"aussian":7184,"}%":7185,"Ġrecip":7186,"Ġincident":7187,"anna":7188,"Ġnar":7189,"Ġsort":7190,"SM":7191,"La":7192,"ĠLady":7193,"Ġbenefit":7194,"emetery":7195,"Ġbehavi":7196,"Ġnotable":7197,"Ġcerem":7198,"ego":7199,"Personal":7200,"ĠHind":7201,"model":7202,"Ġelimin":7203,"Ġrestaur":7204,"ĠProposition":7205,"Ġlibrary":7206,"Ġmountain":7207,"1928":7208,"Ġnodes":7209,"Ġtells":7210,"Ġcalls":7211,"Ġfaculty":7212,"break":7213,"tan":7214,"Ġtaught":7215,"Ġarts":7216,"Ġaccur":7217,"Ġdetailed":7218,"ĠPremier":7219,"1900":7220,"Ġversions":7221,"ĠKansas":7222,"Ġhoriz":7223,"ĠDuke":7224,"Ġwinners":7225,"UN":7226,"pson":7227,"Ġreconst":7228,"Ġfunds":7229,"ĠCur":7230,"Disc":7231,"Ġphysic":7232,"ÑĤ":7233,"bin":7234,"Ġbusinesses":7235,"reshold":7236,"Ġsimulations":7237,"Ñģ":7238,"Ġexpanded":7239,"ĠWell":7240,"lean":7241,"aret":7242,"establ":7243,"Ġanimals":7244,"Ġexplained":7245,"Ġelev":7246,"Ġpowers":7247,"Ġcosm":7248,"{$\\":7249,"utation":7250,"Ġfiction":7251,"Ġcorresponds":7252,"iary":7253,"zo":7254,"ĠJews":7255,"ĠChristmas":7256,"Ġtitles":7257,")}(":7258,"Ġ&&":7259,"ĠSab":7260,"Ġcharged":7261,"Some":7262,"ĠPlan":7263,"ĠWars":7264,".~(\\":7265,"Ġobvious":7266,"gal":7267,"ĠSweden":7268,"eli":7269,"Ã£":7270,"Äį":7271,"lywood":7272,"Ġemployed":7273,"Ġperformances":7274,"ĠMedal":7275,"Ġmeasurements":7276,"Ġterritory":7277,"Ġinner":7278,"Ġwrong":7279,"Ġutil":7280,"ĠBudd":7281,"ĠDavis":7282,"Ġtheore":7283,"des":7284,"ĠIndiana":7285,"Ġcool":7286,"Ġquad":7287,"ordan":7288,"Ġassumption":7289,"Ġresulted":7290,"Ġinjury":7291,"ĠBeach":7292,"ĠSwedish":7293,"1910":7294,"1932":7295,"Ã¸":7296,"Ġefficient":7297,"weet":7298,"Ġaffili":7299,"Ġtrees":7300,"Ġpenal":7301,"Ġproport":7302,"ĠKir":7303,"ĠSteve":7304,"uses":7305,"Ġexerc":7306,"Ġadvantage":7307,"ĠNaz":7308,"ĠMember":7309,"Ġstandards":7310,"EM":7311,"ogy":7312,"emble":7313,"ĠFox":7314,"aturday":7315,"Ġampl":7316,"annels":7317,"Ġthrow":7318,"Ġthick":7319,"Ġheav":7320,"That":7321,"Ġretire":7322,"ĠAthlet":7323,"ĠTrust":7324,"Ġjudge":7325,"Ġnewly":7326,"Ġedges":7327,"}}(\\":7328,"String":7329,"ĠConstitution":7330,"Ġpicture":7331,"Ã©e":7332,"cases":7333,"yal":7334,"Ġinvolving":7335,"Ġperforming":7336,"Ġoppos":7337,"inding":7338,"Ġremember":7339,"worth":7340,"Ġhouseholds":7341,"definition":7342,"Ġviews":7343,"Ġsatisfies":7344,"ivate":7345,"Ġminim":7346,"Nov":7347,"eless":7348,"Ġflag":7349,"Ġfounder":7350,"ymmet":7351,"roid":7352,"Ġsubsequent":7353,"Ġrepresentative":7354,"abil":7355,"\\!\\!":7356,"zen":7357,"omy":7358,"Ġpiano":7359,"Ġhosted":7360,"ĠStadium":7361,"Ġrecognition":7362,"also":7363,"Ġtruth":7364,"leep":7365,"attalion":7366,"Ġ%":7367,"ĠGlobal":7368,"Ġadvanced":7369,"ropolitan":7370,"translation":7371,"ennessee":7372,"ĠBad":7373,"Ġpurchased":7374,"rank":7375,"Ġadvance":7376,"length":7377,"Ġsuffered":7378,"Ġagency":7379,"Ġadvert":7380,"Ġclean":7381,"Ġfundamental":7382,"rices":7383,"Add":7384,"ĠLes":7385,"Ġprepar":7386,"Ġcriminal":7387,"case":7388,"Ġprotest":7389,"LC":7390,"asters":7391,"Ġoverl":7392,"Inter":7393,")^{\\":7394,"cular":7395,"ĠSon":7396,"wing":7397,"ĠGree":7398,"Ġapproved":7399,"Ġrenamed":7400,"ĠJesus":7401,"Ġaband":7402,"Ġorb":7403,"Ġcomposition":7404,"ĠWat":7405,"1922":7406,"ĠTy":7407,"ronic":7408,"Ġspons":7409,"ĠIndones":7410,"Ġdefeat":7411,"Ġphenomen":7412,"Ġdataset":7413,"Ġspecifically":7414,"ĠAtlantic":7415,")_{":7416,"ĠGro":7417,"Ġdefense":7418,"enses":7419,"Ġdevice":7420,"br":7421,"ĠTal":7422,"Ġexcit":7423,"asty":7424,"Ġdoctor":7425,"Ġdescribes":7426,"izer":7427,"ĠFree":7428,"ĠMissouri":7429,"ĠLegisl":7430,"ĠTurkey":7431,"ĠDesign":7432,"ĠLo":7433,"International":7434,"Ġdocumentary":7435,"Ġgained":7436,"Ġfish":7437,"aligned":7438,"Ġreduction":7439,"ocol":7440,"ĠBishop":7441,"Ġexperi":7442,"Ġnor":7443,"olds":7444,"string":7445,"ĠMic":7446,"Association":7447,"1931":7448,"oln":7449,"Ġparish":7450,"ĠLind":7451,"ĠSus":7452,"vard":7453,"ieces":7454,"rator":7455,"Ġcrisis":7456,"Ġ}\\":7457,"ĠColorado":7458,"ĠMill":7459,"Ġcaptain":7460,"Ġparliament":7461,"Ġconstraints":7462,"Pre":7463,"Ġextract":7464,"Ġintroduce":7465,"ĠStephen":7466,"ĠGolden":7467,"ĠAh":7468,"tainment":7469,"Ġindicate":7470,"ĠMilitary":7471,"ication":7472,"Ġrepresenting":7473,"1924":7474,"oding":7475,"Ġscript":7476,"}$-":7477,"Ġbenefits":7478,"Ġheat":7479,"rastructure":7480,"Ġisol":7481,"Ġvess":7482,"scape":7483,"Ġimproved":7484,"1927":7485,"Ġpairs":7486,"osa":7487,"riday":7488,"Net":7489,"Ġbands":7490,"ogene":7491,"Results":7492,"ĠRon":7493,"Ġsuggests":7494,"Ġrugby":7495,"Ġspring":7496,"orders":7497,"jan":7498,"Ġcomposer":7499,"mosp":7500,"Ġcorrelation":7501,"ĠJacob":7502,"Ġexternal":7503,"chang":7504,"Ġguarant":7505,"ĠCzech":7506,"ympt":7507,"Ġsegment":7508,"Ġinteractions":7509,"forall":7510,"ika":7511,"ĠDiv":7512,"CT":7513,"ĠBat":7514,"Ġanswer":7515,"Ġhabit":7516,"yard":7517,"Ġinterests":7518,"ĠDer":7519,"wegian":7520,"Although":7521,"Fl":7522,"ĠOregon":7523,"sime":7524,"ĠFrancis":7525,"Ġyounger":7526,"lets":7527,"Hz":7528,"icon":7529,"Ġentertain":7530,"Ġpublication":7531,"=(":7532,"anga":7533,"uccess":7534,"Ġremov":7535,"ito":7536,"oken":7537,"'_":7538,"Ġdomestic":7539,"oming":7540,"ket":7541,"ighth":7542,"ĠHun":7543,"ĠMarg":7544,"icial":7545,"Ġcollected":7546,"ĠBrook":7547,"Ġrepro":7548,"simeq":7549,"Â°":7550,"Ġ~":7551,"Out":7552,"Ġestimates":7553,"End":7554,"Ġchance":7555,"cow":7556,"path":7557,"eral":7558,"LS":7559,"outheast":7560,"ĠAffairs":7561,"Ġlisting":7562,"return":7563,"Ġdepth":7564,"ĠBooks":7565,"iamond":7566,"irt":7567,"mad":7568,"ounce":7569,"Ġdelay":7570,"Ġportion":7571,"German":7572,"Ġnovels":7573,"Ġcreat":7574,"Ġcharges":7575,"Ġends":7576,"Ġswim":7577,"ĠAuthor":7578,"ĠHoward":7579,"Ġbudget":7580,"Ġstrict":7581,"ĠCountry":7582,"_{-":7583,"FT":7584,"ĠLive":7585,"Ġcooper":7586,"ifer":7587,"Ġnegot":7588,"Ġstone":7589,"Ġpartnership":7590,"rane":7591,"Ġbelief":7592,"Ġmanner":7593,"abled":7594,"Ġsomew":7595,"Ġwealth":7596,"Ġskills":7597,"isa":7598,"CP":7599,"HS":7600,"orge":7601,"ĠDown":7602,"Ġwarn":7603,"Dist":7604,"ĠAlf":7605,"ĠDam":7606,"Ġperhaps":7607,"Ġindicates":7608,"ĠCaptain":7609,"Ġassign":7610,":\\":7611,"ĠSerb":7612,"ĠWho":7613,"bullet":7614,"Ġrom":7615,"ilib":7616,"Ġknew":7617,"ĠBrother":7618,"Ġplanet":7619,"Ġdetection":7620,"ĠInternet":7621,"stances":7622,"ĠMaria":7623,"Ġtitled":7624,"Ġtowns":7625,"Ġideal":7626,"Ġdivers":7627,"otal":7628,"Women":7629,"ĠÎ":7630,"Bar":7631,"zero":7632,"Ġmodes":7633,"Ġaccident":7634,"ĠEth":7635,"Ġalleged":7636,"ĠArizona":7637,"1921":7638,"1926":7639,"Ġtele":7640,"III":7641,"Ä±":7642,"abase":7643,"uties":7644,"Sy":7645,"////":7646,"Ġfighting":7647,"omot":7648,"Ġtwenty":7649,"ĠMarsh":7650,"Ġgap":7651,"1925":7652,"Ġhero":7653,"ĠExecutive":7654,"ses":7655,"1000":7656,"HL":7657,"Ġmorph":7658,"1923":7659,"ĠBru":7660,"Ġsupporting":7661,"Ġconcert":7662,"ĠSquad":7663,"Ġfinds":7664,"Ġwitness":7665,"ĠMaryland":7666,"ĠBall":7667,"Ġremark":7668,"rium":7669,"Ġengineer":7670,"Ġbond":7671,"ĠFace":7672,"Ġmedium":7673,"Ġjur":7674,"aints":7675,"110":7676,"acter":7677,"inals":7678,"uv":7679,"Ġreceiving":7680,"such":7681,"aga":7682,"Ġreligion":7683,"png":7684,"hetic":7685,"Ġtheme":7686,"Ġfinish":7687,"Ġinstitution":7688,"Ġsimulation":7689,"Ġprime":7690,"1912":7691,"Ġconstitution":7692,"Biography":7693,"ĠLewis":7694,"onal":7695,"ĠForeign":7696,"ĠWinter":7697,"French":7698,"Ġopposition":7699,"ails":7700,"Ġlimits":7701,"conn":7702,"~$\\":7703,"ĠPass":7704,"acent":7705,"Ġtransformation":7706,"600":7707,"Ġdenotes":7708,"Ġce":7709,"Ġattribut":7710,"Ġterror":7711,"ĠLike":7712,"Ġjustice":7713,"Ġarms":7714,"Ġarrested":7715,"Act":7716,"ĠFinal":7717,"250":7718,"'\\":7719,"Class":7720,"Ġcoefficients":7721,"ĠArea":7722,"lah":7723,"RS":7724,"ĠOp":7725,"Ġinstall":7726,"Ġextensive":7727,"message":7728,"ĠEnergy":7729,"requ":7730,"tered":7731,"coming":7732,"âĢĿ,":7733,"Ġshift":7734,"clusive":7735,"index":7736,"Ġtrend":7737,"Ġloan":7738,"Ġstarts":7739,"Ġdistricts":7740,"ĠJoh":7741,"ptions":7742,"ĠCas":7743,"rell":7744,"Cast":7745,"ĠSingapore":7746,"oles":7747,"tty":7748,"Ġgovernor":7749,"ĠArthur":7750,"uous":7751,"Ġscalar":7752,"agonal":7753,"Ġdoll":7754,"keep":7755,"Ġfrequently":7756,",\\,":7757,"organ":7758,"Ġultimately":7759,"Ġsurn":7760,"Ġlosing":7761,"present":7762,"textsc":7763,"Ġranked":7764,"enna":7765,"Ġsevent":7766,"Ġinstruct":7767,"Ġpersp":7768,"Ġfashion":7769,"Ġstress":7770,"ĠHal":7771,"ĠWrit":7772,"subsubsection":7773,"Ġresid":7774,"$^{-":7775,"ION":7776,"Ġeducational":7777,"ĠSpring":7778,"Ġadm":7779,"oli":7780,"Ġprinciple":7781,"vements":7782,"Char":7783,"ĠIN":7784,"Dr":7785,"AB":7786,"ĠAD":7787,"ĠMoh":7788,"Ġcrow":7789,"erse":7790,"ĠHan":7791,"ĠCop":7792,"Ġmathemat":7793,"Ġwasn":7794,"PP":7795,"ĠPit":7796,"ĠGallery":7797,"Ġprovinc":7798,"avel":7799,"ifies":7800,"Ġitems":7801,"ĠTennessee":7802,"Ġpainting":7803,"pool":7804,"Ġsan":7805,"ĠRoute":7806,"Sm":7807,"ĠHard":7808,"Ġtechnique":7809,"Ġadvoc":7810,"Ġvice":7811,"ĠDar":7812,"ĠBridge":7813,"Ġcurves":7814,"olid":7815,"rr":7816,"ĠSem":7817,"Ġodd":7818,"Ġwrest":7819,"Ġdocuments":7820,"ĠTownship":7821,"iang":7822,"Rel":7823,"ĠHoly":7824,"ĠGre":7825,"Ġpossibly":7826,"=-":7827,"ĠEvery":7828,"ĠTai":7829,"efe":7830,"ĠMemorial":7831,"Ġ+\\":7832,"Ġyards":7833,"ĠSav":7834,"Ġjournalist":7835,"ĠEU":7836,"Song":7837,"anned":7838,"TS":7839,"Ġsuperv":7840,"Ġexpert":7841,"Ġburn":7842,"Ġnet":7843,"ĠIV":7844,"They":7845,"ĠCastle":7846,"sto":7847,"Track":7848,"kes":7849,"everal":7850,"Ġanyone":7851,"Ġdriving":7852,"Ġcatal":7853,"|}":7854,"Ġclosely":7855,"achelor":7856,"Figure":7857,"ĠHo":7858,"Ġunable":7859,"ĠRoss":7860,"ĠCommand":7861,"Ġalt":7862,"Ġadding":7863,"Ġwing":7864,"1916":7865,"Ã£o":7866,"Ġtradition":7867,"ĠColon":7868,"Dav":7869,"Ġtensor":7870,"apes":7871,"Ð¾Ð":7872,"stack":7873,"Ġunf":7874,"hedral":7875,"Ġcauses":7876,"Ġdependence":7877,"Me":7878,"Ġhappened":7879,"yers":7880,"1915":7881,"ĠLag":7882,"Ġopinion":7883,"ĠBaron":7884,"Ġsuccessfully":7885,"Ġimplementation":7886,"othing":7887,"Ġentirely":7888,"ĠBh":7889,"){":7890,"$(":7891,"ĠHou":7892,"Ġcalc":7893,"ĠMond":7894,"Eq":7895,"Ġhuge":7896,"Ġdanger":7897,"Ġcommitted":7898,"alysis":7899,"ĠMountain":7900,"Ġsac":7901,"onents":7902,"irty":7903,"ĠMiller":7904,"umes":7905,"anchester":7906,"Ãº":7907,"Ġcompute":7908,"illery":7909,"ĠOrig":7910,"Ġphysics":7911,"Ġopposite":7912,"Ġcab":7913,"Ġextremely":7914,"ĠVietnam":7915,"ivals":7916,"ĠMun":7917,"omic":7918,"Olymp":7919,"ĠÂ§":7920,"ĠRepresentatives":7921,"uther":7922,"ĠHart":7923,"Ġcovers":7924,"ĠStock":7925,"Ġ&=&":7926,"Ġaspects":7927,"Ġdriver":7928,"ecution":7929,"Ġdevices":7930,"Ġseats":7931,"ĠConst":7932,"anes":7933,"Ġrich":7934,"Ġfemales":7935,"Ġcircle":7936,"Ġpages":7937,"ectic":7938,"ello":7939,"Ġattempts":7940,"ĠPhilippines":7941,"andy":7942,"$).":7943,"ĠKal":7944,"Ġrepeated":7945,"ski":7946,"aser":7947,"Ġconcerns":7948,"Ġinfl":7949,"backs":7950,"Ġentitled":7951,"outs":7952,"Ġsampl":7953,"Ġhall":7954,"amely":7955,"western":7956,"Thus":7957,"Ġahead":7958,"Ġessential":7959,"Ġintroduction":7960,"Jan":7961,"ĠFederation":7962,"ocracy":7963,"ureau":7964,"Ġgirls":7965,"ĠReport":7966,"ordon":7967,"Ġerrors":7968,"bot":7969,"iser":7970,"obe":7971,"Ġsingular":7972,"Ġtranslation":7973,"Ġagree":7974,"ĠReal":7975,"normal":7976,"oven":7977,"ĠCEO":7978,"itzerland":7979,"Ġelectronic":7980,"inking":7981,"Ġjobs":7982,"Ġbrain":7983,"called":7984,"inv":7985,"inations":7986,"ĠLeon":7987,"Ġdepending":7988,"Ġcorner":7989,"Ġflood":7990,"Ġchannels":7991,"Ġnob":7992,"Mon":7993,"Ġack":7994,"={":7995,"ci":7996,"ĠOfficer":7997,"ĠEarl":7998,"zh":7999,"ibr":8000,"Ġpassing":8001,"ĠPalest":8002,"Ġpun":8003,"Ġdeploy":8004,"Ġmand":8005,"coh":8006,"Ġpieces":8007,"ĠPeak":8008,"Ġchairman":8009,"}^*":8010,"Ġprofession":8011,"Sing":8012,"ĠAdministration":8013,"Data":8014,"ĠAM":8015,"Ġconsidering":8016,"watch":8017,"Ġsymmetric":8018,"Ġdistributions":8019,"}}^":8020,"Ġfuel":8021,"hard":8022,"Ġoptical":8023,"eties":8024,"ĠNorway":8025,"ĠChildren":8026,"Ġholding":8027,"Ġcopies":8028,"forcement":8029,"ĠUkraine":8030,"ghan":8031,"ĠBack":8032,"Ġoption":8033,"'.":8034,"Awards":8035,"ambig":8036,"ĠPolicy":8037,"Ġchallenges":8038,"cf":8039,"duces":8040,"rene":8041,"Ġfestival":8042,"Ġletters":8043,"evin":8044,"Ġspatial":8045,"incoln":8046,"bal":8047,"ĠNorm":8048,"Ġtests":8049,"lication":8050,"800":8051,"OM":8052,"mouth":8053,"Ġcoverage":8054,"Ġdesignated":8055,"ĠEnvironment":8056,"living":8057,"icip":8058,"apel":8059,"Ġopposed":8060,"erick":8061,"Ġconvent":8062,"Ġspectra":8063,"Ġshif":8064,"Ġwindow":8065,"ensis":8066,"Ġdig":8067,"ographer":8068,"herent":8069,"Ġcapture":8070,"ĠArk":8071,"ĠMexican":8072,"\";":8073,")^{-":8074,"ĠWin":8075,"Ġvacc":8076,"je":8077,"awn":8078,"ĠAN":8079,"abama":8080,"BI":8081,"Supp":8082,"Ġtheatre":8083,"Vi":8084,"wealth":8085,"ingly":8086,"Ġwhereas":8087,"ĠInvest":8088,"orrow":8089,"ĠPier":8090,"Ġturns":8091,"iversary":8092,"Ġcart":8093,"Ġhomes":8094,"Ġvent":8095,"gener":8096,"Ġconfiguration":8097,"Ġjump":8098,"Ġexplain":8099,"Ġmess":8100,"ĠAnderson":8101,"agues":8102,"Ġthreshold":8103,"Ġadopt":8104,"rehens":8105,"ĠVis":8106,"Ġaid":8107,"Following":8108,"Ġoccasion":8109,"ippi":8110,"Ġalgorithms":8111,"ĠTa":8112,"Ã¢":8113,"Ġfresh":8114,"1913":8115,"Ġthousands":8116,"ĠHighway":8117,"omorphic":8118,"ĠAbout":8119,"Ġnominated":8120,"ĠSurvey":8121,"Canadian":8122,"Ġhour":8123,"ĠSaturday":8124,"ifier":8125,"newcommand":8126,"ocese":8127,"ĠFurthermore":8128,"ĠFinally":8129,"Build":8130,"bell":8131,"ĠMoscow":8132,"matrix":8133,"Ġrevolution":8134,"Ġgenerate":8135,"gies":8136,"ING":8137,"Ġinvariant":8138,"Ġpermit":8139,"Ġvisited":8140,"ĠDonald":8141,"Gl":8142,"ĠRun":8143,"Ġhear":8144,"Ġopportunities":8145,"pass":8146,"Ġgall":8147,"spect":8148,"ĠMunicip":8149,"Christ":8150,"Ġending":8151,"Ġbow":8152,"Ġarbitrary":8153,"EP":8154,"ĠAud":8155,"GC":8156,"pmatrix":8157,"dy":8158,"uese":8159,"care":8160,"uli":8161,"Ġstorm":8162,"Ġtools":8163,"endment":8164,"Russ":8165,"irus":8166,"ĠPrim":8167,"ĠTurn":8168,"Ġisn":8169,"Ġreturning":8170,"ads":8171,"Ġroyal":8172,"igenous":8173,"Ġvoid":8174,"Olympic":8175,"ĠKer":8176,"ĠIowa":8177,"Ġburied":8178,"Ġmodified":8179,"Ġrefers":8180,"actor":8181,"ĠDor":8182,"Ġsav":8183,"Ġ\\(":8184,"})$.":8185,"white":8186,"Ġdiagn":8187,"ussion":8188,"ĠDC":8189,"ĠEntertainment":8190,"gar":8191,"rapy":8192,"ĠThrough":8193,"Ġreaction":8194,"Ġorth":8195,"OP":8196,")}{\\":8197,"DS":8198,"ĠStaff":8199,"shift":8200,"Ġcredit":8201,"ĠToday":8202,"Ġsolar":8203,"ĠĠĠĠĠĠĠĠĠĠ":8204,"Ġmedalists":8205,"Ġliqu":8206,"Ġstellar":8207,"ĠVice":8208,"Ġmental":8209,"iki":8210,"found":8211,"check":8212,"lahoma":8213,"Ġ=\\":8214,"ĠSat":8215,"plete":8216,"url":8217,"ĠMP":8218,"Ġsale":8219,"ĠSuch":8220,"lete":8221,"Ġcompris":8222,"Ġec":8223,"ĠLast":8224,"Ġglass":8225,"Ġobservation":8226,"Ġdecom":8227,"erves":8228,"eting":8229,"adi":8230,"Ġchanging":8231,"Ġbiggest":8232,"ilbert":8233,"Ġindependence":8234,"Ġrecommend":8235,"aded":8236,"rice":8237,"Ġsafe":8238,"race":8239,"ĠAdam":8240,"Ġscoring":8241,"otional":8242,"ĠHarry":8243,"ĠFord":8244,"Ġwins":8245,"Ġindeed":8246,"Ġdisk":8247,"Ġpolynomial":8248,"Ġoptions":8249,"Fe":8250,"Ġherself":8251,"Ġyields":8252,"ĠModern":8253,"Ġdiplom":8254,"agan":8255,"Ġmist":8256,"Ġprocessing":8257,"Ġsym":8258,"lay":8259,"ĠBarn":8260,"umin":8261,"CAA":8262,"Ġguard":8263,"aux":8264,"ĠMalays":8265,"Ġscheduled":8266,"West":8267,"ĠCab":8268,"ture":8269,"$$\\":8270,"Ġpromote":8271,"rieved":8272,"Ġweapons":8273,"\"/":8274,"Ġcontrolled":8275,"Ġpossibility":8276,"ĠFriday":8277,"Japan":8278,"Ġbought":8279,"^{+":8280,"UR":8281,"ĠWeb":8282,"Ġreson":8283,"brid":8284,"Ġgrid":8285,"Ġconsisting":8286,"cr":8287,"remark":8288,"Ġanimal":8289,"fficial":8290,"Ġmel":8291,"ĠLtd":8292,"ĠAdv":8293,"Ġefficiency":8294,"Ġvocal":8295,"Ġbodies":8296,"ologists":8297,"antly":8298,"Ġbroken":8299,"ĠEs":8300,"thew":8301,"Ġatmosp":8302,"Ġloop":8303,"Ġmeasurement":8304,"Ġshell":8305,"Ġpresidential":8306,"Ġeducated":8307,"ques":8308,"including":8309,"MM":8310,"1911":8311,"Ġrefused":8312,"ibb":8313,"ĠKhan":8314,"Ġsought":8315,"Ġracing":8316,"dim":8317,"ĠAmb":8318,"roc":8319,"Ġroot":8320,"ĠStory":8321,"mers":8322,"William":8323,"Ġacceler":8324,"ĠKentucky":8325,"rait":8326,"ecticut":8327,"Ġpartial":8328,"Ġusual":8329,"Ġdrawn":8330,"two":8331,"ĠMelbourne":8332,"Ġexcell":8333,"season":8334,"Ġobserve":8335,"OC":8336,"Ġworldwide":8337,"Ġask":8338,"Ġdropped":8339,"ĠSri":8340,"ĠIss":8341,"Ġconj":8342,"ĠUs":8343,"issippi":8344,"Ġpractices":8345,"pa":8346,"ĠFI":8347,"Ġstatic":8348,"Theorem":8349,"ultane":8350,"ĠId":8351,"Ġgreatest":8352,"Ġsession":8353,"ynasty":8354,"Ġbright":8355,"Ġthin":8356,"offs":8357,"stract":8358,"ĠBalt":8359,"uating":8360,"Ġiron":8361,"ĠBaseball":8362,"ÃŃa":8363,"tri":8364,"inst":8365,"Ġsun":8366,"ĠJunior":8367,"Play":8368,"Ġminimal":8369,"cha":8370,"Ġdoct":8371,"Ġcritics":8372,"ernel":8373,"Ġcomplic":8374,"usal":8375,"Ġsubset":8376,"Ġagents":8377,"Ġmasses":8378,"Ġlegislation":8379,"bel":8380,"Ġpersons":8381,"Ġhypothes":8382,"Ġportray":8383,"ĠOnly":8384,"ti":8385,"Ġarc":8386,"roit":8387,"Ġregistered":8388,"Ġstarring":8389,"ipe":8390,"Ġvillages":8391,"cut":8392,"ownt":8393,"Tax":8394,"pur":8395,"Ġpseud":8396,"hbox":8397,"Ġlatest":8398,"ĠHand":8399,"ĠOak":8400,"TC":8401,"Ġadap":8402,"ĠData":8403,"Ġzone":8404,"ĠTransport":8405,"Ġpossess":8406,"Public":8407,"ĠSimon":8408,"ĠShort":8409,"ĠGet":8410,"ĠMir":8411,"ĠDu":8412,"Ġment":8413,"Ġovers":8414,")_":8415,"Ġille":8416,"count":8417,"Ġargued":8418,"ogether":8419,"test":8420,"ocument":8421,"Ġdiscrim":8422,"Ġsave":8423,"encing":8424,"hr":8425,"Ġdie":8426,"Ġmagnitude":8427,"zer":8428,"uster":8429,")$-":8430,"ocratic":8431,"Ġlect":8432,"Ġdoor":8433,"ĠOcean":8434,"}}^{":8435,"Ġprogramme":8436,"Ġprotected":8437,"elect":8438,"ĠMedicine":8439,"ĠIslamic":8440,"ictional":8441,"Ġtheoretical":8442,"ouses":8443,"ĠCare":8444,"Ġvolunte":8445,"Ġcombat":8446,"Ġcomputed":8447,"Ġextent":8448,"Ġcas":8449,"Bibliography":8450,"Ġpermanent":8451,"Ġdecade":8452,"rÃ©":8453,"____":8454,"ĠMatt":8455,"ĠMagazine":8456,"SD":8457,"Ġpilot":8458,"ĠAP":8459,"adow":8460,"faces":8461,"Ġmatrices":8462,"ĠSenior":8463,"ĠAlbert":8464,"NR":8465,"lan":8466,"Ġgender":8467,"ĠJordan":8468,"ĠGreece":8469,"Ġmotiv":8470,"Sportspeople":8471,"ancer":8472,"Ġguest":8473,"($":8474,"ĠTony":8475,"Ġpremier":8476,"inema":8477,"Ġbrothers":8478,"elson":8479,"2023":8480,"agh":8481,"ilibrium":8482,"mapsto":8483,"oured":8484,"lease":8485,"prob":8486,"Ġvision":8487,"ĠRoy":8488,"ĠDomin":8489,"ĠGreg":8490,"ĠFront":8491,"Ġwinter":8492,"Ġsoci":8493,"EL":8494,"Ġattorney":8495,"ĠEric":8496,"ĠSwitzerland":8497,"Ġindicated":8498,"host":8499,"px":8500,"Ġintelligence":8501,"ĠWhit":8502,"Ġcalling":8503,"ĠCost":8504,"Ġfan":8505,"ĠCommunic":8506,"Ġresponsibility":8507,"Cor":8508,"Ġaffect":8509,"Ġattempted":8510,"ĠGrant":8511,"1908":8512,"Ġmanagers":8513,"iler":8514,"ĠAgain":8515,"don":8516,"ĠBuilding":8517,"agen":8518,"Ġstands":8519,"Ġjourney":8520,"ĠManchester":8521,"Ġsatisfy":8522,"Ġbronze":8523,"low":8524,"Ġhearing":8525,"Ġvide":8526,"Ġaf":8527,"ĠAlabama":8528,"Ġdirectors":8529,"Ġcontributed":8530,"ĠBefore":8531,"Ġsubstit":8532,"Ġexhibition":8533,"ĠModel":8534,"ĠNick":8535,"Ġtreated":8536,"ĠKey":8537,"ĠInn":8538,"ricted":8539,"ĠAssoci":8540,"opic":8541,"iveness":8542,"ĠNFL":8543,"iner":8544,"Ġdifferential":8545,"Ġfunctional":8546,"Hon":8547,"Ġsell":8548,"orig":8549,"Ġconsecutive":8550,"Ġeye":8551,"Ġreturns":8552,"Ġhole":8553,"ĠCP":8554,"aro":8555,"Ġcategories":8556,"ĠAustria":8557,"Ġcoordinates":8558,"rine":8559,"ĠBrian":8560,"oses":8561,"Ġoldest":8562,"Ġcarbon":8563,"iami":8564,"Ġasympt":8565,"Pres":8566,"icide":8567,"Ã¼r":8568,"ĠAge":8569,"mma":8570,"ĠKat":8571,"Ġsixth":8572,"ĠLow":8573,"Ġadult":8574,"Ġinterior":8575,"cat":8576,"ublin":8577,"ĠHom":8578,"Ġdiver":8579,"Ġkick":8580,"Ġfaced":8581,"ĠObama":8582,"Ġresc":8583,"kh":8584,"Ġwants":8585,"Prop":8586,"dx":8587,"ĠTel":8588,"ĠHur":8589,"ĠVo":8590,"Ġhotel":8591,"SF":8592,"Best":8593,"ymn":8594,"ĠRegional":8595,"Ġplus":8596,"Ġyellow":8597,"Ġfiled":8598,"ritical":8599,"ĠIsraeli":8600,"Ġpromotion":8601,"inth":8602,"Populated":8603,"Ġtail":8604,"ĠDun":8605,"iley":8606,"Ġtheories":8607,"Ġformerly":8608,"Ġbeautiful":8609,"ĠLiter":8610,"glas":8611,"ĠRoll":8612,"ĠLincoln":8613,"ĠBurn":8614,"rome":8615,"Ġbeam":8616,"Ġkilling":8617,"Ġescape":8618,"Background":8619,"Ġlawyer":8620,")\\\\":8621,"ĠFame":8622,"\"><":8623,"zi":8624,"Ġready":8625,"rainian":8626,"ĠPot":8627,"Ġmobile":8628,"Ġcomments":8629,"ortheast":8630,"Ġsole":8631,"odot":8632,"ĠAbb":8633,"ribed":8634,"flow":8635,"Section":8636,"Ġtower":8637,"ĠSix":8638,"ĠTen":8639,"Ġconven":8640,"Ġbroke":8641,"Ġgalaxy":8642,"uy":8643,"ĠEc":8644,"ĠAmong":8645,"ĠJane":8646,"Ġcollaboration":8647,"ĠBos":8648,"Ġsurg":8649,"apped":8650,"erts":8651,"Ġconverted":8652,"Ġturb":8653,"graph":8654,"Two":8655,"Geography":8656,"othe":8657,"isms":8658,"Ġcoaches":8659,"Ġcanon":8660,"Ġtrains":8661,"ĠNev":8662,"okes":8663,"$~":8664,"Ġcold":8665,"night":8666,"vol":8667,"ĠChannel":8668,"ĠForces":8669,"idge":8670,"first":8671,"ĠCape":8672,"ĠSi":8673,"ĠConnecticut":8674,"enez":8675,"ensed":8676,"Ġimplemented":8677,"ĠBah":8678,"Ġheadquarters":8679,"plex":8680,"Spec":8681,"Ġshut":8682,"Ġresearchers":8683,"ãĥ":8684,"\\\"":8685,"Ġvot":8686,"hom":8687,"ĠMicro":8688,"agnetic":8689,"Ġextend":8690,"ĠGoogle":8691,"stic":8692,"Ġstorage":8693,"ĠTokyo":8694,"uma":8695,"Ġcompare":8696,"ĠGaussian":8697,"Ġoccupied":8698,"iÃ³n":8699,"eft":8700,"enh":8701,"Ġnone":8702,"oom":8703,"Ġinfrastructure":8704,"Ġtransmission":8705,"car":8706,"Ġstream":8707,"tem":8708,"pty":8709,"Ġrenew":8710,"height":8711,"perty":8712,"Ġwarm":8713,"opped":8714,"ĠWolf":8715,"'(":8716,"Ġdecisions":8717,"Ġsettled":8718,"Ġweather":8719,"ĠDiego":8720,"ĠRa":8721,"Ġhappen":8722,"cious":8723,"lov":8724,"ĠFac":8725,"energy":8726,"has":8727,"ĠBrand":8728,"ĠMach":8729,"Ġconclude":8730,"Ġjazz":8731,"Er":8732,"overty":8733,"elve":8734,"$;":8735,"ĠMas":8736,"Ġtasks":8737,"ĠBab":8738,"odox":8739,"Ġdrums":8740,"ĠSM":8741,"SL":8742,"IL":8743,"ĠWhe":8744,"ĠNap":8745,"Ġlocally":8746,"ĠOtt":8747,"scill":8748,"Ġgraduate":8749,"Ġbriefly":8750,"Ġadvent":8751,"rite":8752,"cccc":8753,"Ġmusician":8754,"incess":8755,"Ġthermal":8756,"ĠStone":8757,"DC":8758,"uri":8759,"Ġthinking":8760,"ĠĠĠĠĠĠĠĠĠĠĠĠĠĠĠĠĠĠĠĠĠĠĠ":8761,"Ġ==":8762,"ĠHop":8763,"Ġcommander":8764,"Ġwalls":8765,"ikh":8766,"ospit":8767,"Men":8768,"Ġretirement":8769,"Ġassistance":8770,"Ġexperienced":8771,"isd":8772,"Ġsons":8773,"Ġprepared":8774,"Ġproducing":8775,"ellite":8776,"ĠSound":8777,"Ġoffices":8778,"Ġveter":8779,"ĠCle":8780,"ushed":8781,"Ġpapers":8782,"Ġmayor":8783,"Ġpatient":8784,"ĠHamiltonian":8785,"Ġadjust":8786,"Ġfolk":8787,"BM":8788,"yles":8789,"Ġchapter":8790,"Of":8791,"Ġsustain":8792,"ĠColomb":8793,"Ġexperiences":8794,"ĠCase":8795,"Ġexplo":8796,"Ġscientists":8797,"ĠDrag":8798,"ĠQueensland":8799,"ĠDoctor":8800,"ambiguation":8801,"elle":8802,"\\_":8803,"tah":8804,"nb":8805,"Ġseconds":8806,"Ġcovering":8807,"ĠAllen":8808,"cur":8809,"Ġcenturies":8810,"formance":8811,"olar":8812,"ĠOklahoma":8813,"enny":8814,"illing":8815,"ĠTurkish":8816,"Ġtool":8817,"Ġeffectively":8818,"Life":8819,"ĠBureau":8820,"Ġagencies":8821,"soft":8822,"ĠHouston":8823,"hop":8824,".$":8825,"proposition":8826,",$":8827,"ĠBor":8828,"Ġinterval":8829,"Ġcourts":8830,"ĠBillboard":8831,"Ġeyes":8832,"Ġshock":8833,"Ġduty":8834,"ĠJam":8835,"isted":8836,"Ġtick":8837,"Ġfrag":8838,"ĠEP":8839,"ĠHollywood":8840,"'ll":8841,"Ġhumans":8842,"wich":8843,"Ġdimensions":8844,"Death":8845,"ĠChile":8846,"Group":8847,"Ġjoining":8848,"values":8849,"inction":8850,"ĠSquadron":8851,"apse":8852,"ĠSky":8853,"uerto":8854,"vo":8855,"Ġrotation":8856,"ĠAfghan":8857,"Ġrefuge":8858,"cong":8859,"Ġfranch":8860,"ĠLabour":8861,"Ġconcerned":8862,"ĠBan":8863,"ĠTemple":8864,"Ġseek":8865,"Ġfought":8866,"stan":8867,"Ġpool":8868,"Ġlyrics":8869,"Ġfounding":8870,"fr":8871,"Ġhistorian":8872,"Ġconclusion":8873,"ĠMississippi":8874,"Ġhorse":8875,"Ġreferences":8876,"ĠAli":8877,"Ġtemple":8878,"Ġfear":8879,"ĠRose":8880,"olve":8881,"una":8882,"Ġconcluded":8883,"igious":8884,"sible":8885,"ĠCall":8886,"she":8887,"ĠLank":8888,"\\{\\":8889,"ĠĠĠĠĠĠĠĠĠĠĠĠ":8890,"ĠMarine":8891,"101":8892,"ardo":8893,"ceived":8894,"1890":8895,"Ġstanding":8896,"Ġscenes":8897,"];":8898,"aa":8899,"Ġbin":8900,"Ġradiation":8901,"Her":8902,"ĠWalter":8903,"unes":8904,"Ġnamely":8905,"Australian":8906,"Ġbinary":8907,"Ġobjective":8908,"Ġgoods":8909,"sur":8910,"ĠNAS":8911,"Ġmales":8912,"Ġchurches":8913,"Ġtempor":8914,"link":8915,"final":8916,"Ġintegration":8917,"ĠWy":8918,"Ġscattering":8919,"wick":8920,"ĠMit":8921,"Ġvectors":8922,"ĠHeart":8923,"Ġban":8924,"\"/>":8925,"ĠNich":8926,"Ġsucceeded":8927,"INE":8928,"Ġinduced":8929,"Ġfoundation":8930,"Ġscales":8931,"ĠMarc":8932,"ĠSquare":8933,"ounsel":8934,"ellect":8935,"ĠLog":8936,"Ġpush":8937,"ĠPy":8938,"Ant":8939,"Ġevaluation":8940,"Ġairport":8941,"ĠNon":8942,"ĠSaf":8943,"GA":8944,"ĠConc":8945,"Ġcustomers":8946,"Ġengaged":8947,"Ġconvergence":8948,"}({\\":8949,"Ġion":8950,"Ġnotation":8951,"antasy":8952,"cing":8953,"ĠWorks":8954,"Ġmort":8955,"Ġpurchase":8956,"aza":8957,"1905":8958,"actic":8959,"Ġunless":8960,"Ġcoinc":8961,"áĥ":8962,"North":8963,"Ġrear":8964,"Ġkil":8965,"Ġroughly":8966,"lik":8967,"Å«":8968,"mass":8969,"Ġprosec":8970,"Ġpatterns":8971,"power":8972,"oni":8973,"Ġstability":8974,"Ġcharacteristic":8975,"RI":8976,"Ġqualified":8977,"Ġadjacent":8978,"Ġstrike":8979,"edition":8980,"Ġestablishment":8981,"Ġrelationships":8982,"ãģ":8983,"Ġhighlight":8984,"Ġfluct":8985,"Ġaccompl":8986,"ĠGram":8987,"mi":8988,"Ġintegrated":8989,"\"),":8990,"Count":8991,"Ġdepict":8992,"agu":8993,"Cal":8994,"Ġsuitable":8995,"Ġresource":8996,"ante":8997,"Ġsituated":8998,"Ġlayers":8999,"_-":9000,"ĠHans":9001,"etal":9002,"acts":9003,"example":9004,"ĠUsing":9005,"tik":9006,"Conn":9007,"Ġsolve":9008,"displaystyle":9009,"Ġdebate":9010,"rained":9011,"}&":9012,"ĠCooper":9013,"Ġowners":9014,"arest":9015,"Ġped":9016,"Ġoperate":9017,"CM":9018,"Ġshortly":9019,"aire":9020,"ateur":9021,"Ġvariation":9022,"Sources":9023,"ĠNig":9024,"rect":9025,"ĠNorwegian":9026,"Ġsubsid":9027,"\\|_{":9028,"Ġraise":9029,"ĠAbd":9030,"Ġconfirm":9031,"ĠDefense":9032,"ĠArmen":9033,"Ġliterary":9034,"Ġheavily":9035,"ĠThird":9036,"Ġbuy":9037,"Ġpreced":9038,"Ġvo":9039,"Ġabund":9040,"ĠEmperor":9041,"ĠReb":9042,"mediate":9043,"Most":9044,"1906":9045,"Ġwel":9046,"Ġblocks":9047,"Ġcharts":9048,"Ġabsence":9049,"phant":9050,"Ġoscill":9051,"Ġbalance":9052,"Ġaccused":9053,"ĠPatrick":9054,"Ġaxis":9055,"Ġhair":9056,"onna":9057,"oat":9058,"Ġvertical":9059,"Ġmarkets":9060,"Ġphoto":9061,"ĠDisney":9062,"Ġphone":9063,"mont":9064,"IF":9065,"Ġsend":9066,"undle":9067,"high":9068,"Ġinteger":9069,"Ġregarded":9070,"Ġcook":9071,"Ġsimultane":9072,"ugu":9073,"HC":9074,"Ġcharacteristics":9075,"ruption":9076,"Ġpainter":9077,"%.":9078,"Ġcov":9079,"UK":9080,"eland":9081,"ĠIr":9082,"Ġvictims":9083,"Ġcomplexity":9084,"Ġaged":9085,"Ġresistance":9086,"Ġseparated":9087,"Ġcausing":9088,"ĠTelevision":9089,"1909":9090,"po":9091,"ĠNative":9092,"stood":9093,"ĠSilver":9094,"Ġexclud":9095,"Get":9096,"iated":9097,"dam":9098,"Ġreaching":9099,"alian":9100,"ieval":9101,"Ġtrip":9102,"iva":9103,"Ġorient":9104,"Ġinvited":9105,"Ġhelping":9106,"ĠHarris":9107,"olo":9108,"Ġextens":9109,"Ġabuse":9110,"Ġphotograph":9111,"Ġorg":9112,"disambiguation":9113,"Ġexceed":9114,"Ġmaintained":9115,"Ġrent":9116,"ipping":9117,"Af":9118,"Ġorbit":9119,"ĠTan":9120,"Har":9121,"Ġenemy":9122,"Ġbat":9123,"Born":9124,"Ġaccurate":9125,"merce":9126,"Ġkid":9127,"hab":9128,"ĠDue":9129,"Ġrecall":9130,"Ġpartition":9131,"Do":9132,"len":9133,"Ġinfluenced":9134,"Ġroof":9135,"ups":9136,"Ġmonitor":9137,"Ġcatch":9138,"ĠAgency":9139,"Ġchose":9140,"arsh":9141,"ĠMethod":9142,"ĠTaiwan":9143,"ĠNaval":9144,"Ġparticipants":9145,"Ġretail":9146,"ĠLouisiana":9147,"lad":9148,"0000":9149,"Ġdecor":9150,"Ġclusters":9151,"burn":9152,"ĠMoore":9153,"Ġmixing":9154,"OL":9155,"~~~~":9156,"strong":9157,"illed":9158,"theless":9159,"1907":9160,"Ġteachers":9161,"Cent":9162,"aron":9163,"Ġparticipate":9164,"Ġsupposed":9165,"CE":9166,"ĠAT":9167,"Ġcruc":9168,"Ġdelivered":9169,"profit":9170,"Ġattacked":9171,"Ġstatistical":9172,"ridges":9173,"ls":9174,"inian":9175,"allas":9176,"Ġdates":9177,"oder":9178,"ĠFacebook":9179,"ĠAnthony":9180,"uj":9181,"Ġ(,":9182,"istant":9183,"FM":9184,"itivity":9185,"Ġtemperatures":9186,"Ġlowest":9187,"Ġlake":9188,"Ġcamera":9189,"ĠZh":9190,"ĠHotel":9191,"bat":9192,"Ġbringing":9193,"fef":9194,"ogeneous":9195,"uting":9196,"Ġstatements":9197,"ĠNa":9198,"Ġuncertainty":9199,"ĠSpec":9200,"roph":9201,"Dec":9202,"ĠKy":9203,"elsh":9204,"arner":9205,"rin":9206,"Equ":9207,"ĠMand":9208,"uscript":9209,"iden":9210,"Ġcommissioned":9211,"only":9212,"Ġlooks":9213,"ĠInfantry":9214,"Ġstages":9215,"elli":9216,"ĠSud":9217,"Car":9218,"Ġbatter":9219,"Ġperspective":9220,"Ġaccounts":9221,"Ġchair":9222,"Ġsand":9223,"Ġregul":9224,"ĠSC":9225,"ortion":9226,"Phil":9227,"Ġtrac":9228,"Ġconsequence":9229,"Top":9230,"ĠGard":9231,"Ġdismiss":9232,"ĠDark":9233,"Ġ$$":9234,"ĠIns":9235,"Ġintersection":9236,"ĠâĢ¦":9237,"ĠRey":9238,"Ġgar":9239,"----------------":9240,"Ġexcess":9241,"'}":9242,"Ġvoted":9243,"Ġremove":9244,"column":9245,"Television":9246,"Ġinterpretation":9247,"Ġflows":9248,"Key":9249,"ĠLocal":9250,"phone":9251,"mc":9252,"Ġgraphs":9253,"ĠStr":9254,"ypes":9255,"Ġgone":9256,"Ġcru":9257,"Ġris":9258,"ĠYouth":9259,"Ġclassic":9260,"Ġconnect":9261,"ĠJay":9262,"angel":9263,"ĠCatal":9264,"ĠAnne":9265,"ĠOnce":9266,"ista":9267,"ĠPope":9268,"aware":9269,"ĠHarvard":9270,"\").":9271,"Ev":9272,"friend":9273,"tikz":9274,"Ġcalculations":9275,"Ġri":9276,"ĠBush":9277,"Ġlinked":9278,"ĠBelgium":9279,"tes":9280,"archy":9281,"olished":9282,"Mc":9283,"Ġopera":9284,"Ġinhabit":9285,"ishment":9286,"Ġtrav":9287,"ĠAlber":9288,"Ġguns":9289,"Finally":9290,"Ġpasses":9291,"ĠArgentina":9292,"Ġoblig":9293,"Ġcertainly":9294,"Ġuniversities":9295,"lades":9296,"Ġconservation":9297,"Ġfilter":9298,"Ġtrig":9299,"ĠMoon":9300,"ĠKam":9301,"Ġpoetry":9302,"acher":9303,"Ġrational":9304,"Ġaired":9305,"Ġbed":9306,"athe":9307,"Ġexception":9308,"ĠBeng":9309,"ĠGab":9310,"})$,":9311,"Ġunderlying":9312,"ĠCook":9313,"Ġlaid":9314,"Ġproposal":9315,"Ġ\\!":9316,"Ġuncle":9317,"Ġsomewhat":9318,"Another":9319,"David":9320,"Ġinvestigate":9321,"fefefe":9322,"ĠPortuguese":9323,"Rail":9324,"Introduction":9325,"Ġ(;":9326,"Ġemployment":9327,"blue":9328,"Ġundert":9329,"Ġinfinite":9330,"ĠCommonwealth":9331,"Ġnom":9332,")+\\":9333,"Ġadapted":9334,"1904":9335,"ĠChall":9336,"ĠExper":9337,"ĠNet":9338,"ĠQuebec":9339,"Ġbran":9340,"NS":9341,"Ġsingers":9342,"Ġinsurance":9343,"ĠComput":9344,"ĠBry":9345,"Mich":9346,"))$":9347,"}{|":9348,"ĠTrib":9349,"ĠSym":9350,"}}$.":9351,"imore":9352,"Ġrig":9353,"isor":9354,"pet":9355,"ĠPrad":9356,"Äĥ":9357,"abad":9358,"isely":9359,"iration":9360,"ĠBou":9361,"Ġregulations":9362,"Ġswitch":9363,"Ġpredicted":9364,"anton":9365,"Ġcrowd":9366,"Ġpractical":9367,"ĠNever":9368,"onav":9369,"ĠBrun":9370,"ĠSport":9371,"input":9372,"Ġoffering":9373,"ĠBir":9374,"local":9375,")},":9376,"notes":9377,"Ġvisible":9378,"otype":9379,"owski":9380,"OD":9381,"ĠEag":9382,"Ġversus":9383,"Ġincorporated":9384,"ĠHamp":9385,"aked":9386,"ĠEconomic":9387,"Ġcalculation":9388,"owntown":9389,"ĠIS":9390,"picture":9391,"ĠMcG":9392,"Ġemergency":9393,"ĠAlbum":9394,"Ġpublications":9395,"Min":9396,"Ġvirtual":9397,"Ġbehaviour":9398,"Ġprediction":9399,"ographical":9400,"clusions":9401,"Bel":9402,"Ã©s":9403,"oa":9404,"ĠPhill":9405,"ĠDick":9406,"pat":9407,"ĠSoc":9408,"Ġphilosophy":9409,"ĠEnt":9410,"Ġceremony":9411,"ĠFinn":9412,"Ġgeometry":9413,"Ġpray":9414,"ĠWed":9415,"Ġfavour":9416,"uum":9417,"ĠHeritage":9418,"Ġinaug":9419,"Ġnecessarily":9420,"|_{":9421,"AG":9422,"Ġcler":9423,"Ġcapable":9424,"sequently":9425,"aton":9426,"ĠHonor":9427,"ĠRab":9428,"Ġsentence":9429,"Ġmedicine":9430,"Next":9431,"Ġinstalled":9432,")-\\":9433,"Ġassault":9434,"ĠLin":9435,"ĠMiami":9436,"pot":9437,"lock":9438,"ĠTreat":9439,"rehensive":9440,"Ġsoccer":9441,"ĠRoberts":9442,"sort":9443,")}_{":9444,"ĠHawai":9445,"Arch":9446,"Ġamplitude":9447,"Ġpione":9448,"ĠGordon":9449,"}}$,":9450,"Description":9451,"Ġaccord":9452,"Ġaggreg":9453,"Ġdust":9454,"Lem":9455,"Ġscope":9456,"ĠGener":9457,"GBT":9458,"Ġsubt":9459,"Ġpretty":9460,"lementary":9461,"ĠMonday":9462,"Ġassert":9463,"Ġinjured":9464,"Ġincreasingly":9465,"hbar":9466,"Ġimmediate":9467,"Ġsummary":9468,"Ġscenario":9469,"ĠProduct":9470,"Ġcompetitions":9471,"ĠNob":9472,"Ġuniversal":9473,"Ġarray":9474,"Ġaccommod":9475,"leveland":9476,"Ġruled":9477,"Ġshares":9478,"gi":9479,"Ġcircumstances":9480,"system":9481,"Ġsteel":9482,"Ġcolour":9483,"Writ":9484,"rama":9485,"Ġarmed":9486,"issions":9487,"ped":9488,"1901":9489,"Ste":9490,"Ġprohib":9491,"onomy":9492,"Ġvideos":9493,"dale":9494,"Ġprotein":9495,"redited":9496,"{{":9497,"ĠInstead":9498,"ĠBulg":9499,"Oct":9500,"ellows":9501,"ĠMatthew":9502,"cycl":9503,"ĠDetroit":9504,"ĠDouglas":9505,"public":9506,"Ġsevere":9507,"ĠCulture":9508,"&=&":9509,"ĠBattalion":9510,"Ġcompens":9511,"otte":9512,"Ġlicense":9513,"1903":9514,"ĠMrs":9515,"Ġstores":9516,"ners":9517,"[(":9518,"Time":9519,"ĠHu":9520,"ĠAmaz":9521,"Form":9522,"Ġsurname":9523,"ometric":9524,"Ġseeing":9525,"Ġmerch":9526,"125":9527,"ĠOrth":9528,"eron":9529,"ods":9530,"ĠVillage":9531,"itative":9532,"Ġtack":9533,"Ġtall":9534,"Ġconsisted":9535,"ĠNCAA":9536,"audi":9537,"ĠDenmark":9538,"iliar":9539,"icular":9540,"Ġ(),":9541,"ĠFarm":9542,"vy":9543,"ĠDak":9544,"Ġmart":9545,"Therefore":9546,"Ġmatters":9547,"Ġpaintings":9548,"Ġfilled":9549,"ĠFle":9550,"ĠÄ":9551,"Ġcourses":9552,"ĠStew":9553,"DR":9554,"ĠRyan":9555,"Ã©t":9556,"Ġlegend":9557,"Education":9558,"Ġspecified":9559,"ĠFood":9560,"Port":9561,"uts":9562,"ĠNik":9563,"ĠGib":9564,"oded":9565,"$),":9566,"Ju":9567,"Second":9568,"inburgh":9569,"Ret":9570,"rage":9571,"supp":9572,"ĠTerrit":9573,"Ġabandoned":9574,"ĠSwiss":9575,"ĠIl":9576,"}$)":9577,"ĠPuerto":9578,"ĠMcK":9579,"ĠPhilip":9580,"ĠPrix":9581,"Ġcontrad":9582,"Ġbreaking":9583,"ĠCemetery":9584,"father":9585,"DM":9586,"ĠAR":9587,"Ġsubjects":9588,"ĠMult":9589,"Ġsummar":9590,"Ġcancell":9591,"ĠIndeed":9592,"ĠDal":9593,"Notable":9594,"ĠNic":9595,"ailand":9596,"Ġjurisd":9597,"Ġmac":9598,"Ġ$|\\":9599,"argo":9600,"ĠAntonio":9601,"Ġdeleg":9602,"intend":9603,"ĠDaily":9604,"ĠAle":9605,"Ġdisestabl":9606,"Ġlands":9607,"issance":9608,"Ġmovies":9609,"tsburgh":9610,"istent":9611,"Ġgather":9612,"Ġstudying":9613,"Ġprovision":9614,"Ġouter":9615,"iments":9616,"uminos":9617,"ubb":9618,"Leg":9619,"Ġmob":9620,"ĠKl":9621,"stal":9622,"Ġarguments":9623,"oslav":9624,"Ġcomic":9625,"ĠTHE":9626,"ĠSP":9627,"Ag":9628,"ĠDublin":9629,"Ġattached":9630,"ĠLas":9631,"Ġtalking":9632,"ĠSeason":9633,"ried":9634,"forward":9635,"utt":9636,"ĠEarly":9637,"Ġacid":9638,"Indian":9639,"second":9640,"hythm":9641,"ĠPeace":9642,"Ġdry":9643,"ĠDVD":9644,"Ġdiscrete":9645,"Ġgrounds":9646,"1902":9647,"Ġteen":9648,"onavirus":9649,"Ġcorporate":9650,"ĠDeath":9651,"Ġabsolute":9652,"essions":9653,"char":9654,"Ġshooting":9655,"initely":9656,"ĠDigital":9657,"Vill":9658,"ĠLiberal":9659,"CL":9660,"Ġsecretary":9661,"ĠCode":9662,"uilt":9663,"Ġaccompan":9664,"ctic":9665,"Ġgene":9666,"Ġessentially":9667,"Under":9668,"rolled":9669,"Ġapplying":9670,"ĠTur":9671,"ĠCroat":9672,"Ġmarketing":9673,"Ġprojection":9674,"Ġsecure":9675,"Ġuniverse":9676,"Ġmetres":9677,"Ġencounter":9678,"Table":9679,"opter":9680,"Ġtennis":9681,"page":9682,"Football":9683,"à¸":9684,"Ðº":9685,"Ġsportspeople":9686,"Military":9687,"Ġdrivers":9688,"Ġfib":9689,"Ġinstrument":9690,"andra":9691,"1880":9692,"ibl":9693,"Ġstreets":9694,"Ġjet":9695,"orus":9696,"Ġbanks":9697,"rc":9698,"Ġextreme":9699,"Che":9700,"emen":9701,"ĠIndonesia":9702,"ĠNag":9703,"CS":9704,"Ġreign":9705,"ben":9706,"Ġbirds":9707,"Ġpopulations":9708,"Ġlooked":9709,"ĠKevin":9710,"eget":9711,"TE":9712,"Ġhired":9713,"Ġcomputational":9714,"Ġcoefficient":9715,"ĠPed":9716,"ĠLore":9717,"Ġrival":9718,"Ġcompete":9719,"Ġlosses":9720,"ailed":9721,"Ġprinciples":9722,"apolis":9723,"ĠVin":9724,"isition":9725,"ĠKaz":9726,"apl":9727,"Europ":9728,"ĠPlace":9729,"odge":9730,"exual":9731,"Ġidentical":9732,"ortunately":9733,"Ġneighbour":9734,"iot":9735,"Ġsynthes":9736,"nie":9737,"prise":9738,"ĠPortugal":9739,"ĠMayor":9740,"ĠCru":9741,"Ġboat":9742,"etween":9743,"enezuel":9744,"Ġstopped":9745,"ĠSin":9746,"pop":9747,"Ġstating":9748,"Ġdynamic":9749,"Ġstret":9750,"ĠBuddh":9751,"Ġregularly":9752,"Ġexpon":9753,"ibilities":9754,"Ġmodule":9755,"Ġthank":9756,"Plot":9757,"\":":9758,"Ġcloser":9759,"Value":9760,"Ġcloud":9761,"arma":9762,"}{(":9763,"Ġanth":9764,"iem":9765,"ĠTs":9766,"reprene":9767,"ursday":9768,"=\"#":9769,"Ġmanufacturing":9770,"ĠChampions":9771,"Ġconfidence":9772,"ĠDur":9773,"Ġrein":9774,"ĠSel":9775,"Ġperiods":9776,"Ġseed":9777,"ĠPap":9778,"Ġrejected":9779,"ĠKitt":9780,"ĠDead":9781,"orted":9782,"Ġinvolves":9783,"ĠHills":9784,"Ġtouchdown":9785,"Ġlists":9786,"anne":9787,"Ġalleg":9788,"Ġcaught":9789,"ĠScient":9790,"itational":9791,"word":9792,"Ġspeaking":9793,"Ġdebt":9794,"Ġfly":9795,"-$":9796,"Ġpoverty":9797,"ãĤ":9798,"Ġmilit":9799,"Ġexplan":9800,"Ġethnic":9801,"Ġnav":9802,"rity":9803,"Ġdrugs":9804,"eness":9805,"olt":9806,"Ġhighway":9807,"Ġangular":9808,"ĠStudios":9809,"ĠFil":9810,"Ġbulk":9811,"jective":9812,"``":9813,"Ġentrance":9814,"Rober":9815,"ĠKarl":9816,"irds":9817,"Star":9818,"Ġexplos":9819,"ĠAndre":9820,"ĠRecord":9821,"Ġoccas":9822,"Ġtraject":9823,"Ġclinical":9824,"Ġplate":9825,"cht":9826,"ĠPa":9827,"Ġsupports":9828,"Ġhundreds":9829,"Ġbrown":9830,"Ġvirus":9831,"Ġupdate":9832,"ĠEuro":9833,"ecture":9834,"ĠRow":9835,"Ġgovernments":9836,"Ġnations":9837,"ĠChairman":9838,"tw":9839,"Ġadmitted":9840,"leton":9841,"Ġmembership":9842,"uzz":9843,"ĠLyn":9844,"Ġneutral":9845,"ĠDave":9846,"Ġkeeping":9847,"Ġinterface":9848,"ĠExt":9849,"ĠNatural":9850,"Ġdog":9851,"nesday":9852,"((":9853,"attles":9854,"ontal":9855,"ĠRang":9856,"Ġexplore":9857,"ĠImm":9858,"cre":9859,"Ġdriven":9860,"cref":9861,"Ġoptimization":9862,"ĠBrigade":9863,"iday":9864,"Ġroots":9865,"estyle":9866,"Ġhits":9867,"udden":9868,"ĠBowl":9869,":}":9870,"Ġdemonstrated":9871,"ĠFM":9872,"ĠLear":9873,"ĠPM":9874,"rik":9875,"Ġreasonable":9876,"uber":9877,"Black":9878,"Ġdenoted":9879,"hor":9880,"tenance":9881,"Ġcarrying":9882,"cks":9883,"Ġtranslated":9884,"'d":9885,"grade":9886,"Ġwaves":9887,"Ġsufficiently":9888,"ĠHockey":9889,"ĠControl":9890,"ĠAlan":9891,"Ġdominated":9892,"Ġpartners":9893,"Ġconcentration":9894,"Ġurg":9895,"Elect":9896,"Ġrelax":9897,"Ġclar":9898,"Ġcontribute":9899,"Ġwaters":9900,"ĠBrazilian":9901,"uh":9902,"Ġspending":9903,"Ġjudg":9904,"ipage":9905,"Ġcomputation":9906,"Ġclassified":9907,"gressive":9908,"Ġanniversary":9909,"Ġancest":9910,"Ġanalog":9911,"ucks":9912,"orses":9913,"Ġrepresentations":9914,"Ġrelief":9915,"Mark":9916,"ĠBible":9917,"Ġconvex":9918,"Ref":9919,"ellip":9920,"Ġke":9921,"who":9922,",\\,\\":9923,"Ġgrade":9924,"ĠLieutenant":9925,"ĠLawrence":9926,"ĠSn":9927,"ĠCow":9928,"ĠLang":9929,"ĠAtlanta":9930,"ĠCond":9931,"Ġstadium":9932,"ĠDNA":9933,"ĠConvention":9934,"core":9935,"ĠFall":9936,"ĠOrchestra":9937,"Ġminute":9938,"Ġpassenger":9939,"Ġdesired":9940,"Ġrobust":9941,"minipage":9942,"Club":9943,"Mus":9944,"Ġtroub":9945,"uable":9946,"Ġbounds":9947,"ĠCapital":9948,"Att":9949,"die":9950,"Red":9951,"anny":9952,"Ġgradient":9953,"GM":9954,"oda":9955,"Ġassets":9956,"ĠLam":9957,"Ġexplicitly":9958,"Ġresidence":9959,"Ġkids":9960,"ĠLaure":9961,"Ġannounce":9962,"Ġselling":9963,"Ġroads":9964,"ashi":9965,"ĠTrade":9966,"Ġdepos":9967,"Mat":9968,"craft":9969,"avor":9970,"Go":9971,"130":9972,"Ġrect":9973,"vee":9974,"Ep":9975,"Ġunderstood":9976,"oly":9977,"iah":9978,"auc":9979,"Ġequality":9980,"Ġliquid":9981,"Ġsoul":9982,"icate":9983,"Ġcreative":9984,"isations":9985,"kov":9986,"ĠReserve":9987,"olly":9988,"Ġcited":9989,"ĠHistorical":9990,"Ġcoordinate":9991,"Ġsubst":9992,"ĠAgric":9993,"Ġdiscovery":9994,"Ġrapidly":9995,"elihood":9996,"Ġsuit":9997,"700":9998,"Ġsatisfying":9999,"Ġhidden":10000,"bas":10001,"Ġscaling":10002,"anch":10003,"ĠRub":10004,"180":10005,"lie":10006,"Ġinvasion":10007,"Ġinterpre":10008,"Ġboys":10009,"March":10010,"ynamic":10011,"Ġblog":10012,"Ġpul":10013,"parent":10014,"Ġcrossing":10015,"ĠKo":10016,"ulner":10017,"Ġwish":10018,"ĠAny":10019,"ĠSamuel":10020,"Ġcharacterized":10021,"atherine":10022,"Ġque":10023,"Ġsigns":10024,"Ġhappy":10025,"ĠKelly":10026,"ĠLanc":10027,"Ġspiritual":10028,"Ġdefin":10029,"Ġcircuit":10030,"Ġracial":10031,"ĠDa":10032,"ĠEdinburgh":10033,"Ġfacilit":10034,"Ġagricultural":10035,"ested":10036,"names":10037,"Ġsubgroup":10038,"Ġguide":10039,"Ġdominant":10040,"ĠBuck":10041,"Ġvoting":10042,".'":10043,"Ġkeyboard":10044,"Ġentropy":10045,"ĠPref":10046,"Ġdependent":10047,"multi":10048,"Ġislands":10049,"Ġneither":10050,"Ġprompt":10051,"Roman":10052,"Ġthanks":10053,"Ġtru":10054,"Ġmerged":10055,"ĠOF":10056,"ĠMi":10057,"chell":10058,"aling":10059,"Ġlemma":10060,"ĠKennedy":10061,"floor":10062,"ĠMean":10063,"ayan":10064,"ĠExpress":10065,"esides":10066,"CR":10067,"ĠEmer":10068,"ĠSupport":10069,"BO":10070,"ĠIndependent":10071,"posed":10072,"ĠSeattle":10073,"Ġastron":10074,"ĠHoll":10075,"uesday":10076,"enz":10077,"Ġhelps":10078,"world":10079,"ĠRick":10080,"oca":10081,"assador":10082,"Ġlabels":10083,"Ġcenters":10084,"ando":10085,"opes":10086,"Ġrespective":10087,"pres":10088,"Ġrestricted":10089,"View":10090,"closed":10091,"ĠGuide":10092,"Ġdesigns":10093,"ĠArkansas":10094,"Ġapproval":10095,"Ġrend":10096,"aste":10097,"post":10098,"ĠDeputy":10099,"ĠDanish":10100,"Sum":10101,"Ġkernel":10102,"Up":10103,"Using":10104,"ĠWalker":10105,"Ġrating":10106,"Former":10107,"âĢħ":10108,"ĠRy":10109,"\");":10110,"Ser":10111,"Ġjunior":10112,"Ġmoments":10113,"idal":10114,"ĠSign":10115,"Ġalcoh":10116,"bigl":10117,"asts":10118,"Ġpenalty":10119,"ĠJuan":10120,"Tube":10121,"Ġunus":10122,"ĠHug":10123,"Ġrevenue":10124,"plane":10125,"Ġintensity":10126,"Ġadvice":10127,"azines":10128,"Ġevening":10129,"died":10130,"ĠChem":10131,"egas":10132,"ĠNav":10133,"aired":10134,"]{\\":10135,"Ġseeking":10136,"GL":10137,"Ġfactory":10138,"bara":10139,"Ġsinging":10140,"cs":10141,"ĠAuthority":10142,"bt":10143,"ĠImperial":10144,"Ġshel":10145,"heastern":10146,"inch":10147,"atin":10148,"ĠThough":10149,"Ġhappens":10150,"TR":10151,"ĠRest":10152,"ĠJess":10153,"wall":10154,"Ġinfer":10155,"wen":10156,"Aut":10157,"ĠJun":10158,"Ġcompletion":10159,"ĠGarden":10160,"Ġ${":10161,"Ġmoder":10162,"Ã´":10163,"Ġlocomot":10164,"Ġviewed":10165,"Ġdetected":10166,"Ġformally":10167,"Ġpip":10168,"ĠSpacewatch":10169,"Ġinvent":10170,"prot":10171,"Ġsignals":10172,"Ġcricket":10173,"Ġreserve":10174,"Ġdiverse":10175,"High":10176,"essed":10177,"isode":10178,"Ġequilibrium":10179,"Ġ?":10180,"Ġwonder":10181,"1898":10182,"James":10183,"ĠAdditionally":10184,"Ġimprovement":10185,"Ġ///":10186,"ĠRetrieved":10187,"ĠCart":10188,"ĠPeters":10189,"integ":10190,"ahn":10191,"Ġtested":10192,"Em":10193,"^*$":10194,"Ġchampions":10195,"arrier":10196,"Ġsatisfied":10197,"Ġtempl":10198,"Ġposted":10199,"BB":10200,"Ġsubstantial":10201,"Ġarrival":10202,"prison":10203,"ige":10204,"abet":10205,"Ġfer":10206,"ugar":10207,"ĠBruce":10208,"Ġmanuscript":10209,"roke":10210,"ĠBull":10211,"ĠAction":10212,"ĠPhot":10213,"ĠPerson":10214,"Ġexercise":10215,"ĠGa":10216,"GN":10217,"Paul":10218,"Rem":10219,"Ġinstruments":10220,"raud":10221,"Ġengines":10222,"ĠMission":10223,"Serv":10224,"Ġinhabitants":10225,"olph":10226,"ĠUtah":10227,"Ġspoke":10228,")}}":10229,"Ġcash":10230,"ĠBart":10231,"ĠAttorney":10232,"AV":10233,"ĠBanglades":10234,"Ġintellect":10235,"Ġmoves":10236,"Ġbias":10237,"Ġstood":10238,"ĠNash":10239,"Ġfinishing":10240,"Ġconcerning":10241,"ĠPage":10242,"Ġdens":10243,"oths":10244,"Ġfranchise":10245,"Ġacknowled":10246,"Ġisomorphism":10247,"ĠBus":10248,"Orig":10249,"ĠFather":10250,"Ġdefault":10251,"Ġassumptions":10252,"ĠPas":10253,"true":10254,"Inf":10255,"uction":10256,"1899":10257,"Ġparticipation":10258,"MR":10259,"Ġanimated":10260,"Ġfleet":10261,"Ġtwelve":10262,"Ġprize":10263,"ulating":10264,"ĠKings":10265,"Ġaer":10266,"ifferent":10267,"Ġongoing":10268,"Ġduties":10269,"atever":10270,"ĠRight":10271,"AE":10272,"ĠMaur":10273,"Academ":10274,"ilst":10275,"Ġexecuted":10276,":=":10277,"ĠReform":10278,"ĠFern":10279,"ĠPear":10280,"Ġappearing":10281,"ĠMalaysia":10282,"?âĢĿ":10283,"zed":10284,"Ġcm":10285,"á»":10286,"Ġmine":10287,"Ġmunicipal":10288,"Video":10289,"Ġcalculate":10290,"Ġapprec":10291,"Ġstrategies":10292,"Ġintent":10293,"gr":10294,"Ġprecisely":10295,"Ġadaptation":10296,"door":10297,"1870":10298,"las":10299,"Ġproduces":10300,"Ġcastle":10301,"ĠThailand":10302,"]$.":10303,"atern":10304,"Ġlandscape":10305,"Ġpointed":10306,"fi":10307,"Ġclient":10308,"Ġnotion":10309,"Ġfluid":10310,"ĠLib":10311,"Ġreplacing":10312,"ĠTwitter":10313,"Ð»":10314,"bigr":10315,"Ġprices":10316,"ĠBeat":10317,"actory":10318,"Ġflying":10319,"Ġbra":10320,"Ġ[\\":10321,"ĠBuff":10322,"Ġpercentage":10323,"Ġpassengers":10324,"ĠTig":10325,"borough":10326,"Rad":10327,"Ġelig":10328,"Ġderivative":10329,"Ġmolecular":10330,"aturally":10331,"Ġinher":10332,"ulus":10333,"ĠCensus":10334,"ĠChen":10335,"Ġrecordings":10336,"usalem":10337,"ĠLemmon":10338,"ĠRound":10339,"icians":10340,"isp":10341,"Ġtransportation":10342,"child":10343,"Ġster":10344,"Ġmining":10345,"Ġdispl":10346,"ĠChamber":10347,"Ġevaluate":10348,"ishops":10349,"Ġrain":10350,"ĠTit":10351,"Ġactresses":10352,"ĠMorgan":10353,"Ġproducers":10354,"August":10355,"mn":10356,"ĠSingh":10357,"Ġmyth":10358,"Reception":10359,"olas":10360,";\"|":10361,"SW":10362,"Ġvast":10363,"Ġaudio":10364,"eding":10365,"Ġda":10366,"Ġrecovery":10367,"\\;":10368,"ĠFrederick":10369,"ĠUkrainian":10370,"Ġgravity":10371,"ĠLegislative":10372,"Ġsequences":10373,"itudes":10374,"ropic":10375,"finals":10376,"Ġresigned":10377,"ĠPalace":10378,"iverpool":10379,"Ġdecrease":10380,"iability":10381,"Ġmidfield":10382,"Expatriate":10383,"Ġsleep":10384,"++":10385,"ĠCommander":10386,"Oper":10387,"ĠAlliance":10388,"million":10389,"Ġownership":10390,"ĠEver":10391,"Ġdiam":10392,"ĠPsych":10393,"ĠTraining":10394,"Songs":10395,"ĠNar":10396,"QQ":10397,"ĠThompson":10398,"Ġdrag":10399,"aman":10400,"Ġboundaries":10401,"ontin":10402,"Ġedited":10403,"Ġdynasty":10404,"Ġhal":10405,"Ġsudden":10406,"$:":10407,"ĠNext":10408,"Ġrequirement":10409,"Ġpriest":10410,"June":10411,"ĠNE":10412,"Ġearliest":10413,"Many":10414,"Ġpix":10415,"mo":10416,"\\}$.":10417,"Ġpublishing":10418,"Ġbacking":10419,"ĠFinland":10420,"ĠProm":10421,"geb":10422,"Ġconnections":10423,"ĠYe":10424,"ĠDean":10425,"Ġcomputing":10426,"Ġspend":10427,"Ġembedd":10428,"Ġseparation":10429,"arse":10430,"ĠCommunist":10431,"Box":10432,"unctions":10433,"erted":10434,"Ġexecution":10435,"1897":10436,"Ġempty":10437,"ĠType":10438,"Source":10439,"Ġtropical":10440,"))\\":10441,"Ġdemonstrate":10442,"Ġadults":10443,"ĠObserv":10444,"ĠÃī":10445,"joint":10446,"]}":10447,"ĠIron":10448,"orf":10449,"ĠAustin":10450,"$_{":10451,"Ġtight":10452,"retion":10453,"Ġillegal":10454,"phony":10455,"Ġdelivery":10456,"ĠString":10457,"general":10458,"Ġdimensional":10459,"ĠDallas":10460,"ĠRace":10461,"Ġshop":10462,"Ġenforcement":10463,"ÃŃn":10464,"Ġassociate":10465,"pg":10466,"etch":10467,"Ġfalls":10468,"ĠCleveland":10469,"ĠMonte":10470,"Ġteach":10471,"sson":10472,")\"":10473,"Mal":10474,"Ġbench":10475,"ĠCentury":10476,"Ġheads":10477,"Ġham":10478,"Ġcolonial":10479,"regular":10480,"Ġschem":10481,"Pat":10482,"Const":10483,"Ġprovisions":10484,"itarian":10485,"pace":10486,"ications":10487,"Ġupdated":10488,"incorpor":10489,"?\"":10490,"uda":10491,"ĠTar":10492,"ĠCollection":10493,"1895":10494,"away":10495,"ĠVideo":10496,"ĠRussell":10497,"Flor":10498,"ĠSchools":10499,"emi":10500,"}\\,\\":10501,"Ġdecline":10502,"Ġhypothesis":10503,"ĠLead":10504,"Gen":10505,"Ġstead":10506,"oves":10507,"erior":10508,"Ġaccompanied":10509,"ĠKnow":10510,"Ġemployee":10511,"oria":10512,"Ġscores":10513,"Ġbos":10514,"](":10515,"ĠStewart":10516,"Ġdecomposition":10517,"leans":10518,"ĠFried":10519,"Ġentertainment":10520,"argets":10521,"song":10522,"Ġtechnologies":10523,"omas":10524,"yself":10525,"enger":10526,"1896":10527,"Ġdenied":10528,"ĠAdams":10529,"Ġcompetitive":10530,"Ġarchae":10531,"Ext":10532,"endar":10533,"ĠAnna":10534,"east":10535,"mathop":10536,"Ġresidential":10537,"TH":10538,"ĠCov":10539,"Ġsurvived":10540,"115":10541,"Major":10542,"Ġreplacement":10543,"ĠOrganization":10544,"ĠJudge":10545,"ĠPlayer":10546,"ĠPradesh":10547,"Ġcontinuing":10548,"ewhere":10549,"Ġmeetings":10550,"Ġvisitors":10551,"ĠABC":10552,"athy":10553,"ĠâĢ¢":10554,"Ġoperates":10555,"Ġchildhood":10556,"Ġmapping":10557,"112":10558,"ju":10559,"Ġequipped":10560,"ĠHungary":10561,"Ġmarine":10562,"esign":10563,"ĠOrthodox":10564,"${\\":10565,"PE":10566,"ĠNep":10567,"ĠAdvent":10568,"Before":10569,"Ġstruggle":10570,"ĠTun":10571,"ificial":10572,"longrightarrow":10573,"ĠHas":10574,"Ã¥":10575,"Ġrooms":10576,"dep":10577,"owed":10578,"Ġjudges":10579,"ĠBaltimore":10580,"Ġafford":10581,"Ġfeeling":10582,"ĠPC":10583,"election":10584,"105":10585,"rena":10586,"ĠYears":10587,"reement":10588,"Ġbehalf":10589,"Ġpartially":10590,"Ġdies":10591,"Ġimpossible":10592,"summary":10593,"ĠStandard":10594,"ĠPublishing":10595,"istration":10596,"was":10597,"ĠBox":10598,"obs":10599,"Ġenhance":10600,"ĠGun":10601,"Ġtries":10602,"Ġrestaurant":10603,"Ġmovements":10604,"ĠSarah":10605,"%,":10606,"Ġnick":10607,"ĠDance":10608,"âĢ¢":10609,"BE":10610,"Ġphr":10611,"iop":10612,"ooking":10613,"ĠCrown":10614,"Ġillustrated":10615,"ATE":10616,"base":10617,"Ġlose":10618,"ĠâĢł":10619,"Ġ\\]":10620,"Ġhur":10621,"Ġinteract":10622,"Ġrestrictions":10623,"OW":10624,"ĠKnight":10625,"Rich":10626,"Ġenergies":10627,"quir":10628,"ĠSac":10629,"160":10630,"Ġgrown":10631,"just":10632,"orro":10633,"ĠShah":10634,"ĠBoys":10635,"Inst":10636,"stery":10637,"Ġhang":10638,"ĠDream":10639,"Ġsky":10640,"ĠNelson":10641,"rows":10642,"ĠPur":10643,"Ä«":10644,"Ġworst":10645,"hent":10646,"ĠWard":10647,"ĠGulf":10648,"Ġschedule":10649,"Ġextends":10650,"Ġneutr":10651,"Buildings":10652,"ĠPittsburgh":10653,"Ġclients":10654,"Ġmaxim":10655,"nest":10656,"oustic":10657,"Ġpraised":10658,",{\\":10659,"...,":10660,"ĠMontreal":10661,"Ġskin":10662,"Ġsignificance":10663,"Ġcraft":10664,"Ġgate":10665,"ĠNeb":10666,"module":10667,"ĪĴ":10668,"ĠOd":10669,"ĠML":10670,"Ġprisoners":10671,"tfrac":10672,"ressive":10673,"ĠSeveral":10674,"defined":10675,"Donald":10676,"Ġluminos":10677,"Ġtank":10678,"ĠWright":10679,"graduate":10680,"Ġfaster":10681,"Ġsubsection":10682,"ĠWelsh":10683,"Ġpregn":10684,"Ġcriticism":10685,"ĠBrothers":10686,"Ġwat":10687,"arting":10688,"Ġsnow":10689,"Ġdatabase":10690,"ĠAlfred":10691,"ĠMetropolitan":10692,"Ġflex":10693,"ĠCM":10694,"ĠSenator":10695,"cules":10696,"rett":10697,"Ġexcellent":10698,"Ġathletes":10699,"July":10700,"Just":10701,"Final":10702,"Ġheritage":10703,"Ġimprison":10704,"Ġgrass":10705,"uki":10706,"}})":10707,"ĠRoger":10708,"ders":10709,"Ġweights":10710,"Family":10711,"otten":10712,"ĠFive":10713,"Ġconvention":10714,"Ġcriteria":10715,"casting":10716,"ĠAfghanistan":10717,"ĠHit":10718,"ĠChristopher":10719,"Ġpresents":10720,"Ġconcrete":10721,"Ġfemin":10722,"ĠMargaret":10723,"ĠOnline":10724,"Ġwire":10725,"ĠPho":10726,"agg":10727,"Object":10728,"fil":10729,"Ġinclusion":10730,"ĠOrleans":10731,"sea":10732,"Ġhun":10733,"ĠRio":10734,"ĠClinton":10735,"]$,":10736,"inea":10737,"Ġtemporary":10738,"Ġconservative":10739,"earing":10740,"Ġstruck":10741,"Ġinverse":10742,"ranean":10743,"ĠRic":10744,"urrently":10745,"ournament":10746,"uis":10747,"ilk":10748,"ĠBetween":10749,"ĠJerusalem":10750,"Ġentries":10751,"Ġsees":10752,"master":10753,"Ġquantities":10754,"Ġcrimes":10755,"Home":10756,"ĠSystems":10757,"Ġsynd":10758,"bottom":10759,"ĠLeban":10760,"ĠContin":10761,"ĠMPs":10762,"Ġcompat":10763,"Ġdecide":10764,"Ġtheater":10765,"Ġdivor":10766,"Ġinduct":10767,"Ġ^{":10768,"sis":10769,"Histor":10770,"ĠCra":10771,"Ġmagnet":10772,"incorporated":10773,"Ġhier":10774,"Ġentering":10775,"ĠCH":10776,"Ġtrace":10777,"ospitals":10778,"Ġcontrols":10779,"ĠWednesday":10780,"Di":10781,"Ġforming":10782,"Ġgay":10783,"angular":10784,"irmingham":10785,"Cap":10786,"BN":10787,"ĠMaine":10788,"Ġmouth":10789,"Ġgang":10790,"Ġjournalists":10791,"ĠVenezuel":10792,"ĠYouTube":10793,"PM":10794,"ĠWoman":10795,"Ġcrucial":10796,"aments":10797,"insula":10798,"stable":10799,"cient":10800,"urers":10801,"ourse":10802,"Ġcollections":10803,"ĠNigeria":10804,"Transport":10805,"Dep":10806,"Ġreader":10807,"xx":10808,"acon":10809,"Ġcrown":10810,"Ġfindings":10811,"Ġseventh":10812,"Ġmeets":10813,"employ":10814,"Ã«":10815,"Ġoccupation":10816,"brace":10817,"erbai":10818,"mal":10819,"orous":10820,"Ġtownship":10821,"sign":10822,"Ġsampling":10823,"Ġferm":10824,"Ġsatellite":10825,"Stud":10826,"Ġhandle":10827,"rosc":10828,"uits":10829,"ĠNation":10830,"Ġfacts":10831,"Ġradial":10832,"ĠRobinson":10833,"card":10834,"ĠNeg":10835,"ratic":10836,"ĠCarter":10837,"Ġresign":10838,"Ġsuicide":10839,"ĠMountains":10840,"ubble":10841,"ĠCole":10842,"ĠSyria":10843,"hus":10844,"eenth":10845,"Ġvoters":10846,"Ġdiagonal":10847,"iri":10848,"ilty":10849,"ĠCarn":10850,"ĠThursday":10851,"Ġroutes":10852,"Scott":10853,"ĠUC":10854,"vature":10855,"Ġbranches":10856,"Russian":10857,"Ġsympt":10858,"Ġhybrid":10859,"direct":10860,"obby":10861,"pack":10862,"Ġrailroad":10863,"Ġrecommended":10864,"Ġseemed":10865,"April":10866,"ĠFal":10867,"Ġdirections":10868,"sat":10869,"Ġruling":10870,"Ġpotentially":10871,"ourier":10872,"Japanese":10873,"Ġconform":10874,"Ġconfront":10875,"chers":10876,"Ġisolated":10877,"Ġmanifold":10878,"Ġwithdraw":10879,"web":10880,"Ġbishop":10881,"itecture":10882,"ĠFight":10883,"ĠAustrian":10884,"Ġnurs":10885,"issue":10886,"ĠView":10887,"ĠHampshire":10888,"128":10889,"how":10890,"Ġfacing":10891,"ĠJohann":10892,"nav":10893,"ugoslav":10894,"ĠBrooklyn":10895,"ĠDemocrats":10896,"Ġillness":10897,"amps":10898,"erg":10899,"Ġrepresentatives":10900,"})=":10901,"rip":10902,"ĠOttoman":10903,"})}":10904,"ĠNBA":10905,"ictionary":10906,"Ġwrites":10907,"Ġdescribing":10908,"Ġvariations":10909,"ĠFranklin":10910,"Ġorganisation":10911,"Italian":10912,"Ġaffairs":10913,"Ġsimultaneously":10914,"Ġnegoti":10915,"Ġ]":10916,"making":10917,"Ġreporting":10918,"erset":10919,"January":10920,"Ġforth":10921,"Ġcommunications":10922,"1889":10923,"irical":10924,"Ġitem":10925,"Ġcolumns":10926,"ĠGirls":10927,"ĠKa":10928,"Ġexposure":10929,"Ġpassion":10930,"Ġweekend":10931,"ĠGiven":10932,"Ġexperts":10933,"ĠGill":10934,"Ġfired":10935,"ĠMurray":10936,"Ġrecept":10937,"bes":10938,"Ġestimation":10939,"San":10940,"ĠCampbell":10941,"Ġtopological":10942,"ĠRailroad":10943,"ĠFr":10944,"gow":10945,"Ġrealized":10946,"onian":10947,"Ġneural":10948,"Ġwindows":10949,"Ġheaded":10950,"Ġconventional":10951,"obi":10952,"zz":10953,"ĠPun":10954,"Ġdivisions":10955,"there":10956,"Ġstrategic":10957,"ancell":10958,"Test":10959,"lesssim":10960,"Ġappointment":10961,"ĠHell":10962,"town":10963,"Ġknock":10964,"ĠRomania":10965,"ĠHerm":10966,";\\;\\":10967,"ouver":10968,"Ġreception":10969,"Ġturning":10970,"esis":10971,"Ġveget":10972,"ĠVienna":10973,"empl":10974,"Fran":10975,"ĠWW":10976,"Ġles":10977,"FI":10978,"Ġdeputy":10979,"ĠHorn":10980,"elfare":10981,"ĠSite":10982,"ĠCer":10983,"claimed":10984,"Ġmir":10985,"Ġpron":10986,"redit":10987,"1892":10988,"Ġconstituency":10989,"ĠPad":10990,"ĠRugby":10991,"jamin":10992,"Ġdiscip":10993,"Ġfavorite":10994,"Ġdefensive":10995,"Ġenjoyed":10996,"Right":10997,"Ġconsiderable":10998,"anim":10999,"ĠEss":11000,"Official":11001,"Ġpackage":11002,"ishers":11003,"Ġcanonical":11004,"!!":11005,"fall":11006,"bridge":11007,"Ġaspect":11008,"ochastic":11009,"person":11010,"Ġdownload":11011,"Ġcomfort":11012,"aptist":11013,"Given":11014,"Ġsurgery":11015,"ĠMovement":11016,"October":11017,"ublished":11018,"iu":11019,"Ġpitch":11020,"ĠDakota":11021,"117":11022,"irates":11023,"Mr":11024,"Ġdamaged":11025,"ĠFull":11026,"Ġpetition":11027,"ifts":11028,"Ġpublicly":11029,"alia":11030,"Ġrecon":11031,"Ġconqu":11032,"orton":11033,"iac":11034,"overy":11035,"Ġtopic":11036,"ĠDom":11037,"arthe":11038,"Ġnotably":11039,"Ang":11040,"Ġdesigner":11041,"ĠFel":11042,"ĠPolitical":11043,"iere":11044,"Ġtopics":11045,"Ġactivist":11046,"ĠWa":11047,"Ġvalley":11048,"ĠPatri":11049,"Ġassembly":11050,"ĠImp":11051,"ĠDie":11052,"arus":11053,"Ġarranged":11054,"Ġsimilarly":11055,"Ġdetect":11056,"114":11057,"ĠMap":11058,"ĠHungarian":11059,"Ġconvinc":11060,"1893":11061,"Ġdesire":11062,"ĠOri":11063,"Ġintention":11064,"process":11065,"Ġdating":11066,"Ġpaths":11067,"ĠChampion":11068,"etry":11069,"rose":11070,"1894":11071,"113":11072,"results":11073,"ĠLane":11074,"Ġdiversity":11075,"Villages":11076,"FR":11077,"Ġmatching":11078,"ĠRain":11079,"ĠAy":11080,"illo":11081,"Ġrose":11082,"Ġdollars":11083,"][]{":11084,"yset":11085,"Ġsight":11086,"ĠLiverpool":11087,"Ġcomplement":11088,"ĠTuesday":11089,"Ġfamiliar":11090,"ĠMarie":11091,"Ġpopularity":11092,"dfrac":11093,"iota":11094,"Det":11095,"ĠMes":11096,"}}.":11097,"ĠTrad":11098,"Ġsharing":11099,"Ġdrawing":11100,"Ġtriple":11101,"ometry":11102,"Ġbelieves":11103,"September":11104,"Works":11105,"NE":11106,"ĠAqu":11107,"Ġobst":11108,"emor":11109,"Ġcomprehensive":11110,"ĠVolume":11111,"ĠVik":11112,"Ġamounts":11113,"Ġgeneric":11114,"Ġmargin":11115,"font":11116,"dependent":11117,"Ġordinary":11118,"bach":11119,"1860":11120,"Ġpayment":11121,"Ġdatasets":11122,"ĠGP":11123,"Profess":11124,"ĠAppendix":11125,"nik":11126,"}}_{\\":11127,"Ġpod":11128,"enberg":11129,"ĠSecret":11130,"asp":11131,"})^":11132,"Ġpresc":11133,"ĠTerm":11134,"\\\\\\\\\\\\\\\\\\\\\\\\\\\\\\\\\\\\\\\\\\\\\\\\\\\\\\\\\\\\\\\\\\\\\\\\\\\\\\\\\\\\\\\\\\\\\\\\\\\\\\\\\\\\\\\\\\\\\\\\\\\\\\\\":11135,"ĠGrad":11136,"cale":11137,"ĠAlice":11138,"ĠLanka":11139,"ENT":11140,"eoples":11141,"hai":11142,"uin":11143,"larg":11144,"Ġexplains":11145,"ĠMichel":11146,"Ġwilling":11147,"onymous":11148,"ĠSaudi":11149,"Ġfiles":11150,"Ġoffensive":11151,"Ġfasc":11152,"Ġfeedback":11153,"Ġreducing":11154,"oba":11155,"Ãł":11156,"Ġtrivial":11157,"Railway":11158,"Ġintermediate":11159,"paragraph":11160,"etary":11161,"Ġbear":11162,"miral":11163,"ycl":11164,"reams":11165,"Ġpremiered":11166,"Ġderive":11167,"comes":11168,"Ġvulner":11169,"Ġconsideration":11170,"ĠComics":11171,".:":11172,"osc":11173,"Ġreputation":11174,"ĠKu":11175,"vari":11176,"Ġknows":11177,"ĠCA":11178,"1891":11179,"ĠTamil":11180,"Ġstronger":11181,"Ġgreatly":11182,"Ġconstants":11183,"Ġsensitive":11184,"UC":11185,"tery":11186,")}_":11187,"ĠLith":11188,"ĠPrior":11189,"Ġlisten":11190,"Ġrenov":11191,"Ġmeters":11192,"enix":11193,"engths":11194,"Ġcards":11195,"1885":11196,"HT":11197,"Ġfest":11198,"ĠID":11199,"Ġmaintenance":11200,"itol":11201,"Ġtied":11202,"emptyset":11203,"Ġcollective":11204,"ographics":11205,"ĠPrincip":11206,"Ġtargets":11207,"iat":11208,"ĠMarshall":11209,"fs":11210,"Ġcommitment":11211,"Ġhosts":11212,"ĠBed":11213,"ĠMorris":11214,"Ġexhibit":11215,"algorithm":11216,"ĠHold":11217,"ĠChang":11218,"Ġmanage":11219,"Ap":11220,"Ġpredictions":11221,"ĠRoc":11222,"ĠFA":11223,"Ġsuffering":11224,"ĠOpera":11225,"BL":11226,"Read":11227,"lick":11228,"Ġcelebrated":11229,"enda":11230,"Ġcompilation":11231,"Ġwithd":11232,"========":11233,"Ġartistic":11234,"din":11235,"contin":11236,"ĠMagn":11237,"Ġsoil":11238,"$};":11239,"Ġ{$":11240,"lon":11241,"Ġellip":11242,"ĠMother":11243,"Ġrestored":11244,"Ġrevers":11245,"Ġnortheast":11246,"ĠEvans":11247,"Ġcolors":11248,"ĠArn":11249,"ĠAssistant":11250,"athered":11251,"lt":11252,"ĠObl":11253,"ĠPortland":11254,"eo":11255,"Ġplatforms":11256,"Ġflo":11257,"Ġvenues":11258,"}[\\":11259,"Ġwheel":11260,"hattan":11261,"date":11262,"|}{":11263,"Ġfruit":11264,"Ġcomposers":11265,"iterranean":11266,"del":11267,"ĠJason":11268,"Ġweekly":11269,"iper":11270,"Ġinternet":11271,"ĠCass":11272,"Ġvolumes":11273,"}}^{\\":11274,"Ġatmosphere":11275,"Ġcrash":11276,"Ġrout":11277,"ĠBangladesh":11278,"Ġmyself":11279,"Ġthousand":11280,"Ġinvolvement":11281,"ĠEdition":11282,"ĠLINE":11283,"âĢĺ":11284,"Ġinjuries":11285,"instein":11286,"Ġwear":11287,"ĠSev":11288,"Medal":11289,"Ġapparently":11290,"ovo":11291,"sa":11292,"Ġretained":11293,"ĠIT":11294,"Ġnewspapers":11295,"Ġdoubt":11296,"isson":11297,"number":11298,"yll":11299,"Hom":11300,"ĠWol":11301,"Ġatoms":11302,"Ġdescend":11303,"Ġphoton":11304,"Ġphases":11305,"Ġgeneralized":11306,"ĠVari":11307,"1888":11308,"Ġstayed":11309,"maker":11310,"through":11311,"Ġrecre":11312,"ibbean":11313,"Ġanch":11314,"Ġidentification":11315,"Ġassuming":11316,"ĠDub":11317,"ĠHend":11318,"Ġdisplayed":11319,"Ġindepend":11320,"ĠJosÃ©":11321,"Consider":11322,"ulum":11323,"Ġanom":11324,"Ġdiscussions":11325,"author":11326,"Ġrecru":11327,"gate":11328,"Ġreveals":11329,"Ġchallenging":11330,"algebra":11331,"ĠPrincess":11332,"ĠLGBT":11333,"Ġmaximal":11334,"Ġquantity":11335,"fare":11336,"racket":11337,"Robert":11338,"wright":11339,"Ġstim":11340,"Ġsubmitted":11341,"Ġsed":11342,"Ġdense":11343,"Ġnonlinear":11344,"nia":11345,"Ġsettings":11346,"Ġdistinguished":11347,"ĠPay":11348,"});":11349,"Ġvic":11350,"Ġdream":11351,"Ġexpensive":11352,"Ġbrings":11353,"ĠIR":11354,"Ġ$.":11355,"chron":11356,"ĠExpl":11357,"Ġspr":11358,"Ġtrading":11359,"Ġbelongs":11360,"ĠNazi":11361,"emed":11362,"Vol":11363,"December":11364,"ĠUnit":11365,"George":11366,"nbsp":11367,"ĠGraham":11368,"ĠMS":11369,"ijing":11370,"ocket":11371,"gebras":11372,"kee":11373,"ĠKit":11374,"Ġgarden":11375,"location":11376,"Political":11377,"Ġhorror":11378,"Afric":11379,"Ġsymp":11380,"ultan":11381,"Ġrivers":11382,"Ġprovincial":11383,"Non":11384,"ĠAdvis":11385,"ĠSpirit":11386,"Ġoutbreak":11387,"DB":11388,"Ġfocuses":11389,"forming":11390,"ĠZe":11391,"Ġmile":11392,"Ġgenre":11393,"Ġprocedures":11394,"ĠRico":11395,"ĠMarket":11396,"ricane":11397,"ĠSocorro":11398,"Ġranking":11399,"Ġtruly":11400,"Ġsituations":11401,"Ġhill":11402,"slant":11403,"Ġdeform":11404,"bishop":11405,"opedia":11406,"ogram":11407,"step":11408,"ĠGary":11409,"lash":11410,"Ġkin":11411,"holders":11412,"Ġaw":11413,"Ġconsequences":11414,"block":11415,"Ġelectro":11416,"Ã³w":11417,"ching":11418,"ĠMadrid":11419,"ĠRud":11420,"ĠLuther":11421,"Ġpropose":11422,"pread":11423,"Ġvisiting":11424,"Ġentity":11425,"ĠFuture":11426,"ĠStanley":11427,"Last":11428,"Ġexpressions":11429,"Ġeasier":11430,"Ġdiameter":11431,"ĠPut":11432,"umption":11433,"prov":11434,"Ġplas":11435,"Ġdress":11436,"Ġbot":11437,"Ġstuff":11438,"ĠEsp":11439,"ician":11440,"itations":11441,"ĠBachelor":11442,"ĠCR":11443,"Ġconsumption":11444,"ĠĠĠĠĠĠĠĠĠĠĠĠĠĠ":11445,"ĠMetro":11446,"Ġdisorder":11447,"Ġtalent":11448,"EFA":11449,"Ġcolleges":11450,"Ġoperational":11451,"vector":11452,"Michael":11453,"urations":11454,"DT":11455,"ĠApple":11456,"Ġreconstruction":11457,"oupl":11458,"Ġcouldn":11459,"atar":11460,"ĠNad":11461,"ĠBroadway":11462,"Ġadvertising":11463,"Ġmes":11464,"viously":11465,"=.":11466,"ĠBey":11467,"ĠMaj":11468,"ĠLINEAR":11469,"hl":11470,"olving":11471,"1865":11472,"conf":11473,"Ġwait":11474,"ĠLimited":11475,"ĠFisher":11476,"Album":11477,"andal":11478,"Ġclosure":11479,"ĠUpon":11480,"ĠIndians":11481,"ĠLower":11482,"ĠGlas":11483,"green":11484,"Ġbon":11485,"ĠArticle":11486,"ancouver":11487,"Ġsounds":11488,"Ġprivacy":11489,"Ġdangerous":11490,"Ġ\\&":11491,"Ġjurisdiction":11492,"---":11493,"ĠThose":11494,"Proof":11495,"ĠMA":11496,"user":11497,"Ġwides":11498,"ishments":11499,"ĠConservative":11500,"Ġsteam":11501,"Ġkingdom":11502,"Ġrelating":11503,"Ġequivalence":11504,"Ġdated":11505,"rock":11506,"$&":11507,"ĠJimmy":11508,"Ġwounded":11509,"ĠRural":11510,"Ġmit":11511,"ĠWhy":11512,"bmatrix":11513,"represent":11514,"ugs":11515,"Ġkilomet":11516,"ĠWhere":11517,"Ġwaiting":11518,"Ġmal":11519,"ĠTak":11520,"Ġnaturally":11521,"Ġcomed":11522,"Ġinfluential":11523,"arios":11524,"scriptsize":11525,"boy":11526,"November":11527,"ysical":11528,"Ġenable":11529,"Long":11530,"Ġdiseases":11531,"Ġattributed":11532,"Ġexcited":11533,"Ġassessment":11534,"ivan":11535,"itime":11536,"hew":11537,"ĠBirmingham":11538,"Ġgiant":11539,"Ġtrials":11540,"Field":11541,"Ġquasi":11542,"Ġconsumer":11543,"Ġbid":11544,"Ġsizes":11545,"Ġcoastal":11546,"Ġfaces":11547,"ĠMack":11548,"102":11549,"alph":11550,"Ġlawyers":11551,"atorial":11552,"Ġremainder":11553,"Ġtransmit":11554,"ĠFinancial":11555,"Dis":11556,"Ġrecovered":11557,"oes":11558,"Ġaccessible":11559,"Ġintr":11560,"ricket":11561,"Ġdetermin":11562,"Ġsupers":11563,"Ġlocality":11564,"ĠMC":11565,"Ġmor":11566,"Ġnaval":11567,"Ġpoem":11568,"sts":11569,"Ġpersonality":11570,"ĠJazz":11571,"Ġasymptotic":11572,"Ġmask":11573,"ĠWebsite":11574,"Ġelementary":11575,"ĠResp":11576,"geon":11577,"ĠKan":11578,"ĠBorn":11579,"Ġcricketers":11580,"Ġliberal":11581,"Ġtag":11582,"Ġ}{":11583,"ĠCel":11584,"ĠBaker":11585,"ĠTheater":11586,"Ã¨re":11587,"Rev":11588,"Ġmissed":11589,"lu":11590,"story":11591,"Ġcriticized":11592,"Ġchoices":11593,"Ġproportional":11594,"Ġcompeting":11595,"iii":11596,"imental":11597,"ĠJenn":11598,"abric":11599,"eton":11600,"ĠBeck":11601,"leyball":11602,"Ġaimed":11603,"lee":11604,"Production":11605,"Mart":11606,"Ġnorthwest":11607,"ĠDelhi":11608,"ĠWarren":11609,"ĠBilly":11610,"people":11611,"conv":11612,"Ġpainted":11613,"iffs":11614,"asa":11615,"Ġstructural":11616,"Ġasking":11617,"ĠGon":11618,"ĠHiggs":11619,"Ġsmart":11620,"ÅĦ":11621,"Ġhabitat":11622,"idance":11623,"Ġexposed":11624,"umbent":11625,"Po":11626,"Ġrounds":11627,"aze":11628,"Ġcollapse":11629,"Ġfishing":11630,"Ġcodes":11631,"ÅŁ":11632,"loop":11633,"Ġloved":11634,"ĠFreedom":11635,"ĠStev":11636,"winning":11637,"Ġinitiative":11638,"\\)":11639,"Ġalcohol":11640,"Ġwings":11641,"Ġvacuum":11642,"Ġcounties":11643,"GR":11644,"annon":11645,"Ġsymbols":11646,"Ġquark":11647,"Ġforg":11648,"Ġcredited":11649,"Ġsin":11650,"ĠWrest":11651,"ĠUpper":11652,"ĠColonel":11653,"avalry":11654,"NC":11655,"Main":11656,"ĠLanguage":11657,"ethe":11658,"Ġapplies":11659,"vals":11660,"icking":11661,"Ġprotests":11662,"family":11663,"Ġconcepts":11664,"Ġromantic":11665,"uler":11666,"^{*":11667,"Ġpanels":11668,"ĠNature":11669,"ĠBernard":11670,"Ġshr":11671,"listed":11672,"Ġpreserved":11673,"umed":11674,"umps":11675,"Ġcous":11676,"Ġinvestigated":11677,"Ġoutcome":11678,"ĠRap":11679,"etition":11680,"ĠQual":11681,"Ġapplicable":11682,"dest":11683,"aration":11684,"Ġvarying":11685,"Ġtel":11686,"Ġapproximate":11687,"Every":11688,"Ġorientation":11689,"ĠCultural":11690,"Ġcooperation":11691,"Ġmoral":11692,"Ġcrop":11693,"boldmath":11694,"Ġsupporters":11695,"open":11696,"Ġthreatened":11697,"ĠCommunications":11698,"Ġfat":11699,"Ġphotography":11700,"Ġgre":11701,"Ġentreprene":11702,"verseas":11703,"Ġreward":11704,"Ġpainters":11705,"ĠChristians":11706,"reduc":11707,"ĠMess":11708,")--":11709,"Ġconversion":11710,"ĠJosh":11711,"ĠNi":11712,"Ġcounsel":11713,"Ġconnecting":11714,"hammad":11715,"}}}\\":11716,"Ġsurfaces":11717,"1887":11718,"Ġemotional":11719,"Ġelder":11720,"ĠIP":11721,"ifle":11722,"js":11723,"scar":11724,"Ġvessels":11725,"ĠMotor":11726,"ĠGran":11727,"ĠGuy":11728,"Ġreaders":11729,"via":11730,"ificate":11731,"Ġputting":11732,"Ġconvicted":11733,"Ġdeclined":11734,"ĠEvent":11735,"ĠCry":11736,"Ġfurn":11737,"140":11738,"Ġbelonging":11739,"ĠStars":11740,"expected":11741,"Ġelectoral":11742,"Ġrising":11743,"ĠAmazon":11744,"ensor":11745,"Ġcir":11746,"HO":11747,"ĠProtection":11748,"ĠDefence":11749,"written":11750,"oro":11751,"imir":11752,"Ġcoupled":11753,"Ġelectrons":11754,"Ġfunded":11755,"Hence":11756,"etric":11757,"mates":11758,"Ent":11759,"forms":11760,"version":11761,"ĠSR":11762,".;":11763,"Ġgenera":11764,"ĠDeep":11765,"1886":11766,"avi":11767,"ervoir":11768,"Ġsubmar":11769,"ĠConfeder":11770,"tha":11771,"named":11772,"ĠAlaska":11773,"Ġembedding":11774,"}~":11775,"Ġconsp":11776,"/(":11777,"Ġhelic":11778,"Ġthemes":11779,"GP":11780,"Ġdebuted":11781,"ĠSmall":11782,"enson":11783,"Ġproperly":11784,"ĠMitchell":11785,"104":11786,"Ġmechanical":11787,"ermont":11788,"Ġdowntown":11789,"}}=":11790,"ĠMembers":11791,"1864":11792,"Ġdestruction":11793,"Line":11794,"Ġactivists":11795,"{|":11796,"ĠCuba":11797,"ĠCommissioner":11798,"Despite":11799,"ĠPictures":11800,"Ġwidespread":11801,"aneous":11802,":=\\":11803,"Ġsuccessor":11804,"othy":11805,"ĠStrate":11806,"Ġcounterpart":11807,"Bur":11808,"oving":11809,"Lemma":11810,"ĠBenn":11811,"Ġensemble":11812,"Ġfluctuations":11813,"ĠBlues":11814,"Ġeat":11815,"Ġaccordance":11816,"ĠArena":11817,"111":11818,"Ġbundle":11819,"tiny":11820,"Ġguitarist":11821,"Ġreads":11822,"Ġlanding":11823,"Ġstrictly":11824,"tz":11825,"mate":11826,"Dou":11827,"front":11828,"Ġsystematic":11829,"ĠOperation":11830,"Ġstrip":11831,"columnwidth":11832,"plot":11833,"Ġcomplicated":11834,"Ġgravitational":11835,"parison":11836,"ĠConsider":11837,"Ġfinance":11838,"WA":11839,"1850":11840,"Ġradical":11841,"Color":11842,"Ġencouraged":11843,"since":11844,"ĠHum":11845,"\\}$,":11846,"Ġpm":11847,"fiction":11848,"ducational":11849,"Ġdaughters":11850,"ĠSU":11851,"Ġacquisition":11852,"Ġeq":11853,"scriptstyle":11854,"Ġfitted":11855,"Ġforests":11856,"eals":11857,"kl":11858,"Ġabroad":11859,"Ġstarred":11860,"Ġ/**":11861,"ĠTol":11862,"Ġpassage":11863,"Ġreconstruct":11864,"nan":11865,"Ġocean":11866,"Ġhorizontal":11867,"Ġmanip":11868,"ulu":11869,"ĠProb":11870,"Ġcoronavirus":11871,"ĠAlberta":11872,"gun":11873,"ĉĉĉĉĉ":11874,"}_{-":11875,"ĠVegas":11876,"ĠTower":11877,"ĠSimilarly":11878,"will":11879,"ĠManhattan":11880,"Que":11881,"}$}":11882,"));":11883,"ĠTax":11884,"Ġemerged":11885,"ĠCarm":11886,"ĠAzerbai":11887,"Ġmig":11888,"Ġnomination":11889,"Ġunusual":11890,"Ġelectricity":11891,"Ġpian":11892,"Ġclimb":11893,"Ġauto":11894,"loc":11895,"Ġexisted":11896,"utely":11897,"RR":11898,"ĠTob":11899,"Ġaddressed":11900,"DI":11901,"Ġsigning":11902,"Ġpresentation":11903,"\\}\\":11904,"ĠKum":11905,"Ġreduces":11906,"ĠAthe":11907,"Ġassass":11908,"ĠCrit":11909,"ĠMuslims":11910,"ĠBud":11911,"Ġdefence":11912,"Ġabstract":11913,"Ġemail":11914,"1861":11915,"oka":11916,"Ġdot":11917,"Ġprecise":11918,"olia":11919,"Ġschemes":11920,"Ġcod":11921,"Ġphotos":11922,"atics":11923,"ĠJohnny":11924,"ĠCathedral":11925,"orkshire":11926,"Dan":11927,"ĠNevada":11928,"Ġannually":11929,"Text":11930,"Ġmechanisms":11931,"Ġmedieval":11932,"ĠNorman":11933,"riel":11934,"ensing":11935,"ĠEgyptian":11936,"ÈĻ":11937,"Ġsuspended":11938,"Xi":11939,"erving":11940,"oment":11941,"Ġgenerating":11942,"Ġadmin":11943,"Jew":11944,"orer":11945,"Ġpictures":11946,"Ġsignature":11947,"Ġtalks":11948,"ĠMind":11949,"ĠBasketball":11950,"pto":11951,"Ġconfer":11952,".âĢĻ":11953,"ĠCharlie":11954,"ĠVI":11955,"Ġmountains":11956,"ĠIranian":11957,"ĠMars":11958,"Ġ^":11959,"fol":11960,"Ġvariance":11961,"Ġcuts":11962,"unit":11963,"ativ":11964,"raham":11965,"oked":11966,"Ġcurvature":11967,"ĠLiving":11968,"ivia":11969,"Ġnormally":11970,"Ġoutl":11971,"Ġsoutheast":11972,"Ġsurrounded":11973,"Ġ({\\":11974,"Ġwine":11975,"Jos":11976,"Ġexport":11977,"Ġindependently":11978,"1884":11979,"ĠWayne":11980,"Den":11981,"estone":11982,"mund":11983,"Ġtur":11984,"cover":11985,"artheta":11986,"ĠLP":11987,"Ġcontroversy":11988,"European":11989,"iture":11990,"oking":11991,".),":11992,"Ġnearest":11993,"ĠCaribbean":11994,"scription":11995,"ĠPil":11996,"}|\\":11997,"Ġaims":11998,"ĠNewton":11999,"Ġnarrative":12000,"Ġfulfill":12001,"Ġcyl":12002,"fly":12003,"Ã©n":12004,"olutions":12005,"Ġwww":12006,"Ġcouples":12007,"ĠDM":12008,"ĠPhD":12009,"num":12010,"Ġcorrection":12011,"ĠHeb":12012,"encer":12013,"Ġox":12014,"vartheta":12015,"Ġindicating":12016,"ĠLud":12017,"opal":12018,"Ġevaluated":12019,"Ġguilty":12020,"Ġfrequencies":12021,"Ġviolin":12022,"osph":12023,"ĠMeg":12024,"Ġeliminated":12025,"ĠInsp":12026,"Ġspoken":12027,"ĠAthletic":12028,"Ġdepicted":12029,"Ġsymptoms":12030,"Ġdifficulty":12031,"Ġreaches":12032,"Ġargue":12033,"Ġpicked":12034,"ĠUg":12035,"Ġtaxes":12036,"nowledg":12037,"rency":12038,"Ġdealing":12039,"Ġtherapy":12040,"Ġcongress":12041,"ynamics":12042,"Ġels":12043,"Ġregulation":12044,"103":12045,"GS":12046,"ymmetric":12047,"ĠSalv":12048,"Ġtang":12049,"emn":12050,"ĠPack":12051,"vision":12052,"zing":12053,"Ġautomatically":12054,"Ġneighb":12055,"Ġqualifying":12056,"Ġbusinessman":12057,"Ġmagazines":12058,"ĠStudy":12059,"Sports":12060,"Ġamaz":12061,"urities":12062,"ĠTournament":12063,"Ġtunnel":12064,"large":12065,"Ġremote":12066,"Ġagriculture":12067,"Ġluminosity":12068,"ĠSax":12069,"Ġworse":12070,"Suppose":12071,"clip":12072,"Ġhat":12073,"^*\\":12074,"than":12075,"ĠBomb":12076,"Ġfrequent":12077,"ĠUrban":12078,"Ġcontroversial":12079,"Ġwavel":12080,"Ġgenetic":12081,"Ġmetall":12082,"350":12083,"ĠChair":12084,"ĠEnvironmental":12085,"ĠHad":12086,"Ġdefines":12087,"Ġleaf":12088,"Ġvariant":12089,"####":12090,"Ġstabil":12091,"raska":12092,"ĠCircuit":12093,"Ġfoss":12094,"LT":12095,"perties":12096,"&=\\":12097,"leased":12098,"Ġmerger":12099,"Ġfee":12100,"Ġ$,":12101,"ĠGeV":12102,"Ġmemor":12103,"Ġgradually":12104,"imp":12105,"ĠBarbara":12106,"ĠWindows":12107,"ĠRand":12108,"Ġserial":12109,"Ġsouthwest":12110,"vs":12111,"uez":12112,"Ġmissions":12113,"Ġdynamical":12114,"result":12115,"Also":12116,"Ġmarks":12117,"123":12118,"116":12119,"dem":12120,"lights":12121,"parallel":12122,"Moreover":12123,"ĠTrophy":12124,".</":12125,"BR":12126,"Ġslowly":12127,"Later":12128,"ĠWang":12129,"fn":12130,"ffee":12131,"ĠCarlos":12132,"Ġwaste":12133,"ĠNord":12134,"aks":12135,"Ġtie":12136,"ĠElectric":12137,"aura":12138,"ĠParker":12139,"Because":12140,"Ĥ¬":12141,"Ġreleases":12142,"Ġmaybe":12143,"Ġplease":12144,"ĠHawaii":12145,"lett":12146,"ĠFinance":12147,"anion":12148,"ucl":12149,"ĠLad":12150,"udson":12151,"Ġmessages":12152,"Ġvaluable":12153,"terior":12154,"Ġcommut":12155,"Ġfraud":12156,"Pal":12157,"gt":12158,"Ġindigenous":12159,"ĠAld":12160,"ĠAndy":12161,"ĠFriends":12162,"unity":12163,"appy":12164,"tikzpicture":12165,"ĉĉĊ":12166,"Ġterritories":12167,"oks":12168,"avan":12169,"Ġwhatever":12170,"Ġpursue":12171,"Ġsupplies":12172,"])":12173,"oons":12174,"PT":12175,"negative":12176,"emale":12177,"Ġes":12178,"ĠNam":12179,"ĠCrim":12180,"utr":12181,"Ġscholar":12182,"1881":12183,"abi":12184,"[-":12185,"expl":12186,"School":12187,"acre":12188,"Ġalter":12189,"ĠProfessional":12190,"eded":12191,"Ġtelling":12192,"aled":12193,"ĠFellow":12194,"Exception":12195,"oviÄĩ":12196,"Ġviolent":12197,"hill":12198,"Ġperiodic":12199,"Ġpy":12200,"hibition":12201,"clusively":12202,"Ġbrick":12203,"ĠIan":12204,"ĠFIFA":12205,"Ġminority":12206,"1863":12207,"Ġbeach":12208,"Ġclock":12209,"Ġunsuccess":12210,"itis":12211,"arning":12212,"XX":12213,"kg":12214,"Mult":12215,"ĠCollins":12216,"ĠCher":12217,"Ġlock":12218,"ĠSN":12219,"Br":12220,"Ġfinals":12221,"Ġspac":12222,"Ġranges":12223,"esian":12224,"Ġflowers":12225,"ĠVic":12226,"ĠChallenge":12227,"Ġcorrections":12228,"oi":12229,"ĠProtest":12230,"Max":12231,"Ġaccum":12232,"Ġranks":12233,"ĠReturn":12234,"ĠBenjamin":12235,"rays":12236,"Ġabsorption":12237,"Ġusage":12238,"Ñĥ":12239,"ĠHero":12240,"Ġoutstanding":12241,"Ġlegislative":12242,"ĠBeijing":12243,"Ġestablishing":12244,"Ġisot":12245,"ĠTib":12246,"Ġbars":12247,"Ġvessel":12248,"Ġinformed":12249,"Ã¶r":12250,"ĠAC":12251,"ĠSD":12252,"!\"":12253,"ribe":12254,"Ġconversation":12255,"Ġwars":12256,"Ġthirty":12257,"Ġarrangement":12258,"Ġdashed":12259,"********":12260,"Log":12261,"panic":12262,"Ġfewer":12263,"Ġanalys":12264,"Ġfold":12265,"ĠMunicipality":12266,"otton":12267,"Ġpreferred":12268,"ĠYugoslav":12269,"Arm":12270,"tach":12271,"ĠPoly":12272,"ateral":12273,"ĠChart":12274,"ĠGlasgow":12275,"fast":12276,"ristol":12277,"dash":12278,"Ġelsewhere":12279,"shaped":12280,"EX":12281,"Ġawareness":12282,"106":12283,"900":12284,"ĠSS":12285,"bow":12286,"ĠYorkshire":12287,"Ġvanish":12288,"oga":12289,"Ġdemocracy":12290,"Ġgeometric":12291,"ĠAthletics":12292,"config":12293,"eva":12294,"^{(\\":12295,"iliary":12296,"Ġmillions":12297,"Ġredshift":12298,"harm":12299,"ivation":12300,"onomous":12301,"wig":12302,"Ġfalling":12303,"ĠBron":12304,"Ġbaby":12305,"ĠIndustry":12306,"jecture":12307,"su":12308,"ĠVancouver":12309,"ĠEle":12310,"Ġgolf":12311,"figures":12312,"omon":12313,"Ham":12314,"rov":12315,"1882":12316,"Alex":12317,"pent":12318,"Ġbrig":12319,"Ġimprovements":12320,"ĠExchange":12321,"Ġmodeling":12322,"Ġeligible":12323,"ĠNBC":12324,"ĠGriff":12325,"Ġattain":12326,"inae":12327,"Ġrequested":12328,"FS":12329,"Ġsurre":12330,"heric":12331,"Ġimposed":12332,"Met":12333,"Ġlongest":12334,"Ġgrows":12335,"Ġelectrical":12336,"points":12337,"Event":12338,"Ġfarmers":12339,"âĢ¦âĢ¦":12340,"Ġsurvive":12341,"verage":12342,"ĠBlood":12343,"overe":12344,"Ġphotographs":12345,"':":12346,"Ġsessions":12347,"Ġterminal":12348,"Ġsuppose":12349,"Å¾":12350,"Model":12351,"Ġprinted":12352,"Ġinstrumental":12353,"Ġjury":12354,"Ġtexts":12355,"Ġrecognize":12356,"Ġreleg":12357,"bad":12358,"Ġpermission":12359,"Ġpreparation":12360,"Ġlicensed":12361,"1862":12362,"Ġages":12363,"ĠRead":12364,"Ġsentenced":12365,"Ġcustomer":12366,"Ġfictional":12367,"Rele":12368,"hematic":12369,"oan":12370,"image":12371,"RL":12372,"quot":12373,"equate":12374,"Ġdefeating":12375,"+(":12376,"Ġsuperior":12377,"ĠSpeak":12378,"Ġasc":12379,"Ġpublisher":12380,"Ġsoundtrack":12381,"ibraries":12382,"ĠPA":12383,"emin":12384,"Ġattracted":12385,"ourt":12386,",\\\\":12387,"rez":12388,"Each":12389,"VI":12390,"ĠEff":12391,"Ġprofiles":12392,"Town":12393,"ĠMak":12394,"Ġrunner":12395,"Ġexplanation":12396,"ĠEM":12397,"Ġrhythm":12398,"ebox":12399,"chiat":12400,"Ġpossession":12401,"Ġbiological":12402,"ogonal":12403,"ĠFaculty":12404,"Ġcredits":12405,"ikip":12406,"ĠDJ":12407,"ĠWing":12408,"Ġloyal":12409,"Ġradi":12410,"Ġchamber":12411,"ĠGuinea":12412,"Ġsolving":12413,"Ġorganisations":12414,"writers":12415,"title":12416,"fold":12417,"idelines":12418,"Ġcup":12419,"ĠYang":12420,"ĠEncycl":12421,"Ġbegun":12422,"Ġcomparable":12423,"ĠConstant":12424,"Ġsitting":12425,"ĠJonathan":12426,"ĠBarry":12427,"ĠCBS":12428,"ĠMall":12429,"Ġbeauty":12430,"iors":12431,"ĠBelgian":12432,"Off":12433,"ĠBeh":12434,")})":12435,"ĠFlore":12436,"ĠIce":12437,"anti":12438,"vironments":12439,"Sam":12440,"enders":12441,"ĠMans":12442,"ĠSerbia":12443,"GO":12444,"ĠMediterranean":12445,"Ber":12446,"astery":12447,"Ġdevoted":12448,"ĠSteel":12449,"Ġexponential":12450,"ĠBurg":12451,"ĠSerge":12452,"mathit":12453,"Ġduration":12454,"Ġtort":12455,"intro":12456,"makers":12457,"Ġcharity":12458,"Ġfract":12459,"Ġkit":12460,"Ãª":12461,"eyer":12462,"rangian":12463,"ouch":12464,"Ġguy":12465,"ĠSoft":12466,"aran":12467,"Ġwearing":12468,"isons":12469,"Ġtow":12470,"Ġregister":12471,"ĠCommons":12472,"ĠPrefecture":12473,"ĠPeru":12474,"gic":12475,"itects":12476,"Ġdistances":12477,"February":12478,"ĠNova":12479,"ospel":12480,"ĠTurner":12481,"istence":12482,"loyd":12483,"Ġrid":12484,"Ġflower":12485,"original":12486,"Est":12487,"Ġsharp":12488,"Ġwider":12489,"Ġintern":12490,"Ġcann":12491,"ĠHunter":12492,"eras":12493,"ĨĴ":12494,"ĠChapter":12495,"uclear":12496,"Oh":12497,"object":12498,"Ġimmigrants":12499,"TT":12500,"romagnetic":12501,"multirow":12502,"ĠPant":12503,"Ġviolation":12504,"Hen":12505,"hour":12506,"Ġboost":12507,"Ġtrail":12508,"Ġreven":12509,"afe":12510,"ĠMilan":12511,"Ġunlike":12512,"Ġhip":12513,"ĠStudio":12514,"1883":12515,"Tra":12516,"content":12517,"Ġdistinguish":12518,"ĠColombia":12519,"ĠFine":12520,"ĠSlov":12521,"ĠElementary":12522,"ĠFitz":12523,"Ġwatching":12524,"ĠSaints":12525,"Ġhorses":12526,"ĠEconomics":12527,"ĠTigers":12528,"ĠRE":12529,"ĠStage":12530,"Ġconstitutional":12531,"Us":12532,"Ġwalking":12533,"Ġfilmed":12534,"iscal":12535,"Ġregiment":12536,"ĠRelations":12537,"Ġwhilst":12538,"Ġrequiring":12539,"HA":12540,"ĠOblast":12541,"wind":12542,"Ġdisput":12543,"Ġstochastic":12544,"ĠMuhammad":12545,"ĠHindu":12546,"Ġfitting":12547,"Ġclosing":12548,"cussion":12549,"ĠSongs":12550,"game":12551,"ĠNumber":12552,".\\\\":12553,"\\%$":12554,"Ġamongst":12555,"aku":12556,"ĠLock":12557,"keley":12558,"Ġfault":12559,"ĠJama":12560,"subsec":12561,"sychiat":12562,"assy":12563,"GE":12564,"Ġranging":12565,"Ġprotocol":12566,"incinn":12567,"si":12568,"anche":12569,"Ġton":12570,"à¥":12571,"rev":12572,"ĠTele":12573,"Ġsphere":12574,"Ġ!=":12575,"cycle":12576,"ĠTech":12577,"Ġinstances":12578,"Ġdiscontin":12579,"Ġacted":12580,"ĠPhoenix":12581,"Base":12582,"Spanish":12583,"ntil":12584,"Ġparagraph":12585,"ĠSeven":12586,"ĠEmb":12587,"$^{":12588,"Ġannounc":12589,"holm":12590,"ĠRichmond":12591,"owell":12592,"ĠFam":12593,"charge":12594,"Ġpartly":12595,"Land":12596,"Ġbattles":12597,"Ġhistorians":12598,"Ġproven":12599,"Ġbare":12600,"akia":12601,"Î±":12602,"Ġconscious":12603,"ĠTrail":12604,"Ġphysician":12605,"Ġderivatives":12606,"Alumni":12607,"ĠSpeed":12608,"Ġmanaging":12609,"ĠTag":12610,"Law":12611,"Ġmachines":12612,"Ġaren":12613,"zes":12614,"ĠSoccer":12615,"Ġbird":12616,"ĠChristianity":12617,"~(\\":12618,"ĠOrange":12619,"ĠFalls":12620,"Ġphenomenon":12621,"Ġpoems":12622,"Ġkinds":12623,"Nor":12624,"Ġindustries":12625,"Ġorbital":12626,"Direct":12627,")^\\":12628,"Posted":12629,"Ġatomic":12630,"Ġanticip":12631,"Ġstake":12632,"Green":12633,"Ġpolarization":12634,"ĠSr":12635,"Ġmerely":12636,"ĠJe":12637,"phantom":12638,"());":12639,"Ġinvolve":12640,"rators":12641,"iko":12642,"Ġalgebraic":12643,"Ġpeaked":12644,"borne":12645,"About":12646,"ĠWarner":12647,"ĠSid":12648,"\\|\\":12649,"ikipedia":12650,"Ġinvestors":12651,"Ġ,\\":12652,"Ġpredomin":12653,"Ġdispute":12654,"Ġbases":12655,"ĠEston":12656,"works":12657,"ĠCrime":12658,"Ġprev":12659,"Ġswimming":12660,"ĠAmendment":12661,"Season":12662,"orb":12663,"uka":12664,"ivated":12665,"League":12666,"Ġeigenvalues":12667,"atas":12668,"Ġdrew":12669,"Ur":12670,"ĠIsa":12671,"Ġclaiming":12672,"Ġimmigration":12673,"Ġencourage":12674,"ĠPierre":12675,"Ġquot":12676,"Ġmunicipalities":12677,"Ġremoval":12678,"Ġphilos":12679,"iege":12680,"Ġsoldier":12681,"Ġrepair":12682,"Ġattending":12683,"ĠHarrison":12684,"Gall":12685,"incinnati":12686,"idad":12687,"hal":12688,"Ġrisks":12689,"Ġpuls":12690,"ĠWor":12691,"ĠClassic":12692,"1878":12693,"Ben":12694,"ĠPlant":12695,"Lou":12696,"Ġresemb":12697,"uon":12698,"Thomas":12699,"arithm":12700,"Ġimproving":12701,"ĠRacing":12702,"Ġsumm":12703,"Ġreun":12704,"////////":12705,"ĠEug":12706,"teenth":12707,"ĠBaptist":12708,"Ġstem":12709,"ĠStudents":12710,"ĠMinor":12711,"member":12712,"1875":12713,"ierra":12714,"Ġdisag":12715,"Ġinterviews":12716,"sche":12717,"irk":12718,"Ġsurviving":12719,"Ġbath":12720,"medskip":12721,"ĠAlexand":12722,"Requ":12723,"herical":12724,"Ġequally":12725,"ĠZone":12726,"Ġparliamentary":12727,"idency":12728,"Ġministers":12729,"ampa":12730,"method":12731,"rod":12732,"Ġjudgment":12733,"Ġdemands":12734,"Ġfriendly":12735,"Ġapartment":12736,"Ġdegener":12737,"ennial":12738,"Ġconsent":12739,"ĠPra":12740,"tre":12741,"1876":12742,"Sal":12743,"President":12744,"Mount":12745,"ĠStorm":12746,"ibration":12747,"Ġpup":12748,"ĠMong":12749,"ĠParish":12750,"unning":12751,"ĠChron":12752,"Ġsacr":12753,"Ġlegit":12754,"jar":12755,"ĠUniversal":12756,"rior":12757,"stra":12758,"astrop":12759,"Demographics":12760,"Ġcinema":12761,"Ġdefinitions":12762,"107":12763,"Ġpreserve":12764,"Ġswe":12765,"Ġorchestra":12766,"isot":12767,"celand":12768,"ĠGray":12769,"Ġexclusive":12770,"Ġgraduating":12771,"Ġoccasionally":12772,"ĠManager":12773,"Ġlegacy":12774,"isting":12775,"ĠInit":12776,"Ġlabour":12777,"Ġweapon":12778,"short":12779,"Ġvenue":12780,"antum":12781,"Gold":12782,"ĠLiterature":12783,"ĠFinnish":12784,"Ġinterpreted":12785,"ĠMath":12786,"Ġarrive":12787,"Ġdict":12788,"Ġcircular":12789,"marks":12790,"Ġlifetime":12791,"Ġreceives":12792,"Ġ$\\{\\":12793,"abe":12794,"ĠStein":12795,"ĠUlt":12796,"({":12797,"entry":12798,"agar":12799,"ĠMD":12800,"Ġstored":12801,"ĠVictorian":12802,"ĠMicrosoft":12803,"tawa":12804,"Ġhalo":12805,"Ġguidance":12806,"oton":12807,"Ġcollision":12808,"ĠShang":12809,"uart":12810,"omes":12811,"stat":12812,"ĠRangers":12813,"ĠCricket":12814,"orient":12815,"Ġacoustic":12816,"Organ":12817,"Ġdeparture":12818,"Ġholes":12819,"Ġborders":12820,"Ġmarry":12821,"Ġevil":12822,"Ġreflected":12823,"Ġchampionships":12824,"Air":12825,"ĠTreaty":12826,"Ġfocusing":12827,"ĠBranch":12828,"ĠPerformance":12829,"Ġcub":12830,"current":12831,"Ġportrayed":12832,"Ġcul":12833,"ĠKos":12834,"Ġpoets":12835,"Rob":12836,"Ġresponded":12837,"ĠFab":12838,"Ġcontracts":12839,"ĠFleet":12840,"ĠSoul":12841,"Error":12842,"ĠTu":12843,"Ġfairly":12844,"olin":12845,"Ġsurprising":12846,"ĠArabia":12847,"Ġprepare":12848,"eto":12849,"Mac":12850,"ĠGreater":12851,"Ġsensitivity":12852,"ĠFerm":12853,"Ġwouldn":12854,"zant":12855,"alymp":12856,"Ġscientist":12857,"Ġtheat":12858,"ĠAdmiral":12859,"ĠCharlotte":12860,"finite":12861,"owned":12862,"ĠSO":12863,"ĠNebraska":12864,"wave":12865,"Ġswit":12866,"Ġreportedly":12867,"Ġhospitals":12868,"ĠWas":12869,"ĠChel":12870,"LR":12871,"ĠBarcel":12872,"Ġrestoration":12873,"108":12874,"ĠGil":12875,"ĠCold":12876,"ĠJerry":12877,"Ġbio":12878,"asant":12879,"Ġwooden":12880,"1871":12881,"bp":12882,"ĠUniverse":12883,"Ġstyles":12884,"Ġgard":12885,"ducer":12886,"Through":12887,"Ġhydrogen":12888,"HD":12889,"Ġexpectation":12890,"Ġunderground":12891,"diff":12892,"arity":12893,"ocy":12894,"Ġprecision":12895,"Ġfeels":12896,"ĠFro":12897,"itory":12898,"ĠGot":12899,"ictions":12900,"Ġthereby":12901,"Hel":12902,"ĠAnim":12903,"onies":12904,"ocent":12905,"Ġscenarios":12906,"uates":12907,"Ġuniformly":12908,"ĠPast":12909,"Ġdevelopments":12910,"ĠRAF":12911,"nn":12912,"Ġstraightforward":12913,"Ġpole":12914,"Ġprofit":12915,"Ġtraveled":12916,"missions":12917,"usk":12918,"Ġ\\(\\":12919,"Ġeg":12920,"1879":12921,"Ġserver":12922,"Ġcommemor":12923,"Ġfantasy":12924,"ĠNicholas":12925,"1867":12926,"aco":12927,"Ġuncertainties":12928,"uru":12929,"olation":12930,"Ġdetector":12931,"Ġrescue":12932,"ea":12933,"Cre":12934,"Ġcreates":12935,"Ġsurviv":12936,"auer":12937,"Ġlaser":12938,"notag":12939,"Ġformulation":12940,"eda":12941,"four":12942,"Ġdx":12943,"ixon":12944,"Map":12945,"................................":12946,"Ġexclusively":12947,"Ġspan":12948,"Ġexpedition":12949,"Ġwet":12950,"^*(":12951,"Ġearthqu":12952,"Ġintellectual":12953,"Ġcasual":12954,"Local":12955,"Ġincidents":12956,"ĠCNN":12957,"Ġvaccine":12958,"ividual":12959,"refer":12960,"uity":12961,"Ġdonated":12962,"Ġur":12963,"ĠPract":12964,"Why":12965,"Ġdiffusion":12966,"gather":12967,"connected":12968,"ĠKr":12969,"ĠWatch":12970,"otions":12971,"Ġquery":12972,"Ġpromoting":12973,"ĠFellows":12974,"md":12975,"Ġhealthcare":12976,"HP":12977,"ĠWrestling":12978,"ĠDog":12979,"ĠMarvel":12980,"Ġincred":12981,"East":12982,"ĠBorough":12983,"uce":12984,"Personnel":12985,"Ġengage":12986,"ĠStra":12987,"Ġmathematical":12988,"ĠWithout":12989,"sterdam":12990,"ste":12991,"ĠMovie":12992,"Ġconjug":12993,"last":12994,"Ġcancel":12995,"ĠMoroc":12996,"ĠSE":12997,"oolean":12998,"Ġjournals":12999,"equations":13000,"inus":13001,"Ġgross":13002,"Tim":13003,"Ġheter":13004,"Ġeighth":13005,"utor":13006,"Ġmemorial":13007,"Ġalive":13008,"Ġworker":13009,"ĠOliver":13010,"Ð²":13011,"Ġadvers":13012,"Ġconfigurations":13013,"ĠTreas":13014,"ĠIntelligence":13015,"emp":13016,"Ġinstruction":13017,"corollary":13018,"Ġexpanding":13019,"Ġworship":13020,"Ġ\\,\\":13021,"Ġdefining":13022,"Ġpredecess":13023,"Current":13024,"aba":13025,"Ġdeemed":13026,"Ġcolleagues":13027,"Ġride":13028,"fish":13029,"ĠSymphony":13030,"stackrel":13031,"inee":13032,"ĠVincent":13033,"bone":13034,"Ġsegments":13035,"Ø§":13036,"Ġparks":13037,"tor":13038,"Ġproud":13039,"eston":13040,"ĠStill":13041,"ternoon":13042,"ystem":13043,"ĠShel":13044,"gon":13045,"Ġtact":13046,"1877":13047,"Ġperturbation":13048,"Ġquadratic":13049,"Ġcommune":13050,"Station":13051,"ĠSuppose":13052,"Ġeleven":13053,"Ġevident":13054,"ĠRobin":13055,"uxiliary":13056,"castle":13057,"Ġregardless":13058,"stad":13059,"Ġarchitectural":13060,"relation":13061,"256":13062,"Ġdecreases":13063,"Ġenvironments":13064,"minute":13065,"ĠGiants":13066,"fire":13067,"Ġartificial":13068,"1868":13069,"ĠDays":13070,"ĠGhana":13071,"Ġcoalition":13072,"Ġdetermination":13073,"PD":13074,"ĠFrances":13075,"Ġmonitoring":13076,"ĠJoy":13077,"ĠRot":13078,"().":13079,"USA":13080,"|^{":13081,"haw":13082,"Ġgod":13083,"static":13084,"Ġlasted":13085,"ĠPriv":13086,"Ġassemb":13087,"ĠOpp":13088,"Albums":13089,"ĠRomanian":13090,"iche":13091,"Ġnominations":13092,"Ġcable":13093,"Ġutility":13094,"ÃŁ":13095,"Ġsick":13096,"elian":13097,"Ġoxy":13098,"Stat":13099,"Ġpump":13100,"when":13101,"ĠFlight":13102,"Tom":13103,"1800":13104,"Ġ{};":13105,"urring":13106,"Ġmathematics":13107,"rise":13108,"may":13109,"umi":13110,"Ġspeaker":13111,"ĠAL":13112,"Ġposts":13113,"Ġdiscrimination":13114,"Ġmini":13115,"hfill":13116,"ĠMahar":13117,"about":13118,"ĠEthiop":13119,"Ġfighter":13120,"full":13121,"Ġprofessionals":13122,"Ġhardware":13123,"Mass":13124,"Ġoccasions":13125,"ĠBuffalo":13126,"Ġcontributing":13127,"icing":13128,"ĠJose":13129,"ĠBengal":13130,"ĠQuest":13131,"-(":13132,"360":13133,"Pan":13134,"Ġgrey":13135,"Ġrely":13136,"fortunately":13137,"api":13138,"1872":13139,"Ġrestriction":13140,"ĠSad":13141,"ĠSay":13142,"aved":13143,"Ġcoaching":13144,"owing":13145,"Ġinnovation":13146,"ĠResources":13147,"Ġsoph":13148,"ĠHope":13149,"Ġdifficulties":13150,"ĠPR":13151,"Ġnan":13152,"Ġna":13153,"Ġenact":13154,"ushing":13155,"ĠBarcelona":13156,"Ġgenerations":13157,"Ġprivile":13158,"ourg":13159,"ĠSnow":13160,"reducible":13161,"sor":13162,"acle":13163,"ĠLen":13164,"ĠArabic":13165,"Call":13166,"Ġreverse":13167,"ophone":13168,"(-\\":13169,"Ġbattery":13170,"rh":13171,"Ġnice":13172,"inated":13173,"Ġties":13174,"ĠAnnual":13175,"vect":13176,"001":13177,"orious":13178,"Ġaveraged":13179,"ĠGR":13180,"communic":13181,"Ġtoler":13182,"Ġfiber":13183,"ĠLearning":13184,"Ġdisturb":13185,"sper":13186,"axis":13187,"ĠTerritory":13188,"Hy":13189,"Ġcousin":13190,"ĠCapitol":13191,"gus":13192,"ĠNat":13193,"IST":13194,"ancellor":13195,"shot":13196,"Ġasks":13197,"Ġslope":13198,"Ġdeployed":13199,"Ġwhenever":13200,"ĠCoal":13201,"ĠChange":13202,"ĠPi":13203,"Ġyoungest":13204,"ĠIvan":13205,"ĠVlad":13206,"Ġcancelled":13207,"ĠTrinity":13208,"Ġamateur":13209,"ĠSerbian":13210,"Ġinspiration":13211,"Ġgram":13212,"ĠSteven":13213,"Ġdoctors":13214,"charg":13215,"Ġcounts":13216,"keeper":13217,"Ġparticipating":13218,")}(\\":13219,"Ġcircles":13220,"both":13221,"lections":13222,"ĠVel":13223,"amo":13224,"ĠKirk":13225,"ĠFif":13226,"observ":13227,"Ġviewers":13228,"square":13229,"ĠKap":13230,"ĠMontana":13231,"Ġrarely":13232,"Ġraising":13233,"ĠLic":13234,"Ġblind":13235,"Ġguarantee":13236,"Point":13237,"Ġsurprise":13238,"Moths":13239,"Ġdisappoint":13240,"igs":13241,"Ġmedals":13242,"Ġhonour":13243,"Ġdoors":13244,"info":13245,"ĠMeanwhile":13246,"$.}":13247,"aping":13248,"Ġdialogue":13249,"Ġgallery":13250,"Miss":13251,"aughter":13252,"109":13253,"ĠTheory":13254,"Ġtraditions":13255,"ĠArtist":13256,"ĠPel":13257,"ĠCust":13258,"Ġnoting":13259,"Ġlegs":13260,"Ġcarrier":13261,"Ġregistration":13262,"ĠBristol":13263,"ĠBond":13264,"pred":13265,"ogan":13266,"Ġinfection":13267,"Ġca":13268,"Ġstatue":13269,".-":13270,"1874":13271,"Univers":13272,"ĠAntar":13273,"closure":13274,"Ġtransformed":13275,"ĠFourier":13276,"ĠComputer":13277,"Work":13278,"ĠRogers":13279,"uming":13280,"ĠMason":13281,"Ġcontinuum":13282,"Ġsmallest":13283,"ĠMadison":13284,"Ġeconomics":13285,"ĠYet":13286,"ĠCarlo":13287,"ovich":13288,"Ġdil":13289,"Charles":13290,"ido":13291,"haust":13292,"likely":13293,"Ġsaved":13294,"ECT":13295,"Ġcabinet":13296,"igion":13297,"Ġnormalized":13298,"ĠIndustrial":13299,"ĠSz":13300,"Ġdub":13301,"pin":13302,"Ġsequel":13303,"Ġprelim":13304,"!]":13305,"');":13306,"folk":13307,"ĠCanal":13308,"ĠJefferson":13309,"writing":13310,"ĠPlat":13311,"ĠSeb":13312,"Ġsax":13313,"\"></":13314,"Ġseparately":13315,"ĠNiger":13316,"Ġopponents":13317,"King":13318,"ĠWithin":13319,"ĠForum":13320,"Ġtenure":13321,"Ġty":13322,"ĠStudent":13323,"Ġpeoples":13324,"Service":13325,"Ġhealthy":13326,"ĠBased":13327,"Ġdescript":13328,"ĠBM":13329,"ĠKon":13330,"Ġreporter":13331,"ĠBerkeley":13332,"Ġdensities":13333,"ĠOperations":13334,"istani":13335,"Ġshore":13336,"agers":13337,"special":13338,"etta":13339,"1873":13340,"ĠGarc":13341,"âĢĻ,":13342,"ĠAug":13343,"ĠLarry":13344,"Ġformul":13345,"Ġartillery":13346,"Ġstack":13347,"Richard":13348,"Ġfees":13349,"Ġuniqu":13350,"Ġsending":13351,"Open":13352,"'_{":13353,"Ġhomogeneous":13354,"1840":13355,"Ġinflation":13356,"tage":13357,"Ġtransverse":13358,"ĠSah":13359,"Ġsteep":13360,"Ġemissions":13361,"nm":13362,"Medalists":13363,"lia":13364,"later":13365,"doi":13366,"common":13367,"Ġnegotiations":13368,"Ġru":13369,"Ġseriously":13370,"ilia":13371,"ortex":13372,"Ġhonors":13373,"1866":13374,"Ġindices":13375,"ĠVas":13376,"ĠMaced":13377,"Ġcomics":13378,"VP":13379,"Ġcompensation":13380,"Mad":13381,"Ġrestaurants":13382,"Ġmanga":13383,"Ġbuff":13384,"Ġdisaster":13385,"ĠTrack":13386,"ĠYank":13387,"Ġtribe":13388,"itting":13389,"Ġpolynomials":13390,"Ġcivilian":13391,"FP":13392,"Ñı":13393,"Child":13394,"akespe":13395,"Ġessay":13396,"ĠNASA":13397,"Ġmarginal":13398,"elaide":13399,"Ġfled":13400,"Ġinfluences":13401,"have":13402,"aceae":13403,"Ġanalytic":13404,"mir":13405,"ĠHD":13406,"plus":13407,"ĠHudson":13408,"ĠMathemat":13409,"ĠĠĠĠĠĠĠĠĠĠĠĠĠĠĠĠĠĠĠĠĠĠĠĠĠĠĠ":13410,"ĠPub":13411,"ĠPic":13412,"Ġsilent":13413,"Ġevolved":13414,"ĠAnalysis":13415,"Ġvisits":13416,"Ġlogic":13417,"Web":13418,"Ġhonest":13419,"Flora":13420,"Ġadvis":13421,"France":13422,"Ġtruck":13423,"ĠTogether":13424,"ĠKle":13425,"ĠMasters":13426,"Ġemerging":13427,"Ġpermitted":13428,"Royal":13429,"ĠGrey":13430,"Ġmixture":13431,"alam":13432,"akespeare":13433,"Ġdomains":13434,"each":13435,"Ġtribes":13436,"ĠVenezuela":13437,"BD":13438,"ucc":13439,"Ġcorrespondence":13440,"Ġfestivals":13441,"ĠTake":13442,"&&\\":13443,"ĠIM":13444,"sters":13445,"Ġwal":13446,"Ġing":13447,"Sk":13448,"Ġlikelihood":13449,"ĠDelaware":13450,"Ġreact":13451,"ĠAgreement":13452,"Ġdeeply":13453,"rien":13454,"server":13455,"Ġcogn":13456,"insic":13457,"amer":13458,"changed":13459,"ĠHebrew":13460,"UM":13461,"arriors":13462,"Ġtopology":13463,"ĠKenya":13464,"igo":13465,"onda":13466,"Super":13467,"ĠClare":13468,"Ġneglig":13469,"izers":13470,"ĠCad":13471,"Ġsustainable":13472,"ĠSultan":13473,"Ġcampaigns":13474,"ĠBund":13475,"ĠTechnical":13476,"asia":13477,"Taxa":13478,"Ġscr":13479,"GeV":13480,"ĠBrew":13481,"Honours":13482,"itro":13483,"Ġenhanced":13484,">\\":13485,"Ġentities":13486,"Ġbinding":13487,"berry":13488,"ĠChand":13489,"start":13490,"ĠAI":13491,"ĠCosta":13492,"à¦":13493,"Ġmic":13494,"Ġqualify":13495,"ivic":13496,"ĠNevertheless":13497,"ĠHunt":13498,"Ġcorruption":13499,"ĠPrimary":13500,"anta":13501,"Ġtransitions":13502,"lington":13503,"reck":13504,"ĠGround":13505,"Ġplasma":13506,"gom":13507,"olves":13508,"ĠAnti":13509,"African":13510,"nol":13511,"Ġexploration":13512,"Ġreliable":13513,"ouncill":13514,"ellion":13515,"cz":13516,"Ġscholarship":13517,"ĠCraig":13518,"ĠSeg":13519,"asha":13520,"elected":13521,"ĠVermont":13522,"resses":13523,"$-$":13524,"áº":13525,"ĠLost":13526,"tag":13527,"Ġclothing":13528,"erion":13529,"Ġsquadron":13530,"Ġdip":13531,"Ġunity":13532,"Ġupcoming":13533,"ĠRank":13534,"Three":13535,"Ġsubstitute":13536,"izz":13537,"ĠClay":13538,"Ġgrants":13539,"Ġsolved":13540,"Ġengineers":13541,"Ġdiagrams":13542,"ĠYam":13543,"Ġcentered":13544,"ĠArchives":13545,"ĠLiga":13546,"Ġprojected":13547,"Ġengagement":13548,"ĠArtillery":13549,"athon":13550,"}\\|":13551,"ographers":13552,"speed":13553,"Ġmolecules":13554,".).":13555,"ethyl":13556,"gov":13557,"ĠOil":13558,"rets":13559,"Camp":13560,"Ġinitiated":13561,"isan":13562,"ĠSprings":13563,"Government":13564,"Ġenthus":13565,"Ġdeviation":13566,"Ġpremiere":13567,"Ġwedding":13568,"ĠBass":13569,"eway":13570,"cross":13571,"ĠKath":13572,"Ġcarries":13573,"Ġlap":13574,"ĠMerc":13575,"ĠIda":13576,"ĠTang":13577,"Ġfur":13578,"Ġendemic":13579,"three":13580,"ourag":13581,"imits":13582,"symmet":13583,"ĠDiamond":13584,"ĠThor":13585,"Ġrecipient":13586,"Ġcompleting":13587,"Del":13588,"ĠEditor":13589,"month":13590,"rooms":13591,"Ġdistinction":13592,"oj":13593,"Ġgift":13594,"._":13595,"PL":13596,"Sur":13597,"Sen":13598,"Ġcitizen":13599,"ĠRat":13600,"olen":13601,"Ġrealize":13602,"ĠLions":13603,"&=&\\":13604,"ĠRu":13605,"frame":13606,"ĠConserv":13607,"ĠUse":13608,"Ġarrangements":13609,"\\!\\":13610,"Ġjunction":13611,"Ġsecured":13612,"Bbb":13613,"mathtt":13614,"ici":13615,"Ġproportion":13616,"ichi":13617,"Ġdismissed":13618,"Ġinduction":13619,"ĠBog":13620,"quarter":13621,"Ġmanufacturer":13622,"ĠKeith":13623,"Ġmultiplic":13624,"mean":13625,"Ġrit":13626,"ĠRepublicans":13627,"ivodes":13628,"ĠDemocrat":13629,"!\\":13630,"']":13631,"ĠLuis":13632,"ĠHann":13633,"./":13634,"Ġdepression":13635,"Jewish":13636,"ĠSyrian":13637,"ĠÂ»":13638,"ordinary":13639,"([":13640,"Ġmaintaining":13641,"olition":13642,"Ġafterwards":13643,"ĠGay":13644,"rupted":13645,"Ġsetup":13646,"Ġtotally":13647,"ĠFu":13648,"Ġmuseums":13649,"Ġgenerator":13650,"Ġarise":13651,"Ġrub":13652,"Ġlingu":13653,"ĠTerry":13654,"ĠConstruction":13655,"ailing":13656,"Ġfirms":13657,"Ġneutrino":13658,"Ġpushed":13659,"bane":13660,"whe":13661,"icious":13662,"ĠEdwards":13663,"Ġdramatic":13664,"}{*":13665,"Ġtransit":13666,"ĉĉĉĉĉĉĉĉ":13667,"ĠAmsterdam":13668,"Ġoutcomes":13669,"Ġcrossed":13670,"oker":13671,"ĠRepresentative":13672,"Brazil":13673,"Ġ},":13674,"ĠCob":13675,"Academic":13676,"Ġboats":13677,"ĠAzerbaijan":13678,"Ma":13679,"upt":13680,"Ġextensively":13681,"ĠKun":13682,"iya":13683,"Ġministry":13684,"Ġresponses":13685,"uba":13686,"FO":13687,"grav":13688,"ipart":13689,"Ġinterference":13690,"ullivan":13691,"ipients":13692,"ĠCommerce":13693,"imer":13694,"Ġanalyze":13695,"Peter":13696,"ĠLate":13697,"ĠContemporary":13698,"$}}":13699,"Ġreceiver":13700,"Ġrobot":13701,"Discography":13702,"Ġconvenient":13703,"ĠUV":13704,"ĠPont":13705,"ART":13706,"Ġelevation":13707,"Ġassignment":13708,"Hung":13709,"uchy":13710,"Ġintervention":13711,"1869":13712,"Ġbrands":13713,"Ġcolspan":13714,"Ġorigins":13715,"isch":13716,"ĠUnlike":13717,"Ġdefending":13718,"White":13719,"fields":13720,"Ġemphasis":13721,"Ġimperial":13722,"ĠMunich":13723,"ĠTon":13724,"urst":13725,"mother":13726,"ulous":13727,"Israel":13728,"Ġsponsored":13729,"Ġhorizon":13730,"Ġplayoffs":13731,"Ġwrestling":13732,"ĠCampaign":13733,"Ġholiday":13734,"ĠMcL":13735,"Ġprest":13736,"ĠRing":13737,"ĠPhoto":13738,"ĠDenver":13739,"ĠSocialist":13740,"hum":13741,"Ġconsiders":13742,"Ġtemporal":13743,"Ġpercussion":13744,"Ġgrandfather":13745,"Ġweighted":13746,"mill":13747,"Ġplain":13748,"ĠDrive":13749,"ĠAlgorithm":13750,"ĠLev":13751,"feld":13752,"Ġcutting":13753,"ĠBot":13754,"urable":13755,"ĠPrinc":13756,"kar":13757,"backslash":13758,"|$":13759,"Ġcomparing":13760,"ĠAccount":13761,"Ġbreaks":13762,"Ġdoubles":13763,"Ġturbul":13764,"Ġshorter":13765,"Hand":13766,"ĠHous":13767,"ĠGrace":13768,"Ġtargeted":13769,"ĠMig":13770,"ĠLloyd":13771,"ĠLeader":13772,"Ġparad":13773,"Ġpulled":13774,"rals":13775,"Ġconfident":13776,"uckland":13777,"Ġreflection":13778,"RT":13779,"ivodeship":13780,"ente":13781,"escope":13782,"Ġdispersion":13783,"Ġadventure":13784,"Ġaug":13785,"Ġphrase":13786,"ĠFun":13787,"ĠGate":13788,"ĠAS":13789,"Ġdepartments":13790,"135":13791,"ĠShar":13792,"ĠPrice":13793,"ĠInteg":13794,"Ġslave":13795,"Ġcha":13796,"loss":13797,"ostic":13798,"ĠEagles":13799,"ĠPerry":13800,"Ã¦":13801,"exper":13802,"Ġadmit":13803,"ĠPle":13804,"ĠQuarter":13805,"Ġconsumers":13806,"insky":13807,"dou":13808,"Ġsurvival":13809,"Ġcommented":13810,"ĠBird":13811,"enti":13812,"ASS":13813,"Ġchoosing":13814,"cline":13815,"ĠTibet":13816,"Ġfeas":13817,"Ġportrait":13818,"Ġopens":13819,"ailability":13820,"Ġraw":13821,"Place":13822,"arked":13823,"{(\\":13824,"Ġsteady":13825,"Ġannouncement":13826,"Republic":13827,"ymmetry":13828,"Var":13829,"Mor":13830,"Ġlabeled":13831,"aja":13832,"etics":13833,"Ġconcerts":13834,"Ġneck":13835,"Ġcollaps":13836,"Ġsectors":13837,"site":13838,"Ġpatrol":13839,"Ġlaboratory":13840,"rah":13841,"Ġdemolished":13842,"ĠChap":13843,"ĠIceland":13844,"Ġimply":13845,"helm":13846,"Li":13847,"ĠStanford":13848,"good":13849,"Ġglob":13850,"ĠHamb":13851,"Ġsettlements":13852,"ĠMend":13853,"Ġdefinitely":13854,"Ġbeliefs":13855,"Ġrefugees":13856,"news":13857,"mag":13858,"Ġpriority":13859,"Ġghost":13860,"ologically":13861,"Ġextending":13862,"Ġpatent":13863,"parameter":13864,"Ġmartial":13865,"Ġcongreg":13866,"Ġauthorized":13867,"Ġdeals":13868,"design":13869,"eri":13870,"Frank":13871,"Ġ$^{":13872,"ĠCincinnati":13873,"rection":13874,"ĠCatherine":13875,"week":13876,"())":13877,"ĠMann":13878,"Ġembedded":13879,"Ġneur":13880,"Even":13881,"lican":13882,"ĠBlock":13883,"Ġyourself":13884,"ĠNHL":13885,"issa":13886,"Ġanime":13887,"irth":13888,"}/\\":13889,"Ġiteration":13890,"ĠLan":13891,"Ġpaying":13892,"downarrow":13893,"Ġtransc":13894,"Ġreactions":13895,"lag":13896,"Ġextracted":13897,"Ġoxygen":13898,"ĠTO":13899,"Ġtum":13900,"Ġquiet":13901,"Ġresonance":13902,"othic":13903,"Ġshifted":13904,"apters":13905,"Ġlieutenant":13906,"ĠVoivodeship":13907,"Path":13908,"ĠClin":13909,"Ġmanifest":13910,"Code":13911,"best":13912,"Ġchrom":13913,"Ġpayments":13914,"textup":13915,"ĠResults":13916,"quiry":13917,"Ġlocomotives":13918,"stage":13919,"Ġwarning":13920,"Jo":13921,"write":13922,"Ġthread":13923,"Ġperforms":13924,"Ġautomatic":13925,"DD":13926,"Ġfilt":13927,"Old":13928,"!--":13929,"omed":13930,"Ġcompatible":13931,"models":13932,"ĠChi":13933,"ĠJa":13934,"Ġpersu":13935,"Ġbridges":13936,"ĠLuke":13937,"holder":13938,"Ġdetermining":13939,"Ġmutual":13940,"Ġamazing":13941,"ĠCC":13942,"ĠDraft":13943,"uns":13944,"Ġmorphism":13945,"Gener":13946,"thlete":13947,"ĠWes":13948,"ĠSafety":13949,"Ġoverseas":13950,"ĠHispanic":13951,"Step":13952,"Ġhopes":13953,"Ġtox":13954,"ĠMarx":13955,"$^":13956,"Ġwick":13957,"Ġcertified":13958,"Christian":13959,"Ġshopping":13960,"invariant":13961,"ĠIC":13962,"Ġinternationally":13963,"Ġcopyright":13964,"Ġabundance":13965,"Ġframes":13966,"emies":13967,"File":13968,"ĠOttawa":13969,"Ġaffiliated":13970,"Ġreviewed":13971,"circle":13972,"ĠLebanon":13973,"Ġfeelings":13974,"Ġconvert":13975,"Ġintroducing":13976,"Ġratios":13977,"ĠPoll":13978,"Ġorthogonal":13979,"LM":13980,"ATION":13981,"Ġearning":13982,"fam":13983,"ĠLion":13984,"Ġmonument":13985,"Ġcolony":13986,"Ġguests":13987,"Ġchains":13988,")}.":13989,"ĠLis":13990,"Ġthreats":13991,"ĠGuardian":13992,"Ġfits":13993,"anni":13994,"HM":13995,"ĠLux":13996,"Ġtribut":13997,"Case":13998,"ĠDragon":13999,"ĠHugh":14000,"Ġventure":14001,"Ġmanufacturers":14002,"Ġmm":14003,"ĠConservation":14004,"Ġsoc":14005,"ĠEmploy":14006,"ĠBroadcasting":14007,"ĠPolitics":14008,"ĠPhilippine":14009,"ĠText":14010,"220":14011,"half":14012,"ucker":14013,"Ġbanned":14014,"ĠDat":14015,"auna":14016,"float":14017,"ĠPeninsula":14018,"Ġbiography":14019,"\\|_":14020,"Ġexamine":14021,"ĠCurt":14022,"folio":14023,"Ġsubmit":14024,"ums":14025,"ĠYu":14026,"Ġunemploy":14027,"Ġmonthly":14028,"ĠScientific":14029,"racle":14030,"Ġgathered":14031,"Ġguess":14032,"ĠLeft":14033,"music":14034,"ĠMurphy":14035,"oil":14036,"Ġborrow":14037,"ĠWalt":14038,"Ġabsolutely":14039,"ĠToy":14040,"Prov":14041,"bn":14042,"aukee":14043,"phase":14044,"Ġovert":14045,"Week":14046,"Ġatom":14047,"Ġchemistry":14048,"ĠByzant":14049,"Econom":14050,"ĠEmm":14051,"Ġmainstream":14052,"EF":14053,"agi":14054,"Ġrealistic":14055,"Bre":14056,"ĠPhysics":14057,"Ġremarkable":14058,"Defunct":14059,"ashes":14060,"ĠBright":14061,"1830":14062,"Ġafternoon":14063,"Ġgr":14064,"Swed":14065,"ĠPaper":14066,"Ġpeaks":14067,"rust":14068,"ĠHerz":14069,"Ġorganised":14070,"Ġtreaty":14071,"rape":14072,"iev":14073,"ĠBerg":14074,"Ly":14075,"ĠSudan":14076,"forced":14077,"Ġdrink":14078,"ĠBiden":14079,"ĠGonz":14080,"Ġtwin":14081,"Ġsuggesting":14082,"imony":14083,"propto":14084,"ĠUEFA":14085,"ĠAviation":14086,"Selected":14087,"Image":14088,"Ġveteran":14089,"bus":14090,"ĠPath":14091,"eor":14092,"ĠSyn":14093,"Node":14094,"Ġduo":14095,"Ġdisestablished":14096,"1848":14097,"coll":14098,"specific":14099,"drop":14100,"Ġtorn":14101,"valid":14102,")[":14103,"EA":14104,"izable":14105,"Ġbold":14106,"ĠNepal":14107,"ĠPS":14108,"Ġcargo":14109,"$\\\\":14110,"product":14111,"Ġbigger":14112,"imm":14113,"ĠShakespeare":14114,"distance":14115,"}$\\":14116,"Ġsubsidiary":14117,"riculum":14118,"ĠChapel":14119,"ativistic":14120,"ĠBert":14121,"mentation":14122,"Ġstrengthen":14123,"opyright":14124,"ĠAdelaide":14125,"1859":14126,"oning":14127,"Ġsimilarity":14128,"Ġremind":14129,"ride":14130,"ĠOscar":14131,"ĠDeut":14132,"Ġupgrad":14133,"Fore":14134,"Ġprovinces":14135,"ĠRoom":14136,"ordinate":14137,"iemann":14138,"Ġplastic":14139,"Ġintervals":14140,"{.":14141,"Ġwinds":14142,"atra":14143,"ĠSide":14144,"Ġstrings":14145,"})^{":14146,"Ġinnings":14147,"ĠHigher":14148,"ĠSingles":14149,"ĠIndex":14150,"Ġdwar":14151,"Ġproceedings":14152,"Ġproteins":14153,"istically":14154,"hole":14155,"ĠAlger":14156,"ĠPul":14157,"binom":14158,"Ġnoble":14159,"ĠJoint":14160,"close":14161,"ĠAltern":14162,"Ġtraveling":14163,"ĠDiocese":14164,"Ġtons":14165,"ĠFerr":14166,"Ġplaint":14167,"olars":14168,"Ġmerchant":14169,"footnotes":14170,"uparrow":14171,"ĠAthens":14172,"enos":14173,"ĠProvinc":14174,"Ġpeer":14175,"ĠMust":14176,"Ġreferring":14177,"alling":14178,"Ġmetrics":14179,"Ġinnovative":14180,"Ã¡s":14181,"ĠBuch":14182,"Ġbirthday":14183,"ĠCu":14184,"istance":14185,"ĠMachine":14186,"ĠSusan":14187,"ĠOpt":14188,"Ġbom":14189,"askat":14190,"Ġcaps":14191,"ĠCorollary":14192,"Ġrum":14193,"Ġvaries":14194,"ĠPalestinian":14195,"ĠVeter":14196,"ĠHerbert":14197,"doc":14198,"ĠCorp":14199,"Both":14200,"Tor":14201,"Ġtribute":14202,"Ġmines":14203,"urse":14204,"ifiers":14205,"into":14206,"legiate":14207,"Ġinfantry":14208,"Short":14209,"Ġtrajectory":14210,"ĠBuddhist":14211,"ĠDra":14212,"images":14213,"uto":14214,"Ġflights":14215,"Sil":14216,"build":14217,"Ġlimitations":14218,"ema":14219,"Ġsubspace":14220,"Ġmagic":14221,"ĠMagic":14222,"Like":14223,"grim":14224,"wt":14225,"Ġconsolid":14226,"Ġhaven":14227,"Sl":14228,"Where":14229,"oshi":14230,"ĠMix":14231,"ĠGas":14232,"Ġcapabilities":14233,"Musical":14234,"Gr":14235,"Ġattempting":14236,"Ġwelfare":14237,"ĠRou":14238,"haus":14239,"iji":14240,"ordered":14241,"1857":14242,"Ġanimation":14243,"ĠBeaut":14244,"Prot":14245,"uces":14246,"ĠYale":14247,"odore":14248,"Ġbroadcasting":14249,"ĠAbraham":14250,"ĠWel":14251,"Ġrandomly":14252,"ĠPav":14253,"Ġmos":14254,"ĠOverall":14255,"Recipients":14256,"Ġverify":14257,"ĠOcc":14258,"Athlet":14259,"Ġmoderate":14260,"fa":14261,"irs":14262,"arson":14263,"Ġgoverning":14264,"Radio":14265,"Ġdisplays":14266,"ĠNear":14267,"avery":14268,"Av":14269,"ĠAer":14270,"Chinese":14271,"Ġdecides":14272,"$\\,":14273,"weak":14274,"Ġexplored":14275,")(\\":14276,"acco":14277,"ĠWu":14278,"mina":14279,"MT":14280,"Scottish":14281,"nowledge":14282,"hn":14283,"*}[":14284,"Ġfrust":14285,"ĠLagrangian":14286,"footnotesize":14287,"Ġ\\[":14288,"Ġassisted":14289,"Ġsimplicity":14290,"tree":14291,"ding":14292,"Ġtrouble":14293,"ĠAber":14294,"waukee":14295,"Ġchapel":14296,"ĠGermans":14297,"Ġmurdered":14298,"Ġrequests":14299,"ĠAlong":14300,"Ġcompound":14301,"ĠRan":14302,"Ġpromise":14303,"Ġexhaust":14304,"}.}":14305,"Ġaqu":14306,"Ġtraded":14307,"ĠHolland":14308,"you":14309,"ĠPersian":14310,"Ġoverw":14311,"ĠShip":14312,"lang":14313,"py":14314,"Ġcamps":14315,"Professional":14316,"Ġtriangle":14317,"ĠPrivate":14318,"Ġliv":14319,"Ġrevised":14320,"Ġirreducible":14321,"rea":14322,"ĠHob":14323,"rus":14324,"Ġcelebrate":14325,"Ġsolely":14326,"['":14327,"leftarrow":14328,"Ġwealthy":14329,"dev":14330,"ĠTravel":14331,"Ġangles":14332,"pine":14333,"ĠNC":14334,"Ġboot":14335,"ĠEncyclopedia":14336,"estim":14337,"ĠCruz":14338,"Ġinstant":14339,"ĠKrist":14340,"=\\{":14341,"Ġadmits":14342,"tx":14343,"ĉĠ":14344,"Ġorganic":14345,"Ġobviously":14346,"ĠShaw":14347,"Ġsimulated":14348,"Ġvulnerable":14349,"Ġmounted":14350,"ĠSoutheast":14351,"âĢĻ.":14352,"Ġauthent":14353,"Ġelabor":14354,"Ġcoup":14355,"igm":14356,"ĠWatson":14357,"Ġregulatory":14358,"Ġfails":14359,"ĠPetersburg":14360,"HR":14361,"]^":14362,"stud":14363,"Ġopponent":14364,"make":14365,"Ġdemocratic":14366,"Ġkinetic":14367,"Book":14368,"Ġpersonally":14369,"gomery":14370,"Carl":14371,"Ġdelayed":14372,"omo":14373,"Ġrepeatedly":14374,"ĠCS":14375,"Ġmoth":14376,"Param":14377,"itted":14378,"rague":14379,"Ġerected":14380,"Ġproposals":14381,"Ġplots":14382,"approxim":14383,"Ġcontested":14384,"ĠFormula":14385,"Ġadds":14386,"ĠArmenian":14387,"Ġsalt":14388,"ĠBath":14389,"Ġexamination":14390,"ensen":14391,"ĠCroatia":14392,"ĠCrow":14393,"ĠLaboratory":14394,"Ġepid":14395,"Ġà¤":14396,"Ġhandling":14397,"Ġcooling":14398,"ĠAgriculture":14399,"ĠInv":14400,"ĠGlen":14401,"eling":14402,"multline":14403,"ĠTab":14404,"Ġcorrelations":14405,"ĠNan":14406,"placement":14407,"Ġtransformations":14408,"Ġquas":14409,"Ġbaseline":14410,"rington":14411,
[...]
