#version: 0.2
Ġ Ġ
Ġ t
i n
h e
Ġ a
o n
r e
a t
Ġt he
e r
ĠĠ ĠĠ
e n
Ġ s
o r
a l
i t
Ġ o
i s
i on
Ġ c
e s
Ġ \
a r
a n
Ġ w
Ġ f
l e
Ġ $
Ġ p
e d
Ġo f
Ġ in
Ġa n
Ġ b
i c
in g
r o
Ġ d
c t
Ġ m
a s
e t
Ġan d
e l
Ġt o
i g
en t
Ġt h
{ \
o u
at ion
r a
s t
i m
o m
Ġ re
Ġ e
ĠĠ Ġ
i l
Ġ n
o t
Ġ h
a m
Ġ is
ĠĠĠĠ ĠĠĠĠ
o l
i d
Ġ (
c e
_ {
Ġ l
v e
s e
u t
Ġ T
q u
Ġf or
u l
u n
Ġ g
a b
Ġ$ \
u r
o w
c h
m at
e g
v er
l y
Ġth at
Ġ S
u m
č Ċ
o d
mat h
Ġ on
it h
i f
Ġc on
en d
Ġb e
Ġs t
Ġ A
u s
â Ģ
e m
Ġ C
ct ion
Ġ &
Ġ I
Ġ =
} \
h t
a d
t a
g e
Ġa s
} $
^ {
Ġw e
r i
p h
Ġw ith
e x
Ġp ro
u re
Ġ Ċ
i r
Ġ v
p e
m a
Ġa l
2 0
t er
re f
at e
t h
ig ht
a y
is t
Ġ M
p t
ĠĠĠĠ ĠĠĠ
Ġe x
it y
p p
i v
o s
ĠT he
} }
c al
Ġb y
re s
Ġa re
t he
it e
( \
u b
Ġ F
Ġ P
an d
in e
eg in
a c
Ġw h
Ġc om
o re
es t
Ġ B
p er
Ġd e
b egin
Ġ it
ĉ ĉ
ex t
es s
i al
ar t
p l
ra c
Ġ H
_ {\
ro m
) $
d e
Ġa t
f t
Ġ R
i es
Ġ L
Ġ or
Ġ W
as s
} {
er s
o c
p s
i z
Ġ D
m ent
Ġ <
an t
i ve
Ġth is
n t
e w
Ġs e
r ight
- -
r an
} ,
f rac
Ġf rom
ul t
Ġ N
e q
il l
in t
Ġ E
} )
e ct
= "
Ġ {
t ext
T he
e qu
a g
Ġ he
or t
p le
) ;
c ite
r m
c l
Ġ G
a ve
l d
ic al
u e
Ġs h
âĢ Ļ
Ġc l
or m
Ġn ot
it ion
ab el
ou r
Ġs u
Ġ y
o g
ic h
< /
Ġ un
math b
e re
n d
Ġre s
k e
en s
Ġc an
ig n
, \
am e
f f
el l
u d
p a
ab le
al l
Ġ le
l abel
at ed
0 0
u p
ation s
c on
$ ,
t o
Ġ -
Ġc h
$ .
20 1
ĠĠĠĠĠĠĠĠ ĠĠĠ
et a
. .
Ġh ave
Ġ r
d er
Ġw as
equ ation
math cal
b er
f ig
} .
Ġ us
/ /
d u
le ft
ar y
d s
as e
Ġwh ich
Ġ O
} (
Ġw he
a ge
im e
en er
c c
l ow
u st
Ġ im
} ^
~ \
Ġ *
p ro
} _
o p
Ġ }
Ġ +
he r
Ġm a
1 9
re d
) .
ĠI n
i b
Ġm od
c om
ac k
d a
Ġ U
a v
ion s
o st
en ce
or k
ph a
as t
Ġ if
ĠĠĠĠĠĠĠĠ ĠĠĠĠĠĠĠĠ
al pha
f orm
Ġ J
a ct
) ,
Ġa b
l ine
id e
Ġh as
r u
the r
on g
s um
Ġ k
Ġo b
Ġ âĢ
Ġ "
am b
) \
a re
an g
Ġal l
ou t
ou ld
1 0
ro w
" >
an ce
i le
ar d
I n
$ \
in d
a ch
un ction
o ver
ĠĠĠĠ Ġ
amb da
pe ct
ou s
el ta
u se
Ġcom p
a p
ran s
s o
ri b
el y
at a
Ġcl ass
l i
Ġm e
am ma
_ \
Ġa d
ic e
Ġa pp
ĠT h
p ort
er m
im es
ta in
ur n
a k
ig ma
Ġ j
Ġon e
ent s
Ġ qu
Ġin t
Ġ\ \
Ġn e
Ġp art
Ġcon t
if f
Ġp l
mathb b
Ġd is
pt ion
ou nd
m u
j ect
d ot
= \
s er
} _{
} ^{
ar i
s ub
o se
r y
i re
ra y
i p
Ġw ill
od e
r ic
m b
u g
\ \
o f
or s
- \
at es
Ġ K
w o
f in
ph i
l ic
ul ar
ut ion
Ġv al
Ġs y
g et
s et
w e
h o
or y
pa ce
Ġp er
un d
^ {\
eg a
re e
Ġf unction
Ġs et
Ġe v
Ġ V
res s
s c
a in
ow n
Ġ {\
Ġ [
h at
p on
ic s
al ly
om e
y pe
l ambda
p i
Ġal so
o int
Ġa r
iz e
Ġmod el
r ing
' s
i an
i el
âĢ Ŀ
b f
* *
l o
Ġd o
or d
Ġo ut
w id
ar am
Ġd iff
s igma
c a
ĠS t
ra ph
20 0
i a
mathb f
um ber
ir st
c ent
ol low
Ġo ur
se ction
Ġt wo
en c
il on
ps ilon
v el
ĠW e
Ġres ult
ar k
p art
e ar
o k
Ġb ut
Ġin ter
Ġm ore
Ġo ther
t urn
Ġsu ch
S t
on e
p os
Ġt ime
= =
a pp
1 2
Ġthe ir
ou nt
c re
Ġcon st
Ġf ollow
Ġs ub
Ġy ou
ver s
^{ -
Ġ( \
Ġs im
le d
o ve
al ign
i e
s p
cl ud
d ition
} {\
et h
st em
ra m
Ġfor m
Ġe qu
Ġwhe re
Ġs p
Ġit s
b eta
il de
Ġ '
Ġthe re
Ġc or
ver y
le m
le ct
Ġo ver
Ġn ew
( )
o v
b ar
Ġb et
Ġs o
p ut
y s
c k
Ġg ener
Ġan y
-- --
Ġcon s
at ure
math rm
i x
* }
Ġon ly
g amma
Ġt rans
ĠâĢ ľ
Ġre l
+ \
n e
the ta
at ive
Ġth an
a ce
Ġd ist
Ġw ork
res ent
l l
W e
o x
Ġ ro
Ġthe y
Ġdiff ere
v i
Ġa cc
e p
Ġd ata
Ġ en
at or
Ġre g
ĠTh is
Ġm an
r ho
ĠĠĠĠĠĠĠĠ ĠĠĠĠĠĠĠ
if ic
u al
Ġp os
Ġbe en
Ġs c
il ity
] {
t e
fig ure
Ġm at
Ġd es
ar ray
^ \
oc k
c es
Ġf irst
d elta
Ġsh ow
le q
Ġthe n
Ġp re
Ġl o
wid th
Ġh is
Ġwe re
it em
Ġa g
) }
pe c
c ess
i ent
Ġ up
c dot
$ -
Ġc ol
ta u
ru ct
}$ ,
Ġ x
iel d
at h
Ġe ach
r it
Ġp h
Ġwhe n
he re
s s
}$ .
Ġg iv
Ġ i
Ġn o
ub lic
we en
Ġs ome
ot h
| \
1 1
l es
Ġthe se
Ġpro b
Ġc o
Ġc ase
is e
Ġt ra
our ce
el f
v al
Ġs ol
ic t
C on
n ot
} (\
c ed
u es
at ing
ig h
ib le
ul l
it ies
v ed
Ġe ff
eq ref
o b
aram et
t imes
Ġbet ween
in ce
v ar
b ig
he d
Ġun der
n u
p end
ra d
in k
Ġre turn
eth od
Ġ Y
Ġl ine
e f
is s
f or
ment s
Ġf in
part ial
Ġin to
Ġsy stem
ĠI t
Ġcom m
Ġg o
Ġp oint
as ed
p r
ĉĉ ĉĉ
Ġ use
it s
y n
ation al
d ing
Ġab out
am ple
Ġwh o
c ol
ft y
i ed
id ent
ĠC h
n ce
ar row
in fty
ĠS e
t ilde
om ega
Ġl i
Ġapp ro
per t
an s
m in
Ġdiffere nt
m all
T h
r t
is h
ay s
1 5
ar g
Ġ //
Ġn on
d iv
Ġw ould
eq n
- >
Ġp ol
Ġn umber
iz ation
a w
n ing
t t
a x
Ġex t
D elta
Ġv ari
Ġpro v
ro und
.. /
1 8
Ġ< /
ol og
1 6
Ġg et
Ġin v
Ġ |
n g
f ter
Ġus ed
iz ed
id er
s pace
Ġ /
m m
ver t
Ġs er
Ġm ay
s im
ou g
ug h
ĠF or
ro up
qu ad
r on
Ġk n
Ġst ud
Ġval ue
: :
se c
t ing
Ġc ur
Ġus ing
1 3
Ġde fin
Ġy ear
Ġp e
ol d
er r
ter n
Ġ .
Ġpart ic
\ ,
Ġgiv en
p ar
ore m
Ġe m
ction s
) )
ran g
en g
s h
Ġd et
Ġ$ (
ow er
ol ds
us s
x i
} }\
Ġt erm
)$ .
Ġs ame
m l
Ġf act
l a
Ġ est
Ġ :
} [
p m
g y
Ġof f
ical ly
Ġre qu
Ġt e
Ġde f
Ġf e
ct or
Ġc al
Ġ u
Ġh ad
Ġp a
Ġin st
is m
1 4
Ġs a
ot e
Ġp aramet
ri v
r al
il d
$ $
e psilon
. ,
e ver
Ġst ate
ĠU n
s q
Ġre p
as es
Ġ @
Ġs ign
a il
Ġ X
Ġa ct
ar ge
Ġm ost
ri x
Ġm ethod
Ġob ser
w here
Ġcom ple
ic k
ar ch
Ġob tain
Ġ z
i o
x im
ro ugh
ot s
' ,
2 5
iv ely
rib ut
Ġor der
Ġw ell
cent er
n ame
} _{\
re nt
Ġp ublic
as ure
Ġsu pp
ps i
ir c
P ro
O m
Ġt r
eqn array
Ġthe m
Ġa m
e c
Ġresult s
E x
u de
Ġse e
Ġo per
Ġpro du
de f
Ġb ound
Ġh ow
form ation
ra ct
res pon
ent ial
Ġfollow ing
" ,
Ġ ent
on s
l og
F or
ab ility
Om ega
ĠF ig
Ġeff ect
ang le
^ *
Ġ `
l u
ist s
ri pt
ess age
Ġdis c
t r
G amma
ic es
Ġb oth
)$ ,
an n
sq rt
Ġ Q
ca use
al s
Ġs pec
ar s
Ġw or
( "
Ġan al
_ _
> </
text bf
t ab
u ch
ing s
Ġst at
Ġd ire
ens ion
con d
mb ol
Ġre f
sp an
o id
ener gy
Ġex p
1 7
( );
Ġb l
il y
o ol
re at
c he
ĠP ro
m er
t on
in clud
m od
l ation
y p
sub section
Ġm ass
v are
Ġas s
Ġne ed
Ġm in
oug h
n er
o ple
Ġ end
> <
ĠH e
Ġin d
vare psilon
raph ics
Ġs ur
ĠĠ Ċ
h i
Ġth rough
it ed
w ork
Ġh igh
in s
Ġp r
Ġde c
ult i
Ġ$ {\
ere d
Ġs mall
19 9
E R
ĠA s
ĉĉ ĉ
al ity
Ġf ield
ith m
^{ (
} =
rib ution
Ġme asure
Ġt ype
}^ {\
right arrow
ĠC om
ut h
Ġres pect
Ġper form
Ġre c
c m
ca ption
in es
Ġ čĊ
3 0
eg raphics
Ġcon dition
includ egraphics
rang le
Ġ\ ,
Ġst r
Ġdes c
f o
) =
Ġsa id
enc y
t ed
o y
et ric
in ed
Ġb ack
ĠĠĠĠĠĠĠĠ Ġ
Ġprob lem
b m
he n
ruct ure
Ġas sum
oc i
Ġa fter
Ġwh at
an ge
e v
Ġhe r
Ġe very
Ġo pt
Ġn ame
f ra
f ul
ur ing
../ ../
Ġpro cess
Ġ ed
Ġli ke
a ke
Ġex pl
um n
---- ----
Ġs pace
ht ml
2 1
Ġcor respon
ul ation
Ġe le
Ġpe ople
Ġ --
il ar
in ing
Ġ energy
ag es
ra w
ens ure
Th is
o ok
g or
Ġcomp ut
ĠC on
y mbol
. ~\
as h
Ġ right
Ġl at
eng th
var phi
er t
k s
Ġbe cause
Ġj ust
5 0
em ph
em ent
n on
Ġn ow
Ġcons ider
== ==
Ġin clud
Ġs he
n et
Ġs cal
Ġsh ould
re ad
ge q
gor ithm
i vers
ĠD e
m e
Ġ ke
S T
n ew
Ġ very
um er
Ġrep resent
Ġb el
ro ss
Ġdo es
o le
Ġc ould
Ġest im
. }
Ġex per
Ġt est
t rans
Ġl im
I t
Ġh ref
th is
Ġd en
Ġp resent
ĠĠĠĠĠĠĠĠ ĠĠĠĠĠĠĠĠĠĠĠ
00 0
: //
over line
O N
ad e
Ġle ad
Ġman y
t en
y le
Ġwh ile
** **
er n
2 4
Ġth ree
ĠA l
Ġs ing
ff ic
I N
Ġval ues
pro of
Ġ Z
& \
Ġlo cal
Ġc ent
}, \
v ice
ch i
A s
if ied
ol ution
pos ition
Ġ* /
Ġa c
i ew
Ġpos s
le ar
Ġ >
Ġ err
e ad
Ġin cre
it ive
b l
Ġgener al
p re
d d
Ġev en
vi ew
Ġat t
Ġf ind
) ^
is ion
}) .
2 2
b olds
Ġl arge
h line
B ig
Ġf ound
at eg
Ġl ong
bolds ymbol
et work
Ġ el
v es
Ġs ince
ce pt
Ġb u
if y
v ent
s u
Ġf il
' '
w ard
Ġs pect
Ġint eg
Ġ ve
[ \
Ġch ar
Ġd i
C om
Ġcont in
Ġre al
l im
} }$
Ġpro pert
Ġs elf
ens ity
orm al
ou n
fra k
ĠI f
Ġth ose
n ess
ve c
Ġad d
} ;
l angle
Ġcor re
. âĢĿ
um ent
i qu
Ġab ove
Ġkn ow
vel op
et s
Ġyear s
s ource
b e
ur al
ow ever
Ġc ount
t s
im ension
Ġin formation
al se
pl it
Ġ ident
Ġs at
Ġc a
Ġim port
Ġqu ant
c o
ac he
.. .
Ġ rad
( '
Ġde pend
Ġob ject
L ambda
Ġw ay
ref ore
ld ots
Ġm y
an y
Ġse cond
u le
g er
in al
re n
k ing
de pend
Ġt ak
iss ion
A T
T o
Ġsupp ort
i er
math frak
ant s
ĠâĢ ĵ
vi ous
Ġ ran
2 3
t able
Ġbe ing
Ġc re
L et
R E
ĠN ew
Ġst ructure
olog y
ro du
Ġfollow s
Ġsh own
re qu
se e
Ġ #
c ur
N ame
Ġcon tain
Ġm em
Ġex pect
t d
Ġst art
it ial
l ess
ro l
Ġg roup
cite p
Ġdefin ed
Ġag ain
ĠR e
Ġmodel s
Ġ= >
f ace
r ation
Ġt em
ch n
p en
s on
Ġm ag
m essage
Ġse ction
mb ox
n ab
m an
u c
Ġ ,
P hi
f ore
c or
C h
Ġin f
n o
I d
m ed
ensure math
am es
Ġle t
w h
ect ed
Ġprov id
cl ude
t al
b y
Ġ _
Ġm on
at her
Ġ )
app a
d is
Ġex ample
i red
Ġdesc rib
le t
am pl
A R
4 0
st r
cl ass
text it
im port
c ul
Ġpartic ular
p d
er o
Ġma ke
Ġcom pa
ere st
nab la
Ġma in
w w
T ype
Ġy our
yn am
el s
oc ation
Ġh and
Ġn etwork
1 00
b ack
Ġsim ilar
s f
Ġto p
g ram
o per
Ġp res
ar get
s k
is f
c ode
ot her
Ġdist ribution
a u
i j
Ġcur rent
Ġal low
k appa
a ction
} )$
w ith
St ring
Ġterm s
R es
e ps
Ġdet erm
ot imes
. \
or ph
Ġhe re
Ġe lect
S S
Ġfe ature
sc ript
od y
Ġp ers
3 2
Ġle ar
com m
\ |
sub set
as k
Ġm ulti
Ġb ased
b ox
a ult
an e
as on
it le
ere nce
s l
b ra
Ġre ad
ht t
g g
is hed
Ġpl ay
Ġle vel
e ction
Ġdisc uss
\ !
) :
i or
c i
mer ic
ĠĠĠĠĠĠĠĠĠĠĠĠĠĠĠĠ ĠĠĠĠĠĠĠĠĠĠĠĠĠĠĠĠ
\ %
c irc
Ġst and
ĠĠĠĠ ĠĠ
Ġtr ue
I D
ro p
Ġs ize
r um
b it
Ġal gorithm
Ġs um
w n
pl ay
ys is
u ally
Ġde velop
ut e
}) ,
iel ds
lo b
i k
os s
en se
at ors
r id
non umber
over n
Ġm ust
Ġm uch
20 20
tab ular
Ġre m
b ers
.. ..
t ype
Ġor g
act er
ific ation
Ġf am
pl ic
Ġre du
et ry
on d
an c
Ġdire ct
al th
Ġad dition
ot ential
Ġa p
Ġp ower
if e
# #
}} {
Ġ ra
Ġparamet ers
Ġa v
e e
ĠA n
dot s
Ġbe fore
con t
con st
re m
le ction
red ict
or g
Ġb as
iv es
er y
Ġsat isf
Ġl ast
Ġsu per
} +
201 8
Ġint erest
re turn
Ġre st
6 0
Ġpa per
ĠThe n
Ġd om
ĠE x
Ġl ow
ce ption
Ġshow s
R e
at ch
b le
S igma
O R
\ [
Ġd er
âĢ ľ
ist ic
iv al
Ġ` `
Ġd ue
ar ds
Ġmat rix
, âĢĿ
p aram
Ġm ade
201 9
Ġwor ld
Ġbe com
Ġch o
Ġm ed
Ġbe h
B y
/ >
Ġcomp on
ivers ity
201 7
\ {
Ġd ensity
cc ess
and om
Ġ q
Ġhe l
if t
to p
ĠA meric
Ġobtain ed
2 7
Ġc he
g es
V al
ix ed
Ġd uring
l and
Ġar t
Ġe ar
Ġstud y
8 0
Ġv is
re g
Ġwith in
Ġobser v
c it
y m
Ġme an
wid et
ma x
iv ed
Ġst ates
il s
center ing
ress ion
at ely
Ġsing le
ĠH owever
Ġres pon
ch ool
in ation
Ġr un
Ġ et
L E
Ġposs ible
} -
Ġin itial
Ġcomm un
/ \
3 3
Ġd id
F ig
Ġg u
pos ed
) (
Ġsol ution
Ġor ig
vers ion
r r
ĠA nd
Ġh im
Ġlim it
depend ent
Ġh ig
Ġp ar
Ġt ake
Ġcon f
Ġfunction s
Ġ( $
iv ity
Ġequ ation
{ -
im al
Ġar g
widet ilde
Ġap pe
Ġexper im
Ġg raph
Ġre port
v en
d ay
Ġte chn
pr ime
Ġex ist
i od
on al
s elf
Ġl arg
ad d
Ġp otential
" />
201 6
Ġl aw
4 5
ric t
Ġ !
ot t
w ide
ĠL et
ord ing
Ġn ull
Ġle ft
y stem
i i
ure s
c ap
Ġst ill
ac es
Ġappro xim
c er
Ġpoint s
A L
s i
Ġin du
Ġp redict
Ġcorrespon ding
Ġw rit
Ġd eg
o od
Ġgo od
2 6
l ass
Ġparamet er
riv ate
Ġline ar
2 8
mat rix
Ġstr ong
o pt
ur ther
Ġ vert
Ġl ist
re ak
qu ence
st yle
' )
Ġthe ory
trans lation
Ġconst ant
col or
o h
Ġf lu
at er
ter s
or der
Ġwith out
Ġfin al
ri es
a ir
Ġint rodu
re am
Ġimport ant
S E
Ġcontin u
L ist
ĠE q
m it
ver se
ab les
t ime
am p
Ġf l
Ġd eta
Ġg ra
od es
7 5
Ġappro ach
ĠT o
Ġanal ysis
d raw
Ġchar acter
Ġinclud ing
ĠThe orem
w ay
Ġa round
Ġin s
Ġass oci
s cal
at t
Ġre ma
z eta
Ġcal cul
uth or
Ġcomple x
9 0
at ic
ex p
Ġerr or
Ġinv est
Ġpro f
Ġd em
Ġreg ion
A N
Ġc ou
201 5
ĠĠĠĠĠĠĠĠ ĠĠĠĠĠ
Ġt yp
) =\
lob al
h ip
\ ]
Ġf our
3 5
E N
Ġo pen
Ġrespect ively
Ġma p
is on
m ult
Ġto tal
or ies
r ite
ur b
ampl es
pl oy
} ]
Ġst ring
ent ion
Ġf alse
re l
ĠR es
Ġr ate
a h
Ġo cc
} =\
Ġv ar
g round
per ature
Ġd at
p or
Ġlo ok
Ġg reat
Ġ= =
Ġp op
an ces
Ġcl os
Ġpre vious
cl us
is ed
in ter
em ma
ol l
Ġm om
d ata
our ces
Ġ& =
6 4
Ġph ase
Ġpro gram
in ess
ut ions
~ ~
Ġd own
th m
I f
Ġpro of
Ġhel p
Ġpos ition
ar m
i ence
ent al
) ^{
Ġl it
val ue
es c
Ġapp lic
0 5
) }\
s ize
Ġp at
al ax
Ġma xim
ou se
' t
en e
se arch
Ġsign ific
O b
Ġcom b
"> <
oc us
n ode
2 9
Ġre le
$ )
de fin
ial ly
Ġkn own
Ġs ay
v ir
; \
l er
Ġth ink
Ġc all
Ġa ver
ĠSe ction
e y
Ġn ext
Ġprodu ct
Ġb est
it her
Ġch ange
D E
{ (
iqu e
Ġv oid
Ġm ark
a z
om orph
Ġc ar
cdot s
Ġp ass
Ġt ri
Ġv iew
i ents
et y
Ġin put
Ġa ction
st and
19 8
Ġpro ject
A l
Ġve ctor
Ġb ro
Ġc rit
id ual
f unction
Ġp ath
Ġc our
Ġ ide
Ġo wn
Ġw ant
du ct
pp er
Ġran ge
Ġsy mm
A C
Ġf ram
] ,
A r
Ġg overn
Ġel se
Ġpa ir
ĠB ut
Ġr andom
ĠS h
v ing
Ġal ong
i ous
ri ption
201 4
} |
Ġfin ite
st ring
Ġdes ign
Ġind ic
I nt
. ~
Ġcont rol
Ġ& &
}_ \
ic le
}^ \
0 1
fo ot
Ġcal led
Ġph ot
Ġsystem s
ur ation
Ġa ff
A n
\\ \\
Ġc ases
Ġph ys
Ġcondition s
ĠĠĠĠ Ċ
Ġh ist
Ġa ut
ffic ient
Ġperform ance
Ġpro t
Ġ\ {
9 9
Ġt arget
b r
wide hat
Ġd ynam
em ber
) ]
it al
Ġim pro
Ġim age
text width
}} (
Ġper iod
7 0
ĠA d
l ight
or n
o ot
lem ma
ĠUn iversity
on t
w ays
om en
Ġch ang
Ġl ess
u ps
Ġn ode
Ġne ar
le ment
Ġp ur
Ġmethod s
D e
ru ction
{ {\
Ġch ild
Ġt imes
un der
ver al
ill ion
Ġke y
ile d
Ġe as
Ġhig her
ser t
he ad
Ġl ower
ol umn
I C
Ġs ource
Ġtem perature
enc es
Ġs pe
Ġh y
}) \
P si
Ġle ast
s ing
Ġsignific ant
ail able
I T
Ġev ent
, -
q quad
Ġf urther
Ġw id
em pt
Ġc lear
g o
Ġdef ine
us iness
Ġconst ra
u ation
" );
3 4
Ġre cent
Ġext end
Ġf ull
Ġl og
imension al
n b
net ic
201 3
s mall
Ġre ce
Ġqu est
av ing
in ary
he s
Ġs om
wh ich
ke y
}\ ,
ĠO n
er ing
Ġdi ag
& =
as ing
Ġm ot
o pe
Ġg alax
Ġpos itive
ĠA r
b u
ge bra
math sf
ĠFig ure
Ġpropert ies
Ġn eg
Ġ id
v ices
c os
av a
ple ment
a im
Ġm ov
I I
S et
A M
}^{ (
A S
ĠB y
op y
Ġd on
Ġpl an
D ata
Ġz ero
m ber
Ġf ew
Ġstand ard
j or
Ġf ree
Ġl ay
um an
er ial
Ġprob ability
Ġtra ining
ro ll
Ġs ample
Ġagain st
^ +
Ġl ight
Ġl ength
Ġprov ide
Ġwe ight
olog ical
Ġn ormal
app ro
Ġobser ved
Ġcons id
Ġc ap
Ġcl ust
vir on
Ġp ost
Ġan other
Ġab s
m ary
pd f
ic y
lect ed
Ġbu il
x space
Ġex ists
Ġse veral
p oint
b s
Ġrequ ire
Ġfact or
oper ator
Ġmom ent
U n
c up
C O
Ġth us
-------- --------
Ġg row
Ġmin im
Ġbeh av
Ġs it
Val ue
m o
}\ \
m s
w ise
// //
ul ations
Ġf requ
Ġme ans
Ġ$ (\
( $
ut ure
Ġbet ter
o ff
ĠW h
id d
Ġb o
201 2
Ġan g
. "
3 6
Ġcons ist
Ġp rivate
cit et
ul es
ro id
Ġsc he
ly ing
Ġfam ily
O n
Ġpro posed
Ġquant um
Ġ %
Ġm et
al e
ĠThe y
Ġdefin ition
pro p
or th
ch ie
**** ****
ma p
sk ip
cal l
ib ility
M od
Ġg e
Ġc irc
4 8
Ġ enc
ĠL emma
an k
âĢ Ķ
Ġis s
Ġele ment
h space
Ġ& \
Ġev al
Ġequ ival
Ġpl ace
Ġc ross
Ġo pp
a pe
ord in
er tain
ĠĠĠĠĠĠĠĠĠĠĠĠĠĠĠĠ ĠĠĠĠĠĠĠ
e k
ab ly
) );
Ġrad i
ĠP h
Ġt urn
Ġh al
ind ent
Ġad v
Ġcomp ar
Ġassum e
Ġl ife
Ġbel ow
l ish
in c
Ġexpect ed
ĠI nd
are nt
ĠThe se
Ġrel ations
oc ument
oc ial
equ iv
Ġacc ount
rac k
Ġl ines
Ġc ost
Ġassoci ated
read y
9 5
Ġse par
( {\
Ġin dependent
nb sp
k es
scal e
âĢ ĵ
ĉ Ċ
ro ups
Ġf it
201 1
ra ction
ribut ions
Ġav ailable
b ased
Ġpropert y
ĠThe re
t il
3 1
u ro
and s
Ġinv ol
con om
Ġim pl
Ġcon n
u pp
Ġf ixed
in a
Ġl oss
r ary
Ġorg an
==== ====
Ġd el
Ġbl ock
Ġaver age
re en
Ġh om
s w
ĠC ol
Ġstat ic
C T
} :
un c
} +\
Ġoper ator
us h
d t
ĠY ou
Ġal ways
a f
ion al
ang u
foot not
Ġle g
Ġconsid ered
ari ant
n al
Ġlear ning
Ġin div
Ġv ol
A P
] $
Ġe ither
}} {\
t est
3 8
Ġb ook
Ġsu ccess
] .
Ġscal e
l ished
Ġg ive
id ence
ĠS ince
Ġsim ple
Ġse en
Ġf ocus
Ġanal y
Ġsp in
Ġa chie
ig en
a red
Ġdat as
| ^
r c
] ;
f ield
Ġex act
is ing
s in
' $
ĠA t
ir d
m id
ĠâĢ ĺ
ĠS o
el oc
Ġt ext
e V
Ġcon text
p x
Ġdescrib ed
ĠB e
} -\
Ġse quence
Ġche ck
ĠL e
n eq
0 4
) -
Ġn umer
operator name
g roup
ĠâĢ Ķ
as ter
201 0
6 5
Ġt itle
Ġs em
Ġg r
t y
m ost
S h
in ally
3 7
B u
th ough
ver g
oh n
ra p
Ġtrans ition
Ġequ ations
ĠUn ited
Ġm ight
i um
p ose
l ay
t le
Ġfeature s
ind ow
em s
ri or
st e
Ġden ote
Ġr at
Ġs k
Ġn at
Ġf low
Ġ/ **
Ġs chool
Ġst ep
E D
pp ing
l ocation
C ol
Ġin clude
viron ment
pa ct
ind ex
Ġdist ance
Ġindiv idual
Ġgovern ment
Ġele ments
I S
Ġgo ing
st it
Ġv eloc
res ult
Ġst ar
ore d
n ow
umer ate
s y
Ġcon fig
d ate
the orem
Ġre search
âĢ ¦
Ġ- \
mult ic
Con t
Ġser ies
un e
ann el
Ġre ason
3 9
Ġsh ort
Ġbound ary
ĠTh us
0 8
Ġc are
Ġsur face
Ġal ready
Ġind ex
ott om
ul a
Ġd ay
ta ck
Ġc y
ĠA pp
ĠM ore
Ġconst ruct
ribut e
] [
rr or
T est
Ġne cess
f rom
Ġb i
) }{
Ġim plement
Ġp ract
Ġf ields
er g
p ath
multic olumn
pl ace
5 5
no indent
l ing
Ġwhe ther
w are
Ob ject
os p
Ġrequ ired
W ith
che s
ch an
en umerate
Ġlarg er
Ġem ploy
ur s
ou th
tern al
Ġs ide
Ġsu gg
al k
Ġsugg est
Ġhe ad
Ġset ting
S er
Ex ception
f ile
ĠS he
ens or
0 2
item ize
il es
Ġconstra int
Ġm etric
Ġrel ated
Ġd iv
Ġhe alth
ĠA ll
it or
ent ly
Ġh app
ra g
Ġc ode
Ġli k
st ar
htt p
0 6
us ic
l ink
pa ge
id es
ĠCom m
Ġe mb
ress ed
ed ge
iv en
4 4
Ġb usiness
] \
le y
d ag
og raph
Ġinst ance
ĠAmeric an
}} _
Ġlat er
v space
htt ps
Ġopt im
qu ot
Ġcol l
is ter
Ġb reak
Ġc ertain
a ut
Ġg lobal
Ġ: =
Ġbl ack
lo ad
Ġout put
ĠF e
or ld
b ody
Ġus er
) {
w ards
Ġ\ |
Ġgiv es
om ial
Ġare a
sc r
Ġacc ess
Ġelect ron
li ed
iz ing
Ġc ell
l ist
0 7
s ide
ĠU S
Ġimpl ies
Ġspec ial
Ġ// /
200 9
Ġdom ain
p ly
L L
Ġnot e
Ġden ot
Ġf uture
Ġinvest ig
s plit
Ġa uthor
Ġthe refore
il ities
at ter
uss ian
r ist
Ġed ge
o ber
Ġan n
Ġbel ie
Ġma jor
) }$
( -
Ġc over
Ġv ia
Ġunder stand
R O
Ġ _{
ag er
pert y
Ġeffect ive
Ġcomm on
$ }
Ġ| |
Ġab le
Ġsh all
ĠN o
Ġto o
Ġte am
d imensional
ĠSt ring
f er
Ġco e
ww w
rac y
st ate
Ġsol utions
ew ork
p ol
ser v
um e
Ġm ove
ĠC ent
Ġcl aim
I nd
\ }
0 3
ou ble
Ġcan not
r im
igh b
H e
an el
th at
Ġl ink
S e
Ġorig inal
Ġback ground
j s
appro x
ar c
n ces
n a
et er
Ġhow ever
Ġf ar
Ġl abel
E S
200 8
Ġ version
pl us
6 6
Ġf und
\ }$
Ġwe ak
G et
0 9
I M
Ġprovid ed
( ).
d i
ur y
g s
Ġst re
ur l
Ġam ong
get her
h a
Ġto gether
Ġcompon ent
Ġcou pl
{ }
" )
ĠSt ates
\ ,\
Ġcl ose
Ġwid th
}} }
Ġpers on
ct ors
Ġre ally
Ġ es
Ġh olds
er al
Ġac ross
Ġpro ve
se qu
p ublic
ĠS er
Ġt ry
Ġun it
Ġvari ous
t ic
c le
ĉĉĉĉ ĉ
Ġst ars
pp ed
com p
Ġspect rum
Ġh ard
Ġacc ording
b b
E n
l ength
ne ction
res h
angu age
omorph ism
ust om
V iew
r is
19 7
Ġro le
Ġt re
Ġf ac
Ġp ut
Ġh tt
med i
Ġtak en
Ġf ile
Ġest ab
Ġdeg ree
mod el
if orm
Ġb en
Ġeffect s
N N
Ġmag netic
C lass
Ġof ten
Ġrel ation
Ġ ill
Ġf ore
ru le
Ġeff ic
Ġbecom e
}) ;
) +
Ġh ome
Ġgener ated
4 9
Ġreg ular
A B
ĠC l
t ra
Ġrequ est
line ar
Ġh uman
le g
Ġbas is
Ġen ough
I ON
Ġmat ter
ack age
Ġw ave
Ġval id
Ġtrans form
o ch
Ġw ar
Ġcont ent
Ġequ al
math scr
Ġset s
m ark
ug ht
Ġdiffere nce
Ġ! =
20 21
n av
Ġoff ic
ĠE ng
P i
Ġpol it
dis play
Ġaddition al
() );
~ $
Ġ Â
re ed
end s
ac y
w it
4 7
on ic
big g
Ġrepresent ation
oug ht
Ġestim ate
ĠM ay
Ġo ld
ast ic
ut il
Ġspec ific
under line
Ġstr ateg
P E
Ġal gebra
Ġn um
ho od
se mb
Ġb and
f ill
b o
ĠO r
pt ions
a ctions
c ell
Ġveloc ity
Ġco ordin
ĠC ar
ĠJ an
Ġ$\ {
I R
ĠC O
Ġim ages
ff er
in o
n orm
Ġm illion
Ġf ig
Ġd one
Ġcount ry
Ġcompa red
Ġg as
. _
ĠP l
b ut
Ġcontain s
F rom
Ġev ents
S ince
Ġwh ose
ĠThe refore
ĠTh at
E T
Ġv i
Ġb egin
Ġev olution
& &
"> </
ĠW ith
St ate
Ġmulti ple
ĠI s
mo oth
6 8
Ġ/ >
6 7
text rm
Ġcompon ents
Ġe igen
cre t
A pp
d own
pon ent
E rror
Ġpre c
L O
Ġg roups
i res
m p
c y
}^{ -
g en
Ġl a
Ġthe orem
Ġne ver
am il
Ġvari ables
ĠO b
ĠC an
at ively
ul y
Ġde p
Ġcom e
L e
Ġpresent ed
Ġe conom
ĠW hen
led ge
k en
Ġw rite
mat ic
Q u
Ġquest ion
Ġd imension
Ġcon c
Ã ©
Ġmon th
Ġg ame
ab or
k n
ict ure
ian s
The n
ĠJ ohn
d ist
Ġlear n
The ta
} /
f l
Ġs ays
ce ed
Ġexpl ain
Ġme chan
de ed
Ġ\ ;
ĠT able
` `
og n
ear ch
ĠN ational
li ke
Ġb ase
" ;
C C
Ġp erm
Ġc ateg
com e
K ey
e ff
Ġcol or
Ġnat ural
200 7
\! \!
Ġear ly
min us
Ġp ay
Ġpro m
uro pe
ache s
A D
Ġsatisf y
iz es
R equ
al le
Ġappe ar
comm and
Ġmem bers
Ġs ocial
Ġro t
l n
Ġ$ |
p ng
ĠC o
Ġcol umn
text tt
row s
Ġh aving
Ġne ut
ĠO ne
ch ing
}} _{
! --
n ormal
ĠT e
Ġun til
our s
c ript
l in
id ed
^ -
err or
o ad
Ġrespon se
Ġen g
c ing
Ġpr im
b ound
clus ion
Ġhist ory
Ġb ig
pro d
og le
Ġdire ction
ort un
iv ing
ener al
Ġmaxim um
yn omial
Ġmat erial
Ġs qu
per s
at s
Ġr ather
d om
ess ion
{ $
Ġam ount
P S
footnot e
ĠC or
9 8
f lo
Ġcre ate
Ġimpro ve
Ġadd ress
Ġflu x
il it
ta int
V ert
x y
oun ter
us ed
ic it
. </
subset eq
ic ult
f e
Ġeval u
ta ct
verg ence
l ock
Ġrat io
z e
ĠS p
Ġcommun ity
ĠY ork
.... ....
ĠM an
}} ,
Ġne ighb
Ġincre ase
au ge
Ġar ray
Ġp rior
m y
ar ies
Ġen vironment
L A
200 6
=" ../../
) ,\
< \
Ġl oc
Ġcomple te
Ġp ub
) |
sum mary
ĠSt ate
ĠN ote
C D
Ġal most
A nd
m ulti
Ġp o
Ġ( $\
Ġre d
Ġs ens
} '
T ime
Ġgalax ies
Ġwork s
9 7
Ġc ut
A ll
ĠĠĠĠĠĠĠĠ ĠĠ
eth ing
us er
ĠA ct
, "
Ġwrit ten
r ated
8 5
ict ion
Ġser vice
set minus
ire ct
it ude
Ġg round
Ġch all
end ing
Ġdevelop ment
Ġan t
Ġsign al
re st
ĠP ol
Ġsub ject
um ents
Ġprovid es
tr ue
ic ro
E qu
Ġapp lied
$ _
A t
Ġchang es
E E
Ġcontinu ous
Ġ$ -
Ġre view
Ġproblem s
Ġobserv ations
Ġcomp any
in put
Ġge om
um p
p c
en n
u ary
Ġit er
_ +
^{ -\
Ġbehav ior
cer taint
a it
Ġchild ren
\ '
ag ement
dag ger
Ġde cre
nd er
Ġth ings
ĠE urope
Ġfil m
The re
Ġref er
Ġre t
ĠF ran
ne y
Ġg rad
r ast
Ġphys ical
Ġim pact
' );
N ot
Ġun ique
Ġrec ord
Ġin equ
che ck
Ġdem on
l ong
Ġfrequ ency
Ġrel ative
( ),
ĠG a
Ġdet ect
Ġem ission
R ef
Ġs l
Ġma king
s el
Ġex ec
4 6
Ġp ress
Ġ ?
f il
Ġequival ent
Ġat tack
ĠP res
ma g
Ġmod e
Ġs ources
N ote
h ib
U R
end ed
Ġpol icy
Ġcho ice
Ġf un
k et
I G
re t
Ġu pper
at us
or iz
Ġt reat
Ġt ask
th ing
w edge
on y
F ile
Ġdeta ils
Ġf a
Ġpro ced
Ġsmall er
=" +
ric es
us ing
Ġcorre ct
ĠS c
T ext
av es
00 00
Ġse arch
Ġsc en
the rm
ist ics
is k
Ġdirect ly
ĠĠĠ Ċ
200 5
U T
Ġdiff icult
b t
O r
Ġinteg ral
Ġno ise
Ġobject s
al t
ĠĠĠĠĠĠĠĠ ĠĠĠĠ
Ġ ir
ma in
Ġcrit ical
P h
4 2
_{ (
Ġcent ral
Ġwork ing
line width
O T
ens ions
Ġn uc
amil ton
d et
Ġma kes
P T
part ment
M an
o plus
Ġke ep
[ '
C H
Ġe p
t ical
Ġbecom es
Ġclos ed
Ġapp ly
os ed
f act
enc ies
Ġder iv
Ġsymm etry
m ar
Ġincre asing
i ver
B ut
Ġsu fficient
ĠM in
ide o
Ġpro p
Ġpol ynomial
ic on
' :
Ġdeterm ined
ell ar
E vent
F F
Ġth ird
Ġwor ds
ĠR ef
Ġinst ead
" :
c ast
ad a
ul ated
Ġl ot
Ġf ive
* {
Ġ( -
N ew
Ġ ver
Ġ$ [
Ġv ir
g ress
Ġdatas et
M L
j ection
O ver
v ant
Ġcour se
Ġemb ed
Ġag re
le x
or ds
Ġtak ing
alle l
per p
ac c
Ġs ent
Ġsom ething
u racy
ac ed
Ġm usic
Ġoper ators
kn own
Ġs ense
M A
I s
ĠE n
Ġp ast
Ġhe nce
v is
el ine
Ġvi ol
ag ed
Ġc am
Ġinter action
M S
c an
Ġhal f
Ġlit tle
ĠC al
u k
Ġ |\
os ition
sub figure
bl ock
Ġstud ents
Ġn am
le vel
ĠB l
Ġp ort
Ġar ch
ou d
ar ily
Ġpop ulation
Ġh ol
ri ed
ul ly
ign ed
Ġdiag ram
Ġst ory
Ġth ough
cur ity
' ]
Ġlat t
port s
Ġper t
Ġed uc
Ġt w
s pec
ole an
Ġin fin
Ġvari able
Ġas sert
ĠM ed
con fig
l or
ob ject
Ġa x
W h
Ġd ays
ch ange
Ġsy n
l s
os en
Ġreg ions
d esc
ron t
Ġcomple t
st ance
Res ult
Ġcur ve
lo cal
Ġexpl icit
lim its
b ook
_ *
Ġdiscuss ed
ans ion
Ġl and
Ġbound ed
ribut ed
Ġs mooth
9 6
Ġapproxim ation
Ġent ire
ĠCh rist
Requ est
Ġun certaint
Ġnum bers
4 3
Ġper cent
ĠA rt
Ġallow s
al y
at ives
o cal
20 00
5 7
ĠS ch
_{ {\
Ġ }\
Ġgra v
Ġcompa ct
\\\\ \\\\
ĠO ct
Ġt able
T r
b ul
8 8
ĠM arch
Ġdemon str
A A
d o
T R
ĠA ug
defin ition
Ġg auge
Ġg ot
200 4
Ġtyp es
Ġw omen
in os
Ġvert ex
Ġpartic les
) /
align ed
c hed
du c
Ġlik ely
Ġad j
Ġreg ard
Ġocc ur
U S
Ġlead ing
Ġpartic le
and id
Ġnecess ary
rop y
Ġun iform
I m
ĠW orld
ĠS im
Ġform ula
Ġar bit
Ġf ail
N ode
en ing
)\ ,
Ġ ess
Ġme et
im ate
Ġreport ed
Ġindu st
ĠA ss
ĠI nt
P ath
ab s
Ġbuil ding
ari o
Ġstud ies
+ +
ĠO ur
oll ary
Ġconst ruction
}} (\
ĠM ar
oriz on
ic ation
O S
Ġpert urb
Ġw on
as hed
A d
Ġyou ng
ĠA g
Ġdef ault
Ġpl ot
Ġpe ak
Ġro b
Ġsub set
ĠP art
Ġcoupl ing
P l
m on
} %
us ion
h and
B e
he ight
ĠA f
Ġother s
Ġa way
Ġc ity
und le
Ġmark et
text sc
Ġ-- >
r ate
Ġn odes
ĠPro position
d iff
Ġdynam ics
Ġspect ral
Ġsim ulations
i ps
ĠJan uary
ĠR eg
pr il
Ġfram ework
ta ge
in v
Ġj ob
Ġon ce
at ory
Ġapplic ation
Ġexp ression
/ *
new command
Ind ex
O ne
ĠM od
od ing
ag ing
F T
l t
Ġch annel
ĠW ar
riv ial
O f
om s
Ġp arent
empt y
( (
r ide
t itle
Ġconn ected
Ġtak es
) {\
Ġact iv
Ġso ft
Ġdom in
Ġa ge
Ġs amples
Ġwh y
bl ack
N et
_{ -
Ġwe ek
i am
Ġk ind
Ġcon duct
Ġopt imal
ite ct
ot ic
ĠG e
r un
en u
7 7
D ef
S P
) }(
Ġsim ply
Ġd ocument
Ġm ention
val id
ĠB o
Ġd raw
ir m
ch o
for all
f low
end ix
Ġpat tern
Ġlay er
pl ate
ĠS ystem
Ġrespon s
Ġradi us
Ġma ps
Ġ },
Ġcent er
one y
el i
5 8
Ġnumer ical
col on
Ġprodu ction
il i
aramet er
d eg
Ġmot ion
ra in
N ow
$ (
Ġmoment um
ames pace
Ġsche me
ag s
a ff
a i
le ge
Ġc os
defin ed
Ġexperim ents
/ **
Ġm ult
Ġam plit
4 1
t em
Ġsatisf ies
,\ ,
Ġinterest ing
end er
IN G
b all
Ġinf lu
Ġwho le
cre te
Ġw ater
ĠH ere
ram e
Ġpol ar
Ġneg ative
ĠSe pt
A dd
Ġexper ience
ur ch
ight s
Ġsp at
Ġl anguage
5 6
w ord
Ġinter pre
Ġthe rm
ĠPres ident
ĠF rom
ce mber
Ġintrodu ced
[ ]
Ġact ually
W hen
in ci
Ġw in
Ġmeasure d
H E
em ents
ve y
idd le
om an
Ġcont ribution
' \
= (
an ced
. )
is es
ĠJ une
Ġben ef
Ġresult ing
Ġbro ad
ut es
m d
Ġmag n
Ġminim um
Ġneed ed
ffic ients
Ġinter val
Ġh ost
Ġser vices
Ġinclud ed
ĠĠĠĠĠĠĠĠĠĠĠĠĠĠĠĠ ĠĠĠĠĠĠĠĠĠĠĠ
ym pt
' _
Ġb ran
In fo
Ġclust er
ĠG u
ĠH ence
Ġcompar ison
) ^{\
Ġits elf
if ier
E q
Ġperform ed
Ġ );
Ġlatt ice
g t
T able
ĠIn tern
ur therm
urtherm ore
Ġclass ical
ĠN ot
Ġp ref
Ġneed s
on es
h om
Ġill ust
## ##
Ġo p
T rans
st ack
Ġknow ledge
= -
= {
S ub
Ġ ensure
sim eq
Ġacc uracy
$ ^{-
ri er
Ġs ix
sub subsection
min ist
Con text
ĠF irst
Ġman if
Ġrec ogn
S U
ĠS ci
ĠH amilton
ove red
Ġb ody
he l
Ġc ult
Ġform er
ĠJ uly
Ġcomput e
H ere
Ġas k
Ġfor ce
ra ft
Ġv an
ell ing
ĠQ u
Ġp anel
s up
col umn
ag raph
Ġiss ue
Ġide a
d ro
Ġexp ress
Ġconsist ent
ove mber
oc ol
ĠC ount
v oid
as ks
Ġm essage
}$ -
' ;
li er
T E
Ġcorrespon ds
ar ing
200 3
) _{
ĠA pril
() )
ĠP r
Ġde al
is ions
Ġlit er
Ġf raction
. $
Ġder ived
ma ge
Ġ+ \
ac ity
Ġt ree
S im
O ur
{ $\
able d
ĠR ep
ĠN e
Ġlead s
Ġdec ay
Ġvert ices
Ġd ouble
Ġfe el
Ġch arge
: \
O D
.~ (\
b ase
p matrix
er c
Ġinequ ality
roll er
Ġassum ption
pec ially
Ġcorrespon d
Ġ ~
y l
Ġconstraint s
Ar ray
Ġac cept
n s
Ġc andid
Ġstre ng
) ^{-
n ext
er a
st o
Ġf ri
D is
Ġde ep
n ers
Ġref erence
C E
p ri
Ġ( !
Ġcomm it
al es
Ġcomp et
Ġst yle
Ġdescrib e
Ġarg ument
Ġj o
ure d
Ġmeasure ments
Ġ __
ĠS chool
ĠP a
g ra
Ġy et
5 00
Ġto day
pro t
Ġmem ber
t ual
our nal
z ero
Con fig
in f
C l
M ap
Ġnetwork s
Ġh old
r and
Ġs eg
Ġth ought
Ġclass es
A G
Ġde ath
ern el
da pt
$ ;
N S
et urn
}^ *
c ase
Ġmechan ism
E lement
; &
it er
il der
6 9
Ġiss ues
ĠM c
S p
Ġpartic ip
$ ).
c ases
Ġto ol
Ġt ax
Ġcalcul ated
Ġsim pl
M C
ĠC our
M P
ĠDe cember
//// ////
Ġdec ision
Ġcho ose
Ġn orm
Mod el
ap i
A tt
M ore
Ġsc atter
b in
ĠM e
m ethod
w ar
O ut
her s
8 7
Ġinter n
Ġrece ived
Ġcoe fficients
Ġch ain
Ġb ar
Ġ });
Ġcorre lation
ĠMore over
val ues
Ġexp ansion
ap ache
ic les
res ents
dition al
ĠSept ember
Ġn ational
ran ge
Ġ\ (
H owever
Ġpolit ical
C ode
Ġadd ed
et ic
Ġrequ ires
s ol
Ġcon v
bul let
Ġpres ence
Ser vice
ĠFe b
ed u
ĠA fter
Ġmed ia
o ps
Ġright s
h am
N o
ĠS outh
Ġnew s
Ġb ring
pr int
Ġch osen
Ġsim ulation
\ "
Ġscal ar
Ġdet ection
ur g
ds h
Ġs ite
d im
F e
st art
Ġr ule
Ġev idence
Ġstud ied
" .
ĠAug ust
Ġb it
Ġed ges
Ġpl ane
e le
Ġcomp an
Ġdeterm ine
\ _
ĠOct ober
ĠA b
Ġfig ure
Ġd est
Ġup on
Ġrele vant
Ġproced ure
uth ors
Ġtrans fer
u x
}} ^
ĠA ust
cont ent
def ault
re w
ĠT r
u ed
Ġdist ributions
rem ark
= '
Ġrema ins
Ġredu ced
id s
Ġs rc
ot a
cre ate
ve x
Fig ure
is ation
D F
Ġor bit
Ġdevelop ed
ex ample
Ġ= \
Ġ&= &
iz ations
Ġd im
S ize
il ib
d x
ous ly
y ear
pt y
anc ial
le ase
ed eral
ĠN ovember
5 9
row n
upp ose
Ġrem ov
h ol
cc ording
ber t
ĠG erm
Ġpart s
en ed
ĠC ity
F irst
P R
ere nces
r s
$ $\
S C
em ic
ĠB rit
Ġm ix
n eg
Ġch arg
200 1
Ġres olution
u ck
Ġc ame
Ġgrow th
Ġcom es
Ġca pt
Ġin c
Ġspect ra
con s
cur rent
Ġdepend s
^{ +
Ġt ensor
" "
Col or
oci ety
Ġinclud es
Ġal tern
Ġprocess es
Ġsupport ed
Ġad opt
) }{\
ĠM on
it es
Ġeff ort
rum p
~ $\
="../../ ../../
Ġexact ly
R eg
od ot
Ġes pecially
Ð ¾
Ġqu ality
mod ule
Ġexperim ent
Ġde com
} )$.
Ġus es
le te
Ġm iss
Ġuse ful
B C
ĠI I
b and
Ġfact ors
Ġdesc ription
It em
Ġdenot es
)\ \
Ġpro per
Ġ/ *
Ġhy per
200 2
Ġcre ated
de red
S O
Ġex amples
Ġident ify
ste in
Ġappro pri
Ġg en
ĠS et
T D
E nd
Ġfor ward
Ġdepend ence
Ġon line
B ar
ĠAmeric a
Ġrecent ly
Ġrest rict
og ene
ĠP ar
Ġf all
ĠGa ussian
Ġfram e
ĠW ill
st er
Ġagre ement
Ġess ential
Ġst eps
un g
ĠM ark
Ġqu ite
u i
se quence
ĠH ar
Ġstat ement
Ġst ellar
M M
P C
5 4
ber g
l ang
Ġto ok
Ġconc ern
Ġcon nection
rodu ction
Ġr ates
Ġhe ight
Ġalgorithm s
Ġinv ariant
Ġcur ves
ĠN orth
Ġsh ape
Ġm is
Ġcontin ue
Ġvol ume
}} ^{
Ġeas y
] (
M essage
Ġm arg
Ġrep resents
Ġeas ily
S I
Ġn ature
Ġim medi
Ġw ord
5 2
Ġc ustom
su pp
Ġdis k
ĠWh ile
b ottom
Ġse lected
Ġexperim ental
Ġan sw
r atic
Ġqu as
ri e
Ġ ]
c ore
5 1
Ġd ual
g raph
Ġor d
)$ -
Ġsuccess ful
******** ********
E nt
av y
Ġsol id
Ġon es
Ġran k
ĠW hat
n ov
t es
Ġorig in
Ġd ark
sel ves
o res
an a
Ġcomput ed
6 3
Ġlevel s
Ġa ir
Ġstrateg y
Ġs plit
ĠD is
Ġspe ed
yn c
Ġincre ases
f ree
Ġconfig uration
Ġs ure
ru ary
or ing
Ġav oid
Th us
Ġse lect
H and
F ield
l ib
Ġopt ions
Ġdis play
ĠAf ric
7 8
in y
at form
h as
at al
Ġang le
Ġcou ple
i ency
Ġsy mbol
ĠE d
c ame
Ġerr ors
ilib ri
Ġl ocation
Ġbu ild
Ġex cept
Ġpr inci
Ġm ar
Ġact ive
\| _{
Ġident ity
ĠCom p
Ġcon cept
Ġse qu
Ġf ully
Ġestim ated
Ġf lo
ĠT rans
ass ert
Ġde cl
u ations
Ġj ava
Ġre ach
t ri
ĠM a
ĠD o
el er
ill s
in fo
U N
pro b
Ġintrodu ce
g ed
f it
Ġopp ortun
I P
ens ive
In ter
EN T
iz er
ĠL i
L og
Ġsp aces
Ġspe ak
omorph ic
Ġbe came
Ġlat ter
Ġp ul
ĠL a
iqu es
Ġt rac
ĠN ow
Ġatt empt
Ġim p
im age
st atic
Ġr isk
c ount
5 3
resh old
Ġinter nal
Ġp age
Ġ$ $
The orem
oun c
Ġlong er
i us
av or
Ġa dapt
ĠG et
Ġth ing
Ġf ace
} &
Ġchall eng
act ive
Ġappro aches
Ġmat rices
Ġspat ial
Ġoper ation
ef ore
Ġse lection
Ġextend ed
ab ilities
) _
Ġmod es
ograph y
> &
Ġarbit rary
Ġout side
ch ar
Ġcount ries
qu e
c d
Ġgo al
Ġform ation
con text
Ġsignificant ly
m ission
in ct
Ġarch itect
Ġd ate
Ġsymm etric
Ġgalax y
Ġre pl
Ġcon tact
Ġg ain
S o
Ġapplic ations
Ġdid n
f alse
Ġcont rast
st ant
Ġdo ing
Ġsing ular
Ġ Ð
L S
Ġcorre l
Ġse ason
Ġestim ates
Ġas ympt
P r
ĠL aw
g ener
Ġprop ag
re c
Ġatt ention
c ss
Ġsit uation
map sto
am a
6 2
Ġlim ited
Ġcos m
ol ic
ith ub
Ġb ox
9 3
o ption
$ ~
j ava
Ġro ot
Ġus ers
pro position
od er
r ant
Ġart icle
su per
\ {\
Ġaut om
Ġc ore
b old
Ġexist ence
ĠD i
m es
Ġstructure s
Ġa im
Ġthe ore
f irst
A b
ĠV al
m ing
d b
Ġb eg
ĠH is
Ġcon vergence
am ent
Ġ= ==
| _{
Ġl ove
it able
ri ef
f ect
Ġy ields
Ġs ong
{ {
it ing
yp es
iv il
9 4
Ġ row
Ġachie ve
pon se
Ġa rm
Ġ vers
Ġa ud
Ġe ver
Ġcol lection
s pect
ĠP er
L T
_ -
Ġare as
com ple
ac hed
O M
ĠHamilton ian
Ġdiscuss ion
Ġse ems
ar ant
Ġpart ition
ĠM y
Pro perty
Ġcont ract
k er
Ġallow ed
ut ive
ĠC he
ing u
Ġstart ed
re es
Ġcompa re
ĉĉĉĉ ĉĉ
Ġprodu ced
now led
Ġl ive
ilibri um
ilit ary
L P
ĠCour t
pon ential
k y
; </
ĠB ar
ĠH ouse
Ġv ideo
Ġext ract
Ġto wards
pa rent
ampl ing
n um
C o
display style
Ġs low
ar p
Ġinter actions
ĠT rump
Ġlarg est
Ġpress ure
N R
Ġoper ations
C P
ribut es
Ġse curity
am ental
Ġc r
ĠFeb ruary
ing ton
li ent
Ġm en
idd en
tain er
AT E
ma il
multi row
pro du
Ġqu ad
Ġpair s
Ġins ide
Ġsh are
z z
M ethod
Ġprof ile
con n
c r
Ġst age
Ð °
yp ot
Ġh ouse
it z
the n
Ġbl ue
Ġstreng th
et ime
Ġpub lished
Ġmeasure ment
Ġembed ding
' }
Ġst ra
for ce
c s
ĠS u
Ġobser ve
( {
Ġre dsh
Ġext ension
U ser
}{ |
Ġmod ule
ĠCh ina
Ġcomput ation
min i
Ġbelie ve
ig ation
Ġlo ad
6 1
Ġr ules
ĠT ra
9 2
pro cess
ri ve
d oc
Ġother wise
g ithub
) +\
Ġcateg ory
al g
Ġhtt p
p icture
ĠP e
Ġmem ory
Ġ ;
us es
Ġs light
ĠD av
ter m
P I
ac ing
Ġbas ic
p ite
Ġrema in
ounc il
e es
ĠCent er
Ġa uthors
p ackage
} }$,
Ġbe am
b ug
Ġproduct s
Ġopt ical
y ond
Ġto ld
Ġcon sum
E C
Ġoffic ial
ĠD ef
ari ance
Ġexist ing
aramet ers
Ġabs ol
Ġt ell
Ġm oney
ere nt
Ġse em
Ġb ul
Ġaff ect
Ġinvol ved
Ġeffic ient
pl es
b um
S ystem
Ġal though
ĠDe partment
' (
C ount
Ġex hib
h box
m ma
Ġb inary
sc ill
) },
Ġcour t
m c
Ġtrans formation
new line
Ġma ch
ĠRes earch
Ġmeasure s
Ġbel ong
cl es
Ġpract ice
m ass
Ġw indow
Ġim m
Ġre ve
Man ager
Ð µ
Ġcont ributions
v ision
S D
re p
Ġmonth s
Ġm ole
Ġ} ;
b reak
Ġinteg er
re ate
h bar
Ġin ner
Ġc ounter
v an
ĠĠĠĠĠĠĠĠ ĠĠĠĠĠĠ
in clude
ĠCon t
Ġintern ational
ish ing
} }$.
il le
Ġreg ime
Ġscatter ing
Ġclass ification
Ġsu ff
8 9
i os
Ġgener ate
if ically
Ġl um
t x
Ġs ound
Ġindust ry
E d
Ġpers onal
Ġd riv
stit ute
ist ry
Ġ$ {
Ġus ually
Ġve ctors
---------------- ----------------
Ġp ie
ĠSe e
ind ing
Ġrad io
Ġdoes n
Ġst able
t ik
Ġeduc ation
The se
def ine
reed om
Ġit em
Ġhe ld
ther n
======== ========
n ull
b a
st ruct
Ġup date
ra ble
Ġform s
c ulation
Ġpres er
r at
=" ../
b i
ĠĠĠĠĠĠĠĠĠĠĠĠĠĠĠĠ Ġ
} )$,
H T
m iss
8 6
ĠSt ud
Ġgener ally
ĠG o
ark s
S M
Ġconn ect
Ġcoordin ates
Ġover all
ev ent
Ġassum ed
ĠHe alth
n amespace
or age
I V
Ġwh ite
Ġredu ce
ĠA m
Ġappe ars
Ġstart ing
Ġexp and
a int
Ġno vel
ab ase
ĠW est
}$ )
Ġo scill
Ġappropri ate
p g
Ġcons ists
ell ow
ul ate
Ġw ent
Ġanal og
7 2
N ext
Ġmat ch
he st
Ġex am
ot o
Ġf ix
~~ ~~
}( {\
) }_{
Ġb order
Ġpres ident
d l
f s
Ġclear ly
Ġmass es
$ ),
mini page
Ġw ays
Ġsqu are
Ġmean ing
Ġc opy
go ogle
8 4
Ġprodu ce
3 00
ĠI sl
et imes
con g
ub e
om b
W hat
R ead
Ġs us
tik z
sy mm
se ud
h y
Ġcurrent ly
ĠCount y
te e
st ream
um b
Ġbe yond
}{ *
Ġres on
Ġcon clude
I F
: }
Ġhtt ps
Ġfl at
Ġ$ |\
Ġ ...
L ine
ic ity
Ġp ure
) -\
- $
c ref
g u
&= &
ĠIntern ational
Ġn il
Ġamplit ude
G L
u ff
Ġtrans port
Ġliter ature
Ġmagn itude
Ġgrad ient
) )$
Ġform al
< !--
Ġj ud
ĠSci ence
Ġext ra
Ġtreat ment
Ġident ified
st ract
Ġcompan ies
s ystem
Ġup d
str ong
Ġh orizon
a res
Ġpredict ion
Ġres ource
H z
Ġgreat er
Ġst ream
Ġrelations hip
Ġst rict
and roid
ar se
Ġmention ed
D esc
g ing
ĠNew s
P re
Ġdifferent ial
sequ ently
om ic
d at
Ġtechn iques
Ġrun ning
Ġear lier
ist ical
Ġres ol
we b
Ġabs or
Ġd ig
I L
Ġfin ancial
Ġlead ers
Ġdep th
Ġestab lish
Ġfil ter
Ġpop ular
fin ition
Ġl ate
ĠT est
ĠG od
s m
y mm
Ġma x
os ing
ĠĠĠĠĠĠĠĠ ĠĠĠĠĊ
over y
Ġen h
Ġm er
N e
B ox
Ġcol lect
Ġestab lished
9 1
ĠU K
Ġoptim ization
ers ion
Ġhigh ly
Ġeconom ic
ap ter
__ __
Ġnot ation
Int roduction
Ġbuil t
ĠE l
7 6
[ (
o ke
p id
Ġacc ur
ir al
ud es
G C
Ġthrough out
ok en
ĠP o
Ġobserv ation
ou l
vent ion
Ġre pe
Ġre const
ta g
Ġfe ed
rid ge
Ġde vi
Ġmain tain
op ic
Ġp ack
ond on
Ġ ,\
Ġand roid
Ġs m
Ġcomplet ely
Ġor ient
ypot hes
Ġax is
is hes
d en
Ġtechn ology
Ġb al
Ġloc ated
ĠI m
ogene ous
Ġin it
less sim
Ġquest ions
The refore
Ġgener ation
Ġun ivers
] )
ist ory
ad es
i et
id ing
E M
Y ou
u ge
Ġcirc le
Ġt rack
ect or
ĠAust ral
=" #
P P
Ġt al
p ost
}{ (
u it
199 9
V ID
Ġd r
f unc
Ġv ot
ol ar
D B
Ġwrit ing
bl ue
Ġcomb ination
' re
Ġstra ight
I mage
Ġparticular ly
pa ign
per im
U LL
v ol
for mat
Ġcalcul ations
ro t
, $
Ġuncertaint y
cc cc
d ir
ĠR em
T H
ĠAss oci
Bu ilder
Ġredu ction
Ġflu ct
Ġm icro
Ġth reshold
Ġh arm
result s
F inally
ve ctor
,\ ,\
ib rary
Ġm orph
8 2
Ġbound s
ie f
ĠEurope an
r ong
Ġf ront
Ġclust ers
Ġle d
Ġt asks
ib ly
c ular
pert ies
hen omen
Com m
ĠG overn
Ġprim ary
as ons
Ġb all
In put
Ġst ation
Ġconst it
Ġ ener
F act
Ġfund amental
ĠĠĠĠĠĠĠĠĠĠĠĠĠĠĠĠ ĠĠĠĠĠĠĠĠĠĠĠĠĠĠĠ
Ġ[ \
Ġf ast
ĠCh ar
ĠH ol
Ġdeta iled
Ġprevious ly
Ġqu al
it ely
Ġtheore tical
ĠI N
j o
ĠK ing
r l
Ġindu ced
op en
Ġvis ual
Ġspec ified
di ag
ip al
Ġang ular
Ġstrong ly
C all
Ġt im
pos es
ch ild
P art
ic ense
Ġs cre
s g
Ġprof ess
ĠS ub
Ġrel atively
A fter
Ġc red
C S
h ing
Ġk ernel
ĠĠĠĠĠĠĠĠ Ċ
Ex p
Ġst ri
Ġb ottom
ĠE qu
Ġbeg an
t arget
Res ponse
anc y
Ġeng ine
ot al
Ġf oot
e ch
199 8
D ate
Ġhist or
Ġcom ing
ĠB ro
Ġpar allel
Ġunderstand ing
Ġcal culation
Ġdist inct
on ical
Ġres ources
ĠS an
Ġgraph s
C lient
$ _{
8 3
Ġex cit
> (
Ġpur pose
d ed
Ġca use
f ord
Ġj oint
Ġex ponential
Ġcon cent
Ġinterpre t
C he
Ġbehav i
7 3
Ġche m
P er
Ġrepresent ed
-- -
] }
Ġre li
qu ery
G roup
Ġs w
p at
Ġl ack
ant ic
ify ing
cor re
Ġlook ing
Ġc ov
M R
pa re
if orn
ĠD r
ĠM r
Ġgu arant
Ġas pect
le an
flo or
7 4
ash ington
Ġag o
Ġtra ject
ĠH ow
Ġv ac
Ġvari ety
ĠF inally
f ont
Ġp ix
Ġdist ributed
Ġg rid
on ly
Ġleg al
Ġincre ased
ĠC lass
^* $
f aces
}} )
ĠS pec
Ġg ap
Ġmin imal
b as
Qu ery
Ġst d
S pec
ers on
Ġtherm al
ĠF ound
h ost
lic ation
Ġv ary
Ġacc om
Ġk in
Ġcontain ing
en ame
s ur
bs ite
Ġide al
a j
Ġl if
}} _{\
Ġa ctions
Ġpro ved
Ġpro port
Ġex ternal
w rit
7 9
ĉĉ Ċ
Ġant i
ag ue
Ġthem selves
Ġpol y
el t
Ġ ult
ra b
Ġb in
Ġimplement ation
ap an
Ġact ual
ir ing
mit ted
Ġconsider ing
Ġun its
d frac
\ }$.
ĠL ist
Ġlo op
ĠC ons
Ġn or
Ġsh ift
A ction
Ġ$ .
Ġob vious
$ :
re me
mod els
w ell
ab il
Ġcomplex ity
par agraph
Ġlay ers
ĠE ar
Ġbeh ind
Ġpart y
Ġvis it
Ġmass ive
Ġor th
Ġpart ial
Ġneighb or
Ð ¸
Ġdiffere nces
Ġinfin ite
s ign
g ies
Ġstat us
Ġo ption
Ġh ole
un it
] $.
iforn ia
requ est
Ġent ropy
Ġg ames
Ġcon vex
Ġadv an
c f
Ġscal es
Ġdecom position
Ġqu ery
ĠD ist
D A
ial og
am ily
Ġrema ining
Ġindic ates
Ġpro ceed
re al
Ġre comm
Ġac qu
Over ride
Ġqu ick
Ġal bum
Ġdatas ets
al gorithm
ĠCol lege
a e
Ġre call
n es
Ġcomm and
ilar ly
om etric
desc ription
Ġscal ing
) </
b matrix
Ġem erg
Ġm ilitary
Ġst ruct
Ġtra de
Ġle mma
Ġcrit er
Ġf air
c her
se ct
Ġad minist
ĠEng lish
Ġr ing
S ection
Ġcoe fficient
b its
it ivity
y les
Ġb right
ur rent
Ġelect ric
C A
oun ced
Ġy ield
8 1
ex pect
St ream
Ġdis crete
Ġgr ant
Ġexp ressed
ĠL ondon
b on
Ġdenot ed
ĠD es
Ġman agement
O P
Ġs ort
w rite
Ġrot ation
Ġb ool
g rad
Ġscen ario
Ġseg ment
s qu
ĠM ich
ĠD ata
o ph
U sing
ĠS ome
semb ly
E X
Ġlum inos
Ġextend s
con f
Ġtyp ical
Ġ- >
Ġinst it
Ġper fect
Ġshow ed
ĠF urthermore
Ġag ent
B lock
ad o
R ec
in ner
Ġab ility
Ġ ^{
Ex t
ri ver
n umber
Ġneut r
Ġass ess
ON T
Ġtrans l
Ġdim ensions
Ġse ctor
Ġcare er
ph p
ri z
ill ing
N D
Ġwork ed
S c
for ward
ann els
ĠD em
o e
Ġn ight
Ġf ood
Ġp henomen
: =
om in
Ġpro gress
ve e
) }}
os ite
ĠA ng
Ġhig hest
j av
Ġfor mat
a fter
not her
ĠH er
1 000
| }{
Ġth row
g l
ynam ic
Ġet c
Ġ\ &
Ġtem por
ro y
Ġtra vel
Ġpr int
Ġnear ly
Ġslight ly
ĠIs ra
sc he
ph ant
Ġnuc le
pro perty
Ġdesign ed
en ge
Ġext rem
Ġd ro
Ġsa f
ting s
Ġdeta il
Ġestim ation
ĠP ark
Ġtra ined
Ġinter face
ĠAl so
Ġh ope
][ ]{
Ġt or
Wh ile
Ġeffic iency
Ġc ry
Ġarg uments
Ġve h
m ann
ĠO ff
}\ ,\
Ġpro te
Ġsol ve
Ġlim its
er red
h al
Ġsatisfy ing
F A
ĠG eneral
Ġinflu ence
\ ;
Ġcalcul ate
Ġrel ig
ad ding
n ed
al ysis
in it
p y
R ight
}{* }{
Ġprinci ple
Ġh ypothes
re et
ĠBrit ish
Ġl iving
ell i
Ġgra du
ma ke
here nt
Ġh on
i verse
}) }
but ton
A ct
M B
Ġrele ased
Ġeval uation
clus ions
math op
Con s
Ġh ot
ĠIn ter
if ies
Ġfollow ed
Ġref lect
s at
opt ions
Ġse ctions
Ġp ick
. [
Ġass ign
ck nowled
Ġpol ice
D P
ĠW ork
Ġ ign
Ġ\ !
Ġfam il
Ġw ide
G B
Ġrob ust
Ġst e
T hat
] $,
int eg
Ġf reedom
Ġrele ase
Ġbegin ning
Ġgrav it
v ari
x x
F orm
ĠCan ada
ĠC ouncil
Ġh ours
l ig
Ġact ivity
o o
p ass
. /
Ġm es
,\ \
el es
Ġprogram s
de c
7 1
l en
sh ip
aram s
ĠS en
Ġtra in
Ġprob ably
u el
ĠJ ust
flo at
Ġg l
Ġweight s
Ġsc ient
s uch
ch ang
Ġass ist
A V
F R
Ġequ ilibrium
et al
ĠH igh
ollow ing
p ir
t wo
ĠA rm
Ġgeom etry
Ġc ru
ĠB u
big l
Ġapproxim ately
ĠU sing
Ġs ex
Ġim plic
t frac
in u
a a
Ġfamil ies
v ised
ĠV ol
Ġoff ice
, {\
ateg ory
ĠW ashington
Ġ ion
Ġ util
N av
ĠIn stitute
in st
ĠO f
Ġindic ate
}) =
ĠCal ifornia
Ġir re
Ġfunction al
L ay
b ed
Ġdis e
Ġphys ics
$ {\
ĠApp endix
sh ow
im g
( [
ĠM at
M at
ĠBl ack
g r
wh ile
av el
$ };
ri al
Ġnot hing
pro ject
o on
st ra
ĠWill iam
ĠO ther
Ġp riv
$ &
ĠAs sum
}} .
Ġnuc lear
rel ated
cl ose
pd ate
Ġ\ ]
Ġ ^
) )\
Ġex pert
ak ing
S ource
C R
}[ \
cl ient
big r
el se
U E
Ġwor th
script style
f lu
se lect
P A
Ġth ick
fin ished
Ġmulti plic
Ġcon ver
ĠE ach
ob ile
b el
Ġt alk
i h
Ġf erm
Ġsc ience
Ġim ag
Ġcy cle
Ġs wit
ĠInd ia
Ġpro jection
Ġcoordin ate
}} }\
ĠRep ublic
S ec
Ġimmedi ately
Ġachie ved
}_{ -
L i
Ġf ight
it ch
Ñ Ĥ
Ġl ives
Ġcontain ed
R em
Ġb ad
Ð ½
empty set
A g
ĠS T
ĠH ig
v ature
Ġ ut
Ġnot ice
ĠB ay
Ġredsh ift
Ġin deed
Ġb rief
f erence
Ġcon serv
Ġprot ected
.. .,
ad ata
j oint
st able
Ġmed ical
Ġplay ed
Ġcl ient
Ġgo es
Ġconstruct ed
es tern
Ġacc eler
tabular newline
Ġtest ing
Ġr ise
Ġsum mar
ur ity
M e
s he
}) ^
Ġsufficient ly
cal led
Ġm id
lay er
) }_
we ight
Ġget ting
a ught
$ {
ha ps
a el
Ġsc ore
st ep
Ġre place
Ġmod ern
}} ^{\
Ġhy dro
Ġstud ent
ust er
Ġcomb ined
ed ia
C L
Ġstat istical
ĠC ong
Ġrepresent ations
Com ponent
m as
Ġd ust
Ġcommun ication
pos s
ĠComm un
Ġassum ptions
ĠI R
Ġde vice
Ġto wn
Ġfin ally
Ġs ampling
ut ing
F unction
Ġcent ury
use um
con dition
;\ ;\
Ġis omorphism
Ġne ural
F il
S R
G ener
RE F
e lement
ER T
Ġ{ $
ĠA ir
pt o
is ely
Ġfor ces
act ers
bra ce
Ġevalu ate
hi ps
arg s
he mat
Ġe q
Ġb os
Ġansw er
Ġ< <
Ġprovid ing
Ġo dd
in i
Ġsoft ware
k a
al gebra
Ġposition s
Ġcom ment
Ġunder lying
Ġtry ing
if act
Ġinterest ed
Ġcam paign
O L
C or
set s
ĠAl though
4 00
Ġask ed
Ġc it
an ks
l ap
ĠJ apan
199 7
Ġdet ected
column width
St atus
\\\\\\\\ \\\\\\\\
form al
d es
ens ities
Ġt en
ĠPa ul
ĠD ire
om etry
ĠSe c
Ġm ind
Ġapp lying
St art
Ġnot ed
form s
un n
Ġ( )
Ġsh ock
D M
\ )
Ġsp read
ir th
Ġinteg ration
r d
Ġnam ed
Ġexper i
Ġmov ing
O C
ĠA c
Ġtyp ically
ĠDav id
ĠO F
ur st
od ed
Ġw all
or ge
ĠG reen
L abel
Ġon to
ĠIn deed
E L
Ġpredict ed
ph ys
ic o
B ase
p ack
Ġshow ing
Ġmov ie
Ġm or
Ġh it
Ġprot ocol
ĠG roup
att le
enc ed
y ing
och astic
pos it
ar r
un ch
ma z
Ġcell s
Ġocc up
bu ild
L ast
com ing
ru pt
Ġhe art
Ġcap ital
Ġin verse
m t
L ink
N umber
Ġent ry
Ġnam ely
v ille
long rightarrow
) --
R el
Ġp en
ug in
Ġvir tual
Ġbi as
ĠL ie
Ġst ability
Ġn one
Ġv ict
Ġpl atform
ab e
ach ing
Ġm ut
Ġener gies
Ġcom pl
| |
atal og
re y
phant om
Ġbo olean
Ġal ign
il er
ren ch
Ġsur vey
Ġte le
Ġdepend ing
ir it
A p
Ġwant ed
Ġd ou
Ġcon sequence
Ġaltern ative
Ġvari ation
Ġl ost
Ġmach ine
s es
Ġex c
A ut
bo ard
Ġpre vent
h an
d y
Ġp seud
Ġnon linear
ĠL ag
un ds
act ic
Ġdeg rees
un finished
S L
Ġcap acity
Ġma pping
g est
Ġsur v
t iny
ax is
head er
so ft
Pro of
P ol
Ġrem ove
sl ant
pl ot
Ġmot iv
Ġmanif old
Ġdiag onal
Ġreve al
im ages
Ġaut o
Ġra pid
il led
199 6
m eta
H ead
O ptions
Ġth reat
Ġocc urs
Ġany thing
ud get
Ġspec ies
Ġconst ants
Ġbo ard
ĠP al
Ġvert ical
app end
Ġindividual s
Ġabsol ute
} ~
Ġobject ive
pl an
Ġplay er
t rivial
Ġus ual
........ ........
Ġdem and
cor por
Ġhe avy
l ies
Ġoff er
Ġdire ctor
Ġmaxim al
f i
g reg
m em
Ġex change
Ġ\ (\
nav bar
s rc
B S
Ġcharacter istic
eli hood
\ }$,
Ġsem i
i ota
st ructure
Ġfind ing
ĠP at
P oint
ĠIn st
Ġexplicit ly
ĉĉĉĉ ĉĉĉĉ
avel ength
ĠF in
Ġchang ed
O per
Ġ$ ,
ĠR ec
Ġst op
/ (
t ree
ĠA ccording
figure s
ĠE ast
Ġwhere as
Ġle ave
Ġ }{
Ġradi ation
Ġasympt otic
ĠFound ation
k i
ĉ ĠĠĠ
if ts
Ġpr ice
Hand ler
H ence
Ġd ru
d r
D S
ĠComm ission
Y PE
n n
Ġtechn ique
ĠS m
if i
olog ies
W id
Ġ{ };
Ġcomp osition
es e
}$ }
Ġpredict ions
Ġro und
Ġthan k
var theta
ut ed
Ġrad ial
Ġf ederal
Ġsy ste
] {\
Ġc ivil
} |\
Ġf ather
Ġexplain ed
ri an
ot ed
S ch
Ġimport ance
Ġ rac
ĠP re
Ġg reen
ĠCO VID
br as
Ġcandid ate
un k
Ġcon j
B A
I A
Ġphot on
d el
ĠS w
ur ations
Ġro ad
Ġmod ul
m ore
Ġder ive
Ġst ay
}} =
In stance
c at
Ġcomput ational
p rivate
Ġlink s
Ġd am
ĠV ir
form ed
Ġrem ark
Ġluminos ity
m i
Ġderiv ative
ĠOb ject
mag netic
L emma
id a
Ġwe b
Ġarchitect ure
Ġwe bsite
Ġdist ingu
^{ (\
Ġdis pers
R un
^{ *
Ġcar ry
j oy
l at
l aw
Ġb illion
Ġem pty
Ġcont rad
Ġt rivial
Ġf ine
le ctions
fin al
Ġevery thing
ĠG al
Ġpat ients
| }
v ider
par ison
Ġa mb
Ġmarg in
p arameter
Ġn ation
Ġdynam ic
p o
Ġch annels
ser ver
ess ages
Ġ" ""
ou rier
pre c
Ġplay ers
pa ir
Ġsatisf ied
Ġser ver
ran k
as c
as er
Ġdes ired
ĠMod el
Ġab und
Ġactiv ities
Ġn et
Ġqu ark
rop ic
ge bras
ĠComp any
P U
ĠPro gram
Ġst aff
Ġex ception
Ġvari ance
Ġbook s
Ġgiv ing
c uss
wo od
inc ipal
ob j
[ "
f ind
ev en
ro te
l ast
Ġmod ified
Ġcon ven
ell ig
Ġun known
not ation
Ġco ol
Ġdeterm in
ot ion
Ġtre nd
Ġd oc
N ull
im ation
M ax
ĠS uch
ĠS y
Cont ent
Ġser ved
Ġco inc
Ġchar acters
Ġdynam ical
Ġtop ological
S u
Ġmajor ity
ĠC a
" ]
ig ger
medi ate
Ġbul k
Ġsepar ate
Ġe ight
tain s
Ġsur pr
Ġj et
Ġprot ect
Ġso on
Ġm iddle
Ġp icture
Ġ( {\
row ser
Ġcost s
aut o
Ġ+ =
ĠCh urch
Ġform ed
Ġaccur ate
For mat
Ġtest s
pa red
ĠI D
F I
LA SS
cal e
Ġb orn
Ġs aw
) })
\% $
= .
> >
Ġopportun ity
b ran
Ġhigh light
G N
& =\
sub sec
Ġreturn s
[ -
Ġro om
Ġc m
ĠJ ew
\ }\
Ġrel ax
Res ource
199 5
osp ital
Cons ider
x ml
D D
O ff
Ġpro pose
med skip
Ġprec isely
ĠC E
Ġcan onical
sl ash
Ġca used
Ch ar
ot ype
ĠR el
T T
Ġcur vature
Ġh ar
Ġst ated
d f
Ġst ress
g a
Ġproject s
i ber
Ġgeneral ized
Ġfri end
e ctions
T oken
up date
y r
l ines
ĠTe chn
Ġfil es
lo op
1 20
ib ration
w in
Ġrequire ments
Ġrece ive
Def ault
ĠIn c
cont rol
it ative
ĠS M
Ġwork ers
C M
ĠN ULL
et ries
ĠN S
Ġro ugh
Ġsyn the
ve ct
ar a
T ra
Ñ Ģ
k in
f rame
ph as
Ġqu e
ĠSt e
Ġthe ories
Ġmat ching
Ġv s
h igh
ĠP ublic
Ġm other
v s
Ġlocal ly
Ġre asons
Ġw aves
Ġs ociety
j son
Ġinter view
Ġpass ed
AM E
ĠT ype
ĠR ed
u um
ĠN or
Ġprocess ing
Ġsy m
sk i
Ġhim self
b ib
Ġd ashed
: =\
Ġchem ical
st at
G iven
C ase
15 0
Bu ffer
et her
Ġev ol
supp ort
ĠN one
pro duct
Ġrun s
Ġget s
G R
ĠH all
Ġplan et
st d
Ġlaw s
s ive
b al
Ġw alk
Ġis ot
Ġn av
Ġn ames
Ġcomput ing
ĠE duc
Ġmag net
ric k
ĠO ut
Ġpol ic
Ġsh ared
Ġtr uth
Ġ( (
Ġsome one
ĠP ost
Ġw ait
Ġin j
ature s
Equ al
Ar g
not ag
\ |\
script size
H el
Ġth rows
R eturn
L oad
Tr ue
r or
c lear
+ (
Ġsol ar
b p
ĠWh ite
> \
Ġgrav ity
ri a
Ġd imensional
Ġcon vert
id ents
Ġe y
ult ane
D R
Ġd ied
Comm and
ĠSt at
ro sc
Ġsit es
Ġinvestig ate
ĠBo ard
M in
Ġint r
ific ations
c ial
Ġcoll abor
se cond
Ġsuggest s
footnot es
ul er
co pe
m ode
* /
Ġhe at
Ġelect ro
N O
Ġcar ried
// /
go ing
Ġw rote
a uthor
S ee
Ġapproxim ate
Ġres er
bt n
Ġadvan tage
S uppose
ĠCom mit
P age
ist ent
Ġc atch
G e
ĠPl an
cret ary
Ġp an
Ġrest ric
m et
Ġeffort s
Ġimplement ed
Che ck
B l
Ġtra ditional
footnotes ize
ch ron
Ġa ward
199 0
Att ribute
ang er
Ġquas i
as cript
Ġ$\ {\
wit ter
Ġf avor
More over
ĠTh om
Ġrespons ible
c ut
ĠM or
pect ive
ĠAr ch
}\ |
H S
Ġd x
v olution
tikz picture
ĠP ress
Ġstat istics
p ush
- (
Ġequ ality
P ost
re a
ow ers
ock et
Ġsetting s
f ol
Ġhal o
eff ect
k m
Fact ory
il bert
Ġmorph ism
ent ry
d em
Ġ rang
Ġquant ities
Ġmeet ing
Ð¾ Ð
Ġad ding
Ġposs ibility
Ġbro ught
bold math
Ġcl oud
Ġfluct uations
i ation
Ġf ire
Ġinter section
n am
ĠT V
Ġst ochastic
Ġst ru
Ġw oman
equ ations
un t
B ack
ĠD ay
Ġen joy
pt on
Ġann ounced
Ġser ious
Ġorgan ization
is ot
Ġg ave
D o
ig ration
Ġsu itable
s is
Ġw atch
Ġneighbor hood
es ian
I ST
m osp
ver b
Ġdel ay
ii i
Ġlearn ed
Ġcomput er
ĠJ ames
i ant
Ġmove ment
u fact
Ġc ele
ĠSt reet
m om
Ġcorre ctions
ail y
ĠR eturn
ram ework
ful ly
lay out
Ġpie ce
Ġbehavi our
ĉ Ġ
ĠU nder
Ġequival ence
a ver
Ġsequ ences
Ġsom etimes
Ġpath s
or ation
st atus
Ġc ard
ĠAssoci ation
rang ian
H ow
Ġt er
ĠGovern ment
text color
t an
Ġlabel s
Ġpo or
l arge
Ġs on
ic a
Ġcult ure
Ġs il
P O
ĠEng land
^* \
ĠA dd
t w
Ġsub stant
respon se
i as
ĠIsra el
Ġread ing
ĠM ag
to ol
W indow
out put
Ġde v
og onal
g eneral
V ersion
! \
am l
Ġa st
o ice
N A
stit ution
Ġsim plic
v est
ann ed
con ds
) ^\
Ġk m
ĠDem oc
Ġit ems
sc ope
el ines
Ġhand le
g n
T em
Ġb undle
Ġcommun ities
g an
( -\
Ġfri ends
f a
ĠPro f
Ġfore ign
Ġeigen values
L a
fil ter
T S
Ġele ction
Ġhypothes is
ad ow
ar ter
Ñ ģ
pon ents
em y
Ġassum ing
ic ate
Ġt ro
er ior
Ġint ensity
Ġf em
Ġleg is
semb le
ier arch
Ġact s
Ġman ner
ĠL eg
Ġcorre ction
Ġin corpor
or ter
Ġsub section
y a
Ġc lean
X i
av en
ĠG iven
velop ment
at iv
Ġmaterial s
eta ils
tt y
ic ated
ner gy
ĠP ub
in ated
Ġpart ners
ĠG eV
Ġblock s
ĠSer vice
ines e
ĠR ober
f ull
T e
e ks
Ġpolar ization
Ġnecess arily
^* (
b urg
ĠB ook
ĠR uss
P o
anc ing
Ġinst all
Ġsp ac
app ing
ĠBe cause
Ġw rong
ĠC ap
ur ally
V ER
Ġenc ou
C ell
et ween
ĠT ime
Ġreturn ed
duc ible
Ġuncertaint ies
E m
ĠF rench
Ġc op
AT ION
i em
ĠI S
Ġag ents
Ġdisc rim
N E
Ġw al
com put
Result s
ĠFran ce
le ad
p an
Le ft
Ġtr ust
ĠE X
Ġre produ
}; $
Ġre ached
Ġsay ing
Ġtra ce
! ]
F ONT
C reate
Ġschool s
Ġem phas
cl ine
Ġsub group
ĠR ich
tt p
Ġcom plic
Ġt end
r ical
Ġcomp at
P ar
$- $
pl ane
ĠAfric a
. \\
Ġide as
e lect
and er
eg er
Ġis ol
Ġbran ch
c ar
Ġgravit ational
n y
G a
R L
Ġst ore
ĠHig gs
ch mark
Ġparent s
Ġ\ ,\
Ġcontinu ed
Ġimpro ved
ĠW il
Ġdetect or
Ġmin or
ĠS ur
qu ant
Ġquick ly
Ġrefer red
Ġplay ing
ĠB en
Ġsaf ety
depend ence
| ^{
ir med
ĠD ec
Ġpattern s
Ġchall enge
z er
Ġo w
Ġperturb ation
Ġpur poses
Ġrepl aced
ĠInd ian
$. }
~ (\
Ġgrow ing
Ġis n
ĠB er
Ġord ers
Ġprof iles
de v
Ġpolic ies
an o
Ġadopt ed
Ġj ournal
Ġd ra
ĠPh il
Ġb r
Ġapp arent
pt r
Ġm ixed
Ġcharg ed
down arrow
param s
ari os
Ġremov ed
Ġd u
Ġf rag
Ġs izes
clud ed
point s
jav ascript
Ġdescrib es
cor ollary
' ve
rit er
Ġdise ase
pt ic
Ġte ac
m n
ĠCong ress
Ġadj ust
B undle
s d
Ch ild
Ġre se
Cont roller
âĢĿ .
ĠK e
P L
IN T
V is
Ġconf lic
Ġde ad
Ġgener ic
Ġh idden
Ġde vices
ĠCommit tee
Ġpro pos
Ġtemperature s
ro b
Ġmov ed
Ġcit iz
Ġr ational
ĠO ver
' m
ult s
par allel
ĠO pen
in ate
Ġd edu
ĠĠĠĠĠĠĠĠĠĠĠĠĠĠĠĠĠĠĠĠĠĠĠĠĠĠĠĠĠĠĠĠ ĠĠĠĠĠĠĠĠĠĠĠĠĠĠĠĠĠĠĠĠĠĠĠĠĠĠĠĠĠĠĠĠ
Ġreport s
n ol
Ġun ion
Ġ _{\
Ġregard ing
Ġmed ium
199 4
T op
ib r
Ġal one
st rap
Ġw avelength
im its
om y
Ġag ree
un ing
Ġreg ist
S che
ĠE m
Ġal t
ĠS U
Ġchalleng es
1 10
T O
fin ite
Ġpr ime
or ig
L ocal
ing er
class es
Ġnot ion
rib e
Ġ< !--
Ġevery one
ari an
oot strap
ĠB el
Ġoff set
Ġro ck
neg ative
l oc
ĠGerm any
As sum
ple t
so le
g ather
M y
upp ort
ĠDire ctor
S A
ition s
iss on
Ġb ands
Ġw ind
Ġst ack
R ow
Ġsc ope
back slash
}$ \
Ġcateg ories
Ġh ous
Ġexpress ions
) (\
Ġexpl ore
Ġse ven
P RO
Out put
ĠSe cond
ĠS uppose
R I
Ġse c
Ġinter act
h old
ob s
Ġexpl an
Ġth ous
Ġan om
Ġh um
Ġdemonstr ate
Ġquant ity
| $
Ġtool s
AB LE
Ġto ward
ser vice
S ON
B o
il ing
Ġsign als
ĠS at
Ġst ories
ĠUn ion
Ġvac uum
}$ ;
P D
" ).
\| _
Ġaff ected
an i
ĠAustral ia
Ġs end
Ġsim ultane
Ġreason able
Ġunivers al
r ich
ĠE ven
Ġevalu ated
sh ort
air s
Ġent ries
//////// ////////
Ġnormal ized
Ġcor por
stand ing
Ġtrans mission
Ġat oms
cl ip
abe led
Ġconfig urations
ĠAl gorithm
Ġuniform ly
ener ate
Ġcl imate
iven ess
cl aim
ar ithm
Ã ¡
re nce
Ġexpl o
it a
)} (\
on a
ag o
ĠGe orge
circ le
Ġbenef it
Ġelectron s
com ponent
Ġhapp en
Ġun less
ra z
Ġl ies
Ġout er
Ġatt ract
Ġcandid ates
ĠGerm an
Ġfa iled
ĠA nt
Ġmain ly
un s
Ġa w
ĠH REF
ĠEduc ation
Ġident ical
c el
up arrow
Ġneutr ino
Ġsupp ose
S um
Ġtechn ical
Equ als
ĠOff ice
Ġmetric s
Ġsc ene
Ġcomb in
Ġdepend ent
Ġconf idence
Ġflu id
F l
Ġp ackage
Ġinit i
ĠP ort
wh ite
ĠL y
Ġind ices
ĠN etwork
Ġ{ }
C al
ĠĠĠĠĠĠĠĠĠĠĠĠĠĠĠĠ ĠĠĠĠĠĠĠĠĠĠĠĠĠĠĠĠĠĠĠ
Ġmin utes
Ġlist ed
ne ctions
ĠH istory
Ġd ensities
B R
Ġg ir
ĠT ex
p op
Ġrese arc
I O
mat ch
ĠM ost
in stance
Ġpl ans
Ġcom ments
' _{
& &\
Ġto ur
Ġset up
lo od
op es
Ġop in
Ġep is
d irect
Ġread er
Ġevent ually
Ġre ct
Ġdec ided
Ġmiss ing
pro pto
$ ^{
Ġiter ation
d ocument
Ġph ases
us al
ĠT HE
Ġsur round
) }.
g lobal
ĠS D
u a
Ġsp ent
S he
the re
ĠD M
Ġeconom y
con tainer
z a
Ġpl aces
P e
o om
\! \
12 8
Ġ-- -
Ġser ve
20 22
Ġwe eks
lic k
ject ure
expect ed
pi red
Ġat mosp
Ġessential ly
Ġent er
M E
*} [
cont inu
h ang
Ġcirc um
Ġpur ch
; $
Ġanaly z
Ġf ol
Ġd rop
ne ver
Ġsom ew
199 3
Ġ{ @
st yles
ĠA tt
Val id
math it
{ (\
h fill
ult ure
@ {
Ġden se
ĠCh inese
In st
Ġperiod ic
C F
Ġem pir
en ess
Ġchang ing
ak er
Ġcouple d
Ġh und
) ).
un ct
b rid
ip eline
ativ istic
Ġd ot
de p
Ġacc ret
Ġfeed back
Ġ }}
Ġinterpret ation
Ġb udget
bin om
Ġmost ly
Ġabsor ption
ĠM art
ĠF ourier
Ġmix ing
Ġcontinu um
Ġdecre ase
dition ally
G S
H C
ens es
E Q
ĠÂ §
m ember
u cl
Ġel im
But ton
st ood
mod ules
v a
Ġcon clusion
Ġfit ting
T ag
D ep
ject ive
Ġ url
C an
&= &\
se y
Ġdat abase
g in
Ġsuggest ed
Ġgener ating
Ġpart ies
Ġqu ot
The y
k l
th on
( &
)-- (
Ġs en
$ ^
$ }}
Ġclaim s
ex ists
Ġinter mediate
}. }
t yp
Ġpl as
ig u
Ġsp an
Ġcapt ure
inv ariant
Ġredu ces
List ener
ĠMin ister
ro ad
ĠM us
ĠMich ael
in stein
ĠR ead
ref erence
squ are
Ġdevi ation
ĠM ax
poss ible
Ġt ail
_{ +
Ġdire ctions
requ ire
Ġdes pite
Ġcomm ut
ĠJ ournal
Com p
Ġsepar ation
ĠG reat
j pg
ĠCons ider
Ġdi am
L ength
Ġde b
OR T
rem ove
Ġp ages
reg ular
Ġrec ords
Ġbenef its
s ample
ch or
S H
g ment
t ure
Ġin come
Ġinvestig ation
ĠG ra
ĠChrist ian
St yle
T ask
ĠC LASS
i ke
Ġb ill
Ġfrequ encies
sequ ent
K E
Ġinvol ving
Ġattack s
R A
M em
} /\
ĠSu per
Ġturn s
Ġbe aut
P a
' ).
Ġcomple ted
sy ch
Ġopp osite
li k
tain ed
clus ive
Ġoff ers
Ġ{ $\
ĠB oth
ro om
Ġ\ |\
Ġform ulation
m enu
Ġvis ible
ĠRe view
M T
}) ^{
Ġf irm
Ġres idual
Ġin nov
G eV
Ġgeom etric
Ġconv olution
ro ot
and emic
v o
ound s
ĠL og
Ġquad ratic
Lay out
am s
=\ {
m f
Ġad vers
Ġanaly tic
Ġme as
Ġlow est
ot on
Ġrecomm end
ĠEar th
r ating
Ġspe ech
ĠJ ack
Ġstraight forward
Ġhom ogeneous
Ġdispers ion
Ġdis s
U I
$\ \
Ġra ce
Ġscen arios
N on
Ġdep ict
end if
me asure
ris is
Ġlead er
D i
ĠAr ray
Ġwas n
ĠM o
}^{ +
D ec
Ġfail ure
ill er
Ġsum mary
ins ic
w ave
Ġa ware
or ial
ĠT imes
ĠD E
Ġmet all
Ġpl aced
erm i
ar ity
se p
her ical
Ġt ag
O pen
U pdate
Ġfocus ed
Ġdecre ases
ĠGo ogle
Ġsol ving
stack rel
dom ain
Ġaccret ion
Ġc ert
ist an
. $$
Ġinteg rated
Ġindic ated
B O
Ġdiff usion
D O
t z
$ '
Ġinst ances
Ġper haps
C olumn
ic ations
ub ble
ĠB usiness
Ġprofess ional
ps h
E ach
aw a
Ġw ife
199 2
Ġc ast
Ġmat hemat
Ġsign ed
25 6
Se lect
Ġ[ ]
`` `
Ġcomm erc
Ġver ify
ĠM em
Ġext ent
n i
ĠĠĠĠĠĠĠĠĠĠĠĠĠĠĠĠ ĠĠĠĠĠ
Ġman ufact
Ġproport ional
d ens
18 0
low er
ĠS ociety
12 5
Ġcall s
ĠA PI
res p
he nt
Ġsens itive
Ġprec ision
st ain
li p
D es
$\ ,
_ .
Ġatt ribute
Ġfa ith
Ġapp oint
ĠM al
onal d
ĠL icense
< ?
Ġpract ical
Ġinvest ment
Ġexpect ation
pa per
Ġsub t
ĠAn n
Ġp ush
Ġdirect ed
j ust
Ġaspect s
Ġpower ful
Ġhapp ens
off set
Ġ eth
D C
Ġturn ed
ã ģ
Ġinst ant
Ġtri ang
Ġcre ating
mult line
a ud
var rho
ed s
Ġm ill
left arrow
ce il
Ġpolynomial s
ĠAfric an
Ġr ig
Ġtri al
UR L
ĠY ear
com es
Ġh ierarch
Ġ! ==
Ġcon vent
k o
er ies
ĠPro ject
Ġirre ducible
og ram
b or
Ġsk y
d ensity
Ġextrem ely
ou thern
Ġloc ations
Ġas ymm
Ġtransition s
Ġb irth
it ation
Ġstrateg ies
s ince
the less
Ġallow ing
sh ould
ĠF il
ĠR ussian
Ġm ission
Ġstrict ly
Ġbas eline
diff erent
il ation
function s
bu f
Ġf ont
Ġdig ital
A ccording
ĠD en
pl oad
C ON
ĠR ev
Ġmole cular
Ġcorrel ations
U rl
u ple
! !
Ġcover age
ra ge
R ep
small skip
ĠT wo
Ġconj ug
q l
ip art
P arameter
Ent ity
Al though
F L
ĠTex as
M on
ph ase
âĢĿ ,
ĠG R
ĠLag rangian
c p
et t
AR T
Ġ$ ^{
p ower
Ġor dered
rim inal
a ps
Ġlat est
mid rule
est s
h ave
Ġex ceed
Ġautom at
ic ine
Ġtempor al
Ġimprove ment
Ġv ote
We b
U t
f ields
25 5
a o
Ġrec over
P H
ER R
Ġis su
Ġpr incipal
it ness
ĠPh ys
Ġar ri
Ġcry st
Ġstat ements
B L
lo ok
ĠJ er
Ġag greg
rep resent
ist ed
C ar
R R
Ġan c
ĠĠĠĠĠĠĠĠĠĠĠĠĠĠĠĠ ĠĠĠĠ
CO L
M ode
c ard
ic ular
ch ain
Ġsens itivity
text normal
ĠS ocial
Ġmom ents
S F
Ġbal ance
Ġtop ology
Ġtre ated
Ġc amp
Ġcolumn s
Ġ ~\
all ow
lo pe
Ġorth ogonal
Ġorbit al
w hen
is her
ellig ence
Ġ\ {\
\ },
v ents
Ġvari ations
) &
ĠH uman
Ġspec ifically
Ġalgebra ic
ĠO per
Ġeffect ively
ĠR et
Ġm aster
ing ly
at tr
ens us
Ġsyste matic
Ġ\ [
ov ed
M F
Ch ang
ĠCor ollary
Ġg lu
it t
par se
L ong
Ġtem plate
et ch
Ġderiv atives
: </
Ġmodel ing
Ġpers pective
H om
Fil ter
Ġcru cial
Ġl ock
ist ance
Ġpl ays
Ġs ession
Ġgr and
Ġtrans lation
U s
ĠM ary
Ġt urb
Ġcont ribute
Ġdefin es
h l
Ġsu stain
Ġt ang
Ġneut ron
ĠR ad
Ġf elt
ĠB r
g reen
comm on
Ġemploy ed
Ġac ad
00 1
ĠG r
ĠA ward
R ev
}[ !
Ġrecord ed
ĠĠ čĊ
Ġpa int
Ġst ock
ĠPart y
Ġcl in
ortun ately
Ġwid ely
c over
Ġat ta
Ġact ing
k ind
w indow
in du
Ġinst r
16 0
ĠA cc
Ġlik elihood
Ġsim ulated
ĠD uring
Ġpe ace
\!\! \!\!
Ġl ie
A E
Ġprec ise
ĠB rown
ĠD an
Ġn arrow
M D
j i
] ^
p res
Ġenh ance
Ġs al
Ġun iverse
Ġlet ter
II I
posit ory
cite alt
et te
Ġweight ed
Le vel
Ġtrans verse
\ }_{
25 0
ĠR oy
nol imits
od ay
opy right
Ġplan ning
ak es
="../../../../ ../
Ġsub space
} >
form ance
Ġb re
A m
Ġunder stood
st ates
Ġra re
ĠF orm
iem ann
i ance
Ġdiagram s
Ġcon vers
Ġrepresent ing
Ġb ank
ĠAmeric ans
mom ent
leq slant
ĠU N
C N
Ġra ise
sp in
ĠR E
ac ob
Ġch urch
ex ec
s pe
Ġofficial s
F O
Ġ â
Ġc overed
T ree
X X
ve re
im pl
Ap J
Ġ elli
{ |
Ġgener ator
prob lem
Ġep och
Ġfund ing
B P
Ġabs ence
ĠSe cretary
De finition
G u
n ost
Ġtre es
ĠA lex
AC K
Ġl abor
Ġcol lege
Ġdefinition s
G o
Ġsp irit
pro to
Ġs ch
T arget
Add ress
Ġadj ac
Ġad m
ĠF ore
Ġrepe ated
ĠThe ir
Ġrestrict ion
Ġcy cl
Ġch ance
A cc
en a
ploy ment
ĠL ou
Ġstart s
19 80
Ġjob s
man if
A ccess
Ġpa id
a us
Ġapplic able
Ġp red
ĠM ex
Ġcele br
ĠM ac
Ġdriv ing
Ġposs ibly
c is
H O
Ġcho ices
Ġorgan izations
Ġent ity
part icle
r ates
symm etric
in ction
b c
Ġcertain ly
ire ction
styles he
ĠRuss ia
C ache
Ġh uge
ap pe
Ġ })
Ġcommerc ial
" ),
E l
el ian
im um
Ġhorizon tal
text up
++ )
sub equations
Ġelectron ic
ĠA ut
ĠD el
ĠSe curity
Ġhe ard
p ref
Ġstru gg
c are
Ġcharacter istics
Ġto ken
Ġm us
s ch
Ġar c
P osition
ST ATE
ron ic
ru ctions
mod al
' ),
re q
Ġmark ed
K e
Ġcomple ment
ograph ic
\ }.
form ing
es ter
ynam ics
#### ####
k ern
Ġneut ral
ĠDe velopment
Ġperform ing
a ur
ĠS ing
, ...,
Ġdec ades
Ġphot ons
Ġdomin ant
S cript
il t
B U
rie ved
th ick
Ġp andemic
Ġappe ared
ĠD on
ĠL at
B M
ed er
Ġex cess
Ġrat ios
ap se
force ment
Ġtraject ory
com ment
ĠSt ep
Ġrandom ly
Ġany one
ĠDist rict
}^ +
Ġconduct ed
Ġ er
ven ue
math tt
ĠSim ilarly
Pro vider
Ġd rive
est ed
ra ise
d ash
) }$.
S ome
ĠB ill
ĠIsl am
Ġemploy ees
Ġupd ated
Ġn orth
) [
Ġpl us
Ġd ed
Ġre ality
Ġcosm ological
land s
const ra
Ġf its
ĠM usic
ro unds
Ġ\ }
u ra
Ġ* *
ĠL and
T C
ir us
ĠAc ad
ĠProf ess
Ġvers us
Ġsa fe
Ġsche du
ĠF ace
Ġcharg es
D at
Ġp owers
Ġdemonstr ated
back ground
Ġferm ion
big cup
ĠI ran
) ),
Ġperm ut
Ġs ides
Ġrestric ted
Ġinstr ument
angle ment
W ork
cor respon
Ġsimilar ly
Ġadminist ration
Ġc odes
Ġt ight
Ġin clusion
ri p
ject ed
) _{\
ĠG old
Ġfour th
y er
ĠE U
Ġkn ew
Ġfil ms
Ġc atalog
k it
ĠB i
Ġref erences
Ġtra ffic
Ġrelig ious
h ouse
ĠE conom
T ypes
el ess
}} ,\
12 3
ĠH ilbert
Ġv acc
_{ -\
Ġreconst ruction
Ġorient ation
al ty
Ġcre ation
Ġveh icle
Ġtransform ations
c ategory
ĠK ore
vel oper
Ġcl ub
Ġpre tty
ĠSer ies
ĠM useum
ro s
os es
ĉĉĉĉ ĉĉĉ
ta x
not e
w orld
ĠĠĠĠĠĠĠĠĠĠĠĠĠĠĠĠ ĠĠ
Ġcol lected
corre ct
Pro position
ĠCan ad
D ev
Ġp ull
iss ions
ĠA GN
Ġscre en
Ġpix el
Ġmet al
ĠT ur
Ġvary ing
Ġf aster
ĠS ol
Ġsche mes
ĠU V
Ġdec isions
Ġview s
Ġre action
A meric
Ġass igned
i pped
Ġjo in
Ġke pt
t or
ĠG L
ren cy
ill a
con duct
Ġl ibrary
}) =\
ĠEqu ation
Ġdist ances
Ġrough ly
che n
Ġanaly ze
ĠR ob
w t
Ġar rang
199 1
ĠSm ith
ĠB ank
Ġsp here
Ġcall back
f iles
def n
ĠQ ue
af e
pon s
Ġpl ant
Ġcriter ia
St at
Ġrequire ment
Ġsur faces
ash ion
Ġst o
in itial
{ .
Ġinvol ve
ĠM ethod
Ġpriv acy
t n
r b
ĠEq s
Ġca ref
W E
ĠPe ople
Wid th
S ym
at ural
ĠF lor
ap es
Ġreg ression
script scriptstyle
Ġdevelop ing
Ġconf irmed
Ġcam era
ĠS N
ist ence
ĠI II
Ġclos ely
M et
Ġal leg
b ot
pr im
6 00
C ref
F rame
Ġtrans action
ĠC R
Ġat omic
Ġmon itor
ct ic
Ġcontin ues
Ġan im
ass um
if ted
Ġshe ll
ou nce
Ġob j
cuss ion
Ġf arm
Ġviol ence
Un it
G E
sh ift
Ġenvironment al
on av
Ġf lex
Ġwon der
Ġhelp ed
Ġinf erence
ent y
ĠF ederal
return s
Ġli qu
me an
ĠM ass
Ser ver
Ġread y
Ġo il
^+ $
ĠRober t
Ġsub sequent
ĠD iv
Ġextract ed
Ġbreak ing
se m
c ross
ĠDe finition
Ġdomin ated
ĠWe b
Ġim ply
Ġprote ction
art ifact
ĠI d
Ġun iqu
as y
Ġsol d
com b
ol f
og g
ĠF ile
Ġex pos
ent ity
ser ved
ead y
) >
Ġst orage
c rit
Ġinitial ly
En c
Ġtest ed
Ġexc ited
Ġsimplic ity
it ors
Ġf ill
Ġeigen value
ĠS un
Ġstation ary
Ġ Ã
Ġconf irm
ĠL ife
Ġvict im
Ġinvestig ated
Ġbu ffer
ĠS um
res pect
Ġth in
Ġestim ator
M O
Ġnat urally
ĠUS A
Ġinc ident
ĠM er
ay lor
rib ed
Ġfig ures
ĠA R
( _
Ġrem ember
Ġbro ther
T wo
Ġconver ges
n m
t im
Q L
Ġreson ance
gra v
C urrent
Ġcitiz ens
Ġapp lies
Ġcoll ision
ed y
ĠA p
ĠSer vices
M ark
Ġwrit er
Ġem it
ĠâĢ ¦
ĠIn formation
Ġinput s
ĠH el
L R
Ġd aught
Ġd t
Big g
Ġdiscuss ions
leg al
Ġben chmark
Ġhe ar
Ġr ich
B H
Â ł
ell er
Ġsol ved
Ġinvol ves
O ther
ĠS und
av ed
ĠCh ild
=" -
10 1
eta il
ĠO R
Ġbusiness es
ig er
ist or
lim it
int s
ut ils
Ġgu id
Ġk illed
ff ect
ucl ide
Ġhapp ened
text sf
og en
Ġann ual
rid ay
_{ [
ĠE very
Ġth read
D T
Ġdoc uments
ĠP et
A ss
C a
iction ary
Ġstrong er
Ġph il
and ard
F S
p ot
) }$,
v as
A nother
ĠAn y
L C
Pro p
ĠC ode
onav irus
S earch
Ġcompat ible
Ġen able
Ġoper ating
Ġcent re
ou st
\ [\
Ġrecogn ition
Ġindu ction
Ġpro position
B bb
comple te
sing le
Ġsum mer
ĠP y
Ġs ales
Ġpres ents
Ġp ain
Ġmod ules
ĠR ights
Ġexec ution
per iod
ct x
ug ment
Ġsign ature
Ġcoupl ings
ree k
Ġqu arter
Ġco oper
Ġtop ic
uclide an
Ġsum m
Ġjo ined
: (
Re call
Ġflo at
Ġrepresent ative
Ġpr ison
Ġswit ch
] =
Ġex cell
Ġempir ical
Ġd ip
ĠS al
Ġal gebras
d ouble
Ġcompar able
ul ating
Ġc risis
l as
Ġlog arithm
ĠIt s
ĠLe ague
Ġpan els
ur t
sequ ences
h s
ĠE nergy
Ġfl ag
\, {\
Off set
ĠE nd
rast ructure
ĠM any
ĠS pe
P M
Ġcon nections
ĠCent ral
B I
os c
Ġident ification
An y
Ġdru g
Ġconsist ing
ir cles
}{ {\
net work
Ġf av
cknowled g
H ttp
| _
ĠPol icy
ĠL in
Ġset t
p arameters
amp ions
Ġp p
ra pper
Ġrespect ive
Ġanal ys
res ol
re du
val ued
' .
Ġan isot
ĠM et
rack et
ĠZ e
Cont rol
h r
ta il
F urthermore
conn ected
Ġp le
ĠM il
Ġphot o
ĠA L
ĠR iver
ĠA rab
P s
Ġh or
B efore
Ġl ens
B E
Ġen semble
Ġopportun ities
Ġkin etic
Ġamplit udes
Ġex erc
ine ar
re ci
ĠThom as
Ġsuccessful ly
reg ion
Ġw ish
Ġhistor ical
Pro ject
ript or
ĠT om
ĠH am
Ġc at
Ġpaper s
ĠJ ud
Ġ ..
W S
t ex
ĠMan agement
Ġdest roy
sim ple
CO DE
Ġconcern s
Ġdefin ing
und ers
arg in
L ocation
U p
e ach
Ã ³
ĠW al
Ch ange
Ġintrodu ction
oth ing
v dots
Ġb ur
int ro
A rt
al ities
**************** ****************
Ġchalleng ing
Ġlook s
org an
ac cess
G M
Ġgeneral ization
f ound
Config uration
O p
="../../../../ ../../
Ġleaders hip
Ġsc ript
Ġsc ores
P os
n umer
appro xim
Ġcharacter ized
Ġnumer ous
Ġis omorphic
Ġinter pol
p ay
^* _
Ġed itor
' ll
Ġplot ted
Ġsymbol s
Ġs outh
Z E
F C
h u
Ġfun ctor
M ar
Ġdraw n
get s
Ġoffic er
Ġdomain s
Ġresearc hers
Ġunit ary
Ġcan cer
Ġs ave
g roups
il ding
ĠEx ec
Ġab stract
r ust
Ġra ised
' $.
ch annel
ĠM iss
Ġca uses
tem plate
U M
Ġdef end
Pro perties
Ġdiv is
ĠY our
s yn
s v
ac le
Ġopen ing
Ġsecond ary
\| ^
ĠAd minist
d ashed
iz able
Ġillust rated
trans form
} <
ore nt
C K
Ġdiv ided
Ġprob abilities
Ġcontrol led
Ġpotential ly
Ġm eta
Ġauthor ity
IG N
ĠC re
or ney
Ġcover ing
det erm
ab ove
Ġt error
}} )$
ĠT op
ĠF ermi
b ool
lear ning
not in
Ġcomplic ated
spec ial
Ġf ra
Ġm essages
Ġcult ural
t otal
ĠH ill
fin ed
h ard
Ġwh om
ĠC NN
ĠFran cis
od ies
ĠC ase
de vice
angu ages
w s
Ġteam s
Ġch iral
AL L
() ->
I E
] );
Ġre normal
it udes
ĠCom put
ĠW estern
Ġfin ds
pro v
Ġext reme
m ut
ã ĥ
ĠFlor ida
c ache
Ġe mail
Ġprodu ces
Ġscient ific
V ar
const ruct
ĠD et
ĠT or
Ġsimilar ity
Ġm ur
f old
M ain
i en
Ġclos er
ĠG lobal
Ġclust ering
V M
ĠCar ol
| _{\
Ġsimultane ously
if ul
styleshe et
;\ ;
Ġcontrad iction
et he
Ġcon formal
$ _{\
Ġdisc overed
Ġst abil
Ġs lope
Ġto t
Ġsat ell
}{ }
Ġconcern ed
ĠP M
Ġflow s
al ing
198 9
? âĢĿ
ib ilities
os oph
ĠSt ar
Ġconcent ration
Ġcompar ing
e val
ca pe
Ġplas ma
Ġspac etime
fl at
im ent
now ledge
ĠQ CD
I B
r g
in dependent
}} =\
Ġthink ing
ic ago
Ġp ark
Ġm ask
Ġmed ian
ĠInst ead
Ġcons ult
est ival
ĠL ong
ĠB ob
c ou
Ġgener ators
Ġun s
ĠF l
ar ial
icro soft
prot otype
Ġinterest s
b efore
Ġsh ot
f ort
Ġatt ributes
Ġbro ken
Ã Ń
Ġorgan ized
Ġ rows
Ġm ac
Ġsomew hat
na psh
' =
O pt
Ġold er
Ġparticip ants
Ġautomat ically
PE CT
Pro cess
g rid
ning s
v ation
im ately
Ġv ort
Ġreconst ruct
z en
Ġsent ence
j k
artifact Id
Ġpropag ation
Ġd uration
Ġfe as
b etween
t ask
ĠĠĠĠ ĠĠĊ
Ġpur su
F ont
ol es
Ġembed ded
requ ency
ĠJ ose
Ġh ospital
r andom
Ġv ision
Ph ys
es ides
A F
ĠG en
Ġsong s
ĠS am
ĠC reate
Ġcred it
est ic
al so
e an
Ġm erg
Ġenc oding
Big l
as et
Ġcondition al
Ġc ub
to ken
ĠG ener
Em pty
sk y
Ġ ri
Ġle aves
res ource
Ġconsider ation
Ġiter ations
Ġdecre asing
ĠC ath
ĠVir gin
are st
Ġb ary
Ġthan ks
Ġarg s
Ġre ward
Ġb rain
u int
ĠL os
| =
Ġopin ion
ĠTechn ology
Ġgo als
IN E
Ġdist rict
k ers
Ġcontrol s
Ġinterval s
Ġat om
l m
over set
Ġj our
ĠPo isson
ar ma
Ġcrit ic
ĠArm y
Ġdem oc
= -\
Ġentire ly
b d
Ġinteg ers
D iff
Ġw ants
Con tainer
Ġexplan ation
ĠR iemann
St r
Ġsp herical
T YPE
ol a
st ances
ra q
orent z
Ġlarg ely
Ġc ities
Big r
Ġconven ient
ur ance
w ill
Ġturb ul
D L
con nection
Ġsp ot
Ġdis cret
az ine
\ /
Ġp ool
Inter face
ĠR un
T P
Ġtri ed
Ġd ut
l oss
8 00
)= (
cer ning
f ortunately
Ġtraject ories
Ġj ump
ĠFace book
mat ically
Mod ule
Ġfact s
Ġmechanism s
ĠMark ov
ort ion
Ġ& $
h av
Ġp lease
b re
Ġrelations hips
Con n
conn ect
Ġf ib
b x
cl osed
Ġfor ced
d est
ĠYou ng
ĠC la
Ġf ul
Ġc ache
tri ang
Ġpseud o
Ġvalid ation
ĉĉĉ Ċ
ov ing
pol y
Ġdriv en
Ġneg lig
ĠDi rac
Ġfram es
Ġhand s
v in
Ġd aily
Ġv ill
Ġbelong s
& -
Ġpre par
G A
ver age
Ġout come
Ġcov ariance
O ption
Ġfam ous
en um
à ¤
est ion
Ġsupp ly
Ġge odes
He ight
Ġharm onic
Ex ec
t ically
Ġhas h
Ġpres c
os h
Ġfun ds
Ġart ist
Ġang les
rad ius
ĠB ig
id en
Ġv oice
ĠB G
Ġpar agraph
le ep
' )$
P ort
Ġpat ient
Ġend s
Ġread s
Ġappear ance
p ub
Ġsepar ated
ent ed
sc ape
ĠF und
v skip
ĠSc ott
AP I
F ix
Ġbo ost
dist ribution
Ġch art
Ġperturb ations
Desc ription
Ġcirc uit
ri age
rosc opic
Ġopen ed
Ġe cho
Head er
ry pt
er ve
t ml
r as
Ġl en
and ra
}\ ;
Ġdef ect
Ġconserv ation
19 70
Ġd ie
ĠO ffic
h ow
: "
Ġtarget s
} ~\
f n
Ġb lood
Ġcomp re
W rite
Ġfind ings
Ġz one
k ins
k ip
comple x
Ġs we
m etric
b lem
we ak
Ġpost erior
ot ing
ad s
p ic
Ġinter ior
de bug
H D
Ġcomp ens
Ġ$\ |
Ġw itness
\, ,
ul ing
Ġhol es
Ġu int
ĠB est
S ign
ĠU se
it led
equ al
group Id
) |\
Ġf ear
ĠF riday
Ġco herent
ĠEx t
ond ay
Ġconflic t
bu ffer
Ġar rest
> ,
Ġsmall est
COL OR
Ut ils
ĠF urther
s ym
os is
Ġorig inally
um ul
p atch
B B
N one
Ġcompet ition
Ġvan ishes
ĠOb ama
n one
Ġthous ands
Ġp arams
li e
az z
U nder
D own
Ġdec ays
Ġnormal ization
ta ke
. },
Ġown ers
Ġbound aries
p he
Ġsupport s
bel ow
H ash
Ġconvent ional
U til
Ġbu y
U se
Ġp et
Ġwhe never
ĠSund ay
Ġpl ots
Ġrespon d
Ġl abeled
Ġpass ing
Right arrow
li ament
and a
t ypes
Ġb us
ĠW ed
og ether
in ternal
Ġpix els
Ġg ate
ir ror
ĠReturn s
ĠN ext
Ġsplit ting
Ġman ager
Ġveloc ities
ph one
lear ly
ever theless
Ġperiod s
Ġinstit utions
h ash
Ġcol d
Ġimmedi ate
tri angle
Ġart ists
Or der
al led
l b
ĠOn ly
w est
st ud
ĠAng eles
ĠA nother
ur i
Ġintr insic
t b
Ġstand ards
Ġp adding
Ġent anglement
Ġcl ients
al f
ĠN on
. (\
Ġsur ve
Ġg old
su ccess
R ange
St ep
h ab
Ġtele vision
AN D
ĠB as
ĠB H
G s
Ġk ine
Ġor bits
Ġ ray
Ġsk ills
doc s
b ootstrap
N L
Ġart icles
ĠS i
h ar
M ulti
M r
ĠH en
Ġreal ized
ĠEng ine
Ġall oc
P arams
V AL
cl os
Ġpul s
mathbb m
Ġ }$
Ġf ans
ĠV is
ĠJust ice
' $,
Ġexhib it
ĠS up
Ġb ra
ĠFran k
Ġsex ual
ĠV er
Ġar ise
Ġissu ed
Ġ> =
ip ment
ĠEx ception
Ġag ency
Ġexec utive
ã Ĥ
u v
Ġabund ance
maz on
re ct
ĠM C
ear ning
Ġme ant
ĠN ov
ĠA uthor
phys ical
Ġp ri
the ory
ĠR oman
ĠT witter
ĠN GC
Ġex ponent
chang ed
at re
ĠC am
Ġm obile
Ġbecom ing
}) _{
r ations
Ġcriter ion
Ġtal king
symm etry
Ġsubset s
ĠMon te
Ġow ner
ĠC H
ifi ers
ĠAg ain
l am
ĠL O
at ivity
ĠCanad ian
Ġimplic it
P ub
ul as
pert urb
Ġsen ior
Ġoff ered
Ġtr unc
erm an
Ġliqu id
M enu
Ġdistingu ish
ĠW ay
Ġto uch
Ent ry
Ġle aving
Ġcomp osed
her ic
Th read
per son
Ġun defined
Ġmov es
Ġrec urs
N AME
HT ML
Ġcustom ers
se par
sub stack
Ġadjac ent
as ion
] ^{
y an
Ġaff ine
u rable
ĠW ell
cc c
Se cond
Ġweak ly
}_{ {\
ĠW omen
Ġsp arse
ĠP eter
Ġro ots
Ġin vert
V er
l floor
av ity
ur day
p anel
Ġindependent ly
ĠChe ck
ĠM ad
Ġint ended
Ġguarant ee
Ġcar bon
ĠD ate
b order
ä ¸
s ite
N um
Ġproper ly
Ġc row
Ġ$ <
ug ins
Ġt ick
un ic
ĠR oad
' }\
du al
)} _{\
Ġdis joint
od d
Ġ} {\
Ġd anger
Ġro ll
Ġcounter part
ĠJew ish
ĠN OT
Ġp m
Ġvers ions
Ġkeep ing
Ġcont roller
Ġdescrib ing
ĠA ND
D ocument
Ġanaly tical
here nce
ĠArt s
ĠI raq
sh ape
viron ments
ser ve
inter face
Ġperm it
ar n
b olic
Set tings
\\\\\\\\\\\\\\\\ \\\\\\\\\\\\\\\\
Ġstand s
Ġd oll
Ġpop ulations
Ġfore st
Ġk ids
ĠMed ia
Ġconf erence
Ġord inary
eles cope
includ ing
Ġtw ice
Ġcommon ly
Ġjust ice
Assum e
ĠÂ £
Ġdifferent i
} &\
S l
ate ver
}) )
App lication
ĠSh ow
unc hed
ic ial
Ġli ber
in ating
con v
ta ges
Ġ$ [\
Ġhapp y
Ġadv oc
r floor
hol der
u zz
D ir
a ug
fra red
hom ology
ĠH y
Ġreveal ed
Ġpolit ics
Ð »
ĠLou is
pro perties
Ġext ensive
Ġprim arily
Ġvis ited
. }\
b en
Ġse cret
at o
E CT
ĠAssum e
if er
198 8
Ġim possible
C I
in ity
ari a
Ġwe ap
D irect
ĠD u
ĠÂ »
em por
cul es
Ġcol our
display math
ĠI ll
p ress
ĠI ss
Ġaccept ed
ĠCh icago
p otential
ex perim
Ġcirc ular
Ġne ither
Ġpart ially
H ome
ic ons
)} =
ĠS pace
g ls
Ġpeak s
Ġasympt ot
Ġ( "
198 7
jo in
Ġag reed
sub float
f ixed
ST R
ĠRe port
Ġro ut
Ġhy brid
Ġstruct ural
k t
Ġw arm
Ġst eady
ri end
Ġded icated
Ġfoot ball
ent er
Ġcon dens
Ġcompre hen
Ġpoint ed
Con nection
Ġpul se
Ġeas ier
Ġconstra ined
Ġdaught er
Ġcoll apse
res ize
Ġc ircles
bound ed
Ġm ys
end ar
oid al
ĠT im
T im
Ġcoll isions
ĠJ es
la ps
Ġ$ $\
Ġch apter
urb an
R S
plic it
$ (\
H M
all ery
Ġcon e
Ġa ugment
Ġ ĉ
Ġend ed
Ġlinear ly
As ync
ĠA M
Ġfac ilities
Ġc riminal
Ġdiff er
E ng
J ohn
d ict
Ġfem ale
ĠEX PECT
Ġinf lation
Call back
ul ator
Pro t
$ /
Ġcosm ic
Ġhel ps
Ġd war
ĠIn vest
h orizon
r ase
Ġdou b
ho le
ĠI r
Ġlat ent
de ep
Ġse conds
Ġbrief ly
Ġhom ot
op ed
ĠMus lim
ĠC ON
Ref erence
Ġreal istic
f r
ult y
rom e
~ (
Ġaccount s
P ass
Ġh our
Ġsupport ing
ĠS O
Ġindic ating
Ġn om
Nav Bar
Ġrob ot
D et
198 6
}. \
ĠE uclidean
Ġw at
ĠCommun ity
Ġoffic ers
Ġch ief
mat erial
ĠTr ue
ĠA ff
Ġm ental
urs day
AG E
ch itz
Ġ{ {
en v
r ative
ĠM iddle
ist ing
& #
Ġview ed
ce ived
Ġun iversity
Ġres idents
const ant
s id
Ġdel iver
f ix
& $
Ġhe av
Ġwor st
f amily
g ray
ĠI P
Ġ raw
Ġoutput s
med ia
ĠG ood
ĠIntern et
âĢ ħ
ĠM ath
Ġintegral s
ĠL ocal
Ġnon zero
ĠO h
Ġmat ches
ro g
Ġl aser
Ġsee ing
Ġcr ime
}) -
Ġcorrespond ence
Ġsh oot
Ġcho osing
ic ians
v m
Ġl ived
ĠM A
Ġp sych
et ies
}= (
Ġd y
Ġadv ance
Ġ ::
Ġ{ {\
ar ation
is en
Ġf iber
R C
S N
Ġdeterm ines
R ed
ot i
ĠR equ
ĠEx ample
ĠJohn son
id el
Ġanalog ous
Ġw el
Ġde partment
St ore
re lation
Ġpart ner
g ood
Al so
V ol
ou ds
Ġdedu ce
co ordin
Ġadm its
nes day
Ex ample
us band
Ġb an
it tle
ĠS ta
de lete
ĠProfess or
p mb
Ġconsist ency
Ġmay be
spec ific
Ġacc ord
unders et
ut ely
ob serv
place ment
ĠWil son
ul s
ĠR ock
Ġsuff ices
}, {\
li ography
cl ick
f g
Ġrelax ation
T ab
Ġph one
================ ================
ues day
Ġdef ense
is ters
Ġrapid ly
D r
Ġn ine
ĠH ome
P at
G r
ĠI mage
Ġover lap
Ġre ly
ĠRich ard
= (\
Ġcol ors
ĠB a
ĠU s
Ġp ion
Ġf ashion
Ġhe ter
th ree
Ġm ere
S ing
Ġl ic
ow ski
Ġarg ue
super vised
}} }{
V ari
Ġref lection
Ġstudy ing
Ġout per
Ġinf rastructure
t ensor
ĠM onday
C ore
unn el
T V
S ession
ĠE instein
; ->
d p
ord ers
Ġexcell ent
ide os
c ounter
ann er
ĠIsl and
M a
Ġamount s
Ġgu ess
Ġmarg inal
Ġaud ience
s end
g iven
Ġ" \
Ġdiss ip
ser ies
ĠPar is
Ġacad emic
Ġref ers
Ġbig gest
ĠH T
U LT
Ġcal ibration
A cknowledg
ĠAcad emy
=" /
Ġsm art
ĠRoy al
w ords
ig an
U V
V ector
G eneral
an aly
Ġorder ing
Ġro ute
aw s
re ement
Ġmor ning
Ġser ves
et ing
D I
Americ an
Ġn ative
it eral
Ġbos on
Ġproject ive
Ġillust rate
ir ms
Ġformal ism
foot er
). }
Ġfac ilit
ane ous
z y
Ġl anguages
}}\ ,
Col lection
Sim ilarly
Ġposs ess
ĠMart in
Ġde part
ĠL ee
equ als
w p
in n
11 1
) )$.
Ġisol ated
f ramework
Ġcount s
Ġpract ices
Ġsepar ately
fin ement
ĠV iew
Ġsurround ing
an ish
Ġse vere
f ocus
l ife
re land
center line
U psilon
Ġover ride
Ġredu cing
Ġproced ures
Ġapp reci
Ġexam ine
Ġbelie ved
fact or
Ġinterpre ted
Ġclaim ed
ol der
\ }}
ĠL orentz
O K
j a
Ġprob e
Rec ord
Ġtherm od
ĠSen ate
Ġb its
Ġpre ced
vert ex
is y
Ġcommit ted
ĠB re
Ġg lob
D IR
T itle
tem perature
G raph
Ġin sp
Ġexperi ences
Ġcool ing
P arameters
in line
Con st
Ġlog ic
al d
Ġin fo
) |^
ub b
Ġd il
Ġdeterm ination
ĠT aylor
ĠCor por
Ġb atch
Ġb on
Ġspeak ing
Ã ¼
cons istent
' >
Ġpro min
ĠSup reme
s n
Ġwor se
re nder
Ġde formation
Ġcon sequences
Ġsit uations
Ġteac her
Ġaver aged
ic ed
Ġins pired
Ġte aching
Ġs ports
is er
ĠOr gan
ĉ čĊ
Ġsyn chron
al actic
Ġw ild
un iform
Ġrec overy
Ġmar ried
Ġstring s
gy pt
" ))
e per
Ġcol le
ogg le
ili ary
% ;
Ġinfin ity
Ġport ion
AC T
l an
Ġf iled
im it
Ġcorrel ated
ĠVirgin ia
b ind
Ġ* )
Ġproject ed
Ġ\, ,
ple x
P arent
ĠMex ico
' ',
Ġcop ies
R ad
sh arp
Ġw ire
ne ut
Ġ il
Int eger
D ist
ĠJ acob
ce an
st one
Ex perim
Ġcon jecture
Ġut ility
Ġnumer ically
ent ric
Ġinter ference
+ $
um ps
j et
ĠT re
Ġad vert
Ġfil led
M s
Ġgener ality
() :
Be cause
c ustom
Ġd ream
}} }$
Ġse a
ĠMed ical
}^{ (\
pl ugin
G en
Ġst ored
Tem plate
Ġne ur
F P
ct r
Ġman ip
Ġupd ates
Ġre vers
Ġcor ner
Ġtrans mit
no ise
Ġcon clusions
ĠC are
Ġear th
ult ural
I ter
Ex ternal
J son
re ds
Ġperform s
ĠB ack
\ -
ĠP ers
cell color
Ġcl ick
) !
EE E
F OR
Ġsh arp
Ġindu ces
con c
Ġanalyz ed
se q
Ġj av
\, .
Ġb low
$ --
an alysis
Ġb log
}\ !
ĠA st
Ġcy cles
pl ing
Ġsee k
w as
13 0
respect ively
ĠC all
ĠSpec ial
Ġa ux
Ġst ages
}\ }$
Test s
Ġs ell
Ġfin itely
ant ly
Ġinstit ution
S G
tr im
add ress
Ġtr igger
lect ric
, (
Ġmys elf
Ġsh aring
ĠO nt
Ġoccur red
ĠS E
' }$
Ġatt end
ips chitz
to String
Ġco ok
in er
ĠA re
math ds
d ynamic
Ġr u
p redict
Ġpre pared
Ġcontain er
oun tain
est amp
Ġde lete
Ġa head
H R
or row
u able
Ġpercent age
D om
th rough
Ġsegment ation
id al
G G
Ġco al
Ġen vironments
f ony
Ġsurpr ising
AN T
Ġlook ed
I con
ord an
ĠFor ce
ul ner
ĠStud ies
}_{ (
ĠJ o
}( -
Ġrequest s
Com parison
Ġexcit ation
Ġepis ode
Ġvir t
T ool
Ġdisc over
ĠR ight
ĠMa jor
W A
ran ch
ĠCh ief
Ġw est
Ġdi verse
ĠN ame
Ġauthor ities
Ġp ipeline
ĠSat urday
Exp ression
* \
Ġmathemat ical
w a
ten ess
Ġmon ot
Ġpropos al
ĠĠĠĠĠĠĠĠĠĠĠĠĠĠĠĠ ĠĠĠĠĠĠ
Im pl
ĠAs ia
a uth
b es
m argin
Ġsubstant ial
in cre
ex ports
Ġp y
Ġrestrict ions
Ġexpand ed
rom ise
or ient
Ġb ars
Ġx ml
Ġhom omorphism
Ġtell s
B as
Ġun d
h d
cent ly
B ound
}$ ).
Ġexpos ure
cur s
Q ue
ad ed
ĠL ead
Ġlimit ations
Ġsem antic
ĠCent re
Ġmetall icity
at he
198 5
{ [
âĢ ĺ
Ġnot es
ĠS om
Ġreg ister
198 4
Ġprov es
Ġdec ade
ink ing
S pace
Ġey e
ĠPol it
Ġassoci ation
Ġsh ares
cl oud
âĢ¦ âĢ¦
Ġan tic
Ġveh icles
] _{
ĠS k
Ġanom al
ĠB ern
Ġclos ure
Ġg ender
ĠRe call
" ));
M I
ĠO nce
Ġpotential s
Ġf aces
ĠB an
ĠJ ul
Ġequ als
Ġfac ility
Ġbeaut iful
Ġelement ary
ĠL ast
AT H
in et
-- >
Ġtri angle
R T
r ants
auto ref
' )\
Ġem ot
ĠChar les
v v
Ġtri ple
Ġb rand
ĠB ase
Ġloss es
P ORT
B ased
Ġgener ates
Ġgu ide
ex pl
Ġadv anced
Ġcorrect ly
end ment
\| _{\
Ġclin ical
ple ctic
Ġprov en
Ġ$- $
Ġa cknowled
## #
Ġrel ativistic
In itial
Ġquot ient
Ġre plic
Ġob st
K S
Ġmat ters
Ġs un
Ġprinci ples
ĠU ser
Ġcon cerning
Ġcircum stances
Ġb attle
C s
un te
Ġp rices
ĠCl ub
, ~
im od
Ġm m
Ġre n
N T
Ġnear by
ĠĠĠĠĠĠĠĠĠĠĠĠĠĠĠĠ ĠĠĠĠĠĠĠĠ
Ġdam age
Ġh usband
ab y
Ġcall ing
Ġphenomen on
Ġrang es
Ġneglig ible
Sum mary
ator ial
ĠG rand
Ġmult ip
ĠE vent
ur ies
F in
Ġinst ability
Ġd iversity
Ġcover s
u pper
ĠA T
d z
Ġacceler ation
ĠCath olic
ĠE rror
Ġ\ #
Ġd river
{ %
clud ing
s ome
ĠSpec ifically
ĠC P
Ġmark ets
ĠK n
Ġpre m
1 12
ov a
Ġt ens
clud es
Ġinv oke
Ġpure ly
Ġclass ifier
' ))
irc raft
app lication
C G
Ġcould n
pro file
l att
ĠE nt
er os
ĠM eV
left rightarrow
Met adata
C lick
}| ^
ĠCar lo
Ġso le
ĠAr g
art icle
Ġ ),
ĠBG COLOR
C B
ĠV ict
she ll
( :
Ġsymm etries
au x
Ġviol ation
par a
Ġn an
sat isf
oun sel
Ġhous ing
ĠB ur
ĠRem ark
as tern
Ġro les
rat io
}} +
Ġreli able
Ġun stable
r f
Ġlink ed
ater ial
N G
equ ival
k g
' d
Ġlegis lation
dis c
Ġrecogn ized
ari ate
ab out
ĠS il
Ġdisc overy
th an
hy per
Ġint elligence
( |
Ġun ity
Dev ice
co in
Ġembedding s
Ġab use
Ġan not
Ġenh anced
s ession
ĠAs sembly
Ġengine ering
Ġpie ces
ĠAs sert
On ly
sp aces
10 5
ms g
G ET
deg ree
w all
ok es
Ġcomplet ion
Ġcor onavirus
Ġequ ipment
H ost
ĠE st
Ġcut s
H as
ĠB ol
Ġ ^{\
Ġg one
Ġar ises
c ov
el d
ist ically
Ġla unched
Ġsample d
ific ate
Ġter rit
Ġs ensor
ĠT O
Ġinv ariance
Ġappe al
Ġdisplay ed
ĠC ivil
st ellar
Ġse p
ex port
Ġre form
ĠI reland
prot ect
Ġm ock
ĠIt aly
Ġfail s
ik i
ĠHe ad
. âĢĻ
ĠRet rieved
da p
ĠĠĠĠĠĠĠĠĠĠĠĠĠĠĠĠ ĠĠĠĠĠĠĠĠĠ
De cl
C V
Ġcapt ured
ĠF amily
Ġvan ishing
Ġtr uly
Ġde bt
Ġsignific ance
ĠC y
ST M
c opy
ĠP age
co q
em ail
ho ok
Ġen abled
ĠN et
l r
Ġd ialog
f ast
ĠJose ph
v able
ang ular
d riv
ĠTh ursday
14 0
S i
l arg
Ġman aged
Ġaud io
Ġneighb ors
= {\
m en
ĠD ue
ĠW he
b ro
ĠW all
Ġexpert s
on ym
writ ten
ĠP DF
F ound
ĠE v
ĠWed nesday
Ġdis order
h ome
Ġre v
ĠN O
Ġmod er
ĠK ey
Ġsupp osed
ĠJ im
Ġprogram ming
res olution
t k
n el
}{ $\
A pi
red it
Ġhe aring
ĠL o
ĠC A
ĠS che
di am
Ġcommit tee
Pl an
Ð º
Ġrespons ibility
Ġcombin ations
Ġvir us
ĠM L
Ġ\\ [
ĠTh rough
A v
ĠD iff
Ġbegin s
@ {}
at en
Ġ ens
Ġim aging
Ġpar se
w ater
Ġderiv ation
it ar
Ġg un
Ġwe alth
on line
^- $
Ġd s
com pact
ERR OR
Ġ$ -\
ĠU p
Ġenc oder
ĠA v
Ab out
Ġrepl acing
Ġsign s
Ġ ice
Ġsec ure
tra ining
Ġst uff
Ġlist en
AC E
K L
st ore
Ġmulti pl
leg ate
Ġcollect ive
Ġfrag ment
Ġf an
Ġcross ing
pol ar
OR D
ĠT uesday
Ġfam ili
=" _
P ref
dep th
ĠA ction
Oper ation
depend ency
be cause
Ġes cape
Ġhol ding
op ing
vir tual
Ġcan cel
sol id
ĠRes ults
ĠF ree
ĠF ield
Ġaccom pl
Val ues
or bit
Ġassess ment
Ġdec ide
p ool
Ġconcept s
Ġf ellow
ĠJapan ese
Ġgreat est
Ġtechn ologies
) }^
Sche ma
Ġcent ered
Ġa part
Ġlocal ized
ĠJ ones
ĠP enn
or a
Ġpers ons
ĠM ont
Ġregion al
Ġhol omorphic
Ġgir l
Ġ\ }$
Ġent ities
Ġform ulas
top rule
Ġdiv ision
t ered
ĠE gypt
M any
Ġmole cules
ĠM ap
Ġmov ies
ĠN umber
ru it
~~~~ ~~~~
ĠCE O
Ġobserv ables
b ad
miss ible
ĠP oint
ĠCol or
f ly
lish ing
il inear
exp and
k w
im a
pa in
u an
Arg ument
Ġfit ted
ĠC oll
Ġincreasing ly
cl uster
Ġke ys
F lo
Ġag encies
Ġintrodu cing
in sert
Ġcap able
ado op
Ġdeterm ining
S erial
Ġf re
ĠGe org
Ġin sert
ĠR am
ĠJ eff
Ġobserv able
Ġen ables
Ġoscill ations
es h
f requency
ur is
Ġencou rag
al ian
ĠVal ue
}) (
rap y
Ġknow s
ou ch
Ġab elian
Ġpl ate
Ġinter sect
if th
ĠS to
ateg y
Ġm iles
ad y
ĠI V
opt imal
sh all
am ed
Ġd og
. '
Ġdetermin istic
ag ram
ph oton
_{ {
p resent
IT Y
W ar
Ġ era
Ġtrac ks
e fficient
="../../ ../
Ġm al
fig s
}}\ \
ĠGal actic
Ġn ice
Ġl ab
Ġtra dition
ĠAustral ian
b oth
ost on
Ġcomb ining
$ =
Ġfin ished
Ġtor us
Ġsynthe tic
ig ital
ĠC art
ut able
Ġarg ued
ĠL ibrary
ĠF unction
ĠOb serv
S ol
ron s
stand ard
Ġhydro gen
u er
Ġtang ent
c b
] ]
v ance
ĠT em
ĠD C
Ñ ĥ
Ġhead er
out e
Ġspec ify
sim ilar
j ections
ĠG rant
Fig ures
Ġout comes
Ġfor th
ĠP ower
ĠP ak
Ġp il
Ġcomm ission
hand le
Ġqu eries
IC E
F alse
Ġsuper conduct
ĠN E
Ġev ident
Ġdeb ate
ĠM el
S ION
re place
p in
Ġt ends
Ġa pi
ĠSp ring
R ule
Ġfeas ible
____ ____
is ks
big skip
w er
Ġim posed
Ġlo ops
Ġent ered
Ġsubject s
ĠC D
i ra
19 60
^ +\
ĠE uler
p adding
s en
ĠPal est
Ġassign ment
Ġin her
)\ ,\
Ġelli ptic
Ġresol ve
Ġsingular ity
Ġdown load
Ġs an
ĠDiv ision
ch arge
Ġhyper bolic
Ġ\ :
Ġimag inary
Ġch a
Ġm it
% %
Ġconsum ption
M ay
\' {
gra de
Ġfrequ ently
198 3
ĠBrit ain
i y
Ġshe ar
* {-
Ġlimit ing
air man
Ġb inding
st ats
ĠWh y
P ackage
Ġb urst
Ġclass ified
Ġpermut ation
l anguage
Ġdeg ener
cre p
block List
^{ [
set length
ĠAdminist ration
Ġneighb our
Ġhelp ful
w rap
ĠN av
Ø §
Post ed
Ġatmosp here
In valid
Ġelect ed
Chang ed
s ys
Ġbuilding s
ĠAd ditionally
gener ated
Ġ[ '
ĠSci ences
7 00
Class es
B s
ĠA mazon
Ġrad ii
Ġcl ock
y d
Ġby te
D uring
ru ption
ĠW ood
), (
Ġfe et
Hel per
sec urity
ĠA P
Ġhelp ing
Ġexperi enced
G P
lead ing
Ġtrac king
Ġfore cast
Ġre new
Ġad vice
com ponents
Ġpresent ation
ĠP an
ĠT own
ĠEn vironment
ĠC ho
Ġcomprehen sive
- {\
Ġext ensions
ĠKing dom
' ],
Ġinequ alities
Ġco homology
ic ian
ke ys
l g
h skip
ĠĠĠĠĠĠĠĠĠĠĠĠĠĠĠĠĠĠĠĠĠĠĠĠĠĠĠĠĠĠĠĠ ĠĠĠĠĠĠĠ
vious ly
Ġcheck ed
ific ial
Ġbroad cast
c ceed
Ġseg ments
re newcommand
Ġregular ization
Ġcont ribut
am in
Ġobvious ly
S m
N C
Ġsh ip
ap ed
ĠC r
Ġdi vergence
Ġsub stit
Ġfraction al
Ġult imately
correspon ding
Ġg lass
Ġ )$
n ic
ĠCon f
Ġb ond
ĠT R
In v
Ġj ets
l ate
s ort
ps et
Ġequ ally
ĠTr ust
Ġregist ered
Ġbring s
am ber
char acter
P op
Ġpro ton
bib liography
N ames
tain ing
s ymbol
B T
Ġmultiplic ation
Ġkin ds
ident ial
ĠM ur
cal cul
Ġv ulner
Ġrema ined
Ġefficient ly
ĠCarol ina
Ġindust rial
Ġfil ename
U L
Ġproport ion
Ġmus ical
bas ic
x rightarrow
S w
m aster
ĠD ev
ĠNot ice
Ġa id
Ġfil ters
Ġassist ance
Ġe ast
hel p
Ġc od
ĠAb out
b orn
osoph y
> $
form er
by te
i pp
N etwork
eq q
Ġprof ession
$& $
Ġhom es
B ook
c ost
=" ">
Ġdis pl
sp ring
S tack
Ġobserv ational
Ġclass ic
col head
Ġdirect ory
ors ion
Ġn a
Ġvari ability
Ġyou th
Sh ow
ict ures
m ix
om a
Ġel astic
set tings
Ġdot ted
Ġne arest
Ġas sets
B F
Ġexerc ise
) ~\
Ġdom estic
Ġattempt s
Ġcont roll
] _
10 2
[ $
Ġus age
ĠAn alysis
moment um
) /\
h over
Ġwh atever
F ollowing
g tr
Ġm ob
nost ic
ĠJ oe
ĠM S
Ġaff ord
Ġresol ved
Ġm u
n p
, .
Ġs ight
ĠL u
}} +\
Ġwin ning
Ġsus pect
L in
att ribute
198 2
it an
ick er
ev ents
Ġb odies
Ġent ertain
Ġmes h
W ill
Ġadd ressed
' (\
osp it
Ġprom pt
Ġreg ulations
al and
A x
V D
E rr
Ġparamet riz
Ġferm ions
fra g
is ons
ht bp
Ġabsol utely
ac ific
Ġmar riage
ĠNew ton
am ing
ĠH om
bo olean
Ġcollabor ation
Ġaim s
y es
Ġref ere
ĠL ord
s ig
Ġtop ics
): =\
ĠCon sequently
v c
ĠOnt ario
ion ed
bran e
Ġre aches
ĠDes ign
Ġadvers arial
Ġappro ved
M ock
ri ers
s un
Ġv ice
Ġv ideos
r ig
con j
In deed
Ġrece iving
s mooth
ĠSt art
fe ature
Ġde ploy
ple ments
dist ance
11 5
Ġpay ment
Ġdifficult y
> .
ĠP lay
P AR
import ant
L o
on ed
Ġde veloper
Ġb oy
}{ $
re r
ĠF ollowing
+ |
; /
Ġs pl
Ġqu bit
i ab
Ġcon sec
lik ely
ĠHT ML
sc ription
t ot
"> &
Ġ( '
ĠExec utive
Ġrem ote
Ġprodu cing
Ġpublic ation
ĠSp anish
Ġfound ed
E V
U P
Con f
Ġmod ify
Ġin dependence
Ġfamili ar
b urst
it ud
ĠKore a
}} ^{(
Ġdo or
Ġensure s
Ġ' /
s ens
vel ope
u u
um es
Ġpol l
st op
( *
ĠF act
J ECT
Ġmix ture
Ġa ctor
riv acy
Ġ\| _{
ĠD ep
M c
fol io
Ġdiscrim in
Ġaccord ance
pl ugins
Ġall ocation
) <
/ .
Ġb urn
ĠC S
Ġdepict ed
Ġappear ing
C re
* {\
ĠT er
Ġm ale
ĠD at
Ġ erg
Ġhund reds
Ġse ed
}) }\
Ġsp end
U RE
Ġrespons es
Ġsu cceed
Ġexplain s
l ined
ĠL abor
Bo olean
ĠT ext
ma y
Ġemploy ment
Ġc avity
Ġr id
cm d
}$ $
napsh ot
D el
ĠR ay
ĠLi ke
anc er
Ġf usion
Ġcl ouds
Ġv ast
al a
A c
Ġann ih
F ull
}. $
Ġb ins
B N
it ian
fo o
Ġtot ally
Ġvan ish
ens ed
ĠU RL
Ġcorpor ate
cho ose
C ho
M ost
Ġmodul i
Ã ¶
tra ined
& +
Ġsh ut
is ition
M atch
Ġdeal ing
int on
Ġneg oti
sc reen
im b
m ic
bottom rule
> ();
Ġo s
]{ ./
Ġproof s
process ing
al let
t rack
Ġaut omorphism
dis abled
Ġout flow
E P
}] $
ĠM ulti
Ġalign ment
Ġstre et
se lected
ed it
ĠOr der
ĠSt r
ĠL ake
Ġeffect iveness
ĠLi ber
i ers
ĠB ased
h adoop
m ove
Ġarm s
Ġey es
l ers
ĠSt andard
Ġrelig ion
De lete
Ġconver ge
X ml
ĠA N
le ments
Ġanim als
Ġachie ves
R est
Ġser ving
ĠP op
Ġanalys es
ĠN Y
Ġare n
Ġdel i
Ġla unch
Ġp ose
Ġexp ensive
et ary
ab et
^{ {\
ĠR o
IM E
ĠS C
}_ +
ateg ories
âĢ ¢
Ġins urance
Ġad mit
Ġdiam eter
un ed
Ġon going
le e
Ġre nder
a iled
Ġlegis l
ĠM aster
Pol icy
198 1
or ters
Ġby tes
ins on
ĠA D
ĠCont rol
` .
Ġ urban
Ġprov isions
By te
ĠM ach
Ġconserv ative
Ġobtain ing
Ġdis appe
Ġprov ision
text style
ran ce
}] \
ĠCon stitution
Ġre venue
Ġread ers
Ġre verse
Ġcontinu ity
Ġaux iliary
m ock
F IG
ĠJes us
C ustom
trans ition
E st
ĠO ld
re v
Ġlocal ization
Ġins ight
Ġplan ets
or dered
}, \\
T A
raise box
der iv
Ġcomput ations
Ġflux es
alax y
qu ality
rict ion
manif old
Ġband width
on to
] :
item s
Ġthem e
Ġhard ware
Ġfew er
Ġsp ring
Ġperm an
ma xim
S upport
ĠP A
Ġfeel ing
~ {\
Ġlet ters
ĠCol umb
B D
Ġdiag n
Ġtransform ed
config uration
Ġsummar ized
Ġstre t
} "
Ġinteract ing
ut or
Ġexpl ored
Hand le
Ġdou bt
ĠH ot
Ġeduc ational
Ġtr ig
ĠB ell
Ġ\, .
D en
bigg l
ĠIn itial
ari ants
com pare
T erm
p f
Ġhomot opy
ress ive
_{ (\
AS A
raz il
Ġl icense
gtr sim
Ġsh ifts
P tr
Ġs ale
Ġd ict
big oplus
ĠS NR
Ġdual ity
Ġf er
uch y
Ġb id
y y
Ġf resh
is c
ĠL ove
Ġcent ers
Ġcount y
Ġregard ed
G O
Con clusion
c am
Ġign ore
Ġmanif olds
h olds
Ġun able
I X
ta ch
ĠBay esian
con vex
lim inary
Ar gs
o is
Ġw ww
ard en
ĠN evertheless
Ġour selves
enc ing
Ġcomb ine
R ect
quant um
i ro
D raw
i pe
197 9
e ah
St orage
Ġmod ification
it atively
ĠA ccess
b ell
Ġpos it
Ġimprove ments
g ov
Not ice
Ġgeodes ic
or ough
ĠHen ry
ass oci
; <
as i
E ven
make box
-------------------------------- --------------------------------
Ġequ ipped
}} -
Ġ< =
Ġ+ +
Ġflo or
ma ges
f d
= $
wid get
- $\
k ens
ĠF re
Ġaccess ible
Ġrequ iring
are n
bigg r
Ġwait ing
t i
Ġbright ness
Act ive
Ġke V
rec ord
Ġreview s
ul atory
b an
Ġconsum er
Ġacc um
Ġopp osed
ĠRepublic an
N OT
ĠMe an
resize box
Ġret rie
Ġdeli very
EX T
Ġprom ote
Ġc e
Ġa ircraft
Ġprofess or
ĠC ross
k ov
Ġcontrad ict
' ,\
Ġnew ly
B ody
Id ent
Ġsequ ential
ĠVal ley
Ġemerg ency
)) )
}} }{\
pd own
Ġt ab
Ġg iant
ĠPol ice
L M
AR Y
ĠD O
bibliography style
" )]
Ġcl a
P RE
Ġrest aur
Ġguarant ees
Ġm ent
Ġjud ge
N P
ĠW ho
ER S
s olution
Ġsqu ares
Ġchain s
S yn
d irection
[ {\
ĠWilliam s
Ġcustom er
Ġa maz
ex act
ĠB oston
Read er
ro vers
ĠG ame
ĠC up
Ġco ast
om et
Ġult ra
Ġelectro magnetic
ĠS upport
O nce
C ap
ĠJ SON
A uthor
D oc
g ers
Ġsatell ite
st age
Ġseem ed
}^{ *
F M
ĠI O
10 4
Ġval uable
vel oc
th in
L oc
ad min
E very
R oot
ĠZe aland
CT ION
Ġa de
diag ram
Ġl ists
Ġd raft
Th m
ve ctors
Ġar ising
}$ ),
ĠB efore
Ġqu arks
Par ser
web kit
Ġn arr
Ġim per
ĠC ur
Ã ¤
Ġminim ize
Ġk not
F E
NR AS
Com put
oul omb
U ID
indu ced
Ġimpro ving
ĠPro cess
Ġterm in
crit ical
ĠS yn
b g
T M
Ġm and
Ġmonitor ing
p et
s a
t ics
ĠW here
Ġcon vention
Ġr isks
). $$
Ġsc an
ĠT erm
it ter
Ġregard less
Ġlif etime
new s
ĠS ign
Ġisot ropic
horizon tal
Ġwould n
he res
Ġres id
ic an
Ġre volution
el astic
Ġexpand ing
Ġcon version
du ction
ĠC amp
Ġimplic ations
AT A
Ġcommit ment
Ġwe ather
em an
ĠMin istry
Ġwill ing
Ġcon verg
A U
ĠP R
Ġd ir
or al
le ts
Ġpromin ent
Ġphenomen a
ĠDemoc ratic
Ġde but
rel ax
3 50
ĠF lo
}} _\
Ġs in
Ġs n
cent ral
Ġpreser ve
vol ume
Ġque ue
qu ote
our n
Ġactiv ation
By tes
Ġdef e
prim ary
Ġlength s
i ences
Ġg rew
Ġc ash
Ġp atch
Wh y
Ġfair ly
( $\
Ġdis crep
D av
Ġform ally
ud d
tra ce
ĠH on
Ġdeath s
Ġhe ating
Ġhum ans
Ġcub ic
Ġsp ending
Ġpro hib
ment ioned
g ame
Ġp ole
ĠT oday
ĠD esc
Ġidentify ing
Ġreport ing
Ġm ig
ma king
Ġra il
ĠCon n
Com b
Ġdip ole
M o
driv en
ĠMed icine
Ġoff ering
ĠĠĠĠ ĠĊ
Ġslow ly
inst all
F ields
Ġre in
Ġphot ometric
| -
Ġconstit ution
] }\
Com ment
Ġcryst al
em a
As sert
Ġexpl os
r v
W here
g i
Ġfl ight
Ġhe ro
| {\
EN D
aw are
ot es
ger y
Ġalleg ed
ru ck
U LE
Ġsurve ys
Ġcre ates
ĠC L
p ed
Ã §
or ous
Ġpen alty
ab ric
Ġquad r
Ġreal ize
ĠO ly
ĠS P
ĠChrist mas
ĠH a
ĠG W
DB LP
ĠB ra
Ġis land
Ġint u
ĠOr ig
Ġj son
Ġpar ad
P aram
Ġpro sec
colon eqq
vers ely
Ġvari ant
Ġp aram
Ġp un
B en
f ail
Ġexponential ly
continu ous
plement ation
Ġvol tage
ĠW ater
ĠCon ference
dap ter
ma c
Ġhierarch y
ĠM ain
Ġar rive
Ġbar rier
Ġmill ions
hent ication
at on
10 8
ist ant
Ġpurch ase
Ġyour self
ĠComm on
an notation
ig ate
Ġmechan ical
ĠV an
ĠPro v
Ġmanif est
acc ount
Ġg ather
ĠD onald
mat ics
Ġmarket ing
Ġscient ists
el lect
ick s
D on
Ġdis ks
10 3
ad er
ĠL earning
G lobal
ht b
Ġh ab
S pe
Ġsch olar
Ġpar ity
iv ariate
ram es
}} )\
ck et
s b
ivers al
G D
D ialog
) ~
' -
ex ternal
rap ol
Ġbut ton
sum er
Ġl ose
Ġdru gs
n ames
ual ity
itud inal
Ġinst alled
pi x
Ġcount ing
qu ark
Ġatta ched
Ġen forcement
M OD
Ġl oved
Ġnot ing
% )
Ġvol unte
Ġext raction
w an
Ġcut off
Ġtro ub
% ,
Ġser ial
us hed
ctr ine
ĠI mm
Ġoper ate
ĠS l
ĠF ort
th read
Ġpass ion
5 12
pt ure
ĠT H
im ated
ple te
Ġch ose
ĠR a
ĠH and
0000 00
Ġmeas uring
Ġprov ider
sc ious
FA ULT
Ġexpl oration
................ ................
KE Y
ymm etric
Ġhund red
De bug
ic ip
q q
h arm
com position
hold ers
ĠC irc
Ġ ram
Ġinc red
clos ure
ors hip
empor ary
Ġcomp r
Ġvar ies
Ġjour ney
Ġcre ative
S upp
c v
Ġvari ational
pos itive
__ (
Ġadapt ed
we et
ĠVict or
ĠC her
ang o
iz ers
= }
ĠC ast
i ary
Ġaccur ately
hal f
ĠG l
var pi
? :
ĠU pdate
ard ing
Ġcommun ications
miss ions
Ġin valid
Ġremov ing
Ġtri p
Sym fony
J o
Ġrel ies
cer tain
Ġt unnel
Ch annel
St ud
ï ¼
opt im
Ġm irror
}$ :
Ġgrant ed
Ġarri val
m ond
ĠS outhern
over ty
Ġmotiv ated
ĠFrancis co
Ġtrans actions
Ġcon sole
Ġcom fort
Ġgrad ients
^* (\
Ġconnect ing
Ġs ac
ĠDef ine
ĠS I
ĠDef ense
Ġperform ances
ĠA I
Ġex port
Ġsp ins
t oggle
^{ *}
Ġput ting
ph y
Ġuns igned
Ġapproxim ations
Ġthere by
Ġest ate
p q
ro ke
Ġinf er
om atic
ET H
col og
Ġreprodu ce
Ġbelie f
Ġarbit r
Ġcommut ative
the se
le vant
ĠĠĠĠĠĠĠĠĠĠĠĠĠĠĠĠ ĠĠĠĠĠĠĠĠĠĠ
tx t
dd en
b est
Ð ¼
pat tern
T otal
Ġf uel
Ġmoment a
ad or
Ġdesc ript
ail ability
er on
pos ing
3 60
B r
eng er
Ġmer ger
Ġst im
ĠRe al
ĠBl ue
SE T
Ġreve als
Ġdefin itely
Ġlogarithm ic
call back
}. $$
En abled
ĠS ource
Ġcont rary
Ġt ack
ĠN a
lement ary
ĠĠĠĠĠĠĠ Ċ
Dis play
ab olic
i ar
e ed
h ref
Ġph on
Ġuniqu ely
Ġc ars
Ġjav ax
ĠJack son
oid s
Ġcoinc ides
Ġemploy ee
ath an
k k
}{ !
Ġrig id
Ġneutr inos
und les
ĠAnd rew
Ġappoint ed
$ }\
Ġman age
H igh
Ġi i
Ġb are
Ġd amp
ĠF our
Ġsym plectic
Ġevery where
Ġcomp ression
] ^{\
13 5
Ġstand ing
Ġconsid ers
Ġsh apes
ĠB S
Ġrel ating
_ ;
Ġconvers ation
Ġcol on
Ġsc hed
m ad
Ġdeg enerate
}} ^\
Ġn amespace
ore l
Ġad ds
Ġconsec utive
Ġcomp osite
Ġpref erred
Ġtrend s
Ġpref er
Ġasymptot ically
Ġb ridge
Ġprior ity
ask et
Ġade qu
10 6
col l
ack nowled
M NRAS
Ġnucle i
Ob j
ans as
Ġcycl ic
f p
n c
Fe ature
Ġscal ed
ĠPro of
Ġassoci ate
q ed
du ate
Ġgovern ments
ĠB iden
ed ef
Ġrece iver
Ġf ault
Ġacqu ired
an chor
Ġsee king
Ġm useum
y cle
Ġfocus es
` ,
comp at
scale box
ĠUn iverse
Ġver ified
ĠRep resent
cy cle
St e
ĠSt an
et o
Ġaffect s
Ġconjug ate
T ags
Ġfin ish
Ġp ump
Ġbring ing
^ *}
ĠF ar
Ġw ood
Ġun f
Mat rix
Ġc as
u ated
Ġr ating
Ġ icon
ive red
ç ļ
Ġconvert ed
Ġdetect ors
con tains
ian a
ĠÂ ·
Ġin cl
ĠEn ter
Ġgood s
f all
Ġnav igation
war z
Ġschedu le
G rid
Ġanc ient
comm un
ĠL ab
}{*}{ $
algorithm ic
ĠF alse
n l
ĠY es
)} =\
Ġref lected
b our
Ġexhib its
S uch
al og
'' .
Ġann ounce
Ġcon crete
ĠD R
f c
ĠDes pite
ex ception
Ġover view
= &
hed ral
ĠM u
Ġfavor ite
ĠF estival
çļ Ħ
Ġasymm etry
Ġmechan ics
Ġweap ons
Ġpl anned
Ġmut ual
ĠJ ordan
ĠTh ose
Ġmin ister
Or ig
K ind
t ip
r ats
ĠS pain
un ique
com parison
ess el
sur face
Pro duct
}, $
Ġrec ording
anc el
G AN
+ }
Ġresult ed
Ġext inction
o pping
bound ary
ad el
it o
ly wood
app ed
od ge
Ġsh ifted
M ag
sq l
pl ates
Ġbig ger
Th rough
ĠS and
grav ity
th let
abil istic
S end
Ġsingular ities
g on
Ġantic ip
197 8
\\ \
T F
Ġsupp ressed
on om
H H
eng ine
ay er
ĠIt alian
cos h
Ġm el
Ġquant itative
OD O
Ġf is
ĠArt icle
10 7
Ġs ending
ĠEngine ering
ĠF uture
ess ions
Ġobserv ing
Ġcompet itive
int o
ub y
Ġaddress es
Ġgrow s
l st
sin h
Bu ild
ĠLat in
}) ^{-
Ġsimpl ified
Ġadapt ive
Ġbran ches
Ġrepe at
our se
re pre
ell o
Ext ension
Ġc umul
ĠAg ency
v ard
ĠPak istan
ĠB ow
ĠInd ex
sw itch
Ġcomplet es
add r
le ton
Ġend ing
Ġpack et
w ait
197 7
latt ice
corre lation
cos ity
h n
Ġint ent
ĠInd ust
S ymbol
Ġdevi ations
f riend
MA X
el a
cont roller
Ġse es
cur ve
Ġtransl ate
Ġpref ix
ent h
Ġdisc i
d ynamics
Ġhon est
ĠW at
t p
ma ps
P erm
ĠD ir
It ems
, }
Ġb tn
Ġref uge
Ġse ctors
| }{\
ro le
' }(
Ġin ser
r n
pro fit
S ur
olog ically
Ġim pose
ĠN N
Ġrect angle
Ġvalid ity
ub er
Ġc art
Ġas sembly
J an
Ġre act
Ġk ing
Ġradi ative
ĠO k
Ġt ables
Ġex it
f ront
g rounds
ĠChild ren
O O
ĠH erm
grad ient
Ġrecogn ize
Ġ )\
) },\
Ġdes cent
{ |\
Ġsu dden
ĠPro perty
12 7
Ġop acity
ps on
ĠM ot
ĠD own
ĠH op
$ ^{\
h ig
Ġwall s
flu id
Ġremark able
Ga ussian
Ġwal let
flu x
Ġlay out
repre ne
Ġres istance
00 5
ink s
ism s
Ġorient ed
ch a
Ġgu itar
Ġdis put
e h
lap se
ĠJ on
Ġmode led
). $
Ġk ill
S W
ĠFil m
Ġadj oint
ĠFig s
I EEE
ĠC amb
}) :
; }
): =
ĠCh ampions
n il
VER SION
ĠMich igan
Ġex cluded
C opy
Ġv eter
==== ==
Ġs oc
ĠR ic
os er
Ġdepend encies
phi a
Ġgu y
ĠY et
Ġapproxim ated
j query
Ġc le
}} }}
Ġsu it
Ġmod ular
)$ $
ĠSc ot
Ġteac hers
ĠL ipschitz
Ġaward ed
\" {
ot he
Ð ²
Ġa ck
Ġ$\ |\
ĠE mp
ĠT eV
ĠL ook
att ered
Ġarri ved
ge red
ĠWith out
Ġl es
Ġca usal
is o
ĠW indow
s ave
the y
e a
Ġobser ver
ĠS ar
Ġform ing
Ġem er
M ac
Ġown ed
Ġpro spect
orig inal
Ġsub graph
Ġm ort
}) }{
Ġreach ing
us cript
Ġnon trivial
ĠS upp
ik ip
at i
}= -
w ang
Ġequival ently
v y
197 6
Ġco ach
RO M
Ġrobust ness
child ren
ĠG reek
ure r
Ġj uris
=" "
ad ic
ater al
ĠF R
ĠC opyright
ce q
ĠN ations
Ġgreat ly
c raft
Ġp ray
Ġmur der
Trans action
ell a
Ġfor t
Ġgr ate
Ġh ospit
B oth
] \\
Ġdut y
ost er
Ġear ned
arg ument
Ġdoll ars
ĠPr ime
ĠCorpor ation
ts d
d ue
Ġprom ising
M edia
S eg
comm ut
Ġcharacter ization
Ġfight ing
Ġ( *
ĠSo ft
Ġpost ed
Ġstrateg ic
h ist
Ġag ric
b eq
J ust
+ {\
Ġsh orter
Ġcompl iance
Ġobtain s
um ann
ĠH or
Ġsum s
Ġregular ity
Ġim plements
Ġno isy
ant um
Ġdemonstr ates
og rap
L iteral
Ġthick ness
Ġvill age
ĠH ospital
M ed
h ou
pro j
Ġst rain
ĠB razil
Ġimpro ves
Ġele ctions
ĠA wards
M ENT
11 4
Que ue
Ġgir ls
Ġdo ctor
Ġcl ip
t m
ĠC as
Ġd b
f our
Ġdest ination
ĠAm ong
ir ation
ĠA ud
with out
Ġh tml
u pload
Ġign ored
van ia
ĠS F
}$ ~
Ñ ı
Ġaccom mod
Ġcamp us
Ġqu bits
F urther
Ġfl avor
Ġmere ly
Ġdec oder
Ġanom aly
D etails
Ġident ities
Ġrot ational
Ġover come
hom ogeneous
Ġpro ud
l ab
Ġed ition
Ġcont rovers
al i
= [
g ar
t ry
iab atic
Ġpo inter
eg o
Ġgrad ed
C ategory
acknowled g
Ġexpect ations
re port
Ġprov ing
Ġconvolution al
By Id
ikip edia
ĠJ r
in formation
C am
Ġscen es
Ġvacc ine
Ġindu ct
coordin ate
{- }
Ġopp osition
ĠA S
Ġacc ident
Ġvictim s
Ġm ic
Ġdecl ared
Ġrec overed
Ġmeaning ful
ab eth
Ġun like
Ġepoch s
under brace
Ġassert Equals
Ġappro val
Ġinnov ation
Ġin line
27 0
Ġg amma
ĠC T
Ġsimpl est
âĢĻ ,
Ġm as
Ġp ars
veloc ity
ad ing
ĠM O
sy l
if ting
is ations
P y
Ġsh adow
Ġreason ing
)- (
. *
Ġp ed
P res
Ġpro xy
Ġ% }
c ule
Ġhist ogram
ter ms
Ġan ten
2 13
)$ }
Ġaw ait
Ġ( âĢľ
Ġassum es
ĠM ember
Ġredsh ifts
ĠTe am
Ġcour ts
Ġ" /
ĠL ine
Ġcap abilities
ass ets
f x
Ġs port
}; \
F ree
M AP
W riter
ĠS ect
ian o
equ ilibrium
}) ^{\
val uation
Ġreal ization
cy cl
Rel ated
over ning
hav ior
_{ |
Ġrang ing
ĠO pt
P ublic
Ġto ler
pl ac
ĠO x
Ġoptim ized
r ator
Ġconsist ently
J SON
Con stra
qu are
K K
M eta
col lapse
Ġpartners hip
19 50
M SE
Ġin g
2 20
ro magnetic
ĠC ov
r ically
ĠB ush
Ab stract
que ue
ple d
19 75
it i
)) =
sat z
ly ph
ĠM ike
P ool
ĠP ut
A SS
fil led
ĠTh ree
Ġexec uted
ig m
Ġinterpol ation
Ġwrit es
Ġaver aging
ov iet
ĠP ass
e z
Ġdr ift
Ġworld wide
Ġfeature d
ĠL ight
te en
Ġland scape
Ġhon or
j ar
Ġwork er
en able
proto buf
Ġp in
Back ground
}\ )
Ġfocus ing
Ġas king
Ġdel ivered
e eq
Ġgen us
pass word
Ġenc oded
Ġfor get
TE ST
l isher
Ġam pl
ard ed
athe red
g han
Ġm sg
pend icular
ĠV i
do i
Ġan imal
ĠV ari
sc roll
ok ed
u psilon
S Y
Ġ& -
@ "
Ġrequest ed
Ġconven ience
}) +
ast e
ĠH istor
Ġa u
Ġh aven
ĠT ask
Ġpre pare
Ġb ath
Ġdro pped
}\, ,
ĠL HC
Ġsummar ize
c pp
effect ive
ĠS aint
T rack
Ġconsider able
ĠH D
Ġsym pt
L U
H I
Acc ount
Ġpublic ly
d v
ou ter
ĠGeorg ia
ĠH aw
Ġ urg
Ġremain der
Ġadapt ation
d c
Ġ }(
ĠNor thern
Ġag es
os a
ĠĠĠĠĠĠĠĠĠĠĠĠĠĠĠĠ ĠĠĠĠĠĠĠĠĠĠĠĠ
Ġthere in
ĠF air
Ġsub sequently
d k
ip her
h idden
Ġbox es
ir ds
H ar
Ġf ant
cur ities
diag onal
l brace
Z Z
Ġpl ants
Ġcon g
Ġk id
Re al
Flo at
ĠP acific
Ġvot ing
ĠJer sey
m r
ĠK enn
d rop
Ġprogram me
ĠC oulomb
ĠK en
Ġcaref ully
Ġstud io
ĠK ar
~~ ~
ĠSim ilar
ĠDan iel
ĠAd am
uck y
ĠâĢ ¢
Ġsub mit
Ġb ed
Ġc ere
Ġ[ -
Ġreflect s
C ur
Ġmot or
ĠM ic
Ġdist urb
it arian
Ġansw ers
197 3
Ġun likely
Ġleg end
Ġreconstruct ed
Ġprim itive
ð Ł
pr ise
g p
Ġheav ily
ĠV ice
Ġamaz ing
ne ighb
Ġ\\ \
Ġfac ulty
d etails
Ġinst ruction
Ġcan cell
ĠK ong
ĠDe ep
s ame
197 4
Ġphys ically
ut ch
ĠP lease
reg ister
Ġcont am
ĠE lect
' +
Ġdis placement
[ :
rel ations
Ġs oci
ag ues
ĠCh ange
ĠCh ris
ĠIr ish
. ;
Ġsol it
FI LE
o z
Def ine
O B
Ġk pc
Ġgradu ate
ĠAl ice
fl ags
Ġcompl aint
âĢĻ .
ang led
sing ular
Ġillust rates
} '$
Ġperturb ative
Ġguid ance
Con clusions
Ġpair ing
M sg
j u
writ er
iv ation
f ire
oc he
Ġreser ved
Ġack nowledge
p us
. ]
B it
cc entric
) )$,
ĠCon serv
Ġcharacter ize
Ġneg lect
e b
A re
P ack
N umer
sche ma
at im
pi e
ĠOly mp
Ġperfect ly
g it
lin der
ĠP O
ĠT our
Ġadd itive
ul f
ĠPro blem
Al gorithm
Ġ ell
Ġmagn itudes
Ġcorrect ed
over view
ens ively
ĠWe ek
ĠWe yl
inter action
p b
it les
Ġre nt
ract ed
Ġs ought
}} ;
ĠRad io
Ġb rowser
ĠSw ed
elect ron
ak i
em bed
E ar
gress ive
Ġjo ining
Ġpro jections
ant ics
Ġal igned
Ġcoinc ide
ab c
D em
Ġl ib
ĠRes ource
ĠK im
B el
as p
t c
geq slant
Ġmembers hip
ar ches
Ġextend ing
X T
ĠF ellow
Ġconsider ations
Ġle af
() {
Pre vious
Ġt aught
ĠF OR
IV E
su fficient
at ial
11 3
n ear
ex cept
ĠEx p
se en
Ġth r
rum ents
Ġinst ruments
ĠB C
Ġinf erred
co hol
Ġs pons
24 0
ĠDef ault
G ra
Ġweak er
S cal
Ġe V
ĠE p
H L
Ġsimpl er
b log
ĠC urrent
ĠJew s
ne cess
ant i
re view
W N
M apping
10 9
ĠV ersion
ĠP ri
ĠV iet
Ġsus cept
k h
P anel
in ian
\ @
Su per
ol is
ich let
put y
Ġmat ched
ellect ual
cons ider
Ġparticip ate
Ġpl aint
ĠAf ghan
Sec urity
Ġrot ating
Ed it
n odes
Ġdanger ous
Ġtrans parent
E vents
R a
l ind
ĠF ac
at omic
Ġst ores
r ceil
al ed
Ġs leep
ĠF ood
Ġcont emporary
Ġar ts
ĠAd v
Ġnor thern
Ġprocess ed
ĠP ath
syl vania
b racket
k ernel
Ġread ily
Ġinv ariants
key word
A ng
Ġsl ice
ĠCon dition
St ar
Ġmicro sc
Ġimm ig
Ġent itled
set up
Ġcl ar
ĠOh io
il ly
Ġrece ives
ĠSD SS
ev in
se x
ĠAff airs
Ġintrodu ces
ĠQue en
e igen
% .
ĠGu ard
ĠC ard
Ġcarry ing
[ ]{
ch arg
play er
Ġf n
ĠB al
Ġsub mitted
Ġint ention
ER E
Ġregist ration
Ġimpl ied
arc sec
ac her
Ġturn ing
Ġfall s
in her
ĠA U
Ġr ings
ov es
weight ed
uns igned
F rag
Desc riptor
__ _
Ġre ject
end a
cor r
ĠJ ava
ext ension
Ġind irect
re ll
M eV
ĠP S
ĠG ar
he im
ĠD ub
method s
A rea
sh op
are a
L ock
ĠS af
pon t
oust ic
J ob
Ġmeas urable
M ath
ll ll
Pr int
or i
Act ivity
Ġsubstant ially
Ġqual itative
add le
ĠT al
Ġabund ances
am i
F low
Ġagre es
Ġdev oted
Ġhe ur
du ctor
Ġarbitr arily
Ġconc ert
ĠBo olean
Ġd elta
] }$
al gebras
idel ity
H P
ch art
l ceil
Ġ[ [
Ġmass less
Ġad missible
197 2
Ð ´
ere r
Ġcomple teness
Ġvort ex
ĠBro ad
ĠC MB
\% ,
ĠT ri
ĠAs ian
Ġadv is
Ġs outhern
Ġsto pped
$ ~\
M N
th rows
Ġcontinuous ly
ĠN iger
Ġcon cluded
Ġbran ching
d m
ĠS ky
Ġcurrent s
ĠD irect
Ġel ig
Gener ic
14 4
Ġext rapol
vari able
w ild
Ġprom ise
ĠPar liament
ĠRe act
V E
m iddle
ire ment
Ġreplace ment
Ed itor
le ted
tool s
//////////////// ////////////////
Ġre actions
Char acter
Ġdwar f
tem p
Ex pr
Ġbos ons
Ġsuggest ing
Ġdi verg
class ical
Ġmultiplic ity
ĠĠĠĠĠĠĠĠĠĠĠĠĠĠĠĠ ĠĠĠĠĠĠĠĠĠĠĠĠĠ
g ot
Ġb omb
id ay
Ġrecomm ended
Ġplatform s
Ġcont ents
Ġb ases
Ġjud gment
cons ist
Ġacqu isition
Ġin herent
iss ue
Ġinteg rating
@{ }}
tem por
G Hz
Ġl ift
17 5
R F
no align
iz abeth
Ġrec ip
Ġbelie ves
} --
Ġbeh alf
Ġperm ission
Ġencou rage
ĠC learly
Ġfe e
Ġsent ences
Ġwatch ing
Ġob lig
ER N
z ing
D s
ail s
E ffect
er ved
r brace
Ġdefin ite
err ors
Ġcaref ul
Ġn ations
ĠM id
ag ers
Ġ ×
ĠM P
Ġb anks
y ers
Ġyoung er
_{\ {
ĠA rea
ĠM en
Ġran king
c ert
Ġ ions
Ġvis cosity
Â °
web pack
Ġt ension
xy matrix
ĠF all
ĠB lo
n oc
Ġinvest ors
y ou
w he
ino is
Ġsimpl ify
Ġsp oke
ĠFore ign
Ġf ifth
F iles
Ġclos est
integ ral
Ġoccup ied
Ġhealth y
Ġapp endix
ĠP RO
ern els
ĠSte ve
ĠF ix
H istory
deg enerate
ĠS L
Ġglu on
Ġgu ys
In ternal
alk er
Dep end
Ġre write
Mem ory
Ġen velope
orig in
}}{ (
Ġing red
Ġvot ers
ign ment
g ap
Con dition
ĠIslam ic
ol i
Ġvict ory
w orth
Ġcalcul ating
ĠSe a
res et
j e
Ġinter net
Ġpro to
Ġem issions
Ġre jected
Ġposs ibilities
n atural
be ing
period ic
ĠOther wise
S V
ĠEconom ic
b ered
te ction
Ġcont our
=" @
Ġcateg or
Ġglob ally
Ġw ider
Ġphot ometry
ul us
Ġ Î
ĠBro ok
us ual
Ġrel ate
Ġs pi
d etail
ĠCh apter
xy gen
Ġquant ization
assum ption
cre en
itect ure
pl ain
ish op
F ind
m ask
Ġst ations
ord on
Ġinj ury
Ġguarant eed
Ġevalu ating
ĠSur vey
Ġbreak s
}) ,\
00 2
H A
L java
Ġre nd
app ly
C NN
Ġtri als
ĠW rit
\\ [
Ġthermod ynamic
Me an
Ġsk ew
ph ot
pro ps
ĠG PU
Ġarm y
S em
Ġ[ ];
Ġart ificial
){ $
T ABLE
Ġc ounsel
Ġsuper ior
Ġal ter
elf are
n ight
Ġschedu led
all oc
Ġfound ation
Ġexperiment ally
ck er
Su ccess
prot ected
ĠS ym
ĠO ption
Ġlog ical
Ġconstit u
con vert
Ġad ults
Ar ch
Ġf ell
Ġamb igu
^* ,
) "
H y
f un
ow nt
. __
et ts
}$; }
Ġreg imes
Ġtransfer red
el ly
R ob
Ġturbul ence
Ġm unic
ĠOffic er
ĠP en
Ġp od
ĠM D
h ot
ĠInt erest
Ġvalid ate
Ġenhance ment
Ġsp ars
ĠG ir
m is
)} }\
d or
Ġf asc
) _\
),\ \
Ġmet adata
Ġsp iral
ĠI C
Ġinstance of
Ġrun time
Ġde eper
Ġatt orney
ĠR en
reed y
Ġfac ing
I ES
on ia
D ouble
inter val
Ġconsum ers
Ġatt ended
v ia
Ġstri p
12 4
Ġma pped
Ġarchitect ures
d dot
ke V
Ġexec ute
ĠM ake
ĠS ports
Ġex posed
11 8
Ġn g
condition s
.\ ]
Ġsqu ared
Ġmot ions
Ġanomal ous
Ġsol di
ok ing
Ġattract ive
Ã ¨
l antic
S ep
id ers
IN D
Time out
Ġrenormal ization
Ġmag azine
pol icy
Ġir on
ĠPlan ck
ow ered
Wid get
ĠS ED
Ġv on
}\, .
ĠU k
Ref erences
ĠB on
ex pr
Ġemot ional
const ruction
ĠC PU
B G
Ġsens ors
å ı
Ġsoldi ers
Ġstrugg le
Ġ ).
Ġprepar ation
Ġplan ar
pro gram
Ġoper ated
ar ters
Ġo k
ĠCa uchy
en ance
Ġin jective
type of
}} -\
the ast
rupt ed
ĠC ub
check mark
M ember
Ġlong itudinal
Ġtw ist
. -
S cale
Ġle ct
11 7
l vert
9 00
Ġhistor ic
is a
ĠÂ ©
system s
C oll
D ue
ĠH ong
ac cept
f b
ĠTra de
Ġmethod ology
dot ted
p n
ru g
i pping
Ġv ocal
Ġhapp ening
Ġher self
ĠI T
Ġmark s
c ry
Ġpair wise
f m
ick ing
Log ger
Ġcont ributed
^* _{
. ][]{
e cho
Ġp overty
Ġparticip ation
O PT
ma kers
D iv
11 6
Ke ys
Ġbelong ing
Ġdiscrim ination
Ġin coming
() ).
| }\
12 2
ĠN avy
( !
par ing
NavBar Cell
Ġins ights
Ġcheck s
Con struct
A uth
ĠS wit
ĠE astern
Ġin form
ha ust
ada pt
cle an
r vert
Ġe lem
Ġpass es
Ġsound s
Ġinvert ible
ĠColumb ia
ĠPenn sylvania
put ation
ĠH ard
y e
Ġform ulated
Ġfactor ization
form ula
G reen
Ġdocument ation
! âĢĿ
ĠT w
N ormal
Â ©
ĠL ittle
end or
ce ive
l um
chang es
Ġprodu cer
ĠS oviet
Ġmod elling
P N
P ay
vi ation
Ġdis miss
Ġdivis or
Ġvari ants
inter pre
17 0
ĠF oot
assert Equals
Ġad vent
Ġoscill ation
pot ent
Ġa wards
Des pite
Ġcontinu ing
ĠAg reement
ret ch
Ġpreser ves
ou red
ĠW in
Ġdecl ine
F W
Ġle ak
Sim ple
Ġc oding
-> ]
D u
Ġdec ou
Ġapparent ly
Ġ; $
Ġman uscript
Ġwar ning
S to
Ġful fill
f ollowing
produ ction
Ġin frared
le in
op her
Ġtw enty
ast ro
ut f
Ġbas ically
ĠG raph
b undle
Ġhand ling
pl er
ort ed
Ġfact ory
Ġhom ology
y cl
Ġg ray
ĠF ire
z one
Ġdiv ide
Ġexcit ing
su pset
Go ogle
ithm etic
ent ropy
R et
at ar
Ġsole ly
ov ie
ĠSy ria
represent ation
od ic
the tic
Ġexcit ations
)$ ;
log ger
ĠC C
app endix
Ġreg ulation
Ġb ipart
Ġemerg ing
Ġpre liminary
cont in
ĠS us
sh ot
ĠS em
ĠB lock
Ġact ors
Com mon
Ġdetermin ant
Ġ\ %
ĠN C
Ġemphas ize
Ġhe lic
ĠN ight
Ġdes ire
Ġsa ke
in ations
l is
ĠO p
it ure
Ġcooper ation
ON E
m ical
sc ore
Ġcopy right
Ġnucle us
Ġplaint iff
Ġ{ '
Ph oto
Ġdis ag
B i
1 19
es p
Ġa xi
mon th
Ġmanufact uring
Ġre tail
Ġimag ine
Ġdisci pl
ĠFin ancial
Ġgeom et
}$ &
Ġpol es
ĠThe atre
ĠApp le
_ ,
re nd
Ġ= ========
Ġs ister
Ġdeg rad
ĠP C
Ġelse where
d imension
riv ing
Ġexam ined
ij k
rg b
ĠGu ide
Ġp ron
Ġadvan tages
W orld
Ġg overning
ĠSt ock
Ġtrans it
ĠS a
Ġdraw ing
: [
pref ix
bound s
b one
SI ZE
$ ^\
p ur
Ġy es
Ġdistingu ished
Ġper pendicular
scal ar
'] )
Ġgain ed
Ġgrow n
] +
Ġperman ent
Ġocc asion
In it
ĠCom b
v dash
li ers
Ġsc r
i rable
s ized
Ġexception al
Ġreturn ing
et ter
pers ur
ĠC ustom
semb les
., ][]{
Ġhealth care
ĠT ax
Ġcont ra
( (\
est imate
lo v
ache lor
Ġbehavi ors
Load er
c n
Ġwrit ers
spect rum
ĠG ro
d ark
Pro b
F unc
Lay er
J ava
Ġfav our
sche me
or ne
Ġpreser ved
S ER
Ġh all
am az
Ġanisot ropy
Ġcons ent
Ġdevelop ments
c u
Ġv ic
ĠAssum ption
tr igger
Ġfe at
ĠL ow
cess ion
Ġin jection
Ġv ent
um a
Ġca using
Ġb old
ke ep
Ġd a
Ġsk in
Ġdemoc racy
Ġmaintain ed
Ġsu ffer
Ġfund ed
ut r
ivers ary
D er
W R
Ġc ro
)) );
tra in
'' $
Dis cussion
Method s
ad ium
c hers
Ġrem arks
ach us
Ġco arse
Ġc oc
######## ########
J S
Ġb ug
plac ian
). \
Ġshe et
t rac
ele ments
i ated
Ġco res
ĠCo oper
em pl
{ }\
Ġfe els
Ġweek end
Ġh a
Ġil legal
Ġhous es
ĠRef s
Ġs aved
Ġan onym
rel ative
are t
Ġs ends
ure au
Ġd ots
Ġk ernels
Ġte ach
ĠL ew
A ud
mer ce
Ġco herence
id x
' }{
ĠCl inton
Ġoption al
Ġwas te
ock er
ser vices
ĠB rad
L ook
Ġleg it
, $$
in ality
ĠD igital
Cl ose
Ġmer ge
Aut o
f ac
)} ]
Ġm igration
Ġin correct
Cor ollary
sub ject
00 3
ak a
nav List
e very
Ġminim izing
ĠRiemann ian
ĠCo ast
Ġn ur
ĠS earch
Ġindic ator
Ġmotiv ation
ĠE th
Ġestim ating
ĠR L
Ġd ance
ag on
ĠStep hen
Ġhand ler
f und
Ġinteg rable
Ġf ake
IG HT
P ATH
ĠSystem s
Ġdissip ation
Ġsh r
Ġterm inal
Ġsing er
ĠD NA
out s
Ġtransport ation
Ġd rag
Ġprotocol s
Ġb atter
ĠJ un
ĠCon fig
ĠSc ient
F s
b atch
ĠAd S
L ie
st ation
L I
Ġart ifact
Fl ags
A I
Ġdesign s
Ġpoint ing
Ġfl ags
Ġe ase
Ġcompens ation
b n
ex amples
Ġprof it
|\ ,
Ġdispl ays
ĠL ive
)\ |_{
Ġdiff ers
$; }
Ġver ification
ra ine
act ing
Ġg ates
Ġremov al
P rim
pl atform
Ġmed icine
adel phia
19 68
Ġmod ulation
Ġf iction
ĠHol lywood
ĠH as
Ġin formed
Ã³ n
ĠIsra eli
Ġe ccentric
D uration
Ġatt ributed
() ));
ĠIn f
Ġmor al
Ġat tr
ur d
b os
dro pdown
ĠN ode
Ġpresident ial
Ġdimension less
ĠCol lection
achus etts
.\ ,\
Ġso ph
ĠD ar
L em
ĠM icrosoft
Ġif f
* }\
ĠD om
i ors
L at
er as
s r
Ġrad ical
ic ide
Ġw a
Ġphot ograph
d ig
AR N
Ġhal os
Ġpreser ving
Ġt elescope
ĠG ames
ĠT ake
Ġt orsion
Ġin ert
ĠS pect
Ġt elling
Ġassert ion
iv idual
Ġw estern
om eter
ain s
M etric
| $.
f ollow
\, $
b ow
l c
Ġgain s
Ġent ering
Ġto kens
Ġarrest ed
ĠMc C
cd n
V I
ĠT ro
10 24
Equ ation
the ore
ĠP ay
ĠIll inois
Ġpro xim
Ġv o
)$ )
ĠR om
ced ure
amilton ian
ĠTor onto
Ġa z
Ġreli ef
Ġprov ince
Bl ack
19 69
Ġfl av
W ell
im eter
S ample
Ġmeet ings
ĠH o
Ġr ural
Ġbuil der
Ġres cal
ĠCla im
lo be
}{ -
b inding
Ġinteg rate
Ġsub sid
ĠTur key
12 6
Ġcov ariant
ĠV AL
j ango
olog ist
rel ativistic
X Y
Ġle pton
â Ĩ
}= -\
h ad
UT F
pe ak
Ġgeneral ize
des ign
@ {\
Ġp it
col lection
Ġeng aged
Ġconstra in
Ġh its
Ġcompan ion
b rowser
ew ise
Ġas ync
Ġc ouncil
Ġimpact s
on omy
Ġoper ational
Ġoutper forms
Ġst orm
A O
S cope
ĠG ib
Ġspect roscopic
Ġalong side
L D
pe ction
ul um
-\ !
Ġpar ser
Ġv en
st on
Ġprovid ers
ĠF ox
Ġle ague
Ġvot es
ĠRec ords
ev olution
Sing le
Ġiter ative
Pl ugin
LO G
let ter
d on
ĠI l
Ġde bug
Ġion ization
Ġpro ps
Ġf unc
=" ${
ta ken
ĠS S
Ġwavelength s
)) ^
Ġn m
Ġwin ner
d ers
al go
am m
ĠOn line
Ġp al
ynam ical
P G
prot ocol
ĠSe ason
ĠL uc
Ġmach ines
ĠT E
om er
ĠR og
ap ore
Ġdiff e
Ġpet ition
u its
P Y
the o
Ġte en
ĠB E
13 4
ĠF ull
atter ing
12 1
ag an
Ġmoder ate
Ġtim ing
ĠW is
Ġcons ensus
rot ate
Prot ocol
ens ing
Ġcontract s
dec ay
Ġtax es
Im port
par ser
aud i
row th
Sh ort
dis k
pa ren
at z
IT E
Ġgener ations
Ġast ro
ĠR ule
Ġatmosp heric
Ġmon omial
Ġt uning
Att ributes
++ ;
2 30
Ġnorm ally
Ġrepresent atives
Ġmagnet ization
Ġneg lected
us ive
ĠOx ford
ĠR est
ĠG re
Ch rist
Ġdifficult ies
Ġ river
Ġsim ulate
en ant
ĠM ill
}} }(
ation ally
ĠDe ath
Stat ement
x s
Ġhe li
print f
own ed
Ġb ubble
» ¿
Ġst ake
col Last
Ġphil osophy
! [
P ers
qu es
Ġdem ands
Ġbin aries
ETH OD
Ġelim inate
\ `
Ġvari ed
Ġpolar ized
Ġaff ili
t mp
Ġg aps
ĠApp ro
19 67
Ġexplo it
as sembly
Ġf o
us ers
Ġas set
B est
Ġbal anced
ĠLe ft
O h
Ġad ult
Ġtal ks
A dapter
ri vers
Ġdiscrep ancy
ï »¿
ĠF ind
Ñ ĭ
Ġdec oding
a pt
ĠBook s
U D
Ġnot ations
ĠPh oto
Ġaccept ance
triang leq
ĠY ang
U SE
A nt
G ame
l p
Ġdepend ency
ential s
g h
ĠI E
r k
Ġr ising
14 5
Ġhierarch ical
Cl uster
Ġin version
Ġdise ases
S QL
Ġtarget ed
, [
ann a
}) }{\
phys ics
ĠS FR
Ġfra ud
}-- \
Ġm ount
. \,
ĠM ah
W I
Ġar row
Ġ' '
ĠM as
Ġinst ruct
ĠL ink
Ġpass word
ĠPro t
Ġco q
33 33
ĠEx perim
ĠN ASA
part y
or b
Ġmaintain ing
es ome
Ġinflu enced
Ġconstruct ing
B rowser
Ġb ott
ĠUn fortunately
ĠAuthor ity
Res ol
Ġconc aten
col First
av ailable
Ġaware ness
f on
ĠSt ory
ĠDemoc rats
v ideo
Ex pect
" `
^* $.
Ġepis odes
Ġsympt oms
ĠCap ital
V s
Ġneur ons
Ġeven ing
ĠBu ilding
ili pp
ĠB orel
Ġh air
,\,\ ,\,\
l apping
x t
ĠD ocument
Ġre min
Ġhead s
Ġcrow d
Ġtriang les
Direct ory
ĠM I
ĠB ru
Ġg ene
impl ies
197 1
on i
resol ved
Ġpartition s
| ,
Ġz eros
ed a
h h
Re port
}: \
Ġo xygen
harm onic
Ġdeep ly
Ġconsider ably
Ag ent
Ġinst ructions
hook rightarrow
d iction
burg h
tab s
ĠB ang
Ġspat ially
Ġfis cal
Ġpriv ile
E lements
Rem ove
}\ |_{
ĠPr ince
Ġinv ent
Ġprote in
fit ting
ra ce
Ġl ying
Ġaccount ing
Ġgu ard
Ġ= &
Ġgrate ful
Ġmod ifications
! }
int enance
D est
Ġprob abilistic
Ġfe es
Ġsuper vised
ir k
Ġcomm ands
Ġsustain able
ĠBe ach
Ġutil ize
Ġb is
Ġprot est
Ġbroad er
ĠD ark
Ġca ught
4 50
ers hip
ĠThe ory
ab i
Ġpass age
Ġm enu
online cite
Ġf illing
ow ed
Ġcont ours
Ġse arches
Ġspeak er
est im
Ġuniqu eness
oc aml
ibr aries
US Y
ress ing
em ed
B AR
other wise
Ġtransform s
U pd
se lection
, +
mag net
hand ler
Ġ[ ],
Line ar
T w
X ML
Ġdec or
be an
2 10
ĠAlex ander
Ġde als
Ġterrit ory
Ġbi ological
C la
lim ate
Ġstructure d
Ġnews paper
w x
pl ots
Ġ( [
Ġrecommend ations
ps frag
}\ |\
P lay
aver age
i ate
ry ption
Ġpropag ator
Ġbound ing
Ġinvestig ations
Ġenjoy ed
Ġshoot ing
_ ->
Ġsurv ival
d one
Ġknow ing
Ġelectric ity
P F
ag ger
ĠB oy
Ġth orough
im m
ob tained
Se lected
Ġplan es
spe ed
approxim ation
Ġg enu
Ġbary on
}{ .
Di ag
Ġcon served
ĠĠĠĠĠĠĠĠĠĠĠĠĠĠĠĠ ĠĠĠĠĠĠĠĠĠĠĠĠĠĠ
u z
Ġ( _
Ġreg ulatory
Vert ex
p aramet
ĠTe le
verb atim
ĠB ul
ogene ity
Ġb undles
Ġab and
Ġfac ed
fore mentioned
all classes
Ġflex ible
onom ous
ad joint
\ },\
Ġinf ection
Ġimm igration
b ury
Ġdifferenti able
Ġobject ives
Ġfacilit ate
Ġevolution ary
Ġres et
cont rib
Ġmes on
Ġdis abled
Ġdestroy ed
ĠRev olution
Ġtw isted
ST AT
App endix
Ġass ault
H ol
Ġcap ability
Ġ rom
AD D
] _{\
C opyright
O UT
Ġpredict s
Ġsub groups
Ġfra ctions
Ġprior i
Ġfermion ic
L eg
ĠC ro
Ġpre v
w ing
Ġs ke
ĠDav is
Ġp ot
ug gest
pro ve
ĠC ost
fl ag
ĠH art
Ġwel come
comput e
equ ence
) *
Re pository
Ġ$ %
Ġincre ment
is l
Ġpay ments
Ġbe at
19 2
Ġm ess
Ġar rows
Ġs elling
t uple
V V
Hel p
asket ball
um my
Ġsl ot
sc ribe
ĠO N
Ġcheck ing
Ġcol laps
prop ag
h ide
Ġs ad
Ġaccom pan
MOD ULE
Ġtro ops
Ġregular ly
Ġscre ening
ray s
N a
Ġcour ses
Ġnot iced
Ġal le
Mem bers
Ġoptim ize
ĠStud y
Ġwith draw
w hat
M er
Ġg host
Ġst range
mb f
H is
requ ired
g ate
Ġ= ======
de cl
Ġsure ly
Ġmodul o
Ġpe er
Ġreson ances
Ġwal king
ĠT ODO
Ġo vers
Ġwindow s
$ _\
Ġsynthe sis
scal ing
ĠMass achusetts
he rm
cl ust
ĠPa per
Ġl osing
Ġphot os
Ġde form
H er
ĠE ffect
ĠAcc ount
Ġp c
", "
Pro file
Ġsuff ered
F ail
iv ities
En um
Pro xy
ĠL im
vo ir
Ġf ish
at om
sh ared
}: =\
m ill
Ġtra ding
m ot
Ġestim ators
ic ing
Ġex clusive
Ġpost s
ur ated
Ġf rust
tr ation
Ġsub str
Ġlimit ation
Ã £
aj ax
ĠFig ures
Ġpil ot
rosc opy
che ster
ĠP rem
ob served
Ġs pont
Ġgen etic
un ting
by tes
Ġmorphism s
Ġtempor ary
Ġgr ants
Ġke eps
d n
Ġan chor
Ġpref erence
ĠTra ining
Ġhy persur
tz mann
Ġturbul ent
ig roup
ĠTh ird
z hang
Ġpar a
ed itor
ag en
bl ing
ĠG i
ĠN am
ĠSh ort
Ġxml ns
ĠEl izabeth
^+ _
O F
ĠS R
the sis
Ġoccup ation
et ition
Ġunivers ities
ĠS ite
Ġent reprene
ĠĠĠĠĠĠĠĠĠĠĠĠĠĠĠĠĠĠĠĠĠĠĠĠĠĠĠĠĠĠĠĠ ĠĠĠĠĠĠĠĠĠĠĠ
ĠH ubble
Ġhot el
Se lection
re ason
ĠM iller
ĠDir ichlet
Ġindu ce
Ġp ictures
Ġs av
Ġre q
Ġa forementioned
Ġdamp ing
Ġcon sequently
Q U
Ġre ar
B er
amaz on
Ġcont ributes
Ġy ellow
Ġtrans mitted
? "
Ġsurpr ise
\\\\\\\\\\\\\\\\\\\\\\\\\\\\\\\\ \\\\\\\\\\\\\\\\\\\\\\\\\\\\\\\\
Ġra in
ĠEd ward
Ġback ward
Ġwonder ful
Ġdifferent ly
Ġcr imes
Int eg
Ġconduct ivity
bas is
il a
Ġens uring
valid ation
Ġt idal
over rightarrow
aw ay
Ġincorpor ate
gg ed
Ġsit ting
Pro ps
Ġc raft
Ġstrength s
ĠA ge
th r
Dav id
the me
Ġachie ving
Ġpreced ing
ĠGovern or
fore ach
)}\ \
Ġincorpor ated
ul i
Ġneighb oring
Ġannih ilation
Iter ator
}$ \\
ĠRes ponse
}$ };
ĠAnd erson
Ġcompar isons
sh adow
Ġmin ute
de cre
M ult
Ġpropos als
tt ing
Ġast ron
g as
o T
Ġreason ably
il st
ĠN atural
Ġfin ance
ear s
Ġg alactic
Ġfrequ ent
nam ed
Y es
the ir
get Name
sw arm
ĠT urn
inc ar
), $
Ġsuff ering
F G
ĠAtt orney
p rior
Ag da
Ġ\ )
do or
ter ior
Ġr uling
math ring
{- .
ĠE M
comp iler
Ġoccur ring
b v
T L
Ġlabor atory
Ġmin ing
Ġrac ial
Ġ ur
ĠN az
Ġout lined
Ġout line
ĠPhil adelphia
$ ]
^+ (
Ġautom atic
ĠDiff erent
Ġdi pl
Ġav ailability
ifi able
f ar
con vergence
ĠR od
$\ %
Ġanisot ropic
ut er
Ġ$ ^
ext ra
section s
Ġeng age
u ate
ĠK ent
Ġthought s
. }.
g auge
Ġn omin
ĠBan ach
port ation
LE CT
Ġc asc
ou b
Ġex haust
Ġar ithmetic
ord inary
lic ations
ĠG Hz
vers al
V ir
ict ed
I J
Li ke
Ġhar der
B al
Ġover head
Ġhy perp
integ er
w d
Not Null
Ġaim ed
ex istence
{ -\
Ġill ness
Ġtype of
object s
ĠR ome
Ġt uple
ĠC M
att ributes
Ġthous and
Ġsurv ive
Ġnorm s
app oint
nu cle
Ðµ Ð½
In f
ĠR O
Con tact
Window s
Ġext ensively
t bl
Ġ rm
m k
Ġstr at
therm al
ĠIn put
ĠEmp ire
Ġinteg r
ore n
U B
ĠH ad
ag ent
ĠB R
ĠPro duct
ĠL P
ĠD er
do es
Ġs and
ound ed
Ġk ick
mat e
ĠP rior
2 25
ĉ ĠĠ
Ġcor ollary
n ik
Ġlo an
Ġstre ets
dat aset
riz ona
pro vider
Ġdialog ue
ign er
ĠSta ff
Ġc f
Ġimplement ing
Ġcomb at
Ġth resh
Ġanaly tically
Ġinfin itely
Ġacc used
Ġj unction
im p
ĠH al
Ġcont raction
Ġenc ode
Ġexpert ise
^* $,
-> _
with in
ile y
Ġvulner able
Ġsuper nov
met adata
}=\ {
ĠWindow s
ĠS ong
) )}
ir y
t body
m icro
assert Equal
Ġconnect ivity
man ager
ĠM arc
Ġint ellectual
Ġep id
âĢĿ )
\% .
Ġc ited
exp ression
Select or
ĠAnd roid
W W
Ġkine matic
Ġan satz
math rel
_+ $
ĠF L
Ġfor cing
Ġend point
> "
Ġswit ching
ĠS A
. (
Ġc ogn
Ġreson ant
Ġelli pt
com pos
oun ters
Ġl ots
Ġaccept able
Ġinnov ative
p red
ĠB at
Ġfall ing
ĠD B
test s
pe at
Ġb at
Ġrank ed
Tra ce
ou ri
Ġmole cule
Ġevol ved
Ġdist ortion
ask a
ĠUn it
ĠScot land
Ġshe l
}{*}{ $\
Run time
ĉĉĉĉ ĉĉĉĉĉ
Ġstri ke
re act
To String
Ġselect ing
c od
Ġc ref
k pc
Ġback grounds
il ateral
F ore
un defined
iv ated
Ġfluct uation
qu al
ĠMod ern
( .
Ġtrac es
ĠAn th
Ġnon negative
FF FF
3 20
at io
or se
Ġprofession als
Ġ" "
P ER
L INE
Ġdefend ant
Ġru led
RE AD
Ġmin i
ta gs
el and
Ġch ampions
19 64
? ?
te chn
su it
eng ers
Ġvisit ors
New s
Ġoccur rence
enn es
Ġg rounds
in aries
ĠH E
er ving
Ġcla use
Ġcumul ative
Ġw ra
st retch
Ġestablish ing
Dat abase
P lease
ĠW ars
Ġpredict ive
qu et
Ġattempt ed
ĠIO Exception
wild fly
R andom
Ġexp ans
Ġevol ve
support ed
ĠAd vis
ĠTh ough
W rit
Ġtheorem s
ĠPhys ics
Ġmetall ic
Ġal cohol
Ġasymm etric
Ġlist ening
Ġcon cludes
cou pling
Ġmove ments
Ġd ates
ĠA li
EE EE
Ġle pt
Ġadminist rative
ref n
van ishing
Ġout standing
^* )
}} /
ĠC at
ĠG ree
Set ting
Ġf irms
sl ashed
Ġ\ ,\,
Oper ator
Ġjoint ly
Ġsto pping
. }}
âĢ ī
ab ul
ine q
O ct
p ull
Ġal ert
* )
Ġv ital
0 10
tain ment
Ġiniti ative
ĠE ll
Ġa pert
ĠP rivacy
Ġquant ify
on ce
Ġgra de
Ġmaxim ize
bal ance
sp ot
osp here
ric s
ĠPro p
Ax is
Ġc s
Ġmon op
Ġup coming
Ñ Į
Ġanc est
Ġdeveloper s
L en
t ar
15 5
ĠA B
del ay
ed ding
pro c
Ġdegener acy
con tact
at op
iss ues
igen ous
v t
S B
break ing
Ġmodul us
cent ury
ĠL A
Ġt rib
Ġin cent
st orage
Ġo mit
im uth
n as
}\ {
ig ious
;\;\ ;\;\
Ġillust ration
Ġw inter
head ers
B a
Ġconstit ute
ĠĠĠĠĠĠĠĠĠĠĠĠĠĠĠĠ Ċ
el led
view s
anc ell
ĉ ĠĠĠĠĠĠĠ
off s
M art
Ġt ruck
small matrix
Ġcomplement ary
Ġcounterpart s
Ġgradu ally
Rem ark
Ġconstruct or
ĠComm and
ĠPh ot
constra int
g ue
prob ability
Ġport folio
ĠB and
\ >
ear ing
py thon
">< !--
Ġ âĢĻ
L ag
Ġm o
cho ice
pre v
ink owski
Ġtal ent
Ġsk ip
Ġvari eties
mult ip
book s
' _{\
19 65
) }}{
Ġpur s
Ġnot able
, '
H ig
cm id
it ting
ĠCamb ridge
riv ially
mem ory
ĠRel ations
Ġne uro
][ '
V C
Ġill um
act ivity
Ġray s
Ġatta ch
Ġoscill ator
Ġpre gn
I refn
ab ling
Reg istry
un ity
ĠF a
th row
Pe ople
13 2
ĠM s
V ec
Ġm il
p seud
Ġax es
S ocket
ĠH ash
Ġnarr ative
ffic iency
Ġadvert ising
00 4
Ġse at
Ġfound er
ĠPy thon
' ^
D ay
ah ler
N ULL
Ġleg acy
ĠCh ang
Ġfilter ing
) ]{
In tern
Ġspec ification
AN CE
sq cup
ĠL android
cmid rule
Ġf le
el son
Ġcy lind
L ower
p ing
Ġres c
Ġ$( {\
T or
Ġâ Ĩ
G al
en abled
sh ire
Ġsumm ation
Ġminim ization
Ġun changed
Ã£ o
Ġto urn
Ġpublic ations
ĠD aily
V ideo
)} +
Ġguid elines
W ang
M ass
Ġm art
ĠM essage
Ġwire less
Ġk illing
ĠW H
Ġ" <
ethe less
f erm
es is
){ $\
F ramework
Ġpay ing
ĠC ulture
Ġ> >
Ġad iabatic
ĠSoft ware
Const ants
Ġo mitted
Ġtens ors
h yp
Ob serv
0000 0000
ol ute
ĠA C
Ġdist inction
Ġsp acing
Ġad mitted
Bas ic
Ġanalyz ing
ĠB esides
as m
Ġl ang
}^ -
id ity
ĠApp lication
ole v
Sim ilar
Ġbos onic
Ġacknowled ges
Ġsuperconduct ing
S k
w atch
ĠSt ill
ĠCher n
ere n
Ġpick ed
ĠCar l
Ñģ ÑĤ
Ġpaint ing
ook ie
d ialog
ĠA z
Ġserious ly
Ġenc ounter
Ġhighlight ed
Ġlatt ices
Ġassist ant
Ġ" -
ã Ģ
sp here
ĠPro tection
Ġcolle agues
Ġclos ing
Col lections
Ġred und
Ġste ep
A ug
T x
ul se
ĠM ari
19 0
ĠO l
sl ice
Ġinter vention
}} %
ĠB ad
ĠCon st
Ag ain
12 9
ĠN P
Ġcancell ation
Ġrem ind
ĠB BC
' },
ĠW ild
ac on
m any
un ov
as ympt
qu estion
Ġsem antics
Ġen for
Ġcar ries
ris es
\% )
ĠAp pe
Ġg ar
th ur
Phys Rev
if old
il ty
rack ets
Ġb aby
int erest
ĠAl tern
G T
s amples
j ob
13 6
R oute
Ġsupp ression
Ph one
< !
Ġ ðŁ
Ġval ued
)$ :
^ -\
Ġsing let
Ġlaw yer
M AT
omorphism s
Ġload ed
Ġconf usion
ĠSing apore
ĠHol y
Ġt et
Ġre tain
enn is
Ġf abric
re ach
Trans form
N odes
s child
ĠConn ect
Res ources
Ġutil ized
ĠSe lect
ĠAfghan istan
z o
Ġb racket
)} +\
i ot
CD M
Ġun usual
Ġhypothes es
Ġsol ver
Ġvol umes
R ole
ist ration
Ġi o
ION S
P ix
t u
su cc
Ġhouse hold
Ġfa int
C ard
With out
vert ical
AL SE
}} |
)\, ,
Dom ain
Ġsign atures
w hel
ĠE ric
clus ively
ĠD oug
-------- ----
P arse
Ġlens ing
Ġproceed ings
eder ation
ish ment
Ġcy linder
P layer
al most
Ġcombin atorial
)^{ -\
ĠS mall
Ġt um
Ġa ds
Ġins pect
Ġ{ (
UR I
R edu
> :
Ġa thlet
necess ary
Ġmicrosc opic
ĠN ash
Ġtimes cale
Ġac oustic
fil ename
ĠS ir
Po inter
Ġload ing
sign ature
Ġthe rapy
Ġex clude
ĠE mer
comm it
Ġsepar able
Ġcapt ures
st ars
i q
) ">
Ġpar abolic
Ġviol ent
G W
t ons
Ġhab it
Ġqu iet
ĠAm endment
ta kes
ĠR F
Ġ} _{
{ #
ĠÐ ¿
Ġ& =\
app er
Ġbon ds
Ġexhib ition
}) \\
Ġf ract
U ST
Y Y
" (
ĠB ible
Ġb ought
Ġput s
ĠS W
Ġro unds
IM PORT
ĠB ureau
Ġcert ificate
Ġrele vance
Ġf ly
Ġdro ps
Ġgra phe
Ġcontribut ing
ĠL anguage
P DF
yn man
5 000
i at
Ġcy ber
iter ator
NN s
ĠDis ney
f lex
test ing
Ġf ranch
Ġun expected
Ġanalog y
Ġspirit ual
b ol
big cap
', '
l ishes
Ġsu pre
Ġperson nel
Ġelig ible
T eV
ĠL em
14 7
K M
R ate
in ous
w ho
app y
T aking
ĠT ab
b ing
exp ansion
Ġmiss ed
E mail
bu ilder
Ġemit ted
Pro gram
Ġh ang
Ġ ],
C ent
ĠW atch
Eng ine
Ġ" ,
ĠCount ry
ĠMark et
) }^{
el le
ĠC ore
ic ates
Ġeng agement
pg f
Ġt ip
Ġapp end
ve ction
ident ity
ĠHar ris
Ġadjust ed
the w
Th ree
Ġtrans ient
Ġgra in
L imit
=\ ,
Ġrecommend ation
ĠSch olar
Ġjuris diction
)\ ;
| <
Ġanalog ue
ol ars
Ġres ist
ho ps
Ġentertain ment
ric ing
ge o
Vari able
ĠT y
ter min
An alysis
ĠLew is
ĠAt lantic
ĠC u
Ġcomplex es
ĠFore st
ĠF ord
ĠS H
Ġtext ure
Ġcomputation ally
Ġc tx
Q CD
ĠH TT
Ġconcent rated
ĠColor ado
Ġdesign ated
Ġdo i
on ormal
Ġ[ "
Ġowners hip
, ...
Ġ$ +
Pat tern
P rior
Ġt ags
ĠP ur
13 7
Ġagre ements
Ġch air
Ġabs ent
log in
Ġinitial ization
ro se
res ources
vis ible
Ġout break
L ight
ĠR GB
Ġindust ries
not ations
Ġadequ ate
var sigma
Ġden omin
Ġcontext s
Ġpresc ribed
Ġtransl ated
Ġgovern ed
Gener ator
ĠBer lin
Ġsett lement
Ġst yles
ĠSch r
T ube
Acknowledg ements
H a
ĠR andom
Int Literal
Ġdefect s
ĠM ove
Ġspan ning
ĠA venue
Ġt u
as ym
lim ited
Ġt itles
w rapper
Ġen umer
ĉ ĠĠĠĠĠ
ĠT aking
C learly
Ġpres um
b inary
F ailed
N ational
16 5
Ġtrunc ated
_ (
Ġarm ed
ĠOrgan ization
itz er
clip se
c ers
isen berg
l ag
plic ation
20 2
ĠW rite
Ġsur jective
Ġfeat uring
id uc
Child ren
Ġparamet ric
ĠMax well
ĠM aterial
Ġex ports
Ġsc attered
Over view
ĠS her
v ity
Ġhost s
ra it
Ġarrang ement
{ }{
rop ri
e en
Ġop ens
\ ).
est yle
Ġb ij
Ġoff ices
\ ;\
Ġd ry
ann on
ĠMethod s
ĠInt eg
Ġgra ins
Ġgraphe ne
us p
ĠA rizona
du le
Ġsur gery
\ ),
Ġliber al
ĠHar ry
ĠL ater
S ync
} </
IN FO
b ec
uk awa
ĠB all
Ġme ets
AR D
Ġh ook
ĠDis c
sh own
ĠS audi
Sc roll
C RE
fe ed
Ġide als
up d
å Ī
mo z
Ġ( .
ma ven
ord ination
Ġequ ity
ĠE P
Ġbas elines
y al
Ġsol o
et ics
Pro v
Ġpurs ue
Ġex ponents
Ġreview ed
Ġcre w
it age
Ġhighlight s
ĠT ree
n orth
Ġdest ruction
Ġrepeated ly
ad j
J y
ay a
Ġaggreg ate
Ġany where
ĠPart ners
Ġestablish ment
Ġbran e
Ġtr im
ĠB O
Ġb ag
Ġcosm ology
Ġsub script
un es
L arge
Ġsus pend
am ents
Ġob l
Ġf at
Ġnot ions
Ġlabel led
Ġstream ing
Ġto ugh
b us
Ġsub spaces
bi ased
Ġdiff use
format ive
av g
t witter
ĠC os
nov ation
lib rary
Ġh ate
ĠR h
Ġcap ac
ut s
Ġqual ified
. ");
Ġcr ash
Ġax ial
ĠRes ources
de cor
() </
ĠPri ze
ĠR os
nost ics
H ub
Ġcut ting
ownt own
19 66
constra ined
plet ion
R end
ĠP ract
u ing
] ,\
Ġfix ing
Ġimportant ly
Ġt on
col n
ĠB it
=" $
rad io
Ġmonot onic
ĠViet nam
Ġre finement
Ġexpl oring
Ġmac ro
Ġcor ners
Ġma intenance
Ġr g
ĠM it
ĠW ord
al ias
Date Time
M iss
Ġel abor
_{ *
ĠF O
Ġm ine
Ġg rey
min imal
. ).
M ich
tikz cd
oust on
exec ute
ill ation
SS M
Ġtra p
? >
Ġsimplic ial
Ġm asks
ĠB attle
x html
ĠC ru
}} [
sh ips
rop ical
Ġden ied
Ġmob ility
ĠRequ est
ĠNe umann
ĠS on
Ġpat ches
reg on
Ġstreng then
ĠPe ace
ĠTh anks
Ġan imation
Ġelect rical
ĠT reat
ust ain
ff ff
Ġcol lections
nes ota
)= -
in verse
ph an
Ġreg ret
Ġhe x
ul ates
. <
Ġneighbour hood
Ġ$( -
br and
Ed ge
Ġto m
Ġsoph istic
Ġun certain
min imum
lim sup
{ "
Ġde ployment
2 24
Ġman ual
Ġtalk ed
Ġle verage
Ġproceed s
Ġs ou
multi ple
ĠCh annel
ĠMan ager
Ġw elfare
Ġle ver
writ ing
prec ated
t ures
Ġrec ur
V S
ur c
Ġcon fined
Ġrel ates
rib le
. :
V A
Reg ion
ĠWhe ther
Ġg ro
Comb ining
Ġsize of
Ġminor ity
- }
ĠEd itor
Ġm ild
as hi
Ġshe af
Requ ired
h us
Ġsearch ing
equival ent
ĠFin ance
Ġpion e
}$. }
ĠB la
Ġma il
li ance
t v
Ġsat uration
Ġeigen states
Text ure
index Of
BU G
Ġexceed s
Ġun de
dis crete
Ġnucle on
P air
t l
Ġth ir
Ġph arma
Ġt iny
Ġg ay
c as
W rapper
z i
at able
ĉ ĠĠĠĠ
T I
Ġh az
me as
Ġcon scious
ne ed
Ġstat istically
Ġs ick
ĠWh it
Ad S
)\, .
ĠI mages
S kip
ĠWith in
ich ol
U K
ĠCl in
riter ia
s om
}}{ {\
H o
Ġinvest ments
19 20
l ot
Ġdist ant
Ġfre ely
associ ated
ĠG ets
^{- (
Ġh opes
H u
ic ious
A K
Ġdocument ary
s pl
mod es
Ġhad ronic
ĠL ib
y o
mathb in
Ġimp ressive
m art
Ġob ey
ĠM arg
Pass word
p rom
load ing
. ",
ĠV ideo
im ir
ly n
gu ide
Ġ} ^{
| +
Ġsche ma
P ut
ĠR ail
ĠG alaxy
ĠPh D
Ġvis ibility
pro gress
ĠSen ior
ro matic
Ġref used
Ġd rivers
ad v
neut ral
Vis ible
n othing
part ition
o es
T i
L u
Ġdomin ates
Ġpursu ant
p al
P ress
}^{ -\
E s
ĠL td
ĠF BI
ĠW ales
per formance
qu bit
OR Y
an th
i est
t f
Ġd ictionary
Ġla id
as ync
ĠH ay
ĠDen ote
spect ral
Ġstat istic
ĠSe veral
}{ (\
Ġrout ine
}) _
Ġf inger
amp ion
commut ative
ma jor
Ġen emy
'' )
Ġdra matic
Ġt ube
B ro
Ġpart ly
cl ock
En ter
ific ant
IF AR
G H
pa rency
Ġhead ers
F D
M ill
Ġaccompan ied
ow a
au er
sv g
Ġsens ing
al ph
CT YPE
st ration
ĠV ill
') );
en h
ey ond
Ġ( {
( |\
ĠK ansas
p u
Ġmu on
Ġb ol
ĠCon vention
ĠCont ent
Ġman aging
ĠMag azine
Ġopp on
U C
19 30
Ġcal ib
X iv
ag a
Ġcon form
S ever
Ġs lic
bl ank
ur ious
"" "
od s
Ġlog ger
Ġdecre ased
res on
13 3
ĠRes Net
L anguage
Ġb ind
Ġinv ited
ure rs
Ġj Query
Ġs now
Ġmultiplic ative
Inst all
Ġin ev
Ġoper ates
}) +\
g z
ĠK al
R G
f li
r h
Ġc reat
Ġdes irable
St ats
Ġdo ctors
ä »
Ġexp enses
F i
Ġal ive
New ton
ĠEar ly
g m
Ġwor ry
)}{ (
Ġ Ø
qu arters
h our
Ġre putation
Ġvot ed
Ġcard inality
ar ound
Ġbe ar
pre ceq
mat ter
ib l
Ġd rum
13 8
Ġbo ys
Pref ix
Ġas ide
Ident ifier
perturb ative
App ro
Ñ ĩ
EN SE
ĠDi ego
ĠS quare
part icles
ss on
AN G
fe atures
ĠInt eger
am plit
ĠHar vard
Ġre written
Ġcom edy
Ġshort ly
ĠPl ace
ĠMem orial
Ġhand led
Ġwidth s
Ġpl astic
ĠLa placian
Ġ{ "
j unit
ĠSan ta
ĠN AME
Ġwe ar
Ġs oul
)} -
Ġinf ected
Ġpresc ription
Ġqu art
it ol
Ġob sc
ac les
ĠN ether
Ġyield ing
ĠCl oud
she et
Ġpermit ted
EC K
ĠB ox
hand ed
Ġmod al
on ds
rob ust
ro zen
j j
BP ACK
] =\
Ġcar rier
Ĥ ¬
mid t
Ġcomput es
$\ {
sp acing
Ġsupp lement
l abeled
Ġran ks
print ln
he nce
ĠG allery
ar on
S K
at ern
o pp
19 40
14 3
Ġcompet ing
Ġthreat s
Ser vices
)\ |
ĠA mb
Ġse asons
}^{ {\
al p
Ġs addle
im ath
Ġover whel
con clusion
Ġinterview s
e u
Ġcol ored
Ġsub stitution
Ġpub lishing
RE Q
Ġvirt ually
Ġor ange
Ġshort est
Ġpack ages
run ner
Ġfil tered
o ys
ĠEnvironment al
ĠB rian
000 1
te ch
Ġin qu
Pe er
Ġb ow
)= -\
ĠSt and
Ġins pection
Ġsmooth ing
Ġqu oted
Ġpul ses
ĠM oh
T oday
M ove
lim inaries
Ġint ense
if urc
ĠF red
uls ion
Ġcon figure
ass andra
æ ľ
Ġfor b
Ġde emed
con sin
ab stract
Ġmy th
Ġpl aus
Ġchar set
PRO JECT
,\ ;
/ {
\| _\
re tt
Ġdirect ors
over s
_* $
b rief
ĠE ss
u j
ĠR oss
ĠN LO
Ġle tting
end ers
mer ge
in valid
Ġdra ma
ĠA SS
ĠEx pl
P al
se mi
Ġsp okes
Ġk il
ur ches
M aster
P ower
Con stant
v ary
ĠHe art
Ġlat ency
j ud
Ġhad ron
ĠM att
ÑĢ Ð°
ĠP L
Ġev il
ĠBro ther
Ġsh op
list ing
Ġw ake
Ġvis iting
}}( {\
ĠS QL
Ġdomin ate
Ġconstant ly
Ġemphas is
ĠN AV
' })
Ġp ushed
}, \,
Ġg ram
S at
ĠG C
Ġstri king
v b
Ġh at
ract ing
Al g
\ #
get Element
iam i
ut ter
Ġra ising
ĠDe ad
ĠN ative
R ender
Ġrecurs ive
ĠIn s
mag n
ĠR ow
Ġhospit als
c A
d am
w ould
R ot
or ption
e lem
col sep
" ].
Ġtriang ular
Ġm s
Ġsol ves
we ek
ĠCh airman
Ġvic inity
S pect
=\ !
Ġ ic
Ġspect roscopy
sign al
orient ed
C at
( __
ĠS Ne
ĠV ector
Ġen force
Ġin clusive
no on
T ER
b urn
st ery
overn ment
ĠPh ilipp
Ġbelie fs
li u
Re cently
ĠW y
ĠLe on
}^* $
Ph ase
Ġdescript ions
Ġbipart ite
Ġm d
Ġn ested
Ġs essions
Ġbi ased
anc ies
Ġcondens ate
Ġ ...,
Ġcontinu ation
A bs
2 16
Ġpl enty
L ow
}_{ +
Ġret ired
ĠP sych
bo ost
ir r
) &=
Ä ±
Ġin ject
ĠT ony
Ġflex ibility
spring framework
Ġann iversary
Ġqual itatively
side bar
Frag ment
Ġpat ent
Ġunder go
sc ience
Ġtri plet
ĠE ND
Com pat
ett i
d ays
Ġspars ity
l ad
ext end
li est
or ange
olog raph
Ġtra pped
in der
)\ )
ĠO S
ĠH I
ĠE W
Ġfore ground
Ġp itch
ok er
con e
In formation
ĠA sh
ion ization
DO CTYPE
Ġform ulate
Ġu i
, âĢĻ
col lect
Ġt x
act or
AR CH
Ġall Classes
Ġn ic
fin ing
Ġfaith ful
Ġon set
ch rot
S n
0 15
ĠM rs
G ood
Ġauthor ized
ol id
Ġun em
ĠallClasses Link
Ġo cean
d uration
Ġpuls ar
E nergy
w ere
Ġcoupl es
Ġhas n
Ġtrans c
vi ol
Ġc ab
ĠF ried
ĠO ak
eg as
\, $\
Ġsac r
re lease
trans fer
C hen
Ġaddress ing
I ll
ĠS ob
Ġaz imuth
d w
Ġemerg ed
M ake
Ġb orrow
Ġfl are
Ġac id
Pro gress
{ +
Ġharm on
Ġcontam ination
U ri
Ġt ort
st eps
ĠDo es
own er
Ġen orm
AS H
ĠN ic
ID TH
uit ively
Ġm ilit
chrot ron
ĠP ot
Ġbl ind
N i
99 99
Ġinstrument al
en ius
Ġcent uries
rm k
s z
th ird
| ^{\
o il
Ġacqu ire
ma ker
olog ists
check ed
Ġdut ies
LO CK
ĠNether lands
ĠSh ould
ester day
ĠG P
min im
rab ility
v ac
Ġo ct
row e
ĠS ou
cor related
} <\
EL D
ĠCE LL
Ġst em
Ġre pair
on na
ĠF W
r in
Ġdiscret ization
Ġchild hood
F ocus
ĠE T
option al
Ġpermut ations
W he
part icular
h uman
ĠUn like
3 75
Ġt ries
R ober
Ġsupp ress
ch apter
look ing
ĠF r
Ġper ception
comb ination
ic ator
Ġsk ill
ĠE mb
u id
$ ^{+
in als
nt il
Ġorth onormal
Ġut ter
ĠH R
ĠH ttp
en ario
Ġli ability
ĠReg ister
Ġslow er
n an
n or
Ġun clear
R ich
ĠRepublic ans
comp ress
ĠAN Y
Ġad option
Ġfore ach
Ġg a
ĠT itle
att ention
Ġpolit icians
Ġencourag ed
st rip
Ġevery body
Ġamb ient
ĠJ ean
Ġincl ination
]{ $
s or
Cl oud
c H
De ep
We ight
ĠPort ug
Ġan notation
M IN
/ _
uc lear
graph s
numer us
Ġtem p
Ġw ins
Ġste el
numerus form
ĠG ram
ĠL E
ĠReg ion
ĠP rim
En umer
]{ @{}
h op
Ġsuper symmetry
Ġf ruit
o ft
F ace
}} ]
19 63
oun tains
an es
ĠN ick
ĠOrig inal
re dsh
AM P
ĠR ose
CH ECK
Numer ical
^* $-
Ġes cap
20 5
Ġcirc uits
Ġm im
TE XT
w art
Ġopin ions
s ed
different ial
RE D
Pro blem
o S
Y ear
N M
hig her
Ġc ube
Ġstru ck
m ony
Ġj ury
Ġp sy
Ġact ively
Ġf old
Ġwar rant
Ġsuper symmetric
ĠSt one
prec ision
Ġin set
Ġcommun icate
Ġgu ilty
Ġiniti atives
Ġrot ate
bu ilding
down load
dis cuss
Ġdeploy ed
ĠD id
ĠW IT
14 2
st rict
M icrosoft
ĠL LC
C art
Ġwin ds
Ġu pload
Ġbeaut y
bu ilt
Ġvol at
on ing
high light
Ġh ide
Ġdecl are
g al
Ġ ip
n od
f v
ĠMem bers
Ġaccording ly
) ->
ell s
ĠSt ation
ĠInt elligence
V P
Ġbur den
ĠMin nesota
Ġc md
Ġch amber
C r
ĠMo ore
Ġretrie val
| $,
2 80
pm od
! "
\ &
ĠC limate
Ġsub div
Ġpurch ased
Ġgu est
Ġmin ds
EEEE FF
ĠN i
Ġmonot one
Ġident ifier
ĠStud ent
ograph ical
ĠKore an
Ġn p
CO MP
Ġemploy er
ĠHerm itian
M ask
am ps
b is
ĠM R
Ġpar liament
}) ]
c z
de rer
Plan ck
O k
h size
m v
re ma
ĠM ilitary
c C
}: =
ĠSch warz
2 60
Ġex clusively
bran es
ar ry
ĠMary land
Per formance
label s
Inter val
En vironment
he t
}] ,
ourn als
Ġen um
TR UE
tr uth
Ġre pository
Ġplace ment
Ġeigen vectors
Ġheur istic
pro xy
C ert
Ġb ilinear
ĠL ic
/ {\
oper ation
w ind
7 50
B ottom
en berg
ĠL STM
stit uting
b k
pro port
Ġsimultane ous
L AS
Ġpl ugin
Ġdown stream
ĠBu ild
thin space
OR M
j p
Ġl y
Ġle x
St andard
Ġtravel ing
}} ^{-
can onical
Ob serve
T yp
ge x
Ġcam eras
Ġtroub le
ĠSim on
ĠT ag
ant e
16 8
M ouse
Ġaff airs
F LA
st s
Ġl ag
Ex amples
Ġconstitution al
Ġreli ability
ĠT i
Ġrest ore
Conn ect
Gener ated
V R
WE BPACK
T HE
Ġor b
w ick
ide al
14 8
Ġbro ke
ĠV en
Ġaffect ing
ĠDesc ription
F inal
d B
en vironment
Ġpl ain
Ġjust ified
Ġsp anned
d V
c L
. ),
Ġst ick
ĠO s
Ch apter
Th om
Ġtunnel ing
Ġc ards
ĠBel g
Ġpopular ity
ĠM ult
Ġcomp ound
Ġman ually
ĠP ack
ĠW el
Ġstream s
Ġst ood
ĠF isher
Ġdiscuss ing
ĠAir port
Ġt el
Ġph rase
n at
determ ined
M or
2 11
M W
we ets
gener ic
diam ond
pol ynomial
G F
ĠSt ructure
D b
ge ometric
ĠD A
Ġsk etch
19 45
Ġexplos ion
od a
ta king
compat ible
Ġinitial ized
Ġdis appoint
direct ed
} ''
Con sequently
Ġas ser
D ynamic
' }}
Ġbeam s
lik elihood
Ġpredict ing
ĠMat hemat
ĠJud ge
Ġminim a
} &=&
Ġb eta
comp ass
bi as
Ġult imate
F uture
Ġrestaur ant
Ġmin us
ĠPaul i
, -\
er ry
B Y
Ġf urn
C AL
ĠD ra
IMPORT ED
Ġspl its
Ġreser voir
ce iver
l Vert
Ġsupp orters
Ġsophistic ated
om at
B inding
if def
rob enius
Ġtext s
I AL
T IME
el ve
Ġapert ure
ub es
Ġrare ly
and al
}= {\
VAL ID
and y
math ord
Ġre lying
ĠCh air
Ġaggreg ation
DE FAULT
}) -\
back s
ĠC FT
cept ions
p icker
ĠS ep
grad ed
3 000
pect ives
Ġemploy ing
PO ST
Ġincred ible
E v
Ġirre levant
ĠD am
ĠPalest inian
ĠLin coln
Ġinitial ize
ĠĠĠĠĠĠĠĠĠĠĠĠĠĠĠĠĠĠĠĠĠĠĠĠĠĠĠĠĠĠĠĠ Ġ
mm ode
Ġgen re
ene z
pos al
Ġarray s
Ġsem ic
Ġinvestig ating
Ġsy nd
OC K
al ong
ĠM E
G rad
Ð ·
13 1
Ġsome how
ĠPo incar
I ds
Ġremov es
Y our
ĠF ront
Ġinser ted
ser ial
W allet
Ä ģ
s ampling
ĠW i
Ġvis its
-> ,
ap os
_* (
Ġent angled
Ġaut hent
Ġmerg ers
ev ol
fl ush
S ame
Ġdetect ing
2 15
Us age
)+ (
Ġhost ed
and o
ĠR oll
Ġpref erences
if mmode
ĠL iter
ĠM inkowski
14 6
19 18
t uning
cre ated
W ord
Ġret irement
ĠP rom
19 62
Ġdynam ically
Ġres ident
Ġclass ify
Ġany more
T ri
lem an
ĠP it
user name
NavBar Font
th us
ĠU I
ol itan
n k
st an
alax ies
ĠRec ord
Ġfil tration
Ġequ iv
un ter
ĠH IV
Ġsp heres
Ġnom inal
acknowledg ments
DE s
T ake
Ġnull ptr
Ġlearn s
Ġrefer ring
Ġsub sequence
Ġbar riers
ĠC orn
ĠB os
Ġperturb ed
Ġem otion
ĠC F
33 3
eli ke
Ġdemoc ratic
ock s
}{ |\
L y
St ructure
ad just
ill ance
Ġhouse holds
Ġl ocus
IN S
Ġconf ident
chang ing
ĠRe cently
pix el
le v
- |
ĠIm port
Ġn u
Ġbij ection
âĢ ĭ
m ouse
) <\
Ġimp lying
Ġparad igm
al o
B ind
Ġf idelity
ul sive
Ġmore over
r p
ĠB rand
Ġse vent
it ro
Ġn od
Ġsatell ites
Ġwal ks
Ġtack le
Ġro utes
rypt ed
ĠLa ure
ĠPer formance
oc key
ĠLeg end
Ġas c
ĠM pc
ĠH ouston
{$ {\
me ans
cccc cccc
ĠP T
Ġact ress
Ġe at
Ġgradu ated
ĠLe vel
Ġcritic ism
r uby
Ġv oc
ĠAll en
ĠAssum ing
s sec
ion e
typ edef
ĠF I
Ġad min
ear n
Ġco ff
int rodu
ount ered
N V
ĠB udd
Ġset tle
Ġimplement ations
ï¼ Į
N I
/ "
ap unov
rit ical
Ġ? >
ĠL ev
ing ham
ĠR yan
ĠJ ane
Ġ' <
AT ED
Label s
UN D
t ick
ig e
N orm
C ross
Ġbenef icial
S elf
ent a
ĠF P
T ile
k ish
IC ENSE
usal em
Ġint ra
0 25
He alth
Sh ape
Ġalbum s
be am
ĠSpe aker
ĠBrown ian
Ġent ers
C ost
ĠN eg
Ġag enda
dis cussion
}{* }{\
che stra
¿ ½
ove re
Ġexplan ations
ul ators
d g
ĠN ob
ĠYou Tube
ĠMiss ouri
ah n
ĠAp ache
) ^*
ak ov
}| $
Ġres p
Pl ot
Experim ental
i u
Ġinvolve ment
Ġener get
ĠI sing
s it
Ġaddition ally
ĠPat rick
Ġconvers ations
Ġsupp lied
20 8
Ġacceler ated
Ġf estival
ĠH ung
Ġoffic ially
Ġimplicit ly
Ġsc roll
vent ions
Through out
Ġen abling
Ġexp ense
l ene
t ow
Ġmunic ipal
ĠWis consin
ak ed
ograp her
ĠGold en
> [
B K
ĠN FL
Ġbatter y
ang el
L android
Wh ite
ric ts
pa pers
pro ved
100 00
; )
S an
Ġam ended
w al
an imation
oc a
ĠS ix
ĠLeg al
Ġg ift
co herent
Ex tra
}}$ -
ĠPolit ics
ĠB ridge
id ually
Ġconj unction
Ġinter faces
W ho
ID S
H F
}) (\
con sole
Acknowledg ments
A SE
Ġ[ (
ĠS av
ar ance
ĠAn aly
v p
ĠVal id
Ġcl arity
n ob
s afe
ĠO cean
> ::
g lu
Q A
ris k
un a
az y
Ġwere n
Ġo x
Ġri val
m ust
Ġviol ations
o or
Ġ\ }$.
Ġch ap
ĠAut o
Will iam
m al
Ġt une
}\ !\
Ġsub stance
ĠF ROM
Ġwe bs
ĠUn ivers
ĠCom ments
ĠUk raine
t re
OM E
Ġpay load
C u
ĠHot el
Ġdi ver
esp read
ĠP U
ĠPolit ical
p k
f ake
ĠGree ce
ial s
e or
Te X
zer land
ma ch
ĠCh all
B ERT
Ġluminos ities
Sh ould
@ \
ĠFor ces
d dots
Valid ation
Z hang
Pol y
Ġm ountain
ĠSt ream
Ġhe rit
ĠChrist ians
ma pping
med ium
Ġpred omin
Ġparticip ating
Ġte ch
Ġre ven
Sp in
Id entity
Ġ\| _
wh ose
Ġhard ly
Ġrob ots
ĠArray List
g lyph
em ission
Ġadvers ary
pp ings
ĠNAV BAR
g oto
Ġant is
" ],
ĠN orm
Ġpack ets
æ ĸ
Ġfib ers
AV E
Ġrelax ed
{( -
Ġsett led
Ġold est
dest roy
r ison
ĉĉ ĠĠĠ
Ġcor pus
Ġsyste matically
Ġcele b
16 9
Ġgovern or
Ġocc as
vari ables
ap ing
Ġl ibraries
yn olds
)}\ ,
Ġcelebr ated
Ġrem em
H aving
Ġimmig rants
ad van
Ġindic ation
Ġf iduc
od ox
ĠF A
ant ed
C enter
Y M
\ :
ed ges
ro it
ĠH ave
alth ough
war ning
m orph
ass ign
24 5
Ġt ies
array stretch
Ġthresh olds
h ape
Ġjournal ist
Ġprot ests
Ġphon on
Ġsee ks
analy tic
ĠĠĠĠĠĠĠĠ ĠĠĊ
ĉĉĉĉ Ċ
Ġb rackets
D etail
ze ch
ĠMuslim s
z ed
Ġout going
u y
( --
An n
ĠL L
ĠS ud
L and
w en
Ġ ~~
ĠCO L
ard o
Ġthrough put
Ġqu ote
ĠM IT
Ġsuper position
N F
ĠH an
Ġresidual s
ĠCh ap
s ided
ĠA BC
M ach
Ġde pos
23 5
Ġser vers
; ">
40 4
_* \
Ġpart on
Ġre fined
ĠPh ase
ĠD ise
Head ers
Ø ±
ir t
Ġcontroll ing
ĠCov id
Ġex terior
pres erving
Ġappreci ate
}) _{\
Ġdet ections
Ġcount able
Ġan xi
AR R
Ġrem n
Ġ$< $
Ġshock s
ĠHTT P
M pc
ĠT elescope
Ġ" $
( @
k ar
B egin
ĠC IA
E u
Un ited
ĠLand au
S om
Ġpe cul
ĠC it
Ġlong est
ern al
Ġdisc ount
Ġexam ination
Ġopt ically
Ð ¿
continu ity
00 7
Ġtime out
A li
s ources
Ġeas tern
ï ¿½
ĠK a
gra duate
raz y
Ġhydro dynamic
w iki
s outh
Ġproxim ity
Ġabsor bed
Ġafter noon
Ġsem igroup
im ony
j ack
Ġo d
Ġmat h
ĠSI ZE
Ġrefuge es
Ġprint ed
ĠAb stract
Ġrig orous
m essages
Ġsh ips
ĠRef erence
SC RI
ĠK r
A lex
Pro f
Ġwid espread
Ġanten na
work s
Ġsuggest ions
M ot
u ating
}\ }
Ġtrunc ation
ĠL arge
S equence
Ġlist ener
ĠM oon
}= (\
er v
ĠNiger ia
Ġc ot
curs or
Ġs la
Ġpass ive
em ark
Ġaugment ation
ĠC olumn
e conom
Ġmerg ing
hel per
Ġto wer
13 9
! (
R P
RE S
lic ense
Re view
Ġt ied
Ġl ad
P et
Ġear n
resol ve
h istory
Ġin complete
Ġcor ruption
Ġed it
Fl ag
ĠW as
ĠEx change
Ġintegr ity
par ity
on der
est ab
ĠSaf ety
(' /
dor ff
ab ama
Ġal pha
ĠCl ark
Ġplanet ary
S creen
claim ed
ole cular
Ġball s
Ġlist ing
Ġenc ountered
Ð¾Ð ²
ĠP SF
Ġl ands
Sp an
Ġbase ball
ĠS olar
Ġsomew here
c ategories
ph rase
diff erence
VAL UE
neighb or
ĠStud ents
ex it
ĠF ather
M ETHOD
ri ends
Ġres ort
Ġcompa res
ĠKenn edy
RE G
ress ions
Ġexpans ions
log o
Mod els
ĠMod els
ĠRem ove
N amespace
Ġconduct ing
() ))
lic t
Ġexcept ions
Ġcitiz en
Ġdesc end
99 9
experim ents
... </
ak h
Ġextrem al
Inst ead
Ġbrother s
ĠL as
or ry
A z
set counter
Ġwe aring
ĠMe asure
19 61
ression al
# {
sh aped
Ġ }.
Ġdiagn osis
ĠK evin
Ġcatalog ue
Ġisol ation
F N
)/ (
$ |
Ġpro g
ia h
Ġevol ving
S a
ic ut
riv es
c ous
it ance
imod al
ĠBol tzmann
Jo in
ious ly
Ġautom ated
ĠM iami
d h
Ġcomm ute
r ational
ag ain
Ġ' \
hy dro
Ġeth nic
face book
Ġar cs
Ġdwar fs
consist ency
}$ }\
Ġmag ic
Return s
15 7
ĠTheorem s
}) /
d yn
Ġmem or
ĠHop f
}\ }_{
(\ {
18 5
arg o
d ense
ĠD utch
r ules
ĠM ountain
I mm
set ting
Ġth rown
Ġinfin ites
Ġin hib
Ġcomput ers
Ġpro s
Ġemer ge
55 5
Ġviol ated
Ġtra ct
ic i
int roduction
ĠLa place
check box
ennes see
Ġprom oting
D G
Ġsc oring
Ġannounce ment
ĠY ukawa
tes y
Ġdra matically
ĠK now
ens en
}^{ *}
Ġbeh ave
Z ero
Ġd z
pre vious
? }
ĠP H
Ġlo ans
ular ity
s us
incre asing
osc ow
Ġalloc ated
Ġoblig ations
Ġgenu ine
Ġsh aded
cos ystem
Ġadv ances
Ġ( -\
Ġreal izations
ĠHow ard
rowe ak
Ġt rivially
19 5
Ġhol iday
Ġclass ifiers
ĠC ancer
00 6
ĠEx amples
ĠGR B
A W
ph abet
App lying
time out
'' (
Ġlegisl ative
ĠC G
An imation
Ġmac roscopic
Diff erent
$ }.
S ave
Ġinter fer
Ġb asketball
D IS
mat es
Ġpron ounced
gg reg
} ')
/ $
3 30
Ġaut onomous
sm ash
$. \
Qu ant
D an
Ġor acle
Ġpul led
ĠP ear
get Value
Ġfarm ers
Ġident ifies
Ġpro gen
Ġdel iber
in ema
net t
Ġf li
Ġbr ill
ĠL ady
ĠVictor ia
ĠB ry
Ġupd ating
Be an
to pe
sub script
Ġfair ness
Ġsubstr ate
Ġp ending
Ġscal ars
structure s
Ġ ];
ro ute
tr l
Ġf riction
ĠD ream
ĠG reg
Ġterror ist
Ġt sd
n ice
US ER
cont ents
ĠG O
ĠAnn ual
ĠL ut
Ġatt itude
Ġparameter ized
ĠOlymp ic
Ġfranch ise
ĠO pp
Ġsc ored
ĠM W
Ġde leg
ĠC ab
Ġgeom etries
R o
W ait
ç Ķ
$. \\
ole t
Ġf ed
D OM
ĠP erson
15 6
interpre t
am ount
Ġas semb
z ip
Ġval ence
ĠObserv atory
un ning
}} },
Ġele v
Ġbi ases
ĠC V
ĠO C
Ġ& +
ĠM N
tan h
Ġany way
Me asure
ĠMean while
eg ree
an im
Ġnav bar
dat abase
Ġun ified
Ġsequ el
Y P
c atch
ĠR G
Ġim posing
win ning
Ġinsp iration
c ot
Ġh ack
ĠB or
ain ing
ĠG az
Ġtourn ament
ĠPub lished
Ġident ically
Ã ±
run time
Ġg ran
Ġaugment ed
arc el
Ġpub lish
Ġherit age
pro f
L F
Ġp our
ĠD or
ĠMay be
Ġcompat ibility
Ġwat ers
yn chron
Ġperson ally
Ġamong st
Pro to
Ġro oms
Ġover se
ĠC ert
Ġintu ition
R M
stud y
second ary
Ġlegit imate
Ġh opping
Sever al
Ġlik ed
ĠF inal
Ġun bounded
ĠReg ional
Ġliter ally
Den ote
16 7
Ġres idence
St atic
ĠT a
desc ribed
Ġcont est
enc oder
Ġindex ed
ck s
Ġret ro
="../../../../../../ ../
$ [
Ġf ired
Ġconst ructions
ibr ations
Ġtrig gered
UT H
Ġp ip
ĠS elf
Ġell ips
Ġst one
Ġinj uries
p kg
20 4
Ġ> >>
add ed
ric ulum
Ġ+ (
en o
ĠW ikipedia
}^{ [
})- (\
d ynamical
re ng
Input Stream
ff ers
E p
Un iversity
Ġsu icide
Ġappoint ment
}- {\
redu ced
Ġanonym ous
pre ced
Ġun con
Ġaccompl ished
ens itive
che ll
[] {\
r insic
Ġp or
M arch
Ġsuccess ive
Ġorgan isation
Ġres idential
Ġcompet e
Ġprogress ive
Ġperson ality
å Ĳ
Ġst ops
er ves
Ġcontact s
Ġg athered
ĠO regon
as ets
ĠSim ple
iam ond
ĠJer usalem
K n
ĠB orn
ire ctor
N U
Ġgener ative
Ġf la
s ocket
ĠL ik
gener ate
as hes
Ġbl ank
Ġbre ath
em on
War ning
getElement ById
ĠÐ ²
L aw
ass er
ĠDu ke
Ġval uation
Us ers
out ube
ĠRes pon
Ġover lapping
Ġre vis
}\ ]
) &=\
Ġtheore tically
Ġt uned
Ġopt s
Ġ\ ;\
ĠP rivate
determ in
Ġtra il
ĠQu antum
r Vert
qu asi
Ġant ib
ĠR V
Ġhead ing
Ġsched uling
Ġam end
Ġvi able
Ġattract ed
sens itive
B inary
ain ed
st ability
Ġt ile
}' \
ĠPol y
Ġend points
chi at
ud a
ĠAg ric
Constra int
ĠCap itol
ĠMach ine
cal ar
Ġprot ons
Ġinflu ences
ĠAnt on
f ive
ĠD L
aver aged
ĠSwed en
Ġcomp iler
Ġpoor ly
ĠAL IGN
D id
Ġ ^{-
ĠS ets
aus dorff
Ġjust ify
) &=&
I gn
im ag
Ġpl ug
ĠA F
Ġinter f
ĠSum mer
ĠF ed
)) =\
ĠVir tual
be it
Ġr ide
Ġsub algebra
B ra
ci pl
ellig ent
bes gue
b h
ex ponential
s ocial
ĠD a
ic ating
Ġk it
K P
o i
ĠP E
K w
construct or
S al
ID E
m ixed
ĠO t
ĠN ature
B ay
em e
Ġarrang ements
ĠC lient
ĠL es
D onald
Ġcere mony
Ġab road
Ġb ifurc
Ġair port
ĠB Y
ĠT ok
rr rr
ĠS eg
Ġc of
&& &&
part s
_+ (
S NR
Ġsh ar
Ġthe sis
ast s
R ay
Ġsw im
aw n
ĠE V
/* !
C W
Ġir regular
ĠT yp
ĠCart esian
Ġb rown
ĠD etails
v g
Ġconflic ts
ĠIndian a
P rivate
all as
Ġ\ ;\;
Spec ifically
arg uments
An aly
dot sc
) &\
k j
pie ce
Pres ident
Ġartifact s
Ġc ust
mm as
Ġstrong est
Ġresol utions
)} )$
Ġhuman ity
ĠAss istant
Ġs b
W est
ric ted
Ġsch olars
cl one
p ure
comp ile
Al low
Ġsurpr ised
s ync
Ġland mark
R PC
ĠYear s
Ġcomp ress
ĠT otal
Ġpre val
m ade
Ġdecl aration
ĠIsl ands
R ank
Ġindiv idually
Ġt rem
Ġent hus
Ġ< \
Fe b
LE D
[ [
ĠT en
ĠSto kes
Ġ& &\
** *
t oc
Ġb acter
ĠCent ury
ĠOb serve
Ġsurround ed
l ive
Ġp uzz
thr ift
14 9
or ce
hom a
ĠSt atus
Ġlaw yers
ĠAst ron
Ġrec urrent
Ġcogn itive
ĠH it
ĠSe ctions
arm s
cur ves
ĠT ai
Ġst ere
Ġchem istry
h ill
ĠH ess
numer ical
ĠW ang
L ib
r times
fact ory
vis ual
Ġsc ul
j an
ĠGa uss
Ġparametriz ation
St ruct
Ġcur rency
Ġreprodu ced
Ġrend ering
ex plicit
\! -\!
Ġdis aster
Ġterm ination
| (
Ġcalcul us
Ġbl ess
equiv ariant
ol y
sh are
Ġannot ations
inv est
iz z
Ġm ouse
IN ST
N eg
$ },
ph on
Ġfunction ality
Ġm i
Ġdecom posed
ĠD ick
De legate
normal ized
Ġcelebr ate
plic ate
link ed
Reg ister
ta h
Ġthe atre
Ġsub tle
Ġt rick
sp arse
Ġport ray
ur ric
20 3
Ġemploy ers
Ġnegoti ations
O wn
ĠU C
}[ (
15 00
Ġsub stitute
Lo op
ĠSar ah
C ov
)\ }$
ident ifier
: @"
ĠEconom ics
ĠU pd
Ġprepar ing
s ent
ĠF reedom
Ġsuscept ibility
le igh
Ġwat ched
Ġformula e
Ġsupp lies
Ġiniti ated
^ ^
f box
Ġ__ ____
Ġextra ordinary
ORD ER
ract ive
Ġorbit als
sc attering
Ġin hab
p ages
lu x
P UT
Ġroad s
\, ,\
15 8
T X
M al
Con sumer
Ġroot ed
Ġb ootstrap
ad i
Ġp unct
Ġinj ured
ĠT ogether
ĠA h
he alth
Pub lished
D a
Û Į
14 1
q w
ri ev
ĠDo ctor
Ġinflu ential
W il
ol ly
Ġmonth ly
ron es
Jan uary
i ac
ĠN ation
maxim um
ĠRic ci
ĠM ount
gener ation
Ġarrang ed
ĠChampions hip
H am
eps fig
Ġw age
Ġvisual ization
gener ator
Ġcomb ines
0 11
Ġatt ra
ĠLabor atory
Ġh olograph
Ġde leted
ĠL com
ord ial
Ġen act
Ġt act
Ġper ceived
L ibrary
fol ding
b ands
Ġmusic ians
D U
G old
,- .
m g
Ġbus y
cal es
Am ong
å ®
% "
ĠT ags
Ġb orders
kw args
ĠN L
ĠSy d
Ġwh ilst
Ġkine matics
N GC
Ġappropri ately
ĠSe cret
path s
w ner
Ġaver ages
tab len
Ġ\ '
la homa
Al tern
ĠB reak
ĠLab our
Ġmes ons
Ad min
Ġspread ing
ap is
15 2
Ġprot otype
Ġpos es
Ġsqu ee
Ġthread s
ar ab
Ġliter ary
Aud io
ĠL S
Ã ¢
Ġemerg ence
Ġpark ing
ĠCon struct
sc ss
Ġthem es
C irc
Ġ_ .
Ġdelay ed
Ġmorph ology
ĠPol and
ĠL yn
Ġu ps
23 4
Ġlic ensed
ce ut
spect ra
Ġla ugh
ĠCo hen
Ġdeform ations
L ee
Ġsus p
bran ch
it ious
ĠL oad
ĠD W
Ġless ons
O ld
× ķ
Ġb unch
Ġrg ba
Ġpecul iar
ĠN ev
redsh ift
new page
%% %%
Ġenorm ous
' |
\!\!\!\! \!\!\!\!
e ref
Ġinter active
Ġinduct ive
Ġse cre
t ens
ĠIl legal
d river
f ine
Ġna ive
ĠE E
lic enses
ĠC redit
ing ale
ĠI owa
utr ition
Ġch rom
link s
ĠP ier
Ġexpect s
}_{ [
SCRI PT
ep ing
S plit
arc hed
J une
Down load
H amiltonian
k r
em it
}$ \,
ĠT ool
um in
ut ory
Not ification
T ok
Ġmem ories
ĠS ho
Ġso il
Ġb io
Pl atform
Ġf ought
ĠS USY
Ġsudden ly
Mich ael
Ġnot ably
T rump
x it
j ournals
Ġcl er
Ġsp ots
17 6
SE LECT
S top
sh al
Ġam endment
app ropri
' ];
ab a
ĠAl liance
b ay
ĠB io
ĠR ather
Ass oci
[ $\
15 4
Construct or
ĠI MF
pr ice
k top
Ġspeed s
p any
column s
trans l
/ ">
Ġc up
Ġfeel ings
Ġpers istent
B atch
is set
colog y
Ġdel ays
Ġtor ic
rol led
Ġpush ing
rb an
_{ |\
Ġy ards
def i
ĠT am
per cent
ĠH aving
comm ons
ĠOr th
product s
act ory
Ġcomp ounds
hed ron
Ġmut ually
K it
Q C
Ġcry pt
Ġcross es
ĠOut put
Ġspin or
Ġtem plates
im s
ĠB log
Ġse cretary
Com plete
Ġperm issions
{ }^
ĠJ am
n r
Ġorgan isations
}) )$
Ġgeomet rical
Ġto x
Ġtoler ance
Spec ial
atern ion
ĠSp irit
Ġ" ",
Ġview ing
wit ch
Ġrac ism
16 6
Ġsuper vision
Ġunde rest
Ġfore ver
Ġdig it
pi res
Ġmain stream
ĠCor ps
Ġdep ression
00 8
[ -\
Ġmod est
Ġweek ly
Se pt
pp ler
b ian
On line
Ġse curities
Seg ment
Ġas ks
Ġeconom ics
al tern
Ġaltern ating
redu ction
Ġplaus ible
H K
30 4
S core
Ġaltern atives
lan ta
ser ving
Ġcon finement
Ġfun ctors
Ġsyn chrotron
Ġresid ue
R N
ĠPer haps
Ġsu ite
ĠTh ank
f ers
Ġg aug
Ġlabel ing
Ġfun ny
Ġexplain ing
as pect
ĠMajor ana
h p
AT O
sc ar
sim ulation
S y
we alth
Ġconduct ance
I Z
Ġm outh
ĠP ic
ateg or
20 9
ĠE vents
* ,
DE F
m otion
ĠG AN
Ġtreat ments
: '
ber ger
var nothing
Ġmem o
ge om
c oc
Ġear liest
Ġy r
Ġt il
17 4
Ġj oy
Ġun supervised
Ġsaf ely
E SS
Ġg ross
ore r
Ġun w
ol o
S mall
is an
ĠN ichol
US A
Ġcomfort able
}\| _
j l
um m
respon d
ĠVol ume
v x
ĠD ouble
ex ist
Ġmult ivariate
Ġshall ow
rop olitan
ĠRober ts
ĠJ ay
Ġshould n
Ġcha otic
Ġtermin ology
un ion
Ġoff line
Ġlit igation
Ġimp urity
Or gan
Ġch airman
Ġob s
ĠX ML
Ġrac es
ĠT rib
em ies
Ġtre ating
napsh ots
or ov
Ġhypersur face
sub mit
se g
Ġcomp ressed
+\ !
ĠCo q
Ch ain
Ġcollect ing
stat ement
15 1
or o
od rom
Ġcomp ly
Ġgovern ance
urs or
dom inated
ĠMon th
S outh
ll l
Ġevalu ations
Ġf lip
Ġren dered
NS String
Left rightarrow
ge ometry
cl s
Ġagric ultural
ĠS n
ik h
Ġflo ating
ĠB uck
ĠK illing
i pt
)$ \
Ġsymbol ic
e ast
Ġj azz
CO MM
Ġj umps
Ġdim in
Ġfib re
is ode
th reshold
Ġmathemat ics
ĠM Hz
Ù Ħ
Ġaccompl ish
control led
Ġ$ >
ĠFe ynman
Ġattack er
ĠP la
ĠB L
ĠRes ult
N Y
Ġt ar
Ġag ed
Ġbo at
Ġa uth
u f
ij ing
ĠIn iti
he at
RE E
Ġdiv iding
ĠCommission er
S en
Event Listener
ĠD ave
ank a
Ġca ption
ĠRe lease
Ġst ating
Ġlit eral
ĠHe isenberg
Ġspeak ers
ĠCommun ications
b ridge
bra ket
mes h
3 25
E val
ab ases
So ft
R aw
valid ate
Con v
\ }^
nav igation
mem bers
ĠSing le
ĠDat abase
U pper
Ġconf irms
Form s
g age
Ġc ul
ĠI SM
Bl ue
O H
f av
Ġ" ";
ous ing
Ġmanip ulation
Ġinstall ation
' =\
ĠTe ch
m obile
Ġt all
Ġ& $\
am y
ĠCon text
Ġheter ogeneous
2 90
w i
| |\
Nav igation
Ġd ens
ather ine
Ġretrie ve
ĠC IFAR
Ġspecial ized
ter y
str ument
T ilde
Ġpresent ing
Ġ' ./
P b
it is
um s
Ġser v
\, (
est ions
Ġcontrovers ial
Ġcryst all
Ġrespon ded
k u
det ect
tempor al
Ġcol ours
b ula
Ġst iff
Ġse ats
ha o
ens pace
ĠFoot ball
P resent
Ġf lying
ul ous
ass ador
ext ended
it ten
Ġconv ol
t ogether
ĠT arget
ĠSwit zerland
i ology
A X
ĠM organ
& +\
å ħ
inter acting
| ^{-
ĠT ennessee
Ġpe ers
ĠMil ky
ĠM oscow
Ġs i
Ġm eth
Ġquas ars
K im
h fil
Ġ rib
paramet ric
ceut ical
Ġro uting
fli x
un iversal
Ġsubt raction
ĠK elly
ĠAl abama
Ġ&= &\
ĠCirc uit
ĠT M
ĠN ormal
Argument Exception
b oot
ĠR S
19 58
trans action
Ġin cur
in finite
um bers
run ning
Depend ency
ĠNam ely
Ġt mp
Ġan th
ass o
ĠW alker
bal anced
ĠFe ature
Ġburn ing
em en
Ġprocess or
ĠAust in
Ġanticip ated
ĠP anel
m x
cre ation
19 17
Ġavoid ed
in ely
Ġbeg un
ac cur
Ġtim estamp
opt s
Ġple ased
U AL
ĠH z
ĠAr thur
Ġinstant aneous
Ġpen et
Ġmerg ed
ĠE s
Object s
am an
Ġres il
ĠComput er
N ET
Ġax ion
2 12
Ġsing ing
ĠY eah
hal o
om ed
ĠMay or
Ġcook ies
_ +\
Ġpoly mer
IO Exception
im ore
un stable
ĠPrem ier
Ġem p
Ġcross ed
Ġen v
ĠSyd ney
ĠCom ment
fra ction
ĠN A
Ġan nu
ĠB uff
ear ly
Ġspont aneous
ĠJ e
Ġachie vable
ile vel
Ġ@ "
ubb ard
}) }$
ĠE uro
reg ions
Ġfit ness
Ġmem brane
âĢ¦âĢ¦ âĢ¦âĢ¦
Ġch unk
Ġjournal ists
Ġmon oton
Ġwhe el
B order
Ġsome body
N ative
ĠNav al
- )
f red
f ather
n f
17 3
function al
d S
Ġrep orter
W atch
od o
Un known
S ta
ĠB urn
te es
ĠS ri
Ġpod cast
g reat
ĠD P
Vol ume
ab b
Ġsort ed
+ (\
Ġrot ations
Ġz ones
Ġz oom
ĠCom pton
Ġinher ited
Ġre wards
mat ching
Ġdefe at
A ust
J ames
dist ributed
W H
ĠASS ERT
Ġpiece wise
Ġdimension ality
Ġrestaur ants
ingu ish
Ġphotograph s
ĠM ars
ĠSchool s
ĠC ox
Ġjud ges
Li u
ĠWork s
ĠMex ican
ap or
IM O
Ġaccom pany
19 59
Enc oded
Ġli kes
}{! }{
bar a
Ġdesign ing
T om
Ġcur sor
mod ified
\/ }
ĠĠĠĠĠĠĠĠĠĠĠĠĠĠĠĠĠĠĠĠĠĠĠĠĠĠĠĠĠĠĠĠ ĠĠ
Ġrandom ized
d jango
UN T
p ad
50 1
Dis c
Ġestab lishes
e ither
ar Xiv
ĠS ound
ĠHer itage
gra ined
heim er
D rag
Ġcoal ition
Ù Ĩ
he m
Ġex clusion
ast y
Ġe cosystem
Ġsp oken
M n
Ġphenomen ological
ĠMat thew
R ic
Å ¡
)] \
] )$
16 4
Ġdisput e
Ġc rack
ĠM ission
An notation
constra ints
ĠDe puty
ĠLeg isl
.. ...
Ġstat s
Ġthink s
SS L
Ġrecip ient
} &=
head ing
End point
Ġconcept ual
Ġingred ients
l f
ĠG h
Ġen compass
E t
de composition
eta iled
Ġprotect ing
T ex
norm als
ĠMan chester
ĠId ent
row ave
ferm ion
j d
ĠH ug
Ġve get
Ġcontradict s
Ġour s
n of
ar o
ĠM ess
Ġmultipl ied
Ġbrill iant
Dep th
Ġconstit utes
Ġinstitution al
enc il
Ġellipt ical
0 12
Ġd owntown
18 4
ĠCon tact
Ġterror ism
A u
o ples
im ization
15 3
ĠMc K
N s
ex tern
class ification
GB T
á ĥ
me chan
Ġdriv es
ON G
Ġdiscuss es
hy thm
sc an
22 2
ĠP arameters
d ra
ĠV in
Ġtechn ological
c M
Ġc ensus
Ġful filled
ex isting
w ich
c F
Ġjud icial
Ġcampaign s
de precated
ig ator
ĠM ock
ĠThom pson
19 4
iff s
Ġsil ver
hi er
Ġtransl ations
rid ges
M ix
Ġd ies
Ġch urches
normal font
preced ented
ĠC hen
Ġvirt ue
Ġheli um
~ ,
Ġacc re
Ġfound ing
Ġdiag nostic
ĠW olf
z ier
IM P
* (
T y
Ġin noc
}| ^{
ĠPol ish
t ol
Pa ul
in th
ĠC SS
Intern ational
T s
m tx
ĠI ter
g lob
}( (
ĠK err
Ġper pet
ĠL ang
(" /
ĠM obile
ĠE C
11 11
Ġfem in
abul ary
ĉĉ čĊ
rac le
y u
at ers
ee a
Ġt issue
A pril
ke ley
Ġtend ency
d ip
Ġsix th
- {
prov ided
Ġun e
f mt
oot hed
Null able
ĠEnter tainment
Ġapp s
ac o
W IN
top ic
Ġpri ors
{ ,
Ġp iv
Ġla un
Ġtrem end
ess ential
Ġsav ings
ĠM and
Ġ' ';
Ġcrit ics
Ġple asure
ĠĠĠĠĠĠĠĠĠĠĠĠĠĠĠĠĠĠĠĠĠĠĠĠĠĠĠĠĠĠĠĠ ĠĠĠĠĠĠĠĠĠĠĠĠĠĠĠ
Ġbul ge
ĠH u
eqn o
Ġprodu cers
F rames
Ġa partment
Ġh urt
Ġparticip ant
C Y
ĠE dition
ev a
ĠW IDTH
ĠNetwork s
Î ±
ĠR R
Ġintu itive
st ock
Ġdo ors
ĠF M
Ġnovel s
Ġro se
ĠF ive
Ġsubstit uting
Ġpropag ating
Ġpre vention
Ġco ordination
)] $
Ġw ing
n os
Ġ )^
ĠF ast
ĠArab ia
Ġh ub
ĠV I
ĠDe an
Ġfiduc ial
S ql
ĠComm ons
L STM
A verage
D IT
Ġreflect ing
ĠSob olev
Â ·
ys h
B V
ic z
4 000
se a
pro jection
AC H
is Empty
ĠL am
ĠArg ent
Ġobl igation
g raphics
Ð ¹
ak ers
Ġwebs ites
15 9
Ġprof ound
4 80
ĠL ind
sim pl
view port
load er
\ (
he v
Ġcorpor ation
Ad ditionally
Ġtick et
Ġin consistent
J uly
ĠTh ings
Ġdesc riptor
Ġprom otion
ĠRe ynolds
ĠPr int
17 8
Ġparticip ated
F amily
f uture
ĠG all
co e
) }}{\
DE BUG
B ad
Ġwalk ed
at tach
select or
ĠV eter
Int erest
S ci
em p
be en
osp heric
arch y
leg end
ver ter
b right
ne e
Ġrele ases
Ġhom eless
Ġse eds
A f
int end
ĠSen ator
Ġpoint wise
Ġstret ch
Ġ\ [\
Ġpo etry
n def
ang les
Ġquas ar
ĠAdv anced
ĠSe attle
Ġw ine
Ġaccount ed
tab colsep
Ġre med
ĠOper ations
Ġelim inated
ĠS EC
ĠAd ams
(' .
}\ }$.
Ġfail ures
ĠSum mary
Ġselect or
up ole
Th anks
Ġ\ "
Ġdenomin ator
M aterial
be ck
Ġfrag ments
b ach
ĠR on
ĠSt ore
fon ts
Pre v
manif olds
}+ (
Ġthere of
Ġcha os
Ġg uns
au ra
for Each
Am ount
Dat aset
Ġrel ay
Ġsign ing
Sh arp
ĠPers onal
Ġdepart ure
Ġart istic
F ollow
R GB
Ġsymm et
ik a
c ancel
ĠSte in
Ġdist ricts
UR N
HT TP
Ġat ten
ĠS oc
ĠLe besgue
Ġastro physical
se ason
Q ual
s uggest
| &
Ġpract ition
è ¯
all ing
act ual
pi racy
Ġcomm utes
Ac cept
arch ive
Â §
det ection
ĠMar ine
P ic
an ne
Ġdemon stration
Ġlo b
appro ach
Ġcon ject
ĠB ERT
der ived
not es
26 4
metric s
ift y
Valid ator
Ġsent iment
observ ations
Ġrec ru
Ġread only
Ġconcent rations
Ġelect roweak
q a
Ġposs ession
Ġhor ror
Ġel if
H on
Ġche ap
() ),
17 1
Ġy esterday
dis able
par box
) })\
em ption
ĠH odge
ĠS V
Ġlog ging
Ġle mmas
19 57
8 50
ĠV egas
Ġcomp iled
ĠG M
rog ate
ew art
ĠAnth ony
j b
Ġsepar ating
ĠC zech
Ġt itled
Ġst rang
rot ation
: `
Ġhelic ity
Ġpract ically
Ġt ank
ĠP ope
Ġ< -
ĠG ordon
trans port
Ġdemand ing
m kern
Ġfriend ly
ail ing
Ġbuil ds
dom in
diff usion
D ATA
) ^{(
mat rices
Ġst roke
poss ibly
Ġs napshot
ĠS in
Ġincorpor ating
Ġlinear ized
ĠK E
Ġoptim ality
ĠM i
ĠK at
inos ity
18 8
Ġinfinites imal
re ction
ot er
Ġvo ices
Ġmaintain s
ĠOption al
Ġprob le
Ġs aving
), $$
ĠInterest ingly
Ġin sufficient
Ġorgan ic
B IT
ph oto
F our
N orth
RE T
Ġapproach ing
Ġavoid ing
in frared
Ġd B
F n
Ġambigu ity
******************************** ********************************
rac king
lim inf
ĠKe pler
are r
M ills
ĠG rey
bas eline
amplit ude
×ķ ×
sol utions
Ġevol ves
Ġg ang
ist ered
ĠBas ic
ĠScient ific
press ure
em et
ia o
ĠIndust ry
Ġre cept
Ġ Ñģ
20 6
Ġattack ed
Ġtest imony
ĠS hi
Ġproceed ing
get Id
Ġt ur
Ġdepict s
- .
ĠBru ce
sh a
Ġsimilar ities
ri ent
Ġencourag ing
LE S
A Y
ĠH um
Log in
18 7
Ġsurve illance
abet es
ĠL R
Ġent rance
Fig s
Ġinc idence
Ġex pend
Ġover flow
Ġin jected
plan es
Ġrep ly
x u
G roups
p ag
s al
] -
ĠJ enn
ĠVi ol
i able
ĠArch ives
Ã© s
Ġtrans parency
Ġsurv iv
} ',
Ġnecess ity
Ġcal endar
b lob
ampl er
sg n
az e
K B
st al
S ort
Ġindic ators
Ġb ass
al ert
19 00
id ency
Ġs overe
}' _
ĠM ovie
ä º
mm s
Ġcell ular
Ġattempt ing
ĠPhil ip
Ġhor se
Ġb att
ĠK o
Ġunem ployment
Ġtra ins
ĠDet roit
y i
Ġde formed
Ġcon dem
pr ising
w avelength
ĠU pon
20 7
0 30
rac ies
Ġcoff ee
Ġnon local
Ġfasc inating
ch ant
ĠPlan ning
=\ "
Ġrel ativity
Ġfol ks
PAR AM
ĠP as
ĠG ulf
Ġpub lisher
ĠApp lying
Ch ina
hat tan
rec ated
ĠTur kish
AM ES
ef ault
List en
con cat
C ONT
C ounter
Ġnever theless
Ġdegrad ation
Ġrecurs ion
m or
mer cial
ĠOk lahoma
ĠChrist opher
Ġweap on
D ictionary
Ġmet ers
/ (\
ĠâĨ Ĵ
17 2
ĠNe ed
Ġburst s
Ġp ace
Ġspeak s
ro oms
Ġj e
ni pp
Ġcons olid
Ser ies
}} )$.
ĠF arm
ĠPro b
g c
Ġs ed
Ġeng aging
mathb old
j amin
Ġn s
Ġman agers
LA Y
ĠScott ish
osp el
5 50
Ġp iano
f are
Assum ing
w br
Vis ual
ĠK h
big wedge
L IN
'] );
ĠMar shall
st ers
multip ut
T ick
M apper
S un
ĠIn novation
Ġval ley
IC ATION
M u
ĠTra vel
Ġthreat ened
Ġneur on
ĠFW HM
ĠF ederation
Ġadvoc ate
ĠIn dependent
oun ces
ĠW ard
ĠJacob ian
Ġcalib rated
s ay
Ġpro c
> '
Ġs ink
op edia
Ġcong ru
k el
r x
ap olis
D W
AN S
Ġprom oted
Ġentreprene ur
ju ana
Ġbu f
ĠO P
19 48
Ġclub s
The me
MM ARY
Aug ust
le af
ĠG A
c x
Ġactiv ists
Ġtra v
Comp iler
he x
ĠAst ro
h b
d in
ĠD oc
N at
C ast
ĠJ oint
Â ®
ĠDe cl
Ġbehav es
at omy
f etch
Ġcomp rises
Ġutil izing
Ġequiv ariant
ĠAn ne
ĠM g
Ġconverg ent
Ġdecom pose
j ax
se gment
ĠG T
Ġvers a
ĠYou th
experim ent
E instein
id ered
ĠIn v
ĠInst agram
Ġfunction als
Ġbu ying
PR L
Ġagric ulture
Ġpass engers
effect s
Col lect
igu ous
Ġsc iences
ĠW I
Ġ{ },
Ġeccentric ity
23 2
Ġassoci ations
B esides
F ac
riter ion
> =
integ ration
B on
Ġrec i
ĠLaw rence
)= {\
um ar
Ġab ortion
__ ["
Ġtax pay
ĠOper ation
MO DE
Ġt y
ĠLy apunov
ĠAt lanta
Ġal phabet
Ġra ises
ili ation
Ġc ow
ĠF er
Ġaltern ate
C LASS
Ġdel ight
ĠSer ver
Ġdr inking
Ġgen es
Ġsurprising ly
Re act
ĠH O
19 56
fra id
ĠPr ice
Resol ver
ĠA k
Ġin de
uck er
ĉĉĉĉ ĉĉĉĉĉĉ
min ute
Ġconnect s
16 2
ĠAl bert
general ized
ĠG rad
Ġdecl ined
l on
}, {
s il
t ies
ĠR ot
make cell
Ġseem ingly
Ġsy s
Ġdecay ing
Ġlif ting
ĠP layer
ins ky
^* _{\
Ġchar ity
ARR ANT
Ġcon vey
Ġb lo
Ġatt raction
FI ELD
Ġacknowled ged
ĠAb d
super script
17 7
Ġ$( '
osp in
ĠTrans ition
u ct
Ġaut oc
aud io
ir ates
Ġid x
mark et
Ġsuper gravity
d iss
Ġgr ass
Ġcryst als
+ |\
Ġdr ink
Ġvi rial
M Hz
ĠD omin
' )$.
Ġco in
B ounds
is ible
Ġcasc ade
as is
Ġch at
Ġver b
Ġ )}
ĠHig her
alt imore
ĠStr ateg
Ġb le
non ym
D river
et ers
id o
Ġcharg ing
Ġbur ied
as ant
Ġcooper ative
Ġf i
if ndef
Ġjour n
B ern
ĠIn ternal
ĠWork ing
Ġpaint ings
Ġg allery
Ġfl ash
}) \,
ĠClass es
ĠStat ement
ĠInd ones
cal endar
ĠIR S
ĠC ook
Ġel der
it ical
Ġbenchmark s
oper ators
Ġa ster
ke e
RE SU
Err ors
lis hers
Ġt weet
ĠB etween
ĠIt em
Re cent
[ ][
ĉĉ Ġ
larg er
ve rest
Ġperm its
ĠR ules
Ġh oping
Ġvolunte ers
normals ize
Ġcom ic
Un fortunately
oding er
ĠMal ays
ĠConfig uration
Ġcod imension
Ġthe ater
ann y
Ġg reedy
ĠB run
ch t
umn i
40 1
Ġt one
Exec ution
ĠW ARRANT
Ġ{ %
Ġ/ \
ess ment
Ġr he
c op
Ġafford able
Ġmy ster
c ould
Ġsyn tax
Pl ace
Not Found
Ġpsych ological
E valuation
Ġgeodes ics
à ¥
ĠMy r
19 6
car bon
a uc
V ICE
}( [
ĠCom merce
Ġtick ets
omet ers
ĠH ST
Ġcov ari
Ġe ject
Ġimm une
ãĢ Ĥ
pr ison
Ġbirth day
ĠL iving
ĠM atch
Ġweight ing
ig s
Ġshow er
ra pe
Q R
Ġorig ins
ipp i
station ary
M g
ĠJ ason
Ġengine er
}^* \
Ġs mo
Ġst er
small er
ĠG er
ubb les
defin ite
Ġmis take
Ġadopt ing
= &\
w u
fill draw
Ġneighborhood s
A ST
Ġsat urated
Y ang
Ġun precedented
Rem ote
}{ @{}
Ġmon oidal
c T
re call
experim ental
ĠSil ver
H tml
z ens
i op
16 3
Ġpred icate
Ġpen al
Ġsubstit uted
t ile
Ġ- (
Ġdepart ments
Ġ$ _
Ġh yp
Ġexplo ited
19 55
ĠK ol
ĠBe at
ĠD allas
18 9
Ġstrugg ling
Ġre vol
OR K
*}[ !
Ġst ays
ĠThrough out
ens on
Ġsl ave
Ġo c
acc uracy
Ġassert That
F un
alt ies
pan ic
Ġin aug
Ġconvent ions
P V
k ed
ors es
] ))
ov ies
EN V
ĠCont in
C ity
C lear
string s
ĠTerm s
I mages
Ġenter prise
ĠFor um
ARN ING
ong o
De cember
Ġcult ures
Ġvis cous
ĠRes erve
y ang
am ous
Ġsuspend ed
ited efault
mc itedefault
Ġmodel led
Ġtown s
J ack
am er
Ġre tained
Ġdam ages
19 3
Ge ometry
Ġjourn als
Ġaccess ed
ĠH ope
Ġenc ryption
ss l
ĠST ART
ĠCal cul
Ġsh opping
Ġro of
Ġpers pectives
ĠMat rix
ag n
Ġsur ge
od ers
Ġ" %
pp ers
97 8
re peat
ĠM T
Ġback bone
Ġsp ite
L earning
comple t
Ġrenew able
enc oding
Ġparametriz ed
rotate box
)} -\
deriv ative
] ).
AB C
Ġdiam ond
ĠD FT
Ġcur ved
prov ide
ĠN BA
Ġaccommod ate
Ġv ib
Ġban king
re ens
ĠM icro
Ġpoll ution
p unct
Ġt ropical
Ġs hed
out ing
Ġcorpor ations
ĠÃ ł
cor ner
Ġpoly tope
E urope
the m
ĠMic hel
Ġrest ored
ĠAd ditional
ĠF robenius
g iving
ĠM B
he ld
Ġsp ark
read er
Ġcho oses
be a
N evertheless
Att r
ĠIn stit
Ñ ħ
ĠB ah
Ġaud iences
L B
ĠB P
Ġerg odic
ĠJ osh
s ight
Ġvol unt
< <
Ġinter stellar
ĠAr k
ĠBe ijing
ex c
Ġlink ing
b oy
ĠPh ill
Oct ober
' ]['
box times
C red
AR S
Ġch ampion
follow s
Ġ ul
allow ed
S ect
opt ical
Ġr um
ri ber
Ġh oriz
Ġoff ensive
Ġre conc
Ġthir ty
b w
Ġw et
ĠT an
ĠPro perties
^{ '
L Y
Ġtransl ates
ak s
Ġframework s
Ġcred its
ĠR ick
Ġsub mission
Str ategy
F B
AC CE
Ġcylind rical
art s
ov ich
Ġret rieved
Ġs ocket
Th row
Ġprom ised
30 1
Ġcent roid
Ġt ill
eler ation
, ~\
* [
Ġl ingu
Ġout burst
Ġaut hentication
h c
ound ing
Ġreser ve
Ġdev ast
direct ory
o a
esc opes
ĠC I
got ten
vel ops
uff le
| >
scal a
Ġpre mi
M ut
e enth
Ġ' ',
tag on
Ġlaw suit
Row s
Ġdie lectric
ir s
] &
ĠB ond
Ġclass Name
n ative
Ġ\ {(
ĠN at
}) ^\
V O
rac ks
Ġmiss ions
66 66
enez uel
y ard
Ġachieve ment
ĠL ower
Ġnot ification
Ġhead quarters
Ġalleg ations
Ġs ender
ĠQu ery
)} ;
show s
ĠB et
Ġsu ited
ip se
STR ING
Ġsynchron ization
ĠF low
ĠC reek
RESU LT
. ''
vi olet
c assandra
ĠR oom
Ġanaly se
v r
ĠCh amber
F older
arc s
vary ing
l ades
enc er
G EN
us ually
Ġma ppings
; "
Ġm oon
Ġj ail
ĠM other
w estern
id ge
Ġdist ribut
âĢ¦ ]
Ġst uck
y z
Ġtw elve
' _\
H ard
og on
x z
typ ename
Ġobst acle
Ġfail ing
Sep ar
Ġis ometry
ĠDire ctors
n x
im plementation
ĠA u
Ġch ronic
less ly
Ġnil potent
upload s
ĠOver all
ĠDE FAULT
Ġcomple ting
qu ick
bour ne
is im
ĠP ast
Ġpr imes
vect ive
Ġmultipl ier
Ġdesign er
ĠBe ing
{ },
Ġed ited
Ġincred ibly
AP P
ĠStr ategy
Ġg est
ĠMiss iss
Ġblock chain
Ġb esides
ve led
emet ery
ĠJacob i
Ġpre vents
ĠG yr
sp atial
g f
Ã© e
ĠUn less
Re lease
Ġstay ed
Tra ining
D im
19 54
ĠK K
Point s
Experim ents
Ġinf ect
Ġcomp os
_+ ^
ĠW orth
inc ial
C ut
Ġd ad
19 39
Ġess ay
22 7
pend ing
; |&
Ġse cular
Y S
Ġsub system
}\, {\
âĢ¦ .
grav it
Ġobst acles
aff ected
P erson
Ġexist ed
glyph icon
Ġmet als
Ġatt ending
ĠLO G
E W
Ġ( +
3 45
Ġex empl
for th
Ġ$ {{\
com par
accur ate
ught er
Ġleg s
Ġexplo iting
âĨ ĳ
om it
z h
ox y
ple ted
t ouch
im ates
amil ies
Ġlock down
Ġfragment ation
m ys
ĠMc G
}{! }{\
Ġprison ers
ro ck
Enc oding
ĠWh ich
Ġsupernov a
r ar
ĠS ex
Ġproble matic
bre ve
19 44
ĠU L
ol ding
id i
ĠP ed
m aml
Ġspec ifies
can vas
ĠI M
Ġh int
n ie
Ġcondition ed
ĠD al
ĠSt ars
ache l
Ġout liers
ĠAssoci ate
ĠY O
c O
) }_\
Ġun biased
Ġsh ifting
Ġsus pic
S il
Ġsurv ived
ĠT ables
Ġarg ues
le ans
ou ver
ĠJ en
Ġp up
abel ian
Ġrevers ed
Sept ember
ĠJ ac
ĠAct ive
Eq n
Tim er
Miss ing
ĠH ost
Ġfund ament
ĠIran ian
ĠInvest ment
ix on
è ¿
h is
Î ¿
Ġb ills
ate way
list ed
C y
charg ed
abor ation
Ġdoll ar
pl oys
Ġre vised
ĠM n
P an
Ġ" .
Ġkn ock
Ġ\! \
Ġlock ed
Ġcolle ges
cc i
Ġess ence
Ġcl one
Ġj un
p aces
Ġvort ices
Ġimplic ation
Ġd ating
m ount
Eng lish
Upd ated
ĠM uch
align at
Ġdenot ing
^- _
Ġarch ive
F ar
ĠRem arks
Ġcross over
Ġin ad
as ury
Ġl iv
li a
ign ore
Ġ} }\
convert ed
Ġpri ze
ĠJ up
ous es
rad iation
ĠSchwarz schild
H s
ĠCar ter
Per iod
AS K
Ġazimuth al
ĠProt ocol
th ose
iv an
g if
alt Color
Ġg ent
23 8
Ġgu ided
un certaint
m istry
Ġdemonstr ating
Ġ& #
ĠU AV
ĠF C
Ġhyperp arameters
Ġresc ue
c P
Ġh ired
ie val
c ity
st ory
). \]
dis pers
38 4
ĠSy rian
O s
Ġpro poses
r ink
Ġdis advan
Ġr ic
Ġcomp oser
Fe ed
- (\
go al
ĠArg ument
Ġisomorphism s
Ġempir ically
ib n
18 2
Fact or
sur ance
uzz y
Ġbr ut
Rend erer
Ġtimes cales
Res earch
A H
Ġbr ands
b ank
All oc
^- (
Ġlept ons
Ġs le
Ġmit igate
Rep resent
text superscript
ie ve
observ ation
Ġchart s
ator ies
Art icle
Ġpl acing
UE ST
Ġprim ordial
Ġemot ions
Ġoverwhel ming
ĠD est
Ġdog s
ent i
m ine
ĠI oT
b z
equival ence
Ġcollabor ative
With in
& $\
Arg uments
amazon aws
ĠAdd ress
B rit
lass ical
Ġen jo
Ġpr uning
du ality
Ġdisc s
ĠĠĠĠĠĠĠĠĠĠĠĠĠĠĠĠĠĠĠĠĠĠĠĠĠĠĠĠĠĠĠĠ ĠĠĠĠ
mon ot
Ġdedu ced
st raction
de cess
Ġgl ad
ĠL D
)=\ {
ĠGr ass
< -
ĠN V
ĠSe curities
Ġre lic
ex change
App end
Ġsolit on
tr unc
Ġsp ir
ĠSub section
S FR
Ġconcent rate
Ġnon empty
Ġis lands
\ })
ĠD rug
Th ough
Ġ( ``
Ġ }^{\
Do ctrine
ort ions
> )
ĠB erg
e as
0 13
t ran
it Hub
if ice
per ience
Ġs ons
ĠBel ow
ĠAl an
ĠS ize
As set
Ġannot ated
ĠCr ime
ĠK os
measure d
}, $$
Ġconv icted
og a
)= (\
ĠC ele
NO DE
C ursor
Ġ ig
ĠD un
ĠG B
iss ance
Ġsmooth ly
Ġcon duction
Ù ħ
at tack
grad le
Expect ed
ä ½
ĠĠĠĠĠĠĠĠĠĠĠĠĠĠĠĠĠĠĠĠĠĠĠĠĠĠĠĠĠĠĠĠ ĠĠĠĠĠ
OL D
Ġappro ached
W in
æ ķ
em ia
Ġlab our
ĠC riminal
17 9
de velop
ĠN elson
Ġun ions
Ġevery day
Ġin homogeneous
Ġb la
Ġcomp elling
HE AD
es ters
T W
ĠIm pact
Ġaband oned
vis or
assert True
oul li
!! :
ĠM aria
vert ices
bul k
F ixed
Ġshe aves
Ġmed i
Ġveter an
^* )$
Ġmand atory
r int
Ġhar vest
Ġeigen vector
**** **
E mb
Ġgu ests
ad ditional
ac co
": "
ag onal
ĠT D
ĠPhilipp ines
= ~
] }(
Ġepid emic
Ġen rich
18 00
Ġveter ans
oth y
rep o
[ ->]
ĠK u
å ¤
ph ony
Ġf rozen
36 5
ĠS ample
ĠI de
Ġoptim um
c art
Ġqu iver
ĠAssoci ated
block s
un known
plan et
om on
Ġdiff raction
Ġc able
Ġdis ability
ain ter
Ġcon current
fra gment
Ġwave function
ĠF is
Ġhead ed
U i
}, -
27 5
G reat
et erm
19 14
ass ment
Ġ' .
ra ig
ĠP redict
Ġh ull
ĠAccording ly
ind ices
ĠStat istics
Ġped est
1 200
}+ {\
00 9
h w
Ġp ricing
includ es
Fail ure
ĠL inear
ond o
LE MENT
Ġrest oration
Ġprevent ing
ĠOb viously
] ^-
28 8
sw ing
Ġun necessary
\ }}\
\!\! \!
ĠC ry
$}} ;
he art
Ġint ensities
18 3
h m
Ġex otic
ard ens
Ġplate au
C as
Ġconv in
cell s
equ ality
Ġsh aped
ĠĠĠĠ čĊ
Ġsl opes
Ġexam ining
Process or
Ġbreak down
S eq
c ence
cm p
y ellow
ĠF un
19 47
est one
Over all
ĠConnect icut
ĠD I
Ġco ins
str ut
ĠAnt i
ĠS end
ĠW oman
Ġcan nab
Ġmy stery
ĠL ess
sur vey
Ġw ars
Ġclaim ing
22 6
level and
ĠLim ited
SO UR
C ALL
b ur
Ġd ash
ins ki
ĠJon athan
st ochastic
ĠCon versely
be havior
_ );
Ġanomal ies
un i
ĠO K
'' \
Ġaud it
Sm ith
magn itude
B ool
Ġc er
Ġpropag ate
Ġphys ician
Ġoptim izing
Ġansw ered
Ġdes per
Ġtour ism
ĠSom etimes
Ġposit ively
Ġne ck
Ġstat ute
ca ps
K A
ex cit
Ġfant asy
H older
le ave
ĠConsider ing
o led
ĠW inter
Ġtor que
neut r
m ind
Ġcas ual
Ġ$ *
et c
Ġs alt
Ad ditional
cl i
count ry
Ġdo zen
elect ric
ĠP os
ĠEx cell
Ġim g
c g
Ġholograph ic
b q
18 1
ĠU rban
ĠS ustain
ĠO cc
× Ļ
Dep recated
ri k
us r
Ġ" >
quot ed
ĠInt roduction
Ġorient ations
add plot
Ġfol der
stats models
50 9
{\ ,
pro cal
ar ser
ĠLead ership
_{ _
ĠNe ural
orne ys
ĠM SE
Qu antum
In sert
Ġend owed
decre asing
Ġf ibration
}$, $\
ĠLouis iana
ph or
Metric s
mat ches
Ġcomposition s
A ff
lib s
) '
in cess
ut o
ĠE N
Ġconjug ation
"> (
ĠN umer
Ġprof its
Ġd oping
19 49
ĠChristian ity
P W
Al t
Ġb irds
th a
ĠV ery
z s
id ad
Ġsh ots
cc a
friend ly
Ġg arden
) ",
ordin ate
et able
av oid
D istance
Ġfil ament
ĠCom parison
Ġrect angular
S am
| .
iss a
Ġmin istry
vent ional
23 1
ĠF ight
ag le
Ġdiffe omorphism
Ġp ra
16 1
load ed
ump ing
Ġmultip lying
ut ers
Ġto w
18 6
ĠTh read
ĠBelg ium
}& =\
ĠW W
on z
adapt ive
ĠH ausdorff
p w
Ġcapt uring
text sl
}) )\
Ġpack ing
in x
inci ple
ĠSU MMARY
c ub
in j
Cont ents
row ing
Ġinf ections
G l
m ers
Ġsp ans
. âĢĶ
Ġbi ology
Ġcorrect ness
ort ex
Ġfin ancing
Un iform
Ġtw in
c ro
re pository
ĠCom pared
Ð° Ð½
cccc c
av al
, {
Ġrespons ibilities
Ġanalys ed
Ġd ated
! }\
ur ate
in fin
ust ration
Ġsub scription
;\;\ ;
Ġde velops
andid ate
Ġear nings
Ġresearc her
R en
Ġde alt
Ġimp ression
b rew
IL D
Ġtet ra
Ġcan vas
ĠG arden
< $
h dots
Ġcur riculum
Ġreg ards
ĠEx press
ĠRuss ell
Ġrefere n
Ġadjust ment
Ġsusp ension
Ġf oss
ĠRe cent
MA SS
22 3
ĠB ose
var s
Pix el
ĠGal ois
Ġmay or
BL IC
ĠE r
In ner
: %
Ä į
ĠSt even
Ġpossess es
Draw ing
{\ '
p ole
ari ans
ĠM atter
P en
ĠCommon wealth
ĠD ak
ĠBow l
Mach ine
K er
Ġf ate
ĠW ol
ĠSt adium
m q
Serial izer
ĠCub a
A ctions
ĠT F
}} }_{
ĠL I
ov al
let ion
Orig inal
A rm
du st
sw ap
Ġfac ial
Ġa fraid
ill ary
Ġs ql
Ġcount ed
ĠB og
23 7
ac er
ĠI F
ĠL abel
Ġdis closure
desc ribe
odrom y
Ġhyper plane
ĠKent ucky
Ġmonoton ically
.* ;
he ro
Ġex cluding
Ġ' %
ĠFrank lin
Ġeigen functions
m eter
ĠM un
f air
Ġcon ce
ib bean
eral d
uch i
Ġpress ures
ĠTai wan
Ġquadr ature
6 25
Ad v
ver ify
Ġs igma
Ġen sembles
ĠNor way
Ġ esc
Ġdis orders
Ex port
ĠH ans
ĠR u
Ġpre st
V i
ĠM om
ĠS cript
con formal
tr ast
amp ed
Ġharm ony
Ġ\ }$,
ex am
Co in
}/ {\
Z one
f w
ĠU tah
Perm ission
theore tic
\!\! \
clust ers
}. )
N ovember
iff ord
}. \]
Ġca ps
Ġre jection
ĠEm ploy
g d
Ġab bre
ĠCap tain
Ġannu ally
Ġ_ ,
Ġreported ly
ĠAl ber
ĠSet ting
measure ment
Ġag gressive
Ġf mt
ĠM ust
Ġre dd
}' (
ĠGra ham
re li
Ġcompr ised
26 5
ĠI mag
hol m
ĠMark eting
19 46
ang ers
ĠDe lete
Ġlif ted
ĠTrans former
: #
p riv
Ġsmooth ness
}} &
Ġall ies
Ġscholar ship
Ġval ign
ag g
ang ent
Ġf ron
ol s
: {\
f rames
G IN
Ġredu ctions
ĠPet ers
ĠLag range
ĠVis ual
}\ {\
Ġbre ach
g b
re le
ĠHigh way
ÑĢ Ðµ
Ġeth ical
Ġund ers
C md
Ġf atal
Ġca us
Is ra
Ġclar ify
Ġeng ines
ĠF ame
ĠD NN
ĠIniti ative
T AG
ĠCon jecture
40 5
u ous
ĠD IS
0 14
ĠL en
Ġmaxim izing
Ġcontext ual
ĠC old
ĠPro du
C ulture
Ġgraph ical
Ġassign ments
g ender
S ig
Ġlob by
ĠC ow
Pr ice
Ġfix es
Ġrating s
Ġslic es
Ġto y
class Name
pseud o
D rop
a per
ĠI ce
Ġspec ifying
ĠFellow ship
Vir tual
ĠGib bs
Ġwar ned
}$, $
ĠGu id
Ġb oot
L ife
the refore
ĠL java
ĠCom plex
' /
Ġbare ly
iv ate
Ġly rics
ig ion
Ġbo ards
ĠGir l
ĠConst ruction
Ġd ivers
ir l
Ġal arm
Ġbl ur
T asks
Ġat tained
Ġsub sc
bra ham
Ġb read
Ġiter atively
reng th
Ġblock ing
inu ous
s low
b end
}} }(\
ĠG ab
vi ate
et on
ogen ous
ĠMem ory
ĠL anka
Ġd inner
ĠN othing
is ta
Ġg lobe
ĠOr leans
ĠNS F
Ġow ing
Prim ary
19 15
mat ched
pa ired
enc ode
Ġbe ach
per or
Ġn ut
Ġknot s
Ġa ria
Ġpool ing
Ġvolunte er
ac i
Ġion ized
con serv
Ä ĩ
iv a
Ġw ishes
eg el
Ġwork load
Ġinteg rand
appropri ate
ĠD OM
{} %
Ġenjo ys
Count ry
ĠDet erm
Ġder iving
Ġdat abases
conj ug
Ġt ape
ĠW right
Ġe gg
g alaxies
ĠIn cre
}] $.
p ark
ĠPub lishing
Ġannih il
Ġfeas ibility
ut ors
ĠTem ple
St ub
ĠA G
Ġinv oked
22 9
ĠSu ccess
op am
ĠWrit ing
ud son
bib item
Ġextrapol ation
i ang
ig ating
anc ouver
M essages
ĠB altimore
Ġfavor able
ĠJ S
Ġinst abilities
Ġdiscrimin ator
eg u
ĠE li
Ġgather ing
Ġsla very
/ [
cur l
H erm
l av
å Ĭ
ro v
Ġnomin ated
LO W
Ġbroad ening
19 53
. &
â Ī
ĠG as
f aster
Ġh am
ĠâĢ Ŀ
Ġfil ing
ĠVAL IGN
ĠCast le
Ġb om
con cept
re cur
Ġcon verse
ĠPart icip
ĠHistor ical
ĠJ ob
ĠWal ter
ĠU l
Ġdis able
B ur
Ġpreser vation
U ses
Ġdist ribute
oc cup
Ġdraw s
Ġpoly gon
en ix
Del ay
ĠM F
ber ry
23 3
Ġg olf
G ER
Ġin formative
b road
ĠU pper
Ġb g
: $
}{ }{
Ġvacc ines
Ġsit uated
Ġadjac ency
Ġc b
}}$ )
uu id
i w
widet ext
}. \\
Ġred irect
ĠQu estion
Part icip
ip ality
Ġquas ipart
Ġdef icit
Ġtyp ename
Ġmult is
ĠP D
ĠCom ponent
RE SS
Ġtremend ous
ig a
Ġlight s
d anger
Ġj u
li ver
che l
Ġâ Ĥ¬
= |
ĠR ub
ĠW igner
})$ -
23 6
ĠJeff erson
expand after
Sh are
Ġhit ting
Ġsynd rome
ĠÐ ½
Ġsan ctions
ĠDise ase
orient ation
ref lect
CO M
19 41
z oom
Ġt d
Ġmusic ian
}) |
Ġsustain ed
E lect
sm art
ĠCons ult
~ .
Ġprom ises
assum ing
Th ose
Ġselect s
ush ing
ric ks
ol ph
Ġaccept ing
ĠImage Net
ĠL GBT
Ġth ro
ĠP arent
0 50
align ment
Ġw edding
' }(\
Ġjud g
P B
Ġoccasion ally
Ġ à¤
Ġcert ified
Ġvent ure
ĠF E
Ġappear ances
F UN
Ġoverse as
B reak
F ran
}\ }$,
Det ector
t one
ren ces
Ġbright er
Ġter rible
ĠW R
rem ote
ĠDoug las
ĠComput e
A st
Ver ify
+ }$
a ire
STAT US
Ġforb idden
( ['
S ite
24 7
Ġfast est
ĠStan ford
q t
ĠC ell
ĠP ick
Ġhe ll
Ġpars ed
ĠCre ates
Ġpo ison
d if
The ir
Ġchampions hip
rop ies
}{ {
" },
]{ $\
Ph il
Ġe ating
Ġscr atch
Ġwra pped
Ġpers u
ĠV enezuel
Ġdiv ides
awa ii
Ġl in
Eu Script
Ġquant ized
z t
Ġs id
Ġsoci eties
Decl aration
ho ff
L icense
_- $
ĠCon vert
6 50
Ġd ose
NE W
3 40
Ù Ī
ĠMe chan
polar ized
ĠCh ile
ĠAd vent
v phantom
A J
)( -
22 8
Ġwitness es
b id
ĠV a
Te chn
g ro
ad oc
ath on
L ead
}/ {
3 80
econom ic
Ġphys icians
F r
Ġsu p
Ġaccum ulated
w alk
Ġre vision
ĠBer keley
SE C
: &
R D
Ġassess ed
ĠInt el
Ġtrust ed
Ġpuls ars
arab ic
d R
Ġcount ies
ha us
Hig gs
}, -\
ac ute
ĠP ent
ca ptions
Ġtradition s
J D
Ġj s
Ġer u
Ġfant astic
asympt otic
ĠComp an
Ġbroad ly
Ġpo et
ĠIS BN
V T
Ġinv asion
Ġrescal ed
d ale
Ġf s
Ġsatisf action
Ġlum inous
ĠMississ ippi
tor ic
Ġcl ot
Ġflat ten
Ġbre ast
Ġpass enger
' )}
h base
AS P
AC S
un ks
ass y
Ġwork flow
4 95
Trans fer
v let
ĠR M
vers arial
Ġoff ense
s ix
ĠB aker
ĠR oute
ĠL M
ĠFac ulty
Com plex
AT OR
c D
is p
+ {
ul k
Ġconvin ced
ĠF ramework
Mean while
ĠD ur
ĠB lu
Ġun seen
Ġl ux
30 5
qu er
ĠDo ppler
bos on
ĠE mm
ĠG DP
J acob
l it
Ġt weets
non linear
ĠHess ian
M id
W ave
ĠR ab
Rober t
text subscript
Ġam id
om ers
ĠMA X
ort s
Con sole
num bers
24 8
cons idered
ĠReg ulation
ĠNot es
Ġintersection s
Ġg all
ha i
Ġintersect s
g re
Ġfla res
ĠD VD
Ġnon profit
sp irit
Ph ot
Ġc razy
ort on
ident ified
Ġem ploys
Ġemphas ized
B ot
Ġb ird
$ +$
all ax
ĠM os
-------- --
ĠB ody
Ġp t
ĠN BC
ĠJ oh
unn y
cou pled
ĠA pr
Ġsk et
Sub ject
create Element
ps y
Ġvot er
ĠL oc
Ġau ction
R ules
ĠP CA
Ġt ent
19 1
Ġed iting
Q Q
ose x
} &=&\
ymm etry
Ġforest s
Ġrein forcement
19 51
sc apes
uer to
pub lished
I r
ĠPit ts
Ġgot ten
Ġinter cept
Ġprob able
ut orial
ĠR edu
ypothes is
23 9
Ġcompact ness
is dom
Ġ\ |^
Ġ ĉĉ
ĠBlo om
Ġreven ues
a ac
Ġplace holder
Ġwarm ing
arp oon
ĠAgain st
Run ning
Ġint ensive
Ġstake holders
ĠC ant
M AN
tab les
Set up
En v
Array List
Ġst a
ĠRepresent atives
L ive
Res et
{ ``
Ġingred ient
te am
pop ulation
w b
." ""
CON FIG
Ġharmon ics
}^{ +\
Ġrandom ness
ĠRob inson
ĠS itter
Ġrenormal ized
Ġview point
ĠDist ribution
ĠN ur
int ell
ĠD rag
}_ *
ĠOC aml
RE CT
-- (
it eness
ĠBroad way
Ġimm ers
Ġexpl ores
Ġd ex
, +\
mac ro
ĠVill age
ĠChar lie
C hat
is i
Ġweak ness
l int
Ġgr asp
inher it
ynchron ous
}[ {\
ĠT OP
Ġint elligent
Ġinv olution
N B
Ġbu cket
Ġ& \\
ge b
Ex ists
cipl inary
Ġno body
ĠCor p
Ġprote ins
ĠCit iz
Ġw ages
Ġal i
eli very
complex ity
in fer
ĠT ry
Ġdis patch
acc ording
Ġhost ing
Ġtim est
Ġw orship
Ġh op
Qu estion
Th ird
Test Case
ĠD og
ĠArch itecture
Ġhist ories
ĠK it
Ġca ution
Ġf iring
ĠCon stant
Ġiter ate
iz ability
ĠĠĠĠĠĠĠĠĠĠĠĠĠĠĠĠĠĠĠĠĠĠĠĠĠĠĠĠĠĠĠĠ ĠĠĠĠĠĠ
Ġdream s
ĠP ho
ĠL ay
Ġh ypot
ĠCont ract
ĠAl ong
ĠIn surance
ĠK ur
eth yl
Ear ly
m oving
Ġp ill
Ġup grade
Ġviol ating
DE X
Ġrecur rence
Run ner
Ġadvent ure
Ġo verest
bf series
I ss
Ġcol span
pl ess
ĠC over
ĠL F
Ġpack ed
is ol
ac re
ĠB ishop
ĠG tk
v d
IM IT
rest ricted
l k
Ġcomp ilation
Spe ed
h on
H ave
Ġdec ides
ey er
================================ ================================
b at
ĠNet flix
Ġcl ine
tool tip
Ġtrans fers
ĠMan hattan
fil ters
ac ular
ĠR T
Ġunder graduate
Ġmultip ly
Ġelabor ate
g ency
Ġrec ruit
Ġqu en
ĠÐ ¸
ĠI L
amb ers
ĠB eyond
\% }
st ab
Ġwin ners
}) ).
p ipeline
ma ils
con clusions
spec ified
mass ive
ĠBu ilder
] },
Ġlisten ers
c red
Ġb reed
Ġrac ing
Ø ¯
Ob server
ol en
ĠK L
30 3
v ark
Ġdocument ed
ENT S
irection al
Ġgraph ic
19 52
ĠO scar
C ategories
ĠSt ra
B usiness
Ġpre decess
Ġbe ings
Ġelim ination
H en
g ems
^{+ }
Ġcolon ial
ĠCurrent ly
Com pos
rag ma
ĠLiber al
ĠR aj
ĠT el
ĠR ound
Ġl oves
}$ (
ĠAust ria
Ġview ers
2 14
Sw ift
Ġcomp romise
Rel ative
dis patch
> ()
? )
im edia
ĠP od
to o
rape ut
ĠK lein
ĠD ictionary
Ġanten nas
In jection
get String
Ġinv ention
Ġintern ationally
rec ision
\\ %
0 20
U pload
se ed
Ġdefe ated
Ġathlet es
Option al
Ġt v
ĠB achelor
ĠHamilton ians
Group Name
Ġexperi encing
cross ing
ĠZ hang
ĠA ra
Sh ared
Ġcar riers
Ġprivile ge
Ġredund ant
=\ {\
Ġpl a
ĠBrook lyn
Ġ Ã©
ld er
Ġmark er
ig g
PRO P
m os
au i
tim estamp
Ġal ien
p ract
Po isson
Ġoutper form
ĠH H
ĠE lement
Ġfem ales
ĠA x
Ġim prison
ĠR ace
Ġe c
ĠV ar
ĠD ance
24 6
PE C
ĠSam uel
g ives
sh ock
Ġ($ (
lum inosity
^+ $,
Ġpray er
iv ic
ill o
L G
Ġant ifer
nam ely
3 10
s pi
arc ia
Ġceleb ration
B ol
ĠEd ge
Ġb ot
Ġhand les
Ġscient ist
Ġch ip
Ġpos ed
s an
Im plementation
Ġspi ke
i ov
const ants
ibr ational
B g
Ġdeliver ing
ĠOffic ial
Trans ition
ĠJ son
{ }_
Ġg onna
] }{
ĠC ounsel
Ġcomm od
Ġele g
cf g
Ġb oss
pack et
c X
ĠE S
Ġsucceed ed
Ġal ias
}} }_
Ġ& :=
den oted
m um
Ġeject a
comput ed
Ġf ict
Ġmic rowave
em ics
Redu ce
Ġmort ality
erm ost
Ġod ds
ĠL ane
Ġp aren
Ġtarget ing
o ct
Com paring
Ġinter ven
con current
ĠUn iversal
Ġsort s
Ġtransform ing
Ex pl
Ġexhib ited
B ridge
E F
Ġstay ing
f ish
ĠL ad
upd ated
ic he
Ġspecific ations
s ion
sim ulations
jav ax
ĠS el
19 42
Ġrecord ings
Load ing
K ernel
ari juana
f mf
con cent
Ġobser vers
Ġmis match
Tim estamp
3 70
c S
Ġbifurc ation
art icles
ĠTok yo
am ation
c ient
ir ts
position s
Ġsimple x
m og
op acity
ĠC CD
Ġcontrovers y
ĠE volution
ĠLem mas
r pc
Ġrad ar
3 15
Ġsevere ly
ĠM HD
intell ij
Ġf est
We ek
Ġconf used
Ġnews papers
ĠArch ive
Sim ulation
ist inguish
coordin ates
ĠBang lades
Part ition
bor ne
L ab
Ġextract ing
25 7
k p
pe ople
ĠN ATO
Ġg od
n ate
IN VALID
Ã¡ n
N or
Ġdef ic
c G
ext ensions
pat cher
s ong
Ġl un
ĠRead ing
T l
m other
Ġpos itivity
Ġrm s
ic iary
ou x
Ġn ick
Ġd st
al ink
es pecially
Ġd ress
we ights
Un ique
po inter
Thom as
Ġhad n
Ġcl othing
ĠBre xit
w at
st ri
eval uation
hab ilit
Ġtel escopes
f u
Ġtag ged
Ġinter ventions
C U
INT ER
mach ine
q p
Ġdiverg ent
M ust
SE D
det ected
Ġnur sing
ars on
Ġl oud
_{ [\
ĠR and
ric hed
Ġadvert is
ĠS lo
F oot
Ġf ading
ĠW u
row se
D TD
ĠC leveland
Ġsh ield
}}\ ,\
Ġpre t
d an
Com pare
y outube
Ġsimpl ifies
th y
ath y
H ook
Ġsem icon
pair s
om ing
Ġminim izes
Ġmut ation
ĠP resent
ĠEx pect
.~ (
Ġanxi ety
OT T
ĠBay es
Ï Ħ
}, ~\
L ang
m el
Ġmanufact urers
AT T
Ġt ale
inter cal
) }^{\
ĠA bb
ĠC ensus
it ively
z ar
V IE
[ (\
ĠArm en
A ggreg
M il
Ġal beit
ĠSw iss
Ġpredomin antly
ĠS tage
con volution
be h
Ġign oring
________ ________
CC ESS
M usic
v ct
de comp
tablen ot
ĠN ull
v ariance
ĠH ell
Ġf ishing
j Query
ĠT S
ph ic
T ouch
Ġh o
log ging
Ġpun ishment
ĠC ultural
Ġdifferent iation
ĠCol on
Ġemer ges
ĠS OC
Dist ribution
s ure
ĠL iver
per m
Multi ple
) &=&\
L IST
ĠB ound
Ġmal icious
Ġconfirm ation
ĠMove ment
C trl
)) ^{
Ġs quad
ĠP romise
Ġd yn
Ġsupp lementary
Ġmaxim ally
n old
Ġre forms
Ġtrac ing
~~~~~~~~ ~~~~~~~~
f eld
cont ribution
Ġsustain ability
Ġinert ial
ĠPl ant
ĠEnt ity
= %
Ġel ite
Ġpredict or
ĠD rive
$ |\
Ġtele phone
Ġswe et
c ategor
Ġcou rage
)] .
Trans port
Sub stituting
Ġaxi oms
ĉ ĠĠĠĠĠĠĠĠĠĠĠ
ĠS ac
Ġpro l
ĠF le
j ournal
Ġenerget ic
; ,
ĠK am
ĠEqu ations
Ġmonotonic ity
Ġflo od
Ġtal ented
Ġdef ence
r ators
Ġam ple
t ight
ĠAdvis ory
Ġf ocal
ĠI ron
ĠCho ose
ĠMC MC
Ġv essel
Ġd w
ĠR an
K D
ĠL ock
Ġdis connected
ĠCar ibbean
Av ailable
it ime
ĠBer ry
L ICENSE
Ma jor
ĠN uclear
Ġd ial
Com mit
45 6
remark s
Ġsal ary
Ġspect ro
Ġstack ed
Ġcam ps
B ob
Ġm ales
Ġref resh
'' }
igu ing
ĠHel p
ĠC ou
ch at
O W
ob e
ĠSol utions
ĠR isk
ĠOrth odox
4 75
W at
$ }{
ĠA le
Ġport ions
ĠMe eting
ĠUs ed
C over
ĠMit chell
flu ct
/ )
Ġme at
c ube
à ¸
Ġsuccess or
oc cur
Ġwork force
Ġbl ame
Ġbl ues
ĠNewton ian
h or
}} )$,
IS A
ĠCondition s
Ġact ed
Ġhuman itarian
wart z
Ġv it
Ġac res
Sch warz
akes pe
B re
Ġpe oples
ival ent
ĠG ill
ff f
Ġmis takes
Ġimp ed
ĠE ve
Ġconf idential
Ġasymptot ics
embed ding
ĠWar ren
g cd
0 39
Ġwork shop
g ive
ant ry
by e
ĠW D
ĠA bs
It s
Ġprior it
Ġb ump
lin ux
Ġsummar izes
Ġoff sets
Ġactiv ist
Ġde legate
Ġdoub let
g rowth
asym p
v id
Ġre combination
ĠR ate
Ġle ase
Ġhand ed
> ${
H W
Ġc ached
Ġaccum ulation
Ġcivil ian
çĶ ¨
ĠCo al
B rown
Ġrecurs ively
ĠS r
Ġfer romagnetic
ĠComb ining
And roid
ĠQue ens
Ġclass room
Ġtri ples
cy cles
B us
ĠS ide
SP AN
Output Stream
Ġen emies
k al
rupt cy
ĠH ills
M ET
Ġ _\
Ġ' @
depend s
Ġ$\ ,
ĠCommun ication
ag og
ail and
Ġunf air
un its
F ast
ĠĠĠĠĠĠĠĠ čĊ
script s
] ^{-
Ġoutflow s
ot ypes
R V
the ns
el ing
cont ract
Ġinsert ion
R B
ĠH ousing
Ġ- &
ĠAt tack
Ġs pa
FF ER
Ġpars ing
Po jo
Column s
ĠO il
2 18
Ġcons piracy
LE TE
Ñ ĸ
Ġdo zens
con tain
pr ises
p v
ĠC MS
ric ket
in z
Ġse ver
Ġsum ming
ĠWe bsite
structure d
ro uter
ĠB egin
Ġeth ics
Ġreal m
' }^
)\ }_{
mit t
G ui
ĠP DE
c ool
ĠAltern atively
h art
Ġem power
2 17
E U
}} :
)) _{
33 5
Ġcos ine
Ġ$\ #
Ġcon es
Name Link
ĠArch ived
ĠTrans portation
Sign ature
ess els
ow ell
Ġsw ap
ĠCre ative
- ,
Ġad verse
ĠRun time
Ġro yal
lat ex
ĠG ray
Ġpa ired
Ġinhab it
Ġsil icon
SS ION
os calar
Ġpost pon
7 68
Ġsubt racted
qu as
Ġorb ifold
ĠG ary
our t
in ch
H OME
in ters
ĠF DA
Ġnot ify
aa aa
o j
}$ }}
Ġch ances
il ayer
her ically
Ġnormal ize
Consider ing
osoph ical
ĠĠĠĠĠĠĠĠĠĠĠĠĠĠĠĠĠĠĠĠĠĠĠĠĠĠĠĠĠĠĠĠĠĠĠĠĠĠĠĠĠĠĠĠĠĠĠĠĠĠĠĠĠĠĠĠĠĠĠĠĠĠĠĠ ĠĠĠĠĠĠĠĠĠĠĠĠĠĠĠĠĠĠĠĠĠĠĠĠĠĠĠĠĠĠĠĠĠĠĠĠĠĠĠĠĠĠĠĠĠĠĠĠĠĠĠĠĠĠĠĠĠĠĠĠĠĠĠĠ
R UN
ĠL MC
ĠWARRANT IES
Ġg y
Ġprob es
Ġprior ities
ĠMor ris
Ġneighb ours
Ġt ie
ĠM is
Ġ| =
Ġre called
] ),
ra ges
Ġcon vection
Ġtail s
Ġrescal ing
cent ered
Ġinterpret ations
Ġ æ
ĠP ad
H uman
Ġm ile
Ġout door
Ġdef ensive
Ġb one
strong ly
Ġexp ed
ĠMar x
ĠSt ewart
^* =
Ġic onic
Ġball ot
K a
E B
Ġar riving
Ġo ught
ĠI SO
\\\\\\\\\\\\\\\\\\\\\\\\\\\\\\\\\\\\\\\\\\\\\\\\\\\\\\\\\\\\\\\\ \\\\\\\\\\\\\\\\\\\\\\\\\\\\\\\\\\\\\\\\\\\\\\\\\\\\\\\\\\\\\\\\
ĠP arameter
ĠB art
Sto kes
> ;
_{ ,
ĠB ron
ob tain
scal ed
ĠPar se
Ġinvest ing
Ġblock ed
Pack et
r ather
Ġad mission
Ġfree ze
ot ive
Ġwe ird
sub t
urric ane
Ġper cept
Ġcolor ing
AS C
}}, {\
Des ign
Ġn ights
ĠSt ev
}| _{
se min
ĠB ab
)\ }
dist ributions
Ġper ipher
Ġchalleng ed
ĠEgypt ian
( ()
ĠC atalog
ir re
Ġt aste
Ġfle et
le tt
Ġl ucky
,\ ,\,
ĠBe ck
ĠVal ues
19 16
24 4
man agement
Ġpsych ology
ĠR ank
Ġse arched
ĠBen jamin
Ġuser name
Ġviol ate
Ġacceler ate
ane ously
Ġrestric ting
C ancel
ĠS port
{ .}
Ġcl im
ĠReview s
D ot
Ġf urthermore
\% $.
Ġsuff ers
Ġautomorphism s
Bel ow
ĠStan ley
ĠKn ight
! )
ĠO DE
Ġgeneral izes
Ġlog in
Ġhe ights
ĠOr chestra
Ġfall en
Ġpers istence
ham mad
vark appa
}| }
ĠComm ander
Ġdetect able
3 12
P redict
ĠS ymbol
Ġ\ >
mat ical
Ġen roll
Ġass ass
Ġfoot print
Ġhand ful
correct ed
ĠLead er
ar ct
28 5
path y
the ad
Ġcust ody
Ġ[ âĢ¦]
Ġminim izer
| )
ch ap
Ġmonop ole
akespe are
S napshot
sol r
sl ide
Ġ,\ \
ĠE valuation
ĠP oll
Ġt iles
~ }
ue z
AT TR
Ġtrans cript
Feb ruary
cite alp
df n
en z
Ġtriang ulation
he matic
ĠOper a
Ġc rop
ĠCl ar
ĠO ptions
ĠAng el
Ġfollow ers
Ġrest art
Ġexpress ing
*} %
Eq s
ore tical
ĠD raw
Ġper col
Ġdead line
Ġsyn c
lst listing
Ġdoub ly
ĠL if
w r
Ġwor ried
Pa per
AM S
Ġconvex ity
est y
Ġat tain
inv ol
po i
Ġcoinc idence
met all
ct ree
Scal ar
Ġsp urious
stream ing
Ġcancel led
Ġmem orial
19 33
Ġe uro
Ġtra ged
B in
oun cing
}] .
contin ue
proport ion
Ġconsult ation
19 37
Ġenc ounters
PD ATE
g alaxy
Ġf ert
ĠPre vious
& \\
il og
ĠEn cycl
ag u
$ ^+$
ĠSm art
osc ill
Enumer able
10 16
ĠC ape
Ġseg reg
ĠS B
ĠC W
bro ken
Ġ' #
Al pha
ĠGa ia
ch annels
iz ational
Ġr hythm
_{ _{
Ġdis ordered
H op
ou ville
ĠPark er
Ġengine ers
ycl ic
ĠFil ter
Ġdiscipl ine
R atio
19 43
0 35
d st
m iral
ĠBa pt
ri el
Ch art
Ġalleged ly
ĠPsych ology
ĠHon or
V an
ding er
33 7
Ġpop ulated
Ġconv iction
ĠDen mark
Ġd ign
Ġid em
Ġcompr ising
Ġtu ples
s elling
ĠS ay
Table Row
get Type
Ġrevers al
FOR M
nice frac
P ad
ĠP N
Ġconf ront
v ariant
or on
Ġtrac ed
Ġsm oothed
L ines
h f
ĠH im
Un like
Ġsuspect ed
Ġcl imb
è ®
Ġsuggest ion
Ġprec ip
ee per
g am
ĠS ant
Ġpros per
de velopment
ĠSt ories
Mon th
Syn tax
Ġw isdom
Ġcannab is
} ]{
con sum
) ],
set Text
Ġbott lene
im ents
Ġdec iding
Ġinvest ed
IL ITY
not ify
ĠProfess ional
Ġapplic ability
ĠAv ailable
Bbb k
Ġdismiss ed
Ġwork place
u art
Ġhaz ard
h it
urch ase
Ġalt ered
ĠĠĠĠ ĉ
Ġgot o
cs v
ĠPhys ical
ĠGuard ian
K T
Ġar rives
}] $,
Ġinc idents
ĠR H
Ġdis abilities
Ġvis ually
ĠClin ical
Ġcl ump
IC S
Ġformat s
Ġ\; ,
ĠRog er
\{ (
por ter
com ments
ĠEn c
ĠV ancouver
al one
Ġactiv ated
Exp and
Ġhol der
Ġun ital
Ġbary ons
Ġm os
Ġ' _
AN N
Sp ring
ĠC e
ĠT ak
ĠG il
arg min
Ġor al
Ġcor rupt
Ġun fortunately
ASS ERT
Ġ| ___
f req
Rad ius
ĠP i
Ġcent res
process or
Ġc c
ĠMod ule
Ġd ub
}( {
Add r
i encies
Ġpl ates
26 3
Ġdig its
Ġend e
Ġlight ing
ec ke
Ġc usp
}\ ;\
ult ra
Ġmon ol
ogn ition
fact ors
Pre liminaries
v k
J ul
ut enant
Ġdis rupt
ĠB B
approxim ate
enc hed
plan ar
P rom
Ġnonlinear ity
r ases
I PT
Ġcan on
Ġoptim izer
> %
b mod
ĠV ert
ĠTrans form
d ie
Ġsuper fluid
Ġmount ed
B orn
}\ |^
P OS
Ġ| ^
che t
Ġphot ography
represent ed
Ġh ip
ol or
Ġgrid s
pt s
Ġf oster
n om
Ġchar m
Ġp ension
Ġd ressed
ull er
Ġdo ctrine
in come
Ġ$[ -
, *
pro per
ĠAl aska
ĠAnton io
0 16
M el
H i
Ġd ans
m outh
Ġv ox
ĠN ik
Ġwave let
fig ref
)| $
Dec imal
ĠLe vi
ĠSw ift
\,\ ,
Ġappe aling
C os
ĠS ent
Ġfl ights
29 5
Ġsil ent
c overed
calcul ated
Ġ å
ĠK ir
algebra ic
com pared
24 3
Ġde puty
Ġpartition ing
get Instance
ĠB ou
Ġgener ically
Ġpeace ful
be at
ĠMN IST
Ġinvest or
Ġpresum ably
}^* (
[ ->,
em in
n ational
)$ ).
25 4
Z oom
ĠU T
ĠK y
max cdn
^+ ,
po or
Ġrep orters
Ġ( %
ĠLe ave
google apis
Ġcomplaint s
per ial
ss s
Ġl as
Ġw inding
ĠDak ota
c ourse
ĠP erm
Ġantis ymmetric
F ALSE
V AR
__ ,
, âĢ¦
Ġsec ured
c B
Ġbehavior al
gu ard
app le
^+ }
Mart in
ĠDemoc rat
A ir
Ġsl it
ĠIndust rial
Ġu pl
ĠPal ace
Ġcomp ass
cover ing
UT E
O wner
ĠT ower
Ġdes ert
Ġx si
Int ent
colog ical
coe fficients
G rant
Ġm arijuana
Ġcell spacing
lat est
ĠWay ne
Ġsub manifold
Ġdomin ance
Ġr ally
30 2
t asks
Ġg raphics
ĠM eg
ĠJ u
spec ially
Ġown s
Ġgra ce
ĠR NN
pro ton
Ġcell padding
W el
ring e
S ide
ĠB ag
* }{
b et
trans formation
Ġpassion ate
compos able
Ġex changes
Ġrespect s
Ġpick ing
G RO
ĠE lectric
Ġh ype
Ã º
ĠT rack
ĠEv ans
Prof ess
ot ics
ĠC lean
ĠW a
Ġcl ique
C AP
M ad
ĠS ab
& -\
ow s
S tage
] ^\
jack son
rr bracket
T imes
ĠS ession
}( -\
z an
Ġtra vers
he ating
ĠAll ah
S can
T ensor
" ];
S ocial
ĠAct ually
ĠG E
lb rack
Ġconfigure d
Ġdis ent
cent ric
Ġcondition ing
Ġdistinct ive
ĠA verage
Ġanim ated
Ġafter wards
= >
he avy
Ġ uri
Ð¾Ð »
; -
mb le
^+ _{
ĠNaz i
glu on
Ġm arch
Ġl ake
ĠLe ban
Ġf ut
ru de
war n
Ġhistogram s
ĠDub lin
ogon ality
ab und
ac ies
Ġtang ential
Ġheav ier
S ets
ĠN IR
Ġin elastic
25 9
l iving
om ical
ĠColl ins
Ġsatisf actory
Ġsem in
ĠH ubbard
24 9
Cre ated
Ġapp ar
Ġtra dem
erent ial
Ġtom orrow
Ġen larg
Ġopt ics
P red
Ġroll ing
Ġb ubbles
Ġnom ination
Ġmult ic
Ign ore
l iteral
Ġven ue
ĠW id
^{* }$
Ġunivers ality
ĠT ed
Ġjun ior
ĠCol lect
ĠProgram me
r q
be ans
ĠCam paign
abs olute
Ġchap ters
ph ones
ard i
Trans lation
ĠPh arma
ĠBar bara
em or
ag netic
ĠS top
ĠK han
ĠT X
ĠY an
Ġland ing
Ġdivis ors
Ġhypot he
plement ed
Ġm ood
in ery
problem s
Ġadvoc ates
Ġres ign
Ġ" '
ĠR A
B an
R uss
Ġ- =
Ġconc ave
Ġg i
Ġsol vable
Ġjournal ism
ĠGener ation
ĠF ant
ar bit
ĠNe uro
sequ ential
Ġs its
ĠAppe als
R u
ro magnet
Ġch ir
Ġsc ans
Ġhospit ality
K ing
Ġ} (\
Ġemit ting
HO UT
Ġw ounded
Ġrespect ed
ĠOlymp ics
Ġemb rac
Ġd ying
ĠCamp bell
ag greg
ĠK ings
ĠQ uality
.} ~\
Ġstrugg les
ĠSh a
Ġsubdiv ision
Ġ ub
Ġdepth s
Ġv m
str ategy
ĠRes erved
Ġsuff ix
!! !!
un lock
ĠCl uster
Ġr ub
trans late
a eda
En able
n h
work ing
Ġcorrel ator
ĠSwed ish
in berg
mat r
Ġmon oid
ĠP uerto
Ġprem ium
s chool
ĠS ales
6 40
l ived
ĠA bu
ĠMur ray
f arcs
F rance
Ġdiagn osed
ancell ation
Ġl on
Ġadvoc acy
! \!
In cre
Ġfol k
T aylor
z hou
al ways
Ġ-- ></
% "><
g overnment
Ġd rew
We ak
At tach
rast ically
Ġch ron
ĠFirst ly
res a
Ġp ipe
ĠW ind
ne ural
con ditional
Form er
ĠR ain
Ġthermod ynamics
nof rame
e i
an notations
19 36
Ġ }_
n ick
Ġpost er
Sub sec
ĠCol omb
Ġben ch
Experim ent
{ ,}
in ians
pe red
Ġaggreg ated
Test ing
Ġpull back
per fect
Ġless er
cam era
ĠBanglades h
Com par
con figure
rib ing
Ġsubject ed
Ġrestrict ive
Ġfinger print
m arg
dem o
ĠE R
Ġearth qu
E A
Con tains
Ġconsist ed
Ġremem bered
Ġab ilities
Ġperiod icity
); \
ener gies
ĠM ir
ĠE L
D ash
p z
Ġless on
Ġleg ally
Ġlif estyle
ding ton
Ġdec o
ab ol
(" %
PH P
Ġlat itude
AR G
object ive
isim ple
n ia
iv als
ific ates
Ġvoc abulary
L ipschitz
ĠP ref
ĠB essel
ĠÐ º
External Task
Ġrespond ents
y ield
Ġinter play
Ġ iv
RA Y
Ġrom antic
Ġunder ground
D IF
ĠAl low
ĠC BS
pro ving
^{\ ,
ĠLet ter
Ġw x
Ġenc odes
19 38
j ets
em ale
d td
>< !--
Ġalgorithm ic
ĠBlo ch
\ (\
Ġcomp rom
Ġworld s
ic ode
Local e
AT CH
}^+ $
Ġindirect ly
ĠO wn
Ġaccompany ing
ĠD F
Ġw rap
Ġlo ose
ĠN I
Ġcare ers
Ġwild life
: \,
P romise
Ġc ave
Ġd S
Ġdiscret ion
ST AR
Ġjust ification
Ġfil aments
Ġrece ipt
T B
se conds
ĠB A
ip olar
Ġtop ologically
Ġfoss il
ĠDat aset
od el
ĠC ass
In s
perturb ed
ĠG D
eder ated
f its
ĠĠĠĠĠĠĠĠĠĠĠĠĠĠĠĠĠĠĠĠĠĠĠĠĠĠĠĠĠĠĠĠ ĠĠĠĠĠĠĠĠ
satisf ies
3 90
ĠP I
Ġtim ely
polar ization
produ ced
ĠHistor ic
Ġex empt
... )
ĠTele vision
Ġhalo es
ĠRespon d
H ER
ll bracket
Ġsynchron ized
ĠAl bum
Ġnation wide
Ġforecast ing
Ġqu ies
Ġcur l
Per cent
ĠU RI
squ ares
Ġw orm
ĠComput ing
Ġh un
ab lation
}$ =
Ġen rolled
Ġtra veled
ĠS GD
ib ling
Ġhel per
Ġcategor ical
Ġex pr
Ġformer ly
ĠD ES
lear n
P unct
ĠM DP
ĠMalays ia
4 20
30 7
redu ce
it ably
Ġto ll
32 8
32 7
Ġshell s
Ġscan ning
C FT
y alty
ange vin
ĠCart an
Ġdet erior
Ġstar burst
Ġconstitu ent
27 9
r w
Ġre ign
/ }
Ġ\ }.
Ġf etch
ĠE dd
Ġreveal ing
Ġproduct ivity
ĠAn na
19 34
ING S
Ġdis charge
Ġ' "
Ġindex es
ĠLiter ature
Ġan ne
Ġdes erve
Ġbu ff
Ġimpact ed
rad ial
correspon d
t own
cap acity
ĠStart ing
_ )
\},\ {
OTT OM
ĠPer iod
h ler
rt l
Part y
yl um
ĠPat ri
Ġscript s
ĠS now
Ġcovari ates
Ġemb od
Constra ints
Ġimper ial
Ġm ature
Ġapplic ant
b la
ě $
Ġex tern
LO C
Id x
Ext ensions
ap oration
Î ¹
Ġavoid s
s ass
Tem p
Rad io
inst ead
ÑĢ Ð¸
w ire
Ġorigin ating
er ce
Ġprop ri
ĠN ear
get Message
nucle on
scal es
ĠAg ent
ě (
quad ratic
g un
orth ogonal
Ġaccept s
ĠMel bourne
en es
Ġcon gest
Ġport s
Ġrep ulsive
Ġcert ification
Ġ\ },
Ġapproxim ating
vert ed
Ġregular ized
ĠM ind
v f
w oman
or acle
ine e
Ġfound ations
19 35
> .</
Ġcla uses
ĠN H
Ġeconom ies
Ġrecall ing
tw isted
ox ide
Ġflav our
ExternalTask Pojo
Ñ Ĩ
oc o
}$ '
Ġelect oral
sh ore
a uthors
ĠK ra
Ġlater al
ĠBrother s
Ġt ons
ĠCon sumer
Ø ª
ĠC ir
ov o
ĠS ET
T ax
ĠF S
B W
Di rac
up ta
P ush
Ġquadr upole
Ġcol linear
ĠP AR
W al
og an
Ġwhere in
ben ch
Ġig et
Ġtransmit ter
ĠPitts burgh
it on
m its
Ġdisappe ar
ĠC MD
Ġremark ably
ĠJ ess
0 45
ĠDel hi
Ð ³
Ġa apt
Ġs q
ĠCh andra
exec ution
L ip
to ctree
40 8
Ġinqu iry
(' ./
M yr
ĠLink ed
dat etime
ĠInitial ize
to Be
H ist
ĠI a
Ġa es
ĠC lear
inter actions
Ġforth coming
ĠU t
ĠG rid
ĠA dapt
Ġcl s
bas elines
ĠTer rit
Ġtra ditionally
Support ed
c ible
Ġmet ast
Ġsl ots
}) .}
Y et
mu ch
Ġtum or
Ġst ressed
Ġmon odromy
R oy
Sche me
Ġdefend ants
La TeX
g om
IS O
uk i
Ġmanufact urer
x f
ĠL anc
Ġstar ring
Ġgroup ed
Sh ader
b ia
Ġp arks
Ġcost ly
stat istical
Ġcod ew
ĠFre der
Ġpractition ers
ĠJ azz
Ġv ig
re gex
depend encies
ff icking
ĠTre asury
Ġthorough ly
mat ive
Ġwave form
ĠChall enge
ĠMa ine
Ġun labeled
Ġintr iguing
Ġpri est
ĠA braham
Ġprint ing
ĠSus an
Ġcl umps
Ġbal ancing
bar s
ploy ed
}} [\
ĠP V
ĠB T
ĠAnd y
Ġmat roid
ĠSol id
Mark ov
ĠM LP
Ġign or
Ġ\| _{\
p ragma
ĠS VM
Ġsumm and
H ex
ĠT ar
ob i
Ġk w
be zier
Ġ( @
Ġsl ide
T ON
') ->
0 75
ĠS cal
ĠF al
ĠD ays
b R
so f
ĠTrans port
Ġpropag ators
Ġmask ed
ĠDub ai
Ġlad der
Ġtransform er
L oss
Ġgeneral ised
T a
Al ert
ull ivan
Ġjo ins
Ġsub category
Ġ. \
ĠTechn ical
Ġdissip ative
,\ ]
Ġref lections
Ġtri ps
ir ational
Ġsur rogate
Ġfundament ally
an om
ĠRe form
Ġachieve ments
inci ples
Fe atures
Ġt s
Ġw rapper
Ġep ic
ĠJ oy
Ġany body
mix ing
ĠPract ice
mark ed
Ġamend ments
Ġadv ised
B and
Ġ ^\
Ġis o
Ġprogram mes
Ġassign s
Ġtre asure
Ġbran es
d E
ĠE rr
Ġtyp edef
Ġtempor arily
Ġconscious ness
24 2
local host
d q
ĠE lection
Ġdam aged
ĠC ut
ĠBe aut
' )$,
am med
DE D
ĠCon v
w eg
ĠLog ger
am ard
Ġwitness ed
Ġspecial ist
b ons
Ġs el
Ġv essels
col ors
Ġind igenous
ĠLin ux
quoted bl
Ġh oped
ĠAgric ulture
D ry
text quotedbl
Ġstabil izer
Y au
ĠF ine
F re
ent ries
Ġne bula
E mit
$. )
ĠK az
rid es
sd k
Ġprospect s
] \,
Ġ" [
Ġl os
25 2
Ġrefere e
f lip
re verse
as cular
our ced
() ">
tim er
Chang es
ĠInd ians
Ġint end
B ill
g athered
EN CE
Ġarchitect ural
Ġ }^
Ġdro plet
urs es
Ġlight er
Ġfor um
ol k
de code
File Name
ĠHy per
Ġg aming
B road
V IS
] ->
For ce
F it
res pective
Ġcross ings
Ġdomin ating
Ġlack ing
Ġphil os
Â »
Ġ\ }_{
D irection
Ġcharacter izing
log ical
stat istics
op ens
Ġd rastically
Ġstri kes
ĠArgent ina
k im
_* (\
const it
4 60
ul o
Ġcred entials
Ġ\! \!
ĠPl atform
Ġimm un
fol der
aw esome
O FF
P ur
Ġs s
ĠMari e
get Class
ĠBy te
ĠĠĠĠĠĠĠĠĠĠĠĠĠĠĠĠĠĠĠĠĠĠĠĠĠĠĠĠĠĠĠĠ ĠĠĠĠĠĠĠĠĠĠĠĠĠĠĠĠĠĠĠ
Mod ified
Ġcommut ation
0 60
Ġr iding
sec ure
> {
N amed
ĠRe ports
organ ization
Ġinvert ed
lo yd
ogram s
ov ic
Ġcomm uting
ĠCon nection
ĠWar ner
B etween
h k
=- =-
)} }$
Ġswit ched
Cam era
ĠM AP
Ġpolit ician
P t
re search
Ġarg uing
re action
ct rl
Ġterm inate
estab lished
D isk
ĠT ob
Ġout ward
Ġfin ishes
Ġamb itious
æ ĺ
ĠSh are
Do es
Ġwealth y
e clipse
ĠS ER
acknowledg ements
ere x
Ġag ing
Ġdecomposition s
Ġimport s
Aut hentication
itro gen
Ġsim ulator
ash ing
Ġman ages
25 3
Ġminim ized
U ntil
ĠU lt
can not
D ig
æķ °
Ġquant itatively
Ġstart up
F K
ĠA LL
ĠB ORDER
Ġorigin ated
bor ough
Ġc rim
Ġfriend ship
Text View
ĠP rad
Ð° ÑĤ
m rm
Ġeduc ated
ĠY ale
Ġ/ ></
inc eton
Be en
corre ction
Ġdro pping
M is
p es
ĠMod al
im als
ĠMin or
Ġhistor ian
Ġfor gotten
N H
Ġi ii
ĠH awaii
Ġvalid ated
Ġb lob
ĠD NS
Ġsurv iving
PR B
Ã§ Ã£o
Ġst ead
ys on
ĠPre vention
ĠGener ated
B st
ra h
ĠChar acter
E duc
ĠT s
tow ards
Ġ& (
ĠCh ron
W F
ĠL oss
Ġampl ification
ADD ING
Th ank
Re ason
Ġhistor ically
M esh
enn y
tempor ary
n it
ran king
ĠIn valid
col our
P ark
ĠGr iff
ĠC rit
oc on
ie v
{- }\
Ser vlet
Ġassert True
in stant
Ġok ay
)} |
Man agement
light s
Ġf oo
h owever
SO s
Ġab straction
Ġfavour ite
is omorphism
sub Nav
Ġoccas ions
ĠM ut
ĠF ly
U A
ĠS ave
ĠF ALSE
Ġcommut ator
Ġinher it
Ġdiverg ences
Aust ral
Ġf m
Ġreg ulated
e fficiency
ĠĠĠ čĊ
ĠU E
Ġport rait
Ġpy thon
ĠConserv ative
Ġre sembles
ine quality
PC A
Ġtem ple
inter section
ĠSh akespeare
Ġm ountains
}} ),
30 8
Ġb es
central ized
Ġthe rap
pl aced
S witch
Ġpay off
c N
ĠP osition
Ġlog istic
ĠV o
comb ined
u els
{ =
Ġc ous
Ġm ad
: -
a is
ant om
Ġpregn ant
Ġremn ant
re z
Ġlegend ary
Ġb anned
product ive
B AL
Ġeditor ial
24 1
riz ation
pay load
Ġpartners hips
ĠIndones ia
You ng
Ġexcess ive
ĠV L
Start ing
Ġautomat on
dec oder
ĠM ix
Ġper f
25 8
Ġst adium
M us
T ables
ĠB udget
Ġcon vective
ĠMaterial s
ĠS erial
Ġloc ate
correspon ds
Cho ose
Cont in
ĠC row
Ġpregn ancy
Ġspace craft
ĠQ ual
optim ization
' }$.
ĠE rn
ĠB ottom
ĠSt yle
su ally
Cal cul
ĠE state
Ġab ol
f ib
ĠR ange
Ġ| {\
Ġreplic a
in ator
ul ent
Ġmod ifying
Ġhope fully
ĠRich ards
27 3
AC C
ĠSch ur
F und
T urn
es cape
ĠP ackage
ĠProgram s
Ġmonomial s
h um
r put
Ġdisc arded
Ge orge
Ġ um
ĠAt omic
8 75
4 10
S us
ĠF T
ĠH end
oss ible
d al
ĠM oney
Ġassist ed
Ġnow here
Ġsil ence
k T
P Q
ĠJ ere
Ġ======= =
q r
ĠC N
m cite
Ġform ulations
I l
as ta
ann ah
Ġcitizens hip
Ġ# {
Le ave
Ġincorpor ates
ĠPhil osophy
Ġg ases
ĠCas imir
L im
ĠSt rong
D irector
Ġcour tesy
ĠNon etheless
ca pture
Ġpaint ed
Ġforecast s
Ġe ig
Ġun correlated
determin istic
Ġske leton
Ġinev itable
l if
Ġp ounds
\% $,
BA SE
p ip
ram id
Ġcirc ulation
Ġh ill
ĠE SP
Ex act
Ġrail way
M en
j ump
="../ _
or st
ap id
Ġs orry
i int
Ġre lied
ock ets
h az
the ning
=" {{
der r
LO AD
Ġmention ing
' }{\
âĢĶ âĢĶ
Ġden y
ĠStud io
ĠN R
project s
Ġcreat ivity
I p
ru led
ĠMarg aret
Ġind istinguish
IT LE
Ġvocal s
Ġprohib ited
2 21
list en
ĠMathemat ics
12 34
Ġcur ious
Ġking dom
Fix ture
M G
oc entric
Ġrevolution ary
r ise
Ġ/ ><
Ġassoci ative
Ġra pe
I a
Ġhad rons
Ġoptim istic
n ell
28 3
Ġclot hes
Ġon t
ĠC ould
Ġmaxim a
ro ots
ra ising
T ur
it ored
ut ives
eloc ity
ogen ic
Ġpursu ing
}} |\
ĠMar vel
Ġf reed
4 40
ĠO range
Ġassign ing
' ].
19 19
35 5
m ol
ĠPer ry
ĠNev ada
ed i
Ġenthus i
M obile
propag ation
$ ''
Ġcrit ically
c ies
Rel ation
iz ard
ĠEmer gency
D H
30 6
ĠLorentz ian
Ġattach ment
Ġwe igh
Ġrestric ts
ĠRay leigh
L AB
Ġre vel
Ġvolat ility
v endor
ĠD S
Ġdon or
J apan
sub fig
D ict
Ġis ometric
Ġcontroll ers
er vation
ist le
ĠG ov
App ly
0 17
ĠC B
Ġpat ri
ĠSet up
on ian
Ġre ception
ĠR osen
erv ous
Ġp owered
order ing
erc ise
ĠTR UE
e ys
ax ial
ĠL arry
ĠP il
16 00
ĠPort land
Big gr
Ġt ips
as ters
u h
k le
Ġrapid ity
ow itz
Ġres um
" }
ref resh
Big gl
Ġoppon ents
Ġatten uation
ĠRam an
Ġwant ing
br is
Ġcontract ing
ĠTurn er
aspect ratio
ĠF IR
ĠR C
' )=
ĠLu ke
Ġ ----------------------------------------------------------------
ĠMot or
Ġse q
Ġ\; .
Ġell ipse
pa id
ur ities
ĠS ame
Ġcollaps ed
Ġgr at
F ermi
Ġw aven
ran ean
Ġbacter ia
Ġmar ine
Ġbright est
Ġdiv orce
xx x
sc ene
ĠQ ED
l iter
ind ividual
27 7
ĠSecond ly
U ES
ren ormal
Enc oder
ĠP om
}- (
Ġclean ing
Ġp s
ĠExp ression
V L
ĠMa j
dim ensions
miss ing
cal c
Ġsh or
Ġquart ic
li qu
ĠS Y
ĠB ull
de veloper
Ġ$ >$
ĠB in
ĠM aking
ĠN J
Ġdaught ers
Ġcompens ate
Tw ig
0 80
Ã ł
ĠGra duate
ĠLik ewise
per f
ro d
Ġtem pt
sol ved
K ar
e ur
Ġsystem ic
)$. }
Ġcommit tees
Cont ract
ĠT ol
Ġun ve
ĠM eta
ps line
ĠDen ver
whe ther
Ġprogen itor
round ed
Ġdi abetes
B ell
Ġdecou pling
Ġreferen ced
ĠFour th
Ġreprodu ces
Ġspons ored
Us ed
) ?
Ġ$ +$
Ġrac ist
W C
AC ING
>> >
qu art
Ġdon ations
: \\
Ġcal or
ĠPl us
if teen
ud ge
Ġ. /
ise conds
âĢĿ ).
Ġincent ive
ĠD elta
con ver
Ġpre jud
ch unk
top ological
32 9
G od
at ype
Con versely
33 6
ĠCl ose
d rag
cont roll
& (
ĉĉĉĉĉĉĉĉ ĉĉĉ
ĠT ick
M iddle
Ġdi et
} ",
ard less
Exec utor
ĠB us
tr ust
OR S
cut s
ie u
ĠMulti ple
J im
ĠPro phe
is ite
cur rency
ack s
d og
Ġlif ts
ĠBr ig
Ġdisput es
Ġunder taken
in ject
e ight
CRE ATE
__ .
b ary
sign ificant
Not es
id ays
Ġqual ify
ĠCh a
Tool s
f k
Ġback ed
ĠKE Y
7 20
Ġtrig gers
s ap
ick en
inter pol
Ġgram mar
}}$ }
level s
Ġelim inating
Exec ute
ĠLi u
Ġenfor ced
ĠD T
Ġsh ipping
Ġalt ogether
Ġdis ruption
}_{\ {
shall er
Ġdisag ree
qu ist
respon sive
3 21
Bu f
at in
Ġcharacter izes
IC T
st ick
ĠT ABLE
vers ions
it ives
mic ron
ĠF ab
> -
F rank
H ello
ĠBr ill
Ġrot ated
Ġexceed ing
under standing
Ġorigin ate
Ðµ ÑĤ
Ġdivis ible
f ew
Ġprot esters
0 18
Ġh orses
ĠB AS
ĠTh ailand
Ġmetallic ities
Ġmil k
ft en
Ġtrans itive
iter ation
19 10
__ )
os ity
Ġconf erences
Ġlook up
ĠOther s
ĠIss ues
Ġdispl aced
Sim ons
Ġshe ets
al ia
(' <
ĠFor mat
Ġstat utory
l ift
Ġhome omorphism
Ġr ises
az ure
measure ments
ĠF ollow
ĠX X
g old
pl ays
con jecture
Ġconstitu ents
su c
it ual
! </
P eter
ag nostic
26 7
Ġdis continuity
Ġph ones
Ġsp herically
integ rated
Ġmaxim ization
ĠWIT HOUT
Ġelder ly
y c
^{( -
Ġscr ut
_- (
Ġ\ @
ĠRe LU
supset eq
Ġrecogn ised
ĠIllegal ArgumentException
Ob viously
Ġbin omial
Ġb ull
Ġdest ruct
if s
com fort
Ġpur ple
Ġang ry
ĠBar ack
d N
ĠPalest ine
ĠD D
Ġdil aton
4 35
rest riction
S ent
Ġoper a
(" \
se cret
Ġan ger
St ill
ern and
Ġdef erred
iling ual
Ġsche matic
Ġpo em
ĠIN T
Ġc inema
28 7
×Ļ ×
0 40
B its
28 6
CL U
st ill
Ġsold ier
Ġ( `
ĠBo ys
ffic ial
Ġread out
os hi
ĠV A
hol omorphic
Ġcontract ed
ĠCro at
ry ing
26 9
ĠLiver pool
Ġcor onal
Ġnormal ised
Ġeffic acy
ĠLic ensed
Ġinv isible
]{ .
Ġh i
Ġg amb
ĠS TE
Ġexec uting
Ġmer it
Ġap ilevel
Ġmark ers
S chool
Ġgrad ing
Ġsent enced
discuss ed
w ikipedia
ĠB EC
Ġ' ,
Ġarch ae
Ġgl ue
Sc ene
Ġt ribute
Ġterrit ories
Ġl uck
ĠP ra
Ġt f
cur y
): \
Ġiter ator
ĠA qu
ĠC ay
pa int
m ont
ĠF ock
in ces
Ġinf ring
Ġflu ids
ĠIraq i
g ain
ĠM etric
Ġcom ed
$- $\
Re ceived
vis ibility
local e
tool bar
ues e
Ġattra ctor
ĠMad ison
th ood
_ -\
ĠEl li
Ġutil ization
Ġpr ide
lot te
ig ated
(' #
depend ing
Ġsepar ations
ĠC rown
Ġorgan ised
ĠFe atures
Ġpen alties
' )^
9 80
M AC
Ġcrow ds
Ġ- {
Ġexpos ures
ien na
ĠM ason
ĠN ever
Ġoscill ators
Ġshock ed
Ġneutron s
Ġcommission ed
ĠW E
Ġisot herm
ĠH orizon
Ġun resolved
Ġrear rang
z ant
ĠR ES
Ġneg atively
Ġlect ure
S Q
Ġstring ent
Ġprevent ed
Ġhon ored
c atalog
Ġrepe ating
Ġfol iation
ĠJim my
K r
ĠJava Script
Ġmyster ious
co res
Ġprem ises
}= [
Ġsw ing
Ġ }}{
N ov
Î ½
ĠF ixed
Ġoscill atory
Desc ribe
ho o
om o
Ġ= -
rib es
Ġdefault s
ĠTra il
å Ń
ĠS ad
ĠP el
26 2
Ġ' ''
Ġh ur
ĠI gn
su ff
}_{ (\
ĠAT LAS
P ADDING
Ġcon greg
ams ung
Ġinert ia
iz ar
Ġbroad band
ĠEth iop
theore tical
J s
Ġhigh way
= {(
in ates
Ġl unch
Ġdec ode
C SS
ac ion
Ġprosec ution
Ġprest igious
ut t
Ġoppon ent
Ġj ack
pack ages
p ion
as ive
ell ers
Ġs ca
19 29
ĠInd igenous
d raft
Ġh ung
Ġdet ention
Ġre connection
ho v
stud ied
}/ (
P ane
fund amental
ĠK er
Ġinnoc ent
p oll
ĠHar rison
Ġcor ona
Ġconjug acy
] }{\
ĠP G
co eff
Ġglu ons
b low
CR IPT
O cc
Ġload s
Ġ' -
Ġbu ck
29 6
y x
æ Ī
ĠC DF
ĠN ag
P REF
ĠB ud
ĠB ranch
)$ ]
ĠAb elian
m ir
ĠK nowledge
Ġconstruct ive
ul p
VIE W
Orig in
32 6
th umb
pro files
Ġwar nings
ud ed
ĠEvery thing
J P
Ġdro ve
, &
s ense
ĠI an
ĠS MC
input s
satisf ying
}$ &$
ĠM ail
ĠRe le
decor ation
ple ts
ĠIS IS
B ER
u racies
Phys ical
Ġinser ting
Ġdisc ourse
Stud ent
+ "
. ',
âĢĿ ),
Ġbe er
Ġconverg ing
0 24
Bit map
S in
'' _
ĠDec ision
itor ing
w right
mod ifier
Ġ) ^{
Ġsl iding
Ġto urs
}} }$.
Ġal ike
Ġmand ate
isot ropic
Ġkit chen
H B
spect or
g ic
M EM
Ã ª
om es
ĠÐ ´
ub ert
ĠL ot
)| ^{
>( <
ĠB illy
ĠVeter ans
Ġgi ants
String Builder
psh ire
Ġst ems
O DE
Mat cher
for ced
Ġinstant on
Rich ard
ĠV erm
Ġatt orneys
com pl
Ġast rom
Ġcivil ians
ĠPut in
Function s
0 22
65 5
|}{ }
ĠO B
lay ers
ĠGra ce
ĠV R
ĠPortug al
ĠSud an
Ã ¥
Ġn est
ĠZ one
70 7
Ġinvent ory
ĠS MB
Ġco h
Ġhere in
ĠHit ler
Ù ĩ
Ġsoc cer
end ant
Can not
W u
Ġz eta
comp et
ĠA V
}\ }\
ĠM es
ĠPro duction
Ġcentral ity
fa iled
Â ±
Ġstock s
N ON
Ġgroup oid
ac ci
Ġart ic
id is
C ould
ass ume
Ġcomp ile
pi pe
L ondon
Ġsh ops
t bp
ba um
Ġfac et
Ġcompan ions
P od
ĠZ ar
Code c
Ġprint f
Ġf et
ĠH ero
l q
( `
)\ |_
Ġdepos ited
ĠK IND
unit length
Ġ }).
ĠL ocation
Ġsoc io
Ġapp ell
ĠQu arter
ops is
ĠConf eder
ĠM M
Ġs napshots
y f
ĠC lay
ler ight
ĠT YPE
ĠF riends
ier ra
ĠPalest inians
ĠGir ls
con taining
34 6
ĠNe il
process es
: ]
Ġconstruct s
Ġcomplic ations
Ġleak age
Sh ift
Ġup ward
sw er
ĠMed ic
AA AA
ç »
ĠA uthors
Ġexcell ence
co h
Ġpsy chiat
G ordon
Ġspac etimes
cp u
Ġconcaten ation
Format ter
Ġshr ink
ĠDe al
Ġte a
ĠW alk
R iemann
Ġwh ites
Ġle an
Î µ
Ġcorrel ators
ĠCorpor ate
ĠMu hammad
ig o
Ġco pper
log y
G K
Ġv in
im proved
}, ...,
Ġcomment ed
un al
Ġliber ty
m etal
in burgh
ĠS SL
Can ada
_{ _{\
ous el
Ġde cent
Ġtra pping
ĠJenn ifer
u ably
Ġcommand er
Ġsacr ifice
< >();
z heimer
ĠTr uth
orbit al
Ġproduct ive
ĠD yn
Ġcoast al
us age
Ġen velop
Ġup stream
Ġe ager
if est
}) }(
ĠG Cs
SOUR CE
mod ular
us hes
Ġout look
Ġunit arity
ĠB lood
Con verter
ah u
Ġenc rypted
ĠKe ith
C lean
le ting
)\ |^
Ġcompact ification
geb roid
Ġtreat y
ĠMed al
Ġreci procal
Ġhe mis
ĠG S
M AR
ĠĠĠĠĠĠĠĠĠĠĠĠĠĠĠĠ ĠĠĠĠĊ
Sur face
Ġsimpl ification
ĠEncycl opedia
v n
40 3
CH AR
over lay
Ġsing les
~$ {\
ĠGu y
S afe
he ng
eg e
ĠC raig
ug by
ĠV ent
Ġlast ing
CO VID
L HC
] +\
or relation
our cing
work er
&+ &
H V
ort ium
R X
o U
Ex it
60 6
Ġsurviv ors
Ġim balance
ĠSand ers
W itten
Ġf ifty
Ġconsum ed
Ġdeco herence
T ip
Ġc ad
Ġresil ience
Ġc us
BO OL
log ic
ĠHill ary
L ess
Ġquant ified
ĠFa ith
! =
ĠW ait
}}_{ {\
M om
For ward
Ġpolit ically
Ġalgebra ically
27 2
Ġbatt les
Ġh ire
am ic
View Controller
ga ussian
* -
ch air
ĠP icture
Ġdist illation
ac s
Ġprov incial
)) (
) *{\
equ ate
place ments
Ġterm inated
w y
}} }^
Ġsc int
squ ared
ĠSing h
ĠB ed
45 5
Bu ilding
Ġt ubes
Ġencou rages
ilibri a
ĠAd miral
den ote
Ġcondens ed
Ġtraged y
Con vert
ick ed
)\ ]
eng u
IC K
\ }^{
ĠThe ater
ĠConserv ation
ĠU P
ĠRob in
Prior ity
Ġm irr
ĠA WS
nd um
sp herical
top ology
\ ^
m us
ĠB OO
Ġshel ter
W omen
Å Ĥ
habilit ation
reat ment
ben chmark
$ )}
Ġb ail
ĠDis cussion
Ġnav igate
Ġun directed
ĠRog ers
ĠCre ated
ĠDisc overy
c E
Ġde posit
Ġlux ury
ale ph
Ġansw ering
Con vergence
Work er
ĠGaz a
* .
Ġatt itudes
Ġcompact ly
ĠKe ep
A ge
ro st
Ġconf ron
Ġsepar ates
ra gged
ĠĠĠĠĠĠĠĠĠĠĠĠĠĠĠĠĠĠĠĠĠĠĠĠĠĠĠĠĠĠĠĠ ĠĠĠĠĠĠĠĠĠ
Ġim poses
ub a
pp y
Ġnotice able
ign e
success ful
ad ays
Ġv iv
Ġmig rants
ĠWH ERE
Ġsur pass
ann ers
C atalog
ĠR ud
sc reens
Ġ`` `
Te am
Tag ged
red irect
Ġtrav elling
ine es
Ġis instance
ĠM all
Ġprem ise
ĠR ole
end point
eng es
Ġexplo itation
S rc
Lin q
x p
ĠPro test
Ġlog o
ĠSte el
0 33
Ġf el
nu clear
inher ited
R W
Ġl ane
construct ed
post s
ĠInd ividual
w ig
Ġ$ }
^{ **
irm ingham
ĠPU BLIC
N am
Com ponents
Ġrefuge e
nipp et
maxim al
ĠJup iter
ĠF D
IG O
Ġsemic lassical
com bin
AR GET
ĠT rain
ext rem
ran e
ĠAn atomy
Mod ifier
ĠBen ef
ĠBern oulli
Ġinherent ly
Ġscre ens
ĠCommun ist
Ġf t
cover age
feed back
Ġdiv isions
rest rial
ĠAlex and
Ġ }),
ĠR y
Ġhar assment
ch astic
Ġy eah
ĠRepresent ative
26 6
Ġis ospin
ay an
ri en
g em
Ġw ings
29 7
ĠKen ya
f re
gg le
ĠA my
ĠArm ed
ĠC lick
Ġhe ated
Cal endar
~ ~\
}} }$,
ĠL ost
riz ed
ĠC ertain
Ġaccount ability
Block s
ĠS tack
ĠPho enix
Ġob eys
29 9
Dan iel
ĠT error
As sembly
ĠCompan ies
Ġre fin
Ġun lock
ep och
cos m
="@ +
requ ires
27 4
Ġconsult ing
Ġgold en
ĠIss ue
K G
ĠS G
ĠC ome
Ġhighlight ing
Ġdead ly
Ġdemonstr ations
Ġmim ic
log arithm
V ect
Ġ( #
ĠE D
Requ ire
ĠG PS
Ġind oor
e asy
Ġp ic
ub s
Ġte aches
// !
................................ ................................
z el
x iv
ĠHe brew
L uc
M i
Ġbottlene ck
Ġquot es
separ ator
ĠH S
predict ion
ool s
Ġhere after
Ġpar allax
Ġsl aves
manif est
Ġcondens ation
Ġnod al
Ġp ow
Rel ations
ÐµÐ½ Ð¸
Ġvolunt ary
M ail
ĠSe lection
TableRow Color
29 8
Stat istics
d uring
37 8
where as
ĠC ME
Ġscul pt
J eff
ĠAud io
Ġg al
St rong
################ ################
neutr ino
Ð ±
Pro j
Ġ )$.
ĠT u
Ġpers ist
A dapt
fail ure
Ġpharma ceutical
Ġab rupt
ren a
26 8
Ġme V
Ġins ensitive
ACT ION
ĠPDF s
j m
Ġw ors
Ġr ated
Ġcontin ent
Ġanaly tics
Ġurg ed
ins ula
Ġann ulus
Ġcook ie
k an
ĠG un
Ġd ump
Ġlear ner
48 5
Ġstabil ization
T ak
Ġdecor ated
Ġreg isters
Ġdes erves
" ?>
mog orov
J oe
ĠC ole
oc y
Ġoccup y
Ang le
hu ang
cast ing
al ous
ĠQue bec
{ +}
J ones
Ġcom oving
Ġcap tain
Ġten ure
Ġin ches
ĠB PS
ĠV II
P ipeline
Ġg it
LE X
et ext
rm al
im pact
Ġdiver ges
ĠI BM
s and
Ġsuper potential
Q P
Ġw rest
XX XX
Ġl ip
hed ra
SP ACING
ĠJust in
ĠSum mit
Â «
ĠH unter
urn iture
ĠMont real
æ Ĺ
loc ations
read ing
Ġconsult ant
ta rea
che mical
Ġsc ar
vent ory
Ġtra its
j ee
Error f
Menu Item
Ġemp ire
cl osing
Ġb ab
Ġtox ic
ĠStand ards
ĠL isa
ĠL aura
Ġle ts
bu cket
ĠC hat
ĠO H
oss ip
Ġev ac
iter ranean
Ġf ires
ĠR io
He ap
Ġcollect ively
Ġdoub led
Ġtravel s
ancell or
Interest ingly
deg r
m ess
ĠGreat er
tor us
Ġresol ving
Ġheart s
em pir
Let t
ut down
Ġcentral ized
Ġst up
ĠK an
Ġpropag anda
FOR MAT
0 90
Ġt err
get Attribute
Ġvill ages
ĠSp ot
Ġpar ish
s ho
ĠS pi
Ġpoly g
ĠL it
ĠG round
ure auc
az ines
Ġinfect ious
ac hers
ĠAGN s
Ġreli ably
ĠWork ers
Ġmon etary
Ġkey word
T an
34 8
oul os
Ġhe d
Europe an
ur as
Ġref use
select font
Ġdiv id
ene ath
Ġren owned
count s
Max imum
ĠStrateg ic
Ġassess ing
Ġwhere by
ic ism
Ġpres idency
Ġsuscept ible
[ _
[ ][]{
Ï ĥ
20 48
27 8
IEEE eqnarray
B ACK
Ġb ending
Ġ" ;
Ġar r
ĠMur phy
Ġke en
Ġredd ening
Q M
] >
st rom
ĠK S
h pp
ĠQu ant
unit ary
G ro
Ġn ervous
File Path
local ly
Ġadd r
_{+ }
ĠM otion
Ġsol vers
ST ART
ĠCl ifford
sign ific
ĠAcad emic
ĠD ame
St ation
Ġelectron ics
Ġhum or
Access or
Ġk a
Ġthere after
Ġsc andal
ĠFor ward
Control s
ĠH i
4 30
x c
Ġgain ing
h all
ĠP sy
ag ner
Own Property
arc min
Ġutil izes
ta k
circ led
De partment
Ġpick s
v u
it ic
Ġt ensions
Ġ" );
ĠArt icles
EX P
Ġpercol ation
L ater
b age
pl ant
ot yp
are to
] </
Ġfin ishing
pre tty
Ġfoot age
Isra el
pro cedure
34 7
Ġpursu it
Ġinter change
arch itecture
ĠG ot
Ġobser ves
Ġcompar ative
separ ated
S el
p ow
v on
Ġst olen
cccc cc
N LO
ell ation
ĠN ancy
ĠBase ball
V e
ht m
m illion
ing ers
over ride
c els
ĠB F
asser stein
Ġde position
Ġsu gar
Ġdem ographic
Se cret
Ġsevent h
Ġacc red
Ġshould er
process ed
ĠForm er
id able
ĠK irk
Di agram
E ast
ĠF i
ĠMas ters
Ġv ibrational
att ice
IR T
Ġcomment ary
g low
ad ian
Ġincur red
== =
Ġswit ches
year s
Ġsem isimple
Ġassert ions
ĠHop kins
reason able
qu o
Ġmark ing
ass et
ling ton
Hy per
ro ut
Hash Map
k ill
it ous
sub string
DE S
ĠStud ios
network s
start s
Ġimag ination
Ġcro ps
Ġapplic ants
Ġdisturb ance
$\% $
ĠM illion
d ex
ĠBit coin
ut y
}] =
TR Y
Ġyield ed
ĠUpd ated
âĢ ¬
ĠL earn
67 8
Ġinterview ed
}\, (
H ilbert
Ġun amb
Ġgener ous
M ur
SH A
z ag
Ġ- {\
i our
Ġd v
ĠK re
B lo
Ġs isters
Ġac yclic
Ġbar rel
nos cript
s ph
an other
ĠEconom y
ĠA ST
25 1
Ad am
Ġspokes man
Ġfun eral
M IT
hol tz
ext ype
Ġlog s
ĠExt ension
R am
real istic
Ġb reat
ĠP HP
oc ate
Ġbel oved
Ġmon ument
Ġprog ression
ol ine
ĠD egree
x b
Ġqu int
orth y
serv let
Chang ing
REQ UEST
@ {-
ĠM PI
Ġend orse
Ġpar as
Ġ$(' #
> `
sl ider
ĠN W
ĠF ocus
E uler
Ġrid ic
ĠGrass mann
C ES
D AR
re levant
e lection
}} }^{
row Color
Long rightarrow
st ress
Ġdist ortions
ĠHung ary
ĠĠĠĠĠĠĠĠ ĠĊ
Ġreser ves
Ġmus cle
Ġanaly st
Ġbounded ness
}~ (
Ġinsp ire
D N
cl ips
ĠG ross
Ġcompet itors
Ġappar atus
Ġabsor bing
h orn
â Ķ
ik ov
othe rapy
ĠExcell ence
Wh ich
IT ION
ch all
Ġde pletion
/** */
ĠB urg
Not ation
ĠT ensor
est imation
Ġnumer ator
)\ !
ĠA part
Ġexpress es
Ġreview ing
Ġrenew ed
keep ing
we i
Ġchar ter
rot ating
Ġd ile
tra ject
ĠClass ic
pre pare
Ġbad ly
v it
Ġcon ductor
[...]
