{
  "version": "1.0",
  "truncation": null,
  "padding": null,
  "added_tokens": [
    {
      "id": 0,
      "content": "[UNK]",
      "single_word": false,
      "lstrip": false,
      "rstrip": false,
      "normalized": false,
      "special": true
    }
  ],
  "normalizer": null,
  "pre_tokenizer": {
    "type": "Sequence",
    "pretokenizers": [
      {
        "type": "Digits",
        "individual_digits": false
      },
      {
        "type": "ByteLevel",
        "add_prefix_space": false,
        "trim_offsets": true,
        "use_regex": true
      }
    ]
  },
  "post_processor": null,
  "decoder": null,
  "model": {
    "type": "BPE",
    "dropout": null,
    "unk_token": "[UNK]",
    "continuing_subword_prefix": null,
    "end_of_word_suffix": null,
    "fuse_unk": false,
    "byte_fallback": false,
    "vocab": {
      "[UNK]": 0,
      "!": 1,
      "\"": 2,
      "#": 3,
      "$": 4,
      "%": 5,
      "&": 6,
      "'": 7,
      "(": 8,
      ")": 9,
      "*": 10,
      "+": 11,
      ",": 12,
      "-": 13,
      ".": 14,
      "/": 15,
      "0": 16,
      "1": 17,
      "2": 18,
      "3": 19,
      "4": 20,
      "5": 21,
      "6": 22,
      "7": 23,
      "8": 24,
      "9": 25,
      ":": 26,
      ";": 27,
      "<": 28,
      "=": 29,
      ">": 30,
      "?": 31,
      "@": 32,
      "A": 33,
      "B": 34,
      "C": 35,
      "D": 36,
      "E": 37,
      "F": 38,
      "G": 39,
      "H": 40,
      "I": 41,
      "J": 42,
      "K": 43,
      "L": 44,
      "M": 45,
      "N": 46,
      "O": 47,
      "P": 48,
      "Q": 49,
      "R": 50,
      "S": 51,
      "T": 52,
      "U": 53,
      "V": 54,
      "W": 55,
      "X": 56,
      "Y": 57,
      "Z": 58,
      "[": 59,
      "\\": 60,
      "]": 61,
      "^": 62,
      "_": 63,
      "`": 64,
      "a": 65,
      "b": 66,
      "c": 67,
      "d": 68,
      "e": 69,
      "f": 70,
      "g": 71,
      "h": 72,
      "i": 73,
      "j": 74,
      "k": 75,
      "l": 76,
      "m": 77,
      "n": 78,
      "o": 79,
      "p": 80,
      "q": 81,
      "r": 82,
      "s": 83,
      "t": 84,
      "u": 85,
      "v": 86,
      "w": 87,
      "x": 88,
      "y": 89,
      "z": 90,
      "{": 91,
      "|": 92,
      "}": 93,
      "~": 94,
      "¡": 95,
      "¢": 96,
      "£": 97,
      "¤": 98,
      "¥": 99,
      "¦": 100,
      "§": 101,
      "¨": 102,
      "©": 103,
      "ª": 104,
      "«": 105,
      "¬": 106,
      "®": 107,
      "¯": 108,
      "°": 109,
      "±": 110,
      "²": 111,
      "³": 112,
      "´": 113,
      "µ": 114,
      "¶": 115,
      "·": 116,
      "¸": 117,
      "¹": 118,
      "º": 119,
      "»": 120,
      "¼": 121,
      "½": 122,
      "¾": 123,
      "¿": 124,
      "Â": 125,
      "Ã": 126,
      "Ä": 127,
      "Å": 128,
      "Æ": 129,
      "Ç": 130,
      "È": 131,
      "É": 132,
      "Ê": 133,
      "Ë": 134,
      "Ì": 135,
      "Í": 136,
      "Î": 137,
      "Ï": 138,
      "Ð": 139,
      "Ñ": 140,
      "Ò": 141,
      "Ó": 142,
      "Ô": 143,
      "Õ": 144,
      "Ö": 145,
      "×": 146,
      "Ø": 147,
      "Ù": 148,
      "Ú": 149,
      "Û": 150,
      "Ü": 151,
      "Ý": 152,
      "Þ": 153,
      "ß": 154,
      "à": 155,
      "á": 156,
      "â": 157,
      "ã": 158,
      "ä": 159,
      "å": 160,
      "æ": 161,
      "ç": 162,
      "è": 163,
      "é": 164,
      "ê": 165,
      "ë": 166,
      "ì": 167,
      "í": 168,
      "î": 169,
      "ï": 170,
      "ð": 171,
      "ó": 172,
      "ô": 173,
      "Ā": 174,
      "ā": 175,
      "Ă": 176,
      "ă": 177,
      "Ą": 178,
      "ą": 179,
      "Ć": 180,
      "ć": 181,
      "Ĉ": 182,
      "ĉ": 183,
      "Ċ": 184,
      "ċ": 185,
      "Č": 186,
      "č": 187,
      "Ď": 188,
      "ď": 189,
      "Đ": 190,
      "đ": 191,
      "Ē": 192,
      "ē": 193,
      "Ĕ": 194,
      "ĕ": 195,
      "Ė": 196,
      "Ę": 197,
      "ę": 198,
      "Ě": 199,
      "ě": 200,
      "Ĝ": 201,
      "ĝ": 202,
      "Ğ": 203,
      "ğ": 204,
      "Ġ": 205,
      "ġ": 206,
      "Ģ": 207,
      "ģ": 208,
      "Ĥ": 209,
      "ĥ": 210,
      "Ħ": 211,
      "ħ": 212,
      "Ĩ": 213,
      "ĩ": 214,
      "Ī": 215,
      "ī": 216,
      "Ĭ": 217,
      "ĭ": 218,
      "Į": 219,
      "į": 220,
      "İ": 221,
      "ı": 222,
      "Ĳ": 223,
      "ĳ": 224,
      "Ĵ": 225,
      "ĵ": 226,
      "Ķ": 227,
      "ķ": 228,
      "ĸ": 229,
      "Ĺ": 230,
      "ĺ": 231,
      "Ļ": 232,
      "ļ": 233,
      "Ľ": 234,
      "ľ": 235,
      "Ŀ": 236,
      "ŀ": 237,
      "Ł": 238,
      "ł": 239,
      "Ń": 240,
      "ĠĠ": 241,
      "Ġt": 242,
      "in": 243,
      "he": 244,
      "Ġa": 245,
      "on": 246,
      "re": 247,
      "at": 248,
      "Ġthe": 249,
      "er": 250,
      "ĠĠĠĠ": 251,
      "en": 252,
      "Ġs": 253,
      "or": 254,
      "al": 255,
      "it": 256,
      "Ġo": 257,
      "is": 258,
      "ion": 259,
      "Ġc": 260,
      "es": 261,
      "Ġ\\": 262,
      "ar": 263,
      "an": 264,
      "Ġw": 265,
      "Ġf": 266,
      "le": 267,
      "Ġ$": 268,
      "Ġp": 269,
      "ed": 270,
      "Ġof": 271,
      "Ġin": 272,
      "Ġan": 273,
      "Ġb": 274,
      "ic": 275,
      "ing": 276,
      "ro": 277,
      "Ġd": 278,
      "ct": 279,
      "Ġm": 280,
      "as": 281,
      "et": 282,
      "Ġand": 283,
      "el": 284,
      "Ġto": 285,
      "ig": 286,
      "ent": 287,
      "Ġth": 288,
      "{\\": 289,
      "ou": 290,
      "ation": 291,
      "ra": 292,
      "st": 293,
      "im": 294,
      "om": 295,
      "Ġre": 296,
      "Ġe": 297,
      "ĠĠĠ": 298,
      "il": 299,
      "Ġn": 300,
      "ot": 301,
      "Ġh": 302,
      "am": 303,
      "Ġis": 304,
      "ĠĠĠĠĠĠĠĠ": 305,
      "ol": 306,
      "id": 307,
      "Ġ(": 308,
      "ce": 309,
      "_{": 310,
      "Ġl": 311,
      "ve": 312,
      "se": 313,
      "ut": 314,
      "ĠT": 315,
      "qu": 316,
      "Ġfor": 317,
      "ul": 318,
      "un": 319,
      "Ġg": 320,
      "ab": 321,
      "Ġ$\\": 322,
      "ur": 323,
      "ow": 324,
      "ch": 325,
      "mat": 326,
      "eg": 327,
      "ver": 328,
      "ly": 329,
      "Ġthat": 330,
      "ĠS": 331,
      "um": 332,
      "čĊ": 333,
      "od": 334,
      "math": 335,
      "Ġon": 336,
      "ith": 337,
      "if": 338,
      "Ġcon": 339,
      "end": 340,
      "Ġbe": 341,
      "Ġst": 342,
      "ĠA": 343,
      "us": 344,
      "âĢ": 345,
      "em": 346,
      "ĠC": 347,
      "ction": 348,
      "Ġ&": 349,
      "ĠI": 350,
      "Ġ=": 351,
      "}\\": 352,
      "ht": 353,
      "ad": 354,
      "ta": 355,
      "ge": 356,
      "Ġas": 357,
      "}$": 358,
      "^{": 359,
      "Ġwe": 360,
      "ri": 361,
      "ph": 362,
      "Ġwith": 363,
      "ex": 364,
      "Ġpro": 365,
      "ure": 366,
      "ĠĊ": 367,
      "ir": 368,
      "Ġv": 369,
      "pe": 370,
      "ma": 371,
      "Ġal": 372,
      "20": 373,
      "ter": 374,
      "ref": 375,
      "ate": 376,
      "th": 377,
      "ight": 378,
      "ay": 379,
      "ist": 380,
      "ĠM": 381,
      "pt": 382,
      "ĠĠĠĠĠĠĠ": 383,
      "Ġex": 384,
      "ity": 385,
      "pp": 386,
      "iv": 387,
      "os": 388,
      "ĠThe": 389,
      "}}": 390,
      "cal": 391,
      "Ġby": 392,
      "res": 393,
      "Ġare": 394,
      "the": 395,
      "ite": 396,
      "(\\": 397,
      "ub": 398,
      "ĠF": 399,
      "ĠP": 400,
      "and": 401,
      "ine": 402,
      "egin": 403,
      "ac": 404,
      "Ġwh": 405,
      "Ġcom": 406,
      "ore": 407,
      "est": 408,
      "ĠB": 409,
      "per": 410,
      "Ġde": 411,
      "begin": 412,
      "Ġit": 413,
      "ĉĉ": 414,
      "ext": 415,
      "ess": 416,
      "ial": 417,
      "art": 418,
      "pl": 419,
      "rac": 420,
      "ĠH": 421,
      "_{\\": 422,
      "rom": 423,
      ")$": 424,
      "de": 425,
      "Ġat": 426,
      "ft": 427,
      "ĠR": 428,
      "ies": 429,
      "ĠL": 430,
      "Ġor": 431,
      "ĠW": 432,
      "ass": 433,
      "}{": 434,
      "ers": 435,
      "oc": 436,
      "ps": 437,
      "iz": 438,
      "ĠD": 439,
      "ment": 440,
      "Ġ<": 441,
      "ant": 442,
      "ive": 443,
      "Ġthis": 444,
      "nt": 445,
      "ew": 446,
      "Ġse": 447,
      "right": 448,
      "--": 449,
      "ran": 450,
      "},": 451,
      "frac": 452,
      "Ġfrom": 453,
      "ult": 454,
      "ĠN": 455,
      "eq": 456,
      "ill": 457,
      "int": 458,
      "ĠE": 459,
      "})": 460,
      "ect": 461,
      "=\"": 462,
      "Ġ{": 463,
      "text": 464,
      "The": 465,
      "equ": 466,
      "ag": 467,
      "Ġhe": 468,
      "ort": 469,
      "ple": 470,
      ");": 471,
      "cite": 472,
      "rm": 473,
      "cl": 474,
      "ĠG": 475,
      "ave": 476,
      "ld": 477,
      "ical": 478,
      "ue": 479,
      "Ġsh": 480,
      "âĢĻ": 481,
      "Ġcl": 482,
      "orm": 483,
      "Ġnot": 484,
      "ition": 485,
      "abel": 486,
      "our": 487,
      "Ġsu": 488,
      "Ġy": 489,
      "og": 490,
      "ich": 491,
      "</": 492,
      "Ġun": 493,
      "mathb": 494,
      "ere": 495,
      "nd": 496,
      "Ġres": 497,
      "ke": 498,
      "ens": 499,
      "Ġcan": 500,
      "ign": 501,
      ",\\": 502,
      "ame": 503,
      "ff": 504,
      "ell": 505,
      "ud": 506,
      "pa": 507,
      "able": 508,
      "all": 509,
      "Ġle": 510,
      "label": 511,
      "ated": 512,
      "00": 513,
      "up": 514,
      "ations": 515,
      "con": 516,
      "$,": 517,
      "to": 518,
      "Ġ-": 519,
      "Ġch": 520,
      "$.": 521,
      "201": 522,
      "ĠĠĠĠĠĠĠĠĠĠĠ": 523,
      "eta": 524,
      "..": 525,
      "Ġhave": 526,
      "Ġr": 527,
      "der": 528,
      "Ġwas": 529,
      "equation": 530,
      "mathcal": 531,
      "ber": 532,
      "fig": 533,
      "}.": 534,
      "Ġus": 535,
      "//": 536,
      "du": 537,
      "left": 538,
      "ary": 539,
      "ds": 540,
      "ase": 541,
      "Ġwhich": 542,
      "ĠO": 543,
      "}(": 544,
      "Ġwhe": 545,
      "age": 546,
      "ime": 547,
      "ener": 548,
      "cc": 549,
      "low": 550,
      "ust": 551,
      "Ġim": 552,
      "}^": 553,
      "~\\": 554,
      "Ġ*": 555,
      "pro": 556,
      "}_": 557,
      "op": 558,
      "Ġ}": 559,
      "Ġ+": 560,
      "her": 561,
      "Ġma": 562,
      "19": 563,
      "red": 564,
      ").": 565,
      "ĠIn": 566,
      "ib": 567,
      "Ġmod": 568,
      "com": 569,
      "ack": 570,
      "da": 571,
      "ĠU": 572,
      "av": 573,
      "ions": 574,
      "ost": 575,
      "ence": 576,
      "ork": 577,
      "pha": 578,
      "ast": 579,
      "Ġif": 580,
      "ĠĠĠĠĠĠĠĠĠĠĠĠĠĠĠĠ": 581,
      "alpha": 582,
      "form": 583,
      "ĠJ": 584,
      "act": 585,
      "),": 586,
      "Ġab": 587,
      "line": 588,
      "ide": 589,
      "Ġhas": 590,
      "ru": 591,
      "ther": 592,
      "ong": 593,
      "sum": 594,
      "Ġk": 595,
      "Ġob": 596,
      "ĠâĢ": 597,
      "Ġ\"": 598,
      "amb": 599,
      ")\\": 600,
      "are": 601,
      "ang": 602,
      "Ġall": 603,
      "out": 604,
      "ould": 605,
      "10": 606,
      "row": 607,
      "\">": 608,
      "ance": 609,
      "ile": 610,
      "ard": 611,
      "In": 612,
      "$\\": 613,
      "ind": 614,
      "ach": 615,
      "unction": 616,
      "over": 617,
      "ĠĠĠĠĠ": 618,
      "ambda": 619,
      "pect": 620,
      "ous": 621,
      "elta": 622,
      "use": 623,
      "Ġcomp": 624,
      "ap": 625,
      "rans": 626,
      "so": 627,
      "rib": 628,
      "ely": 629,
      "ata": 630,
      "Ġclass": 631,
      "li": 632,
      "Ġme": 633,
      "amma": 634,
      "_\\": 635,
      "Ġad": 636,
      "ice": 637,
      "Ġapp": 638,
      "ĠTh": 639,
      "port": 640,
      "erm": 641,
      "imes": 642,
      "tain": 643,
      "urn": 644,
      "ak": 645,
      "igma": 646,
      "Ġj": 647,
      "Ġone": 648,
      "ents": 649,
      "Ġqu": 650,
      "Ġint": 651,
      "Ġ\\\\": 652,
      "Ġne": 653,
      "Ġpart": 654,
      "Ġcont": 655,
      "iff": 656,
      "Ġpl": 657,
      "mathbb": 658,
      "Ġdis": 659,
      "ption": 660,
      "ound": 661,
      "mu": 662,
      "ject": 663,
      "dot": 664,
      "=\\": 665,
      "ser": 666,
      "}_{": 667,
      "}^{": 668,
      "ari": 669,
      "sub": 670,
      "ose": 671,
      "ry": 672,
      "ire": 673,
      "ray": 674,
      "ip": 675,
      "Ġwill": 676,
      "ode": 677,
      "ric": 678,
      "mb": 679,
      "ug": 680,
      "\\\\": 681,
      "of": 682,
      "ors": 683,
      "-\\": 684,
      "ates": 685,
      "ĠK": 686,
      "wo": 687,
      "fin": 688,
      "phi": 689,
      "lic": 690,
      "ular": 691,
      "ution": 692,
      "Ġval": 693,
      "Ġsy": 694,
      "get": 695,
      "set": 696,
      "we": 697,
      "ho": 698,
      "ory": 699,
      "pace": 700,
      "Ġper": 701,
      "und": 702,
      "^{\\": 703,
      "ega": 704,
      "ree": 705,
      "Ġfunction": 706,
      "Ġset": 707,
      "Ġev": 708,
      "ĠV": 709,
      "ress": 710,
      "sc": 711,
      "ain": 712,
      "own": 713,
      "Ġ{\\": 714,
      "Ġ[": 715,
      "hat": 716,
      "pon": 717,
      "ics": 718,
      "ally": 719,
      "ome": 720,
      "ype": 721,
      "lambda": 722,
      "pi": 723,
      "Ġalso": 724,
      "oint": 725,
      "Ġar": 726,
      "ize": 727,
      "Ġmodel": 728,
      "ring": 729,
      "'s": 730,
      "ian": 731,
      "iel": 732,
      "âĢĿ": 733,
      "bf": 734,
      "**": 735,
      "lo": 736,
      "Ġdo": 737,
      "ord": 738,
      "Ġout": 739,
      "wid": 740,
      "aram": 741,
      "Ġdiff": 742,
      "sigma": 743,
      "ca": 744,
      "ĠSt": 745,
      "raph": 746,
      "200": 747,
      "ia": 748,
      "mathbf": 749,
      "umber": 750,
      "irst": 751,
      "cent": 752,
      "ollow": 753,
      "Ġour": 754,
      "section": 755,
      "Ġtwo": 756,
      "enc": 757,
      "ilon": 758,
      "psilon": 759,
      "vel": 760,
      "ĠWe": 761,
      "Ġresult": 762,
      "ark": 763,
      "part": 764,
      "ear": 765,
      "ok": 766,
      "Ġbut": 767,
      "Ġinter": 768,
      "Ġmore": 769,
      "Ġother": 770,
      "turn": 771,
      "Ġsuch": 772,
      "St": 773,
      "one": 774,
      "pos": 775,
      "Ġtime": 776,
      "==": 777,
      "app": 778,
      "12": 779,
      "Ġtheir": 780,
      "ount": 781,
      "cre": 782,
      "Ġconst": 783,
      "Ġfollow": 784,
      "Ġsub": 785,
      "Ġyou": 786,
      "vers": 787,
      "^{-": 788,
      "Ġ(\\": 789,
      "Ġsim": 790,
      "led": 791,
      "ove": 792,
      "align": 793,
      "ie": 794,
      "sp": 795,
      "clud": 796,
      "dition": 797,
      "}{\\": 798,
      "eth": 799,
      "stem": 800,
      "ram": 801,
      "Ġform": 802,
      "Ġequ": 803,
      "Ġwhere": 804,
      "Ġsp": 805,
      "Ġits": 806,
      "beta": 807,
      "ilde": 808,
      "Ġ'": 809,
      "Ġthere": 810,
      "Ġcor": 811,
      "very": 812,
      "lem": 813,
      "lect": 814,
      "Ġover": 815,
      "Ġnew": 816,
      "()": 817,
      "ov": 818,
      "bar": 819,
      "Ġbet": 820,
      "Ġso": 821,
      "put": 822,
      "ys": 823,
      "ck": 824,
      "Ġgener": 825,
      "Ġany": 826,
      "----": 827,
      "Ġcons": 828,
      "ature": 829,
      "mathrm": 830,
      "ix": 831,
      "*}": 832,
      "Ġonly": 833,
      "gamma": 834,
      "Ġtrans": 835,
      "ĠâĢľ": 836,
      "Ġrel": 837,
      "+\\": 838,
      "ne": 839,
      "theta": 840,
      "ative": 841,
      "Ġthan": 842,
      "ace": 843,
      "Ġdist": 844,
      "Ġwork": 845,
      "resent": 846,
      "ll": 847,
      "We": 848,
      "ox": 849,
      "Ġro": 850,
      "Ġthey": 851,
      "Ġdiffere": 852,
      "vi": 853,
      "Ġacc": 854,
      "ep": 855,
      "Ġdata": 856,
      "Ġen": 857,
      "ator": 858,
      "Ġreg": 859,
      "ĠThis": 860,
      "Ġman": 861,
      "rho": 862,
      "ĠĠĠĠĠĠĠĠĠĠĠĠĠĠĠ": 863,
      "ific": 864,
      "ual": 865,
      "Ġpos": 866,
      "Ġbeen": 867,
      "Ġsc": 868,
      "ility": 869,
      "]{": 870,
      "te": 871,
      "figure": 872,
      "Ġmat": 873,
      "Ġdes": 874,
      "array": 875,
      "^\\": 876,
      "ock": 877,
      "ces": 878,
      "Ġfirst": 879,
      "delta": 880,
      "Ġshow": 881,
      "leq": 882,
      "Ġthen": 883,
      "Ġpre": 884,
      "Ġlo": 885,
      "width": 886,
      "Ġhis": 887,
      "Ġwere": 888,
      "item": 889,
      "Ġag": 890,
      ")}": 891,
      "pec": 892,
      "cess": 893,
      "ient": 894,
      "Ġup": 895,
      "cdot": 896,
      "$-": 897,
      "Ġcol": 898,
      "tau": 899,
      "ruct": 900,
      "}$,": 901,
      "Ġx": 902,
      "ield": 903,
      "ath": 904,
      "Ġeach": 905,
      "rit": 906,
      "Ġph": 907,
      "Ġwhen": 908,
      "here": 909,
      "ss": 910,
      "}$.": 911,
      "Ġgiv": 912,
      "Ġi": 913,
      "Ġno": 914,
      "ublic": 915,
      "ween": 916,
      "Ġsome": 917,
      "oth": 918,
      "|\\": 919,
      "11": 920,
      "les": 921,
      "Ġthese": 922,
      "Ġprob": 923,
      "Ġco": 924,
      "Ġcase": 925,
      "ise": 926,
      "Ġtra": 927,
      "ource": 928,
      "elf": 929,
      "val": 930,
      "Ġsol": 931,
      "ict": 932,
      "Con": 933,
      "not": 934,
      "}(\\": 935,
      "ced": 936,
      "ues": 937,
      "ating": 938,
      "igh": 939,
      "ible": 940,
      "ull": 941,
      "ities": 942,
      "ved": 943,
      "Ġeff": 944,
      "eqref": 945,
      "ob": 946,
      "aramet": 947,
      "times": 948,
      "Ġbetween": 949,
      "ince": 950,
      "var": 951,
      "big": 952,
      "hed": 953,
      "Ġunder": 954,
      "nu": 955,
      "pend": 956,
      "rad": 957,
      "ink": 958,
      "Ġreturn": 959,
      "ethod": 960,
      "ĠY": 961,
      "Ġline": 962,
      "ef": 963,
      "iss": 964,
      "for": 965,
      "ments": 966,
      "Ġfin": 967,
      "partial": 968,
      "Ġinto": 969,
      "Ġsystem": 970,
      "ĠIt": 971,
      "Ġcomm": 972,
      "Ġgo": 973,
      "Ġpoint": 974,
      "ased": 975,
      "pr": 976,
      "ĉĉĉĉ": 977,
      "Ġuse": 978,
      "its": 979,
      "yn": 980,
      "ational": 981,
      "ding": 982,
      "Ġabout": 983,
      "ample": 984,
      "Ġwho": 985,
      "col": 986,
      "fty": 987,
      "ied": 988,
      "ident": 989,
      "ĠCh": 990,
      "nce": 991,
      "arrow": 992,
      "infty": 993,
      "ĠSe": 994,
      "tilde": 995,
      "omega": 996,
      "Ġli": 997,
      "Ġappro": 998,
      "pert": 999,
      "ans": 1000,
      "min": 1001,
      "Ġdifferent": 1002,
      "mall": 1003,
      "Th": 1004,
      "rt": 1005,
      "ish": 1006,
      "ays": 1007,
      "15": 1008,
      "arg": 1009,
      "Ġ//": 1010,
      "Ġnon": 1011,
      "div": 1012,
      "Ġwould": 1013,
      "eqn": 1014,
      "->": 1015,
      "Ġpol": 1016,
      "Ġnumber": 1017,
      "ization": 1018,
      "aw": 1019,
      "ning": 1020,
      "tt": 1021,
      "ax": 1022,
      "Ġext": 1023,
      "Delta": 1024,
      "Ġvari": 1025,
      "Ġprov": 1026,
      "round": 1027,
      "../": 1028,
      "18": 1029,
      "Ġ</": 1030,
      "olog": 1031,
      "16": 1032,
      "Ġget": 1033,
      "Ġinv": 1034,
      "Ġ|": 1035,
      "ng": 1036,
      "fter": 1037,
      "Ġused": 1038,
      "ized": 1039,
      "ider": 1040,
      "space": 1041,
      "Ġ/": 1042,
      "mm": 1043,
      "vert": 1044,
      "Ġser": 1045,
      "Ġmay": 1046,
      "sim": 1047,
      "oug": 1048,
      "ugh": 1049,
      "ĠFor": 1050,
      "roup": 1051,
      "quad": 1052,
      "ron": 1053,
      "Ġkn": 1054,
      "Ġstud": 1055,
      "Ġvalue": 1056,
      "::": 1057,
      "sec": 1058,
      "ting": 1059,
      "Ġcur": 1060,
      "Ġusing": 1061,
      "13": 1062,
      "Ġdefin": 1063,
      "Ġyear": 1064,
      "Ġpe": 1065,
      "old": 1066,
      "err": 1067,
      "tern": 1068,
      "Ġ.": 1069,
      "Ġpartic": 1070,
      "\\,": 1071,
      "Ġgiven": 1072,
      "par": 1073,
      "orem": 1074,
      "Ġem": 1075,
      "ctions": 1076,
      "))": 1077,
      "rang": 1078,
      "eng": 1079,
      "sh": 1080,
      "Ġdet": 1081,
      "Ġ$(": 1082,
      "ower": 1083,
      "olds": 1084,
      "uss": 1085,
      "xi": 1086,
      "}}\\": 1087,
      "Ġterm": 1088,
      ")$.": 1089,
      "Ġsame": 1090,
      "ml": 1091,
      "Ġfact": 1092,
      "la": 1093,
      "Ġest": 1094,
      "Ġ:": 1095,
      "}[": 1096,
      "pm": 1097,
      "gy": 1098,
      "Ġoff": 1099,
      "ically": 1100,
      "Ġrequ": 1101,
      "Ġte": 1102,
      "Ġdef": 1103,
      "Ġfe": 1104,
      "ctor": 1105,
      "Ġcal": 1106,
      "Ġu": 1107,
      "Ġhad": 1108,
      "Ġpa": 1109,
      "Ġinst": 1110,
      "ism": 1111,
      "14": 1112,
      "Ġsa": 1113,
      "ote": 1114,
      "Ġparamet": 1115,
      "riv": 1116,
      "ral": 1117,
      "ild": 1118,
      "$$": 1119,
      "epsilon": 1120,
      ".,": 1121,
      "ever": 1122,
      "Ġstate": 1123,
      "ĠUn": 1124,
      "sq": 1125,
      "Ġrep": 1126,
      "ases": 1127,
      "Ġ@": 1128,
      "Ġsign": 1129,
      "ail": 1130,
      "ĠX": 1131,
      "Ġact": 1132,
      "arge": 1133,
      "Ġmost": 1134,
      "rix": 1135,
      "Ġmethod": 1136,
      "Ġobser": 1137,
      "where": 1138,
      "Ġcomple": 1139,
      "ick": 1140,
      "arch": 1141,
      "Ġobtain": 1142,
      "Ġz": 1143,
      "io": 1144,
      "xim": 1145,
      "rough": 1146,
      "ots": 1147,
      "',": 1148,
      "25": 1149,
      "ively": 1150,
      "ribut": 1151,
      "Ġorder": 1152,
      "Ġwell": 1153,
      "center": 1154,
      "name": 1155,
      "}_{\\": 1156,
      "rent": 1157,
      "Ġpublic": 1158,
      "asure": 1159,
      "Ġsupp": 1160,
      "psi": 1161,
      "irc": 1162,
      "Pro": 1163,
      "Om": 1164,
      "Ġtr": 1165,
      "eqnarray": 1166,
      "Ġthem": 1167,
      "Ġam": 1168,
      "ec": 1169,
      "Ġresults": 1170,
      "Ex": 1171,
      "ude": 1172,
      "Ġsee": 1173,
      "Ġoper": 1174,
      "Ġprodu": 1175,
      "def": 1176,
      "Ġbound": 1177,
      "Ġhow": 1178,
      "formation": 1179,
      "ract": 1180,
      "respon": 1181,
      "ential": 1182,
      "Ġfollowing": 1183,
      "\",": 1184,
      "Ġent": 1185,
      "ons": 1186,
      "log": 1187,
      "For": 1188,
      "ability": 1189,
      "Omega": 1190,
      "ĠFig": 1191,
      "Ġeffect": 1192,
      "angle": 1193,
      "^*": 1194,
      "Ġ`": 1195,
      "lu": 1196,
      "ists": 1197,
      "ript": 1198,
      "essage": 1199,
      "Ġdisc": 1200,
      "tr": 1201,
      "Gamma": 1202,
      "ices": 1203,
      "Ġboth": 1204,
      ")$,": 1205,
      "ann": 1206,
      "sqrt": 1207,
      "ĠQ": 1208,
      "cause": 1209,
      "als": 1210,
      "Ġspec": 1211,
      "ars": 1212,
      "Ġwor": 1213,
      "(\"": 1214,
      "Ġanal": 1215,
      "__": 1216,
      "></": 1217,
      "textbf": 1218,
      "tab": 1219,
      "uch": 1220,
      "ings": 1221,
      "Ġstat": 1222,
      "Ġdire": 1223,
      "ension": 1224,
      "cond": 1225,
      "mbol": 1226,
      "Ġref": 1227,
      "span": 1228,
      "oid": 1229,
      "energy": 1230,
      "Ġexp": 1231,
      "17": 1232,
      "();": 1233,
      "Ġbl": 1234,
      "ily": 1235,
      "ool": 1236,
      "reat": 1237,
      "che": 1238,
      "ĠPro": 1239,
      "mer": 1240,
      "ton": 1241,
      "includ": 1242,
      "mod": 1243,
      "lation": 1244,
      "yp": 1245,
      "subsection": 1246,
      "Ġmass": 1247,
      "vare": 1248,
      "Ġass": 1249,
      "Ġneed": 1250,
      "Ġmin": 1251,
      "ough": 1252,
      "ner": 1253,
      "ople": 1254,
      "Ġend": 1255,
      "><": 1256,
      "ĠHe": 1257,
      "Ġind": 1258,
      "varepsilon": 1259,
      "raphics": 1260,
      "Ġsur": 1261,
      "ĠĠĊ": 1262,
      "hi": 1263,
      "Ġthrough": 1264,
      "ited": 1265,
      "work": 1266,
      "Ġhigh": 1267,
      "ins": 1268,
      "Ġpr": 1269,
      "Ġdec": 1270,
      "ulti": 1271,
      "Ġ${\\": 1272,
      "ered": 1273,
      "Ġsmall": 1274,
      "199": 1275,
      "ER": 1276,
      "ĠAs": 1277,
      "ĉĉĉ": 1278,
      "ality": 1279,
      "Ġfield": 1280,
      "ithm": 1281,
      "^{(": 1282,
      "}=": 1283,
      "ribution": 1284,
      "Ġmeasure": 1285,
      "Ġtype": 1286,
      "}^{\\": 1287,
      "rightarrow": 1288,
      "ĠCom": 1289,
      "uth": 1290,
      "Ġrespect": 1291,
      "Ġperform": 1292,
      "Ġrec": 1293,
      "cm": 1294,
      "caption": 1295,
      "ines": 1296,
      "ĠčĊ": 1297,
      "30": 1298,
      "egraphics": 1299,
      "Ġcondition": 1300,
      "includegraphics": 1301,
      "rangle": 1302,
      "Ġ\\,": 1303,
      "Ġstr": 1304,
      "Ġdesc": 1305,
      "fo": 1306,
      ")=": 1307,
      "Ġsaid": 1308,
      "ency": 1309,
      "ted": 1310,
      "oy": 1311,
      "etric": 1312,
      "ined": 1313,
      "Ġback": 1314,
      "ĠĠĠĠĠĠĠĠĠ": 1315,
      "Ġproblem": 1316,
      "bm": 1317,
      "hen": 1318,
      "ructure": 1319,
      "Ġassum": 1320,
      "oci": 1321,
      "Ġafter": 1322,
      "Ġwhat": 1323,
      "ange": 1324,
      "ev": 1325,
      "Ġher": 1326,
      "Ġevery": 1327,
      "Ġopt": 1328,
      "Ġname": 1329,
      "fra": 1330,
      "ful": 1331,
      "uring": 1332,
      "../../": 1333,
      "Ġprocess": 1334,
      "Ġed": 1335,
      "Ġlike": 1336,
      "ake": 1337,
      "Ġexpl": 1338,
      "umn": 1339,
      "--------": 1340,
      "Ġspace": 1341,
      "html": 1342,
      "21": 1343,
      "Ġcorrespon": 1344,
      "ulation": 1345,
      "Ġele": 1346,
      "Ġpeople": 1347,
      "Ġ--": 1348,
      "ilar": 1349,
      "ining": 1350,
      "Ġenergy": 1351,
      "ages": 1352,
      "raw": 1353,
      "ensure": 1354,
      "This": 1355,
      "ook": 1356,
      "gor": 1357,
      "Ġcomput": 1358,
      "ĠCon": 1359,
      "ymbol": 1360,
      ".~\\": 1361,
      "ash": 1362,
      "Ġright": 1363,
      "Ġlat": 1364,
      "ength": 1365,
      "varphi": 1366,
      "ert": 1367,
      "ks": 1368,
      "Ġbecause": 1369,
      "Ġjust": 1370,
      "50": 1371,
      "emph": 1372,
      "ement": 1373,
      "non": 1374,
      "Ġnow": 1375,
      "Ġconsider": 1376,
      "====": 1377,
      "Ġinclud": 1378,
      "Ġshe": 1379,
      "net": 1380,
      "Ġscal": 1381,
      "Ġshould": 1382,
      "read": 1383,
      "geq": 1384,
      "gorithm": 1385,
      "ivers": 1386,
      "ĠDe": 1387,
      "me": 1388,
      "Ġke": 1389,
      "ST": 1390,
      "new": 1391,
      "Ġvery": 1392,
      "umer": 1393,
      "Ġrepresent": 1394,
      "Ġbel": 1395,
      "ross": 1396,
      "Ġdoes": 1397,
      "ole": 1398,
      "Ġcould": 1399,
      "Ġestim": 1400,
      ".}": 1401,
      "Ġexper": 1402,
      "Ġtest": 1403,
      "trans": 1404,
      "Ġlim": 1405,
      "It": 1406,
      "Ġhref": 1407,
      "this": 1408,
      "Ġden": 1409,
      "Ġpresent": 1410,
      "ĠĠĠĠĠĠĠĠĠĠĠĠĠĠĠĠĠĠĠ": 1411,
      "000": 1412,
      "://": 1413,
      "overline": 1414,
      "ON": 1415,
      "ade": 1416,
      "Ġlead": 1417,
      "Ġmany": 1418,
      "ten": 1419,
      "yle": 1420,
      "Ġwhile": 1421,
      "****": 1422,
      "ern": 1423,
      "24": 1424,
      "Ġthree": 1425,
      "ĠAl": 1426,
      "Ġsing": 1427,
      "ffic": 1428,
      "IN": 1429,
      "Ġvalues": 1430,
      "proof": 1431,
      "ĠZ": 1432,
      "&\\": 1433,
      "Ġlocal": 1434,
      "Ġcent": 1435,
      "},\\": 1436,
      "vice": 1437,
      "chi": 1438,
      "As": 1439,
      "ified": 1440,
      "olution": 1441,
      "position": 1442,
      "Ġ*/": 1443,
      "Ġac": 1444,
      "iew": 1445,
      "Ġposs": 1446,
      "lear": 1447,
      "Ġ>": 1448,
      "Ġerr": 1449,
      "ead": 1450,
      "Ġincre": 1451,
      "itive": 1452,
      "bl": 1453,
      "Ġgeneral": 1454,
      "pre": 1455,
      "dd": 1456,
      "Ġeven": 1457,
      "view": 1458,
      "Ġatt": 1459,
      "Ġfind": 1460,
      ")^": 1461,
      "ision": 1462,
      "}).": 1463,
      "22": 1464,
      "bolds": 1465,
      "Ġlarge": 1466,
      "hline": 1467,
      "Big": 1468,
      "Ġfound": 1469,
      "ateg": 1470,
      "Ġlong": 1471,
      "boldsymbol": 1472,
      "etwork": 1473,
      "Ġel": 1474,
      "ves": 1475,
      "Ġsince": 1476,
      "cept": 1477,
      "Ġbu": 1478,
      "ify": 1479,
      "vent": 1480,
      "su": 1481,
      "Ġfil": 1482,
      "''": 1483,
      "ward": 1484,
      "Ġspect": 1485,
      "Ġinteg": 1486,
      "Ġve": 1487,
      "[\\": 1488,
      "Ġchar": 1489,
      "Ġdi": 1490,
      "Com": 1491,
      "Ġcontin": 1492,
      "Ġreal": 1493,
      "lim": 1494,
      "}}$": 1495,
      "Ġpropert": 1496,
      "Ġself": 1497,
      "ensity": 1498,
      "ormal": 1499,
      "oun": 1500,
      "frak": 1501,
      "ĠIf": 1502,
      "Ġthose": 1503,
      "ness": 1504,
      "vec": 1505,
      "Ġadd": 1506,
      "};": 1507,
      "langle": 1508,
      "Ġcorre": 1509,
      ".âĢĿ": 1510,
      "ument": 1511,
      "iqu": 1512,
      "Ġabove": 1513,
      "Ġknow": 1514,
      "velop": 1515,
      "ets": 1516,
      "Ġyears": 1517,
      "source": 1518,
      "be": 1519,
      "ural": 1520,
      "owever": 1521,
      "Ġcount": 1522,
      "ts": 1523,
      "imension": 1524,
      "Ġinformation": 1525,
      "alse": 1526,
      "plit": 1527,
      "Ġident": 1528,
      "Ġsat": 1529,
      "Ġca": 1530,
      "Ġimport": 1531,
      "Ġquant": 1532,
      "co": 1533,
      "ache": 1534,
      "...": 1535,
      "Ġrad": 1536,
      "('": 1537,
      "Ġdepend": 1538,
      "Ġobject": 1539,
      "Lambda": 1540,
      "Ġway": 1541,
      "refore": 1542,
      "ldots": 1543,
      "Ġmy": 1544,
      "any": 1545,
      "Ġsecond": 1546,
      "ule": 1547,
      "ger": 1548,
      "inal": 1549,
      "ren": 1550,
      "king": 1551,
      "depend": 1552,
      "Ġtak": 1553,
      "ission": 1554,
      "AT": 1555,
      "To": 1556,
      "Ġsupport": 1557,
      "ier": 1558,
      "mathfrak": 1559,
      "ants": 1560,
      "ĠâĢĵ": 1561,
      "vious": 1562,
      "Ġran": 1563,
      "23": 1564,
      "table": 1565,
      "Ġbeing": 1566,
      "Ġcre": 1567,
      "Let": 1568,
      "RE": 1569,
      "ĠNew": 1570,
      "Ġstructure": 1571,
      "ology": 1572,
      "rodu": 1573,
      "Ġfollows": 1574,
      "Ġshown": 1575,
      "requ": 1576,
      "see": 1577,
      "Ġ#": 1578,
      "cur": 1579,
      "Name": 1580,
      "Ġcontain": 1581,
      "Ġmem": 1582,
      "Ġexpect": 1583,
      "td": 1584,
      "Ġstart": 1585,
      "itial": 1586,
      "less": 1587,
      "rol": 1588,
      "Ġgroup": 1589,
      "citep": 1590,
      "Ġdefined": 1591,
      "Ġagain": 1592,
      "ĠRe": 1593,
      "Ġmodels": 1594,
      "Ġ=>": 1595,
      "face": 1596,
      "ration": 1597,
      "Ġtem": 1598,
      "chn": 1599,
      "pen": 1600,
      "son": 1601,
      "Ġmag": 1602,
      "message": 1603,
      "Ġsection": 1604,
      "mbox": 1605,
      "nab": 1606,
      "man": 1607,
      "uc": 1608,
      "Ġ,": 1609,
      "Phi": 1610,
      "fore": 1611,
      "cor": 1612,
      "Ch": 1613,
      "Ġinf": 1614,
      "no": 1615,
      "Id": 1616,
      "med": 1617,
      "ensuremath": 1618,
      "ames": 1619,
      "Ġlet": 1620,
      "wh": 1621,
      "ected": 1622,
      "Ġprovid": 1623,
      "clude": 1624,
      "tal": 1625,
      "by": 1626,
      "Ġ_": 1627,
      "Ġmon": 1628,
      "ather": 1629,
      "Ġ)": 1630,
      "appa": 1631,
      "dis": 1632,
      "Ġexample": 1633,
      "ired": 1634,
      "Ġdescrib": 1635,
      "let": 1636,
      "ampl": 1637,
      "AR": 1638,
      "40": 1639,
      "str": 1640,
      "class": 1641,
      "textit": 1642,
      "import": 1643,
      "cul": 1644,
      "Ġparticular": 1645,
      "pd": 1646,
      "ero": 1647,
      "Ġmake": 1648,
      "Ġcompa": 1649,
      "erest": 1650,
      "nabla": 1651,
      "Ġmain": 1652,
      "ww": 1653,
      "Type": 1654,
      "Ġyour": 1655,
      "ynam": 1656,
      "els": 1657,
      "ocation": 1658,
      "Ġhand": 1659,
      "Ġnetwork": 1660,
      "100": 1661,
      "back": 1662,
      "Ġsimilar": 1663,
      "sf": 1664,
      "Ġtop": 1665,
      "gram": 1666,
      "oper": 1667,
      "Ġpres": 1668,
      "arget": 1669,
      "sk": 1670,
      "isf": 1671,
      "code": 1672,
      "other": 1673,
      "Ġdistribution": 1674,
      "au": 1675,
      "ij": 1676,
      "Ġcurrent": 1677,
      "Ġallow": 1678,
      "kappa": 1679,
      "action": 1680,
      "})$": 1681,
      "with": 1682,
      "String": 1683,
      "Ġterms": 1684,
      "Res": 1685,
      "eps": 1686,
      "Ġdeterm": 1687,
      "otimes": 1688,
      ".\\": 1689,
      "orph": 1690,
      "Ġhere": 1691,
      "Ġelect": 1692,
      "SS": 1693,
      "Ġfeature": 1694,
      "script": 1695,
      "ody": 1696,
      "Ġpers": 1697,
      "32": 1698,
      "Ġlear": 1699,
      "comm": 1700,
      "\\|": 1701,
      "subset": 1702,
      "ask": 1703,
      "Ġmulti": 1704,
      "Ġbased": 1705,
      "box": 1706,
      "ault": 1707,
      "ane": 1708,
      "ason": 1709,
      "itle": 1710,
      "erence": 1711,
      "sl": 1712,
      "bra": 1713,
      "Ġread": 1714,
      "htt": 1715,
      "gg": 1716,
      "ished": 1717,
      "Ġplay": 1718,
      "Ġlevel": 1719,
      "ection": 1720,
      "Ġdiscuss": 1721,
      "\\!": 1722,
      "):": 1723,
      "ior": 1724,
      "ci": 1725,
      "meric": 1726,
      "ĠĠĠĠĠĠĠĠĠĠĠĠĠĠĠĠĠĠĠĠĠĠĠĠĠĠĠĠĠĠĠĠ": 1727,
      "\\%": 1728,
      "circ": 1729,
      "Ġstand": 1730,
      "ĠĠĠĠĠĠ": 1731,
      "Ġtrue": 1732,
      "ID": 1733,
      "rop": 1734,
      "Ġsize": 1735,
      "rum": 1736,
      "bit": 1737,
      "Ġalgorithm": 1738,
      "Ġsum": 1739,
      "wn": 1740,
      "play": 1741,
      "ysis": 1742,
      "ually": 1743,
      "Ġdevelop": 1744,
      "ute": 1745,
      "}),": 1746,
      "ields": 1747,
      "lob": 1748,
      "ik": 1749,
      "oss": 1750,
      "ense": 1751,
      "ators": 1752,
      "rid": 1753,
      "nonumber": 1754,
      "overn": 1755,
      "Ġmust": 1756,
      "Ġmuch": 1757,
      "2020": 1758,
      "tabular": 1759,
      "Ġrem": 1760,
      "bers": 1761,
      "....": 1762,
      "type": 1763,
      "Ġorg": 1764,
      "acter": 1765,
      "ification": 1766,
      "Ġfam": 1767,
      "plic": 1768,
      "Ġredu": 1769,
      "etry": 1770,
      "ond": 1771,
      "anc": 1772,
      "Ġdirect": 1773,
      "alth": 1774,
      "Ġaddition": 1775,
      "otential": 1776,
      "Ġap": 1777,
      "Ġpower": 1778,
      "ife": 1779,
      "##": 1780,
      "}}{": 1781,
      "Ġra": 1782,
      "Ġparameters": 1783,
      "Ġav": 1784,
      "ee": 1785,
      "ĠAn": 1786,
      "dots": 1787,
      "Ġbefore": 1788,
      "cont": 1789,
      "const": 1790,
      "rem": 1791,
      "lection": 1792,
      "redict": 1793,
      "org": 1794,
      "Ġbas": 1795,
      "ives": 1796,
      "ery": 1797,
      "Ġsatisf": 1798,
      "Ġlast": 1799,
      "Ġsuper": 1800,
      "}+": 1801,
      "2018": 1802,
      "Ġinterest": 1803,
      "return": 1804,
      "Ġrest": 1805,
      "60": 1806,
      "Ġpaper": 1807,
      "ĠThen": 1808,
      "Ġdom": 1809,
      "ĠEx": 1810,
      "Ġlow": 1811,
      "ception": 1812,
      "Ġshows": 1813,
      "Re": 1814,
      "atch": 1815,
      "ble": 1816,
      "Sigma": 1817,
      "OR": 1818,
      "\\[": 1819,
      "Ġder": 1820,
      "âĢľ": 1821,
      "istic": 1822,
      "ival": 1823,
      "Ġ``": 1824,
      "Ġdue": 1825,
      "ards": 1826,
      "Ġmatrix": 1827,
      ",âĢĿ": 1828,
      "param": 1829,
      "Ġmade": 1830,
      "2019": 1831,
      "Ġworld": 1832,
      "Ġbecom": 1833,
      "Ġcho": 1834,
      "Ġmed": 1835,
      "Ġbeh": 1836,
      "By": 1837,
      "/>": 1838,
      "Ġcompon": 1839,
      "iversity": 1840,
      "2017": 1841,
      "\\{": 1842,
      "Ġdensity": 1843,
      "ccess": 1844,
      "andom": 1845,
      "Ġq": 1846,
      "Ġhel": 1847,
      "ift": 1848,
      "top": 1849,
      "ĠAmeric": 1850,
      "Ġobtained": 1851,
      "27": 1852,
      "Ġche": 1853,
      "ges": 1854,
      "Val": 1855,
      "ixed": 1856,
      "Ġduring": 1857,
      "land": 1858,
      "Ġart": 1859,
      "Ġear": 1860,
      "Ġstudy": 1861,
      "80": 1862,
      "Ġvis": 1863,
      "reg": 1864,
      "Ġwithin": 1865,
      "Ġobserv": 1866,
      "cit": 1867,
      "ym": 1868,
      "Ġmean": 1869,
      "widet": 1870,
      "max": 1871,
      "ived": 1872,
      "Ġstates": 1873,
      "ils": 1874,
      "centering": 1875,
      "ression": 1876,
      "ately": 1877,
      "Ġsingle": 1878,
      "ĠHowever": 1879,
      "Ġrespon": 1880,
      "chool": 1881,
      "ination": 1882,
      "Ġrun": 1883,
      "Ġet": 1884,
      "LE": 1885,
      "Ġpossible": 1886,
      "}-": 1887,
      "Ġinitial": 1888,
      "Ġcommun": 1889,
      "/\\": 1890,
      "33": 1891,
      "Ġdid": 1892,
      "Fig": 1893,
      "Ġgu": 1894,
      "posed": 1895,
      ")(": 1896,
      "Ġsolution": 1897,
      "Ġorig": 1898,
      "version": 1899,
      "rr": 1900,
      "ĠAnd": 1901,
      "Ġhim": 1902,
      "Ġlimit": 1903,
      "dependent": 1904,
      "Ġhig": 1905,
      "Ġpar": 1906,
      "Ġtake": 1907,
      "Ġconf": 1908,
      "Ġfunctions": 1909,
      "Ġ($": 1910,
      "ivity": 1911,
      "Ġequation": 1912,
      "{-": 1913,
      "imal": 1914,
      "Ġarg": 1915,
      "widetilde": 1916,
      "Ġappe": 1917,
      "Ġexperim": 1918,
      "Ġgraph": 1919,
      "Ġreport": 1920,
      "ven": 1921,
      "day": 1922,
      "Ġtechn": 1923,
      "prime": 1924,
      "Ġexist": 1925,
      "iod": 1926,
      "onal": 1927,
      "self": 1928,
      "Ġlarg": 1929,
      "add": 1930,
      "Ġpotential": 1931,
      "\"/>": 1932,
      "2016": 1933,
      "Ġlaw": 1934,
      "45": 1935,
      "rict": 1936,
      "Ġ!": 1937,
      "ott": 1938,
      "wide": 1939,
      "ĠLet": 1940,
      "ording": 1941,
      "Ġnull": 1942,
      "Ġleft": 1943,
      "ystem": 1944,
      "ii": 1945,
      "ures": 1946,
      "cap": 1947,
      "Ġstill": 1948,
      "aces": 1949,
      "Ġapproxim": 1950,
      "cer": 1951,
      "Ġpoints": 1952,
      "AL": 1953,
      "si": 1954,
      "Ġindu": 1955,
      "Ġpredict": 1956,
      "Ġcorresponding": 1957,
      "Ġwrit": 1958,
      "Ġdeg": 1959,
      "ood": 1960,
      "Ġgood": 1961,
      "26": 1962,
      "lass": 1963,
      "Ġparameter": 1964,
      "rivate": 1965,
      "Ġlinear": 1966,
      "28": 1967,
      "matrix": 1968,
      "Ġstrong": 1969,
      "opt": 1970,
      "urther": 1971,
      "Ġvert": 1972,
      "Ġlist": 1973,
      "reak": 1974,
      "quence": 1975,
      "style": 1976,
      "')": 1977,
      "Ġtheory": 1978,
      "translation": 1979,
      "Ġconstant": 1980,
      "color": 1981,
      "oh": 1982,
      "Ġflu": 1983,
      "ater": 1984,
      "ters": 1985,
      "order": 1986,
      "Ġwithout": 1987,
      "Ġfinal": 1988,
      "ries": 1989,
      "air": 1990,
      "Ġintrodu": 1991,
      "ream": 1992,
      "Ġimportant": 1993,
      "SE": 1994,
      "Ġcontinu": 1995,
      "List": 1996,
      "ĠEq": 1997,
      "mit": 1998,
      "verse": 1999,
      "ables": 2000,
      "time": 2001,
      "amp": 2002,
      "Ġfl": 2003,
      "Ġdeta": 2004,
      "Ġgra": 2005,
      "odes": 2006,
      "75": 2007,
      "Ġapproach": 2008,
      "ĠTo": 2009,
      "Ġanalysis": 2010,
      "draw": 2011,
      "Ġcharacter": 2012,
      "Ġincluding": 2013,
      "ĠTheorem": 2014,
      "way": 2015,
      "Ġaround": 2016,
      "Ġins": 2017,
      "Ġassoci": 2018,
      "scal": 2019,
      "att": 2020,
      "Ġrema": 2021,
      "zeta": 2022,
      "Ġcalcul": 2023,
      "uthor": 2024,
      "Ġcomplex": 2025,
      "90": 2026,
      "atic": 2027,
      "exp": 2028,
      "Ġerror": 2029,
      "Ġinvest": 2030,
      "Ġprof": 2031,
      "Ġdem": 2032,
      "Ġregion": 2033,
      "AN": 2034,
      "Ġcou": 2035,
      "2015": 2036,
      "ĠĠĠĠĠĠĠĠĠĠĠĠĠ": 2037,
      "Ġtyp": 2038,
      ")=\\": 2039,
      "lobal": 2040,
      "hip": 2041,
      "\\]": 2042,
      "Ġfour": 2043,
      "35": 2044,
      "EN": 2045,
      "Ġopen": 2046,
      "Ġrespectively": 2047,
      "Ġmap": 2048,
      "ison": 2049,
      "mult": 2050,
      "Ġtotal": 2051,
      "ories": 2052,
      "rite": 2053,
      "urb": 2054,
      "amples": 2055,
      "ploy": 2056,
      "}]": 2057,
      "Ġstring": 2058,
      "ention": 2059,
      "Ġfalse": 2060,
      "rel": 2061,
      "ĠRes": 2062,
      "Ġrate": 2063,
      "ah": 2064,
      "Ġocc": 2065,
      "}=\\": 2066,
      "Ġvar": 2067,
      "ground": 2068,
      "perature": 2069,
      "Ġdat": 2070,
      "por": 2071,
      "Ġlook": 2072,
      "Ġgreat": 2073,
      "Ġ==": 2074,
      "Ġpop": 2075,
      "ances": 2076,
      "Ġclos": 2077,
      "Ġprevious": 2078,
      "clus": 2079,
      "ised": 2080,
      "inter": 2081,
      "emma": 2082,
      "oll": 2083,
      "Ġmom": 2084,
      "data": 2085,
      "ources": 2086,
      "Ġ&=": 2087,
      "64": 2088,
      "Ġphase": 2089,
      "Ġprogram": 2090,
      "iness": 2091,
      "utions": 2092,
      "~~": 2093,
      "Ġdown": 2094,
      "thm": 2095,
      "If": 2096,
      "Ġproof": 2097,
      "Ġhelp": 2098,
      "Ġposition": 2099,
      "arm": 2100,
      "ience": 2101,
      "ental": 2102,
      ")^{": 2103,
      "Ġlit": 2104,
      "value": 2105,
      "esc": 2106,
      "Ġapplic": 2107,
      "05": 2108,
      ")}\\": 2109,
      "size": 2110,
      "Ġpat": 2111,
      "alax": 2112,
      "Ġmaxim": 2113,
      "ouse": 2114,
      "'t": 2115,
      "ene": 2116,
      "search": 2117,
      "Ġsignific": 2118,
      "Ob": 2119,
      "Ġcomb": 2120,
      "\"><": 2121,
      "ocus": 2122,
      "node": 2123,
      "29": 2124,
      "Ġrele": 2125,
      "$)": 2126,
      "defin": 2127,
      "ially": 2128,
      "Ġknown": 2129,
      "Ġsay": 2130,
      "vir": 2131,
      ";\\": 2132,
      "ler": 2133,
      "Ġthink": 2134,
      "Ġcall": 2135,
      "Ġaver": 2136,
      "ĠSection": 2137,
      "ey": 2138,
      "Ġnext": 2139,
      "Ġproduct": 2140,
      "Ġbest": 2141,
      "ither": 2142,
      "Ġchange": 2143,
      "DE": 2144,
      "{(": 2145,
      "ique": 2146,
      "Ġvoid": 2147,
      "Ġmark": 2148,
      "az": 2149,
      "omorph": 2150,
      "Ġcar": 2151,
      "cdots": 2152,
      "Ġpass": 2153,
      "Ġtri": 2154,
      "Ġview": 2155,
      "ients": 2156,
      "ety": 2157,
      "Ġinput": 2158,
      "Ġaction": 2159,
      "stand": 2160,
      "198": 2161,
      "Ġproject": 2162,
      "Al": 2163,
      "Ġvector": 2164,
      "Ġbro": 2165,
      "Ġcrit": 2166,
      "idual": 2167,
      "function": 2168,
      "Ġpath": 2169,
      "Ġcour": 2170,
      "Ġide": 2171,
      "Ġown": 2172,
      "Ġwant": 2173,
      "duct": 2174,
      "pper": 2175,
      "Ġrange": 2176,
      "Ġsymm": 2177,
      "AC": 2178,
      "Ġfram": 2179,
      "],": 2180,
      "Ar": 2181,
      "Ġgovern": 2182,
      "Ġelse": 2183,
      "Ġpair": 2184,
      "ĠBut": 2185,
      "Ġrandom": 2186,
      "ĠSh": 2187,
      "ving": 2188,
      "Ġalong": 2189,
      "ious": 2190,
      "ription": 2191,
      "2014": 2192,
      "}|": 2193,
      "Ġfinite": 2194,
      "string": 2195,
      "Ġdesign": 2196,
      "Ġindic": 2197,
      "Int": 2198,
      ".~": 2199,
      "Ġcontrol": 2200,
      "Ġ&&": 2201,
      "}_\\": 2202,
      "icle": 2203,
      "}^\\": 2204,
      "01": 2205,
      "foot": 2206,
      "Ġcalled": 2207,
      "Ġphot": 2208,
      "Ġsystems": 2209,
      "uration": 2210,
      "Ġaff": 2211,
      "An": 2212,
      "\\\\\\\\": 2213,
      "Ġcases": 2214,
      "Ġphys": 2215,
      "Ġconditions": 2216,
      "ĠĠĠĠĊ": 2217,
      "Ġhist": 2218,
      "Ġaut": 2219,
      "fficient": 2220,
      "Ġperformance": 2221,
      "Ġprot": 2222,
      "Ġ\\{": 2223,
      "99": 2224,
      "Ġtarget": 2225,
      "br": 2226,
      "widehat": 2227,
      "Ġdynam": 2228,
      "ember": 2229,
      ")]": 2230,
      "ital": 2231,
      "Ġimpro": 2232,
      "Ġimage": 2233,
      "textwidth": 2234,
      "}}(": 2235,
      "Ġperiod": 2236,
      "70": 2237,
      "ĠAd": 2238,
      "light": 2239,
      "orn": 2240,
      "oot": 2241,
      "lemma": 2242,
      "ĠUniversity": 2243,
      "ont": 2244,
      "ways": 2245,
      "omen": 2246,
      "Ġchang": 2247,
      "Ġless": 2248,
      "ups": 2249,
      "Ġnode": 2250,
      "Ġnear": 2251,
      "lement": 2252,
      "Ġpur": 2253,
      "Ġmethods": 2254,
      "De": 2255,
      "ruction": 2256,
      "{{\\": 2257,
      "Ġchild": 2258,
      "Ġtimes": 2259,
      "under": 2260,
      "veral": 2261,
      "illion": 2262,
      "Ġkey": 2263,
      "iled": 2264,
      "Ġeas": 2265,
      "Ġhigher": 2266,
      "sert": 2267,
      "head": 2268,
      "Ġlower": 2269,
      "olumn": 2270,
      "IC": 2271,
      "Ġsource": 2272,
      "Ġtemperature": 2273,
      "ences": 2274,
      "Ġspe": 2275,
      "Ġhy": 2276,
      "})\\": 2277,
      "Psi": 2278,
      "Ġleast": 2279,
      "sing": 2280,
      "Ġsignificant": 2281,
      "ailable": 2282,
      "IT": 2283,
      "Ġevent": 2284,
      ",-": 2285,
      "qquad": 2286,
      "Ġfurther": 2287,
      "Ġwid": 2288,
      "empt": 2289,
      "Ġclear": 2290,
      "go": 2291,
      "Ġdefine": 2292,
      "usiness": 2293,
      "Ġconstra": 2294,
      "uation": 2295,
      "\");": 2296,
      "34": 2297,
      "Ġrecent": 2298,
      "Ġextend": 2299,
      "Ġfull": 2300,
      "Ġlog": 2301,
      "imensional": 2302,
      "nb": 2303,
      "netic": 2304,
      "2013": 2305,
      "small": 2306,
      "Ġrece": 2307,
      "Ġquest": 2308,
      "aving": 2309,
      "inary": 2310,
      "hes": 2311,
      "Ġsom": 2312,
      "which": 2313,
      "key": 2314,
      "}\\,": 2315,
      "ĠOn": 2316,
      "ering": 2317,
      "Ġdiag": 2318,
      "&=": 2319,
      "asing": 2320,
      "Ġmot": 2321,
      "ope": 2322,
      "Ġgalax": 2323,
      "Ġpositive": 2324,
      "ĠAr": 2325,
      "bu": 2326,
      "gebra": 2327,
      "mathsf": 2328,
      "ĠFigure": 2329,
      "Ġproperties": 2330,
      "Ġneg": 2331,
      "Ġid": 2332,
      "vices": 2333,
      "cos": 2334,
      "ava": 2335,
      "plement": 2336,
      "aim": 2337,
      "Ġmov": 2338,
      "II": 2339,
      "Set": 2340,
      "AM": 2341,
      "}^{(": 2342,
      "AS": 2343,
      "ĠBy": 2344,
      "opy": 2345,
      "Ġdon": 2346,
      "Ġplan": 2347,
      "Data": 2348,
      "Ġzero": 2349,
      "mber": 2350,
      "Ġfew": 2351,
      "Ġstandard": 2352,
      "jor": 2353,
      "Ġfree": 2354,
      "Ġlay": 2355,
      "uman": 2356,
      "erial": 2357,
      "Ġprobability": 2358,
      "Ġtraining": 2359,
      "roll": 2360,
      "Ġsample": 2361,
      "Ġagainst": 2362,
      "^+": 2363,
      "Ġlight": 2364,
      "Ġlength": 2365,
      "Ġprovide": 2366,
      "Ġweight": 2367,
      "ological": 2368,
      "Ġnormal": 2369,
      "appro": 2370,
      "Ġobserved": 2371,
      "Ġconsid": 2372,
      "Ġcap": 2373,
      "Ġclust": 2374,
      "viron": 2375,
      "Ġpost": 2376,
      "Ġanother": 2377,
      "Ġabs": 2378,
      "mary": 2379,
      "pdf": 2380,
      "icy": 2381,
      "lected": 2382,
      "Ġbuil": 2383,
      "xspace": 2384,
      "Ġexists": 2385,
      "Ġseveral": 2386,
      "point": 2387,
      "bs": 2388,
      "Ġrequire": 2389,
      "Ġfactor": 2390,
      "operator": 2391,
      "Ġmoment": 2392,
      "Un": 2393,
      "cup": 2394,
      "CO": 2395,
      "Ġthus": 2396,
      "----------------": 2397,
      "Ġgrow": 2398,
      "Ġminim": 2399,
      "Ġbehav": 2400,
      "Ġsit": 2401,
      "Value": 2402,
      "mo": 2403,
      "}\\\\": 2404,
      "ms": 2405,
      "wise": 2406,
      "////": 2407,
      "ulations": 2408,
      "Ġfrequ": 2409,
      "Ġmeans": 2410,
      "Ġ$(\\": 2411,
      "($": 2412,
      "uture": 2413,
      "Ġbetter": 2414,
      "off": 2415,
      "ĠWh": 2416,
      "idd": 2417,
      "Ġbo": 2418,
      "2012": 2419,
      "Ġang": 2420,
      ".\"": 2421,
      "36": 2422,
      "Ġconsist": 2423,
      "Ġprivate": 2424,
      "citet": 2425,
      "ules": 2426,
      "roid": 2427,
      "Ġsche": 2428,
      "lying": 2429,
      "Ġfamily": 2430,
      "On": 2431,
      "Ġproposed": 2432,
      "Ġquantum": 2433,
      "Ġ%": 2434,
      "Ġmet": 2435,
      "ale": 2436,
      "ĠThey": 2437,
      "Ġdefinition": 2438,
      "prop": 2439,
      "orth": 2440,
      "chie": 2441,
      "********": 2442,
      "map": 2443,
      "skip": 2444,
      "call": 2445,
      "ibility": 2446,
      "Mod": 2447,
      "Ġge": 2448,
      "Ġcirc": 2449,
      "48": 2450,
      "Ġenc": 2451,
      "ĠLemma": 2452,
      "ank": 2453,
      "âĢĶ": 2454,
      "Ġiss": 2455,
      "Ġelement": 2456,
      "hspace": 2457,
      "Ġ&\\": 2458,
      "Ġeval": 2459,
      "Ġequival": 2460,
      "Ġplace": 2461,
      "Ġcross": 2462,
      "Ġopp": 2463,
      "ape": 2464,
      "ordin": 2465,
      "ertain": 2466,
      "ĠĠĠĠĠĠĠĠĠĠĠĠĠĠĠĠĠĠĠĠĠĠĠ": 2467,
      "ek": 2468,
      "ably": 2469,
      "));": 2470,
      "Ġradi": 2471,
      "ĠPh": 2472,
      "Ġturn": 2473,
      "Ġhal": 2474,
      "indent": 2475,
      "Ġadv": 2476,
      "Ġcompar": 2477,
      "Ġassume": 2478,
      "Ġlife": 2479,
      "Ġbelow": 2480,
      "lish": 2481,
      "inc": 2482,
      "Ġexpected": 2483,
      "ĠInd": 2484,
      "arent": 2485,
      "ĠThese": 2486,
      "Ġrelations": 2487,
      "ocument": 2488,
      "ocial": 2489,
      "equiv": 2490,
      "Ġaccount": 2491,
      "rack": 2492,
      "Ġlines": 2493,
      "Ġcost": 2494,
      "Ġassociated": 2495,
      "ready": 2496,
      "95": 2497,
      "Ġsepar": 2498,
      "({\\": 2499,
      "Ġindependent": 2500,
      "nbsp": 2501,
      "kes": 2502,
      "scale": 2503,
      "âĢĵ": 2504,
      "ĉĊ": 2505,
      "roups": 2506,
      "Ġfit": 2507,
      "2011": 2508,
      "raction": 2509,
      "ributions": 2510,
      "Ġavailable": 2511,
      "based": 2512,
      "Ġproperty": 2513,
      "ĠThere": 2514,
      "til": 2515,
      "31": 2516,
      "uro": 2517,
      "ands": 2518,
      "Ġinvol": 2519,
      "conom": 2520,
      "Ġimpl": 2521,
      "Ġconn": 2522,
      "upp": 2523,
      "Ġfixed": 2524,
      "ina": 2525,
      "Ġloss": 2526,
      "rary": 2527,
      "Ġorgan": 2528,
      "========": 2529,
      "Ġdel": 2530,
      "Ġblock": 2531,
      "Ġaverage": 2532,
      "reen": 2533,
      "Ġhom": 2534,
      "sw": 2535,
      "ĠCol": 2536,
      "Ġstatic": 2537,
      "CT": 2538,
      "}:": 2539,
      "unc": 2540,
      "}+\\": 2541,
      "Ġoperator": 2542,
      "ush": 2543,
      "dt": 2544,
      "ĠYou": 2545,
      "Ġalways": 2546,
      "af": 2547,
      "ional": 2548,
      "angu": 2549,
      "footnot": 2550,
      "Ġleg": 2551,
      "Ġconsidered": 2552,
      "ariant": 2553,
      "nal": 2554,
      "Ġlearning": 2555,
      "Ġindiv": 2556,
      "Ġvol": 2557,
      "AP": 2558,
      "]$": 2559,
      "Ġeither": 2560,
      "}}{\\": 2561,
      "test": 2562,
      "38": 2563,
      "Ġbook": 2564,
      "Ġsuccess": 2565,
      "].": 2566,
      "Ġscale": 2567,
      "lished": 2568,
      "Ġgive": 2569,
      "idence": 2570,
      "ĠSince": 2571,
      "Ġsimple": 2572,
      "Ġseen": 2573,
      "Ġfocus": 2574,
      "Ġanaly": 2575,
      "Ġspin": 2576,
      "Ġachie": 2577,
      "igen": 2578,
      "ared": 2579,
      "Ġdatas": 2580,
      "|^": 2581,
      "rc": 2582,
      "];": 2583,
      "field": 2584,
      "Ġexact": 2585,
      "ising": 2586,
      "sin": 2587,
      "'$": 2588,
      "ĠAt": 2589,
      "ird": 2590,
      "mid": 2591,
      "ĠâĢĺ": 2592,
      "ĠSo": 2593,
      "eloc": 2594,
      "Ġtext": 2595,
      "eV": 2596,
      "Ġcontext": 2597,
      "px": 2598,
      "Ġdescribed": 2599,
      "ĠBe": 2600,
      "}-\\": 2601,
      "Ġsequence": 2602,
      "Ġcheck": 2603,
      "ĠLe": 2604,
      "neq": 2605,
      "04": 2606,
      ")-": 2607,
      "Ġnumer": 2608,
      "operatorname": 2609,
      "group": 2610,
      "ĠâĢĶ": 2611,
      "aster": 2612,
      "2010": 2613,
      "65": 2614,
      "Ġtitle": 2615,
      "Ġsem": 2616,
      "Ġgr": 2617,
      "ty": 2618,
      "most": 2619,
      "Sh": 2620,
      "inally": 2621,
      "37": 2622,
      "Bu": 2623,
      "though": 2624,
      "verg": 2625,
      "ohn": 2626,
      "rap": 2627,
      "Ġtransition": 2628,
      "Ġequations": 2629,
      "ĠUnited": 2630,
      "Ġmight": 2631,
      "ium": 2632,
      "pose": 2633,
      "lay": 2634,
      "tle": 2635,
      "Ġfeatures": 2636,
      "indow": 2637,
      "ems": 2638,
      "rior": 2639,
      "ste": 2640,
      "Ġdenote": 2641,
      "Ġrat": 2642,
      "Ġsk": 2643,
      "Ġnat": 2644,
      "Ġflow": 2645,
      "Ġ/**": 2646,
      "Ġschool": 2647,
      "Ġstep": 2648,
      "ED": 2649,
      "pping": 2650,
      "location": 2651,
      "Col": 2652,
      "Ġinclude": 2653,
      "vironment": 2654,
      "pact": 2655,
      "index": 2656,
      "Ġdistance": 2657,
      "Ġindividual": 2658,
      "Ġgovernment": 2659,
      "Ġelements": 2660,
      "IS": 2661,
      "Ġgoing": 2662,
      "stit": 2663,
      "Ġveloc": 2664,
      "result": 2665,
      "Ġstar": 2666,
      "ored": 2667,
      "now": 2668,
      "umerate": 2669,
      "sy": 2670,
      "Ġconfig": 2671,
      "date": 2672,
      "theorem": 2673,
      "Ġresearch": 2674,
      "âĢ¦": 2675,
      "Ġ-\\": 2676,
      "multic": 2677,
      "Cont": 2678,
      "Ġseries": 2679,
      "une": 2680,
      "annel": 2681,
      "Ġreason": 2682,
      "39": 2683,
      "Ġshort": 2684,
      "Ġboundary": 2685,
      "ĠThus": 2686,
      "08": 2687,
      "Ġcare": 2688,
      "Ġsurface": 2689,
      "Ġalready": 2690,
      "Ġindex": 2691,
      "ottom": 2692,
      "ula": 2693,
      "Ġday": 2694,
      "tack": 2695,
      "Ġcy": 2696,
      "ĠApp": 2697,
      "ĠMore": 2698,
      "Ġconstruct": 2699,
      "ribute": 2700,
      "][": 2701,
      "rror": 2702,
      "Test": 2703,
      "Ġnecess": 2704,
      "from": 2705,
      "Ġbi": 2706,
      ")}{": 2707,
      "Ġimplement": 2708,
      "Ġpract": 2709,
      "Ġfields": 2710,
      "erg": 2711,
      "path": 2712,
      "multicolumn": 2713,
      "place": 2714,
      "55": 2715,
      "noindent": 2716,
      "ling": 2717,
      "Ġwhether": 2718,
      "ware": 2719,
      "Object": 2720,
      "osp": 2721,
      "Ġrequired": 2722,
      "With": 2723,
      "ches": 2724,
      "chan": 2725,
      "enumerate": 2726,
      "Ġlarger": 2727,
      "Ġemploy": 2728,
      "urs": 2729,
      "outh": 2730,
      "ternal": 2731,
      "Ġside": 2732,
      "Ġsugg": 2733,
      "alk": 2734,
      "Ġsuggest": 2735,
      "Ġhead": 2736,
      "Ġsetting": 2737,
      "Ser": 2738,
      "Exception": 2739,
      "file": 2740,
      "ĠShe": 2741,
      "ensor": 2742,
      "02": 2743,
      "itemize": 2744,
      "iles": 2745,
      "Ġconstraint": 2746,
      "Ġmetric": 2747,
      "Ġrelated": 2748,
      "Ġdiv": 2749,
      "Ġhealth": 2750,
      "ĠAll": 2751,
      "itor": 2752,
      "ently": 2753,
      "Ġhapp": 2754,
      "rag": 2755,
      "Ġcode": 2756,
      "Ġlik": 2757,
      "star": 2758,
      "http": 2759,
      "06": 2760,
      "usic": 2761,
      "link": 2762,
      "page": 2763,
      "ides": 2764,
      "ĠComm": 2765,
      "Ġemb": 2766,
      "ressed": 2767,
      "edge": 2768,
      "iven": 2769,
      "44": 2770,
      "Ġbusiness": 2771,
      "]\\": 2772,
      "ley": 2773,
      "dag": 2774,
      "ograph": 2775,
      "Ġinstance": 2776,
      "ĠAmerican": 2777,
      "}}_": 2778,
      "Ġlater": 2779,
      "vspace": 2780,
      "https": 2781,
      "Ġoptim": 2782,
      "quot": 2783,
      "Ġcoll": 2784,
      "ister": 2785,
      "Ġbreak": 2786,
      "Ġcertain": 2787,
      "aut": 2788,
      "Ġglobal": 2789,
      "Ġ:=": 2790,
      "Ġblack": 2791,
      "load": 2792,
      "Ġoutput": 2793,
      "ĠFe": 2794,
      "orld": 2795,
      "body": 2796,
      "Ġuser": 2797,
      "){": 2798,
      "wards": 2799,
      "Ġ\\|": 2800,
      "Ġgives": 2801,
      "omial": 2802,
      "Ġarea": 2803,
      "scr": 2804,
      "Ġaccess": 2805,
      "Ġelectron": 2806,
      "lied": 2807,
      "izing": 2808,
      "Ġcell": 2809,
      "list": 2810,
      "07": 2811,
      "side": 2812,
      "ĠUS": 2813,
      "Ġimplies": 2814,
      "Ġspecial": 2815,
      "Ġ///": 2816,
      "2009": 2817,
      "Ġdomain": 2818,
      "ply": 2819,
      "LL": 2820,
      "Ġnote": 2821,
      "Ġdenot": 2822,
      "Ġfuture": 2823,
      "Ġinvestig": 2824,
      "split": 2825,
      "Ġauthor": 2826,
      "Ġtherefore": 2827,
      "ilities": 2828,
      "atter": 2829,
      "ussian": 2830,
      "rist": 2831,
      "Ġedge": 2832,
      "ober": 2833,
      "Ġann": 2834,
      "Ġbelie": 2835,
      "Ġmajor": 2836,
      ")}$": 2837,
      "(-": 2838,
      "Ġcover": 2839,
      "Ġvia": 2840,
      "Ġunderstand": 2841,
      "RO": 2842,
      "Ġ_{": 2843,
      "ager": 2844,
      "perty": 2845,
      "Ġeffective": 2846,
      "Ġcommon": 2847,
      "$}": 2848,
      "Ġ||": 2849,
      "Ġable": 2850,
      "Ġshall": 2851,
      "ĠNo": 2852,
      "Ġtoo": 2853,
      "Ġteam": 2854,
      "dimensional": 2855,
      "ĠString": 2856,
      "fer": 2857,
      "Ġcoe": 2858,
      "www": 2859,
      "racy": 2860,
      "state": 2861,
      "Ġsolutions": 2862,
      "ework": 2863,
      "pol": 2864,
      "serv": 2865,
      "ume": 2866,
      "Ġmove": 2867,
      "ĠCent": 2868,
      "Ġclaim": 2869,
      "Ind": 2870,
      "\\}": 2871,
      "03": 2872,
      "ouble": 2873,
      "Ġcannot": 2874,
      "rim": 2875,
      "ighb": 2876,
      "He": 2877,
      "anel": 2878,
      "that": 2879,
      "Ġlink": 2880,
      "Se": 2881,
      "Ġoriginal": 2882,
      "Ġbackground": 2883,
      "js": 2884,
      "approx": 2885,
      "arc": 2886,
      "nces": 2887,
      "na": 2888,
      "eter": 2889,
      "Ġhowever": 2890,
      "Ġfar": 2891,
      "Ġlabel": 2892,
      "ES": 2893,
      "2008": 2894,
      "Ġversion": 2895,
      "plus": 2896,
      "66": 2897,
      "Ġfund": 2898,
      "\\}$": 2899,
      "Ġweak": 2900,
      "Get": 2901,
      "09": 2902,
      "IM": 2903,
      "Ġprovided": 2904,
      "().": 2905,
      "di": 2906,
      "ury": 2907,
      "gs": 2908,
      "Ġstre": 2909,
      "url": 2910,
      "Ġamong": 2911,
      "gether": 2912,
      "ha": 2913,
      "Ġtogether": 2914,
      "Ġcomponent": 2915,
      "Ġcoupl": 2916,
      "{}": 2917,
      "\")": 2918,
      "ĠStates": 2919,
      "\\,\\": 2920,
      "Ġclose": 2921,
      "Ġwidth": 2922,
      "}}}": 2923,
      "Ġperson": 2924,
      "ctors": 2925,
      "Ġreally": 2926,
      "Ġes": 2927,
      "Ġholds": 2928,
      "eral": 2929,
      "Ġacross": 2930,
      "Ġprove": 2931,
      "sequ": 2932,
      "public": 2933,
      "ĠSer": 2934,
      "Ġtry": 2935,
      "Ġunit": 2936,
      "Ġvarious": 2937,
      "tic": 2938,
      "cle": 2939,
      "ĉĉĉĉĉ": 2940,
      "Ġstars": 2941,
      "pped": 2942,
      "comp": 2943,
      "Ġspectrum": 2944,
      "Ġhard": 2945,
      "Ġaccording": 2946,
      "bb": 2947,
      "En": 2948,
      "length": 2949,
      "nection": 2950,
      "resh": 2951,
      "anguage": 2952,
      "omorphism": 2953,
      "ustom": 2954,
      "View": 2955,
      "ris": 2956,
      "197": 2957,
      "Ġrole": 2958,
      "Ġtre": 2959,
      "Ġfac": 2960,
      "Ġput": 2961,
      "Ġhtt": 2962,
      "medi": 2963,
      "Ġtaken": 2964,
      "Ġfile": 2965,
      "Ġestab": 2966,
      "Ġdegree": 2967,
      "model": 2968,
      "iform": 2969,
      "Ġben": 2970,
      "Ġeffects": 2971,
      "NN": 2972,
      "Ġmagnetic": 2973,
      "Class": 2974,
      "Ġoften": 2975,
      "Ġrelation": 2976,
      "Ġill": 2977,
      "Ġfore": 2978,
      "rule": 2979,
      "Ġeffic": 2980,
      "Ġbecome": 2981,
      "});": 2982,
      ")+": 2983,
      "Ġhome": 2984,
      "Ġgenerated": 2985,
      "49": 2986,
      "Ġregular": 2987,
      "AB": 2988,
      "ĠCl": 2989,
      "tra": 2990,
      "Ġrequest": 2991,
      "linear": 2992,
      "Ġhuman": 2993,
      "leg": 2994,
      "Ġbasis": 2995,
      "Ġenough": 2996,
      "ION": 2997,
      "Ġmatter": 2998,
      "ackage": 2999,
      "Ġwave": 3000,
      "Ġvalid": 3001,
      "Ġtransform": 3002,
      "och": 3003,
      "Ġwar": 3004,
      "Ġcontent": 3005,
      "Ġequal": 3006,
      "mathscr": 3007,
      "Ġsets": 3008,
      "mark": 3009,
      "ught": 3010,
      "Ġdifference": 3011,
      "Ġ!=": 3012,
      "2021": 3013,
      "nav": 3014,
      "Ġoffic": 3015,
      "ĠEng": 3016,
      "Pi": 3017,
      "Ġpolit": 3018,
      "display": 3019,
      "Ġadditional": 3020,
      "());": 3021,
      "~$": 3022,
      "ĠÂ": 3023,
      "reed": 3024,
      "ends": 3025,
      "acy": 3026,
      "wit": 3027,
      "47": 3028,
      "onic": 3029,
      "bigg": 3030,
      "Ġrepresentation": 3031,
      "ought": 3032,
      "Ġestimate": 3033,
      "ĠMay": 3034,
      "Ġold": 3035,
      "astic": 3036,
      "util": 3037,
      "Ġspecific": 3038,
      "underline": 3039,
      "Ġstrateg": 3040,
      "PE": 3041,
      "Ġalgebra": 3042,
      "Ġnum": 3043,
      "hood": 3044,
      "semb": 3045,
      "Ġband": 3046,
      "fill": 3047,
      "bo": 3048,
      "ĠOr": 3049,
      "ptions": 3050,
      "actions": 3051,
      "cell": 3052,
      "Ġvelocity": 3053,
      "Ġcoordin": 3054,
      "ĠCar": 3055,
      "ĠJan": 3056,
      "Ġ$\\{": 3057,
      "IR": 3058,
      "ĠCO": 3059,
      "Ġimages": 3060,
      "ffer": 3061,
      "ino": 3062,
      "norm": 3063,
      "Ġmillion": 3064,
      "Ġfig": 3065,
      "Ġdone": 3066,
      "Ġcountry": 3067,
      "Ġcompared": 3068,
      "Ġgas": 3069,
      "._": 3070,
      "ĠPl": 3071,
      "but": 3072,
      "Ġcontains": 3073,
      "From": 3074,
      "Ġevents": 3075,
      "Since": 3076,
      "Ġwhose": 3077,
      "ĠTherefore": 3078,
      "ĠThat": 3079,
      "ET": 3080,
      "Ġvi": 3081,
      "Ġbegin": 3082,
      "Ġevolution": 3083,
      "&&": 3084,
      "\"></": 3085,
      "ĠWith": 3086,
      "State": 3087,
      "Ġmultiple": 3088,
      "ĠIs": 3089,
      "mooth": 3090,
      "68": 3091,
      "Ġ/>": 3092,
      "67": 3093,
      "textrm": 3094,
      "Ġcomponents": 3095,
      "Ġeigen": 3096,
      "cret": 3097,
      "App": 3098,
      "down": 3099,
      "ponent": 3100,
      "Error": 3101,
      "Ġprec": 3102,
      "LO": 3103,
      "Ġgroups": 3104,
      "ires": 3105,
      "mp": 3106,
      "cy": 3107,
      "}^{-": 3108,
      "gen": 3109,
      "Ġla": 3110,
      "Ġtheorem": 3111,
      "Ġnever": 3112,
      "amil": 3113,
      "Ġvariables": 3114,
      "ĠOb": 3115,
      "ĠCan": 3116,
      "atively": 3117,
      "uly": 3118,
      "Ġdep": 3119,
      "Ġcome": 3120,
      "Le": 3121,
      "Ġpresented": 3122,
      "Ġeconom": 3123,
      "ĠWhen": 3124,
      "ledge": 3125,
      "ken": 3126,
      "Ġwrite": 3127,
      "matic": 3128,
      "Qu": 3129,
      "Ġquestion": 3130,
      "Ġdimension": 3131,
      "Ġconc": 3132,
      "Ã©": 3133,
      "Ġmonth": 3134,
      "Ġgame": 3135,
      "abor": 3136,
      "kn": 3137,
      "icture": 3138,
      "ians": 3139,
      "Then": 3140,
      "ĠJohn": 3141,
      "dist": 3142,
      "Ġlearn": 3143,
      "Theta": 3144,
      "}/": 3145,
      "fl": 3146,
      "Ġsays": 3147,
      "ceed": 3148,
      "Ġexplain": 3149,
      "Ġmechan": 3150,
      "deed": 3151,
      "Ġ\\;": 3152,
      "ĠTable": 3153,
      "``": 3154,
      "ogn": 3155,
      "earch": 3156,
      "ĠNational": 3157,
      "like": 3158,
      "Ġbase": 3159,
      "\";": 3160,
      "CC": 3161,
      "Ġperm": 3162,
      "Ġcateg": 3163,
      "come": 3164,
      "Key": 3165,
      "eff": 3166,
      "Ġcolor": 3167,
      "Ġnatural": 3168,
      "2007": 3169,
      "\\!\\!": 3170,
      "Ġearly": 3171,
      "minus": 3172,
      "Ġpay": 3173,
      "Ġprom": 3174,
      "urope": 3175,
      "aches": 3176,
      "AD": 3177,
      "Ġsatisfy": 3178,
      "izes": 3179,
      "Requ": 3180,
      "alle": 3181,
      "Ġappear": 3182,
      "command": 3183,
      "Ġmembers": 3184,
      "Ġsocial": 3185,
      "Ġrot": 3186,
      "ln": 3187,
      "Ġ$|": 3188,
      "png": 3189,
      "ĠCo": 3190,
      "Ġcolumn": 3191,
      "texttt": 3192,
      "rows": 3193,
      "Ġhaving": 3194,
      "Ġneut": 3195,
      "ĠOne": 3196,
      "ching": 3197,
      "}}_{": 3198,
      "!--": 3199,
      "normal": 3200,
      "ĠTe": 3201,
      "Ġuntil": 3202,
      "ours": 3203,
      "cript": 3204,
      "lin": 3205,
      "ided": 3206,
      "^-": 3207,
      "error": 3208,
      "oad": 3209,
      "Ġresponse": 3210,
      "Ġeng": 3211,
      "cing": 3212,
      "Ġprim": 3213,
      "bound": 3214,
      "clusion": 3215,
      "Ġhistory": 3216,
      "Ġbig": 3217,
      "prod": 3218,
      "ogle": 3219,
      "Ġdirection": 3220,
      "ortun": 3221,
      "iving": 3222,
      "eneral": 3223,
      "Ġmaximum": 3224,
      "ynomial": 3225,
      "Ġmaterial": 3226,
      "Ġsqu": 3227,
      "pers": 3228,
      "ats": 3229,
      "Ġrather": 3230,
      "dom": 3231,
      "ession": 3232,
      "{$": 3233,
      "Ġamount": 3234,
      "PS": 3235,
      "footnote": 3236,
      "ĠCor": 3237,
      "98": 3238,
      "flo": 3239,
      "Ġcreate": 3240,
      "Ġimprove": 3241,
      "Ġaddress": 3242,
      "Ġflux": 3243,
      "ilit": 3244,
      "taint": 3245,
      "Vert": 3246,
      "xy": 3247,
      "ounter": 3248,
      "used": 3249,
      "icit": 3250,
      ".</": 3251,
      "subseteq": 3252,
      "icult": 3253,
      "fe": 3254,
      "Ġevalu": 3255,
      "tact": 3256,
      "vergence": 3257,
      "lock": 3258,
      "Ġratio": 3259,
      "ze": 3260,
      "ĠSp": 3261,
      "Ġcommunity": 3262,
      "ĠYork": 3263,
      "........": 3264,
      "ĠMan": 3265,
      "}},": 3266,
      "Ġneighb": 3267,
      "Ġincrease": 3268,
      "auge": 3269,
      "Ġarray": 3270,
      "Ġprior": 3271,
      "my": 3272,
      "aries": 3273,
      "Ġenvironment": 3274,
      "LA": 3275,
      "2006": 3276,
      "=\"../../": 3277,
      "),\\": 3278,
      "<\\": 3279,
      "Ġloc": 3280,
      "Ġcomplete": 3281,
      "Ġpub": 3282,
      ")|": 3283,
      "summary": 3284,
      "ĠState": 3285,
      "ĠNote": 3286,
      "CD": 3287,
      "Ġalmost": 3288,
      "And": 3289,
      "multi": 3290,
      "Ġpo": 3291,
      "Ġ($\\": 3292,
      "Ġred": 3293,
      "Ġsens": 3294,
      "}'": 3295,
      "Time": 3296,
      "Ġgalaxies": 3297,
      "Ġworks": 3298,
      "97": 3299,
      "Ġcut": 3300,
      "All": 3301,
      "ĠĠĠĠĠĠĠĠĠĠ": 3302,
      "ething": 3303,
      "user": 3304,
      "ĠAct": 3305,
      ",\"": 3306,
      "Ġwritten": 3307,
      "rated": 3308,
      "85": 3309,
      "iction": 3310,
      "Ġservice": 3311,
      "setminus": 3312,
      "irect": 3313,
      "itude": 3314,
      "Ġground": 3315,
      "Ġchall": 3316,
      "ending": 3317,
      "Ġdevelopment": 3318,
      "Ġant": 3319,
      "Ġsignal": 3320,
      "rest": 3321,
      "ĠPol": 3322,
      "Ġsubject": 3323,
      "uments": 3324,
      "Ġprovides": 3325,
      "true": 3326,
      "icro": 3327,
      "Equ": 3328,
      "Ġapplied": 3329,
      "$_": 3330,
      "At": 3331,
      "Ġchanges": 3332,
      "EE": 3333,
      "Ġcontinuous": 3334,
      "Ġ$-": 3335,
      "Ġreview": 3336,
      "Ġproblems": 3337,
      "Ġobservations": 3338,
      "Ġcompany": 3339,
      "input": 3340,
      "Ġgeom": 3341,
      "ump": 3342,
      "pc": 3343,
      "enn": 3344,
      "uary": 3345,
      "Ġiter": 3346,
      "_+": 3347,
      "^{-\\": 3348,
      "Ġbehavior": 3349,
      "certaint": 3350,
      "ait": 3351,
      "Ġchildren": 3352,
      "\\'": 3353,
      "agement": 3354,
      "dagger": 3355,
      "Ġdecre": 3356,
      "nder": 3357,
      "Ġthings": 3358,
      "ĠEurope": 3359,
      "Ġfilm": 3360,
      "There": 3361,
      "Ġrefer": 3362,
      "Ġret": 3363,
      "ĠFran": 3364,
      "ney": 3365,
      "Ġgrad": 3366,
      "rast": 3367,
      "Ġphysical": 3368,
      "Ġimpact": 3369,
      "');": 3370,
      "Not": 3371,
      "Ġunique": 3372,
      "Ġrecord": 3373,
      "Ġinequ": 3374,
      "check": 3375,
      "Ġdemon": 3376,
      "long": 3377,
      "Ġfrequency": 3378,
      "Ġrelative": 3379,
      "(),": 3380,
      "ĠGa": 3381,
      "Ġdetect": 3382,
      "Ġemission": 3383,
      "Ref": 3384,
      "Ġsl": 3385,
      "Ġmaking": 3386,
      "sel": 3387,
      "Ġexec": 3388,
      "46": 3389,
      "Ġpress": 3390,
      "Ġ?": 3391,
      "fil": 3392,
      "Ġequivalent": 3393,
      "Ġattack": 3394,
      "ĠPres": 3395,
      "mag": 3396,
      "Ġmode": 3397,
      "Ġsources": 3398,
      "Note": 3399,
      "hib": 3400,
      "UR": 3401,
      "ended": 3402,
      "Ġpolicy": 3403,
      "Ġchoice": 3404,
      "Ġfun": 3405,
      "ket": 3406,
      "IG": 3407,
      "ret": 3408,
      "Ġupper": 3409,
      "atus": 3410,
      "oriz": 3411,
      "Ġtreat": 3412,
      "Ġtask": 3413,
      "thing": 3414,
      "wedge": 3415,
      "ony": 3416,
      "File": 3417,
      "Ġdetails": 3418,
      "Ġfa": 3419,
      "Ġproced": 3420,
      "Ġsmaller": 3421,
      "=\"+": 3422,
      "rices": 3423,
      "using": 3424,
      "Ġcorrect": 3425,
      "ĠSc": 3426,
      "Text": 3427,
      "aves": 3428,
      "0000": 3429,
      "Ġsearch": 3430,
      "Ġscen": 3431,
      "therm": 3432,
      "istics": 3433,
      "isk": 3434,
      "Ġdirectly": 3435,
      "ĠĠĠĊ": 3436,
      "2005": 3437,
      "UT": 3438,
      "Ġdifficult": 3439,
      "bt": 3440,
      "Or": 3441,
      "Ġintegral": 3442,
      "Ġnoise": 3443,
      "Ġobjects": 3444,
      "alt": 3445,
      "ĠĠĠĠĠĠĠĠĠĠĠĠ": 3446,
      "Ġir": 3447,
      "main": 3448,
      "Ġcritical": 3449,
      "Ph": 3450,
      "42": 3451,
      "_{(": 3452,
      "Ġcentral": 3453,
      "Ġworking": 3454,
      "linewidth": 3455,
      "OT": 3456,
      "ensions": 3457,
      "Ġnuc": 3458,
      "amilton": 3459,
      "det": 3460,
      "Ġmakes": 3461,
      "PT": 3462,
      "partment": 3463,
      "Man": 3464,
      "oplus": 3465,
      "Ġkeep": 3466,
      "['": 3467,
      "CH": 3468,
      "Ġep": 3469,
      "tical": 3470,
      "Ġbecomes": 3471,
      "Ġclosed": 3472,
      "Ġapply": 3473,
      "osed": 3474,
      "fact": 3475,
      "encies": 3476,
      "Ġderiv": 3477,
      "Ġsymmetry": 3478,
      "mar": 3479,
      "Ġincreasing": 3480,
      "iver": 3481,
      "But": 3482,
      "Ġsufficient": 3483,
      "ĠMin": 3484,
      "ideo": 3485,
      "Ġprop": 3486,
      "Ġpolynomial": 3487,
      "icon": 3488,
      "':": 3489,
      "Ġdetermined": 3490,
      "ellar": 3491,
      "Event": 3492,
      "FF": 3493,
      "Ġthird": 3494,
      "Ġwords": 3495,
      "ĠRef": 3496,
      "Ġinstead": 3497,
      "\":": 3498,
      "cast": 3499,
      "ada": 3500,
      "ulated": 3501,
      "Ġlot": 3502,
      "Ġfive": 3503,
      "*{": 3504,
      "Ġ(-": 3505,
      "New": 3506,
      "Ġver": 3507,
      "Ġ$[": 3508,
      "Ġvir": 3509,
      "gress": 3510,
      "Ġdataset": 3511,
      "ML": 3512,
      "jection": 3513,
      "Over": 3514,
      "vant": 3515,
      "Ġcourse": 3516,
      "Ġembed": 3517,
      "Ġagre": 3518,
      "lex": 3519,
      "ords": 3520,
      "Ġtaking": 3521,
      "allel": 3522,
      "perp": 3523,
      "acc": 3524,
      "Ġsent": 3525,
      "Ġsomething": 3526,
      "uracy": 3527,
      "aced": 3528,
      "Ġmusic": 3529,
      "Ġoperators": 3530,
      "known": 3531,
      "Ġsense": 3532,
      "MA": 3533,
      "Is": 3534,
      "ĠEn": 3535,
      "Ġpast": 3536,
      "Ġhence": 3537,
      "vis": 3538,
      "eline": 3539,
      "Ġviol": 3540,
      "aged": 3541,
      "Ġcam": 3542,
      "Ġinteraction": 3543,
      "MS": 3544,
      "can": 3545,
      "Ġhalf": 3546,
      "Ġlittle": 3547,
      "ĠCal": 3548,
      "uk": 3549,
      "Ġ|\\": 3550,
      "osition": 3551,
      "subfigure": 3552,
      "block": 3553,
      "Ġstudents": 3554,
      "Ġnam": 3555,
      "level": 3556,
      "ĠBl": 3557,
      "Ġport": 3558,
      "Ġarch": 3559,
      "oud": 3560,
      "arily": 3561,
      "Ġpopulation": 3562,
      "Ġhol": 3563,
      "ried": 3564,
      "ully": 3565,
      "igned": 3566,
      "Ġdiagram": 3567,
      "Ġstory": 3568,
      "Ġthough": 3569,
      "curity": 3570,
      "']": 3571,
      "Ġlatt": 3572,
      "ports": 3573,
      "Ġpert": 3574,
      "Ġeduc": 3575,
      "Ġtw": 3576,
      "spec": 3577,
      "olean": 3578,
      "Ġinfin": 3579,
      "Ġvariable": 3580,
      "Ġassert": 3581,
      "ĠMed": 3582,
      "config": 3583,
      "lor": 3584,
      "object": 3585,
      "Ġax": 3586,
      "Wh": 3587,
      "Ġdays": 3588,
      "change": 3589,
      "Ġsyn": 3590,
      "ls": 3591,
      "osen": 3592,
      "Ġregions": 3593,
      "desc": 3594,
      "ront": 3595,
      "Ġcomplet": 3596,
      "stance": 3597,
      "Result": 3598,
      "Ġcurve": 3599,
      "local": 3600,
      "Ġexplicit": 3601,
      "limits": 3602,
      "book": 3603,
      "_*": 3604,
      "Ġdiscussed": 3605,
      "ansion": 3606,
      "Ġland": 3607,
      "Ġbounded": 3608,
      "ributed": 3609,
      "Ġsmooth": 3610,
      "96": 3611,
      "Ġapproximation": 3612,
      "Ġentire": 3613,
      "ĠChrist": 3614,
      "Request": 3615,
      "Ġuncertaint": 3616,
      "Ġnumbers": 3617,
      "43": 3618,
      "Ġpercent": 3619,
      "ĠArt": 3620,
      "Ġallows": 3621,
      "aly": 3622,
      "atives": 3623,
      "ocal": 3624,
      "2000": 3625,
      "57": 3626,
      "ĠSch": 3627,
      "_{{\\": 3628,
      "Ġ}\\": 3629,
      "Ġgrav": 3630,
      "Ġcompact": 3631,
      "\\\\\\\\\\\\\\\\": 3632,
      "ĠOct": 3633,
      "Ġtable": 3634,
      "Tr": 3635,
      "bul": 3636,
      "88": 3637,
      "ĠMarch": 3638,
      "Ġdemonstr": 3639,
      "AA": 3640,
      "do": 3641,
      "TR": 3642,
      "ĠAug": 3643,
      "definition": 3644,
      "Ġgauge": 3645,
      "Ġgot": 3646,
      "2004": 3647,
      "Ġtypes": 3648,
      "Ġwomen": 3649,
      "inos": 3650,
      "Ġvertex": 3651,
      "Ġparticles": 3652,
      ")/": 3653,
      "aligned": 3654,
      "ched": 3655,
      "duc": 3656,
      "Ġlikely": 3657,
      "Ġadj": 3658,
      "Ġregard": 3659,
      "Ġoccur": 3660,
      "US": 3661,
      "Ġleading": 3662,
      "Ġparticle": 3663,
      "andid": 3664,
      "Ġnecessary": 3665,
      "ropy": 3666,
      "Ġuniform": 3667,
      "Im": 3668,
      "ĠWorld": 3669,
      "ĠSim": 3670,
      "Ġformula": 3671,
      "Ġarbit": 3672,
      "Ġfail": 3673,
      "Node": 3674,
      "ening": 3675,
      ")\\,": 3676,
      "Ġess": 3677,
      "Ġmeet": 3678,
      "imate": 3679,
      "Ġreported": 3680,
      "Ġindust": 3681,
      "ĠAss": 3682,
      "ĠInt": 3683,
      "Path": 3684,
      "abs": 3685,
      "Ġbuilding": 3686,
      "ario": 3687,
      "Ġstudies": 3688,
      "++": 3689,
      "ĠOur": 3690,
      "ollary": 3691,
      "Ġconstruction": 3692,
      "}}(\\": 3693,
      "ĠMar": 3694,
      "orizon": 3695,
      "ication": 3696,
      "OS": 3697,
      "Ġperturb": 3698,
      "Ġwon": 3699,
      "ashed": 3700,
      "Ad": 3701,
      "Ġyoung": 3702,
      "ĠAg": 3703,
      "Ġdefault": 3704,
      "Ġplot": 3705,
      "Ġpeak": 3706,
      "Ġrob": 3707,
      "Ġsubset": 3708,
      "ĠPart": 3709,
      "Ġcoupling": 3710,
      "Pl": 3711,
      "mon": 3712,
      "}%": 3713,
      "usion": 3714,
      "hand": 3715,
      "Be": 3716,
      "height": 3717,
      "ĠAf": 3718,
      "Ġothers": 3719,
      "Ġaway": 3720,
      "Ġcity": 3721,
      "undle": 3722,
      "Ġmarket": 3723,
      "textsc": 3724,
      "Ġ-->": 3725,
      "rate": 3726,
      "Ġnodes": 3727,
      "ĠProposition": 3728,
      "diff": 3729,
      "Ġdynamics": 3730,
      "Ġspectral": 3731,
      "Ġsimulations": 3732,
      "ips": 3733,
      "ĠJanuary": 3734,
      "ĠReg": 3735,
      "pril": 3736,
      "Ġframework": 3737,
      "tage": 3738,
      "inv": 3739,
      "Ġjob": 3740,
      "Ġonce": 3741,
      "atory": 3742,
      "Ġapplication": 3743,
      "Ġexpression": 3744,
      "/*": 3745,
      "newcommand": 3746,
      "Index": 3747,
      "One": 3748,
      "ĠMod": 3749,
      "oding": 3750,
      "aging": 3751,
      "FT": 3752,
      "lt": 3753,
      "Ġchannel": 3754,
      "ĠWar": 3755,
      "rivial": 3756,
      "Of": 3757,
      "oms": 3758,
      "Ġparent": 3759,
      "empty": 3760,
      "((": 3761,
      "ride": 3762,
      "title": 3763,
      "Ġconnected": 3764,
      "Ġtakes": 3765,
      "){\\": 3766,
      "Ġactiv": 3767,
      "Ġsoft": 3768,
      "Ġdomin": 3769,
      "Ġage": 3770,
      "Ġsamples": 3771,
      "Ġwhy": 3772,
      "black": 3773,
      "Net": 3774,
      "_{-": 3775,
      "Ġweek": 3776,
      "iam": 3777,
      "Ġkind": 3778,
      "Ġconduct": 3779,
      "Ġoptimal": 3780,
      "itect": 3781,
      "otic": 3782,
      "ĠGe": 3783,
      "run": 3784,
      "enu": 3785,
      "77": 3786,
      "Def": 3787,
      "SP": 3788,
      ")}(": 3789,
      "Ġsimply": 3790,
      "Ġdocument": 3791,
      "Ġmention": 3792,
      "valid": 3793,
      "ĠBo": 3794,
      "Ġdraw": 3795,
      "irm": 3796,
      "cho": 3797,
      "forall": 3798,
      "flow": 3799,
      "endix": 3800,
      "Ġpattern": 3801,
      "Ġlayer": 3802,
      "plate": 3803,
      "ĠSystem": 3804,
      "Ġrespons": 3805,
      "Ġradius": 3806,
      "Ġmaps": 3807,
      "Ġ},": 3808,
      "Ġcenter": 3809,
      "oney": 3810,
      "eli": 3811,
      "58": 3812,
      "Ġnumerical": 3813,
      "colon": 3814,
      "Ġproduction": 3815,
      "ili": 3816,
      "arameter": 3817,
      "deg": 3818,
      "Ġmotion": 3819,
      "rain": 3820,
      "Now": 3821,
      "$(": 3822,
      "Ġmomentum": 3823,
      "amespace": 3824,
      "Ġscheme": 3825,
      "ags": 3826,
      "aff": 3827,
      "ai": 3828,
      "lege": 3829,
      "Ġcos": 3830,
      "defined": 3831,
      "Ġexperiments": 3832,
      "/**": 3833,
      "Ġmult": 3834,
      "Ġamplit": 3835,
      "41": 3836,
      "tem": 3837,
      "Ġsatisfies": 3838,
      ",\\,": 3839,
      "Ġinteresting": 3840,
      "ender": 3841,
      "ING": 3842,
      "ball": 3843,
      "Ġinflu": 3844,
      "Ġwhole": 3845,
      "crete": 3846,
      "Ġwater": 3847,
      "ĠHere": 3848,
      "rame": 3849,
      "Ġpolar": 3850,
      "Ġnegative": 3851,
      "ĠSept": 3852,
      "Add": 3853,
      "Ġexperience": 3854,
      "urch": 3855,
      "ights": 3856,
      "Ġspat": 3857,
      "Ġlanguage": 3858,
      "56": 3859,
      "word": 3860,
      "Ġinterpre": 3861,
      "Ġtherm": 3862,
      "ĠPresident": 3863,
      "ĠFrom": 3864,
      "cember": 3865,
      "Ġintroduced": 3866,
      "[]": 3867,
      "Ġactually": 3868,
      "When": 3869,
      "inci": 3870,
      "Ġwin": 3871,
      "Ġmeasured": 3872,
      "HE": 3873,
      "ements": 3874,
      "vey": 3875,
      "iddle": 3876,
      "oman": 3877,
      "Ġcontribution": 3878,
      "'\\": 3879,
      "=(": 3880,
      "anced": 3881,
      ".)": 3882,
      "ises": 3883,
      "ĠJune": 3884,
      "Ġbenef": 3885,
      "Ġresulting": 3886,
      "Ġbroad": 3887,
      "utes": 3888,
      "md": 3889,
      "Ġmagn": 3890,
      "Ġminimum": 3891,
      "Ġneeded": 3892,
      "fficients": 3893,
      "Ġinterval": 3894,
      "Ġhost": 3895,
      "Ġservices": 3896,
      "Ġincluded": 3897,
      "ĠĠĠĠĠĠĠĠĠĠĠĠĠĠĠĠĠĠĠĠĠĠĠĠĠĠĠ": 3898,
      "ympt": 3899,
      "'_": 3900,
      "Ġbran": 3901,
      "Info": 3902,
      "Ġcluster": 3903,
      "ĠGu": 3904,
      "ĠHence": 3905,
      "Ġcomparison": 3906,
      ")^{\\": 3907,
      "Ġitself": 3908,
      "ifier": 3909,
      "Eq": 3910,
      "Ġperformed": 3911,
      "Ġ);": 3912,
      "Ġlattice": 3913,
      "gt": 3914,
      "Table": 3915,
      "ĠIntern": 3916,
      "urtherm": 3917,
      "urthermore": 3918,
      "Ġclassical": 3919,
      "ĠNot": 3920,
      "Ġpref": 3921,
      "Ġneeds": 3922,
      "ones": 3923,
      "hom": 3924,
      "Ġillust": 3925,
      "####": 3926,
      "Ġop": 3927,
      "Trans": 3928,
      "stack": 3929,
      "Ġknowledge": 3930,
      "=-": 3931,
      "={": 3932,
      "Sub": 3933,
      "Ġensure": 3934,
      "simeq": 3935,
      "Ġaccuracy": 3936,
      "$^{-": 3937,
      "rier": 3938,
      "Ġsix": 3939,
      "subsubsection": 3940,
      "minist": 3941,
      "Context": 3942,
      "ĠFirst": 3943,
      "Ġmanif": 3944,
      "Ġrecogn": 3945,
      "SU": 3946,
      "ĠSci": 3947,
      "ĠHamilton": 3948,
      "overed": 3949,
      "Ġbody": 3950,
      "hel": 3951,
      "Ġcult": 3952,
      "Ġformer": 3953,
      "ĠJuly": 3954,
      "Ġcompute": 3955,
      "Here": 3956,
      "Ġask": 3957,
      "Ġforce": 3958,
      "raft": 3959,
      "Ġvan": 3960,
      "elling": 3961,
      "ĠQu": 3962,
      "Ġpanel": 3963,
      "sup": 3964,
      "column": 3965,
      "agraph": 3966,
      "Ġissue": 3967,
      "Ġidea": 3968,
      "dro": 3969,
      "Ġexpress": 3970,
      "Ġconsistent": 3971,
      "ovember": 3972,
      "ocol": 3973,
      "ĠCount": 3974,
      "void": 3975,
      "asks": 3976,
      "Ġmessage": 3977,
      "}$-": 3978,
      "';": 3979,
      "lier": 3980,
      "TE": 3981,
      "Ġcorresponds": 3982,
      "aring": 3983,
      "2003": 3984,
      ")_{": 3985,
      "ĠApril": 3986,
      "())": 3987,
      "ĠPr": 3988,
      "Ġdeal": 3989,
      "isions": 3990,
      "Ġliter": 3991,
      "Ġfraction": 3992,
      ".$": 3993,
      "Ġderived": 3994,
      "mage": 3995,
      "Ġ+\\": 3996,
      "acity": 3997,
      "Ġtree": 3998,
      "Sim": 3999,
      "Our": 4000,
      "{$\\": 4001,
      "abled": 4002,
      "ĠRep": 4003,
      "ĠNe": 4004,
      "Ġleads": 4005,
      "Ġdecay": 4006,
      "Ġvertices": 4007,
      "Ġdouble": 4008,
      "Ġfeel": 4009,
      "Ġcharge": 4010,
      ":\\": 4011,
      "OD": 4012,
      ".~(\\": 4013,
      "base": 4014,
      "pmatrix": 4015,
      "erc": 4016,
      "Ġinequality": 4017,
      "roller": 4018,
      "Ġassumption": 4019,
      "pecially": 4020,
      "Ġcorrespond": 4021,
      "Ġ~": 4022,
      "yl": 4023,
      "Ġconstraints": 4024,
      "Array": 4025,
      "Ġaccept": 4026,
      "ns": 4027,
      "Ġcandid": 4028,
      "Ġstreng": 4029,
      ")^{-": 4030,
      "next": 4031,
      "era": 4032,
      "sto": 4033,
      "Ġfri": 4034,
      "Dis": 4035,
      "Ġdeep": 4036,
      "ners": 4037,
      "Ġreference": 4038,
      "CE": 4039,
      "pri": 4040,
      "Ġ(!": 4041,
      "Ġcommit": 4042,
      "ales": 4043,
      "Ġcompet": 4044,
      "Ġstyle": 4045,
      "Ġdescribe": 4046,
      "Ġargument": 4047,
      "Ġjo": 4048,
      "ured": 4049,
      "Ġmeasurements": 4050,
      "Ġ__": 4051,
      "ĠSchool": 4052,
      "ĠPa": 4053,
      "gra": 4054,
      "Ġyet": 4055,
      "500": 4056,
      "Ġtoday": 4057,
      "prot": 4058,
      "Ġmember": 4059,
      "tual": 4060,
      "ournal": 4061,
      "zero": 4062,
      "Config": 4063,
      "inf": 4064,
      "Cl": 4065,
      "Map": 4066,
      "Ġnetworks": 4067,
      "Ġhold": 4068,
      "rand": 4069,
      "Ġseg": 4070,
      "Ġthought": 4071,
      "Ġclasses": 4072,
      "AG": 4073,
      "Ġdeath": 4074,
      "ernel": 4075,
      "dapt": 4076,
      "$;": 4077,
      "NS": 4078,
      "eturn": 4079,
      "}^*": 4080,
      "case": 4081,
      "Ġmechanism": 4082,
      "Element": 4083,
      ";&": 4084,
      "iter": 4085,
      "ilder": 4086,
      "69": 4087,
      "Ġissues": 4088,
      "ĠMc": 4089,
      "Sp": 4090,
      "Ġparticip": 4091,
      "$).": 4092,
      "cases": 4093,
      "Ġtool": 4094,
      "Ġtax": 4095,
      "Ġcalculated": 4096,
      "Ġsimpl": 4097,
      "MC": 4098,
      "ĠCour": 4099,
      "MP": 4100,
      "ĠDecember": 4101,
      "////////": 4102,
      "Ġdecision": 4103,
      "Ġchoose": 4104,
      "Ġnorm": 4105,
      "Model": 4106,
      "api": 4107,
      "Att": 4108,
      "More": 4109,
      "Ġscatter": 4110,
      "bin": 4111,
      "ĠMe": 4112,
      "method": 4113,
      "war": 4114,
      "Out": 4115,
      "hers": 4116,
      "87": 4117,
      "Ġintern": 4118,
      "Ġreceived": 4119,
      "Ġcoefficients": 4120,
      "Ġchain": 4121,
      "Ġbar": 4122,
      "Ġ});": 4123,
      "Ġcorrelation": 4124,
      "ĠMoreover": 4125,
      "values": 4126,
      "Ġexpansion": 4127,
      "apache": 4128,
      "icles": 4129,
      "resents": 4130,
      "ditional": 4131,
      "ĠSeptember": 4132,
      "Ġnational": 4133,
      "range": 4134,
      "Ġ\\(": 4135,
      "However": 4136,
      "Ġpolitical": 4137,
      "Code": 4138,
      "Ġadded": 4139,
      "etic": 4140,
      "Ġrequires": 4141,
      "sol": 4142,
      "Ġconv": 4143,
      "bullet": 4144,
      "Ġpresence": 4145,
      "Service": 4146,
      "ĠFeb": 4147,
      "edu": 4148,
      "ĠAfter": 4149,
      "Ġmedia": 4150,
      "ops": 4151,
      "Ġrights": 4152,
      "ham": 4153,
      "No": 4154,
      "ĠSouth": 4155,
      "Ġnews": 4156,
      "Ġbring": 4157,
      "print": 4158,
      "Ġchosen": 4159,
      "Ġsimulation": 4160,
      "\\\"": 4161,
      "Ġscalar": 4162,
      "Ġdetection": 4163,
      "urg": 4164,
      "dsh": 4165,
      "Ġsite": 4166,
      "dim": 4167,
      "Fe": 4168,
      "start": 4169,
      "Ġrule": 4170,
      "Ġevidence": 4171,
      "Ġstudied": 4172,
      "\".": 4173,
      "ĠAugust": 4174,
      "Ġbit": 4175,
      "Ġedges": 4176,
      "Ġplane": 4177,
      "ele": 4178,
      "Ġcompan": 4179,
      "Ġdetermine": 4180,
      "\\_": 4181,
      "ĠOctober": 4182,
      "ĠAb": 4183,
      "Ġfigure": 4184,
      "Ġdest": 4185,
      "Ġupon": 4186,
      "Ġrelevant": 4187,
      "Ġprocedure": 4188,
      "uthors": 4189,
      "Ġtransfer": 4190,
      "ux": 4191,
      "}}^": 4192,
      "ĠAust": 4193,
      "content": 4194,
      "default": 4195,
      "rew": 4196,
      "ĠTr": 4197,
      "ued": 4198,
      "Ġdistributions": 4199,
      "remark": 4200,
      "='": 4201,
      "Ġremains": 4202,
      "Ġreduced": 4203,
      "ids": 4204,
      "Ġsrc": 4205,
      "ota": 4206,
      "create": 4207,
      "vex": 4208,
      "Figure": 4209,
      "isation": 4210,
      "DF": 4211,
      "Ġorbit": 4212,
      "Ġdeveloped": 4213,
      "example": 4214,
      "Ġ=\\": 4215,
      "Ġ&=&": 4216,
      "izations": 4217,
      "Ġdim": 4218,
      "Size": 4219,
      "ilib": 4220,
      "dx": 4221,
      "ously": 4222,
      "year": 4223,
      "pty": 4224,
      "ancial": 4225,
      "lease": 4226,
      "ederal": 4227,
      "ĠNovember": 4228,
      "59": 4229,
      "rown": 4230,
      "uppose": 4231,
      "Ġremov": 4232,
      "hol": 4233,
      "ccording": 4234,
      "bert": 4235,
      "ĠGerm": 4236,
      "Ġparts": 4237,
      "ened": 4238,
      "ĠCity": 4239,
      "First": 4240,
      "PR": 4241,
      "erences": 4242,
      "rs": 4243,
      "$$\\": 4244,
      "SC": 4245,
      "emic": 4246,
      "ĠBrit": 4247,
      "Ġmix": 4248,
      "neg": 4249,
      "Ġcharg": 4250,
      "2001": 4251,
      "Ġresolution": 4252,
      "uck": 4253,
      "Ġcame": 4254,
      "Ġgrowth": 4255,
      "Ġcomes": 4256,
      "Ġcapt": 4257,
      "Ġinc": 4258,
      "Ġspectra": 4259,
      "cons": 4260,
      "current": 4261,
      "Ġdepends": 4262,
      "^{+": 4263,
      "Ġtensor": 4264,
      "\"\"": 4265,
      "Color": 4266,
      "ociety": 4267,
      "Ġincludes": 4268,
      "Ġaltern": 4269,
      "Ġprocesses": 4270,
      "Ġsupported": 4271,
      "Ġadopt": 4272,
      ")}{\\": 4273,
      "ĠMon": 4274,
      "ites": 4275,
      "Ġeffort": 4276,
      "rump": 4277,
      "~$\\": 4278,
      "=\"../../../../": 4279,
      "Ġexactly": 4280,
      "Reg": 4281,
      "odot": 4282,
      "Ġespecially": 4283,
      "Ð¾": 4284,
      "Ġquality": 4285,
      "module": 4286,
      "Ġexperiment": 4287,
      "Ġdecom": 4288,
      "})$.": 4289,
      "Ġuses": 4290,
      "lete": 4291,
      "Ġmiss": 4292,
      "Ġuseful": 4293,
      "BC": 4294,
      "ĠII": 4295,
      "band": 4296,
      "Ġfactors": 4297,
      "Ġdescription": 4298,
      "Item": 4299,
      "Ġdenotes": 4300,
      ")\\\\": 4301,
      "Ġproper": 4302,
      "Ġ/*": 4303,
      "Ġhyper": 4304,
      "2002": 4305,
      "Ġcreated": 4306,
      "dered": 4307,
      "SO": 4308,
      "Ġexamples": 4309,
      "Ġidentify": 4310,
      "stein": 4311,
      "Ġappropri": 4312,
      "Ġgen": 4313,
      "ĠSet": 4314,
      "TD": 4315,
      "End": 4316,
      "Ġforward": 4317,
      "Ġdependence": 4318,
      "Ġonline": 4319,
      "Bar": 4320,
      "ĠAmerica": 4321,
      "Ġrecently": 4322,
      "Ġrestrict": 4323,
      "ogene": 4324,
      "ĠPar": 4325,
      "Ġfall": 4326,
      "ĠGaussian": 4327,
      "Ġframe": 4328,
      "ĠWill": 4329,
      "ster": 4330,
      "Ġagreement": 4331,
      "Ġessential": 4332,
      "Ġsteps": 4333,
      "ung": 4334,
      "ĠMark": 4335,
      "Ġquite": 4336,
      "ui": 4337,
      "sequence": 4338,
      "ĠHar": 4339,
      "Ġstatement": 4340,
      "Ġstellar": 4341,
      "MM": 4342,
      "PC": 4343,
      "54": 4344,
      "berg": 4345,
      "lang": 4346,
      "Ġtook": 4347,
      "Ġconcern": 4348,
      "Ġconnection": 4349,
      "roduction": 4350,
      "Ġrates": 4351,
      "Ġheight": 4352,
      "Ġalgorithms": 4353,
      "Ġinvariant": 4354,
      "Ġcurves": 4355,
      "ĠNorth": 4356,
      "Ġshape": 4357,
      "Ġmis": 4358,
      "Ġcontinue": 4359,
      "Ġvolume": 4360,
      "}}^{": 4361,
      "Ġeasy": 4362,
      "](": 4363,
      "Message": 4364,
      "Ġmarg": 4365,
      "Ġrepresents": 4366,
      "Ġeasily": 4367,
      "SI": 4368,
      "Ġnature": 4369,
      "Ġimmedi": 4370,
      "Ġword": 4371,
      "52": 4372,
      "Ġcustom": 4373,
      "supp": 4374,
      "Ġdisk": 4375,
      "ĠWhile": 4376,
      "bottom": 4377,
      "Ġselected": 4378,
      "Ġexperimental": 4379,
      "Ġansw": 4380,
      "ratic": 4381,
      "Ġquas": 4382,
      "rie": 4383,
      "Ġ]": 4384,
      "core": 4385,
      "51": 4386,
      "Ġdual": 4387,
      "graph": 4388,
      "Ġord": 4389,
      ")$-": 4390,
      "Ġsuccessful": 4391,
      "****************": 4392,
      "Ent": 4393,
      "avy": 4394,
      "Ġsolid": 4395,
      "Ġones": 4396,
      "Ġrank": 4397,
      "ĠWhat": 4398,
      "nov": 4399,
      "tes": 4400,
      "Ġorigin": 4401,
      "Ġdark": 4402,
      "selves": 4403,
      "ores": 4404,
      "ana": 4405,
      "Ġcomputed": 4406,
      "63": 4407,
      "Ġlevels": 4408,
      "Ġair": 4409,
      "Ġstrategy": 4410,
      "Ġsplit": 4411,
      "ĠDis": 4412,
      "Ġspeed": 4413,
      "ync": 4414,
      "Ġincreases": 4415,
      "free": 4416,
      "Ġconfiguration": 4417,
      "Ġsure": 4418,
      "ruary": 4419,
      "oring": 4420,
      "Ġavoid": 4421,
      "Thus": 4422,
      "Ġselect": 4423,
      "Hand": 4424,
      "Field": 4425,
      "lib": 4426,
      "Ġoptions": 4427,
      "Ġdisplay": 4428,
      "ĠAfric": 4429,
      "78": 4430,
      "iny": 4431,
      "atform": 4432,
      "has": 4433,
      "atal": 4434,
      "Ġangle": 4435,
      "Ġcouple": 4436,
      "iency": 4437,
      "Ġsymbol": 4438,
      "ĠEd": 4439,
      "came": 4440,
      "Ġerrors": 4441,
      "ilibri": 4442,
      "Ġlocation": 4443,
      "Ġbuild": 4444,
      "Ġexcept": 4445,
      "Ġprinci": 4446,
      "Ġmar": 4447,
      "Ġactive": 4448,
      "\\|_{": 4449,
      "Ġidentity": 4450,
      "ĠComp": 4451,
      "Ġconcept": 4452,
      "Ġsequ": 4453,
      "Ġfully": 4454,
      "Ġestimated": 4455,
      "Ġflo": 4456,
      "ĠTrans": 4457,
      "assert": 4458,
      "Ġdecl": 4459,
      "uations": 4460,
      "Ġjava": 4461,
      "Ġreach": 4462,
      "tri": 4463,
      "ĠMa": 4464,
      "ĠDo": 4465,
      "eler": 4466,
      "ills": 4467,
      "info": 4468,
      "UN": 4469,
      "prob": 4470,
      "Ġintroduce": 4471,
      "ged": 4472,
      "fit": 4473,
      "Ġopportun": 4474,
      "IP": 4475,
      "ensive": 4476,
      "Inter": 4477,
      "ENT": 4478,
      "izer": 4479,
      "ĠLi": 4480,
      "Log": 4481,
      "Ġspaces": 4482,
      "Ġspeak": 4483,
      "omorphic": 4484,
      "Ġbecame": 4485,
      "Ġlatter": 4486,
      "Ġpul": 4487,
      "ĠLa": 4488,
      "iques": 4489,
      "Ġtrac": 4490,
      "ĠNow": 4491,
      "Ġattempt": 4492,
      "Ġimp": 4493,
      "image": 4494,
      "static": 4495,
      "Ġrisk": 4496,
      "count": 4497,
      "53": 4498,
      "reshold": 4499,
      "Ġinternal": 4500,
      "Ġpage": 4501,
      "Ġ$$": 4502,
      "Theorem": 4503,
      "ounc": 4504,
      "Ġlonger": 4505,
      "ius": 4506,
      "avor": 4507,
      "Ġadapt": 4508,
      "ĠGet": 4509,
      "Ġthing": 4510,
      "Ġface": 4511,
      "}&": 4512,
      "Ġchalleng": 4513,
      "active": 4514,
      "Ġapproaches": 4515,
      "Ġmatrices": 4516,
      "Ġspatial": 4517,
      "Ġoperation": 4518,
      "efore": 4519,
      "Ġselection": 4520,
      "Ġextended": 4521,
      "abilities": 4522,
      ")_": 4523,
      "Ġmodes": 4524,
      "ography": 4525,
      ">&": 4526,
      "Ġarbitrary": 4527,
      "Ġoutside": 4528,
      "char": 4529,
      "Ġcountries": 4530,
      "que": 4531,
      "cd": 4532,
      "Ġgoal": 4533,
      "Ġformation": 4534,
      "context": 4535,
      "Ġsignificantly": 4536,
      "mission": 4537,
      "inct": 4538,
      "Ġarchitect": 4539,
      "Ġdate": 4540,
      "Ġsymmetric": 4541,
      "Ġgalaxy": 4542,
      "Ġrepl": 4543,
      "Ġcontact": 4544,
      "Ġgain": 4545,
      "So": 4546,
      "Ġapplications": 4547,
      "Ġdidn": 4548,
      "false": 4549,
      "Ġcontrast": 4550,
      "stant": 4551,
      "Ġdoing": 4552,
      "Ġsingular": 4553,
      "ĠÐ": 4554,
      "LS": 4555,
      "Ġcorrel": 4556,
      "Ġseason": 4557,
      "Ġestimates": 4558,
      "Ġasympt": 4559,
      "Pr": 4560,
      "ĠLaw": 4561,
      "gener": 4562,
      "Ġpropag": 4563,
      "rec": 4564,
      "Ġattention": 4565,
      "css": 4566,
      "Ġsituation": 4567,
      "mapsto": 4568,
      "ama": 4569,
      "62": 4570,
      "Ġlimited": 4571,
      "Ġcosm": 4572,
      "olic": 4573,
      "ithub": 4574,
      "Ġbox": 4575,
      "93": 4576,
      "option": 4577,
      "$~": 4578,
      "java": 4579,
      "Ġroot": 4580,
      "Ġusers": 4581,
      "proposition": 4582,
      "oder": 4583,
      "rant": 4584,
      "Ġarticle": 4585,
      "super": 4586,
      "\\{\\": 4587,
      "Ġautom": 4588,
      "Ġcore": 4589,
      "bold": 4590,
      "Ġexistence": 4591,
      "ĠDi": 4592,
      "mes": 4593,
      "Ġstructures": 4594,
      "Ġaim": 4595,
      "Ġtheore": 4596,
      "first": 4597,
      "Ab": 4598,
      "ĠVal": 4599,
      "ming": 4600,
      "db": 4601,
      "Ġbeg": 4602,
      "ĠHis": 4603,
      "Ġconvergence": 4604,
      "ament": 4605,
      "Ġ===": 4606,
      "|_{": 4607,
      "Ġlove": 4608,
      "itable": 4609,
      "rief": 4610,
      "fect": 4611,
      "Ġyields": 4612,
      "Ġsong": 4613,
      "{{": 4614,
      "iting": 4615,
      "ypes": 4616,
      "ivil": 4617,
      "94": 4618,
      "Ġrow": 4619,
      "Ġachieve": 4620,
      "ponse": 4621,
      "Ġarm": 4622,
      "Ġvers": 4623,
      "Ġaud": 4624,
      "Ġever": 4625,
      "Ġcollection": 4626,
      "spect": 4627,
      "ĠPer": 4628,
      "LT": 4629,
      "_-": 4630,
      "Ġareas": 4631,
      "comple": 4632,
      "ached": 4633,
      "OM": 4634,
      "ĠHamiltonian": 4635,
      "Ġdiscussion": 4636,
      "Ġseems": 4637,
      "arant": 4638,
      "Ġpartition": 4639,
      "ĠMy": 4640,
      "Property": 4641,
      "Ġcontract": 4642,
      "ker": 4643,
      "Ġallowed": 4644,
      "utive": 4645,
      "ĠChe": 4646,
      "ingu": 4647,
      "Ġstarted": 4648,
      "rees": 4649,
      "Ġcompare": 4650,
      "ĉĉĉĉĉĉ": 4651,
      "Ġproduced": 4652,
      "nowled": 4653,
      "Ġlive": 4654,
      "ilibrium": 4655,
      "ilitary": 4656,
      "LP": 4657,
      "ĠCourt": 4658,
      "ponential": 4659,
      "ky": 4660,
      ";</": 4661,
      "ĠBar": 4662,
      "ĠHouse": 4663,
      "Ġvideo": 4664,
      "Ġextract": 4665,
      "Ġtowards": 4666,
      "parent": 4667,
      "ampling": 4668,
      "num": 4669,
      "Co": 4670,
      "displaystyle": 4671,
      "Ġslow": 4672,
      "arp": 4673,
      "Ġinteractions": 4674,
      "ĠTrump": 4675,
      "Ġlargest": 4676,
      "Ġpressure": 4677,
      "NR": 4678,
      "Ġoperations": 4679,
      "CP": 4680,
      "ributes": 4681,
      "Ġsecurity": 4682,
      "amental": 4683,
      "Ġcr": 4684,
      "ĠFebruary": 4685,
      "ington": 4686,
      "lient": 4687,
      "Ġmen": 4688,
      "idden": 4689,
      "tainer": 4690,
      "ATE": 4691,
      "mail": 4692,
      "multirow": 4693,
      "produ": 4694,
      "Ġquad": 4695,
      "Ġpairs": 4696,
      "Ġinside": 4697,
      "Ġshare": 4698,
      "zz": 4699,
      "Method": 4700,
      "Ġprofile": 4701,
      "conn": 4702,
      "cr": 4703,
      "Ġstage": 4704,
      "Ð°": 4705,
      "ypot": 4706,
      "Ġhouse": 4707,
      "itz": 4708,
      "then": 4709,
      "Ġblue": 4710,
      "Ġstrength": 4711,
      "etime": 4712,
      "Ġpublished": 4713,
      "Ġmeasurement": 4714,
      "Ġembedding": 4715,
      "'}": 4716,
      "Ġstra": 4717,
      "force": 4718,
      "cs": 4719,
      "ĠSu": 4720,
      "Ġobserve": 4721,
      "({": 4722,
      "Ġredsh": 4723,
      "Ġextension": 4724,
      "User": 4725,
      "}{|": 4726,
      "Ġmodule": 4727,
      "ĠChina": 4728,
      "Ġcomputation": 4729,
      "mini": 4730,
      "Ġbelieve": 4731,
      "igation": 4732,
      "Ġload": 4733,
      "61": 4734,
      "Ġrules": 4735,
      "ĠTra": 4736,
      "92": 4737,
      "process": 4738,
      "rive": 4739,
      "doc": 4740,
      "Ġotherwise": 4741,
      "github": 4742,
      ")+\\": 4743,
      "Ġcategory": 4744,
      "alg": 4745,
      "Ġhttp": 4746,
      "picture": 4747,
      "ĠPe": 4748,
      "Ġmemory": 4749,
      "Ġ;": 4750,
      "uses": 4751,
      "Ġslight": 4752,
      "ĠDav": 4753,
      "term": 4754,
      "PI": 4755,
      "acing": 4756,
      "Ġbasic": 4757,
      "pite": 4758,
      "Ġremain": 4759,
      "ouncil": 4760,
      "ees": 4761,
      "ĠCenter": 4762,
      "Ġauthors": 4763,
      "package": 4764,
      "}}$,": 4765,
      "Ġbeam": 4766,
      "bug": 4767,
      "Ġproducts": 4768,
      "Ġoptical": 4769,
      "yond": 4770,
      "Ġtold": 4771,
      "Ġconsum": 4772,
      "EC": 4773,
      "Ġofficial": 4774,
      "ĠDef": 4775,
      "ariance": 4776,
      "Ġexisting": 4777,
      "arameters": 4778,
      "Ġabsol": 4779,
      "Ġtell": 4780,
      "Ġmoney": 4781,
      "erent": 4782,
      "Ġseem": 4783,
      "Ġbul": 4784,
      "Ġaffect": 4785,
      "Ġinvolved": 4786,
      "Ġefficient": 4787,
      "ples": 4788,
      "bum": 4789,
      "System": 4790,
      "Ġalthough": 4791,
      "ĠDepartment": 4792,
      "'(": 4793,
      "Count": 4794,
      "Ġexhib": 4795,
      "hbox": 4796,
      "mma": 4797,
      "Ġbinary": 4798,
      "scill": 4799,
      ")},": 4800,
      "Ġcourt": 4801,
      "mc": 4802,
      "Ġtransformation": 4803,
      "newline": 4804,
      "Ġmach": 4805,
      "ĠResearch": 4806,
      "Ġmeasures": 4807,
      "Ġbelong": 4808,
      "cles": 4809,
      "Ġpractice": 4810,
      "mass": 4811,
      "Ġwindow": 4812,
      "Ġimm": 4813,
      "Ġreve": 4814,
      "Manager": 4815,
      "Ðµ": 4816,
      "Ġcontributions": 4817,
      "vision": 4818,
      "SD": 4819,
      "rep": 4820,
      "Ġmonths": 4821,
      "Ġmole": 4822,
      "Ġ};": 4823,
      "break": 4824,
      "Ġinteger": 4825,
      "reate": 4826,
      "hbar": 4827,
      "Ġinner": 4828,
      "Ġcounter": 4829,
      "van": 4830,
      "ĠĠĠĠĠĠĠĠĠĠĠĠĠĠ": 4831,
      "include": 4832,
      "ĠCont": 4833,
      "Ġinternational": 4834,
      "ishing": 4835,
      "}}$.": 4836,
      "ille": 4837,
      "Ġregime": 4838,
      "Ġscattering": 4839,
      "Ġclassification": 4840,
      "Ġsuff": 4841,
      "89": 4842,
      "ios": 4843,
      "Ġgenerate": 4844,
      "ifically": 4845,
      "Ġlum": 4846,
      "tx": 4847,
      "Ġsound": 4848,
      "Ġindustry": 4849,
      "Ed": 4850,
      "Ġpersonal": 4851,
      "Ġdriv": 4852,
      "stitute": 4853,
      "istry": 4854,
      "Ġ${": 4855,
      "Ġusually": 4856,
      "Ġvectors": 4857,
      "--------------------------------": 4858,
      "Ġpie": 4859,
      "ĠSee": 4860,
      "inding": 4861,
      "Ġradio": 4862,
      "Ġdoesn": 4863,
      "Ġstable": 4864,
      "tik": 4865,
      "Ġeducation": 4866,
      "These": 4867,
      "define": 4868,
      "reedom": 4869,
      "Ġitem": 4870,
      "Ġheld": 4871,
      "thern": 4872,
      "================": 4873,
      "null": 4874,
      "ba": 4875,
      "struct": 4876,
      "Ġupdate": 4877,
      "rable": 4878,
      "Ġforms": 4879,
      "culation": 4880,
      "Ġpreser": 4881,
      "rat": 4882,
      "=\"../": 4883,
      "bi": 4884,
      "ĠĠĠĠĠĠĠĠĠĠĠĠĠĠĠĠĠ": 4885,
      "})$,": 4886,
      "HT": 4887,
      "miss": 4888,
      "86": 4889,
      "ĠStud": 4890,
      "Ġgenerally": 4891,
      "ĠGo": 4892,
      "arks": 4893,
      "SM": 4894,
      "Ġconnect": 4895,
      "Ġcoordinates": 4896,
      "Ġoverall": 4897,
      "event": 4898,
      "Ġassumed": 4899,
      "ĠHealth": 4900,
      "namespace": 4901,
      "orage": 4902,
      "IV": 4903,
      "Ġwhite": 4904,
      "Ġreduce": 4905,
      "ĠAm": 4906,
      "Ġappears": 4907,
      "Ġstarting": 4908,
      "Ġexpand": 4909,
      "aint": 4910,
      "Ġnovel": 4911,
      "abase": 4912,
      "ĠWest": 4913,
      "}$)": 4914,
      "Ġoscill": 4915,
      "Ġappropriate": 4916,
      "pg": 4917,
      "Ġconsists": 4918,
      "ellow": 4919,
      "ulate": 4920,
      "Ġwent": 4921,
      "Ġanalog": 4922,
      "72": 4923,
      "Next": 4924,
      "Ġmatch": 4925,
      "hest": 4926,
      "Ġexam": 4927,
      "oto": 4928,
      "Ġfix": 4929,
      "~~~~": 4930,
      "}({\\": 4931,
      ")}_{": 4932,
      "Ġborder": 4933,
      "Ġpresident": 4934,
      "dl": 4935,
      "fs": 4936,
      "Ġclearly": 4937,
      "Ġmasses": 4938,
      "$),": 4939,
      "minipage": 4940,
      "Ġways": 4941,
      "Ġsquare": 4942,
      "Ġmeaning": 4943,
      "Ġcopy": 4944,
      "google": 4945,
      "84": 4946,
      "Ġproduce": 4947,
      "300": 4948,
      "ĠIsl": 4949,
      "etimes": 4950,
      "cong": 4951,
      "ube": 4952,
      "omb": 4953,
      "What": 4954,
      "Read": 4955,
      "Ġsus": 4956,
      "tikz": 4957,
      "symm": 4958,
      "seud": 4959,
      "hy": 4960,
      "Ġcurrently": 4961,
      "ĠCounty": 4962,
      "tee": 4963,
      "stream": 4964,
      "umb": 4965,
      "Ġbeyond": 4966,
      "}{*": 4967,
      "Ġreson": 4968,
      "Ġconclude": 4969,
      "IF": 4970,
      ":}": 4971,
      "Ġhttps": 4972,
      "Ġflat": 4973,
      "Ġ$|\\": 4974,
      "Ġ...": 4975,
      "Line": 4976,
      "icity": 4977,
      "Ġpure": 4978,
      ")-\\": 4979,
      "-$": 4980,
      "cref": 4981,
      "gu": 4982,
      "&=&": 4983,
      "ĠInternational": 4984,
      "Ġnil": 4985,
      "Ġamplitude": 4986,
      "GL": 4987,
      "uff": 4988,
      "Ġtransport": 4989,
      "Ġliterature": 4990,
      "Ġmagnitude": 4991,
      "Ġgradient": 4992,
      "))$": 4993,
      "Ġformal": 4994,
      "<!--": 4995,
      "Ġjud": 4996,
      "ĠScience": 4997,
      "Ġextra": 4998,
      "Ġtreatment": 4999,
      "Ġidentified": 5000,
      "stract": 5001,
      "Ġcompanies": 5002,
      "system": 5003,
      "Ġupd": 5004,
      "strong": 5005,
      "Ġhorizon": 5006,
      "ares": 5007,
      "Ġprediction": 5008,
      "Ġresource": 5009,
      "Hz": 5010,
      "Ġgreater": 5011,
      "Ġstream": 5012,
      "Ġrelationship": 5013,
      "Ġstrict": 5014,
      "android": 5015,
      "arse": 5016,
      "Ġmentioned": 5017,
      "Desc": 5018,
      "ging": 5019,
      "ĠNews": 5020,
      "Pre": 5021,
      "Ġdifferential": 5022,
      "sequently": 5023,
      "omic": 5024,
      "dat": 5025,
      "Ġtechniques": 5026,
      "Ġrunning": 5027,
      "Ġearlier": 5028,
      "istical": 5029,
      "Ġresol": 5030,
      "web": 5031,
      "Ġabsor": 5032,
      "Ġdig": 5033,
      "IL": 5034,
      "Ġfinancial": 5035,
      "Ġleaders": 5036,
      "Ġdepth": 5037,
      "Ġestablish": 5038,
      "Ġfilter": 5039,
      "Ġpopular": 5040,
      "finition": 5041,
      "Ġlate": 5042,
      "ĠTest": 5043,
      "ĠGod": 5044,
      "sm": 5045,
      "ymm": 5046,
      "Ġmax": 5047,
      "osing": 5048,
      "ĠĠĠĠĠĠĠĠĠĠĠĠĊ": 5049,
      "overy": 5050,
      "Ġenh": 5051,
      "Ġmer": 5052,
      "Ne": 5053,
      "Box": 5054,
      "Ġcollect": 5055,
      "Ġestablished": 5056,
      "91": 5057,
      "ĠUK": 5058,
      "Ġoptimization": 5059,
      "ersion": 5060,
      "Ġhighly": 5061,
      "Ġeconomic": 5062,
      "apter": 5063,
      "____": 5064,
      "Ġnotation": 5065,
      "Introduction": 5066,
      "Ġbuilt": 5067,
      "ĠEl": 5068,
      "76": 5069,
      "[(": 5070,
      "oke": 5071,
      "pid": 5072,
      "Ġaccur": 5073,
      "iral": 5074,
      "udes": 5075,
      "GC": 5076,
      "Ġthroughout": 5077,
      "oken": 5078,
      "ĠPo": 5079,
      "Ġobservation": 5080,
      "oul": 5081,
      "vention": 5082,
      "Ġrepe": 5083,
      "Ġreconst": 5084,
      "tag": 5085,
      "Ġfeed": 5086,
      "ridge": 5087,
      "Ġdevi": 5088,
      "Ġmaintain": 5089,
      "opic": 5090,
      "Ġpack": 5091,
      "ondon": 5092,
      "Ġ,\\": 5093,
      "Ġandroid": 5094,
      "Ġsm": 5095,
      "Ġcompletely": 5096,
      "Ġorient": 5097,
      "ypothes": 5098,
      "Ġaxis": 5099,
      "ishes": 5100,
      "den": 5101,
      "Ġtechnology": 5102,
      "Ġbal": 5103,
      "Ġlocated": 5104,
      "ĠIm": 5105,
      "ogeneous": 5106,
      "Ġinit": 5107,
      "lesssim": 5108,
      "Ġquestions": 5109,
      "Therefore": 5110,
      "Ġgeneration": 5111,
      "Ġunivers": 5112,
      "])": 5113,
      "istory": 5114,
      "ades": 5115,
      "iet": 5116,
      "iding": 5117,
      "EM": 5118,
      "You": 5119,
      "uge": 5120,
      "Ġcircle": 5121,
      "Ġtrack": 5122,
      "ector": 5123,
      "ĠAustral": 5124,
      "=\"#": 5125,
      "PP": 5126,
      "Ġtal": 5127,
      "post": 5128,
      "}{(": 5129,
      "uit": 5130,
      "1999": 5131,
      "VID": 5132,
      "Ġdr": 5133,
      "func": 5134,
      "Ġvot": 5135,
      "olar": 5136,
      "DB": 5137,
      "Ġwriting": 5138,
      "blue": 5139,
      "Ġcombination": 5140,
      "'re": 5141,
      "Ġstraight": 5142,
      "Image": 5143,
      "Ġparticularly": 5144,
      "paign": 5145,
      "perim": 5146,
      "ULL": 5147,
      "vol": 5148,
      "format": 5149,
      "Ġcalculations": 5150,
      "rot": 5151,
      ",$": 5152,
      "Ġuncertainty": 5153,
      "cccc": 5154,
      "dir": 5155,
      "ĠRem": 5156,
      "TH": 5157,
      "ĠAssoci": 5158,
      "Builder": 5159,
      "Ġreduction": 5160,
      "Ġfluct": 5161,
      "Ġmicro": 5162,
      "Ġthreshold": 5163,
      "Ġharm": 5164,
      "results": 5165,
      "Finally": 5166,
      "vector": 5167,
      ",\\,\\": 5168,
      "ibrary": 5169,
      "Ġmorph": 5170,
      "82": 5171,
      "Ġbounds": 5172,
      "ief": 5173,
      "ĠEuropean": 5174,
      "rong": 5175,
      "Ġfront": 5176,
      "Ġclusters": 5177,
      "Ġled": 5178,
      "Ġtasks": 5179,
      "ibly": 5180,
      "cular": 5181,
      "perties": 5182,
      "henomen": 5183,
      "Comm": 5184,
      "ĠGovern": 5185,
      "Ġprimary": 5186,
      "asons": 5187,
      "Ġball": 5188,
      "Input": 5189,
      "Ġstation": 5190,
      "Ġconstit": 5191,
      "Ġener": 5192,
      "Fact": 5193,
      "Ġfundamental": 5194,
      "ĠĠĠĠĠĠĠĠĠĠĠĠĠĠĠĠĠĠĠĠĠĠĠĠĠĠĠĠĠĠĠ": 5195,
      "Ġ[\\": 5196,
      "Ġfast": 5197,
      "ĠChar": 5198,
      "ĠHol": 5199,
      "Ġdetailed": 5200,
      "Ġpreviously": 5201,
      "Ġqual": 5202,
      "itely": 5203,
      "Ġtheoretical": 5204,
      "ĠIN": 5205,
      "jo": 5206,
      "ĠKing": 5207,
      "rl": 5208,
      "Ġinduced": 5209,
      "open": 5210,
      "Ġvisual": 5211,
      "Ġspecified": 5212,
      "diag": 5213,
      "ipal": 5214,
      "Ġangular": 5215,
      "Ġstrongly": 5216,
      "Call": 5217,
      "Ġtim": 5218,
      "poses": 5219,
      "child": 5220,
      "Part": 5221,
      "icense": 5222,
      "Ġscre": 5223,
      "sg": 5224,
      "Ġprofess": 5225,
      "ĠSub": 5226,
      "Ġrelatively": 5227,
      "After": 5228,
      "Ġcred": 5229,
      "CS": 5230,
      "hing": 5231,
      "Ġkernel": 5232,
      "ĠĠĠĠĠĠĠĠĊ": 5233,
      "Exp": 5234,
      "Ġstri": 5235,
      "Ġbottom": 5236,
      "ĠEqu": 5237,
      "Ġbegan": 5238,
      "target": 5239,
      "Response": 5240,
      "ancy": 5241,
      "Ġengine": 5242,
      "otal": 5243,
      "Ġfoot": 5244,
      "ech": 5245,
      "1998": 5246,
      "Date": 5247,
      "Ġhistor": 5248,
      "Ġcoming": 5249,
      "ĠBro": 5250,
      "Ġparallel": 5251,
      "Ġunderstanding": 5252,
      "Ġcalculation": 5253,
      "Ġdistinct": 5254,
      "onical": 5255,
      "Ġresources": 5256,
      "ĠSan": 5257,
      "Ġgraphs": 5258,
      "Client": 5259,
      "$_{": 5260,
      "83": 5261,
      "Ġexcit": 5262,
      ">(": 5263,
      "Ġpurpose": 5264,
      "ded": 5265,
      "Ġcause": 5266,
      "ford": 5267,
      "Ġjoint": 5268,
      "Ġexponential": 5269,
      "Ġconcent": 5270,
      "Ġinterpret": 5271,
      "Che": 5272,
      "Ġbehavi": 5273,
      "73": 5274,
      "Ġchem": 5275,
      "Per": 5276,
      "Ġrepresented": 5277,
      "---": 5278,
      "]}": 5279,
      "Ġreli": 5280,
      "query": 5281,
      "Group": 5282,
      "Ġsw": 5283,
      "pat": 5284,
      "Ġlack": 5285,
      "antic": 5286,
      "ifying": 5287,
      "corre": 5288,
      "Ġlooking": 5289,
      "Ġcov": 5290,
      "MR": 5291,
      "pare": 5292,
      "iforn": 5293,
      "ĠDr": 5294,
      "ĠMr": 5295,
      "Ġguarant": 5296,
      "Ġaspect": 5297,
      "lean": 5298,
      "floor": 5299,
      "74": 5300,
      "ashington": 5301,
      "Ġago": 5302,
      "Ġtraject": 5303,
      "ĠHow": 5304,
      "Ġvac": 5305,
      "Ġvariety": 5306,
      "ĠFinally": 5307,
      "font": 5308,
      "Ġpix": 5309,
      "Ġdistributed": 5310,
      "Ġgrid": 5311,
      "only": 5312,
      "Ġlegal": 5313,
      "Ġincreased": 5314,
      "ĠClass": 5315,
      "^*$": 5316,
      "faces": 5317,
      "}})": 5318,
      "ĠSpec": 5319,
      "Ġgap": 5320,
      "Ġminimal": 5321,
      "bas": 5322,
      "Query": 5323,
      "Ġstd": 5324,
      "Spec": 5325,
      "erson": 5326,
      "Ġthermal": 5327,
      "ĠFound": 5328,
      "host": 5329,
      "lication": 5330,
      "Ġvary": 5331,
      "Ġaccom": 5332,
      "Ġkin": 5333,
      "Ġcontaining": 5334,
      "ename": 5335,
      "sur": 5336,
      "bsite": 5337,
      "Ġideal": 5338,
      "aj": 5339,
      "Ġlif": 5340,
      "}}_{\\": 5341,
      "Ġactions": 5342,
      "Ġproved": 5343,
      "Ġproport": 5344,
      "Ġexternal": 5345,
      "writ": 5346,
      "79": 5347,
      "ĉĉĊ": 5348,
      "Ġanti": 5349,
      "ague": 5350,
      "Ġthemselves": 5351,
      "Ġpoly": 5352,
      "elt": 5353,
      "Ġult": 5354,
      "rab": 5355,
      "Ġbin": 5356,
      "Ġimplementation": 5357,
      "apan": 5358,
      "Ġactual": 5359,
      "iring": 5360,
      "mitted": 5361,
      "Ġconsidering": 5362,
      "Ġunits": 5363,
      "dfrac": 5364,
      "\\}$.": 5365,
      "ĠList": 5366,
      "Ġloop": 5367,
      "ĠCons": 5368,
      "Ġnor": 5369,
      "Ġshift": 5370,
      "Action": 5371,
      "Ġ$.": 5372,
      "Ġobvious": 5373,
      "$:": 5374,
      "reme": 5375,
      "models": 5376,
      "well": 5377,
      "abil": 5378,
      "Ġcomplexity": 5379,
      "paragraph": 5380,
      "Ġlayers": 5381,
      "ĠEar": 5382,
      "Ġbehind": 5383,
      "Ġparty": 5384,
      "Ġvisit": 5385,
      "Ġmassive": 5386,
      "Ġorth": 5387,
      "Ġpartial": 5388,
      "Ġneighbor": 5389,
      "Ð¸": 5390,
      "Ġdifferences": 5391,
      "Ġinfinite": 5392,
      "sign": 5393,
      "gies": 5394,
      "Ġstatus": 5395,
      "Ġoption": 5396,
      "Ġhole": 5397,
      "unit": 5398,
      "]$.": 5399,
      "ifornia": 5400,
      "request": 5401,
      "Ġentropy": 5402,
      "Ġgames": 5403,
      "Ġconvex": 5404,
      "Ġadvan": 5405,
      "cf": 5406,
      "Ġscales": 5407,
      "Ġdecomposition": 5408,
      "Ġquery": 5409,
      "ĠDist": 5410,
      "DA": 5411,
      "ialog": 5412,
      "amily": 5413,
      "Ġremaining": 5414,
      "Ġindicates": 5415,
      "Ġproceed": 5416,
      "real": 5417,
      "Ġrecomm": 5418,
      "Ġacqu": 5419,
      "Override": 5420,
      "Ġquick": 5421,
      "Ġalbum": 5422,
      "Ġdatasets": 5423,
      "algorithm": 5424,
      "ĠCollege": 5425,
      "ae": 5426,
      "Ġrecall": 5427,
      "nes": 5428,
      "Ġcommand": 5429,
      "ilarly": 5430,
      "ometric": 5431,
      "description": 5432,
      "Ġscaling": 5433,
      ")</": 5434,
      "bmatrix": 5435,
      "Ġemerg": 5436,
      "Ġmilitary": 5437,
      "Ġstruct": 5438,
      "Ġtrade": 5439,
      "Ġlemma": 5440,
      "Ġcriter": 5441,
      "Ġfair": 5442,
      "cher": 5443,
      "sect": 5444,
      "Ġadminist": 5445,
      "ĠEnglish": 5446,
      "Ġring": 5447,
      "Section": 5448,
      "Ġcoefficient": 5449,
      "bits": 5450,
      "itivity": 5451,
      "yles": 5452,
      "Ġbright": 5453,
      "urrent": 5454,
      "Ġelectric": 5455,
      "CA": 5456,
      "ounced": 5457,
      "Ġyield": 5458,
      "81": 5459,
      "expect": 5460,
      "Stream": 5461,
      "Ġdiscrete": 5462,
      "Ġgrant": 5463,
      "Ġexpressed": 5464,
      "ĠLondon": 5465,
      "bon": 5466,
      "Ġdenoted": 5467,
      "ĠDes": 5468,
      "Ġmanagement": 5469,
      "OP": 5470,
      "Ġsort": 5471,
      "write": 5472,
      "Ġrotation": 5473,
      "Ġbool": 5474,
      "grad": 5475,
      "Ġscenario": 5476,
      "Ġsegment": 5477,
      "squ": 5478,
      "ĠMich": 5479,
      "ĠData": 5480,
      "oph": 5481,
      "Using": 5482,
      "ĠSome": 5483,
      "sembly": 5484,
      "EX": 5485,
      "Ġluminos": 5486,
      "Ġextends": 5487,
      "conf": 5488,
      "Ġtypical": 5489,
      "Ġ->": 5490,
      "Ġinstit": 5491,
      "Ġperfect": 5492,
      "Ġshowed": 5493,
      "ĠFurthermore": 5494,
      "Ġagent": 5495,
      "Block": 5496,
      "ado": 5497,
      "Rec": 5498,
      "inner": 5499,
      "Ġability": 5500,
      "Ġ^{": 5501,
      "Ext": 5502,
      "river": 5503,
      "number": 5504,
      "Ġneutr": 5505,
      "Ġassess": 5506,
      "ONT": 5507,
      "Ġtransl": 5508,
      "Ġdimensions": 5509,
      "Ġsector": 5510,
      "Ġcareer": 5511,
      "php": 5512,
      "riz": 5513,
      "illing": 5514,
      "ND": 5515,
      "Ġworked": 5516,
      "Sc": 5517,
      "forward": 5518,
      "annels": 5519,
      "ĠDem": 5520,
      "oe": 5521,
      "Ġnight": 5522,
      "Ġfood": 5523,
      "Ġphenomen": 5524,
      ":=": 5525,
      "omin": 5526,
      "Ġprogress": 5527,
      "vee": 5528,
      ")}}": 5529,
      "osite": 5530,
      "ĠAng": 5531,
      "Ġhighest": 5532,
      "jav": 5533,
      "Ġformat": 5534,
      "after": 5535,
      "nother": 5536,
      "ĠHer": 5537,
      "1000": 5538,
      "|}{": 5539,
      "Ġthrow": 5540,
      "gl": 5541,
      "ynamic": 5542,
      "Ġetc": 5543,
      "Ġ\\&": 5544,
      "Ġtempor": 5545,
      "roy": 5546,
      "Ġtravel": 5547,
      "Ġprint": 5548,
      "Ġnearly": 5549,
      "Ġslightly": 5550,
      "ĠIsra": 5551,
      "sche": 5552,
      "phant": 5553,
      "Ġnucle": 5554,
      "property": 5555,
      "Ġdesigned": 5556,
      "enge": 5557,
      "Ġextrem": 5558,
      "Ġdro": 5559,
      "Ġsaf": 5560,
      "tings": 5561,
      "Ġdetail": 5562,
      "Ġestimation": 5563,
      "ĠPark": 5564,
      "Ġtrained": 5565,
      "Ġinterface": 5566,
      "ĠAlso": 5567,
      "Ġhope": 5568,
      "][]{": 5569,
      "Ġtor": 5570,
      "While": 5571,
      "Ġefficiency": 5572,
      "Ġcry": 5573,
      "Ġarguments": 5574,
      "Ġveh": 5575,
      "mann": 5576,
      "ĠOff": 5577,
      "}\\,\\": 5578,
      "Ġprote": 5579,
      "Ġsolve": 5580,
      "Ġlimits": 5581,
      "erred": 5582,
      "hal": 5583,
      "Ġsatisfying": 5584,
      "FA": 5585,
      "ĠGeneral": 5586,
      "Ġinfluence": 5587,
      "\\;": 5588,
      "Ġcalculate": 5589,
      "Ġrelig": 5590,
      "adding": 5591,
      "ned": 5592,
      "alysis": 5593,
      "init": 5594,
      "py": 5595,
      "Right": 5596,
      "}{*}{": 5597,
      "Ġprinciple": 5598,
      "Ġhypothes": 5599,
      "reet": 5600,
      "ĠBritish": 5601,
      "Ġliving": 5602,
      "elli": 5603,
      "Ġgradu": 5604,
      "make": 5605,
      "herent": 5606,
      "Ġhon": 5607,
      "iverse": 5608,
      "})}": 5609,
      "button": 5610,
      "Act": 5611,
      "MB": 5612,
      "Ġreleased": 5613,
      "Ġevaluation": 5614,
      "clusions": 5615,
      "mathop": 5616,
      "Cons": 5617,
      "Ġhot": 5618,
      "ĠInter": 5619,
      "ifies": 5620,
      "Ġfollowed": 5621,
      "Ġreflect": 5622,
      "sat": 5623,
      "options": 5624,
      "Ġsections": 5625,
      "Ġpick": 5626,
      ".[": 5627,
      "Ġassign": 5628,
      "cknowled": 5629,
      "Ġpolice": 5630,
      "DP": 5631,
      "ĠWork": 5632,
      "Ġign": 5633,
      "Ġ\\!": 5634,
      "Ġfamil": 5635,
      "Ġwide": 5636,
      "GB": 5637,
      "Ġrobust": 5638,
      "Ġste": 5639,
      "That": 5640,
      "]$,": 5641,
      "integ": 5642,
      "Ġfreedom": 5643,
      "Ġrelease": 5644,
      "Ġbeginning": 5645,
      "Ġgravit": 5646,
      "vari": 5647,
      "xx": 5648,
      "Form": 5649,
      "ĠCanada": 5650,
      "ĠCouncil": 5651,
      "Ġhours": 5652,
      "lig": 5653,
      "Ġactivity": 5654,
      "oo": 5655,
      "pass": 5656,
      "./": 5657,
      "Ġmes": 5658,
      ",\\\\": 5659,
      "eles": 5660,
      "Ġprograms": 5661,
      "dec": 5662,
      "71": 5663,
      "len": 5664,
      "ship": 5665,
      "arams": 5666,
      "ĠSen": 5667,
      "Ġtrain": 5668,
      "Ġprobably": 5669,
      "uel": 5670,
      "ĠJust": 5671,
      "float": 5672,
      "Ġgl": 5673,
      "Ġweights": 5674,
      "Ġscient": 5675,
      "such": 5676,
      "chang": 5677,
      "Ġassist": 5678,
      "AV": 5679,
      "FR": 5680,
      "Ġequilibrium": 5681,
      "etal": 5682,
      "ĠHigh": 5683,
      "ollowing": 5684,
      "pir": 5685,
      "two": 5686,
      "ĠArm": 5687,
      "Ġgeometry": 5688,
      "Ġcru": 5689,
      "ĠBu": 5690,
      "bigl": 5691,
      "Ġapproximately": 5692,
      "ĠUsing": 5693,
      "Ġsex": 5694,
      "Ġimplic": 5695,
      "tfrac": 5696,
      "inu": 5697,
      "aa": 5698,
      "Ġfamilies": 5699,
      "vised": 5700,
      "ĠVol": 5701,
      "Ġoffice": 5702,
      ",{\\": 5703,
      "ategory": 5704,
      "ĠWashington": 5705,
      "Ġion": 5706,
      "Ġutil": 5707,
      "Nav": 5708,
      "ĠInstitute": 5709,
      "inst": 5710,
      "ĠOf": 5711,
      "Ġindicate": 5712,
      "})=": 5713,
      "ĠCalifornia": 5714,
      "Ġirre": 5715,
      "Ġfunctional": 5716,
      "Lay": 5717,
      "bed": 5718,
      "Ġdise": 5719,
      "Ġphysics": 5720,
      "${\\": 5721,
      "ĠAppendix": 5722,
      "show": 5723,
      "img": 5724,
      "([": 5725,
      "ĠMat": 5726,
      "Mat": 5727,
      "ĠBlack": 5728,
      "gr": 5729,
      "while": 5730,
      "avel": 5731,
      "$};": 5732,
      "rial": 5733,
      "Ġnothing": 5734,
      "project": 5735,
      "oon": 5736,
      "stra": 5737,
      "ĠWilliam": 5738,
      "ĠOther": 5739,
      "Ġpriv": 5740,
      "$&": 5741,
      "ĠAssum": 5742,
      "}}.": 5743,
      "Ġnuclear": 5744,
      "related": 5745,
      "close": 5746,
      "pdate": 5747,
      "Ġ\\]": 5748,
      "Ġ^": 5749,
      "))\\": 5750,
      "Ġexpert": 5751,
      "aking": 5752,
      "Source": 5753,
      "CR": 5754,
      "}[\\": 5755,
      "client": 5756,
      "bigr": 5757,
      "else": 5758,
      "UE": 5759,
      "Ġworth": 5760,
      "scriptstyle": 5761,
      "flu": 5762,
      "select": 5763,
      "PA": 5764,
      "Ġthick": 5765,
      "finished": 5766,
      "Ġmultiplic": 5767,
      "Ġconver": 5768,
      "ĠEach": 5769,
      "obile": 5770,
      "bel": 5771,
      "Ġtalk": 5772,
      "ih": 5773,
      "Ġferm": 5774,
      "Ġscience": 5775,
      "Ġimag": 5776,
      "Ġcycle": 5777,
      "Ġswit": 5778,
      "ĠIndia": 5779,
      "Ġprojection": 5780,
      "Ġcoordinate": 5781,
      "}}}\\": 5782,
      "ĠRepublic": 5783,
      "Sec": 5784,
      "Ġimmediately": 5785,
      "Ġachieved": 5786,
      "}_{-": 5787,
      "Li": 5788,
      "Ġfight": 5789,
      "itch": 5790,
      "ÑĤ": 5791,
      "Ġlives": 5792,
      "Ġcontained": 5793,
      "Rem": 5794,
      "Ġbad": 5795,
      "Ð½": 5796,
      "emptyset": 5797,
      "Ag": 5798,
      "ĠST": 5799,
      "ĠHig": 5800,
      "vature": 5801,
      "Ġut": 5802,
      "Ġnotice": 5803,
      "ĠBay": 5804,
      "Ġredshift": 5805,
      "Ġindeed": 5806,
      "Ġbrief": 5807,
      "ference": 5808,
      "Ġconserv": 5809,
      "Ġprotected": 5810,
      "...,": 5811,
      "adata": 5812,
      "joint": 5813,
      "stable": 5814,
      "Ġmedical": 5815,
      "Ġplayed": 5816,
      "Ġclient": 5817,
      "Ġgoes": 5818,
      "Ġconstructed": 5819,
      "estern": 5820,
      "Ġacceler": 5821,
      "tabularnewline": 5822,
      "Ġtesting": 5823,
      "Ġrise": 5824,
      "Ġsummar": 5825,
      "urity": 5826,
      "Me": 5827,
      "she": 5828,
      "})^": 5829,
      "Ġsufficiently": 5830,
      "called": 5831,
      "Ġmid": 5832,
      "layer": 5833,
      ")}_": 5834,
      "weight": 5835,
      "Ġgetting": 5836,
      "aught": 5837,
      "${": 5838,
      "haps": 5839,
      "ael": 5840,
      "Ġscore": 5841,
      "step": 5842,
      "Ġreplace": 5843,
      "Ġmodern": 5844,
      "}}^{\\": 5845,
      "Ġhydro": 5846,
      "Ġstudent": 5847,
      "uster": 5848,
      "Ġcombined": 5849,
      "edia": 5850,
      "CL": 5851,
      "Ġstatistical": 5852,
      "ĠCong": 5853,
      "Ġrepresentations": 5854,
      "Component": 5855,
      "mas": 5856,
      "Ġdust": 5857,
      "Ġcommunication": 5858,
      "poss": 5859,
      "ĠCommun": 5860,
      "Ġassumptions": 5861,
      "ĠIR": 5862,
      "Ġdevice": 5863,
      "Ġtown": 5864,
      "Ġfinally": 5865,
      "Ġsampling": 5866,
      "uting": 5867,
      "Function": 5868,
      "Ġcentury": 5869,
      "useum": 5870,
      "condition": 5871,
      ";\\;\\": 5872,
      "Ġisomorphism": 5873,
      "Ġneural": 5874,
      "Fil": 5875,
      "SR": 5876,
      "Gener": 5877,
      "REF": 5878,
      "element": 5879,
      "ERT": 5880,
      "Ġ{$": 5881,
      "ĠAir": 5882,
      "pto": 5883,
      "isely": 5884,
      "Ġforces": 5885,
      "acters": 5886,
      "brace": 5887,
      "Ġevaluate": 5888,
      "hips": 5889,
      "args": 5890,
      "hemat": 5891,
      "Ġeq": 5892,
      "Ġbos": 5893,
      "Ġanswer": 5894,
      "Ġ<<": 5895,
      "Ġproviding": 5896,
      "Ġodd": 5897,
      "ini": 5898,
      "Ġsoftware": 5899,
      "ka": 5900,
      "algebra": 5901,
      "Ġpositions": 5902,
      "Ġcomment": 5903,
      "Ġunderlying": 5904,
      "Ġtrying": 5905,
      "ifact": 5906,
      "Ġinterested": 5907,
      "Ġcampaign": 5908,
      "OL": 5909,
      "Cor": 5910,
      "sets": 5911,
      "ĠAlthough": 5912,
      "400": 5913,
      "Ġasked": 5914,
      "Ġcit": 5915,
      "anks": 5916,
      "lap": 5917,
      "ĠJapan": 5918,
      "1997": 5919,
      "Ġdetected": 5920,
      "columnwidth": 5921,
      "Status": 5922,
      "\\\\\\\\\\\\\\\\\\\\\\\\\\\\\\\\": 5923,
      "formal": 5924,
      "des": 5925,
      "ensities": 5926,
      "Ġten": 5927,
      "ĠPaul": 5928,
      "ĠDire": 5929,
      "ometry": 5930,
      "ĠSec": 5931,
      "Ġmind": 5932,
      "Ġapplying": 5933,
      "Start": 5934,
      "Ġnoted": 5935,
      "forms": 5936,
      "unn": 5937,
      "Ġ()": 5938,
      "Ġshock": 5939,
      "DM": 5940,
      "\\)": 5941,
      "Ġspread": 5942,
      "irth": 5943,
      "Ġintegration": 5944,
      "rd": 5945,
      "Ġnamed": 5946,
      "Ġexperi": 5947,
      "Ġmoving": 5948,
      "OC": 5949,
      "ĠAc": 5950,
      "Ġtypically": 5951,
      "ĠDavid": 5952,
      "ĠOF": 5953,
      "urst": 5954,
      "oded": 5955,
      "Ġwall": 5956,
      "orge": 5957,
      "ĠGreen": 5958,
      "Label": 5959,
      "Ġonto": 5960,
      "ĠIndeed": 5961,
      "EL": 5962,
      "Ġpredicted": 5963,
      "phys": 5964,
      "ico": 5965,
      "Base": 5966,
      "pack": 5967,
      "Ġshowing": 5968,
      "Ġmovie": 5969,
      "Ġmor": 5970,
      "Ġhit": 5971,
      "Ġprotocol": 5972,
      "ĠGroup": 5973,
      "attle": 5974,
      "enced": 5975,
      "ying": 5976,
      "ochastic": 5977,
      "posit": 5978,
      "arr": 5979,
      "unch": 5980,
      "maz": 5981,
      "Ġcells": 5982,
      "Ġoccup": 5983,
      "build": 5984,
      "Last": 5985,
      "coming": 5986,
      "rupt": 5987,
      "Ġheart": 5988,
      "Ġcapital": 5989,
      "Ġinverse": 5990,
      "mt": 5991,
      "Link": 5992,
      "Number": 5993,
      "Ġentry": 5994,
      "Ġnamely": 5995,
      "ville": 5996,
      "longrightarrow": 5997,
      ")--": 5998,
      "Rel": 5999,
      "Ġpen": 6000,
      "ugin": 6001,
      "Ġvirtual": 6002,
      "Ġbias": 6003,
      "ĠLie": 6004,
      "Ġstability": 6005,
      "Ġnone": 6006,
      "Ġvict": 6007,
      "Ġplatform": 6008,
      "abe": 6009,
      "aching": 6010,
      "Ġmut": 6011,
      "Ġenergies": 6012,
      "Ġcompl": 6013,
      "||": 6014,
      "atalog": 6015,
      "rey": 6016,
      "phantom": 6017,
      "Ġboolean": 6018,
      "Ġalign": 6019,
      "iler": 6020,
      "rench": 6021,
      "Ġsurvey": 6022,
      "Ġtele": 6023,
      "Ġdepending": 6024,
      "irit": 6025,
      "Ap": 6026,
      "Ġwanted": 6027,
      "Ġdou": 6028,
      "Ġconsequence": 6029,
      "Ġalternative": 6030,
      "Ġvariation": 6031,
      "Ġlost": 6032,
      "Ġmachine": 6033,
      "ses": 6034,
      "Ġexc": 6035,
      "Aut": 6036,
      "board": 6037,
      "Ġprevent": 6038,
      "han": 6039,
      "dy": 6040,
      "Ġpseud": 6041,
      "Ġnonlinear": 6042,
      "ĠLag": 6043,
      "unds": 6044,
      "actic": 6045,
      "Ġdegrees": 6046,
      "unfinished": 6047,
      "SL": 6048,
      "Ġcapacity": 6049,
      "Ġmapping": 6050,
      "gest": 6051,
      "Ġsurv": 6052,
      "tiny": 6053,
      "axis": 6054,
      "header": 6055,
      "soft": 6056,
      "Proof": 6057,
      "Pol": 6058,
      "Ġremove": 6059,
      "slant": 6060,
      "plot": 6061,
      "Ġmotiv": 6062,
      "Ġmanifold": 6063,
      "Ġdiagonal": 6064,
      "Ġreveal": 6065,
      "images": 6066,
      "Ġauto": 6067,
      "Ġrapid": 6068,
      "illed": 6069,
      "1996": 6070,
      "meta": 6071,
      "Head": 6072,
      "Options": 6073,
      "Ġthreat": 6074,
      "Ġoccurs": 6075,
      "Ġanything": 6076,
      "udget": 6077,
      "Ġspecies": 6078,
      "Ġconstants": 6079,
      "Ġboard": 6080,
      "ĠPal": 6081,
      "Ġvertical": 6082,
      "append": 6083,
      "Ġindividuals": 6084,
      "Ġabsolute": 6085,
      "}~": 6086,
      "Ġobjective": 6087,
      "plan": 6088,
      "Ġplayer": 6089,
      "trivial": 6090,
      "Ġusual": 6091,
      "................": 6092,
      "Ġdemand": 6093,
      "corpor": 6094,
      "Ġheavy": 6095,
      "lies": 6096,
      "Ġoffer": 6097,
      "Ġdirector": 6098,
      "Ġmaximal": 6099,
      "fi": 6100,
      "greg": 6101,
      "mem": 6102,
      "Ġexchange": 6103,
      "Ġ\\(\\": 6104,
      "navbar": 6105,
      "src": 6106,
      "BS": 6107,
      "Ġcharacteristic": 6108,
      "elihood": 6109,
      "\\}$,": 6110,
      "Ġsemi": 6111,
      "iota": 6112,
      "structure": 6113,
      "Ġfinding": 6114,
      "ĠPat": 6115,
      "Point": 6116,
      "ĠInst": 6117,
      "Ġexplicitly": 6118,
      "ĉĉĉĉĉĉĉĉ": 6119,
      "avelength": 6120,
      "ĠFin": 6121,
      "Ġchanged": 6122,
      "Oper": 6123,
      "Ġ$,": 6124,
      "ĠRec": 6125,
      "Ġstop": 6126,
      "/(": 6127,
      "tree": 6128,
      "ĠAccording": 6129,
      "figures": 6130,
      "ĠEast": 6131,
      "Ġwhereas": 6132,
      "Ġleave": 6133,
      "Ġ}{": 6134,
      "Ġradiation": 6135,
      "Ġasymptotic": 6136,
      "ĠFoundation": 6137,
      "ki": 6138,
      "ĉĠĠĠ": 6139,
      "ifts": 6140,
      "Ġprice": 6141,
      "Handler": 6142,
      "Hence": 6143,
      "Ġdru": 6144,
      "dr": 6145,
      "DS": 6146,
      "ĠCommission": 6147,
      "YPE": 6148,
      "nn": 6149,
      "Ġtechnique": 6150,
      "ĠSm": 6151,
      "ifi": 6152,
      "ologies": 6153,
      "Wid": 6154,
      "Ġ{};": 6155,
      "Ġcomposition": 6156,
      "ese": 6157,
      "}$}": 6158,
      "Ġpredictions": 6159,
      "Ġround": 6160,
      "Ġthank": 6161,
      "vartheta": 6162,
      "uted": 6163,
      "Ġradial": 6164,
      "Ġfederal": 6165,
      "Ġsyste": 6166,
      "]{\\": 6167,
      "Ġcivil": 6168,
      "}|\\": 6169,
      "Ġfather": 6170,
      "Ġexplained": 6171,
      "rian": 6172,
      "oted": 6173,
      "Sch": 6174,
      "Ġimportance": 6175,
      "Ġrac": 6176,
      "ĠPre": 6177,
      "Ġgreen": 6178,
      "ĠCOVID": 6179,
      "bras": 6180,
      "Ġcandidate": 6181,
      "unk": 6182,
      "Ġconj": 6183,
      "BA": 6184,
      "IA": 6185,
      "Ġphoton": 6186,
      "del": 6187,
      "ĠSw": 6188,
      "urations": 6189,
      "Ġroad": 6190,
      "Ġmodul": 6191,
      "more": 6192,
      "Ġderive": 6193,
      "Ġstay": 6194,
      "}}=": 6195,
      "Instance": 6196,
      "cat": 6197,
      "Ġcomputational": 6198,
      "private": 6199,
      "Ġlinks": 6200,
      "Ġdam": 6201,
      "ĠVir": 6202,
      "formed": 6203,
      "Ġremark": 6204,
      "Ġluminosity": 6205,
      "mi": 6206,
      "Ġderivative": 6207,
      "ĠObject": 6208,
      "magnetic": 6209,
      "Lemma": 6210,
      "ida": 6211,
      "Ġweb": 6212,
      "Ġarchitecture": 6213,
      "Ġwebsite": 6214,
      "Ġdistingu": 6215,
      "^{(\\": 6216,
      "Ġdispers": 6217,
      "Run": 6218,
      "^{*": 6219,
      "Ġcarry": 6220,
      "joy": 6221,
      "lat": 6222,
      "law": 6223,
      "Ġbillion": 6224,
      "Ġempty": 6225,
      "Ġcontrad": 6226,
      "Ġtrivial": 6227,
      "Ġfine": 6228,
      "lections": 6229,
      "final": 6230,
      "Ġeverything": 6231,
      "ĠGal": 6232,
      "Ġpatients": 6233,
      "|}": 6234,
      "vider": 6235,
      "parison": 6236,
      "Ġamb": 6237,
      "Ġmargin": 6238,
      "parameter": 6239,
      "Ġnation": 6240,
      "Ġdynamic": 6241,
      "po": 6242,
      "Ġchannels": 6243,
      "server": 6244,
      "essages": 6245,
      "Ġ\"\"\"": 6246,
      "ourier": 6247,
      "prec": 6248,
      "Ġplayers": 6249,
      "pair": 6250,
      "Ġsatisfied": 6251,
      "Ġserver": 6252,
      "rank": 6253,
      "asc": 6254,
      "aser": 6255,
      "Ġdesired": 6256,
      "ĠModel": 6257,
      "Ġabund": 6258,
      "Ġactivities": 6259,
      "Ġnet": 6260,
      "Ġquark": 6261,
      "ropic": 6262,
      "gebras": 6263,
      "ĠCompany": 6264,
      "PU": 6265,
      "ĠProgram": 6266,
      "Ġstaff": 6267,
      "Ġexception": 6268,
      "Ġvariance": 6269,
      "Ġbooks": 6270,
      "Ġgiving": 6271,
      "cuss": 6272,
      "wood": 6273,
      "incipal": 6274,
      "obj": 6275,
      "[\"": 6276,
      "find": 6277,
      "even": 6278,
      "rote": 6279,
      "last": 6280,
      "Ġmodified": 6281,
      "Ġconven": 6282,
      "ellig": 6283,
      "Ġunknown": 6284,
      "notation": 6285,
      "Ġcool": 6286,
      "Ġdetermin": 6287,
      "otion": 6288,
      "Ġtrend": 6289,
      "Ġdoc": 6290,
      "Null": 6291,
      "imation": 6292,
      "Max": 6293,
      "ĠSuch": 6294,
      "ĠSy": 6295,
      "Content": 6296,
      "Ġserved": 6297,
      "Ġcoinc": 6298,
      "Ġcharacters": 6299,
      "Ġdynamical": 6300,
      "Ġtopological": 6301,
      "Su": 6302,
      "Ġmajority": 6303,
      "ĠCa": 6304,
      "\"]": 6305,
      "igger": 6306,
      "mediate": 6307,
      "Ġbulk": 6308,
      "Ġseparate": 6309,
      "Ġeight": 6310,
      "tains": 6311,
      "Ġsurpr": 6312,
      "Ġjet": 6313,
      "Ġprotect": 6314,
      "Ġsoon": 6315,
      "Ġmiddle": 6316,
      "Ġpicture": 6317,
      "Ġ({\\": 6318,
      "rowser": 6319,
      "Ġcosts": 6320,
      "auto": 6321,
      "Ġ+=": 6322,
      "ĠChurch": 6323,
      "Ġformed": 6324,
      "Ġaccurate": 6325,
      "Format": 6326,
      "Ġtests": 6327,
      "pared": 6328,
      "ĠID": 6329,
      "FI": 6330,
      "LASS": 6331,
      "cale": 6332,
      "Ġborn": 6333,
      "Ġsaw": 6334,
      ")})": 6335,
      "\\%$": 6336,
      "=.": 6337,
      ">>": 6338,
      "Ġopportunity": 6339,
      "bran": 6340,
      "Ġhighlight": 6341,
      "GN": 6342,
      "&=\\": 6343,
      "subsec": 6344,
      "Ġreturns": 6345,
      "[-": 6346,
      "Ġroom": 6347,
      "Ġcm": 6348,
      "ĠJew": 6349,
      "\\}\\": 6350,
      "Ġrelax": 6351,
      "Resource": 6352,
      "1995": 6353,
      "ospital": 6354,
      "Consider": 6355,
      "xml": 6356,
      "DD": 6357,
      "Off": 6358,
      "Ġpropose": 6359,
      "medskip": 6360,
      "Ġprecisely": 6361,
      "ĠCE": 6362,
      "Ġcanonical": 6363,
      "slash": 6364,
      "Ġcaused": 6365,
      "Char": 6366,
      "otype": 6367,
      "ĠRel": 6368,
      "TT": 6369,
      "Ġcurvature": 6370,
      "Ġhar": 6371,
      "Ġstated": 6372,
      "df": 6373,
      "Ġstress": 6374,
      "ga": 6375,
      "Ġprojects": 6376,
      "iber": 6377,
      "Ġgeneralized": 6378,
      "Ġfriend": 6379,
      "ections": 6380,
      "Token": 6381,
      "update": 6382,
      "yr": 6383,
      "lines": 6384,
      "ĠTechn": 6385,
      "Ġfiles": 6386,
      "loop": 6387,
      "120": 6388,
      "ibration": 6389,
      "win": 6390,
      "Ġrequirements": 6391,
      "Ġreceive": 6392,
      "Default": 6393,
      "ĠInc": 6394,
      "control": 6395,
      "itative": 6396,
      "ĠSM": 6397,
      "Ġworkers": 6398,
      "CM": 6399,
      "ĠNULL": 6400,
      "etries": 6401,
      "ĠNS": 6402,
      "Ġrough": 6403,
      "Ġsynthe": 6404,
      "vect": 6405,
      "ara": 6406,
      "Tra": 6407,
      "ÑĢ": 6408,
      "kin": 6409,
      "frame": 6410,
      "phas": 6411,
      "Ġque": 6412,
      "ĠSte": 6413,
      "Ġtheories": 6414,
      "Ġmatching": 6415,
      "Ġvs": 6416,
      "high": 6417,
      "ĠPublic": 6418,
      "Ġmother": 6419,
      "vs": 6420,
      "Ġlocally": 6421,
      "Ġreasons": 6422,
      "Ġwaves": 6423,
      "Ġsociety": 6424,
      "json": 6425,
      "Ġinterview": 6426,
      "Ġpassed": 6427,
      "AME": 6428,
      "ĠType": 6429,
      "ĠRed": 6430,
      "uum": 6431,
      "ĠNor": 6432,
      "Ġprocessing": 6433,
      "Ġsym": 6434,
      "ski": 6435,
      "Ġhimself": 6436,
      "bib": 6437,
      "Ġdashed": 6438,
      ":=\\": 6439,
      "Ġchemical": 6440,
      "stat": 6441,
      "Given": 6442,
      "Case": 6443,
      "150": 6444,
      "Buffer": 6445,
      "ether": 6446,
      "Ġevol": 6447,
      "support": 6448,
      "ĠNone": 6449,
      "product": 6450,
      "Ġruns": 6451,
      "Ġgets": 6452,
      "GR": 6453,
      "ĠHall": 6454,
      "Ġplanet": 6455,
      "std": 6456,
      "Ġlaws": 6457,
      "sive": 6458,
      "bal": 6459,
      "Ġwalk": 6460,
      "Ġisot": 6461,
      "Ġnav": 6462,
      "Ġnames": 6463,
      "Ġcomputing": 6464,
      "ĠEduc": 6465,
      "Ġmagnet": 6466,
      "rick": 6467,
      "ĠOut": 6468,
      "Ġpolic": 6469,
      "Ġshared": 6470,
      "Ġtruth": 6471,
      "Ġ((": 6472,
      "Ġsomeone": 6473,
      "ĠPost": 6474,
      "Ġwait": 6475,
      "Ġinj": 6476,
      "atures": 6477,
      "Equal": 6478,
      "Arg": 6479,
      "notag": 6480,
      "\\|\\": 6481,
      "scriptsize": 6482,
      "Hel": 6483,
      "Ġthrows": 6484,
      "Return": 6485,
      "Load": 6486,
      "True": 6487,
      "ror": 6488,
      "clear": 6489,
      "+(": 6490,
      "Ġsolar": 6491,
      "bp": 6492,
      "ĠWhite": 6493,
      ">\\": 6494,
      "Ġgravity": 6495,
      "ria": 6496,
      "Ġdimensional": 6497,
      "Ġconvert": 6498,
      "idents": 6499,
      "Ġey": 6500,
      "ultane": 6501,
      "DR": 6502,
      "Ġdied": 6503,
      "Command": 6504,
      "ĠStat": 6505,
      "rosc": 6506,
      "Ġsites": 6507,
      "Ġinvestigate": 6508,
      "ĠBoard": 6509,
      "Min": 6510,
      "Ġintr": 6511,
      "ifications": 6512,
      "cial": 6513,
      "Ġcollabor": 6514,
      "second": 6515,
      "Ġsuggests": 6516,
      "footnotes": 6517,
      "uler": 6518,
      "cope": 6519,
      "mode": 6520,
      "*/": 6521,
      "Ġheat": 6522,
      "Ġelectro": 6523,
      "NO": 6524,
      "Ġcarried": 6525,
      "///": 6526,
      "going": 6527,
      "Ġwrote": 6528,
      "author": 6529,
      "See": 6530,
      "Ġapproximate": 6531,
      "Ġreser": 6532,
      "btn": 6533,
      "Ġadvantage": 6534,
      "Suppose": 6535,
      "ĠCommit": 6536,
      "Page": 6537,
      "istent": 6538,
      "Ġcatch": 6539,
      "Ge": 6540,
      "ĠPlan": 6541,
      "cretary": 6542,
      "Ġpan": 6543,
      "Ġrestric": 6544,
      "met": 6545,
      "Ġefforts": 6546,
      "Ġimplemented": 6547,
      "Check": 6548,
      "Bl": 6549,
      "Ġtraditional": 6550,
      "footnotesize": 6551,
      "chron": 6552,
      "Ġaward": 6553,
      "1990": 6554,
      "Attribute": 6555,
      "anger": 6556,
      "Ġquasi": 6557,
      "ascript": 6558,
      "Ġ$\\{\\": 6559,
      "witter": 6560,
      "Ġfavor": 6561,
      "Moreover": 6562,
      "ĠThom": 6563,
      "Ġresponsible": 6564,
      "cut": 6565,
      "ĠMor": 6566,
      "pective": 6567,
      "ĠArch": 6568,
      "}\\|": 6569,
      "HS": 6570,
      "Ġdx": 6571,
      "volution": 6572,
      "tikzpicture": 6573,
      "ĠPress": 6574,
      "Ġstatistics": 6575,
      "push": 6576,
      "-(": 6577,
      "Ġequality": 6578,
      "Post": 6579,
      "rea": 6580,
      "owers": 6581,
      "ocket": 6582,
      "Ġsettings": 6583,
      "fol": 6584,
      "Ġhalo": 6585,
      "effect": 6586,
      "km": 6587,
      "Factory": 6588,
      "ilbert": 6589,
      "Ġmorphism": 6590,
      "entry": 6591,
      "dem": 6592,
      "Ġrang": 6593,
      "Ġquantities": 6594,
      "Ġmeeting": 6595,
      "Ð¾Ð": 6596,
      "Ġadding": 6597,
      "Ġpossibility": 6598,
      "Ġbrought": 6599,
      "boldmath": 6600,
      "Ġcloud": 6601,
      "Ġfluctuations": 6602,
      "iation": 6603,
      "Ġfire": 6604,
      "Ġintersection": 6605,
      "nam": 6606,
      "ĠTV": 6607,
      "Ġstochastic": 6608,
      "Ġstru": 6609,
      "Ġwoman": 6610,
      "equations": 6611,
      "unt": 6612,
      "Back": 6613,
      "ĠDay": 6614,
      "Ġenjoy": 6615,
      "pton": 6616,
      "Ġannounced": 6617,
      "Ġserious": 6618,
      "Ġorganization": 6619,
      "isot": 6620,
      "Ġgave": 6621,
      "Do": 6622,
      "igration": 6623,
      "Ġsuitable": 6624,
      "sis": 6625,
      "Ġwatch": 6626,
      "Ġneighborhood": 6627,
      "esian": 6628,
      "IST": 6629,
      "mosp": 6630,
      "verb": 6631,
      "Ġdelay": 6632,
      "iii": 6633,
      "Ġlearned": 6634,
      "Ġcomputer": 6635,
      "ĠJames": 6636,
      "iant": 6637,
      "Ġmovement": 6638,
      "ufact": 6639,
      "Ġcele": 6640,
      "ĠStreet": 6641,
      "mom": 6642,
      "Ġcorrections": 6643,
      "aily": 6644,
      "ĠReturn": 6645,
      "ramework": 6646,
      "fully": 6647,
      "layout": 6648,
      "Ġpiece": 6649,
      "Ġbehaviour": 6650,
      "ĉĠ": 6651,
      "ĠUnder": 6652,
      "Ġequivalence": 6653,
      "aver": 6654,
      "Ġsequences": 6655,
      "Ġsometimes": 6656,
      "Ġpaths": 6657,
      "oration": 6658,
      "status": 6659,
      "Ġcard": 6660,
      "ĠAssociation": 6661,
      "rangian": 6662,
      "How": 6663,
      "Ġter": 6664,
      "ĠGovernment": 6665,
      "textcolor": 6666,
      "tan": 6667,
      "Ġlabels": 6668,
      "Ġpoor": 6669,
      "large": 6670,
      "Ġson": 6671,
      "ica": 6672,
      "Ġculture": 6673,
      "Ġsil": 6674,
      "PO": 6675,
      "ĠEngland": 6676,
      "^*\\": 6677,
      "ĠAdd": 6678,
      "tw": 6679,
      "Ġsubstant": 6680,
      "response": 6681,
      "ias": 6682,
      "ĠIsrael": 6683,
      "Ġreading": 6684,
      "ĠMag": 6685,
      "tool": 6686,
      "Window": 6687,
      "output": 6688,
      "Ġdev": 6689,
      "ogonal": 6690,
      "general": 6691,
      "Version": 6692,
      "!\\": 6693,
      "aml": 6694,
      "Ġast": 6695,
      "oice": 6696,
      "NA": 6697,
      "stitution": 6698,
      "Ġsimplic": 6699,
      "vest": 6700,
      "anned": 6701,
      "conds": 6702,
      ")^\\": 6703,
      "Ġkm": 6704,
      "ĠDemoc": 6705,
      "Ġitems": 6706,
      "scope": 6707,
      "elines": 6708,
      "Ġhandle": 6709,
      "gn": 6710,
      "Tem": 6711,
      "Ġbundle": 6712,
      "Ġcommunities": 6713,
      "gan": 6714,
      "(-\\": 6715,
      "Ġfriends": 6716,
      "fa": 6717,
      "ĠProf": 6718,
      "Ġforeign": 6719,
      "Ġeigenvalues": 6720,
      "La": 6721,
      "filter": 6722,
      "TS": 6723,
      "Ġelection": 6724,
      "Ġhypothesis": 6725,
      "adow": 6726,
      "arter": 6727,
      "Ñģ": 6728,
      "ponents": 6729,
      "emy": 6730,
      "Ġassuming": 6731,
      "icate": 6732,
      "Ġtro": 6733,
      "erior": 6734,
      "Ġintensity": 6735,
      "Ġfem": 6736,
      "Ġlegis": 6737,
      "semble": 6738,
      "ierarch": 6739,
      "Ġacts": 6740,
      "Ġmanner": 6741,
      "ĠLeg": 6742,
      "Ġcorrection": 6743,
      "Ġincorpor": 6744,
      "orter": 6745,
      "Ġsubsection": 6746,
      "ya": 6747,
      "Ġclean": 6748,
      "Xi": 6749,
      "aven": 6750,
      "ĠGiven": 6751,
      "velopment": 6752,
      "ativ": 6753,
      "Ġmaterials": 6754,
      "etails": 6755,
      "tty": 6756,
      "icated": 6757,
      "nergy": 6758,
      "ĠPub": 6759,
      "inated": 6760,
      "Ġpartners": 6761,
      "ĠGeV": 6762,
      "Ġblocks": 6763,
      "ĠService": 6764,
      "inese": 6765,
      "ĠRober": 6766,
      "full": 6767,
      "Te": 6768,
      "eks": 6769,
      "Ġpolarization": 6770,
      "Ġnecessarily": 6771,
      "^*(": 6772,
      "burg": 6773,
      "ĠBook": 6774,
      "ĠRuss": 6775,
      "Po": 6776,
      "ancing": 6777,
      "Ġinstall": 6778,
      "Ġspac": 6779,
      "apping": 6780,
      "ĠBecause": 6781,
      "Ġwrong": 6782,
      "ĠCap": 6783,
      "urally": 6784,
      "VER": 6785,
      "Ġencou": 6786,
      "Cell": 6787,
      "etween": 6788,
      "ĠTime": 6789,
      "Ġreturned": 6790,
      "ducible": 6791,
      "Ġuncertainties": 6792,
      "Em": 6793,
      "ĠFrench": 6794,
      "Ġcop": 6795,
      "ATION": 6796,
      "iem": 6797,
      "ĠIS": 6798,
      "Ġagents": 6799,
      "Ġdiscrim": 6800,
      "NE": 6801,
      "Ġwal": 6802,
      "comput": 6803,
      "Results": 6804,
      "ĠFrance": 6805,
      "lead": 6806,
      "pan": 6807,
      "Left": 6808,
      "Ġtrust": 6809,
      "ĠEX": 6810,
      "Ġreprodu": 6811,
      "};$": 6812,
      "Ġreached": 6813,
      "Ġsaying": 6814,
      "Ġtrace": 6815,
      "!]": 6816,
      "FONT": 6817,
      "Create": 6818,
      "Ġschools": 6819,
      "Ġemphas": 6820,
      "cline": 6821,
      "Ġsubgroup": 6822,
      "ĠRich": 6823,
      "ttp": 6824,
      "Ġcomplic": 6825,
      "Ġtend": 6826,
      "rical": 6827,
      "Ġcompat": 6828,
      "Par": 6829,
      "$-$": 6830,
      "plane": 6831,
      "ĠAfrica": 6832,
      ".\\\\": 6833,
      "Ġideas": 6834,
      "elect": 6835,
      "ander": 6836,
      "eger": 6837,
      "Ġisol": 6838,
      "Ġbranch": 6839,
      "car": 6840,
      "Ġgravitational": 6841,
      "ny": 6842,
      "Ga": 6843,
      "RL": 6844,
      "Ġstore": 6845,
      "ĠHiggs": 6846,
      "chmark": 6847,
      "Ġparents": 6848,
      "Ġ\\,\\": 6849,
      "Ġcontinued": 6850,
      "Ġimproved": 6851,
      "ĠWil": 6852,
      "Ġdetector": 6853,
      "Ġminor": 6854,
      "ĠSur": 6855,
      "quant": 6856,
      "Ġquickly": 6857,
      "Ġreferred": 6858,
      "Ġplaying": 6859,
      "ĠBen": 6860,
      "Ġsafety": 6861,
      "dependence": 6862,
      "|^{": 6863,
      "irmed": 6864,
      "ĠDec": 6865,
      "Ġpatterns": 6866,
      "Ġchallenge": 6867,
      "zer": 6868,
      "Ġow": 6869,
      "Ġperturbation": 6870,
      "Ġpurposes": 6871,
      "Ġreplaced": 6872,
      "ĠIndian": 6873,
      "$.}": 6874,
      "~(\\": 6875,
      "Ġgrowing": 6876,
      "Ġisn": 6877,
      "ĠBer": 6878,
      "Ġorders": 6879,
      "Ġprofiles": 6880,
      "dev": 6881,
      "Ġpolicies": 6882,
      "ano": 6883,
      "Ġadopted": 6884,
      "Ġjournal": 6885,
      "Ġdra": 6886,
      "ĠPhil": 6887,
      "Ġbr": 6888,
      "Ġapparent": 6889,
      "ptr": 6890,
      "Ġmixed": 6891,
      "Ġcharged": 6892,
      "downarrow": 6893,
      "params": 6894,
      "arios": 6895,
      "Ġremoved": 6896,
      "Ġdu": 6897,
      "Ġfrag": 6898,
      "Ġsizes": 6899,
      "cluded": 6900,
      "points": 6901,
      "javascript": 6902,
      "Ġdescribes": 6903,
      "corollary": 6904,
      "'ve": 6905,
      "riter": 6906,
      "Ġdisease": 6907,
      "ptic": 6908,
      "Ġteac": 6909,
      "mn": 6910,
      "ĠCongress": 6911,
      "Ġadjust": 6912,
      "Bundle": 6913,
      "sd": 6914,
      "Child": 6915,
      "Ġrese": 6916,
      "Controller": 6917,
      "âĢĿ.": 6918,
      "ĠKe": 6919,
      "PL": 6920,
      "INT": 6921,
      "Vis": 6922,
      "Ġconflic": 6923,
      "Ġdead": 6924,
      "Ġgeneric": 6925,
      "Ġhidden": 6926,
      "Ġdevices": 6927,
      "ĠCommittee": 6928,
      "Ġpropos": 6929,
      "Ġtemperatures": 6930,
      "rob": 6931,
      "Ġmoved": 6932,
      "Ġcitiz": 6933,
      "Ġrational": 6934,
      "ĠOver": 6935,
      "'m": 6936,
      "ults": 6937,
      "parallel": 6938,
      "ĠOpen": 6939,
      "inate": 6940,
      "Ġdedu": 6941,
      "ĠĠĠĠĠĠĠĠĠĠĠĠĠĠĠĠĠĠĠĠĠĠĠĠĠĠĠĠĠĠĠĠĠĠĠĠĠĠĠĠĠĠĠĠĠĠĠĠĠĠĠĠĠĠĠĠĠĠĠĠĠĠĠĠ": 6942,
      "Ġreports": 6943,
      "nol": 6944,
      "Ġunion": 6945,
      "Ġ_{\\": 6946,
      "Ġregarding": 6947,
      "Ġmedium": 6948,
      "1994": 6949,
      "Top": 6950,
      "ibr": 6951,
      "Ġalone": 6952,
      "strap": 6953,
      "Ġwavelength": 6954,
      "imits": 6955,
      "omy": 6956,
      "Ġagree": 6957,
      "uning": 6958,
      "Ġregist": 6959,
      "Sche": 6960,
      "ĠEm": 6961,
      "Ġalt": 6962,
      "ĠSU": 6963,
      "Ġchallenges": 6964,
      "110": 6965,
      "TO": 6966,
      "finite": 6967,
      "Ġprime": 6968,
      "orig": 6969,
      "Local": 6970,
      "inger": 6971,
      "classes": 6972,
      "Ġnotion": 6973,
      "ribe": 6974,
      "Ġ<!--": 6975,
      "Ġeveryone": 6976,
      "arian": 6977,
      "ootstrap": 6978,
      "ĠBel": 6979,
      "Ġoffset": 6980,
      "Ġrock": 6981,
      "negative": 6982,
      "loc": 6983,
      "ĠGermany": 6984,
      "Assum": 6985,
      "plet": 6986,
      "sole": 6987,
      "gather": 6988,
      "My": 6989,
      "upport": 6990,
      "ĠDirector": 6991,
      "SA": 6992,
      "itions": 6993,
      "isson": 6994,
      "Ġbands": 6995,
      "Ġwind": 6996,
      "Ġstack": 6997,
      "Row": 6998,
      "Ġscope": 6999,
      "backslash": 7000,
      "}$\\": 7001,
      "Ġcategories": 7002,
      "Ġhous": 7003,
      "Ġexpressions": 7004,
      ")(\\": 7005,
      "Ġexplore": 7006,
      "Ġseven": 7007,
      "PRO": 7008,
      "Output": 7009,
      "ĠSecond": 7010,
      "ĠSuppose": 7011,
      "RI": 7012,
      "Ġsec": 7013,
      "Ġinteract": 7014,
      "hold": 7015,
      "obs": 7016,
      "Ġexplan": 7017,
      "Ġthous": 7018,
      "Ġanom": 7019,
      "Ġhum": 7020,
      "Ġdemonstrate": 7021,
      "Ġquantity": 7022,
      "|$": 7023,
      "Ġtools": 7024,
      "ABLE": 7025,
      "Ġtoward": 7026,
      "service": 7027,
      "SON": 7028,
      "Bo": 7029,
      "iling": 7030,
      "Ġsignals": 7031,
      "ĠSat": 7032,
      "Ġstories": 7033,
      "ĠUnion": 7034,
      "Ġvacuum": 7035,
      "}$;": 7036,
      "PD": 7037,
      "\").": 7038,
      "\\|_": 7039,
      "Ġaffected": 7040,
      "ani": 7041,
      "ĠAustralia": 7042,
      "Ġsend": 7043,
      "Ġsimultane": 7044,
      "Ġreasonable": 7045,
      "Ġuniversal": 7046,
      "rich": 7047,
      "ĠEven": 7048,
      "Ġevaluated": 7049,
      "short": 7050,
      "airs": 7051,
      "Ġentries": 7052,
      "////////////////": 7053,
      "Ġnormalized": 7054,
      "Ġcorpor": 7055,
      "standing": 7056,
      "Ġtransmission": 7057,
      "Ġatoms": 7058,
      "clip": 7059,
      "abeled": 7060,
      "Ġconfigurations": 7061,
      "ĠAlgorithm": 7062,
      "Ġuniformly": 7063,
      "enerate": 7064,
      "Ġclimate": 7065,
      "iveness": 7066,
      "claim": 7067,
      "arithm": 7068,
      "Ã¡": 7069,
      "rence": 7070,
      "Ġexplo": 7071,
      "ita": 7072,
      ")}(\\": 7073,
      "ona": 7074,
      "ago": 7075,
      "ĠGeorge": 7076,
      "circle": 7077,
      "Ġbenefit": 7078,
      "Ġelectrons": 7079,
      "component": 7080,
      "Ġhappen": 7081,
      "Ġunless": 7082,
      "raz": 7083,
      "Ġlies": 7084,
      "Ġouter": 7085,
      "Ġattract": 7086,
      "Ġcandidates": 7087,
      "ĠGerman": 7088,
      "Ġfailed": 7089,
      "ĠAnt": 7090,
      "Ġmainly": 7091,
      "uns": 7092,
      "Ġaw": 7093,
      "ĠHREF": 7094,
      "ĠEducation": 7095,
      "Ġidentical": 7096,
      "cel": 7097,
      "uparrow": 7098,
      "Ġneutrino": 7099,
      "Ġsuppose": 7100,
      "Sum": 7101,
      "Ġtechnical": 7102,
      "Equals": 7103,
      "ĠOffice": 7104,
      "Ġmetrics": 7105,
      "Ġscene": 7106,
      "Ġcombin": 7107,
      "Ġdependent": 7108,
      "Ġconfidence": 7109,
      "Ġfluid": 7110,
      "Fl": 7111,
      "Ġpackage": 7112,
      "Ġiniti": 7113,
      "ĠPort": 7114,
      "white": 7115,
      "ĠLy": 7116,
      "Ġindices": 7117,
      "ĠNetwork": 7118,
      "Ġ{}": 7119,
      "Cal": 7120,
      "ĠĠĠĠĠĠĠĠĠĠĠĠĠĠĠĠĠĠĠĠĠĠĠĠĠĠĠĠĠĠĠĠĠĠĠ": 7121,
      "Ġminutes": 7122,
      "Ġlisted": 7123,
      "nections": 7124,
      "ĠHistory": 7125,
      "Ġdensities": 7126,
      "BR": 7127,
      "Ġgir": 7128,
      "ĠTex": 7129,
      "pop": 7130,
      "Ġresearc": 7131,
      "IO": 7132,
      "match": 7133,
      "ĠMost": 7134,
      "instance": 7135,
      "Ġplans": 7136,
      "Ġcomments": 7137,
      "'_{": 7138,
      "&&\\": 7139,
      "Ġtour": 7140,
      "Ġsetup": 7141,
      "lood": 7142,
      "opes": 7143,
      "Ġopin": 7144,
      "Ġepis": 7145,
      "direct": 7146,
      "Ġreader": 7147,
      "Ġeventually": 7148,
      "Ġrect": 7149,
      "Ġdecided": 7150,
      "Ġmissing": 7151,
      "propto": 7152,
      "$^{": 7153,
      "Ġiteration": 7154,
      "document": 7155,
      "Ġphases": 7156,
      "usal": 7157,
      "ĠTHE": 7158,
      "Ġsurround": 7159,
      ")}.": 7160,
      "global": 7161,
      "ĠSD": 7162,
      "ua": 7163,
      "Ġspent": 7164,
      "She": 7165,
      "there": 7166,
      "ĠDM": 7167,
      "Ġeconomy": 7168,
      "container": 7169,
      "za": 7170,
      "Ġplaces": 7171,
      "Pe": 7172,
      "oom": 7173,
      "\\!\\": 7174,
      "128": 7175,
      "Ġ---": 7176,
      "Ġserve": 7177,
      "2022": 7178,
      "Ġweeks": 7179,
      "lick": 7180,
      "jecture": 7181,
      "expected": 7182,
      "pired": 7183,
      "Ġatmosp": 7184,
      "Ġessentially": 7185,
      "Ġenter": 7186,
      "ME": 7187,
      "*}[": 7188,
      "continu": 7189,
      "hang": 7190,
      "Ġcircum": 7191,
      "Ġpurch": 7192,
      ";$": 7193,
      "Ġanalyz": 7194,
      "Ġfol": 7195,
      "Ġdrop": 7196,
      "never": 7197,
      "Ġsomew": 7198,
      "1993": 7199,
      "Ġ{@": 7200,
      "styles": 7201,
      "ĠAtt": 7202,
      "Valid": 7203,
      "mathit": 7204,
      "{(\\": 7205,
      "hfill": 7206,
      "ulture": 7207,
      "@{": 7208,
      "Ġdense": 7209,
      "ĠChinese": 7210,
      "Inst": 7211,
      "Ġperiodic": 7212,
      "CF": 7213,
      "Ġempir": 7214,
      "eness": 7215,
      "Ġchanging": 7216,
      "aker": 7217,
      "Ġcoupled": 7218,
      "Ġhund": 7219,
      ")).": 7220,
      "unct": 7221,
      "brid": 7222,
      "ipeline": 7223,
      "ativistic": 7224,
      "Ġdot": 7225,
      "dep": 7226,
      "Ġaccret": 7227,
      "Ġfeedback": 7228,
      "Ġ}}": 7229,
      "Ġinterpretation": 7230,
      "Ġbudget": 7231,
      "binom": 7232,
      "Ġmostly": 7233,
      "Ġabsorption": 7234,
      "ĠMart": 7235,
      "ĠFourier": 7236,
      "Ġmixing": 7237,
      "Ġcontinuum": 7238,
      "Ġdecrease": 7239,
      "ditionally": 7240,
      "GS": 7241,
      "HC": 7242,
      "enses": 7243,
      "EQ": 7244,
      "ĠÂ§": 7245,
      "member": 7246,
      "ucl": 7247,
      "Ġelim": 7248,
      "Button": 7249,
      "stood": 7250,
      "modules": 7251,
      "va": 7252,
      "Ġconclusion": 7253,
      "Ġfitting": 7254,
      "Tag": 7255,
      "Dep": 7256,
      "jective": 7257,
      "Ġurl": 7258,
      "Can": 7259,
      "&=&\\": 7260,
      "sey": 7261,
      "Ġdatabase": 7262,
      "gin": 7263,
      "Ġsuggested": 7264,
      "Ġgenerating": 7265,
      "Ġparties": 7266,
      "Ġquot": 7267,
      "They": 7268,
      "kl": 7269,
      "thon": 7270,
      "(&": 7271,
      ")--(": 7272,
      "Ġsen": 7273,
      "$^": 7274,
      "$}}": 7275,
      "Ġclaims": 7276,
      "exists": 7277,
      "Ġintermediate": 7278,
      "}.}": 7279,
      "typ": 7280,
      "Ġplas": 7281,
      "igu": 7282,
      "Ġspan": 7283,
      "Ġcapture": 7284,
      "invariant": 7285,
      "Ġreduces": 7286,
      "Listener": 7287,
      "ĠMinister": 7288,
      "road": 7289,
      "ĠMus": 7290,
      "ĠMichael": 7291,
      "instein": 7292,
      "ĠRead": 7293,
      "reference": 7294,
      "square": 7295,
      "Ġdeviation": 7296,
      "ĠMax": 7297,
      "possible": 7298,
      "Ġtail": 7299,
      "_{+": 7300,
      "Ġdirections": 7301,
      "require": 7302,
      "Ġdespite": 7303,
      "Ġcommut": 7304,
      "ĠJournal": 7305,
      "Comp": 7306,
      "Ġseparation": 7307,
      "ĠGreat": 7308,
      "jpg": 7309,
      "ĠConsider": 7310,
      "Ġdiam": 7311,
      "Length": 7312,
      "Ġdeb": 7313,
      "ORT": 7314,
      "remove": 7315,
      "Ġpages": 7316,
      "regular": 7317,
      "Ġrecords": 7318,
      "Ġbenefits": 7319,
      "sample": 7320,
      "chor": 7321,
      "SH": 7322,
      "gment": 7323,
      "ture": 7324,
      "Ġincome": 7325,
      "Ġinvestigation": 7326,
      "ĠGra": 7327,
      "ĠChristian": 7328,
      "Style": 7329,
      "Task": 7330,
      "ĠCLASS": 7331,
      "ike": 7332,
      "Ġbill": 7333,
      "Ġfrequencies": 7334,
      "sequent": 7335,
      "KE": 7336,
      "Ġinvolving": 7337,
      "Ġattacks": 7338,
      "RA": 7339,
      "Mem": 7340,
      "}/\\": 7341,
      "ĠSuper": 7342,
      "Ġturns": 7343,
      "Ġbeaut": 7344,
      "Pa": 7345,
      "').": 7346,
      "Ġcompleted": 7347,
      "sych": 7348,
      "Ġopposite": 7349,
      "lik": 7350,
      "tained": 7351,
      "clusive": 7352,
      "Ġoffers": 7353,
      "Ġ{$\\": 7354,
      "ĠBoth": 7355,
      "room": 7356,
      "Ġ\\|\\": 7357,
      "Ġformulation": 7358,
      "menu": 7359,
      "Ġvisible": 7360,
      "ĠReview": 7361,
      "MT": 7362,
      "})^{": 7363,
      "Ġfirm": 7364,
      "Ġresidual": 7365,
      "Ġinnov": 7366,
      "GeV": 7367,
      "Ġgeometric": 7368,
      "Ġconvolution": 7369,
      "root": 7370,
      "andemic": 7371,
      "vo": 7372,
      "ounds": 7373,
      "ĠLog": 7374,
      "Ġquadratic": 7375,
      "Layout": 7376,
      "ams": 7377,
      "=\\{": 7378,
      "mf": 7379,
      "Ġadvers": 7380,
      "Ġanalytic": 7381,
      "Ġmeas": 7382,
      "Ġlowest": 7383,
      "oton": 7384,
      "Ġrecommend": 7385,
      "ĠEarth": 7386,
      "rating": 7387,
      "Ġspeech": 7388,
      "ĠJack": 7389,
      "Ġstraightforward": 7390,
      "Ġhomogeneous": 7391,
      "Ġdispersion": 7392,
      "Ġdiss": 7393,
      "UI": 7394,
      "$\\\\": 7395,
      "Ġrace": 7396,
      "Ġscenarios": 7397,
      "Non": 7398,
      "Ġdepict": 7399,
      "endif": 7400,
      "measure": 7401,
      "risis": 7402,
      "Ġleader": 7403,
      "Di": 7404,
      "ĠArray": 7405,
      "Ġwasn": 7406,
      "ĠMo": 7407,
      "}^{+": 7408,
      "Dec": 7409,
      "Ġfailure": 7410,
      "iller": 7411,
      "Ġsummary": 7412,
      "insic": 7413,
      "wave": 7414,
      "Ġaware": 7415,
      "orial": 7416,
      "ĠTimes": 7417,
      "ĠDE": 7418,
      "Ġmetall": 7419,
      "Ġplaced": 7420,
      "ermi": 7421,
      "arity": 7422,
      "sep": 7423,
      "herical": 7424,
      "Ġtag": 7425,
      "Open": 7426,
      "Update": 7427,
      "Ġfocused": 7428,
      "Ġdecreases": 7429,
      "ĠGoogle": 7430,
      "Ġsolving": 7431,
      "stackrel": 7432,
      "domain": 7433,
      "Ġaccretion": 7434,
      "Ġcert": 7435,
      "istan": 7436,
      ".$$": 7437,
      "Ġintegrated": 7438,
      "Ġindicated": 7439,
      "BO": 7440,
      "Ġdiffusion": 7441,
      "DO": 7442,
      "tz": 7443,
      "$'": 7444,
      "Ġinstances": 7445,
      "Ġperhaps": 7446,
      "Column": 7447,
      "ications": 7448,
      "ubble": 7449,
      "ĠBusiness": 7450,
      "Ġprofessional": 7451,
      "psh": 7452,
      "Each": 7453,
      "awa": 7454,
      "Ġwife": 7455,
      "1992": 7456,
      "Ġcast": 7457,
      "Ġmathemat": 7458,
      "Ġsigned": 7459,
      "256": 7460,
      "Select": 7461,
      "Ġ[]": 7462,
      "```": 7463,
      "Ġcommerc": 7464,
      "Ġverify": 7465,
      "ĠMem": 7466,
      "Ġextent": 7467,
      "ni": 7468,
      "ĠĠĠĠĠĠĠĠĠĠĠĠĠĠĠĠĠĠĠĠĠ": 7469,
      "Ġmanufact": 7470,
      "Ġproportional": 7471,
      "dens": 7472,
      "180": 7473,
      "lower": 7474,
      "ĠSociety": 7475,
      "125": 7476,
      "Ġcalls": 7477,
      "ĠAPI": 7478,
      "resp": 7479,
      "hent": 7480,
      "Ġsensitive": 7481,
      "Ġprecision": 7482,
      "stain": 7483,
      "lip": 7484,
      "Des": 7485,
      "$\\,": 7486,
      "_.": 7487,
      "Ġattribute": 7488,
      "Ġfaith": 7489,
      "Ġappoint": 7490,
      "ĠMal": 7491,
      "onald": 7492,
      "ĠLicense": 7493,
      "<?": 7494,
      "Ġpractical": 7495,
      "Ġinvestment": 7496,
      "Ġexpectation": 7497,
      "paper": 7498,
      "Ġsubt": 7499,
      "ĠAnn": 7500,
      "Ġpush": 7501,
      "Ġdirected": 7502,
      "just": 7503,
      "Ġaspects": 7504,
      "Ġpowerful": 7505,
      "Ġhappens": 7506,
      "offset": 7507,
      "Ġeth": 7508,
      "DC": 7509,
      "Ġturned": 7510,
      "ãģ": 7511,
      "Ġinstant": 7512,
      "Ġtriang": 7513,
      "Ġcreating": 7514,
      "multline": 7515,
      "aud": 7516,
      "varrho": 7517,
      "eds": 7518,
      "Ġmill": 7519,
      "leftarrow": 7520,
      "ceil": 7521,
      "Ġpolynomials": 7522,
      "ĠAfrican": 7523,
      "Ġrig": 7524,
      "Ġtrial": 7525,
      "URL": 7526,
      "ĠYear": 7527,
      "comes": 7528,
      "Ġhierarch": 7529,
      "Ġ!==": 7530,
      "Ġconvent": 7531,
      "ko": 7532,
      "eries": 7533,
      "ĠProject": 7534,
      "Ġirreducible": 7535,
      "ogram": 7536,
      "bor": 7537,
      "Ġsky": 7538,
      "density": 7539,
      "Ġextremely": 7540,
      "outhern": 7541,
      "Ġlocations": 7542,
      "Ġasymm": 7543,
      "Ġtransitions": 7544,
      "Ġbirth": 7545,
      "itation": 7546,
      "Ġstrategies": 7547,
      "since": 7548,
      "theless": 7549,
      "Ġallowing": 7550,
      "should": 7551,
      "ĠFil": 7552,
      "ĠRussian": 7553,
      "Ġmission": 7554,
      "Ġstrictly": 7555,
      "Ġbaseline": 7556,
      "different": 7557,
      "ilation": 7558,
      "functions": 7559,
      "buf": 7560,
      "Ġfont": 7561,
      "Ġdigital": 7562,
      "According": 7563,
      "ĠDen": 7564,
      "pload": 7565,
      "CON": 7566,
      "ĠRev": 7567,
      "Ġmolecular": 7568,
      "Ġcorrelations": 7569,
      "Url": 7570,
      "uple": 7571,
      "!!": 7572,
      "Ġcoverage": 7573,
      "rage": 7574,
      "Rep": 7575,
      "smallskip": 7576,
      "ĠTwo": 7577,
      "Ġconjug": 7578,
      "ql": 7579,
      "ipart": 7580,
      "Parameter": 7581,
      "Entity": 7582,
      "Although": 7583,
      "FL": 7584,
      "ĠTexas": 7585,
      "Mon": 7586,
      "phase": 7587,
      "âĢĿ,": 7588,
      "ĠGR": 7589,
      "ĠLagrangian": 7590,
      "cp": 7591,
      "ett": 7592,
      "ART": 7593,
      "Ġ$^{": 7594,
      "power": 7595,
      "Ġordered": 7596,
      "riminal": 7597,
      "aps": 7598,
      "Ġlatest": 7599,
      "midrule": 7600,
      "ests": 7601,
      "have": 7602,
      "Ġexceed": 7603,
      "Ġautomat": 7604,
      "icine": 7605,
      "Ġtemporal": 7606,
      "Ġimprovement": 7607,
      "Ġvote": 7608,
      "Web": 7609,
      "Ut": 7610,
      "fields": 7611,
      "255": 7612,
      "ao": 7613,
      "Ġrecover": 7614,
      "PH": 7615,
      "ERR": 7616,
      "Ġissu": 7617,
      "Ġprincipal": 7618,
      "itness": 7619,
      "ĠPhys": 7620,
      "Ġarri": 7621,
      "Ġcryst": 7622,
      "Ġstatements": 7623,
      "BL": 7624,
      "look": 7625,
      "ĠJer": 7626,
      "Ġaggreg": 7627,
      "represent": 7628,
      "isted": 7629,
      "Car": 7630,
      "RR": 7631,
      "Ġanc": 7632,
      "ĠĠĠĠĠĠĠĠĠĠĠĠĠĠĠĠĠĠĠĠ": 7633,
      "COL": 7634,
      "Mode": 7635,
      "card": 7636,
      "icular": 7637,
      "chain": 7638,
      "Ġsensitivity": 7639,
      "textnormal": 7640,
      "ĠSocial": 7641,
      "Ġmoments": 7642,
      "SF": 7643,
      "Ġbalance": 7644,
      "Ġtopology": 7645,
      "Ġtreated": 7646,
      "Ġcamp": 7647,
      "Ġcolumns": 7648,
      "Ġ~\\": 7649,
      "allow": 7650,
      "lope": 7651,
      "Ġorthogonal": 7652,
      "Ġorbital": 7653,
      "when": 7654,
      "isher": 7655,
      "elligence": 7656,
      "Ġ\\{\\": 7657,
      "\\},": 7658,
      "vents": 7659,
      "Ġvariations": 7660,
      ")&": 7661,
      "ĠHuman": 7662,
      "Ġspecifically": 7663,
      "Ġalgebraic": 7664,
      "ĠOper": 7665,
      "Ġeffectively": 7666,
      "ĠRet": 7667,
      "Ġmaster": 7668,
      "ingly": 7669,
      "attr": 7670,
      "ensus": 7671,
      "Ġsystematic": 7672,
      "Ġ\\[": 7673,
      "oved": 7674,
      "MF": 7675,
      "Chang": 7676,
      "ĠCorollary": 7677,
      "Ġglu": 7678,
      "itt": 7679,
      "parse": 7680,
      "Long": 7681,
      "Ġtemplate": 7682,
      "etch": 7683,
      "Ġderivatives": 7684,
      ":</": 7685,
      "Ġmodeling": 7686,
      "Ġperspective": 7687,
      "Hom": 7688,
      "Filter": 7689,
      "Ġcrucial": 7690,
      "Ġlock": 7691,
      "istance": 7692,
      "Ġplays": 7693,
      "Ġsession": 7694,
      "Ġgrand": 7695,
      "Ġtranslation": 7696,
      "Us": 7697,
      "ĠMary": 7698,
      "Ġturb": 7699,
      "Ġcontribute": 7700,
      "Ġdefines": 7701,
      "hl": 7702,
      "Ġsustain": 7703,
      "Ġtang": 7704,
      "Ġneutron": 7705,
      "ĠRad": 7706,
      "Ġfelt": 7707,
      "ĠBr": 7708,
      "green": 7709,
      "common": 7710,
      "Ġemployed": 7711,
      "Ġacad": 7712,
      "001": 7713,
      "ĠGr": 7714,
      "ĠAward": 7715,
      "Rev": 7716,
      "}[!": 7717,
      "Ġrecorded": 7718,
      "ĠĠčĊ": 7719,
      "Ġpaint": 7720,
      "Ġstock": 7721,
      "ĠParty": 7722,
      "Ġclin": 7723,
      "ortunately": 7724,
      "Ġwidely": 7725,
      "cover": 7726,
      "Ġatta": 7727,
      "Ġacting": 7728,
      "kind": 7729,
      "window": 7730,
      "indu": 7731,
      "Ġinstr": 7732,
      "160": 7733,
      "ĠAcc": 7734,
      "Ġlikelihood": 7735,
      "Ġsimulated": 7736,
      "ĠDuring": 7737,
      "Ġpeace": 7738,
      "\\!\\!\\!\\!": 7739,
      "Ġlie": 7740,
      "AE": 7741,
      "Ġprecise": 7742,
      "ĠBrown": 7743,
      "ĠDan": 7744,
      "Ġnarrow": 7745,
      "MD": 7746,
      "ji": 7747,
      "]^": 7748,
      "pres": 7749,
      "Ġenhance": 7750,
      "Ġsal": 7751,
      "Ġuniverse": 7752,
      "Ġletter": 7753,
      "III": 7754,
      "pository": 7755,
      "citealt": 7756,
      "ette": 7757,
      "Ġweighted": 7758,
      "Level": 7759,
      "Ġtransverse": 7760,
      "\\}_{": 7761,
      "250": 7762,
      "ĠRoy": 7763,
      "nolimits": 7764,
      "oday": 7765,
      "opyright": 7766,
      "Ġplanning": 7767,
      "akes": 7768,
      "=\"../../../../../": 7769,
      "Ġsubspace": 7770,
      "}>": 7771,
      "formance": 7772,
      "Ġbre": 7773,
      "Am": 7774,
      "Ġunderstood": 7775,
      "states": 7776,
      "Ġrare": 7777,
      "ĠForm": 7778,
      "iemann": 7779,
      "iance": 7780,
      "Ġdiagrams": 7781,
      "Ġconvers": 7782,
      "Ġrepresenting": 7783,
      "Ġbank": 7784,
      "ĠAmericans": 7785,
      "moment": 7786,
      "leqslant": 7787,
      "ĠUN": 7788,
      "CN": 7789,
      "Ġraise": 7790,
      "spin": 7791,
      "ĠRE": 7792,
      "acob": 7793,
      "Ġchurch": 7794,
      "exec": 7795,
      "spe": 7796,
      "Ġofficials": 7797,
      "FO": 7798,
      "Ġâ": 7799,
      "Ġcovered": 7800,
      "Tree": 7801,
      "XX": 7802,
      "vere": 7803,
      "impl": 7804,
      "ApJ": 7805,
      "Ġelli": 7806,
      "{|": 7807,
      "Ġgenerator": 7808,
      "problem": 7809,
      "Ġepoch": 7810,
      "Ġfunding": 7811,
      "BP": 7812,
      "Ġabsence": 7813,
      "ĠSecretary": 7814,
      "Definition": 7815,
      "Gu": 7816,
      "nost": 7817,
      "Ġtrees": 7818,
      "ĠAlex": 7819,
      "ACK": 7820,
      "Ġlabor": 7821,
      "Ġcollege": 7822,
      "Ġdefinitions": 7823,
      "Go": 7824,
      "Ġspirit": 7825,
      "proto": 7826,
      "Ġsch": 7827,
      "Target": 7828,
      "Address": 7829,
      "Ġadjac": 7830,
      "Ġadm": 7831,
      "ĠFore": 7832,
      "Ġrepeated": 7833,
      "ĠTheir": 7834,
      "Ġrestriction": 7835,
      "Ġcycl": 7836,
      "Ġchance": 7837,
      "Acc": 7838,
      "ena": 7839,
      "ployment": 7840,
      "ĠLou": 7841,
      "Ġstarts": 7842,
      "1980": 7843,
      "Ġjobs": 7844,
      "manif": 7845,
      "Access": 7846,
      "Ġpaid": 7847,
      "aus": 7848,
      "Ġapplicable": 7849,
      "Ġpred": 7850,
      "ĠMex": 7851,
      "Ġcelebr": 7852,
      "ĠMac": 7853,
      "Ġdriving": 7854,
      "Ġpossibly": 7855,
      "cis": 7856,
      "HO": 7857,
      "Ġchoices": 7858,
      "Ġorganizations": 7859,
      "Ġentity": 7860,
      "particle": 7861,
      "rates": 7862,
      "symmetric": 7863,
      "inction": 7864,
      "bc": 7865,
      "Ġcertainly": 7866,
      "irection": 7867,
      "styleshe": 7868,
      "ĠRussia": 7869,
      "Cache": 7870,
      "Ġhuge": 7871,
      "appe": 7872,
      "Ġ})": 7873,
      "Ġcommercial": 7874,
      "\"),": 7875,
      "El": 7876,
      "elian": 7877,
      "imum": 7878,
      "Ġhorizontal": 7879,
      "textup": 7880,
      "++)": 7881,
      "subequations": 7882,
      "Ġelectronic": 7883,
      "ĠAut": 7884,
      "ĠDel": 7885,
      "ĠSecurity": 7886,
      "Ġheard": 7887,
      "pref": 7888,
      "Ġstrugg": 7889,
      "care": 7890,
      "Ġcharacteristics": 7891,
      "Ġtoken": 7892,
      "Ġmus": 7893,
      "sch": 7894,
      "Ġarc": 7895,
      "Position": 7896,
      "STATE": 7897,
      "ronic": 7898,
      "ructions": 7899,
      "modal": 7900,
      "'),": 7901,
      "req": 7902,
      "Ġmarked": 7903,
      "Ke": 7904,
      "Ġcomplement": 7905,
      "ographic": 7906,
      "\\}.": 7907,
      "forming": 7908,
      "ester": 7909,
      "ynamics": 7910,
      "########": 7911,
      "kern": 7912,
      "Ġneutral": 7913,
      "ĠDevelopment": 7914,
      "Ġperforming": 7915,
      "aur": 7916,
      "ĠSing": 7917,
      ",...,": 7918,
      "Ġdecades": 7919,
      "Ġphotons": 7920,
      "Ġdominant": 7921,
      "Script": 7922,
      "ilt": 7923,
      "BU": 7924,
      "rieved": 7925,
      "thick": 7926,
      "Ġpandemic": 7927,
      "Ġappeared": 7928,
      "ĠDon": 7929,
      "ĠLat": 7930,
      "BM": 7931,
      "eder": 7932,
      "Ġexcess": 7933,
      "Ġratios": 7934,
      "apse": 7935,
      "forcement": 7936,
      "Ġtrajectory": 7937,
      "comment": 7938,
      "ĠStep": 7939,
      "Ġrandomly": 7940,
      "Ġanyone": 7941,
      "ĠDistrict": 7942,
      "}^+": 7943,
      "Ġconducted": 7944,
      "Ġer": 7945,
      "venue": 7946,
      "mathtt": 7947,
      "ĠSimilarly": 7948,
      "Provider": 7949,
      "Ġdrive": 7950,
      "ested": 7951,
      "raise": 7952,
      "dash": 7953,
      ")}$.": 7954,
      "Some": 7955,
      "ĠBill": 7956,
      "ĠIslam": 7957,
      "Ġemployees": 7958,
      "Ġupdated": 7959,
      "Ġnorth": 7960,
      ")[": 7961,
      "Ġplus": 7962,
      "Ġded": 7963,
      "Ġreality": 7964,
      "Ġcosmological": 7965,
      "lands": 7966,
      "constra": 7967,
      "Ġfits": 7968,
      "ĠMusic": 7969,
      "rounds": 7970,
      "Ġ\\}": 7971,
      "ura": 7972,
      "Ġ**": 7973,
      "ĠLand": 7974,
      "TC": 7975,
      "irus": 7976,
      "ĠAcad": 7977,
      "ĠProfess": 7978,
      "Ġversus": 7979,
      "Ġsafe": 7980,
      "Ġschedu": 7981,
      "ĠFace": 7982,
      "Ġcharges": 7983,
      "Dat": 7984,
      "Ġpowers": 7985,
      "Ġdemonstrated": 7986,
      "background": 7987,
      "Ġfermion": 7988,
      "bigcup": 7989,
      "ĠIran": 7990,
      ")),": 7991,
      "Ġpermut": 7992,
      "Ġsides": 7993,
      "Ġrestricted": 7994,
      "Ġinstrument": 7995,
      "anglement": 7996,
      "Work": 7997,
      "correspon": 7998,
      "Ġsimilarly": 7999,
      "Ġadministration": 8000,
      "Ġcodes": 8001,
      "Ġtight": 8002,
      "Ġinclusion": 8003,
      "rip": 8004,
      "jected": 8005,
      ")_{\\": 8006,
      "ĠGold": 8007,
      "Ġfourth": 8008,
      "yer": 8009,
      "ĠEU": 8010,
      "Ġknew": 8011,
      "Ġfilms": 8012,
      "Ġcatalog": 8013,
      "kit": 8014,
      "ĠBi": 8015,
      "Ġreferences": 8016,
      "Ġtraffic": 8017,
      "Ġreligious": 8018,
      "house": 8019,
      "ĠEconom": 8020,
      "Types": 8021,
      "eless": 8022,
      "}},\\": 8023,
      "123": 8024,
      "ĠHilbert": 8025,
      "Ġvacc": 8026,
      "_{-\\": 8027,
      "Ġreconstruction": 8028,
      "Ġorientation": 8029,
      "alty": 8030,
      "Ġcreation": 8031,
      "Ġvehicle": 8032,
      "Ġtransformations": 8033,
      "category": 8034,
      "ĠKore": 8035,
      "veloper": 8036,
      "Ġclub": 8037,
      "Ġpretty": 8038,
      "ĠSeries": 8039,
      "ĠMuseum": 8040,
      "ros": 8041,
      "oses": 8042,
      "ĉĉĉĉĉĉĉ": 8043,
      "tax": 8044,
      "note": 8045,
      "world": 8046,
      "ĠĠĠĠĠĠĠĠĠĠĠĠĠĠĠĠĠĠ": 8047,
      "Ġcollected": 8048,
      "correct": 8049,
      "Proposition": 8050,
      "ĠCanad": 8051,
      "Dev": 8052,
      "Ġpull": 8053,
      "issions": 8054,
      "ĠAGN": 8055,
      "Ġscreen": 8056,
      "Ġpixel": 8057,
      "Ġmetal": 8058,
      "ĠTur": 8059,
      "Ġvarying": 8060,
      "Ġfaster": 8061,
      "ĠSol": 8062,
      "Ġschemes": 8063,
      "ĠUV": 8064,
      "Ġdecisions": 8065,
      "Ġviews": 8066,
      "Ġreaction": 8067,
      "Americ": 8068,
      "Ġassigned": 8069,
      "ipped": 8070,
      "Ġjoin": 8071,
      "Ġkept": 8072,
      "tor": 8073,
      "ĠGL": 8074,
      "rency": 8075,
      "illa": 8076,
      "conduct": 8077,
      "Ġlibrary": 8078,
      "})=\\": 8079,
      "ĠEquation": 8080,
      "Ġdistances": 8081,
      "Ġroughly": 8082,
      "chen": 8083,
      "Ġanalyze": 8084,
      "ĠRob": 8085,
      "wt": 8086,
      "Ġarrang": 8087,
      "1991": 8088,
      "ĠSmith": 8089,
      "ĠBank": 8090,
      "Ġsphere": 8091,
      "Ġcallback": 8092,
      "files": 8093,
      "defn": 8094,
      "ĠQue": 8095,
      "afe": 8096,
      "pons": 8097,
      "Ġplant": 8098,
      "Ġcriteria": 8099,
      "Stat": 8100,
      "Ġrequirement": 8101,
      "Ġsurfaces": 8102,
      "ashion": 8103,
      "Ġsto": 8104,
      "initial": 8105,
      "{.": 8106,
      "Ġinvolve": 8107,
      "ĠMethod": 8108,
      "Ġprivacy": 8109,
      "tn": 8110,
      "rb": 8111,
      "ĠEqs": 8112,
      "Ġcaref": 8113,
      "WE": 8114,
      "ĠPeople": 8115,
      "Width": 8116,
      "Sym": 8117,
      "atural": 8118,
      "ĠFlor": 8119,
      "apes": 8120,
      "Ġregression": 8121,
      "scriptscriptstyle": 8122,
      "Ġdeveloping": 8123,
      "Ġconfirmed": 8124,
      "Ġcamera": 8125,
      "ĠSN": 8126,
      "istence": 8127,
      "ĠIII": 8128,
      "Ġclosely": 8129,
      "Met": 8130,
      "Ġalleg": 8131,
      "bot": 8132,
      "prim": 8133,
      "600": 8134,
      "Cref": 8135,
      "Frame": 8136,
      "Ġtransaction": 8137,
      "ĠCR": 8138,
      "Ġatomic": 8139,
      "Ġmonitor": 8140,
      "ctic": 8141,
      "Ġcontinues": 8142,
      "Ġanim": 8143,
      "assum": 8144,
      "ifted": 8145,
      "Ġshell": 8146,
      "ounce": 8147,
      "Ġobj": 8148,
      "cussion": 8149,
      "Ġfarm": 8150,
      "Ġviolence": 8151,
      "Unit": 8152,
      "GE": 8153,
      "shift": 8154,
      "Ġenvironmental": 8155,
      "onav": 8156,
      "Ġflex": 8157,
      "Ġwonder": 8158,
      "Ġhelped": 8159,
      "Ġinference": 8160,
      "enty": 8161,
      "ĠFederal": 8162,
      "returns": 8163,
      "Ġliqu": 8164,
      "mean": 8165,
      "ĠMass": 8166,
      "Server": 8167,
      "Ġready": 8168,
      "Ġoil": 8169,
      "^+$": 8170,
      "ĠRobert": 8171,
      "Ġsubsequent": 8172,
      "ĠDiv": 8173,
      "Ġextracted": 8174,
      "Ġbreaking": 8175,
      "sem": 8176,
      "cross": 8177,
      "ĠDefinition": 8178,
      "Ġdominated": 8179,
      "ĠWeb": 8180,
      "Ġimply": 8181,
      "Ġprotection": 8182,
      "artifact": 8183,
      "ĠId": 8184,
      "Ġuniqu": 8185,
      "asy": 8186,
      "Ġsold": 8187,
      "comb": 8188,
      "olf": 8189,
      "ogg": 8190,
      "ĠFile": 8191,
      "Ġexpos": 8192,
      "entity": 8193,
      "served": 8194,
      "eady": 8195,
      ")>": 8196,
      "Ġstorage": 8197,
      "crit": 8198,
      "Ġinitially": 8199,
      "Enc": 8200,
      "Ġtested": 8201,
      "Ġexcited": 8202,
      "Ġsimplicity": 8203,
      "itors": 8204,
      "Ġfill": 8205,
      "Ġeigenvalue": 8206,
      "ĠSun": 8207,
      "Ġstationary": 8208,
      "ĠÃ": 8209,
      "Ġconfirm": 8210,
      "ĠLife": 8211,
      "Ġvictim": 8212,
      "Ġinvestigated": 8213,
      "Ġbuffer": 8214,
      "ĠSum": 8215,
      "respect": 8216,
      "Ġthin": 8217,
      "Ġestimator": 8218,
      "MO": 8219,
      "Ġnaturally": 8220,
      "ĠUSA": 8221,
      "Ġincident": 8222,
      "ĠMer": 8223,
      "aylor": 8224,
      "ribed": 8225,
      "Ġfigures": 8226,
      "ĠAR": 8227,
      "(_": 8228,
      "Ġremember": 8229,
      "Ġbrother": 8230,
      "Two": 8231,
      "Ġconverges": 8232,
      "nm": 8233,
      "tim": 8234,
      "QL": 8235,
      "Ġresonance": 8236,
      "grav": 8237,
      "Current": 8238,
      "Ġcitizens": 8239,
      "Ġapplies": 8240,
      "Ġcollision": 8241,
      "edy": 8242,
      "ĠAp": 8243,
      "ĠServices": 8244,
      "Mark": 8245,
      "Ġwriter": 8246,
      "Ġemit": 8247,
      "ĠâĢ¦": 8248,
      "ĠInformation": 8249,
      "Ġinputs": 8250,
      "ĠHel": 8251,
      "LR": 8252,
      "Ġdaught": 8253,
      "Ġdt": 8254,
      "Bigg": 8255,
      "Ġdiscussions": 8256,
      "legal": 8257,
      "Ġbenchmark": 8258,
      "Ġhear": 8259,
      "Ġrich": 8260,
      "BH": 8261,
      "Âł": 8262,
      "eller": 8263,
      "Ġsolved": 8264,
      "Ġinvolves": 8265,
      "Other": 8266,
      "ĠSund": 8267,
      "aved": 8268,
      "ĠChild": 8269,
      "=\"-": 8270,
      "101": 8271,
      "etail": 8272,
      "ĠOR": 8273,
      "Ġbusinesses": 8274,
      "iger": 8275,
      "istor": 8276,
      "limit": 8277,
      "ints": 8278,
      "utils": 8279,
      "Ġguid": 8280,
      "Ġkilled": 8281,
      "ffect": 8282,
      "uclide": 8283,
      "Ġhappened": 8284,
      "textsf": 8285,
      "ogen": 8286,
      "Ġannual": 8287,
      "riday": 8288,
      "_{[": 8289,
      "ĠEvery": 8290,
      "Ġthread": 8291,
      "DT": 8292,
      "Ġdocuments": 8293,
      "ĠPet": 8294,
      "Ass": 8295,
      "Ca": 8296,
      "ictionary": 8297,
      "Ġstronger": 8298,
      "Ġphil": 8299,
      "andard": 8300,
      "FS": 8301,
      "pot": 8302,
      ")}$,": 8303,
      "vas": 8304,
      "Another": 8305,
      "ĠAny": 8306,
      "LC": 8307,
      "Prop": 8308,
      "ĠCode": 8309,
      "onavirus": 8310,
      "Search": 8311,
      "Ġcompatible": 8312,
      "Ġenable": 8313,
      "Ġoperating": 8314,
      "Ġcentre": 8315,
      "oust": 8316,
      "\\[\\": 8317,
      "Ġrecognition": 8318,
      "Ġinduction": 8319,
      "Ġproposition": 8320,
      "Bbb": 8321,
      "complete": 8322,
      "single": 8323,
      "Ġsummer": 8324,
      "ĠPy": 8325,
      "Ġsales": 8326,
      "Ġpresents": 8327,
      "Ġpain": 8328,
      "Ġmodules": 8329,
      "ĠRights": 8330,
      "Ġexecution": 8331,
      "period": 8332,
      "ctx": 8333,
      "ugment": 8334,
      "Ġsignature": 8335,
      "Ġcouplings": 8336,
      "reek": 8337,
      "Ġquarter": 8338,
      "Ġcooper": 8339,
      "Ġtopic": 8340,
      "uclidean": 8341,
      "Ġsumm": 8342,
      "Ġjoined": 8343,
      ":(": 8344,
      "Recall": 8345,
      "Ġfloat": 8346,
      "Ġrepresentative": 8347,
      "Ġprison": 8348,
      "Ġswitch": 8349,
      "]=": 8350,
      "Ġexcell": 8351,
      "Ġempirical": 8352,
      "Ġdip": 8353,
      "ĠSal": 8354,
      "Ġalgebras": 8355,
      "double": 8356,
      "Ġcomparable": 8357,
      "ulating": 8358,
      "Ġcrisis": 8359,
      "las": 8360,
      "Ġlogarithm": 8361,
      "ĠIts": 8362,
      "ĠLeague": 8363,
      "Ġpanels": 8364,
      "urt": 8365,
      "sequences": 8366,
      "hs": 8367,
      "ĠEnergy": 8368,
      "Ġflag": 8369,
      "\\,{\\": 8370,
      "Offset": 8371,
      "ĠEnd": 8372,
      "rastructure": 8373,
      "ĠMany": 8374,
      "ĠSpe": 8375,
      "PM": 8376,
      "Ġconnections": 8377,
      "ĠCentral": 8378,
      "BI": 8379,
      "osc": 8380,
      "Ġidentification": 8381,
      "Any": 8382,
      "Ġdrug": 8383,
      "Ġconsisting": 8384,
      "ircles": 8385,
      "}{{\\": 8386,
      "network": 8387,
      "Ġfav": 8388,
      "cknowledg": 8389,
      "Http": 8390,
      "|_": 8391,
      "ĠPolicy": 8392,
      "ĠLin": 8393,
      "Ġsett": 8394,
      "parameters": 8395,
      "ampions": 8396,
      "Ġpp": 8397,
      "rapper": 8398,
      "Ġrespective": 8399,
      "Ġanalys": 8400,
      "resol": 8401,
      "redu": 8402,
      "valued": 8403,
      "'.": 8404,
      "Ġanisot": 8405,
      "ĠMet": 8406,
      "racket": 8407,
      "ĠZe": 8408,
      "Control": 8409,
      "hr": 8410,
      "tail": 8411,
      "Furthermore": 8412,
      "connected": 8413,
      "Ġple": 8414,
      "ĠMil": 8415,
      "Ġphoto": 8416,
      "ĠAL": 8417,
      "ĠRiver": 8418,
      "ĠArab": 8419,
      "Ps": 8420,
      "Ġhor": 8421,
      "Before": 8422,
      "Ġlens": 8423,
      "BE": 8424,
      "Ġensemble": 8425,
      "Ġopportunities": 8426,
      "Ġkinetic": 8427,
      "Ġamplitudes": 8428,
      "Ġexerc": 8429,
      "inear": 8430,
      "reci": 8431,
      "ĠThomas": 8432,
      "Ġsuccessfully": 8433,
      "region": 8434,
      "Ġwish": 8435,
      "Ġhistorical": 8436,
      "Project": 8437,
      "riptor": 8438,
      "ĠTom": 8439,
      "ĠHam": 8440,
      "Ġcat": 8441,
      "Ġpapers": 8442,
      "ĠJud": 8443,
      "Ġ..": 8444,
      "WS": 8445,
      "tex": 8446,
      "ĠManagement": 8447,
      "Ġdestroy": 8448,
      "simple": 8449,
      "CODE": 8450,
      "Ġconcerns": 8451,
      "Ġdefining": 8452,
      "unders": 8453,
      "argin": 8454,
      "Location": 8455,
      "Up": 8456,
      "each": 8457,
      "Ã³": 8458,
      "ĠWal": 8459,
      "Change": 8460,
      "Ġintroduction": 8461,
      "othing": 8462,
      "vdots": 8463,
      "Ġbur": 8464,
      "intro": 8465,
      "Art": 8466,
      "alities": 8467,
      "********************************": 8468,
      "Ġchallenging": 8469,
      "Ġlooks": 8470,
      "organ": 8471,
      "access": 8472,
      "GM": 8473,
      "Ġgeneralization": 8474,
      "found": 8475,
      "Configuration": 8476,
      "Op": 8477,
      "=\"../../../../../../": 8478,
      "Ġleadership": 8479,
      "Ġscript": 8480,
      "Ġscores": 8481,
      "Pos": 8482,
      "numer": 8483,
      "approxim": 8484,
      "Ġcharacterized": 8485,
      "Ġnumerous": 8486,
      "Ġisomorphic": 8487,
      "Ġinterpol": 8488,
      "pay": 8489,
      "^*_": 8490,
      "Ġeditor": 8491,
      "'ll": 8492,
      "Ġplotted": 8493,
      "Ġsymbols": 8494,
      "Ġsouth": 8495,
      "ZE": 8496,
      "FC": 8497,
      "hu": 8498,
      "Ġfunctor": 8499,
      "Mar": 8500,
      "Ġdrawn": 8501,
      "gets": 8502,
      "Ġofficer": 8503,
      "Ġdomains": 8504,
      "Ġresearchers": 8505,
      "Ġunitary": 8506,
      "Ġcancer": 8507,
      "Ġsave": 8508,
      "groups": 8509,
      "ilding": 8510,
      "ĠExec": 8511,
      "Ġabstract": 8512,
      "rust": 8513,
      "Ġraised": 8514,
      "'$.": 8515,
      "channel": 8516,
      "ĠMiss": 8517,
      "Ġcauses": 8518,
      "template": 8519,
      "UM": 8520,
      "Ġdefend": 8521,
      "Properties": 8522,
      "Ġdivis": 8523,
      "ĠYour": 8524,
      "syn": 8525,
      "sv": 8526,
      "acle": 8527,
      "Ġopening": 8528,
      "Ġsecondary": 8529,
      "\\|^": 8530,
      "ĠAdminist": 8531,
      "dashed": 8532,
      "izable": 8533,
      "Ġillustrated": 8534,
      "transform": 8535,
      "}<": 8536,
      "orent": 8537,
      "CK": 8538,
      "Ġdivided": 8539,
      "Ġprobabilities": 8540,
      "Ġcontrolled": 8541,
      "Ġpotentially": 8542,
      "Ġmeta": 8543,
      "Ġauthority": 8544,
      "IGN": 8545,
      "ĠCre": 8546,
      "orney": 8547,
      "Ġcovering": 8548,
      "determ": 8549,
      "above": 8550,
      "Ġterror": 8551,
      "}})$": 8552,
      "ĠTop": 8553,
      "ĠFermi": 8554,
      "bool": 8555,
      "learning": 8556,
      "notin": 8557,
      "Ġcomplicated": 8558,
      "special": 8559,
      "Ġfra": 8560,
      "Ġmessages": 8561,
      "Ġcultural": 8562,
      "total": 8563,
      "ĠHill": 8564,
      "fined": 8565,
      "hard": 8566,
      "Ġwhom": 8567,
      "ĠCNN": 8568,
      "ĠFrancis": 8569,
      "odies": 8570,
      "ĠCase": 8571,
      "device": 8572,
      "anguages": 8573,
      "ws": 8574,
      "Ġteams": 8575,
      "Ġchiral": 8576,
      "ALL": 8577,
      "()->": 8578,
      "IE": 8579,
      "]);": 8580,
      "Ġrenormal": 8581,
      "itudes": 8582,
      "ĠComput": 8583,
      "ĠWestern": 8584,
      "Ġfinds": 8585,
      "prov": 8586,
      "Ġextreme": 8587,
      "mut": 8588,
      "ãĥ": 8589,
      "ĠFlorida": 8590,
      "cache": 8591,
      "Ġemail": 8592,
      "Ġproduces": 8593,
      "Ġscientific": 8594,
      "Var": 8595,
      "construct": 8596,
      "ĠDet": 8597,
      "ĠTor": 8598,
      "Ġsimilarity": 8599,
      "Ġmur": 8600,
      "fold": 8601,
      "Main": 8602,
      "ien": 8603,
      "Ġcloser": 8604,
      "ĠGlobal": 8605,
      "Ġclustering": 8606,
      "VM": 8607,
      "ĠCarol": 8608,
      "|_{\\": 8609,
      "Ġsimultaneously": 8610,
      "iful": 8611,
      "stylesheet": 8612,
      ";\\;": 8613,
      "Ġcontradiction": 8614,
      "ethe": 8615,
      "Ġconformal": 8616,
      "$_{\\": 8617,
      "Ġdiscovered": 8618,
      "Ġstabil": 8619,
      "Ġslope": 8620,
      "Ġtot": 8621,
      "Ġsatell": 8622,
      "}{}": 8623,
      "Ġconcerned": 8624,
      "ĠPM": 8625,
      "Ġflows": 8626,
      "aling": 8627,
      "1989": 8628,
      "?âĢĿ": 8629,
      "ibilities": 8630,
      "osoph": 8631,
      "ĠStar": 8632,
      "Ġconcentration": 8633,
      "Ġcomparing": 8634,
      "eval": 8635,
      "cape": 8636,
      "Ġplasma": 8637,
      "Ġspacetime": 8638,
      "flat": 8639,
      "iment": 8640,
      "nowledge": 8641,
      "ĠQCD": 8642,
      "IB": 8643,
      "rg": 8644,
      "independent": 8645,
      "}}=\\": 8646,
      "Ġthinking": 8647,
      "icago": 8648,
      "Ġpark": 8649,
      "Ġmask": 8650,
      "Ġmedian": 8651,
      "ĠInstead": 8652,
      "Ġconsult": 8653,
      "estival": 8654,
      "ĠLong": 8655,
      "ĠBob": 8656,
      "cou": 8657,
      "Ġgenerators": 8658,
      "Ġuns": 8659,
      "ĠFl": 8660,
      "arial": 8661,
      "icrosoft": 8662,
      "prototype": 8663,
      "Ġinterests": 8664,
      "before": 8665,
      "Ġshot": 8666,
      "fort": 8667,
      "Ġattributes": 8668,
      "Ġbroken": 8669,
      "ÃŃ": 8670,
      "Ġorganized": 8671,
      "Ġrows": 8672,
      "Ġmac": 8673,
      "Ġsomewhat": 8674,
      "napsh": 8675,
      "'=": 8676,
      "Opt": 8677,
      "Ġolder": 8678,
      "Ġparticipants": 8679,
      "Ġautomatically": 8680,
      "PECT": 8681,
      "Process": 8682,
      "grid": 8683,
      "nings": 8684,
      "vation": 8685,
      "imately": 8686,
      "Ġvort": 8687,
      "Ġreconstruct": 8688,
      "zen": 8689,
      "Ġsentence": 8690,
      "jk": 8691,
      "artifactId": 8692,
      "Ġpropagation": 8693,
      "Ġduration": 8694,
      "Ġfeas": 8695,
      "between": 8696,
      "task": 8697,
      "ĠĠĠĠĠĠĊ": 8698,
      "Ġpursu": 8699,
      "Font": 8700,
      "oles": 8701,
      "Ġembedded": 8702,
      "requency": 8703,
      "ĠJose": 8704,
      "Ġhospital": 8705,
      "random": 8706,
      "Ġvision": 8707,
      "Phys": 8708,
      "esides": 8709,
      "AF": 8710,
      "ĠGen": 8711,
      "Ġsongs": 8712,
      "ĠSam": 8713,
      "ĠCreate": 8714,
      "Ġcredit": 8715,
      "estic": 8716,
      "also": 8717,
      "ean": 8718,
      "Ġmerg": 8719,
      "Ġencoding": 8720,
      "Bigl": 8721,
      "aset": 8722,
      "Ġconditional": 8723,
      "Ġcub": 8724,
      "token": 8725,
      "ĠGener": 8726,
      "Empty": 8727,
      "sky": 8728,
      "Ġri": 8729,
      "Ġleaves": 8730,
      "resource": 8731,
      "Ġconsideration": 8732,
      "Ġiterations": 8733,
      "Ġdecreasing": 8734,
      "ĠCath": 8735,
      "ĠVirgin": 8736,
      "arest": 8737,
      "Ġbary": 8738,
      "Ġthanks": 8739,
      "Ġargs": 8740,
      "Ġreward": 8741,
      "Ġbrain": 8742,
      "uint": 8743,
      "ĠLos": 8744,
      "|=": 8745,
      "Ġopinion": 8746,
      "ĠTechnology": 8747,
      "Ġgoals": 8748,
      "INE": 8749,
      "Ġdistrict": 8750,
      "kers": 8751,
      "Ġcontrols": 8752,
      "Ġintervals": 8753,
      "Ġatom": 8754,
      "lm": 8755,
      "overset": 8756,
      "Ġjour": 8757,
      "ĠPoisson": 8758,
      "arma": 8759,
      "Ġcritic": 8760,
      "ĠArmy": 8761,
      "Ġdemoc": 8762,
      "=-\\": 8763,
      "Ġentirely": 8764,
      "bd": 8765,
      "Ġintegers": 8766,
      "Diff": 8767,
      "Ġwants": 8768,
      "Container": 8769,
      "Ġexplanation": 8770,
      "ĠRiemann": 8771,
      "Str": 8772,
      "Ġspherical": 8773,
      "TYPE": 8774,
      "ola": 8775,
      "stances": 8776,
      "raq": 8777,
      "orentz": 8778,
      "Ġlargely": 8779,
      "Ġcities": 8780,
      "Bigr": 8781,
      "Ġconvenient": 8782,
      "urance": 8783,
      "will": 8784,
      "Ġturbul": 8785,
      "DL": 8786,
      "connection": 8787,
      "Ġspot": 8788,
      "Ġdiscret": 8789,
      "azine": 8790,
      "\\/": 8791,
      "Ġpool": 8792,
      "Interface": 8793,
      "ĠRun": 8794,
      "TP": 8795,
      "Ġtried": 8796,
      "Ġdut": 8797,
      "loss": 8798,
      "800": 8799,
      ")=(": 8800,
      "cerning": 8801,
      "fortunately": 8802,
      "Ġtrajectories": 8803,
      "Ġjump": 8804,
      "ĠFacebook": 8805,
      "matically": 8806,
      "Module": 8807,
      "Ġfacts": 8808,
      "Ġmechanisms": 8809,
      "ĠMarkov": 8810,
      "ortion": 8811,
      "Ġ&$": 8812,
      "hav": 8813,
      "Ġplease": 8814,
      "bre": 8815,
      "Ġrelationships": 8816,
      "Conn": 8817,
      "connect": 8818,
      "Ġfib": 8819,
      "bx": 8820,
      "closed": 8821,
      "Ġforced": 8822,
      "dest": 8823,
      "ĠYoung": 8824,
      "ĠCla": 8825,
      "Ġful": 8826,
      "Ġcache": 8827,
      "triang": 8828,
      "Ġpseudo": 8829,
      "Ġvalidation": 8830,
      "ĉĉĉĊ": 8831,
      "oving": 8832,
      "poly": 8833,
      "Ġdriven": 8834,
      "Ġneglig": 8835,
      "ĠDirac": 8836,
      "Ġframes": 8837,
      "Ġhands": 8838,
      "vin": 8839,
      "Ġdaily": 8840,
      "Ġvill": 8841,
      "Ġbelongs": 8842,
      "&-": 8843,
      "Ġprepar": 8844,
      "GA": 8845,
      "verage": 8846,
      "Ġoutcome": 8847,
      "Ġcovariance": 8848,
      "Option": 8849,
      "Ġfamous": 8850,
      "enum": 8851,
      "à¤": 8852,
      "estion": 8853,
      "Ġsupply": 8854,
      "Ġgeodes": 8855,
      "Height": 8856,
      "Ġharmonic": 8857,
      "Exec": 8858,
      "tically": 8859,
      "Ġhash": 8860,
      "Ġpresc": 8861,
      "osh": 8862,
      "Ġfunds": 8863,
      "Ġartist": 8864,
      "Ġangles": 8865,
      "radius": 8866,
      "ĠBig": 8867,
      "iden": 8868,
      "Ġvoice": 8869,
      "ĠBG": 8870,
      "Ġparagraph": 8871,
      "leep": 8872,
      "')$": 8873,
      "Port": 8874,
      "Ġpatient": 8875,
      "Ġends": 8876,
      "Ġreads": 8877,
      "Ġappearance": 8878,
      "pub": 8879,
      "Ġseparated": 8880,
      "ented": 8881,
      "scape": 8882,
      "ĠFund": 8883,
      "vskip": 8884,
      "ĠScott": 8885,
      "API": 8886,
      "Fix": 8887,
      "Ġboost": 8888,
      "distribution": 8889,
      "Ġchart": 8890,
      "Ġperturbations": 8891,
      "Description": 8892,
      "Ġcircuit": 8893,
      "riage": 8894,
      "roscopic": 8895,
      "Ġopened": 8896,
      "Ġecho": 8897,
      "Header": 8898,
      "rypt": 8899,
      "erve": 8900,
      "tml": 8901,
      "ras": 8902,
      "Ġlen": 8903,
      "andra": 8904,
      "}\\;": 8905,
      "Ġdefect": 8906,
      "Ġconservation": 8907,
      "1970": 8908,
      "Ġdie": 8909,
      "ĠOffic": 8910,
      "how": 8911,
      ":\"": 8912,
      "Ġtargets": 8913,
      "}~\\": 8914,
      "fn": 8915,
      "Ġblood": 8916,
      "Ġcompre": 8917,
      "Write": 8918,
      "Ġfindings": 8919,
      "Ġzone": 8920,
      "kins": 8921,
      "kip": 8922,
      "complex": 8923,
      "Ġswe": 8924,
      "metric": 8925,
      "blem": 8926,
      "weak": 8927,
      "Ġposterior": 8928,
      "oting": 8929,
      "ads": 8930,
      "pic": 8931,
      "Ġinterior": 8932,
      "debug": 8933,
      "HD": 8934,
      "Ġcompens": 8935,
      "Ġ$\\|": 8936,
      "Ġwitness": 8937,
      "\\,,": 8938,
      "uling": 8939,
      "Ġholes": 8940,
      "Ġuint": 8941,
      "ĠBest": 8942,
      "Sign": 8943,
      "ĠUse": 8944,
      "itled": 8945,
      "equal": 8946,
      "groupId": 8947,
      ")|\\": 8948,
      "Ġfear": 8949,
      "ĠFriday": 8950,
      "Ġcoherent": 8951,
      "ĠExt": 8952,
      "onday": 8953,
      "Ġconflict": 8954,
      "buffer": 8955,
      "Ġarrest": 8956,
      ">,": 8957,
      "Ġsmallest": 8958,
      "COLOR": 8959,
      "Utils": 8960,
      "ĠFurther": 8961,
      "sym": 8962,
      "osis": 8963,
      "Ġoriginally": 8964,
      "umul": 8965,
      "patch": 8966,
      "BB": 8967,
      "None": 8968,
      "Ġcompetition": 8969,
      "Ġvanishes": 8970,
      "ĠObama": 8971,
      "none": 8972,
      "Ġthousands": 8973,
      "Ġparams": 8974,
      "lie": 8975,
      "azz": 8976,
      "Under": 8977,
      "Down": 8978,
      "Ġdecays": 8979,
      "Ġnormalization": 8980,
      "take": 8981,
      ".},": 8982,
      "Ġowners": 8983,
      "Ġboundaries": 8984,
      "phe": 8985,
      "Ġsupports": 8986,
      "below": 8987,
      "Hash": 8988,
      "Ġconventional": 8989,
      "Util": 8990,
      "Ġbuy": 8991,
      "Use": 8992,
      "Ġpet": 8993,
      "Ġwhenever": 8994,
      "ĠSunday": 8995,
      "Ġplots": 8996,
      "Ġrespond": 8997,
      "Ġlabeled": 8998,
      "Ġpassing": 8999,
      "Rightarrow": 9000,
      "liament": 9001,
      "anda": 9002,
      "types": 9003,
      "Ġbus": 9004,
      "ĠWed": 9005,
      "ogether": 9006,
      "internal": 9007,
      "Ġpixels": 9008,
      "Ġgate": 9009,
      "irror": 9010,
      "ĠReturns": 9011,
      "ĠNext": 9012,
      "Ġsplitting": 9013,
      "Ġmanager": 9014,
      "Ġvelocities": 9015,
      "phone": 9016,
      "learly": 9017,
      "evertheless": 9018,
      "Ġperiods": 9019,
      "Ġinstitutions": 9020,
      "hash": 9021,
      "Ġcold": 9022,
      "Ġimmediate": 9023,
      "triangle": 9024,
      "Ġartists": 9025,
      "Order": 9026,
      "alled": 9027,
      "lb": 9028,
      "ĠOnly": 9029,
      "west": 9030,
      "stud": 9031,
      "ĠAngeles": 9032,
      "ĠAnother": 9033,
      "uri": 9034,
      "Ġintrinsic": 9035,
      "tb": 9036,
      "Ġstandards": 9037,
      "Ġpadding": 9038,
      "Ġentanglement": 9039,
      "Ġclients": 9040,
      "alf": 9041,
      "ĠNon": 9042,
      ".(\\": 9043,
      "Ġsurve": 9044,
      "Ġgold": 9045,
      "success": 9046,
      "Range": 9047,
      "Step": 9048,
      "hab": 9049,
      "Ġtelevision": 9050,
      "AND": 9051,
      "ĠBas": 9052,
      "ĠBH": 9053,
      "Gs": 9054,
      "Ġkine": 9055,
      "Ġorbits": 9056,
      "Ġray": 9057,
      "Ġskills": 9058,
      "docs": 9059,
      "bootstrap": 9060,
      "NL": 9061,
      "Ġarticles": 9062,
      "ĠSi": 9063,
      "har": 9064,
      "Multi": 9065,
      "Mr": 9066,
      "ĠHen": 9067,
      "Ġrealized": 9068,
      "ĠEngine": 9069,
      "Ġalloc": 9070,
      "Params": 9071,
      "VAL": 9072,
      "clos": 9073,
      "Ġpuls": 9074,
      "mathbbm": 9075,
      "Ġ}$": 9076,
      "Ġfans": 9077,
      "ĠVis": 9078,
      "ĠJustice": 9079,
      "'$,": 9080,
      "Ġexhibit": 9081,
      "ĠSup": 9082,
      "Ġbra": 9083,
      "ĠFrank": 9084,
      "Ġsexual": 9085,
      "ĠVer": 9086,
      "Ġarise": 9087,
      "Ġissued": 9088,
      "Ġ>=": 9089,
      "ipment": 9090,
      "ĠException": 9091,
      "Ġagency": 9092,
      "Ġexecutive": 9093,
      "ãĤ": 9094,
      "uv": 9095,
      "Ġabundance": 9096,
      "mazon": 9097,
      "rect": 9098,
      "ĠMC": 9099,
      "earning": 9100,
      "Ġmeant": 9101,
      "ĠNov": 9102,
      "ĠAuthor": 9103,
      "physical": 9104,
      "Ġpri": 9105,
      "theory": 9106,
      "ĠRoman": 9107,
      "ĠTwitter": 9108,
      "ĠNGC": 9109,
      "Ġexponent": 9110,
      "changed": 9111,
      "atre": 9112,
      "ĠCam": 9113,
      "Ġmobile": 9114,
      "Ġbecoming": 9115,
      "})_{": 9116,
      "rations": 9117,
      "Ġcriterion": 9118,
      "Ġtalking": 9119,
      "symmetry": 9120,
      "Ġsubsets": 9121,
      "ĠMonte": 9122,
      "Ġowner": 9123,
      "ĠCH": 9124,
      "ifiers": 9125,
      "ĠAgain": 9126,
      "lam": 9127,
      "ĠLO": 9128,
      "ativity": 9129,
      "ĠCanadian": 9130,
      "Ġimplicit": 9131,
      "Pub": 9132,
      "ulas": 9133,
      "perturb": 9134,
      "Ġsenior": 9135,
      "Ġoffered": 9136,
      "Ġtrunc": 9137,
      "erman": 9138,
      "Ġliquid": 9139,
      "Menu": 9140,
      "Ġdistinguish": 9141,
      "ĠWay": 9142,
      "Ġtouch": 9143,
      "Entry": 9144,
      "Ġleaving": 9145,
      "Ġcomposed": 9146,
      "heric": 9147,
      "Thread": 9148,
      "person": 9149,
      "Ġundefined": 9150,
      "Ġmoves": 9151,
      "Ġrecurs": 9152,
      "NAME": 9153,
      "HTML": 9154,
      "Ġcustomers": 9155,
      "separ": 9156,
      "substack": 9157,
      "Ġadjacent": 9158,
      "asion": 9159,
      "]^{": 9160,
      "yan": 9161,
      "Ġaffine": 9162,
      "urable": 9163,
      "ĠWell": 9164,
      "ccc": 9165,
      "Second": 9166,
      "Ġweakly": 9167,
      "}_{{\\": 9168,
      "ĠWomen": 9169,
      "Ġsparse": 9170,
      "ĠPeter": 9171,
      "Ġroots": 9172,
      "Ġinvert": 9173,
      "Ver": 9174,
      "lfloor": 9175,
      "avity": 9176,
      "urday": 9177,
      "panel": 9178,
      "Ġindependently": 9179,
      "ĠCheck": 9180,
      "ĠMad": 9181,
      "Ġintended": 9182,
      "Ġguarantee": 9183,
      "Ġcarbon": 9184,
      "ĠDate": 9185,
      "border": 9186,
      "ä¸": 9187,
      "site": 9188,
      "Num": 9189,
      "Ġproperly": 9190,
      "Ġcrow": 9191,
      "Ġ$<": 9192,
      "ugins": 9193,
      "Ġtick": 9194,
      "unic": 9195,
      "ĠRoad": 9196,
      "'}\\": 9197,
      "dual": 9198,
      ")}_{\\": 9199,
      "Ġdisjoint": 9200,
      "odd": 9201,
      "Ġ}{\\": 9202,
      "Ġdanger": 9203,
      "Ġroll": 9204,
      "Ġcounterpart": 9205,
      "ĠJewish": 9206,
      "ĠNOT": 9207,
      "Ġpm": 9208,
      "Ġversions": 9209,
      "Ġkeeping": 9210,
      "Ġcontroller": 9211,
      "Ġdescribing": 9212,
      "ĠAND": 9213,
      "Document": 9214,
      "Ġanalytical": 9215,
      "herence": 9216,
      "ĠArts": 9217,
      "ĠIraq": 9218,
      "shape": 9219,
      "vironments": 9220,
      "serve": 9221,
      "interface": 9222,
      "Ġpermit": 9223,
      "arn": 9224,
      "bolic": 9225,
      "Settings": 9226,
      "\\\\\\\\\\\\\\\\\\\\\\\\\\\\\\\\\\\\\\\\\\\\\\\\\\\\\\\\\\\\\\\\": 9227,
      "Ġstands": 9228,
      "Ġdoll": 9229,
      "Ġpopulations": 9230,
      "Ġforest": 9231,
      "Ġkids": 9232,
      "ĠMedia": 9233,
      "Ġconference": 9234,
      "Ġordinary": 9235,
      "elescope": 9236,
      "including": 9237,
      "Ġtwice": 9238,
      "Ġcommonly": 9239,
      "Ġjustice": 9240,
      "Assume": 9241,
      "ĠÂ£": 9242,
      "Ġdifferenti": 9243,
      "}&\\": 9244,
      "Sl": 9245,
      "atever": 9246,
      "}))": 9247,
      "Application": 9248,
      "ĠShow": 9249,
      "unched": 9250,
      "icial": 9251,
      "Ġliber": 9252,
      "inating": 9253,
      "conv": 9254,
      "tages": 9255,
      "Ġ$[\\": 9256,
      "Ġhappy": 9257,
      "Ġadvoc": 9258,
      "rfloor": 9259,
      "holder": 9260,
      "uzz": 9261,
      "Dir": 9262,
      "aug": 9263,
      "frared": 9264,
      "homology": 9265,
      "ĠHy": 9266,
      "Ġrevealed": 9267,
      "Ġpolitics": 9268,
      "Ð»": 9269,
      "ĠLouis": 9270,
      "properties": 9271,
      "Ġextensive": 9272,
      "Ġprimarily": 9273,
      "Ġvisited": 9274,
      ".}\\": 9275,
      "ben": 9276,
      "Ġsecret": 9277,
      "ato": 9278,
      "ECT": 9279,
      "ĠAssume": 9280,
      "ifer": 9281,
      "1988": 9282,
      "Ġimpossible": 9283,
      "CI": 9284,
      "inity": 9285,
      "aria": 9286,
      "Ġweap": 9287,
      "Direct": 9288,
      "ĠDu": 9289,
      "ĠÂ»": 9290,
      "empor": 9291,
      "cules": 9292,
      "Ġcolour": 9293,
      "displaymath": 9294,
      "ĠIll": 9295,
      "press": 9296,
      "ĠIss": 9297,
      "Ġaccepted": 9298,
      "ĠChicago": 9299,
      "potential": 9300,
      "experim": 9301,
      "Ġcircular": 9302,
      "Ġneither": 9303,
      "Ġpartially": 9304,
      "Home": 9305,
      "icons": 9306,
      ")}=": 9307,
      "ĠSpace": 9308,
      "gls": 9309,
      "Ġpeaks": 9310,
      "Ġasymptot": 9311,
      "Ġ(\"": 9312,
      "1987": 9313,
      "join": 9314,
      "Ġagreed": 9315,
      "subfloat": 9316,
      "fixed": 9317,
      "STR": 9318,
      "ĠReport": 9319,
      "Ġrout": 9320,
      "Ġhybrid": 9321,
      "Ġstructural": 9322,
      "kt": 9323,
      "Ġwarm": 9324,
      "Ġsteady": 9325,
      "riend": 9326,
      "Ġdedicated": 9327,
      "Ġfootball": 9328,
      "enter": 9329,
      "Ġcondens": 9330,
      "Ġcomprehen": 9331,
      "Ġpointed": 9332,
      "Connection": 9333,
      "Ġpulse": 9334,
      "Ġeasier": 9335,
      "Ġconstrained": 9336,
      "Ġdaughter": 9337,
      "Ġcollapse": 9338,
      "resize": 9339,
      "Ġcircles": 9340,
      "bounded": 9341,
      "Ġmys": 9342,
      "endar": 9343,
      "oidal": 9344,
      "ĠTim": 9345,
      "Tim": 9346,
      "Ġcollisions": 9347,
      "ĠJes": 9348,
      "laps": 9349,
      "Ġ$$\\": 9350,
      "Ġchapter": 9351,
      "urban": 9352,
      "RS": 9353,
      "plicit": 9354,
      "$(\\": 9355,
      "HM": 9356,
      "allery": 9357,
      "Ġcone": 9358,
      "Ġaugment": 9359,
      "Ġĉ": 9360,
      "Ġended": 9361,
      "Ġlinearly": 9362,
      "Async": 9363,
      "ĠAM": 9364,
      "Ġfacilities": 9365,
      "Ġcriminal": 9366,
      "Ġdiffer": 9367,
      "Eng": 9368,
      "John": 9369,
      "dict": 9370,
      "Ġfemale": 9371,
      "ĠEXPECT": 9372,
      "Ġinflation": 9373,
      "Callback": 9374,
      "ulator": 9375,
      "Prot": 9376,
      "$/": 9377,
      "Ġcosmic": 9378,
      "Ġhelps": 9379,
      "Ġdwar": 9380,
      "ĠInvest": 9381,
      "horizon": 9382,
      "rase": 9383,
      "Ġdoub": 9384,
      "hole": 9385,
      "ĠIr": 9386,
      "Ġlatent": 9387,
      "deep": 9388,
      "Ġseconds": 9389,
      "Ġbriefly": 9390,
      "Ġhomot": 9391,
      "oped": 9392,
      "ĠMuslim": 9393,
      "ĠCON": 9394,
      "Reference": 9395,
      "Ġrealistic": 9396,
      "fr": 9397,
      "ulty": 9398,
      "rome": 9399,
      "~(": 9400,
      "Ġaccounts": 9401,
      "Pass": 9402,
      "Ġhour": 9403,
      "Ġsupporting": 9404,
      "ĠSO": 9405,
      "Ġindicating": 9406,
      "Ġnom": 9407,
      "NavBar": 9408,
      "Ġrobot": 9409,
      "Det": 9410,
      "1986": 9411,
[...]
