{"[UNK]":0,"!":1,"\"":2,"#":3,"$":4,"%":5,"&":6,"'":7,"(":8,")":9,"*":10,"+":11,",":12,"-":13,".":14,"/":15,"0":16,"1":17,"2":18,"3":19,"4":20,"5":21,"6":22,"7":23,"8":24,"9":25,":":26,";":27,"<":28,"=":29,">":30,"?":31,"@":32,"A":33,"B":34,"C":35,"D":36,"E":37,"F":38,"G":39,"H":40,"I":41,"J":42,"K":43,"L":44,"M":45,"N":46,"O":47,"P":48,"Q":49,"R":50,"S":51,"T":52,"U":53,"V":54,"W":55,"X":56,"Y":57,"Z":58,"[":59,"\\":60,"]":61,"^":62,"_":63,"`":64,"a":65,"b":66,"c":67,"d":68,"e":69,"f":70,"g":71,"h":72,"i":73,"j":74,"k":75,"l":76,"m":77,"n":78,"o":79,"p":80,"q":81,"r":82,"s":83,"t":84,"u":85,"v":86,"w":87,"x":88,"y":89,"z":90,"{":91,"|":92,"}":93,"~":94,"¡":95,"¢":96,"£":97,"¤":98,"¥":99,"¦":100,"§":101,"¨":102,"©":103,"ª":104,"«":105,"¬":106,"®":107,"¯":108,"°":109,"±":110,"²":111,"³":112,"´":113,"µ":114,"¶":115,"·":116,"¸":117,"¹":118,"º":119,"»":120,"¼":121,"½":122,"¾":123,"¿":124,"Â":125,"Ã":126,"Ä":127,"Å":128,"Æ":129,"Ç":130,"È":131,"É":132,"Ê":133,"Ë":134,"Ì":135,"Í":136,"Î":137,"Ï":138,"Ð":139,"Ñ":140,"Ò":141,"Ó":142,"Ô":143,"Õ":144,"Ö":145,"×":146,"Ø":147,"Ù":148,"Ú":149,"Û":150,"Ü":151,"Ý":152,"Þ":153,"ß":154,"à":155,"á":156,"â":157,"ã":158,"ä":159,"å":160,"æ":161,"ç":162,"è":163,"é":164,"ê":165,"ë":166,"ì":167,"í":168,"î":169,"ï":170,"ð":171,"ó":172,"ô":173,"Ā":174,"ā":175,"Ă":176,"ă":177,"Ą":178,"ą":179,"Ć":180,"ć":181,"Ĉ":182,"ĉ":183,"Ċ":184,"ċ":185,"Č":186,"č":187,"Ď":188,"ď":189,"Đ":190,"đ":191,"Ē":192,"ē":193,"Ĕ":194,"ĕ":195,"Ė":196,"Ę":197,"ę":198,"Ě":199,"ě":200,"Ĝ":201,"ĝ":202,"Ğ":203,"ğ":204,"Ġ":205,"ġ":206,"Ģ":207,"ģ":208,"Ĥ":209,"ĥ":210,"Ħ":211,"ħ":212,"Ĩ":213,"ĩ":214,"Ī":215,"ī":216,"Ĭ":217,"ĭ":218,"Į":219,"į":220,"İ":221,"ı":222,"Ĳ":223,"ĳ":224,"Ĵ":225,"ĵ":226,"Ķ":227,"ķ":228,"ĸ":229,"Ĺ":230,"ĺ":231,"Ļ":232,"ļ":233,"Ľ":234,"ľ":235,"Ŀ":236,"ŀ":237,"Ł":238,"ł":239,"Ń":240,"ĠĠ":241,"Ġt":242,"in":243,"he":244,"Ġa":245,"on":246,"re":247,"at":248,"Ġthe":249,"er":250,"ĠĠĠĠ":251,"en":252,"Ġs":253,"or":254,"al":255,"it":256,"Ġo":257,"is":258,"ion":259,"Ġc":260,"es":261,"Ġ\\":262,"ar":263,"an":264,"Ġw":265,"Ġf":266,"le":267,"Ġ$":268,"Ġp":269,"ed":270,"Ġof":271,"Ġin":272,"Ġan":273,"Ġb":274,"ic":275,"ing":276,"ro":277,"Ġd":278,"ct":279,"Ġm":280,"as":281,"et":282,"Ġand":283,"el":284,"Ġto":285,"ig":286,"ent":287,"Ġth":288,"{\\":289,"ou":290,"ation":291,"ra":292,"st":293,"im":294,"om":295,"Ġre":296,"Ġe":297,"ĠĠĠ":298,"il":299,"Ġn":300,"ot":301,"Ġh":302,"am":303,"Ġis":304,"ĠĠĠĠĠĠĠĠ":305,"ol":306,"id":307,"Ġ(":308,"ce":309,"_{":310,"Ġl":311,"ve":312,"se":313,"ut":314,"ĠT":315,"qu":316,"Ġfor":317,"ul":318,"un":319,"Ġg":320,"ab":321,"Ġ$\\":322,"ur":323,"ow":324,"ch":325,"mat":326,"eg":327,"ver":328,"ly":329,"Ġthat":330,"ĠS":331,"um":332,"čĊ":333,"od":334,"math":335,"Ġon":336,"ith":337,"if":338,"Ġcon":339,"end":340,"Ġbe":341,"Ġst":342,"ĠA":343,"us":344,"âĢ":345,"em":346,"ĠC":347,"ction":348,"Ġ&":349,"ĠI":350,"Ġ=":351,"}\\":352,"ht":353,"ad":354,"ta":355,"ge":356,"Ġas":357,"}$":358,"^{":359,"Ġwe":360,"ri":361,"ph":362,"Ġwith":363,"ex":364,"Ġpro":365,"ure":366,"ĠĊ":367,"ir":368,"Ġv":369,"pe":370,"ma":371,"Ġal":372,"20":373,"ter":374,"ref":375,"ate":376,"th":377,"ight":378,"ay":379,"ist":380,"ĠM":381,"pt":382,"ĠĠĠĠĠĠĠ":383,"Ġex":384,"ity":385,"pp":386,"iv":387,"os":388,"ĠThe":389,"}}":390,"cal":391,"Ġby":392,"res":393,"Ġare":394,"the":395,"ite":396,"(\\":397,"ub":398,"ĠF":399,"ĠP":400,"and":401,"ine":402,"egin":403,"ac":404,"Ġwh":405,"Ġcom":406,"ore":407,"est":408,"ĠB":409,"per":410,"Ġde":411,"begin":412,"Ġit":413,"ĉĉ":414,"ext":415,"ess":416,"ial":417,"art":418,"pl":419,"rac":420,"ĠH":421,"_{\\":422,"rom":423,")$":424,"de":425,"Ġat":426,"ft":427,"ĠR":428,"ies":429,"ĠL":430,"Ġor":431,"ĠW":432,"ass":433,"}{":434,"ers":435,"oc":436,"ps":437,"iz":438,"ĠD":439,"ment":440,"Ġ<":441,"ant":442,"ive":443,"Ġthis":444,"nt":445,"ew":446,"Ġse":447,"right":448,"--":449,"ran":450,"},":451,"frac":452,"Ġfrom":453,"ult":454,"ĠN":455,"eq":456,"ill":457,"int":458,"ĠE":459,"})":460,"ect":461,"=\"":462,"Ġ{":463,"text":464,"The":465,"equ":466,"ag":467,"Ġhe":468,"ort":469,"ple":470,");":471,"cite":472,"rm":473,"cl":474,"ĠG":475,"ave":476,"ld":477,"ical":478,"ue":479,"Ġsh":480,"âĢĻ":481,"Ġcl":482,"orm":483,"Ġnot":484,"ition":485,"abel":486,"our":487,"Ġsu":488,"Ġy":489,"og":490,"ich":491,"</":492,"Ġun":493,"mathb":494,"ere":495,"nd":496,"Ġres":497,"ke":498,"ens":499,"Ġcan":500,"ign":501,",\\":502,"ame":503,"ff":504,"ell":505,"ud":506,"pa":507,"able":508,"all":509,"Ġle":510,"label":511,"ated":512,"00":513,"up":514,"ations":515,"con":516,"$,":517,"to":518,"Ġ-":519,"Ġch":520,"$.":521,"201":522,"ĠĠĠĠĠĠĠĠĠĠĠ":523,"eta":524,"..":525,"Ġhave":526,"Ġr":527,"der":528,"Ġwas":529,"equation":530,"mathcal":531,"ber":532,"fig":533,"}.":534,"Ġus":535,"//":536,"du":537,"left":538,"ary":539,"ds":540,"ase":541,"Ġwhich":542,"ĠO":543,"}(":544,"Ġwhe":545,"age":546,"ime":547,"ener":548,"cc":549,"low":550,"ust":551,"Ġim":552,"}^":553,"~\\":554,"Ġ*":555,"pro":556,"}_":557,"op":558,"Ġ}":559,"Ġ+":560,"her":561,"Ġma":562,"19":563,"red":564,").":565,"ĠIn":566,"ib":567,"Ġmod":568,"com":569,"ack":570,"da":571,"ĠU":572,"av":573,"ions":574,"ost":575,"ence":576,"ork":577,"pha":578,"ast":579,"Ġif":580,"ĠĠĠĠĠĠĠĠĠĠĠĠĠĠĠĠ":581,"alpha":582,"form":583,"ĠJ":584,"act":585,"),":586,"Ġab":587,"line":588,"ide":589,"Ġhas":590,"ru":591,"ther":592,"ong":593,"sum":594,"Ġk":595,"Ġob":596,"ĠâĢ":597,"Ġ\"":598,"amb":599,")\\":600,"are":601,"ang":602,"Ġall":603,"out":604,"ould":605,"10":606,"row":607,"\">":608,"ance":609,"ile":610,"ard":611,"In":612,"$\\":613,"ind":614,"ach":615,"unction":616,"over":617,"ĠĠĠĠĠ":618,"ambda":619,"pect":620,"ous":621,"elta":622,"use":623,"Ġcomp":624,"ap":625,"rans":626,"so":627,"rib":628,"ely":629,"ata":630,"Ġclass":631,"li":632,"Ġme":633,"amma":634,"_\\":635,"Ġad":636,"ice":637,"Ġapp":638,"ĠTh":639,"port":640,"erm":641,"imes":642,"tain":643,"urn":644,"ak":645,"igma":646,"Ġj":647,"Ġone":648,"ents":649,"Ġqu":650,"Ġint":651,"Ġ\\\\":652,"Ġne":653,"Ġpart":654,"Ġcont":655,"iff":656,"Ġpl":657,"mathbb":658,"Ġdis":659,"ption":660,"ound":661,"mu":662,"ject":663,"dot":664,"=\\":665,"ser":666,"}_{":667,"}^{":668,"ari":669,"sub":670,"ose":671,"ry":672,"ire":673,"ray":674,"ip":675,"Ġwill":676,"ode":677,"ric":678,"mb":679,"ug":680,"\\\\":681,"of":682,"ors":683,"-\\":684,"ates":685,"ĠK":686,"wo":687,"fin":688,"phi":689,"lic":690,"ular":691,"ution":692,"Ġval":693,"Ġsy":694,"get":695,"set":696,"we":697,"ho":698,"ory":699,"pace":700,"Ġper":701,"und":702,"^{\\":703,"ega":704,"ree":705,"Ġfunction":706,"Ġset":707,"Ġev":708,"ĠV":709,"ress":710,"sc":711,"ain":712,"own":713,"Ġ{\\":714,"Ġ[":715,"hat":716,"pon":717,"ics":718,"ally":719,"ome":720,"ype":721,"lambda":722,"pi":723,"Ġalso":724,"oint":725,"Ġar":726,"ize":727,"Ġmodel":728,"ring":729,"'s":730,"ian":731,"iel":732,"âĢĿ":733,"bf":734,"**":735,"lo":736,"Ġdo":737,"ord":738,"Ġout":739,"wid":740,"aram":741,"Ġdiff":742,"sigma":743,"ca":744,"ĠSt":745,"raph":746,"200":747,"ia":748,"mathbf":749,"umber":750,"irst":751,"cent":752,"ollow":753,"Ġour":754,"section":755,"Ġtwo":756,"enc":757,"ilon":758,"psilon":759,"vel":760,"ĠWe":761,"Ġresult":762,"ark":763,"part":764,"ear":765,"ok":766,"Ġbut":767,"Ġinter":768,"Ġmore":769,"Ġother":770,"turn":771,"Ġsuch":772,"St":773,"one":774,"pos":775,"Ġtime":776,"==":777,"app":778,"12":779,"Ġtheir":780,"ount":781,"cre":782,"Ġconst":783,"Ġfollow":784,"Ġsub":785,"Ġyou":786,"vers":787,"^{-":788,"Ġ(\\":789,"Ġsim":790,"led":791,"ove":792,"align":793,"ie":794,"sp":795,"clud":796,"dition":797,"}{\\":798,"eth":799,"stem":800,"ram":801,"Ġform":802,"Ġequ":803,"Ġwhere":804,"Ġsp":805,"Ġits":806,"beta":807,"ilde":808,"Ġ'":809,"Ġthere":810,"Ġcor":811,"very":812,"lem":813,"lect":814,"Ġover":815,"Ġnew":816,"()":817,"ov":818,"bar":819,"Ġbet":820,"Ġso":821,"put":822,"ys":823,"ck":824,"Ġgener":825,"Ġany":826,"----":827,"Ġcons":828,"ature":829,"mathrm":830,"ix":831,"*}":832,"Ġonly":833,"gamma":834,"Ġtrans":835,"ĠâĢľ":836,"Ġrel":837,"+\\":838,"ne":839,"theta":840,"ative":841,"Ġthan":842,"ace":843,"Ġdist":844,"Ġwork":845,"resent":846,"ll":847,"We":848,"ox":849,"Ġro":850,"Ġthey":851,"Ġdiffere":852,"vi":853,"Ġacc":854,"ep":855,"Ġdata":856,"Ġen":857,"ator":858,"Ġreg":859,"ĠThis":860,"Ġman":861,"rho":862,"ĠĠĠĠĠĠĠĠĠĠĠĠĠĠĠ":863,"ific":864,"ual":865,"Ġpos":866,"Ġbeen":867,"Ġsc":868,"ility":869,"]{":870,"te":871,"figure":872,"Ġmat":873,"Ġdes":874,"array":875,"^\\":876,"ock":877,"ces":878,"Ġfirst":879,"delta":880,"Ġshow":881,"leq":882,"Ġthen":883,"Ġpre":884,"Ġlo":885,"width":886,"Ġhis":887,"Ġwere":888,"item":889,"Ġag":890,")}":891,"pec":892,"cess":893,"ient":894,"Ġup":895,"cdot":896,"$-":897,"Ġcol":898,"tau":899,"ruct":900,"}$,":901,"Ġx":902,"ield":903,"ath":904,"Ġeach":905,"rit":906,"Ġph":907,"Ġwhen":908,"here":909,"ss":910,"}$.":911,"Ġgiv":912,"Ġi":913,"Ġno":914,"ublic":915,"ween":916,"Ġsome":917,"oth":918,"|\\":919,"11":920,"les":921,"Ġthese":922,"Ġprob":923,"Ġco":924,"Ġcase":925,"ise":926,"Ġtra":927,"ource":928,"elf":929,"val":930,"Ġsol":931,"ict":932,"Con":933,"not":934,"}(\\":935,"ced":936,"ues":937,"ating":938,"igh":939,"ible":940,"ull":941,"ities":942,"ved":943,"Ġeff":944,"eqref":945,"ob":946,"aramet":947,"times":948,"Ġbetween":949,"ince":950,"var":951,"big":952,"hed":953,"Ġunder":954,"nu":955,"pend":956,"rad":957,"ink":958,"Ġreturn":959,"ethod":960,"ĠY":961,"Ġline":962,"ef":963,"iss":964,"for":965,"ments":966,"Ġfin":967,"partial":968,"Ġinto":969,"Ġsystem":970,"ĠIt":971,"Ġcomm":972,"Ġgo":973,"Ġpoint":974,"ased":975,"pr":976,"ĉĉĉĉ":977,"Ġuse":978,"its":979,"yn":980,"ational":981,"ding":982,"Ġabout":983,"ample":984,"Ġwho":985,"col":986,"fty":987,"ied":988,"ident":989,"ĠCh":990,"nce":991,"arrow":992,"infty":993,"ĠSe":994,"tilde":995,"omega":996,"Ġli":997,"Ġappro":998,"pert":999,"ans":1000,"min":1001,"Ġdifferent":1002,"mall":1003,"Th":1004,"rt":1005,"ish":1006,"ays":1007,"15":1008,"arg":1009,"Ġ//":1010,"Ġnon":1011,"div":1012,"Ġwould":1013,"eqn":1014,"->":1015,"Ġpol":1016,"Ġnumber":1017,"ization":1018,"aw":1019,"ning":1020,"tt":1021,"ax":1022,"Ġext":1023,"Delta":1024,"Ġvari":1025,"Ġprov":1026,"round":1027,"../":1028,"18":1029,"Ġ</":1030,"olog":1031,"16":1032,"Ġget":1033,"Ġinv":1034,"Ġ|":1035,"ng":1036,"fter":1037,"Ġused":1038,"ized":1039,"ider":1040,"space":1041,"Ġ/":1042,"mm":1043,"vert":1044,"Ġser":1045,"Ġmay":1046,"sim":1047,"oug":1048,"ugh":1049,"ĠFor":1050,"roup":1051,"quad":1052,"ron":1053,"Ġkn":1054,"Ġstud":1055,"Ġvalue":1056,"::":1057,"sec":1058,"ting":1059,"Ġcur":1060,"Ġusing":1061,"13":1062,"Ġdefin":1063,"Ġyear":1064,"Ġpe":1065,"old":1066,"err":1067,"tern":1068,"Ġ.":1069,"Ġpartic":1070,"\\,":1071,"Ġgiven":1072,"par":1073,"orem":1074,"Ġem":1075,"ctions":1076,"))":1077,"rang":1078,"eng":1079,"sh":1080,"Ġdet":1081,"Ġ$(":1082,"ower":1083,"olds":1084,"uss":1085,"xi":1086,"}}\\":1087,"Ġterm":1088,")$.":1089,"Ġsame":1090,"ml":1091,"Ġfact":1092,"la":1093,"Ġest":1094,"Ġ:":1095,"}[":1096,"pm":1097,"gy":1098,"Ġoff":1099,"ically":1100,"Ġrequ":1101,"Ġte":1102,"Ġdef":1103,"Ġfe":1104,"ctor":1105,"Ġcal":1106,"Ġu":1107,"Ġhad":1108,"Ġpa":1109,"Ġinst":1110,"ism":1111,"14":1112,"Ġsa":1113,"ote":1114,"Ġparamet":1115,"riv":1116,"ral":1117,"ild":1118,"$$":1119,"epsilon":1120,".,":1121,"ever":1122,"Ġstate":1123,"ĠUn":1124,"sq":1125,"Ġrep":1126,"ases":1127,"Ġ@":1128,"Ġsign":1129,"ail":1130,"ĠX":1131,"Ġact":1132,"arge":1133,"Ġmost":1134,"rix":1135,"Ġmethod":1136,"Ġobser":1137,"where":1138,"Ġcomple":1139,"ick":1140,"arch":1141,"Ġobtain":1142,"Ġz":1143,"io":1144,"xim":1145,"rough":1146,"ots":1147,"',":1148,"25":1149,"ively":1150,"ribut":1151,"Ġorder":1152,"Ġwell":1153,"center":1154,"name":1155,"}_{\\":1156,"rent":1157,"Ġpublic":1158,"asure":1159,"Ġsupp":1160,"psi":1161,"irc":1162,"Pro":1163,"Om":1164,"Ġtr":1165,"eqnarray":1166,"Ġthem":1167,"Ġam":1168,"ec":1169,"Ġresults":1170,"Ex":1171,"ude":1172,"Ġsee":1173,"Ġoper":1174,"Ġprodu":1175,"def":1176,"Ġbound":1177,"Ġhow":1178,"formation":1179,"ract":1180,"respon":1181,"ential":1182,"Ġfollowing":1183,"\",":1184,"Ġent":1185,"ons":1186,"log":1187,"For":1188,"ability":1189,"Omega":1190,"ĠFig":1191,"Ġeffect":1192,"angle":1193,"^*":1194,"Ġ`":1195,"lu":1196,"ists":1197,"ript":1198,"essage":1199,"Ġdisc":1200,"tr":1201,"Gamma":1202,"ices":1203,"Ġboth":1204,")$,":1205,"ann":1206,"sqrt":1207,"ĠQ":1208,"cause":1209,"als":1210,"Ġspec":1211,"ars":1212,"Ġwor":1213,"(\"":1214,"Ġanal":1215,"__":1216,"></":1217,"textbf":1218,"tab":1219,"uch":1220,"ings":1221,"Ġstat":1222,"Ġdire":1223,"ension":1224,"cond":1225,"mbol":1226,"Ġref":1227,"span":1228,"oid":1229,"energy":1230,"Ġexp":1231,"17":1232,"();":1233,"Ġbl":1234,"ily":1235,"ool":1236,"reat":1237,"che":1238,"ĠPro":1239,"mer":1240,"ton":1241,"includ":1242,"mod":1243,"lation":1244,"yp":1245,"subsection":1246,"Ġmass":1247,"vare":1248,"Ġass":1249,"Ġneed":1250,"Ġmin":1251,"ough":1252,"ner":1253,"ople":1254,"Ġend":1255,"><":1256,"ĠHe":1257,"Ġind":1258,"varepsilon":1259,"raphics":1260,"Ġsur":1261,"ĠĠĊ":1262,"hi":1263,"Ġthrough":1264,"ited":1265,"work":1266,"Ġhigh":1267,"ins":1268,"Ġpr":1269,"Ġdec":1270,"ulti":1271,"Ġ${\\":1272,"ered":1273,"Ġsmall":1274,"199":1275,"ER":1276,"ĠAs":1277,"ĉĉĉ":1278,"ality":1279,"Ġfield":1280,"ithm":1281,"^{(":1282,"}=":1283,"ribution":1284,"Ġmeasure":1285,"Ġtype":1286,"}^{\\":1287,"rightarrow":1288,"ĠCom":1289,"uth":1290,"Ġrespect":1291,"Ġperform":1292,"Ġrec":1293,"cm":1294,"caption":1295,"ines":1296,"ĠčĊ":1297,"30":1298,"egraphics":1299,"Ġcondition":1300,"includegraphics":1301,"rangle":1302,"Ġ\\,":1303,"Ġstr":1304,"Ġdesc":1305,"fo":1306,")=":1307,"Ġsaid":1308,"ency":1309,"ted":1310,"oy":1311,"etric":1312,"ined":1313,"Ġback":1314,"ĠĠĠĠĠĠĠĠĠ":1315,"Ġproblem":1316,"bm":1317,"hen":1318,"ructure":1319,"Ġassum":1320,"oci":1321,"Ġafter":1322,"Ġwhat":1323,"ange":1324,"ev":1325,"Ġher":1326,"Ġevery":1327,"Ġopt":1328,"Ġname":1329,"fra":1330,"ful":1331,"uring":1332,"../../":1333,"Ġprocess":1334,"Ġed":1335,"Ġlike":1336,"ake":1337,"Ġexpl":1338,"umn":1339,"--------":1340,"Ġspace":1341,"html":1342,"21":1343,"Ġcorrespon":1344,"ulation":1345,"Ġele":1346,"Ġpeople":1347,"Ġ--":1348,"ilar":1349,"ining":1350,"Ġenergy":1351,"ages":1352,"raw":1353,"ensure":1354,"This":1355,"ook":1356,"gor":1357,"Ġcomput":1358,"ĠCon":1359,"ymbol":1360,".~\\":1361,"ash":1362,"Ġright":1363,"Ġlat":1364,"ength":1365,"varphi":1366,"ert":1367,"ks":1368,"Ġbecause":1369,"Ġjust":1370,"50":1371,"emph":1372,"ement":1373,"non":1374,"Ġnow":1375,"Ġconsider":1376,"====":1377,"Ġinclud":1378,"Ġshe":1379,"net":1380,"Ġscal":1381,"Ġshould":1382,"read":1383,"geq":1384,"gorithm":1385,"ivers":1386,"ĠDe":1387,"me":1388,"Ġke":1389,"ST":1390,"new":1391,"Ġvery":1392,"umer":1393,"Ġrepresent":1394,"Ġbel":1395,"ross":1396,"Ġdoes":1397,"ole":1398,"Ġcould":1399,"Ġestim":1400,".}":1401,"Ġexper":1402,"Ġtest":1403,"trans":1404,"Ġlim":1405,"It":1406,"Ġhref":1407,"this":1408,"Ġden":1409,"Ġpresent":1410,"ĠĠĠĠĠĠĠĠĠĠĠĠĠĠĠĠĠĠĠ":1411,"000":1412,"://":1413,"overline":1414,"ON":1415,"ade":1416,"Ġlead":1417,"Ġmany":1418,"ten":1419,"yle":1420,"Ġwhile":1421,"****":1422,"ern":1423,"24":1424,"Ġthree":1425,"ĠAl":1426,"Ġsing":1427,"ffic":1428,"IN":1429,"Ġvalues":1430,"proof":1431,"ĠZ":1432,"&\\":1433,"Ġlocal":1434,"Ġcent":1435,"},\\":1436,"vice":1437,"chi":1438,"As":1439,"ified":1440,"olution":1441,"position":1442,"Ġ*/":1443,"Ġac":1444,"iew":1445,"Ġposs":1446,"lear":1447,"Ġ>":1448,"Ġerr":1449,"ead":1450,"Ġincre":1451,"itive":1452,"bl":1453,"Ġgeneral":1454,"pre":1455,"dd":1456,"Ġeven":1457,"view":1458,"Ġatt":1459,"Ġfind":1460,")^":1461,"ision":1462,"}).":1463,"22":1464,"bolds":1465,"Ġlarge":1466,"hline":1467,"Big":1468,"Ġfound":1469,"ateg":1470,"Ġlong":1471,"boldsymbol":1472,"etwork":1473,"Ġel":1474,"ves":1475,"Ġsince":1476,"cept":1477,"Ġbu":1478,"ify":1479,"vent":1480,"su":1481,"Ġfil":1482,"''":1483,"ward":1484,"Ġspect":1485,"Ġinteg":1486,"Ġve":1487,"[\\":1488,"Ġchar":1489,"Ġdi":1490,"Com":1491,"Ġcontin":1492,"Ġreal":1493,"lim":1494,"}}$":1495,"Ġpropert":1496,"Ġself":1497,"ensity":1498,"ormal":1499,"oun":1500,"frak":1501,"ĠIf":1502,"Ġthose":1503,"ness":1504,"vec":1505,"Ġadd":1506,"};":1507,"langle":1508,"Ġcorre":1509,".âĢĿ":1510,"ument":1511,"iqu":1512,"Ġabove":1513,"Ġknow":1514,"velop":1515,"ets":1516,"Ġyears":1517,"source":1518,"be":1519,"ural":1520,"owever":1521,"Ġcount":1522,"ts":1523,"imension":1524,"Ġinformation":1525,"alse":1526,"plit":1527,"Ġident":1528,"Ġsat":1529,"Ġca":1530,"Ġimport":1531,"Ġquant":1532,"co":1533,"ache":1534,"...":1535,"Ġrad":1536,"('":1537,"Ġdepend":1538,"Ġobject":1539,"Lambda":1540,"Ġway":1541,"refore":1542,"ldots":1543,"Ġmy":1544,"any":1545,"Ġsecond":1546,"ule":1547,"ger":1548,"inal":1549,"ren":1550,"king":1551,"depend":1552,"Ġtak":1553,"ission":1554,"AT":1555,"To":1556,"Ġsupport":1557,"ier":1558,"mathfrak":1559,"ants":1560,"ĠâĢĵ":1561,"vious":1562,"Ġran":1563,"23":1564,"table":1565,"Ġbeing":1566,"Ġcre":1567,"Let":1568,"RE":1569,"ĠNew":1570,"Ġstructure":1571,"ology":1572,"rodu":1573,"Ġfollows":1574,"Ġshown":1575,"requ":1576,"see":1577,"Ġ#":1578,"cur":1579,"Name":1580,"Ġcontain":1581,"Ġmem":1582,"Ġexpect":1583,"td":1584,"Ġstart":1585,"itial":1586,"less":1587,"rol":1588,"Ġgroup":1589,"citep":1590,"Ġdefined":1591,"Ġagain":1592,"ĠRe":1593,"Ġmodels":1594,"Ġ=>":1595,"face":1596,"ration":1597,"Ġtem":1598,"chn":1599,"pen":1600,"son":1601,"Ġmag":1602,"message":1603,"Ġsection":1604,"mbox":1605,"nab":1606,"man":1607,"uc":1608,"Ġ,":1609,"Phi":1610,"fore":1611,"cor":1612,"Ch":1613,"Ġinf":1614,"no":1615,"Id":1616,"med":1617,"ensuremath":1618,"ames":1619,"Ġlet":1620,"wh":1621,"ected":1622,"Ġprovid":1623,"clude":1624,"tal":1625,"by":1626,"Ġ_":1627,"Ġmon":1628,"ather":1629,"Ġ)":1630,"appa":1631,"dis":1632,"Ġexample":1633,"ired":1634,"Ġdescrib":1635,"let":1636,"ampl":1637,"AR":1638,"40":1639,"str":1640,"class":1641,"textit":1642,"import":1643,"cul":1644,"Ġparticular":1645,"pd":1646,"ero":1647,"Ġmake":1648,"Ġcompa":1649,"erest":1650,"nabla":1651,"Ġmain":1652,"ww":1653,"Type":1654,"Ġyour":1655,"ynam":1656,"els":1657,"ocation":1658,"Ġhand":1659,"Ġnetwork":1660,"100":1661,"back":1662,"Ġsimilar":1663,"sf":1664,"Ġtop":1665,"gram":1666,"oper":1667,"Ġpres":1668,"arget":1669,"sk":1670,"isf":1671,"code":1672,"other":1673,"Ġdistribution":1674,"au":1675,"ij":1676,"Ġcurrent":1677,"Ġallow":1678,"kappa":1679,"action":1680,"})$":1681,"with":1682,"String":1683,"Ġterms":1684,"Res":1685,"eps":1686,"Ġdeterm":1687,"otimes":1688,".\\":1689,"orph":1690,"Ġhere":1691,"Ġelect":1692,"SS":1693,"Ġfeature":1694,"script":1695,"ody":1696,"Ġpers":1697,"32":1698,"Ġlear":1699,"comm":1700,"\\|":1701,"subset":1702,"ask":1703,"Ġmulti":1704,"Ġbased":1705,"box":1706,"ault":1707,"ane":1708,"ason":1709,"itle":1710,"erence":1711,"sl":1712,"bra":1713,"Ġread":1714,"htt":1715,"gg":1716,"ished":1717,"Ġplay":1718,"Ġlevel":1719,"ection":1720,"Ġdiscuss":1721,"\\!":1722,"):":1723,"ior":1724,"ci":1725,"meric":1726,"ĠĠĠĠĠĠĠĠĠĠĠĠĠĠĠĠĠĠĠĠĠĠĠĠĠĠĠĠĠĠĠĠ":1727,"\\%":1728,"circ":1729,"Ġstand":1730,"ĠĠĠĠĠĠ":1731,"Ġtrue":1732,"ID":1733,"rop":1734,"Ġsize":1735,"rum":1736,"bit":1737,"Ġalgorithm":1738,"Ġsum":1739,"wn":1740,"play":1741,"ysis":1742,"ually":1743,"Ġdevelop":1744,"ute":1745,"}),":1746,"ields":1747,"lob":1748,"ik":1749,"oss":1750,"ense":1751,"ators":1752,"rid":1753,"nonumber":1754,"overn":1755,"Ġmust":1756,"Ġmuch":1757,"2020":1758,"tabular":1759,"Ġrem":1760,"bers":1761,"....":1762,"type":1763,"Ġorg":1764,"acter":1765,"ification":1766,"Ġfam":1767,"plic":1768,"Ġredu":1769,"etry":1770,"ond":1771,"anc":1772,"Ġdirect":1773,"alth":1774,"Ġaddition":1775,"otential":1776,"Ġap":1777,"Ġpower":1778,"ife":1779,"##":1780,"}}{":1781,"Ġra":1782,"Ġparameters":1783,"Ġav":1784,"ee":1785,"ĠAn":1786,"dots":1787,"Ġbefore":1788,"cont":1789,"const":1790,"rem":1791,"lection":1792,"redict":1793,"org":1794,"Ġbas":1795,"ives":1796,"ery":1797,"Ġsatisf":1798,"Ġlast":1799,"Ġsuper":1800,"}+":1801,"2018":1802,"Ġinterest":1803,"return":1804,"Ġrest":1805,"60":1806,"Ġpaper":1807,"ĠThen":1808,"Ġdom":1809,"ĠEx":1810,"Ġlow":1811,"ception":1812,"Ġshows":1813,"Re":1814,"atch":1815,"ble":1816,"Sigma":1817,"OR":1818,"\\[":1819,"Ġder":1820,"âĢľ":1821,"istic":1822,"ival":1823,"Ġ``":1824,"Ġdue":1825,"ards":1826,"Ġmatrix":1827,",âĢĿ":1828,"param":1829,"Ġmade":1830,"2019":1831,"Ġworld":1832,"Ġbecom":1833,"Ġcho":1834,"Ġmed":1835,"Ġbeh":1836,"By":1837,"/>":1838,"Ġcompon":1839,"iversity":1840,"2017":1841,"\\{":1842,"Ġdensity":1843,"ccess":1844,"andom":1845,"Ġq":1846,"Ġhel":1847,"ift":1848,"top":1849,"ĠAmeric":1850,"Ġobtained":1851,"27":1852,"Ġche":1853,"ges":1854,"Val":1855,"ixed":1856,"Ġduring":1857,"land":1858,"Ġart":1859,"Ġear":1860,"Ġstudy":1861,"80":1862,"Ġvis":1863,"reg":1864,"Ġwithin":1865,"Ġobserv":1866,"cit":1867,"ym":1868,"Ġmean":1869,"widet":1870,"max":1871,"ived":1872,"Ġstates":1873,"ils":1874,"centering":1875,"ression":1876,"ately":1877,"Ġsingle":1878,"ĠHowever":1879,"Ġrespon":1880,"chool":1881,"ination":1882,"Ġrun":1883,"Ġet":1884,"LE":1885,"Ġpossible":1886,"}-":1887,"Ġinitial":1888,"Ġcommun":1889,"/\\":1890,"33":1891,"Ġdid":1892,"Fig":1893,"Ġgu":1894,"posed":1895,")(":1896,"Ġsolution":1897,"Ġorig":1898,"version":1899,"rr":1900,"ĠAnd":1901,"Ġhim":1902,"Ġlimit":1903,"dependent":1904,"Ġhig":1905,"Ġpar":1906,"Ġtake":1907,"Ġconf":1908,"Ġfunctions":1909,"Ġ($":1910,"ivity":1911,"Ġequation":1912,"{-":1913,"imal":1914,"Ġarg":1915,"widetilde":1916,"Ġappe":1917,"Ġexperim":1918,"Ġgraph":1919,"Ġreport":1920,"ven":1921,"day":1922,"Ġtechn":1923,"prime":1924,"Ġexist":1925,"iod":1926,"onal":1927,"self":1928,"Ġlarg":1929,"add":1930,"Ġpotential":1931,"\"/>":1932,"2016":1933,"Ġlaw":1934,"45":1935,"rict":1936,"Ġ!":1937,"ott":1938,"wide":1939,"ĠLet":1940,"ording":1941,"Ġnull":1942,"Ġleft":1943,"ystem":1944,"ii":1945,"ures":1946,"cap":1947,"Ġstill":1948,"aces":1949,"Ġapproxim":1950,"cer":1951,"Ġpoints":1952,"AL":1953,"si":1954,"Ġindu":1955,"Ġpredict":1956,"Ġcorresponding":1957,"Ġwrit":1958,"Ġdeg":1959,"ood":1960,"Ġgood":1961,"26":1962,"lass":1963,"Ġparameter":1964,"rivate":1965,"Ġlinear":1966,"28":1967,"matrix":1968,"Ġstrong":1969,"opt":1970,"urther":1971,"Ġvert":1972,"Ġlist":1973,"reak":1974,"quence":1975,"style":1976,"')":1977,"Ġtheory":1978,"translation":1979,"Ġconstant":1980,"color":1981,"oh":1982,"Ġflu":1983,"ater":1984,"ters":1985,"order":1986,"Ġwithout":1987,"Ġfinal":1988,"ries":1989,"air":1990,"Ġintrodu":1991,"ream":1992,"Ġimportant":1993,"SE":1994,"Ġcontinu":1995,"List":1996,"ĠEq":1997,"mit":1998,"verse":1999,"ables":2000,"time":2001,"amp":2002,"Ġfl":2003,"Ġdeta":2004,"Ġgra":2005,"odes":2006,"75":2007,"Ġapproach":2008,"ĠTo":2009,"Ġanalysis":2010,"draw":2011,"Ġcharacter":2012,"Ġincluding":2013,"ĠTheorem":2014,"way":2015,"Ġaround":2016,"Ġins":2017,"Ġassoci":2018,"scal":2019,"att":2020,"Ġrema":2021,"zeta":2022,"Ġcalcul":2023,"uthor":2024,"Ġcomplex":2025,"90":2026,"atic":2027,"exp":2028,"Ġerror":2029,"Ġinvest":2030,"Ġprof":2031,"Ġdem":2032,"Ġregion":2033,"AN":2034,"Ġcou":2035,"2015":2036,"ĠĠĠĠĠĠĠĠĠĠĠĠĠ":2037,"Ġtyp":2038,")=\\":2039,"lobal":2040,"hip":2041,"\\]":2042,"Ġfour":2043,"35":2044,"EN":2045,"Ġopen":2046,"Ġrespectively":2047,"Ġmap":2048,"ison":2049,"mult":2050,"Ġtotal":2051,"ories":2052,"rite":2053,"urb":2054,"amples":2055,"ploy":2056,"}]":2057,"Ġstring":2058,"ention":2059,"Ġfalse":2060,"rel":2061,"ĠRes":2062,"Ġrate":2063,"ah":2064,"Ġocc":2065,"}=\\":2066,"Ġvar":2067,"ground":2068,"perature":2069,"Ġdat":2070,"por":2071,"Ġlook":2072,"Ġgreat":2073,"Ġ==":2074,"Ġpop":2075,"ances":2076,"Ġclos":2077,"Ġprevious":2078,"clus":2079,"ised":2080,"inter":2081,"emma":2082,"oll":2083,"Ġmom":2084,"data":2085,"ources":2086,"Ġ&=":2087,"64":2088,"Ġphase":2089,"Ġprogram":2090,"iness":2091,"utions":2092,"~~":2093,"Ġdown":2094,"thm":2095,"If":2096,"Ġproof":2097,"Ġhelp":2098,"Ġposition":2099,"arm":2100,"ience":2101,"ental":2102,")^{":2103,"Ġlit":2104,"value":2105,"esc":2106,"Ġapplic":2107,"05":2108,")}\\":2109,"size":2110,"Ġpat":2111,"alax":2112,"Ġmaxim":2113,"ouse":2114,"'t":2115,"ene":2116,"search":2117,"Ġsignific":2118,"Ob":2119,"Ġcomb":2120,"\"><":2121,"ocus":2122,"node":2123,"29":2124,"Ġrele":2125,"$)":2126,"defin":2127,"ially":2128,"Ġknown":2129,"Ġsay":2130,"vir":2131,";\\":2132,"ler":2133,"Ġthink":2134,"Ġcall":2135,"Ġaver":2136,"ĠSection":2137,"ey":2138,"Ġnext":2139,"Ġproduct":2140,"Ġbest":2141,"ither":2142,"Ġchange":2143,"DE":2144,"{(":2145,"ique":2146,"Ġvoid":2147,"Ġmark":2148,"az":2149,"omorph":2150,"Ġcar":2151,"cdots":2152,"Ġpass":2153,"Ġtri":2154,"Ġview":2155,"ients":2156,"ety":2157,"Ġinput":2158,"Ġaction":2159,"stand":2160,"198":2161,"Ġproject":2162,"Al":2163,"Ġvector":2164,"Ġbro":2165,"Ġcrit":2166,"idual":2167,"function":2168,"Ġpath":2169,"Ġcour":2170,"Ġide":2171,"Ġown":2172,"Ġwant":2173,"duct":2174,"pper":2175,"Ġrange":2176,"Ġsymm":2177,"AC":2178,"Ġfram":2179,"],":2180,"Ar":2181,"Ġgovern":2182,"Ġelse":2183,"Ġpair":2184,"ĠBut":2185,"Ġrandom":2186,"ĠSh":2187,"ving":2188,"Ġalong":2189,"ious":2190,"ription":2191,"2014":2192,"}|":2193,"Ġfinite":2194,"string":2195,"Ġdesign":2196,"Ġindic":2197,"Int":2198,".~":2199,"Ġcontrol":2200,"Ġ&&":2201,"}_\\":2202,"icle":2203,"}^\\":2204,"01":2205,"foot":2206,"Ġcalled":2207,"Ġphot":2208,"Ġsystems":2209,"uration":2210,"Ġaff":2211,"An":2212,"\\\\\\\\":2213,"Ġcases":2214,"Ġphys":2215,"Ġconditions":2216,"ĠĠĠĠĊ":2217,"Ġhist":2218,"Ġaut":2219,"fficient":2220,"Ġperformance":2221,"Ġprot":2222,"Ġ\\{":2223,"99":2224,"Ġtarget":2225,"br":2226,"widehat":2227,"Ġdynam":2228,"ember":2229,")]":2230,"ital":2231,"Ġimpro":2232,"Ġimage":2233,"textwidth":2234,"}}(":2235,"Ġperiod":2236,"70":2237,"ĠAd":2238,"light":2239,"orn":2240,"oot":2241,"lemma":2242,"ĠUniversity":2243,"ont":2244,"ways":2245,"omen":2246,"Ġchang":2247,"Ġless":2248,"ups":2249,"Ġnode":2250,"Ġnear":2251,"lement":2252,"Ġpur":2253,"Ġmethods":2254,"De":2255,"ruction":2256,"{{\\":2257,"Ġchild":2258,"Ġtimes":2259,"under":2260,"veral":2261,"illion":2262,"Ġkey":2263,"iled":2264,"Ġeas":2265,"Ġhigher":2266,"sert":2267,"head":2268,"Ġlower":2269,"olumn":2270,"IC":2271,"Ġsource":2272,"Ġtemperature":2273,"ences":2274,"Ġspe":2275,"Ġhy":2276,"})\\":2277,"Psi":2278,"Ġleast":2279,"sing":2280,"Ġsignificant":2281,"ailable":2282,"IT":2283,"Ġevent":2284,",-":2285,"qquad":2286,"Ġfurther":2287,"Ġwid":2288,"empt":2289,"Ġclear":2290,"go":2291,"Ġdefine":2292,"usiness":2293,"Ġconstra":2294,"uation":2295,"\");":2296,"34":2297,"Ġrecent":2298,"Ġextend":2299,"Ġfull":2300,"Ġlog":2301,"imensional":2302,"nb":2303,"netic":2304,"2013":2305,"small":2306,"Ġrece":2307,"Ġquest":2308,"aving":2309,"inary":2310,"hes":2311,"Ġsom":2312,"which":2313,"key":2314,"}\\,":2315,"ĠOn":2316,"ering":2317,"Ġdiag":2318,"&=":2319,"asing":2320,"Ġmot":2321,"ope":2322,"Ġgalax":2323,"Ġpositive":2324,"ĠAr":2325,"bu":2326,"gebra":2327,"mathsf":2328,"ĠFigure":2329,"Ġproperties":2330,"Ġneg":2331,"Ġid":2332,"vices":2333,"cos":2334,"ava":2335,"plement":2336,"aim":2337,"Ġmov":2338,"II":2339,"Set":2340,"AM":2341,"}^{(":2342,"AS":2343,"ĠBy":2344,"opy":2345,"Ġdon":2346,"Ġplan":2347,"Data":2348,"Ġzero":2349,"mber":2350,"Ġfew":2351,"Ġstandard":2352,"jor":2353,"Ġfree":2354,"Ġlay":2355,"uman":2356,"erial":2357,"Ġprobability":2358,"Ġtraining":2359,"roll":2360,"Ġsample":2361,"Ġagainst":2362,"^+":2363,"Ġlight":2364,"Ġlength":2365,"Ġprovide":2366,"Ġweight":2367,"ological":2368,"Ġnormal":2369,"appro":2370,"Ġobserved":2371,"Ġconsid":2372,"Ġcap":2373,"Ġclust":2374,"viron":2375,"Ġpost":2376,"Ġanother":2377,"Ġabs":2378,"mary":2379,"pdf":2380,"icy":2381,"lected":2382,"Ġbuil":2383,"xspace":2384,"Ġexists":2385,"Ġseveral":2386,"point":2387,"bs":2388,"Ġrequire":2389,"Ġfactor":2390,"operator":2391,"Ġmoment":2392,"Un":2393,"cup":2394,"CO":2395,"Ġthus":2396,"----------------":2397,"Ġgrow":2398,"Ġminim":2399,"Ġbehav":2400,"Ġsit":2401,"Value":2402,"mo":2403,"}\\\\":2404,"ms":2405,"wise":2406,"////":2407,"ulations":2408,"Ġfrequ":2409,"Ġmeans":2410,"Ġ$(\\":2411,"($":2412,"uture":2413,"Ġbetter":2414,"off":2415,"ĠWh":2416,"idd":2417,"Ġbo":2418,"2012":2419,"Ġang":2420,".\"":2421,"36":2422,"Ġconsist":2423,"Ġprivate":2424,"citet":2425,"ules":2426,"roid":2427,"Ġsche":2428,"lying":2429,"Ġfamily":2430,"On":2431,"Ġproposed":2432,"Ġquantum":2433,"Ġ%":2434,"Ġmet":2435,"ale":2436,"ĠThey":2437,"Ġdefinition":2438,"prop":2439,"orth":2440,"chie":2441,"********":2442,"map":2443,"skip":2444,"call":2445,"ibility":2446,"Mod":2447,"Ġge":2448,"Ġcirc":2449,"48":2450,"Ġenc":2451,"ĠLemma":2452,"ank":2453,"âĢĶ":2454,"Ġiss":2455,"Ġelement":2456,"hspace":2457,"Ġ&\\":2458,"Ġeval":2459,"Ġequival":2460,"Ġplace":2461,"Ġcross":2462,"Ġopp":2463,"ape":2464,"ordin":2465,"ertain":2466,"ĠĠĠĠĠĠĠĠĠĠĠĠĠĠĠĠĠĠĠĠĠĠĠ":2467,"ek":2468,"ably":2469,"));":2470,"Ġradi":2471,"ĠPh":2472,"Ġturn":2473,"Ġhal":2474,"indent":2475,"Ġadv":2476,"Ġcompar":2477,"Ġassume":2478,"Ġlife":2479,"Ġbelow":2480,"lish":2481,"inc":2482,"Ġexpected":2483,"ĠInd":2484,"arent":2485,"ĠThese":2486,"Ġrelations":2487,"ocument":2488,"ocial":2489,"equiv":2490,"Ġaccount":2491,"rack":2492,"Ġlines":2493,"Ġcost":2494,"Ġassociated":2495,"ready":2496,"95":2497,"Ġsepar":2498,"({\\":2499,"Ġindependent":2500,"nbsp":2501,"kes":2502,"scale":2503,"âĢĵ":2504,"ĉĊ":2505,"roups":2506,"Ġfit":2507,"2011":2508,"raction":2509,"ributions":2510,"Ġavailable":2511,"based":2512,"Ġproperty":2513,"ĠThere":2514,"til":2515,"31":2516,"uro":2517,"ands":2518,"Ġinvol":2519,"conom":2520,"Ġimpl":2521,"Ġconn":2522,"upp":2523,"Ġfixed":2524,"ina":2525,"Ġloss":2526,"rary":2527,"Ġorgan":2528,"========":2529,"Ġdel":2530,"Ġblock":2531,"Ġaverage":2532,"reen":2533,"Ġhom":2534,"sw":2535,"ĠCol":2536,"Ġstatic":2537,"CT":2538,"}:":2539,"unc":2540,"}+\\":2541,"Ġoperator":2542,"ush":2543,"dt":2544,"ĠYou":2545,"Ġalways":2546,"af":2547,"ional":2548,"angu":2549,"footnot":2550,"Ġleg":2551,"Ġconsidered":2552,"ariant":2553,"nal":2554,"Ġlearning":2555,"Ġindiv":2556,"Ġvol":2557,"AP":2558,"]$":2559,"Ġeither":2560,"}}{\\":2561,"test":2562,"38":2563,"Ġbook":2564,"Ġsuccess":2565,"].":2566,"Ġscale":2567,"lished":2568,"Ġgive":2569,"idence":2570,"ĠSince":2571,"Ġsimple":2572,"Ġseen":2573,"Ġfocus":2574,"Ġanaly":2575,"Ġspin":2576,"Ġachie":2577,"igen":2578,"ared":2579,"Ġdatas":2580,"|^":2581,"rc":2582,"];":2583,"field":2584,"Ġexact":2585,"ising":2586,"sin":2587,"'$":2588,"ĠAt":2589,"ird":2590,"mid":2591,"ĠâĢĺ":2592,"ĠSo":2593,"eloc":2594,"Ġtext":2595,"eV":2596,"Ġcontext":2597,"px":2598,"Ġdescribed":2599,"ĠBe":2600,"}-\\":2601,"Ġsequence":2602,"Ġcheck":2603,"ĠLe":2604,"neq":2605,"04":2606,")-":2607,"Ġnumer":2608,"operatorname":2609,"group":2610,"ĠâĢĶ":2611,"aster":2612,"2010":2613,"65":2614,"Ġtitle":2615,"Ġsem":2616,"Ġgr":2617,"ty":2618,"most":2619,"Sh":2620,"inally":2621,"37":2622,"Bu":2623,"though":2624,"verg":2625,"ohn":2626,"rap":2627,"Ġtransition":2628,"Ġequations":2629,"ĠUnited":2630,"Ġmight":2631,"ium":2632,"pose":2633,"lay":2634,"tle":2635,"Ġfeatures":2636,"indow":2637,"ems":2638,"rior":2639,"ste":2640,"Ġdenote":2641,"Ġrat":2642,"Ġsk":2643,"Ġnat":2644,"Ġflow":2645,"Ġ/**":2646,"Ġschool":2647,"Ġstep":2648,"ED":2649,"pping":2650,"location":2651,"Col":2652,"Ġinclude":2653,"vironment":2654,"pact":2655,"index":2656,"Ġdistance":2657,"Ġindividual":2658,"Ġgovernment":2659,"Ġelements":2660,"IS":2661,"Ġgoing":2662,"stit":2663,"Ġveloc":2664,"result":2665,"Ġstar":2666,"ored":2667,"now":2668,"umerate":2669,"sy":2670,"Ġconfig":2671,"date":2672,"theorem":2673,"Ġresearch":2674,"âĢ¦":2675,"Ġ-\\":2676,"multic":2677,"Cont":2678,"Ġseries":2679,"une":2680,"annel":2681,"Ġreason":2682,"39":2683,"Ġshort":2684,"Ġboundary":2685,"ĠThus":2686,"08":2687,"Ġcare":2688,"Ġsurface":2689,"Ġalready":2690,"Ġindex":2691,"ottom":2692,"ula":2693,"Ġday":2694,"tack":2695,"Ġcy":2696,"ĠApp":2697,"ĠMore":2698,"Ġconstruct":2699,"ribute":2700,"][":2701,"rror":2702,"Test":2703,"Ġnecess":2704,"from":2705,"Ġbi":2706,")}{":2707,"Ġimplement":2708,"Ġpract":2709,"Ġfields":2710,"erg":2711,"path":2712,"multicolumn":2713,"place":2714,"55":2715,"noindent":2716,"ling":2717,"Ġwhether":2718,"ware":2719,"Object":2720,"osp":2721,"Ġrequired":2722,"With":2723,"ches":2724,"chan":2725,"enumerate":2726,"Ġlarger":2727,"Ġemploy":2728,"urs":2729,"outh":2730,"ternal":2731,"Ġside":2732,"Ġsugg":2733,"alk":2734,"Ġsuggest":2735,"Ġhead":2736,"Ġsetting":2737,"Ser":2738,"Exception":2739,"file":2740,"ĠShe":2741,"ensor":2742,"02":2743,"itemize":2744,"iles":2745,"Ġconstraint":2746,"Ġmetric":2747,"Ġrelated":2748,"Ġdiv":2749,"Ġhealth":2750,"ĠAll":2751,"itor":2752,"ently":2753,"Ġhapp":2754,"rag":2755,"Ġcode":2756,"Ġlik":2757,"star":2758,"http":2759,"06":2760,"usic":2761,"link":2762,"page":2763,"ides":2764,"ĠComm":2765,"Ġemb":2766,"ressed":2767,"edge":2768,"iven":2769,"44":2770,"Ġbusiness":2771,"]\\":2772,"ley":2773,"dag":2774,"ograph":2775,"Ġinstance":2776,"ĠAmerican":2777,"}}_":2778,"Ġlater":2779,"vspace":2780,"https":2781,"Ġoptim":2782,"quot":2783,"Ġcoll":2784,"ister":2785,"Ġbreak":2786,"Ġcertain":2787,"aut":2788,"Ġglobal":2789,"Ġ:=":2790,"Ġblack":2791,"load":2792,"Ġoutput":2793,"ĠFe":2794,"orld":2795,"body":2796,"Ġuser":2797,"){":2798,"wards":2799,"Ġ\\|":2800,"Ġgives":2801,"omial":2802,"Ġarea":2803,"scr":2804,"Ġaccess":2805,"Ġelectron":2806,"lied":2807,"izing":2808,"Ġcell":2809,"list":2810,"07":2811,"side":2812,"ĠUS":2813,"Ġimplies":2814,"Ġspecial":2815,"Ġ///":2816,"2009":2817,"Ġdomain":2818,"ply":2819,"LL":2820,"Ġnote":2821,"Ġdenot":2822,"Ġfuture":2823,"Ġinvestig":2824,"split":2825,"Ġauthor":2826,"Ġtherefore":2827,"ilities":2828,"atter":2829,"ussian":2830,"rist":2831,"Ġedge":2832,"ober":2833,"Ġann":2834,"Ġbelie":2835,"Ġmajor":2836,")}$":2837,"(-":2838,"Ġcover":2839,"Ġvia":2840,"Ġunderstand":2841,"RO":2842,"Ġ_{":2843,"ager":2844,"perty":2845,"Ġeffective":2846,"Ġcommon":2847,"$}":2848,"Ġ||":2849,"Ġable":2850,"Ġshall":2851,"ĠNo":2852,"Ġtoo":2853,"Ġteam":2854,"dimensional":2855,"ĠString":2856,"fer":2857,"Ġcoe":2858,"www":2859,"racy":2860,"state":2861,"Ġsolutions":2862,"ework":2863,"pol":2864,"serv":2865,"ume":2866,"Ġmove":2867,"ĠCent":2868,"Ġclaim":2869,"Ind":2870,"\\}":2871,"03":2872,"ouble":2873,"Ġcannot":2874,"rim":2875,"ighb":2876,"He":2877,"anel":2878,"that":2879,"Ġlink":2880,"Se":2881,"Ġoriginal":2882,"Ġbackground":2883,"js":2884,"approx":2885,"arc":2886,"nces":2887,"na":2888,"eter":2889,"Ġhowever":2890,"Ġfar":2891,"Ġlabel":2892,"ES":2893,"2008":2894,"Ġversion":2895,"plus":2896,"66":2897,"Ġfund":2898,"\\}$":2899,"Ġweak":2900,"Get":2901,"09":2902,"IM":2903,"Ġprovided":2904,"().":2905,"di":2906,"ury":2907,"gs":2908,"Ġstre":2909,"url":2910,"Ġamong":2911,"gether":2912,"ha":2913,"Ġtogether":2914,"Ġcomponent":2915,"Ġcoupl":2916,"{}":2917,"\")":2918,"ĠStates":2919,"\\,\\":2920,"Ġclose":2921,"Ġwidth":2922,"}}}":2923,"Ġperson":2924,"ctors":2925,"Ġreally":2926,"Ġes":2927,"Ġholds":2928,"eral":2929,"Ġacross":2930,"Ġprove":2931,"sequ":2932,"public":2933,"ĠSer":2934,"Ġtry":2935,"Ġunit":2936,"Ġvarious":2937,"tic":2938,"cle":2939,"ĉĉĉĉĉ":2940,"Ġstars":2941,"pped":2942,"comp":2943,"Ġspectrum":2944,"Ġhard":2945,"Ġaccording":2946,"bb":2947,"En":2948,"length":2949,"nection":2950,"resh":2951,"anguage":2952,"omorphism":2953,"ustom":2954,"View":2955,"ris":2956,"197":2957,"Ġrole":2958,"Ġtre":2959,"Ġfac":2960,"Ġput":2961,"Ġhtt":2962,"medi":2963,"Ġtaken":2964,"Ġfile":2965,"Ġestab":2966,"Ġdegree":2967,"model":2968,"iform":2969,"Ġben":2970,"Ġeffects":2971,"NN":2972,"Ġmagnetic":2973,"Class":2974,"Ġoften":2975,"Ġrelation":2976,"Ġill":2977,"Ġfore":2978,"rule":2979,"Ġeffic":2980,"Ġbecome":2981,"});":2982,")+":2983,"Ġhome":2984,"Ġgenerated":2985,"49":2986,"Ġregular":2987,"AB":2988,"ĠCl":2989,"tra":2990,"Ġrequest":2991,"linear":2992,"Ġhuman":2993,"leg":2994,"Ġbasis":2995,"Ġenough":2996,"ION":2997,"Ġmatter":2998,"ackage":2999,"Ġwave":3000,"Ġvalid":3001,"Ġtransform":3002,"och":3003,"Ġwar":3004,"Ġcontent":3005,"Ġequal":3006,"mathscr":3007,"Ġsets":3008,"mark":3009,"ught":3010,"Ġdifference":3011,"Ġ!=":3012,"2021":3013,"nav":3014,"Ġoffic":3015,"ĠEng":3016,"Pi":3017,"Ġpolit":3018,"display":3019,"Ġadditional":3020,"());":3021,"~$":3022,"ĠÂ":3023,"reed":3024,"ends":3025,"acy":3026,"wit":3027,"47":3028,"onic":3029,"bigg":3030,"Ġrepresentation":3031,"ought":3032,"Ġestimate":3033,"ĠMay":3034,"Ġold":3035,"astic":3036,"util":3037,"Ġspecific":3038,"underline":3039,"Ġstrateg":3040,"PE":3041,"Ġalgebra":3042,"Ġnum":3043,"hood":3044,"semb":3045,"Ġband":3046,"fill":3047,"bo":3048,"ĠOr":3049,"ptions":3050,"actions":3051,"cell":3052,"Ġvelocity":3053,"Ġcoordin":3054,"ĠCar":3055,"ĠJan":3056,"Ġ$\\{":3057,"IR":3058,"ĠCO":3059,"Ġimages":3060,"ffer":3061,"ino":3062,"norm":3063,"Ġmillion":3064,"Ġfig":3065,"Ġdone":3066,"Ġcountry":3067,"Ġcompared":3068,"Ġgas":3069,"._":3070,"ĠPl":3071,"but":3072,"Ġcontains":3073,"From":3074,"Ġevents":3075,"Since":3076,"Ġwhose":3077,"ĠTherefore":3078,"ĠThat":3079,"ET":3080,"Ġvi":3081,"Ġbegin":3082,"Ġevolution":3083,"&&":3084,"\"></":3085,"ĠWith":3086,"State":3087,"Ġmultiple":3088,"ĠIs":3089,"mooth":3090,"68":3091,"Ġ/>":3092,"67":3093,"textrm":3094,"Ġcomponents":3095,"Ġeigen":3096,"cret":3097,"App":3098,"down":3099,"ponent":3100,"Error":3101,"Ġprec":3102,"LO":3103,"Ġgroups":3104,"ires":3105,"mp":3106,"cy":3107,"}^{-":3108,"gen":3109,"Ġla":3110,"Ġtheorem":3111,"Ġnever":3112,"amil":3113,"Ġvariables":3114,"ĠOb":3115,"ĠCan":3116,"atively":3117,"uly":3118,"Ġdep":3119,"Ġcome":3120,"Le":3121,"Ġpresented":3122,"Ġeconom":3123,"ĠWhen":3124,"ledge":3125,"ken":3126,"Ġwrite":3127,"matic":3128,"Qu":3129,"Ġquestion":3130,"Ġdimension":3131,"Ġconc":3132,"Ã©":3133,"Ġmonth":3134,"Ġgame":3135,"abor":3136,"kn":3137,"icture":3138,"ians":3139,"Then":3140,"ĠJohn":3141,"dist":3142,"Ġlearn":3143,"Theta":3144,"}/":3145,"fl":3146,"Ġsays":3147,"ceed":3148,"Ġexplain":3149,"Ġmechan":3150,"deed":3151,"Ġ\\;":3152,"ĠTable":3153,"``":3154,"ogn":3155,"earch":3156,"ĠNational":3157,"like":3158,"Ġbase":3159,"\";":3160,"CC":3161,"Ġperm":3162,"Ġcateg":3163,"come":3164,"Key":3165,"eff":3166,"Ġcolor":3167,"Ġnatural":3168,"2007":3169,"\\!\\!":3170,"Ġearly":3171,"minus":3172,"Ġpay":3173,"Ġprom":3174,"urope":3175,"aches":3176,"AD":3177,"Ġsatisfy":3178,"izes":3179,"Requ":3180,"alle":3181,"Ġappear":3182,"command":3183,"Ġmembers":3184,"Ġsocial":3185,"Ġrot":3186,"ln":3187,"Ġ$|":3188,"png":3189,"ĠCo":3190,"Ġcolumn":3191,"texttt":3192,"rows":3193,"Ġhaving":3194,"Ġneut":3195,"ĠOne":3196,"ching":3197,"}}_{":3198,"!--":3199,"normal":3200,"ĠTe":3201,"Ġuntil":3202,"ours":3203,"cript":3204,"lin":3205,"ided":3206,"^-":3207,"error":3208,"oad":3209,"Ġresponse":3210,"Ġeng":3211,"cing":3212,"Ġprim":3213,"bound":3214,"clusion":3215,"Ġhistory":3216,"Ġbig":3217,"prod":3218,"ogle":3219,"Ġdirection":3220,"ortun":3221,"iving":3222,"eneral":3223,"Ġmaximum":3224,"ynomial":3225,"Ġmaterial":3226,"Ġsqu":3227,"pers":3228,"ats":3229,"Ġrather":3230,"dom":3231,"ession":3232,"{$":3233,"Ġamount":3234,"PS":3235,"footnote":3236,"ĠCor":3237,"98":3238,"flo":3239,"Ġcreate":3240,"Ġimprove":3241,"Ġaddress":3242,"Ġflux":3243,"ilit":3244,"taint":3245,"Vert":3246,"xy":3247,"ounter":3248,"used":3249,"icit":3250,".</":3251,"subseteq":3252,"icult":3253,"fe":3254,"Ġevalu":3255,"tact":3256,"vergence":3257,"lock":3258,"Ġratio":3259,"ze":3260,"ĠSp":3261,"Ġcommunity":3262,"ĠYork":3263,"........":3264,"ĠMan":3265,"}},":3266,"Ġneighb":3267,"Ġincrease":3268,"auge":3269,"Ġarray":3270,"Ġprior":3271,"my":3272,"aries":3273,"Ġenvironment":3274,"LA":3275,"2006":3276,"=\"../../":3277,"),\\":3278,"<\\":3279,"Ġloc":3280,"Ġcomplete":3281,"Ġpub":3282,")|":3283,"summary":3284,"ĠState":3285,"ĠNote":3286,"CD":3287,"Ġalmost":3288,"And":3289,"multi":3290,"Ġpo":3291,"Ġ($\\":3292,"Ġred":3293,"Ġsens":3294,"}'":3295,"Time":3296,"Ġgalaxies":3297,"Ġworks":3298,"97":3299,"Ġcut":3300,"All":3301,"ĠĠĠĠĠĠĠĠĠĠ":3302,"ething":3303,"user":3304,"ĠAct":3305,",\"":3306,"Ġwritten":3307,"rated":3308,"85":3309,"iction":3310,"Ġservice":3311,"setminus":3312,"irect":3313,"itude":3314,"Ġground":3315,"Ġchall":3316,"ending":3317,"Ġdevelopment":3318,"Ġant":3319,"Ġsignal":3320,"rest":3321,"ĠPol":3322,"Ġsubject":3323,"uments":3324,"Ġprovides":3325,"true":3326,"icro":3327,"Equ":3328,"Ġapplied":3329,"$_":3330,"At":3331,"Ġchanges":3332,"EE":3333,"Ġcontinuous":3334,"Ġ$-":3335,"Ġreview":3336,"Ġproblems":3337,"Ġobservations":3338,"Ġcompany":3339,"input":3340,"Ġgeom":3341,"ump":3342,"pc":3343,"enn":3344,"uary":3345,"Ġiter":3346,"_+":3347,"^{-\\":3348,"Ġbehavior":3349,"certaint":3350,"ait":3351,"Ġchildren":3352,"\\'":3353,"agement":3354,"dagger":3355,"Ġdecre":3356,"nder":3357,"Ġthings":3358,"ĠEurope":3359,"Ġfilm":3360,"There":3361,"Ġrefer":3362,"Ġret":3363,"ĠFran":3364,"ney":3365,"Ġgrad":3366,"rast":3367,"Ġphysical":3368,"Ġimpact":3369,"');":3370,"Not":3371,"Ġunique":3372,"Ġrecord":3373,"Ġinequ":3374,"check":3375,"Ġdemon":3376,"long":3377,"Ġfrequency":3378,"Ġrelative":3379,"(),":3380,"ĠGa":3381,"Ġdetect":3382,"Ġemission":3383,"Ref":3384,"Ġsl":3385,"Ġmaking":3386,"sel":3387,"Ġexec":3388,"46":3389,"Ġpress":3390,"Ġ?":3391,"fil":3392,"Ġequivalent":3393,"Ġattack":3394,"ĠPres":3395,"mag":3396,"Ġmode":3397,"Ġsources":3398,"Note":3399,"hib":3400,"UR":3401,"ended":3402,"Ġpolicy":3403,"Ġchoice":3404,"Ġfun":3405,"ket":3406,"IG":3407,"ret":3408,"Ġupper":3409,"atus":3410,"oriz":3411,"Ġtreat":3412,"Ġtask":3413,"thing":3414,"wedge":3415,"ony":3416,"File":3417,"Ġdetails":3418,"Ġfa":3419,"Ġproced":3420,"Ġsmaller":3421,"=\"+":3422,"rices":3423,"using":3424,"Ġcorrect":3425,"ĠSc":3426,"Text":3427,"aves":3428,"0000":3429,"Ġsearch":3430,"Ġscen":3431,"therm":3432,"istics":3433,"isk":3434,"Ġdirectly":3435,"ĠĠĠĊ":3436,"2005":3437,"UT":3438,"Ġdifficult":3439,"bt":3440,"Or":3441,"Ġintegral":3442,"Ġnoise":3443,"Ġobjects":3444,"alt":3445,"ĠĠĠĠĠĠĠĠĠĠĠĠ":3446,"Ġir":3447,"main":3448,"Ġcritical":3449,"Ph":3450,"42":3451,"_{(":3452,"Ġcentral":3453,"Ġworking":3454,"linewidth":3455,"OT":3456,"ensions":3457,"Ġnuc":3458,"amilton":3459,"det":3460,"Ġmakes":3461,"PT":3462,"partment":3463,"Man":3464,"oplus":3465,"Ġkeep":3466,"['":3467,"CH":3468,"Ġep":3469,"tical":3470,"Ġbecomes":3471,"Ġclosed":3472,"Ġapply":3473,"osed":3474,"fact":3475,"encies":3476,"Ġderiv":3477,"Ġsymmetry":3478,"mar":3479,"Ġincreasing":3480,"iver":3481,"But":3482,"Ġsufficient":3483,"ĠMin":3484,"ideo":3485,"Ġprop":3486,"Ġpolynomial":3487,"icon":3488,"':":3489,"Ġdetermined":3490,"ellar":3491,"Event":3492,"FF":3493,"Ġthird":3494,"Ġwords":3495,"ĠRef":3496,"Ġinstead":3497,"\":":3498,"cast":3499,"ada":3500,"ulated":3501,"Ġlot":3502,"Ġfive":3503,"*{":3504,"Ġ(-":3505,"New":3506,"Ġver":3507,"Ġ$[":3508,"Ġvir":3509,"gress":3510,"Ġdataset":3511,"ML":3512,"jection":3513,"Over":3514,"vant":3515,"Ġcourse":3516,"Ġembed":3517,"Ġagre":3518,"lex":3519,"ords":3520,"Ġtaking":3521,"allel":3522,"perp":3523,"acc":3524,"Ġsent":3525,"Ġsomething":3526,"uracy":3527,"aced":3528,"Ġmusic":3529,"Ġoperators":3530,"known":3531,"Ġsense":3532,"MA":3533,"Is":3534,"ĠEn":3535,"Ġpast":3536,"Ġhence":3537,"vis":3538,"eline":3539,"Ġviol":3540,"aged":3541,"Ġcam":3542,"Ġinteraction":3543,"MS":3544,"can":3545,"Ġhalf":3546,"Ġlittle":3547,"ĠCal":3548,"uk":3549,"Ġ|\\":3550,"osition":3551,"subfigure":3552,"block":3553,"Ġstudents":3554,"Ġnam":3555,"level":3556,"ĠBl":3557,"Ġport":3558,"Ġarch":3559,"oud":3560,"arily":3561,"Ġpopulation":3562,"Ġhol":3563,"ried":3564,"ully":3565,"igned":3566,"Ġdiagram":3567,"Ġstory":3568,"Ġthough":3569,"curity":3570,"']":3571,"Ġlatt":3572,"ports":3573,"Ġpert":3574,"Ġeduc":3575,"Ġtw":3576,"spec":3577,"olean":3578,"Ġinfin":3579,"Ġvariable":3580,"Ġassert":3581,"ĠMed":3582,"config":3583,"lor":3584,"object":3585,"Ġax":3586,"Wh":3587,"Ġdays":3588,"change":3589,"Ġsyn":3590,"ls":3591,"osen":3592,"Ġregions":3593,"desc":3594,"ront":3595,"Ġcomplet":3596,"stance":3597,"Result":3598,"Ġcurve":3599,"local":3600,"Ġexplicit":3601,"limits":3602,"book":3603,"_*":3604,"Ġdiscussed":3605,"ansion":3606,"Ġland":3607,"Ġbounded":3608,"ributed":3609,"Ġsmooth":3610,"96":3611,"Ġapproximation":3612,"Ġentire":3613,"ĠChrist":3614,"Request":3615,"Ġuncertaint":3616,"Ġnumbers":3617,"43":3618,"Ġpercent":3619,"ĠArt":3620,"Ġallows":3621,"aly":3622,"atives":3623,"ocal":3624,"2000":3625,"57":3626,"ĠSch":3627,"_{{\\":3628,"Ġ}\\":3629,"Ġgrav":3630,"Ġcompact":3631,"\\\\\\\\\\\\\\\\":3632,"ĠOct":3633,"Ġtable":3634,"Tr":3635,"bul":3636,"88":3637,"ĠMarch":3638,"Ġdemonstr":3639,"AA":3640,"do":3641,"TR":3642,"ĠAug":3643,"definition":3644,"Ġgauge":3645,"Ġgot":3646,"2004":3647,"Ġtypes":3648,"Ġwomen":3649,"inos":3650,"Ġvertex":3651,"Ġparticles":3652,")/":3653,"aligned":3654,"ched":3655,"duc":3656,"Ġlikely":3657,"Ġadj":3658,"Ġregard":3659,"Ġoccur":3660,"US":3661,"Ġleading":3662,"Ġparticle":3663,"andid":3664,"Ġnecessary":3665,"ropy":3666,"Ġuniform":3667,"Im":3668,"ĠWorld":3669,"ĠSim":3670,"Ġformula":3671,"Ġarbit":3672,"Ġfail":3673,"Node":3674,"ening":3675,")\\,":3676,"Ġess":3677,"Ġmeet":3678,"imate":3679,"Ġreported":3680,"Ġindust":3681,"ĠAss":3682,"ĠInt":3683,"Path":3684,"abs":3685,"Ġbuilding":3686,"ario":3687,"Ġstudies":3688,"++":3689,"ĠOur":3690,"ollary":3691,"Ġconstruction":3692,"}}(\\":3693,"ĠMar":3694,"orizon":3695,"ication":3696,"OS":3697,"Ġperturb":3698,"Ġwon":3699,"ashed":3700,"Ad":3701,"Ġyoung":3702,"ĠAg":3703,"Ġdefault":3704,"Ġplot":3705,"Ġpeak":3706,"Ġrob":3707,"Ġsubset":3708,"ĠPart":3709,"Ġcoupling":3710,"Pl":3711,"mon":3712,"}%":3713,"usion":3714,"hand":3715,"Be":3716,"height":3717,"ĠAf":3718,"Ġothers":3719,"Ġaway":3720,"Ġcity":3721,"undle":3722,"Ġmarket":3723,"textsc":3724,"Ġ-->":3725,"rate":3726,"Ġnodes":3727,"ĠProposition":3728,"diff":3729,"Ġdynamics":3730,"Ġspectral":3731,"Ġsimulations":3732,"ips":3733,"ĠJanuary":3734,"ĠReg":3735,"pril":3736,"Ġframework":3737,"tage":3738,"inv":3739,"Ġjob":3740,"Ġonce":3741,"atory":3742,"Ġapplication":3743,"Ġexpression":3744,"/*":3745,"newcommand":3746,"Index":3747,"One":3748,"ĠMod":3749,"oding":3750,"aging":3751,"FT":3752,"lt":3753,"Ġchannel":3754,"ĠWar":3755,"rivial":3756,"Of":3757,"oms":3758,"Ġparent":3759,"empty":3760,"((":3761,"ride":3762,"title":3763,"Ġconnected":3764,"Ġtakes":3765,"){\\":3766,"Ġactiv":3767,"Ġsoft":3768,"Ġdomin":3769,"Ġage":3770,"Ġsamples":3771,"Ġwhy":3772,"black":3773,"Net":3774,"_{-":3775,"Ġweek":3776,"iam":3777,"Ġkind":3778,"Ġconduct":3779,"Ġoptimal":3780,"itect":3781,"otic":3782,"ĠGe":3783,"run":3784,"enu":3785,"77":3786,"Def":3787,"SP":3788,")}(":3789,"Ġsimply":3790,"Ġdocument":3791,"Ġmention":3792,"valid":3793,"ĠBo":3794,"Ġdraw":3795,"irm":3796,"cho":3797,"forall":3798,"flow":3799,"endix":3800,"Ġpattern":3801,"Ġlayer":3802,"plate":3803,"ĠSystem":3804,"Ġrespons":3805,"Ġradius":3806,"Ġmaps":3807,"Ġ},":3808,"Ġcenter":3809,"oney":3810,"eli":3811,"58":3812,"Ġnumerical":3813,"colon":3814,"Ġproduction":3815,"ili":3816,"arameter":3817,"deg":3818,"Ġmotion":3819,"rain":3820,"Now":3821,"$(":3822,"Ġmomentum":3823,"amespace":3824,"Ġscheme":3825,"ags":3826,"aff":3827,"ai":3828,"lege":3829,"Ġcos":3830,"defined":3831,"Ġexperiments":3832,"/**":3833,"Ġmult":3834,"Ġamplit":3835,"41":3836,"tem":3837,"Ġsatisfies":3838,",\\,":3839,"Ġinteresting":3840,"ender":3841,"ING":3842,"ball":3843,"Ġinflu":3844,"Ġwhole":3845,"crete":3846,"Ġwater":3847,"ĠHere":3848,"rame":3849,"Ġpolar":3850,"Ġnegative":3851,"ĠSept":3852,"Add":3853,"Ġexperience":3854,"urch":3855,"ights":3856,"Ġspat":3857,"Ġlanguage":3858,"56":3859,"word":3860,"Ġinterpre":3861,"Ġtherm":3862,"ĠPresident":3863,"ĠFrom":3864,"cember":3865,"Ġintroduced":3866,"[]":3867,"Ġactually":3868,"When":3869,"inci":3870,"Ġwin":3871,"Ġmeasured":3872,"HE":3873,"ements":3874,"vey":3875,"iddle":3876,"oman":3877,"Ġcontribution":3878,"'\\":3879,"=(":3880,"anced":3881,".)":3882,"ises":3883,"ĠJune":3884,"Ġbenef":3885,"Ġresulting":3886,"Ġbroad":3887,"utes":3888,"md":3889,"Ġmagn":3890,"Ġminimum":3891,"Ġneeded":3892,"fficients":3893,"Ġinterval":3894,"Ġhost":3895,"Ġservices":3896,"Ġincluded":3897,"ĠĠĠĠĠĠĠĠĠĠĠĠĠĠĠĠĠĠĠĠĠĠĠĠĠĠĠ":3898,"ympt":3899,"'_":3900,"Ġbran":3901,"Info":3902,"Ġcluster":3903,"ĠGu":3904,"ĠHence":3905,"Ġcomparison":3906,")^{\\":3907,"Ġitself":3908,"ifier":3909,"Eq":3910,"Ġperformed":3911,"Ġ);":3912,"Ġlattice":3913,"gt":3914,"Table":3915,"ĠIntern":3916,"urtherm":3917,"urthermore":3918,"Ġclassical":3919,"ĠNot":3920,"Ġpref":3921,"Ġneeds":3922,"ones":3923,"hom":3924,"Ġillust":3925,"####":3926,"Ġop":3927,"Trans":3928,"stack":3929,"Ġknowledge":3930,"=-":3931,"={":3932,"Sub":3933,"Ġensure":3934,"simeq":3935,"Ġaccuracy":3936,"$^{-":3937,"rier":3938,"Ġsix":3939,"subsubsection":3940,"minist":3941,"Context":3942,"ĠFirst":3943,"Ġmanif":3944,"Ġrecogn":3945,"SU":3946,"ĠSci":3947,"ĠHamilton":3948,"overed":3949,"Ġbody":3950,"hel":3951,"Ġcult":3952,"Ġformer":3953,"ĠJuly":3954,"Ġcompute":3955,"Here":3956,"Ġask":3957,"Ġforce":3958,"raft":3959,"Ġvan":3960,"elling":3961,"ĠQu":3962,"Ġpanel":3963,"sup":3964,"column":3965,"agraph":3966,"Ġissue":3967,"Ġidea":3968,"dro":3969,"Ġexpress":3970,"Ġconsistent":3971,"ovember":3972,"ocol":3973,"ĠCount":3974,"void":3975,"asks":3976,"Ġmessage":3977,"}$-":3978,"';":3979,"lier":3980,"TE":3981,"Ġcorresponds":3982,"aring":3983,"2003":3984,")_{":3985,"ĠApril":3986,"())":3987,"ĠPr":3988,"Ġdeal":3989,"isions":3990,"Ġliter":3991,"Ġfraction":3992,".$":3993,"Ġderived":3994,"mage":3995,"Ġ+\\":3996,"acity":3997,"Ġtree":3998,"Sim":3999,"Our":4000,"{$\\":4001,"abled":4002,"ĠRep":4003,"ĠNe":4004,"Ġleads":4005,"Ġdecay":4006,"Ġvertices":4007,"Ġdouble":4008,"Ġfeel":4009,"Ġcharge":4010,":\\":4011,"OD":4012,".~(\\":4013,"base":4014,"pmatrix":4015,"erc":4016,"Ġinequality":4017,"roller":4018,"Ġassumption":4019,"pecially":4020,"Ġcorrespond":4021,"Ġ~":4022,"yl":4023,"Ġconstraints":4024,"Array":4025,"Ġaccept":4026,"ns":4027,"Ġcandid":4028,"Ġstreng":4029,")^{-":4030,"next":4031,"era":4032,"sto":4033,"Ġfri":4034,"Dis":4035,"Ġdeep":4036,"ners":4037,"Ġreference":4038,"CE":4039,"pri":4040,"Ġ(!":4041,"Ġcommit":4042,"ales":4043,"Ġcompet":4044,"Ġstyle":4045,"Ġdescribe":4046,"Ġargument":4047,"Ġjo":4048,"ured":4049,"Ġmeasurements":4050,"Ġ__":4051,"ĠSchool":4052,"ĠPa":4053,"gra":4054,"Ġyet":4055,"500":4056,"Ġtoday":4057,"prot":4058,"Ġmember":4059,"tual":4060,"ournal":4061,"zero":4062,"Config":4063,"inf":4064,"Cl":4065,"Map":4066,"Ġnetworks":4067,"Ġhold":4068,"rand":4069,"Ġseg":4070,"Ġthought":4071,"Ġclasses":4072,"AG":4073,"Ġdeath":4074,"ernel":4075,"dapt":4076,"$;":4077,"NS":4078,"eturn":4079,"}^*":4080,"case":4081,"Ġmechanism":4082,"Element":4083,";&":4084,"iter":4085,"ilder":4086,"69":4087,"Ġissues":4088,"ĠMc":4089,"Sp":4090,"Ġparticip":4091,"$).":4092,"cases":4093,"Ġtool":4094,"Ġtax":4095,"Ġcalculated":4096,"Ġsimpl":4097,"MC":4098,"ĠCour":4099,"MP":4100,"ĠDecember":4101,"////////":4102,"Ġdecision":4103,"Ġchoose":4104,"Ġnorm":4105,"Model":4106,"api":4107,"Att":4108,"More":4109,"Ġscatter":4110,"bin":4111,"ĠMe":4112,"method":4113,"war":4114,"Out":4115,"hers":4116,"87":4117,"Ġintern":4118,"Ġreceived":4119,"Ġcoefficients":4120,"Ġchain":4121,"Ġbar":4122,"Ġ});":4123,"Ġcorrelation":4124,"ĠMoreover":4125,"values":4126,"Ġexpansion":4127,"apache":4128,"icles":4129,"resents":4130,"ditional":4131,"ĠSeptember":4132,"Ġnational":4133,"range":4134,"Ġ\\(":4135,"However":4136,"Ġpolitical":4137,"Code":4138,"Ġadded":4139,"etic":4140,"Ġrequires":4141,"sol":4142,"Ġconv":4143,"bullet":4144,"Ġpresence":4145,"Service":4146,"ĠFeb":4147,"edu":4148,"ĠAfter":4149,"Ġmedia":4150,"ops":4151,"Ġrights":4152,"ham":4153,"No":4154,"ĠSouth":4155,"Ġnews":4156,"Ġbring":4157,"print":4158,"Ġchosen":4159,"Ġsimulation":4160,"\\\"":4161,"Ġscalar":4162,"Ġdetection":4163,"urg":4164,"dsh":4165,"Ġsite":4166,"dim":4167,"Fe":4168,"start":4169,"Ġrule":4170,"Ġevidence":4171,"Ġstudied":4172,"\".":4173,"ĠAugust":4174,"Ġbit":4175,"Ġedges":4176,"Ġplane":4177,"ele":4178,"Ġcompan":4179,"Ġdetermine":4180,"\\_":4181,"ĠOctober":4182,"ĠAb":4183,"Ġfigure":4184,"Ġdest":4185,"Ġupon":4186,"Ġrelevant":4187,"Ġprocedure":4188,"uthors":4189,"Ġtransfer":4190,"ux":4191,"}}^":4192,"ĠAust":4193,"content":4194,"default":4195,"rew":4196,"ĠTr":4197,"ued":4198,"Ġdistributions":4199,"remark":4200,"='":4201,"Ġremains":4202,"Ġreduced":4203,"ids":4204,"Ġsrc":4205,"ota":4206,"create":4207,"vex":4208,"Figure":4209,"isation":4210,"DF":4211,"Ġorbit":4212,"Ġdeveloped":4213,"example":4214,"Ġ=\\":4215,"Ġ&=&":4216,"izations":4217,"Ġdim":4218,"Size":4219,"ilib":4220,"dx":4221,"ously":4222,"year":4223,"pty":4224,"ancial":4225,"lease":4226,"ederal":4227,"ĠNovember":4228,"59":4229,"rown":4230,"uppose":4231,"Ġremov":4232,"hol":4233,"ccording":4234,"bert":4235,"ĠGerm":4236,"Ġparts":4237,"ened":4238,"ĠCity":4239,"First":4240,"PR":4241,"erences":4242,"rs":4243,"$$\\":4244,"SC":4245,"emic":4246,"ĠBrit":4247,"Ġmix":4248,"neg":4249,"Ġcharg":4250,"2001":4251,"Ġresolution":4252,"uck":4253,"Ġcame":4254,"Ġgrowth":4255,"Ġcomes":4256,"Ġcapt":4257,"Ġinc":4258,"Ġspectra":4259,"cons":4260,"current":4261,"Ġdepends":4262,"^{+":4263,"Ġtensor":4264,"\"\"":4265,"Color":4266,"ociety":4267,"Ġincludes":4268,"Ġaltern":4269,"Ġprocesses":4270,"Ġsupported":4271,"Ġadopt":4272,")}{\\":4273,"ĠMon":4274,"ites":4275,"Ġeffort":4276,"rump":4277,"~$\\":4278,"=\"../../../../":4279,"Ġexactly":4280,"Reg":4281,"odot":4282,"Ġespecially":4283,"Ð¾":4284,"Ġquality":4285,"module":4286,"Ġexperiment":4287,"Ġdecom":4288,"})$.":4289,"Ġuses":4290,"lete":4291,"Ġmiss":4292,"Ġuseful":4293,"BC":4294,"ĠII":4295,"band":4296,"Ġfactors":4297,"Ġdescription":4298,"Item":4299,"Ġdenotes":4300,")\\\\":4301,"Ġproper":4302,"Ġ/*":4303,"Ġhyper":4304,"2002":4305,"Ġcreated":4306,"dered":4307,"SO":4308,"Ġexamples":4309,"Ġidentify":4310,"stein":4311,"Ġappropri":4312,"Ġgen":4313,"ĠSet":4314,"TD":4315,"End":4316,"Ġforward":4317,"Ġdependence":4318,"Ġonline":4319,"Bar":4320,"ĠAmerica":4321,"Ġrecently":4322,"Ġrestrict":4323,"ogene":4324,"ĠPar":4325,"Ġfall":4326,"ĠGaussian":4327,"Ġframe":4328,"ĠWill":4329,"ster":4330,"Ġagreement":4331,"Ġessential":4332,"Ġsteps":4333,"ung":4334,"ĠMark":4335,"Ġquite":4336,"ui":4337,"sequence":4338,"ĠHar":4339,"Ġstatement":4340,"Ġstellar":4341,"MM":4342,"PC":4343,"54":4344,"berg":4345,"lang":4346,"Ġtook":4347,"Ġconcern":4348,"Ġconnection":4349,"roduction":4350,"Ġrates":4351,"Ġheight":4352,"Ġalgorithms":4353,"Ġinvariant":4354,"Ġcurves":4355,"ĠNorth":4356,"Ġshape":4357,"Ġmis":4358,"Ġcontinue":4359,"Ġvolume":4360,"}}^{":4361,"Ġeasy":4362,"](":4363,"Message":4364,"Ġmarg":4365,"Ġrepresents":4366,"Ġeasily":4367,"SI":4368,"Ġnature":4369,"Ġimmedi":4370,"Ġword":4371,"52":4372,"Ġcustom":4373,"supp":4374,"Ġdisk":4375,"ĠWhile":4376,"bottom":4377,"Ġselected":4378,"Ġexperimental":4379,"Ġansw":4380,"ratic":4381,"Ġquas":4382,"rie":4383,"Ġ]":4384,"core":4385,"51":4386,"Ġdual":4387,"graph":4388,"Ġord":4389,")$-":4390,"Ġsuccessful":4391,"****************":4392,"Ent":4393,"avy":4394,"Ġsolid":4395,"Ġones":4396,"Ġrank":4397,"ĠWhat":4398,"nov":4399,"tes":4400,"Ġorigin":4401,"Ġdark":4402,"selves":4403,"ores":4404,"ana":4405,"Ġcomputed":4406,"63":4407,"Ġlevels":4408,"Ġair":4409,"Ġstrategy":4410,"Ġsplit":4411,"ĠDis":4412,"Ġspeed":4413,"ync":4414,"Ġincreases":4415,"free":4416,"Ġconfiguration":4417,"Ġsure":4418,"ruary":4419,"oring":4420,"Ġavoid":4421,"Thus":4422,"Ġselect":4423,"Hand":4424,"Field":4425,"lib":4426,"Ġoptions":4427,"Ġdisplay":4428,"ĠAfric":4429,"78":4430,"iny":4431,"atform":4432,"has":4433,"atal":4434,"Ġangle":4435,"Ġcouple":4436,"iency":4437,"Ġsymbol":4438,"ĠEd":4439,"came":4440,"Ġerrors":4441,"ilibri":4442,"Ġlocation":4443,"Ġbuild":4444,"Ġexcept":4445,"Ġprinci":4446,"Ġmar":4447,"Ġactive":4448,"\\|_{":4449,"Ġidentity":4450,"ĠComp":4451,"Ġconcept":4452,"Ġsequ":4453,"Ġfully":4454,"Ġestimated":4455,"Ġflo":4456,"ĠTrans":4457,"assert":4458,"Ġdecl":4459,"uations":4460,"Ġjava":4461,"Ġreach":4462,"tri":4463,"ĠMa":4464,"ĠDo":4465,"eler":4466,"ills":4467,"info":4468,"UN":4469,"prob":4470,"Ġintroduce":4471,"ged":4472,"fit":4473,"Ġopportun":4474,"IP":4475,"ensive":4476,"Inter":4477,"ENT":4478,"izer":4479,"ĠLi":4480,"Log":4481,"Ġspaces":4482,"Ġspeak":4483,"omorphic":4484,"Ġbecame":4485,"Ġlatter":4486,"Ġpul":4487,"ĠLa":4488,"iques":4489,"Ġtrac":4490,"ĠNow":4491,"Ġattempt":4492,"Ġimp":4493,"image":4494,"static":4495,"Ġrisk":4496,"count":4497,"53":4498,"reshold":4499,"Ġinternal":4500,"Ġpage":4501,"Ġ$$":4502,"Theorem":4503,"ounc":4504,"Ġlonger":4505,"ius":4506,"avor":4507,"Ġadapt":4508,"ĠGet":4509,"Ġthing":4510,"Ġface":4511,"}&":4512,"Ġchalleng":4513,"active":4514,"Ġapproaches":4515,"Ġmatrices":4516,"Ġspatial":4517,"Ġoperation":4518,"efore":4519,"Ġselection":4520,"Ġextended":4521,"abilities":4522,")_":4523,"Ġmodes":4524,"ography":4525,">&":4526,"Ġarbitrary":4527,"Ġoutside":4528,"char":4529,"Ġcountries":4530,"que":4531,"cd":4532,"Ġgoal":4533,"Ġformation":4534,"context":4535,"Ġsignificantly":4536,"mission":4537,"inct":4538,"Ġarchitect":4539,"Ġdate":4540,"Ġsymmetric":4541,"Ġgalaxy":4542,"Ġrepl":4543,"Ġcontact":4544,"Ġgain":4545,"So":4546,"Ġapplications":4547,"Ġdidn":4548,"false":4549,"Ġcontrast":4550,"stant":4551,"Ġdoing":4552,"Ġsingular":4553,"ĠÐ":4554,"LS":4555,"Ġcorrel":4556,"Ġseason":4557,"Ġestimates":4558,"Ġasympt":4559,"Pr":4560,"ĠLaw":4561,"gener":4562,"Ġpropag":4563,"rec":4564,"Ġattention":4565,"css":4566,"Ġsituation":4567,"mapsto":4568,"ama":4569,"62":4570,"Ġlimited":4571,"Ġcosm":4572,"olic":4573,"ithub":4574,"Ġbox":4575,"93":4576,"option":4577,"$~":4578,"java":4579,"Ġroot":4580,"Ġusers":4581,"proposition":4582,"oder":4583,"rant":4584,"Ġarticle":4585,"super":4586,"\\{\\":4587,"Ġautom":4588,"Ġcore":4589,"bold":4590,"Ġexistence":4591,"ĠDi":4592,"mes":4593,"Ġstructures":4594,"Ġaim":4595,"Ġtheore":4596,"first":4597,"Ab":4598,"ĠVal":4599,"ming":4600,"db":4601,"Ġbeg":4602,"ĠHis":4603,"Ġconvergence":4604,"ament":4605,"Ġ===":4606,"|_{":4607,"Ġlove":4608,"itable":4609,"rief":4610,"fect":4611,"Ġyields":4612,"Ġsong":4613,"{{":4614,"iting":4615,"ypes":4616,"ivil":4617,"94":4618,"Ġrow":4619,"Ġachieve":4620,"ponse":4621,"Ġarm":4622,"Ġvers":4623,"Ġaud":4624,"Ġever":4625,"Ġcollection":4626,"spect":4627,"ĠPer":4628,"LT":4629,"_-":4630,"Ġareas":4631,"comple":4632,"ached":4633,"OM":4634,"ĠHamiltonian":4635,"Ġdiscussion":4636,"Ġseems":4637,"arant":4638,"Ġpartition":4639,"ĠMy":4640,"Property":4641,"Ġcontract":4642,"ker":4643,"Ġallowed":4644,"utive":4645,"ĠChe":4646,"ingu":4647,"Ġstarted":4648,"rees":4649,"Ġcompare":4650,"ĉĉĉĉĉĉ":4651,"Ġproduced":4652,"nowled":4653,"Ġlive":4654,"ilibrium":4655,"ilitary":4656,"LP":4657,"ĠCourt":4658,"ponential":4659,"ky":4660,";</":4661,"ĠBar":4662,"ĠHouse":4663,"Ġvideo":4664,"Ġextract":4665,"Ġtowards":4666,"parent":4667,"ampling":4668,"num":4669,"Co":4670,"displaystyle":4671,"Ġslow":4672,"arp":4673,"Ġinteractions":4674,"ĠTrump":4675,"Ġlargest":4676,"Ġpressure":4677,"NR":4678,"Ġoperations":4679,"CP":4680,"ributes":4681,"Ġsecurity":4682,"amental":4683,"Ġcr":4684,"ĠFebruary":4685,"ington":4686,"lient":4687,"Ġmen":4688,"idden":4689,"tainer":4690,"ATE":4691,"mail":4692,"multirow":4693,"produ":4694,"Ġquad":4695,"Ġpairs":4696,"Ġinside":4697,"Ġshare":4698,"zz":4699,"Method":4700,"Ġprofile":4701,"conn":4702,"cr":4703,"Ġstage":4704,"Ð°":4705,"ypot":4706,"Ġhouse":4707,"itz":4708,"then":4709,"Ġblue":4710,"Ġstrength":4711,"etime":4712,"Ġpublished":4713,"Ġmeasurement":4714,"Ġembedding":4715,"'}":4716,"Ġstra":4717,"force":4718,"cs":4719,"ĠSu":4720,"Ġobserve":4721,"({":4722,"Ġredsh":4723,"Ġextension":4724,"User":4725,"}{|":4726,"Ġmodule":4727,"ĠChina":4728,"Ġcomputation":4729,"mini":4730,"Ġbelieve":4731,"igation":4732,"Ġload":4733,"61":4734,"Ġrules":4735,"ĠTra":4736,"92":4737,"process":4738,"rive":4739,"doc":4740,"Ġotherwise":4741,"github":4742,")+\\":4743,"Ġcategory":4744,"alg":4745,"Ġhttp":4746,"picture":4747,"ĠPe":4748,"Ġmemory":4749,"Ġ;":4750,"uses":4751,"Ġslight":4752,"ĠDav":4753,"term":4754,"PI":4755,"acing":4756,"Ġbasic":4757,"pite":4758,"Ġremain":4759,"ouncil":4760,"ees":4761,"ĠCenter":4762,"Ġauthors":4763,"package":4764,"}}$,":4765,"Ġbeam":4766,"bug":4767,"Ġproducts":4768,"Ġoptical":4769,"yond":4770,"Ġtold":4771,"Ġconsum":4772,"EC":4773,"Ġofficial":4774,"ĠDef":4775,"ariance":4776,"Ġexisting":4777,"arameters":4778,"Ġabsol":4779,"Ġtell":4780,"Ġmoney":4781,"erent":4782,"Ġseem":4783,"Ġbul":4784,"Ġaffect":4785,"Ġinvolved":4786,"Ġefficient":4787,"ples":4788,"bum":4789,"System":4790,"Ġalthough":4791,"ĠDepartment":4792,"'(":4793,"Count":4794,"Ġexhib":4795,"hbox":4796,"mma":4797,"Ġbinary":4798,"scill":4799,")},":4800,"Ġcourt":4801,"mc":4802,"Ġtransformation":4803,"newline":4804,"Ġmach":4805,"ĠResearch":4806,"Ġmeasures":4807,"Ġbelong":4808,"cles":4809,"Ġpractice":4810,"mass":4811,"Ġwindow":4812,"Ġimm":4813,"Ġreve":4814,"Manager":4815,"Ðµ":4816,"Ġcontributions":4817,"vision":4818,"SD":4819,"rep":4820,"Ġmonths":4821,"Ġmole":4822,"Ġ};":4823,"break":4824,"Ġinteger":4825,"reate":4826,"hbar":4827,"Ġinner":4828,"Ġcounter":4829,"van":4830,"ĠĠĠĠĠĠĠĠĠĠĠĠĠĠ":4831,"include":4832,"ĠCont":4833,"Ġinternational":4834,"ishing":4835,"}}$.":4836,"ille":4837,"Ġregime":4838,"Ġscattering":4839,"Ġclassification":4840,"Ġsuff":4841,"89":4842,"ios":4843,"Ġgenerate":4844,"ifically":4845,"Ġlum":4846,"tx":4847,"Ġsound":4848,"Ġindustry":4849,"Ed":4850,"Ġpersonal":4851,"Ġdriv":4852,"stitute":4853,"istry":4854,"Ġ${":4855,"Ġusually":4856,"Ġvectors":4857,"--------------------------------":4858,"Ġpie":4859,"ĠSee":4860,"inding":4861,"Ġradio":4862,"Ġdoesn":4863,"Ġstable":4864,"tik":4865,"Ġeducation":4866,"These":4867,"define":4868,"reedom":4869,"Ġitem":4870,"Ġheld":4871,"thern":4872,"================":4873,"null":4874,"ba":4875,"struct":4876,"Ġupdate":4877,"rable":4878,"Ġforms":4879,"culation":4880,"Ġpreser":4881,"rat":4882,"=\"../":4883,"bi":4884,"ĠĠĠĠĠĠĠĠĠĠĠĠĠĠĠĠĠ":4885,"})$,":4886,"HT":4887,"miss":4888,"86":4889,"ĠStud":4890,"Ġgenerally":4891,"ĠGo":4892,"arks":4893,"SM":4894,"Ġconnect":4895,"Ġcoordinates":4896,"Ġoverall":4897,"event":4898,"Ġassumed":4899,"ĠHealth":4900,"namespace":4901,"orage":4902,"IV":4903,"Ġwhite":4904,"Ġreduce":4905,"ĠAm":4906,"Ġappears":4907,"Ġstarting":4908,"Ġexpand":4909,"aint":4910,"Ġnovel":4911,"abase":4912,"ĠWest":4913,"}$)":4914,"Ġoscill":4915,"Ġappropriate":4916,"pg":4917,"Ġconsists":4918,"ellow":4919,"ulate":4920,"Ġwent":4921,"Ġanalog":4922,"72":4923,"Next":4924,"Ġmatch":4925,"hest":4926,"Ġexam":4927,"oto":4928,"Ġfix":4929,"~~~~":4930,"}({\\":4931,")}_{":4932,"Ġborder":4933,"Ġpresident":4934,"dl":4935,"fs":4936,"Ġclearly":4937,"Ġmasses":4938,"$),":4939,"minipage":4940,"Ġways":4941,"Ġsquare":4942,"Ġmeaning":4943,"Ġcopy":4944,"google":4945,"84":4946,"Ġproduce":4947,"300":4948,"ĠIsl":4949,"etimes":4950,"cong":4951,"ube":4952,"omb":4953,"What":4954,"Read":4955,"Ġsus":4956,"tikz":4957,"symm":4958,"seud":4959,"hy":4960,"Ġcurrently":4961,"ĠCounty":4962,"tee":4963,"stream":4964,"umb":4965,"Ġbeyond":4966,"}{*":4967,"Ġreson":4968,"Ġconclude":4969,"IF":4970,":}":4971,"Ġhttps":4972,"Ġflat":4973,"Ġ$|\\":4974,"Ġ...":4975,"Line":4976,"icity":4977,"Ġpure":4978,")-\\":4979,"-$":4980,"cref":4981,"gu":4982,"&=&":4983,"ĠInternational":4984,"Ġnil":4985,"Ġamplitude":4986,"GL":4987,"uff":4988,"Ġtransport":4989,"Ġliterature":4990,"Ġmagnitude":4991,"Ġgradient":4992,"))$":4993,"Ġformal":4994,"<!--":4995,"Ġjud":4996,"ĠScience":4997,"Ġextra":4998,"Ġtreatment":4999,"Ġidentified":5000,"stract":5001,"Ġcompanies":5002,"system":5003,"Ġupd":5004,"strong":5005,"Ġhorizon":5006,"ares":5007,"Ġprediction":5008,"Ġresource":5009,"Hz":5010,"Ġgreater":5011,"Ġstream":5012,"Ġrelationship":5013,"Ġstrict":5014,"android":5015,"arse":5016,"Ġmentioned":5017,"Desc":5018,"ging":5019,"ĠNews":5020,"Pre":5021,"Ġdifferential":5022,"sequently":5023,"omic":5024,"dat":5025,"Ġtechniques":5026,"Ġrunning":5027,"Ġearlier":5028,"istical":5029,"Ġresol":5030,"web":5031,"Ġabsor":5032,"Ġdig":5033,"IL":5034,"Ġfinancial":5035,"Ġleaders":5036,"Ġdepth":5037,"Ġestablish":5038,"Ġfilter":5039,"Ġpopular":5040,"finition":5041,"Ġlate":5042,"ĠTest":5043,"ĠGod":5044,"sm":5045,"ymm":5046,"Ġmax":5047,"osing":5048,"ĠĠĠĠĠĠĠĠĠĠĠĠĊ":5049,"overy":5050,"Ġenh":5051,"Ġmer":5052,"Ne":5053,"Box":5054,"Ġcollect":5055,"Ġestablished":5056,"91":5057,"ĠUK":5058,"Ġoptimization":5059,"ersion":5060,"Ġhighly":5061,"Ġeconomic":5062,"apter":5063,"____":5064,"Ġnotation":5065,"Introduction":5066,"Ġbuilt":5067,"ĠEl":5068,"76":5069,"[(":5070,"oke":5071,"pid":5072,"Ġaccur":5073,"iral":5074,"udes":5075,"GC":5076,"Ġthroughout":5077,"oken":5078,"ĠPo":5079,"Ġobservation":5080,"oul":5081,"vention":5082,"Ġrepe":5083,"Ġreconst":5084,"tag":5085,"Ġfeed":5086,"ridge":5087,"Ġdevi":5088,"Ġmaintain":5089,"opic":5090,"Ġpack":5091,"ondon":5092,"Ġ,\\":5093,"Ġandroid":5094,"Ġsm":5095,"Ġcompletely":5096,"Ġorient":5097,"ypothes":5098,"Ġaxis":5099,"ishes":5100,"den":5101,"Ġtechnology":5102,"Ġbal":5103,"Ġlocated":5104,"ĠIm":5105,"ogeneous":5106,"Ġinit":5107,"lesssim":5108,"Ġquestions":5109,"Therefore":5110,"Ġgeneration":5111,"Ġunivers":5112,"])":5113,"istory":5114,"ades":5115,"iet":5116,"iding":5117,"EM":5118,"You":5119,"uge":5120,"Ġcircle":5121,"Ġtrack":5122,"ector":5123,"ĠAustral":5124,"=\"#":5125,"PP":5126,"Ġtal":5127,"post":5128,"}{(":5129,"uit":5130,"1999":5131,"VID":5132,"Ġdr":5133,"func":5134,"Ġvot":5135,"olar":5136,"DB":5137,"Ġwriting":5138,"blue":5139,"Ġcombination":5140,"'re":5141,"Ġstraight":5142,"Image":5143,"Ġparticularly":5144,"paign":5145,"perim":5146,"ULL":5147,"vol":5148,"format":5149,"Ġcalculations":5150,"rot":5151,",$":5152,"Ġuncertainty":5153,"cccc":5154,"dir":5155,"ĠRem":5156,"TH":5157,"ĠAssoci":5158,"Builder":5159,"Ġreduction":5160,"Ġfluct":5161,"Ġmicro":5162,"Ġthreshold":5163,"Ġharm":5164,"results":5165,"Finally":5166,"vector":5167,",\\,\\":5168,"ibrary":5169,"Ġmorph":5170,"82":5171,"Ġbounds":5172,"ief":5173,"ĠEuropean":5174,"rong":5175,"Ġfront":5176,"Ġclusters":5177,"Ġled":5178,"Ġtasks":5179,"ibly":5180,"cular":5181,"perties":5182,"henomen":5183,"Comm":5184,"ĠGovern":5185,"Ġprimary":5186,"asons":5187,"Ġball":5188,"Input":5189,"Ġstation":5190,"Ġconstit":5191,"Ġener":5192,"Fact":5193,"Ġfundamental":5194,"ĠĠĠĠĠĠĠĠĠĠĠĠĠĠĠĠĠĠĠĠĠĠĠĠĠĠĠĠĠĠĠ":5195,"Ġ[\\":5196,"Ġfast":5197,"ĠChar":5198,"ĠHol":5199,"Ġdetailed":5200,"Ġpreviously":5201,"Ġqual":5202,"itely":5203,"Ġtheoretical":5204,"ĠIN":5205,"jo":5206,"ĠKing":5207,"rl":5208,"Ġinduced":5209,"open":5210,"Ġvisual":5211,"Ġspecified":5212,"diag":5213,"ipal":5214,"Ġangular":5215,"Ġstrongly":5216,"Call":5217,"Ġtim":5218,"poses":5219,"child":5220,"Part":5221,"icense":5222,"Ġscre":5223,"sg":5224,"Ġprofess":5225,"ĠSub":5226,"Ġrelatively":5227,"After":5228,"Ġcred":5229,"CS":5230,"hing":5231,"Ġkernel":5232,"ĠĠĠĠĠĠĠĠĊ":5233,"Exp":5234,"Ġstri":5235,"Ġbottom":5236,"ĠEqu":5237,"Ġbegan":5238,"target":5239,"Response":5240,"ancy":5241,"Ġengine":5242,"otal":5243,"Ġfoot":5244,"ech":5245,"1998":5246,"Date":5247,"Ġhistor":5248,"Ġcoming":5249,"ĠBro":5250,"Ġparallel":5251,"Ġunderstanding":5252,"Ġcalculation":5253,"Ġdistinct":5254,"onical":5255,"Ġresources":5256,"ĠSan":5257,"Ġgraphs":5258,"Client":5259,"$_{":5260,"83":5261,"Ġexcit":5262,">(":5263,"Ġpurpose":5264,"ded":5265,"Ġcause":5266,"ford":5267,"Ġjoint":5268,"Ġexponential":5269,"Ġconcent":5270,"Ġinterpret":5271,"Che":5272,"Ġbehavi":5273,"73":5274,"Ġchem":5275,"Per":5276,"Ġrepresented":5277,"---":5278,"]}":5279,"Ġreli":5280,"query":5281,"Group":5282,"Ġsw":5283,"pat":5284,"Ġlack":5285,"antic":5286,"ifying":5287,"corre":5288,"Ġlooking":5289,"Ġcov":5290,"MR":5291,"pare":5292,"iforn":5293,"ĠDr":5294,"ĠMr":5295,"Ġguarant":5296,"Ġaspect":5297,"lean":5298,"floor":5299,"74":5300,"ashington":5301,"Ġago":5302,"Ġtraject":5303,"ĠHow":5304,"Ġvac":5305,"Ġvariety":5306,"ĠFinally":5307,"font":5308,"Ġpix":5309,"Ġdistributed":5310,"Ġgrid":5311,"only":5312,"Ġlegal":5313,"Ġincreased":5314,"ĠClass":5315,"^*$":5316,"faces":5317,"}})":5318,"ĠSpec":5319,"Ġgap":5320,"Ġminimal":5321,"bas":5322,"Query":5323,"Ġstd":5324,"Spec":5325,"erson":5326,"Ġthermal":5327,"ĠFound":5328,"host":5329,"lication":5330,"Ġvary":5331,"Ġaccom":5332,"Ġkin":5333,"Ġcontaining":5334,"ename":5335,"sur":5336,"bsite":5337,"Ġideal":5338,"aj":5339,"Ġlif":5340,"}}_{\\":5341,"Ġactions":5342,"Ġproved":5343,"Ġproport":5344,"Ġexternal":5345,"writ":5346,"79":5347,"ĉĉĊ":5348,"Ġanti":5349,"ague":5350,"Ġthemselves":5351,"Ġpoly":5352,"elt":5353,"Ġult":5354,"rab":5355,"Ġbin":5356,"Ġimplementation":5357,"apan":5358,"Ġactual":5359,"iring":5360,"mitted":5361,"Ġconsidering":5362,"Ġunits":5363,"dfrac":5364,"\\}$.":5365,"ĠList":5366,"Ġloop":5367,"ĠCons":5368,"Ġnor":5369,"Ġshift":5370,"Action":5371,"Ġ$.":5372,"Ġobvious":5373,"$:":5374,"reme":5375,"models":5376,"well":5377,"abil":5378,"Ġcomplexity":5379,"paragraph":5380,"Ġlayers":5381,"ĠEar":5382,"Ġbehind":5383,"Ġparty":5384,"Ġvisit":5385,"Ġmassive":5386,"Ġorth":5387,"Ġpartial":5388,"Ġneighbor":5389,"Ð¸":5390,"Ġdifferences":5391,"Ġinfinite":5392,"sign":5393,"gies":5394,"Ġstatus":5395,"Ġoption":5396,"Ġhole":5397,"unit":5398,"]$.":5399,"ifornia":5400,"request":5401,"Ġentropy":5402,"Ġgames":5403,"Ġconvex":5404,"Ġadvan":5405,"cf":5406,"Ġscales":5407,"Ġdecomposition":5408,"Ġquery":5409,"ĠDist":5410,"DA":5411,"ialog":5412,"amily":5413,"Ġremaining":5414,"Ġindicates":5415,"Ġproceed":5416,"real":5417,"Ġrecomm":5418,"Ġacqu":5419,"Override":5420,"Ġquick":5421,"Ġalbum":5422,"Ġdatasets":5423,"algorithm":5424,"ĠCollege":5425,"ae":5426,"Ġrecall":5427,"nes":5428,"Ġcommand":5429,"ilarly":5430,"ometric":5431,"description":5432,"Ġscaling":5433,")</":5434,"bmatrix":5435,"Ġemerg":5436,"Ġmilitary":5437,"Ġstruct":5438,"Ġtrade":5439,"Ġlemma":5440,"Ġcriter":5441,"Ġfair":5442,"cher":5443,"sect":5444,"Ġadminist":5445,"ĠEnglish":5446,"Ġring":5447,"Section":5448,"Ġcoefficient":5449,"bits":5450,"itivity":5451,"yles":5452,"Ġbright":5453,"urrent":5454,"Ġelectric":5455,"CA":5456,"ounced":5457,"Ġyield":5458,"81":5459,"expect":5460,"Stream":5461,"Ġdiscrete":5462,"Ġgrant":5463,"Ġexpressed":5464,"ĠLondon":5465,"bon":5466,"Ġdenoted":5467,"ĠDes":5468,"Ġmanagement":5469,"OP":5470,"Ġsort":5471,"write":5472,"Ġrotation":5473,"Ġbool":5474,"grad":5475,"Ġscenario":5476,"Ġsegment":5477,"squ":5478,"ĠMich":5479,"ĠData":5480,"oph":5481,"Using":5482,"ĠSome":5483,"sembly":5484,"EX":5485,"Ġluminos":5486,"Ġextends":5487,"conf":5488,"Ġtypical":5489,"Ġ->":5490,"Ġinstit":5491,"Ġperfect":5492,"Ġshowed":5493,"ĠFurthermore":5494,"Ġagent":5495,"Block":5496,"ado":5497,"Rec":5498,"inner":5499,"Ġability":5500,"Ġ^{":5501,"Ext":5502,"river":5503,"number":5504,"Ġneutr":5505,"Ġassess":5506,"ONT":5507,"Ġtransl":5508,"Ġdimensions":5509,"Ġsector":5510,"Ġcareer":5511,"php":5512,"riz":5513,"illing":5514,"ND":5515,"Ġworked":5516,"Sc":5517,"forward":5518,"annels":5519,"ĠDem":5520,"oe":5521,"Ġnight":5522,"Ġfood":5523,"Ġphenomen":5524,":=":5525,"omin":5526,"Ġprogress":5527,"vee":5528,")}}":5529,"osite":5530,"ĠAng":5531,"Ġhighest":5532,"jav":5533,"Ġformat":5534,"after":5535,"nother":5536,"ĠHer":5537,"1000":5538,"|}{":5539,"Ġthrow":5540,"gl":5541,"ynamic":5542,"Ġetc":5543,"Ġ\\&":5544,"Ġtempor":5545,"roy":5546,"Ġtravel":5547,"Ġprint":5548,"Ġnearly":5549,"Ġslightly":5550,"ĠIsra":5551,"sche":5552,"phant":5553,"Ġnucle":5554,"property":5555,"Ġdesigned":5556,"enge":5557,"Ġextrem":5558,"Ġdro":5559,"Ġsaf":5560,"tings":5561,"Ġdetail":5562,"Ġestimation":5563,"ĠPark":5564,"Ġtrained":5565,"Ġinterface":5566,"ĠAlso":5567,"Ġhope":5568,"][]{":5569,"Ġtor":5570,"While":5571,"Ġefficiency":5572,"Ġcry":5573,"Ġarguments":5574,"Ġveh":5575,"mann":5576,"ĠOff":5577,"}\\,\\":5578,"Ġprote":5579,"Ġsolve":5580,"Ġlimits":5581,"erred":5582,"hal":5583,"Ġsatisfying":5584,"FA":5585,"ĠGeneral":5586,"Ġinfluence":5587,"\\;":5588,"Ġcalculate":5589,"Ġrelig":5590,"adding":5591,"ned":5592,"alysis":5593,"init":5594,"py":5595,"Right":5596,"}{*}{":5597,"Ġprinciple":5598,"Ġhypothes":5599,"reet":5600,"ĠBritish":5601,"Ġliving":5602,"elli":5603,"Ġgradu":5604,"make":5605,"herent":5606,"Ġhon":5607,"iverse":5608,"})}":5609,"button":5610,"Act":5611,"MB":5612,"Ġreleased":5613,"Ġevaluation":5614,"clusions":5615,"mathop":5616,"Cons":5617,"Ġhot":5618,"ĠInter":5619,"ifies":5620,"Ġfollowed":5621,"Ġreflect":5622,"sat":5623,"options":5624,"Ġsections":5625,"Ġpick":5626,".[":5627,"Ġassign":5628,"cknowled":5629,"Ġpolice":5630,"DP":5631,"ĠWork":5632,"Ġign":5633,"Ġ\\!":5634,"Ġfamil":5635,"Ġwide":5636,"GB":5637,"Ġrobust":5638,"Ġste":5639,"That":5640,"]$,":5641,"integ":5642,"Ġfreedom":5643,"Ġrelease":5644,"Ġbeginning":5645,"Ġgravit":5646,"vari":5647,"xx":5648,"Form":5649,"ĠCanada":5650,"ĠCouncil":5651,"Ġhours":5652,"lig":5653,"Ġactivity":5654,"oo":5655,"pass":5656,"./":5657,"Ġmes":5658,",\\\\":5659,"eles":5660,"Ġprograms":5661,"dec":5662,"71":5663,"len":5664,"ship":5665,"arams":5666,"ĠSen":5667,"Ġtrain":5668,"Ġprobably":5669,"uel":5670,"ĠJust":5671,"float":5672,"Ġgl":5673,"Ġweights":5674,"Ġscient":5675,"such":5676,"chang":5677,"Ġassist":5678,"AV":5679,"FR":5680,"Ġequilibrium":5681,"etal":5682,"ĠHigh":5683,"ollowing":5684,"pir":5685,"two":5686,"ĠArm":5687,"Ġgeometry":5688,"Ġcru":5689,"ĠBu":5690,"bigl":5691,"Ġapproximately":5692,"ĠUsing":5693,"Ġsex":5694,"Ġimplic":5695,"tfrac":5696,"inu":5697,"aa":5698,"Ġfamilies":5699,"vised":5700,"ĠVol":5701,"Ġoffice":5702,",{\\":5703,"ategory":5704,"ĠWashington":5705,"Ġion":5706,"Ġutil":5707,"Nav":5708,"ĠInstitute":5709,"inst":5710,"ĠOf":5711,"Ġindicate":5712,"})=":5713,"ĠCalifornia":5714,"Ġirre":5715,"Ġfunctional":5716,"Lay":5717,"bed":5718,"Ġdise":5719,"Ġphysics":5720,"${\\":5721,"ĠAppendix":5722,"show":5723,"img":5724,"([":5725,"ĠMat":5726,"Mat":5727,"ĠBlack":5728,"gr":5729,"while":5730,"avel":5731,"$};":5732,"rial":5733,"Ġnothing":5734,"project":5735,"oon":5736,"stra":5737,"ĠWilliam":5738,"ĠOther":5739,"Ġpriv":5740,"$&":5741,"ĠAssum":5742,"}}.":5743,"Ġnuclear":5744,"related":5745,"close":5746,"pdate":5747,"Ġ\\]":5748,"Ġ^":5749,"))\\":5750,"Ġexpert":5751,"aking":5752,"Source":5753,"CR":5754,"}[\\":5755,"client":5756,"bigr":5757,"else":5758,"UE":5759,"Ġworth":5760,"scriptstyle":5761,"flu":5762,"select":5763,"PA":5764,"Ġthick":5765,"finished":5766,"Ġmultiplic":5767,"Ġconver":5768,"ĠEach":5769,"obile":5770,"bel":5771,"Ġtalk":5772,"ih":5773,"Ġferm":5774,"Ġscience":5775,"Ġimag":5776,"Ġcycle":5777,"Ġswit":5778,"ĠIndia":5779,"Ġprojection":5780,"Ġcoordinate":5781,"}}}\\":5782,"ĠRepublic":5783,"Sec":5784,"Ġimmediately":5785,"Ġachieved":5786,"}_{-":5787,"Li":5788,"Ġfight":5789,"itch":5790,"ÑĤ":5791,"Ġlives":5792,"Ġcontained":5793,"Rem":5794,"Ġbad":5795,"Ð½":5796,"emptyset":5797,"Ag":5798,"ĠST":5799,"ĠHig":5800,"vature":5801,"Ġut":5802,"Ġnotice":5803,"ĠBay":5804,"Ġredshift":5805,"Ġindeed":5806,"Ġbrief":5807,"ference":5808,"Ġconserv":5809,"Ġprotected":5810,"...,":5811,"adata":5812,"joint":5813,"stable":5814,"Ġmedical":5815,"Ġplayed":5816,"Ġclient":5817,"Ġgoes":5818,"Ġconstructed":5819,"estern":5820,"Ġacceler":5821,"tabularnewline":5822,"Ġtesting":5823,"Ġrise":5824,"Ġsummar":5825,"urity":5826,"Me":5827,"she":5828,"})^":5829,"Ġsufficiently":5830,"called":5831,"Ġmid":5832,"layer":5833,")}_":5834,"weight":5835,"Ġgetting":5836,"aught":5837,"${":5838,"haps":5839,"ael":5840,"Ġscore":5841,"step":5842,"Ġreplace":5843,"Ġmodern":5844,"}}^{\\":5845,"Ġhydro":5846,"Ġstudent":5847,"uster":5848,"Ġcombined":5849,"edia":5850,"CL":5851,"Ġstatistical":5852,"ĠCong":5853,"Ġrepresentations":5854,"Component":5855,"mas":5856,"Ġdust":5857,"Ġcommunication":5858,"poss":5859,"ĠCommun":5860,"Ġassumptions":5861,"ĠIR":5862,"Ġdevice":5863,"Ġtown":5864,"Ġfinally":5865,"Ġsampling":5866,"uting":5867,"Function":5868,"Ġcentury":5869,"useum":5870,"condition":5871,";\\;\\":5872,"Ġisomorphism":5873,"Ġneural":5874,"Fil":5875,"SR":5876,"Gener":5877,"REF":5878,"element":5879,"ERT":5880,"Ġ{$":5881,"ĠAir":5882,"pto":5883,"isely":5884,"Ġforces":5885,"acters":5886,"brace":5887,"Ġevaluate":5888,"hips":5889,"args":5890,"hemat":5891,"Ġeq":5892,"Ġbos":5893,"Ġanswer":5894,"Ġ<<":5895,"Ġproviding":5896,"Ġodd":5897,"ini":5898,"Ġsoftware":5899,"ka":5900,"algebra":5901,"Ġpositions":5902,"Ġcomment":5903,"Ġunderlying":5904,"Ġtrying":5905,"ifact":5906,"Ġinterested":5907,"Ġcampaign":5908,"OL":5909,"Cor":5910,"sets":5911,"ĠAlthough":5912,"400":5913,"Ġasked":5914,"Ġcit":5915,"anks":5916,"lap":5917,"ĠJapan":5918,"1997":5919,"Ġdetected":5920,"columnwidth":5921,"Status":5922,"\\\\\\\\\\\\\\\\\\\\\\\\\\\\\\\\":5923,"formal":5924,"des":5925,"ensities":5926,"Ġten":5927,"ĠPaul":5928,"ĠDire":5929,"ometry":5930,"ĠSec":5931,"Ġmind":5932,"Ġapplying":5933,"Start":5934,"Ġnoted":5935,"forms":5936,"unn":5937,"Ġ()":5938,"Ġshock":5939,"DM":5940,"\\)":5941,"Ġspread":5942,"irth":5943,"Ġintegration":5944,"rd":5945,"Ġnamed":5946,"Ġexperi":5947,"Ġmoving":5948,"OC":5949,"ĠAc":5950,"Ġtypically":5951,"ĠDavid":5952,"ĠOF":5953,"urst":5954,"oded":5955,"Ġwall":5956,"orge":5957,"ĠGreen":5958,"Label":5959,"Ġonto":5960,"ĠIndeed":5961,"EL":5962,"Ġpredicted":5963,"phys":5964,"ico":5965,"Base":5966,"pack":5967,"Ġshowing":5968,"Ġmovie":5969,"Ġmor":5970,"Ġhit":5971,"Ġprotocol":5972,"ĠGroup":5973,"attle":5974,"enced":5975,"ying":5976,"ochastic":5977,"posit":5978,"arr":5979,"unch":5980,"maz":5981,"Ġcells":5982,"Ġoccup":5983,"build":5984,"Last":5985,"coming":5986,"rupt":5987,"Ġheart":5988,"Ġcapital":5989,"Ġinverse":5990,"mt":5991,"Link":5992,"Number":5993,"Ġentry":5994,"Ġnamely":5995,"ville":5996,"longrightarrow":5997,")--":5998,"Rel":5999,"Ġpen":6000,"ugin":6001,"Ġvirtual":6002,"Ġbias":6003,"ĠLie":6004,"Ġstability":6005,"Ġnone":6006,"Ġvict":6007,"Ġplatform":6008,"abe":6009,"aching":6010,"Ġmut":6011,"Ġenergies":6012,"Ġcompl":6013,"||":6014,"atalog":6015,"rey":6016,"phantom":6017,"Ġboolean":6018,"Ġalign":6019,"iler":6020,"rench":6021,"Ġsurvey":6022,"Ġtele":6023,"Ġdepending":6024,"irit":6025,"Ap":6026,"Ġwanted":6027,"Ġdou":6028,"Ġconsequence":6029,"Ġalternative":6030,"Ġvariation":6031,"Ġlost":6032,"Ġmachine":6033,"ses":6034,"Ġexc":6035,"Aut":6036,"board":6037,"Ġprevent":6038,"han":6039,"dy":6040,"Ġpseud":6041,"Ġnonlinear":6042,"ĠLag":6043,"unds":6044,"actic":6045,"Ġdegrees":6046,"unfinished":6047,"SL":6048,"Ġcapacity":6049,"Ġmapping":6050,"gest":6051,"Ġsurv":6052,"tiny":6053,"axis":6054,"header":6055,"soft":6056,"Proof":6057,"Pol":6058,"Ġremove":6059,"slant":6060,"plot":6061,"Ġmotiv":6062,"Ġmanifold":6063,"Ġdiagonal":6064,"Ġreveal":6065,"images":6066,"Ġauto":6067,"Ġrapid":6068,"illed":6069,"1996":6070,"meta":6071,"Head":6072,"Options":6073,"Ġthreat":6074,"Ġoccurs":6075,"Ġanything":6076,"udget":6077,"Ġspecies":6078,"Ġconstants":6079,"Ġboard":6080,"ĠPal":6081,"Ġvertical":6082,"append":6083,"Ġindividuals":6084,"Ġabsolute":6085,"}~":6086,"Ġobjective":6087,"plan":6088,"Ġplayer":6089,"trivial":6090,"Ġusual":6091,"................":6092,"Ġdemand":6093,"corpor":6094,"Ġheavy":6095,"lies":6096,"Ġoffer":6097,"Ġdirector":6098,"Ġmaximal":6099,"fi":6100,"greg":6101,"mem":6102,"Ġexchange":6103,"Ġ\\(\\":6104,"navbar":6105,"src":6106,"BS":6107,"Ġcharacteristic":6108,"elihood":6109,"\\}$,":6110,"Ġsemi":6111,"iota":6112,"structure":6113,"Ġfinding":6114,"ĠPat":6115,"Point":6116,"ĠInst":6117,"Ġexplicitly":6118,"ĉĉĉĉĉĉĉĉ":6119,"avelength":6120,"ĠFin":6121,"Ġchanged":6122,"Oper":6123,"Ġ$,":6124,"ĠRec":6125,"Ġstop":6126,"/(":6127,"tree":6128,"ĠAccording":6129,"figures":6130,"ĠEast":6131,"Ġwhereas":6132,"Ġleave":6133,"Ġ}{":6134,"Ġradiation":6135,"Ġasymptotic":6136,"ĠFoundation":6137,"ki":6138,"ĉĠĠĠ":6139,"ifts":6140,"Ġprice":6141,"Handler":6142,"Hence":6143,"Ġdru":6144,"dr":6145,"DS":6146,"ĠCommission":6147,"YPE":6148,"nn":6149,"Ġtechnique":6150,"ĠSm":6151,"ifi":6152,"ologies":6153,"Wid":6154,"Ġ{};":6155,"Ġcomposition":6156,"ese":6157,"}$}":6158,"Ġpredictions":6159,"Ġround":6160,"Ġthank":6161,"vartheta":6162,"uted":6163,"Ġradial":6164,"Ġfederal":6165,"Ġsyste":6166,"]{\\":6167,"Ġcivil":6168,"}|\\":6169,"Ġfather":6170,"Ġexplained":6171,"rian":6172,"oted":6173,"Sch":6174,"Ġimportance":6175,"Ġrac":6176,"ĠPre":6177,"Ġgreen":6178,"ĠCOVID":6179,"bras":6180,"Ġcandidate":6181,"unk":6182,"Ġconj":6183,"BA":6184,"IA":6185,"Ġphoton":6186,"del":6187,"ĠSw":6188,"urations":6189,"Ġroad":6190,"Ġmodul":6191,"more":6192,"Ġderive":6193,"Ġstay":6194,"}}=":6195,"Instance":6196,"cat":6197,"Ġcomputational":6198,"private":6199,"Ġlinks":6200,"Ġdam":6201,"ĠVir":6202,"formed":6203,"Ġremark":6204,"Ġluminosity":6205,"mi":6206,"Ġderivative":6207,"ĠObject":6208,"magnetic":6209,"Lemma":6210,"ida":6211,"Ġweb":6212,"Ġarchitecture":6213,"Ġwebsite":6214,"Ġdistingu":6215,"^{(\\":6216,"Ġdispers":6217,"Run":6218,"^{*":6219,"Ġcarry":6220,"joy":6221,"lat":6222,"law":6223,"Ġbillion":6224,"Ġempty":6225,"Ġcontrad":6226,"Ġtrivial":6227,"Ġfine":6228,"lections":6229,"final":6230,"Ġeverything":6231,"ĠGal":6232,"Ġpatients":6233,"|}":6234,"vider":6235,"parison":6236,"Ġamb":6237,"Ġmargin":6238,"parameter":6239,"Ġnation":6240,"Ġdynamic":6241,"po":6242,"Ġchannels":6243,"server":6244,"essages":6245,"Ġ\"\"\"":6246,"ourier":6247,"prec":6248,"Ġplayers":6249,"pair":6250,"Ġsatisfied":6251,"Ġserver":6252,"rank":6253,"asc":6254,"aser":6255,"Ġdesired":6256,"ĠModel":6257,"Ġabund":6258,"Ġactivities":6259,"Ġnet":6260,"Ġquark":6261,"ropic":6262,"gebras":6263,"ĠCompany":6264,"PU":6265,"ĠProgram":6266,"Ġstaff":6267,"Ġexception":6268,"Ġvariance":6269,"Ġbooks":6270,"Ġgiving":6271,"cuss":6272,"wood":6273,"incipal":6274,"obj":6275,"[\"":6276,"find":6277,"even":6278,"rote":6279,"last":6280,"Ġmodified":6281,"Ġconven":6282,"ellig":6283,"Ġunknown":6284,"notation":6285,"Ġcool":6286,"Ġdetermin":6287,"otion":6288,"Ġtrend":6289,"Ġdoc":6290,"Null":6291,"imation":6292,"Max":6293,"ĠSuch":6294,"ĠSy":6295,"Content":6296,"Ġserved":6297,"Ġcoinc":6298,"Ġcharacters":6299,"Ġdynamical":6300,"Ġtopological":6301,"Su":6302,"Ġmajority":6303,"ĠCa":6304,"\"]":6305,"igger":6306,"mediate":6307,"Ġbulk":6308,"Ġseparate":6309,"Ġeight":6310,"tains":6311,"Ġsurpr":6312,"Ġjet":6313,"Ġprotect":6314,"Ġsoon":6315,"Ġmiddle":6316,"Ġpicture":6317,"Ġ({\\":6318,"rowser":6319,"Ġcosts":6320,"auto":6321,"Ġ+=":6322,"ĠChurch":6323,"Ġformed":6324,"Ġaccurate":6325,"Format":6326,"Ġtests":6327,"pared":6328,"ĠID":6329,"FI":6330,"LASS":6331,"cale":6332,"Ġborn":6333,"Ġsaw":6334,")})":6335,"\\%$":6336,"=.":6337,">>":6338,"Ġopportunity":6339,"bran":6340,"Ġhighlight":6341,"GN":6342,"&=\\":6343,"subsec":6344,"Ġreturns":6345,"[-":6346,"Ġroom":6347,"Ġcm":6348,"ĠJew":6349,"\\}\\":6350,"Ġrelax":6351,"Resource":6352,"1995":6353,"ospital":6354,"Consider":6355,"xml":6356,"DD":6357,"Off":6358,"Ġpropose":6359,"medskip":6360,"Ġprecisely":6361,"ĠCE":6362,"Ġcanonical":6363,"slash":6364,"Ġcaused":6365,"Char":6366,"otype":6367,"ĠRel":6368,"TT":6369,"Ġcurvature":6370,"Ġhar":6371,"Ġstated":6372,"df":6373,"Ġstress":6374,"ga":6375,"Ġprojects":6376,"iber":6377,"Ġgeneralized":6378,"Ġfriend":6379,"ections":6380,"Token":6381,"update":6382,"yr":6383,"lines":6384,"ĠTechn":6385,"Ġfiles":6386,"loop":6387,"120":6388,"ibration":6389,"win":6390,"Ġrequirements":6391,"Ġreceive":6392,"Default":6393,"ĠInc":6394,"control":6395,"itative":6396,"ĠSM":6397,"Ġworkers":6398,"CM":6399,"ĠNULL":6400,"etries":6401,"ĠNS":6402,"Ġrough":6403,"Ġsynthe":6404,"vect":6405,"ara":6406,"Tra":6407,"ÑĢ":6408,"kin":6409,"frame":6410,"phas":6411,"Ġque":6412,"ĠSte":6413,"Ġtheories":6414,"Ġmatching":6415,"Ġvs":6416,"high":6417,"ĠPublic":6418,"Ġmother":6419,"vs":6420,"Ġlocally":6421,"Ġreasons":6422,"Ġwaves":6423,"Ġsociety":6424,"json":6425,"Ġinterview":6426,"Ġpassed":6427,"AME":6428,"ĠType":6429,"ĠRed":6430,"uum":6431,"ĠNor":6432,"Ġprocessing":6433,"Ġsym":6434,"ski":6435,"Ġhimself":6436,"bib":6437,"Ġdashed":6438,":=\\":6439,"Ġchemical":6440,"stat":6441,"Given":6442,"Case":6443,"150":6444,"Buffer":6445,"ether":6446,"Ġevol":6447,"support":6448,"ĠNone":6449,"product":6450,"Ġruns":6451,"Ġgets":6452,"GR":6453,"ĠHall":6454,"Ġplanet":6455,"std":6456,"Ġlaws":6457,"sive":6458,"bal":6459,"Ġwalk":6460,"Ġisot":6461,"Ġnav":6462,"Ġnames":6463,"Ġcomputing":6464,"ĠEduc":6465,"Ġmagnet":6466,"rick":6467,"ĠOut":6468,"Ġpolic":6469,"Ġshared":6470,"Ġtruth":6471,"Ġ((":6472,"Ġsomeone":6473,"ĠPost":6474,"Ġwait":6475,"Ġinj":6476,"atures":6477,"Equal":6478,"Arg":6479,"notag":6480,"\\|\\":6481,"scriptsize":6482,"Hel":6483,"Ġthrows":6484,"Return":6485,"Load":6486,"True":6487,"ror":6488,"clear":6489,"+(":6490,"Ġsolar":6491,"bp":6492,"ĠWhite":6493,">\\":6494,"Ġgravity":6495,"ria":6496,"Ġdimensional":6497,"Ġconvert":6498,"idents":6499,"Ġey":6500,"ultane":6501,"DR":6502,"Ġdied":6503,"Command":6504,"ĠStat":6505,"rosc":6506,"Ġsites":6507,"Ġinvestigate":6508,"ĠBoard":6509,"Min":6510,"Ġintr":6511,"ifications":6512,"cial":6513,"Ġcollabor":6514,"second":6515,"Ġsuggests":6516,"footnotes":6517,"uler":6518,"cope":6519,"mode":6520,"*/":6521,"Ġheat":6522,"Ġelectro":6523,"NO":6524,"Ġcarried":6525,"///":6526,"going":6527,"Ġwrote":6528,"author":6529,"See":6530,"Ġapproximate":6531,"Ġreser":6532,"btn":6533,"Ġadvantage":6534,"Suppose":6535,"ĠCommit":6536,"Page":6537,"istent":6538,"Ġcatch":6539,"Ge":6540,"ĠPlan":6541,"cretary":6542,"Ġpan":6543,"Ġrestric":6544,"met":6545,"Ġefforts":6546,"Ġimplemented":6547,"Check":6548,"Bl":6549,"Ġtraditional":6550,"footnotesize":6551,"chron":6552,"Ġaward":6553,"1990":6554,"Attribute":6555,"anger":6556,"Ġquasi":6557,"ascript":6558,"Ġ$\\{\\":6559,"witter":6560,"Ġfavor":6561,"Moreover":6562,"ĠThom":6563,"Ġresponsible":6564,"cut":6565,"ĠMor":6566,"pective":6567,"ĠArch":6568,"}\\|":6569,"HS":6570,"Ġdx":6571,"volution":6572,"tikzpicture":6573,"ĠPress":6574,"Ġstatistics":6575,"push":6576,"-(":6577,"Ġequality":6578,"Post":6579,"rea":6580,"owers":6581,"ocket":6582,"Ġsettings":6583,"fol":6584,"Ġhalo":6585,"effect":6586,"km":6587,"Factory":6588,"ilbert":6589,"Ġmorphism":6590,"entry":6591,"dem":6592,"Ġrang":6593,"Ġquantities":6594,"Ġmeeting":6595,"Ð¾Ð":6596,"Ġadding":6597,"Ġpossibility":6598,"Ġbrought":6599,"boldmath":6600,"Ġcloud":6601,"Ġfluctuations":6602,"iation":6603,"Ġfire":6604,"Ġintersection":6605,"nam":6606,"ĠTV":6607,"Ġstochastic":6608,"Ġstru":6609,"Ġwoman":6610,"equations":6611,"unt":6612,"Back":6613,"ĠDay":6614,"Ġenjoy":6615,"pton":6616,"Ġannounced":6617,"Ġserious":6618,"Ġorganization":6619,"isot":6620,"Ġgave":6621,"Do":6622,"igration":6623,"Ġsuitable":6624,"sis":6625,"Ġwatch":6626,"Ġneighborhood":6627,"esian":6628,"IST":6629,"mosp":6630,"verb":6631,"Ġdelay":6632,"iii":6633,"Ġlearned":6634,"Ġcomputer":6635,"ĠJames":6636,"iant":6637,"Ġmovement":6638,"ufact":6639,"Ġcele":6640,"ĠStreet":6641,"mom":6642,"Ġcorrections":6643,"aily":6644,"ĠReturn":6645,"ramework":6646,"fully":6647,"layout":6648,"Ġpiece":6649,"Ġbehaviour":6650,"ĉĠ":6651,"ĠUnder":6652,"Ġequivalence":6653,"aver":6654,"Ġsequences":6655,"Ġsometimes":6656,"Ġpaths":6657,"oration":6658,"status":6659,"Ġcard":6660,"ĠAssociation":6661,"rangian":6662,"How":6663,"Ġter":6664,"ĠGovernment":6665,"textcolor":6666,"tan":6667,"Ġlabels":6668,"Ġpoor":6669,"large":6670,"Ġson":6671,"ica":6672,"Ġculture":6673,"Ġsil":6674,"PO":6675,"ĠEngland":6676,"^*\\":6677,"ĠAdd":6678,"tw":6679,"Ġsubstant":6680,"response":6681,"ias":6682,"ĠIsrael":6683,"Ġreading":6684,"ĠMag":6685,"tool":6686,"Window":6687,"output":6688,"Ġdev":6689,"ogonal":6690,"general":6691,"Version":6692,"!\\":6693,"aml":6694,"Ġast":6695,"oice":6696,"NA":6697,"stitution":6698,"Ġsimplic":6699,"vest":6700,"anned":6701,"conds":6702,")^\\":6703,"Ġkm":6704,"ĠDemoc":6705,"Ġitems":6706,"scope":6707,"elines":6708,"Ġhandle":6709,"gn":6710,"Tem":6711,"Ġbundle":6712,"Ġcommunities":6713,"gan":6714,"(-\\":6715,"Ġfriends":6716,"fa":6717,"ĠProf":6718,"Ġforeign":6719,"Ġeigenvalues":6720,"La":6721,"filter":6722,"TS":6723,"Ġelection":6724,"Ġhypothesis":6725,"adow":6726,"arter":6727,"Ñģ":6728,"ponents":6729,"emy":6730,"Ġassuming":6731,"icate":6732,"Ġtro":6733,"erior":6734,"Ġintensity":6735,"Ġfem":6736,"Ġlegis":6737,"semble":6738,"ierarch":6739,"Ġacts":6740,"Ġmanner":6741,"ĠLeg":6742,"Ġcorrection":6743,"Ġincorpor":6744,"orter":6745,"Ġsubsection":6746,"ya":6747,"Ġclean":6748,"Xi":6749,"aven":6750,"ĠGiven":6751,"velopment":6752,"ativ":6753,"Ġmaterials":6754,"etails":6755,"tty":6756,"icated":6757,"nergy":6758,"ĠPub":6759,"inated":6760,"Ġpartners":6761,"ĠGeV":6762,"Ġblocks":6763,"ĠService":6764,"inese":6765,"ĠRober":6766,"full":6767,"Te":6768,"eks":6769,"Ġpolarization":6770,"Ġnecessarily":6771,"^*(":6772,"burg":6773,"ĠBook":6774,"ĠRuss":6775,"Po":6776,"ancing":6777,"Ġinstall":6778,"Ġspac":6779,"apping":6780,"ĠBecause":6781,"Ġwrong":6782,"ĠCap":6783,"urally":6784,"VER":6785,"Ġencou":6786,"Cell":6787,"etween":6788,"ĠTime":6789,"Ġreturned":6790,"ducible":6791,"Ġuncertainties":6792,"Em":6793,"ĠFrench":6794,"Ġcop":6795,"ATION":6796,"iem":6797,"ĠIS":6798,"Ġagents":6799,"Ġdiscrim":6800,"NE":6801,"Ġwal":6802,"comput":6803,"Results":6804,"ĠFrance":6805,"lead":6806,"pan":6807,"Left":6808,"Ġtrust":6809,"ĠEX":6810,"Ġreprodu":6811,"};$":6812,"Ġreached":6813,"Ġsaying":6814,"Ġtrace":6815,"!]":6816,"FONT":6817,"Create":6818,"Ġschools":6819,"Ġemphas":6820,"cline":6821,"Ġsubgroup":6822,"ĠRich":6823,"ttp":6824,"Ġcomplic":6825,"Ġtend":6826,"rical":6827,"Ġcompat":6828,"Par":6829,"$-$":6830,"plane":6831,"ĠAfrica":6832,".\\\\":6833,"Ġideas":6834,"elect":6835,"ander":6836,"eger":6837,"Ġisol":6838,"Ġbranch":6839,"car":6840,"Ġgravitational":6841,"ny":6842,"Ga":6843,"RL":6844,"Ġstore":6845,"ĠHiggs":6846,"chmark":6847,"Ġparents":6848,"Ġ\\,\\":6849,"Ġcontinued":6850,"Ġimproved":6851,"ĠWil":6852,"Ġdetector":6853,"Ġminor":6854,"ĠSur":6855,"quant":6856,"Ġquickly":6857,"Ġreferred":6858,"Ġplaying":6859,"ĠBen":6860,"Ġsafety":6861,"dependence":6862,"|^{":6863,"irmed":6864,"ĠDec":6865,"Ġpatterns":6866,"Ġchallenge":6867,"zer":6868,"Ġow":6869,"Ġperturbation":6870,"Ġpurposes":6871,"Ġreplaced":6872,"ĠIndian":6873,"$.}":6874,"~(\\":6875,"Ġgrowing":6876,"Ġisn":6877,"ĠBer":6878,"Ġorders":6879,"Ġprofiles":6880,"dev":6881,"Ġpolicies":6882,"ano":6883,"Ġadopted":6884,"Ġjournal":6885,"Ġdra":6886,"ĠPhil":6887,"Ġbr":6888,"Ġapparent":6889,"ptr":6890,"Ġmixed":6891,"Ġcharged":6892,"downarrow":6893,"params":6894,"arios":6895,"Ġremoved":6896,"Ġdu":6897,"Ġfrag":6898,"Ġsizes":6899,"cluded":6900,"points":6901,"javascript":6902,"Ġdescribes":6903,"corollary":6904,"'ve":6905,"riter":6906,"Ġdisease":6907,"ptic":6908,"Ġteac":6909,"mn":6910,"ĠCongress":6911,"Ġadjust":6912,"Bundle":6913,"sd":6914,"Child":6915,"Ġrese":6916,"Controller":6917,"âĢĿ.":6918,"ĠKe":6919,"PL":6920,"INT":6921,"Vis":6922,"Ġconflic":6923,"Ġdead":6924,"Ġgeneric":6925,"Ġhidden":6926,"Ġdevices":6927,"ĠCommittee":6928,"Ġpropos":6929,"Ġtemperatures":6930,"rob":6931,"Ġmoved":6932,"Ġcitiz":6933,"Ġrational":6934,"ĠOver":6935,"'m":6936,"ults":6937,"parallel":6938,"ĠOpen":6939,"inate":6940,"Ġdedu":6941,"ĠĠĠĠĠĠĠĠĠĠĠĠĠĠĠĠĠĠĠĠĠĠĠĠĠĠĠĠĠĠĠĠĠĠĠĠĠĠĠĠĠĠĠĠĠĠĠĠĠĠĠĠĠĠĠĠĠĠĠĠĠĠĠĠ":6942,"Ġreports":6943,"nol":6944,"Ġunion":6945,"Ġ_{\\":6946,"Ġregarding":6947,"Ġmedium":6948,"1994":6949,"Top":6950,"ibr":6951,"Ġalone":6952,"strap":6953,"Ġwavelength":6954,"imits":6955,"omy":6956,"Ġagree":6957,"uning":6958,"Ġregist":6959,"Sche":6960,"ĠEm":6961,"Ġalt":6962,"ĠSU":6963,"Ġchallenges":6964,"110":6965,"TO":6966,"finite":6967,"Ġprime":6968,"orig":6969,"Local":6970,"inger":6971,"classes":6972,"Ġnotion":6973,"ribe":6974,"Ġ<!--":6975,"Ġeveryone":6976,"arian":6977,"ootstrap":6978,"ĠBel":6979,"Ġoffset":6980,"Ġrock":6981,"negative":6982,"loc":6983,"ĠGermany":6984,"Assum":6985,"plet":6986,"sole":6987,"gather":6988,"My":6989,"upport":6990,"ĠDirector":6991,"SA":6992,"itions":6993,"isson":6994,"Ġbands":6995,"Ġwind":6996,"Ġstack":6997,"Row":6998,"Ġscope":6999,"backslash":7000,"}$\\":7001,"Ġcategories":7002,"Ġhous":7003,"Ġexpressions":7004,")(\\":7005,"Ġexplore":7006,"Ġseven":7007,"PRO":7008,"Output":7009,"ĠSecond":7010,"ĠSuppose":7011,"RI":7012,"Ġsec":7013,"Ġinteract":7014,"hold":7015,"obs":7016,"Ġexplan":7017,"Ġthous":7018,"Ġanom":7019,"Ġhum":7020,"Ġdemonstrate":7021,"Ġquantity":7022,"|$":7023,"Ġtools":7024,"ABLE":7025,"Ġtoward":7026,"service":7027,"SON":7028,"Bo":7029,"iling":7030,"Ġsignals":7031,"ĠSat":7032,"Ġstories":7033,"ĠUnion":7034,"Ġvacuum":7035,"}$;":7036,"PD":7037,"\").":7038,"\\|_":7039,"Ġaffected":7040,"ani":7041,"ĠAustralia":7042,"Ġsend":7043,"Ġsimultane":7044,"Ġreasonable":7045,"Ġuniversal":7046,"rich":7047,"ĠEven":7048,"Ġevaluated":7049,"short":7050,"airs":7051,"Ġentries":7052,"////////////////":7053,"Ġnormalized":7054,"Ġcorpor":7055,"standing":7056,"Ġtransmission":7057,"Ġatoms":7058,"clip":7059,"abeled":7060,"Ġconfigurations":7061,"ĠAlgorithm":7062,"Ġuniformly":7063,"enerate":7064,"Ġclimate":7065,"iveness":7066,"claim":7067,"arithm":7068,"Ã¡":7069,"rence":7070,"Ġexplo":7071,"ita":7072,")}(\\":7073,"ona":7074,"ago":7075,"ĠGeorge":7076,"circle":7077,"Ġbenefit":7078,"Ġelectrons":7079,"component":7080,"Ġhappen":7081,"Ġunless":7082,"raz":7083,"Ġlies":7084,"Ġouter":7085,"Ġattract":7086,"Ġcandidates":7087,"ĠGerman":7088,"Ġfailed":7089,"ĠAnt":7090,"Ġmainly":7091,"uns":7092,"Ġaw":7093,"ĠHREF":7094,"ĠEducation":7095,"Ġidentical":7096,"cel":7097,"uparrow":7098,"Ġneutrino":7099,"Ġsuppose":7100,"Sum":7101,"Ġtechnical":7102,"Equals":7103,"ĠOffice":7104,"Ġmetrics":7105,"Ġscene":7106,"Ġcombin":7107,"Ġdependent":7108,"Ġconfidence":7109,"Ġfluid":7110,"Fl":7111,"Ġpackage":7112,"Ġiniti":7113,"ĠPort":7114,"white":7115,"ĠLy":7116,"Ġindices":7117,"ĠNetwork":7118,"Ġ{}":7119,"Cal":7120,"ĠĠĠĠĠĠĠĠĠĠĠĠĠĠĠĠĠĠĠĠĠĠĠĠĠĠĠĠĠĠĠĠĠĠĠ":7121,"Ġminutes":7122,"Ġlisted":7123,"nections":7124,"ĠHistory":7125,"Ġdensities":7126,"BR":7127,"Ġgir":7128,"ĠTex":7129,"pop":7130,"Ġresearc":7131,"IO":7132,"match":7133,"ĠMost":7134,"instance":7135,"Ġplans":7136,"Ġcomments":7137,"'_{":7138,"&&\\":7139,"Ġtour":7140,"Ġsetup":7141,"lood":7142,"opes":7143,"Ġopin":7144,"Ġepis":7145,"direct":7146,"Ġreader":7147,"Ġeventually":7148,"Ġrect":7149,"Ġdecided":7150,"Ġmissing":7151,"propto":7152,"$^{":7153,"Ġiteration":7154,"document":7155,"Ġphases":7156,"usal":7157,"ĠTHE":7158,"Ġsurround":7159,")}.":7160,"global":7161,"ĠSD":7162,"ua":7163,"Ġspent":7164,"She":7165,"there":7166,"ĠDM":7167,"Ġeconomy":7168,"container":7169,"za":7170,"Ġplaces":7171,"Pe":7172,"oom":7173,"\\!\\":7174,"128":7175,"Ġ---":7176,"Ġserve":7177,"2022":7178,"Ġweeks":7179,"lick":7180,"jecture":7181,"expected":7182,"pired":7183,"Ġatmosp":7184,"Ġessentially":7185,"Ġenter":7186,"ME":7187,"*}[":7188,"continu":7189,"hang":7190,"Ġcircum":7191,"Ġpurch":7192,";$":7193,"Ġanalyz":7194,"Ġfol":7195,"Ġdrop":7196,"never":7197,"Ġsomew":7198,"1993":7199,"Ġ{@":7200,"styles":7201,"ĠAtt":7202,"Valid":7203,"mathit":7204,"{(\\":7205,"hfill":7206,"ulture":7207,"@{":7208,"Ġdense":7209,"ĠChinese":7210,"Inst":7211,"Ġperiodic":7212,"CF":7213,"Ġempir":7214,"eness":7215,"Ġchanging":7216,"aker":7217,"Ġcoupled":7218,"Ġhund":7219,")).":7220,"unct":7221,"brid":7222,"ipeline":7223,"ativistic":7224,"Ġdot":7225,"dep":7226,"Ġaccret":7227,"Ġfeedback":7228,"Ġ}}":7229,"Ġinterpretation":7230,"Ġbudget":7231,"binom":7232,"Ġmostly":7233,"Ġabsorption":7234,"ĠMart":7235,"ĠFourier":7236,"Ġmixing":7237,"Ġcontinuum":7238,"Ġdecrease":7239,"ditionally":7240,"GS":7241,"HC":7242,"enses":7243,"EQ":7244,"ĠÂ§":7245,"member":7246,"ucl":7247,"Ġelim":7248,"Button":7249,"stood":7250,"modules":7251,"va":7252,"Ġconclusion":7253,"Ġfitting":7254,"Tag":7255,"Dep":7256,"jective":7257,"Ġurl":7258,"Can":7259,"&=&\\":7260,"sey":7261,"Ġdatabase":7262,"gin":7263,"Ġsuggested":7264,"Ġgenerating":7265,"Ġparties":7266,"Ġquot":7267,"They":7268,"kl":7269,"thon":7270,"(&":7271,")--(":7272,"Ġsen":7273,"$^":7274,"$}}":7275,"Ġclaims":7276,"exists":7277,"Ġintermediate":7278,"}.}":7279,"typ":7280,"Ġplas":7281,"igu":7282,"Ġspan":7283,"Ġcapture":7284,"invariant":7285,"Ġreduces":7286,"Listener":7287,"ĠMinister":7288,"road":7289,"ĠMus":7290,"ĠMichael":7291,"instein":7292,"ĠRead":7293,"reference":7294,"square":7295,"Ġdeviation":7296,"ĠMax":7297,"possible":7298,"Ġtail":7299,"_{+":7300,"Ġdirections":7301,"require":7302,"Ġdespite":7303,"Ġcommut":7304,"ĠJournal":7305,"Comp":7306,"Ġseparation":7307,"ĠGreat":7308,"jpg":7309,"ĠConsider":7310,"Ġdiam":7311,"Length":7312,"Ġdeb":7313,"ORT":7314,"remove":7315,"Ġpages":7316,"regular":7317,"Ġrecords":7318,"Ġbenefits":7319,"sample":7320,"chor":7321,"SH":7322,"gment":7323,"ture":7324,"Ġincome":7325,"Ġinvestigation":7326,"ĠGra":7327,"ĠChristian":7328,"Style":7329,"Task":7330,"ĠCLASS":7331,"ike":7332,"Ġbill":7333,"Ġfrequencies":7334,"sequent":7335,"KE":7336,"Ġinvolving":7337,"Ġattacks":7338,"RA":7339,"Mem":7340,"}/\\":7341,"ĠSuper":7342,"Ġturns":7343,"Ġbeaut":7344,"Pa":7345,"').":7346,"Ġcompleted":7347,"sych":7348,"Ġopposite":7349,"lik":7350,"tained":7351,"clusive":7352,"Ġoffers":7353,"Ġ{$\\":7354,"ĠBoth":7355,"room":7356,"Ġ\\|\\":7357,"Ġformulation":7358,"menu":7359,"Ġvisible":7360,"ĠReview":7361,"MT":7362,"})^{":7363,"Ġfirm":7364,"Ġresidual":7365,"Ġinnov":7366,"GeV":7367,"Ġgeometric":7368,"Ġconvolution":7369,"root":7370,"andemic":7371,"vo":7372,"ounds":7373,"ĠLog":7374,"Ġquadratic":7375,"Layout":7376,"ams":7377,"=\\{":7378,"mf":7379,"Ġadvers":7380,"Ġanalytic":7381,"Ġmeas":7382,"Ġlowest":7383,"oton":7384,"Ġrecommend":7385,"ĠEarth":7386,"rating":7387,"Ġspeech":7388,"ĠJack":7389,"Ġstraightforward":7390,"Ġhomogeneous":7391,"Ġdispersion":7392,"Ġdiss":7393,"UI":7394,"$\\\\":7395,"Ġrace":7396,"Ġscenarios":7397,"Non":7398,"Ġdepict":7399,"endif":7400,"measure":7401,"risis":7402,"Ġleader":7403,"Di":7404,"ĠArray":7405,"Ġwasn":7406,"ĠMo":7407,"}^{+":7408,"Dec":7409,"Ġfailure":7410,"iller":7411,"Ġsummary":7412,"insic":7413,"wave":7414,"Ġaware":7415,"orial":7416,"ĠTimes":7417,"ĠDE":7418,"Ġmetall":7419,"Ġplaced":7420,"ermi":7421,"arity":7422,"sep":7423,"herical":7424,"Ġtag":7425,"Open":7426,"Update":7427,"Ġfocused":7428,"Ġdecreases":7429,"ĠGoogle":7430,"Ġsolving":7431,"stackrel":7432,"domain":7433,"Ġaccretion":7434,"Ġcert":7435,"istan":7436,".$$":7437,"Ġintegrated":7438,"Ġindicated":7439,"BO":7440,"Ġdiffusion":7441,"DO":7442,"tz":7443,"$'":7444,"Ġinstances":7445,"Ġperhaps":7446,"Column":7447,"ications":7448,"ubble":7449,"ĠBusiness":7450,"Ġprofessional":7451,"psh":7452,"Each":7453,"awa":7454,"Ġwife":7455,"1992":7456,"Ġcast":7457,"Ġmathemat":7458,"Ġsigned":7459,"256":7460,"Select":7461,"Ġ[]":7462,"```":7463,"Ġcommerc":7464,"Ġverify":7465,"ĠMem":7466,"Ġextent":7467,"ni":7468,"ĠĠĠĠĠĠĠĠĠĠĠĠĠĠĠĠĠĠĠĠĠ":7469,"Ġmanufact":7470,"Ġproportional":7471,"dens":7472,"180":7473,"lower":7474,"ĠSociety":7475,"125":7476,"Ġcalls":7477,"ĠAPI":7478,"resp":7479,"hent":7480,"Ġsensitive":7481,"Ġprecision":7482,"stain":7483,"lip":7484,"Des":7485,"$\\,":7486,"_.":7487,"Ġattribute":7488,"Ġfaith":7489,"Ġappoint":7490,"ĠMal":7491,"onald":7492,"ĠLicense":7493,"<?":7494,"Ġpractical":7495,"Ġinvestment":7496,"Ġexpectation":7497,"paper":7498,"Ġsubt":7499,"ĠAnn":7500,"Ġpush":7501,"Ġdirected":7502,"just":7503,"Ġaspects":7504,"Ġpowerful":7505,"Ġhappens":7506,"offset":7507,"Ġeth":7508,"DC":7509,"Ġturned":7510,"ãģ":7511,"Ġinstant":7512,"Ġtriang":7513,"Ġcreating":7514,"multline":7515,"aud":7516,"varrho":7517,"eds":7518,"Ġmill":7519,"leftarrow":7520,"ceil":7521,"Ġpolynomials":7522,"ĠAfrican":7523,"Ġrig":7524,"Ġtrial":7525,"URL":7526,"ĠYear":7527,"comes":7528,"Ġhierarch":7529,"Ġ!==":7530,"Ġconvent":7531,"ko":7532,"eries":7533,"ĠProject":7534,"Ġirreducible":7535,"ogram":7536,"bor":7537,"Ġsky":7538,"density":7539,"Ġextremely":7540,"outhern":7541,"Ġlocations":7542,"Ġasymm":7543,"Ġtransitions":7544,"Ġbirth":7545,"itation":7546,"Ġstrategies":7547,"since":7548,"theless":7549,"Ġallowing":7550,"should":7551,"ĠFil":7552,"ĠRussian":7553,"Ġmission":7554,"Ġstrictly":7555,"Ġbaseline":7556,"different":7557,"ilation":7558,"functions":7559,"buf":7560,"Ġfont":7561,"Ġdigital":7562,"According":7563,"ĠDen":7564,"pload":7565,"CON":7566,"ĠRev":7567,"Ġmolecular":7568,"Ġcorrelations":7569,"Url":7570,"uple":7571,"!!":7572,"Ġcoverage":7573,"rage":7574,"Rep":7575,"smallskip":7576,"ĠTwo":7577,"Ġconjug":7578,"ql":7579,"ipart":7580,"Parameter":7581,"Entity":7582,"Although":7583,"FL":7584,"ĠTexas":7585,"Mon":7586,"phase":7587,"âĢĿ,":7588,"ĠGR":7589,"ĠLagrangian":7590,"cp":7591,"ett":7592,"ART":7593,"Ġ$^{":7594,"power":7595,"Ġordered":7596,"riminal":7597,"aps":7598,"Ġlatest":7599,"midrule":7600,"ests":7601,"have":7602,"Ġexceed":7603,"Ġautomat":7604,"icine":7605,"Ġtemporal":7606,"Ġimprovement":7607,"Ġvote":7608,"Web":7609,"Ut":7610,"fields":7611,"255":7612,"ao":7613,"Ġrecover":7614,"PH":7615,"ERR":7616,"Ġissu":7617,"Ġprincipal":7618,"itness":7619,"ĠPhys":7620,"Ġarri":7621,"Ġcryst":7622,"Ġstatements":7623,"BL":7624,"look":7625,"ĠJer":7626,"Ġaggreg":7627,"represent":7628,"isted":7629,"Car":7630,"RR":7631,"Ġanc":7632,"ĠĠĠĠĠĠĠĠĠĠĠĠĠĠĠĠĠĠĠĠ":7633,"COL":7634,"Mode":7635,"card":7636,"icular":7637,"chain":7638,"Ġsensitivity":7639,"textnormal":7640,"ĠSocial":7641,"Ġmoments":7642,"SF":7643,"Ġbalance":7644,"Ġtopology":7645,"Ġtreated":7646,"Ġcamp":7647,"Ġcolumns":7648,"Ġ~\\":7649,"allow":7650,"lope":7651,"Ġorthogonal":7652,"Ġorbital":7653,"when":7654,"isher":7655,"elligence":7656,"Ġ\\{\\":7657,"\\},":7658,"vents":7659,"Ġvariations":7660,")&":7661,"ĠHuman":7662,"Ġspecifically":7663,"Ġalgebraic":7664,"ĠOper":7665,"Ġeffectively":7666,"ĠRet":7667,"Ġmaster":7668,"ingly":7669,"attr":7670,"ensus":7671,"Ġsystematic":7672,"Ġ\\[":7673,"oved":7674,"MF":7675,"Chang":7676,"ĠCorollary":7677,"Ġglu":7678,"itt":7679,"parse":7680,"Long":7681,"Ġtemplate":7682,"etch":7683,"Ġderivatives":7684,":</":7685,"Ġmodeling":7686,"Ġperspective":7687,"Hom":7688,"Filter":7689,"Ġcrucial":7690,"Ġlock":7691,"istance":7692,"Ġplays":7693,"Ġsession":7694,"Ġgrand":7695,"Ġtranslation":7696,"Us":7697,"ĠMary":7698,"Ġturb":7699,"Ġcontribute":7700,"Ġdefines":7701,"hl":7702,"Ġsustain":7703,"Ġtang":7704,"Ġneutron":7705,"ĠRad":7706,"Ġfelt":7707,"ĠBr":7708,"green":7709,"common":7710,"Ġemployed":7711,"Ġacad":7712,"001":7713,"ĠGr":7714,"ĠAward":7715,"Rev":7716,"}[!":7717,"Ġrecorded":7718,"ĠĠčĊ":7719,"Ġpaint":7720,"Ġstock":7721,"ĠParty":7722,"Ġclin":7723,"ortunately":7724,"Ġwidely":7725,"cover":7726,"Ġatta":7727,"Ġacting":7728,"kind":7729,"window":7730,"indu":7731,"Ġinstr":7732,"160":7733,"ĠAcc":7734,"Ġlikelihood":7735,"Ġsimulated":7736,"ĠDuring":7737,"Ġpeace":7738,"\\!\\!\\!\\!":7739,"Ġlie":7740,"AE":7741,"Ġprecise":7742,"ĠBrown":7743,"ĠDan":7744,"Ġnarrow":7745,"MD":7746,"ji":7747,"]^":7748,"pres":7749,"Ġenhance":7750,"Ġsal":7751,"Ġuniverse":7752,"Ġletter":7753,"III":7754,"pository":7755,"citealt":7756,"ette":7757,"Ġweighted":7758,"Level":7759,"Ġtransverse":7760,"\\}_{":7761,"250":7762,"ĠRoy":7763,"nolimits":7764,"oday":7765,"opyright":7766,"Ġplanning":7767,"akes":7768,"=\"../../../../../":7769,"Ġsubspace":7770,"}>":7771,"formance":7772,"Ġbre":7773,"Am":7774,"Ġunderstood":7775,"states":7776,"Ġrare":7777,"ĠForm":7778,"iemann":7779,"iance":7780,"Ġdiagrams":7781,"Ġconvers":7782,"Ġrepresenting":7783,"Ġbank":7784,"ĠAmericans":7785,"moment":7786,"leqslant":7787,"ĠUN":7788,"CN":7789,"Ġraise":7790,"spin":7791,"ĠRE":7792,"acob":7793,"Ġchurch":7794,"exec":7795,"spe":7796,"Ġofficials":7797,"FO":7798,"Ġâ":7799,"Ġcovered":7800,"Tree":7801,"XX":7802,"vere":7803,"impl":7804,"ApJ":7805,"Ġelli":7806,"{|":7807,"Ġgenerator":7808,"problem":7809,"Ġepoch":7810,"Ġfunding":7811,"BP":7812,"Ġabsence":7813,"ĠSecretary":7814,"Definition":7815,"Gu":7816,"nost":7817,"Ġtrees":7818,"ĠAlex":7819,"ACK":7820,"Ġlabor":7821,"Ġcollege":7822,"Ġdefinitions":7823,"Go":7824,"Ġspirit":7825,"proto":7826,"Ġsch":7827,"Target":7828,"Address":7829,"Ġadjac":7830,"Ġadm":7831,"ĠFore":7832,"Ġrepeated":7833,"ĠTheir":7834,"Ġrestriction":7835,"Ġcycl":7836,"Ġchance":7837,"Acc":7838,"ena":7839,"ployment":7840,"ĠLou":7841,"Ġstarts":7842,"1980":7843,"Ġjobs":7844,"manif":7845,"Access":7846,"Ġpaid":7847,"aus":7848,"Ġapplicable":7849,"Ġpred":7850,"ĠMex":7851,"Ġcelebr":7852,"ĠMac":7853,"Ġdriving":7854,"Ġpossibly":7855,"cis":7856,"HO":7857,"Ġchoices":7858,"Ġorganizations":7859,"Ġentity":7860,"particle":7861,"rates":7862,"symmetric":7863,"inction":7864,"bc":7865,"Ġcertainly":7866,"irection":7867,"styleshe":7868,"ĠRussia":7869,"Cache":7870,"Ġhuge":7871,"appe":7872,"Ġ})":7873,"Ġcommercial":7874,"\"),":7875,"El":7876,"elian":7877,"imum":7878,"Ġhorizontal":7879,"textup":7880,"++)":7881,"subequations":7882,"Ġelectronic":7883,"ĠAut":7884,"ĠDel":7885,"ĠSecurity":7886,"Ġheard":7887,"pref":7888,"Ġstrugg":7889,"care":7890,"Ġcharacteristics":7891,"Ġtoken":7892,"Ġmus":7893,"sch":7894,"Ġarc":7895,"Position":7896,"STATE":7897,"ronic":7898,"ructions":7899,"modal":7900,"'),":7901,"req":7902,"Ġmarked":7903,"Ke":7904,"Ġcomplement":7905,"ographic":7906,"\\}.":7907,"forming":7908,"ester":7909,"ynamics":7910,"########":7911,"kern":7912,"Ġneutral":7913,"ĠDevelopment":7914,"Ġperforming":7915,"aur":7916,"ĠSing":7917,",...,":7918,"Ġdecades":7919,"Ġphotons":7920,"Ġdominant":7921,"Script":7922,"ilt":7923,"BU":7924,"rieved":7925,"thick":7926,"Ġpandemic":7927,"Ġappeared":7928,"ĠDon":7929,"ĠLat":7930,"BM":7931,"eder":7932,"Ġexcess":7933,"Ġratios":7934,"apse":7935,"forcement":7936,"Ġtrajectory":7937,"comment":7938,"ĠStep":7939,"Ġrandomly":7940,"Ġanyone":7941,"ĠDistrict":7942,"}^+":7943,"Ġconducted":7944,"Ġer":7945,"venue":7946,"mathtt":7947,"ĠSimilarly":7948,"Provider":7949,"Ġdrive":7950,"ested":7951,"raise":7952,"dash":7953,")}$.":7954,"Some":7955,"ĠBill":7956,"ĠIslam":7957,"Ġemployees":7958,"Ġupdated":7959,"Ġnorth":7960,")[":7961,"Ġplus":7962,"Ġded":7963,"Ġreality":7964,"Ġcosmological":7965,"lands":7966,"constra":7967,"Ġfits":7968,"ĠMusic":7969,"rounds":7970,"Ġ\\}":7971,"ura":7972,"Ġ**":7973,"ĠLand":7974,"TC":7975,"irus":7976,"ĠAcad":7977,"ĠProfess":7978,"Ġversus":7979,"Ġsafe":7980,"Ġschedu":7981,"ĠFace":7982,"Ġcharges":7983,"Dat":7984,"Ġpowers":7985,"Ġdemonstrated":7986,"background":7987,"Ġfermion":7988,"bigcup":7989,"ĠIran":7990,")),":7991,"Ġpermut":7992,"Ġsides":7993,"Ġrestricted":7994,"Ġinstrument":7995,"anglement":7996,"Work":7997,"correspon":7998,"Ġsimilarly":7999,"Ġadministration":8000,"Ġcodes":8001,"Ġtight":8002,"Ġinclusion":8003,"rip":8004,"jected":8005,")_{\\":8006,"ĠGold":8007,"Ġfourth":8008,"yer":8009,"ĠEU":8010,"Ġknew":8011,"Ġfilms":8012,"Ġcatalog":8013,"kit":8014,"ĠBi":8015,"Ġreferences":8016,"Ġtraffic":8017,"Ġreligious":8018,"house":8019,"ĠEconom":8020,"Types":8021,"eless":8022,"}},\\":8023,"123":8024,"ĠHilbert":8025,"Ġvacc":8026,"_{-\\":8027,"Ġreconstruction":8028,"Ġorientation":8029,"alty":8030,"Ġcreation":8031,"Ġvehicle":8032,"Ġtransformations":8033,"category":8034,"ĠKore":8035,"veloper":8036,"Ġclub":8037,"Ġpretty":8038,"ĠSeries":8039,"ĠMuseum":8040,"ros":8041,"oses":8042,"ĉĉĉĉĉĉĉ":8043,"tax":8044,"note":8045,"world":8046,"ĠĠĠĠĠĠĠĠĠĠĠĠĠĠĠĠĠĠ":8047,"Ġcollected":8048,"correct":8049,"Proposition":8050,"ĠCanad":8051,"Dev":8052,"Ġpull":8053,"issions":8054,"ĠAGN":8055,"Ġscreen":8056,"Ġpixel":8057,"Ġmetal":8058,"ĠTur":8059,"Ġvarying":8060,"Ġfaster":8061,"ĠSol":8062,"Ġschemes":8063,"ĠUV":8064,"Ġdecisions":8065,"Ġviews":8066,"Ġreaction":8067,"Americ":8068,"Ġassigned":8069,"ipped":8070,"Ġjoin":8071,"Ġkept":8072,"tor":8073,"ĠGL":8074,"rency":8075,"illa":8076,"conduct":8077,"Ġlibrary":8078,"})=\\":8079,"ĠEquation":8080,"Ġdistances":8081,"Ġroughly":8082,"chen":8083,"Ġanalyze":8084,"ĠRob":8085,"wt":8086,"Ġarrang":8087,"1991":8088,"ĠSmith":8089,"ĠBank":8090,"Ġsphere":8091,"Ġcallback":8092,"files":8093,"defn":8094,"ĠQue":8095,"afe":8096,"pons":8097,"Ġplant":8098,"Ġcriteria":8099,"Stat":8100,"Ġrequirement":8101,"Ġsurfaces":8102,"ashion":8103,"Ġsto":8104,"initial":8105,"{.":8106,"Ġinvolve":8107,"ĠMethod":8108,"Ġprivacy":8109,"tn":8110,"rb":8111,"ĠEqs":8112,"Ġcaref":8113,"WE":8114,"ĠPeople":8115,"Width":8116,"Sym":8117,"atural":8118,"ĠFlor":8119,"apes":8120,"Ġregression":8121,"scriptscriptstyle":8122,"Ġdeveloping":8123,"Ġconfirmed":8124,"Ġcamera":8125,"ĠSN":8126,"istence":8127,"ĠIII":8128,"Ġclosely":8129,"Met":8130,"Ġalleg":8131,"bot":8132,"prim":8133,"600":8134,"Cref":8135,"Frame":8136,"Ġtransaction":8137,"ĠCR":8138,"Ġatomic":8139,"Ġmonitor":8140,"ctic":8141,"Ġcontinues":8142,"Ġanim":8143,"assum":8144,"ifted":8145,"Ġshell":8146,"ounce":8147,"Ġobj":8148,"cussion":8149,"Ġfarm":8150,"Ġviolence":8151,"Unit":8152,"GE":8153,"shift":8154,"Ġenvironmental":8155,"onav":8156,"Ġflex":8157,"Ġwonder":8158,"Ġhelped":8159,"Ġinference":8160,"enty":8161,"ĠFederal":8162,"returns":8163,"Ġliqu":8164,"mean":8165,"ĠMass":8166,"Server":8167,"Ġready":8168,"Ġoil":8169,"^+$":8170,"ĠRobert":8171,"Ġsubsequent":8172,"ĠDiv":8173,"Ġextracted":8174,"Ġbreaking":8175,"sem":8176,"cross":8177,"ĠDefinition":8178,"Ġdominated":8179,"ĠWeb":8180,"Ġimply":8181,"Ġprotection":8182,"artifact":8183,"ĠId":8184,"Ġuniqu":8185,"asy":8186,"Ġsold":8187,"comb":8188,"olf":8189,"ogg":8190,"ĠFile":8191,"Ġexpos":8192,"entity":8193,"served":8194,"eady":8195,")>":8196,"Ġstorage":8197,"crit":8198,"Ġinitially":8199,"Enc":8200,"Ġtested":8201,"Ġexcited":8202,"Ġsimplicity":8203,"itors":8204,"Ġfill":8205,"Ġeigenvalue":8206,"ĠSun":8207,"Ġstationary":8208,"ĠÃ":8209,"Ġconfirm":8210,"ĠLife":8211,"Ġvictim":8212,"Ġinvestigated":8213,"Ġbuffer":8214,"ĠSum":8215,"respect":8216,"Ġthin":8217,"Ġestimator":8218,"MO":8219,"Ġnaturally":8220,"ĠUSA":8221,"Ġincident":8222,"ĠMer":8223,"aylor":8224,"ribed":8225,"Ġfigures":8226,"ĠAR":8227,"(_":8228,"Ġremember":8229,"Ġbrother":8230,"Two":8231,"Ġconverges":8232,"nm":8233,"tim":8234,"QL":8235,"Ġresonance":8236,"grav":8237,"Current":8238,"Ġcitizens":8239,"Ġapplies":8240,"Ġcollision":8241,"edy":8242,"ĠAp":8243,"ĠServices":8244,"Mark":8245,"Ġwriter":8246,"Ġemit":8247,"ĠâĢ¦":8248,"ĠInformation":8249,"Ġinputs":8250,"ĠHel":8251,"LR":8252,"Ġdaught":8253,"Ġdt":8254,"Bigg":8255,"Ġdiscussions":8256,"legal":8257,"Ġbenchmark":8258,"Ġhear":8259,"Ġrich":8260,"BH":8261,"Âł":8262,"eller":8263,"Ġsolved":8264,"Ġinvolves":8265,"Other":8266,"ĠSund":8267,"aved":8268,"ĠChild":8269,"=\"-":8270,"101":8271,"etail":8272,"ĠOR":8273,"Ġbusinesses":8274,"iger":8275,"istor":8276,"limit":8277,"ints":8278,"utils":8279,"Ġguid":8280,"Ġkilled":8281,"ffect":8282,"uclide":8283,"Ġhappened":8284,"textsf":8285,"ogen":8286,"Ġannual":8287,"riday":8288,"_{[":8289,"ĠEvery":8290,"Ġthread":8291,"DT":8292,"Ġdocuments":8293,"ĠPet":8294,"Ass":8295,"Ca":8296,"ictionary":8297,"Ġstronger":8298,"Ġphil":8299,"andard":8300,"FS":8301,"pot":8302,")}$,":8303,"vas":8304,"Another":8305,"ĠAny":8306,"LC":8307,"Prop":8308,"ĠCode":8309,"onavirus":8310,"Search":8311,"Ġcompatible":8312,"Ġenable":8313,"Ġoperating":8314,"Ġcentre":8315,"oust":8316,"\\[\\":8317,"Ġrecognition":8318,"Ġinduction":8319,"Ġproposition":8320,"Bbb":8321,"complete":8322,"single":8323,"Ġsummer":8324,"ĠPy":8325,"Ġsales":8326,"Ġpresents":8327,"Ġpain":8328,"Ġmodules":8329,"ĠRights":8330,"Ġexecution":8331,"period":8332,"ctx":8333,"ugment":8334,"Ġsignature":8335,"Ġcouplings":8336,"reek":8337,"Ġquarter":8338,"Ġcooper":8339,"Ġtopic":8340,"uclidean":8341,"Ġsumm":8342,"Ġjoined":8343,":(":8344,"Recall":8345,"Ġfloat":8346,"Ġrepresentative":8347,"Ġprison":8348,"Ġswitch":8349,"]=":8350,"Ġexcell":8351,"Ġempirical":8352,"Ġdip":8353,"ĠSal":8354,"Ġalgebras":8355,"double":8356,"Ġcomparable":8357,"ulating":8358,"Ġcrisis":8359,"las":8360,"Ġlogarithm":8361,"ĠIts":8362,"ĠLeague":8363,"Ġpanels":8364,"urt":8365,"sequences":8366,"hs":8367,"ĠEnergy":8368,"Ġflag":8369,"\\,{\\":8370,"Offset":8371,"ĠEnd":8372,"rastructure":8373,"ĠMany":8374,"ĠSpe":8375,"PM":8376,"Ġconnections":8377,"ĠCentral":8378,"BI":8379,"osc":8380,"Ġidentification":8381,"Any":8382,"Ġdrug":8383,"Ġconsisting":8384,"ircles":8385,"}{{\\":8386,"network":8387,"Ġfav":8388,"cknowledg":8389,"Http":8390,"|_":8391,"ĠPolicy":8392,"ĠLin":8393,"Ġsett":8394,"parameters":8395,"ampions":8396,"Ġpp":8397,"rapper":8398,"Ġrespective":8399,"Ġanalys":8400,"resol":8401,"redu":8402,"valued":8403,"'.":8404,"Ġanisot":8405,"ĠMet":8406,"racket":8407,"ĠZe":8408,"Control":8409,"hr":8410,"tail":8411,"Furthermore":8412,"connected":8413,"Ġple":8414,"ĠMil":8415,"Ġphoto":8416,"ĠAL":8417,"ĠRiver":8418,"ĠArab":8419,"Ps":8420,"Ġhor":8421,"Before":8422,"Ġlens":8423,"BE":8424,"Ġensemble":8425,"Ġopportunities":8426,"Ġkinetic":8427,"Ġamplitudes":8428,"Ġexerc":8429,"inear":8430,"reci":8431,"ĠThomas":8432,"Ġsuccessfully":8433,"region":8434,"Ġwish":8435,"Ġhistorical":8436,"Project":8437,"riptor":8438,"ĠTom":8439,"ĠHam":8440,"Ġcat":8441,"Ġpapers":8442,"ĠJud":8443,"Ġ..":8444,"WS":8445,"tex":8446,"ĠManagement":8447,"Ġdestroy":8448,"simple":8449,"CODE":8450,"Ġconcerns":8451,"Ġdefining":8452,"unders":8453,"argin":8454,"Location":8455,"Up":8456,"each":8457,"Ã³":8458,"ĠWal":8459,"Change":8460,"Ġintroduction":8461,"othing":8462,"vdots":8463,"Ġbur":8464,"intro":8465,"Art":8466,"alities":8467,"********************************":8468,"Ġchallenging":8469,"Ġlooks":8470,"organ":8471,"access":8472,"GM":8473,"Ġgeneralization":8474,"found":8475,"Configuration":8476,"Op":8477,"=\"../../../../../../":8478,"Ġleadership":8479,"Ġscript":8480,"Ġscores":8481,"Pos":8482,"numer":8483,"approxim":8484,"Ġcharacterized":8485,"Ġnumerous":8486,"Ġisomorphic":8487,"Ġinterpol":8488,"pay":8489,"^*_":8490,"Ġeditor":8491,"'ll":8492,"Ġplotted":8493,"Ġsymbols":8494,"Ġsouth":8495,"ZE":8496,"FC":8497,"hu":8498,"Ġfunctor":8499,"Mar":8500,"Ġdrawn":8501,"gets":8502,"Ġofficer":8503,"Ġdomains":8504,"Ġresearchers":8505,"Ġunitary":8506,"Ġcancer":8507,"Ġsave":8508,"groups":8509,"ilding":8510,"ĠExec":8511,"Ġabstract":8512,"rust":8513,"Ġraised":8514,"'$.":8515,"channel":8516,"ĠMiss":8517,"Ġcauses":8518,"template":8519,"UM":8520,"Ġdefend":8521,"Properties":8522,"Ġdivis":8523,"ĠYour":8524,"syn":8525,"sv":8526,"acle":8527,"Ġopening":8528,"Ġsecondary":8529,"\\|^":8530,"ĠAdminist":8531,"dashed":8532,"izable":8533,"Ġillustrated":8534,"transform":8535,"}<":8536,"orent":8537,"CK":8538,"Ġdivided":8539,"Ġprobabilities":8540,"Ġcontrolled":8541,"Ġpotentially":8542,"Ġmeta":8543,"Ġauthority":8544,"IGN":8545,"ĠCre":8546,"orney":8547,"Ġcovering":8548,"determ":8549,"above":8550,"Ġterror":8551,"}})$":8552,"ĠTop":8553,"ĠFermi":8554,"bool":8555,"learning":8556,"notin":8557,"Ġcomplicated":8558,"special":8559,"Ġfra":8560,"Ġmessages":8561,"Ġcultural":8562,"total":8563,"ĠHill":8564,"fined":8565,"hard":8566,"Ġwhom":8567,"ĠCNN":8568,"ĠFrancis":8569,"odies":8570,"ĠCase":8571,"device":8572,"anguages":8573,"ws":8574,"Ġteams":8575,"Ġchiral":8576,"ALL":8577,"()->":8578,"IE":8579,"]);":8580,"Ġrenormal":8581,"itudes":8582,"ĠComput":8583,"ĠWestern":8584,"Ġfinds":8585,"prov":8586,"Ġextreme":8587,"mut":8588,"ãĥ":8589,"ĠFlorida":8590,"cache":8591,"Ġemail":8592,"Ġproduces":8593,"Ġscientific":8594,"Var":8595,"construct":8596,"ĠDet":8597,"ĠTor":8598,"Ġsimilarity":8599,"Ġmur":8600,"fold":8601,"Main":8602,"ien":8603,"Ġcloser":8604,"ĠGlobal":8605,"Ġclustering":8606,"VM":8607,"ĠCarol":8608,"|_{\\":8609,"Ġsimultaneously":8610,"iful":8611,"stylesheet":8612,";\\;":8613,"Ġcontradiction":8614,"ethe":8615,"Ġconformal":8616,"$_{\\":8617,"Ġdiscovered":8618,"Ġstabil":8619,"Ġslope":8620,"Ġtot":8621,"Ġsatell":8622,"}{}":8623,"Ġconcerned":8624,"ĠPM":8625,"Ġflows":8626,"aling":8627,"1989":8628,"?âĢĿ":8629,"ibilities":8630,"osoph":8631,"ĠStar":8632,"Ġconcentration":8633,"Ġcomparing":8634,"eval":8635,"cape":8636,"Ġplasma":8637,"Ġspacetime":8638,"flat":8639,"iment":8640,"nowledge":8641,"ĠQCD":8642,"IB":8643,"rg":8644,"independent":8645,"}}=\\":8646,"Ġthinking":8647,"icago":8648,"Ġpark":8649,"Ġmask":8650,"Ġmedian":8651,"ĠInstead":8652,"Ġconsult":8653,"estival":8654,"ĠLong":8655,"ĠBob":8656,"cou":8657,"Ġgenerators":8658,"Ġuns":8659,"ĠFl":8660,"arial":8661,"icrosoft":8662,"prototype":8663,"Ġinterests":8664,"before":8665,"Ġshot":8666,"fort":8667,"Ġattributes":8668,"Ġbroken":8669,"ÃŃ":8670,"Ġorganized":8671,"Ġrows":8672,"Ġmac":8673,"Ġsomewhat":8674,"napsh":8675,"'=":8676,"Opt":8677,"Ġolder":8678,"Ġparticipants":8679,"Ġautomatically":8680,"PECT":8681,"Process":8682,"grid":8683,"nings":8684,"vation":8685,"imately":8686,"Ġvort":8687,"Ġreconstruct":8688,"zen":8689,"Ġsentence":8690,"jk":8691,"artifactId":8692,"Ġpropagation":8693,"Ġduration":8694,"Ġfeas":8695,"between":8696,"task":8697,"ĠĠĠĠĠĠĊ":8698,"Ġpursu":8699,"Font":8700,"oles":8701,"Ġembedded":8702,"requency":8703,"ĠJose":8704,"Ġhospital":8705,"random":8706,"Ġvision":8707,"Phys":8708,"esides":8709,"AF":8710,"ĠGen":8711,"Ġsongs":8712,"ĠSam":8713,"ĠCreate":8714,"Ġcredit":8715,"estic":8716,"also":8717,"ean":8718,"Ġmerg":8719,"Ġencoding":8720,"Bigl":8721,"aset":8722,"Ġconditional":8723,"Ġcub":8724,"token":8725,"ĠGener":8726,"Empty":8727,"sky":8728,"Ġri":8729,"Ġleaves":8730,"resource":8731,"Ġconsideration":8732,"Ġiterations":8733,"Ġdecreasing":8734,"ĠCath":8735,"ĠVirgin":8736,"arest":8737,"Ġbary":8738,"Ġthanks":8739,"Ġargs":8740,"Ġreward":8741,"Ġbrain":8742,"uint":8743,"ĠLos":8744,"|=":8745,"Ġopinion":8746,"ĠTechnology":8747,"Ġgoals":8748,"INE":8749,"Ġdistrict":8750,"kers":8751,"Ġcontrols":8752,"Ġintervals":8753,"Ġatom":8754,"lm":8755,"overset":8756,"Ġjour":8757,"ĠPoisson":8758,"arma":8759,"Ġcritic":8760,"ĠArmy":8761,"Ġdemoc":8762,"=-\\":8763,"Ġentirely":8764,"bd":8765,"Ġintegers":8766,"Diff":8767,"Ġwants":8768,"Container":8769,"Ġexplanation":8770,"ĠRiemann":8771,"Str":8772,"Ġspherical":8773,"TYPE":8774,"ola":8775,"stances":8776,"raq":8777,"orentz":8778,"Ġlargely":8779,"Ġcities":8780,"Bigr":8781,"Ġconvenient":8782,"urance":8783,"will":8784,"Ġturbul":8785,"DL":8786,"connection":8787,"Ġspot":8788,"Ġdiscret":8789,"azine":8790,"\\/":8791,"Ġpool":8792,"Interface":8793,"ĠRun":8794,"TP":8795,"Ġtried":8796,"Ġdut":8797,"loss":8798,"800":8799,")=(":8800,"cerning":8801,"fortunately":8802,"Ġtrajectories":8803,"Ġjump":8804,"ĠFacebook":8805,"matically":8806,"Module":8807,"Ġfacts":8808,"Ġmechanisms":8809,"ĠMarkov":8810,"ortion":8811,"Ġ&$":8812,"hav":8813,"Ġplease":8814,"bre":8815,"Ġrelationships":8816,"Conn":8817,"connect":8818,"Ġfib":8819,"bx":8820,"closed":8821,"Ġforced":8822,"dest":8823,"ĠYoung":8824,"ĠCla":8825,"Ġful":8826,"Ġcache":8827,"triang":8828,"Ġpseudo":8829,"Ġvalidation":8830,"ĉĉĉĊ":8831,"oving":8832,"poly":8833,"Ġdriven":8834,"Ġneglig":8835,"ĠDirac":8836,"Ġframes":8837,"Ġhands":8838,"vin":8839,"Ġdaily":8840,"Ġvill":8841,"Ġbelongs":8842,"&-":8843,"Ġprepar":8844,"GA":8845,"verage":8846,"Ġoutcome":8847,"Ġcovariance":8848,"Option":8849,"Ġfamous":8850,"enum":8851,"à¤":8852,"estion":8853,"Ġsupply":8854,"Ġgeodes":8855,"Height":8856,"Ġharmonic":8857,"Exec":8858,"tically":8859,"Ġhash":8860,"Ġpresc":8861,"osh":8862,"Ġfunds":8863,"Ġartist":8864,"Ġangles":8865,"radius":8866,"ĠBig":8867,"iden":8868,"Ġvoice":8869,"ĠBG":8870,"Ġparagraph":8871,"leep":8872,"')$":8873,"Port":8874,"Ġpatient":8875,"Ġends":8876,"Ġreads":8877,"Ġappearance":8878,"pub":8879,"Ġseparated":8880,"ented":8881,"scape":8882,"ĠFund":8883,"vskip":8884,"ĠScott":8885,"API":8886,"Fix":8887,"Ġboost":8888,"distribution":8889,"Ġchart":8890,"Ġperturbations":8891,"Description":8892,"Ġcircuit":8893,"riage":8894,"roscopic":8895,"Ġopened":8896,"Ġecho":8897,"Header":8898,"rypt":8899,"erve":8900,"tml":8901,"ras":8902,"Ġlen":8903,"andra":8904,"}\\;":8905,"Ġdefect":8906,"Ġconservation":8907,"1970":8908,"Ġdie":8909,"ĠOffic":8910,"how":8911,":\"":8912,"Ġtargets":8913,"}~\\":8914,"fn":8915,"Ġblood":8916,"Ġcompre":8917,"Write":8918,"Ġfindings":8919,"Ġzone":8920,"kins":8921,"kip":8922,"complex":8923,"Ġswe":8924,"metric":8925,"blem":8926,"weak":8927,"Ġposterior":8928,"oting":8929,"ads":8930,"pic":8931,"Ġinterior":8932,"debug":8933,"HD":8934,"Ġcompens":8935,"Ġ$\\|":8936,"Ġwitness":8937,"\\,,":8938,"uling":8939,"Ġholes":8940,"Ġuint":8941,"ĠBest":8942,"Sign":8943,"ĠUse":8944,"itled":8945,"equal":8946,"groupId":8947,")|\\":8948,"Ġfear":8949,"ĠFriday":8950,"Ġcoherent":8951,"ĠExt":8952,"onday":8953,"Ġconflict":8954,"buffer":8955,"Ġarrest":8956,">,":8957,"Ġsmallest":8958,"COLOR":8959,"Utils":8960,"ĠFurther":8961,"sym":8962,"osis":8963,"Ġoriginally":8964,"umul":8965,"patch":8966,"BB":8967,"None":8968,"Ġcompetition":8969,"Ġvanishes":8970,"ĠObama":8971,"none":8972,"Ġthousands":8973,"Ġparams":8974,"lie":8975,"azz":8976,"Under":8977,"Down":8978,"Ġdecays":8979,"Ġnormalization":8980,"take":8981,".},":8982,"Ġowners":8983,"Ġboundaries":8984,"phe":8985,"Ġsupports":8986,"below":8987,"Hash":8988,"Ġconventional":8989,"Util":8990,"Ġbuy":8991,"Use":8992,"Ġpet":8993,"Ġwhenever":8994,"ĠSunday":8995,"Ġplots":8996,"Ġrespond":8997,"Ġlabeled":8998,"Ġpassing":8999,"Rightarrow":9000,"liament":9001,"anda":9002,"types":9003,"Ġbus":9004,"ĠWed":9005,"ogether":9006,"internal":9007,"Ġpixels":9008,"Ġgate":9009,"irror":9010,"ĠReturns":9011,"ĠNext":9012,"Ġsplitting":9013,"Ġmanager":9014,"Ġvelocities":9015,"phone":9016,"learly":9017,"evertheless":9018,"Ġperiods":9019,"Ġinstitutions":9020,"hash":9021,"Ġcold":9022,"Ġimmediate":9023,"triangle":9024,"Ġartists":9025,"Order":9026,"alled":9027,"lb":9028,"ĠOnly":9029,"west":9030,"stud":9031,"ĠAngeles":9032,"ĠAnother":9033,"uri":9034,"Ġintrinsic":9035,"tb":9036,"Ġstandards":9037,"Ġpadding":9038,"Ġentanglement":9039,"Ġclients":9040,"alf":9041,"ĠNon":9042,".(\\":9043,"Ġsurve":9044,"Ġgold":9045,"success":9046,"Range":9047,"Step":9048,"hab":9049,"Ġtelevision":9050,"AND":9051,"ĠBas":9052,"ĠBH":9053,"Gs":9054,"Ġkine":9055,"Ġorbits":9056,"Ġray":9057,"Ġskills":9058,"docs":9059,"bootstrap":9060,"NL":9061,"Ġarticles":9062,"ĠSi":9063,"har":9064,"Multi":9065,"Mr":9066,"ĠHen":9067,"Ġrealized":9068,"ĠEngine":9069,"Ġalloc":9070,"Params":9071,"VAL":9072,"clos":9073,"Ġpuls":9074,"mathbbm":9075,"Ġ}$":9076,"Ġfans":9077,"ĠVis":9078,"ĠJustice":9079,"'$,":9080,"Ġexhibit":9081,"ĠSup":9082,"Ġbra":9083,"ĠFrank":9084,"Ġsexual":9085,"ĠVer":9086,"Ġarise":9087,"Ġissued":9088,"Ġ>=":9089,"ipment":9090,"ĠException":9091,"Ġagency":9092,"Ġexecutive":9093,"ãĤ":9094,"uv":9095,"Ġabundance":9096,"mazon":9097,"rect":9098,"ĠMC":9099,"earning":9100,"Ġmeant":9101,"ĠNov":9102,"ĠAuthor":9103,"physical":9104,"Ġpri":9105,"theory":9106,"ĠRoman":9107,"ĠTwitter":9108,"ĠNGC":9109,"Ġexponent":9110,"changed":9111,"atre":9112,"ĠCam":9113,"Ġmobile":9114,"Ġbecoming":9115,"})_{":9116,"rations":9117,"Ġcriterion":9118,"Ġtalking":9119,"symmetry":9120,"Ġsubsets":9121,"ĠMonte":9122,"Ġowner":9123,"ĠCH":9124,"ifiers":9125,"ĠAgain":9126,"lam":9127,"ĠLO":9128,"ativity":9129,"ĠCanadian":9130,"Ġimplicit":9131,"Pub":9132,"ulas":9133,"perturb":9134,"Ġsenior":9135,"Ġoffered":9136,"Ġtrunc":9137,"erman":9138,"Ġliquid":9139,"Menu":9140,"Ġdistinguish":9141,"ĠWay":9142,"Ġtouch":9143,"Entry":9144,"Ġleaving":9145,"Ġcomposed":9146,"heric":9147,"Thread":9148,"person":9149,"Ġundefined":9150,"Ġmoves":9151,"Ġrecurs":9152,"NAME":9153,"HTML":9154,"Ġcustomers":9155,"separ":9156,"substack":9157,"Ġadjacent":9158,"asion":9159,"]^{":9160,"yan":9161,"Ġaffine":9162,"urable":9163,"ĠWell":9164,"ccc":9165,"Second":9166,"Ġweakly":9167,"}_{{\\":9168,"ĠWomen":9169,"Ġsparse":9170,"ĠPeter":9171,"Ġroots":9172,"Ġinvert":9173,"Ver":9174,"lfloor":9175,"avity":9176,"urday":9177,"panel":9178,"Ġindependently":9179,"ĠCheck":9180,"ĠMad":9181,"Ġintended":9182,"Ġguarantee":9183,"Ġcarbon":9184,"ĠDate":9185,"border":9186,"ä¸":9187,"site":9188,"Num":9189,"Ġproperly":9190,"Ġcrow":9191,"Ġ$<":9192,"ugins":9193,"Ġtick":9194,"unic":9195,"ĠRoad":9196,"'}\\":9197,"dual":9198,")}_{\\":9199,"Ġdisjoint":9200,"odd":9201,"Ġ}{\\":9202,"Ġdanger":9203,"Ġroll":9204,"Ġcounterpart":9205,"ĠJewish":9206,"ĠNOT":9207,"Ġpm":9208,"Ġversions":9209,"Ġkeeping":9210,"Ġcontroller":9211,"Ġdescribing":9212,"ĠAND":9213,"Document":9214,"Ġanalytical":9215,"herence":9216,"ĠArts":9217,"ĠIraq":9218,"shape":9219,"vironments":9220,"serve":9221,"interface":9222,"Ġpermit":9223,"arn":9224,"bolic":9225,"Settings":9226,"\\\\\\\\\\\\\\\\\\\\\\\\\\\\\\\\\\\\\\\\\\\\\\\\\\\\\\\\\\\\\\\\":9227,"Ġstands":9228,"Ġdoll":9229,"Ġpopulations":9230,"Ġforest":9231,"Ġkids":9232,"ĠMedia":9233,"Ġconference":9234,"Ġordinary":9235,"elescope":9236,"including":9237,"Ġtwice":9238,"Ġcommonly":9239,"Ġjustice":9240,"Assume":9241,"ĠÂ£":9242,"Ġdifferenti":9243,"}&\\":9244,"Sl":9245,"atever":9246,"}))":9247,"Application":9248,"ĠShow":9249,"unched":9250,"icial":9251,"Ġliber":9252,"inating":9253,"conv":9254,"tages":9255,"Ġ$[\\":9256,"Ġhappy":9257,"Ġadvoc":9258,"rfloor":9259,"holder":9260,"uzz":9261,"Dir":9262,"aug":9263,"frared":9264,"homology":9265,"ĠHy":9266,"Ġrevealed":9267,"Ġpolitics":9268,"Ð»":9269,"ĠLouis":9270,"properties":9271,"Ġextensive":9272,"Ġprimarily":9273,"Ġvisited":9274,".}\\":9275,"ben":9276,"Ġsecret":9277,"ato":9278,"ECT":9279,"ĠAssume":9280,"ifer":9281,"1988":9282,"Ġimpossible":9283,"CI":9284,"inity":9285,"aria":9286,"Ġweap":9287,"Direct":9288,"ĠDu":9289,"ĠÂ»":9290,"empor":9291,"cules":9292,"Ġcolour":9293,"displaymath":9294,"ĠIll":9295,"press":9296,"ĠIss":9297,"Ġaccepted":9298,"ĠChicago":9299,"potential":9300,"experim":9301,"Ġcircular":9302,"Ġneither":9303,"Ġpartially":9304,"Home":9305,"icons":9306,")}=":9307,"ĠSpace":9308,"gls":9309,"Ġpeaks":9310,"Ġasymptot":9311,"Ġ(\"":9312,"1987":9313,"join":9314,"Ġagreed":9315,"subfloat":9316,"fixed":9317,"STR":9318,"ĠReport":9319,"Ġrout":9320,"Ġhybrid":9321,"Ġstructural":9322,"kt":9323,"Ġwarm":9324,"Ġsteady":9325,"riend":9326,"Ġdedicated":9327,"Ġfootball":9328,"enter":9329,"Ġcondens":9330,"Ġcomprehen":9331,"Ġpointed":9332,"Connection":9333,"Ġpulse":9334,"Ġeasier":9335,"Ġconstrained":9336,"Ġdaughter":9337,"Ġcollapse":9338,"resize":9339,"Ġcircles":9340,"bounded":9341,"Ġmys":9342,"endar":9343,"oidal":9344,"ĠTim":9345,"Tim":9346,"Ġcollisions":9347,"ĠJes":9348,"laps":9349,"Ġ$$\\":9350,"Ġchapter":9351,"urban":9352,"RS":9353,"plicit":9354,"$(\\":9355,"HM":9356,"allery":9357,"Ġcone":9358,"Ġaugment":9359,"Ġĉ":9360,"Ġended":9361,"Ġlinearly":9362,"Async":9363,"ĠAM":9364,"Ġfacilities":9365,"Ġcriminal":9366,"Ġdiffer":9367,"Eng":9368,"John":9369,"dict":9370,"Ġfemale":9371,"ĠEXPECT":9372,"Ġinflation":9373,"Callback":9374,"ulator":9375,"Prot":9376,"$/":9377,"Ġcosmic":9378,"Ġhelps":9379,"Ġdwar":9380,"ĠInvest":9381,"horizon":9382,"rase":9383,"Ġdoub":9384,"hole":9385,"ĠIr":9386,"Ġlatent":9387,"deep":9388,"Ġseconds":9389,"Ġbriefly":9390,"Ġhomot":9391,"oped":9392,"ĠMuslim":9393,"ĠCON":9394,"Reference":9395,"Ġrealistic":9396,"fr":9397,"ulty":9398,"rome":9399,"~(":9400,"Ġaccounts":9401,"Pass":9402,"Ġhour":9403,"Ġsupporting":9404,"ĠSO":9405,"Ġindicating":9406,"Ġnom":9407,"NavBar":9408,"Ġrobot":9409,"Det":9410,"1986":9411,"}.\\":9412,"ĠEuclidean":9413,"Ġwat":9414,"ĠCommunity":9415,"Ġofficers":9416,"Ġchief":9417,"material":9418,"ĠTrue":9419,"ĠAff":9420,"Ġmental":9421,"ursday":9422,"AGE":9423,"chitz":9424,"Ġ{{":9425,"env":9426,"rative":9427,"ĠMiddle":9428,"isting":9429,"&#":9430,"Ġviewed":9431,"ceived":9432,"Ġuniversity":9433,"Ġresidents":9434,"constant":9435,"sid":9436,"Ġdeliver":9437,"fix":9438,"&$":9439,"Ġheav":9440,"Ġworst":9441,"family":9442,"gray":9443,"ĠIP":9444,"Ġraw":9445,"Ġoutputs":9446,"media":9447,"ĠGood":9448,"ĠInternet":9449,"âĢħ":9450,"ĠMath":9451,"Ġintegrals":9452,"ĠLocal":9453,"Ġnonzero":9454,"ĠOh":9455,"Ġmatches":9456,"rog":9457,"Ġlaser":9458,"Ġseeing":9459,"Ġcrime":9460,"})-":9461,"Ġcorrespondence":9462,"Ġshoot":9463,"Ġchoosing":9464,"icians":9465,"vm":9466,"Ġlived":9467,"ĠMA":9468,"Ġpsych":9469,"eties":9470,"}=(":9471,"Ġdy":9472,"Ġadvance":9473,"Ġ::":9474,"Ġ{{\\":9475,"aration":9476,"isen":9477,"Ġfiber":9478,"RC":9479,"SN":9480,"Ġdetermines":9481,"Red":9482,"oti":9483,"ĠRequ":9484,"ĠExample":9485,"ĠJohnson":9486,"idel":9487,"Ġanalogous":9488,"Ġwel":9489,"Ġdepartment":9490,"Store":9491,"relation":9492,"Ġpartner":9493,"good":9494,"Also":9495,"Vol":9496,"ouds":9497,"Ġdeduce":9498,"coordin":9499,"Ġadmits":9500,"nesday":9501,"Example":9502,"usband":9503,"Ġban":9504,"ittle":9505,"ĠSta":9506,"delete":9507,"ĠProfessor":9508,"pmb":9509,"Ġconsistency":9510,"Ġmaybe":9511,"specific":9512,"Ġaccord":9513,"underset":9514,"utely":9515,"observ":9516,"placement":9517,"ĠWilson":9518,"uls":9519,"ĠRock":9520,"Ġsuffices":9521,"},{\\":9522,"liography":9523,"click":9524,"fg":9525,"Ġrelaxation":9526,"Tab":9527,"Ġphone":9528,"================================":9529,"uesday":9530,"Ġdefense":9531,"isters":9532,"Ġrapidly":9533,"Dr":9534,"Ġnine":9535,"ĠHome":9536,"Pat":9537,"Gr":9538,"ĠImage":9539,"Ġoverlap":9540,"Ġrely":9541,"ĠRichard":9542,"=(\\":9543,"Ġcolors":9544,"ĠBa":9545,"ĠUs":9546,"Ġpion":9547,"Ġfashion":9548,"Ġheter":9549,"three":9550,"Ġmere":9551,"Sing":9552,"Ġlic":9553,"owski":9554,"Ġargue":9555,"supervised":9556,"}}}{":9557,"Vari":9558,"Ġreflection":9559,"Ġstudying":9560,"Ġoutper":9561,"Ġinfrastructure":9562,"tensor":9563,"ĠMonday":9564,"Core":9565,"unnel":9566,"TV":9567,"Session":9568,"ĠEinstein":9569,";->":9570,"dp":9571,"orders":9572,"Ġexcellent":9573,"ideos":9574,"counter":9575,"anner":9576,"ĠIsland":9577,"Ma":9578,"Ġamounts":9579,"Ġguess":9580,"Ġmarginal":9581,"Ġaudience":9582,"send":9583,"given":9584,"Ġ\"\\":9585,"Ġdissip":9586,"series":9587,"ĠParis":9588,"Ġacademic":9589,"Ġrefers":9590,"Ġbiggest":9591,"ĠHT":9592,"ULT":9593,"Ġcalibration":9594,"Acknowledg":9595,"ĠAcademy":9596,"=\"/":9597,"Ġsmart":9598,"ĠRoyal":9599,"words":9600,"igan":9601,"UV":9602,"Vector":9603,"General":9604,"analy":9605,"Ġordering":9606,"Ġroute":9607,"aws":9608,"reement":9609,"Ġmorning":9610,"Ġserves":9611,"eting":9612,"DI":9613,"American":9614,"Ġnative":9615,"iteral":9616,"Ġboson":9617,"Ġprojective":9618,"Ġillustrate":9619,"irms":9620,"Ġformalism":9621,"footer":9622,").}":9623,"Ġfacilit":9624,"aneous":9625,"zy":9626,"Ġlanguages":9627,"}}\\,":9628,"Collection":9629,"Similarly":9630,"Ġpossess":9631,"ĠMartin":9632,"Ġdepart":9633,"ĠLee":9634,"equals":9635,"wp":9636,"inn":9637,"111":9638,"))$.":9639,"Ġisolated":9640,"framework":9641,"Ġcounts":9642,"Ġpractices":9643,"Ġseparately":9644,"finement":9645,"ĠView":9646,"Ġsurrounding":9647,"anish":9648,"Ġsevere":9649,"focus":9650,"life":9651,"reland":9652,"centerline":9653,"Upsilon":9654,"Ġoverride":9655,"Ġreducing":9656,"Ġprocedures":9657,"Ġappreci":9658,"Ġexamine":9659,"Ġbelieved":9660,"factor":9661,"Ġinterpreted":9662,"Ġclaimed":9663,"older":9664,"\\}}":9665,"ĠLorentz":9666,"OK":9667,"ja":9668,"Ġprobe":9669,"Record":9670,"Ġthermod":9671,"ĠSenate":9672,"Ġbits":9673,"Ġpreced":9674,"vertex":9675,"isy":9676,"Ġcommitted":9677,"ĠBre":9678,"Ġglob":9679,"DIR":9680,"Title":9681,"temperature":9682,"Graph":9683,"Ġinsp":9684,"Ġexperiences":9685,"Ġcooling":9686,"Parameters":9687,"inline":9688,"Const":9689,"Ġlogic":9690,"ald":9691,"Ġinfo":9692,")|^":9693,"ubb":9694,"Ġdil":9695,"Ġdetermination":9696,"ĠTaylor":9697,"ĠCorpor":9698,"Ġbatch":9699,"Ġbon":9700,"Ġspeaking":9701,"Ã¼":9702,"consistent":9703,"'>":9704,"Ġpromin":9705,"ĠSupreme":9706,"sn":9707,"Ġworse":9708,"render":9709,"Ġdeformation":9710,"Ġconsequences":9711,"Ġsituations":9712,"Ġteacher":9713,"Ġaveraged":9714,"iced":9715,"Ġinspired":9716,"Ġteaching":9717,"Ġsports":9718,"iser":9719,"ĠOrgan":9720,"ĉčĊ":9721,"Ġsynchron":9722,"alactic":9723,"Ġwild":9724,"uniform":9725,"Ġrecovery":9726,"Ġmarried":9727,"Ġstrings":9728,"gypt":9729,"\"))":9730,"eper":9731,"Ġcolle":9732,"oggle":9733,"iliary":9734,"%;":9735,"Ġinfinity":9736,"Ġportion":9737,"ACT":9738,"lan":9739,"Ġfiled":9740,"imit":9741,"Ġcorrelated":9742,"ĠVirginia":9743,"bind":9744,"Ġ*)":9745,"Ġprojected":9746,"Ġ\\,,":9747,"plex":9748,"Parent":9749,"ĠMexico":9750,"'',":9751,"Ġcopies":9752,"Rad":9753,"sharp":9754,"Ġwire":9755,"neut":9756,"Ġil":9757,"Integer":9758,"Dist":9759,"ĠJacob":9760,"cean":9761,"stone":9762,"Experim":9763,"Ġconjecture":9764,"Ġutility":9765,"Ġnumerically":9766,"entric":9767,"Ġinterference":9768,"+$":9769,"umps":9770,"jet":9771,"ĠTre":9772,"Ġadvert":9773,"Ġfilled":9774,"Ms":9775,"Ġgenerality":9776,"():":9777,"Because":9778,"custom":9779,"Ġdream":9780,"}}}$":9781,"Ġsea":9782,"ĠMedical":9783,"}^{(\\":9784,"plugin":9785,"Gen":9786,"Ġstored":9787,"Template":9788,"Ġneur":9789,"FP":9790,"ctr":9791,"Ġmanip":9792,"Ġupdates":9793,"Ġrevers":9794,"Ġcorner":9795,"Ġtransmit":9796,"noise":9797,"Ġconclusions":9798,"ĠCare":9799,"Ġearth":9800,"ultural":9801,"Iter":9802,"External":9803,"Json":9804,"reds":9805,"Ġperforms":9806,"ĠBack":9807,"\\-":9808,"ĠPers":9809,"cellcolor":9810,"Ġclick":9811,")!":9812,"EEE":9813,"FOR":9814,"Ġsharp":9815,"Ġinduces":9816,"conc":9817,"Ġanalyzed":9818,"seq":9819,"Ġjav":9820,"\\,.":9821,"Ġblow":9822,"$--":9823,"analysis":9824,"Ġblog":9825,"}\\!":9826,"ĠAst":9827,"Ġcycles":9828,"pling":9829,"Ġseek":9830,"was":9831,"130":9832,"respectively":9833,"ĠCall":9834,"ĠSpecial":9835,"Ġaux":9836,"Ġstages":9837,"}\\}$":9838,"Tests":9839,"Ġsell":9840,"Ġfinitely":9841,"antly":9842,"Ġinstitution":9843,"SG":9844,"trim":9845,"address":9846,"Ġtrigger":9847,"lectric":9848,",(":9849,"Ġmyself":9850,"Ġsharing":9851,"ĠOnt":9852,"Ġoccurred":9853,"ĠSE":9854,"'}$":9855,"Ġattend":9856,"ipschitz":9857,"toString":9858,"Ġcook":9859,"iner":9860,"ĠAre":9861,"mathds":9862,"dynamic":9863,"Ġru":9864,"predict":9865,"Ġprepared":9866,"Ġcontainer":9867,"ountain":9868,"estamp":9869,"Ġdelete":9870,"Ġahead":9871,"HR":9872,"orrow":9873,"uable":9874,"Ġpercentage":9875,"Dom":9876,"through":9877,"Ġsegmentation":9878,"idal":9879,"GG":9880,"Ġcoal":9881,"Ġenvironments":9882,"fony":9883,"Ġsurprising":9884,"ANT":9885,"Ġlooked":9886,"Icon":9887,"ordan":9888,"ĠForce":9889,"ulner":9890,"ĠStudies":9891,"}_{(":9892,"ĠJo":9893,"}(-":9894,"Ġrequests":9895,"Comparison":9896,"Ġexcitation":9897,"Ġepisode":9898,"Ġvirt":9899,"Tool":9900,"Ġdiscover":9901,"ĠRight":9902,"ĠMajor":9903,"WA":9904,"ranch":9905,"ĠChief":9906,"Ġwest":9907,"Ġdiverse":9908,"ĠName":9909,"Ġauthorities":9910,"Ġpipeline":9911,"ĠSaturday":9912,"Expression":9913,"*\\":9914,"Ġmathematical":9915,"wa":9916,"teness":9917,"Ġmonot":9918,"Ġproposal":9919,"ĠĠĠĠĠĠĠĠĠĠĠĠĠĠĠĠĠĠĠĠĠĠ":9920,"Impl":9921,"ĠAsia":9922,"auth":9923,"bes":9924,"margin":9925,"Ġsubstantial":9926,"incre":9927,"exports":9928,"Ġpy":9929,"Ġrestrictions":9930,"Ġexpanded":9931,"romise":9932,"orient":9933,"Ġbars":9934,"Ġxml":9935,"Ġhomomorphism":9936,"Ġtells":9937,"Bas":9938,"Ġund":9939,"hd":9940,"cently":9941,"Bound":9942,"}$).":9943,"Ġexposure":9944,"curs":9945,"Que":9946,"aded":9947,"ĠLead":9948,"Ġlimitations":9949,"Ġsemantic":9950,"ĠCentre":9951,"Ġmetallicity":9952,"athe":9953,"1985":9954,"{[":9955,"âĢĺ":9956,"Ġnotes":9957,"ĠSom":9958,"Ġregister":9959,"1984":9960,"Ġproves":9961,"Ġdecade":9962,"inking":9963,"Space":9964,"Ġeye":9965,"ĠPolit":9966,"Ġassociation":9967,"Ġshares":9968,"cloud":9969,"âĢ¦âĢ¦":9970,"Ġantic":9971,"Ġvehicles":9972,"]_{":9973,"ĠSk":9974,"Ġanomal":9975,"ĠBern":9976,"Ġclosure":9977,"Ġgender":9978,"ĠRecall":9979,"\"));":9980,"MI":9981,"ĠOnce":9982,"Ġpotentials":9983,"Ġfaces":9984,"ĠBan":9985,"ĠJul":9986,"Ġequals":9987,"Ġfacility":9988,"Ġbeautiful":9989,"Ġelementary":9990,"ĠLast":9991,"ATH":9992,"inet":9993,"-->":9994,"Ġtriangle":9995,"RT":9996,"rants":9997,"autoref":9998,"')\\":9999,"Ġemot":10000,"ĠCharles":10001,"vv":10002,"Ġtriple":10003,"Ġbrand":10004,"ĠBase":10005,"Ġlosses":10006,"PORT":10007,"Based":10008,"Ġgenerates":10009,"Ġguide":10010,"expl":10011,"Ġadvanced":10012,"Ġcorrectly":10013,"endment":10014,"\\|_{\\":10015,"Ġclinical":10016,"plectic":10017,"Ġproven":10018,"Ġ$-$":10019,"Ġacknowled":10020,"###":10021,"Ġrelativistic":10022,"Initial":10023,"Ġquotient":10024,"Ġreplic":10025,"Ġobst":10026,"KS":10027,"Ġmatters":10028,"Ġsun":10029,"Ġprinciples":10030,"ĠUser":10031,"Ġconcerning":10032,"Ġcircumstances":10033,"Ġbattle":10034,"Cs":10035,"unte":10036,"Ġprices":10037,"ĠClub":10038,",~":10039,"imod":10040,"Ġmm":10041,"Ġren":10042,"NT":10043,"Ġnearby":10044,"ĠĠĠĠĠĠĠĠĠĠĠĠĠĠĠĠĠĠĠĠĠĠĠĠ":10045,"Ġdamage":10046,"Ġhusband":10047,"aby":10048,"Ġcalling":10049,"Ġphenomenon":10050,"Ġranges":10051,"Ġnegligible":10052,"Summary":10053,"atorial":10054,"ĠGrand":10055,"Ġmultip":10056,"ĠEvent":10057,"uries":10058,"Fin":10059,"Ġinstability":10060,"Ġdiversity":10061,"Ġcovers":10062,"upper":10063,"ĠAT":10064,"dz":10065,"Ġacceleration":10066,"ĠCatholic":10067,"ĠError":10068,"Ġ\\#":10069,"Ġdriver":10070,"{%":10071,"cluding":10072,"some":10073,"ĠSpecifically":10074,"ĠCP":10075,"Ġmarkets":10076,"ĠKn":10077,"Ġprem":10078,"112":10079,"ova":10080,"Ġtens":10081,"cludes":10082,"Ġinvoke":10083,"Ġpurely":10084,"Ġclassifier":10085,"'))":10086,"ircraft":10087,"application":10088,"CG":10089,"Ġcouldn":10090,"profile":10091,"latt":10092,"ĠEnt":10093,"eros":10094,"ĠMeV":10095,"leftrightarrow":10096,"Metadata":10097,"Click":10098,"}|^":10099,"ĠCarlo":10100,"Ġsole":10101,"ĠArg":10102,"article":10103,"Ġ),":10104,"ĠBGCOLOR":10105,"CB":10106,"ĠVict":10107,"shell":10108,"(:":10109,"Ġsymmetries":10110,"aux":10111,"Ġviolation":10112,"para":10113,"Ġnan":10114,"satisf":10115,"ounsel":10116,"Ġhousing":10117,"ĠBur":10118,"ĠRemark":10119,"astern":10120,"Ġroles":10121,"ratio":10122,"}}+":10123,"Ġreliable":10124,"Ġunstable":10125,"rf":10126,"Ġlinked":10127,"aterial":10128,"NG":10129,"equival":10130,"kg":10131,"'d":10132,"Ġlegislation":10133,"disc":10134,"Ġrecognized":10135,"ariate":10136,"about":10137,"ĠSil":10138,"Ġdiscovery":10139,"than":10140,"hyper":10141,"Ġintelligence":10142,"(|":10143,"Ġunity":10144,"Device":10145,"coin":10146,"Ġembeddings":10147,"Ġabuse":10148,"Ġannot":10149,"Ġenhanced":10150,"session":10151,"ĠAssembly":10152,"Ġengineering":10153,"Ġpieces":10154,"ĠAssert":10155,"Only":10156,"spaces":10157,"105":10158,"msg":10159,"GET":10160,"degree":10161,"wall":10162,"okes":10163,"Ġcompletion":10164,"Ġcoronavirus":10165,"Ġequipment":10166,"Host":10167,"ĠEst":10168,"Ġcuts":10169,"Has":10170,"ĠBol":10171,"Ġ^{\\":10172,"Ġgone":10173,"Ġarises":10174,"cov":10175,"eld":10176,"istically":10177,"Ġlaunched":10178,"Ġsampled":10179,"ificate":10180,"Ġterrit":10181,"Ġsensor":10182,"ĠTO":10183,"Ġinvariance":10184,"Ġappeal":10185,"Ġdisplayed":10186,"ĠCivil":10187,"stellar":10188,"Ġsep":10189,"export":10190,"Ġreform":10191,"ĠIreland":10192,"protect":10193,"Ġmock":10194,"ĠItaly":10195,"Ġfails":10196,"iki":10197,"ĠHead":10198,".âĢĻ":10199,"ĠRetrieved":10200,"dap":10201,"ĠĠĠĠĠĠĠĠĠĠĠĠĠĠĠĠĠĠĠĠĠĠĠĠĠ":10202,"Decl":10203,"CV":10204,"Ġcaptured":10205,"ĠFamily":10206,"Ġvanishing":10207,"Ġtruly":10208,"Ġdebt":10209,"Ġsignificance":10210,"ĠCy":10211,"STM":10212,"copy":10213,"ĠPage":10214,"coq":10215,"email":10216,"hook":10217,"Ġenabled":10218,"ĠNet":10219,"lr":10220,"Ġdialog":10221,"fast":10222,"ĠJoseph":10223,"vable":10224,"angular":10225,"driv":10226,"ĠThursday":10227,"140":10228,"Si":10229,"larg":10230,"Ġmanaged":10231,"Ġaudio":10232,"Ġneighbors":10233,"={\\":10234,"men":10235,"ĠDue":10236,"ĠWhe":10237,"bro":10238,"ĠWall":10239,"Ġexperts":10240,"onym":10241,"written":10242,"ĠPDF":10243,"Found":10244,"ĠEv":10245,"ĠWednesday":10246,"Ġdisorder":10247,"home":10248,"Ġrev":10249,"ĠNO":10250,"Ġmoder":10251,"ĠKey":10252,"Ġsupposed":10253,"ĠJim":10254,"Ġprogramming":10255,"resolution":10256,"tk":10257,"nel":10258,"}{$\\":10259,"Api":10260,"redit":10261,"Ġhearing":10262,"ĠLo":10263,"ĠCA":10264,"ĠSche":10265,"diam":10266,"Ġcommittee":10267,"Plan":10268,"Ðº":10269,"Ġresponsibility":10270,"Ġcombinations":10271,"Ġvirus":10272,"ĠML":10273,"Ġ\\\\[":10274,"ĠThrough":10275,"Av":10276,"ĠDiff":10277,"Ġbegins":10278,"@{}":10279,"aten":10280,"Ġens":10281,"Ġimaging":10282,"Ġparse":10283,"water":10284,"Ġderivation":10285,"itar":10286,"Ġgun":10287,"Ġwealth":10288,"online":10289,"^-$":10290,"Ġds":10291,"compact":10292,"ERROR":10293,"Ġ$-\\":10294,"ĠUp":10295,"Ġencoder":10296,"ĠAv":10297,"About":10298,"Ġreplacing":10299,"Ġsigns":10300,"Ġice":10301,"Ġsecure":10302,"training":10303,"Ġstuff":10304,"Ġlisten":10305,"ACE":10306,"KL":10307,"store":10308,"Ġmultipl":10309,"legate":10310,"Ġcollective":10311,"Ġfragment":10312,"Ġfan":10313,"Ġcrossing":10314,"polar":10315,"ORD":10316,"ĠTuesday":10317,"Ġfamili":10318,"=\"_":10319,"Pref":10320,"depth":10321,"ĠAction":10322,"Operation":10323,"dependency":10324,"because":10325,"Ġescape":10326,"Ġholding":10327,"oping":10328,"virtual":10329,"Ġcancel":10330,"solid":10331,"ĠResults":10332,"ĠFree":10333,"ĠField":10334,"Ġaccompl":10335,"Values":10336,"orbit":10337,"Ġassessment":10338,"Ġdecide":10339,"pool":10340,"Ġconcepts":10341,"Ġfellow":10342,"ĠJapanese":10343,"Ġgreatest":10344,"Ġtechnologies":10345,")}^":10346,"Schema":10347,"Ġcentered":10348,"Ġapart":10349,"Ġlocalized":10350,"ĠJones":10351,"ĠPenn":10352,"ora":10353,"Ġpersons":10354,"ĠMont":10355,"Ġregional":10356,"Ġholomorphic":10357,"Ġgirl":10358,"Ġ\\}$":10359,"Ġentities":10360,"Ġformulas":10361,"toprule":10362,"Ġdivision":10363,"tered":10364,"ĠEgypt":10365,"Many":10366,"Ġmolecules":10367,"ĠMap":10368,"Ġmovies":10369,"ĠNumber":10370,"ruit":10371,"~~~~~~~~":10372,"ĠCEO":10373,"Ġobservables":10374,"bad":10375,"missible":10376,"ĠPoint":10377,"ĠColor":10378,"fly":10379,"lishing":10380,"ilinear":10381,"expand":10382,"kw":10383,"ima":10384,"pain":10385,"uan":10386,"Argument":10387,"Ġfitted":10388,"ĠColl":10389,"Ġincreasingly":10390,"cluster":10391,"Ġkeys":10392,"Flo":10393,"Ġagencies":10394,"Ġintroducing":10395,"insert":10396,"Ġcapable":10397,"adoop":10398,"Ġdetermining":10399,"Serial":10400,"Ġfre":10401,"ĠGeorg":10402,"Ġinsert":10403,"ĠRam":10404,"ĠJeff":10405,"Ġobservable":10406,"Ġenables":10407,"Ġoscillations":10408,"esh":10409,"frequency":10410,"uris":10411,"Ġencourag":10412,"alian":10413,"ĠValue":10414,"})(":10415,"rapy":10416,"Ġknows":10417,"ouch":10418,"Ġabelian":10419,"Ġplate":10420,"Ġintersect":10421,"ifth":10422,"ĠSto":10423,"ategy":10424,"Ġmiles":10425,"ady":10426,"ĠIV":10427,"optimal":10428,"shall":10429,"amed":10430,"Ġdog":10431,".'":10432,"Ġdeterministic":10433,"agram":10434,"photon":10435,"_{{":10436,"present":10437,"ITY":10438,"War":10439,"Ġera":10440,"Ġtracks":10441,"efficient":10442,"=\"../../../":10443,"Ġmal":10444,"figs":10445,"}}\\\\":10446,"ĠGalactic":10447,"Ġnice":10448,"Ġlab":10449,"Ġtradition":10450,"ĠAustralian":10451,"both":10452,"oston":10453,"Ġcombining":10454,"$=":10455,"Ġfinished":10456,"Ġtorus":10457,"Ġsynthetic":10458,"igital":10459,"ĠCart":10460,"utable":10461,"Ġargued":10462,"ĠLibrary":10463,"ĠFunction":10464,"ĠObserv":10465,"Sol":10466,"rons":10467,"standard":10468,"Ġhydrogen":10469,"uer":10470,"Ġtangent":10471,"cb":10472,"]]":10473,"vance":10474,"ĠTem":10475,"ĠDC":10476,"Ñĥ":10477,"Ġheader":10478,"oute":10479,"Ġspecify":10480,"similar":10481,"jections":10482,"ĠGrant":10483,"Figures":10484,"Ġoutcomes":10485,"Ġforth":10486,"ĠPower":10487,"ĠPak":10488,"Ġpil":10489,"Ġcommission":10490,"handle":10491,"Ġqueries":10492,"ICE":10493,"False":10494,"Ġsuperconduct":10495,"ĠNE":10496,"Ġevident":10497,"Ġdebate":10498,"ĠMel":10499,"SION":10500,"replace":10501,"pin":10502,"Ġtends":10503,"Ġapi":10504,"ĠSpring":10505,"Rule":10506,"Ġfeasible":10507,"________":10508,"isks":10509,"bigskip":10510,"wer":10511,"Ġimposed":10512,"Ġloops":10513,"Ġentered":10514,"Ġsubjects":10515,"ĠCD":10516,"ira":10517,"1960":10518,"^+\\":10519,"ĠEuler":10520,"padding":10521,"sen":10522,"ĠPalest":10523,"Ġassignment":10524,"Ġinher":10525,")\\,\\":10526,"Ġelliptic":10527,"Ġresolve":10528,"Ġsingularity":10529,"Ġdownload":10530,"Ġsan":10531,"ĠDivision":10532,"charge":10533,"Ġhyperbolic":10534,"Ġ\\:":10535,"Ġimaginary":10536,"Ġcha":10537,"Ġmit":10538,"%%":10539,"Ġconsumption":10540,"May":10541,"\\'{":10542,"grade":10543,"Ġfrequently":10544,"1983":10545,"ĠBritain":10546,"iy":10547,"Ġshear":10548,"*{-":10549,"Ġlimiting":10550,"airman":10551,"Ġbinding":10552,"stats":10553,"ĠWhy":10554,"Package":10555,"Ġburst":10556,"Ġclassified":10557,"Ġpermutation":10558,"language":10559,"Ġdegener":10560,"crep":10561,"blockList":10562,"^{[":10563,"setlength":10564,"ĠAdministration":10565,"Ġneighbour":10566,"Ġhelpful":10567,"wrap":10568,"ĠNav":10569,"Ø§":10570,"Posted":10571,"Ġatmosphere":10572,"Invalid":10573,"Ġelected":10574,"Changed":10575,"sys":10576,"Ġbuildings":10577,"ĠAdditionally":10578,"generated":10579,"Ġ['":10580,"ĠSciences":10581,"700":10582,"Classes":10583,"Bs":10584,"ĠAmazon":10585,"Ġradii":10586,"Ġclock":10587,"yd":10588,"Ġbyte":10589,"During":10590,"ruption":10591,"ĠWood":10592,"),(":10593,"Ġfeet":10594,"Helper":10595,"security":10596,"ĠAP":10597,"Ġhelping":10598,"Ġexperienced":10599,"GP":10600,"leading":10601,"Ġtracking":10602,"Ġforecast":10603,"Ġrenew":10604,"Ġadvice":10605,"components":10606,"Ġpresentation":10607,"ĠPan":10608,"ĠTown":10609,"ĠEnvironment":10610,"ĠCho":10611,"Ġcomprehensive":10612,"-{\\":10613,"Ġextensions":10614,"ĠKingdom":10615,"'],":10616,"Ġinequalities":10617,"Ġcohomology":10618,"ician":10619,"keys":10620,"lg":10621,"hskip":10622,"ĠĠĠĠĠĠĠĠĠĠĠĠĠĠĠĠĠĠĠĠĠĠĠĠĠĠĠĠĠĠĠĠĠĠĠĠĠĠĠ":10623,"viously":10624,"Ġchecked":10625,"ificial":10626,"Ġbroadcast":10627,"cceed":10628,"Ġsegments":10629,"renewcommand":10630,"Ġregularization":10631,"Ġcontribut":10632,"amin":10633,"Ġobviously":10634,"Sm":10635,"NC":10636,"Ġship":10637,"aped":10638,"ĠCr":10639,"Ġdivergence":10640,"Ġsubstit":10641,"Ġfractional":10642,"Ġultimately":10643,"corresponding":10644,"Ġglass":10645,"Ġ)$":10646,"nic":10647,"ĠConf":10648,"Ġbond":10649,"ĠTR":10650,"Inv":10651,"Ġjets":10652,"late":10653,"sort":10654,"pset":10655,"Ġequally":10656,"ĠTrust":10657,"Ġregistered":10658,"Ġbrings":10659,"amber":10660,"character":10661,"Pop":10662,"Ġproton":10663,"bibliography":10664,"Names":10665,"taining":10666,"symbol":10667,"BT":10668,"Ġmultiplication":10669,"Ġkinds":10670,"idential":10671,"ĠMur":10672,"calcul":10673,"Ġvulner":10674,"Ġremained":10675,"Ġefficiently":10676,"ĠCarolina":10677,"Ġindustrial":10678,"Ġfilename":10679,"UL":10680,"Ġproportion":10681,"Ġmusical":10682,"basic":10683,"xrightarrow":10684,"Sw":10685,"master":10686,"ĠDev":10687,"ĠNotice":10688,"Ġaid":10689,"Ġfilters":10690,"Ġassistance":10691,"Ġeast":10692,"help":10693,"Ġcod":10694,"ĠAbout":10695,"born":10696,"osophy":10697,">$":10698,"former":10699,"byte":10700,"ipp":10701,"Network":10702,"eqq":10703,"Ġprofession":10704,"$&$":10705,"Ġhomes":10706,"Book":10707,"cost":10708,"=\"\">":10709,"Ġdispl":10710,"spring":10711,"Stack":10712,"Ġobservational":10713,"Ġclassic":10714,"colhead":10715,"Ġdirectory":10716,"orsion":10717,"Ġna":10718,"Ġvariability":10719,"Ġyouth":10720,"Show":10721,"ictures":10722,"mix":10723,"oma":10724,"Ġelastic":10725,"settings":10726,"Ġdotted":10727,"Ġnearest":10728,"Ġassets":10729,"BF":10730,"Ġexercise":10731,")~\\":10732,"Ġdomestic":10733,"Ġattempts":10734,"Ġcontroll":10735,"]_":10736,"102":10737,"[$":10738,"Ġusage":10739,"ĠAnalysis":10740,"momentum":10741,")/\\":10742,"hover":10743,"Ġwhatever":10744,"Following":10745,"gtr":10746,"Ġmob":10747,"nostic":10748,"ĠJoe":10749,"ĠMS":10750,"Ġafford":10751,"Ġresolved":10752,"Ġmu":10753,"np":10754,",.":10755,"Ġsight":10756,"ĠLu":10757,"}}+\\":10758,"Ġwinning":10759,"Ġsuspect":10760,"Lin":10761,"attribute":10762,"1982":10763,"itan":10764,"icker":10765,"events":10766,"Ġbodies":10767,"Ġentertain":10768,"Ġmesh":10769,"Will":10770,"Ġaddressed":10771,"'(\\":10772,"ospit":10773,"Ġprompt":10774,"Ġregulations":10775,"aland":10776,"Ax":10777,"VD":10778,"Err":10779,"Ġparametriz":10780,"Ġfermions":10781,"frag":10782,"isons":10783,"htbp":10784,"Ġabsolutely":10785,"acific":10786,"Ġmarriage":10787,"ĠNewton":10788,"aming":10789,"ĠHom":10790,"boolean":10791,"Ġcollaboration":10792,"Ġaims":10793,"yes":10794,"Ġrefere":10795,"ĠLord":10796,"sig":10797,"Ġtopics":10798,"):=\\":10799,"ĠConsequently":10800,"vc":10801,"ĠOntario":10802,"ioned":10803,"brane":10804,"Ġreaches":10805,"ĠDesign":10806,"Ġadversarial":10807,"Ġapproved":10808,"Mock":10809,"riers":10810,"sun":10811,"Ġvice":10812,"Ġvideos":10813,"rig":10814,"conj":10815,"Indeed":10816,"Ġreceiving":10817,"smooth":10818,"ĠStart":10819,"feature":10820,"Ġdeploy":10821,"plements":10822,"distance":10823,"115":10824,"Ġpayment":10825,"Ġdifficulty":10826,">.":10827,"ĠPlay":10828,"PAR":10829,"important":10830,"Lo":10831,"oned":10832,"Ġdeveloper":10833,"Ġboy":10834,"}{$":10835,"rer":10836,"ĠFollowing":10837,"+|":10838,";/":10839,"Ġspl":10840,"Ġqubit":10841,"iab":10842,"Ġconsec":10843,"likely":10844,"ĠHTML":10845,"scription":10846,"tot":10847,"\">&":10848,"Ġ('":10849,"ĠExecutive":10850,"Ġremote":10851,"Ġproducing":10852,"Ġpublication":10853,"ĠSpanish":10854,"Ġfounded":10855,"EV":10856,"UP":10857,"Conf":10858,"Ġmodify":10859,"Ġindependence":10860,"Ġfamiliar":10861,"burst":10862,"itud":10863,"ĠKorea":10864,"}}^{(":10865,"Ġdoor":10866,"Ġensures":10867,"Ġ'/":10868,"sens":10869,"velope":10870,"uu":10871,"umes":10872,"Ġpoll":10873,"stop":10874,"(*":10875,"ĠFact":10876,"JECT":10877,"Ġmixture":10878,"Ġactor":10879,"rivacy":10880,"Ġ\\|_{":10881,"ĠDep":10882,"Mc":10883,"folio":10884,"Ġdiscrimin":10885,"Ġaccordance":10886,"plugins":10887,"Ġallocation":10888,")<":10889,"/.":10890,"Ġburn":10891,"ĠCS":10892,"Ġdepicted":10893,"Ġappearing":10894,"Cre":10895,"*{\\":10896,"ĠTer":10897,"Ġmale":10898,"ĠDat":10899,"Ġerg":10900,"Ġhundreds":10901,"Ġseed":10902,"})}\\":10903,"Ġspend":10904,"URE":10905,"Ġresponses":10906,"Ġsucceed":10907,"Ġexplains":10908,"lined":10909,"ĠLabor":10910,"Boolean":10911,"ĠText":10912,"may":10913,"Ġemployment":10914,"Ġcavity":10915,"Ġrid":10916,"cmd":10917,"}$$":10918,"napshot":10919,"Del":10920,"ĠRay":10921,"ĠLike":10922,"ancer":10923,"Ġfusion":10924,"Ġclouds":10925,"Ġvast":10926,"ala":10927,"Ac":10928,"Ġannih":10929,"Full":10930,"}.$":10931,"Ġbins":10932,"BN":10933,"itian":10934,"foo":10935,"Ġtotally":10936,"Ġvanish":10937,"ensed":10938,"ĠURL":10939,"Ġcorporate":10940,"choose":10941,"Cho":10942,"Most":10943,"Ġmoduli":10944,"Ã¶":10945,"trained":10946,"&+":10947,"Ġshut":10948,"isition":10949,"Match":10950,"Ġdealing":10951,"inton":10952,"Ġnegoti":10953,"screen":10954,"imb":10955,"mic":10956,"bottomrule":10957,">();":10958,"Ġos":10959,"]{./":10960,"Ġproofs":10961,"processing":10962,"allet":10963,"track":10964,"Ġautomorphism":10965,"disabled":10966,"Ġoutflow":10967,"EP":10968,"}]$":10969,"ĠMulti":10970,"Ġalignment":10971,"Ġstreet":10972,"selected":10973,"edit":10974,"ĠOrder":10975,"ĠStr":10976,"ĠLake":10977,"Ġeffectiveness":10978,"ĠLiber":10979,"iers":10980,"ĠBased":10981,"hadoop":10982,"move":10983,"Ġarms":10984,"Ġeyes":10985,"lers":10986,"ĠStandard":10987,"Ġreligion":10988,"Delete":10989,"Ġconverge":10990,"Xml":10991,"ĠAN":10992,"lements":10993,"Ġanimals":10994,"Ġachieves":10995,"Rest":10996,"Ġserving":10997,"ĠPop":10998,"Ġanalyses":10999,"ĠNY":11000,"Ġaren":11001,"Ġdeli":11002,"Ġlaunch":11003,"Ġpose":11004,"Ġexpensive":11005,"etary":11006,"abet":11007,"^{{\\":11008,"ĠRo":11009,"IME":11010,"ĠSC":11011,"}_+":11012,"ategories":11013,"âĢ¢":11014,"Ġinsurance":11015,"Ġadmit":11016,"Ġdiameter":11017,"uned":11018,"Ġongoing":11019,"lee":11020,"Ġrender":11021,"ailed":11022,"Ġlegisl":11023,"ĠMaster":11024,"Policy":11025,"1981":11026,"orters":11027,"Ġbytes":11028,"inson":11029,"ĠAD":11030,"ĠControl":11031,"`.":11032,"Ġurban":11033,"Ġprovisions":11034,"Byte":11035,"ĠMach":11036,"Ġconservative":11037,"Ġobtaining":11038,"Ġdisappe":11039,"Ġprovision":11040,"textstyle":11041,"rance":11042,"}]\\":11043,"ĠConstitution":11044,"Ġrevenue":11045,"Ġreaders":11046,"Ġreverse":11047,"Ġcontinuity":11048,"Ġauxiliary":11049,"mock":11050,"FIG":11051,"ĠJesus":11052,"Custom":11053,"transition":11054,"Est":11055,"ĠOld":11056,"rev":11057,"Ġlocalization":11058,"Ġinsight":11059,"Ġplanets":11060,"ordered":11061,"},\\\\":11062,"TA":11063,"raisebox":11064,"deriv":11065,"Ġcomputations":11066,"Ġfluxes":11067,"alaxy":11068,"quality":11069,"riction":11070,"manifold":11071,"Ġbandwidth":11072,"onto":11073,"]:":11074,"items":11075,"Ġtheme":11076,"Ġhardware":11077,"Ġfewer":11078,"Ġspring":11079,"Ġperman":11080,"maxim":11081,"Support":11082,"ĠPA":11083,"Ġfeeling":11084,"~{\\":11085,"Ġletters":11086,"ĠColumb":11087,"BD":11088,"Ġdiagn":11089,"Ġtransformed":11090,"configuration":11091,"Ġsummarized":11092,"Ġstret":11093,"}\"":11094,"Ġinteracting":11095,"utor":11096,"Ġexplored":11097,"Handle":11098,"Ġdoubt":11099,"ĠHot":11100,"Ġeducational":11101,"Ġtrig":11102,"ĠBell":11103,"Ġ\\,.":11104,"Den":11105,"biggl":11106,"ĠInitial":11107,"ariants":11108,"compare":11109,"Term":11110,"pf":11111,"Ġhomotopy":11112,"ressive":11113,"_{(\\":11114,"ASA":11115,"razil":11116,"Ġlicense":11117,"gtrsim":11118,"Ġshifts":11119,"Ptr":11120,"Ġsale":11121,"Ġdict":11122,"bigoplus":11123,"ĠSNR":11124,"Ġduality":11125,"Ġfer":11126,"uchy":11127,"Ġbid":11128,"yy":11129,"Ġfresh":11130,"isc":11131,"ĠLove":11132,"Ġcenters":11133,"Ġcounty":11134,"Ġregarded":11135,"GO":11136,"Conclusion":11137,"cam":11138,"Ġignore":11139,"Ġmanifolds":11140,"holds":11141,"Ġunable":11142,"IX":11143,"tach":11144,"ĠBayesian":11145,"convex":11146,"liminary":11147,"Args":11148,"ois":11149,"Ġwww":11150,"arden":11151,"ĠNevertheless":11152,"Ġourselves":11153,"encing":11154,"Ġcombine":11155,"Rect":11156,"quantum":11157,"iro":11158,"Draw":11159,"ipe":11160,"1979":11161,"eah":11162,"Storage":11163,"Ġmodification":11164,"itatively":11165,"ĠAccess":11166,"bell":11167,"Ġposit":11168,"Ġimprovements":11169,"gov":11170,"Notice":11171,"Ġgeodesic":11172,"orough":11173,"ĠHenry":11174,"associ":11175,";<":11176,"asi":11177,"Even":11178,"makebox":11179,"----------------------------------------------------------------":11180,"Ġequipped":11181,"}}-":11182,"Ġ<=":11183,"Ġ++":11184,"Ġfloor":11185,"mages":11186,"fd":11187,"=$":11188,"widget":11189,"-$\\":11190,"kens":11191,"ĠFre":11192,"Ġaccessible":11193,"Ġrequiring":11194,"aren":11195,"biggr":11196,"Ġwaiting":11197,"ti":11198,"Ġbrightness":11199,"Active":11200,"ĠkeV":11201,"record":11202,"Ġreviews":11203,"ulatory":11204,"ban":11205,"Ġconsumer":11206,"Ġaccum":11207,"Ġopposed":11208,"ĠRepublican":11209,"NOT":11210,"ĠMean":11211,"resizebox":11212,"Ġretrie":11213,"Ġdelivery":11214,"EXT":11215,"Ġpromote":11216,"Ġce":11217,"Ġaircraft":11218,"Ġprofessor":11219,"ĠCross":11220,"kov":11221,"Ġcontradict":11222,"',\\":11223,"Ġnewly":11224,"Body":11225,"Ident":11226,"Ġsequential":11227,"ĠValley":11228,"Ġemergency":11229,")))":11230,"}}}{\\":11231,"pdown":11232,"Ġtab":11233,"Ġgiant":11234,"ĠPolice":11235,"LM":11236,"ARY":11237,"ĠDO":11238,"bibliographystyle":11239,"\")]":11240,"Ġcla":11241,"PRE":11242,"Ġrestaur":11243,"Ġguarantees":11244,"Ġment":11245,"Ġjudge":11246,"NP":11247,"ĠWho":11248,"ERS":11249,"solution":11250,"Ġsquares":11251,"Ġchains":11252,"Syn":11253,"direction":11254,"[{\\":11255,"ĠWilliams":11256,"Ġcustomer":11257,"Ġamaz":11258,"exact":11259,"ĠBoston":11260,"Reader":11261,"rovers":11262,"ĠGame":11263,"ĠCup":11264,"Ġcoast":11265,"omet":11266,"Ġultra":11267,"Ġelectromagnetic":11268,"ĠSupport":11269,"Once":11270,"Cap":11271,"ĠJSON":11272,"Author":11273,"Doc":11274,"gers":11275,"Ġsatellite":11276,"stage":11277,"Ġseemed":11278,"}^{*":11279,"FM":11280,"ĠIO":11281,"104":11282,"Ġvaluable":11283,"veloc":11284,"thin":11285,"Loc":11286,"admin":11287,"Every":11288,"Root":11289,"ĠZealand":11290,"CTION":11291,"Ġade":11292,"diagram":11293,"Ġlists":11294,"Ġdraft":11295,"Thm":11296,"vectors":11297,"Ġarising":11298,"}$),":11299,"ĠBefore":11300,"Ġquarks":11301,"Parser":11302,"webkit":11303,"Ġnarr":11304,"Ġimper":11305,"ĠCur":11306,"Ã¤":11307,"Ġminimize":11308,"Ġknot":11309,"FE":11310,"NRAS":11311,"Comput":11312,"oulomb":11313,"UID":11314,"induced":11315,"Ġimproving":11316,"ĠProcess":11317,"Ġtermin":11318,"critical":11319,"ĠSyn":11320,"bg":11321,"TM":11322,"Ġmand":11323,"Ġmonitoring":11324,"pet":11325,"sa":11326,"tics":11327,"ĠWhere":11328,"Ġconvention":11329,"Ġrisks":11330,").$$":11331,"Ġscan":11332,"ĠTerm":11333,"itter":11334,"Ġregardless":11335,"Ġlifetime":11336,"news":11337,"ĠSign":11338,"Ġisotropic":11339,"horizontal":11340,"Ġwouldn":11341,"heres":11342,"Ġresid":11343,"ican":11344,"Ġrevolution":11345,"elastic":11346,"Ġexpanding":11347,"Ġconversion":11348,"duction":11349,"ĠCamp":11350,"Ġimplications":11351,"ATA":11352,"Ġcommitment":11353,"Ġweather":11354,"eman":11355,"ĠMinistry":11356,"Ġwilling":11357,"Ġconverg":11358,"AU":11359,"ĠPR":11360,"Ġdir":11361,"oral":11362,"lets":11363,"Ġprominent":11364,"Ġphenomena":11365,"ĠDemocratic":11366,"Ġdebut":11367,"relax":11368,"350":11369,"ĠFlo":11370,"}}_\\":11371,"Ġsin":11372,"Ġsn":11373,"central":11374,"Ġpreserve":11375,"volume":11376,"Ġqueue":11377,"quote":11378,"ourn":11379,"Ġactivation":11380,"Bytes":11381,"Ġdefe":11382,"primary":11383,"Ġlengths":11384,"iences":11385,"Ġgrew":11386,"Ġcash":11387,"Ġpatch":11388,"Why":11389,"Ġfairly":11390,"($\\":11391,"Ġdiscrep":11392,"Dav":11393,"Ġformally":11394,"udd":11395,"trace":11396,"ĠHon":11397,"Ġdeaths":11398,"Ġheating":11399,"Ġhumans":11400,"Ġcubic":11401,"Ġspending":11402,"Ġprohib":11403,"mentioned":11404,"game":11405,"Ġpole":11406,"ĠToday":11407,"ĠDesc":11408,"Ġidentifying":11409,"Ġreporting":11410,"Ġmig":11411,"making":11412,"Ġrail":11413,"ĠConn":11414,"Comb":11415,"Ġdipole":11416,"Mo":11417,"driven":11418,"ĠMedicine":11419,"Ġoffering":11420,"ĠĠĠĠĠĊ":11421,"Ġslowly":11422,"install":11423,"Fields":11424,"Ġrein":11425,"Ġphotometric":11426,"|-":11427,"Ġconstitution":11428,"]}\\":11429,"Comment":11430,"Ġcrystal":11431,"ema":11432,"Assert":11433,"Ġexplos":11434,"rv":11435,"Where":11436,"gi":11437,"Ġflight":11438,"Ġhero":11439,"|{\\":11440,"END":11441,"aware":11442,"otes":11443,"gery":11444,"Ġalleged":11445,"ruck":11446,"ULE":11447,"Ġsurveys":11448,"Ġcreates":11449,"ĠCL":11450,"ped":11451,"Ã§":11452,"orous":11453,"Ġpenalty":11454,"abric":11455,"Ġquadr":11456,"Ġrealize":11457,"ĠOly":11458,"ĠSP":11459,"ĠChristmas":11460,"ĠHa":11461,"ĠGW":11462,"DBLP":11463,"ĠBra":11464,"Ġisland":11465,"Ġintu":11466,"ĠOrig":11467,"Ġjson":11468,"Ġparad":11469,"Param":11470,"Ġprosec":11471,"coloneqq":11472,"versely":11473,"Ġvariant":11474,"Ġparam":11475,"Ġpun":11476,"Ben":11477,"fail":11478,"Ġexponentially":11479,"continuous":11480,"plementation":11481,"Ġvoltage":11482,"ĠWater":11483,"ĠConference":11484,"dapter":11485,"mac":11486,"Ġhierarchy":11487,"ĠMain":11488,"Ġarrive":11489,"Ġbarrier":11490,"Ġmillions":11491,"hentication":11492,"aton":11493,"108":11494,"istant":11495,"Ġpurchase":11496,"Ġyourself":11497,"ĠCommon":11498,"annotation":11499,"igate":11500,"Ġmechanical":11501,"ĠVan":11502,"ĠProv":11503,"Ġmanifest":11504,"account":11505,"Ġgather":11506,"ĠDonald":11507,"matics":11508,"Ġmarketing":11509,"Ġscientists":11510,"ellect":11511,"icks":11512,"Don":11513,"Ġdisks":11514,"103":11515,"ader":11516,"ĠLearning":11517,"Global":11518,"htb":11519,"Ġhab":11520,"Spe":11521,"Ġscholar":11522,"Ġparity":11523,"ivariate":11524,"rames":11525,"}})\\":11526,"cket":11527,"sb":11528,"iversal":11529,"GD":11530,"Dialog":11531,")~":11532,"'-":11533,"external":11534,"rapol":11535,"Ġbutton":11536,"sumer":11537,"Ġlose":11538,"Ġdrugs":11539,"names":11540,"uality":11541,"itudinal":11542,"Ġinstalled":11543,"pix":11544,"Ġcounting":11545,"quark":11546,"Ġattached":11547,"Ġenforcement":11548,"MOD":11549,"Ġloved":11550,"Ġnoting":11551,"%)":11552,"Ġvolunte":11553,"Ġextraction":11554,"wan":11555,"Ġcutoff":11556,"Ġtroub":11557,"%,":11558,"Ġserial":11559,"ushed":11560,"ctrine":11561,"ĠImm":11562,"Ġoperate":11563,"ĠSl":11564,"ĠFort":11565,"thread":11566,"Ġpassion":11567,"512":11568,"pture":11569,"ĠTH":11570,"imated":11571,"plete":11572,"Ġchose":11573,"ĠRa":11574,"ĠHand":11575,"000000":11576,"Ġmeasuring":11577,"Ġprovider":11578,"scious":11579,"FAULT":11580,"Ġexploration":11581,"................................":11582,"KEY":11583,"ymmetric":11584,"Ġhundred":11585,"Debug":11586,"icip":11587,"qq":11588,"harm":11589,"composition":11590,"holders":11591,"ĠCirc":11592,"Ġram":11593,"Ġincred":11594,"closure":11595,"orship":11596,"emporary":11597,"Ġcompr":11598,"Ġvaries":11599,"Ġjourney":11600,"Ġcreative":11601,"Supp":11602,"cv":11603,"Ġvariational":11604,"positive":11605,"__(":11606,"Ġadapted":11607,"weet":11608,"ĠVictor":11609,"ĠCher":11610,"ango":11611,"izers":11612,"=}":11613,"ĠCast":11614,"iary":11615,"Ġaccurately":11616,"half":11617,"ĠGl":11618,"varpi":11619,"?:":11620,"ĠUpdate":11621,"arding":11622,"Ġcommunications":11623,"missions":11624,"Ġinvalid":11625,"Ġremoving":11626,"Ġtrip":11627,"Symfony":11628,"Jo":11629,"Ġrelies":11630,"certain":11631,"Ġtunnel":11632,"Channel":11633,"Stud":11634,"ï¼":11635,"optim":11636,"Ġmirror":11637,"}$:":11638,"Ġgranted":11639,"Ġarrival":11640,"mond":11641,"ĠSouthern":11642,"overty":11643,"Ġmotivated":11644,"ĠFrancisco":11645,"Ġtransactions":11646,"Ġconsole":11647,"Ġcomfort":11648,"Ġgradients":11649,"^*(\\":11650,"Ġconnecting":11651,"Ġsac":11652,"ĠDefine":11653,"ĠSI":11654,"ĠDefense":11655,"Ġperformances":11656,"ĠAI":11657,"Ġexport":11658,"Ġspins":11659,"toggle":11660,"^{*}":11661,"Ġputting":11662,"phy":11663,"Ġunsigned":11664,"Ġapproximations":11665,"Ġthereby":11666,"Ġestate":11667,"pq":11668,"roke":11669,"Ġinfer":11670,"omatic":11671,"ETH":11672,"colog":11673,"Ġreproduce":11674,"Ġbelief":11675,"Ġarbitr":11676,"Ġcommutative":11677,"these":11678,"levant":11679,"ĠĠĠĠĠĠĠĠĠĠĠĠĠĠĠĠĠĠĠĠĠĠĠĠĠĠ":11680,"txt":11681,"dden":11682,"best":11683,"Ð¼":11684,"pattern":11685,"Total":11686,"Ġfuel":11687,"Ġmomenta":11688,"ador":11689,"Ġdescript":11690,"ailability":11691,"eron":11692,"posing":11693,"360":11694,"Br":11695,"enger":11696,"Ġmerger":11697,"Ġstim":11698,"ĠReal":11699,"ĠBlue":11700,"SET":11701,"Ġreveals":11702,"Ġdefinitely":11703,"Ġlogarithmic":11704,"callback":11705,"}.$$":11706,"Enabled":11707,"ĠSource":11708,"Ġcontrary":11709,"Ġtack":11710,"ĠNa":11711,"lementary":11712,"ĠĠĠĠĠĠĠĊ":11713,"Display":11714,"abolic":11715,"iar":11716,"eed":11717,"href":11718,"Ġphon":11719,"Ġuniquely":11720,"Ġcars":11721,"Ġjavax":11722,"ĠJackson":11723,"oids":11724,"Ġcoincides":11725,"Ġemployee":11726,"athan":11727,"kk":11728,"}{!":11729,"Ġrigid":11730,"Ġneutrinos":11731,"undles":11732,"ĠAndrew":11733,"Ġappointed":11734,"$}\\":11735,"Ġmanage":11736,"High":11737,"Ġii":11738,"Ġbare":11739,"Ġdamp":11740,"ĠFour":11741,"Ġsymplectic":11742,"Ġeverywhere":11743,"Ġcompression":11744,"]^{\\":11745,"135":11746,"Ġstanding":11747,"Ġconsiders":11748,"Ġshapes":11749,"ĠBS":11750,"Ġrelating":11751,"_;":11752,"Ġconversation":11753,"Ġcolon":11754,"Ġsched":11755,"mad":11756,"Ġdegenerate":11757,"}}^\\":11758,"Ġnamespace":11759,"orel":11760,"Ġadds":11761,"Ġconsecutive":11762,"Ġcomposite":11763,"Ġpreferred":11764,"Ġtrends":11765,"Ġprefer":11766,"Ġasymptotically":11767,"Ġbridge":11768,"Ġpriority":11769,"asket":11770,"Ġadequ":11771,"106":11772,"coll":11773,"acknowled":11774,"MNRAS":11775,"Ġnuclei":11776,"Obj":11777,"ansas":11778,"Ġcyclic":11779,"fp":11780,"nc":11781,"Feature":11782,"Ġscaled":11783,"ĠProof":11784,"Ġassociate":11785,"qed":11786,"duate":11787,"Ġgovernments":11788,"ĠBiden":11789,"edef":11790,"Ġreceiver":11791,"Ġfault":11792,"Ġacquired":11793,"anchor":11794,"Ġseeking":11795,"Ġmuseum":11796,"ycle":11797,"Ġfocuses":11798,"`,":11799,"compat":11800,"scalebox":11801,"ĠUniverse":11802,"Ġverified":11803,"ĠRepresent":11804,"cycle":11805,"Ste":11806,"ĠStan":11807,"eto":11808,"Ġaffects":11809,"Ġconjugate":11810,"Tags":11811,"Ġfinish":11812,"Ġpump":11813,"Ġbringing":11814,"^*}":11815,"ĠFar":11816,"Ġwood":11817,"Ġunf":11818,"Matrix":11819,"Ġcas":11820,"uated":11821,"Ġrating":11822,"Ġicon":11823,"ivered":11824,"çļ":11825,"Ġconverted":11826,"Ġdetectors":11827,"contains":11828,"iana":11829,"ĠÂ·":11830,"Ġincl":11831,"ĠEnter":11832,"Ġgoods":11833,"fall":11834,"Ġnavigation":11835,"warz":11836,"Ġschedule":11837,"Grid":11838,"Ġancient":11839,"commun":11840,"ĠLab":11841,"}{*}{$":11842,"algorithmic":11843,"ĠFalse":11844,"nl":11845,"ĠYes":11846,")}=\\":11847,"Ġreflected":11848,"bour":11849,"Ġexhibits":11850,"Such":11851,"alog":11852,"''.":11853,"Ġannounce":11854,"Ġconcrete":11855,"ĠDR":11856,"fc":11857,"ĠDespite":11858,"exception":11859,"Ġoverview":11860,"=&":11861,"hedral":11862,"ĠMu":11863,"Ġfavorite":11864,"ĠFestival":11865,"çļĦ":11866,"Ġasymmetry":11867,"Ġmechanics":11868,"Ġweapons":11869,"Ġplanned":11870,"Ġmutual":11871,"ĠJordan":11872,"ĠThose":11873,"Ġminister":11874,"Orig":11875,"Kind":11876,"tip":11877,"rats":11878,"ĠSpain":11879,"unique":11880,"comparison":11881,"essel":11882,"surface":11883,"Product":11884,"},$":11885,"Ġrecording":11886,"ancel":11887,"GAN":11888,"+}":11889,"Ġresulted":11890,"Ġextinction":11891,"opping":11892,"boundary":11893,"adel":11894,"ito":11895,"lywood":11896,"apped":11897,"odge":11898,"Ġshifted":11899,"Mag":11900,"sql":11901,"plates":11902,"Ġbigger":11903,"Through":11904,"ĠSand":11905,"gravity":11906,"thlet":11907,"abilistic":11908,"Send":11909,"Ġsingularities":11910,"gon":11911,"Ġanticip":11912,"1978":11913,"\\\\\\":11914,"TF":11915,"Ġsuppressed":11916,"onom":11917,"HH":11918,"engine":11919,"ayer":11920,"ĠItalian":11921,"cosh":11922,"Ġmel":11923,"Ġquantitative":11924,"ODO":11925,"Ġfis":11926,"ĠArticle":11927,"107":11928,"Ġsending":11929,"ĠEngineering":11930,"ĠFuture":11931,"essions":11932,"Ġobserving":11933,"Ġcompetitive":11934,"into":11935,"uby":11936,"Ġaddresses":11937,"Ġgrows":11938,"lst":11939,"sinh":11940,"Build":11941,"ĠLatin":11942,"})^{-":11943,"Ġsimplified":11944,"Ġadaptive":11945,"Ġbranches":11946,"Ġrepeat":11947,"ourse":11948,"repre":11949,"ello":11950,"Extension":11951,"Ġcumul":11952,"ĠAgency":11953,"vard":11954,"ĠPakistan":11955,"ĠBow":11956,"ĠIndex":11957,"switch":11958,"Ġcompletes":11959,"addr":11960,"leton":11961,"Ġending":11962,"Ġpacket":11963,"wait":11964,"1977":11965,"lattice":11966,"correlation":11967,"cosity":11968,"hn":11969,"Ġintent":11970,"ĠIndust":11971,"Symbol":11972,"Ġdeviations":11973,"friend":11974,"MAX":11975,"ela":11976,"controller":11977,"Ġsees":11978,"curve":11979,"Ġtranslate":11980,"Ġprefix":11981,"enth":11982,"Ġdisci":11983,"dynamics":11984,"Ġhonest":11985,"ĠWat":11986,"tp":11987,"maps":11988,"Perm":11989,"ĠDir":11990,"Items":11991,",}":11992,"Ġbtn":11993,"Ġrefuge":11994,"Ġsectors":11995,"|}{\\":11996,"role":11997,"'}(":11998,"Ġinser":11999,"rn":12000,"profit":12001,"Sur":12002,"ologically":12003,"Ġimpose":12004,"ĠNN":12005,"Ġrectangle":12006,"Ġvalidity":12007,"uber":12008,"Ġcart":12009,"Ġassembly":12010,"Jan":12011,"Ġreact":12012,"Ġking":12013,"Ġradiative":12014,"ĠOk":12015,"Ġtables":12016,"Ġexit":12017,"front":12018,"grounds":12019,"ĠChildren":12020,"OO":12021,"ĠHerm":12022,"gradient":12023,"Ġrecognize":12024,"Ġ)\\":12025,")},\\":12026,"Ġdescent":12027,"{|\\":12028,"Ġsudden":12029,"ĠProperty":12030,"127":12031,"Ġopacity":12032,"pson":12033,"ĠMot":12034,"ĠDown":12035,"ĠHop":12036,"$^{\\":12037,"hig":12038,"Ġwalls":12039,"fluid":12040,"Ġremarkable":12041,"Gaussian":12042,"Ġwallet":12043,"flux":12044,"Ġlayout":12045,"reprene":12046,"Ġresistance":12047,"005":12048,"inks":12049,"isms":12050,"Ġoriented":12051,"cha":12052,"Ġguitar":12053,"Ġdisput":12054,"eh":12055,"lapse":12056,"ĠJon":12057,"Ġmodeled":12058,").$":12059,"Ġkill":12060,"SW":12061,"ĠFilm":12062,"Ġadjoint":12063,"ĠFigs":12064,"IEEE":12065,"ĠCamb":12066,"}):":12067,";}":12068,"):=":12069,"ĠChampions":12070,"nil":12071,"VERSION":12072,"ĠMichigan":12073,"Ġexcluded":12074,"Copy":12075,"Ġveter":12076,"======":12077,"Ġsoc":12078,"ĠRic":12079,"oser":12080,"Ġdependencies":12081,"phia":12082,"Ġguy":12083,"ĠYet":12084,"Ġapproximated":12085,"jquery":12086,"Ġcle":12087,"}}}}":12088,"Ġsuit":12089,"Ġmodular":12090,")$$":12091,"ĠScot":12092,"Ġteachers":12093,"ĠLipschitz":12094,"Ġawarded":12095,"\\\"{":12096,"othe":12097,"Ð²":12098,"Ġack":12099,"Ġ$\\|\\":12100,"ĠEmp":12101,"ĠTeV":12102,"ĠLook":12103,"attered":12104,"Ġarrived":12105,"gered":12106,"ĠWithout":12107,"Ġles":12108,"Ġcausal":12109,"iso":12110,"ĠWindow":12111,"save":12112,"they":12113,"ea":12114,"Ġobserver":12115,"ĠSar":12116,"Ġforming":12117,"Ġemer":12118,"Mac":12119,"Ġowned":12120,"Ġprospect":12121,"original":12122,"Ġsubgraph":12123,"Ġmort":12124,"})}{":12125,"Ġreaching":12126,"uscript":12127,"Ġnontrivial":12128,"ĠSupp":12129,"ikip":12130,"ati":12131,"}=-":12132,"wang":12133,"Ġequivalently":12134,"vy":12135,"1976":12136,"Ġcoach":12137,"ROM":12138,"Ġrobustness":12139,"children":12140,"ĠGreek":12141,"urer":12142,"Ġjuris":12143,"=\"\"":12144,"adic":12145,"ateral":12146,"ĠFR":12147,"ĠCopyright":12148,"ceq":12149,"ĠNations":12150,"Ġgreatly":12151,"craft":12152,"Ġpray":12153,"Ġmurder":12154,"Transaction":12155,"ella":12156,"Ġfort":12157,"Ġgrate":12158,"Ġhospit":12159,"Both":12160,"]\\\\":12161,"Ġduty":12162,"oster":12163,"Ġearned":12164,"argument":12165,"Ġdollars":12166,"ĠPrime":12167,"ĠCorporation":12168,"tsd":12169,"due":12170,"Ġpromising":12171,"Media":12172,"Seg":12173,"commut":12174,"Ġcharacterization":12175,"Ġfighting":12176,"Ġ(*":12177,"ĠSoft":12178,"Ġposted":12179,"Ġstrategic":12180,"hist":12181,"Ġagric":12182,"beq":12183,"Just":12184,"+{\\":12185,"Ġshorter":12186,"Ġcompliance":12187,"Ġobtains":12188,"umann":12189,"ĠHor":12190,"Ġsums":12191,"Ġregularity":12192,"Ġimplements":12193,"Ġnoisy":12194,"antum":12195,"Ġdemonstrates":12196,"ograp":12197,"Literal":12198,"Ġthickness":12199,"Ġvillage":12200,"ĠHospital":12201,"Med":12202,"hou":12203,"proj":12204,"Ġstrain":12205,"ĠBrazil":12206,"Ġimproves":12207,"Ġelections":12208,"ĠAwards":12209,"MENT":12210,"114":12211,"Queue":12212,"Ġgirls":12213,"Ġdoctor":12214,"Ġclip":12215,"tm":12216,"ĠCas":12217,"Ġdb":12218,"four":12219,"Ġdestination":12220,"ĠAmong":12221,"iration":12222,"ĠAud":12223,"without":12224,"Ġhtml":12225,"upload":12226,"Ġignored":12227,"vania":12228,"ĠSF":12229,"}$~":12230,"Ñı":12231,"Ġaccommod":12232,"Ġcampus":12233,"Ġqubits":12234,"Further":12235,"Ġflavor":12236,"Ġmerely":12237,"Ġdecoder":12238,"Ġanomaly":12239,"Details":12240,"Ġidentities":12241,"Ġrotational":12242,"Ġovercome":12243,"homogeneous":12244,"Ġproud":12245,"lab":12246,"Ġedition":12247,"Ġcontrovers":12248,"ali":12249,"=[":12250,"gar":12251,"try":12252,"iabatic":12253,"Ġpointer":12254,"ego":12255,"Ġgraded":12256,"Category":12257,"acknowledg":12258,"Ġexpectations":12259,"report":12260,"Ġproving":12261,"Ġconvolutional":12262,"ById":12263,"ikipedia":12264,"ĠJr":12265,"information":12266,"Cam":12267,"Ġscenes":12268,"Ġvaccine":12269,"Ġinduct":12270,"coordinate":12271,"{-}":12272,"Ġopposition":12273,"ĠAS":12274,"Ġaccident":12275,"Ġvictims":12276,"Ġmic":12277,"Ġdeclared":12278,"Ġrecovered":12279,"Ġmeaningful":12280,"abeth":12281,"Ġunlike":12282,"Ġepochs":12283,"underbrace":12284,"ĠassertEquals":12285,"Ġapproval":12286,"Ġinnovation":12287,"Ġinline":12288,"270":12289,"Ġgamma":12290,"ĠCT":12291,"Ġsimplest":12292,"âĢĻ,":12293,"Ġmas":12294,"Ġpars":12295,"velocity":12296,"ading":12297,"ĠMO":12298,"syl":12299,"ifting":12300,"isations":12301,"Py":12302,"Ġshadow":12303,"Ġreasoning":12304,")-(":12305,".*":12306,"Ġped":12307,"Pres":12308,"Ġproxy":12309,"Ġ%}":12310,"cule":12311,"Ġhistogram":12312,"terms":12313,"Ġanten":12314,"213":12315,")$}":12316,"Ġawait":12317,"Ġ(âĢľ":12318,"Ġassumes":12319,"ĠMember":12320,"Ġredshifts":12321,"ĠTeam":12322,"Ġcourts":12323,"Ġ\"/":12324,"ĠLine":12325,"Ġcapabilities":12326,"assets":12327,"fx":12328,"Ġsport":12329,"};\\":12330,"Free":12331,"MAP":12332,"Writer":12333,"ĠSect":12334,"iano":12335,"equilibrium":12336,"})^{\\":12337,"valuation":12338,"Ġrealization":12339,"cycl":12340,"Related":12341,"overning":12342,"havior":12343,"_{|":12344,"Ġranging":12345,"ĠOpt":12346,"Public":12347,"Ġtoler":12348,"plac":12349,"ĠOx":12350,"Ġoptimized":12351,"rator":12352,"Ġconsistently":12353,"JSON":12354,"Constra":12355,"quare":12356,"KK":12357,"Meta":12358,"collapse":12359,"Ġpartnership":12360,"1950":12361,"MSE":12362,"Ġing":12363,"220":12364,"romagnetic":12365,"ĠCov":12366,"rically":12367,"ĠBush":12368,"Abstract":12369,"queue":12370,"pled":12371,"1975":12372,"iti":12373,"))=":12374,"satz":12375,"lyph":12376,"ĠMike":12377,"Pool":12378,"ĠPut":12379,"ASS":12380,"filled":12381,"ĠThree":12382,"Ġexecuted":12383,"igm":12384,"Ġinterpolation":12385,"Ġwrites":12386,"Ġaveraging":12387,"oviet":12388,"ĠPass":12389,"ez":12390,"Ġdrift":12391,"Ġworldwide":12392,"Ġfeatured":12393,"ĠLight":12394,"teen":12395,"Ġlandscape":12396,"Ġhonor":12397,"jar":12398,"Ġworker":12399,"enable":12400,"protobuf":12401,"Ġpin":12402,"Background":12403,"}\\)":12404,"Ġfocusing":12405,"Ġasking":12406,"Ġdelivered":12407,"eeq":12408,"Ġgenus":12409,"password":12410,"Ġencoded":12411,"Ġforget":12412,"TEST":12413,"lisher":12414,"Ġampl":12415,"arded":12416,"athered":12417,"ghan":12418,"Ġmsg":12419,"pendicular":12420,"ĠVi":12421,"doi":12422,"Ġanimal":12423,"ĠVari":12424,"scroll":12425,"oked":12426,"upsilon":12427,"SY":12428,"Ġ&-":12429,"@\"":12430,"Ġrequested":12431,"Ġconvenience":12432,"})+":12433,"aste":12434,"ĠHistor":12435,"Ġau":12436,"Ġhaven":12437,"ĠTask":12438,"Ġprepare":12439,"Ġbath":12440,"Ġdropped":12441,"}\\,,":12442,"ĠLHC":12443,"Ġsummarize":12444,"cpp":12445,"effective":12446,"ĠSaint":12447,"Track":12448,"Ġconsiderable":12449,"ĠHD":12450,"Ġsympt":12451,"LU":12452,"HI":12453,"Account":12454,"Ġpublicly":12455,"dv":12456,"outer":12457,"ĠGeorgia":12458,"ĠHaw":12459,"Ġurg":12460,"Ġremainder":12461,"Ġadaptation":12462,"dc":12463,"Ġ}(":12464,"ĠNorthern":12465,"Ġages":12466,"osa":12467,"ĠĠĠĠĠĠĠĠĠĠĠĠĠĠĠĠĠĠĠĠĠĠĠĠĠĠĠĠ":12468,"Ġtherein":12469,"ĠFair":12470,"Ġsubsequently":12471,"dk":12472,"ipher":12473,"hidden":12474,"Ġboxes":12475,"irds":12476,"Har":12477,"Ġfant":12478,"curities":12479,"diagonal":12480,"lbrace":12481,"ZZ":12482,"Ġplants":12483,"Ġcong":12484,"Ġkid":12485,"Real":12486,"Float":12487,"ĠPacific":12488,"Ġvoting":12489,"ĠJersey":12490,"mr":12491,"ĠKenn":12492,"drop":12493,"Ġprogramme":12494,"ĠCoulomb":12495,"ĠKen":12496,"Ġcarefully":12497,"Ġstudio":12498,"ĠKar":12499,"~~~":12500,"ĠSimilar":12501,"ĠDaniel":12502,"ĠAdam":12503,"ucky":12504,"ĠâĢ¢":12505,"Ġsubmit":12506,"Ġbed":12507,"Ġcere":12508,"Ġ[-":12509,"Ġreflects":12510,"Cur":12511,"Ġmotor":12512,"ĠMic":12513,"Ġdisturb":12514,"itarian":12515,"Ġanswers":12516,"1973":12517,"Ġunlikely":12518,"Ġlegend":12519,"Ġreconstructed":12520,"Ġprimitive":12521,"ðŁ":12522,"prise":12523,"gp":12524,"Ġheavily":12525,"ĠVice":12526,"Ġamazing":12527,"neighb":12528,"Ġ\\\\\\":12529,"Ġfaculty":12530,"details":12531,"Ġinstruction":12532,"Ġcancell":12533,"ĠKong":12534,"ĠDeep":12535,"same":12536,"1974":12537,"Ġphysically":12538,"utch":12539,"ĠPlease":12540,"register":12541,"Ġcontam":12542,"ĠElect":12543,"'+":12544,"Ġdisplacement":12545,"[:":12546,"relations":12547,"Ġsoci":12548,"agues":12549,"ĠChange":12550,"ĠChris":12551,"ĠIrish":12552,".;":12553,"Ġsolit":12554,"FILE":12555,"oz":12556,"Define":12557,"OB":12558,"Ġkpc":12559,"Ġgraduate":12560,"ĠAlice":12561,"flags":12562,"Ġcomplaint":12563,"âĢĻ.":12564,"angled":12565,"singular":12566,"Ġillustrates":12567,"}'$":12568,"Ġperturbative":12569,"Ġguidance":12570,"Conclusions":12571,"Ġpairing":12572,"Msg":12573,"ju":12574,"writer":12575,"ivation":12576,"fire":12577,"oche":12578,"Ġreserved":12579,"Ġacknowledge":12580,"pus":12581,".]":12582,"Bit":12583,"ccentric":12584,"))$,":12585,"ĠConserv":12586,"Ġcharacterize":12587,"Ġneglect":12588,"eb":12589,"Are":12590,"Pack":12591,"Numer":12592,"schema":12593,"atim":12594,"pie":12595,"ĠOlymp":12596,"Ġperfectly":12597,"git":12598,"linder":12599,"ĠPO":12600,"ĠTour":12601,"Ġadditive":12602,"ulf":12603,"ĠProblem":12604,"Algorithm":12605,"Ġell":12606,"Ġmagnitudes":12607,"Ġcorrected":12608,"overview":12609,"ensively":12610,"ĠWeek":12611,"ĠWeyl":12612,"interaction":12613,"pb":12614,"itles":12615,"Ġrent":12616,"racted":12617,"Ġsought":12618,"}};":12619,"ĠRadio":12620,"Ġbrowser":12621,"ĠSwed":12622,"electron":12623,"aki":12624,"embed":12625,"Ear":12626,"gressive":12627,"Ġjoining":12628,"Ġprojections":12629,"antics":12630,"Ġaligned":12631,"Ġcoincide":12632,"abc":12633,"Dem":12634,"Ġlib":12635,"ĠResource":12636,"ĠKim":12637,"Bel":12638,"asp":12639,"tc":12640,"geqslant":12641,"Ġmembership":12642,"arches":12643,"Ġextending":12644,"XT":12645,"ĠFellow":12646,"Ġconsiderations":12647,"Ġleaf":12648,"(){":12649,"Previous":12650,"Ġtaught":12651,"ĠFOR":12652,"IVE":12653,"sufficient":12654,"atial":12655,"113":12656,"near":12657,"except":12658,"ĠExp":12659,"seen":12660,"Ġthr":12661,"ruments":12662,"Ġinstruments":12663,"ĠBC":12664,"Ġinferred":12665,"cohol":12666,"Ġspons":12667,"240":12668,"ĠDefault":12669,"Gra":12670,"Ġweaker":12671,"Scal":12672,"ĠeV":12673,"ĠEp":12674,"HL":12675,"Ġsimpler":12676,"blog":12677,"ĠCurrent":12678,"ĠJews":12679,"necess":12680,"anti":12681,"review":12682,"WN":12683,"Mapping":12684,"109":12685,"ĠVersion":12686,"ĠPri":12687,"ĠViet":12688,"Ġsuscept":12689,"kh":12690,"Panel":12691,"inian":12692,"\\@":12693,"Super":12694,"olis":12695,"ichlet":12696,"puty":12697,"Ġmatched":12698,"ellectual":12699,"consider":12700,"Ġparticipate":12701,"Ġplaint":12702,"ĠAfghan":12703,"Security":12704,"Ġrotating":12705,"Edit":12706,"nodes":12707,"Ġdangerous":12708,"Ġtransparent":12709,"Events":12710,"Ra":12711,"lind":12712,"ĠFac":12713,"atomic":12714,"Ġstores":12715,"rceil":12716,"aled":12717,"Ġsleep":12718,"ĠFood":12719,"Ġcontemporary":12720,"Ġarts":12721,"ĠAdv":12722,"Ġnorthern":12723,"Ġprocessed":12724,"ĠPath":12725,"sylvania":12726,"bracket":12727,"kernel":12728,"Ġreadily":12729,"Ġinvariants":12730,"keyword":12731,"Ang":12732,"Ġslice":12733,"ĠCondition":12734,"Star":12735,"Ġmicrosc":12736,"Ġimmig":12737,"Ġentitled":12738,"setup":12739,"Ġclar":12740,"ĠOhio":12741,"illy":12742,"Ġreceives":12743,"ĠSDSS":12744,"evin":12745,"sex":12746,"ĠAffairs":12747,"Ġintroduces":12748,"ĠQueen":12749,"eigen":12750,"%.":12751,"ĠGuard":12752,"ĠCard":12753,"Ġcarrying":12754,"[]{":12755,"charg":12756,"player":12757,"Ġfn":12758,"ĠBal":12759,"Ġsubmitted":12760,"Ġintention":12761,"ERE":12762,"Ġregistration":12763,"Ġimplied":12764,"arcsec":12765,"acher":12766,"Ġturning":12767,"Ġfalls":12768,"inher":12769,"ĠAU":12770,"Ġrings":12771,"oves":12772,"weighted":12773,"unsigned":12774,"Frag":12775,"Descriptor":12776,"___":12777,"Ġreject":12778,"enda":12779,"corr":12780,"ĠJava":12781,"extension":12782,"Ġindirect":12783,"rell":12784,"MeV":12785,"ĠPS":12786,"ĠGar":12787,"heim":12788,"ĠDub":12789,"methods":12790,"Area":12791,"shop":12792,"area":12793,"Lock":12794,"ĠSaf":12795,"pont":12796,"oustic":12797,"Job":12798,"Ġmeasurable":12799,"Math":12800,"llll":12801,"Print":12802,"ori":12803,"Activity":12804,"Ġsubstantially":12805,"Ġqualitative":12806,"addle":12807,"ĠTal":12808,"Ġabundances":12809,"ami":12810,"Flow":12811,"Ġagrees":12812,"Ġdevoted":12813,"Ġheur":12814,"ductor":12815,"Ġarbitrarily":12816,"Ġconcert":12817,"ĠBoolean":12818,"Ġdelta":12819,"]}$":12820,"algebras":12821,"idelity":12822,"HP":12823,"chart":12824,"lceil":12825,"Ġ[[":12826,"Ġmassless":12827,"Ġadmissible":12828,"1972":12829,"Ð´":12830,"erer":12831,"Ġcompleteness":12832,"Ġvortex":12833,"ĠBroad":12834,"ĠCMB":12835,"\\%,":12836,"ĠTri":12837,"ĠAsian":12838,"Ġadvis":12839,"Ġsouthern":12840,"Ġstopped":12841,"$~\\":12842,"MN":12843,"throws":12844,"Ġcontinuously":12845,"ĠNiger":12846,"Ġconcluded":12847,"Ġbranching":12848,"dm":12849,"ĠSky":12850,"Ġcurrents":12851,"ĠDirect":12852,"Ġelig":12853,"Generic":12854,"144":12855,"Ġextrapol":12856,"variable":12857,"wild":12858,"Ġpromise":12859,"ĠParliament":12860,"ĠReact":12861,"VE":12862,"middle":12863,"irement":12864,"Ġreplacement":12865,"Editor":12866,"leted":12867,"tools":12868,"////////////////////////////////":12869,"Ġreactions":12870,"Character":12871,"Ġdwarf":12872,"temp":12873,"Expr":12874,"Ġbosons":12875,"Ġsuggesting":12876,"Ġdiverg":12877,"classical":12878,"Ġmultiplicity":12879,"ĠĠĠĠĠĠĠĠĠĠĠĠĠĠĠĠĠĠĠĠĠĠĠĠĠĠĠĠĠ":12880,"got":12881,"Ġbomb":12882,"iday":12883,"Ġrecommended":12884,"Ġplatforms":12885,"Ġcontents":12886,"Ġbases":12887,"Ġjudgment":12888,"consist":12889,"Ġacquisition":12890,"Ġinherent":12891,"issue":12892,"Ġintegrating":12893,"@{}}":12894,"tempor":12895,"GHz":12896,"Ġlift":12897,"175":12898,"RF":12899,"noalign":12900,"izabeth":12901,"Ġrecip":12902,"Ġbelieves":12903,"}--":12904,"Ġbehalf":12905,"Ġpermission":12906,"Ġencourage":12907,"ĠClearly":12908,"Ġfee":12909,"Ġsentences":12910,"Ġwatching":12911,"Ġoblig":12912,"ERN":12913,"zing":12914,"Ds":12915,"ails":12916,"Effect":12917,"erved":12918,"rbrace":12919,"Ġdefinite":12920,"errors":12921,"Ġcareful":12922,"Ġnations":12923,"ĠMid":12924,"agers":12925,"Ġ×":12926,"ĠMP":12927,"Ġbanks":12928,"yers":12929,"Ġyounger":12930,"_{\\{":12931,"ĠArea":12932,"ĠMen":12933,"Ġranking":12934,"cert":12935,"Ġions":12936,"Ġviscosity":12937,"Â°":12938,"webpack":12939,"Ġtension":12940,"xymatrix":12941,"ĠFall":12942,"ĠBlo":12943,"noc":12944,"Ġinvestors":12945,"you":12946,"whe":12947,"inois":12948,"Ġsimplify":12949,"Ġspoke":12950,"ĠForeign":12951,"Ġfifth":12952,"Files":12953,"Ġclosest":12954,"integral":12955,"Ġoccupied":12956,"Ġhealthy":12957,"Ġappendix":12958,"ĠPRO":12959,"ernels":12960,"ĠSteve":12961,"ĠFix":12962,"History":12963,"degenerate":12964,"ĠSL":12965,"Ġgluon":12966,"Ġguys":12967,"Internal":12968,"alker":12969,"Depend":12970,"Ġrewrite":12971,"Memory":12972,"Ġenvelope":12973,"origin":12974,"}}{(":12975,"Ġingred":12976,"Ġvoters":12977,"ignment":12978,"gap":12979,"Condition":12980,"ĠIslamic":12981,"oli":12982,"Ġvictory":12983,"worth":12984,"Ġcalculating":12985,"ĠSea":12986,"reset":12987,"je":12988,"Ġinternet":12989,"Ġproto":12990,"Ġemissions":12991,"Ġrejected":12992,"Ġpossibilities":12993,"natural":12994,"being":12995,"periodic":12996,"ĠOtherwise":12997,"SV":12998,"ĠEconomic":12999,"bered":13000,"tection":13001,"Ġcontour":13002,"=\"@":13003,"Ġcategor":13004,"Ġglobally":13005,"Ġwider":13006,"Ġphotometry":13007,"ulus":13008,"ĠÎ":13009,"ĠBrook":13010,"usual":13011,"Ġrelate":13012,"Ġspi":13013,"detail":13014,"ĠChapter":13015,"xygen":13016,"Ġquantization":13017,"assumption":13018,"creen":13019,"itecture":13020,"plain":13021,"ishop":13022,"Find":13023,"mask":13024,"Ġstations":13025,"ordon":13026,"Ġinjury":13027,"Ġguaranteed":13028,"Ġevaluating":13029,"ĠSurvey":13030,"Ġbreaks":13031,"}),\\":13032,"002":13033,"HA":13034,"Ljava":13035,"Ġrend":13036,"apply":13037,"CNN":13038,"Ġtrials":13039,"ĠWrit":13040,"\\\\[":13041,"Ġthermodynamic":13042,"Mean":13043,"Ġskew":13044,"phot":13045,"props":13046,"ĠGPU":13047,"Ġarmy":13048,"Sem":13049,"Ġ[];":13050,"Ġartificial":13051,"){$":13052,"TABLE":13053,"Ġcounsel":13054,"Ġsuperior":13055,"Ġalter":13056,"elfare":13057,"night":13058,"Ġscheduled":13059,"alloc":13060,"Ġfoundation":13061,"Ġexperimentally":13062,"cker":13063,"Success":13064,"protected":13065,"ĠSym":13066,"ĠOption":13067,"Ġlogical":13068,"Ġconstitu":13069,"convert":13070,"Ġadults":13071,"Arch":13072,"Ġfell":13073,"Ġambigu":13074,"^*,":13075,")\"":13076,"Hy":13077,"fun":13078,"ownt":13079,".__":13080,"etts":13081,"}$;}":13082,"Ġregimes":13083,"Ġtransferred":13084,"elly":13085,"Rob":13086,"Ġturbulence":13087,"Ġmunic":13088,"ĠOfficer":13089,"ĠPen":13090,"Ġpod":13091,"ĠMD":13092,"hot":13093,"ĠInterest":13094,"Ġvalidate":13095,"Ġenhancement":13096,"Ġspars":13097,"ĠGir":13098,"mis":13099,")}}\\":13100,"dor":13101,"Ġfasc":13102,")_\\":13103,"),\\\\":13104,"Ġmetadata":13105,"Ġspiral":13106,"ĠIC":13107,"Ġinstanceof":13108,"Ġruntime":13109,"Ġdeeper":13110,"Ġattorney":13111,"ĠRen":13112,"reedy":13113,"Ġfacing":13114,"IES":13115,"onia":13116,"Double":13117,"interval":13118,"Ġconsumers":13119,"Ġattended":13120,"via":13121,"Ġstrip":13122,"124":13123,"Ġmapped":13124,"Ġarchitectures":13125,"ddot":13126,"keV":13127,"Ġexecute":13128,"ĠMake":13129,"ĠSports":13130,"Ġexposed":13131,"118":13132,"Ġng":13133,"conditions":13134,".\\]":13135,"Ġsquared":13136,"Ġmotions":13137,"Ġanomalous":13138,"Ġsoldi":13139,"oking":13140,"Ġattractive":13141,"Ã¨":13142,"lantic":13143,"Sep":13144,"iders":13145,"IND":13146,"Timeout":13147,"Ġrenormalization":13148,"Ġmagazine":13149,"policy":13150,"Ġiron":13151,"ĠPlanck":13152,"owered":13153,"Widget":13154,"ĠSED":13155,"Ġvon":13156,"}\\,.":13157,"ĠUk":13158,"References":13159,"ĠBon":13160,"expr":13161,"Ġemotional":13162,"construction":13163,"ĠCPU":13164,"BG":13165,"Ġsensors":13166,"åı":13167,"Ġsoldiers":13168,"Ġstruggle":13169,"Ġ).":13170,"Ġpreparation":13171,"Ġplanar":13172,"program":13173,"Ġoperated":13174,"arters":13175,"Ġok":13176,"ĠCauchy":13177,"enance":13178,"Ġinjective":13179,"typeof":13180,"}}-\\":13181,"theast":13182,"rupted":13183,"ĠCub":13184,"checkmark":13185,"Member":13186,"Ġlongitudinal":13187,"Ġtwist":13188,".-":13189,"Scale":13190,"Ġlect":13191,"117":13192,"lvert":13193,"900":13194,"Ġhistoric":13195,"isa":13196,"ĠÂ©":13197,"systems":13198,"Coll":13199,"Due":13200,"ĠHong":13201,"accept":13202,"fb":13203,"ĠTrade":13204,"Ġmethodology":13205,"dotted":13206,"pn":13207,"rug":13208,"ipping":13209,"Ġvocal":13210,"Ġhappening":13211,"Ġherself":13212,"ĠIT":13213,"Ġmarks":13214,"cry":13215,"Ġpairwise":13216,"fm":13217,"icking":13218,"Logger":13219,"Ġcontributed":13220,"^*_{":13221,".][]{":13222,"echo":13223,"Ġpoverty":13224,"Ġparticipation":13225,"OPT":13226,"makers":13227,"Div":13228,"116":13229,"Keys":13230,"Ġbelonging":13231,"Ġdiscrimination":13232,"Ġincoming":13233,"()).":13234,"|}\\":13235,"122":13236,"ĠNavy":13237,"(!":13238,"paring":13239,"NavBarCell":13240,"Ġinsights":13241,"Ġchecks":13242,"Construct":13243,"Auth":13244,"ĠSwit":13245,"ĠEastern":13246,"Ġinform":13247,"haust":13248,"adapt":13249,"clean":13250,"rvert":13251,"Ġelem":13252,"Ġpasses":13253,"Ġsounds":13254,"Ġinvertible":13255,"ĠColumbia":13256,"ĠPennsylvania":13257,"putation":13258,"ĠHard":13259,"ye":13260,"Ġformulated":13261,"Ġfactorization":13262,"formula":13263,"Green":13264,"Ġdocumentation":13265,"!âĢĿ":13266,"ĠTw":13267,"Normal":13268,"Â©":13269,"ĠLittle":13270,"endor":13271,"ceive":13272,"lum":13273,"changes":13274,"Ġproducer":13275,"ĠSoviet":13276,"Ġmodelling":13277,"PN":13278,"Pay":13279,"viation":13280,"Ġdismiss":13281,"Ġdivisor":13282,"Ġvariants":13283,"interpre":13284,"170":13285,"ĠFoot":13286,"assertEquals":13287,"Ġadvent":13288,"Ġoscillation":13289,"potent":13290,"Ġawards":13291,"Despite":13292,"Ġcontinuing":13293,"ĠAgreement":13294,"retch":13295,"Ġpreserves":13296,"oured":13297,"ĠWin":13298,"Ġdecline":13299,"FW":13300,"Ġleak":13301,"Simple":13302,"Ġcoding":13303,"->]":13304,"Du":13305,"Ġdecou":13306,"Ġapparently":13307,"Ġ;$":13308,"Ġmanuscript":13309,"Ġwarning":13310,"Sto":13311,"Ġfulfill":13312,"following":13313,"production":13314,"Ġinfrared":13315,"lein":13316,"opher":13317,"Ġtwenty":13318,"astro":13319,"utf":13320,"Ġbasically":13321,"ĠGraph":13322,"bundle":13323,"Ġhandling":13324,"pler":13325,"orted":13326,"Ġfactory":13327,"Ġhomology":13328,"ycl":13329,"Ġgray":13330,"ĠFire":13331,"zone":13332,"Ġdivide":13333,"Ġexciting":13334,"supset":13335,"Google":13336,"ithmetic":13337,"entropy":13338,"Ret":13339,"atar":13340,"Ġsolely":13341,"ovie":13342,"ĠSyria":13343,"representation":13344,"odic":13345,"thetic":13346,"Ġexcitations":13347,")$;":13348,"logger":13349,"ĠCC":13350,"appendix":13351,"Ġregulation":13352,"Ġbipart":13353,"Ġemerging":13354,"Ġpreliminary":13355,"contin":13356,"ĠSus":13357,"shot":13358,"ĠSem":13359,"ĠBlock":13360,"Ġactors":13361,"Common":13362,"Ġdeterminant":13363,"Ġ\\%":13364,"ĠNC":13365,"Ġemphasize":13366,"Ġhelic":13367,"ĠNight":13368,"Ġdesire":13369,"Ġsake":13370,"inations":13371,"lis":13372,"ĠOp":13373,"iture":13374,"Ġcooperation":13375,"ONE":13376,"mical":13377,"score":13378,"Ġcopyright":13379,"Ġnucleus":13380,"Ġplaintiff":13381,"Ġ{'":13382,"Photo":13383,"Ġdisag":13384,"Bi":13385,"119":13386,"esp":13387,"Ġaxi":13388,"month":13389,"Ġmanufacturing":13390,"Ġretail":13391,"Ġimagine":13392,"Ġdiscipl":13393,"ĠFinancial":13394,"Ġgeomet":13395,"}$&":13396,"Ġpoles":13397,"ĠTheatre":13398,"ĠApple":13399,"_,":13400,"rend":13401,"Ġ=========":13402,"Ġsister":13403,"Ġdegrad":13404,"ĠPC":13405,"Ġelsewhere":13406,"dimension":13407,"riving":13408,"Ġexamined":13409,"ijk":13410,"rgb":13411,"ĠGuide":13412,"Ġpron":13413,"Ġadvantages":13414,"World":13415,"Ġgoverning":13416,"ĠStock":13417,"Ġtransit":13418,"ĠSa":13419,"Ġdrawing":13420,":[":13421,"prefix":13422,"bounds":13423,"bone":13424,"SIZE":13425,"$^\\":13426,"pur":13427,"Ġyes":13428,"Ġdistinguished":13429,"Ġperpendicular":13430,"scalar":13431,"'])":13432,"Ġgained":13433,"Ġgrown":13434,"]+":13435,"Ġpermanent":13436,"Ġoccasion":13437,"Init":13438,"ĠComb":13439,"vdash":13440,"liers":13441,"Ġscr":13442,"irable":13443,"sized":13444,"Ġexceptional":13445,"Ġreturning":13446,"etter":13447,"persur":13448,"ĠCustom":13449,"sembles":13450,".,][]{":13451,"Ġhealthcare":13452,"ĠTax":13453,"Ġcontra":13454,"((\\":13455,"estimate":13456,"lov":13457,"achelor":13458,"Ġbehaviors":13459,"Loader":13460,"cn":13461,"Ġwriters":13462,"spectrum":13463,"ĠGro":13464,"dark":13465,"Prob":13466,"Func":13467,"Layer":13468,"Java":13469,"Ġfavour":13470,"scheme":13471,"orne":13472,"Ġpreserved":13473,"SER":13474,"Ġhall":13475,"amaz":13476,"Ġanisotropy":13477,"Ġconsent":13478,"Ġdevelopments":13479,"cu":13480,"Ġvic":13481,"ĠAssumption":13482,"trigger":13483,"Ġfeat":13484,"ĠLow":13485,"cession":13486,"Ġinjection":13487,"Ġvent":13488,"uma":13489,"Ġcausing":13490,"Ġbold":13491,"keep":13492,"Ġda":13493,"Ġskin":13494,"Ġdemocracy":13495,"Ġmaintained":13496,"Ġsuffer":13497,"Ġfunded":13498,"utr":13499,"iversary":13500,"Der":13501,"WR":13502,"Ġcro":13503,")));":13504,"train":13505,"''$":13506,"Discussion":13507,"Methods":13508,"adium":13509,"chers":13510,"Ġremarks":13511,"achus":13512,"Ġcoarse":13513,"Ġcoc":13514,"################":13515,"JS":13516,"Ġbug":13517,"placian":13518,").\\":13519,"Ġsheet":13520,"trac":13521,"elements":13522,"iated":13523,"Ġcores":13524,"ĠCooper":13525,"empl":13526,"{}\\":13527,"Ġfeels":13528,"Ġweekend":13529,"Ġha":13530,"Ġillegal":13531,"Ġhouses":13532,"ĠRefs":13533,"Ġsaved":13534,"Ġanonym":13535,"relative":13536,"aret":13537,"Ġsends":13538,"ureau":13539,"Ġdots":13540,"Ġkernels":13541,"Ġteach":13542,"ĠLew":13543,"Aud":13544,"merce":13545,"Ġcoherence":13546,"idx":13547,"'}{":13548,"ĠClinton":13549,"Ġoptional":13550,"Ġwaste":13551,"ocker":13552,"services":13553,"ĠBrad":13554,"Look":13555,"Ġlegit":13556,",$$":13557,"inality":13558,"ĠDigital":13559,"Close":13560,"Ġmerge":13561,"Auto":13562,"fac":13563,")}]":13564,"Ġmigration":13565,"Ġincorrect":13566,"Corollary":13567,"subject":13568,"003":13569,"aka":13570,"navList":13571,"every":13572,"Ġminimizing":13573,"ĠRiemannian":13574,"ĠCoast":13575,"Ġnur":13576,"ĠSearch":13577,"Ġindicator":13578,"Ġmotivation":13579,"ĠEth":13580,"Ġestimating":13581,"ĠRL":13582,"Ġdance":13583,"agon":13584,"ĠStephen":13585,"Ġhandler":13586,"fund":13587,"Ġintegrable":13588,"Ġfake":13589,"IGHT":13590,"PATH":13591,"ĠSystems":13592,"Ġdissipation":13593,"Ġshr":13594,"Ġterminal":13595,"Ġsinger":13596,"ĠDNA":13597,"outs":13598,"Ġtransportation":13599,"Ġdrag":13600,"Ġprotocols":13601,"Ġbatter":13602,"ĠJun":13603,"ĠConfig":13604,"ĠScient":13605,"Fs":13606,"batch":13607,"ĠAdS":13608,"Lie":13609,"station":13610,"LI":13611,"Ġartifact":13612,"Flags":13613,"AI":13614,"Ġdesigns":13615,"Ġpointing":13616,"Ġflags":13617,"Ġease":13618,"Ġcompensation":13619,"bn":13620,"examples":13621,"Ġprofit":13622,"|\\,":13623,"Ġdisplays":13624,"ĠLive":13625,")\\|_{":13626,"Ġdiffers":13627,"$;}":13628,"Ġverification":13629,"raine":13630,"acting":13631,"Ġgates":13632,"Ġremoval":13633,"Prim":13634,"platform":13635,"Ġmedicine":13636,"adelphia":13637,"1968":13638,"Ġmodulation":13639,"Ġfiction":13640,"ĠHollywood":13641,"ĠHas":13642,"Ġinformed":13643,"Ã³n":13644,"ĠIsraeli":13645,"Ġeccentric":13646,"Duration":13647,"Ġattributed":13648,"()));":13649,"ĠInf":13650,"Ġmoral":13651,"Ġattr":13652,"urd":13653,"bos":13654,"dropdown":13655,"ĠNode":13656,"Ġpresidential":13657,"Ġdimensionless":13658,"ĠCollection":13659,"achusetts":13660,".\\,\\":13661,"Ġsoph":13662,"ĠDar":13663,"Lem":13664,"ĠMicrosoft":13665,"Ġiff":13666,"*}\\":13667,"ĠDom":13668,"iors":13669,"Lat":13670,"eras":13671,"sr":13672,"Ġradical":13673,"icide":13674,"Ġwa":13675,"Ġphotograph":13676,"dig":13677,"ARN":13678,"Ġhalos":13679,"Ġpreserving":13680,"Ġtelescope":13681,"ĠGames":13682,"ĠTake":13683,"Ġtorsion":13684,"Ġinert":13685,"ĠSpect":13686,"Ġtelling":13687,"Ġassertion":13688,"ividual":13689,"Ġwestern":13690,"ometer":13691,"ains":13692,"Metric":13693,"|$.":13694,"follow":13695,"\\,$":13696,"bow":13697,"lc":13698,"Ġgains":13699,"Ġentering":13700,"Ġtokens":13701,"Ġarrested":13702,"ĠMcC":13703,"cdn":13704,"VI":13705,"ĠTro":13706,"1024":13707,"Equation":13708,"theore":13709,"ĠPay":13710,"ĠIllinois":13711,"Ġproxim":13712,"Ġvo":13713,")$)":13714,"ĠRom":13715,"cedure":13716,"amiltonian":13717,"ĠToronto":13718,"Ġaz":13719,"Ġrelief":13720,"Ġprovince":13721,"Black":13722,"1969":13723,"Ġflav":13724,"Well":13725,"imeter":13726,"Sample":13727,"Ġmeetings":13728,"ĠHo":13729,"Ġrural":13730,"Ġbuilder":13731,"Ġrescal":13732,"ĠClaim":13733,"lobe":13734,"}{-":13735,"binding":13736,"Ġintegrate":13737,"Ġsubsid":13738,"ĠTurkey":13739,"126":13740,"Ġcovariant":13741,"ĠVAL":13742,"jango":13743,"ologist":13744,"relativistic":13745,"XY":13746,"Ġlepton":13747,"âĨ":13748,"}=-\\":13749,"had":13750,"UTF":13751,"peak":13752,"Ġgeneralize":13753,"design":13754,"@{\\":13755,"Ġpit":13756,"collection":13757,"Ġengaged":13758,"Ġconstrain":13759,"Ġhits":13760,"Ġcompanion":13761,"browser":13762,"ewise":13763,"Ġasync":13764,"Ġcouncil":13765,"Ġimpacts":13766,"onomy":13767,"Ġoperational":13768,"Ġoutperforms":13769,"Ġstorm":13770,"AO":13771,"Scope":13772,"ĠGib":13773,"Ġspectroscopic":13774,"Ġalongside":13775,"LD":13776,"pection":13777,"ulum":13778,"-\\!":13779,"Ġparser":13780,"Ġven":13781,"ston":13782,"Ġproviders":13783,"ĠFox":13784,"Ġleague":13785,"Ġvotes":13786,"ĠRecords":13787,"evolution":13788,"Single":13789,"Ġiterative":13790,"Plugin":13791,"LOG":13792,"letter":13793,"don":13794,"ĠIl":13795,"Ġdebug":13796,"Ġionization":13797,"Ġprops":13798,"Ġfunc":13799,"=\"${":13800,"taken":13801,"ĠSS":13802,"Ġwavelengths":13803,"))^":13804,"Ġnm":13805,"Ġwinner":13806,"ders":13807,"algo":13808,"amm":13809,"ĠOnline":13810,"Ġpal":13811,"ynamical":13812,"PG":13813,"protocol":13814,"ĠSeason":13815,"ĠLuc":13816,"Ġmachines":13817,"ĠTE":13818,"omer":13819,"ĠRog":13820,"apore":13821,"Ġdiffe":13822,"Ġpetition":13823,"uits":13824,"PY":13825,"theo":13826,"Ġteen":13827,"ĠBE":13828,"134":13829,"ĠFull":13830,"attering":13831,"121":13832,"agan":13833,"Ġmoderate":13834,"Ġtiming":13835,"ĠWis":13836,"Ġconsensus":13837,"rotate":13838,"Protocol":13839,"ensing":13840,"Ġcontracts":13841,"decay":13842,"Ġtaxes":13843,"Import":13844,"parser":13845,"audi":13846,"rowth":13847,"Short":13848,"disk":13849,"paren":13850,"atz":13851,"ITE":13852,"Ġgenerations":13853,"Ġastro":13854,"ĠRule":13855,"Ġatmospheric":13856,"Ġmonomial":13857,"Ġtuning":13858,"Attributes":13859,"++;":13860,"230":13861,"Ġnormally":13862,"Ġrepresentatives":13863,"Ġmagnetization":13864,"Ġneglected":13865,"usive":13866,"ĠOxford":13867,"ĠRest":13868,"ĠGre":13869,"Christ":13870,"Ġdifficulties":13871,"Ġriver":13872,"Ġsimulate":13873,"enant":13874,"ĠMill":13875,"}}}(":13876,"ationally":13877,"ĠDeath":13878,"Statement":13879,"xs":13880,"Ġheli":13881,"printf":13882,"owned":13883,"Ġbubble":13884,"»¿":13885,"Ġstake":13886,"colLast":13887,"Ġphilosophy":13888,"![":13889,"Pers":13890,"ques":13891,"Ġdemands":13892,"Ġbinaries":13893,"ETHOD":13894,"Ġeliminate":13895,"\\`":13896,"Ġvaried":13897,"Ġpolarized":13898,"Ġaffili":13899,"tmp":13900,"Ġgaps":13901,"ĠAppro":13902,"1967":13903,"Ġexploit":13904,"assembly":13905,"Ġfo":13906,"users":13907,"Ġasset":13908,"Best":13909,"Ġbalanced":13910,"ĠLeft":13911,"Oh":13912,"Ġadult":13913,"Ġtalks":13914,"Adapter":13915,"rivers":13916,"Ġdiscrepancy":13917,"ï»¿":13918,"ĠFind":13919,"Ñĭ":13920,"Ġdecoding":13921,"apt":13922,"ĠBooks":13923,"UD":13924,"Ġnotations":13925,"ĠPhoto":13926,"Ġacceptance":13927,"triangleq":13928,"ĠYang":13929,"USE":13930,"Ant":13931,"Game":13932,"lp":13933,"Ġdependency":13934,"entials":13935,"gh":13936,"ĠIE":13937,"rk":13938,"Ġrising":13939,"145":13940,"Ġhierarchical":13941,"Cluster":13942,"Ġinversion":13943,"Ġdiseases":13944,"SQL":13945,"Ġtargeted":13946,",[":13947,"anna":13948,"})}{\\":13949,"physics":13950,"ĠSFR":13951,"Ġfraud":13952,"}--\\":13953,"Ġmount":13954,".\\,":13955,"ĠMah":13956,"WI":13957,"Ġarrow":13958,"Ġ''":13959,"ĠMas":13960,"Ġinstruct":13961,"ĠLink":13962,"Ġpassword":13963,"ĠProt":13964,"Ġcoq":13965,"3333":13966,"ĠExperim":13967,"ĠNASA":13968,"party":13969,"orb":13970,"Ġmaintaining":13971,"esome":13972,"Ġinfluenced":13973,"Ġconstructing":13974,"Browser":13975,"Ġbott":13976,"ĠUnfortunately":13977,"ĠAuthority":13978,"Resol":13979,"Ġconcaten":13980,"colFirst":13981,"available":13982,"Ġawareness":13983,"fon":13984,"ĠStory":13985,"ĠDemocrats":13986,"video":13987,"Expect":13988,"\"`":13989,"^*$.":13990,"Ġepisodes":13991,"Ġsymptoms":13992,"ĠCapital":13993,"Vs":13994,"Ġneurons":13995,"Ġevening":13996,"ĠBuilding":13997,"ilipp":13998,"ĠBorel":13999,"Ġhair":14000,",\\,\\,\\,\\":14001,"lapping":14002,"xt":14003,"ĠDocument":14004,"Ġremin":14005,"Ġheads":14006,"Ġcrowd":14007,"Ġtriangles":14008,"Directory":14009,"ĠMI":14010,"ĠBru":14011,"Ġgene":14012,"implies":14013,"1971":14014,"oni":14015,"resolved":14016,"Ġpartitions":14017,"|,":14018,"Ġzeros":14019,"eda":14020,"hh":14021,"Report":14022,"}:\\":14023,"Ġoxygen":14024,"harmonic":14025,"Ġdeeply":14026,"Ġconsiderably":14027,"Agent":14028,"Ġinstructions":14029,"hookrightarrow":14030,"diction":14031,"burgh":14032,"tabs":14033,"ĠBang":14034,"Ġspatially":14035,"Ġfiscal":14036,"Ġprivile":14037,"Elements":14038,"Remove":14039,"}\\|_{":14040,"ĠPrince":14041,"Ġinvent":14042,"Ġprotein":14043,"fitting":14044,"race":14045,"Ġlying":14046,"Ġaccounting":14047,"Ġguard":14048,"Ġ=&":14049,"Ġgrateful":14050,"Ġmodifications":14051,"!}":14052,"intenance":14053,"Dest":14054,"Ġprobabilistic":14055,"Ġfees":14056,"Ġsupervised":14057,"irk":14058,"Ġcommands":14059,"Ġsustainable":14060,"ĠBeach":14061,"Ġutilize":14062,"Ġbis":14063,"Ġprotest":14064,"Ġbroader":14065,"ĠDark":14066,"Ġcaught":14067,"450":14068,"ership":14069,"ĠTheory":14070,"abi":14071,"Ġpassage":14072,"Ġmenu":14073,"onlinecite":14074,"Ġfilling":14075,"owed":14076,"Ġcontours":14077,"Ġsearches":14078,"Ġspeaker":14079,"estim":14080,"Ġuniqueness":14081,"ocaml":14082,"ibraries":14083,"USY":14084,"ressing":14085,"emed":14086,"BAR":14087,"otherwise":14088,"Ġtransforms":14089,"Upd":14090,"selection":14091,",+":14092,"magnet":14093,"handler":14094,"Ġ[],":14095,"Linear":14096,"Tw":14097,"XML":14098,"Ġdecor":14099,"bean":14100,"210":14101,"ĠAlexander":14102,"Ġdeals":14103,"Ġterritory":14104,"Ġbiological":14105,"Cla":14106,"limate":14107,"Ġstructured":14108,"Ġnewspaper":14109,"wx":14110,"plots":14111,"Ġ([":14112,"Ġrecommendations":14113,"psfrag":14114,"}\\|\\":14115,"Play":14116,"average":14117,"iate":14118,"ryption":14119,"Ġpropagator":14120,"Ġbounding":14121,"Ġinvestigations":14122,"Ġenjoyed":14123,"Ġshooting":14124,"_->":14125,"Ġsurvival":14126,"done":14127,"Ġknowing":14128,"Ġelectricity":14129,"PF":14130,"agger":14131,"ĠBoy":14132,"Ġthorough":14133,"imm":14134,"obtained":14135,"Selected":14136,"Ġplanes":14137,"speed":14138,"approximation":14139,"Ġgenu":14140,"Ġbaryon":14141,"}{.":14142,"Diag":14143,"Ġconserved":14144,"ĠĠĠĠĠĠĠĠĠĠĠĠĠĠĠĠĠĠĠĠĠĠĠĠĠĠĠĠĠĠ":14145,"uz":14146,"Ġ(_":14147,"Ġregulatory":14148,"Vertex":14149,"paramet":14150,"ĠTele":14151,"verbatim":14152,"ĠBul":14153,"ogeneity":14154,"Ġbundles":14155,"Ġaband":14156,"Ġfaced":14157,"forementioned":14158,"allclasses":14159,"Ġflexible":14160,"onomous":14161,"adjoint":14162,"\\},\\":14163,"Ġinfection":14164,"Ġimmigration":14165,"bury":14166,"Ġdifferentiable":14167,"Ġobjectives":14168,"Ġfacilitate":14169,"Ġevolutionary":14170,"Ġreset":14171,"contrib":14172,"Ġmeson":14173,"Ġdisabled":14174,"Ġdestroyed":14175,"ĠRevolution":14176,"Ġtwisted":14177,"STAT":14178,"Appendix":14179,"Ġassault":14180,"Hol":14181,"Ġcapability":14182,"Ġrom":14183,"ADD":14184,"]_{\\":14185,"Copyright":14186,"OUT":14187,"Ġpredicts":14188,"Ġsubgroups":14189,"Ġfractions":14190,"Ġpriori":14191,"Ġfermionic":14192,"Leg":14193,"ĠCro":14194,"Ġprev":14195,"wing":14196,"Ġske":14197,"ĠDavis":14198,"Ġpot":14199,"uggest":14200,"prove":14201,"ĠCost":14202,"flag":14203,"ĠHart":14204,"Ġwelcome":14205,"compute":14206,"equence":14207,")*":14208,"Repository":14209,"Ġ$%":14210,"Ġincrement":14211,"isl":14212,"Ġpayments":14213,"Ġbeat":14214,"192":14215,"Ġmess":14216,"Ġarrows":14217,"Ġselling":14218,"tuple":14219,"VV":14220,"Help":14221,"asketball":14222,"ummy":14223,"Ġslot":14224,"scribe":14225,"ĠON":14226,"Ġchecking":14227,"Ġcollaps":14228,"propag":14229,"hide":14230,"Ġsad":14231,"Ġaccompan":14232,"MODULE":14233,"Ġtroops":14234,"Ġregularly":14235,"Ġscreening":14236,"rays":14237,"Na":14238,"Ġcourses":14239,"Ġnoticed":14240,"Ġalle":14241,"Members":14242,"Ġoptimize":14243,"ĠStudy":14244,"Ġwithdraw":14245,"what":14246,"Mer":14247,"Ġghost":14248,"Ġstrange":14249,"mbf":14250,"His":14251,"required":14252,"gate":14253,"Ġ=======":14254,"decl":14255,"Ġsurely":14256,"Ġmodulo":14257,"Ġpeer":14258,"Ġresonances":14259,"Ġwalking":14260,"ĠTODO":14261,"Ġovers":14262,"Ġwindows":14263,"$_\\":14264,"Ġsynthesis":14265,"scaling":14266,"ĠMassachusetts":14267,"herm":14268,"clust":14269,"ĠPaper":14270,"Ġlosing":14271,"Ġphotos":14272,"Ġdeform":14273,"Her":14274,"ĠEffect":14275,"ĠAccount":14276,"Ġpc":14277,"\",\"":14278,"Profile":14279,"Ġsuffered":14280,"Fail":14281,"ivities":14282,"Enum":14283,"Proxy":14284,"ĠLim":14285,"voir":14286,"Ġfish":14287,"atom":14288,"shared":14289,"}:=\\":14290,"mill":14291,"Ġtrading":14292,"mot":14293,"Ġestimators":14294,"icing":14295,"Ġexclusive":14296,"Ġposts":14297,"urated":14298,"Ġfrust":14299,"tration":14300,"Ġsubstr":14301,"Ġlimitation":14302,"Ã£":14303,"ajax":14304,"ĠFigures":14305,"Ġpilot":14306,"roscopy":14307,"chester":14308,"ĠPrem":14309,"observed":14310,"Ġspont":14311,"Ġgenetic":14312,"unting":14313,"bytes":14314,"Ġmorphisms":14315,"Ġtemporary":14316,"Ġgrants":14317,"Ġkeeps":14318,"dn":14319,"Ġanchor":14320,"Ġpreference":14321,"ĠTraining":14322,"Ġhypersur":14323,"tzmann":14324,"Ġturbulent":14325,"igroup":14326,"ĠThird":14327,"zhang":14328,"Ġpara":14329,"editor":14330,"agen":14331,"bling":14332,"ĠGi":14333,"ĠNam":14334,"ĠShort":14335,"Ġxmlns":14336,"ĠElizabeth":14337,"^+_":14338,"OF":14339,"ĠSR":14340,"thesis":14341,"Ġoccupation":14342,"etition":14343,"Ġuniversities":14344,"ĠSite":14345,"Ġentreprene":14346,"ĠĠĠĠĠĠĠĠĠĠĠĠĠĠĠĠĠĠĠĠĠĠĠĠĠĠĠĠĠĠĠĠĠĠĠĠĠĠĠĠĠĠĠ":14347,"ĠHubble":14348,"Ġhotel":14349,"Selection":14350,"reason":14351,"ĠMiller":14352,"ĠDirichlet":14353,"Ġinduce":14354,"Ġpictures":14355,"Ġsav":14356,"Ġreq":14357,"Ġaforementioned":14358,"Ġdamping":14359,"Ġconsequently":14360,"QU":14361,"Ġrear":14362,"Ber":14363,"amazon":14364,"Ġcontributes":14365,"Ġyellow":14366,"Ġtransmitted":14367,"?\"":14368,"Ġsurprise":14369,"\\\\\\\\\\\\\\\\\\\\\\\\\\\\\\\\\\\\\\\\\\\\\\\\\\\\\\\\\\\\\\\\\\\\\\\\\\\\\\\\\\\\\\\\\\\\\\\\\\\\\\\\\\\\\\\\\\\\\\\\\\\\\\\\":14370,"Ġrain":14371,"ĠEdward":14372,"Ġbackward":14373,"Ġwonderful":14374,"Ġdifferently":14375,"Ġcrimes":14376,"Integ":14377,"Ġconductivity":14378,"basis":14379,"ila":14380,"Ġensuring":14381,"validation":14382,"Ġtidal":14383,"overrightarrow":14384,"away":14385,"Ġincorporate":14386,"gged":14387,"Ġsitting":14388,"Props":14389,"Ġcraft":14390,"Ġstrengths":14391,"ĠAge":14392,"thr":14393,"David":14394,"theme":14395,"Ġachieving":14396,"Ġpreceding":14397,"ĠGovernor":14398,"foreach":14399,")}\\\\":14400,"Ġincorporated":14401,"uli":14402,"Ġneighboring":14403,"Ġannihilation":14404,"Iterator":14405,"}$\\\\":14406,"ĠResponse":14407,"}$};":14408,"ĠAnderson":14409,"Ġcomparisons":14410,"shadow":14411,"Ġminute":14412,"decre":14413,"Mult":14414,"Ġproposals":14415,"tting":14416,"Ġastron":14417,"gas":14418,"oT":14419,"Ġreasonably":14420,"ilst":14421,"ĠNatural":14422,"Ġfinance":14423,"ears":14424,
[...]
