#version: 0.2
Ġ Ġ
Ġ t
ĠĠ ĠĠ
i n
e r
Ġ a
h e
o n
r e
a t
Ġt he
o r
e n
s t
a n
a l
e d
a r
i t
Ġ o
Ġ c
e s
Ġ w
Ġ s
i s
Ġ f
i on
n d
in g
Ġ in
i c
Ġ p
ĠĠ Ġ
l e
Ġ b
Ġo f
r o
a s
ĠĠĠĠ ĠĠĠĠ
o u
Ġa nd
Ġ m
Ġ d
en t
Ġt o
e t
c t
a m
i l
Ġ h
Ġ S
e l
Ġ C
o m
Ġ re
Ġ A
Ġ T
o l
Ġ n
Ġ (
i d
u r
Ġ l
a d
Ġt h
t h
c e
at ion
Ġ M
i v
c h
ĠĠĠĠ ĠĠĠ
i g
i m
Ġ e
u t
er s
u s
Ġ B
Ġ I
Ġ P
o t
a y
a g
u l
u n
Ġ g
e m
Ġf or
Ġ =
i r
o d
< /
o w
i st
ĉ ĉ
Ġ is
Ġ on
1 9
= "
Ġ H
i f
Ġ st
2 0
l y
â Ģ
Ġ R
a c
Ġ D
s e
Ġ v
u m
it h
t er
) ;
Ġb e
p e
Ġw as
Ġ L
at e
Ġ F
o c
Ġa s
r a
an d
Ġ N
Ġ <
Ġ G
a b
- -
u e
r i
o p
Ġ {
Ġ W
Ġ "
Ġc on
Ġw ith
v er
as s
e w
a v
Ġ E
ĠT he
Ġa l
ĠĠĠĠĠĠĠĠ ĠĠĠ
am e
ro m
Ġw h
h t
es s
u p
re s
/ /
u b
or t
a p
Ġ *
Ġd e
Ġb y
Ġ J
Ġa n
ou r
Ġth at
o s
ct ion
Ġa t
e x
e st
n t
al l
p t
č Ċ
Ġ O
er e
a in
ag e
it y
ar t
Ġp ro
en d
Ġ it
Ġc l
Ġc om
il l
' s
Ġf rom
" >
r an
Ġ he
m ent
o re
i es
Ġ }
k e
q u
in e
b er
o g
Ġ or
Ġ U
Ġs e
ac k
u d
p l
Ġe x
l d
e ct
e f
i an
i a
Ġ K
ar d
ur n
c l
p ort
ĠS t
ĠĠĠĠĠĠĠĠ ĠĠĠĠĠĠĠĠ
iv e
a st
Ġ y
i p
( )
ar y
i al
o v
ĠĠĠĠ Ġ
âĢ ĵ
* *
c on
g e
. .
i z
ig ht
Ġ r
20 1
an t
Ġp l
at ed
0 0
Ġc h
Ġa re
ul t
u re
u st
u nd
u g
s p
or d
Ġ Ċ
p er
ic h
i re
Ġth is
el l
Ġcl ass
t urn
on g
ĠI n
r ing
a k
Ġ V
T he
Ġh is
o st
= =
f f
a re
y pe
th er
l i
I n
or m
-- --
S t
Ġ '
g et
in t
ab le
at h
Ġ |
ig n
od e
e ar
Ġs h
ĠC h
i le
is h
r y
ub l
Ġ le
) ,
ex t
o k
ic e
in d
ou t
20 0
Ġ if
or k
ion s
en c
Ġ us
c om
Ġn ot
u c
id e
m er
as e
ic al
Ġ -
s o
1 8
er v
av e
ou nt
r it
e p
ĠĠĠĠĠĠĠĠ ĠĠĠĠĠĠĠ
Ġin t
im e
a ce
Ġ j
an g
Ġcon t
or y
Ġ $
Ġcom p
ran s
Ġa r
p h
on t
e v
e c
at a
Ġre turn
a ct
Ġw ere
ubl ic
il d
âĢ Ļ
Ġ un
Ġwh ich
) .
j ect
o b
Ġn ew
Ġ k
ĠT h
Ġ| |
it ion
i b
Ġh as
Ġ //
en s
Ġa d
ou s
ir st
ou ld
r ic
e g
on e
Ġ </
he d
a il
en ce
ation s
ter n
al ue
res s
a ch
- >
ow n
.. /
Ġal so
r u
" ,
: :
oc k
ĉĉ ĉĉ
l l
he n
ĠU n
our ce
f orm
er t
ĠH e
p ro
in k
Ġ ro
an ce
Ġre s
o ol
Ġa b
am p
Ġa p
E x
re f
re e
c ri
s s
Ġh ave
Ġal l
Ġpl ay
Ġ Y
ent s
Ġ &
t e
el f
c c
Ġw e
ar k
in al
ul l
n g
Ġh ad
ou nd
Ġ @
Ġb ut
om e
n e
Ġ [
Ġ im
Ġ âĢĵ
s h
it e
ĠI t
f ter
un ction
u al
19 9
o ver
Ġwh o
er m
q ue
cl ud
ro w
Ġthe ir
Ġf irst
at es
m l
at er
Ġb o
or s
d iv
ation al
Ġ /
ess age
ar am
Ġc an
Ġp art
Ġt e
Ġt r
a w
Ġon e
i el
( "
ol l
Ġo ut
( );
i ew
w o
ol d
sp an
pt ion
is s
f t
Ġs c
1 0
en er
Ġh er
Ġit s
Ġ up
i e
enc es
an y
f er
Ġn ame
le ct
i o
l and
em ber
Ġy ou
> </
et h
w e
Ġ .
l o
l es
ĠA r
op le
Ġa g
Ġ âĢ
iz e
Ġp ublic
pe c
Ġd is
iel d
ing s
a ke
mer ic
or n
R ef
p ut
Ġp r
ic k
er y
Ġy ear
---- ----
> <
ro up
' ,
s et
ig h
Ġe v
it ed
am es
en g
o se
../ ../
Ġde f
Ġd es
b ut
** **
ad e
re d
on s
Ġw ork
Ġ +
i ed
e ople
i x
p r
Ġp er
Ġf il
y st
Ġd o
Ġ* /
o ot
v el
t t
a x
iv ers
Ġbe en
Ġthe y
== ==
Ġcom m
Ġre c
19 8
Ġs et
Ġo ver
el y
Ref er
le ment
er n
o int
ĠC om
ic s
t r
Ġin clud
c ess
ĠN ew
e b
Ġs p
Ġ :
an n
t y
Ġt wo
an s
ĉĉ ĉ
c he
ic t
u ch
w ard
m s
1 2
ar ch
ke y
P ro
as ed
Ġof f
Ġo ther
on d
u ild
Ġw ill
ht ml
us e
r am
1 6
o id
Refer ences
o y
ro und
ĠĠĠĠĠĠĠĠ ĠĠĠĠĠĠĠĠĠĠĠ
s ource
Ġg et
er r
al s
Ġv ar
Ġm ore
m essage
( '
t s
t on
Ġh ref
Ġt ime
ou g
n c
ur ing
Ġm e
Ġ und
Ġas s
ug h
at ch
Ġa fter
meric an
ar g
d u
E R
1 7
is hed
e y
yst em
ĠĠĠĠĠĠĠĠ Ġ
rans l
Ġint o
que st
s on
Ġc ol
Ġw hen
Ġcon st
N ame
Ġf unction
th is
Ġp re
Ġ #
ĠS e
o od
Ġs he
w ay
o ok
19 7
ch ool
Ġ end
1 5
r ay
Ġa ct
b all
Ġat t
ĠA l
al e
or ld
at or
O N
n ame
c ol
Ġs o
c k
c re
at ic
w n
an c
Ġs erv
ĠS h
Ġt ype
at ive
tern al
b ject
if ic
le t
re n
T ype
as h
I N
Ġp eople
Ġs up
Ġl oc
t d
Ġab out
ar s
a h
um ber
_ _
con d
p s
) )
i ous
im port
ov e
pe ct
C h
R e
a z
Ġad d
at t
I d
ire ct
ol og
is ion
ĠP ro
St ring
Ġre g
Ġw ould
id ent
o h
in s
al se
con t
p aram
Ġk n
ist s
at ing
cri pt
c ent
e e
Ġo p
Ġ en
p os
Ġl ine
/ >
Ġn e
r al
g an
C om
Ġ= >
ri but
19 6
ra ph
as on
le ction
ransl ation
T h
f ig
t o
Ġin ter
ur re
Ġund er
i k
i ent
Ġs ub
C ont
v ent
Ġb et
er ed
Ġon ly
Ġin st
ru ct
d d
C on
ap p
Ġv alue
c ode
re turn
il y
ur y
âĢ Ŀ
ivers ity
Ġbe c
Ġs pec
Ġin d
1 4
it ies
m an
1 3
em b
ĠTh is
l ock
Ġ qu
is e
" />
Ġth ere
Ġc all
ou th
Ġ el
Ġp ol
Ġc re
od el
Ġ ra
R E
: //
Ġn o
t ranslation
i er
in ce
u es
ul ar
a ir
it le
Ġre l
# #
ab l
Ġh im
eth od
ad d
Ġm an
Ġa c
oll ow
ro ugh
or th
Ġc o
d uc
Ġs elf
if e
Ġre m
res ent
R es
Ġth an
Ġwh ere
cl ass
h ip
y s
L ist
ac he
Ġa cc
as k
em ent
oc i
Ġ Z
ĠA merican
ou se
in n
Ġs ome
Ġcon s
a ult
Ġ !
1 1
Ġf e
y le
ĠC l
Ġus ed
ĠI nd
ĠL e
it s
in es
Ġl ink
Ġfor m
v e
i ke
Ġd ata
a id
in ed
p on
ers ion
a j
2 1
Ã ©
ce ption
Ġag ain
we en
A r
re ad
Ġan y
ĠC ol
Ġ ent
ar n
ĠD e
2 5
Ġs er
Ġp os
Ġb ack
S T
oug h
Ġthe m
urre nt
Ġyear s
al ly
. "
ĠA n
Ġin v
Ġa m
at ure
A T
t ype
19 4
u res
u ff
um ent
Ġm ost
f l
Ġg o
C l
Ġpro v
Ġthe n
ra ct
over n
y m
3 0
c o
f o
ag es
f ore
ad er
19 5
Ġ= =
ay s
Ġst ud
it t
ow er
Ġth rough
ĠUn ited
l oc
d er
Ġf ound
or g
Ġte am
Ġres ult
Ġe m
Ġ _
Ġc ent
Ġ Q
iv ate
u th
Ġw rit
ht t
ĠUn iversity
Â ł
2 2
Ġf l
b o
ers on
ĠS c
Ġf inal
Ġ ed
Ġm ay
Ġt ra
l ine
Ġch ar
re at
Ġbet ween
Ġn ull
ĠC on
A R
oot ball
b ack
Ġf ollow
m in
r ad
Ġd uring
) :
Ġt rans
ire d
us ic
ot t
d ef
iv ing
ut e
Ġ i
r id
v iew
"> <
b y
Ġv oid
Ġd ist
s elf
o le
O R
Ġe st
Ġp h
Ġar t
in a
b s
ĠâĢ ľ
t il
an k
o ther
00 0
ib le
od y
ĠS p
Ġs uch
Ġre le
r on
Ġf am
o ber
Ġst art
Ġlink s
an ge
ĠR e
u le
Ġus e
I D
ric t
Ġm ade
Ġl ist
ĠM ar
Ex ternal
Ġex t
) );
Ġn umber
ist ory
Ġh igh
L E
a use
ĠE ng
iv er
Ġc ount
iz ed
en n
oh n
ic es
et s
Ġse cond
b le
ĠI s
Ġplay ers
Ġth ree
p p
Ġf alse
um m
og raph
Ġbe ing
us s
m p
Ġsh ow
st ring
av a
il ity
v al
**** ****
iv ed
ĠS he
Ġg roup
Ġ >
Ġm ed
ion al
s er
et er
Ġ `
Ġfil m
e ver
o f
Ġw ell
ĠE x
Ġtr ue
Ġbe fore
I t
th s
ĠĠĠĠĠĠĠĠ ĠĠĠĠĠ
is m
n b
Ġs ing
e k
Ġd irect
ment s
Ġo per
le y
b um
re am
r ight
ĠĠĠĠĠĠĠĠĠĠĠĠĠĠĠĠ ĠĠĠĠĠĠĠ
s c
Ġwh ile
-------- --------
" .
Ġm in
ĠCom m
Ġs ign
ath er
Ġt est
Ġg ener
V alue
ĠSt ates
Ġrec ord
per ty
p ress
un e
Ġ \
C ol
ĠC ount
t en
Ġr un
ap t
2 4
pl ic
Ġd if
Ġ id
Ġp op
A L
E N
ĠA s
ab el
Ġ )
Ġl ong
Ġel se
om en
ar ly
Ġb uild
a f
H e
c es
ce pt
v ar
ĠP h
S S
nb sp
port s
y p
Ġo wn
" );
iv es
ist er
O n
r r
eng th
t he
ag ue
Ġse ason
.. .
um n
op t
t ext
ro l
Ġst ring
ou nc
ĠP l
g ram
3 2
D ata
Ġs aid
ĠM ay
ĠW h
Ġl ater
Ġ err
ĠO n
ar get
p re
Ġm ov
p le
U n
ĠF or
are d
y n
d ata
" )
Ġd r
Ġv al
w w
ur al
b e
Ġl ike
pl ay
Ġm any
u ro
Ġb ir
f ul
Ġs chool
Ġb l
Ġb ro
ĠF ran
Ġm on
at us
are nt
a i
ut ion
T o
vel op
erv ice
l er
st r
ĠJ ohn
ro ll
ĠJ an
e le
Ġf ootball
==== ====
Ġs ystem
Ġs ur
Ġde velop
Ġ --
// //
v alue
' t
Ġagain st
Ġst r
olog y
Ġst ate
m y
Ġh ow
ĠW orld
Ġinclud ing
ar m
Ġj ust
w ork
Ġ/ **
loc ation
Ġkn own
Ġs m
im es
at s
Ġal bum
ar ri
ĠA ss
d ate
2 3
tern ational
re m
Ġe ver
Ġf our
ĠA ust
ĠĠĠĠ ĠĠ
Ġbo th
5 0
ro id
Ġre p
Ġde c
Ġm ain
Ġap pe
ĠN ational
ro ss
Ġpr ivate
r and
if ied
p ar
ur ch
Ġy our
g er
a ction
t est
iss ion
f ile
S et
ĠJ ul
du ct
ĠO r
l ed
ot e
Ġthe se
h er
Ġs ame
f ield
ĠB l
ak ing
Ġser ies
Ġp ass
Ġm od
ĠĠĠĠĠĠĠĠĠĠĠĠĠĠĠĠ ĠĠĠĠĠĠĠĠĠĠĠĠĠĠĠĠ
ig inal
ain s
C T
ĠC an
p x
Ġc ould
id th
re g
r ist
Ġr ight
it al
i um
uc cess
ĠP r
] ;
Ġt itle
overn ment
Ġp oint
am ed
en se
Ġ ran
emb ers
Ġc ase
ual ly
t ing
Ġbec ame
Ġwh at
E rr
Ġch ild
ĠS chool
ĠB rit
o ad
Ex ception
ĠY ork
Ġop en
ang u
Ġsup port
ĠCount y
Ġest abl
el s
m a
Ġc are
Ġre ce
19 3
ag er
Ġ& &
Ġper form
uc k
id er
ant s
ĠA d
I T
n ew
1 00
if y
Ġn ow
us h
Ġd id
umm ary
a u
enc y
d ay
Ġle ad
ian s
( $
ĠC ar
ĠN ov
Ġsh ould
I nd
ĠâĢ Ķ
D E
i ence
S e
i am
Ġan n
S E
Ġ// /
lect ed
O bject
ĠA nd
Ġev ent
Ġb el
ind ow
Ġre sp
Ġg ame
m ed
Ġm y
ĠW ar
Ġ key
g round
Ġc urrent
u ary
ĠSt ring
Ġl ast
oc ument
ro p
A n
ch n
Ġs ong
Ġst atic
Ġh and
b ar
amp le
Ġ! =
Ġg u
Ġne ed
ĠW est
f ace
Ġe ff
ĠS outh
Ġd et
v en
ĠM an
o x
uth or
Ġe ach
Ġ X
Ġpol it
ug ust
con st
i or
A N
he ck
Ġun til
2 6
S h
un c
Ġdes ign
ĠC ent
Ġap p
l p
p or
f or
in ter
Ġdif fer
Ġre qu
() .
T est
r is
ord er
Ġfam ily
Ġcont in
Ġs im
Ġde ath
ĠA t
ac es
G et
ain ed
Ġl ife
Ġm usic
2 8
l ist
Ġ %
col or
pt ember
al k
B y
ical ly
2 7
Ġre ad
ĠA ll
' )
Ġre t
C O
ul ation
ĠO ct
() );
n er
ĠG erm
iz ation
com m
in ess
et y
Ġcall ed
Ġm ake
l og
al th
Ġdes cri
ir d
f ess
M E
r c
Ġm et
ra w
ĠR es
aj or
our n
K ey
it er
amp ions
s cript
Ġhe ad
t ime
| -
re ak
Ġ x
om an
Ġo bject
Ġcomm un
p ublic
Ġfollow ing
201 8
s ide
201 0
l ink
ĠM arch
ward s
it ions
20 19
il t
Err or
Ġbo ok
n av
Ġoff ic
V iew
pr il
ĠP ar
form ation
Ġse ver
s ize
' ]
ĠT r
ĠA ugust
os s
res ident
iv en
Ġs l
Ġf ield
htt p
Ġloc al
201 6
201 5
Ġo ur
m ber
Ġde p
an e
Ġw orld
du ction
ĠSe ptember
Ġbec ause
Ġor gan
ur l
o ff
it or
ial ly
4 0
Cl ass
id d
Ġpl ace
lo ad
. _
id ed
ĠJ une
u k
ĠĠĠĠ Ċ
um b
l ish
" ;
Ġs ince
ĠJul y
ĠG e
Ġf in
2 9
m e
a e
ut il
b ed
b r
ist or
le ge
Ġpro gram
ic ip
le x
l ob
re en
Ġare a
ĠJan uary
201 7
Ġor g
201 4
Ġd own
ĠOct ober
Ġa v
g o
i ev
ĠP ol
j s
se arch
ep end
ĉĉĉĉ ĉ
. </
a pe
201 1
A l
ĠAust ral
Ġim port
ĠR eg
"> </
end ed
w h
ate g
ind ex
Ġchar act
ir c
ĠE uro
com e
v ision
d is
ĠH ow
al es
on y
in c
Ġb u
P l
I m
Ġdis c
A s
is ed
ce mber
che s
ur s
Ġw on
Ġp ar
end s
Ġf ile
us iness
Ġm ark
201 3
ĠA pril
it em
ĠB e
Ġre f
201 2
duc ed
en e
Ġle ft
n ot
N ot
Ġar g
ur g
Ġex p
ast er
ĠC ity
b orn
ĠSt ate
am ent
f unction
ect ed
angu age
un g
Ġto p
[ '
ra p
Ġst yle
ĠG u
Ġm ethod
ĠN orth
Ġus ing
Ġrele ased
ĠC al
Ġplay ed
pt ions
Ġfor mer
ord s
A C
m od
Ġt ri
o th
al ity
Ġp erson
Ġever y
ĠThe y
s ummary
ore d
t op
Ġv is
ĠNov ember
=" ../../
6 4
Ġor iginal
Ġp rom
Ġc ity
p ace
Ġo ld
=" +
Ġre fer
v ers
av ing
() ,
Ġb ased
! --
d e
" :
U L
ak es
ther n
' );
ĠA m
uff er
ĠY ou
Ġp ubl
ĠW e
ĠBrit ish
ill ion
ĠE d
l ing
le g
am b
Ġev en
iv al
Ġall ow
ĠDe cember
Ġf r
R O
op y
Ġc or
Ġl aw
Ġ eng
Ġsever al
Ġdo es
Ġa round
Ġ/ >
Ġin it
em pl
ĠW ill
eb ru
ĠT e
Ġn ear
ol v
il it
u ed
ĠA f
ebru ary
ĠU S
Ġre st
r ation
et work
Ġp ost
Ġe arly
og le
ack age
Ġap pro
ĠC o
Ġpro cess
Ġo cc
200 8
S ee
Ġv ery
ograph y
19 0
200 9
ampions hip
M an
ĠLe ague
id es
F ile
3 3
Ġa ut
ap an
Ġs uccess
S c
v ious
ide o
p ath
Ġw omen
s k
Ġc our
ar ge
y l
ac ed
Ġsm all
Ġbir ths
ĠI f
ĠCan ad
Ġhe lp
b t
ĠK ing
Ġth ose
Ġm embers
6 0
h am
as es
Ġim p
ĠEuro pe
I nt
ĠI I
qu ot
in ing
cent ury
Ġd ay
Ġg overnment
ribut e
ĠR ep
I ON
Ġh ome
ain t
Ġl and
cri ption
Ġt erm
Ġw ay
ĠF l
ra ft
Ã ¡
ard s
Ġal ong
Ġle g
ction s
Ġdiffer ent
] ,
st er
u i
200 7
ur ation
pon se
L A
Ġv ersion
Ġd el
w it
Ġl a
z e
T r
P E
n ess
v ir
g roup
Ġcomp et
T ime
} ,
F or
Ġn ext
Ġst ill
ĠF ebruary
. ,
ĠP art
Ġre quest
Ġn on
um er
E vent
Ġp o
ĠCh rist
200 6
Re quest
ĠM in
Ġth row
/ *
st it
sh ip
Ġpro ject
ren ch
ne y
Ġex per
T ext
m d
ord ing
Ġass ert
in ation
F il
W ith
D es
ust om
at ely
Ġc ar
ĠB ar
Ġcomp any
Ġp resent
Ġ ?
an a
Ġto wn
Ġfil ms
Ġserv ice
ĠM ed
Ġpro t
Ġ );
A dd
oc ial
Ġsing le
Ġex pect
Ġm ember
Ġre port
us ed
I C
Ġc ap
a im
Ġcare er
T E
Ġs ize
es e
Ġ ,
O r
u f
Ġst ruct
ĠH ar
Ġf ind
m et
F orm
ver t
ĠM c
Ġwith in
Ġm uch
ĠA b
T R
c ast
Ġst and
he ad
Ġm odel
qu al
Ġm at
re w
re t
Ġinclud e
] .
Ġn amed
E lement
Ġt ext
P ath
N ode
/ **
d es
le ar
Ġis s
18 9
Ġm ajor
20 00
our ces
Th is
Ġle vel
ition al
em pt
i et
Ġse e
Ġs ol
le ft
A merican
i od
st ance
Ġkn ow
Ġe lement
E n
Ġwe ek
he s
ĠE l
Ġl ook
Ġs k
In fo
It em
Con fig
ĠA fter
Ġg iven
Ġj o
ific ation
Ġhe ld
Ġbe gan
Ġte le
htt ps
ĠN o
ou n
D ef
ip p
8 0
r ide
ole an
f il
ad em
() )
um p
A ll
Ġor der
us er
Q u
Ġp at
Ġto ok
od es
ĠH is
s ub
Ġan other
ok en
ar i
l ess
` `
ric k
Ind ex
Ġbe st
Ġrep resent
Ġp ort
Ġcl ub
ĠD ist
A P
F F
P aram
g y
M ap
Ġad v
O ver
ĠEng lish
um an
St ate
ond on
Ġsh ort
Ġc r
Ġf act
Ġh ouse
a ut
' :
Ġd em
il le
ap i
ect or
ay out
in o
Ġcont ent
Ġb ase
Ġ-- >
Ġp ower
ĠJ apan
Ġ z
ent ly
Ġp aram
Ġv iew
con fig
is on
ug g
t able
a it
A tt
Ġb and
ess ion
Ġal ign
w rit
ri es
iv ely
Ġm en
Ġm ust
Cont ext
Ġv ill
ĠS up
w are
tt p
re st
Ġg ames
ain er
d om
Ġt arget
f ord
ĠA ir
F ield
pl oy
a ul
Ġg ood
or ies
oci ation
ĠH igh
l ength
Ġt ake
ĠAf ric
Ġch ang
Ġin cre
C ode
v oid
Ġin formation
on es
Ġpos s
ed er
ic on
nd er
et ers
anc es
b l
com p
200 5
con om
ĠS er
Ġh istory
Ġd ue
ames pace
Ġ( )
Ġrece ived
oug ht
ĠTh ere
in clud
Ġw ant
al t
Ġchild ren
Ġn ational
Ar ray
ĠE n
Ġs om
ac y
ĠR uss
ĠĠĠĠĠĠĠĠĠĠĠĠĠĠĠĠ ĠĠĠĠĠĠĠĠĠĠĠ
ic le
Ġc amp
ail able
S ervice
W h
I s
re et
ĠS ystem
ĠH er
k s
ĠL ist
a ff
Ġestabl ished
end er
U R
Ġ( !
Ġd iv
Ġloc ated
Ġ/ *
f in
Ġt yp
## ##
ev el
ure d
N ew
d t
20 20
Ġf ail
lob al
Ġpro fess
ur ther
Ġb usiness
ĠE ast
op s
plic ation
Ġar ray
Ġerr or
op h
ag s
Ġl og
n ing
ag ed
******** ********
ĠCol lege
ol ic
ĠL ondon
al d
al f
âĢ Ķ
Ġe p
t itle
if t
art ment
Ġbu ilt
ĠP ark
ot s
p en
Ġpos ition
ing ton
w ord
B uild
Res ult
end ing
Ġs pe
err or
pon ent
e ad
Ġcomp let
ou ble
ĠCh ar
th ers
he m
Ġdef ault
Com m
ign ed
ap ache
al y
l ang
Ġ es
i ef
re qu
Ġex pl
m ap
m en
Ġt ry
200 4
tr ue
Ġm atch
ounc il
ĠHow ever
ru ction
Ġwith out
Ġpop ulation
Ġpubl ished
Ġed uc
Ġa ge
' ;
A D
ĠD r
l t
Ġf ore
Ġcre ate
ob ject
pl ace
ug ht
ul es
Ġm ult
per t
ĠA meric
Ġl arge
ain ing
n a
Ġeff ect
Ġs ix
Ġd on
ĠAr t
ĠWill iam
ur ity
ilit ary
ĠD av
ĠR ec
f rom
Ġ} ,
Ġs ide
Ġe lection
Ġte chn
ĠF rench
o pe
re ate
um mer
Ġst ation
" "
Ġf ive
h old
b ody
ens ion
us ing
way s
ear ch
Ġ} );
A S
ĠG ener
i us
ĠH ouse
y nc
et urn
y d
Ġa ir
row n
um e
ĠC or
ass ert
Ġb reak
ac hed
Ð °
Ġb lock
ĠCom p
Ġbe g
Ġb orn
Ġcent ury
Ã ³
Ġto t
Ġplay er
ĠA ng
ict ion
ww w
Ġt urn
Ġre al
S ize
is c
Ġact iv
Ġserv ed
ĠC ont
Ġa uthor
Ġcharact er
b lock
U T
ec ut
ĠB ro
Ġl ate
ĠL a
ĠB o
; &
our s
st ruct
abl ed
I G
ĠCh ampionship
res ult
c ed
Ġw ater
st ate
Ġth ird
ib r
Ġcomm and
="../../ ../../
t a
Ġin s
Ġh ere
Ġ ke
O f
ĠS w
Ġtr ack
= '
Ġc rit
ight s
Ġf ew
inn ing
er a
I S
Ġro le
at ors
3 1
rid ge
ĠA g
Ġcount ry
in put
ly mp
Ġde v
att le
ater ial
Ġ Ð
at ures
g ress
d own
f r
4 5
Ġ enc
Ġw ar
ĠM e
L O
th ough
ĠI m
Ġpre vious
Ġinclud ed
Ġbuild ing
Ġl arg
ne ction
itt le
ĠA ct
L oc
ay er
v ersion
Ġ ident
arri ed
//// ////
pro t
o on
Ġin c
Ġtele vision
3 5
Ġbe h
M essage
s w
Ġc a
Ġe lect
m odel
ĠDist rict
Ġa ff
vir on
H and
A cc
Ġc ode
ĠO ff
g ed
it ive
Ġper iod
Ġar ch
[ ]
i que
cre ate
ĠPh il
th ing
Ġf ull
ĠC up
Ġk ill
âĢ ľ
. âĢĿ
empl ate
ĠB ut
ĠGerm an
in fo
Ġc heck
j ava
ag ement
Ġp ath
em s
i ber
ĠIn ternational
Ġh ost
ĠN or
Ġspec ies
Ġus er
ent ial
press ion
Ġcont rol
Ã Ń
> &
Ġe qu
ann el
er ing
g t
} ;
Ġv ol
V al
IN G
7 0
F rom
ĠS ch
r un
Ġj ava
ĠP er
E T
Ġf ac
Ġ __
ĠĠ Ċ
Ġappe ar
S er
18 8
A ss
200 3
um ents
Ġl im
om in
Ġcre ated
M L
Ġf lo
Ġd ocument
ol ution
and roid
Ġp e
Ġacc ess
bo x
Ġdescri bed
ad io
ra in
if orn
200 1
Ġc ult
+ +
E D
min ist
ĠB y
O ut
n ode
Ġle t
ĠM ich
ail s
it es
ĠS an
l s
im ent
cont ent
pert ies
Ġs rc
li ent
6 6
def ault
am a
C H
u x
Ġs ite
ĠG et
Ġd ied
ĠD es
ic o
le te
ĠE m
w idth
n et
iforn ia
or ge
D e
Ġtot al
n ect
os ed
ĠA c
at ri
ic a
Ã ¼
G roup
Ġd i
Ġof ten
7 5
p oint
Ġc over
l in
Ġn orth
ĠInd ian
s l
Ġcon fig
U p
ĠD ep
b ase
M P
ar a
Ġav ailable
Ġre search
oci ety
Ġm illion
Ġinter est
Ð ¾
200 2
Ġatt ack
c ss
, "
pos ed
Ġcon c
ounc ed
20 21
ab ility
Ġf ri
U S
Ġtr ad
Ġinv est
A nd
Ġg en
Ġst ory
C ount
ott om
ab or
U N
Ġm ag
ourn al
R eg
pr int
in it
oc r
Ġam ong
on se
Ġex ample
u el
ĠS m
ĉĉĉĉ ĉĉ
al ign
ĠT o
Ġst at
c ount
Ġ= ==
n o
ref er
A d
c all
ĠV al
Ġs on
s m
T D
use um
ith er
=" #
Col or
n ow
includ e
re c
Ġspec ial
b urg
Man ager
ĠEng land
L og
Ġyou ng
ir t
t ings
Ġth ink
Ġan t
ĠD iv
ĠR ev
Ġfe ature
ĠAustral ia
UL L
9 0
M odel
R ec
Ġro und
Ġc ell
E nt
Ġp res
Ġc ame
o ke
E S
ent ion
ĠQ u
oy al
og n
at ter
=" ../
T rans
read y
---------------- ----------------
Ġvill age
viron ment
ĠCal ifornia
Ġresp onse
ĠR iver
P r
land s
L iving
ĠQ ue
i ol
A B
t es
Ġch ange
H istory
ĠO ne
Ġ et
Ġcommun ity
a el
Ġcont ext
Ġt em
cont ext
Ġstart ed
Ġadd ress
Ġh aving
A t
Ġs ay
Ġev ents
l abel
Ġg reat
Ġcomm on
In ter
e h
op er
Ġv ideo
Ġdevelop ment
b ol
Ġ} ;
Ġt imes
un k
Ġs ource
P eople
if f
Ġde st
Ġeng ine
Ġp arent
av y
Ġcon f
Ġs ent
ĠRep ublic
o ice
D O
9 9
Ġs outh
Ġbe come
5 5
Ġb ody
Ġcl aim
pl es
p ackage
Ġcon d
re ed
3 4
f alse
iv il
ap s
; </
ap er
idd le
st art
F l
ab ly
ix ed
roll er
ĠPart y
Ġgener al
Ġl ed
S ystem
Ġp ri
Ġg l
Ġp ut
id ual
Ġex ist
ĠA p
i j
Ġne ver
======== ========
Ġh istor
ĠW hen
we b
m ethod
P h
Ġn ov
il ar
Ġin ternational
ĠW ith
A p
os p
Ġpr im
C all
re l
ut ure
Ġm iss
199 0
Ġvar i
pro v
Pro perty
ak en
st and
Ġl ess
is ing
Ġb order
val id
Ġwrit ten
I L
Ġpro duction
ĠP ort
Ġw ent
Ġmov ed
Ġin put
Ð µ
Ġb as
ĠInd ia
ĠAmeric a
ct or
Ġinst ance
y ear
Ġcol or
Ġreturn ed
B C
h a
Ġo ptions
def ine
3 6
ou d
ĠA cc
Ġs old
Ġinv olv
EN T
Com p
Ġd ays
al a
eg er
ic ro
if ier
Ġpro perty
ĠM on
T H
b uild
st yle
Ġt w
Ġf em
Ġf ree
T able
w ith
ĠP resident
ic ular
Ġoffic ial
ran t
Ġ u
go ogle
Ġt able
B ar
ĠC our
199 9
Ġa ction
Ġ: =
3 9
ĠR ed
N A
W e
Ġann ounced
Ġind ex
emb ly
ĠO lymp
Ġm essage
Ġd a
ot o
ert ain
Ġwork s
Ġf ather
U ser
C lient
M A
S p
Ġdist rict
se e
ell ow
ip s
F A
Ġm ale
b or
Ġran ge
) </
se qu
n own
ad o
ĠĠĠĠĠĠĠĠ ĠĠĠĠ
opt ion
d b
4 4
ĠS et
ĠA ward
Ġw est
Ġh old
oc us
Ġst d
pos ition
3 8
Ġm ax
M od
om b
20 22
pt y
Ġpolit ical
qu als
ut es
Ġint ro
Qu ery
one y
Ġcom b
Ġs ocial
C E
Ġvar ious
ĠF il
ĠA nt
Ġserv ices
u it
Ar g
v es
ac ing
ĠCh urch
Ġp ract
g es
Ġpro duct
Ġg rad
m ark
Ġrequ ire
Ġep is
fl u
A fter
G ener
d oc
ir m
ev ent
Ġg row
Ġe ar
ab les
Ġind ust
ro y
Ġdeath s
Ġn il
h an
Ġm em
Res ponse
ith ub
O T
3 7
ibr ary
arg in
ĠB er
< !--
Ð ¸
act ory
ig ation
Ġo b
h ib
st atic
> (
ĠFran ce
ro te
O ff
Ġw in
ĠC ouncil
ĠB r
I P
Ġto o
F r
B ut
ĠG o
ĠI nt
Ġa ward
Ġw he
Ġback ground
Ġm er
c le
i ers
ic ense
t rans
cent er
it te
Ġimport ant
b ook
E d
g color
Ġb ool
Ġstud ents
ill s
im ate
en ame
ĠB el
ĠCanad a
Ġe ast
Ġse c
it ect
ist ry
ĠJ ames
ĠSt ud
Ġpoint s
ĠâĢ ĺ
che ck
Ġ Ã
Ġpro duced
Ġwork ing
ym bol
ĠD em
6 5
d ev
ĠAr my
at ab
Ġof fer
Over ride
ĠG l
Ġe conom
id ence
E m
p ed
fer ence
it u
Ġre view
ĠĠĠĠĠĠĠĠ ĠĠ
Ġresult s
Ġestabl ish
Ġto get
at form
itt ed
Ġn etwork
ag o
Ġreg ion
erm an
Ġtoget her
ĠGener al
an ish
ĠSt reet
Ġpro ble
fin ished
Ġand roid
Ġm aking
Ġn ode
Ġp age
Ġh alf
Build er
ĠP al
Ġme et
18 7
Ġ ide
Ġin div
Ġc apt
Ġl anguage
v ille
in ary
Ġh uman
ip le
ib ility
h and
ic y
n amespace
ĠS ec
ĠS en
ĠM or
ĠR ober
ĠThe se
Ã ¶
o o
Ġwe bs
c ore
ĠCl ass
M ethod
ud e
olog ical
Ġ Â
f e
W rit
ĠM y
Ġp ay
N o
ĠEurope an
orm al
g ithub
Ġan im
Ġl ow
a ur
le ase
ĠR oman
ĠTh om
e an
4 8
Ġde but
Ġb gcolor
he l
ĠP aul
S ub
Ġf und
arn ing
198 0
c er
Ġal ready
Ġde cl
ĠDav id
Ġs w
a ign
ĠN e
Ġatt empt
ic les
199 8
Ġpart icular
it ar
c hed
ĠR ich
Ġh app
an ies
m ost
St ream
Ġsup er
Ġc oll
Ġgo ing
o e
y les
Ġac ross
D ate
S P
ĠGe orge
Ġval ues
Ġpolit ic
st on
U til
se c
Ġf urther
s up
Ġp resident
n ext
Ġl ight
Ġwork ed
inn er
m ax
y a
c ell
qu ery
Ġstud y
Ġmed ia
id s
opt ions
ers hip
at al
ra b
bo ard
Ġrequ ired
ĠM al
Ġdis play
] )
Im age
Ġc ost
j av
et t
Ġindiv idual
stit ute
Ġhe alth
ef ore
n ull
i ents
Ġrele ase
ĠG roup
Ġpro duc
Ġapp oint
epend ent
Ġm ilitary
Ġrel ations
ĠA dd
ĠĠĠĠĠĠĠĠĠĠĠĠĠĠĠĠ ĠĠĠĠĠĠĠĠĠĠĠĠĠĠĠ
r up
Ġpop ular
Ġon ce
un finished
Ġpart y
E nd
, âĢĿ
ou thern
Ġass oci
id a
ĠH ol
Ġa way
e al
In put
0 1
Ġimp lement
w est
Ġl ive
ak er
Ġpart icip
n s
un icip
199 6
Ġsim ilar
Ġpr int
Ġw rote
Ġinst all
Ġbel iev
ra z
ĠD on
Ġb ig
Ġhow ever
ist ic
Ġf ar
Ġgroup s
ĠT est
ph p
Ġcons id
ĠS k
Ġro ad
ce ed
M et
ar ies
ĠD o
l im
Ġcl ose
d o
Ġh ttp
Ġle ast
b it
D I
ĠAss ociation
D is
g ing
P I
im age
Ġo thers
li b
ĠD ef
co pe
al ian
av es
v is
g en
il es
Ġem ploy
Ġ quest
Ġl abel
act ive
en ed
ĠM ark
re quest
d ir
an el
and er
k a
an ia
ĠDiv ision
ĠL aw
id ing
i res
Ġacc ount
ON T
ri an
Ġsur v
Ġdef e
c urrent
ĠF irst
Ġth ough
ĠN ULL
Ġra il
em ents
ree k
ĠCent er
ĠT rans
cl ient
f unc
Ġe ither
Ġl ost
ver age
it ing
199 7
Ġstr ong
iv ity
ash ington
] (
ĠBl ack
Ġadd ed
ars er
ĠR oyal
wit ch
j o
l ight
Ġm arried
Ġ- >
ĠN ot
m on
z er
In stance
Ġjo ined
wo od
ĠCh ina
k ed
Ġm ove
Ġmark et
Ġsp ace
ĠS im
il i
or age
un n
ĠUn ion
ĠM ount
ch o
ĠL ou
O S
q l
ĠM ag
ĠT ra
Ġbl ack
r d
ur b
Ġcol lection
ar ter
ateg ory
Ġm ot
St atus
itte e
Ġdirect or
ĠGerm any
Ġm id
Ġh ard
ch ange
N S
Ġl o
Ġre pl
bs erv
ĠH all
A ct
B ase
but ton
197 0
N av
ĠM art
Ġwebs ite
ĠS o
T oken
Ġbo olean
s y
Ġke ep
ĠIn ter
k en
Ġprov ided
Ġc ustom
Ġ< <
oun ter
ish ing
E L
Ġab le
Y PE
ugg est
p ly
Ġare as
g in
Ġp ast
199 5
Ġpl an
d l
C A
âĢ ¦
o z
ugh ter
is l
ĠAustral ian
F I
Ġar r
Ġph ys
Ġsign ific
ĠĠĠĠĠĠĠĠĠĠĠĠĠĠĠĠ Ġ
ef f
at ural
p age
Ġopen ed
ĠM et
Ġteam s
Ġst atus
ĠCour t
Ġd ate
ĠM ont
Ġconsid ered
Ġs qu
ch ild
atab ase
Ð ½
ĠS am
L ine
Ġad minist
A ction
Ġeduc ation
ell ing
E X
Ġme an
ĠAr ch
ĠM usic
4 9
ĠT V
Ġb i
ran ch
Ġab ove
O P
Ġf ire
Ġt re
un ch
Ġde g
ri a
Ġout put
il ities
add ing
Ġse par
ĠP e
ĠR oad
Ġprofess ional
Ġs ound
ic ation
c is
sh ire
Ġre d
h as
ar ray
ĠD i
Ġsuccess ful
ach ing
Ġh on
Ġbro ad
Ġreport ed
Ġsong s
m ar
at ory
as ons
un t
li ament
h ost
ask et
l or
Ġro ck
S ource
Ġadd ition
umn i
ft ware
Ġposs ible
ĠU p
arg s
4 7
eb ug
an i
Ġl ittle
ou ch
eth ing
Ġl ength
Ġch urch
al ys
im um
en a
Ġw idth
as c
ug in
O L
Ġcom e
Ġf all
Ġp ress
Ġinit ial
Ġbet ter
Ã ¤
199 2
Ġm aterial
he ader
P os
Ex t
Ġv ot
ĠU K
Ġst op
art s
Ġal ways
Ñ Ĥ
es h
B lock
am ily
ot a
C C
Ġv ict
ines e
x y
Ġa ud
Ġs ays
Ġse en
cl us
ĠM ex
est ival
ĠM ary
Ġim age
m ing
N ull
Ġm ight
E ng
Ġfr ont
ĠComp any
199 4
ul ated
Ġperform ance
g r
Ġm ap
Cont ent
ens ive
Ġj ob
med i
e lement
ĠW ashington
Ġra ce
Ġro w
ar ian
R A
ĠAc adem
and id
Ġprov ide
A pp
Ġcomplet ed
I f
Ġw indow
6 7
Ġfe atures
Com ponent
Ġcontin ued
ot ype
at ives
Ġset t
pl it
ĠDep artment
( {
O per
C K
ĠJ ack
ĠP at
ial og
Ġc al
as ing
18 5
ribut ion
Ġrec ogn
lect or
Ġc ast
Ġg round
t x
ĠCl ub
Ġoff ice
Ġin f
and s
Ġ" ""
( (
ul a
ĠComm un
y cl
i qu
ĠĠĠĠĠĠĠĠ ĠĠĠĠĊ
Ġac cept
Ġv oc
Ġright s
x ml
Ġt en
eder al
Ġin flu
du ce
Ġv ia
Ch ar
l a
ĠS ing
[ "
res p
air s
ĠD uring
Ñ Ģ
M S
Ġl iter
Ġcont ract
r s
c el
Ġexpect ed
Ġt aken
.. ..
C ell
ĠS ociety
Ġcomp anies
Ġc irc
ber g
Ġprom ot
ail ed
Ġmon ths
E qual
Ġl ik
iz er
Ġg ot
t arget
00 00
ĠIs land
Ġor d
Ġshow s
Ġsign ed
com ing
Ġex ecut
p arent
Ġp ot
Ġc ross
Ġre ally
Ġhim self
overn or
Ġt our
ĠP ri
ic ial
Ġprot ected
Ġst ar
j son
Ġcomp os
Res ource
id get
ag ing
Ġinst ead
ĠF rom
ĠV ir
Ġw ife
E E
ud d
Ġdevelop ed
ĠPro v
U E
= #
Ġit em
k nown
u z
G e
Ġd one
nav bar
it ch
199 3
st ream
ĠIn stitute
Ġind ic
ĠAng el
he ight
ĠM iss
ĠH en
app end
om et
ĠG ames
Ġb ar
I I
ig in
ĠP ress
Ġinclud es
U s
ra ce
Hand ler
ĠT own
Ġf ight
à ¤
s pec
Ġres pect
ĉ Ċ
B ack
row ser
Ġd er
Ġv iol
RE F
F unction
W indow
ĠSc ott
ĠB est
O ptions
Ġresp ons
ad a
re ct
ĠS l
ribut es
bt n
ĠKing dom
R un
ov ed
ec k
ist ics
ĠAfric an
und le
Ġs uggest
oc ol
Ġcamp aign
Ġe le
p ite
B e
196 0
Ġme as
ol it
ĠM ac
osp ital
Ġsub ject
ĠT ur
P oint
ĠCanad ian
Ġn ight
lo at
ĠG r
Att ribute
d a
Ġd ouble
er o
ens us
Ġval id
in i
T ask
ĠC ong
ribut ed
ĠI N
Ġl oad
0 5
Ġst ep
Ġplay ing
o res
b a
ĠA lex
Ġme ans
ĠG reen
L ink
Ġc ur
Ġ+ =
A G
LA SS
ĠĠĠĠĠĠĠĠ Ċ
ĠT ex
Ġph ot
Ġa verage
Ġrecord ed
Ġmod ern
199 1
op en
Ġact ive
Ġent ire
Ġ( "
r l
Ġt ro
pt r
f inal
Ġst age
f irst
erv e
Th ere
F irst
Ġo ption
Ġnov el
Ġf uture
Ġcol umn
Ġass ist
Ġwh ite
enc ed
ĠAfric a
b and
Ġm other
5 00
ad ata
ra el
4 6
pro perty
al let
ĠC ath
Ġcent er
S pec
4 2
Ġm ar
asket ball
Ġsignific ant
ĠRober t
on a
ap ter
Ġd am
Ġl iving
h ood
Ġcomp ut
Ġin j
B uffer
alys is
Ġp ur
ĠTh at
e ction
Ġt reat
H E
ĠL eg
b b
ĠV ol
ĠĠĠĠĠĠĠĠ ĠĠĠĠĠĠ
ust er
ĠM useum
Ġf av
ĠDem ocr
ĠD ay
ch iev
. )
Ġc le
im ately
ĠB ook
F actory
Ġalbum s
un s
0 8
Ġdet erm
Ġappe ared
ĠD el
| |
st ra
ĠMich ael
ew ork
ĠM ad
ĠS al
Ġth ought
Ġk m
ĠC ons
Ġp red
le vel
evel op
ĠJapan ese
p ass
ĠG old
c ase
ĠG rand
Ġh ous
0 7
" ).
ec ess
p ost
Ġb ank
V ersion
P art
Ġab s
Ġdirect ed
Ġre v
Ġl ove
am ples
Ġcl ient
ĠY ear
Ġqu al
Ġcurrent ly
el t
ĠCent ral
T O
Ġres ource
i os
Ġde al
ĠThom as
fl ow
Comm and
M ed
irt ual
ĠH istor
Ġe lected
Ġhe ight
} );
ĠJ ust
H T
ber t
h i
erv ices
Ġschool s
is es
St art
ĠRuss ian
p ack
Ġc atch
ĠD irect
che ma
pect ed
ĠR eturn
Tr ue
Ġro om
ict or
ĠO bject
Ġconst ruct
H el
Ġwhe ther
pl ied
ĠJ ew
Ġfound ed
Ġb en
ed y
u a
m ember
f ont
Def ault
c a
am ic
Ġloc ation
he st
Ġse ction
" ),
ĠRec ords
N umber
Ġ ...
ĠB ay
ĠChrist ian
Ġcharact ers
Ġarch itect
s g
rup t
Ġ ill
as y
* /
Ġsom ething
St yle
str ong
6 8
V ER
in st
Ġfri end
Ġle ague
r ish
S C
Pro v
ĠT om
f ind
Ġappoint ed
ac ity
er ry
Ġn ames
pr ivate
ĠS ub
ĠAcadem y
Ġc opy
Ġo pt
ro s
re y
Ġbir th
b ottom
us es
s rc
ĠZ eal
ourn ament
Ġs il
ache s
mod ule
ock et
Ġdif f
il er
Ġ{ @
Ġe ight
ĠWest ern
ĠD is
c an
Ġt ax
ran ge
198 9
ĠR ail
Ġchang es
ram ework
Ġbo x
ĠS ervice
yp es
ĠZeal and
Ġd om
C o
O D
ĠWh ite
az ine
im g
Ġgo al
Ġpol ice
Ġc ou
AT E
Ġst ri
Ġgrad u
i ation
Ġg r
ĠO ut
Ġd raw
Ġt er
Ġse arch
st atus
enc ies
Ġbel ow
Ñ ģ
g le
y th
$ {
p art
Ġform ed
Ġs af
Ġn av
Ġg ave
el ine
Ġs ex
ab s
ĠS ummer
ire ction
Ġfootball ers
as cript
b ased
th let
id ents
ĠN one
met a
R ow
ĠW eb
ur a
if act
Ġcomp on
198 8
ĠTex as
ĠCar ol
ĠCh inese
0 9
Ġreg ular
ch an
Ġform at
Ġcon duct
ĠK ore
Ġf ig
p ose
so le
P re
ĠIt alian
ĠVir gin
P RO
Ġspec ific
ĠNew s
Ġbook s
Ġac qu
ob ile
or a
g ener
ĠMin ister
av en
he et
ĠLou is
Ġen vironment
Ġg ive
Ġepis ode
Ġc lear
Ġtra ining
ĠChar les
l ast
Ġs ports
" ]
at re
ĠM er
Ġda ughter
Ġj ud
ĉ ĠĠĠ
Ġm us
ĠG reat
S up
ele te
p ush
Ġperform ed
od ing
Ġp ers
L abel
ar ing
Ġpro b
r ated
Ġc ertain
re land
ound s
or ing
ĠA pp
Ġcour se
P age
Ġlead ing
Ġs em
ent ry
ĠS ome
Ġr ather
Ġdesign ed
Ġgu itar
ĠE ar
R eturn
Ġ ens
Ġth ings
Re ad
Ġwrit ing
ĠD an
ĠP ublic
anc ed
ĠH am
ly ing
con s
ĠW ork
iz ing
Ġr adio
writ e
Ġrun ning
Ġc ut
row s
Ġal umni
all s
ic an
Ġthrow s
i ences
Ġal though
Ġm ount
F ONT
Ġfollow ed
ch ar
mer c
Ġt ask
Ġn eg
L ast
duc ation
ou l
res h
cre t
Ġrel ig
Ð¾ Ð
C an
Ġn or
R ep
Ġfin ished
E quals
L e
back ground
st d
Ġk ind
Ġmon th
0 6
ĠM us
am s
Ġh om
ĠT ri
st ract
y e
Ġcour t
I M
) {
li ke
in ition
Ġse lected
0 2
ĠW il
Ġb ring
ir l
8 8
ro ad
ĠG od
Ġnew s
C heck
Ġco ach
U I
Ġwrit er
B A
Ġd ram
a ud
dis play
Ġelement s
d r
Ġp ain
Ġocc ur
198 7
Ġup on
ol f
} )
Ġm argin
Ġm ass
Ġp ark
Ġt alk
pp ed
Ġcons ist
Ġcon v
ĠB ill
Ġacc ording
Ġoper ation
ag n
G L
is k
Ġv ers
C reate
Ġm oney
Ġkill ed
Ġst ream
Ġp erm
b our
ue st
Ġc red
Ġcl os
i i
Ġcontin ue
Ġfe el
Ġam ount
A m
ĠT or
Ġbeh ind
Ġbo ard
Ġst ates
ĉĉĉĉ ĉĉĉĉ
Ġmult iple
A b
irc raft
ĠOlymp ics
Ġear li
Ġconst ruction
l anguage
al ed
ĠB en
des cription
uf act
Ġ( $
Ġto day
ĠF ootball
AB LE
il ies
ĠF ore
ist an
Ġdisc over
ian t
Ġbuild ings
0 4
Ch ild
ĠC he
Ġinvolv ed
Form at
Ġpl aces
om a
Ġassoci ated
end if
cl ose
o ch
ig ital
Ġext ends
Ġc andid
ĠO pen
P er
B l
g rad
Ġtra vel
Ġthrough out
men u
p c
Ġl oss
ĠSup er
ult ure
Ġj ournal
Ġcont ains
Ġs aw
y nt
ĠSm ith
Ġcount ries
Ġb it
Ġsc reen
Ġfem ale
Ġindust ry
Ġin ternal
ag on
M ar
Ġs itu
7 7
ĠFran cis
ri ef
form at
Ġfor ce
he ast
S ON
i as
por ary
idd en
ĠR ob
Ġal most
Ġtrans fer
( &
Ġen ough
Fil ter
pro ject
N O
Y ou
arn ed
ell s
im al
Ġout side
ub e
Ġf a
Ġg lobal
Ġchang ed
Ġf ood
W eb
198 6
} }
Ġeff ort
Ġcons ider
Ġallow ed
Ġrelations hip
app ing
vers e
se ction
ĠE v
T P
198 4
ã ģ
st yles
anc ial
U M
Ġits elf
Ġsystem s
Ġse ven
Ġsh ip
Ġs at
ĠJ ose
B ox
ser ver
Ġc ivil
Ġs en
Ġ url
4 3
4 1
Ġiss ues
ĠH REF
// /
ic ago
Ġart ists
ry pt
Ġt it
Ġ( (
Ġlarg est
Ġadd itional
Ġun s
Ġst aff
st ant
Ġfail ed
jav ascript
ĠP eter
z a
Ġa chiev
Ġstruct ure
Ġperson al
Ġm akes
l ayout
Ġpro te
g l
m it
vent ion
ĠRich ard
198 5
se lect
ĠM od
ob j
Ġy et
D et
0 3
ĠH istory
ĠPar is
loc al
ĠIs rael
Ġs us
Ġper cent
Col umn
Ġl ower
or ial
Ġpart s
Ġg e
tr ack
Ġv er
ĠO per
ut ions
M en
Ġim m
al le
ad es
Ġpl ant
Ġdisc uss
Ġinst it
ev e
9 5
Ġaut o
Ġexper ience
ed s
at in
Ġst e
Ġup date
ĠCath olic
O ne
ann ot
L ayout
ĠF ound
IN T
Ġc ases
But ton
Ġo bserv
Ġwho se
Ġiss ue
u an
Ġh it
Ġl ot
Ġ< !--
Ġfor ces
am l
e in
re a
ol k
fil ter
ĠC amp
Ġreg ard
it a
p o
ill a
ĠSc ot
ĠTe chn
Ġun it
Ġh or
Ġb r
List ener
ar io
ĠH ill
pec ially
ĠFran k
F L
Ġt aking
Ġst ations
Ġpri or
ĠL ake
Ġtyp es
Ġs uff
ĠM el
195 0
Ġpol icy
Ġbro ther
ĠL os
ĠWh ile
ĠFil m
W ork
Ġread ing
ĠW omen
Ġm unicip
: </
ref ix
Ġfl ow
ĠI D
ig an
ĠComm ission
ĠS pec
Ġn one
Ġconc ern
ri al
Cont roller
m i
ĠFl or
ant ic
ĠP an
er ia
ant a
ĠF r
ee k
ail y
Ġex press
Ġstand ard
ĠC LASS
ian ce
Ġre ve
Ġpass ed
Ġmed al
P ar
l en
Ġcomp lex
F C
merc ial
p ng
5 8
cont ainer
pe ople
Ġde b
P C
Out put
y r
ĠIn c
Ġvis it
ell a
Ġp ick
up date
ĠR em
m ath
ur t
Ġprim ary
res ponse
Ġwrit e
at tr
Ġmiss ing
ĠL u
ĠV ictor
Ġse qu
ĠSt ar
n umber
ĠAr g
Ġd en
s ervice
6 9
Ġun its
ĠI reland
ĠGe org
Ġre ason
Ġg old
ur d
az z
< ?
B U
d ep
Ġcent ral
CO L
Ġcomp lete
ĠSp anish
lo od
ach ine
ef ined
UR L
Ġ ener
ar ily
yl v
; "
ut ch
Ġus ually
i en
ĠS ur
Ġrel ated
Ġex cept
oc key
Ġes c
N D
refer ence
Ġo bt
ver y
198 3
ele br
//////// ////////
A ut
Ġspec ified
ĠAn n
`` `
ic ult
ĠR ock
ĠSc ience
param s
Ġrepl aced
ric s
ĠM ass
Ġart ist
cre en
Ġintro duced
a o
w ell
ann ing
ol ar
' re
Ġoper ations
eg in
Ġ ]
Ġus es
ĠK h
w ise
Ġcom ment
raz il
Ġent ry
ov iet
ol a
u ation
eth er
5 7
Ġt ransl
Ġser ver
Ġhigh er
Ġ ir
he t
ish op
Ġte ach
T YPE
Val id
ĠFor ce
Ġap plication
id ae
Ã³ n
Ġman agement
ĠAcc ording
I V
A A
I Z
L ength
ĠP enn
Ġf ace
ER R
rem ove
Ġdef ined
W hen
sh ow
Ġw oman
Ġoriginal ly
il s
an o
ĠRes earch
Ġt im
in stance
ã ĥ
Ġcult ure
ĠF in
ĠT ime
ĠOr der
ad ow
n ov
Ġr ad
ĠC O
198 2
ĠAss embly
m t
g n
_ {
action s
M ode
ra v
so ft
ens ions
Ġdest roy
Ġcap ital
m m
ĠHen ry
Des cription
Ġf ont
Add ress
ĠHe alth
F e
A M
umb ers
ĠE X
ĠAr ts
Ġv eh
Ġes pecially
ĠR ef
ĠF orm
Ġterm s
T V
Ġman ager
n el
b on
CO DE
el ves
Col lection
Ġp aint
' ).
Ġf requ
Ġne igh
ĠC ast
S he
Ġfil es
Ġso on
Ġn umer
on ly
5 9
w in
Off set
Ġw ord
n um
resp ond
Ġfeature d
Ġsub sequ
Ġim prov
ĠB ank
Ġevent ually
ord in
ĠVirgin ia
ĠC r
s d
evelop ment
Ġcompet ition
ĠSe cond
C ON
f oot
ĠG overnment
d et
ĠSw ed
Ġcol lege
stand ing
at o
197 9
ĠE mp
Ġlist ed
ĠH el
Ġst ated
Ġrem ained
ĠComm ittee
M in
k y
Ġp urch
Ġre ached
ĠCh icago
ir it
Ġch all
C ache
ang er
un it
Ġto ld
Ġqu ick
ar r
D r
out e
ĠĠĠĠĠĠĠĠĠĠĠĠĠĠĠĠ ĠĠĠĠĠĠĠĠĠĠĠĠĠĠĠĠĠĠĠ
Ġdec ided
B undle
Ġcrit ic
Ġdoes n
ĠAt l
ĠCong ress
u id
6 3
Ġl ines
Ġpolitic ian
ĠMex ico
rem e
Ġreturn s
et te
T op
ĠM o
ĠI ll
U rl
wh ere
_ .
Ġs ch
ĠP re
ann ed
**************** ****************
Ġhouse hold
Ġdeg ree
P ort
Ġpro p
Fr ame
Ġdev ice
Ġs n
Ġmod ule
Ġh ours
Up date
Ġprevious ly
Ġaward ed
ĠO F
Ġed itor
ens or
Ġt akes
Ä ģ
Ġpl atform
Ã ¨
ent al
Ġsc ient
Ġa ircraft
or por
Ġle ader
Ġsupport ed
ã Ĥ
tt ps
Ġcl osed
Ġex hib
Ġre b
Ġcall back
198 1
ĠFlor ida
ĠAngel es
Ġquest ion
Ġst ore
Ġst re
R em
sy ch
ĠO ther
ro om
Ġbro ught
Ġmain t
ĠA v
ĠD ev
E arly
ĠT ype
T ypes
ĠL og
A g
Ġf ocus
Ġn atural
ĠIt aly
T ag
ĠB ase
ĠB ig
all ery
iz ations
k m
ĠF estival
ĠP ost
we ight
Ġs ure
ĠH T
ol ve
Ġto ol
g reg
Ġb all
prot otype
Ġsc ored
ĠRuss ia
Ġc he
Ġb ad
ĠV er
ĠPar liament
Ġfour th
197 2
Ġpl aced
ph a
ot al
and a
Ġtrans port
are er
d at
Ġproble m
Ġexp and
Ġro ute
l ong
ĠA tt
c y
Ġr ate
out put
IN E
ul ate
Ġaut om
Ġbroad cast
() ->
Ġrefer ence
ĠM ore
Ġh ttps
hed ul
Ġm om
197 6
U P
u ge
++ )
k i
Ġsing er
6 2
6 1
pro cess
e es
Ġinter face
ĠB uild
Ġ[ ]
Ġtechn ology
ĠL ong
Ġener gy
Ġt ournament
ĠM il
Ġact ually
Ġso ftware
iz es
t ool
Ġman ufact
ur i
Ġg rand
O pen
=" -
ab it
Ġmov ement
Ġsec urity
197 8
\ "
Ġestablish ments
Ġd u
#### ####
ĠAr ray
ug by
M ax
unc hed
Ġh ot
Not es
ind ing
y es
Ġpr inc
7 8
B S
Ġto wards
197 4
Ġcon nection
Ġint eg
Prov ider
Ġmethod s
I O
Ġ! ==
Ġbeg inning
ĠO ver
Ġneed ed
st rap
Ġmin utes
um s
sup port
: "
a res
ĉ Ġ
Ġorgan ization
Ġfam ilies
Tr ack
ig hest
ĠS qu
ĠE nd
itt ing
el se
Ġwho le
Ġdec ision
Ġcan not
Ġn ecess
V is
ad y
led ge
Ġlong er
Ġwh y
i h
Ġrun s
en ing
w indow
Ġappro x
Ġb ound
ĠS at
Ã §
ill er
P op
197 5
ĠL icense
c s
Ser ver
ĠL oc
p m
> >
ian a
Ġsom et
="../../../../ ../
l ic
P ost
d s
In it
Ġd oc
ĠChampionship s
Ġb asketball
r ong
requ ire
Ġsh own
re ater
ĠD ata
ĠL and
ĠD en
m em
ĠS aint
P erson
class es
ĠSer ies
ef t
C L
m ain
ĠR o
Ġim medi
ĠS il
p ing
ers ey
b es
Ġsc ience
u int
Ġmat ches
ess ages
Ġ â
fl ict
ĠT wo
ĉĉĉĉ ĉĉĉ
ĠD u
Ġon line
rap per
ĠM a
ov ers
Ġse cret
os h
ER T
port un
ian o
Ġstud ies
ĠSec ret
ĠK e
ĠI S
ĠM em
Ġsh ot
util s
196 8
Ġsp ent
i pe
Ġwrit ers
erv ed
Ġw alk
t ag
k it
ĠIt s
m ore
Ġdiff icult
Ġpro gress
ĠF ield
d f
197 7
comm on
Ġp ack
return s
ar p
Ġinter view
NA ME
im ary
ec ute
S l
off set
e ch
Ġe mer
ie ce
c al
ĠT our
ĠD et
ĠA wards
T arget
h ouse
Ent ry
old er
i Ä
y an
i ro
ig ger
ĠO ld
d ated
Ġd ro
H ow
9 8
ill ed
s cope
ĠBo ard
Ġart icle
AT ION
Ġdid n
Ġprov ides
Ġw ords
ĠL ife
ĠK n
it ude
ĠPl ay
4 00
b oot
ĠN avy
Ġlik ely
UL T
W idth
w ait
ĠO h
ĠC am
Ġpro perties
is ions
c i
it ory
197 3
5 1
Loc ation
ann er
b reak
Ġf if
ĠA PI
ĠC D
ĠReg ister
ec ution
and om
ify ing
Ġob j
ĠCarol ina
ĠB rown
ĠP et
ĠT imes
p y
ang ed
he nt
Ġs ummer
col umn
Ġearli er
D ev
Ġfield s
Ġreg ist
n es
P O
ĠC ap
it iz
Eng lish
Acc ess
ĠM r
B o
art ifact
( _
k ing
ĠM ur
ĠF e
in ct
Ġsc ore
T ree
Ġrec ent
Ġcond itions
Ġben ef
ĠP eople
Ġth reat
Ġocc up
w s
Ġc elebr
im s
Ġtr ade
Ġl ack
Ġro ot
it ation
ĠT re
Ġact ress
Ġpract ice
ĠMart in
j a
m as
ĠU s
ĠSe e
ĠM ain
is ation
Y ear
194 0
ĠSt ep
Ġw or
196 9
Ġsh are
d ocument
Ġqu ery
Ġleg al
al i
Ġcom es
ing u
ĠJ o
Ġu int
ic ated
197 1
Cont rol
Q L
D B
at tern
ĠO l
ĠP ac
Ġ* *
Ġs ession
ad ium
ĠT im
Ġflo at
Ġch o
ĠK ar
n y
t emplate
ĠE r
az on
] );
Ġm ode
Ġopen ing
Ġt ree
Ġwe b
Ġplay s
D irect
Ġincre ase
ast ic
h r
Ġact or
ĠSh ow
t ask
b ool
Ġfor ward
ĠO f
ĠW ales
plic ations
it z
Ġed ition
' .
ĠW ood
Ġst ay
od ed
ĠPro fess
ms elves
ĠEng ine
ylv ania
ollow ing
Ġr ule
Ġind ependent
C urrent
Ġw inning
p ri
194 5
Ġc op
a uthor
f a
Ġas ked
Ġse lection
Ġstud ent
as ion
R el
Ġvoc als
Ġn ormal
act er
Ġdiv ision
ĠB ur
Ġal t
par se
~ ~
H O
ist ance
ven ue
Ġpo et
Ġd yn
Ġtrad itional
' ),
et ch
Ġw ood
Ġneed s
ro ot
ĠT er
O p
Param eter
3 00
Ġf ul
Ġev idence
ar row
ĠG L
Ġch annel
Ġc ause
ĠN S
M on
cript or
9 7
5 2
A V
Ġrem ove
Ġac adem
Ġthe mselves
m ission
N ext
Util s
com es
19 30
Pro cess
Ġfinal ly
Ġsub s
ĠTe am
E nc
ĠR os
Ġpr ison
Ġend ed
Ġbeh av
ĠF ort
ĠI rish
ĠB oy
for ce
Ġb re
Ġfil ter
p es
ĠB razil
d en
ĠU nder
ĠA ut
Ġm iddle
IG N
en ge
Ġn ative
196 7
Ġb attle
Ġmeet ing
ĠWh at
d epend
Ġs cript
ĠL ove
ĠM ost
Ġproduct s
ĠR el
Ġsomet imes
ĠL iber
J ohn
ĠE ducation
Ġcont act
Ġal tern
ong s
ĠL ine
Ġco ast
ous ly
g u
ĠC re
ĠS oviet
Ġstr ateg
Ġse asons
Ġv irtual
E CT
="../../../../ ../../
5 6
Ġin side
at i
Ġor igin
Ġ ;
ir ing
Ġgo als
Ġstart ing
Ġb ur
Ġstud io
Ġmin or
w ide
in et
ic ient
Ġmed ical
C areer
ĠA rab
ĠProv ince
K E
ĠG en
L oad
D ec
Ġtra in
Ġdirect ly
ĠB re
atri ate
Ġcon nect
ĠS ocial
ix t
Ġk ing
Ġrepresent ed
Ent ity
E l
ĠR h
im ation
Ġr iver
Ġdis e
Ġmus ical
Ġwh om
Ġcom mercial
A c
ĠH ot
em porary
ĠF ile
Ġmov ie
L o
Inter face
Ġproduc er
ans as
m atch
S ec
Ġh um
Ġla unched
Ġarg s
ct x
196 4
ĠM os
Ġh ighest
Ġwant ed
ĠScot land
ĠCh ief
Å į
Ġsol id
Mod ule
Ġincre ased
Ġop portun
Config uration
Ġb rand
Ġcon cept
Ġt ag
iss ions
ĠI ran
Ġ* )
Ġm ention
ĠJ im
ĠSp ace
Ġeconom ic
ex pected
ĠS ir
Ġatt ended
Ġhe art
Wh at
ĠEmp ire
5 4
pon ents
j oy
Ġide a
Ġimp act
Ġch ampionship
Un it
ĠB as
Ġl en
ĠG ar
ĠNor thern
In st
Ġparam eter
sh ould
n ected
tern et
Ġactiv ities
Ġprob ably
Rec ord
Ġ{ }
n amed
Ġlim ited
Ġg overn
w an
c ard
t ree
Ġ Î
ir ls
Ġw ide
Ġs ort
ĠM en
Ġant i
p atch
Ø §
C D
S earch
Ġmem ory
COL OR
O ther
Ġth us
Ġp en
C ase
Ġph il
ul ations
amp ion
g ate
r ate
Ġde ad
ĠJose ph
inn ers
icro soft
Ġch ief
t oken
ĠHistor ic
Ġweek s
res ource
k o
Ġpre vent
Ġth ing
ak a
erv ation
He ight
Ġr ules
ĠB attle
ĠCol umb
artifact Id
ult ural
ĠDirect or
Ġcon vert
ĠPro ject
f ort
Th at
. /
M embers
Ġdet ails
f it
Ð° Ð
ĠL ibrary
Ex p
ĠYou ng
Ġad apt
c ache
m ond
ĠM P
v est
Ġmodel s
s ylvania
ĠS un
G o
Ġav oid
il ed
ĠL ee
Ar t
ĠH aw
b in
ĠVal ley
He ader
d raw
ing le
Ġrail way
Ġw atch
Ġrecord s
Cont ainer
ind s
Ġre place
ĠFound ation
196 5
Ġfin ancial
t ra
Ġag re
5 3
Ġw ait
Ġit ems
Ġm ission
R ange
s ign
Ġqu arter
ĠP o
D uring
Ġnew sp
Loc al
R I
Ġext ra
ĠS und
Ġv ote
; ->
Ġsim ple
AR T
196 6
Ġ ess
Ġsur round
n am
v ed
Ġsh oot
Ġoff set
Ġc ensus
Ġb uffer
Ġis land
ĠSp ain
Ġun ique
ĠD ec
Ġsc ope
Fil ms
a a
v ey
R L
Ġin sp
Ġca used
b efore
cont rol
Ġs outhern
ĠT op
c d
fil es
b uffer
Ġprogram s
Ġdescri ption
IZ E
ing er
Ġinst r
Ġproble ms
Ġde ep
ĠS y
F O
19 20
Ġnor thern
P o
Em pty
Ġs ym
Ġcom ing
ĠReturn s
Ġs end
Ġse lect
Ġf arm
Ġpot ential
ol y
im a
g or
M O
Ġpat tern
Ġgener ally
Ġn umbers
L evel
Ġg rant
k ind
Ġc ard
y ing
ĠM at
\ \
m itted
s ite
ĠP ak
orn ing
sm all
Ġv ert
( [
iction ary
r or
" ))
ict ure
Ġparent s
ĠC reate
Ġfri ends
anc y
Ġg raph
Ġle ave
h or
ĠJ un
B O
or al
ĠC ross
D o
Ġse em
s i
ĠL in
olic y
b order
H ttp
ol id
Ġdo ing
ar ia
ev en
' m
e qu
Ġch arg
Ġlevel s
d rop
Ġdefe ated
us band
aw a
ĠJ ud
Ġspe ed
N e
Ġr ul
sp ace
Con nection
air man
ĠF inal
Id ent
ish er
Ġfil ename
group Id
styles heet
Ġex c
Ġd ed
Ġnot ed
d ec
Ġoffic er
Ġcoll abor
atri x
Ġsay ing
Ġsur face
M y
f loat
ĠJ ournal
s ort
re al
Ġown ed
H ash
Ġent ered
und red
ark s
ell ig
Ġ que
Ġfore ign
Ġrem ain
ent y
8 7
ĠF ri
os oph
ple te
ĠS ince
ĠH on
Call back
ĠBrit ain
E v
j ust
or ter
% ;
AP I
ak ers
enn is
Ġf oot
Ġter rit
er em
Ġun ion
C opy
T I
Ġcomm ission
Ġold er
am m
ac c
im ated
Ġmag azine
Ġsen ior
T S
in em
ĠOff ice
ir a
Ġx ml
Ġobject s
Ġdem on
Ġc am
ĠM ax
L I
Ġl ibrary
Ġann ual
Set tings
Ġleg isl
k in
arri age
ä ¸
d est
ind er
Ġme chan
Ġdram a
ĠU k
or ation
Ġparticular ly
ial ize
ĠC all
av al
T ER
ĠF red
ard en
ĠG reek
Ġ$ (
ost on
olv ed
Writ e
ĠPenn sylvania
Ġw id
% %
W E
Ġc rick
a fter
it ors
S cript
ĠM att
> ,
) (
os ing
Ġappear ance
urs or
Ġan alysis
t ml
Ġrem ains
ĠO p
ig a
Ġtrans form
ĠĠĠĠĠĠĠĠĠĠĠĠĠĠĠĠ ĠĠĠĠĠ
en v
ad or
Ġapprox imately
Ġem pty
Ġl ived
Ġdr ug
Ġrem oved
() :
Ġturn ed
ĠS ar
Pos ition
ĠW rit
f ound
om y
Ġar my
ĠG ame
yn ch
S A
' '
] [
Ġhand le
ĠI d
V AL
t hen
Ġlarg er
9 6
Ġmajor ity
ĠG ood
Ġar m
et a
Ġmean ing
D on
ĠPro gram
v a
Ġp aper
ĠAl though
g raph
wit ter
av ed
ĠD E
Ġqu ality
Ġ ::
Th read
ron ic
PE CT
h ash
rom e
: (
D ocument
ĠW al
at ively
iz ont
Result s
Ġs witch
ĠDemocr atic
Ġex ception
g s
ĠB ul
Ġar rest
Ġexist ing
S H
N one
ĠCol or
ĠL ord
ran ts
d ebug
D L
Ġf ederal
ĠR E
Ġ eth
m ut
ĠCh ild
Ġet c
Ġst ories
Ġlim it
b ury
Ġcount y
p id
ĠT ele
l ers
ell ed
R ev
at ers
p op
ĠII I
Ġtem per
dev ice
Ġcor respond
Ġbe coming
C R
Ġcent re
AL L
ĠAss ert
C P
Ġadminist r
plic it
Ġover all
Ġcal c
Ġthe ory
Ġcompon ent
196 2
boot strap
i ography
ĠM ap
G B
ĠÂ £
p ool
Ġl ives
Ġs uc
M ark
T e
O ption
C al
S w
im in
Ġparam eters
on ic
ag ment
Ġappe ars
a uth
ĠC ivil
Ġcor rect
ĠMed ia
ĠAs ia
Ġpart n
ĠM ot
R ed
Ġpresent ed
se cond
" ));
ri p
ĠN ame
Ġactiv ity
Ġra ised
Ġres ources
Pro ject
Ch ange
ug ins
d el
St r
Ġget ting
AC K
ĠS outhern
DI R
ĠB ob
Ġ ign
Pro perties
Ġsing les
con f
Ġe as
Å ¡
im b
196 3
ino is
Q ue
ad s
ĠCon ference
Ġmult i
Ġpl ans
if orm
Ġstruct ures
Ġd irection
ow ers
J son
F ont
u ing
Ġelection s
ut y
Ġs ymbol
et ts
ĠMich igan
Ġset s
Ġcom pl
ed ia
Ġp adding
ĠJ ersey
Ġcomput er
S im
Ġsc ene
Ġset ting
U B
Ġvict ory
St at
k er
ĠG al
8 5
Ġem b
Ġcol lect
ent h
Men u
ran g
ĠR adio
yth on
ĠCent re
ĠR un
Ġdep end
Ġfor ms
Ġproject s
Ġm aster
M atch
all ow
Ġh usband
Ġlook ing
Ġfor ced
ĠP rem
8 9
burg h
li e
Im pl
ĠC amb
Ġfunction s
ĠL uc
ol es
Ġv oice
: #
8 6
Param s
194 4
Int eger
Pro t
ĠCar l
Ġse at
M M
Ġra ise
ĠD evelopment
Ġd ark
roll ed
al ing
af e
Ġcommun ities
Ġus ers
Ġact ual
Ġfr ame
ĠJ ones
A ust
ĠO x
7 2
ĠM ah
Ġre comm
mod al
Ġfav or
empt y
Ġfl ag
end ar
Ġsc ale
D ep
im er
angu ages
Ġt ouch
gy pt
ĠPac ific
Ġb att
Ġgrow th
ĠEn ter
id ers
ĠC ro
Ġen joy
Ġjo in
Ġmost ly
Ġf ast
ff ic
ut s
ir med
ĠN etwork
Ġrelig ious
ĠSp ring
ĠIn st
Ġag o
ist ers
ĠAs ian
ĠB G
Ġdep artment
ĠM ov
Ġs u
D own
Ġpre p
iÄ ĩ
Ġr isk
Ġb us
ĠScott ish
ap ers
ĠK ey
Ġno thing
ĠWilliam s
Ġin come
est ed
Ġal leg
Ġpos itive
ens ity
C ar
Ġsepar ate
S chema
Ġtreat ment
ĠT ro
Ġrece ive
inter face
D ir
A F
Ġn ature
196 1
Ġc orn
em ic
il a
ĠIs l
ĠQue en
ĠAir port
b egin
ad ing
t ab
Ġwe ight
Ġre pe
Ġse a
f ect
S ession
Ġallow s
S o
ĠT O
Ġparam s
Ð º
ult y
ĠM iddle
ach us
Ġc ounter
writ er
================ ================
ad el
om ic
w ar
Nav Bar
Ġeffect s
Ġfore st
=" _
ay a
S ign
ĠOh io
) "
Oper ation
Ġun ivers
b al
izont al
ĠC heck
in ternal
ĠGo ogle
wh ite
Ġnear ly
Ġrem aining
Ġhelp ed
Ġ> =
ex p
ĠW ild
le ep
c lear
c ar
Ġpo or
ĠL ab
Ġc hem
P ass
el a
Ġn ine
ĠH a
P tr
Ġb ass
Ġun iversity
ĠPhil ipp
ib ly
sk i
ĠRev iew
add ress
le m
Ġprot ect
Ġarg uments
y er
l ad
ĠK ent
g ment
Ġs ociety
r ich
ĠBl ue
Ġappro ach
X X
25 5
D D
Ġth r
ĠF I
ĠS T
s end
ĠS pe
ĠJew ish
Ġnumer ous
Ġf le
er c
ing ham
ip al
D raw
Ġch art
ĠB ow
l ines
l as
Ġatt ribute
ĠR am
ĠJohn son
m at
ĠFrancis co
{ {
1 000
194 2
Ġo il
ĠTr ump
N ational
ĠH ome
ov a
are t
Ġtry ing
Ġv s
Ġ ult
ab eth
hen s
Ġover ride
k ins
Ġown er
ms g
ĠS and
Ġrec ently
d irect
aw s
Ġre li
Ġ ice
ĠCor por
ĠAl b
Ġlet ter
ĠB usiness
Ġinvest ig
P A
Ġinit ially
C ore
r t
Ġle aving
Ġm ut
Ġc y
Ġf un
Ġs ources
ĠEd ward
Ġse ek
leg al
ap se
ĠThe atre
r b
Ġcol on
fr ame
ter m
Ġincre asing
ĠGeorg ia
Ġm ur
R ect
achus etts
et ime
Ġpolitic ians
nc y
Ġj av
As ync
f s
en ant
B rit
Ġhe avy
Ġf oc
8 2
Ġindividual s
em p
urb an
P L
ri b
ig er
ic ate
195 6
im inal
ĠIll inois
st one
Ġin fo
195 9
am in
Ġab ility
eng er
Ġs ister
ĠH and
Ġp il
ĠO R
ig en
Ġcont ain
v as
Ġvari ety
Ġc itiz
ĠC ard
195 8
omin ated
L eft
Ġpro posed
Ġc ouncil
ĠEar th
hed ule
Ġoffic ers
ran sp
194 8
ick er
ĠD utch
Ã ±
Ġdes pite
Ġd ou
Ġh ospital
Ġstud ied
Ġfootball er
Ġ q
ĠPol and
Ġact ors
ĠP op
Ġs ens
U se
i y
Ġsh ips
Ġdemon str
ĠIn it
ĠN ow
ST R
is er
ĠB et
Ġp oll
ĠP ubl
ĠCo ast
I F
if est
u ate
it age
Ġoffer ed
doc s
ĠF C
Ġt emplate
c opy
im ages
Ġs ave
tt y
od er
ĠH or
Ġserv e
ĠSen ate
N ames
ic ations
Ġs al
Ġ" \
Ġsh ared
om s
ĠSpec ial
Ġl ock
S ports
ce an
ĠA L
Ġwork ers
ĠO tt
Ġex pression
Ġh ar
Ġcar ry
Ġc ities
7 6
model s
E O
Ġany thing
Ġsim ply
D F
ĠB oston
p ers
I ter
cri be
L ong
ĠPort ug
w er
7 9
Ġs ense
Ġman aged
Ġhistor ical
atal og
Ġrespons ible
Ġ er
Ġclaim ed
Ġrecord ing
ĠBG COLOR
P arser
ĠY our
cl ick
um ed
193 9
Ġserv ing
Ġsome one
Ġquick ly
OR T
Ġre nder
pre t
Ġorgan izations
ph y
ay lor
Ġe cho
Ġun known
Ġwest ern
ĠRep resent
Ġarg ument
d elete
ĠSt r
sc ale
ur ies
Hel per
og gle
Ġcle an
Ġsett lement
Ġfam ous
Ġf irm
S k
ell er
p resent
Ġcond ition
D el
Ġm ind
Ġcont ribut
ĠTr ue
Ġcom edy
b ind
P R
ĠĠĠĠĠĠĠĠĠĠĠĠĠĠĠĠ ĠĠĠĠ
Ġent er
Ġg iving
ic i
ig ration
m ir
Ġprofess or
Ġmom ent
N on
Ġpro test
ran ce
R ender
ic ine
ĠThe ir
Ġ čĊ
ri z
' ve
Ġla unch
Ġimmedi ately
Ġg as
ĠC ON
ch or
ĠEX PECT
ert ific
od ay
Ġst ra
194 1
pl ugin
Ġp sych
ult i
D em
Ġhas h
194 3
t n
ful ly
o es
Ġbeliev e
Ġg reen
val ues
Ġh undred
Ġcell s
ĠG overnor
W orld
ans ion
Ġlead ers
ĉĉ Ċ
195 7
Ġconc ert
at uring
Ġn et
Or der
Ġcall s
ĠRail way
foot er
n on
Ġclass es
ĠPr ince
Ġpart ies
Ġsqu ad
ĠJ ac
Ġphys ical
Ġhe l
ipp ed
=" /
est amp
art ers
Ġd raft
Ġan sw
ip ment
Ġret ired
ay ers
Ġe qual
Ġsus p
Ġr at
Ġb rief
Ġother wise
Ġcon flict
Ġnecess ary
ĠUn ivers
Ġlaw s
Ġbe aut
in ent
Ġmov ing
Ġrec over
P S
St ore
Ġ Å
Ġtrack s
H ost
c at
ĠV an
Ã £
{ \
ty pes
Ġconfig uration
h over
ond er
f ri
Ġd iss
194 6
Ġm useum
"> &
ict ed
os ph
ĠUS A
? :
8 4
ĠEx ception
ĠO k
Ġcandid ate
C ons
Ġmat ter
Ġund efined
Un ited
jo in
med ia
Refer ence
Ġcont aining
Ġgen us
re nder
il ly
W ill
Ex pression
ĠMass achusetts
oc cer
Ġn um
ĠAl so
ĠW ay
ĠSt an
w idget
ĠS ol
ĠE p
Ġd atabase
ĠG ra
s v
ont o
Ġad opt
vir t
Ġbeg in
ERR OR
ĠU N
un a
ĠW all
ĠEast ern
Ġgo es
ĠK ong
Ġoper ated
Ġd igital
ap ed
ĠJ r
Ġre ach
Ġc at
w atch
Ġm icro
Ġsuc ceed
ĠM u
che ster
Back ground
ĠE gypt
AT A
Param eters
Ġc arried
Ġinflu ence
V ector
j i
b i
Ġelect ric
w a
Ġclub s
igh ter
m ake
ĠM id
Ġcomp ared
Ġsc he
ex port
e z
comm and
Ġatt ention
Ġrefer red
195 5
Ġn ation
Ġg uest
ĠHe ad
Ġcou ple
195 2
Ġser ious
ĠN ight
Ġdel iv
u ilt
y o
ib li
ex ample
ĠL ittle
Ġm is
Ġm ill
ern ame
Ġcover ed
ĠF ire
const ruct
Ġ[ '
ion e
v m
ou ri
Ġsl ow
on ym
( :
T itle
` .
s ession
to String
Ġmeas ure
T ool
Ä ±
L a
ĠSecret ary
Ġp ull
ol ute
194 7
ri x
C S
it ness
Ġup per
Ġbas is
ograph ic
we et
ed d
Ġse ems
en es
f ree
yd ro
ec ause
. $
ĠB ern
ch er
Ġcult ural
Ġstre ng
Ġth read
Ġext ended
Ġh op
ĠB ang
ĠM ethod
ul pt
ant ry
ĠBro ad
E M
ĠD ate
ĠB h
Ġbeliev ed
Ġreg ional
ac cess
il ation
fo o
ast e
Ġhigh ly
Ġwe ap
Acc ording
Ġto ken
Ġpro duce
ĠM ajor
ĠAnd rew
ĠM ath
ĠE vent
SE T
ab y
ĠOx ford
oc ation
Ġf elt
Ġtrans action
uck y
ic ons
## #
ĠColumb ia
Ġdist ribution
Brit ish
wh ich
on ia
ĠP oint
T emplate
Ġag reed
b ot
P RE
Ġstat ement
Ġoff ers
Ġb al
Ġg irl
Ġle arn
ĠMan agement
Ġsp read
Ð »
F alse
web kit
D S
ĠB BC
Ġw ild
Ġqu ite
Ġiss ued
Ġcre ating
ĠB or
Ġdist ance
ic ed
Ġdem and
ĠH ospital
ĠK en
m es
orpor ated
ĠJ es
e quals
Ġp ackage
Ġbe comes
h igh
ud io
G ET
'] ,
in y
ĠJack son
gor ith
ul y
il ing
Ġpar se
' ll
Ġn uc
Ġmax imum
ĠComm on
ĠM any
="../../ ../
Å Ĥ
param eter
Ġl atter
D A
ĠF ar
ĠSe a
Ġbl ue
ĠE conom
Hand le
Ġperson nel
Ġinit i
ic ens
e qual
ĠPol ice
Ñ ĥ
Ġro t
Ġ ~
Ġfor t
ĠL atin
us ion
ĠTechn ology
pr ise
Ġpat ients
ĠC apt
Ġro ll
Ġe arned
T C
Ġknow ledge
Ġcap acity
ĠE lect
ĠW is
ĠW ater
Ġb ranch
Ġin form
trans form
wh ile
or ph
ĠKore a
c p
Ġdise ase
195 4
Ġexecut ive
M ay
Ġresp ond
Ġyou th
ag ers
Ġchar ge
Ġex act
Ġre ports
Ġm ixed
m ann
Ġful ly
Ġres idents
Ġsh ape
reed om
Ġfollow s
und er
Ġg un
Ġ$ \
ang le
Ġrel ative
Ġneigh bor
out heast
Ġc ache
d ist
fr ont
Ser ial
195 3
z o
ĠPl aces
Ġget s
In valid
Ġan g
ĠH uman
E Q
ĠJ eff
P ublic
i ec
Ġf re
te en
Ġb lood
ĠJ on
Ġcont ainer
9 4
Ġb ridge
Ġs ales
iz abeth
V er
H P
Ġdes c
S O
Ġv an
r as
H as
194 9
ĠSt ation
ĠRepublic an
O b
Ġsmall er
Ġh ockey
St ack
h s
yd ney
Ġdr iver
9 2
c ient
est er
Ġa uth
ĠBel g
dis abled
ĠS ports
eder ation
Class es
Ġinv oke
R ight
Ġit er
Ġdep art
M em
ĠJ ean
Ġf ellow
Ġad ult
m ail
__ (
7 4
Ġepis odes
Ġg reater
ĠComm and
ill ing
Val ues
ĠP ower
Ġw inner
ĠJust ice
if ul
> ();
ent er
Ġn amespace
ĠIn f
it o
Ġset tings
Ġadminist ration
Ġens ure
ro vers
ĠSt and
Ġmur der
f n
ĠBro ok
con nect
Ġm arriage
Ġ} )
Ġdiscover ed
st ore
Ġpr ice
Ġacqu ired
Ġhous es
os a
annot ation
AT H
Ġs port
ĠA ff
ĠR ay
ĠDan iel
Ġreve aled
Ġa wards
Ġs ites
9 3
ĠCommun ity
ank s
d i
ĠL o
ĠBer lin
ĠH ung
O K
Ġd im
n ic
Ġcons ists
ĠV is
Ġfig ure
Ġg ives
Ġde lete
g lobal
Ġvol ume
c oll
} .
C ast
ĠC reek
Ġfe ed
9 1
' >
195 1
Ġhand s
on ed
re place
8 1
Ġdirect ory
Ġl i
Ġevery thing
c ustom
ĠF our
he lp
Ġb ottom
com ponent
m aster
Ġs plit
ĠJ oe
ĠT w
Ġw ays
Ġa x
Ġa ctions
Ġsubsequ ently
D i
sh all
Ġthem e
Ġint ended
ĠE rr
Se lect
Ġam b
ath an
M ember
p an
st ep
ul f
anc ing
a ught
ĠS om
Ġw all
ak ed
ĠB i
as ure
olog ist
s im
ĠMus lim
ĠP res
ĠH ong
u ous
Ġpro file
D ist
lo se
Ġconst it
ob s
ash ion
m ode
De cl
Ap i
AN D
ĠAlex ander
enn es
ĠD ar
D oc
ĠW indow
Ġrest rict
th ur
ĠL i
I R
OR M
Ġev al
8 3
virt ual
n one
Ġeffort s
inn es
Ġp air
adel ph
Ġext ension
ear s
Dev ice
ĠL ight
S m
Ġhe ader
Ġ( '
Ġdist ributed
c f
b ro
ellig ence
b as
sec ut
Ġcomp osed
M usic
hand le
ĠIs lands
ĠVictor ia
Ġcompet ed
st ack
Ġill ust
K ind
Ġarr ived
ĠSt e
am ing
c r
Ã£ o
is hes
ik i
He ad
Ġfail ure
F urther
act or
Ġconst ant
set tings
Ġmunicip ality
ud get
p adding
Ġby te
ick s
Ġtro ops
ĠIn s
Ġc ook
um es
Ġmain ly
depend ency
Ġf ans
epend ence
Ġflo or
clus ion
-- >
ze ch
ĠOff icial
M ain
Ġr ac
nt ario
Ġap plied
ĠP ass
Ġin her
Ġcre ation
E C
ob uf
el d
int s
Ġst orage
15 0
ĠPol ish
rel ated
S L
Ġtri al
Ġpre c
Ġpress ure
P arent
un ct
sk y
g a
( *
Ġc ycl
struct ure
ĠCol lection
od ies
Ġf air
F ound
ĠF ree
Ġmet al
adelph ia
p anel
ell o
v ard
g est
Ġp ra
ĠQue ens
Con st
ĠA k
7 1
st ein
field s
Ġbase ball
193 6
Ġth ous
Ġp p
Ã¡ n
-------------------------------- --------------------------------
Ġst reet
T A
ĠO b
Un iversity
Ġcre w
Ġtest s
D ebug
ĠB ra
Ġenc our
ĠF ace
innes ota
ĠSup reme
Ġpr iv
Ġst ars
7 3
Ġm ix
f ly
D isc
ĠF ederal
ĠArg ent
o ir
Ġprov iding
Ġv on
ĠS ervices
stit ution
ĠW eek
Ġp et
hem at
by te
Ġim ages
ific ations
pt on
Ġeast ern
Ġan cient
Ġlist ing
Ġpur pose
Ġpres ence
Ġoper ating
let ed
Re ader
re q
Ġf ish
est ic
Ġo s
ĠL ater
OR D
J ECT
cl aim
et ic
! !
ĠR og
ur er
ĠL im
n ames
Ġcan cer
Ġp le
ce st
S ION
M e
Ġappear ances
ĠC at
ie ut
I con
ĠW in
Ġunder stand
og y
ak s
Ġoccur red
Ġv en
Ġdes cent
ĠProfess or
Ġpe ace
ex ports
a ver
} "
_ ;
ĠT HE
; <
W est
j ar
ric ts
Ġc ars
ĠOr gan
ĠT am
r ine
ĠCorpor ation
ang es
D om
ĠB ack
Ġpro per
Ġcrit ical
Ap plication
ub y
Ġequ ipment
Ġvers ions
gr ade
er g
Ġcomp ar
Ġsaf ety
Ġvari able
ĠReg ion
t ain
Ġra re
C re
B ody
Ġst ock
A ME
ĠU se
Ġcomplet ely
Ġsitu ation
bo olean
ĠĠĠĠĠĠĠĠĠĠĠĠĠĠĠĠ ĠĠĠĠĠĠĠĠĠĠĠĠĠĠĠĠĠĠĠĠĠĠĠ
Ġt ell
ĠA sh
U RE
ĠV iet
B ook
ĠPr ime
ĠCor ps
Ġatt end
ĠThe n
pect s
ĠM ike
% )
W S
ĠB ad
ph one
hedul ed
Ġ icon
Ġass igned
t im
Cl ick
Ġb illion
> .
ĠV ill
Sh ow
Ġcon ference
ra st
Ġfe aturing
Ġaccept ed
ĠJ SON
Ġagre ement
os is
-- -
put e
Ġm achine
` ,
Ġl anguages
19 18
cl oud
Ġalong side
ĠB oth
Ġm orning
ĠS u
pro ve
er ies
am ber
ur ance
ĠSund ay
Ġc ore
Ġfif th
T ab
P attern
ĠW alk
193 8
ether lands
Ġin line
ĠD own
Ġn om
ĠK enn
Ġchall eng
Ġre form
Met adata
omet ry
Ġhon or
v ector
ĠV iew
Ġnewsp aper
Ã ¢
ĠT aylor
erv ative
Aust ral
Ġnear by
ut t
and ra
ĠOlymp ic
j e
ĠGu ard
Ġj oint
is f
pl ugins
ĠCh ris
Ġbas ic
rec ord
Ġp refer
Ġsequ ence
Ġp urs
Ġofficial s
ĠL O
ĠPak istan
ĠM ir
x x
Ġsold iers
Ġthere fore
Ġbe at
Ġarchitect ure
ĠS a
w ater
R oot
ĠC orn
o oth
Ġord ered
Ġprov ince
Ġoper ator
ĠKore an
Ġfin ish
u y
f amily
Ġded icated
Ġphot ograph
d ouble
b ad
Ass ert
ĠB a
ĠS ydney
Ġstr ugg
Ġuns igned
urre ncy
ĠI O
r ical
ĠL ew
Ġdam age
Ġp al
Ġart icles
ynt ax
Ġis n
Ġp aid
od d
Ġpromot ed
ĠT em
block List
Ġbo y
Se cond
s en
at ically
ĠB ol
ar ation
ou red
G E
as er
Ġdr ive
" |
R et
Arg s
ĠP en
ĠO s
aw n
Ġclaim s
ĠHT ML
ĠL y
Ġj son
Ġrespect ively
M D
Ġconduct ed
h aps
à ¸
Ġtri ed
os en
eg a
olog ies
Ġcon nected
inst all
ĠC ode
Ġexper iment
ĠM odel
Ġby tes
Ġinstall ed
g ers
ĠE st
Ġpos itions
Ġacadem ic
f ramework
co in
Ġw rong
s ystem
ol ver
Ġbel ong
pl ies
M ock
Ã ¸
ĠR om
Ġsex ual
per or
N um
ang o
ent ity
AG E
ra q
Test s
ĠPri ze
bour ne
By te
ĠS ant
193 7
ĠE nt
Ġsh op
ign ment
Ġh ope
ĠP ers
ĠHar ris
Ġp iece
ĠSec urity
F inal
cons in
Ġconstruct ed
Ġa thlet
ren ce
Writ er
call back
Ġgrow ing
Ġm iles
Ġassist ant
ĠM ember
d ict
C ustom
FA ULT
Ġag ent
key s
Ġle arning
ĠC a
Ġtrad ition
Ġcon sole
ĠT y
an th
ins ert
Ġal one
ly n
ĠTh ree
Ġ' /
v ant
V ari
ĠEl izabeth
il ton
Person al
el er
ĠR aj
set s
v in
d im
ĠA N
Ġc ategory
ron ze
ra ine
pro p
Ġsil ver
ĠB and
ĠMed ical
f ocus
ru th
c m
clud ed
Ġident ified
ur day
re es
hold er
un te
In s
ĠA venue
Ġgener ated
Arg ument
B R
Ass ociation
Ġlead ership
ĠO ntario
En abled
Ġsp ring
i able
Ġser ial
P olit
Ġsp irit
sk ip
ĠH y
Ġh y
Ġmin ister
Ġshow ed
rom ise
ĠR oute
ĠAr m
in ity
X ml
Ġtr ust
ĠInd ust
By tes
Ġcomb ined
ĠI l
ĠN OT
Ġke pt
Ġbehav ior
ieut enant
or i
Ġtransfer red
Ġpolit ics
al id
ĠMin istry
Ġatt ract
ĠTor onto
ĠC oll
ĠSc iences
In ternational
Ġd og
ĠDes ign
Ġ ),
Ġre ject
Ġmention ed
E ach
ĠB rad
Ġcon cent
ra wn
f ony
Ġpl anned
Ġprim arily
Ġsl ight
Ġbe y
S ym
f ull
Ġmount ain
ĠM ic
Ġs umm
Ġsqu are
Ġ> >
n ap
ann els
h o
c apt
S outh
l ife
AC E
ip eline
16 0
Ġ util
N E
Ġd at
ag a
Ġexp atriate
p g
Ġliter ature
ĠS us
Ġp ool
Ġreview s
R ule
c pp
D elete
C I
Ġin h
ĠT ext
pos es
Ġro les
CT ION
ov es
Ġ era
Ġmot or
ĠR od
b ra
") ]
ce ived
Ġsol o
enn a
ort heast
ynch ron
Dis play
V ideo
co q
k g
Ġw inners
se x
or gan
Ġex port
Ġquest ions
p a
p et
ack s
ixt ure
Ġassert Equals
ĠM aster
m aterial
p at
Ġg rew
Ġass ociation
Bo olean
Ġfact ory
Ġd ance
Ġb ill
Ġmaterial s
Ġtra ffic
Ġcall ing
in son
Ġfl ight
ĠO ur
ict ures
Ġfac ilities
ect s
em ail
ass ets
Ġcont est
P olicy
ĠRev olution
st op
H igh
n ce
oun ce
j ection
Ġcitiz ens
Ġp ages
iqu es
Ġtyp ically
ĠB on
Ġle aves
ĠSt at
ĠB al
Ġconf irmed
ul s
ts d
m iss
ĠM arg
Ġpl ants
am i
ĠĠĠĠĠĠĠĠĠĠĠĠĠĠĠĠ ĠĠ
Ġr andom
ol ume
Ġen em
Ġr aces
ĠB ell
if ies
Ġbey ond
ĠH ere
rop ical
ĠN ations
ĠA R
O M
w rap
ĠD isc
ĠR et
Med ia
IT Y
Ġapp ly
Ġ" /
Ġdecl ared
Ġex am
w eg
ĠBe ach
s creen
ĠF air
ak h
ĠStud ies
ĠReg iment
ĠS ong
Ġsc ulpt
iec es
G raph
k es
che stra
i ate
ic er
D ialog
Ġsecond s
pro duct
Ġpre m
ant e
Ġb omb
Ġl abor
Ġlate st
P ackage
anc er
Ġexpand ed
ru it
Ġsurv ey
Ġsup ply
Ch annel
ĠS ym
Gener al
ĠMc C
ĠT ok
ĠR ome
int on
193 5
z en
t oggle
ĠBr ig
per ial
Ġdestroy ed
Ġcr ime
ap plication
Ġcontin ues
ĠI P
Ġident ity
ĠU ser
Ġ+ +
app ed
ĠFore st
Ġs pect
pos ite
Ġnot e
S ome
ick et
ĠM innesota
Ġevery one
Ġem ail
Ġgradu ated
ĠN etherlands
EX T
Ġr ural
s uccess
Ġch ain
id i
ĉĉĉ Ċ
Ġw orth
Ġeffect ive
lo ok
. '
Ġ( *
item s
ap h
qu arters
Ġresult ing
Wh ile
H is
Ġmusic ians
Ġoffic ially
Ġhe ard
ow a
ĠF amily
ĠE ach
ĠC irc
Ġjav ax
Ġnot es
m o
ĠN O
ly ph
Ev ents
Ġw allet
Ġl iber
ad ian
19 14
Ġbut ton
c ategory
Ġed ge
ï ¼
Ġrest aur
sc ape
) ]
ĠAnt on
olit an
sp ring
up le
Def inition
Ġde ploy
ĠL ive
Act ivity
rid ay
ple x
Ġhous ing
ĠG lobal
ann a
ĠOn ly
ef e
Ġs uit
it led
ol is
ĠD er
ĠA rea
Ã© e
oth ing
Ġran k
Ġcl imate
Ġb ul
i at
ĠA li
ad min
19 19
Ġm ock
ĠN umber
ĠIn formation
Ġst rict
Ġme ant
Ġcor por
ĠAd minist
=" ">
sh ort
Ġview s
aut o
clus ive
ĠN ic
he w
ens es
eg o
ĠK im
b ound
se y
An y
ro ke
ĠR en
St ep
b uf
b ec
ĠW ars
ĠS ab
agn ost
Ġimplement ation
l an
ĠF re
Ġ ut
ĠL es
ĠC ub
ĠPol it
Ġa st
& #
193 3
S D
Ġtit les
Ġe asy
h at
On ly
ĠWil son
ĠV en
Ġveh icle
Ġ< =
n ote
Ġcont rovers
u v
ask a
Ġhistor ic
ĠPl an
Ġm sg
Ġl y
oc ated
= {
s pe
it ter
ĠAn th
ĠV alue
Ġsh all
ateg ories
Ġex change
ĠA uthor
c ur
Ġadministr ative
V D
Des criptor
V ID
T im
G u
Ġre duced
Ġqu ant
Ġs y
Ġprogram ming
c over
ĠL em
Ġregist ered
ĠB att
ĠA z
Ġpol ic
ot ed
Ġa im
Ã º
ĠSt adium
Ġon es
com ment
ĠS anta
St orage
ĠU RL
Ġp itch
ĠD aily
ĠL ady
Ġch ampion
s ql
Ġt al
Ġstra ight
Ġgener ation
Ġest imated
Ġaud ience
19 29
al ion
ast y
ost er
Ġear th
Ġp an
ĠA thlet
c os
Ġad vert
ĠPhil adelphia
reg on
Ġopportun ity
ĠWis consin
Ġp erman
Ġcapt ured
TE ST
Ġl ies
pass word
Ġch oice
Ġh arm
al o
Ġattack s
Ġ il
sh ot
ĠB C
ĠCamb ridge
Trans action
Ġac comp
y ard
Ġvot es
ĠCount ry
ed it
TE D
B efore
Ġinstit utions
mod ules
ĠF ox
193 4
p lement
ri ev
ĠSwed ish
Ġd ig
ibli ography
er ver
uck et
em et
Ġdiv ided
prot obuf
el ly
Ġro ut
ĠPrem ier
} /
ch a
Ġap plications
19 28
Ch anged
ĠH ay
19 17
ĠĠĠĠĠĠ Ċ
od s
Ġex ists
st at
ne ctions
b ing
r ase
aly t
ĠH ind
Acc ount
Ġfe et
1 20
T ra
ef ul
om er
ik a
Ġag ric
ke e
L java
Ġeconom y
Ġerr ors
Ġre named
Ġent ity
Ġdefe at
Ġtest ing
reate st
P ool
Ġparticip ated
ĠG ro
ur ches
T ele
ĠSt eve
Ġw ing
Ġbeg ins
op her
Ġle tt
res ents
Field s
c hen
J SON
se ason
Ġpart ner
Ġteach er
os l
Ġco ordin
clud e
Ġon to
ang a
ak i
Ġnew ly
Ġobt ained
Ġf ell
Ġw ear
N ov
y al
ĠRe ad
c ut
Ġconst itu
em an
Ġmunicip al
w orth
Ġreg ister
Ar ch
ert o
W A
im ents
19 32
m ock
ĠA h
Ġpower ful
S end
ĠLoc al
Ġc arri
ord ers
Re qu
ado op
alle l
Ġtrans ition
Ġinstr ument
ĠE ll
Ġl if
ĠRe al
ĠTur k
Ġest ate
Ġsecond ary
ĠB ridge
Ġele v
Ġphil osoph
ĠDu ke
Ġ rom
L S
19 00
Ġper fect
ris is
6 00
i Ã³n
ap ore
Ġim prove
19 10
Ġdist inct
Ġindust rial
im pl
ast ers
Ġhousehold s
Ġkey s
ole c
Ġreg ions
Ġre asons
un es
B est
s plit
ĠK ir
Ġsign al
. *
Ġtw ice
ĠC opy
G en
Ġr ugby
ĠMed al
ĠN Y
Î ±
ĠD oug
Ġappro pri
Ġap i
Ġvis ual
KE Y
a is
Ġp ush
ĠS on
N etwork
Ġc art
Ġd rop
Ġmark ed
Ġhost ed
or ney
Ġveh icles
Se lected
ĠD am
ĠA ction
ĠErr or
Ġprom inent
Ġgrant ed
ut ional
Ġallow ing
ĠG h
ĠI raq
est abl
Ġcr iminal
g rid
Ġc erem
l n
ĠE lement
Ġdescri be
emet ery
' ))
Act ive
e q
con nection
Que ue
m argin
um in
ĠW at
Ä į
riz ona
Ġ` `
ĠĠĠĠĠĠĠĠĠĠĠĠĠĠĠĠ ĠĠĠĠĠĠĠĠĠ
ĠV ersion
Ġd aily
Ġsol ution
en um
ĠEx t
Ġcommon ly
Ġsuccessful ly
ĠB all
SS ERT
Ġsem i
Fl ags
Ġvis ible
sc roll
att ribute
N et
drop down
ĠI v
Ġt ells
Ġengine ering
el le
Ġco al
L ock
M sg
Ġact ing
FI LE
th read
weg ian
Ġex ternal
ĠA M
=" @
ra ction
Ġres ident
ev in
ĠSwed en
S QL
G erman
S cope
a ug
ĠR ad
Ġch ance
ennes see
ĠColor ado
I A
Ed it
S ince
Ġcompon ents
ĠH un
ĠB udd
ly wood
Ġf iction
ĠL at
ĠW ell
ĠStep hen
19 22
Ġrequ ires
Ġ urban
n umer
Ġprote ction
reg ion
Ġlarg ely
ĠDav is
ac le
F rench
==== ==
Ġs ample
Ġref lect
ĠTr ust
pect ive
H L
pl om
ĠW inter
Ġp iano
Ġhold s
193 1
Ġh ers
ĠH an
ri e
Ġre duce
" `
Ġdiffer ence
if ically
s el
ĠGold en
ĠDef ault
W omen
ĠC y
Ġpro pos
m ad
Ġb ow
ab ilities
Ġpre mi
Ġinj ury
' d
Ġdev ices
19 24
Ġcomm ittee
Ġnot able
Ġcl in
LO G
ĠR on
pr imary
Ġh tml
Ġcont emporary
Ob j
W idget
Ġrem ember
Ġpro ceed
is a
cont in
c ow
Pl ay
O lymp
ot ion
anc el
Ġdown load
ain e
FF FF
Ġop in
$ (
; /
A v
19 27
Ġorgan ized
EN D
Ġcomm it
reg ister
Ġpurch ased
Ġrepresent ing
B iography
ĠG allery
Ext ension
Ġcompos er
Ġst ack
cre te
Ġadv anced
ĠCapt ain
ĠS em
Ġass ess
Ġsw im
Ġanim als
Ġg ra
ĠCh annel
ĠM ill
Ġwid ely
w all
ĠG ree
Ġse ats
ex ception
Ġdef end
Ġs ust
hent ication
Ġbu y
25 0
ĠP age
Ġdom ain
Ġpar ish
Ġsp ons
j query
Ġm obile
Ġs and
M ENT
Met a
ĠSh ort
ĠF ollowing
Ġrecogn ized
Ġdeterm ine
Ġde leg
Ġread y
ĠG reg
Time out
p son
V ert
Ġl icense
Ġdef ine
In ternal
Ġtown s
Sup port
ĠH ard
ĠEngine ering
AR Y
ag ram
ph as
Ġf ixed
ĠA ge
ot ic
c md
St ruct
b rowser
G S
Ġh our
Ġserv es
ĠB ishop
Ġreturn ing
Ġsuggest ed
Ġt ransp
Ġd b
p erson
ĠM oh
ĠLeg isl
gorith m
By Id
Ġnov els
ĠB at
Ġdef inition
Ġc e
Ġint eger
Ġst one
ĠInd ones
() {
Ġb tn
Ġd ie
S R
ĠT ai
pro file
Ġneg ative
r ig
} \
Ġh abit
Ġaff ili
Ġab and
Ġpar liament
Ġse ctor
Ġdr ink
Ġun less
ĠCast le
ertific ate
c or
ĠPe ak
Ġc ab
Ġdo or
Ġins ert
ĠWindow s
Î ¿
Window s
ap es
Ġstart s
ĠChrist mas
ĠTown ship
VER SION
our ney
Ġtit led
f all
ĠC zech
Ġrece iving
Ġadopt ed
ĠAn other
ĠA ND
Ġterm in
Ġ% }
Ġe yes
Ġw rest
Ġterrit ory
Â °
ĠFace book
ĠSer b
J o
Ġs yn
el ess
Ġfound er
ĠW el
rop olitan
Ġcons ult
. __
Ġs urn
Ġv ir
S ymbol
ĠDes pite
Ġar ts
j an
l ay
add r
Ġfig ures
@ "
Ġinstance of
Ġv ess
ĠJ ava
Ġf ine
d ates
ĠRe port
ĠIn ternet
Log ger
Ġauthor ities
Ġdeterm ined
25 6
Ġinter pret
uns igned
Ġsp ot
t ry
oper ation
tain ment
if er
Ġl ayer
ĠIndian a
ic ian
go ing
ĠCon f
Ġdel ay
RO M
st ats
ĠBook s
Ġup dated
ian ts
X T
Ġrec ip
a us
C rit
Ġdocument ary
ç ļ
ĠN az
rec ated
Ġsuff ered
ON E
ĠA re
Ġl osing
Ġany one
Ġfight ing
F loat
ĠSat urday
S U
ĠEx ecut
Ġsaf e
HT ML
Ġacc ident
% ,
ĠN ote
T ABLE
Ġatt ributes
s ave
Ġadv ant
Ġhand ler
19 25
u ct
ĠM ond
19 21
ĠO regon
ĠJ oh
Ġa head
Ġfac ility
om ot
ern el
ĠM A
o or
F ran
( \
^ {
19 23
er al
8 00
ent ially
Ġloc ations
Ġsh ift
Ñ ı
P AR
tx t
Item s
h ome
r um
Des c
ap pe
ĠM ilitary
o a
Ġ ri
Ġst orm
Ġcorn er
ock er
A uth
)) )
ro t
D C
h adoop
Ġf resh
] ]
Ġport ion
ival ent
Ġregard ing
L eg
O wn
Ġaltern ative
ĠE th
19 12
z one
Ġl ab
S ources
ĠTur key
Ġinsp ired
ĠCon nect
ar ry
Ġim ag
ag an
ig rants
ele gate
R est
ĠMar ia
Ġg ained
f ire
ĠG il
ĠAtl antic
rad ius
igh th
ĠT al
CH E
Ġcost s
Ġeas ily
press ed
ĠAb out
ain ts
Ġengine er
ire ment
f aces
ĠM icrosoft
ĠL et
l ow
Ġfac ulty
ĠP u
web pack
T ax
uss ian
Ġn g
ĠW he
ĠAmeric ans
Ġmat rix
çļ Ħ
ĠL ast
print f
ir ty
ĠOr iginal
Ġscient ific
ĠL abor
Ġg overnor
Ġfem ales
ix el
z y
g ar
ĠL ike
Ġpl anning
Ġra pid
eng ers
Ġs s
19 26
ĠSqu ad
Ġ Ø
Ġsurround ing
Fe ature
p arser
ĠB ru
G ame
ĠE ven
A wards
ĠSt ock
Ġpre tty
Ġspe ech
key word
Ġend s
Direct ory
c ap
ĠPhilipp ines
le an
que ue
Ġfoc used
N G
Ġm essages
I B
Ġs ides
Ġperform ances
fl ags
ian g
I E
_ ->
ĠLew is
Ġstat istics
Ġc row
g ame
in line
Ġmed ian
ĠMount ain
Ġb urn
k h
ĠK ansas
ĠS av
Ġph one
= >
ill ery
Ġarrest ed
ĠMiss ouri
ĠĠĠĠĠĠĠĠĠĠĠĠĠĠĠĠ ĠĠĠĠĠĠĠĠ
( !
Ġhers elf
ĠG er
Ġbuild er
Ġtre es
Ġse vent
ĠM un
Ġele m
Ġg irls
Ġs an
Ġw ind
[ :
out s
=" "
Ġph ase
Ġresult ed
at ar
o om
N ow
Ġide as
Ġre ality
ĠC as
$ /
v o
Ġyoung er
Ġh yp
oc ate
ĠE s
assert Equals
Ġin n
Ġch osen
Ġfund ing
Ġa f
P erm
ĠH o
Ġpro ced
in er
Ġauthor ity
ra structure
Ġadv ance
ĠF alse
x s
Ġd ensity
ĠG i
ĠSup port
l iving
Ġapp arent
Ġport ray
g ency
ĠT ask
_ ,
ev ents
Ġpol y
Ġshow ing
g it
Ġext rem
12 3
ĠU t
Ġcamp us
Olymp ic
r im
ĠJew s
man ager
ĠC ur
ĠAr thur
ty ped
or iginal
ĠT ennessee
r m
Ġcom ments
MA X
st ar
$ .
Ġf estival
ĠF ord
ĠBar on
S IZE
h u
Ġte aching
ĠCon fig
() ));
h ard
Ġv ector
p ay
c am
ner gy
Ġto ward
ĠR ights
ack et
? "
Ġmedal ists
P ATH
ĠL td
H S
ĠK han
Ġde cre
Ġra in
Ġdoc uments
19 16
Lo ader
Trans port
ĠHigh way
p ur
ess ions
ĠMem orial
Ed itor
Ġar ms
Ġen abled
Ġa ware
19 15
b oy
ĠQueens land
Ġinvest igation
Fil es
w ing
ap os
ater n
Ġfund s
ĠA st
Ġaud io
Ġviol ence
ch ant
Ġt aught
ol i
Ġdo ctor
ord an
ĠCol on
Ġw ins
Ġy ards
Ġwas n
iv als
eng ine
Ġsch olar
Ġtool s
Not Null
AD D
s chema
ĠR oss
ĠF riday
M ore
us hed
Ġemploy ees
Ġcop ies
ĠF ederation
Ġblock s
V ar
het ic
Ã© s
Ġh idden
Ġv e
Ġtemper ature
ang ular
Ġclass ical
Ġres c
Ġpri est
', '
Ġp anel
ĠT urn
ĠF und
T wo
Ġl ib
ĠN ick
ĠWh o
des c
Ġhe av
Pro duct
t ip
le ts
n ight
are n
Ġpre par
ok es
ĠD om
Ġdist ricts
Ġjournal ist
Ġlo an
{ }
ĠI mp
f ill
n ormal
Pro file
ĠI V
P anel
U ID
sec urity
assert Equal
form ance
b re
al so
ĠP it
Ġ[ ];
p i
ap y
Ġz ero
Ġop position
we alth
Ġun able
ĠMex ican
Ġz one
Can adian
Ġpain ting
ĠTrans port
um a
Ġjud ge
am pl
ĠPh ys
ĠP y
ĠRepresent atives
Ġcandid ates
ul ator
ĠInd ex
Ġrep resents
J ob
ĠV i
Ġcan cell
Ġbl og
Ġgener ate
ential s
Ġin vent
ĠN orm
n i
Ġm yst
west ern
v i
Ġus eful
Ġrel atively
ĠAd am
Ġform ation
Ġdro pped
Ġb udget
ĠNor way
Ġint ers
ord on
] :
)) );
s um
H ome
ĠH al
Ġhold ing
ÃŃ a
ist ant
ĠLe on
amb da
Ġh all
Ġpl ot
Ġch airman
im it
l ah
Ġcam era
av id
Ġt ab
Ġtw enty
Ġf ashion
Ġinv alid
se ct
ĠA rizona
Ġconvert ed
ect ive
Ġn orm
Ġcons um
Ã¼ r
Ġdef ense
ĠAnd erson
Ġrepresent ation
Ġd anger
Pl ugin
m ove
ĠE P
Ġesc ape
ĠL ow
ĠE very
Ġf uel
() ).
Ġenvironment al
et ing
R oute
S pace
ric es
b les
ĠK al
Ġprocess ing
C ond
fri end
ĠR a
Ġexp ansion
ĠSt ory
Ġsc oring
Ġgu ard
and o
âĢĿ .
th at
ed itor
ĠM unicip
Ġgl ass
Ġn ob
c b
l g
ĠEnter tainment
ry st
ĉ ĠĠĠĠĠ
ot i
ĠP ier
in cess
B it
Ġkn ew
ĠFore ign
ĠR est
ĠUk raine
Ġv ent
import ant
B ibliography
b ell
Ġappro ved
Comm on
ĠHol y
wit zer
Ġpublic ation
ipp ing
J apan
Ġnuc lear
Ġp ieces
ĠSing apore
ĠĠĠĠĠĠĠĠĠĠĠĠĠĠĠĠ ĠĠĠĠĠĠ
cl es
Se lector
Ġran ked
Ġoption al
Ġend ing
Ġacc ur
Ġtechn ical
is ms
Ġstrateg y
Ġin nov
ĠMel bourne
Ġocc urs
Ġfact or
Fil m
Ġad j
pro to
Ġslight ly
L P
H R
NavBar Cell
} </
ĠL iter
ov en
er d
ĠD or
ĠW ed
Ġel imin
ag en
au x
ĠLab our
Ġdet ail
ut f
pro perties
Ġp y
Ġhapp ened
C lose
f ef
ĠSt aff
ĠMary land
Sec urity
Ġn odes
ĠHar ry
Ġthe atre
20 23
19 13
Ġr acing
Ġocc asion
Ġw ants
an es
Ġsc heduled
Ġattempt s
Ġd oll
Sports people
w ords
put er
L ife
D T
Ġp m
Ġdevelop ing
e en
T erm
ĠRec ord
struct or
ã Ģ
ĠA S
Ġdesign ated
ĠH art
child ren
ĠL ev
Ġth er
pos itory
Ġstand ards
Ġa wait
.... ....
ag h
Ġb ought
ens is
l aw
ĠJun ior
ĠAd v
* )
Ab stract
Iter ator
Char acter
ĠChild ren
witzer land
ĠF le
ot es
cont roller
Ad apter
Ġdec or
CA A
Ġf an
Ðµ Ð
ĠMos cow
ĠH ou
in her
ĠAff airs
Ġr ise
Ġh air
ĠS ign
D P
ant asy
ĠMal ays
ĠAn y
Ġ{ };
Ġj ump
as et
ues e
D ouble
D atabase
ĠJ er
ĠSt art
B E
c ert
Ġvis ited
and y
ĠV AL
ĠSur vey
) ">
ĠGu ide
Ġmin imum
To String
ĠP aram
X ML
inal s
hor izontal
Ġbur ied
point s
ĠE ric
Ġinc ident
w ick
col n
ivers ary
F T
ĠP ath
Ge ography
ress ion
A nt
os itory
ĠB u
w ig
Ġb or
ov ing
Ġ io
Ġ" "
Ġlook s
P ay
Ġsupport ing
s ymbol
######## ########
amb ig
type of
Eng ine
Pr int
ĠM iller
ook ie
anc ell
Ġn ominated
th rows
inc ial
ĠC ab
Ġpass ing
Ġsk ills
ĠE nc
ide os
ĠB ecause
B ig
Ġs ell
Ġsubsequ ent
ro it
se lected
Ġr ing
ĠEn vironment
ra it
i pl
Ġalleg ed
ĠPhil ip
ĠApp le
Ġid x
Ġl icens
Ġadd ing
Ġneighbor hood
f red
//////////////// ////////////////
_ (
are a
Aut o
ĠC EO
ĠR ose
ach ment
Ġpo inter
F ull
ĠO ption
es c
ĠT ony
ĠSh er
Ġex amples
se ud
h ar
En um
st an
", "
ch annel
ĠRe act
Ġnav igation
Pop ulated
Ġhe ar
ĠAm azon
ship s
Ġm ist
Ġan al
Ġprinc ipal
ĠN a
up s
Ġs ummary
E uro
Ġvoc al
Ġbeaut iful
Ġap pre
Ġy ellow
ĠFr ont
Ġhot el
A uthor
ol as
De ath
fef efe
ĠAr k
bs erver
Ġc as
Ġcont rast
arch y
Ġcont ained
J an
ac count
de cl
ĠViet nam
! [
ĠC ost
++ ;
Ġb ronze
Ġp owers
ĠBase ball
form s
Ġsat isf
A ng
Ġf unc
ĠL android
Ġse gment
he ll
sup er
Ġchall enge
ĠUp date
ag u
c raft
Ġexper i
ĠN ode
ĠN ative
L IC
Ġen able
Ġachiev ed
Pro xy
S ingle
Ġs un
ĠPol icy
he im
Ġdec ades
ex ternal
h ol
Ġwe ather
R AN
Ġn arrow
o is
w ich
C ap
ig g
'] )
å ı
19 11
Ġ( ;
Ġr h
ĠMan chester
ĠFred er
Ġw inter
ĠS ound
Ġf n
Ġh uge
B rowser
qu es
Ġrem ote
hed ral
Ġperform ing
B I
Ġcomp ris
G rid
b at
Ġstar ring
ĠR ow
ĠMag azine
Ġhor se
Ġpartn ership
e cho
Ġc ool
-> _
ab ama
Ġvill ages
b ass
al ar
ag g
ĠD a
Ch rist
An not
Ġis ol
ĠS O
Ġv ac
ĠBuild ing
hand ler
Ġl ayout
igen ous
Con n
enn y
Ġdep th
Ġobt ain
ĠCont rol
Ġdom estic
P T
play er
Ġrequest s
Ġnot ice
M atrix
t abs
Ġlett ers
Ġder ived
Ġweap ons
UT F
Ġobserv ed
Sc roll
ĠMod ern
D est
ĠM ake
h ere
res et
Ġro yal
Ġc ref
iter ator
Go ogle
! "
Ġ= ========
ĠM as
W R
sh ape
Ä ĥ
Ġcomb ination
Ġcomb at
Ġfl at
get Element
b en
% .
The y
Ġs ale
az a
z h
Ġb ed
be an
Ġw aves
ĠS oc
lection s
ist ent
ĠN FL
In v
Att ributes
C red
Ġp lease
ĠL ink
Ġt ranslation
M I
off s
ĠB rand
ĠF unction
M iss
ro le
id el
Ġmon itor
." );
Ġat tr
Ġcrit ics
Ġm el
Ġk ick
Ġt end
N orth
N ULL
Ġg ar
Ġimplement s
k w
Ġcol lected
config uration
ĠF ellow
N ote
Ġad vent
L ayer
Will iam
ĠGree ce
Ġb rowser
G lobal
ĠC ape
Ġfrequ ently
Ġinvest ment
G r
ĠTO DO
ow nt
ud a
Ġcapt ain
Ġact s
J ava
Ġf ill
Ġfind s
F IG
Ġd ress
ĠB ah
Ġin ner
Ġp icture
ĠG ab
Ġsup ports
ĠB alt
à ¥
Ġeduc ated
ĠB rian
Ġcommun ication
Ġm and
Ġsom ew
by tes
12 8
ound ed
Ġr ich
inem a
yn amic
Ġord ers
par a
190 8
Sh ort
Sym fony
Ġre ar
ĠSim on
arg ument
ict ional
e ach
F amily
S ER
ĠS ri
Ġy ield
Ġtri p
r ations
app ly
ĠO cean
Ġbig gest
h ide
d am
10 1
ist a
Ġunder standing
re ll
P ORT
ure au
Ġabs olute
ile y
Ġsucceed ed
ĠOff icer
Ġinterest ed
atter y
Ġansw er
ĠB urn
Ġhapp en
Ident ifier
IP T
lah oma
Ġlo op
ro g
Ġcred it
M o
Ġinterest ing
E p
ent ed
Ġmay or
ĠS i
Ġass embly
Ġb rain
Ġexpress ed
Ġag ency
Ġe ye
ĠAust ria
ĠR oy
LE CT
Ġqual ified
Ġd omin
ĠI owa
ubl in
ĠJan e
Ġbro ke
end or
m ont
pp ing
ĠDi ego
Ġman agers
ĠP M
Ġt error
ĠKent ucky
Ġkill ing
ĠCon st
Ġcustom ers
Pro p
mer ce
Ġv ice
Ġtra ins
Austral ian
ĠV o
& &
P ol
Ġfact ors
ĠD ark
Ġdr ums
w orld
ow ered
ct rine
Ġro ugh
ĠB ab
ag ues
Ġm ales
Ġanim al
r at
iam i
ĠS af
Ġsh ut
Par se
Ġpolic ies
Ġh ydro
ĠT witter
Ġm o
ateg y
f ail
Ġg ain
w ild
ip h
Ġco aches
Ġper haps
at ible
re tt
I ST
G O
ous es
ĠN on
m b
Ġ[ [
Ã ¥
Ġt or
rain ian
Re lease
g han
ĠJ os
ĠR oll
Ġm ac
Run time
Ġaff ected
ĠD ream
Ġenc oding
Ġposs ibly
=" ${
Ġold est
ym n
Ġsix th
ð Ł
Ġxml ns
ĠAl bert
ap el
ĠT oday
Ġprot ocol
pos s
Ġ ×
ĠDo ctor
á »
B P
Ġshe ll
form er
Ġe g
b f
log ger
Con stra
ĠD un
ĠC hen
S eg
arn ings
get Name
ĠB eng
Ġlook ed
ache lor
Ġc ru
ipp i
Ġrecogn ition
Ġwe ak
Ġc overs
Ġr ates
Ñ Į
pl atform
ĠN ap
Ġsign ature
h idden
Ġs ynt
H er
our se
ate ur
Ġex it
Ġbro thers
Ġref used
ĠK y
com ponents
ĠH as
Ġjob s
Ġmod ified
Gener ic
ĠS witzerland
Ġp od
Ġlist en
e ast
ĠB arn
Ġra w
L C
Ġrelig ion
S pe
} {
Ġd ream
Ġstreng th
typed ef
ĠCl ark
BU G
Ġpre v
Ġappropri ate
Ġs ac
tool s
R C
Pl ot
~~ ~~
cont ains
Se qu
ĠN av
ĠIn vest
o en
dom ain
Ġult imately
Ġab stract
Ġmen u
oc ese
ug s
Ġexhib ition
ip er
iss ue
Å «
Ġattempt ed
Ġn arr
S ync
uz z
Con f
ĠK itt
M B
Ġdi plom
Ġcommand er
ĠExecut ive
ĠT a
IC E
ĠPr inc
ac ent
Ġca uses
ph ony
id ge
ĠC are
ic ut
Ġf olk
Ġcho ose
Ġac id
Ġle ct
N T
Ġdr iving
Ġwe alth
Sc ale
al pha
ug ar
Ġpromot ion
Ġformer ly
Ġhead quarters
Ġpl us
Ex pr
ĠDon ald
Ġ Ä
Ġcon sequ
ĠSt one
un ior
Ã© t
ov ak
Ġro of
Ġbusiness es
or ity
Ġpil ot
Ġen h
ic ians
ĠRe quest
nav List
ars ed
s witch
Ġse ed
M er
u j
ĠP ot
Ġrequire ments
Ġspec ifically
Ġ{ '
prov ider
) ).
prot ected
33 33
F in
Ġair port
ambig uation
Ġhapp y
iv a
in v
Vari able
ĠG ets
col Last
N or
Ġanim ation
ĠL ind
U K
Pl ace
Ġto wer
ĠReg ional
Po inter
in th
Ñ ĭ
s es
St ar
ist ed
Ġop posed
ĠTok yo
Ġpur poses
ĠR eb
ĠN ev
Ġcapt ure
RE AD
I mp
Ï Ħ
ĠD C
the me
ĠJ ay
Ġem phas
S Y
iam ond
ĠI r
Se ction
Ġas ync
Ġfa ith
Ġ ).
ene z
t otal
189 0
olog ists
S ervices
ol o
ial s
ĠN et
ow s
Ġ( _
ir ation
ĠHe art
Ġw el
ĠSen ior
Ġf ix
P ri
Ġs ail
ĠSil ver
ch i
ĠS ix
Ġdist ingu
Ġentire ly
Ġpresident ial
Ġhe at
M at
1 10
Ġsch ol
Ġb an
el ve
call ed
Ġlead s
Ġhom es
c u
pro ps
S uccess
b urn
CHE CK
U LE
Ġ( ,
ott en
ĠPat rick
ĠK a
ĠMor ris
Tele vision
ĠB lock
ĠM it
ĠPal est
Ġimport ance
Ġas k
F ailed
Ġadvant age
fil ename
ex ecute
H on
iv ation
ĠC rit
F ollowing
M ost
duc ing
Ġw itness
Ġext ensive
Ġm ask
D ay
Ġst ored
Key s
t mp
com pl
ĠT an
ĠAll en
">< !--
Ġpurch ase
O ct
ĠHam ilton
Mem ory
IV E
ĠB os
enc ing
col First
Ġd ivers
Ġrepresent ative
Ġ" ,
Ġs ons
ell i
Ġp ed
M apping
Ġconstruct or
Ġsche me
Ġb ond
Ġprogram me
ĠAl abama
ad ed
Ġb odies
ĠD ocument
ĠC op
erv let
Ag ent
ĠC A
ĠĠĠĠĠĠĠĠĠĠĠĠĠĠĠĠĠĠĠĠĠĠĠĠĠĠĠĠĠĠĠĠ ĠĠĠĠĠĠĠĠĠĠĠ
R ail
ĠA D
ĠPl ace
Ġcl ick
ĠSqu are
a ired
ĠH ash
Ġar rang
Ġstri ke
ed ge
ĠF ame
Ġintro duction
Ġexact ly
[ $
cl ip
d ed
ĠHow ard
Ġfl ags
ad i
Ġtype of
Ġvert ical
Ġso ft
ar o
l ot
Ġprom ote
Ġd ates
ĠEar l
Ġher o
R S
ĠFor ces
F unc
Ġ( ),
ar on
ĠB efore
Ġperman ent
Ġcomm itted
AL SE
g ba
Ġmin ute
Ġstep s
ĠLin coln
Prot ocol
ĠF ac
Ġre ct
e ed
res hold
Ġvol unte
c oh
us al
( __
ĠB O
Ġd ict
Ġex ecution
Ġchem ical
iz able
Det ails
D uration
n ers
ĠMar c
Pl ayer
Ø ±
Ġa id
Ġstop ped
iss ippi
Ġag ed
uck s
ĠNor wegian
ĠA ud
Rem ove
ug u
Ġre ader
B as
ĠEm peror
ĠA P
Ġsett led
ĠT able
Ġprote in
b ul
Ġm ent
mon th
capt ion
urs day
Ġworld wide
N OT
Ġcon vers
=" $
ĠN AME
ĠK at
Ġrefer ences
Ġw arm
Ġl ake
t ar
Bl ack
ĠC ustom
Ġly rics
ĠN ik
Ph il
ĠV ideo
p ower
Ġf lex
Ġpass word
Ġent itled
ur ric
Ġn ortheast
Ġap plic
Cl uster
n ie
Ġex cell
Ġmusic ian
Ġk id
Ġmer ged
A f
Ġexist ence
Ġrepe ated
r ame
Ġp un
ĠPro duction
Ġpain ter
Ġsc enes
Ġform al
rid ges
Ġag ree
Ġcy cle
Ġst ores
Ġcl uster
C am
) ),
Ġattack ed
Ġc risis
ĠT en
Ġg one
m ult
Ġmaint ain
Ġdel iver
Ġ= ======
Ġca ught
ĠSquad ron
Ġre q
ĠJes us
ĠE nergy
ĠSe ver
s ur
ĠInf antry
ĠB run
Ġf it
ĠWal ter
ĠD omin
bum s
ĠCh all
n il
Ġind ependence
Ġf ranch
190 5
p ubl
Ġatt ached
ĠV ice
ard o
Ġcharg es
ang el
if iers
ĠC H
al ty
Ġm ach
Ġcont rolled
Ġsub stant
ĠHot el
ĠMar ine
Ġhigh light
Ġmot ion
ĠL eb
Ġexecut ed
is ode
che ll
Ġap art
ĠM and
ut ies
Ġd ry
Ġp refix
own er
S ocket
Ġw alls
Ġprocess es
ĠIO Exception
met adata
unn el
over y
dis ambiguation
Ġequ ivalent
Ġcover age
Ġenem y
Ġbro ken
C ategory
ir th
M OD
F ail
t ons
d em
rit e
ĠT H
Ġdr ivers
G A
ĠS in
ĠN ich
H ar
ĠCopy right
ĠTele vision
Ġs leep
oc aml
ĠEx press
p refix
190 6
Ġir on
ident ifier
secut ive
Ġl ists
Ġ" <
ig e
unn y
Ġus age
ol t
ĠL ank
ST AT
nes day
Ġsing ers
Ġlaw yer
includ ing
all classes
Ġmeas ures
ĠAdminist ration
Ġaff ect
M any
Rep ository
ĠIsl amic
IN D
w rapper
Ġd ialog
Ġex plicit
ĠN ig
Ġf ought
Ġprofess ion
Ġcorrespond ing
Ġfav our
ĠC ru
ĠI E
Ġj azz
J ust
ĠH ans
C F
all as
build er
or ro
Ġcont ributed
Î ¹
in ch
ĠB ox
Ġv o
ĠD ur
el son
ĠR yan
d on
att ributes
Ġca using
ĠIm age
Ġcolumn s
d ialog
Ġimprov ed
n etwork
190 9
ri ed
Ġref ers
Ġopin ion
Ġcon nections
Ġelect ronic
ĠIsrael i
ĠN E
t body
al ia
ĉ ĠĠĠĠĠĠĠ
S ur
Ġrequest ed
Ġemploy ed
C or
og en
Ù Ħ
ĠF ood
av or
M T
ĠTem ple
er on
Ġmed ium
M ut
ĠM oon
ĠZ h
Ġar ran
T otal
Ġg uns
Ġf aced
7 00
ic ide
Ġad just
Ġ$ {
Ġtechn iques
Ġst ress
St op
Ġret ail
ĠTh rough
Ġs it
Ġacc used
ĠF A
O B
Ġeduc ational
u ce
ĠC ulture
C apt
Ġcol span
ĠHou ston
Ġbal ance
ual ity
ĠF a
Ġsitu ated
Ġexper t
Ġb ra
ĠSk y
ot hes
ri k
Ind ian
s a
Ġpass es
U SE
Ġd ir
Ġ" -
190 7
Ġk il
Ġturn s
ĠD igital
Ġj Query
ĠSo ftware
W rapper
ĠF inn
Ġstring s
Ġstand ing
iev al
ol ished
Ġch arts
ut ral
Ġen v
En ter
ĠG ard
ĠY outh
ct ors
ĠG ordon
Ġhistor ian
coll apse
head ers
( -
ach er
Ġs ought
att ers
ĠG all
emb le
L et
arn er
Ġste el
ĉĉĉĉ ĉĉĉĉĉ
Ġg reatest
ant ly
ĠAnd roid
ĠUn it
ĠOk lahoma
f ast
ĠJ ordan
sh adow
ĠF all
Ġimplement ed
ok ed
Ġinvolv ing
ĠCh ile
Ġc ert
arg o
() </
190 4
lim it
ĠCommon wealth
Gener ator
ĠSe ason
Ġautom atically
%% %%
I MP
Ġvot ed
ĠPro t
ĠBul g
ĠTurk ish
Ġle arned
Ġdescri bes
12 5
L INE
ĠSpace watch
all oc
ur is
ĠAnth ony
Ġdem ocr
ik h
Ġbo at
f ol
Ġl ay
ĠR ey
Ġlink ed
F ind
ĠG ib
Ġpoet ry
as hed
ĠW y
Ġpat ient
id x
ate st
ook s
Reg ister
Ġbel ief
int end
m ac
comp iler
E ducation
ĠG re
Ġtem ple
all ed
ĠK am
ues day
Ġoff ices
Ġoper a
ĠG ram
H ER
R T
ĠL INE
ren a
Ġag greg
Ġopt im
Ġconcern s
ref ect
ĠP a
Ġdirect ors
ĠMond ay
Ġinterest s
Ġjust ice
ĠM essage
RE S
ition ally
Ġliter ary
Ġshoot ing
Init ial
Ġa ired
hemat ics
ĠHol lywood
D avid
Ġcl oud
Ġm ort
ĠB ry
M ake
ick ets
ru ctions
Ġmet res
Ġs uffer
aj ax
P ER
Ġbenef it
Ġf ear
op ter
Ġg ene
in ces
Ġpr ime
ĠD eb
TR UE
us ers
ĠD ick
M ich
Ġp arser
Ġhum ans
Ġal ter
Ġint elligence
IT E
Ġsurn ame
l on
Stat ement
Ġch urches
ĠT s
od a
The se
-------- ----
CE SS
IN FO
ĠPl ayer
Ġt ail
ĠP erson
Ġown ers
Ġthous ands
e a
Ġvari ables
od ox
Ġshort ly
lad esh
sub s
duc er
g reen
Ġcompet itions
ĠH amp
Ġdeliv ered
W N
sh ared
Ġf reedom
erv es
Ġse ctions
Re port
ĠH u
Ġg rid
c irc
az ing
Ġext ract
) ->
Not able
Ġinv ited
i ac
Ġm olec
as m
ĠDe ath
Ġs aved
mut able
F S
Ġph oto
Ġsports people
J S
Ġcent uries
T race
ĠAn ne
t ags
Ġinj ured
Ġdis establ
ĠWh it
ĠF urther
Sim ple
Ġg ender
ownt own
Ġt x
av i
Ġchang ing
ĠInt eger
m aven
ĠM rs
F ootball
ĠB ureau
ĠMo ore
udd en
ten ance
Ð ²
ĠP C
ĠRes ource
Ġro utes
Cl ub
ĠBill board
O UT
æ ľ
Ġclass ic
C ent
ĠPri x
Ġfind ing
ĠSw iss
Ġdis abled
ĠK evin
Ġro b
comm od
Ġo k
s ince
ĠCh ampions
Ġs occer
j unit
ĠDet roit
B el
Ġs oci
og ether
ĠDe ad
ock s
Ġre action
Ġspe ak
con n
ĠAss oci
Ġret irement
rupt ion
ĠPro cess
M C
ĠT erm
result s
> :
ĠOper ation
ĠĠĠĠĠĠĠĠĠĠĠĠĠĠĠĠ ĠĠĠĠĠĠĠĠĠĠ
Ġf illed
d p
Pro gress
es ome
Ġres istance
sh al
B AR
Ġa w
ro ut
k t
ĠBatt alion
Ġf ly
ĠConnect icut
in burgh
Ġt ennis
Hel p
Ġan cest
ĠO ak
Ġm ile
ou st
\ /
ĠU l
ĠHer itage
h ab
op ed
ĠL am
ĠHon or
ĠRes ult
Ġoffer ing
sh op
Ġmet adata
Ġ? >
Ġtra v
2 13
ĠS port
comm un
c are
ĠArgent ina
ĠL anguage
Ġprep ared
ĠB uff
uss ion
th row
ĠT el
Ġc tx
Ġcommission ed
Ġclos ely
ĠD VD
? âĢĿ
AR N
Ġcirc um
Ġband s
init ial
Ġrecomm end
Ġs outheast
Ġh its
ĠAcc ess
tr igger
Ġr ival
A re
Ġeth nic
F ore
Collection s
d one
ĠĠĠĠĠĠĠĠĠĠĠĠĠĠĠĠ ĠĠĠĠĠĠĠĠĠĠĠĠĠ
V ill
N odes
Ġt ruth
ax is
Ġcompos ition
M ac
ĠU r
Î µ
ran e
ĠLem mon
z i
P refix
Ġeven ing
Ġcon secutive
ĠTh ird
Ġsize of
ĠPortug uese
Ġcharg ed
Ġprov ider
ĠT ag
ĠDis ney
el and
190 1
ĠPh ill
j ango
l ayer
let ion
ĠIsl am
Pass word
Ġoccup ied
det ails
Ġco q
Ġcerem ony
Ġw a
nd ef
Ġj ourney
Al though
Ġcrick et
pre v
ĠAf ghan
R ole
Ġc old
ĠQue bec
t i
Ġl at
Ġsur g
Ġconst ra
ab ad
i ples
M ilitary
ĠJ am
} $
ĠN CAA
< !
b ig
ĠĠĠĠĠĠĠĠĠĠĠĠĠĠĠĠ ĠĠĠĠĠĠĠĠĠĠĠĠ
ĠCro at
ĠU I
âĢĿ ,
des ign
ĠDoug las
T ube
ig ious
Ġch annels
U nder
Ġc ro
ts burgh
er ial
Ġinh abit
ĠâĢ ¢
Ġextrem ely
Ġsup posed
G ui
Ġsup erv
St and
os es
Ġfound ing
S em
fl ag
R PC
ĠS earch
HT TP
Ð° Ð½
ĠOn ce
Ġpers ons
Child ren
190 2
Ġdis miss
Ġcont roller
ĠT R
ĠMed icine
ĠS E
Ġl aid
Com ment
Ġpract ices
ĠMiss issippi
numer us
ĠL ib
cept ions
M ulti
numerus form
Ġset up
ĠB us
ĠK az
190 3
Ġdest ination
ĠM iami
Ġw arning
it als
Ġsignificant ly
Ġrev olution
Ġident ify
ĠD ave
m outh
Ġ ],
Ġd rawn
Vis ible
ĠSing h
lo yd
ĠAl an
medi ate
ĠR ound
ĠHT TP
iter al
F ree
ĠBelg ium
Ġp it
Ġr ating
ĠE ag
ĠArch itect
pro gress
ograph ical
Ġrespons ibility
ell ite
ap is
ĠAm ong
TE XT
II I
Ġheav ily
ĠC ase
n old
ĠN aval
Ġpost ed
ĠAr men
Ġres erved
;" |
IG HT
Ġinst ruction
ĠSt ew
Ġindic ate
Ġsec ure
iv ated
Ġreject ed
Ġauth ors
ann y
Ġb rown
S ummary
v s
B B
Ġent ertain
are st
on i
ĠG irl
Ġf ee
Ġleg end
Ġgood s
at ur
Ġpass enger
ĠD al
Ġgu ide
Ðµ Ð½
ĠE U
pl us
Ġthink ing
or ia
Ġeng aged
TI ME
ĠP ope
Ġ ip
Ġpl ane
ĠB an
Î ½
Ã ´
ch t
ram a
ĠH om
ĠA le
Reg ion
T ags
Ġproduc ing
ĠC P
ou ter
ĠH ttp
ĠAg ain
C RE
ĠStud ios
log in
j pg
or er
ol ly
ĠP ay
Ġcom ic
GB T
ĠHaw ai
s ingle
az y
act s
Ġs um
ĠC ond
ab out
Ġte en
Ġfle et
Û Į
as p
Ġpart ial
UR I
ici ency
Ġmaint ained
Ġinf rastructure
Ġestablish ment
az e
Ġbenef its
Ġ ui
a ire
im ore
Ġexperi enced
put ation
li br
ĠAnton io
Ġconf irm
Ġv ideos
B orn
Ġres olution
ĠT reat
Ī Ĵ
ĠMay or
? >
Ġprom pt
ĠC art
Ġst yles
Ġprov ed
m ask
Ġcollabor ation
ĠPu erto
Ġconsist ed
Ġ{ "
Euro pe
ĠTer rit
ĠLouis iana
m oz
Const ants
Ġoper ate
Ġ à¤
ĠT ar
ĠD ublin
ĠF ull
en z
ĠC ow
Ġback ing
Ġw at
Ġop posite
osl av
Ġo bl
ĠG a
Ġtra ined
ail and
ĠPortug al
il k
E ast
Ġbo ys
Ġdeb ate
A rea
ĠAl ber
level and
ĠP ed
Ġjo ining
ĠWalk er
m osph
Ġsp an
ĠBrig ade
Ġv eter
Pro ps
g i
) /
t c
Ã ł
Ġapp end
ĠVill age
b rief
Ã «
st orage
ul ating
ĠS ource
Ġem ot
p icker
ĠK er
. <
18 80
us ername
w hen
Ġanim ated
ĠLINE AR
Ġsm art
ant on
ĠH ockey
ĠN ag
Ġaband oned
iss ance
ĠC emetery
Ġm ir
Ġdec ade
Ġdiffer ences
un ique
R oman
st ances
Ex ecut
Ġtyp ical
ĠAg ency
ĠD ak
ĠCO VID
ac on
M ount
ar c
if def
ĠN ob
Ġdep ict
Ġfr ag
Ġfound ation
Ġl ang
Ġeng ines
ĠT it
ang ers
ĠRober ts
h ow
j ob
" /
Se lection
Ġcomp ilation
M us
Ġun iform
D epend
Ġweek end
Ġpar allel
Ġstre ets
Ġo vers
Head ers
y ers
alyt ics
ĠSoc orro
A CT
ff ff
Ġp hen
Ġin aug
Ġso le
do or
v ideo
Ġde put
s ervices
Ġre new
O pt
Ġperm ission
Ġm ys
T x
U ri
(' .
Ġch air
Ġre ign
ĠLiber al
Ġlog ger
Ġint ent
Ġs ed
ck now
ĠG arden
up load
ĠDen mark
C G
Ġf ired
Ġsc roll
ac o
Ġaccount s
Ġ å
ĠH ills
re le
edd ing
Ġw onder
f old
O ST
Ġsur pr
ĠR ab
ĠTh us
Ġloc omot
final s
display Name
ĠV in
u ction
Ġsp aces
ĠMc G
h y
An imation
d ependent
Ġent rance
ĠRef er
Ġcompet e
' ));
Ġgo ogle
err ors
ä »
ĠW olf
ver ter
ĠPh ot
Ġst uff
Ġdeg rees
ĠP ear
Ġre aching
ĠS el
r uby
ĠĠĠĠĠĠĠĠĠĠĠĠĠĠĠĠ Ċ
... </
Ġhelp ing
> ::
Ġcon vent
Ġcar bon
ol s
w en
Ġass ault
ĠStand ard
Ġch ampions
Ġlegisl ation
umm y
pre c
Ġf ramework
sw arm
Reg istry
index Of
Ù Ĩ
up lic
Ġwindow s
M ult
ĠRes erve
ra pped
arm a
ut ed
b eta
Ġreplace ment
op es
ĠP ur
d x
ĠAb d
Ġr u
Ġin fl
Ġs now
col lection
P e
th odox
á ĥ
wild fly
CO MP
Ġsecret ary
Å Ł
ĠD og
ĠTai wan
Ġre nd
Ġachiev e
PRO JECT
ap olis
ĠEd inburgh
Ġhead ers
Ġdocument ation
cl osed
enez uel
ĠN AS
Ġenc ounter
D iv
s ys
y ll
Ġent ries
cd n
ĠG rant
S ing
Ac adem
ĠB ush
M ajor
Or gan
ĠJ uan
ĠBow l
en abled
F LA
u h
Ġstand s
Ġopportun ities
Ġline ar
Ġtri es
b ridge
ĠS ud
ow ed
ex tern
; )
ĠC urrent
S an
Form er
Ġres erve
ĠIndones ia
Ġh un
Ġst adium
__ __
l ass
ĠK now
b rid
Ġque ue
Ġpe ak
Ġ' <
Ġm anner
ĠSe ction
Ġn ick
res ources
ĠL as
18 0
Ġhigh way
ĠE arly
ist ing
Ġsk in
Ġfrequ ency
or ient
Ġf lying
it able
Ġev olution
Ġbir ds
Ġfin ishing
ĠDef ense
Ġsc hedule
Ġrel ation
if fer
Ġgr ade
Ġas pects
d ied
Ġsepar ated
Ġarg ued
EE EE
ĠY an
Ġcon cluded
Trans form
ss on
ra k
Ġst ret
ch art
Ġindic ates
Å ¾
Ġscient ists
Ġv ision
p ub
Ġtre ated
ĠR oc
Ġm al
M arch
L anguage
Ġparticip ate
Ġcr ash
Ġed ited
ate way
Ġpaint ings
ĠMc K
n odes
Ġinter ior
c ing
Ġrestaur ant
. ",
Ġfil ed
Ð¾Ð ²
Ġvict ims
Ġrecomm ended
Ġexper iences
Ġpro xy
ĠAd vent
x is
Ġactress es
f ix
ex ists
Ġcomplet ion
Ġj unior
Ġinflu enced
iss ues
over ty
Ġexpl ained
ĠS n
ather ine
Ġtouch down
{ %
ĠV ector
ish ment
ub le
am ma
prot ocol
Ġs elling
Ġocc as
Over view
Ġrele vant
Ġm ine
spring framework
ass embly
Ġsee ing
ol ph
le ton
spec ial
ĠAb b
Date Time
ibr aries
es a
Re ception
Ġste am
LO CK
ex pr
r in
Ġcol our
re port
ab et
Ġd ies
H A
Ġch ose
Ġm ental
ĠN ext
Ġtre nd
ĠC ore
Ġroad s
ĠSam uel
sign ature
ĠInd ependent
eg as
g lyph
ing ly
Ġpre ced
sv g
t wo
ĠH ug
R ober
C ity
ird s
bar a
em en
Ġcont ents
in valid
Ġ[ ],
Ġmid field
ĠC EL
(' #
Ġst ood
ct ic
R ich
m ers
M ag
ĠCol omb
art icle
PO ST
ĠF arm
Ġtem porary
ĠC hem
m illion
Ġh ired
Ġan th
Ġsuggest s
Ġnetwork s
Ġcle arly
Ġ[ "
Ġp up
ME TH
ov al
ĠM aur
Ġm outh
Ġc raft
ĠK elly
Ġ$ .
requ ired
Ġbehav i
Ġmark ets
h ist
Ab out
Ġac commod
Ġmarket ing
od ge
Ġfore ach
check box
N amespace
Ġnull ptr
Ġlist ener
Ġp ione
in ian
ĠPro perty
Ġass ign
cri bed
Ġpublic ations
Ġbring ing
Ġc ards
Ġann ounce
bor ough
aps ed
Ġl es
ĠF ern
Ġdet ailed
D at
gener ated
ĠHar vard
Ġcl er
ĠC ook
Pro gram
param eters
b us
force ment
ĠBrazil ian
L en
det ail
ĠD O
Ġor ient
aw ay
Ġw ave
ĠAtl anta
Ġcould n
ĠS C
Ġcap able
ĠLO G
C oll
Ġneg oti
x html
Exp atriate
Ġcustom er
aw are
Ġwait ing
ops is
h ref
ĠB art
vious ly
189 8
, '
Ġdisplay ed
ĠS ep
leg es
Ġv ary
Ġw ish
Ġinv asion
ate ver
Ġex erc
b el
f d
ĠTh ursday
ĠDe an
am azon
pect or
ĠOr chestra
ID TH
ĠI ron
n ia
os ure
cle an
Ġcontribut ions
ĠR ick
bo ards
Res ources
Not ification
L android
Ġsh ares
ĠĠĠĠĠĠĠĠĠĠĠĠĠĠĠĠĠĠĠĠĠĠĠĠĠĠĠĠĠĠĠĠ ĠĠĠĠĠĠĠĠĠĠĠĠĠĠĠĠĠĠĠĠĠĠĠĠĠĠĠĠĠĠĠĠ
ĠR ace
ĠD anish
ĠArk ansas
am an
ĠB ull
CT YPE
Ġ" $
Ġr gba
L in
t ransl
on ce
Ġk ids
ang ing
ib l
Ġst ating
ĠMor gan
M ill
i op
view s
ĠIm perial
test s
Ġt ack
Ġtransl ate
ĠP RO
Text ure
p attern
Ġt ank
Sequ ence
fe ature
Work s
ĠO S
ay an
ĠE ver
ĠMalays ia
ĠLaw rence
En vironment
J ames
Ġd uration
ĠWed nesday
V M
Ġre nt
H istor
ĠI T
Ġtop ic
Ġteach ers
iver pool
ĠSar ah
Ġtem p
Ġcast le
Ġtransl ated
ĠLa ure
Ġpubl ish
red ited
Sk ip
W allet
D elegate
f ather
Ġref uge
L ook
Ä «
def ined
Ġinc orporated
Im port
Ġar med
M al
ĠJac ob
com plete
Ġhost s
ĠLegisl ative
SE LECT
Ġm ig
ĠSe attle
Ġ ..
Ġconsist ing
Ġpass engers
Ġaddress es
Ġwhe el
us cript
ĠCh ange
Ġh am
Ġpri ze
Ġbank s
âĢ ĺ
ĠFin land
D en
Ġdyn asty
end ment
el lect
Ġdesign s
Ġchar set
ĠL ang
ab ric
EL D
on omy
ĠL ear
sh a
Ġroom s
p u
ke ep
ĠBru ce
az ines
Ġrun ner
J uly
ĠM S
W eek
ist ence
Ġdeliv ery
Ġac compl
B et
Ġsever e
Ġex ecute
Ġtyp ename
p ol
Sh ape
Ġch apter
f x
Ġmay be
Ġmembers hip
Ġ{ {
Ġmov ies
ĠH oll
wh o
ext ension
ru le
Ġdr ag
Ġplan et
onym ous
ul p
Ġp and
ĠPe ace
ĠComm ander
J une
Ġcollection s
ĠP un
Ġp ub
ĠT ig
ĠL ieutenant
Ġfavor ite
Off icial
ĠN ep
ĠHistor ical
ĠBang ladesh
Ġl iqu
aud i
P aul
Ġres igned
Ġdiscuss ion
ĠAn na
) }
Element s
Ġaccomp an
N ative
ĠS ite
Ġun c
Ġrul ed
Ñģ ÑĤ
Ġgradu ate
ĠÐ ¿
V P
ĠF M
Ġann iversary
DO CTYPE
Ġass umed
ĠArray List
N C
EEEE FF
ĠAL IGN
ĠOb ama
Ġm urd
x i
EN SE
ĠC ra
Ġl it
Ġd uty
ĠTh ailand
s che
c atch
Ġexpl an
Ġm art
print ln
ĠD NA
R ad
Ð ´
N ET
ĠP ap
A ugust
( @
Ġcre ative
S ch
Ġst ages
U D
an im
IT ION
Gener ated
rupt ed
st able
Ġsing ing
vis ible
Ġphilosoph y
Ġadapt ed
Ġs we
n est
Ġload ed
Ġthe ore
Ġw aters
189 9
D im
Ġregular ly
ĠÃ ī
US ER
ĠOn line
B ind
P at
ro ute
ĠVol ume
Ġfranch ise
Pr ivate
ĠO d
pro fit
Ġsy nd
Inst all
VAL ID
Ġhel ps
Ġb reed
f c
Ph one
ĠAll iance
Build ings
Ġassist ance
Form s
ĠG irls
ym p
ĠPal ace
Ġmed icine
M ath
ĠC ensus
get Value
13 0
Ġund ert
ĠOper a
ĠO m
Ġmass ive
Ġdesign er
ĠL com
(' /
ĠE qu
con sole
p red
Ġdeb ug
ĠP ut
ĠTr ade
poss ible
Ġemer gency
ch anged
arri er
Ġs ending
ĠFreder ick
ĠM ission
Ġrat io
hib ition
F ORM
ĠMP s
ers h
ĠP eters
g on
Ġdis appe
ĠH op
app y
st ory
Ġpro ps
Ġkn ock
Ġal ert
ĠCom ics
ĠSc ient
Re al
k ov
g ments
Ġown ership
F M
pro duction
ĠâĢ ¦
ĠLe ad
E ST
ĠMark et
ort ed
= \"
ĠP R
Ï ĥ
ĠG ran
Ġd ial
18 70
Ġcour ses
ili ar
h ill
Dom ain
Ġis lands
ĠE mer
is ations
B L
ç Ķ
Ġen um
Ġcl ock
Ġgu ar
à ¦
Ġtalk ing
ĠUt ah
/ _
Ġ ðŁ
ĠCh airman
Ġag encies
Ġproduc ers
Ġpred ict
Id s
Ġland s
ĠUk rainian
j d
E P
om as
ĠB it
ĠT uesday
lo ader
Ġm d
ul us
ĠTra ining
ass andra
ri eve
æ ĸ
dep th
ĠYou Tube
Ġw ine
Return s
ĠWork s
ï »
r ary
Ġinhabit ants
ĠV ar
ĠD yn
Ġman age
Japan ese
ĠDep uty
A pril
VAL UE
S ongs
ĠS IZE
Ð ¼
s ig
Ġw ire
ĠSh ah
yth m
ĠPro p
Ï ģ
Ġth ick
uk i
z z
Ġres olve
Ġtw elve
ĠP as
per m
ĠSchool s
Ġt on
O ld
Ġcons umer
Ġs udden
It alian
Ġexp ed
or us
Ġmatch ing
ĠYear s
ran ches
p ull
inc orporated
Ġex pos
ĠSystem s
P ubl
f lex
Ġ ];
Ġg lob
Ã© n
Em ail
M c
comm ons
f air
lo om
ĠL ane
189 5
Ġm ilit
ï» ¿
ĠMont real
METH OD
oc a
r ating
li k
Ġmag n
D ictionary
nt il
ĠP ack
ĠS P
ig o
() ))
fol io
e lection
ĠC ole
ĠK ings
ess ed
Ġas sets
oc ity
Ġcom fort
h att
ĠCap ital
t emp
ĠK it
M ask
Con nect
Ġregard ed
ĠB ou
omin ations
Ġex ceed
ĠC SS
Ġhe aring
ĠL anc
ish ops
Ġval ign
St ats
Sub s
ĠF ive
Ad min
% "
rand om
ĠD ance
Ġsubject s
ament al
NavBar Font
Ġunivers ities
Ġschol ars
Ġpubl ishing
Ġa cknow
Com par
not es
ĠF el
ĠCon stitution
ĠD ue
ĠD allas
pre ne
is ition
ile vel
Ġdep ending
ĠF ight
Ġg ather
Ġc ash
ĠRuss ell
Ġh olid
ĠP atri
pro xy
ĠN ash
g oto
189 6
ploy ment
Ġpra ised
Ġim g
ĠD ub
Ġrelationship s
Ġad mitted
Ġadj acent
j u
il st
ors es
ev al
Ġpl ugin
g ow
Ġsp end
ĠMarg aret
ĠS ac
Ù ħ
Ġseem ed
ob by
ĠN AV
Ġtransp arent
DE FAULT
Ġres idence
o i
p ython
Ġclass ification
r ons
Sc ott
ĠC rown
Ġmy th
Ġtr igger
ed ed
ĠRog er
iz z
ĠH ell
How ever
Ġindic ated
re prene
Ġexpl os
ĠVal id
Ġs amples
Ġall Classes
Ġsust ain
Ġwrit es
Ġhead s
Ġt sd
Ġbrief ly
Inter val
Ġadv is
re lease
189 7
Ġun us
Ġtime out
I gn
AN T
ĠMar shall
if ndef
ĠA T
Ġground s
ĠStew art
d y
as a
Ġt ropical
ĠG on
en able
ĠAust in
am o
Cl oud
Ġcirc uit
ĠEconom ic
construct or
ĠallClasses Link
Ġsign ing
as ync
ĠR ight
Ġres ign
Ġs pl
ĠCont in
Ġtask s
ĠThom pson
Ġsound s
bl ank
Ġrecord ings
Ġp ure
li ed
ia st
Ġfeel ing
Ġpro of
sc ss
ash i
Ġarch ae
ĠCh amber
P al
Ġdyn amic
Ġc md
Wh ere
R ussian
side bar
ĠE ND
ĠF ROM
ĠX ML
Ġax is
Ġ ing
ĠS QL
ĠW ard
' ];
ĠPit tsburgh
12 7
Ġl ose
Ġ( [
ong o
check ed
Ġan aly
Ġcarry ing
Ġsevent h
Ã ª
amp s
iven ess
ĠF al
er os
Ġappe al
Ġb ind
ĠKn ight
Pro duction
s ong
âĢ ¢
ĠPubl ishing
Ġpropos al
DE BUG
ĠB uck
RE Q
f actory
ter y
Ġcrow d
******************************** ********************************
Ġh ill
INT ER
se a
ĠRes ponse
ĠB ed
ur ers
Ġb es
Att r
h us
Ġthan ks
ĠB eck
ĠAust rian
i ot
ĉ ĠĠ
ĠP ad
Ñ ĩ
ĠAg ric
ĠR ugby
Ġc rown
w arning
ĠA C
ĠI ss
ac cept
ĠP rad
ir ates
Ġcl ients
bl ast
ĠN elson
"" "
Ġkeep ing
ig ins
Requ ired
an ian
Ġmanufact uring
Ġhead ed
L ight
Ġentertain ment
pl ays
ro c
ĠTam il
ch ain
support ed
Ġagric ultural
Ġdef ensive
ia h
Ġal coh
end a
ĠN atural
ĠO bserv
Ġbo ost
ĠCommun ist
Ġre ception
Ġg ang
Ġre duction
le ans
Ġb rick
ĠSt atus
ĠBoy s
Ġre in
in ations
ĠN ever
; ">
{ "
Ġg arden
Ġdrug s
t or
SC R
Ġap ilevel
ce ive
ou ver
ro ck
P air
Ġm ail
Ġn p
; }
Ġil legal
Ġdam aged
ĠC leveland
ĠF uture
Ġcour ts
Ġmin ing
O ur
ĠBe at
und efined
ĠU rb
(" /
ĠJ ason
ĠRob inson
å ®
ĠAuthor ity
C ard
P ers
m aker
ĠD ie
ĠEx per
S W
id o
Ġoff ensive
Ġcon version
Ġrow s
E V
time out
st e
ilt ers
Ġplatform s
Ġt mp
ĠTh or
app oint
V olume
NS String
ÃŃ n
Ġathlet es
Ġver ify
M ouse
Ġag ents
Ġmar ine
ĠÂ »
ĠMet ropolitan
ĠMet ro
net ic
S creen
K e
s ch
ĠBet ween
A li
ur st
ĠCh ampion
Oct ober
in f
ĠWel sh
ĠMot or
Ġt all
Ġp rices
ĠCon stant
ĠV ik
B ound
Rail way
ry ption
ĠC lient
Ġtechn ique
ah n
ĠPr incess
W ait
Ġconcern ed
Ġro se
U C
ĠW oman
oun sel
Ġpl ate
Ġra p
Ġlabel s
Ġm ob
k top
Ġb on
ĠS D
ov o
em on
Ġsuff icient
Ġgr ass
Ġf est
ĠMount ains
Ġsc en
Fl ag
qu ir
ĠEd ition
Ĥ ¬
Ġb ishop
ĠP A
Ġearli est
MOD ULE
Ġpro s
Ġc atalog
Ġvisit ors
op ts
Ġphot os
nap shot
Ġcan cel
i est
down load
te ction
ograph ics
ĠIn put
Med al
re pe
ĠAN Y
ĠA BC
Ġknow s
Ġfr agment
Ġresearch ers
Vill ages
Ġat mosph
Ġab use
ĠHung ary
Ġadv ice
S ave
cont rib
h l
ĠRail road
ĠC S
t k
ĠCo oper
ab il
Ġinc orpor
Ġsp oke
b log
Sh ould
empl ates
Ġ urg
ĠL ook
r Ã©
Or iginal
Ġpay ment
ĠJoh ann
og ram
ĠKenn edy
ip her
Ġparticip ants
Ġf old
Ġtra il
Comp at
ic ator
ic he
Method s
ĠChrist opher
ud es
Ġconstitu ency
ine a
Ġins urance
ĠR y
refect ure
Ã³ w
En umer
Ġign ore
comp ile
Ġv ul
ĠSen ator
ĠCl oud
ĠL iverpool
re nt
Ġde pos
Ġm oth
Pl atform
å Ī
Ġinstr uments
Ġsp ending
Ġsche ma
B en
ĠG ill
Ġfall s
G P
ĠO ri
s ol
at omic
riev ed
rick et
ĠA SSERT
ran ean
arian t
irm ingham
ĠWeb site
Ġve get
Ġfem in
ĠC atal
ĠR ap
Ġjud ges
Ġc ategories
ĠSm all
Ġhand ling
li x
hedul er
Ġchalleng es
ĠR an
cept or
188 9
ĠG ulf
ĠMur ray
ĠG ray
Don ald
ĠEx pl
ĠW atch
Ġem p
Ġb inary
m ill
hel per
n ik
F ramework
ĠBalt imore
Ġb inding
R ob
ĠInst ead
Ġrest ored
u ke
A ir
I X
Ġext ent
189 2
Ġv irt
ĠV enezuel
Ġcorpor ate
Ġprom ise
on om
P y
_{ \
ĠCamp bell
ĠHamp shire
V E
Ġbound ary
ra ud
ĠM ust
Ġmov es
ĠAd ams
Ġast ron
th a
Ġsign s
y y
Ġsurv ived
f ish
Ġext end
CH AR
Con stant
Ġassert That
Ġincreasing ly
work s
Ġwork er
Ġshe l
il arly
Ġe at
ĠBrook lyn
Ġcompar ison
Ġh a
eb r
ĠH it
B r
ĠWh y
W arning
ĠR io
ä º
pr ison
Ġex ports
Ġ\ "
et ition
M IN
act ivity
Ġorgan isation
w p
ĠMe an
ĠNig eria
Ġdiv isions
Ġher itage
st ers
189 3
ĠW rest
B M
ĠM ult
Ġclin ical
ĠH end
ĠP rom
Ġinst ances
og ue
Ġd ating
An other
" ],
Ġv el
Ġsol utions
count ry
G ER
u er
Ġout er
RE G
Ġwith d
Ġrem ark
Ġweek ly
ĠAp ache
ĠDemocr ats
Ġp apers
Polit ical
s ync
Ġcritic ism
Ġdi agn
ĠM eg
ĠP sych
Ġcontrol s
Ġo bs
Ġo dd
Ġrac ial
N N
ins ula
j amin
u is
m ount
stit u
Ġdet ect
ir i
put ed
Ġsup plied
Ġdec isions
Ġstr uck
ĠAl fred
Ġarr ival
y ou
ĠA rena
Ġread only
Ġpartn ers
ist ration
f ixed
test ing
L ike
og ical
Ġoper ates
ĠCent ury
te am
oen ix
ĠMain e
ĠVi enna
Us age
or ce
ĠW right
ord ered
ug oslav
ar us
ph ere
H ere
am ents
Ġcover ing
P M
ĠLim ited
Ġdeput y
ĠNAV BAR
ĠGl as
Ġcrick eters
W ord
h ai
Ġcertain ly
ĠKar l
v et
Us ers
D b
Ġsound track
ĠRef orm
at on
Ġpremi ered
Ġsomew hat
B ean
Ġpattern s
Sup er
we ek
bl ue
Ġal gorithm
s ocket
Fr agment
map s
Ġk it
og a
St ation
b ai
Ġresident ial
Ġb right
ĠBro thers
Ġhor ror
Ġhundred s
ort on
18 60
list ed
ers e
ĠF ig
Ġs urre
å ħ
D ATA
ĠMan ager
Ġpercent age
Ġt ied
ĠGra ham
ĠIn v
ott ed
p air
ĠMar ie
En v
ĠRoman ia
S yntax
Ser ies
189 4
ag ger
Ġland scape
Ġcolon ial
ĠEd itor
ĠF ind
Ġim press
ĠA qu
Ġinstit ution
ĠD est
ill o
Ġcol ors
ot ation
B egin
D IS
189 1
Se ptember
ĠJ osh
r ift
ĠOr thodox
Ġbu f
Det ail
el i
Ġsub t
Ġm ouse
Ġbe ar
ob a
Ġmiss ed
ĠK an
bas ic
ĠCl inton
ĠG rad
Ġtarget s
ĠK o
ĠJud ge
os m
Ġso il
Ġsol ar
Ġf at
ĠLeb an
St ud
Ġ ere
pl ier
S chool
Pro fess
cond ition
ĠDak ota
Ġdraw ing
Ġdesc end
s n
group s
ograph er
IN S
ĠR ain
ĠT rad
Ġpre gn
opt ional
Ġappro val
" ].
C ALL
Ġrail road
Ġmod er
ĠStud io
Ġsh ock
Ġc ursor
Ġn ations
ĠN am
Ġarran ged
p df
ĠFri ed
ro ph
Ġmet ers
it is
ĠK on
B order
Ġt ub
ĠCon c
ĠT ak
ul u
: `
Ġcre ates
ĠO N
new s
Ġthe ater
TR Y
as i
ig ate
L ower
Ġval ley
ĠMad rid
h al
ĠOr leans
claim ed
188 5
Ġaccompan ied
ist ical
h our
Ġstrong ly
Ġpe er
fe ction
Ġchild hood
ĠP lease
ĠOrgan ization
ĠH old
Ġres et
Ġeffect ively
End point
var iable
Ġf ruit
Ġ" ";
Ġre nov
Ġspec ify
ĠD ouble
ĠT ree
Ġ' '
m id
cast le
F E
Ġseek ing
agnost ic
Ġp overty
Vert ex
anc ouver
Ġb id
Ġmer ge
ĠN ation
Ġben ch
m ate
ic ode
ĠTh ough
ĠOtt oman
ran k
aval ry
F UN
ĠPl ant
Ġ ul
/ .
ĠN ar
lot te
t ers
Ġt y
libr ary
Ġg rown
Ġturn ing
Ġe c
Ġw ww
Ġin ternet
Ġs ynchron
gress ive
iv idual
Mich ael
Ġbe ach
Ġeff icient
ĠTr ack
ĠHung arian
S M
T T
y cle
load ed
n ative
Ġdep ends
grad le
m un
Ġare n
ge on
ĠMov ement
Ġc ited
Ġnorth west
Ġcon n
Ġo x
Fl ow
ĠR ural
Ġprov ision
in itions
L L
ĠBern ard
ĠCon vention
Rober t
DO M
b ach
Ġt ags
ĠCar ter
int eger
ĠY e
b uilt
ley ball
u ated
Å Ħ
d ale
ĠN BA
Ġwith draw
ĠV erm
cast ing
Af ric
Ġb aby
ig ible
1 14
cre ated
Ġb in
Ġtyp ed
por ter
d eg
ĠAcc ount
ĠJos Ã©
run time
S ample
P UT
f i
$ ,
Ġle af
apt ist
Ġme ets
d c
urric ane
Ġjournal ists
P resent
clud es
Ġclos er
Ġmain tenance
ĠM embers
ĠĠĠĠĠĠĠĠĠĠĠĠĠĠĠĠ ĠĠĠĠĠĠĠĠĠĠĠĠĠĠ
Ġw ounded
Ġspe aking
ev a
MO DE
Ġex posed
Ġr ide
Ġco ins
Ġh ide
Ġt act
ĠJ enn
Ø ¯
is Empty
ĠC arn
Ġneigh bour
ĠâĢ ł
ot on
inher it
and al
trans ition
P P
ellect ual
Ġopt s
ĠCar ib
Ġim pl
Ġm atters
l arge
ĠE sp
Ġcommand s
Ġhapp ens
Ġvot ing
ĠL ower
Ġadvert ising
Ġterm inal
ĠM ars
ĠOr d
eff ect
Ġreli ef
3 60
Ġcon crete
Ġs ync
er ic
ĠSever al
Q U
ĠFrank lin
le tt
umb ent
The me
ĠU lt
Ġent ering
M aster
Ġreport ing
ĠD B
Ġpost s
Ge orge
Ġrele ases
b ow
an imation
ul um
Un known
l u
Ġgener a
ĠTra il
ĠC G
H ub
ĠBl ues
Ġactiv ist
Jan uary
N amed
ev ens
Ġvot ers
Ġprior ity
face book
Ġimmedi ate
D R
Des ign
Ġinj uries
al ert
ty pen
en berg
Ġtrans mission
Ġse es
Ġthrow n
ack son
sp acing
188 8
ĠSer ver
Ġpro ve
ri el
M r
E very
ĠG ary
ĠSy ria
ĠSt age
Ġpaint ed
Ġj uris
arch ive
Ġre venue
m und
Ġcol le
Ġret ained
OR TED
ĠR ico
c ussion
SS L
Ġden ied
pro gram
res olve
Ġland ing
u art
ĠB ible
ER S
S ep
ĠLank a
OR Y
Ġexcell ent
ĠUp per
ol ia
Ġabs or
Ġman uscript
m ouse
Ġpo em
Ġpand emic
Ġdiscover y
/ "
e per
Ġreg iment
mir al
Ġinst ruct
z ip
ok ing
ryst al
ge o
Ġdou bt
ĠR ud
trans action
bl ack
ah o
u able
ĠMatt hew
j ax
10 2
zer bai
Ġload ing
Ġlim its
w right
Ġmov ements
Ġcharacter istics
M ove
Ġemploy ment
Ġcopy right
Ġess ential
v an
Con structor
re ck
Ġenjoy ed
ĠN eg
id ency
Ġresc ue
Ġst ats
iter ranean
Ġfac ing
Ġre verse
ĠD im
ĠJim my
ic ious
Ġl ift
ast s
n an
ult an
l ights
S ql
Ġapparent ly
Ġapplic able
Ġven ues
Ġad m
hatt an
ĠGu y
C B
Ġprison ers
d ig
ï¼ Į
list ing
Comm un
NO DE
Ġcon ven
ĠJ u
B ro
C LASS
R aw
Ġd uties
il ty
Ġpen alty
Ġcom ed
ĠB illy
ĠD J
ĠCh art
w ill
Ġ@ "
av ior
IO Exception
typen ame
g ov
Ġbr ig
Ġcritic ized
olv es
ĠQue st
r ator
L ater
ĠAnd y
w as
ier archy
'] ['
18 65
ĠM i
ow ski
b atch
: @"
ĠE ss
å Ĳ
f are
j ab
Ġr id
Ġr ivers
Com plete
ĠChall enge
ĠDel hi
P red
Ġcontin uing
ĠStan ley
ĠN ord
Event Listener
ĠDE FAULT
Ġo verse
Ġon going
read er
Ġpers pective
Ġtem por
ĠR u
Ġfl u
Ġcomp re
id ad
ab a
ĠP ictures
Ġrom antic
á º
Ã¶ r
Ġcompos ers
c ia
Rec ip
Jo in
ĠD ictionary
ĠM aj
10 5
="../../../../../../ ../
ĠĠĠ Ċ
Ġst able
ĠCons ervative
Ġpick ed
ra ctions
) \
b ishop
Ġs oul
init ely
ick ing
object s
hens ive
' }
ĠU g
it i
ĠPort land
ĠA ug
Ġar c
ĠP os
ĠAp plication
av ailable
Ġp ictures
um ar
ä ½
LO C
Ġtal ent
ĠCont ent
ĠF OR
Ġn ice
In formation
Ġeas ier
s ample
if le
ĠL ith
p olicy
Ġim prison
v olume
E st
ĠTe ch
Ġ ig
ĠL GBT
Ġg ay
Ġprep are
Ġrec ru
ĠWar ren
Ĩ Ĵ
Ġ' \
lo op
Nov ember
Ġgen re
Ġm aps
Ġpaint ers
vert ical
ĠF er
Ġcon front
oust ic
ult ane
ble m
ĠSt orm
Input Stream
he ets
Ġrough ly
B ur
ĠSt ore
t witter
Ġadult s
De cember
v ia
f iction
Ġclass ified
Ġre putation
> )
Ġprop ag
sl ice
Ġloss es
ag ar
Ġgu y
mer ge
Ġstat ements
Comp iler
Ġmem orial
ĠBroad way
Ġcont ribution
Ġwatch ing
clip se
D an
Ġdis k
s uch
he el
B al
C lear
Ġsurg ery
Ex ecution
D rop
ah a
Ġtra ce
fort un
er as
Ù Ī
ĠAfghan istan
Ġproper ly
(" #
Ġan chor
Valid ation
ig s
Ġcon ver
Ġf ake
Ġexperiment al
Ġnot ably
Ġall oc
ĠBo olean
188 7
Ġr ub
Ġt ie
Ġfinal s
ir ms
em ale
T ile
ĠT ax
es ian
Ġpopular ity
ĠN i
UN D
Ġlicens ed
ĠT ournament
evel oper
ĠElect ric
ĠSt ars
Ġco ff
ĠH um
) ",
Ġsp in
ĠZ one
Ġde bt
s qu
p res
U ST
s ome
Argument Exception
ĠI an
() ),
Ġappear ing
ĠPr ivate
iz ard
AN CE
Ġdanger ous
Ġtrans actions
Ġtest ed
Dr iver
Nav igation
Ġn a
Ġvol umes
or row
ish ments
Ã¨ re
ur u
usal em
å ¤
'] );
Ġassoci ate
ĠM ock
Ġprefer red
Ġc ous
agnost ics
ir k
Cons umer
ĠW ind
Ġprint ed
ĠPolit ical
iv ia
b ers
ĠThe ater
port ion
Ġdisc ipl
ĠJon athan
ĠAthlet ic
Ġdec ide
ĠWh ere
au ge
ĠR ange
over view
hip s
ĠDes cription
B ad
getElement ById
or igin
ĠWay ne
On ce
ĠBar ry
t own
Ġadapt ation
Ġr is
Ġv ast
pan ic
D ATE
t race
N V
Ġsent ence
ĠB ey
Ġmechan ism
s is
ul i
AN G
ok a
C ur
ĠW AR
Ġfriend ly
L ive
Ġparticip ation
Ġdiscuss ed
op les
n ed
se lector
ĠO blast
ĠPro duct
ĠPr im
Ġup dates
Ġposs ibility
dis able
ĠB asketball
Ġmeet ings
Ġclos ing
Ġflow ers
ĠW IT
_ );
Ġstay ed
RE E
og s
ag ent
writ ten
Ġnav al
ast ery
ina e
R adio
pre p
Ġvis iting
rav ity
ĠElement ary
Ġp or
ĠT ob
E ff
P ack
e enth
enc er
dr iver
ĠK r
g overnor
c ite
ser ies
ĠColon el
Ġexpl ain
Ġne ither
ik o
Ġthem es
Ġdebut ed
sim ple
ex it
ĠS ets
ĠK u
ĠM ess
Ġnewsp apers
W atch
ĠM O
ĠB aker
B inary
greg ation
Ġd owntown
Ġsub mar
ud son
ĠB irmingham
Ġ' ./
1 15
up t
kw args
dest roy
ĠT ower
1 16
Ġmount ains
Ġindic ating
Ġsynt hes
ĠR and
R R
Ġdef ence
ĠOption al
L at
itar ian
back s
ĠL iving
Ġmys elf
Ġart istic
empl oy
valid ate
g ood
if ts
ĠEv ans
ĠH orn
olv ing
Ġprov incial
sp ir
Ġf urn
O h
ĠRe qu
Ġtrad ing
Ġstar red
Ġpubl isher
ĠChar lie
t ies
ĠCommun ications
ĠL oad
ĠE ff
ĠNaz i
N UM
ĠK ath
Ġsk ip
fr ac
ail ability
l at
Europe an
ĠRem ove
Ġb old
ag ination
Ġt ur
ĠMit chell
Ġg ift
G reen
form ed
Ġb ot
it ime
Ġvar iant
Ġnorm ally
re act
Ġtalk s
ĠJ azz
assert True
Ġint ention
Ġcoast al
ĠV ari
Ġtransport ation
rad io
tern oon
FI ELD
nav igation
ie ge
ĠDef ence
Ġpro fit
log o
Wh ite
s f
Ġan gle
ĠGlas gow
m u
i ology
C M
fe ed
c red
M icrosoft
ĠB omb
Ġc up
ĠU pon
Ġsu icide
pl an
Render er
um ps
Ġb atch
ught ers
Ġf ishing
Ġs b
STR ING
id en
W in
Ġ" ",
Ġm or
in us
Ġsouth west
cl uster
et ry
IL D
Ġrep orter
ĠI F
L Y
ĠB ud
line ar
Ġleg acy
Ġappoint ment
ĠMov ie
1 17
Ġe arn
Ġinteg rated
È Ļ
ĠS occer
Wh y
Ġexplan ation
Ġse lector
ĠC ultural
Ġlog ging
l ia
Ġcred ited
Ġb ranches
p rom
Ġlog ic
grad uate
b rand
Ġcount ies
1 13
re v
Ġb its
ORD ER
A udio
ĠW IDTH
188 6
al is
ov iÄĩ
Ġthous and
Ġpay load
Ġvess els
Ġdecl ine
Ġas king
Ident ity
our t
duc ational
ex ec
Ġ_ ,
Ġfac ilit
ĠR ub
Ġhabit at
lo or
Ġass um
Ġaff airs
ĠSte el
Ġqual ifying
T own
ĠN ad
ĠHun ter
Ġrepl acing
as hes
Ġacc ord
P an
Ġperson ality
rypt o
ou p
ĠC arm
Ġj s
F act
ĠPr int
Ġcross ing
et on
ĠW ing
ĠClass ic
Mark er
oth y
rist ol
Ġcent ers
ĠSp irit
Ġcompet itive
writ ers
Ġ' ';
Ġcl ar
iv an
ĠN ature
ĠNorm an
Ġcommun ications
Ġsuccess or
66 66
Object s
ĠAdd itionally
J ew
Ġt rick
ĠL ock
Serial izer
in os
ust ed
b ian
Ġsusp ended
ĠSt ream
ĠCl ar
u its
ĠC ass
ĠV egas
it ations
ĠAb stract
RE D
em or
oc c
Ġp airs
L imit
s em
ij ing
Ġel der
ĠS ax
spe ed
am ics
Ġus ual
1 12
Ġnav bar
ĠL java
^ ^
Ġdes ire
w d
Ġdepend encies
Ġuns uccess
C ursor
ens ional
ĠCarl os
Ġere ct
ĠL P
Ġexerc ise
ĠG T
Ġ" [
| }
: [
Ġcomp are
ac er
ĠC le
ĠCat hedral
ĠPr imary
R ound
Ġinher ited
Ġbeh alf
Ġweap on
d atabase
ĠB enn
( /
C enter
bo ost
p aper
Ġm apping
ĠWrit e
w inning
Ġar bit
Ġd ated
A lex
ĠG un
Ġflow s
Ġgovern ing
Ġcelebr ated
Ġg iant
ĠRes p
We ight
Ġwor st
Ġsc r
Ġsp oken
10 4
u ite
al ph
Ġinvolv ement
Ġform ally
ham mad
Process or
Ġed it
on ian
Ġs essions
Ġsh aring
m aking
Ġatt orney
Ġelect ron
18 64
lect ric
S at
nc ient
9 00
ĠR acing
ĠMic hel
Ġh ip
Ã ¦
ĠD h
ĠM other
Ch art
Th row
ĠM ack
Ġround s
Ġp ian
Y Y
ĠE le
18 50
Ġre con
Ġf aster
C ONT
LO W
ext end
ĠV el
UM M
for Each
ific ial
in ction
Ġfor g
Ġsym pt
Ġt ight
Ġvers us
ĠAthlet ics
188 4
ok er
Ġmed ieval
Spec ial
ex pression
P HP
ĠH ope
0000 00
t imes
Ġmet a
us c
Ġbusiness man
Ġs ight
B usiness
Ġbeaut y
b one
18 61
oper ator
Ġvalid ate
ĠE dd
ex pect
Ġident ifier
ĠAss istant
Ġwould n
B Y
Run ner
Ġread ers
ĠM obile
Ġsupport ers
Ġtop ics
Ġguitar ist
Copy right
Ġind igenous
ĠPark er
ĠJohn ny
Ġdefe ating
uk a
ĠB eg
Ð ¿
ot ing
Ġphen omen
t f
j et
Ġh at
m ates
Ġann ounc
Ġfam iliar
Ġcr imes
Ġel if
th rough
ĠB ranch
ĠYork shire
ĠH ub
dep recated
av an
B atch
Ġsm ooth
tr l
Ġfl ash
iv o
Ġthreat ened
Ġsub mitted
F older
Ġo l
y t
O C
Ġe q
> ;
f olk
j Query
ĠL ud
C r
Ġrece iver
ĠCarib bean
ele m
Ġda ughters
f g
av el
H z
T om
A z
Ã Ł
ĠM ut
ra ham
ĠRich mond
ann on
Ġg ran
P ress
Ġpr on
ĠAp pe
Ġking dom
SCR IPT
B ottom
d uration
V AR
A UT
Ġinstall ation
Ġphot ography
Draw ing
in ated
Ġfail s
kee per
Sp anish
b its
Ġmag azines
Ġpath s
ass ign
Ġbring s
188 1
Ġfall ing
ĠEx change
C he
ĠV ancouver
ĠSpe ed
ĠF ine
Rem ote
ĠFI FA
Ġcircum stances
ĠA ld
or o
m essages
Not Found
z ym
Constra int
F ebruary
ool s
ĠPrad esh
rypt ed
Ġto w
Ġacc eler
Ġ ur
ĠP refecture
ĠFinn ish
ĠAl aska
ber ry
ĠDr agon
Q ual
Ġm it
Ġwalk ing
Ġpl ain
ĠR angers
ĠK l
ĠS audi
Ġdecl ined
min ute
Ġrul ing
Ġrec re
ac re
Ġdoll ars
Ġsuit able
it ure
ST ATE
Ġex cess
ĠIl legal
Ġg olf
Ġ æ
sc ar
Ġincre ases
al g
Ġbre aking
Ġass ass
Ï Ģ
cel ona
Ġtechn ologies
Ġcons ervation
Ġwill ing
ĠF ab
ĠMunicip ality
Ġaccess ible
Ġnom ination
Ġelect oral
Valid ator
ge bra
osp itals
Ġtr uly
Ġreg ime
pos ing
ĠI ce
Ġbir d
ĠFl ore
sub mit
ĠMan hattan
Ġregist ration
ĠRo om
Dem ographics
Te am
AT ED
Seg ment
ĠM all
an ne
Ġspirit ual
ag raph
ad r
arg uments
Ġsh r
Ġide al
ĠU P
Ġt ables
N P
Ġexp ensive
ĠP il
ĠJer usalem
iz ers
Al umni
ĠM L
ro v
Ġfl ower
for ward
ĠDer by
188 2
Ġstrugg le
t w
Ġabs ence
r f
ĠBelg ian
Ġwhere as
ĠRefer ence
Ġpass ion
ell ij
ĠDe ep
ĠPol y
Ġd iam
Ġg od
Ġtown ship
ĠW as
Ġcomp ens
b rew
F ocus
Ġmag ic
Ġcon vention
load ing
Ġwh atever
ry ing
Ġfew er
Ġcancell ed
Ġther apy
Le ague
Ġwear ing
Ġ> >>
ĠHind u
Ġw aste
ĠS uch
ĠAut o
Ġext reme
Ġgovern ments
op al
ent o
aud io
Ġ" %
ĠBar bara
ĠSt ruct
Ġsubstant ial
Oper ator
Ġswim ming
ĠA y
Ġstudy ing
ĠF ather
ue z
ĠCon n
ĠSal v
Am ount
Ġt elling
ant ine
Ġconsist ent
18 63
/ ">
ĠL ore
ĠInd ians
Annot ation
Ġactiv ists
iss et
. :
ak u
Ex ample
ĠO range
I AL
Se ason
l icense
Ġoccup ation
ic ht
Ġput ting
ĠConf eder
Ġal ive
get Id
plic ated
Ġem bed
ĠNev ada
G ood
O F
ĠIndust ry
ĠF reedom
Ġb attery
ot ton
S am
ort ion
iff s
ĠAtt orney
arri ors
Z one
Ġconcent ration
Ġrapid ly
H or
Ġf ictional
Ġalcoh ol
ĠPro file
ĠBe h
Ġdr iven
hold ers
Ġaff ord
Ġf antasy
Ġrele g
ĠProfess ional
ab e
ol en
int ellij
al ymp
14 0
AS K
cl one
ĠM ind
p in
Cont ents
ĠC ricket
Ġpop ulations
direct ory
Group s
ĠC R
ĠTro phy
Ins ert
out ing
Ġs ys
ace ae
ĠArt icle
ĠC er
Ġign ored
ON G
Bas ic
ĠAd vis
ĠS R
glyph icon
Ġw et
can vas
ĠB ron
Pl an
Ġf asc
LE D
ĠWrest ling
Ġsurround ed
b ie
ant i
Ġwood en
Ġtr uck
ph rase
o j
Ġs ocket
Res olver
A E
Ġvict im
ĠO C
Ġperm issions
spec ific
ĠP ra
ebr aska
ĠV irtual
elf are
or f
Ġcompet ing
pl oad
ĠHawai i
ĠJ e
Ġ' .
ĠRes ources
u et
ĠC F
Count ry
ĠIran ian
N ormal
AT CH
: '
ĠMil an
Ġexpl o
ĠBen jamin
Ġb om
writ ing
ach t
DE F
ax y
mem ory
F uture
ĠG iants
part y
ĠM ong
# {
Ġdivers e
ĠSerb ia
st age
b d
Ġst im
Ġg allery
qu er
con vert
ĠSim ple
Ġequ ipped
B inding
ĠF alls
Ġdim ension
F n
Ġcomp iled
Set ting
Ġproced ure
end ers
Ġcon j
Ġforest s
ed u
high light
Ġsuffer ing
ext ra
ĠCom puter
p read
aj a
comm it
Ġa apt
Ġvess el
ĠF eb
ĠFin ance
oc al
AR D
Ġliqu id
Ġlocal ity
Ġform ing
; |
T ur
Column s
ĠEgypt ian
ix els
S ame
Pro to
Ġprinc iples
ĠCh ron
to Be
Ġcon gress
Ġman ip
Ġp seud
Ġto m
Ġs alt
ĠSh a
re z
Ġyour self
Ġc able
v ing
ser ial
ĠS even
ke ley
Map per
18 62
ĠDr ive
f etch
Ġ" .
v c
Ġn ut
ĠS ide
Ġcons ervative
Ġw ides
Ġe ase
Ġill ness
f am
ĠD ays
Ġcl imb
ĠPubl ished
C ulture
Ġsat ellite
fer red
P lease
b lob
Cont act
ib ilities
ĠÐ ²
ĠPier re
m usic
Ġreg ulations
uc ed
L ibrary
ourn als
ounc ill
ĠR ot
H tml
Ġp ref
× ķ
Ġpo ems
Ġsil ent
> "
ĠM ak
M ont
ĠB lood
S al
method s
n ob
Ġcompl iance
ĠThere fore
Ġperiod s
bor ne
Ġs ql
im ize
Ġex clusive
h um
ĠY ugoslav
ĠCommission er
ĠT un
Ġunus ual
Ġro ots
g un
ĠAl ice
ĠT ab
Ġmod ify
Ġo cean
Ġhard ware
l int
m apping
Ġcol leges
ĠTig ers
Ġmon ument
Point s
ĠH unt
Ġm ess
Ġsim ultane
Ġrepresent atives
en o
Ġr ising
em a
Ġcontrovers y
Ġf oss
Ġth erm
Bl ue
Ġcons c
Log in
Ġadv oc
Ġbatt les
M art
ĠM oz
n p
Ġsubs idi
è ¯
ĠFin ancial
ĠSer ge
ĠAlex and
Ġlaw yers
Row s
Ġfilm ed
ĠM ans
Ġpo ets
Ġaim ed
Ġacc um
Sp an
Ġw edding
Ġconv icted
O k
enc ode
d ot
11 1
Ġelimin ated
Ġl oved
L and
ĠE ston
Ġpublic ly
ĠFle et
AC H
Pre v
Al bums
b g
ĠStud y
And roid
Ġd ub
ĠNov a
ixt ures
Ġt icket
b ose
ĠLu ther
et ary
ĠH erm
Ġcoll apse
Ġrecover y
Ġs itting
uff ers
L ou
ĠB E
ush ing
Ġinflu ential
ier ra
ink ing
Ġoper ational
He alth
h ot
Ġacknow led
se par
187 6
ent i
Ġlist ening
Ġstri p
Ġas pect
Ġcrit eria
ĠChar lotte
ĠO t
set up
m ay
EN V
Ġviol in
Ġinters ection
Ðµ ÑĢ
ĠPer formance
ĠL yn
F ac
ĠUrb an
Ġev il
Test Case
ĠVictor ian
ent e
mark s
ache l
Ġpoint ed
cel and
CO UN
n os
ĠG reater
Ġth irty
c ached
Ġexist ed
Ġbeliev es
Ġcontrovers ial
Ġf mt
ĠT oy
W ORD
ĠAl bum
Ġ_ .
sc ala
ĠPer u
Ġl oyal
ff f
Co in
ĠS ongs
ĠS S
ĠU SS
ĠJ ess
ĠMar vel
Ġg ap
ĠN BC
Ġsc ores
Ġinher it
ĠWAR RAN
ĠCr ime
P od
str ument
App end
ha us
b et
Ġoccasion ally
ĠA zerbai
own ed
st ad
Ġdes ired
HER E
im ir
em it
Ġs a
ĠIn n
ĠM icro
Sign ature
Ġpull ed
d ays
us k
ĠS now
b iz
Ġfe els
resp ons
ĠAlber ta
ĠS outheast
V irtual
ond a
Ġorgan isations
Ġmiss ions
Dist ribution
188 3
Enc oded
ĠN at
ĠC HE
Ġmark s
Ġcom ics
A xis
sh aped
ĠIv an
Con sole
build ing
Y our
Ġproduc es
Ġmach ines
T Y
s un
tim estamp
ĠM yst
ĠP ont
ter ior
ĠG raph
w ik
Mo ths
Ġcirc le
ĠPhil osoph
187 8
ĠP ow
Rev iew
am pton
Ġ" '
Ġann ually
ne e
ĠB es
ster dam
room s
ĠJ oy
ĠJ ama
Ġwh ilst
ĠMuslim s
s b
p oly
Ġven ue
re ement
equ iv
Ġap artment
end um
Ġdest ruction
exp and
Ġup grad
ĠGu inea
r ative
Ġd rew
c assandra
ĠM achine
qu ote
ox y
Err ors
Ġconsider able
ĠColl ins
T AG
Ġhy per
ĉĉĉĉ ĉĉĉĉĉĉ
circ le
E Y
let ter
Ġvul ner
ar an
Ġman aging
." ""
ĠC red
Ġterrit ories
ĠMed iterranean
ĠC BS
ĠF itz
Ġadd s
Ġsh adow
l ater
be at
Ġportray ed
ĠFran ces
ĠComm ons
Ġrun time
Ġin duct
Ġunder ground
Sec ret
ĠColomb ia
Person nel
Ġcontin u
g g
ĠL A
Î ·
Ġfunction al
st ood
om ent
md c
ist ani
Ġim possible
IN ST
Ġmunicipal ities
il ia
3 50
= (
ĠB achelor
duc es
ĠS aints
ĠChrist ians
Ġmin isters
Ġgu ilty
ent ine
ath ers
ĠPro test
": "
ĠOl iver
Ġt ort
Ġl ap
T ri
ag ma
ĠG ot
B eh
Ġexpos ure
New s
ocr atic
ĠSt ra
Enc oding
p kg
reprene ur
Ġph arm
ĠBor ough
Ġf aces
Ġ' ',
Ġgen etic
ĠL ad
Ġ} }
Fr ames
Str ategy
Ġnarr ative
p arts
ex ecut
Ġreported ly
Ġlow est
Ġprotest s
R ate
ĠPh oenix
Th omas
Ġrecip ient
Ġs in
ath on
ar se
Ġtext s
Ġig et
ĠSe lect
Ġas ks
Ġqu iet
Ġde ck
.* ;
ĠB urg
Ġcas ual
G l
ew ay
Null able
Sc hedule
Ġencour aged
UMM ARY
et he
r age
Ġre act
Ġcl im
ĠSch olar
Ġexped ition
T imer
ĠJ a
S ort
ĠW arner
Ġass ume
Ġmin i
Ġconv inc
ĠÃ ł
ĠP ast
apt ers
cont ents
t re
ĠCh ap
Ġcomm une
ĠU til
Ġparliament ary
ath ered
Ġ' %
Ġmark er
G R
Ex port
ĠPar ish
187 9
Ġagric ulture
Ed ge
Ġwor ship
ĠU E
ĠTh read
Ġlong est
r ac
;| &
ĠSh ould
Ġsup plies
B ounds
ĠShe l
ĠSt ill
Dr ag
ĠMu hammad
ĠĠĠĠĠĠĠĠ ĠĠĊ
CO MM
place ment
T ex
ys ical
Ġunder lying
at ial
ĠTh er
ĠS ex
ĠL is
18 75
Ġpres erved
Ġspec im
Ġdise ases
dis patch
Ġgreat ly
Ġ Ñģ
Ġreve als
Ġcal endar
ĠS A
Ġsim pl
W IN
head ing
Ġs wit
ĠCub a
ovak ia
ar ance
p b
w br
Ġv acc
Ġfarm ers
sub ject
10 3
Ġiniti ative
ĉ ĠĠĠĠ
ĠAnd re
z es
amp a
Ġen forcement
Ġaf ternoon
= -
Ġre un
Ġs izes
Ġchampionship s
Ù ĩ
Ġguest s
a ac
Ġgu ess
T F
HE AD
ent le
ĠT ib
ĠP od
as ant
ast rop
ĠC hel
or ous
Ġrespond ed
em ed
V ICE
Ġcontin uous
ĠUs ing
Ġpract ical
Ġhistor ians
Ġconvers ation
d istance
Ġor chestra
rel ation
ĠE ug
Ġ< -
Ġexpl ains
ce iver
Medal ists
um i
Ġ ----------------------------------------------------------------
ro duction
Task s
cl osure
Ġliber al
Ġa ver
Ġpro f
ap pro
inc inn
p ages
OP T
ĉĉ ĠĠĠ
erv oir
ann ah
Ġrep air
alt Color
ĠPr ice
Ġgener ic
V A
ation Token
P H
ĠT ol
Un ivers
li er
t ok
Ġdis appoint
ine e
li bs
Ġam ateur
Ġview ed
187 1
ĠRel ations
Ġthe at
Ġpresent ation
if ting
ĠPro tection
Ġwides pread
ĠUnivers al
Ġmer chant
Ġg ram
t l
Ġconnect ing
S en
Ġsent enced
ĠO wn
S ite
Ġdeleg ate
w alk
ĠOper ations
HO ME
comp are
Ġemot ional
Ġloc ally
ĠT ake
Ġinst ructions
Ġout standing
ĠBeng al
ic ul
re pository
Ġp ipeline
ĠP oll
Ġclaim ing
pl ot
Ġsn ap
ĠCont ext
: -
Ġstrateg ic
Ġstreng then
Ġg ard
18 68
Ġn eck
Ġran king
ĠB ristol
V ol
om on
ĠMag ic
Ġd ual
ĠV a
Ġmed als
ig ator
f mt
ĠC OL
che me
ip edia
it ro
ĠF oot
Ġbehavi our
Ġinter action
18 67
Ġt um
In f
IC ATION
omet imes
us r
Ġab road
SP AN
F P
ris on
Ġmeas ured
H en
Ġal ias
Ġ{ },
Ac cept
sh ift
l arg
ĠB rew
Imp lement
ĠDe lete
g z
G old
Ġt d
ĠS ig
ĠBar celona
Pr imary
Ġc inema
ĠH ad
t ouch
ĠB ert
Ġg ro
Ġcred its
Ch ain
Ġleg s
K it
g b
ĠTra vel
Ġart illery
roll ing
Ġtim estamp
Depend ency
A SSERT
Ġemer ged
incinn ati
m obile
gener ate
ol ut
ĠBe ijing
Ġamong st
ĠT alk
ĠN iger
ĠNich olas
ĠV lad
Ġg all
ĠE li
eth yl
Ġrespect ive
Ġb ott
Ġex clus
FF ER
ĠArt ist
Ġsup plement
? ?
Ġre ven
ĠSh adow
187 7
st own
rel ative
Ġliter al
18 00
Ġn ominations
St atic
10 7
Ġsold ier
uss ia
le e
ĠD atabase
ĠS id
ĠW ang
eg ration
sl ide
ĠBuild er
F ALSE
Ġs ax
Ġclass Name
enn ial
Ġop ens
Sh arp
ear ing
Ġn urs
Ġtri als
ĉ čĊ
Ġh orses
k an
the less
Or d
G rad
h is
D id
ust ers
K ing
. \
Ġvalid ation
Ġsur prise
uck land
Ġadvent ure
AT TR
ĠHarris on
ĠI gn
ĠTh ose
or rect
Ġdes ert
ĠTurn er
ut ter
ĠW a
zer o
ad oc
S ide
Ġst em
Th ree
ĠPr iv
ĠD raft
Tax a
> %
Ġlimit ations
ĠV as
. ),
Ġe ighth
C ounter
d iction
S I
Ġreg ul
Ġ Ø§
Ġphys ics
ĠN an
view port
ur able
V C
Ġdou bles
N I
tr im
A bs
Ġfor th
ĠKir k
ĠS eg
ãĢ Ĥ
a que
sw ing
ĠFac ulty
Ġbo ats
( ['
W ell
**** **
Ġr ig
Ġconf idence
ĠD raw
Ġdevelop ers
ĠR ing
ĠL eft
_ )
B IT
Ġst roke
S il
op edia
Ð° ÑĤ
Ã¡ s
Arg uments
/* !
Ġpro hib
iv ery
ĠK ap
ĠY am
Ġpark ing
ĠB ird
Ġbrand s
ur ring
Fl ora
Ġg al
c ity
Ġind eed
C amp
ĠBe aut
hemat ical
Table Row
Ġdepart ure
Ġassert True
Ġm anga
LI ST
u uid
ic ing
ĠL ost
Sh ared
Hon ours
Ġcl ip
St ub
Ġbeg un
oph one
b est
H older
ab ul
RA Y
Î »
ĠB ond
Ġsurv ive
Ġphotograph s
Ġremain der
Ġcon clusion
Ġh ook
Cond ition
ob e
Ġatt ributed
ĠS UMMARY
G overnment
Ġgu id
ĠC old
Ġcomp atible
ĠCo q
ĠF err
Ġpart ially
Ġcomp iler
ĠM ason
Re act
ĠN ebraska
refer red
Al so
Ġs weet
const ruction
ĠJ erry
Ġf ighter
Ext ra
ĠL ag
ĠLiter ature
Ġrest ore
g om
Ġinc idents
( ()
r us
RES ULT
ĠTr inity
Dec imal
ĠC row
raz y
im plement
Add r
Ġcous in
Ġview ers
en ers
Ġbelong ing
ach i
Ġman ifest
ĠB und
s he
ok u
G allery
be h
Ġelect rical
ĠCHE CK
ĠAnt ar
187 2
ĠFl ight
ĠPri or
Ġno ise
__ _
Ph oto
ĠĠĠĠĠĠĠĠĠĠĠĠĠĠĠĠĠĠĠĠĠĠĠĠĠĠĠĠĠĠĠĠ ĠĠĠĠĠĠĠĠĠĠĠĠĠĠĠ
Po jo
CON FIG
Ġgu ys
ĠQu ery
iss a
Ġch amber
] ))
. ;
Ġinvolv es
Ġ-- ></
ul se
10 6
ĠSh ang
uplic ate
ĠR ic
Ġearth qu
Ġdo ors
ĠD OM
ĠCo al
P ower
Ġan ime
Ġoper ators
ĠIt em
M AP
x ic
Ġfrequ ent
ĠDen ver
Ġsh ore
Ġend emic
ĠS or
Ġscient ist
Ġ$ _
d anger
R oyal
ĠB aptist
Ġmod al
Ġf ault
ĠCl are
Ġgradu ating
Ġexpl ore
ĠGh ana
Book s
ĠW ord
ĠB our
Stand ard
Ġchar ity
ĠV I
m akers
Ø ª
Ġdis able
P eter
10 9
187 4
ĠSerb ian
ĠVin cent
Academ ic
Ġpe aked
iment al
Ġop ponents
Us es
M essages
Ġp ushed
Char les
Ġexper ts
Ġcab inet
ĠConfig uration
Ġp ending
C md
ĠS ay
ĠT u
ĠM asters
ĠDr ag
hol m
ĠSt re
Ġslow ly
on na
e lected
te enth
Ġint ellectual
Ġassess ment
ĠF am
B ased
link ed
Ġsurv iving
ateg or
Ġrecover ed
ĠRoman ian
( .
ĠS ad
Fail ure
create Element
ĠTerrit ory
ĠM aced
ĠB reak
) $
n n
Ġdon ated
un ning
R UN
Disc ography
ĠCra ig
Ġpot entially
fl at
od o
ĠG rey
Ġact ed
Ð ·
Ã ½
ĠB ath
Ġstret ch
× Ļ
Ï Ĥ
ĠM D
" },
ĠS eb
Ġunc ertain
"> (
ĠST ART
Ġcheck ed
Ġrece ives
Ġass emb
Ġs ugar
Ġform ula
Ġcou ples
Dep recated
ĠCost a
Ġd ire
Ġsignific ance
Ġaccur ate
ĠP el
ĠS yn
Ġb io
ĠK os
n eg
im m
ĠĠĠĠĠĠĠĠĠĠĠĠĠĠĠĠĠĠĠĠĠĠĠĠĠĠĠĠĠĠĠĠ Ġ
d k
Ġhon our
ĠÂ ©
ĠP i
ĠSt even
intend o
187 3
i ors
Pr im
Ġdistingu ished
LE TE
or ne
Ġop acity
P OS
ĠB ir
qu is
Ġinn ings
ĠG round
ĠC ob
Ġinteg ration
ĠS end
Ġb at
ĠSym phony
T ransl
Ġpl astic
ĠClass es
Ġinform ed
e or
Ġl ibraries
Ġt orn
.. ."
Cont ains
Ġr um
The n
ĠL iga
Des pite
M ass
ĠH ost
Tim estamp
L ib
ĠJ son
get Instance
18 66
ĠIn ternal
Array List
Ġvir us
url ing
Ġmom ents
R a
ious ly
Ġnuc le
Ġc ached
Ġran ks
Ġunivers e
met ric
ĠAdd ress
string s
Ġm arg
ĠO il
Ġcr uc
ĠCamp aign
ra h
t ail
Ġisol ated
Ġprinc iple
T y
ed a
Ġbel ongs
h istory
Ġsl ot
att ed
Ġelectric ity
ĠM ig
rid es
Ġkey board
om ing
Ġpred ecess
Ġb one
Ġaut hent
Ġsign als
Recip ients
Cal endar
ĠS H
ĠR aw
qu arter
onom ous
Ġcomm emor
Perm ission
Ġmanufact urer
Ġtyped ef
Ġshop ping
s ass
String Builder
ĠMin or
Ġb ath
viron ments
log ging
ĠU RI
Ġpremi ere
Res et
ĠD iamond
Ġinter val
ĠL ion
================================ ================================
ar l
Ġfund amental
Post ed
Ġlocomot ives
ĠEth iop
S plit
ĠRob in
ĠB ass
Ġchar ter
ancell or
Ġarrang ement
T uple
Ġdeploy ed
Q uest
r ules
Miss ing
P res
Ġattract ed
Ġf raud
P G
ĠP le
Ġacqu isition
ash board
ĠInt elligence
Ġc ertificate
Ġdescri bing
ĠS elf
Ġmount ed
Ġsympt oms
ub a
element s
ĠC urt
Ġb orders
Ġposs ess
sol r
styles heets
Ġemploy ee
Decl aration
Ġover flow
g if
Ġtr ump
AT OR
Ġtemper atures
Ġconsum ption
ĠZ e
Rich ard
O bserver
ĠInit ial
ĠN HL
ro se
ĠSt evens
Ġg ate
ĠL loyd
ĠForm ula
LE MENT
ĠCre ates
Ġw x
OR K
G EN
cy cle
c rit
Ġb oss
ĠPhilipp ine
et o
ut o
ĠIm Gui
ĠCl ay
ĠKen ya
Ġs av
ĠCan al
ĠC E
ĠM atch
aa aa
Bet ween
ĠVAL IGN
Met rics
ix on
Con vert
Ġest im
Ġtext ure
Ġarchitect ural
ĠAl t
Ġf s
Ġatt ending
F ire
ĠSt ein
B ul
ĠL ate
Ġam azing
Pre vious
Ġres ort
C LA
Man agement
Ġlab our
/ {
å Ĭ
Mon th
g ems
rt l
Ġb are
In ner
Ġlast ed
ĠPh D
ĠR AF
Down load
m atrix
Ġth in
col lect
en os
fortun ately
ĠLu ke
Ġwrest ling
Ġl ie
Ġcl othing
Ġdis patch
over e
ĠStud ent
Ġper cussion
Ver ify
ĠSh aw
F N
Ġre pository
min a
W ar
Ġele ven
b ane
Ġviol ent
ĠP ract
Ġcap s
ĠMor oc
Ġp arsed
BP ACK
ĠAm sterdam
Ġautom atic
ĠFri ends
Ġelse where
e ing
ĠT erry
ĠSpring s
, \
Ġh aven
Ġdu o
second ary
Ġin ject
ĠAnt i
Ġsquad ron
Ġout break
> \
k ar
script ions
ĠM alt
Ġident ical
el o
ĠP ython
Ġdim ensions
Ġfund ed
g re
ĠMun ich
Ġse gments
ĠF isher
Ch inese
M aterial
Ġw idget
Ġconsider ing
alle st
grad ient
ack ed
cal endar
v ol
Ġc b
th y
= %
Ġc odes
im o
l ined
> ()
Ġg rey
Ġf etch
ĠT on
lic enses
ĠMad ison
Ġdiam eter
it ual
Ġbo ot
et ies
clud ing
Ġpart ition
G C
ĠL an
18 69
ĠG ay
C ancel
Ġfin ance
Crit ical
Ġrespons es
rem arks
Ġsl ave
Ġtr im
ĠB right
Ġpark s
ĠL ions
Ġaware ness
ab c
Ġinitial ize
Ġfest ivals
ĠKe ith
Ġcl one
ĠMont ana
Ġfocus es
ordin ate
Th rough
ĠLu is
Ġm m
po inter
b n
id al
ub ern
Ä Ł
S V
ĠIndust rial
ĠCam eron
graph ics
ĠK EY
ĠFor um
Ġposs ession
F ig
Profess ional
Ġbound aries
ĠB ot
Ġdemonstr ated
B us
Ġim plied
r ise
Ġover l
in x
Ġperm itted
ĠB ris
Ġinterview s
en ess
Ġcoal ition
ick en
__ )
FI X
Ġelev ation
Ġad min
Ġco aching
Def unct
Ġret ain
Ġth or
Ġm oral
ela ide
I l
ĠF if
ash a
Ġyoung est
Ġinput s
ĠV iol
ĠS ah
S N
Ġpass age
ĠCh air
Ġsuper ior
ĠP resent
Ġne uro
an ion
au i
ĠVenezuel a
ĠG race
Ġspons or
Y es
Ġtri be
ĠS umm
Mus ical
ri en
Ġup coming
n of
ĠK il
c z
ĠC ov
ĠL ux
ĠStud ents
Ġoccas ions
ĠJ S
Ġholid ay
ĠSt op
is ch
i ya
ĠTechn ical
Ġne arest
Cal c
xy gen
æ ĺ
ĠH ugh
ĠS ultan
ĠVo iv
c ross
d ark
ĠR ank
ĠLe ader
is an
l ican
Ġamount s
Ġmechan ical
F RA
Ġhe lic
Afric an
Part icip
Ġt ill
ur se
Ġa ria
Lo op
Jew ish
Ġb ug
Ġconcern ing
Ġdis pute
Ġplay offs
Ġâ ĨĴ
ĠAn alysis
ĠH udson
ij i
Ġsk y
Ġres emb
ĠUE FA
æ ķ
18 40
pe ction
ell ion
Ġent hus
Ġ" >
Ġeff iciency
Ġlog o
Ġcorrect ly
Ġst ake
re po
Ġhand led
ĠCh and
Ġfl ed
< <
ĠV ic
ars ing
Scott ish
t p
ar in
ĠI celand
ĠCirc uit
et e
ir s
ĠF u
Ġafter wards
Ġman ual
on ies
Ġrh ythm
Ġdef ending
Ġsurv iv
com pute
T ouch
ĠO cc
Ñ ĸ
ĠPer ry
" }
ĠCons erv
get Type
Ġdem olished
ĠBer keley
Label s
Ġpack ages
ĠK un
refer ences
ĠNep al
Ġg oto
Ġmart ial
ig ion
Ġgrad ually
Ġme at
ĠCl in
Ġcomment ed
ĠEnvironment al
ĠT i
å Ń
odes hip
ĠL arry
ĠI ter
L aw
Dep th
ĠTreat y
au kee
ai ro
S witch
Ã ī
Ġf older
Ġinc red
f our
ĠY ang
Ġl ights
ĠMur phy
Ġs ke
app le
ĠArab ic
cript ions
Ġgen es
is i
function s
ĠBuff alo
Ġrestaur ants
Ġcommit ment
Ġatmosph ere
Ġinstrument al
al ink
Ġran ges
Ġrad ical
ĠR at
o ard
ĠH D
c urrency
Ġsp okes
Ġprepar ation
L D
ar as
Ġto ler
Ġprote ins
L uc
link s
ĠC ad
Ġend point
Ġstat ue
w arn
erv ing
ich i
w allet
Ġcond em
Ġwor se
on ical
R andom
pl ed
ĠCont emporary
Ġto k
A SE
Ġappro aches
au er
Ñ Ĩ
ĠW es
Ġex tr
Ġappre ci
Ġcharacter ized
Ġdecl are
Ġrow span
¿ ½
External Task
ĠArab ia
B ool
Ġdisestabl ished
ĠL ess
ĠGl en
) [
Ġrest oration
ĠMunicip al
Ġw inds
Ġm os
ĠL evel
ĠI L
ĠS ony
Ġtravel ed
fin ite
se q
ĠC atherine
ĠSaf ety
M ad
Ġtri bes
stitu ency
Ġde leted
ĠS r
Ġin sect
T our
> '
Ġc ub
ĠVerm ont
ĠP romise
Ġch unk
Ass embly
Ġhon ors
w ind
Ð¾Ð »
Ġw ings
Ġplace holder
Ġcompre hensive
s afe
Ġt ip
Ġinvest ors
Ġminor ity
m ag
Ġt unnel
10 8
Ġdet ection
Ġgraph ics
Ġcan vas
iv ic
osp el
= $
Ġst ick
ĠG P
i u
Ġobject ive
ĠP ic
ĠOut put
F oot
Ġvis its
ĠF ish
g ence
Ġre vers
ar ator
ĠB Y
Ġst y
ĠM ol
Ġac oustic
Rep ublic
Ġas c
FFFF FF
ĠB uch
se lection
g h
Ġrend ered
b c
ĠConst ruction
ĠHand le
ane ous
Ġinf antry
Line ar
Ġb le
us p
LA Y
Ġcoff ee
STAT US
Ġp ip
ĠM ey
Ġbirth day
Ġmod ules
Ġtro uble
ĠAnn ual
os hi
ann i
Âł Âł
ĠL I
ĠEn s
r pc
ĠChristian ity
on ing
column s
Ġdist ribut
ĠAt hens
ĠDe cl
book s
class Name
Del ta
S ever
Output Stream
ARN ING
ĠA uckland
Ġl ieutenant
ĠHe avy
run ner
ĠY u
ĠArt illery
const ant
ĠPun jab
P resident
uck er
Control s
G IN
ĠRepresent ative
S ocial
ExternalTask Pojo
Ġc urrency
( --
Ġas set
E conom
ĠM ix
stand ard
M s
Ġun cle
Ġsac r
Ġre ducing
ĠEx p
Ġsk ill
Ġj unction
Ġelect ro
ID E
Ġpat rol
Ġengine ers
P Y
f ake
Ġattempt ing
Ġen zym
anth rop
DE X
Ġn est
Ġrem oval
Ġb anned
Ġal pha
ĠVoiv odeship
Ġrare ly
A thlet
B its
Ġpar a
ap ing
Ġop ponent
ĠArch ives
as ia
Ġj ournals
ĠSing le
ĠM es
Ġ uri
Ġclos ure
Aut hentication
Ġt one
PRO P
Ã± a
l am
Ġmanufact urers
Ġaltern ate
ĠPh oto
Ġconvent ional
ĠGon z
Ġprint f
ĠD oc
c ourse
Ġ( ).
ĠHor se
Ġf ib
Ġspe aker
hel m
M ale
F OR
Sw ed
= [
ĠSt ories
ip per
Ġconstit ution
Ign ore
Ġhy brid
Ã© d
ĠJeff erson
Ġrestrict ions
Ġob vious
ĠMean while
ĠM IT
Ġqual ify
Ġserious ly
>< !--
ĠAct ive
Fe atures
P aint
ĠSy rian
Ġsk i
ĠÃ Ĺ
Ġmonitor ing
O W
Ġtax es
Or igin
A meric
l ambda
Ġlegisl ative
Ġsec ured
d al
Ġre ward
ĠCol umn
Ex ists
ĠGr ade
Ġcor ruption
ĠS alt
Ġbi ological
ac a
Ġflo od
Option al
Ġphys ician
er k
ĠSh ar
Ã© r
Ġmuseum s
ĠEconom ics
Ġl os
ĠG oth
gener ator
ĠTre as
ĠS oph
ĠT ang
hem atic
Ġdef initely
Con verter
Ġexclus ively
ĠA ber
Ġpart ly
Ġp atch
Ġbre ast
E val
ĠC lear
B razil
Ġro bot
il on
D irection
Ï ħ
Ġmix ing
Ġpat ent
Ġag es
Is rael
idel ines
Ġdog s
ĠE V
BA SE
Ġin hib
) -
L ondon
Ġb ases
it ol
Ġsymbol s
UB LIC
w aukee
p ad
en h
(' <
ĠGuard ian
ĠSus an
Ġc ul
t ri
ĠJ ob
Part y
(" %
le v
d iff
ĠRepublic ans
Ġten ure
ĠS creen
Ġpred omin
am ount
185 9
Ġinsp iration
Ġsettlement s
S elf
ĠCh apter
ĠAct or
Ġhealth y
Ġra ising
ers et
ĠPar se
atern al
et ta
Ġemb od
an chor
ĠAl tern
ĠA ws
Ġaggreg ate
Ġst ops
ĠBas ic
ĠSt uart
G M
è ¿
ro st
SO UR
at che
m other
Ex pected
Ġcut s
run ning
âĢĻ ,
ĠRog ers
ĠM end
ĠP in
valid ation
ĠP av
Ġph rase
ĠS oul
Ñģ Ðº
ĠSh ip
Ġinterpret ation
P rom
Ġt urb
at able
ĠArch ive
th ree
rele ased
Ġt ons
Ġspons ored
ĠB ody
BU FFER
Ġcheck s
H ung
Ġrestrict ed
S ound
: \
L icense
Ġcampaign s
Ġs ick
ep age
Fran k
Loc ale
i eg
Ñ ħ
th lete
ĠPers ian
ĠW alt
m embers
ĠS W
Be en
Ġd iet
ourn aments
TableRow Color
ĠK ay
reg ular
F ace
ens itive
18 48
â ĪĴ
Ġindust ries
Dis patch
P oly
Ġfind ings
Ġfl ights
Ġiter ator
Ġc argo
spec ies
Ġcont ribute
Ġsp ell
ov an
em in
m k
Ġst ead
m ms
Ġrot ation
l ab
v als
Ġbig ger
cf g
ag i
Ġ{ %
ĠInd ependence
b ug
act ual
res ize
ĠNor folk
ĠG as
ĠG lob
Ġsp ir
ĠEd wards
() ">
ĠS ox
om o
ĠĠĠĠĠĠĠĠĠĠĠĠĠĠĠĠĠĠĠĠĠĠĠĠĠĠĠĠĠĠĠĠ ĠĠ
Ġw ider
En able
ï ¿½
Ġpet ition
r ity
Ġess ay
00 1
Ġtw in
RE SS
st ock
Ġpurs ue
ark ed
< >();
Ġd ominated
Ġnob le
z ed
H C
ĠT ogether
Ġg ross
Ġprot otype
Ġimm igrants
æ Ī
Ġ ib
T ok
ar th
Ġunder stood
Ġdecl aration
! âĢĿ
Ġtrad itions
n u
al am
pl aced
Ġregard less
Ġ( #
amazon aws
×ķ ×
ĠL en
st rip
b ank
te le
Ch anges
Ġdismiss ed
Ġdeal ing
E qu
p ine
Ġt ies
ĠS z
S ir
Ġaccomp any
akes pe
pl ane
ĠNe il
ĠK rist
Ġt ough
ah l
ĠCroat ia
lin ux
% "><
Ġun expected
im p
T yp
ĠĠĠĠĠĠĠĠĠĠĠĠĠĠĠĠ ĠĠĠĠĊ
Ġdem ands
Ġpromot ing
} ",
Ġbreak s
2 20
Ġport rait
AS H
Ġexper iments
N ER
Ġcol ony
Ġcap abilities
ĠC elt
ex cept
Ġsitu ations
Ġconsum ers
Ġs ad
ĠÐ ½
am er
Ġâ Ĥ¬
Ġel igible
r ates
Ġtrans formation
Ġne utral
b inding
Ġpres ents
Ġhon est
ĠSocial ist
Ġread s
Ġco operation
G it
A I
un lock
ĠSe an
c op
Ġcarri er
ĠC ell
Ġed itions
Ġimprov ement
ro at
ĠAl ger
Struct ure
Ġun like
ĠĠĠĠĠĠĠĠĠĠĠĠĠĠĠĠĠĠĠĠĠĠĠĠĠĠĠĠĠĠĠĠ ĠĠĠĠ
ĠM ach
UE ST
ĠF ont
Ġhead ing
ĠBroad casting
Ġ' "
Ġsub mit
ĠNash ville
Ġpriv ile
. ',
S aint
Ġproced ures
ose x
Ġr ational
U pload
is ons
Ġdel ta
Ġcont ested
ĠM ann
repe at
man agement
Ġdevelop er
F R
ĠJ en
ĠDemocr at
Ġdomin ant
ĠB og
ĠEnc ycl
Ġev ac
Ġput s
Ġre aches
ĠEag les
ĠTri b
art a
ĠCru z
s q
off icial
Ġdis aster
ĠHer z
Ġmake up
S ervlet
Ġd ictionary
el ia
ben ch
Ġ( %
Ġess entially
Ġh ole
gener al
stats models
Ġconcert s
ert on
unk nown
get String
185 7
AV E
google apis
ĠH ave
cre ment
LIC ENSE
ĠD id
Ġs le
ĠM ort
Ġfl uid
ĠAbb ey
Ġdet ected
ĠHel en
ĠH az
ĠH amb
Christ ian
ĠQu arter
T or
ist ered
Ġarch ive
Ġpe oples
ub s
ĠL ot
inn ed
Ġd iversity
Ġbroadcast ing
Fe ed
Ġm igration
Ġcomp ound
Ġmat hematics
W alk
s ym
t v
rim ination
Ġguar ant
ĠS ans
Ġorgan ic
Film ography
Ġorgan ised
ĠBulg aria
o ons
cre ens
Ġdelay ed
ĠHe brew
18 30
Ġimprov ements
ĠLear ning
ring ton
Ġart ifact
Pl ayers
p iece
ĠHoll and
Stat istics
x l
atter ed
ract or
ĠHer bert
ing en
rem ote
Res earch
ĠAd elaide
Ext ensions
Ġsequ el
c aster
Ġpay ing
J ose
et es
IN K
Ġ' #
ind a
Del ay
24 0
BO OL
Ġt el
Ġ( +
A ST
Ġcollect ive
Ġm ilk
per cent
jav ax
Ġcut ting
ĠN othing
ens ively
ph an
f p
Error f
olut ely
ov ich
ĠA I
RE CT
ĠW ells
ri ble
ol ition
ĠAr c
Ġpro ud
Ġsynd rome
ĠEx ample
Ġestablish ing
ĠSing les
Ġg ear
Ġmonth ly
uc lear
def er
ĠWat son
cent ral
ĠMer c
Ġall iance
R ules
ĠD ennis
Ġwat ched
Ġkey boards
Ġs oph
Re ason
Ġtrad ed
ĠIS O
quir y
Ġde pression
Run ning
Ġwel come
Ġt ape
Ġcivil ian
Ġbon us
Ġannounce ment
enc oding
ĠG olf
Ġl ots
Ġaffili ated
Ġval uable
Ã Ĺ
el astic
Ġdou b
Ġcross ed
T oday
ling ton
ĠEl li
ĠDi ocese
not ify
d jango
ID S
Ġt issue
ro e
C ross
Ġsubs cription
Ġcomplet ing
sd k
top ic
akespe are
c ursor
Ġent ities
Ġenh ance
Î ¼
TI ES
at ibility
con nected
Ġbl ind
del ta
Ġres olved
Own er
Ġ& #
m iddle
Ġhun ting
Ġb ridges
Ġr iding
Ġinc orrect
former ly
ir ts
Ġmurd ered
u in
Ġb ull
ĠS V
Ġred irect
Ġamb ass
ĠC incinnati
ĠLin ux
ĠR ivers
be ans
St age
includ es
Ġeg gs
A ctions
âĢĻ .
Z ero
ĠForm er
iz a
ĠIn stit
aur us
item pty
leg iate
ĠK le
ĠY es
U ES
ĠPen insula
G rand
d irection
Ġl ayers
Ex ecute
Ġr ated
U CT
Ġdec ides
Ġass ignment
Ġesc aped
tool tip
om itempty
ĠBut ler
ol ate
WE BPACK
pr agma
ĠBy z
Ġdepend ent
IMP ORTED
çĶ ¨
Ġro ster
Ġhe ll
ĠAb u
ch arg
F ixed
An n
ĠFinal ly
Ġencour age
oy s
Ġparticip ating
I ss
Ġjuris diction
ĠM orning
Ġconstit utional
ĠProduction s
act ers
Ge ometry
Ġj ury
Ġh al
B road
om i
in ery
D TD
Ġinaug ural
sh are
ĠQ ual
Ġspe akers
N a
ĠT as
" ];
Ġcell padding
Ġbe ating
A K
sp irit
ĠWhe ther
Ġfeel ings
com b
ĠD ou
Load ing
Ġp owered
d n
ic us
Ġpack et
Ġreg ulation
und a
UT C
Ġconcept s
ĠL icens
ĠCom ponent
Ġs pr
ĠD ra
iz on
Ġdes criptor
ent in
Ġb ay
Ġn am
ss l
az i
ĠE SP
ĠI M
Ġgrand father
ĠPolit ics
Ġsub stitute
f b
Ġant ib
ack ing
ĠCh a
ĠT ABLE
BU ILD
Ġnegoti ations
Ġch rom
ub ble
ĠFe ature
met ic
form ing
Di agnostics
Ġbi ography
ĠNew ton
Ġsl a
U AL
Ġo m
var iant
OL D
ĠA round
Ġte a
TO M
Ġthought s
ver ify
Ġvent ure
ĠH em
Ġhe nce
Ġn inth
c in
ĠWARRAN TIES
ĉĉĉĉ Ċ
et ics
1 18
M ex
ĠSh op
f av
Ġm ines
if i
Ġrel ating
ĠA pr
ĠAzerbai jan
ĠT ry
ĠN ull
ĠCons ervation
del ay
Ġreal ized
Ġmer ger
ant ed
Ġbl ow
op am
ĠAir lines
Ġup grade
Ġmill ions
Ġlif etime
ĠF actory
al ias
ĠPar alymp
H ave
Ġsudden ly
Cre ated
M el
Ġfor get
Ġor igins
Ġm arch
ĠO P
Ġoverse as
Ù Ĭ
Ch arts
ch anges
c ancel
ff ield
Ġiniti ated
Ġco in
Ġn ep
ĠO K
P romise
ĠPeters burg
Ġ| =
Ġpal ace
iv ities
ĠV e
ĠArgent ine
Football ers
ĠCal c
hen g
p us
, -
ull ivan
ĠWeek ly
at ra
IL ITY
Ġform ations
Cont ract
ev ille
on ial
Ġreve al
Ġp in
Ġus ername
Sh ader
act eria
B T
W el
Ġw ard
ĠN ear
Ġc ounsel
Ġt anks
Ġcell spacing
t z
4 50
it us
Ġed ges
Al pha
Av ailable
Ġsh ots
ĠTh ings
Ġrep ly
Ġh orn
m ov
W I
loc ale
Ġvol can
Ġpat ron
sequ ence
ĠW or
Ġch apel
he ld
L iteral
12 1
ĠDel aware
oid s
Ġprov iders
Ġshe et
ĠAv iation
ĠDel ta
Ġinter act
M achine
ik es
ch arge
sc ore
Ġeng age
r h
ingu ished
Ġa qu
all ing
Ġt ribute
s z
step s
f lix
ĠBudd hist
ĠB ald
ĠP erm
omet ric
} (
ĠCh i
ĠBob by
Group Name
ĠBer g
> ${
ĠS ak
D ynamic
om es
Ġp ump
abl ing
Ġpres erve
Ġfor wards
Trans ition
Ġdis ag
ĠK ate
Ġa ims
Ġl ingu
Ġbl ank
Ġsubsidi ary
D ig
Ġdis contin
c ott
ĠM ade
Ġpro to
B i
en burg
ĠL ar
b old
ĠThe od
ĠR T
Ġimpress ive
Ġeconom ics
14 4
ĠO pt
ĠFil ip
ĠBro ther
(" \
ĠG host
lik ely
m ime
LO AD
Ġim perial
Ġde als
Ġant icip
Ġs ampl
Ġscholar ship
Style ID
rout er
3 000
Work er
ĠPl anning
Ġeng agement
ia o
185 4
ch at
Ġerect ed
Ġreb uilt
s r
Ġfail ing
Ġrun ners
á ¹
Ġe arning
publ ished
cal c
Ġcelebr ate
Ġcommand ed
ĠM ul
19 2
ĠUn like
Ġfair ly
IN VALID
Ġt ar
` )
Ġfun eral
ous el
i ated
Ġcontract s
ĠJ erem
igg ered
Ġbre ath
Ġth reshold
for ced
at ile
ĠCom merce
ish a
Ġdrink ing
st ri
Leg acy
Ġb ars
Ġj u
ah an
Ġsimultane ously
Ġfe es
Ġprov inces
185 8
Ġrecogn ize
Ġinflu ences
ĠAng lo
ĠU TC
st roke
Ġm ath
Ġg athered
F our
ĠFlore nce
Ġdis plays
ĠSud an
ĠArchitect ure
Ġf ur
ĠArt ists
cu ador
! </
ĠAl ong
ĠLeban on
ex amples
Hash Map
Ġimm un
Us ing
Ġillust rated
ĠR alph
gom ery
Ġre plic
ĠD od
TR AN
Ġpre st
Ġmain stream
ĠH av
Ġarr ive
v y
Support ed
sp er
annot ations
ĠOtt awa
Ġbut ter
Ġdeploy ment
Ġland ed
AR G
ĠH ob
T l
Ġcolle agues
og g
e i
ĠHug hes
Res p
ĠR ou
Ġs isters
Ġb ag
Ġcompet itors
ĠĠĠĠĠĠĠĠĠĠĠĠĠĠĠĠĠĠĠĠĠĠĠĠĠĠĠĠĠĠĠĠ ĠĠĠĠĠ
ĠHar vey
ĠBy te
om atic
b ird
ĠS Ã£o
V I
h istor
ĠSm art
Per iod
ĠGerm ans
ĠCom plex
Name Link
Ðµ ÑĤ
ĠHis panic
ic it
L ove
D er
Ġexplicit ly
55 5
Ġext ensions
Do ctrine
ĠW onder
An alysis
l it
Ġem igrants
Ġperm it
Ġimm igration
ĠS M
m ade
ĠR ah
ĠEp isode
ĠB ach
agon ist
min ster
Ġdialog ue
ĠT OP
ail ing
ater al
Ġdefend ers
Ġ# {
oc o
Ġout come
Ġm orph
ĠW ait
ĠK ash
CRE ATE
p al
il o
à¤ ¾
b ek
Ġpers u
Ġf er
or ious
ĠT arget
ran o
Ġret rieve
v ec
Ġrel ocated
Ġgrow s
re ason
int o
j b
Ġrequire ment
Ġcamp s
ĠTh ai
aw esome
ĠKe ep
ĠFri end
ugg ing
ĉ ĠĠĠĠĠĠĠĠĠĠĠ
-------- --
Ġperson ally
at io
t ensor
ard ed
18 55
Ġsequ ences
Ġsculpt ure
Ġco oper
Ġge ometry
Ġinvestig ate
Ġp ale
ĠB aby
ĠB ear
Ġ- =
M a
ĠT ed
Ġbe er
Ġback up
ĠTransport ation
o ft
ĠWith in
Ġt ribut
j ackson
Ġprocess ed
ĠK id
Execut or
N eg
c ounter
Ġ ^
ĠJ oint
ĠFil ms
Ġthr one
... )
ĠG or
de ep
sequ ently
40 4
File Name
Ġall ocated
Ġmat ched
po i
ĠS ask
ref s
ĠSl oven
Ġrel ay
ĠJust in
Ġh unt
ĠS ierra
iffer ent
US A
ĠLog ger
cont act
Ġenem ies
Ġprofession als
ĠRe ading
S G
Ġdo ctors
ĠN ak
ĠAm bass
Ġt s
ĠS ymbol
ul ates
f eld
Id x
ĠMethod s
ĠVen ice
Death s
CD ATA
ĠCirc le
5 000
Ġut ility
ĠC ycl
h p
Ġhop es
ĠD rama
ĠN athan
Ġphotograph er
Ġexc av
Ð¾ ÑĢ
ĠWith out
ĠMon th
ĠFurther more
Ġstrateg ies
Ġdef ines
ĠHar old
Ġpay ments
ĠR ule
Ġplay off
Ġran ging
Ġleg it
Ġl ux
ĠOC aml
E r
O bserv
get Class
R ivers
Ġveter an
Ġstruct ural
Ġin fection
roll ers
è ®
Det ector
ĠJ ar
Ġcomput ers
Ä ĩ
Ġ` ``
Ġt ournaments
ĠCong o
ac les
ĠV ent
Ġcho ices
Ġvert ex
H ello
Ġm amm
ĠÃ ģ
ĠT otal
Ġvari ation
10 24
B ill
h pp
ac co
ĠParliament ary
ĠG ust
ĠStan ford
ĠArmen ian
Ġcontribut ing
th rift
Ġen umer
Ap pe
ĠAng lican
Ġde prec
cl s
Sc ore
Ġg ymn
ĠTh under
Ġcalc ulated
Ġord inary
h ave
fig ure
isc al
ĠBO OST
FLA G
An chor
Ġcomp ute
Ġobl ig
th al
he art
ĠR idge
boy s
IM IT
av ier
Ġdram atic
or um
ĠE C
ut ton
ĠO scar
th ird
ess a
J ul
R ay
ĠRun time
ĠSt ri
ign ore
Part ition
ĠF ast
Ġstream ing
R ock
get Message
e u
ĠHe in
ĠW ik
K n
ĠR ena
f older
Ġp ole
Ġl iv
Ġcl an
Ġfeed back
ĠB M
ic ism
aw t
Ġfr ust
Ġf abric
Ġass ists
Al t
at um
." )
Ġr itual
Ġt ours
re b
ins ky
ĠM Ã¼
Ġref resh
Ġmin imal
Ġrefer endum
Ġfact s
] +
re nd
ĠS uz
uss els
Ġappro ached
ĠLat ino
Austral ia
ĠArch bishop
ĠL ex
Ġw rap
an alysis
ĠH at
ĠC atalog
185 6
ill iant
not ification
Ġbelong ed
Ġrad ius
el in
Ġstream s
ĠWork ers
L ittle
Ġmin istry
TER N
P ut
Ġdis order
nof rame
ĠB ak
ĠF un
V ec
ĠK i
ĠB eth
ri ent
Ġle agues
ĠD A
w iki
ant astic
ĠA aron
Ġtarget ed
N ECT
Ġdepart ments
ĠS witch
Ġco inc
Ġcomp lement
Ġw rapper
Ġthr iller
Te chn
ĠAr nold
Ġdev oted
ĠOver all
est yle
ĠStat istics
å ľ
pos er
Ġprint ing
7 50
Ġf irms
ref resh
ĠD ol
Ġfoot age
Ġany where
Ġcoordin ates
est ure
13 5
Ġhyp othes
Ġaddress ed
Ġenc oded
Ġport s
Ġh ospitals
Ġhor izontal
(' ./
Ġarrang ements
fer ences
SU C
ĠM az
g ie
h alf
Ġsh ops
ĠV ict
C AR
Ġbor ough
~~~~ ~~~~
M ary
Pr inc
Ġbe et
Ġmyst ery
decl are
ĠSh akespeare
Ġlog in
ĠTib et
ĠLe o
Wh o
Ġdraft ed
ĠGil bert
ĠNe ed
ĠK ill
w i
pack ages
ĠS oon
Ġpro secut
Ġv m
sc al
S ong
Ġrefer ring
ec ca
nob r
st ud
ĠPhill ips
Ġc attle
Ġin tern
/** */
ĠLa ura
HO UT
ĠP att
ester day
Ġeval uation
us a
Ġdifficult y
%%%% %%%%
Ġassist ed
Ġart ificial
ĠHigh er
Ġnecess arily
b an
Cont in
Re ceived
umb ai
ett ers
Ġatt ractions
ĠIn nov
== =
ĠS ession
w oman
ut a
ĠBris bane
Ġcrick eter
ry s
Ġout door
in ject
ĠV oice
Ġend ors
Ġnot ification
Ġdr ummer
ph oton
ag in
ous ing
Ġc ow
Ġen vironments
ĠPlay ers
ĠN intendo
Ġrepe at
ĠNew castle
âĢ ī
All oc
aw k
Ġsurv ival
Ġvolunte ers
ĠM uch
Ġf itted
ĠÅ ł
ĠWall ace
om ed
v endor
? )
Ġgener ator
Ġfast est
ac iÃ³n
Ġt f
ĠL ie
set ting
red irect
qu et
Cent ral
fr agment
ens on
te chn
} _
Ġt ensor
ĠM ulti
Ġde emed
Ġch ron
m ix
ĠLeon ard
ĠN y
ov sky
ar ity
Ġequ ation
ĠCh apel
oc ent
ĠThe ory
ADD ING
ĠCon vert
dec ode
Ġmanufact ured
ĠF ix
An im
Ġw arn
arri or
ĠLe eds
Ġmem or
M or
ĠMan uel
ĠDiv is
Ġstand ings
Reg ular
b olic
ra f
ĠP ick
Ġf atal
Ġo ct
Ġrock s
ĠT rain
Ġe col
ĠGro ve
ili ary
Ġthe ories
> `
ĠA w
Ġv ic
Ġplay wright
Ġf inger
AP P
ĠSt ef
Ġs yntax
Ġs ensor
Ġcons olid
15 00
Menu Item
Ġdocument ed
B reak
Ġdecor ated
ĠWell ington
â Ķ
D utch
Ġ' -
ĠĠĠĠĠĠĠĠĠĠĠĠĠĠĠĠĠĠĠĠĠĠĠĠĠĠĠĠĠĠĠĠ ĠĠĠĠĠĠ
ĠMA X
U A
ise cond
Ġconsc ious
ĠScient ific
ĠIn valid
Ġ======= =
Ġtour ism
Ġce ased
s pl
oc om
I ME
ĠW u
Ġinter vention
ĠHen ri
ĠL ov
Ġj ew
yl inder
Ġtreat y
J im
l iga
Ð ¹
Ġdis band
d ing
Ġind epend
Ġcons ent
Int ent
P ub
ĠF ly
sw ick
Ġfr ames
t ile
iat ric
ĠS ave
Ġac res
ĠP ent
ĠB loom
Ġpriv acy
Ġd ump
th umb
Ġcarri es
ĠWrit ing
ĠS ang
ĠM ail
........ ........
ĠC C
our g
Ġab ilities
ĠPed ro
se cret
ĠA ncient
Ġsusp ension
Ġbus y
F ar
Ġob st
Ġdemocr acy
Ġsub div
I rish
ĠD ig
Ġfoc using
J ud
Ġinternational ly
Vis ual
gu ide
EN TRY
i pt
add Class
Ġwealth y
ĠS ou
Ġspecial ized
Comp anies
U nd
ill es
View Controller
Ġorigin ated
mark er
Ġsumm it
O FF
ĠEdd ie
M ust
b inary
ot he
Ġm asc
Ġ' _
ĠNAS A
Ġal ien
squ are
at om
Ġkind s
Ġed iting
ĠN C
Ġap ps
Ġinnov ative
Ġl ic
Ġflo ating
pr iv
ast ed
Match er
Ġt ickets
T reat
ĠB ORDER
S ig
M obile
ĠG ang
Ġconfig ured
S qu
ic ia
Ġcomp act
Ġc ogn
Ġpop ulated
ĠGener ated
att a
/ )
Ġchem istry
185 2
ĠA udio
ott ingham
Ġd eter
OT TOM
Ġst ere
um ph
const ra
. âĢĻ
Ġmer ely
ĠWars aw
U ntil
SS ION
Ã¶ n
ĠWild life
æ Ĺ
it ars
p icture
iber n
Å Ļ
ĠEd ge
Ġs or
ab we
Ġrecogn ised
ĠUnivers e
Ġfight ers
ĠBl og
ĠÐ º
Ġguid ance
Ġcou p
in ar
Ġex ha
. [
ĠL L
Ġco at
ĠEx pression
con current
sm art
Ġgold en
ro d
ĠÐ ¸
ĠF iction
ĠCh er
Ġexcept ions
ĠW ol
Ġem peror
SP AC
Ġwithd rew
Col lege
Ġinc umbent
Al ert
Ġcelebr ation
Ġlaws uit
ĠAdv anced
l ower
Ġsh arp
Ġj ail
ĠR us
Ġrep ublic
Ġdevelop ments
ĠCard inals
ĠY ale
ĠBulg arian
S port
gorith ms
At l
ĠVis ual
Ð ±
C annot
R h
V O
Ġcon fess
Ġint ense
ĠMem ory
l ies
Ġident ification
Ġin vention
Ġdeep ly
S n
ĠB uc
Fore ign
Ġprocess or
ĠF ALSE
Ġtour ing
Ġrev ised
Ġrat ings
Ġcop per
add y
av ia
ĠShang hai
m ys
ĠC itiz
Ġorient ation
Ġvol leyball
Ġtempor arily
ĠG rid
ext ensions
Ġt oured
W ater
oc hem
ĠAgric ulture
Ġy es
Ġf o
Ġb ishops
m ulti
Ġprogress ive
t ical
ĠP rest
Ġinnov ation
ĠCon nection
h n
SP ACE
h all
>( <
Ø ³
l b
l ive
am y
Ġclose st
eng ths
el ing
B ACK
de als
B ER
ĠDev on
Ġw er
pre vious
ĠR ender
ĠRe ed
Ġhel per
z ig
Character Offset
am ation
up dated
Ġf ert
s heet
ĠM aterial
Ġcomp ress
Ass et
f ers
J ack
Ġexhib it
qu o
Ġdel iber
process or
Ġmaint aining
Ġs ang
ĠD aw
EX PORT
local host
Ġconstra ints
__ ,
g lob
Ġdep icted
re ens
Ġpro x
Ġtele phone
Ġprob ability
Ġwebs ites
ut down
12 4
Ġ' ''
O cc
Ġimprov ing
spir acy
ĠW orth
Ġr ally
Ġsub urb
Ġmar ry
M IT
AR RAY
Ġemphas is
Ġc emetery
ect ors
Ġb ike
ĠUs ed
Ġgener ations
Ġsh ipping
m al
ĠEr nest
Ġkeep s
Ġsong writer
Ġburn ed
text ure
ro tt
Ġattend ance
Ġis instance
ĠM oney
enc ia
Ġproduction s
g em
om eters
ST ART
ĠT itle
al ter
F rance
bo at
TH ER
Ġ ì
Ġ' @
Ġinst ant
Ġshel ter
imb abwe
ĠC ant
ĠK el
get Attribute
ĠP red
L ines
ĠR av
pr us
Ġliter ally
ab stract
Ġadd r
ph is
Ġpost er
ĠGreg ory
Ġor bit
es is
ĠIm port
Ġall ies
ĠG uild
Ġd st
ĠS ic
ĠB oot
ĠD anny
ĠN g
Ġap plies
ll a
Ġthreat s
- (
ĠCo ach
ĠMag n
ĠKer ala
Ġtot ally
M iddle
Ġor n
w t
ĠCon sole
od ia
185 1
Ġh ang
]( #
ĠLabor atory
Ġh ate
F ort
ĠEv ents
ĠS cript
c mp
Ġfil ters
Ġcert ified
G T
ĠHar bor
it udes
ĠY ellow
c od
ator ial
Ġconf ident
s ervlet
Sing les
H ot
OB JECT
C op
Ġest imate
Ġf oo
="../ _
Ġr ice
ĠM ills
Ġel dest
Ġent repreneur
ĠT YPE
Ġconsequ ences
ĠUg anda
Ġport ions
Ġtrack ing
max cdn
ĠConfeder ate
=" {{
unc an
Ġaff air
Ġquarter back
Ġg rab
Ġgraph ic
I ES
ok o
AT O
ĠImp lement
ĠP aper
H ouse
play ing
ĠA F
Ġart work
Ġsp ots
Ġsl aves
Look up
é Ģ
ĠĠĠĠ čĊ
Ġb rew
ĠL isa
Ġcitiz en
ĠR uth
un ks
con cat
ĠB av
ĠPalest ine
pe g
ens ed
dim ensional
SQL ite
ĠE ld
ĠHer o
Code c
uet ooth
Ġcook ies
is che
lector al
b org
Ġunsuccess ful
Ġsett lers
Ġearthqu ake
ĠJ in
Ġreview ed
Ġev olved
LA B
Ġpo ison
ĠClar ke
Ġa ux
] </
d st
Spe ed
Pri ority
P acket
Ġtransform ed
ĠS uccess
G reat
ĠMet al
SS AGE
trans port
ĠGab riel
ĠM E
ĠC ome
l atest
Up dated
ke es
Ġhonor ary
à ®
ĠT odd
h agen
Ġcharacter istic
atur ally
ĠDo es
Ġstrong er
17 0
ĠBel arus
ep s
Ġc rypt
equ ation
K O
om orph
ĠLeg al
ĠS SL
Ġsh a
ene ath
. -
Ġunivers al
Ġp ace
names e
Oper ations
t imer
ĠFran Ã§
Ġcult ures
Ġb undle
value Of
row ing
ex per
ĠS um
Ġ! !
c amp
C irc
ĠR aid
**************************************************************** ********
it an
f urt
Ġover w
ĠPalest inian
Â »
ĠArg ument
ic ates
Ġor ange
Ġpitch er
Ġf iring
Cam era
ad v
ĠMus ical
set Text
Ġthan k
ĠL abel
ĠPhilosoph y
ress es
ĠPal mer
er i
ifest yle
S F
Ġsens itive
w ent
it ative
ĠSt yle
Ġcount s
Ġtok ens
ess ment
Ġarbit rary
Ġresign ation
3 20
ĠH im
Ġfavour ite
ĠP HP
ĠMar io
L ow
Ġobserv ation
sub Nav
land o
anc ers
l iteral
ãĥ ¼
design ated
s elling
B ecause
ãģ ®
Ġcompris es
18 47
ĠSer ial
ern ess
Ġprom ised
bo th
Ġd inner
Add itional
Ġv ital
Ġtim ber
ad ers
oll o
ĠLeg end
greg ate
m aml
ack er
ĠAl lied
18 49
Ġc hest
ĠI R
') ->
Mod ifier
EN ABLE
ĠÐ ´
sche mas
B N
= \
p ipe
Ġfarm ing
ĠAb raham
D ict
Ġfilm ing
Ġt ou
pay load
PRO C
ĠF ighter
ĠB ased
ĠB orn
Rec ords
Ġlight ing
if inals
he x
f ailed
ĠBat man
Ġalleg ations
Ġth ir
ĠMil waukee
Ġpro c
ĠMar x
A X
Ġd ra
Ġconduct or
ĠG ene
P ush
er ie
Ġrem oving
Ġw ars
ĠK ra
F ri
ĠAdd ed
Ġb ucket
ĠCom ment
Ġst ability
Ġo xygen
h im
ĠChe ster
C ould
ĠD in
ĠC raw
ĠB ag
ĠMont gomery
ĠCEL L
ĠW W
Ġ" ${
or p
ij a
Ġk ernel
ĠPro perties
ĠRev ival
C ost
D istance
Ġmolec ular
Ch o
Ġdro ve
Ġw ake
ĠH IV
ĠF oster
Ð° ÑĢ
Ġmet ric
F ictional
ĠNot able
Mut able
ĠPl us
Ġte eth
ord inary
ĠProtest ant
inter val
ĠId aho
= &
Ġhand ed
99 99
DE D
ĠS old
Ġrequ iring
Ġg auge
ace ut
N ONE
, .
Ġencounter ed
ĠS oci
Ġg host
Ġdiplom atic
Ġfif teen
Ġpl acing
uff ix
Ġvis ibility
ĠJul ian
" ])
e clipse
h m
Ġaccord ance
Ġab und
ĠLiber ty
l ane
unc redited
Pop up
G N
ĠPer th
d td
Ġinter actions
l oss
Ġexhib ited
'' '
im mer
UR N
Own Property
art et
ĠA my
ĠK ur
S yn
ĠDe uts
ĠK umar
Ġdifficult ies
Ġform ats
rit ion
Enumer able
è ¡
f ive
Ġm emb
ĠP eng
Ġas p
ĠAp pro
Ġthor ough
Â Ģ
ac ional
ĠHit ler
com plex
F ill
am med
atche wan
Ġt ut
Ġalleged ly
l ag
ĠSp encer
ĠN ancy
ĠO w
g ender
Writ ers
ĠMc L
it ivity
ed e
Ġc ir
op ened
Ġb read
Ġact ively
bro ok
id y
Ġc ust
Ġent ers
Ġdecre ase
> ../
Ġst range
ĠC ancer
db c
+ "
ĠMay be
ĠRoc he
isc opal
ĠTR UE
Model s
J P
S oviet
urs ive
ch unk
Com ponents
R ugby
ĠG az
k ernel
185 3
Ex press
Ġcompos itions
Ġtradition ally
Ġanal yst
Ġrepeated ly
Ġfunction ality
Ġs aving
Ġst eal
ĠKn ights
is ers
na issance
M ir
w heel
ĠFran co
ĠRay mond
ĠD ame
H y
Ġm oon
ĠL LC
ĠW ald
P ac
SPAC ING
ĠC ox
Ġlik ed
ĠC lose
Ġknow ing
" ?>
label s
b x
Ġh yd
Ġexhib itions
ur as
ĠM ik
D ry
at em
fr ames
R oll
] ['
S napshot
Ġbl ues
Rel ated
Ġgard ens
ph er
Ġloc ale
ĠAd miral
mark et
Ġconflict s
Ġn s
Ġmer ch
ĠSeb ast
mat ches
w yn
Ġlik es
Form atter
ĠNS String
b ors
requ ency
L ists
p od
Ġt ale
add ed
Ġfall en
A MP
ĠIm mutable
SUC CESS
ct ree
Å Ľ
ersh ire
E ven
end point
Ġdef ended
ĠTom my
Ġch ronic
ÂĢ Â
to Equal
ĠBrun swick
L R
wh at
sen al
ĠMe chan
eg al
Ġprov isions
U k
ĠMot ors
Ġref lected
Ġconstant ly
ym ph
U r
s ocial
Spec ies
Ġt ube
vel t
ĠIm m
F ixture
ĠG ate
Ġpan els
Ġlisten ers
West ern
song writer
Ġrem oves
ĠAmbass ador
################ ################
] ->
Ġdefault s
CR IPT
ĠL ac
red ients
ĠShe ffield
oy age
Ġcomment ary
C art
Ġarr iving
I p
^ \
ĠEnt ity
Ex pect
'] .
SOUR CE
list ener
ĠPlay Station
B ridge
ĠLuc as
ĠF lying
ĠS ize
Ġrad iation
INS ERT
IT LE
Ad v
ĠE ight
Ġup load
Ġs ender
row se
ĠCh ang
Ġmag netic
ub er
ĠBl ake
Ġc ock
ĠB AS
Pr ice
ĠComp etition
S K
ĠMod ule
ĠR ams
Ġse eds
ĠC inema
ĠNorth west
ĠSecond ary
Ġres erves
ĠH aving
t one
draw able
ĠP ackage
Ġsc an
ve ill
MA GE
om ar
int ers
bor o
Lou is
n l
sh ore
Ġelement ary
b ucket
Sc alar
Ġpod cast
Ġtrans it
Ġm ad
Ġcl s
Ġpl ural
Ġsh orter
Ġw rapped
M ur
M att
st orm
ink s
X Y
f ight
ĠBenn ett
ĠR af
as se
Ġmat hematic
ĠE state
Can vas
ĠP icture
c ost
Ġp a
Ġrest art
ident ity
ĠSh in
ĠP and
pl ain
Ġfle w
~ \
Ġsustain able
Ġw orn
Ġthere after
ĠE RR
qu in
ĠCom edy
Ġair line
Open Tl
B D
Ġtrav elled
F etch
Ġa thlete
ĠResult s
ur ations
Un ion
Ġswit ched
Ġanth rop
Ġrad ar
en eg
ere k
Ġsol ve
ĠBro s
Ġrot ate
E LEMENT
Ġqu eries
Ġ\ \
C UR
T imes
n ell
ĠJ ak
m g
ĠRh ode
Ġconvinc ed
Ġt iny
Ġas ide
ens en
sk a
vert ed
LP ADDING
ic ol
Ġaut hentication
as is
Ġfor cing
F actor
ĠC ategory
n ut
Data Type
h ou
Ġsus pect
> {
IE W
Ġtour ist
ĠPhys ics
Ġassoci ations
B oth
ra ve
me an
Ġder iv
f aster
Ġsh ield
ĠNap ole
Ġinter mediate
Ġbank rupt
Ġt aste
Ġprogram mes
Ġv ib
Ġsubmar ine
m issions
ĠRh odes
ĠC over
ov ina
Ġcur ve
ĠA ires
Mon itor
Ġvar iants
Sc ene
Ġexc ited
G RO
Ġcomp ounds
Ġim plicit
Ġla ugh
ĠCEL LPADDING
Ġor che
Ġs ailed
il ian
Ġintro duce
ĠWIT HOUT
Ġequ ally
Ġjo ins
Ġlegisl ature
D iff
ĠCELL SPACING
ĠL akes
x sd
ĠPh arm
d ocker
i ens
Ġlabor atory
Ġris ks
sh ops
F i
ĠP ep
Ġexc iting
H am
ĠAr med
ME M
prov ed
Ġhealth care
h op
Ġpredecess or
V R
ĠC ork
ĠE cuador
ĠY et
Ġkit chen
WA RE
Ġ" )
v or
ĠG overn
13 6
Ġattack ing
ĠPaul o
ĠU nd
ĠSc ar
×Ļ ×
sl ider
re ction
Ð¸ ÑĤ
ric ulum
Ġst olen
Ġav iation
ĠTun is
M ot
Ġn an
fil m
Ġcompris ing
Ġcent res
å Ľ
ĠScot ia
Z oom
Ġbul k
O G
ae us
M AN
ĠAh med
ĠV illa
Check ed
Ġpro l
depend encies
; %
ro us
Ġk w
Ġrec alled
ĠColumb us
ph abet
Ġdesign ation
ĠJo an
Ġhous ed
C ities
d ie
Ġp ill
Pri or
T emp
con v
Ġsort ed
Ġsust ained
Ġl akes
Sm all
ĠCollection s
ĠT all
app a
ĠCar r
ĠDate Time
ĠT ong
Ġlock ed
D ITION
Ġdebut s
att ing
Ġemer ging
S ets
ĠHer ald
g ary
ĠC ec
ol ine
O s
Ġsurpr ising
ĠS ter
Ã© g
Ġw elfare
ath a
an ch
Ġdisc rimination
ĠAng els
fr ag
ĠRevolution ary
Ġnovel ist
Ġelev ated
ĠV eter
Ġ" #
Ex it
ys ics
ape st
Ġdisestabl ishments
ĠF ul
ĠE lection
found er
cri ber
Ġbatt alion
B g
Ġcre ator
C over
re ach
ĠOut standing
Ġtravel ing
ĠI C
Ġy ard
dat etime
allow ed
ia z
Sm ith
est one
Ġpl enty
ĠW ag
out ube
fair biz
fairbiz deals
ĠBos nia
aceut ical
pr ises
Ġvo ices
veill ance
ĠPet e
Ġman ages
un i
Ġch a
fe atures
ĠS ummary
Ġaccur acy
un ches
ap a
Ġwrit ings
ĠTas man
Ġbo ards
EV ENT
Ali as
- ">
Ġc p
Per cent
ĠM umbai
Ġshould er
row Color
ĠAg reement
Ġth rew
op ens
"/ ></
ĠF BI
Ġs ung
Ġmeasure ment
man ifest
Ġcart oon
ĠS ul
ĠSom erset
Ġdr um
d elegate
ĠHel p
Ġwalk ed
amb ers
M ix
Ch ina
Ġn inet
ort s
is or
LE S
Ñ Ī
Ġph osph
ĠS pect
Comm unes
Ġrefuge es
def inition
Ġun ve
ĠEnter prise
Ġbel t
Ġsuff ix
oc on
Ġb ounds
Hen ry
Ġconnect s
ĠRena issance
Ġed itors
ĠFl ash
Ġhar vest
contin ue
st ates
ĠR achel
oc ene
2 30
h arm
Ġthere by
Has Been
cl ine
Ġpart icles
ĠAd ult
Ġconf used
ĠBaron et
T ensor
ac ular
uch i
ĠLeg ion
ĠEs sex
D M
l ain
Ġre organ
ĠB ears
ĠK rish
ĠK ind
ĠAgain st
Ġarr ives
I reland
Ġor al
ott a
er ious
ĠSh ir
ĠL ok
N umer
Ġbe am
Ġc inem
Sh adow
Ġvari ations
ĠRon ald
Ġh ills
Ġnot iced
Ġb uff
if ice
Ġmidfield er
Ġg ray
attr s
Ġatt itude
ĠPark s
Constra ints
Ġbelief s
fore ach
="@ +
ĠHol mes
S ol
ĠM ine
( `
Ġe ating
Inst ruction
ĠMethod ist
P ad
ĠCom put
Pay ment
ĠLicens ed
met rics
itte es
andid ate
Ġj e
ic z
j ud
fl ush
ĠS urre
XX XX
v ik
Ġsub str
Ġ$ ('#
ĠK in
Ġun lock
P ane
ard ing
ĠCamp us
Ġexpand ing
f ilters
ib ling
ĠZh ang
ĠL or
ĠIndones ian
Ġdig it
ĠPar ad
Ġreform s
Ġl l
ab i
Sl ot
ĠPr ague
ĠSw an
Ġ" ;
RE T
un ion
Sup press
ĠD at
ĠK or
Ġauthor ized
over ride
Ġs overe
transl ate
s ources
Ġs oc
Ġf ro
Ġste ep
re p
respons ive
Ġun ions
ĠFried rich
CO M
r ust
Ġpian ist
ex ecution
Ġhe x
ĠF at
12 2
ĠO ptions
Ġreason able
Ġab oard
ĠMer it
Ġen rolled
ĠFour th
ĠLi u
ump y
B uf
Ġj et
Ġel abor
ett i
ust ain
ach ers
ĠAm endment
ĠGl ass
Public ations
ĠR ole
ĠS weet
ap ps
c ock
With out
RE NT
Ġsl ide
uc he
Ġestim ates
ĠM is
ĠK IND
Ġexam ination
Ġhistor ically
ĠWork ing
Comm it
ut er
W rap
ĠVlad imir
ell ers
ild e
ĠMal ay
Ġb uses
Ġrecip ients
ĠA ra
Ġaccess ed
Ġfor ty
ĠW inn
Ġobserv ations
ĠCon cert
Ġc ave
sl f
Ġaud iences
ed o
Ġdist inction
ibl ings
Ġsurpr ised
r ag
ĠF antasy
Dest roy
File Path
Ġour s
ĠEag le
ĠIllegal ArgumentException
ĠA uth
le vard
Dis k
Ġfollow ers
ĠH ale
ĠG and
ĠCab inet
t oc
18 46
med ium
Ġf ixture
N Y
Col umb
Ġsus pected
Transport ation
Ġbrig ade
Ġcl othes
Ġres id
Ġ( `
ĠRe lease
ĠK re
ĠGrand e
Ġchalleng ing
ĠTre k
faster xml
pro duced
Ġsc iences
Ġabs olutely
ĠPro gress
Ġa uction
Ġnam ely
i ago
Ġext ensively
Ġp ipe
Ġhapp ening
al one
ĠPlan et
WR ITE
Ġspect rum
SH A
> .</
ĠP ain
aw ks
Class Name
Ġlog ical
ÅĤ aw
Ġpe ers
Ġf i
Ġmiss ile
A U
des criptor
T ranslation
ant om
Ġnick name
c n
pr ice
ĠHar per
Ġh urt
att ach
re view
ĠCroat ian
Mod ified
ĠB uffer
os opher
ĠHamb urg
Ġsuggest ing
(" .
Ġrul er
Ġ ion
ĠFl ag
ith metic
inter pret
Ġmet ropolitan
ĠOak land
Ġret reat
ose velt
Track er
Ġdial ect
ĠM s
ull ah
n it
Ġharm ony
Ġto xic
ĠJ ung
al in
cl ock
Ġs id
Ġrem ix
ĠP UBLIC
ĠAct ress
ie u
Ġel ite
ĠFa ith
T ip
Ġsc andal
ĠMod al
Ġprov en
ĠSus sex
Ġmechan isms
ĠK ids
ĠM atrix
ĠP om
Ġcan n
Ġtri ple
h uman
ĠRod rig
oy a
Ġsc hem
ĠDes ert
Ġrout ine
Ġper ceived
ĠPl atform
Ind ia
Ġembed ded
ĠPak istani
b undle
Ġper pet
Ġd ancing
IL L
Ġrel ax
hell o
Ch unk
B er
M ah
alt ies
st ation
Can ada
k l
om pass
ĠC ort
ç »
ĠDev ice
Ġblock ed
h orn
Ġext ending
Ġgra ve
ert y
Ġexpl oration
Ġg rants
ĠOther wise
ĠJava Script
Ġambass ador
ĠK ol
Ġfriend ship
Ġun employ
Ġfif ty
umber land
Î º
ĠHash Map
to ctree
E th
ain ers
Ġm ature
ĠN ine
Re pe
ind ed
Ġdat aset
ĠF olk
Ġg it
Ġpre t
Ġexpect ations
Ġmus cle
che m
Ġwonder ful
ĠW arriors
Ġvel ocity
Ġown s
code c
ĠIN TO
iv ot
ph i
Ġun w
Ġare na
ĠIs aac
ish i
char acter
ĠSp ider
Ġre nown
Ġ< ?
N ON
Ġvol t
Ġa est
ĠEm ma
ud o
Ã ¯
Ġc iting
empl es
st ed
Ã¤ r
im ination
Ġw ond
Ġbu ying
ik ing
Ġmon astery
P ixel
C lean
man uel
fin ity
by ter
ĠMarc us
stan bul
Ġreg istry
Ġsoci eties
' "
B ob
H ouses
ing o
pop up
Ġp ist
Ġint ensity
Text View
ĠJenn ifer
Ġcompens ation
on so
Ġindepend ently
a ude
open hagen
os er
Ġpil ots
Sur face
ĠTh an
p agination
s igned
ä¸ Ń
Ġsu ite
Ġf unny
Ġquant um
subs cribe
Ġeditor ial
HasBeen Set
Pay load
ĠS uff
Ġless ons
ist le
Ġscript s
Sep arator
Ġon click
ĠD oll
ath y
COUN T
art z
Ġchalleng ed
G erm
Rad ius
Ġas h
Ass ign
} "/>
um per
D evelopment
P D
ĠM Ã©
Ġspecial ist
sy nt
$ $
ĠCy prus
* ,
C SS
en vironment
ĠT ool
ĠV ert
ĠBu enos
ĠWood s
task s
ig ue
ill on
Ġte ch
Â ½
Ġl ip
arg v
Ġang ular
ĠM C
ĠP S
ĠStock holm
ĠGard ens
ĠF ed
ĠCre ated
c ookie
Ġover view
Ġext inct
ĠV AR
Ġdistinct ive
at ivity
ĠCom par
Ġmoder ate
Ġdef ender
Ġexecut ives
h ad
on al
em por
Ġ' ,
L iber
Ġque en
Ġtrans mit
T ry
ĠL E
M ean
Ġimport ed
ick y
Ġagre ements
Ge org
ĠEx cell
Ġdepart ed
ĠB ened
Un incorporated
Ġpione er
Ġadv ocate
orient ed
Ġcheck ing
m x
og o
In c
ocol ate
ath i
Cred entials
R ank
ĠP si
Ġcruc ial
ur bs
Swed ish
ĠP ink
ĠN ottingham
ĠBrook s
Ġqu oted
ĠSh im
B ucket
Def ined
Ġhold er
Tax onomy
Ġkid n
ĠI de
ment ion
ĉĉ Ġ
Ġcalc ulate
m el
ĠB order
separ ator
G ateway
Ġâ ĪĴ
Arch itect
P ending
Ġmon arch
Ġm ixture
2 10
Ġ" _
pro c
ri er
../../ ../../
ent on
le af
Ġvers e
Ġscen ario
ing ers
Ġsepar ation
Ġin clusion
t lement
ĠJama ica
ĠNiger ian
L ead
Ġpart icle
met ry
Jose ph
Ġe uro
Ġconsider ation
yl an
Ġc ouncill
Met ric
M R
ol in
ats u
cont rolled
gu ard
All ow
Ġl obby
Ġdescend ants
Ġfl our
Ġpsych ological
Ġmod es
ĠAl f
ĠBr ussels
ĠOriginal ly
hab ilit
Ġtravel s
ĠW H
Ã§ Ã£o
pos al
50 9
Ġrec ruit
Ġen ables
ĠKaz akh
Ġre actions
ĠJac ques
Oper and
Ġcam eras
ĠS ales
v ars
Ġl ung
Ġacqu ire
Ġmem oir
C trl
Ġhost ing
vent ory
ĠWil helm
S PE
and ed
h om
RO OT
row th
f ac
ar ms
ĠHe ights
Ġt err
R oad
Ġpat ri
Ġconv ey
m c
ur ities
ĠW HERE
Ġreal ize
Ġconstitu encies
Ġmet ab
ĠB ark
ĠJ unction
Ġcred entials
Ġind ices
OR S
Ġtermin us
Ġvolunte er
Ġcollabor ated
ar ound
Ġ} ).
ĠLe ic
ĠStr ateg
Ġc ad
ĠP ul
Ġcan al
ĠT yp
Read y
we ather
Ġmem ories
Ġun incorporated
ĠCh oice
sub string
ph ib
emb ourg
Ġprec ision
Ġch apters
St udio
ĠO wen
ĠC ut
prep are
ĠH ass
Serial ization
Ġprepar ing
M ov
ĠS ey
Ġqu ad
s ized
Ġsport ing
Ġtro ubl
Ġrom ance
ĠCon struct
ari os
Ġinduct ed
Ġarg ues
ond o
ĠP arent
Ġhop ing
Ġbank ing
nos cript
` :
Ġh o
re present
FA IL
Ġche ss
ĠN as
l ift
Ġann ex
Ġinter change
FORM AT
ĠO g
Ġres umed
Bit map
Ġrock et
var i
ĠG it
N R
d ynamic
ĠWest minster
erv ers
atin um
ĠMig uel
ĠD uncan
C AC
Ġalign ment
Dem ocratic
ĠByz antine
iet ies
ick ed
Ġequ ality
B uff
Ġcons ensus
: &
Ar r
æķ °
Lower Case
REQ UEST
Ġarg ue
Ġlist ings
In jection
Ġserv ers
T er
Ġr iders
g art
Ġs ig
ĠFil ter
L com
Qu ant
Ġd rain
Ġathlet ics
ĠDur ham
Ġp ow
P ipeline
t ol
Ġs ends
om eter
Ġemp ire
Ġc od
ĠC T
Up per
P ak
P adding
Ġcomput ing
Conf irm
' =>
Ġgu itars
. ).
ra ble
Ġachiev ement
ĠS K
ot yp
V ir
ĠPal m
Ġthink s
Ġexpress ions
S om
ĠCred it
Ġh ub
Tool s
ĠD ebug
Ġl in
Ġdesign ers
ĠCre ative
Ġend if
ĠR ol
ĠDist inguished
ĠESP N
ov anni
ĠEngine ers
ĠEncycl opedia
W ORK
ĠPo etry
k u
ar u
000 1
fav icon
p ending
ĠYan kees
Ġsim ilarly
Ġav ailability
Ġt un
path s
Ð°Ð »
eg an
17 5
ĠEm ily
ĠC os
Ġcle ared
p aces
Ġm a
L ite
ĠB rid
Ġs iege
E ducational
ĠV il
ĠChar ter
ĠHe aven
18 45
Ġpsych ology
s outh
Ġr ifle
Ġf ate
oot ing
Ġhuman ity
ĠM ang
script s
ĠCh an
Ġacadem y
H uman
ĠIss ue
ĠCelt ic
Ġso ap
ĠSh ield
Ġatt ach
c orn
ĠMoroc co
fo x
F K
AP PL
Ġc m
ĠIraq i
AR GET
ĠMaur ice
c aret
f loor
ĠA ur
Ġadminist ered
I ll
init ialize
ra id
18 42
ĠCh rome
Ġcook ie
Ġp ixel
ME SSAGE
ĠL iv
cp u
H ard
ĠB OTTOM
ĠTy ler
ĠL ak
ond e
ps y
ĠAn a
Ġdiscuss ions
c art
Ġc avalry
A SS
" =>
en i
Ġimm ig
ĠRet rieved
Ġfoss il
ĠSask atchewan
Ġansw ers
12 9
Ġphys ic
Ġstud ios
18 44
Ġt ier
Dim ension
Sp ring
ast ics
Ġbomb ing
Test ing
unit Pattern
Ġc oh
ph al
s in
V T
Array s
ĠH ir
shall er
Ġaccommod ate
er ion
ĠD CHECK
Ġenc ompass
14 5
ell ar
ĠYugoslav ia
any on
ĠVol unte
hash Code
g io
ĠT iger
im an
Ġvulner able
f uture
Ġreli able
pl ant
rict ion
ĠPr ison
th ere
ĠM ET
ĠCh o
Ġpriest s
ĠInd ies
AR B
ru ce
op ing
ĠCom b
ĠPow ell
g p
Ġp ic
ĠPear l
Ġqual ification
ĠEll is
ĠK as
Ġpr ince
Set up
ad ier
ĠZ imbabwe
am as
ĠK om
Data Source
ĠIndian apolis
h base
h ook
Ġb ell
se gment
Ġdev ast
Mod ern
p ot
Ġt enth
Ġst reak
cs v
App Compat
Ġanal og
Ġconfig ure
ĠPan ama
Ġpre lim
Ã© m
iff e
W ashington
ol ics
Ġf ires
Ġgrad es
ement ia
n st
Ġpol ar
n ail
ĠT oken
Sh are
Ġref ere
Ġremember ed
V ote
ĠCo hen
Dan iel
ĠMan it
ĠUn less
Ġrender ing
Ġconj unction
ar re
Ġcho ir
Ġp ounds
Ġinh ab
Ġdemonstr ate
oc he
ĠG ir
18 37
Ġthread s
: %
te ch
ĠRem arks
u ania
Ġm ic
Nor thern
ah u
and ro
Ġtim er
Ġprevent ed
> [
ĠV ern
Ġcivil ians
M esh
ig i
c as
Ġcom plicated
ĠA UT
Ġtor ped
Ġl od
des cribe
on ne
Ġinv olve
Ġeval uate
ĠR ice
Ġd ense
ang ered
math bb
ĠGe off
ĠF L
cos ystem
Ġto ll
ch rome
Capt ure
ĠK arn
if ference
Ġf ung
Ref resh
Ġv ow
az ure
ĠCol in
Ġs word
Ġsur f
S afe
Ġstri king
Ġsearch ing
Th ird
che z
ĠSalv ador
Re place
Ġthe sis
ĠD y
Ġpro portion
Ġdemand ed
ĠNot es
ac ion
render er
ĠAbd ul
T w
Eff ect
ĠBe ing
Ġd ust
Ġreal m
Ġh itting
Ġb icy
Ġloc als
Ġbr illiant
] ),
Ġnot ify
Ġent ert
Ġpick s
g ui
Ġmult ip
L im
Ġoverw hel
Ġdepend ency
Mer ge
Ġshift ed
Ġhigh lights
Ġd ying
Ġcoordin ate
Ġjournal ism
ĠRe ich
RA M
Ġd ancer
Ġback ed
ĠPerson al
Ġbas in
Sub ject
ĠRo osevelt
Ġoff ense
Ġra pe
ĠD as
Ġw ore
18 43
Ġequ als
an z
ass et
ĠFran z
et c
ĠE N
p ipeline
ĠO ber
Ġgu ards
i ator
math cal
ĠCom plete
D ue
18 12
ĠAdd itional
ĠCurrent ly
ĠG Ã¶
Pol ish
Ġ{ \
aj i
Al ignment
Ġarchitect s
ĠPop ular
Ġcap ability
um ble
ber y
Ġany way
eg ovina
Ġsynchron ized
ĠN ames
ĠId ent
in ate
ĠOtt o
ĠEx hibition
Ġopt ical
Ent ries
H ol
Ġf ame
G uid
Ġfl av
U UID
Access or
Ġch ore
=- =-
Ġin comp
ĠO z
isecond s
ibl ical
Ġam id
Ġdef initions
mod ifier
first row
18 39
Ġmidfield ers
b id
13 7
Tr igger
m icrosoft
5 12
R outer
ĠDisc overy
Ġdo zen
Ġpregn ant
Ġb atter
ĠA ub
Ġse ar
er ialize
l ate
Ġinteg rity
act ic
ĠĠĠĠĠĠĠĠ čĊ
Ġconstra int
Ġprom in
ĠCour se
ĠDivis iÃ³n
nold s
S y
ul o
Ġquant ity
Function s
! =
U V
ĠCons ult
Sever al
ĠS of
ĠĠĠĠĠĠĠĠĠĠĠĠĠĠĠĠĠĠĠĠĠĠĠĠĠĠĠĠĠĠĠĠ ĠĠĠĠĠĠĠĠĠĠĠĠĠĠĠĠĠĠĠ
ĠF O
af ka
ĠMat hematics
i ative
ĠH aven
Ġ// -->
ĠG iven
ind ent
found ed
at ype
Ġb eneath
ĠAtt ribute
cript ors
ĠR ules
b ur
ĠH E
å ¼
Ġh az
Back up
T rad
ĠTrans it
look up
z ing
ĠMan ila
Ġb achelor
ĠC ache
Ġv it
Ġadministr ator
ash ire
Ġcomp ile
n ick
Ġdiv orce
Ġhas n
Ġmir ror
ĠW inds
ĠMark eting
Ġex pr
loc als
Ġn aming
ĠG em
ĠA B
igh bor
ĠJohann es
L ab
d an
Ġarchae ological
uzz le
op acity
ĉĉĉĉĉĉĉĉ ĉĉĉ
Ġbi as
Ø ¨
ĠSt orage
uan ian
Ġenthus iast
ĠA G
ĠR andom
Sh ift
* }
ĠN R
he ws
sc an
Ġun likely
Ġv in
: /
p owered
unt ary
ĠS ullivan
ĠUr ugu
Ġdemocr atic
parent Node
Ġdeprec ated
tool bar
Ġout line
post s
mont on
ex pl
16 8
sp ot
over flow
let te
_ \
W ild
b u
S ent
Î ¯
car bon
Ġdiss olved
m itt
Ð ³
ĠHind i
Us ed
her o
Az ure
ogn ition
f illed
ob i
project s
Ġad equ
Ġl ying
ĠG y
ĠFinal s
ĠM ull
ret val
ĠAg ent
Ġdat etime
ĠJerem y
ĠCh ase
Ġp ython
ĠIns urance
uis ine
Ġsw ing
gener ic
Second s
Ġreleg ated
Ġbr ut
Ġabs ent
agon al
lo pe
Un ique
ĠAg es
ib a
j in
ĠM old
ra its
ĠE g
sh i
ĠArch ae
Ġcirc ular
Ġgu idelines
ĠH us
ash ing
Ġep ic
Java Script
un stable
Dest ination
Ġen act
F red
Polit icians
work er
Ġsl ice
ĠArm strong
Ġbreed ing
Ġto String
Ġp unk
D ao
Ġt ile
] ).
ty p
air y
ad os
d eveloper
Ġactiv ated
13 4
Ġrele asing
erd in
ne z
Equal To
IN DEX
Ġcomfort able
Publ ished
D one
Ġphil anthrop
ĠEnt ry
cl i
Ġperform ers
Ġenc ode
Ġcl ause
ĠBry an
ĠSch w
ĠInst agram
Ġbeat en
Ġachiev ements
S UP
t rain
ĠS olar
ĠC openhagen
Ð¾Ð ´
Ġpl ates
F ollow
s ung
S hip
ĠT ennis
Ġnot ing
ĠN um
Ġmagn itude
ran ger
ide a
Graph ics
Ġpar ad
33 3
Ġs hed
Ch ris
ĠIm ages
18 38
Ġkill s
ĠViet namese
ĠCorn wall
As ian
ĠEx ped
cam era
W il
esc ape
Ġperman ently
ĠCont est
ĠW i
ul ative
IN IT
Ġunder graduate
ĠMalt a
ĠH ur
Ġtra iler
ĠM ead
Ġcoll apsed
add er
ĠProv incial
ish ers
mut ex
H F
oca ust
Prim itive
Ġp ap
Ġvocal ist
elastic search
12 6
ĠJul ia
h art
track s
ph ase
erg us
O l
SER VER
å ¯
ĠG ael
aw i
Ġhar ass
Ġsp y
18 20
oy le
ellig ent
ic ity
Ä Ľ
ĠA chiev
Ġperform s
S rc
/ #
Ġep id
Ġpropos als
he alth
l is
ĠR oot
Ġcor on
Ġco eff
ĠChel sea
e lect
Ġinter active
-------------------------------- ----------------
ĠLou ise
ĠW ool
t ake
Ġres ervoir
Ġrenown ed
Ġhop ed
ĠC ord
Ġ. =
ĠCl imate
Ġd iamond
Ġm i
ĠPrinc eton
ip el
Ġpr ayer
quest ion
p k
Ġre ly
ĠIN T
cover ed
Ġsurviv ors
ad apter
Ġinstit ute
ĠP ir
red uce
ĠG ren
add le
J ean
00 5
ĠF ixed
Ġt uple
eli hood
Ġport folio
ĠRail ways
ĠSt akes
ec ycle
h w
ĠIs le
18 41
ĠM idd
ĠAl pha
f w
on ica
ĠCON FIG
im edia
av ian
AR CH
Stack Trace
ter bury
Ġfound ers
å į
Ġd ish
ĠC u
Valid ate
Ġprem ier
A ud
n ai
Ep isode
S un
nt on
Ġcro ps
ĠBey ond
Ġfe ud
ĠSpe aker
Ġ( -
Ġdem o
ĠS ylv
0000 0000
Ġinterpret ed
ĠProt ocol
stit utional
ĠInit ialize
Mult iple
-> {
ĠB ug
ĠGener ation
ĠCub an
16 9
Ġstat istical
Ġgather ing
p olit
Ġp ink
ou x
mod ern
Ġcross es
Ġspec ification
á ¸
gr pc
Ġtest im
Pe er
Un iform
s chool
Ġmet rics
Ġpred icted
in as
Ġpra ise
az ar
zh ou
ĠDomin ican
ĠDav ies
t ax
fam ilies
ch ief
Ġexplos ion
:: $
Ġkill er
NG TH
ĠBr as
Ġb out
ĠEd mund
ĠL if
ĠCr iminal
l uc
ch air
... ]
ĠÂ ·
d ump
ĠB irth
() [
asc ular
% ),
18 35
R pc
b age
Ġburn ing
Ġb rows
Ġwhen ever
Ġst ub
Ġrecommend ations
S cheme
C at
att en
W arnings
is cher
Ġterror ist
intend ent
enti eth
Ġbut tons
ll er
ar v
ĠT ir
Ġm es
E lect
ĠA ri
ĠCard inal
Ref lection
Ġann otation
Ġmut ual
Ġcasual ties
uls ion
ĠDev il
Art icle
ĠBudd h
For ce
ĠSher iff
Ġout comes
ĠAh mad
spe aking
Ġ/ ><
Ġann ot
Ġfl ank
ri um
Ġenh anced
ĠE sc
Ġo w
ari us
Ġroll ing
sur face
Ġdire ctions
Ġdis orders
Ġphenomen on
ĠV II
e ctions
an che
Fr ont
FUN CTION
Y S
Ġlook up
Ġm ast
Ġcomm enced
ex isting
ph ones
ĠÃ ĸ
ĠP or
Ġbox es
ĠSw ift
Ġ" +
non atomic
==== =
ok ia
Ġrefer enced
Ġnovel ists
Ġn ose
ĠN HS
Status Code
Ġgradu ation
ĠÐ ¾
Vis ibility
Ġobs c
ĠPhys ical
âĶ Ģ
ĠC ann
W C
ĠU ntil
Ġgener ating
Ġg rav
ĠTest s
Ġdies el
S heet
n io
Ġsh allow
fil er
Ġball ot
F ellow
ĠS aw
Ġvis itor
Ġf raction
Ġk iss
Ġfre ight
ĠC elebr
Ġl oud
dr ag
ante ed
15 5
? </
S in
ent ries
up edia
ĠUn ity
ord ination
ne utral
ĠSim pson
ĠDec ision
ĠM ob
Ġneighbor ing
Ġcollect ing
ĠIns pector
ĠLead ership
18 32
ct uary
c ue
Ġw arned
Ġqu ote
Ġp our
ĠT ampa
ĠC av
Sm art
Ġg aining
ĠBo eing
Subs cription
14 7
Ġp ixels
J on
dir name
ĠHop kins
ĠTri ple
J ac
sw er
ro b
Ġimprison ed
ĠD ise
____ ____
È Ľ
k le
Ġi OS
Ġhe m
Ġind irect
O m
Ġsomew here
Ġc ele
="# "
udd y
Ġbox ing
ĠResp ond
ĠL amb
E MP
ĠC yr
Ġab olished
ĠB ee
ĠString Builder
M id
ĠV ers
AUT H
ber ger
Ġim pression
FRA ME
"> {
Ġbi ology
ot ypes
ĠTh ank
Ġathlet ic
b idden
Back end
cam el
ĠSt rong
* >(
r ar
ĠOr lando
lim ited
Ġh alt
ĠForm ation
Ġbe ars
Ġj oy
utt le
M ail
Ġb er
ĠHerz egovina
ĠHe at
ĠVAL UES
ic ers
Ġt ap
ĠAndrew s
Ġr c
Ġim pressed
Ġsurre nder
, $
set Attribute
be ing
^ {\
Ġcler gy
Ġdes per
ĠTw enty
yl um
ĠDis play
Sc an
ator ies
ĠBou levard
ĠF an
In her
__ ["
Brazil ian
k n
H D
ĠInter view
ĠSant iago
ĠLegisl ature
Ġmaint ains
Ġd ock
per mission
ordin ates
Ġs i
G UI
r ass
Ġpit ched
V ariant
'] ))
append Child
A ff
ĠD I
Ġv i
ĠC ou
Ġwild life
Ġtri ps
Ġpredomin antly
18 36
C ookie
vert ex
ĠBrad ley
ubern etes
] {
ĠCar p
Ġtheat rical
Ġsole ly
Ġdel ight
un ar
Vis itor
Ġn aturally
Polit ics
v iv
ĠSl av
Ġbot an
ĠB od
omet own
Ġvary ing
Ġr hs
ĠZ ero
Ġspe aks
he nd
ĠK w
Ġenter prise
Ġdisband ed
U G
ag ne
Ġlegend ary
Ġsh aped
ĠA sp
Ġem issions
AA AA
ĠH arm
ĠNet flix
Ġhydro gen
M F
ep ing
ĠE ve
Ġwar fare
ĠC anyon
ĠInd igenous
ĠNob el
C ertificate
Ad minist
Ġre vision
ĠCor p
ur ated
Ġstep ped
Ġhe ter
ĠCont act
r ice
p oll
og an
Ġenc ryption
Ġf ol
sp ark
atab ases
ĠCommun ication
Ġover look
, </
ĠTh row
Ġ" );
un ting
ur an
Ġh oles
Ġrecru ited
Ġhousehold er
Ġc os
pl ing
ph ant
Ġsub stance
ĠAdvis ory
le ading
R en
Ġline up
Ġimag ine
Ġ( @
ĠAn imation
Top ic
Ġwid ow
ĠI BM
Ġshould n
ĠAp ost
Ġcomb ine
ĠS ET
co res
d eb
ĠKenn eth
am ine
ĠP DF
Ġcor ps
A ctor
å °
Ġrepl ied
ĠRichard son
Custom er
Ġdr ives
Ġcomplex ity
ĠGib son
orm an
Mill is
ĠD ale
Ġ} ),
Ġdraw s
M ike
AR K
oc used
ĠH alf
ĠK aren
ĠGram my
ĠDub ai
Ġto mb
cer pt
In line
ĠAll an
Ġvar ied
aid en
Ġres iding
Ġeg g
ĠStruct ure
ĠP orter
Ġpun ishment
ĠS che
l ng
t m
St ates
Ġ"- //
Quest ion
ound ing
ĠĠĠĠĠĠĠĠĠĠĠĠĠĠĠĠĠĠĠĠĠĠĠĠĠĠĠĠĠĠĠĠ ĠĠĠĠĠĠĠĠ
ĠR overs
EN CE
le z
ĠWy oming
b ranch
Ġwhe els
tt o
Ġattr s
ĠAdvent ure
NE W
sm ith
Ã °
B LOCK
ĠR i
ĠE ye
---- ---
PRE FIX
ri bs
ĠÎ ¼
P rem
ĠR O
Ch ief
Ġvict ories
help ers
Republic an
ĠY a
ĠU tt
ĠG O
Rep ly
ĠR ib
Ġal umin
Ġad s
Ġtri o
Ġconduct ing
ĠB elf
ĠTri p
ĠCall ed
1 19
L es
re ne
ĠR ut
ant o
Ġpract ition
St yles
ĠN ATO
Ph ot
ĠMore over
Ġch at
Ġag gressive
ĠPl ate
I ts
con sc
Ġfor um
Ġjud icial
Ġmer c
Art icles
m oment
STR UCT
ĠGal axy
m any
ĠShort ly
ĠM B
ĠTrans itional
up id
Ġtr iggered
Ġalter ed
H ook
ĠLind a
TE S
ĠGen eva
Ġacknowled ged
s ent
ch rom
Ġmin im
ri o
pre view
ĠM TV
Ġrev ival
Ġconsult ant
é ĩ
ĠE is
we bs
h d
u o
ĠF ut
Ġphil osopher
o que
ĠBut ton
Ġo bserver
Ġrenew ed
ce ased
B rien
Ġs ou
Ġvo iced
Ġsepar ately
ĠL oss
default s
\ '
Ġaffili ate
Ġz ones
Ġun anim
Ġsuccess ion
col span
Ġem it
Se q
ge om
oy e
ato es
Ġ( );
ĠR ush
Ġdist urb
to LowerCase
c ycl
le ston
s an
y arn
Ġl oves
G reek
as ide
part ial
s creens
Ġb ills
ĠAl bums
Ġr m
Ġcomed ian
al tern
Ġdisappe ared
d ating
Ġev ident
config ure
es ar
Ġl ady
Block s
ĠK urt
aint ed
m ile
r v
ĠA WS
per iod
uff icient
Ġcolon ies
s ender
ap ur
Ġver b
Ġrap per
Ġcon spiracy
ĠCap itol
Â ©
the ad
Ġtack le
V ictor
ĠFellow ship
g overnment
ĠK yle
arch ar
Ġtheore m
Path s
ĠBa iley
ol an
Ġf ru
id ay
Ġg aming
AC CE
x it
Ġactiv ation
ir us
ff bb
vel ope
Ġguarant ee
Ġgl ac
Ġch orus
ĠA ch
Ġstri kes
Direct or
enz ie
ref lect
ĠL etters
ĠWe ather
TE X
Ġhe ir
ĠInter face
ĠEx amples
Ġfrag ments
ĠI g
ID ENT
100 00
v ation
Ġw reck
De ep
Ġnom inee
ĠC rist
ĠPublic ations
Ġcare fully
R IGHT
os ity
vis it
ĠRoll ing
Ġra id
Ġhand les
ĠAb original
ĠEngine er
P K
in ia
ĠB ever
ad h
b ey
ĠEvent ually
Î ³
ĠVer ify
Ġbor row
_ [
Ñ Ħ
pre ter
Ġment ions
r ink
stat ement
Ġd ot
Ġcon ferences
ĠCa uc
place holder
s yn
rid or
Ġdis p
AB ILITY
dem o
N U
ĠC lean
ĠBar r
B ank
D eb
St rip
ĠHe ath
se ed
Im ages
ĠLanc ashire
For ward
ĠGer ald
Ġ* ,
Ä Ļ
ab lo
col m
c ats
ĠK urd
ĠF eder
L iter
Ġf Ã¼r
à ´
Ġfar ms
FT WARE
all a
A Y
ĠGr iff
Rel ative
Load ed
ĠB io
ites pace
Ġinteg ral
flu ence
AME TER
Ġreb ounds
l ived
Ex amples
Ġresearch er
ĠS hen
im i
Trans fer
Ġb acteria
Ġwe igh
ĠCP U
ĠM iles
TH E
S UB
ĠG M
Ġqu it
t bl
Ġin ches
H a
ĠSol omon
stream ing
C itations
DO CK
Ġkil ometers
Ġind ent
\ ":
Ġcul min
ĠGu ards
Ã µ
if fin
Ġpro sec
mun ition
Ġnep hew
Ġc rop
Ġs v
Ar thur
Lin q
ge ometry
Ġhum or
Ġhom osex
pro b
O rient
il io
arri ers
Ġdisc overs
am ar
ĠChe ss
æ ī
s ix
Ġmin eral
Ġgrand son
ĠS ed
ĠRe id
Ġprest igious
ĠT EST
ĠIP v
k ok
it ic
Ġcommun icate
Record ed
f und
Â ·
ag le
Ġre lying
SD K
ur red
N EXT
Ġnation wide
reg istry
Ġtrav elling
Ġobt aining
Ġcap ita
ĠMar in
Ġmyst erious
Mod al
Ġby pass
dis k
Prot otype
Ġthrow ing
a uc
ĠB il
ĠWrit ers
urch ase
kin son
Ġaccompl ished
b p
amp ed
Art ifact
ĠBurn s
Ġher oes
N OS
Ġsm oke
Ġm s
L y
Ġconf usion
Ġm ild
Ġim posed
il ion
ĠH urricane
eh icle
J s
T ake
ian e
Ġpass phrase
ä¸ Ģ
u um
K ernel
L ear
ĠCal gary
ĠInt eg
ec a
Ġal gebra
PROP ERT
Ġmod ification
Ġk nee
> ()</
e ah
ĠH ait
ĠHend erson
å º
Ġmist ake
is o
ĠGu itar
ar at
ĠV ision
Ġp s
ĠGl ou
ĠManit oba
Ġrevolution ary
ĠD eg
int ro
Key word
Ġn ested
ĠR PC
ĠArmen ia
ctx t
ip ur
are l
ĠMot ion
Ġcirc ulation
In ject
Ġb ats
ract ed
Ã± o
Ġupgrad ed
Ġh i
ĠC M
ĠN ortheast
Ġlux ury
st rict
Ġl ifestyle
n Ã©e
ĠBank s
if iable
Ġconsist ently
Ġremark able
go og
Over flow
Ġter rain
Ġc c
Ġind oor
ĠFif th
ib us
Ġcre am
Ġgovern ed
flu id
le ased
ĠB iography
ĠFern ando
ĠCoal ition
Ġch ip
Ġview ing
Ġdecre ased
l ar
Ġplace ment
ĠInit ially
tes y
as ma
ĠPrinc ipal
Ġinvestig ated
' ):
Ã§ a
Ġaccompany ing
Ġc url
ribut ions
Ġsett le
Ġfre estyle
ibern ate
k el
Ġapp lying
16 5
Ġstart up
ron es
C ath
H ide
x e
ĠĠĠĠĠ Ċ
ION S
ĠAdvent ures
h urst
ĠP ars
byter ian
Ñ İ
ĠN A
Con struct
Ġcomput ed
Ġmyth ology
ĠD j
Ġep it
ĠEv angel
ĠR out
let es
Ġmurd ers
Ġdiscontin ued
ĠPl aza
Ġs its
Â ®
ĠGl enn
og ene
(" -
tim eline
l ore
Ġw arnings
Ġch lor
Ġrel atives
Play ing
__ .
ĠGoth ic
m and
Reg istration
Author ization
at ics
Comp letion
ĠCarol ine
Ġg entle
ĠD epend
ĠAssoci ate
Ġpre val
> -
ĠD w
Ġr ivals
ĠL odge
IT H
Me asure
Gener ate
Ġt emples
Dec oder
Ġsc reens
ĠSh ore
us age
app ings
ĠMc Donald
ov y
Ġcitizens hip
Ġdi agram
Ġsail ing
ĠB lo
enc il
over lay
ip es
ĠNew port
roll ment
k al
Ġro ok
">& #
Ġ ĉ
ĠTan z
Ġp ond
Ġse ctors
à¥ į
ĠCom mercial
Ġm ood
Ġtheore tical
ĠR iv
Ġcr ashed
V IEW
dat aset
Ġvirt ually
Ġc er
ĠLyn n
erm ark
Ġsur faces
ĠImp act
Ġreb els
Ġiniti atives
Ġle ase
ĠCh ad
All owed
Mat ches
Ġinvent ed
Ġib n
? (
Ġsever ely
amb ia
Ġup set
Ġadvert is
ugg ed
">( </
ard i
Ġan alys
Ġalt itude
erdin and
T ables
ĠE t
Ġflo oding
Ġperfect ly
Ġt ract
Ġf iscal
Int o
Ġprelim inary
Base ball
Ġtr adem
13 3
oun s
Ġab bre
TR A
ecess ary
ext ype
Ġhighlight ed
st ub
Ġs print
Ġwire less
Ġreven ge
Const ruction
Ġhelic opter
Ġag enda
le en
Ġbet a
Ġdraw ings
Ġsculpt or
os c
ĠMont e
ĠGu ang
ĠC WE
ric a
Ġinsert ed
ĠFight ing
m ic
p n
ĠRey nolds
ĠEm my
Ġens emble
Ġ" (
Ġs iblings
Ã¡ nd
Ġbas ically
Ġp ad
ĠChem ical
T urn
Ġviol ation
r imin
ÑĢ Ð°Ð
Ġcl ay
Ġregul atory
ep h
ĠL ect
Ġsc ar
Ġsculpt ures
ĠTest ament
Ġtribut ary
å Į
Ġadv ised
Ġche ap
d yn
am bo
Ġst ones
K EN
im ming
D a
14 6
u pe
amb a
Ġhon ored
z ens
ĠCol lect
ĠField s
Ġult imate
æ Ŀ
Ġfore ver
Re ceive
Un its
ĠFr aser
ric ing
ĠEmer gency
. (
qu ality
S B
ol utions
Ġinter cept
Ġor th
ik er
Ġport al
document ation
ĠLith uania
g ang
ĠF emale
Ġfacilit ate
w al
Ġap olog
Th an
ĠJam ie
ĠM om
ĠCh uck
ĠFrank furt
Ġt rem
Ġm eter
EN C
Ġl ad
Ġc ss
ĠJ ake
13 2
Ġmain land
Ġse ized
ograph ers
ild a
ĠT ell
ĠPer iod
U Int
el n
ĠAn imal
ed ing
Athlet es
k ill
Ġs ew
F ast
Ġopin ions
ĠC L
ĠH es
Ġmeasure ments
Ġh ist
" </
Ġco ached
Ġnational ly
ĠExt ension
Ġnumber ed
andid ates
g rand
Ġt ension
ĠDirect ory
Ġaccept s
ĠP am
ĠC lement
ol ith
ĠP L
ĠEthiop ia
ĠGlob e
b ounds
Ġa ster
Ġnot ion
ĠB ran
Ġt ent
Ġwe aken
Ġdiv or
ĠRoberts on
op ic
Ġab ortion
ĠĠĠĠĠĠĠĠĠĠĠĠĠĠĠĠĠĠĠĠĠĠĠĠĠĠĠĠĠĠĠĠ ĠĠĠĠĠĠĠĠĠ
M unicip
amm ad
ir ical
Ð¸ Ñı
ĠG ET
ĠMem phis
ĠAnd ers
Ġconc urrent
Red uce
Compar ison
> )</
R eb
ien ne
ric ia
B lob
Ġex terior
ĠA j
Des cribe
Ġin coming
ĠLes lie
le ys
Ġ' ')
Ġwork shop
ĠW E
Ġex ec
Ġarray s
Ġtouchdown s
Ġprison er
** *
oc y
ĠH ab
ĠK ab
ĠSp art
Ġins cription
Ġeval u
Ġp ig
ĠD ob
Ġatt raction
M AC
ĠW end
CH AN
Ġbad ly
lo ating
Request s
Pr iv
Ġprim itive
ĠH ousing
Ġmeas uring
Ġbond s
ĠS ons
amp ire
Ġexpert ise
ĠM ales
Ġf reed
Ġm oll
' },
im ity
ĠSumm it
Ġlocomot ive
Ġad option
Com plex
Ġl iver
ĠÎ ±
P a
und ers
Ġevent ual
(" [
Ġret iring
Ġbul let
Ġs el
M ic
Ġround ed
Ġcol lector
Ġvolt age
reg ex
ict ions
T ITLE
ĠIn g
Ġlo ose
Ġcommun ist
18 15
27 0
You ng
ĠH off
Ġphys ically
Ġins ight
ĠF ergus
ĠInst all
Ġmand atory
I ENT
it zer
Ġd Ã©
Ġshe ep
------------ -
Ġgirl friend
2 25
T wig
F ROM
Ġpresent er
ĠT ales
Ġunder went
ipp et
Ġfurn iture
Ġstrugg led
Ġoccas ional
Ġseek s
Ġtrend s
N atural
ĠIn side
L ev
dest ination
b read
control s
ĠU SE
us hes
ĠLet ter
Ġd il
ĠBel grade
ĉĉ čĊ
act iv
Ġsp o
uff le
ĠLore n
Ġmac ro
W ood
) *
ĠTo o
Comp are
H ex
R GB
ĠPro f
Ext ended
ĠCzech osl
ĠAt omic
end region
ex clude
Ġh ind
Annot ations
ĠCl if
P si
ht ra
App ly
Ġ( \
Ġdistingu ish
n is
m ajor
ne apolis
Ind ividual
Ġun clear
ĠClass ical
Ġtre as
Ġcl ine
atern ity
Ġbe aring
Ġdiplom at
C tx
AT URE
dec oration
ĠEston ia
Ġrout er
F W
L INK
ĠH od
ĠContin ental
sc ene
Ġe cosystem
Ġhon ours
V EL
ĠAlexand ria
A h
C orn
ĠBur ton
member NameLink
ar ians
ĠL it
Ġre n
u ity
ĠD ow
Ġl ens
Tur k
Music ians
ĠC avalry
ĠFilip ino
18 34
ĠTh r
ĠInt el
bal ena
Ġreb ellion
Ġoccur ring
inher ited
c ou
Ġl ig
are ncy
block s
ĠFig ure
ock ets
ĠK iss
ĠMont eneg
Ġcat hedral
Ġem otion
ĠCON DITION
S ar
Draw able
ch ing
J ournal
text area
input s
Ġob viously
Bel g
Ġspecim ens
ĠInter est
( []
r ins
ĠP iano
st ead
ĠHigh land
ĠV iv
ĠDet erm
Ġg ods
t le
Ġt une
ĠM ale
Ġproceed ings
inv oke
cha ft
ĠBarn es
st mt
ĠW ake
Ġadvis or
Ġpoll ution
13 8
Al tern
Ġc otton
ĠE c
Ð Ł
W ire
ĠP ere
14 3
ass o
ĠDr ug
ĠCont ainer
Ġcol ours
ancell ationToken
ĠLuther an
ĠCr us
al an
ĠBur ke
Ġcab in
ĠAmeric as
Conn ector
ff cc
ĠS yntax
ĠW ant
ĠML B
Ġsp ark
Ġdream s
Ġtow ers
ĠWrit er
Ġdiagn osis
Ġcoll ision
car ousel
odd ess
Americ a
ĠT ul
ĠMorris on
20 2
back end
ĠLux embourg
om ial
ly mouth
uch y
Part ial
if les
! ,
go al
Ġwas h
Ġfin ite
Ġtim ing
Ġsyn onym
R ot
ar ag
Ġconsequ ence
ĠLoc ation
Ġa u
Ġal arm
ĠD ong
com ments
ced es
Ġpro jection
Ġspec ifies
Beh avior
ch annels
ĠSte am
custom er
æ ł
c ro
clus ions
Dist rict
if a
ĠZ ag
Ġcall er
ord e
Ġi Phone
Ġenzym e
ĠSe qu
ĠParalymp ics
; ]
Ġrob ust
ad al
ĠLuc y
P ier
15 2
ĠSurre y
found land
ĠNever theless
Ð¾Ð ¼
Ġnew er
ĠB rowser
ĠI sh
Ġdoll ar
List eners
Ġcub ic
F oo
Ġcur riculum
Ġpar as
ĠP ool
Pro c
ili ation
ri ans
Ġflo ors
size of
Ġprotect ing
ĠI stanbul
s ap
CON NECT
un its
× Ķ
ĠP irates
CON ST
l r
ĠN urs
m art
Ġst uck
ĠExped ition
Ġw are
il ateral
<? >
Ġa er
Ġscreen ing
Ġserv ant
el ong
Mart in
Ġtour ists
s hell
ĠL av
R NA
Ġtorn ado
z ier
Ġl aser
ĠN in
Ġfinal e
comm ission
Ġen orm
cf c
Ġy esterday
Ġfore cast
ĉĉĉĉĉĉ Ċ
Ġoutput s
pe er
Ä ħ
ĠEx tra
ĠBel le
ern er
Am ong
k ers
Ġwork shops
sh ine
i ary
Ġcent ered
ass is
put es
ar is
LE NGTH
Ġgame play
Found ation
L os
Ġdist ant
bre aking
Ġre ceptor
Ġconsid ers
R M
Ġn ights
ĠH ull
APPL ICATION
On line
s il
ĠEd it
ĠEug ene
Ġcust ody
Ġinv oked
y our
re verse
Ġ Ã©
Ġdepos its
, ,
Pl us
Ġeng aging
ĠNot re
Ġ(! (
Ġreflect s
Ġaut umn
Ġb arrier
Ġg rain
Particip ant
." ;
Ġbur ial
---- -
ĠK oh
Ġover come
ĠKing ston
c ence
Ġe leg
Ġeduc ator
ĠV ery
Rep resent
Ġ/ ></
Histor ic
ed uc
font s
ĠSe pt
Ind icator
Ġ[ ])
Ġh ung
um en
ĠCan terbury
Ġinvestig ations
Ġkil omet
B ot
Ġk ings
18 33
ĠInnov ation
Ġan onymous
Ġcompl aints
P et
U int
Ġf et
He ading
Ġjud gment
Ġident ifying
ĠH ood
inst ein
Ġcop ied
has OwnProperty
ĠCurt is
ĠK end
Ġbroadcast s
Ġres on
Ð¸ Ð½
Ġf ut
Ġse cre
Port ug
ĠBAS IS
Ġl unch
ad ors
Ġl ob
ĠM ode
Ġg a
ĠK ot
[ <
ĠK ang
j as
z el
| \
Ġd iver
Ġprot agonist
TO OL
Ġsurn ames
Ġped est
Ġrain fall
I ce
Ġex ile
sp ired
ĠAlb ania
C zech
Ġ" ")
Ã¨ s
dist rict
ĠCom bat
Ġequ ity
ĠCath olics
T IM
20 3
q a
ĠPresident ial
ew ise
Pop ulation
e ur
() `
16 6
Ġpres ervation
d evelop
ĠIll ust
Ġpen et
} '
Ġb ones
Ġprompt ed
em ia
Ġun n
hand ed
ĠD IS
the y
G od
Ġfar mer
Ġst abil
Ġexam ined
Ġsal ary
ĠM uk
Ġcont rolling
x f
Ġde eper
ĠDown load
G reg
ĠB row
er als
ĠC ool
ĠL il
Ġf ran
ak o
Q t
Ġp ert
ĠG ul
Rel ations
Ġrec all
Ġhot els
Ġtack les
r ina
ard e
ĠSloven ia
Ġdiscipl ine
Ġf erry
ĠDe al
Co ins
Ġang ry
Ġ Âł
pl oma
Nor wegian
Ġpregn ancy
TEXT URE
ron ics
Ġstrugg ling
ĠCONDITION S
ĠSac ram
// ----------------------------------------------------------------
ĠM ove
Al ign
commun ications
er oon
ĠL ayout
ĠMar sh
Ġm all
Ġan ch
enn ium
30 4
ĠAntar ctic
="# ">
ĠAr ctic
Us ername
ĠTr in
ĠD ylan
MS G
ĠAn at
Ġg lyph
Ġcare ful
ĠF est
Ġmod ifications
if rame
Ġsnap shot
f ar
s amples
Ġh ometown
ĠGu atem
Ġp reference
ĠNad u
ĠL enn
ĠStaff ord
an mar
Ġc ategor
=" ./
00 2
cond itions
Ġs ulf
26 0
Ġcontact s
Ġall ocation
B and
ĠGeorg ian
with out
99 9
n orm
comp iled
Ġneg ot
Com b
æĸ ĩ
ĠK aw
ĠNS W
he y
m ud
window s
Ġp orn
Ġcongress ional
ĠTechn ologies
g ae
re ts
Ġh ur
Ġen abling
ĠAcadem ic
Ġc uisine
ĠMar shal
FLA GS
Un able
Ġhypothes is
at z
Ġsc ales
aff e
Ġch ains
pack et
om al
ĠPre p
um bs
ĠR as
Ass ignment
ĠN ormal
Ġtherm al
Ġschem es
Ġv ig
less ly
Att empt
ĠCh in
14 8
ĠBas in
m ons
Ġap pl
olog ically
ĠJ i
end ant
Ġle an
Ġvar ies
Ġwhere in
Ġprec ip
Ġc ant
Ġvar ieties
Error Code
Ġh ol
Ġrecon c
RO W
ĠMic he
ĠEll en
ĠA way
M argin
$ \
ĠAnd rea
ĠO thers
g c
Ġse aled
MA KE
Ġcompl aint
Write Line
Ġar row
Ġd w
Ġcycl ing
al bum
ĠSO FTWARE
B asketball
ĠW ire
* .
ĉĉĉĉĉ Ċ
he imer
ĠS ER
Ġal phabet
P oll
First Name
ĠBet ter
Ġwrest ler
K h
s leep
ĠOs lo
L ang
ĠParam eter
I ran
is le
Ġ' $
port ed
mac ro
Ġsaf ely
ĠGi ovanni
re ports
13 1
ĠC rystal
ĠG uest
sp i
NotFound Exception
con duct
Ġsla very
ç ½
Ch icago
ew ard
ay e
ĠAd rian
Ġp sy
ĠÂ «
remove Class
el m
erv ous
mem Item
D ark
ĠSym fony
C ycl
ĠH appy
ipe g
× ª
am on
ast ing
ĠL ap
Ġmat hematical
ĠProgram me
ĠJul ie
C y
t em
sh iv
Ġd jango
Ġt a
ĠH i
Nov els
w ear
em ption
ĠJ ur
Ġours elves
Ġperform er
Ġl as
ĠX X
2 11
or ange
c us
pt ic
St e
****** /
log ue
ip zig
Ã¼ n
ul in
Ġpoor ly
Cl ip
. ');
ĠInter state
ĠN atal
ĠInter ior
Ġliter acy
Ġh urricane
pe z
Cal ifornia
Ġref lection
Ġsatisf ied
Prov ince
Hor izontal
18 31
o in
d og
stad t
ĠGrad uate
Ġv ec
ĠThe me
Ġseem ingly
Ġpup ils
am ous
c ategories
abet es
Comp leted
second s
iev e
Ġmolec ules
H idden
ĠMy anmar
ĠO st
asc ar
Ġgoal keeper
ĠPat tern
M icro
ĠN acional
Ġ/ .
S IGN
N ick
ĠE RA
La unch
Ġneighbour hood
ir ie
Ġtransport ed
Ġcorpor ation
eg u
ĠLiter ary
T oggle
Ġcon ce
Ġmark ing
ĠG ov
PAR AM
Ġse al
S a
Ġattract ive
ĠLud wig
dim en
Ã¸ r
ĠAr senal
Ġacc us
Ġst aged
Ġgener als
Ġrel uct
ĠH il
Ġhead quarter
ĠWar wick
ĠX box
Ġcomp anion
en za
Ġmon ster
Ú ©
ĠCon structor
C V
Ġartifact s
ĠSl ovakia
W F
Ġany more
ST RE
subs cription
ĠS event
à¤ °
ĠKash mir
ĠRequ ired
ape ut
Ġlo ans
Ġconcent rated
ch urch
ĠElect ronic
ĠT ruth
oxy gen
urre nc
Any Ref
pp ers
Ġdef ining
Ġtr ucks
pre vent
ĠChar acter
ĠH els
ĠC i
Ġhar sh
Ġz oom
io x
Ġam pl
Process ing
C AL
f ork
vent ions
F ake
Ġtra ff
ok i
pr im
Rec ent
ĠP O
ro ve
se at
Ġex cluded
ĠCard iff
em e
Ù ģ
ĠY emen
W ay
B attle
bad ge
at aka
Ġsk ull
Ġwalk s
ĠIn stitution
Ġmotor cycle
Hung arian
Ġthir teen
L ONG
ĠZ end
Last Name
Ġprevent ing
iz za
ĠInd ividual
pro of
Ġv ault
ĠFran c
- \
Y P
aged y
ĠReview s
ertific ates
Ġwithdraw al
ter min
Ġcon quest
Ġl azy
R oom
ĠL ey
ouri er
abul ary
c py
ev es
Ġsur veillance
R o
FN GL
C AP
Ex per
Ġprom ises
Ret ry
Ġtact ics
Ġscr atch
ch in
ĠX ml
Ġal gorithms
J oe
Ġs ink
And rew
Ġt weet
Sl ice
ĠParam eters
123 45
IC K
ĠP ine
Ġple asure
ĠMar l
ĠTrans action
ĠLe op
zo om
ĠLiber ation
ĠMin i
h ra
Ġt ips
Ġ{ ?
h ole
Ġb ore
Ġox id
Ġon wards
Ġcast ing
Ġbeet le
Ġcomp ression
Ġdyn amics
Ġim per
sh an
Ġpres idency
ĠA FC
il is
ĠStep han
R out
Ġpre view
Ġaccount ing
ĠRos en
Ġf ract
Ġinitial ized
empl ar
g mail
mod ified
Ġc osm
Ġ utils
Ġexp enses
ĠRich ards
ĠR ica
Ġlearn s
F all
c v
ut ers
ĠL omb
Ġrec ycl
Ġbur st
Ġplan es
Ġaccept ance
ĠPot ter
Ġimprison ment
ä ¹
Ġund ers
Vari ables
ĠExcell ence
f actor
ac l
ĠB end
Bur ials
for ge
c ourt
Ġh int
Comm ands
ĠJes se
ĠCh al
ĠQ String
Ġdef in
Ġpress ed
PA SS
ĠBed ford
uk u
Inst ances
ĠD ATA
Ġpro port
comp any
Ġguar anteed
Ġcount ed
b rit
se ek
pri ority
F ix
ab is
Que en
ĠD awn
p arsed
Ġf ed
ĠH ern
Ġ[ {
tab End
Ġdub bed
am ination
Ġelimin ate
Ġb ail
ĠCar roll
de en
ĠBer k
UP DATE
ĠR uby
Ex pl
Ġre construction
Com puter
Ġsac red
ĠNE AT
Ġveter ans
Ġ' </
T L
ĠJo el
Ġleg ally
Ġsax ophone
ĠTreas ury
LO AT
S uite
au f
Ġinterview ed
work ing
ĠØ§ ÙĦ
Ġt ong
ĠE k
en ium
ĠEd monton
ct rl
Ðµ Ð»
Ġw age
and i
ĠAn im
Meta Data
prec ision
ĠL ynch
I LED
ĠBl air
Ġinvest ments
ug a
Ġinter im
rit z
ĠPal omar
Ġstay ing
Comp et
re cht
n pm
; -
Red irect
Ġfeed ing
ĠT roy
Ġr amp
ograph ies
Ġevery day
C MD
up per
ĠO THER
ert s
ĠO UT
ĠRel igion
m us
Requ ire
Ġem ig
Ġdr unk
Ph ase
Ġin fer
Ġm eth
std err
DO WN
ra ising
Sign al
Dis abled
ĠMil ton
ĠMe eting
ĠLy on
Are Equal
z on
Ġsec ular
ra ils
Ġwrest lers
ĠReg ulations
head ed
pay ment
GRO UP
] -->
j obs
ĠForm at
Ġstation ed
//////////////////////////////// ////////////////////////////////
Ġt ear
ver ts
Ġre ass
Ġend ings
ĠP ush
add EventListener
yl on
sh aw
C N
Ġh iding
ne um
Ġ= ================================================================
ĠI X
ĠT ropical
Econom y
A st
Ġint ens
Ġafter math
ĠM I
ĠR NA
Ġsh apes
ĠH ann
Ġpush ing
ĠBened ict
p it
er cis
Ġ' ../
Ġcont rad
Ã¡ l
ĠPriv acy
---- --
Ġfemin ist
St an
ĠQu ant
ĠElli ott
que z
ĠPrest on
anc a
d m
ĠU z
Ġlo ader
Ġpack ed
3 30
=" //
ĠHol ocaust
FO RE
m atic
ros se
ser ialize
Ġgen res
Ġfa una
ĠH ack
Car l
ffff ff
Ġg ig
UM ENT
LO B
ĠS v
ĠM ing
ĠMichel le
histor ic
e o
20 4
ĠL t
Ġap par
Ġf uck
date picker
ĠAut om
ĠAgric ultural
Ġg ains
ĠAchiev ement
Ġsc alar
Cl imate
en ic
it Ã©
N ested
i q
Ġsix teen
d w
get Key
t el
ĠBright on
en ary
ment ed
An th
ch y
ann ers
Ġne ur
c atalog
Ġcook ing
Sw ift
ĠD um
ĠF erdinand
W ARNING
Start ing
m ust
ON LY
Ġra bb
Ch at
ĠSet tings
he e
ĠL az
Ġcor rupt
Ġtransl ations
Ġa ug
Ġdress ed
ĠPop ulation
ĠSp ot
Comp any
Ġtalk ed
ĠColon ial
Ġinsect s
conf irm
mid t
Ġstory line
Fig ure
ĠZ en
ING S
ow l
Ġland sc
ĠMan ufact
ĠA bs
14 1
ĠA A
ĠQ ing
P arts
Ġpropag anda
Ġl on
Fellow s
s By
ub b
Ġh ierarchy
ĠD ialog
ĠVis it
ch arts
Ġad apter
Ġagre es
C atalog
b ars
Ġc ere
Ġmarg inal
S on
Ġpos it
ak ov
l ists
p referred
ĠTh anks
Ġph ones
Ġru ins
3 75
P ACK
à ¹
un al
B ag
i ov
ĠGener ic
Ġop posing
ĠSub s
Ġexha ust
id an
path y
PAR AMETER
Ġwer en
ic ion
ĠC risis
ag ic
Ġdo ctrine
ĠE D
Ġam munition
yr ac
CL U
il ogy
Ġat om
Ġr ings
en umer
Ġw ishes
Pac ific
Ġhom eless
Ġdisc ount
red ient
2 32
14 9
Ġmemb rane
Ġtra p
ĠS leep
ind ices
ĠNap les
aras htra
ĠQuest ion
Municip al
P DF
á Ģ
ĠWik ipedia
ĠG mina
Ġ( <
Ġg oddess
ĠL ed
Ġsup porter
Ġneighbour ing
ĠP oss
ĠMar ion
P N
Ġde code
sl ot
Ġer upt
Ġthe or
Icon Error
ĠR ac
vari ables
Ġwithd rawn
ĠHead quarters
B on
Ġfour teen
p ixel
ĠK ad
get Property
Ġprec ise
ĠWes ley
ap or
friend ly
ĠA ircraft
Ġsynthes is
run t
ĠSe oul
Ġobject ives
ĠW WE
St eve
PRO TO
EE E
Ġa erial
Ġc um
Ġpriv ately
Ġassemb led
if ax
Ġat omic
Ġinter faces
Enc oder
Ġd imin
Ġl uck
p ent
y aml
ĠR az
ĠTour ism
18 14
15 1
ĠZ ion
F X
C ultural
ĠB ound
ĠPro gressive
DOCK ED
ĠSer ie
Ġc ord
Ġsub mission
or ian
io let
DE LETE
ĠBund es
M ixed
ĠX I
ĠWag ner
or ers
ĠCh ancellor
ĠS EC
Ġpurs uit
18 28
comm ands
Ġcru ise
18 25
Ġtal ented
ĠHug o
M il
ĠC IA
und les
Ġl ac
miss ing
ĠV ale
Ġv oyage
le et
ĠAr ms
âĢ ł
ĠJohn s
Ġdon ations
Ġh anging
Ġpurs ued
Thread ing
ĠAr d
: **
Rev ision
ps i
ĠChem istry
ĠAp ollo
ar ations
ĠS N
Link s
t uple
in formation
be it
iers hip
u ine
Ġb ab
Ġpoint ing
ĠW on
ĠMar tha
V IS
sw orth
Ġw is
ed ar
ĠMon roe
ĠSant os
Ġc ryst
NOS CRIPT
H I
ay ing
ĠH app
ĠL arge
p ref
Mod ules
ĠRem ix
od ium
ĠDyn asty
13 9
S u
Ġexp ense
c ord
Ġlect ures
l ord
Sc ience
ĠF uel
ĠStr ategy
n ational
ĠS ent
ĠV III
ath am
Ġpro be
Ġbare ly
ĠT ouch
Ġaut onomous
Par cel
Ġl ambda
Ġdiagn osed
ĠD ew
Ġflex ible
Ġextra ordinary
M useum
C a
ĠMaced onia
rol ogy
ĠHer oes
op rano
Ġlog s
Ġmo ist
J eff
L atin
S hips
j iang
Ġf ights
Ġpersonal ities
Ġsub stit
ĠSing er
get Text
Ġe y
Ġad mission
Ġmon uments
E lem
ĠRos a
ĠC raft
Ġrep o
ĠTr igger
ĠG am
ĠEp iscopal
pro ducer
ĠT ank
ĠMen u
L ess
Ġappre nt
L ee
Ġper ception
Ġdist ribute
ogen ic
Ġim aging
d id
Input s
ĠT error
Ġir regular
les h
IconError Encoded
re ls
ĠS TR
Ġb alls
Ġcorrespond s
Ġserial ized
iÄ į
ev o
Ġaccept able
Sc heduler
Ġhash Code
Ġprom ising
ĠDemocr acy
ĠBor is
ĠP Ã©
inter action
Ġvin yl
is se
Ġst er
op us
Ġdig est
rit ory
Ġtransl ator
qu ant
Ġcon qu
Ġpresent ing
trans fer
ĠL ah
ink i
Ġo c
is odes
add on
af a
rop y
ĠDirect ors
ynchron ous
ass y
=" <?
Cre ation
ĠF ramework
end ors
M u
ĠA ve
Ġdom ains
Ġm esh
ĠPart ners
Ġimm une
urd en
rest rial
orient ation
ĠHar bour
; =
} ).
ici ary
B ranch
Ġtri bal
ĠHay es
M ASK
ĠIndust ries
ĠE val
Ġdeterm ining
ver b
I MAGE
T ON
w y
t ables
Pro ducer
le igh
ĠKazakh stan
ĠBas il
ethe less
Ġl ord
Ġbow l
ĠA V
Over lay
ĠMar ian
R atio
Ġs phere
Ġ$ ("#
n ership
Ġf ram
Ġst om
ge ons
ĠPres byterian
ĠS isters
String s
6 50
ĠMax im
ĠUSS R
Ġrespons ibilities
ĠAnd rÃ©
Ġmechan ics
s ame
ĠC off
/ '
Ġens uring
ount ers
ĠI z
! )
ĠĠĠĠĠĠĠĠĠĠĠĠĠĠĠĠĠĠĠĠĠĠĠĠĠĠĠĠĠĠĠĠ ĠĠĠĠĠĠĠĠĠĠ
Comp ilation
pr ising
Ġpres um
al og
vers ions
ĠJosh ua
Ġfood s
Ġm k
Ġincred ible
es ch
ĠB CE
ins k
Ġcontribut or
ore m
Ġcir cles
habilit ation
b ay
V an
Ġle ts
m ot
She ll
Ġgovern ance
p ark
Pre p
ount ain
Ġunve iled
Ġdec imal
Ġkw args
Ass oci
Ġce iling
ĠChurch ill
Ġgrand mother
DE P
unt ed
Appe arance
) '
B oot
Ġland mark
Type Name
Ġelder ly
Ġbankrupt cy
P ark
ĠJess ica
! (
ercis es
Ã ®
st a
Ġess ays
T X
ĠB ronze
Ġcar ved
() ]
vis ibility
ĠW aters
ĠShe ll
Fil ename
Ġsome how
Ġret ry
+ \
4 80
ĠGram mar
ĠFranÃ§ ois
Link ed
col ors
Ġmanuscript s
Ġn ar
ĠD iana
St mt
MS earch
ĠUtt ar
Ġarch ives
ĠF IG
but tons
ĠV K
Ġpre vention
lem ma
Ġch ap
op a
Ġacc idents
Sw iss
ĠIn fo
ĠMc N
ĠN uclear
is ure
ĠSab ha
Th reshold
Ġpros pect
Ã ²
Ġun ited
ĠCar lo
Ġtr am
In clude
Ġmod est
Ġb lo
Ġconscious ness
ĠM esa
ĠB uilt
ĠH AL
ĠD und
Ġsim ulation
Ġs unk
pers istence
Ġgram mar
A ge
ĠG ol
> ';
Ġancest or
Ġpre y
ĠStr at
K en
tok ens
Ġt u
ĉĉĉĉĉĉĉĉ ĉĉĉĉ
Ġst rain
Ġaccident ally
Ang le
P icker
x ref
{ },
st ones
ĠPro ducer
ole y
ĠMar cel
Ġquestion ed
ped ia
implement ation
ĠL ip
consc ious
Ġprop ri
ĠRoche ster
Ġconst ants
y u
ĠMin neapolis
Ġproject ed
HO ST
Ġaband on
ĠBrad ford
ĠBud apest
b eck
ĠH iro
ĠG ur
Ġtra ils
ä ¿
Ġscreen writer
ĠP ok
[] )
Ġvot er
ĠBelf ast
> ');
OP EN
Ġg race
18 24
U pon
ĠW inners
ĠT at
ĠP lymouth
ain es
Is Null
ur ai
ĠCom ments
] *
Ġcre atures
an ium
ap on
ĠSet tlement
ĠHun ting
Json Property
Ġdeleg ates
A rab
St d
ret ch
Ar ts
t cp
up iter
ĠGael ic
TO DO
Ġl engths
Reg ex
Ġmanufact ure
ĠFr ame
20 5
ĠR ican
ĠG an
hes is
ĠPos ition
ĠUn fortunately
ĠRh ine
ĠPubl ishers
Ġto b
ĠM ile
qu ick
ring tone
LE N
Ġ um
ĠUS B
ĠLog an
So ftware
Ġbatt ing
Ġim plies
Ġbe ings
Ġx si
ĠAnn iversary
cest ershire
Ġh ull
Ġd ancers
Ġorder ing
Rel ation
ĠC and
ĠNew man
28 0
ĠF ashion
ĠE aster
Ġpro sper
Ġpost ing
ĠM ouse
S ink
Ġtrans mitted
Ġarg uing
Ġs ab
Town s
Ð¸ Ðº
Ġless er
Tag Name
ĠN u
Ġstop ping
ĠPh one
Ġcustom s
Vert ical
Ġdi ocese
ĠA x
ĠBut ter
Ġgu ided
ĠB rain
Ġm eg
mult iple
Ġm ud
th an
Ġg ravity
Ð¾ Ð½
head s
ĠSand ers
Treat ies
o ct
Typ ed
Ġ. /
it les
Princ ipal
ĠW inner
Ġdivor ced
Ġt et
ĠU FC
oh an
yrac use
D igital
ĠN ut
Ar m
ĠSim ilarly
Ġo d
Ġimpact s
ĠM oss
ra ise
âĢ ²
ĠT ransl
ĠH our
Ġequ ations
Ġqu arters
ab ar
Ġdeleg ation
Ġf iber
T M
s at
Ġpublish ers
ĠNew foundland
15 4
st en
UN K
Ġcare ers
ighth ouse
C ivil
Ġtra its
ae a
r atch
C ss
Ġshut down
ĠR id
ĠF loat
** :
ĠTerm inal
P ages
ag ascar
gener ation
it ated
ph oto
AB C
j sp
ĠP AR
ĠAssoci ated
w ald
Ġf action
Ġto pped
ĠT ow
Ġbusiness people
ì Ŀ
ĠDocument ation
ĠD iet
Ġspe eds
ĠBre nd
ĠMal colm
B ay
Ġpr incess
Ġpreced ing
Ġf itness
Ġpract iced
ĠV M
Em itter
Germ any
com press
field set
Char acters
Ġlocal ities
Ġaver aged
Ġprohib ited
li o
valid ator
Add ed
Ex ec
TE GER
Ġcon gregation
ĠMerc ury
: @
ĠTe h
ĠInit iative
ĠValid ate
fl ies
ĠCont ract
s om
ĠG ospel
18 29
ĠAp plied
uk h
ĠA FL
em y
ĠMin isters
ĠDr iver
ĠDay ton
ĠB allet
ĠPr ide
ĠQ atar
Ġcondem ned
F ilters
Ġ' {
b usiness
ĠT emplate
com ed
ĠCatalog ue
ĠNapole on
ĠMar co
Re ceiver
Ġph on
if s
Ġurg ed
1 200
^^ ^^
Ġll vm
Ġth umb
ĠD erek
=' #
B re
ĠL IC
ĠV oc
Ġref uses
Ġret ro
CC FF
h ouses
30 1
Ġintro ducing
aly zer
il ers
ĠC ash
ĠD ud
ĠAnn ie
thread s
ĠPract ice
ĠB alk
Ġmoment um
Crit eria
Ġsh oes
Ġdro pping
ĠMyst ery
ĠMar ri
ĠS ale
Ġsup press
Ġtim eline
Ġl t
art e
Ġexpl ored
Ġpost hum
Dispatch er
Ġinvest ed
enes is
Am azon
ĠV id
Man ifest
Ġen listed
Check er
Ġc fg
ov ic
int ent
Ġdis pers
mys ql
by e
bit coin
ant ics
Iss ue
ĠWinds or
pect ives
in ating
Ġ-- -
Ġachiev ing
th ouse
process ing
ĠM ats
ĠH ook
Ġ è
ĠB in
ĠEd gar
ĠCOL SPAN
Ġaccommod ation
18 10
D am
ĠP ione
ĠMon ument
ĠSet ting
s al
18 26
or ate
ar ium
ĠL on
Ġun e
Ġn urse
Ġthe ology
man aged
ĠUlt imate
Columb ia
Ġterrit orial
ĠJ ourney
Ġsm allest
Ġesc ort
Ġexpl oring
ĠS ugar
Ġme al
short cut
Ġl ane
or ic
50 1
Ġatt achment
ĠMed ic
= </
Event Args
Ġcontain ers
h it
ĠS chema
ä ¼
ĠE S
ig raph
Ġstrict ly
]] ></
S el
ĠRe ports
ordin ator
Ġb acter
S outhern
B uilt
in is
ĠAlb anian
ps ilon
con c
ĠFl ow
T ick
ĠBang kok
INST ANCE
ĠE ducational
ĠJeff rey
ia k
role um
S and
Ġpl ugins
Block ly
ĠI MP
. &
ĠU ri
ĠConstant in
ĠCl ara
ul ous
(" <
Ġdepict ing
ĠW ings
ĠAtl as
ĠR ES
Ġl over
ipher al
ĠE rik
iz ational
Ġaf raid
] >
Ġsen ators
an imate
L ost
ĠAlger ia
Ġopen ly
Orient ation
ack ets
sm outh
Th ough
ier i
ĠWh ich
ĠY O
arri e
t ransp
Ġsur pass
DI RECT
pe st
ĠKenn y
Arch ive
) ?
âĢ ĭ
Ġcompris ed
xi ety
ĠSebast ian
Ġprem ium
ig gers
ĠM aking
ft s
ĠBul ld
ens ure
F IN
Ġsen ator
Ġen larg
ĠBi ology
w ire
ĠDep ression
K A
V ers
Ġwor ry
ĠDod gers
B rand
ott ing
ĠLanc aster
ĠR unn
co le
Ġw ra
qu ad
Ġz ip
ope z
ĠPan thers
ĠB A
Al gorithm
Ġacadem ics
et z
c odes
ĠD ocker
Israel i
ĠR oth
Ġmission ary
m eter
Inv oke
Ġinhab ited
ĠC ould
Ġcoordin ator
MA IN
ĠC B
Ġac ute
IS O
Te ams
ob iography
Ġoper and
ĠSerge ant
Ġc razy
ĠPl at
Ġbet ray
Un mar
Le ave
Ġrul ers
we ak
ĠMos es
atri ates
ex ceptions
Ġcritic ised
ĠSil va
F B
Ã¡ r
t ec
d ad
ch ard
ĠL ives
av atar
Ġr s
ĠSouth west
Ġinj ection
Ġbatter ies
Ġp ul
Disc overy
Ġinstruct or
ĠC ly
Ġwant ing
ĠG ross
Ġtestim ony
ĠBul let
Ġing redients
the m
ÏĦ Î¿
Ġm ice
Ġ" ./
G al
ass ic
Ġmass acre
charg ed
Ġtri angle
Ġf antastic
is ive
Ġtermin ated
He art
ĠC areer
est s
ĠTh ink
sp in
ĠMc Car
ĠTh ir
F at
Ch oice
V el
any a
so lete
part ition
ĠEconom y
ĠChron icle
ĠThrough out
sec ure
Debug ger
Ġdemonstr ation
Call ed
ĠSo ft
Ġeval uated
Ġemot ions
es que
asc ade
ĠEvery thing
ĠRock y
Pred icate
led on
ĠGener ate
Ġcontest ants
ĠC airo
Ð ¡
Ġin finite
ĠB R
Ġbuild s
hard t
c ases
ĠExper ience
m achine
Ġam endment
ĠCons umer
Ġprox imity
Ġtorped o
ĠRec ording
ĠS ara
ĠN ass
Ġf are
Ġcarri ers
Ġknock ed
++ ++
ĠVict ory
em i
Ġret ire
ĠE asy
sign al
ĠHard y
GEN ER
Q UE
Ġvert ices
Ġwitness es
an an
Ġan ger
ENT ER
Commun ity
ĠEm irates
ĠBrand on
n orth
in verse
[ ],
ĠK ann
B tn
ĠNAS CAR
at ro
ĠRem ember
ĠGar cia
Ġil leg
ĠV ij
Ġd os
ĠS ustain
Ġpromot ional
ĠAz ure
40 1
ĠNO TE
ĠMar ÃŃa
LE VEL
Ġde alt
Ġicon ic
ct ica
Ġlect urer
ĠAl leg
Ġsub set
Ï ī
ĠCraw ford
p ie
r ases
ĠLe ipzig
op ol
ĠAm b
ĠJen kins
Ġad mir
ĠSc out
Ġd t
numer ic
36 5
Ġswim mers
ĠInvest ment
Ġsoutheast ern
r x
or acle
ĠS ik
ĠLink ed
Ġac claimed
External Project
Prot ected
æ ³
Ġhum id
ĠCow boys
ĠCon stituency
ĠLaw s
Ġdestroy ing
ĠStrateg ic
ãĥ ³
15 7
ĠÐ ¼
Ġdemand ing
Ġrival ry
Ġsc ream
N ever
End emic
Man aged
ĠL ords
Th rows
ĠC OP
Ġprem ises
Ġd ining
ĠD ementia
t emplates
ĠD S
C lock
f ootball
n h
Ġback end
Ġm aj
Dep artment
ast ore
e er
Ġa pt
uc ci
ĠDe leg
Ġcogn itive
A sh
G uest
ĠSh are
qual ified
ĠD rop
16 00
ĠBeaut y
18 21
Ex cel
Ġarm ies
conf irmed
Ġpolit ically
Ġaff ects
ĠPl ain
ĠC od
NAME SPACE
ĠRaid ers
Ġfl ush
2 12
Ġcontinu ously
Ġemploy er
Ġaffect ing
Stud ent
erm o
ell ation
Ġheadquarter ed
17 75
H it
Cap acity
Ġundert aken
ĠT ah
ay ette
ext ends
Ġexhib its
Ġl aps
Î ®
Ġ" ");
ant es
ott i
ĠAs ync
c x
ĠLe af
Ġenorm ous
ak k
ĠSp ark
ne ys
Ġch ances
Ġcompar able
ĠG ates
l Ã©
Serial izable
Ġ# #
Ġ(! $
ĠCont roller
ĠSc ots
View s
Ġpoll s
Ġcost ume
ĠStef an
ĠR he
x r
Ġrook ie
Ġproceed ed
it ary
ad ia
ĠH annah
Abs olute
Ġb apt
ist o
ĠChief s
se en
é Ļ
Ġt body
ĠC ounter
ott age
Ġserv ants
Ġinvestig ating
ass oci
C odes
ĠR s
Ġdirect ive
int eg
A CTION
F ive
Ġitem Members
ĠBre nt
May be
Ġassass ination
s izing
ĠG reatest
Ġstrugg les
l ua
æ İ
Log ging
ĠV all
20 8
ĠFor bes
equ ality
ad vant
os ion
v are
Ġj ersey
ĠHonor ary
Ġle ather
el ist
Ġn ervous
ĠVal ues
East ern
ĠJul ius
Ġimplement ing
ĠAppe als
ĠF alk
Ġar ithmetic
Ġfin anc
> ("
Ġconsider ably
Ġwe ird
ĠS ometimes
Ġhand lers
bra him
Ġhard er
Ġst amp
parent s
Ġblock ing
olec ular
m inton
av in
sub str
lock ed
Ġdeliver ing
Ġlink ing
t ex
Ġinter ference
Ġsuggest ion
15 6
ĠLad ies
ile e
fe ctions
Ġsil ence
Ġsn ake
Organ ization
ĠTe en
ĠEm ploy
Ġut ter
re ply
Ġcr ack
Ġfail ures
Ġprof its
å ĩ
ĠL af
ĠC NN
Ġun ity
Ġinv itation
Ġinter ven
Bo ard
ov i
jb oss
L if
ĠM illion
ĠPatri ots
( @"
MA G
Ġc ig
Ġg arn
( <
Ġw ickets
Con version
ĠAct ivity
Ġdepict s
il ib
ĠCD P
Ġcho osing
18 18
Event Handler
Ġexp atriates
Ġsocial ist
M arg
ĠQ uality
v id
Ġterror ism
ĠN iel
Ġman ually
ĠAlb any
ĠPsych ology
g age
al ions
Ġcancel ed
old s
Ġ âĢĻ
is Array
Ġalign ed
Ġab ort
Ġfavor able
ĠSh i
Ġinstit utional
ĠB rom
ia e
LI B
Ġcontin ental
Ġevery where
ĠAst ron
Ġout lets
ĠEv il
cl air
um ing
cles iast
ĠCh arg
Ġplant ed
ap o
Ġsk etch
} `
Ġ[ ...]
Ġobserv e
Ġcorpor ations
T i
Ġclimb ing
Ġdam ages
pp le
Ġcour age
ĠMalays ian
Com bo
Ġl anes
Ġin cent
ĠJ ets
!! !!
Ġdiscuss ing
n om
Ġrun way
Ġflag ship
Ġpost pon
ĠTh ing
Ġkick ed
I FI
Ġlaunch ing
ĠNik ol
ACCE P
Ġp arsing
ip art
im eter
Ġres ume
15 3
az el
nav Bar
Ġb ush
ant le
Ġple ased
Ġcl usters
and in
Ġdi agnostic
S ix
Ġrank ings
ĠP rec
ĠR A
Ġsc attered
f ee
F IL
Ġm apped
ĠBol ivia
p resident
ul ent
ĠE yes
ĠCom ic
Ar c
Im mutable
an us
Ġrec urring
ĠEston ian
co ins
Ġaccept ing
y outube
ES CO
Sub mit
Ï Į
Ġrenov ation
Ġd ign
Ġlast ing
Ġg amb
Ġrac ism
pos itions
ĠP iet
ĠW R
est ock
Sh op
ĠTrib une
Ġcomp atibility
olog ic
Ġd ys
Ġdes criptions
Ġ" {
ace ous
Fr ag
int age
Ġwh it
div ider
ĠMov ies
und o
ĠV it
He ap
Ġm arri
Ġdeterm ination
Ġ ÑĤ
ST AR
CK ET
ĠD NS
Ġprotest ers
eg ie
Ġconven ient
ÐµÐ ´
Ġdr agon
ĠEn able
Operation Exception
Ġcert ification
ĠI con
ĠSpring field
ort ium
ĠL ines
Ġsp otted
ĠAm ateur
Ġin quiry
Ġbl ame
ĠAp i
o ine
Ġdeg rad
ĠSuper ior
ç Ľ
Ġto g
V S
Ġbas ement
18 01
sl ug
Ġâ Ķ
V en
Ġdest inations
Ġdeter ior
Ġmilit ia
S um
Ġ} ));
Ġg em
Ġelectron ics
om p
ĠERR OR
Ġw ound
Ġtarget ing
Cl one
AS C
constra int
ĠFI LE
F D
Ġtrain er
ĠJohn ston
Ġproceed s
Ġg ates
ph erd
or get
ĠMar itime
Ġisol ation
Ġo ak
inner HTML
Ġteam mate
Ġsoph istic
] ];
m ology
Ġout s
Ġd iving
Ġbro ader
Ġmos que
im iter
ĠB ash
f un
ĠSam sung
Ġsc oped
De ployment
P references
ig uous
Ant i
Ġd ose
da ughter
et erm
Ġre pro
or ig
as an
N EL
Ġenc rypted
B all
y on
Ã¡nd ez
ram id
ĠBuddh ism
17 90
Suppress Warnings
> /
Arg entine
igg ins
f u
ĠR ect
ros so
w ave
op p
Ġm ansion
ter ritory
og rap
Ġnortheast ern
Ġs ap
ĠR FC
15 8
15 9
Ġtum or
B eg
avor ite
ĠD evelop
iling ual
Ġp index
ĠMah arashtra
Ġbom bs
5 50
w so
Ġdis hes
ĠCl aire
Ġord ained
Ġkey word
ĠWal sh
ĠWinn ipeg
ĠSch ol
od b
r ors
18 13
Ġl ov
pt iles
Ġk in
ĠKn ox
Ġsing ular
Ġbott le
Ġveget ation
ĠF ur
TR ACE
Ġpar ishes
act ivated
Ġrecre ational
File System
Ġreb el
Ġstead y
ener ation
Ġgener ates
Call ing
ĠRE AD
ble ms
($ _
ĠCrit ics
ĠB ent
ĠK erry
ĠBra h
ĠMidd les
m ine
ĠMey er
ĠBro ck
ĠM ets
Key board
Let ter
Ġbass ist
Ġn ic
ah oo
Ġcompos ite
Ġret rieved
K ar
Ġfilm maker
r int
ill ian
ĠUn known
E s
g ement
cl amation
c it
Ġwar rant
Ġh ab
Ġc ater
Ġp ine
Com position
TE MP
y g
f bb
ian i
ĠCO MM
Ġlect ure
Turk ish
T em
Ġcelebr ity
ad ic
Ġcons umed
Cath olic
ĠB attery
Ġoverwhel ming
R ST
ĠB agh
Ġexpl aining
qu ire
Ġg ateway
list en
Ġr ises
rest ore
Ġhigh ways
Ġter rible
Ġmag ical
Instance Of
ĠDar win
Ġillust rations
ob ar
An alytics
Ġsuperv ision
at u
Ġthe olog
Ġp ension
ĠC ertificate
T ARGET
ist ically
ĠSuff olk
en ario
pl er
Aut om
ĠMur der
Ġd y
ĠBer ry
fail ure
ĠGu jar
Ġsur geon
ĠGust av
IC S
] <
ĠD ock
Ġrem n
Ġansw ered
ĠE lectoral
14 2
ĠValue Error
ut ing
Ġr idge
ĠGr iffin
k rit
Ġd ent
Ġinter rupt
Ġport raits
Ġdram at
Ġch icken
Med ical
sig ma
ĠJ et
ĠSu ite
D K
ht m
Ġincre ment
an ic
g al
22 2
b is
Ġa z
Ġreport ers
Ġpur ple
O x
Ġrep airs
ĠP aint
Ġdo zens
Ġdoctor ate
Ġembod iment
S uch
b ard
copy right
ĠDra ke
y en
Ġorche str
ĠLIC ENSE
Ġsp atial
ĠSe lection
spec ified
Ġfort une
Dependency Injection
Ġcolon el
Architect ure
ĠÄ Į
Ġpron ounced
Ġm g
ĠM am
XML Schema
Â «
å ·
OD Y
Ġinvent ory
ĠSacram ento
g amma
-------- ---
Ġlegit imate
C ong
em ann
Tr ump
Ġ" --
ĠRe in
Ġdis putes
Ġlift ed
e conom
m are
s man
ĠH MS
ĠCitiz ens
s u
ĠPar agu
ĠK och
Ġadv ances
ĠS F
Do es
AND LE
Ġvill ain
war f
ĠN orton
ĠH onda
ĠWin ston
Ġpers istent
ĠTh ames
ĠFergus on
Ġmiss iles
Ġsent ences
F ood
Ġdead line
Ġabsor bed
act ivate
cri bers
G er
Ġim plications
Ġd ol
ĠQu ick
e lectric
22 4
Numer ic
ĠGab ri
F ish
Ġpar agraph
ĠProduct s
Ġtob acco
Ġd orm
ian ces
ĠChar l
ĠLouis ville
bass y
Ġspecim en
ib an
ĠMar qu
ill i
Ġim ports
ĠLeic ester
Ġcomp aring
Ġneighborhood s
ring e
ĠJane iro
ĠK Ã¶
erv ille
ĠP anel
A WS
Sc ot
PROPERT Y
Ġd irty
B rown
ĠØ ¨
ĠSh an
+ '
ĠRec re
Ġh ack
n ar
el ic
Ð½ Ñĭ
ĠAdv ance
ĠTele graph
ĠLeg acy
Ed ward
che l
Ġlat lng
Tex as
A RE
D AT
ĠM Äģ
=" {
Ġrestrict ion
P reference
Ġboard ing
Ġfl own
Ġpil gr
Ġend angered
ĠC anton
Ġb allet
F ee
hedul ing
ĠÐ ·
Ġviol ations
ACCEP TED
Ġcons erv
Ġfact ories
Ġset Up
With in
ĠInt roduction
ĠCon stitutional
ĠBald win
ĠB le
ĠSt ack
eb ook
D oug
Ġid s
ĠW olver
get Time
ne o
ĠAp art
hor se
brit ies
et les
ac ies
Ġexp ired
Ġwitness ed
merc ially
ft y
% ).
Ġb is
ep pe
ĠJud a
Ġpeace ful
os i
ven ile
ĠObserv able
ĠH O
ĠGar c
Not ify
jo ined
oph on
ĠB j
ys c
occ up
"> ,</
Ġancest ors
ĠUrugu ay
ĠG ut
lo e
Ġke en
ĠIter ator
ĠG C
Ġest ates
ĠM ilit
let cher
Ġpar ade
Ġinter rupted
Ġdirect ing
H AL
ĠR ifle
ĠV A
ced ure
N AS
G iven
ĠH erman
ĠR B
string ify
18 27
âĢ¦ .
c xx
Ġc s
Ġc oc
eros pace
Ġninet eenth
Ġdes ktop
ever y
ĠComp anies
Ġodd s
Ġcorn ers
ĠTanz ania
0 100
Ġd ella
Ġsk illed
ĠDor othy
ĠTasman ia
ĠMad agascar
Ġexception al
Ġunemploy ment
m ans
set Value
it ate
ĠBar b
Ġint elligent
W inners
Å ¼
ĠE y
ĠCal endar
Read Only
ĠBrown s
ĠSD K
Ġiter ation
lo o
ĠGu id
âĶĢ âĶĢ
Ġcou pled
on er
Ġp av
ĠBeat les
Ġvacc ine
ĠH ert
Perm issions
Ġment or
n or
Ġp ocket
Cl ause
ism iss
Ġf ears
(' ../
est e
; ,
navBar Cell
Ġconv iction
ĠObserv atory
ĠSof ia
it as
ĠEd win
Ġeth ics
ĠLe ave
Im g
Con flict
Ġre construct
7 20
Ġb unch
am en
D ays
Ġprint s
ĠSem inary
opter a
Ġd ors
ĠB ast
ĠA CT
ĠM ick
ĠM ask
Pl aces
Ġswitch ing
ĠPh ase
ĠStand ards
D ead
ĠC ities
im ar
Ġfe at
Ġweak ness
Ġnow rap
linked ExternalProject
ĠH err
ĠL iz
haus en
l iter
Ġd in
Ġtreat ments
Ġsynt hetic
Ke ep
oid es
ĠCl aude
art on
ĠB erm
16 7
( ",
ĠU m
de ploy
im id
b uck
ĠF uj
Ġcon sec
Ġcal m
Ġrespect ed
ĠD ry
p ow
Ġtog gle
uc le
itt ers
Ġview er
ĠSand y
Ġwel comed
ĠBo at
oc es
ĠX XX
Ġne ut
Ä ĵ
Ġint act
Uk rainian
c ook
Ġt ens
ul er
18 22
K im
as ive
Ġind ie
Ġre print
Ġfort ress
" +
s uite
ĠL al
vers ation
ĠQ t
ĠGriff ith
D X
ĠN il
Ġdet ective
ĠInd o
Ġarg v
ĠBron cos
Â ²
char set
Ġrub ber
ĠF loyd
do es
linkedExternalProject Path
std out
n x
Ġc ement
Ġeffect iveness
Re q
Off ice
ch oice
und ay
Ġ" :
ĠNorth ampton
h ydro
ĠS L
ĠIn ner
Ġ( âĢľ
ext ract
J O
Ġre build
Ġcar b
la unch
ĠS ens
/ %
F a
ĠY uan
Ġneigh bors
get Default
Ġdis ability
P icture
Ġunder go
ĠV k
pe x
Ġ ../
Ġac claim
Ġf t
Ġ- &
ĠAg u
Ġel imination
ĠRes erved
Ġm aternal
ĠA SC
Ġde ceased
m v
ĠĠ čĊ
An swer
Ġcallback s
Ġsacr ifice
plic ity
bour g
Ġfound ations
ĠBav aria
Init ialize
H aving
ĠP apers
ĠR ip
ind ers
ĠSup erman
Ġp c
ĠQu int
ine es
Ġgradu ates
ĠCl ick
ĠĠĠĠĠĠĠĠĠĠĠĠĠĠ Ċ
T ech
Ġem br
ĠMan or
Ġ" ...
Ġqu otes
Res ize
ĠMax well
Ġjoint ly
Col lector
3 80
ĠD rew
Ġanth ology
RO P
ĠÐ ±
r ators
ĠEst abl
N ear
ĠS olid
as ium
Ġcy ber
> ";
Ġresc ued
Ġsail ors
Ġtr aces
Ġst air
ĠSc ene
ĠK ick
Neg ative
Ġb eds
vis ions
the ta
Ġscreen play
Ġbreak fast
ĠKarn ataka
ĠT X
"> '
ĠDom ain
r ÃŃ
s With
ĠF resh
ĠR ally
Ġcomm ittees
ĠBe a
Ġst arter
ig on
ER Y
ĠSpec ies
ORM AL
ĠB L
ograph s
Ġconv ince
Ã¼ ck
orne ys
} ^{
ĠEuro vision
Ġp tr
Ġencour aging
un used
ĠF erry
Ġn avy
Ġcomb ining
sub title
ĠChar leston
Ġn ec
ĠCorn ell
Ġnurs ing
an ions
Ġsan ctions
Ġvir al
ĠF ork
ĠT F
Ġhe ct
ver bose
Ġfac ade
Ġholid ays
Ġflower ing
al ore
ĠToy ota
U i
So ft
Ġt ang
Ġmetab ol
Ġsumm ar
Ġad mit
Ġrev olt
Ġr ider
Ġcommission er
T OP
By Name
Ġguitar ists
v card
Ġbrows ers
fl ash
Ġtro phy
ont ology
Ġsw ap
dat as
Product s
Ġnick named
Ġt ender
Ġre duces
Ġindic ator
ĠP itt
E le
Ġadvoc acy
Ġcancell ation
ĠP E
18 23
cess ion
ha o
Ġv ine
est y
Ġreve aling
Ġfre ely
ĠRed s
Ġsh irt
IF T
Ġins pect
U INT
ĠU C
vent h
Ġor ig
Ġd s
get Data
Ġsh ar
Ġ! (
Ġbl ess
ĠCop a
Il legal
N ay
n m
ay ed
ĠRe ader
imb ledon
Ġexp elled
ĠCamb odia
ĠE L
Ġham let
ãĤ Ĵ
ah i
ĠBet ty
ĠA sc
Ġrev ived
ĠParad ise
B rian
ĠRom ans
Ġin ev
am oto
Ġex clude
ĠStart ing
c id
ant is
D J
Ġdifferent ly
ĠIm prov
æĺ ¯
ĠHeavy weight
g ent
Ġin complete
[ [
ĠG ian
Ġam end
ograp hed
Second ary
26 4
")) );
Ġkilomet res
ĠId entity
ĠMon itor
ĠEr nst
inter faces
Ġc rystal
ĠE du
w on
L arge
Ġo v
Wel come
ĠT ru
Ġsub urbs
ĠCub s
Ġmathematic ian
Ġpoll ing
Ġv endor
Qu ote
Dat aset
Ġclass room
ĠCl uster
aut s
R ace
Ġsup ern
Ġkn ife
Mean while
ĠChile an
D ER
av is
ĠSaf ari
ĠT D
Ġgl ad
Ġreg iments
Ar n
-- ;
ĠEm ail
Ġvic inity
Ð¾Ð ³
Ġmob il
ĠKu wait
School s
ĠSh erman
get Current
Ġsubstant ially
? .
ĠOr t
Ġadequ ate
mon itor
ĠC ounsel
getElement sBy
Ġglob ally
Ġhe ating
ĠAber deen
Mex ican
Î ¬
Ġst upid
Ġaddress ing
ĠRob ot
C ategories
ĠS urg
ĠF E
N BC
17 6
Ġmar ble
Ġre vel
Ġexam ine
ĠCase y
url s
Ġsubmar ines
u en
Ġf usion
Gr ade
ĠPoint s
erg i
ou rable
Ġm ere
ĠH its
Ġsp ite
Ġcontin ent
Ġpre cis
Ġcycl es
Ġnob ility
Ġorgan ize
Ġsav ings
ĠClin ical
T en
ĠI TV
ĠF ear
the l
assert False
Ġh oly
get s
iss on
ĠB ren
ĠS G
Ġins isted
Ġelabor ate
oper ating
uche ss
Ġex ercises
ĠIn stance
Ġsouth western
abs olute
Ġrender er
j q
U TE
Ġsc rew
dr iven
k ie
Ġro d
Ġcommand ing
ac i
ĠL opez
ĠChe v
ĠHal ifax
ĠL ep
appro pri
W all
Ġwe ights
Ġtong ue
ĠRe ver
u ctor
arv ae
Ġdiv ide
Ġins pection
Ġemploy ers
ĠE T
min or
ĠH ond
Ġpast or
I BU
ĠSh am
Ġhelp ful
ec hes
Ġb anner
ĠR up
Get Type
ĠCO M
ĠGuatem ala
ĠS ard
"> "
Ġcan on
æ ŀ
() "
Ġun used
Ġtri umph
ĠFil es
Ġinf ected
Ġmort ality
Ġcler k
ĠR C
Ġsub urban
Ge o
ĠLeban ese
ocom plete
ĠMoh ammed
ĠN amed
Ġclean up
Ġbroad caster
cl ub
Histor ical
Ġcon ceived
w ings
Ġt iles
ĠNav igation
ĠR ig
luc ene
Ġsystem atic
ĠBrun o
Ġmission aries
H int
Ġautom ated
uc a
Ġtra pped
ĠReg ular
Ġqual ifier
ĠFI X
v oice
Ġag gress
ex press
17 9
Ġver ification
ĠHein rich
emb ed
ĠAv ailable
ĠFre eman
ĠRes et
Sc ient
Qu ick
Ġc ry
ĠH ours
18 16
ĠL uck
dr ive
establ ished
r ud
v ine
Th anks
Ġphys icians
Ġair ing
Ġ umb
ĠM T
20 6
LE FT
ĠDrag ons
b red
Ġhabit ats
Ġappar atus
ĠS tern
ĠRoman ized
wall paper
ĠSupport ing
ĠT E
oun ge
ist on
EQ UAL
play back
Mar shal
ĠArg s
ĠFor ward
os ome
In ternet
NE SS
Http Request
ent ities
ĠMar ines
et ric
NO WN
h in
To o
Ġbox er
å® ļ
m icro
Ġex ponent
itor ies
Ġj ur
S ender
ĠAsh ley
× ¨
Ġauthor ization
Ġavoid ed
Ġde ferred
alth ough
Ġvar s
Ġmed ic
Ġsem ifinals
ĠBeaut iful
Ġre cept
Ġuns afe
map per
Ġd atabases
16 1
r ade
ĠNe uro
get Logger
Ġtr unc
IT ER
F LOAT
Ġw ages
ĠIs abel
Ġgar age
Ġinfl ation
) ',
Ġf u
æľ ī
Ġr ushing
ĠP all
os o
Ġin cl
Ġhard ly
Ne ill
ĠS erv
ĠMer cedes
oc ide
Ġdeterm ines
ĠM BA
ĠS Ã©
Ġfru its
R outing
inn ings
type param
Image View
Block Index
mer ged
in fl
Ġun set
In g
ĠC ult
ĠE R
ĠH ed
Writ ing
Week ly
? ,
ä» ¶
ĠLith uanian
m ith
ĠT es
ĠD art
W T
t alk
ĠReb ecca
Ġsl opes
ĠBo hem
Ġbeliev ing
Ġton ight
orce ster
ĠTra ffic
Th ank
ĠAL L
neg ative
ĠH R
Ġr ush
work space
æ į
Ġcre ature
ĠJ ag
ĠN ixon
Ġac ids
alyt ic
B ang
Ġbound ed
Ġlong time
Ġbar rel
Ġche ese
l ov
Cl osed
ĠPort smouth
W H
m ong
Ġmed all
Ġaw esome
ob ic
Ġorgan isms
ĠN om
Ġsens ors
Ġfol ks
] ",
Ġtechn ological
ĠKos ovo
Ġf ingers
A IN
Ġ/** <
Ġtw entieth
Ġpr ide
D ot
Ġjump ing
Ġdevelop s
pe i
ĠEx ternal
leg end
al ong
Ġconv oy
Ġsit com
ĠWeb b
Ġident ifies
print StackTrace
Co ord
F inder
unn els
Ġpen alties
ĠS ister
Call able
o auth
ĠS Y
18 06
Ð°Ð º
ampl er
Ġp ent
tt i
ĠObject s
Max imum
Ġinitial ization
C s
Ġnot ation
Ġposition ed
ari at
Count y
Ġapart ments
18 09
Ġgrad ient
Ġreview er
Ġclean ing
P ref
ĠTheod ore
Ġam bit
3 40
T am
ĠUnder ground
ĠCustom er
he ther
Ġg ifts
* >
Ġdist ances
Ġinaug urated
we ets
Dis able
Ġcriminal s
Ġn erve
om ore
ure n
Ġcatalog ue
K nown
ĠL ing
Ġc and
Ġph ases
Ġdifferent ial
Ġcap ac
m f
Ġf illing
A k
Ġor phan
Ġcom plications
ĠĠĠĠĠĠĠĠĠĠĠĠĠĠĠĠĠĠĠĠĠĠĠĠĠĠĠĠĠĠĠĠ ĠĠĠĠĠĠĠĠĠĠĠĠ
Ġreal istic
Ġs aint
j ournal
Ġup ris
ol ation
log ic
ĠCam eroon
re ject
c up
Ġbro ker
Att rs
h int
s napshot
Ġdro ps
L ord
ĠZ oo
keep ing
ex ist
sw ap
ĠF ro
Browser Detector
d atab
Ġsuccess ive
TO KEN
Foot notes
Ġge ographical
ä¸ ª
Ġspace craft
Throw able
ital ic
L ambda
ĠAll ah
ĠFel ix
ĠBas el
ig nt
as por
Ġf ier
he ed
ĠC ul
Ġcorrespond ence
å ¹
Ġc ort
anc o
Ġqual ities
S ys
Ġten ant
å ½
its u
Ġly ric
Ġt ick
end e
ĠĠĠĠ ĉ
ĠY ES
atic an
ĠCl aud
ĠCol ony
ĠGreen e
N il
al us
Ġadjust ed
ber ra
la us
Ġfilter ed
L ng
as aki
ev t
Ġc arn
Con stituency
IS H
ĠÄ Ĳ
ĠTH IS
T unes
std lib
anth a
ĠLib ya
b il
Ġevery body
Vir gin
w at
or ida
un til
res olved
Ġpol o
G ram
å Ĩ
Ġm aker
u ator
ĠA TP
ST EM
col ogy
Ġsub species
Ġenc ounters
P en
4 000
b ours
Ġant iqu
ĠRel igious
ĠR andy
ĠPart nership
ang les
Ġ< ![
uc c
R os
Ġconfirm ation
Vis it
ĠBit coin
ĠW allet
Ġd f
class path
PO INT
ĠP ale
ĠKrish na
Ġdon ation
ĠFl at
Inv ocation
[ _
ir ling
Ġmamm als
an alytics
Linear Layout
ĠBM W
Ġbo om
G h
d ro
product s
Ġt ends
ĠO le
Ġm p
ĠF ail
ĠBes ides
HEAD ER
p ick
Ġbl end
ĠAd vert
inds ay
ĠP ub
ĠBra ves
ĠR ising
R on
c ards
Ġm ate
own ers
Ġover t
Un lock
Ġhand ful
ĠTri al
umin ate
ĠSh ak
ĠThom son
Be etles
ĠVern on
ĠMon ster
NO TE
P ython
W P
Ind ices
High light
Ġg reet
18 17
Com posite
Ġir r
id ian
ra il
ĠC ay
Ġrecommend ation
Ġrevers ed
ĠH ydro
ed ged
Ġc af
Ġappreci ate
ĠInt ent
ĠGre ens
ãģ Ļ
ĠP ART
Ġrenov ated
d ater
Ph ysical
Ġcycl ists
Dec ode
ĠStre ets
[ \
Ġc ats
16 4
ĠM ast
ĠÅ ģ
ĠD olph
Ġres ist
ĠEv olution
E lection
Initial ized
18 19
Ġbar r
ĠW A
Ġelect r
Byte Array
ĠAltern ative
ad vert
ag ogue
ul ine
Ġlog ged
d ashboard
des igned
Ġprinc ip
Ġlack ing
Ġbre ach
2 15
w b
sup ports
ĠD re
Ġsp are
Ġsw ift
Cred it
Ġaest hetic
STRE AM
us ive
Ġparticip ant
ĠB org
capt ure
Ġdig its
Ġphilosoph ical
Ġs lope
Ġpro files
year s
ar ra
Ġs aves
Ġbe an
gr ass
ĠChap man
Ġendors ed
com par
Build ing
Ġr ay
ug o
m esh
Ġbes ide
Ð¸ Ð¹
Default s
Ġh ire
ĠC ave
g uid
pres erve
Ġcont rary
Ġadv ancing
ĠB oss
Ġtra iling
23 5
Ġcrown ed
) ";
ĠY osh
ĠMay a
cached L
d ac
upedia Data
cachedL upediaData
ew ater
Ġfe ver
omin ator
fri ed
Ġl ymph
× ľ
ab ella
Ġreg ards
itor ium
Ġspread ing
W ords
s aved
uv ian
ĠMonteneg ro
ĠWe i
Ġthreat ening
Ġp el
od i
Ġl arvae
Conn or
ĠDet ective
Original ly
P aired
ĠE ra
Ġinit With
Ġcontribut ors
Pier re
keep ers
tele phony
n ear
isc ell
Ġreleg ation
Ġa rose
ib ia
Ġtom orrow
b ital
ĠSpeed way
Ġh oney
d h
Art ists
Ġmach inery
ram er
} %
ID s
ĠS ql
sp ons
Ġt ales
ĠC I
db pedia
ĠH ast
S ummer
(" ")]
ct l
sh ake
Alloc ator
Ġnorth western
Ġp enn
ĠD R
com be
art en
ee per
Ġrail ways
Ġwor ried
cor rect
Ġprosec ution
P ot
ĠK ob
Ġsurre nd
Ġloyal ty
ĠF iji
ĠRest aur
lo ose
ĠW ander
Ġmark ers
unt u
product ive
um bo
ĠCal vin
b ill
al er
ud i
orget own
ĠS ue
s pect
lyn n
ĠG B
isc ount
rec v
ĠJ O
{ })
Ap is
ĠMid lands
Ġrout ing
B oston
Alex ander
>: ]<
ĠQu inn
Ġrefere e
Ġbicy cle
C amb
Ġ ç
G rant
Ġam ino
Ġfin est
ĠHol iday
ĠTre nt
rec ords
ikh ail
olog ne
Ġval ued
SE C
ĠS eth
Ġinfl amm
ĠSac red
å ¾
o qu
ter a
Ex change
ĠA ce
ĠAm anda
ĠMoh ammad
ĠFal con
E lections
ut z
Ġcrit ically
ĠPer haps
K ore
ĠR ise
Ġfl ora
rest rict
Ġten or
Ġcre ws
Ġw it
C ert
ĠWill ie
Ġm ont
port folio
ĠJoh an
Ġafford able
Tool bar
ih ar
ĠS uk
um ption
ĠHe ader
Leg al
(( (
real m
ĠG A
ang an
Pre view
ĠC inem
ow ing
b ower
DE VICE
ĠDecl aration
Ġful fill
ĠGard ner
sh ots
Ġcom mercially
Ġlic ence
< >(
ĠR ust
ĠCam era
Ġinn ocent
i ade
ĠK ane
Ġload s
author ized
W D
Ġp ier
Ġvol untary
Ġ iv
cl iffe
ĠTrans form
Ġroll ed
Ġ{ })
Con v
Ġun m
Ġcomm od
Ġvac ant
R oy
18 03
ĠSign al
L u
t oday
ut orial
up ta
30 3
ĠSen ators
ĠHaw ks
ĠBalt ic
TIME OUT
NUM BER
ĠT ucker
Ġexcess ive
F ACE
Ġtoler ance
Ġc ov
Res olve
Ġ ....
ĠT aj
Perm alink
V oid
Ġop am
Ġplan ets
ĠHels inki
ic ating
20 7
Ġanticip ated
Ġpl asma
rel ations
View ById
Ġrein force
ĠRab bi
C WE
Ġinf ect
IC AL
ĠCast ro
Direct ive
ĠB ac
ĠW ong
Ġregist ers
z an
ion ic
Ġ{ !
ĠB B
18 2
Ġnob ody
ĠĠĠĠĠĠĠĠĠĠĠĠĠĠĠĠĠĠĠĠĠĠĠĠĠĠĠĠĠĠĠĠ ĠĠĠĠĠĠĠĠĠĠĠĠĠĠĠĠĠĠĠĠĠĠĠ
synt ax
\ .
ĠP H
ĠH P
N ic
ĠT win
Ġcomp ass
ey er
Organ izations
ĠG aza
h aul
w el
uc ceed
ĠBre tt
USE D
ĠMon ica
Ġcapt uring
Ġadvis ory
Ġsp elling
Ġforg otten
; \
F un
Ġl oses
ĠRe agan
vi ated
Ġin ning
AA F
ĠCar son
ĠAc cept
ä¸ į
W rong
ĠNic ol
Ġassum ing
iv ial
30 2
st aff
ĠX V
Ġextract ed
Ġle ak
ĠSt a
ĠKle in
Ġs q
Ġcor relation
d type
at as
osa urs
r il
Ġsy ll
Ġcool ing
ĠM ell
ĠTim othy
ĠVar ious
ĠD ust
fl ight
idd ing
Ġdrink s
ĠW ords
illa ume
Y ea
ĠPat ricia
Mount ains
ĠMar athon
Ġphysic ist
b ash
Ġadvent ures
ĠDet ails
Ar row
IT S
Ġinf ant
att i
pre tty
ĠOri ental
ĠLis bon
Ġins ult
on line
Ġgen uine
ĠPap ua
Ġin cons
ĠB udget
ĠT unnel
Ġglob e
ĠGarc ÃŃa
B a
ht on
Ġgar rison
Named Cell
R ing
ĠType Error
ĠÐ¿ ÑĢ
Ġf d
Ġpen insula
ĠL und
è ¦
Ġm akers
art ime
Ġappro aching
Ġpath way
ĠMad h
Ġconcent rations
od or
Ġ" </
D ar
ĠCole man
L ake
Ġb uck
se g
ĠW id
w omen
Ġt emplates
Ġch ocolate
Ġpred icate
CP U
ĠDocument ary
ĠD M
ĠAl ways
ĠTra ce
pos able
ĠW itch
Ġarm or
ac ia
Ġutil ized
ight y
ĠW ave
ĠSoph ie
Ġfin ancing
ĠTra vis
Ġh aul
Ġpol yn
y ards
Ġgen ome
Ġm inds
ĠP omer
M LE
orm s
ĠTh ought
Ġfl ies
G G
enc oded
Ġbad ge
Ġnational ist
Mar ie
ĠRes olution
V ars
ĠM are
ell es
ĠEV ENT
Ġm im
ĠS onic
et ches
Ġjust ify
const ants
ĠHam mer
ĠL ay
ical s
ĠLe one
Ġeduc ators
Loc ator
ĠBulld ogs
CE PT
ch s
arn ess
ĠBrad y
S printf
f act
St ory
Ġpoly mer
S af
m our
ĠCatal ina
ĠI o
ĠH utch
li us
let ing
Ġtrans cription
ĠAngel a
cl osing
Ġsleep ing
Ġse q
ĠLat via
ĠUl ster
H ong
oper ative
Ġorgan izing
ĠO ce
Ġassum ption
r er
ĠH RESULT
Ġcomb ines
ĠM VP
é ¡
Ġhe aven
ĠCong reg
ĠJoy ce
Tok ens
ĠH ip
Ġra ids
Ġcerem onies
Ġde com
ele g
o op
ĠT ools
and ez
pon ym
Ġboy friend
18 08
Ġsens itivity
Ġrem arks
Ã³ d
Ġaccess key
Ġhe aling
jav ase
ĠFe atures
Ġmet eor
Ġnav ig
Ø ´
Ġparse Int
Ġmerch ants
C LO
ĠH ew
Ġinv ariant
à¥ ĩ
Ġc anton
ĠS afe
ĠHe y
Com ments
Ġde cent
PE G
Ġb ust
ĠR iley
ĠF lo
eb ra
t ic
fin ish
av ers
ĠPri est
screens aver
ĠB U
F ederal
Inter op
B ern
Ġh orm
me asure
ok k
Ã¨ res
on o
Ġdeb ugging
al and
ĠH uss
ĠBl u
ĠCorn er
Ġdiv ine
ĠCarn egie
Ġair ports
Att rib
ĠK um
df s
Ġcollabor ative
ĠTit ans
ĠH ank
ser if
Ġlim estone
ĠMult iple
Ġspokes man
G i
itt est
Ġmodel ing
ĠBoy d
Ġo mitted
ĠPl ugin
Ġd uplicate
rec ogn
17 8
Ch apter
east ern
ĠR isk
Eng land
Sup plier
ÐµÐ ¼
Ġprecis ely
Ġeight een
H op
.. ">
m aint
ĠBre xit
W O
Ġar ist
IN PUT
ĠT IM
ĠM ist
bet ween
Ad am
Ġambit ious
ab b
Ġdis puted
ĠMan ual
L iga
}} </
ul k
ung en
Ð°Ð ´
Ġl ith
ĠP owers
D ie
4 20
es cope
Ġl ighter
ĠGr ass
ast on
file Name
cred entials
ĠAntar ctica
d ns
The ir
Ġsh it
publ ish
Ġb arg
17 7
bar rass
ĠS ame
ort e
ĠF i
Tour ist
at en
prevent Default
ĠCh rys
Ġhand ball
Ġn as
-------- -
TH READ
ĠPr ussia
Filter Database
Ġtraff icking
ĠAr n
b eg
math rm
Ġfrequ encies
B BC
y log
Ġc ivic
Ġcol ored
Spec ific
ĠSol o
r ho
0000 000
p f
It aly
ĠLank an
ĠSl am
ac ious
ote chn
ĠP ray
11 11
Ġstrong est
ĠGeorg es
Ġconven ience
17 98
ĠPl ains
ours es
Ġancest ry
Ġ nd
Ġmag net
ï¼ ļ
ĠJan et
Int eg
ĠS plit
ĠA IDS
17 2
eff ective
Ġche f
ĠCh anges
N an
Ġre he
Ġlater al
h appy
Ġrec ount
Ġpass ive
class Frame
Ġmet re
ĠBel t
Ġtort ure
ĠBeg inning
Ġreven ues
Ġint rig
Ġqu ota
Implement ed
Ġs log
rit ic
ĠHam pton
ĠOcc up
ks and
DI O
P ast
dis ci
Ġwood s
all i
ynt hetic
fold ing
Ġs our
Ġpr inter
ĠSal em
ĠHol ly
Ġautom obile
Ġmand ate
it he
Get ter
jav u
ĠSax ony
S uggest
ĠRuntime Exception
æ Ķ
è ¨
ĠChen g
ales e
ĠW ade
Component Model
% );
ĠStri ke
Ġan xiety
land ers
Ind ust
Per formance
S ex
Ġg fx
Ġ// !
g ulp
ĠP D
Ġle x
ĠJ as
Ġret riev
Ġcom merce
Ġw ished
rins ic
Ġfin ishes
Pos itive
16 2
AT T
ĠDream s
} _{
Ġbe ats
ĠBol ton
ĠSouth ampton
ĠSav age
Ġrecre ation
ĠR ao
ĠRem ote
ĠOs aka
m itting
Ġexp end
ĠMcCar thy
3 10
S i
Ġjo ke
Ġesc al
di ocese
æ Ń
ĠZ ach
Ġsampl ing
ĠG ymn
ĠHam mond
Ġadvant ages
Ġtradem ark
t om
Ġen force
Ġbit ter
ĠLo op
c nt
ĠD ir
St ock
EN S
ĠMET H
ess aging
/ ******/
ĠAr ist
ĠPet erson
Ġsatisf y
ĠS ind
Ġto ile
Ġsk ating
ĠJack ie
Ġauth ored
Ġvac ation
------------ --
sc ill
Dec or
Ġh ooks
ĠH undred
urre ction
ard ment
Ġvol atile
Ġoccur rence
ĠOff icers
ĠRaf ael
18 05
ĠPhot ography
uit ar
ĠCongress ional
ãĤ ¹
ĠDest roy
Ġspec ifying
ĠBe au
Sl ider
ĠF ake
err ill
Ġloc ate
ĠChrist ine
Ġide ology
Ġdyn am
Cre ator
4 30
Ġsm oking
C li
ĠN em
per ed
ev ed
Ġsm ile
de javu
ĠEm pty
Ġthe aters
Ġs ans
Ġsc orer
Fin ished
Ġman or
ĠSc i
ĠLa ur
b m
Ï Ĩ
olith ic
ĠAtt ack
C ached
Ġhost ile
Ġa ws
ĠC ONT
ĠEd en
Ġassess ed
f el
Ġtra vers
[...]
