{
  "version": "1.0",
  "truncation": null,
  "padding": null,
  "added_tokens": [
    {
      "id": 0,
      "content": "[UNK]",
      "single_word": false,
      "lstrip": false,
      "rstrip": false,
      "normalized": false,
      "special": true
    }
  ],
  "normalizer": null,
  "pre_tokenizer": {
    "type": "Sequence",
    "pretokenizers": [
      {
        "type": "Digits",
        "individual_digits": false
      },
      {
        "type": "ByteLevel",
        "add_prefix_space": false,
        "trim_offsets": true,
        "use_regex": true
      }
    ]
  },
  "post_processor": null,
  "decoder": null,
  "model": {
    "type": "BPE",
    "dropout": null,
    "unk_token": "[UNK]",
    "continuing_subword_prefix": null,
    "end_of_word_suffix": null,
    "fuse_unk": false,
    "byte_fallback": false,
    "vocab": {
      "[UNK]": 0,
      "!": 1,
      "\"": 2,
      "#": 3,
      "$": 4,
      "%": 5,
      "&": 6,
      "'": 7,
      "(": 8,
      ")": 9,
      "*": 10,
      "+": 11,
      ",": 12,
      "-": 13,
      ".": 14,
      "/": 15,
      "0": 16,
      "1": 17,
      "2": 18,
      "3": 19,
      "4": 20,
      "5": 21,
      "6": 22,
      "7": 23,
      "8": 24,
      "9": 25,
      ":": 26,
      ";": 27,
      "<": 28,
      "=": 29,
      ">": 30,
      "?": 31,
      "@": 32,
      "A": 33,
      "B": 34,
      "C": 35,
      "D": 36,
      "E": 37,
      "F": 38,
      "G": 39,
      "H": 40,
      "I": 41,
      "J": 42,
      "K": 43,
      "L": 44,
      "M": 45,
      "N": 46,
      "O": 47,
      "P": 48,
      "Q": 49,
      "R": 50,
      "S": 51,
      "T": 52,
      "U": 53,
      "V": 54,
      "W": 55,
      "X": 56,
      "Y": 57,
      "Z": 58,
      "[": 59,
      "\\": 60,
      "]": 61,
      "^": 62,
      "_": 63,
      "`": 64,
      "a": 65,
      "b": 66,
      "c": 67,
      "d": 68,
      "e": 69,
      "f": 70,
      "g": 71,
      "h": 72,
      "i": 73,
      "j": 74,
      "k": 75,
      "l": 76,
      "m": 77,
      "n": 78,
      "o": 79,
      "p": 80,
      "q": 81,
      "r": 82,
      "s": 83,
      "t": 84,
      "u": 85,
      "v": 86,
      "w": 87,
      "x": 88,
      "y": 89,
      "z": 90,
      "{": 91,
      "|": 92,
      "}": 93,
      "~": 94,
      "¡": 95,
      "¢": 96,
      "£": 97,
      "¤": 98,
      "¥": 99,
      "¦": 100,
      "§": 101,
      "¨": 102,
      "©": 103,
      "ª": 104,
      "«": 105,
      "¬": 106,
      "®": 107,
      "¯": 108,
      "°": 109,
      "±": 110,
      "²": 111,
      "³": 112,
      "´": 113,
      "µ": 114,
      "¶": 115,
      "·": 116,
      "¸": 117,
      "¹": 118,
      "º": 119,
      "»": 120,
      "¼": 121,
      "½": 122,
      "¾": 123,
      "¿": 124,
      "Â": 125,
      "Ã": 126,
      "Ä": 127,
      "Å": 128,
      "Æ": 129,
      "Ç": 130,
      "È": 131,
      "É": 132,
      "Ê": 133,
      "Ë": 134,
      "Ì": 135,
      "Í": 136,
      "Î": 137,
      "Ï": 138,
      "Ð": 139,
      "Ñ": 140,
      "Ò": 141,
      "Ó": 142,
      "Ô": 143,
      "Õ": 144,
      "Ö": 145,
      "×": 146,
      "Ø": 147,
      "Ù": 148,
      "Ú": 149,
      "Û": 150,
      "Ü": 151,
      "Ý": 152,
      "Þ": 153,
      "ß": 154,
      "à": 155,
      "á": 156,
      "â": 157,
      "ã": 158,
      "ä": 159,
      "å": 160,
      "æ": 161,
      "ç": 162,
      "è": 163,
      "é": 164,
      "ê": 165,
      "ë": 166,
      "ì": 167,
      "í": 168,
      "î": 169,
      "ï": 170,
      "ð": 171,
      "ñ": 172,
      "ò": 173,
      "ó": 174,
      "ô": 175,
      "Ā": 176,
      "ā": 177,
      "Ă": 178,
      "ă": 179,
      "Ą": 180,
      "ą": 181,
      "Ć": 182,
      "ć": 183,
      "Ĉ": 184,
      "ĉ": 185,
      "Ċ": 186,
      "ċ": 187,
      "Č": 188,
      "č": 189,
      "Ď": 190,
      "ď": 191,
      "Đ": 192,
      "đ": 193,
      "Ē": 194,
      "ē": 195,
      "Ĕ": 196,
      "ĕ": 197,
      "Ė": 198,
      "ė": 199,
      "Ę": 200,
      "ę": 201,
      "Ě": 202,
      "ě": 203,
      "Ĝ": 204,
      "ĝ": 205,
      "Ğ": 206,
      "ğ": 207,
      "Ġ": 208,
      "ġ": 209,
      "Ģ": 210,
      "ģ": 211,
      "Ĥ": 212,
      "ĥ": 213,
      "Ħ": 214,
      "ħ": 215,
      "Ĩ": 216,
      "ĩ": 217,
      "Ī": 218,
      "ī": 219,
      "Ĭ": 220,
      "ĭ": 221,
      "Į": 222,
      "į": 223,
      "İ": 224,
      "ı": 225,
      "Ĳ": 226,
      "ĳ": 227,
      "Ĵ": 228,
      "ĵ": 229,
      "Ķ": 230,
      "ķ": 231,
      "ĸ": 232,
      "Ĺ": 233,
      "ĺ": 234,
      "Ļ": 235,
      "ļ": 236,
      "Ľ": 237,
      "ľ": 238,
      "Ŀ": 239,
      "ŀ": 240,
      "Ł": 241,
      "ł": 242,
      "Ń": 243,
      "ĠĠ": 244,
      "Ġt": 245,
      "ĠĠĠĠ": 246,
      "in": 247,
      "er": 248,
      "Ġa": 249,
      "he": 250,
      "on": 251,
      "re": 252,
      "at": 253,
      "Ġthe": 254,
      "or": 255,
      "en": 256,
      "st": 257,
      "an": 258,
      "al": 259,
      "ed": 260,
      "ar": 261,
      "it": 262,
      "Ġo": 263,
      "Ġc": 264,
      "es": 265,
      "Ġw": 266,
      "Ġs": 267,
      "is": 268,
      "Ġf": 269,
      "ion": 270,
      "nd": 271,
      "ing": 272,
      "Ġin": 273,
      "ic": 274,
      "Ġp": 275,
      "ĠĠĠ": 276,
      "le": 277,
      "Ġb": 278,
      "Ġof": 279,
      "ro": 280,
      "as": 281,
      "ĠĠĠĠĠĠĠĠ": 282,
      "ou": 283,
      "Ġand": 284,
      "Ġm": 285,
      "Ġd": 286,
      "ent": 287,
      "Ġto": 288,
      "et": 289,
      "ct": 290,
      "am": 291,
      "il": 292,
      "Ġh": 293,
      "ĠS": 294,
      "el": 295,
      "ĠC": 296,
      "om": 297,
      "Ġre": 298,
      "ĠA": 299,
      "ĠT": 300,
      "ol": 301,
      "Ġn": 302,
      "Ġ(": 303,
      "id": 304,
      "ur": 305,
      "Ġl": 306,
      "ad": 307,
      "Ġth": 308,
      "th": 309,
      "ce": 310,
      "ation": 311,
      "ĠM": 312,
      "iv": 313,
      "ch": 314,
      "ĠĠĠĠĠĠĠ": 315,
      "ig": 316,
      "im": 317,
      "Ġe": 318,
      "ut": 319,
      "ers": 320,
      "us": 321,
      "ĠB": 322,
      "ĠI": 323,
      "ĠP": 324,
      "ot": 325,
      "ay": 326,
      "ag": 327,
      "ul": 328,
      "un": 329,
      "Ġg": 330,
      "em": 331,
      "Ġfor": 332,
      "Ġ=": 333,
      "ir": 334,
      "od": 335,
      "</": 336,
      "ow": 337,
      "ist": 338,
      "ĉĉ": 339,
      "Ġis": 340,
      "Ġon": 341,
      "19": 342,
      "=\"": 343,
      "ĠH": 344,
      "if": 345,
      "Ġst": 346,
      "20": 347,
      "ly": 348,
      "âĢ": 349,
      "ĠR": 350,
      "ac": 351,
      "ĠD": 352,
      "se": 353,
      "Ġv": 354,
      "um": 355,
      "ith": 356,
      "ter": 357,
      ");": 358,
      "Ġbe": 359,
      "pe": 360,
      "Ġwas": 361,
      "ĠL": 362,
      "ate": 363,
      "ĠF": 364,
      "oc": 365,
      "Ġas": 366,
      "ra": 367,
      "and": 368,
      "ĠN": 369,
      "Ġ<": 370,
      "ĠG": 371,
      "ab": 372,
      "--": 373,
      "ue": 374,
      "ri": 375,
      "op": 376,
      "Ġ{": 377,
      "ĠW": 378,
      "Ġ\"": 379,
      "Ġcon": 380,
      "Ġwith": 381,
      "ver": 382,
      "ass": 383,
      "ew": 384,
      "av": 385,
      "ĠE": 386,
      "ĠThe": 387,
      "Ġal": 388,
      "ĠĠĠĠĠĠĠĠĠĠĠ": 389,
      "ame": 390,
      "rom": 391,
      "Ġwh": 392,
      "ht": 393,
      "ess": 394,
      "up": 395,
      "res": 396,
      "//": 397,
      "ub": 398,
      "ort": 399,
      "ap": 400,
      "Ġ*": 401,
      "Ġde": 402,
      "Ġby": 403,
      "ĠJ": 404,
      "Ġan": 405,
      "our": 406,
      "Ġthat": 407,
      "os": 408,
      "ction": 409,
      "Ġat": 410,
      "ex": 411,
      "est": 412,
      "nt": 413,
      "all": 414,
      "pt": 415,
      "čĊ": 416,
      "ĠO": 417,
      "ere": 418,
      "ain": 419,
      "age": 420,
      "ity": 421,
      "art": 422,
      "Ġpro": 423,
      "end": 424,
      "Ġit": 425,
      "Ġcl": 426,
      "Ġcom": 427,
      "ill": 428,
      "'s": 429,
      "Ġfrom": 430,
      "\">": 431,
      "ran": 432,
      "Ġhe": 433,
      "ment": 434,
      "ore": 435,
      "ies": 436,
      "Ġ}": 437,
      "ke": 438,
      "qu": 439,
      "ine": 440,
      "ber": 441,
      "og": 442,
      "Ġor": 443,
      "ĠU": 444,
      "Ġse": 445,
      "ack": 446,
      "ud": 447,
      "pl": 448,
      "Ġex": 449,
      "ld": 450,
      "ect": 451,
      "ef": 452,
      "ian": 453,
      "ia": 454,
      "ĠK": 455,
      "ard": 456,
      "urn": 457,
      "cl": 458,
      "port": 459,
      "ĠSt": 460,
      "ĠĠĠĠĠĠĠĠĠĠĠĠĠĠĠĠ": 461,
      "ive": 462,
      "ast": 463,
      "Ġy": 464,
      "ip": 465,
      "()": 466,
      "ary": 467,
      "ial": 468,
      "ov": 469,
      "ĠĠĠĠĠ": 470,
      "âĢĵ": 471,
      "**": 472,
      "con": 473,
      "ge": 474,
      "..": 475,
      "iz": 476,
      "ight": 477,
      "Ġr": 478,
      "201": 479,
      "ant": 480,
      "Ġpl": 481,
      "ated": 482,
      "00": 483,
      "Ġch": 484,
      "Ġare": 485,
      "ult": 486,
      "ure": 487,
      "ust": 488,
      "und": 489,
      "ug": 490,
      "sp": 491,
      "ord": 492,
      "ĠĊ": 493,
      "per": 494,
      "ich": 495,
      "ire": 496,
      "Ġthis": 497,
      "ell": 498,
      "Ġclass": 499,
      "turn": 500,
      "ong": 501,
      "ĠIn": 502,
      "ring": 503,
      "ak": 504,
      "ĠV": 505,
      "The": 506,
      "Ġhis": 507,
      "ost": 508,
      "==": 509,
      "ff": 510,
      "are": 511,
      "ype": 512,
      "ther": 513,
      "li": 514,
      "In": 515,
      "orm": 516,
      "----": 517,
      "St": 518,
      "Ġ'": 519,
      "get": 520,
      "int": 521,
      "able": 522,
      "ath": 523,
      "Ġ|": 524,
      "ign": 525,
      "ode": 526,
      "ear": 527,
      "Ġsh": 528,
      "ĠCh": 529,
      "ile": 530,
      "ish": 531,
      "ry": 532,
      "ubl": 533,
      "Ġle": 534,
      "),": 535,
      "ext": 536,
      "ok": 537,
      "ice": 538,
      "ind": 539,
      "out": 540,
      "200": 541,
      "Ġif": 542,
      "ork": 543,
      "ions": 544,
      "enc": 545,
      "Ġus": 546,
      "com": 547,
      "Ġnot": 548,
      "uc": 549,
      "ide": 550,
      "mer": 551,
      "ase": 552,
      "ical": 553,
      "Ġ-": 554,
      "so": 555,
      "18": 556,
      "erv": 557,
      "ave": 558,
      "ount": 559,
      "rit": 560,
      "ep": 561,
      "ĠĠĠĠĠĠĠĠĠĠĠĠĠĠĠ": 562,
      "Ġint": 563,
      "ime": 564,
      "ace": 565,
      "Ġj": 566,
      "ang": 567,
      "Ġcont": 568,
      "ory": 569,
      "Ġ$": 570,
      "Ġcomp": 571,
      "rans": 572,
      "Ġar": 573,
      "ph": 574,
      "ont": 575,
      "ev": 576,
      "ec": 577,
      "ata": 578,
      "Ġreturn": 579,
      "act": 580,
      "Ġwere": 581,
      "ublic": 582,
      "ild": 583,
      "âĢĻ": 584,
      "Ġun": 585,
      "Ġwhich": 586,
      ").": 587,
      "ject": 588,
      "ob": 589,
      "Ġnew": 590,
      "Ġk": 591,
      "ĠTh": 592,
      "Ġ||": 593,
      "ition": 594,
      "ib": 595,
      "Ġhas": 596,
      "Ġ//": 597,
      "ens": 598,
      "Ġad": 599,
      "ous": 600,
      "irst": 601,
      "ould": 602,
      "ric": 603,
      "eg": 604,
      "one": 605,
      "Ġ</": 606,
      "hed": 607,
      "ail": 608,
      "ence": 609,
      "ations": 610,
      "tern": 611,
      "alue": 612,
      "ress": 613,
      "ach": 614,
      "->": 615,
      "own": 616,
      "../": 617,
      "Ġalso": 618,
      "ru": 619,
      "\",": 620,
      "::": 621,
      "ock": 622,
      "ĉĉĉĉ": 623,
      "ll": 624,
      "hen": 625,
      "ĠUn": 626,
      "ource": 627,
      "form": 628,
      "ert": 629,
      "ĠHe": 630,
      "pro": 631,
      "ink": 632,
      "Ġro": 633,
      "ance": 634,
      "Ġres": 635,
      "ool": 636,
      "Ġab": 637,
      "amp": 638,
      "Ġap": 639,
      "Ex": 640,
      "ref": 641,
      "ree": 642,
      "cri": 643,
      "ss": 644,
      "Ġhave": 645,
      "Ġall": 646,
      "Ġplay": 647,
      "ĠY": 648,
      "ents": 649,
      "Ġ&": 650,
      "te": 651,
      "elf": 652,
      "cc": 653,
      "Ġwe": 654,
      "ark": 655,
      "inal": 656,
      "ull": 657,
      "ng": 658,
      "Ġhad": 659,
      "ound": 660,
      "Ġ@": 661,
      "Ġbut": 662,
      "ome": 663,
      "ne": 664,
      "Ġ[": 665,
      "Ġim": 666,
      "ĠâĢĵ": 667,
      "sh": 668,
      "ite": 669,
      "ĠIt": 670,
      "fter": 671,
      "unction": 672,
      "ual": 673,
      "199": 674,
      "over": 675,
      "Ġwho": 676,
      "erm": 677,
      "que": 678,
      "clud": 679,
      "row": 680,
      "Ġtheir": 681,
      "Ġfirst": 682,
      "ates": 683,
      "ml": 684,
      "ater": 685,
      "Ġbo": 686,
      "ors": 687,
      "div": 688,
      "ational": 689,
      "Ġ/": 690,
      "essage": 691,
      "aram": 692,
      "Ġcan": 693,
      "Ġpart": 694,
      "Ġte": 695,
      "Ġtr": 696,
      "aw": 697,
      "Ġone": 698,
      "iel": 699,
      "(\"": 700,
      "oll": 701,
      "Ġout": 702,
      "();": 703,
      "iew": 704,
      "wo": 705,
      "old": 706,
      "span": 707,
      "ption": 708,
      "iss": 709,
      "ft": 710,
      "Ġsc": 711,
      "10": 712,
      "ener": 713,
      "Ġher": 714,
      "Ġits": 715,
      "Ġup": 716,
      "ie": 717,
      "ences": 718,
      "any": 719,
      "fer": 720,
      "Ġname": 721,
      "lect": 722,
      "io": 723,
      "land": 724,
      "ember": 725,
      "Ġyou": 726,
      "></": 727,
      "eth": 728,
      "we": 729,
      "Ġ.": 730,
      "lo": 731,
      "les": 732,
      "ĠAr": 733,
      "ople": 734,
      "Ġag": 735,
      "ĠâĢ": 736,
      "ize": 737,
      "Ġpublic": 738,
      "pec": 739,
      "Ġdis": 740,
      "ield": 741,
      "ings": 742,
      "ake": 743,
      "meric": 744,
      "orn": 745,
      "Ref": 746,
      "put": 747,
      "Ġpr": 748,
      "ick": 749,
      "ery": 750,
      "Ġyear": 751,
      "--------": 752,
      "><": 753,
      "roup": 754,
      "',": 755,
      "set": 756,
      "igh": 757,
      "Ġev": 758,
      "ited": 759,
      "ames": 760,
      "eng": 761,
      "ose": 762,
      "../../": 763,
      "Ġdef": 764,
      "Ġdes": 765,
      "but": 766,
      "****": 767,
      "ade": 768,
      "red": 769,
      "ons": 770,
      "Ġwork": 771,
      "Ġ+": 772,
      "ied": 773,
      "eople": 774,
      "ix": 775,
      "pr": 776,
      "Ġper": 777,
      "Ġfil": 778,
      "yst": 779,
      "Ġdo": 780,
      "Ġ*/": 781,
      "oot": 782,
      "vel": 783,
      "tt": 784,
      "ax": 785,
      "ivers": 786,
      "Ġbeen": 787,
      "Ġthey": 788,
      "====": 789,
      "Ġcomm": 790,
      "Ġrec": 791,
      "198": 792,
      "Ġset": 793,
      "Ġover": 794,
      "ely": 795,
      "Refer": 796,
      "lement": 797,
      "ern": 798,
      "oint": 799,
      "ĠCom": 800,
      "ics": 801,
      "tr": 802,
      "Ġinclud": 803,
      "cess": 804,
      "ĠNew": 805,
      "eb": 806,
      "Ġsp": 807,
      "Ġ:": 808,
      "ann": 809,
      "ty": 810,
      "Ġtwo": 811,
      "ans": 812,
      "ĉĉĉ": 813,
      "che": 814,
      "ict": 815,
      "uch": 816,
      "ward": 817,
      "ms": 818,
      "12": 819,
      "arch": 820,
      "key": 821,
      "Pro": 822,
      "ased": 823,
      "Ġoff": 824,
      "Ġother": 825,
      "ond": 826,
      "uild": 827,
      "Ġwill": 828,
      "html": 829,
      "use": 830,
      "ram": 831,
      "16": 832,
      "oid": 833,
      "References": 834,
      "oy": 835,
      "round": 836,
      "ĠĠĠĠĠĠĠĠĠĠĠĠĠĠĠĠĠĠĠ": 837,
      "source": 838,
      "Ġget": 839,
      "err": 840,
      "als": 841,
      "Ġvar": 842,
      "Ġmore": 843,
      "message": 844,
      "('": 845,
      "ts": 846,
      "ton": 847,
      "Ġhref": 848,
      "Ġtime": 849,
      "oug": 850,
      "nc": 851,
      "uring": 852,
      "Ġme": 853,
      "Ġund": 854,
      "Ġass": 855,
      "ugh": 856,
      "atch": 857,
      "Ġafter": 858,
      "merican": 859,
      "arg": 860,
      "du": 861,
      "ER": 862,
      "17": 863,
      "ished": 864,
      "ey": 865,
      "ystem": 866,
      "ĠĠĠĠĠĠĠĠĠ": 867,
      "ransl": 868,
      "Ġinto": 869,
      "quest": 870,
      "son": 871,
      "Ġcol": 872,
      "Ġwhen": 873,
      "Ġconst": 874,
      "Name": 875,
      "Ġfunction": 876,
      "this": 877,
      "Ġpre": 878,
      "Ġ#": 879,
      "ĠSe": 880,
      "ood": 881,
      "Ġshe": 882,
      "way": 883,
      "ook": 884,
      "197": 885,
      "chool": 886,
      "Ġend": 887,
      "15": 888,
      "ray": 889,
      "Ġact": 890,
      "ball": 891,
      "Ġatt": 892,
      "ĠAl": 893,
      "ale": 894,
      "orld": 895,
      "ator": 896,
      "ON": 897,
      "name": 898,
      "col": 899,
      "Ġso": 900,
      "ck": 901,
      "cre": 902,
      "atic": 903,
      "wn": 904,
      "anc": 905,
      "Ġserv": 906,
      "ĠSh": 907,
      "Ġtype": 908,
      "ative": 909,
      "ternal": 910,
      "bject": 911,
      "ific": 912,
      "let": 913,
      "ren": 914,
      "Type": 915,
      "ash": 916,
      "IN": 917,
      "Ġpeople": 918,
      "Ġsup": 919,
      "Ġloc": 920,
      "td": 921,
      "Ġabout": 922,
      "ars": 923,
      "ah": 924,
      "umber": 925,
      "__": 926,
      "cond": 927,
      "ps": 928,
      "))": 929,
      "ious": 930,
      "import": 931,
      "ove": 932,
      "pect": 933,
      "Ch": 934,
      "Re": 935,
      "az": 936,
      "Ġadd": 937,
      "att": 938,
      "Id": 939,
      "irect": 940,
      "olog": 941,
      "ision": 942,
      "ĠPro": 943,
      "String": 944,
      "Ġreg": 945,
      "Ġwould": 946,
      "ident": 947,
      "oh": 948,
      "ins": 949,
      "alse": 950,
      "cont": 951,
      "param": 952,
      "Ġkn": 953,
      "ists": 954,
      "ating": 955,
      "cript": 956,
      "cent": 957,
      "ee": 958,
      "Ġop": 959,
      "Ġen": 960,
      "pos": 961,
      "Ġline": 962,
      "/>": 963,
      "Ġne": 964,
      "ral": 965,
      "gan": 966,
      "Com": 967,
      "Ġ=>": 968,
      "ribut": 969,
      "196": 970,
      "raph": 971,
      "ason": 972,
      "lection": 973,
      "ranslation": 974,
      "Th": 975,
      "fig": 976,
      "to": 977,
      "Ġinter": 978,
      "urre": 979,
      "Ġunder": 980,
      "ik": 981,
      "ient": 982,
      "Ġsub": 983,
      "Cont": 984,
      "vent": 985,
      "Ġbet": 986,
      "ered": 987,
      "Ġonly": 988,
      "Ġinst": 989,
      "ruct": 990,
      "dd": 991,
      "Con": 992,
      "app": 993,
      "Ġvalue": 994,
      "code": 995,
      "return": 996,
      "ily": 997,
      "ury": 998,
      "âĢĿ": 999,
      "iversity": 1000,
      "Ġbec": 1001,
      "Ġspec": 1002,
      "Ġind": 1003,
      "14": 1004,
      "ities": 1005,
      "man": 1006,
      "13": 1007,
      "emb": 1008,
      "ĠThis": 1009,
      "lock": 1010,
      "Ġqu": 1011,
      "ise": 1012,
      "\"/>": 1013,
      "Ġthere": 1014,
      "Ġcall": 1015,
      "outh": 1016,
      "Ġel": 1017,
      "Ġpol": 1018,
      "Ġcre": 1019,
      "odel": 1020,
      "Ġra": 1021,
      "RE": 1022,
      "://": 1023,
      "Ġno": 1024,
      "translation": 1025,
      "ier": 1026,
      "ince": 1027,
      "ues": 1028,
      "ular": 1029,
      "air": 1030,
      "itle": 1031,
      "Ġrel": 1032,
      "##": 1033,
      "abl": 1034,
      "Ġhim": 1035,
      "ethod": 1036,
      "add": 1037,
      "Ġman": 1038,
      "Ġac": 1039,
      "ollow": 1040,
      "rough": 1041,
      "orth": 1042,
      "Ġco": 1043,
      "duc": 1044,
      "Ġself": 1045,
      "ife": 1046,
      "Ġrem": 1047,
      "resent": 1048,
      "Res": 1049,
      "Ġthan": 1050,
      "Ġwhere": 1051,
      "class": 1052,
      "hip": 1053,
      "ys": 1054,
      "List": 1055,
      "ache": 1056,
      "Ġacc": 1057,
      "ask": 1058,
      "ement": 1059,
      "oci": 1060,
      "ĠZ": 1061,
      "ĠAmerican": 1062,
      "ouse": 1063,
      "inn": 1064,
      "Ġsome": 1065,
      "Ġcons": 1066,
      "ault": 1067,
      "Ġ!": 1068,
      "11": 1069,
      "Ġfe": 1070,
      "yle": 1071,
      "ĠCl": 1072,
      "Ġused": 1073,
      "ĠInd": 1074,
      "ĠLe": 1075,
      "its": 1076,
      "ines": 1077,
      "Ġlink": 1078,
      "Ġform": 1079,
      "ve": 1080,
      "ike": 1081,
      "Ġdata": 1082,
      "aid": 1083,
      "ined": 1084,
      "pon": 1085,
      "ersion": 1086,
      "aj": 1087,
      "21": 1088,
      "Ã©": 1089,
      "ception": 1090,
      "Ġagain": 1091,
      "ween": 1092,
      "Ar": 1093,
      "read": 1094,
      "Ġany": 1095,
      "ĠCol": 1096,
      "Ġent": 1097,
      "arn": 1098,
      "ĠDe": 1099,
      "25": 1100,
      "Ġser": 1101,
      "Ġpos": 1102,
      "Ġback": 1103,
      "ST": 1104,
      "ough": 1105,
      "Ġthem": 1106,
      "urrent": 1107,
      "Ġyears": 1108,
      "ally": 1109,
      ".\"": 1110,
      "ĠAn": 1111,
      "Ġinv": 1112,
      "Ġam": 1113,
      "ature": 1114,
      "AT": 1115,
      "type": 1116,
      "194": 1117,
      "ures": 1118,
      "uff": 1119,
      "ument": 1120,
      "Ġmost": 1121,
      "fl": 1122,
      "Ġgo": 1123,
      "Cl": 1124,
      "Ġprov": 1125,
      "Ġthen": 1126,
      "ract": 1127,
      "overn": 1128,
      "ym": 1129,
      "30": 1130,
      "co": 1131,
      "fo": 1132,
      "ages": 1133,
      "fore": 1134,
      "ader": 1135,
      "195": 1136,
      "Ġ==": 1137,
      "ays": 1138,
      "Ġstud": 1139,
      "itt": 1140,
      "ower": 1141,
      "Ġthrough": 1142,
      "ĠUnited": 1143,
      "loc": 1144,
      "der": 1145,
      "Ġfound": 1146,
      "org": 1147,
      "Ġteam": 1148,
      "Ġresult": 1149,
      "Ġem": 1150,
      "Ġ_": 1151,
      "Ġcent": 1152,
      "ĠQ": 1153,
      "ivate": 1154,
      "uth": 1155,
      "Ġwrit": 1156,
      "htt": 1157,
      "ĠUniversity": 1158,
      "Âł": 1159,
      "22": 1160,
      "Ġfl": 1161,
      "bo": 1162,
      "erson": 1163,
      "ĠSc": 1164,
      "Ġfinal": 1165,
      "Ġed": 1166,
      "Ġmay": 1167,
      "Ġtra": 1168,
      "line": 1169,
      "Ġchar": 1170,
      "reat": 1171,
      "Ġbetween": 1172,
      "Ġnull": 1173,
      "ĠCon": 1174,
      "AR": 1175,
      "ootball": 1176,
      "back": 1177,
      "Ġfollow": 1178,
      "min": 1179,
      "rad": 1180,
      "Ġduring": 1181,
      "):": 1182,
      "Ġtrans": 1183,
      "ired": 1184,
      "usic": 1185,
      "ott": 1186,
      "def": 1187,
      "iving": 1188,
      "ute": 1189,
      "Ġi": 1190,
      "rid": 1191,
      "view": 1192,
      "\"><": 1193,
      "by": 1194,
      "Ġvoid": 1195,
      "Ġdist": 1196,
      "self": 1197,
      "ole": 1198,
      "OR": 1199,
      "Ġest": 1200,
      "Ġph": 1201,
      "Ġart": 1202,
      "ina": 1203,
      "bs": 1204,
      "ĠâĢľ": 1205,
      "til": 1206,
      "ank": 1207,
      "other": 1208,
      "000": 1209,
      "ible": 1210,
      "ody": 1211,
      "ĠSp": 1212,
      "Ġsuch": 1213,
      "Ġrele": 1214,
      "ron": 1215,
      "Ġfam": 1216,
      "ober": 1217,
      "Ġstart": 1218,
      "Ġlinks": 1219,
      "ange": 1220,
      "ĠRe": 1221,
      "ule": 1222,
      "Ġuse": 1223,
      "ID": 1224,
      "rict": 1225,
      "Ġmade": 1226,
      "Ġlist": 1227,
      "ĠMar": 1228,
      "External": 1229,
      "Ġext": 1230,
      "));": 1231,
      "Ġnumber": 1232,
      "istory": 1233,
      "Ġhigh": 1234,
      "LE": 1235,
      "ause": 1236,
      "ĠEng": 1237,
      "iver": 1238,
      "Ġcount": 1239,
      "ized": 1240,
      "enn": 1241,
      "ohn": 1242,
      "ices": 1243,
      "ets": 1244,
      "Ġsecond": 1245,
      "ble": 1246,
      "ĠIs": 1247,
      "Ġplayers": 1248,
      "Ġthree": 1249,
      "pp": 1250,
      "Ġfalse": 1251,
      "umm": 1252,
      "ograph": 1253,
      "Ġbeing": 1254,
      "uss": 1255,
      "mp": 1256,
      "Ġshow": 1257,
      "string": 1258,
      "ava": 1259,
      "ility": 1260,
      "val": 1261,
      "********": 1262,
      "ived": 1263,
      "ĠShe": 1264,
      "Ġgroup": 1265,
      "Ġ>": 1266,
      "Ġmed": 1267,
      "ional": 1268,
      "ser": 1269,
      "eter": 1270,
      "Ġ`": 1271,
      "Ġfilm": 1272,
      "ever": 1273,
      "of": 1274,
      "Ġwell": 1275,
      "ĠEx": 1276,
      "Ġtrue": 1277,
      "Ġbefore": 1278,
      "It": 1279,
      "ths": 1280,
      "ĠĠĠĠĠĠĠĠĠĠĠĠĠ": 1281,
      "ism": 1282,
      "nb": 1283,
      "Ġsing": 1284,
      "ek": 1285,
      "Ġdirect": 1286,
      "ments": 1287,
      "Ġoper": 1288,
      "ley": 1289,
      "bum": 1290,
      "ream": 1291,
      "right": 1292,
      "ĠĠĠĠĠĠĠĠĠĠĠĠĠĠĠĠĠĠĠĠĠĠĠ": 1293,
      "sc": 1294,
      "Ġwhile": 1295,
      "----------------": 1296,
      "\".": 1297,
      "Ġmin": 1298,
      "ĠComm": 1299,
      "Ġsign": 1300,
      "ather": 1301,
      "Ġtest": 1302,
      "Ġgener": 1303,
      "Value": 1304,
      "ĠStates": 1305,
      "Ġrecord": 1306,
      "perty": 1307,
      "press": 1308,
      "une": 1309,
      "Ġ\\": 1310,
      "Col": 1311,
      "ĠCount": 1312,
      "ten": 1313,
      "Ġrun": 1314,
      "apt": 1315,
      "24": 1316,
      "plic": 1317,
      "Ġdif": 1318,
      "Ġid": 1319,
      "Ġpop": 1320,
      "AL": 1321,
      "EN": 1322,
      "ĠAs": 1323,
      "abel": 1324,
      "Ġ)": 1325,
      "Ġlong": 1326,
      "Ġelse": 1327,
      "omen": 1328,
      "arly": 1329,
      "Ġbuild": 1330,
      "af": 1331,
      "He": 1332,
      "ces": 1333,
      "cept": 1334,
      "var": 1335,
      "ĠPh": 1336,
      "SS": 1337,
      "nbsp": 1338,
      "ports": 1339,
      "yp": 1340,
      "Ġown": 1341,
      "\");": 1342,
      "ives": 1343,
      "ister": 1344,
      "On": 1345,
      "rr": 1346,
      "ength": 1347,
      "the": 1348,
      "ague": 1349,
      "Ġseason": 1350,
      "...": 1351,
      "umn": 1352,
      "opt": 1353,
      "text": 1354,
      "rol": 1355,
      "Ġstring": 1356,
      "ounc": 1357,
      "ĠPl": 1358,
      "gram": 1359,
      "32": 1360,
      "Data": 1361,
      "Ġsaid": 1362,
      "ĠMay": 1363,
      "ĠWh": 1364,
      "Ġlater": 1365,
      "Ġerr": 1366,
      "ĠOn": 1367,
      "arget": 1368,
      "pre": 1369,
      "Ġmov": 1370,
      "ple": 1371,
      "Un": 1372,
      "ĠFor": 1373,
      "ared": 1374,
      "yn": 1375,
      "data": 1376,
      "\")": 1377,
      "Ġdr": 1378,
      "Ġval": 1379,
      "ww": 1380,
      "ural": 1381,
      "be": 1382,
      "Ġlike": 1383,
      "play": 1384,
      "Ġmany": 1385,
      "uro": 1386,
      "Ġbir": 1387,
      "ful": 1388,
      "Ġschool": 1389,
      "Ġbl": 1390,
      "Ġbro": 1391,
      "ĠFran": 1392,
      "Ġmon": 1393,
      "atus": 1394,
      "arent": 1395,
      "ai": 1396,
      "ution": 1397,
      "To": 1398,
      "velop": 1399,
      "ervice": 1400,
      "ler": 1401,
      "str": 1402,
      "ĠJohn": 1403,
      "roll": 1404,
      "ĠJan": 1405,
      "ele": 1406,
      "Ġfootball": 1407,
      "========": 1408,
      "Ġsystem": 1409,
      "Ġsur": 1410,
      "Ġdevelop": 1411,
      "Ġ--": 1412,
      "////": 1413,
      "value": 1414,
      "'t": 1415,
      "Ġagainst": 1416,
      "Ġstr": 1417,
      "ology": 1418,
      "Ġstate": 1419,
      "my": 1420,
      "Ġhow": 1421,
      "ĠWorld": 1422,
      "Ġincluding": 1423,
      "arm": 1424,
      "Ġjust": 1425,
      "work": 1426,
      "Ġ/**": 1427,
      "location": 1428,
      "Ġknown": 1429,
      "Ġsm": 1430,
      "imes": 1431,
      "ats": 1432,
      "Ġalbum": 1433,
      "arri": 1434,
      "ĠAss": 1435,
      "date": 1436,
      "23": 1437,
      "ternational": 1438,
      "rem": 1439,
      "Ġever": 1440,
      "Ġfour": 1441,
      "ĠAust": 1442,
      "ĠĠĠĠĠĠ": 1443,
      "Ġboth": 1444,
      "50": 1445,
      "roid": 1446,
      "Ġrep": 1447,
      "Ġdec": 1448,
      "Ġmain": 1449,
      "Ġappe": 1450,
      "ĠNational": 1451,
      "ross": 1452,
      "Ġprivate": 1453,
      "rand": 1454,
      "ified": 1455,
      "par": 1456,
      "urch": 1457,
      "Ġyour": 1458,
      "ger": 1459,
      "action": 1460,
      "test": 1461,
      "ission": 1462,
      "file": 1463,
      "Set": 1464,
      "ĠJul": 1465,
      "duct": 1466,
      "ĠOr": 1467,
      "led": 1468,
      "ote": 1469,
      "Ġthese": 1470,
      "her": 1471,
      "Ġsame": 1472,
      "field": 1473,
      "ĠBl": 1474,
      "aking": 1475,
      "Ġseries": 1476,
      "Ġpass": 1477,
      "Ġmod": 1478,
      "ĠĠĠĠĠĠĠĠĠĠĠĠĠĠĠĠĠĠĠĠĠĠĠĠĠĠĠĠĠĠĠĠ": 1479,
      "iginal": 1480,
      "ains": 1481,
      "CT": 1482,
      "ĠCan": 1483,
      "px": 1484,
      "Ġcould": 1485,
      "idth": 1486,
      "reg": 1487,
      "rist": 1488,
      "Ġright": 1489,
      "ital": 1490,
      "ium": 1491,
      "uccess": 1492,
      "ĠPr": 1493,
      "];": 1494,
      "Ġtitle": 1495,
      "overnment": 1496,
      "Ġpoint": 1497,
      "amed": 1498,
      "ense": 1499,
      "Ġran": 1500,
      "embers": 1501,
      "Ġcase": 1502,
      "ually": 1503,
      "ting": 1504,
      "Ġbecame": 1505,
      "Ġwhat": 1506,
      "Err": 1507,
      "Ġchild": 1508,
      "ĠSchool": 1509,
      "ĠBrit": 1510,
      "oad": 1511,
      "Exception": 1512,
      "ĠYork": 1513,
      "Ġopen": 1514,
      "angu": 1515,
      "Ġsupport": 1516,
      "ĠCounty": 1517,
      "Ġestabl": 1518,
      "els": 1519,
      "ma": 1520,
      "Ġcare": 1521,
      "Ġrece": 1522,
      "193": 1523,
      "ager": 1524,
      "Ġ&&": 1525,
      "Ġperform": 1526,
      "uck": 1527,
      "ider": 1528,
      "ants": 1529,
      "ĠAd": 1530,
      "IT": 1531,
      "new": 1532,
      "100": 1533,
      "ify": 1534,
      "Ġnow": 1535,
      "ush": 1536,
      "Ġdid": 1537,
      "ummary": 1538,
      "au": 1539,
      "ency": 1540,
      "day": 1541,
      "Ġlead": 1542,
      "ians": 1543,
      "($": 1544,
      "ĠCar": 1545,
      "ĠNov": 1546,
      "Ġshould": 1547,
      "Ind": 1548,
      "ĠâĢĶ": 1549,
      "DE": 1550,
      "ience": 1551,
      "Se": 1552,
      "iam": 1553,
      "Ġann": 1554,
      "SE": 1555,
      "Ġ///": 1556,
      "lected": 1557,
      "Object": 1558,
      "ĠAnd": 1559,
      "Ġevent": 1560,
      "Ġbel": 1561,
      "indow": 1562,
      "Ġresp": 1563,
      "Ġgame": 1564,
      "med": 1565,
      "Ġmy": 1566,
      "ĠWar": 1567,
      "Ġkey": 1568,
      "ground": 1569,
      "Ġcurrent": 1570,
      "uary": 1571,
      "ĠString": 1572,
      "Ġlast": 1573,
      "ocument": 1574,
      "rop": 1575,
      "An": 1576,
      "chn": 1577,
      "Ġsong": 1578,
      "Ġstatic": 1579,
      "Ġhand": 1580,
      "bar": 1581,
      "ample": 1582,
      "Ġ!=": 1583,
      "Ġgu": 1584,
      "Ġneed": 1585,
      "ĠWest": 1586,
      "face": 1587,
      "Ġeff": 1588,
      "ĠSouth": 1589,
      "Ġdet": 1590,
      "ven": 1591,
      "ĠMan": 1592,
      "ox": 1593,
      "uthor": 1594,
      "Ġeach": 1595,
      "ĠX": 1596,
      "Ġpolit": 1597,
      "ugust": 1598,
      "const": 1599,
      "ior": 1600,
      "AN": 1601,
      "heck": 1602,
      "Ġuntil": 1603,
      "26": 1604,
      "Sh": 1605,
      "unc": 1606,
      "Ġdesign": 1607,
      "ĠCent": 1608,
      "Ġapp": 1609,
      "lp": 1610,
      "por": 1611,
      "for": 1612,
      "inter": 1613,
      "Ġdiffer": 1614,
      "Ġrequ": 1615,
      "().": 1616,
      "Test": 1617,
      "ris": 1618,
      "order": 1619,
      "Ġfamily": 1620,
      "Ġcontin": 1621,
      "Ġsim": 1622,
      "Ġdeath": 1623,
      "ĠAt": 1624,
      "aces": 1625,
      "Get": 1626,
      "ained": 1627,
      "Ġlife": 1628,
      "Ġmusic": 1629,
      "28": 1630,
      "list": 1631,
      "Ġ%": 1632,
      "color": 1633,
      "ptember": 1634,
      "alk": 1635,
      "By": 1636,
      "ically": 1637,
      "27": 1638,
      "Ġread": 1639,
      "ĠAll": 1640,
      "')": 1641,
      "Ġret": 1642,
      "CO": 1643,
      "ulation": 1644,
      "ĠOct": 1645,
      "());": 1646,
      "ner": 1647,
      "ĠGerm": 1648,
      "ization": 1649,
      "comm": 1650,
      "iness": 1651,
      "ety": 1652,
      "Ġcalled": 1653,
      "Ġmake": 1654,
      "log": 1655,
      "alth": 1656,
      "Ġdescri": 1657,
      "ird": 1658,
      "fess": 1659,
      "ME": 1660,
      "rc": 1661,
      "Ġmet": 1662,
      "raw": 1663,
      "ĠRes": 1664,
      "ajor": 1665,
      "ourn": 1666,
      "Key": 1667,
      "iter": 1668,
      "ampions": 1669,
      "script": 1670,
      "Ġhead": 1671,
      "time": 1672,
      "|-": 1673,
      "reak": 1674,
      "Ġx": 1675,
      "oman": 1676,
      "Ġobject": 1677,
      "Ġcommun": 1678,
      "public": 1679,
      "Ġfollowing": 1680,
      "2018": 1681,
      "side": 1682,
      "2010": 1683,
      "link": 1684,
      "ĠMarch": 1685,
      "wards": 1686,
      "itions": 1687,
      "2019": 1688,
      "ilt": 1689,
      "Error": 1690,
      "Ġbook": 1691,
      "nav": 1692,
      "Ġoffic": 1693,
      "View": 1694,
      "pril": 1695,
      "ĠPar": 1696,
      "formation": 1697,
      "Ġsever": 1698,
      "size": 1699,
      "']": 1700,
      "ĠTr": 1701,
      "ĠAugust": 1702,
      "oss": 1703,
      "resident": 1704,
      "iven": 1705,
      "Ġsl": 1706,
      "Ġfield": 1707,
      "http": 1708,
      "Ġlocal": 1709,
      "2016": 1710,
      "2015": 1711,
      "Ġour": 1712,
      "mber": 1713,
      "Ġdep": 1714,
      "ane": 1715,
      "Ġworld": 1716,
      "duction": 1717,
      "ĠSeptember": 1718,
      "Ġbecause": 1719,
      "Ġorgan": 1720,
      "url": 1721,
      "off": 1722,
      "itor": 1723,
      "ially": 1724,
      "40": 1725,
      "Class": 1726,
      "idd": 1727,
      "Ġplace": 1728,
      "load": 1729,
      "._": 1730,
      "ided": 1731,
      "ĠJune": 1732,
      "uk": 1733,
      "ĠĠĠĠĊ": 1734,
      "umb": 1735,
      "lish": 1736,
      "\";": 1737,
      "Ġsince": 1738,
      "ĠJuly": 1739,
      "ĠGe": 1740,
      "Ġfin": 1741,
      "29": 1742,
      "me": 1743,
      "ae": 1744,
      "util": 1745,
      "bed": 1746,
      "br": 1747,
      "istor": 1748,
      "lege": 1749,
      "Ġprogram": 1750,
      "icip": 1751,
      "lex": 1752,
      "lob": 1753,
      "reen": 1754,
      "Ġarea": 1755,
      "ĠJanuary": 1756,
      "2017": 1757,
      "Ġorg": 1758,
      "2014": 1759,
      "Ġdown": 1760,
      "ĠOctober": 1761,
      "Ġav": 1762,
      "go": 1763,
      "iev": 1764,
      "ĠPol": 1765,
      "js": 1766,
      "search": 1767,
      "epend": 1768,
      "ĉĉĉĉĉ": 1769,
      ".</": 1770,
      "ape": 1771,
      "2011": 1772,
      "Al": 1773,
      "ĠAustral": 1774,
      "Ġimport": 1775,
      "ĠReg": 1776,
      "\"></": 1777,
      "ended": 1778,
      "wh": 1779,
      "ateg": 1780,
      "index": 1781,
      "Ġcharact": 1782,
      "irc": 1783,
      "ĠEuro": 1784,
      "come": 1785,
      "vision": 1786,
      "dis": 1787,
      "ĠHow": 1788,
      "ales": 1789,
      "ony": 1790,
      "inc": 1791,
      "Ġbu": 1792,
      "Pl": 1793,
      "Im": 1794,
      "Ġdisc": 1795,
      "As": 1796,
      "ised": 1797,
      "cember": 1798,
      "ches": 1799,
      "urs": 1800,
      "Ġwon": 1801,
      "Ġpar": 1802,
      "ends": 1803,
      "Ġfile": 1804,
      "usiness": 1805,
      "Ġmark": 1806,
      "2013": 1807,
      "ĠApril": 1808,
      "item": 1809,
      "ĠBe": 1810,
      "Ġref": 1811,
      "2012": 1812,
      "duced": 1813,
      "ene": 1814,
      "Ġleft": 1815,
      "not": 1816,
      "Not": 1817,
      "Ġarg": 1818,
      "urg": 1819,
      "Ġexp": 1820,
      "aster": 1821,
      "ĠCity": 1822,
      "born": 1823,
      "ĠState": 1824,
      "ament": 1825,
      "function": 1826,
      "ected": 1827,
      "anguage": 1828,
      "ung": 1829,
      "Ġtop": 1830,
      "['": 1831,
      "rap": 1832,
      "Ġstyle": 1833,
      "ĠGu": 1834,
      "Ġmethod": 1835,
      "ĠNorth": 1836,
      "Ġusing": 1837,
      "Ġreleased": 1838,
      "ĠCal": 1839,
      "Ġplayed": 1840,
      "ptions": 1841,
      "Ġformer": 1842,
      "ords": 1843,
      "AC": 1844,
      "mod": 1845,
      "Ġtri": 1846,
      "oth": 1847,
      "ality": 1848,
      "Ġperson": 1849,
      "Ġevery": 1850,
      "ĠThey": 1851,
      "summary": 1852,
      "ored": 1853,
      "top": 1854,
      "Ġvis": 1855,
      "ĠNovember": 1856,
      "=\"../../": 1857,
      "64": 1858,
      "Ġoriginal": 1859,
      "Ġprom": 1860,
      "Ġcity": 1861,
      "pace": 1862,
      "Ġold": 1863,
      "=\"+": 1864,
      "Ġrefer": 1865,
      "vers": 1866,
      "aving": 1867,
      "(),": 1868,
      "Ġbased": 1869,
      "!--": 1870,
      "de": 1871,
      "\":": 1872,
      "UL": 1873,
      "akes": 1874,
      "thern": 1875,
      "');": 1876,
      "ĠAm": 1877,
      "uffer": 1878,
      "ĠYou": 1879,
      "Ġpubl": 1880,
      "ĠWe": 1881,
      "ĠBritish": 1882,
      "illion": 1883,
      "ĠEd": 1884,
      "ling": 1885,
      "leg": 1886,
      "amb": 1887,
      "Ġeven": 1888,
      "ival": 1889,
      "Ġallow": 1890,
      "ĠDecember": 1891,
      "Ġfr": 1892,
      "RO": 1893,
      "opy": 1894,
      "Ġcor": 1895,
      "Ġlaw": 1896,
      "Ġeng": 1897,
      "Ġseveral": 1898,
      "Ġdoes": 1899,
      "Ġaround": 1900,
      "Ġ/>": 1901,
      "Ġinit": 1902,
      "empl": 1903,
      "ĠWill": 1904,
      "ebru": 1905,
      "ĠTe": 1906,
      "Ġnear": 1907,
      "olv": 1908,
      "ilit": 1909,
      "ued": 1910,
      "ĠAf": 1911,
      "ebruary": 1912,
      "ĠUS": 1913,
      "Ġrest": 1914,
      "ration": 1915,
      "etwork": 1916,
      "Ġpost": 1917,
      "Ġearly": 1918,
      "ogle": 1919,
      "ackage": 1920,
      "Ġappro": 1921,
      "ĠCo": 1922,
      "Ġprocess": 1923,
      "Ġocc": 1924,
      "2008": 1925,
      "See": 1926,
      "Ġvery": 1927,
      "ography": 1928,
      "190": 1929,
      "2009": 1930,
      "ampionship": 1931,
      "Man": 1932,
      "ĠLeague": 1933,
      "ides": 1934,
      "File": 1935,
      "33": 1936,
      "Ġaut": 1937,
      "apan": 1938,
      "Ġsuccess": 1939,
      "Sc": 1940,
      "vious": 1941,
      "ideo": 1942,
      "path": 1943,
      "Ġwomen": 1944,
      "sk": 1945,
      "Ġcour": 1946,
      "arge": 1947,
      "yl": 1948,
      "aced": 1949,
      "Ġsmall": 1950,
      "Ġbirths": 1951,
      "ĠIf": 1952,
      "ĠCanad": 1953,
      "Ġhelp": 1954,
      "bt": 1955,
      "ĠKing": 1956,
      "Ġthose": 1957,
      "Ġmembers": 1958,
      "60": 1959,
      "ham": 1960,
      "ases": 1961,
      "Ġimp": 1962,
      "ĠEurope": 1963,
      "Int": 1964,
      "ĠII": 1965,
      "quot": 1966,
      "ining": 1967,
      "century": 1968,
      "Ġday": 1969,
      "Ġgovernment": 1970,
      "ribute": 1971,
      "ĠRep": 1972,
      "ION": 1973,
      "Ġhome": 1974,
      "aint": 1975,
      "Ġland": 1976,
      "cription": 1977,
      "Ġterm": 1978,
      "Ġway": 1979,
      "ĠFl": 1980,
      "raft": 1981,
      "Ã¡": 1982,
      "ards": 1983,
      "Ġalong": 1984,
      "Ġleg": 1985,
      "ctions": 1986,
      "Ġdifferent": 1987,
      "],": 1988,
      "ster": 1989,
      "ui": 1990,
      "2007": 1991,
      "uration": 1992,
      "ponse": 1993,
      "LA": 1994,
      "Ġversion": 1995,
      "Ġdel": 1996,
      "wit": 1997,
      "Ġla": 1998,
      "ze": 1999,
      "Tr": 2000,
      "PE": 2001,
      "ness": 2002,
      "vir": 2003,
      "group": 2004,
      "Ġcompet": 2005,
      "Time": 2006,
      "},": 2007,
      "For": 2008,
      "Ġnext": 2009,
      "Ġstill": 2010,
      "ĠFebruary": 2011,
      ".,": 2012,
      "ĠPart": 2013,
      "Ġrequest": 2014,
      "Ġnon": 2015,
      "umer": 2016,
      "Event": 2017,
      "Ġpo": 2018,
      "ĠChrist": 2019,
      "2006": 2020,
      "Request": 2021,
      "ĠMin": 2022,
      "Ġthrow": 2023,
      "/*": 2024,
      "stit": 2025,
      "ship": 2026,
      "Ġproject": 2027,
      "rench": 2028,
      "ney": 2029,
      "Ġexper": 2030,
      "Text": 2031,
      "md": 2032,
      "ording": 2033,
      "Ġassert": 2034,
      "ination": 2035,
      "Fil": 2036,
      "With": 2037,
      "Des": 2038,
      "ustom": 2039,
      "ately": 2040,
      "Ġcar": 2041,
      "ĠBar": 2042,
      "Ġcompany": 2043,
      "Ġpresent": 2044,
      "Ġ?": 2045,
      "ana": 2046,
      "Ġtown": 2047,
      "Ġfilms": 2048,
      "Ġservice": 2049,
      "ĠMed": 2050,
      "Ġprot": 2051,
      "Ġ);": 2052,
      "Add": 2053,
      "ocial": 2054,
      "Ġsingle": 2055,
      "Ġexpect": 2056,
      "Ġmember": 2057,
      "Ġreport": 2058,
      "used": 2059,
      "IC": 2060,
      "Ġcap": 2061,
      "aim": 2062,
      "Ġcareer": 2063,
      "TE": 2064,
      "Ġsize": 2065,
      "ese": 2066,
      "Ġ,": 2067,
      "Or": 2068,
      "uf": 2069,
      "Ġstruct": 2070,
      "ĠHar": 2071,
      "Ġfind": 2072,
      "met": 2073,
      "Form": 2074,
      "vert": 2075,
      "ĠMc": 2076,
      "Ġwithin": 2077,
      "Ġmuch": 2078,
      "ĠAb": 2079,
      "TR": 2080,
      "cast": 2081,
      "Ġstand": 2082,
      "head": 2083,
      "Ġmodel": 2084,
      "qual": 2085,
      "Ġmat": 2086,
      "rew": 2087,
      "ret": 2088,
      "Ġinclude": 2089,
      "].": 2090,
      "Ġnamed": 2091,
      "Element": 2092,
      "Ġtext": 2093,
      "Path": 2094,
      "Node": 2095,
      "/**": 2096,
      "des": 2097,
      "lear": 2098,
      "Ġiss": 2099,
      "189": 2100,
      "Ġmajor": 2101,
      "2000": 2102,
      "ources": 2103,
      "This": 2104,
      "Ġlevel": 2105,
      "itional": 2106,
      "empt": 2107,
      "iet": 2108,
      "Ġsee": 2109,
      "Ġsol": 2110,
      "left": 2111,
      "American": 2112,
      "iod": 2113,
      "stance": 2114,
      "Ġknow": 2115,
      "Ġelement": 2116,
      "En": 2117,
      "Ġweek": 2118,
      "hes": 2119,
      "ĠEl": 2120,
      "Ġlook": 2121,
      "Ġsk": 2122,
      "Info": 2123,
      "Item": 2124,
      "Config": 2125,
      "ĠAfter": 2126,
      "Ġgiven": 2127,
      "Ġjo": 2128,
      "ification": 2129,
      "Ġheld": 2130,
      "Ġbegan": 2131,
      "Ġtele": 2132,
      "https": 2133,
      "ĠNo": 2134,
      "oun": 2135,
      "Def": 2136,
      "ipp": 2137,
      "80": 2138,
      "ride": 2139,
      "olean": 2140,
      "fil": 2141,
      "adem": 2142,
      "())": 2143,
      "ump": 2144,
      "All": 2145,
      "Ġorder": 2146,
      "user": 2147,
      "Qu": 2148,
      "Ġpat": 2149,
      "Ġtook": 2150,
      "odes": 2151,
      "ĠHis": 2152,
      "sub": 2153,
      "Ġanother": 2154,
      "oken": 2155,
      "ari": 2156,
      "less": 2157,
      "``": 2158,
      "rick": 2159,
      "Index": 2160,
      "Ġbest": 2161,
      "Ġrepresent": 2162,
      "Ġport": 2163,
      "Ġclub": 2164,
      "ĠDist": 2165,
      "AP": 2166,
      "FF": 2167,
      "Param": 2168,
      "gy": 2169,
      "Map": 2170,
      "Ġadv": 2171,
      "Over": 2172,
      "ĠEnglish": 2173,
      "uman": 2174,
      "State": 2175,
      "ondon": 2176,
      "Ġshort": 2177,
      "Ġcr": 2178,
      "Ġfact": 2179,
      "Ġhouse": 2180,
      "aut": 2181,
      "':": 2182,
      "Ġdem": 2183,
      "ille": 2184,
      "api": 2185,
      "ector": 2186,
      "ayout": 2187,
      "ino": 2188,
      "Ġcontent": 2189,
      "Ġbase": 2190,
      "Ġ-->": 2191,
      "Ġpower": 2192,
      "ĠJapan": 2193,
      "Ġz": 2194,
      "ently": 2195,
      "Ġparam": 2196,
      "Ġview": 2197,
      "config": 2198,
      "ison": 2199,
      "ugg": 2200,
      "table": 2201,
      "ait": 2202,
      "Att": 2203,
      "Ġband": 2204,
      "ession": 2205,
      "Ġalign": 2206,
      "writ": 2207,
      "ries": 2208,
      "ively": 2209,
      "Ġmen": 2210,
      "Ġmust": 2211,
      "Context": 2212,
      "Ġvill": 2213,
      "ĠSup": 2214,
      "ware": 2215,
      "ttp": 2216,
      "rest": 2217,
      "Ġgames": 2218,
      "ainer": 2219,
      "dom": 2220,
      "Ġtarget": 2221,
      "ford": 2222,
      "ĠAir": 2223,
      "Field": 2224,
      "ploy": 2225,
      "aul": 2226,
      "Ġgood": 2227,
      "ories": 2228,
      "ociation": 2229,
      "ĠHigh": 2230,
      "length": 2231,
      "Ġtake": 2232,
      "ĠAfric": 2233,
      "Ġchang": 2234,
      "Ġincre": 2235,
      "Code": 2236,
      "void": 2237,
      "Ġinformation": 2238,
      "ones": 2239,
      "Ġposs": 2240,
      "eder": 2241,
      "icon": 2242,
      "nder": 2243,
      "eters": 2244,
      "ances": 2245,
      "bl": 2246,
      "comp": 2247,
      "2005": 2248,
      "conom": 2249,
      "ĠSer": 2250,
      "Ġhistory": 2251,
      "Ġdue": 2252,
      "amespace": 2253,
      "Ġ()": 2254,
      "Ġreceived": 2255,
      "ought": 2256,
      "ĠThere": 2257,
      "includ": 2258,
      "Ġwant": 2259,
      "alt": 2260,
      "Ġchildren": 2261,
      "Ġnational": 2262,
      "Array": 2263,
      "ĠEn": 2264,
      "Ġsom": 2265,
      "acy": 2266,
      "ĠRuss": 2267,
      "ĠĠĠĠĠĠĠĠĠĠĠĠĠĠĠĠĠĠĠĠĠĠĠĠĠĠĠ": 2268,
      "icle": 2269,
      "Ġcamp": 2270,
      "ailable": 2271,
      "Service": 2272,
      "Wh": 2273,
      "Is": 2274,
      "reet": 2275,
      "ĠSystem": 2276,
      "ĠHer": 2277,
      "ks": 2278,
      "ĠList": 2279,
      "aff": 2280,
      "Ġestablished": 2281,
      "ender": 2282,
      "UR": 2283,
      "Ġ(!": 2284,
      "Ġdiv": 2285,
      "Ġlocated": 2286,
      "Ġ/*": 2287,
      "fin": 2288,
      "Ġtyp": 2289,
      "####": 2290,
      "evel": 2291,
      "ured": 2292,
      "New": 2293,
      "dt": 2294,
      "2020": 2295,
      "Ġfail": 2296,
      "lobal": 2297,
      "Ġprofess": 2298,
      "urther": 2299,
      "Ġbusiness": 2300,
      "ĠEast": 2301,
      "ops": 2302,
      "plication": 2303,
      "Ġarray": 2304,
      "Ġerror": 2305,
      "oph": 2306,
      "ags": 2307,
      "Ġlog": 2308,
      "ning": 2309,
      "aged": 2310,
      "****************": 2311,
      "ĠCollege": 2312,
      "olic": 2313,
      "ĠLondon": 2314,
      "ald": 2315,
      "alf": 2316,
      "âĢĶ": 2317,
      "Ġep": 2318,
      "title": 2319,
      "ift": 2320,
      "artment": 2321,
      "Ġbuilt": 2322,
      "ĠPark": 2323,
      "ots": 2324,
      "pen": 2325,
      "Ġposition": 2326,
      "ington": 2327,
      "word": 2328,
      "Build": 2329,
      "Result": 2330,
      "ending": 2331,
      "Ġspe": 2332,
      "error": 2333,
      "ponent": 2334,
      "ead": 2335,
      "Ġcomplet": 2336,
      "ouble": 2337,
      "ĠChar": 2338,
      "thers": 2339,
      "hem": 2340,
      "Ġdefault": 2341,
      "Comm": 2342,
      "igned": 2343,
      "apache": 2344,
      "aly": 2345,
      "lang": 2346,
      "Ġes": 2347,
      "ief": 2348,
      "requ": 2349,
      "Ġexpl": 2350,
      "map": 2351,
      "men": 2352,
      "Ġtry": 2353,
      "2004": 2354,
      "true": 2355,
      "Ġmatch": 2356,
      "ouncil": 2357,
      "ĠHowever": 2358,
      "ruction": 2359,
      "Ġwithout": 2360,
      "Ġpopulation": 2361,
      "Ġpublished": 2362,
      "Ġeduc": 2363,
      "Ġage": 2364,
      "';": 2365,
      "AD": 2366,
      "ĠDr": 2367,
      "lt": 2368,
      "Ġfore": 2369,
      "Ġcreate": 2370,
      "object": 2371,
      "place": 2372,
      "ught": 2373,
      "ules": 2374,
      "Ġmult": 2375,
      "pert": 2376,
      "ĠAmeric": 2377,
      "Ġlarge": 2378,
      "aining": 2379,
      "na": 2380,
      "Ġeffect": 2381,
      "Ġsix": 2382,
      "Ġdon": 2383,
      "ĠArt": 2384,
      "ĠWilliam": 2385,
      "urity": 2386,
      "ilitary": 2387,
      "ĠDav": 2388,
      "ĠRec": 2389,
      "from": 2390,
      "Ġ},": 2391,
      "Ġside": 2392,
      "Ġelection": 2393,
      "Ġtechn": 2394,
      "ĠFrench": 2395,
      "ope": 2396,
      "reate": 2397,
      "ummer": 2398,
      "Ġstation": 2399,
      "\"\"": 2400,
      "Ġfive": 2401,
      "hold": 2402,
      "body": 2403,
      "ension": 2404,
      "using": 2405,
      "ways": 2406,
      "earch": 2407,
      "Ġ});": 2408,
      "AS": 2409,
      "ĠGener": 2410,
      "ius": 2411,
      "ĠHouse": 2412,
      "ync": 2413,
      "eturn": 2414,
      "yd": 2415,
      "Ġair": 2416,
      "rown": 2417,
      "ume": 2418,
      "ĠCor": 2419,
      "assert": 2420,
      "Ġbreak": 2421,
      "ached": 2422,
      "Ð°": 2423,
      "Ġblock": 2424,
      "ĠComp": 2425,
      "Ġbeg": 2426,
      "Ġborn": 2427,
      "Ġcentury": 2428,
      "Ã³": 2429,
      "Ġtot": 2430,
      "Ġplayer": 2431,
      "ĠAng": 2432,
      "iction": 2433,
      "www": 2434,
      "Ġturn": 2435,
      "Ġreal": 2436,
      "Size": 2437,
      "isc": 2438,
      "Ġactiv": 2439,
      "Ġserved": 2440,
      "ĠCont": 2441,
      "Ġauthor": 2442,
      "Ġcharacter": 2443,
      "block": 2444,
      "UT": 2445,
      "ecut": 2446,
      "ĠBro": 2447,
      "Ġlate": 2448,
      "ĠLa": 2449,
      "ĠBo": 2450,
      ";&": 2451,
      "ours": 2452,
      "struct": 2453,
      "abled": 2454,
      "IG": 2455,
      "ĠChampionship": 2456,
      "result": 2457,
      "ced": 2458,
      "Ġwater": 2459,
      "state": 2460,
      "Ġthird": 2461,
      "ibr": 2462,
      "Ġcommand": 2463,
      "=\"../../../../": 2464,
      "ta": 2465,
      "Ġins": 2466,
      "Ġhere": 2467,
      "Ġke": 2468,
      "Of": 2469,
      "ĠSw": 2470,
      "Ġtrack": 2471,
      "='": 2472,
      "Ġcrit": 2473,
      "ights": 2474,
      "Ġfew": 2475,
      "inning": 2476,
      "era": 2477,
      "IS": 2478,
      "Ġrole": 2479,
      "ators": 2480,
      "31": 2481,
      "ridge": 2482,
      "ĠAg": 2483,
      "Ġcountry": 2484,
      "input": 2485,
      "lymp": 2486,
      "Ġdev": 2487,
      "attle": 2488,
      "aterial": 2489,
      "ĠÐ": 2490,
      "atures": 2491,
      "gress": 2492,
      "down": 2493,
      "fr": 2494,
      "45": 2495,
      "Ġenc": 2496,
      "Ġwar": 2497,
      "ĠMe": 2498,
      "LO": 2499,
      "though": 2500,
      "ĠIm": 2501,
      "Ġprevious": 2502,
      "Ġincluded": 2503,
      "Ġbuilding": 2504,
      "Ġlarg": 2505,
      "nection": 2506,
      "ittle": 2507,
      "ĠAct": 2508,
      "Loc": 2509,
      "ayer": 2510,
      "version": 2511,
      "Ġident": 2512,
      "arried": 2513,
      "////////": 2514,
      "prot": 2515,
      "oon": 2516,
      "Ġinc": 2517,
      "Ġtelevision": 2518,
      "35": 2519,
      "Ġbeh": 2520,
      "Message": 2521,
      "sw": 2522,
      "Ġca": 2523,
      "Ġelect": 2524,
      "model": 2525,
      "ĠDistrict": 2526,
      "Ġaff": 2527,
      "viron": 2528,
      "Hand": 2529,
      "Acc": 2530,
      "Ġcode": 2531,
      "ĠOff": 2532,
      "ged": 2533,
      "itive": 2534,
      "Ġperiod": 2535,
      "Ġarch": 2536,
      "[]": 2537,
      "ique": 2538,
      "create": 2539,
      "ĠPhil": 2540,
      "thing": 2541,
      "Ġfull": 2542,
      "ĠCup": 2543,
      "Ġkill": 2544,
      "âĢľ": 2545,
      ".âĢĿ": 2546,
      "emplate": 2547,
      "ĠBut": 2548,
      "ĠGerman": 2549,
      "info": 2550,
      "Ġcheck": 2551,
      "java": 2552,
      "agement": 2553,
      "Ġpath": 2554,
      "ems": 2555,
      "iber": 2556,
      "ĠInternational": 2557,
      "Ġhost": 2558,
      "ĠNor": 2559,
      "Ġspecies": 2560,
      "Ġuser": 2561,
      "ential": 2562,
      "pression": 2563,
      "Ġcontrol": 2564,
      "ÃŃ": 2565,
      ">&": 2566,
      "Ġequ": 2567,
      "annel": 2568,
      "ering": 2569,
      "gt": 2570,
      "};": 2571,
      "Ġvol": 2572,
      "Val": 2573,
      "ING": 2574,
      "70": 2575,
      "From": 2576,
      "ĠSch": 2577,
      "run": 2578,
      "Ġjava": 2579,
      "ĠPer": 2580,
      "ET": 2581,
      "Ġfac": 2582,
      "Ġ__": 2583,
      "ĠĠĊ": 2584,
      "Ġappear": 2585,
      "Ser": 2586,
      "188": 2587,
      "Ass": 2588,
      "2003": 2589,
      "uments": 2590,
      "Ġlim": 2591,
      "omin": 2592,
      "Ġcreated": 2593,
      "ML": 2594,
      "Ġflo": 2595,
      "Ġdocument": 2596,
      "olution": 2597,
      "android": 2598,
      "Ġpe": 2599,
      "Ġaccess": 2600,
      "box": 2601,
      "Ġdescribed": 2602,
      "adio": 2603,
      "rain": 2604,
      "iforn": 2605,
      "2001": 2606,
      "Ġcult": 2607,
      "++": 2608,
      "ED": 2609,
      "minist": 2610,
      "ĠBy": 2611,
      "Out": 2612,
      "node": 2613,
      "Ġlet": 2614,
      "ĠMich": 2615,
      "ails": 2616,
      "ites": 2617,
      "ĠSan": 2618,
      "ls": 2619,
      "iment": 2620,
      "content": 2621,
      "perties": 2622,
      "Ġsrc": 2623,
      "lient": 2624,
      "66": 2625,
      "default": 2626,
      "ama": 2627,
      "CH": 2628,
      "ux": 2629,
      "Ġsite": 2630,
      "ĠGet": 2631,
      "Ġdied": 2632,
      "ĠDes": 2633,
      "ico": 2634,
      "lete": 2635,
      "ĠEm": 2636,
      "width": 2637,
      "net": 2638,
      "ifornia": 2639,
      "orge": 2640,
      "De": 2641,
      "Ġtotal": 2642,
      "nect": 2643,
      "osed": 2644,
      "ĠAc": 2645,
      "atri": 2646,
      "ica": 2647,
      "Ã¼": 2648,
      "Group": 2649,
      "Ġdi": 2650,
      "Ġoften": 2651,
      "75": 2652,
      "point": 2653,
      "Ġcover": 2654,
      "lin": 2655,
      "Ġnorth": 2656,
      "ĠIndian": 2657,
      "sl": 2658,
      "Ġconfig": 2659,
      "Up": 2660,
      "ĠDep": 2661,
      "base": 2662,
      "MP": 2663,
      "ara": 2664,
      "Ġavailable": 2665,
      "Ġresearch": 2666,
      "ociety": 2667,
      "Ġmillion": 2668,
      "Ġinterest": 2669,
      "Ð¾": 2670,
      "2002": 2671,
      "Ġattack": 2672,
      "css": 2673,
      ",\"": 2674,
      "posed": 2675,
      "Ġconc": 2676,
      "ounced": 2677,
      "2021": 2678,
      "ability": 2679,
      "Ġfri": 2680,
      "US": 2681,
      "Ġtrad": 2682,
      "Ġinvest": 2683,
      "And": 2684,
      "Ġgen": 2685,
      "Ġstory": 2686,
      "Count": 2687,
      "ottom": 2688,
      "abor": 2689,
      "UN": 2690,
      "Ġmag": 2691,
      "ournal": 2692,
      "Reg": 2693,
      "print": 2694,
      "init": 2695,
      "ocr": 2696,
      "Ġamong": 2697,
      "onse": 2698,
      "Ġexample": 2699,
      "uel": 2700,
      "ĠSm": 2701,
      "ĉĉĉĉĉĉ": 2702,
      "align": 2703,
      "ĠTo": 2704,
      "Ġstat": 2705,
      "count": 2706,
      "Ġ===": 2707,
      "no": 2708,
      "refer": 2709,
      "Ad": 2710,
      "call": 2711,
      "ĠVal": 2712,
      "Ġson": 2713,
      "sm": 2714,
      "TD": 2715,
      "useum": 2716,
      "ither": 2717,
      "=\"#": 2718,
      "Color": 2719,
      "now": 2720,
      "include": 2721,
      "rec": 2722,
      "Ġspecial": 2723,
      "burg": 2724,
      "Manager": 2725,
      "ĠEngland": 2726,
      "Log": 2727,
      "Ġyoung": 2728,
      "irt": 2729,
      "tings": 2730,
      "Ġthink": 2731,
      "Ġant": 2732,
      "ĠDiv": 2733,
      "ĠRev": 2734,
      "Ġfeature": 2735,
      "ĠAustralia": 2736,
      "ULL": 2737,
      "90": 2738,
      "Model": 2739,
      "Rec": 2740,
      "Ġround": 2741,
      "Ġcell": 2742,
      "Ent": 2743,
      "Ġpres": 2744,
      "Ġcame": 2745,
      "oke": 2746,
      "ES": 2747,
      "ention": 2748,
      "ĠQu": 2749,
      "oyal": 2750,
      "ogn": 2751,
      "atter": 2752,
      "=\"../": 2753,
      "Trans": 2754,
      "ready": 2755,
      "--------------------------------": 2756,
      "Ġvillage": 2757,
      "vironment": 2758,
      "ĠCalifornia": 2759,
      "Ġresponse": 2760,
      "ĠRiver": 2761,
      "Pr": 2762,
      "lands": 2763,
      "Living": 2764,
      "ĠQue": 2765,
      "iol": 2766,
      "AB": 2767,
      "tes": 2768,
      "Ġchange": 2769,
      "History": 2770,
      "ĠOne": 2771,
      "Ġet": 2772,
      "Ġcommunity": 2773,
      "ael": 2774,
      "Ġcontext": 2775,
      "Ġtem": 2776,
      "context": 2777,
      "Ġstarted": 2778,
      "Ġaddress": 2779,
      "Ġhaving": 2780,
      "At": 2781,
      "Ġsay": 2782,
      "Ġevents": 2783,
      "label": 2784,
      "Ġgreat": 2785,
      "Ġcommon": 2786,
      "Inter": 2787,
      "eh": 2788,
      "oper": 2789,
      "Ġvideo": 2790,
      "Ġdevelopment": 2791,
      "bol": 2792,
      "Ġ};": 2793,
      "Ġtimes": 2794,
      "unk": 2795,
      "Ġsource": 2796,
      "People": 2797,
      "iff": 2798,
      "Ġdest": 2799,
      "Ġengine": 2800,
      "Ġparent": 2801,
      "avy": 2802,
      "Ġconf": 2803,
      "Ġsent": 2804,
      "ĠRepublic": 2805,
      "oice": 2806,
      "DO": 2807,
      "99": 2808,
      "Ġsouth": 2809,
      "Ġbecome": 2810,
      "55": 2811,
      "Ġbody": 2812,
      "Ġclaim": 2813,
      "ples": 2814,
      "package": 2815,
      "Ġcond": 2816,
      "reed": 2817,
      "34": 2818,
      "false": 2819,
      "ivil": 2820,
      "aps": 2821,
      ";</": 2822,
      "aper": 2823,
      "iddle": 2824,
      "start": 2825,
      "Fl": 2826,
      "ably": 2827,
      "ixed": 2828,
      "roller": 2829,
      "ĠParty": 2830,
      "Ġgeneral": 2831,
      "Ġled": 2832,
      "System": 2833,
      "Ġpri": 2834,
      "Ġgl": 2835,
      "Ġput": 2836,
      "idual": 2837,
      "Ġexist": 2838,
      "ĠAp": 2839,
      "ij": 2840,
      "Ġnever": 2841,
      "================": 2842,
      "Ġhistor": 2843,
      "ĠWhen": 2844,
      "web": 2845,
      "method": 2846,
      "Ph": 2847,
      "Ġnov": 2848,
      "ilar": 2849,
      "Ġinternational": 2850,
      "ĠWith": 2851,
      "Ap": 2852,
      "osp": 2853,
      "Ġprim": 2854,
      "Call": 2855,
      "rel": 2856,
      "uture": 2857,
      "Ġmiss": 2858,
      "1990": 2859,
      "Ġvari": 2860,
      "prov": 2861,
      "Property": 2862,
      "aken": 2863,
      "stand": 2864,
      "Ġless": 2865,
      "ising": 2866,
      "Ġborder": 2867,
      "valid": 2868,
      "Ġwritten": 2869,
      "IL": 2870,
      "Ġproduction": 2871,
      "ĠPort": 2872,
      "Ġwent": 2873,
      "Ġmoved": 2874,
      "Ġinput": 2875,
      "Ðµ": 2876,
      "Ġbas": 2877,
      "ĠIndia": 2878,
      "ĠAmerica": 2879,
      "ctor": 2880,
      "Ġinstance": 2881,
      "year": 2882,
      "Ġcolor": 2883,
      "Ġreturned": 2884,
      "BC": 2885,
      "ha": 2886,
      "Ġoptions": 2887,
      "define": 2888,
      "36": 2889,
      "oud": 2890,
      "ĠAcc": 2891,
      "Ġsold": 2892,
      "Ġinvolv": 2893,
      "ENT": 2894,
      "Comp": 2895,
      "Ġdays": 2896,
      "ala": 2897,
      "eger": 2898,
      "icro": 2899,
      "ifier": 2900,
      "Ġproperty": 2901,
      "ĠMon": 2902,
      "TH": 2903,
      "build": 2904,
      "style": 2905,
      "Ġtw": 2906,
      "Ġfem": 2907,
      "Ġfree": 2908,
      "Table": 2909,
      "with": 2910,
      "ĠPresident": 2911,
      "icular": 2912,
      "Ġofficial": 2913,
      "rant": 2914,
      "Ġu": 2915,
      "google": 2916,
      "Ġtable": 2917,
      "Bar": 2918,
      "ĠCour": 2919,
      "1999": 2920,
      "Ġaction": 2921,
      "Ġ:=": 2922,
      "39": 2923,
      "ĠRed": 2924,
      "NA": 2925,
      "We": 2926,
      "Ġannounced": 2927,
      "Ġindex": 2928,
      "embly": 2929,
      "ĠOlymp": 2930,
      "Ġmessage": 2931,
      "Ġda": 2932,
      "oto": 2933,
      "ertain": 2934,
      "Ġworks": 2935,
      "Ġfather": 2936,
      "User": 2937,
      "Client": 2938,
      "MA": 2939,
      "Sp": 2940,
      "Ġdistrict": 2941,
      "see": 2942,
      "ellow": 2943,
      "ips": 2944,
      "FA": 2945,
      "Ġmale": 2946,
      "bor": 2947,
      "Ġrange": 2948,
      ")</": 2949,
      "sequ": 2950,
      "nown": 2951,
      "ado": 2952,
      "ĠĠĠĠĠĠĠĠĠĠĠĠ": 2953,
      "option": 2954,
      "db": 2955,
      "44": 2956,
      "ĠSet": 2957,
      "ĠAward": 2958,
      "Ġwest": 2959,
      "Ġhold": 2960,
      "ocus": 2961,
      "Ġstd": 2962,
      "position": 2963,
      "38": 2964,
      "Ġmax": 2965,
      "Mod": 2966,
      "omb": 2967,
      "2022": 2968,
      "pty": 2969,
      "Ġpolitical": 2970,
      "quals": 2971,
      "utes": 2972,
      "Ġintro": 2973,
      "Query": 2974,
      "oney": 2975,
      "Ġcomb": 2976,
      "Ġsocial": 2977,
      "CE": 2978,
      "Ġvarious": 2979,
      "ĠFil": 2980,
      "ĠAnt": 2981,
      "Ġservices": 2982,
      "uit": 2983,
      "Arg": 2984,
      "ves": 2985,
      "acing": 2986,
      "ĠChurch": 2987,
      "Ġpract": 2988,
      "ges": 2989,
      "Ġproduct": 2990,
      "Ġgrad": 2991,
      "mark": 2992,
      "Ġrequire": 2993,
      "Ġepis": 2994,
      "flu": 2995,
      "After": 2996,
      "Gener": 2997,
      "doc": 2998,
      "irm": 2999,
      "event": 3000,
      "Ġgrow": 3001,
      "Ġear": 3002,
      "ables": 3003,
      "Ġindust": 3004,
      "roy": 3005,
      "Ġdeaths": 3006,
      "Ġnil": 3007,
      "han": 3008,
      "Ġmem": 3009,
      "Response": 3010,
      "ithub": 3011,
      "OT": 3012,
      "37": 3013,
      "ibrary": 3014,
      "argin": 3015,
      "ĠBer": 3016,
      "<!--": 3017,
      "Ð¸": 3018,
      "actory": 3019,
      "igation": 3020,
      "Ġob": 3021,
      "hib": 3022,
      "static": 3023,
      ">(": 3024,
      "ĠFrance": 3025,
      "rote": 3026,
      "Off": 3027,
      "Ġwin": 3028,
      "ĠCouncil": 3029,
      "ĠBr": 3030,
      "IP": 3031,
      "Ġtoo": 3032,
      "Fr": 3033,
      "But": 3034,
      "ĠGo": 3035,
      "ĠInt": 3036,
      "Ġaward": 3037,
      "Ġwhe": 3038,
      "Ġbackground": 3039,
      "Ġmer": 3040,
      "cle": 3041,
      "iers": 3042,
      "icense": 3043,
      "trans": 3044,
      "center": 3045,
      "itte": 3046,
      "Ġimportant": 3047,
      "book": 3048,
      "Ed": 3049,
      "gcolor": 3050,
      "Ġbool": 3051,
      "Ġstudents": 3052,
      "ills": 3053,
      "imate": 3054,
      "ename": 3055,
      "ĠBel": 3056,
      "ĠCanada": 3057,
      "Ġeast": 3058,
      "Ġsec": 3059,
      "itect": 3060,
      "istry": 3061,
      "ĠJames": 3062,
      "ĠStud": 3063,
      "Ġpoints": 3064,
      "ĠâĢĺ": 3065,
      "check": 3066,
      "ĠÃ": 3067,
      "Ġproduced": 3068,
      "Ġworking": 3069,
      "ymbol": 3070,
      "ĠDem": 3071,
      "65": 3072,
      "dev": 3073,
      "ĠArmy": 3074,
      "atab": 3075,
      "Ġoffer": 3076,
      "Override": 3077,
      "ĠGl": 3078,
      "Ġeconom": 3079,
      "idence": 3080,
      "Em": 3081,
      "ped": 3082,
      "ference": 3083,
      "itu": 3084,
      "Ġreview": 3085,
      "ĠĠĠĠĠĠĠĠĠĠ": 3086,
      "Ġresults": 3087,
      "Ġestablish": 3088,
      "Ġtoget": 3089,
      "atform": 3090,
      "itted": 3091,
      "Ġnetwork": 3092,
      "ago": 3093,
      "Ġregion": 3094,
      "erman": 3095,
      "Ġtogether": 3096,
      "ĠGeneral": 3097,
      "anish": 3098,
      "ĠStreet": 3099,
      "Ġproble": 3100,
      "finished": 3101,
      "Ġandroid": 3102,
      "Ġmaking": 3103,
      "Ġnode": 3104,
      "Ġpage": 3105,
      "Ġhalf": 3106,
      "Builder": 3107,
      "ĠPal": 3108,
      "Ġmeet": 3109,
      "187": 3110,
      "Ġide": 3111,
      "Ġindiv": 3112,
      "Ġcapt": 3113,
      "Ġlanguage": 3114,
      "ville": 3115,
      "inary": 3116,
      "Ġhuman": 3117,
      "iple": 3118,
      "ibility": 3119,
      "hand": 3120,
      "icy": 3121,
      "namespace": 3122,
      "ĠSec": 3123,
      "ĠSen": 3124,
      "ĠMor": 3125,
      "ĠRober": 3126,
      "ĠThese": 3127,
      "Ã¶": 3128,
      "oo": 3129,
      "Ġwebs": 3130,
      "core": 3131,
      "ĠClass": 3132,
      "Method": 3133,
      "ude": 3134,
      "ological": 3135,
      "ĠÂ": 3136,
      "fe": 3137,
      "Writ": 3138,
      "ĠMy": 3139,
      "Ġpay": 3140,
      "No": 3141,
      "ĠEuropean": 3142,
      "ormal": 3143,
      "github": 3144,
      "Ġanim": 3145,
      "Ġlow": 3146,
      "aur": 3147,
      "lease": 3148,
      "ĠRoman": 3149,
      "ĠThom": 3150,
      "ean": 3151,
      "48": 3152,
      "Ġdebut": 3153,
      "Ġbgcolor": 3154,
      "hel": 3155,
      "ĠPaul": 3156,
      "Sub": 3157,
      "Ġfund": 3158,
      "arning": 3159,
      "1980": 3160,
      "cer": 3161,
      "Ġalready": 3162,
      "Ġdecl": 3163,
      "ĠDavid": 3164,
      "Ġsw": 3165,
      "aign": 3166,
      "ĠNe": 3167,
      "Ġattempt": 3168,
      "icles": 3169,
      "1998": 3170,
      "Ġparticular": 3171,
      "itar": 3172,
      "ched": 3173,
      "ĠRich": 3174,
      "Ġhapp": 3175,
      "anies": 3176,
      "most": 3177,
      "Stream": 3178,
      "Ġsuper": 3179,
      "Ġcoll": 3180,
      "Ġgoing": 3181,
      "oe": 3182,
      "yles": 3183,
      "Ġacross": 3184,
      "Date": 3185,
      "SP": 3186,
      "ĠGeorge": 3187,
      "Ġvalues": 3188,
      "Ġpolitic": 3189,
      "ston": 3190,
      "Util": 3191,
      "sec": 3192,
      "Ġfurther": 3193,
      "sup": 3194,
      "Ġpresident": 3195,
      "next": 3196,
      "Ġlight": 3197,
      "Ġworked": 3198,
      "inner": 3199,
      "max": 3200,
      "ya": 3201,
      "cell": 3202,
      "query": 3203,
      "Ġstudy": 3204,
      "Ġmedia": 3205,
      "ids": 3206,
      "options": 3207,
      "ership": 3208,
      "atal": 3209,
      "rab": 3210,
      "board": 3211,
      "Ġrequired": 3212,
      "ĠMal": 3213,
      "Ġdisplay": 3214,
      "])": 3215,
      "Image": 3216,
      "Ġcost": 3217,
      "jav": 3218,
      "ett": 3219,
      "Ġindividual": 3220,
      "stitute": 3221,
      "Ġhealth": 3222,
      "efore": 3223,
      "null": 3224,
      "ients": 3225,
      "Ġrelease": 3226,
      "ĠGroup": 3227,
      "Ġproduc": 3228,
      "Ġappoint": 3229,
      "ependent": 3230,
      "Ġmilitary": 3231,
      "Ġrelations": 3232,
      "ĠAdd": 3233,
      "ĠĠĠĠĠĠĠĠĠĠĠĠĠĠĠĠĠĠĠĠĠĠĠĠĠĠĠĠĠĠĠ": 3234,
      "rup": 3235,
      "Ġpopular": 3236,
      "Ġonce": 3237,
      "unfinished": 3238,
      "Ġparty": 3239,
      "End": 3240,
      ",âĢĿ": 3241,
      "outhern": 3242,
      "Ġassoci": 3243,
      "ida": 3244,
      "ĠHol": 3245,
      "Ġaway": 3246,
      "eal": 3247,
      "Input": 3248,
      "01": 3249,
      "Ġimplement": 3250,
      "west": 3251,
      "Ġlive": 3252,
      "aker": 3253,
      "Ġparticip": 3254,
      "ns": 3255,
      "unicip": 3256,
      "1996": 3257,
      "Ġsimilar": 3258,
      "Ġprint": 3259,
      "Ġwrote": 3260,
      "Ġinstall": 3261,
      "Ġbeliev": 3262,
      "raz": 3263,
      "ĠDon": 3264,
      "Ġbig": 3265,
      "Ġhowever": 3266,
      "istic": 3267,
      "Ġfar": 3268,
      "Ġgroups": 3269,
      "ĠTest": 3270,
      "php": 3271,
      "Ġconsid": 3272,
      "ĠSk": 3273,
      "Ġroad": 3274,
      "ceed": 3275,
      "Met": 3276,
      "aries": 3277,
      "ĠDo": 3278,
      "lim": 3279,
      "Ġclose": 3280,
      "do": 3281,
      "Ġhttp": 3282,
      "Ġleast": 3283,
      "bit": 3284,
      "DI": 3285,
      "ĠAssociation": 3286,
      "Dis": 3287,
      "ging": 3288,
      "PI": 3289,
      "image": 3290,
      "Ġothers": 3291,
      "lib": 3292,
      "ĠDef": 3293,
      "cope": 3294,
      "alian": 3295,
      "aves": 3296,
      "vis": 3297,
      "gen": 3298,
      "iles": 3299,
      "Ġemploy": 3300,
      "Ġquest": 3301,
      "Ġlabel": 3302,
      "active": 3303,
      "ened": 3304,
      "ĠMark": 3305,
      "request": 3306,
      "dir": 3307,
      "anel": 3308,
      "ander": 3309,
      "ka": 3310,
      "ania": 3311,
      "ĠDivision": 3312,
      "ĠLaw": 3313,
      "iding": 3314,
      "ires": 3315,
      "Ġaccount": 3316,
      "ONT": 3317,
      "rian": 3318,
      "Ġsurv": 3319,
      "Ġdefe": 3320,
      "current": 3321,
      "ĠFirst": 3322,
      "Ġthough": 3323,
      "ĠNULL": 3324,
      "Ġrail": 3325,
      "ements": 3326,
      "reek": 3327,
      "ĠCenter": 3328,
      "ĠTrans": 3329,
      "client": 3330,
      "func": 3331,
      "Ġeither": 3332,
      "Ġlost": 3333,
      "verage": 3334,
      "iting": 3335,
      "1997": 3336,
      "Ġstrong": 3337,
      "ivity": 3338,
      "ashington": 3339,
      "](": 3340,
      "ĠBlack": 3341,
      "Ġadded": 3342,
      "arser": 3343,
      "ĠRoyal": 3344,
      "witch": 3345,
      "jo": 3346,
      "light": 3347,
      "Ġmarried": 3348,
      "Ġ->": 3349,
      "ĠNot": 3350,
      "mon": 3351,
      "zer": 3352,
      "Instance": 3353,
      "Ġjoined": 3354,
      "wood": 3355,
      "ĠChina": 3356,
      "ked": 3357,
      "Ġmove": 3358,
      "Ġmarket": 3359,
      "Ġspace": 3360,
      "ĠSim": 3361,
      "ili": 3362,
      "orage": 3363,
      "unn": 3364,
      "ĠUnion": 3365,
      "ĠMount": 3366,
      "cho": 3367,
      "ĠLou": 3368,
      "OS": 3369,
      "ql": 3370,
      "ĠMag": 3371,
      "ĠTra": 3372,
      "Ġblack": 3373,
      "rd": 3374,
      "urb": 3375,
      "Ġcollection": 3376,
      "arter": 3377,
      "ategory": 3378,
      "Ġmot": 3379,
      "Status": 3380,
      "ittee": 3381,
      "Ġdirector": 3382,
      "ĠGermany": 3383,
      "Ġmid": 3384,
      "Ġhard": 3385,
      "change": 3386,
      "NS": 3387,
      "Ġlo": 3388,
      "Ġrepl": 3389,
      "bserv": 3390,
      "ĠHall": 3391,
      "Act": 3392,
      "Base": 3393,
      "button": 3394,
      "1970": 3395,
      "Nav": 3396,
      "ĠMart": 3397,
      "Ġwebsite": 3398,
      "ĠSo": 3399,
      "Token": 3400,
      "Ġboolean": 3401,
      "sy": 3402,
      "Ġkeep": 3403,
      "ĠInter": 3404,
      "ken": 3405,
      "Ġprovided": 3406,
      "Ġcustom": 3407,
      "Ġ<<": 3408,
      "ounter": 3409,
      "ishing": 3410,
      "EL": 3411,
      "Ġable": 3412,
      "YPE": 3413,
      "uggest": 3414,
      "ply": 3415,
      "Ġareas": 3416,
      "gin": 3417,
      "Ġpast": 3418,
      "1995": 3419,
      "Ġplan": 3420,
      "dl": 3421,
      "CA": 3422,
      "âĢ¦": 3423,
      "oz": 3424,
      "ughter": 3425,
      "isl": 3426,
      "ĠAustralian": 3427,
      "FI": 3428,
      "Ġarr": 3429,
      "Ġphys": 3430,
      "Ġsignific": 3431,
      "ĠĠĠĠĠĠĠĠĠĠĠĠĠĠĠĠĠ": 3432,
      "eff": 3433,
      "atural": 3434,
      "page": 3435,
      "Ġopened": 3436,
      "ĠMet": 3437,
      "Ġteams": 3438,
      "Ġstatus": 3439,
      "ĠCourt": 3440,
      "Ġdate": 3441,
      "ĠMont": 3442,
      "Ġconsidered": 3443,
      "Ġsqu": 3444,
      "child": 3445,
      "atabase": 3446,
      "Ð½": 3447,
      "ĠSam": 3448,
      "Line": 3449,
      "Ġadminist": 3450,
      "Action": 3451,
      "Ġeducation": 3452,
      "elling": 3453,
      "EX": 3454,
      "Ġmean": 3455,
      "ĠArch": 3456,
      "ĠMusic": 3457,
      "49": 3458,
      "ĠTV": 3459,
      "Ġbi": 3460,
      "ranch": 3461,
      "Ġabove": 3462,
      "OP": 3463,
      "Ġfire": 3464,
      "Ġtre": 3465,
      "unch": 3466,
      "Ġdeg": 3467,
      "ria": 3468,
      "Ġoutput": 3469,
      "ilities": 3470,
      "adding": 3471,
      "Ġsepar": 3472,
      "ĠPe": 3473,
      "ĠRoad": 3474,
      "Ġprofessional": 3475,
      "Ġsound": 3476,
      "ication": 3477,
      "cis": 3478,
      "shire": 3479,
      "Ġred": 3480,
      "has": 3481,
      "array": 3482,
      "ĠDi": 3483,
      "Ġsuccessful": 3484,
      "aching": 3485,
      "Ġhon": 3486,
      "Ġbroad": 3487,
      "Ġreported": 3488,
      "Ġsongs": 3489,
      "mar": 3490,
      "atory": 3491,
      "asons": 3492,
      "unt": 3493,
      "liament": 3494,
      "host": 3495,
      "asket": 3496,
      "lor": 3497,
      "Ġrock": 3498,
      "Source": 3499,
      "Ġaddition": 3500,
      "umni": 3501,
      "ftware": 3502,
      "Ġpossible": 3503,
      "ĠUp": 3504,
      "args": 3505,
      "47": 3506,
      "ebug": 3507,
      "ani": 3508,
      "Ġlittle": 3509,
      "ouch": 3510,
      "ething": 3511,
      "Ġlength": 3512,
      "Ġchurch": 3513,
      "alys": 3514,
      "imum": 3515,
      "ena": 3516,
      "Ġwidth": 3517,
      "asc": 3518,
      "ugin": 3519,
      "OL": 3520,
      "Ġcome": 3521,
      "Ġfall": 3522,
      "Ġpress": 3523,
      "Ġinitial": 3524,
      "Ġbetter": 3525,
      "Ã¤": 3526,
      "1992": 3527,
      "Ġmaterial": 3528,
      "header": 3529,
      "Pos": 3530,
      "Ext": 3531,
      "Ġvot": 3532,
      "ĠUK": 3533,
      "Ġstop": 3534,
      "arts": 3535,
      "Ġalways": 3536,
      "ÑĤ": 3537,
      "esh": 3538,
      "Block": 3539,
      "amily": 3540,
      "ota": 3541,
      "CC": 3542,
      "Ġvict": 3543,
      "inese": 3544,
      "xy": 3545,
      "Ġaud": 3546,
      "Ġsays": 3547,
      "Ġseen": 3548,
      "clus": 3549,
      "ĠMex": 3550,
      "estival": 3551,
      "ĠMary": 3552,
      "Ġimage": 3553,
      "ming": 3554,
      "Null": 3555,
      "Ġmight": 3556,
      "Eng": 3557,
      "Ġfront": 3558,
      "ĠCompany": 3559,
      "1994": 3560,
      "ulated": 3561,
      "Ġperformance": 3562,
      "gr": 3563,
      "Ġmap": 3564,
      "Content": 3565,
      "ensive": 3566,
      "Ġjob": 3567,
      "medi": 3568,
      "element": 3569,
      "ĠWashington": 3570,
      "Ġrace": 3571,
      "Ġrow": 3572,
      "arian": 3573,
      "RA": 3574,
      "ĠAcadem": 3575,
      "andid": 3576,
      "Ġprovide": 3577,
      "App": 3578,
      "Ġcompleted": 3579,
      "If": 3580,
      "Ġwindow": 3581,
      "67": 3582,
      "Ġfeatures": 3583,
      "Component": 3584,
      "Ġcontinued": 3585,
      "otype": 3586,
      "atives": 3587,
      "Ġsett": 3588,
      "plit": 3589,
      "ĠDepartment": 3590,
      "({": 3591,
      "Oper": 3592,
      "CK": 3593,
      "ĠJack": 3594,
      "ĠPat": 3595,
      "ialog": 3596,
      "Ġcal": 3597,
      "asing": 3598,
      "185": 3599,
      "ribution": 3600,
      "Ġrecogn": 3601,
      "lector": 3602,
      "Ġcast": 3603,
      "Ġground": 3604,
      "tx": 3605,
      "ĠClub": 3606,
      "Ġoffice": 3607,
      "Ġinf": 3608,
      "ands": 3609,
      "Ġ\"\"\"": 3610,
      "((": 3611,
      "ula": 3612,
      "ĠCommun": 3613,
      "ycl": 3614,
      "iqu": 3615,
      "ĠĠĠĠĠĠĠĠĠĠĠĠĊ": 3616,
      "Ġaccept": 3617,
      "Ġvoc": 3618,
      "Ġrights": 3619,
      "xml": 3620,
      "Ġten": 3621,
      "ederal": 3622,
      "Ġinflu": 3623,
      "duce": 3624,
      "Ġvia": 3625,
      "Char": 3626,
      "la": 3627,
      "ĠSing": 3628,
      "[\"": 3629,
      "resp": 3630,
      "airs": 3631,
      "ĠDuring": 3632,
      "ÑĢ": 3633,
      "MS": 3634,
      "Ġliter": 3635,
      "Ġcontract": 3636,
      "rs": 3637,
      "cel": 3638,
      "Ġexpected": 3639,
      "Ġtaken": 3640,
      "....": 3641,
      "Cell": 3642,
      "ĠSociety": 3643,
      "Ġcompanies": 3644,
      "Ġcirc": 3645,
      "berg": 3646,
      "Ġpromot": 3647,
      "ailed": 3648,
      "Ġmonths": 3649,
      "Equal": 3650,
      "Ġlik": 3651,
      "izer": 3652,
      "Ġgot": 3653,
      "target": 3654,
      "0000": 3655,
      "ĠIsland": 3656,
      "Ġord": 3657,
      "Ġshows": 3658,
      "Ġsigned": 3659,
      "coming": 3660,
      "Ġexecut": 3661,
      "parent": 3662,
      "Ġpot": 3663,
      "Ġcross": 3664,
      "Ġreally": 3665,
      "Ġhimself": 3666,
      "overnor": 3667,
      "Ġtour": 3668,
      "ĠPri": 3669,
      "icial": 3670,
      "Ġprotected": 3671,
      "Ġstar": 3672,
      "json": 3673,
      "Ġcompos": 3674,
      "Resource": 3675,
      "idget": 3676,
      "aging": 3677,
      "Ġinstead": 3678,
      "ĠFrom": 3679,
      "ĠVir": 3680,
      "Ġwife": 3681,
      "EE": 3682,
      "udd": 3683,
      "Ġdeveloped": 3684,
      "ĠProv": 3685,
      "UE": 3686,
      "=#": 3687,
      "Ġitem": 3688,
      "known": 3689,
      "uz": 3690,
      "Ge": 3691,
      "Ġdone": 3692,
      "navbar": 3693,
      "itch": 3694,
      "1993": 3695,
      "stream": 3696,
      "ĠInstitute": 3697,
      "Ġindic": 3698,
      "ĠAngel": 3699,
      "height": 3700,
      "ĠMiss": 3701,
      "ĠHen": 3702,
      "append": 3703,
      "omet": 3704,
      "ĠGames": 3705,
      "Ġbar": 3706,
      "II": 3707,
      "igin": 3708,
      "ĠPress": 3709,
      "Ġincludes": 3710,
      "Us": 3711,
      "race": 3712,
      "Handler": 3713,
      "ĠTown": 3714,
      "Ġfight": 3715,
      "à¤": 3716,
      "spec": 3717,
      "Ġrespect": 3718,
      "ĉĊ": 3719,
      "Back": 3720,
      "rowser": 3721,
      "Ġder": 3722,
      "Ġviol": 3723,
      "REF": 3724,
      "Function": 3725,
      "Window": 3726,
      "ĠScott": 3727,
      "ĠBest": 3728,
      "Options": 3729,
      "Ġrespons": 3730,
      "ada": 3731,
      "rect": 3732,
      "ĠSl": 3733,
      "ributes": 3734,
      "btn": 3735,
      "ĠKingdom": 3736,
      "Run": 3737,
      "oved": 3738,
      "eck": 3739,
      "istics": 3740,
      "ĠAfrican": 3741,
      "undle": 3742,
      "Ġsuggest": 3743,
      "ocol": 3744,
      "Ġcampaign": 3745,
      "Ġele": 3746,
      "pite": 3747,
      "Be": 3748,
      "1960": 3749,
      "Ġmeas": 3750,
      "olit": 3751,
      "ĠMac": 3752,
      "ospital": 3753,
      "Ġsubject": 3754,
      "ĠTur": 3755,
      "Point": 3756,
      "ĠCanadian": 3757,
      "Ġnight": 3758,
      "loat": 3759,
      "ĠGr": 3760,
      "Attribute": 3761,
      "da": 3762,
      "Ġdouble": 3763,
      "ero": 3764,
      "ensus": 3765,
      "Ġvalid": 3766,
      "ini": 3767,
      "Task": 3768,
      "ĠCong": 3769,
      "ributed": 3770,
      "ĠIN": 3771,
      "Ġload": 3772,
      "05": 3773,
      "Ġstep": 3774,
      "Ġplaying": 3775,
      "ores": 3776,
      "ba": 3777,
      "ĠAlex": 3778,
      "Ġmeans": 3779,
      "ĠGreen": 3780,
      "Link": 3781,
      "Ġcur": 3782,
      "Ġ+=": 3783,
      "AG": 3784,
      "LASS": 3785,
      "ĠĠĠĠĠĠĠĠĊ": 3786,
      "ĠTex": 3787,
      "Ġphot": 3788,
      "Ġaverage": 3789,
      "Ġrecorded": 3790,
      "Ġmodern": 3791,
      "1991": 3792,
      "open": 3793,
      "Ġactive": 3794,
      "Ġentire": 3795,
      "Ġ(\"": 3796,
      "rl": 3797,
      "Ġtro": 3798,
      "ptr": 3799,
      "final": 3800,
      "Ġstage": 3801,
      "first": 3802,
      "erve": 3803,
      "There": 3804,
      "First": 3805,
      "Ġoption": 3806,
      "Ġnovel": 3807,
      "Ġfuture": 3808,
      "Ġcolumn": 3809,
      "Ġassist": 3810,
      "Ġwhite": 3811,
      "enced": 3812,
      "ĠAfrica": 3813,
      "band": 3814,
      "Ġmother": 3815,
      "500": 3816,
      "adata": 3817,
      "rael": 3818,
      "46": 3819,
      "property": 3820,
      "allet": 3821,
      "ĠCath": 3822,
      "Ġcenter": 3823,
      "Spec": 3824,
      "42": 3825,
      "Ġmar": 3826,
      "asketball": 3827,
      "Ġsignificant": 3828,
      "ĠRobert": 3829,
      "ona": 3830,
      "apter": 3831,
      "Ġdam": 3832,
      "Ġliving": 3833,
      "hood": 3834,
      "Ġcomput": 3835,
      "Ġinj": 3836,
      "Buffer": 3837,
      "alysis": 3838,
      "Ġpur": 3839,
      "ĠThat": 3840,
      "ection": 3841,
      "Ġtreat": 3842,
      "HE": 3843,
      "ĠLeg": 3844,
      "bb": 3845,
      "ĠVol": 3846,
      "ĠĠĠĠĠĠĠĠĠĠĠĠĠĠ": 3847,
      "uster": 3848,
      "ĠMuseum": 3849,
      "Ġfav": 3850,
      "ĠDemocr": 3851,
      "ĠDay": 3852,
      "chiev": 3853,
      ".)": 3854,
      "Ġcle": 3855,
      "imately": 3856,
      "ĠBook": 3857,
      "Factory": 3858,
      "Ġalbums": 3859,
      "uns": 3860,
      "08": 3861,
      "Ġdeterm": 3862,
      "Ġappeared": 3863,
      "ĠDel": 3864,
      "||": 3865,
      "stra": 3866,
      "ĠMichael": 3867,
      "ework": 3868,
      "ĠMad": 3869,
      "ĠSal": 3870,
      "Ġthought": 3871,
      "Ġkm": 3872,
      "ĠCons": 3873,
      "Ġpred": 3874,
      "level": 3875,
      "evelop": 3876,
      "ĠJapanese": 3877,
      "pass": 3878,
      "ĠGold": 3879,
      "case": 3880,
      "ĠGrand": 3881,
      "Ġhous": 3882,
      "07": 3883,
      "\").": 3884,
      "ecess": 3885,
      "post": 3886,
      "Ġbank": 3887,
      "Version": 3888,
      "Part": 3889,
      "Ġabs": 3890,
      "Ġdirected": 3891,
      "Ġrev": 3892,
      "Ġlove": 3893,
      "amples": 3894,
      "Ġclient": 3895,
      "ĠYear": 3896,
      "Ġqual": 3897,
      "Ġcurrently": 3898,
      "elt": 3899,
      "ĠCentral": 3900,
      "TO": 3901,
      "Ġresource": 3902,
      "ios": 3903,
      "Ġdeal": 3904,
      "ĠThomas": 3905,
      "flow": 3906,
      "Command": 3907,
      "Med": 3908,
      "irtual": 3909,
      "ĠHistor": 3910,
      "Ġelected": 3911,
      "Ġheight": 3912,
      "});": 3913,
      "ĠJust": 3914,
      "HT": 3915,
      "bert": 3916,
      "hi": 3917,
      "ervices": 3918,
      "Ġschools": 3919,
      "ises": 3920,
      "Start": 3921,
      "ĠRussian": 3922,
      "pack": 3923,
      "Ġcatch": 3924,
      "ĠDirect": 3925,
      "chema": 3926,
      "pected": 3927,
      "ĠReturn": 3928,
      "True": 3929,
      "Ġroom": 3930,
      "ictor": 3931,
      "ĠObject": 3932,
      "Ġconstruct": 3933,
      "Hel": 3934,
      "Ġwhether": 3935,
      "plied": 3936,
      "ĠJew": 3937,
      "Ġfounded": 3938,
      "Ġben": 3939,
      "edy": 3940,
      "ua": 3941,
      "member": 3942,
      "font": 3943,
      "Default": 3944,
      "ca": 3945,
      "amic": 3946,
      "Ġlocation": 3947,
      "hest": 3948,
      "Ġsection": 3949,
      "\"),": 3950,
      "ĠRecords": 3951,
      "Number": 3952,
      "Ġ...": 3953,
      "ĠBay": 3954,
      "ĠChristian": 3955,
      "Ġcharacters": 3956,
      "Ġarchitect": 3957,
      "sg": 3958,
      "rupt": 3959,
      "Ġill": 3960,
      "asy": 3961,
      "*/": 3962,
      "Ġsomething": 3963,
      "Style": 3964,
      "strong": 3965,
      "68": 3966,
      "VER": 3967,
      "inst": 3968,
      "Ġfriend": 3969,
      "Ġleague": 3970,
      "rish": 3971,
      "SC": 3972,
      "Prov": 3973,
      "ĠTom": 3974,
      "find": 3975,
      "Ġappointed": 3976,
      "acity": 3977,
      "erry": 3978,
      "Ġnames": 3979,
      "private": 3980,
      "ĠSub": 3981,
      "ĠAcademy": 3982,
      "Ġcopy": 3983,
      "Ġopt": 3984,
      "ros": 3985,
      "rey": 3986,
      "Ġbirth": 3987,
      "bottom": 3988,
      "uses": 3989,
      "src": 3990,
      "ĠZeal": 3991,
      "ournament": 3992,
      "Ġsil": 3993,
      "aches": 3994,
      "module": 3995,
      "ocket": 3996,
      "Ġdiff": 3997,
      "iler": 3998,
      "Ġ{@": 3999,
      "Ġeight": 4000,
      "ĠWestern": 4001,
      "ĠDis": 4002,
      "can": 4003,
      "Ġtax": 4004,
      "range": 4005,
      "1989": 4006,
      "ĠRail": 4007,
      "Ġchanges": 4008,
      "ramework": 4009,
      "Ġbox": 4010,
      "ĠService": 4011,
      "ypes": 4012,
      "ĠZealand": 4013,
      "Ġdom": 4014,
      "Co": 4015,
      "OD": 4016,
      "ĠWhite": 4017,
      "azine": 4018,
      "img": 4019,
      "Ġgoal": 4020,
      "Ġpolice": 4021,
      "Ġcou": 4022,
      "ATE": 4023,
      "Ġstri": 4024,
      "Ġgradu": 4025,
      "iation": 4026,
      "Ġgr": 4027,
      "ĠOut": 4028,
      "Ġdraw": 4029,
      "Ġter": 4030,
      "Ġsearch": 4031,
      "status": 4032,
      "encies": 4033,
      "Ġbelow": 4034,
      "Ñģ": 4035,
      "gle": 4036,
      "yth": 4037,
      "${": 4038,
      "part": 4039,
      "Ġformed": 4040,
      "Ġsaf": 4041,
      "Ġnav": 4042,
      "Ġgave": 4043,
      "eline": 4044,
      "Ġsex": 4045,
      "abs": 4046,
      "ĠSummer": 4047,
      "irection": 4048,
      "Ġfootballers": 4049,
      "ascript": 4050,
      "based": 4051,
      "thlet": 4052,
      "idents": 4053,
      "ĠNone": 4054,
      "meta": 4055,
      "Row": 4056,
      "ĠWeb": 4057,
      "ura": 4058,
      "ifact": 4059,
      "Ġcompon": 4060,
      "1988": 4061,
      "ĠTexas": 4062,
      "ĠCarol": 4063,
      "ĠChinese": 4064,
      "09": 4065,
      "Ġregular": 4066,
      "chan": 4067,
      "Ġformat": 4068,
      "Ġconduct": 4069,
      "ĠKore": 4070,
      "Ġfig": 4071,
      "pose": 4072,
      "sole": 4073,
      "Pre": 4074,
      "ĠItalian": 4075,
      "ĠVirgin": 4076,
      "PRO": 4077,
      "Ġspecific": 4078,
      "ĠNews": 4079,
      "Ġbooks": 4080,
      "Ġacqu": 4081,
      "obile": 4082,
      "ora": 4083,
      "gener": 4084,
      "ĠMinister": 4085,
      "aven": 4086,
      "heet": 4087,
      "ĠLouis": 4088,
      "Ġenvironment": 4089,
      "Ġgive": 4090,
      "Ġepisode": 4091,
      "Ġclear": 4092,
      "Ġtraining": 4093,
      "ĠCharles": 4094,
      "last": 4095,
      "Ġsports": 4096,
      "\"]": 4097,
      "atre": 4098,
      "ĠMer": 4099,
      "Ġdaughter": 4100,
      "Ġjud": 4101,
      "ĉĠĠĠ": 4102,
      "Ġmus": 4103,
      "ĠGreat": 4104,
      "Sup": 4105,
      "elete": 4106,
      "push": 4107,
      "Ġperformed": 4108,
      "oding": 4109,
      "Ġpers": 4110,
      "Label": 4111,
      "aring": 4112,
      "Ġprob": 4113,
      "rated": 4114,
      "Ġcertain": 4115,
      "reland": 4116,
      "ounds": 4117,
      "oring": 4118,
      "ĠApp": 4119,
      "Ġcourse": 4120,
      "Page": 4121,
      "Ġleading": 4122,
      "Ġsem": 4123,
      "entry": 4124,
      "ĠSome": 4125,
      "Ġrather": 4126,
      "Ġdesigned": 4127,
      "Ġguitar": 4128,
      "ĠEar": 4129,
      "Return": 4130,
      "Ġens": 4131,
      "Ġthings": 4132,
      "Read": 4133,
      "Ġwriting": 4134,
      "ĠDan": 4135,
      "ĠPublic": 4136,
      "anced": 4137,
      "ĠHam": 4138,
      "lying": 4139,
      "cons": 4140,
      "ĠWork": 4141,
      "izing": 4142,
      "Ġradio": 4143,
      "write": 4144,
      "Ġrunning": 4145,
      "Ġcut": 4146,
      "rows": 4147,
      "Ġalumni": 4148,
      "alls": 4149,
      "ican": 4150,
      "Ġthrows": 4151,
      "iences": 4152,
      "Ġalthough": 4153,
      "Ġmount": 4154,
      "FONT": 4155,
      "Ġfollowed": 4156,
      "char": 4157,
      "merc": 4158,
      "Ġtask": 4159,
      "Ġneg": 4160,
      "Last": 4161,
      "ducation": 4162,
      "oul": 4163,
      "resh": 4164,
      "cret": 4165,
      "Ġrelig": 4166,
      "Ð¾Ð": 4167,
      "Can": 4168,
      "Ġnor": 4169,
      "Rep": 4170,
      "Ġfinished": 4171,
      "Equals": 4172,
      "Le": 4173,
      "background": 4174,
      "std": 4175,
      "Ġkind": 4176,
      "Ġmonth": 4177,
      "06": 4178,
      "ĠMus": 4179,
      "ams": 4180,
      "Ġhom": 4181,
      "ĠTri": 4182,
      "stract": 4183,
      "ye": 4184,
      "Ġcourt": 4185,
      "IM": 4186,
      "){": 4187,
      "like": 4188,
      "inition": 4189,
      "Ġselected": 4190,
      "02": 4191,
      "ĠWil": 4192,
      "Ġbring": 4193,
      "irl": 4194,
      "88": 4195,
      "road": 4196,
      "ĠGod": 4197,
      "Ġnews": 4198,
      "Check": 4199,
      "Ġcoach": 4200,
      "UI": 4201,
      "Ġwriter": 4202,
      "BA": 4203,
      "Ġdram": 4204,
      "aud": 4205,
      "display": 4206,
      "Ġelements": 4207,
      "dr": 4208,
      "Ġpain": 4209,
      "Ġoccur": 4210,
      "1987": 4211,
      "Ġupon": 4212,
      "olf": 4213,
      "})": 4214,
      "Ġmargin": 4215,
      "Ġmass": 4216,
      "Ġpark": 4217,
      "Ġtalk": 4218,
      "pped": 4219,
      "Ġconsist": 4220,
      "Ġconv": 4221,
      "ĠBill": 4222,
      "Ġaccording": 4223,
      "Ġoperation": 4224,
      "agn": 4225,
      "GL": 4226,
      "isk": 4227,
      "Ġvers": 4228,
      "Create": 4229,
      "Ġmoney": 4230,
      "Ġkilled": 4231,
      "Ġstream": 4232,
      "Ġperm": 4233,
      "bour": 4234,
      "uest": 4235,
      "Ġcred": 4236,
      "Ġclos": 4237,
      "ii": 4238,
      "Ġcontinue": 4239,
      "Ġfeel": 4240,
      "Ġamount": 4241,
      "Am": 4242,
      "ĠTor": 4243,
      "Ġbehind": 4244,
      "Ġboard": 4245,
      "Ġstates": 4246,
      "ĉĉĉĉĉĉĉĉ": 4247,
      "Ġmultiple": 4248,
      "Ab": 4249,
      "ircraft": 4250,
      "ĠOlympics": 4251,
      "Ġearli": 4252,
      "Ġconstruction": 4253,
      "language": 4254,
      "aled": 4255,
      "ĠBen": 4256,
      "description": 4257,
      "ufact": 4258,
      "Ġ($": 4259,
      "Ġtoday": 4260,
      "ĠFootball": 4261,
      "ABLE": 4262,
      "ilies": 4263,
      "ĠFore": 4264,
      "istan": 4265,
      "Ġdiscover": 4266,
      "iant": 4267,
      "Ġbuildings": 4268,
      "04": 4269,
      "Child": 4270,
      "ĠChe": 4271,
      "Ġinvolved": 4272,
      "Format": 4273,
      "Ġplaces": 4274,
      "oma": 4275,
      "Ġassociated": 4276,
      "endif": 4277,
      "close": 4278,
      "och": 4279,
      "igital": 4280,
      "Ġextends": 4281,
      "Ġcandid": 4282,
      "ĠOpen": 4283,
      "Per": 4284,
      "Bl": 4285,
      "grad": 4286,
      "Ġtravel": 4287,
      "Ġthroughout": 4288,
      "menu": 4289,
      "pc": 4290,
      "Ġloss": 4291,
      "ĠSuper": 4292,
      "ulture": 4293,
      "Ġjournal": 4294,
      "Ġcontains": 4295,
      "Ġsaw": 4296,
      "ynt": 4297,
      "ĠSmith": 4298,
      "Ġcountries": 4299,
      "Ġbit": 4300,
      "Ġscreen": 4301,
      "Ġfemale": 4302,
      "Ġindustry": 4303,
      "Ġinternal": 4304,
      "agon": 4305,
      "Mar": 4306,
      "Ġsitu": 4307,
      "77": 4308,
      "ĠFrancis": 4309,
      "rief": 4310,
      "format": 4311,
      "Ġforce": 4312,
      "heast": 4313,
      "SON": 4314,
      "ias": 4315,
      "porary": 4316,
      "idden": 4317,
      "ĠRob": 4318,
      "Ġalmost": 4319,
      "Ġtransfer": 4320,
      "(&": 4321,
      "Ġenough": 4322,
      "Filter": 4323,
      "project": 4324,
      "NO": 4325,
      "You": 4326,
      "arned": 4327,
      "ells": 4328,
      "imal": 4329,
      "Ġoutside": 4330,
      "ube": 4331,
      "Ġfa": 4332,
      "Ġglobal": 4333,
      "Ġchanged": 4334,
      "Ġfood": 4335,
      "Web": 4336,
      "1986": 4337,
      "}}": 4338,
      "Ġeffort": 4339,
      "Ġconsider": 4340,
      "Ġallowed": 4341,
      "Ġrelationship": 4342,
      "apping": 4343,
      "verse": 4344,
      "section": 4345,
      "ĠEv": 4346,
      "TP": 4347,
      "1984": 4348,
      "ãģ": 4349,
      "styles": 4350,
      "ancial": 4351,
      "UM": 4352,
      "Ġitself": 4353,
      "Ġsystems": 4354,
      "Ġseven": 4355,
      "Ġship": 4356,
      "Ġsat": 4357,
      "ĠJose": 4358,
      "Box": 4359,
      "server": 4360,
      "Ġcivil": 4361,
      "Ġsen": 4362,
      "Ġurl": 4363,
      "43": 4364,
      "41": 4365,
      "Ġissues": 4366,
      "ĠHREF": 4367,
      "///": 4368,
      "icago": 4369,
      "Ġartists": 4370,
      "rypt": 4371,
      "Ġtit": 4372,
      "Ġ((": 4373,
      "Ġlargest": 4374,
      "Ġadditional": 4375,
      "Ġuns": 4376,
      "Ġstaff": 4377,
      "stant": 4378,
      "Ġfailed": 4379,
      "javascript": 4380,
      "ĠPeter": 4381,
      "za": 4382,
      "Ġachiev": 4383,
      "Ġstructure": 4384,
      "Ġpersonal": 4385,
      "Ġmakes": 4386,
      "layout": 4387,
      "Ġprote": 4388,
      "gl": 4389,
      "mit": 4390,
      "vention": 4391,
      "ĠRichard": 4392,
      "1985": 4393,
      "select": 4394,
      "ĠMod": 4395,
      "obj": 4396,
      "Ġyet": 4397,
      "Det": 4398,
      "03": 4399,
      "ĠHistory": 4400,
      "ĠParis": 4401,
      "local": 4402,
      "ĠIsrael": 4403,
      "Ġsus": 4404,
      "Ġpercent": 4405,
      "Column": 4406,
      "Ġlower": 4407,
      "orial": 4408,
      "Ġparts": 4409,
      "Ġge": 4410,
      "track": 4411,
      "Ġver": 4412,
      "ĠOper": 4413,
      "utions": 4414,
      "Men": 4415,
      "Ġimm": 4416,
      "alle": 4417,
      "ades": 4418,
      "Ġplant": 4419,
      "Ġdiscuss": 4420,
      "Ġinstit": 4421,
      "eve": 4422,
      "95": 4423,
      "Ġauto": 4424,
      "Ġexperience": 4425,
      "eds": 4426,
      "atin": 4427,
      "Ġste": 4428,
      "Ġupdate": 4429,
      "ĠCatholic": 4430,
      "One": 4431,
      "annot": 4432,
      "Layout": 4433,
      "ĠFound": 4434,
      "INT": 4435,
      "Ġcases": 4436,
      "Button": 4437,
      "Ġobserv": 4438,
      "Ġwhose": 4439,
      "Ġissue": 4440,
      "uan": 4441,
      "Ġhit": 4442,
      "Ġlot": 4443,
      "Ġ<!--": 4444,
      "Ġforces": 4445,
      "aml": 4446,
      "ein": 4447,
      "rea": 4448,
      "olk": 4449,
      "filter": 4450,
      "ĠCamp": 4451,
      "Ġregard": 4452,
      "ita": 4453,
      "po": 4454,
      "illa": 4455,
      "ĠScot": 4456,
      "ĠTechn": 4457,
      "Ġunit": 4458,
      "Ġhor": 4459,
      "Ġbr": 4460,
      "Listener": 4461,
      "ario": 4462,
      "ĠHill": 4463,
      "pecially": 4464,
      "ĠFrank": 4465,
      "FL": 4466,
      "Ġtaking": 4467,
      "Ġstations": 4468,
      "Ġprior": 4469,
      "ĠLake": 4470,
      "Ġtypes": 4471,
      "Ġsuff": 4472,
      "ĠMel": 4473,
      "1950": 4474,
      "Ġpolicy": 4475,
      "Ġbrother": 4476,
      "ĠLos": 4477,
      "ĠWhile": 4478,
      "ĠFilm": 4479,
      "Work": 4480,
      "Ġreading": 4481,
      "ĠWomen": 4482,
      "Ġmunicip": 4483,
      ":</": 4484,
      "refix": 4485,
      "Ġflow": 4486,
      "ĠID": 4487,
      "igan": 4488,
      "ĠCommission": 4489,
      "ĠSpec": 4490,
      "Ġnone": 4491,
      "Ġconcern": 4492,
      "rial": 4493,
      "Controller": 4494,
      "mi": 4495,
      "ĠFlor": 4496,
      "antic": 4497,
      "ĠPan": 4498,
      "eria": 4499,
      "anta": 4500,
      "ĠFr": 4501,
      "eek": 4502,
      "aily": 4503,
      "Ġexpress": 4504,
      "Ġstandard": 4505,
      "ĠCLASS": 4506,
      "iance": 4507,
      "Ġreve": 4508,
      "Ġpassed": 4509,
      "Ġmedal": 4510,
      "Par": 4511,
      "len": 4512,
      "Ġcomplex": 4513,
      "FC": 4514,
      "mercial": 4515,
      "png": 4516,
      "58": 4517,
      "container": 4518,
      "people": 4519,
      "Ġdeb": 4520,
      "PC": 4521,
      "Output": 4522,
      "yr": 4523,
      "ĠInc": 4524,
      "Ġvisit": 4525,
      "ella": 4526,
      "Ġpick": 4527,
      "update": 4528,
      "ĠRem": 4529,
      "math": 4530,
      "urt": 4531,
      "Ġprimary": 4532,
      "response": 4533,
      "Ġwrite": 4534,
      "attr": 4535,
      "Ġmissing": 4536,
      "ĠLu": 4537,
      "ĠVictor": 4538,
      "Ġsequ": 4539,
      "ĠStar": 4540,
      "number": 4541,
      "ĠArg": 4542,
      "Ġden": 4543,
      "service": 4544,
      "69": 4545,
      "Ġunits": 4546,
      "ĠIreland": 4547,
      "ĠGeorg": 4548,
      "Ġreason": 4549,
      "Ġgold": 4550,
      "urd": 4551,
      "azz": 4552,
      "<?": 4553,
      "BU": 4554,
      "dep": 4555,
      "Ġcentral": 4556,
      "COL": 4557,
      "Ġcomplete": 4558,
      "ĠSpanish": 4559,
      "lood": 4560,
      "achine": 4561,
      "efined": 4562,
      "URL": 4563,
      "Ġener": 4564,
      "arily": 4565,
      "ylv": 4566,
      ";\"": 4567,
      "utch": 4568,
      "Ġusually": 4569,
      "ien": 4570,
      "ĠSur": 4571,
      "Ġrelated": 4572,
      "Ġexcept": 4573,
      "ockey": 4574,
      "Ġesc": 4575,
      "ND": 4576,
      "reference": 4577,
      "Ġobt": 4578,
      "very": 4579,
      "1983": 4580,
      "elebr": 4581,
      "////////////////": 4582,
      "Aut": 4583,
      "Ġspecified": 4584,
      "ĠAnn": 4585,
      "```": 4586,
      "icult": 4587,
      "ĠRock": 4588,
      "ĠScience": 4589,
      "params": 4590,
      "Ġreplaced": 4591,
      "rics": 4592,
      "ĠMass": 4593,
      "Ġartist": 4594,
      "creen": 4595,
      "Ġintroduced": 4596,
      "ao": 4597,
      "well": 4598,
      "anning": 4599,
      "olar": 4600,
      "'re": 4601,
      "Ġoperations": 4602,
      "egin": 4603,
      "Ġ]": 4604,
      "Ġuses": 4605,
      "ĠKh": 4606,
      "wise": 4607,
      "Ġcomment": 4608,
      "razil": 4609,
      "Ġentry": 4610,
      "oviet": 4611,
      "ola": 4612,
      "uation": 4613,
      "ether": 4614,
      "57": 4615,
      "Ġtransl": 4616,
      "Ġserver": 4617,
      "Ġhigher": 4618,
      "Ġir": 4619,
      "het": 4620,
      "ishop": 4621,
      "Ġteach": 4622,
      "TYPE": 4623,
      "Valid": 4624,
      "ĠForce": 4625,
      "Ġapplication": 4626,
      "idae": 4627,
      "Ã³n": 4628,
      "Ġmanagement": 4629,
      "ĠAccording": 4630,
      "IV": 4631,
      "AA": 4632,
      "IZ": 4633,
      "Length": 4634,
      "ĠPenn": 4635,
      "Ġface": 4636,
      "ERR": 4637,
      "remove": 4638,
      "Ġdefined": 4639,
      "When": 4640,
      "show": 4641,
      "Ġwoman": 4642,
      "Ġoriginally": 4643,
      "ils": 4644,
      "ano": 4645,
      "ĠResearch": 4646,
      "Ġtim": 4647,
      "instance": 4648,
      "ãĥ": 4649,
      "Ġculture": 4650,
      "ĠFin": 4651,
      "ĠTime": 4652,
      "ĠOrder": 4653,
      "adow": 4654,
      "nov": 4655,
      "Ġrad": 4656,
      "ĠCO": 4657,
      "1982": 4658,
      "ĠAssembly": 4659,
      "mt": 4660,
      "gn": 4661,
      "_{": 4662,
      "actions": 4663,
      "Mode": 4664,
      "rav": 4665,
      "soft": 4666,
      "ensions": 4667,
      "Ġdestroy": 4668,
      "Ġcapital": 4669,
      "mm": 4670,
      "ĠHenry": 4671,
      "Description": 4672,
      "Ġfont": 4673,
      "Address": 4674,
      "ĠHealth": 4675,
      "Fe": 4676,
      "AM": 4677,
      "umbers": 4678,
      "ĠEX": 4679,
      "ĠArts": 4680,
      "Ġveh": 4681,
      "Ġespecially": 4682,
      "ĠRef": 4683,
      "ĠForm": 4684,
      "Ġterms": 4685,
      "TV": 4686,
      "Ġmanager": 4687,
      "nel": 4688,
      "bon": 4689,
      "CODE": 4690,
      "elves": 4691,
      "Collection": 4692,
      "Ġpaint": 4693,
      "').": 4694,
      "Ġfrequ": 4695,
      "Ġneigh": 4696,
      "ĠCast": 4697,
      "She": 4698,
      "Ġfiles": 4699,
      "Ġsoon": 4700,
      "Ġnumer": 4701,
      "only": 4702,
      "59": 4703,
      "win": 4704,
      "Offset": 4705,
      "Ġword": 4706,
      "num": 4707,
      "respond": 4708,
      "Ġfeatured": 4709,
      "Ġsubsequ": 4710,
      "Ġimprov": 4711,
      "ĠBank": 4712,
      "Ġeventually": 4713,
      "ordin": 4714,
      "ĠVirginia": 4715,
      "ĠCr": 4716,
      "sd": 4717,
      "evelopment": 4718,
      "Ġcompetition": 4719,
      "ĠSecond": 4720,
      "CON": 4721,
      "foot": 4722,
      "ĠGovernment": 4723,
      "det": 4724,
      "ĠSwed": 4725,
      "Ġcollege": 4726,
      "standing": 4727,
      "ato": 4728,
      "1979": 4729,
      "ĠEmp": 4730,
      "Ġlisted": 4731,
      "ĠHel": 4732,
      "Ġstated": 4733,
      "Ġremained": 4734,
      "ĠCommittee": 4735,
      "Min": 4736,
      "ky": 4737,
      "Ġpurch": 4738,
      "Ġreached": 4739,
      "ĠChicago": 4740,
      "irit": 4741,
      "Ġchall": 4742,
      "Cache": 4743,
      "anger": 4744,
      "unit": 4745,
      "Ġtold": 4746,
      "Ġquick": 4747,
      "arr": 4748,
      "Dr": 4749,
      "oute": 4750,
      "ĠĠĠĠĠĠĠĠĠĠĠĠĠĠĠĠĠĠĠĠĠĠĠĠĠĠĠĠĠĠĠĠĠĠĠ": 4751,
      "Ġdecided": 4752,
      "Bundle": 4753,
      "Ġcritic": 4754,
      "Ġdoesn": 4755,
      "ĠAtl": 4756,
      "ĠCongress": 4757,
      "uid": 4758,
      "63": 4759,
      "Ġlines": 4760,
      "Ġpolitician": 4761,
      "ĠMexico": 4762,
      "reme": 4763,
      "Ġreturns": 4764,
      "ette": 4765,
      "Top": 4766,
      "ĠMo": 4767,
      "ĠIll": 4768,
      "Url": 4769,
      "where": 4770,
      "_.": 4771,
      "Ġsch": 4772,
      "ĠPre": 4773,
      "anned": 4774,
      "********************************": 4775,
      "Ġhousehold": 4776,
      "Ġdegree": 4777,
      "Port": 4778,
      "Ġprop": 4779,
      "Frame": 4780,
      "Ġdevice": 4781,
      "Ġsn": 4782,
      "Ġmodule": 4783,
      "Ġhours": 4784,
      "Update": 4785,
      "Ġpreviously": 4786,
      "Ġawarded": 4787,
      "ĠOF": 4788,
      "Ġeditor": 4789,
      "ensor": 4790,
      "Ġtakes": 4791,
      "Äģ": 4792,
      "Ġplatform": 4793,
      "Ã¨": 4794,
      "ental": 4795,
      "Ġscient": 4796,
      "Ġaircraft": 4797,
      "orpor": 4798,
      "Ġleader": 4799,
      "Ġsupported": 4800,
      "ãĤ": 4801,
      "ttps": 4802,
      "Ġclosed": 4803,
      "Ġexhib": 4804,
      "Ġreb": 4805,
      "Ġcallback": 4806,
      "1981": 4807,
      "ĠFlorida": 4808,
      "ĠAngeles": 4809,
      "Ġquestion": 4810,
      "Ġstore": 4811,
      "Ġstre": 4812,
      "Rem": 4813,
      "sych": 4814,
      "ĠOther": 4815,
      "room": 4816,
      "Ġbrought": 4817,
      "Ġmaint": 4818,
      "ĠAv": 4819,
      "ĠDev": 4820,
      "Early": 4821,
      "ĠType": 4822,
      "Types": 4823,
      "ĠLog": 4824,
      "Ag": 4825,
      "Ġfocus": 4826,
      "Ġnatural": 4827,
      "ĠItaly": 4828,
      "Tag": 4829,
      "ĠBase": 4830,
      "ĠBig": 4831,
      "allery": 4832,
      "izations": 4833,
      "km": 4834,
      "ĠFestival": 4835,
      "ĠPost": 4836,
      "weight": 4837,
      "Ġsure": 4838,
      "ĠHT": 4839,
      "olve": 4840,
      "Ġtool": 4841,
      "greg": 4842,
      "Ġball": 4843,
      "prototype": 4844,
      "Ġscored": 4845,
      "ĠRussia": 4846,
      "Ġche": 4847,
      "Ġbad": 4848,
      "ĠVer": 4849,
      "ĠParliament": 4850,
      "Ġfourth": 4851,
      "1972": 4852,
      "Ġplaced": 4853,
      "pha": 4854,
      "otal": 4855,
      "anda": 4856,
      "Ġtransport": 4857,
      "areer": 4858,
      "dat": 4859,
      "Ġproblem": 4860,
      "Ġexpand": 4861,
      "Ġroute": 4862,
      "long": 4863,
      "ĠAtt": 4864,
      "cy": 4865,
      "Ġrate": 4866,
      "output": 4867,
      "INE": 4868,
      "ulate": 4869,
      "Ġautom": 4870,
      "Ġbroadcast": 4871,
      "()->": 4872,
      "Ġreference": 4873,
      "ĠMore": 4874,
      "Ġhttps": 4875,
      "hedul": 4876,
      "Ġmom": 4877,
      "1976": 4878,
      "UP": 4879,
      "uge": 4880,
      "++)": 4881,
      "ki": 4882,
      "Ġsinger": 4883,
      "62": 4884,
      "61": 4885,
      "process": 4886,
      "ees": 4887,
      "Ġinterface": 4888,
      "ĠBuild": 4889,
      "Ġ[]": 4890,
      "Ġtechnology": 4891,
      "ĠLong": 4892,
      "Ġenergy": 4893,
      "Ġtournament": 4894,
      "ĠMil": 4895,
      "Ġactually": 4896,
      "Ġsoftware": 4897,
      "izes": 4898,
      "tool": 4899,
      "Ġmanufact": 4900,
      "uri": 4901,
      "Ġgrand": 4902,
      "Open": 4903,
      "=\"-": 4904,
      "abit": 4905,
      "Ġmovement": 4906,
      "Ġsecurity": 4907,
      "1978": 4908,
      "\\\"": 4909,
      "Ġestablishments": 4910,
      "Ġdu": 4911,
      "########": 4912,
      "ĠArray": 4913,
      "ugby": 4914,
      "Max": 4915,
      "unched": 4916,
      "Ġhot": 4917,
      "Notes": 4918,
      "inding": 4919,
      "yes": 4920,
      "Ġprinc": 4921,
      "78": 4922,
      "BS": 4923,
      "Ġtowards": 4924,
      "1974": 4925,
      "Ġconnection": 4926,
      "Ġinteg": 4927,
      "Provider": 4928,
      "Ġmethods": 4929,
      "IO": 4930,
      "Ġ!==": 4931,
      "Ġbeginning": 4932,
      "ĠOver": 4933,
      "Ġneeded": 4934,
      "strap": 4935,
      "Ġminutes": 4936,
      "ums": 4937,
      "support": 4938,
      ":\"": 4939,
      "ares": 4940,
      "ĉĠ": 4941,
      "Ġorganization": 4942,
      "Ġfamilies": 4943,
      "Track": 4944,
      "ighest": 4945,
      "ĠSqu": 4946,
      "ĠEnd": 4947,
      "itting": 4948,
      "else": 4949,
      "Ġwhole": 4950,
      "Ġdecision": 4951,
      "Ġcannot": 4952,
      "Ġnecess": 4953,
      "Vis": 4954,
      "ady": 4955,
      "ledge": 4956,
      "Ġlonger": 4957,
      "Ġwhy": 4958,
      "ih": 4959,
      "Ġruns": 4960,
      "ening": 4961,
      "window": 4962,
      "Ġapprox": 4963,
      "Ġbound": 4964,
      "ĠSat": 4965,
      "Ã§": 4966,
      "iller": 4967,
      "Pop": 4968,
      "1975": 4969,
      "ĠLicense": 4970,
      "cs": 4971,
      "Server": 4972,
      "ĠLoc": 4973,
      "pm": 4974,
      ">>": 4975,
      "iana": 4976,
      "Ġsomet": 4977,
      "=\"../../../../../": 4978,
      "lic": 4979,
      "Post": 4980,
      "ds": 4981,
      "Init": 4982,
      "Ġdoc": 4983,
      "ĠChampionships": 4984,
      "Ġbasketball": 4985,
      "rong": 4986,
      "require": 4987,
      "Ġshown": 4988,
      "reater": 4989,
      "ĠData": 4990,
      "ĠLand": 4991,
      "ĠDen": 4992,
      "mem": 4993,
      "ĠSaint": 4994,
      "Person": 4995,
      "classes": 4996,
      "ĠSeries": 4997,
      "eft": 4998,
      "CL": 4999,
      "main": 5000,
      "ĠRo": 5001,
      "Ġimmedi": 5002,
      "ĠSil": 5003,
      "ping": 5004,
      "ersey": 5005,
      "bes": 5006,
      "Ġscience": 5007,
      "uint": 5008,
      "Ġmatches": 5009,
      "essages": 5010,
      "Ġâ": 5011,
      "flict": 5012,
      "ĠTwo": 5013,
      "ĉĉĉĉĉĉĉ": 5014,
      "ĠDu": 5015,
      "Ġonline": 5016,
      "rapper": 5017,
      "ĠMa": 5018,
      "overs": 5019,
      "Ġsecret": 5020,
      "osh": 5021,
      "ERT": 5022,
      "portun": 5023,
      "iano": 5024,
      "Ġstudies": 5025,
      "ĠSecret": 5026,
      "ĠKe": 5027,
      "ĠIS": 5028,
      "ĠMem": 5029,
      "Ġshot": 5030,
      "utils": 5031,
      "1968": 5032,
      "Ġspent": 5033,
      "ipe": 5034,
      "Ġwriters": 5035,
      "erved": 5036,
      "Ġwalk": 5037,
      "tag": 5038,
      "kit": 5039,
      "ĠIts": 5040,
      "more": 5041,
      "Ġdifficult": 5042,
      "Ġprogress": 5043,
      "ĠField": 5044,
      "df": 5045,
      "1977": 5046,
      "common": 5047,
      "Ġpack": 5048,
      "returns": 5049,
      "arp": 5050,
      "Ġinterview": 5051,
      "NAME": 5052,
      "imary": 5053,
      "ecute": 5054,
      "Sl": 5055,
      "offset": 5056,
      "ech": 5057,
      "Ġemer": 5058,
      "iece": 5059,
      "cal": 5060,
      "ĠTour": 5061,
      "ĠDet": 5062,
      "ĠAwards": 5063,
      "Target": 5064,
      "house": 5065,
      "Entry": 5066,
      "older": 5067,
      "iÄ": 5068,
      "yan": 5069,
      "iro": 5070,
      "igger": 5071,
      "ĠOld": 5072,
      "dated": 5073,
      "Ġdro": 5074,
      "How": 5075,
      "98": 5076,
      "illed": 5077,
      "scope": 5078,
      "ĠBoard": 5079,
      "Ġarticle": 5080,
      "ATION": 5081,
      "Ġdidn": 5082,
      "Ġprovides": 5083,
      "Ġwords": 5084,
      "ĠLife": 5085,
      "ĠKn": 5086,
      "itude": 5087,
      "ĠPlay": 5088,
      "400": 5089,
      "boot": 5090,
      "ĠNavy": 5091,
      "Ġlikely": 5092,
      "ULT": 5093,
      "Width": 5094,
      "wait": 5095,
      "ĠOh": 5096,
      "ĠCam": 5097,
      "Ġproperties": 5098,
      "isions": 5099,
      "ci": 5100,
      "itory": 5101,
      "1973": 5102,
      "51": 5103,
      "Location": 5104,
      "anner": 5105,
      "break": 5106,
      "Ġfif": 5107,
      "ĠAPI": 5108,
      "ĠCD": 5109,
      "ĠRegister": 5110,
      "ecution": 5111,
      "andom": 5112,
      "ifying": 5113,
      "Ġobj": 5114,
      "ĠCarolina": 5115,
      "ĠBrown": 5116,
      "ĠPet": 5117,
      "ĠTimes": 5118,
      "py": 5119,
      "anged": 5120,
      "hent": 5121,
      "Ġsummer": 5122,
      "column": 5123,
      "Ġearlier": 5124,
      "Dev": 5125,
      "Ġfields": 5126,
      "Ġregist": 5127,
      "nes": 5128,
      "PO": 5129,
      "ĠCap": 5130,
      "itiz": 5131,
      "English": 5132,
      "Access": 5133,
      "ĠMr": 5134,
      "Bo": 5135,
      "artifact": 5136,
      "(_": 5137,
      "king": 5138,
      "ĠMur": 5139,
      "ĠFe": 5140,
      "inct": 5141,
      "Ġscore": 5142,
      "Tree": 5143,
      "Ġrecent": 5144,
      "Ġconditions": 5145,
      "Ġbenef": 5146,
      "ĠPeople": 5147,
      "Ġthreat": 5148,
      "Ġoccup": 5149,
      "ws": 5150,
      "Ġcelebr": 5151,
      "ims": 5152,
      "Ġtrade": 5153,
      "Ġlack": 5154,
      "Ġroot": 5155,
      "itation": 5156,
      "ĠTre": 5157,
      "Ġactress": 5158,
      "Ġpractice": 5159,
      "ĠMartin": 5160,
      "ja": 5161,
      "mas": 5162,
      "ĠUs": 5163,
      "ĠSee": 5164,
      "ĠMain": 5165,
      "isation": 5166,
      "Year": 5167,
      "1940": 5168,
      "ĠStep": 5169,
      "Ġwor": 5170,
      "1969": 5171,
      "Ġshare": 5172,
      "document": 5173,
      "Ġquery": 5174,
      "Ġlegal": 5175,
      "ali": 5176,
      "Ġcomes": 5177,
      "ingu": 5178,
      "ĠJo": 5179,
      "Ġuint": 5180,
      "icated": 5181,
      "1971": 5182,
      "Control": 5183,
      "QL": 5184,
      "DB": 5185,
      "attern": 5186,
      "ĠOl": 5187,
      "ĠPac": 5188,
      "Ġ**": 5189,
      "Ġsession": 5190,
      "adium": 5191,
      "ĠTim": 5192,
      "Ġfloat": 5193,
      "Ġcho": 5194,
      "ĠKar": 5195,
      "ny": 5196,
      "template": 5197,
      "ĠEr": 5198,
      "azon": 5199,
      "]);": 5200,
      "Ġmode": 5201,
      "Ġopening": 5202,
      "Ġtree": 5203,
      "Ġweb": 5204,
      "Ġplays": 5205,
      "Direct": 5206,
      "Ġincrease": 5207,
      "astic": 5208,
      "hr": 5209,
      "Ġactor": 5210,
      "ĠShow": 5211,
      "task": 5212,
      "bool": 5213,
      "Ġforward": 5214,
      "ĠOf": 5215,
      "ĠWales": 5216,
      "plications": 5217,
      "itz": 5218,
      "Ġedition": 5219,
      "'.": 5220,
      "ĠWood": 5221,
      "Ġstay": 5222,
      "oded": 5223,
      "ĠProfess": 5224,
      "mselves": 5225,
      "ĠEngine": 5226,
      "ylvania": 5227,
      "ollowing": 5228,
      "Ġrule": 5229,
      "Ġindependent": 5230,
      "Current": 5231,
      "Ġwinning": 5232,
      "pri": 5233,
      "1945": 5234,
      "Ġcop": 5235,
      "author": 5236,
      "fa": 5237,
      "Ġasked": 5238,
      "Ġselection": 5239,
      "Ġstudent": 5240,
      "asion": 5241,
      "Rel": 5242,
      "Ġvocals": 5243,
      "Ġnormal": 5244,
      "acter": 5245,
      "Ġdivision": 5246,
      "ĠBur": 5247,
      "Ġalt": 5248,
      "parse": 5249,
      "~~": 5250,
      "HO": 5251,
      "istance": 5252,
      "venue": 5253,
      "Ġpoet": 5254,
      "Ġdyn": 5255,
      "Ġtraditional": 5256,
      "'),": 5257,
      "etch": 5258,
      "Ġwood": 5259,
      "Ġneeds": 5260,
      "root": 5261,
      "ĠTer": 5262,
      "Op": 5263,
      "Parameter": 5264,
      "300": 5265,
      "Ġful": 5266,
      "Ġevidence": 5267,
      "arrow": 5268,
      "ĠGL": 5269,
      "Ġchannel": 5270,
      "Ġcause": 5271,
      "ĠNS": 5272,
      "Mon": 5273,
      "criptor": 5274,
      "97": 5275,
      "52": 5276,
      "AV": 5277,
      "Ġremove": 5278,
      "Ġacadem": 5279,
      "Ġthemselves": 5280,
      "mission": 5281,
      "Next": 5282,
      "Utils": 5283,
      "comes": 5284,
      "1930": 5285,
      "Process": 5286,
      "Ġfinally": 5287,
      "Ġsubs": 5288,
      "ĠTeam": 5289,
      "Enc": 5290,
      "ĠRos": 5291,
      "Ġprison": 5292,
      "Ġended": 5293,
      "Ġbehav": 5294,
      "ĠFort": 5295,
      "ĠIrish": 5296,
      "ĠBoy": 5297,
      "force": 5298,
      "Ġbre": 5299,
      "Ġfilter": 5300,
      "pes": 5301,
      "ĠBrazil": 5302,
      "den": 5303,
      "ĠUnder": 5304,
      "ĠAut": 5305,
      "Ġmiddle": 5306,
      "IGN": 5307,
      "enge": 5308,
      "Ġnative": 5309,
      "1967": 5310,
      "Ġbattle": 5311,
      "Ġmeeting": 5312,
      "ĠWhat": 5313,
      "depend": 5314,
      "Ġscript": 5315,
      "ĠLove": 5316,
      "ĠMost": 5317,
      "Ġproducts": 5318,
      "ĠRel": 5319,
      "Ġsometimes": 5320,
      "ĠLiber": 5321,
      "John": 5322,
      "ĠEducation": 5323,
      "Ġcontact": 5324,
      "Ġaltern": 5325,
      "ongs": 5326,
      "ĠLine": 5327,
      "Ġcoast": 5328,
      "ously": 5329,
      "gu": 5330,
      "ĠCre": 5331,
      "ĠSoviet": 5332,
      "Ġstrateg": 5333,
      "Ġseasons": 5334,
      "Ġvirtual": 5335,
      "ECT": 5336,
      "=\"../../../../../../": 5337,
      "56": 5338,
      "Ġinside": 5339,
      "ati": 5340,
      "Ġorigin": 5341,
      "Ġ;": 5342,
      "iring": 5343,
      "Ġgoals": 5344,
      "Ġstarting": 5345,
      "Ġbur": 5346,
      "Ġstudio": 5347,
      "Ġminor": 5348,
      "wide": 5349,
      "inet": 5350,
      "icient": 5351,
      "Ġmedical": 5352,
      "Career": 5353,
      "ĠArab": 5354,
      "ĠProvince": 5355,
      "KE": 5356,
      "ĠGen": 5357,
      "Load": 5358,
      "Dec": 5359,
      "Ġtrain": 5360,
      "Ġdirectly": 5361,
      "ĠBre": 5362,
      "atriate": 5363,
      "Ġconnect": 5364,
      "ĠSocial": 5365,
      "ixt": 5366,
      "Ġking": 5367,
      "Ġrepresented": 5368,
      "Entity": 5369,
      "El": 5370,
      "ĠRh": 5371,
      "imation": 5372,
      "Ġriver": 5373,
      "Ġdise": 5374,
      "Ġmusical": 5375,
      "Ġwhom": 5376,
      "Ġcommercial": 5377,
      "Ac": 5378,
      "ĠHot": 5379,
      "emporary": 5380,
      "ĠFile": 5381,
      "Ġmovie": 5382,
      "Lo": 5383,
      "Interface": 5384,
      "Ġproducer": 5385,
      "ansas": 5386,
      "match": 5387,
      "Sec": 5388,
      "Ġhum": 5389,
      "Ġlaunched": 5390,
      "Ġargs": 5391,
      "ctx": 5392,
      "1964": 5393,
      "ĠMos": 5394,
      "Ġhighest": 5395,
      "Ġwanted": 5396,
      "ĠScotland": 5397,
      "ĠChief": 5398,
      "Åį": 5399,
      "Ġsolid": 5400,
      "Module": 5401,
      "Ġincreased": 5402,
      "Ġopportun": 5403,
      "Configuration": 5404,
      "Ġbrand": 5405,
      "Ġconcept": 5406,
      "Ġtag": 5407,
      "issions": 5408,
      "ĠIran": 5409,
      "Ġ*)": 5410,
      "Ġmention": 5411,
      "ĠJim": 5412,
      "ĠSpace": 5413,
      "Ġeconomic": 5414,
      "expected": 5415,
      "ĠSir": 5416,
      "Ġattended": 5417,
      "Ġheart": 5418,
      "What": 5419,
      "ĠEmpire": 5420,
      "54": 5421,
      "ponents": 5422,
      "joy": 5423,
      "Ġidea": 5424,
      "Ġimpact": 5425,
      "Ġchampionship": 5426,
      "Unit": 5427,
      "ĠBas": 5428,
      "Ġlen": 5429,
      "ĠGar": 5430,
      "ĠNorthern": 5431,
      "Inst": 5432,
      "Ġparameter": 5433,
      "should": 5434,
      "nected": 5435,
      "ternet": 5436,
      "Ġactivities": 5437,
      "Ġprobably": 5438,
      "Record": 5439,
      "Ġ{}": 5440,
      "named": 5441,
      "Ġlimited": 5442,
      "Ġgovern": 5443,
      "wan": 5444,
      "card": 5445,
      "tree": 5446,
      "ĠÎ": 5447,
      "irls": 5448,
      "Ġwide": 5449,
      "Ġsort": 5450,
      "ĠMen": 5451,
      "Ġanti": 5452,
      "patch": 5453,
      "Ø§": 5454,
      "CD": 5455,
      "Search": 5456,
      "Ġmemory": 5457,
      "COLOR": 5458,
      "Other": 5459,
      "Ġthus": 5460,
      "Ġpen": 5461,
      "Case": 5462,
      "Ġphil": 5463,
      "ulations": 5464,
      "ampion": 5465,
      "gate": 5466,
      "rate": 5467,
      "Ġdead": 5468,
      "ĠJoseph": 5469,
      "inners": 5470,
      "icrosoft": 5471,
      "Ġchief": 5472,
      "token": 5473,
      "ĠHistoric": 5474,
      "Ġweeks": 5475,
      "resource": 5476,
      "ko": 5477,
      "Ġprevent": 5478,
      "Ġthing": 5479,
      "aka": 5480,
      "ervation": 5481,
      "Height": 5482,
      "Ġrules": 5483,
      "ĠBattle": 5484,
      "ĠColumb": 5485,
      "artifactId": 5486,
      "ultural": 5487,
      "ĠDirector": 5488,
      "Ġconvert": 5489,
      "ĠProject": 5490,
      "fort": 5491,
      "That": 5492,
      "./": 5493,
      "Members": 5494,
      "Ġdetails": 5495,
      "fit": 5496,
      "Ð°Ð": 5497,
      "ĠLibrary": 5498,
      "Exp": 5499,
      "ĠYoung": 5500,
      "Ġadapt": 5501,
      "cache": 5502,
      "mond": 5503,
      "ĠMP": 5504,
      "vest": 5505,
      "Ġmodels": 5506,
      "sylvania": 5507,
      "ĠSun": 5508,
      "Go": 5509,
      "Ġavoid": 5510,
      "iled": 5511,
      "ĠLee": 5512,
      "Art": 5513,
      "ĠHaw": 5514,
      "bin": 5515,
      "ĠValley": 5516,
      "Header": 5517,
      "draw": 5518,
      "ingle": 5519,
      "Ġrailway": 5520,
      "Ġwatch": 5521,
      "Ġrecords": 5522,
      "Container": 5523,
      "inds": 5524,
      "Ġreplace": 5525,
      "ĠFoundation": 5526,
      "1965": 5527,
      "Ġfinancial": 5528,
      "tra": 5529,
      "Ġagre": 5530,
      "53": 5531,
      "Ġwait": 5532,
      "Ġitems": 5533,
      "Ġmission": 5534,
      "Range": 5535,
      "sign": 5536,
      "Ġquarter": 5537,
      "ĠPo": 5538,
      "During": 5539,
      "Ġnewsp": 5540,
      "Local": 5541,
      "RI": 5542,
      "Ġextra": 5543,
      "ĠSund": 5544,
      "Ġvote": 5545,
      ";->": 5546,
      "Ġsimple": 5547,
      "ART": 5548,
      "1966": 5549,
      "Ġess": 5550,
      "Ġsurround": 5551,
      "nam": 5552,
      "ved": 5553,
      "Ġshoot": 5554,
      "Ġoffset": 5555,
      "Ġcensus": 5556,
      "Ġbuffer": 5557,
      "Ġisland": 5558,
      "ĠSpain": 5559,
      "Ġunique": 5560,
      "ĠDec": 5561,
      "Ġscope": 5562,
      "Films": 5563,
      "aa": 5564,
      "vey": 5565,
      "RL": 5566,
      "Ġinsp": 5567,
      "Ġcaused": 5568,
      "before": 5569,
      "control": 5570,
      "Ġsouthern": 5571,
      "ĠTop": 5572,
      "cd": 5573,
      "files": 5574,
      "buffer": 5575,
      "Ġprograms": 5576,
      "Ġdescription": 5577,
      "IZE": 5578,
      "inger": 5579,
      "Ġinstr": 5580,
      "Ġproblems": 5581,
      "Ġdeep": 5582,
      "ĠSy": 5583,
      "FO": 5584,
      "1920": 5585,
      "Ġnorthern": 5586,
      "Po": 5587,
      "Empty": 5588,
      "Ġsym": 5589,
      "Ġcoming": 5590,
      "ĠReturns": 5591,
      "Ġsend": 5592,
      "Ġselect": 5593,
      "Ġfarm": 5594,
      "Ġpotential": 5595,
      "oly": 5596,
      "ima": 5597,
      "gor": 5598,
      "MO": 5599,
      "Ġpattern": 5600,
      "Ġgenerally": 5601,
      "Ġnumbers": 5602,
      "Level": 5603,
      "Ġgrant": 5604,
      "kind": 5605,
      "Ġcard": 5606,
      "ying": 5607,
      "ĠMat": 5608,
      "\\\\": 5609,
      "mitted": 5610,
      "site": 5611,
      "ĠPak": 5612,
      "orning": 5613,
      "small": 5614,
      "Ġvert": 5615,
      "([": 5616,
      "ictionary": 5617,
      "ror": 5618,
      "\"))": 5619,
      "icture": 5620,
      "Ġparents": 5621,
      "ĠCreate": 5622,
      "Ġfriends": 5623,
      "ancy": 5624,
      "Ġgraph": 5625,
      "Ġleave": 5626,
      "hor": 5627,
      "ĠJun": 5628,
      "BO": 5629,
      "oral": 5630,
      "ĠCross": 5631,
      "Do": 5632,
      "Ġseem": 5633,
      "si": 5634,
      "ĠLin": 5635,
      "olicy": 5636,
      "border": 5637,
      "Http": 5638,
      "olid": 5639,
      "Ġdoing": 5640,
      "aria": 5641,
      "even": 5642,
      "'m": 5643,
      "equ": 5644,
      "Ġcharg": 5645,
      "Ġlevels": 5646,
      "drop": 5647,
      "Ġdefeated": 5648,
      "usband": 5649,
      "awa": 5650,
      "ĠJud": 5651,
      "Ġspeed": 5652,
      "Ne": 5653,
      "Ġrul": 5654,
      "space": 5655,
      "Connection": 5656,
      "airman": 5657,
      "ĠFinal": 5658,
      "Ident": 5659,
      "isher": 5660,
      "Ġfilename": 5661,
      "groupId": 5662,
      "stylesheet": 5663,
      "Ġexc": 5664,
      "Ġded": 5665,
      "Ġnoted": 5666,
      "dec": 5667,
      "Ġofficer": 5668,
      "Ġcollabor": 5669,
      "atrix": 5670,
      "Ġsaying": 5671,
      "Ġsurface": 5672,
      "My": 5673,
      "float": 5674,
      "ĠJournal": 5675,
      "sort": 5676,
      "real": 5677,
      "Ġowned": 5678,
      "Hash": 5679,
      "Ġentered": 5680,
      "undred": 5681,
      "arks": 5682,
      "ellig": 5683,
      "Ġque": 5684,
      "Ġforeign": 5685,
      "Ġremain": 5686,
      "enty": 5687,
      "87": 5688,
      "ĠFri": 5689,
      "osoph": 5690,
      "plete": 5691,
      "ĠSince": 5692,
      "ĠHon": 5693,
      "Callback": 5694,
      "ĠBritain": 5695,
      "Ev": 5696,
      "just": 5697,
      "orter": 5698,
      "%;": 5699,
      "API": 5700,
      "akers": 5701,
      "ennis": 5702,
      "Ġfoot": 5703,
      "Ġterrit": 5704,
      "erem": 5705,
      "Ġunion": 5706,
      "Copy": 5707,
      "TI": 5708,
      "Ġcommission": 5709,
      "Ġolder": 5710,
      "amm": 5711,
      "acc": 5712,
      "imated": 5713,
      "Ġmagazine": 5714,
      "Ġsenior": 5715,
      "TS": 5716,
      "inem": 5717,
      "ĠOffice": 5718,
      "ira": 5719,
      "Ġxml": 5720,
      "Ġobjects": 5721,
      "Ġdemon": 5722,
      "Ġcam": 5723,
      "ĠMax": 5724,
      "LI": 5725,
      "Ġlibrary": 5726,
      "Ġannual": 5727,
      "Settings": 5728,
      "Ġlegisl": 5729,
      "kin": 5730,
      "arriage": 5731,
      "ä¸": 5732,
      "dest": 5733,
      "inder": 5734,
      "Ġmechan": 5735,
      "Ġdrama": 5736,
      "ĠUk": 5737,
      "oration": 5738,
      "Ġparticularly": 5739,
      "ialize": 5740,
      "ĠCall": 5741,
      "aval": 5742,
      "TER": 5743,
      "ĠFred": 5744,
      "arden": 5745,
      "ĠGreek": 5746,
      "Ġ$(": 5747,
      "oston": 5748,
      "olved": 5749,
      "Write": 5750,
      "ĠPennsylvania": 5751,
      "Ġwid": 5752,
      "%%": 5753,
      "WE": 5754,
      "Ġcrick": 5755,
      "after": 5756,
      "itors": 5757,
      "Script": 5758,
      "ĠMatt": 5759,
      ">,": 5760,
      ")(": 5761,
      "osing": 5762,
      "Ġappearance": 5763,
      "ursor": 5764,
      "Ġanalysis": 5765,
      "tml": 5766,
      "Ġremains": 5767,
      "ĠOp": 5768,
      "iga": 5769,
      "Ġtransform": 5770,
      "ĠĠĠĠĠĠĠĠĠĠĠĠĠĠĠĠĠĠĠĠĠ": 5771,
      "env": 5772,
      "ador": 5773,
      "Ġapproximately": 5774,
      "Ġempty": 5775,
      "Ġlived": 5776,
      "Ġdrug": 5777,
      "Ġremoved": 5778,
      "():": 5779,
      "Ġturned": 5780,
      "ĠSar": 5781,
      "Position": 5782,
      "ĠWrit": 5783,
      "found": 5784,
      "omy": 5785,
      "Ġarmy": 5786,
      "ĠGame": 5787,
      "ynch": 5788,
      "SA": 5789,
      "''": 5790,
      "][": 5791,
      "Ġhandle": 5792,
      "ĠId": 5793,
      "VAL": 5794,
      "then": 5795,
      "Ġlarger": 5796,
      "96": 5797,
      "Ġmajority": 5798,
      "ĠGood": 5799,
      "Ġarm": 5800,
      "eta": 5801,
      "Ġmeaning": 5802,
      "Don": 5803,
      "ĠProgram": 5804,
      "va": 5805,
      "Ġpaper": 5806,
      "ĠAlthough": 5807,
      "graph": 5808,
      "witter": 5809,
      "aved": 5810,
      "ĠDE": 5811,
      "Ġquality": 5812,
      "Ġ::": 5813,
      "Thread": 5814,
      "ronic": 5815,
      "PECT": 5816,
      "hash": 5817,
      "rome": 5818,
      ":(": 5819,
      "Document": 5820,
      "ĠWal": 5821,
      "atively": 5822,
      "izont": 5823,
      "Results": 5824,
      "Ġswitch": 5825,
      "ĠDemocratic": 5826,
      "Ġexception": 5827,
      "gs": 5828,
      "ĠBul": 5829,
      "Ġarrest": 5830,
      "Ġexisting": 5831,
      "SH": 5832,
      "None": 5833,
      "ĠColor": 5834,
      "ĠLord": 5835,
      "rants": 5836,
      "debug": 5837,
      "DL": 5838,
      "Ġfederal": 5839,
      "ĠRE": 5840,
      "Ġeth": 5841,
      "mut": 5842,
      "ĠChild": 5843,
      "Ġetc": 5844,
      "Ġstories": 5845,
      "Ġlimit": 5846,
      "bury": 5847,
      "Ġcounty": 5848,
      "pid": 5849,
      "ĠTele": 5850,
      "lers": 5851,
      "elled": 5852,
      "Rev": 5853,
      "aters": 5854,
      "pop": 5855,
      "ĠIII": 5856,
      "Ġtemper": 5857,
      "device": 5858,
      "Ġcorrespond": 5859,
      "Ġbecoming": 5860,
      "CR": 5861,
      "Ġcentre": 5862,
      "ALL": 5863,
      "ĠAssert": 5864,
      "CP": 5865,
      "Ġadministr": 5866,
      "plicit": 5867,
      "Ġoverall": 5868,
      "Ġcalc": 5869,
      "Ġtheory": 5870,
      "Ġcomponent": 5871,
      "1962": 5872,
      "bootstrap": 5873,
      "iography": 5874,
      "ĠMap": 5875,
      "GB": 5876,
      "ĠÂ£": 5877,
      "pool": 5878,
      "Ġlives": 5879,
      "Ġsuc": 5880,
      "Mark": 5881,
      "Te": 5882,
      "Option": 5883,
      "Cal": 5884,
      "Sw": 5885,
      "imin": 5886,
      "Ġparameters": 5887,
      "onic": 5888,
      "agment": 5889,
      "Ġappears": 5890,
      "auth": 5891,
      "ĠCivil": 5892,
      "Ġcorrect": 5893,
      "ĠMedia": 5894,
      "ĠAsia": 5895,
      "Ġpartn": 5896,
      "ĠMot": 5897,
      "Red": 5898,
      "Ġpresented": 5899,
      "second": 5900,
      "\"));": 5901,
      "rip": 5902,
      "ĠName": 5903,
      "Ġactivity": 5904,
      "Ġraised": 5905,
      "Ġresources": 5906,
      "Project": 5907,
      "Change": 5908,
      "ugins": 5909,
      "del": 5910,
      "Str": 5911,
      "Ġgetting": 5912,
      "ACK": 5913,
      "ĠSouthern": 5914,
      "DIR": 5915,
      "ĠBob": 5916,
      "Ġign": 5917,
      "Properties": 5918,
      "Ġsingles": 5919,
      "conf": 5920,
      "Ġeas": 5921,
      "Å¡": 5922,
      "imb": 5923,
      "1963": 5924,
      "inois": 5925,
      "Que": 5926,
      "ads": 5927,
      "ĠConference": 5928,
      "Ġmulti": 5929,
      "Ġplans": 5930,
      "iform": 5931,
      "Ġstructures": 5932,
      "Ġdirection": 5933,
      "owers": 5934,
      "Json": 5935,
      "Font": 5936,
      "uing": 5937,
      "Ġelections": 5938,
      "uty": 5939,
      "Ġsymbol": 5940,
      "etts": 5941,
      "ĠMichigan": 5942,
      "Ġsets": 5943,
      "Ġcompl": 5944,
      "edia": 5945,
      "Ġpadding": 5946,
      "ĠJersey": 5947,
      "Ġcomputer": 5948,
      "Sim": 5949,
      "Ġscene": 5950,
      "Ġsetting": 5951,
      "UB": 5952,
      "Ġvictory": 5953,
      "Stat": 5954,
      "ker": 5955,
      "ĠGal": 5956,
      "85": 5957,
      "Ġemb": 5958,
      "Ġcollect": 5959,
      "enth": 5960,
      "Menu": 5961,
      "rang": 5962,
      "ĠRadio": 5963,
      "ython": 5964,
      "ĠCentre": 5965,
      "ĠRun": 5966,
      "Ġdepend": 5967,
      "Ġforms": 5968,
      "Ġprojects": 5969,
      "Ġmaster": 5970,
      "Match": 5971,
      "allow": 5972,
      "Ġhusband": 5973,
      "Ġlooking": 5974,
      "Ġforced": 5975,
      "ĠPrem": 5976,
      "89": 5977,
      "burgh": 5978,
      "lie": 5979,
      "Impl": 5980,
      "ĠCamb": 5981,
      "Ġfunctions": 5982,
      "ĠLuc": 5983,
      "oles": 5984,
      "Ġvoice": 5985,
      ":#": 5986,
      "86": 5987,
      "Params": 5988,
      "1944": 5989,
      "Integer": 5990,
      "Prot": 5991,
      "ĠCarl": 5992,
      "Ġseat": 5993,
      "MM": 5994,
      "Ġraise": 5995,
      "ĠDevelopment": 5996,
      "Ġdark": 5997,
      "rolled": 5998,
      "aling": 5999,
      "afe": 6000,
      "Ġcommunities": 6001,
      "Ġusers": 6002,
      "Ġactual": 6003,
      "Ġframe": 6004,
      "ĠJones": 6005,
      "Aust": 6006,
      "ĠOx": 6007,
      "72": 6008,
      "ĠMah": 6009,
      "Ġrecomm": 6010,
      "modal": 6011,
      "Ġfavor": 6012,
      "empty": 6013,
      "Ġflag": 6014,
      "endar": 6015,
      "Ġscale": 6016,
      "Dep": 6017,
      "imer": 6018,
      "anguages": 6019,
      "Ġtouch": 6020,
      "gypt": 6021,
      "ĠPacific": 6022,
      "Ġbatt": 6023,
      "Ġgrowth": 6024,
      "ĠEnter": 6025,
      "iders": 6026,
      "ĠCro": 6027,
      "Ġenjoy": 6028,
      "Ġjoin": 6029,
      "Ġmostly": 6030,
      "Ġfast": 6031,
      "ffic": 6032,
      "uts": 6033,
      "irmed": 6034,
      "ĠNetwork": 6035,
      "Ġreligious": 6036,
      "ĠSpring": 6037,
      "ĠInst": 6038,
      "Ġago": 6039,
      "isters": 6040,
      "ĠAsian": 6041,
      "ĠBG": 6042,
      "Ġdepartment": 6043,
      "ĠMov": 6044,
      "Ġsu": 6045,
      "Down": 6046,
      "Ġprep": 6047,
      "iÄĩ": 6048,
      "Ġrisk": 6049,
      "Ġbus": 6050,
      "ĠScottish": 6051,
      "apers": 6052,
      "ĠKey": 6053,
      "Ġnothing": 6054,
      "ĠWilliams": 6055,
      "Ġincome": 6056,
      "ested": 6057,
      "Ġalleg": 6058,
      "Ġpositive": 6059,
      "ensity": 6060,
      "Car": 6061,
      "Ġseparate": 6062,
      "Schema": 6063,
      "Ġtreatment": 6064,
      "ĠTro": 6065,
      "Ġreceive": 6066,
      "interface": 6067,
      "Dir": 6068,
      "AF": 6069,
      "Ġnature": 6070,
      "1961": 6071,
      "Ġcorn": 6072,
      "emic": 6073,
      "ila": 6074,
      "ĠIsl": 6075,
      "ĠQueen": 6076,
      "ĠAirport": 6077,
      "begin": 6078,
      "ading": 6079,
      "tab": 6080,
      "Ġweight": 6081,
      "Ġrepe": 6082,
      "Ġsea": 6083,
      "fect": 6084,
      "Session": 6085,
      "Ġallows": 6086,
      "So": 6087,
      "ĠTO": 6088,
      "Ġparams": 6089,
      "Ðº": 6090,
      "ulty": 6091,
      "ĠMiddle": 6092,
      "achus": 6093,
      "Ġcounter": 6094,
      "writer": 6095,
      "================================": 6096,
      "adel": 6097,
      "omic": 6098,
      "war": 6099,
      "NavBar": 6100,
      "Ġeffects": 6101,
      "Ġforest": 6102,
      "=\"_": 6103,
      "aya": 6104,
      "Sign": 6105,
      "ĠOhio": 6106,
      ")\"": 6107,
      "Operation": 6108,
      "Ġunivers": 6109,
      "bal": 6110,
      "izontal": 6111,
      "ĠCheck": 6112,
      "internal": 6113,
      "ĠGoogle": 6114,
      "white": 6115,
      "Ġnearly": 6116,
      "Ġremaining": 6117,
      "Ġhelped": 6118,
      "Ġ>=": 6119,
      "exp": 6120,
      "ĠWild": 6121,
      "leep": 6122,
      "clear": 6123,
      "car": 6124,
      "Ġpoor": 6125,
      "ĠLab": 6126,
      "Ġchem": 6127,
      "Pass": 6128,
      "ela": 6129,
      "Ġnine": 6130,
      "ĠHa": 6131,
      "Ptr": 6132,
      "Ġbass": 6133,
      "Ġuniversity": 6134,
      "ĠPhilipp": 6135,
      "ibly": 6136,
      "ski": 6137,
      "ĠReview": 6138,
      "address": 6139,
      "lem": 6140,
      "Ġprotect": 6141,
      "Ġarguments": 6142,
      "yer": 6143,
      "lad": 6144,
      "ĠKent": 6145,
      "gment": 6146,
      "Ġsociety": 6147,
      "rich": 6148,
      "ĠBlue": 6149,
      "Ġapproach": 6150,
      "XX": 6151,
      "255": 6152,
      "DD": 6153,
      "Ġthr": 6154,
      "ĠFI": 6155,
      "ĠST": 6156,
      "send": 6157,
      "ĠSpe": 6158,
      "ĠJewish": 6159,
      "Ġnumerous": 6160,
      "Ġfle": 6161,
      "erc": 6162,
      "ingham": 6163,
      "ipal": 6164,
      "Draw": 6165,
      "Ġchart": 6166,
      "ĠBow": 6167,
      "lines": 6168,
      "las": 6169,
      "Ġattribute": 6170,
      "ĠRam": 6171,
      "ĠJohnson": 6172,
      "mat": 6173,
      "ĠFrancisco": 6174,
      "{{": 6175,
      "1000": 6176,
      "1942": 6177,
      "Ġoil": 6178,
      "ĠTrump": 6179,
      "National": 6180,
      "ĠHome": 6181,
      "ova": 6182,
      "aret": 6183,
      "Ġtrying": 6184,
      "Ġvs": 6185,
      "Ġult": 6186,
      "abeth": 6187,
      "hens": 6188,
      "Ġoverride": 6189,
      "kins": 6190,
      "Ġowner": 6191,
      "msg": 6192,
      "ĠSand": 6193,
      "Ġrecently": 6194,
      "direct": 6195,
      "aws": 6196,
      "Ġreli": 6197,
      "Ġice": 6198,
      "ĠCorpor": 6199,
      "ĠAlb": 6200,
      "Ġletter": 6201,
      "ĠBusiness": 6202,
      "Ġinvestig": 6203,
      "PA": 6204,
      "Ġinitially": 6205,
      "Core": 6206,
      "rt": 6207,
      "Ġleaving": 6208,
      "Ġmut": 6209,
      "Ġcy": 6210,
      "Ġfun": 6211,
      "Ġsources": 6212,
      "ĠEdward": 6213,
      "Ġseek": 6214,
      "legal": 6215,
      "apse": 6216,
      "ĠTheatre": 6217,
      "rb": 6218,
      "Ġcolon": 6219,
      "frame": 6220,
      "term": 6221,
      "Ġincreasing": 6222,
      "ĠGeorgia": 6223,
      "Ġmur": 6224,
      "Rect": 6225,
      "achusetts": 6226,
      "etime": 6227,
      "Ġpoliticians": 6228,
      "ncy": 6229,
      "Ġjav": 6230,
      "Async": 6231,
      "fs": 6232,
      "enant": 6233,
      "Brit": 6234,
      "Ġheavy": 6235,
      "Ġfoc": 6236,
      "82": 6237,
      "Ġindividuals": 6238,
      "emp": 6239,
      "urban": 6240,
      "PL": 6241,
      "rib": 6242,
      "iger": 6243,
      "icate": 6244,
      "1956": 6245,
      "iminal": 6246,
      "ĠIllinois": 6247,
      "stone": 6248,
      "Ġinfo": 6249,
      "1959": 6250,
      "amin": 6251,
      "Ġability": 6252,
      "enger": 6253,
      "Ġsister": 6254,
      "ĠHand": 6255,
      "Ġpil": 6256,
      "ĠOR": 6257,
      "igen": 6258,
      "Ġcontain": 6259,
      "vas": 6260,
      "Ġvariety": 6261,
      "Ġcitiz": 6262,
      "ĠCard": 6263,
      "1958": 6264,
      "ominated": 6265,
      "Left": 6266,
      "Ġproposed": 6267,
      "Ġcouncil": 6268,
      "ĠEarth": 6269,
      "hedule": 6270,
      "Ġofficers": 6271,
      "ransp": 6272,
      "1948": 6273,
      "icker": 6274,
      "ĠDutch": 6275,
      "Ã±": 6276,
      "Ġdespite": 6277,
      "Ġdou": 6278,
      "Ġhospital": 6279,
      "Ġstudied": 6280,
      "Ġfootballer": 6281,
      "Ġq": 6282,
      "ĠPoland": 6283,
      "Ġactors": 6284,
      "ĠPop": 6285,
      "Ġsens": 6286,
      "Use": 6287,
      "iy": 6288,
      "Ġships": 6289,
      "Ġdemonstr": 6290,
      "ĠInit": 6291,
      "ĠNow": 6292,
      "STR": 6293,
      "iser": 6294,
      "ĠBet": 6295,
      "Ġpoll": 6296,
      "ĠPubl": 6297,
      "ĠCoast": 6298,
      "IF": 6299,
      "ifest": 6300,
      "uate": 6301,
      "itage": 6302,
      "Ġoffered": 6303,
      "docs": 6304,
      "ĠFC": 6305,
      "Ġtemplate": 6306,
      "copy": 6307,
      "images": 6308,
      "Ġsave": 6309,
      "tty": 6310,
      "oder": 6311,
      "ĠHor": 6312,
      "Ġserve": 6313,
      "ĠSenate": 6314,
      "Names": 6315,
      "ications": 6316,
      "Ġsal": 6317,
      "Ġ\"\\": 6318,
      "Ġshared": 6319,
      "oms": 6320,
      "ĠSpecial": 6321,
      "Ġlock": 6322,
      "Sports": 6323,
      "cean": 6324,
      "ĠAL": 6325,
      "Ġworkers": 6326,
      "ĠOtt": 6327,
      "Ġexpression": 6328,
      "Ġhar": 6329,
      "Ġcarry": 6330,
      "Ġcities": 6331,
      "76": 6332,
      "models": 6333,
      "EO": 6334,
      "Ġanything": 6335,
      "Ġsimply": 6336,
      "DF": 6337,
      "ĠBoston": 6338,
      "pers": 6339,
      "Iter": 6340,
      "cribe": 6341,
      "Long": 6342,
      "ĠPortug": 6343,
      "wer": 6344,
      "79": 6345,
      "Ġsense": 6346,
      "Ġmanaged": 6347,
      "Ġhistorical": 6348,
      "atalog": 6349,
      "Ġresponsible": 6350,
      "Ġer": 6351,
      "Ġclaimed": 6352,
      "Ġrecording": 6353,
      "ĠBGCOLOR": 6354,
      "Parser": 6355,
      "ĠYour": 6356,
      "click": 6357,
      "umed": 6358,
      "1939": 6359,
      "Ġserving": 6360,
      "Ġsomeone": 6361,
      "Ġquickly": 6362,
      "ORT": 6363,
      "Ġrender": 6364,
      "pret": 6365,
      "Ġorganizations": 6366,
      "phy": 6367,
      "aylor": 6368,
      "Ġecho": 6369,
      "Ġunknown": 6370,
      "Ġwestern": 6371,
      "ĠRepresent": 6372,
      "Ġargument": 6373,
      "delete": 6374,
      "ĠStr": 6375,
      "scale": 6376,
      "uries": 6377,
      "Helper": 6378,
      "oggle": 6379,
      "Ġclean": 6380,
      "Ġsettlement": 6381,
      "Ġfamous": 6382,
      "Ġfirm": 6383,
      "Sk": 6384,
      "eller": 6385,
      "present": 6386,
      "Ġcondition": 6387,
      "Del": 6388,
      "Ġmind": 6389,
      "Ġcontribut": 6390,
      "ĠTrue": 6391,
      "Ġcomedy": 6392,
      "bind": 6393,
      "PR": 6394,
      "ĠĠĠĠĠĠĠĠĠĠĠĠĠĠĠĠĠĠĠĠ": 6395,
      "Ġenter": 6396,
      "Ġgiving": 6397,
      "ici": 6398,
      "igration": 6399,
      "mir": 6400,
      "Ġprofessor": 6401,
      "Ġmoment": 6402,
      "Non": 6403,
      "Ġprotest": 6404,
      "rance": 6405,
      "Render": 6406,
      "icine": 6407,
      "ĠTheir": 6408,
      "ĠčĊ": 6409,
      "riz": 6410,
      "'ve": 6411,
      "Ġlaunch": 6412,
      "Ġimmediately": 6413,
      "Ġgas": 6414,
      "ĠCON": 6415,
      "chor": 6416,
      "ĠEXPECT": 6417,
      "ertific": 6418,
      "oday": 6419,
      "Ġstra": 6420,
      "1941": 6421,
      "plugin": 6422,
      "Ġpsych": 6423,
      "ulti": 6424,
      "Dem": 6425,
      "Ġhash": 6426,
      "1943": 6427,
      "tn": 6428,
      "fully": 6429,
      "oes": 6430,
      "Ġbelieve": 6431,
      "Ġgreen": 6432,
      "values": 6433,
      "Ġhundred": 6434,
      "Ġcells": 6435,
      "ĠGovernor": 6436,
      "World": 6437,
      "ansion": 6438,
      "Ġleaders": 6439,
      "ĉĉĊ": 6440,
      "1957": 6441,
      "Ġconcert": 6442,
      "aturing": 6443,
      "Ġnet": 6444,
      "Order": 6445,
      "Ġcalls": 6446,
      "ĠRailway": 6447,
      "footer": 6448,
      "non": 6449,
      "Ġclasses": 6450,
      "ĠPrince": 6451,
      "Ġparties": 6452,
      "Ġsquad": 6453,
      "ĠJac": 6454,
      "Ġphysical": 6455,
      "Ġhel": 6456,
      "ipped": 6457,
      "=\"/": 6458,
      "estamp": 6459,
      "arters": 6460,
      "Ġdraft": 6461,
      "Ġansw": 6462,
      "ipment": 6463,
      "Ġretired": 6464,
      "ayers": 6465,
      "Ġequal": 6466,
      "Ġsusp": 6467,
      "Ġrat": 6468,
      "Ġbrief": 6469,
      "Ġotherwise": 6470,
      "Ġconflict": 6471,
      "Ġnecessary": 6472,
      "ĠUnivers": 6473,
      "Ġlaws": 6474,
      "Ġbeaut": 6475,
      "inent": 6476,
      "Ġmoving": 6477,
      "Ġrecover": 6478,
      "PS": 6479,
      "Store": 6480,
      "ĠÅ": 6481,
      "Ġtracks": 6482,
      "Host": 6483,
      "cat": 6484,
      "ĠVan": 6485,
      "Ã£": 6486,
      "{\\": 6487,
      "types": 6488,
      "Ġconfiguration": 6489,
      "hover": 6490,
      "onder": 6491,
      "fri": 6492,
      "Ġdiss": 6493,
      "1946": 6494,
      "Ġmuseum": 6495,
      "\">&": 6496,
      "icted": 6497,
      "osph": 6498,
      "ĠUSA": 6499,
      "?:": 6500,
      "84": 6501,
      "ĠException": 6502,
      "ĠOk": 6503,
      "Ġcandidate": 6504,
      "Cons": 6505,
      "Ġmatter": 6506,
      "Ġundefined": 6507,
      "United": 6508,
      "join": 6509,
      "media": 6510,
      "Reference": 6511,
      "Ġcontaining": 6512,
      "Ġgenus": 6513,
      "render": 6514,
      "illy": 6515,
      "Will": 6516,
      "Expression": 6517,
      "ĠMassachusetts": 6518,
      "occer": 6519,
      "Ġnum": 6520,
      "ĠAlso": 6521,
      "ĠWay": 6522,
      "ĠStan": 6523,
      "widget": 6524,
      "ĠSol": 6525,
      "ĠEp": 6526,
      "Ġdatabase": 6527,
      "ĠGra": 6528,
      "sv": 6529,
      "onto": 6530,
      "Ġadopt": 6531,
      "virt": 6532,
      "Ġbegin": 6533,
      "ERROR": 6534,
      "ĠUN": 6535,
      "una": 6536,
      "ĠWall": 6537,
      "ĠEastern": 6538,
      "Ġgoes": 6539,
      "ĠKong": 6540,
      "Ġoperated": 6541,
      "Ġdigital": 6542,
      "aped": 6543,
      "ĠJr": 6544,
      "Ġreach": 6545,
      "Ġcat": 6546,
      "watch": 6547,
      "Ġmicro": 6548,
      "Ġsucceed": 6549,
      "ĠMu": 6550,
      "chester": 6551,
      "Background": 6552,
      "ĠEgypt": 6553,
      "ATA": 6554,
      "Parameters": 6555,
      "Ġcarried": 6556,
      "Ġinfluence": 6557,
      "Vector": 6558,
      "ji": 6559,
      "bi": 6560,
      "Ġelectric": 6561,
      "wa": 6562,
      "Ġclubs": 6563,
      "ighter": 6564,
      "make": 6565,
      "ĠMid": 6566,
      "Ġcompared": 6567,
      "Ġsche": 6568,
      "export": 6569,
      "ez": 6570,
      "command": 6571,
      "Ġattention": 6572,
      "Ġreferred": 6573,
      "1955": 6574,
      "Ġnation": 6575,
      "Ġguest": 6576,
      "ĠHead": 6577,
      "Ġcouple": 6578,
      "1952": 6579,
      "Ġserious": 6580,
      "ĠNight": 6581,
      "Ġdeliv": 6582,
      "uilt": 6583,
      "yo": 6584,
      "ibli": 6585,
      "example": 6586,
      "ĠLittle": 6587,
      "Ġmis": 6588,
      "Ġmill": 6589,
      "ername": 6590,
      "Ġcovered": 6591,
      "ĠFire": 6592,
      "construct": 6593,
      "Ġ['": 6594,
      "ione": 6595,
      "vm": 6596,
      "ouri": 6597,
      "Ġslow": 6598,
      "onym": 6599,
      "(:": 6600,
      "Title": 6601,
      "`.": 6602,
      "session": 6603,
      "toString": 6604,
      "Ġmeasure": 6605,
      "Tool": 6606,
      "Ä±": 6607,
      "La": 6608,
      "ĠSecretary": 6609,
      "Ġpull": 6610,
      "olute": 6611,
      "1947": 6612,
      "rix": 6613,
      "CS": 6614,
      "itness": 6615,
      "Ġupper": 6616,
      "Ġbasis": 6617,
      "ographic": 6618,
      "weet": 6619,
      "edd": 6620,
      "Ġseems": 6621,
      "enes": 6622,
      "free": 6623,
      "ydro": 6624,
      "ecause": 6625,
      ".$": 6626,
      "ĠBern": 6627,
      "cher": 6628,
      "Ġcultural": 6629,
      "Ġstreng": 6630,
      "Ġthread": 6631,
      "Ġextended": 6632,
      "Ġhop": 6633,
      "ĠBang": 6634,
      "ĠMethod": 6635,
      "ulpt": 6636,
      "antry": 6637,
      "ĠBroad": 6638,
      "EM": 6639,
      "ĠDate": 6640,
      "ĠBh": 6641,
      "Ġbelieved": 6642,
      "Ġregional": 6643,
      "access": 6644,
      "ilation": 6645,
      "foo": 6646,
      "aste": 6647,
      "Ġhighly": 6648,
      "Ġweap": 6649,
      "According": 6650,
      "Ġtoken": 6651,
      "Ġproduce": 6652,
      "ĠMajor": 6653,
      "ĠAndrew": 6654,
      "ĠMath": 6655,
      "ĠEvent": 6656,
      "SET": 6657,
      "aby": 6658,
      "ĠOxford": 6659,
      "ocation": 6660,
      "Ġfelt": 6661,
      "Ġtransaction": 6662,
      "ucky": 6663,
      "icons": 6664,
      "###": 6665,
      "ĠColumbia": 6666,
      "Ġdistribution": 6667,
      "British": 6668,
      "which": 6669,
      "onia": 6670,
      "ĠPoint": 6671,
      "Template": 6672,
      "Ġagreed": 6673,
      "bot": 6674,
      "PRE": 6675,
      "Ġstatement": 6676,
      "Ġoffers": 6677,
      "Ġbal": 6678,
      "Ġgirl": 6679,
      "Ġlearn": 6680,
      "ĠManagement": 6681,
      "Ġspread": 6682,
      "Ð»": 6683,
      "False": 6684,
      "webkit": 6685,
      "DS": 6686,
      "ĠBBC": 6687,
      "Ġwild": 6688,
      "Ġquite": 6689,
      "Ġissued": 6690,
      "Ġcreating": 6691,
      "ĠBor": 6692,
      "Ġdistance": 6693,
      "iced": 6694,
      "Ġdemand": 6695,
      "ĠHospital": 6696,
      "ĠKen": 6697,
      "mes": 6698,
      "orporated": 6699,
      "ĠJes": 6700,
      "equals": 6701,
      "Ġpackage": 6702,
      "Ġbecomes": 6703,
      "high": 6704,
      "udio": 6705,
      "GET": 6706,
      "'],": 6707,
      "iny": 6708,
      "ĠJackson": 6709,
      "gorith": 6710,
      "uly": 6711,
      "iling": 6712,
      "Ġparse": 6713,
      "'ll": 6714,
      "Ġnuc": 6715,
      "Ġmaximum": 6716,
      "ĠCommon": 6717,
      "ĠMany": 6718,
      "=\"../../../": 6719,
      "ÅĤ": 6720,
      "parameter": 6721,
      "Ġlatter": 6722,
      "DA": 6723,
      "ĠFar": 6724,
      "ĠSea": 6725,
      "Ġblue": 6726,
      "ĠEconom": 6727,
      "Handle": 6728,
      "Ġpersonnel": 6729,
      "Ġiniti": 6730,
      "icens": 6731,
      "equal": 6732,
      "ĠPolice": 6733,
      "Ñĥ": 6734,
      "Ġrot": 6735,
      "Ġ~": 6736,
      "Ġfort": 6737,
      "ĠLatin": 6738,
      "usion": 6739,
      "ĠTechnology": 6740,
      "prise": 6741,
      "Ġpatients": 6742,
      "ĠCapt": 6743,
      "Ġroll": 6744,
      "Ġearned": 6745,
      "TC": 6746,
      "Ġknowledge": 6747,
      "Ġcapacity": 6748,
      "ĠElect": 6749,
      "ĠWis": 6750,
      "ĠWater": 6751,
      "Ġbranch": 6752,
      "Ġinform": 6753,
      "transform": 6754,
      "while": 6755,
      "orph": 6756,
      "ĠKorea": 6757,
      "cp": 6758,
      "Ġdisease": 6759,
      "1954": 6760,
      "Ġexecutive": 6761,
      "May": 6762,
      "Ġrespond": 6763,
      "Ġyouth": 6764,
      "agers": 6765,
      "Ġcharge": 6766,
      "Ġexact": 6767,
      "Ġreports": 6768,
      "Ġmixed": 6769,
      "mann": 6770,
      "Ġfully": 6771,
      "Ġresidents": 6772,
      "Ġshape": 6773,
      "reedom": 6774,
      "Ġfollows": 6775,
      "under": 6776,
      "Ġgun": 6777,
      "Ġ$\\": 6778,
      "angle": 6779,
      "Ġrelative": 6780,
      "Ġneighbor": 6781,
      "outheast": 6782,
      "Ġcache": 6783,
      "dist": 6784,
      "front": 6785,
      "Serial": 6786,
      "1953": 6787,
      "zo": 6788,
      "ĠPlaces": 6789,
      "Ġgets": 6790,
      "Invalid": 6791,
      "Ġang": 6792,
      "ĠHuman": 6793,
      "EQ": 6794,
      "ĠJeff": 6795,
      "Public": 6796,
      "iec": 6797,
      "Ġfre": 6798,
      "teen": 6799,
      "Ġblood": 6800,
      "ĠJon": 6801,
      "Ġcontainer": 6802,
      "94": 6803,
      "Ġbridge": 6804,
      "Ġsales": 6805,
      "izabeth": 6806,
      "Ver": 6807,
      "HP": 6808,
      "Ġdesc": 6809,
      "SO": 6810,
      "Ġvan": 6811,
      "ras": 6812,
      "Has": 6813,
      "1949": 6814,
      "ĠStation": 6815,
      "ĠRepublican": 6816,
      "Ob": 6817,
      "Ġsmaller": 6818,
      "Ġhockey": 6819,
      "Stack": 6820,
      "hs": 6821,
      "ydney": 6822,
      "Ġdriver": 6823,
      "92": 6824,
      "cient": 6825,
      "ester": 6826,
      "Ġauth": 6827,
      "ĠBelg": 6828,
      "disabled": 6829,
      "ĠSports": 6830,
      "ederation": 6831,
      "Classes": 6832,
      "Ġinvoke": 6833,
      "Right": 6834,
      "Ġiter": 6835,
      "Ġdepart": 6836,
      "Mem": 6837,
      "ĠJean": 6838,
      "Ġfellow": 6839,
      "Ġadult": 6840,
      "mail": 6841,
      "__(": 6842,
      "74": 6843,
      "Ġepisodes": 6844,
      "Ġgreater": 6845,
      "ĠCommand": 6846,
      "illing": 6847,
      "Values": 6848,
      "ĠPower": 6849,
      "Ġwinner": 6850,
      "ĠJustice": 6851,
      "iful": 6852,
      ">();": 6853,
      "enter": 6854,
      "Ġnamespace": 6855,
      "ĠInf": 6856,
      "ito": 6857,
      "Ġsettings": 6858,
      "Ġadministration": 6859,
      "Ġensure": 6860,
      "rovers": 6861,
      "ĠStand": 6862,
      "Ġmurder": 6863,
      "fn": 6864,
      "ĠBrook": 6865,
      "connect": 6866,
      "Ġmarriage": 6867,
      "Ġ})": 6868,
      "Ġdiscovered": 6869,
      "store": 6870,
      "Ġprice": 6871,
      "Ġacquired": 6872,
      "Ġhouses": 6873,
      "osa": 6874,
      "annotation": 6875,
      "ATH": 6876,
      "Ġsport": 6877,
      "ĠAff": 6878,
      "ĠRay": 6879,
      "ĠDaniel": 6880,
      "Ġrevealed": 6881,
      "Ġawards": 6882,
      "Ġsites": 6883,
      "93": 6884,
      "ĠCommunity": 6885,
      "anks": 6886,
      "di": 6887,
      "ĠLo": 6888,
      "ĠBerlin": 6889,
      "ĠHung": 6890,
      "OK": 6891,
      "Ġdim": 6892,
      "nic": 6893,
      "Ġconsists": 6894,
      "ĠVis": 6895,
      "Ġfigure": 6896,
      "Ġgives": 6897,
      "Ġdelete": 6898,
      "global": 6899,
      "Ġvolume": 6900,
      "coll": 6901,
      "}.": 6902,
      "Cast": 6903,
      "ĠCreek": 6904,
      "Ġfeed": 6905,
      "91": 6906,
      "'>": 6907,
      "1951": 6908,
      "Ġhands": 6909,
      "oned": 6910,
      "replace": 6911,
      "81": 6912,
      "Ġdirectory": 6913,
      "Ġli": 6914,
      "Ġeverything": 6915,
      "custom": 6916,
      "ĠFour": 6917,
      "help": 6918,
      "Ġbottom": 6919,
      "component": 6920,
      "master": 6921,
      "Ġsplit": 6922,
      "ĠJoe": 6923,
      "ĠTw": 6924,
      "Ġways": 6925,
      "Ġax": 6926,
      "Ġactions": 6927,
      "Ġsubsequently": 6928,
      "Di": 6929,
      "shall": 6930,
      "Ġtheme": 6931,
      "Ġintended": 6932,
      "ĠErr": 6933,
      "Select": 6934,
      "Ġamb": 6935,
      "athan": 6936,
      "Member": 6937,
      "pan": 6938,
      "step": 6939,
      "ulf": 6940,
      "ancing": 6941,
      "aught": 6942,
      "ĠSom": 6943,
      "Ġwall": 6944,
      "aked": 6945,
      "ĠBi": 6946,
      "asure": 6947,
      "ologist": 6948,
      "sim": 6949,
      "ĠMuslim": 6950,
      "ĠPres": 6951,
      "ĠHong": 6952,
      "uous": 6953,
      "Ġprofile": 6954,
      "Dist": 6955,
      "lose": 6956,
      "Ġconstit": 6957,
      "obs": 6958,
      "ashion": 6959,
      "mode": 6960,
      "Decl": 6961,
      "Api": 6962,
      "AND": 6963,
      "ĠAlexander": 6964,
      "ennes": 6965,
      "ĠDar": 6966,
      "Doc": 6967,
      "ĠWindow": 6968,
      "Ġrestrict": 6969,
      "thur": 6970,
      "ĠLi": 6971,
      "IR": 6972,
      "ORM": 6973,
      "Ġeval": 6974,
      "83": 6975,
      "virtual": 6976,
      "none": 6977,
      "Ġefforts": 6978,
      "innes": 6979,
      "Ġpair": 6980,
      "adelph": 6981,
      "Ġextension": 6982,
      "ears": 6983,
      "Device": 6984,
      "ĠLight": 6985,
      "Sm": 6986,
      "Ġheader": 6987,
      "Ġ('": 6988,
      "Ġdistributed": 6989,
      "cf": 6990,
      "bro": 6991,
      "elligence": 6992,
      "bas": 6993,
      "secut": 6994,
      "Ġcomposed": 6995,
      "Music": 6996,
      "handle": 6997,
      "ĠIslands": 6998,
      "ĠVictoria": 6999,
      "Ġcompeted": 7000,
      "stack": 7001,
      "Ġillust": 7002,
      "Kind": 7003,
      "Ġarrived": 7004,
      "ĠSte": 7005,
      "aming": 7006,
      "cr": 7007,
      "Ã£o": 7008,
      "ishes": 7009,
      "iki": 7010,
      "Head": 7011,
      "Ġfailure": 7012,
      "Further": 7013,
      "actor": 7014,
      "Ġconstant": 7015,
      "settings": 7016,
      "Ġmunicipality": 7017,
      "udget": 7018,
      "padding": 7019,
      "Ġbyte": 7020,
      "icks": 7021,
      "Ġtroops": 7022,
      "ĠIns": 7023,
      "Ġcook": 7024,
      "umes": 7025,
      "Ġmainly": 7026,
      "dependency": 7027,
      "Ġfans": 7028,
      "ependence": 7029,
      "Ġfloor": 7030,
      "clusion": 7031,
      "-->": 7032,
      "zech": 7033,
      "ĠOfficial": 7034,
      "Main": 7035,
      "Ġrac": 7036,
      "ntario": 7037,
      "Ġapplied": 7038,
      "ĠPass": 7039,
      "Ġinher": 7040,
      "Ġcreation": 7041,
      "EC": 7042,
      "obuf": 7043,
      "eld": 7044,
      "ints": 7045,
      "Ġstorage": 7046,
      "150": 7047,
      "ĠPolish": 7048,
      "related": 7049,
      "SL": 7050,
      "Ġtrial": 7051,
      "Ġprec": 7052,
      "Ġpressure": 7053,
      "Parent": 7054,
      "unct": 7055,
      "sky": 7056,
      "ga": 7057,
      "(*": 7058,
      "Ġcycl": 7059,
      "structure": 7060,
      "ĠCollection": 7061,
      "odies": 7062,
      "Ġfair": 7063,
      "Found": 7064,
      "ĠFree": 7065,
      "Ġmetal": 7066,
      "adelphia": 7067,
      "panel": 7068,
      "ello": 7069,
      "vard": 7070,
      "gest": 7071,
      "Ġpra": 7072,
      "ĠQueens": 7073,
      "Const": 7074,
      "ĠAk": 7075,
      "71": 7076,
      "stein": 7077,
      "fields": 7078,
      "Ġbaseball": 7079,
      "1936": 7080,
      "Ġthous": 7081,
      "Ġpp": 7082,
      "Ã¡n": 7083,
      "----------------------------------------------------------------": 7084,
      "Ġstreet": 7085,
      "TA": 7086,
      "ĠOb": 7087,
      "University": 7088,
      "Ġcrew": 7089,
      "Ġtests": 7090,
      "Debug": 7091,
      "ĠBra": 7092,
      "Ġencour": 7093,
      "ĠFace": 7094,
      "innesota": 7095,
      "ĠSupreme": 7096,
      "Ġpriv": 7097,
      "Ġstars": 7098,
      "73": 7099,
      "Ġmix": 7100,
      "fly": 7101,
      "Disc": 7102,
      "ĠFederal": 7103,
      "ĠArgent": 7104,
      "oir": 7105,
      "Ġproviding": 7106,
      "Ġvon": 7107,
      "ĠServices": 7108,
      "stitution": 7109,
      "ĠWeek": 7110,
      "Ġpet": 7111,
      "hemat": 7112,
      "byte": 7113,
      "Ġimages": 7114,
      "ifications": 7115,
      "pton": 7116,
      "Ġeastern": 7117,
      "Ġancient": 7118,
      "Ġlisting": 7119,
      "Ġpurpose": 7120,
      "Ġpresence": 7121,
      "Ġoperating": 7122,
      "leted": 7123,
      "Reader": 7124,
      "req": 7125,
      "Ġfish": 7126,
      "estic": 7127,
      "Ġos": 7128,
      "ĠLater": 7129,
      "ORD": 7130,
      "JECT": 7131,
      "claim": 7132,
      "etic": 7133,
      "!!": 7134,
      "ĠRog": 7135,
      "urer": 7136,
      "ĠLim": 7137,
      "names": 7138,
      "Ġcancer": 7139,
      "Ġple": 7140,
      "cest": 7141,
      "SION": 7142,
      "Me": 7143,
      "Ġappearances": 7144,
      "ĠCat": 7145,
      "ieut": 7146,
      "Icon": 7147,
      "ĠWin": 7148,
      "Ġunderstand": 7149,
      "ogy": 7150,
      "aks": 7151,
      "Ġoccurred": 7152,
      "Ġven": 7153,
      "Ġdescent": 7154,
      "ĠProfessor": 7155,
      "Ġpeace": 7156,
      "exports": 7157,
      "aver": 7158,
      "}\"": 7159,
      "_;": 7160,
      "ĠTHE": 7161,
      ";<": 7162,
      "West": 7163,
      "jar": 7164,
      "ricts": 7165,
      "Ġcars": 7166,
      "ĠOrgan": 7167,
      "ĠTam": 7168,
      "rine": 7169,
      "ĠCorporation": 7170,
      "anges": 7171,
      "Dom": 7172,
      "ĠBack": 7173,
      "Ġproper": 7174,
      "Ġcritical": 7175,
      "Application": 7176,
      "uby": 7177,
      "Ġequipment": 7178,
      "Ġversions": 7179,
      "grade": 7180,
      "erg": 7181,
      "Ġcompar": 7182,
      "Ġsafety": 7183,
      "Ġvariable": 7184,
      "ĠRegion": 7185,
      "tain": 7186,
      "Ġrare": 7187,
      "Cre": 7188,
      "Body": 7189,
      "Ġstock": 7190,
      "AME": 7191,
      "ĠUse": 7192,
      "Ġcompletely": 7193,
      "Ġsituation": 7194,
      "boolean": 7195,
      "ĠĠĠĠĠĠĠĠĠĠĠĠĠĠĠĠĠĠĠĠĠĠĠĠĠĠĠĠĠĠĠĠĠĠĠĠĠĠĠ": 7196,
      "Ġtell": 7197,
      "ĠAsh": 7198,
      "URE": 7199,
      "ĠViet": 7200,
      "Book": 7201,
      "ĠPrime": 7202,
      "ĠCorps": 7203,
      "Ġattend": 7204,
      "ĠThen": 7205,
      "pects": 7206,
      "ĠMike": 7207,
      "%)": 7208,
      "WS": 7209,
      "ĠBad": 7210,
      "phone": 7211,
      "heduled": 7212,
      "Ġicon": 7213,
      "Ġassigned": 7214,
      "tim": 7215,
      "Click": 7216,
      "Ġbillion": 7217,
      ">.": 7218,
      "ĠVill": 7219,
      "Show": 7220,
      "Ġconference": 7221,
      "rast": 7222,
      "Ġfeaturing": 7223,
      "Ġaccepted": 7224,
      "ĠJSON": 7225,
      "Ġagreement": 7226,
      "osis": 7227,
      "---": 7228,
      "pute": 7229,
      "Ġmachine": 7230,
      "`,": 7231,
      "Ġlanguages": 7232,
      "1918": 7233,
      "cloud": 7234,
      "Ġalongside": 7235,
      "ĠBoth": 7236,
      "Ġmorning": 7237,
      "ĠSu": 7238,
      "prove": 7239,
      "eries": 7240,
      "amber": 7241,
      "urance": 7242,
      "ĠSunday": 7243,
      "Ġcore": 7244,
      "Ġfifth": 7245,
      "Tab": 7246,
      "Pattern": 7247,
      "ĠWalk": 7248,
      "1938": 7249,
      "etherlands": 7250,
      "Ġinline": 7251,
      "ĠDown": 7252,
      "Ġnom": 7253,
      "ĠKenn": 7254,
      "Ġchalleng": 7255,
      "Ġreform": 7256,
      "Metadata": 7257,
      "ometry": 7258,
      "Ġhonor": 7259,
      "vector": 7260,
      "ĠView": 7261,
      "Ġnewspaper": 7262,
      "Ã¢": 7263,
      "ĠTaylor": 7264,
      "ervative": 7265,
      "Austral": 7266,
      "Ġnearby": 7267,
      "utt": 7268,
      "andra": 7269,
      "ĠOlympic": 7270,
      "je": 7271,
      "ĠGuard": 7272,
      "Ġjoint": 7273,
      "isf": 7274,
      "plugins": 7275,
      "ĠChris": 7276,
      "Ġbasic": 7277,
      "record": 7278,
      "Ġprefer": 7279,
      "Ġsequence": 7280,
      "Ġpurs": 7281,
      "Ġofficials": 7282,
      "ĠLO": 7283,
      "ĠPakistan": 7284,
      "ĠMir": 7285,
      "xx": 7286,
      "Ġsoldiers": 7287,
      "Ġtherefore": 7288,
      "Ġbeat": 7289,
      "Ġarchitecture": 7290,
      "ĠSa": 7291,
      "water": 7292,
      "Root": 7293,
      "ĠCorn": 7294,
      "ooth": 7295,
      "Ġordered": 7296,
      "Ġprovince": 7297,
      "Ġoperator": 7298,
      "ĠKorean": 7299,
      "Ġfinish": 7300,
      "uy": 7301,
      "family": 7302,
      "Ġdedicated": 7303,
      "Ġphotograph": 7304,
      "double": 7305,
      "bad": 7306,
      "Assert": 7307,
      "ĠBa": 7308,
      "ĠSydney": 7309,
      "Ġstrugg": 7310,
      "Ġunsigned": 7311,
      "urrency": 7312,
      "ĠIO": 7313,
      "rical": 7314,
      "ĠLew": 7315,
      "Ġdamage": 7316,
      "Ġpal": 7317,
      "Ġarticles": 7318,
      "yntax": 7319,
      "Ġisn": 7320,
      "Ġpaid": 7321,
      "odd": 7322,
      "Ġpromoted": 7323,
      "ĠTem": 7324,
      "blockList": 7325,
      "Ġboy": 7326,
      "Second": 7327,
      "sen": 7328,
      "atically": 7329,
      "ĠBol": 7330,
      "aration": 7331,
      "oured": 7332,
      "GE": 7333,
      "aser": 7334,
      "Ġdrive": 7335,
      "\"|": 7336,
      "Ret": 7337,
      "Args": 7338,
      "ĠPen": 7339,
      "ĠOs": 7340,
      "awn": 7341,
      "Ġclaims": 7342,
      "ĠHTML": 7343,
      "ĠLy": 7344,
      "Ġjson": 7345,
      "Ġrespectively": 7346,
      "MD": 7347,
      "Ġconducted": 7348,
      "haps": 7349,
      "à¸": 7350,
      "Ġtried": 7351,
      "osen": 7352,
      "ega": 7353,
      "ologies": 7354,
      "Ġconnected": 7355,
      "install": 7356,
      "ĠCode": 7357,
      "Ġexperiment": 7358,
      "ĠModel": 7359,
      "Ġbytes": 7360,
      "Ġinstalled": 7361,
      "gers": 7362,
      "ĠEst": 7363,
      "Ġpositions": 7364,
      "Ġacademic": 7365,
      "framework": 7366,
      "coin": 7367,
      "Ġwrong": 7368,
      "system": 7369,
      "olver": 7370,
      "Ġbelong": 7371,
      "plies": 7372,
      "Mock": 7373,
      "Ã¸": 7374,
      "ĠRom": 7375,
      "Ġsexual": 7376,
      "peror": 7377,
      "Num": 7378,
      "ango": 7379,
      "entity": 7380,
      "AGE": 7381,
      "raq": 7382,
      "Tests": 7383,
      "ĠPrize": 7384,
      "bourne": 7385,
      "Byte": 7386,
      "ĠSant": 7387,
      "1937": 7388,
      "ĠEnt": 7389,
      "Ġshop": 7390,
      "ignment": 7391,
      "Ġhope": 7392,
      "ĠPers": 7393,
      "ĠHarris": 7394,
      "Ġpiece": 7395,
      "ĠSecurity": 7396,
      "Final": 7397,
      "consin": 7398,
      "Ġconstructed": 7399,
      "Ġathlet": 7400,
      "rence": 7401,
      "Writer": 7402,
      "callback": 7403,
      "Ġgrowing": 7404,
      "Ġmiles": 7405,
      "Ġassistant": 7406,
      "ĠMember": 7407,
      "dict": 7408,
      "Custom": 7409,
      "FAULT": 7410,
      "Ġagent": 7411,
      "keys": 7412,
      "Ġlearning": 7413,
      "ĠCa": 7414,
      "Ġtradition": 7415,
      "Ġconsole": 7416,
      "ĠTy": 7417,
      "anth": 7418,
      "insert": 7419,
      "Ġalone": 7420,
      "lyn": 7421,
      "ĠThree": 7422,
      "Ġ'/": 7423,
      "vant": 7424,
      "Vari": 7425,
      "ĠElizabeth": 7426,
      "ilton": 7427,
      "Personal": 7428,
      "eler": 7429,
      "ĠRaj": 7430,
      "sets": 7431,
      "vin": 7432,
      "dim": 7433,
      "ĠAN": 7434,
      "Ġcategory": 7435,
      "ronze": 7436,
      "raine": 7437,
      "prop": 7438,
      "Ġsilver": 7439,
      "ĠBand": 7440,
      "ĠMedical": 7441,
      "focus": 7442,
      "ruth": 7443,
      "cm": 7444,
      "cluded": 7445,
      "Ġidentified": 7446,
      "urday": 7447,
      "rees": 7448,
      "holder": 7449,
      "unte": 7450,
      "Ins": 7451,
      "ĠAvenue": 7452,
      "Ġgenerated": 7453,
      "Argument": 7454,
      "BR": 7455,
      "Association": 7456,
      "Ġleadership": 7457,
      "ĠOntario": 7458,
      "Enabled": 7459,
      "Ġspring": 7460,
      "iable": 7461,
      "Ġserial": 7462,
      "Polit": 7463,
      "Ġspirit": 7464,
      "skip": 7465,
      "ĠHy": 7466,
      "Ġhy": 7467,
      "Ġminister": 7468,
      "Ġshowed": 7469,
      "romise": 7470,
      "ĠRoute": 7471,
      "ĠArm": 7472,
      "inity": 7473,
      "Xml": 7474,
      "Ġtrust": 7475,
      "ĠIndust": 7476,
      "Bytes": 7477,
      "Ġcombined": 7478,
      "ĠIl": 7479,
      "ĠNOT": 7480,
      "Ġkept": 7481,
      "Ġbehavior": 7482,
      "ieutenant": 7483,
      "ori": 7484,
      "Ġtransferred": 7485,
      "Ġpolitics": 7486,
      "alid": 7487,
      "ĠMinistry": 7488,
      "Ġattract": 7489,
      "ĠToronto": 7490,
      "ĠColl": 7491,
      "ĠSciences": 7492,
      "International": 7493,
      "Ġdog": 7494,
      "ĠDesign": 7495,
      "Ġ),": 7496,
      "Ġreject": 7497,
      "Ġmentioned": 7498,
      "Each": 7499,
      "ĠBrad": 7500,
      "Ġconcent": 7501,
      "rawn": 7502,
      "fony": 7503,
      "Ġplanned": 7504,
      "Ġprimarily": 7505,
      "Ġslight": 7506,
      "Ġbey": 7507,
      "Sym": 7508,
      "full": 7509,
      "Ġmountain": 7510,
      "ĠMic": 7511,
      "Ġsumm": 7512,
      "Ġsquare": 7513,
      "Ġ>>": 7514,
      "nap": 7515,
      "annels": 7516,
      "ho": 7517,
      "capt": 7518,
      "South": 7519,
      "life": 7520,
      "ACE": 7521,
      "ipeline": 7522,
      "160": 7523,
      "Ġutil": 7524,
      "NE": 7525,
      "Ġdat": 7526,
      "aga": 7527,
      "Ġexpatriate": 7528,
      "pg": 7529,
      "Ġliterature": 7530,
      "ĠSus": 7531,
      "Ġpool": 7532,
      "Ġreviews": 7533,
      "Rule": 7534,
      "cpp": 7535,
      "Delete": 7536,
      "CI": 7537,
      "Ġinh": 7538,
      "ĠText": 7539,
      "poses": 7540,
      "Ġroles": 7541,
      "CTION": 7542,
      "oves": 7543,
      "Ġera": 7544,
      "Ġmotor": 7545,
      "ĠRod": 7546,
      "bra": 7547,
      "\")]": 7548,
      "ceived": 7549,
      "Ġsolo": 7550,
      "enna": 7551,
      "ortheast": 7552,
      "ynchron": 7553,
      "Display": 7554,
      "Video": 7555,
      "coq": 7556,
      "kg": 7557,
      "Ġwinners": 7558,
      "sex": 7559,
      "organ": 7560,
      "Ġexport": 7561,
      "Ġquestions": 7562,
      "pa": 7563,
      "pet": 7564,
      "acks": 7565,
      "ixture": 7566,
      "ĠassertEquals": 7567,
      "ĠMaster": 7568,
      "material": 7569,
      "pat": 7570,
      "Ġgrew": 7571,
      "Ġassociation": 7572,
      "Boolean": 7573,
      "Ġfactory": 7574,
      "Ġdance": 7575,
      "Ġbill": 7576,
      "Ġmaterials": 7577,
      "Ġtraffic": 7578,
      "Ġcalling": 7579,
      "inson": 7580,
      "Ġflight": 7581,
      "ĠOur": 7582,
      "ictures": 7583,
      "Ġfacilities": 7584,
      "ects": 7585,
      "email": 7586,
      "assets": 7587,
      "Ġcontest": 7588,
      "Policy": 7589,
      "ĠRevolution": 7590,
      "stop": 7591,
      "High": 7592,
      "nce": 7593,
      "ounce": 7594,
      "jection": 7595,
      "Ġcitizens": 7596,
      "Ġpages": 7597,
      "iques": 7598,
      "Ġtypically": 7599,
      "ĠBon": 7600,
      "Ġleaves": 7601,
      "ĠStat": 7602,
      "ĠBal": 7603,
      "Ġconfirmed": 7604,
      "uls": 7605,
      "tsd": 7606,
      "miss": 7607,
      "ĠMarg": 7608,
      "Ġplants": 7609,
      "ami": 7610,
      "ĠĠĠĠĠĠĠĠĠĠĠĠĠĠĠĠĠĠ": 7611,
      "Ġrandom": 7612,
      "olume": 7613,
      "Ġenem": 7614,
      "Ġraces": 7615,
      "ĠBell": 7616,
      "ifies": 7617,
      "Ġbeyond": 7618,
      "ĠHere": 7619,
      "ropical": 7620,
      "ĠNations": 7621,
      "ĠAR": 7622,
      "OM": 7623,
      "wrap": 7624,
      "ĠDisc": 7625,
      "ĠRet": 7626,
      "Media": 7627,
      "ITY": 7628,
      "Ġapply": 7629,
      "Ġ\"/": 7630,
      "Ġdeclared": 7631,
      "Ġexam": 7632,
      "weg": 7633,
      "ĠBeach": 7634,
      "screen": 7635,
      "ĠFair": 7636,
      "akh": 7637,
      "ĠStudies": 7638,
      "ĠRegiment": 7639,
      "ĠSong": 7640,
      "Ġsculpt": 7641,
      "ieces": 7642,
      "Graph": 7643,
      "kes": 7644,
      "chestra": 7645,
      "iate": 7646,
      "icer": 7647,
      "Dialog": 7648,
      "Ġseconds": 7649,
      "product": 7650,
      "Ġprem": 7651,
      "ante": 7652,
      "Ġbomb": 7653,
      "Ġlabor": 7654,
      "Ġlatest": 7655,
      "Package": 7656,
      "ancer": 7657,
      "Ġexpanded": 7658,
      "ruit": 7659,
      "Ġsurvey": 7660,
      "Ġsupply": 7661,
      "Channel": 7662,
      "ĠSym": 7663,
      "General": 7664,
      "ĠMcC": 7665,
      "ĠTok": 7666,
      "ĠRome": 7667,
      "inton": 7668,
      "1935": 7669,
      "zen": 7670,
      "toggle": 7671,
      "ĠBrig": 7672,
      "perial": 7673,
      "Ġdestroyed": 7674,
      "Ġcrime": 7675,
      "application": 7676,
      "Ġcontinues": 7677,
      "ĠIP": 7678,
      "Ġidentity": 7679,
      "ĠUser": 7680,
      "Ġ++": 7681,
      "apped": 7682,
      "ĠForest": 7683,
      "Ġspect": 7684,
      "posite": 7685,
      "Ġnote": 7686,
      "Some": 7687,
      "icket": 7688,
      "ĠMinnesota": 7689,
      "Ġeveryone": 7690,
      "Ġemail": 7691,
      "Ġgraduated": 7692,
      "ĠNetherlands": 7693,
      "EXT": 7694,
      "Ġrural": 7695,
      "success": 7696,
      "Ġchain": 7697,
      "idi": 7698,
      "ĉĉĉĊ": 7699,
      "Ġworth": 7700,
      "Ġeffective": 7701,
      "look": 7702,
      ".'": 7703,
      "Ġ(*": 7704,
      "items": 7705,
      "aph": 7706,
      "quarters": 7707,
      "Ġresulting": 7708,
      "While": 7709,
      "His": 7710,
      "Ġmusicians": 7711,
      "Ġofficially": 7712,
      "Ġheard": 7713,
      "owa": 7714,
      "ĠFamily": 7715,
      "ĠEach": 7716,
      "ĠCirc": 7717,
      "Ġjavax": 7718,
      "Ġnotes": 7719,
      "mo": 7720,
      "ĠNO": 7721,
      "lyph": 7722,
      "Events": 7723,
      "Ġwallet": 7724,
      "Ġliber": 7725,
      "adian": 7726,
      "1914": 7727,
      "Ġbutton": 7728,
      "category": 7729,
      "Ġedge": 7730,
      "ï¼": 7731,
      "Ġrestaur": 7732,
      "scape": 7733,
      ")]": 7734,
      "ĠAnton": 7735,
      "olitan": 7736,
      "spring": 7737,
      "uple": 7738,
      "Definition": 7739,
      "Ġdeploy": 7740,
      "ĠLive": 7741,
      "Activity": 7742,
      "riday": 7743,
      "plex": 7744,
      "Ġhousing": 7745,
      "ĠGlobal": 7746,
      "anna": 7747,
      "ĠOnly": 7748,
      "efe": 7749,
      "Ġsuit": 7750,
      "itled": 7751,
      "olis": 7752,
      "ĠDer": 7753,
      "ĠArea": 7754,
      "Ã©e": 7755,
      "othing": 7756,
      "Ġrank": 7757,
      "Ġclimate": 7758,
      "Ġbul": 7759,
      "iat": 7760,
      "ĠAli": 7761,
      "admin": 7762,
      "1919": 7763,
      "Ġmock": 7764,
      "ĠNumber": 7765,
      "ĠInformation": 7766,
      "Ġstrict": 7767,
      "Ġmeant": 7768,
      "Ġcorpor": 7769,
      "ĠAdminist": 7770,
      "=\"\">": 7771,
      "short": 7772,
      "Ġviews": 7773,
      "auto": 7774,
      "clusive": 7775,
      "ĠNic": 7776,
      "hew": 7777,
      "enses": 7778,
      "ego": 7779,
      "ĠKim": 7780,
      "bound": 7781,
      "sey": 7782,
      "Any": 7783,
      "roke": 7784,
      "ĠRen": 7785,
      "Step": 7786,
      "buf": 7787,
      "bec": 7788,
      "ĠWars": 7789,
      "ĠSab": 7790,
      "agnost": 7791,
      "Ġimplementation": 7792,
      "lan": 7793,
      "ĠFre": 7794,
      "Ġut": 7795,
      "ĠLes": 7796,
      "ĠCub": 7797,
      "ĠPolit": 7798,
      "Ġast": 7799,
      "&#": 7800,
      "1933": 7801,
      "SD": 7802,
      "Ġtitles": 7803,
      "Ġeasy": 7804,
      "hat": 7805,
      "Only": 7806,
      "ĠWilson": 7807,
      "ĠVen": 7808,
      "Ġvehicle": 7809,
      "Ġ<=": 7810,
      "note": 7811,
      "Ġcontrovers": 7812,
      "uv": 7813,
      "aska": 7814,
      "Ġhistoric": 7815,
      "ĠPlan": 7816,
      "Ġmsg": 7817,
      "Ġly": 7818,
      "ocated": 7819,
      "={": 7820,
      "spe": 7821,
      "itter": 7822,
      "ĠAnth": 7823,
      "ĠValue": 7824,
      "Ġshall": 7825,
      "ategories": 7826,
      "Ġexchange": 7827,
      "ĠAuthor": 7828,
      "cur": 7829,
      "Ġadministrative": 7830,
      "VD": 7831,
      "Descriptor": 7832,
      "VID": 7833,
      "Tim": 7834,
      "Gu": 7835,
      "Ġreduced": 7836,
      "Ġquant": 7837,
      "Ġsy": 7838,
      "Ġprogramming": 7839,
      "cover": 7840,
      "ĠLem": 7841,
      "Ġregistered": 7842,
      "ĠBatt": 7843,
      "ĠAz": 7844,
      "Ġpolic": 7845,
      "oted": 7846,
      "Ġaim": 7847,
      "Ãº": 7848,
      "ĠStadium": 7849,
      "Ġones": 7850,
      "comment": 7851,
      "ĠSanta": 7852,
      "Storage": 7853,
      "ĠURL": 7854,
      "Ġpitch": 7855,
      "ĠDaily": 7856,
      "ĠLady": 7857,
      "Ġchampion": 7858,
      "sql": 7859,
      "Ġtal": 7860,
      "Ġstraight": 7861,
      "Ġgeneration": 7862,
      "Ġestimated": 7863,
      "Ġaudience": 7864,
      "1929": 7865,
      "alion": 7866,
      "asty": 7867,
      "oster": 7868,
      "Ġearth": 7869,
      "Ġpan": 7870,
      "ĠAthlet": 7871,
      "cos": 7872,
      "Ġadvert": 7873,
      "ĠPhiladelphia": 7874,
      "regon": 7875,
      "Ġopportunity": 7876,
      "ĠWisconsin": 7877,
      "Ġperman": 7878,
      "Ġcaptured": 7879,
      "TEST": 7880,
      "Ġlies": 7881,
      "password": 7882,
      "Ġchoice": 7883,
      "Ġharm": 7884,
      "alo": 7885,
      "Ġattacks": 7886,
      "Ġil": 7887,
      "shot": 7888,
      "ĠBC": 7889,
      "ĠCambridge": 7890,
      "Transaction": 7891,
      "Ġaccomp": 7892,
      "yard": 7893,
      "Ġvotes": 7894,
      "ĠCountry": 7895,
      "edit": 7896,
      "TED": 7897,
      "Before": 7898,
      "Ġinstitutions": 7899,
      "modules": 7900,
      "ĠFox": 7901,
      "1934": 7902,
      "plement": 7903,
      "riev": 7904,
      "ĠSwedish": 7905,
      "Ġdig": 7906,
      "ibliography": 7907,
      "erver": 7908,
      "ucket": 7909,
      "emet": 7910,
      "Ġdivided": 7911,
      "protobuf": 7912,
      "elly": 7913,
      "Ġrout": 7914,
      "ĠPremier": 7915,
      "}/": 7916,
      "cha": 7917,
      "Ġapplications": 7918,
      "1928": 7919,
      "Changed": 7920,
      "ĠHay": 7921,
      "1917": 7922,
      "ĠĠĠĠĠĠĊ": 7923,
      "ods": 7924,
      "Ġexists": 7925,
      "stat": 7926,
      "nections": 7927,
      "bing": 7928,
      "rase": 7929,
      "alyt": 7930,
      "ĠHind": 7931,
      "Account": 7932,
      "Ġfeet": 7933,
      "120": 7934,
      "Tra": 7935,
      "eful": 7936,
      "omer": 7937,
      "ika": 7938,
      "Ġagric": 7939,
      "kee": 7940,
      "Ljava": 7941,
      "Ġeconomy": 7942,
      "Ġerrors": 7943,
      "Ġrenamed": 7944,
      "Ġentity": 7945,
      "Ġdefeat": 7946,
      "Ġtesting": 7947,
      "reatest": 7948,
      "Pool": 7949,
      "Ġparticipated": 7950,
      "ĠGro": 7951,
      "urches": 7952,
      "Tele": 7953,
      "ĠSteve": 7954,
      "Ġwing": 7955,
      "Ġbegins": 7956,
      "opher": 7957,
      "Ġlett": 7958,
      "resents": 7959,
      "Fields": 7960,
      "chen": 7961,
      "JSON": 7962,
      "season": 7963,
      "Ġpartner": 7964,
      "Ġteacher": 7965,
      "osl": 7966,
      "Ġcoordin": 7967,
      "clude": 7968,
      "Ġonto": 7969,
      "anga": 7970,
      "aki": 7971,
      "Ġnewly": 7972,
      "Ġobtained": 7973,
      "Ġfell": 7974,
      "Ġwear": 7975,
      "Nov": 7976,
      "yal": 7977,
      "ĠRead": 7978,
      "cut": 7979,
      "Ġconstitu": 7980,
      "eman": 7981,
      "Ġmunicipal": 7982,
      "worth": 7983,
      "Ġregister": 7984,
      "Arch": 7985,
      "erto": 7986,
      "WA": 7987,
      "iments": 7988,
      "1932": 7989,
      "mock": 7990,
      "ĠAh": 7991,
      "Ġpowerful": 7992,
      "Send": 7993,
      "ĠLocal": 7994,
      "Ġcarri": 7995,
      "orders": 7996,
      "Requ": 7997,
      "adoop": 7998,
      "allel": 7999,
      "Ġtransition": 8000,
      "Ġinstrument": 8001,
      "ĠEll": 8002,
      "Ġlif": 8003,
      "ĠReal": 8004,
      "ĠTurk": 8005,
      "Ġestate": 8006,
      "Ġsecondary": 8007,
      "ĠBridge": 8008,
      "Ġelev": 8009,
      "Ġphilosoph": 8010,
      "ĠDuke": 8011,
      "Ġrom": 8012,
      "LS": 8013,
      "1900": 8014,
      "Ġperfect": 8015,
      "risis": 8016,
      "600": 8017,
      "iÃ³n": 8018,
      "apore": 8019,
      "Ġimprove": 8020,
      "1910": 8021,
      "Ġdistinct": 8022,
      "Ġindustrial": 8023,
      "impl": 8024,
      "asters": 8025,
      "Ġhouseholds": 8026,
      "Ġkeys": 8027,
      "olec": 8028,
      "Ġregions": 8029,
      "Ġreasons": 8030,
      "unes": 8031,
      "Best": 8032,
      "split": 8033,
      "ĠKir": 8034,
      "Ġsignal": 8035,
      ".*": 8036,
      "Ġtwice": 8037,
      "ĠCopy": 8038,
      "Gen": 8039,
      "Ġrugby": 8040,
      "ĠMedal": 8041,
      "ĠNY": 8042,
      "Î±": 8043,
      "ĠDoug": 8044,
      "Ġappropri": 8045,
      "Ġapi": 8046,
      "Ġvisual": 8047,
      "KEY": 8048,
      "ais": 8049,
      "Ġpush": 8050,
      "ĠSon": 8051,
      "Network": 8052,
      "Ġcart": 8053,
      "Ġdrop": 8054,
      "Ġmarked": 8055,
      "Ġhosted": 8056,
      "orney": 8057,
      "Ġvehicles": 8058,
      "Selected": 8059,
      "ĠDam": 8060,
      "ĠAction": 8061,
      "ĠError": 8062,
      "Ġprominent": 8063,
      "Ġgranted": 8064,
      "utional": 8065,
      "Ġallowing": 8066,
      "ĠGh": 8067,
      "ĠIraq": 8068,
      "establ": 8069,
      "Ġcriminal": 8070,
      "grid": 8071,
      "Ġcerem": 8072,
      "ln": 8073,
      "ĠElement": 8074,
      "Ġdescribe": 8075,
      "emetery": 8076,
      "'))": 8077,
      "Active": 8078,
      "eq": 8079,
      "connection": 8080,
      "Queue": 8081,
      "margin": 8082,
      "umin": 8083,
      "ĠWat": 8084,
      "Äį": 8085,
      "rizona": 8086,
      "Ġ``": 8087,
      "ĠĠĠĠĠĠĠĠĠĠĠĠĠĠĠĠĠĠĠĠĠĠĠĠĠ": 8088,
      "ĠVersion": 8089,
      "Ġdaily": 8090,
      "Ġsolution": 8091,
      "enum": 8092,
      "ĠExt": 8093,
      "Ġcommonly": 8094,
      "Ġsuccessfully": 8095,
      "ĠBall": 8096,
      "SSERT": 8097,
      "Ġsemi": 8098,
      "Flags": 8099,
      "Ġvisible": 8100,
      "scroll": 8101,
      "attribute": 8102,
      "Net": 8103,
      "dropdown": 8104,
      "ĠIv": 8105,
      "Ġtells": 8106,
      "Ġengineering": 8107,
      "elle": 8108,
      "Ġcoal": 8109,
      "Lock": 8110,
      "Msg": 8111,
      "Ġacting": 8112,
      "FILE": 8113,
      "thread": 8114,
      "wegian": 8115,
      "Ġexternal": 8116,
      "ĠAM": 8117,
      "=\"@": 8118,
      "raction": 8119,
      "Ġresident": 8120,
      "evin": 8121,
      "ĠSweden": 8122,
      "SQL": 8123,
      "German": 8124,
      "Scope": 8125,
      "aug": 8126,
      "ĠRad": 8127,
      "Ġchance": 8128,
      "ennessee": 8129,
      "ĠColorado": 8130,
      "IA": 8131,
      "Edit": 8132,
      "Since": 8133,
      "Ġcomponents": 8134,
      "ĠHun": 8135,
      "ĠBudd": 8136,
      "lywood": 8137,
      "Ġfiction": 8138,
      "ĠLat": 8139,
      "ĠWell": 8140,
      "ĠStephen": 8141,
      "1922": 8142,
      "Ġrequires": 8143,
      "Ġurban": 8144,
      "numer": 8145,
      "Ġprotection": 8146,
      "region": 8147,
      "Ġlargely": 8148,
      "ĠDavis": 8149,
      "acle": 8150,
      "French": 8151,
      "======": 8152,
      "Ġsample": 8153,
      "Ġreflect": 8154,
      "ĠTrust": 8155,
      "pective": 8156,
      "HL": 8157,
      "plom": 8158,
      "ĠWinter": 8159,
      "Ġpiano": 8160,
      "Ġholds": 8161,
      "1931": 8162,
      "Ġhers": 8163,
      "ĠHan": 8164,
      "rie": 8165,
      "Ġreduce": 8166,
      "\"`": 8167,
      "Ġdifference": 8168,
      "ifically": 8169,
      "sel": 8170,
      "ĠGolden": 8171,
      "ĠDefault": 8172,
      "Women": 8173,
      "ĠCy": 8174,
      "Ġpropos": 8175,
      "mad": 8176,
      "Ġbow": 8177,
      "abilities": 8178,
      "Ġpremi": 8179,
      "Ġinjury": 8180,
      "'d": 8181,
      "Ġdevices": 8182,
      "1924": 8183,
      "Ġcommittee": 8184,
      "Ġnotable": 8185,
      "Ġclin": 8186,
      "LOG": 8187,
      "ĠRon": 8188,
      "primary": 8189,
      "Ġhtml": 8190,
      "Ġcontemporary": 8191,
      "Obj": 8192,
      "Widget": 8193,
      "Ġremember": 8194,
      "Ġproceed": 8195,
      "isa": 8196,
      "contin": 8197,
      "cow": 8198,
      "Play": 8199,
      "Olymp": 8200,
      "otion": 8201,
      "ancel": 8202,
      "Ġdownload": 8203,
      "aine": 8204,
      "FFFF": 8205,
      "Ġopin": 8206,
      "$(": 8207,
      ";/": 8208,
      "Av": 8209,
      "1927": 8210,
      "Ġorganized": 8211,
      "END": 8212,
      "Ġcommit": 8213,
      "register": 8214,
      "Ġpurchased": 8215,
      "Ġrepresenting": 8216,
      "Biography": 8217,
      "ĠGallery": 8218,
      "Extension": 8219,
      "Ġcomposer": 8220,
      "Ġstack": 8221,
      "crete": 8222,
      "Ġadvanced": 8223,
      "ĠCaptain": 8224,
      "ĠSem": 8225,
      "Ġassess": 8226,
      "Ġswim": 8227,
      "Ġanimals": 8228,
      "Ġgra": 8229,
      "ĠChannel": 8230,
      "ĠMill": 8231,
      "Ġwidely": 8232,
      "wall": 8233,
      "ĠGree": 8234,
      "Ġseats": 8235,
      "exception": 8236,
      "Ġdefend": 8237,
      "Ġsust": 8238,
      "hentication": 8239,
      "Ġbuy": 8240,
      "250": 8241,
      "ĠPage": 8242,
      "Ġdomain": 8243,
      "Ġparish": 8244,
      "Ġspons": 8245,
      "jquery": 8246,
      "Ġmobile": 8247,
      "Ġsand": 8248,
      "MENT": 8249,
      "Meta": 8250,
      "ĠShort": 8251,
      "ĠFollowing": 8252,
      "Ġrecognized": 8253,
      "Ġdetermine": 8254,
      "Ġdeleg": 8255,
      "Ġready": 8256,
      "ĠGreg": 8257,
      "Timeout": 8258,
      "pson": 8259,
      "Vert": 8260,
      "Ġlicense": 8261,
      "Ġdefine": 8262,
      "Internal": 8263,
      "Ġtowns": 8264,
      "Support": 8265,
      "ĠHard": 8266,
      "ĠEngineering": 8267,
      "ARY": 8268,
      "agram": 8269,
      "phas": 8270,
      "Ġfixed": 8271,
      "ĠAge": 8272,
      "otic": 8273,
      "cmd": 8274,
      "Struct": 8275,
      "browser": 8276,
      "GS": 8277,
      "Ġhour": 8278,
      "Ġserves": 8279,
      "ĠBishop": 8280,
      "Ġreturning": 8281,
      "Ġsuggested": 8282,
      "Ġtransp": 8283,
      "Ġdb": 8284,
      "person": 8285,
      "ĠMoh": 8286,
      "ĠLegisl": 8287,
      "gorithm": 8288,
      "ById": 8289,
      "Ġnovels": 8290,
      "ĠBat": 8291,
      "Ġdefinition": 8292,
      "Ġce": 8293,
      "Ġinteger": 8294,
      "Ġstone": 8295,
      "ĠIndones": 8296,
      "(){": 8297,
      "Ġbtn": 8298,
      "Ġdie": 8299,
      "SR": 8300,
      "ĠTai": 8301,
      "profile": 8302,
      "Ġnegative": 8303,
      "rig": 8304,
      "}\\": 8305,
      "Ġhabit": 8306,
      "Ġaffili": 8307,
      "Ġaband": 8308,
      "Ġparliament": 8309,
      "Ġsector": 8310,
      "Ġdrink": 8311,
      "Ġunless": 8312,
      "ĠCastle": 8313,
      "ertificate": 8314,
      "cor": 8315,
      "ĠPeak": 8316,
      "Ġcab": 8317,
      "Ġdoor": 8318,
      "Ġinsert": 8319,
      "ĠWindows": 8320,
      "Î¿": 8321,
      "Windows": 8322,
      "apes": 8323,
      "Ġstarts": 8324,
      "ĠChristmas": 8325,
      "ĠTownship": 8326,
      "VERSION": 8327,
      "ourney": 8328,
      "Ġtitled": 8329,
      "fall": 8330,
      "ĠCzech": 8331,
      "Ġreceiving": 8332,
      "Ġadopted": 8333,
      "ĠAnother": 8334,
      "ĠAND": 8335,
      "Ġtermin": 8336,
      "Ġ%}": 8337,
      "Ġeyes": 8338,
      "Ġwrest": 8339,
      "Ġterritory": 8340,
      "Â°": 8341,
      "ĠFacebook": 8342,
      "ĠSerb": 8343,
      "Jo": 8344,
      "Ġsyn": 8345,
      "eless": 8346,
      "Ġfounder": 8347,
      "ĠWel": 8348,
      "ropolitan": 8349,
      "Ġconsult": 8350,
      ".__": 8351,
      "Ġsurn": 8352,
      "Ġvir": 8353,
      "Symbol": 8354,
      "ĠDespite": 8355,
      "Ġarts": 8356,
      "jan": 8357,
      "lay": 8358,
      "addr": 8359,
      "Ġfigures": 8360,
      "@\"": 8361,
      "Ġinstanceof": 8362,
      "Ġvess": 8363,
      "ĠJava": 8364,
      "Ġfine": 8365,
      "dates": 8366,
      "ĠReport": 8367,
      "ĠInternet": 8368,
      "Logger": 8369,
      "Ġauthorities": 8370,
      "Ġdetermined": 8371,
      "256": 8372,
      "Ġinterpret": 8373,
      "unsigned": 8374,
      "Ġspot": 8375,
      "try": 8376,
      "operation": 8377,
      "tainment": 8378,
      "ifer": 8379,
      "Ġlayer": 8380,
      "ĠIndiana": 8381,
      "ician": 8382,
      "going": 8383,
      "ĠConf": 8384,
      "Ġdelay": 8385,
      "ROM": 8386,
      "stats": 8387,
      "ĠBooks": 8388,
      "Ġupdated": 8389,
      "iants": 8390,
      "XT": 8391,
      "Ġrecip": 8392,
      "aus": 8393,
      "Crit": 8394,
      "Ġdocumentary": 8395,
      "çļ": 8396,
      "ĠNaz": 8397,
      "recated": 8398,
      "Ġsuffered": 8399,
      "ONE": 8400,
      "ĠAre": 8401,
      "Ġlosing": 8402,
      "Ġanyone": 8403,
      "Ġfighting": 8404,
      "Float": 8405,
      "ĠSaturday": 8406,
      "SU": 8407,
      "ĠExecut": 8408,
      "Ġsafe": 8409,
      "HTML": 8410,
      "Ġaccident": 8411,
      "%,": 8412,
      "ĠNote": 8413,
      "TABLE": 8414,
      "Ġattributes": 8415,
      "save": 8416,
      "Ġadvant": 8417,
      "Ġhandler": 8418,
      "1925": 8419,
      "uct": 8420,
      "ĠMond": 8421,
      "1921": 8422,
      "ĠOregon": 8423,
      "ĠJoh": 8424,
      "Ġahead": 8425,
      "Ġfacility": 8426,
      "omot": 8427,
      "ernel": 8428,
      "ĠMA": 8429,
      "oor": 8430,
      "Fran": 8431,
      "(\\": 8432,
      "^{": 8433,
      "1923": 8434,
      "eral": 8435,
      "800": 8436,
      "entially": 8437,
      "Ġlocations": 8438,
      "Ġshift": 8439,
      "Ñı": 8440,
      "PAR": 8441,
      "txt": 8442,
      "Items": 8443,
      "home": 8444,
      "rum": 8445,
      "Desc": 8446,
      "appe": 8447,
      "ĠMilitary": 8448,
      "oa": 8449,
      "Ġri": 8450,
      "Ġstorm": 8451,
      "Ġcorner": 8452,
      "ocker": 8453,
      "Auth": 8454,
      ")))": 8455,
      "rot": 8456,
      "DC": 8457,
      "hadoop": 8458,
      "Ġfresh": 8459,
      "]]": 8460,
      "Ġportion": 8461,
      "ivalent": 8462,
      "Ġregarding": 8463,
      "Leg": 8464,
      "Own": 8465,
      "Ġalternative": 8466,
      "ĠEth": 8467,
      "1912": 8468,
      "zone": 8469,
      "Ġlab": 8470,
      "Sources": 8471,
      "ĠTurkey": 8472,
      "Ġinspired": 8473,
      "ĠConnect": 8474,
      "arry": 8475,
      "Ġimag": 8476,
      "agan": 8477,
      "igrants": 8478,
      "elegate": 8479,
      "Rest": 8480,
      "ĠMaria": 8481,
      "Ġgained": 8482,
      "fire": 8483,
      "ĠGil": 8484,
      "ĠAtlantic": 8485,
      "radius": 8486,
      "ighth": 8487,
      "ĠTal": 8488,
      "CHE": 8489,
      "Ġcosts": 8490,
      "Ġeasily": 8491,
      "pressed": 8492,
      "ĠAbout": 8493,
      "aints": 8494,
      "Ġengineer": 8495,
      "irement": 8496,
      "faces": 8497,
      "ĠMicrosoft": 8498,
      "ĠLet": 8499,
      "low": 8500,
      "Ġfaculty": 8501,
      "ĠPu": 8502,
      "webpack": 8503,
      "Tax": 8504,
      "ussian": 8505,
      "Ġng": 8506,
      "ĠWhe": 8507,
      "ĠAmericans": 8508,
      "Ġmatrix": 8509,
      "çļĦ": 8510,
      "ĠLast": 8511,
      "printf": 8512,
      "irty": 8513,
      "ĠOriginal": 8514,
      "Ġscientific": 8515,
      "ĠLabor": 8516,
      "Ġgovernor": 8517,
      "Ġfemales": 8518,
      "ixel": 8519,
      "zy": 8520,
      "gar": 8521,
      "ĠLike": 8522,
      "Ġplanning": 8523,
      "Ġrapid": 8524,
      "engers": 8525,
      "Ġss": 8526,
      "1926": 8527,
      "ĠSquad": 8528,
      "ĠØ": 8529,
      "Ġsurrounding": 8530,
      "Feature": 8531,
      "parser": 8532,
      "ĠBru": 8533,
      "Game": 8534,
      "ĠEven": 8535,
      "Awards": 8536,
      "ĠStock": 8537,
      "Ġpretty": 8538,
      "Ġspeech": 8539,
      "keyword": 8540,
      "Ġends": 8541,
      "Directory": 8542,
      "cap": 8543,
      "ĠPhilippines": 8544,
      "lean": 8545,
      "queue": 8546,
      "Ġfocused": 8547,
      "NG": 8548,
      "Ġmessages": 8549,
      "IB": 8550,
      "Ġsides": 8551,
      "Ġperformances": 8552,
      "flags": 8553,
      "iang": 8554,
      "IE": 8555,
      "_->": 8556,
      "ĠLewis": 8557,
      "Ġstatistics": 8558,
      "Ġcrow": 8559,
      "game": 8560,
      "inline": 8561,
      "Ġmedian": 8562,
      "ĠMountain": 8563,
      "Ġburn": 8564,
      "kh": 8565,
      "ĠKansas": 8566,
      "ĠSav": 8567,
      "Ġphone": 8568,
      "=>": 8569,
      "illery": 8570,
      "Ġarrested": 8571,
      "ĠMissouri": 8572,
      "ĠĠĠĠĠĠĠĠĠĠĠĠĠĠĠĠĠĠĠĠĠĠĠĠ": 8573,
      "(!": 8574,
      "Ġherself": 8575,
      "ĠGer": 8576,
      "Ġbuilder": 8577,
      "Ġtrees": 8578,
      "Ġsevent": 8579,
      "ĠMun": 8580,
      "Ġelem": 8581,
      "Ġgirls": 8582,
      "Ġsan": 8583,
      "Ġwind": 8584,
      "[:": 8585,
      "outs": 8586,
      "=\"\"": 8587,
      "Ġphase": 8588,
      "Ġresulted": 8589,
      "atar": 8590,
      "oom": 8591,
      "Now": 8592,
      "Ġideas": 8593,
      "Ġreality": 8594,
      "ĠCas": 8595,
      "$/": 8596,
      "vo": 8597,
      "Ġyounger": 8598,
      "Ġhyp": 8599,
      "ocate": 8600,
      "ĠEs": 8601,
      "assertEquals": 8602,
      "Ġinn": 8603,
      "Ġchosen": 8604,
      "Ġfunding": 8605,
      "Ġaf": 8606,
      "Perm": 8607,
      "ĠHo": 8608,
      "Ġproced": 8609,
      "iner": 8610,
      "Ġauthority": 8611,
      "rastructure": 8612,
      "Ġadvance": 8613,
      "ĠFalse": 8614,
      "xs": 8615,
      "Ġdensity": 8616,
      "ĠGi": 8617,
      "ĠSupport": 8618,
      "living": 8619,
      "Ġapparent": 8620,
      "Ġportray": 8621,
      "gency": 8622,
      "ĠTask": 8623,
      "_,": 8624,
      "events": 8625,
      "Ġpoly": 8626,
      "Ġshowing": 8627,
      "git": 8628,
      "Ġextrem": 8629,
      "123": 8630,
      "ĠUt": 8631,
      "Ġcampus": 8632,
      "Olympic": 8633,
      "rim": 8634,
      "ĠJews": 8635,
      "manager": 8636,
      "ĠCur": 8637,
      "ĠArthur": 8638,
      "typed": 8639,
      "original": 8640,
      "ĠTennessee": 8641,
      "rm": 8642,
      "Ġcomments": 8643,
      "MAX": 8644,
      "star": 8645,
      "$.": 8646,
      "Ġfestival": 8647,
      "ĠFord": 8648,
      "ĠBaron": 8649,
      "SIZE": 8650,
      "hu": 8651,
      "Ġteaching": 8652,
      "ĠConfig": 8653,
      "()));": 8654,
      "hard": 8655,
      "Ġvector": 8656,
      "pay": 8657,
      "cam": 8658,
      "nergy": 8659,
      "Ġtoward": 8660,
      "ĠRights": 8661,
      "acket": 8662,
      "?\"": 8663,
      "Ġmedalists": 8664,
      "PATH": 8665,
      "ĠLtd": 8666,
      "HS": 8667,
      "ĠKhan": 8668,
      "Ġdecre": 8669,
      "Ġrain": 8670,
      "Ġdocuments": 8671,
      "1916": 8672,
      "Loader": 8673,
      "Transport": 8674,
      "ĠHighway": 8675,
      "pur": 8676,
      "essions": 8677,
      "ĠMemorial": 8678,
      "Editor": 8679,
      "Ġarms": 8680,
      "Ġenabled": 8681,
      "Ġaware": 8682,
      "1915": 8683,
      "boy": 8684,
      "ĠQueensland": 8685,
      "Ġinvestigation": 8686,
      "Files": 8687,
      "wing": 8688,
      "apos": 8689,
      "atern": 8690,
      "Ġfunds": 8691,
      "ĠAst": 8692,
      "Ġaudio": 8693,
      "Ġviolence": 8694,
      "chant": 8695,
      "Ġtaught": 8696,
      "oli": 8697,
      "Ġdoctor": 8698,
      "ordan": 8699,
      "ĠColon": 8700,
      "Ġwins": 8701,
      "Ġyards": 8702,
      "Ġwasn": 8703,
      "ivals": 8704,
      "engine": 8705,
      "Ġscholar": 8706,
      "Ġtools": 8707,
      "NotNull": 8708,
      "ADD": 8709,
      "schema": 8710,
      "ĠRoss": 8711,
      "ĠFriday": 8712,
      "More": 8713,
      "ushed": 8714,
      "Ġemployees": 8715,
      "Ġcopies": 8716,
      "ĠFederation": 8717,
      "Ġblocks": 8718,
      "Var": 8719,
      "hetic": 8720,
      "Ã©s": 8721,
      "Ġhidden": 8722,
      "Ġve": 8723,
      "Ġtemperature": 8724,
      "angular": 8725,
      "Ġclassical": 8726,
      "Ġresc": 8727,
      "Ġpriest": 8728,
      "','": 8729,
      "Ġpanel": 8730,
      "ĠTurn": 8731,
      "ĠFund": 8732,
      "Two": 8733,
      "Ġlib": 8734,
      "ĠNick": 8735,
      "ĠWho": 8736,
      "desc": 8737,
      "Ġheav": 8738,
      "Product": 8739,
      "tip": 8740,
      "lets": 8741,
      "night": 8742,
      "aren": 8743,
      "Ġprepar": 8744,
      "okes": 8745,
      "ĠDom": 8746,
      "Ġdistricts": 8747,
      "Ġjournalist": 8748,
      "Ġloan": 8749,
      "{}": 8750,
      "ĠImp": 8751,
      "fill": 8752,
      "normal": 8753,
      "Profile": 8754,
      "ĠIV": 8755,
      "Panel": 8756,
      "UID": 8757,
      "security": 8758,
      "assertEqual": 8759,
      "formance": 8760,
      "bre": 8761,
      "also": 8762,
      "ĠPit": 8763,
      "Ġ[];": 8764,
      "pi": 8765,
      "apy": 8766,
      "Ġzero": 8767,
      "Ġopposition": 8768,
      "wealth": 8769,
      "Ġunable": 8770,
      "ĠMexican": 8771,
      "Ġzone": 8772,
      "Canadian": 8773,
      "Ġpainting": 8774,
      "ĠTransport": 8775,
      "uma": 8776,
      "Ġjudge": 8777,
      "ampl": 8778,
      "ĠPhys": 8779,
      "ĠPy": 8780,
      "ĠRepresentatives": 8781,
      "Ġcandidates": 8782,
      "ulator": 8783,
      "ĠIndex": 8784,
      "Ġrepresents": 8785,
      "Job": 8786,
      "ĠVi": 8787,
      "Ġcancell": 8788,
      "Ġblog": 8789,
      "Ġgenerate": 8790,
      "entials": 8791,
      "Ġinvent": 8792,
      "ĠNorm": 8793,
      "ni": 8794,
      "Ġmyst": 8795,
      "western": 8796,
      "vi": 8797,
      "Ġuseful": 8798,
      "Ġrelatively": 8799,
      "ĠAdam": 8800,
      "Ġformation": 8801,
      "Ġdropped": 8802,
      "Ġbudget": 8803,
      "ĠNorway": 8804,
      "Ġinters": 8805,
      "ordon": 8806,
      "]:": 8807,
      ")));": 8808,
      "sum": 8809,
      "Home": 8810,
      "ĠHal": 8811,
      "Ġholding": 8812,
      "ÃŃa": 8813,
      "istant": 8814,
      "ĠLeon": 8815,
      "ambda": 8816,
      "Ġhall": 8817,
      "Ġplot": 8818,
      "Ġchairman": 8819,
      "imit": 8820,
      "lah": 8821,
      "Ġcamera": 8822,
      "avid": 8823,
      "Ġtab": 8824,
      "Ġtwenty": 8825,
      "Ġfashion": 8826,
      "Ġinvalid": 8827,
      "sect": 8828,
      "ĠArizona": 8829,
      "Ġconverted": 8830,
      "ective": 8831,
      "Ġnorm": 8832,
      "Ġconsum": 8833,
      "Ã¼r": 8834,
      "Ġdefense": 8835,
      "ĠAnderson": 8836,
      "Ġrepresentation": 8837,
      "Ġdanger": 8838,
      "Plugin": 8839,
      "move": 8840,
      "ĠEP": 8841,
      "Ġescape": 8842,
      "ĠLow": 8843,
      "ĠEvery": 8844,
      "Ġfuel": 8845,
      "()).": 8846,
      "Ġenvironmental": 8847,
      "eting": 8848,
      "Route": 8849,
      "Space": 8850,
      "rices": 8851,
      "bles": 8852,
      "ĠKal": 8853,
      "Ġprocessing": 8854,
      "Cond": 8855,
      "friend": 8856,
      "ĠRa": 8857,
      "Ġexpansion": 8858,
      "ĠStory": 8859,
      "Ġscoring": 8860,
      "Ġguard": 8861,
      "ando": 8862,
      "âĢĿ.": 8863,
      "that": 8864,
      "editor": 8865,
      "ĠMunicip": 8866,
      "Ġglass": 8867,
      "Ġnob": 8868,
      "cb": 8869,
      "lg": 8870,
      "ĠEntertainment": 8871,
      "ryst": 8872,
      "ĉĠĠĠĠĠ": 8873,
      "oti": 8874,
      "ĠPier": 8875,
      "incess": 8876,
      "Bit": 8877,
      "Ġknew": 8878,
      "ĠForeign": 8879,
      "ĠRest": 8880,
      "ĠUkraine": 8881,
      "Ġvent": 8882,
      "important": 8883,
      "Bibliography": 8884,
      "bell": 8885,
      "Ġapproved": 8886,
      "Common": 8887,
      "ĠHoly": 8888,
      "witzer": 8889,
      "Ġpublication": 8890,
      "ipping": 8891,
      "Japan": 8892,
      "Ġnuclear": 8893,
      "Ġpieces": 8894,
      "ĠSingapore": 8895,
      "ĠĠĠĠĠĠĠĠĠĠĠĠĠĠĠĠĠĠĠĠĠĠ": 8896,
      "cles": 8897,
      "Selector": 8898,
      "Ġranked": 8899,
      "Ġoptional": 8900,
      "Ġending": 8901,
      "Ġaccur": 8902,
      "Ġtechnical": 8903,
      "isms": 8904,
      "Ġstrategy": 8905,
      "Ġinnov": 8906,
      "ĠMelbourne": 8907,
      "Ġoccurs": 8908,
      "Ġfactor": 8909,
      "Film": 8910,
      "Ġadj": 8911,
      "proto": 8912,
      "Ġslightly": 8913,
      "LP": 8914,
      "HR": 8915,
      "NavBarCell": 8916,
      "}</": 8917,
      "ĠLiter": 8918,
      "oven": 8919,
      "erd": 8920,
      "ĠDor": 8921,
      "ĠWed": 8922,
      "Ġelimin": 8923,
      "agen": 8924,
      "aux": 8925,
      "ĠLabour": 8926,
      "Ġdetail": 8927,
      "utf": 8928,
      "properties": 8929,
      "Ġpy": 8930,
      "Ġhappened": 8931,
      "Close": 8932,
      "fef": 8933,
      "ĠStaff": 8934,
      "ĠMaryland": 8935,
      "Security": 8936,
      "Ġnodes": 8937,
      "ĠHarry": 8938,
      "Ġtheatre": 8939,
      "2023": 8940,
      "1913": 8941,
      "Ġracing": 8942,
      "Ġoccasion": 8943,
      "Ġwants": 8944,
      "anes": 8945,
      "Ġscheduled": 8946,
      "Ġattempts": 8947,
      "Ġdoll": 8948,
      "Sportspeople": 8949,
      "words": 8950,
      "puter": 8951,
      "Life": 8952,
      "DT": 8953,
      "Ġpm": 8954,
      "Ġdeveloping": 8955,
      "een": 8956,
      "Term": 8957,
      "ĠRecord": 8958,
      "structor": 8959,
      "ãĢ": 8960,
      "ĠAS": 8961,
      "Ġdesignated": 8962,
      "ĠHart": 8963,
      "children": 8964,
      "ĠLev": 8965,
      "Ġther": 8966,
      "pository": 8967,
      "Ġstandards": 8968,
      "Ġawait": 8969,
      "........": 8970,
      "agh": 8971,
      "Ġbought": 8972,
      "ensis": 8973,
      "law": 8974,
      "ĠJunior": 8975,
      "ĠAdv": 8976,
      "*)": 8977,
      "Abstract": 8978,
      "Iterator": 8979,
      "Character": 8980,
      "ĠChildren": 8981,
      "witzerland": 8982,
      "ĠFle": 8983,
      "otes": 8984,
      "controller": 8985,
      "Adapter": 8986,
      "Ġdecor": 8987,
      "CAA": 8988,
      "Ġfan": 8989,
      "ÐµÐ": 8990,
      "ĠMoscow": 8991,
      "ĠHou": 8992,
      "inher": 8993,
      "ĠAffairs": 8994,
      "Ġrise": 8995,
      "Ġhair": 8996,
      "ĠSign": 8997,
      "DP": 8998,
      "antasy": 8999,
      "ĠMalays": 9000,
      "ĠAny": 9001,
      "Ġ{};": 9002,
      "Ġjump": 9003,
      "aset": 9004,
      "uese": 9005,
      "Double": 9006,
      "Database": 9007,
      "ĠJer": 9008,
      "ĠStart": 9009,
      "BE": 9010,
      "cert": 9011,
      "Ġvisited": 9012,
      "andy": 9013,
      "ĠVAL": 9014,
      "ĠSurvey": 9015,
      ")\">": 9016,
      "ĠGuide": 9017,
      "Ġminimum": 9018,
      "ToString": 9019,
      "ĠParam": 9020,
      "XML": 9021,
      "inals": 9022,
      "horizontal": 9023,
      "Ġburied": 9024,
      "points": 9025,
      "ĠEric": 9026,
      "Ġincident": 9027,
      "wick": 9028,
      "coln": 9029,
      "iversary": 9030,
      "FT": 9031,
      "ĠPath": 9032,
      "Geography": 9033,
      "ression": 9034,
      "Ant": 9035,
      "ository": 9036,
      "ĠBu": 9037,
      "wig": 9038,
      "Ġbor": 9039,
      "oving": 9040,
      "Ġio": 9041,
      "Ġ\"\"": 9042,
      "Ġlooks": 9043,
      "Pay": 9044,
      "Ġsupporting": 9045,
      "symbol": 9046,
      "################": 9047,
      "ambig": 9048,
      "typeof": 9049,
      "Engine": 9050,
      "Print": 9051,
      "ĠMiller": 9052,
      "ookie": 9053,
      "ancell": 9054,
      "Ġnominated": 9055,
      "throws": 9056,
      "incial": 9057,
      "ĠCab": 9058,
      "Ġpassing": 9059,
      "Ġskills": 9060,
      "ĠEnc": 9061,
      "ideos": 9062,
      "ĠBecause": 9063,
      "Big": 9064,
      "Ġsell": 9065,
      "Ġsubsequent": 9066,
      "roit": 9067,
      "selected": 9068,
      "Ġring": 9069,
      "ĠEnvironment": 9070,
      "rait": 9071,
      "ipl": 9072,
      "Ġalleged": 9073,
      "ĠPhilip": 9074,
      "ĠApple": 9075,
      "Ġidx": 9076,
      "Ġlicens": 9077,
      "Ġadding": 9078,
      "Ġneighborhood": 9079,
      "fred": 9080,
      "////////////////////////////////": 9081,
      "_(": 9082,
      "area": 9083,
      "Auto": 9084,
      "ĠCEO": 9085,
      "ĠRose": 9086,
      "achment": 9087,
      "Ġpointer": 9088,
      "Full": 9089,
      "ĠOption": 9090,
      "esc": 9091,
      "ĠTony": 9092,
      "ĠSher": 9093,
      "Ġexamples": 9094,
      "seud": 9095,
      "har": 9096,
      "Enum": 9097,
      "stan": 9098,
      "\",\"": 9099,
      "channel": 9100,
      "ĠReact": 9101,
      "Ġnavigation": 9102,
      "Populated": 9103,
      "Ġhear": 9104,
      "ĠAmazon": 9105,
      "ships": 9106,
      "Ġmist": 9107,
      "Ġanal": 9108,
      "Ġprincipal": 9109,
      "ĠNa": 9110,
      "ups": 9111,
      "Ġsummary": 9112,
      "Euro": 9113,
      "Ġvocal": 9114,
      "Ġbeautiful": 9115,
      "Ġappre": 9116,
      "Ġyellow": 9117,
      "ĠFront": 9118,
      "Ġhotel": 9119,
      "Author": 9120,
      "olas": 9121,
      "Death": 9122,
      "fefefe": 9123,
      "ĠArk": 9124,
      "bserver": 9125,
      "Ġcas": 9126,
      "Ġcontrast": 9127,
      "archy": 9128,
      "Ġcontained": 9129,
      "Jan": 9130,
      "account": 9131,
      "decl": 9132,
      "ĠVietnam": 9133,
      "![": 9134,
      "ĠCost": 9135,
      "++;": 9136,
      "Ġbronze": 9137,
      "Ġpowers": 9138,
      "ĠBaseball": 9139,
      "forms": 9140,
      "Ġsatisf": 9141,
      "Ang": 9142,
      "Ġfunc": 9143,
      "ĠLandroid": 9144,
      "Ġsegment": 9145,
      "hell": 9146,
      "super": 9147,
      "Ġchallenge": 9148,
      "ĠUpdate": 9149,
      "agu": 9150,
      "craft": 9151,
      "Ġexperi": 9152,
      "ĠNode": 9153,
      "ĠNative": 9154,
      "LIC": 9155,
      "Ġenable": 9156,
      "Ġachieved": 9157,
      "Proxy": 9158,
      "Single": 9159,
      "Ġsun": 9160,
      "ĠPolicy": 9161,
      "heim": 9162,
      "Ġdecades": 9163,
      "external": 9164,
      "hol": 9165,
      "Ġweather": 9166,
      "RAN": 9167,
      "Ġnarrow": 9168,
      "ois": 9169,
      "wich": 9170,
      "Cap": 9171,
      "igg": 9172,
      "'])": 9173,
      "åı": 9174,
      "1911": 9175,
      "Ġ(;": 9176,
      "Ġrh": 9177,
      "ĠManchester": 9178,
      "ĠFreder": 9179,
      "Ġwinter": 9180,
      "ĠSound": 9181,
      "Ġfn": 9182,
      "Ġhuge": 9183,
      "Browser": 9184,
      "ques": 9185,
      "Ġremote": 9186,
      "hedral": 9187,
      "Ġperforming": 9188,
      "BI": 9189,
      "Ġcompris": 9190,
      "Grid": 9191,
      "bat": 9192,
      "Ġstarring": 9193,
      "ĠRow": 9194,
      "ĠMagazine": 9195,
      "Ġhorse": 9196,
      "Ġpartnership": 9197,
      "echo": 9198,
      "Ġcool": 9199,
      "->_": 9200,
      "abama": 9201,
      "Ġvillages": 9202,
      "bass": 9203,
      "alar": 9204,
      "agg": 9205,
      "ĠDa": 9206,
      "Christ": 9207,
      "Annot": 9208,
      "Ġisol": 9209,
      "ĠSO": 9210,
      "Ġvac": 9211,
      "ĠBuilding": 9212,
      "handler": 9213,
      "Ġlayout": 9214,
      "igenous": 9215,
      "Conn": 9216,
      "enny": 9217,
      "Ġdepth": 9218,
      "Ġobtain": 9219,
      "ĠControl": 9220,
      "Ġdomestic": 9221,
      "PT": 9222,
      "player": 9223,
      "Ġrequests": 9224,
      "Ġnotice": 9225,
      "Matrix": 9226,
      "tabs": 9227,
      "Ġletters": 9228,
      "Ġderived": 9229,
      "Ġweapons": 9230,
      "UTF": 9231,
      "Ġobserved": 9232,
      "Scroll": 9233,
      "ĠModern": 9234,
      "Dest": 9235,
      "ĠMake": 9236,
      "here": 9237,
      "reset": 9238,
      "Ġroyal": 9239,
      "Ġcref": 9240,
      "iterator": 9241,
      "Google": 9242,
      "!\"": 9243,
      "Ġ=========": 9244,
      "ĠMas": 9245,
      "WR": 9246,
      "shape": 9247,
      "Äĥ": 9248,
      "Ġcombination": 9249,
      "Ġcombat": 9250,
      "Ġflat": 9251,
      "getElement": 9252,
      "ben": 9253,
      "%.": 9254,
      "They": 9255,
      "Ġsale": 9256,
      "aza": 9257,
      "zh": 9258,
      "Ġbed": 9259,
      "bean": 9260,
      "Ġwaves": 9261,
      "ĠSoc": 9262,
      "lections": 9263,
      "istent": 9264,
      "ĠNFL": 9265,
      "Inv": 9266,
      "Attributes": 9267,
      "Cred": 9268,
      "Ġplease": 9269,
      "ĠLink": 9270,
      "Ġtranslation": 9271,
      "MI": 9272,
      "offs": 9273,
      "ĠBrand": 9274,
      "ĠFunction": 9275,
      "Miss": 9276,
      "role": 9277,
      "idel": 9278,
      "Ġmonitor": 9279,
      ".\");": 9280,
      "Ġattr": 9281,
      "Ġcritics": 9282,
      "Ġmel": 9283,
      "Ġkick": 9284,
      "Ġtend": 9285,
      "North": 9286,
      "NULL": 9287,
      "Ġgar": 9288,
      "Ġimplements": 9289,
      "kw": 9290,
      "Ġcollected": 9291,
      "configuration": 9292,
      "ĠFellow": 9293,
      "Note": 9294,
      "Ġadvent": 9295,
      "Layer": 9296,
      "William": 9297,
      "ĠGreece": 9298,
      "Ġbrowser": 9299,
      "Global": 9300,
      "ĠCape": 9301,
      "Ġfrequently": 9302,
      "Ġinvestment": 9303,
      "Gr": 9304,
      "ĠTODO": 9305,
      "ownt": 9306,
      "uda": 9307,
      "Ġcaptain": 9308,
      "Ġacts": 9309,
      "Java": 9310,
      "Ġfill": 9311,
      "Ġfinds": 9312,
      "FIG": 9313,
      "Ġdress": 9314,
      "ĠBah": 9315,
      "Ġinner": 9316,
      "Ġpicture": 9317,
      "ĠGab": 9318,
      "Ġsupports": 9319,
      "ĠBalt": 9320,
      "à¥": 9321,
      "Ġeducated": 9322,
      "ĠBrian": 9323,
      "Ġcommunication": 9324,
      "Ġmand": 9325,
      "Ġsomew": 9326,
      "bytes": 9327,
      "128": 9328,
      "ounded": 9329,
      "Ġrich": 9330,
      "inema": 9331,
      "ynamic": 9332,
      "Ġorders": 9333,
      "para": 9334,
      "1908": 9335,
      "Short": 9336,
      "Symfony": 9337,
      "Ġrear": 9338,
      "ĠSimon": 9339,
      "argument": 9340,
      "ictional": 9341,
      "each": 9342,
      "Family": 9343,
      "SER": 9344,
      "ĠSri": 9345,
      "Ġyield": 9346,
      "Ġtrip": 9347,
      "rations": 9348,
      "apply": 9349,
      "ĠOcean": 9350,
      "Ġbiggest": 9351,
      "hide": 9352,
      "dam": 9353,
      "101": 9354,
      "ista": 9355,
      "Ġunderstanding": 9356,
      "rell": 9357,
      "PORT": 9358,
      "ureau": 9359,
      "Ġabsolute": 9360,
      "iley": 9361,
      "Ġsucceeded": 9362,
      "ĠOfficer": 9363,
      "Ġinterested": 9364,
      "attery": 9365,
      "Ġanswer": 9366,
      "ĠBurn": 9367,
      "Ġhappen": 9368,
      "Identifier": 9369,
      "IPT": 9370,
      "lahoma": 9371,
      "Ġloop": 9372,
      "rog": 9373,
      "Ġcredit": 9374,
      "Mo": 9375,
      "Ġinteresting": 9376,
      "Ep": 9377,
      "ented": 9378,
      "Ġmayor": 9379,
      "ĠSi": 9380,
      "Ġassembly": 9381,
      "Ġbrain": 9382,
      "Ġexpressed": 9383,
      "Ġagency": 9384,
      "Ġeye": 9385,
      "ĠAustria": 9386,
      "ĠRoy": 9387,
      "LECT": 9388,
      "Ġqualified": 9389,
      "Ġdomin": 9390,
      "ĠIowa": 9391,
      "ublin": 9392,
      "ĠJane": 9393,
      "Ġbroke": 9394,
      "endor": 9395,
      "mont": 9396,
      "pping": 9397,
      "ĠDiego": 9398,
      "Ġmanagers": 9399,
      "ĠPM": 9400,
      "Ġterror": 9401,
      "ĠKentucky": 9402,
      "Ġkilling": 9403,
      "ĠConst": 9404,
      "Ġcustomers": 9405,
      "Prop": 9406,
      "merce": 9407,
      "Ġvice": 9408,
      "Ġtrains": 9409,
      "Australian": 9410,
      "ĠVo": 9411,
      "&&": 9412,
      "Pol": 9413,
      "Ġfactors": 9414,
      "ĠDark": 9415,
      "Ġdrums": 9416,
      "world": 9417,
      "owered": 9418,
      "ctrine": 9419,
      "Ġrough": 9420,
      "ĠBab": 9421,
      "agues": 9422,
      "Ġmales": 9423,
      "Ġanimal": 9424,
      "rat": 9425,
      "iami": 9426,
      "ĠSaf": 9427,
      "Ġshut": 9428,
      "Parse": 9429,
      "Ġpolicies": 9430,
      "Ġhydro": 9431,
      "ĠTwitter": 9432,
      "Ġmo": 9433,
      "ategy": 9434,
      "fail": 9435,
      "Ġgain": 9436,
      "wild": 9437,
      "iph": 9438,
      "Ġcoaches": 9439,
      "Ġperhaps": 9440,
      "atible": 9441,
      "rett": 9442,
      "IST": 9443,
      "GO": 9444,
      "ouses": 9445,
      "ĠNon": 9446,
      "mb": 9447,
      "Ġ[[": 9448,
      "Ã¥": 9449,
      "Ġtor": 9450,
      "rainian": 9451,
      "Release": 9452,
      "ghan": 9453,
      "ĠJos": 9454,
      "ĠRoll": 9455,
      "Ġmac": 9456,
      "Runtime": 9457,
      "Ġaffected": 9458,
      "ĠDream": 9459,
      "Ġencoding": 9460,
      "Ġpossibly": 9461,
      "=\"${": 9462,
      "Ġoldest": 9463,
      "ymn": 9464,
      "Ġsixth": 9465,
      "ðŁ": 9466,
      "Ġxmlns": 9467,
      "ĠAlbert": 9468,
      "apel": 9469,
      "ĠToday": 9470,
      "Ġprotocol": 9471,
      "poss": 9472,
      "Ġ×": 9473,
      "ĠDoctor": 9474,
      "á»": 9475,
      "BP": 9476,
      "Ġshell": 9477,
      "former": 9478,
      "Ġeg": 9479,
      "bf": 9480,
      "logger": 9481,
      "Constra": 9482,
      "ĠDun": 9483,
      "ĠChen": 9484,
      "Seg": 9485,
      "arnings": 9486,
      "getName": 9487,
      "ĠBeng": 9488,
      "Ġlooked": 9489,
      "achelor": 9490,
      "Ġcru": 9491,
      "ippi": 9492,
      "Ġrecognition": 9493,
      "Ġweak": 9494,
      "Ġcovers": 9495,
      "Ġrates": 9496,
      "ÑĮ": 9497,
      "platform": 9498,
      "ĠNap": 9499,
      "Ġsignature": 9500,
      "hidden": 9501,
      "Ġsynt": 9502,
      "Her": 9503,
      "ourse": 9504,
      "ateur": 9505,
      "Ġexit": 9506,
      "Ġbrothers": 9507,
      "Ġrefused": 9508,
      "ĠKy": 9509,
      "components": 9510,
      "ĠHas": 9511,
[...]
