#version: 0.2
Ġ Ġ
ĠĠ ĠĠ
Ġ t
i n
e r
o n
Ġ a
h e
r e
a t
e n
o r
Ġt he
s t
a l
i t
a n
Ġ c
i on
a r
l e
ĠĠ Ġ
Ġ s
Ġ o
ĠĠĠĠ ĠĠĠĠ
i s
Ġ f
e s
e d
Ġ w
Ġ p
i c
in g
r o
Ġ in
n d
Ġ b
Ġo f
e t
a s
c t
Ġ d
Ġ m
en t
e l
Ġ \
a m
o u
Ġa nd
Ġ $
Ġt o
i g
o m
Ġ re
i l
Ġ n
at ion
Ġt h
Ġ h
i m
a c
ĠĠĠĠ ĠĠĠ
i d
o l
Ġ (
Ġ e
o t
Ġ =
u r
u t
s e
Ġ S
i v
Ġ l
Ġ T
< /
ĉ ĉ
a d
Ġ is
o d
u l
c e
Ġ C
= "
Ġ A
a g
i f
a b
{ \
q u
t h
č Ċ
Ġf or
o w
Ġ g
e m
) ;
u m
Ġ v
u n
c h
- -
Ġ <
r a
u s
Ġ st
p e
Ġ {
l y
at e
e x
it h
Ġ I
er s
Ġ M
Ġ on
ct ion
p t
Ġc on
h t
ĠĠĠĠĠĠĠĠ ĠĠĠ
i st
Ġb e
en d
as s
i r
o c
at h
a y
_ {
Ġ P
/ /
t er
r i
v er
Ġa s
Ġth at
Ġ B
Ġ *
2 0
re s
am e
a v
e g
u b
Ġw ith
an d
â Ģ
Ġ }
e st
Ġ R
Ġ F
e f
u p
Ġp ro
Ġ &
Ġa l
e w
a p
Ġ$ \
" >
Ġ H
o s
Ġ D
Ġa n
u e
Ġ L
t r
es s
l ass
Ġ "
p h
in e
or t
Ġw h
it y
ag e
e ct
t a
o p
Ġ Ċ
ĠT he
ig ht
Ġ N
Ġe x
m ath
ou r
Ġb y
p l
ĠĠĠĠĠĠĠĠ ĠĠĠĠĠĠĠĠ
ro m
re f
ar t
ex t
Ġ W
o re
u re
Ġc om
Ġ G
er e
Ġ E
ĠĠĠĠ Ġ
i z
e c
1 9
( )
s p
m ent
Ġ it
m a
i al
} \
l i
ul t
n t
Ġa t
Ġ r
o g
ab le
in t
Ġa re
ur n
Ġ or
Ġth is
} $
e p
* *
al l
^ {
g e
i es
Ġw e
. .
ac k
Ġw as
iv e
k e
p er
Ġc lass
Ġf rom
an t
it e
u d
or m
an s
y pe
= =
Ġ O
i le
p ort
il l
c on
-- --
t urn
Ġ if
0 0
od e
g et
Ġ -
p ro
l d
b er
f t
Ġ y
Ġ '
pt ion
} }
at ed
Ġ J
p le
as e
ig n
ar y
ac e
u nd
t ext
( \
in d
it ion
I n
Ġc h
f f
at a
Ġ le
st r
Ġs h
a re
o v
T he
ĠĠĠĠĠĠĠĠ ĠĠĠĠĠĠĠ
Ġt r
c al
an g
e qu
Ġ he
eg in
) ,
a st
Ġn ot
c om
ic h
c l
Ġ U
b egin
el l
t o
ar d
ic al
or d
im e
e v
f r
i re
en s
av e
) .
s er
l ic
) $
_ {\
j ect
a ct
un ction
i p
o st
al ue
Ġ us
il d
Ġ +
u g
Ġs e
ou t
Ġ //
Ġ </
Ġ [
Ġre s
id e
Ġre turn
on g
ation s
.. /
} ,
Ġc an
' s
} {
en ce
c c
- >
ĠI n
: :
u st
ĉĉ ĉĉ
Ġ K
f orm
a k
f ig
ab el
20 1
our ce
or k
ar am
ic e
r ight
d u
ro w
i a
an ce
Ġp l
en er
C on
l o
s et
Ġ V
c ri
fr ac
l ow
a in
i b
e q
d d
Ġwh ich
p ut
s s
ub lic
et a
l oc
Ġ im
Ġ un
ac h
Ġh ave
âĢ Ļ
Ġn ew
s o
ĠT h
en c
Ġ j
or y
Ġa p
iz e
Ġ @
m l
S t
th er
o k
Ġ k
" ,
Ġa r
p s
Ġ |
t he
u se
d iv
res s
l abel
el f
ent s
Ġ âĢ
Ġh as
ess age
Ġ /
ul l
> </
math b
( "
1 0
ou ld
i an
ra y
i el
e ar
r m
( );
Ġf unction
sp an
Ġst r
ou s
od el
on e
f er
ta in
Ġa b
le ft
c ite
o ver
> <
Ġd ef
er m
ĠS t
ow n
p on
ou nd
E x
iel d
$ .
Ġo b
$ ,
' ,
ion s
he n
at or
s um
l ine
Ġcon t
ol d
re e
b ut
20 0
cl ud
tr ing
, \
Ġs et
} )
---- ----
ir st
pe ct
../ ../
equ ation
math cal
y st
Ġal l
l l
ou nt
et h
in k
er r
Ġin t
} .
w e
t e
c he
u al
i ew
b o
Ġ .
in al
s h
at es
Ġs u
Ġd is
ar k
o b
Ġn ame
le s
Ġon e
Ġ :
o int
Ġal so
ic t
le ct
ter n
Ġ qu
Ġp art
d a
Ġv ar
p r
ĉĉ ĉ
is h
om e
== ==
ht ml
n ame
ic s
el y
ĠC h
} (
Ġh is
er v
w o
** **
ot h
yst em
i x
Ġh ref
Ġw ill
Ġo ut
Ġp ublic
r y
) )
ĠĠĠĠĠĠĠĠ ĠĠĠĠĠĠĠĠĠĠĠ
Ġ* /
Ġe v
} ^
c k
p os
ro up
um ber
le d
P ro
} _
Ġs p
~ \
Ġm e
y m
n e
l ation
s ource
( '
1 8
Ġ ro
ph a
ĠĠĠĠĠĠĠĠ Ġ
o se
am b
o f
o id
m essage
ri but
Ġd e
Ġp er
Ġd o
pe c
Ġb ut
Ġ up
en g
c ol
th is
Ġp r
1 2
al pha
i o
tr ans
c re
or s
a x
Ġp re
ul ar
Ġy ou
r it
Ġw ere
m er
on d
N ame
er y
Ġ= >
E R
Ġg et
t t
s ub
Ġd ata
u ct
y s
Ġl ine
Ġt ype
Ġres ult
Ġv alue
ig h
Ġcom p
ing s
ra ph
ap p
Ġc ol
v ar
im es
ar g
Ġ _
Ġ #
eth od
el ta
Ġin ter
Ġcon st
Ġ Y
id th
p aram
v e
O N
c ent
Ġthe ir
cri pt
Ġt wo
) \
im port
Ġf irst
$ \
d ef
i ed
t d
Ġit s
Ġo ver
al se
per t
y n
o ol
Ġ i
I d
Ġt ime
amb da
/ >
T h
Ġd es
le ment
# #
T ype
S tring
at ic
ic k
he d
ol low
Ġc l
is s
if ic
at ch
n g
ig ma
er t
h o
at ive
an ge
am ma
I N
Ġm ore
Ġs ub
b ar
a ke
ov e
" />
c ode
f o
at er
Ġn e
an n
loc k
f ter
Ġfor m
in ed
Ġo ther
a il
on t
am es
m u
ke y
_ \
c a
ĠI t
am ple
= \
Ġa dd
Ġs o
re turn
Ġm odel
1 6
ur re
mathb b
Ġm an
ĠTh is
it em
Ġw ork
Ġ| |
Ġd if
Ġs up
Ġa g
C om
Ġw hen
ĠW e
ĠU n
Ġ\ \
ro und
Ġf ollow
Ġ id
a w
d ot
} ^{
} _{
u ild
Ġon ly
u es
trans lation
Ġs elf
und er
p i
t on
ation al
Ġre g
Ġb et
Ġwh ere
res ent
R E
Ġtr ans
h at
c lass
ad d
- \
is e
Ġp os
: //
oc k
Ġbe en
m s
Ġt e
R es
Ġ el
al s
1 5
Ġ en
Ġ end
Ġ x
as ed
ph i
m in
an c
ar ch
eg a
t ype
Ġthe y
Ġan y
Ġre qu
^ {\
S T
L ist
Ġcom m
Ġsu ch
Ġg ener
Ġ !
id er
Ġin d
c ess
ĠH e
se ction
at ing
Ġa cc
i e
c o
b le
1 1
ce ption
a ult
Ġd ist
Ġ `
il ity
b f
Ġo ur
d er
Ġ {\
Ġthe n
Ġth ere
Ġa d
Ġs im
Ġc o
Ġin to
s igma
Ġth an
pl ic
Ġ use
Ġpl ay
it s
v al
l ambda
on s
it le
ers ion
Ġv al
Ġcon s
Ġwh o
b r
ol ut
Ġc ase
W e
ser v
Ġc or
g r
Ġh ad
at ure
Ġl oc
ib le
Ġ= =
19 9
ac he
Ġre l
y p
u res
A T
y le
w ork
em ber
ht t
ou n
in ce
urre nt
_ _
Ġe qu
Ġsh ow
C h
we en
al ign
i ous
âĢ ĵ
Ġn ull
Ġd ec
Ġn o
Ġin clud
re ad
it ies
mathb f
am p
Ġus ed
in s
ire ct
âĢ Ŀ
ĠâĢ ĵ
ep end
ot e
w h
Ġdif fer
Ġp h
as h
il on
Ġ under
o ok
as k
e ad
"> <
ol og
um ent
u le
ad e
Ġ >
Ġs ome
l og
Ġg o
Ġin st
ar ray
Ġa ct
f or
Ġex t
aram et
re d
ay s
p art
c ed
1 3
eng th
Ġn umber
Ġf alse
ĠĠĠĠĠĠĠĠ ĠĠĠĠĠ
ou g
n ing
enc es
v ent
Ġ err
Ġpro v
Ġat t
Ġbet ween
iv en
i ent
Ġ --
r ic
2 5
Ġs c
w ard
Ġs pec
Ġy ear
ction s
O R
) :
b ack
I D
iv ate
1 4
ang le
A R
Ġs ystem
Ġe ach
s on
it ed
Ġv oid
iz ed
ĠP ro
er n
A r
ĠĠĠĠĠĠĠĠĠĠĠĠĠĠĠĠ ĠĠĠĠĠĠĠĠĠĠĠĠĠĠĠĠ
v el
ĠC om
ug h
Ġh er
ag es
s c
Ġ( \
Ġof f
em ent
n ew
or g
ut h
str ing
2 2
Ġl i
1 7
b eta
L E
w idth
^{ -
Ġab out
ild e
Ġf e
Ġtr ue
Ġ )
\ \
at t
Ġs ec
Ġp e
} {\
tern al
ra ct
Ġe m
ption s
Ġt est
r r
T o
o le
R ef
f ile
) );
ow er
Ġre c
ep s
Ġp ol
Ġp oint
i er
Ġo p
Ġh igh
is hed
ĠĠĠĠ ĠĠ
n er
ist s
T r
-------- --------
Ġm ay
m all
d ata
Ġthe se
um n
iz ation
s elf
av a
Ġ Q
le t
Ġa fter
Ġf il
l and
" );
al ly
op le
ĠS e
Ġf ield
Ġe ff
Ġw ould
ar get
Ġch ar
Ġk n
Ġ ent
S S
// //
Ġst ud
ĠA r
g amma
+ \
a ir
Ġor g
p re
math rm
con t
* }
an k
b ject
C ol
e y
Ġc re
pert y
Ġm ethod
ser t
ur ing
in es
**** ****
ic es
bo x
Ġpro du
Ġus ing
n b
p p
I t
ar s
ĠĠĠĠĠĠĠĠĠĠĠĠĠĠĠĠ ĠĠĠĠĠĠĠ
o y
Ġb ack
b e
ĠF or
Ġd ev
loc ation
Ġc al
Ġf inal
iv ers
ro ugh
p ress
Ġel se
e ver
r ho
Ġm od
2 1
D ata
V alue
il y
^ \
A L
Ġo per
fig ure
n ot
E N
the ta
v iew
Ġs ign
ment s
] {
ent ial
Ġt ra
d elta
erv ice
ĠA l
Ġa m
in clud
Ġ X
Ġe st
g y
od y
) }
s cript
v alue
3 0
Ġn on
ĠN ew
m e
Ġin v
nb sp
us s
d ate
it t
le ction
Ġst ate
ĠC on
$ -
le q
is ion
" )
Ġa c
S et
==== ====
li ent
ta u
}$ ,
ra w
ĠâĢ ľ
ro id
Ġap pro
p x
Ġre p
str uct
mer ic
c es
pl ay
' )
Ġm ost
re am
ĠA s
ire d
f ace
or ld
u ff
Ġs ame
1 00
Ġcom ple
3 2
Ġ/ **
Ġ z
Ġ Z
c dot
Ġ& &
Ġas s
}$ .
l a
g er
m an
b ig
olut ion
p ar
re qu
Ġs he
ect or
ot t
Ġg iven
Ġstr ing
Ġf ile
Ġg roup
Ġf l
Ġm in
] ;
Ex ception
( $
p m
oc i
ro l
n u
res pon
et s
oug h
.. .
F or
ical ly
m ary
t imes
ĠA n
at ri
19 8
ar row
} (\
if y
m od
ad er
Ġth rough
5 0
D E
ir c
s ize
Ġdiffer ent
Ġp aramet
A s
w w
Ġw ell
i k
rr or
Ġ ed
enc y
part ial
Ġor der
o ot
il s
Ġfollow ing
E n
at us
Ġd et
Ġst atic
b y
Ġob ject
ĠS h
Ġst art
S E
ens ion
an y
se c
if ied
as es
iv er
] ,
Ġ// /
Ġpart ic
eq ref
d ition
or n
he ck
C T
ord er
sp ace
Ġl ist
re n
S e
are nt
form ation
ult i
Ġ %
Ġt erm
Ġg r
Ġs er
Ġ u
Ġne ed
r c
Ġb oth
e le
cc ess
as on
b ol
d is
Ġs a
Ġf ound
t est
a ction
ĠS tring
B y
l ink
r on
t able
t ilde
Con t
2 3
I T
Ġsh ould
ro ll
O bject
Ġh ow
ft y
ĠE x
ce pt
2 4
Ġwh ile
cent er
() .
ot s
qu ad
Ġthe m
Ġy our
Ġpr ivate
Ġf r
is m
U n
in fty
T est
Ġs ur
Ġf act
Ġ! =
Ġpe ople
ver y
l er
om ega
el op
| \
ĠĠĠĠ Ċ
t op
Ġvar i
Ġc ent
ĠĠ Ċ
D elta
ver t
Ġcons ider
Ġl ong
ĉĉĉĉ ĉ
j s
Ref er
atri x
Ġs ing
eq n
I m
Ġper form
o x
ch ool
M E
re g
are d
Ġsec ond
it ial
ind ow
Ġ$ (
oth er
t ab
p ace
u c
pon ent
iv es
ĠT r
f unction
A N
} ;
f l
Ġse e
iv ely
et work
u ch
ra p
() );
s q
n av
in ter
en se
"> </
t s
in ing
f ul
t ime
C O
al ity
f ore
Ġdes cri
Ġresult s
ab ility
p ublic
I nd
ant s
ym bol
w n
ect ed
V iew
Ġc urrent
old s
ind ex
ro ss
G et
r t
" ;
. _
qu e
E rror
a z
ch i
m ed
com m
l ay
Ġag ain
[ '
Ġth ree
lo b
qu ot
r ite
Ġpro cess
C lass
00 0
r al
6 4
ar ge
g round
Ġdis c
m et
g o
A n
Ġd irect
Ġr un
ĠA meric
19 7
ur l
ĠI f
. </
l ist
re at
um er
Ġeff ect
oc ument
F ile
Ġex pect
pos ition
Ġstr uct
! --
le ar
x i
Ġcon tain
ul ation
an e
Ġh and
re ak
Ġli ke
lo ad
al e
ro p
Ġd r
o h
Ġsup port
a j
Ġs ize
Ġe lement
=" +
f ield
sum mary
g or
ef ore
ou se
ut e
S h
wh ere
Ġr ight
Ġn ow
Ġar g
ur ation
b ed
Ġc a
re m
Ġim port
../../ ../../
} }\
' ]
col or
K ey
ore m
Ġap p
ag er
Ġob tain
Th is
htt p
O n
ĠC ol
Ġb ound
Ġan al
Ġt itle
if e
b all
P h
' );
w ay
ĠI nd
b ers
Ġ key
. ,
g roup
)$ .
R equ
c it
con st
a h
$ $
f in
\ ,
ers on
4 0
c m
cal e
ivers ity
h ip
s im
Ġs mall
Ġf ind
v oid
Ġre sp
Ġre m
Ġdo es
t en
Ġc all
} [
t ing
Ġ/ >
Ġl ink
ag n
gr am
iss ion
le ss
ath er
Ġb el
A l
tr y
e k
Ġbe ing
Ġm et
ack age
d t
Ġe very
or th
Ġbe fore
p ath
Ġb r
Ġman y
ur al
Ġf in
olog y
im it
eps ilon
Ġdist ribut
id ent
Ġyear s
Ġj ust
Refer ences
Ġt em
Ġval ues
us er
o ad
` `
Ġm on
Ġc ould
op y
() ,
l ish
Ġh im
] .
Ġd uring
Ġme as
Ġerr or
us h
Ġloc al
Ġcont in
R O
I nt
iv ed
s k
ess ion
ist er
ps i
Ã ©
A C
orm al
Ġm ain
respon d
Ġ ,
T ime
le m
Ġre ad
} _{\
F F
3 3
a u
" :
O m
Ġto p
L L
Ġ čĊ
Ġrep resent
Ġm ed
Ġcon dition
6 0
Ġp resent
at ter
l p
eqn array
Ġre le
it or
Ġex ample
raph ics
ch n
## ##
I ON
se arch
Ġs ince
v ious
ca use
ac es
ar n
uff er
e b
b m
h er
ener gy
Ġar t
os s
ific ation
il ar
Ġwh at
if t
Ġle ad
ou th
n o
Ġbe cause
' t
Ġin cre
l ang
ad i
Ġm ake
sq rt
u ary
ol v
Ġp ass
Ġdev elop
Ġl ast
m odel
Ġw rit
G amma
ar i
Ġa ut
i or
Ġm ass
ĠF ig
Ġb uild
m ap
Om ega
^ *
Ġf am
ur y
T ext
ribut e
Ġs erv
Ġb o
L A
Ġpro ble
Ġp ar
text bf
Ġm em
Ġal low
ps ilon
c i
htt ps
ual ly
ma x
)$ ,
Ġsa id
Requ est
act er
T E
Ġpos s
ĠR es
og le
l ack
Ġex per
Ġev ent
Ġob serv
d es
Ġsp ace
A dd
Ġcom put
Ġ ?
lect ed
P E
Ġm ap
E vent
2 7
b s
Ġm ade
el s
I C
plic ation
w ord
ames pace
Ġt arget
Ġres pect
iv ing
ĠF r
P ath
Ġor ig
cri ption
uth or
n ode
ar m
ĠO n
in ition
ĠL e
Ġ-- >
yp es
od es
Ġin formation
ca ption
pert ies
un c
n ess
. "
ĠH ow
E lement
Q u
w ith
o ff
D ef
l ength
Ġev en
f e
N ode
Ġle t
Ġm y
pt y
Ġv ery
Ġte am
M an
f ra
t il
Ġprov id
se e
at s
Ġm ax
Ġ );
res ult
sub section
ut il
2 8
Ġid ent
v are
In fo
() )
Ġl arge
er o
over n
St ate
Ġp op
Ġt ak
con fig
ur s
id d
s l
Ġg u
/ **
Ġint eg
Ġ$ {\
T R
o od
Ġas sum
Ġle vel
' :
s up
vare psilon
ĠD e
It em
Ind ex
om et
Ġle ft
Ġl og
Ġb ased
Ġth row
Ġrequ est
v ir
W ith
Ġop en
Ġcor respond
Ġo pt
it ive
Ġas sert
ĠĠĠĠĠĠĠĠĠĠĠĠĠĠĠĠ ĠĠĠĠĠĠĠĠĠĠĠ
ole an
it er
Ġm ust
iv al
M ap
Ġv is
Ġp ath
} =
f rom
/ *
lob al
n on
m p
ist ory
ign ed
r angle
Ġ ra
n ext
Ġgener al
ens ure
tr ue
r ide
ic on
A P
Ġap pe
Con text
Ġre al
s ide
iv ity
st yle
2 6
ĠUn iversity
r ation
E qu
pl it
Ġ energy
F ield
our ces
l ished
ĠAmeric an
w it
r u
Ġre fer
4 5
it al
}^ {\
F orm
gor ith
com p
en e
Ġd epend
Ġw ay
Ġre f
Ġcont ent
O ver
ur ther
) =
end s
ix ed
N ot
ro du
ict ion
^{ (
Ġar ray
Ġt ext
port s
Ġus er
Ġe ar
d ay
u str
st ance
ap i
ust om
Con fig
Ġm ov
eg raphics
includ egraphics
Ġin put
b lock
Ġ( !
in a
t itle
Ġd i
in ation
' ;
Ġ\ ,
O r
Ġf our
S ervice
2 9
re l
//// ////
he ad
ator s
Ġmeas ure
pos ed
Ar ray
Ġbe g
Ġab ove
re t
Ġp res
Ġ} );
in put
ile d
p oint
Ġth ose
Ġkn own
Ġinclud ing
" "
right arrow
al th
Ġpos ition
Ġex p
Ġsing le
Ġin itial
Ġex pl
op er
Ġest im
du ct
ou ble
Ġst and
Ġm ulti
R e
= '
Ġrec ord
ob ject
b ody
im al
U R
Ġdef ault
og raph
Ġh ere
ĠP h
Ġn etwork
ĠI s
en u
Ġc ar
=" ../../../../
c er
il ter
r am
Ġdef ined
l t
m b
em ph
' '
ap ache
Ġb ro
Ġn ode
D es
Ġn ext
Ġv ersion
ap er
Ġb lock
tt p
Ġadd ition
var phi
err or
at ures
Ġpro t
yn am
Ġc heck
c or
Ġkn ow
Ġcal led
p or
i j
ĠUn ited
Ġre ce
m d
over line
us ic
Ġs um
ac y
Ġd own
v ersion
Ġm ark
im ension
ĠA nd
ĠCom m
l ight
Ġ} ,
u f
u i
g t
Res ult
Ġa v
Ġc r
ge q
. ~\
S ize
F r
Ġc ount
ef f
20 20
8 0
Ġc ode
val id
Ġch ild
oh n
Ġ: =
Ġcomm un
Ġs at
ott om
Ġd en
Â ł
H e
******** ********
l in
u x
Ġd ep
ir d
> &
yn c
ne ction
Ġp ower
ĠM ar
B ig
Ġv iew
ĠE ng
u ck
}, \
A D
ri es
l im
Ġd ue
Ġwith in
Ġo wn
Ġs rc
ec ut
pro of
ail able
le y
pl ate
str u
9 9
st ate
Ġpro ject
b it
able s
3 5
com e
ens ity
19 6
co pe
ys is
M L
Ġcon fig
Ġ/ *
Ġto t
[ ]
Ġd id
B uild
+ +
om en
i od
lo at
he s
et urn
Ġo cc
al k
w are
o ber
A S
Ġ( $
U T
201 8
L O
Ġp at
. }
Ġmodel s
I s
at ely
C ode
nd er
end ed
Ġagain st
et er
201 7
able d
che s
I G
is ed
Ġsim ilar
and om
Ġb reak
Ġinst ance
w id
Ġind ex
20 19
M essage
l ing
ĠS ystem
O f
u age
press ion
H and
Ġse ver
Ġcon text
im um
" .
us ing
ĠR e
E D
Ġlink s
def ault
cre ate
ag s
Ġs ol
Ġe lect
} ).
ple ment
anc es
Ġs ource
M odel
j ava
ĠO r
ate g
d own
& \
Com m
c ul
en n
ĠP r
Ex ternal
i que
Ġre ma
I S
Ġs pect
Ġst yle
[ \
Ġ et
Ġl ater
is on
M P
c ss
Ġc ur
Ġpro gram
Ġqu ant
Ġsh own
Ġj ava
ĠT o
b ase
Ġ ke
Ġbe h
ass ert
Ġser ies
Ġp ost
Ġse ction
st art
Ġhe lp
tain er
ĠS he
un e
in ess
ĠHow ever
Ġd at
Ġ_ _
Ġex ist
cont ent
A tt
Ġd om
Ġparamet ers
Ġb as
m m
Ġm uch
ord ing
; &
d ev
IN G
a ut
Ġwith out
v ec
a i
et y
o ption
ug g
Ġproble m
ore d
um e
in fo
a it
t ings
Ġcre ate
L oc
V al
er efore
201 6
Ġb ase
Ġst ill
il t
Ġa round
b olds
Ġt ri
ic le
Ġt ake
Ġfollow s
Ġg ame
5 5
bolds ymbol
9 0
) ^
Ġpartic ular
u les
A B
u ro
Ġl ook
ym met
l angle
Ġw orld
L og
pl oy
s w
ĠA d
Ġte chn
Ġdet erm
Ġchar acter
h line
i um
a pe
T D
Ġre du
k en
Col or
Ġch ang
d f
re ate
o pt
T able
201 5
} }$
Ġass oci
L et
d e
Ġpro b
ĠY ou
Ġ enc
ww w
ur ity
re c
Ġm ak
or ph
Ġcont rol
Ġpre d
im ent
Ġc oun
Ġpre vious
Ġr ange
E T
on y
Ġcon f
roll er
and roid
s i
oc us
pro v
Ġ= ==
and s
ir t
7 5
ĠW h
Ġl ow
am ed
pro t
che ck
U ser
Ġtot al
p ose
C H
ater ial
Ġal ong
ĉĉĉĉ ĉĉ
ann el
Ġre port
ic y
0 1
fra k
---------------- ----------------
che d
ĠĠĠĠĠĠĠĠ ĠĠĠĠ
gorith m
oot ball
F rom
m y
Ġd er
ĠĠĠĠĠĠĠĠ ĠĠ
e e
Ġhe ad
ĠP l
n amespace
P l
Ġa ction
3 4
ist ic
is f
x im
Ġbe st
an sp
Ġpoint s
t n
S er
Ġst at
ĠM ay
Ġs ample
; </
Ġn ear
b l
con text
Ġ q
ĉ Ċ
R ec
U p
Ġcor re
epend ent
Ġrequ ire
Ġstud y
end er
Ġparamet er
vir on
Ġtr y
Ġplay ers
ld ots
Man ager
201 4
c irc
pon se
Ġd eta
=" #
Ġorig inal
ĠJ an
th s
p ackage
Ġl arg
Ġreg ion
Ġs chool
a int
ref er
\ !
Ġd el
i ence
Ġterm s
O ut
20 22
Ġd em
c ast
includ e
Ġim age
Ġfam ily
Ġsu ccess
Ġ} ;
Ġch o
Ġ Ð
av ing
ot ential
ĠA t
ĠSt ates
L ambda
ĠS p
ĠC l
Ġgo od
ith er
a f
In ter
Ġit em
f alse
c ount
I f
ear ch
Ġl ength
Ġdistribut ion
ith ub
3 6
Ġad v
ĠA ll
Ġposs ible
lo se
b um
aj or
c ap
~ ~
D O
math frak
Ġpl ace
ĠC ar
m o
Ġf ull
Ġch ange
Ġ` `
N ew
Tr ans
A ll
Ġse ason
ĠB r
Ġs k
ensure math
Ġfil m
Ġre t
=" ../
c ore
Ġstruct ure
us iness
o in
ĠG et
um p
app a
ide o
ĠG r
Ġshow s
ord s
3 9
) </
P r
Ġback ground
) (
stru ction
w ays
Ph i
tern ational
Ġsever al
Ġdisc uss
S ystem
Ġcl os
t es
Ġw ant
fo ot
Ġest ab
m box
0 5
Ġw idth
d oc
ar ning
< !--
ĠC an
Ġsup er
ward s
. \
et ic
Ġinclud e
tab ular
en ame
20 21
Ð °
ust er
Ġcontin u
4 8
E S
in ary
on se
Ġc ell
} ),
3 1
Ġpro perty
} +
Ġinter est
======== ========
Ġcol or
Ġan n
um ents
Ġadd ress
pr int
201 3
U LL
M A
se qu
Ġm atch
Ġo ld
D is
âĢ ľ
e ction
ĠJ ohn
O T
al t
Ġl a
g ithub
und le
ĠF e
st er
Ġand roid
Ġl aw
201 0
ic ient
Ġl imit
] (
n ab
if ier
overn ment
Ġresp onse
ur ch
A t
3 8
) {
Ġc ap
read y
go ogle
s f
Ġout put
id es
le g
Ġm atrix
Ġare a
def ine
u k
Ġint rodu
cit ep
Ġme an
Ġp ort
Ġprodu ct
ĠE n
d b
Ġl ife
Ġorg an
Ġs equ
Pro perty
R eg
ĠB y
Ġun til
. âĢĿ
ĠM an
k appa
ĠN ational
19 5
ĠW orld
Ġ( )
Ġfunction s
v en
U N
ot imes
st atic
ĠâĢ Ķ
Ġc are
Ġc rit
ud e
text it
Ġo ptions
Ġav ailable
ĠC ent
arg in
201 1
I R
n ect
we b
Ġcom b
Ġst d
ag ue
} )$
ĠC ount
G roup
3 7
sub set
an el
var i
ou d
Ġan other
m ethod
ast er
> (
201 2
Ġp erson
6 6
cl us
ĠThe n
Ġsh ort
d raw
ial ly
d om
Ġsat isf
Ġb ook
r ict
C lient
Ð ¾
Ġis s
Ġv ert
Ġstr ong
b ra
Ġs ervice
C ount
A nd
ĠĠĠĠĠĠĠĠĠĠĠĠĠĠĠĠ ĠĠĠĠĠĠĠĠĠĠĠĠĠĠĠ
ev ent
Ġs pe
ĠThe y
M od
ĠG e
ic i
ĠR ep
nab la
ent ion
Ġacc ess
4 4
Ġm agn
B ar
EN T
ib r
ĠT e
Ġd eg
pon ents
ra int
Ġexpect ed
Ġt able
Ġg raph
I P
Qu ery
r ist
\ %
p en
our n
ĠP ol
b uild
ĠS c
n ull
Ġl ang
M ethod
Res ponse
am ent
Ġn il
Ġdes ign
Over ride
Ġinv est
Ġind ic
C E
ĠL ist
\ {
ok en
c urrent
\ |
Ġs olution
Ġb ool
Ġp otential
C all
Ġl ay
Ġc our
n s
s mall
( (
Ġv ol
ĠS chool
c all
ep ar
ib ility
g es
Ġd ocument
ĠN ov
ex p
Ġst ates
he ight
T H
Ġa ff
re en
d l
viron ment
Build er
in c
ch o
fin ished
ĠJ ul
a pt
non umber
Ġs ide
Ġimport ant
qu ery
ug ht
Ġper iod
U S
z e
Ġf ree
st it
a im
Ġm essage
ame work
g ress
ĠR eg
ut ure
Ġp o
Ġstand ard
Ġs che
end ing
ver age
Ġm at
A ME
un g
i i
Ġd ay
Ġd iv
im age
act ory
Ġp ub
Ġt imes
al f
Ġrequ ired
n ow
R ead
y l
ateg ory
ac ed
le x
Ġcomple x
S ub
7 0
but ton
Ġobtain ed
h old
st and
id ual
Ġl ight
I I
Ġsign ific
Ġl abel
200 8
h and
ĠW ar
ĠC o
il li
ĠS et
t em
Ar g
Ġd ensity
Ġf a
ra v
w ide
Ð µ
D ate
ĠL et
B ut
}} {
Ġval id
Ġ eng
oc ial
ĠU S
ĠG u
Ġappro xim
pl ace
Ġb l
Ġt urn
o op
ĠY ork
ĠC al
ri or
St ream
d ir
ph p
x y
l s
c le
Ġd on
ĠB e
Ġ es
se mb
ĠP ar
un finished
Ġconst ant
200 9
Ġperform ance
Ġs cal
dot s
/ \
G ener
k s
m at
S igma
E nd
ĠN o
Ġmethod s
m ark
ĠS ec
S P
li b
Ġanal ysis
Ġb u
Ġf ew
u ation
\ [
ev e
Ġp aper
] )
p ol
n et
Ġt ask
Ġal bum
om ent
F ig
ic ro
B e
d ec
Ġline ar
dis play
Ġb order
ĠM in
r ing
o ptions
Ġph ot
00 00
E E
Ġthe ory
um an
Ġre d
requ est
ĠĠĠĠĠĠĠĠĠĠĠĠĠĠĠĠ Ġ
Ġcorrespond ing
Ġh ome
Ġc lear
p ly
ĠA ug
} -
ĠW est
Ġc ou
ill ion
pr ime
N S
Ġp air
Ġf urther
ĠA ss
j av
k n
Im age
row s
Ġ< <
in it
ĠI m
g ener
I L
Ġr ate
wid et
A p
Ġl ower
Ġw in
ĠS up
al es
c lient
our s
Ġcal cul
0 8
c ame
ent ly
Ġequ ation
ag ed
Ġf ootball
ĠCount y
Ġph ys
m ult
a e
Ġle ss
Ġoff ic
aram s
ĠJan uary
Ġpro perties
Ġle g
4 9
ĠO ct
Ġro le
Ġre st
an ch
Ġbe came
ur b
olog ical
erm an
Ġ- >
Ġ ide
ra in
v ers
A G
Ġappro ach
Ġle ast
Ġe as
Ġpol it
bo ok
or ies
Ġde ath
Ġwe ek
ĠTh ere
In put
w ise
om an
cre en
r un
Ġfe ature
wit ch
Ġab s
ra ft
widet ilde
{ -
in o
P I
Ġn ormal
200 7
Ġv ector
B lock
Ġm usic
ĠB ut
ser ver
ON T
St atus
y les
if f
arg s
it es
p ng
Ġm ot
( {
Ġcont ribut
e lement
A ct
Ġe ither
L ay
s ing
N av
pl ied
m ber
Ġear ly
Ġal ready
Ġsystem s
Ġdescri bed
ĠS outh
he ther
Ġcol umn
h as
d o
ustr al
Ġacc ount
P ar
Com ponent
ĠThe se
O S
Ġpro m
p age
t x
le v
ens or
P aramet
ĠS o
ĠB rit
[ "
P os
Ġrespect ively
center ing
add ing
Ġb ir
E d
M S
ĠSt ate
as ing
O P
Ġc ases
Ġr andom
Ġc irc
pt ember
ire ction
Ġelement s
L ine
Ġsignific ant
S ec
Ġp arent
app end
at form
Ġin du
4 7
0 7
ab ase
Ġf ore
A pp
Ġm ajor
f unc
N o
ĠĠĠĠĠĠĠĠ Ċ
g en
C ell
Ġn um
Ġre search
pr il
Ġfe atures
Ġc ross
Ġc over
olv ed
oc ol
Ġs ong
A ction
ag ement
ĠM arch
Ġcondition s
sk ip
Ġprov ide
th ough
pro p
Ġs epar
er a
Ġs ay
b b
b ottom
ab ly
Ġassoci ated
m it
om ic
Ġmem bers
Res ource
Ġbel ow
us ed
v es
200 6
ĠR ec
Ġcon struct
he ader
ord in
ig ation
s pec
ta ct
is ing
Ġph ase
C l
Ġt yp
t arget
g le
Ġh y
Ġdif f
Ġhigh er
Ġim plement
ac hed
c ell
4 6
uro pe
ist or
Ġtr ack
Ġev ents
Ġsu ff
Ġg e
ur g
ic ense
Ex t
or age
Ġ" ""
R ep
ac ing
ĠA dd
Ġcol l
ĠN ULL
ĠM ed
eb ug
ic a
ugg est
C C
Ġv ia
nav bar
RE F
Ġcomm on
ad a
ol l
ight s
mod ule
T oken
z eta
act ive
le ge
Y PE
Ġh ost
Ġp age
Ġre cent
\ ]
ele te
Ġc lose
iz er
p o
c y
ĠĠĠĠĠĠĠĠ ĠĠĠĠĠĠ
ad io
d at
im ary
0 2
H ead
Ġn eg
9 5
Ð ¸
d r
20 00
Ġpro of
ce mber
âĢ Ķ
Ġpro f
B ase
ver se
il it
) ]
0 4
f ont
pl ies
Ġspec ial
D ec
f low
ug in
ma in
ĠA p
0 6
Ġcomple t
ĠE q
ri ed
Ġtra ining
c ase
Ġfor mer
Ġbet ter
Ġd ynam
ard s
m ar
Ġsim ple
Ġtem per
om orph
b ased
e ed
ĠB o
Ġb i
Hand ler
ne y
ĠAug ust
ĠC ity
ĠC or
x ml
Ġf low
Ġbo olean
u id
Ġcomp any
ion al
Ġc ost
Ġqu est
Ġme ans
ĠSe ptember
Ġdef ine
ĠC O
f irst
Ã ¡
av es
ĠP art
Ġfield s
m ember
ly ing
on es
ĠI nt
p arent
p c
Ġg row
h am
ĠJ une
th m
Ġb and
l or
S up
$ {
in st
s cale
Ġin s
Ġcons ist
kn own
F A
0 9
Ġ& =
ĠQ u
) =\
} =\
Ġw on
Ġc ity
c an
ansp ort
U E
sh ip
In stance
Cont ent
Ġconsider ed
ar r
ĠM e
" ]
Ġs em
ec ess
ĠG ener
Ġb usiness
ĠA pril
ial og
Ġal gorithm
li p
Ġf requ
ĠOct ober
, âĢĿ
Ġa uthor
Ġal ways
W indow
Ġrel ations
w rite
pro perty
r um
Ġan t
da pt
er ing
P art
Ġs cale
ma il
Ġm ar
em ma
ĠW hen
Ġr adi
s g
Ġ+ =
le vel
loc al
Ġa verage
ĠJul y
O ff
ĠE d
O ptions
ch ar
; \
od ing
L ink
LA SS
se lect
ul a
Ġappe ar
S ource
med i
Ġpos itive
on al
Ġl ines
Ġex ists
wh ich
ĠThe orem
Ġh ttp
E X
er ed
Ñ Ĥ
op en
r l
Ġdis play
S tr
id ence
ch an
j son
er tain
A A
p ost
Ġz ero
ĠN orth
el ine
m eta
Ġ und
Ġprovid ed
m ost
A d
Ġev al
Ġs ymmet
an a
plic it
Ġal ign
6 5
ad ata
c os
al le
Ġst ep
S p
0 3
Ġcomm and
ĠW ith
Ġg lobal
Ġrele ased
str ong
oug ht
Ġin div
O D
Ġp ut
oper ator
Ġdef inition
4 2
Ġbeh av
al y
ĠA ustral
n a
Ġg overnment
r id
, -
ĠS er
ch ild
app ing
F irst
Ġl oss
| -
Com p
ĠD ef
N ull
B uffer
pr ivate
op s
) }\
H T
R un
ĠSe ction
f ind
ĠĠĠĠĠĠĠĠ ĠĠĠĠĊ
G L
eg er
Ġse en
or iz
ĠE urope
ĠDe cember
b tn
Ġoper ator
Ġth ink
row ser
cl ose
) ^{
Equ al
Ġd ouble
ĠNov ember
o ke
P si
re st
P oint
Ġcomp et
W h
Ġgr ad
Ġfin ite
im g
Ġspec ific
ap s
AT E
Ġb ody
g ed
Ġs l
st atus
at ural
con d
irt ual
Ġm ight
itt le
al ax
id ed
} ]
uss ian
l ong
200 5
Def ault
Ġam ong
a ctions
Ġof ten
Ġhe ight
Ġchild ren
St art
Ġto o
Ġn umer
th ers
Ġv er
Se e
amp ions
re ed
Ġw rite
F unction
lay out
h ost
ĠA fter
Comm and
itt ed
des cription
Ġvar ious
Ġh istory
s u
$ )
Ġse arch
rit er
ch ange
N umber
Ġth us
H E
iz ing
ab or
st ream
B ox
he et
cdot s
T ask
ther n
F actory
b or
Ġth ird
Ġcontain s
ĠD es
Ġm ember
} |
C K
s rc
Ġc y
i res
il ities
Ð ½
ĠN one
Ġd est
ograph y
l ast
A M
Ġim p
Ġw hether
Ġl oad
idd le
Ġst ar
ge bra
O per
Ġcre ated
olut ions
{ (
S C
Ġg l
8 8
um b
il er
ĠO ne
Ġf und
Ġl ate
Ġcomp ar
ig ger
as cript
Ġmulti ple
Ġplay ed
ĠT est
Ġs uggest
semb ly
i ans
Ġf ail
ĠâĢ ĺ
ĠCh rist
col umn
br uary
st d
ig en
lem ma
ribut es
L abel
Ġp ract
Ġac ross
al let
ap an
ot o
og n
V ER
Att ribute
Ġpl an
}_ \
}^ \
Ġh ard
Ġcom ponent
pro ject
pl ing
ĠO bject
ĠM c
ot ype
Ġind ependent
H el
Ġar ch
Ġb lack
pt r
Ġg ive
Ġindiv idual
B undle
so le
re w
Ġm oment
em ents
v is
idd en
Ġ ]
* /
Ġpop ulation
Ġar r
Ġto get
ens ions
200 4
che ma
Ġun it
Ġs ite
Ġtoget her
V ersion
it ory
Pro v
Ġm ove
Ġw indow
fer ence
Ġp ay
ic ation
L T
ft ware
St yle
Ġpred ict
ag ing
Ġinclud ed
Ġex press
S c
m em
Ġtrans form
ĠH igh
Ġm er
Ġf ocus
Ġs ent
} );
I M
em pt
Ġsequ ence
Ġd one
imension al
Ġrece ived
Ġc ustom
ad em
Ġw omen
ure d
Ġf ive
Ġt re
s plit
ir m
Ġf ixed
g ing
lic k
Ġfact or
Ġ\ {
Ġbe come
Ġhow ever
d ist
a ff
Ġpr int
wide hat
ĠC lass
p y
Ġa chi
Ġobserv ed
l en
Ġh om
Ġwrit ten
T O
F I
ĠI N
p ush
art ment
Ġatt ack
Ġli k
Ġw ater
Ġpro posed
R eturn
m on
p df
Ġin ternal
S pec
P ol
ex ample
equ iv
at io
am a
ĠM ore
i ol
n um
Ġh app
g l
F ilter
ĠS ince
R ow
Ġg reat
Ġcl aim
ĠC ont
m id
if act
6 7
( -
Ġequ ival
text width
ĠA ct
. ~
ul ations
P RO
ic ol
Ġf ar
s in
il le
Ġm ode
ĠK ing
S U
L ast
Ġrel ated
ce ed
Ġ< !--
}) \
ent ry
Ġtrans ition
Ġl im
Ġgroup s
Ġab le
h a
ud io
ip p
} /
, "
ra ction
b orn
Ġs om
// /
m t
Ġsur face
ab s
Ġprot ected
C heck
Ġc lient
] [
ĠA b
Ġext ends
Ġh aving
But ton
ĠD is
Ġa ge
F ONT
Tr ue
at al
Cont roller
jav ascript
i qu
âĢ ¦
con tainer
c up
ed er
Ġaddition al
Ġex ecut
Ġex act
E nt
ar ies
Ġup date
//////// ////////
Ġg ames
}} (
Ġdist ance
Ġf uture
q quad
Ġinst ead
Ġs ix
p ack
ĠS ch
enc ies
u ed
P age
form at
ĠFe bruary
ry pt
comm and
w ed
Ġn amed
ĉĉĉĉ ĉĉĉĉ
O b
Ġmod ule
ĠB ar
ex pect
ĠD r
#### ####
Ġprob ability
Ġres ource
Ġaut o
st ract
ac ity
Ġm argin
Ġne ver
Ġe p
Ġre view
8 5
serv ice
4 3
ph er
ist ics
Ġhe alth
pro cess
& =
ĠBrit ish
Ġreg ular
ĠS im
Ġcan not
em pty
ag ram
id s
param s
n ected
ĠM on
ind ent
Ġdom ain
li ke
ut es
ĠCom p
up date
C D
U I
f ilter
Ġwork s
re et
s igned
ĠN ot
am s
Ġc he
P re
ĠFig ure
respon se
Ġp erm
Ġbeg in
iz es
Ġlang uage
C reate
Ġchang es
S ON
ibr ary
Ġexper iment
st yles
Ġf ac
Ġst atus
Ġdevelop ment
Ġto ok
Ġcon c
ir it
Ñ Ģ
9 7
ann ot
ĠG o
b ound
Ġthrow s
{ {\
bo ard
ĠD ist
Ġo ption
Ġ{ @
if orm
n ote
F l
Ġle arning
Ġbe com
Ġ( (
^ +
Ġt ypes
Ġt w
}^{ (
Ġd ate
ap pro
List ener
ĠR ef
4 1
E m
le ctions
( &
Ġl and
Ġa ir
D B
n umber
Ġbu ilt
ĠR eturn
c el
sh ow
ĠI I
un k
" ).
{ }
el oc
Ġquant um
Ġs it
b a
& &
Ġem ploy
ĠO ff
Ġb en
Ġn ecess
he l
Con st
Ġh ouse
ist ry
h ib
Ġc atch
Ġdat as
Ġloc ated
Ġ url
st ar
Ġto wn
Ġbel i
p ass
" ),
Ġap plication
AB LE
ev en
end if
ĠCh ar
P C
A cc
ob j
is es
ache s
Ġcon v
Ġassum e
a use
ot ed
N O
ol ve
Ġgener ated
Ġanal y
M M
i ke
l n
Ġre ason
Ġtak en
ĠH REF
Ġm iss
f ill
Ġcommun ity
i et
}\ ,
H ow
Ġd ays
Ġh alf
Ġg en
O L
Ġm aterial
7 7
Ġlarg er
ition al
ho od
a ul
ĠH am
Ġg round
ĠA rm
Ġc opy
Ġ$ (\
Ġset s
A ut
ĠLe ague
es e
at tr
Ġplay er
Ġv ideo
Ġsp in
ĠC LASS
Ġke ep
Ã ³
t ag
Ġp ress
Ġst ation
} :
Ġc amp
Ġcent er
b uf
ĠP er
9 8
Ġgo ing
ren ch
x space
Ġse lect
Ġconst raint
Ġequ al
ĠEng lish
Ġacc ording
ĠH is
Ġtr ad
Ġestab lished
ĠE l
Ġ row
9 6
ult ure
O ne
ĠS an
Ġcare er
Ġtemper ature
Ġadd ed
200 3
: </
Ġcomple te
b in
Ch ar
ĠV al
t y
h space
Ġd raw
Ġ ill
Ġhe ld
Ġon ce
M et
Ġen vironment
m enu
Ġre pl
Ġg alax
Ġmak ing
du c
Ġed uc
ro y
n ers
Ġprodu ction
Ġacc ur
t ex
Ġwe ight
ang ed
em s
P er
itt ing
le ase
Ġit er
qu are
Ġam ount
B ack
ĠB l
t ic
ol s
Equ als
Ġh uman
ĠP res
it ect
Ġap plic
S I
ĠJ apan
c s
< ?
Lay out
n ormal
Ġc ertain
}\ \
Col umn
math sf
=" ../../
Ġcoun try
Ġro t
Ġim prov
is k
ĠL emma
Ġen ough
Ġann oun
Ġmed ia
and id
Val id
Ġf ig
refer ence
d i
ampions hip
n ce
s m
Ġloc ation
ĠL a
ref ix
ĠU p
o o
ic ip
G e
th ing
Ġpub lished
ĠA fr
Ġn av
old er
Ġbuild ing
A meric
f inal
T em
am l
val ues
on ly
y ear
fl u
e h
ĠC oun
. $
Ġst ream
ĠA g
ock et
ul ated
Ġs ocial
Ġact iv
ĠD o
> >
Ġ Â
in stance
Ġed ge
} +\
Ġp rior
ond on
Ġn ational
th at
Form at
q l
ĠP ark
ing ton
( {\
Ġpre c
Ġspec ified
ourn al
Ġbeg an
ou ch
Ġrem ov
Ġf ont
A b
m ulti
' ).
200 1
ĠA ir
c il
i ber
U s
Ġdeta ils
Ġ& \
el se
ot a
Ġf ri
ĠD ep
Ġrefer ence
Ġser ver
Ġyou ng
N D
Ġfil ter
d epend
A g
ĉ ĠĠĠ
Ġnot e
en umer
Ġg ives
ĠO F
Ġfil ms
tain s
operator name
e ople
c d
We b
ict ure
Ġeffect s
cit et
) -
Ġca pt
Ġpro p
Ġm illion
j ection
ĠI D
B U
' $
IN T
it ude
gr ad
U t
rem ove
ĠE ast
ev el
="../../../../ ../
`` `
N ext
Ġbound ary
Ġobject s
F e
Ġst ory
Ġof fer
row n
ĠD av
ill s
V ert
Ġro und
Ġsub ject
Ġwh ose
A fter
Ġserv ices
Ġl iter
Ð¾ Ð
ĠTh us
Ch ild
Ġequ ations
s ystem
lay er
Ġopt im
200 2
F T
ER T
Ġcom ponents
ĠAr t
Ġinter face
Ġact ive
Ġcorre ct
ĠA cc
Ġ ...
ef ined
B C
R em
Ġcom e
im ation
Ġmax imum
Ġmark et
ĠM ark
o pe
os p
UR L
Ġoper ation
Ã Ń
Ġn one
Ġse lected
anc ed
Se lect
cent ury
] $
Ġun ique
m ore
Ġwork ing
f ord
= {
A ss
Ġreport ed
L ength
ĠĠĠĠĠĠĠĠĠĠĠĠĠĠĠĠ ĠĠĠĠĠĠĠĠĠĠĠĠĠĠĠĠĠĠĠ
ã ģ
Ġreturn ed
\ }
E L
Ġme chan
Ġc ut
Ġeng ine
Ġcl ub
Ġr ank
ĠA m
ĠTr ans
Ġt reat
d s
6 8
on ic
CO L
Ġdeg ree
Ġp ur
r ule
one y
Ġclos ed
Ġqu ery
off set
c r
Th ere
} -\
Out put
am ily
Ġrel ative
Ġin it
Ġinteg r
Ġco ordin
D e
n eq
}} {\
ĠH T
ĠH ar
Ġj ob
ĠIn ter
Ġcl uster
( _
im ate
M ax
st ack
ri p
Ġv eloc
Ñ ģ
Ġw ar
N AME
ac c
ot es
bs ite
D ev
Ġform at
l ate
ate gy
Ġh tt
un ch
M ode
S im
Ġbir ths
omet ry
Ġac cept
ast ic
ĠB ro
sup port
av y
=" -
ĠF irst
Add ress
Ġa way
Ġwe ak
str ict
f loat
om s
fr ame
Ġb ar
sc r
Ġspec ies
Ġth erefore
M em
| ^
Ġcon nection
Ġ ;
Ġs olutions
Ġpat tern
M in
mult icol
res h
Ġth ough
ic ult
Ġvari able
Ġden ote
T P
inal ly
Ġeffect ive
att le
Ġset ting
Ġim ages
Ġprovid es
Ġ ir
5 00
Ġr ather
Ġs w
an ish
CO DE
ob ile
w indow
ĠN ote
Ġcomp ared
un it
C ON
Ġy ield
Ġm en
od er
ĠCol lege
eth ing
Ġpro file
Ġb ox
I O
Ġrepresent ation
multicol umn
i ers
Ġd irection
Ġst op
Americ an
ut ils
ot al
om ial
Ġn atural
Ġvari ables
Ġstart ed
Ġch annel
ĠD ev
f a
Ġn ov
at ory
Ser ver
s cope
Ġne igh
ĠW illi
ilit ary
S D
5 7
C o
Ġex pression
ĠH ouse
Ġhtt ps
Ġh old
line ar
++ )
ĠF rom
. /
$ (
ĠS ci
C ache
Ġt ree
led ge
Ġunder stand
so ft
s ign
ĠT able
Ġme et
Ġstud ents
at ively
ĠL icense
P O
out put
Ġp ast
A V
st rap
ĠR ed
Ġinst all
Ġv ill
ĠL ondon
ĠA pp
Up date
ĠD ata
class es
Ġ Ã
r ics
min ist
ĠN e
at ives
ĠR ev
Ġsol id
ĠM y
ar io
ĠR em
T ag
Fr ame
model s
I V
ess ages
Ġs ays
Ġb ig
i ents
Ġs m
ĠH er
Ġ ~
U rl
Ġmak es
Ġ- \
c ing
ĠA c
b ind
Ġb it
Ġsign al
Ġent ire
ul ly
item ize
Ġ ::
ip s
vari ant
Ġro ot
the orem
u it
in ated
ĠAr ray
Ġsuccess ful
Ġh olds
P i
Ġdescri ption
Ġle arn
Ġw ords
Ġpresent ed
o on
ic an
ag ger
Ġdiffer ence
il i
bo ot
oc r
ell ing
enumer ate
s d
Ġatt empt
Ġdirect ly
) }{
Ġ[ ]
Ġ! ==
Ġcol lection
Ġk ind
Ġcon ver
W idth
T op
ĠTh at
k it
_ .
Ġincre ase
ve y
Ġfile s
Ġo thers
k a
mo oth
ĠT ype
Ġrele ase
Ġcontin ue
Ġprodu ced
ev ed
no indent
t ree
Ġbas is
d ocument
Ġs ens
ell ow
( [
Ġal most
}} _
ER R
in ner
Ġperform ed
clus ion
requ ire
Ġconfig uration
ition s
Ġre lation
Ġpartic ip
S ince
Ġl ittle
oci ation
ach ine
Ġa x
5 6
ĠIn ternational
V is
8 7
Ġst ars
\! \!
art ifact
T YPE
T arget
b reak
Ġco eff
d imensional
ont al
Ġexpl ain
Ġre ally
u el
Ġcall back
] \
C ase
m ing
Ġad j
Ġim plies
**************** ****************
Ġc ame
Ġup per
Ġg as
ark s
m atch
Ġfr ame
es h
return s
if orn
cont rol
{ {
con f
w rap
C L
prot otype
Ġas k
P R
Ġpro ve
a uthor
| |
ĠF ile
\ "
ar ing
Ġlead ing
8 6
Prov ider
Ġv irtual
Ġallow s
ar a
ĠM ich
i as
ef t
Ġresp ons
re a
om b
d ep
T ree
e in
Ġsupport ed
199 9
bo ol
Ent ity
oci ety
Ġoff set
Ġinclud es
pro to
Ġf all
ĠE X
back ground
k er
Ġn odes
ĠS ub
Ġfor ce
Ġm atter
Ġcon struction
v space
iforn ia
) +
S O
W hen
ec ute
Ġus es
ĉĉ Ċ
N N
Ġap plied
A ccess
T ypes
ic les
Ġe con
Ġbehav ior
Ġcent ury
tem plate
bed d
ĠA PI
Ġse lection
od ed
ub e
on str
Off set
un ity
Ġob j
Ġneed ed
Ġapp ly
$ }
Ġch all
av en
ã ĥ
Ġtak ing
d ated
. )
mod al
z z
Ġaut om
ed ia
Ġp ack
Ġquest ion
Ġeval u
Ġent ry
Ġpol icy
ri ef
th on
Ġbro ad
par se
le an
O pen
Ġin f
Ġarg ument
Con tainer
n orm
Paramet er
ĠF rench
ic o
Ġd imension
comm on
a a
pp ed
oriz ontal
Ġal gebra
) }$
il ton
Ġt ag
i ef
ĠN or
N ote
ĠE m
Ġj o
Ġnum bers
ect ors
clud e
Ġtak es
Ġt im
B o
Ġdevelop ed
im ents
Ġcon duct
un t
Ġcent ral
r s
ct or
\ ,\
ar ily
AT ION
ĠPh il
Ġde ep
5 8
et ch
Ġle d
g s
Ġs ources
Ġarg s
Ġin flu
Ġproble ms
Ġcour se
ĠS k
H O
Ġ* *
\ }$
ĠG roup
] );
P S
Ġex cept
Ġch ain
Ġstud ies
styles heet
Ġserv ed
J son
ro ot
Ġy et
Ġreturn s
Ġev olution
Ġmagn etic
m ission
il led
id ge
The n
appro x
Ġf loat
o ch
() ->
' ),
Ġs eg
Ġimp act
ens ive
Ġtrans fer
Ġspect rum
u int
P o
alle l
t ml
Ġintrodu ced
K E
ber t
Ġd ig
N et
d en
it ing
Ã ¼
Ġb orn
ĠG L
Ġrem ove
Config uration
eta ils
ĠTh erefore
Ġphys ical
w ait
ĠL og
in n
ĉĉĉĉ ĉĉĉ
Ġde b
t ask
om y
Ġrun ning
Ġsc en
L evel
at tern
En try
Head er
g raph
im ages
Ġsmall er
Ġ\ |
Ġdec l
Ut ils
Ġst re
sh ould
5 9
Ġcomp an
Ġf it
o ph
ĠS tr
Ġd a
he nt
i os
D r
d et
a el
artifact Id
IG N
land s
Ġc andid
the n
us es
ag ment
Ġus ers
Ġex ception
y ing
D F
ri er
s y
Cont rol
au ge
act ers
Ġl ive
Inter face
ate gor
Ġan g
V AL
v ector
param eter
Ġveloc ity
Ġits elf
ĠCal ifornia
L oad
math scr
Ġp ers
a ur
Ġdiff icult
Ġne ut
Ġestim ate
Ġsom ething
Ġw ent
E CT
S cript
> ,
Ġv ers
ber g
Ġe igen
Ġpart s
S earch
or ge
Ġneed s
ans ion
un n
He ight
Ġoffic ial
) /
i ation
Ġreg ard
ĠRep ublic
H ttp
Ġrec ogn
Ġr atio
Y ou
av or
Ġestab lish
b and
Z E
20 23
} '
ous ly
Ġb uffer
Ġinvest ig
5 1
Ġg ot
ent ity
: (
os en
y d
ĠDist rict
Ġdem onstr
us ion
Ġte lev
Ġs ound
Ġallow ed
op l
ut ion
d im
Ġv iol
Ġdec re
ĠInd ia
à ¤
a ign
b urg
Ġ$\ {
C P
ĠĠĠ Ċ
Ġgo al
W ork
ern el
ĠP ort
ann er
Ġpop ular
Ġmem ory
ĉ Ġ
f ree
Ġdist rict
com ple
D D
ĠI r
r ad
Ġs yn
Ġl en
dev ice
M e
Ġbecom es
stit ute
Ġu int
ĠG erman
b uffer
ma ke
8 9
U M
g ence
C urrent
et ime
R el
res ource
Ġs on
expect ed
Ġn ames
Ġin ternational
Ġs ure
I F
Ġdev ice
lic e
ĠAmeric a
t yp
pre t
ĠInd ian
Ġst age
P arams
W rite
c ache
Ġw ord
Ġcurrent ly
En c
ix t
R A
ca pe
ile s
Ġcho ice
Ġlay er
Pro cess
Ġn orth
-- -
Q L
="../../../../ ../../
C A
group Id
cript or
H istory
Un it
we ight
f s
Ġcrit ical
n ap
et ers
COL OR
Ġare as
ach ing
Ġrelations hip
199 8
Ġincre asing
y a
ser ve
ĠC r
ĠC up
N ow
Ġspe ed
Ġlik ely
Ġ _{
E ng
Ġfr ont
R ight
Ġso ftware
z er
d x
Ġequival ent
Ġclass es
D at
; ->
it te
Ġm ult
ĠS m
Ġcon nect
Ġh istor
M on
p atch
en ed
Ġa dapt
ad ow
Ġin c
Ġexper ience
Ġwh ite
u a
Ġ{ }
Ġmet ric
ĠĠĠĠĠĠĠĠĠĠĠĠĠĠĠĠ ĠĠĠĠĠ
t im
g n
Ġpe ak
yn omial
B A
ug ins
Ġex plicit
Ġdescri be
ĠR iver
Call back
Ġd ied
Ġth ings
~ $
Ġn uc
\ '
Ġfrequ ency
Ġde al
ĠN S
to ken
ar p
Des cription
iv il
b ul
Ġre nder
Mod ule
use um
ter m
ĠC our
ĠD em
Ġerr ors
ã Ĥ
C R
Ġon line
se cond
min us
Ġtelev ision
ang es
ession al
Pro ject
}} }
ĠO ut
" ))
c f
Ġem pty
Ġro b
r d
se m
ĠGener al
Ġpl atform
under line
Ġcon nected
b order
r ange
ĠCent er
is ation
Ġelect ron
Ġr ule
ĠD i
li er
Ġd oc
ĠM od
Rec ord
s cal
Ġarch itect
Ġg re
P ort
7 6
g reg
Ġsh all
id a
Pos ition
5 4
m ode
Set tings
am era
Loc ation
T I
Ġcon vert
olut e
Ġ ess
tr m
ĠC reate
Ġnecess ary
pro d
en ing
p op
ĠPres ident
str y
Ġannoun ced
p g
ĠSt ud
ĠH ol
5 2
ri a
Ġwe bsite
l ap
lo or
el i
Ġp arams
}} ,
Loc al
trans form
Em pty
ta int
Ġoper ations
c at
h om
T S
tex trm
Ġhand le
ĠCh ampionship
E M
R ange
Con nection
Ġ\ ;
Ġs old
Ġqu e
ĠM al
^ -
ĠG a
Ġarg uments
{ $
cre te
Th read
re es
ind er
The ta
Ġs ymbol
In st
Ġm ention
Ġal tern
F ont
% ;
ĠReturn s
199 0
= -
olv ing
ĠEng land
AP I
Ġdeterm ined
Ġatt ribute
C S
j o
as ons
C opy
c lear
D irect
Ġpolit ical
Ġpro ced
ĠS pec
boot strap
Ġa void
ri b
Ġno ise
U til
iss ions
ify ing
ĠAustral ia
Ġcont ract
7 8
Ġs witch
Ġsh ape
Ġmov ed
s v
}^{ -
ĠB lack
AC K
ly mp
Ġdoes n
Ġwho le
D o
Ġiss ue
Ġf ace
pec ially
ĠS um
ĠSe e
Ġ* )
Ġf em
d ebug
ĠR oy
Ġreg ions
ĠO ur
Ġro ad
R L
def inition
< \
3 00
id get
ĠD iv
Ġ> =
100 0
ak ing
bit r
ym pt
L e
Ġout side
T e
Ġthe orem
Ġfe el
Ġep is
ĠW ork
N one
Ġfa iled
Ġs outh
ĠF l
t og
M enu
f ony
Ġexist ing
b efore
Ġx ml
Ġup on
Ġm id
Ġth ought
Ġdatas et
ym fony
Ġim medi
.. ..
=" _
inter face
Ġin side
Ser ial
d rop
Ġpr imary
h an
in i
ĠD ec
$ _
ĠO pen
Ġright s
oun ter
Ġmon ths
in ct
Ġm ag
Ġl ot
equ al
subset eq
h ash
Ġcou ple
O p
as hed
Ġvol ume
ĠH ere
Ġ[ '
Ch ange
' ],
or ing
9 4
ĠD E
set s
t ra
um in
Ġact ually
S L
o om
Ġiss ues
k ind
foot note
urs or
an o
t ical
Ġpro te
}} _{
Ġcon tact
D ocument
9 3
ul ate
Ġl oop
eta il
ĠP al
p ite
at ur
Ġper cent
ct x
Ġs ense
5 3
g u
v ant
ot ic
ĠB er
ĠS T
ind ing
text tt
Ġg rav
H ash
Ġs creen
ad o
he st
s a
Ġsim ply
Ġcon sum
c p
Ġinteg er
Ġneg ative
iz ations
Ġfl ux
Ġlong er
enc ed
Ġ$ {
res ents
sh ift
o ice
Ġresult ing
Ġsample s
Ġp adding
ag o
ĠL aw
ĠWh ile
ĠA nt
ĠE ar
ru pt
C al
ĠCan ada
re ct
O ption
Ġwh y
iction ary
Ġoper ators
S o
z on
en a
L eft
Ã ¤
Ġre v
Ġlevel s
= (
ST R
c ar
re ement
ĠEurope an
ov ers
Ġg ain
Nav Bar
Ġ$ |
re al
ra st
Ġw est
Ġun iform
over y
Ġd im
S k
Ġs cope
a uth
F O
: \
Ġ( -
ĠB G
S H
en v
Ġ( "
ig inal
P L
foot er
Ġqu al
199 7
Ġf ather
ph ere
Ġfor ward
con struct
c ur
w in
att ice
ol ic
7 2
Ġs end
ĠP aul
Ġs mooth
W hat
Ġwrit ing
8 2
d eg
for ce
a fter
199 6
it able
Ġa uth
Ġr adio
Ġfil ename
Ġobserv ations
; }
ĠS en
Ã ¶
Ġl ost
Ġmin imum
Ġun cer
Pro perties
con s
Ġl ove
Ġc red
D IR
M O
ur i
Ġext ension
ĠT O
ĠS ome
9 2
AR T
St at
g ate
" ));
V ID
ou l
a o
ĠCh ina
Ġinter action
8 4
ĠCoun cil
Ġexp and
el er
Ġnew s
Ġtr ansport
ort s
ĠM or
Ġother wise
Ġus ually
an i
Ġact ual
ĠTh om
doc s
Ġcom es
Ġst ore
d elete
Ġre ve
Ġchar acters
h r
ic ons
x x
d el
ĠT V
Ġfr amework
ĠNew s
Ġ$ -
Ġp anel
ĠSt reet
) |
ĠB el
C an
set minus
Ġder iv
et t
Ġmon th
oc al
Hel per
n es
Ġe ver
Ġrequ ires
E Q
Ġtem plate
Ġcon cept
Ġto day
Ġqu ality
c ard
ann ing
B O
le te
Ġsuff icient
Ġal though
Ġvis it
err y
ta x
ec k
_ +
Ġin fin
Ġcomp act
Ġvill age
R ev
Or der
L I
Ġa ward
Ġ ign
Ġover ride
o e
res hold
ro te
wit ter
com ponent
omorph ism
} %
ĠJ ames
9 1
a res
r is
add ress
ĠC E
================ ================
P ost
Ġes pecially
s pect
h i
h igh
Ġ" \
aut o
ĠDav id
ĠO b
S ession
ĠT ime
as ic
Ġor d
Int eger
f n
ew idth
ĠPart y
Col lection
Ġhe nce
g lobal
=" /
Ġben ef
ang er
s end
adi us
b on
m es
P A
it ch
Ġsche me
rel ated
Ġun its
Ġb all
opl us
m ut
in ternal
ac cess
p ing
Ġre strict
y es
Ġchar ge
Ġreg ister
Ġc ore
ĠP re
Ġvert ex
Ġpol ynomial
ĠC he
ms g
Ġw ave
Ġs ession
Pro t
k ing
Ġh yp
Ġhas h
Ġill ustr
ad ian
' >
Tr ack
v ille
ole c
Ġpart y
V ector
wo od
FF FF
_{ (
Ġstart ing
Ġsec urity
Th at
h ad
Ġre li
ĠS ervice
ĠĠĠĠĠĠĠĠĠĠĠĠĠĠĠĠ ĠĠĠĠ
P tr
ĠRes earch
Ġto ken
~~ ~~
Ġ( $\
Ġcompan ies
Ġcur ve
ĠA ward
Ġj av
Ġstud ied
ol ar
Ġs y
ĠO R
il m
a id
Ġnov el
Ġcom ment
d irect
As ync
ĠM et
c opy
Ġlarg est
Ġclass ical
() :
Ġsymmet ry
ä ¸
w s
D ir
Ġd ark
Ġe ast
P eople
P T
M atch
Test s
w est
Ġstre ng
Im pl
Ġorig in
j oin
b lack
ra z
Ġdistribut ed
z ero
Ġf ire
Ġpro per
is ions
lo od
4 00
st ep
: "
Ġn ight
al o
icro soft
ĠR ober
ĠDep artment
Ġgener ate
Ġstr ict
Ġwork ed
d agger
Ġchang ed
cl ick
Ġwe b
& #
Ġt en
S chema
anc ial
K e
v an
^{ -\
M ar
ĠU K
Ġp ick
f ect
Ġt alk
ar ter
ol ume
Ġpro gress
_ *
Ġart icle
Ġcomput e
Ġdes igned
Ġrema ins
U se
ant ic
Ġg auge
lim its
p ri
n ov
in y
Ġdat abase
ĠQ ue
Ġmap s
act or
re q
M ore
Ġem bedd
itte e
Ġ ensure
st on
m as
ĠF orm
Ġc os
Ġpass ed
ĠB ay
co q
Ġdi agram
Ġstruct ures
Ġcontinu ous
( :
pl ugin
id ing
Ġf ight
ĠC heck
Ġhy per
Ġmot ion
Ġproduct s
Ġcho ose
Result s
ĠCh urch
Ġac qu
S A
Ġch arg
' re
Ġs us
om in
Ġ er
rop y
Ġar bitr
vent ion
Ġder ived
tr ack
Par ser
Ġeas y
re nder
P ass
vir t
and er
con dition
ĠD irect
Ġext ra
wed ge
M D
ch ron
Ġp ackage
Paramet ers
ĠB uild
ound ation
Ġdeterm ine
v m
new line
Ġto wards
Ġn orm
ed u
Ġm ale
al ysis
X X
ac ement
Ġcontain ing
Ġpres ence
Ġset tings
Ġem ission
v as
6 3
su ccess
IN E
Ġsh are
AL L
ĠBG COLOR
Ġknow ledge
ell ar
Ġe cho
Ġr ules
S ign
ill ing
Ġuse ful
z a
Ġdiscuss ed
to String
c ategory
Ġide a
ĠW hat
Ġm ut
ing u
I ter
Ġprevious ly
is ms
Ġman if
Ġin fo
sequ ence
Ġlim ited
ĠN ow
Ġstat ement
Ġcompar ison
Ex p
Ġeduc ation
ĠFr ance
d est
* {
T ool
ab ilities
Ġpartic le
## #
lang uage
199 5
Refer ence
E v
Ġman agement
Ġradi us
Ġc ategory
Ġt ax
ec ause
ĠEx ception
wh ite
T ER
M y
ĠD ate
Ġindu stry
ĠT ra
Ġf un
ĠH all
Ġitem s
D own
V ari
eder al
ĠG erm
Ġund efined
as c
Ġfollow ed
pos ite
6 2
Ġgalax ies
7 4
ĠWilli am
d ouble
Ġe lection
equ als
Ġredu ced
ick et
Ġqu ick
ash ington
Ġm ilitary
ĠAr ch
Ġgrow th
ĠAs sert
el ves
Ġdeath s
Ġf ully
set tings
in f
ĠR ich
Ex pression
Ġbeh ind
over ed
Ġ$ [
N on
ri an
ĠWe b
ĠS ing
file s
t ypes
s cri
Ġh on
lin ewidth
at ial
Ð° Ð
Ġe mer
Ġrep resents
Ġcomplet ed
block List
align ed
M C
D ep
Ġfig ure
apt er
ic ate
St ore
se ct
Ġf ood
Def inition
G B
G o
erv ices
Ġapplic ations
Ġcoun ter
Ġinv olved
Ġex hib
en um
N ames
ĠHam ilton
Ġbel ong
Ġext ended
Ġthrough out
annot ation
iver se
Ġdec ision
H ere
ak er
25 5
Ġw ait
Ġbound ed
Ġs low
f aces
ynam ic
ĠĠĠĠĠĠ Ċ
ill a
Ġr isk
Ġb ottom
Oper ation
T im
Ġper t
Ġim m
U LT
ic ial
f ull
Ġext ract
Ġcol lect
Ġ} )
ol t
w ell
iv ial
PE CT
Ap plication
ĠR E
198 0
result s
Ġn et
p ub
R ect
Ġth erm
U P
Ġan sw
sh ort
Ġt ell
H ost
ĠArm y
ou thern
7 9
ak es
Ġst e
ĠR ead
R ender
ad es
Ġpartic les
Ġfe ed
Ġteam s
ĠAss ociation
ree k
ress ion
ri al
ĠC ON
ĠA tt
ĠĠĠĠĠĠĠĠĠĠĠĠĠĠĠĠĠĠĠĠĠĠĠĠĠĠĠĠĠĠĠĠ ĠĠĠĠĠĠĠ
ĠIn st
_{ {\
wid get
L ong
Ġmeasure d
ĠG reen
Ġdynam ics
in ci
ĠM art
end ar
Ġinv oke
ĠP e
N A
ĠS w
ĠSci ence
} "
Tem plate
b al
ribut ion
pro ve
% %
R I
C ore
k et
6 1
Ġs ort
T itle
S ION
ig hest
ĠHe alth
Ġw alk
anc y
-- >
Ġs il
Ġal t
G ET
p adding
Ġc ast
atal og
Ġperson al
Ġconstraint s
ĠB ook
Ġexper iments
ist ance
b i
Ġlead s
m aterial
ĠIn stitute
e es
Ġeas ily
Ġsc atter
Ġtest s
D L
ex port
web kit
com ment
Ġad opt
Ġ| \
Ġsc ore
ĠJ ust
Ġexp ansion
omet ric
ann els
8 1
Ġch osen
Ġmin im
D A
ev al
7 3
Ġtrans action
8 3
Class es
w rit
ĠM ap
Ġapproxim ation
Ġf ast
il ies
L iving
Ġb ank
o ader
g in
sub figure
Ġform ula
Ġl atter
ex ception
Ġv eh
ĠTr ue
fr amework
sp irit
y e
Ġform s
depend ency
it ar
Ġuncer taint
med ia
Ġst ra
Ġs cript
ĠO ther
ĠR oman
ĠM odel
Ġdis k
Ġra ise
ERR OR
ig r
est amp
ĠM o
pro du
Ġpol ar
Ġres ources
Ġro ck
D raw
Ġtechn ology
p resent
ĠI S
Ġdepend s
Ġw rote
6 9
O ur
ĠGe orge
SE T
Ġsign ed
ot ion
199 4
w ner
ĠA ut
cl os
at ically
rom e
Ġw or
G r
Ġopt imal
Ġev idence
' \
pl ugins
Ġ} \
Ġbl ue
Ġa im
Ġv ict
Ġact ivity
col on
y r
Ġexample s
f il
> ();
Ġbas ic
G E
L S
Ġfri end
ol id
ĠAcc ording
ĠP ublic
Ġpar se
) {\
osp ital
Ġp ul
ĠD on
Ġnetwork s
Ġident ity
Ġsh ift
Ġoff ice
Ġcamp aign
ĠPro v
Ġn or
p ed
oll ary
k i
Ġh ot
Ġmod ern
b our
ro s
Ġet c
ix el
Ġb al
ound s
Ġt our
Ġtra vel
pr ing
OR T
erv e
Ġsatisf ies
ĠO per
sequ ently
AT H
ad r
c ustom
Ġover all
Ġde lete
al led
D i
ĠD ay
Ġprocess es
field s
b es
h over
l as
ĠUn ion
OR M
Q ue
ici ents
Ġdirect or
Dev ice
st ore
Ġstr ategy
; <
Ġd am
em ail
eth er
), \
Ġm oney
Ġh ours
S u
Ġinterest ing
Ġaccur acy
i us
Ġapp oint
hand le
Ġmiss ing
virt ual
uf act
m atrix
Ġm icro
co in
Ġb g
ĠO lymp
inc ip
Ġrecent ly
Ġcontribut ion
inci ple
Ġca use
if ies
s ur
Ġdet ection
Ġappro pri
o res
ĠGo ogle
Ġconsist ent
Ġpl ane
s ession
P aram
Ġst eps
' _
he lp
k m
air s
Ġ util
Ġn ature
p anel
ers hip
Ġimplement ation
A m
ĠJ SON
Ġop port
ex ports
ĠM ac
out e
Ġc op
Ġfinal ly
Ġfact ors
ĠN ame
Ġre pe
fo o
ĠP o
up le
iqu es
Ġad minist
Ġcell s
In valid
ĠB est
ĠPro position
con nect
Ġb ad
7 1
Ġtreat ment
ines e
Ġmoment um
Ġappe ars
V er
it z
-------------------------------- --------------------------------
Ġon es
Ġc ache
in v
ĠR un
E l
Ġth read
per p
I con
Ġform ed
Se ction
Val ues
Ġconc ern
Ġr ad
16 0
ro ad
Ġnumer ical
B S
Ġopen ed
A pi
ick er
ĠA ng
ĠL ou
Ġb inary
199 2
Ġex ternal
Ġcou pling
new command
Ġpress ure
ĠR uss
s ample
Ġincre ased
Ġcontain er
def ined
ĠRoy al
Ġplay ing
Ġpract ice
Ġt ensor
l ines
Ġear lier
ĠF urther
Ġexact ly
ĠTe chn
n eg
gorith ms
Ġsim ulations
Com ple
Ġd ro
ĠS am
Ġt ro
Ġspect ral
ĠJ ack
199 3
Ġinter pret
as ure
ĠM ath
ĠW ashington
Ġ{ };
s ort
}} (\
h y
ĠM at
ategor ies
Ġcons ists
Hand le
N e
by te
ĠCour t
ric es
re v
Ġin ner
Ġp aint
art s
h s
Ġde but
Ġprof essional
Ġgener ally
Ġl ibrary
equ ality
Ġhim self
Read er
Ġhe ader
Ġset t
E ach
ap plication
St ack
ĠB ase
L P
ur a
multi row
OR D
form s
se y
ĠC re
Ġin j
c ut
Ġjo ined
Ġcontinu ed
est ed
struct ure
p ers
Ġo s
Ġrepresent ed
C lick
el t
ĠH ence
al ed
ul er
F C
Ġr ace
ĠK e
197 0
ĠF ield
Ġsp aces
Ġprodu ce
ught er
Ġst ack
wh ile
ĠHT ML
omet imes
E q
Ġneigh bor
for all
Ġl iving
S ymfony
( *
un icip
Ġrele vant
ĠP ress
Ġam plit
W E
Ġcalcul ated
pro duct
Ġbr ing
B R
ĠM usic
Ġst aff
Ġre comm
Ġpat ients
> .
ĠV ir
Ġres olution
Ġtra in
Ġqu ite
Ġess ential
Ġcorrespond s
ĠR oad
ĠGerm any
al ian
S um
Ġrema ining
D ebug
Ġun signed
_{ -
ĠĠĠĠĠĠĠĠĠĠĠĠĠĠĠĠ ĠĠ
sh ot
J ECT
Ġh it
F L
big g
re place
ĠD uring
ĠComp any
ĠT ex
) }(
Ġass ign
F alse
U B
Ġscal ar
Ġmeasure ments
Ġw aves
S l
w ar
Ġdec om
Ġatt ention
Ġvert ices
Ġf raction
ĠM ag
="../../ ../
cl oud
Ġwrit er
Ġrepl aced
N um
Ġrun s
Ġestim ated
g an
al d
ĠE v
hes is
Ġs light
key word
P H
)\ ,
D om
Ġun known
Ġan gle
Ġl attice
er c
dis abled
Ġdec ay
ĠP at
Ġbo ard
P arent
Ġcount ries
u ge
ĠO ver
Ġin cor
Ġsignificant ly
Ob j
Ġexperiment al
ĠR equ
Ġform ation
ollow ing
Ġr ates
ĠL eg
As sert
B ody
st at
dom ain
se ud
Ġres id
Ġsur v
Ġad m
Ġby te
Ġf ix
al a
tog gle
Ġmean ing
ĠEX PECT
E C
P op
T ab
Ġcomp are
all s
? :
H as
p are
How ever
K ind
reg ion
h ing
ĠP ost
ĠL O
Ġrecord ed
rec ated
aw s
Ġread ing
Ġbut ton
or ation
En abled
Ġs ex
Ġed ges
Ġed itor
er ies
ĠY ear
s che
P P
D I
rom ise
Ġsh ared
Ġb ul
Ġn amespace
Ġthe ore
Ġw ide
ar ant
Ġbr anch
ir ing
Ġgre ater
d y
reg ister
Ġ$ .
Ġchall eng
Met adata
ĠAc adem
rodu ction
mer c
it a
ĠE nd
B l
e ch
Ġm iddle
ax is
D ialog
Ġv s
` .
; /
Ġd ual
if fer
ens us
ult ural
Ġh ighest
AN D
f ocus
Ġproced ure
Ġl ock
ĠA lex
M ark
ĠM em
C or
Ġsa f
Ġs s
ag raph
P ackage
est ival
k y
n umer
ir l
sub subsection
Dec l
st o
urre n
Ġtest ing
ro t
Ġro om
Ġ rap
ond s
c ases
Ġc ard
Ġim prove
Ġfor ces
Ġl ack
Ġremov ed
Ġm ix
ici ency
in sert
cont in
Ġdirect ory
ĠE rror
Ġhe l
ixt ure
ĠS ociety
in itial
f ort
text sc
ib ly
b its
ess or
) ^{\
}$ -
F R
D elete
Ġe ight
Ġj son
Ġconst it
ir al
sq l
ĠAl so
Ġinteg ral
av ed
ĠH el
ou b
Bo olean
r ong
s ime
Ġmar ried
ĠAustral ian
Ġcont rast
ĠM ethod
arg ument
Ġdef e
By tes
AT A
ann ed
Ġsim ulation
sime q
}{ *
' .
en ge
Ġc lean
Ġw allet
ĠFr anc
Ġk m
Ġredu ce
Ġche m
199 1
B r
Ġax is
ip eline
Ġso on
' ))
M ock
Ġre ach
r or
ĠZ e
ific ations
t ri
por ary
__ (
Arg s
ĠRober t
Ġarbitr ary
Ġassum ption
leg al
ĠD el
Arg ument
E rr
Ġident ified
) _{
Ġ+ \
m argin
Ġprot ocol
Ġse em
att ribute
Ġst ri
Ġs quare
Ġdirect ed
ĠDiv ision
HT ML
ĠWh ite
Ġlook ing
bo olean
A c
point s
Ġ\ (
Ġg ave
,\ ,
og ene
M ain
all ow
{ $\
ask et
con nection
ĠM ary
=" "
Ġm other
ĠO f
Ġpair s
Ġcoeff icients
Ġpert urb
W riter
Ġs aw
Ġsit uation
Ð »
O K
eff ect
Ġdeta il
Ġvis ual
An y
Ġth ing
") ]
Ġpl ot
d ro
Ġa ud
Ġdid n
re me
Ġbook s
Ġbegin ning
Ġcorre lation
ĠIs land
ĠU ser
Ġse ems
em ic
25 6
m i
) ^{-
L java
ĠN OT
Ġto ol
hold er
R oot
et te
pass word
tabular newline
}^ *
ĠAfr ica
ĠMich ael
Ġ( '
mod ules
is hes
ad min
R ule
Ġmain tain
ĠMore over
Ġj ud
Ġin line
ĠV er
Ġjav ax
n one
Ġvari ety
Fig ure
ele br
Ġag ent
Ġgr ant
Ġex am
Ġocc ur
ĠC ong
pm atrix
S ing
Ġp y
Ġcon cent
Ø §
N E
Ġra il
Ġin variant
Act ive
Ġhigh ly
Ġappe ared
Ġcomput ed
Ġdo ing
m ock
Ġant i
CT ION
f it
Ġcon serv
Ġman ager
u ations
=" ">
Ġag reement
Sh ow
Ġw ife
=" @
ĠDem ocr
T C
C re
D oc
TE D
By te
ĠR ussian
Ġin equality
Ġbg color
Ġ+ +
ĠG od
Ġto ld
Ġaff ect
Ġs plit
S R
incip al
ĠM iss
bul let
ĠI O
ĠPro ject
Ġby tes
Ġsong s
ĠB en
U RE
ĠM ex
Ġseg ment
Ġ' /
Ġelect ric
duc ation
Ġpres ident
Ñ ĥ
Pol icy
Ġm olec
Ġpol ice
Ġincre ases
Ġpre vent
Ex ecut
Ġg overn
Ġschool s
inst all
ple ments
Ġ< =
sup er
call back
ĠS ur
Ġa ctions
O M
.~ (\
ĠC ons
Ġpart ial
Ġm us
_ ;
il ib
ed it
Ġan im
Ġm sg
ic ated
' }
Ġcl oud
j a
Ġcom ing
Ġpl aces
Ġh ous
ĠIn c
ĠL ong
ack et
ĠU se
f ly
ĠAs sembly
ĠT ur
Ġprop ag
ust ers
Window s
Ġmin utes
Ġw atch
i h
St orage
G S
r adius
ĠJ er
ke ys
ad s
com ing
VER SION
ic ian
ĠH en
s ite
Ġ â
Ġgener ation
tt y
at ible
$ ^{-
Ġdep th
or ter
Ġ= \
Ġstra ight
ĠG old
Ġlist ed
bl ue
Ġm achine
Ġdistribut ions
ĠT om
Ġb ur
Ġinter val
Ġdis e
Ġliter ature
Ġre ached
put e
Ġapproxim ately
EN D
am i
p icture
) ),
Field s
sh ape
ĠP y
Ġch urch
Ġcomplet ely
Ġen h
ĠV alue
ang uage
if ically
ub y
P RE
Ġprob ably
Ġinst it
Ġimmedi ately
j query
b old
b ing
ang ular
im pl
Ġexist ence
Ġtask s
$ ).
du le
p ay
od ec
######## ########
ed ef
Ġrece ive
$ /
FA ULT
os ing
st ats
elop ment
ly ph
Ġb tn
el li
ĠAr g
Ġin str
had oop
Ġocc up
Ġap i
Ġmat ches
ĠW il
ĠT own
ill er
sp ring
at in
V ar
ĠCl ub
Ġmention ed
in em
Ġh arm
AG E
st ant
as er
ĠTex as
omorph ic
Ġpl ant
ĠM a
AC E
Ã §
Ġabs olute
Ġvert ical
Ġfl ag
ĠD an
pro perties
Ġdist inct
ĠCent ral
Ġst ated
}} ^
Ġ Î
Ġmod es
Ġnot hing
g g
ĠT HE
M eta
Ġcon sole
Ġ$ $
Ġal gorithms
ĠPro gram
Ġsc ient
Ġden otes
A dapt
a iled
ĠF in
f amily
D C
Ġparticular ly
al g
Ġs even
Ġ ),
Ġab ility
ig in
. *
re y
ent er
The se
Ġpr inciple
Ġw ays
gr id
Ġm is
j i
Sec urity
not ation
in line
Ġbe y
Ġshow ed
ms elves
C ustom
Ġp en
198 9
ĠThom as
ent al
item s
Ġeff icient
$ $\
ne ctions
ir med
merc ial
SS ERT
ol ver
) _
ert ific
S end
Ġappro aches
Ġte ach
Ġcur ves
Ġappropri ate
ing er
I X
W S
Ġh idden
In itial
ĠF ore
ĠE qu
Ġbey ond
Ġd b
P erm
ag onal
ĠAfr ican
Ġl o
Ġbir th
end ix
Trans action
Ġs ave
Ġintrodu ce
ĠU s
Ch anged
ĠR ob
her it
cm d
ĠSc ott
Ġ icon
le ep
Ġin sert
Ġ&= &
Ġj ournal
Ġw oman
f g
r ate
ĠSup er
p a
J ob
ail y
Ġm ind
sk i
S he
Ġfam ilies
Ġfin ished
ĠS al
ĠR el
==== ==
Ġcour t
Ġgr id
d ates
ĠM ax
Ġmeasure ment
pe ed
ĠT or
Ġst able
ĠCh inese
Ġthe mselves
g a
ist ent
Ġauth ors
J SON
Ġclass ification
l imit
agn ost
ĠCO VID
` ,
ĠGr and
Ġ" /
Ġcoordin ates
u an
X ml
ĠIs ra
Ġsub set
Ġr ing
ĠF oundation
Ġh tml
uck et
15 0
ĠJapan ese
Act ivity
ag on
Ġro ute
Ġcal c
ck now
ĠSec ond
ĠM us
reed om
~ $\
Ġst ay
Ġst orage
IT Y
Ġg reen
Ġre serv
Ġcomb ination
Ġm or
Ġget ting
M B
Ġj oint
C I
ĠA L
Ġdepend ence
ut f
rap per
By Id
} &
Ġsp atial
ri um
) ).
} )$.
k o
Ġfin ancial
Ġspect ra
Ġtechn iques
ĠCan adian
\ _
Ġm ock
) }{\
h av
th read
N R
Ġdest roy
ĠĠĠĠĠĠĠĠĠĠĠĠĠĠĠĠ ĠĠĠĠĠĠĠĠĠ
FI LE
Ġset up
st op
ict or
M ulti
c pp
Ġca used
Ġpr ice
Ġtrans formation
Ġle ave
ĠChrist ian
od ot
Ġor ient
Ġcap acity
Ġent ity
ur t
Ġsc ience
D S
ier arch
ic ity
Ġp urch
u ate
Ġsim pl
on ym
ĠT ext
proto buf
ĠĠĠĠĠĠĠĠĠĠĠĠĠĠĠĠ ĠĠĠĠĠĠĠĠ
O ther
ĠJ ew
j oy
ma ster
Ġv an
Que ue
ar c
Dis play
am pling
Ġdom in
Ġtrad itional
pos itory
Ġfl at
umn i
as i
m ic
ph one
ĠG ames
li ament
tern et
Ġc ulture
Ġsepar ate
ĠM useum
ĠKing dom
Ġsing ular
Ġinter actions
olv es
g it
Ð º
Ġt or
ĠE vent
N etwork
ot ing
Ġsymmet ric
Ġassum ed
}{* }{
ang o
Ġe q
ĠE ach
Ġs ports
Ġin sp
Ġper fect
KE Y
)$ -
Ġl if
; "
ĠC ath
ĠA v
198 8
Ġident ify
ĠM ont
^{ +
im in
Acc ount
, $
1 20
r f
ĠSh ow
cal led
ĠS l
D et
st able
Ġcom pl
Ġmat rices
az ine
ĠB ig
Ġevent ually
sc roll
Ġdiscuss ion
TE ST
not es
Ġcap ital
Ġepis ode
Ġhe avy
G C
ĠAl though
ed y
Ġhigh light
and ra
Ġblock s
Ġquest ions
ĠP ub
ĠH istory
W idget
pos es
Th us
olog ies
Sup port
rem ark
ament al
ĠK ey
sec urity
Ġag o
Ġnot ed
for ward
Ġpart ition
Id ent
add r
ĠSm ith
m ann
hent ication
"> &
ĠCar ol
C ar
ĠL i
ass ets
ff ic
ed s
Ġpur pose
pro file
Ġ ,\
Ġbound s
Ġform al
L a
Ġcall s
ie ce
p ool
at o
ĠU nder
19 60
m ove
ĠN etwork
rec ord
ĠU RL
ĠL ife
Wh ile
( !
Ġcon tr
h orizontal
Ġmeas ures
Ġconstruct ed
ĠN O
Ġrel ig
P AR
Ġn ative
Ġp ure
Ġcoll abor
Ġnear ly
On ly
Ġtr ade
Ġs en
ĠC opy
ĠM er
ish ing
r b
Ġser ial
ĠGa ussian
on ical
Ġhe art
Ġyield s
ex ists
D R
Ġ ^
Ġpl aced
Ġmov ing
}; $
ivers al
Ġbeli eve
Ġvis ible
param eters
Ġcontribut ions
Ġmod ified
Ġatt ributes
oc ation
Ġp refer
print f
ĠT wo
am ing
In v
Ġgo es
Ġget s
ĠAcadem y
os h
Ġindic ates
ĠG reat
ĠI P
U ID
Ġal loc
m c
Ġcomb ined
ĠT op
Ġro ut
ĠMin ister
k w
H z
Ġstud ent
R ed
n ames
[ :
Ġb rief
//////////////// ////////////////
ol f
l an
m os
}} ^{
R et
Pro p
k es
Ġactiv ities
irc raft
Str uct
rid ge
ens es
Ġadv ant
ĠK ore
pro position
er ia
Ġf oot
ĠWest ern
app ed
ĠF lor
un signed
n etwork
ro om
o les
Ġass ess
Ġlet ter
Ġcandid ate
Ġas pect
Ġm ask
sh all
Ġw av
", "
Ext ension
Ġestim ates
M edia
Ġ% }
at re
Ġst ellar
Ġon to
L ock
Ġproject s
Ġpar allel
ch ain
T V
t otal
Ġdeta iled
B efore
12 3
ĠVir gin
- $
k g
Ġas ympt
ick s
j pg
Ġref lect
Ġanal og
t w
ĠA R
Ġm ixed
Ġdet ect
ĠAn n
Ch annel
)) )
Ġask ed
Ġ( *
Ġmatch ing
ĠFranc is
Ġmed ical
Ġenc oding
Ġpr iv
ist ical
Ġth reshold
il ing
)\ \
pon ential
= >
Ġup dated
org an
ĠV iew
j ar
Ġex c
ĉĉĉ Ċ
Ġe mail
Ġsec ret
ĠDef ault
Ġorgan ization
Ġtyp ically
il ation
Ġexper i
Ġw ind
ev ents
198 7
he mat
oun tain
Ġstreng th
al and
Ġf avor
c b
e ach
ĠT em
ĠĠĠĠĠĠĠĠĠĠĠĠĠĠĠĠĠĠĠĠĠĠĠĠĠĠĠĠĠĠĠĠ ĠĠĠĠĠĠĠĠĠĠĠĠĠĠĠĠĠĠĠĠĠĠĠĠĠĠĠĠĠĠĠĠ
Log ger
Ġass ist
h ouse
Des criptor
al i
12 8
d ict
d em
U sing
Ġopt ical
ĠR ail
map sto
] ]
ĠM ad
Ġleg al
asket ball
ĠB ank
d p
Ġun less
Ġsp read
l ers
ĠFr ank
Ġt it
Ġbroad cast
Ġh um
Ġke ys
In ternal
AR Y
Ġg old
ist an
Ġinstance of
Ġd rop
ĠS u
ig ration
St ep
er g
ĠA N
Time out
Ġk illed
Ġrel atively
T ABLE
t wo
Ġv ac
ĠLou is
and ard
s chema
Ġinflu ence
id ers
Ġp hen
M sg
ð Ł
all ery
sc ill
M OD
des c
s ave
v a
os itory
Ġrema in
display style
Ġs ometimes
ĠM ass
ic ago
Ġassert Equals
ĠL ine
to ols
Ġprogram s
Ġd u
Ġslight ly
Ġman ufact
Ġcy cle
Ġv ectors
r ons
re land
Ġdig ital
Ġda ughter
I B
nap shot
w ild
h ol
) "
Ġcomput er
se lected
ap ers
Ġrecord s
cont roller
is l
ĠF alse
M ENT
ilib rium
ĠM ost
ĠA ND
Ġth reat
Ġob serve
th let
Ġposition s
Ġfour th
R est
Ġmechan ism
Ġpr im
Ġtr ansp
Ġv ary
l ig
Item s
P ool
ĠJ ose
Ġun ion
Ġabs or
\ {\
b u
P ATH
The orem
S cale
ĠPro f
\| _{
medi ate
Ġm aster
az z
ĠComm ission
CH E
() {
Ġc ivil
Con s
Ġbehav i
G raph
ĠV ol
ĠM r
ĠT im
) },
Ġde ad
s creen
anc el
Ġfem ale
tx t
ĠD en
Ġang ular
Ġbro ught
ĠRec ords
@ "
j ust
Ġconver gence
Ã³ n
r ine
ch annel
Ġsh ip
que ue
B it
Ġc elebr
am ely
. __
198 6
ĠH istor
Ġocc urs
ĠC ap
Ġle ader
Ġindic ate
to ol
F urther
Ġfound ed
Ġstud io
Ġdel iver
Ġf air
ab e
it ation
r ich
e cho
Con f
ĠC all
Des c
Ġdel ay
[ (
Ġs ites
Ġmov ement
LO G
ourn ament
Ġoriginal ly
Ġle ague
$ ;
ĠHamilton ian
Ġpol y
ĠSt ar
ĠĠĠĠĠĠĠĠĠĠĠĠĠĠĠĠ ĠĠĠĠĠĠ
ç ļ
ĠH and
Ġsur round
A v
as y
k in
Ġinter view
Ġsc ene
Ġredu ction
Ġexpress ed
ĠOr der
ac ro
Ġk ernel
ell a
Ġsp ent
ud get
Ġcre ating
Ġprovid ing
urre d
Ġmin or
ĠS O
Ġdem and
or ial
d iff
ĠC amp
S ymbol
Ġsatisf y
çļ Ħ
ĠSer ies
Ġgu arant
ud es
or a
h ome
Ġre ct
Ed it
Gener ic
ov ed
lo op
A uth
Ġj oin
I E
E ar
ĠL ake
log ger
ĠM A
ov a
ĠChar les
Ġdiffer ential
j ob
Ġdec ided
Ġgalax y
Ġhy dro
Ġm apping
ĠIt s
) +\
Dat abase
Ġfail ure
Ġent er
p ower
Ġw id
ig an
Ġalbum s
config uration
Ġsem i
Ġdiffer ences
es ian
' (
ĠS U
ĠG overnment
D ist
ĠR ock
ĠO ption
G u
Ġprocess ing
com ponents
ell ig
Ġco ach
() ));
S M
Ġm essages
Ġe lected
__ __
Ġcontain ed
ĠIt alian
Ed itor
C F
ott ed
Ġs n
} </
v s
ele gate
Ġ ut
ab il
Ġweek s
Ġex pert
ĠP eter
ï ¼
P erson
ĠD et
D P
om a
ĠS un
Ġm orph
] :
ĠH ill
ĠL ie
Ġo dd
In it
P anel
ang ing
Ġshow ing
F ound
Ġide al
sing le
Ġhyp ot
Ġto ols
Ġany thing
Ġclear ly
RO M
S pace
h box
Ġo scill
; $
b ot
S cope
D el
lap se
M atrix
ĠF unction
Iter ator
P ay
Ġpred iction
ff ect
L oader
Ġqu adr
drop down
ĠFor ce
Ġ[ ];
ĠP lay
Ġprov ed
ac count
h idden
ĠB ill
et ween
Ġ ult
Ġc li
ĠRich ard
Ġa wait
F loat
Ġdim ensions
Ġcar ry
Ġsh ot
198 4
ut y
Ġhand ler
Ġarchitect ure
Ġp ark
D T
Ġstr ateg
he ast
Ġres on
Ex ample
pr imary
Back ground
Ġp an
198 5
j e
Ġachi eve
Ġmeet ing
Ġreg ime
w a
Com par
Ġlay ers
Ġtrans l
pl ot
SI ZE
Ġg iving
gr ade
Ġtyp ical
th rows
ac le
Ġ= ========
Ġplay s
ĠU sing
circ le
Ġart ists
Ġaltern ative
ble m
tr igger
Ġex change
ĠY our
Ġg ap
J ava
Ġsum mary
b en
ĠCol or
struct or
S w
ĠEng ine
Ġquick ly
EX T
$ ~
ust ain
Ġwant ed
ot on
ĠW indow
ymmet ric
Ġe lem
Ġnot ice
Trans form
} }$,
Ġstrong ly
ĠI ll
h bar
ĠS aint
NavBar Cell
Ġse ctions
. '
Ġb right
un ct
ĠV ersion
Ev ents
Ar t
Ġpub lish
l g
Ġtr igger
G R
m itted
Ġgrad ient
art icle
t ed
Ġnot ation
Ġdev ices
Ex pr
Ġp ush
ĠM el
Direct ory
ĠI d
C lose
Ġoptim ization
and a
f ixed
ĠG en
ma zon
l arge
Ġmajor ity
)) );
Ġevery thing
Ġp i
Ġtry ing
ĠBo ard
ed itor
Ġs pl
! !
oc aml
m iss
Ġmagn itude
s cription
F il
Ġrot ation
b el
Pro xy
Ġc ref
Ġin tr
res et
a ver
Ġappoint ed
Ġart ist
Y ear
s ive
Ġpo or
u ages
Ġe arn
B rowser
Ã ¨
M T
M at
ut ch
Ġnuc le
ĠL os
Ġex port
ock er
eng ine
w hen
n n
urren cy
Ġch annels
b ad
con g
up s
Ġsign ature
TE X
m ass
b rowser
Ġcolumn s
or se
v ed
W A
ĠRuss ia
M R
Ġext rem
op es
ĠV is
ĠB i
Ġcommun ication
Ñ ı
[ $
Ġco ok
ĠC ode
lo ok
ar se
Ġcirc le
Ġw orth
Ġcompet ition
Ġprot ect
Ġre place
pos s
s he
Ġlate st
To String
Ġqu arter
Ġgu itar
u ated
Ġindividual s
Ġt ouch
f ail
() ).
er ial
ĠL and
Adapt er
Ġrap id
f i
T ra
s uch
press ed
ĠD u
Ġacc eler
Ġge ometry
ĠPar is
g ame
_ ->
Pr int
st ein
Ġn om
Ġoff ers
ĠZe aland
M ember
s witch
) ">
Ġh ope
B P
Ġecon omic
type of
Ġp ri
Ġmov ie
Ġcalcul ate
Ġcar ried
ph ys
ad y
nav List
t ik
Ġth ick
it ivity
Ġmin imal
_ ,
Ġst ress
Ġc ov
un ched
s ince
Fe ature
ĠEx t
c are
Ġcom position
ĠRev iew
fl ags
Re ce
ĠG ame
est ion
ens ed
Select or
Ġachi eved
Ġre ader
ĠSum mer
Ġadd ing
Ġunderstand ing
c uss
import ant
u ous
N G
sh ire
Ġtr ace
Ġscatter ing
Ġobserv ation
Ä ģ
ĠSt ep
Ġim ag
Ġen able
r ase
En um
y an
MA X
Ġfri ends
im a
ĠC a
} }$.
ogene ous
Ġst ations
Ġpro ceed
ist ration
ab it
ploy ment
Ġb in
c over
assert Equals
* )
ĠS a
Ġsp irit
Ġo wner
f ol
Ġfunction al
Ġdr ug
Ġin valid
Fl ags
g reen
Ġl at
n il
clus ive
ip age
Ġcol lege
Ġgo als
ĠComm ittee
ts d
r ical
ograph ic
ex ternal
L IC
n y
F ull
ĠP ri
P lay
} )$,
form ance
ĠF inally
Ġgr and
Ġp ool
Ġsur vey
Ġtra ined
gener ated
ĠW omen
k ins
Ġs ector
Ġex cit
ĠC ast
n el
Ġpres erv
ri end
Ġbuild ings
Ġdynam ic
Ġf unc
Ġsy nt
}{ |
cre t
Ġopen ing
i ro
pt on
v est
cc cc
ĠK n
Ġindu ced
Prot ocol
++ ;
ĠA ust
ĠGe org
_ -
Ġmost ly
Ġg un
ĠUp date
Ġf ine
Ġl ives
G rid
ĠU k
ici ans
Mem bers
pp ing
Ġansw er
> \
ĠS il
UT F
Ġmass es
Ġrespons ible
I MP
Ġlabel s
Ġamplit ude
ĠF ootball
Ġs ch
Ġimplement ed
Ġent ries
Ġbe am
ĠP an
yn tax
F IG
ic ies
Lay er
Ġver ify
ol a
ĠReg ister
Ġstat istics
get Element
ĠTO DO
Ġim plements
Ġt ab
Ġxml ns
r andom
O pt
Ġcon clude
Int roduction
D ouble
ĠB rown
it iz
H S
ĠG al
Ġpro port
ar ian
s at
ven ue
w orld
ult s
) }_{
}( {\
Ġdepend ing
B ook
min ipage
=" ${
á ĥ
Ġmass ive
M I
Aut o
anc ing
i ra
ertific ate
Ġsum mer
ĠC P
198 3
m ma
assert Equal
=" $
Ġis n
ĠFlor ida
iz able
Ġcalc ulation
Ġh ole
os ity
t or
Ġinst alled
Ġv oc
Ġ[ [
P attern
ta il
' m
Ġbro ther
Ġbuild er
ĠI reland
ĠL u
ĠF ilm
&= &
: }
ad ing
wild fly
Ġ ener
Ġinfin ite
Ġab stract
}$ )
ro ke
] }
ĠCong ress
) )$
$ ),
Ġso ft
M apping
Ġas ync
ĠE ducation
con tains
Ġconsider ing
plic ations
Ġunder lying
R R
Ġtheore tical
| _{
Ġt err
Ġd ed
= #
Ġcl usters
Ġeff iciency
i ate
Ġco q
d ependent
ĠCon fig
Ġachi ev
go ing
ow ers
sum er
Ġen joy
ed ge
ĠCath olic
Pro file
S che
ĠCh icago
Ġincor por
pon s
Ġcalcul ations
F inally
col Last
cl aim
man ager
c hen
Ġsecond s
ĠL in
Ġpart ners
f ound
s ch
Ġsaf ety
ik i
clud ed
Ġlim its
on a
) -\
op ic
ĠF re
it ors
Const raint
ĠSec ret
t mp
ĠEx ample
comp iler
H igh
Ġmaterial s
all oc
Ġdes c
Ġeval uation
sw arm
< !
ast e
pr ise
D uration
Pl ugin
c ref
T erm
Ġret ri
he m
ĠMed ia
an es
I ST
H R
onal d
X ML
Ġ$ |\
Ġdet ected
we et
Ġturn ed
ĠG l
'] )
Ġ( _
ĠP oint
en abled
Ġcrit ic
D epend
IP T
Ġob vious
Comm on
Ġext end
Ġadj ust
Ġ io
Ġre ports
ĠEar th
s ymbol
p red
ge les
Ġn g
ĠB ur
Ġcomput ation
ĠJ ava
ĠV ictor
Ġm ur
ĠJ ournal
B E
Ġpass word
raz il
G en
agn etic
IT E
Ġpl ans
Ġhe at
', '
198 2
aj ax
Ġs qu
Ġtechn ique
G lobal
ĠP enn
ag r
Ġtherm al
Ġass igned
st ra
ele ase
Ġm ission
z ing
ĠT ask
Ġf ill
Ġatt ract
Ġparent s
Ġscal es
Ġa ircraft
col First
Ġcom mercial
Ġat tr
197 9
Ġcommun ities
ch or
Ġr ise
Ġcomplex ity
ĠFurther more
Ġc ool
tik z
Rep ository
ĠI II
Ġfund amental
F S
ar ation
Ġ" "
Ġst ories
Ġwork ers
U LE
ĠTr ump
Ġla unch
> :
oc key
am er
Eng ine
Ġpath s
as is
Ġscen ario
od ay
ank s
D etails
Ġl ib
Ġcoordin ate
Ġ raw
ĠO h
Ġmain ly
ĠSp anish
hand ler
Ġgraph s
Ġdise ase
it o
Ġphen omen
Th erefore
z h
id ay
f old
Ġfl uct
Ġin form
ĠM il
est s
' ll
all classes
S ch
Ġnav igation
get Name
Ġ= ======
b p
ĠVirgin ia
Ġac adem
ON E
ribut ed
app ly
I A
id x
ential s
Ġal umni
ĠDirect or
S ER
os is
ĠS ocial
Ġp iece
Ġre ject
pl atform
h aps
ist ers
ĠAn geles
Ġm unicip
Ġ" <
he tic
">< !--
ĠN ode
Ġbe aut
ĠIn itial
ipp ed
Sc roll
cknow led
Ġcre ation
Ġb us
Ġserv e
p an
con v
Ġold er
ĠAr ts
cre d
Ġtrans lation
Se lected
group s
ĠT imes
Ġs al
i able
ĠO p
sim ple
ent y
Ġuncertaint y
web pack
Ġis ol
ĠU N
ĠOff ice
Ġvers ions
fr ont
S ample
19 50
Ke ys
sy ch
R AN
H ER
col lapse
Ġd oub
Ġw rong
V M
li br
ic ine
h ide
Ġrema ined
Ġ{ '
u er
i en
pro ps
per iment
par ser
Ġdeg rees
Ġ[ \
Ġp seud
Ġdr iver
script style
tab s
U L
' ve
Ġen abled
Ġl umin
Ġdes ired
ay lor
Ġsay ing
por al
S QL
Ġre con
r ift
Ġp aram
g ers
und red
pl us
Ġscal ing
Ab stract
Ġf lex
Ġsome one
g ies
Ġb rowser
Ġf n
p at
Mem ory
Ġar m
ir us
Ġinteg ration
Ġsol ve
Ġresp ond
e an
im s
test s
t ers
J ohn
ĠN umber
ra ined
ill is
ĠS und
v ision
Par se
ĠV AL
Ġ ion
h l
ace book
Ġappear ance
Ġr at
Ð ´
S ome
ĠB oth
as ion
{ %
z en
ĠS y
Ġact or
prot ected
ĠC D
ell er
ilar ly
W N
stru ctions
ur ations
fil ename
T A
d ialog
met adata
prov ider
end or
Att ributes
ĠIm age
B B
M ut
ĠS I
Ġrefer red
in et
Ġevalu ate
build er
Ġfind ing
Ġtr ust
Ġdist ingu
ĠB usiness
M ed
ĠP et
ro le
D est
int eg
Ġwe ights
Ġphys ics
-------- ----
Ġch art
N ULL
z ed
ĠO ld
F unc
iter ator
Su ccess
pe ople
Ġrequest s
Ġsum mar
Ġinitial ly
oth ing
Ġpro jection
Ġfeature d
ir ls
Ġcl in
Ġrequire ments
h ar
Ġoption al
198 1
Ġ ^{
Po inter
ĠB u
Ġdes pite
Ex pect
p u
clus ions
Ġre q
ĠYou ng
Ġex ponential
Ġ eth
Ã £
stit ut
S eg
Run time
og en
File s
h ere
ĠL android
å ı
ĠOlymp ics
at i
st one
Not Null
() </
ĠHen ry
as et
Pro duct
iv ation
co res
6 00
Ġl ies
Ġro ugh
j oint
Ġcent re
less sim
ĠM ur
S Y
Ġrob ust
Ġloc ations
Ġpre m
ist ence
br ace
P ublic
A F
ĠM P
Sing le
ĠOn ly
ct rine
aw a
H ome
Ġcom ments
ĠB ack
ĠInd ex
ĠTe am
Ġp ages
n i
al ing
equ ence
Acc ording
ĠH a
serv ices
oper ation
25 0
Ġcoeff icient
Ġcomput ational
Ġexplicit ly
z one
ap es
Ġrepresent ing
G O
Ġtre nd
ch mark
head ers
stand ing
Ġinterest ed
ant om
ĠThe ir
Ġstart s
ĠMart in
Ġb attle
VAL UE
by tes
Stat ement
Ġt ail
ĠP age
Ġp ull
J S
-> _
ĠĠĠĠĠĠĠĠĠĠĠĠĠĠĠĠ ĠĠĠĠĠĠĠĠĠĠ
1 10
n amed
C G
ĠComm un
ĠMex ico
Ġc amera
ĠL ibrary
cd n
Ġfootball ers
C M
ĠH aw
Ġdr ive
CHE CK
Ġinst ances
Ġcon j
P layer
p refix
Ġdiv ision
Ġent ropy
Ġconv ex
Ġdecom position
Ä ±
iv ery
w all
: #
cl uster
A uthor
Ġbr and
Ġcont roller
pos al
id el
ĠG ood
Ġconst ants
con n
Ġnuc lear
cri be
low er
ex ecut
Ġsh oot
Ġcon ven
ĠĠĠĠĠĠĠĠĠĠĠĠĠĠĠĠĠĠĠĠĠĠĠĠĠĠĠĠĠĠĠĠ ĠĠĠĠĠĠĠĠĠĠĠ
ĠN AME
if iers
Ġcapt ure
}{ (
ish op
ud d
ĠIt aly
ĠIO Exception
D em
her ited
ĠF estival
ĠB O
li e
child ren
Ġwin ning
t body
Ġwhere as
w er
Ġtra ject
$ :
m aven
Ġsa fe
Ġcover ed
Ġdis crete
Ġus ual
Ġf arm
A rea
ful ly
Ġf reedom
F ailed
Ġc lick
err ors
ash ion
Ġac com
Ġre asons
let ed
Ġtype of
Ġconf lic
Ġautom atically
ĠA ction
Ġs izes
ĠCh ild
Ġstr ings
un ique
wrap per
Ġsuccessful ly
ĠT our
Ġla unched
the me
ĠI R
sequ ent
Ġdatas ets
Ag ent
par agraph
ĠB ob
al gorithm
comple te
Ġ" ,
Ġcy cl
ĠRe act
Ġexecut ion
ĠS wed
Ġque ue
Ġra ised
P ub
Ġ ens
ition ally
play er
N OT
Ġp ain
ĠDev elopment
Dom ain
Ġadvant age
Ġfore ign
ĠP eople
x html
Ġneighbor hood
AD D
spec ial
IC E
Ġle mma
ic ations
Ġread y
ĠJ ac
197 8
Ġw all
T T
F ind
sec ut
12 5
log in
,\ ,\
Ġcomm it
i ant
Ġt x
Ġorder ed
op ed
ĠPl an
Ġdown load
y er
Ġa udio
al gebra
}} )
$ _{
ĠH ot
ip ment
ĠL ove
ner gy
Ġtra ffic
Ġgener ic
Ġp icture
k t
Ġchem ical
Ġmark ed
Sec ond
Rem ove
ĠF ort
Ġd uration
Ġpo inter
Ġb undle
adi um
att ributes
B ound
Ġenc our
ĠI E
Ġ{ {
Ġpr ime
Ġwh om
Ġtrans late
c ient
du ction
tain ed
Ġden oted
Ġimprov ed
c les
pre v
S ync
Ġvari ation
197 6
ĠP ac
par a
ian a
ib li
Ġlay out
Ġneut r
d etails
Ġv oice
Char acter
Ġrem ote
ign ment
ve e
ĠG lobal
sa fe
| }
w riter
ĠH ome
sem ble
PRO JECT
\ }$.
ĠSt art
Ġent ered
Ġsc ored
197 5
(' .
prot ocol
ĠK ar
IN D
^* $
ĠAn y
: =
ĠM ain
Ġsatisf ying
Com ment
Ġspe ak
n p
ou rier
Ġcon nections
BU G
Ġpattern s
Ġmon itor
ĠC ross
F ail
re lation
Ġexpl an
B AR
ĠG ets
Ġdis s
Ġp refix
imit ive
s ys
ĠM ov
Ġ rows
og ram
p ir
ĠPh ys
197 2
Ġag greg
Pass word
Ġse a
o z
ST AT
m en
Ġser ious
Ġaward ed
ĠIn formation
Ġallow ing
Ġloc ally
ig gs
ĠCarol ina
Ġann ual
Ġrec all
Sim ple
gener al
ex ecute
Ġal one
Ġestim ation
Const ants
Ġend ed
ix els
W orld
Î ±
Sum mary
Ġeff orts
Ġmed ium
sv g
}} _{\
u um
en able
Ġcost s
Ġ? >
v c
Ġsh ock
Ġpredict ed
G N
LE CT
T x
At tr
ĠH on
] $.
ĠJ un
Ġw ood
res p
ĠM essage
Ġstat istical
in ations
? >
ĠP ass
ĠA wards
D uring
f d
ĠĠĠĠĠĠĠĠĠĠĠĠĠĠĠĠ ĠĠĠĠĠĠĠĠĠĠĠĠĠ
Ġa ver
w an
ust rial
ĠN av
Ġp ars
197 4
if ts
Ġex it
Ġcom pos
em on
ĠAr ab
ĠP ath
he el
Ġgrow ing
197 7
Ġ ice
Ġ" -
Ġsp an
re port
Reg ion
M ay
fl at
ĠIsra el
Ġm enu
Ġsing er
; )
rel ations
AL SE
ov iet
ĠCopy right
Ġsus p
Ġsol ar
Ġir re
t ags
du led
Ġm eta
Ġsecond ary
Ġimport ance
Ġmet adata
lect ric
sh ared
Ġ ..
s ol
it an
j ango
T wo
m ask
00 1
Ġconf irmed
Not es
Ġst ock
Go ogle
ri age
R oute
s es
Ġexplain ed
Ġw ild
h ref
Ġin verse
Ġord ers
el a
Ġinter section
O UT
ĠLe e
in ity
- (
d etail
e a
D M
ce an
Ġ ],
Ġf ederal
Ġ ip
V ideo
Ġs ampling
Ġopport unity
Ġh ar
s en
act ic
! [
ap os
ĠJ o
Ġout er
ext ension
ell o
Ġoper ating
pe ar
18 0
ĠL ocal
Ġag reed
Gener ator
ul ator
b at
irt y
ar ia
math op
ĉĉĉĉ ĉĉĉĉĉ
W R
Ġd ir
Ġpre v
Ġm obile
Ġor bit
ult ane
Ġthe me
Ġview s
ian o
Hel p
Ġra re
Col lections
/ (
Ã£ o
Ġapp lying
d frac
Ñ Į
anc er
s n
p air
Ġdis pl
33 33
Ġfl uid
user name
ĠE mp
ĠĠĠĠĠĠĠĠĠĠĠĠĠĠĠĠ ĠĠĠĠĠĠĠĠĠĠĠĠ
, {\
Ġpre p
Ġsp ac
ĠT R
Ġeff ort
IV E
ul y
alt y
S ocket
ag ent
ĠSt at
Ġtre es
Ġsub t
ĠCh ief
ĠS ervices
Ġequ ilibrium
p attern
Ġbi as
Ġdi am
t an
i ated
ST ATE
Ġind eed
Ġst ored
ser ial
Ġsize of
Ġfact ory
p erson
Ġc m
Ġst ability
ĠP op
}} .
Ġf irm
od d
Ġ{ $
Ġsuggest s
Ġv ote
ond er
Ġmed al
br id
Ġfore st
Ġconstruct or
ro ut
ĠĠĠĠĠĠĠĠĠĠĠĠĠĠĠĠ Ċ
ĠSt e
Ident ifier
as sembly
Ð ²
Ġp lease
Ġ[ "
d one
Ġbecom ing
ĠI l
us form
us ers
Pro ps
Ġocc urred
j unit
C ap
qu ant
Ġfor ced
Ġj Query
ĠM os
ĠTechn ology
$ &
and emic
Ġsuggest ed
}) }
sh adow
Ġshe ll
stit ution
Ġcandid ates
ĠSc ot
% )
s b
numer usform
spring framework
Ġaccur ate
Ġgrav it
Res ources
ict ed
pect ive
Ġlog ger
ĠVal ley
. ;
se par
Ġl icense
ĠN avy
Ġrem ark
Ġbal ance
Ġcharacter istic
Ġc at
Ġdescri bes
M ath
_ (
Ġ ul
Con dition
Ġpro xy
Ġman aged
Ġph il
197 3
Ġle aving
sk y
ist ed
Ġadopt ed
! \
Ġis land
Ġth r
Vari able
al so
Ġsu itable
ĠW ill
ĠO l
ĠE con
Ġor th
fe ature
h ard
. ");
plic ity
Ġcan cer
am m
Reg ister
mo z
[ -
RE AD
t k
ĠEn ter
os oph
Ġch ief
requ ired
yl van
Ġne ural
Cl uster
t iny
Ġregard ing
st orage
Ġtechn ical
ĠW AR
Ġpl us
Î ¿
u v
col lection
k ens
l aw
Ġb lood
Ġact s
ĠB ecause
8 00
Ġevery one
pro b
Ġconf irm
Ġin fra
Ġmet al
Ġbo ost
ard en
Ġmet rics
ra it
Ġpr ison
li es
Ġhapp en
word s
b ro
Ġv acc
s id
ĠH ash
ĠT re
ĠSpec ial
ans as
bm atrix
Ġ\ &
Ġnumer ous
Ear ly
L in
C are
Gener al
Ġc tx
Ġco ast
Pro of
b c
iffer ent
196 8
r ank
ec es
Ġ\ ]
g lyph
Fr amework
ab y
r ick
n odes
\ )
Ġin come
T otal
sign ature
ĠJ im
Ġle aves
big l
Ä ĩ
] $,
ou ter
ong s
Ġveh icle
Ġb re
Ġn amely
ĠE lement
ul i
ĠW ood
x s
Rep ort
( __
Ð ¼
u ing
Ġrepresent ations
ach ment
ĠUS A
Ġsupport s
Ġplan et
t ics
ĠL y
Ġreve aled
Ġsufficient ly
Ġattack s
$ {\
et o
ĉ ĠĠĠĠĠ
ff ff
is ely
y cle
TI ME
ep er
UR I
Ġed ition
ĠMan agement
dep th
od ies
Ġinst ant
Ġobject ive
ĠP ower
ĠW al
O B
N T
typ edef
}) =
ic ed
ĠJose ph
p res
Ġcl imate
Ġk ing
| }{
ĠB re
E V
ĠA S
C red
ĠAnd roid
G ame
ĠM iddle
U SE
Ġconduct ed
oun try
O F
Ġd ie
Ġaff ected
A CT
m n
Ġturn s
Ġd ust
CT YPE
Ġwrit ers
C RE
Ġbul k
\ ;
Tr ace
ĠCent re
v in
Ar ch
CE SS
is c
tem p
N odes
v art
Ġprodu cer
ĠU I
) [
Ġtrack s
Ġs ociety
i ance
Ġc ategories
Ġsup ply
Ġapp arent
ib ration
Ġcall ing
ph y
Ġf ol
}[ \
ad or
ab out
pro gress
Ġtri al
b g
ĠA uthor
Ġf if
overn or
ac ent
Ġradi ation
Ġf le
ĠJ ud
Ġ' <
at ers
Ġlead ers
Ġpower ful
il bert
Ġchar set
r uby
fl ag
check box
Ġcov ari
ĠRequ est
Ġsatisf ied
10 1
EE EE
print ln
v o
ĠF I
ĠF ree
big r
ĠApp endix
ĠS D
Ġrefer ences
v ature
ã Ģ
P refix
Ġorgan izations
Ġchall enge
man if
Ġtop ic
Ġle tt
v als
ĠD at
}\ ,\
Ġab und
Ġz one
it ness
ĠR am
ĠInt eger
Ġh ospital
es ome
(' #
li k
) ->
w t
F in
up lic
iss ues
Ġsequ ences
Ġu i
Ġcom posed
L R
f x
Ġhelp ed
ĠB razil
R ole
dec l
rior ity
' ));
Ġco inc
Ġl ic
Ġinstr ument
Ġh undred
Ġsen ior
ylvan ia
or ient
... </
us band
Ġcon sequence
ch anged
Ġf ans
Method s
Eng lish
PO ST
est er
tr ace
ur er
% ,
ul f
Ġke pt
Ġs pher
id ae
ymmet ry
W allet
Ġt ournament
index Of
ĠSec urity
iter al
at iv
Ġd ict
e er
v ideo
Ġpredict ions
Ġo k
Ġinput s
th row
Ġ{ "
Ġf erm
i em
Ġassum ptions
ig ital
Ġfocus ed
Ġth ous
Se lection
sl ash
is er
ĠW ay
DO CTYPE
ĠWindow s
) }}
Ġapplic able
Ġar rest
Ġr iver
Ġb os
ĠM any
Ġ ).
Ġto ward
pl ates
Inst all
U D
ĠS E
at ar
Ġmus ical
(' /
am az
ra ine
ex pr
Ġhead ers
Ġind ices
196 9
Ġsu c
Ġapp end
f ire
up load
Ġb asketball
in valid
ig er
Ġcol lected
ost on
Ġide as
Å ¡
el d
ult y
197 1
cont rib
Ġrel ax
Ġmanif old
empty set
ra ise
Ġb illion
Ġem ph
Ġp le
ĉ čĊ
ĠL ink
eli hood
ire ctions
Ġfl ags
Ġdi agonal
it ative
our se
ĠC R
Ġr an
res olve
res ources
Ġt end
ĠS ource
Ġp p
sl am
ĠComm and
Ġch ance
et ing
Pro gress
pre c
"" "
ĠIr an
Ġsub stant
ĠK h
ĠHT TP
Ġf av
Reg istry
Ġcomp atible
function s
Ġadminist r
am in
ĠE r
inal s
ĠCol umb
ĠM ajor
el ength
Ġdep artment
Ġoffer ed
Ġchang ing
H C
IN FO
Ġpolit ician
ĠNor thern
ĠR et
}) ^
" `
f c
t frac
Ġse asons
m oment
tr ivial
Ġro ll
ĠHe ad
Ġj et
ĠC A
P ORT
y y
ĠM ake
ĠM icrosoft
Ġs ales
Ġcan onical
Ġs ustain
ĠE ven
P M
Ġnon linear
. <
Ġfin ish
Ġhistor ical
Ġaccept ed
Ġen v
L C
Date Time
C ategory
;\ ;\
Ġn ation
Vis ible
Ġc itiz
b d
Ġtr uth
Ġclaim s
if ul
ierarch y
st ates
yn chron
Ġin nov
Ġmax imal
at omic
Ġpr incipal
ĠS uch
Ġcover age
ĠH ttp
ĠR adio
ens ities
Ġbehavi our
Ġgrav ity
Ġcos m
oriz on
C ho
Ġthan k
D en
on om
Ġ} {
eng er
Ġall Classes
long rightarrow
ĠL iber
um s
Ġm om
Ġo il
ĠEx ecut
h ave
Ġf elt
ĠJ ones
Ġinvestig ate
ĠallClasses Link
ID TH
Ġener gies
Ġsuc ceed
trans ition
Ġact ress
Ġl abor
c lip
Sk ip
B i
cle an
Ġown ed
ĠC ard
pro xy
G iven
ĠIr ish
Ġdisc overed
ub ble
O ST
ĠW ales
br as
Ġres olve
Ġinstit ut
ho ok
Ġ[ ],
Ġb atch
Ġcan cel
Im port
Ġ ðŁ
ĠA mazon
s quare
il a
Ġmax im
pl an
Ġsom ew
s ym
Ġdiv ided
Ġin ject
f ix
en ant
ĠT ele
Ġwid ely
TEX T
ir ror
rop ic
ĠCont rol
ari os
}} }\
Ġfore ach
Ġn arrow
Ġtr ivial
)) \
Ġlang uages
tr im
Ġpart ner
str iction
Ġn ine
Ġpart ies
Ġb ands
W rapper
ak a
k l
Ġderiv ative
ĠC la
Ġh alo
Ġex ecute
> ::
196 7
exp and
Ġop posite
s ome
Ñ ĭ
Ġmur der
Ġd raft
ĠPar liament
ellig ence
\ /
ĠJohn son
}} ^{\
ĠS ta
ĠAs ia
Ġr ational
Ġthe ories
Ġr u
rit ical
ĠS ar
C B
se q
Ġf an
y g
) --
g ather
ĠB lock
Ġsign als
Ġag ents
Ġestablish ments
IG HT
Ġembedd ing
Ġcomm ission
iven ess
Ġus age
urb an
in x
B ind
Ġmod ules
ĠB ul
Not ification
Ġp il
ĠV ector
M er
h ow
Id s
ĠM i
CO MP
form al
Ġoffic er
Ġal leg
ĠC H
ĠF acebook
19 40
r an
Ġdef orm
os a
ĠRes ource
side bar
ug by
en ers
ĠL com
ĠInd eed
Ġd aily
Ġsyn chron
Ġ} }
f ast
her ent
Ġcharg ed
r g
Ġr g
Ġp od
w p
Ġph one
Ġdoc uments
ĠRep ort
ident ifier
as ync
Ġrecomm end
ĠG i
id ential
Ġun iversity
Ġposs ibly
Ġs ides
t ar
C lear
b rief
Ðµ Ð½
Ġnor thern
h u
t i
ser ies
Ġlook s
Ġinter act
P air
Head ers
Ġf lo
ĠS ign
US ER
ron ic
U ri
Ġact ing
Ġder ive
ĠD ir
ĠPro cess
u zz
ass andra
m ond
Pl an
Ġclaim ed
us al
g est
he ta
p et
Ġfam ous
Ġpre tty
Ġend s
s el
ĠArray List
ĠG iven
s ylvania
P y
Ġred shift
ĠS QL
Ġdam age
Ġs outhern
Ġcontin ues
Ġj ump
ĠWe ek
ĠÐ ¿
are n
och astic
nd ef
a ug
A re
amp ion
,\ \
pl ane
Ġint ended
Ġcomput ing
Ġposs ibility
ph ase
Ġsub sequent
Ġdeb ug
iv ated
ĠN AV
e z
bl ank
Ġfr agment
Ġnew sp
Ġ" $
Ġl ived
Ġc ities
Ġcustom ers
The y
ĠComm unity
Ġrad ial
sl ant
19 64
ĠSup port
Ġtrans mission
ĠT witter
Ġm anner
pl ier
Tr ansport
et al
ĠB ern
Ġn p
Ġs ym
ĠS ir
Ġvari ance
ĠP RO
19 45
ind u
ĠS M
Ġlearn ed
EEEE FF
Ġcomm ut
Ġnull ptr
S cal
i pe
Ġ( [
Ġex ceed
Ġspec ify
Ġtem p
L anguage
Ġcontr ad
d c
N C
TR UE
i ota
pr ising
Cons ider
Ġg irl
Ġd x
Ġ> >
Ġin fer
Ġcor ner
RE Q
En ter
Ġd og
ĠT ri
Ġsim ultane
Ġexpress ions
Ġpur poses
reg ular
H ub
Ġident ical
Ġperform ing
uc ial
ĠBl ue
Ġvalid ation
B est
if def
ge bras
and on
ĠT H
Ġdr iving
Ġdepend encies
A x
}_{ -
Gener ated
S V
Ġpo et
() ))
ĠH uman
check ed
Ġp urs
ĠE nt
) }_
Text ure
um es
Ġp andemic
F low
ide os
poss ible
' d
Return s
S G
ĠL ord
Ġb udget
Inter val
C ast
Ġquant ity
S ervices
ĠSund ay
Ġprec ision
p icker
Ġded icated
Ġlist ing
Ġre action
Ġpar ser
ĠAL IGN
Ġgener ator
Ġign ore
ĠD own
ĠCon ference
ret ch
Ġart icles
und efined
Ġfeed back
U nder
S N
MOD ULE
Ġde leg
air man
Ġrem ember
O C
ĠBo olean
å Ī
Fr agment
cuss ion
l f
Ġtri ple
ĠEmp ire
lect or
: `
ĠR o
ch a
ĠDes ign
Be an
neg ative
ĠW ell
Ġdocument ation
Con n
ĠMich igan
Ġcount y
M ouse
ĠH y
Ġmed ian
Ġinvest igation
S F
z y
y cl
Ġ$ ,
ĠSI ZE
ord ers
Ġlaw s
Ġh usband
un ities
Ġtime out
Ġl ie
clos ed
Ġint ensity
Ġag ree
ap is
ĠCE LL
py thon
196 5
L emma
p aper
em y
P ER
ĠÂ £
s ig
H ence
down load
Ġvalid ate
Ġm d
Ġpol icies
, ...
Ġh our
ĠE very
Ġat mos
b as
cre ens
ĠM en
ist ing
ĠG re
S equence
Ġcon vent
Ġ\ (\
Å į
/ "
Ġor b
im its
Ġpass ing
ĠA SSERT
Ġf loor
an imation
Ġrepe ated
test ing
IT ION
Ġpl anning
over view
» ¿
Ġexpand ed
res ize
ĠD ocument
ĠR ay
NavBar Font
St ats
E mail
="../../../../../../ ../
Ġasympt otic
libr ary
ĠN on
ĠP ak
Ph ys
Ġf re
) })
is is
ĠB ow
ĠS i
Sh ort
me an
ĠS outhern
Ġsh op
Ġgeneral ized
ess ions
amaz on
Ã ¢
( @
fig ures
Ġtw ice
ĠE ND
em porary
Ġindic ated
n am
Ġdepend ent
Ġtre ated
if er
Ġan imation
ent h
" ].
Ġd ialog
Ġr ich
}$ }
ĠL ast
Ġp aid
Ġprec isely
ï »¿
ĠT aylor
N ormal
ĠSp ain
} |\
L INE
Ġbu y
ĠO k
Us ers
Ġcommon ly
se g
ater n
con sole
Ġatt ended
L en
ar ity
Ġpro min
Ġassoci ation
ob s
ur ies
Ġequ ality
HT TP
Ġinv olving
ur able
B L
column width
o ir
por ation
Ġr ac
ĠIn put
aw n
19 30
ap se
ĠSo ftware
ĠAp ple
ĠE p
qu ote
d k
Ġa ware
ĠLO G
Ġpro pose
Ġdep art
um my
on omy
ĠS pace
Ġdis abled
Ġch ampionship
; ">
atur day
\ }$,
ĠPac ific
Ġstr ugg
enn is
Re al
ex tern
Ġsc roll
a ired
l at
un ing
time out
B egin
ry ption
ĠP rem
Ġnear by
}} =
f lex
Ġpl ugin
set up
ĠR est
ob serv
Ġmag azine
196 6
Ġevalu ated
ĠL ab
A ng
Ġval ign
Ġspec ifically
ĠW ed
sp in
Ġprogram ming
Ġvoc als
ĠC ustom
Sh ape
Ġdynam ical
ĠChampionship s
Ġphot on
id ents
ĠI mm
Ġdeterm in
ĠNAV BAR
ĠComm on
Ġintegr ated
Ġprote ction
ĠM ah
Ġprov ider
ĠC art
Ġrecord ing
Ġgen us
ĠS oviet
ĠC amb
Ġcontrol led
Ġd iver
Ġad vert
ird s
^{ *
Ġcop ies
ĠB as
lo ader
M iss
pe at
Ġf ish
Ï Ħ
Ġc atalog
rypt o
ĠN ext
const ant
st ic
S ur
Ġh ol
Ġl ands
v olume
ag ers
m f
Ġ Ø
th ere
ĠM ount
ac cept
Ġpat ient
Ġpl as
Ġfr ag
ĠA P
Ġtop ological
ĠA ff
Ġread only
Ġas sembly
ched uler
Ġmix ing
Ġrelig ious
+ (
Ġcol on
gy pt
Ġis omorphism
ĠOh io
Ġemploy ed
Ġsp ot
Ġvict ory
" ],
Ġhand s
ĠPenn sylvania
EL D
ĠM ot
N amespace
Ġpro ps
ĠW ater
ĠDemocr atic
l ad
L imit
, '
ĠL ead
ap y
er ence
ĠĠĠĠĠĠĠĠĠĠĠĠĠĠĠĠ ĠĠĠĠĠĠĠĠĠĠĠĠĠĠ
ing ly
Cl oud
H P
pl er
Ġmat hemat
(" /
Ġup dates
T ags
ĠP aramet
Ġtransp arent
Ġar c
au x
Ġdef ines
plement ation
ĠF ar
Ġhypot hesis
/ .
w ater
uck y
ĠB it
d ash
Ġresid ents
M ask
DE FAULT
ar ith
( --
ph antom
Id entity
er ior
Ġqu ark
Ġspe ech
method s
Ġcar bon
St op
unn el
Ġnormal ized
Ġse at
æ ľ
ĠAN Y
Ġexpl o
ĠP M
Ġc md
ĠG reek
\% $
Ġtemper atures
F E
Ġres et
p ull
l ife
ĠAn other
EN SE
Ġd ense
ph oton
ĠF und
Ġb ill
Ġ-- -
Ġiss ued
L android
ĠOr gan
Ġsh ut
il ly
SS L
Ġinc ident
II I
Ġsub group
ino is
Ġchalleng es
ĠB attle
t c
Ġ ];
am ber
Ġmod al
F LA
Ġregister ed
j ack
Ġadv anced
. ",
ĠĠ čĊ
Ġtri ed
Ġcharacter istics
$ };
Ġac id
w arning
Ġquant ities
on to
plic ated
âĢĿ .
ilt ers
or igin
ĠFrancis co
con nected
Ġprim arily
= .
ch er
Ġexpl ore
ĠG P
ĠOption al
vart heta
ĠWilli ams
am el
spec ific
Al though
Ġfind s
ĠL ight
ĠRep resent
m ouse
pol icy
ĠP R
19 20
Ġ il
Ġ\ !
Ġaddress es
'] ['
Ġcur vature
Ġca uses
Ġrest aur
ĠC ivil
iss on
D ictionary
hav ior
& =\
d uration
us et
ĠD B
Ġf aster
%% %%
Ġ( {\
Ġcont ents
Ġbr idge
Ġd imensional
ĠM u
ĠPol icy
Ġconf idence
\ }\
Ġregion al
ĠA re
Ġes cape
ĠV an
Ġequ ipment
re act
C la
med skip
agr ang
Ġro les
Ġextrem ely
support ed
ad el
Ġnot es
Ġpre par
L ook
En umer
LO CK
Ġapproxim ate
Ġcon ference
t ensor
ĠE st
% "
Ġserv ing
Element s
abe led
Ġadminist ration
][ ]{
Ã ±
Ġexplan ation
re du
Ġfe at
Sh ould
Ġc er
Ġfig ures
Ġprofile s
Ġb uf
am ps
g rav
Ġopt s
po ch
Ġf iction
pt o
Ġoffic ers
a ud
ay a
an aly
Ġb its
are st
ĠL o
Ġlow est
ĠR h
OR TED
Ġorgan ized
ĠN et
own er
let ter
ĠGeorg ia
D on
be an
D etail
M any
Requ ired
it age
Ġhapp ens
ok ed
} ~
or ough
c ounter
Ġc ultural
ĠProv ince
Ġtest ed
Ġsche ma
b log
ĠK en
ĠW all
Ġm ill
G A
ap l
ĠS earch
og onal
Ġenvironment al
Ġiter ation
ct ic
Ġtarget s
NS String
à ¸
Ġmot or
Ġdes cent
G ER
G P
Ġcr yst
epend ence
Ġlumin osity
Ġemploy ees
t witter
requ ency
ĠJer sey
ĠCol lection
Ġb ind
ĉ ĠĠĠĠĠĠĠ
or i
w ig
burg h
ack s
F ree
Ġmor ning
ev es
Ġassum ing
' ];
Ġsepar ated
Ð° Ð½
Ġop in
Ġd ashed
Ġar my
it ter
en ess
per m
par allel
D elegate
c atch
Ġdr ama
b atch
act ivity
sub sec
ME TH
w d
r ated
ĠK ent
Ġp ixel
Ġt al
iss ue
grad le
Ġaspect s
Ġre produ
N ative
c ross
Ġh orizontal
ĠM ond
Sup pose
Ġc lock
S m
Ġm es
Ġcorre ction
ĠBrit ain
V E
Ġbro ken
En vironment
Ġstrateg ies
sp acing
s lice
ĠB oston
Ġveh icles
ä »
Ġbeli eved
Ġequival ence
Ġbenef it
ĠVal id
Ġdefinition s
ĠCar l
ĠHistor ic
el come
ĠW ild
Ġmod ify
st ro
Vert ex
Ġb rain
Ġdis p
ĠFr iday
p ag
Ġprote in
com put
G ui
Event Listener
ĠPol ice
Ġt mp
ĠC ase
cl ine
Ġw arn
run time
col l
un a
scri be
D b
Ġphot o
ĠS and
ro ute
Ġcon vers
ĠJ oe
Ġofficial s
Ġdest ination
w atch
Ġfac ilities
12 7
Q U
D ay
ic ular
on ce
t ion
Ġnav bar
ĠI slam
Ġh uge
Ġacqu ired
Ġdecre ase
ĠN ight
/ {
T F
Ġp al
ĠA ccess
ĠL uc
Ġinter mediate
Ġact ors
ĠCom put
ĠO x
Ġgravit ational
ĠF ROM
Ġth er
\!\! \!\!
S erv
Y Y
\ |\
u cl
b ec
L i
ĠSen ate
R PC
SC R
n ol
] {\
Ġli qu
ĠSci ences
D iv
Ġb inding
Ġconfig urations
opt s
g i
ress ed
Ġcapt ured
Ġnecess arily
Ġse ed
B I
Ġwe ap
con tact
ĠAs ian
ĠW in
: =\
ĠMed ical
Ġvers us
equ ations
n ic
Pro to
cre ated
^{ (\
Child ren
ul ating
Ġcrit eria
ĠO C
Ġrece iving
L ower
comp ile
Ġhe ard
c ert
script size
Ġelectron ic
hel per
con vert
ĠThe atre
ĠM id
Ġt ight
ĠQue en
Ġf ashion
b asic
Ġc ensus
Ġnew ly
comp are
mon th
re lease
ĠJew ish
ĠRe al
AN T
ict ures
ver ter
Ġw ants
Ġre ality
ĠAnd rew
y o
196 2
M ake
ĠA M
view s
L eg
ch art
Ġdemonstr ate
select or
ĠRes ponse
option al
r adio
Ġc old
Ġrequest ed
Ġcon figure
ĠC are
ab eth
Ġbeg ins
ĠH ospital
ĠM aster
Ġgener ating
Ġfluct uations
Ġs ys
F ORM
More over
Ad min
Ġ' ./
Ġeffect ively
per iod
Ġunder st
Ġs un
ĠF ire
Ġc ars
Ġqu asi
Ġ' '
Ġfl ight
Ġb oy
I gn
196 3
Ġc odes
X i
Ġg ather
SE LECT
An imation
/ _
anc ell
S creen
INT ER
METH OD
ĠK ong
M ove
Ġg ate
d ig
g ency
Ġsm art
Ġrec over
Ġrail way
Ab out
Pro gram
Ġbenef its
Ñģ ÑĤ
Ġatt end
ĠS ports
agnost ic
ĠF ederal
Ġme ant
End point
Ġconsist ing
Over view
Ġcon d
Ġe lections
Ġeigen values
MO DE
Ġoper ated
ĠSt an
S em
Ġs b
fol io
ĠB a
Ġmolec ular
ĠCons ider
ĠN E
Ġ@ "
pos ing
Ġterm in
S ave
Ġlarg ely
Ġreview s
p b
Ġsens itive
P UT
Ġim ply
^* \
N ational
get Value
Al low
ĠB al
Ġm arg
dat abase
lo pe
Ġany one
im ately
Ġreserv ed
Ġbe at
G a
Valid ation
getElement ById
g z
Ġa head
Un ited
g oto
Ġinsp ired
Ġac comp
Ġclos ely
}\ |
ii i
Ġun iversal
Ġ$\ {\
ĠS pring
Ġtyp ename
m k
ĠA z
******************************** ********************************
Ġenh ance
Ġdr ag
P Y
ge o
Ġs ell
OR Y
or row
ĠL ear
Å Ĥ
ĠOr iginal
Ġd t
object s
it ely
W rit
ov es
Ġr ig
: [
ĠF ind
Ġsk ills
F P
c n
ĠSecret ary
Ġen um
B M
pt ic
W arning
ĠCol l
Ġex cell
Ġdefe ated
agrang ian
ach uset
Ġindic ating
Nav igation
se x
achuset ts
ĠWil son
Ġintrodu ction
vis ible
f riend
d ing
re present
br and
S ql
A ST
ĠC ro
ĠGe V
ĠN a
duc ible
VAL ID
Ġcol ors
vert ical
Ġem b
w ill
(" #
ĠGu ide
cl one
Ġv on
Ġcol span
Ġat oms
ex it
kw args
ath an
b ury
7 00
Ġf ellow
Depend ency
Ġe yes
tri angle
ĠBro ad
Ġw ish
Ġper haps
c li
ĠS ol
let s
Ġcharg es
est ic
om al
ĠJ r
Ġlead ership
valid ate
= [
an alysis
B order
ic ator
is ot
Ġrepresent ative
com es
Ġc ult
Ġ_ .
Ġcomplet ion
Î ¹
Ġd irections
ĠC irc
S ort
Serial izer
Ġdet ector
Ġdevelop ing
ins on
Ġimprov ement
are a
vari able
ĠA ri
Ġsub sequently
Ġload ed
high light
Ġecon omy
fin ite
Ġc e
Ġexecut ive
Ġgu ide
= $
atter y
Ġk in
Ph one
Ġconvert ed
s ync
com b
Ġmagn et
ĠSe a
ĠF C
or iginal
ĠJ on
Ġst reet
Ġsup erv
Ġst ochastic
C r
ĠS em
is or
Ġc row
ĠD utch
Ġp sych
W ord
Care er
CH AR
Ġv en
Ġdraw n
H tml
Ġinter ior
ag a
Ġtell s
Ġlist ener
Ġal ert
R elease
Ġessential ly
Ġ Å
( -\
not ag
IO Exception
Ġs ister
ĠCon f
mer ge
log o
ĠCo ast
v ol
ĠIll inois
F N
} >
App end
Ġport ion
Ġadv ance
E st
Ġp et
Ġf resh
ĠReg ion
N amed
un te
en ance
att ers
h olds
onym ous
ing ham
im inal
ĠEn vironment
Ġ[ -
ĠG ar
Î µ
Ġjob s
in herit
Ġv anish
ĠE nergy
comple x
aps ed
Ġdisplay ed
Ġinvest ment
An other
os es
C ard
Ġs aved
æ ĸ
Ġparticip ants
Ġinterpret ation
sub mit
^* (
ç Ķ
ĠScot land
Ġt urb
R C
m essages
ul ing
Con sumer
che ster
construct or
Ġscient ific
foot notes
d ag
Ñ ĩ
Fil ms
bold math
ad ed
ap ed
ak i
te en
ri e
Ġredu ces
ĠRepublic an
Ġcorre ctions
ĠT ro
ĠAp plication
Ġmer ge
Ġp owers
se p
196 1
ĠAd v
sc ore
ĠDan iel
Ġfund ing
Ġrecogn ition
id en
Ġfe et
Ġcon clusion
Ġhel ps
Valid ator
Ġam b
mem ory
Ġin fe
atur ally
edu ce
p ur
Ġs port
ma k
im m
Input Stream
Ġt sd
Ġext ent
Ġs cores
Ġsurround ing
Ġwest ern
F ore
Oper ator
re ce
art ers
atri ate
ins ic
Ġsk y
ro vers
) ^\
Ġvac uum
ĠTh ree
H om
sc opic
ĠR a
ĠD M
E ffect
ĠâĢ ¦
ist ogram
Ġabs ence
Ġ _{\
ĠAd minist
ĠM ember
Ġnot ion
Ġfund s
our ney
ĠJ es
Ġsepar ation
Ġwav elength
AN CE
e lect
ĠH iggs
ex ec
Con nect
Ġsh ips
Ġop acity
Form s
ĠCom ple
Ġpl ants
Ġhe av
Ġpract ical
b ur
ĠJack son
P ers
! ]
f actory
Ġcirc um
anch or
ĠPro perty
Ġacadem ic
ĠF our
ass ign
ĠEd ward
Ġc ursor
Ġp itch
text color
Ġde ploy
Con tact
Ġadj acent
! "
STR ING
Ġmom ents
ĠF amily
dev elop
R T
el astic
Ġproper ly
A X
re po
ĠC apt
Ġfr ames
Ġex erc
~~~~ ~~~~
DE BUG
us p
ĠE gypt
ĠĠĠĠĠĠĠĠ ĠĠĊ
f act
ĠDes cription
at on
Ġprof essor
ĠPort ug
ord an
Ġsing les
u j
ĉ ĠĠ
Ġbreak ing
Ġdisc r
Ġcontrol s
ĠUk raine
ĠC G
s un
M IN
ĠJ eff
al ert
Î ½
ĠL ittle
ur ance
tikz picture
urs day
Ġph ases
Ġca ref
ou red
Ġpolar ization
13 0
Dr iver
Ġorient ation
. \\
F ocus
j et
A E
us hed
Ġsex ual
de ep
Ä į
0000 00
=\ "
is set
Ġcouple d
Ġdemonstr ated
Ġb ass
footnotes ize
ĠB et
Ġap pre
Ġm ount
ĠOff icial
RE G
Ġrestrict ed
ĠL atin
Ġassert That
ĠAp ache
typ ename
ig ate
ĠEast ern
ele m
ĠA rea
d irection
ov ing
Ġaud ience
Ġfe e
ĠJust ice
Ġel li
p ot
Ġear th
ĠAb out
Po jo
Ġex cess
back slash
ĠF ollowing
includ ing
clud es
Ġengine ering
gener ate
C ur
Ġc ub
Ġim plicit
ear s
Ġbas eline
Ġsec ure
Ġentire ly
Ġ' \
ph ia
nav igation
inst ein
Ġ" ";
L ight
ĠW ho
{ "
ĠCh ris
Ġconcent ration
l oss
Ġfor t
Ġte le
pl ain
Ġtrans actions
erv ed
ire ment
V olume
Ġe ye
@ {
C LASS
s heet
Ġscen arios
Ġwas n
Ġis ot
stand ard
con duct
? âĢĿ
Ð¾Ð ²
ĠPol and
ipp ing
En v
Ġle s
the less
Ġcomm ands
Ġin vari
Ġdeg ener
Ġsup ers
trans action
Ed ge
Ġyou th
Ġp ixels
ĠV ari
s pe
ĠL ive
$- $
ĠB ad
ĠOb serv
pro gram
alle st
B asic
ĠS aturday
ĠT w
Pl atform
d ynamic
ject ure
un ately
Ġ\ "
Ġcheck ed
dr iver
er os
ĠB and
Ġre striction
Ġbusiness es
oc cer
Ġcol our
Ġin struction
Ġsett lement
19 44
ĠIn ternet
if ndef
ĠPr ince
re pository
J oin
& &\
Ġanim als
Ġacc ident
M AP
Ġsens itivity
cor ollary
c u
Ġcomple ment
% .
Fl ag
Ġc art
ĠSt ation
Execut ion
g ov
ĠB ell
Ġcli ents
is a
is Empty
In sert
ORD ER
Ġthan ks
'] );
reate st
$. }
Ġ ri
in os
ĠL java
Ġcon n
~ (\
Ġsup pose
Am ount
D ATA
Argument Exception
ĠSt atus
Ġsupport ing
Ġel if
Ġrun time
Ġe lev
Ġm al
Ġperiod ic
Ġsk ip
Ġcred it
B rit
ĠM ike
() ),
ĠMin istry
dest roy
ta ke
Ġcom edy
ĠC lient
ĠA li
grad ient
im ated
enc ing
Ġfail s
ĠKore a
Ø ±
Ġcons ult
Ġad min
ym er
å ®
comm ons
; |
Ġwin ner
Ġ\ ,\
ĠN Y
ĠMass achusetts
ĠW alk
pos ure
Ġc ert
Ġrough ly
h ab
Ġg lass
Ñ ĸ
N ET
ĠM ulti
i ations
Ġtop ology
Ġvari ations
av ailable
Ġt ags
ĠW IT
ul us
Ġpers pective
B inary
ĠSup pose
Un known
ĠPhil ipp
Object s
Ġlink ed
ĠCo q
Ġt a
ant ly
Pr ivate
ĠC ur
Ġs quad
Ġopport unities
ra pped
Ġl ists
v ect
b undle
Ġmov es
Ġpi eces
Ġp m
Ġm useum
Ġcho ices
Ġpl anned
os ed
ĠW is
Ġcover ing
Ġ era
Ġrg ba
z ip
? ?
ĠD O
Ġlimit ations
in variant
ic ode
cal endar
Ġb log
ĠH arr
W ait
ĠD ar
ĠB ang
ĠD ub
ĠP en
ĠW rite
Ġge ometric
ĠProf essor
| $
Ġm iles
> )
ĠL im
Ġperturb ation
t re
Ġlog ic
Ġc overs
Ġattempt s
ĠI V
Ġcont ribute
ĠG overnor
å Ĳ
An notation
bo ost
Ġw ire
for Each
Ġcustom er
ĠC ore
C a
olt ip
m ms
Ġstat ements
Ġ' ';
ext ra
Ġw arm
Ġfrequ encies
Ġcon version
ĠA T
Ġun iverse
in er
example s
Ġ ×
h fill
um ps
th rift
lic ense
Ġdev iation
195 9
Ġref ers
Ġreturn ing
s ocket
Ġst ats
Ġcitiz ens
view port
Set ting
Ġcirc uit
Ġth in
ĠC reek
ĠA D
Ġflow s
Ġuncertaint ies
F older
Ġfif th
m obile
f b
Ġsat ell
Ġdecl ared
= &
Con structor
ir ation
ist ant
des ign
Ġconc ert
we ak
not ations
ext end
Ġl ab
Ġs ending
ĠStud ies
19 48
p in
Ġ ">
ĠM ic
) }.
ĠColumb ia
ĠH as
C AL
down arrow
lip se
Enc oded
B Y
are t
bu ilt
Ġdo or
ic ing
R aw
Ġw arning
Ġfac ility
l u
sub ject
d ensity
P od
oun tains
ĠS af
Ġt er
she ll
m ag
Ġwe ather
Ġh or
ĠS ets
ĠC urrent
ĠAlex ander
Ġphot ograph
ab c
Ġfil led
Ġprodu ces
| ^{
ic er
Ġbelong s
w as
Ġin clusion
Ġepis odes
Ġserv es
IN S
ĠB C
195 8
scal a
Ġdec ades
Ġre pository
w ing
Ġb urn
ĠOn ce
M F
à ¥
Pre vious
it ical
Ġaccount s
" /
face book
F inal
Ġat omic
b ell
/ ">
st ud
Ġexecut ed
ĠH ong
Ġload ing
i y
T ile
ĠT erm
Ġprec ise
Ġuniform ly
Ġclos er
viron ments
ĠL ore
195 7
ï¼ Į
Ġstrict ly
Ġan cient
195 6
fe ed
Ġp ipeline
W est
A nt
\! \
S a
Ġmar riage
H L
Ġal ter
form ed
nt ario
b us
ĠG ra
dist ance
w ave
Ġhapp ened
in ction
) (\
Pre v
sc ss
Ġalong side
AR N
Ð ¿
k top
N ov
on ia
ĠF ourier
Ġdef ense
ĠSt andard
nes ota
Ġv ideos
Ġteach er
V D
^ ^
Ġsymbol s
Ġd ream
Ġent ang
iz abeth
Ġb att
A li
Ġ" ",
Ġqu eries
ĠC am
Ġtransfer red
Ġclin ical
o es
Ġperson nel
p n
Ġs pring
ĠO N
Col l
j d
Ġacc ret
Ġarr ived
Ġelect rons
Ġeas ier
ĠF OR
P D
ĠW IDTH
ĠBro ok
const raint
ynam ics
part s
Ġread s
Const ant
ĠH ard
an th
ĠC SS
Ġpriv acy
ĠCE O
ĠChrist mas
Ġ< -
Ġselect or
Ġp erman
Ġhous ing
ip art
OP T
s r
arg uments
In formation
M icrosoft
ail ability
ĠG R
dep recated
ĠD om
ĠN C
um a
RE D
Ġtransition s
ĠG ro
Ġhous es
Ġearn ed
ordin ate
ap h
Ġconcern s
Map per
ĠC at
ĠCon serv
Ġconflic t
E val
at ibility
link ed
Ġ ing
ĠIn vest
J an
Ġsur faces
11 1
On ce
Ġf itting
Ġident ifier
ĠS N
ĠStr uct
tain ing
int eger
Ġun able
In ternational
ĠE V
Ġconj ug
C enter
Ġind ustrial
c od
# {
Ġid x
ĠL ike
Ġm ouse
rop ol
Ġperm ission
Ġcorrect ly
Ġp apers
ps on
Us age
. $$
Ġd anger
ĠC as
ĠL ook
up arrow
ĠC ond
ĠPr ime
at ivity
comm it
ain s
ĠCh annel
st rip
ĠCl oud
Ġform ulation
eg o
Ġmodel ing
Ġprom ise
ĠS H
ĠP ers
element s
Ġstraight forward
em an
Ġvari ant
Ġdr ink
Ĥ ¬
fr ag
Ġres idual
sh al
ues day
Ġpolit icians
l m
ĠInst ead
u ency
lear ning
st age
Ġinit i
External Task
Ġj s
nes day
ĠP lease
Un iversity
: @"
om atic
rom agnetic
Ġdiff usion
A udio
ĠCor poration
el ly
å ħ
Ġatt ached
Ġembedd ed
Not Found
Ġben chmark
read er
Ġa wards
Ġf ra
Comp iler
ent ed
ĠK im
R ate
Ġt ang
Ġm ach
Ġprov ince
Ġvary ing
us r
Ġperm issions
&= &\
Ġrespect ive
load ing
Ġinj ury
Ġm it
Ġcr ucial
Ġ_ ,
out heast
P ack
Ġfeat uring
Ġend point
Ġg ra
ExternalTask Pojo
Ġquadr atic
rypt ed
Ġret ired
Ġinstitut ions
U ST
] +
Ġk ill
Ġenc ounter
ĠDef inition
AN G
Log in
ab et
bo se
ce il
li bs
ĠĠĠĠĠĠĠĠĠĠĠĠĠĠĠĠĠĠĠĠĠĠĠĠĠĠĠĠĠĠĠĠ Ġ
DO M
Ġb ug
g re
t p
Ġpotential ly
) >
Th row
Ġext ensive
dis able
ĠT E
Ġfrequ ently
Ġanal ys
19 39
;| &
DE F
Ġem pir
s pl
Ġdomin ant
ig a
Ġcoll ision
_ );
Ġs and
Ġs leep
ost er
ĠS C
ĠJ ean
Wh ere
Ġd elta
ĠR en
Ġf uel
The me
ong o
ĠR om
Ġsche dule
Ġs olving
LE D
Ġhom ogeneous
ixt ures
We ight
rupt ed
Ġabsor ption
' _{
Ġinvestig ated
Ġ' .
ĠL ater
Ġb oot
an ches
ĠMus lim
ĠF air
eder ation
{ (\
as m
f etch
j Query
or al
j b
ĠR ights
Ġ rom
Ġre verse
m iddle
Ġf ib
}^{ +
Ġreason able
" },
Ġp ref
Ġsystem atic
Comple te
Ġstandard s
ph rase
ĠR oute
Ġproport ional
Ġm m
Ġd ensities
urre nce
Ġclub s
direct ory
h d
Err ors
ĠĠĠĠĠĠĠĠĠĠĠĠĠĠĠĠĠĠĠĠĠĠĠĠĠĠĠĠĠĠĠĠ ĠĠĠĠĠĠĠĠĠĠĠĠĠĠĠ
refer red
Ġ" .
M usic
âĢĿ ,
' =>
and o
z o
Ġinv olves
Ġpay load
Ġcr ime
Ġdecre ases
int ro
und ers
ĠUn it
19 42
ag en
secut ive
Ġcharacter ized
ĠAb stract
B atch
F n
Ġrequire ment
le ton
O wn
writ ten
< <
Ġtem poral
m apping
ĠGu ard
agnost ics
P red
Ġhon or
r ink
ĠCh ange
ĠSh ort
Ġh ook
Ġexpect ation
Ġhe ar
olog ist
Ġs phere
Ġalgebra ic
19 55
Ġpolit ics
Ġc lip
Ġrec urs
Ġperm ut
Ã º
Ġs an
a is
pr iv
Ġdestroy ed
ĠD C
id al
P resent
M s
ĠAg ain
Ġrelationship s
ĠS pe
Ġlett ers
Ġpack et
S ports
H D
) *
valid ation
tr l
ĠOx ford
ĠS che
C ursor
Ġstand s
Draw ing
ul ner
AT CH
ativ istic
ĠL ay
$ ^{
Ġrecogn ized
N UM
ĠR od
co ok
HER E
ĠT ag
Fr ames
Ġgrant ed
ĠMond ay
om er
Rem ote
ĠK enn
Ġpay ment
ĠP erson
c assandra
A I
Ġn a
Ġprom pt
Ġpromin ent
M ost
Ġs ql
)} (\
Style ID
Ġcoun cil
Ġanaly ze
Do ctrine
om ics
bin om
Ġv ision
ĠV irtual
Ġrec ip
ce st
Ġdom inated
ĠWAR RAN
th ur
ĠIl legal
alt Color
or ney
V ec
ap ore
k h
Ġprep ared
ĠL oad
Ġoutput s
ON G
Ġst ages
M essages
ĠW rit
NO DE
ĠB on
ĠEngine ering
] ))
Ġk new
f mt
B ottom
og y
B lack
Ġprior ity
ĠL ev
Ġe poch
pro pto
th rough
Ġpan els
ER S
Ġsc r
Seg ment
Dep th
Ġanaly tic
Ġsimilar ly
Ġconv olution
> "
Ġfa ith
d ark
ĠAt l
ĠX ML
Ġbrief ly
ĉĉ ĠĠĠ
ĠL ew
ane ous
PH P
St ar
ĠC lear
ĠPro t
cont ents
{ |
t ouch
ĠP ay
}) ^{
Ġpres ents
ul s
Ġmet all
un es
Ġsomew hat
AT ED
ĠR og
Ġg lob
n ight
Process or
Ġport rait
Ġextract ed
Ġ ĉ
ĠB BC
Con sole
h ot
Render er
com pute
$ '
Test Case
Ġf mt
Ġm ist
Ġdr am
part icle
*} [
SCR IPT
B inding
f actor
m ay
Compar ison
se lection
force ment
ra q
ĠL abor
i Ã³n
ĠK r
D rop
Ġ> >>
IN ST
ĠH ung
B al
Ġb ra
Q ual
C ONT
rel ative
Ġst ead
ĠP ut
ĠÐ ²
Ġelect ro
Ġpl ate
Ġm o
W ORD
Ġan chor
w arn
Ġdro pped
Ġkeep ing
Ġimmedi ate
FI ELD
Ġf ake
Ġwait ing
Ġneutr ino
l ab
\| _
ĠAl gorithm
Line ar
pl oad
)-- (
w i
es ides
Str ategy
Ġl ift
Ġfil ters
Ge V
glyph icon
Ġderiv atives
Ġpol l
Ġident ification
ĠA sh
n ob
Ġcoll apse
ĠCon nect
riter ia
Ġpolynomial s
195 2
19 41
ĠO S
Ġm and
Ġcan cell
n c
M aterial
sh op
Ġap plies
Ġpre ced
F amily
Ġplas ma
mer ce
Ġdomain s
Ġar ms
Û Į
F ollowing
Ġe le
Ġsh aring
$ }}
Ġequ als
Ã© e
str ings
Ġcre w
T ok
Ù Ħ
Ġhold ing
Ġw itness
Copy right
ĠBer lin
ĠDE FAULT
Ġillustr ated
u on
Ġcre ates
$ ^
ĠN ever
19 46
head ing
del ay
Ġst yles
Ġunderst ood
Ã ¸
Ġ ray
Ġ ig
ĠPro p
And roid
ĠJac ob
Ġsent ence
load ed
D av
he t
uff ers
Ġs ensor
Ġplatform s
âĢ ĺ
Ġext reme
link s
M aster
an z
Ġent ertain
Ġgu ard
Ġorth ogonal
rop ical
um ption
ĠAmeric ans
Ġg ene
Ġneut ral
19 43
I AL
Ġ$ _
assert True
St ud
ann a
Point s
Name Link
Â °
=\ {
ĠScott ish
Ġrecon struction
BP ACK
Ġen umer
1 15
Ġacc um
_{ +
n m
Ġsimultane ously
ĠTr ust
Ġbeaut iful
ex pression
Ġqu ot
Ġperform ances
ĠSer ver
sh arp
ĠDes pite
ĠĠĠĠ ĠĊ
ĠV ill
}. }
vert ex
Ġbig gest
Ġim g
Ġlook ed
h alf
et ies
Ġin vent
ĠSup reme
ation Token
ĠE U
." ""
Ã¡ n
Ġreg ression
th ick
19 47
Ġ$ ^{
14 0
go od
Ġp ot
Ġinter pol
tain ment
Ch ain
Ġ' %
yd ney
ĠStep hen
Ġin n
Ġro ots
ĠBe ach
u z
ow ski
ĠM L
Ġdist ances
ĠF il
ĠV iet
HO ME
Ġsim ulated
el le
Ġg rew
Ġh orizon
Ġemph as
he im
F act
Sp an
h ang
Ġend ing
por ate
s is
l int
ĠD er
ĠPub lished
Ġdescri bing
Ġfind ings
Ġc av
Ġ\ [
ĠSim ilarly
Ġman ip
EN V
Ġlog ging
cknowled g
ĠRem ove
ĠR ight
ver b
ĠQu ery
Row s
Ġdec or
Ġmay be
Ġbound aries
Ġd ance
1 12
Ġdr iven
Ġ{ %
Ġresult ed
enn es
d m
UN D
ĠCor ps
Ġm igr
Ġinitial ize
b lob
Ex port
adel phia
st e
per ature
3 60
Ġr anges
ant i
U C
ĠF inal
mut able
Com put
jack son
ether lands
Ġirre ducible
Perm ission
Ġap art
Ġign ored
ĠConfig uration
St atic
A UT
Ġa thlet
Ġsche mes
Ã© s
bound s
ĠRec ord
Group s
Ġhard ware
Ġp ion
Ġsche duled
enc ode
Ġconserv ation
Ġs ud
ĠT urn
i Äĩ
Ġsub space
Ġn aturally
195 4
C oin
ĠP C
me asure
ĠT ok
Ġext ensions
TR Y
Ġed it
ĠO s
19 49
Ġrecomm ended
St andard
ru les
can vas
Ġb ed
á »
Ġ urban
Ġcontinu um
script scriptstyle
out s
Ass ociation
Ġre ward
ĠSim ple
Ġm ys
Ġsubject s
C apt
Ġh ockey
}$ \
Ġout come
ĠAl b
Ġorb ital
} /\
Ġb ow
] =
el ian
$\ \
iv ari
Ġun iqu
over ning
Ġt ables
Ġp atch
pre vious
Ġag ric
ok es
Ġh op
Ġpartners hip
ĠIs lands
ind s
) &
ibr aries
Ġinteg ers
Ġt ick
Ġv ent
Add r
B ased
Ġrece iver
bind ing
Ġat om
form ing
Ġpublic ation
Ġcomm ittee
Ġs in
ĠB an
Ġrandom ly
p ages
Ġf its
it led
195 3
Ġbase ball
in cre
ĠMark et
Ġdef ining
Ġrespons es
ĠR ow
fore ach
ĠVictor ia
rem ote
Ġliqu id
M o
Ï ĥ
cept or
F uture
t ip
ag ma
Ġc as
ab ric
qu es
Ġstrong er
Ġf iber
R andom
Ġadv ers
ĠIn f
F UN
MM ARY
Ġtit les
u y
ĠT am
ĠH un
W atch
ĠL ic
\ }_{
Ġa ug
n ative
Ġviol ence
Ġli ber
ĠPy thon
cri bed
Ġauthor ity
ff f
Ġsee k
B en
B ounds
d on
Ġexperi ences
p kg
P G
ib ilities
Ġdec isions
ĠV ideo
Ġcont rovers
Ġ" %
Ġweight ed
Ġn arr
c ue
Ġassign ment
ĠPol ish
reg on
Ġk ick
up per
b inary
Ġfootball er
Ġst ores
Ġpercent age
Ġf ell
ĠS at
osoph y
Ġtri p
ĠL ow
h al
Ġdisp ersion
li ance
Ġun ivers
Al so
ĠA venue
Ġconsum er
Ġtro ops
ĠP A
Ġrec overy
ĠAn th
ĠMin nesota
an try
i pher
Ġexc ited
Dep recated
Ġres olved
erm i
ĠTh ursday
ĠD ue
ĠCon vert
ĠTh rough
ch ant
.* ;
ac on
j ax
sw ing
Ġexcell ent
Ġm acro
Ġbeli ef
IC ATION
Ġim plied
Ġpro to
Ġadv oc
AC H
Ġsch olar
Ax is
al ias
ens itive
Ġsil ver
Con vert
Brit ish
Ġdel ivery
ĠB efore
Ġcollabor ation
D IS
aint enance
Ġperiod s
Dr ag
Ġeast ern
ĠU V
Ġresearch ers
A SSERT
P lease
Ġmechan isms
con sin
Ġ ----------------------------------------------------------------
ĠAir port
Ġtrans verse
Res olver
As set
> ()
Ġhand ling
Ġpe er
v endor
Ġcomp re
ĠRail way
pt ure
Null able
Ġsold iers
ĠGr ant
66 66
J ust
met ic
V AR
com par
Ġpart ially
HE AD
nol imits
gener ator
b ug
ze ch
u uid
ĠF ox
form er
Ġman age
cf g
ĠL agrangian
Ġtransform ations
oci ated
Tim er
am ond
Ġmin ute
ĠV en
Ġclos ure
Ġappro ved
hed ral
Ġ\ {\
Ġcor relations
Ġres istance
phys ical
fl uid
char acter
, .
10 2
ĠPak istan
sh a
t b
\ },
ĠS om
W I
Ġcon secutive
new s
Ġ{ },
ĠN ative
Ġsur g
ke ep
ĠC ub
âĢ ¢
el ines
ĠB oy
S ources
Array List
re p
az y
Ġinfra structure
Part y
ly wood
sur face
get Id
ĠT y
periment al
Ġ' ',
ĉ ĠĠĠĠ
Ġconvent ional
er red
to Be
w orth
Ġs ync
math it
Ġpr ices
m ad
ĠF ull
Ġw onder
Enc oding
ucl ide
P res
ä º
.... ....
iz ers
column s
Ġb odies
Ġdisc over
mid rule
( ()
Ù Ĩ
Ġdiagram s
Ġcould n
ĉĉĉĉ ĉĉĉĉĉĉ
Ġlik elihood
Ġen semble
Ġm yst
Ġb low
ir th
f older
Ġ\ |\
ĠM ock
ens ing
Ġe ase
ĠH o
ä ½
Ġcompl iance
ĠTor onto
Ġal pha
ĠPl aces
Ġpop ulations
10 5
Ġg ender
Ġenc oded
D Y
195 1
Ï ģ
al ink
CON FIG
ĠB E
Ġrat ios
Ġh ers
stack rel
] ^
Ġs ale
A bs
Ġc ab
ĠCont ent
Ġassist ant
Ġnewsp aper
Ġs pons
F ix
ĠL anguage
ĠCor ollary
ĠEl izabeth
Ġent r
ĠP romise
ĠR os
D iff
ĠAut o
Ġa ux
ĠOut put
R ot
zon a
DE X
H older
}^ +
Ġp ed
Ġto kens
? "
ou ri
es is
iem ann
R UN
p ad
M ac
Ġest ate
l r
Ġco al
ind ependent
Ġdep os
mult line
ĠVAL IGN
S epar
Ġrob ot
Part icip
> %
n os
( ['
N V
ĠBel g
Ġmod er
Ġcertain ly
T ube
ĠKore an
Ġauthor ities
ĠL at
Ġh abit
Ġd oll
s peed
Ġpass es
Ġpurch ase
ss l
Ġex ports
ĠP a
Ġne ither
Run ner
Ġst uff
ĠArg ent
F M
text up
f all
ĠST ART
Ġcosm ological
pl ings
ĠM C
Ġhy brid
int on
B bb
Ġtr unc
Sh ared
ĠBook s
Ġcompar able
Ġaccret ion
Ġcl im
Comp at
em it
a udio
Ġmin ister
dist ribution
L oop
Ġy ellow
g ray
Ġte aching
leq slant
ow a
ul o
Ġwhen ever
ĠSt ream
ct ree
Ġt d
Ġneut ron
od o
ship s
ĠO ntario
mit ter
T ouch
R a
ĠF ix
b etween
ĠN ick
left arrow
w ik
Ġtraject ory
f p
uclide an
Ġs lope
Ġhistor ic
Ġcr isis
Ġ ~\
Ġrepl acing
Ġpract ices
{ .
Ġm ountain
text normal
Ġphot os
Ġthous ands
M c
is o
Ġthink ing
C md
Ġan imal
Ġfun ctor
Ġso le
2 13
WE BPACK
bour ne
un lock
V ICE
ir k
Ġclass Name
j k
cal cul
Ġreson ance
Ġas sets
Ġform ul
ev in
enn a
pro blem
Ġcap able
A ustral
ĠF uture
ĠSt eve
Ġb old
A SE
Cont ents
BU IL
H is
Ġclass ic
Ġmunicip ality
arch ive
ĠF ish
Ġdisc overy
Ġindu ction
ĠS ong
B el
Ġl y
An alysis
part y
ĠClass es
Ġfac ilit
ĠS on
ĠSan ta
Ġh air
ĠC hen
est ab
top ic
S elf
ĠSU MMARY
ĠTr ansport
R ob
55 5
Ġs ocket
Ġcom plicated
Ġcompar ing
Ġhost ed
ĠD ouble
sequ ences
ĠB ol
Ġprodu cing
is en
ĠTh read
ĠJ son
Ġsk in
h ire
g if
Ġg one
L Y
ĠCoun try
**** **
ĠPub lish
Ġs olved
ĠF ood
ap ple
S plit
ort ion
S outh
ĠP os
Ġspect ro
Ġconven ient
Ext ensions
L ibrary
ĠRes ults
ĠF ac
Ġisol ated
Pro f
ĠC ost
o i
ate ver
ĠG er
ail s
lin ux
Ġcomp iler
Ġinf lation
Ġb ond
Ġrapid ly
Ġv ice
Ġdiscuss ions
Ġle af
ik a
c raft
"> (
Ġ-- ></
Ġsee ing
T y
rem arks
Ġdef ect
ĠSt adium
ĠR ome
b ors
p rom
o or
Ġprom oted
ĠRes ult
å ¤
ĠAnt on
res pect
Ġseg ments
ĠM arg
Ġr ural
IMP ORTED
Ð ·
Al loc
ĠN ations
Ġm el
String Builder
ĠD igital
Ġcomm itted
Ġdi agn
Ġvis ited
ĠSt ock
m ix
" |
ĠR aj
Ġpro posal
ak ed
Ġchalleng ing
ut enant
Ġg irls
Ġv ess
ĠReg iment
ac er
ĠA k
ĠMed icine
ĠCon text
W IN
> ;
li x
pol y
Met rics
lic enses
ort heast
Ġd ip
Ġag ency
ask a
Us es
Ġprogram me
ĠE th
ad v
Ġnot able
Ġcamp us
Ġoffer ing
}[ !
yd ro
Ġ à¤
ne ut
Ġsim plicity
cor respond
t m
Ġc yl
Ġf old
Ġappear ances
Ġpro ton
Ġgu ess
Ġult imately
Ġa w
ud i
æ ķ
Ġst rip
ĠH ilbert
Z one
off s
ĠOlymp ic
5 12
R S
T Y
ili ary
var rho
Ġcondition al
T ax
ĠMc C
Table Row
y ard
ag g
ĠM S
e ast
FF ER
m ac
Ġcount s
E P
ĠÂ ©
[ ]{
C V
Ġex posure
Ġopin ion
B T
ĠS ydney
Ġsign s
AT TR
small skip
ĠA I
Ġpack ages
ĠSta ff
op am
Ġpro position
i ors
Ġst orm
r pc
Ġin ference
Ġadministr ative
hen sive
Ġm ent
s z
Sign ature
Ġst abil
10 24
r ame
ĠS us
sp aces
ub b
ĠPri ze
opt im
ru ption
Ġpe ace
P romise
it udes
itor ies
Ġsol o
it i
C ent
W in
ĠOC aml
ĠT ree
process ing
p d
f av
Ġrepl acement
Ġhapp y
Ġloss es
stats models
Ġut ility
th ree
ook ie
Ac cept
Ġk ids
Tim estamp
M ult
Ġprom ote
\ }.
ĠE P
itect ure
Ġv otes
f ake
ĠN AS
ili ar
pro c
Ġ Ñģ
_{ -\
Ð° ÑĤ
19 36
Ġch apter
B ool
N a
è ¯
T ele
ĠAd am
ĠRef erence
> '
Ġch unk
Ġplace holder
Ġen vironments
ĠL td
Ġad vent
er al
aw esome
Ġgain ed
sh are
Ġdef end
Ġkin etic
) _{\
P ower
ad oc
Ġprof ession
Pl ot
Ġcirc ular
cer ning
Ġl osing
}} ,\
Ġhum ans
Ġal ias
Ġsh ares
Ġtrack ing
Ġrot ate
o pher
Ġaff ili
Column s
s yn
in ite
Ġg overning
! (
ĠAdd itionally
fort unately
ĠT uesday
Ġm ental
Ġv ot
ĠN etherlands
AS K
ĠD elete
per ial
Ġoffic ially
log ging
ĠWed nesday
ĠPr int
STAT US
Ġsur ve
ĠD oug
ĠSe ver
ut s
ĠB all
Ob serv
Ġw alls
Ġoper ate
roll ers
Ġarr ang
ach er
ord on
ĠH ou
}{*}{ $
Ġinter vals
t l
ĠB ru
S ame
ic ious
ile vel
Pro position
: '
ak h
ound ed
Ġstruct ural
Ġc od
LI ST
inter val
Ġr aces
au i
LE TE
Ġyoung er
u ent
b one
ĠI raq
Ġw inter
Model s
Ã ¥
Ġdis order
ĠB ox
ĠD a
Ġstop ped
Ġre vers
is ition
ĠFore st
oun ce
patch er
Ġfav our
,... ,
Ġa id
ot ional
Expect ed
c v
K it
c ov
ĠD or
at ched
1 16
w allet
ĠH or
ĠR O
Be en
te am
cc c
Ġpre pare
ĠS P
= %
sub equations
Ġstation ary
def n
ĠK al
Ġcross ing
Ġh al
qu arters
Ġdis ap
l arg
Ġd s
Ġn ice
Ġaccess ible
se ason
ĠL es
Ġf older
ant e
An aly
ĠT ai
N P
Ġcont emporary
Ġmark ets
ĠS ab
C ancel
Ġw ins
am ount
ĠP DF
Ġneigh bour
ĠAn alysis
create Element
ĠSing apore
Ġwor st
u able
ac o
ro g
ĠT oday
Ġcont est
y ou
ĠW ars
B D
(' <
Ġocc asion
Miss ing
p id
Ġexhib it
Ġposs ess
ĠSt ory
ĠC y
Ġint ent
Ġf etch
Ġdis able
eng ers
Ġ uri
ĠA C
map s
AR D
re peat
Ġa ria
elli j
rt l
ific ial
ĠChild ren
Ġreject ed
Ġtechn ologies
) ",
ĠH om
}) =\
Ġ\ }
tr ansport
ĠDav is
ĠOper ation
Ġc b
V irtual
ain ed
Ġprefer red
Ġsm allest
ĠO regon
od ge
ãĢ Ĥ
oc om
Person al
ĠT ool
19 38
Ġrec ru
Ġgener ators
ch arge
Ðµ ÑĢ
ĠWis consin
Ġferm ion
ĠL em
Ġv irt
ĠSur vey
R out
amazon aws
Ġsever e
ĠPar se
ub le
Ġfight ing
Ġir on
Ġsp arse
Ġg ar
D ATE
Ġannoun ce
met ric
b est
ĠK now
fl ux
D id
ĠH ay
Ġsimilar ity
C ounter
b oth
Ġactiv ation
Ġhers elf
Ġh oles
Ġexperi enced
B IT
Ġm ail
ĠG reg
S witch
Wh y
Ġindependent ly
tim estamp
Ġsup posed
col lect
G M
d jango
Ġover flow
int ellij
ĠH al
Ġview ed
Qu ant
G T
Ġwin ners
Con verter
google apis
UB LIC
Ġar ts
Ġgu est
Ob server
Ġin herit
ho le
ĠS to
c ow
ĠD ark
ĠM O
( .
as p
ĠL ady
Ġf aces
big cup
d ays
Ġliter al
Ġwork er
ĠSk y
Ġredu cing
Ã ł
) }$.
Id x
Ġestim ator
Ġc le
ĠT er
RA Y
ĠB ra
/* !
U V
F OR
Ġf s
Ġc s
H er
ĠE lect
Ġpresent ation
ops is
ir ms
per or
Ġhe ter
Ġpoint ed
c ost
Ġm ort
Ġop posed
Ġeigen value
Ġin vert
ĠEq s
C ref
Ġsc oring
ĠWh y
an ia
B ridge
ro b
Ġadapt ed
$\ ,
un iform
Arg uments
ĠMon te
u its
Ġadd s
Ġdeliver ed
Ġh ide
Det ector
_{ [
Ġpurch ased
v ia
ĠRev olution
c overy
19 18
Ġalign ment
Ġconcern ed
Ġal gebras
Ġd ates
Ġfile d
Or gan
bel ow
Ġre construct
S ite
ox y
B ad
D irection
st ances
19 37
d n
Ġphot ons
a us
ĠâĢ ¢
Ġfavor ite
ĠMe an
Fail ure
Ġang les
Ġneg ot
ĠPhil adelphia
Ġj ourney
ĠCamb ridge
M r
Ġs we
ĠMethod s
l ot
ang a
Ġclass ified
Ġfe as
Ġiter ations
Ġis omorphic
Ġw ing
E very
Ġmorph ism
Ġtim estamp
ĠColor ado
c ou
Ġs i
clud ing
Ġsup plied
ast y
ĠAdd ress
T AG
Res et
igh th
Ġtop ics
Ġleg end
ĠJ ordan
do or
Ġmarket ing
im p
g iven
ĠC orn
K S
run ner
L iteral
ĠAnd erson
ast ers
amb ig
p ref
cy cle
ĠD NA
ĠPro duct
get s
TI ES
Ġsus pect
fr agment
val ued
ĠI ter
med ium
Option al
Aut hentication
ĠGold en
c ancel
ile y
Ġfac ulty
tr ight
Ġmat ched
Ġsc ul
O ld
Ġy ards
Ġn an
ant asy
C amera
Ġrank ed
Ġappear ing
D ynamic
nt il
C ALL
Ġfound er
Ġne ur
Ġstudy ing
G reen
Ġle ct
Ġdistingu ish
Ġb ars
uplic ate
Ġhot el
Loc ale
em et
ĉĉĉĉ Ċ
G EN
we ek
ribut ions
Ġab andon
W H
Ġpseud o
================================ ================================
por ter
Ext ra
omorph isms
Ġd ry
ĠD am
Ġc ro
Ġamount s
ĠSt ore
Ġpropag ation
Ġwindow s
Ġpro be
L icense
ĠT al
################ ################
ĠS end
(" %
I Z
Ġ( %
d am
ĠE ll
Ġt ack
ph ony
LE MENT
Ġf ear
p ic
ud a
P at
osp it
il ine
____ ____
ĠCre ates
Ġpost ed
Ġw a
Ġd iverse
l ined
k k
ĠW inter
Ver ify
Ġqu as
Int eg
Ġscen es
vel ope
get Instance
ĠEqu ation
ĠF ord
ĠĠĠĠĠĠĠĠĠĠĠĠĠĠĠĠĠĠĠĠĠĠĠĠĠĠĠĠĠĠĠĠ ĠĠ
Ġwe alth
ĠEd itor
D TD
O ct
w br
ott en
at en
class Name
10 4
Ġhouse holds
res olution
\ [\
Y our
AT OR
Ġsum m
Ch rist
ly n
ĠO pt
enc oding
ss ue
Ser ies
ĠC S
fl ush
Ġcy cles
br ane
Ġsubstant ial
Ġm esh
pher ic
Ġro utes
ĠC ov
ĠV i
Ġel imin
w eg
Ġturb ul
Ġv ulner
Con tains
}) )
Ġch ampion
Ġs lice
ang les
UE ST
to ctree
Ġim possible
Ġk id
Ġprob abilities
Ġsit uations
in ch
he ets
ĠPrem ier
Ġcom fort
ĠR ad
ĠCol umn
get String
Ġent ities
Ġdr ivers
Ġst one
F ixed
comp act
Ġdiam eter
ident ity
ĠInd ones
Ġg reatest
ĠQue ens
Ġ& #
Ġdec ade
ct ors
Ġappre ci
PRO C
In f
Ġorder ing
Ġig et
T ex
po inter
^+ $
Ġw x
Ġguarant ee
En able
Ġmusic ians
Ġspher ical
Ġre new
ri ent
Ġpost erior
dec ode
Ġunit ary
Ġterr itory
St ub
Ġl abeled
ĠĠĠĠĠĠĠĠĠĠĠĠĠĠĠĠĠĠĠĠĠĠĠĠĠĠĠĠĠĠĠĠ ĠĠĠĠĠ
Ge ometry
us cript
Ġt uple
ĠH art
Ġdo ctor
f ac
ĠK E
Ġcomp ens
Ġconnect ing
Ġconver ges
Ġtem ple
c ursor
ĠDu ke
LIC ENSE
ist a
k ern
or er
ĠWARRAN TIES
B ro
and y
N umer
S an
Ġb an
UN T
W ill
Ex ists
g ems
è ¿
> [
ign er
od a
CO MM
an im
AR G
Ġh its
t v
ĠE ric
ĠW el
Ġyour self
Ġen ables
r ig
B H
Ġsp end
H ar
Rec all
LA Y
Ġjud ge
ĠBr ad
TO M
Pr imary
tright arrow
ĠAm ong
ĠC NN
Ġl aser
re ll
Ġsepar ately
c ountry
h istory
aw are
Ġcon crete
Ġ" ${
P acket
Ġleg isl
Ġhost s
L D
ĠP ack
p end
SP AN
ĠH op
19 19
Ġint elligence
Del ay
Task s
Ġg oto
ph an
appro xim
Ġrepe at
Ġord inary
f aster
ĠÐ ½
Ġcheck s
Re act
r atio
ĠK ansas
im ination
k ov
Ġconsum ption
cite alt
ĠG raph
pr agma
Ġlog arith
Ġover lap
Sup er
Ġspe aking
Ġfore cast
BO OL
Ġdefe at
Ġthrow n
Ġsh adow
Th rough
Ġd ictionary
Ġ{ $\
Ù ħ
Ġcl one
-------- --
Ġpl ots
ĠD A
D er
ĠG allery
h ill
Part ition
um ing
ĠHar ry
RE E
Ġmanif est
W arn
sd k
Ġc ached
V ol
å Ĭ
ex cept
ĠD OM
Ġhelp ing
Ġempir ical
1 18
2 20
Ġreal ized
Ġd st
Ġca using
det erm
g ar
RE SU
Ġcompos er
19 00
ĠSh ould
ĠPo isson
Ġre aching
Ġhom es
Ġdepend ency
Ġequ ipped
Ġdecre asing
Ġmer ged
ol i
Pr ice
Ġuser name
Ġaug ment
get Type
pl acement
ĠA GN
) }$,
IM IT
=- =-
Ġknow s
ĠN FL
Ġsub section
Ġref lection
oid s
Ġpl otted
Ġsl ot
max cdn
Ġtext ure
c op
ab ove
unn y
>( <
} <
z i
P e
cor rect
ag ues
ĠBuild ing
Ġrestrict ions
Ġperform s
Ġvol t
ĠM ir
ĠB uffer
U pload
Ġshe et
ĠĠĠĠĠĠĠĠĠĠĠĠĠĠĠĠĠĠĠĠĠĠĠĠĠĠĠĠĠĠĠĠ ĠĠĠĠ
Ġcopy right
In struction
S i
Ġexp ensive
_ )
Mon th
refer ences
ĠBuild er
L ike
iv als
ĠAcc ount
ort ed
Ġf ly
Ġch iral
Pl ace
Ġcrit er
ĠM iller
A ug
et ary
Ġaccom pl
Ġinterest s
O k
Ġsh arp
ugg ing
Ġan isot
Big g
Ġv ort
Man agement
Ġarrest ed
dat etime
ĠB Y
ow nt
We ek
Ġqual ified
Ġne arest
s ass
und les
mat htt
Ġcell spacing
Ġenh anced
Ġ| =
Ġout comes
Ġcell padding
Constraint s
Output Stream
g ls
SS ION
}} )$
Z ero
} ",
nt z
Ġch ose
19 35
13 5
Av ailable
r v
ĠF ellow
ĠT a
Ġdec ide
F ALSE
Ġspac etime
pr ises
Ġsuff ered
ĠW at
Ġpars ed
LO W
U CT
Further more
Ġt error
mem bers
ri ers
e en
ĠFore ign
int s
ĠO t
Ġv m
k ernel
ĠT OP
Ġmonitor ing
Ġre named
ĠMod al
id o
condition s
T M
Error f
ĠN az
ID E
Ġw idget
Ġpar a
ĠLew is
Ġa f
pear ance
Ġregard ed
ĠL ang
Ġworld wide
Ġgener ates
is ons
Ġoccup ied
L ife
Ġca ught
U K
Ġinterpret ed
Ġn ob
Ġind ependence
end point
Ġelement ary
ar on
ĠH an
>< !--
ign ore
ron ze
Ġmunicip al
Ġgeneral ization
Ġdom estic
Ġpro test
10 3
Ġtw enty
Ph oto
rout er
ĠU RI
Ġreport ing
Ġdeterm ines
Ġl ose
ĠK a
P ane
p ars
Ġconsider ation
S yntax
Ġin structions
Ġal location
ĠBr idge
ĠS in
M illis
un known
Ġemer gency
RE CT
() ">
Ġalleg ed
os ph
ĠP ur
Ġv irus
Ġs ight
Ġown ers
ou stic
Ġour s
ĠMod ern
Ġanaly zed
Ä ĥ
ĠM ountain
A MP
Ġ# {
Serv let
get Class
om m
ĠO cean
Ġcou plings
! </
| _
Ï Ģ
99 99
t oc
ĠFr ont
Load ing
c ers
Ġ" '
Ġtem porary
IL ITY
u ity
Ġ` ``
aa aa
Ġspl itting
B ecause
ĠA h
Ġare n
l b
ĠCO L
G rad
L ib
Ġcovari ance
ĠCom ponent
t one
Ġgrad uated
if i
emet ery
pub lish
omin ator
che stra
ut able
Ġ& $
Ġst im
Ġta ught
Ġc ru
ate st
æ ĺ
man agement
Ġamplit udes
not ify
ar ial
Ġproced ures
ĠSer ial
Ġse ats
init ely
ma j
ĠN um
Ġs ac
âĢ ī
Ġtr im
ĠG C
19 17
ibli ography
Ġarg ued
ĠSwed en
Ġassess ment
M ag
to oltip
Ġcluster ing
jav ax
Ġm ob
ver ify
\ -
Ġcompet ed
ĠS ound
ĠC ulture
ĠR oss
Decl aration
\| ^
Ġp ending
p f
__ )
B its
Ġcho osing
Ġcriter ion
Ġvol unte
Ġpul se
(" \
no frame
L IN
ĠM D
d ashed
Ġf itted
igen ous
Ign ore
> ../
Ġwrit es
Ġtown s
Ġstand ing
ch anges
ri z
;\ ;
Ġb id
Ġre ly
UR CE
ĠM oh
ĠF ermi
Ġbr anches
l am
Down load
ul p
Ġan notation
ĠV ar
Ġco ins
19 33
Ġap ilevel
ĠM un
f requency
9 00
^* _
ĠOther wise
çĶ ¨
Ġad ult
Ġincreasing ly
l ive
ĠAri zona
ĠQ CD
Ġprocess ed
= -\
ĠSwed ish
Ġparticip ated
* \
S W
Ġreli able
N L
Ġcr iminal
Ġadv ice
}{ {\
Ġdem ocr
Ġpeak s
3 50
ĠM ill
F eed
qu ality
ĠL eb
ĠA thlet
ĠAff airs
r at
Ġtalk ing
Ġinter sect
Ġgovern or
ag an
File Name
Ġcontrad iction
ĠSe lect
Ġcon formal
fe atures
ĠA ge
ĠOn line
Ġincor rect
Ap J
Ġcontribut ed
shall er
RESU LT
ĠR ose
Ġpil ot
ator ial
ĠW hether
ĠL ind
ell s
' $.
Ġtri angle
\, {\
Ġsignific ance
10 7
c ourse
Ġabund ance
Ġh orse
Ch art
Ġremov es
He alth
< >();
Cont in
BA SE
H ook
pi e
act ual
Ġre in
ith metic
te ction
ĠDe ep
ĠExecut ive
Trans lation
ĠF A
Ġcre ative
Rev iew
Ġheav ily
Ġd ot
ĠCapt ain
bound ed
Menu Item
19 14
get Message
Ġ' @
second ary
int o
OL D
" ];
Ġon going
v ard
uck s
Ġlo an
Re ason
ĠLog ger
ĠP layer
ĠL oc
S n
ĠIndian a
ĠS av
Ġaccom mod
Ġnormal ization
ĠM ilitary
xy gen
Ġde leted
Ġex posed
TableRow Color
Ġ- =
AV E
ab stract
v dots
ang el
In ner
Ġdes criptor
overs et
ĠM att
Ġp un
ock s
Ġb ary
Ġpers ons
b t
script s
ĠMan ager
s ame
Ġdocument ary
ĠH erm
ak s
the ory
ick y
EE E
Ġdeleg ate
Ġaff ine
ĠP ier
st an
ĠG ib
or b
fr ames
in ject
ĠF ight
includ es
}{ }
' ',
Ġh all
ĠG h
Ġrespons ibility
}} =\
ĠCont in
le f
ĠQ ual
is y
ĠAtl antic
t rain
Ġcomb at
Ġintr insic
b ib
Ġexpl os
Ġdep ict
Ġcorrespond ence
BU FFER
ennes see
Ġ' _
Ġbring ing
sub Nav
Ġfall s
Ġra in
op ens
00 5
sup erv
Ġconsist ency
ĠYou Tube
alax y
Ġcrow d
Ġcool ing
Ġs ep
Ġre form
dat aset
Control s
Ġb ought
Ġs ed
Ġterm inal
d st
Ġjust ice
ĠC ab
Ġre normal
Ġbr ings
Sec ret
Ġfem ales
Ġstead y
Ġmembers hip
hy per
ĠNew ton
Ġfact s
m ount
t f
Ġre aches
ĠG ree
T yp
Ġgu id
ĠW atch
ip edia
ĠMark ov
ĠArg ument
Int ent
ur ches
ĠA bb
0000 0000
ĠP itt
ĠMem orial
s ources
ĠMar ia
HO UT
be ans
ĠJ S
ĠAl f
Ġwor se
}$ ;}
Ġb omb
loc ale
ĠB att
Ġconcept s
ĠN orm
Ġmechan ical
ĠSystem s
ill ery
ĠSe ason
N orth
Ġcon e
Or igin
Ġf i
Ġexpert s
In jection
UR N
ĠB lo
M achine
nob r
re nt
label s
po i
br idge
Ġmod ification
Ag greg
Ġharm onic
19 34
Com b
Ġcent ers
Ġmult ip
v v
Ġdec ays
Ġop position
Per iod
ĉĉ čĊ
t ot
| =
B g
Ġgo ogle
Ġ======= =
ĠLe on
i ences
ĠP O
all enge
P ut
Ġro y
OT TOM
Ġcon vention
Ġor bits
ĠRem arks
h our
ĠR iemann
ĠH D
Ġsud den
Ġatmos phere
or ous
Ġdesign s
Ġpost s
g lob
CRE ATE
ta rea
Big l
Ġl ob
Label s
m atic
Ġ' #
in formation
ivers ary
ĠEnter tainment
Y es
F ac
Ġperman ent
Ġ' "
ĠS mall
Ġmov ies
19 2
own ed
iv a
* ,
Ġf estival
XX XX
Ġex ponent
ant ics
um ul
Spec ial
Ġcan vas
C art
S napshot
A z
Ġin hib
Ġd y
| _{\
Right arrow
' },
A U
Ġsc an
Ġcirc les
ĠAss ume
=" {{
as a
u ction
iv idual
sol r
Group Name
dis k
Ġweek end
( /
ug ar
Big r
Ġre tail
Ġlocal ized
19 28
m al
Ġm ath
Ġar ise
Ġnov els
19 29
re ason
M ich
M ust
ĠT ab
Ġcap abilities
ĠS V
v i
w iki
ĠDis ney
Ġdevelop ers
ĠF all
ĠOff icer
Ġmolec ules
Execut or
not in
": "
Ġanaly tical
Ġd iversity
Ex ecute
ma zing
% "><
Ġg iant
Ġstri ke
Å ¾
Ġs event
OR K
w ich
ĠI F
Ġc ards
faster xml
ĠDir ac
k ish
C ulture
O wner
Ġform ally
Ġtit led
Ġreg istration
="../ _
ĠB ased
ĠI T
Ġexerc ise
Ġdi pl
p otential
ĠD eb
Ġenc oder
produ ction
SP ACE
C ity
Ġreal istic
T ri
is lation
g ent
RE T
ĠC F
ĠMA X
Ġim pl
s qu
Ġv o
Ġred irect
Ġattempt ed
it Hub
Ġd il
Ġengine er
Ġcoll isions
annot ations
aw ay
ĠF ALSE
ĠTur key
W illi
Ġdis cret
qu al
Ch anges
L M
ĠCom par
iss ip
PRO P
D ry
ol is
n ie
Ġp iano
ĠK at
Ġsatell ite
ĠBy te
ĠDate Time
Ġdesign ated
b ow
Ġremov ing
d anger
H y
it ro
Ġco herent
les cope
Ġst roke
f w
Ø ¯
Sh ader
ĠB rian
up dated
H am
arg o
ĠT ABLE
Ġes cap
cl s
P al
Cre ated
C CESS
Ġmaintain ed
Ġimprov ements
text sf
Ġneg lig
A ctions
ĠPal est
Ġin ternet
Ġre nt
du al
Ġ; $
ĠMal ays
ĠWh ere
$ _{\
ĠAct ive
M ajor
rest ling
P ress
Work er
ok ing
set ting
ĠPh ot
ĠMag azine
ĠAdminist ration
00 2
> ${
Ġaver aged
ĠSh er
h base
F ixture
S ongs
ro ck
att ed
equ ival
ropol itan
ens ors
LO AD
ĠB ishop
ab a
Ġf ault
oc a
TR AN
Ass ume
os l
Ġ å
Ġv eg
ĠC red
is ode
Ġeduc ational
ir y
10 6
R ules
Ġm ess
Ġfeel ing
ĠRun time
Ġjo ining
Ġtrad ition
ĠS ym
Ġt unnel
P ush
p us
ĠC zech
ĠR ic
Ġs now
l on
$ ;}
ce ived
C ost
ĠB or
ĠCon st
Support ed
}$ ;
\, ,
list ener
Ġsub sets
Ġpen alty
' )$
Ġc ash
ĠD onald
decl are
is ations
on line
od s
Ġperturb ations
al ion
Ġacceler ation
Ġart ifact
olut ely
Ġreve als
Ġse es
ĠMiss ouri
â Ķ
Ġdecl are
ch unk
] ->
uth er
Ġmathemat ical
14 4
Ġgood s
m ont
ĠM atch
Ġweak ly
Ġaim s
m ys
ĠG T
Ġd yn
Match er
if ference
p al
K n
Ġc ertificate
un ed
S core
Ġsynt hetic
Ġcomb ine
ar o
Ġcut s
it ud
Ġinstr uments
Ġread ers
C ross
ĠH ur
ĠPl ace
br anch
Ġre venue
19 32
Ġparticip ate
Ġlands cape
ĠJ oh
Ġadm its
ef e
11 4
Ġsem antic
Ġass istance
pr ice
Ġshoot ing
, (
ĠS ite
pon d
Ġtr uly
with out
Ġiter ator
G erman
grav ity
' +
ĠCast le
Ġr acing
styles heets
r ating
Ġport ray
he x
cons istent
t ile
X Y
ĠA ws
Ġman agers
G IN
i pl
Ġp ra
Ġsw im
Ġs ympt
pro f
ĠLear ning
u h
ĠKE Y
Ġcent ered
Mon itor
sample s
ĠAr thur
H ave
ĠDe ath
ref resh
Ġenc ode
Ġk illing
local host
)= (
w ick
ĠS ant
ĠT err
Ġlog in
plement ed
Ġas set
iz z
ĠIn valid
Ġto wer
ĠS quad
10 8
ĠB udd
west ern
Ġcol lections
(' ./
Ġover view
Ġdraw ing
) |\
Ġvan ishes
Ġcomp ilation
on i
mat ches
add ed
Ġh ierarchy
19 22
clos ure
ĠĠĠĠĠĠĠĠĠĠĠĠĠĠĠĠ ĠĠĠĠĊ
bol ic
Ġconst rained
Ġpul s
sat isf
ĠIn v
Ġexam ine
ĠJew s
Ġprint f
ure au
Ġp ump
set Text
Ġpres erve
40 4
ĠSer b
Ġpaint ing
Ġproject ed
weg ian
d ocker
M al
ĠF a
ĠTra ining
B ER
d z
con current
sl ide
Ġmarg inal
roll ing
Ġk inem
execut ion
am an
s ent
d td
Ġse ar
U AL
ut ies
Ġarr ival
Ġentang lement
Ġh olid
Ġcr ash
S K
con cat
ub er
Ġrestaur ant
hom ology
Struct ure
ĠHand le
ous el
19 10
ĠE RR
Ġjournal ist
ang ers
ĠM obile
EN ABLE
}) (
Ġinter ference
Ġveloc ities
Ġeven ing
C odec
Ġd war
Ġsu it
ĠBO OST
inem a
Ġexplain s
b urn
24 0
}\ ;
f our
oc using
ĠHou ston
æ Ī
U nd
Ġge odes
ĠF R
ist ically
c x
Ġfam iliar
ĠIt em
Ġregard less
Ġtransform ed
Ġv ast
t uple
Ġw rap
cm p
N eg
Ġap ps
enn y
th umb
Ġgr ade
et he
cy cl
="@ +
. (\
ĠM oon
ĠS R
Ġs ender
ÃŃ a
t ically
F rench
ĠS quare
Rel ated
Run ning
Dav id
') ->
Ġre plic
Ġdis joint
s olid
Ġb attery
Ġweap ons
ĠL ar
Ġlist en
w ho
Ġnon zero
Lin q
Ġp ole
wit zer
F actor
pi pe
B us
Ġrema inder
eg as
ren ce
Ġlif etime
ĠB asic
} &\
ro it
ĠSim on
n ed
LO C
ĠBase ball
ab b
10 9
ĠC C
pm b
Ġdistrict s
on av
ĉĉ Ġ
var s
ab i
ĠM and
Ġadapt ation
Ġexp atriate
Ġcomb inations
Te am
ĠD ead
ĠCon sole
u is
Ġr ating
Ġprov en
ĠHe art
run ning
i per
G G
f ish
Ġcon cerning
Ġlist ening
ĠM as
S uch
Ġf aced
ĠK han
Ġhydro gen
ĠV o
pe g
n l
}_{ {\
. },
Ġv ir
n an
ĠL P
deg ree
tim er
ĠGener ated
Ġs ought
}) _{
ĠTh ird
ADD ING
Ġk il
Ġslow ly
en vironment
B reak
/ )
Ġcollect ive
ĠT en
indu ced
Ġt ries
Ð ¹
v y
un ior
Set s
rain ian
> $
ĠPr ivate
ĠC op
Ġhouse hold
Ġb ucket
AP P
pop up
Ġ} {\
est yle
__ ,
di ag
Text View
Vis ual
ĠCar lo
& $
me as
W omen
il inx
Ġreve al
member NameLink
ur is
19 24
Set up
19 27
Ġ< ?
A cknowledg
P riority
s uff
ĠD ictionary
lik ely
col n
ĠB H
r and
project s
" ?>
Ġsur prising
separ ator
Ġdiss ip
Ġcub ic
Î ·
Ġcompre hensive
Form atter
V ote
C annot
ĠM IT
ĠE uclidean
Ġins urance
Mod ifier
Ġdifficult y
Ġim aging
n ik
Ġcheck ing
Sup press
pr ised
ĠK y
12 4
Ġ( ;
P REF
Ġman uscript
pay load
ec lipse
ma ker
red irect
h ist
fa iled
iber n
ĠSen ior
j u
Ġa cknowled
Cal endar
Ġp in
display math
Ġhundred s
F i
ĠPro du
Ġtraject ories
ĠT og
J apan
ĠHigh way
witzer land
Ġh am
o a
Ġnorm ally
ĠT ake
el ve
prot ect
ĠBr ig
Ġ$ <
ĠPhilipp ines
Ġ$ $\
O FF
U A
oid al
Ġold est
Ġm ales
Ġacc ord
Ġanim ated
Ġpar ish
Ġpar liament
} ~\
IN VALID
Ġw ww
Ġscient ists
h pp
Ġex tr
5 000
ut t
em pl
str ument
ĠWh it
- ">
Ġt um
ig e
Ġsound s
Ã¼ r
ĠÃ ł
Ġc raft
Particip ant
New s
View Controller
ĠB urn
E p
ter ior
Ġhe aring
Ġo x
__ ["
ĠR yan
w hat
Ġto ler
ĠF ederation
ĠCol on
Ġcor related
Ġaccomp an
Ġv eter
. ',
Ġis instance
pre ne
Ġr ugby
Ġadd r
T og
Mut able
us ual
trans late
Cont ract
if ting
Ġconserv ative
Ġassoci ate
ĠJ am
V O
i ac
ch at
em ony
g p
ĠKent ucky
ol o
ust ries
s creens
Ġens ures
at om
ĠT ry
F B
Ġim press
ĠT ony
Ġcal ibration
le ading
contin ue
ĠSc ient
ĠReg ional
Wh ite
ĠD ream
ĠCl ark
Ġ' ''
ri ends
ĠC ru
ĠÂ »
ĠT ennessee
Ġform ing
ĠB at
el led
Ñ Ĩ
Ġm art
== =
Ġphenomen on
vel oc
19 31
Ġfound ation
ĠL I
ir i
Al gorithm
ĠE instein
Ġleg acy
ĠMed al
' $,
ĠMan chester
ul um
ma king
Ġge omet
add Class
Hash Map
Ġseem ed
th an
Ġem it
ĠChe m
end a
Ġab use
N ON
stream ing
p k
Ġbreak s
S ide
Ù Ī
ĠM it
ard o
& -
Ġa st
aw t
ann y
M a
display Name
et ric
Ġcompet itive
Ġin duct
let ion
r ations
Ġrelig ion
ĠSil ver
D ig
ct rl
Ġaut hent
Ġ} $
ĠAg ency
Ġinfe ction
Al pha
oun ced
P ADDING
ag u
Ġcomp ression
gener ic
B AG
row Color
Ġher o
Ġre ar
Ġcomb ining
Ġf ired
ig ator
Ġprov ision
ĠD est
SP AC
Ġdiscr imin
Ġturn ing
= (\
Ġbro ke
d ifferent
Ġ$\ |
il st
è ®
] ^{
ĠNS String
Ġin herited
os er
Fe atures
g h
> {
Ġ' -
Ġinstall ation
Ġn s
; %
ĠMos cow
no ise
E s
ut r
re prene
Ġdeb ate
Ġanalog ous
Ġm ile
Ġint ention
Ð¾Ð »
Ġthe atre
cl ock
ĠL iter
ash i
Java Script
tim eline
Ġf ul
Ġprinciple s
Ġretri eve
not ification
Ġm ixture
ĠMo ore
ĠHot el
D ITION
ĠG ram
ĠDef ine
Ġanalys es
ut ter
Ġlinear ly
Ġcon jecture
v skip
Ġcos mic
A SS
Dec imal
L com
ĠO P
Ġob server
CR IPT
Ġt ip
Bit map
hold ers
Ġen emy
Ġfew er
db c
inter pret
Ġhelp ful
Ġm ac
et ry
å Ń
ext ensions
comm un
Ġtyp edef
part ition
Ġrelax ation
Ġh un
Ðµ ÑĤ
000 1
ĠI C
as hes
Ġasympt ot
oy al
LA B
Ġrece ives
Al t
Ġh a
Ġwith draw
AA AA
il k
m x
: %
re view
ĠMary land
Ġcarry ing
ent ric
Ġf o
multi ple
tra ining
mathbb m
des cribe
Ġrev olution
Ġb are
ĠTr ack
19 23
ĠWIT HOUT
Ġmon ot
ĠRet ri
æķ °
value Of
Ġtransl ated
or ange
Ġdeform ation
ĠC T
ĠE dition
Ġinfin ity
ĠAr k
app ings
om ot
( `
ĠW ord
19 25
Ġs oci
late st
Ġhom ot
cs v
V C
ĠDi ego
Ġaff ord
ĠN eed
C irc
ĠN ull
Ġlat ent
Ġmark er
om aly
Ġun stable
ĠB ORDER
IT LE
R adius
ex pl
ĠAll en
Ġmin ing
}, {\
ib l
Ġsix th
idel ines
ĠEx press
Enumer able
S am
prov ed
nos cript
olog ists
Ġrec overed
Ġmed i
Ġsucceed ed
ĠA mb
ch arg
N I
: &
at able
Ġobtain ing
ĠUn iverse
]( #
Ġ" );
it is
T ry
work s
inter action
R ich
Ġcon cluded
Met ric
A ir
Ġdep icted
ĠViet nam
ĠSt one
ĠM ust
\ }}
iz ard
ens is
g raphics
Ġproject ive
ov en
G ood
Ġro of
in cess
Ġsp ending
ĠIm port
ic ates
Ġwe ar
ĠTown ship
ĠE ffect
serv let
Separ ator
r uct
Ġl ake
Ġnot ification
Data Type
Post ed
M en
B N
Scal ar
Ġwh atever
Ġvolt age
os c
ĠTe ch
ĠN atural
Ġinv olve
Ġbur st
I ME
Ġb ot
RE SS
ourn als
ri k
Ġtra ins
ate way
Ġown ership
B oth
ĠParamet ers
s ure
} "/>
sche mas
AS H
Ġbur ied
Ġf usion
Ġarg ue
c ity
c odec
Ġintrodu cing
onav irus
Ġvol umes
tem perature
Ġarr ive
fav icon
Ġm ine
Ġair port
B ucket
M ix
ĠJ ane
Up dated
ĠIm Gui
Trans ition
19 12
S peed
Ġillustr ate
Ġb ott
w en
T uple
ĠNor way
K ernel
Ġin h
Ġb ath
all as
book s
Al ert
ract or
Sh arp
Ġste el
path s
ĠV ice
> .</
ĠF eb
With out
Ġkind s
gu ide
ad apt
Rece ived
ĠT arget
ĠS ix
19 21
Tem p
pr ite
Ġp up
ĠBar on
Ġ' ,
ab ama
Ġteach ers
Ġ$ ('#
ĠR ender
ĠN ig
ĠHol y
ĠP red
Ġpr on
ĠĠĠĠĠĠĠĠĠĠĠĠĠĠĠĠĠĠĠĠĠĠĠĠĠĠĠĠĠĠĠĠ ĠĠĠĠĠĠ
m ov
(" .
f ilters
li est
Ġsy nd
ĠJun ior
T wig
sc ene
Block s
Ġcom posite
id ad
Pay ment
ĠA uth
end o
Ġ. =
B F
it ics
Ġ$ [\
Ġr is
Ġaut hentication
Ġexhib ition
ĠI owa
manif est
Ġloop s
Ġg ro
ĠMod ule
A K
d ers
'] .
ĠL eft
Ġval uable
Ġ" [
pos itive
ĠP rom
b x
Ġrest ore
Ġmach ines
cp u
Ġautom atic
b n
Ġp ip
19 26
DY BAG
r as
Ġprov es
ĠMel bourne
Ġfin itely
] </
ex act
ĠEnt ity
re le
d ating
Ī Ĵ
erial ize
w ire
ustr y
ĠT reat
ĠDat abase
w ind
ĠF M
D istance
get Attribute
ĠPhil ip
sub float
Has Been
ĠLore ntz
Ġhand led
Ġm apped
lan ta
Ġre n
Ġvari ants
ĠHow ard
Ġb rown
L ow
ater al
P N
DE D
B s
Ġbank s
ĠTR UE
. }\
' }\
ĠR ound
ous es
Ġindu ces
Ġinflu enced
r adi
ĠD R
def er
S ent
cons ider
Ġcon sequences
L ines
ren a
Ġd ies
Ġm aintenance
Ġn ested
ĠN ev
ĠPl ant
Ġne uro
lim ate
T i
Ġ\ #
ĠB alt
Tool s
le e
ĠMex ican
Ġre act
Ġhead s
ben ch
ĠE mer
Ġag encies
uch y
Ġleg islation
i ary
Ġhel per
Ġver ification
Ġsort ed
depend encies
b ucket
}. \
Ġtot ally
c us
Ġch arts
Ġp it
Ġrequ iring
I p
ĠHol lywood
ĠD aily
Ġg rows
r n
Ġs napshot
Ġv ocal
Âł Âł
Ġpro spect
Ġpr imitive
el and
Ġobserv able
ĠPr iv
ep age
Ġ/ ><
Ġsuff ices
`` ``
ĠR eb
ĠD oc
ues e
Ġintegr als
P ixel
T or
ĠR ol
ok er
Look up
m v
Ġc rypt
qu estion
Ġl it
Ġsee king
L o
Ġin coming
Ġprom otion
L at
al ph
ĠE ver
ĠEcon omic
ĠIn ternal
ĠK IND
fg han
pack ages
Ġver ified
Ġhe x
Ġtri als
ĠN ap
Ġup load
gress ive
mod ifier
Ġaddress ed
D a
Ġshort ly
Ġincorpor ated
Ġel astic
oc or
sub stack
Ġsurg ery
b ecause
ĠFre der
sim ilar
Ġk w
Ġw heel
19 15
sche me
Ġs elling
Ġb igger
eff icient
Ġcl s
ab ul
ĠR ange
ke leton
Ph il
TER N
B u
d v
trans l
Ġb irds
order ed
ant ed
we alth
ĠIsra eli
redu ce
in verse
u eto
E ven
ĠM B
Ġd educe
ĠS n
Ġchain s
qu est
Ġquot ient
h arm
az ure
prec ision
ĠCap ital
Ġ" ;
P aint
}= (
S ig
)} _{\
fin ement
se a
U psilon
Ġt ile
MA GE
ĠP UBLIC
EV ENT
Ġclos ing
superv ised
seg ment
om as
ĠP HP
D ict
Ġwav ef
ĠTem ple
ĠM rs
ĠP ed
sub string
St rip
ĠS ri
ĠR andom
ĠB iden
ff ee
ĠLeg isl
Ġch airman
50 9
ĠS S
li a
Ġsuper conduct
Ġg it
Ġput ting
ĠE s
ĠK evin
Ġmed icine
Ġmys elf
om p
Ġman ual
u pt
Ġc p
ĠHarr is
ta h
Ġgreat ly
igr ants
ext ype
ĠPat rick
T X
L ive
back end
i ot
G RO
Ġexcit ation
ĠEx pression
re tt
r h
ĠSum mary
HasBeen Set
19 16
Ġimprov ing
Ġt on
Ġl l
Ġtherm od
Ġ* ,
ĠY ang
je ctions
C he
ĠĠĠĠ čĊ
le et
ĠB arn
Ġlog ical
Ñ ħ
Ġpres idential
sign al
Ġpure ly
ĠEar ly
FN GL
ĠP ackage
Sim ilarly
Ġfor th
SU CCESS
Ġtrad ing
Ġf er
Ġrect angle
C UR
SPAC ING
el lect
M ass
Ġneigh bors
start s
Ġent ering
ĠW HERE
Ġlength s
Ġs urn
m g
> `
Di agnostics
ĠA lice
H on
Ġfunction ality
Ġs ink
Ġ\, ,
Ġ Ä
Ġstream ing
ĠÐ ´
ograph ical
ĠEx pl
ĠO ptions
ĠM aterial
Ġout per
Ġun ity
Ġprovid ers
ueto oth
Ġcour ses
Ø ª
}) -
ĠT i
As sembly
First Name
Ġwatch ing
EN TRY
ĠMi ami
Ġbl ank
ĠTok yo
Bi ography
ĠImm utable
Ġmanufact uring
100 00
( |
Last Name
ĠB OTTOM
sc an
ut down
ĠAl bert
Ġequ ally
ic ide
l iving
Ġpreserv ed
Ġbo at
S eq
Ġm irror
Ġoper ational
Ag da
3 20
Com ponents
ha ust
B ACK
Ġm outh
r x
Ġdrug s
ĠS SL
ĠCP U
ĠJes us
S rc
Ġm s
el son
ĠGr ad
ĠH ans
cho ice
ss on
Ġsub scription
Ġref used
Ġsett led
Ġsegment ation
Ġh ur
Ġinv ited
ĠS el
process or
A rm
Ġ æ
Ð¾ ÑĢ
Ġmer ger
Ġan omal
ĠAnth ony
st ub
C trl
I ll
De ath
am ents
ah n
dis patch
RO OT
Ġdeterm ining
s ocial
ST M
Ġincre ment
k ar
W rap
Ġb ases
Ġexpl oration
Ġm igration
N or
Ġdeal ing
Ġl ibraries
Ġvisit ors
Ġdispl ays
h w
ic ut
ownt own
ĠD raw
inc ial
F etch
at ile
ĠHash Map
Or iginal
Ġsh orter
act iv
F ilm
L ang
app y
hom a
Ġr id
Ġmin i
Ġeng aged
Ġch a
AR GET
Ġi i
Me an
Ġsub mitted
res olved
**************************************************************** ********
Ġbo ys
tr on
Ġ} ).
Ġsample d
ha us
f ar
Ġoff ices
ĠSpec ifically
i at
Prov ince
Ġrank ing
ĠMat the
}_ +
ĠĠĠĠĠĠĠĠĠĠĠĠĠĠĠĠĠĠĠĠĠĠĠĠĠĠĠĠĠĠĠĠ ĠĠĠĠĠĠĠĠĠĠĠĠĠĠĠĠĠĠĠ
Ġpy thon
ĠM atrix
ne ed
B uf
center line
FFFF FF
met rics
ĠInt eg
Ġexpand ing
Can adian
ump y
ĠL as
igh bor
Bl ue
et es
Ġpl ain
Ġ ur
Top ic
~ (
hes es
Ġregular ly
$ (\
Ġpos it
ene z
ĠÐ º
Ġs essions
ĠC L
ast s
Ġsign ing
ĠStud y
Ġt f
N ECT
Up per
Ġpublic ations
Ġrep ly
. (
ĠL abel
s mooth
ĠB h
f lix
ĠT oken
ul se
maj or
E LEMENT
Ġther apy
Ġend if
q q
M esh
O h
ĠCh ap
ĠM unicip
Ġex pr
Ġe g
Ġm atters
27 0
P OS
Å Ł
Ġex clusive
ĠJ ay
respect ively
ĠAuthor ity
Ã ª
ch itz
Ġfl ash
}} }{
D ao
WR ITE
M ail
Ad v
Ġbos on
ĠStruct ure
ache lor
com ments
é Ģ
Ġent itled
at ype
R adio
Ġso il
M obile
Ġla id
Ġdeterm ination
M arch
dr iven
ĠLic ensed
Ġf acing
ab olic
Ġsub mit
ĠP S
la homa
omet er
) <
first row
ĠCELL PADDING
ĠU t
] ).
et c
C N
SO URCE
ĠL ank
ĠRepresent atives
) )$.
AC CE
= }
O lymp
WA RE
` )
m r
ĠRes ources
ĠE uro
L ear
Ġfr anch
Mod ified
Ġfr uit
c ategories
11 3
= {\
Ġprem ier
E ast
Ġag ed
ĠDev elop
Ġm ic
u ating
al actic
ĠDo ctor
ĠCELL SPACING
ĠTr ade
ĠIllegal ArgumentException
ter ms
}_{ (
ĠC lin
in ian
ĠS witzerland
y ers
ĠCon stant
Ġcommun ications
Ġb on
ig ible
Ġefficient ly
Ġp or
ĠÐ ¸
x sd
N eed
AR RAY
Ġ ^{\
Ġclass ifier
ĠA gr
Ġdis miss
pro fit
ĠDef ense
ĠMar ine
Ġ{ {\
Ġvill ages
dr ag
Ġbro thers
Ġclose st
Ġdis contin
Tr igger
ĠSt and
ĠA ud
uk i
Ġar ithmetic
Th ree
ac ht
Ġro oms
S pe
al og
Ġch air
S mall
Ġ// -->
ĠNot ice
Ġcapt ain
Ġacqu isition
Ġassert True
st ers
Ġmiss ed
inn ed
vent ory
tool bar
ĠG ard
ĠWith out
Ġsh apes
ĠN ich
Ġcal endar
se ed
Ġcon clusions
ĠF arm
ol ars
Ġr hs
Mark er
R ober
Ex it
i est
Ġaux iliary
Ġs av
ĠF ilter
ik h
Ġpotential s
Ġbelong ing
Comm it
Ġconsum ers
C ountry
O cc
Access or
× ķ
RE NT
pre pare
Ġmeas uring
Z oom
17 0
w alk
Ġch rom
[ <
Ġmark s
arg v
Ġask ing
ĠN GC
ion ed
\, .
Ġw ed
ent ries
se cret
Ġinitial ized
vis it
ĠB AS
St age
ĠD og
Ġconsider able
d ue
3 000
Ġbar rier
Ġqu iet
ĠV olume
Ġeng ines
Ġre lying
draw able
ibern ate
road cast
Ġa str
ub ern
Ġround s
Ġarray s
allow ed
st eps
ĠE ag
ph ot
adi ents
Ġw rapper
Ġsyn tax
ĠK er
it ian
id ity
Ġre serve
Ġs wit
19 13
Ġgener ality
+ "
) |^
f am
Record ed
oper ative
app oint
FA IL
b re
Ġte en
ĠC ape
lf loor
! =
Ġd ial
Ġj unction
Serial ization
). }
acc ur
J o
asc ade
ens ively
ĠV in
Ġinst ability
et ition
Å «
Ġhe lic
Ġt ends
Ġpass ion
Ġsuper ior
amp ing
Ġthread s
ĠA V
op acity
Ġdec oder
ĠLab our
jb oss
IE W
Def ine
ĠB ry
REQ UEST
ĠUn less
ĠH ad
ĠGree ce
By Name
Ġins ight
ĠI L
Ġdefault s
ams ung
ch rome
ate ur
Ġco aches
Ġh ospit
A wards
Ġexpl ored
Ġrun ner
}\ }$
ĠH E
ĠC ook
ĠLin coln
FLA G
at ics
D im
ear ing
Ġvar ies
U UID
z ym
ĠC os
ĠF lo
Ġar row
Ġviol ation
ĠJ os
Ġst rain
ple ctic
f un
Test ing
ĠUs ed
n ail
ĠO ak
do i
O G
N ONE
Ġst retch
Ġlaw yer
Ġtrend s
ĠS witch
Ġvacc ine
Ġeffect iveness
ĠP as
des criptor
t bl
Ġw ine
back s
Ġdis patch
ĠĠĠĠĠĠĠ Ċ
Ġreg ul
Ġd uty
ten ess
initial ize
ĠB reak
Ġproport ion
ãģ ®
unders et
ĠW y
con j
Sa fe
se en
o is
ĠFor ces
Ġnumer ically
Ġv oting
respon sive
ĠJava Script
Ġsub sid
Ġad ults
}} }$
Ġpublic ly
c as
Ġcryst al
Ġw aste
2 30
ard ed
Ġ( @
ĠS ize
ĠY outh
Ġstre ets
ĠEx p
Ġfocus es
Dist ribution
P an
ĠMem bers
ĠB eng
ĠL ib
Ġcomp iled
Ġr anging
ey ond
Ġpre gn
ĠPe ak
fra ction
P adding
ĠS F
Ġ} ),
Ġv oted
Ġsurv ival
c ached
I ES
' )\
Ġgrow n
Ġvict ims
Ġun like
ĠMot or
Ġentertain ment
Ġacc used
ĠCre ated
Ġme ets
Ġput s
Ġinj ured
ĠH u
Ġhol omorphic
Ġev ident
Ġabs olutely
ĠL A
] ['
Ġs ends
add le
Ġfair ly
Ġformer ly
ig o
put ation
Ġnom inated
ul k
dir name
Ġde ployment
y ll
Ġadvert ising
ol k
iv o
Vis itor
Ġpar ad
ĠM ult
ur ers
Ġcook ies
... )
p aces
Ġident ifying
Ġshe ar
A ff
B ag
Rel ative
ĠB ureau
ĠB us
SS AGE
Ġcircum stances
P aul
ĠD ur
Ġdanger ous
Ġremov al
Ġcor porate
pro j
$& $
c amera
Dis k
H A
Ġg ray
Ġ( ),
Ġre tain
Ġind ent
ĠB os
Ġmulti plication
f m
Ġru led
ĠH ost
Ġconvers ation
ĠT YPE
Ġ" )
Ali as
h p
Ġbox es
s olution
Ġst ub
c art
g un
)} =
ĠMe V
" ])
ĠF ro
E urope
Ġar ises
ĠY es
m ir
Ġc up
Ġtang ent
Ï Ĥ
Ġcl ar
Ġt s
Ġsub str
Ġ" #
ĠSt op
RE S
h us
ierarch ical
non atomic
ĠUn ivers
ut orial
11 7
Ġhealth y
Stat istics
Ġil legal
in th
Ġfor get
ber ry
ĠInitial ize
Ġref resh
cook ie
Î »
t ol
ĠF er
ĠG irl
Ġvis ibility
Ġstar ring
ri bs
ĠJ ob
R GB
Ġprepar ation
Ġattack ed
Ġ/ ></
th ird
m ust
Ġcrit ics
Ġtal ent
ST ART
Ġformal ism
ĠAust ria
Ġdetermin istic
c ord
Ġs ail
Ġappro val
ĠS yn
Ġf oo
ĠRec all
B G
Ġun expected
block s
Ġret irement
Ġsub scri
ĠPro perties
> )</
Ġdr um
ĠNever theless
veloc ity
S al
Ġroad s
Ġal igned
f uture
P ending
ĠW ang
}{ $\
Ġobserv ational
12 2
ol y
Ġderiv ation
Ġt icket
trans fer
Ġgr ass
Ġconfigure d
ivari ate
Ġecon om
Ġmay or
Ġfl avor
Ġre actions
C LA
Ġfl u
Conf irm
S ever
Ġant icip
d or
d elegate
Ġcol le
B usiness
ĠD ick
ĠCh apter
rf loor
pag ination
Ä «
}( -
M AN
19 11
ĠD ol
Ġop ens
i q
ĠS ud
pi res
ĠP ot
Ġext raction
' }$
ĠTai wan
Ġentr ance
Ġ" _
W ell
Ġ urg
Ġc url
; ]
] _{
Ġband width
Un ique
c ritical
p ending
ĠD ebug
ĠI gn
ob i
ring tone
es cape
ĠAl abama
Pop up
C ould
Ġdoub t
Ġinitial ization
ĠPer formance
ĠLa ure
en o
Ġcloud s
Ġinvari ance
ĠN ash
Ġincre d
equal ities
rot ate
ĠL evel
ke e
c z
om es
Ġeduc ated
Be havior
ĠIslam ic
hel lo
Ġimag inary
T l
Ġrele ases
cho ose
Ġd ress
ĠString Builder
ĠL yn
ĠN i
Ġsequ ential
}} +
ced ure
bal ena
Ġconven ience
ak ers
en ix
D imension
Ġref lected
Ġly rics
Ġout line
Des ign
Ġac oustic
Ġa z
ĠĠĠĠĠĠĠĠĠĠĠĠĠĠĠĠĠĠĠĠĠĠĠĠĠĠĠĠĠĠĠĠ ĠĠĠĠĠĠĠĠ
ge ometry
g uid
Ġpermut ation
ãĥ ¼
Ġf lying
' -
ad ic
Check ed
Ġexception s
Ġn ick
ĠAn ne
Ġhead quarters
Pay load
Ġk it
Ġl in
Ġp ose
Sur face
ĠOb ama
Ġ ì
Me asure
ors ion
] ),
ĠRem ark
z oom
Ġfeas ible
ĠHaw ai
iline ar
look up
H H
d imension
ĠS cal
Ġex cluded
c urrency
Sw ift
H ello
m ime
ĠL ock
Ġover l
d id
Ġb aby
Ġtra il
ĠC ow
f loor
Ġin jection
Lower Case
ard ing
on ed
ĠCon sequently
ĠSever al
Ġsymmet ries
T imes
st ation
Ġmag ic
4 50
âĶ Ģ
us age
att ing
care t
Ġo xygen
ur bed
con figure
Jan uary
Ġappe al
Ġcompet e
Ġatt ributed
$ --
{ },
å ľ
ĠR on
ĠL am
An im
co hol
ĠT ak
Con stit
Ġformul as
p referred
Ġsqu ares
F ire
Ġb lo
Ġshift ed
a que
per iments
^ +\
ref lect
ĠD un
12 1
Ġcr ick
ĠD al
ĠBr un
Ġconstit ut
ĠL ag
uer to
Ð¸ ÑĤ
ordin ates
Ġocc as
ann on
lo be
st ory
Ġz oom
row se
ym n
ĠPh oto
æ Ĺ
ĠF O
Ĩ Ĵ
Sc ene
ĠAl tern
ĠN eg
Ġapparent ly
Ġam pl
Ġpoet ry
un ion
Ġsympt oms
en ario
T ip
cript ors
? </
N orm
ĠTh ough
raise box
Ġlimit ing
New ton
Ġdesc end
Ġg a
IN DEX
dem o
Ġim posed
Ġneglig ible
Ġp ray
ĠFe ature
, ~
W ARN
Ge ography
di agram
if iable
Ġpro hib
Ġins pect
), (
Ġass ault
Track er
mut ex
"/ ></
a ac
S can
ched uling
Ġst ood
Ġart ificial
ĠLin ux
Ġh ip
Path s
; =
qu et
Ġalloc ated
Ġs ons
or ne
ĠS port
Ġobserv ables
Ġthere by
Ġp ictures
Ġnot ing
w ang
te le
le in
Ġing red
Ġwill ing
Ġbe ar
ÑĢ Ðµ
Ġspec ification
Read y
Ġcontinu ing
Ġfall ing
un ks
ĠH ug
con ver
I l
Ġwould n
x FFFF
ic ht
Ġsit uated
task s
ab ling
m acro
Ġ$ -\
ad apter
Ġab elian
ĠN ik
! âĢĿ
Sche me
Ġlook up
Array s
Ġspe aker
Ġgrad uate
ĠU lt
Ġdat etime
sub scribe
Ġsu ite
tain ers
Ġd otted
e or
Mer ge
ĠE uler
Sh are
Ġsuggest ing
te chn
tr ansp
M W
Ref resh
f ollow
ĠK o
: /
Ġcent uries
==== =
IN IT
Olymp ic
}{ $
ĠAl ber
DO CK
}$ ).
Ġup grade
Trans fer
ant on
Ġrel ativistic
ract ed
_{ {
andid ate
ĠPl atform
Ġl oved
á º
Ġlic ensed
ĠCon nection
Ġf at
Ġtransport ation
issip pi
B ur
comp iled
Un iform
le af
' =
Ġgu y
he at
P ref
Ġcom ic
ĠHer itage
Ġe cc
T ING
p ipeline
ips chitz
im b
19 08
w av
id i
ĠId ent
ĠĠĠĠĠĠĠĠĠĠĠĠĠĠĠĠĠĠĠĠĠĠĠĠĠĠĠĠĠĠĠĠ ĠĠĠĠĠĠĠĠĠ
d in
ĠF ame
Ã ´
Ġmedal ists
Q t
Ġcontinu ity
J s
Ġ um
) !
Dependency Injection
Ġcount ing
P eer
man y
ĠOrgan ization
im od
Ġr m
opt imal
V I
ĠS ep
; -
Ġtor us
p ixel
CO UNT
R ank
do es
S in
ĠB ah
M art
t z
s ong
Ġaggreg ate
ĠTh ose
Dest roy
Ġo vers
Ġdeb t
ĠA fghan
Ġpar agraph
S ound
Ġres cue
Ġscal ed
ĠSw iss
ors es
Ġfe els
Ġb reed
Ġweek ly
D one
FORM AT
Ġstream s
Ġinnov ation
ĠS ET
math ds
Sub ject
Rep ly
ec onds
ĠCh ile
ĠP ear
Ġsp oke
ĠPro file
}| ^
^- $
[ [
Ġag es
Ġ"- //
ĠBo ys
Ġ\ :
Ġpre lim
}\ !
ĠCh o
Ġrender ed
C lean
ĠPh illi
M ov
ro se
ĠK itt
ĠF ried
Ġf ocusing
ĠD omin
Ġa mazing
ĠR ap
cre p
Ġdesign er
Pub lish
Ġmechan ics
on na
Ġt y
ick ing
ĠAl bum
E ducation
F ill
Can vas
az e
olog ically
h h
ĠGr id
hash Code
Ġw aters
C SS
ME M
Ġflo ating
ig ious
Not ice
Ġfl av
ĠQu ant
ĠG ab
vari ables
ĠSing le
"> &#
Ġdef initely
ĠK am
ĠI mp
Ġbi ological
Multi ple
AR CH
Oper ations
Ġwe bs
he alth
Ġf inger
Ġdr ums
ĠAt lanta
Ġgun s
ĠS ession
Ġh aven
}{*}{ $\
? (
ĠM achine
Ġ$- $
Sh adow
ĠF low
R ail
ĠD ave
Ġoscill ations
Ch unk
) '
st ellar
In ject
ĠL apl
M us
Ġf ought
Ġwalk ing
Ġto m
ĠCon struct
Ù ĩ
Ġplan ets
Ġhe ating
Ġfraction al
Ġguid ance
ion e
attr s
. ")
c am
d ump
ĠR ot
Load ed
R G
ci ence
FUN CTION
Ġs ig
-------------------------------- ----------------
D ue
Ġserv ers
Ñ Ī
Ġoptim ized
im ir
Ġr ising
Ġw ider
ather ine
Ġcommand er
ĠA BC
ĠM E
Ġsh ifts
over ride
Ġveg et
Stack Trace
L ite
Pro b
Austral ian
ĉĉĉĉĉĉĉĉ ĉĉĉ
S lice
ever y
Ġpick ed
'] ))
l c
Ġext ending
c oc
Ġoper ates
Ġcer emony
Ġminim ize
B ibliography
In s
Ġmusic ian
ĠDet roit
ĠF ound
ĠRes erve
Mod al
Ġtim er
Ġg amma
Ġprot otype
'=> '
short cut
Al ign
â Ĥ¬
Ġ Ã©
Ġto String
Ġed ited
ĠT ax
ĠL E
ach i
C amp
ĠWalk er
Ġdec line
Ġb ronze
mod ified
Ġdirect ors
Ġfrequ ent
P ipeline
File Path
SH A
G uid
Ġaccompan ied
per cent
Ġproof s
Ġelli ptic
ĠD I
Ġembedd ings
Ġdistingu ished
Des pite
W ar
Ġvari ability
rg b
Ġ\ }$
onom ous
> ()</
ro tt
ĠÐ ¾
ĠVill age
Fig ures
Ġansw ers
ĠAd vent
A pril
n ear
ĠS W
ĠP od
Ġinv asion
l it
ĠN ob
Sche dule
Ġfle et
Ġinvest ors
Ġlocal ization
ĠWal ter
ĠQueens land
Ġup coming
ĠWork s
lef trightarrow
im ore
ĠCh rome
Ġkn ock
J une
Sec onds
ĠS L
Ġvanish ing
Ï ħ
oc ese
Enc oder
19 0
}}\ \
Ġr ings
Ġpass enger
ind ices
ĠAnton io
T L
bo ards
Ġj azz
Dest ination
P s
ambig uation
Ġr ide
MS G
Ġassum es
Ġadm itted
Ġexpect ations
Ġcred entials
Ġprom ising
Ġthick ness
itud inal
P rom
Ġestablish ment
Ar r
ĠU r
="# "
ĠSt ew
in herited
auto ref
R F
ter y
ç »
m icro
ĠC atalog
Ġin fl
Ġco homology
2 10
Ġhyper bolic
/** */
Ġpass engers
button s
%%%% %%%%
P aired
{ [
', \
make box
ĠS eg
Ġph on
ĠDo es
Î ¼
Ġguarant eed
m icrosoft
te ch
Ġj ets
section s
per mission
C hat
Ġr ival
Ġb acter
R eq
bar a
ĠG ordon
: -
ĠG irls
ĠA le
Ġ )$
est ing
è ¡
Ġvot ers
sh iv
Ġes c
um ed
J ames
=" //
Ġt ur
ab ad
Con v
j an
Ġdisc ipl
Ġreli es
le tt
c amel
ĠK elly
Function s
Y S
H OR
ac ion
est ure
ĠS elf
ĠC ole
ĠFin ancial
Pop ulated
ĠDe an
Class Name
ĠOr th
Ġliter ary
Ġloc ale
e u
g on
Ġelect rical
Ġdes ire
lim ited
K L
U ES
Ġobvious ly
f ef
Ġaffect s
^{ [
Ġv ec
c rum
OB JECT
17 5
mark s
×ķ ×
T ables
Ġl ens
Ġparticip ation
Ġmut ual
m agn
Ġav ailability
GB T
ĠDemocr ats
i ang
Ġval ley
ĠG un
ĠS A
Ġprocess or
Ġs alt
s burgh
end region
S chool
ĠRes pond
leg es
PAR AM
ra k
ĠCON FIG
Ġst ake
ĠA B
ĠF ive
over flow
second s
g ap
Ġin cl
sup p
Ġrender ing
or ig
Ġ( {
() [
att ach
b ank
g em
ĠOk lahoma
Im ages
Sl ot
h op
ĠE C
ĠO K
ĠBow l
ĠH ockey
Ġke eps
M IT
ic he
Ġphil osophy
Ġc ategor
Ġelect romagnetic
S ym
STR UCT
Ġsurve ys
ĠEn c
Ġcomple tes
am ination
Ġ" +
Ġrout ine
ĠTele vision
Ġin equalities
end ers
Ġb ins
F D
h yp
SD K
big skip
Ġre start
ĠInd ependent
PL ICATION
N ay
Re place
we ather
Ġgen etic
Ġreprodu ce
ĠP ap
effect ive
ĠDoug las
D an
Ġdise ases
ĠConnect icut
Ġdis ks
system s
Ġcav ity
pe ction
__ .
in ate
f are
p riority
ĠG W
Ġg host
or o
Dec oder
Ġn ortheast
Ġref uge
pred ict
Ġinteract ing
Ġenc ryption
in ces
ov ak
ject ive
ĠArm en
Ġan cest
h ou
Ġe c
ĉĉĉĉĉĉ Ċ
S y
ĠG all
ru ction
~~ ~
the ad
Ġf urn
i op
Z Z
yg on
Ġrout er
Ġbr ands
ĠCart esian
ĠSquad ron
D onald
}^{ (\
Mich ael
Ġdecl aration
)\ ,\
ĠY an
mak ers
C ertificate
Ġinh abit
Ġattr s
dim en
ot er
ĠYear s
Ġstrateg ic
Ġinstit ution
min ute
ĠAust in
mult ip
elastic search
the y
ĠArt icle
ipp et
Ġoper a
Ġt ropical
ĠSt age
over ty
PA SS
ĠD VD
SER VER
Key word
orient ed
gr pc
ĠB ush
AB ILITY
Ġcycl ic
Ġabandon ed
Ġo cean
TE GER
im plementation
LE S
oc he
L ead
16 8
FT WARE
ect ure
Ġprote ins
um ar
Ġphenomen a
NG TH
ĠTr igger
Ġmeet ings
text ure
M iddle
Ġrep o
Ġy es
ĠG arden
Ġunivers ities
Ġexhib its
ĠEm peror
parent Node
Ġben ch
Ġind irect
Ġhigh way
S il
Ġdef ensive
Ġback up
Ġbright ness
Ġan th
develop er
F oot
Ġconsist ently
Ġpublish ing
ĠSt udio
An chor
ĠMay or
t ick
dat ab
W ORK
Ġcond ens
b ach
ĠO tt
Ġemploy ment
Ġback ing
amp ed
] <
nov ation
Ġsimpl ified
T LS
t icket
ib ling
Ġo c
ĠSar ah
Â ©
ol as
pos er
Ġgre y
ap ps
Ð ±
Ġh istogram
G H
Own Property
N OS
Ġg ift
ev a
Ġoccup ation
Ġvalid ity
Ġis lands
ĠR PC
ĠH it
Ġsingular ity
Ġfor g
Ġst ating
D ot
ĠM I
cal c
//////////////////////////////// ////////////////////////////////
Ġ[ {
19 05
ĠCal cul
ĠL ower
Ġemploy ee
moment um
' ):
Ġnot ify
ĠParamet er
ro d
Ġ[- ]
Ġt ied
ĠNor wegian
ĠUk rainian
ynchron ous
Ġcommit ment
reg ex
bur st
Ġdr ift
ĠInf antry
it on
Ġre ception
ĠS pect
18 90
Ġelse where
Vis ibility
v g
T ensor
f und
ĠR elease
// ----------------------------------------------------------------
Ġb ag
ĠF ast
qu ark
ot ions
ĠCON DITION
Ġscul pt
Ġro se
rb an
ĠM aur
ĠC ache
Ġj e
12 6
R M
ĠArgent ina
à ¦
ĠAl liance
sl ider
Ġperfect ly
bo y
St yles
che ll
R ound
ĠTur kish
P icker
ment ioned
Aug ust
De ep
ellect ual
Ġpopular ity
St ation
go al
sc opy
mem Item
Ġindic ator
append Child
su it
Ġtarget ed
Ġrest ored
h skip
ä¸ Ń
m issions
. -
Ġan ten
R atio
App ly
Ġpass phrase
Ref lection
ĠG O
ĠS cript
Any Ref
Ġinj uries
b ibli
MP L
ĠIndones ia
Cal cul
Example s
Ġt ank
Ġpay ments
Data Source
}} -
Ġim plications
Ġconsist ed
Ġprotocol s
à ¬
ĠM icro
Ġg arden
std err
Ġhon est
correspond ing
r in
cor por
Ġ' ')
ĠD ak
top rule
ĠM ut
Ġinter faces
ĠMem ory
Ġcons iders
ail and
az a
g c
ĠInst agram
Rep resent
Ġmov ements
B lob
Ġmetall icity
Ġreal ize
Ġc ited
Ġx si
Ġroy al
r k
un stable
to LowerCase
U ntil
Ġb eta
Ġst adium
ĠV AR
ĠSim ilar
lad esh
to Equal
Ġle x
Ġcaref ul
Ġuniqu ely
Ġreli ef
ĠE ss
Ġinv oked
Ġpain ter
s ender
quant um
Ġreg ulations
Ġ\\ [
For ce
Ġperm itted
Ã «
ĠB ou
ĠT otal
Sports people
S ol
Ġp c
N U
ĠP L
Ġradi i
ĠC ra
Ġaccur ately
ĠN ag
C ookie
Ġaim ed
Ġs occer
Ġqu bit
Ġ( #
ĠW ard
Ġbeaut y
_ [
Ġ{ })
ĠU P
@ {}
m ate
ĠS pr
equ ate
ĠMalays ia
Ġpl astic
+ |
li ed
ĠBAS IS
semb les
. ]
x rightarrow
Ġint u
Ġours elves
. :
est imate
ĠAtt ribute
H istor
ram a
re strict
ĠM ol
Form er
orient ation
Ġevery where
B er
scal ar
Constit uency
conf irm
` :
Ġfriend ly
ĠH ills
grad ed
V A
Ass ign
Ġris ks
Ġw elcome
ĠD allas
\| _{\
re ma
Ġhor ror
ial s
ĠTrans itional
u ce
pan ic
Ġf ro
M or
if est
Ġ} .
big oplus
Ġcomp ound
ĠSe attle
Y ea
ain ing
her ence
16 9
ĠPortug al
Ġmet ers
ple d
Ġsup pressed
ĠL anc
pol ar
Ġor ange
" </
cat Desc
Ġfound ing
Ġrecogn ize
ĠAl an
ĠC M
z ier
ur se
m outh
Reg istration
ĠK az
Dat aset
Ġhom omorphism
S yn
eq q
writ ing
ĠEar l
d w
i u
Ġover come
Ġorient ed
Ġgen es
}} +\
Ġco in
ist ol
ĠGal actic
Ġmod ifications
op ing
es a
Ġman ually
) }^
Ġso ph
Ġtem por
B as
Ġ\, .
im inated
ĠNav al
External Project
row th
ch annels
Ġob st
] >
Ġear liest
ia h
Pro c
stat ement
ap olis
C at
L and
ĠEv ents
Ġdeploy ed
Al ignment
n ecess
Ġdiver gence
ĠWe bsite
}}\ ,
Par cel
olt z
font s
L arge
ool s
ar ound
un its
bal ance
over lay
ow s
em a
Ġconver ge
set Attribute
ĠPr ice
ĠF red
ĠCONDITION S
and al
ĠAl low
Ġregular ization
vis ibility
^{ {\
Ġmanif olds
[ _
] -->
ĠP ract
art z
19 07
iss ance
Ġatt ach
Ġguarant ees
; ,
J uly
Ġ( `
pack et
ĠLim ited
Ġtalk s
ĠInst all
ĠDub lin
Ġprint ed
Ent ries
ĠSt orage
Ġar med
Ġfin ishing
Ġhand les
Ġcomp ile
Ġal ive
cur ve
Ġfund ed
Ġtim ing
ĠPortug uese
ĠP si
}. $
CH AN
="# ">
sh aped
Ġdev oted
:: $
ĠM ess
Recorded Vote
sp ir
R IGHT
render er
ĠF ern
ĠThe ory
S at
ĠP erm
Ġarr anged
ad just
f ather
Ġcontinu ously
G raphics
ME SSAGE
Ġmod uli
ĠC ell
Ġd ol
Ġprodu cers
ec ycle
az el
ĠSch olar
ĠM agn
ĠHon or
_{ (\
Ġground s
hy thm
ĠPhys ics
d al
Ġp ushed
Ġsub div
}) }\
ĠCom b
99 9
um ann
Ġcaref ully
Ġhealth care
tern oon
Ġmill ions
Ġo ct
ĠD CHECK
Ġann ih
ple t
J ack
ore l
ay an
sp ot
19 06
og a
Ġbeh alf
be ing
Requ ire
conv ex
ĠU TC
Ġdual ity
Ġem otional
C ert
V ill
Ġsens ors
Ġsummar ized
Ġsynt hesis
Ph ase
\ ":
x e
ĠP i
Ġgrad ually
ĠEx change
INST ANCE
clus ively
Back end
Ġvis iting
an ies
Ġsynchron ized
ĠCh airman
ĠC V
ener ate
Ġun usual
in burgh
Su ite
e ctions
19 09
Ġte ch
Valid ate
wall paper
Ġg rap
Custom er
ug u
å Ľ
tab End
ĠY e
Ġmot ivated
sub scription
Ã§ Ã£o
ĠJ ason
ym an
ĠSchool s
M N
compar ison
ĠI ce
ĠC av
An notations
id ges
ĠPro of
P TED
umul ative
ĠMc G
Ġsup press
() ]
Add itional
bad ge
Ġachiev es
form ula
ĠSing h
or ce
ĠP aper
od ox
Ġs outheast
LE V
ancell ationToken
Part s
Ġdoll ars
---- -
om ing
Icon Error
pos able
ĠR ab
OPT ION
Ġpri ze
Willi am
enc er
F ROM
h n
ĠA UT
text style
comm ut
T ick
Ġrel ating
Gener ate
Ġd ump
G D
---- ---
Ġmoder ate
ĠW H
ĠW ait
G F
Ġcor rel
ĠAss oci
Ġarch ive
__ _
14 5
ĠNC AA
Ġm i
Per cent
------------ -
g tr
ĠS ide
Ġscript s
Ġf asc
ĠUp per
ĠStud ios
war z
ĠM organ
ĠN ic
Ġencour age
ĠThom pson
pos als
Ġs itting
Ġemer ging
W W
ĠP ope
ĠMiss issippi
Ġon click
P K
Ġun lock
ĠKe ep
Ind eed
ĠLaw rence
ĠL L
ĠStud ent
ĠW as
elf are
pt s
Status Code
ĠD epend
Ġcap ability
Ġfilter ed
q a
ĠK ur
ps hire
ge om
Ġcl ause
ra ctions
ĠM ars
Exp and
end ment
O s
Ġann iversary
P DF
Ġsub stitut
Ġc urrency
(" -
ĠV egas
Ġch urches
pre view
at ches
. &
ĠCh ampions
or acle
14 7
ex isting
Comple tion
Warn ings
ĠS yntax
big gl
ĠLouis iana
Ġferm ions
Ġcard inal
ĠP ho
Ġe at
erg i
comp atible
ĠE val
ĠOper a
ilt y
Ac adem
Ġsustain able
Ġany where
ĠHar vard
A lex
Ġbe ach
re ach
ĠP H
RO W
' (\
ĠN ature
ht bp
Ġex haust
gu ard
ĠS ave
Ind ian
Ġoff ensive
v ectors
ĠM ission
N ING
Ġdemonstr ates
ĠC lose
av ia
L ie
Ġex clude
ess ment
bound ary
ĠCom ment
ĠComput er
123 45
ĠB egin
dat as
table s
level and
ĠJ osh
Ġcr icket
manif old
Ġg ang
ĠSt ill
Ġlong est
Ġc ogn
tra ined
dec oration
atern ion
ĠMar shall
st roke
Ġpar ity
F W
Al bum
Ġg lyph
Ġ" ./
ĠBay esian
[ {\
ĠF al
post s
Ġexam ined
Ġem issions
ge on
work er
Ġlabor atory
IconError Encoded
) /\
13 2
ĠAb d
ĠR y
ur ities
Ġfranch ise
L uc
dis ambiguation
Ġhistor ian
ik es
ĠH old
): =\
ĠU l
}$ $
est im
cent ral
Ġhomot opy
ĠB ody
}} ;
Ġprof it
Ġt elling
BUIL D
Ġh ired
}] $
Ġport folio
Ġinform ed
ĠF un
Ġchild hood
> ');
enc il
Ġsur prise
DOCK ED
EN CE
Ġ ../
the se
Ġtw elve
Ġcook ie
R outer
fig s
Con struct
Ġrot ational
H ide
ĠR ule
Ġspec ifies
\\ \
min imum
Rece ive
ĠBul g
11 11
Ġphys ically
Ġman aging
Ġad s
Ġin aug
vious ly
Ġglob ally
r ides
Ñ İ
Ġstrugg le
Oct ober
/ $
ĠMov ie
In line
] _
Ġw rapped
B orn
ĠNig eria
M ilitary
Ġagric ultural
Ġflux es
Di agram
Rober t
M ot
Ġre write
) ~\
ĠI ron
Ġenjoy ed
'' .
th in
13 6
d g
ites pace
Ġins ights
Ġexcit ing
St d
FR AME
High light
TH ER
Ġcommission ed
Ġt ennis
Ġpro ud
estab lished
ĠZ one
** *
Pr iv
Ġcomp atibility
ne e
Ġsurv ive
amer as
M ount
V IEW
en z
ac ef
pert urb
ĠG ray
ious ly
ĠBelg ium
ĠNAS A
ĠB etween
Con clusion
Ġ/ .
y c
* {-
Browser Detector
pro port
ĠB uff
ĠB art
Ġcompet ing
tog ether
iv ities
Ġ Ø§
Ġch amber
Ġre tained
Ġdis crep
Ġa ired
å ¯
Ġm ir
Ġ' ../
custom er
Tele vision
st retch
Ġdem ands
umin ate
Ġs ectors
Ġcharacter ization
ĠCommon wealth
ubern etes
x r
. ');
leg end
Ġinterpol ation
play back
ĠAng el
Ġ. /
Ġcontrad ict
ĠProt ocol
ĠM eta
ĠJ uan
Ġhead ing
Ġorgan isation
sh ots
Ġthem es
col ors
cor relation
T ake
Ġsk ill
re ts
ĠH um
R oman
ular ity
ĠW i
ĠT yp
ĠA udio
Ġpe ers
iver pool
Ġp a
ĠCro at
Ġcompet itions
ĠSet tings
T om
User name
ĠExample s
ĠInd ustry
AME TER
- $\
Ġquant itative
big gr
Ġgr adients
NotFound Exception
Ġst em
d ale
Ġvict im
Ġattract ive
Ġthous and
Ġdevelop er
ĠF inn
pol ymer
Ġsuff ix
Ġt ill
ĠS chema
19 04
Ġadapt ive
Ang le
ph abet
Ġun likely
k ip
set length
Ġsing ers
ĠT F
" }
P ad
hen g
Are Equal
Ġrep air
Ġr c
o j
Ġt ension
W ho
for ge
rel ax
Ġcommut ative
Ġp our
Ġrepresent atives
build ing
ĠS ho
s ymmetric
16 5
spect or
ir ates
Ġf est
Ġnucle i
Ġdispl acement
elect ron
cur r
g ue
Ġc oding
oth s
st ri
ĠR oom
et ter
Ġperm it
ĠMc K
Ġcompl aint
ĠB ud
ĠAd ams
Rel ation
ĠB rowser
Vari ables
Ġcomput ations
Ġrecord ings
linked ExternalProject
Ġaccord ance
h ai
ol ate
ĠB ull
ĠCh art
R ay
is i
item pty
P ACK
ĠAdd ed
Ġtrans it
Ġcar rier
af ka
Ġintrodu ces
Ġsup ern
al tern
ĠM ET
out ube
size of
ĠHistor ical
ĠC emetery
On line
Ġar ising
Ġmet res
l st
ĠL ane
ov o
Ġsent ences
ĠM eg
z es
ĠSam uel
om itempty
Ġ( ,
For ward
Not able
pay ment
ĠSu ccess
An n
Ġsup plement
ĠMat hemat
Ġisot ropic
inv oke
window s
r ically
Ġcancel led
qu is
ĠP ref
. âĢĻ
cast le
ĠBit coin
u ke
Ġres idence
ĠDen mark
Ġremark able
( []
ev ens
Ġbeli eves
Ġdeep er
Us ed
re newcommand
er en
ol ished
ĠDr ive
Cred entials
linkedExternalProject Path
xFFFF FFFF
sp i
De cember
Ġth orough
if rame
Ġke V
Ġtrigger ed
sl f
read crum
Ġlist eners
r ans
ĠR ank
/ '
) ~
S en
Ġrel ay
C over
Ġeng agement
Ġsing ing
em bedd
Co ins
NE W
Ġl t
Ġcomp ress
Pro du
Ġdig it
it atively
Ã Ĺ
Ġam big
Ġpoint ing
Ġassert ion
Ġ\| _{
Ã ¦
Ġag rees
i ph
sw ap
dest ination
Open Tl
ĠP atri
ĠBru ce
Ġj unior
F oundation
ĠG ET
Ġde als
Ġen forcement
}] \
ĠSm art
co ordinate
ĠK ings
Ġelectric ity
U int
Ġspirit ual
ĠP eters
=" <?
Ġgu idelines
ĠA pr
G old
W alk
ĠT ar
Ġaltern ate
Ġre ign
Ġph osph
n pm
o ft
Ġg raphics
ill o
ĠSh ar
Ġ( <
Ġl ots
Ġtr uck
ĠP uerto
tex tarea
Ġful fill
Ġnarr ative
ĠJ e
+ $
ĠN othing
Ġmy th
Back up
Ġv ic
Ġobserv ing
Ġcon front
mark er
r ag
Ġreflect s
Ġhash Code
m illion
urs ive
- }
Ġl ambda
ass et
ĠS ymbol
Ġout standing
Ġwe aring
c ence
Ġflex ible
Ġto x
ia o
K EN
ĠS ymfony
ch t
ĠB uck
ĠCon tact
Ġmode led
Ġpaint ings
ev ing
ĠPe ace
Ġca usal
it ure
ĠU tah
}} }}
y arn
/ #
Ġrep orter
Ġdeg rad
Ġt all
Ġsearch ing
im er
E t
ĠF oot
log ic
Ġfol k
S B
ack ets
Ġaware ness
Ġimprov es
× Ļ
Ġsecret ary
Ġst ops
ĠTh er
idel ity
ĠQ String
33 3
default s
ĠVer ify
c py
ACCE PTED
Sub scription
AT URE
TO DO
ĠD IS
ug s
Un able
per formance
Allow ed
ul ates
Ġcons ensus
N ested
ĠE dd
Ġgu ys
Ġf abric
ĠE N
thread s
H ard
br acket
ĠG alaxy
Opt im
abs olute
ĠS peed
place holder
ĠĠĠĠ ĉ
Ġent reprene
Ġgovern ments
Ġden ied
list ing
ĠL ocation
Ġwh ilst
DE LETE
ÑĢ Ð°Ð
grad uate
sh ifts
AP PLICATION
Ġtro uble
or us
App Compat
Ġtouch down
C tx
30 4
Ġsimpl er
Ġconjug ate
}, \\
Ġf ixture
Equal To
Ġaver aging
Ġresid ential
ĠTE ST
Ġas semb
Ġperson ality
ĠRuss ell
lic t
ĠU SE
x ref
Ġcut ting
ĠN BA
el n
ĠCar ter
Ġpars ing
ĠMo z
y aml
Ġfor cing
p od
List eners
oxy gen
ĠF L
2 60
ĠH ave
ĠPri x
Ġs oul
input s
re ply
Ġwire less
Ġrecip ient
Ġdip ole
Ġdelay ed
P ars
Ġ- &
15 5
ĠSO FTWARE
Ġkey board
ĠTra il
Ġn ations
Comp are
Ġcritic ism
ac les
ĠP ad
ield s
Ġmer ely
list ed
ĠS ac
gtr sim
1 19
bottom rule
ĠI o
Ġ(! (
Ġgen re
itar ian
C op
ul u
ĠQue bec
type param
S PE
Ġext inction
Ġsym plectic
claim ed
Ġmeaning ful
Ġkw args
que e
bat im
s leep
* >(
ĠStud ents
screens aver
ĠS NR
Ġret ro
$ =
ct l
ack now
reg istry
Ġcap s
ĠD ATA
ĠPart ners
Ġcar ries
ĠPal ace
ple s
ij k
Ġprelim inary
Ġant ib
ĠH ero
Res earch
Ġsk ew
col head
fe e
st ock
LE NGTH
ĠÂ ·
Ġpublish er
Ġb ird
ĠAn na
Se ptember
G l
Ġqu arks
ew ise
ow ed
Ġtext s
Ġtem plates
ĠB log
ĠF ixed
yst yle
im eter
Ġfe es
SU B
}} _\
I r
Ġh ack
Initial ize
n io
Ð¾Ð ´
ĠBill board
x ilinx
d h
Ġinter pre
Ġb io
Ġt issue
Ġt ube
MA KE
le ans
ĠC u
ele g
cell color
HO ST
Ġmaintain ing
var pi
* .
Ġiniti ative
ĠIm perial
Ġcouple s
File System
ĠL INE
Ġrot ating
ĠÐ ·
ĠW ol
BY TE
Ġdecre ased
Ġvar ied
Ġz ip
miss ing
Ġas ks
ERT Y
s and
n est
to kens
Pro duction
ĠCon stitution
pon t
sw er
ex press
re verse
Ġs weet
uff le
Ġcour ts
MS earch
J ac
2 25
d yn
T oday
Ġrac ial
ro oms
ey er
A ud
Ġexponential ly
Im g
A W
ĠN ation
L ater
ĠR ain
F oo
ĠPublish ing
Ġatt orney
Ġp s
Ġ! !
Ġnucle us
ex clude
ĠI M
ĠChrist opher
v r
Ġfilter ing
tr as
Ġstr at
loc als
Nov ember
Ġd ating
PREF IX
In cre
Ġtr ig
Oper and
ĠT el
Ġgeodes ic
Ġpass age
EX PORT
sm art
B LOCK
ĠCol omb
ĠC HE
Ġpul led
pe er
d eb
ĠĠĠĠĠĠĠĠ čĊ
âĢĻ .
for ced
Ġer g
Ġadvers arial
il o
Ġsl ide
eg u
ick en
ĠEx pect
Ġan not
m is
Ġnot ably
& +
âĢĻ ,
us ive
k u
ĠA st
ĠDec l
rol led
n or
ĠD id
Ġfra ud
qu er
ĠBr and
ĠVis ual
Â ·
ĠN N
ass ador
ĠIN T
Ġill ness
Ġt ub
Sc ott
bibli ograph
SET TING
Th m
ed a
olv ement
Head ing
et ics
Ġarrang ement
>: ]<
ĠT an
ĠB oot
iv ia
re ements
12 34
Ġrank s
Ass ignment
}^{ *
pre vent
Ġdec ode
ort on
win ning
W IT
Ġswitch ing
Fore ign
ĠEd inburgh
it ations
15 00
Ġtw ist
s outh
bibliograph ystyle
Ġeth nic
job s
st mt
au er
Ġp sy
ir able
resize box
F ar
N il
Ġsusp ended
cknow ledge
> -
Per formance
ĠPh D
ig s
Ð¾Ð ¼
Ġholid ay
ĠE lectric
Ġm ild
Ġre putation
ĠL ess
ĠInter face
Ġstr uck
^* (\
ĠCo oper
ĠH ope
ag greg
Ġrem arks
Rec ip
CL I
ĠEnvironment al
19 01
C lip
Ġident ities
ĠPro tection
****** /
sl ot
Ġpl acement
Ġt ough
ur istic
dis c
Ġhead ed
Ġstr ange
ĠHel p
n orth
oc y
ĠE M
p q
R o
Ġcompan ion
Ġdiv ide
] }\
p read
Ġs pr
g ui
b idden
ist ency
B etween
Ġt iny
Ġdi agnostic
Ind icator
ĠKn ight
Ġl oader
PT ION
CO M
Ġsole ly
std lib
ou p
Ġharm ony
Ġgr an
ĠDet erm
ĠBatt alion
ac ew
Ġsurround ed
INS ERT
12 9
ĠRequ ired
ĠRel ations
Ġh ist
Ġen velope
add EventListener
ĉĉĉĉĉ Ċ
ĠF i
Cl ub
g ra
Al tern
is p
R ussian
Ġimpress ive
Event Args
be at
Ġv ibr
Ġt ie
enez uel
Ġp reference
Ġd jango
Ġf ract
ĠAg reement
Ġprov ing
). $$
ĠCon structor
H ex
ï ¿
* >
hen e
Ġcelebr ated
19 02
Ġadj oint
s By
re ports
19 03
Ġcontribut ing
Ġcoinc ides
C s
ĠP ic
ffff ff
ĠC ancer
ĠCl uster
x l
iss ible
' })
<? >
em ed
q t
Ġm k
sub str
ĠV ert
Ġback ward
Ġthought s
ĠH ell
ĠR ub
Ġev olved
13 4
LA S
CD ATA
Ġc f
ĠAp pro
ok a
oper ating
F ootball
ĠTh ailand
Ġathlet es
ĠBrazil ian
AR K
0 10
Ġreview ed
Meta Data
Conn ector
m ot
spec ies
Ġfin ance
m und
c odes
ĠCommun ications
pie ce
led g
ĠStew art
å º
pub lished
Ġencounter ed
ĠAg ent
Ġdam aged
$ }\
Ġb om
Pl us
ĠIn it
ĠSaf ety
Ġste am
Ġvari eties
00 3
or ry
ou ver
h uman
Ġstart up
^{ *}
Ġf lood
Te chn
Ġb lob
ĠE rr
($ _
or bit
ĠPr imary
CC CC
ĠN an
ec on
remove Class
T s
qu o
ĠD ance
}, $
G re
en berg
ĠMin or
Author ization
serial ize
| }{\
ac ies
Ġcut off
control s
Ġ} (
)$ $
G s
ĠM ak
Write Line
ine a
Ġrestaur ants
ph oto
P reference
ups ilon
Y M
ĠCol lections
Ġsus cept
Ga ussian
v p
ik ing
ĠS ample
an ne
Ġprofession als
S pring
LO B
13 7
ig g
Ġbound ing
Ġscreen ing
ĠCh amber
. [
Ġ' $
ĠP in
Off icial
Ġlock ed
O rient
ĠBr anch
Ġgu ests
Ġsimpl ify
Ġshop ping
ĠC er
der iv
ĠAn aly
F lor
Ġdiff ers
ud son
Ġher itage
Ġland ing
ĠLiber al
ĠKenn edy
ĠE D
Ã© n
Ġb le
Ġsp ins
ĠK ir
ĠY et
Ġsimple st
L F
Dis abled
cos ystem
ed ition
j amin
æ ī
ĠT itle
âĶĢ âĶĢ
Ġpro c
T ARGET
Ġpri est
Ġmar ine
Ġcontr ary
Ġnot iced
ĠDev ice
Ġg ates
comm ands
Ġcontract s
ĠDel hi
å ¼
ĠCh allenge
ĠAd vis
Ġn eck
ĠB ab
com press
ught ers
Ġco res
b an
cos ity
Ġdevelop ments
Ġrad ical
abil istic
) ?
ĠG il
loc ations
Ġ[ (
Ġp index
Ġh ill
fef efe
ate ful
Ġinnov ative
iffer ential
Over lay
Ġdifficult ies
Ġadvant ages
ĠIn s
ĠO UT
Un mar
Un lock
NO TE
Ġsurn ame
Ġt act
ĠArk ansas
th reshold
Th reshold
Ġcomb in
o ct
ĠW right
Ġfl ush
Ġas ymmetry
ĠUn like
it r
Ġph arm
Ġdet ectors
ĠN ormal
Ġappoint ment
ĠFreder ick
og raphics
}$ ),
C MD
ish ment
Ġbehavi ors
ca pture
Def ined
Ġjud g
Ġqu ote
Ġt et
ĠWith in
T ITLE
Capt ure
ĠWel sh
Ġc ss
Ġshe l
Request s
Ġasymptot ically
em ale
Ġsch olars
">( </
Ġpair ing
7 50
}) :
AR B
Fr ag
Ġamong st
ĠDep uty
ph al
Ġcomp ounds
ob a
ĠTrans action
NR AS
ĠC oul
ĠP un
Ġext ensively
Ġax es
Ġel igible
m ers
Ġch ampions
Ð ³
ex ist
K K
q ed
V P
NOS CRIPT
Ġconnect ivity
az ines
df s
help ers
Ġfacilit ate
Ġreg ulation
Ġdegener ate
DI RECT
ĠK on
a verage
Ġsp ark
15 2
Ġa stro
Ġc able
ĠBut ton
Mod ules
Ġw et
ĠPitt sburgh
Ø ³
Ġs el
ust ed
Ġform ats
TH E
Ġco ffee
f air
}} }{\
u u
ĠW ind
LIN K
u art
g ro
ĠDis play
un ning
Ġinhabit ants
ĠD ie
Ġreconstruct ed
Ġal cohol
ext ract
Ġinter vention
Ext ended
(" <
nav Bar
our t
m ates
up les
Ġw arr
iv ot
en h
sp ark
ht b
Ġ ÑĤ
re ng
ĠB aker
vers ions
16 6
tem plates
ig roup
S heet
em en
H idden
Ġvari ational
iv an
18 80
Art icle
Ġconsider ations
Ġsim ulate
ĠIP v
St mt
F ast
String s
Ġno isy
Ġ utils
h ydro
ag h
=" ./
ĠSt ars
Ġplan es
Ġex clusively
Ġoptim ize
ĠB S
ĠTest s
erv ation
ÐµÐ½ Ð¸
DB LP
}} ^{(
Ġp ic
Ġs le
em p
, }
Ġdev iations
b eq
Ġb ubble
Ġstop ping
Ġmid field
ĠS creen
Ġhighlight ed
Ġre try
get Key
colon eqq
H int
em bed
Ġposs ibilities
ath ers
om on
Ġb one
ĠF actory
Fr ont
ĠCent ury
Tog gle
corpor ated
ĠIm ages
ĠJon athan
ĠLie utenant
( <
Ġweap on
ĠG ulf
Ġencour aged
ĠL LC
}} )\
at z
ext ended
ĠMatthe w
U Int
Ã ½
ĠFin ance
ĠAss istant
att en
Ġapproxim ations
ist r
Ġm eth
14 3
Ġaf ternoon
Ġactiv ated
ĠBrig ade
Ġfrag ments
MA IN
2 64
Ġm as
C odes
ocom ple
ä¸ Ģ
M ASK
ĠTra vel
Ġsurv ived
Ġinstrument al
- {\
Ġback end
pot ent
Ġsup plies
Ġinsert ed
Ġan omaly
){ $
Ġlog o
ĠB ed
urs ing
Ġgr am
]{ ./
ĠSh im
Ġhighlight s
ĠW ik
ĠLink ed
Ġf illing
ĠG on
ĠLank a
, </
Ġm ilit
mo ke
Ġ ions
ad os
Ġel iminated
Ġpriv ile
ĠSh ah
represent ation
ad j
Ġg allery
Ġinfer red
Ġ(! $
Ġper ception
Ġsuff ering
Ġdisap pe
E mitter
Ġo mitted
ĠN ep
we ets
ĠForm at
Ġexception al
H I
}. $$
Ġsequ el
Ap is
ĠSt orm
ĠĠĠĠĠĠĠĠĠĠĠĠĠĠĠĠĠĠĠĠĠĠĠĠĠĠĠĠĠĠĠĠ ĠĠĠĠĠĠĠĠĠĠ
raz y
Ġf ishing
ol ation
Ġpark ing
G UI
V T
ay er
ok u
ĠO THER
Ġcast le
ĠBang ladesh
ĠD anish
F s
ĠGener ate
Ġcorrect ed
] ^{\
lev ant
Ġport s
Ġleg s
Ġpod cast
Ġrecommend ations
++ ++
Ġqu bits
Ġread ily
I EEE
ĠTe V
l attice
\' {
fail ure
v b
}$ :
Ġmethod ology
Ġselect ing
c g
ok ia
Part ial
FLA GS
ĠU pon
å Į
he art
Ġh at
Ġâ ĨĴ
} `
Ġs lic
op les
ĠMa ine
Ġr ub
g mail
Ġcall er
Ġmoment a
Ġsum s
th a
Ġpart ly
Ġorgan ic
Ġemer ged
car ousel
D ash
F ake
n r
Ġover head
Ret ry
ĠGra ham
Ġintegr ate
ĠFin land
M argin
Ġhyp ers
m esh
ĠCamp bell
ĠCon vention
Comple ted
numer ic
~ {\
ĠK it
const ants
Rece iver
ĠC I
date picker
e igen
t own
ĠRob inson
Ġco operation
Ġj uris
Ġrare ly
S cheduler
Ġbl ind
Ġmonth ly
ĠBroad cast
Ġneur ons
ĠS K
Ġrobust ness
ÃŃ n
bor ough
ĠM ach
Ġw ides
ĠN elson
Ġoccur ring
Ġfarm ers
LO AT
H M
Ġestablish ing
fold ing
Ġb rows
ĠSt yle
ac l
'' '
ĠSen ator
G ateway
Ġpro jections
Ġsub stitute
ĠJ enn
ane an
Ġgain s
I BU
ĠRef orm
Ġdog s
Ġgrad ed
}} ^\
Ġex ec
Ġeng age
ĠMor ris
ĠFrank lin
ĠK an
ass ociated
Ġneighbor ing
ĠRepublic ans
Pr imitive
vis ual
pre tty
Ġvis its
Link ed
Work s
as ide
Ġult ra
sc atter
Ġa xi
L aw
Ġph rase
Ġobtain s
;" |
EN C
Ġdist urb
Vari ant
Ġabs ent
Ġl ying
ĠMay be
Ġcurrent s
ĠT alk
erm al
ab ases
( $\
ĠT s
Ġel abor
Ġreason ing
ĠN am
ĠMet ro
Ġlogarith mic
c ours
^ *}
Ġc c
exception s
Ġt ar
re ject
Ġpl enty
log ical
ĠCh ern
get Text
Ġdwar f
K ing
P ur
Ġin set
Cal led
Named Cell
ĠAdv anced
-> {
Act or
User Agent
add er
A mazon
ĠT ig
Ġob lig
Ã³ w
ak ov
ĠPriv acy
m ade
Ġcoinc ide
Ġlimit ation
ĠTog ether
F our
Ġp overty
e lection
ur ring
ĠTh row
Ġtra p
Ġsuff er
s il
Ġred und
ect ive
last ic
Ġtr ick
Ġd f
per ience
Ġ' </
phys ics
lot te
ĠW olf
ENT ER
m ixed
{ }\
ĠCl inton
Ġz eros
omin ations
ĠCov id
ĠL iving
}{ !
Ġsp iral
ĠA qu
Rec ords
ĠT rib
B a
c rit
Perm issions
ĠW a
Type Name
graph s
c amp
ĠD etails
Sh ift
x t
S ocial
S IGN
l ag
Ġs nap
am ar
CON ST
an Ã§
ĠB ound
Ġelimin ate
ĠR and
H a
20 2
Col lector
Ġinter active
R oom
Un ion
Ġaccomp any
ĠBalt imore
( ",
r ative
Br anch
ĠNO TE
^^ ^^
Ġoccasion ally
Ġst y
Ġflow ers
Dis c
| {\
Ġa cknowledge
UP DATE
ur u
load s
Ġtransform s
navBar Cell
n od
Ġdis ag
ĠL en
Ġd uties
Reg ular
Ġres ign
TR A
H ol
duc ational
prop ri
Ġdest ruction
La unch
og s
Ġsingular ities
U TE
Ġlong itudinal
is ible
ĠPol y
Ġphot ometric
> /
Ġto g
l ists
ĠWar ren
Ġreal ization
M ur
Ġw el
comp ass
Ġsh a
ĠComm ons
Ġout break
Ġadjust ed
neut ral
Ġnon trivial
Ġed iting
ĠElement ary
al one
Ġd ose
class v
q view
Ġpo em
Ġcy ber
f ollowing
Ġcont our
ĠMar ie
Ġsuccess or
Ġintegr ating
Ġpred omin
Ġconsider ably
ab ol
ĠRE G
Dem o
Ġdis appoint
Ġretri eved
Ġpay ing
Ñ Ħ
ath y
St ates
ĠCred it
al ter
"> "
Ġjud ges
Filter Database
Ġm g
Ġequival ently
ĠJud ge
ï¿ ½
Ġ" ")
r ac
mon itor
ĠRog er
Ġknow ing
ic ulture
Ġfem in
LEV EL
irm ingham
oc on
Ġpart itions
Ġadd itive
Ġsubstant ially
Ġsevent h
ĠM ack
Ġn m
Ġs urre
Ġcalcul ating
00 4
k r
us c
E ST
ric ane
ĠI MP
iss a
man aged
Ġwebs ites
Pr incipal
SD L
> ';
tr an
Ġdiv isor
m art
Ġh ub
ache l
ing e
Ġind ustries
c url
ĠH O
3 75
om ed
s an
\ @
ĠL iverpool
ĠM ountains
eg e
ĠW oman
Ġop am
Ġs cre
Comm ands
ĠGu y
cos h
ĠEv ans
Ġcharacter ize
He ap
Ġenhance ment
vers ely
14 6
ĠR F
Ġab b
' }(
ĠA ST
ĠA WS
Ġim per
Ġwind s
T ur
Rev ision
Ġd ash
f ers
. ),
ĠCon tainer
ar us
ĠMov ement
ĠVal ues
ĠK i
av g
ĠAdd itional
un i
ĠÃ ī
Serial izable
}= -
Ġcur r
Ġs ick
class ical
A fr
ĠS erv
fl ash
Ġ$ ("#
ĠF err
Dis patcher
}) +
d ynamics
F ee
ĠS ER
ĠR aw
ĠD im
hom ogeneous
H orizontal
Ġecc entric
the mes
Ġinv olvement
Key board
ĠC ensus
ĠInter est
Ġimpact s
Ġst ick
ĠHam pshire
Ġloc omot
ob e
ĠBern ard
). $
ĠDocument ation
ĠD ays
Ġinterview s
Ġr uling
anc ouver
ĠModel s
c atalog
Con figure
Ġf irms
G AN
L if
15 1
Ġen zym
Ġmod ular
Ġacqu ire
mys ql
od ic
="../../../../ ../../../../
Ġimplement ing
m usic
ĠS ql
lay ers
Vert ical
ed ges
Ġimplement ations
Ġste ep
Des cribe
g auge
sec ure
FO RE
Ġreg istry
Max imum
v t
Ġapproxim ated
Ġgovern ed
20 8
ak en
ĠMont real
ĠPort land
Ġinter rupt
ĠSp irit
ĠOr chestra
P a
Ġs am
I FI
success ful
ism atch
13 3
ch arts
ĠM enu
Ġbal anced
ph inx
Ġinter fer
Pred icate
ĠY u
V S
ry ing
Ġpred icate
h ibernate
s it
E r
ij ing
ĠNot es
Ġgener ations
Ġdocument ed
e V
ĠV a
ĠR at
Ġb es
Ġforest s
Az ure
Ġdef ence
EX P
ĠG ary
Î º
Ġ )\
ĠW allet
che m
Ġillustr ates
Ġbus y
flow s
)} =\
Ġevalu ating
ab atic
Ġm illis
B oot
Ġmod elling
aren cy
R P
)) =
Ġepoch s
Ġid s
Ġcor ners
weight ed
Ġradi ative
ĠV iol
riter ion
Comple x
Th an
ĠMean while
}) ^{-
B K
ĠR u
Ġneutr inos
Ġcor onavirus
ĠStan ley
ag ation
b id
re z
Sub mit
ĠChar lie
Ġsold ier
Error Code
p ine
ro v
Ġ ib
ĠPol itical
Ġsh ots
Ġstructure d
\" {
) },\
Ġrom antic
att ices
Ġc ul
Ġsp ots
fin ity
Ġpi pe
Ġsem antics
* {\
ĠH ind
In clude
Ġaccess ed
im o
> =
et ype
18 98
"> Â
D s
analy tics
Ġv it
ĠComm ander
Ġtr aces
M LE
h int
port folio
ĠSt ein
é ĩ
le ad
im ag
H ot
ll ll
ĠMag ic
ik o
Ġthe ater
Ġbre ast
s napshot
Ġneg lect
à ®
Ġev il
18 97
Ġco arse
Ġtog gle
Ġel der
M X
Ge orge
Ġmount ed
ĠT oy
w x
13 8
ĠN ames
Ġcr imes
Den ominator
rav is
> ";
ĠJ u
Ġjournal ists
Ġ( );
Ġconc aten
b rew
m itt
Ex pl
IBU TE
Ġs aving
pr ison
13 1
Ġent ers
Ġbranch ing
hat tan
M NRAS
Ġsupport ers
Ġs ad
xim ity
---- --
S ink
l ift
sl ashed
et erm
Ġvis itor
Ġpat ent
Ke ep
re ck
an on
}} /
Ġaccept able
Ġregular ity
ĠValue Error
Perm alink
Ġan onymous
ĠBe at
is an
Ġbas ically
gener ation
ĠL HC
conf irmed
Fe bruary
S to
Ġattract ed
Ġt ort
Ġcons ent
ĠAz ure
20 3
Ġtra v
Ġaccept ance
Ġc ameras
ett i
ĠSet ting
Ġpreced ing
h ub
integ ration
period ic
ext ends
Ġdepart ure
q s
la h
ass y
2 11
ĠAnd y
Ġdialog ue
Ġsports people
Ġannounce ment
e eq
ich let
Ġinvestig ations
Ġsil ent
ĠMic hel
Ġp ad
Qu estion
ĠH end
ĠOr leans
PAR AMETER
Ġweak er
T w
equ e
di agonal
Ġart istic
Ġf atal
G ed
ast ro
Ġfr ustr
ĠC leveland
æĸ ĩ
ĉ ĠĠĠĠĠĠĠĠĠĠĠ
ĠM yst
Y P
Ġwed ding
Thread ing
Art ifact
En code
Ġgr ants
ĠMar vel
ĠMarg aret
Ap pearance
PO INT
ĠM ind
ĠBrook lyn
Ġsear ches
ĠĠĠĠĠĠĠĠĠĠĠĠĠĠĠĠĠĠĠĠĠĠĠĠĠĠĠĠĠĠĠĠ ĠĠĠĠĠĠĠĠĠĠĠĠĠĠĠĠĠĠĠĠĠĠĠ
Ġcal ibr
Ġocc urrence
ĠĠĠĠĠĠĠĠĠĠĠĠĠĠ Ċ
I o
ord ination
Ġl os
_{ |
ĠFig s
Ġpreserv es
Ġvess el
Ġ= ================================================================
ĠAtt orney
Ġun changed
Ġsign atures
å °
Ġwides pread
ĠQ t
ĠMur ray
Ġres igned
Log ging
ĠM aj
* (
Ġs ake
bm p
Ġb undles
ĠP attern
ĠLeg end
æĺ ¯
is co
m ne
reed y
ĠCom pute
. ";
i ology
ĠT ower
Im p
Ġad mit
}) }{
Japan ese
Ð Ł
H F
ens en
get Property
pers istence
Ä Ł
la unch
Ġl ux
ĠD J
Ġr um
18 99
ĠP aram
Ġleg it
ĠBro thers
ĠC OP
Ġmolec ule
L U
Ġg ay
ĠComple x
ic it
ke ley
m ill
r te
Ġtrans ient
prob ability
Linear Layout
Ġcancell ation
Input s
Q R
Ġdiagn osis
p seud
ĠIN TO
ĠS olar
Ġ" --
c ious
ĠTam il
Ġven ues
Ġsynd rome
ĠR ace
Ġarg v
Ġdeep ly
ĠD ocker
Ġutil ized
ĠGP U
max imum
' ^
Ġcl er
{- }
ĠERR OR
et on
Ġvess els
ĠPr incess
Ġres ident
Ġcontext s
Ġsummar ize
ĠS ex
Inst ances
sat z
ĠF ont
V IS
ĠP sych
Ġdro ps
Ġutil ize
Â ®
Ġim pose
Ġmem brane
Prot otype
Ġch at
ĠMP s
Ġd owntown
G W
ID ENT
Ġhapp ening
spect rum
algorithm ic
Ġrepeated ly
uk a
Ã µ
ĠI an
ĠS ay
Ġg enu
Ġatmos pheric
w al
sc ar
car bon
Ġg rain
CON NECT
d ied
? }
sl ug
Cre ation
F ilters
ograph er
se ek
ĠHun ter
Ġadvent ure
sup ports
ĠCHE CK
D J
ĠF loat
Ġenc rypted
Ġif f
Ġun e
Ġtax es
ag ar
v ing
ĠEd ge
Ġsqu ared
E nergy
ĠA LL
as ant
ut o
C AC
20 4
ĠV I
eta iled
ĠEn try
Ġcyl inder
Ex press
F un
m ess
ol en
product s
oc c
Event Handler
ĠJim my
): =
ĠC rown
ĠSa udi
å į
0 100
Ġ' {
g ow
tic les
p ip
bit coin
ĠP arent
Ġas c
ĠK os
Ġbre ath
Ġan notations
Ġinit iated
F ollow
ĠB R
RET URN
p ick
Ġo prot
ĠA x
Ġbutton s
Ġcolon ial
or ship
ib bean
Ar n
Ġent hus
Cl osed
Ġvort ex
( @"
ĠFish er
ir s
Ġintegr ity
Ġin ert
Ġdef inite
Ġens uring
Ġturbul ence
ĠC lean
Loc ator
bor ne
T OP
ploy ee
if le
cor r
] \\
ĠCom ics
UM ENT
l ishes
Ġstay ed
Ġs olv
ĠA pi
= </
Ġattempt ing
' "
rot ation
N EL
ĠN ar
ĠMon th
ĠP ast
h um
Ġ= &
Ġfeel ings
l brace
Ġconstruct ing
Cho ice
w hel
Ġcolle agues
ce q
ĠP D
ĠClass ic
Ġra ising
Ġcred its
g b
ĠFor um
Ġrespond ed
Ġp tr
or ate
ĠR T
LE N
cri ptions
ç ½
Ġactress es
C ss
14 9
=" {
MA G
V R
Ġm ountains
ĠCirc uit
Ġmulti plic
Fil ename
á ¹
ĠO cc
Att empt
h m
Ġb orders
ĠAfghan istan
ĠT ob
ser if
Ġpo les
Ġcom ed
ĠAr n
B ot
Ġg od
ace ae
equ ilibrium
ĠAlf red
usal em
Ġaff airs
CL U
Rec ent
sin h
Ġinvari ants
E lem
Ġspeak ers
Ġar rows
Ð°Ð »
ĠF light
18 70
20 5
ev t
m achine
Image View
Ġrout ing
15 7
ift y
Ġdescri ptions
add on
B tn
ĠR ing
Ġhas n
ac iÃ³n
int ent
Ġd ots
ĠF IX
ocomple te
it ime
Ġkil omet
ĠP rior
acknow ledg
ins ula
ester day
ĠCOL SPAN
ĠC ass
Me V
Ġserious ly
Ġqual itative
uc lear
ĠTem plate
ĠK u
rest ore
ĠWork ing
ĠL IMIT
ĠJ ess
? )
N s
Ġmot ivation
Ġd w
ĠOver all
ol ia
ĠU rban
] ];
ĠB lood
Ġsu icide
ley ball
() `
Ġw ake
ĠH R
}) ^{\
Tag Name
Ġup dating
ĠArch ives
}; \
oth y
ĠNet flix
Ġpra ised
A CTION
Pol y
ĠL GBT
Arch ive
4 80
Mat ches
Ġdef erred
Ġkey word
ĠDak ota
ĠUn fortunately
Ġmeas urable
under brace
apt ers
is Array
hand ed
Un its
GRO UP
Ġp t
ĠF alls
Ġse eds
Ġincorpor ate
t le
Ġdyn asty
Ġme at
Ġtrans mitted
struct ures
w b
che str
ĠFac ulty
F H
ĠLabor atory
ĠS ect
th y
Ġcyl ind
Ġf antasy
Pro blem
W C
ĠOper ations
sp er
ĠF reedom
ĠVi enna
k le
copy right
al go
Ġdo ors
Sign al
Ġout door
t cp
ĠEn able
Ġpl ugins
Ġsp oken
ĠSh op
Ġm im
Ġneighbour hood
pend icular
Ġr s
V s
ĠWe yl
Ġarchitect ures
AND LE
av atar
Ġint ense
ent ropy
Ġint ellectual
="../ ..
Ġg aps
l uc
Ġ< ![
ba ij
ĠR io
S un
18 00
Ġll vm
R ad
un ches
re nd
ĠS TR
us k
XML Schema
F IN
yst al
(" [
Link s
sub scri
dis crete
om at
ĠPro blem
0000 000
Ġgl ad
Scale Denominator
St e
Sup plier
Ġminim izing
(" ")]
ĠĠĠĠĠĠĠĠĠĠĠĠĠĠĠĠĠĠĠĠĠĠĠĠĠĠĠĠĠĠĠĠ ĠĠĠĠĠĠĠĠĠĠĠĠ
Ġobject ives
ĠS now
Ġrig id
Ġch ip
s uggest
Ġd ub
Ġtick ets
Ġconf usion
Ġdifferent ly
ĠH H
Ġb oss
Ġsp acing
ST RE
Ġcounter part
Ġin struct
Ġpro posals
ph on
Ġcompar isons
H en
ĠCr ime
h it
Ġad res
has OwnProperty
I ssue
r if
ĠChar acter
h or
ich i
/ :
Ġk ern
OD Y
ĠHung ary
N ever
ĠAust rian
ent ities
ĠU g
pl ots
Re ception
ĠRe yn
Ġ" :
ann es
ers ions
ĠG las
\\ [
ĠAv ailable
Rout ing
P ages
Ġgr ab
ĠÂ §
Ġcampaign s
[ ],
)$ }
Ġdec oding
en kins
ĠPro duction
om ething
ĠB ible
List s
constraint s
imit er
Ġep id
14 8
ĠN ord
T urn
r p
ĠC atal
F ace
Ġhom ology
P in
Ġconj unction
MP TY
Ġloc ality
Ġpurs ue
View Model
n oc
uck er
I MAGE
Ġdec ent
T ON
22 4
Ġsaf ely
mu x
ĠA rena
ĠColl ins
ĠA y
Ã© t
hol m
ĠF act
à¤ ¾
ĠEcon omics
ĠP AR
Draw able
Sim ilar
um per
R NA
Ġreserv oir
Ġarch ae
valid ator
Ġmiss ions
US Y
Red irect
equival ent
Ġle ak
Î ³
err anean
ĠC ategory
break ing
Ġt one
Int o
Ġexceed s
ta ken
ta stic
mar ine
zer baij
ĠO d
ord inary
Ġnormal ize
unt u
Ġi OS
Ġperturb ative
ag i
Ġse q
22 2
Ġspecial ized
Ġ} ));
Ġimag ine
enc oder
ble ms
{ |\
ov ld
ĠM ix
Ġr ivers
ke eper
ith uan
IF Y
Ġrecurs ive
dec om
ĠB illy
Ġbuild s
Ġlight s
Default s
Ġtw in
Ġstri king
og ical
ĠAnd re
}\, ,
ĠB eck
ĠN ear
Ġform ulated
with in
cre ation
Ġ# #
Ġshould n
Ġen abling
Ġconcent rated
ot ypes
Ġviol ent
Ġmulti plicity
ĠPl us
al gebras
olec ular
ĠF ly
) )$,
Ġadapt er
Ġin clusive
Ġcr ack
Ġsl ave
Ġc rown
ertific ates
f iction
Ġs oc
ĠO wn
Im mutable
ĠUn iversal
IP S
b os
Ġparticip ating
depend s
s ized
io let
qu ick
ĠZ hang
h is
ush ing
Ġpers istent
V V
Ġ$\ |\
ĠThe ater
L ev
s aved
Ġsol ver
Ġe cosystem
Ġpower ed
Ġinfra red
Res olution
ÑĢ Ð¸
UN K
n ia
L ONG
ĠÐ ±
Ã¨ re
d iction
Ġshall ow
ri el
Ġdep recated
Ġtw isted
Ġarbitr arily
add itional
Dec ode
Ġscr atch
Ġconstant ly
Ġv ital
ym atrix
Ġcross ed
Ġqu oted
Ġinsp iration
Reg ex
P F
c rypto
Ġm oth
Th omas
Ġconvolution al
ĠNev ada
n x
string ify
Ġcontrovers ial
Ġl ap
ĠM other
is ers
ĠInt elligence
Ġfactor ization
Ġconnect s
Operation Exception
friend ly
Ġrel ate
ĠP resent
Ġven ue
Ġcoast al
Ġhabit at
b v
ot ton
Ġop ponent
$ ^{\
n atural
ĠCh ampion
Ġrefer enced
Ä Ļ
She ll
Ġ{ :
be am
is cal
C ritical
h aw
}$ ~
Check er
ĠH AL
} '$
ĠL ipschitz
ĠOr ange
Ġexist ed
ĠF am
Ġswim ming
necess ary
Ġs pont
Ġdist inction
13 9
Ġwarn ings
r ator
pars ed
Ġt ou
Ġexperiment ally
Ġactiv ist
l iteral
Ġex terior
Ex cel
Ġdep uty
mark et
g as
Ex ec
Ġg all
LI B
h ind
ĠAnn ual
ĠProf essional
ĠC ultural
H o
ĠB esides
40 1
C atalog
Ġcon current
Cap acity
c id
æ ł
ĠMad rid
Ġpaint ed
Rel ations
Sub scri
final s
nt hetic
B in
Î ¯
ĠA rr
ĠN ad
Ged mo
r w
ath on
ĠG round
Ġt orsion
ĠHung arian
ĠGener ic
B ob
Ġhospit als
Ġun w
Comp any
Ù Ĭ
Ġspec im
/ %
18 95
Ġdiv isions
oc hem
Cl one
hl js
+ {\
R educe
Ġap artment
ĠR ole
Cla use
Block Index
uls ion
rec v
Ġpreserv ing
Ġt uning
Ġserial ized
ish ops
Ġdram atic
Ġre ven
Ġadm issible
ĠGL enum
ĠFI LE
Ġachiev ing
NUM BER
ĠB A
Ġle ver
ĠS r
18 96
ic z
Ġfl ights
ber ger
Ġvis cosity
Ġexplo it
Con clusions
ĠMet ropolitan
ĠA f
ĠM ove
ĠRE AD
loc ated
vent ions
ĠZ end
DO WN
Ġplan ar
Ġbeg un
ĠLegisl ative
ĠT aking
Com pute
Ġext rap
Ġthreat ened
get Time
15 6
Ġg olf
}\ )
Block ly
SU PP
Ġmor al
æ İ
C AP
M icro
n P
Ġcon fer
os hi
ĠG as
Ġc fg
ĠM ail
14 2
ĠG ot
Ġdisc ount
c out
x c
ĠP ick
P et
y ellow
Abs olute
ĠTh ings
Ġthere in
w right
chi at
ĠCon struction
keyword s
Ġper pendicular
Ġinflu ences
F G
+ }
ĠD elta
ĠSet up
det ect
ĉĉĉĉĉĉĉĉ ĉĉĉĉ
erm ont
Ġem itted
ĠR ud
ĠTurn er
ars ity
act ivate
ĠIn stance
ĠV M
Add ed
E B
m ine
x f
Start ing
ve led
ĠA ld
Ġvulner able
ĠHawai i
Ġevolution ary
Ġuncer tain
ĠC hel
Europe an
FA I
Ġdetermin ant
L ab
ot he
ĠO il
DE P
up iter
AT T
Ġrefer ring
ĠCommun ist
Ġindex ed
oc o
Ġtravel ing
ym ore
Ġtra vers
Ġsh ipping
Json Property
Ġp ow
tr ation
Suppress Warnings
Ġcelebr ate
harm onic
(' ../
> #
ter min
sect s
abul ary
Ġh older
cont ribs
ac ements
ĠD NS
ĠR L
ĠPl anning
b ast
im edia
Th rows
p romise
Ġh int
Ġdecl ined
Ġin tern
ig inally
Ġsound track
g ulp
50 1
Ġagric ulture
\ `
UM N
th al
O ps
Im plementation
I ce
Ġindu ce
ov ich
Ġgl uon
Co ord
Ġinvert ible
Ġcomple ting
Is Null
F it
ĠU E
ellig ent
define Property
act ing
Ġsudden ly
ĠE li
ac a
is ch
Ġf oss
prov ided
Ġpred ecess
G Hz
ĠP ictures
It alian
pp ers
std out
ri ble
ci pl
ĠPos ition
Å Ħ
it ol
Build ings
Ġquant ization
Ġsw ap
R N
Ġblock chain
ific ant
ous ing
Ġorgan isations
mid t
eg en
ĠB ag
ĠS ED
de ploy
Ġprefer ences
Ġb orrow
Ġd ated
ch rom
char set
Ġjoint ly
qu arter
Q UE
hen s
Ġpop ulated
() "
lo ose
Ġray s
. ).
lo yd
Ġre b
... "
Ġchem istry
A ge
In c
View ById
j p
e ur
Ġbr acket
ĠFr amework
Ġinflu ential
r int
Tool bar
Ġexpert ise
30 1
inner HTML
Tok ens
ĠV enezuel
organ ization
get Current
Ġdist ant
uch i
can onical
an imate
p ure
Ġdes ert
ĠArch ive
: **
oss ible
O W
j q
Ġst ere
ĠB ond
Rot ation
ĠCl ar
15 4
D U
ĠF ine
ĠC arn
ĠSh a
Ġb onds
ĠTechn ical
Â ±
be havior
r brace
ãĤ Ĵ
C U
em ies
ĠB U
ĠClear ly
Ġspeed s
Ġc ous
ĠT u
ĠR M
Ġmanufact urer
Ġdec imal
Ġhand lers
ov al
ĠBroad way
fin ish
str ategy
ID S
P atch
ĠS occer
Ch apter
iv ic
ĠPlan ck
ĠR ugby
Ġadmin ister
ĠE SP
Ġapp endix
ĠAlber ta
Ġautom ated
Read Only
e enth
WARN ING
D ER
Py thon
Ġpack ets
ver batim
eloc ity
ak u
Ġs ock
28 0
Ġal i
ĠR GB
------------ --
a ire
Ġrest oration
Ġking dom
ĠHe ader
æ į
ĠLem mon
| ,
ĠC old
Ġcomple teness
ĠB irmingham
the ir
Ġcont rolling
16 7
ä ¿
Ġ nd
Ġt ract
ĠF ather
Ġaccount ing
ĠAt omic
Ġdis aster
col ogy
Ġtri angles
Sever al
Orient ation
at ially
CON F
inter faces
18 89
Ġcommun icate
ethe less
Ġtack le
geq slant
request s
c nt
ud o
the ore
Ġmass less
Ġend points
Ġsuperv ised
ac re
J ul
ipart ite
TEXT URE
G al
dd ot
il ateral
get Context
ur ious
all ing
U i
Ġmagn itudes
Ġh orses
ĠC ox
ĠPh one
Ġnewsp apers
ap ing
ĠP il
ĠCa uchy
Ġlat ency
ĠMit chell
Ġview ers
print StackTrace
iz a
N Y
Ġsk etch
Ġharm on
Ġdep ression
ĠL ot
ĠScient ific
Ġrender er
ĠCarl os
ĠH orn
uss ia
m or
Ġemphas ize
Ġtri angular
ĠWay ne
ĠC limate
View s
Ġmem orial
ĠR ect
Man aged
Ġdistribut e
Ġboot strap
ĠCoul omb
n ick
ĠRail road
S ender
n f
Pers istent
Ġanomal ous
w heel
ess el
Ġprom oting
Ġthermod ynamic
Ġinject ive
ĠB io
Ġsuggest ions
ĠPho enix
Ġto w
ĠD ise
Ġres ort
M id
Ġpair wise
L ou
Ġreg imes
Ġh opes
if old
] }$
ri ors
ĠPark er
Ġa pt
apt ist
Ġdis pers
Ġw ounded
ĠW u
Ġimport ed
spec ified
ĠLi u
ĠLay out
Ġe V
So ft
Ġn ut
ĠB ron
Ġk pc
ĠCO M
Ġcas ual
ä¸ ª
Ġc pu
Trans l
al ways
Ġstreng then
g res
inc inn
acew atch
b ower
ĠM oney
ĠR acing
Ġmon op
Ġlog s
Ġm u
Ġt weet
on aut
ĠTh or
ĠPh ase
ĠC le
az ard
ĠOrth odox
Ġl iv
)- (
Ġsynt hes
14 1
ha o
h on
ig m
Ap pro
Debug ger
Ġdec ou
cess ion
ev olution
ĠGre ater
IC K
Ġcon sequently
ĠR C
Ġnorth west
j ournal
riz ation
Ġminor ity
Ġf ed
type Name
ĠRoman ia
ç ±
Ġ$ ('.
C li
Ġ" ");
ĠCh ron
[] )
AS C
Ġim prison
Ġcol leges
' }),
Ġconcent rations
IC S
< >(
ĠRead ing
field set
4 000
x ymatrix
Ġh ierarchical
ut er
Ġg ard
Ġprison ers
S ys
Ġexpl oring
Ġany way
18 88
Ġrail road
Ġte lescope
Ġemph asis
Ġsp okes
Ġcount ies
Do es
ĠB urg
W ire
auth ors
cred entials
Ġa fore
Ġblock ed
Exp atriate
ĠF el
ĠForm ula
B and
ĠF ed
_{\ {
C ut
Ġmod ulation
Ġrenormal ization
ĠJer usalem
g ender
Transform er
R en
' </
Ġpre val
Ġliber al
contin uous
et ta
ĠMan hattan
Ġscatter ed
av el
ĠTrans form
Ġred shifts
m otion
ĠR ick
Ġabund ances
ĠO bl
Dis cussion
\ },\
ĠKar l
Ġgather ed
Ġv e
uck ets
is ors
ogene ity
ĠY uk
ST EM
Ġassoci ations
ĠBar bara
Ġact ively
ĠCamp aign
LE FT
ĠInt el
ĠLINE AR
Ġball s
b ie
an ese
c ill
l ater
ĠB asketball
ĠIn cre
sh ake
Ar c
NO WN
Ġcomput ers
ĠAct ivity
Ġbackground s
Pre view
ĠLead er
Ġ âĢĻ
ĠCh air
Ġconserv ed
j j
n om
F at
Ġoscill ation
Ġcon form
Ġwonder ful
sub title
ID s
Ġactiv ists
Ñ ī
Ġg ent
sp ired
ĠBe aut
/ ******/
Ġex tern
Ġt ies
ĠFr ame
ĠConserv ative
â ĪĴ
Ag ain
S uff
ĠExt ension
F re
p ow
ob ar
go og
im ize
dec ay
Ġal phabet
). \
ent o
ĠJ a
ĠÐ ¼
Ġnull able
Ġcontribut es
Ġwalk s
Ġthreat s
18 5
to o
incinn ati
Inv oke
am o
Man ifest
M ont
Ġcap ac
18 60
Not ify
re ction
il ia
other wise
Ġgu ilty
Ġmot ions
it zer
Ġreported ly
Ġint ra
d type
Ġin complete
ĠL arge
Ġg ear
Ġsub mission
:// $
å® ļ
opt er
d ummy
Ġb ishop
ĠB rew
w l
p el
ĠSp acewatch
k an
Ġspec ifying
ĠH ub
Ġr am
Se ason
Ġport ions
av i
Ġbos ons
Ġview ing
Ġt ex
Ġcross es
b ias
Ġmathemat ics
ĠDr ag
W ater
od b
Ġpat ches
s ock
ĠSal v
15 8
ĠThe ore
it les
> ("
Ġsub groups
ĠP ow
ĠJohn ny
? .
f re
to k
og ue
b ay
ac ian
Ġpol ymer
ĠU til
ĠNorm an
ĠKen ya
EQ UAL
ĠMar c
Instance Of
ĠN A
Ġun set
Ġw ra
Ġw atched
ver bose
ast ery
Ġcop ied
H it
Ġelev ation
document ation
Ġaggreg ation
s ound
GEN ER
2 16
y our
Project s
ma ils
j sp
Ġann ually
art icles
ex c
ocor ro
in ery
enc oded
ĠBl ues
Ġcomplex es
t u
Ġt ape
em e
s izing
ĠF P
Ġp ag
Pol itical
! ");
E G
Ġhard er
){ $\
Ġfail ing
ym p
be hav
Ġexam ination
co ins
ĠSh ang
ĠV ancouver
Ġover se
Ġinf ected
ĠL uther
ĠSte el
ĠS TD
ant ine
Ġphot ography
qu iry
A verage
SER VICE
Ġcl othing
Ġc rypto
he ld
ĠIn sert
ĠP T
ĠE mail
m q
Ġ! (
t ies
Ġout lined
class path
lock ed
Ind ices
Phys ical
ĠRes et
Click Listener
ĠSh adow
-------- ---
Ġp unct
b ird
] *
18 92
ĠS ocorro
d raft
Ġ( +
Ä ħ
Ġd amping
Ġfore ground
ĠSt ack
Ġlaw yers
][ <
widget s
Ġcol ored
Ġbro ader
Ġas ide
Type Def
RO P
min or
Th ird
Ġmanufact urers
-- \
min imal
Ġrecommend ation
ĠC el
icult ural
zh ou
in corporated
he ll
G overnment
Ġpredict ive
Ġclaim ing
cover age
ĠT ournament
Ġrev ision
ric ulum
pare n
v ance
M AC
ĠUS B
Ph ot
ĉĉĉ ĠĠĠ
ĠDef ence
an che
Ġatt achment
Ġartifact s
eh icle
cel ona
Ġbirth day
| }\
Ġunder ground
Ġcontrovers y
T own
Ġsat ur
p ent
Equ ation
ORM AL
Ð½ Ð¾
å ĩ
ĠCar ibbean
Inv ocation
s yntax
list en
call s
Ġdeb ugging
ĠN at
SE C
W rong
ĠC arm
ĠRober ts
Ġâ Ĥ¬
li um
Ġd rew
ĠCal led
Ã Ł
assert False
ç± »
Ġafore mentioned
ĠW ing
J ew
ĠI ssue
bar s
On Search
ĠRob in
om o
ĠS even
IS O
â Ħ
Ġres ist
Ġmus cle
Ġkern els
^* _{
ĠSt ories
18 85
GL enum
prevent Default
ĠHigh er
ĠB og
Ġcritic ized
getElement sBy
ĠB ot
)} ;
Ġda ughters
El se
ĠSD SS
Ġl ip
mod es
S printf
ad itional
b usiness
ĠPier re
l if
F ixtures
Ġhost ing
ham mad
ew ay
b asis
Ġorig ins
F IL
ĠI SO
Ġexp ans
sp ort
nt hesis
Ġdat abases
urch ase
ĠF an
math comp
{ })
Or g
B ay
Ġdissip ation
18 91
flu ence
ĠA str
æľ ī
v iol
ĠF leet
' ><
ĠCurrent ly
f itting
Ġa apt
Pub lished
ĠGr an
ĠBe ijing
Ġun clear
s ymmetry
OP EN
writ eln
ĠJ azz
Ġdown stream
ug osl
Ġregul atory
Ġsup pression
ass umption
ĠM ode
mem item
Ġlearn s
Organ ization
ro at
ĠI ss
ĠPro gress
ical s
se ver
umb ent
Ġrem ind
ĠP ush
get Default
ĠSch w
Ġcontact s
Ġfast est
Ġis set
enc ia
C lock
on ian
E F
ann ah
sche dule
Ġcompens ation
Ġde let
Vill ages
) ";
x ff
ĠLine ar
Sm art
Ġident ifies
ĠTH IS
l ceil
ĠAr c
)$ ;
Stud ent
block quote
Ġmask s
r ceil
Ġunder go
dash board
Ġfre ely
Ġs id
Ġtra pped
Ġestim ating
Ġbon us
ĠNaz i
ĠN P
ill ance
ĠInd ians
P references
ĠS ent
Ġanal yst
Ġre ceptor
Ġcomp ressed
ĠM uch
w m
Ġd Ã©
Sp in
ĠChrist ians
}} -\
Rich ard
Ġe ject
ĠH I
pol l
ĠGi ants
18 93
Ġbr ick
Ġ ):
Ġwood en
ĠSaf ari
Ġth irty
Ġrob ots
get Logger
æ ³
arc sec
a ho
r isk
FAI LED
i pt
dot ted
K ar
Ġf lip
ĠG A
Ġover whel
sw ift
al most
Ġcor ruption
set Value
ĠOtt oman
o ys
ra h
15 9
3 30
ier ra
ĠAr gs
^* ,
00 7
So ftware
Ġpolar ized
Ġab road
\% ,
Ġcomfort able
p ared
ĠA the
op edia
Ġc umulative
Ġreli ability
m el
Ġexplos ion
2 12
f ive
Ġafter wards
ĠRuntime Exception
36 5
ĠChar lotte
ĠCat hedral
Ġsh rink
ĠDr agon
ĠL IC
ĠBar ry
{ }{
ĠS ales
Ġintegr able
W D
os ure
lo ating
Ġval ued
Ġsurv iv
-\ !
vari ance
ĠBen jamin
Ġcapt ures
Ġbin aries
ans wer
Ġ\ %
ĠAd S
ĠJos Ã©
ĠD ifferent
Ġp arks
ĠY O
"> #
Ġch ronic
} ],
38 8
scale box
Http Request
}$ &
N F
ĠI de
Ġsoph istic
ĠT ypes
Ġt ensors
Ġp uzz
ĠS id
ĠAs ync
Ġass ass
ult an
ch ing
it us
}}{ (
ĠAss umption
L em
Ġoff line
ref ox
Ġco herence
CO RE
b ash
Ġdo ctors
ĠĠĠĠĠĠĠĠĠĠĠĠĠĠĠĠĠĠĠĠĠĠĠĠĠĠĠĠĠĠĠĠ ĠĠĠĠĠĠĠĠĠĠĠĠĠ
Fr ank
Ġimm un
×Ļ ×
st ars
Ġneg lected
ĠR ES
24 5
Ġengine ers
), \\
Ġuniqu eness
Map s
is se
amer on
Ġt idal
om i
Ġpro tests
Ġescap ed
ĠFI FA
ĠNov a
Ġgr pc
Ġposs ession
ĠTh ank
PRO TO
s al
Ġm a
n at
ĠF ab
G itHub
Ġaccept s
D eb
Ġdr ives
Ġinit With
ĠH aving
ĠC row
pe ated
ĠB right
Ġvic inity
Ġbe er
) _\
Ġpeak ed
ĠMed it
he v
Ġre written
Ġpre t
Com posite
S ens
17 6
Ġut ter
Ġfra ctions
Ġdec ides
scal ing
Sin ergi
Ġs creens
Ġslow er
D K
Ġcol ours
Ġcell ular
ret val
38 4
ir ts
Ġtrunc ated
C riteria
ĠN iger
sh rink
Ġpredict s
NAME SPACE
Ġjav adoc
query Selector
Initial ized
integ ral
erm ark
m itting
Cre ator
observ ed
ĠRef s
ĠT ed
( (\
ĠB row
ĠJ oint
Qu ick
pl ays
position s
d an
Ġa u
Ġgraph ic
Ġconstit uency
P eter
ĠAct or
7 68
}\, .
H K
b readcrum
Ge o
Te X
end l
ĠP ars
Ġ" </
Ġcomment ed
Ġphotograph s
ĠR ural
Ġcallback s
Å Ļ
get Data
Ġan ymore
ãģ Ļ
Ġh ate
ĠR ico
M el
18 94
Rail way
int rodu
Ġsusp ension
ĠAl aska
v anish
ov y
Ġmedi eval
$ ~\
ub a
Ġco aching
-- ;
ch apter
Sample s
ig ue
-------- -
b age
Throw able
ynam ical
ĠN icol
() }
back up
ray s
Ġnumer ic
url s
Ġinv ersion
writ ers
Ġdial ect
if s
amp a
Ġfit ness
t pl
ĠD rop
o auth
el ist
Ġ" (
Ġfail ures
P icture
Ġw ond
sup set
check mark
Ġw rest
Ar row
ĠIran ian
ĠS outheast
map per
Ġcancell ationToken
erv es
TO KEN
Ġturbul ent
D AT
ph ones
Res olve
read able
Ġtransl ations
pl iers
Ġop ponents
Ġcred ited
ĠN BC
Ġsp ell
ĠGu inea
Ġcollect ing
Ġdem o
ĠSer ge
adem ark
Ġcom ics
Ġconflic ts
Ġd type
B ODY
Ġamb ient
ke V
ster dam
l iter
st ad
2 32
b ishop
ĠC BS
ĠM R
ĠQu est
Ġlik es
rav ers
g m
Ġb is
ĠH unt
Ġsurv iving
Ġre nd
ĠVAL UES
)) {
ĠC lick
enn ial
Ġwor ship
ĠAnt i
S pect
15 3
Col lect
Ġ\\ \
file Name
Ġg aming
ĠField s
Ġt une
Ġcheck sum
pl ating
Vis it
cap acity
append ix
W M
ĠE S
B on
Ġcontinu ation
A Y
Ġcharg ing
Ġw ings
ĠStat istics
G allery
ad joint
ve ction
con cept
ĠA dapt
Ġsomew here
feed back
ĠValid ate
Ġnav al
Aut om
Ġrat ings
aut hentication
HEAD ER
ĠA F
fra structure
br aska
ĠM is
Part icle
ĠColon el
Ġc ow
âĢ ĭ
ĠWrit ing
Ġa qu
Ġsouth west
Ġir regular
K B
or able
Ġdif fe
ĠCh i
lip so
DE V
ĠC rit
TR ACE
Ġtoler ance
@{ }}
ĠY am
less ly
Cred it
Ġd edu
Ġg ross
ĠRes erved
PI O
on ing
ar an
Ġprogress ive
Ġshut down
æ Ŀ
Ð½ Ð¸
"> ,</
Ġdimension less
ĠAthlet ic
F LOAT
um i
Ġab ilities
Ġz ones
L y
ex change
A WS
t ap
Ġimm une
as se
ar ms
Represent ation
Ġblock ing
Ø ¨
RE C
Ġfiction al
u ates
=' #
ĠMET H
B ank
Ġend l
Ġaut omorphism
zh ang
Ġcon gress
Ġref ere
Ġconst rain
ĠCatalog ue
AT O
Ġl ung
un ix
ĠPr ad
Ġatt ending
ĠR oot
ĠN L
-> ]
Ġad option
e ing
ĠK ash
Ġstar red
an ian
Ġdemocr acy
ĠS Y
Ġca ption
Ã© r
ĠCond ition
Ġf iring
ĠR out
Ġl azy
ĠT X
L ess
itt en
Ġequ ity
}} }(
18 50
Com bo
W il
Ġh unt
f h
Com ments
Ġauthor ized
Ġdig its
Ġde emed
Leg acy
W F
al ong
con c
E O
Ġs sl
ĠF itz
18 8
read only
log ue
"> '
Ġcompos ers
ĠL if
ĠJ O
Ġmon omial
Ġev olve
J O
Ġ ))
ĠE T
19 3
Z end
Ġsim plic
Ġkit chen
as ia
Ġwavelength s
Ġpl acing
Byte Array
ĠD ialog
Ġinc idents
Cor ollary
A IN
Ġflex ibility
im plies
Ġqual ifying
no align
C ached
ĠSt ra
ĠPerson al
e i
Ġbu ying
] ));
ep he
ilton ian
in ating
Ġlett ing
ãĥ ³
b k
Ġprov incial
Ġle verage
power ed
20 6
Ġsp anning
ogn ition
ĠS z
ĠCl iff
Ġstreng ths
Ġmaxim ize
V oid
i ating
Ġparse Int
ĠK ap
Ph aser
ĠS ax
}= -\
Hel pers
Bu ilt
j dbc
aut om
ĠAlex and
n othing
w y
Ġres cal
ide a
nu cle
Â ½
ĠCont roller
us ually
Ġan ime
> @
)} ]
ĠRiemann ian
We ak
M ad
Ġpre view
ij i
ĠSD K
Ġpremier ed
ĠL ost
al am
Ġn od
Ġiter ative
des cr
Ġmag azines
Ġreg ex
'' $
U INT
work ing
1 200
ĠMax well
Ġin cent
for um
ĠM erc
pl ant
mid i
u o
erv ing
d ater
Ġpo ems
ĠCommission er
C ategories
ĠJ oy
Ġon set
SC A
Ġhun ting
Ġh ang
ĠM ong
ĠM ason
Ġj u
Ġreal m
Ġtum or
la res
ĠBO OL
ic ating
aut hent
co eff
ĠSch r
' /
Ġind igenous
Ġdiscrep ancy
Ġl ingu
ĠP ART
oper ations
incre ment
is Valid
Ġl p
** :
orm s
C am
Ġlight ing
Ġsec ured
Cho ose
Ġver bose
Ġiter ate
ipher al
ah a
Al g
Ġm p
ari ant
ER Y
US A
W ang
Ġch ap
aj a
ĠP FNGL
Ġun safe
Ġdefect s
L ittle
Il legal
ĠLiter ature
ĠD ig
be it
ĠBuff alo
Ġem otion
rev ision
Ġearth qu
Ġgener a
Ġdiscr imination
anc ies
S ta
min a
Ġrev ised
Ġscient ist
ĠSw ift
M u
Ġst er
tes y
ĠH at
Process ing
ĠArch itecture
Ġm ilk
Ġt body
Ġins pection
ĠF riends
ĠSt atic
ĠIter ator
ĠC ob
ĠOl iver
' }{
K M
m bf
Fl ush
Ġgeneral ize
B AD
IN PUT
sup ers
Att achment
su ite
Ġvirt ually
s ites
Ġs z
Ġcomplement ary
in z
r ub
Ġillustr ation
Book s
ĠIn fo
m h
ĠM all
Ġanisot ropy
ĠVin cent
ĠGu id
cell s
r ust
)$ )
|\ ,
ĠEn sure
}: \
CP U
W T
ĠV ent
ĠTh anks
Ġdef in
AB C
k now
che l
S pl
g om
ar ations
ĠB enn
Ġhal os
ĠFl ore
Min imum
Ġcounter parts
Ġcon cludes
T a
P B
ri o
fl are
Ġaffect ing
Dev elop
Ġ\ '
Ġle pt
sh own
SE CON
: @
Ġf ert
Ġexcit ations
ĠB inary
dev elopment
Ð½ Ñĭ
Ġperson ally
Con nected
Ġconduct ivity
) ](
ĠD raft
xx xx
tw ig
Ġingred ients
Ġl n
Ġt ips
WIN DO
Ġcont raction
ĠCom ments
ĠCon v
ĠMedit erranean
S ong
È Ļ
Cla im
Ġdoc s
Ġf aint
Ġliter ally
taint y
A ws
u ator
depend ence
ĠMuslim s
my Item
ĠY ES
ĠPol itics
Rep o
ĠVis it
ĠArab ic
ar ser
match er
ĠC over
Med al
Table Name
or ia
Ġb anned
Mut ex
ĠS ad
Ġmod ulo
L ee
ĠL ex
Ġmut ation
Sm ith
17 4
C OR
Ġoper and
Ġpro ximity
ST O
ex perimental
Ġbr illi
> ',
.\ ]
ĠCo hen
fol k
ĠEgypt ian
Ġprepar ing
Ġmand atory
s ap
etic a
single ton
f ade
^ -\
Ġ] );
d ifference
Ġanaly zing
s ens
hip s
in tr
~~~~~~~~ ~~~~~~~~
Ġchar ity
resh olds
Ġcons cious
ĠB orn
Ch rome
B log
Ġmem ories
Ġi prot
F all
Ġag reements
H uman
Ġt aste
18 7
Ġprint ing
ĠM OD
') ).
Con version
ĠP ra
rec ision
Ġabsor bed
Ġthe sis
ĠW R
ĠWIT H
ĠR V
Ġmain stream
Ġpack ed
Ġpoor ly
ad ies
em in
Ġisol ation
Ġmob ility
size i
Ġch ron
, $$
Ġc rop
[ ];
as List
ĠJ erry
ĠArt ist
ĠSy ria
u cc
) ',
Ġs cheduling
x a
rel ativistic
Ġ iv
../../ ../
ĠâĢ ł
Ġcirc uits
ĠF ail
Ġmot iv
Ġa ster
U k
normal ized
Ġc ube
Ġsp atially
User Id
d ie
source forge
ĠX ml
Ġ& -
ash a
| $.
Bal ance
ca pt
F X
Dis able
Ġas ymmetric
Comput er
s nap
other apy
Ġs ugar
ri x
I J
U r
cont ract
REQ UI
ATTR IBUTE
ĠU SS
ink s
W ild
ou x
ur st
ĠK ol
}), \
Ġgr ateful
ĠDE BUG
Ġm ature
Ġrem n
ra ke
r ab
Sl ider
Neg ative
Ġm os
ss h
Ġaut onomous
Ġcert ified
D ark
g d
Ġarrang ements
00 6
Is ra
Ð ¶
cred ited
ĠSt even
ĠHarr ison
k al
sur ance
Ġterr itories
Ġtempor arily
y ml
17 2
y u
Ġw elfare
23 5
Ġprob abilistic
ĠCra ig
the o
ĠRe ce
Te ch
Ġc inema
Ġproceed s
Ġsh ore
Ġfix ing
. ][]{
AT IVE
Ġlog ged
ĠPro test
ĠLeg al
ch ars
f eld
Ġdebut ed
UL AR
t ls
Ġcom prises
Ġimm igration
18 65
Ex ist
Res ize
Ġbi ke
ĠCont ract
Ġmetall ic
h ls
Ġad i
Cent ral
ĠGL int
ĠImp act
ĠF riend
ĠJ ar
C NN
ot hes
Ġhe ap
Ġdynam ically
ĠG rav
ud ge
ĠFr ances
ĠReyn olds
Ġd uplic
18 75
Ġphil osoph
Ġcon gr
Ġnot ations
ĠH ER
con e
ac ular
ĠK ind
Ġcomm em
Ġsure ly
ĠArab ia
ap k
ĠW restling
ĠRem ote
Ġl as
Ġen force
Ġreson ant
ĠMe chan
ĠGlas gow
Â »
20 9
Ġob sc
ag ain
ol ine
ĠYork shire
Q T
ĠL ud
Ã¡ s
eg ree
la z
andid ates
Ġmagnet ization
(( (
s am
we ights
ç Ľ
ov an
Ġcre ator
off icial
=-=- =-=-
go als
Ġjo ins
n ested
Ġ* */
Ðº Ð°
li ps
Ġkn ot
Ġab ort
Ch ina
âĦ ¢
ĠDer by
18 87
g ot
Opt s
ĠLIC ENSE
Ġd uplicate
Ġi Phone
ĠE mb
C os
W ords
Ġq view
Serial ize
Ġspl its
b ac
l ov
Ġcoun sel
ĠAp pe
f v
Ġa pert
ĠS EC
c ot
ĠA zerbaij
Ġsat uration
ep oint
Ġbary on
ĠS ony
è ¦
en es
ĠDom ain
id ually
Ġv el
or ption
lo ver
Hand lers
= _
ĠS ongs
Ġl ig
Ġcontain ers
m other
U X
clos ing
ĠZ ero
ĠR ele
., ][]{
t odo
ĠBer keley
Ġconstit u
ĠW I
ĠK ay
Ġlabel led
ĠV lad
c in
Ġstat istic
ĠAl ong
Ġ' [
Ġl hs
hook rightarrow
ĠCo al
Pos itive
ĠF u
Ex act
An swer
Ġla ugh
P rior
{ #
ĠM ans
ĠG B
Ġaddition ally
ĠH indu
Ġle pton
Ġburn ing
Ġd ummy
ĠAc cept
h dr
Ġmes on
Ġaccommod ate
pe ak
Ġcont ours
)} }\
Ġvolunte ers
Ġbelief s
Ġcogn itive
ĠT on
F K
l ar
ĠP anel
ĠC ONT
ther mal
Ġaccess key
PROP ERTY
ĠB order
IC AL
Ġdefault Value
Ġsc oped
Ġoscill ator
Ġmin us
Dec or
Eval uation
i ov
jav ase
ĠWAR NING
it ual
o led
ĠD S
ä» ¶
Ġrecru it
ed e
NE SS
ĠDown load
requ ires
ĠĠĠĠĠĠĠĠ ĠĊ
ĠCol lect
Ġpion e
ĠH IV
d ip
Ġp ill
>> >
Ġbut ter
B ul
Ġf d
ĠR angers
s ampling
SE D
Ġoccas ions
Ġfil med
23 4
ĠSo ft
Ġcovari ant
c ott
Ġpro l
IR ST
UT C
p ark
å Ĩ
Ġaccording ly
Ġcoal ition
Rem ark
en ium
ĠB L
ĠG M
Ġe ating
cel and
ut a
Ġdrink ing
over e
CK ET
ĠV el
Ġper ceived
Ġp ace
ĠFig ures
id ency
Ġarchitect ural
Prot os
Ġte a
Ġdiff use
Ġult imate
Ġsub stitution
Non Null
ĠG rey
cor ner
f ixture
ĠK ath
17 8
ĠC ad
ec ker
Ġswit ched
ĠFe atures
Ġle ts
Ġphot ometry
T W
ä¸ į
ĠTre as
datab ind
Ġout going
Ġdist ortion
Ã °
function al
Ġoutper forms
Ġ{ (
Ġcons olid
un ov
Ġinfin itely
ĠM s
comp atibility
ta wa
Start ed
Tra ining
Ġa uction
Ġsh ar
ond o
Number Of
y i
Ġlab our
ĠO B
Ġpass ive
}\ |\
T our
Å Ľ
Ġnom ination
Na N
ĠP aint
ordin ator
Ġc d
Ġset Up
Ġqu art
bul k
he ap
Ġfinal s
Ġj ournals
ast ed
ac cel
Ġtrans mit
Ġc v
ĠT ol
Ġtranslate Y
ĠB achelor
Ġtheore ms
ycl ing
op al
ĠBer g
Ġdoub les
mk dir
ĠA bs
Ġrock s
Ġcrick eters
Ġm ice
ĠBlo om
Ġnorm s
ĠS FR
end um
ĠInd ustrial
dec re
Ġb atter
5 50
ĠIn novation
Ġth umb
Ġact ed
" +
}$ };
ĠDirect ory
ron es
le igh
Inter op
l bl
ent e
un s
ĠDen ver
May be
Ġconv icted
Ġr hythm
Ġdel iber
ogen ic
)) ^
h c
Dis patch
Numer ic
Ġsens ing
atern al
ĠSe an
Ġcomb ines
Ġam id
b is
g ol
Ġess ay
k ill
Ġdifferent iable
spir acy
Ġswe ep
t om
Ġmon ument
ĠJ av
ĠA G
ex istence
ĠSaint s
l v
ass o
ĠCr icket
! )
æ ŀ
Text Field
Ġdepart ments
ib us
ok emon
Ġmod ulus
C hen
he size
estab lish
Ġfoot er
ĠL ate
Ġad equate
Ġpo ison
Ġhypers ur
Ġ[ #
ĠMil an
ĠK el
ac i
ĠV ik
] /
Get String
ĠApp ly
ĠNich olas
ĠE ug
ob tained
count s
Ġs cheduler
expand ed
Ġm oon
ĠF E
ĠNe uro
ĠAR M
Ġstat istically
prom pt
Ġ$ %
ri en
part icles
ĠAdd s
Ġenter prise
Ġvent ure
P ic
al ry
Ġrele g
Ġion ization
} ")
pect ives
Ġen compass
im uth
TH ON
Ġdec k
Le ave
CLI ENT
} ',
al ia
sem i
Ġvo ices
ĠG host
16 4
ie u
ins ky
ĠRich mond
Pres ident
Ġexhib ited
F inder
H aving
AR S
SS M
ine e
List en
T aking
ĠSh ape
Am ong
d og
min i
ĠV oice
ĠPl ugin
ĠL ions
Aut hent
un is
ĠW orth
ĠDir ichlet
stat istics
he els
ĠD ES
Ġ/ \
Ġpre mi
sole te
current Time
host name
Ġelli pt
exp ansion
ĠBar celona
Ġpen et
Lin ux
h b
ĠC ant
match ing
Ġpropag ator
ĠB ird
Ind ent
Ġb ij
ĠEd wards
Ġconduct ing
B ill
}) }{\
Ġd rain
18 86
SE SSION
ĠShe l
}} </
Ġinvestig ating
ĠSp ot
perm alink
ĠI da
ĠM T
C LO
E lect
N i
Null Exception
ink ing
Ġsk i
ĠEn um
Ġindex es
c ock
Le ague
ĠCh and
ibl ings
be zier
Ġpresent ing
Ġcab inet
comp any
Ġabb rev
ĠP le
con tainers
ch anging
itt est
effect s
ing ers
Ġrele vance
ĠPr im
18 64
Ġwarr ant
+ -
Ġparticip ant
ĠSpr ings
Ġt ons
ĠBan ach
st own
ĠK irk
ĠMETH OD
prot oc
N ORMAL
am ine
' ></
amb ers
Ġbusiness man
r ss
Ġfollow ers
Ġe ighth
Ġc ust
^* $.
d eps
ex plicit
(' \
Ġinn ings
int endo
Ġ<!-- [
Ġqu ad
Ġarr ives
att y
Ġu uid
________ ________
var sigma
Ġinter cept
Comp atible
Ġnumer us
Ġfr iction
ĠI van
Ġappro ached
Ġpl ates
ĠM IN
ĠSerb ia
Ġconf ined
ĠM asters
con struction
Ġguitar ist
im ited
Ġpron ounced
Ġcor rupt
@ {\
ĠB orel
B V
E con
Ġs la
Ġb ol
ĠPhys ical
S prite
const rained
\, $
ĠB ear
USE D
) ];
Ġconf ident
f ork
om it
* }\
Ġmorph isms
Ġhypot heses
Sh op
Ġmer chant
Ġgrap hene
pr im
Ġeg gs
Ġreg ret
Ġd inner
ĠP E
s ix
Typ ed
× ª
alth ough
c riteria
y outube
Ġanisot ropic
w r
Ġen emies
ĠColomb ia
es ium
ĠAnd r
n z
B IN
ĠT rain
us hes
ĠM ort
re comm
Ġexpect s
Ġviol in
Ġtreat ments
abet es
ĠP la
Ġanalog ue
0 30
% );
ĠC ut
ĠTig ers
LO T
Ġb t
Q C
W P
pl aced
hib ition
ad vert
Ġcatalog ue
ang led
r ates
Ġbr idges
Play ers
v n
Ġcon dem
Ġbe ams
}{ -
Ġjust ify
le ave
control led
Ġcoll apsed
Th anks
v etica
Ġatt itude
D ays
ĠCON TR
Ġclean up
Ġdon ated
bour g
Ġele ven
. }}
S ir
Ġant is
Ã¶ r
Ðµ Ð»
Ġax ial
Fin ished
g al
Ġl ag
Ġprior i
m eth
hab ilit
Ġs q
Ġcomposition s
im on
Ġfermion ic
æ Ķ
ĠB arr
Ġelect oral
ĠWat son
ĠComple te
R pc
ec raft
ĠPrad esh
S aint
Col ors
ĠP I
ĠCO MM
el ing
OP ER
Ġmyst ery
Content Type
ct ype
ĠC lay
ĠA aron
real m
ĠVari able
Ġt il
!! !!
ĠEV ENT
Ġless ons
Ġreson ances
Cred ential
> ]
Build ing
Ú ©
con sum
Ġt orn
ĠSt evens
Ġb at
C AR
Ġh i
18 61
ĠCirc le
ak ar
Ġconf used
hem atic
s phere
Ġwor ry
ĠBe ing
Ġche st
Ġhon our
Ġdis pute
term inal
Ġr h
ĠCub a
ad ers
ĠH em
ĠGh ana
Ġt m
Ġdi et
App endix
ĠCost a
Ġan satz
eng u
sp arse
Act ual
ĠStat ement
ĠMu hammad
ĠD ynamic
bra ham
ĠM es
K O
N M
g allery
align ment
ĠGener ation
ĠB our
Ġdo i
Ġitem Members
ah l
Ġf ade
her o
ĠJust in
| <
"> .</
Ġchar ter
}$, $\
Ġorgan ised
ow ards
R D
wik ipedia
ĠG arc
approxim ation
Ġh urt
Ġprem ium
P ac
' ')
R ock
at ra
Install ation
ĠR an
ĠL an
ort ex
8 75
6 55
: ]
Check Box
ĠB ir
Ġtranslate X
Ġmort ality
Ġveter an
25 2
ĠB UT
ĠÎ ±
Ġtri ang
Ġbrows ers
arn ess
ĠBr istol
in ja
ĠE ston
Ex change
Ġsurre nder
Ġb unch
ĠMor ning
inherit doc
Ġsophistic ated
ym ph
Ġimm igrants
qu ire
18 81
b h
ĠAthlet ics
dis p
Ġ$ ^
Ġide als
R oles
ot yp
^+ _
TIME OUT
Ĺ ãģ
d up
45 6
n as
ĠSh ared
Ġp ec
ace ut
te in
Ġmain tains
Ġc argo
LE AN
ĠPref ecture
$ ^\
ĠT erry
ON LY
Ġbr ig
ĠFl ag
Ġpl ug
el m
ex e
Ġm anga
ĠS ak
ĠD yn
^ (
act ivation
18 84
CL UD
Ġthe at
Ġb ull
pro per
Ġgold en
SN AP
ĠObject s
.\ ,\
:: _
IT S
Sp anish
play ing
Ġqual ify
Ġdiscuss ing
Ġmunicipal ities
CLUD ING
ĠAl ert
ĠGr ace
ãĤ ¹
Ġspons ored
Ġf ut
Ġcommun e
ĠInt ent
ink owski
sen al
16 2
Ġcor ollary
Ġj oy
ÏĦ Î¿
K im
")) );
"> @
ĠK rist
Ġc ave
Ġprov isions
ĠObserv atory
Mix in
Ġ) );
! }
L ondon
Ġh itting
ĠWar ner
Ġthink s
Ġfight er
ĠG itHub
ne ighbor
aff ected
h istor
ul ous
Ġf id
conver gence
), $
m un
Ġt ent
ĠArt illery
Ġset Timeout
P en
s ensitive
Ġinvest ments
Ġ' )
Ġquant ify
ĠType Error
Ġmer ging
O O
Ġtour ism
B roadcast
ĠEl li
Ġkinem atic
look ing
Ġelev ated
Ġ( ((
Ġaddress ing
W ay
ape ut
å ½
Ġ[ &
ad vant
^+ (
ĠLa ura
Ġbenef icial
ĠB omb
ï¼ ļ
ĠFunction s
Ġscholar ship
iff s
ĠA w
S and
. ')
With in
D u
ĠC incinnati
ĠH ubble
div ider
Ġphys ician
( %
"> :
Ġreason ably
Ġcult ures
Ġwalk ed
Ġreg iment
Ġr ated
Ġr iding
iz ar
Ġtown ship
Ġpaint ers
Ġdel ight
{} %
ĠMur phy
Ġlink ing
} --\
br anes
Ġsent enced
ĠBelg ian
Ġcop per
Ġinject ed
Gr and
ĠMulti ple
Ġ( .
ari ans
Ġfib ers
Ġspectro scopic
ĠPer iod
Ġo mit
Ġmanip ulation
Ġs ax
ĠL ion
th us
ott ing
Ġsuccess ive
ĠJ ama
OUT PUT
normal ize
ĠT ang
ull ivan
Ġsent iment
Ġnav igate
ĠAir lines
ĠAm sterdam
Ġsur prised
ĠEth iop
w ould
Ġun ified
Ġsimultane ous
ĠWh ich
Ġshort est
Ġ@ @
Ġres c
Ġman ages
iv ially
Ġdis put
F atal
20 7
ene ath
Ġsav ings
ĠCustom er
19 4
ert y
Ġrad ar
f illed
é ¡
\!\!\!\! \!\!\!\!
ĠCOP Y
H u
Mar shaller
It s
$ "
v d
="# !"
h im
de leted
In ventory
ĠPer u
reng th
Ġin her
] ",
Ġcon vey
Ġse aled
ĠMont ana
s elling
Ġentreprene ur
att s
H op
oin car
ĠLay er
ĠLar ry
. }.
Con serv
start ed
ĠDi amond
as pect
oc co
Suff ix
ĠB ass
Circ le
ĠC MB
ĠP el
Ġtra veled
Ut ility
' }}
add y
ĠPh arm
ĠTransport ation
k el
p aint
ĠH udson
>& #
ĠW E
asc ular
Ð¾Ð º
Ġaccompl ished
ĠFinn ish
y ield
as ci
, &
ĠEd it
Ġmicro scopic
H ANDLE
SH OT
C u
Ġsem igroup
-- (
Ġfile Name
Ġrom ance
IT ER
Ġadv ances
ĠL ithuan
aw ait
ĠUs ers
Ġcosm ology
J P
ĠQu arter
Rect angle
Ġlegisl ative
Ġfix es
ĠN ak
rele ased
Ġre finement
TH READ
ind a
v ary
rece ive
Ġob s
Ġimplicit ly
Dem ographics
Ġ\ )
ĠS eq
l ua
ĠSus an
end ors
ri zed
ell ers
Im plemented
di amond
lear n
der ived
ah ler
ill ation
Ġ$( {\
open api
et e
ĠB und
18 63
Ġdirect ive
Ġvol can
ĠAb u
i am
ld es
tr uth
access or
ro les
ut ton
ĠL ux
mat ched
_+ $
, +
Ġdes irable
Render ing
proport ion
open ed
Ġ" {
Ġatt raction
Ġbr ackets
\ ;\
Ġp ian
ro e
ä¸ º
ok i
Ġnom inal
Ġportray ed
ov iÄĩ
param ref
ĠKe ith
att achment
Callback s
DE VICE
Cal c
Ġpush ing
F ort
in el
ul in
w so
Ġtimes cale
. {
ĠIn stitut
Char les
)) :
urren ces
rece ived
al bum
Ġm amm
ĠA round
dec oder
Dep artment
ur c
o ons
SE rror
Ġlast ed
ĠNe umann
am y
Ġcompet itors
Ġdraw s
user Id
Track ing
akes pe
W ed
Ġconstit ute
Ġc ad
Ġnon negative
Pro jection
ocr atic
sh ops
r ass
Trans actions
Ġlaw suit
TO OL
vert ices
åľ ¨
=" '
ina e
Ġ// !
ĠV eter
Ġestim ators
Ġshe af
x FF
18 62
STRE AM
J im
ĠL oss
au kee
Academ ic
if th
ĠMark eting
Ġor al
m agnetic
Ġun ve
ix on
AC CESS
Ġs hed
ĠK l
stud y
22 1
m ong
ancell or
CONT ENT
w ere
ass er
ĠGon z
ĠSh aw
- )
ĠNe braska
ĠEag les
Ġincred ible
H ouse
ĠCru z
Ġe leg
Ġt ours
30 2
iter ation
Ġfore ver
Text Box
Ġround ed
pop over
hand lers
Q A
W IDTH
ig ion
Ġacceler ated
AUT H
Ġl iver
ar as
Ġev ac
;& #
Target s
ĠCommun ication
}$, $
LOC ATION
ĠN HL
Ġpro secut
LO CAL
us a
ĠWork ers
Ġst uck
Ġload s
AR GS
Ġannih ilation
sh im
sort ed
16 1
ĠðŁ ĳ
Ġb read
IS H
/ ?
] _{\
Ġaccompany ing
ĠH orse
man ual
3 10
n h
Ġaltern atives
ĠN umer
Hy per
{ -\
ĠCh a
con taining
00 8
Ġj ew
="@ {
M igration
ĠĠĠĠĠĠĠĠĠĠĠĠĠĠĠĠĠĠĠĠĠĠĠĠĠĠĠĠĠĠĠĠ ĠĠĠĠĠĠĠĠĠĠĠĠĠĠ
Doc uments
2 15
STAT IC
Ġiniti atives
ĠGr ade
Ġdefe ating
Ġcomput es
sc apes
Comm un
ĠC OR
ĠCl are
Ġsubstr ate
Ġsh ops
Ġsub graph
Ġmark ers
Ġsepar able
S ensor
b anner
Ġsome how
Ġdis orders
Ġem bed
ah an
40 5
28 8
vanish ing
Ġs ans
Ġrecip ients
// !
ĠMad ison
Ġfluct uation
ĠB uch
ai ro
Tr ansp
Ġimportant ly
di am
ĠSk ip
ever se
inst ances
Ġauthor ization
ĠD od
Ġg alactic
ĠV as
Ġmin isters
Ġsee ks
tr unc
ta king
num bers
GL uint
B ern
ain ter
26 3
\ :
cred it
F ACE
17 3
ĠDist ribution
Ġre cept
}=\ {
ĠC B
ine q
Ġreg isters
rott le
ĠM ade
Ġsymbol ic
Ð°Ð º
$\ %
Ġc ock
Ġd ocker
18 83
urs es
p es
Ġsub spaces
Ġrow span
ĠObserv able
ĠIn iti
ĠT ib
ĠG Hz
ĠPro b
Ch inese
Ġdef ending
,\,\ ,\,\
> ",
Ġon Click
Ġcelebr ation
et ched
View er
Ġby pass
Ġhand ed
W elcome
cl over
Ġyoung est
Ġdomin ate
" <
ol ly
ĠLe ave
Ġprev ents
C y
16 3
Con nections
Ġem p
agon ist
ĠA U
Ġund ers
× Ķ
ĠS olid
b io
ĠC ou
Ġc am
Ġdes erial
Ġalter ed
/ ,
h all
Ġdel ays
ĠDemocr at
Ġl oud
aur us
M ON
Ġh ull
Ġm arch
Ġsl opes
Ġpick s
C ov
}: =\
ĠTro phy
cou pling
ue z
oper ators
Ġ/* !
Through out
ĠO ri
ĠB ug
ential ly
s ided
Ġh ab
ĠÎ ¼
akespe are
L G
chi ev
ĠM otion
)\ |_{
getElementsBy TagName
st ead
Ġrel ates
ĠStan ford
Ġsp ir
ĠGa uss
y ang
Non null
ĠMunicip ality
Ġg em
Depend encies
Ġsumm ation
LOB AL
Grad ient
I LE
eval uate
ĠPar ish
ĠEm pty
Ġlik ed
min o
alt ies
ĠCO MP
ĠBeng al
Ġb if
Ġexp ense
el o
ĠE le
Attr s
ĠB aby
ĠCal endar
PO SE
Pack ages
........ ........
ĠP erry
C Y
ĠG ay
Ex perimental
Ġn ic
Ġroll ing
M acro
Ġf unny
Ġr ab
J ournal
Kn own
Ġcous in
\ ).
ion ic
Ġmon arch
Ġfoot age
J ose
Ġb rew
red is
publish er
er ious
Ġarr iving
Cur ve
17 7
Ġmod est
P TS
it ize
Ġro ster
ĠD P
then Return
M i
ĠThe me
Ġanaly tically
Ġac ute
ĠC ould
Ġtrad itions
Ġt rem
Ġorig inated
Ġ ĉĉ
col s
17 1
MA IL
D N
Ġ... ,
Ġjuris diction
ĠW alt
ĠK err
SP H
P ull
st y
Ġt ale
ĠM N
Ġaccompl ish
WIT H
dr ive
Ra ises
ĠNep al
uck land
Ġl attices
ĠR uby
h ort
}\ {
Ġref ined
Util ities
uff icient
Ġopin ions
ì Ŀ
pe st
Ind ia
Ġacknowled ges
ĠV ermont
ĠAut om
G it
f k
Ġp id
out line
em b
ĠG NU
åı ĸ
ĠMun ich
ent ine
Or d
Ġattack er
Bo ard
Ġshel ter
Ġ ].
Ġbe ating
({ },
ENABLE D
18 82
itro gen
>< ![
r ise
ĠRog ers
P rel
R ew
Ġsl ots
Ġconstit ution
BE GIN
Ġnegot iations
ĠUn ity
ĠNetwork s
Ġob ey
Ġconcept ual
A MS
Ġm eg
C AT
P ak
ĠAgain st
level s
Ġancest or
ĠStr ateg
ĠL oop
ht m
ĠCheck s
A H
Ġ è
op ol
ĠR S
Compar ator
ĠK id
Ġpo ets
Ġgra ins
18 2
acef ul
Ġcent res
has Next
Ġminim ization
Ġchampionship s
ĠAgr iculture
es lint
ĠE sp
ĠK ids
Ġanalog y
sc ience
Produ cer
N EXT
Ġloc als
ĠLu ke
Ġdegener acy
Ġindiv idually
s low
Ġt ens
Ġtrust ed
Trans late
att ention
Ġinvent ory
f lip
sk in
F und
w aukee
Ġpe oples
ĠEx cell
oltz mann
Ġlux ury
> *
Print f
ĠC atherine
mod ern
Ġmart ial
ra f
Ġpath way
Ġexecut or
Ġtrad ed
os cal
ADD RESS
ĠT D
h art
per form
ond e
Ġend emic
Ġpar abolic
Definition s
Ġalloc ate
ĠFil ip
Ġtri be
ĠB in
}\ |_{
row ing
)}\ \
O VER
Ġvisual ization
ĠT S
"> =</
Ġche ap
V ars
ent i
Ġle an
Ð¾Ð ±
Ġal arm
Al umni
). </
Ġtarget ing
ĠE ld
ĠConf eder
Ġoverl apping
ĠÃ Ĺ
ĠForm er
Ġc odec
Mod ify
ĠCre ative
ĠGuard ian
am pton
Ġbo ards
ĠÐ °
P V
z ens
Ġc ascade
ĠQu estion
Pub Key
Get ter
64 0
{- .
t ec
ĠV ic
Ġfro zen
ĠP OST
get Parent
met er
Ġdecor ated
ĠProp Types
ab br
ĠL ik
ĠQu ick
ĠCont emporary
Alloc ator
ĠY ugosl
Ġam ateur
Ġd ans
ĠStr ategy
Ġpet ition
S el
Ġp b
ĠB ath
ĠAP Is
Ġr ice
part icular
Prof essional
ĠV ery
Ġsatell ites
M AT
ĠBut ler
Ġprom ised
ra ining
ulf illed
Ġh o
Ad just
æĹ ¶
el rte
Ġdistinct ive
ĠT ensor
ĠS alt
Ġcitiz en
Ġn ons
um m
Doc s
Album s
Ġin ches
Rec ently
Ã ī
LE X
Ġcle ared
Ġun a
Ġcont amination
ĠVictor ian
R V
, [
Ġen orm
sq cup
H ierarchy
Ġbe an
Ġsearch Box
Ġdu o
ator ies
R ing
re try
Ġpremi ere
z t
a qu
ĠR ivers
inherit Doc
ĠJ oin
Ġsmooth ing
initial ized
Christ ian
n ut
Ġb less
ĠS DL
f req
Ġ= =====
ĠCh anges
ĠConserv ation
Ġmonot onic
Con d
Ġg fx
raph ic
Ġv i
Ġ' --
tele phony
Ï ī
40 3
j as
st raction
Ġaud iences
B IND
ĠE asy
d ns
l abeled
ĠFile s
Ġlo ose
ĠB eyond
log s
im an
iz za
am ation
id y
ĠA DD
;\;\ ;\;\
ĠHy per
ldes igner
Ġbo ats
ĠTerr itory
ĠM ari
ĠH z
N an
Con struction
dim ensions
ĠUs age
Ġspread ing
Ġanten na
ps y
Ġshould er
Ġt ribute
ĠC ome
ĠB B
Ġport al
ack er
Des erial
dis cussion
ĠPlan et
Ġsh ield
)} +
cel ldesigner
Ġrevers ed
Ġarg c
Ġpsych ological
D to
ĠWeek ly
Ġspectro scopy
22 6
' _{\
c ould
" &
Ġexp edition
\% .
osp el
Ã± a
r vert
L ex
ĠK ate
Ġ/** <
Th rift
ĠCan al
ĠK un
charg ed
land o
la ze
g rey
Out come
commut ative
calcul ate
Ġt anks
ĠM ann
Tr ust
Dis covery
Ġrecogn ised
Ä Ľ
67 8
Ġinfe ctions
l vert
ĠStr ong
hom epage
ĠL is
ĠSch warz
OFF SET
J MS
27 5
k b
Ġm appings
ĠY ellow
L ove
Ð¾Ð ³
k pc
^* $,
j ab
Gr ant
ĠChristian ity
ĠOpt im
ĠF iction
ĠAnt ar
ĠAuth ors
) ]{
Ġcon ce
ap or
Ġtra iling
ç½ ®
ĠCour se
Ġfor k
ĠS ources
ac ute
LE ASE
ĠB aptist
ĠE lection
Ġoffset s
condition al
F OS
Or Empty
ĠDevelop er
å ¾
Ġs addle
ĠL ov
ard i
ĠT es
Ġ* **
ĠGr ass
Ġcol ony
6 50
State Exception
Ġassign ments
ovak ia
ĠJeff erson
thumb nail
Ġpre st
anc ers
H i
Ġ( âĢľ
Ġag gressive
ĠDes cribe
ĠHug hes
Ġbacter ia
s chool
At Index
Ġyield ing
Ġbar riers
Ġmist ake
R X
Ġdetect ing
F ish
Y ES
re cent
60 1
CA SE
C as
ĠR idge
ĠCo ach
ex periment
Att rib
Ù ģ
est imated
te enth
18 4
comm unity
Ġ} ^{
ĠFil ms
Ġcombin atorial
00 000
fer m
Ġinter change
Ġc amps
Ġnot ions
ĠSt ef
se v
Ġoff ense
Ġcount ed
ab ic
it ic
âĢ¦ ]
Ġpul ses
... ,
reg istration
Ġcheck point
Ġavoid ed
ĠSu z
m orph
^* )
su cc
ĠHol land
$ ]
ĠD L
ark er
ĠPalest inian
c ro
} ')
Ġ) {
18 76
aaaa aaaa
Ġ& =\
}^ -
th lete
Ġhop ing
. \,
ual ity
es c
P OL
Ġnucle on
ens on
/ [
s cheduler
ĠA SC
inc eton
Ġconfirm ation
ert on
illa ume
ĠH ob
author ized
- %
Ġa ws
ĠL S
Ġnew er
Ġbeh ave
get User
omb re
View port
over rightarrow
Work ing
G reat
cn fn
ĠĠĠĠĠĠĠĠĠĠĠĠĠĠĠĠ ĠĠĠĠĠĠĠĠĊ
Phys Rev
? ,
Ġgu ided
ĠAn imation
ish a
3 80
m ur
triangle q
G ap
Ġform atted
Ð¸ Ñģ
v ac
Ġle ase
ĠIn surance
plic a
ĠSh are
é Ļ
des cribed
fe ction
ĠST AT
pro files
De ployment
isen berg
D am
ĠS ustain
Ġsp o
ĠEn cycl
Ġpract ition
c H
oth ic
xi ety
Q CD
Ad S
Ġver b
Ġcardinal ity
Log ical
18 67
ĠC urt
en os
ĠCons ult
ingu ished
Ġbos onic
cont rollers
ĠN g
Ġeng aging
Ġfavour ite
}$ \\
"> )</
ne z
Ġ` --
re search
Ġf p
e lected
ĠLu is
ĠHash Set
big cap
dist ributed
ĠPhilli ps
Ġglyph icon
und a
Ġv in
ĠM ask
rec ords
$ _\
Ġown s
Ġprogram mes
Ġbi ased
d B
ĠMin i
h orn
tensor flow
V L
al an
Ġpers u
Ġcryst all
Ġlift ed
ĠArray s
yn man
Ġfall back
Ġhook s
ĠTr inity
Ġconduct or
ol ph
ĠRepresent ative
FAIL URE
m igr
ĠL loyd
Ent ities
n able
duc ing
YY YY
Ġgather ing
Ġox id
Ġ} }</
min is
æį ®
b w
ĠM ER
Ġun used
18 78
ĠSh ip
ĠB orough
b uffers
Ġtrad itionally
track s
ob server
Ġ* _
Ġexplain ing
ĠR ules
Fr ance
$/ .
Ġtermin ology
ĠCom merce
AD DR
res olver
================ ========
Ġfest ivals
b ours
in struction
Ġindic ation
Ġecon omics
Ġw restling
uzz y
ĠN athan
Att ach
Ġinf ect
] ],
Rep ublic
dig it
ĠS ans
ĠSt ri
print s
P LAY
R oyal
j l
Ġa er
ĠWik ipedia
ap on
Action Bar
Ġlater al
Ġstat ue
Ġal ien
Ġmillis econds
Ġsuperconduct ing
ĠR G
b az
Ġassess ed
D ead
Ġsh aped
Î ®
ĠInd igenous
¼ </
Over flow
rob ust
utr ition
Person nel
7 20
T witter
UB LE
z ig
IG H
ĠTh under
V ir
ap propri
azel cast
ĠðŁĳ ¼</
ĠT IM
Ġ" \"
Ad s
M Q
Ġch ances
I ss
ĠCon n
transp arent
B uffers
E MPTY
s amp
Al ready
Qu est
Par allel
Ġaugment ed
online cite
N ear
y t
in en
Ġy esterday
p ane
pe x
Ġres ume
Ġcomputational ly
F iction
im i
ĠNe il
Ġinc idence
AX B
ĠSe lection
ME TA
re li
Ġten ant
ĠI BM
Ġdismiss ed
Ġbroadcast ing
bootstrap cdn
ra ils
amb le
ĠBro ther
0 25
b right
2 14
Ġemploy ing
ĠN R
Ġhistor ians
Ġev t
ĠAn imal
Ġb ay
") ).
Ġsubt le
Ġar cs
ĠEnter prise
Ġastr onom
F acebook
Ð ¡
Up dates
ĠM PI
ĠE L
ash ing
\\ %
fe at
Comb ining
at ility
ch ro
Ġj ury
Ġstrong est
Ġped est
Ġn ominations
% ">
ĠW es
ela ide
A RE
sec ution
Button s
pro posal
Spec ific
ro gate
v ation
ost ream
Ġthrough put
æ Ń
sk a
18 9
play ers
Ġsc iences
itt ers
Contin ue
Ġst ays
}{ .
Ġprom ises
ĠMathemat ics
N AL
Ġsur jective
Ġbank ing
Ġprec ip
Ġv iable
Ġj umps
ĠQuant um
pro jection
Ġtri bes
At omic
U IT
22 8
ag le
ĠI celand
M Hz
ĠHe avy
m atter
ĠM az
ĠAl pha
get C
ugg ed
Ġinv ocation
ide al
ĠE u
Ġfaith ful
ĠM M
Ġl oves
parent s
Ġseem ingly
or on
ĠSerb ian
ĠW riter
Ġf ires
Wh ich
ĠR oll
ro utes
For Key
ĠF BI
ĠRec ently
Ġr pc
U ng
Ġclass ify
hen ce
Ġed itors
Ġretri eval
Ġul tr
CONT RO
Ġst olen
ĠL isa
Ġind oor
SNAP SHOT
c ub
Ġra ises
3 25
ĠU ri
Ġ\ ,\,
ch r
Ð¾ ÑĤ
ufact urer
Ï Į
Ġn ose
pl iance
ro bot
Ġdim in
- .
on er
å ·
22 7
struct ured
ĠCamp us
ĠF LA
N B
int roduction
Un expected
Observ able
> {{
L u
Ã ĥ
Ġtra its
Tool tip
ĠU UID
fo od
suff ix
ben ius
ec ca
17 9
Det ection
qu bit
vers ation
Ġin ev
und o
ĠFe ed
br ack
ur d
Z ip
Char Field
photon ui
Ġex iting
orange hill
ĠR av
orangehill dev
M ale
}) \\
)$ :
Ġwork shop
raw ler
Ġvar s
") ),
ĠHerm itian
Ġgl u
Ġfib re
Ġavoid ing
ĠS equence
j ac
ten ant
SY S
Ġ ë
late x
Ġener get
Ġst ret
ital ic
Ġten ure
Clear ly
Ġare na
8 50
Buffer ed
Ġinn oc
18 68
Ġag enda
Ġelse if
List View
ĠK in
Ġcl othes
ubb les
tt ify
Ġtra iler
S equ
Ġplay offs
Ġspher es
ĠC ameron
Ġmet abol
Ġt ear
Ġa est
Ġpat rol
tim ing
Ġadi abatic
Ġcor por
G I
ĠDis covery
v dash
press ure
ĠCla im
ĠSym phony
b ane
st udio
Ġn u
22 9
Serial ized
hook s
C ycle
e ither
ĠR oche
e asy
Ġas ynchronous
ME DI
] "
am plit
, %
Ġconvers ations
st ed
Ġdomin ates
Ġas h
18 74
Ġco at
Ġfarm ing
/ @
Dis pose
18 3
Ġpredict ing
: $
J av
h alo
v et
ĠC MD
ĠG olf
r ases
re load
ĠCon sumer
so ftware
Ð½ Ð°
Ġv iral
}, -
Ġevery day
comple tion
Ġqu ota
) }}{
Ġmet als
Â Ń
US H
Ġparliament ary
r ors
Ġbar rel
Ġst iff
ĠG ene
Ġwidth s
D X
P rem
ish i
Ġoverse as
ĠC amera
G er
bi ased
dig est
Sl ide
Newton soft
ĠMe asure
Ġt uned
ep och
Ġhard ly
border ed
ĠLead ership
ann i
rupted Exception
Ġacknowled ged
ĠE state
K P
s af
in ced
ĠR osen
Ġex ponents
und ef
Ġpredomin antly
Ġ* =
res on
ĠAv iation
pol ynomial
De leted
Ġemer ge
ĠEp isode
Ġsuperv ision
AR M
alloc ate
3 40
') [
Ad minist
Ð Ĵ
Ġmer ch
ĠDefault s
ĠEx ecute
Ġt ap
St amp
Ġassist ed
Ġb er
Ġhar vest
Ġsubt ract
k ers
ĠE R
ourn aments
Ġpar as
Spec ify
q p
set Name
im ple
Ġanticip ated
M ah
Te V
Ġdemonstr ation
EN S
assert Raises
ph ant
)} +\
Byte String
}} %
Ġbi ology
um bo
Ġutil izing
r age
plement ary
ps frag
Mon o
im als
air y
Ġtim eline
Ġs olves
ĠBet ter
ĠFellow ship
cm id
perm issions
p rior
un iversal
ri eve
filter ed
S uggest
Ġup stream
Ġdead line
ĠObl ast
Ðµ Ð¼
19 1
ĠW onder
ge ometric
pre ced
>{ @
] ,\
me ans
Ġdig est
he e
Ġsp y
Ġparamet ric
H AL
az i
Ġmuseum s
ĠBu ilt
Ġeigen states
ev ille
direct ive
r ont
Ġr ally
icy cle
DE C
Ġdesign ing
ist le
ĠS oul
ĠTreat y
Ġart illery
Second ary
by e
Ġe u
Ġgram mar
M n
ä ¼
ere k
Ġ*/ ;
Ġcomp ares
d ed
ĠC itiz
18 77
Key Value
E u
iv ar
ĠR ou
FIL TER
L int
Ġ Ñĥ
18 79
math rel
Ġpr icing
Ġspeak s
Ġf t
K w
ocol ate
Ġb uffers
IN X
Ġapproach ing
j ud
18 1
Ðº Ð¸
ra ins
ec a
ĠÐ½ Ð°
Ġcl arity
reg ions
M gr
Ġrandom ized
ĠQual ity
å Ģ
ĠB eth
Ġhe ll
Ġrec i
M ULT
ĠM W
ĠShang hai
C AN
H aw
m iral
Ġst reak
Ġgenu ine
ĠR ah
x d
-- ">
ĠO m
Ġwork flow
Ġphotograph er
ĠE ve
s ay
ul ers
Ġcivil ian
clip se
ern ess
ab ar
in ar
)\, ,
H W
as ympt
li u
Ġsub stance
Ġpoll ution
Ġgrad uating
itte es
cmid rule
/ ************************************************************************
ĠBel ow
Ġdram atically
Ġsuspect ed
ĠV ER
ĠCh ang
30 3
Ġass ists
Ġincorpor ating
Ġrelax ed
gom ery
st a
ack ed
Ġdes ktop
Q Name
col One
Ġpre vention
Ġappreci ate
Ġprevent ing
Ġb ills
ĠM ine
ĠJul ian
Ġp aired
18 71
Ġcor pus
Ġsal ary
Ġdiscuss es
o S
ä ¹
Ġresid ue
iv odes
ĠR ey
/* .
Ġ" ../
Ġbr ane
Ġexecut ing
Ġc attle
light s
Acknowledg ements
Ġwe igh
oc cup
ĠL amb
Ġor chestra
sh ore
$\ {
us b
ĠValid ation
Ġart work
um ably
ĠHis panic
ĠH im
( ',
ĠComp etition
mess aging
Al location
LE T
Ã¼ n
ĠHel en
Ġp ounds
un til
Cart esian
m ile
ĠG ate
ĠStart ing
F old
ass ignment
work space
ĠLe o
uli ar
Call able
Mar shal
Ġparad igm
l ived
ĠP ont
quot ed
) ");
ĠD ennis
Get Value
p ix
ĠG len
In herited
, âĢĻ
b et
ĠO scar
Ġun ions
IN LINE
Component Model
Ġmanufact ured
ĠR isk
Ġback ed
CO PY
Ġaltern ating
sp ons
ap pe
fra red
Ġpermut ations
Ġsubsid iary
ĠMe eting
Afr ican
ĠC elebr
ef ault
ro ph
b ian
Ġor thon
M ary
at um
Ġfor um
Ġch rome
default Value
Ġp d
---------------------------------------------------------------- ----------
Mart in
Ġsp anned
vert ed
ĠRE ST
x z
ail ing
itor ial
Ġcapt uring
PE G
at las
Ob serve
Ġ ~~
ĠPart icip
Ġgrand father
Ġtr acing
Ġhad ronic
ĠS ah
char At
ĠV ision
bas eline
V ersions
spect ral
ĠM ul
focus ed
Ġtriple t
ĠProdu ctions
P ing
å ¹
Ġn ights
| .
Ġo l
Ġmin istry
ĠLet ter
V elocity
Fin ish
s child
Ġtri ps
ĠJenn ifer
m ol
Ġc ele
Ġdo zen
NN s
% ),
D ifferent
CK S
Thread s
ĠF ace
g lass
in ely
23 8
w ent
Ġv endor
Ġmorph ology
Ġl on
ĠSo on
Ġattack ing
Ġdepict s
/ ${
=\ !
Ġdemand ing
Ġquarter back
ic acy
it ored
Ġout flow
Rec on
accur acy
ĠA CT
Ġcom prising
:: ~
mark down
ĠHel per
P AGE
ĠH av
ĠM ouse
DE SC
> }
ĠF ake
ĠPaul i
ĠN y
he nd
render ing
Ġpres cription
k ubernetes
da o
r ational
gate way
Ġrect angular
Ġs igma
ob il
Ġear ning
Ġl ensing
c ies
in ator
register ed
ĠG lass
ĠI v
comp at
Ġad mission
A w
h in
im ony
con sumer
18 40
Ġac res
Ġland ed
Ġt abs
deg enerate
Ġsettlement s
ĉĉĉ Ġ
Ġbas elines
Ġhon ors
Ġw ard
T reat
ĠPlay ers
Ġfor wards
i our
tikz cd
ĠL ED
high er
execut or
Ġsustain ed
p ager
ĠF ollow
p v
ĠM AC
ĠIn n
ll a
m us
un ting
j vm
Ignore Case
im ath
Ġr itual
c overed
Ġgate way
D igital
ut ility
18 6
eper cent
c A
ĠMon itor
Ġalleged ly
t oday
}} |
ĠCh oice
Ġsw ing
Ġal liance
"> {{
arr ison
6666 66
ĠC WE
d ifferential
ar x
un used
Tr im
Ġcur ved
Austral ia
ĠTrans fer
i w
Ġdiam ond
Ġapert ure
Ġd irty
ref s
}/ {
ãĥ Ī
t ou
Fl at
Ġpoly gon
q r
ĠW ag
ell ite
Ġfl are
Ġspecial ist
Ġinsert ion
Incre ment
FO UND
Ġre dd
t ier
ĠP icture
roll ment
ĠRem ember
Ġun cle
Dan iel
Ġbel t
user Agent
ĠĠĠĠĠĠĠĠĠĠĠĠĠĠĠĠĠĠĠĠĠĠĠĠĠĠĠĠĠĠĠĠ ĠĠĠĠĠĠĠĠĠĠĠĠĠĠĠĠ
IF ICATION
0 11
i ar
Op code
Ġt ier
luc ene
on epercent
Ġb esides
> ")
dim s
T B
f u
p ym
To Array
80 80
ĠRoman ian
Bound ing
COMM AND
p it
Ġper pet
Ġdream s
ivodes hip
re pos
Ġin herent
Lay ers
comput ed
ml abel
Ġmulti plier
ĠThrough out
class ification
Ġgroup ed
HE LP
z el
ĠSt re
Ġqu it
li ers
Re peat
Ġd os
ĠAl loc
Ġmed als
HO W
cons istency
poss ibly
oll ar
ĠPhil osophy
_* (
Ġprotect ing
Es cape
d V
et imes
ĠSh akespeare
Ã ²
ĠB ak
ess a
array stretch
ĠProduct s
ĠDen ote
Ġh olog
23 3
ĠPol l
Ġenthus i
M otion
Ġpl aus
Off ice
behav iors
Ġ[ `
ĠInt roduction
wh ose
w ml
el if
22 3
Ġmake up
o ard
Ġl od
"> {
Dev elopment
re start
am oto
Ġfall en
l is
ĠI NS
B razil
Pol ygon
ĠDel aware
ĠId entity
Ġdro ve
Ġs ap
sim ulation
Ġconcert s
Ã ¯
Inst ead
Ġattend ance
Ġ ic
Ġs keleton
Ġj ail
ĠS ter
As String
ĠTechn ologies
x si
or um
sp y
ĠExecut ion
ĠMunicip al
umb ai
ĠArn old
Ġp ink
Ġdes per
ĠDe ut
H ung
Recip ients
Ġep ic
Ġdoll ar
~ &
ask at
ĠEmer gency
z yn
Ġtre ating
Ġstr ide
}} [
Numer ical
ĠM ig
ĠH ess
Ġsur f
)= -
le man
ĠR ac
Ġ? ?
Ġview port
C ENTER
Ġmurder ed
Ġalleg ations
bo ys
Instance State
Ġaffili ated
insert ion
lo y
Ġsimilar ities
MLE lement
38 6
sing ular
P t
c ous
ĠF at
produ ced
Ġconvent ions
B rown
Ġm ines
ĠH AVE
cont ribut
S af
ĠS old
L B
Ġcar riers
Ġalt itude
co h
sequ ential
Ġim pression
Ġs isters
ĠA uckland
Ġair line
Ġdegrad ation
ĠJ et
ĠOt tawa
}) _
\% )
at op
}, {
is EqualTo
sh ader
Ġfil tration
Ġappropri ately
ĠBob by
ĠTh ai
Ġvol atile
Ġfriend ship
p ause
bo at
Ġtro ub
Ġre use
ĠCh an
Ġhad ron
ik er
Ġsever ely
Ġplanet ary
n k
ĠClin ical
Ġf idelity
all ax
Ġqu otes
Ġlob by
w oman
ount ers
18 66
Ġcollabor ative
ĠH ook
T IM
ĠH alf
RE L
N ick
Ġcondens ate
Ġb ipartite
eg an
f ine
Ġper cussion
sand box
Ġres il
Ġgovern ance
bb on
Ġvacc ines
ĠM aps
ĠLapl acian
Ġbur den
Fat alf
found er
os phere
Ġexp enses
Ġbreak down
Ġdesign ers
Ġneighborhood s
Ġt iles
Ġth resholds
scal ed
Ġincl ination
we i
Heading Color
Ġal lies
}\ !\
}{ %
ĠAll ah
Ġsustain ability
< '
Ġm ad
Ġre called
] ):
ĠA ber
Ġcollect or
Ġreflect ing
Ġimply ing
DEF IN
Ġpress ed
ins ki
M ime
Ġbank rupt
pat ient
comb ination
ĠL ed
18 72
ĠBudd hist
il io
)/ (
Ġc oc
IN TEGER
log y
ĠVo ivodeship
E mit
Lear ning
\ ),
og on
18 73
Ġ$( -
ĠS olutions
Ġph p
f ilm
ia z
Ġb a
Request ed
host s
ãĤ ĭ
Ġcirc ulation
Ġn umpy
[...]
