{"[UNK]":0,"!":1,"\"":2,"#":3,"$":4,"%":5,"&":6,"'":7,"(":8,")":9,"*":10,"+":11,",":12,"-":13,".":14,"/":15,"0":16,"1":17,"2":18,"3":19,"4":20,"5":21,"6":22,"7":23,"8":24,"9":25,":":26,";":27,"<":28,"=":29,">":30,"?":31,"@":32,"A":33,"B":34,"C":35,"D":36,"E":37,"F":38,"G":39,"H":40,"I":41,"J":42,"K":43,"L":44,"M":45,"N":46,"O":47,"P":48,"Q":49,"R":50,"S":51,"T":52,"U":53,"V":54,"W":55,"X":56,"Y":57,"Z":58,"[":59,"\\":60,"]":61,"^":62,"_":63,"`":64,"a":65,"b":66,"c":67,"d":68,"e":69,"f":70,"g":71,"h":72,"i":73,"j":74,"k":75,"l":76,"m":77,"n":78,"o":79,"p":80,"q":81,"r":82,"s":83,"t":84,"u":85,"v":86,"w":87,"x":88,"y":89,"z":90,"{":91,"|":92,"}":93,"~":94,"¡":95,"¢":96,"£":97,"¤":98,"¥":99,"¦":100,"§":101,"¨":102,"©":103,"ª":104,"«":105,"¬":106,"®":107,"¯":108,"°":109,"±":110,"²":111,"³":112,"´":113,"µ":114,"¶":115,"·":116,"¸":117,"¹":118,"º":119,"»":120,"¼":121,"½":122,"¾":123,"¿":124,"Â":125,"Ã":126,"Ä":127,"Å":128,"Æ":129,"Ç":130,"È":131,"É":132,"Ê":133,"Ë":134,"Ì":135,"Í":136,"Î":137,"Ï":138,"Ð":139,"Ñ":140,"Ò":141,"Ó":142,"Ô":143,"Õ":144,"Ö":145,"×":146,"Ø":147,"Ù":148,"Ú":149,"Û":150,"Ü":151,"Ý":152,"Þ":153,"ß":154,"à":155,"á":156,"â":157,"ã":158,"ä":159,"å":160,"æ":161,"ç":162,"è":163,"é":164,"ê":165,"ë":166,"ì":167,"í":168,"î":169,"ï":170,"ð":171,"ñ":172,"ò":173,"ó":174,"ô":175,"Ā":176,"ā":177,"Ă":178,"ă":179,"Ą":180,"ą":181,"Ć":182,"ć":183,"Ĉ":184,"ĉ":185,"Ċ":186,"ċ":187,"Č":188,"č":189,"Ď":190,"ď":191,"Đ":192,"đ":193,"Ē":194,"ē":195,"Ĕ":196,"ĕ":197,"Ė":198,"ė":199,"Ę":200,"ę":201,"Ě":202,"ě":203,"Ĝ":204,"ĝ":205,"Ğ":206,"ğ":207,"Ġ":208,"ġ":209,"Ģ":210,"ģ":211,"Ĥ":212,"ĥ":213,"Ħ":214,"ħ":215,"Ĩ":216,"ĩ":217,"Ī":218,"ī":219,"Ĭ":220,"ĭ":221,"Į":222,"į":223,"İ":224,"ı":225,"Ĳ":226,"ĳ":227,"Ĵ":228,"ĵ":229,"Ķ":230,"ķ":231,"ĸ":232,"Ĺ":233,"ĺ":234,"Ļ":235,"ļ":236,"Ľ":237,"ľ":238,"Ŀ":239,"ŀ":240,"Ł":241,"ł":242,"Ń":243,"ĠĠ":244,"ĠĠĠĠ":245,"Ġt":246,"in":247,"er":248,"on":249,"Ġa":250,"he":251,"re":252,"at":253,"en":254,"or":255,"Ġthe":256,"st":257,"al":258,"it":259,"an":260,"Ġc":261,"ion":262,"ar":263,"le":264,"ĠĠĠ":265,"Ġs":266,"Ġo":267,"ĠĠĠĠĠĠĠĠ":268,"is":269,"Ġf":270,"es":271,"ed":272,"Ġw":273,"Ġp":274,"ic":275,"ing":276,"ro":277,"Ġin":278,"nd":279,"Ġb":280,"Ġof":281,"et":282,"as":283,"ct":284,"Ġd":285,"Ġm":286,"ent":287,"el":288,"Ġ\\":289,"am":290,"ou":291,"Ġand":292,"Ġ$":293,"Ġto":294,"ig":295,"om":296,"Ġre":297,"il":298,"Ġn":299,"ation":300,"Ġth":301,"Ġh":302,"im":303,"ac":304,"ĠĠĠĠĠĠĠ":305,"id":306,"ol":307,"Ġ(":308,"Ġe":309,"ot":310,"Ġ=":311,"ur":312,"ut":313,"se":314,"ĠS":315,"iv":316,"Ġl":317,"ĠT":318,"</":319,"ĉĉ":320,"ad":321,"Ġis":322,"od":323,"ul":324,"ce":325,"ĠC":326,"=\"":327,"ĠA":328,"ag":329,"if":330,"ab":331,"{\\":332,"qu":333,"th":334,"čĊ":335,"Ġfor":336,"ow":337,"Ġg":338,"em":339,");":340,"um":341,"Ġv":342,"un":343,"ch":344,"--":345,"Ġ<":346,"ra":347,"us":348,"Ġst":349,"pe":350,"Ġ{":351,"ly":352,"ate":353,"ex":354,"ith":355,"ĠI":356,"ers":357,"ĠM":358,"Ġon":359,"ction":360,"pt":361,"Ġcon":362,"ht":363,"ĠĠĠĠĠĠĠĠĠĠĠ":364,"ist":365,"Ġbe":366,"end":367,"ass":368,"ir":369,"oc":370,"ath":371,"ay":372,"_{":373,"ĠP":374,"//":375,"ter":376,"ri":377,"ver":378,"Ġas":379,"Ġthat":380,"ĠB":381,"Ġ*":382,"20":383,"res":384,"ame":385,"av":386,"eg":387,"ub":388,"Ġwith":389,"and":390,"âĢ":391,"Ġ}":392,"est":393,"ĠR":394,"ĠF":395,"ef":396,"up":397,"Ġpro":398,"Ġ&":399,"Ġal":400,"ew":401,"ap":402,"Ġ$\\":403,"\">":404,"ĠH":405,"os":406,"ĠD":407,"Ġan":408,"ue":409,"ĠL":410,"tr":411,"ess":412,"lass":413,"Ġ\"":414,"ph":415,"ine":416,"ort":417,"Ġwh":418,"ity":419,"age":420,"ect":421,"ta":422,"op":423,"ĠĊ":424,"ĠThe":425,"ight":426,"ĠN":427,"Ġex":428,"math":429,"our":430,"Ġby":431,"pl":432,"ĠĠĠĠĠĠĠĠĠĠĠĠĠĠĠĠ":433,"rom":434,"ref":435,"art":436,"ext":437,"ĠW":438,"ore":439,"ure":440,"Ġcom":441,"ĠG":442,"ere":443,"ĠE":444,"ĠĠĠĠĠ":445,"iz":446,"ec":447,"19":448,"()":449,"sp":450,"ment":451,"Ġit":452,"ma":453,"ial":454,"}\\":455,"li":456,"ult":457,"nt":458,"Ġat":459,"Ġr":460,"og":461,"able":462,"int":463,"Ġare":464,"urn":465,"Ġor":466,"Ġthis":467,"}$":468,"ep":469,"**":470,"all":471,"^{":472,"ge":473,"ies":474,"Ġwe":475,"..":476,"ack":477,"Ġwas":478,"ive":479,"ke":480,"per":481,"Ġclass":482,"Ġfrom":483,"ant":484,"ite":485,"ud":486,"orm":487,"ans":488,"ype":489,"==":490,"ĠO":491,"ile":492,"port":493,"ill":494,"con":495,"----":496,"turn":497,"Ġif":498,"00":499,"ode":500,"get":501,"Ġ-":502,"pro":503,"ld":504,"ber":505,"ft":506,"Ġy":507,"Ġ'":508,"ption":509,"}}":510,"ated":511,"ĠJ":512,"ple":513,"ase":514,"ign":515,"ary":516,"ace":517,"und":518,"text":519,"(\\":520,"ind":521,"ition":522,"In":523,"Ġch":524,"ff":525,"ata":526,"Ġle":527,"str":528,"Ġsh":529,"are":530,"ov":531,"The":532,"ĠĠĠĠĠĠĠĠĠĠĠĠĠĠĠ":533,"Ġtr":534,"cal":535,"ang":536,"equ":537,"Ġhe":538,"egin":539,"),":540,"ast":541,"Ġnot":542,"com":543,"ich":544,"cl":545,"ĠU":546,"begin":547,"ell":548,"to":549,"ard":550,"ical":551,"ord":552,"ime":553,"ev":554,"fr":555,"ire":556,"ens":557,"ave":558,").":559,"ser":560,"lic":561,")$":562,"_{\\":563,"ject":564,"act":565,"unction":566,"ip":567,"ost":568,"alue":569,"Ġus":570,"ild":571,"Ġ+":572,"ug":573,"Ġse":574,"out":575,"Ġ//":576,"Ġ</":577,"Ġ[":578,"Ġres":579,"ide":580,"Ġreturn":581,"ong":582,"ations":583,"../":584,"},":585,"Ġcan":586,"'s":587,"}{":588,"ence":589,"cc":590,"->":591,"ĠIn":592,"::":593,"ust":594,"ĉĉĉĉ":595,"ĠK":596,"form":597,"ak":598,"fig":599,"abel":600,"201":601,"ource":602,"ork":603,"aram":604,"ice":605,"right":606,"du":607,"row":608,"ia":609,"ance":610,"Ġpl":611,"ener":612,"Con":613,"lo":614,"set":615,"ĠV":616,"cri":617,"frac":618,"low":619,"ain":620,"ib":621,"eq":622,"dd":623,"Ġwhich":624,"put":625,"ss":626,"ublic":627,"eta":628,"loc":629,"Ġim":630,"Ġun":631,"ach":632,"Ġhave":633,"âĢĻ":634,"Ġnew":635,"so":636,"ĠTh":637,"enc":638,"Ġj":639,"ory":640,"Ġap":641,"ize":642,"Ġ@":643,"ml":644,"St":645,"ther":646,"ok":647,"Ġk":648,"\",":649,"Ġar":650,"ps":651,"Ġ|":652,"the":653,"use":654,"div":655,"ress":656,"label":657,"elf":658,"ents":659,"ĠâĢ":660,"Ġhas":661,"essage":662,"Ġ/":663,"ull":664,"></":665,"mathb":666,"(\"":667,"10":668,"ould":669,"ian":670,"ray":671,"iel":672,"ear":673,"rm":674,"();":675,"Ġfunction":676,"span":677,"Ġstr":678,"ous":679,"odel":680,"one":681,"fer":682,"tain":683,"Ġab":684,"left":685,"cite":686,"over":687,"><":688,"Ġdef":689,"erm":690,"ĠSt":691,"own":692,"pon":693,"ound":694,"Ex":695,"ield":696,"$.":697,"Ġob":698,"$,":699,"',":700,"ions":701,"hen":702,"ator":703,"sum":704,"line":705,"Ġcont":706,"old":707,"ree":708,"but":709,"200":710,"clud":711,"tring":712,",\\":713,"Ġset":714,"})":715,"--------":716,"irst":717,"pect":718,"../../":719,"equation":720,"mathcal":721,"yst":722,"Ġall":723,"ll":724,"ount":725,"eth":726,"ink":727,"err":728,"Ġint":729,"}.":730,"we":731,"te":732,"che":733,"ual":734,"iew":735,"bo":736,"Ġ.":737,"inal":738,"sh":739,"ates":740,"Ġsu":741,"Ġdis":742,"ark":743,"ob":744,"Ġname":745,"les":746,"Ġone":747,"Ġ:":748,"oint":749,"Ġalso":750,"ict":751,"lect":752,"tern":753,"Ġqu":754,"Ġpart":755,"da":756,"Ġvar":757,"pr":758,"ĉĉĉ":759,"ish":760,"ome":761,"====":762,"html":763,"name":764,"ics":765,"ely":766,"ĠCh":767,"}(":768,"Ġhis":769,"erv":770,"wo":771,"****":772,"oth":773,"ystem":774,"ix":775,"Ġhref":776,"Ġwill":777,"Ġout":778,"Ġpublic":779,"ry":780,"))":781,"ĠĠĠĠĠĠĠĠĠĠĠĠĠĠĠĠĠĠĠ":782,"Ġ*/":783,"Ġev":784,"}^":785,"ck":786,"pos":787,"roup":788,"umber":789,"led":790,"Pro":791,"}_":792,"Ġsp":793,"~\\":794,"Ġme":795,"ym":796,"ne":797,"lation":798,"source":799,"('":800,"18":801,"Ġro":802,"pha":803,"ĠĠĠĠĠĠĠĠĠ":804,"ose":805,"amb":806,"of":807,"oid":808,"message":809,"ribut":810,"Ġde":811,"Ġper":812,"Ġdo":813,"pec":814,"Ġbut":815,"Ġup":816,"eng":817,"col":818,"this":819,"Ġpr":820,"12":821,"alpha":822,"io":823,"trans":824,"cre":825,"ors":826,"ax":827,"Ġpre":828,"ular":829,"Ġyou":830,"rit":831,"Ġwere":832,"mer":833,"ond":834,"Name":835,"ery":836,"Ġ=>":837,"ER":838,"Ġget":839,"tt":840,"sub":841,"Ġdata":842,"uct":843,"ys":844,"Ġline":845,"Ġtype":846,"Ġresult":847,"Ġvalue":848,"igh":849,"Ġcomp":850,"ings":851,"raph":852,"app":853,"Ġcol":854,"var":855,"imes":856,"arg":857,"Ġ_":858,"Ġ#":859,"ethod":860,"elta":861,"Ġinter":862,"Ġconst":863,"ĠY":864,"idth":865,"param":866,"ve":867,"ON":868,"cent":869,"Ġtheir":870,"cript":871,"Ġtwo":872,")\\":873,"import":874,"Ġfirst":875,"$\\":876,"def":877,"ied":878,"td":879,"Ġits":880,"Ġover":881,"alse":882,"pert":883,"yn":884,"ool":885,"Ġi":886,"Id":887,"Ġtime":888,"ambda":889,"/>":890,"Th":891,"Ġdes":892,"lement":893,"##":894,"Type":895,"String":896,"atic":897,"ick":898,"hed":899,"ollow":900,"Ġcl":901,"iss":902,"ific":903,"atch":904,"ng":905,"igma":906,"ert":907,"ho":908,"ative":909,"ange":910,"amma":911,"IN":912,"Ġmore":913,"Ġsub":914,"bar":915,"ake":916,"ove":917,"\"/>":918,"code":919,"fo":920,"ater":921,"Ġne":922,"ann":923,"lock":924,"fter":925,"Ġform":926,"ined":927,"Ġother":928,"ail":929,"ont":930,"ames":931,"mu":932,"key":933,"_\\":934,"ca":935,"ĠIt":936,"ample":937,"=\\":938,"Ġadd":939,"Ġso":940,"return":941,"Ġmodel":942,"16":943,"urre":944,"mathbb":945,"Ġman":946,"ĠThis":947,"item":948,"Ġwork":949,"Ġ||":950,"Ġdif":951,"Ġsup":952,"Ġag":953,"Com":954,"Ġwhen":955,"ĠWe":956,"ĠUn":957,"Ġ\\\\":958,"round":959,"Ġfollow":960,"Ġid":961,"aw":962,"dot":963,"}^{":964,"}_{":965,"uild":966,"Ġonly":967,"ues":968,"translation":969,"Ġself":970,"under":971,"pi":972,"ton":973,"ational":974,"Ġreg":975,"Ġbet":976,"Ġwhere":977,"resent":978,"RE":979,"Ġtrans":980,"hat":981,"class":982,"add":983,"-\\":984,"ise":985,"Ġpos":986,"://":987,"ock":988,"Ġbeen":989,"ms":990,"Ġte":991,"Res":992,"Ġel":993,"als":994,"15":995,"Ġen":996,"Ġend":997,"Ġx":998,"ased":999,"phi":1000,"min":1001,"anc":1002,"arch":1003,"ega":1004,"type":1005,"Ġthey":1006,"Ġany":1007,"Ġrequ":1008,"^{\\":1009,"ST":1010,"List":1011,"Ġcomm":1012,"Ġsuch":1013,"Ġgener":1014,"Ġ!":1015,"ider":1016,"Ġind":1017,"cess":1018,"ĠHe":1019,"section":1020,"ating":1021,"Ġacc":1022,"ie":1023,"co":1024,"ble":1025,"11":1026,"ception":1027,"ault":1028,"Ġdist":1029,"Ġ`":1030,"ility":1031,"bf":1032,"Ġour":1033,"der":1034,"Ġ{\\":1035,"Ġthen":1036,"Ġthere":1037,"Ġad":1038,"Ġsim":1039,"Ġco":1040,"Ġinto":1041,"sigma":1042,"Ġthan":1043,"plic":1044,"Ġuse":1045,"Ġplay":1046,"its":1047,"val":1048,"lambda":1049,"ons":1050,"itle":1051,"ersion":1052,"Ġval":1053,"Ġcons":1054,"Ġwho":1055,"br":1056,"olut":1057,"Ġcase":1058,"We":1059,"serv":1060,"Ġcor":1061,"gr":1062,"Ġhad":1063,"ature":1064,"Ġloc":1065,"ible":1066,"Ġ==":1067,"199":1068,"ache":1069,"Ġrel":1070,"yp":1071,"ures":1072,"AT":1073,"yle":1074,"work":1075,"ember":1076,"htt":1077,"oun":1078,"ince":1079,"urrent":1080,"__":1081,"Ġequ":1082,"Ġshow":1083,"Ch":1084,"ween":1085,"align":1086,"ious":1087,"âĢĵ":1088,"Ġnull":1089,"Ġdec":1090,"Ġno":1091,"Ġinclud":1092,"read":1093,"ities":1094,"mathbf":1095,"amp":1096,"Ġused":1097,"ins":1098,"irect":1099,"âĢĿ":1100,"ĠâĢĵ":1101,"epend":1102,"ote":1103,"wh":1104,"Ġdiffer":1105,"Ġph":1106,"ash":1107,"ilon":1108,"Ġunder":1109,"ook":1110,"ask":1111,"ead":1112,"\"><":1113,"olog":1114,"ument":1115,"ule":1116,"ade":1117,"Ġ>":1118,"Ġsome":1119,"log":1120,"Ġgo":1121,"Ġinst":1122,"array":1123,"Ġact":1124,"for":1125,"Ġext":1126,"aramet":1127,"red":1128,"ays":1129,"part":1130,"ced":1131,"13":1132,"ength":1133,"Ġnumber":1134,"Ġfalse":1135,"ĠĠĠĠĠĠĠĠĠĠĠĠĠ":1136,"oug":1137,"ning":1138,"ences":1139,"vent":1140,"Ġerr":1141,"Ġprov":1142,"Ġatt":1143,"Ġbetween":1144,"iven":1145,"ient":1146,"Ġ--":1147,"ric":1148,"25":1149,"Ġsc":1150,"ward":1151,"Ġspec":1152,"Ġyear":1153,"ctions":1154,"OR":1155,"):":1156,"back":1157,"ID":1158,"ivate":1159,"14":1160,"angle":1161,"AR":1162,"Ġsystem":1163,"Ġeach":1164,"son":1165,"ited":1166,"Ġvoid":1167,"ized":1168,"ĠPro":1169,"ern":1170,"Ar":1171,"ĠĠĠĠĠĠĠĠĠĠĠĠĠĠĠĠĠĠĠĠĠĠĠĠĠĠĠĠĠĠĠĠ":1172,"vel":1173,"ĠCom":1174,"ugh":1175,"Ġher":1176,"ages":1177,"sc":1178,"Ġ(\\":1179,"Ġoff":1180,"ement":1181,"new":1182,"org":1183,"uth":1184,"string":1185,"22":1186,"Ġli":1187,"17":1188,"beta":1189,"LE":1190,"width":1191,"^{-":1192,"Ġabout":1193,"ilde":1194,"Ġfe":1195,"Ġtrue":1196,"Ġ)":1197,"\\\\":1198,"att":1199,"Ġsec":1200,"Ġpe":1201,"}{\\":1202,"ternal":1203,"ract":1204,"Ġem":1205,"ptions":1206,"Ġtest":1207,"rr":1208,"To":1209,"ole":1210,"Ref":1211,"file":1212,"));":1213,"ower":1214,"Ġrec":1215,"eps":1216,"Ġpol":1217,"Ġpoint":1218,"ier":1219,"Ġop":1220,"Ġhigh":1221,"ished":1222,"ĠĠĠĠĠĠ":1223,"ner":1224,"ists":1225,"Tr":1226,"----------------":1227,"Ġmay":1228,"mall":1229,"data":1230,"Ġthese":1231,"umn":1232,"ization":1233,"self":1234,"ava":1235,"ĠQ":1236,"let":1237,"Ġafter":1238,"Ġfil":1239,"land":1240,"\");":1241,"ally":1242,"ople":1243,"ĠSe":1244,"Ġfield":1245,"Ġeff":1246,"Ġwould":1247,"arget":1248,"Ġchar":1249,"Ġkn":1250,"Ġent":1251,"SS":1252,"////":1253,"Ġstud":1254,"ĠAr":1255,"gamma":1256,"+\\":1257,"air":1258,"Ġorg":1259,"pre":1260,"mathrm":1261,"cont":1262,"*}":1263,"ank":1264,"bject":1265,"Col":1266,"ey":1267,"Ġcre":1268,"perty":1269,"Ġmethod":1270,"sert":1271,"uring":1272,"ines":1273,"********":1274,"ices":1275,"box":1276,"Ġprodu":1277,"Ġusing":1278,"nb":1279,"pp":1280,"It":1281,"ars":1282,"ĠĠĠĠĠĠĠĠĠĠĠĠĠĠĠĠĠĠĠĠĠĠĠ":1283,"oy":1284,"Ġback":1285,"be":1286,"ĠFor":1287,"Ġdev":1288,"location":1289,"Ġcal":1290,"Ġfinal":1291,"ivers":1292,"rough":1293,"press":1294,"Ġelse":1295,"ever":1296,"rho":1297,"Ġmod":1298,"21":1299,"Data":1300,"Value":1301,"ily":1302,"^\\":1303,"AL":1304,"Ġoper":1305,"figure":1306,"not":1307,"EN":1308,"theta":1309,"view":1310,"Ġsign":1311,"ments":1312,"]{":1313,"ential":1314,"Ġtra":1315,"delta":1316,"ervice":1317,"ĠAl":1318,"Ġam":1319,"includ":1320,"ĠX":1321,"Ġest":1322,"gy":1323,"ody":1324,")}":1325,"script":1326,"value":1327,"30":1328,"Ġnon":1329,"ĠNew":1330,"me":1331,"Ġinv":1332,"nbsp":1333,"uss":1334,"date":1335,"itt":1336,"lection":1337,"Ġstate":1338,"ĠCon":1339,"$-":1340,"leq":1341,"ision":1342,"\")":1343,"Ġac":1344,"Set":1345,"========":1346,"lient":1347,"tau":1348,"}$,":1349,"raw":1350,"ĠâĢľ":1351,"roid":1352,"Ġappro":1353,"px":1354,"Ġrep":1355,"struct":1356,"meric":1357,"ces":1358,"play":1359,"')":1360,"Ġmost":1361,"ream":1362,"ĠAs":1363,"ired":1364,"face":1365,"orld":1366,"uff":1367,"Ġsame":1368,"100":1369,"Ġcomple":1370,"32":1371,"Ġ/**":1372,"Ġz":1373,"ĠZ":1374,"cdot":1375,"Ġ&&":1376,"Ġass":1377,"}$.":1378,"la":1379,"ger":1380,"man":1381,"big":1382,"olution":1383,"par":1384,"requ":1385,"Ġshe":1386,"ector":1387,"ott":1388,"Ġgiven":1389,"Ġstring":1390,"Ġfile":1391,"Ġgroup":1392,"Ġfl":1393,"Ġmin":1394,"];":1395,"Exception":1396,"($":1397,"pm":1398,"oci":1399,"rol":1400,"nu":1401,"respon":1402,"ets":1403,"ough":1404,"...":1405,"For":1406,"ically":1407,"mary":1408,"times":1409,"ĠAn":1410,"atri":1411,"198":1412,"arrow":1413,"}(\\":1414,"ify":1415,"mod":1416,"ader":1417,"Ġthrough":1418,"50":1419,"DE":1420,"irc":1421,"size":1422,"Ġdifferent":1423,"Ġparamet":1424,"As":1425,"ww":1426,"Ġwell":1427,"ik":1428,"rror":1429,"Ġed":1430,"ency":1431,"partial":1432,"Ġorder":1433,"oot":1434,"ils":1435,"Ġfollowing":1436,"En":1437,"atus":1438,"Ġdet":1439,"Ġstatic":1440,"by":1441,"Ġobject":1442,"ĠSh":1443,"Ġstart":1444,"SE":1445,"ension":1446,"any":1447,"sec":1448,"ified":1449,"ases":1450,"iver":1451,"],":1452,"Ġ///":1453,"Ġpartic":1454,"eqref":1455,"dition":1456,"orn":1457,"heck":1458,"CT":1459,"order":1460,"space":1461,"Ġlist":1462,"ren":1463,"Se":1464,"arent":1465,"formation":1466,"ulti":1467,"Ġ%":1468,"Ġterm":1469,"Ġgr":1470,"Ġser":1471,"Ġu":1472,"Ġneed":1473,"rc":1474,"Ġboth":1475,"ele":1476,"ccess":1477,"ason":1478,"bol":1479,"dis":1480,"Ġsa":1481,"Ġfound":1482,"test":1483,"action":1484,"ĠString":1485,"By":1486,"link":1487,"ron":1488,"table":1489,"tilde":1490,"Cont":1491,"23":1492,"IT":1493,"Ġshould":1494,"roll":1495,"Object":1496,"Ġhow":1497,"fty":1498,"ĠEx":1499,"cept":1500,"24":1501,"Ġwhile":1502,"center":1503,"().":1504,"ots":1505,"quad":1506,"Ġthem":1507,"Ġyour":1508,"Ġprivate":1509,"Ġfr":1510,"ism":1511,"Un":1512,"infty":1513,"Test":1514,"Ġsur":1515,"Ġfact":1516,"Ġ!=":1517,"Ġpeople":1518,"very":1519,"ler":1520,"omega":1521,"elop":1522,"|\\":1523,"ĠĠĠĠĊ":1524,"top":1525,"Ġvari":1526,"Ġcent":1527,"ĠĠĊ":1528,"Delta":1529,"vert":1530,"Ġconsider":1531,"Ġlong":1532,"ĉĉĉĉĉ":1533,"js":1534,"Refer":1535,"atrix":1536,"Ġsing":1537,"eqn":1538,"Im":1539,"Ġperform":1540,"ox":1541,"chool":1542,"ME":1543,"reg":1544,"ared":1545,"Ġsecond":1546,"itial":1547,"indow":1548,"Ġ$(":1549,"other":1550,"tab":1551,"pace":1552,"uc":1553,"ponent":1554,"ives":1555,"ĠTr":1556,"function":1557,"AN":1558,"};":1559,"fl":1560,"Ġsee":1561,"ively":1562,"etwork":1563,"uch":1564,"rap":1565,"());":1566,"sq":1567,"nav":1568,"inter":1569,"ense":1570,"\"></":1571,"ts":1572,"ining":1573,"ful":1574,"time":1575,"CO":1576,"ality":1577,"fore":1578,"Ġdescri":1579,"Ġresults":1580,"ability":1581,"public":1582,"Ind":1583,"ants":1584,"ymbol":1585,"wn":1586,"ected":1587,"View":1588,"Ġcurrent":1589,"olds":1590,"index":1591,"ross":1592,"Get":1593,"rt":1594,"\";":1595,"._":1596,"que":1597,"Error":1598,"az":1599,"chi":1600,"med":1601,"comm":1602,"lay":1603,"Ġagain":1604,"['":1605,"Ġthree":1606,"lob":1607,"quot":1608,"rite":1609,"Ġprocess":1610,"Class":1611,"000":1612,"ral":1613,"64":1614,"arge":1615,"ground":1616,"Ġdisc":1617,"met":1618,"go":1619,"An":1620,"Ġdirect":1621,"Ġrun":1622,"ĠAmeric":1623,"197":1624,"url":1625,"ĠIf":1626,".</":1627,"list":1628,"reat":1629,"umer":1630,"Ġeffect":1631,"ocument":1632,"File":1633,"Ġexpect":1634,"position":1635,"Ġstruct":1636,"!--":1637,"lear":1638,"xi":1639,"Ġcontain":1640,"ulation":1641,"ane":1642,"Ġhand":1643,"reak":1644,"Ġlike":1645,"load":1646,"ale":1647,"rop":1648,"Ġdr":1649,"oh":1650,"Ġsupport":1651,"aj":1652,"Ġsize":1653,"Ġelement":1654,"=\"+":1655,"field":1656,"summary":1657,"gor":1658,"efore":1659,"ouse":1660,"ute":1661,"Sh":1662,"where":1663,"Ġright":1664,"Ġnow":1665,"Ġarg":1666,"uration":1667,"bed":1668,"Ġca":1669,"rem":1670,"Ġimport":1671,"../../../../":1672,"}}\\":1673,"']":1674,"color":1675,"Key":1676,"orem":1677,"Ġapp":1678,"ager":1679,"Ġobtain":1680,"This":1681,"http":1682,"On":1683,"ĠCol":1684,"Ġbound":1685,"Ġanal":1686,"Ġtitle":1687,"ife":1688,"ball":1689,"Ph":1690,"');":1691,"way":1692,"ĠInd":1693,"bers":1694,"Ġkey":1695,".,":1696,"group":1697,")$.":1698,"Requ":1699,"cit":1700,"const":1701,"ah":1702,"$$":1703,"fin":1704,"\\,":1705,"erson":1706,"40":1707,"cm":1708,"cale":1709,"iversity":1710,"hip":1711,"sim":1712,"Ġsmall":1713,"Ġfind":1714,"void":1715,"Ġresp":1716,"Ġrem":1717,"Ġdoes":1718,"ten":1719,"Ġcall":1720,"}[":1721,"ting":1722,"Ġ/>":1723,"Ġlink":1724,"agn":1725,"gram":1726,"ission":1727,"less":1728,"ather":1729,"Ġbel":1730,"Al":1731,"try":1732,"ek":1733,"Ġbeing":1734,"Ġmet":1735,"ackage":1736,"dt":1737,"Ġevery":1738,"orth":1739,"Ġbefore":1740,"path":1741,"Ġbr":1742,"Ġmany":1743,"ural":1744,"Ġfin":1745,"ology":1746,"imit":1747,"epsilon":1748,"Ġdistribut":1749,"ident":1750,"Ġyears":1751,"Ġjust":1752,"References":1753,"Ġtem":1754,"Ġvalues":1755,"user":1756,"oad":1757,"``":1758,"Ġmon":1759,"Ġcould":1760,"opy":1761,"(),":1762,"lish":1763,"Ġhim":1764,"].":1765,"Ġduring":1766,"Ġmeas":1767,"Ġerror":1768,"ush":1769,"Ġlocal":1770,"Ġcontin":1771,"RO":1772,"Int":1773,"ived":1774,"sk":1775,"ession":1776,"ister":1777,"psi":1778,"Ã©":1779,"AC":1780,"ormal":1781,"Ġmain":1782,"respond":1783,"Ġ,":1784,"Time":1785,"lem":1786,"Ġread":1787,"}_{\\":1788,"FF":1789,"33":1790,"au":1791,"\":":1792,"Om":1793,"Ġtop":1794,"LL":1795,"ĠčĊ":1796,"Ġrepresent":1797,"Ġmed":1798,"Ġcondition":1799,"60":1800,"Ġpresent":1801,"atter":1802,"lp":1803,"eqnarray":1804,"Ġrele":1805,"itor":1806,"Ġexample":1807,"raphics":1808,"chn":1809,"####":1810,"ION":1811,"search":1812,"Ġsince":1813,"vious":1814,"cause":1815,"aces":1816,"arn":1817,"uffer":1818,"eb":1819,"bm":1820,"her":1821,"energy":1822,"Ġart":1823,"oss":1824,"ification":1825,"ilar":1826,"Ġwhat":1827,"ift":1828,"Ġlead":1829,"outh":1830,"no":1831,"Ġbecause":1832,"'t":1833,"Ġincre":1834,"lang":1835,"adi":1836,"Ġmake":1837,"sqrt":1838,"uary":1839,"olv":1840,"Ġpass":1841,"Ġdevelop":1842,"Ġlast":1843,"model":1844,"Ġwrit":1845,"Gamma":1846,"ari":1847,"Ġaut":1848,"ior":1849,"Ġmass":1850,"ĠFig":1851,"Ġbuild":1852,"map":1853,"Omega":1854,"^*":1855,"Ġfam":1856,"ury":1857,"Text":1858,"ribute":1859,"Ġserv":1860,"Ġbo":1861,"LA":1862,"Ġproble":1863,"Ġpar":1864,"textbf":1865,"Ġmem":1866,"Ġallow":1867,"psilon":1868,"ci":1869,"https":1870,"ually":1871,"max":1872,")$,":1873,"Ġsaid":1874,"Request":1875,"acter":1876,"TE":1877,"Ġposs":1878,"ĠRes":1879,"ogle":1880,"lack":1881,"Ġexper":1882,"Ġevent":1883,"Ġobserv":1884,"des":1885,"Ġspace":1886,"Add":1887,"Ġcomput":1888,"Ġ?":1889,"lected":1890,"PE":1891,"Ġmap":1892,"Event":1893,"27":1894,"bs":1895,"Ġmade":1896,"els":1897,"IC":1898,"plication":1899,"word":1900,"amespace":1901,"Ġtarget":1902,"Ġrespect":1903,"iving":1904,"ĠFr":1905,"Path":1906,"Ġorig":1907,"cription":1908,"uthor":1909,"node":1910,"arm":1911,"ĠOn":1912,"inition":1913,"ĠLe":1914,"Ġ-->":1915,"ypes":1916,"odes":1917,"Ġinformation":1918,"caption":1919,"perties":1920,"unc":1921,"ness":1922,".\"":1923,"ĠHow":1924,"Element":1925,"Qu":1926,"with":1927,"off":1928,"Def":1929,"length":1930,"Ġeven":1931,"fe":1932,"Node":1933,"Ġlet":1934,"Ġmy":1935,"pty":1936,"Ġvery":1937,"Ġteam":1938,"Man":1939,"fra":1940,"til":1941,"Ġprovid":1942,"see":1943,"ats":1944,"Ġmax":1945,"Ġ);":1946,"result":1947,"subsection":1948,"util":1949,"28":1950,"Ġident":1951,"vare":1952,"Info":1953,"())":1954,"Ġlarge":1955,"ero":1956,"overn":1957,"State":1958,"Ġpop":1959,"Ġtak":1960,"config":1961,"urs":1962,"idd":1963,"sl":1964,"Ġgu":1965,"/**":1966,"Ġinteg":1967,"Ġ${\\":1968,"TR":1969,"ood":1970,"Ġassum":1971,"Ġlevel":1972,"':":1973,"sup":1974,"varepsilon":1975,"ĠDe":1976,"Item":1977,"Index":1978,"omet":1979,"Ġleft":1980,"Ġlog":1981,"Ġbased":1982,"Ġthrow":1983,"Ġrequest":1984,"vir":1985,"With":1986,"Ġopen":1987,"Ġcorrespond":1988,"Ġopt":1989,"itive":1990,"Ġassert":1991,"ĠĠĠĠĠĠĠĠĠĠĠĠĠĠĠĠĠĠĠĠĠĠĠĠĠĠĠ":1992,"olean":1993,"iter":1994,"Ġmust":1995,"ival":1996,"Map":1997,"Ġvis":1998,"Ġpath":1999,"}=":2000,"from":2001,"/*":2002,"lobal":2003,"non":2004,"mp":2005,"istory":2006,"igned":2007,"rangle":2008,"Ġra":2009,"next":2010,"Ġgeneral":2011,"ensure":2012,"true":2013,"ride":2014,"icon":2015,"AP":2016,"Ġappe":2017,"Context":2018,"Ġreal":2019,"side":2020,"ivity":2021,"style":2022,"26":2023,"ĠUniversity":2024,"ration":2025,"Equ":2026,"plit":2027,"Ġenergy":2028,"Field":2029,"ources":2030,"lished":2031,"ĠAmerican":2032,"wit":2033,"ru":2034,"Ġrefer":2035,"45":2036,"ital":2037,"}^{\\":2038,"Form":2039,"gorith":2040,"comp":2041,"ene":2042,"Ġdepend":2043,"Ġway":2044,"Ġref":2045,"Ġcontent":2046,"Over":2047,"urther":2048,")=":2049,"ends":2050,"ixed":2051,"Not":2052,"rodu":2053,"iction":2054,"^{(":2055,"Ġarray":2056,"Ġtext":2057,"ports":2058,"Ġuser":2059,"Ġear":2060,"day":2061,"ustr":2062,"stance":2063,"api":2064,"ustom":2065,"Config":2066,"Ġmov":2067,"egraphics":2068,"includegraphics":2069,"Ġinput":2070,"block":2071,"Ġ(!":2072,"ina":2073,"title":2074,"Ġdi":2075,"ination":2076,"';":2077,"Ġ\\,":2078,"Or":2079,"Ġfour":2080,"Service":2081,"29":2082,"rel":2083,"////////":2084,"head":2085,"ators":2086,"Ġmeasure":2087,"posed":2088,"Array":2089,"Ġbeg":2090,"Ġabove":2091,"ret":2092,"Ġpres":2093,"Ġ});":2094,"input":2095,"iled":2096,"point":2097,"Ġthose":2098,"Ġknown":2099,"Ġincluding":2100,"\"\"":2101,"rightarrow":2102,"alth":2103,"Ġposition":2104,"Ġexp":2105,"Ġsingle":2106,"Ġinitial":2107,"Ġexpl":2108,"oper":2109,"Ġestim":2110,"duct":2111,"ouble":2112,"Ġstand":2113,"Ġmulti":2114,"Re":2115,"='":2116,"Ġrecord":2117,"object":2118,"body":2119,"imal":2120,"UR":2121,"Ġdefault":2122,"ograph":2123,"Ġhere":2124,"ĠPh":2125,"Ġnetwork":2126,"ĠIs":2127,"enu":2128,"Ġcar":2129,"=\"../../../../":2130,"cer":2131,"ilter":2132,"ram":2133,"Ġdefined":2134,"lt":2135,"mb":2136,"emph":2137,"''":2138,"apache":2139,"Ġbro":2140,"Ġnode":2141,"Des":2142,"Ġnext":2143,"Ġversion":2144,"aper":2145,"Ġblock":2146,"ttp":2147,"Ġaddition":2148,"varphi":2149,"error":2150,"atures":2151,"Ġprot":2152,"ynam":2153,"Ġcheck":2154,"cor":2155,"Ġknow":2156,"Ġcalled":2157,"por":2158,"ij":2159,"ĠUnited":2160,"Ġrece":2161,"md":2162,"overline":2163,"usic":2164,"Ġsum":2165,"acy":2166,"Ġdown":2167,"version":2168,"Ġmark":2169,"imension":2170,"ĠAnd":2171,"ĠComm":2172,"light":2173,"Ġ},":2174,"uf":2175,"ui":2176,"gt":2177,"Result":2178,"Ġav":2179,"Ġcr":2180,"geq":2181,".~\\":2182,"Size":2183,"Fr":2184,"Ġcount":2185,"eff":2186,"2020":2187,"80":2188,"Ġcode":2189,"valid":2190,"Ġchild":2191,"ohn":2192,"Ġ:=":2193,"Ġcommun":2194,"Ġsat":2195,"ottom":2196,"Ġden":2197,"Âł":2198,"He":2199,"****************":2200,"lin":2201,"ux":2202,"Ġdep":2203,"ird":2204,">&":2205,"ync":2206,"nection":2207,"Ġpower":2208,"ĠMar":2209,"Big":2210,"Ġview":2211,"ĠEng":2212,"uck":2213,"},\\":2214,"AD":2215,"ries":2216,"lim":2217,"Ġdue":2218,"Ġwithin":2219,"Ġown":2220,"Ġsrc":2221,"ecut":2222,"proof":2223,"ailable":2224,"ley":2225,"plate":2226,"stru":2227,"99":2228,"state":2229,"Ġproject":2230,"bit":2231,"ables":2232,"35":2233,"come":2234,"ensity":2235,"196":2236,"cope":2237,"ysis":2238,"ML":2239,"Ġconfig":2240,"Ġ/*":2241,"Ġtot":2242,"[]":2243,"Ġdid":2244,"Build":2245,"++":2246,"omen":2247,"iod":2248,"loat":2249,"hes":2250,"eturn":2251,"Ġocc":2252,"alk":2253,"ware":2254,"ober":2255,"AS":2256,"Ġ($":2257,"UT":2258,"2018":2259,"LO":2260,"Ġpat":2261,".}":2262,"Ġmodels":2263,"Is":2264,"ately":2265,"Code":2266,"nder":2267,"ended":2268,"Ġagainst":2269,"eter":2270,"2017":2271,"abled":2272,"ches":2273,"IG":2274,"ised":2275,"Ġsimilar":2276,"andom":2277,"Ġbreak":2278,"Ġinstance":2279,"wid":2280,"Ġindex":2281,"2019":2282,"Message":2283,"ling":2284,"ĠSystem":2285,"Of":2286,"uage":2287,"pression":2288,"Hand":2289,"Ġsever":2290,"Ġcontext":2291,"imum":2292,"\".":2293,"using":2294,"ĠRe":2295,"ED":2296,"Ġlinks":2297,"default":2298,"create":2299,"ags":2300,"Ġsol":2301,"Ġelect":2302,"}).":2303,"plement":2304,"ances":2305,"Ġsource":2306,"Model":2307,"java":2308,"ĠOr":2309,"ateg":2310,"down":2311,"&\\":2312,"Comm":2313,"cul":2314,"enn":2315,"ĠPr":2316,"External":2317,"ique":2318,"Ġrema":2319,"IS":2320,"Ġspect":2321,"Ġstyle":2322,"[\\":2323,"Ġet":2324,"Ġlater":2325,"ison":2326,"MP":2327,"css":2328,"Ġcur":2329,"Ġprogram":2330,"Ġquant":2331,"Ġshown":2332,"Ġjava":2333,"ĠTo":2334,"base":2335,"Ġke":2336,"Ġbeh":2337,"assert":2338,"Ġseries":2339,"Ġpost":2340,"Ġsection":2341,"start":2342,"Ġhelp":2343,"tainer":2344,"ĠShe":2345,"une":2346,"iness":2347,"ĠHowever":2348,"Ġdat":2349,"Ġ__":2350,"Ġexist":2351,"content":2352,"Att":2353,"Ġdom":2354,"Ġparameters":2355,"Ġbas":2356,"mm":2357,"Ġmuch":2358,"ording":2359,";&":2360,"dev":2361,"ING":2362,"aut":2363,"Ġwithout":2364,"vec":2365,"ai":2366,"ety":2367,"option":2368,"ugg":2369,"Ġproblem":2370,"ored":2371,"ume":2372,"info":2373,"ait":2374,"tings":2375,"Ġcreate":2376,"Loc":2377,"Val":2378,"erefore":2379,"2016":2380,"Ġbase":2381,"Ġstill":2382,"ilt":2383,"Ġaround":2384,"bolds":2385,"Ġtri":2386,"icle":2387,"Ġtake":2388,"Ġfollows":2389,"Ġgame":2390,"55":2391,"boldsymbol":2392,"90":2393,")^":2394,"Ġparticular":2395,"ules":2396,"AB":2397,"uro":2398,"Ġlook":2399,"ymmet":2400,"langle":2401,"Ġworld":2402,"Log":2403,"ploy":2404,"sw":2405,"ĠAd":2406,"Ġtechn":2407,"Ġdeterm":2408,"Ġcharacter":2409,"hline":2410,"ium":2411,"ape":2412,"TD":2413,"Ġredu":2414,"ken":2415,"Color":2416,"Ġchang":2417,"df":2418,"reate":2419,"opt":2420,"Table":2421,"2015":2422,"}}$":2423,"Ġassoci":2424,"Let":2425,"de":2426,"Ġprob":2427,"ĠYou":2428,"Ġenc":2429,"www":2430,"urity":2431,"rec":2432,"Ġmak":2433,"orph":2434,"Ġcontrol":2435,"Ġpred":2436,"iment":2437,"Ġcoun":2438,"Ġprevious":2439,"Ġrange":2440,"ET":2441,"ony":2442,"Ġconf":2443,"roller":2444,"android":2445,"si":2446,"ocus":2447,"prov":2448,"Ġ===":2449,"ands":2450,"irt":2451,"75":2452,"ĠWh":2453,"Ġlow":2454,"amed":2455,"prot":2456,"check":2457,"User":2458,"Ġtotal":2459,"pose":2460,"CH":2461,"aterial":2462,"Ġalong":2463,"ĉĉĉĉĉĉ":2464,"annel":2465,"Ġreport":2466,"icy":2467,"01":2468,"frak":2469,"--------------------------------":2470,"ched":2471,"ĠĠĠĠĠĠĠĠĠĠĠĠ":2472,"gorithm":2473,"ootball":2474,"From":2475,"my":2476,"Ġder":2477,"ĠĠĠĠĠĠĠĠĠĠ":2478,"ee":2479,"Ġhead":2480,"ĠPl":2481,"namespace":2482,"Pl":2483,"Ġaction":2484,"34":2485,"istic":2486,"isf":2487,"xim":2488,"Ġbest":2489,"ansp":2490,"Ġpoints":2491,"tn":2492,"Ser":2493,"Ġstat":2494,"ĠMay":2495,"Ġsample":2496,";</":2497,"Ġnear":2498,"bl":2499,"context":2500,"Ġq":2501,"ĉĊ":2502,"Rec":2503,"Up":2504,"Ġcorre":2505,"ependent":2506,"Ġrequire":2507,"Ġstudy":2508,"ender":2509,"Ġparameter":2510,"viron":2511,"Ġtry":2512,"Ġplayers":2513,"ldots":2514,"Manager":2515,"2014":2516,"circ":2517,"ponse":2518,"Ġdeta":2519,"=\"#":2520,"Ġoriginal":2521,"ĠJan":2522,"ths":2523,"package":2524,"Ġlarg":2525,"Ġregion":2526,"Ġschool":2527,"aint":2528,"refer":2529,"\\!":2530,"Ġdel":2531,"ience":2532,"Ġterms":2533,"Out":2534,"2022":2535,"Ġdem":2536,"cast":2537,"include":2538,"Ġimage":2539,"Ġfamily":2540,"Ġsuccess":2541,"Ġ};":2542,"Ġcho":2543,"ĠÐ":2544,"aving":2545,"otential":2546,"ĠAt":2547,"ĠStates":2548,"Lambda":2549,"ĠSp":2550,"ĠCl":2551,"Ġgood":2552,"ither":2553,"af":2554,"Inter":2555,"Ġitem":2556,"false":2557,"count":2558,"If":2559,"earch":2560,"Ġlength":2561,"Ġdistribution":2562,"ithub":2563,"36":2564,"Ġadv":2565,"ĠAll":2566,"Ġpossible":2567,"lose":2568,"bum":2569,"ajor":2570,"cap":2571,"~~":2572,"DO":2573,"mathfrak":2574,"Ġplace":2575,"ĠCar":2576,"mo":2577,"Ġfull":2578,"Ġchange":2579,"Ġ``":2580,"New":2581,"Trans":2582,"All":2583,"Ġseason":2584,"ĠBr":2585,"Ġsk":2586,"ensuremath":2587,"Ġfilm":2588,"Ġret":2589,"=\"../":2590,"core":2591,"Ġstructure":2592,"usiness":2593,"oin":2594,"ĠGet":2595,"ump":2596,"appa":2597,"ideo":2598,"ĠGr":2599,"Ġshows":2600,"ords":2601,"39":2602,")</":2603,"Pr":2604,"Ġbackground":2605,")(":2606,"struction":2607,"ways":2608,"Phi":2609,"ternational":2610,"Ġseveral":2611,"Ġdiscuss":2612,"System":2613,"Ġclos":2614,"tes":2615,"Ġwant":2616,"foot":2617,"Ġestab":2618,"mbox":2619,"05":2620,"Ġwidth":2621,"doc":2622,"arning":2623,"<!--":2624,"ĠCan":2625,"Ġsuper":2626,"wards":2627,".\\":2628,"etic":2629,"Ġinclude":2630,"tabular":2631,"ename":2632,"2021":2633,"Ð°":2634,"uster":2635,"Ġcontinu":2636,"48":2637,"ES":2638,"inary":2639,"onse":2640,"Ġcell":2641,"}),":2642,"31":2643,"Ġproperty":2644,"}+":2645,"Ġinterest":2646,"================":2647,"Ġcolor":2648,"Ġann":2649,"uments":2650,"Ġaddress":2651,"print":2652,"2013":2653,"ULL":2654,"MA":2655,"sequ":2656,"Ġmatch":2657,"Ġold":2658,"Dis":2659,"âĢľ":2660,"ection":2661,"ĠJohn":2662,"OT":2663,"alt":2664,"Ġla":2665,"github":2666,"undle":2667,"ĠFe":2668,"ster":2669,"Ġandroid":2670,"Ġlaw":2671,"2010":2672,"icient":2673,"Ġlimit":2674,"](":2675,"nab":2676,"ifier":2677,"overnment":2678,"Ġresponse":2679,"urch":2680,"At":2681,"38":2682,"){":2683,"Ġcap":2684,"ready":2685,"google":2686,"sf":2687,"Ġoutput":2688,"ides":2689,"leg":2690,"Ġmatrix":2691,"Ġarea":2692,"define":2693,"uk":2694,"Ġintrodu":2695,"citep":2696,"Ġmean":2697,"Ġport":2698,"Ġproduct":2699,"ĠEn":2700,"db":2701,"Ġlife":2702,"Ġorgan":2703,"Ġsequ":2704,"Property":2705,"Reg":2706,"ĠBy":2707,"Ġuntil":2708,".âĢĿ":2709,"ĠMan":2710,"kappa":2711,"ĠNational":2712,"195":2713,"ĠWorld":2714,"Ġ()":2715,"Ġfunctions":2716,"ven":2717,"UN":2718,"otimes":2719,"static":2720,"ĠâĢĶ":2721,"Ġcare":2722,"Ġcrit":2723,"ude":2724,"textit":2725,"Ġoptions":2726,"Ġavailable":2727,"ĠCent":2728,"argin":2729,"2011":2730,"IR":2731,"nect":2732,"web":2733,"Ġcomb":2734,"Ġstd":2735,"ague":2736,"})$":2737,"ĠCount":2738,"Group":2739,"37":2740,"subset":2741,"anel":2742,"vari":2743,"oud":2744,"Ġanother":2745,"method":2746,"aster":2747,">(":2748,"2012":2749,"Ġperson":2750,"66":2751,"clus":2752,"ĠThen":2753,"Ġshort":2754,"draw":2755,"ially":2756,"dom":2757,"Ġsatisf":2758,"Ġbook":2759,"rict":2760,"Client":2761,"Ð¾":2762,"Ġiss":2763,"Ġvert":2764,"Ġstrong":2765,"bra":2766,"Ġservice":2767,"Count":2768,"And":2769,"ĠĠĠĠĠĠĠĠĠĠĠĠĠĠĠĠĠĠĠĠĠĠĠĠĠĠĠĠĠĠĠ":2770,"event":2771,"Ġspe":2772,"ĠThey":2773,"Mod":2774,"ĠGe":2775,"ici":2776,"ĠRep":2777,"nabla":2778,"ention":2779,"Ġaccess":2780,"44":2781,"Ġmagn":2782,"Bar":2783,"ENT":2784,"ibr":2785,"ĠTe":2786,"Ġdeg":2787,"ponents":2788,"raint":2789,"Ġexpected":2790,"Ġtable":2791,"Ġgraph":2792,"IP":2793,"Query":2794,"rist":2795,"\\%":2796,"pen":2797,"ourn":2798,"ĠPol":2799,"build":2800,"ĠSc":2801,"null":2802,"Ġlang":2803,"Method":2804,"Response":2805,"ament":2806,"Ġnil":2807,"Ġdesign":2808,"Override":2809,"Ġinvest":2810,"Ġindic":2811,"CE":2812,"ĠList":2813,"\\{":2814,"oken":2815,"current":2816,"\\|":2817,"Ġsolution":2818,"Ġbool":2819,"Ġpotential":2820,"Call":2821,"Ġlay":2822,"Ġcour":2823,"ns":2824,"small":2825,"((":2826,"Ġvol":2827,"ĠSchool":2828,"call":2829,"epar":2830,"ibility":2831,"ges":2832,"Ġdocument":2833,"ĠNov":2834,"exp":2835,"Ġstates":2836,"height":2837,"TH":2838,"Ġaff":2839,"reen":2840,"dl":2841,"vironment":2842,"Builder":2843,"inc":2844,"cho":2845,"finished":2846,"ĠJul":2847,"apt":2848,"nonumber":2849,"Ġside":2850,"Ġimportant":2851,"query":2852,"ught":2853,"Ġperiod":2854,"US":2855,"ze":2856,"Ġfree":2857,"stit":2858,"aim":2859,"Ġmessage":2860,"amework":2861,"gress":2862,"ĠReg":2863,"uture":2864,"Ġpo":2865,"Ġstandard":2866,"Ġsche":2867,"ending":2868,"verage":2869,"Ġmat":2870,"AME":2871,"ung":2872,"ii":2873,"Ġday":2874,"Ġdiv":2875,"image":2876,"actory":2877,"Ġpub":2878,"Ġtimes":2879,"alf":2880,"Ġrequired":2881,"now":2882,"Read":2883,"yl":2884,"ategory":2885,"aced":2886,"lex":2887,"Ġcomplex":2888,"Sub":2889,"70":2890,"button":2891,"Ġobtained":2892,"hold":2893,"stand":2894,"idual":2895,"Ġlight":2896,"II":2897,"Ġsignific":2898,"Ġlabel":2899,"2008":2900,"hand":2901,"ĠWar":2902,"ĠCo":2903,"illi":2904,"ĠSet":2905,"tem":2906,"Arg":2907,"Ġdensity":2908,"Ġfa":2909,"rav":2910,"wide":2911,"Ðµ":2912,"Date":2913,"ĠLet":2914,"But":2915,"}}{":2916,"Ġvalid":2917,"Ġeng":2918,"ocial":2919,"ĠUS":2920,"ĠGu":2921,"Ġapproxim":2922,"place":2923,"Ġbl":2924,"Ġturn":2925,"oop":2926,"ĠYork":2927,"ĠCal":2928,"rior":2929,"Stream":2930,"dir":2931,"php":2932,"xy":2933,"ls":2934,"cle":2935,"Ġdon":2936,"ĠBe":2937,"Ġes":2938,"semb":2939,"ĠPar":2940,"unfinished":2941,"Ġconstant":2942,"2009":2943,"Ġperformance":2944,"Ġscal":2945,"dots":2946,"/\\":2947,"Gener":2948,"ks":2949,"mat":2950,"Sigma":2951,"End":2952,"ĠNo":2953,"Ġmethods":2954,"mark":2955,"ĠSec":2956,"SP":2957,"lib":2958,"Ġanalysis":2959,"Ġbu":2960,"Ġfew":2961,"uation":2962,"\\[":2963,"eve":2964,"Ġpaper":2965,"])":2966,"pol":2967,"net":2968,"Ġtask":2969,"Ġalbum":2970,"oment":2971,"Fig":2972,"icro":2973,"Be":2974,"dec":2975,"Ġlinear":2976,"display":2977,"Ġborder":2978,"ĠMin":2979,"ring":2980,"options":2981,"Ġphot":2982,"0000":2983,"EE":2984,"Ġtheory":2985,"uman":2986,"Ġred":2987,"request":2988,"ĠĠĠĠĠĠĠĠĠĠĠĠĠĠĠĠĠ":2989,"Ġcorresponding":2990,"Ġhome":2991,"Ġclear":2992,"ply":2993,"ĠAug":2994,"}-":2995,"ĠWest":2996,"Ġcou":2997,"illion":2998,"prime":2999,"NS":3000,"Ġpair":3001,"Ġfurther":3002,"ĠAss":3003,"jav":3004,"kn":3005,"Image":3006,"rows":3007,"Ġ<<":3008,"init":3009,"ĠIm":3010,"gener":3011,"IL":3012,"Ġrate":3013,"widet":3014,"Ap":3015,"Ġlower":3016,"Ġwin":3017,"ĠSup":3018,"ales":3019,"client":3020,"ours":3021,"Ġcalcul":3022,"08":3023,"came":3024,"ently":3025,"Ġequation":3026,"aged":3027,"Ġfootball":3028,"ĠCounty":3029,"Ġphys":3030,"mult":3031,"ae":3032,"Ġless":3033,"Ġoffic":3034,"arams":3035,"ĠJanuary":3036,"Ġproperties":3037,"Ġleg":3038,"49":3039,"ĠOct":3040,"Ġrole":3041,"Ġrest":3042,"anch":3043,"Ġbecame":3044,"urb":3045,"ological":3046,"erman":3047,"Ġ->":3048,"Ġide":3049,"rain":3050,"vers":3051,"AG":3052,"Ġapproach":3053,"Ġleast":3054,"Ġeas":3055,"Ġpolit":3056,"book":3057,"ories":3058,"Ġdeath":3059,"Ġweek":3060,"ĠThere":3061,"Input":3062,"wise":3063,"oman":3064,"creen":3065,"run":3066,"Ġfeature":3067,"witch":3068,"Ġabs":3069,"raft":3070,"widetilde":3071,"{-":3072,"ino":3073,"PI":3074,"Ġnormal":3075,"2007":3076,"Ġvector":3077,"Block":3078,"Ġmusic":3079,"ĠBut":3080,"server":3081,"ONT":3082,"Status":3083,"yles":3084,"iff":3085,"args":3086,"ites":3087,"png":3088,"Ġmot":3089,"({":3090,"Ġcontribut":3091,"element":3092,"Act":3093,"Ġeither":3094,"Lay":3095,"sing":3096,"Nav":3097,"plied":3098,"mber":3099,"Ġearly":3100,"Ġalready":3101,"Ġsystems":3102,"Ġdescribed":3103,"ĠSouth":3104,"hether":3105,"Ġcolumn":3106,"has":3107,"do":3108,"ustral":3109,"Ġaccount":3110,"Par":3111,"Component":3112,"ĠThese":3113,"OS":3114,"Ġprom":3115,"page":3116,"tx":3117,"lev":3118,"ensor":3119,"Paramet":3120,"ĠSo":3121,"ĠBrit":3122,"[\"":3123,"Pos":3124,"Ġrespectively":3125,"centering":3126,"adding":3127,"Ġbir":3128,"Ed":3129,"MS":3130,"ĠState":3131,"asing":3132,"OP":3133,"Ġcases":3134,"Ġrandom":3135,"Ġcirc":3136,"ptember":3137,"irection":3138,"Ġelements":3139,"Line":3140,"Ġsignificant":3141,"Sec":3142,"Ġparent":3143,"append":3144,"atform":3145,"Ġindu":3146,"47":3147,"07":3148,"abase":3149,"Ġfore":3150,"App":3151,"Ġmajor":3152,"func":3153,"No":3154,"ĠĠĠĠĠĠĠĠĊ":3155,"gen":3156,"Cell":3157,"Ġnum":3158,"Ġresearch":3159,"pril":3160,"Ġfeatures":3161,"Ġcross":3162,"Ġcover":3163,"olved":3164,"ocol":3165,"Ġsong":3166,"Action":3167,"agement":3168,"ĠMarch":3169,"Ġconditions":3170,"skip":3171,"Ġprovide":3172,"though":3173,"prop":3174,"Ġsepar":3175,"era":3176,"Ġsay":3177,"bb":3178,"bottom":3179,"ably":3180,"Ġassociated":3181,"mit":3182,"omic":3183,"Ġmembers":3184,"Resource":3185,"Ġbelow":3186,"used":3187,"ves":3188,"2006":3189,"ĠRec":3190,"Ġconstruct":3191,"header":3192,"ordin":3193,"igation":3194,"spec":3195,"tact":3196,"ising":3197,"Ġphase":3198,"Cl":3199,"Ġtyp":3200,"target":3201,"gle":3202,"Ġhy":3203,"Ġdiff":3204,"Ġhigher":3205,"Ġimplement":3206,"ached":3207,"cell":3208,"46":3209,"urope":3210,"istor":3211,"Ġtrack":3212,"Ġevents":3213,"Ġsuff":3214,"Ġge":3215,"urg":3216,"icense":3217,"Ext":3218,"orage":3219,"Ġ\"\"\"":3220,"Rep":3221,"acing":3222,"ĠAdd":3223,"Ġcoll":3224,"ĠNULL":3225,"ĠMed":3226,"ebug":3227,"ica":3228,"uggest":3229,"CC":3230,"Ġvia":3231,"navbar":3232,"REF":3233,"Ġcommon":3234,"ada":3235,"oll":3236,"ights":3237,"module":3238,"Token":3239,"zeta":3240,"active":3241,"lege":3242,"YPE":3243,"Ġhost":3244,"Ġpage":3245,"Ġrecent":3246,"\\]":3247,"elete":3248,"Ġclose":3249,"izer":3250,"po":3251,"cy":3252,"ĠĠĠĠĠĠĠĠĠĠĠĠĠĠ":3253,"adio":3254,"dat":3255,"imary":3256,"02":3257,"Head":3258,"Ġneg":3259,"95":3260,"Ð¸":3261,"dr":3262,"2000":3263,"Ġproof":3264,"cember":3265,"âĢĶ":3266,"Ġprof":3267,"Base":3268,"verse":3269,"ilit":3270,")]":3271,"04":3272,"font":3273,"plies":3274,"Ġspecial":3275,"Dec":3276,"flow":3277,"ugin":3278,"main":3279,"ĠAp":3280,"06":3281,"Ġcomplet":3282,"ĠEq":3283,"ried":3284,"Ġtraining":3285,"case":3286,"Ġformer":3287,"Ġbetter":3288,"Ġdynam":3289,"ards":3290,"mar":3291,"Ġsimple":3292,"Ġtemper":3293,"omorph":3294,"based":3295,"eed":3296,"ĠBo":3297,"Ġbi":3298,"Handler":3299,"ney":3300,"ĠAugust":3301,"ĠCity":3302,"ĠCor":3303,"xml":3304,"Ġflow":3305,"Ġboolean":3306,"uid":3307,"Ġcompany":3308,"ional":3309,"Ġcost":3310,"Ġquest":3311,"Ġmeans":3312,"ĠSeptember":3313,"Ġdefine":3314,"ĠCO":3315,"first":3316,"Ã¡":3317,"aves":3318,"ĠPart":3319,"Ġfields":3320,"member":3321,"lying":3322,"ones":3323,"ĠInt":3324,"parent":3325,"pc":3326,"Ġgrow":3327,"ham":3328,"ĠJune":3329,"thm":3330,"Ġband":3331,"lor":3332,"Sup":3333,"${":3334,"inst":3335,"scale":3336,"Ġins":3337,"Ġconsist":3338,"known":3339,"FA":3340,"09":3341,"Ġ&=":3342,"ĠQu":3343,")=\\":3344,"}=\\":3345,"Ġwon":3346,"Ġcity":3347,"can":3348,"ansport":3349,"UE":3350,"ship":3351,"Instance":3352,"Content":3353,"Ġconsidered":3354,"arr":3355,"ĠMe":3356,"\"]":3357,"Ġsem":3358,"ecess":3359,"ĠGener":3360,"Ġbusiness":3361,"ĠApril":3362,"ialog":3363,"Ġalgorithm":3364,"lip":3365,"Ġfrequ":3366,"ĠOctober":3367,",âĢĿ":3368,"Ġauthor":3369,"Ġalways":3370,"Window":3371,"Ġrelations":3372,"write":3373,"property":3374,"rum":3375,"Ġant":3376,"dapt":3377,"ering":3378,"Part":3379,"Ġscale":3380,"mail":3381,"Ġmar":3382,"emma":3383,"ĠWhen":3384,"Ġradi":3385,"sg":3386,"Ġ+=":3387,"level":3388,"local":3389,"Ġaverage":3390,"ĠJuly":3391,"Off":3392,"ĠEd":3393,"Options":3394,"char":3395,";\\":3396,"oding":3397,"Link":3398,"LASS":3399,"select":3400,"ula":3401,"Ġappear":3402,"Source":3403,"medi":3404,"Ġpositive":3405,"onal":3406,"Ġlines":3407,"Ġexists":3408,"which":3409,"ĠTheorem":3410,"Ġhttp":3411,"EX":3412,"ered":3413,"ÑĤ":3414,"open":3415,"rl":3416,"Ġdisplay":3417,"Str":3418,"idence":3419,"chan":3420,"json":3421,"ertain":3422,"AA":3423,"post":3424,"Ġzero":3425,"ĠNorth":3426,"eline":3427,"meta":3428,"Ġund":3429,"Ġprovided":3430,"most":3431,"Ad":3432,"Ġeval":3433,"Ġsymmet":3434,"ana":3435,"plicit":3436,"Ġalign":3437,"65":3438,"adata":3439,"cos":3440,"alle":3441,"Ġstep":3442,"Sp":3443,"03":3444,"Ġcommand":3445,"ĠWith":3446,"Ġglobal":3447,"Ġreleased":3448,"strong":3449,"ought":3450,"Ġindiv":3451,"OD":3452,"Ġput":3453,"operator":3454,"Ġdefinition":3455,"42":3456,"Ġbehav":3457,"aly":3458,"ĠAustral":3459,"na":3460,"Ġgovernment":3461,"rid":3462,",-":3463,"ĠSer":3464,"child":3465,"apping":3466,"First":3467,"Ġloss":3468,"|-":3469,"Comp":3470,"ĠDef":3471,"Null":3472,"Buffer":3473,"private":3474,"ops":3475,")}\\":3476,"HT":3477,"Run":3478,"ĠSection":3479,"find":3480,"ĠĠĠĠĠĠĠĠĠĠĠĠĊ":3481,"GL":3482,"eger":3483,"Ġseen":3484,"oriz":3485,"ĠEurope":3486,"ĠDecember":3487,"btn":3488,"Ġoperator":3489,"Ġthink":3490,"rowser":3491,"close":3492,")^{":3493,"Equal":3494,"Ġdouble":3495,"ĠNovember":3496,"oke":3497,"Psi":3498,"rest":3499,"Point":3500,"Ġcompet":3501,"Wh":3502,"Ġgrad":3503,"Ġfinite":3504,"img":3505,"Ġspecific":3506,"aps":3507,"ATE":3508,"Ġbody":3509,"ged":3510,"Ġsl":3511,"status":3512,"atural":3513,"cond":3514,"irtual":3515,"Ġmight":3516,"ittle":3517,"alax":3518,"ided":3519,"}]":3520,"ussian":3521,"long":3522,"2005":3523,"Default":3524,"Ġamong":3525,"actions":3526,"Ġoften":3527,"Ġheight":3528,"Ġchildren":3529,"Start":3530,"Ġtoo":3531,"Ġnumer":3532,"thers":3533,"Ġver":3534,"See":3535,"ampions":3536,"reed":3537,"Ġwrite":3538,"Function":3539,"layout":3540,"host":3541,"ĠAfter":3542,"Command":3543,"itted":3544,"description":3545,"Ġvarious":3546,"Ġhistory":3547,"su":3548,"$)":3549,"Ġsearch":3550,"riter":3551,"change":3552,"Number":3553,"Ġthus":3554,"HE":3555,"izing":3556,"abor":3557,"stream":3558,"Box":3559,"heet":3560,"cdots":3561,"Task":3562,"thern":3563,"Factory":3564,"bor":3565,"Ġthird":3566,"Ġcontains":3567,"ĠDes":3568,"Ġmember":3569,"}|":3570,"CK":3571,"src":3572,"Ġcy":3573,"ires":3574,"ilities":3575,"Ð½":3576,"ĠNone":3577,"Ġdest":3578,"ography":3579,"last":3580,"AM":3581,"Ġimp":3582,"Ġwhether":3583,"Ġload":3584,"iddle":3585,"Ġstar":3586,"gebra":3587,"Oper":3588,"Ġcreated":3589,"olutions":3590,"{(":3591,"SC":3592,"Ġgl":3593,"88":3594,"umb":3595,"iler":3596,"ĠOne":3597,"Ġfund":3598,"Ġlate":3599,"Ġcompar":3600,"igger":3601,"ascript":3602,"Ġmultiple":3603,"Ġplayed":3604,"ĠTest":3605,"Ġsuggest":3606,"sembly":3607,"ians":3608,"Ġfail":3609,"ĠâĢĺ":3610,"ĠChrist":3611,"column":3612,"bruary":3613,"std":3614,"igen":3615,"lemma":3616,"ributes":3617,"Label":3618,"Ġpract":3619,"Ġacross":3620,"allet":3621,"apan":3622,"oto":3623,"ogn":3624,"VER":3625,"Attribute":3626,"Ġplan":3627,"}_\\":3628,"}^\\":3629,"Ġhard":3630,"Ġcomponent":3631,"project":3632,"pling":3633,"ĠObject":3634,"ĠMc":3635,"otype":3636,"Ġindependent":3637,"Hel":3638,"Ġarch":3639,"Ġblack":3640,"ptr":3641,"Ġgive":3642,"Ġindividual":3643,"Bundle":3644,"sole":3645,"rew":3646,"Ġmoment":3647,"ements":3648,"vis":3649,"idden":3650,"Ġ]":3651,"*/":3652,"Ġpopulation":3653,"Ġarr":3654,"Ġtoget":3655,"ensions":3656,"2004":3657,"chema":3658,"Ġunit":3659,"Ġsite":3660,"Ġtogether":3661,"Version":3662,"itory":3663,"Prov":3664,"Ġmove":3665,"Ġwindow":3666,"ference":3667,"Ġpay":3668,"ication":3669,"LT":3670,"ftware":3671,"Style":3672,"Ġpredict":3673,"aging":3674,"Ġincluded":3675,"Ġexpress":3676,"Sc":3677,"mem":3678,"Ġtransform":3679,"ĠHigh":3680,"Ġmer":3681,"Ġfocus":3682,"Ġsent":3683,"});":3684,"IM":3685,"empt":3686,"Ġsequence":3687,"Ġdone":3688,"imensional":3689,"Ġreceived":3690,"Ġcustom":3691,"adem":3692,"Ġwomen":3693,"ured":3694,"Ġfive":3695,"Ġtre":3696,"split":3697,"irm":3698,"Ġfixed":3699,"ging":3700,"lick":3701,"Ġfactor":3702,"Ġ\\{":3703,"Ġbecome":3704,"Ġhowever":3705,"dist":3706,"aff":3707,"Ġprint":3708,"widehat":3709,"ĠClass":3710,"py":3711,"Ġachi":3712,"Ġobserved":3713,"len":3714,"Ġhom":3715,"Ġwritten":3716,"TO":3717,"FI":3718,"ĠIN":3719,"push":3720,"artment":3721,"Ġattack":3722,"Ġlik":3723,"Ġwater":3724,"Ġproposed":3725,"Return":3726,"mon":3727,"pdf":3728,"Ġinternal":3729,"Spec":3730,"Pol":3731,"example":3732,"equiv":3733,"atio":3734,"ama":3735,"ĠMore":3736,"iol":3737,"num":3738,"Ġhapp":3739,"gl":3740,"Filter":3741,"ĠSince":3742,"Row":3743,"Ġgreat":3744,"Ġclaim":3745,"ĠCont":3746,"mid":3747,"ifact":3748,"67":3749,"(-":3750,"Ġequival":3751,"textwidth":3752,"ĠAct":3753,".~":3754,"ulations":3755,"PRO":3756,"icol":3757,"Ġfar":3758,"sin":3759,"ille":3760,"Ġmode":3761,"ĠKing":3762,"SU":3763,"Last":3764,"Ġrelated":3765,"ceed":3766,"Ġ<!--":3767,"})\\":3768,"entry":3769,"Ġtransition":3770,"Ġlim":3771,"Ġgroups":3772,"Ġable":3773,"ha":3774,"udio":3775,"ipp":3776,"}/":3777,",\"":3778,"raction":3779,"born":3780,"Ġsom":3781,"///":3782,"mt":3783,"Ġsurface":3784,"abs":3785,"Ġprotected":3786,"Check":3787,"Ġclient":3788,"][":3789,"ĠAb":3790,"Ġextends":3791,"Ġhaving":3792,"Button":3793,"ĠDis":3794,"Ġage":3795,"FONT":3796,"True":3797,"atal":3798,"Controller":3799,"javascript":3800,"iqu":3801,"âĢ¦":3802,"container":3803,"cup":3804,"eder":3805,"Ġadditional":3806,"Ġexecut":3807,"Ġexact":3808,"Ent":3809,"aries":3810,"Ġupdate":3811,"////////////////":3812,"Ġgames":3813,"}}(":3814,"Ġdistance":3815,"Ġfuture":3816,"qquad":3817,"Ġinstead":3818,"Ġsix":3819,"pack":3820,"ĠSch":3821,"encies":3822,"ued":3823,"Page":3824,"format":3825,"ĠFebruary":3826,"rypt":3827,"command":3828,"wed":3829,"Ġnamed":3830,"ĉĉĉĉĉĉĉĉ":3831,"Ob":3832,"Ġmodule":3833,"ĠBar":3834,"expect":3835,"ĠDr":3836,"########":3837,"Ġprobability":3838,"Ġresource":3839,"Ġauto":3840,"stract":3841,"acity":3842,"Ġmargin":3843,"Ġnever":3844,"Ġep":3845,"Ġreview":3846,"85":3847,"service":3848,"43":3849,"pher":3850,"istics":3851,"Ġhealth":3852,"process":3853,"&=":3854,"ĠBritish":3855,"Ġregular":3856,"ĠSim":3857,"Ġcannot":3858,"empty":3859,"agram":3860,"ids":3861,"params":3862,"nected":3863,"ĠMon":3864,"indent":3865,"Ġdomain":3866,"like":3867,"utes":3868,"ĠComp":3869,"update":3870,"CD":3871,"UI":3872,"filter":3873,"Ġworks":3874,"reet":3875,"signed":3876,"ĠNot":3877,"ams":3878,"Ġche":3879,"Pre":3880,"ĠFigure":3881,"response":3882,"Ġperm":3883,"Ġbegin":3884,"izes":3885,"Ġlanguage":3886,"Create":3887,"Ġchanges":3888,"SON":3889,"ibrary":3890,"Ġexperiment":3891,"styles":3892,"Ġfac":3893,"Ġstatus":3894,"Ġdevelopment":3895,"Ġtook":3896,"Ġconc":3897,"irit":3898,"ÑĢ":3899,"97":3900,"annot":3901,"ĠGo":3902,"bound":3903,"Ġthrows":3904,"{{\\":3905,"board":3906,"ĠDist":3907,"Ġoption":3908,"Ġ{@":3909,"iform":3910,"note":3911,"Fl":3912,"Ġlearning":3913,"Ġbecom":3914,"Ġ((":3915,"^+":3916,"Ġtypes":3917,"Ġtw":3918,"}^{(":3919,"Ġdate":3920,"appro":3921,"Listener":3922,"ĠRef":3923,"41":3924,"Em":3925,"lections":3926,"(&":3927,"Ġland":3928,"Ġair":3929,"DB":3930,"number":3931,"Ġbuilt":3932,"ĠReturn":3933,"cel":3934,"show":3935,"ĠII":3936,"unk":3937,"\").":3938,"{}":3939,"eloc":3940,"Ġquantum":3941,"Ġsit":3942,"ba":3943,"&&":3944,"Ġemploy":3945,"ĠOff":3946,"Ġben":3947,"Ġnecess":3948,"hel":3949,"Const":3950,"Ġhouse":3951,"istry":3952,"hib":3953,"Ġcatch":3954,"Ġdatas":3955,"Ġlocated":3956,"Ġurl":3957,"star":3958,"Ġtown":3959,"Ġbeli":3960,"pass":3961,"\"),":3962,"Ġapplication":3963,"ABLE":3964,"even":3965,"endif":3966,"ĠChar":3967,"PC":3968,"Acc":3969,"obj":3970,"ises":3971,"aches":3972,"Ġconv":3973,"Ġassume":3974,"ause":3975,"oted":3976,"NO":3977,"olve":3978,"Ġgenerated":3979,"Ġanaly":3980,"MM":3981,"ike":3982,"ln":3983,"Ġreason":3984,"Ġtaken":3985,"ĠHREF":3986,"Ġmiss":3987,"fill":3988,"Ġcommunity":3989,"iet":3990,"}\\,":3991,"How":3992,"Ġdays":3993,"Ġhalf":3994,"Ġgen":3995,"OL":3996,"Ġmaterial":3997,"77":3998,"Ġlarger":3999,"itional":4000,"hood":4001,"aul":4002,"ĠHam":4003,"Ġground":4004,"ĠArm":4005,"Ġcopy":4006,"Ġ$(\\":4007,"Ġsets":4008,"Aut":4009,"ĠLeague":4010,"ese":4011,"attr":4012,"Ġplayer":4013,"Ġvideo":4014,"Ġspin":4015,"ĠCLASS":4016,"Ġkeep":4017,"Ã³":4018,"tag":4019,"Ġpress":4020,"Ġstation":4021,"}:":4022,"Ġcamp":4023,"Ġcenter":4024,"buf":4025,"ĠPer":4026,"98":4027,"Ġgoing":4028,"rench":4029,"xspace":4030,"Ġselect":4031,"Ġconstraint":4032,"Ġequal":4033,"ĠEnglish":4034,"Ġaccording":4035,"ĠHis":4036,"Ġtrad":4037,"Ġestablished":4038,"ĠEl":4039,"Ġrow":4040,"96":4041,"ulture":4042,"One":4043,"ĠSan":4044,"Ġcareer":4045,"Ġtemperature":4046,"Ġadded":4047,"2003":4048,":</":4049,"Ġcomplete":4050,"bin":4051,"Char":4052,"ĠVal":4053,"ty":4054,"hspace":4055,"Ġdraw":4056,"Ġill":4057,"Ġheld":4058,"Ġonce":4059,"Met":4060,"Ġenvironment":4061,"menu":4062,"Ġrepl":4063,"Ġgalax":4064,"Ġmaking":4065,"duc":4066,"Ġeduc":4067,"roy":4068,"ners":4069,"Ġproduction":4070,"Ġaccur":4071,"tex":4072,"Ġweight":4073,"anged":4074,"ems":4075,"Per":4076,"itting":4077,"lease":4078,"Ġiter":4079,"quare":4080,"Ġamount":4081,"Back":4082,"ĠBl":4083,"tic":4084,"ols":4085,"Equals":4086,"Ġhuman":4087,"ĠPres":4088,"itect":4089,"Ġapplic":4090,"SI":4091,"ĠJapan":4092,"cs":4093,"<?":4094,"Layout":4095,"normal":4096,"Ġcertain":4097,"}\\\\":4098,"Column":4099,"mathsf":4100,"=\"../../":4101,"Ġcountry":4102,"Ġrot":4103,"Ġimprov":4104,"isk":4105,"ĠLemma":4106,"Ġenough":4107,"Ġannoun":4108,"Ġmedia":4109,"andid":4110,"Valid":4111,"Ġfig":4112,"reference":4113,"di":4114,"ampionship":4115,"nce":4116,"sm":4117,"Ġlocation":4118,"ĠLa":4119,"refix":4120,"ĠUp":4121,"oo":4122,"icip":4123,"Ge":4124,"thing":4125,"Ġpublished":4126,"ĠAfr":4127,"Ġnav":4128,"older":4129,"Ġbuilding":4130,"Americ":4131,"final":4132,"Tem":4133,"aml":4134,"values":4135,"only":4136,"year":4137,"flu":4138,"eh":4139,"ĠCoun":4140,".$":4141,"Ġstream":4142,"ĠAg":4143,"ocket":4144,"ulated":4145,"Ġsocial":4146,"Ġactiv":4147,"ĠDo":4148,">>":4149,"ĠÂ":4150,"instance":4151,"Ġedge":4152,"}+\\":4153,"Ġprior":4154,"ondon":4155,"Ġnational":4156,"that":4157,"Format":4158,"ql":4159,"ĠPark":4160,"ington":4161,"({\\":4162,"Ġprec":4163,"Ġspecified":4164,"ournal":4165,"Ġbegan":4166,"ouch":4167,"Ġremov":4168,"Ġfont":4169,"Ab":4170,"multi":4171,"').":4172,"2001":4173,"ĠAir":4174,"cil":4175,"iber":4176,"Us":4177,"Ġdetails":4178,"Ġ&\\":4179,"else":4180,"ota":4181,"Ġfri":4182,"ĠDep":4183,"Ġreference":4184,"Ġserver":4185,"Ġyoung":4186,"ND":4187,"Ġfilter":4188,"depend":4189,"Ag":4190,"ĉĠĠĠ":4191,"Ġnote":4192,"enumer":4193,"Ġgives":4194,"ĠOF":4195,"Ġfilms":4196,"tains":4197,"operatorname":4198,"eople":4199,"cd":4200,"Web":4201,"icture":4202,"Ġeffects":4203,"citet":4204,")-":4205,"Ġcapt":4206,"Ġprop":4207,"Ġmillion":4208,"jection":4209,"ĠID":4210,"BU":4211,"'$":4212,"INT":4213,"itude":4214,"grad":4215,"Ut":4216,"remove":4217,"ĠEast":4218,"evel":4219,"=\"../../../../../":4220,"```":4221,"Next":4222,"Ġboundary":4223,"Ġobjects":4224,"Fe":4225,"Ġstory":4226,"Ġoffer":4227,"rown":4228,"ĠDav":4229,"ills":4230,"Vert":4231,"Ġround":4232,"Ġsubject":4233,"Ġwhose":4234,"After":4235,"Ġservices":4236,"Ġliter":4237,"Ð¾Ð":4238,"ĠThus":4239,"Child":4240,"Ġequations":4241,"system":4242,"layer":4243,"Ġoptim":4244,"2002":4245,"FT":4246,"ERT":4247,"Ġcomponents":4248,"ĠArt":4249,"Ġinterface":4250,"Ġactive":4251,"Ġcorrect":4252,"ĠAcc":4253,"Ġ...":4254,"efined":4255,"BC":4256,"Rem":4257,"Ġcome":4258,"imation":4259,"Ġmaximum":4260,"Ġmarket":4261,"ĠMark":4262,"ope":4263,"osp":4264,"URL":4265,"Ġoperation":4266,"ÃŃ":4267,"Ġnone":4268,"Ġselected":4269,"anced":4270,"Select":4271,"century":4272,"]$":4273,"Ġunique":4274,"more":4275,"Ġworking":4276,"ford":4277,"={":4278,"Ass":4279,"Ġreported":4280,"Length":4281,"ĠĠĠĠĠĠĠĠĠĠĠĠĠĠĠĠĠĠĠĠĠĠĠĠĠĠĠĠĠĠĠĠĠĠĠ":4282,"ãģ":4283,"Ġreturned":4284,"\\}":4285,"EL":4286,"Ġmechan":4287,"Ġcut":4288,"Ġengine":4289,"Ġclub":4290,"Ġrank":4291,"ĠAm":4292,"ĠTrans":4293,"Ġtreat":4294,"ds":4295,"68":4296,"onic":4297,"COL":4298,"Ġdegree":4299,"Ġpur":4300,"rule":4301,"oney":4302,"Ġclosed":4303,"Ġquery":4304,"offset":4305,"cr":4306,"There":4307,"}-\\":4308,"Output":4309,"amily":4310,"Ġrelative":4311,"Ġinit":4312,"Ġintegr":4313,"Ġcoordin":4314,"De":4315,"neq":4316,"}}{\\":4317,"ĠHT":4318,"ĠHar":4319,"Ġjob":4320,"ĠInter":4321,"Ġcluster":4322,"(_":4323,"imate":4324,"Max":4325,"stack":4326,"rip":4327,"Ġveloc":4328,"Ñģ":4329,"Ġwar":4330,"NAME":4331,"acc":4332,"otes":4333,"bsite":4334,"Dev":4335,"Ġformat":4336,"late":4337,"ategy":4338,"Ġhtt":4339,"unch":4340,"Mode":4341,"Sim":4342,"Ġbirths":4343,"ometry":4344,"Ġaccept":4345,"astic":4346,"ĠBro":4347,"support":4348,"avy":4349,"=\"-":4350,"ĠFirst":4351,"Address":4352,"Ġaway":4353,"Ġweak":4354,"strict":4355,"float":4356,"oms":4357,"frame":4358,"Ġbar":4359,"scr":4360,"Ġspecies":4361,"Ġtherefore":4362,"Mem":4363,"|^":4364,"Ġconnection":4365,"Ġ;":4366,"Ġsolutions":4367,"Ġpattern":4368,"Min":4369,"multicol":4370,"resh":4371,"Ġthough":4372,"icult":4373,"Ġvariable":4374,"Ġdenote":4375,"TP":4376,"inally":4377,"Ġeffective":4378,"attle":4379,"Ġsetting":4380,"Ġimages":4381,"Ġprovides":4382,"Ġir":4383,"500":4384,"Ġrather":4385,"Ġsw":4386,"anish":4387,"CODE":4388,"obile":4389,"window":4390,"ĠNote":4391,"Ġcompared":4392,"unit":4393,"CON":4394,"Ġyield":4395,"Ġmen":4396,"oder":4397,"ĠCollege":4398,"ething":4399,"Ġprofile":4400,"Ġbox":4401,"IO":4402,"Ġrepresentation":4403,"multicolumn":4404,"iers":4405,"Ġdirection":4406,"Ġstop":4407,"American":4408,"utils":4409,"otal":4410,"omial":4411,"Ġnatural":4412,"Ġvariables":4413,"Ġstarted":4414,"Ġchannel":4415,"ĠDev":4416,"fa":4417,"Ġnov":4418,"atory":4419,"Server":4420,"scope":4421,"Ġneigh":4422,"ĠWilli":4423,"ilitary":4424,"SD":4425,"57":4426,"Co":4427,"Ġexpression":4428,"ĠHouse":4429,"Ġhttps":4430,"Ġhold":4431,"linear":4432,"++)":4433,"ĠFrom":4434,"./":4435,"$(":4436,"ĠSci":4437,"Cache":4438,"Ġtree":4439,"ledge":4440,"Ġunderstand":4441,"soft":4442,"sign":4443,"ĠTable":4444,"Ġmeet":4445,"Ġstudents":4446,"atively":4447,"ĠLicense":4448,"PO":4449,"output":4450,"Ġpast":4451,"AV":4452,"strap":4453,"ĠRed":4454,"Ġinstall":4455,"Ġvill":4456,"ĠLondon":4457,"ĠApp":4458,"Update":4459,"ĠData":4460,"classes":4461,"ĠÃ":4462,"rics":4463,"minist":4464,"ĠNe":4465,"atives":4466,"ĠRev":4467,"Ġsolid":4468,"ĠMy":4469,"ario":4470,"ĠRem":4471,"Tag":4472,"Frame":4473,"models":4474,"IV":4475,"essages":4476,"Ġsays":4477,"Ġbig":4478,"ients":4479,"Ġsm":4480,"ĠHer":4481,"Ġ~":4482,"Url":4483,"Ġmakes":4484,"Ġ-\\":4485,"cing":4486,"ĠAc":4487,"bind":4488,"Ġbit":4489,"Ġsignal":4490,"Ġentire":4491,"ully":4492,"itemize":4493,"Ġ::":4494,"ips":4495,"variant":4496,"Ġroot":4497,"theorem":4498,"uit":4499,"inated":4500,"ĠArray":4501,"Ġsuccessful":4502,"Ġholds":4503,"Pi":4504,"Ġdescription":4505,"Ġlearn":4506,"Ġwords":4507,"Ġpresented":4508,"oon":4509,"ican":4510,"agger":4511,"Ġdifference":4512,"ili":4513,"boot":4514,"ocr":4515,"elling":4516,"enumerate":4517,"sd":4518,"Ġattempt":4519,"Ġdirectly":4520,")}{":4521,"Ġ[]":4522,"Ġ!==":4523,"Ġcollection":4524,"Ġkind":4525,"Ġconver":4526,"Width":4527,"Top":4528,"ĠThat":4529,"kit":4530,"_.":4531,"Ġincrease":4532,"vey":4533,"Ġfiles":4534,"Ġothers":4535,"ka":4536,"mooth":4537,"ĠType":4538,"Ġrelease":4539,"Ġcontinue":4540,"Ġproduced":4541,"eved":4542,"noindent":4543,"tree":4544,"Ġbasis":4545,"document":4546,"Ġsens":4547,"ellow":4548,"([":4549,"Ġalmost":4550,"}}_":4551,"ERR":4552,"inner":4553,"Ġperformed":4554,"clusion":4555,"require":4556,"Ġconfiguration":4557,"itions":4558,"Ġrelation":4559,"Ġparticip":4560,"Since":4561,"Ġlittle":4562,"ociation":4563,"achine":4564,"Ġax":4565,"56":4566,"ĠInternational":4567,"Vis":4568,"87":4569,"Ġstars":4570,"\\!\\!":4571,"artifact":4572,"TYPE":4573,"Target":4574,"break":4575,"Ġcoeff":4576,"dimensional":4577,"ontal":4578,"Ġexplain":4579,"Ġreally":4580,"uel":4581,"Ġcallback":4582,"]\\":4583,"Case":4584,"ming":4585,"Ġadj":4586,"Ġimplies":4587,"********************************":4588,"Ġcame":4589,"Ġupper":4590,"Ġgas":4591,"arks":4592,"match":4593,"Ġframe":4594,"esh":4595,"returns":4596,"iforn":4597,"control":4598,"{{":4599,"conf":4600,"wrap":4601,"CL":4602,"prototype":4603,"Ġask":4604,"PR":4605,"Ġprove":4606,"author":4607,"||":4608,"ĠFile":4609,"\\\"":4610,"aring":4611,"Ġleading":4612,"86":4613,"Provider":4614,"Ġvirtual":4615,"Ġallows":4616,"ara":4617,"ĠMich":4618,"ias":4619,"eft":4620,"Ġrespons":4621,"rea":4622,"omb":4623,"dep":4624,"Tree":4625,"ein":4626,"Ġsupported":4627,"1999":4628,"bool":4629,"Entity":4630,"ociety":4631,"Ġoffset":4632,"Ġincludes":4633,"proto":4634,"Ġfall":4635,"ĠEX":4636,"background":4637,"ker":4638,"Ġnodes":4639,"ĠSub":4640,"Ġforce":4641,"Ġmatter":4642,"Ġconstruction":4643,"vspace":4644,"ifornia":4645,")+":4646,"SO":4647,"When":4648,"ecute":4649,"Ġuses":4650,"ĉĉĊ":4651,"NN":4652,"Ġapplied":4653,"Access":4654,"Types":4655,"icles":4656,"Ġecon":4657,"Ġbehavior":4658,"Ġcentury":4659,"template":4660,"bedd":4661,"ĠAPI":4662,"Ġselection":4663,"oded":4664,"ube":4665,"onstr":4666,"Offset":4667,"unity":4668,"Ġobj":4669,"Ġneeded":4670,"Ġapply":4671,"$}":4672,"Ġchall":4673,"aven":4674,"ãĥ":4675,"Ġtaking":4676,"dated":4677,".)":4678,"modal":4679,"zz":4680,"Ġautom":4681,"edia":4682,"Ġpack":4683,"Ġquestion":4684,"Ġevalu":4685,"Ġentry":4686,"Ġpolicy":4687,"rief":4688,"thon":4689,"Ġbroad":4690,"parse":4691,"lean":4692,"Open":4693,"Ġinf":4694,"Ġargument":4695,"Container":4696,"norm":4697,"Parameter":4698,"ĠFrench":4699,"ico":4700,"Ġdimension":4701,"common":4702,"aa":4703,"pped":4704,"orizontal":4705,"Ġalgebra":4706,")}$":4707,"ilton":4708,"Ġtag":4709,"ief":4710,"ĠNor":4711,"Note":4712,"ĠEm":4713,"Ġjo":4714,"Ġnumbers":4715,"ectors":4716,"clude":4717,"Ġtakes":4718,"Ġtim":4719,"Bo":4720,"Ġdeveloped":4721,"iments":4722,"Ġconduct":4723,"unt":4724,"Ġcentral":4725,"rs":4726,"ctor":4727,"\\,\\":4728,"arily":4729,"ATION":4730,"ĠPhil":4731,"Ġdeep":4732,"58":4733,"etch":4734,"Ġled":4735,"gs":4736,"Ġsources":4737,"Ġargs":4738,"Ġinflu":4739,"Ġproblems":4740,"Ġcourse":4741,"ĠSk":4742,"HO":4743,"Ġ**":4744,"\\}$":4745,"ĠGroup":4746,"]);":4747,"PS":4748,"Ġexcept":4749,"Ġchain":4750,"Ġstudies":4751,"stylesheet":4752,"Ġserved":4753,"Json":4754,"root":4755,"Ġyet":4756,"Ġreturns":4757,"Ġevolution":4758,"Ġmagnetic":4759,"mission":4760,"illed":4761,"idge":4762,"Then":4763,"approx":4764,"Ġfloat":4765,"och":4766,"()->":4767,"'),":4768,"Ġseg":4769,"Ġimpact":4770,"ensive":4771,"Ġtransfer":4772,"Ġspectrum":4773,"uint":4774,"Po":4775,"allel":4776,"tml":4777,"Ġintroduced":4778,"KE":4779,"bert":4780,"Ġdig":4781,"Net":4782,"den":4783,"iting":4784,"Ã¼":4785,"Ġborn":4786,"ĠGL":4787,"Ġremove":4788,"Configuration":4789,"etails":4790,"ĠTherefore":4791,"Ġphysical":4792,"wait":4793,"ĠLog":4794,"inn":4795,"ĉĉĉĉĉĉĉ":4796,"Ġdeb":4797,"task":4798,"omy":4799,"Ġrunning":4800,"Ġscen":4801,"Level":4802,"attern":4803,"Entry":4804,"Header":4805,"graph":4806,"images":4807,"Ġsmaller":4808,"Ġ\\|":4809,"Ġdecl":4810,"Utils":4811,"Ġstre":4812,"should":4813,"59":4814,"Ġcompan":4815,"Ġfit":4816,"oph":4817,"ĠStr":4818,"Ġda":4819,"hent":4820,"ios":4821,"Dr":4822,"det":4823,"ael":4824,"artifactId":4825,"IGN":4826,"lands":4827,"Ġcandid":4828,"then":4829,"uses":4830,"agment":4831,"Ġusers":4832,"Ġexception":4833,"ying":4834,"DF":4835,"rier":4836,"sy":4837,"Control":4838,"auge":4839,"acters":4840,"Ġlive":4841,"Interface":4842,"ategor":4843,"Ġang":4844,"VAL":4845,"vector":4846,"parameter":4847,"Ġvelocity":4848,"Ġitself":4849,"ĠCalifornia":4850,"Load":4851,"mathscr":4852,"Ġpers":4853,"aur":4854,"Ġdifficult":4855,"Ġneut":4856,"Ġestimate":4857,"Ġsomething":4858,"Ġwent":4859,"ECT":4860,"Script":4861,">,":4862,"Ġvers":4863,"berg":4864,"Ġeigen":4865,"Ġparts":4866,"Search":4867,"orge":4868,"Ġneeds":4869,"ansion":4870,"unn":4871,"Height":4872,"Ġofficial":4873,")/":4874,"iation":4875,"Ġregard":4876,"ĠRepublic":4877,"Http":4878,"Ġrecogn":4879,"Ġratio":4880,"You":4881,"avor":4882,"Ġestablish":4883,"band":4884,"ZE":4885,"2023":4886,"}'":4887,"ously":4888,"Ġbuffer":4889,"Ġinvestig":4890,"51":4891,"Ġgot":4892,"entity":4893,":(":4894,"osen":4895,"yd":4896,"ĠDistrict":4897,"Ġdemonstr":4898,"usion":4899,"Ġtelev":4900,"Ġsound":4901,"Ġallowed":4902,"opl":4903,"ution":4904,"dim":4905,"Ġviol":4906,"Ġdecre":4907,"ĠIndia":4908,"à¤":4909,"aign":4910,"burg":4911,"Ġ$\\{":4912,"CP":4913,"ĠĠĠĊ":4914,"Ġgoal":4915,"Work":4916,"ernel":4917,"ĠPort":4918,"anner":4919,"Ġpopular":4920,"Ġmemory":4921,"ĉĠ":4922,"free":4923,"Ġdistrict":4924,"comple":4925,"DD":4926,"ĠIr":4927,"rad":4928,"Ġsyn":4929,"Ġlen":4930,"device":4931,"Me":4932,"Ġbecomes":4933,"stitute":4934,"Ġuint":4935,"ĠGerman":4936,"buffer":4937,"make":4938,"89":4939,"UM":4940,"gence":4941,"Current":4942,"etime":4943,"Rel":4944,"resource":4945,"Ġson":4946,"expected":4947,"Ġnames":4948,"Ġinternational":4949,"Ġsure":4950,"IF":4951,"Ġdevice":4952,"lice":4953,"ĠAmerica":4954,"typ":4955,"pret":4956,"ĠIndian":4957,"Ġstage":4958,"Params":4959,"Write":4960,"cache":4961,"Ġword":4962,"Ġcurrently":4963,"Enc":4964,"ixt":4965,"RA":4966,"cape":4967,"iles":4968,"Ġchoice":4969,"Ġlayer":4970,"Process":4971,"Ġnorth":4972,"---":4973,"QL":4974,"=\"../../../../../../":4975,"CA":4976,"groupId":4977,"criptor":4978,"History":4979,"Unit":4980,"weight":4981,"fs":4982,"Ġcritical":4983,"nap":4984,"eters":4985,"COLOR":4986,"Ġareas":4987,"aching":4988,"Ġrelationship":4989,"1998":4990,"Ġincreasing":4991,"ya":4992,"serve":4993,"ĠCr":4994,"ĠCup":4995,"Now":4996,"Ġspeed":4997,"Ġlikely":4998,"Ġ_{":4999,"Eng":5000,"Ġfront":5001,"Right":5002,"Ġsoftware":5003,"zer":5004,"dx":5005,"Ġequivalent":5006,"Ġclasses":5007,"Dat":5008,";->":5009,"itte":5010,"Ġmult":5011,"ĠSm":5012,"Ġconnect":5013,"Ġhistor":5014,"Mon":5015,"patch":5016,"ened":5017,"Ġadapt":5018,"adow":5019,"Ġinc":5020,"Ġexperience":5021,"Ġwhite":5022,"ua":5023,"Ġ{}":5024,"Ġmetric":5025,"ĠĠĠĠĠĠĠĠĠĠĠĠĠĠĠĠĠĠĠĠĠ":5026,"tim":5027,"gn":5028,"Ġpeak":5029,"ynomial":5030,"BA":5031,"ugins":5032,"Ġexplicit":5033,"Ġdescribe":5034,"ĠRiver":5035,"Callback":5036,"Ġdied":5037,"Ġthings":5038,"~$":5039,"Ġnuc":5040,"\\'":5041,"Ġfrequency":5042,"Ġdeal":5043,"ĠNS":5044,"token":5045,"arp":5046,"Description":5047,"ivil":5048,"bul":5049,"Ġrender":5050,"Module":5051,"useum":5052,"term":5053,"ĠCour":5054,"ĠDem":5055,"Ġerrors":5056,"ãĤ":5057,"CR":5058,"Ġonline":5059,"second":5060,"minus":5061,"Ġtelevision":5062,"anges":5063,"essional":5064,"Project":5065,"}}}":5066,"ĠOut":5067,"\"))":5068,"cf":5069,"Ġempty":5070,"Ġrob":5071,"rd":5072,"sem":5073,"ĠGeneral":5074,"Ġplatform":5075,"underline":5076,"Ġconnected":5077,"border":5078,"range":5079,"ĠCenter":5080,"isation":5081,"Ġelectron":5082,"Ġrule":5083,"ĠDi":5084,"lier":5085,"Ġdoc":5086,"ĠMod":5087,"Record":5088,"scal":5089,"Ġarchitect":5090,"Ġgre":5091,"Port":5092,"76":5093,"greg":5094,"Ġshall":5095,"ida":5096,"Position":5097,"54":5098,"mode":5099,"Settings":5100,"amera":5101,"Location":5102,"TI":5103,"Ġconvert":5104,"olute":5105,"Ġess":5106,"trm":5107,"ĠCreate":5108,"Ġnecessary":5109,"prod":5110,"ening":5111,"pop":5112,"ĠPresident":5113,"stry":5114,"Ġannounced":5115,"pg":5116,"ĠStud":5117,"ĠHol":5118,"52":5119,"ria":5120,"Ġwebsite":5121,"lap":5122,"loor":5123,"eli":5124,"Ġparams":5125,"}},":5126,"Local":5127,"transform":5128,"Empty":5129,"taint":5130,"Ġoperations":5131,"cat":5132,"hom":5133,"TS":5134,"textrm":5135,"Ġhandle":5136,"ĠChampionship":5137,"EM":5138,"Range":5139,"Connection":5140,"Ġ\\;":5141,"Ġsold":5142,"Ġque":5143,"ĠMal":5144,"^-":5145,"ĠGa":5146,"Ġarguments":5147,"{$":5148,"crete":5149,"Thread":5150,"rees":5151,"inder":5152,"Theta":5153,"Ġsymbol":5154,"Inst":5155,"Ġmention":5156,"Ġaltern":5157,"Font":5158,"%;":5159,"ĠReturns":5160,"1990":5161,"=-":5162,"olving":5163,"ĠEngland":5164,"API":5165,"Ġdetermined":5166,"Ġattribute":5167,"CS":5168,"jo":5169,"asons":5170,"Copy":5171,"clear":5172,"Direct":5173,"Ġpolitical":5174,"Ġproced":5175,"ĠSpec":5176,"bootstrap":5177,"Ġavoid":5178,"rib":5179,"Ġnoise":5180,"Util":5181,"issions":5182,"ifying":5183,"ĠAustralia":5184,"Ġcontract":5185,"78":5186,"Ġswitch":5187,"Ġshape":5188,"Ġmoved":5189,"sv":5190,"}^{-":5191,"ĠBlack":5192,"ACK":5193,"lymp":5194,"Ġdoesn":5195,"Ġwhole":5196,"Do":5197,"Ġissue":5198,"Ġface":5199,"pecially":5200,"ĠSum":5201,"ĠSee":5202,"Ġ*)":5203,"Ġfem":5204,"debug":5205,"ĠRoy":5206,"Ġregions":5207,"ĠOur":5208,"Ġroad":5209,"RL":5210,"definition":5211,"<\\":5212,"300":5213,"idget":5214,"ĠDiv":5215,"Ġ>=":5216,"1000":5217,"aking":5218,"bitr":5219,"ympt":5220,"Le":5221,"Ġoutside":5222,"Te":5223,"Ġtheorem":5224,"Ġfeel":5225,"Ġepis":5226,"ĠWork":5227,"None":5228,"Ġfailed":5229,"Ġsouth":5230,"ĠFl":5231,"tog":5232,"Menu":5233,"fony":5234,"Ġexisting":5235,"before":5236,"Ġxml":5237,"Ġupon":5238,"Ġmid":5239,"Ġthought":5240,"Ġdataset":5241,"ymfony":5242,"Ġimmedi":5243,"....":5244,"=\"_":5245,"interface":5246,"Ġinside":5247,"Serial":5248,"drop":5249,"Ġprimary":5250,"han":5251,"ini":5252,"ĠDec":5253,"$_":5254,"ĠOpen":5255,"Ġrights":5256,"ounter":5257,"Ġmonths":5258,"inct":5259,"Ġmag":5260,"Ġlot":5261,"equal":5262,"subseteq":5263,"hash":5264,"Ġcouple":5265,"Op":5266,"ashed":5267,"Ġvolume":5268,"ĠHere":5269,"Ġ['":5270,"Change":5271,"'],":5272,"oring":5273,"94":5274,"ĠDE":5275,"sets":5276,"tra":5277,"umin":5278,"Ġactually":5279,"SL":5280,"oom":5281,"Ġissues":5282,"kind":5283,"footnote":5284,"ursor":5285,"ano":5286,"tical":5287,"Ġprote":5288,"}}_{":5289,"Ġcontact":5290,"Document":5291,"93":5292,"ulate":5293,"Ġloop":5294,"etail":5295,"ĠPal":5296,"pite":5297,"atur":5298,"Ġpercent":5299,"ctx":5300,"Ġsense":5301,"53":5302,"gu":5303,"vant":5304,"otic":5305,"ĠBer":5306,"ĠST":5307,"inding":5308,"texttt":5309,"Ġgrav":5310,"Hash":5311,"Ġscreen":5312,"ado":5313,"hest":5314,"sa":5315,"Ġsimply":5316,"Ġconsum":5317,"cp":5318,"Ġinteger":5319,"Ġnegative":5320,"izations":5321,"Ġflux":5322,"Ġlonger":5323,"enced":5324,"Ġ${":5325,"resents":5326,"shift":5327,"oice":5328,"Ġresulting":5329,"Ġsamples":5330,"Ġpadding":5331,"ago":5332,"ĠLaw":5333,"ĠWhile":5334,"ĠAnt":5335,"ĠEar":5336,"rupt":5337,"Cal":5338,"ĠCanada":5339,"rect":5340,"Option":5341,"Ġwhy":5342,"ictionary":5343,"Ġoperators":5344,"So":5345,"zon":5346,"ena":5347,"Left":5348,"Ã¤":5349,"Ġrev":5350,"Ġlevels":5351,"=(":5352,"STR":5353,"car":5354,"reement":5355,"ĠEuropean":5356,"overs":5357,"Ġgain":5358,"NavBar":5359,"Ġ$|":5360,"real":5361,"rast":5362,"Ġwest":5363,"Ġuniform":5364,"overy":5365,"Ġdim":5366,"Sk":5367,"Ġscope":5368,"auth":5369,"FO":5370,":\\":5371,"Ġ(-":5372,"ĠBG":5373,"SH":5374,"env":5375,"Ġ(\"":5376,"iginal":5377,"PL":5378,"footer":5379,"Ġqual":5380,"1997":5381,"Ġfather":5382,"phere":5383,"Ġforward":5384,"construct":5385,"cur":5386,"win":5387,"attice":5388,"olic":5389,"72":5390,"Ġsend":5391,"ĠPaul":5392,"Ġsmooth":5393,"What":5394,"Ġwriting":5395,"82":5396,"deg":5397,"force":5398,"after":5399,"1996":5400,"itable":5401,"Ġauth":5402,"Ġradio":5403,"Ġfilename":5404,"Ġobservations":5405,";}":5406,"ĠSen":5407,"Ã¶":5408,"Ġlost":5409,"Ġminimum":5410,"Ġuncer":5411,"Properties":5412,"cons":5413,"Ġlove":5414,"Ġcred":5415,"DIR":5416,"MO":5417,"uri":5418,"Ġextension":5419,"ĠTO":5420,"ĠSome":5421,"92":5422,"ART":5423,"Stat":5424,"gate":5425,"\"));":5426,"VID":5427,"oul":5428,"ao":5429,"ĠChina":5430,"Ġinteraction":5431,"84":5432,"ĠCouncil":5433,"Ġexpand":5434,"eler":5435,"Ġnews":5436,"Ġtransport":5437,"orts":5438,"ĠMor":5439,"Ġotherwise":5440,"Ġusually":5441,"ani":5442,"Ġactual":5443,"ĠThom":5444,"docs":5445,"Ġcomes":5446,"Ġstore":5447,"delete":5448,"Ġreve":5449,"Ġcharacters":5450,"hr":5451,"icons":5452,"xx":5453,"del":5454,"ĠTV":5455,"Ġframework":5456,"ĠNews":5457,"Ġ$-":5458,"Ġpanel":5459,"ĠStreet":5460,")|":5461,"ĠBel":5462,"Can":5463,"setminus":5464,"Ġderiv":5465,"ett":5466,"Ġmonth":5467,"ocal":5468,"Helper":5469,"nes":5470,"Ġever":5471,"Ġrequires":5472,"EQ":5473,"Ġtemplate":5474,"Ġconcept":5475,"Ġtoday":5476,"Ġquality":5477,"card":5478,"anning":5479,"BO":5480,"lete":5481,"Ġsufficient":5482,"Ġalthough":5483,"Ġvisit":5484,"erry":5485,"tax":5486,"eck":5487,"_+":5488,"Ġinfin":5489,"Ġcompact":5490,"Ġvillage":5491,"Rev":5492,"Order":5493,"LI":5494,"Ġaward":5495,"Ġign":5496,"Ġoverride":5497,"oe":5498,"reshold":5499,"rote":5500,"witter":5501,"component":5502,"omorphism":5503,"}%":5504,"ĠJames":5505,"91":5506,"ares":5507,"ris":5508,"address":5509,"ĠCE":5510,"================================":5511,"Post":5512,"Ġespecially":5513,"spect":5514,"hi":5515,"high":5516,"Ġ\"\\":5517,"auto":5518,"ĠDavid":5519,"ĠOb":5520,"Session":5521,"ĠTime":5522,"asic":5523,"Ġord":5524,"Integer":5525,"fn":5526,"ewidth":5527,"ĠParty":5528,"Collection":5529,"Ġhence":5530,"global":5531,"=\"/":5532,"Ġbenef":5533,"anger":5534,"send":5535,"adius":5536,"bon":5537,"mes":5538,"PA":5539,"itch":5540,"Ġscheme":5541,"related":5542,"Ġunits":5543,"Ġball":5544,"oplus":5545,"mut":5546,"internal":5547,"access":5548,"ping":5549,"Ġrestrict":5550,"yes":5551,"Ġcharge":5552,"Ġregister":5553,"Ġcore":5554,"ĠPre":5555,"Ġvertex":5556,"Ġpolynomial":5557,"ĠChe":5558,"msg":5559,"Ġwave":5560,"Ġsession":5561,"Prot":5562,"king":5563,"Ġhyp":5564,"Ġhash":5565,"Ġillustr":5566,"adian":5567,"'>":5568,"Track":5569,"ville":5570,"olec":5571,"Ġparty":5572,"Vector":5573,"wood":5574,"FFFF":5575,"_{(":5576,"Ġstarting":5577,"Ġsecurity":5578,"That":5579,"had":5580,"Ġreli":5581,"ĠService":5582,"ĠĠĠĠĠĠĠĠĠĠĠĠĠĠĠĠĠĠĠĠ":5583,"Ptr":5584,"ĠResearch":5585,"Ġtoken":5586,"~~~~":5587,"Ġ($\\":5588,"Ġcompanies":5589,"Ġcurve":5590,"ĠAward":5591,"Ġjav":5592,"Ġstudied":5593,"olar":5594,"Ġsy":5595,"ĠOR":5596,"ilm":5597,"aid":5598,"Ġnovel":5599,"Ġcomment":5600,"direct":5601,"Async":5602,"ĠMet":5603,"copy":5604,"Ġlargest":5605,"Ġclassical":5606,"():":5607,"Ġsymmetry":5608,"ä¸":5609,"ws":5610,"Dir":5611,"Ġdark":5612,"Ġeast":5613,"People":5614,"PT":5615,"Match":5616,"Tests":5617,"west":5618,"Ġstreng":5619,"Impl":5620,"Ġorigin":5621,"join":5622,"black":5623,"raz":5624,"Ġdistributed":5625,"zero":5626,"Ġfire":5627,"Ġproper":5628,"isions":5629,"lood":5630,"400":5631,"step":5632,":\"":5633,"Ġnight":5634,"alo":5635,"icrosoft":5636,"ĠRober":5637,"ĠDepartment":5638,"Ġgenerate":5639,"Ġstrict":5640,"Ġworked":5641,"dagger":5642,"Ġchanged":5643,"click":5644,"Ġweb":5645,"&#":5646,"Ġten":5647,"Schema":5648,"ancial":5649,"Ke":5650,"van":5651,"^{-\\":5652,"Mar":5653,"ĠUK":5654,"Ġpick":5655,"fect":5656,"Ġtalk":5657,"arter":5658,"olume":5659,"Ġprogress":5660,"_*":5661,"Ġarticle":5662,"Ġcompute":5663,"Ġdesigned":5664,"Ġremains":5665,"Use":5666,"antic":5667,"Ġgauge":5668,"limits":5669,"pri":5670,"nov":5671,"iny":5672,"Ġdatabase":5673,"ĠQue":5674,"Ġmaps":5675,"actor":5676,"req":5677,"More":5678,"Ġembedd":5679,"ittee":5680,"Ġensure":5681,"ston":5682,"mas":5683,"ĠForm":5684,"Ġcos":5685,"Ġpassed":5686,"ĠBay":5687,"coq":5688,"Ġdiagram":5689,"Ġstructures":5690,"Ġcontinuous":5691,"(:":5692,"plugin":5693,"iding":5694,"Ġfight":5695,"ĠCheck":5696,"Ġhyper":5697,"Ġmotion":5698,"Ġproducts":5699,"Ġchoose":5700,"Results":5701,"ĠChurch":5702,"Ġacqu":5703,"SA":5704,"Ġcharg":5705,"'re":5706,"Ġsus":5707,"omin":5708,"Ġer":5709,"ropy":5710,"Ġarbitr":5711,"vention":5712,"Ġderived":5713,"track":5714,"Parser":5715,"Ġeasy":5716,"render":5717,"Pass":5718,"virt":5719,"ander":5720,"condition":5721,"ĠDirect":5722,"Ġextra":5723,"wedge":5724,"MD":5725,"chron":5726,"Ġpackage":5727,"Parameters":5728,"ĠBuild":5729,"oundation":5730,"Ġdetermine":5731,"vm":5732,"newline":5733,"Ġtowards":5734,"Ġnorm":5735,"edu":5736,"Ġmale":5737,"alysis":5738,"XX":5739,"acement":5740,"Ġcontaining":5741,"Ġpresence":5742,"Ġsettings":5743,"Ġemission":5744,"vas":5745,"63":5746,"success":5747,"INE":5748,"Ġshare":5749,"ALL":5750,"ĠBGCOLOR":5751,"Ġknowledge":5752,"ellar":5753,"Ġecho":5754,"Ġrules":5755,"Sign":5756,"illing":5757,"Ġuseful":5758,"za":5759,"Ġdiscussed":5760,"toString":5761,"category":5762,"Ġidea":5763,"ĠWhat":5764,"Ġmut":5765,"ingu":5766,"Iter":5767,"Ġpreviously":5768,"isms":5769,"Ġmanif":5770,"Ġinfo":5771,"sequence":5772,"Ġlimited":5773,"ĠNow":5774,"Ġstatement":5775,"Ġcomparison":5776,"Exp":5777,"Ġeducation":5778,"ĠFrance":5779,"dest":5780,"*{":5781,"Tool":5782,"abilities":5783,"Ġparticle":5784,"###":5785,"language":5786,"1995":5787,"Reference":5788,"Ev":5789,"Ġmanagement":5790,"Ġradius":5791,"Ġcategory":5792,"Ġtax":5793,"ecause":5794,"ĠException":5795,"white":5796,"TER":5797,"My":5798,"ĠDate":5799,"Ġindustry":5800,"ĠTra":5801,"Ġfun":5802,"ĠHall":5803,"Ġitems":5804,"Down":5805,"Vari":5806,"ederal":5807,"ĠGerm":5808,"Ġundefined":5809,"asc":5810,"Ġfollowed":5811,"posite":5812,"62":5813,"Ġgalaxies":5814,"74":5815,"ĠWilliam":5816,"double":5817,"Ġelection":5818,"equals":5819,"Ġreduced":5820,"icket":5821,"Ġquick":5822,"ashington":5823,"Ġmilitary":5824,"ĠArch":5825,"Ġgrowth":5826,"ĠAssert":5827,"elves":5828,"Ġdeaths":5829,"Ġfully":5830,"settings":5831,"inf":5832,"ĠRich":5833,"Expression":5834,"Ġbehind":5835,"overed":5836,"Ġ$[":5837,"Non":5838,"rian":5839,"ĠWeb":5840,"ĠSing":5841,"files":5842,"types":5843,"scri":5844,"Ġhon":5845,"linewidth":5846,"atial":5847,"Ð°Ð":5848,"Ġemer":5849,"Ġrepresents":5850,"Ġcompleted":5851,"blockList":5852,"aligned":5853,"MC":5854,"Dep":5855,"Ġfigure":5856,"apter":5857,"icate":5858,"Store":5859,"sect":5860,"Ġfood":5861,"Definition":5862,"GB":5863,"Go":5864,"ervices":5865,"Ġapplications":5866,"Ġcounter":5867,"Ġinvolved":5868,"Ġexhib":5869,"enum":5870,"Names":5871,"ĠHamilton":5872,"Ġbelong":5873,"Ġextended":5874,"Ġthroughout":5875,"annotation":5876,"iverse":5877,"Ġdecision":5878,"Here":5879,"aker":5880,"255":5881,"Ġwait":5882,"Ġbounded":5883,"Ġslow":5884,"faces":5885,"ynamic":5886,"ĠĠĠĠĠĠĊ":5887,"illa":5888,"Ġrisk":5889,"Ġbottom":5890,"Operation":5891,"Tim":5892,"Ġpert":5893,"Ġimm":5894,"ULT":5895,"icial":5896,"full":5897,"Ġextract":5898,"Ġcollect":5899,"Ġ})":5900,"olt":5901,"well":5902,"ivial":5903,"PECT":5904,"Application":5905,"ĠRE":5906,"1980":5907,"results":5908,"Ġnet":5909,"pub":5910,"Rect":5911,"Ġtherm":5912,"UP":5913,"Ġansw":5914,"short":5915,"Ġtell":5916,"Host":5917,"ĠArmy":5918,"outhern":5919,"79":5920,"akes":5921,"Ġste":5922,"ĠRead":5923,"Render":5924,"ades":5925,"Ġparticles":5926,"Ġfeed":5927,"Ġteams":5928,"ĠAssociation":5929,"reek":5930,"ression":5931,"rial":5932,"ĠCON":5933,"ĠAtt":5934,"ĠĠĠĠĠĠĠĠĠĠĠĠĠĠĠĠĠĠĠĠĠĠĠĠĠĠĠĠĠĠĠĠĠĠĠĠĠĠĠ":5935,"ĠInst":5936,"_{{\\":5937,"widget":5938,"Long":5939,"Ġmeasured":5940,"ĠGreen":5941,"Ġdynamics":5942,"inci":5943,"ĠMart":5944,"endar":5945,"Ġinvoke":5946,"ĠPe":5947,"NA":5948,"ĠSw":5949,"ĠScience":5950,"}\"":5951,"Template":5952,"bal":5953,"ribution":5954,"prove":5955,"%%":5956,"RI":5957,"Core":5958,"ket":5959,"61":5960,"Ġsort":5961,"Title":5962,"SION":5963,"ighest":5964,"ĠHealth":5965,"Ġwalk":5966,"ancy":5967,"-->":5968,"Ġsil":5969,"Ġalt":5970,"GET":5971,"padding":5972,"Ġcast":5973,"atalog":5974,"Ġpersonal":5975,"Ġconstraints":5976,"ĠBook":5977,"Ġexperiments":5978,"istance":5979,"bi":5980,"Ġleads":5981,"material":5982,"ĠInstitute":5983,"ees":5984,"Ġeasily":5985,"Ġscatter":5986,"Ġtests":5987,"DL":5988,"export":5989,"webkit":5990,"comment":5991,"Ġadopt":5992,"Ġ|\\":5993,"Ġscore":5994,"ĠJust":5995,"Ġexpansion":5996,"ometric":5997,"annels":5998,"81":5999,"Ġchosen":6000,"Ġminim":6001,"DA":6002,"eval":6003,"73":6004,"Ġtransaction":6005,"83":6006,"Classes":6007,"writ":6008,"ĠMap":6009,"Ġapproximation":6010,"Ġfast":6011,"ilies":6012,"Living":6013,"Ġbank":6014,"oader":6015,"gin":6016,"subfigure":6017,"Ġformula":6018,"Ġlatter":6019,"exception":6020,"Ġveh":6021,"ĠTrue":6022,"framework":6023,"spirit":6024,"ye":6025,"Ġforms":6026,"dependency":6027,"itar":6028,"Ġuncertaint":6029,"media":6030,"Ġstra":6031,"Ġscript":6032,"ĠOther":6033,"ĠRoman":6034,"ĠModel":6035,"Ġdisk":6036,"Ġraise":6037,"ERROR":6038,"igr":6039,"estamp":6040,"ĠMo":6041,"produ":6042,"Ġpolar":6043,"Ġresources":6044,"Ġrock":6045,"Draw":6046,"Ġtechnology":6047,"present":6048,"ĠIS":6049,"Ġdepends":6050,"Ġwrote":6051,"69":6052,"Our":6053,"ĠGeorge":6054,"SET":6055,"Ġsigned":6056,"otion":6057,"1994":6058,"wner":6059,"ĠAut":6060,"clos":6061,"atically":6062,"rome":6063,"Ġwor":6064,"Gr":6065,"Ġoptimal":6066,"Ġevidence":6067,"'\\":6068,"plugins":6069,"Ġ}\\":6070,"Ġblue":6071,"Ġaim":6072,"Ġvict":6073,"Ġactivity":6074,"colon":6075,"yr":6076,"Ġexamples":6077,"fil":6078,">();":6079,"Ġbasic":6080,"GE":6081,"LS":6082,"Ġfriend":6083,"olid":6084,"ĠAccording":6085,"ĠPublic":6086,"Ġparse":6087,"){\\":6088,"ospital":6089,"Ġpul":6090,"ĠDon":6091,"Ġnetworks":6092,"Ġidentity":6093,"Ġshift":6094,"Ġoffice":6095,"Ġcampaign":6096,"ĠProv":6097,"Ġnor":6098,"ped":6099,"ollary":6100,"ki":6101,"Ġhot":6102,"Ġmodern":6103,"bour":6104,"ros":6105,"Ġetc":6106,"ixel":6107,"Ġbal":6108,"ounds":6109,"Ġtour":6110,"Ġtravel":6111,"pring":6112,"ORT":6113,"erve":6114,"Ġsatisfies":6115,"ĠOper":6116,"sequently":6117,"ATH":6118,"adr":6119,"custom":6120,"Ġoverall":6121,"Ġdelete":6122,"alled":6123,"Di":6124,"ĠDay":6125,"Ġprocesses":6126,"fields":6127,"bes":6128,"hover":6129,"las":6130,"ĠUnion":6131,"ORM":6132,"Que":6133,"icients":6134,"Ġdirector":6135,"Device":6136,"store":6137,"Ġstrategy":6138,";<":6139,"Ġdam":6140,"email":6141,"ether":6142,"),\\":6143,"Ġmoney":6144,"Ġhours":6145,"Su":6146,"Ġinteresting":6147,"Ġaccuracy":6148,"ius":6149,"Ġappoint":6150,"handle":6151,"Ġmissing":6152,"virtual":6153,"ufact":6154,"matrix":6155,"Ġmicro":6156,"coin":6157,"Ġbg":6158,"ĠOlymp":6159,"incip":6160,"Ġrecently":6161,"Ġcontribution":6162,"inciple":6163,"Ġcause":6164,"ifies":6165,"sur":6166,"Ġdetection":6167,"Ġappropri":6168,"ores":6169,"ĠGoogle":6170,"Ġconsistent":6171,"Ġplane":6172,"session":6173,"Param":6174,"Ġsteps":6175,"'_":6176,"help":6177,"km":6178,"airs":6179,"Ġutil":6180,"Ġnature":6181,"panel":6182,"ership":6183,"Ġimplementation":6184,"Am":6185,"ĠJSON":6186,"Ġopport":6187,"exports":6188,"ĠMac":6189,"oute":6190,"Ġcop":6191,"Ġfinally":6192,"Ġfactors":6193,"ĠName":6194,"Ġrepe":6195,"foo":6196,"ĠPo":6197,"uple":6198,"iques":6199,"Ġadminist":6200,"Ġcells":6201,"Invalid":6202,"ĠBest":6203,"ĠProposition":6204,"connect":6205,"Ġbad":6206,"71":6207,"Ġtreatment":6208,"inese":6209,"Ġmomentum":6210,"Ġappears":6211,"Ver":6212,"itz":6213,"----------------------------------------------------------------":6214,"Ġones":6215,"Ġcache":6216,"inv":6217,"ĠRun":6218,"El":6219,"Ġthread":6220,"perp":6221,"Icon":6222,"Ġformed":6223,"Section":6224,"Values":6225,"Ġconcern":6226,"Ġrad":6227,"160":6228,"road":6229,"Ġnumerical":6230,"BS":6231,"Ġopened":6232,"Api":6233,"icker":6234,"ĠAng":6235,"ĠLou":6236,"Ġbinary":6237,"1992":6238,"Ġexternal":6239,"Ġcoupling":6240,"newcommand":6241,"Ġpressure":6242,"ĠRuss":6243,"sample":6244,"Ġincreased":6245,"Ġcontainer":6246,"defined":6247,"ĠRoyal":6248,"Ġplaying":6249,"Ġpractice":6250,"Ġtensor":6251,"lines":6252,"Ġearlier":6253,"ĠFurther":6254,"Ġexactly":6255,"ĠTechn":6256,"neg":6257,"gorithms":6258,"Ġsimulations":6259,"Comple":6260,"Ġdro":6261,"ĠSam":6262,"Ġtro":6263,"Ġspectral":6264,"ĠJack":6265,"1993":6266,"Ġinterpret":6267,"asure":6268,"ĠMath":6269,"ĠWashington":6270,"Ġ{};":6271,"sort":6272,"}}(\\":6273,"hy":6274,"ĠMat":6275,"ategories":6276,"Ġconsists":6277,"Handle":6278,"Ne":6279,"byte":6280,"ĠCourt":6281,"rices":6282,"rev":6283,"Ġinner":6284,"Ġpaint":6285,"arts":6286,"hs":6287,"Ġdebut":6288,"Ġprofessional":6289,"Ġgenerally":6290,"Ġlibrary":6291,"equality":6292,"Ġhimself":6293,"Reader":6294,"Ġheader":6295,"Ġsett":6296,"Each":6297,"application":6298,"Stack":6299,"ĠBase":6300,"LP":6301,"ura":6302,"multirow":6303,"ORD":6304,"forms":6305,"sey":6306,"ĠCre":6307,"Ġinj":6308,"cut":6309,"Ġjoined":6310,"Ġcontinued":6311,"ested":6312,"structure":6313,"pers":6314,"Ġos":6315,"Ġrepresented":6316,"Click":6317,"elt":6318,"ĠHence":6319,"aled":6320,"uler":6321,"FC":6322,"Ġrace":6323,"ĠKe":6324,"1970":6325,"ĠField":6326,"Ġspaces":6327,"Ġproduce":6328,"ughter":6329,"Ġstack":6330,"while":6331,"ĠHTML":6332,"ometimes":6333,"Eq":6334,"Ġneighbor":6335,"forall":6336,"Ġliving":6337,"Symfony":6338,"(*":6339,"unicip":6340,"Ġrelevant":6341,"ĠPress":6342,"Ġamplit":6343,"WE":6344,"Ġcalculated":6345,"product":6346,"Ġbring":6347,"BR":6348,"ĠMusic":6349,"Ġstaff":6350,"Ġrecomm":6351,"Ġpatients":6352,">.":6353,"ĠVir":6354,"Ġresolution":6355,"Ġtrain":6356,"Ġquite":6357,"Ġessential":6358,"Ġcorresponds":6359,"ĠRoad":6360,"ĠGermany":6361,"alian":6362,"Sum":6363,"Ġremaining":6364,"Debug":6365,"Ġunsigned":6366,"_{-":6367,"ĠĠĠĠĠĠĠĠĠĠĠĠĠĠĠĠĠĠ":6368,"shot":6369,"JECT":6370,"Ġhit":6371,"FL":6372,"bigg":6373,"replace":6374,"ĠDuring":6375,"ĠCompany":6376,"ĠTex":6377,")}(":6378,"Ġassign":6379,"False":6380,"UB":6381,"Ġscalar":6382,"Ġmeasurements":6383,"Ġwaves":6384,"Sl":6385,"war":6386,"Ġdecom":6387,"Ġattention":6388,"Ġvertices":6389,"Ġfraction":6390,"ĠMag":6391,"=\"../../../":6392,"cloud":6393,"Ġwriter":6394,"Ġreplaced":6395,"Num":6396,"Ġruns":6397,"Ġestimated":6398,"gan":6399,"ald":6400,"ĠEv":6401,"hesis":6402,"Ġslight":6403,"keyword":6404,"PH":6405,")\\,":6406,"Dom":6407,"Ġunknown":6408,"Ġangle":6409,"Ġlattice":6410,"erc":6411,"disabled":6412,"Ġdecay":6413,"ĠPat":6414,"Ġboard":6415,"Parent":6416,"Ġcountries":6417,"uge":6418,"ĠOver":6419,"Ġincor":6420,"Ġsignificantly":6421,"Obj":6422,"Ġexperimental":6423,"ĠRequ":6424,"Ġformation":6425,"ollowing":6426,"Ġrates":6427,"ĠLeg":6428,"Assert":6429,"Body":6430,"stat":6431,"domain":6432,"seud":6433,"Ġresid":6434,"Ġsurv":6435,"Ġadm":6436,"Ġbyte":6437,"Ġfix":6438,"ala":6439,"toggle":6440,"Ġmeaning":6441,"ĠEXPECT":6442,"EC":6443,"Pop":6444,"Tab":6445,"Ġcompare":6446,"alls":6447,"?:":6448,"Has":6449,"pare":6450,"However":6451,"Kind":6452,"region":6453,"hing":6454,"ĠPost":6455,"ĠLO":6456,"Ġrecorded":6457,"recated":6458,"aws":6459,"Ġreading":6460,"Ġbutton":6461,"oration":6462,"Enabled":6463,"Ġsex":6464,"Ġedges":6465,"Ġeditor":6466,"eries":6467,"ĠYear":6468,"sche":6469,"PP":6470,"DI":6471,"romise":6472,"Ġshared":6473,"Ġbul":6474,"Ġnamespace":6475,"Ġtheore":6476,"Ġwide":6477,"arant":6478,"Ġbranch":6479,"iring":6480,"Ġgreater":6481,"dy":6482,"register":6483,"Ġ$.":6484,"Ġchalleng":6485,"Metadata":6486,"ĠAcadem":6487,"roduction":6488,"merc":6489,"ita":6490,"ĠEnd":6491,"Bl":6492,"ech":6493,"Ġmiddle":6494,"axis":6495,"Dialog":6496,"Ġvs":6497,"`.":6498,";/":6499,"Ġdual":6500,"iffer":6501,"ensus":6502,"ultural":6503,"Ġhighest":6504,"AND":6505,"focus":6506,"Ġprocedure":6507,"Ġlock":6508,"ĠAlex":6509,"Mark":6510,"ĠMem":6511,"Cor":6512,"Ġsaf":6513,"Ġss":6514,"agraph":6515,"Package":6516,"estival":6517,"ky":6518,"numer":6519,"irl":6520,"subsubsection":6521,"Decl":6522,"sto":6523,"urren":6524,"Ġtesting":6525,"rot":6526,"Ġroom":6527,"Ġrap":6528,"onds":6529,"cases":6530,"Ġcard":6531,"Ġimprove":6532,"Ġforces":6533,"Ġlack":6534,"Ġremoved":6535,"Ġmix":6536,"iciency":6537,"insert":6538,"contin":6539,"Ġdirectory":6540,"ĠError":6541,"Ġhel":6542,"ixture":6543,"ĠSociety":6544,"initial":6545,"fort":6546,"textsc":6547,"ibly":6548,"bits":6549,"essor":6550,")^{\\":6551,"}$-":6552,"FR":6553,"Delete":6554,"Ġeight":6555,"Ġjson":6556,"Ġconstit":6557,"iral":6558,"sql":6559,"ĠAlso":6560,"Ġintegral":6561,"aved":6562,"ĠHel":6563,"oub":6564,"Boolean":6565,"rong":6566,"sime":6567,"Ġmarried":6568,"ĠAustralian":6569,"Ġcontrast":6570,"ĠMethod":6571,"argument":6572,"Ġdefe":6573,"Bytes":6574,"ATA":6575,"anned":6576,"Ġsimulation":6577,"simeq":6578,"}{*":6579,"'.":6580,"enge":6581,"Ġclean":6582,"Ġwallet":6583,"ĠFranc":6584,"Ġkm":6585,"Ġreduce":6586,"Ġchem":6587,"1991":6588,"Br":6589,"Ġaxis":6590,"ipeline":6591,"Ġsoon":6592,"'))":6593,"Mock":6594,"Ġreach":6595,"ror":6596,"ĠZe":6597,"ifications":6598,"tri":6599,"porary":6600,"__(":6601,"Args":6602,"ĠRobert":6603,"Ġarbitrary":6604,"Ġassumption":6605,"legal":6606,"ĠDel":6607,"Argument":6608,"Err":6609,"Ġidentified":6610,")_{":6611,"Ġ+\\":6612,"margin":6613,"Ġprotocol":6614,"Ġseem":6615,"attribute":6616,"Ġstri":6617,"Ġsquare":6618,"Ġdirected":6619,"ĠDivision":6620,"HTML":6621,"ĠWhite":6622,"Ġlooking":6623,"boolean":6624,"Ac":6625,"points":6626,"Ġ\\(":6627,"Ġgave":6628,",\\,":6629,"ogene":6630,"Main":6631,"allow":6632,"{$\\":6633,"asket":6634,"connection":6635,"ĠMary":6636,"=\"\"":6637,"Ġmother":6638,"ĠOf":6639,"Ġpairs":6640,"Ġcoefficients":6641,"Ġperturb":6642,"Writer":6643,"Ġsaw":6644,"Ġsituation":6645,"Ð»":6646,"OK":6647,"effect":6648,"Ġdetail":6649,"Ġvisual":6650,"Any":6651,"Ġthing":6652,"\")]":6653,"Ġplot":6654,"dro":6655,"Ġaud":6656,"Ġdidn":6657,"reme":6658,"Ġbooks":6659,"Ġbeginning":6660,"Ġcorrelation":6661,"ĠIsland":6662,"ĠUser":6663,"Ġseems":6664,"emic":6665,"256":6666,"mi":6667,")^{-":6668,"Ljava":6669,"ĠNOT":6670,"Ġtool":6671,"holder":6672,"Root":6673,"ette":6674,"password":6675,"tabularnewline":6676,"}^*":6677,"ĠAfrica":6678,"ĠMichael":6679,"Ġ('":6680,"modules":6681,"ishes":6682,"admin":6683,"Rule":6684,"Ġmaintain":6685,"ĠMoreover":6686,"Ġjud":6687,"Ġinline":6688,"ĠVer":6689,"Ġjavax":6690,"none":6691,"Ġvariety":6692,"Figure":6693,"elebr":6694,"Ġagent":6695,"Ġgrant":6696,"Ġexam":6697,"Ġoccur":6698,"ĠCong":6699,"pmatrix":6700,"Sing":6701,"Ġpy":6702,"Ġconcent":6703,"Ø§":6704,"NE":6705,"Ġrail":6706,"Ġinvariant":6707,"Active":6708,"Ġhighly":6709,"Ġappeared":6710,"Ġcomputed":6711,"Ġdoing":6712,"mock":6713,"Ġanti":6714,"CTION":6715,"fit":6716,"Ġconserv":6717,"Ġmanager":6718,"uations":6719,"=\"\">":6720,"Ġagreement":6721,"Show":6722,"Ġwife":6723,"=\"@":6724,"ĠDemocr":6725,"TC":6726,"Cre":6727,"Doc":6728,"TED":6729,"Byte":6730,"ĠRussian":6731,"Ġinequality":6732,"Ġbgcolor":6733,"Ġ++":6734,"ĠGod":6735,"Ġtold":6736,"Ġaffect":6737,"Ġsplit":6738,"SR":6739,"incipal":6740,"ĠMiss":6741,"bullet":6742,"ĠIO":6743,"ĠProject":6744,"Ġbytes":6745,"Ġsongs":6746,"ĠBen":6747,"URE":6748,"ĠMex":6749,"Ġsegment":6750,"Ġ'/":6751,"Ġelectric":6752,"ducation":6753,"Ġpresident":6754,"Ñĥ":6755,"Policy":6756,"Ġmolec":6757,"Ġpolice":6758,"Ġincreases":6759,"Ġprevent":6760,"Execut":6761,"Ġgovern":6762,"Ġschools":6763,"install":6764,"plements":6765,"Ġ<=":6766,"super":6767,"callback":6768,"ĠSur":6769,"Ġactions":6770,"OM":6771,".~(\\":6772,"ĠCons":6773,"Ġpartial":6774,"Ġmus":6775,"_;":6776,"ilib":6777,"edit":6778,"Ġanim":6779,"Ġmsg":6780,"icated":6781,"'}":6782,"Ġcloud":6783,"ja":6784,"Ġcoming":6785,"Ġplaces":6786,"Ġhous":6787,"ĠInc":6788,"ĠLong":6789,"acket":6790,"ĠUse":6791,"fly":6792,"ĠAssembly":6793,"ĠTur":6794,"Ġpropag":6795,"usters":6796,"Windows":6797,"Ġminutes":6798,"Ġwatch":6799,"ih":6800,"Storage":6801,"GS":6802,"radius":6803,"ĠJer":6804,"keys":6805,"ads":6806,"coming":6807,"VERSION":6808,"ician":6809,"ĠHen":6810,"site":6811,"Ġâ":6812,"Ġgeneration":6813,"tty":6814,"atible":6815,"$^{-":6816,"Ġdepth":6817,"orter":6818,"Ġ=\\":6819,"Ġstraight":6820,"ĠGold":6821,"Ġlisted":6822,"blue":6823,"Ġmachine":6824,"Ġdistributions":6825,"ĠTom":6826,"Ġbur":6827,"Ġinterval":6828,"Ġdise":6829,"Ġliterature":6830,"Ġreached":6831,"pute":6832,"Ġapproximately":6833,"END":6834,"ami":6835,"picture":6836,")),":6837,"Fields":6838,"shape":6839,"ĠPy":6840,"Ġchurch":6841,"Ġcompletely":6842,"Ġenh":6843,"ĠValue":6844,"anguage":6845,"ifically":6846,"uby":6847,"PRE":6848,"Ġprobably":6849,"Ġinstit":6850,"Ġimmediately":6851,"jquery":6852,"bold":6853,"bing":6854,"angular":6855,"impl":6856,"Ġexistence":6857,"Ġtasks":6858,"$).":6859,"dule":6860,"pay":6861,"odec":6862,"################":6863,"edef":6864,"Ġreceive":6865,"$/":6866,"FAULT":6867,"osing":6868,"stats":6869,"elopment":6870,"lyph":6871,"Ġbtn":6872,"elli":6873,"ĠArg":6874,"Ġinstr":6875,"hadoop":6876,"Ġoccup":6877,"Ġapi":6878,"Ġmatches":6879,"ĠWil":6880,"ĠTown":6881,"iller":6882,"spring":6883,"atin":6884,"Var":6885,"ĠClub":6886,"Ġmentioned":6887,"inem":6888,"Ġharm":6889,"AGE":6890,"stant":6891,"aser":6892,"ĠTexas":6893,"omorphic":6894,"Ġplant":6895,"ĠMa":6896,"ACE":6897,"Ã§":6898,"Ġabsolute":6899,"Ġvertical":6900,"Ġflag":6901,"ĠDan":6902,"properties":6903,"Ġdistinct":6904,"ĠCentral":6905,"Ġstated":6906,"}}^":6907,"ĠÎ":6908,"Ġmodes":6909,"Ġnothing":6910,"gg":6911,"ĠTHE":6912,"Meta":6913,"Ġconsole":6914,"Ġ$$":6915,"Ġalgorithms":6916,"ĠProgram":6917,"Ġscient":6918,"Ġdenotes":6919,"Adapt":6920,"ailed":6921,"ĠFin":6922,"family":6923,"DC":6924,"Ġparticularly":6925,"alg":6926,"Ġseven":6927,"Ġ),":6928,"Ġability":6929,"igin":6930,".*":6931,"rey":6932,"enter":6933,"These":6934,"Ġprinciple":6935,"Ġways":6936,"grid":6937,"Ġmis":6938,"ji":6939,"Security":6940,"notation":6941,"inline":6942,"Ġbey":6943,"Ġshowed":6944,"mselves":6945,"Custom":6946,"Ġpen":6947,"1989":6948,"ĠThomas":6949,"ental":6950,"items":6951,"Ġefficient":6952,"$$\\":6953,"nections":6954,"irmed":6955,"mercial":6956,"SSERT":6957,"olver":6958,")_":6959,"ertific":6960,"Send":6961,"Ġapproaches":6962,"Ġteach":6963,"Ġcurves":6964,"Ġappropriate":6965,"inger":6966,"IX":6967,"WS":6968,"Ġhidden":6969,"Initial":6970,"ĠFore":6971,"ĠEqu":6972,"Ġbeyond":6973,"Ġdb":6974,"Perm":6975,"agonal":6976,"ĠAfrican":6977,"Ġlo":6978,"Ġbirth":6979,"endix":6980,"Transaction":6981,"Ġsave":6982,"Ġintroduce":6983,"ĠUs":6984,"Changed":6985,"ĠRob":6986,"herit":6987,"cmd":6988,"ĠScott":6989,"Ġicon":6990,"leep":6991,"Ġinsert":6992,"Ġ&=&":6993,"Ġjournal":6994,"Ġwoman":6995,"fg":6996,"rate":6997,"ĠSuper":6998,"pa":6999,"Job":7000,"aily":7001,"Ġmind":7002,"ski":7003,"She":7004,"Ġfamilies":7005,"Ġfinished":7006,"ĠSal":7007,"ĠRel":7008,"======":7009,"Ġcourt":7010,"Ġgrid":7011,"dates":7012,"ĠMax":7013,"Ġmeasurement":7014,"peed":7015,"ĠTor":7016,"Ġstable":7017,"ĠChinese":7018,"Ġthemselves":7019,"ga":7020,"istent":7021,"Ġauthors":7022,"JSON":7023,"Ġclassification":7024,"limit":7025,"agnost":7026,"ĠCOVID":7027,"`,":7028,"ĠGrand":7029,"Ġ\"/":7030,"Ġcoordinates":7031,"uan":7032,"Xml":7033,"ĠIsra":7034,"Ġsubset":7035,"Ġring":7036,"ĠFoundation":7037,"Ġhtml":7038,"ucket":7039,"150":7040,"ĠJapanese":7041,"Activity":7042,"agon":7043,"Ġroute":7044,"Ġcalc":7045,"cknow":7046,"ĠSecond":7047,"ĠMus":7048,"reedom":7049,"~$\\":7050,"Ġstay":7051,"Ġstorage":7052,"ITY":7053,"Ġgreen":7054,"Ġreserv":7055,"Ġcombination":7056,"Ġmor":7057,"Ġgetting":7058,"MB":7059,"Ġjoint":7060,"CI":7061,"ĠAL":7062,"Ġdependence":7063,"utf":7064,"rapper":7065,"ById":7066,"}&":7067,"Ġspatial":7068,"rium":7069,")).":7070,"})$.":7071,"ko":7072,"Ġfinancial":7073,"Ġspectra":7074,"Ġtechniques":7075,"ĠCanadian":7076,"\\_":7077,"Ġmock":7078,")}{\\":7079,"hav":7080,"thread":7081,"NR":7082,"Ġdestroy":7083,"ĠĠĠĠĠĠĠĠĠĠĠĠĠĠĠĠĠĠĠĠĠĠĠĠĠ":7084,"FILE":7085,"Ġsetup":7086,"stop":7087,"ictor":7088,"Multi":7089,"cpp":7090,"Ġcaused":7091,"Ġprice":7092,"Ġtransformation":7093,"Ġleave":7094,"ĠChristian":7095,"odot":7096,"Ġorient":7097,"Ġcapacity":7098,"Ġentity":7099,"urt":7100,"Ġscience":7101,"DS":7102,"ierarch":7103,"icity":7104,"Ġpurch":7105,"uate":7106,"Ġsimpl":7107,"onym":7108,"ĠText":7109,"protobuf":7110,"ĠĠĠĠĠĠĠĠĠĠĠĠĠĠĠĠĠĠĠĠĠĠĠĠ":7111,"Other":7112,"ĠJew":7113,"joy":7114,"master":7115,"Ġvan":7116,"Queue":7117,"arc":7118,"Display":7119,"ampling":7120,"Ġdomin":7121,"Ġtraditional":7122,"pository":7123,"Ġflat":7124,"umni":7125,"asi":7126,"mic":7127,"phone":7128,"ĠGames":7129,"liament":7130,"ternet":7131,"Ġculture":7132,"Ġseparate":7133,"ĠMuseum":7134,"ĠKingdom":7135,"Ġsingular":7136,"Ġinteractions":7137,"olves":7138,"git":7139,"Ðº":7140,"Ġtor":7141,"ĠEvent":7142,"Network":7143,"oting":7144,"Ġsymmetric":7145,"Ġassumed":7146,"}{*}{":7147,"ango":7148,"Ġeq":7149,"ĠEach":7150,"Ġsports":7151,"Ġinsp":7152,"Ġperfect":7153,"KEY":7154,")$-":7155,"Ġlif":7156,";\"":7157,"ĠCath":7158,"ĠAv":7159,"1988":7160,"Ġidentify":7161,"ĠMont":7162,"^{+":7163,"imin":7164,"Account":7165,",$":7166,"120":7167,"rf":7168,"ĠShow":7169,"called":7170,"ĠSl":7171,"Det":7172,"stable":7173,"Ġcompl":7174,"Ġmatrices":7175,"azine":7176,"ĠBig":7177,"Ġeventually":7178,"scroll":7179,"Ġdiscussion":7180,"TEST":7181,"notes":7182,"Ġcapital":7183,"Ġepisode":7184,"Ġheavy":7185,"GC":7186,"ĠAlthough":7187,"edy":7188,"Ġhighlight":7189,"andra":7190,"Ġblocks":7191,"Ġquestions":7192,"ĠPub":7193,"ĠHistory":7194,"Widget":7195,"poses":7196,"Thus":7197,"ologies":7198,"Support":7199,"remark":7200,"amental":7201,"ĠKey":7202,"security":7203,"Ġago":7204,"Ġnoted":7205,"forward":7206,"Ġpartition":7207,"Ident":7208,"addr":7209,"ĠSmith":7210,"mann":7211,"hentication":7212,"\">&":7213,"ĠCarol":7214,"Car":7215,"ĠLi":7216,"assets":7217,"ffic":7218,"eds":7219,"Ġpurpose":7220,"profile":7221,"Ġ,\\":7222,"Ġbounds":7223,"Ġformal":7224,"La":7225,"Ġcalls":7226,"iece":7227,"pool":7228,"ato":7229,"ĠUnder":7230,"1960":7231,"move":7232,"ĠNetwork":7233,"record":7234,"ĠURL":7235,"ĠLife":7236,"While":7237,"(!":7238,"Ġcontr":7239,"horizontal":7240,"Ġmeasures":7241,"Ġconstructed":7242,"ĠNO":7243,"Ġrelig":7244,"PAR":7245,"Ġnative":7246,"Ġpure":7247,"Ġcollabor":7248,"Ġnearly":7249,"Only":7250,"Ġtrade":7251,"Ġsen":7252,"ĠCopy":7253,"ĠMer":7254,"ishing":7255,"rb":7256,"Ġserial":7257,"ĠGaussian":7258,"onical":7259,"Ġheart":7260,"Ġyields":7261,"exists":7262,"DR":7263,"Ġ^":7264,"Ġplaced":7265,"Ġmoving":7266,"};$":7267,"iversal":7268,"Ġbelieve":7269,"Ġvisible":7270,"parameters":7271,"Ġcontributions":7272,"Ġmodified":7273,"Ġattributes":7274,"ocation":7275,"Ġprefer":7276,"printf":7277,"ĠTwo":7278,"aming":7279,"Inv":7280,"Ġgoes":7281,"Ġgets":7282,"ĠAcademy":7283,"osh":7284,"Ġindicates":7285,"ĠGreat":7286,"ĠIP":7287,"UID":7288,"Ġalloc":7289,"mc":7290,"Ġcombined":7291,"ĠTop":7292,"Ġrout":7293,"ĠMinister":7294,"kw":7295,"Hz":7296,"Ġstudent":7297,"Red":7298,"names":7299,"[:":7300,"Ġbrief":7301,"////////////////////////////////":7302,"olf":7303,"lan":7304,"mos":7305,"}}^{":7306,"Ret":7307,"Prop":7308,"kes":7309,"Ġactivities":7310,"ircraft":7311,"Struct":7312,"ridge":7313,"enses":7314,"Ġadvant":7315,"ĠKore":7316,"proposition":7317,"eria":7318,"Ġfoot":7319,"ĠWestern":7320,"apped":7321,"ĠFlor":7322,"unsigned":7323,"network":7324,"room":7325,"oles":7326,"Ġassess":7327,"Ġletter":7328,"Ġcandidate":7329,"Ġaspect":7330,"Ġmask":7331,"shall":7332,"Ġwav":7333,"\",\"":7334,"Extension":7335,"Ġestimates":7336,"Media":7337,"Ġ%}":7338,"atre":7339,"Ġstellar":7340,"Ġonto":7341,"Lock":7342,"Ġprojects":7343,"Ġparallel":7344,"chain":7345,"TV":7346,"total":7347,"Ġdetailed":7348,"Before":7349,"123":7350,"ĠVirgin":7351,"-$":7352,"kg":7353,"Ġasympt":7354,"icks":7355,"jpg":7356,"Ġreflect":7357,"Ġanalog":7358,"tw":7359,"ĠAR":7360,"Ġmixed":7361,"Ġdetect":7362,"ĠAnn":7363,"Channel":7364,")))":7365,"Ġasked":7366,"Ġ(*":7367,"Ġmatching":7368,"ĠFrancis":7369,"Ġmedical":7370,"Ġencoding":7371,"Ġpriv":7372,"istical":7373,"Ġthreshold":7374,"iling":7375,")\\\\":7376,"ponential":7377,"=>":7378,"Ġupdated":7379,"organ":7380,"ĠView":7381,"jar":7382,"Ġexc":7383,"ĉĉĉĊ":7384,"Ġemail":7385,"Ġsecret":7386,"ĠDefault":7387,"Ġorganization":7388,"Ġtypically":7389,"ilation":7390,"Ġexperi":7391,"Ġwind":7392,"events":7393,"1987":7394,"hemat":7395,"ountain":7396,"Ġstrength":7397,"aland":7398,"Ġfavor":7399,"cb":7400,"each":7401,"ĠTem":7402,"ĠĠĠĠĠĠĠĠĠĠĠĠĠĠĠĠĠĠĠĠĠĠĠĠĠĠĠĠĠĠĠĠĠĠĠĠĠĠĠĠĠĠĠĠĠĠĠĠĠĠĠĠĠĠĠĠĠĠĠĠĠĠĠĠ":7403,"Logger":7404,"Ġassist":7405,"house":7406,"Descriptor":7407,"ali":7408,"128":7409,"dict":7410,"dem":7411,"Using":7412,"Ġoptical":7413,"ĠRail":7414,"mapsto":7415,"]]":7416,"ĠMad":7417,"Ġlegal":7418,"asketball":7419,"ĠBank":7420,"dp":7421,"Ġunless":7422,"Ġspread":7423,"lers":7424,"ĠFrank":7425,"Ġtit":7426,"Ġbroadcast":7427,"Ġhum":7428,"Ġkeys":7429,"Internal":7430,"ARY":7431,"Ġgold":7432,"istan":7433,"Ġinstanceof":7434,"Ġdrop":7435,"ĠSu":7436,"igration":7437,"Step":7438,"erg":7439,"ĠAN":7440,"Timeout":7441,"Ġkilled":7442,"Ġrelatively":7443,"TABLE":7444,"two":7445,"Ġvac":7446,"ĠLouis":7447,"andard":7448,"schema":7449,"Ġinfluence":7450,"iders":7451,"Ġphen":7452,"Msg":7453,"ðŁ":7454,"allery":7455,"scill":7456,"MOD":7457,"desc":7458,"save":7459,"va":7460,"ository":7461,"Ġremain":7462,"displaystyle":7463,"Ġsometimes":7464,"ĠMass":7465,"icago":7466,"ĠassertEquals":7467,"ĠLine":7468,"tools":7469,"Ġprograms":7470,"Ġdu":7471,"Ġslightly":7472,"Ġmanufact":7473,"Ġcycle":7474,"Ġvectors":7475,"rons":7476,"reland":7477,"Ġdigital":7478,"Ġdaughter":7479,"IB":7480,"napshot":7481,"wild":7482,"hol":7483,")\"":7484,"Ġcomputer":7485,"selected":7486,"apers":7487,"Ġrecords":7488,"controller":7489,"isl":7490,"ĠFalse":7491,"MENT":7492,"ilibrium":7493,"ĠMost":7494,"ĠAND":7495,"Ġthreat":7496,"Ġobserve":7497,"thlet":7498,"Ġpositions":7499,"Ġfourth":7500,"Rest":7501,"Ġmechanism":7502,"Ġprim":7503,"Ġtransp":7504,"Ġvary":7505,"lig":7506,"Items":7507,"Pool":7508,"ĠJose":7509,"Ġunion":7510,"Ġabsor":7511,"\\{\\":7512,"bu":7513,"PATH":7514,"Theorem":7515,"Scale":7516,"ĠProf":7517,"\\|_{":7518,"mediate":7519,"Ġmaster":7520,"azz":7521,"ĠCommission":7522,"CHE":7523,"(){":7524,"Ġcivil":7525,"Cons":7526,"Ġbehavi":7527,"Graph":7528,"ĠVol":7529,"ĠMr":7530,"ĠTim":7531,")},":7532,"Ġdead":7533,"screen":7534,"ancel":7535,"Ġfemale":7536,"txt":7537,"ĠDen":7538,"Ġangular":7539,"Ġbrought":7540,"ĠRecords":7541,"@\"":7542,"just":7543,"Ġconvergence":7544,"Ã³n":7545,"rine":7546,"channel":7547,"Ġship":7548,"queue":7549,"Bit":7550,"Ġcelebr":7551,"amely":7552,".__":7553,"1986":7554,"ĠHistor":7555,"Ġoccurs":7556,"ĠCap":7557,"Ġleader":7558,"Ġindicate":7559,"tool":7560,"Further":7561,"Ġfounded":7562,"Ġstudio":7563,"Ġdeliver":7564,"Ġfair":7565,"abe":7566,"itation":7567,"rich":7568,"echo":7569,"Conf":7570,"ĠCall":7571,"Desc":7572,"Ġdelay":7573,"[(":7574,"Ġsites":7575,"Ġmovement":7576,"LOG":7577,"ournament":7578,"Ġoriginally":7579,"Ġleague":7580,"$;":7581,"ĠHamiltonian":7582,"Ġpoly":7583,"ĠStar":7584,"ĠĠĠĠĠĠĠĠĠĠĠĠĠĠĠĠĠĠĠĠĠĠ":7585,"çļ":7586,"ĠHand":7587,"Ġsurround":7588,"Av":7589,"asy":7590,"kin":7591,"Ġinterview":7592,"Ġscene":7593,"Ġreduction":7594,"Ġexpressed":7595,"ĠOrder":7596,"acro":7597,"Ġkernel":7598,"ella":7599,"Ġspent":7600,"udget":7601,"Ġcreating":7602,"Ġproviding":7603,"urred":7604,"Ġminor":7605,"ĠSO":7606,"Ġdemand":7607,"orial":7608,"diff":7609,"ĠCamp":7610,"Symbol":7611,"Ġsatisfy":7612,"çļĦ":7613,"ĠSeries":7614,"Ġguarant":7615,"udes":7616,"ora":7617,"home":7618,"Ġrect":7619,"Edit":7620,"Generic":7621,"oved":7622,"loop":7623,"Auth":7624,"Ġjoin":7625,"IE":7626,"Ear":7627,"ĠLake":7628,"logger":7629,"ĠMA":7630,"ova":7631,"ĠCharles":7632,"Ġdifferential":7633,"job":7634,"Ġdecided":7635,"Ġgalaxy":7636,"Ġhydro":7637,"Ġmapping":7638,"ĠIts":7639,")+\\":7640,"Database":7641,"Ġfailure":7642,"Ġenter":7643,"power":7644,"Ġwid":7645,"igan":7646,"Ġalbums":7647,"configuration":7648,"Ġsemi":7649,"Ġdifferences":7650,"esian":7651,"'(":7652,"ĠSU":7653,"ĠGovernment":7654,"Dist":7655,"ĠRock":7656,"ĠOption":7657,"Gu":7658,"Ġprocessing":7659,"components":7660,"ellig":7661,"Ġcoach":7662,"()));":7663,"SM":7664,"Ġmessages":7665,"Ġelected":7666,"____":7667,"Ġcontained":7668,"ĠItalian":7669,"Editor":7670,"CF":7671,"otted":7672,"Ġsn":7673,"}</":7674,"vs":7675,"elegate":7676,"Ġut":7677,"abil":7678,"Ġweeks":7679,"Ġexpert":7680,"ĠPeter":7681,"ï¼":7682,"Person":7683,"ĠDet":7684,"DP":7685,"oma":7686,"ĠSun":7687,"Ġmorph":7688,"]:":7689,"ĠHill":7690,"ĠLie":7691,"Ġodd":7692,"Init":7693,"Panel":7694,"anging":7695,"Ġshowing":7696,"Found":7697,"Ġideal":7698,"single":7699,"Ġhypot":7700,"Ġtools":7701,"Ġanything":7702,"Ġclearly":7703,"ROM":7704,"Space":7705,"hbox":7706,"Ġoscill":7707,";$":7708,"bot":7709,"Scope":7710,"Del":7711,"lapse":7712,"Matrix":7713,"ĠFunction":7714,"Iterator":7715,"Pay":7716,"Ġprediction":7717,"ffect":7718,"Loader":7719,"Ġquadr":7720,"dropdown":7721,"ĠForce":7722,"Ġ[];":7723,"ĠPlay":7724,"Ġproved":7725,"account":7726,"hidden":7727,"ĠBill":7728,"etween":7729,"Ġult":7730,"Ġcli":7731,"ĠRichard":7732,"Ġawait":7733,"Float":7734,"Ġdimensions":7735,"Ġcarry":7736,"Ġshot":7737,"1984":7738,"uty":7739,"Ġhandler":7740,"Ġarchitecture":7741,"Ġpark":7742,"DT":7743,"Ġstrateg":7744,"heast":7745,"Ġreson":7746,"Example":7747,"primary":7748,"Background":7749,"Ġpan":7750,"1985":7751,"je":7752,"Ġachieve":7753,"Ġmeeting":7754,"Ġregime":7755,"wa":7756,"Compar":7757,"Ġlayers":7758,"Ġtransl":7759,"plot":7760,"SIZE":7761,"Ġgiving":7762,"grade":7763,"Ġtypical":7764,"throws":7765,"acle":7766,"Ġ=========":7767,"Ġplays":7768,"ĠUsing":7769,"circle":7770,"Ġartists":7771,"Ġalternative":7772,"blem":7773,"trigger":7774,"Ġexchange":7775,"ĠYour":7776,"Ġgap":7777,"Java":7778,"Ġsummary":7779,"ben":7780,"ĠColor":7781,"structor":7782,"Sw":7783,"ĠEngine":7784,"Ġquickly":7785,"EXT":7786,"$~":7787,"ustain":7788,"Ġwanted":7789,"oton":7790,"ĠWindow":7791,"ymmetric":7792,"Ġelem":7793,"Ġnotice":7794,"Transform":7795,"}}$,":7796,"Ġstrongly":7797,"ĠIll":7798,"hbar":7799,"ĠSaint":7800,"NavBarCell":7801,"Ġsections":7802,".'":7803,"Ġbright":7804,"unct":7805,"ĠVersion":7806,"Events":7807,"Art":7808,"Ġpublish":7809,"lg":7810,"Ġtrigger":7811,"GR":7812,"mitted":7813,"Ġgradient":7814,"article":7815,"ted":7816,"Ġnotation":7817,"Ġdevices":7818,"Expr":7819,"Ġpush":7820,"ĠMel":7821,"Directory":7822,"ĠId":7823,"Close":7824,"Ġoptimization":7825,"anda":7826,"fixed":7827,"ĠGen":7828,"mazon":7829,"large":7830,"Ġmajority":7831,")));":7832,"Ġeverything":7833,"Ġpi":7834,"Ġtrying":7835,"ĠBoard":7836,"editor":7837,"Ġspl":7838,"!!":7839,"ocaml":7840,"miss":7841,"Ġmagnitude":7842,"scription":7843,"Fil":7844,"Ġrotation":7845,"bel":7846,"Proxy":7847,"Ġcref":7848,"Ġintr":7849,"reset":7850,"aver":7851,"Ġappointed":7852,"Ġartist":7853,"Year":7854,"sive":7855,"Ġpoor":7856,"uages":7857,"Ġearn":7858,"Browser":7859,"Ã¨":7860,"MT":7861,"Mat":7862,"utch":7863,"Ġnucle":7864,"ĠLos":7865,"Ġexport":7866,"ocker":7867,"engine":7868,"when":7869,"nn":7870,"urrency":7871,"Ġchannels":7872,"bad":7873,"cong":7874,"ups":7875,"Ġsignature":7876,"TEX":7877,"mass":7878,"browser":7879,"Ġcolumns":7880,"orse":7881,"ved":7882,"WA":7883,"ĠRussia":7884,"MR":7885,"Ġextrem":7886,"opes":7887,"ĠVis":7888,"ĠBi":7889,"Ġcommunication":7890,"Ñı":7891,"[$":7892,"Ġcook":7893,"ĠCode":7894,"look":7895,"arse":7896,"Ġcircle":7897,"Ġworth":7898,"Ġcompetition":7899,"Ġprotect":7900,"Ġreplace":7901,"poss":7902,"she":7903,"Ġlatest":7904,"ToString":7905,"Ġquarter":7906,"Ġguitar":7907,"uated":7908,"Ġindividuals":7909,"Ġtouch":7910,"fail":7911,"()).":7912,"erial":7913,"ĠLand":7914,"Adapter":7915,"Ġrapid":7916,"fi":7917,"Tra":7918,"such":7919,"pressed":7920,"ĠDu":7921,"Ġacceler":7922,"Ġgeometry":7923,"ĠParis":7924,"game":7925,"_->":7926,"Print":7927,"stein":7928,"Ġnom":7929,"Ġoffers":7930,"ĠZealand":7931,"Member":7932,"switch":7933,")\">":7934,"Ġhope":7935,"BP":7936,"Ġeconomic":7937,"typeof":7938,"Ġpri":7939,"Ġmovie":7940,"Ġcalculate":7941,"Ġcarried":7942,"phys":7943,"ady":7944,"navList":7945,"tik":7946,"Ġthick":7947,"itivity":7948,"Ġminimal":7949,"_,":7950,"Ġstress":7951,"Ġcov":7952,"unched":7953,"since":7954,"Feature":7955,"ĠExt":7956,"care":7957,"Ġcomposition":7958,"ĠReview":7959,"flags":7960,"Rece":7961,"ĠGame":7962,"estion":7963,"ensed":7964,"Selector":7965,"Ġachieved":7966,"Ġreader":7967,"ĠSummer":7968,"Ġadding":7969,"Ġunderstanding":7970,"cuss":7971,"important":7972,"uous":7973,"NG":7974,"shire":7975,"Ġtrace":7976,"Ġscattering":7977,"Ġobservation":7978,"Äģ":7979,"ĠStep":7980,"Ġimag":7981,"Ġenable":7982,"rase":7983,"Enum":7984,"yan":7985,"MAX":7986,"Ġfriends":7987,"ima":7988,"ĠCa":7989,"}}$.":7990,"ogeneous":7991,"Ġstations":7992,"Ġproceed":7993,"istration":7994,"abit":7995,"ployment":7996,"Ġbin":7997,"cover":7998,"assertEquals":7999,"*)":8000,"ĠSa":8001,"Ġspirit":8002,"Ġowner":8003,"fol":8004,"Ġfunctional":8005,"Ġdrug":8006,"Ġinvalid":8007,"Flags":8008,"green":8009,"Ġlat":8010,"nil":8011,"clusive":8012,"ipage":8013,"Ġcollege":8014,"Ġgoals":8015,"ĠCommittee":8016,"tsd":8017,"rical":8018,"ographic":8019,"external":8020,"LIC":8021,"ny":8022,"Full":8023,"ĠPri":8024,"Play":8025,"})$,":8026,"formance":8027,"ĠFinally":8028,"Ġgrand":8029,"Ġpool":8030,"Ġsurvey":8031,"Ġtrained":8032,"generated":8033,"ĠWomen":8034,"kins":8035,"Ġsector":8036,"Ġexcit":8037,"ĠCast":8038,"nel":8039,"Ġpreserv":8040,"riend":8041,"Ġbuildings":8042,"Ġdynamic":8043,"Ġfunc":8044,"Ġsynt":8045,"}{|":8046,"cret":8047,"Ġopening":8048,"iro":8049,"pton":8050,"vest":8051,"cccc":8052,"ĠKn":8053,"Ġinduced":8054,"Protocol":8055,"++;":8056,"ĠAust":8057,"ĠGeorg":8058,"_-":8059,"Ġmostly":8060,"Ġgun":8061,"ĠUpdate":8062,"Ġfine":8063,"Ġlives":8064,"Grid":8065,"ĠUk":8066,"icians":8067,"Members":8068,"pping":8069,"Ġanswer":8070,">\\":8071,"ĠSil":8072,"UTF":8073,"Ġmasses":8074,"Ġresponsible":8075,"IMP":8076,"Ġlabels":8077,"Ġamplitude":8078,"ĠFootball":8079,"Ġsch":8080,"Ġimplemented":8081,"Ġentries":8082,"Ġbeam":8083,"ĠPan":8084,"yntax":8085,"FIG":8086,"icies":8087,"Layer":8088,"Ġverify":8089,"ola":8090,"ĠRegister":8091,"Ġstatistics":8092,"getElement":8093,"ĠTODO":8094,"Ġimplements":8095,"Ġtab":8096,"Ġxmlns":8097,"random":8098,"Opt":8099,"Ġconclude":8100,"Introduction":8101,"Double":8102,"ĠBrown":8103,"itiz":8104,"HS":8105,"ĠGal":8106,"Ġproport":8107,"arian":8108,"sat":8109,"venue":8110,"world":8111,"ults":8112,")}_{":8113,"}({\\":8114,"Ġdepending":8115,"Book":8116,"minipage":8117,"=\"${":8118,"áĥ":8119,"Ġmassive":8120,"MI":8121,"Auto":8122,"ancing":8123,"ira":8124,"ertificate":8125,"Ġsummer":8126,"ĠCP":8127,"1983":8128,"mma":8129,"assertEqual":8130,"=\"$":8131,"Ġisn":8132,"ĠFlorida":8133,"izable":8134,"Ġcalculation":8135,"Ġhole":8136,"osity":8137,"tor":8138,"Ġinstalled":8139,"Ġvoc":8140,"Ġ[[":8141,"Pattern":8142,"tail":8143,"'m":8144,"Ġbrother":8145,"Ġbuilder":8146,"ĠIreland":8147,"ĠLu":8148,"ĠFilm":8149,"&=&":8150,":}":8151,"ading":8152,"wildfly":8153,"Ġener":8154,"Ġinfinite":8155,"Ġabstract":8156,"}$)":8157,"roke":8158,"]}":8159,"ĠCongress":8160,"))$":8161,"$),":8162,"Ġsoft":8163,"Mapping":8164,"Ġasync":8165,"ĠEducation":8166,"contains":8167,"Ġconsidering":8168,"plications":8169,"Ġunderlying":8170,"RR":8171,"Ġtheoretical":8172,"|_{":8173,"Ġterr":8174,"Ġded":8175,"=#":8176,"Ġclusters":8177,"Ġefficiency":8178,"iate":8179,"Ġcoq":8180,"dependent":8181,"ĠConfig":8182,"Ġachiev":8183,"going":8184,"owers":8185,"sumer":8186,"Ġenjoy":8187,"edge":8188,"ĠCatholic":8189,"Profile":8190,"Sche":8191,"ĠChicago":8192,"Ġincorpor":8193,"pons":8194,"Ġcalculations":8195,"Finally":8196,"colLast":8197,"claim":8198,"manager":8199,"chen":8200,"Ġseconds":8201,"ĠLin":8202,"Ġpartners":8203,"found":8204,"sch":8205,"Ġsafety":8206,"iki":8207,"cluded":8208,"Ġlimits":8209,"ona":8210,")-\\":8211,"opic":8212,"ĠFre":8213,"itors":8214,"Constraint":8215,"ĠSecret":8216,"tmp":8217,"ĠExample":8218,"compiler":8219,"High":8220,"Ġmaterials":8221,"alloc":8222,"Ġdesc":8223,"Ġevaluation":8224,"swarm":8225,"<!":8226,"aste":8227,"prise":8228,"Duration":8229,"Plugin":8230,"cref":8231,"Term":8232,"Ġretri":8233,"hem":8234,"ĠMedia":8235,"anes":8236,"IST":8237,"HR":8238,"onald":8239,"XML":8240,"Ġ$|\\":8241,"Ġdetected":8242,"weet":8243,"Ġturned":8244,"ĠGl":8245,"'])":8246,"Ġ(_":8247,"ĠPoint":8248,"enabled":8249,"Ġcritic":8250,"Depend":8251,"IPT":8252,"Ġobvious":8253,"Common":8254,"Ġextend":8255,"Ġadjust":8256,"Ġio":8257,"Ġreports":8258,"ĠEarth":8259,"symbol":8260,"pred":8261,"geles":8262,"Ġng":8263,"ĠBur":8264,"Ġcomputation":8265,"ĠJava":8266,"ĠVictor":8267,"Ġmur":8268,"ĠJournal":8269,"BE":8270,"Ġpassword":8271,"razil":8272,"Gen":8273,"agnetic":8274,"ITE":8275,"Ġplans":8276,"Ġheat":8277,"','":8278,"1982":8279,"ajax":8280,"Ġsqu":8281,"Ġtechnique":8282,"Global":8283,"ĠPenn":8284,"agr":8285,"Ġthermal":8286,"Ġassigned":8287,"stra":8288,"elease":8289,"Ġmission":8290,"zing":8291,"ĠTask":8292,"Ġfill":8293,"Ġattract":8294,"Ġparents":8295,"Ġscales":8296,"Ġaircraft":8297,"colFirst":8298,"Ġcommercial":8299,"Ġattr":8300,"1979":8301,"Ġcommunities":8302,"chor":8303,"Ġrise":8304,"Ġcomplexity":8305,"ĠFurthermore":8306,"Ġcool":8307,"tikz":8308,"Repository":8309,"ĠIII":8310,"Ġfundamental":8311,"FS":8312,"aration":8313,"Ġ\"\"":8314,"Ġstories":8315,"Ġworkers":8316,"ULE":8317,"ĠTrump":8318,"Ġlaunch":8319,">:":8320,"ockey":8321,"amer":8322,"Engine":8323,"Ġpaths":8324,"asis":8325,"Ġscenario":8326,"oday":8327,"anks":8328,"Details":8329,"Ġlib":8330,"Ġcoordinate":8331,"Ġraw":8332,"ĠOh":8333,"Ġmainly":8334,"ĠSpanish":8335,"handler":8336,"Ġgraphs":8337,"Ġdisease":8338,"ito":8339,"Ġphenomen":8340,"Therefore":8341,"zh":8342,"iday":8343,"fold":8344,"Ġfluct":8345,"Ġinform":8346,"ĠMil":8347,"ests":8348,"'ll":8349,"allclasses":8350,"Sch":8351,"Ġnavigation":8352,"getName":8353,"Ġ=======":8354,"bp":8355,"ĠVirginia":8356,"Ġacadem":8357,"ONE":8358,"ributed":8359,"apply":8360,"IA":8361,"idx":8362,"entials":8363,"Ġalumni":8364,"ĠDirector":8365,"SER":8366,"osis":8367,"ĠSocial":8368,"Ġpiece":8369,"Ġreject":8370,"platform":8371,"haps":8372,"isters":8373,"ĠAngeles":8374,"Ġmunicip":8375,"Ġ\"<":8376,"hetic":8377,"\"><!--":8378,"ĠNode":8379,"Ġbeaut":8380,"ĠInitial":8381,"ipped":8382,"Scroll":8383,"cknowled":8384,"Ġcreation":8385,"Ġbus":8386,"Ġserve":8387,"pan":8388,"conv":8389,"Ġolder":8390,"ĠArts":8391,"cred":8392,"Ġtranslation":8393,"Selected":8394,"groups":8395,"ĠTimes":8396,"Ġsal":8397,"iable":8398,"ĠOp":8399,"simple":8400,"enty":8401,"Ġuncertainty":8402,"webpack":8403,"Ġisol":8404,"ĠUN":8405,"ĠOffice":8406,"Ġversions":8407,"front":8408,"Sample":8409,"1950":8410,"Keys":8411,"sych":8412,"RAN":8413,"HER":8414,"collapse":8415,"Ġdoub":8416,"Ġwrong":8417,"VM":8418,"libr":8419,"icine":8420,"hide":8421,"Ġremained":8422,"Ġ{'":8423,"uer":8424,"ien":8425,"props":8426,"periment":8427,"parser":8428,"Ġdegrees":8429,"Ġ[\\":8430,"Ġpseud":8431,"Ġdriver":8432,"scriptstyle":8433,"tabs":8434,"UL":8435,"'ve":8436,"Ġenabled":8437,"Ġlumin":8438,"Ġdesired":8439,"aylor":8440,"Ġsaying":8441,"poral":8442,"SQL":8443,"Ġrecon":8444,"rift":8445,"Ġparam":8446,"gers":8447,"undred":8448,"plus":8449,"Ġscaling":8450,"Abstract":8451,"Ġflex":8452,"Ġsomeone":8453,"gies":8454,"Ġbrowser":8455,"Ġfn":8456,"pat":8457,"Memory":8458,"Ġarm":8459,"irus":8460,"Ġintegration":8461,"Ġsolve":8462,"Ġrespond":8463,"ean":8464,"ims":8465,"tests":8466,"ters":8467,"John":8468,"ĠNumber":8469,"rained":8470,"illis":8471,"ĠSund":8472,"vision":8473,"Parse":8474,"ĠVAL":8475,"Ġion":8476,"hl":8477,"acebook":8478,"Ġappearance":8479,"Ġrat":8480,"Ð´":8481,"Some":8482,"ĠBoth":8483,"asion":8484,"{%":8485,"zen":8486,"ĠSy":8487,"Ġactor":8488,"protected":8489,"ĠCD":8490,"eller":8491,"ilarly":8492,"WN":8493,"structions":8494,"urations":8495,"filename":8496,"TA":8497,"dialog":8498,"metadata":8499,"provider":8500,"endor":8501,"Attributes":8502,"ĠImage":8503,"BB":8504,"Mut":8505,"ĠSI":8506,"Ġreferred":8507,"inet":8508,"Ġevaluate":8509,"builder":8510,"Ġfinding":8511,"Ġtrust":8512,"Ġdistingu":8513,"ĠBusiness":8514,"Med":8515,"ĠPet":8516,"role":8517,"Dest":8518,"integ":8519,"Ġweights":8520,"Ġphysics":8521,"------------":8522,"Ġchart":8523,"NULL":8524,"zed":8525,"ĠOld":8526,"Func":8527,"iterator":8528,"Success":8529,"people":8530,"Ġrequests":8531,"Ġsummar":8532,"Ġinitially":8533,"othing":8534,"Ġprojection":8535,"Ġfeatured":8536,"irls":8537,"Ġclin":8538,"Ġrequirements":8539,"har":8540,"Ġoptional":8541,"1981":8542,"Ġ^{":8543,"Pointer":8544,"ĠBu":8545,"Ġdespite":8546,"Expect":8547,"pu":8548,"clusions":8549,"Ġreq":8550,"ĠYoung":8551,"Ġexponential":8552,"Ġeth":8553,"Ã£":8554,"stitut":8555,"Seg":8556,"Runtime":8557,"ogen":8558,"Files":8559,"here":8560,"ĠLandroid":8561,"åı":8562,"ĠOlympics":8563,"ati":8564,"stone":8565,"NotNull":8566,"()</":8567,"ĠHenry":8568,"aset":8569,"Product":8570,"ivation":8571,"cores":8572,"600":8573,"Ġlies":8574,"Ġrough":8575,"joint":8576,"Ġcentre":8577,"lesssim":8578,"ĠMur":8579,"SY":8580,"Ġrobust":8581,"Ġlocations":8582,"Ġprem":8583,"istence":8584,"brace":8585,"Public":8586,"AF":8587,"ĠMP":8588,"Single":8589,"ĠOnly":8590,"ctrine":8591,"awa":8592,"Home":8593,"Ġcomments":8594,"ĠBack":8595,"ĠIndex":8596,"ĠTeam":8597,"Ġpages":8598,"ni":8599,"aling":8600,"equence":8601,"According":8602,"ĠHa":8603,"services":8604,"operation":8605,"250":8606,"Ġcoefficient":8607,"Ġcomputational":8608,"Ġexplicitly":8609,"zone":8610,"apes":8611,"Ġrepresenting":8612,"GO":8613,"Ġtrend":8614,"chmark":8615,"headers":8616,"standing":8617,"Ġinterested":8618,"antom":8619,"ĠTheir":8620,"Ġstarts":8621,"ĠMartin":8622,"Ġbattle":8623,"VALUE":8624,"bytes":8625,"Statement":8626,"Ġtail":8627,"ĠPage":8628,"Ġpull":8629,"JS":8630,"->_":8631,"ĠĠĠĠĠĠĠĠĠĠĠĠĠĠĠĠĠĠĠĠĠĠĠĠĠĠ":8632,"110":8633,"named":8634,"CG":8635,"ĠCommun":8636,"ĠMexico":8637,"Ġcamera":8638,"ĠLibrary":8639,"cdn":8640,"Ġfootballers":8641,"CM":8642,"ĠHaw":8643,"Ġdrive":8644,"CHECK":8645,"Ġinstances":8646,"Ġconj":8647,"Player":8648,"prefix":8649,"Ġdivision":8650,"Ġentropy":8651,"Ġconvex":8652,"Ġdecomposition":8653,"Ä±":8654,"ivery":8655,"wall":8656,":#":8657,"cluster":8658,"Author":8659,"Ġbrand":8660,"Ġcontroller":8661,"posal":8662,"idel":8663,"ĠGood":8664,"Ġconstants":8665,"conn":8666,"Ġnuclear":8667,"cribe":8668,"lower":8669,"execut":8670,"Ġshoot":8671,"Ġconven":8672,"ĠĠĠĠĠĠĠĠĠĠĠĠĠĠĠĠĠĠĠĠĠĠĠĠĠĠĠĠĠĠĠĠĠĠĠĠĠĠĠĠĠĠĠ":8673,"ĠNAME":8674,"ifiers":8675,"Ġcapture":8676,"}{(":8677,"ishop":8678,"udd":8679,"ĠItaly":8680,"ĠIOException":8681,"Dem":8682,"herited":8683,"ĠFestival":8684,"ĠBO":8685,"lie":8686,"children":8687,"Ġwinning":8688,"tbody":8689,"Ġwhereas":8690,"wer":8691,"Ġtraject":8692,"$:":8693,"maven":8694,"Ġsafe":8695,"Ġcovered":8696,"Ġdiscrete":8697,"Ġusual":8698,"Ġfarm":8699,"Area":8700,"fully":8701,"Ġfreedom":8702,"Failed":8703,"Ġclick":8704,"errors":8705,"ashion":8706,"Ġaccom":8707,"Ġreasons":8708,"leted":8709,"Ġtypeof":8710,"Ġconflic":8711,"Ġautomatically":8712,"ĠAction":8713,"Ġsizes":8714,"ĠChild":8715,"Ġstrings":8716,"unique":8717,"wrapper":8718,"Ġsuccessfully":8719,"ĠTour":8720,"Ġlaunched":8721,"theme":8722,"ĠIR":8723,"sequent":8724,"Ġdatasets":8725,"Agent":8726,"paragraph":8727,"ĠBob":8728,"algorithm":8729,"complete":8730,"Ġ\",":8731,"Ġcycl":8732,"ĠReact":8733,"Ġexecution":8734,"ĠSwed":8735,"Ġqueue":8736,"Ġraised":8737,"Pub":8738,"Ġens":8739,"itionally":8740,"player":8741,"NOT":8742,"Ġpain":8743,"ĠDevelopment":8744,"Domain":8745,"Ġadvantage":8746,"Ġforeign":8747,"ĠPeople":8748,"xhtml":8749,"Ġneighborhood":8750,"ADD":8751,"special":8752,"ICE":8753,"Ġlemma":8754,"ications":8755,"Ġready":8756,"ĠJac":8757,"1978":8758,"Ġwall":8759,"TT":8760,"Find":8761,"secut":8762,"125":8763,"login":8764,",\\,\\":8765,"Ġcommit":8766,"iant":8767,"Ġtx":8768,"Ġordered":8769,"oped":8770,"ĠPlan":8771,"Ġdownload":8772,"yer":8773,"Ġaudio":8774,"algebra":8775,"}})":8776,"$_{":8777,"ĠHot":8778,"ipment":8779,"ĠLove":8780,"nergy":8781,"Ġtraffic":8782,"Ġgeneric":8783,"Ġpicture":8784,"kt":8785,"Ġchemical":8786,"Ġmarked":8787,"Second":8788,"Remove":8789,"ĠFort":8790,"Ġduration":8791,"Ġpointer":8792,"Ġbundle":8793,"adium":8794,"attributes":8795,"Bound":8796,"Ġencour":8797,"ĠIE":8798,"Ġ{{":8799,"Ġprime":8800,"Ġwhom":8801,"Ġtranslate":8802,"cient":8803,"duction":8804,"tained":8805,"Ġdenoted":8806,"Ġimproved":8807,"cles":8808,"prev":8809,"Sync":8810,"Ġvariation":8811,"1976":8812,"ĠPac":8813,"para":8814,"iana":8815,"ibli":8816,"Ġlayout":8817,"Ġneutr":8818,"details":8819,"Ġvoice":8820,"Character":8821,"Ġremote":8822,"ignment":8823,"vee":8824,"ĠGlobal":8825,"safe":8826,"|}":8827,"writer":8828,"ĠHome":8829,"semble":8830,"PROJECT":8831,"\\}$.":8832,"ĠStart":8833,"Ġentered":8834,"Ġscored":8835,"1975":8836,"('.":8837,"protocol":8838,"ĠKar":8839,"IND":8840,"^*$":8841,"ĠAny":8842,":=":8843,"ĠMain":8844,"Ġsatisfying":8845,"Comment":8846,"Ġspeak":8847,"np":8848,"ourier":8849,"Ġconnections":8850,"BUG":8851,"Ġpatterns":8852,"Ġmonitor":8853,"ĠCross":8854,"Fail":8855,"relation":8856,"Ġexplan":8857,"BAR":8858,"ĠGets":8859,"Ġdiss":8860,"Ġprefix":8861,"imitive":8862,"sys":8863,"ĠMov":8864,"Ġrows":8865,"ogram":8866,"pir":8867,"ĠPhys":8868,"1972":8869,"Ġaggreg":8870,"Password":8871,"Ġsea":8872,"oz":8873,"STAT":8874,"men":8875,"Ġserious":8876,"Ġawarded":8877,"ĠInformation":8878,"Ġallowing":8879,"Ġlocally":8880,"iggs":8881,"ĠCarolina":8882,"Ġannual":8883,"Ġrecall":8884,"Simple":8885,"general":8886,"execute":8887,"Ġalone":8888,"Ġestimation":8889,"Constants":8890,"Ġended":8891,"ixels":8892,"World":8893,"Î±":8894,"Summary":8895,"Ġefforts":8896,"Ġmedium":8897,"svg":8898,"}}_{\\":8899,"uum":8900,"enable":8901,"Ġcosts":8902,"Ġ?>":8903,"vc":8904,"Ġshock":8905,"Ġpredicted":8906,"GN":8907,"LECT":8908,"Tx":8909,"Attr":8910,"ĠHon":8911,"]$.":8912,"ĠJun":8913,"Ġwood":8914,"resp":8915,"ĠMessage":8916,"Ġstatistical":8917,"inations":8918,"?>":8919,"ĠPass":8920,"ĠAwards":8921,"During":8922,"fd":8923,"ĠĠĠĠĠĠĠĠĠĠĠĠĠĠĠĠĠĠĠĠĠĠĠĠĠĠĠĠĠ":8924,"Ġaver":8925,"wan":8926,"ustrial":8927,"ĠNav":8928,"Ġpars":8929,"1974":8930,"ifts":8931,"Ġexit":8932,"Ġcompos":8933,"emon":8934,"ĠArab":8935,"ĠPath":8936,"heel":8937,"Ġgrowing":8938,"1977":8939,"Ġice":8940,"Ġ\"-":8941,"Ġspan":8942,"report":8943,"Region":8944,"May":8945,"flat":8946,"ĠIsrael":8947,"Ġmenu":8948,"Ġsinger":8949,";)":8950,"relations":8951,"ALSE":8952,"oviet":8953,"ĠCopyright":8954,"Ġsusp":8955,"Ġsolar":8956,"Ġirre":8957,"tags":8958,"duled":8959,"Ġmeta":8960,"Ġsecondary":8961,"Ġimportance":8962,"Ġmetadata":8963,"lectric":8964,"shared":8965,"Ġ..":8966,"sol":8967,"itan":8968,"jango":8969,"Two":8970,"mask":8971,"001":8972,"Ġconfirmed":8973,"Notes":8974,"Ġstock":8975,"Google":8976,"riage":8977,"Route":8978,"ses":8979,"Ġexplained":8980,"Ġwild":8981,"href":8982,"Ġinverse":8983,"Ġorders":8984,"ela":8985,"Ġintersection":8986,"OUT":8987,"ĠLee":8988,"inity":8989,"-(":8990,"detail":8991,"ea":8992,"DM":8993,"cean":8994,"Ġ],":8995,"Ġfederal":8996,"Ġip":8997,"Video":8998,"Ġsampling":8999,"Ġopportunity":9000,"Ġhar":9001,"sen":9002,"actic":9003,"![":9004,"apos":9005,"ĠJo":9006,"Ġouter":9007,"extension":9008,"ello":9009,"Ġoperating":9010,"pear":9011,"180":9012,"ĠLocal":9013,"Ġagreed":9014,"Generator":9015,"ulator":9016,"bat":9017,"irty":9018,"aria":9019,"mathop":9020,"ĉĉĉĉĉĉĉĉĉ":9021,"WR":9022,"Ġdir":9023,"Ġprev":9024,"Ġmobile":9025,"Ġorbit":9026,"ultane":9027,"Ġtheme":9028,"Ġviews":9029,"iano":9030,"Help":9031,"Ġrare":9032,"Collections":9033,"/(":9034,"Ã£o":9035,"Ġapplying":9036,"dfrac":9037,"ÑĮ":9038,"ancer":9039,"sn":9040,"pair":9041,"Ġdispl":9042,"3333":9043,"Ġfluid":9044,"username":9045,"ĠEmp":9046,"ĠĠĠĠĠĠĠĠĠĠĠĠĠĠĠĠĠĠĠĠĠĠĠĠĠĠĠĠ":9047,",{\\":9048,"Ġprep":9049,"Ġspac":9050,"ĠTR":9051,"Ġeffort":9052,"IVE":9053,"uly":9054,"alty":9055,"Socket":9056,"agent":9057,"ĠStat":9058,"Ġtrees":9059,"Ġsubt":9060,"ĠChief":9061,"ĠServices":9062,"Ġequilibrium":9063,"pattern":9064,"Ġbias":9065,"Ġdiam":9066,"tan":9067,"iated":9068,"STATE":9069,"Ġindeed":9070,"Ġstored":9071,"serial":9072,"Ġsizeof":9073,"Ġfactory":9074,"person":9075,"Ġcm":9076,"Ġstability":9077,"ĠPop":9078,"}}.":9079,"Ġfirm":9080,"odd":9081,"Ġ{$":9082,"Ġsuggests":9083,"Ġvote":9084,"onder":9085,"Ġmedal":9086,"brid":9087,"Ġforest":9088,"Ġconstructor":9089,"rout":9090,"ĠĠĠĠĠĠĠĠĠĠĠĠĠĠĠĠĊ":9091,"ĠSte":9092,"Identifier":9093,"assembly":9094,"Ð²":9095,"Ġplease":9096,"Ġ[\"":9097,"done":9098,"Ġbecoming":9099,"ĠIl":9100,"usform":9101,"users":9102,"Props":9103,"Ġoccurred":9104,"junit":9105,"Cap":9106,"quant":9107,"Ġforced":9108,"ĠjQuery":9109,"ĠMos":9110,"ĠTechnology":9111,"$&":9112,"andemic":9113,"Ġsuggested":9114,"})}":9115,"shadow":9116,"Ġshell":9117,"stitution":9118,"Ġcandidates":9119,"ĠScot":9120,"%)":9121,"sb":9122,"numerusform":9123,"springframework":9124,"Ġaccurate":9125,"Ġgravit":9126,"Resources":9127,"icted":9128,"pective":9129,"Ġlogger":9130,"ĠValley":9131,".;":9132,"separ":9133,"Ġlicense":9134,"ĠNavy":9135,"Ġremark":9136,"Ġbalance":9137,"Ġcharacteristic":9138,"Ġcat":9139,"Ġdescribes":9140,"Math":9141,"_(":9142,"Ġul":9143,"Condition":9144,"Ġproxy":9145,"Ġmanaged":9146,"Ġphil":9147,"1973":9148,"Ġleaving":9149,"sky":9150,"isted":9151,"Ġadopted":9152,"!\\":9153,"Ġisland":9154,"Ġthr":9155,"Variable":9156,"also":9157,"Ġsuitable":9158,"ĠWill":9159,"ĠOl":9160,"ĠEcon":9161,"Ġorth":9162,"feature":9163,"hard":9164,".\");":9165,"plicity":9166,"Ġcancer":9167,"amm":9168,"Register":9169,"moz":9170,"[-":9171,"READ":9172,"tk":9173,"ĠEnter":9174,"osoph":9175,"Ġchief":9176,"required":9177,"ylvan":9178,"Ġneural":9179,"Cluster":9180,"tiny":9181,"Ġregarding":9182,"storage":9183,"Ġtechnical":9184,"ĠWAR":9185,"Ġplus":9186,"Î¿":9187,"uv":9188,"collection":9189,"kens":9190,"law":9191,"Ġblood":9192,"Ġacts":9193,"ĠBecause":9194,"800":9195,"Ġeveryone":9196,"prob":9197,"Ġconfirm":9198,"Ġinfra":9199,"Ġmetal":9200,"Ġboost":9201,"arden":9202,"Ġmetrics":9203,"rait":9204,"Ġprison":9205,"lies":9206,"Ġhappen":9207,"words":9208,"bro":9209,"Ġvacc":9210,"sid":9211,"ĠHash":9212,"ĠTre":9213,"ĠSpecial":9214,"ansas":9215,"bmatrix":9216,"Ġ\\&":9217,"Ġnumerous":9218,"Early":9219,"Lin":9220,"Care":9221,"General":9222,"Ġctx":9223,"Ġcoast":9224,"Proof":9225,"bc":9226,"ifferent":9227,"1968":9228,"rank":9229,"eces":9230,"Ġ\\]":9231,"glyph":9232,"Framework":9233,"aby":9234,"rick":9235,"nodes":9236,"\\)":9237,"Ġincome":9238,"Total":9239,"signature":9240,"ĠJim":9241,"Ġleaves":9242,"bigl":9243,"Äĩ":9244,"]$,":9245,"outer":9246,"ongs":9247,"Ġvehicle":9248,"Ġbre":9249,"Ġnamely":9250,"ĠElement":9251,"uli":9252,"ĠWood":9253,"xs":9254,"Report":9255,"(__":9256,"Ð¼":9257,"uing":9258,"Ġrepresentations":9259,"achment":9260,"ĠUSA":9261,"Ġsupports":9262,"Ġplanet":9263,"tics":9264,"ĠLy":9265,"Ġrevealed":9266,"Ġsufficiently":9267,"Ġattacks":9268,"${\\":9269,"eto":9270,"ĉĠĠĠĠĠ":9271,"ffff":9272,"isely":9273,"ycle":9274,"TIME":9275,"eper":9276,"URI":9277,"Ġedition":9278,"ĠManagement":9279,"depth":9280,"odies":9281,"Ġinstant":9282,"Ġobjective":9283,"ĠPower":9284,"ĠWal":9285,"OB":9286,"NT":9287,"typedef":9288,"})=":9289,"iced":9290,"ĠJoseph":9291,"pres":9292,"Ġclimate":9293,"Ġking":9294,"|}{":9295,"ĠBre":9296,"EV":9297,"ĠAS":9298,"Cred":9299,"ĠAndroid":9300,"Game":9301,"ĠMiddle":9302,"USE":9303,"Ġconducted":9304,"ountry":9305,"OF":9306,"Ġdie":9307,"Ġaffected":9308,"ACT":9309,"mn":9310,"Ġturns":9311,"Ġdust":9312,"CTYPE":9313,"Ġwriters":9314,"CRE":9315,"Ġbulk":9316,"\\;":9317,"Trace":9318,"ĠCentre":9319,"vin":9320,"Arch":9321,"CESS":9322,"isc":9323,"temp":9324,"Nodes":9325,"vart":9326,"Ġproducer":9327,"ĠUI":9328,")[":9329,"Ġtracks":9330,"Ġsociety":9331,"iance":9332,"Ġcategories":9333,"Ġsupply":9334,"Ġapparent":9335,"ibration":9336,"Ġcalling":9337,"phy":9338,"Ġfol":9339,"}[\\":9340,"ador":9341,"about":9342,"progress":9343,"Ġtrial":9344,"bg":9345,"ĠAuthor":9346,"Ġfif":9347,"overnor":9348,"acent":9349,"Ġradiation":9350,"Ġfle":9351,"ĠJud":9352,"Ġ'<":9353,"aters":9354,"Ġleaders":9355,"Ġpowerful":9356,"ilbert":9357,"Ġcharset":9358,"ruby":9359,"flag":9360,"checkbox":9361,"Ġcovari":9362,"ĠRequest":9363,"Ġsatisfied":9364,"101":9365,"EEEE":9366,"println":9367,"vo":9368,"ĠFI":9369,"ĠFree":9370,"bigr":9371,"ĠAppendix":9372,"ĠSD":9373,"Ġreferences":9374,"vature":9375,"ãĢ":9376,"Prefix":9377,"Ġorganizations":9378,"Ġchallenge":9379,"manif":9380,"Ġtopic":9381,"Ġlett":9382,"vals":9383,"ĠDat":9384,"}\\,\\":9385,"Ġabund":9386,"Ġzone":9387,"itness":9388,"ĠRam":9389,"ĠInteger":9390,"Ġhospital":9391,"esome":9392,"('#":9393,"lik":9394,")->":9395,"wt":9396,"Fin":9397,"uplic":9398,"issues":9399,"Ġsequences":9400,"Ġui":9401,"Ġcomposed":9402,"LR":9403,"fx":9404,"Ġhelped":9405,"ĠBrazil":9406,"Role":9407,"decl":9408,"riority":9409,"'));":9410,"Ġcoinc":9411,"Ġlic":9412,"Ġinstrument":9413,"Ġhundred":9414,"Ġsenior":9415,"ylvania":9416,"orient":9417,"...</":9418,"usband":9419,"Ġconsequence":9420,"changed":9421,"Ġfans":9422,"Methods":9423,"English":9424,"POST":9425,"ester":9426,"trace":9427,"urer":9428,"%,":9429,"ulf":9430,"Ġkept":9431,"Ġspher":9432,"idae":9433,"ymmetry":9434,"Wallet":9435,"Ġtournament":9436,"indexOf":9437,"ĠSecurity":9438,"iteral":9439,"ativ":9440,"Ġdict":9441,"eer":9442,"video":9443,"Ġpredictions":9444,"Ġok":9445,"Ġinputs":9446,"throw":9447,"Ġ{\"":9448,"Ġferm":9449,"iem":9450,"Ġassumptions":9451,"igital":9452,"Ġfocused":9453,"Ġthous":9454,"Selection":9455,"slash":9456,"iser":9457,"ĠWay":9458,"DOCTYPE":9459,"ĠWindows":9460,")}}":9461,"Ġapplicable":9462,"Ġarrest":9463,"Ġriver":9464,"Ġbos":9465,"ĠMany":9466,"Ġ).":9467,"Ġtoward":9468,"plates":9469,"Install":9470,"UD":9471,"ĠSE":9472,"atar":9473,"Ġmusical":9474,"('/":9475,"amaz":9476,"raine":9477,"expr":9478,"Ġheaders":9479,"Ġindices":9480,"1969":9481,"Ġsuc":9482,"Ġappend":9483,"fire":9484,"upload":9485,"Ġbasketball":9486,"invalid":9487,"iger":9488,"Ġcollected":9489,"oston":9490,"Ġideas":9491,"Å¡":9492,"eld":9493,"ulty":9494,"1971":9495,"contrib":9496,"Ġrelax":9497,"Ġmanifold":9498,"emptyset":9499,"raise":9500,"Ġbillion":9501,"Ġemph":9502,"Ġple":9503,"ĉčĊ":9504,"ĠLink":9505,"elihood":9506,"irections":9507,"Ġflags":9508,"Ġdiagonal":9509,"itative":9510,"ourse":9511,"ĠCR":9512,"Ġran":9513,"resolve":9514,"resources":9515,"Ġtend":9516,"ĠSource":9517,"Ġpp":9518,"slam":9519,"ĠCommand":9520,"Ġchance":9521,"eting":9522,"Progress":9523,"prec":9524,"\"\"\"":9525,"ĠIran":9526,"Ġsubstant":9527,"ĠKh":9528,"ĠHTTP":9529,"Ġfav":9530,"Registry":9531,"Ġcompatible":9532,"functions":9533,"Ġadministr":9534,"amin":9535,"ĠEr":9536,"inals":9537,"ĠColumb":9538,"ĠMajor":9539,"elength":9540,"Ġdepartment":9541,"Ġoffered":9542,"Ġchanging":9543,"HC":9544,"INFO":9545,"Ġpolitician":9546,"ĠNorthern":9547,"ĠRet":9548,"})^":9549,"\"`":9550,"fc":9551,"tfrac":9552,"Ġseasons":9553,"moment":9554,"trivial":9555,"Ġroll":9556,"ĠHead":9557,"Ġjet":9558,"ĠCA":9559,"PORT":9560,"yy":9561,"ĠMake":9562,"ĠMicrosoft":9563,"Ġsales":9564,"Ġcanonical":9565,"Ġsustain":9566,"ĠEven":9567,"PM":9568,"Ġnonlinear":9569,".<":9570,"Ġfinish":9571,"Ġhistorical":9572,"Ġaccepted":9573,"Ġenv":9574,"LC":9575,"DateTime":9576,"Category":9577,";\\;\\":9578,"Ġnation":9579,"Visible":9580,"Ġcitiz":9581,"bd":9582,"Ġtruth":9583,"Ġclaims":9584,"iful":9585,"ierarchy":9586,"states":9587,"ynchron":9588,"Ġinnov":9589,"Ġmaximal":9590,"atomic":9591,"Ġprincipal":9592,"ĠSuch":9593,"Ġcoverage":9594,"ĠHttp":9595,"ĠRadio":9596,"ensities":9597,"Ġbehaviour":9598,"Ġgravity":9599,"Ġcosm":9600,"orizon":9601,"Cho":9602,"Ġthank":9603,"Den":9604,"onom":9605,"Ġ}{":9606,"enger":9607,"ĠallClasses":9608,"longrightarrow":9609,"ĠLiber":9610,"ums":9611,"Ġmom":9612,"Ġoil":9613,"ĠExecut":9614,"have":9615,"Ġfelt":9616,"ĠJones":9617,"Ġinvestigate":9618,"ĠallClassesLink":9619,"IDTH":9620,"Ġenergies":9621,"Ġsucceed":9622,"transition":9623,"Ġactress":9624,"Ġlabor":9625,"clip":9626,"Skip":9627,"Bi":9628,"clean":9629,"Ġowned":9630,"ĠCard":9631,"proxy":9632,"Given":9633,"ĠIrish":9634,"Ġdiscovered":9635,"ubble":9636,"OST":9637,"ĠWales":9638,"bras":9639,"Ġresolve":9640,"Ġinstitut":9641,"hook":9642,"Ġ[],":9643,"Ġbatch":9644,"Ġcancel":9645,"Import":9646,"ĠðŁ":9647,"ĠAmazon":9648,"square":9649,"ila":9650,"Ġmaxim":9651,"plan":9652,"Ġsomew":9653,"sym":9654,"Ġdivided":9655,"Ġinject":9656,"fix":9657,"enant":9658,"ĠTele":9659,"Ġwidely":9660,"TEXT":9661,"irror":9662,"ropic":9663,"ĠControl":9664,"arios":9665,"}}}\\":9666,"Ġforeach":9667,"Ġnarrow":9668,"Ġtrivial":9669,"))\\":9670,"Ġlanguages":9671,"trim":9672,"Ġpartner":9673,"striction":9674,"Ġnine":9675,"Ġparties":9676,"Ġbands":9677,"Wrapper":9678,"aka":9679,"kl":9680,"Ġderivative":9681,"ĠCla":9682,"Ġhalo":9683,"Ġexecute":9684,">::":9685,"1967":9686,"expand":9687,"Ġopposite":9688,"some":9689,"Ñĭ":9690,"Ġmurder":9691,"Ġdraft":9692,"ĠParliament":9693,"elligence":9694,"\\/":9695,"ĠJohnson":9696,"}}^{\\":9697,"ĠSta":9698,"ĠAsia":9699,"Ġrational":9700,"Ġtheories":9701,"Ġru":9702,"ritical":9703,"ĠSar":9704,"CB":9705,"seq":9706,"Ġfan":9707,"yg":9708,")--":9709,"gather":9710,"ĠBlock":9711,"Ġsignals":9712,"Ġagents":9713,"Ġestablishments":9714,"IGHT":9715,"Ġembedding":9716,"Ġcommission":9717,"iveness":9718,"Ġusage":9719,"urban":9720,"inx":9721,"Bind":9722,"Ġmodules":9723,"ĠBul":9724,"Notification":9725,"Ġpil":9726,"ĠVector":9727,"Mer":9728,"how":9729,"Ids":9730,"ĠMi":9731,"COMP":9732,"formal":9733,"Ġofficer":9734,"Ġalleg":9735,"ĠCH":9736,"ĠFacebook":9737,"1940":9738,"ran":9739,"Ġdeform":9740,"osa":9741,"ĠResource":9742,"sidebar":9743,"ugby":9744,"eners":9745,"ĠLcom":9746,"ĠIndeed":9747,"Ġdaily":9748,"Ġsynchron":9749,"Ġ}}":9750,"fast":9751,"herent":9752,"Ġcharged":9753,"rg":9754,"Ġrg":9755,"Ġpod":9756,"wp":9757,"Ġphone":9758,"Ġdocuments":9759,"ĠReport":9760,"identifier":9761,"async":9762,"Ġrecommend":9763,"ĠGi":9764,"idential":9765,"Ġuniversity":9766,"Ġpossibly":9767,"Ġsides":9768,"tar":9769,"Clear":9770,"brief":9771,"ÐµÐ½":9772,"Ġnorthern":9773,"hu":9774,"ti":9775,"series":9776,"Ġlooks":9777,"Ġinteract":9778,"Pair":9779,"Headers":9780,"Ġflo":9781,"ĠSign":9782,"USER":9783,"ronic":9784,"Uri":9785,"Ġacting":9786,"Ġderive":9787,"ĠDir":9788,"ĠProcess":9789,"uzz":9790,"assandra":9791,"mond":9792,"Plan":9793,"Ġclaimed":9794,"usal":9795,"gest":9796,"heta":9797,"pet":9798,"Ġfamous":9799,"Ġpretty":9800,"Ġends":9801,"sel":9802,"ĠArrayList":9803,"ĠGiven":9804,"sylvania":9805,"Py":9806,"Ġredshift":9807,"ĠSQL":9808,"Ġdamage":9809,"Ġsouthern":9810,"Ġcontinues":9811,"Ġjump":9812,"ĠWeek":9813,"ĠÐ¿":9814,"aren":9815,"ochastic":9816,"ndef":9817,"aug":9818,"Are":9819,"ampion":9820,",\\\\":9821,"plane":9822,"Ġintended":9823,"Ġcomputing":9824,"Ġpossibility":9825,"phase":9826,"Ġsubsequent":9827,"Ġdebug":9828,"ivated":9829,"ĠNAV":9830,"ez":9831,"blank":9832,"Ġfragment":9833,"Ġnewsp":9834,"Ġ\"$":9835,"Ġlived":9836,"Ġcities":9837,"Ġcustomers":9838,"They":9839,"ĠCommunity":9840,"Ġradial":9841,"slant":9842,"1964":9843,"ĠSupport":9844,"Ġtransmission":9845,"ĠTwitter":9846,"Ġmanner":9847,"plier":9848,"Transport":9849,"etal":9850,"ĠBern":9851,"Ġnp":9852,"Ġsym":9853,"ĠSir":9854,"Ġvariance":9855,"ĠPRO":9856,"1945":9857,"indu":9858,"ĠSM":9859,"Ġlearned":9860,"EEEEFF":9861,"Ġcommut":9862,"Ġnullptr":9863,"Scal":9864,"ipe":9865,"Ġ([":9866,"Ġexceed":9867,"Ġspecify":9868,"Ġtemp":9869,"Language":9870,"Ġcontrad":9871,"dc":9872,"NC":9873,"TRUE":9874,"iota":9875,"prising":9876,"Consider":9877,"Ġgirl":9878,"Ġdx":9879,"Ġ>>":9880,"Ġinfer":9881,"Ġcorner":9882,"REQ":9883,"Enter":9884,"Ġdog":9885,"ĠTri":9886,"Ġsimultane":9887,"Ġexpressions":9888,"Ġpurposes":9889,"regular":9890,"Hub":9891,"Ġidentical":9892,"Ġperforming":9893,"ucial":9894,"ĠBlue":9895,"Ġvalidation":9896,"Best":9897,"ifdef":9898,"gebras":9899,"andon":9900,"ĠTH":9901,"Ġdriving":9902,"Ġdependencies":9903,"Ax":9904,"}_{-":9905,"Generated":9906,"SV":9907,"Ġpoet":9908,"()))":9909,"ĠHuman":9910,"checked":9911,"Ġpurs":9912,"ĠEnt":9913,")}_":9914,"Texture":9915,"umes":9916,"Ġpandemic":9917,"Flow":9918,"ideos":9919,"possible":9920,"'d":9921,"Returns":9922,"SG":9923,"ĠLord":9924,"Ġbudget":9925,"Interval":9926,"Cast":9927,"Ġquantity":9928,"Services":9929,"ĠSunday":9930,"Ġprecision":9931,"picker":9932,"Ġdedicated":9933,"Ġlisting":9934,"Ġreaction":9935,"Ġparser":9936,"ĠALIGN":9937,"Ġgenerator":9938,"Ġignore":9939,"ĠDown":9940,"ĠConference":9941,"retch":9942,"Ġarticles":9943,"undefined":9944,"Ġfeedback":9945,"Under":9946,"SN":9947,"MODULE":9948,"Ġdeleg":9949,"airman":9950,"Ġremember":9951,"OC":9952,"ĠBoolean":9953,"åĪ":9954,"Fragment":9955,"cussion":9956,"lf":9957,"Ġtriple":9958,"ĠEmpire":9959,"lector":9960,":`":9961,"ĠRo":9962,"cha":9963,"ĠDesign":9964,"Bean":9965,"negative":9966,"ĠWell":9967,"Ġdocumentation":9968,"Conn":9969,"ĠMichigan":9970,"Ġcounty":9971,"Mouse":9972,"ĠHy":9973,"Ġmedian":9974,"Ġinvestigation":9975,"SF":9976,"zy":9977,"ycl":9978,"Ġ$,":9979,"ĠSIZE":9980,"orders":9981,"Ġlaws":9982,"Ġhusband":9983,"unities":9984,"Ġtimeout":9985,"Ġlie":9986,"closed":9987,"Ġintensity":9988,"Ġagree":9989,"apis":9990,"ĠCELL":9991,"python":9992,"1965":9993,"Lemma":9994,"paper":9995,"emy":9996,"PER":9997,"ĠÂ£":9998,"sig":9999,"Hence":10000,"download":10001,"Ġvalidate":10002,"Ġmd":10003,"Ġpolicies":10004,",...":10005,"Ġhour":10006,"ĠEvery":10007,"Ġatmos":10008,"bas":10009,"creens":10010,"ĠMen":10011,"isting":10012,"ĠGre":10013,"Sequence":10014,"Ġconvent":10015,"Ġ\\(\\":10016,"Åį":10017,"/\"":10018,"Ġorb":10019,"imits":10020,"Ġpassing":10021,"ĠASSERT":10022,"Ġfloor":10023,"animation":10024,"Ġrepeated":10025,"testing":10026,"ITION":10027,"Ġplanning":10028,"overview":10029,"»¿":10030,"Ġexpanded":10031,"resize":10032,"ĠDocument":10033,"ĠRay":10034,"NavBarFont":10035,"Stats":10036,"Email":10037,"=\"../../../../../../../":10038,"Ġasymptotic":10039,"library":10040,"ĠNon":10041,"ĠPak":10042,"Phys":10043,"Ġfre":10044,")})":10045,"isis":10046,"ĠBow":10047,"ĠSi":10048,"Short":10049,"mean":10050,"ĠSouthern":10051,"Ġshop":10052,"Ġgeneralized":10053,"essions":10054,"amazon":10055,"Ã¢":10056,"(@":10057,"figures":10058,"Ġtwice":10059,"ĠEND":10060,"emporary":10061,"Ġindicated":10062,"nam":10063,"Ġdependent":10064,"Ġtreated":10065,"ifer":10066,"Ġanimation":10067,"enth":10068,"\"].":10069,"Ġdialog":10070,"Ġrich":10071,"}$}":10072,"ĠLast":10073,"Ġpaid":10074,"Ġprecisely":10075,"ï»¿":10076,"ĠTaylor":10077,"Normal":10078,"ĠSpain":10079,"}|\\":10080,"LINE":10081,"Ġbuy":10082,"ĠOk":10083,"Users":10084,"Ġcommonly":10085,"seg":10086,"atern":10087,"console":10088,"Ġattended":10089,"Len":10090,"arity":10091,"Ġpromin":10092,"Ġassociation":10093,"obs":10094,"uries":10095,"Ġequality":10096,"HTTP":10097,"Ġinvolving":10098,"urable":10099,"BL":10100,"columnwidth":10101,"oir":10102,"poration":10103,"Ġrac":10104,"ĠInput":10105,"awn":10106,"1930":10107,"apse":10108,"ĠSoftware":10109,"ĠApple":10110,"ĠEp":10111,"quote":10112,"dk":10113,"Ġaware":10114,"ĠLOG":10115,"Ġpropose":10116,"Ġdepart":10117,"ummy":10118,"onomy":10119,"ĠSpace":10120,"Ġdisabled":10121,"Ġchampionship":10122,";\">":10123,"aturday":10124,"\\}$,":10125,"ĠPacific":10126,"Ġstrugg":10127,"ennis":10128,"Real":10129,"extern":10130,"Ġscroll":10131,"aired":10132,"lat":10133,"uning":10134,"timeout":10135,"Begin":10136,"ryption":10137,"ĠPrem":10138,"Ġnearby":10139,"}}=":10140,"flex":10141,"Ġplugin":10142,"setup":10143,"ĠRest":10144,"observ":10145,"Ġmagazine":10146,"1966":10147,"Ġevaluated":10148,"ĠLab":10149,"Ang":10150,"Ġvalign":10151,"Ġspecifically":10152,"ĠWed":10153,"spin":10154,"Ġprogramming":10155,"Ġvocals":10156,"ĠCustom":10157,"Shape":10158,"Ġdynamical":10159,"ĠChampionships":10160,"Ġphoton":10161,"idents":10162,"ĠImm":10163,"Ġdetermin":10164,"ĠNAVBAR":10165,"ĠCommon":10166,"Ġintegrated":10167,"Ġprotection":10168,"ĠMah":10169,"Ġprovider":10170,"ĠCart":10171,"Ġrecording":10172,"Ġgenus":10173,"ĠSoviet":10174,"ĠCamb":10175,"Ġcontrolled":10176,"Ġdiver":10177,"Ġadvert":10178,"irds":10179,"^{*":10180,"Ġcopies":10181,"ĠBas":10182,"loader":10183,"Miss":10184,"peat":10185,"Ġfish":10186,"ÏĦ":10187,"Ġcatalog":10188,"rypto":10189,"ĠNext":10190,"constant":10191,"stic":10192,"Sur":10193,"Ġhol":10194,"Ġlands":10195,"volume":10196,"agers":10197,"mf":10198,"ĠØ":10199,"there":10200,"ĠMount":10201,"accept":10202,"Ġpatient":10203,"Ġplas":10204,"Ġfrag":10205,"ĠAP":10206,"Ġtopological":10207,"ĠAff":10208,"Ġreadonly":10209,"Ġassembly":10210,"cheduler":10211,"Ġmixing":10212,"Ġreligious":10213,"+(":10214,"Ġcolon":10215,"gypt":10216,"Ġisomorphism":10217,"ĠOhio":10218,"Ġemployed":10219,"Ġspot":10220,"Ġvictory":10221,"\"],":10222,"Ġhands":10223,"ĠPennsylvania":10224,"ELD":10225,"ĠMot":10226,"Namespace":10227,"Ġprops":10228,"ĠWater":10229,"ĠDemocratic":10230,"lad":10231,"Limit":10232,",'":10233,"ĠLead":10234,"apy":10235,"erence":10236,"ĠĠĠĠĠĠĠĠĠĠĠĠĠĠĠĠĠĠĠĠĠĠĠĠĠĠĠĠĠĠ":10237,"ingly":10238,"Cloud":10239,"HP":10240,"pler":10241,"Ġmathemat":10242,"(\"/":10243,"Ġupdates":10244,"Tags":10245,"ĠParamet":10246,"Ġtransparent":10247,"Ġarc":10248,"aux":10249,"Ġdefines":10250,"plementation":10251,"ĠFar":10252,"Ġhypothesis":10253,"/.":10254,"water":10255,"ucky":10256,"ĠBit":10257,"dash":10258,"Ġresidents":10259,"Mask":10260,"DEFAULT":10261,"arith":10262,"(--":10263,"phantom":10264,"Identity":10265,"erior":10266,"Ġquark":10267,"Ġspeech":10268,"methods":10269,"Ġcarbon":10270,"Stop":10271,"unnel":10272,"Ġnormalized":10273,"Ġseat":10274,"æľ":10275,"ĠANY":10276,"Ġexplo":10277,"ĠPM":10278,"Ġcmd":10279,"ĠGreek":10280,"\\%$":10281,"Ġtemperatures":10282,"FE":10283,"Ġreset":10284,"pull":10285,"life":10286,"ĠAnother":10287,"ENSE":10288,"Ġdense":10289,"photon":10290,"ĠFund":10291,"Ġbill":10292,"Ġ---":10293,"Ġissued":10294,"Landroid":10295,"ĠOrgan":10296,"Ġshut":10297,"illy":10298,"SSL":10299,"Ġincident":10300,"III":10301,"Ġsubgroup":10302,"inois":10303,"Ġchallenges":10304,"ĠBattle":10305,"tc":10306,"Ġ];":10307,"amber":10308,"Ġmodal":10309,"FLA":10310,"Ġregistered":10311,"jack":10312,"Ġadvanced":10313,".\",":10314,"ĠĠčĊ":10315,"Ġtried":10316,"Ġcharacteristics":10317,"$};":10318,"Ġacid":10319,"warning":10320,"Ġquantities":10321,"onto":10322,"plicated":10323,"âĢĿ.":10324,"ilters":10325,"origin":10326,"ĠFrancisco":10327,"connected":10328,"Ġprimarily":10329,"=.":10330,"cher":10331,"Ġexplore":10332,"ĠGP":10333,"ĠOptional":10334,"vartheta":10335,"ĠWilliams":10336,"amel":10337,"specific":10338,"Although":10339,"Ġfinds":10340,"ĠLight":10341,"ĠRepresent":10342,"mouse":10343,"policy":10344,"ĠPR":10345,"1920":10346,"Ġil":10347,"Ġ\\!":10348,"Ġaddresses":10349,"']['":10350,"Ġcurvature":10351,"Ġcauses":10352,"Ġrestaur":10353,"ĠCivil":10354,"isson":10355,"Dictionary":10356,"havior":10357,"&=\\":10358,"duration":10359,"uset":10360,"ĠDB":10361,"Ġfaster":10362,"%%%%":10363,"Ġ({\\":10364,"Ġcontents":10365,"Ġbridge":10366,"Ġdimensional":10367,"ĠMu":10368,"ĠPolicy":10369,"Ġconfidence":10370,"\\}\\":10371,"Ġregional":10372,"ĠAre":10373,"Ġescape":10374,"ĠVan":10375,"Ġequipment":10376,"react":10377,"Cla":10378,"medskip":10379,"agrang":10380,"Ġroles":10381,"Ġextremely":10382,"supported":10383,"adel":10384,"Ġnotes":10385,"Ġprepar":10386,"Look":10387,"Enumer":10388,"LOCK":10389,"Ġapproximate":10390,"Ġconference":10391,"tensor":10392,"ĠEst":10393,"%\"":10394,"Ġserving":10395,"Elements":10396,"abeled":10397,"Ġadministration":10398,"][]{":10399,"Ã±":10400,"Ġexplanation":10401,"redu":10402,"Ġfeat":10403,"Should":10404,"Ġcer":10405,"Ġfigures":10406,"Ġprofiles":10407,"Ġbuf":10408,"amps":10409,"grav":10410,"Ġopts":10411,"poch":10412,"Ġfiction":10413,"pto":10414,"Ġofficers":10415,"aud":10416,"aya":10417,"analy":10418,"Ġbits":10419,"arest":10420,"ĠLo":10421,"Ġlowest":10422,"ĠRh":10423,"ORTED":10424,"Ġorganized":10425,"ĠNet":10426,"owner":10427,"letter":10428,"ĠGeorgia":10429,"Don":10430,"bean":10431,"Detail":10432,"Many":10433,"Required":10434,"itage":10435,"Ġhappens":10436,"oked":10437,"}~":10438,"orough":10439,"counter":10440,"Ġcultural":10441,"ĠProvince":10442,"Ġtested":10443,"Ġschema":10444,"blog":10445,"ĠKen":10446,"ĠWall":10447,"Ġmill":10448,"GA":10449,"apl":10450,"ĠSearch":10451,"ogonal":10452,"Ġenvironmental":10453,"Ġiteration":10454,"ctic":10455,"Ġtargets":10456,"NSString":10457,"à¸":10458,"Ġmotor":10459,"Ġdescent":10460,"GER":10461,"GP":10462,"Ġcryst":10463,"ependence":10464,"Ġluminosity":10465,"Ġemployees":10466,"twitter":10467,"requency":10468,"ĠJersey":10469,"ĠCollection":10470,"Ġbind":10471,"ĉĠĠĠĠĠĠĠ":10472,"ori":10473,"wig":10474,"burgh":10475,"acks":10476,"Free":10477,"Ġmorning":10478,"eves":10479,"Ġassuming":10480,"'];":10481,"Ġseparated":10482,"Ð°Ð½":10483,"Ġopin":10484,"Ġdashed":10485,"Ġarmy":10486,"itter":10487,"eness":10488,"perm":10489,"parallel":10490,"Delegate":10491,"catch":10492,"Ġdrama":10493,"batch":10494,"activity":10495,"subsec":10496,"METH":10497,"wd":10498,"rated":10499,"ĠKent":10500,"Ġpixel":10501,"Ġtal":10502,"issue":10503,"gradle":10504,"Ġaspects":10505,"Ġreprodu":10506,"Native":10507,"cross":10508,"Ġhorizontal":10509,"ĠMond":10510,"Suppose":10511,"Ġclock":10512,"Sm":10513,"Ġmes":10514,"Ġcorrection":10515,"ĠBritain":10516,"VE":10517,"Ġbroken":10518,"Environment":10519,"Ġstrategies":10520,"spacing":10521,"slice":10522,"ĠBoston":10523,"Ġvehicles":10524,"ä»":10525,"Ġbelieved":10526,"Ġequivalence":10527,"Ġbenefit":10528,"ĠValid":10529,"Ġdefinitions":10530,"ĠCarl":10531,"ĠHistoric":10532,"elcome":10533,"ĠWild":10534,"Ġmodify":10535,"stro":10536,"Vertex":10537,"Ġbrain":10538,"Ġdisp":10539,"ĠFriday":10540,"pag":10541,"Ġprotein":10542,"comput":10543,"Gui":10544,"EventListener":10545,"ĠPolice":10546,"Ġtmp":10547,"ĠCase":10548,"cline":10549,"Ġwarn":10550,"runtime":10551,"coll":10552,"una":10553,"scribe":10554,"Db":10555,"Ġphoto":10556,"ĠSand":10557,"route":10558,"Ġconvers":10559,"ĠJoe":10560,"Ġofficials":10561,"Ġdestination":10562,"watch":10563,"Ġfacilities":10564,"127":10565,"QU":10566,"Day":10567,"icular":10568,"once":10569,"tion":10570,"Ġnavbar":10571,"ĠIslam":10572,"Ġhuge":10573,"Ġacquired":10574,"Ġdecrease":10575,"ĠNight":10576,"/{":10577,"TF":10578,"Ġpal":10579,"ĠAccess":10580,"ĠLuc":10581,"Ġintermediate":10582,"Ġactors":10583,"ĠComput":10584,"ĠOx":10585,"Ġgravitational":10586,"ĠFROM":10587,"Ġther":10588,"\\!\\!\\!\\!":10589,"Serv":10590,"YY":10591,"\\|\\":10592,"ucl":10593,"bec":10594,"Li":10595,"ĠSenate":10596,"RPC":10597,"SCR":10598,"nol":10599,"]{\\":10600,"Ġliqu":10601,"ĠSciences":10602,"Div":10603,"Ġbinding":10604,"Ġconfigurations":10605,"opts":10606,"gi":10607,"ressed":10608,"Ġcaptured":10609,"Ġnecessarily":10610,"Ġseed":10611,"BI":10612,"Ġweap":10613,"contact":10614,"ĠAsian":10615,"ĠWin":10616,":=\\":10617,"ĠMedical":10618,"Ġversus":10619,"equations":10620,"nic":10621,"Proto":10622,"created":10623,"^{(\\":10624,"Children":10625,"ulating":10626,"Ġcriteria":10627,"ĠOC":10628,"Ġreceiving":10629,"Lower":10630,"compile":10631,"Ġheard":10632,"cert":10633,"scriptsize":10634,"Ġelectronic":10635,"helper":10636,"convert":10637,"ĠTheatre":10638,"ĠMid":10639,"Ġtight":10640,"ĠQueen":10641,"Ġfashion":10642,"basic":10643,"Ġcensus":10644,"Ġnewly":10645,"compare":10646,"month":10647,"release":10648,"ĠJewish":10649,"ĠReal":10650,"ANT":10651,"ictures":10652,"verter":10653,"Ġwants":10654,"Ġreality":10655,"ĠAndrew":10656,"yo":10657,"1962":10658,"Make":10659,"ĠAM":10660,"views":10661,"Leg":10662,"chart":10663,"Ġdemonstrate":10664,"selector":10665,"ĠResponse":10666,"optional":10667,"radio":10668,"Ġcold":10669,"Ġrequested":10670,"Ġconfigure":10671,"ĠCare":10672,"abeth":10673,"Ġbegins":10674,"ĠHospital":10675,"ĠMaster":10676,"Ġgenerating":10677,"Ġfluctuations":10678,"Ġsys":10679,"FORM":10680,"Moreover":10681,"Admin":10682,"Ġ'./":10683,"Ġeffectively":10684,"period":10685,"Ġunderst":10686,"Ġsun":10687,"ĠFire":10688,"Ġcars":10689,"Ġquasi":10690,"Ġ''":10691,"Ġflight":10692,"Ġboy":10693,"Ign":10694,"1963":10695,"Ġcodes":10696,"Xi":10697,"Ġgather":10698,"SELECT":10699,"Animation":10700,"/_":10701,"ancell":10702,"Screen":10703,"INTER":10704,"METHOD":10705,"ĠKong":10706,"Move":10707,"Ġgate":10708,"dig":10709,"gency":10710,"Ġsmart":10711,"Ġrecover":10712,"Ġrailway":10713,"About":10714,"Program":10715,"Ġbenefits":10716,"ÑģÑĤ":10717,"Ġattend":10718,"ĠSports":10719,"agnostic":10720,"ĠFederal":10721,"Ġmeant":10722,"Endpoint":10723,"Ġconsisting":10724,"Overview":10725,"Ġcond":10726,"Ġelections":10727,"Ġeigenvalues":10728,"MODE":10729,"Ġoperated":10730,"ĠStan":10731,"Sem":10732,"Ġsb":10733,"folio":10734,"ĠBa":10735,"Ġmolecular":10736,"ĠConsider":10737,"ĠNE":10738,"Ġ@\"":10739,"posing":10740,"Ġtermin":10741,"Save":10742,"Ġlargely":10743,"Ġreviews":10744,"pb":10745,"Ġsensitive":10746,"PUT":10747,"Ġimply":10748,"^*\\":10749,"National":10750,"getValue":10751,"Allow":10752,"ĠBal":10753,"Ġmarg":10754,"database":10755,"lope":10756,"Ġanyone":10757,"imately":10758,"Ġreserved":10759,"Ġbeat":10760,"Ga":10761,"Validation":10762,"getElementById":10763,"gz":10764,"Ġahead":10765,"United":10766,"goto":10767,"Ġinspired":10768,"Ġaccomp":10769,"Ġclosely":10770,"}\\|":10771,"iii":10772,"Ġuniversal":10773,"Ġ$\\{\\":10774,"ĠSpring":10775,"Ġtypename":10776,"mk":10777,"ĠAz":10778,"****************************************************************":10779,"Ġenhance":10780,"Ġdrag":10781,"PY":10782,"geo":10783,"Ġsell":10784,"ORY":10785,"orrow":10786,"ĠLear":10787,"ÅĤ":10788,"ĠOriginal":10789,"Ġdt":10790,"objects":10791,"itely":10792,"Writ":10793,"oves":10794,"Ġrig":10795,":[":10796,"ĠFind":10797,"Ġskills":10798,"FP":10799,"cn":10800,"ĠSecretary":10801,"Ġenum":10802,"BM":10803,"ptic":10804,"Warning":10805,"ĠColl":10806,"Ġexcell":10807,"Ġdefeated":10808,"agrangian":10809,"achuset":10810,"Ġindicating":10811,"Navigation":10812,"sex":10813,"achusetts":10814,"ĠWilson":10815,"Ġintroduction":10816,"visible":10817,"friend":10818,"ding":10819,"represent":10820,"brand":10821,"Sql":10822,"AST":10823,"ĠCro":10824,"ĠGeV":10825,"ĠNa":10826,"ducible":10827,"VALID":10828,"Ġcolors":10829,"vertical":10830,"Ġemb":10831,"will":10832,"(\"#":10833,"ĠGuide":10834,"clone":10835,"Ġvon":10836,"Ġcolspan":10837,"Ġatoms":10838,"exit":10839,"kwargs":10840,"athan":10841,"bury":10842,"700":10843,"Ġfellow":10844,"Dependency":10845,"Ġeyes":10846,"triangle":10847,"ĠBroad":10848,"Ġwish":10849,"Ġperhaps":10850,"cli":10851,"ĠSol":10852,"lets":10853,"Ġcharges":10854,"estic":10855,"omal":10856,"ĠJr":10857,"Ġleadership":10858,"validate":10859,"=[":10860,"analysis":10861,"Border":10862,"icator":10863,"isot":10864,"Ġrepresentative":10865,"comes":10866,"Ġcult":10867,"Ġ_.":10868,"Ġcompletion":10869,"Î¹":10870,"Ġdirections":10871,"ĠCirc":10872,"Sort":10873,"Serializer":10874,"Ġdetector":10875,"Ġdeveloping":10876,"inson":10877,"Ġimprovement":10878,"area":10879,"variable":10880,"ĠAri":10881,"Ġsubsequently":10882,"Ġloaded":10883,"highlight":10884,"Ġeconomy":10885,"finite":10886,"Ġce":10887,"Ġexecutive":10888,"Ġguide":10889,"=$":10890,"attery":10891,"Ġkin":10892,"Phone":10893,"Ġconverted":10894,"sync":10895,"comb":10896,"Ġmagnet":10897,"ĠSea":10898,"ĠFC":10899,"original":10900,"ĠJon":10901,"Ġstreet":10902,"Ġsuperv":10903,"Ġstochastic":10904,"Cr":10905,"ĠSem":10906,"isor":10907,"Ġcrow":10908,"ĠDutch":10909,"Ġpsych":10910,"Word":10911,"Career":10912,"CHAR":10913,"Ġven":10914,"Ġdrawn":10915,"Html":10916,"Ġinterior":10917,"aga":10918,"Ġtells":10919,"Ġlistener":10920,"Ġalert":10921,"Release":10922,"Ġessentially":10923,"ĠÅ":10924,"(-\\":10925,"notag":10926,"IOException":10927,"Ġsister":10928,"ĠConf":10929,"merge":10930,"logo":10931,"ĠCoast":10932,"vol":10933,"ĠIllinois":10934,"FN":10935,"}>":10936,"Append":10937,"Ġportion":10938,"Ġadvance":10939,"Est":10940,"Ġpet":10941,"Ġfresh":10942,"ĠRegion":10943,"Named":10944,"unte":10945,"enance":10946,"atters":10947,"holds":10948,"onymous":10949,"ingham":10950,"iminal":10951,"ĠEnvironment":10952,"Ġ[-":10953,"ĠGar":10954,"Îµ":10955,"Ġjobs":10956,"inherit":10957,"Ġvanish":10958,"ĠEnergy":10959,"complex":10960,"apsed":10961,"Ġdisplayed":10962,"Ġinvestment":10963,"Another":10964,"oses":10965,"Card":10966,"Ġsaved":10967,"æĸ":10968,"Ġparticipants":10969,"Ġinterpretation":10970,"submit":10971,"^*(":10972,"çĶ":10973,"ĠScotland":10974,"Ġturb":10975,"RC":10976,"messages":10977,"uling":10978,"Consumer":10979,"chester":10980,"constructor":10981,"Ġscientific":10982,"footnotes":10983,"dag":10984,"Ñĩ":10985,"Films":10986,"boldmath":10987,"aded":10988,"aped":10989,"aki":10990,"teen":10991,"rie":10992,"Ġreduces":10993,"ĠRepublican":10994,"Ġcorrections":10995,"ĠTro":10996,"ĠApplication":10997,"Ġmerge":10998,"Ġpowers":10999,"sep":11000,"1961":11001,"ĠAdv":11002,"score":11003,"ĠDaniel":11004,"Ġfunding":11005,"Ġrecognition":11006,"iden":11007,"Ġfeet":11008,"Ġconclusion":11009,"Ġhelps":11010,"Validator":11011,"Ġamb":11012,"memory":11013,"Ġinfe":11014,"aturally":11015,"educe":11016,"pur":11017,"Ġsport":11018,"mak":11019,"imm":11020,"InputStream":11021,"Ġtsd":11022,"Ġextent":11023,"Ġscores":11024,"Ġsurrounding":11025,"Ġwestern":11026,"Fore":11027,"Operator":11028,"rece":11029,"arters":11030,"atriate":11031,"insic":11032,"Ġsky":11033,"rovers":11034,")^\\":11035,"Ġvacuum":11036,"ĠThree":11037,"Hom":11038,"scopic":11039,"ĠRa":11040,"ĠDM":11041,"Effect":11042,"ĠâĢ¦":11043,"istogram":11044,"Ġabsence":11045,"Ġ_{\\":11046,"ĠAdminist":11047,"ĠMember":11048,"Ġnotion":11049,"Ġfunds":11050,"ourney":11051,"ĠJes":11052,"Ġseparation":11053,"Ġwavelength":11054,"ANCE":11055,"elect":11056,"ĠHiggs":11057,"exec":11058,"Connect":11059,"Ġships":11060,"Ġopacity":11061,"Forms":11062,"ĠComple":11063,"Ġplants":11064,"Ġheav":11065,"Ġpractical":11066,"bur":11067,"ĠJackson":11068,"Pers":11069,"!]":11070,"factory":11071,"Ġcircum":11072,"anchor":11073,"ĠProperty":11074,"Ġacademic":11075,"ĠFour":11076,"assign":11077,"ĠEdward":11078,"Ġcursor":11079,"Ġpitch":11080,"textcolor":11081,"Ġdeploy":11082,"Contact":11083,"Ġadjacent":11084,"!\"":11085,"STRING":11086,"Ġmoments":11087,"ĠFamily":11088,"develop":11089,"RT":11090,"elastic":11091,"Ġproperly":11092,"AX":11093,"repo":11094,"ĠCapt":11095,"Ġframes":11096,"Ġexerc":11097,"~~~~~~~~":11098,"DEBUG":11099,"usp":11100,"ĠEgypt":11101,"ĠĠĠĠĠĠĠĠĠĠĊ":11102,"fact":11103,"ĠDescription":11104,"aton":11105,"Ġprofessor":11106,"ĠPortug":11107,"ordan":11108,"Ġsingles":11109,"uj":11110,"ĉĠĠ":11111,"Ġbreaking":11112,"Ġdiscr":11113,"Ġcontrols":11114,"ĠUkraine":11115,"ĠCG":11116,"sun":11117,"MIN":11118,"ĠJeff":11119,"alert":11120,"Î½":11121,"ĠLittle":11122,"urance":11123,"tikzpicture":11124,"ursday":11125,"Ġphases":11126,"Ġcaref":11127,"oured":11128,"Ġpolarization":11129,"130":11130,"Driver":11131,"Ġorientation":11132,".\\\\":11133,"Focus":11134,"jet":11135,"AE":11136,"ushed":11137,"Ġsexual":11138,"deep":11139,"Äį":11140,"000000":11141,"=\\\"":11142,"isset":11143,"Ġcoupled":11144,"Ġdemonstrated":11145,"Ġbass":11146,"footnotesize":11147,"ĠBet":11148,"Ġappre":11149,"Ġmount":11150,"ĠOfficial":11151,"REG":11152,"Ġrestricted":11153,"ĠLatin":11154,"ĠassertThat":11155,"ĠApache":11156,"typename":11157,"igate":11158,"ĠEastern":11159,"elem":11160,"ĠArea":11161,"direction":11162,"oving":11163,"Ġaudience":11164,"Ġfee":11165,"ĠJustice":11166,"Ġelli":11167,"pot":11168,"Ġearth":11169,"ĠAbout":11170,"Pojo":11171,"Ġexcess":11172,"backslash":11173,"ĠFollowing":11174,"including":11175,"cludes":11176,"Ġengineering":11177,"generate":11178,"Cur":11179,"Ġcub":11180,"Ġimplicit":11181,"ears":11182,"Ġbaseline":11183,"Ġsecure":11184,"Ġentirely":11185,"Ġ'\\":11186,"phia":11187,"navigation":11188,"instein":11189,"Ġ\"\";":11190,"Light":11191,"ĠWho":11192,"{\"":11193,"ĠChris":11194,"Ġconcentration":11195,"loss":11196,"Ġfort":11197,"Ġtele":11198,"plain":11199,"Ġtransactions":11200,"erved":11201,"irement":11202,"Volume":11203,"Ġeye":11204,"@{":11205,"CLASS":11206,"sheet":11207,"Ġscenarios":11208,"Ġwasn":11209,"Ġisot":11210,"standard":11211,"conduct":11212,"?âĢĿ":11213,"Ð¾Ð²":11214,"ĠPoland":11215,"ipping":11216,"Env":11217,"Ġles":11218,"theless":11219,"Ġcommands":11220,"Ġinvari":11221,"Ġdegener":11222,"Ġsupers":11223,"transaction":11224,"Edge":11225,"Ġyouth":11226,"Ġpixels":11227,"ĠVari":11228,"spe":11229,"ĠLive":11230,"$-$":11231,"ĠBad":11232,"ĠObserv":11233,"program":11234,"allest":11235,"Basic":11236,"ĠSaturday":11237,"ĠTw":11238,"Platform":11239,"dynamic":11240,"jecture":11241,"unately":11242,"Ġ\\\"":11243,"Ġchecked":11244,"driver":11245,"eros":11246,"ĠBand":11247,"Ġrestriction":11248,"Ġbusinesses":11249,"occer":11250,"Ġcolour":11251,"Ġinstruction":11252,"Ġsettlement":11253,"1944":11254,"ĠInternet":11255,"ifndef":11256,"ĠPrince":11257,"repository":11258,"Join":11259,"&&\\":11260,"Ġanimals":11261,"Ġaccident":11262,"MAP":11263,"Ġsensitivity":11264,"corollary":11265,"cu":11266,"Ġcomplement":11267,"%.":11268,"Flag":11269,"Ġcart":11270,"ĠStation":11271,"Execution":11272,"gov":11273,"ĠBell":11274,"Ġclients":11275,"isa":11276,"isEmpty":11277,"Insert":11278,"ORDER":11279,"Ġthanks":11280,"']);":11281,"reatest":11282,"$.}":11283,"Ġri":11284,"inos":11285,"ĠLjava":11286,"Ġconn":11287,"~(\\":11288,"Ġsuppose":11289,"Amount":11290,"DATA":11291,"ArgumentException":11292,"ĠStatus":11293,"Ġsupporting":11294,"Ġelif":11295,"Ġruntime":11296,"Ġelev":11297,"Ġmal":11298,"Ġperiodic":11299,"Ġskip":11300,"Ġcredit":11301,"Brit":11302,"ĠMike":11303,"()),":11304,"ĠMinistry":11305,"destroy":11306,"take":11307,"Ġcomedy":11308,"ĠClient":11309,"ĠAli":11310,"gradient":11311,"imated":11312,"encing":11313,"Ġfails":11314,"ĠKorea":11315,"Ø±":11316,"Ġconsult":11317,"Ġadmin":11318,"ymer":11319,"å®":11320,"commons":11321,";|":11322,"Ġwinner":11323,"Ġ\\,\\":11324,"ĠNY":11325,"ĠMassachusetts":11326,"ĠWalk":11327,"posure":11328,"Ġcert":11329,"Ġroughly":11330,"hab":11331,"Ġglass":11332,"Ñĸ":11333,"NET":11334,"ĠMulti":11335,"iations":11336,"Ġtopology":11337,"Ġvariations":11338,"available":11339,"Ġtags":11340,"ĠWIT":11341,"ulus":11342,"Ġperspective":11343,"Binary":11344,"ĠSuppose":11345,"Unknown":11346,"ĠPhilipp":11347,"Objects":11348,"Ġlinked":11349,"ĠCoq":11350,"Ġta":11351,"antly":11352,"Private":11353,"ĠCur":11354,"Ġsquad":11355,"Ġopportunities":11356,"rapped":11357,"Ġlists":11358,"vect":11359,"bundle":11360,"Ġmoves":11361,"Ġpieces":11362,"Ġpm":11363,"Ġmuseum":11364,"Ġchoices":11365,"Ġplanned":11366,"osed":11367,"ĠWis":11368,"Ġcovering":11369,"Ġera":11370,"Ġrgba":11371,"zip":11372,"??":11373,"ĠDO":11374,"Ġlimitations":11375,"invariant":11376,"icode":11377,"calendar":11378,"Ġblog":11379,"ĠHarr":11380,"Wait":11381,"ĠDar":11382,"ĠBang":11383,"ĠDub":11384,"ĠPen":11385,"ĠWrite":11386,"Ġgeometric":11387,"ĠProfessor":11388,"|$":11389,"Ġmiles":11390,">)":11391,"ĠLim":11392,"Ġperturbation":11393,"tre":11394,"Ġlogic":11395,"Ġcovers":11396,"Ġattempts":11397,"ĠIV":11398,"Ġcontribute":11399,"ĠGovernor":11400,"åĲ":11401,"Annotation":11402,"boost":11403,"Ġwire":11404,"forEach":11405,"Ġcustomer":11406,"ĠCore":11407,"Ca":11408,"oltip":11409,"mms":11410,"Ġstatements":11411,"Ġ'';":11412,"extra":11413,"Ġwarm":11414,"Ġfrequencies":11415,"Ġconversion":11416,"ĠAT":11417,"Ġuniverse":11418,"iner":11419,"examples":11420,"Ġ×":11421,"hfill":11422,"umps":11423,"thrift":11424,"license":11425,"Ġdeviation":11426,"1959":11427,"Ġrefers":11428,"Ġreturning":11429,"socket":11430,"Ġstats":11431,"Ġcitizens":11432,"viewport":11433,"Setting":11434,"Ġcircuit":11435,"Ġthin":11436,"ĠCreek":11437,"ĠAD":11438,"Ġflows":11439,"Ġuncertainties":11440,"Folder":11441,"Ġfifth":11442,"mobile":11443,"fb":11444,"Ġsatell":11445,"Ġdeclared":11446,"=&":11447,"Constructor":11448,"iration":11449,"istant":11450,"design":11451,"Ġconcert":11452,"weak":11453,"notations":11454,"extend":11455,"Ġlab":11456,"Ġsending":11457,"ĠStudies":11458,"1948":11459,"pin":11460,"Ġ\">":11461,"ĠMic":11462,")}.":11463,"ĠColumbia":11464,"ĠHas":11465,"CAL":11466,"downarrow":11467,"lipse":11468,"Encoded":11469,"BY":11470,"aret":11471,"built":11472,"Ġdoor":11473,"icing":11474,"Raw":11475,"Ġwarning":11476,"Ġfacility":11477,"lu":11478,"subject":11479,"density":11480,"Pod":11481,"ountains":11482,"ĠSaf":11483,"Ġter":11484,"shell":11485,"mag":11486,"Ġweather":11487,"Ġhor":11488,"ĠSets":11489,"ĠCurrent":11490,"ĠAlexander":11491,"Ġphotograph":11492,"abc":11493,"Ġfilled":11494,"Ġproduces":11495,"|^{":11496,"icer":11497,"Ġbelongs":11498,"was":11499,"Ġinclusion":11500,"Ġepisodes":11501,"Ġserves":11502,"INS":11503,"ĠBC":11504,"1958":11505,"scala":11506,"Ġdecades":11507,"Ġrepository":11508,"wing":11509,"Ġburn":11510,"ĠOnce":11511,"MF":11512,"à¥":11513,"Previous":11514,"itical":11515,"Ġaccounts":11516,"\"/":11517,"facebook":11518,"Final":11519,"Ġatomic":11520,"bell":11521,"/\">":11522,"stud":11523,"Ġexecuted":11524,"ĠHong":11525,"Ġloading":11526,"iy":11527,"Tile":11528,"ĠTerm":11529,"Ġprecise":11530,"Ġuniformly":11531,"Ġcloser":11532,"vironments":11533,"ĠLore":11534,"1957":11535,"ï¼Į":11536,"Ġstrictly":11537,"Ġancient":11538,"1956":11539,"feed":11540,"Ġpipeline":11541,"West":11542,"Ant":11543,"\\!\\":11544,"Sa":11545,"Ġmarriage":11546,"HL":11547,"Ġalter":11548,"formed":11549,"ntario":11550,"bus":11551,"ĠGra":11552,"distance":11553,"wave":11554,"Ġhappened":11555,"inction":11556,")(\\":11557,"Prev":11558,"scss":11559,"Ġalongside":11560,"ARN":11561,"Ð¿":11562,"ktop":11563,"Nov":11564,"onia":11565,"ĠFourier":11566,"Ġdefense":11567,"ĠStandard":11568,"nesota":11569,"Ġvideos":11570,"Ġteacher":11571,"VD":11572,"^^":11573,"Ġsymbols":11574,"Ġdream":11575,"Ġentang":11576,"izabeth":11577,"Ġbatt":11578,"Ali":11579,"Ġ\"\",":11580,"Ġqueries":11581,"ĠCam":11582,"Ġtransferred":11583,"Ġclinical":11584,"oes":11585,"Ġpersonnel":11586,"pn":11587,"Ġspring":11588,"ĠON":11589,"Coll":11590,"jd":11591,"Ġaccret":11592,"Ġarrived":11593,"Ġelectrons":11594,"Ġeasier":11595,"ĠFOR":11596,"PD":11597,"ĠWIDTH":11598,"ĠBrook":11599,"constraint":11600,"ynamics":11601,"parts":11602,"Ġreads":11603,"Constant":11604,"ĠHard":11605,"anth":11606,"ĠCSS":11607,"Ġprivacy":11608,"ĠCEO":11609,"ĠChristmas":11610,"Ġ<-":11611,"Ġselector":11612,"Ġperman":11613,"Ġhousing":11614,"ipart":11615,"OPT":11616,"sr":11617,"arguments":11618,"Information":11619,"Microsoft":11620,"ailability":11621,"ĠGR":11622,"deprecated":11623,"ĠDom":11624,"ĠNC":11625,"uma":11626,"RED":11627,"Ġtransitions":11628,"ĠGro":11629,"Ġhouses":11630,"Ġearned":11631,"ordinate":11632,"aph":11633,"Ġconcerns":11634,"Mapper":11635,"ĠCat":11636,"ĠConserv":11637,"Ġconflict":11638,"Eval":11639,"atibility":11640,"linked":11641,"Ġing":11642,"ĠInvest":11643,"Jan":11644,"Ġsurfaces":11645,"111":11646,"Once":11647,"Ġfitting":11648,"Ġidentifier":11649,"ĠSN":11650,"ĠStruct":11651,"taining":11652,"integer":11653,"Ġunable":11654,"International":11655,"ĠEV":11656,"Ġconjug":11657,"Center":11658,"Ġindustrial":11659,"cod":11660,"#{":11661,"Ġidx":11662,"ĠLike":11663,"Ġmouse":11664,"ropol":11665,"Ġpermission":11666,"Ġcorrectly":11667,"Ġpapers":11668,"pson":11669,"Usage":11670,".$$":11671,"Ġdanger":11672,"ĠCas":11673,"ĠLook":11674,"uparrow":11675,"ĠCond":11676,"ĠPrime":11677,"ativity":11678,"commit":11679,"ains":11680,"ĠChannel":11681,"strip":11682,"ĠCloud":11683,"Ġformulation":11684,"ego":11685,"Ġmodeling":11686,"Ġpromise":11687,"ĠSH":11688,"ĠPers":11689,"elements":11690,"Ġstraightforward":11691,"eman":11692,"Ġvariant":11693,"Ġdrink":11694,"Ĥ¬":11695,"frag":11696,"Ġresidual":11697,"shal":11698,"uesday":11699,"Ġpoliticians":11700,"lm":11701,"ĠInstead":11702,"uency":11703,"learning":11704,"stage":11705,"Ġiniti":11706,"ExternalTask":11707,"Ġjs":11708,"nesday":11709,"ĠPlease":11710,"University":11711,":@\"":11712,"omatic":11713,"romagnetic":11714,"Ġdiffusion":11715,"Audio":11716,"ĠCorporation":11717,"elly":11718,"åħ":11719,"Ġattached":11720,"Ġembedded":11721,"NotFound":11722,"Ġbenchmark":11723,"reader":11724,"Ġawards":11725,"Ġfra":11726,"Compiler":11727,"ented":11728,"ĠKim":11729,"Rate":11730,"Ġtang":11731,"Ġmach":11732,"Ġprovince":11733,"Ġvarying":11734,"usr":11735,"Ġpermissions":11736,"&=&\\":11737,"Ġrespective":11738,"loading":11739,"Ġinjury":11740,"Ġmit":11741,"Ġcrucial":11742,"Ġ_,":11743,"outheast":11744,"Pack":11745,"Ġfeaturing":11746,"Ġendpoint":11747,"Ġgra":11748,"ExternalTaskPojo":11749,"Ġquadratic":11750,"rypted":11751,"Ġretired":11752,"Ġinstitutions":11753,"UST":11754,"]+":11755,"Ġkill":11756,"Ġencounter":11757,"ĠDefinition":11758,"ANG":11759,"Login":11760,"abet":11761,"bose":11762,"ceil":11763,"libs":11764,"ĠĠĠĠĠĠĠĠĠĠĠĠĠĠĠĠĠĠĠĠĠĠĠĠĠĠĠĠĠĠĠĠĠ":11765,"DOM":11766,"Ġbug":11767,"gre":11768,"tp":11769,"Ġpotentially":11770,")>":11771,"Throw":11772,"Ġextensive":11773,"disable":11774,"ĠTE":11775,"Ġfrequently":11776,"Ġanalys":11777,"1939":11778,";|&":11779,"DEF":11780,"Ġempir":11781,"spl":11782,"Ġdominant":11783,"iga":11784,"Ġcollision":11785,"_);":11786,"Ġsand":11787,"Ġsleep":11788,"oster":11789,"ĠSC":11790,"ĠJean":11791,"Where":11792,"Ġdelta":11793,"ĠRen":11794,"Ġfuel":11795,"Theme":11796,"ongo":11797,"ĠRom":11798,"Ġschedule":11799,"Ġsolving":11800,"LED":11801,"Ġhomogeneous":11802,"ixtures":11803,"Weight":11804,"rupted":11805,"Ġabsorption":11806,"'_{":11807,"Ġinvestigated":11808,"Ġ'.":11809,"ĠLater":11810,"Ġboot":11811,"anches":11812,"ĠMuslim":11813,"ĠFair":11814,"ederation":11815,"{(\\":11816,"asm":11817,"fetch":11818,"jQuery":11819,"oral":11820,"jb":11821,"ĠRights":11822,"Ġrom":11823,"Ġreverse":11824,"middle":11825,"Ġfib":11826,"}^{+":11827,"Ġreasonable":11828,"\"},":11829,"Ġpref":11830,"Ġsystematic":11831,"Complete":11832,"Ġstandards":11833,"phrase":11834,"ĠRoute":11835,"Ġproportional":11836,"Ġmm":11837,"Ġdensities":11838,"urrence":11839,"Ġclubs":11840,"directory":11841,"hd":11842,"Errors":11843,"ĠĠĠĠĠĠĠĠĠĠĠĠĠĠĠĠĠĠĠĠĠĠĠĠĠĠĠĠĠĠĠĠĠĠĠĠĠĠĠĠĠĠĠĠĠĠĠ":11844,"referred":11845,"Ġ\".":11846,"Music":11847,"âĢĿ,":11848,"'=>":11849,"ando":11850,"zo":11851,"Ġinvolves":11852,"Ġpayload":11853,"Ġcrime":11854,"Ġdecreases":11855,"intro":11856,"unders":11857,"ĠUnit":11858,"1942":11859,"agen":11860,"secutive":11861,"Ġcharacterized":11862,"ĠAbstract":11863,"Batch":11864,"Fn":11865,"Ġrequirement":11866,"leton":11867,"Own":11868,"written":11869,"<<":11870,"Ġtemporal":11871,"mapping":11872,"ĠGuard":11873,"agnostics":11874,"Pred":11875,"Ġhonor":11876,"rink":11877,"ĠChange":11878,"ĠShort":11879,"Ġhook":11880,"Ġexpectation":11881,"Ġhear":11882,"ologist":11883,"Ġsphere":11884,"Ġalgebraic":11885,"1955":11886,"Ġpolitics":11887,"Ġclip":11888,"Ġrecurs":11889,"Ġpermut":11890,"Ãº":11891,"Ġsan":11892,"ais":11893,"priv":11894,"Ġdestroyed":11895,"ĠDC":11896,"idal":11897,"Present":11898,"Ms":11899,"ĠAgain":11900,"Ġrelationships":11901,"ĠSpe":11902,"Ġletters":11903,"Ġpacket":11904,"Sports":11905,"HD":11906,")*":11907,"validation":11908,"trl":11909,"ĠOxford":11910,"ĠSche":11911,"Cursor":11912,"Ġstands":11913,"Drawing":11914,"ulner":11915,"ATCH":11916,"ativistic":11917,"ĠLay":11918,"$^{":11919,"Ġrecognized":11920,"NUM":11921,"ĠRod":11922,"cook":11923,"HERE":11924,"ĠTag":11925,"Frames":11926,"Ġgranted":11927,"ĠMonday":11928,"omer":11929,"Remote":11930,"ĠKenn":11931,"Ġpayment":11932,"ĠPerson":11933,"cassandra":11934,"AI":11935,"Ġna":11936,"Ġprompt":11937,"Ġprominent":11938,"Most":11939,"Ġsql":11940,")}(\\":11941,"StyleID":11942,"Ġcouncil":11943,"Ġanalyze":11944,"Doctrine":11945,"omics":11946,"binom":11947,"Ġvision":11948,"ĠVirtual":11949,"Ġrecip":11950,"cest":11951,"Ġdominated":11952,"ĠWARRAN":11953,"thur":11954,"ĠIllegal":11955,"altColor":11956,"orney":11957,"Vec":11958,"apore":11959,"kh":11960,"Ġprepared":11961,"ĠLoad":11962,"Ġoutputs":11963,"ONG":11964,"Ġstages":11965,"Messages":11966,"ĠWrit":11967,"NODE":11968,"ĠBon":11969,"ĠEngineering":11970,"]))":11971,"Ġknew":11972,"fmt":11973,"Bottom":11974,"ogy":11975,"Black":11976,"Ġpriority":11977,"ĠLev":11978,"Ġepoch":11979,"propto":11980,"through":11981,"Ġpanels":11982,"ERS":11983,"Ġscr":11984,"Segment":11985,"Depth":11986,"Ġanalytic":11987,"Ġsimilarly":11988,"Ġconvolution":11989,">\"":11990,"Ġfaith":11991,"dark":11992,"ĠAtl":11993,"ĠXML":11994,"Ġbriefly":11995,"ĉĉĠĠĠ":11996,"ĠLew":11997,"aneous":11998,"PHP":11999,"Star":12000,"ĠClear":12001,"ĠProt":12002,"contents":12003,"{|":12004,"touch":12005,"ĠPay":12006,"})^{":12007,"Ġpresents":12008,"uls":12009,"Ġmetall":12010,"unes":12011,"Ġsomewhat":12012,"ATED":12013,"ĠRog":12014,"Ġglob":12015,"night":12016,"Processor":12017,"Ġportrait":12018,"Ġextracted":12019,"Ġĉ":12020,"ĠBBC":12021,"Console":12022,"hot":12023,"Renderer":12024,"compute":12025,"$'":12026,"TestCase":12027,"Ġfmt":12028,"Ġmist":12029,"Ġdram":12030,"particle":12031,"*}[":12032,"SCRIPT":12033,"Binding":12034,"factor":12035,"may":12036,"Comparison":12037,"selection":12038,"forcement":12039,"raq":12040,"ĠLabor":12041,"iÃ³n":12042,"ĠKr":12043,"Drop":12044,"Ġ>>>":12045,"INST":12046,"ĠHung":12047,"Bal":12048,"Ġbra":12049,"Qual":12050,"CONT":12051,"relative":12052,"Ġstead":12053,"ĠPut":12054,"ĠÐ²":12055,"Ġelectro":12056,"Ġplate":12057,"Ġmo":12058,"WORD":12059,"Ġanchor":12060,"warn":12061,"Ġdropped":12062,"Ġkeeping":12063,"Ġimmediate":12064,"FIELD":12065,"Ġfake":12066,"Ġwaiting":12067,"Ġneutrino":12068,"lab":12069,"\\|_":12070,"ĠAlgorithm":12071,"Linear":12072,"pload":12073,")--(":12074,"wi":12075,"esides":12076,"Strategy":12077,"Ġlift":12078,"Ġfilters":12079,"GeV":12080,"glyphicon":12081,"Ġderivatives":12082,"Ġpoll":12083,"Ġidentification":12084,"ĠAsh":12085,"nob":12086,"Ġcollapse":12087,"ĠConnect":12088,"riteria":12089,"Ġpolynomials":12090,"1952":12091,"1941":12092,"ĠOS":12093,"Ġmand":12094,"Ġcancell":12095,"nc":12096,"Material":12097,"shop":12098,"Ġapplies":12099,"Ġpreced":12100,"Family":12101,"Ġplasma":12102,"merce":12103,"Ġdomains":12104,"Ġarms":12105,"ÛĮ":12106,"Following":12107,"Ġele":12108,"Ġsharing":12109,"$}}":12110,"Ġequals":12111,"Ã©e":12112,"strings":12113,"Ġcrew":12114,"Tok":12115,"ÙĦ":12116,"Ġholding":12117,"Ġwitness":12118,"Copyright":12119,"ĠBerlin":12120,"ĠDEFAULT":12121,"Ġillustrated":12122,"uon":12123,"Ġcreates":12124,"$^":12125,"ĠNever":12126,"1946":12127,"heading":12128,"delay":12129,"Ġstyles":12130,"Ġunderstood":12131,"Ã¸":12132,"Ġray":12133,"Ġig":12134,"ĠProp":12135,"Android":12136,"ĠJacob":12137,"Ġsentence":12138,"loaded":12139,"Dav":12140,"het":12141,"uffers":12142,"Ġsensor":12143,"Ġplatforms":12144,"âĢĺ":12145,"Ġextreme":12146,"links":12147,"Master":12148,"anz":12149,"Ġentertain":12150,"Ġguard":12151,"Ġorthogonal":12152,"ropical":12153,"umption":12154,"ĠAmericans":12155,"Ġgene":12156,"Ġneutral":12157,"1943":12158,"IAL":12159,"Ġ$_":12160,"assertTrue":12161,"Stud":12162,"anna":12163,"Points":12164,"NameLink":12165,"Â°":12166,"=\\{":12167,"ĠScottish":12168,"Ġreconstruction":12169,"BPACK":12170,"Ġenumer":12171,"115":12172,"Ġaccum":12173,"_{+":12174,"nm":12175,"Ġsimultaneously":12176,"ĠTrust":12177,"Ġbeautiful":12178,"expression":12179,"Ġquot":12180,"Ġperformances":12181,"ĠServer":12182,"sharp":12183,"ĠDespite":12184,"ĠĠĠĠĠĊ":12185,"ĠVill":12186,"}.}":12187,"vertex":12188,"Ġbiggest":12189,"Ġimg":12190,"Ġlooked":12191,"half":12192,"eties":12193,"Ġinvent":12194,"ĠSupreme":12195,"ationToken":12196,"ĠEU":12197,".\"\"\"":12198,"Ã¡n":12199,"Ġregression":12200,"thick":12201,"1947":12202,"Ġ$^{":12203,"140":12204,"good":12205,"Ġpot":12206,"Ġinterpol":12207,"tainment":12208,"Chain":12209,"Ġ'%":12210,"ydney":12211,"ĠStephen":12212,"Ġinn":12213,"Ġroots":12214,"ĠBeach":12215,"uz":12216,"owski":12217,"ĠML":12218,"Ġdistances":12219,"ĠFil":12220,"ĠViet":12221,"HOME":12222,"Ġsimulated":12223,"elle":12224,"Ġgrew":12225,"Ġhorizon":12226,"Ġemphas":12227,"heim":12228,"Fact":12229,"Span":12230,"hang":12231,"Ġending":12232,"porate":12233,"sis":12234,"lint":12235,"ĠDer":12236,"ĠPublished":12237,"Ġdescribing":12238,"Ġfindings":12239,"Ġcav":12240,"Ġ\\[":12241,"ĠSimilarly":12242,"Ġmanip":12243,"ENV":12244,"Ġlogging":12245,"cknowledg":12246,"ĠRemove":12247,"ĠRight":12248,"verb":12249,"ĠQuery":12250,"Rows":12251,"Ġdecor":12252,"Ġmaybe":12253,"Ġboundaries":12254,"Ġdance":12255,"112":12256,"Ġdriven":12257,"Ġ{%":12258,"Ġresulted":12259,"ennes":12260,"dm":12261,"UND":12262,"ĠCorps":12263,"Ġmigr":12264,"Ġinitialize":12265,"blob":12266,"Export":12267,"adelphia":12268,"ste":12269,"perature":12270,"360":12271,"Ġranges":12272,"anti":12273,"UC":12274,"ĠFinal":12275,"mutable":12276,"Comput":12277,"jackson":12278,"etherlands":12279,"Ġirreducible":12280,"Permission":12281,"Ġapart":12282,"Ġignored":12283,"ĠConfiguration":12284,"Static":12285,"AUT":12286,"Ġathlet":12287,"Ġschemes":12288,"Ã©s":12289,"bounds":12290,"ĠRecord":12291,"Groups":12292,"Ġhardware":12293,"Ġpion":12294,"Ġscheduled":12295,"encode":12296,"Ġconservation":12297,"Ġsud":12298,"ĠTurn":12299,"iÄĩ":12300,"Ġsubspace":12301,"Ġnaturally":12302,"1954":12303,"Coin":12304,"ĠPC":12305,"measure":12306,"ĠTok":12307,"Ġextensions":12308,"TRY":12309,"Ġedit":12310,"ĠOs":12311,"1949":12312,"Ġrecommended":12313,"Standard":12314,"rules":12315,"canvas":12316,"Ġbed":12317,"á»":12318,"Ġurban":12319,"Ġcontinuum":12320,"scriptscriptstyle":12321,"outs":12322,"Association":12323,"Ġreward":12324,"ĠSimple":12325,"Ġmys":12326,"Ġsubjects":12327,"Capt":12328,"Ġhockey":12329,"}$\\":12330,"Ġoutcome":12331,"ĠAlb":12332,"Ġorbital":12333,"}/\\":12334,"Ġbow":12335,"]=":12336,"elian":12337,"$\\\\":12338,"ivari":12339,"Ġuniqu":12340,"overning":12341,"Ġtables":12342,"Ġpatch":12343,"previous":12344,"Ġagric":12345,"okes":12346,"Ġhop":12347,"Ġpartnership":12348,"ĠIslands":12349,"inds":12350,")&":12351,"ibraries":12352,"Ġintegers":12353,"Ġtick":12354,"Ġvent":12355,"Addr":12356,"Based":12357,"Ġreceiver":12358,"binding":12359,"Ġatom":12360,"forming":12361,"Ġpublication":12362,"Ġcommittee":12363,"Ġsin":12364,"ĠBan":12365,"Ġrandomly":12366,"pages":12367,"Ġfits":12368,"itled":12369,"1953":12370,"Ġbaseball":12371,"incre":12372,"ĠMarket":12373,"Ġdefining":12374,"Ġresponses":12375,"ĠRow":12376,"foreach":12377,"ĠVictoria":12378,"remote":12379,"Ġliquid":12380,"Mo":12381,"Ïĥ":12382,"ceptor":12383,"Future":12384,"tip":12385,"agma":12386,"Ġcas":12387,"abric":12388,"ques":12389,"Ġstronger":12390,"Ġfiber":12391,"Random":12392,"Ġadvers":12393,"ĠInf":12394,"FUN":12395,"MMARY":12396,"Ġtitles":12397,"uy":12398,"ĠTam":12399,"ĠHun":12400,"Watch":12401,"ĠLic":12402,"\\}_{":12403,"Ġaug":12404,"native":12405,"Ġviolence":12406,"Ġliber":12407,"ĠPython":12408,"cribed":12409,"Ġauthority":12410,"fff":12411,"Ġseek":12412,"Ben":12413,"Bounds":12414,"don":12415,"Ġexperiences":12416,"pkg":12417,"PG":12418,"ibilities":12419,"Ġdecisions":12420,"ĠVideo":12421,"Ġcontrovers":12422,"Ġ\"%":12423,"Ġweighted":12424,"Ġnarr":12425,"cue":12426,"Ġassignment":12427,"ĠPolish":12428,"regon":12429,"Ġkick":12430,"upper":12431,"binary":12432,"Ġfootballer":12433,"Ġstores":12434,"Ġpercentage":12435,"Ġfell":12436,"ĠSat":12437,"osophy":12438,"Ġtrip":12439,"ĠLow":12440,"hal":12441,"Ġdispersion":12442,"liance":12443,"Ġunivers":12444,"Also":12445,"ĠAvenue":12446,"Ġconsumer":12447,"Ġtroops":12448,"ĠPA":12449,"Ġrecovery":12450,"ĠAnth":12451,"ĠMinnesota":12452,"antry":12453,"ipher":12454,"Ġexcited":12455,"Deprecated":12456,"Ġresolved":12457,"ermi":12458,"ĠThursday":12459,"ĠDue":12460,"ĠConvert":12461,"ĠThrough":12462,"chant":12463,".*;":12464,"acon":12465,"jax":12466,"swing":12467,"Ġexcellent":12468,"Ġmacro":12469,"Ġbelief":12470,"ICATION":12471,"Ġimplied":12472,"Ġproto":12473,"Ġadvoc":12474,"ACH":12475,"Ġscholar":12476,"Axis":12477,"alias":12478,"ensitive":12479,"Ġsilver":12480,"Convert":12481,"British":12482,"Ġdelivery":12483,"ĠBefore":12484,"Ġcollaboration":12485,"DIS":12486,"aintenance":12487,"Ġperiods":12488,"Drag":12489,"Ġeastern":12490,"ĠUV":12491,"Ġresearchers":12492,"ASSERT":12493,"Please":12494,"Ġmechanisms":12495,"consin":12496,"Ġ----------------------------------------------------------------":12497,"ĠAirport":12498,"Ġtransverse":12499,"Resolver":12500,"Asset":12501,">()":12502,"Ġhandling":12503,"Ġpeer":12504,"vendor":12505,"Ġcompre":12506,"ĠRailway":12507,"pture":12508,"Nullable":12509,"Ġsoldiers":12510,"ĠGrant":12511,"6666":12512,"Just":12513,"metic":12514,"VAR":12515,"compar":12516,"Ġpartially":12517,"HEAD":12518,"nolimits":12519,"generator":12520,"bug":12521,"zech":12522,"uuid":12523,"ĠFox":12524,"former":12525,"Ġmanage":12526,"cfg":12527,"ĠLagrangian":12528,"Ġtransformations":12529,"ociated":12530,"Timer":12531,"amond":12532,"Ġminute":12533,"ĠVen":12534,"Ġclosure":12535,"Ġapproved":12536,"hedral":12537,"Ġ\\{\\":12538,"Ġcorrelations":12539,"Ġresistance":12540,"physical":12541,"fluid":12542,"character":12543,",.":12544,"102":12545,"ĠPakistan":12546,"sha":12547,"tb":12548,"\\},":12549,"ĠSom":12550,"WI":12551,"Ġconsecutive":12552,"news":12553,"Ġ{},":12554,"ĠNative":12555,"Ġsurg":12556,"keep":12557,"ĠCub":12558,"âĢ¢":12559,"elines":12560,"ĠBoy":12561,"Sources":12562,"ArrayList":12563,"rep":12564,"azy":12565,"Ġinfrastructure":12566,"Party":12567,"lywood":12568,"surface":12569,"getId":12570,"ĠTy":12571,"perimental":12572,"Ġ'',":12573,"ĉĠĠĠĠ":12574,"Ġconventional":12575,"erred":12576,"toBe":12577,"worth":12578,"Ġsync":12579,"mathit":12580,"Ġprices":12581,"mad":12582,"ĠFull":12583,"Ġwonder":12584,"Encoding":12585,"uclide":12586,"Pres":12587,"äº":12588,"........":12589,"izers":12590,"columns":12591,"Ġbodies":12592,"Ġdiscover":12593,"midrule":12594,"(()":12595,"ÙĨ":12596,"Ġdiagrams":12597,"Ġcouldn":12598,"ĉĉĉĉĉĉĉĉĉĉ":12599,"Ġlikelihood":12600,"Ġensemble":12601,"Ġmyst":12602,"Ġblow":12603,"irth":12604,"folder":12605,"Ġ\\|\\":12606,"ĠMock":12607,"ensing":12608,"Ġease":12609,"ĠHo":12610,"ä½":12611,"Ġcompliance":12612,"ĠToronto":12613,"Ġalpha":12614,"ĠPlaces":12615,"Ġpopulations":12616,"105":12617,"Ġgender":12618,"Ġencoded":12619,"DY":12620,"1951":12621,"Ïģ":12622,"alink":12623,"CONFIG":12624,"ĠBE":12625,"Ġratios":12626,"Ġhers":12627,"stackrel":12628,"]^":12629,"Ġsale":12630,"Abs":12631,"Ġcab":12632,"ĠContent":12633,"Ġassistant":12634,"Ġnewspaper":12635,"Ġspons":12636,"Fix":12637,"ĠLanguage":12638,"ĠCorollary":12639,"ĠElizabeth":12640,"Ġentr":12641,"ĠPromise":12642,"ĠRos":12643,"Diff":12644,"ĠAuto":12645,"Ġaux":12646,"ĠOutput":12647,"Rot":12648,"zona":12649,"DEX":12650,"Holder":12651,"}^+":12652,"Ġped":12653,"Ġtokens":12654,"?\"":12655,"ouri":12656,"esis":12657,"iemann":12658,"RUN":12659,"pad":12660,"Mac":12661,"Ġestate":12662,"lr":12663,"Ġcoal":12664,"independent":12665,"Ġdepos":12666,"multline":12667,"ĠVALIGN":12668,"Separ":12669,"Ġrobot":12670,"Particip":12671,">%":12672,"nos":12673,"(['":12674,"NV":12675,"ĠBelg":12676,"Ġmoder":12677,"Ġcertainly":12678,"Tube":12679,"ĠKorean":12680,"Ġauthorities":12681,"ĠLat":12682,"Ġhabit":12683,"Ġdoll":12684,"speed":12685,"Ġpasses":12686,"Ġpurchase":12687,"ssl":12688,"Ġexports":12689,"ĠPa":12690,"Ġneither":12691,"Runner":12692,"Ġstuff":12693,"ĠArgent":12694,"FM":12695,"textup":12696,"fall":12697,"ĠSTART":12698,"Ġcosmological":12699,"plings":12700,"ĠMC":12701,"Ġhybrid":12702,"inton":12703,"Bbb":12704,"Ġtrunc":12705,"Shared":12706,"ĠBooks":12707,"Ġcomparable":12708,"Ġaccretion":12709,"Ġclim":12710,"Compat":12711,"emit":12712,"audio":12713,"Ġminister":12714,"distribution":12715,"Loop":12716,"Ġyellow":12717,"gray":12718,"Ġteaching":12719,"leqslant":12720,"owa":12721,"ulo":12722,"Ġwhenever":12723,"ĠStream":12724,"ctree":12725,"Ġtd":12726,"Ġneutron":12727,"odo":12728,"ships":12729,"ĠOntario":12730,"mitter":12731,"Touch":12732,"Ra":12733,"ĠFix":12734,"between":12735,"ĠNick":12736,"leftarrow":12737,"wik":12738,"Ġtrajectory":12739,"fp":12740,"uclidean":12741,"Ġslope":12742,"Ġhistoric":12743,"Ġcrisis":12744,"Ġ~\\":12745,"Ġreplacing":12746,"Ġpractices":12747,"{.":12748,"Ġmountain":12749,"textnormal":12750,"Ġphotos":12751,"Ġthousands":12752,"Mc":12753,"iso":12754,"Ġthinking":12755,"Cmd":12756,"Ġanimal":12757,"Ġfunctor":12758,"Ġsole":12759,"213":12760,"WEBPACK":12761,"bourne":12762,"unlock":12763,"VICE":12764,"irk":12765,"ĠclassName":12766,"jk":12767,"calcul":12768,"Ġresonance":12769,"Ġassets":12770,"Ġformul":12771,"evin":12772,"enna":12773,"problem":12774,"Ġcapable":12775,"Austral":12776,"ĠFuture":12777,"ĠSteve":12778,"Ġbold":12779,"ASE":12780,"Contents":12781,"BUIL":12782,"His":12783,"Ġclassic":12784,"Ġmunicipality":12785,"archive":12786,"ĠFish":12787,"Ġdiscovery":12788,"Ġinduction":12789,"ĠSong":12790,"Bel":12791,"Ġly":12792,"Analysis":12793,"party":12794,"ĠClasses":12795,"Ġfacilit":12796,"ĠSon":12797,"ĠSanta":12798,"Ġhair":12799,"ĠChen":12800,"estab":12801,"topic":12802,"Self":12803,"ĠSUMMARY":12804,"ĠTransport":12805,"Rob":12806,"555":12807,"Ġsocket":12808,"Ġcomplicated":12809,"Ġcomparing":12810,"Ġhosted":12811,"ĠDouble":12812,"sequences":12813,"ĠBol":12814,"Ġproducing":12815,"isen":12816,"ĠThread":12817,"ĠJson":12818,"Ġskin":12819,"hire":12820,"gif":12821,"Ġgone":12822,"LY":12823,"ĠCountry":12824,"******":12825,"ĠPublish":12826,"Ġsolved":12827,"ĠFood":12828,"apple":12829,"Split":12830,"ortion":12831,"South":12832,"ĠPos":12833,"Ġspectro":12834,"Ġconvenient":12835,"Extensions":12836,"Library":12837,"ĠResults":12838,"ĠFac":12839,"Ġisolated":12840,"Prof":12841,"ĠCost":12842,"oi":12843,"atever":12844,"ĠGer":12845,"ails":12846,"linux":12847,"Ġcompiler":12848,"Ġinflation":12849,"Ġbond":12850,"Ġrapidly":12851,"Ġvice":12852,"Ġdiscussions":12853,"Ġleaf":12854,"ika":12855,"craft":12856,"\">(":12857,"Ġ--></":12858,"Ġseeing":12859,"Ty":12860,"remarks":12861,"Ġdefect":12862,"ĠStadium":12863,"ĠRome":12864,"bors":12865,"prom":12866,"oor":12867,"Ġpromoted":12868,"ĠResult":12869,"å¤":12870,"ĠAnton":12871,"respect":12872,"Ġsegments":12873,"ĠMarg":12874,"Ġrural":12875,"IMPORTED":12876,"Ð·":12877,"Alloc":12878,"ĠNations":12879,"Ġmel":12880,"StringBuilder":12881,"ĠDigital":12882,"Ġcommitted":12883,"Ġdiagn":12884,"Ġvisited":12885,"ĠStock":12886,"mix":12887,"\"|":12888,"ĠRaj":12889,"Ġproposal":12890,"aked":12891,"Ġchallenging":12892,"utenant":12893,"Ġgirls":12894,"Ġvess":12895,"ĠRegiment":12896,"acer":12897,"ĠAk":12898,"ĠMedicine":12899,"ĠContext":12900,"WIN":12901,">;":12902,"lix":12903,"poly":12904,"Metrics":12905,"licenses":12906,"ortheast":12907,"Ġdip":12908,"Ġagency":12909,"aska":12910,"Uses":12911,"Ġprogramme":12912,"ĠEth":12913,"adv":12914,"Ġnotable":12915,"Ġcampus":12916,"Ġoffering":12917,"}[!":12918,"ydro":12919,"Ġà¤":12920,"neut":12921,"Ġsimplicity":12922,"correspond":12923,"tm":12924,"Ġcyl":12925,"Ġfold":12926,"Ġappearances":12927,"Ġproton":12928,"Ġguess":12929,"Ġultimately":12930,"Ġaw":12931,"udi":12932,"æķ":12933,"Ġstrip":12934,"ĠHilbert":12935,"Zone":12936,"offs":12937,"ĠOlympic":12938,"512":12939,"RS":12940,"TY":12941,"iliary":12942,"varrho":12943,"Ġconditional":12944,"Tax":12945,"ĠMcC":12946,"TableRow":12947,"yard":12948,"agg":12949,"ĠMS":12950,"east":12951,"FFER":12952,"mac":12953,"Ġcounts":12954,"EP":12955,"ĠÂ©":12956,"[]{":12957,"CV":12958,"Ġexposure":12959,"Ġopinion":12960,"BT":12961,"ĠSydney":12962,"Ġsigns":12963,"ATTR":12964,"smallskip":12965,"ĠAI":12966,"Ġpackages":12967,"ĠStaff":12968,"opam":12969,"Ġproposition":12970,"iors":12971,"Ġstorm":12972,"rpc":12973,"Ġinference":12974,"Ġadministrative":12975,"hensive":12976,"Ġment":12977,"sz":12978,"Signature":12979,"Ġstabil":12980,"1024":12981,"rame":12982,"ĠSus":12983,"spaces":12984,"ubb":12985,"ĠPrize":12986,"optim":12987,"ruption":12988,"Ġpeace":12989,"Promise":12990,"itudes":12991,"itories":12992,"Ġsolo":12993,"iti":12994,"Cent":12995,"Win":12996,"ĠOCaml":12997,"ĠTree":12998,"processing":12999,"pd":13000,"fav":13001,"Ġreplacement":13002,"Ġhappy":13003,"Ġlosses":13004,"statsmodels":13005,"Ġutility":13006,"three":13007,"ookie":13008,"Accept":13009,"Ġkids":13010,"Timestamp":13011,"Mult":13012,"Ġpromote":13013,"\\}.":13014,"ĠEP":13015,"itecture":13016,"Ġvotes":13017,"fake":13018,"ĠNAS":13019,"iliar":13020,"proc":13021,"ĠÑģ":13022,"_{-\\":13023,"Ð°ÑĤ":13024,"1936":13025,"Ġchapter":13026,"Bool":13027,"Na":13028,"è¯":13029,"Tele":13030,"ĠAdam":13031,"ĠReference":13032,">'":13033,"Ġchunk":13034,"Ġplaceholder":13035,"Ġenvironments":13036,"ĠLtd":13037,"Ġadvent":13038,"eral":13039,"awesome":13040,"Ġgained":13041,"share":13042,"Ġdefend":13043,"Ġkinetic":13044,")_{\\":13045,"Power":13046,"adoc":13047,"Ġprofession":13048,"Plot":13049,"Ġcircular":13050,"cerning":13051,"Ġlosing":13052,"}},\\":13053,"Ġhumans":13054,"Ġalias":13055,"Ġshares":13056,"Ġtracking":13057,"Ġrotate":13058,"opher":13059,"Ġaffili":13060,"Columns":13061,"syn":13062,"inite":13063,"Ġgoverning":13064,"!(":13065,"ĠAdditionally":13066,"fortunately":13067,"ĠTuesday":13068,"Ġmental":13069,"Ġvot":13070,"ĠNetherlands":13071,"ASK":13072,"ĠDelete":13073,"perial":13074,"Ġofficially":13075,"logging":13076,"ĠWednesday":13077,"ĠPrint":13078,"STATUS":13079,"Ġsurve":13080,"ĠDoug":13081,"ĠSever":13082,"uts":13083,"ĠBall":13084,"Observ":13085,"Ġwalls":13086,"Ġoperate":13087,"rollers":13088,"Ġarrang":13089,"acher":13090,"ordon":13091,"ĠHou":13092,"}{*}{$":13093,"Ġintervals":13094,"tl":13095,"ĠBru":13096,"Same":13097,"icious":13098,"ilevel":13099,"Proposition":13100,":'":13101,"akh":13102,"ounded":13103,"Ġstructural":13104,"Ġcod":13105,"LIST":13106,"interval":13107,"Ġraces":13108,"aui":13109,"LETE":13110,"Ġyounger":13111,"uent":13112,"bone":13113,"ĠIraq":13114,"Ġwinter":13115,"Models":13116,"Ã¥":13117,"Ġdisorder":13118,"ĠBox":13119,"ĠDa":13120,"Ġstopped":13121,"Ġrevers":13122,"isition":13123,"ĠForest":13124,"ounce":13125,"patcher":13126,"Ġfavour":13127,",...,":13128,"Ġaid":13129,"otional":13130,"Expected":13131,"cv":13132,"Kit":13133,"cov":13134,"ĠDor":13135,"atched":13136,"116":13137,"wallet":13138,"ĠHor":13139,"ĠRO":13140,"Been":13141,"team":13142,"ccc":13143,"Ġprepare":13144,"ĠSP":13145,"=%":13146,"subequations":13147,"Ġstationary":13148,"defn":13149,"ĠKal":13150,"Ġcrossing":13151,"Ġhal":13152,"quarters":13153,"Ġdisap":13154,"larg":13155,"Ġds":13156,"Ġnice":13157,"Ġaccessible":13158,"season":13159,"ĠLes":13160,"Ġfolder":13161,"ante":13162,"Analy":13163,"ĠTai":13164,"NP":13165,"Ġcontemporary":13166,"Ġmarkets":13167,"ĠSab":13168,"Cancel":13169,"Ġwins":13170,"amount":13171,"ĠPDF":13172,"Ġneighbour":13173,"ĠAnalysis":13174,"createElement":13175,"ĠSingapore":13176,"Ġworst":13177,"uable":13178,"aco":13179,"rog":13180,"ĠToday":13181,"Ġcontest":13182,"you":13183,"ĠWars":13184,"BD":13185,"('<":13186,"Ġoccasion":13187,"Missing":13188,"pid":13189,"Ġexhibit":13190,"Ġpossess":13191,"ĠStory":13192,"ĠCy":13193,"Ġintent":13194,"Ġfetch":13195,"Ġdisable":13196,"engers":13197,"Ġuri":13198,"ĠAC":13199,"maps":13200,"ARD":13201,"repeat":13202,"Ġaria":13203,"ellij":13204,"rtl":13205,"ificial":13206,"ĠChildren":13207,"Ġrejected":13208,"Ġtechnologies":13209,")\",":13210,"ĠHom":13211,"})=\\":13212,"Ġ\\}":13213,"transport":13214,"ĠDavis":13215,"ĠOperation":13216,"Ġcb":13217,"Virtual":13218,"ained":13219,"Ġpreferred":13220,"Ġsmallest":13221,"ĠOregon":13222,"odge":13223,"ãĢĤ":13224,"ocom":13225,"Personal":13226,"ĠTool":13227,"1938":13228,"Ġrecru":13229,"Ġgenerators":13230,"charge":13231,"ÐµÑĢ":13232,"ĠWisconsin":13233,"Ġfermion":13234,"ĠLem":13235,"Ġvirt":13236,"ĠSurvey":13237,"Rout":13238,"amazonaws":13239,"Ġsevere":13240,"ĠParse":13241,"uble":13242,"Ġfighting":13243,"Ġiron":13244,"Ġsparse":13245,"Ġgar":13246,"DATE":13247,"Ġannounce":13248,"metric":13249,"best":13250,"ĠKnow":13251,"flux":13252,"Did":13253,"ĠHay":13254,"Ġsimilarity":13255,"Counter":13256,"both":13257,"Ġactivation":13258,"Ġherself":13259,"Ġholes":13260,"Ġexperienced":13261,"BIT":13262,"Ġmail":13263,"ĠGreg":13264,"Switch":13265,"Why":13266,"Ġindependently":13267,"timestamp":13268,"Ġsupposed":13269,"collect":13270,"GM":13271,"django":13272,"Ġoverflow":13273,"intellij":13274,"ĠHal":13275,"Ġviewed":13276,"Quant":13277,"GT":13278,"Ġwinners":13279,"Converter":13280,"googleapis":13281,"UBLIC":13282,"Ġarts":13283,"Ġguest":13284,"Observer":13285,"Ġinherit":13286,"hole":13287,"ĠSto":13288,"cow":13289,"ĠDark":13290,"ĠMO":13291,"(.":13292,"asp":13293,"ĠLady":13294,"Ġfaces":13295,"bigcup":13296,"days":13297,"Ġliteral":13298,"Ġworker":13299,"ĠSky":13300,"Ġreducing":13301,"Ãł":13302,")}$.":13303,"Idx":13304,"Ġestimator":13305,"Ġcle":13306,"ĠTer":13307,"RAY":13308,"ĠBra":13309,"/*!":13310,"UV":13311,"FOR":13312,"Ġfs":13313,"Ġcs":13314,"Her":13315,"ĠElect":13316,"Ġpresentation":13317,"opsis":13318,"irms":13319,"peror":13320,"Ġheter":13321,"Ġpointed":13322,"cost":13323,"Ġmort":13324,"Ġopposed":13325,"Ġeigenvalue":13326,"Ġinvert":13327,"ĠEqs":13328,"Cref":13329,"Ġscoring":13330,"ĠWhy":13331,"ania":13332,"Bridge":13333,"rob":13334,"Ġadapted":13335,"$\\,":13336,"uniform":13337,"Arguments":13338,"ĠMonte":13339,"uits":13340,"Ġadds":13341,"Ġdelivered":13342,"Ġhide":13343,"Detector":13344,"_{[":13345,"Ġpurchased":13346,"via":13347,"ĠRevolution":13348,"covery":13349,"1918":13350,"Ġalignment":13351,"Ġconcerned":13352,"Ġalgebras":13353,"Ġdates":13354,"Ġfiled":13355,"Organ":13356,"below":13357,"Ġreconstruct":13358,"Site":13359,"oxy":13360,"Bad":13361,"Direction":13362,"stances":13363,"1937":13364,"dn":13365,"Ġphotons":13366,"aus":13367,"ĠâĢ¢":13368,"Ġfavorite":13369,"ĠMean":13370,"Failure":13371,"Ġangles":13372,"Ġnegot":13373,"ĠPhiladelphia":13374,"Ġjourney":13375,"ĠCambridge":13376,"Mr":13377,"Ġswe":13378,"ĠMethods":13379,"lot":13380,"anga":13381,"Ġclassified":13382,"Ġfeas":13383,"Ġiterations":13384,"Ġisomorphic":13385,"Ġwing":13386,"Every":13387,"Ġmorphism":13388,"Ġtimestamp":13389,"ĠColorado":13390,"cou":13391,"Ġsi":13392,"cluding":13393,"Ġsupplied":13394,"asty":13395,"ĠAddress":13396,"TAG":13397,"Reset":13398,"ighth":13399,"Ġtopics":13400,"Ġlegend":13401,"ĠJordan":13402,"door":13403,"Ġmarketing":13404,"imp":13405,"given":13406,"ĠCorn":13407,"KS":13408,"runner":13409,"Literal":13410,"ĠAnderson":13411,"asters":13412,"ambig":13413,"pref":13414,"cycle":13415,"ĠDNA":13416,"ĠProduct":13417,"gets":13418,"TIES":13419,"Ġsuspect":13420,"fragment":13421,"valued":13422,"ĠIter":13423,"medium":13424,"Optional":13425,"Authentication":13426,"ĠGolden":13427,"cancel":13428,"iley":13429,"Ġfaculty":13430,"tright":13431,"Ġmatched":13432,"Ġscul":13433,"Old":13434,"Ġyards":13435,"Ġnan":13436,"antasy":13437,"Camera":13438,"Ġranked":13439,"Ġappearing":13440,"Dynamic":13441,"ntil":13442,"CALL":13443,"Ġfounder":13444,"Ġneur":13445,"Ġstudying":13446,"Green":13447,"Ġlect":13448,"Ġdistinguish":13449,"Ġbars":13450,"uplicate":13451,"Ġhotel":13452,"Locale":13453,"emet":13454,"ĉĉĉĉĊ":13455,"GEN":13456,"week":13457,"ributions":13458,"Ġabandon":13459,"WH":13460,"Ġpseudo":13461,"================================================================":13462,"porter":13463,"Extra":13464,"omorphisms":13465,"Ġdry":13466,"ĠDam":13467,"Ġcro":13468,"Ġamounts":13469,"ĠStore":13470,"Ġpropagation":13471,"Ġwindows":13472,"Ġprobe":13473,"License":13474,"ĠTal":13475,"################################":13476,"ĠSend":13477,"(\"%":13478,"IZ":13479,"Ġ(%":13480,"dam":13481,"ĠEll":13482,"Ġtack":13483,"phony":13484,"LEMENT":13485,"Ġfear":13486,"pic":13487,"uda":13488,"Pat":13489,"ospit":13490,"iline":13491,"________":13492,"ĠCreates":13493,"Ġposted":13494,"Ġwa":13495,"Ġdiverse":13496,"lined":13497,"kk":13498,"ĠWinter":13499,"Verify":13500,"Ġquas":13501,"Integ":13502,"Ġscenes":13503,"velope":13504,"getInstance":13505,"ĠEquation":13506,"ĠFord":13507,"ĠĠĠĠĠĠĠĠĠĠĠĠĠĠĠĠĠĠĠĠĠĠĠĠĠĠĠĠĠĠĠĠĠĠ":13508,"Ġwealth":13509,"ĠEditor":13510,"DTD":13511,"Oct":13512,"wbr":13513,"otten":13514,"aten":13515,"className":13516,"104":13517,"Ġhouseholds":13518,"resolution":13519,"\\[\\":13520,"Your":13521,"ATOR":13522,"Ġsumm":13523,"Christ":13524,"lyn":13525,"ĠOpt":13526,"encoding":13527,"ssue":13528,"Series":13529,"ĠCS":13530,"flush":13531,"Ġcycles":13532,"brane":13533,"Ġsubstantial":13534,"Ġmesh":13535,"pheric":13536,"Ġroutes":13537,"ĠCov":13538,"ĠVi":13539,"Ġelimin":13540,"weg":13541,"Ġturbul":13542,"Ġvulner":13543,"Contains":13544,"}))":13545,"Ġchampion":13546,"Ġslice":13547,"angles":13548,"UEST":13549,"toctree":13550,"Ġimpossible":13551,"Ġkid":13552,"Ġprobabilities":13553,"Ġsituations":13554,"inch":13555,"heets":13556,"ĠPremier":13557,"Ġcomfort":13558,"ĠRad":13559,"ĠColumn":13560,"getString":13561,"Ġentities":13562,"Ġdrivers":13563,"Ġstone":13564,"Fixed":13565,"compact":13566,"Ġdiameter":13567,"identity":13568,"ĠIndones":13569,"Ġgreatest":13570,"ĠQueens":13571,"Ġ&#":13572,"Ġdecade":13573,"ctors":13574,"Ġappreci":13575,"PROC":13576,"Inf":13577,"Ġordering":13578,"Ġiget":13579,"Tex":13580,"pointer":13581,"^+$":13582,"Ġwx":13583,"Ġguarantee":13584,"Enable":13585,"Ġmusicians":13586,"Ġspherical":13587,"Ġrenew":13588,"rient":13589,"Ġposterior":13590,"decode":13591,"Ġunitary":13592,"Ġterritory":13593,"Stub":13594,"Ġlabeled":13595,"ĠĠĠĠĠĠĠĠĠĠĠĠĠĠĠĠĠĠĠĠĠĠĠĠĠĠĠĠĠĠĠĠĠĠĠĠĠ":13596,"Geometry":13597,"uscript":13598,"Ġtuple":13599,"ĠHart":13600,"Ġdoctor":13601,"fac":13602,"ĠKE":13603,"Ġcompens":13604,"Ġconnecting":13605,"Ġconverges":13606,"Ġtemple":13607,"cursor":13608,"ĠDuke":13609,"LICENSE":13610,"ista":13611,"kern":13612,"orer":13613,"ĠWARRANTIES":13614,"Bro":13615,"andy":13616,"Numer":13617,"San":13618,"Ġban":13619,"UNT":13620,"Will":13621,"Exists":13622,"gems":13623,"è¿":13624,">[":13625,"igner":13626,"oda":13627,"COMM":13628,"anim":13629,"ARG":13630,"Ġhits":13631,"tv":13632,"ĠEric":13633,"ĠWel":13634,"Ġyourself":13635,"Ġenables":13636,"rig":13637,"BH":13638,"Ġspend":13639,"Har":13640,"Recall":13641,"LAY":13642,"Ġjudge":13643,"ĠBrad":13644,"TOM":13645,"Primary":13646,"trightarrow":13647,"ĠAmong":13648,"ĠCNN":13649,"Ġlaser":13650,"rell":13651,"Ġseparately":13652,"country":13653,"history":13654,"aware":13655,"Ġconcrete":13656,"Ġ\"${":13657,"Packet":13658,"Ġlegisl":13659,"Ġhosts":13660,"LD":13661,"ĠPack":13662,"pend":13663,"SPAN":13664,"ĠHop":13665,"1919":13666,"Ġintelligence":13667,"Delay":13668,"Tasks":13669,"Ġgoto":13670,"phan":13671,"approxim":13672,"Ġrepeat":13673,"Ġordinary":13674,"faster":13675,"ĠÐ½":13676,"Ġchecks":13677,"React":13678,"ratio":13679,"ĠKansas":13680,"imination":13681,"kov":13682,"Ġconsumption":13683,"citealt":13684,"ĠGraph":13685,"pragma":13686,"Ġlogarith":13687,"Ġoverlap":13688,"Super":13689,"Ġspeaking":13690,"Ġforecast":13691,"BOOL":13692,"Ġdefeat":13693,"Ġthrown":13694,"Ġshadow":13695,"Through":13696,"Ġdictionary":13697,"Ġ{$\\":13698,"Ùħ":13699,"Ġclone":13700,"----------":13701,"Ġplots":13702,"ĠDA":13703,"Der":13704,"ĠGallery":13705,"hill":13706,"Partition":13707,"uming":13708,"ĠHarry":13709,"REE":13710,"Ġmanifest":13711,"Warn":13712,"sdk":13713,"Ġcached":13714,"Vol":13715,"åĬ":13716,"except":13717,"ĠDOM":13718,"Ġhelping":13719,"Ġempirical":13720,"118":13721,"220":13722,"Ġrealized":13723,"Ġdst":13724,"Ġcausing":13725,"determ":13726,"gar":13727,"RESU":13728,"Ġcomposer":13729,"1900":13730,"ĠShould":13731,"ĠPoisson":13732,"Ġreaching":13733,"Ġhomes":13734,"Ġdependency":13735,"Ġequipped":13736,"Ġdecreasing":13737,"Ġmerged":13738,"oli":13739,"Price":13740,"Ġusername":13741,"Ġaugment":13742,"getType":13743,"placement":13744,"ĠAGN":13745,")}$,":13746,"IMIT":13747,"=-=-":13748,"Ġknows":13749,"ĠNFL":13750,"Ġsubsection":13751,"Ġreflection":13752,"oids":13753,"Ġplotted":13754,"Ġslot":13755,"maxcdn":13756,"Ġtexture":13757,"cop":13758,"above":13759,"unny":13760,">(<":13761,"}<":13762,"zi":13763,"Pe":13764,"correct":13765,"agues":13766,"ĠBuilding":13767,"Ġrestrictions":13768,"Ġperforms":13769,"Ġvolt":13770,"ĠMir":13771,"ĠBuffer":13772,"Upload":13773,"Ġsheet":13774,"ĠĠĠĠĠĠĠĠĠĠĠĠĠĠĠĠĠĠĠĠĠĠĠĠĠĠĠĠĠĠĠĠĠĠĠĠ":13775,"Ġcopyright":13776,"Instruction":13777,"Si":13778,"Ġexpensive":13779,"_)":13780,"Month":13781,"references":13782,"ĠBuilder":13783,"Like":13784,"ivals":13785,"ĠAccount":13786,"orted":13787,"Ġfly":13788,"Ġchiral":13789,"Place":13790,"Ġcriter":13791,"ĠMiller":13792,"Aug":13793,"etary":13794,"Ġaccompl":13795,"Ġinterests":13796,"Ok":13797,"Ġsharp":13798,"ugging":13799,"Ġanisot":13800,"Bigg":13801,"Ġvort":13802,"Management":13803,"Ġarrested":13804,"datetime":13805,"ĠBY":13806,"ownt":13807,"Week":13808,"Ġqualified":13809,"Ġnearest":13810,"sass":13811,"undles":13812,"mathtt":13813,"Ġcellspacing":13814,"Ġenhanced":13815,"Ġ|=":13816,"Ġoutcomes":13817,"Ġcellpadding":13818,"Constraints":13819,"OutputStream":13820,"gls":13821,"SSION":13822,"}})$":13823,"Zero":13824,"}\",":13825,"ntz":13826,"Ġchose":13827,"1935":13828,"135":13829,"Available":13830,"rv":13831,"ĠFellow":13832,"ĠTa":13833,"Ġdecide":13834,"FALSE":13835,"Ġspacetime":13836,"prises":13837,"Ġsuffered":13838,"ĠWat":13839,"Ġparsed":13840,"LOW":13841,"UCT":13842,"Furthermore":13843,"Ġterror":13844,"members":13845,"riers":13846,"een":13847,"ĠForeign":13848,"ints":13849,"ĠOt":13850,"Ġvm":13851,"kernel":13852,"ĠTOP":13853,"Ġmonitoring":13854,"Ġrenamed":13855,"ĠModal":13856,"ido":13857,"conditions":13858,"TM":13859,"Errorf":13860,"ĠNaz":13861,"IDE":13862,"Ġwidget":13863,"Ġpara":13864,"ĠLewis":13865,"Ġaf":13866,"pearance":13867,"Ġregarded":13868,"ĠLang":13869,"Ġworldwide":13870,"Ġgenerates":13871,"isons":13872,"Ġoccupied":13873,"Life":13874,"Ġcaught":13875,"UK":13876,"Ġinterpreted":13877,"Ġnob":13878,"Ġindependence":13879,"endpoint":13880,"Ġelementary":13881,"aron":13882,"ĠHan":13883,"><!--":13884,"ignore":13885,"ronze":13886,"Ġmunicipal":13887,"Ġgeneralization":13888,"Ġdomestic":13889,"Ġprotest":13890,"103":13891,"Ġtwenty":13892,"Photo":13893,"router":13894,"ĠURI":13895,"Ġreporting":13896,"Ġdetermines":13897,"Ġlose":13898,"ĠKa":13899,"Pane":13900,"pars":13901,"Ġconsideration":13902,"Syntax":13903,"Ġinstructions":13904,"Ġallocation":13905,"ĠBridge":13906,"ĠSin":13907,"Millis":13908,"unknown":13909,"Ġemergency":13910,"RECT":13911,"()\">":13912,"Ġalleged":13913,"osph":13914,"ĠPur":13915,"Ġvirus":13916,"Ġsight":13917,"Ġowners":13918,"oustic":13919,"Ġours":13920,"ĠModern":13921,"Ġanalyzed":13922,"Äĥ":13923,"ĠMountain":13924,"AMP":13925,"Ġ#{":13926,"Servlet":13927,"getClass":13928,"omm":13929,"ĠOcean":13930,"Ġcouplings":13931,"!</":13932,"|_":13933,"ÏĢ":13934,"9999":13935,"toc":13936,"ĠFront":13937,"Loading":13938,"cers":13939,"Ġ\"'":13940,"Ġtemporary":13941,"ILITY":13942,"uity":13943,"Ġ```":13944,"aaaa":13945,"Ġsplitting":13946,"Because":13947,"ĠAh":13948,"Ġaren":13949,"lb":13950,"ĠCOL":13951,"Grad":13952,"Lib":13953,"Ġcovariance":13954,"ĠComponent":13955,"tone":13956,"Ġgraduated":13957,"ifi":13958,"emetery":13959,"publish":13960,"ominator":13961,"chestra":13962,"utable":13963,"Ġ&$":13964,"Ġstim":13965,"Ġtaught":13966,"Ġcru":13967,"atest":13968,"æĺ":13969,"management":13970,"Ġamplitudes":13971,"notify":13972,"arial":13973,"Ġprocedures":13974,"ĠSerial":13975,"Ġseats":13976,"initely":13977,"maj":13978,"ĠNum":13979,"Ġsac":13980,"âĢī":13981,"Ġtrim":13982,"ĠGC":13983,"1917":13984,"ibliography":13985,"Ġargued":13986,"ĠSweden":13987,"Ġassessment":13988,"Mag":13989,"tooltip":13990,"Ġclustering":13991,"javax":13992,"Ġmob":13993,"verify":13994,"\\-":13995,"Ġcompeted":13996,"ĠSound":13997,"ĠCulture":13998,"ĠRoss":13999,"Declaration":14000,"\\|^":14001,"Ġpending":14002,"pf":14003,"__)":14004,"Bits":14005,"Ġchoosing":14006,"Ġcriterion":14007,"Ġvolunte":14008,"Ġpulse":14009,"(\"\\":14010,"noframe":14011,"LIN":14012,"ĠMD":14013,"dashed":14014,"Ġfitted":14015,"igenous":14016,"Ignore":14017,">../":14018,"Ġwrites":14019,"Ġtowns":14020,"Ġstanding":14021,"changes":14022,"riz":14023,";\\;":14024,"Ġbid":14025,"Ġrely":14026,"URCE":14027,"ĠMoh":14028,"ĠFermi":14029,"Ġbranches":14030,"lam":14031,"Download":14032,"ulp":14033,"Ġannotation":14034,"ĠVar":14035,"Ġcoins":14036,"1933":14037,"Ġapilevel":14038,"ĠMun":14039,"frequency":14040,"900":14041,"^*_":14042,"ĠOtherwise":14043,"çĶ¨":14044,"Ġadult":14045,"Ġincreasingly":14046,"live":14047,"ĠArizona":14048,"ĠQCD":14049,"Ġprocessed":14050,"=-\\":14051,"ĠSwedish":14052,"Ġparticipated":14053,"*\\":14054,"SW":14055,"Ġreliable":14056,"NL":14057,"Ġcriminal":14058,"Ġadvice":14059,"}{{\\":14060,"Ġdemocr":14061,"Ġpeaks":14062,"350":14063,"ĠMill":14064,"Feed":14065,"quality":14066,"ĠLeb":14067,"ĠAthlet":14068,"ĠAffairs":14069,"rat":14070,"Ġtalking":14071,"Ġintersect":14072,"Ġgovernor":14073,"agan":14074,"FileName":14075,"Ġcontradiction":14076,"ĠSelect":14077,"Ġconformal":14078,"features":14079,"ĠAge":14080,"ĠOnline":14081,"Ġincorrect":14082,"ApJ":14083,"Ġcontributed":14084,"shaller":14085,"RESULT":14086,"ĠRose":14087,"Ġpilot":14088,"atorial":14089,"ĠWhether":14090,"ĠLind":14091,"ells":14092,"'$.":14093,"Ġtriangle":14094,"\\,{\\":14095,"Ġsignificance":14096,"107":14097,"course":14098,"Ġabundance":14099,"Ġhorse":14100,"Chart":14101,"Ġremoves":14102,"Health":14103,"<>();":14104,"Contin":14105,"BASE":14106,"Hook":14107,"pie":14108,"actual":14109,"Ġrein":14110,"ithmetic":14111,"tection":14112,"ĠDeep":14113,"ĠExecutive":14114,"Translation":14115,"ĠFA":14116,"Ġcreative":14117,"Review":14118,"Ġheavily":14119,"Ġdot":14120,"ĠCaptain":14121,"bounded":14122,"MenuItem":14123,"1914":14124,"getMessage":14125,"Ġ'@":14126,"secondary":14127,"into":14128,"OLD":14129,"\"];":14130,"Ġongoing":14131,"vard":14132,"ucks":14133,"Ġloan":14134,"Reason":14135,"ĠLogger":14136,"ĠPlayer":14137,"ĠLoc":14138,"Sn":14139,"ĠIndiana":14140,"ĠSav":14141,"Ġaccommod":14142,"Ġnormalization":14143,"ĠMilitary":14144,"xygen":14145,"Ġdeleted":14146,"Ġexposed":14147,"TableRowColor":14148,"Ġ-=":14149,"AVE":14150,"abstract":14151,"vdots":14152,"angel":14153,"Inner":14154,"Ġdescriptor":14155,"overset":14156,"ĠMatt":14157,"Ġpun":14158,"ocks":14159,"Ġbary":14160,"Ġpersons":14161,"bt":14162,"scripts":14163,"ĠManager":14164,"same":14165,"Ġdocumentary":14166,"ĠHerm":14167,"aks":14168,"theory":14169,"icky":14170,"EEE":14171,"Ġdelegate":14172,"Ġaffine":14173,"ĠPier":14174,"stan":14175,"ĠGib":14176,"orb":14177,"frames":14178,"inject":14179,"ĠFight":14180,"includes":14181,"}{}":14182,"'',":14183,"Ġhall":14184,"ĠGh":14185,"Ġresponsibility":14186,"}}=\\":14187,"ĠContin":14188,"lef":14189,"ĠQual":14190,"isy":14191,"ĠAtlantic":14192,"train":14193,"Ġcombat":14194,"Ġintrinsic":14195,"bib":14196,"Ġexplos":14197,"Ġdepict":14198,"Ġcorrespondence":14199,"BUFFER":14200,"ennessee":14201,"Ġ'_":14202,"Ġbringing":14203,"subNav":14204,"Ġfalls":14205,"Ġrain":14206,"opens":14207,"005":14208,"superv":14209,"Ġconsistency":14210,"ĠYouTube":14211,"alaxy":14212,"Ġcrowd":14213,"Ġcooling":14214,"Ġsep":14215,"Ġreform":14216,"dataset":14217,"Controls":14218,"Ġbought":14219,"Ġsed":14220,"Ġterminal":14221,"dst":14222,"Ġjustice":14223,"ĠCab":14224,"Ġrenormal":14225,"Ġbrings":14226,"Secret":14227,"Ġfemales":14228,"Ġsteady":14229,"Ġmembership":14230,"hyper":14231,"ĠNewton":14232,"Ġfacts":14233,"mount":14234,"tf":14235,"Ġreaches":14236,"ĠGree":14237,"Typ":14238,"Ġguid":14239,"ĠWatch":14240,"ipedia":14241,"ĠMarkov":14242,"ĠArgument":14243,"Intent":14244,"urches":14245,"ĠAbb":14246,"00000000":14247,"ĠPitt":14248,"ĠMemorial":14249,"sources":14250,"ĠMaria":14251,"HOUT":14252,"beans":14253,"ĠJS":14254,"ĠAlf":14255,"Ġworse":14256,"}$;}":14257,"Ġbomb":14258,"locale":14259,"ĠBatt":14260,"Ġconcepts":14261,"ĠNorm":14262,"Ġmechanical":14263,"ĠSystems":14264,"illery":14265,"ĠSeason":14266,"North":14267,"Ġcone":14268,"Origin":14269,"Ġfi":14270,"Ġexperts":14271,"Injection":14272,"URN":14273,"ĠBlo":14274,"Machine":14275,"nobr":14276,"rent":14277,"labels":14278,"poi":14279,"bridge":14280,"Ġmodification":14281,"Aggreg":14282,"Ġharmonic":14283,"1934":14284,"Comb":14285,"Ġcenters":14286,"Ġmultip":14287,"vv":14288,"Ġdecays":14289,"Ġopposition":14290,"Period":14291,"ĉĉčĊ":14292,"tot":14293,"|=":14294,"Bg":14295,"Ġgoogle":14296,"Ġ========":14297,"ĠLeon":14298,"iences":14299,"ĠPO":14300,"allenge":14301,"Put":14302,"Ġroy":14303,"OTTOM":14304,"Ġconvention":14305,"Ġorbits":14306,"ĠRemarks":14307,"hour":14308,"ĠRiemann":14309,"ĠHD":14310,"Ġsudden":14311,"Ġatmosphere":14312,"orous":14313,"Ġdesigns":14314,"Ġposts":14315,"glob":14316,"CREATE":14317,"tarea":14318,"Bigl":14319,"Ġlob":14320,"Labels":14321,"matic":14322,"Ġ'#":14323,"information":14324,"iversary":14325,"ĠEntertainment":14326,"Yes":14327,"Fac":14328,"Ġpermanent":14329,"Ġ'\"":14330,"ĠSmall":14331,"Ġmovies":14332,"192":14333,"owned":14334,"iva":14335,"*,":14336,"Ġfestival":14337,"XXXX":14338,"Ġexponent":14339,"antics":14340,"umul":14341,"Special":14342,"Ġcanvas":14343,"Cart":14344,"Snapshot":14345,"Az":14346,"Ġinhib":14347,"Ġdy":14348,"|_{\\":14349,"Rightarrow":14350,"'},":14351,"AU":14352,"Ġscan":14353,"Ġcircles":14354,"ĠAssume":14355,"=\"{{":14356,"asa":14357,"uction":14358,"ividual":14359,"solr":14360,"GroupName":14361,"disk":14362,"Ġweekend":14363,"(/":14364,"ugar":14365,"Bigr":14366,"Ġretail":14367,"Ġlocalized":14368,"1928":14369,"mal":14370,"Ġmath":14371,"Ġarise":14372,"Ġnovels":14373,"1929":14374,"reason":14375,"Mich":14376,"Must":14377,"ĠTab":14378,"Ġcapabilities":14379,"ĠSV":14380,"vi":14381,"wiki":14382,"ĠDisney":14383,"Ġdevelopers":14384,"ĠFall":14385,"ĠOfficer":14386,"Ġmolecules":14387,"Executor":14388,"notin":14389,"\":\"":14390,"Ġanalytical":14391,"Ġdiversity":14392,"Execute":14393,"mazing":14394,"%\"><":14395,"Ġgiant":14396,"Ġstrike":14397,"Å¾":14398,"Ġsevent":14399,"ORK":14400,"wich":14401,"ĠIF":14402,"Ġcards":14403,"fasterxml":14404,"ĠDirac":14405,"kish":14406,"Culture":14407,"Owner":14408,"Ġformally":14409,"Ġtitled":14410,"Ġregistration":14411,"=\"../_":14412,"ĠBased":14413,"ĠIT":14414,"Ġexercise":14415,"Ġdipl":14416,"potential":14417,"ĠDeb":14418,"Ġencoder":14419,"production":14420,"SPACE":14421,"City":14422,"Ġrealistic":14423,"Tri":14424,"islation":14425,"gent":14426,"RET":14427,"ĠCF":14428,"ĠMAX":14429,"Ġimpl":14430,"squ":14431,"Ġvo":14432,"Ġredirect":14433,"Ġattempted":14434,"itHub":14435,"Ġdil":14436,"Ġengineer":14437,"Ġcollisions":14438,"annotations":14439,"away":14440,"ĠFALSE":14441,"ĠTurkey":14442,"Willi":14443,"Ġdiscret":14444,"qual":14445,"Changes":14446,"LM":14447,"ĠCompar":14448,"issip":14449,"PROP":14450,"Dry":14451,"olis":14452,"nie":14453,"Ġpiano":14454,"ĠKat":14455,"Ġsatellite":14456,"ĠByte":14457,"ĠDateTime":14458,"Ġdesignated":14459,"bow":14460,"Ġremoving":14461,"danger":14462,"Hy":14463,"itro":14464,"Ġcoherent":14465,"lescope":14466,"Ġstroke":14467,"fw":14468,"Ø¯":14469,"Shader":14470,"ĠBrian":14471,"updated":14472,"Ham":14473,"argo":14474,"ĠTABLE":14475,"Ġescap":14476,"cls":14477,"Pal":14478,"Created":14479,"CCESS":14480,"Ġmaintained":14481,"Ġimprovements":14482,"textsf":14483,"Ġneglig":14484,"Actions":14485,"ĠPalest":14486,"Ġinternet":14487,"Ġrent":14488,"dual":14489,"Ġ;$":14490,"ĠMalays":14491,"ĠWhere":14492,"$_{\\":14493,"ĠActive":14494,"Major":14495,"restling":14496,"Press":14497,"Worker":14498,"oking":14499,"setting":14500,"ĠPhot":14501,"ĠMagazine":14502,"ĠAdministration":14503,"002":14504,">${":14505,"Ġaveraged":14506,"ĠSher":14507,"hbase":14508,"Fixture":14509,"Songs":14510,"rock":14511,"atted":14512,"equival":14513,"ropolitan":14514,"ensors":14515,"LOAD":14516,"ĠBishop":14517,"aba":14518,"Ġfault":14519,"oca":14520,"TRAN":14521,"Assume":14522,"osl":14523,"Ġå":14524,"Ġveg":14525,"ĠCred":14526,"isode":14527,"Ġeducational":14528,"iry":14529,"106":14530,"Rules":14531,"Ġmess":14532,"Ġfeeling":14533,"ĠRuntime":14534,"Ġjoining":14535,"Ġtradition":14536,"ĠSym":14537,"Ġtunnel":14538,"Push":14539,"pus":14540,"ĠCzech":14541,"ĠRic":14542,"Ġsnow":14543,"lon":14544,"$;}":14545,"ceived":14546,"Cost":14547,"ĠBor":14548,"ĠConst":14549,"Supported":14550,"}$;":14551,"\\,,":14552,"listener":14553,"Ġsubsets":14554,"Ġpenalty":14555,"')$":14556,"Ġcash":14557,"ĠDonald":14558,"declare":14559,"isations":14560,"online":14561,"ods":14562,"Ġperturbations":14563,"alion":14564,"Ġacceleration":14565,"Ġartifact":14566,"olutely":14567,"Ġreveals":14568,"Ġsees":14569,"ĠMissouri":14570,"âĶ":14571,"Ġdeclare":14572,"chunk":14573,"]->":14574,"uther":14575,"Ġmathematical":14576,"144":14577,"Ġgoods":14578,"mont":14579,"ĠMatch":14580,"Ġweakly":14581,"Ġaims":14582,"mys":14583,"ĠGT":14584,"Ġdyn":14585,"Matcher":14586,"ifference":14587,"pal":14588,"Kn":14589,"Ġcertificate":14590,"uned":14591,"Score":14592,"Ġsynthetic":14593,"Ġcombine":14594,"aro":14595,"Ġcuts":14596,"itud":14597,"Ġinstruments":14598,"Ġreaders":14599,"Cross":14600,"ĠHur":14601,"ĠPlace":14602,"branch":14603,"Ġrevenue":14604,"1932":14605,"Ġparticipate":14606,"Ġlandscape":14607,"ĠJoh":14608,"Ġadmits":14609,"efe":14610,"114":14611,"Ġsemantic":14612,"Ġassistance":14613,"price":14614,"Ġshooting":14615,",(":14616,"ĠSite":14617,"pond":14618,"Ġtruly":14619,"without":14620,"Ġiterator":14621,"German":14622,"gravity":14623,"'+":14624,"ĠCastle":14625,"Ġracing":14626,"stylesheets":14627,"rating":14628,"Ġportray":14629,"hex":14630,"consistent":14631,"tile":14632,"XY":14633,"ĠAws":14634,"Ġmanagers":14635,"GIN":14636,"ipl":14637,
[...]
