#version: 0.2
Ġ Ġ
ĠĠ ĠĠ
i n
Ġ t
e r
o n
Ġ a
r e
h e
a t
e n
o r
s t
ĠĠ Ġ
ĠĠĠĠ ĠĠĠĠ
Ġt he
a n
a l
Ġ c
i t
l e
a r
i on
Ġ s
e s
i s
e d
Ġ o
Ġ f
in g
Ġ w
Ġ p
r o
i c
Ġ b
a s
e t
n d
Ġ in
c t
o u
Ġ d
Ġo f
Ġ m
en t
a m
ĠĠĠĠ ĠĠĠ
e l
Ġt o
Ġa nd
Ġ n
Ġ h
Ġ re
i l
o m
i d
Ġ =
Ġt h
ĉ ĉ
< /
c e
u r
u t
Ġ (
o l
Ġ S
i m
at ion
= "
i g
) ;
s e
a d
o t
e x
Ġ l
Ġ T
o d
i v
Ġ C
- -
a g
Ġ {
Ġ A
i f
Ġ <
a c
u l
e m
ĠĠĠĠĠĠĠĠ ĠĠĠ
u n
a y
t h
Ġ g
/ /
p e
Ġ v
o w
Ġ I
Ġ is
â Ģ
at e
c h
Ġ *
Ġ st
t r
u s
Ġf or
a b
u e
u m
as s
er s
Ġ M
o c
č Ċ
p t
l y
i st
Ġ on
am e
Ġb e
Ġ P
h t
Ġ }
i r
Ġ $
a p
it h
a v
" >
t er
ct ion
Ġc on
Ġ B
Ġ "
e w
Ġ e
l ass
v er
u b
s s
ĠĠĠĠĠĠĠĠ ĠĠĠĠĠĠĠĠ
es s
Ġ R
an d
Ġ D
u p
en d
or t
ag e
ou r
( )
ĠĠĠĠ Ġ
Ġ \
Ġth at
e f
Ġ F
q u
Ġ H
2 0
r i
o p
Ġw ith
Ġ L
s p
ur n
e st
* *
l i
. .
Ġ N
e ct
a in
n t
Ġa l
Ġp ro
Ġw h
Ġa n
ex t
Ġ W
Ġ it
Ġ E
Ġ G
k e
o re
m ent
in e
Ġa s
-- --
t urn
ro m
ar t
y pe
it y
= =
Ġc lass
c on
Ġ y
ac k
ab le
u re
l o
ĠT he
Ġth is
Ġ '
Ġc om
Ġ r
p ort
g et
i z
l ic
Ġ if
od e
Ġ or
i le
er e
ul t
ig ht
al l
Ġb y
Ġa t
Ġ ex
at h
il l
Ġ O
er t
an s
ĠĠĠĠĠĠĠĠ ĠĠĠĠĠĠĠ
Ġw as
o s
iv e
st r
l d
an g
i al
an t
e c
Ġt r
âĢ Ļ
i es
pt ion
0 0
o g
e p
in t
1 9
or m
Ġa re
in d
u d
Ġf rom
Ġ J
at a
re f
- >
Ġ //
Ġ he
a ct
a st
I n
Ġre turn
Ġ &
as e
c om
: :
e g
ĉĉ ĉĉ
al ue
a ce
a re
i b
f f
p l
Ġ </
ou t
e v
j ect
Ġc h
ar y
i re
Ġ U
Ġ -
u nd
Ġn ot
i p
.. /
Ġs e
or d
ar d
o v
Ġs h
u g
C on
o st
Ġ le
our ce
Ġw e
av e
b er
at ed
Ġ [
p ro
ub lic
t o
u st
Ġ @
im e
ic e
ig n
un ction
a k
" ,
id e
' s
Ġ âĢ
re s
Ġn ew
el l
it e
S t
o o
it ion
ar am
l oc
p le
m l
( "
Ġ j
) ,
T he
( );
_ {
p er
20 1
il d
Ġ /
el f
on g
er v
) .
d d
or k
ess age
i a
c ri
Ġ us
d iv
ul l
t ext
Ġ Ċ
c c
f orm
Ġ K
s et
ic h
ou ld
on e
Ġ V
> </
p ut
Ġ +
an ce
tr ing
ro w
Ġp l
or y
c l
sp an
---- ----
a il
ĠI n
' ,
en s
iz e
re ss
Ġy ou
q ue
g e
r r
> <
ic al
en ce
e ar
E x
Ġh ave
Ġc an
Ġre s
u se
im port
Ġ k
Ġst r
Ġ* /
Ġh as
p h
b ject
er r
ĠT h
../ ../
f t
Ġal l
ĠS t
in k
Ġ un
** **
l l
Ġn ame
s h
i ew
Ġa b
Ġ .
Ġ |
p p
Ġp ublic
== ==
Ġ :
ent s
th er
d u
en c
ĠĠĠĠĠĠĠĠ ĠĠĠĠĠĠĠĠĠĠĠ
Ġcon t
he n
ac h
ou nt
i el
ĉĉ ĉ
{ \
s o
ht ml
( '
r a
ĠĠĠĠĠĠĠĠ Ġ
ation s
en er
et h
t p
e le
n ame
Ġf unction
m a
E R
f ig
ow n
o id
Ġg et
Ġh ref
t e
iel d
ou s
th is
P ro
c he
Ġd ef
N ame
Ġd o
Ġw ill
Ġh is
Ġp r
e b
Ġo ut
1 0
c k
Ġwh ich
s ource
m essage
) )
O N
Ġin t
at or
u al
om e
in al
T ype
p r
l ation
re e
Ġb ut
tr ans
y st
Ġ up
_ _
Ġ #
ar k
Ġ= >
ter n
que st
o b
ou nd
ir st
oo k
ĠC h
Ġv ar
er y
Ġs et
I N
Ġa r
o ol
S tring
Ġ im
Ġ$ \
ke y
ro up
r y
I d
p aram
o ver
i an
n e
al se
le s
m ath
cl ud
Ġt ype
ap p
Ġcom p
t d
is h
âĢ Ŀ
20 0
en g
Ġon e
re turn
pe c
ol d
ing s
Ġd is
at ch
Ġv alue
i x
v ent
f er
at ic
yst em
er m
a ke
/ >
le d
Ġ ro
c ode
od el
c ol
ic t
R E
pe ct
l ow
o int
c re
ion s
loc k
ot h
cri pt
i o
c al
Ġm e
R e
p ert
: //
at es
Ġthe ir
r it
a x
" />
ac he
ar g
s er
Ġ !
f r
eth od
Ġ Y
# #
Ġs elf
C om
on t
Ġw ere
trans lation
u ild
am es
or s
Ġa ss
Ġp art
c lass
le ct
ad d
Ġm ore
R es
Ġthe y
ic k
Ġwh o
ab el
Ġc ol
m er
a ult
Ġd ata
a w
} }
f o
Ġ _
T h
S T
d ef
t ype
1 2
Ġs o
ce ption
Ġs u
Ġ el
oc k
r ap
Ġal so
L ist
Ġ= =
Ġm an
ang e
ov e
el y
l ine
u ct
Ġcon st
ur re
Ġl ine
Ġo ver
Ġp re
1 8
n g
ay s
um ber
is s
A T
v al
Ġ i
f ter
T o
Ġa g
ut e
Ġ id
Ġs p
Ġa dd
at er
Ġn ull
Ġg o
w o
Ġp er
C h
e y
ht tp
Ġit s
Ġ end
ic s
it le
Ġn e
Ġt ime
Ġv oid
qu al
Ġw hen
s um
O R
re ad
"> <
ĠI t
t on
^ {
an n
i e
Ġw ork
w e
n c
} \
ĠâĢ ľ
ig h
Ġo ther
le ment
ro und
ers ion
Ġf irst
Ġd es
erv ice
con t
L E
if ic
b o
Ġ en
) );
} ,
Ġab out
v ar
Ġbe en
Ġan y
Ġh er
r ight
s on
Ġf alse
iv ate
ad er
Ġh ad
ar ch
Ġin ter
rr ay
str ing
Ġ `
at ure
u es
Ġl i
am p
tr ib
Ġ| |
ĠU n
Ġd e
A R
" );
Ġ >
1 6
an c
Ġs up
ĠĠĠĠĠĠĠĠĠĠĠĠĠĠĠĠ ĠĠĠĠĠĠĠ
g r
) :
um ent
} $
ĠĠĠĠĠĠĠĠ ĠĠĠĠĠ
m s
em ber
as h
Ġa d
s elf
if i
p on
urre nt
-------- --------
at ive
I D
// //
Ġ und
y p
Ġy ear
Ġcom m
Ġc re
Ġtr ue
is e
c ess
c o
T r
E N
ption s
qu ire
he d
b ack
Ġa p
o f
Ġres ult
Ġ err
on d
A L
t a
cc ess
Ġof f
1 1
as k
on s
d ata
Ġin to
id th
ĠTh is
**** ****
ĠH e
or g
t he
y le
av a
ad e
y s
c a
Ġa pp
Ġn o
V alue
y m
ĠâĢ ĵ
Ġel se
p os
t em
.. .
Con t
ire ct
D ata
ou g
Ġre c
eg in
v e
Ġon ly
Ġor g
C ol
at ing
Ġth ere
Ġs ub
Ġ --
eng th
f ile
Ġ )
pert y
o se
ation al
am ple
Ġth an
ut h
ĠC om
Ġe v
v alue
u le
Ġs a
Ġt wo
Ġc l
( \
m in
Ġw ould
Ġ use
Ġ em
w w
w ork
Ġy our
Ġt e
Ġin st
1 5
Ġp e
i ous
li ent
S S
Ġ/ **
Ġs ome
et a
con d
Ġre g
Ġt est
Ġa ct
ĠĠĠĠ ĠĠ
Ġv al
b le
Ġb ack
n ing
ar get
ul ar
Ġstr ing
ĠĠĠĠĠĠĠĠĠĠĠĠĠĠĠĠ ĠĠĠĠĠĠĠĠĠĠĠĠĠĠĠĠ
S et
n b
n er
ĠP ro
u ff
b egin
Ġpl ay
op le
od y
" )
Ġin d
it s
ag es
ut ion
lo g
n ew
Ġin clud
rap h
Ġ qu
Ġs c
Ġs pec
( $
p x
re am
Ex ception
==== ====
as ed
Ġo ur
b ar
Ġf ile
d ate
le ction
e e
loc ation
Ġ// /
] ;
Ġtr ans
Ġb et
ib le
Ġf inal
p re
d er
ug h
v iew
ĠA r
Ġ& &
a ction
E rr
p s
in s
id er
nb sp
O bject
il ity
ro id
Ġ x
Ġl oc
l abel
em ent
Ġa fter
t est
2 5
al ly
Ġst atic
it ed
in ed
er n
Ġk n
it em
Ġs he
ĠS tring
m ary
Ġm ay
at us
t s
b r
w ard
Ġund er
ic es
o k
Ġre m
C T
ol low
ĠT r
T est
Ġch ar
Ġthe m
Ġwh ere
Ġo b
s ub
Ġd ec
Ġ! =
1 3
Ġfor m
Ġc ase
ev el
Ġf e
is hed
res ent
' )
Ġpro v
tern al
it ies
() .
I T
ĠN ew
ol og
Ġm y
D E
are nt
Ġus ed
an k
Ġ ent
Ġli ke
l and
Ġf il
1 4
or ld
() );
' t
Ġl ist
t ing
le ft
G et
p ress
Ġthe n
S E
Ġpr ivate
Ġ %
ment s
A t
he ck
r c
3 2
Ġo p
s ize
n ot
b e
' ]
_{ \
a ir
le an
l ink
Ġd if
c ent
Ġa m
Ġsa id
ĠC on
A N
ro ugh
pl ay
K ey
et er
Err or
M E
Ġp ol
} {
ar r
f or
et s
ou n
ĠE x
re d
) $
1 7
ro ll
R ef
f ace
ow er
iz ed
U n
ĠS h
19 9
ro l
Ġre l
Ġj ust
ar s
Ġst art
F ile
B y
s cript
an ag
Ġpe ople
Ġsh ould
. _
n av
r u
lo ad
al s
ĉĉĉĉ ĉ
um n
g er
w n
V iew
il y
I m
an y
o ss
3 0
Ġsh ow
1 00
p ublic
Ġc o
Ġ key
Ġwh at
Q u
Ġo bject
j s
ind ex
C lass
Ġin v
in ce
"> </
Ġp h
Ġn umber
im es
âĢ ĵ
Ġa c
ur ing
Ġf ollow
v el
C O
str uct
iv ers
E n
m od
ep end
[ '
if y
l ist
ĠA n
ĠA l
Ġne ed
Ġcon s
p ace
" ;
l er
t tp
ord er
ut il
ind ow
i ent
sum mary
in es
Ġg ener
f unction
re n
e qu
I nd
. </
a z
Ġg r
Ġsu ch
g o
oug h
we en
le t
Ġh ow
ur l
b y
ĠĠĠĠ Ċ
Ġe ver
H e
' );
is ion
Ġm ethod
Ġa cc
ist s
k en
Ġm ost
Ġth rough
o x
Ġpro du
ĠW e
o ot
Ġs er
ĠR e
enc es
() ,
re at
fr ac
ot t
Ġc all
e q
iv er
in ter
r ite
s c
oc ument
en se
l ang
S h
l ay
oth er
Ġd r
Ġm od
Ġd ist
mer ic
re ak
! --
t ime
Ġh im
Ġh igh
at t
ot e
f ul
] ,
as on
a h
f ore
U L
Ġl ong
ce pt
R O
Ġ ext
Ġthe se
t il
ifi ed
t op
re m
tr y
cri ption
a pt
=" ../../
id ent
d is
Ġar g
o od
y n
Ġs ystem
} )
v oid
uff er
Ġre ad
I ON
p ar
Ġst ud
Ġbet ween
Ġo per
Ġm in
5 0
re g
Ġp oint
Ġs im
form ation
os ition
w h
Ġr un
ou se
Ġre quire
A n
T ime
lo b
Ġt itle
Ġb r
Ġd et
og le
ack age
A r
evel op
oc i
con st
Ġse e
us h
" :
op y
c es
p ath
Ġdif fer
g roup
Ġag ain
Ġr ight
Ġs ign
i k
Ġc ould
ain s
ers on
if e
Ġh and
ĠI f
=" +
ur ation
L A
h er
T ext
Ġc or
Ġc urrent
Ġ/ >
Re quest
Ġw ell
Ġp aram
f ield
ant s
Ġf ield
Ġg roup
Ġf l
qu ot
Ġm odel
iz ation
us er
m all
] .
com m
F or
Ġg iv
math b
Ġn ow
ĠF or
ĠS e
it t
6 4
ate g
Ġre sp
d ay
Ġ ed
Ġe ach
Ġ ?
N ode
u ch
are d
ist er
ch ool
Ġus ing
2 2
f l
Ġ Z
T E
t able
ess ion
Ġc al
Ġre p
w ay
Ġm ake
P E
Ġass ert
Ġyear s
m d
enc y
E vent
Ġ );
Ġst ate
ect or
in clud
Ġwh ile
m an
00 0
l p
E lement
c ed
Ġf ound
O n
Ġbe fore
$ .
I nt
Ġex pect
ect ed
Ġdo es
Ġth row
' :
g round
` `
r ic
/ *
Ġe ff
() )
or n
al e
F ield
P ath
In fo
A dd
oo lean
am b
ut ton
u i
trib ute
Con fig
2 4
A C
o ad
ĠW h
con fig
m ed
ain er
Ġ X
P aram
/ **
Ġsup port
Ġbe ing
m e
Ġf r
it ial
un c
T R
r m
o h
Ġl ast
ra w
P I
c ite
le ar
w ord
" "
gr am
ĠA s
} .
r ide
ames pace
A s
Ġ/ *
Ġs ame
ĠC ol
on se
M ap
l ength
it or
e ver
I tem
us s
w idth
Ġ import
Ġ-- >
Ind ex
$ ,
Ġre quest
http s
a j
Ġever y
Con text
t t
lo se
Ġp ass
ĠA meric
Ġcom ple
anag er
is m
Ġerr or
math cal
ĠĠĠĠĠĠĠĠĠĠĠĠĠĠĠĠ ĠĠĠĠĠĠĠĠĠĠĠ
st ance
St ate
W ith
D ef
E qual
uild er
u c
I C
o y
et work
ure s
ar n
ca use
Ġ( !
//// ////
Ġs ize
e k
ain t
ph a
Ġs ur
ap i
S ervice
ust om
at s
ĠI nd
, \
Ġ} );
Ġd irect
Ġat t
uth or
Ġman y
Ġbe cause
O ver
yp es
ir t
m p
Ġd id
w it
se arch
b ers
ĠR es
C ode
d a
re sp
U R
col or
Ġkn ow
ical ly
Ġar t
r on
Ġ Q
pt y
Ġc ent
d t
i er
Ġs ol
Ġm on
d es
} ;
Ġse cond
2 1
Ġdef ault
lic ation
A rray
3 3
ath er
' ;
F orm
ro p
Ġa ut
ĠA nd
ic on
ap ache
Ġl ook
19 8
m ap
Ġev en
p i
ver t
n ode
bo x
Ġe vent
âĢ ľ
Th is
or th
a it
Ġh ttp
Ġb el
Ġa rray
Ġe lement
O r
le ss
A l
t itle
4 0
Ġf ind
ne ction
al k
## ##
Ġpro cess
Ġ} ,
tr ue
Ġb oth
Ġm em
ro ss
. "
m odel
port s
end s
ain ing
Ġm ed
N ot
ot s
equ ation
b s
Ġcont ent
i ence
W e
b lock
et ers
over n
Ġ z
in put
[ ]
ĠI s
ivers ity
ign ed
err or
Ġw ay
S ize
ri b
ass ert
a f
. âĢĿ
D es
id d
ens ion
Ġm ade
u f
se ction
res ult
sh ip
ent ial
ar m
Ġt ext
ĠF r
y nc
I G
en u
Ġd own
U T
******** ********
Ã ©
l ish
Ġw rit
it er
ur s
ak ing
pl ate
n ext
ag s
o bject
Ġt arget
il ter
ev ice
Ġe st
Ġex p
ww w
Ġus er
o ff
f in
val id
an e
olog y
f rom
Ġv ery
et urn
Ġh ere
IN G
iv es
Ġp ar
= '
M essage
Ġl og
Ġo wn
F F
Ref er
arr ay
u ck
ing le
ual ly
ĠS c
A D
Ġdis c
Ġth ree
am ily
Ġb l
Ġto p
H and
} ^
ut es
Res ult
} (
Ġs erv
="../../ ../../
v ersion
able d
m y
ail s
cre ate
iv ed
+ +
ĠY ou
iss ion
Ġ u
t en
as es
2 3
L O
ain ed
Ġd evelop
ch n
Ġin formation
b ody
O f
lo at
Ġl ink
Ġor der
i ev
el ta
F r
Ġdiffer ent
Ġd uring
Ġch ild
Ġg u
he ad
Ġm ust
lob al
Ġper form
Ġn on
Ġw ant
Ġgiv en
Ġj ava
al pha
} _
al th
Ġre le
> &
def ault
Ġb uild
pon ent
6 0
Ġpro t
el s
Ġw orld
Ġd on
Ġc heck
ile d
M L
ĠS ystem
Ġop en
s ide
Ġap pro
Ġm ov
Ġcont in
in ess
ĠP h
l t
Ġv is
Ġte am
p art
I s
Ġcon fig
Ġtr y
U p
re c
Ġs rc
Ġre f
ĠO n
ur al
Ġstr uct
V al
H E
A pp
re ate
ou ble
Ġf act
in fo
if t
cont ent
M A
Ġt em
j ava
L oc
~ \
it al
Ġn ext
Ġall ow
20 19
Ġ: =
Ġ __
Com m
Ġ= ==
ou th
ar i
co pe
com p
Ġb reak
Ġm ark
st art
A ll
W h
ĠD e
. ,
Ġp ath
includ e
Ġth ose
ir c
m b
ak es
n et
lo s
ĠL e
Ġle ft
Ġpart ic
ist ory
Ġcre ate
Ġloc al
ĠC l
Ġfollow ing
I S
b ol
p oint
---------------- ----------------
def ine
ific ation
ast er
i ed
M anager
ur y
c ss
ĠP r
Ġgo od
19 7
us ic
Ġm uch
n ess
201 8
l ing
nd er
um p
Ġm at
w are
Ġhe lp
g t
Ġb lock
our ces
pon se
ig inal
ĠCom m
Col or
ĠG et
ac es
M odel
Ġc ode
od es
Ġc oun
T D
in a
v ious
L og
re t
b ase
E D
S er
pert ies
t es
2 7
ĠĠĠĠĠĠĠĠ ĠĠ
id es
E T
roll er
ele te
Ġv ersion
us ing
b all
Qu ery
en ame
l ight
Ġd ep
st ate
M P
Ġle ad
v ail
Ġc ar
ĉĉĉĉ ĉĉ
Ġin put
Ġm et
amb da
2 8
im it
Ġre al
tr act
Ġ} ;
and roid
U ser
S ystem
ef ore
T able
a ut
t ings
o ption
um er
UL L
Ġv iew
Ġrec ord
en e
O ut
In ter
ic y
ĠA ss
end er
act er
Ġt erm
lo y
ĠM ar
Ġbe g
press ion
r ation
Ġp ost
Ð °
Ġth ink
U N
=" ../
ĠO r
lic k
Pro perty
Ġle t
w eb
t n
Ġe ar
con text
s erv
oh n
; &
EN T
i or
A B
Ġc a
d oc
u age
go ogle
i um
ition s
n o
Ġst yle
us iness
Ġst ill
ma x
Ġc r
Ġvar i
p ackage
d own
Ġb ro
s w
N ew
Ġre ce
o in
\ \
=" #
ction s
Ġle vel
Ġp op
id ed
ĠĠĠĠĠĠĠĠ ĠĠĠĠ
um e
Ġhe ad
ym bol
2 6
Ġit em
; </
Ġn il
o le
ott om
on y
and s
cal e
un e
F rom
Ġcon text
A nd
ĠâĢ Ķ
201 7
Ġb ool
Ġs om
Ġagain st
pro t
Ġs ince
Ġn ode
in ation
O D
E S
eb ug
com e
Ġb ase
ur ity
Ġg ame
I L
Ġpro ject
ĠA d
p or
R eg
Ð ¾
c ount
Ġind ex
G roup
O T
2 9
ab ility
ĠUn iversity
ar ge
f alse
al ign
201 6
Ġinst ance
ir on
C lient
m ethod
d b
ĠM ay
I t
Ġt ake
Ġval ues
C all
s k
A S
le y
g y
ith ub
du ct
Tr ans
iv ing
c ore
ep s
U S
Ġo ptions
P h
======== ========
Ġp at
Res ponse
Ġinclud ing
a pe
Ġex per
ul ation
ir d
en n
che s
ĠS he
Ġst d
b l
Ġp osition
Ġex ample
che ck
s up
= \
Ġm ult
Ġf in
b ed
Over ride
C ount
Ġcomm un
orm al
Ġeff ect
Ar g
ic le
ifi er
Ġo ld
) \
Ġpl ace
Ġp oss
c d
st atic
og raph
ele ct
> (
Ġa round
Ġfe ature
iv ity
pr int
se lect
n amespace
Ġin cre
che d
c all
r al
Ġim p
ĠĠ Ċ
am ma
Ġp erson
Ġd el
ide o
D is
ater ial
Ġm ax
vail able
ict ion
ref er
ĠG r
g ithub
ev ent
C E
f e
Ġs mall
Ġpro gram
oc us
u ro
8 0
M ethod
Ġap pe
) </
ĠA t
Ġcal led
ou nc
$ \
m u
l ished
ear ch
Ġm essage
om en
< !--
P r
B uilder
Ġp resent
Ġcol or
Ġand roid
ĠAmeric an
ĠĠĠĠĠĠĠĠĠĠĠĠĠĠĠĠ ĠĠĠĠĠĠĠĠĠĠĠĠĠĠĠ
, âĢĿ
iv ely
P l
ĠA ll
ĠE ng
Ġ enc
T H
um ents
Ġt able
Ġs ource
] (
ĠH ow
irt ual
Ġb ook
ĠB r
il t
arg in
av ing
Ġl ife
A ME
201 5
ition al
Ġp res
m et
act ory
Ġwe ek
âĢ ¦
Ġd ay
ĠP l
a i
Ġre t
u k
se c
Ġwith out
Ġadd ress
et y
sp ace
Ġre port
w ays
ac y
R ec
ĠU S
c ast
St ream
at ab
Ð µ
ri x
D ate
ol v
Ġcons ider
Ġc our
Ġch ang
st yle
Ġs ervice
u les
read y
Ġresp onse
ON T
ĠUn ited
M od
Ġid ent
s l
u str
mathb b
is ed
an sp
pl ace
ĠB ut
Ġbe st
Ġre fer
4 5
ĠâĢ ĺ
Ġf our
n ull
Ġ ,
Ġ( )
6 6
ore d
_ \
A d
eg er
am ed
o ptions
c urrent
Ġm ap
v iron
li b
qu ery
Ġs k
Ġ ke
overn ment
u x
ĠS et
end ed
Ġs ay
ann el
ple ment
q l
ou d
or ies
U til
B ar
Ġresult s
g ress
9 9
Ġa ccess
Im age
Ġcon f
b utton
" .
Ġl a
Ġcon d
ph p
ĠL ist
Ġp ower
w ith
eg a
ĠJ ul
} _{
I P
Ġ\ \
se e
Ġse lect
Ġ Ð
] )
Ġs chool
ĠT o
wit ch
Ġis s
and ard
l a
Ġan other
Ġs ec
ĠI m
Ġm ain
p an
in it
201 4
Ġd ocument
re quest
n ect
e ad
Ġcont rol
c lient
a ff
Ġman ag
St atus
} ^{
S ub
A ss
ĠB l
er ing
Refer ences
i que
Ġb ased
r ist
Ġsu ccess
f unc
Ġ< <
Ġt ri
B lock
ug g
at ely
In put
Ġin s
im age
Ġb order
Ġwith in
Ġch ange
5 5
ĠC an
ĠE n
ix ed
Ġ ->
ire d
Ġback ground
ĠĠĠĠĠĠĠĠĠĠĠĠĠĠĠĠ Ġ
arg s
anc es
Ġe qu
ig ma
C ell
ĠThe y
Ġl aw
ĠJ ohn
C H
t ab
p en
str u
G ener
le x
in c
tern ational
Ġrep resent
E nd
j av
iv al
d ir
b f
Ġb oolean
Ġpro perty
ĠC ent
To ken
ug ht
0 1
Ġw idth
v en
ad i
he s
fin ished
Ġa vailable
A P
Ġan al
Ġm atch
S tr
Ġc ount
end ing
Ġc ell
Ġdes cri
Ġc are
Ġan n
- \
E d
Ġpro ble
Ġf a
Ġbe h
old er
( (
Ġout put
ator s
ic ense
ord s
Y PE
ib r
N S
che ma
N o
Ġin itial
m o
Ġad v
ill ion
Ġ et
pro v
I f
er o
ĠN ULL
RE F
Ġo cc
al t
Ġd em
d l
g ed
In stance
âĢ Ķ
Ġ" ""
op er
is on
Ġs ingle
O P
3 5
ic ro
h and
ure d
Ġd i
Ġp arent
N ull
ĠN o
Ġ{ \
Ġl ater
ur ch
atab ase
row s
Ġp o
I R
Ġte chn
Ġinclud e
r un
ord ing
l s
B ase
B e
Ġl ang
ĠB e
rit er
ser ver
oc ial
p m
Ġf amily
ot o
O L
L ine
201 3
un finished
Ġb o
Ġs pe
add ing
Ġf ew
o pt
ph i
E m
d om
ĠC ar
ĠJ an
he ader
Ġf ull
Ġex pl
i od
N av
viron ment
Ġkn own
Ġto o
aj or
cre en
Ġc ap
h as
ay out
ith er
Ġle g
At tribute
b ook
ol ution
ĠP ol
t x
O ptions
um an
Ġe lect
tr a
e qual
00 00
or age
[ "
Ġorg an
S ource
he ight
Ð ¸
ent ly
Ġfil m
Ġp age
Ġser ies
Com ponent
R ep
p age
Ġim age
ut ed
3 9
P ar
Ġs ays
ut ure
t arget
ch o
app end
il ar
act ive
Ġ+ =
k s
Hand ler
A ction
^ {\
y les
it ive
ĠC o
ĠĠĠĠĠĠĠĠ Ċ
d e
l ambda
Ġa ction
Ġh ome
x y
E L
O ff
ĉĉĉĉ ĉĉĉĉ
und le
x ml
ĠT e
pos ition
Ġb u
Ġmon th
oug ht
Ġse ver
Cont ent
Ġp ut
( {
S c
Ġt urn
3 4
Ġun til
S C
Ġse ason
Ġor iginal
m ember
Ġex ec
p arent
Ġinter est
Ġn etwork
201 2
B uffer
ĠW orld
E X
l in
Ġs um
b eta
id get
Ġr ange
Ġgo ing
Ġ es
C K
j son
ĠR eg
Ġh app
Ġre ally
fr ame
Ġ eng
ug in
a im
b uild
pro perty
nav bar
itt le
n s
, "
Ġo pt
Ġf ore
Ġal ready
Ġex ist
D ec
Ġ Â
ib ility
pec ial
ĠA dd
ward s
A ct
S P
ĠI N
Ġw in
re en
Ġ$ (
ĠT est
Ġm usic
ĠSt ates
Ġdist rib
E E
se mb
Res ource
our n
R un
ĠN ov
le m
Ġsup er
H el
ĠĠĠĠĠĠĠĠ ĠĠĠĠĠĠ
3 7
b it
O per
A A
mathb f
il li
b um
.. ..
Ġto t
U E
ĠC al
th ing
Ġ( $
h at
ĠR ep
ic ial
t ed
Def ault
ateg ory
F actory
ch ild
V ersion
ra ft
) {
Ġg reat
ur ther
Ġcom put
f low
Ġval id
ial og
h o
Ġsh ort
201 0
ig ation
D O
A G
Ġp ort
ad ata
Ġn ear
il on
Ġb usiness
201 1
* /
Ġsp ace
0 7
op s
in ary
ot ype
Ġare a
Ġexpect ed
LA SS
Ġst at
he ther
ap er
ar ning
b tn
im ate
H T
ĠG u
Â ł
Ñ Ĥ
Ġp ub
and om
d ec
ĠI nt
un g
Ġal ong
Ġinv est
ĠO bject
Ġf oot
S elect
ĠY ork
3 1
ar row
St art
im al
d o
eth ing
c er
Pro v
e ction
ĉ Ċ
st atus
at form
ĠD r
our s
ĠN ational
Ġdis play
Ġl arge
Ġb ig
Ġne ver
ĠA ug
im um
Ġlink s
re l
Com p
9 0
F ONT
oc ol
le g
ĠP ar
al f
Ġprodu ct
ap s
row ser
ch ar
St yle
res h
ent ion
in ition
s rc
p tr
ĠS p
F A
Comm and
3 6
at ter
ip le
ĠE d
w rite
d r
ĠS o
ne y
al es
L ink
Ġs ide
Ġs l
ĠM ed
it es
ĠSt ate
Ġpol it
ĠM in
ĠO ct
ĠTh ere
er a
p ost
c ase
Ġ{ @
h ip
ab ly
ag n
Ġchar acter
ĠW est
F unction
st d
AT E
mod ule
us ed
Ġf ree
Ġpro m
Re ad
trib utes
iz er
T ask
ĠA pr
r l
4 4
ĠC ount
k n
op en
Ġb as
stru ction
Ġass oci
0 5
" ]
ache d
Ġle ss
f ind
Ġc lear
P art
ĠA b
Ġpre vious
i ans
Ġre st
o ke
p ush
ĠC ont
Ġdes ign
V ER
g ing
f irst
ic a
ĠS up
Ex ternal
p ol
Ġcomp any
re quire
h ost
re ct
Ġ quest
Ġplay ers
3 8
N umber
able s
b ottom
Ġd epend
Ġrequire d
m ark
Ġal ways
ut ions
ĠN one
st ream
ri or
ight s
Ġprot ected
Ġres ource
Ġc lient
ĠR eturn
Tr ue
Ġc ert
u ary
Ð ½
um b
Ġp ay
Ġm ight
lay out
ys is
im g
Ġc ustom
Ġv ol
L abel
am a
om an
P oint
ĠS chool
a u
so le
F l
Ġa ff
s g
Ġl abel
o ice
on es
Ġpr int
pr ivate
//////// ////////
ĠB y
W indow
Ġb ody
m it
Fr ame
if f
ĠJul y
O S
ele ment
Equal s
im ary
ust er
} );
pect ed
// /
wh ere
m eta
old s
ĠĠĠĠĠĠĠĠ ĠĠĠĠĊ
Ġthrow s
C heck
ĠG e
p y
l ast
ag ue
str ong
C C
Ġh ost
Ġr a
Ġl oad
ef f
Ġme as
ild e
is ing
Ġab ove
Ġ( \
ob j
Ġbet ter
ĠC lass
as cript
4 8
Ġd om
) }
Ġl ength
st it
r ict
m at
end if
u ed
st and
y l
7 5
Ġchild ren
ĠJ une
uro pe
le ase
C l
U s
p c
am ent
A M
0 8
Ġst ory
ĠM arch
ac ed
b ig
b uf
G r
G L
Ġd est
im ation
Ġg overnment
Ġo ption
o op
Ġg row
Ġb ound
Ġa nt
ock et
F I
Ġcomp on
C reate
$ {
Ġsever al
r t
n ow
Ġse em
id s
P RO
om ic
Ġt yp
i ke
ang le
s igned
T O
Ġtr ack
p ack
Ġcomm and
Ġro le
Ġn um
Ġmem bers
19 6
N O
Ġposs ible
AB LE
f ont
ĠG o
Ġtot al
im ent
ĠG ener
he et
Ġpro f
S ON
R ow
ĠW ar
g ener
ro du
ĠC ity
F ilter
c lose
Ġh ard
P age
R eturn
Ġ ide
Ġd ue
c ell
s igma
P ol
cont ainer
Ġme an
Ġt imes
on ly
* }
li ed
Ġm ajor
Ġa uthor
Ġ( (
0 2
z e
dis play
d f
pro ject
Ġc ity
L ast
( &
ĠS outh
Ġle ast
Ġsom ething
Ġd iv
ard s
g le
s ervice
th ers
ac ing
ĠN ot
l en
Cont roller
ay er
des cription
ĠS er
resp ond
if act
an ch
o ber
ft ware
Ġ ...
v ers
d epend
m ber
ĠD es
Ġp os
ĠCh rist
Ġc atch
pt ember
Ġf ri
ic ation
Ġw indow
ĠD ef
p o
ustr al
Form at
^{ -
al let
d elta
Ġhe ight
form at
erm an
Ġd one
app ing
Ġob t
Ġc opy
U I
e ed
st er
Ġacc ount
p ng
Ġext ends
" ).
Ġdef ined
ĠP art
Ġgener al
f ilter
B utton
ad a
Ġm argin
re w
Ġspec ial
+ \
ĠB rit
Ġa rr
Ġg ot
Ġst atus
Ñ Ģ
200 9
cent er
ĠW ith
Ġe as
get her
y c
Ġc ur
yn am
ĠM c
I M
m em
Ġg l
el ine
Ġs ong
param s
Ġw on
List ener
Ġl ate
Ġf re
il it
Ġcom e
F irst
Ġ url
resp onse
" ),
Ġe ither
Ġj ob
ir m
IN T
Ġcol umn
idd en
od ing
Ġear ly
Ġ< !--
P re
s ol
ĠW hen
one y
jav ascript
Ġpartic ular
Ġaut o
m enu
Ġimport ant
ĠA pp
ĠApr il
ud io
up date
an a
er al
pos ed
it ory
Ġest ab
il er
U M
ĠD is
g amma
Ġstud y
Ġke ep
> >
ref ix
Ġreg ion
Ġm ove
re et
v is
Ġre search
Ġ ]
~ ~
ĠM an
ĠHow ever
Ġc amp
Ġpoint s
Ch ild
_ .
in st
S up
am s
loc al
Ġt ask
B U
B ox
ud e
ĠF eb
ĠCount y
0 4
ent ry
ener gy
semb ly
Ġh istory
v es
Ġl ight
ch ange
Ġal bum
ĠH REF
Ġb it
Ġc over
le ge
u ccess
Ġth ings
Ġres pect
id ual
math rm
ur g
Ġl ow
ĠA ir
str act
Val id
Ġm ar
un k
W eb
Ġup date
ĠC LASS
Ġw ater
Ġde ath
200 8
Ġsim ilar
s im
Ġd ouble
Ġl ittle
fo ot
Ġem p
at tr
Ġcre ated
u id
Ġob serv
Ġh o
Ġw omen
Ġre du
Col lection
Ġw hether
m t
ann ot
ĠAug ust
Ch ar
re st
Ġl arg
ĠE urope
Ġs ite
ibr ary
Ġp ot
B undle
p ly
d ep
ĠA ct
ar ing
idd le
Ð¾ Ð
ĠN orth
ĠJan uary
< ?
Ġcom b
} {\
ep ar
ĠR ec
Ġob j
et ing
Ġf ar
ER T
0 6
ĠĠĠĠĠĠĠĠĠĠĠĠĠĠĠĠ ĠĠĠĠĠĠĠĠĠĠĠĠĠĠĠĠĠĠĠ
rem ove
Ġse arch
^ \
A b
Ex t
ĠF l
E nt
d et
Ġc ost
t ag
h am
kn own
Ġcon nection
ansp ort
Ġf ont
Ġdet erm
Col umn
er ed
L ength
apt er
CO L
ĠO F
ens or
y nt
av es
cl us
Ġev ents
N D
Ġcoun try
ip p
c or
the ta
ist or
S pec
fig ure
ER R
`` `
Ġprov ide
u ation
M et
ou ch
Ġmed ia
UR L
Ġd ays
om et
p ose
Ġc lose
19 5
so ft
ĠSe ptember
Ġd ate
C ache
Add ress
Ġspec ified
I Z
ĠD o
ist ry
Ġim plement
id ge
in stance
st yles
li p
0 9
n um
Ġ qual
Ġhe alth
d ict
ĠE X
ĠU p
Ġas k
Out put
ig ger
ak en
am il
Ġpro b
: </
D et
ir th
' ).
t imes
M S
T YPE
n umber
Ġm ass
qu ad
M ode
ĠC or
art ment
T em
at al
ad io
struct or
ĠO ff
bo ard
ĠOct ober
s i
ĠM e
Ġc he
in o
ult ure
ill s
og n
c ul
Ġser ver
ro y
ce mber
T P
4 7
g en
Ġme ans
iev e
ĠR ob
ist ic
out put
Ġstr ong
col umn
Ġproble m
B ack
L ayout
N AME
ry pt
p ass
sh ow
ĠL icense
Ġparam eter
util s
I O
Ġparam eters
ugg est
m ar
ĠTh at
Ġper iod
k it
Ġfor mer
itt ed
0 3
un ch
Y ou
ta u
ef ined
) (
Ġw rite
Ġh aving
Ġc los
Ġform at
part ial
ĠV al
C ON
m on
Ġprov ided
he l
Ġg lobal
g or
Ġmod ule
ens ure
ri es
Ġon ce
] {
s m
w ise
Ã ¡
prot otype
i ol
Ġs ure
pro to
le vel
ĠG L
Ġm ember
Ġa ir
m ost
to ol
d ev
4 9
a e
ĠI D
P er
U rl
Ġdoes n
se qu
c ame
id ence
Ser ver
r ing
Prov ider
ĠP res
Ġac ross
Ġs ent
++ )
Ġof fer
ĠA ustral
Ġd ev
ex p
Ġcl aim
ac ity
ĠA PI
Ġcall back
Ġn one
Ġst op
Ġfr ame
Ġinter face
r ho
ã ģ
Ñ ģ
' re
ĠO ne
Ġs it
ex ec
Ġlang uage
Ġbe came
ĠH T
tem pt
Ġa way
R em
Ġto ok
s mall
D B
Ġab le
Ġind ic
Ġli k
Ġre lation
T ag
Ġf und
Ġm aking
A ut
Off set
Ġre d
200 7
el se
Ġf ail
Ġin ternal
Ġ[ ]
Ġh uman
off set
ire ction
Ġ q
Ġv er
Ġst ream
' '
Ġ! ==
ru ary
( _
n a
al y
ang ed
Ġp ast
Ġst andard
ot ion
Ġ energy
Ġto gether
Ġof ten
ĠR ev
action s
Ġs at
op h
Ġfile s
a ul
olv ed
Ġv ideo
Ġl ot
Ġfe el
Ġdisc uss
ele g
Ġbe come
Ġk ind
Ġadd ed
Ġwork ing
$ -
is es
Ġg ive
ĠNov ember
pro cess
Ġse ction
P C
refer ence
i j
ri ed
a a
s d
A cc
W idth
le q
i ef
Ġl and
L I
Up date
ĠAr t
d at
Ġf uture
r am
n on
% %
Ġe p
Ġm illion
raph ics
Ġe qual
Ġyou ng
y ear
Ġv ia
ab or
Ġcommun ity
Ġn av
med i
c el
ĠB ar
Ġf ive
Ġbeg in
m ain
ĠA g
Ġpr act
Ġdevelop ment
Ġm iss
Ġre view
i ents
ĠD ata
Ġarg s
T arget
Ġspec ific
Ġs ample
Ġf urther
un it
ther n
} (\
s cope
Ġs m
ĠF ile
Ġth ough
w rap
v ision
ess ages
f inal
an el
gor ith
4 6
Ġin div
**************** ****************
I V
Ġl ove
tem plate
4 2
="../../../../ ../
T ypes
Ġmethod s
ĠCh ar
ĠDe cember
ĠS tr
Ġs ocial
Ġs w
ĠA p
Param eter
c an
A ccess
CO DE
Ġt alk
Ġth ird
ĠCom p
Ġm om
Ġpl an
ĠA fter
M em
c it
Ġin it
Ġelement s
li es
th ough
Ġp erm
I I
l im
L evel
sup port
Ġse en
#### ####
20 00
ov ed
av en
Ġam ong
Ġperform ance
Ġshow s
Ġen ough
Ġcon c
Ġm ag
Ġapp lication
ĠM y
ĉĉĉĉ ĉĉĉ
ĠP er
Ġatt ack
] );
b ool
O b
ob ile
Ġm er
w indow
ĠB o
Ġsign ific
Ġd eb
i et
n u
ĠM on
n ers
Ġt re
Ġhttp s
h ib
Ġl imit
Ġtr ad
ound s
Ġh ouse
Ġrece ived
cript or
UL T
return s
ĠThe se
AT ION
s v
] [
ĠH igh
Ġserv ices
D elta
Ġcontin ue
m atch
m ult
Ġwh y
ens ions
t y
Ġ* *
Ġfoot ball
s pec
ot al
En try
is k
Ġc ame
art ifact
Util s
Ġg ames
ore s
m m
i i
class es
g l
Ent ity
à ¤
ĠK ing
ĠH ouse
Ġt ell
Ġin du
Ġbel ow
em ents
$ $
ond on
Ġrele ased
ing ton
ex ample
Ġg en
par se
Ġal ign
O ne
u int
Ġd evice
M ax
N ext
C ase
am l
t ask
Ġs ix
Ġy et
ro ot
V is
Ġx ml
() ->
ig in
A V
ĠA rray
b ind
Ġcol l
ĠD av
fer ence
eq ref
ĠD ep
200 6
Ġinst all
a use
M in
ĠR uss
ĠT ype
ap an
Ġm en
ce ed
6 7
Ġn ec
Cont ainer
Ġqu ery
c ache
ourn al
g es
Ġf ocus
Ġf ac
Ġb en
Ġinst ead
Ġindiv idual
id ing
Inter face
Ġth ought
var i
Ġre ason
Ġf loat
ĠFeb ruary
av el
U P
ograph y
Ġcol lection
Ġl en
Ġcor respond
Ex ec
as ing
A PI
=" -
il le
Ġd en
il ities
ĠS ch
Ġfil ter
ĠM ark
Ġ Qu
Ġchang es
ĠIn ter
Ġn ormal
Ġcomp et
Ġfeature s
J son
Ġt ypes
Config uration
or iz
ĠP ark
im ension
Ġstart ed
ol l
Ġoff icial
( [
ol ve
e h
W rite
ã ĥ
Ġu int
' ),
Ġ čĊ
He ader
comm on
sh ould
S e
Ġpot ential
ft y
Ġst ep
Ġdif f
}$ ,
c m
f loat
f a
D r
Ġm akes
Ġsub ject
IG N
amp ion
b uffer
enc ies
. /
T op
8 8
ĠH is
}$ .
ĠS ec
P ost
Ġm ode
Ġoper ation
| \
Ġplay ed
Ġcour se
cont rol
Ġam ount
P osition
Un it
K E
Ġm aterial
Ġint eg
ak er
Ġc rit
Th at
oc r
Ġph ys
P O
ĠTr ans
Ġmodel s
M ed
un ity
Ġreturn ed
Ġb uffer
L oad
Ġen vironment
Ġac cept
ĠL a
Ġa ge
7 0
Ġpro perties
l ong
t ml
Ġl ive
Ġassoci ated
Ġs che
Ġreturn s
: "
Ġterm s
Ġd er
Ġvis it
Ġint rodu
S ec
Ġed uc
ag ing
ĠĠĠĠĠĠĠĠĠĠĠĠĠĠĠĠ ĠĠĠĠĠ
em pty
Ġse qu
Ġar ch
Ġbuild ing
W ork
I F
om ega
Ġloc ation
w ait
str ap
b a
iz ing
ex pected
ver age
ĠW eb
ig ure
in fty
6 5
Ġdid n
T ree
to ken
Cont rol
Ġs epar
h a
Ġw ar
Call back
ca ption
a uthor
ounc il
S ee
Ġt ag
Ġ{ }
Ġ ::
Ġo thers
l ate
S p
Ġent ry
ef t
Ġcomm on
x i
ĠNew s
Ġto wn
Th read
He ight
in ner
adi us
ĠS im
Ġb irth
ĠReturn s
d ated
l it
Ġcert ain
H ttp
Ġemp loy
A fter
d ocument
att le
Ġc irc
AR T
Ġp ress
Ġsh own
ly ing
ĠS ee
S H
Pro cess
t ree
Con nection
S earch
al ity
ĠA m
H ow
Loc ation
ã Ĥ
Ġto day
ĠB ro
Ġc ou
ev en
Ġ row
Ġexper ience
lic it
Ġb and
Ġstud ents
Ġinclud ed
="../../../../ ../../
Ġwork s
olog ical
ist ration
Ġs uggest
d raw
he nt
lay er
A g
pl it
at tern
iv en
Ġh alf
artifact Id
Ġrele ase
b ased
Ġt w
> ,
Q L
V AL
COL OR
Ø §
Ġn ational
ar ies
li er
Ġbu ilt
ST R
ad em
D L
ue st
Ġoff set
Ġv irtual
t ilde
Ġsignific ant
row n
Ġcan not
ĠL og
200 5
bo ot
ver se
ĉ ĠĠĠ
% ;
D irect
Ġplay er
et ch
F O
Ġd eg
c ap
a ign
que ue
ad ow
ut able
ĠH ar
Ġto ol
Ġb ox
Ġwrit ten
Ġn amed
Ġth ing
Ġrefer ence
Ġbl ack
ĠN S
ic ip
Ġhe ld
Ġfield s
p atch
Ġn ight
ĠR em
Th ere
Wh at
at ural
t yp
ord in
\ ,
IZ E
ĠC reate
Em pty
Ġe con
ag ed
b or
Ġro ot
H ash
d ebug
F ont
" ))
Ġstruct ure
icro soft
. $
R ange
Ġhapp en
d rop
res ource
ĠL ondon
S cript
ĠA fr
Ġf all
ĠP e
Ġmult iple
Ġt reat
Ġb i
O pen
ore m
Ġb ar
ad es
Mod ule
Ġrem ove
ĠBrit ish
ĠR ed
Ġw ent
Ġ* )
ct x
group Id
mod al
B C
li ke
Ġsh are
al d
Ġvar ious
Ġin f
E nc
Ġnew s
Ġact iv
Ġp ur
Ġn eg
Ġunder stand
Ġsu ff
Ã ³
D ep
Ġs ing
oo se
" ));
od ed
ĠE ast
lic e
Param s
d evice
u a
Ġact ually
Ġde al
Set tings
il led
Ġwe bs
ic ient
ĠD on
r is
N one
Ġcont ains
ĠA cc
es e
ic les
Ser ial
9 5
U B
Ġcent er
pro p
val ues
Ġc ross
styles heet
ĠPres ident
Ġdec l
Ġt im
b reak
Ġag re
{ {
ĠS w
Ġv ert
a el
con f
Ġeng ine
ent ity
ĠAss ert
C opy
Ġgroup s
() :
Ġl ower
act ers
20 20
ĠAmeric a
ach ine
s q
file s
y d
Ġph ot
o on
Ġp ack
ur b
Ġfil ename
Ġd oc
Ġ Ã
Ġsim ple
Ġt ele
vent ion
ĠD ist
th on
Ġfunction s
ĠWh at
Ġt aken
ren ch
u el
ateg y
C L
ĠEng lish
E CT
AL L
ĠIn ternational
ĠM ich
Ġ> =
PE CT
f ord
7 7
Ġ` `
: (
Ġat tempt
Ġre nder
ĠS k
Ġo pp
200 4
model s
un t
anag ement
ĠU R
ip s
Loc al
OR T
Ġn ames
Ġresp ons
Ġacc ording
Ġrun ning
. )
Con st
Ġcomple x
5 00
H O
Ġf low
h ash
C urrent
Ġparam s
In st
Ġl im
Ġex ception
ĠS ub
ag ment
ug e
O ption
Ġr ate
n ap
Ġneed s
Ġsur v
Ġsystem s
P ort
Ġquest ion
ĠR E
Ġappe ar
ĠE m
W hen
ma z
t im
b in
r ics
ĠG roup
=" _
Ġsuccess ful
tr ies
AC K
D o
and id
s ign
e ature
Oper ation
Ġex press
ĠA c
er efore
eq n
ri ef
D ocument
ist ics
ĠD E
ug ins
Ġprodu ction
4 1
c s
Rec ord
Ġmark et
Ġun it
4 3
ĠJ apan
Ex pression
Ġact ive
Ġdet ails
un n
Ġf ace
Ch ange
Ġw ait
ch an
Ġover ride
o om
Ġent ire
Ġdescri bed
? :
Ġp adding
ĠO ut
ĠW illi
c r
anc ed
ub e
Ġper cent
T I
ic o
Ġcon trib
Des cription
) ]
Ġr ather
M at
Ġf ire
Ġd ig
Ġselect ed
b order
O M
Ġh old
Ġcompon ent
od er
ĠS an
D IR
Ġin fl
k ind
av or
f s
Ġhow ever
K ind
cd ot
P tr
j ust
C o
Ġro und
ark s
ilit ary
oci ety
al le
iss ions
Ġtrans form
y es
Ġb ad
ms g
Ġs ort
Ġle arn
Ġem pty
S O
ps i
ut or
Ġm or
; ->
Pro ject
d ist
gorith m
T ER
Ġhand le
Ġsol id
app ed
Ġc ases
Ġpub lished
Ġcare er
} [
Ġbeg an
Ġro om
eps ilon
im ages
add ress
air s
Ġcom ment
iz es
g n
Ġtem plate
Ġapp lic
Ġst ates
B r
Ġcomple te
sk ip
Ġpol icy
ĠE l
urs or
G o
Nav Bar
a ur
ĠM ore
ĠH er
ĠU s
back ground
St at
Int eger
S ession
is f
Ġright s
Refer ence
Ġ" \
w s
ĠEx ception
C D
Ġfr ont
s y
Ġcond itions
Ġtr aining
Ġc ut
doc s
er g
Ġs cale
Ġneed ed
f oo
k a
Ġad min
Ġw r
inter face
R el
ca pe
re nder
str y
Ġd at
200 1
ĠD em
comm and
Ġnec ess
Ġadd ition
ĠS T
Ġin fo
ĠR ef
Ġanal ysis
r s
ĠPh il
} _{\
ang er
am era
R ender
gr ad
Ġpop ulation
Ġl iter
wit ter
Pro perties
O p
a uth
Ġs end
Ġit er
W E
Ġhas h
ĠO R
ĠB G
Ġhigh er
Ġ ~
Ġmonth s
og gle
S chema
P e
Ġm oney
com ing
Ġh om
Ġwh ite
Ġfa iled
ĠC our
Ġg round
Ð° Ð
Ġreg ister
b efore
ä ¸
t ion
ix t
ĠI r
ĠCol lege
Ġat tribute
Ġc apt
8 5
Ġs cope
St ore
Ġarg uments
M atch
Ġadd itional
P R
ru pt
it te
ell ow
ul ly
Im pl
ast ic
Ġbeh av
M enu
as c
B ig
erv ices
Ġp rior
at ory
V ari
ile s
ar a
M O
Ġiss ue
el t
Ġs ession
if orn
ĠD i
Ġto ld
Ġaut om
} /
oun ter
ma ke
d elete
ĠS m
As ync
c lear
ul a
ri a
oriz ont
ĠC heck
Ġgr ad
P o
lo od
Hel per
Ġso ftware
du c
trans form
ĠLe ague
Ġcomp an
c opy
Ġg e
z z
ĠM od
Ġcol lect
Ġcor rect
ic an
ĠEX PECT
S im
L eft
or ge
Ġcre d
Ġ[ '
erv e
ach ing
Pro t
B l
S o
Ġinclud es
iction ary
Ġs em
us es
c ard
D own
Or der
Ġconsider ed
ick er
epend ent
qu are
st ack
Ġmem ory
ens ity
j oin
ri p
eleg ate
ounc ed
Ġal most
s cri
M on
Ġwrit ing
ell ing
Ġcurrent ly
Ġe val
9 7
ĠU K
in ternal
Ġp ers
Ġn ov
Ġch all
ĠF irst
ĠCent er
Ġpolit ical
Ã Ń
iforn ia
B O
s cale
Ġst ore
Ġf ight
a id
h ing
25 5
Ġex cept
Ġwho le
Ġag o
Ġ ;
Ġl oss
Ġconfig uration
ab s
ĠF rom
tt y
O m
ol ume
s end
Ġwe b
5 7
w in
Ġl ines
Ġpro p
Ġpartic ip
( :
P ass
v m
n es
sp lit
E Q
S A
Ġs witch
ĠThe n
S ign
om b
200 3
Ġreport ed
c p
Ġchar acters
ank s
Ġh it
ĠS ervice
Ġe lection
Ġloc ated
Ġr andom
================ ================
ĠH ol
Ġcl ub
ĠInd ia
p op
Ġd raw
Ġmeas ure
Ġmom ent
a ught
Ġt ax
ĉĉ Ċ
Ġobject s
Ġits elf
al led
Param eters
n ected
Ġw atch
Ġrel ated
oci ation
to String
ĠĠĠĠĠĠĠĠĠĠĠĠĠĠĠĠ ĠĠĠĠĠĠĠĠĠĠĠĠĠĠĠĠĠĠĠĠĠĠĠ
orizont al
m ing
Ġcom es
Ġcon sum
g reg
ad s
M y
in n
se cond
d est
Ġs creen
S k
Ġg raph
en v
foot er
Ġa verage
Ġiss ues
ĠL aw
Ġf ood
}} \
N ames
Ġ ign
R A
IN E
Ġun ique
h ood
Ġw ord
ynam ic
i ation
ĠBG COLOR
ac cess
web kit
I ter
ĠW ork
ic ult
it ect
Ġw ords
' m
ur i
Ġj av
erv ed
Ġ ill
Ġwebs ite
Ġdo ing
ĠD ec
Ġv iol
P os
Ġa ch
C an
Ġt akes
Ġto ken
D ir
end ar
C A
c lick
Ġex pression
ig r
Ġdes cription
' >
led ge
ĠO pen
H ost
'] ,
8 7
ad o
Ġp aper
ens ive
ex port
c irc
w idget
u it
ĠI I
Ġlook ing
C P
Ġfor ce
ĠSt ud
est amp
ict ure
Ġse lection
St ack
t ypes
equal s
G e
ERR OR
Ġarg ument
T im
Tem plate
ĠS en
Ġim prov
ple te
w ide
el ves
iv il
as ic
ĠP re
med ia
T itle
Ġqu ant
Ex p
)$ .
s ession
p g
d en
Ġpart y
m ode
S L
AT A
U se
Ġact ual
id ay
Ġde ep
text bf
ĠJ ust
ĠT ime
ĠT V
ĠE rr
Ġt aking
Ġcon v
Ġbeh ind
s ystem
OR D
ĠGo ogle
G ET
Ġn amespace
boot strap
at ives
_ ;
at ur
Ġs s
App lication
ynt ax
ill ing
pecial ly
b b
Ġin ternational
U RE
h over
or ing
Ġus ers
ĠC ON
Ġ( "
B A
Ġt ree
Hand le
ot a
& #
b m
T ool
Ġst ation
Ġcons ist
Ġw or
Ġund efined
9 6
D D
Ġfor ward
ĠDav id
Ġc ache
8 6
Ġcond ition
Ġsec urity
=" /
Ġfollow s
Ġw alk
ĠT HE
ĠTr ump
t hen
av y
In valid
Ġpass ed
Ġv ill
Ġperson al
X ml
Ġconst ant
ound ation
R ight
Ġrec ogn
i qu
om y
## #
A meric
pon ents
ind ing
Ġappro ach
( *
Ġdistrib ution
v as
Ġreg ular
ĠD irect
h an
Ġus es
ĠC r
ĠN ame
= {
ĠA L
ampion ship
D evice
Ġrec ent
Ass ert
ĠP at
He ad
ĠN or
Ġs ex
Ġallow ed
ch i
Arg s
we ight
pl ugin
L et
Ġfri end
Ġoper ator
Ġprov ides
B ut
yc le
Ġpar se
Ġd elete
ĠĠĠĠĠĠĠĠĠĠĠĠĠĠĠĠ ĠĠĠĠ
Ġe cho
ic ons
s ite
O K
G amma
AN D
Ġpat tern
anc ial
SE T
Ġs pect
Ġth read
ar ter
Re ader
Ġs ound
b orn
Ġget ting
^ *
ĠSt reet
v ents
m ore
N on
5 6
ĠRep ublic
M ult
> .
Ġp ick
ĠN e
Ġwho se
Ġnot hing
ang es
c at
f g
Par ser
ĠE nd
st ore
v ector
c ustom
E M
g lobal
Val ues
c ert
land s
L e
Ġst and
| -
d irect
Ġlik ely
ro te
hand le
dis abled
af e
ĠM ap
V ert
Class es
id a
sq rt
Ġsol ution
o e
Ġbr ing
ĠS ome
yn ch
Ġex act
h r
P arent
Ġin line
quire d
Om ega
ĠCal ifornia
Ġare as
w ner
Ġitem s
Ġcont ainer
Ġim m
ĠI S
ain ts
Ġestab lished
> ();
R ev
Ġpres ident
sub section
C ore
ex ports
m ission
Ġg re
f ony
ook s
Ġs ym
! !
V ector
ĠP ort
Ġv ot
' ve
C S
Ġs on
ĠBl ack
c over
Ġart icle
Ġrelation ship
M e
ed it
-- -
re q
Ġle d
Ġindu stry
ĠC re
ĠD ate
Ġcont act
OR M
all ow
Ġup on
F alse
Ġl ib
ym fony
200 2
ĠL et
Ġon line
R ect
ĠRe ad
Ġl ost
eqn array
5 9
ĠD ay
use um
Ġd atabase
Ġout side
ĠTr ue
Ġqu ick
re place
ir it
Ġfil ms
Ġset ting
j o
Ġpl atform
Tr ack
l or
ps ilon
Ġh ours
Ġfre qu
ann ing
Ġm aint
ĠP ublic
err y
v ec
param eter
H as
D F
ĠGener al
Ġreg ard
Ġchang ed
AT H
P L
c ial
A re
it ude
I con
Ġmat rix
Ġst age
con nect
it ch
s ql
enc ed
d s
ĠP al
Ġprof ession
o ader
Ġ} )
Ġcompan ies
E ng
Ġany thing
wo od
Ġcamp aign
Ġby te
Ġpro te
Ġben ef
cl oud
B uild
ex ception
-------------------------------- --------------------------------
` .
Ġn umer
Ġbut ton
Q ue
he lp
ĠF rench
Ġhe ader
ro om
per ature
Ġra ise
C lick
Ġs cript
s uccess
A pi
m aterial
8 9
ĠC ouncil
ĠInd ian
Ġcon tract
Ġdef ine
ĠA nt
Arg ument
By tes
Ġsupport ed
ĠL oc
Ġs us
Ġm ot
Ġmanag ement
Ã ¼
-- >
Ġin c
he m
ed ef
Ġset s
Ġm ind
ers hip
set tings
Ġhe art
Ġep is
D ebug
ag o
j ection
G E
Ġeff ort
Ġh istor
ct or
ĠJ SON
depend ency
al i
d i
p ing
W riter
Ġpro gress
z er
ĠP ost
Ġpop ular
M M
p ed
ĠL O
D om
L ong
Ġal t
f ocus
for ce
a fter
P S
Ġcon nect
ĠM at
ĠR un
Ġh on
T S
Ġspec ies
ĠP aul
Ġ' /
f il
Ġgener ated
Ġ$ {\
ĠAustral ia
Ġcent ury
ache s
arg ument
N um
itte e
S ION
b on
M ar
Ġin side
ĠF orm
Ġop port
Ġch annel
ĠHe alth
frame work
b oolean
d el
ut ive
Ġtechn ology
D raw
ra z
ĠB en
v irtual
i os
Test s
ir l
En abled
Ġs cal
g u
Ġv ict
ver y
stit ute
if orm
ic ate
Ġcal cul
pan el
Ġs old
Ġby tes
Ġun signed
Ġh ot
as et
j oy
rec ated
ĠM et
ĠCh ina
} "
Ġtrans action
Ġprob ably
V er
ad min
Pol icy
aw s
Ġan sw
EN D
ĉ Ġ
y a
ĠE ar
f n
Ġide a
Ġsat isf
ail y
n ormal
ĠJ ames
D e
Ġis n
le ep
Ġinv oke
pl ugins
by te
im ated
com ponent
Ob j
r ange
en a
3 00
Ġo s
d ouble
c ur
annot ation
Ġinfl u
ro s
r d
call back
Ġf em
u ate
et ime
h ad
C R
p adding
Ġass um
5 8
com es
Ġann ounced
Ġrel ative
it ing
; <
h igh
ĠEng land
Ġbro ad
Ġpart s
Ġv ers
ap se
B ody
Ġvari able
100 0
leg al
eg ment
em ph
^{ (
rap per
Ġr ule
Ġhim self
Ġ+ +
str aint
block List
ĠĠĠĠĠĠĠĠĠĠĠĠĠĠĠĠ ĠĠ
Ġa ud
col l
Ġimp act
Ġother wise
Dec l
m ail
Ġdirect ly
Ġwe ight
p ub
Ġa void
und er
Met adata
b urg
m as
ag on
n ov
Ġpol ice
)$ ,
Ġs il
D elete
Ġn et
ĠHT ML
& &
}^ {\
' ll
Ġex ists
P A
S l
Ġp ackage
ash ington
Ġlong er
ar io
Ġm id
ĠIn c
l n
Ã ¤
up le
t oggle
s f
ĠĠĠĠĠĠ Ċ
Ġexist ing
ĠDep artment
nc y
M eta
Ġappro x
app lication
Ġlead ing
ĠS um
out e
Ġmat ter
ĠO f
as ons
Ġdisc over
P ackage
P H
ĠCan ada
ĠU se
FA ULT
ĠRob ert
199 9
ul ated
ĠH el
N et
B oolean
ĠK ey
Ġv ector
By te
Ġat tr
ub y
clud e
in ing
Ġs ense
Ġbel ieve
` ,
Ġset tings
all s
Ġj son
he t
CT ION
A p
ĠAr g
en um
inc ip
Ġread ing
p ite
Ġst re
Ġex tra
ĠG od
Ġw rote
av ed
ĠTh om
J ob
C re
proto buf
P RE
f ill
R ed
str ict
Ġres ources
Ġes pecially
F eature
ĠEurope an
M ock
aut o
rom e
if est
c ing
Ġc ast
4 00
a o
ter m
Ġf ather
Ġoper ations
' .
y e
ĠI O
Ġd am
i pe
Ġf amil
f ect
Ġdirect ory
im s
Ġet c
Ġseem s
reg ister
ins ert
act or
ol ar
Ġ" /
agn ost
D ialog
at io
Ġcom ing
Ġassert Equals
] ]
ed eral
Ġplay ing
Ġf un
v are
TE D
u ous
s cal
D oc
Ġcou ple
r angle
Ġlist en
ri an
tr ack
h i
ele br
ee k
Ġpos itive
ĠM al
pr ing
Ġtry ing
I X
ĠIn st
y ing
Ġdiff icult
Ġim medi
AG E
Ġt ro
Ġro ck
ĠAr ch
e es
sp ital
ĠV alue
( -
5 1
Americ an
or ph
Ġf lo
Ġincre ase
ber g
d ot
R oot
Ġt our
co q
Ġre ve
C al
R ule
Ġn atural
Ġca use
7 6
b ert
Ġallow s
Ġproduct s
ĠM ath
) =
Ġs ens
ie ce
__ (
Des criptor
Ġmov ed
a iled
Field s
co in
St orage
M D
IT Y
f ort
Ġsur face
Ġpr imary
x is
ĠR ich
ern el
field s
s ort
wh ich
c ategory
ĠN OT
oper ator
b and
SS ERT
ĠA ut
em ail
Ġobt ain
Ġqual ity
Ġevery thing
m ock
Ġwork ed
ĠM r
Ġfinal ly
f ull
Ġcont ain
ĠN ow
ify ing
Ġc andid
e al
Ġst ar
Ġgo al
ĠD et
st on
ĠM art
Ð »
c i
N E
nap sh
Ġoff ice
\ "
ĠM ag
ĠM ac
f ree
h ere
Ġm sg
Ġproble ms
id ers
Ġ< =
rom ise
con nection
h older
Ch anged
C ustom
Ġcon tr
lang uage
Ġprodu ced
Ġim ages
c pp
Ġc lean
' ))
c ar
ĠO per
Ġro t
$ (
Ġqu ite
Ġr isk
omet ry
ĠC up
ant ic
20 21
Ġz ero
W S
E ach
Ġab sol
Ġre v
ĠC ons
Ġapp ly
Ġt en
Ġstat ement
Ġnot e
com ment
v ille
ist r
Ġ\ ,
="../../ ../
ip eline
Ġcon struct
"" "
Ġcon duct
} =
ĠB ase
M ark
Ġs aw
right arrow
ĠD an
TE ST
Ġs ave
Sh ow
Ġb orn
ĠQ ue
OD O
Ġsequ ence
Ġask ed
ĠR iver
at tribute
Def inition
Ġho pe
in line
ĠB el
Ġem ail
Ġmin utes
tern et
Ġne igh
Ġ( '
e ch
Ġsim ply
Ġspe ed
Ġd ied
p are
Ġn orth
[ \
{ }
Ġsome one
Ġserv ed
m es
ra el
Ġdist rict
ĠJ ack
. \
Ġl iving
ĠErr or
Ġf it
M an
Ġso on
Ġj oin
v an
ĠM or
key s
pass word
Ġa ward
ĠU ser
ist ance
5 4
Ġeduc ation
Ġconc ern
Ġpat ients
ĠDist rict
Ġl ock
Ġthe ory
Ġnum bers
An y
Ġv eh
Ġap i
i ences
vare psilon
ri ate
cent ury
ĠG erman
Ġlevel s
N etwork
Ġerr ors
Ġd irection
ĠPro ject
Ġjav ax
Ġdec ision
5 2
ĠUR L
Ġm ilitary
ill a
G B
eg raphics
Ġmax imum
includ egraphics
ynch ron
Ġro ad
pro of
ar p
ĠH o
HT ML
c md
Ġcorrespond ing
oun try
") ]
Ġme et
re al
Ġin j
Ġcell s
Ġdevelop ed
T C
st ep
ĠN ote
over line
wh ite
Ġs ymbol
Ġn odes
@ "
Ġsh all
ĠM o
Ġre pl
Ġ ensure
im ately
Ġclos ed
Ġr ules
ple ments
Ġexp and
} ).
key word
Ġj o
ĠRes earch
A m
H istory
con trib
In s
Ġl ibrary
ul ate
9 8
Acc ount
Trans action
ĠP y
Ġ( *
al ysis
item s
D I
b ound
er c
ĠM em
add r
Ñ ĥ
in ated
Ġcon vert
ar ily
ĠDef ault
N A
Ġcomp ar
con s
Ġb al
ĠM ethod
ĠO ver
ĠTe chn
Ġme chan
Ġdem on
Ġst aff
b olds
ixt ure
ou l
Ġnecess ary
bolds ymbol
X X
HE CK
ul ations
ĠĠĠĠĠĠĠĠĠĠĠĠĠĠĠĠ ĠĠĠĠĠĠĠĠĠ
ĠM usic
ĠCour t
Ġwant ed
Dis play
est ed
Ġr ace
ĠR oy
Ġ icon
Ġeffect s
w rit
On ly
ĠC O
Ġget s
ĠE vent
D i
ms elves
ign ment
Ġinv olved
ĠW ashington
Ġpre c
x x
iev ed
Ġde ad
ĠD iv
E l
Result s
J ECT
Ġtest s
ĠA re
} ),
sh ort
ick et
KE Y
Ġth us
Ġen joy
m argin
J SON
Ġle arning
Ġre comm
un signed
Ed it
uf act
in itial
ĠN O
5 3
ri al
M ENT
Ġmanag er
R et
Id ent
Ġpre dict
Ġw oman
Time out
pro duct
Ġbo ard
est ival
* )
uck et
=" @
L ock
Ġmod ern
ge q
ĠO b
Ġre place
en ge
print f
Ġ ess
Ġdirect or
Ġoff ic
v ant
p ay
Ġmov ie
du le
Ch annel
Ġthe mselves
k er
ĠR el
ĠF il
Ã ¶
ap os
ĠG reen
S D
ĠA ng
in i
Ġeas y
Ġ â
Ġab s
ĠC opy
ĠMich ael
Ġj ud
Ġm ock
Ġwrit er
he st
Ġhe l
Ġstart ing
Ġdist ance
ind er
Ġm ention
L ambda
W idget
Ġf ixed
inst all
Ġed ge
drop down
reg ion
ook ie
Ġtr ansport
Ġs outh
F loat
Ġw allet
S um
S cope
FI LE
and er
Ġh tml
e in
al ed
T ab
ĠO ther
li ance
Ġtem perature
import ant
ĠP ress
Ġinstance of
B R
; /
ĠA N
Ġrec ently
p ers
por ary
ĠWh ile
Act ive
//////////////// ////////////////
Ġgrow th
Ġdes igned
Ġcall s
Ġc ult
ĠCh urch
ĠG erm
her it
Ġst ack
ang uage
g in
Que ue
ĠPart y
g raph
ĠGe orge
ou b
em s
D atabase
Ġp air
Ġm ount
Ġbook s
Ġobt ained
Ġtreat ment
Ġcoun tries
gr id
ace book
st at
ĠWh ite
Ġed itor
Ġrece ive
D A
Ġsh ape
=" "
Ġser ial
Ġsa f
S he
N ow
Ġw est
Ġwr ong
8 2
Ġcomp os
B it
Ġperform ed
ĠO ur
ĠC ong
w est
ĠL eg
ĠAss ociation
l ines
Ġd b
n ab
y r
Ġst ay
Ġfe ed
Ġcour t
S end
I E
Ġanal y
ill er
ĠV iew
ĠF ield
Ġclass es
Ġf ast
Ġtrans fer
Ġgiv es
Ġcon sole
Ġc ard
ĠY ear
ess or
var phi
Ð º
th at
Ġal tern
Ġev idence
[ :
overn or
Ġfri ends
h s
atal og
Ġl ayer
ĠB ig
ĠR oad
A c
Ġbe aut
ĠS ince
im pl
put e
ĠI P
an o
F T
ut f
us ion
Ġlate st
evelop ment
fe ature
In itial
mod ules
m ove
ol ic
d x
is ation
Ġp ain
ĠS am
Ġthrough out
ix el
Ġdistrib uted
ĠL ong
z a
ĠDem ocr
T ABLE
Ġline ar
ĠFr ance
In it
g an
ur t
st op
sp ring
I B
Ġm other
Ġtele vision
Ġestab lish
P erm
ĠA ND
hent ication
TE X
M sg
v est
M ember
Ġ ),
P ub
Ġcomp ared
Ġs low
_ ->
==== ==
at ively
Ġact ivity
anc y
ĠV AL
Ġe lem
Ġd ro
Log ger
Ext ension
l am
ou thern
st ats
ol ver
Ġ ir
Ġcomple ted
. *
ic i
all oc
Ġh y
Ġg ave
16 0
Ġb tn
av er
id ents
8 4
p ool
not e
th read
M ore
Ġsh ared
Ġm us
om a
ĠSc ience
ĠB uild
25 6
Ġext ension
Ġdef inition
Ġp m
Ġfl ag
type of
( !
sh ape
() {
}, \
it ar
Ġc op
ire s
j query
ev ents
ut ing
ly mp
ĠT ext
Ġle ave
Ġlarg er
d ates
. ~\
ele ction
Ġcon cept
Ġus ually
Ġb ottom
assert Equals
AR Y
Ġpre tty
ï ¼
Ġinvest ig
Ġtr avel
. }
sc roll
se y
ĠT om
Ġd ark
n umer
RO M
Ġcont aining
Ġbirth s
ist an
n one
"> &
Ġstud ies
ĠY our
Ġ> >
Ġb re
Ġdom ain
199 8
Ġph ase
ĠPro gram
ad ian
) ^
ĠA lex
ang o
Ġc ref
ĠWilli am
-> _
LO G
c os
mer cial
j ob
ĠSh ow
Ġmiss ing
_ ,
th rows
ig ration
Ġfollow ed
Fl ags
Ġre pe
Ġbehav ior
ĠP o
ĠT ex
ç ļ
anc el
A uth
at ically
r adius
art s
Ġc ore
as ure
ĠF alse
pp ed
Med ia
VER SION
7 2
Ġexper iment
Ġimplement ation
Ġvol ume
Ġcompon ents
Ed itor
Ġcent ral
Ġm iddle
fr ak
Direct ory
çļ Ħ
s che
Ġth reat
ĠA ward
ed y
n ames
is ions
Ġdescri be
S ymfony
ĠC all
P ORT
Sup port
b i
if ies
col lection
ĉĉĉ Ċ
m itted
ines e
__ __
cont roller
S ymbol
ick s
Ġrespect ively
~~ ~~
Ġdemon str
Ġn or
E O
Ġpro posed
() ));
P ool
ond er
ĠL ou
Ġn g
Ġsc en
Ġch arg
Ġte ach
t ip
ĠIn stitute
Ġevery one
By Id
ress ion
r or
as y
Ġnov el
Ġp y
ts d
Str uct
)) )
ĠComp any
Ġstr ict
ĠD el
napsh ot
ann er
Item s
i ate
ing er
Ġkey s
ent er
ĠB er
AC E
Ġind ependent
Sec urity
ens es
ĠJ ew
ĠI d
Ġpre vent
assert Equal
Ġm is
Ġst orage
Ġteam s
ph one
ev e
Ġsign al
", "
er ies
Ġr ank
Ġf avor
pr imary
Ġdiffer ence
Gener ic
s ample
Ġan g
7 8
ĠRev iew
or ter
Ġst ri
s ave
ly ph
s cription
Ġ er
Ġinteg r
ĠV er
)) );
pro file
Ġpr ice
Ġc ulture
L P
b al
ro t
Ġpro per
rec ord
Ġw ays
ĠF re
Ġgo es
L S
ass ets
Ġtr ansp
s chema
Ġopen ed
MA X
ĠF in
ĠB est
á ĥ
Ġ[ ];
Ġa uth
tx t
wh ile
Ġto wards
Ġleg al
Ġal loc
clus ion
sec urity
os itory
ir ing
ĠFr anc
ĠH ere
In ternal
pos itory
. __
maz on
in ate
Ġphys ical
e cho
Ġ% }
Ġhand ler
Ġrem oved
Ġcon struction
ple x
F C
Ġquest ions
w ik
ĠJ er
ĠAir port
ain e
Ġst e
Ġtrans ition
Ġset t
Ġdeg ree
had oop
Ar t
Ġs n
Not Null
=" ">
U ID
Ġinter view
iz ations
w ell
Ġc elebr
] :
Iter ator
M OD
I MP
Ġopt im
Ġarch itect
l as
L java
m en
Ġro ute
AD D
ĠAn n
ĠA R
L oader
Ġfact or
Ġsign ed
S IZE
Ġg as
Ġsc ene
s creen
n ce
on a
i us
Ġfin ancial
in ct
et te
EX T
ĠB ay
ĠW indow
pro ve
Ġweek s
ĠĠĠĠĠĠĠĠĠĠĠĠĠĠĠĠ ĠĠĠĠĠĠĠĠ
ish ing
Ġeffect ive
199 0
Ġdis e
Ġ[ [
Ġpro of
Ġal though
P ATH
Ġl ack
Go ogle
++ ;
6 8
Ġdel iver
V ar
ĠC ode
in y
Ġh um
" `
Pro xy
ĠH all
m aster
Ġe ast
g it
oth ing
ĠCh ampionship
ĠV ersion
Ġrel ig
or ation
ot ed
select ed
b ot
r ule
am ing
log ger
X ML
loy ment
m i
Ġ{ };
Ġ$ {
duc ation
Ġear lier
P T
Ġent ity
lang le
Ġme eting
point s
Ġsay ing
Ġc lick
ĠĠĠĠĠĠĠĠĠĠĠĠĠĠĠĠĠĠĠĠĠĠĠĠĠĠĠĠĠĠĠĠ ĠĠĠĠĠĠĠĠĠĠĠ
F R
ib ly
ĠIs rael
Ġgener ate
Act ivity
Ġt ouch
on ic
Ġcoun ter
', '
ĠF unction
Ġw ife
Ġb all
ent al
ĠM iss
et t
Ġm ut
F IG
R est
ag ram
S U
Ġsec ret
az z
Ġv s
ast e
M ain
m anager
a ud
L IC
Ġl ives
P AR
%% %%
Ġat tributes
math frak
c ut
ov ers
ann ed
Ġpract ice
Ġpro file
Ġprofession al
() ).
Ġco ordin
h line
Ġapp lied
ĠV ir
Ġs ources
Ġlim ited
T e
7 9
Ġh or
pro perties
Ġacc ur
Ġvill age
ĠG old
Ġvari ables
. '
es h
Ġp urch
Ġor d
str aints
ific ate
Ġf unc
6 9
D T
Ġr adio
Des c
ĠMed ia
ĠP ub
U LE
ĠF ore
ic ated
ock er
ĠM odel
ree k
h aps
Ġdr ug
urre ncy
Ġlarg est
ur a
ĠM ary
ĠM us
Ġa li
ĠF ig
NavBar Cell
B efore
ĠK e
ĠEx ec
20 22
ac c
Ġcap ital
ec ause
l g
C lose
Ġsc ore
ĠIs land
f aces
ig en
Ġprevious ly
ro ad
ĠT im
not ation
Pr int
ĠGerm any
Ġl o
Window s
ous ly
r ay
Ġdest roy
Ġch oice
P op
el li
! [
ri end
Ġn ative
Ġpresent ed
J ava
f ly
fl ags
Ġ Î
ĠN ode
Ġext rem
Con f
Ġmult i
ĠC he
ac count
Ġe ight
ĠO ption
P anel
6 3
ĠT or
dom ain
Re ce
Ġknow ledge
Select or
h ome
ĠUn ion
f amily
Ġcl uster
re y
Ġ Ø
Ġp lease
Ġp ush
P attern
D S
Ġh ous
k g
h y
Ġbegin ning
BU G
l ers
Ad apter
ex ternal
iter ator
n etwork
En um
F ound
com ponents
h old
Ġor igin
ateg ories
ĠH and
A uthor
ron ic
we et
Ġinterest ing
r b
form s
Ġn ature
ĠT op
SC R
Ġm ale
à ¸
Ġf ully
ĠSc ott
F L
und ay
h ouse
Ġab ility
ĠB usiness
Ġper fect
ak ers
F unc
pl ing
Gr id
p df
Ġal gorithm
Ġt ab
pe ed
Ġb uilder
Ġincre asing
ul er
ensure math
N G
ĠĠĠĠĠĠĠĠĠĠĠĠĠĠĠĠ ĠĠĠĠĠĠ
ĠAfr ica
b ad
Ġrequire s
f ail
Ġrun s
ð Ł
Ġsc ient
ĠCon fig
ĠUS A
m id
Ġpart ial
k y
R AN
ĠPro v
re p
res et
Ġbas is
F ull
Ġun less
To String
D el
Ġs plit
Ġh idden
.... ....
Ġsong s
Ġd aught
tool s
) ">
rel ated
Ġ( _
Ġbro ught
) /
j a
ĠT able
lo ok
Ġun its
res ents
S w
N ULL
Ġins ert
app a
W A
Ġst ories
'] )
Ġin sp
b our
ĠM A
Ex pr
ĠIn itial
Ġschool s
199 7
ĠS al
Se cond
' d
E C
UT F
ific ations
ion al
ĠS ur
v ed
sup er
ĠH istory
Ġtr ade
& \
in v
result s
Ġy ield
B rowser
D C
app ly
Ġresp ond
Ġcontin ued
E vents
Ġcomput er
P ack
Ġproject s
ag er
Ġa wait
ĠM ad
et ic
des c
az ine
ĠM ex
Ġequ ival
In v
by tes
Ġpo inter
am i
Ġpl aces
Ġrem ain
Ġb ank
Ġbas ic
Ġappro p
t ely
Ph i
er ation
S ER
op ed
Ġm icro
Ġ ip
f it
b rowser
ĠT ur
Ġturn ed
File s
ĠTex as
Ġd ensity
}} $
} </
hand ler
config uration
k i
S Y
ĠM ount
er ial
Ġ ×
Ġatt ention
Ġk illed
ĠM anagement
G S
h orizontal
Ġa ctions
ĠC am
ĠB ook
Ġgre ater
m iss
Ġcom ments
pr ise
ĠT em
ĠL ife
Ġup per
Ġp ark
Ġpl ant
Ġint eger
ĠSt ar
ol f
ĠAl so
ĠCl ub
Mat rix
Ġm essages
sh all
Ã §
Ġon es
Ġoption al
Ġsp ent
ĠT ODO
Ġbu y
iver se
_ (
Ġb us
Ġrepresent ation
Ġepis ode
Ġchall eng
Ġ util
Ġc y
IP T
6 2
######## ########
ĠSe ction
Ġprot ect
O ST
C I
Ġsh ot
Prot ocol
ig hest
Reg ister
ell ig
ĠAcc ording
os en
Ġs even
c b
9 4
ed ge
nab la
Pro p
Ġstud ent
Ġgr ant
? âĢĿ
or a
os h
Ġin valid
are a
ĉĉĉĉ ĉĉĉĉĉ
ĠSm ith
j pg
u ated
ĠW il
199 6
Vari able
Ġ{ '
ĠN etwork
ann els
ĠU N
P ay
Ġ= ========
ĠUp date
ĠG ets
eng ine
ĠC amp
Ġant i
Trans form
Ġth erefore
Ġapp oint
Ġfin ished
ĠThom as
At tributes
ful ly
Ġany one
[ $
id x
ov es
ch annel
resh old
Ġref lect
Ġ" "
b ra
Ġw orth
Ġstre ng
ON E
h idden
Ġex port
l imit
Ġs en
ĠChrist ian
Ġj ournal
ĠP lay
T erm
d ing
ut er
Ġf air
Ġrecord s
Con d
Ġcre ating
Pl ugin
ĠT ask
Ġim plements
Ġch ain
Ġ io
ĠSup er
Ġup dated
ir med
7 4
ic ago
Element s
Par se
ld ots
Ġo wner
Ġen abled
Pro file
Ġincre ased
St ep
un icip
ist ent
Const ants
ĠS ociety
B S
Ġt err
ang ular
; \
Ġparent s
{ -
6 1
Ġsc ience
k o
met adata
Ġm aster
Ġmean ing
Ġf n
struct ure
9 1
Sc roll
e ach
ars ed
is l
d ed
s ur
ĠF oundation
D on
ident ifier
Ġw ide
eff ect
ĠT H
ĠCent ral
Ġsh ip
ĠAr my
Ġp refer
S QL
Ġser ious
get Name
it o
ential s
Ġd ebug
O UT
alle l
re es
Ġwas n
Ġbe comes
ul y
LE CT
S R
tr igger
Ġinst it
I ST
t otal
Ġjo ined
at re
Ġxml ns
Pe ople
ab ilities
ĠF acebook
Ġintrodu ced
IN FO
F ail
Ġobserv ed
cont ains
sub set
p refix
Ġp ool
Ġb g
ĠCol lection
Ġc ivil
od ay
web pack
et imes
Ġbl ue
r um
Ġex hib
ĠAs sembly
Stat ement
ĠB O
text it
Ġf ix
and ra
Ġd rop
se m
Ù Ħ
Ġg reen
Mem ory
ĠW ed
g s
atur day
all ery
Ġpub lish
Ġimmedi ately
Ġb rowser
an i
} )$
Ġg un
ĠR ock
Ġrem ember
ĠG reat
r ine
Key s
tab s
k w
Ġv oc
Run time
ĠR oman
it a
D ouble
12 3
ĠH ill
Ġoff ers
Ġdec ided
Ġmat ches
Aut o
ĠL android
Ġpr iv
Ġapplic ations
Ġread y
equ iv
ot es
oun ce
ĠL ib
ar ation
erv ation
Ġun known
Ġcon nected
Ġp anel
Ġdig ital
Ġfail ure
ĠO lymp
8 3
k ing
ans ion
Ġent er
ud get
ĠG overnment
ĠM er
i ated
Ġmed ical
al ian
Ñ ı
sum er
w id
Ġrec over
Ab stract
or ida
Ġrem ains
Ġm ur
ĠRuss ian
gr ade
D est
Rep ository
Ġinv olv
ad y
RE AD
Ġdeterm ine
Ġre ports
cre te
Ġsum mer
Ġw aves
ĠS O
g est
| |
D uration
Ġenc oding
Ġpl ans
Ġre q
as er
Det ails
33 33
L ayer
Ġle ader
S ocket
ĠIO Exception
Ġchar ge
) ).
Ġn om
s witch
9 3
Ġtype of
ĠA ction
t mp
Ġpass word
r ase
S ync
Ġd ed
S pace
\ %
it iz
Ġdr iver
org an
ed s
198 0
Ġhigh light
Ġman ufact
\ !
h space
ĠCh inese
j ar
k ens
im ents
Ġv an
N N
Ġexact ly
Ġsh oot
st ar
Ġuse ful
Ġcomple tely
ĠCol or
W rapper
pl atform
ĠE v
ĠFranc is
ĠAc adem
Ġcomm it
Ġo k
if ul
ĠB ill
S uccess
G raph
Ġc ategory
y an
h av
Ġtr ain
ff ect
Ġre ach
Ġlook s
Ġm achine
H ome
8 1
F il
Ġdet ail
Ġabsol ute
Ġfor ces
Ġfor ms
9 2
sh adow
it able
H R
ĠÂ £
ĠV is
sh ire
Ġd im
u ing
Ġtest ing
C ar
å ı
Ġp en
Ġv oice
ĠRoy al
ĠFr iday
ĠSt ep
N ote
ĠĠĠĠĠĠĠĠĠĠĠĠĠĠĠĠ ĠĠĠĠĠĠĠĠĠĠĠĠĠ
il ation
Ġsmall er
w ild
ĠCar ol
olog ies
test s
C HECK
ĠM useum
h ide
ĠMin ister
Ġt x
ĠPro f
Ġex ternal
Ġw ild
Ġopen ing
st ant
d im
at tributes
Ġactiv ities
F ailed
ĠM ax
IN D
fr ont
ic ol
se ct
ĠP M
Ġexp licit
M apping
ĠT own
Ġecon omic
at o
ĠGr and
Rem ove
Ġnear ly
riter ia
Ġf igure
Ġas ync
W N
Ġad apt
Ġim ag
art icle
sy ch
ĠSer ies
c are
le v
L L
ent y
Ġl oop
199 5
Ġorgan ization
Ġbe y
Ġquick ly
Ġg old
m utable
ĠG ame
f c
Ġparticular ly
ĠW ill
pro ps
n il
Ġsom etimes
N OT
child ren
Ġph one
ele ase
ĠC ap
C or
m box
U D
Ġdef e
nav List
prot ected
I A
sv g
ĠRes ource
= >
Ġex am
Ġn uc
Ġla unch
ĠM ost
Ġdown load
Ġbey ond
7 1
Ġp ages
ser ial
en ed
fil ename
Ġch urch
Ġr g
d ialog
it ation
G lobal
pre t
d y
ĠM essage
Ġfamil ies
Po inter
re lation
ĠOff ice
Ġopp os
) "
Ġrecord ed
S cale
Ġim prove
Ġmov ement
ant a
Ġin cor
ĠAustral ian
Ġex c
O ther
th m
Ġex pert
Ġprot ocol
Ġen able
R oute
ĠS ervices
ĠB re
at ible
ĠF inal
ĠG en
h ol
Ġhand s
on ym
Ġappe ars
r uby
Ġm enu
Ġr ail
ĠCh ild
Ġmin imum
li br
ĠV ol
Ġneg ative
) ),
-------- ----
ĠAn y
Ġover all
B P
r ate
du ction
ĠN umber
Ġc li
Ġag ent
Ġsh ift
ĠT imes
Ġp ul
Ġident ity
ĠJ ava
Comm on
7 3
at in
i ers
Ġblock s
Ġmov ing
pect s
Ġ ul
Ġf elt
IT E
Ġrequest s
Ġp le
ict or
Ġcrit ical
ĠFr ank
ĠM icrosoft
Ġd imension
om s
ĠĠĠĠĠĠĠĠĠĠĠĠĠĠĠĠ ĠĠĠĠĠĠĠĠĠĠ
$ /
Ġansw er
d p
ĠP aram
Ġo il
ask et
Ġprogram s
( __
Ġcon structor
ond ay
Ġsit uation
S ingle
con n
a ight
ĠCopy right
Ġappe ared
Ġvis ible
ĠH en
ĠReg ister
Ġs al
Ġs ports
ĠM ont
FF FF
IV E
Ġeas ily
Ġch oose
S ample
and a
Ġtrad itional
Ġsign ature
Ġgiv ing
ed itor
t ags
ĠT R
IC E
M B
ĠB i
Ġex tract
iv ery
Ġhigh ly
Ġre li
">< !--
P lay
ens ed
ĠDirect or
Ġr ap
ĠP eter
wrap per
ĠB ack
N odes
ĠComm ission
Ġh arm
j unit
head ers
T otal
aj ax
und red
Ġre ached
k appa
b ing
O pt
Ġdr ive
Ġpur pose
Ġj Query
=" ${
Ġdev ices
Ġ" ,
Ġcon ver
12 8
Ident ifier
col Last
ĠG ood
typ edef
N T
def ined
Ġpro ced
Reg istry
clus ive
\ |
Ġf ans
ĠR et
Ġlet ter
s ymbol
Ġsa fe
prov ider
Ġb ur
ri er
ist ant
o ch
al a
C ategory
ĠS witch
Ġp ull
ĠK ore
Ġstr ategy
Ġprodu ce
\ [
Pro duct
ĠU nder
urre d
ac le
ĠS unday
TEX T
ot imes
Ġgr and
ĠAfr ican
serv ices
> ::
ig er
ĠS ing
Ðµ Ð
Ġpart ners
ĠE ducation
H igh
ven ue
ST AT
line ar
Ġsup p
Ġre tr
Ġdep th
Ġm ix
? ?
cri be
Ġbel ong
b rief
ĠBo ard
Ġart ist
Ġem b
cit ep
Ag ent
vari ant
Ġtr igger
v ey
Ġread only
S ince
arn ings
Ġopport unity
Ġ= ======
Ġcall ing
ĠM el
F ind
ro le
ĠJ ose
At tr
SCR IPT
197 0
Tr ace
âĢĿ .
ĠVir gin
P P
ĠS un
Ġ" <
Ġfore ign
/ \
Ġh olds
ĠComm ittee
ĠRich ard
A CT
ĠT wo
Ġv ote
li ament
Ġconst it
Ġhe ard
f ol
Ġnav igation
ch or
ĠEng ine
AA AA
ut y
z one
col First
Ġsize of
ĠWest ern
all classes
exec ute
Ġr aw
ĠN AME
Ġass ume
ell a
Ġb lood
Ġcom mercial
ate way
Ġdem and
Ġapp end
Ġst ars
Ġpres ence
Ġh ighest
Ġ que
Ñ ĭ
Ġbr and
T ags
CE SS
Ġpo or
am ous
ĠRe quest
ĠF oot
Ġm ill
. ");
ĠI E
equ ence
} -
Ġch ance
Pro ps
Ġass ess
UR I
Ġnot ice
Ġd oub
H ER
ĠB ank
ĠP ath
D ist
Ġinst alled
Ġd ir
u ke
ir ls
Ġfem ale
par ser
Ġp or
ĠLou is
ic ies
; }
Ġsecond s
Ġtr ust
Ġ[ "
Char acter
Ġprocess ing
her ited
he el
Ġset up
Ġ il
prot ocol
M T
cont in
wid et
ĠSt art
Ġdaught er
Ġl ay
P ublic
re v
j ango
B AR
ex pr
ĠH ash
oc aml
g reen
Collection s
em on
ĠW AR
Sim ple
Ġ" -
199 4
ag ger
, -
ĠI l
N amespace
i ar
ĠK n
T x
ex ists
Ġp iece
param eters
m ask
Ġcont roller
Ġgener ation
ĠInd ex
ax is
pre v
Head ers
Ġpar ser
Ġ ],
ĠL os
Ġb ul
Ġan im
Ġgener ally
Reg ion
Select ed
v a
ĠOr der
ĠD uring
par a
Ġill ustr
Ġ ut
Ġm obile
ĠE mp
Ġc tx
ĠL ine
Ñ Į
b uilder
M ay
ĠDiv ision
At t
ic ian
P refix
}\ ,
oc ity
ĠS ol
gener ated
Ġin form
ing u
Ġsaf ety
yd ro
Com ment
Ġcar ry
Ġpress ure
net ic
d ots
Ġpre d
ĠCong ress
Ġart ists
Pass word
en ing
n odes
nd ef
ĠL in
st orage
Ġrep resents
m aven
P si
b u
F inal
Ġmar ried
Ġaff ect
ĠRuss ia
ĠD evelopment
Ġid x
ens us
ĠA M
Ġs mo
G u
rior ity
comp iler
b es
Ġequ ation
; "
non umber
ĠFl orida
() </
Ġk m
Ġ$ .
m ut
ele ted
iz able
Ġt it
Ġdes c
ab y
? >
ĠC ath
Ġqu arter
Ġ eth
Ġg irl
Ġe yes
AL SE
Ġtyp ename
t body
ĠSe cond
C F
Ġsepar ate
ĠIm age
Ġrepl aced
15 0
widet ilde
ĠS y
Ġprov iding
L a
Ġdeterm ined
Ġrem ote
g a
(' .
Ġshow ed
Ġredu ce
ĠI ll
ĠInt eger
Eng ine
V ideo
O ur
ĠA S
ĠCan adian
C red
Ġd raft
coll apse
ev al
w atch
Ġre ader
Ġapprop riate
Ġform ed
Ġp refix
ind s
ĠH ot
S igma
ĠC D
ind ent
ĠWindow s
incip al
Ġf irm
ĠO p
ã Ģ
R PC
Hel p
Ġmor ning
ĠJ ournal
pro gress
Ġw ants
Ġf ra
irt y
Ġpl aced
urs day
ak s
Ġview s
ME TH
s ocket
ĠW omen
ĠS il
S che
re land
Ġp aint
ain ment
tem p
pect ive
T V
Ġvis ual
ĠP ass
ĠS aturday
Ġth r
sh ared
t ers
Ad min
Ġlaw s
Ġca used
ĠPe ople
Ġsol utions
U SE
Ġl icense
Text ure
Ġwe ak
Ġst eps
ĠCh icago
< !
anc er
the me
ĠH ome
Ġin str
ĠH ttp
ĠS ocial
ĠP oint
Mem bers
Y ear
ell er
o ices
Wh ile
Ġ? >
ang ing
in em
Ġdeath s
Ø ±
O B
ĠG al
RE S
n y
it ors
Ġla un
s ingle
ĠAnd roid
ĠSec ret
Ġ queue
b ul
ic ations
Ġmin or
ad ing
Ġab stract
log in
Re port
Ġc amera
Gener ator
Ġf ine
Ġs ales
ro ke
TI ME
p icker
Ã³ n
Ġstr aight
Ġsub sequ
ĠEx t
" /
D epend
d one
ac ro
Ġc ook
C ap
Ġ{ {
up load
if def
ĠL ibrary
R ole
Ġche m
Ġlog ger
W R
end or
ĠO h
Ġvari ety
ĠP et
d eg
ĠD om
ĠJapan ese
HT TP
ĠG lobal
ole c
Ġsur round
IT ION
ĠOn ly
Ġ& =
am m
IG HT
ĠJ im
Date Time
METH OD
N e
Ġcoll abor
ĠSup port
ov ing
Ġre strict
ĠP age
iter al
ĠD en
' ));
Ġagre ed
con struct
ĠEar th
ĠRes ult
ĠG ames
os is
Ġp od
Ġcomp are
ĠM ass
Ġpl ot
Ġb illion
f lex
Ġhe ar
ar ant
: \
word s
ist ers
u an
k in
} ]
cal led
mo z
ash ion
li e
ig an
Ġelect ric
Ġrem aining
lo ader
ed om
ĠIn formation
s ys
el come
dec l
) ->
T A
Ġb attle
pos es
Ġ' <
ab it
p at
ĠA mazon
199 3
Gener ated
im inal
1 20
Ġb log
ect ors
Ġsp in
U ri
f ire
B E
ĠT O
ĠĠĠĠĠĠĠĠĠĠĠĠĠĠĠĠĠĠĠĠĠĠĠĠĠĠĠĠĠĠĠĠ ĠĠĠĠĠĠĠĠĠĠĠĠĠĠĠĠĠĠĠĠĠĠĠĠĠĠĠĠĠĠĠĠ
Ġco ach
det ails
199 2
Ġw at
Ġframe work
Cl uster
ĠĠĠĠĠĠĠĠĠĠĠĠĠĠĠĠ ĠĠĠĠĠĠĠĠĠĠĠĠ
ĠAp ple
P layer
anc ing
it z
ĠJ un
mat rix
Ġfl ags
un ique
Ġs light
Ġevent ually
G en
Ġsample s
\ ]
ER S
Ġco q
Ġ[ ],
cent ering
ues day
Ġdise ase
ĠP RO
Ġcl in
P erson
ĠD ev
ct rine
ĠA tt
g ame
Back ground
The y
Ġh ar
ĠM ake
Res ources
ĠHT TP
Ġtool s
err ors
S election
ĠRe port
Ġcol lege
ĠFor ce
S ome
Ġdeb ut
M I
f ixed
Ex ample
H ere
ĠMart in
cre d
Ġd u
w ar
x s
res ources
met ric
Ġf arm
ĠF ree
= (
index Of
ĠL ake
ĠU I
ĠT witter
MOD ULE
ĠTe am
Ġbg color
Frame work
Ġcl oud
ff ff
ipp ed
Ġfact ory
ĠChar les
user name
Ġen v
EE EE
Ġal one
est er
Ġth ous
S ection
c y
Ġdec re
aw n
s afe
am az
ĠO ld
Ġthem e
Ġtr aff
los ed
hen s
G R
P y
Pro to
Ġd og
n am
r andom
Ġmet adata
Ġre ject
Ġm ask
in valid
Ġtime out
C RE
S ervices
J S
(' /
option al
Ġcap acity
sc r
Ġs ites
Ġenc our
Ġk new
N amed
Ġpro xy
Pro gress
ĠLoc al
Ġro ll
Ġex it
ĠSec urity
ot ic
pan ish
ĠB u
Ġ@ "
x html
Ġdel ay
Ġs ch
Ġgrow ing
ĠKing dom
Ġs ociety
en abled
Dom ain
ĠLO G
us ers
p u
VAL UE
Ġfore ach
en ch
) -
Ġf ill
Ġhead ers
iss ues
Ġmay be
Ġh yp
ĠM ult
(' #
Ġl ic
f d
Ġbro ther
Ġv el
test ing
en able
Ġn orm
ĠTh us
ri z
det ail
Ġn ation
ĠM ur
Ġprov ider
Ġw onder
cd n
nes day
Ġsus p
Com par
wild fly
ĠS QL
sw arm
LO CK
ĠC EL
ec k
as hed
it ness
Ġmet al
require d
up s
is c
Ġtrans late
Ġinter val
ĠComm un
w hen
Ġf ig
TR UE
Ġess ential
Ġassert That
ĠC A
spring framework
Ġst ock
ĠL em
z en
Ġwork ers
ĠE ach
ĠPar is
re port
Ġh uge
ID TH
s el
Ä ±
ĠIr an
sh ift
ĠA SSERT
G O
Ġp an
Inter val
th row
Ġneigh bor
ĠAr ts
ou ter
Vis ible
ĠJ ud
k r
p attern
op es
F S
lic t
time out
Ġin ner
qu is
J ohn
ĠS pec
pro xy
ĠP R
f ound
Ġlist ed
oss ible
Ġcan cer
Ġar m
ip ment
The n
ĠW ell
Ġc ru
ĠRe act
ĠM il
Ġpro ve
ge les
Ġl ayout
Ġrespons ible
ĠC ustom
Ġsum mary
f x
ĠEn ter
ov a
form ance
Ġdirect ed
Ġcompet ition
D elegate
ĠL ink
ĠP ower
f ix
Ġresult ing
ĠF estival
Ġsurv ey
. <
Ġmult ip
ĠC ast
Ġdes pite
ĠSo ftware
Ġ{ "
Ġm ixed
Ġagre ement
ĠArray List
( @
F ORM
l ig
Ġhappen ed
con sole
Ġcost s
as ync
Ġl os
fl ag
v ideo
Fr agment
Ġra ised
}} {
ĠL and
iqu es
Ġon to
at ar
Ġa udio
ĠâĢ ¦
PO ST
Ġs quare
Ġag ree
Ġm ission
Ġstr ings
Ġst uff
B ind
Ġ ui
j i
ĠD O
check ed
ĠB lock
Ġindividual s
ĠB rown
Ġexample s
Ġst ored
Ġh undred
press ed
Ðµ Ð½
Ġmanag ed
ĠM onday
pro x
Ġchar set
Ġlook ed
ag ent
Ġnull ptr
go ing
d imension
Ġa v
Ġw ood
Not ification
Ġs egment
Im port
Ġrg ba
D b
ĠA uthor
th let
irc raft
EN SE
play er
C ert
... </
Ġbroad cast
ĠC H
w all
Ġann ual
ar c
ĠĠĠ Ċ
Ġh our
pl us
Ġshow ing
Ġwh om
ĠAcadem y
ifi ers
eta iled
Ġr adi
F E
Ġident ified
Ġsp read
Ġstruct ures
ĠT our
us form
numer usform
Ġh ol
c lean
ir a
Ġhe avy
M icrosoft
{ %
Ġcre ation
Ġocc up
Ġb uf
ap ers
CT YPE
Ab out
Ġrele vant
Ġmajor ity
in f
im a
OR TED
dep th
ĠI reland
stand ing
h ow
b el
Ġfour th
Ġc md
; )
ard en
u ages
Ġf ederal
p a
Ġf lex
Ġlead ers
ĠB ur
check box
oper ation
u ite
ĠF ROM
Ġvers ions
Ġem bed
DE FAULT
ĠZ eal
Ġad opt
Ġver ify
Ġbr anch
ĠAn geles
Ġsh ut
Ġar rest
b ut
Ġtem p
Ã ¨
Ġgu itar
Ġst ated
ĠFil m
Ġcustom ers
Com ple
Ġcon cent
EEEE FF
E ST
DE BUG
ĠE lement
Ġstart s
Ġen h
it ter
Ġautom atically
L INE
F in
stit ution
Ġent ries
Ġa w
Ġext ended
ce an
Ġadd ing
mon th
Q U
tab ular
Ġr ates
" ],
pol icy
oc ation
Ġequival ent
M ake
Ġmur der
P ER
Ġserv e
D ictionary
d em
Ġfact ors
() ))
V olume
Ġdis abled
F LA
W orld
ier arch
I gn
Ġw all
Ġop in
Ġen um
e an
Return s
v s
s ince
Ġsh op
Ġad just
Ġb ill
av ail
199 1
ge bra
as sembly
Ġob vious
ĠPro cess
Ġadv ant
ĠW eek
ĠZeal and
ĠE p
Ġtr ail
bl ue
il s
Sum mary
ĠAN Y
M C
ex tern
ow ers
L iving
tr ace
ri age
St ats
Ġb inary
Ġcrit ic
Ġcom pl
Sh ape
ĠE ven
Ph one
w riter
cond ition
ner gy
ĠE very
Ġre asons
P UT
SE LECT
Ġsp irit
az y
Ġse a
B ook
L android
DO CTYPE
Ġin struction
ed ia
Ġb rief
Ġclaim s
h ref
Ġr ad
i ro
Ġa im
Ġstr ateg
i h
por ation
ic ians
Ġ ];
ic ed
s pecial
ĠS IZE
Ġvert ical
is hes
is ms
bo ost
w ig
Ġho spital
ĠĠĠĠĠĠĠĠĠĠĠĠĠĠĠĠ Ċ
Ġocc ur
D at
Ġk ids
y g
ok en
L en
198 9
E V
Ġmaterial s
R ob
up lic
Ġpl ays
W allet
ĠE lect
k m
ol a
T T
Ġsche me
ĠPol icy
ĠL ove
å Ī
Ġ ðŁ
Ġtri ed
Ġold er
ĠE ND
» ¿
Ġpr ison
ĠD own
ĠA ust
Ġre set
Inst all
Ġstreng th
amaz on
G ame
ĠIt s
i as
Ġgo als
pr ime
Ù ħ
Ġexec ute
c up
Ġreg ions
Ġmatch ing
om orph
Ġad ult
ï »¿
Ġtr uth
ĠRec ords
imit ive
En ter
Ġp aid
ĠS pecial
bl ank
Ġcandid ate
ourn ament
he ast
ĠAr ab
ĠA v
ĠM a
r id
Em ail
if ndef
ĠP an
Ġmon itor
Ġl if
ib er
ched uler
Ġredu ced
Ġd ict
ograph ic
ĠGe org
pl ates
p ull
Ġt al
or iginal
por ate
ĠSt at
Ġj oint
ĠS l
B ound
Ġac com
ĠA ccess
Cl oud
ĠPro perty
Ġnot ed
Ġr are
ĠÂ »
us band
> :
NavBar Font
get Element
scri be
Ġf le
l ace
Ġdo or
Ġeffort s
Ġe arn
ĠIt alian
Ġstr ugg
und efined
Ġunderstand ing
Cont act
iv ation
print ln
Ġd ynam
Ġpre m
ch ain
D R
; ">
Sk ip
Ġcould n
Ġc itiz
ic ine
lic ations
Ġle ague
em p
ach ment
6 00
w orld
ĠG l
side bar
al ing
ĠT re
ĠS pace
c f
ĠSc ot
il ing
Ġbo ost
Ġc ool
Ġg uest
e a
Ġch ief
Ġm d
um my
P air
Ġexec ution
st one
sign ature
Sh ort
Ġinflu ence
IN S
M er
ĠVal id
L in
ĠTh ursday
ollow ing
Ġveh icle
high light
Ġmention ed
if ically
Ġbuild ings
am el
ĠV ictor
Ġke pt
s he
Ġprocess es
âĢ ĺ
k ins
ĠVal ley
S equence
=" $
av our
Ġn p
ec es
br idge
lem ma
} +
Id s
Ġend ed
Ġpower ful
ĠHe ad
as ion
ĠMex ico
ke ep
Ù Ĩ
Ġgr id
ĠM ain
ĠJ o
ad or
raz il
Ġcolumn s
at i
d ig
p ared
Ġan imation
ext ension
T wo
ĠVirgin ia
Pro gram
r ift
Ġhelp ed
ilt ers
es ome
Ġmost ly
Ġa ware
Con n
Ġload ed
Ġdocument ation
ĠAl though
pe ar
Ġrepresent ed
Ġfin ite
ĠEx ample
Ġa f
Ġign ore
Ġpr im
ĠP enn
Ġch art
l at
Ġr atio
VAL ID
B I
ĠDes ign
ĠIn put
Ġg a
du led
Ġwe ap
Ġb oy
agnost ic
Ġin nov
ellig ence
o es
Ġs ell
Û Į
Ġcommun ities
re pe
Ġbound ary
ä »
od ies
ĠM ov
ĠAd min
ut ch
, '
Ġlist ener
ar ian
Ġopt s
ĠÐ ¿
in ations
t c
V M
ĠW ood
t ics
ap is
ap es
Ġbeaut iful
Ġa xis
g ers
Ġsm art
Ġsp ot
on ce
Ġpl ugin
em y
ĠAL IGN
sequ ence
ĠP op
Ġm agn
Ġre ct
ĠD ocument
Re quired
p et
ul f
b log
Ġtask s
F ree
æ ľ
D ay
s in
ON G
are s
(" /
view s
ĠH istor
libr ary
Ġin tr
L ook
ĠYou ng
t k
ĠL ee
lo op
asket ball
End point
ĠF igure
INT ER
M ask
Event Listener
M ath
w arning
Mult i
p erson
\ {
hel per
Ġp i
AN T
ust rial
ĠM P
Ġres olution
Ġfrequ ency
10 1
ab out
{ "
Method s
r f
An imation
ist ed
ĠL i
EL D
19 60
ay lor
F ig
% ,
Ġregister ed
8 00
Ġf ear
ĠComm unity
r ick
'] ['
Ġun ion
ĠAt l
ĠCont rol
Ġofficial s
in et
Ġne ut
Ġex change
PRO JECT
ĠTechn ology
Comp iler
Ġd ream
A rr
z ure
âĢĿ ,
Ġinterest ed
" ].
at omic
St op
C G
Ġpart ies
Ġ ).
Ġth er
F low
M iss
L anguage
res olve
set s
ĠN AV
Ġw id
Ġwin ning
CO MP
Ġaud ience
f ast
ust ain
Ġcompar ison
Ġ' \
Ġsp an
ĠT uesday
Ġper haps
! "
Ġ ..
ĠCent re
ĠH aw
Q UE
own er
TR Y
# {
25 0
Ġsupport s
Ġdat aset
Ġf ol
s b
Ġs chema
ĠThe orem
Ġad vert
Ġent ered
Ġide as
l arge
stru ctions
bs erv
Ġa head
S ort
Ġlaun ched
u z
Ġfor ced
ĠS E
bit r
. ;
Ġle aving
Vert ex
ĠP ac
ĠJohn son
Ġcl imate
Ġprob ability
Ġall Classes
}^ \
r ich
Ġsuccessful ly
ici ency
if fer
ĠE li
B egin
face book
Ġd ie
Ġchall enge
Ġsc roll
ro ute
ass andra
ĠB oolean
ĠallClasses Link
Ġt mp
Ġac adem
ĠR ail
at ial
ĠM iddle
down load
H S
s ync
Ġoriginal ly
m ouse
The se
Ġtrans l
ĠS ign
ĠB et
ĠComm and
ĠâĢ ¢
Ġfin ish
Ġhapp y
? "
ĠThe ir
ĠV ector
as is
En umer
Be an
ĠC ard
Ġoffer ed
Ġdepend s
ess ions
ĠL ast
RE G
' ];
I LE
ĠA wards
py thon
select or
W ait
group s
Ð° Ð½
ĠB ob
ĠE q
ap y
Ġrel ations
clud ed
Ġpro ps
Ġcont ents
Ġ" $
Ġco ast
Ġder ived
het ic
ĠF ort
Ġtop ic
ist ing
ivers al
Ã ¢
os oph
Ġp icture
Ġmod ified
: `
A F
Ġpart ner
Are a
ĠĠĠĠĠĠĠĠĠĠĠĠĠĠĠĠ ĠĠĠĠĠĠĠĠĠĠĠĠĠĠ
Ġcontin ues
Child ren
dr iver
ex pect
um s
Ġapprox imately
Ġe q
% "
Ġtraff ic
Ġbal ance
Ġcon vers
. ",
="../../../../../../ ../
= -
o z
comp ile
Ġlead s
ĠWed nesday
ĠF OR
S erv
ĠCh ief
rib ution
Ġthink ing
ĠH uman
Ġro b
cre ens
Ã £
av ity
Ġval ign
ĠBl ue
opt s
Ġcomb ination
P U
depend ent
lip se
Style ID
Ġclear ly
g lyph
l an
Ġcomb ined
S ql
p ower
ĠIt aly
Ġconnection s
} =\
w er
ian a
Ġus age
support ed
Ġs ector
ress ed
Ġident ify
or row
C ALL
ry ption
l ife
Ġs un
il i
ate ver
trans ition
Ġm otion
Ġregard ing
Ġev olution
ĠIs lam
Ġrequire ments
Ġoper ating
Ġres erved
A ng
Ġcommun ication
an imation
Ġp p
Argument Exception
ĠS ets
Ġg overn
Ġrepresent ing
ver ter
Ġfe et
) =\
L C
Ð ²
Ġdoc uments
Ġflo or
ĠO S
Ġdr ink
Ġf ru
Ġg al
sim ple
x space
ĠD ig
en umer
n el
Ġpl us
Ġtri al
Ġd ialog
Ġ rows
Ġelect ed
ĠWh o
Ġd ynamic
Ġk ill
e z
get Value
s lice
M ouse
ic ator
ĠW IT
k l
Ġat tract
Ġch osen
Ġaltern ative
Ġme ant
Ġbe at
ud d
ac cept
am er
ĠIn s
ost on
Ġpe ace
Ġto ward
******************************** ********************************
t ex
ĠCath olic
D ATA
: #
Ġest im
All ow
Ġph il
Ġdet ect
aa aa
Ġd uration
D em
Ġtr a
Exec ution
ph ot
Ar ch
ĠF our
Input Stream
Ġp ri
^ +
Ġcover ed
Ġpat ient
se ud
Ġcred it
Ġtransp arent
ĠP lease
lo ss
Ġfound ed
ĠPl an
Ġf resh
ĠIn ternet
operator name
Ġbr ain
E ar
Ġd aily
B B
Ġl ab
ag raph
Ġjob s
âĢ ¢
rem e
Ġrest aur
object s
à ¥
ĠO l
Ġsup ply
new s
ĠF ire
Ġact or
/ "
eng er
alt y
App end
los ure
ak ed
ĠB it
Ġsen ior
our ney
z ero
d iff
Ġm eta
Con nect
SS L
S ave
Ġocc urred
un te
ĠR est
dest roy
s es
Ġrecomm end
Ġph oto
f riend
D ev
Ġres olve
Ġl atter
F n
act ivity
S yntax
Ġconf irm
198 8
cl uster
pl an
OR Y
F ocus
Ġw ish
comm ons
Ġreal ity
t or
Ġdis k
b g
N ative
d c
v c
Ġcomput e
ak istan
Ġnetwork s
ĠS ource
ĠJ ones
} '
um es
ĠE nt
Ġdiscuss ion
Ġc row
ĠW al
_ );
R R
J oin
Ġdam age
ĠT ri
% )
Ġspec ify
ĠSum mer
ĠC are
in herit
ĠS earch
ic ode
agnost ics
M IN
ĠTh erefore
ĠNAV BAR
Ġsur pr
r ad
ĠW ay
N C
ST ATE
C lear
ĠS panish
ĠX ML
typ ename
: @"
ĠM ock
) [
im p
f actory
Ġpro ceed
ord ers
Ġs ql
ss l
ĠAb out
ĠK ar
bl ack
W arning
cal endar
G ER
ĠC ross
IO Exception
t witter
AN CE
cl one
Ġd anger
Ġsom ew
ele m
Ġt sd
cd ots
ĠS ar
run time
Ġf an
Ġtalk ing
ĠC R
Ġh usband
sk i
Ġ' '
En vironment
z ip
t f
US ER
s a
aw a
P od
is Empty
V E
Ġc ursor
n eg
Ġcontin uous
it an
L imit
ĠC lient
Ġcon ference
NS String
ed u
Fl ag
D IS
Ġsignificant ly
y er
og en
} :
Null able
Ġg one
Ġc at
un ities
b atch
Ġbe coming
Ġaddress es
s id
IL D
ĠOb ama
Ġ> >>
our se
Ġpl anning
Ġst reet
Ġalbum s
kw args
valid ate
ar ia
Ġsp aces
I AL
s n
ĠJ on
i ant
Object s
^ ^
b its
ï¼ Į
Ġmus ical
Ġsk ills
ual ity
Ġposition s
ir ation
L ower
198 7
ul ator
uss ian
Ġa ircraft
Ġdest ination
) }\
con structor
Ġp et
Ġass ign
ĠAp ache
W rit
Ġapplic able
ĠSen ate
anc ell
S K
c li
Ġdist inct
Ġecon omy
Ġf amous
ĠF amily
ĠE con
Ġun iform
Ġex cit
Valid ator
ix els
Ġ ens
Ġreve aled
is er
Ġem er
S creen
plement ation
Ġcar ried
Ġpro pos
) ^{
Ġ\ "
Ġexp ansion
ist ence
> )
Ġb ed
ĠN E
Ġm iles
ĠHen ry
w p
n n
am in
Ġcent re
ĠOption al
ian o
ĠRe al
D iv
Test Case
ĠCh ris
ĠCarol ina
g g
}_ \
est ic
S cal
ĠN av
F UN
com plete
ĠM ike
Ġpl ane
ur er
B inary
Rem ote
Ġoffic er
$ )
ur ies
ĠN Y
iss ue
Ġs leep
Ġw ind
Ġk ing
Ð ¼
j e
un ct
}} (
medi ate
ict ures
ex it
ĠS and
Ñģ ÑĤ
s ym
ad ium
Ġare n
Ġb ind
S m
Ġcontr ast
il ly
Valid ation
{ $
Ġs aved
d k
Ġed ition
ipp ing
circ le
Ġnot es
ĠĠĠĠĠĠĠĠĠĠĠĠĠĠĠĠĠĠĠĠĠĠĠĠĠĠĠĠĠĠĠĠ ĠĠĠĠĠĠĠĠĠĠĠĠĠĠĠ
cre ated
Ġz one
Ġcustom er
Ġcons ists
St atic
dis able
Post ed
att ers
Ġfl at
Un known
ĠWh y
ĠL ord
ĠRef er
ool s
Ġselect or
P M
h ar
and on
Ġm apping
g oto
O F
met ry
is set
Ġn ice
ext end
Ġfeature d
Ġmet ric
LO C
Ġc ities
Ġ ice
Ġw arning
W AR
Ġbig gest
Ġr u
Ġadmin istration
u zz
() ),
d uration
Str ategy
Ġdep artment
Ġb udget
ORD ER
Serial izer
å ®
t ar
Ġe ye
re lease
ur ance
Ġsu c
urb an
M ove
se g
Ġst ations
ĠP H
W ORD
Ġin come
Ġfore st
ation Token
Ġp urs
or igin
Ġear th
Ġcan cel
Ġf ish
L eg
d atabase
se q
umn i
fe ed
Dr iver
exp and
C ast
Ġis land
ĠFoot ball
re ce
Us ers
uck y
in itions
ĠM any
Ġ" ",
Det ail
O wn
A li
Ġc ars
ĠW ater
ĠOr iginal
¿ ½
b asic
ĠAs ia
u ations
Ġr an
MO DE
Ġgu arant
ide os
yl van
Ġop acity
Wh y
Ġtyp ically
li k
ĠW rite
Re al
Ġapp arent
U ST
ĠSt e
Ġstud ied
Ġr ac
Ġr ich
H ub
198 6
Î ±
Ġal ert
Ġis ol
text width
Ã£ o
ath an
F older
ok ed
Ġ\ {
Ġatt end
/ _
Ġl ands
Ġrequest ed
Ġ' ';
p ag
im b
Ġj ump
ys ical
L ight
resent ation
Ġinter action
Con structor
y y
Ġcont em
math sf
M aterial
Ġt ags
STR ING
rem arks
B est
Ġs b
ĠL ab
Ġappear ance
v olume
Ġquant um
Ġest imated
Ġ" %
ĠO N
Ġsuff icient
put er
ra wn
Al loc
H tml
} |
us hed
RE E
over view
w ater
Ġwait ing
hes is
ĠL com
o pe
ç Ķ
Ġhe at
Ġfr ag
Ġb atch
j ack
S ur
c le
ĠF ind
Ġint ended
T F
=\ "
ĠA ff
ck now
. ~
ĠIl legal
M any
}) \
ĠN et
Ñ ĩ
\ '
Render er
Ġ ult
qu ote
maz ing
ĠM i
ok es
Ġcertain ly
et es
Ġimplement ed
DO M
n amed
o ir
ish op
ĠWilli ams
S M
Ġcon n
UN D
F act
R aw
pl ot
m essages
ĠS ports
DE F
Ġ" ";
'] );
ĠJ eff
En v
Ġb urn
tr l
Ġslight ly
Ġtell s
vis ible
Ġlabel s
Ġp al
ĠAnd rew
mer ge
Pr ivate
CH AR
ut s
S V
Ġres idents
b ro
D ATE
ĠOr gan
cl aim
F N
Ġrelig ious
Ġallow ing
ĠCon ference
æ ĸ
Ġg ather
Ġr ise
B asic
Ġtrack s
Ġs ync
ĠSt andard
å Ĳ
f old
Ġbenef it
Ġmap s
Ġhapp ens
Ġass igned
Sh ould
Ġgu y
{ {\
al ert
J ust
ĠSw ed
/ .
getElement ById
Ġappoint ed
ion e
Ġw ave
ĠIr ish
: [
Ġ( [
ĠB ow
be an
Ġemploy ees
ab ric
Ġup dates
Ġexpl an
o os
Ġinvest igation
Ġart icles
ĠB oth
ĠDE FAULT
How ever
wide hat
Ġar bitr
Ġsuc ceed
z eta
Ġ ^
Ġso ft
Ġaccept ed
trans action
Ġorgan izations
et o
for Each
ra structure
ï ¿½
ĠG re
st able
Ġal le
C ONT
C ard
ĠM os
el er
C LASS
for ward
Ġ_ ,
Con sumer
Ġinst ances
ĠE st
Ġvalid ate
p aper
in ity
Ġfind ing
ĠW IDTH
Ġel if
12 5
or ney
Ġhistor ical
st ein
N ormal
Ġc ycle
Ġrem ained
ĠApp lication
om ial
Col l
P ers
ack s
Ġattack s
ĠJ ac
B atch
vert ical
UM M
198 4
Ġas sembly
Oper ator
Ġliter ature
Ġfund ing
Ġd oll
fol io
c atch
Ġcont ained
el a
Ð¾Ð ²
Ġcor ner
N ET
ĠComm on
ĠN ight
Ġex cell
set up
nav igation
Id entity
ĠS af
C M
1 10
sub mit
Ġdiscuss ed
vari able
Ġsc ored
Ġown ed
Ġent ert
o sp
M essages
Ġcons ult
Ġcult ural
n ic
ĠSt atus
Ġgu ess
Ġl at
Ġl ived
unn y
ylvan ia
Ġyour self
ĠGu ide
ĠW ild
Ġest imate
Ġinvest ment
Ø ¯
Ġequ ipment
ĠS elect
ĠBrit ain
{ (
198 5
c hen
Ġn ine
Ġmy self
lo or
Ġno ise
Ġp il
Ġd etailed
Ġchang ing
C apt
F ore
ĠF urther
r g
Ġw arm
Ġb its
col lect
ĠB ecause
Ġloc ations
ĠP erson
Th row
ĠFrancis co
ĠEn vironment
Ġindic ates
Ġs ynchron
Ġknow s
Ġperm issions
se par
u v
int on
Ġ' ./
avail able
Ġc lo
66 66
ĠD B
s ome
dep recated
Tr ansport
ĠB razil
Ġp sych
W atch
reate st
ĠJ oe
ĠR ights
Con sole
f i
Ġhy per
ĠPol ice
ĠN on
A udio
r ical
D P
Ġdepend encies
c uss
Ġ} }
L Y
k t
Ø ª
Ġf if
ĠB ul
Ġvict ory
BP ACK
ĠR adio
p air
as m
ot ing
i en
oc key
Ġm ouse
Ġch air
Ġprodu cer
ĠL ike
Ġconsist ent
ĠCol umb
AN G
ak a
Ġeff icient
elli j
Ù Ī
log o
ĠF ed
h om
amil ton
" },
m ond
Ġf mt
Ġspe ech
ĠC EO
Ġtre nd
um in
d ark
f etch
ĠF und
Ġinst ant
Ġf ant
arg uments
Ġbenef its
/ {
C md
Ġauth ors
. """
Ġs ynt
el ines
re pository
ĠJose ph
* {
Ġb ug
ĠW all
Ġprote ction
bo se
Copy right
are t
ĠJew ish
Pl atform
ir al
Ġpol icies
Const ant
m ann
Ġs eg
Arg uments
Ġd a
PH P
Cond ition
Y Y
Ġadvant age
( .
it age
ud a
Ġident ifier
Ġperm ission
N ING
Ġdiv ision
ĠS aint
ĠC a
ĠH as
Err ors
(" #
Ġm olec
j Query
Ġex tr
Ġfocus ed
ans as
greg ate
lic ense
ĠChrist mas
int ellij
Ġcal c
n p
ĠL ight
Ġprom ise
t ensor
mem ory
Ġdr ag
Acc ording
ph y
k top
Ġv ac
N UM
method s
Ġt ensor
ĠRes ponse
Ġcli ents
ĠWAR RAN
r an
Ġocc urs
ch er
Ġs ys
] \
Ġwould n
v in
dimension al
se x
Ġpol y
Not Found
Ġ' .
Ġ ">
ge o
od d
Ġfavor ite
sh al
init ely
P lease
ĠK en
ĠMus lim
Us age
Ġvert ex
Ġrel atively
AT ED
__ _
Ġwrit ers
fin ite
Ġf ee
Ġ' ',
or ient
on to
ĉĉĉĉ ĉĉĉĉĉĉ
Ġfr agment
Ġnav bar
Ġlearn ed
ĠS i
Ġh ers
Ġend s
Ġmark ed
or ial
b at
ĠF e
Nav igation
HER E
ĠH or
Ġst ats
M ill
Ġo dd
Ġbehav i
ĠG a
aps ed
Ġr iver
ĠCo ast
Ġmot or
Ġtri p
Ġ_ .
ĠSer ver
Ġcover age
Ġindic ate
sp acing
con vert
pe ople
Ġs y
18 0
w an
d evelop
mult i
R elease
Ġsk ip
Ġt ick
Wh ere
Ġiss ued
In formation
Ġr ing
Ġm ist
ĠRem ove
Ġdiscover ed
S em
Ġcapt ure
ag ma
du ce
Am ount
Ġmeas ures
q quad
}^{ (
Ġgu ide
Ġrece iving
ĠE r
S I
ĠJ son
pp ing
LO W
comm it
L ibrary
Ġle aves
HE AD
Ġnuc lear
Ġrap id
get Id
direct ory
ra q
f ake
Ġmer ge
Ġnumer ous
atic s
ĠN ext
ev in
ap h
ĠNor thern
] ))
ĠW rit
ĠS pring
Ġenvironment al
Ġarchitect ure
def inition
Ġsc r
ch anged
Ġlead ership
Ġcr iminal
ĠI II
cont act
st andard
Ġl abor
ĠM ot
ile vel
ĠCl oud
Ġvalid ation
ex tra
Ġtechn iques
w d
Ġp ure
t wo
Ġsmo oth
s ylvania
ĠThe atre
ĠDan iel
f mt
Sign ature
Ġext end
anag ed
A UT
ĠH on
Ġviol ence
ĠT ele
ĠMed ical
str a
r adio
ĠL ear
ĠPol it
Ġpo et
ĠL oad
WE BPACK
Ġf ashion
Ġj s
h l
Ġan gle
Ġaward ed
Con vert
g ov
Ġco eff
ĠT erm
$ _
ĠJ es
ĠS D
Ġturn s
Ġoper ators
R ate
ĠH a
Ġstud io
Ġf ake
Ġpre v
ass ign
Com plete
Ġdet ection
load ed
Ġpath s
Ġphot ograph
s en
< <
Ġs an
RE D
R T
h ard
) +
S pan
D ig
ĠM en
An notation
onym ous
Ġthan ks
ĠC G
ĠS outhern
ĠF ar
/ ">
ĠV an
ĠCh ange
ĠB oston
Ġse at
Res olver
Ġdr iving
ĠCont ent
Ġnew sp
19 50
ĠH y
T Y
Ġadmin istr
sub ject
ĠM id
Ġf iction
C la
Ġconf irmed
B Y
h al
Ġm unicip
Ġcomm ission
V AR
Ġm yst
Ġs ending
el ly
B o
Ġdiffer ences
Ġfl ight
S ame
Ġ$ _
Label s
= &
re act
Ġg ain
ĠJ ob
Group s
ip her
hav ior
Ġach ieve
ĠL ic
gy pt
Ġt error
B ool
ĠL uc
Ins ert
Ġpur poses
ĠAb stract
IMP ORTED
assert True
ĠH am
Enc oded
ap prox
ĠJ S
B inding
U ES
Ġtre es
ĠP akistan
Ġtechn ical
Ġ" .
Pl an
Ġbeg ins
Pre v
ent ed
Ġorder ed
Ġex erc
> "
ĠT aylor
Ġpro to
Ġt end
Ġtrans actions
ĠD aily
And roid
sh op
ĠĠĠĠĠĠĠĠĠĠĠĠĠĠĠĠĠĠĠĠĠĠĠĠĠĠĠĠĠĠĠĠ Ġ
ĠSe a
Ed ge
ĠB ad
Ä ģ
AT CH
B order
en ant
tr im
ro g
ĠW alk
Ġsee ing
Ġweek end
Ġ$ (\
ĠE U
Ġfund s
Ġach iev
Ġsex ual
b d
Ġpart ition
v ol
W ord
ore t
M aster
Ġcr ime
Ġr adius
Ġt or
St andard
IN ST
Ġgu id
ĠDemocr atic
n ight
Ġtr ace
ing ly
2 13
Ġs ocket
Ġfe at
Ð ´
ĠJack son
å ħ
FI ELD
ĠHo spital
Ġpolit ics
ĠCor poration
Ġpost ed
read er
Ġp hen
Ġsing er
ĠJust ice
Ġmag netic
ĠL ive
Ġspe ak
C ounter
Ġ{ },
× ķ
ĠDes cription
os a
Î ¿
Task s
ird s
eth er
= #
Gener al
ãĢ Ĥ
A SSERT
Ġexec utive
Ġdef ense
Ġtre ated
ĠS pe
Ġconsum er
ĠA T
m issions
Ġb right
Ġ& \
ĠC SS
Ġyou th
Map per
Ex port
ch art
ĠSp ain
Ġpol l
L ib
ĠPac ific
Ġg lass
Å ¡
Ġap ilevel
Ġposs ibly
Ġexper i
00 1
A ST
ĠC ore
Ġprote in
S egment
E ffect
Ġmod al
ĠTh read
Ġform ation
Set ting
S N
Ġan c
gener ate
ĠP rem
to Be
p icture
Ġoffic ers
D uring
ĠW in
ĠL im
des ign
ĠOh io
Us ing
or al
str ings
ate st
ĠC OL
ĠP ay
Con straint
ĠAre a
b as
per iment
ĠV ideo
ir ror
Ġpass ing
C ursor
198 3
n orm
Ġ' %
Ġopin ion
Ġprior ity
ĠS ir
ĠR am
ĠM u
Ġanim als
K e
Ġded icated
D rop
ĠE nergy
Ġp arsed
Ġrepe ated
n ative
/* !
Ġwe ather
Ġs and
Ġh ydro
Ġh air
Ġclass Name
Ġs port
wik i
us r
Dep recated
Ġcomp osition
as p
Ġmod ify
re nt
sc ss
ĠM ah
Ġshe ll
Ġspect rum
enn is
Ġseem ed
load ing
Ġes cape
> ;
Draw ing
ĠA li
Ġel im
ch a
Process or
Ġg irls
= [
ĠW at
Ġcitiz ens
ult ural
Ġch annels
iv acy
198 2
Ġcon straints
CON FIG
Ġun cert
Ġun iversity
function s
al g
Ġw ww
Ġdep art
Ġcon version
Ġpre par
ĠI L
Ġrec ip
c raft
ierarch y
ad el
Ġcon vention
C B
W IN
in ant
P red
b c
Ġbusiness es
Ġend point
A SE
Sh ared
ĠS ong
Ph oto
uff ers
ph rase
( {\
ĠIn vest
| &
n i
Ġhel ps
om ent
pl er
U nder
Ġopport unities
.* ;
Ġtw ice
Ġrecord ing
ĠĠĠĠĠĠĠĠĠĠ Ċ
is a
s ig
ĠT w
Ġt rib
FF ER
on ical
Ġadv anced
Ġc os
Tim er
UMM ARY
Ġlog ging
Ġexist ence
Ġin n
Ġmag azine
a ired
Fail ure
ĠBe ach
Ġm o
ĠCol l
Ġmeas ured
G ui
Ġ rom
Ġfa ith
Ġs ister
p kg
Add r
enc ode
ad oc
Ġinput s
O W
Ġimp lies
> \
Ġf ellow
Ġex ports
Ġexpress ed
Ġaff ected
N V
Ġs ud
Ġstandard s
Ġclaim ed
Ġexpl ain
che ster
y ou
Log in
ĠScot land
ĠAd v
rypt o
Ġv en
st rip
Z one
C ur
Ġp itch
Ġac comp
cont ents
av id
low er
Ac cept
ĠC urrent
Ġhold ing
Ġc lock
ab eth
fl at
Ġrefer red
ä ½
enc ing
Ġs ale
Ġpay load
Ġrefer ences
Ġlist ing
il a
F amily
comp are
math scr
ĉ ĠĠĠĠĠ
ino is
Comp at
Ġem otion
Ġequ ations
Enc oding
Ġ à¤
burg h
ament al
Ġad j
] $
rypt ed
P i
aly tics
Ġfac ility
Ġdevelop ing
12 7
Ġcom fort
br and
ĠG i
Ġr ain
Tim estamp
ys ics
AT TR
Ġem erg
ĠK im
en ance
F OR
Depend ency
ĠB ern
Ġcandid ates
Ġmass ive
Ġsec ure
Ġpi eces
Ġtro ub
ult y
pt on
Ġcr is
refer red
Ġw x
Ġproced ure
Ġload ing
ĠÂ ©
Ġpay ment
get Instance
Ġcomm ands
can vas
ĠH arr
Ġsp end
Ġregion al
ĠS om
Form s
ĠRec ord
Ġport ion
Ġfil led
Ġthous ands
un es
Ġchalleng es
pro gram
ĠJ r
Ġ ig
h u
The me
Ġconduct ed
Ġsub stant
ĠQue en
ĠR a
ĠSt ream
not ations
ĠUs ing
head ing
Ġhers elf
a udio
ĠV ari
ĠP ri
Ġveh icles
atter y
go od
ele ments
Ġinitial ly
Ġtyp edef
pro d
= %
ag r
ĉ čĊ
Ġm igr
ĠB E
Ġextrem ely
const ant
po inter
ĠLem ma
ĠSecret ary
o les
ĠConfig uration
un a
V ICE
197 9
Ġ ----------------------------------------------------------------
h ab
v o
Ġfre edom
Dep th
Ġp airs
Ġfeel ing
Ġinj ury
Ġben ch
\ /
Ver ify
Ġl ies
br id
ĠL java
Ġadv ance
Ġk id
ĠC apt
Perm ission
Ġs ides
im ize
: '
Ġed it
u uid
ĠCon f
ik i
Ġm el
T ra
Ġse ed
en ers
sd k
V D
AT OR
og y
S ite
ĠM O
Ġh ide
ly wood
ĠS H
ĠM aster
ĠC ivil
Ġman ner
ĠS us
Ġcur ve
m ms
ust ers
ĠM ic
Ġconstruct ed
ĠB uilder
Ġfac ilities
g i
ĠF ederal
item pty
t ouch
We ight
C enter
ĠSim ple
Ġsecond ary
ĠPar liament
om itempty
Ġb inding
Ġcomp liance
ĠP ack
Ġexperiment al
_ )
Pre vious
Ġinter pret
Ġc ouncil
Ġv ision
Ġb oot
7 00
Ġro les
Ġw itness
Ġs outhern
Ch ain
V ID
ĠR ay
Over view
Ġr at
Ġprop ag
Ġdel ivery
B ounds
iven ess
in ator
Ĥ ¬
ott ed
Ġ Query
Ġgal ax
Ġsuggest ed
Ġnew ly
ĠC ase
m apping
log ging
al o
Pl ace
f re
Ġn arr
Ġbr idge
li bs
ĠL ittle
ĠI T
ott en
Ġcollect ed
Ġimport ance
Ġdis able
Ġdec ades
Ġk ick
Ġthan k
Ġ ur
t w
view port
Ð ¿
ad r
ĠD ar
Down load
Group Name
Ġcop ies
Ġor ient
ĠSt eve
Cont ains
Ġtr av
OP T
Y our
Ġfind s
ĠG ar
ĠM ember
Cont ents
ĠI raq
Fr ames
"> (
On ce
Ġinstr ument
r im
Ġt d
ĠPr int
- (
Ġthrow n
ĠR om
Option al
; |&
A X
mo sp
Ġca ught
ĠC y
gorith ms
Ġst yles
F uture
Ġf ails
or ough
Ġimprov ed
ĠMich igan
valid ation
ĠB as
Ġa mazing
ĠRepublic an
Ġv e
Ġsche dule
Ġdes ired
ic ing
Ġreview s
ĠN avy
not es
class Name
× Ļ
Ġcomp act
Ġmechan ism
mer ce
un ately
ä º
ĠM ajor
Ġre pository
Mon th
! âĢĿ
Ġgu ard
Ġproper ly
Ġt ournament
Ġeas ier
> ()
p end
Ġst ress
Ġunder lying
Ġlang uages
RES ULT
Ġarr ived
Ġmain ly
Ġwh atever
Ġpar allel
j ax
lic enses
ĠSt an
}\ \
b lob
ĠJer sey
Ġrun time
Ġpre pare
pol y
ĠStud ies
ĠF ood
u ce
ĠAmeric ans
th rift
le ts
scal a
ĠD elete
> '
spec ific
w arn
ĠS UMMARY
Ġs pring
B al
m obile
t i
Ġconc ert
Ġord ers
Ġali as
Col lect
ĠOut put
Ġim g
R C
}} ,
Ġ Ø§
om ics
M ut
LI ST
Ġlink ed
ĠStr uct
k es
res ize
ĠVAL IGN
A Y
Ġsol ar
j d
Re quire
Ġsup posed
ĠDon ald
' }
ĠL anguage
Ġcre ates
Ġcheck ed
Ġexper iments
ĠT ro
ĠMc C
H older
f all
Ġd ance
A xis
Ġv m
Ġinit i
Ġclass ical
Ġbro ken
s r
ann a
Ġdepend ing
Ġoffer ing
ibr aries
ĠCh annel
Ġdr ama
p res
Ġs ounds
act ual
Ġtr uly
rupt ed
ov iet
patch er
Ġnor thern
Ġvel ocity
ex pression
ĠBro ad
Ġmaint ain
Ġmed ium
Ġcontrib ution
Ġstop ped
è ¯
Ġman age
Ġj ourney
ĠR en
ĠC irc
Ġpre pared
Ġsh ock
Ġinitial ize
ĠH ard
197 2
Ġca uses
Ġcount y
Ġcopy right
198 1
Ġmark eting
Ġserv ing
s heet
u is
ĠS at
C aml
B IT
Ġarbitr ary
ĠSh ort
Ġ< -
re po
m ac
Ġexec uted
%%%% %%%%
Row s
Ġca ref
Ġsubject s
ĠE V
ĠH amilton
Ġse ctions
Ġc e
Ġconf lict
Ġc old
Ġanc ient
ĠPr ime
Ġf ell
In ner
Ġform al
S W
Ġwin ner
ĠPro t
Ġro ugh
ĠA D
Ġpr ime
ĠL ook
STAT US
Ġw ire
) ",
column s
Ġth erm
Ġden ote
Ġwatch ing
Ġform ula
w a
ut ors
Run ner
se lection
Ġmin ute
def er
UN T
0000 00
Ġf uel
Ob server
ĠH om
B ottom
Ġad vent
ĠT ag
RA Y
Ġbound s
F eed
( ()
Ġstat istics
ĠPy thon
Ġbel ieved
ition ally
Ġc le
ĠV irtual
em it
Ġcirc um
Ġpl ants
Ġar my
Ġtim estamp
al ink
ic er
Ġdis s
Ġgu ys
Ġexpl ained
Ġmar riage
l ab
us al
Ġign ored
ĠOn ce
Ġcol span
OR K
ear s
D id
are n
} %
Ġcol on
Ġentire ly
du cer
get String
Ġdecl ared
Ġapp rec
n ob
R andom
ĠÐ ²
Â °
l int
Ġcon ven
Ġret ail
ident ial
link s
C ancel
Ġclass ic
(' <
b ury
Miss ing
ul ing
item ize
ĠL o
> %
Ġex ceed
Ġag ency
W ell
ĠT y
Ġt ail
Ġs am
ro vers
Ġexplan ation
r pc
Ġa ria
cre t
Ġexpand ed
EN TRY
Y es
Ġb ond
g if
ff f
Ġcontrol s
ict ed
Ġf etch
Ġal pha
Ġinc ident
Ġsupport ing
E val
ble m
(" %
ĠGeorg ia
c ue
Ġtrans lation
rem ote
A nt
Ġd st
Ġch unk
ĉ ĠĠĠĠĠĠĠ
æ ķ
Ġv ary
ri e
int eger
M r
ĠTh ree
Ġacc ident
Ġreturn ing
c fg
Ġpurch ase
Ġhand ling
Be en
Ġhous ing
Ġann ounce
ĠIt em
Ġc er
i Ã³n
LIC ENSE
Error f
Ġatt ached
ĠT ra
Ġfig ures
sh are
if er
Array List
Ġdisplay ed
DE X
SO UR
U C
} +\
MA P
ĠBro ok
A bs
ĠCon text
enn a
Ġpattern s
Ġst able
sk y
ĠD ub
eg o
Ġincre ases
Ġneighbor hood
ĠP C
Ġconcern s
Ġact s
Ġcomple tion
G A
ip er
( /
p ages
ĠK ent
Ġdep loy
Ġex pos
Ġplace holder
Ġind epend
Ġf avour
c assandra
v space
Ġpack et
rt l
Ġcom pr
Ġphot os
Ġsee k
Ġs pr
r ame
ĠO x
anch or
L icense
Ġspec ifically
ĠUn it
ĠOlymp ics
and o
com pute
K it
Ġfor t
Ġtarget s
p resent
jav ax
act iv
Ġem ph
Ġcre w
ĠF ull
IC ATION
ĠE gypt
w ill
del ay
P romise
mult icol
Ġelection s
alt Color
) |
ĠCre ates
ĠProf essor
min us
p ad
ĠSt ory
Not es
ab c
ĠI ter
**** **
Ġpartic le
Ġm al
Ġtyp ical
P Y
ast ers
197 6
ĠCo q
Ex ists
Ġover flow
ĠKore a
Ġclin ical
Ġcharg es
Ġpl anned
Ġf older
im m
uplic ate
Ġcalcul ated
s un
rodu ction
PRO P
P res
Ġed ges
repe at
ĠB Y
Ġm ail
Ġaccur acy
Ġchem ical
an es
Ġb in
h ot
R UN
ĠSh ould
ĠF air
P REF
Ã ±
ars ing
Ġatt ended
in er
Ġh aven
Ġb asketball
ali as
Ġbel iev
Ġ Ñģ
ĠBO OST
ĠG reek
Met rics
Ġ' ''
Column s
Ġcirc le
Ġach ieved
ship s
ĠC ur
ĠPh ot
197 5
Ġassoci ation
art ers
Ġdeg rees
am ber
Ġ& #
T uple
ĠT urn
Ï Ħ
Ġs izes
ne q
N ov
Ð° ÑĤ
get Type
Ġst ores
Sh ader
multicol umn
Ġsur g
Ġmod ules
b ug
197 8
Ġact ing
el astic
LE MENT
St ub
glyph icon
Exec ute
W est
m k
Ġ{ %
Ġ-- ></
Ġdro pped
ret ch
ĠPhil ipp
ĠW ales
Ign ore
' \
NO DE
Ġcontrol led
New s
Ġ` ``
enumer ate
Ġsem i
j et
te en
ĠPro duct
Ġam b
ĠST ART
SP AN
create Element
Ġc art
Ġs ustain
ub ble
ĠK ong
Ġsk in
ĠP ers
Ġ( -
PRO C
Ġind eed
LE TE
Ġgener ic
L oop
g ence
ar se
C ulture
Ġp ert
Ġin vent
F P
E st
Ġcar bon
Ġexcell ent
( ['
Ġw arn
} -\
ĠEx p
ĠP ut
C oin
Ġeven ing
SS ION
b ell
Ġcre ative
resp ons
tim estamp
ĠM att
ĠTr ust
Con verter
Ġe ase
ĠR ow
197 7
ĠEmp ire
' $
Ġg ar
W ill
Ġt on
Ġmov ies
Ġhot el
ĠB al
Ġac id
T AG
clud es
p b
ĠB attle
TI ES
Ġcomput ed
g z
re le
ĠB ox
iz z
ĠD ouble
d jango
ĠS on
197 4
P OS
m ag
ĠB ol
iv ial
ĠR og
ĠT oday
eg r
Ex pected
top ic
ĠA sh
. [
ĠF eature
Ġth ick
Ġw rap
AV E
Ġre action
rop y
Ġauthor ity
ĠPenn sylvania
z abeth
ĠIll inois
Ġcon straint
ĠD C
g re
Di agnostics
} ",
ĠU kr
d ash
h ave
T ile
ay a
Ġact ress
pr agma
ro uter
ĠF ox
l aw
Ġse asons
Ġcan cell
LA Y
Ġkeep ing
Ġan chor
G EN
Ġth reshold
Ġiter ator
ost er
Ġin ject
BU FFER
Ġtrans formation
Point s
C r
Ġa x
Ġdim ensions
}} {\
ĠS em
Ġk ernel
Ġstat ements
Ġlimit ations
Ġpr ices
b us
Ġconvert ed
ys ql
ĠW ars
Ġ ing
Ġfight ing
G IN
bu ilt
Ġg ap
ĠAn other
Ġro ut
-------- --
Ġcomm itted
S epar
Ġredu ction
pre vious
Ġcomp atible
Ġinsp ired
Ġgrant ed
ab il
rit ical
f b
Ġdef initely
Ġus ual
Ġs yn
Ġassert True
ĠAdd ress
~~~~ ~~~~
ĠB a
ĠD OM
Con s
M R
T ouch
G C
ĠWARRAN TIES
Eng lish
Ġal ter
Ġteach er
ĠSch olar
cover y
ĠC ond
Pe er
Ġ- \
"/ ></
Ġ\ |
Ġ' _
Ġhe nce
Ù ĩ
ĠUR I
ĠGu ard
grad le
( --
Ġ era
ag a
ĠIn f
under line
ĠS che
grad ient
Ġlim its
L ike
c ancel
Ġf s
Ġlist s
å ¤
Ġdescri bes
sw ing
En able
ĠL td
ĠChild ren
ĠAcc ount
Ġal umni
Ġcomp iler
Ġap art
ap ed
Ġliter al
V irtual
l us
Dec imal
Ġperform ing
Aut hentication
197 3
ĠClass es
BU ILD
J an
ĠWil son
Ġb ow
M anagement
>< !--
ĠL y
Ġdecl are
ĠSt ation
Ġplan et
Ġcharg ed
Ġm ach
t ol
att ed
lim its
Loc ale
____ ____
RE CT
ce st
Ġdoub t
S plit
AC H
ĠW atch
ĠPub lished
Ġrecomm ended
h pp
m c
Ġsubstant ial
ig ate
Ġlog ic
ĠRes pon
196 8
po i
Ġp ipeline
annot ations
ĠCon nect
ĠL ew
Ġm useum
Ġsuggest s
- $
Ġpartners hip
Line ar
omet ric
lish er
F igure
Ser ies
erv ative
Ġc b
IL ITY
ĠC ro
y ard
Ġaccount s
Ġp un
R out
Ġc ash
St ar
Output Stream
put ation
ov al
Ġsp ons
cept or
ater n
Ġl ose
ĠM anager
ĠK r
Ġlay ers
ĠR h
d on
Ġexper iences
ĠAs ian
Ġa st
ĠC ountry
ĠRefer ence
Ä ĩ
por ter
M s
BO OL
Ġb an
Ġch ampionship
ĠK enn
Table Row
uest ion
jack son
UB LIC
ĠAut o
E very
in son
link ed
ĠPr ince
or i
T L
ĠAl bert
Ġpost s
Ġpers pective
us et
Re ason
part y
Ġhelp ing
unn el
Ġpe er
Ġa cknow
IM IT
Ġpartic les
Ġv ent
ĠS a
ĠEngine ering
p son
Ġpor tr
CO MM
Serial ization
ĠM S
c ounter
ap ple
ĠR ight
Ġadd s
an th
ss ue
Ġal gebra
ĠAg ain
\ ,\
B ased
F ixture
ĠR od
ĠCon vert
ser ies
Ġenc ounter
N ational
yn omial
Ġn s
p id
Ġadv ice
um a
an z
enc oding
Ġar ms
ĠV ill
O ld
] +
ĠI R
Id x
Ġscient ific
the orem
Ġh op
String Builder
File Name
HO ME
pl ain
eg ration
de ep
c ursor
L iteral
I ES
Ġpract ices
ĠEd itor
E Y
Ġan imal
ĠS ite
Ġwork er
Ġmark ets
Ðµ ÑĢ
ĠS C
no indent
ĠT ree
Ġalle ged
ag g
amazon aws
S witch
__ )
c ountry
od o
erv es
d st
è ¿
Ġe le
M ost
Ġdef end
un known
H ave
d anger
QUE ST
con nected
E P
Ġp erman
Ġappro aches
S napshot
Ġconsider ing
over ning
yd ney
ĠW hether
Ġ' "
Ġelect ronic
Per iod
Ġf aster
ĠĠĠĠĠĠĠĠĠĠĠĠĠĠĠĠĠĠĠĠĠĠĠĠĠĠĠĠĠĠĠĠ ĠĠ
ĠB BC
ign ore
Ġag ents
eng ers
Ġprom pt
ic ious
AR D
L IN
Ù Ĭ
P at
Ġcl one
CO M
cit et
ĠR on
Res et
Ġabs or
O ct
Ġeval uation
v ing
sem ble
ow nt
Ġfunction al
is ode
Ġun able
b ench
ĠOff icial
OL D
ĠS ep
Ġl oved
}} }
h d
Ġst orm
ĠW is
rel ative
Ġneg ot
INS ERT
Ġc as
ĠP romise
ud es
ad ed
(" \
Ġcol ors
ĠSe ason
Ġpro test
ap ore
not ify
F ALSE
Ġ( %
UR N
Ġobserv ations
get Message
R a
Ġelect ron
Ġattempt s
Ġappro ved
ĠC ost
EN V
St ud
Ġpe ak
Ġin ternet
Us es
Ġf i
Part ition
ĠIN TO
Ġcl s
" ];
b p
å Ĭ
Ġsub mit
con v
Ġnear by
w allet
Ġcoordin ates
n os
Ġunder st
we ek
u ction
Ġcontrib utions
let ter
Ġincre d
ĠB and
it led
Ġadv oc
ak i
Ġre verse
g ems
197 1
stats models
Ġd eleted
Ġm ent
D irection
ĠB ooks
Ġend ing
O wner
Ġcris is
Ġc ached
Ġhe aring
Ġjust ice
Ġacadem ic
Z ero
Ġv ul
el i
Ġd elegate
ly n
B ad
Ġ uri
Ġind ustrial
a is
CD ATA
in ating
Ġdr am
ĠD eb
Ġg ender
ut ely
": "
ul ating
Ġsett lement
Ġgo ogle
Ġimp lied
) }{
sp irit
< >();
loc ale
Ġs we
Ġg rew
Del ay
Ġsche duled
ru ption
ixt ures
Ġv ideos
B reak
Ġexpl ore
ĠLog ger
ĠS P
Ġv ir
Ġtr ained
Ġt ight
Ġp ref
~ $
EN ABLE
Ġint ent
f p
form ed
ent h
Ġwid ely
ĠL abor
oc os
196 9
Ġ| =
ĠÂ ·
Ġg ene
Ġauthor ities
P ower
Ġprogram ming
phot on
Ġout er
ĠC OM
Ġmin ister
Ġshare s
Ġe at
B u
ur able
Ġhom es
Re act
Ġmet rics
Ġfeat uring
Ġide al
ĠDig ital
ĠEd ward
Ġm ess
}} _
Ġact ors
ra ham
Ġ# {
al igned
inter val
ĠF uture
Ġhous es
ĠB uffer
Ġdi am
et ween
Ġterm inal
Ġig et
Ġle tt
Ġ* ,
ĠTor onto
ĠN a
Ġhon or
op her
qu id
Ġfile d
T y
Ġ urban
13 0
Ġdec isions
Ġb old
Ġ' @
ul s
) }$
Ġp owers
Ġwest ern
Ġas pects
D TD
ac r
vail ability
Ġdestroy ed
ĠO P
ane ous
ik a
Ġm ental
Ġbr ings
Ġb ass
Ġassum ed
Ġ ri
ĠCh air
Ġcom edy
ou red
Ġlarg ely
in x
ĠE th
ord an
t le
ĠB oy
un ting
sol r
Ġcomm ittee
Ġdet ected
Ġ- =
A vailable
Ġd elta
Exec utor
ĠE qu
Bl ack
ap ol
Ġext ent
ĠN ick
ĠC ert
st age
ĠB on
Ġim press
Ġw idget
ĠÐ ½
arch ive
y o
ele d
Ġrep ly
Ġlisten ing
$ }
Do ctrine
gener ator
AP P
Decl aration
Ġcon sequ
ĠSt ore
pre c
Ġw a
ĠB ang
Ġown ers
ĠE s
HO UT
Ġcont est
f older
ĠR os
ĠA ud
Ġmed al
Ġsubsequ ent
ĠIn it
ĠI V
================================ ================================
æ ĺ
B i
Ġtext ure
og ram
Ġat mosp
Sec ret
or ry
qu ir
Ġdem ocr
A I
Ġdeliver ed
osoph y
ĠSer ial
r ink
ĠEast ern
ist ical
ĠP en
Ġdeb ate
×ķ ×
Ġuser name
greg ation
Ġg oto
b inary
Ġhe av
refer ences
Ġrem ark
um ps
Ð ·
% .
u um
Ġl ie
Ġs ph
P riority
Ġa wards
part s
Ġc ab
ĠA P
un lock
as i
st ances
Ġmov es
ĠK h
ĠSup reme
Ġstrong ly
t l
uck s
Ġclo ser
az e
3 60
Ġleg end
U CT
Ġcorrect ly
BA SE
ĠG overnor
Ġn arrow
Ġfootball ers
ĠExec utive
ĠWh ere
ĠS end
Ġdec or
An alysis
p ur
Ġsud den
Ġsupp lied
Ġfeed back
and y
ĠF C
ug by
ĉ ĠĠ
Ġe lev
Ġc lip
Cre ated
Ġstand ing
t re
B its
Ġp ending
Ġf ly
ĠPar se
Î ¹
Ear ly
p rom
Ġp ed
ph ia
if ts
b ec
Ġ' #
Ġass ets
Ġepis odes
Ġpro s
ĠG reg
Ġvol unte
m ic
ĠH ong
ĉĉĉĉ Ċ
. ',
pt ure
Ġad m
el d
R ot
cl s
B L
Ġsh adow
Ġinteg ration
ri ev
ĉĉĉĉĉĉĉĉ ĉĉĉ
force ment
Ext ensions
Ġprov ed
ĠTr ansport
Ġcalcul ate
ru les
Ġrelationship s
ĠSystem s
ĠIn valid
SU C
Ġbel ief
An other
Dr ag
Ġsurround ing
cre ment
Ġvoc als
get Class
Ä į
Ġpro min
ĠOn line
ĉĉ ĠĠĠ
Ġparticip ants
Ġ" '
Ġp atch
F ixed
ĠP A
M ac
Rev iew
ĠL atin
Ġread ers
Ġprim arily
am ount
d irection
ĠStep hen
Ġg reatest
ĠU P
d ays
Ġengine ering
em bed
Ġtalk s
ĠL ow
Serv let
ell s
icip ant
v endor
ĠA venue
Ġt er
z h
ĠPh oto
D ITION
adel phia
A ctions
ĠAn th
p ref
ĠC at
Ġac quired
go og
ur ations
lic ated
Po jo
Ġfif th
w t
S core
* ,
Ġjud ge
ĠSc iences
Ġemb od
Ġs in
P resent
ag en
Ġtest ed
new command
Ġd ry
ĠAss oci
p in
Ex tra
local host
Ġwe alth
th ur
Ġrecogn ized
Ġ Å
Ġconf idence
Ġb undle
Ġdes criptor
TH ER
ĠA k
Ġwrit es
19 40
D ynamic
Up load
C ity
Ġalong side
Ġco al
Ġexperi enced
oc cer
Or iginal
ĠReg ion
Ġshoot ing
u ent
Ġdec om
j u
Ġh abit
Cal endar
Ġy es
Con tract
W in
sh a
Ġrespons ibility
I ME
Ġsh ips
ow a
Ġinstit utions
Ġg overning
ĠPro p
includ ing
Ġsh aring
ac ent
F urther
Ġang ular
Ġeval uate
ac er
Ġtechn ique
Ġinf rastructure
bserv able
Ġr id
Ġhistor ic
H L
s uch
Ġn a
ĠSt ock
10 2
ver ify
P ress
ĠB efore
Name Link
d am
c ases
In f
Ġtable s
19 45
ar ry
Ġman ifest
Ã© s
ĠE ric
19 30
10 24
ĠBy te
x sd
TR AN
Ġdist ingu
b ounds
196 7
ĠAd am
> ${
s quare
Ġrot ate
tool tip
ĠRun time
Ġearn ed
Ġint elligence
Un ited
S am
Ġ _{
Ġw ins
Ġh its
Ġ" ${
Ġcompos ed
B uf
O h
Ġim pl
Ġcr ash
Ġapp s
D iff
Ġfamil iar
out s
display Name
ach uset
Ġeff iciency
M utable
Or igin
Ġder iv
lin ux
Ġp ra
st o
Ġprof essor
Ġcont rovers
Ġcapt ured
Ġwor st
achuset ts
ens itive
ĠN C
Ġc ategories
pos ite
Ġdynam ics
Ġreport ing
Ġab ort
Ġb odies
ĠD ark
ĠR oute
Ġoppos ite
AS H
ĠF ord
google apis
Ġc ro
ĠS oviet
Ġc raft
amp ions
Dis k
T ube
Î µ
R ules
Load ing
Ġvot es
Ġaccur ate
ĠF all
ĠN ative
th umb
Ġinvolv ing
Ġcook ies
lo om
He alth
fore ach
Ġhum ans
% "><
Ch art
As sembly
om atic
Ġrec ru
qu ency
TO M
Ġwor se
Rep lace
ok ing
ĠColumb ia
Ġn ob
M ag
Å Ĥ
w r
Ġis instance
ff ee
Ġpr incipal
Ġprom ote
Support ed
Ġscen es
h istory
Ġrot ation
ĠPl ace
it ivity
fr agment
iz ers
Ġfe els
! </
Ġdi agn
ĠC lear
In struction
ĠInst ead
ĠArt icle
Trans ition
m iddle
Ġd ire
att ice
ID E
Ġest ate
nt il
Ġte en
ĠDe ad
ĠĠĠĠĠĠĠĠĠĠĠĠĠĠĠĠĠĠĠĠĠĠĠĠĠĠĠĠĠĠĠĠ ĠĠĠĠ
ĠĠĠĠĠĠĠĠĠĠĠĠĠĠĠĠĠĠĠĠĠĠĠĠĠĠĠĠĠĠĠĠ ĠĠĠĠĠ
Ġte aching
âĢ ī
second ary
Ġindic ating
ir k
ain ers
Al so
ĠR oss
Ġuncert aint
Ġlett ers
Ġprint f
Ġweap ons
TER N
Ġre con
el le
Ġserv es
all enge
C are
M achine
Ġsu itable
ert y
M usic
Ġent r
ĠA C
enn es
, $
In ternational
al so
ĠE nc
çĶ ¨
Ġfra ction
Ġmom ents
con cat
end point
pay load
Ġpolit ician
H is
example s
ĠK now
ile y
ĠJ ean
19 64
add Class
w orth
Ġsc atter
lic a
ong o
G ood
Ġfew er
Ġscal ar
Ġher o
ĠD er
Ġinterest s
è ®
s peed
S elf
Ġin herit
55 5
an im
ĠT ry
Ġs pl
Ġ' ,
Ġdis ap
st ates
Ġclass ification
list ener
P ut
Ġtit les
Ġpro port
ĠC red
pl ays
IN VALID
E v
') ->
o en
err ing
Ġintrodu ce
Ġtem por
= $
Ġcap able
ateg or
Ġpass ion
nes ota
ac on
B ro
ec lipse
Ġ\ ;
dec ode
l ua
Ġc riteria
ĠCol umn
19 20
Ġdec ide
Ġask ing
() ">
on om
Ġst ands
ask a
Ġdiv ided
H z
app oint
ar on
Î ½
ise cond
Pro f
Ġmin imal
ĠV iet
w ing
nt ario
Ġpriv acy
app y
Match er
Ġconcern ed
LO AD
Ġin equal
Det ector
Ġs quad
Ġd rawn
ul p
ĠMA X
Ġindic ated
Ġbring ing
ĠEli zabeth
ĠC ulture
tim er
at ibility
P G
fort unately
Ġinter actions
Feature s
e en
ĠC ru
com ple
ail ing
Ġposs ibility
em an
Ġthe orem
W r
Ġr is
pect or
Ġrespons es
ivers ary
Ġcontem porary
ĠAct ive
Ġmount ain
Ġarrest ed
mem bers
AT URE
Ġlos ing
Ġcan vas
Ġle s
Ġexplicit ly
Code c
1 12
ĠG ro
Ġwindow s
Ġm and
Ġscen ario
le ton
âĢĻ .
ick y
ĠMark et
ut down
RE SS
m ount
ab a
Ġput ting
no frame
Ġh a
ADD ING
ĠI mp
te ction
Ġt f
Ġwill ing
DE D
Ġa thlet
Ġ' -
ed er
C annot
Ġfund amental
ĠK EY
ind u
riz ona
t oc
Ġb ands
ĠS ym
SOUR CE
Ġl y
con current
Ġc overs
div ision
Ġpol ar
Cont in
Ġocc asion
Ġgener ator
........ ........
SP AC
ĠLe ad
h ook
Ġcheck s
includ es
Ġresearch ers
ĠBr ad
ch ant
Pr imary
Ġphen omen
ĠR yan
Pack et
Ġopt imal
Ġadd r
Run ning
Ġadopt ed
Ch rist
Ġrestaur ant
re ason
ĠU til
ĠIllegal ArgumentException
g raphics
Ġrecogn ition
m ay
Ġred irect
Ġf estival
C amera
B ACK
Ġw inter
Ġp s
ĠOper ation
ĠC S
Ġfor get
fr ames
ĠĠĠĠĠĠĠĠĠĠĠĠĠĠĠĠĠĠĠĠĠĠĠĠĠĠĠĠĠĠĠĠ ĠĠĠĠĠĠĠĠĠĠĠĠĠĠĠĠĠĠĠ
Ġm ort
fe ction
Ġins urance
u er
pe ction
pre pare
Ġb aby
Ġhon est
ĠSt aff
Ð¾Ð »
ĠC reek
ĠD est
Ġfor g
Ġind ices
Sup er
Ġsign s
` )
ĠIs lands
Al ert
ac o
ĠC ub
Ġdefe ated
ĠAn alysis
Ġh ook
ĠGener ated
ĠR eb
Ġmoment um
li x
iffer ent
on omy
Ġsold iers
ext ensions
Ġpublic ation
Ġb ought
Ġ iron
ach er
... )
Un iversity
Ġen umer
T ex
U K
olog ist
act ic
Im p
l ot
__ ["
Or gan
as ets
or er
fl ush
ĠWIT HOUT
Ġp ixel
Ġin structions
ĠN iger
TableRow Color
ĠD oug
v g
ĠY es
r ank
Ġcol our
Ġtem porary
ĠVAL UES
ĠMethod s
== =
ĠO Caml
Ġsp atial
Ġ\ (
ĠA rr
Ġcomp re
Ġab use
0000 0000
Part y
Ġre nt
Ġlog in
Des ign
Ġga uge
Ġk illing
ip edia
e ah
u ency
>( <
lic ity
ib li
Ġqu eries
\ }$
F ac
Ġmod es
Ġhyp ot
ann y
U AL
Ġvert ices
Ġcon j
des criptor
ĠB rian
D avid
roll ers
ĠAlex ander
ĠS ydney
c ity
ou ston
mat ches
cuss ion
Ġd ual
ad v
196 5
EV ENT
ĠS anta
be ans
Ġh ole
Form atter
_ [
Br idge
ĠF ix
æ Ī
urs ive
ĠB ORDER
ĠArg ument
ĠCom ponent
tr ansport
RE T
yst al
] ['
is lation
ĠIm mutable
ops is
Ġw elcome
Ġcell padding
ĠT OP
Ġt um
SP ACE
T yp
d elegate
Ġvis ited
I p
Ġhor se
. âĢĻ
Ðµ ÑĤ
ĠS W
s ure
c mp
C ent
Ġcomm only
Bit map
Ġpack ages
l ive
end a
ĠScott ish
ow s
Ġmeasure ment
up dated
Ġr ig
Ġre new
__ ,
Ġs ed
k ernel
es is
inc iple
ĠAnt on
Ġr ide
ir ms
ĠDav is
en z
ĠD NA
d ocker
Ġc ards
ur d
ust ed
40 4
ell ar
ĠA ws
com plex
ĠFr ame
ag ement
an alysis
B rit
Ġge ometry
F oot
ĠJac ob
est ure
Ġsl ot
ph ony
Work er
Ġas pect
sl ide
ound ed
Ġb ucket
Ġdom estic
Ġqu iet
Ġpl ate
Ġdec ade
O k
ĠH ay
Ġpercent age
C trl
ĠHar ry
Ġreplace ment
External Task
Ġprogram me
Ġestim ates
lo v
aw ay
b old
ĠM obile
t m
Ġp in
l f
g overnor
end o
contin ue
Ġsol ve
code c
Ġch apter
ĠHand le
ĠB ru
ĠR ose
Ġconvers ation
Ġs now
s leep
ĠPr ivate
av icon
Ġpolit icians
O cc
ĠAr m
M ich
Ex pect
P ane
ĠM iller
ĠOx ford
Ġf aces
ĠHot el
19 66
| ^
Ã º
W rap
Up dated
ĠP ot
n l
=" {{
] </
â Ķ
Ġr ational
Ġcell spacing
ĠE RR
Ġpr incip
Â ©
ĠC as
bind ing
A pr
Ġincor por
Ġexc ited
Ġreg istration
Ch anges
ĠB all
Ġsim ulation
med ium
E s
Ġb omb
th rough
ĠHistor ic
ĠD utch
Ġk w
V ec
w br
K ernel
ĠO K
Ġre pro
Ġa id
99 99
ĠF ALSE
ĠN ull
F re
A MP
Ġp ixels
sp ir
ĠF ac
Ġspe aking
Ġd ates
Ġbehavi our
s pe
ĠFore st
S ol
pro c
Ġaut hent
out heast
y ers
Control s
An im
Has Been
ĠF A
B ER
ĠM arg
ĠTr ack
Ġ" _
Ġeffect ively
Ġdr ivers
he im
/ )
ExternalTask Pojo
reg on
t ail
Ġmag ic
ĠVictor ia
Tr igger
Ġsepar ated
tr m
Ġc atalog
Ġsil ver
S pe
Ġhard ware
ig e
Ġch oices
Ġk it
S outh
c u
ĠR ender
Ġrece iver
View Controller
ĠO s
cons in
ĠB at
Ġsol o
ĠMore over
ĠFinal ly
ĠIn v
id ae
gener al
Ġdrug s
Ġm atters
ĠW HERE
max cdn
U A
ri ends
Al pha
Ġoper ated
tim eline
Ġsp ending
Ġc m
Comple tion
Ġdo ctor
Ġestablish ments
ock s
ĠK IND
uff ix
A ug
Ġman ip
ĠCEL L
ĠRep resent
are st
ĠMass achusetts
Ge ometry
OT TOM
T ry
Sc an
f aster
ub ern
(' ./
Ġdanger ous
red irect
ĠFore ign
Ġt uple
Ġclos ely
ĠEx pression
ĠMay be
Ġto kens
Ġ å
Ġsch olar
t ainment
fa iled
t ic
Ġour s
âĢĻ ,
Ġpro ud
pre d
ri ent
ĠF ish
op am
dat etime
ĠA ge
Ġor ig
Ġpre ced
at rix
Ã© e
ĠLic ensed
ĠB ell
11 1
ant e
Ġmeasure ments
P ush
Ġy ards
ĠD u
M AN
pr iv
ident ity
b ucket
Ġconfig ured
Ġpar a
Ġult imately
Ġpotential ly
Ġcrow d
Ġaff ord
Ġcor re
Ġfl ux
Ġag ric
Ġperson nel
exec ution
shall er
pear ance
Ġw aste
me an
te am
Ġl it
Ġcor porate
ĠM ust
ĠV en
Ġorgan ized
ĠSing apore
Ass et
Ġnewsp aper
ĠE ll
work s
rop ol
Ġv eter
Ġ======= =
l u
ew idth
Ġtechn ologies
Ã ¥
om m
Hash Map
ack et
Ã ¸
Ġpers ons
Ġcamp us
SPAC ING
S UB
late st
Enumer able
Ġbig ger
Ġsc ores
ph ase
Ġemerg ency
feature s
Ġsu it
ĠIn ternal
Ġmor ph
ĠTh rough
Ġworld wide
m anagement
Ġw rapper
Ġinter act
re pre
not ification
Ġpass es
az a
ĠRes ources
ĠN eed
Ġil legal
ip h
Ġp seud
ĠSk y
ĠR o
ĠPal est
Ġin hib
ct ree
Ġnot ification
ox y
a ui
bour ne
m igr
ĠF I
C ould
L ite
Ġab andon
ĠMin istry
WA RE
Ġar ts
pe g
Ġro utes
i ac
ĠChampionship s
(" .
Ġtro ops
Ġhundred s
Ġsee king
Int ent
Ġf oo
ĠH al
ĠD atabase
on al
ang el
ĠNS String
HasBeen Set
" ])
sc ore
Ġdevelop ers
ĠTur key
ĠĠĠĠ čĊ
qu ant
Ġsub scription
Menu Item
Ġyoung er
S pecial
ĠL ady
Ali as
M IT
ĠBuild ing
ĠG allery
MA GE
writ ten
ĠCont in
ĠAl b
st eps
Ġrelig ion
ĠT al
ester day
Ġsign als
ĠMag azine
ĠN um
Mod ifier
Ġ/* !
Ġimmedi ate
Ġh all
l ap
Ġdefault s
Ġret ired
ĠBr idge
U nd
æķ °
as hes
'] .
Ġobject ive
c x
E q
c ross
ĠT ok
Al though
Ġperform ances
Ġreject ed
Key word
ĠL at
="../ _
Sh ift
get Attribute
] ->
IE W
ĠPort ug
Rece ived
Ġp ictures
Ġfrequ ently
æ Ĺ
at ile
c ourse
Ġdef ines
D ict
ĠGold en
Ġopp osition
Ġd ictionary
repre ne
ab b
project s
Un iform
ĠD ebug
m oment
Arr ays
ĠD am
foot note
ĠMod al
W eek
Ġr ural
Ñ Ĩ
Ġl ift
M ust
in ject
Pr ice
Ġne ither
CRE ATE
Ġtell ing
com b
F etch
y cl
RE QUEST
ĠM D
Q ual
m n
Ġ( @
ant ed
Ġex posed
ĠColor ado
Ġstri ke
str iction
Ġcoordin ate
r ices
Ġcert ificate
ĠS uch
s amp
do or
Ġrail way
ast s
Ġrecover y
Ġfl ash
Ġup load
is or
ĠL es
Ġinter pre
Ġreg ime
u j
hens ive
Ġd ress
arr ing
Ġarr ang
qu o
ig ator
Ġm outh
Ġas ym
Ġse ats
Hel lo
ĠL evel
iv als
14 0
Ġg lob
LP ADDING
AR RAY
Ġm ath
ĠS ound
Ġal gorithms
A K
LA B
ial s
Ġass et
Ġinstit ution
Ø ³
AR G
pop up
The ta
i ors
Text View
tex trm
Ġext ensive
I FI
Ġ" );
Ġimp ossible
erial ize
he ets
Ġ" #
Ġclub s
ĠCELL SPACING
Ġst rip
rib uted
ĠCEL LPADDING
ast y
db c
SUC CESS
ĠAdmin istration
f w
out ube
" ?>
ĠT YPE
ĠL I
ĠB C
op lus
Ġsomew hat
Ġput s
O FF
V ol
G RO
D en
ut r
ĠS SL
sl ider
Ġwe ar
Ġg od
SS AGE
]( #
ang ers
Look up
arg o
ĠCl inton
ĠI F
u able
Ġcorrespond s
or se
D istance
ell ite
Ġwe ights
V O
ĠS ant
ag ues
put ed
Ġbreak ing
) _
Ġenh ance
ex cept
Ġs ender
T X
er red
FLA G
Ġvict ims
ĠBer lin
Ġl ots
se ason
ch unk
ĠPol and
per m
text tt
}} _{
PREF IX
Ġ$ $
ref resh
S ch
ĠHash Map
ĠĠĠĠĠĠĠĠĠĠĠĠĠĠĠĠĠĠĠĠĠĠĠĠĠĠĠĠĠĠĠĠ ĠĠĠĠĠĠ
P al
Ġpresent ation
ĠMed icine
Ġintrodu ction
> `
Ġdiscover y
Mon itor
EX PORT
itor ies
Ġg ro
Ġprefer red
se cret
Ġimp licit
fr ag
ĠCon sole
tern oon
gr pc
inem a
Ġexerc ise
Ġt ack
w as
F actor
ĠT ABLE
In jection
tr i
sub Nav
Ġthought s
Ġex pr
Ġres istance
Ġstrateg ies
Ġ} ).
faster xml
Ġmiss ed
Ġwalk ing
depend encies
×Ļ ×
h our
label s
ĠLew is
sche mas
quis ition
Ġ< ?
Tool s
C SS
T ri
Ġbase ball
ĠW ord
Ġpol ynomial
Ġinteg ral
ob serv
Ġf old
="@ +
ĠHol lywood
Ġb es
Ġintegr ated
N ECT
ic ients
Ġsp oke
10 4
Ġsk y
st ud
Comm it
Model s
IL L
trans l
ug ar
pag ination
FN GL
Rel ative
ether lands
Ġplatform s
es ian
Ġexp lo
ĠM ill
Trans lation
nob r
un ter
**************************************************************** ********
[ -
t ile
B M
d td
ĠEnt ity
L D
Mod ified
Ġst one
Ġs elling
f ilters
dis patch
ĠC art
n ed
Error Code
ĠPhil adelphia
S ources
10 5
Ġsim pl
h ill
}^{ -
ĠDate Time
Ġs ad
process or
################ ################
Ġc odes
ĠS mall
à ¦
ĠS V
Ġfil ters
Ġteach ers
Ġaut hentication
oc om
g lob
Ġexpos ure
Ġgr ade
Ġoper ate
Ġcor relation
ar ity
ĠJew s
ĠPH P
own ed
Ġref resh
she ll
} &
ĠUn less
ĠM ir
Ġrepe at
Ġv ess
Ġwhere as
ĠD or
G ateway
Lin q
ordin ate
Sup press
Ġgrad ient
Ġbo ys
Ġro bot
c ached
gu ide
w alk
E LEMENT
ĠL ie
pr ice
Rel ation
ĠR ome
i at
Ġsatisf ies
Ġs cre
d ynamic
d n
ĠK evin
Ġfind ings
a ug
Ġl l
ĠMod ule
Ġvisit ors
Ġcharacter istics
Ġstre ets
Ġb id
ĠN FL
Com ponents
and al
Ġsup erv
Ġexp ensive
Ġinter section
Ġa apt
N ON
ĠMin nesota
attr s
IT LE
Ġvul ner
pro f
ĠO ptions
Ġext ensions
viron ments
Qu ant
Ġm m
map s
Ġon going
c amel
Ġt ough
ĠB log
ĠT arget
riter ion
Ġw ine
D er
ĠTR UE
p od
ĠB AS
Ġv ast
L ive
set Text
i est
Ġmin im
o a
H er
Ġdec ay
pack ages
196 3
yg on
ch at
Ġsub set
ious ly
ME M
et ary
dist ance
B us
ĠL ang
hold ers
c ers
z ed
Ġaccom pl
Ġb low
ĠK at
l ined
ĠCon nection
Ġf ired
ĠDe ath
C UR
i pl
P ixel
L at
plement ed
Ġhealth y
Ġg it
v et
set ting
quest ion
aud i
g ar
decl are
elastic search
Ġsent ence
Ġacc used
Ġprocess ed
serv let
Ġres olved
Ġturn ing
ĠD ream
dat aset
on ia
Ġenc oded
D ry
Ġw alls
value Of
separ ator
h us
p aces
Ġtal ent
Ġpl ain
ĠSh er
c urrency
Ġm ine
ro ck
Ġe igen
p ending
od a
MP L
wh at
ĠM E
ous el
N ONE
Ġ$ ('#
ib ilities
Ġre venue
Ġy ellow
P ipeline
Ġopp on
ab stract
Access or
Ġaccess ible
u cc
Ġabsol utely
ĠO cean
Ġv on
OR S
Ġretr ieve
AC HE
c ookie
Ġsc an
Ġpropos al
des cribe
ĠDes pite
st e
Ġloc ally
> ../
Ġv irt
draw able
aw esome
r ons
Set up
Ġhost ed
Pay ment
Re pe
trans late
! =
id o
Ġs i
Capt ure
Ġprec ision
Read y
Ġc p
ĠSt adium
iz ard
f ish
eg as
Ġtrans mission
[ (
ĠT ony
Sh are
Ġadvert ising
Ġscient ists
ĠT err
Ġacc um
ĠM oon
Ġe c
Ġqual ified
el lect
mark s
1 16
ĠAnd erson
pi pe
ĠÐ ´
Ġm ob
ownt own
ĠG raph
CO UNT
met rics
Ġw ed
ĠOther wise
ĠÃ ł
man ifest
Ġfr ames
> [
Ġrest ore
Å į
A SS
S ide
ĠT ake
Ġhel per
ĠN ever
z y
Ġca using
Wh ite
Ġc ensus
> {
Ġs ight
he x
ĠDo es
co hol
Ġconst ants
sc an
Ġofficial ly
L ines
é Ģ
ord on
Ġther apy
mult ip
il k
Ġfor th
Ġg iant
Ġenjoy ed
Ġdis patch
ST ART
ĠD ictionary
Ex it
Ġco ins
] ).
re ement
T ip
ĠR aj
Ġret ire
N orth
Ġ" )
En tries
ession al
Ġun iverse
At trib
oc al
Ġexpress ions
per ial
t v
ĠM IT
ĠN ations
C ountry
ĠD CHECK
var s
Ġfac ilit
Sh arp
Struct ure
SH A
ĠAff airs
st ory
196 2
5 12
Ġinstall ation
Cert ificate
G it
D im
cp u
Ġapp lies
Ġre form
Ġfact s
Can vas
Test ing
Ġh ist
Ġ" ;
N eed
t one
Ġexpl ains
Ġair port
ĠĠĠĠĠĠĠĠĠĠĠĠĠĠĠĠ ĠĠĠĠĊ
N umer
Ġsort ed
s ch
re ll
D one
ĠB asic
Ġattr s
Ġsub scri
ĠSt op
l if
Ġw er
Ġrepresent ative
ĠP it
Ġapparent ly
Ġsur prise
C irc
Data Type
ĠS in
ustr y
bul let
ĠOff icer
Ġcou pling
Ġbeaut y
Ġm ac
< \
ĠS quare
Ġfound er
Ï ĥ
M esh
p ipeline
Ġm ile
Ġcomb at
Sub ject
ist a
int s
IN IT
M ount
cl ine
h base
Ġassum ption
Ġrel ax
Ġassess ment
ĠL ind
em ic
Ġnecess arily
Ġso le
Ġch ampion
Ġcollabor ation
Ġappe al
Ġst im
Ġdoll ars
å ľ
Ġtw enty
ĠH ence
Vis itor
Ġb at
Ġem it
Ġs yntax
append Child
Ġbound ed
ĠG il
Ġpract ical
Ġprom otion
L ear
at able
Ġs oul
File Path
I l
g p
Lower Case
qu es
Ġemploy ed
Ġleg isl
Ġnumer ical
Ġex cess
lin ewidth
W ORK
Ġmat ched
ert o
Ġleg acy
Ġr ating
st ub
Ġconsum ers
Ġfl uid
B el
ĠT oken
Ġexpert s
Ġgood s
ĠJes us
Ġprov ince
wh o
add ed
Ġtim er
ing ham
ĠP UBLIC
Ġes cap
ch anges
Ġdraw ing
Gr ad
ĠTur k
ĠH ung
Ġopt ical
Ġass istant
N R
ĠPub lish
ĠSim on
ri ble
Ġmark er
ĠArg ent
run ning
v ia
ĠA rizona
Ġeast ern
cul ate
og ene
o or
Ġout come
to ctree
stat ement
ĠTr ail
an ches
T ele
mut ex
FORM AT
br ace
Ġle ct
run ner
Ġem ission
Ġtop ics
G LE
Ġthe oret
ĠL ev
ĠBel g
v i
av is
m ad
Ġtot ally
Ġc ub
Ġacc ord
Ġaccom mod
C LA
Ġdis miss
} "/>
arg v
qu arters
ĠS av
raz y
Ġref ers
re duce
S ent
text ure
Ġsit ting
Ġtri es
Ġf asc
ĠÐ ¸
w i
Track er
ĠÐ º
Ġst ood
B usiness
G P
Function s
ĠKore an
ĠH ost
Ġs lice
ĠMount ain
Ġh ate
Ñ ħ
Ġs ensor
ĠA uth
clus ions
Ġcheck ing
look up
A E
> .</
Ġbl ank
c n
ĠHe art
Ġcon sec
olv ing
agon al
rop ical
se a
Ġtransfer red
col n
ĠDis ney
ĠProv ince
em ony
Ġsurg ery
' _
ubern etes
Us ed
S F
Ġal ive
Ġar c
az ure
ĠA h
Ġbro ke
ro it
ĠS ession
ific ial
Ġse es
Named Cell
ĠC orn
ĠDemocr ats
f ac
ob by
+ "
St d
ig a
m aker
Ġoptim ization
ĠO pt
ĠMod ern
n ie
; %
F ill
N a
Ġcl im
ĠInitial ize
S an
i y
FA IL
ut ter
ĠS ize
196 1
our i
ump y
Ġinvestig ate
Ġf ib
path s
iv a
ĠM atch
ĠB reak
Ġr aces
n ail
Ch unk
Ġrec all
Ġc yc
Back end
K n
m ime
ĠWis consin
Ġro y
Ï ģ
m ont
b est
Ġresult ed
Block s
Ġsing les
Ġv ice
itect ure
an ia
ĠG iven
vert ex
ĠDi ego
script s
row se
W arnings
Ġd iverse
Ġb att
M ix
Ġsuff ered
ak h
R adius
ĠB ush
Ġwonder ful
s ent
Ġloc ale
å Ń
19 44
_ *
S eq
Ġt aught
Second s
tr ain
ic ates
Ġread s
F ire
Ġleg islation
c sv
() ]
ic ide
Ġimprov ement
ĠYou Tube
a ire
000 1
Ġs av
Pop up
Ġrem oves
'] ))
Mill is
ĠO ntario
Ġp it
Ġf acing
Ġhead s
ĠS M
Ġag encies
Ġpl enty
F i
en vironment
Ġpurch ased
ĠC F
Ġelect ro
ĠEnter tainment
Ġreason able
RO OT
d ers
Ġf ault
Ġlands cape
Ġsubsequ ently
M ail
AR GET
Ass ociation
Ġend if
ĠSur vey
Ġen emy
Ġown ership
Ġs weet
a us
Ġdisc rim
D ao
Ġc ookie
ĠFr ont
o i
r uct
b undle
ĠAg ency
FR AME
ĠAtl antic
it ative
ub b
os ity
With out
Ġo x
Ġincreasing ly
Ġt icket
Ġan notation
ĠS pr
ades h
ancell ationToken
B lob
Ġincor rect
hel lo
ĠM oh
Class Name
Ass ignment
olv es
Ġpro jection
S afe
att ach
- ">
Ġbo at
Un ique
Ġpr inciple
ĠP layer
Ġcomplex ity
( `
set minus
c op
Ġ$\ {
c ow
M obile
ĠCl in
Ġal leg
sub string
met ic
Ġg ift
Ð¸ ÑĤ
Ġf at
50 9
Ġeduc ational
Ġtroub le
Ġ. =
N eg
un ks
Filter Database
Ġre ar
: %
Ġpick ed
act s
Tem p
Ġtrad ition
B ucket
Ġexcit ing
Java Script
igh th
initial ize
Ä ĥ
Ġd ele
Ġequal s
ĠPat rick
ĠN othing
Ġw ing
T imes
Sl ot
ĠCam bridge
ĠW inter
Met ric
F eb
or ne
ĠJ ordan
ĠI gn
Sc ene
Ġprodu cing
op acity
j an
oen ix
per iod
ĠB urn
PAR AM
A ustral
Ġint ention
Ġpoint ed
ad apter
ĠString Builder
. ")
U int
Ġdepend ent
task s
Ġb anks
the w
set Attribute
Ġlo an
Ġw heel
Per cent
Ġt s
Ġclos ing
h olds
t bl
Valid ate
S rc
stream ing
NG TH
ĠN etherlands
Ġcons c
ĠS ymbol
er d
Ġcon tribute
Ġw el
ct ic
ib ling
: &
V EL
="# "
Ġmusic ians
non atomic
Ġpred iction
Ġadult s
Ġup grade
sub figure
Ġtrack ing
St age
Ġdi agram
m ov
N P
ĠS ab
ĠCl ark
RE NT
c v
i able
ĠOlymp ic
ra ction
Ġvot ers
ĠD im
ĠCar l
Ġ æ
t ele
ĠMan chester
ennes see
h ist
Dest roy
Ġbe am
Ġmonitor ing
allow ed
S UP
c lip
ĠLear ning
ĠH ouston
ĠA mb
ens ation
ĠN orm
ic ity
ĠLe on
Ġb ott
r v
Ġsc ul
Ġdeb t
N I
los ing
sur face
Ġconfig ure
Ġcover ing
Ġli quid
ĠRev olution
Ġpul led
() [
P adding
s at
P ref
fg han
Ġaf ternoon
? )
ĠO regon
ĠMem orial
Ġin variant
in herited
ĠP ackage
-------------------------------- ----------------
19 2
ĠO k
^ -
ort heast
C lean
ç »
T ick
Ġ( `
ĠK a
sample s
ich ol
s creens
Ġinequal ity
Ġsim ult
IN DEX
Ġex clusive
Ġpromin ent
Ġnuc le
M c
EN CE
Ġobserv e
Ġev il
Ġobserv ation
row Color
Ġdocument ary
ĠE vents
Ġgrow n
Own Property
Ġdefe at
Ġpres ents
Ġwin ners
isecond s
C ost
ort s
Ġb on
ĠL E
Ġrev olution
Ġgu ilt
Ġexhib ition
P ad
ĠG ree
ĠJ ane
Ġte ch
s ources
ĠSim ilar
ce ived
Ġsym metry
Ġdr iven
ĠN AS
Ġs napshot
Ġprov iders
Ġanal og
ĠA I
Ġbi as
Ġun ivers
Ġentert ainment
ĠCom ment
* >(
us age
Ġfunction ality
en o
ĠJava Script
Ġterr itory
ĠCon struct
nos cript
X Y
ĠL abel
ĠSum mary
il ib
ĠC ab
andid ate
Ġin fer
Ġhas n
Ġin tern
B D
ĠFurther more
Check ed
ari os
Ġsequ ences
Ġappro val
195 9
ĠS ingle
ĠC ache
Ġst ages
Ġinter ior
Conf irm
che stra
cond itions
Ġ$ |
S eg
WR ITE
ul ous
ĠM unicip
p al
ĠB OTTOM
urre nce
ĠF ilter
ĠN az
TE S
ĠMo ore
F ix
it ro
L ife
iev al
Ġlow est
9 00
FFFF FF
E p
ĠPri ze
ĠC hen
u eto
Ġpro sec
ĠUs ed
G uid
Z oom
form er
Ġm acro
u ity
ĠKe ep
Ġth in
Oper ations
Ġpresident ial
ĠL ater
ent ries
ĠL iter
SER VER
Ġvers us
Ġhost s
Ġsym pt
hash Code
âĶ Ģ
ĠSt one
' },
' ):
ĠRe quired
//////////////////////////////// ////////////////////////////////
Mer ge
subset eq
R ich
Ġpil ot
Set s
back end
Ġoppos ed
Con straints
Ġsign ing
ĠG it
Ġto m
Ġass istance
Ġenc ode
Ġin finite
Q t
Ġtr im
mod ifier
it als
Ġdepend ency
ĠCapt ain
Ġexp los
^{ -\
Ind icator
parent Node
Ġ ion
__ .
C ross
ĠE N
Ġvari ant
Q UI
Ġany where
F e
b urn
qual ity
H ol
Ġsens itive
st an
J uly
ĠMem ory
b one
Ã ł
E ven
Ġapprox imation
ĠTh ose
Ġ" [
ĠEx pl
T ax
P ending
ĠD oc
Ġrep orter
ĠS cript
place holder
ĠVer ify
ĠPro perties
FT WARE
a que
r ides
Ġass ault
aw t
ĠV ar
ec ess
Load ed
ĠL ock
Ġre ward
Ġ/ ><
es cape
Ġrob ust
Ġextrem e
Ġk il
ĠH D
ĠIm port
Ġprov ision
ĠGr id
Ġphys ics
]] ></
Ġin herited
U UID
T ensor
Ġcoll apse
char acter
ĠD A
Compar ison
ah o
Ġhand led
B LOCK
Ġsever e
ou st
Ġb are
f avicon
ĠH ave
Ġident ical
m icrosoft
10 3
ĠCON DITION
ams ung
Ġinj ured
Ġg ained
li a
i ot
u h
ĠB ry
Separ ator
ĠH art
T HE
Vis ual
ze ch
! (
en ess
P icker
ĠC ook
dir name
M F
A zure
seg ment
Ġass ignment
ĠGr ant
ĠMe an
er es
Ġst ick
to Equal
Ġent ities
ãģ ®
W I
p ot
tool bar
G N
ĠTr aining
az el
ĠEd ition
Ġh ack
ĠK ansas
respons ive
ĠF ight
end ment
ĠQue ens
pon ential
Ad v
Ġass ist
Are Equal
Âł Âł
ĠEx press
ueto oth
ĠG ET
Ġmill ions
pro fit
ĉĉĉĉĉĉ Ċ
c amera
AUT H
h alf
ĠR elease
Ġemotion al
Ġt ip
fin ity
ĠJ am
Pay load
Ġconcent r
ah oma
Ġunderst ood
Ġdis appoint
ĠParam eters
Ass ign
first row
Ġat trib
Ġro of
ION S
Ġcircum stances
Ġessential ly
App ly
ĠC hem
11 5
Ġ// -->
ust ries
U V
] ),
all as
Mod al
ik es
ĠD I
ĠD raw
Ref resh
Ġnot ify
u ating
ĠE ffect
Ġcap abilities
Sh adow
Ġbe ar
k et
el led
ERT Y
Ġvict im
Ġperman ent
Ġle af
w edge
ĠF arm
dr ag
col on
Al t
Ġe g
in ch
p n
ane ously
ĠMar c
b ow
i ations
Ġd ies
Ġcollection s
Path s
ĠMi ami
off s
ĠM rs
ĠW el
ĠCh rome
AB ILITY
Ġvari ation
un ning
ID ENT
Ġcon crete
dis k
ĠP si
Rel ated
Wh o
ĠTe ch
ph ant
ren ce
ri ers
Ġbul k
Mark er
ĠAt tribute
S ig
ĠD ave
ĉ ĠĠĠĠ
sub scribe
Ġmaint enance
Ġembed ded
Ġparticip ate
Ġsymbol s
ĠR oom
C ookie
è ¡
ch rome
Ġ-- -
ĠĠĠĠĠĠĠĠĠĠĠĠĠĠĠĠĠĠĠĠĠĠĠĠĠĠĠĠĠĠĠĠ ĠĠĠĠĠĠĠĠ
AR CH
v ard
Ġd ust
Ġnorm ally
z oom
sp in
195 8
m ix
ĠP rom
OB JECT
ĠT ax
Ġlook up
to LowerCase
c py
ĠE P
St yles
ĠS n
iv o
Ġconcent ration
S uite
ĠYear s
ĠE ver
Status Code
pack et
Rep ly
Ġimag ine
ĠS ix
Ġne uro
Ġarr ays
ag an
A ir
Ġam plit
ĠSil ver
Ġre in
' =>
J une
ĠPrem ier
10 7
Ke ep
ĠJ ay
Ġ# #
Ġroom s
An notations
Ġto String
Ġs event
s is
O C
develop er
Ġd ump
Ġm it
Ġsub mitted
ĠH an
Ġâ Ĩ
Data Source
Ġamount s
M AC
r and
Y S
ub er
[] {
R GB
ĠC ell
Ġfall s
Ġradi ation
Ġun expected
date picker
ĠS ET
s With
for ge
Ġdep os
fl u
af ka
Ġst ability
Ġdo ct
yn opsis
st ers
ren a
ĠD id
Ġste el
a ux
ME SSAGE
ig o
ĠSt orage
High light
d ump
Ġ( $\
Ġp up
Ġv ec
? (
ĠInd ones
:: $
Par cel
ĠS ave
D an
Ġmed ian
ĠSwed en
Ġp apers
Ġpain ting
lik ely
ol ute
Part icipant
c lock
Ġoutput s
Ġrele ases
r x
Ġpy thon
Str ip
Ġx si
Ġabs ence
qu iring
ul atory
ĠF ollowing
Ġun us
ãĥ ¼
Ġperm it
ĠPhilipp ines
Ġb attery
Ġdemonstr ated
Dest ination
over flow
Ð¾ ÑĢ
ĠSen ior
ĠRail way
et ies
Up per
sm art
Ġh orizontal
11 4
ĠU TC
100 00
Ġthread s
E qu
Ġsing ular
19 48
ĠR ange
aw are
Ġto ler
ĠRem arks
Ġch ose
ear ing
po ch
ĠO ak
Ġany way
Th rough
ur se
S ports
Ġhappen ing
Ġres cue
pay ment
ĠD uke
\ _
Al ignment
it is
Ġcomput ing
Ġsatisf y
Ġw ond
t z
Ġcommun ications
Ġprocess or
ĠF ound
Ġwr apped
19 42
over lay
Stack Trace
V ote
RO W
roll ing
Final ly
Ġsum mar
Ġrequire ment
Ġgr ab
R I
enn y
ul k
ĠP red
ĠCONDITION S
Th ree
A ud
L ang
Ġrespect ive
str ument
Brit ish
Ġup coming
ĠAll en
ĠIslam ic
Ġdes ire
Top ic
un ion
fl uid
ĠCap ital
at on
ec ycle
Ġi Phone
Ġcon clusion
Ġdep loyment
F oo
Sub scription
Ġf lying
Ġke eps
Ġregard less
AAAA AAAA
reg ular
ĠBAS IS
II I
vis it
order ed
Trans fer
per or
H C
el son
ites pace
Ġv ectors
Ã¡ n
Ġpre gn
==== =
V IEW
195 7
ĠM ilitary
Ġsc oring
Thread ing
Ġm arg
V C
Ġr acing
ug s
re ts
et c
gress ive
Ġinv ited
omorph ism
ĠPro position
Dec oder
R S
195 6
Ġdef initions
_{ {\
ĠW ait
ang a
m ust
ĠD og
app s
** *
Ġcomp ilation
Ġb rows
\ }
f oundation
Ġst ub
od ge
omet imes
A v
TEXT URE
/** */
Ġh at
d atab
in cess
Ġbeliev es
Ġsk ill
ĠP DF
Ġs ought
ur is
Ġcur ves
j or
ĠR ad
In ject
ĠIsrael i
Bl ue
ex tract
com ments
ĠIndian a
ĉĉ Ġ
Ġconsum ption
in os
Comp are
Ġkn ock
Ø ¨
ĠForm at
Ġres on
be at
app ings
styles heets
Ġcommit ment
ro b
ĠT rib
pl ane
G reen
19 39
ĠFin ancial
Ġapp lying
Ġlisten ers
Ġsurpr ising
Å ¾
er ate
" }
P rom
ĠSar ah
ur ric
d h
Ġshe et
reg ex
Â Ģ
ĠMem bers
_ +
? </
Ġcy cl
Ġg overnor
ss on
Block ly
ĠO tt
M arch
m g
sub scription
1 18
ĠU SE
w x
ĠT reat
ĠJ oh
Ex tract
Stat istics
ĠDe ep
List eners
Ġheav ily
ĠL u
Ġla ugh
s ocial
Ġdistrib utions
ĠSt ill
Ġgen us
Sche me
2 20
Ġs oci
Ġre n
] }
Ġsatisf ied
S peed
Vis ibility
Ð¾Ð ´
atur ally
Ġcirc uit
Ġop ens
ĠL eft
3 50
Ġadministr ative
ri k
w ich
P aul
ĠP ur
pro b
Te am
iv ated
, .
ĠMar ia
T ING
on na
sp i
Ġcal endar
br anch
ĠR ule
Pr imitive
Ġcred entials
Ġbus y
ÂĢ Â
âĢ ĭ
Ġdecl aration
Ġc ss
ĠP ier
block s
Ġb lo
ur st
ĠPl ant
/ '
Ġ} ),
ep age
Ġbelong s
ĠS yntax
Ġshould n
Ġslow ly
Al ign
ne ed
ĠResult s
Ret ry
ĠCor ps
ĠR ound
Ġmanufact uring
He ap
Ġre start
ĠR PC
& =
Ġeval uated
/ #
ĠT ool
dem o
Ġp a
Ġpredict ed
Ġfriend ly
p k
am ely
Ġexception s
help ers
ĠReg ional
Ġs essions
ĠC C
ch arts
ĠD a
ol ly
Ġdemonstr ate
Ġn ested
M al
over ride
Ġd iversity
ĠB arn
ĠH u
t ax
J s
Ġcomp ile
cript ors
ĠSy ria
F ake
Ġco ffee
is o
est s
s am
Ġ/ ></
m f
end ers
pre view
ĠW as
Ġm es
Ġro uter
An chor
e ast
Ġman ual
Ġ"- //
care t
) *
AR B
Ġm s
ĠR ol
ĠLab our
ĠC op
d ating
Ġattempt ed
ĠJ osh
Ġa ver
Cred entials
Ġfound ation
Ġbre ath
Ġh ockey
ĠCON FIG
Ġpark ing
ĠMal ays
vent ory
T oday
Ñ Ī
ut ies
00 2
S lice
By Name
ĠHarr is
LE D
Ġc ov
ĠApp end
Ġmagn itude
ĠI owa
pon s
F ollow
Ġl ibraries
Ġvot ing
ĠP u
10 6
Ġeng aged
G F
Ġ' ')
oll ary
Ġrender ed
Ġ" +
ĠK elly
Mich ael
FUN CTION
m x
ĠG h
ĠAr thur
ĠĠĠĠĠ Ċ
se ed
Al gorithm
el and
Scal ar
E r
H ook
ĠJ ason
ĠCast le
For ward
default s
w ick
Ġacknow led
ic he
Ġf unny
ĠS A
Reg ex
ĠSe ver
ĠAdd ed
ur ches
cri bed
ĠTh row
In clude
ĠM aterial
ä¸ Ń
Ġinvest ors
Vari ant
th ere
Ġd uty
ĠD VD
il st
Ġt y
Ġmembers hip
if old
Ġjoin ing
ĠA WS
ern ate
ĠH AL
R IGHT
ĠD evelop
al gorithm
STR UCT
Ġsw im
Ġs ink
ref lect
at riate
Ġequal ity
d agger
Ġb ag
Ġcontrib uted
Ġimm igr
Ang le
_{ (
comm un
om as
Ġseg ments
Ġmaint ained
LE NGTH
P D
Ġcol le
ĠH E
v y
Ġro ots
Ġcoeff icients
ĠMult i
ok er
the ad
ay ed
Ġf aced
ĠHel p
Ġback up
c ost
LE VEL
Ġserv ers
Ġcount s
render er
Ġproced ures
f actor
up per
R atio
R outer
ul um
ol ate
ĉĉ čĊ
ĠDef ense
ab e
ĠTr ade
ĠCre ated
Ġpay ing
Ġfall ing
Ġwat ched
ĠL A
Ġsit uations
Ġreve al
Ġvoc al
------------ -
ĠĠĠĠĠĠĠĠĠĠĠĠĠĠĠĠĠĠĠĠĠĠĠĠĠĠĠĠĠĠĠĠ ĠĠĠĠĠĠĠĠĠ
For ce
Ġlaw yer
l on
Ġf inger
Ġfr anch
ĠA udio
Ġp ip
w eg
Ġcarry ing
z o
// ----------------------------------------------------------------
ĠAnth ony
ĠT en
ĠLin coln
ĠCont act
Ġkw args
Ġlocal ized
Ġdi pl
Ġimpress ive
Ġcom ic
big g
Ġreg istry
195 3
Ġwe aring
Person al
( []
U Int
ĠK al
Ġcompos er
m ass
Ġposs ess
Ġ} \
ĠS cal
) },
f lix
Ġh am
Ġr hs
D imension
ĠPr ivacy
Ġrun ner
ĠT ab
at om
Ġch oos
lo be
Ġt iny
is ely
ab ama
ĠIm ages
AR K
ĠV olume
Ġobvious ly
Equal To
CH AN
end region
Ġprodu ces
un s
Ref lection
Ġharm ony
ĠS elf
19 55
å Ľ
ĠP a
ra h
() `
ge ometry
S IGN
Ġb rown
Ġdes cent
ĉĉĉĉĉĉĉĉ ĉĉĉĉ
ĠTh ird
(" -
Ġtem ple
gener ic
Prot otype
ĠD at
sl f
Ġst roke
ĠStud y
ĠC lose
Ġent itled
Ġvot ed
ul us
er on
ĠD evice
Ġquant ity
ĠP od
sp ot
Fil ms
mb ed
Ph il
Ġthe atre
Ġsu ite
over ty
ache lor
Ġ" :
s ender
R L
T ON
---- ---
Ġatmosp here
Ġref used
Ġdat etime
Ġl attice
Ġsub sid
ĠCollection s
Ġpar liament
"> &#
Ġappear ances
Ġmanag ers
Gener ate
ĠSc ient
MS G
ta h
Ġtemperature s
ĠCon stant
S n
19 43
ene z
ĠV ice
t uple
up id
Ġacc eler
ay ers
Ġcontin uing
Ġfac ulty
ĠO UT
Ġ ener
err a
Care er
Ġwat ers
Ġcru cial
Ġpl astic
size of
ĠM as
bo ss
u pt
Request s
<? >
Meta Data
="# ">
Ġspect ral
19 41
ĠB udd
Ġemploy ee
ĠCom ments
Ġprom oted
C a
member NameLink
p lier
LI B
ĠT ennessee
le ans
ĠC WE
ext ype
MA IN
eli hood
Author ization
ic ular
le e
Ġyield s
P N
W illi
ĠT ai
Ġrank ed
Ġst ead
is ations
Ġst y
Ġguest s
config ure
Ī Ĵ
Ġmer ged
ĠØ§ ÙĦ
ĠIP v
B T
Ġemploy ment
C amp
per mission
Å Ł
L ow
T wig
u its
Ġindu ced
Ġs qu
ĠMov ie
Ġansw ers
M o
14 4
Ġd t
iv idual
reg istry
\ )
ĠP erm
( @"
Ġ(! (
Ġhor ror
ĠMot or
ellect ual
ĠF ellow
ĠU l
ĠS port
cer ning
ĠLin ux
ĠAuthor ity
ĠTr avel
ĠA fghan
Ġbe ach
Ġcalc ulation
sc ene
Ġed ited
ĠWh it
Ġ" ./
ru ction
ĠB h
ĠCon stitution
Ġg ay
Ġinvolv es
n an
m aking
19 46
ĠAd vent
Ġen ables
Ġmark s
per cent
ret val
inv oke
ĠSe attle
he mat
Ġtown s
Ġ| \
24 0
Ġund ert
Back up
ke leton
c ord
ĠG irl
Ġc urrency
" </
Ġlog ical
195 2
Ġb le
w ind
apt ers
Ġours elves
in ction
\ ":
Ġre act
Ġcompre hensive
Ġre try
Ġm g
Ġjournal ist
Ġl in
ĠM un
Ġre aching
ĠD ick
Ġmat rices
Â ®
Ġin vention
LI ENT
y ll
Write Line
b ors
av ers
A ff
Ġmy th
Ġcompet itive
ur ers
b id
× Ķ
> ()</
ĠStruct ure
un ior
T ODO
Ġsl ide
ut ral
c url
Ġut ility
at ivity
R adio
Ġd ot
Ġwor ry
am mar
ĠLim ited
ber ry
ph oto
Ġbreak s
ĠC HECK
ĠDo ctor
cc cc
; ]
Oper and
input s
Ġvis ibility
M ov
Ġr m
Exp and
oy al
un ing
Ġcomput ation
ĠT alk
g mail
ature s
Ġind ent
ĠR O
Ġpost er
Ġb ot
Con version
e i
ĠC ancer
ĠViet nam
âĢ¦ .
post s
c as
ĠDis play
ĠLa ure
ĠE C
he alth
Sche dule
G raphics
Ġp iano
Ġ$ [
ĠR andom
f uture
Ġt ank
Ġhe ll
Ġinitial ized
vis ibility
D M
ĠUS B
west ern
Ġgener ating
Custom er
Ġb one
c od
ĠG ard
T M
av it
ĠHol y
S mall
Ġstr ange
Ġm igration
ĠF O
Ġcour ses
Ġr c
oot strap
ĠSO FTWARE
F ollowing
on ed
Ex press
ĠĠĠĠĠĠĠĠ čĊ
19 47
ick en
Ñ ĸ
t ility
Ġun f
Ġmach ines
ors es
An aly
F W
k h
H ar
ith metic
Ġinj uries
ĠHaw ai
ĠK han
Ġp index
ĠB or
), \
work er
v n
Ġd ol
ĠY O
ĠL as
Ġdesign er
Ġz oom
b n
illi ant
ÑĢ Ð°Ð
an try
Apr il
LO B
First Name
M iddle
Ġreal ized
Ġchalleng ing
Ġnot ation
Ġla id
Ġadj acent
Ġwhen ever
10 9
ong s
Ġregular ly
LE S
Ġatt orney
sub subsection
re tt
ĠPol ish
Ġfair ly
T om
l ad
Ġpass phrase
sp ark
N ested
Ġclos ure
U G
ĠP ed
g ui
place ment
table s
in th
Ġsim ulations
Me asure
Ġt ile
11 7
Ġf urn
Ï Ģ
Ġoff ices
m acro
ĠF a
ĠE uro
195 4
ĠMark eting
ĠVill age
Allow ed
AC CE
Mult iple
y aml
ĠUkr aine
LIN K
ab ling
Ġ. /
Ġr anges
ĠM achine
ĠK y
inter pret
ĠF IG
bo y
Ġso il
ig ious
UT C
Ġprincip les
Ñ İ
Ġro ads
Ġ' $
Ġ ../
remove Class
wit zer
Ġqu ote
Ġserious ly
NE W
ĠPhil ip
hem atics
Ġinterpret ation
Ġpert urb
Ġredu cing
] *
ure au
Ġmin i
ÐµÐ½ Ð¸
Ġint ensity
Ġco inc
Ġas ks
ĠPro file
S PE
ess aging
ĠPl aces
C tx
Pol it
ro ph
ĠB ishop
i pt
const ants
Sur face
Ġart ifact
Ġgr ass
Ġdeal ing
H A
Ġnot able
Ġweap on
clud ing
ig ible
ĠB ody
uff le
) _{
ĠP resent
get Property
comp iled
Th us
sp h
for all
Ġgun s
at ype
Ġkind s
At tempt
ĠParam eter
g c
Ġg ang
=" ./
p riority
ĠD IS
Ġpoet ry
Ġt ar
ring tone
Ġiter ation
ĠT EST
Ġun lock
ĠM it
ĠCh ap
ag le
Ġex em
Get String
p referred
}$ -
ĠSm art
Ġsam pling
ĠL L
P K
Ġlik ed
text area
oriz on
serial ize
Ġmed icine
æ ī
amp s
Un able
Ġreal ize
Ġnov els
vent ions
short cut
Ġg ate
B g
am ar
S pr
per p
Ġrece ives
ess ment
prec ision
Ġconsec utive
if rame
ĠH op
ens ing
Ġautom atic
Ġs ig
uth er
å ¼
Ġtick ets
Ġg arden
PO INT
ĠF i
W ar
B en
10 8
AME TER
loc als
Ġhe x
: -
ĠP OST
s z
CC CC
Re q
conf irm
ial ect
ĠInst all
p d
ĠE mer
ĠF low
Ġy esterday
Ġb ath
ra id
G UI
Ġ[ {
s ass
ĠTh ank
Ġhy brid
=" //
@ {
Ġmanag ing
Ġme ets
par agraph
Ġhol iday
el lo
std err
bal ena
lo ver
Ġhead ing
ĠHow ard
book s
Ġ// !
Ġab und
C V
Ġs id
ĠG ib
> ("
ĠG O
In line
Ġmin ing
. ');
Ġstrugg le
19 49
=" {
}} (\
ĠV i
ĠO THER
Ġpay ments
Ġo cean
Im mutable
Ġd jango
ĠMat rix
Ġro se
om ething
ĠCont ainer
ke e
on i
ĠG arden
Ġal cohol
Ġmunicip al
i ary
Ġident ification
witzer land
em et
5 000
ĠM icro
ĠMel bourne
Ġtr uck
ĠSt yle
U ntil
Ù ģ
â Ĥ¬
ous es
pos er
> /
Ġtri ple
Ġactiv ation
ot ions
\! \!
ĠN atural
Ġrough ly
av atar
ac ht
Ġconstit ution
Ġaccomp an
Ġreli ef
f loor
Ġ Ã©
ĠZ end
Ġuncertaint y
ĠN ob
em en
++ ++
ed ing
Ġve get
Ġgl ad
ĠC P
_{ -
Ġsp okes
Ġcomp iled
Ġbro thers
Ġun iversal
Ġreve als
ĠGree ce
re view
Ġecon om
ĠB alt
ard o
HO ST
w en
ropol itan
C alled
we ak
op ol
ĠR ey
Ġstat istical
G iven
ĠS ide
Ġflo ating
get Key
re verse
Ġr ising
Ġfl u
trans fer
Last Name
Don ald
ĠS u
ĠM eg
if ference
part ition
Ġd eleg
Ġp ushed
Ġperiod s
ĠPr act
comm ands
ĠId ent
m akers
ĠN ev
123 45
~ $\
Ġ ĉ
eral d
ol k
ĠDr ive
Ġb irds
ĠGu id
c losed
Ġan imated
am an
Ġbeh alf
Ġgalax ies
add EventListener
Ġorient ation
Ġcl usters
st mt
">< ![
3 000
neg ative
Ġstrong er
Ġneut ral
ĠMc G
Ġ utils
Ġcer emony
l r
Ġpredict ions
vel ope
S cheduler
n it
Ġconsist ing
ĠP arent
Ġant ib
ĠMiss ouri
` :
Fore ign
Ġs le
ĠPr ice
ĠB rowser
ĠYou th
12 4
amp ed
ĠTrans itional
std lib
ĠB us
Ġad mitted
Ġalloc ated
User name
Rece ive
Ġden otes
L com
Ġtherm al
Ġstrateg ic
ri um
ĠX ml
) {\
Dis abled
Ġdis p
Ġst retch
m ill
Ġstr uck
ĠSt udio
Ġocc as
ĠEar ly
loy ee
Ġmeet ings
Ġconvention al
ĠA UT
el ve
, </
Ġb oss
ĠTh ings
Ġprof it
custom er
enc il
ind ices
Ġsynchron ized
b t
H ide
× ª
> )</
ĠS ymfony
H y
Ð ¹
ir i
ag u
in ian
Fr ont
12 2
ĠH old
ph an
ch arge
ĠF ILE
window s
olog ists
av al
Ġrapid ly
Ġenc ryption
Ġ( #
Ġdiffer ential
Ġre vers
ĠP L
Ġant icip
Ġlik es
her ent
Ġinnov ation
Ġdr um
ĠAm ong
A lex
tr ansp
, ...
ĠIm m
PL ICATION
re ply
Type Name
sign al
e u
Ex change
P an
Rece iver
mult iple
art z
ct rl
per ience
Ġknow ing
F oundation
F ROM
Ġen vironments
Ġcut s
H ex
Ġ( <
Ġdesign s
c ategories
ĠY et
Ġcall er
ĠR ap
pro duction
Ġqu adr
I ll
Â ·
M ajor
Ġ{ $
Ġ+ \
road cast
ex clude
Ġdesign ated
String s
or ange
ĠS ex
Ġencour age
Ġhand les
TO OL
Ġag ed
Ġch at
Ġmechan isms
Reg istration
sl ot
Ġval uable
Ġrep o
ĠCon st
ul o
Def ined
Ġs alt
Conn ector
Ġinform ed
f red
Ġbound aries
x it
Im ages
Ġl ights
Ġent ering
ĠPart ners
ro tt
inn ed
Prov ince
te ch
ĠTest s
Ġcons ervation
ĠAnd re
job s
W M
SD K
as a
NotFound Exception
UP DATE
ĠRespon d
Ġlic ensed
Ġd ense
195 1
ĠMary land
Ġbas ically
Ġtrad ing
Ġtit led
xy gen
igen ous
Ġconnect ing
Ġann iversary
19 00
=- =-
Ġsp ark
ob e
Ġgen re
Ġdecre ase
periment al
> ');
ĠGr ad
Ġsub str
Ġmass es
o is
Ġtheoret ical
Ġbr ands
D ot
C over
New ton
omorph ic
ax y
Ġfe es
Ġold est
^^ ^^
et ition
Ġl ambda
FO RE
DE LETE
ĠDet roit
Ġt ied
alle st
Ð¾ ÑĤ
Ġr s
(" <
Th reshold
hed ral
MA KE
kl ahoma
Ġweek ly
ĠPl us
Ġst ake
x ref
Ġc url
ĠV egas
us cript
Ġexpl oration
Head ing
mod ified
ĠPl atform
Ġpass engers
Tag ged
S heet
col ors
ra ig
g ate
sc ill
Ġris ks
å ¯
ic ht
ĠEn able
> -
Un lock
: /
J ames
ĠD ATA
Ġsing ing
s ame
vers ions
F D
Ġemph as
pm atrix
Ġhouse hold
â Ĩ
min ute
A IN
T ITLE
M en
Ġg lyph
ĠF ast
L R
ĠMon th
ĠStud ent
Ġout comes
Ġb acter
ĠH it
or acle
. (
Ġa ims
Ġdepend ence
Ġcons ervative
ĠA st
IT H
Ġpass enger
ĠN eg
ĠEx change
Ġret ain
ĠV in
ter y
ĠF ixed
Event Args
op ic
C MD
c am
it r
bad ge
Ġinnov ative
N ER
Ġaware ness
Ġloss es
ĠH um
er os
ĠL P
Ġj et
H idden
Ġbe er
Debug ger
Ġnarr ative
Ġly rics
ĠC T
Ġreg ulations
ĠP S
Ġvisit ing
ĠF R
P aint
ĠWeb site
ĠG ab
att en
Ã ª
Ġmolec ular
pre vent
E lem
Ġsurpr ised
Ġd yn
C AP
R oom
E urope
Ġto g
am ond
Rec ords
ĠSet tings
miss ing
Ġlock ed
Ġconsequ ences
ĠCom par
room s
Ġincre ment
CL U
om ot
Ġgen etic
S pring
Ġexpect ations
Table s
ou p
Ġatt ach
Ġdescri bing
Me an
Ġcharacter istic
Record ed
ass et
mark er
ĠB an
Ġs ick
Pub lished
Ġengine er
Ġw he
ĠZ h
re ach
Ġr ival
og a
Ġn od
L ONG
PA SS
LO AT
Ġfant asy
Ġde als
Ġprint ed
bar a
ĠA thlet
ĠCommun ications
Ġchair man
ĠE ss
ĠHo pe
j oint
Ġfru it
prov ed
Ġf abric
Ġwalk ed
Fil ename
H int
ĠAl an
H D
ĠHer itage
ç ½
ĠC ape
Ġperfect ly
Ġb ike
S ink
ĠF ont
c ycle
Ġscal ing
Ġh al
ĠIN T
Comple ted
INST ANCE
ig gs
Pl ot
C he
Ġcon clude
Rob ert
ĠSaf ety
pt ic
Th an
Ġsudden ly
Part ial
Ġtri als
Ġhash Code
ĠLoc ation
t ick
ĠCom puter
Ġb ars
ĠA z
Ġout line
Enc oder
ipp et
p f
Ġm esh
Ġh opes
id al
{ },
Ġchild hood
Ġt ur
p ick
Ġaff il
x e
Ġalign ment
Ġh urt
Ġdec ode
font s
Ġimprov ements
ĠD ur
ĠN ik
ĠAust in
ĠV AR
Ġconf lic
ex isting
Ġfra ud
Ġdisc ipl
19 38
Ġpriv ile
Ġsix th
Any Ref
Ġscal es
Ġinter rupt
conf irmed
ĠBow l
ig ue
MA SK
qu ick
iss ip
) }(
St mt
H AL
Ġen forcement
l b
Ġrecogn ize
Character Offset
ĠH ad
n io
Ġout standing
n pm
Ġal location
Ġshop ping
ST RE
read cr
Ġmunicip ality
DI RECT
Ġcomple ment
] >
Ġdevelop er
vari ables
y arn
Ġden ied
Ġspec ification
. ";
C odes
ifi able
ĠInd ustry
ĠTr igger
tes y
---- -
Ġi OS
id ad
B N
aaaa aaaa
ĠS audi
Ġspec ifies
Ã¼ r
ĠMay or
ĠD un
ĠNor way
ĠQ String
I MAGE
ort ed
J o
get Text
ĠM organ
t cp
C N
et he
ĠS TR
ĠKent ucky
. -
Tag Name
Ġstream ing
leg end
Ġo vers
l ings
keep er
Ġthink s
Ġsett led
is ons
ĠP O
Ġgrad uate
th ree
F ilters
to kens
ut enant
Ġrem oving
} ))
T oggle
ĠS ud
B ecause
ish ment
Ġthe ories
ĠF L
Ġguarant ee
ĠTrans action
in verse
ĠDe an
Ġsympt oms
ĠC lick
Ġstart up
Red irect
it ure
Ġl ux
E ast
Ġpen alty
text sc
Ġch rom
; -
G T
Ġj azz
get C
writ ing
Ġref lection
ĠMex ican
Ġattack ed
Ġthous and
ĠTem ple
im plementation
Ġz ip
sub str
Ġsomew here
N EL
Ġtog gle
ather ine
pe er
sh iv
Ġjud g
Ġfl ush
ĠM ET
H orizontal
me asure
Ġprot otype
ĠA gr
du ced
ĠInter face
Ġon click
at ers
Ġ' ../
Be havior
ĠM and
Ġ/ .
Un mar
ĠN ature
19 14
Ġto x
Ġnot iced
inal s
rem ark
Ġcompet e
Ġr um
i em
ĠCh apter
ank a
ĠL LC
Ġor th
An n
b oth
emet ery
P ages
o j
ĠMar ine
Ġoff ensive
ĠL iving
dest ination
ĠA F
}^ *
Ġhouse holds
Ġkey board
ĠS uccess
ĠThom pson
NO SCRIPT
ĠPer formance
19 18
Ġcomp licated
process ing
A CTION
ĠA zure
Ġ(! $
Dep loyment
Ġdire ctions
om es
over y
ĠS ales
Ġrep air
ĠCred it
Ġbutton s
Ġent reprene
Ġto wer
Ġconsider ation
Ġphil osophy
oid s
Ġ' </
ep h
Pro c
Ġinstr uments
!! !!
FLA GS
b x
weg ian
Ġ! !
Ġpop ulations
Ġc fg
Ġcent ers
Ġflow s
Ġdistrict s
Ġtr ains
ater al
3 20
y outube
MA G
Ġw arr
ĠE lection
ĠAr k
S ound
ch annels
ĠLink ed
est ab
con straint
Ġdog s
GRO UP
A mazon
ĠS R
Input s
Ġin h
Ġback end
im its
m ysql
Ġelectric ity
ĠInst agram
ĠTh ough
ey ond
back s
Icon Error
ĠEcon omic
Ġadvent ure
V I
ĠB ah
ĠIm Gui
Ġsy nd
ĠArg s
ĠF ive
ĠP AR
Not ify
c art
ä¸ Ģ
Ġt ou
Ġpro c
ĠH ans
ĉĉĉĉĉ Ċ
Ġdise ases
">( </
ĠTok yo
erv ing
Ġn an
****** /
Ġre ly
with out
ens ors
Ġreli able
ĠAl abama
ĠF ant
Ġarch ive
ĠB es
im iter
\| _{
ne e
Ġorgan isation
Ġbas eline
Ġeth nic
($ _
ĠCon structor
19 0
ĠP as
level and
second s
p arsed
Ġk in
Ġ( +
ĠB ron
Ġsh arp
Ġisol ated
Ġmor al
ĠP osition
th ird
Ġgrad uated
numer ic
Draw able
TE GER
---- --
ĠTh anks
Ġrestrict ed
F IN
ĠPe ace
go al
S in
V A
ĠPh illi
Des cribe
âĶĢ âĶĢ
Form er
h h
Ex cel
Ġover view
Ġf ro
ĠSt age
sw er
ĠHigh way
ĠDom in
dec oration
ĠJud ge
Ġlog o
ĠCons ider
wall paper
ĠB egin
Ġre putation
Con struct
ĠCol on
ĠAtl anta
Ġc s
Ġne ural
Json Property
build ing
im ore
J ul
c ov
ĠD al
19 36
l iteral
Ġtransport ation
cor rect
Ġsus pect
V S
Ġm i
ĠAtt orney
ffff ff
Ġanal ys
Ġconcept s
IC K
Ġsurv ival
XML Schema
m ate
; ,
ĠĠĠĠ ĉ
ĠG er
field set
Ġassoci ate
ĠL ess
Pred icate
Ġpro hib
DO CK
Ġt issue
ĠF actory
Sw ift
ĠG ordon
Ġgen es
the less
Ġph arm
Ġvol umes
ynchron ous
z i
ĠI C
sub division
De ep
E mp
N Y
Ġn ations
Ġcons ent
ĠS chema
tr ait
ĠĠĠĠĠĠĠĠĠĠĠĠĠĠĠĠĠĠĠĠĠĠĠĠĠĠĠĠĠĠĠĠ ĠĠĠĠĠĠĠĠĠĠĠĠĠĠĠĠĠĠĠĠĠĠĠ
) ^{\
ĠAng el
Ġeng ines
or ce
Ġcr ack
l av
ĠĠĠĠĠĠĠĠĠĠĠĠĠĠĠĠĠĠĠĠĠĠĠĠĠĠĠĠĠĠĠĠ ĠĠĠĠĠĠĠĠĠĠ
ĠF loat
oc y
IconError Encoded
ia h
Ġse ar
Ġinter mediate
as ide
ĠTem plate
li est
ĠAl liance
ĠC lean
Î ·
ĠCOL SPAN
c ocos
Ġv acc
Ġparticip ated
ache l
Do es
Link ed
ĠDet erm
Ġscript s
W H
ĠT itle
Ġcapt ain
Ġindepend ence
Ġp ump
Part s
! )
] -->
ĠP sych
com par
iff s
Ġcut ting
OD Y
Ġann ounc
Ġ( );
ib ration
ĠSwed ish
Ġt all
4 50
ĠC atalog
ĠB utton
as ant
Ġsucceed ed
ENT ER
Ġr ub
cast le
an imate
Ġse q
ow ski
Serial izable
ĠM ars
Vari ables
ĠFed eration
Ġent hus
or able
sp ons
Dis patcher
S en
tem plates
f ee
ĠWalk er
Ġc rypt
ĠM B
g em
ĠBru ce
m ma
Ġc c
ĠCo oper
ĠD ol
ĠS ER
19 17
p ent
p ixel
Ġdat asets
ĠMo z
m achine
ĠC ow
Ġpres erve
Read Only
tra its
19 19
control s
. :
Ġtransl ated
Pl us
ĠSt ew
ĠL eb
Ġsuff ering
a ac
Ġlif etime
Collect or
Th anks
it i
Ġview ed
Ġ" --
Ġpublish ing
Ġhead ed
Ġsc oped
ra ke
Ġshe l
ĠAn ne
E MP
s ock
play back
ĠT a
ĠA le
Int roduction
ph ab
ts burgh
XX XX
I BU
à¤ ¾
M argin
Ġd os
Ġn amely
EN C
Ch at
+ -
un iform
ac ion
Ġconver gence
um inate
Q uestion
che ll
Ġarr ival
J apan
Ġwed ding
ĠR ick
.~ (\
ĠN ichol
ĠM aur
ver bose
ĠValue Error
ĠAl tern
Ġrout ine
is Array
Ġsurv ive
Ġcon form
ilib rium
iv ia
Ġimprov ing
PROP ERTY
ver b
ĠPro tection
Ġre lying
ĠM I
Ġar med
ĠK it
op ens
Ġord inary
oc a
Ġfle et
ĠOper a
ĠD allas
ĠC PU
ul i
Ġcon front
Ġbl ind
Ġaccord ance
S ender
Ġa ug
sub scri
ĠGener ate
Ġpublic ly
Ġpro files
Ġf uck
ul se
ĠDown load
u y
Ġw rest
Ġdel ight
... "
UN K
Ġ' {
m ong
ok ia
ĠH ug
tab End
Res earch
G a
ĠDet ails
She ll
> ';
Ġinv oked
Act or
ĠMos cow
Ġpan els
ĠWork s
Ġnormal ized
ĠFin ance
ĠH ero
Ġt one
ĠG P
thread s
ĠC zech
13 5
Ġan cest
Ġ{ })
rb an
get Time
Block Index
Ġtra ject
ĠI ron
T or
ecess ary
ĠS el
ann on
Ġag es
Ġb ird
( ",
ĠT otal
et ype
Ġ" ")
nov ation
Inst ances
Ġcontr ad
d m
Ġac quisition
Ġcon cerning
T ARGET
Ġentr ance
Ġelse where
Dist ribution
ĠFor um
IF Y
mem Item
,\ ,
Ġre striction
ĠR ace
ĠRE AD
Ġl oader
loy d
WAR NING
Ġre named
AND LE
ĠW y
Ġparticip ation
Ġequal ly
ILE D
Cre ation
ic ut
Ġf ought
Ġm ales
Ġsupport ers
Ġ[ \
ol i
V R
M X
ĠAnton io
Ġshort ly
OP EN
Ġeng age
ar ma
ld s
Com plex
Ġcelebr ate
Ġ um
Ġd inner
log ic
ĠH ills
Ġnot ion
ĠEp isode
Ġc up
ĠQ t
Ph ase
ard ing
g uid
LE N
Ġdis plays
ĠM ission
Ġbur ied
J ack
iv ot
Ġt ort
ĠM s
Ġspe aker
Ġt ill
Ġm ir
ond a
Ġdef ect
Ġb io
Ġll vm
ĠPl anning
or ous
DO WN
Ġcalcul ations
GB T
Ġliter ary
Over lay
ĠS witzerland
Ġ$ ("#
Ġf lood
Ġthem es
æĺ ¯
Ġrender ing
Ġprofession als
Ġin verse
Ġpe ers
ant ics
hemat ical
int o
Ġdo ors
App Compat
ĠB att
Ġd owntown
ĠWith out
less ly
un its
t age
t ake
CON NECT
L F
}} ^
Ġj e
Is Null
ĠAll ow
Con stit
Th rows
et r
Ġstream s
File System
Ġdiscuss ions
Art icle
sw ap
Ġcancell ationToken
ĠR ot
in fl
x l
Ġfarm ers
le af
To kens
Ġsym metric
Ġstreng then
ab sol
Ġme at
Ġmer ely
Ġnec k
W omen
=" <?
Ġf oc
Ġincred ible
ĠS Y
ĠS quad
ĠSchool s
ĠTurk ish
' (
P ACK
N or
Perm issions
Ġdep ict
Ġperson ally
qu er
ĠNO TE
Ġperm itted
Ġher itage
L i
ĠSp irit
ex pl
n est
Ġcrit ics
F ast
ĠProt ocol
Man ifest
Ġany more
../../ ../
12 6
Ġpartial ly
Ñ Ħ
Com pute
Ġorgan ic
ul ates
å º
M LE
lo ating
Ġl t
g ies
p ic
ĠA BC
Ġcon cluded
get Default
Ġaim ed
ĠâĨ Ĵ
Co ins
ĠT i
Ġas ide
es c
issip pi
ĠD R
Aug ust
ul ative
Dependency Injection
ER Y
Ġs aving
ing ers
ou ver
ĠGa ussian
ĠAdd itionally
C AL
Ġp ic
he art
uk i
Ġp our
Ġbr illiant
Add ed
Ġmay or
Ġcent uries
ĠM ut
d ag
Ġbu ying
ĠEnvironment al
ref ox
ist ol
Ġtr ivial
m anaged
Ġstruct ural
ĠOrgan ization
F ace
Ġsimult aneously
Ġrestrict ions
ard ed
Ġunus ual
Â »
Ġimm igration
m atic
m ates
LA PI
[ _
s napshot
Ġfem ales
] ];
Ġl ake
) &
Ġinter pol
ĠW i
Ġprodu cers
ate ur
UM ENT
Le ave
Ġm k
Ġh ip
ma jor
; =
Ġsh ots
å Į
Ġprem ier
ĠChair man
list en
P DF
-> {
ge on
Tr ump
S ym
Î »
$ ).
Over flow
Ġfranch ise
button s
Ġarr ive
c amp
Sub mit
S al
itar ian
Ġrem oval
Ġm eth
Ġtrans mit
Ġtarget ed
ĠChrist opher
ĠT er
enc er
M W
mon itor
Ġspirit ual
om er
ĠAL L
Ġt aste
st ock
La unch
C atalog
ĠMat thew
ĠRet riev
á »
Ġs acr
DE P
ĠRes erved
ele ss
Ġguilt y
Ġres erve
Ġprec isely
å į
Ġcr imes
ĠH ell
ĠMar shall
Art ifact
Ġform ats
ĠR ab
w b
Ð Ł
Ġretire ment
Ġn aturally
Ph ot
D ash
Ġor bit
: @
ĠCon n
erg i
Ġviol ent
Ġas semb
ĠInd eed
Vert ical
G re
Ð¾Ð ±
en ario
Ġw ake
Ġs oph
* .
S chool
ot er
} `
Ġf o
CE PT
ĠFor ces
last ic
fail ure
Ġd s
ĠJ O
Ġcomfort able
11 3
IL TER
bit coin
Ġback ing
ĠVis ual
Log ging
le et
as ma
list s
ĠCol lect
â Ħ
ĠD ue
ĠAnd y
) ^{-
ĠRepublic ans
S at
ac l
ir ates
Ġliter ally
uc ene
Ġ ì
19 37
D ER
lay ers
ĠS ri
ĠMc K
ĠM enu
ĠSh op
Ġsuff ix
ĠEm ail
ĠStud ents
Ġpro x
Ind ices
ar o
Ġperson ality
exception s
Ġneigh bour
Ġs ends
det erm
et al
inter faces
ast ed
Dat aset
ĠAnn ual
Ġf est
Ġtransform ed
st roke
Ġfootball er
get Elements
Ġgovern ments
dim en
æ ł
ut ers
ĠY an
Ġpro be
T LS
Ġgraph s
Ġfru str
B oth
F rench
Ġappe aring
Ġd f
Ġst ops
Sign al
Ġabandon ed
Ġiniti ative
Ġs wit
bo ards
S uch
m outh
Ġad apter
Ġp ipe
i Äĩ
Ġdec line
Ġsuper ior
ĠM C
ĠJun ior
Ġcomb ine
Ġg ent
Ġfore cast
ĠB ased
M art
Ġgr pc
St ates
hy thm
Ġeng agement
i ator
W alk
G erman
Ġrepl acing
Ġarg ued
ST EM
ĠAb b
} )$.
Ġins ight
car ousel
Browser Detector
tr as
Oct ober
Ġf atal
ĠS to
SET TING
enez uel
iss a
Ġsup pose
um bs
Ġgo og
PAR AMETER
View s
Ġadapt ed
ĠGL int
A W
Ġm ilk
ĠK ind
ĠG ulf
Ġsustain able
Ġpar agraph
Ġdom inant
Ġtr ick
ca pture
ĠC over
Com b
tensor flow
Ġwer en
Ġw arnings
ĠDec l
pt s
Ġp tr
Ġpri ze
Ġh older
Ġrepresent ations
Ġad mit
Ġhand lers
ra ise
) \\
u art
Ġmov ements
win ning
Ġp c
ĠI MP
FE ATURE
f un
Ġin clusion
ĠDocument ation
Un its
str ained
ĠValid ate
Ġsat ellite
+ (
Ġt urb
Ġarg ue
Object ive
Ġin fection
Ġbrief ly
ĠJon athan
N U
ĠC OP
Rout ing
ĠAd vis
Ġconstant ly
ha us
Ġcaref ul
Ġdeep ly
Ġcon sequence
Suppress Warnings
Ġhop ing
row th
lo pe
Ġob lig
el n
ev t
ĠD epend
ĠSt ories
AR N
Ġg raphics
ĠPolit ics
ĠBr and
å® ļ
Ġs ock
Ġillustr ated
f our
ĠL ane
å °
Ġd y
16 9
Ġarg v
sche dule
Ġar row
Comm ands
ĠRog er
Ġp arsing
ught er
ĠA pi
Ġmonth ly
RET URN
) ?
Ġprov en
CON F
Ġwith draw
ĠE val
Ġco aches
Ġt act
ĠB ible
port folio
Ġ$ -
Y P
ins ic
ĠD ocker
t ik
Ġwebs ites
m any
Ġcan onical
Ġconven ient
Ġbr anches
Ġat om
G M
Ġdesc end
E lect
ig s
Ġn ick
ail and
Ġsatisf ying
Ġannounce ment
copy right
id ges
Pre view
m al
ĠÐ ·
pub lish
/ (
^{ +
ĠVal ues
Ġb lob
ef e
Ġsearch ing
ÃŃ a
Ġl azy
Ġo scill
res olved
ĠAl bum
Ġcross ing
OP ER
Ġa vailability
ĠO klahoma
le ading
em ies
Ġinterview s
$ $\
V oid
re ports
Ġcaref ully
R ound
17 0
99 9
Ġch arts
Ġground s
ĠTH IS
ĠPerson al
Event Handler
Alloc ator
r at
Ï Ĥ
P aired
ĠJ enn
rg b
ĠCent ury
Ã «
Ð¾Ð ¼
id en
ĠO bservable
Ġat omic
Ġd type
Ġdis ag
ordin ates
Ġp sy
S ever
per form
Ġdef ensive
Ġstudy ing
Ġm ilit
// !
Rev ision
ĠExt ension
ĠS TD
ĠEd ge
Comp ilation
Ġ( ;
ĠM L
b re
Ġin coming
ĠW ik
C ss
Ġre ception
ĠT yp
Ġinter faces
N ay
19 33
et ry
ĠSing h
ĠN BA
Co ord
car bon
æ İ
Cl one
j amin
ĠN ation
we ets
ĠInd ependent
Ġcritic ism
f ather
(" [
Ġhead quarters
St ation
ĠG T
Ġem issions
;& #
Ġm oon
Ġdest ruction
Ġc ry
F M
C op
we alth
Inv oke
Ð°Ð »
12 9
Ġcl ar
Mod ules
id i
Default s
sh arp
Ġw et
Ġfin ance
Ġid s
Ġinter vention
ced ure
Ġanaly ze
2 30
r as
ĠRes erve
ĠU tah
ĠS ample
Initial ized
ol ars
16 8
ĠL IC
Pers istent
Fr ag
Ġmix ing
Ġdirect ive
orient ation
Ġ} ));
Ġinflu enced
ĠĠĠĠĠĠĠĠĠĠĠĠĠĠ Ċ
Ġkey word
Ġfavour ite
ĠAr men
std out
Ġmod ification
get Logger
ent ities
ĠCh allenge
Ġrespond ed
Ġhelp ful
T l
ĠBit coin
Ġun like
Add itional
ĠD ance
Ġdef ining
Ġdec imal
Ġintegr ity
Ġc amer
Ġbr on
Ġprote ins
ĠB lood
ri el
Ġh ub
Ġcoun sel
z ym
Ġdirect ors
ĠLeg al
ogene ous
ol en
Ġh ill
Ext ended
im edia
Ġco in
Ġto w
Ġregard ed
lear ning
Ġd x
s mo
an alytics
ĠC ole
ĠC ONT
ĠB ureau
F ee
qu et
Ã§ Ã£o
apol is
Ġp ace
pre dict
Ġv ital
Ġst ellar
Cap acity
an aly
Ġh ang
ĠDef ine
Ġcollect ive
V IS
Ġenh anced
ur u
Ġdem ands
unt u
"> '
Opt s
ĠBr un
Ġprepar ation
Ġap artment
ĠAn na
Ġp ad
ud son
ĠF IX
ĠV iol
Py thon
Ġaw esome
ĠKenn edy
e or
p iece
Ġrestaur ants
T ake
Mult ip
m ers
ĠDoug las
ĠB eng
Initial ize
i q
rient ation
Ġst em
Ġad s
om ing
ĠF ly
Ġport s
O s
w hel
Ġfeel ings
C li
U i
Ġtax es
Ġcour ts
Ġcoll ision
ass ador
Ġpr on
sc ar
Ġ} .
Ġleg s
s yntax
Ġres ident
Ġrecip ient
s ime
Ġj oy
. ]
ĠCon tract
ĠG irls
Ġsome how
as List
Ġb unch
oc o
Ġob server
ĠNew ton
Ġleg it
ĠS peed
19 35
Ġcomput ational
H ot
Ġth orough
Ġill ness
l arg
Ð½ Ñĭ
ĠV M
ĠDub lin
pro position
Ġ/*! <
L em
Ġestablish ment
ĠJ ess
[ [
oust ic
Ġche ap
Br anch
Ġaddress ed
f act
ĠWIT H
j boss
se ek
Ġart ificial
Ġpre t
m r
Ġcomp ression
Ġaccess key
in formation
Ġrem ind
has OwnProperty
et ics
ĠSaf ari
ĠF al
cur r
d id
Ġ[ #
F our
NO WN
get s
ĠNiger ia
ar ound
Ġbox es
M ass
ĠH il
Ú ©
Ġn urs
pan ic
u ates
ĠWh ich
int ent
Ġfem in
sime q
Ch oice
ĠPh one
Ġr uling
oc he
it udes
Ġ= \
Ġtrigger ed
ĠB uff
screens aver
g un
Ġequ ipped
ĠST AT
ograph ical
i op
) '
source forge
iver pool
ĠU nc
AS C
Ġwe ird
/ %
AP PLICATION
ift y
gu ard
ter ior
Ġoccup ied
May be
Check er
Ġc ul
the y
Ġd ating
ĠF el
ath ers
block quote
Th ank
ĠM ort
ot hes
ĠBr ig
B F
C art
Ġm apped
ĠP aper
Y ea
MS earch
) >
ĠChar lie
ĠGener ic
Ġserial ized
Ġun likely
ĠB ond
ĠV ert
ne utral
Dec ode
li ers
ĠÐ ±
to k
ĠM ail
Ġa str
é ĩ
> ";
Ġfl uct
Ġe ating
S printf
Ġreg ulation
Perm alink
c atalog
al ion
19 29
con duct
ä ¿
B ag
anc ouver
s izing
[ <
Ġin comp
Ġas c
AS K
Ġinitial ization
ĠP ear
ĠAt omic
valid ator
elf are
Ġed iting
Ġp overty
Ġfant astic
ĠGL enum
ĠM ind
S G
Ġch a
Ġdep recated
ik ing
ĠRuss ell
Ġc able
Ġw ider
lot te
ĠLaw rence
ĠReview s
S us
Ġland ing
cos ystem
d type
ĠOper ations
ĠOr leans
ĠM ove
AT T
Ġra ising
Ġevery where
Ġrender er
sp l
Ġcomp ound
ĠO wn
Ġembod iment
Ġinvestig ated
Ġm art
nav Bar
ch arg
Ġ{ ?
an ne
Ġc razy
ĠB os
Ġan th
u ator
=" '
33 3
Ġoper ational
Ġcred its
ĠR ole
ĠLeg isl
Ġconsc ious
Ġrad ical
ĠR T
IC AL
Link s
ĠD ays
est ing
Example s
t ot
Constit uency
Ġf irms
ĠT ar
df s
Ġbre ast
p romise
ĠR aw
our t
ĠBe at
Z ip
Se ptember
ific ates
ĠN elson
to o
Ġ âĢĻ
Ġre vision
oci ated
fl ash
Ġfol ks
ĠZ one
V T
K EN
Res pon
z ier
Ġrefer enced
Ġpublish er
ĠSt ack
ore st
sol id
Ġspect ra
ĠFre der
] =
sec ure
x f
sche me
h p
m ir
ĠC L
Cla use
ĠG ary
m ade
ext ends
Ġtr unc
absol ute
Ġh ired
Ġj u
Ġhealth care
cal c
ĠL ayout
[] )
0000 000
U TE
T OP
Ġex ponential
" +
d og
pos al
Ġgener ates
US A
on line
Ġh int
Text Field
um per
s ess
æĸ ĩ
Ġemer ging
Ġing red
12 1
Ġho les
Ġman ually
Numer ic
Ġb om
und ers
Loc ator
Ġinit With
ĠW oman
Instance Of
ĠS IL
Ġvis itor
Ġcallback s
y our
Ġgreat ly
ACCE P
Ġsil ent
U ML
uck ets
Ġst upid
ĠD ir
Ġsecret ary
Ġdialog ue
z ing
Ġc ock
ĠDi agnostic
Nov ember
ĠSh are
ĠMag ic
19 34
ĠHe ader
ar ms
ĠB ed
B ODY
! \
Ġpar ish
Ġvill ages
L ab
ĠĠ čĊ
Ġpro pose
Ġ) {
ig gers
Ġwhere in
N il
Ġres id
al tern
Ġperform s
Ġscen arios
Ġguid ance
Inv ocation
Spr ite
Ġprec ise
Pro of
Abs olute
do es
oc ent
Ġroy al
w m
ĠAd ams
Jan uary
Ġp ione
Linear Layout
User Agent
m icro
l c
Em itter
G esture
Ġfore ver
re ject
Ġvari ations
ush ing
A ws
Reg ular
Ġs ons
Ġex ha
-- ;
uc lear
Ġcouple d
ĠCamp aign
pers istence
jav ase
Ġhypot hesis
Ġt ap
Ġgalax y
[ ],
The orem
Ġnom inated
section s
b ie
ĠRes et
{ $\
< >(
R ay
ĠH O
: **
Ġmem ories
Max imum
re nd
Ġsu icide
ĠCont roller
ĠPo pe
Ã ´
Ġclose st
Ġsignific ance
ĠN ash
Sub scri
Ġassum ing
F acebook
ĠN ic
fin ish
ĠWal ter
Ġasym pt
Ġextract ed
Ġdifficult y
ç ±
ĠMar vel
I ssue
em ale
ĠB ec
Ġdis crete
)\ ,
ĠBase ball
Ġru led
Ġinvolv ement
ifest yle
Ġoper a
math op
ĠI ce
Ġp ag
ĠT F
Ġex tern
s il
Ġag gregate
ĠTh ink
Ġint ellectual
amb ig
leg es
ĠDel hi
Ġm eters
d w
De ath
Ġorder ing
Ġpo em
en kins
is an
Ġsepar ation
Ġpublic ations
NUM BER
Ġcoeff icient
R G
Ġle ts
T i
NAME SPACE
ĠERR OR
"> Â
ĠPolit ical
IT S
ĠPal ace
ĠE T
Ġst arring
ĠK ings
Ġpl ugins
ant ly
ĠE D
w ire
Recorded Vote
ĠB ull
m ot
ol o
ID S
w ave
ĠPublish ing
utor ial
Cred it
Sm art
or ate
k le
Ġg olf
Ġdec ent
inner HTML
is p
ĠIn stance
ĠJ os
co ins
oper ating
30 4
IN PUT
HEAD ER
Ġpre view
ĠP ast
19 10
Ġ- &
} >
class path
ĠIndones ia
Ġac quire
ĠComm ons
Ġfol k
od b
em ed
ĠF red
H ard
b age
Ġvis its
Ġ ):
ac red
Ġf ixture
. ),
Ġch ronic
ĠSer b
Ġb eta
================================================================ ========
ãĤ Ĵ
C lock
or ig
Ap is
11 11
Image View
ĠPat ri
Ġf ul
Ġpr imitive
ĠP ART
ĠMic hel
Ġunivers ities
Ġdis aster
13 6
or o
* >
ĠR ain
Ġincorpor ated
i ology
ĠMalays ia
Ġoper ates
Ġph rase
Ġamplit ude
Ġsufficient ly
h int
Ġcap ability
Ġvary ing
ĠM other
ĠN ap
c ook
char set
ĠAs ync
ĠC os
Ġtim ing
× ¨
Ġd w
ĠElect ric
chn ology
ĠTown ship
19 32
19 15
Ġcar rier
× ľ
Ġ" ");
Ġres idential
ik h
navBar Cell
get Data
c odes
ex press
ĠCor p
ĠG C
{ })
ev a
r ans
Ġs occer
ĠPr imary
Ġvir us
s pect
ĠM erc
og g
Ð ±
ĠNot es
Ġest imation
oxy gen
ĠK ir
ĠAg reement
Byte Array
å ĩ
Ġ ÑĤ
Ġwh ilst
Res olve
Ġbi ological
f are
| }
19 28
D AT
Ã ½
Ġcomp atibility
ĠB inary
ACCEP TED
13 4
art icles
Ġelect rical
L if
ĠL IMIT
s an
Ġa ux
request s
âĦ ¢
Ġclass ified
ĠN ames
Con v
R pc
pre tty
ĠRob inson
ĠC ategory
igh bor
ĠAg ent
ri eve
Ġrare ly
ĠR ub
Ġport folio
+ '
Ġt ie
in burgh
ĠCon vention
Ġgr avity
Ġtrend s
Ġaccompan ied
und les
comp act
s aved
ĠB art
UM N
mark et
ĠF riend
, âĢĻ
ĠRuntime Exception
ov y
osp h
Il legal
Des pite
Ġwire less
Ġconfig urations
Ġfocus es
h uman
Ġg allery
) }}
ill ery
ĠS now
Ġver ification
Ġencour aged
C lip
Ġenc rypted
ud ge
ĠA vailable
Ġl oud
Ġinter active
ĠSt ars
act ivate
Ap pearance
Ġmar ine
Res olution
Ġre b
Ġthe ater
get Current
Ġte a
27 0
Im g
ĠCr ime
res olution
Ġne ur
hib ernate
Ġg enu
uff icient
dep loy
ĠPh ys
Ġkit chen
PRO TO
ick ing
2 10
Fil m
att an
ĠO il
ĠM ess
NO TE
Ġm ad
ĠI ss
Or g
ĠI ssue
ĠN i
Ġaccess ed
)} {\
al one
al ia
Render ing
od ot
Ġ" (
Ġg ear
display style
------------ --
ac les
Dis able
ENABLE D
M us
er als
) ];
Operation Exception
st ri
EE E
Ġpod cast
ĠLouis iana
rec v
B etween
om p
g h
og ue
ĠReg iment
IF T
ĠCons ult
Ġbrows ers
S ocial
Ġguid elines
el ist
getElements By
M anaged
Ġcontract s
Ġsens itivity
x c
ĠN an
ĠLIC ENSE
Ġpred icate
er k
ĠW ind
t iny
ĠMur ray
Ġmet res
Ġbirth day
ĠS creen
19 16
$ ^{-
Throw able
ĠAfghan istan
Ġdi agnostic
C riteria
S il
urric ane
ĠRead ing
ĠJ uan
add on
Ġs sl
Ġs creens
Ġsl ave
Ġrac ial
Ġaccomp any
ĠĠĠĠĠĠĠĠĠĠĠĠĠĠĠĠĠĠĠĠĠĠĠĠĠĠĠĠĠĠĠĠ ĠĠĠĠĠĠĠĠĠĠĠĠ
re strict
g ro
string ify
G l
Ġ* _
ç± »
ĠMiss issippi
ol t
Ġman uscript
inc ial
Ġcharacter ized
friend ly
Ġa ws
ĠR ES
ĠSt orm
ĠEV ENT
Ġshut down
Ġspe akers
CK ET
sup ports
Ġcur r
ĠC ould
C LO
Ġc ow
ID s
Ġl aser
file Name
Ġreg ex
Ġd iver
ĠH IV
host s
se p
ĠSen ator
Rec ogn
Ġre aches
ĠRe quire
Att achment
ĠIter ator
ol id
Ġdis order
oc on
Ġim aging
ĠF BI
ĠSw iss
it les
ord inary
Ġj unior
se en
ĠP ap
Ġs el
Ġre ven
Ġapprec iate
lo on
ĠHar vard
ĠMuslim s
Ġrest ored
Vis it
Ġ* **
Ġdes per
Ġcor rel
[ ];
ĠKn ight
ĠW right
ĠEn try
De cember
: =
14 7
Ġd ash
ol s
Ġis lands
cho ice
C LIENT
ah oo
Ġsp oken
H it
( <
ĠExample s
DOCK ED
sl ug
ut o
ab ul
Get ter
iv ities
ĠO cc
Ġmyst ery
Ġdeep er
R ank
sp er
Ġexhib it
Ġderiv ative
Ġt ang
Rec ent
open api
Ġcompet ed
C ategories
V P
lim ited
Ġne arest
q a
Ġtrans f
Arch ive
ĠJ e
Ġm oth
Ġhighlight s
] ",
%%%%%%%% %%%%%%%%
ĠC E
h ind
Ġes c
Ġmusic ian
ĠØ ¨
Ġdrink ing
ĠS F
ĠIn fo
Ġassum ptions
Ġ&= &
ĠC leveland
ĠB ound
Ġcl ause
F all
Ġf ishing
ĠE u
Ġcop ied
urn ame
ĠTele vision
ion ic
ct l
ĠPe ak
æ į
Th erefore
Ġ ^{
ĠCustom er
d eb
in ces
br ane
Ġtem plates
y ml
con tract
ĠArgent ina
Z end
') ).
ä¸ ª
ĠG R
ĠMin or
ĠBrook lyn
Ġsh a
Ġtouch down
ĠS DL
Ġanal yst
Ġd il
ĠD ak
S B
L ess
ath on
Fin ished
Ġlib eral
ot he
Ġpaint ings
Feb ruary
N orm
}} ^{
ched uling
Ġcolle agues
19 23
prevent Default
us ive
ĠMor ris
v p
Ġdes ert
Ġ Ä
ĠAust ria
urch ase
n ested
Ġchar ity
ĠBe aut
Ġpat ent
product s
L o
Ġrel ating
LOC AL
Ġf d
ĠS K
c nt
r int
Ġinsert ed
F LOAT
ĠW ard
U X
inst ein
Ġrom antic
Ġref uge
ĠBO OL
Ġencounter ed
ul u
rol led
Ġinsp iration
ĠG ot
-------- ---
oth y
Config ure
poly mer
EX P
ĠCamp bell
ibli ography
Typ ed
En code
Ġdisc ount
Ġdig it
Call ing
pan ies
ĠF M
Sim ilar
Ġm irror
ĠB rew
ir ical
sp itals
GEN ER
h op
ĠM es
ro se
20 2
RO P
ä» ¶
ocom plete
enc oded
Ġt weet
Ġt body
Ġdom ains
Ġis set
h it
æľ ī
/ ******/
Ġst uck
H I
is cal
Ġb less
ĠA lice
atab ases
ant i
Ġident ifying
Trans l
Att ach
or us
re ck
14 5
x ff
Ġmechan ical
ĠStew art
ĠF ather
2 64
ĠMet ro
H istor
ing e
Ġdram atic
ĠG raham
AT IVE
Ġlog s
ĠB uck
Im plementation
D X
ĠConnect icut
map sto
Ġt ale
ĠS oc
cover age
ĠD rop
Ġadapt ation
ĠPh oenix
Ġcub ic
rest ore
Ġsuggest ing
W W
ĠF ame
Ġtalk ed
us c
Ġcamer as
ev ens
Ġdom inated
ĠH im
() "
ĠR and
Start ed
Ġs urre
div ider
h w
ĠUn ivers
Ġscul pt
F a
ĠCl uster
ĠM OD
Ġcomp aring
Ġinv olve
F inder
ĠS ony
ĠA ST
d ater
w so
pub lished
ĠCh ampions
Ġr anging
Ġmount ains
L arge
r atio
c uda
usal em
ĠEn sure
Com ments
ĠStud ios
sect s
C losed
SE CON
asc ular
Ġp b
om ed
ant on
ash i
ĠMed al
n ol
] ));
th a
IFI ER
ĠJ u
Ġcor ruption
ĠArch ives
b etween
Ġamong st
Ġdisap pe
ab i
int endo
iss on
ĠAb d
et ter
ĠSh adow
ur ities
ĠNAS A
t own
m usic
om al
Ġcy ber
$ ;
we ather
Ġdeterm ines
Ġjud ges
B tn
ok u
Mut ex
ver ts
ĠCal led
: }
TIME OUT
i am
Ġround s
list ed
Ġlaw yers
Ġton ight
O ps
Com bo
Sup plier
| _{
Ġpar ad
Ġclean up
Ġaltern ate
is ers
ĠOr th
Ġexam ine
TR ACT
pos ing
Tra its
U INT
Ġl ens
Ġstay ed
D NS
L ead
Ġredu ces
ph ere
C at
ĠP attern
Ġres ign
B log
Ġdoc s
Int o
Ex pl
Ġdr ums
do ct
Ġdemocr acy
ĠM oney
ORM AL
ĠD J
ĠL ooks
th ink
are ncy
ĠK on
Ġrepresent atives
Ġf its
Ġthreat s
;\ ;\
Ġdef ence
ĠCre ative
Ġmist ake
P reference
Ġsh apes
sl ash
pol l
F ACE
J O
Ġcancel led
Newton soft
. &
Ġex clude
Ġoper and
ĠP i
get Context
Component Model
Ġsupp lies
ĠF LA
ĠCh art
Ġappoint ment
P ART
ism atch
Ġper ception
par allel
Bu ilt
call s
log ical
ĠDr agon
ĠL ower
print StackTrace
Ġattempt ing
Ġreg ression
an on
ĠB ou
Ġformer ly
Ġsusp ended
sp aces
prot oc
Ġven ue
h ole
Ġfrequ ent
ĠPit tsburgh
Ġl unch
g iven
Ġfor um
Ġun e
ĠPort land
ĠC NN
ĠCar ter
-------- -
url s
ĠT el
opt im
ĠK ath
ĠClass ic
ĠChar acter
access or
phab et
Ġsh ipping
la unch
ig g
ĠTh er
Ġel igible
Key board
is Valid
AC CESS
Rep o
ĠCh ile
ĠHistor ical
Ġex clus
Pub Med
) }_{
ĠGal axy
Ġo l
(' ../
size i
Ġste am
d al
ĠRepresent atives
ĠT E
ĉĉĉĉĉĉĉĉ ĉĉĉĉĉĉĉĉ
o auth
ĠPol y
Ġt unnel
ance led
ed ition
count s
ab ad
Ġhigh way
Ġmus cle
ĠA qu
A WS
ad ies
Ġ" </
host name
Ġb ull
ĠU r
ad ers
V ers
Ph aser
ĠTh ailand
Ġsurround ed
B AD
19 27
gr ay
ÑĢ Ð¸
ĠA V
ĠK az
Ġc ited
Ġst adium
ĠF un
ĠW E
Ġparse Int
ĠY ES
ĠWrit ing
Al bum
Ġsche mes
ac iÃ³n
ĠQueens land
> $
W elcome
ĠT ob
ĠWork ing
ĠB ud
Ġint ense
ĠInitial ized
b ash
rec ords
ĠSD K
ĠH AVE
A ge
G old
Ġfl ights
Ġguarant eed
dd ie
set Value
Leg acy
ex ist
2 60
Ġnull able
H ist
Ðº Ð°
ĠH amp
ĠL INE
Ġsim p
Ġsur faces
Ġmet ab
? .
Ġb orrow
bor ough
Ġgener ations
Ġm ice
Ġset Up
ĠI an
ĠCom plex
ĠR ules
cat Desc
Cre ator
"> #
Ġa pt
UL AR
read only
è ¦
Ġcontrovers ial
assert False
Ġp t
Ġsit uated
ĠG all
CON ST
Com posite
sequ ently
Ġche st
ĠVis it
im o
ĠN ormal
quir y
Ġo ps
Comp any
Spec ified
Ġfoc using
ĠBar ry
LE FT
ff ic
and box
Ġcommand er
Ġfin ishing
A rc
ĠBelg ium
ĠAnt i
Ġconsider able
Ġsp ell
ĠM ul
ãģ Ļ
Ġathlet es
ad just
19 31
Process ing
Pro ducer
ĠD M
en berg
Ġor ange
Ġh ierarchy
Ġo w
ĠAdd s
Ġcomput ers
Ġscatter ing
"> ,</
Ġpre mi
ATTR IBU
ĠInt elligence
Ġel der
um ar
EQ UAL
ĠRe ce
19 22
ĠDef inition
ĠN ear
ed a
ĠThe ater
FA ILED
Ø ´
'' '
h ai
g ulp
n ik
ĠH RESULT
Ġtum or
Ġad equ
load s
Ġch urches
ĠT X
ĠCl ar
A RE
Ġd ad
tol ua
al gebra
tik z
b en
Ġcelebr ated
app ers
f ar
0 100
ĠV k
ĠT ower
Ġsuff er
Ġscr atch
Ġr ugby
Ġjournal ists
Willi am
Ġp uzz
Res ize
ĠPro duction
F atal
ĠW allet
DE VICE
ay ing
widget s
Ġt ennis
List s
19 24
! ");
Ġsimilar ly
ex e
Pres ident
H on
loc ations
W ords
n able
Ġt ape
Ġ< ![
H P
ĠCal endar
ii i
ĠI M
read able
N s
ch rom
ĠP in
Ġc um
"> "
Cons ider
Rec ip
Ġeduc ated
oper ations
Ġfail ing
Ġindic ator
Ġdoct ors
Ġt ips
} )$,
æ ³
bar s
ph ones
define Property
ĠGu y
Ġart istic
t b
en h
)$ -
b usiness
is i
amil ies
ĠNor wegian
d ummy
Ġexpand ing
(( (
ĠL uke
ĠG as
F at
Ġdiam eter
ĠB io
USE D
Ġsp y
Ġop am
list ing
Ġb ases
Ø ©
ĠF E
ĠJim my
iss ance
Ġgather ed
ellig ent
00 5
S ys
\ .
th an
Ġh orses
ut t
Ġqu ot
Qu ick
ans wer
if ting
ĠO d
Ġthreat ened
_ -
urre nc
Ġpass age
lic es
m ine
il lo
cont ainers
lock ed
Ġreported ly
tr aining
Ġr v
e ing
Ġ/** <
Ġre quiring
Ġg aming
ĠĠĠĠĠĠĠĠĠĠĠĠĠĠĠĠĠĠĠĠĠĠĠĠĠĠĠĠĠĠĠĠ ĠĠĠĠĠĠĠĠĠĠĠĠĠ
Ġf ed
Ġ! (
sub title
iv an
ĠCh ron
ĠCl imate
be ing
Ġl oves
col s
ÐµÐ ´
Î ¼
pos able
ĠM ode
Ġj uris
IR ST
Ġm ic
ous ing
Mat ches
em a
ĠBl ues
> ',
ogn itive
S ing
Ar n
Ġhe ter
Ġfilter ed
c out
Sc ott
red is
Ġrecommend ations
Ġag enda
. $$
Ġform ing
Ġ( âĢľ
n m
= </
Ä Ł
Ġdef erred
ON LY
Ġsepar ately
Http Request
Ġover whel
ĠK am
Ġl ip
Ġe poch
ĠL ore
On line
el eration
ke ley
for ced
Ġsynt hetic
Ġres erv
ues e
ĠM yst
ĠChrist ians
ordin ator
Ġsw ap
ĠAc cept
ĉ ĠĠĠĠĠĠĠĠĠĠĠ
Ġth umb
Na N
Ġ*/ ;
L T
p ip
"> {
ĠN ag
TR A
Ġad res
Ġdeploy ed
Can adian
' }),
Ġbar rier
then Return
Ġdam aged
ĠEm peror
Ġcorre ction
" =>
ĠL GBT
NE SS
ĠSever al
azel cast
ĠPu erto
datab ind
à ¹
ĠSte el
ic ulture
Ġblock ed
")) );
ĠH eb
C ached
ĠW H
Ġfund ed
OUT PUT
}} $.
Pr incipal
Ġ" {
und ef
19 21
ĠStr ategy
ser if
SER VICE
ĠBalt imore
dash board
Ġarr anged
Sl ider
Ï ħ
ĠThe ory
Ġdream s
ĠA G
19 12
Ġj ail
ĠCom put
ĠIns ert
Ġs ust
) ";
Ġun set
ast ing
P references
$ &
EN S
net t
ĠJust in
)) {
ĠLe ader
P OL
Ðµ Ð»
aver se
l iving
ang les
Ã© t
ob i
s it
int ro
Ġdebug ging
O rientation
d ro
D a
Ġpl ural
Ġf er
om eter
Ġpush ing
eb ook
Ġv it
Byte String
Ġf iber
ĠPro gress
Hand lers
ĠM eta
Ð¾ Ð½
Ġdistrib ute
Ġen emies
gr avity
id el
ĠV enezuel
Fl ush
Compar ator
S un
Ġun n
Ġatt itude
ĠAss istant
ann ah
IT ER
Ð¾Ð º
ĠB arr
(" ")]
Ġstrict ly
ĠType Error
in ar
STRE AM
b ower
ĠS UB
vet ica
ĠR ect
Ġs orry
External Project
oo f
ĠS ql
ak u
Cur ve
' "
am ents
ĠÐ ¼
r adi
m art
h dr
ĠJ azz
}} </
ĠN A
lo ose
Ġres idence
åľ ¨
Ġcor rupt
con g
vert ed
ĠWar ren
Ġobt aining
Ġdelay ed
Ġt ub
13 2
RE C
ĠAct ivity
t ap
Ġlog ged
Ġst abil
Ġpri est
LE ASE
g ow
Ġ$ ('.
ĠU rban
Ġle an
Ġun iqu
lin ing
che str
Ent ities
ĠSt even
ĠPer form
ĠQ ual
Ġhard er
Ġphot ography
Ġcompos ite
ĠBet ween
aut hentication
Ġrecover ed
n P
ĠR ele
SE SSION
od ox
Ġoccasion ally
ĠT s
Number Of
k ov
ĠFrank lin
am ine
}} )
ĠDE BUG
Ġvari ance
Ġcap s
ç Ľ
or ship
19 25
Ġdiagn osis
ĠM is
ĠTai wan
Ex ist
Ġtext s
Ġwork flow
cre ation
Hel pers
Ġmount ed
ur ring
av ery
ĠP E
b ank
Ġl uck
ra f
19 26
ĠCol omb
ĠBo ys
grad uate
contrib uted
ĠA ch
Ġd uties
ĠDirect ory
Ġretr ieved
b ill
Ġexpert ise
Ġorgan isations
ib bean
ĠArch ive
Ġcontain ers
\ {\
P atch
oc ese
Ġconf ident
Ġcas ual
Ġdo i
Ġdo se
Ã© r
ect ure
Ġaff airs
ĠB UT
Ġcommun icate
Ġanaly zed
orient ed
m os
ym n
ĠFre edom
f ollow
Ġreal m
Ġinteg ers
Ġmaint aining
ip age
$ ~
ĠSam uel
g b
Ġinh abit
ĠMarg aret
ge om
Ġan onymous
inherit Doc
Ġmain stream
ĠEv ans
asc ade
f und
ri ors
ï¼ ļ
!! !
å ½
ĠStat ement
) ',
c losure
j q
DE V
ĠW ol
light s
st orm
Ġloc als
ĠC oun
ĠHamilton ian
ah n
Ġwor ship
al ter
Serial ize
Ġproport ion
1 19
F it
H om
ĠDr ag
Dem o
document ation
ic it
" |
ĠR oot
Un ion
ĠCon trib
on z
h attan
/ $
Rot ation
=' #
ab etes
Ġcon gress
Ġvac uum
b an
Ra ises
Ġind ustries
Ġembed ding
Ġv ibr
get Parent
ĠBar on
im er
ĠWeek ly
L M
Ġâ Ĥ¬
ĠPl ugin
re try
() }
Ġbuild s
ĠG un
st ation
Ġindepend ently
ĠW ang
F ar
ĠD ialog
AN Y
ĠF riends
ĠCon cert
port let
inter action
Ġdem o
Ġt ear
Ġpain ter
B ot
Ġdig est
um ed
ist ically
b ird
Work s
Ġtr ump
T IM
20 3
Ġterm in
Ġl ying
BE GIN
Ar row
Ġagric ultural
Ġg all
ĠM ol
View ById
Ġtom orrow
ar ith
Ġpopular ity
ĠB ab
ace ut
Ġinv asion
ourn als
i ang
Ñ ī
Sm ith
type param
) +\
us b
c ref
ĠSe pt
Ġprom ises
m aint
n r
Ġpoint ing
ĠU TF
oper ative
H ANDLE
ac ular
Ġend l
ĠBr anch
Ġmag net
ĠF ern
ĠQ uest
ĠF eed
ĠF ried
C ACHE
ene ath
Ġscreen ing
Cred ential
Ġflex ible
ain ian
ir ts
ĠDen mark
ĠE qual
ij ing
ĠL iverpool
Ġo xygen
ĠP un
Non Null
ĠHawai i
37 5
t wig
J P
s lds
( %
ĠT oy
ĠPh D
ĠB aker
ĠV ancouver
Ġconv ex
ĠSt re
ĠT ypes
al bum
INTER N
G reat
D ays
/ ',
ter min
Ġv oices
ĠF inn
Ġarg c
ape ut
Ġl ov
Ġaccept s
P LAY
Un expected
ĠEd inburgh
Ġfit ting
b readcr
sk in
ĠM ak
(' \
ĠAl aska
Ġdevelop ments
Ġconc at
Ġwarr ant
ĠAdd itional
ãĥ ³
fre quency
ĠValid ation
ĠT an
CO RE
Ġar ithmetic
ĠLib eral
ĠA rena
Ġg fx
ever y
Prot os
ĠM ach
ĠArab ia
Ġemer ged
Ä ħ
os ed
ĠC M
Ġport ions
æ ŀ
Map s
add le
ĠRef orm
Ġset Timeout
Ġter rible
ĠLead ership
Ġre ign
Ġc v
et ric
ik o
ĠAdv anced
Ġlight ing
sh ake
For Key
Pol y
min ipage
D eb
ĠJ oin
CONT ENT
Ġreg ulatory
Ġdeterm ining
Ġclaim ing
Ġtrail er
ĠC raig
}} $,
p read
Ġp reference
ĠPro to
Ġ] );
ĠShe l
al ph
ĠW olf
Ġcirc ular
Ġbon us
ĠĠĠĠĠĠĠĠĠĠĠĠĠĠĠĠĠĠĠĠĠĠĠĠĠĠĠĠĠĠĠĠ ĠĠĠĠĠĠĠĠĠĠĠĠĠĠ
ĠRel ations
N B
Ġremark able
ĠUp dated
Open Tl
Kn own
Ġcl othing
ĠP il
ĠK ate
CP U
ĠSet up
Ð ³
r isk
ĠWay ne
Ġir re
ST O
Ġsurv iv
?? ??
Ø ¹
Ġple ased
Ġf ade
Ġtw elve
ĠRem ote
b idden
k ubernetes
irm ingham
Ġflow ers
ĠO t
ĠBern ard
Ġthere by
Ġult imate
ro uting
/ ?
ĠC hel
iz ar
") ).
ograph er
Type Def
rop ic
Ġsevent h
Ġpack ed
Ġphotograph s
ĠL anc
Ġjav adoc
Ðº Ð¸
Ġe cosystem
Ġchoos ing
Ġcomp ensation
s chool
Ġg em
Ġbl ame
Ġvol atile
ĠU INT
ort ex
Ġb rew
ocol ate
Ġprint ing
Ge orge
tri angle
ey er
Ġind irect
Ġ urg
Util ities
s ong
IN LINE
il ine
ĠP eters
ĠBro thers
ĠQu ant
Ġt ies
Ġg ateway
ĠMit chell
Callback s
åı ĸ
æ Ķ
Ġten ant
ĠField s
Ġpseud o
ĠK itt
ac re
Ġview ers
V ars
k an
rot ate
set Name
Ġsp ots
Ġgl u
ĠBre xit
Ġb os
act ed
Ġremain der
SY S
M igration
ar atus
ĠBul g
P eter
Ġcl othes
âĢ¦ ]
Ġ ].
Ġsh it
f ade
ĠN ep
Ġdis cre
ĠSet ting
S uggest
ĠI de
mes h
ĠT ed
g res
ĠH unt
cover ed
id ays
Ġali en
Ð°Ð º
Ġst eal
ĠUn iversal
Ġt rem
TH READ
Ġconven ience
Ġagre ements
Ġbeg un
sh ader
IS O
Code Attribute
' </
ĠHel per
ew ay
current Time
Ġneut r
ve e
ĠSh im
Ġreview ed
eb r
Ġn ut
Ġcheck sum
Ġc d
h box
ĠApp ly
Non null
Ġut ter
Grad ient
Neg ative
d eleted
Al tern
S DL
ĠR ic
Ġvolunte ers
f m
asc ii
g al
op ath
g ender
ĠLe ave
Ġsh orter
Ġc line
control led
Ġgre y
Ġplace ment
* \
Ġl umin
ob s
vious ly
Pub Key
Ġbur st
ĠH end
ĠN BC
Ġfound ing
w heel
Ġr anks
Ġle x
Lin ux
Wr ong
Ġvulner able
Ġpres erved
17 5
}( {\
ĠB eck
Prop ag
ĠL ot
us hes
ĠQ uestion
sp y
13 7
Ġm ixture
auth ors
Ġ ));
Ġaccept able
V el
Ġpaint ed
az ines
Ġmanufact urer
Ġr ally
M ON
d ale
="../ ..
ĠÃ ¢
å Ĩ
16 5
Ch rome
chi at
ili ary
ĠPr incess
er ious
Ġens ures
Ġin aug
] <
o ct
Ġqu it
Ġimm un
Ġ\ (\
Aut hent
Ġse aled
Ġnumer ic
Ġ' [
the mes
work space
Ġlong est
T W
IC S
Ġm p
ĠB R
B ill
ĠB LA
DEF IN
P icture
direct ive
Red is
ap ing
Ġlux ury
Ġob st
Ġviol ation
Ġdep ression
Off icial
}{ (
k ar
th reshold
ĠA B
op les
ĠPer haps
ex c
Ġrom ance
Organ ization
Ù Ĥ
ĠM aine
ield s
en ium
ä¸ į
cred entials
Ġexam ined
ĠJer usalem
he ld
Ġinterpre ted
napsh ots
Ġrecord ings
ter ms
ĠSh ah
ĠÎ ¼
ĠPortug al
K ing
ĠCh amber
ĠMar ie
ĠL ex
Ġag greg
Des erial
Wh ich
ar ations
Per formance
un used
collection s
Ġbench mark
Ġ/// <
Ġpers istent
40 1
Ġd uplicate
get User
18 90
TO KEN
B in
Ġd ub
om i
Ap ple
ĠAl ert
Ġimp lications
ĠD NS
ĠTerm s
Ġpet ition
Rep resentation
Ġarrang ement
Direct ive
s ound
ĠV el
query Selector
Ġc ust
d v
ĠBe ing
ĠStan ley
Ġb read
Ġover se
ĠIm perial
M ot
Ġcomp eting
ĠT ensor
ĠR io
ĠC row
back up
ah a
Ġrank ing
c z
child node
Ð½ Ð¾
t pl
SE C
ĠSh ape
Ġview ing
Ġcampaign s
> ",
cri ptions
Col ors
13 1
ĠC ome
Ġveter an
ç½ ®
Ġn ortheast
sw ift
I r
Ġrepeated ly
HE D
F X
ĠP D
B IND
d yn
Ðµ Ñģ
F un
n v
ĠJ oy
ĠUn fortunately
Ġqu oted
ĠK rist
ĠOr chestra
ĠL isa
ĠW r
ve ill
ĠH unter
work ing
Ġsm ile
L aw
f h
out ing
Con nected
un ed
end ors
Ġspe aks
Ġneigh bors
)) $
linked ExternalProject
avel ength
Ġconsist ency
ĠAp pe
Ġgr avit
F B
o ft
Ġsp arse
on ing
ĠV K
'] [
ãĤ ¹
Ã ¦
DIS ABLE
ĠNC AA
Ġc yl
Ġdet ector
c id
Ġd ocker
ĠS S
Ac adem
Ġopin ions
t ain
oc hem
t frac
Ġev t
ĠM ason
Ġch ip
sh ore
ob server
ĠEd it
ament o
ym ph
ĠStr ateg
Ġd Ã©
Ġear liest
Ġconsist ently
spec ified
Ġw ides
Inst ant
ĠBroad way
or r
let t
Ġprom oting
root Scope
resource GroupName
s uite
n ia
Im plemented
her ic
E ducation
ĠS ent
Ġf erm
Ġvari ants
20 4
her o
ug u
ĠS N
ĠB illy
writ eln
or ia
ĠCOP Y
con sum
Ġevery body
linkedExternalProject Path
Ġrep lied
Ġu uid
Ġval ley
Ġb orders
LOB AL
) -\
ap k
has Next
ĠJ av
Ġcyc les
Ġgr ay
i ov
CL UD
Ġph ones
Ġst ere
Ġprepar ing
Ġequ ilibrium
Ġev ident
Ġref erring
is y
ĠC elebr
ĠIran ian
CLUD ING
le ave
ĠMET H
T w
W ild
ĠCom pute
onom ous
organ ization
Doc s
Ġcom ed
Ġj ew
Ġp ounds
ĠF ollow
s u
Ġreflect ed
ĠArr ays
Ġdeterm ination
ĠB loom
look ing
Ġhe lic
Transform er
ĠD ie
Ġim pr
Ch ina
N an
end um
Ġdefault Value
ĠColl ins
Ġfl avor
Ġph ases
T oo
Ġsph ere
14 6
Ġd irty
ĠF alls
Ġcr ystal
ĠIn n
Ġless ons
Ġs ugar
Ġple asure
M id
Ġenc oder
ADD RESS
m eter
Ġdoll ar
Ġdecom position
D H
ĠG las
j dbc
Ġsurv ived
ĠCon struction
Ġm a
ĠCall back
ä ¼
Ġd ummy
ĠR ank
ĠC I
ĠB ag
ours es
Ġphenomen on
ĠE R
VAR I
Ġaf raid
Ã¶ r
start ed
PO SE
veill ance
m eth
J av
aceut ical
Th umb
ond s
dist ribution
Ġt orn
assert Raises
ĠOr ange
ĠFl ag
Ġver bose
Pr iv
m illion
ink s
Ġexp atriate
L and
Ġdi agonal
ĠR y
Cal c
Ġstead y
EN SION
Ġdecl ined
Pub lisher
Ġc od
Ġab road
Ġre actions
Ġlaws uit
Opt im
ens is
ĠR s
user Id
ĠP ad
ĠD ise
Ġo ct
Ġbron ze
hy per
Ġover come
qu ake
hl js
ĠOl iver
O VER
Ġp ow
aw ait
p md
Ġprom ised
as se
ĠCO MP
Ġshould er
wik ipedia
dr iven
Ġprogress ive
ĠDep uty
ĠEx hib
15 2
ĠS r
Click Listener
H uman
Ġd ated
Ġcr icket
utr ition
Ġh ooks
J ournal
Ġr iding
br ains
Table Name
d up
por al
Ge o
h is
spir acy
ĠCommon wealth
Ġt ension
Ġam id
æ Ŀ
Ġcond em
Ġvent ure
ag netic
Depend encies
Ġdi et
ugg ed
OFF SET
Ġposs ession
State Exception
Ġenter prise
uck er
Ignore Case
break ing
Ġhit ting
Ġgraph ic
Ġap ple
ĠS EC
add er
end l
ĠThe me
Ġs ail
Ġexpect ation
S i
Ġret ained
Ġhuman ity
Get Type
ĠBen jamin
7 50
é ¡
Ġexclus ively
ADD R
Ġal igned
Ġc rown
ĠHash Set
x r
la im
æĹ ¶
Ġhe ap
Ġover r
ĠA DD
Ġfile Name
Writ ten
h ub
ac co
36 5
ht m
Project s
Ġco operation
B G
Tool bar
Print f
b ecause
Ġsaf ely
Ġas h
ĠTrans form
getElementsBy TagName
Ġfoot er
Ġf ur
Ġ ))
Ġsm allest
ĠM aj
19 13
ĠF ake
Ä Ļ
r ass
Ã Ĺ
k ill
T urn
n x
ĠChar lotte
ĠAgain st
ĠSh ared
â ĪĴ
ĠC BS
Ġdist urb
An swer
T ur
ĠCom ics
Key words
ĠProf essional
f v
ĠFunction s
im ir
e ur
Ġaffect s
S y
he ll
Aut om
J im
Attr s
Ġassert ion
Ġ( {
Y ES
W ire
to gether
Ġimport ed
CA SE
N ORMAL
Ġem ails
M a
Ġg ard
Ġc ous
Sample s
Ġdocument ed
Ġg rows
map per
Ġsub group
ri o
ĠH ockey
L ondon
} ")
W ater
ĠF iction
Ġr ice
d ensity
Ġoff ense
D K
ĠTh or
ci pl
ĠWAR NING
Ġder ive
Ġex cluded
Ġnob ody
Ġattract ive
al ways
Ġess ay
Ð¸ Ñģ
Ġ$ |\
C s
d iction
ĠL yn
ort ion
Ġtrans itions
Ġescap ed
Ġfrequ encies
C WE
U r
00 000
Ġden oted
Ġtab index
log ue
Ġm eg
do i
as ures
ane an
th y
MLE lement
ĠS erv
ĠDen ver
Ġun w
Ġen semble
Ġfoot age
ĠP FNGL
Ġp ose
ĠEn um
ĠUp per
P LA
ment ion
pre ter
normal ize
or um
ĠR F
mk dir
) })
Ġf usion
om on
aut hent
Ġdr ives
w ifi
Bo ard
ĠSimilar ly
ĠIn sur
W ITH
Ġmodel ing
b az
t ec
ric ulum
Ġc rop
N ever
led g
Ġdef orm
Ġadv ers
Ġdistingu ish
ĠMad rid
Ġ( ((
ĠP K
Ġcult ures
MPL ATE
Q R
Ġeffect iveness
ash ing
ĠCro at
ĠC rown
min imum
Ġep ic
ĠC ultural
Ġpl asma
Let ter
Ġ* */
Ġdec k
CO PY
expand ed
Ġaug ment
ĠA w
Ġcompar able
Call able
Dis covery
Ġcast le
ann es
Ġmax imal
Ġmolec ules
St amp
d eps
Ġp id
grad ed
Ġst ating
bal ance
ĠMont real
ap l
ĠPh arm
Ġrock s
ĠTH REE
Ġinterval s
ĠS ay
List View
Ġimplement ing
ĠBar bara
M AT
> #
he ap
Ġp ill
hand lers
ĠFrame work
E mbed
ĠR av
Ġpro tests
Ġstri king
C LE
z ens
D to
Ġt ropical
ĠS olar
PRE SS
Ġ{ !
ĠH erm
Ġm os
2 25
Match ers
contrib s
Ġimmigr ants
ri en
Ġcoast al
ĠGr ay
/ :
M ULT
ĠA y
t om
Ġ nd
D ele
at iv
cel ona
ĠStat istics
Bi ography
uk a
ĠH ind
Ġcar ries
eb ody
Ġch amber
ro d
Ġpurs ue
EMP TY
ep er
ĠJohn ny
S uffix
ĠObject s
ĠP anel
j b
15 5
Ġunder ground
ĠU UID
sql ite
ĠH aving
ost ream
ĠSt and
um ing
F ILTER
ĠSe an
Ġparticip ating
CONT RO
ĠSV G
ol utions
ĠP or
Ġun ve
Ġrecru it
m ne
ĠM ix
ÐµÐ ¼
Ġprem ium
On Search
Qu ota
Ġd ens
12 34
ĠL ost
Ġcond itional
So ft
ĠSh a
we ights
eg u
Content Type
Ġactiv ists
ĠI SO
ĠK ids
inherit doc
INTERN AL
p ow
Ġreal istic
elect ric
Sh utdown
0 10
add itional
ME DI
ĠC ass
Ġam pl
" \
IG H
ĠSp ot
Ġbare ly
D ark
in ery
ĠC arr
Ġtop ology
min or
Ġrandom ly
ĠM IN
Ġquant ities
param ref
com press
ĠSw ift
Ġroll ing
ĠF err
Ġ[ ])
te in
Ġprison ers
Ġvess el
col ogy
Ġtrans it
Ġtele phone
GR AM
({ },
ĠResource Manager
Ġent ropy
Ġf ut
c g
ĠV ery
erm ark
int egration
pos itive
ĠQue bec
ad os
al og
Ad s
ĠT oo
ä¸ Ĭ
R eb
Ġins ights
ĠId entity
Ġcelebr ation
> =
ot ypes
Ġminor ity
k u
aff ected
ĠN ad
Ġd rew
Ġm arch
ĠNet flix
Ġmeaning ful
M ad
List en
cap acity
Ġ' )
ĠU nd
math comp
Ġsu ck
Heading Color
n od
ãģ Ĺ
in crement
D ead
^ (
O lymp
f ixture
ĠB U
un ix
ĠRobert s
Ġsub mission
ĠSt atic
Ġel li
Ġrid ic
Q Name
v ation
ĠP el
pl aced
or ious
Ġm ood
B and
nc ient
PI O
ĠEar l
ow ed
Min imum
Ġal arm
eh icle
B as
ĠPark er
Ġsystem atic
Ġor b
ov en
ĠW R
Ġcre am
Ġs q
Ġis l
Ġspec ifying
Ġtempor al
Ġen zym
az ard
U tility
Ġc inema
ĠW W
ĠArt ist
m is
SH OT
ĠCom plete
ĠE mber
fore ign
vers ation
Ġres ort
ate ful
Up dates
l adesh
op ing
ä¸ º
ĠMet al
ov o
}{ |
ĠP ick
Ġpower ed
Ġcommission ed
M icro
t alk
Ġthrow ing
ig ion
Ġexist ed
rupted Exception
ĠR uby
Ġdel iber
ĠCom ple
Ġmax im
Ġ ----------------
c rypto
Ġapprox imate
ac a
gener ation
ĠE state
L atest
Ġperiod ic
op enc
:: _
ass y
g ol
Ġsol ving
ĠEm pty
pro port
ĠB order
L IMIT
le te
ĠB ird
16 6
ot ton
Tool tip
keyword s
Ġt ube
Ġatt ending
N EXT
ĠS pect
che m
Id le
fo od
Ġneg lect
rep resent
Ġhad n
Lear ning
Ġin jection
ĠV eter
$ :
19 08
sh ot
Ġatt achment
ap on
20 8
________ ________
14 9
ĠVari able
Ġprom ising
Ġpul se
lov ak
Ġrad ial
indu ced
Ġactiv ated
ĠP os
str ategy
Null Exception
node Type
Thread s
ĠUs ers
tr ivial
2 12
g ency
ĠN am
Ġup dating
ĠA ld
Ġle mma
Ġincred ibly
ĠS amsung
ĠE asy
Å «
14 3
pl ating
Ind ian
Ġmod ifications
em in
N F
Ġtool tip
ari ju
ĠV o
Ġrecon struction
h aw
ĠEnter prise
pub lisher
ph ysical
Ġemph asis
ĠBroad cast
Request ed
itte es
it ual
Ġm ature
Ġgr an
Ġinf lation
jet brains
ĠAppend ix
Austral ian
Ġdis pute
Ġwarn ed
ĠUtil s
ĉĉĉ ĠĠĠ
ĠGr ace
Work flow
Ġass ass
ro les
So ftware
ĠM ack
ĠMov ement
19 11
% );
Ġout door
="../../../../../../ ../../
ĠL ag
$ ),
Ġprov isions
ob b
ĠHon or
ER O
Trans actions
ĠExec ute
Ġjo ins
ĠAr c
am med
13 8
Circ le
Em it
inst ances
Ġconv ey
in ite
Ġbr ut
ĠFeature s
ariju ana
ĠTurn er
Ġeng aging
13 9
Ġrat ings
enn ial
4 80
w oman
}$ )
Ġexec utor
ud o
Â ±
Ġin fr
Ġl ady
Ġnormal ize
ĠCurrent ly
class v
Ġover lap
H H
is co
Ġg ross
Ġbelong ing
Ġexpl oring
Î º
Ġim per
D evelop
ĠV ent
s ap
av ors
Comp atible
v t
Ġh unt
Ġmarg inal
Ġact ively
comp any
b matrix
Ġ@ @
Ġover l
H ouse
[ @
ĠE ST
Ġr h
G G
assert That
ĠTechn ologies
Ġcov ari
Ð°Ð½ Ð¸
Ð°Ð ´
Mix in
ĠF ab
Ġcom ics
Sin ergi
2 11
Ġp ole
ĠP ic
Ġch ains
ograph ics
ens ively
t an
ÑĨ Ð¸
Ġcre ator
** :
}{ {\
Ġproject ed
ynam ics
Ġout s
ĠPh ysics
Ġver ified
Or d
---------------------------------------------------------------- ----------
ĠAr n
ĠAl loc
el ing
Ġdo zen
ĠTechn ical
S dk
ival ent
Y LE
opt er
à¥ į
/ @
13 3
FAIL URE
ch ars
ĠW a
ĠU pon
or b
Ġdepart ure
Ġsur f
ĠAn imation
================ ========
h um
ĠUn iverse
ĠCar ibbean
ĠG UI
Ð½ Ð¸
Ġsmo ke
vis ual
El se
ĠF ine
Imp licit
ĠMean while
ĠD S
FO UND
Writ able
ag les
ER E
ĠDom ain
ing ing
ipher al
ro at
Ġstop ping
C urrency
ĠF ail
uss ia
B ank
Ġhard ly
Ġsil ence
Ġsens ors
user Agent
DA O
Ġs outheast
Off ice
un icode
ĠL amb
WIN DO
ĠVAL UE
Contin ue
Â ½
ĠCon sumer
ĠL arry
ĠV a
Job s
j ournal
sh rink
Ġen abling
m ob
Ġcomp ounds
be havior
ine a
Ġcle ared
r ain
it ize
Ġat oms
Ġro uting
ok emon
ĠA my
ĠI o
im ag
b uffers
Git Hub
it ime
R M
ĠP ictures
Ġ Ñĥ
SN AP
00 3
at trib
ĠG round
L ater
go als
ĠD elta
C ut
C losure
ĠA aron
Ġsub stit
Ġreflect s
s elling
Ġswim ming
Ġwides pread
i ating
im en
Ġgr ace
Es cape
log s
ĠM T
ĠRob in
Ġlimit ation
( ',
r w
22 2
Sl ide
ĠFant asy
v ature
Ġin ches
g allery
ĠP rix
in ance
s uggest
ĠA bs
ol er
}} _{\
ĠThrow able
ĠC er
Ġsup press
ĠB right
Ġmill iseconds
f ef
ĠT am
ss h
Ġform ally
ĠInd ians
Ġun safe
ĠM uch
We ak
Serial ized
ĠC old
ĠGi ants
CLU DE
ĠD ES
Ch ars
bel ow
ĠNE W
Ġcompr ises
P ing
X i
n om
Ġl ung
det ect
Ġmanufact urers
Bal ance
P AGE
Ã ĥ
Ä «
Ġinn ings
ro utes
Ġblock ing
s al
ĠP ush
Ġiter ations
ĠC arn
Ġim pression
over e
Ġmod erate
comp ass
Ġo c
Ġv i
Ġsh ops
ah l
Ġgr ants
Ġnon linear
Ġbut ter
30 1
Ġsch olars
Ġg onna
Ġoppon ent
on er
ĠMan hattan
Doc uments
d ns
Ġh ur
Ġsub stance
GL enum
Ġon Click
Ġqu otes
ĠCert ificate
h bar
Ġh ung
tr on
Ġevery day
rece ive
Ġform atted
). </
Pos itive
Ġd ip
Ġ{ :
Ġcons ensus
Ġf iring
tr action
20 23
ast ro
Ġconst expr
ĠAuth ors
Ġwalk s
b anner
path y
ĠY ang
Ġhand ed
BU F
feed back
r te
Ġen orm
Ġn ic
Ġconflic ts
Ġactiv ist
ĠRE G
ĠZ ero
Ġl iv
t ical
Th omas
Rect angle
ib e
Xml Element
Get Value
Ġ è
ĠInsur ance
Ġs ans
T witter
Ġaud iences
}\ ,\
Ġexpect ing
less sim
Ġown s
j ud
ĠT ig
Rich ard
= _
air y
con c
Z Z
p ause
t odo
ĠMor ning
Ġforest s
Ġf t
ĠSk ip
ĠGL uint
rece ived
P FNGL
Ġsee ks
ĠK il
=" .
Dis patch
Ph ysical
Ġauthor ized
Ġf itted
Ġch ances
ĠCo al
ĠK o
Ġa uction
Ġl ucky
R ail
W all
iv ic
ĠDak ota
Ġdev iation
ĠDefault s
ert on
Ġvess els
ĠL anka
Ġsql ite
Ġi i
ĠDes cribe
rece iver
Ġoppon ents
P ull
" ):
ĠRem ember
Ġfor cing
ĠP ow
Tr im
Ġapp aratus
Ġfacilit ate
)) :
sp el
Ġins pect
it err
ĠEcon omics
Ġg otten
Dep artment
s ites
Ġhost ing
ĠLabor atory
Ġor al
rec ip
im ony
ab br
AL LOW
au er
Ġstrugg ling
ĠR u
del im
ĠElement ary
ener ate
Ġin struct
STAT IC
ĠFl ash
Hash Code
Ġsusp ension
Ġens uring
mid i
Ġb uffers
Ġitem Members
Ġcompl aint
ĠArk ansas
RE QUI
success ful
am mat
At Index
Ġgeneral ized
cons istent
Ã µ
ĠBrazil ian
ĠS eq
ĠR ing
Ġglob ally
Ġh over
Ġback ed
Ġtri angle
s cheduler
t ls
Ġth rew
ĠU ri
Ġk iss
ĠL ion
it ations
char At
Ġnumer us
am pton
ĠA SC
us k
^* $
initial ized
L ove
S ector
Sort ed
ce il
Ġext ending
Ġref id
Ġcr ick
Ġcitiz en
Ġcompr ising
B IN
ĠS even
ĠKe ith
Ġab ilities
M or
ĠH at
ĠFile s
ĠCheck s
Ġcon ce
agr ams
ad vert
ust ering
ĠInt ent
h ls
IT EM
Qu ote
ĠSquad ron
Ġcomment ed
g rey
Ġb ills
re load
Ġwork space
Ġimpact s
Ġf oss
ĠW IN
ĠSpr ings
duc ational
Ġsem antic
W ay
Ġadmin ister
Ġconf used
RE L
Ġgold en
K S
Ġst olen
Ġk iller
ĠC ensus
Ġ[ &
k k
ĠI Enumerable
ĠMETH OD
Ad just
add y
G ed
Work space
Ġdist ances
Ġag gressive
is EqualTo
j sp
ĠM agn
ĠAir lines
Cal cul
Ġs ectors
Comm un
Ġpo ison
an Ã§
ĠA CT
... ]
Un icode
Ġho spitals
Ġtack le
R oll
Ġsh r
æ Ń
p w
Ġ\ !
Ġexam ination
Ġst unning
Ġfrag ments
3333 3333
Ġadjust ed
Ġphys ically
ĠA f
A fr
Ġpos it
ĠJ a
Ġalleg ations
Ġb anned
ag ers
Sh ard
Ġg ains
ular ity
Ġfall en
3 30
th al
IN X
User Id
ul ators
or ro
pt o
Ġjust ify
Ġl ap
ro v
ĠUn like
ĠR oll
L ex
ĠN at
uc ceed
ĠH H
Ġca ption
Al location
15 00
Ġauthor ization
Ġa sp
ĠF light
res olver
enc ia
Ġhistor ian
single ton
Ġcon fer
Ġch rome
ĠP erry
Ã© n
Con sum
LE T
cred it
Ġok ay
. ')
R ussian
Ġv endor
As String
ĠFin land
Ġdecre ased
real m
Ġarrang ements
xi ety
et e
effect ive
sh ops
work flow
ĠE SP
PE G
Ġgrad ually
Ġd ish
R en
19 05
ĠG ay
M gr
Ġequal To
ĠNe uro
g ateway
Spec ification
ĠC atal
Ġj ury
ĠInd ustrial
Ġagric ulture
oc c
Ġmiss ions
ins ula
Ġking dom
Ġre semb
ody nam
ĠSt ein
Com puter
Ġhighlight ed
Ġlab our
Cent ral
, {\
Ġth irty
Ġanalys es
æį ®
Ġdec ides
>: ]<
ĠNav al
m q
Ġin ev
ack ed
à¤ °
Di agnostic
Ġequ ity
"> .</
Ch ris
Ġang ry
Ġeg gs
Ġre nd
ĠJ erry
eg an
' ><
Ġ* =
DA Y
author ized
Or Empty
Ġresource Culture
Ġshift ed
) ");
ĠR ET
ĠM ong
ge br
R oles
up les
io x
un stable
ĠN ord
ĠCons ervative
Ġdifferent ly
Log ical
ĠLeg end
Ġener gies
"> )</
all ing
rit ic
ĠJ oint
F ixtures
LI ED
match er
DE SCRIPT
Ġa ired
D am
ro st
Ġlabor atory
ĠB row
ĠG OP
s uffix
sp lice
col og
ut ation
ay an
if ice
un ted
Ġfe as
T ech
Ġcontrib uting
Ġch ampions
Ġfail ures
Ġattrib uted
M el
ĠC ut
W IDTH
Ġdem ol
Ġport al
~~~~~~~~ ~~~~~~~~
ĠCirc uit
fold ing
GL uint
Ġa qu
ĠAct or
- %
Comp ile
Ġstraight forward
Ġhydro gen
S ens
ĠReg Exp
ch t
Ġan ger
Button s
Ag gregate
View Model
Ġlab eled
d ue
l iter
Ġh unting
ack ing
Ġb eneath
ĠT ools
Ġprefer ences
Ġdead line
15 1
Ġo d
ĠB ot
Ġr ivers
B ur
20 5
bor ne
et ta
ĠS ad
ĠS eb
Ġdep uty
Ġt abs
AB C
ĠUs age
ĠP ref
Ġper pet
mem item
ro c
Ġpre val
Ġdes ktop
ĠCommission er
ĠC arm
Ġpost ing
Ġtal ented
thumb nail
att achment
ĠL ayer
g ent
set Property
Ġconsist ed
6666 66
Gu ard
In c
Start ing
perm alink
ĠW onder
oo led
Ġtag ged
Ġmid field
ĠI con
per missions
Ġr ab
Ġbo ards
Ġs printf
Ġstr len
rec ogn
ash a
Ġdev ast
ĠR acing
ĠForm ula
Europe an
ĠM ER
:// $
Ġoptim ize
ï¿½ ï¿½
Ġh oney
type Name
Ġhabit at
Ø ²
Ġvar s
Ġpart ly
des cr
EO F
Ġte eth
r ss
Ġb other
Ġtravel ing
ĠCh anges
S pl
Ġrect angle
Ð ¡
um ble
EX CEPT
ir y
R oman
ĠLiter ature
Ġcirc les
x si
ĠT ib
ĠSus an
in ced
BY TE
Ġro l
Spec ific
ĠA ve
C AT
m other
ĠH ub
ĠH indu
Ġwild life
Ġman ifold
Code Dom
ex act
è ¨
Ġcomb inations
ter rit
deg ree
Ġfit ness
ĠC le
Ġsure ly
A verage
O bs
Ġsequ el
ĠDr iver
80 80
Ġven ues
å Ģ
or ator
Ġalleged ly
ĠD ynamic
Ġserial ize
Ġsynd rome
m el
ĠWith in
W P
Ġp and
% ">
ĠO scar
Ġfr act
ĠB irmingham
Ġman ages
] ],
>> >
Install ation
q q
my Item
d ims
render ing
Ġ'/ '
Ġl oose
Ph ysics
ä ¹
math it
arn ess
Ġl ua
28 0
Ġac oustic
Ġl hs
ĠZ e
] $.
Ġp arks
Ġsp ir
Ġexpect s
ĠGre ater
icult ural
:: ~
ĠV oice
Dis pose
> *
ou ple
Ġdec oder
P ac
SY STEM
Ġapprop ri
w y
eg e
Ġver b
qu arter
ĠL atest
ca pt
Ġengine ers
CK S
Ġrep lic
ad apt
Ġno se
Ġsing ers
ĠEvery thing
H i
y ellow
Ġlength s
ĠK irk
æ Į
ĠCar los
ĠF unc
Ġdro ve
je ctions
Ġl obby
ĠRod r
to Array
Ġinter ference
att y
ĠK el
Fr ank
S ibling
ub a
ĠLet ter
$ };
Ġ` --
v art
ĠSTD METHOD
ĠN amed
ib us
amp a
++ ]
Ġt ons
Ġnav igate
Ġburn ing
ĠNev ada
ĠPer iod
Ġpropos als
ĠHamp shire
"> :
ib lings
ĠArch itecture
| }{
ĠG rey
pos itions
ĠL ux
get Int
parent s
Ġassert False
ST D
15 7
g ather
Sub scribe
und o
Ġicon ic
Ġsup plement
ĠSE LECT
Ġt une
4 000
R ew
Ġd ying
ced es
Ø§ ÙĦ
Ġs z
Ġresource GroupName
rot ation
Fin ish
Ġboot strap
Ġw ounded
Ġsh ame
M ike
Ġbelief s
R ock
Ġcomp ress
border ed
ir able
S IL
ĠGL sizei
P ipe
Ġm as
Ġ} {
Ġelement ary
Ge ography
Ġw inds
output s
Analy zer
W D
? ,
Ġtra its
Ġv o
it ol
tt ify
$ {\
ĠC V
per formance
ING S
L azy
Ġextra ordinary
Gener ation
o ard
Ex act
start sWith
Ġcouple s
ĠCh ampion
Ġlik elihood
Ġcontrovers y
Ġinc idents
ĠPortug uese
Ġ( ),
Ġenthus i
Ġs cheduler
Lem ma
Ġsole ly
Ã¨ re
D IV
Ġan notations
ĠDe al
V ill
ent e
Ã¡ s
Ġshel ter
f iction
ĠC itiz
ĠK u
Inf os
Ġd ialect
30 2
un ate
Ġelse if
Ġseem ingly
ref s
Ch oose
ĠDis covery
focus ed
> ");
am ination
in el
ĠF oo
Ġr ated
Ġd ashed
In side
ĠK ap
A wards
D TO
ĠS id
Ġcont rolling
Ġpack ets
Initial izer
Ġsec ured
Ġinflu ences
ĠGuard ian
"> @
Work ing
W T
á º
ec ca
require s
Ġconv inced
ĠAut om
Ġ" *
Ġpress ed
dig est
ĠBe ijing
ĠMe eting
iterr anean
Ġh i
D roid
ub le
D eleted
et ched
ĠP P
cent ral
ĠT ak
Op code
Ġnewsp apers
Und efined
if s
ĠMP s
)) \
å ¾
Ġr hythm
te chn
list eners
Ġf ert
Ġfall back
' ></
r vm
Field Type
ç ī
Ġoccup ation
g pu
form atter
for um
B orn
Action Bar
ãĥ Ī
ĠCo hen
Connection s
Ġmyst erious
Build ing
Ġin cent
ĠF itz
ĠW riter
ĠP rior
') [
' ",
C ENTER
ĠN UM
ict ions
Ġdev oted
alloc ate
. {
if le
Ġd atabases
Ġcompet itions
Ġscient ist
ĠTo gether
k b
' })
I OR
Ġmut ual
. ).
Out Of
Ġcontact s
Ġt v
ĠG olf
Ġhar ass
Result Set
Ġm ild
ĠN intendo
Sh op
itt ers
Ð¾Ð ³
W ed
ul in
ĠS afe
ĠN icol
Ġcross ed
ĠJenn ifer
19 09
C am
sh aped
R ad
Mar shal
Pub lish
Ġswe ep
+- +-
ĠF T
ĠS ometimes
Assert ion
áĥ Ĳ
Ġd eter
ĠBet ter
S ar
Ġtour ism
s us
ad itional
um ption
Ġsuggest ions
AUT O
I o
ĠCom merce
man ual
CP P
ĠCost a
S ensor
ĠG MT
apt ist
Target s
p el
Ġev olved
ic ating
UB LE
scal atest
max imum
ĠSy rian
Ġres ize
ĠMon itor
Ġexception al
Ġo m
B ooks
P in
COM PI
ential ly
Ġmer ger
ĠCam eron
L uc
i u
ĠâĢ Ŀ
C ritical
er ical
Ġa u
TR ACE
Ġ% (
h arm
part icle
it ely
ĠC emetery
ĠAR M
D MA
ĠS U
ĠDan ish
Ġdimension al
Fl ash
ĠCommun ication
API ENTRY
ĠLa ura
' +
Ġsold ier
ĠDemocr at
] "
mu x
PR INT
con sc
In herited
ĠRe ports
pro blem
Ġ} }</
ĠW ing
Ġ[ -
ix on
Ġmeas uring
ĠM om
Ġb uff
R F
Ġnot ably
comple tion
b rev
é Ĺ
D J
Mod ify
http Request
ĠHill ary
Ġsol ved
Ġload s
ĠMov ies
Ġconf usion
p ane
ĠN ar
Ġsup ers
A wait
ĠMet ropolitan
node Name
D irty
Ġr pc
os hi
Ġwork shop
r ating
}} }\
ch r
Vers ions
Ġre fr
DE CL
p ark
COMM AND
Ġ Ùħ
Ġwood en
Ġ_ ("
ĠD WORD
] ):
ĠĠĠĠĠĠĠĠĠĠĠĠĠĠĠĠĠĠĠĠĠĠĠĠĠĠĠĠĠĠĠĠ ĠĠĠĠĠĠĠĠĠĠĠĠĠĠĠĠ
Ġmind s
Ch apter
Ġfire s
Ġre interpret
re comm
Ġ<!-- [
id ency
ĠS ort
Ġl ifestyle
Ġphil osoph
Ġiniti atives
IS H
COL UMN
M ont
ĠHor se
ĠÐ½ Ð°
M Q
G lob
ack ets
og r
N ear
) `
LOC ATION
Ged mo
b ai
MA IL
ĠS lo
At om
12345 67
Ġpop ulated
h ooks
sh utdown
View er
Ġdrop down
l ant
ĠB aby
7 20
L ittle
Ð» Ð¸
ol ine
ĠM otion
cc c
Ġinhabit ants
}[ \
Ġtarget ing
Ġgather ing
ĠF ri
IP v
table block
ect ive
ĠTh r
ĠR ou
ĠEx ternal
ACT IVE
F old
å Ŀ
ĠB B
Ġsum mit
ĠMur phy
b ach
ĠAdmin istr
och astic
ĠSyntax Kind
ar ser
é Ļ
Ġcount ing
Ġvolunte er
ĠP icture
}} .
Ġlet ting
ĠM asters
G overnment
prov iders
è¦ ģ
Ġher oes
Ġa est
ir s
Out er
iz za
sp ired
ĠRep lace
Ġattract ed
Ġse eds
T CP
UNK NOWN
ĠT erry
ĠCl aim
ag h
B ay
uc le
s ized
Ġbe an
Ġcancell ation
SP H
Ġansw ered
\ }$.
"> {{
Ġdiscrim ination
Ġcomb ining
Ġbank ing
inc inn
Ġn ights
P a
19 3
Ġbr ick
2 32
ĠG ov
ĠMad ison
comp atible
Ġ= =====
eval uate
J on
Ġtrail ing
SNAP SHOT
P TS
ĠV ER
Ġb atter
ĠR isk
Ġtranslate Y
! ]
ĠCatalog ue
B er
pres erve
Ġ\ ]
ĠU lt
ĠVin cent
ĠK ay
Ġdig its
SE D
) ](
other apy
Ġun used
ed e
ME TA
ĠB irth
ĠR ud
Ġdes erial
50 1
eff icient
Ġes lint
Ġdeliver ing
ĠP UR
m ind
ĠEx pr
Ġbreak fast
St e
ĠInter view
Ġarch ae
ia o
Ð°ÑĤ ÑĮ
> {{
empty set
"> $
ĠT IME
Ġc ategor
ĠHarr ison
ĠDef ence
Ġnom ination
ĠFi refox
Ġsound track
l ar
Ġpsych ological
ĠG M
Mar shaller
ĠH iggs
Ġintrodu cing
Is rael
mall oc
Ġinflu ential
p ure
Loc ations
parse Int
aint ed
c riteria
g ie
ĠM ouse
Char Field
ĠE L
Ġsp o
abul ary
Ġassum es
ĠMount ains
ĠS alt
avor ite
get Path
con sumer
") ),
og s
Ġsh ore
ĠCont em
ĠK an
Ġcent ered
ATTRIBU TE
Ġ\ &
Ġtrad em
Ġf ate
Ġg ig
19 06
( _.
Ġfasc inating
ĠCru z
ĠAlex and
Ġalloc ate
ĠIn novation
nol imits
Ġang les
Ġ' ');
N othing
ĠP ent
ĠW orth
Ġr b
Index Of
B ob
ĠR ico
Spec ify
Ġpros pect
Ġbe ating
oth s
depend s
ĠCour se
CCCC FF
g om
ĠProduct s
B ul
US H
Ġwor ried
Ġimm une
L ou
ĠW heel
Ġ[] *
sort ed
Ġelim inate
up al
Ġstep ped
Pro jection
Pro duction
akes pe
pop over
Al ready
å ·
ĠS oul
IF ICATION
ĠPalest inian
incinn ati
Ġprotocol s
ĠGlas gow
ĠF ace
Ġed u
ĠE M
) }.
Ġel ite
Ġe leg
Ġprotect ing
Ġann ually
Ġpo ems
ĠMult iple
hab ilit
Ġconj unction
ĠP ra
Ġderiv atives
ãĤ ĭ
Ġvol tage
ĠJer emy
ĠS outheast
Pop ulated
ĠQu ick
Ġconfirm ation
ĠCirc le
g ap
Ġinit iated
Ġco ord
ĠAl gorithm
ĠBer keley
14 1
q s
ell ers
14 8
ĠRE ST
Ġfor k
bit map
oot ing
Ġinter cept
Dim ensions
Ġre construct
Ġdifficult ies
Stud ent
ĠExec ution
Direct or
Ġcoal ition
= */
ĠS ans
Def ine
sole te
Ġb ubble
sl ant
ĠMon te
\ ",
G allery
ĠG NU
30 3
Ġh orizon
76 8
pro j
Ġtim eline
h yp
ĠK id
= }
2 15
v irt
transp arent
ĠM aps
19 04
Ġtw ist
Ġaud it
A h
ĠKen ya
Ġafford able
ĠG host
Ġdiv isions
cons ider
18 00
ĠNot ice
Ġdu o
Ġnegot iations
it us
ĠM all
Rep orter
ĠS ync
Ġsc andal
f ive
ist le
Ġz ones
Ġdaught ers
Ġentreprene ur
>{ @
Ġw ound
Ġnot ifications
anc ers
Ġ( &
ster dam
add All
H AS
- "
sc opic
rip ple
E t
}} \,
ox el
r age
P en
Ġcon current
ĠU int
ĠT S
iv ari
O Auth
S PI
ĠR at
Ġdescri ptions
; ;
ĠDr ug
t ies
Ġwant ing
territ ory
= .
os lav
p index
C U
ĠW ould
F ault
Ġ"\ "
Ġs lope
Ġsh allow
Ġc argo
14 2
Ġre fin
Ġvol can
Ġp orn
Rem oved
Ġ× Ķ
Ġpre lim
q t
get All
Ġcolon ial
get Node
Ġindex es
ĠR achel
ĠModel s
Ġvar ied
Ġcollect ing
Ġreg isters
andid ates
ag ic
Ġbit map
Ġposs ibilities
c les
ĠS ure
Ġg host
vel ocity
ãĢ ģ
ĠM ans
ĠL uther
ĠK ill
reg istration
Ġo mitted
Ġnew er
Ġaccompany ing
× ©
Ġs ake
Ġdistingu ished
dr ive
Adv anced
sp ort
inc or
mat ched
00 7
Ġafter wards
ĠGit Hub
ĠC lay
Ġdep icted
Ġmar ry
ãģĹ ãģ
ĠW ire
P TR
ĠA DC
Ġinvest ments
Text Box
w char
ĠH orn
ĠEx perience
ĠH R
Ġ' --
> @
kn ow
ĠB ear
Ġmem o
Ġfilter ing
Ġe y
Ġde emed
Ġcorre ctions
ĠH em
Ġsec rets
Ð° ÑĢ
Ġdro ps
Ġp kg
ĠPar ser
Ð Ĵ
akespe are
Ġpremi ere
re vision
Ġtw in
ĠNaz i
Buffer ed
ĠSp ark
land o
her its
sub menu
Ġimplement ations
Ġconv icted
Ġcheck point
Ġmand atory
ĠInf antry
g ms
M ilitary
ĠT ell
ĠWar ner
ĠBar celona
B inder
ĠL en
I CT
P rec
/ ************************************************************************
Ġsmart phone
ĠBill board
Th ird
i ative
l ucene
ari ans
B UT
: ",
re z
Ġan ime
p v
ĠE le
Ġsus pected
Ġp ause
22 4
Ġsp ac
ĠAl fred
ch ip
ĠSol utions
Ġpre dec
Ġ{} ",
ĠNe il
Ġpre vention
ĠFreder ick
G LAPI
ac cur
Ġaccept ance
Ġme al
Ġaccount ing
Ġchem istry
Ġv a
ĠAPI s
Track ing
e asy
ĠY u
As k
raw ler
war f
Ġv in
rott le
19 07
Trans late
] $,
(" _
Op acity
scal ar
× Ĳ
ST ER
Ġhon our
Ġtrib ute
ĠG arc
Ġfight er
Ġco aching
s yn
Ġd ancing
Ġcos m
Ġin duct
Ġres ume
v ik
ĠD raft
default Value
ĠBang ladesh
Ġund ers
Ġin ference
âĢĿ )
olog ically
ĠInt el
Ġinvent ory
ĠK le
ĠYO U
raw l
tele phony
Ġm ysql
dev ices
ĠCond ition
Ġstr ain
cel and
MO VE
Ġ{? }
in ja
pr ises
idd ing
Ag greg
Ġcons olid
ham mad
Ġvirt ually
comm unity
ĠT ouch
"> =</
Ġsub t
Key Value
ĠRe ader
IN TEGER
ĠPol l
> ]
ro ject
Ġem otions
Pl ugins
In crement
ĠCom b
jav adoc
ĠBatt alion
ĠP ER
è §
Ġw av
Ġdis orders
flu ence
Ġexec ut
tim ing
d ings
Ġestablish ing
Ġ ug
ul ent
Rep lication
ĠV ec
j p
ĠE DT
cr im
ten ant
ĠKar l
Ġim posed
Ġcool ing
Olymp ic
ĠC u
Ġrest oration
ĠDi amond
ĠUn supported
\ ;
ĠC ounter
à¥ ĩ
Ġ ib
ew ise
Ġs ou
ĠWat son
Cla im
as ia
Ġ@ {
fig ures
ie u
Pack ages
b ay
th ick
Ġn umpy
;\ ;
Ġnom ine
st reet
Icon Success
18 80
Ġcloud s
Ġspons ored
Ġdraw s
dom inant
Ġconj ug
ĠL ions
At omic
Ġc atal
Ġcons iders
[ ^
script size
r ust
Ġbro ker
Ġpl ots
off icial
ĠF ocus
et on
ĠN HL
Ġsh ader
A IL
Ġnot ing
enc oder
or ian
ĠL it
EX TERN
fef efe
H a
ick ets
ĠPo inter
="# !"
Ġcount ies
ĠB ra
Ġtable t
Ġmatch er
FUN C
ĠHung ary
key board
um i
ĠSh ang
Ġview er
Ġselect ing
ach i
ĠĠĠĠĠĠĠĠĠĠĠĠĠĠĠĠĠĠĠĠĠĠĠĠĠĠĠĠĠĠĠĠ ĠĠĠĠĠĠĠĠĠĠĠĠĠĠĠĠĠĠĠĠĠĠĠĠĠĠĠ
register ed
Ġ" __
Å ¿
out line
LO T
Ġabs ent
upload s
ĠUkr ainian
ind ependent
S leep
Inter faces
Ġexpl ored
YY YY
f ork
Ġ ------------------------------------------------
B attle
il iation
Ġge ometric
ess a
Ġbul let
sen al
ĠNorm an
View port
ĠWe ather
ĠDr ama
long rightarrow
Ġodd s
C Y
Î ¯
Ġbott le
ĠS PE
oll ar
Ġul tr
J ew
is ible
Ġle ak
M ary
ĠC ris
AR GS
LAB EL
ar us
d frac
Ġro ster
I AN
s af
en es
/* .
TH ON
Ġx hr
Ġf printf
v d
Ġweight ed
am o
Ġmem orial
, (
roll ment
M Y
M EN
P ur
ĠTest ing
ĠEl li
int age
Ġtrust ed
Ġsl ots
Ġr ape
US B
n f
ast ery
Ġorig ins
ĠM UST
Ġ' ;
Ġsh ifts
ĠF er
target s
Â Ń
R X
mod ern
Ġac ute
mock ito
ĠC urt
ĠR C
* (
Ġm u
Ġgr ave
dep loyment
Ġrecommend ation
K ER
x d
un i
ĠAb u
O LE
Des criptors
ĠComm ander
Ġreport ers
ĠTransport ation
is ch
da o
M acro
P referred
ĠS ale
Ġr ay
CALL TYPE
Comm unity
ĠMet adata
D ump
J ac
}$ }
Enc ryption
row ing
bar rass
Ġcorrespond ence
ĠAl ways
au kee
Ġcomple ting
ambig uation
ĠJ ama
urs ion
More over
Ġn erv
W as
le ad
Ġle ase
Ġpregn ant
w ear
Ġl n
Ġout lined
Ġlov ely
ow l
Ġpl ug
x a
ĠS uite
val s
Ġtoler ance
Ġe u
Ġpers u
migr ate
x hr
ED IT
Ġh ab
epend ence
Cl ub
com puter
be am
dec imal
Ġf lip
Ġw avelength
U uid
ĠLIMIT ED
Ġpick s
ĠFac ulty
ĠB ug
Ġback ward
19 01
Ġconcentr ations
g age
ĠðŁ ĳ
Ġpoll ution
ĠSer ge
Î ³
erm ont
Ġimport s
Ġassoci ations
Ġspecial ist
Ġhum or
Ġ ic
Ġwarm ing
æĪ Ĳ
n ut
S ep
Ġra ises
ĠInitial izes
sp rite
ĠU g
O bservable
d ac
CON TEXT
Ġtr ap
AT O
Ġmat hematical
v r
eg ree
if th
Ind ia
ĠUp dates
Ġdepart ments
ĠT u
Ġarr ives
D U
Ġadv is
ĠWel sh
Fat alf
S py
ra pe
Ġin vari
Ðµ Ðº
IDENT IFIER
ĠN athan
ĠEx pect
ĠV ision
rele ases
Ġimpr ison
ĠH udson
Ġpl acing
Ġsuccess or
fol k
Ġb ab
Ġph osph
moz illa
ĠK i
ose x
Ġinvestig ations
H en
ĠW idget
Ġmark ers
ĠQu arter
il ateral
clean up
Ġres idual
ĠConst ants
Tr ust
PO M
Ġsimp licity
Ã³ w
Ġm amm
og onal
Call s
ng th
Ġcor por
âĢ¦ âĢ¦
Ġident ifies
Ġw ars
ĠPar ish
Ġt ends
Ġres igned
H ASH
Ġphot on
Ġswitch ing
c rypt
Ġoccas ions
Ġcol leges
Http Servlet
Ġqu ota
Ġappro ached
Ġoptim ized
e enth
gle w
not ated
ĠG B
Ġdemonstr ates
ĠTre k
ol ia
DEF INE
Ġal lies
ĠEx tract
ĠG em
Ġcompan ion
ĠS oph
Ġcal m
Ġann oy
ĠBro ther
Hash Set
Second ary
ĠT uple
ĠA CTION
Ġequival ence
her ence
Ġjudg ment
Ġ? ?
Ġsav ings
Ġingred ients
< '
IT NESS
Repe at
d ie
ra ising
Str ict
Ġ' *
ble ms
Quant ity
Ġnow rap
Ġterror ist
IconSuccess Encoded
PHP Excel
ĠM R
Ġad option
F s
Ġs ep
ant om
Ġwe igh
Ġqu ark
ĠT on
38 8
l ift
j vm
Config s
Ġspecial ized
Ġre loc
claim ed
/ ,
6 55
T s
ĠAm endment
Ġe ager
Ġch ron
Ġ[ âĢ¦]
in istic
Ġobject ives
ĠSpec ifies
ec ko
und ant
Ġvalid ity
Int egration
Ġexha ust
ĠS L
Ġachiev ement
ĠB SD
Ġpol ling
Sc anner
SPH INX
ack er
Ġk nee
Ġpre st
ĠTr uth
ĠForm er
Ġsimilar ity
Ap ache
Ġst er
Ġent ers
Access ibility
Ġsepar ator
B uffers
ed ges
Ġanaly tics
è¡ ¨
Address es
OPT ION
ud dy
Ġcour tesy
ĠSh ip
h ou
Ġextr action
Ġb alls
in ely
ĠS election
Ġlic enses
Dan iel
Ġdef ending
C OR
H ierarchy
Tr ansp
er ase
x t
Ġ iv
Ġw elfare
Ġs its
test case
ĠClin ical
ĠRetriev ed
Ġtraject ory
Ġw is
Ġsh oes
ĠVol unte
^* \
15 3
ĠInter est
Ġdiscuss ing
Ġfast est
Â Ĵ
H ey
ĠC IA
ĠEd wards
og an
ob a
Ġel abor
ern ess
Ġexp enses
account s
St roke
Ġun a
w right
ĠG uest
Y eah
id ity
Ġen force
duc ible
Ġm ere
Ġsearch Box
ĠS urg
Ġper ceived
Å Ľ
(" {
anag ing
por ated
ĠK er
rodu ced
zer bai
L ER
Ġb ay
ĠShe ll
Ġfriend ship
Ġtempor arily
Ġlegend ary
Ġl ig
String Utils
E nergy
DE SC
ers h
AD ER
Ġcomment ary
Ġaccompl ished
un wrap
ĠSt evens
Ġmag azines
ĠL ED
rom agnetic
n ear
æ ģ
Ġep id
ĠCub a
} ',
Ġpop up
FORE ACH
m and
ind a
U IT
um bo
pol it
Ġtrad itions
Foreign Key
ĠW alt
ĠAUT H
Ġf illing
el if
du ctions
ĠAd ult
Ġless on
Ġautom ated
Ġd in
Ġprov es
ĠID s
Ġland ed
Un supported
callback s
ĠPet e
e con
Ġstay ing
LA ST
tr ip
term inal
Ġcompl aints
Ġchar ter
Ġf ingers
Ġdirect ories
ĠQ uality
Ġportr ait
Ġc am
ĠL am
Ġc ave
ĠB eyond
so ap
phant om
ĠL ate
Def initions
Instance State
Ġcoll apsed
st own
ull ivan
status Code
Ġphotograph er
Ġc ig
Ġbug s
Ġbacter ia
d ll
ron es
ĠMe chan
D u
38 4
Term s
20 6
ĠK ur
}) (
Ġ$ ,
Ġste ep
ym an
å ¸
pect ives
ick ed
In ventory
Ġres c
Part icle
St udio
Ġn u
im ity
Ġar ise
Ġf iscal
ext ended
alt ies
dig it
arg c
F riend
ĠM ob
**************** ********
des ktop
big r
ì Ŀ
ĠT odd
Bal ancer
prom pt
ĠB erg
FI X
Ġinstrument al
aur ant
ex change
ĠCo ach
Ġclip board
Ġsubstantial ly
Ġrev ised
Ġim pressed
Par allel
Ġemp ower
Ġr itual
ĠEx port
Ġdiv ide
ĠĠĠĠĠĠĠ Ċ
Ġoverse as
ĠL ith
Ġrem arks
Ġfollow ers
n th
Ġadvant ages
d an
Account s
Ġcontext s
h b
ĠImp act
act ivation
Ġinv ocation
Ġt ent
Fre quency
ĠPlan et
Ġp ink
ra is
h n
Ġtr ait
sh im
ital ic
Ġiter ate
Ġin cl
Ġwith d
æĸ °
ĠG ive
w aukee
ĠW A
ep per
m ol
ĠK in
fl are
ens en
Event Type
Ġb b
Ġqu asi
ĠVi enna
un ger
Ġtranslate X
eres a
ĠSh aw
ĠAl pha
C ES
om o
DO C
Ġsynt hesis
"> [
St ock
Ġw ings
aut om
ide a
ĠChristian ity
ĠWik ipedia
ĠR M
ĠLear n
ĠLine ar
Ġconvers ations
ĠG lass
ĠÂ §
Ġp ig
QU ERY
ĠNichol as
ĠTre as
ĠV ict
Ġpr ayer
Ġfood s
ĠT ournament
ĠUn known
d evelopment
l ater
im ited
Ġstri kes
t ou
" };
ĠHigh er
Ġembod iments
B ibliography
az i
Dig ital
Exception s
Ġenorm ous
ĠR angers
l azy
eng u
ĠCr iminal
qual ified
ĠRich mond
Ġ* );
prov ided
ĠSong s
Ġh anging
ast ian
apeut ic
S ING
Inter pol
Ad apt
wr apped
Ġtrans mitted
ĠY ellow
filter ed
Ġvalid ator
Field Value
Americ a
hol m
ĠTr ain
Y M
Ġin set
ave led
ĠPh ysical
re start
com pressed
hen g
dis miss
ĠM ade
el rte
P ag
seud o
Ġcontr ary
h c
ĠC ov
ĠX box
aged y
r ab
Ġ' :
H W
Con trib
17 6
IP S
Display Name
Non User
Ġsent ences
BUILD DIR
ebr aska
gebr as
ĠL if
Ġj oke
EN UM
Symbol s
F ort
ĠAn alytics
Ġabsor ption
ond e
pent aho
it ud
Ġexplos ion
p ine
ĠFIX ME
b ib
Ġmed ieval
s ing
ĠPUR POSE
ĠY e
ĠO PT
in ion
Ġaccompl ish
ĠD anny
ĠGr an
hom epage
und a
{ |
se ver
sc apes
ĠNav igation
ĠHol land
æ Ģ
Ins pector
ist ency
ĠR ivers
Ġgr ain
Ġmin istry
valid ators
Ġback wards
L int
r hs
ele t
bl ur
Ġlo ops
}) }
ĠS occer
un checked
Ġindu ction
ĠV A
ĠUn ity
multi row
d irty
Value Type
ĠQue ue
Ġed itors
ĠFl ore
Ġh iding
18 2
G LOBAL
Ð ŀ
Object Meta
30 8
Ġforg otten
MAG ES
ĠVenezuel a
Ġre use
Ġart work
Inter action
big l
å ¹
ĠP le
Ġbl end
Ġpra ised
Ġbound ing
ĠMin i
Exp licit
ogen ic
CI AL
Ġt ours
19 03
Ġcert ified
im on
ĠSc i
os c
Set ter
Ġc ele
Ġup set
assert Same
Ġip ut
ro bot
Pl ain
J ose
ĠC amera
inter est
Ġtreat ments
Propag ation
ĠO bserv
Tem plates
W hether
Ġdismiss ed
RA W
Ġgovern ed
Ġj unction
Ġd ans
m und
ĠAn im
Ġacc laim
om eters
repe ated
Ġl as
Ġmon ster
F K
omb re
× ŀ
Ġenc rypt
Dr ive
ĠOpen SSL
author ization
ĠB eth
Ag gregation
ĠT ags
RE SOURCE
O G
ip v
Ġmedal ists
ĠE S
Ġint elligent
transl ated
$ _{
40 3
AD C
Ġrecip ients
istic ated
ĠPass word
x FF
ĠMed iterranean
RO WS
H ence
ot yp
EM ENT
j k
Ġf ulf
Tele vision
n ick
int egr
RE SP
15 8
ĠDo ctrine
ãģ «
Ġsust ained
up iter
U tf
Ind ent
Ġdest ruct
WAR D
ĠB ath
ĠEm ily
pred icate
Ġrefuge es
Ġin clusive
ĠH alf
CL K
Ġacknow ledge
ĠSQL Exception
è¡ Į
key frames
Ġside bar
Ġsplit ting
A ware
ish ops
ĠB urg
as per
ĠP ain
Ġaff air
Ġbur den
u u
Ġdo zens
ĠGr am
ĠPro test
Ġob sc
====== =
con straints
Ġac res
B roadcast
Char les
ĠLog in
tem perature
15 6
spec s
Ġcontrib utors
ad ic
Ġsim ulated
orne ys
> }
ĠU V
olec ular
k ers
Ġefficient ly
Ġs isters
om bo
p us
s ens
ĠLINE AR
serv ers
I ss
/ </
ac ies
ĠPract ice
(" ",
d ead
(" ");
S eed
CH ANT
Sp acing
ah an
,\ \
Ġget ter
Ġcur ious
IB LE
V tbl
ĠTr ace
Ġre ceptor
so ftware
Ġpick ing
Ġpure ly
ĠBat man
Ġvar char
Ġg lobe
Ġneut ron
2 16
Ġe ighth
Ġaffect ing
. #
Act ual
ĠCom mercial
Ġb link
ĠB asketball
ĠH ousing
Ġview port
fe ctions
Ġgent le
ĠL ists
ĠL arge
c ritical
Ġy ard
Ġl iver
IAL IZ
Ġelim inated
M ur
el o
Ġact ivate
ĠS ame
min i
Debugger NonUser
ĠR ugby
S olution
Ġbel t
ĠAd vert
t oday
Ġair line
Ġabund ance
G U
Ġconnect s
Ġsort s
M oney
ĠC ad
Ġch icken
ĠEx cell
Property Changed
Ġbo ats
c ards
Ġplan es
Ġdist inction
Ġdecre ases
f illed
Ġexp ense
ounc ill
ĠH tml
he nd
Ġdr ain
ah u
Ġhot els
Ġabort ion
Ġthick ness
ex clusion
Pol ygon
Ð» Ñı
R D
ĠB ass
sp here
ĠEgypt ian
Ġcor ners
Ġmer c
ĠB ootstrap
ĠV e
ĠV lad
g lib
ere k
Ġp as
ĠG A
S IG
Check Box
bootstrap cdn
ang led
F lex
Ġh ire
um m
ç ¤
Ġ* (
Ġproto buf
ãĢĤ </
Japan ese
ĠSo ft
cor ner
Ġconv olution
m igration
ex pects
ĠA str
Ø§ Ø±
ĠO m
Ġget Name
has Class
ierarch ical
ord ion
pro logue
Ġloc omot
Ġalter ed
CT L
Ġcomple tes
ĠDis able
Ġdis contin
ĠCH AR
15 4
Ġl un
ir q
Sem antic
Ġd ining
Ġdesign ers
Ġmag ical
ĠSum mit
exec utor
D ue
ĠV I
æķ° æį®
Ġfluct uations
an ese
li pped
io let
ĠMar io
D ocker
r ases
18 5
Ġlic ence
) }_
Ġc f
ĠNov a
ĠWood s
ON ENT
Ġyour s
ĠB orn
Ġr amp
ĠCom edy
Ġlo ans
æİ ¥
err no
md c
Ġremember ed
Ġw ishes
ĠAgr iculture
Ġcook ing
c yc
OPT IONS
ĠSc ene
SV G
k el
ĠD ennis
ĠComp are
Ġl d
Ġ" ../
IM ARY
Ġsw ift
Ġphys ician
Ġisol ate
ĠE ither
im eter
Ġform ulation
ĠGener ation
ĠOak land
writ ers
ĠĠĠĠĠĠĠĠĠĠĠĠĠĠĠĠĠĠĠĠĠĠĠĠĠĠĠĠĠĠĠĠ ĠĠĠĠĠĠĠĠĠĠĠĠĠĠĠĠĠ
umb ai
Ġdist ant
Rest ore
claim er
ach ers
sc opy
ĠN ancy
cal culate
Ġneg lig
Ġconnect ivity
V ED
Ġ" #{
ĠG ene
Ġad mission
Ġ"/ "
Ġmechan ics
Ġsub stitute
EN ER
Ġs word
ul as
ong ue
Ġap olog
Ġtrav ers
Ð Ŀ
ak ef
Ġre build
c ott
ic ast
ing o
Ġtour ist
A H
19 02
ĠSh ar
Ġlegisl ative
Middle ware
h ours
ĠMon o
ĠBrig ade
ĠSoc orro
ĠS PI
null ptr
model Version
15 9
Ġb uses
Le af
Ġm utable
Not able
Ð°Ð ²
b rit
J oint
Gre ater
With in
Ġglyph icon
l v
Ġc riterion
Inter ceptor
Ġ` $
Ġinvestig ating
(" ./
Ġconsum e
à ®
Ġm im
Ġb ol
Ġrep lication
Sw ap
ĠE mb
8 75
w al
ĠS aints
Ġun ity
ĠRel ation
:: __
fil m
ĠJ ar
ab ove
Ġsub tle
open ed
Foot ball
h ive
ĠTh an
Prov iders
S equ
Ġpull ing
To Array
ĠAdvent ure
Ġh orn
ĠAn imal
n ets
sh ine
Ġsuggest ion
ycl ing
m essaging
Ġmist akes
ĠPier re
Ġ ub
ĠEm ma
oc co
Ġtri ps
Ġecon omics
Ġoccur ring
ĠNot ification
Enumer ator
res pect
Ġaddress ing
IST S
Ã ī
d z
is b
ft p
Ġpr ide
mar ine
WA IT
Express ions
li ant
ĠAl ong
Ġvol unt
S yn
âĢ¦ âĢĿ
Ġmem brane
Ġproport ional
Ġare na
W O
R ele
Ġinn ocent
un ts
ĠW es
Ġsom ebody
sp rint
dec oder
ĠFil ms
or ic
In vest
ĠPlay ers
ult an
Pro b
il o
Ġl ane
Ġact ed
Ġmurder ed
ĠI van
ĠProp Types
m ons
P AT
ĠCh and
Ġcur vature
estab lished
Ġg rap
ĠG onz
am as
ĠS ources
ĠT CP
asm ine
ke es
Sup pose
ĠMont ana
atern al
åĬ ł
)) ]
d g
bound ed
photon ui
h azelcast
Out come
R anges
Ġso ap
min ster
pat ient
Ġbond s
ĠCl are
Aud it
S el
hill dev
orange hilldev
N ick
Des ktop
lear n
>. <
P ORTED
cal cul
Ġdr illing
Ġdis connect
Ġeditor ial
ĠContem porary
s omething
ud ed
}_{ -
ĠA round
ĠR S
Ġcomp ressed
AR M
M aker
Ġcomm em
ĠT es
files ystem
ĠColomb ia
prof iler
] /
Ġgener ators
Ġlink ing
Ġrac ist
ĠLie utenant
Ġam et
Is Valid
VER TEX
ĠBuff alo
Ġt ired
yl an
k al
Ġs hed
Ġfro zen
ĠRoman ia
ä½ ¿
stat istics
1 200
Ġs ne
Ġhead line
Ġintern ally
Ġagre es
er ia
Property Name
lig a
er ver
ĠE ld
B IG
rele ased
Ġgenu ine
B rows
lo ys
man age
Ġloc ate
ĠPr adesh
Ġpl ates
Ġadv ised
Ġserial izer
Ġimportant ly
2 33
}) ^
Ġpresent ing
Ġsear ches
he at
Ġconsum ed
D ummy
ĠT amil
Ġst om
Se ason
W arn
Co ordinate
Ġmut ation
F ive
^{ (\
v oice
" <
P s
Ġhar vest
ĠAlbert a
Ġadm its
}) =
Ġflex ibility
V L
SR C
id y
Ġrel ate
enc rypted
c in
Ġr ings
Ġmet aph
irt k
ĠBr istol
level s
//////////////////////////////////////////////////////////////// ////////
ch oose
Ġrele asing
.... ..
Ġtox ic
64 0
aj a
atern ion
Ġ' ../../
Ġcamp s
Ġattack ing
Index es
il ia
emp loyment
C atch
un set
H aving
Ġc pu
rec ation
ĠF ashion
Ġbad ly
ĠCh oice
Ġparticip ant
w at
d ictionary
IC ULAR
Ġprelim inary
que e
an imated
Ġ[ (
Ġexp ose
Ġexec uting
, &
oped ia
ĠCons ervation
ĠĠĠĠĠĠĠĠĠĠĠĠĠĠĠĠ ĠĠĠĠĠĠĠĠĊ
ort on
Con str
Bind ings
b ishop
ut ility
Ġsur veillance
may be
¼ </
Ġ( __
bro ok
TE MPLATE
Ġemploy er
w ml
Ġscal ed
ish a
track er
Ġwh itespace
ĠLa unch
ĠScient ific
ĠR idge
Ġsal ary
ĠChel sea
ic ion
ĠG uild
ĠTrans fer
em o
ĠChe f
åı ¯
ch air
Ġ' &
alloc ator
Fl at
ĠRail road
l ane
æģ ¯
Ġcontinuous ly
ĠD b
s ynt
ĠYork shire
bour g
ĠðŁĳ ¼</
Ġis omorphism
16 7
Ġhe aling
Ġsh aped
ĠPh ase
M otion
Ġtop ological
Bl ank
Ġjuris diction
ĠE ug
Ġassert NotNull
Ġbro ader
ap prop
Ġbal anced
Sp ot
Up grade
Ġe arnings
åĲ į
ĠC amb
ĠO B
Ġball ot
Ġdon ated
Ġcour age
ĠS old
Ġem barrass
Ġdipl om
u o
St ory
ra ises
ĠL ar
c aster
as io
E U
Ġm eter
Ġsh rink
Ġun s
aver age
M ime
get Resource
insert ion
F ly
Ġp ocket
Ġt m
el ia
ĠB atch
ann ers
unit test
Ġd ressed
Ã Ł
Ġcru ise
Pr inter
Ġan xiety
ĠFr ances
ĠB udget
H over
Ġdemocr atic
get Item
Mon o
Ġexceed s
Ġimp ly
eq z
ĠFa ith
r ise
Ġaccept ing
ĠST ATE
c lo
Ġworld s
draw er
ĠTy ler
L ayers
ĠCh a
rele vant
st ad
Sec ure
ĠIss ues
R TC
s olution
em ia
com fort
eg ral
l is
ĠB omb
] {\
ĠTig ers
45 6
@ ",
O O
Ġre load
sim ilar
Ġspeed s
Ag ain
ĠRog ers
Christ ian
M ARK
j er
Con cept
18 7
ĠS uz
P ager
ĠAust rian
Ð ¶
Ġche ese
Level s
Dig est
ĠSche dule
p it
he w
ĠC av
Ġcompet itors
dis ambiguation
Ġqual ify
Ġden om
................ ................
Ġaccur ately
spec ies
ĠDer by
k ern
Ġcomp elling
Reg Exp
áĥ ĺ
ĠS cale
column width
ocr atic
Ġrat ios
Lear n
UD IO
Ġun icode
ĉĉĉ Ġ
60 1
Ġs urname
Ġst mt
Ġam big
ĠBr ain
26 3
are l
vert ices
Ġdel ivers
ĠM aking
Ġr ush
AV A
Ġquarter back
Ġburn ed
g ue
Ġcous in
rib utions
G od
ĠH P
Ġguitar ist
ĉĉĉ čĊ
f name
A st
G D
Ġe gg
ĠSand ers
ĠG len
Ġcop per
th lete
ĠCamp us
Ġsurre nder
CHANT ABILITY
Ġartifact s
Ġas ynchronous
Ġend points
Ġscholar ship
y t
S on
h ydro
Ġqual ifying
Å Ħ
Ġadequ ate
Version UID
ĠStr ong
Ġdro pping
Ġu k
ĠPy Object
R x
ĠLib erty
Ġelev ation
ĠBob by
Ġattend ance
f req
}\ |
play ing
17 2
l hs
pe st
Ġob l
ĠMu eller
ĠHar vey
l ag
ĠInvest ment
Mean while
Ġsc ar
CUR RENT
ov an
Ġoverwhel ming
A sc
C XX
Ġout break
Ġline up
PI X
ĠSub ject
Ġc ant
ps y
K ills
Ġfiction al
ĠS plit
ĠPro b
Ġo prot
ĠSh akespeare
Gr ant
ĠOrth odox
Port s
ĠVictor ian
CHAN NEL
T ASK
ST M
xx x
Ġb ip
ĠCl one
m or
ĠPack ages
ut a
ov ic
Ext ent
å ī
ãĤ ¯
Ġposter ior
æ µ
Ġb er
pass ed
Ġtransform ations
Ġcon clusions
ĠW ant
ĠRev ision
connection s
Ġgravit ational
Ġ$ ('
up pet
Get s
di ag
Ġs ke
ici ary
ä¸ ĭ
equ ations
conn ector
ĠN om
cer pt
illa ume
ĠF an
Ġbehavi ors
} ],
ĉĉĉĉĉĉĉĉ ĉĉĉĉĉ
D uplicate
Q T
PRE C
ĠAssoci ated
em e
J MS
ĠSup pose
Austral ia
y led
(' _
Ġcomp ass
Ġox id
Ġc oding
Ġbatt les
Ġend orse
Ġb s
H o
ĠV ik
Ġre dis
ĠS ustain
Ġconn ector
E AR
Iter able
ĠK os
Ġl od
Tr acing
Ġover head
g ot
n ational
ĠUS D
ĠHar per
Ġsett le
m ile
{ }{
ĠĠĠĠĠĠĠĠ ĠĊ
ĠC inema
pro per
Ġdemand ing
comple ted
Ġrel ay
Ġv ic
20 7
Ġsent enced
Ġprop ri
s ink
Ġper f
p es
Ġassess ed
Ġc ognitive
un til
Ġpoly mer
ĠFish er
= ${
sup erv
Ġh oped
ĠS weet
ĠL oop
mar shall
ĠF at
ĠOver all
Ļ Ĥ
ĠCON TRACT
Ġconscious ness
V K
âĢ ²
ĠE sp
ĠTh under
Pl ane
v id
AL IGN
t u
M ATCH
ĠR an
l ishes
ĠF leet
ĠOff set
Ġab ol
ux er
FA CT
U ART
Ġres ist
ĠRep ly
G reg
Ġsk i
ĠJul ian
agr ang
d ip
Ġcon spiracy
ĠMu hammad
CLA RE
Ġcab inet
ĠCr icket
Ġres erves
Ġarchitect ural
ĠPRO VID
Ġev ac
Ġlimit ing
Ġex iting
Ġintrodu ces
ĠÐ¿ ÑĢ
he ta
Ġi Pad
Ch annels
doc utils
Ø§ ÛĮ
r ag
`` .
Ġcell ular
ĠInt egr
Ġre lies
åħ ¥
B ootstrap
Ġsl ides
: ]
w l
lic h
Con serv
Ġstock s
Ġde ce
B ench
k v
) ")
N Unit
ĠSp ider
Ġdead ly
ĠS und
ĠMax imum
K B
Ġrol led
ĠR out
ĠBy tes
Ġthe at
Ġcre atures
ĠMan ufact
Ġrad ar
ĠT ol
Ġt il
ĠIllegal StateException
Ġ rib
ĠY am
ĠCommun ist
STO RE
20 9
Ġcontrib utor
ĠU C
acc um
, %
; ",
ĠÃ ī
P IN
ok a
E A
Ġpe aks
D Y
is Function
Decl ared
Feed back
Ġelev ated
ASC II
Th ose
Command Line
amb ling
hard ware
g id
(' -
Ġemp irical
h m
at ra
ab ort
ĠM illion
uck land
Ġins pection
qu ent
ĠArt ists
16 2
Ġ' __
Ġs vg
ĠS leep
ens on
Ġs nap
Ġrec ursive
Ġtest imony
... ,
} ~
Ġstd out
Ġasympt otic
G al
am ation
Ġke en
ĠE ye
Ġ? ></
pack ed
Ġencour aging
ĠF ixture
åĪ °
ĉĉ ĠĠ
ĠP av
ĠFor ward
WE B
Ġlegit imate
Ġto ll
ĠS ox
ĠProv ider
Bound ing
Ġ[ _
ĠS ai
ĠC ox
inter pol
yl um
Ġwealth y
ĠS ter
Ġmin imize
C andidate
Ġsh ield
ĠAs k
ĠC AN
est imate
Ġhom eless
\ |\
re ction
ass ignment
h ort
Cond itional
ific ant
ĠURL s
m ixed
Ġv ig
j om
ĠC off
Ġfest ivals
ĠB our
Ġtr aveled
set State
ing roup
Ġb ail
ator ial
ĠSo on
gr at
ĠBu ilt
Res erved
BUT TON
P B
a head
Ġthere of
Ġtyp ed
V ir
od ium
str cmp
Sc oped
Ġfre ed
able View
Cre ative
ĠT LS
ĠL ov
as ive
ÃŃ n
="@ {
be it
Ġexpl aining
op eng
Ġhost name
Foot er
ĠCons erv
ancell or
Ġdiff usion
libr aries
F OS
S ong
h istor
l st
Ġ{ $\
Ġcan nab
Ġu id
St ill
ĠEmer gency
Ġmer chant
ĠSTDMETHOD CALLTYPE
ĠJ ake
print s
ĠR FC
ca ff
Can ada
M i
Con current
16 4
Pointer Exception
MEM ORY
Ġun clear
Ġillustr ate
c ould
Ġst ochastic
Ġmer ch
Ġreson ance
Ġind igenous
17 8
Ġadvoc ate
Ð½ Ð°
M il
Ġt i
Ġt ears
Ġc ord
Ġd uplic
Ġgr ateful
U ng
cont rollers
amp ire
Ġround ed
Ġe uro
ll vm
sc ience
][ <
ĠAm sterdam
ĠProgram s
id le
Ġch apters
Ġl ingu
Ġst reak
Ġfinal s
subNav List
6 50
text color
new Builder
not ag
icip ants
00 4
Ġph p
ĠF ailed
ai ro
form ula
Ġli ability
role um
C ook
final s
Min or
Ġweak ness
Ġnerv ous
ĠS ed
ĠI celand
ĠNash ville
be zier
ĠEth iop
16 1
Ġpregn ancy
r st
pro files
Ġst ret
Ġmap per
con struction
ĠAnt ar
? '
S ynchron
lic al
R NA
Ġ[ `
Ġuniform ly
lo ve
it he
Ġb icy
Fr iday
Ġunn ecessary
ENT IAL
3 80
D N
E con
Ġl on
r in
Å Ļ
Ġp ension
Ill uminate
Ġc inem
Ñ į
Ġenjoy ing
ĠC atherine
Element Type
inst alled
\ }$,
ĠArab ic
Sports people
; "><
ĠC ord
cess ion
iev es
Ġn b
/ -
ĠV R
ĠM ask
Ġ" @
ag ain
>& #
h all
s ensor
è ¾
ĠG PU
Ġ/ ^
read s
is ot
m otion
Ġt anks
b ur
agon ist
}} ^{\
} |\
ĠGener ator
ĠCat hedral
ad en
Ġw ore
J eff
Ġw age
F ULL
Ġwhe els
ĠJob s
C ycle
E F
Ġthe ad
Ġfil med
ĠB achelor
24 5
Ġacc eleration
Ġdi abetes
ĠW rest
Bit coin
Ġmon ument
G I
at um
Ġspect acular
Ġ" &
Ġal liance
Ġd ock
ĠM AC
UR ATION
BO X
f link
Ġl p
ĠO pp
ĠC ant
ĠJ et
G RE
ĠRe ed
Ġisol ation
Ù ĥ
ĠÂ ±
ĠSher iff
ĠS or
Tra it
Ġacknowled ged
T unes
f u
Ġl apt
r p
Ġsw ing
Cor rect
ĠAssoci ate
23 5
ethe less
Ġprov incial
Ġorgan ised
Ġt a
ĠE agles
Unmar shaller
b ag
ĠC incinnati
dat as
min o
23 4
foot notes
Ġful fill
us a
ĠP ool
Ġrob ots
T own
$ "
er ie
Ġchar s
ĠStan ford
Ġhere in
IST ER
ĠV O
Ġign or
18 98
Ġproceed ings
ĠColon el
i Name
Ġstruct ured
ĠĠĠĠĠĠĠĠĠĠĠĠĠĠĠĠĠĠĠĠĠĠĠĠĠĠĠĠĠĠĠĠ ĠĠĠĠĠĠĠĠĠĠĠĠĠĠĠĠĠĠ
ĠM M
sl ides
Ġcon e
pre ced
Ġnew Value
ĠPr im
Ġprogram mes
ĠO bs
Rec omm
Ġterr itories
Ġtri be
Ġcritic ized
Err s
Ġpe oples
mark down
mention ed
: .
? !
Ġass ists
ru id
Ġtensor flow
ĠIn side
Ġshort cut
p ager
Ġl ymph
æ³ ķ
æĸ ¹
ĠClar ke
Ġr t
Ġachiev ing
ĠRey n
18 99
Ġpat ri
ĠNY C
Ġint ens
Ġk o
And rew
ĠGu inea
ĠNever theless
Ġg reet
File d
HE LP
Dev ices
T our
r ac
ĠL ud
Tree Node
Ġwond ering
Full Name
re pos
i ota
Ġo h
ĠSom ething
DE C
comp at
ef an
ĠO VER
A mb
Ġp g
ĠMER CHANTABILITY
18 8
A vailability
contains Key
Ġsub scribe
ĠIn stit
ĠPro blem
Ġf ool
hes es
r ors
5 50
ij i
are house
AT FORM
Ġearth quake
Ġover lay
Ġocc urrence
ĠWell s
Extract or
ber y
Ġ( ,
ST YLE
od ic
Ġ` <
cept ors
G ap
K ar
al ic
FILE S
ĠPut in
at tempt
Occ urs
Ġaccommod ate
Ġret ro
Tim eline
Byte Buffer
al ib
Match ing
hav iors
17 7
18 70
ĠIMP LIED
'] :
script style
user content
\! \
. ">
F und
M irror
Ġab c
init With
ĠBo eing
v b
Ġterr ain
Tool Strip
Ġnetwork ing
Ġtour ists
t icket
Ġdecor ated
bo ys
uss els
ĠPhilli ps
Ġ\ ,\
ĠSal v
Ġm b
CA ST
Ġg ates
Data Set
Ġem br
SH ORT
serial izer
Ġin complete
ĠB S
Gr and
ĠJO IN
ĠR unn
ĠG overn
SC HE
Ġbad ge
ĠB ind
du al
AL LOC
Ġcont rollers
ĠPro xy
SE ARCH
Ġpract ition
ĠPART ICULAR
Ġsurvey s
ĠS equence
Ġsk etch
H alf
Ġelect oral
ĠText ure
Ġanticip ated
Ġbe ings
ener ation
ĠComp etition
Ġband width
ol oad
ĠI BM
duct or
ĠImmutable List
e ctions
Ġcollect or
G uest
ĠMar shal
Run nable
power ed
Q uality
Ġnorth west
h or
Start Time
Coll ision
K G
Ġ utf
Ġfl our
Ġbel oved
s ix
ĠMil an
}} =
Te chn
Single ton
Ġlaun ches
Ġpropag ation
ĠMe asure
ĠTib et
ĠL loyd
ĠFI FA
Ġfarm ing
ĠGr ade
Ġinternational ly
con cept
ĠAl t
F IRST
AS P
Ġh r
ĠAv iation
Ġhand ful
ĠAthlet ic
Ġread ily
ĠX XX
ĠS B
ht t
Ġb out
ĠOper ator
amb ers
ĠB oot
ĠWild life
T B
ĠF ill
qu in
Position s
Ġ& $
ĠDet ail
is olate
prot ect
ĠArch itect
Ġjournal ism
ars ers
Ġbr idges
B ulk
Ġswit ched
Ġre vel
ĠT D
ĠPark s
Ġcharg ing
Ġdeg rad
SECON DS
ĠIm prov
send coins
search Box
ĠLeg acy
ĠEvery one
proport ion
ark er
ĠCar bon
Ġnew est
Ġsh ar
ä» ¥
Ġsoph isticated
Ġf are
ĠHttp Response
C AR
Ġmot ivated
Ġintegr ate
imit ives
vis or
ĠNep al
Cont ainers
ĠLuc as
P rior
PRE V
Ġveter ans
OP TS
ĠWork ers
Ġb a
tr ust
Ġplay offs
Ġuser Id
iz ational
Con vention
T alk
r df
Ġn aming
ĠD od
Ġhe ating
f ixtures
Ġm arijuana
Vertex Attrib
Ġspokes man
d oxygen
Ð¾ Ñģ
ĠÂ «
Ġvar ies
IS ING
cre st
tikz picture
Ġindex ed
Ġf av
NS Mutable
Ġsh irt
Ġbar riers
Ġlaunch ing
UT ION
Ġexecut ives
Ġre write
ess ors
Ġmark up
Im ports
d ifferent
Ġpre vents
Ġchalleng ed
ĠCh i
IN F
J ar
end ant
Ġnews letter
ĠHel en
Ġaver aged
Camp aign
It alian
cell s
ĠE g
In fl
Ġconstitution al
ĠMus ical
H our
Ġprof its
C y
Ġclos es
Ġdol or
ç §
Ġconver ter
Ġqu i
Place holder
Ġsustain ability
ĠTh u
Dist rict
è® ¾
in tr
Ġcontin uation
Ġden y
Ġeigen values
ĠB aptist
Ġid le
ich i
uc r
F H
AME S
Ġb ishop
Ġsurv iving
¦ Ĥ
Ġclean ing
Ġclick ing
An onymous
ST OP
H ours
St eve
N L
null able
ab we
Ġcomp ly
ent i
ĠL ength
Ġco at
Ġintr ig
ol y
Ġjump ed
pre ttify
Ġcle ver
R ing
ĠS ax
S u
Ġ ist
-- ">
He art
Ġhelp ers
Ġrecon c
ĠG ate
Ġped est
Ġcol ours
il ers
im i
ĠR af
ĠFil ip
cl ide
Ġfre ely
Ġdynam ical
s ynopsis
stud ent
k afka
(' :
ĠS ocket
Ġelect rons
OB J
ammat ory
al an
ĠR ate
Ġsent iment
Ġhar sh
Polit ical
um ph
) --
EX EC
ĠÎ ±
ST AMP
ĠSym phony
8 000
A w
ĠR osen
ĠJeff erson
Ø Ń
am ic
Ġmk dir
ar ial
ĠC ancel
V B
ĠNS W
Ġexpl ores
4 20
Ġprof ound
i our
Web site
Ġspect ro
Ġobserv able
Ġfun eral
17 1
ling ton
Ġtrad ed
exec utions
S af
× ĳ
ĠF oster
Ġdon ations
Enc rypt
web site
Q uest
Ġwh is
iz a
Ġmaint ains
Ġattr action
ĠHung arian
b rowse
in ates
ia z
ĠS IGN
ĠPer u
Ġillustr ates
ĠR alph
ĠHe avy
213 07
eb ox
t lement
". /
stream s
N d
Ġrepro duce
Ġheart s
Ġpoor ly
Ġp ale
Start up
ĠA ncient
ĠX X
ĠSc ar
ĠPar ad
cred ited
Ġch ap
Ġpun ishment
Ġf el
Ġadv ances
Ġcred ited
P ot
Ġacc us
ĠPay ment
gom ery
Stream ing
Ġsw iper
strict Equal
Mov ie
ĠP sy
Ġon mouse
erc ise
Ġdes k
18 60
g ames
ĠW inn
Ġrecogn ised
Field Name
he size
Ġdef er
Ġexp ired
\ -
Ass ets
Ġemploy ers
18 95
ĠHand ler
ĠB ak
Ġcomp ens
illi an
). __
Object Type
W heel
Ġind ication
Ġform atter
ek yll
imp licit
o ons
Ġ' \\
Hand ling
Ġterm inated
You ng
p ix
ĠK aren
Web Kit
av g
ĠR OW
Ġprevent ing
Ġd up
Ġgr ammar
ĠCy ber
Ġl ac
ĠA RE
Ġch unks
net ty
List Item
ject ure
Pol ice
Ġwis dom
Ġs f
Ġviol ations
Ġh ills
Ġtre ating
oss ibly
Ġoffset s
Ġcivil ian
Ġdownload ed
Num bers
ĠH ob
Ġmod est
tr unc
imb abwe
M ic
Ġ ])
H op
Ġy eah
ĠPhil osophy
cont aining
Service Client
Ġt c
Ġfix es
ĠY emen
yl on
Ġpan ic
Ġor chestr
og o
ĠG URL
Http Client
r ated
ĠL uis
Ġdr ift
Ġmin isters
Ġmob ility
Q String
CharacterOffset Begin
consc ious
Th ough
Ġbi ology
CharacterOffset End
ĠRepresent ative
Ġs lip
" })
T reat
ä ¾
ĠLegisl ative
Ġmetab ol
IC ES
Ġmort ality
ĠMichel le
Ġdrink s
W ashington
Â £
Ġdiscuss es
19 1
Ġcount ed
Ġentert aining
C AN
is se
Ġsan ctions
m un
an che
28 8
Ġclass room
Rem ember
Ġvis bl
ad vant
Ġel astic
SE PAR
Ġnumber Of
Ġserial ization
ĠV T
macro def
ov ich
Ġposition ed
Ġins ult
Ġexem pl
ĠZh ang
J oe
av in
S ir
J et
tr ained
Ġsh ard
Ġvari eties
Ġ" ]
def s
ĠBu y
W C
ĠU ART
Ġconduct ing
ok i
Ġmin eral
ĠPr ison
process ed
skip Nav
b uck
ĠBes ides
V iol
m v
(' %
Cover age
m are
Ġs ew
Ġv tk
Ġp unch
LE X
ĠE agle
ĠB A
ĠF S
18 97
sw agger
ĠW u
ĠJess ica
ĠCom panies
Ġterm inate
Ð¾Ð ¹
rog ate
M ex
ĠB ool
Ġtable Name
hand ed
Ġtrem end
18 96
IV ATE
Ġbre ach
INTER FACE
Subscri ber
ĠC UR
Ġtrav elling
Ġpol ls
ĠColumb us
Ġcro ps
ĠFour th
jav ac
j peg
Ġc tor
I VER
ĠN HS
LAB LE
T abs
tag Name
Ġ= ========================================================================
ĠPalest ine
Ġn ons
u ition
Ġen velope
cloud flare
ĠS pons
ĠB ir
Date Format
;-> <
ĠLeon ard
Get ting
} ">
ĠC B
unknown Fields
DEFIN ED
3 40
ĠN J
s ensitive
Ġblock chain
ĠCONT ENT
Ġv iv
: !
Ġsubstr ate
agrang ian
ĠPod cast
ĠM Y
quis ite
ĠLink s
Ġs overe
Ġdim in
ON SE
Ġdyn asty
Del ivery
if a
ug oslav
ĠIn cre
66 6
Play ers
ĠO Auth
Ph ys
Ġarr iving
3 10
H old
Ø ®
ĠD aw
ĠC K
ĠSt d
18 9
Ġmiss ile
Ġph on
Ġd ear
Ġtr aces
ĠTrans lation
off ice
is abs
eg al
ps is
activ ated
oy alty
Ġadvert is
Ġ icons
Ġp d
unc an
Hist ogram
cur ve
Ġnot ified
ĠHol mes
activ em
P ick
++ ){
Ġactress es
ĥ ½
Ġe ars
ĠCon figure
ĠRun ning
cli ents
r ice
ts a
il ight
Ġplay off
Ġm akers
im ap
Ġrep lica
an ian
ĠDevelop er
Ġt ier
ĠLO CK
ĠPerm ission
ĠR ah
Ġpath way
ĠMO RE
ĠH lo
Ġcode c
\ }\
] ])
il io
ett i
uls ion
re ls
ĠSur v
ĠOr acle
ĠNetwork s
Ġsubsid iary
< >
Ġs our
Ġcl azz
Ġdes erve
Ġimag ination
ĠSi erra
ĠMer ge
-- )
ley ball
ĠK ash
Ġmuseum s
Ġdark ness
Ġgirl friend
Not ice
ela ide
27 5
ĠU ntil
re cent
') ),
Ġir r
Ġuncertaint ies
Ġh alt
ĠE ve
& )
Ġsc rap
table View
Ġc ere
un safe
Ġcons erv
PRO CESS
Ġyoung est
b ee
Ġmod er
END ING
ĠL an
ĠO thers
Ġcent res
Ep isode
pack aging
P ATCH
em pt
ĠD MA
ç¤ º
che l
Ġexec utable
roup ed
Lock ed
Vel ocity
habilit ation
ĠG rowth
Ġbl ues
Ġpassion ate
Ġe cc
text up
class List
Ġl oving
Ġany body
Ġident ities
Ġfear s
Repe ated
Ġdiv orce
Ch inese
Ġaltern atives
Generated Message
ron ics
Ġcha os
An alytics
Ġfight ers
Ġsm oking
Ġcomposition s
Log ic
Ġproceed s
åŃ Ĺ
ĠN ebraska
ĠUn icode
UN IT
ol ph
18 3
des erialize
ĠW iki
Ġport able
ĠDist ribution
Eval uation
S omething
ro ots
W il
Ġ} ];
ĠF u
get Content
Ex isting
Wait For
ĠOr lando
ĠGh ana
or f
ĠR ice
os ome
Ġsu cc
ĠAb raham
ycl er
ĠG and
Ġpra ise
Ġviol in
Ġgu ided
Ġtransp arency
Academ ic
ĠC raft
Ġpro position
pr ivacy
Ġgu ards
VID EO
ĠHug hes
Dep loy
Ġfeed ing
Ġgovern ance
b mp
cert ificate
ĠV ic
Rec v
| $
ĠW I
ĠAt tributes
ç Ĳ
um ably
Ġwork shops
unit Pattern
ĠEl se
ĠJos Ã©
re newcommand
17 3
ä½¿ çĶ¨
Ġbenef icial
Ġto lua
Ġw ard
ĠR ather
Ġancest or
normal ized
Watch er
ed i
Sever al
ĠC Tx
ĠA zerbai
ĠHar bor
Type Id
arch y
ĠTom my
Ð¾Ð» ÑĮ
in struction
ĠS it
s ynchron
gol ang
ind icator
Ġh ass
ĠVal ent
sp arse
check er
Check point
WI SE
Ġneutr ino
re a
Ġaccess ing
ur istic
ĠRep ository
Ġcompos ers
C nt
AA A
Qual ified
Spe aker
Ġcre ativity
Ġun changed
17 9
ĠT EXT
ĠA ctions
i Sector
ĠH app
Ġstrugg les
Ġw s
ĠS ays
Ġdoub les
ĠEx pected
initial izer
T IP
am y
Ġdis ability
22 1
ĠF ITNESS
Lif ecycle
Document ation
Ġreserv oir
ĠPre vious
TRAN S
com ed
. \\
Ġharm on
UST OM
Ġperturb ation
å ±
ĠT error
ĠG ra
å¯ ¹
ãĥ ĥ
Ġc attle
_ "
Ġ irtk
; :
ĠL ands
ĠSpace watch
Ġkick ed
s andbox
ch ing
http Response
C our
Ġis ot
Ġrec ipe
Ġuniqu ely
K V
num bers
sv c
Ġrail road
In variant
Ð°Ð ·
Ġdistinct ive
l m
currentTime Millis
Ġd ys
ok o
ĠB in
ev ille
ĠCor porate
oth ic
c annot
h orn
v ance
RE LEASE
Ġdec oded
Ġsup ern
Ġrock et
ĠFour ier
bas ename
Ġpreced ing
r idge
put es
Ġlast ed
ml abel
See k
Ġrac ism
et ches
Pro blem
PLA CE
j ab
Ġ ÏĦ
__( /*!
ĠS oci
Ġaccording ly
B LE
L os
ĠAn aly
del ivery
Ġr iders
re tr
q view
Ġc trl
ĠL imit
function al
Comp act
C riterion
Ġtr ucks
Im mediate
ĠV ers
Ġtrans ient
Ġshe lf
ĠSc ore
Ġa like
ro e
Ġpre dominant
Stream s
ĠBut ler
adi ents
Ġtou ched
ĠC RE
Ġmanufact ured
Ġdecre asing
ĠStrateg ic
ATION S
ĠSt uart
ĠDise ase
aa a
Ġc ad
Ġd ign
ĠD ET
Ġpr icing
Un install
Ġa z
Play ing
cdn js
Ġmanip ulation
F ood
ĠJ ung
ĠSpe aker
Inter op
f loating
Ġhe aven
Ġgar bage
L ANG
ï ¸
ch anging
19 4
n z
ĠR uth
get State
d ied
Register ed
ĠRet rieve
ĠRunn able
github usercontent
C rypto
M att
ĠMer cedes
ĠO MIT
Ġexp edition
Ġb reat
Ġdisappe ared
({ '
bind ings
Ġb t
Ġkey words
itud inal
Ġ========= =
Ġsynt hes
ĠC ancellationToken
symbol s
es ium
st ick
ĠG ang
bor o
ar an
P et
m isc
sprint f
ĠM ills
ss f
Ġac qu
find er
Ġterror ism
Ġsouth west
22 6
Ø§ ÙĨ
memItem Left
Ġam ateur
Ġex ponent
Ġannounc es
ĠA pol
In strument
ĠLe o
year s
Ġm r
Ġ{ &
Ġslow er
A jax
ed uc
ch ard
Ġread able
OD AY
re search
ĠEx tra
ĠInt o
Ġdisappoint ed
Ġcycl ing
z es
system s
Ġthe sis
Ġl oyal
ÂĢÂ Ļ
Ġdon ation
Ġsurviv ors
ĠSte am
Ġcl imb
Ġlat ency
Ġhope fully
Ġsk illed
Ġbind ings
Ġ( {\
Ġk ills
lick r
ĠPhilipp ine
Ġw orn
Ġcontin uum
Ġexhib its
ĠOr d
J er
Ġshe ep
g ary
Ġcomb ines
Ġdam ages
box es
subscription Id
ĠC elt
Ġem itted
[ ![
9 11
am d
Ġover rides
Clean up
Ġo u
ĠE c
Ġtact ics
ĠAut hentication
Ġprevent ed
ĠSH ALL
S ongs
pro val
M G
Al ways
gr ades
O H
ĠS ak
Ġstar red
Str ong
CHAN GE
is ure
CT RL
Class Loader
ĠS ou
40 5
Log s
ĠMe et
ĠTreat ment
memItem Right
C oded
I SS
Ġnation wide
ĠHy per
Ġquadr atic
y ield
Ġ" ."
ĠPal m
E B
ĠP rest
#### #
Ġinv ite
Mart in
ĠPartners hip
L G
L ost
S panish
Ġ ãĤ
ĠB undle
Ġan ch
eth yl
Ł ¥
ĠMaterial s
Ġv iral
get Column
Cap abilities
ĠC li
ĠN g
Ġun cle
Ġbank rupt
SY NC
Ġp el
Ġr and
test ng
Ġinject ed
Ġcannab is
sub sec
header link
Ġmot ivation
P F
Ġutil ized
Syntax Kind
: _
aint y
Ġtrav els
Ġsoci eties
T icks
Ġre public
Manager Service
Ġf led
ĠB und
av ern
ĠSTAT US
olog ic
( ::
Dis c
} ");
Ġover night
ĠMunicip al
Ġd ont
Ġal phabet
Ġfle w
Ġelder ly
with in
+ =
ĠK ol
Ġp ng
ĠI EEE
Ġbe aring
ĠSc roll
activem q
ur as
Ġwh it
Ġfurn iture
n orth
form ats
Ġj ournals
w c
Ġre forms
Ġg am
built in
l od
Ġag gregation
ĠMar x
Ġdele tion
t ier
t ips
Ġreason ably
Ġfoss il
insert Before
Ġgrand father
act ors
Ġcast ing
22 3
80 2
by e
Index ed
ĠProject s
N AS
Ġc oc
ass ociated
p aid
end ent
Gu ide
Ġgard ens
in ria
Ch icago
ag ar
Ġstr ide
tion ary
SUP PORTED
Ġsc iences
b ian
"] ["
vis ited
G PU
full comment
ĠB uch
ount ers
ĠOtt oman
ĠM ine
ĠStandard s
ĠOtt awa
Ġb ags
ass igned
sw ith
Ġanaly tical
18 1
ber ger
ĠB ee
ro ut
ap id
Ġtr iggers
Ġcor n
DO UBLE
SPE C
Ġnav al
Ġsort ing
Ġp unct
ic acy
Ġex terior
Ġachiev ements
st arter
erm al
Stud y
åĽ ŀ
ĠO FF
ign ite
ĠMil waukee
; (
Ġref use
ĠP ossible
Ġres olver
Prof iler
I ts
new line
Ġtri o
Ġp enn
ĠCor respond
mine craft
Ġcre ature
w ant
st ones
Ġformat ting
Ġconcert s
2 14
c ms
25 4
Ġun stable
l bl
on load
re name
Ġd d
omb ie
Ġc t
M aint
Ġtx t
[...]
