{
  "version": "1.0",
  "truncation": null,
  "padding": null,
  "added_tokens": [
    {
      "id": 0,
      "content": "[UNK]",
      "single_word": false,
      "lstrip": false,
      "rstrip": false,
      "normalized": false,
      "special": true
    }
  ],
  "normalizer": null,
  "pre_tokenizer": {
    "type": "Sequence",
    "pretokenizers": [
      {
        "type": "Digits",
        "individual_digits": false
      },
      {
        "type": "ByteLevel",
        "add_prefix_space": false,
        "trim_offsets": true,
        "use_regex": true
      }
    ]
  },
  "post_processor": null,
  "decoder": null,
  "model": {
    "type": "BPE",
    "dropout": null,
    "unk_token": "[UNK]",
    "continuing_subword_prefix": null,
    "end_of_word_suffix": null,
    "fuse_unk": false,
    "byte_fallback": false,
    "vocab": {
      "[UNK]": 0,
      "!": 1,
      "\"": 2,
      "#": 3,
      "$": 4,
      "%": 5,
      "&": 6,
      "'": 7,
      "(": 8,
      ")": 9,
      "*": 10,
      "+": 11,
      ",": 12,
      "-": 13,
      ".": 14,
      "/": 15,
      "0": 16,
      "1": 17,
      "2": 18,
      "3": 19,
      "4": 20,
      "5": 21,
      "6": 22,
      "7": 23,
      "8": 24,
      "9": 25,
      ":": 26,
      ";": 27,
      "<": 28,
      "=": 29,
      ">": 30,
      "?": 31,
      "@": 32,
      "A": 33,
      "B": 34,
      "C": 35,
      "D": 36,
      "E": 37,
      "F": 38,
      "G": 39,
      "H": 40,
      "I": 41,
      "J": 42,
      "K": 43,
      "L": 44,
      "M": 45,
      "N": 46,
      "O": 47,
      "P": 48,
      "Q": 49,
      "R": 50,
      "S": 51,
      "T": 52,
      "U": 53,
      "V": 54,
      "W": 55,
      "X": 56,
      "Y": 57,
      "Z": 58,
      "[": 59,
      "\\": 60,
      "]": 61,
      "^": 62,
      "_": 63,
      "`": 64,
      "a": 65,
      "b": 66,
      "c": 67,
      "d": 68,
      "e": 69,
      "f": 70,
      "g": 71,
      "h": 72,
      "i": 73,
      "j": 74,
      "k": 75,
      "l": 76,
      "m": 77,
      "n": 78,
      "o": 79,
      "p": 80,
      "q": 81,
      "r": 82,
      "s": 83,
      "t": 84,
      "u": 85,
      "v": 86,
      "w": 87,
      "x": 88,
      "y": 89,
      "z": 90,
      "{": 91,
      "|": 92,
      "}": 93,
      "~": 94,
      "¡": 95,
      "¢": 96,
      "£": 97,
      "¤": 98,
      "¥": 99,
      "¦": 100,
      "§": 101,
      "¨": 102,
      "©": 103,
      "ª": 104,
      "«": 105,
      "¬": 106,
      "®": 107,
      "¯": 108,
      "°": 109,
      "±": 110,
      "²": 111,
      "³": 112,
      "´": 113,
      "µ": 114,
      "¶": 115,
      "·": 116,
      "¸": 117,
      "¹": 118,
      "º": 119,
      "»": 120,
      "¼": 121,
      "½": 122,
      "¾": 123,
      "¿": 124,
      "Â": 125,
      "Ã": 126,
      "Ä": 127,
      "Å": 128,
      "Æ": 129,
      "Ç": 130,
      "È": 131,
      "É": 132,
      "Ê": 133,
      "Ë": 134,
      "Ì": 135,
      "Í": 136,
      "Î": 137,
      "Ï": 138,
      "Ð": 139,
      "Ñ": 140,
      "Ò": 141,
      "Ó": 142,
      "Ô": 143,
      "Õ": 144,
      "Ö": 145,
      "×": 146,
      "Ø": 147,
      "Ù": 148,
      "Ú": 149,
      "Û": 150,
      "Ü": 151,
      "Ý": 152,
      "Þ": 153,
      "ß": 154,
      "à": 155,
      "á": 156,
      "â": 157,
      "ã": 158,
      "ä": 159,
      "å": 160,
      "æ": 161,
      "ç": 162,
      "è": 163,
      "é": 164,
      "ê": 165,
      "ë": 166,
      "ì": 167,
      "í": 168,
      "î": 169,
      "ï": 170,
      "ð": 171,
      "ñ": 172,
      "ò": 173,
      "ó": 174,
      "ô": 175,
      "Ā": 176,
      "ā": 177,
      "Ă": 178,
      "ă": 179,
      "Ą": 180,
      "ą": 181,
      "Ć": 182,
      "ć": 183,
      "Ĉ": 184,
      "ĉ": 185,
      "Ċ": 186,
      "ċ": 187,
      "Č": 188,
      "č": 189,
      "Ď": 190,
      "ď": 191,
      "Đ": 192,
      "đ": 193,
      "Ē": 194,
      "ē": 195,
      "Ĕ": 196,
      "ĕ": 197,
      "Ė": 198,
      "ė": 199,
      "Ę": 200,
      "ę": 201,
      "Ě": 202,
      "ě": 203,
      "Ĝ": 204,
      "ĝ": 205,
      "Ğ": 206,
      "ğ": 207,
      "Ġ": 208,
      "ġ": 209,
      "Ģ": 210,
      "ģ": 211,
      "Ĥ": 212,
      "ĥ": 213,
      "Ħ": 214,
      "ħ": 215,
      "Ĩ": 216,
      "ĩ": 217,
      "Ī": 218,
      "ī": 219,
      "Ĭ": 220,
      "ĭ": 221,
      "Į": 222,
      "į": 223,
      "İ": 224,
      "ı": 225,
      "Ĳ": 226,
      "ĳ": 227,
      "Ĵ": 228,
      "ĵ": 229,
      "Ķ": 230,
      "ķ": 231,
      "ĸ": 232,
      "Ĺ": 233,
      "ĺ": 234,
      "Ļ": 235,
      "ļ": 236,
      "Ľ": 237,
      "ľ": 238,
      "Ŀ": 239,
      "ŀ": 240,
      "Ł": 241,
      "ł": 242,
      "Ń": 243,
      "ĠĠ": 244,
      "ĠĠĠĠ": 245,
      "in": 246,
      "Ġt": 247,
      "er": 248,
      "on": 249,
      "Ġa": 250,
      "re": 251,
      "he": 252,
      "at": 253,
      "en": 254,
      "or": 255,
      "st": 256,
      "ĠĠĠ": 257,
      "ĠĠĠĠĠĠĠĠ": 258,
      "Ġthe": 259,
      "an": 260,
      "al": 261,
      "Ġc": 262,
      "it": 263,
      "le": 264,
      "ar": 265,
      "ion": 266,
      "Ġs": 267,
      "es": 268,
      "is": 269,
      "ed": 270,
      "Ġo": 271,
      "Ġf": 272,
      "ing": 273,
      "Ġw": 274,
      "Ġp": 275,
      "ro": 276,
      "ic": 277,
      "Ġb": 278,
      "as": 279,
      "et": 280,
      "nd": 281,
      "Ġin": 282,
      "ct": 283,
      "ou": 284,
      "Ġd": 285,
      "Ġof": 286,
      "Ġm": 287,
      "ent": 288,
      "am": 289,
      "ĠĠĠĠĠĠĠ": 290,
      "el": 291,
      "Ġto": 292,
      "Ġand": 293,
      "Ġn": 294,
      "Ġh": 295,
      "Ġre": 296,
      "il": 297,
      "om": 298,
      "id": 299,
      "Ġ=": 300,
      "Ġth": 301,
      "ĉĉ": 302,
      "</": 303,
      "ce": 304,
      "ur": 305,
      "ut": 306,
      "Ġ(": 307,
      "ol": 308,
      "ĠS": 309,
      "im": 310,
      "ation": 311,
      "=\"": 312,
      "ig": 313,
      ");": 314,
      "se": 315,
      "ad": 316,
      "ot": 317,
      "ex": 318,
      "Ġl": 319,
      "ĠT": 320,
      "od": 321,
      "iv": 322,
      "ĠC": 323,
      "--": 324,
      "ag": 325,
      "Ġ{": 326,
      "ĠA": 327,
      "if": 328,
      "Ġ<": 329,
      "ac": 330,
      "ul": 331,
      "em": 332,
      "ĠĠĠĠĠĠĠĠĠĠĠ": 333,
      "un": 334,
      "ay": 335,
      "th": 336,
      "Ġg": 337,
      "//": 338,
      "pe": 339,
      "Ġv": 340,
      "ow": 341,
      "ĠI": 342,
      "Ġis": 343,
      "âĢ": 344,
      "ate": 345,
      "ch": 346,
      "Ġ*": 347,
      "Ġst": 348,
      "tr": 349,
      "us": 350,
      "Ġfor": 351,
      "ab": 352,
      "ue": 353,
      "um": 354,
      "ass": 355,
      "ers": 356,
      "ĠM": 357,
      "oc": 358,
      "čĊ": 359,
      "pt": 360,
      "ly": 361,
      "ist": 362,
      "Ġon": 363,
      "ame": 364,
      "Ġbe": 365,
      "ĠP": 366,
      "ht": 367,
      "Ġ}": 368,
      "ir": 369,
      "Ġ$": 370,
      "ap": 371,
      "ith": 372,
      "av": 373,
      "\">": 374,
      "ter": 375,
      "ction": 376,
      "Ġcon": 377,
      "ĠB": 378,
      "Ġ\"": 379,
      "ew": 380,
      "Ġe": 381,
      "lass": 382,
      "ver": 383,
      "ub": 384,
      "ss": 385,
      "ĠĠĠĠĠĠĠĠĠĠĠĠĠĠĠĠ": 386,
      "ess": 387,
      "ĠR": 388,
      "and": 389,
      "ĠD": 390,
      "up": 391,
      "end": 392,
      "ort": 393,
      "age": 394,
      "our": 395,
      "()": 396,
      "ĠĠĠĠĠ": 397,
      "Ġ\\": 398,
      "Ġthat": 399,
      "ef": 400,
      "ĠF": 401,
      "qu": 402,
      "ĠH": 403,
      "20": 404,
      "ri": 405,
      "op": 406,
      "Ġwith": 407,
      "ĠL": 408,
      "sp": 409,
      "urn": 410,
      "est": 411,
      "**": 412,
      "li": 413,
      "..": 414,
      "ĠN": 415,
      "ect": 416,
      "ain": 417,
      "nt": 418,
      "Ġal": 419,
      "Ġpro": 420,
      "Ġwh": 421,
      "Ġan": 422,
      "ext": 423,
      "ĠW": 424,
      "Ġit": 425,
      "ĠE": 426,
      "ĠG": 427,
      "ke": 428,
      "ore": 429,
      "ment": 430,
      "ine": 431,
      "Ġas": 432,
      "----": 433,
      "turn": 434,
      "rom": 435,
      "art": 436,
      "ype": 437,
      "ity": 438,
      "==": 439,
      "Ġclass": 440,
      "con": 441,
      "Ġy": 442,
      "ack": 443,
      "able": 444,
      "ure": 445,
      "lo": 446,
      "ĠThe": 447,
      "Ġthis": 448,
      "Ġ'": 449,
      "Ġcom": 450,
      "Ġr": 451,
      "port": 452,
      "get": 453,
      "iz": 454,
      "lic": 455,
      "Ġif": 456,
      "ode": 457,
      "Ġor": 458,
      "ile": 459,
      "ere": 460,
      "ult": 461,
      "ight": 462,
      "all": 463,
      "Ġby": 464,
      "Ġat": 465,
      "Ġex": 466,
      "ath": 467,
      "ill": 468,
      "ĠO": 469,
      "ert": 470,
      "ans": 471,
      "ĠĠĠĠĠĠĠĠĠĠĠĠĠĠĠ": 472,
      "Ġwas": 473,
      "os": 474,
      "ive": 475,
      "str": 476,
      "ld": 477,
      "ang": 478,
      "ial": 479,
      "ant": 480,
      "ec": 481,
      "Ġtr": 482,
      "âĢĻ": 483,
      "ies": 484,
      "ption": 485,
      "00": 486,
      "og": 487,
      "ep": 488,
      "int": 489,
      "19": 490,
      "orm": 491,
      "Ġare": 492,
      "ind": 493,
      "ud": 494,
      "Ġfrom": 495,
      "ĠJ": 496,
      "ata": 497,
      "ref": 498,
      "->": 499,
      "Ġ//": 500,
      "Ġhe": 501,
      "act": 502,
      "ast": 503,
      "In": 504,
      "Ġreturn": 505,
      "Ġ&": 506,
      "ase": 507,
      "com": 508,
      "::": 509,
      "eg": 510,
      "ĉĉĉĉ": 511,
      "alue": 512,
      "ace": 513,
      "are": 514,
      "ib": 515,
      "ff": 516,
      "pl": 517,
      "Ġ</": 518,
      "out": 519,
      "ev": 520,
      "ject": 521,
      "Ġch": 522,
      "ary": 523,
      "ire": 524,
      "ĠU": 525,
      "Ġ-": 526,
      "und": 527,
      "Ġnot": 528,
      "ip": 529,
      "../": 530,
      "Ġse": 531,
      "ord": 532,
      "ard": 533,
      "ov": 534,
      "Ġsh": 535,
      "ug": 536,
      "Con": 537,
      "ost": 538,
      "Ġle": 539,
      "ource": 540,
      "Ġwe": 541,
      "ave": 542,
      "ber": 543,
      "ated": 544,
      "Ġ[": 545,
      "pro": 546,
      "ublic": 547,
      "to": 548,
      "ust": 549,
      "Ġ@": 550,
      "ime": 551,
      "ice": 552,
      "ign": 553,
      "unction": 554,
      "ak": 555,
      "\",": 556,
      "ide": 557,
      "'s": 558,
      "ĠâĢ": 559,
      "res": 560,
      "Ġnew": 561,
      "ell": 562,
      "ite": 563,
      "St": 564,
      "oo": 565,
      "ition": 566,
      "aram": 567,
      "loc": 568,
      "ple": 569,
      "ml": 570,
      "(\"": 571,
      "Ġj": 572,
      "),": 573,
      "The": 574,
      "();": 575,
      "_{": 576,
      "per": 577,
      "201": 578,
      "ild": 579,
      "Ġ/": 580,
      "elf": 581,
      "ong": 582,
      "erv": 583,
      ").": 584,
      "dd": 585,
      "ork": 586,
      "essage": 587,
      "ia": 588,
      "cri": 589,
      "Ġus": 590,
      "div": 591,
      "ull": 592,
      "text": 593,
      "ĠĊ": 594,
      "cc": 595,
      "form": 596,
      "ĠK": 597,
      "set": 598,
      "ich": 599,
      "ould": 600,
      "one": 601,
      "ĠV": 602,
      "></": 603,
      "put": 604,
      "Ġ+": 605,
      "ance": 606,
      "tring": 607,
      "row": 608,
      "Ġpl": 609,
      "ory": 610,
      "cl": 611,
      "span": 612,
      "--------": 613,
      "ail": 614,
      "ĠIn": 615,
      "',": 616,
      "ens": 617,
      "ize": 618,
      "ress": 619,
      "Ġyou": 620,
      "que": 621,
      "ge": 622,
      "rr": 623,
      "><": 624,
      "ical": 625,
      "ence": 626,
      "ear": 627,
      "Ex": 628,
      "Ġhave": 629,
      "Ġcan": 630,
      "Ġres": 631,
      "use": 632,
      "import": 633,
      "Ġk": 634,
      "Ġstr": 635,
      "Ġ*/": 636,
      "Ġhas": 637,
      "ph": 638,
      "bject": 639,
      "err": 640,
      "ĠTh": 641,
      "../../": 642,
      "ft": 643,
      "Ġall": 644,
      "ĠSt": 645,
      "ink": 646,
      "Ġun": 647,
      "****": 648,
      "ll": 649,
      "Ġname": 650,
      "sh": 651,
      "iew": 652,
      "Ġab": 653,
      "Ġ.": 654,
      "Ġ|": 655,
      "pp": 656,
      "Ġpublic": 657,
      "====": 658,
      "Ġ:": 659,
      "ents": 660,
      "ther": 661,
      "du": 662,
      "enc": 663,
      "ĠĠĠĠĠĠĠĠĠĠĠĠĠĠĠĠĠĠĠ": 664,
      "Ġcont": 665,
      "hen": 666,
      "ach": 667,
      "ount": 668,
      "iel": 669,
      "ĉĉĉ": 670,
      "{\\": 671,
      "so": 672,
      "html": 673,
      "('": 674,
      "ra": 675,
      "ĠĠĠĠĠĠĠĠĠ": 676,
      "ations": 677,
      "ener": 678,
      "eth": 679,
      "tp": 680,
      "ele": 681,
      "name": 682,
      "Ġfunction": 683,
      "ma": 684,
      "ER": 685,
      "fig": 686,
      "own": 687,
      "oid": 688,
      "Ġget": 689,
      "Ġhref": 690,
      "te": 691,
      "ield": 692,
      "ous": 693,
      "this": 694,
      "Pro": 695,
      "che": 696,
      "Ġdef": 697,
      "Name": 698,
      "Ġdo": 699,
      "Ġwill": 700,
      "Ġhis": 701,
      "Ġpr": 702,
      "eb": 703,
      "Ġout": 704,
      "10": 705,
      "ck": 706,
      "Ġwhich": 707,
      "source": 708,
      "message": 709,
      "))": 710,
      "ON": 711,
      "Ġint": 712,
      "ator": 713,
      "ual": 714,
      "ome": 715,
      "inal": 716,
      "Type": 717,
      "pr": 718,
      "lation": 719,
      "ree": 720,
      "Ġbut": 721,
      "trans": 722,
      "yst": 723,
      "Ġup": 724,
      "__": 725,
      "Ġ#": 726,
      "ark": 727,
      "Ġ=>": 728,
      "tern": 729,
      "quest": 730,
      "ob": 731,
      "ound": 732,
      "irst": 733,
      "ook": 734,
      "ĠCh": 735,
      "Ġvar": 736,
      "ery": 737,
      "Ġset": 738,
      "IN": 739,
      "Ġar": 740,
      "ool": 741,
      "String": 742,
      "Ġim": 743,
      "Ġ$\\": 744,
      "key": 745,
      "roup": 746,
      "ry": 747,
      "Id": 748,
      "param": 749,
      "over": 750,
      "ian": 751,
      "ne": 752,
      "alse": 753,
      "les": 754,
      "math": 755,
      "clud": 756,
      "Ġtype": 757,
      "app": 758,
      "Ġcomp": 759,
      "td": 760,
      "ish": 761,
      "âĢĿ": 762,
      "200": 763,
      "eng": 764,
      "Ġone": 765,
      "return": 766,
      "pec": 767,
      "old": 768,
      "ings": 769,
      "Ġdis": 770,
      "atch": 771,
      "Ġvalue": 772,
      "ix": 773,
      "vent": 774,
      "fer": 775,
      "atic": 776,
      "ystem": 777,
      "erm": 778,
      "ake": 779,
      "/>": 780,
      "led": 781,
      "Ġro": 782,
      "code": 783,
      "odel": 784,
      "col": 785,
      "ict": 786,
      "RE": 787,
      "pect": 788,
      "low": 789,
      "oint": 790,
      "cre": 791,
      "ions": 792,
      "lock": 793,
      "oth": 794,
      "cript": 795,
      "io": 796,
      "cal": 797,
      "Ġme": 798,
      "Re": 799,
      "pert": 800,
      "://": 801,
      "ates": 802,
      "Ġtheir": 803,
      "rit": 804,
      "ax": 805,
      "\"/>": 806,
      "ache": 807,
      "arg": 808,
      "ser": 809,
      "Ġ!": 810,
      "fr": 811,
      "ethod": 812,
      "ĠY": 813,
      "##": 814,
      "Ġself": 815,
      "Com": 816,
      "ont": 817,
      "Ġwere": 818,
      "translation": 819,
      "uild": 820,
      "ames": 821,
      "ors": 822,
      "Ġass": 823,
      "Ġpart": 824,
      "class": 825,
      "lect": 826,
      "add": 827,
      "Ġmore": 828,
      "Res": 829,
      "Ġthey": 830,
      "ick": 831,
      "Ġwho": 832,
      "abel": 833,
      "Ġcol": 834,
      "mer": 835,
      "ault": 836,
      "Ġdata": 837,
      "aw": 838,
      "}}": 839,
      "fo": 840,
      "Ġ_": 841,
      "Th": 842,
      "ST": 843,
      "def": 844,
      "type": 845,
      "12": 846,
      "Ġso": 847,
      "ception": 848,
      "Ġsu": 849,
      "Ġel": 850,
      "ock": 851,
      "rap": 852,
      "Ġalso": 853,
      "List": 854,
      "Ġ==": 855,
      "Ġman": 856,
      "ange": 857,
      "ove": 858,
      "ely": 859,
      "line": 860,
      "uct": 861,
      "Ġconst": 862,
      "urre": 863,
      "Ġline": 864,
      "Ġover": 865,
      "Ġpre": 866,
      "18": 867,
      "ng": 868,
      "ays": 869,
      "umber": 870,
      "iss": 871,
      "AT": 872,
      "val": 873,
      "Ġi": 874,
      "fter": 875,
      "To": 876,
      "Ġag": 877,
      "ute": 878,
      "Ġid": 879,
      "Ġsp": 880,
      "Ġadd": 881,
      "ater": 882,
      "Ġnull": 883,
      "Ġgo": 884,
      "wo": 885,
      "Ġper": 886,
      "Ch": 887,
      "ey": 888,
      "http": 889,
      "Ġits": 890,
      "Ġend": 891,
      "ics": 892,
      "itle": 893,
      "Ġne": 894,
      "Ġtime": 895,
      "Ġvoid": 896,
      "qual": 897,
      "Ġwhen": 898,
      "sum": 899,
      "OR": 900,
      "read": 901,
      "\"><": 902,
      "ĠIt": 903,
      "ton": 904,
      "^{": 905,
      "ann": 906,
      "ie": 907,
      "Ġwork": 908,
      "we": 909,
      "nc": 910,
      "}\\": 911,
      "ĠâĢľ": 912,
      "igh": 913,
      "Ġother": 914,
      "lement": 915,
      "round": 916,
      "ersion": 917,
      "Ġfirst": 918,
      "Ġdes": 919,
      "ervice": 920,
      "cont": 921,
      "LE": 922,
      "ific": 923,
      "bo": 924,
      "Ġen": 925,
      "));": 926,
      "},": 927,
      "Ġabout": 928,
      "var": 929,
      "Ġbeen": 930,
      "Ġany": 931,
      "Ġher": 932,
      "right": 933,
      "son": 934,
      "Ġfalse": 935,
      "ivate": 936,
      "ader": 937,
      "Ġhad": 938,
      "arch": 939,
      "Ġinter": 940,
      "rray": 941,
      "string": 942,
      "Ġ`": 943,
      "ature": 944,
      "ues": 945,
      "Ġli": 946,
      "amp": 947,
      "trib": 948,
      "Ġ||": 949,
      "ĠUn": 950,
      "Ġde": 951,
      "AR": 952,
      "\");": 953,
      "Ġ>": 954,
      "16": 955,
      "anc": 956,
      "Ġsup": 957,
      "ĠĠĠĠĠĠĠĠĠĠĠĠĠĠĠĠĠĠĠĠĠĠĠ": 958,
      "gr": 959,
      "):": 960,
      "ument": 961,
      "}$": 962,
      "ĠĠĠĠĠĠĠĠĠĠĠĠĠ": 963,
      "ms": 964,
      "ember": 965,
      "ash": 966,
      "Ġad": 967,
      "self": 968,
      "ifi": 969,
      "pon": 970,
      "urrent": 971,
      "----------------": 972,
      "ative": 973,
      "ID": 974,
      "////": 975,
      "Ġund": 976,
      "yp": 977,
      "Ġyear": 978,
      "Ġcomm": 979,
      "Ġcre": 980,
      "Ġtrue": 981,
      "ise": 982,
      "cess": 983,
      "co": 984,
      "Tr": 985,
      "EN": 986,
      "ptions": 987,
      "quire": 988,
      "hed": 989,
      "back": 990,
      "Ġap": 991,
      "of": 992,
      "Ġresult": 993,
      "Ġerr": 994,
      "ond": 995,
      "AL": 996,
      "ta": 997,
      "ccess": 998,
      "Ġoff": 999,
      "11": 1000,
      "ask": 1001,
      "ons": 1002,
      "data": 1003,
      "Ġinto": 1004,
      "idth": 1005,
      "ĠThis": 1006,
      "********": 1007,
      "ĠHe": 1008,
      "org": 1009,
      "the": 1010,
      "yle": 1011,
      "ava": 1012,
      "ade": 1013,
      "ys": 1014,
      "ca": 1015,
      "Ġapp": 1016,
      "Ġno": 1017,
      "Value": 1018,
      "ym": 1019,
      "ĠâĢĵ": 1020,
      "Ġelse": 1021,
      "pos": 1022,
      "tem": 1023,
      "...": 1024,
      "Cont": 1025,
      "irect": 1026,
      "Data": 1027,
      "oug": 1028,
      "Ġrec": 1029,
      "egin": 1030,
      "ve": 1031,
      "Ġonly": 1032,
      "Ġorg": 1033,
      "Col": 1034,
      "ating": 1035,
      "Ġthere": 1036,
      "Ġsub": 1037,
      "Ġ--": 1038,
      "ength": 1039,
      "file": 1040,
      "Ġ)": 1041,
      "perty": 1042,
      "ose": 1043,
      "ational": 1044,
      "ample": 1045,
      "Ġthan": 1046,
      "uth": 1047,
      "ĠCom": 1048,
      "Ġev": 1049,
      "value": 1050,
      "ule": 1051,
      "Ġsa": 1052,
      "Ġtwo": 1053,
      "Ġcl": 1054,
      "(\\": 1055,
      "min": 1056,
      "Ġwould": 1057,
      "Ġuse": 1058,
      "Ġem": 1059,
      "ww": 1060,
      "work": 1061,
      "Ġyour": 1062,
      "Ġte": 1063,
      "Ġinst": 1064,
      "15": 1065,
      "Ġpe": 1066,
      "ious": 1067,
      "lient": 1068,
      "SS": 1069,
      "Ġ/**": 1070,
      "Ġsome": 1071,
      "eta": 1072,
      "cond": 1073,
      "Ġreg": 1074,
      "Ġtest": 1075,
      "Ġact": 1076,
      "ĠĠĠĠĠĠ": 1077,
      "Ġval": 1078,
      "ble": 1079,
      "Ġback": 1080,
      "ning": 1081,
      "arget": 1082,
      "ular": 1083,
      "Ġstring": 1084,
      "ĠĠĠĠĠĠĠĠĠĠĠĠĠĠĠĠĠĠĠĠĠĠĠĠĠĠĠĠĠĠĠĠ": 1085,
      "Set": 1086,
      "nb": 1087,
      "ner": 1088,
      "ĠPro": 1089,
      "uff": 1090,
      "begin": 1091,
      "Ġplay": 1092,
      "ople": 1093,
      "ody": 1094,
      "\")": 1095,
      "Ġind": 1096,
      "its": 1097,
      "ages": 1098,
      "ution": 1099,
      "log": 1100,
      "new": 1101,
      "Ġinclud": 1102,
      "raph": 1103,
      "Ġqu": 1104,
      "Ġsc": 1105,
      "Ġspec": 1106,
      "($": 1107,
      "px": 1108,
      "ream": 1109,
      "Exception": 1110,
      "========": 1111,
      "ased": 1112,
      "Ġour": 1113,
      "bar": 1114,
      "Ġfile": 1115,
      "date": 1116,
      "lection": 1117,
      "ee": 1118,
      "location": 1119,
      "Ġ///": 1120,
      "];": 1121,
      "Ġtrans": 1122,
      "Ġbet": 1123,
      "ible": 1124,
      "Ġfinal": 1125,
      "pre": 1126,
      "der": 1127,
      "ugh": 1128,
      "view": 1129,
      "ĠAr": 1130,
      "Ġ&&": 1131,
      "action": 1132,
      "Err": 1133,
      "ps": 1134,
      "ins": 1135,
      "ider": 1136,
      "nbsp": 1137,
      "Object": 1138,
      "ility": 1139,
      "roid": 1140,
      "Ġx": 1141,
      "Ġloc": 1142,
      "label": 1143,
      "ement": 1144,
      "Ġafter": 1145,
      "test": 1146,
      "25": 1147,
      "ally": 1148,
      "Ġstatic": 1149,
      "ited": 1150,
      "ined": 1151,
      "ern": 1152,
      "Ġkn": 1153,
      "item": 1154,
      "Ġshe": 1155,
      "ĠString": 1156,
      "mary": 1157,
      "Ġmay": 1158,
      "atus": 1159,
      "ts": 1160,
      "br": 1161,
      "ward": 1162,
      "Ġunder": 1163,
      "ices": 1164,
      "ok": 1165,
      "Ġrem": 1166,
      "CT": 1167,
      "ollow": 1168,
      "ĠTr": 1169,
      "Test": 1170,
      "Ġchar": 1171,
      "Ġthem": 1172,
      "Ġwhere": 1173,
      "Ġob": 1174,
      "sub": 1175,
      "Ġdec": 1176,
      "Ġ!=": 1177,
      "13": 1178,
      "Ġform": 1179,
      "Ġcase": 1180,
      "evel": 1181,
      "Ġfe": 1182,
      "ished": 1183,
      "resent": 1184,
      "')": 1185,
      "Ġprov": 1186,
      "ternal": 1187,
      "ities": 1188,
      "().": 1189,
      "IT": 1190,
      "ĠNew": 1191,
      "olog": 1192,
      "Ġmy": 1193,
      "DE": 1194,
      "arent": 1195,
      "Ġused": 1196,
      "ank": 1197,
      "Ġent": 1198,
      "Ġlike": 1199,
      "land": 1200,
      "Ġfil": 1201,
      "14": 1202,
      "orld": 1203,
      "());": 1204,
      "'t": 1205,
      "Ġlist": 1206,
      "ting": 1207,
      "left": 1208,
      "Get": 1209,
      "press": 1210,
      "Ġthen": 1211,
      "SE": 1212,
      "Ġprivate": 1213,
      "Ġ%": 1214,
      "ments": 1215,
      "At": 1216,
      "heck": 1217,
      "rc": 1218,
      "32": 1219,
      "Ġop": 1220,
      "size": 1221,
      "not": 1222,
      "be": 1223,
      "']": 1224,
      "_{\\": 1225,
      "air": 1226,
      "lean": 1227,
      "link": 1228,
      "Ġdif": 1229,
      "cent": 1230,
      "Ġam": 1231,
      "Ġsaid": 1232,
      "ĠCon": 1233,
      "AN": 1234,
      "rough": 1235,
      "play": 1236,
      "Key": 1237,
      "eter": 1238,
      "Error": 1239,
      "ME": 1240,
      "Ġpol": 1241,
      "}{": 1242,
      "arr": 1243,
      "for": 1244,
      "ets": 1245,
      "oun": 1246,
      "ĠEx": 1247,
      "red": 1248,
      ")$": 1249,
      "17": 1250,
      "roll": 1251,
      "Ref": 1252,
      "face": 1253,
      "ower": 1254,
      "ized": 1255,
      "Un": 1256,
      "ĠSh": 1257,
      "199": 1258,
      "rol": 1259,
      "Ġrel": 1260,
      "Ġjust": 1261,
      "ars": 1262,
      "Ġstart": 1263,
      "File": 1264,
      "By": 1265,
      "script": 1266,
      "anag": 1267,
      "Ġpeople": 1268,
      "Ġshould": 1269,
      "._": 1270,
      "nav": 1271,
      "ru": 1272,
      "load": 1273,
      "als": 1274,
      "ĉĉĉĉĉ": 1275,
      "umn": 1276,
      "ger": 1277,
      "wn": 1278,
      "View": 1279,
      "ily": 1280,
      "Im": 1281,
      "any": 1282,
      "oss": 1283,
      "30": 1284,
      "Ġshow": 1285,
      "100": 1286,
      "public": 1287,
      "Ġco": 1288,
      "Ġkey": 1289,
      "Ġwhat": 1290,
      "Qu": 1291,
      "Ġobject": 1292,
      "js": 1293,
      "index": 1294,
      "Class": 1295,
      "Ġinv": 1296,
      "ince": 1297,
      "\"></": 1298,
      "Ġph": 1299,
      "Ġnumber": 1300,
      "imes": 1301,
      "âĢĵ": 1302,
      "Ġac": 1303,
      "uring": 1304,
      "Ġfollow": 1305,
      "vel": 1306,
      "CO": 1307,
      "struct": 1308,
      "ivers": 1309,
      "En": 1310,
      "mod": 1311,
      "epend": 1312,
      "['": 1313,
      "ify": 1314,
      "list": 1315,
      "ĠAn": 1316,
      "ĠAl": 1317,
      "Ġneed": 1318,
      "Ġcons": 1319,
      "pace": 1320,
      "\";": 1321,
      "ler": 1322,
      "ttp": 1323,
      "order": 1324,
      "util": 1325,
      "indow": 1326,
      "ient": 1327,
      "summary": 1328,
      "ines": 1329,
      "Ġgener": 1330,
      "function": 1331,
      "ren": 1332,
      "equ": 1333,
      "Ind": 1334,
      ".</": 1335,
      "az": 1336,
      "Ġgr": 1337,
      "Ġsuch": 1338,
      "go": 1339,
      "ough": 1340,
      "ween": 1341,
      "let": 1342,
      "Ġhow": 1343,
      "url": 1344,
      "by": 1345,
      "ĠĠĠĠĊ": 1346,
      "Ġever": 1347,
      "He": 1348,
      "');": 1349,
      "ision": 1350,
      "Ġmethod": 1351,
      "Ġacc": 1352,
      "ists": 1353,
      "ken": 1354,
      "Ġmost": 1355,
      "Ġthrough": 1356,
      "ox": 1357,
      "Ġprodu": 1358,
      "ĠWe": 1359,
      "oot": 1360,
      "Ġser": 1361,
      "ĠRe": 1362,
      "ences": 1363,
      "(),": 1364,
      "reat": 1365,
      "frac": 1366,
      "ott": 1367,
      "Ġcall": 1368,
      "eq": 1369,
      "iver": 1370,
      "inter": 1371,
      "rite": 1372,
      "sc": 1373,
      "ocument": 1374,
      "ense": 1375,
      "lang": 1376,
      "Sh": 1377,
      "lay": 1378,
      "other": 1379,
      "Ġdr": 1380,
      "Ġmod": 1381,
      "Ġdist": 1382,
      "meric": 1383,
      "reak": 1384,
      "!--": 1385,
      "time": 1386,
      "Ġhim": 1387,
      "Ġhigh": 1388,
      "att": 1389,
      "ote": 1390,
      "ful": 1391,
      "],": 1392,
      "ason": 1393,
      "ah": 1394,
      "fore": 1395,
      "UL": 1396,
      "Ġlong": 1397,
      "cept": 1398,
      "RO": 1399,
      "Ġext": 1400,
      "Ġthese": 1401,
      "til": 1402,
      "ified": 1403,
      "top": 1404,
      "rem": 1405,
      "try": 1406,
      "cription": 1407,
      "apt": 1408,
      "=\"../../": 1409,
      "ident": 1410,
      "dis": 1411,
      "Ġarg": 1412,
      "ood": 1413,
      "yn": 1414,
      "Ġsystem": 1415,
      "})": 1416,
      "void": 1417,
      "uffer": 1418,
      "Ġread": 1419,
      "ION": 1420,
      "par": 1421,
      "Ġstud": 1422,
      "Ġbetween": 1423,
      "Ġoper": 1424,
      "Ġmin": 1425,
      "50": 1426,
      "reg": 1427,
      "Ġpoint": 1428,
      "Ġsim": 1429,
      "formation": 1430,
      "osition": 1431,
      "wh": 1432,
      "Ġrun": 1433,
      "ouse": 1434,
      "Ġrequire": 1435,
      "An": 1436,
      "Time": 1437,
      "lob": 1438,
      "Ġtitle": 1439,
      "Ġbr": 1440,
      "Ġdet": 1441,
      "ogle": 1442,
      "ackage": 1443,
      "Ar": 1444,
      "evelop": 1445,
      "oci": 1446,
      "const": 1447,
      "Ġsee": 1448,
      "ush": 1449,
      "\":": 1450,
      "opy": 1451,
      "ces": 1452,
      "path": 1453,
      "Ġdiffer": 1454,
      "group": 1455,
      "Ġagain": 1456,
      "Ġright": 1457,
      "Ġsign": 1458,
      "ik": 1459,
      "Ġcould": 1460,
      "ains": 1461,
      "erson": 1462,
      "ife": 1463,
      "Ġhand": 1464,
      "ĠIf": 1465,
      "=\"+": 1466,
      "uration": 1467,
      "LA": 1468,
      "her": 1469,
      "Text": 1470,
      "Ġcor": 1471,
      "Ġcurrent": 1472,
      "Ġ/>": 1473,
      "Request": 1474,
      "Ġwell": 1475,
      "Ġparam": 1476,
      "field": 1477,
      "ants": 1478,
      "Ġfield": 1479,
      "Ġgroup": 1480,
      "Ġfl": 1481,
      "quot": 1482,
      "Ġmodel": 1483,
      "ization": 1484,
      "user": 1485,
      "mall": 1486,
      "].": 1487,
      "comm": 1488,
      "For": 1489,
      "Ġgiv": 1490,
      "mathb": 1491,
      "Ġnow": 1492,
      "ĠFor": 1493,
      "ĠSe": 1494,
      "itt": 1495,
      "64": 1496,
      "ateg": 1497,
      "Ġresp": 1498,
      "day": 1499,
      "Ġed": 1500,
      "Ġeach": 1501,
      "Ġ?": 1502,
      "Node": 1503,
      "uch": 1504,
      "ared": 1505,
      "ister": 1506,
      "chool": 1507,
      "Ġusing": 1508,
      "22": 1509,
      "fl": 1510,
      "ĠZ": 1511,
      "TE": 1512,
      "table": 1513,
      "ession": 1514,
      "Ġcal": 1515,
      "Ġrep": 1516,
      "way": 1517,
      "Ġmake": 1518,
      "PE": 1519,
      "Ġassert": 1520,
      "Ġyears": 1521,
      "md": 1522,
      "ency": 1523,
      "Event": 1524,
      "Ġ);": 1525,
      "Ġstate": 1526,
      "ector": 1527,
      "includ": 1528,
      "Ġwhile": 1529,
      "man": 1530,
      "000": 1531,
      "lp": 1532,
      "Element": 1533,
      "ced": 1534,
      "Ġfound": 1535,
      "On": 1536,
      "Ġbefore": 1537,
      "$.": 1538,
      "Int": 1539,
      "Ġexpect": 1540,
      "ected": 1541,
      "Ġdoes": 1542,
      "Ġthrow": 1543,
      "':": 1544,
      "ground": 1545,
      "``": 1546,
      "ric": 1547,
      "/*": 1548,
      "Ġeff": 1549,
      "())": 1550,
      "orn": 1551,
      "ale": 1552,
      "Field": 1553,
      "Path": 1554,
      "Info": 1555,
      "Add": 1556,
      "oolean": 1557,
      "amb": 1558,
      "utton": 1559,
      "ui": 1560,
      "tribute": 1561,
      "Config": 1562,
      "24": 1563,
      "AC": 1564,
      "oad": 1565,
      "ĠWh": 1566,
      "config": 1567,
      "med": 1568,
      "ainer": 1569,
      "ĠX": 1570,
      "Param": 1571,
      "/**": 1572,
      "Ġsupport": 1573,
      "Ġbeing": 1574,
      "me": 1575,
      "Ġfr": 1576,
      "itial": 1577,
      "unc": 1578,
      "TR": 1579,
      "rm": 1580,
      "oh": 1581,
      "Ġlast": 1582,
      "raw": 1583,
      "PI": 1584,
      "cite": 1585,
      "lear": 1586,
      "word": 1587,
      "\"\"": 1588,
      "gram": 1589,
      "ĠAs": 1590,
      "}.": 1591,
      "ride": 1592,
      "amespace": 1593,
      "As": 1594,
      "Ġ/*": 1595,
      "Ġsame": 1596,
      "ĠCol": 1597,
      "onse": 1598,
      "Map": 1599,
      "length": 1600,
      "itor": 1601,
      "ever": 1602,
      "Item": 1603,
      "uss": 1604,
      "width": 1605,
      "Ġimport": 1606,
      "Ġ-->": 1607,
      "Index": 1608,
      "$,": 1609,
      "Ġrequest": 1610,
      "https": 1611,
      "aj": 1612,
      "Ġevery": 1613,
      "Context": 1614,
      "tt": 1615,
      "lose": 1616,
      "Ġpass": 1617,
      "ĠAmeric": 1618,
      "Ġcomple": 1619,
      "anager": 1620,
      "ism": 1621,
      "Ġerror": 1622,
      "mathcal": 1623,
      "ĠĠĠĠĠĠĠĠĠĠĠĠĠĠĠĠĠĠĠĠĠĠĠĠĠĠĠ": 1624,
      "stance": 1625,
      "State": 1626,
      "With": 1627,
      "Def": 1628,
      "Equal": 1629,
      "uilder": 1630,
      "uc": 1631,
      "IC": 1632,
      "oy": 1633,
      "etwork": 1634,
      "ures": 1635,
      "arn": 1636,
      "cause": 1637,
      "Ġ(!": 1638,
      "////////": 1639,
      "Ġsize": 1640,
      "ek": 1641,
      "aint": 1642,
      "pha": 1643,
      "Ġsur": 1644,
      "api": 1645,
      "Service": 1646,
      "ustom": 1647,
      "ats": 1648,
      "ĠInd": 1649,
      ",\\": 1650,
      "Ġ});": 1651,
      "Ġdirect": 1652,
      "Ġatt": 1653,
      "uthor": 1654,
      "Ġmany": 1655,
      "Ġbecause": 1656,
      "Over": 1657,
      "ypes": 1658,
      "irt": 1659,
      "mp": 1660,
      "Ġdid": 1661,
      "wit": 1662,
      "search": 1663,
      "bers": 1664,
      "ĠRes": 1665,
      "Code": 1666,
      "da": 1667,
      "resp": 1668,
      "UR": 1669,
      "color": 1670,
      "Ġknow": 1671,
      "ically": 1672,
      "Ġart": 1673,
      "ron": 1674,
      "ĠQ": 1675,
      "pty": 1676,
      "Ġcent": 1677,
      "dt": 1678,
      "ier": 1679,
      "Ġsol": 1680,
      "Ġmon": 1681,
      "des": 1682,
      "};": 1683,
      "Ġsecond": 1684,
      "21": 1685,
      "Ġdefault": 1686,
      "lication": 1687,
      "Array": 1688,
      "33": 1689,
      "ather": 1690,
      "';": 1691,
      "Form": 1692,
      "rop": 1693,
      "Ġaut": 1694,
      "ĠAnd": 1695,
      "icon": 1696,
      "apache": 1697,
      "Ġlook": 1698,
      "198": 1699,
      "map": 1700,
      "Ġeven": 1701,
      "pi": 1702,
      "vert": 1703,
      "node": 1704,
      "box": 1705,
      "Ġevent": 1706,
      "âĢľ": 1707,
      "This": 1708,
      "orth": 1709,
      "ait": 1710,
      "Ġhttp": 1711,
      "Ġbel": 1712,
      "Ġarray": 1713,
      "Ġelement": 1714,
      "Or": 1715,
      "less": 1716,
      "Al": 1717,
      "title": 1718,
      "40": 1719,
      "Ġfind": 1720,
      "nection": 1721,
      "alk": 1722,
      "####": 1723,
      "Ġprocess": 1724,
      "Ġ},": 1725,
      "true": 1726,
      "Ġboth": 1727,
      "Ġmem": 1728,
      "ross": 1729,
      ".\"": 1730,
      "model": 1731,
      "ports": 1732,
      "ends": 1733,
      "aining": 1734,
      "Ġmed": 1735,
      "Not": 1736,
      "ots": 1737,
      "equation": 1738,
      "bs": 1739,
      "Ġcontent": 1740,
      "ience": 1741,
      "We": 1742,
      "block": 1743,
      "eters": 1744,
      "overn": 1745,
      "Ġz": 1746,
      "input": 1747,
      "[]": 1748,
      "ĠIs": 1749,
      "iversity": 1750,
      "igned": 1751,
      "error": 1752,
      "Ġway": 1753,
      "Size": 1754,
      "rib": 1755,
      "assert": 1756,
      "af": 1757,
      ".âĢĿ": 1758,
      "Des": 1759,
      "idd": 1760,
      "ension": 1761,
      "Ġmade": 1762,
      "uf": 1763,
      "section": 1764,
      "result": 1765,
      "ship": 1766,
      "ential": 1767,
      "arm": 1768,
      "Ġtext": 1769,
      "ĠFr": 1770,
      "ync": 1771,
      "IG": 1772,
      "enu": 1773,
      "Ġdown": 1774,
      "UT": 1775,
      "****************": 1776,
      "Ã©": 1777,
      "lish": 1778,
      "Ġwrit": 1779,
      "iter": 1780,
      "urs": 1781,
      "aking": 1782,
      "plate": 1783,
      "next": 1784,
      "ags": 1785,
      "object": 1786,
      "Ġtarget": 1787,
      "ilter": 1788,
      "evice": 1789,
      "Ġest": 1790,
      "Ġexp": 1791,
      "www": 1792,
      "Ġuser": 1793,
      "off": 1794,
      "fin": 1795,
      "valid": 1796,
      "ane": 1797,
      "ology": 1798,
      "from": 1799,
      "Ġvery": 1800,
      "eturn": 1801,
      "Ġhere": 1802,
      "ING": 1803,
      "ives": 1804,
      "Ġpar": 1805,
      "='": 1806,
      "Message": 1807,
      "Ġlog": 1808,
      "Ġown": 1809,
      "FF": 1810,
      "Refer": 1811,
      "array": 1812,
      "uck": 1813,
      "ingle": 1814,
      "ually": 1815,
      "ĠSc": 1816,
      "AD": 1817,
      "Ġdisc": 1818,
      "Ġthree": 1819,
      "amily": 1820,
      "Ġbl": 1821,
      "Ġtop": 1822,
      "Hand": 1823,
      "}^": 1824,
      "utes": 1825,
      "Result": 1826,
      "}(": 1827,
      "Ġserv": 1828,
      "=\"../../../../": 1829,
      "version": 1830,
      "abled": 1831,
      "my": 1832,
      "ails": 1833,
      "create": 1834,
      "ived": 1835,
      "++": 1836,
      "ĠYou": 1837,
      "ission": 1838,
      "Ġu": 1839,
      "ten": 1840,
      "ases": 1841,
      "23": 1842,
      "LO": 1843,
      "ained": 1844,
      "Ġdevelop": 1845,
      "chn": 1846,
      "Ġinformation": 1847,
      "body": 1848,
      "Of": 1849,
      "loat": 1850,
      "Ġlink": 1851,
      "Ġorder": 1852,
      "iev": 1853,
      "elta": 1854,
      "Fr": 1855,
      "Ġdifferent": 1856,
      "Ġduring": 1857,
      "Ġchild": 1858,
      "Ġgu": 1859,
      "head": 1860,
      "Ġmust": 1861,
      "lobal": 1862,
      "Ġperform": 1863,
      "Ġnon": 1864,
      "Ġwant": 1865,
      "Ġgiven": 1866,
      "Ġjava": 1867,
      "alpha": 1868,
      "}_": 1869,
      "alth": 1870,
      "Ġrele": 1871,
      ">&": 1872,
      "default": 1873,
      "Ġbuild": 1874,
      "ponent": 1875,
      "60": 1876,
      "Ġprot": 1877,
      "els": 1878,
      "Ġworld": 1879,
      "Ġdon": 1880,
      "Ġcheck": 1881,
      "iled": 1882,
      "ML": 1883,
      "ĠSystem": 1884,
      "Ġopen": 1885,
      "side": 1886,
      "Ġappro": 1887,
      "Ġmov": 1888,
      "Ġcontin": 1889,
      "iness": 1890,
      "ĠPh": 1891,
      "lt": 1892,
      "Ġvis": 1893,
      "Ġteam": 1894,
      "part": 1895,
      "Is": 1896,
      "Ġconfig": 1897,
      "Ġtry": 1898,
      "Up": 1899,
      "rec": 1900,
      "Ġsrc": 1901,
      "Ġref": 1902,
      "ĠOn": 1903,
      "ural": 1904,
      "Ġstruct": 1905,
      "Val": 1906,
      "HE": 1907,
      "App": 1908,
      "reate": 1909,
      "ouble": 1910,
      "Ġfact": 1911,
      "info": 1912,
      "ift": 1913,
      "content": 1914,
      "MA": 1915,
      "Ġtem": 1916,
      "java": 1917,
      "Loc": 1918,
      "~\\": 1919,
      "ital": 1920,
      "Ġnext": 1921,
      "Ġallow": 1922,
      "2019": 1923,
      "Ġ:=": 1924,
      "Ġ__": 1925,
      "Comm": 1926,
      "Ġ===": 1927,
      "outh": 1928,
      "ari": 1929,
      "cope": 1930,
      "comp": 1931,
      "Ġbreak": 1932,
      "Ġmark": 1933,
      "start": 1934,
      "All": 1935,
      "Wh": 1936,
      "ĠDe": 1937,
      ".,": 1938,
      "Ġpath": 1939,
      "include": 1940,
      "Ġthose": 1941,
      "irc": 1942,
      "mb": 1943,
      "akes": 1944,
      "net": 1945,
      "los": 1946,
      "ĠLe": 1947,
      "Ġleft": 1948,
      "Ġpartic": 1949,
      "istory": 1950,
      "Ġcreate": 1951,
      "Ġlocal": 1952,
      "ĠCl": 1953,
      "Ġfollowing": 1954,
      "IS": 1955,
      "bol": 1956,
      "point": 1957,
      "--------------------------------": 1958,
      "define": 1959,
      "ification": 1960,
      "aster": 1961,
      "ied": 1962,
      "Manager": 1963,
      "ury": 1964,
      "css": 1965,
      "ĠPr": 1966,
      "Ġgood": 1967,
      "197": 1968,
      "usic": 1969,
      "Ġmuch": 1970,
      "ness": 1971,
      "2018": 1972,
      "ling": 1973,
      "nder": 1974,
      "ump": 1975,
      "Ġmat": 1976,
      "ware": 1977,
      "Ġhelp": 1978,
      "gt": 1979,
      "Ġblock": 1980,
      "ources": 1981,
      "ponse": 1982,
      "iginal": 1983,
      "ĠComm": 1984,
      "Color": 1985,
      "ĠGet": 1986,
      "aces": 1987,
      "Model": 1988,
      "Ġcode": 1989,
      "odes": 1990,
      "Ġcoun": 1991,
      "TD": 1992,
      "ina": 1993,
      "vious": 1994,
      "Log": 1995,
      "ret": 1996,
      "base": 1997,
      "ED": 1998,
      "Ser": 1999,
      "perties": 2000,
      "tes": 2001,
      "27": 2002,
      "ĠĠĠĠĠĠĠĠĠĠ": 2003,
      "ides": 2004,
      "ET": 2005,
      "roller": 2006,
      "elete": 2007,
      "Ġversion": 2008,
      "using": 2009,
      "ball": 2010,
      "Query": 2011,
      "ename": 2012,
      "light": 2013,
      "Ġdep": 2014,
      "state": 2015,
      "MP": 2016,
      "Ġlead": 2017,
      "vail": 2018,
      "Ġcar": 2019,
      "ĉĉĉĉĉĉ": 2020,
      "Ġinput": 2021,
      "Ġmet": 2022,
      "ambda": 2023,
      "28": 2024,
      "imit": 2025,
      "Ġreal": 2026,
      "tract": 2027,
      "Ġ};": 2028,
      "android": 2029,
      "User": 2030,
      "System": 2031,
      "efore": 2032,
      "Table": 2033,
      "aut": 2034,
      "tings": 2035,
      "option": 2036,
      "umer": 2037,
      "ULL": 2038,
      "Ġview": 2039,
      "Ġrecord": 2040,
      "ene": 2041,
      "Out": 2042,
      "Inter": 2043,
      "icy": 2044,
      "ĠAss": 2045,
      "ender": 2046,
      "acter": 2047,
      "Ġterm": 2048,
      "loy": 2049,
      "ĠMar": 2050,
      "Ġbeg": 2051,
      "pression": 2052,
      "ration": 2053,
      "Ġpost": 2054,
      "Ð°": 2055,
      "Ġthink": 2056,
      "UN": 2057,
      "=\"../": 2058,
      "ĠOr": 2059,
      "lick": 2060,
      "Property": 2061,
      "Ġlet": 2062,
      "web": 2063,
      "tn": 2064,
      "Ġear": 2065,
      "context": 2066,
      "serv": 2067,
      "ohn": 2068,
      ";&": 2069,
      "ENT": 2070,
      "ior": 2071,
      "AB": 2072,
      "Ġca": 2073,
      "doc": 2074,
      "uage": 2075,
      "google": 2076,
      "ium": 2077,
      "itions": 2078,
      "no": 2079,
      "Ġstyle": 2080,
      "usiness": 2081,
      "Ġstill": 2082,
      "max": 2083,
      "Ġcr": 2084,
      "Ġvari": 2085,
      "package": 2086,
      "down": 2087,
      "Ġbro": 2088,
      "sw": 2089,
      "New": 2090,
      "Ġrece": 2091,
      "oin": 2092,
      "\\\\": 2093,
      "=\"#": 2094,
      "ctions": 2095,
      "Ġlevel": 2096,
      "Ġpop": 2097,
      "ided": 2098,
      "ĠĠĠĠĠĠĠĠĠĠĠĠ": 2099,
      "ume": 2100,
      "Ġhead": 2101,
      "ymbol": 2102,
      "26": 2103,
      "Ġitem": 2104,
      ";</": 2105,
      "Ġnil": 2106,
      "ole": 2107,
      "ottom": 2108,
      "ony": 2109,
      "ands": 2110,
      "cale": 2111,
      "une": 2112,
      "From": 2113,
      "Ġcontext": 2114,
      "And": 2115,
      "ĠâĢĶ": 2116,
      "2017": 2117,
      "Ġbool": 2118,
      "Ġsom": 2119,
      "Ġagainst": 2120,
      "prot": 2121,
      "Ġsince": 2122,
      "Ġnode": 2123,
      "ination": 2124,
      "OD": 2125,
      "ES": 2126,
      "ebug": 2127,
      "come": 2128,
      "Ġbase": 2129,
      "urity": 2130,
      "Ġgame": 2131,
      "IL": 2132,
      "Ġproject": 2133,
      "ĠAd": 2134,
      "por": 2135,
      "Reg": 2136,
      "Ð¾": 2137,
      "count": 2138,
      "Ġindex": 2139,
      "Group": 2140,
      "OT": 2141,
      "29": 2142,
      "ability": 2143,
      "ĠUniversity": 2144,
      "arge": 2145,
      "false": 2146,
      "align": 2147,
      "2016": 2148,
      "Ġinstance": 2149,
      "iron": 2150,
      "Client": 2151,
      "method": 2152,
      "db": 2153,
      "ĠMay": 2154,
      "It": 2155,
      "Ġtake": 2156,
      "Ġvalues": 2157,
      "Call": 2158,
      "sk": 2159,
      "AS": 2160,
      "ley": 2161,
      "gy": 2162,
      "ithub": 2163,
      "duct": 2164,
      "Trans": 2165,
      "iving": 2166,
      "core": 2167,
      "eps": 2168,
      "US": 2169,
      "Ġoptions": 2170,
      "Ph": 2171,
      "================": 2172,
      "Ġpat": 2173,
      "Response": 2174,
      "Ġincluding": 2175,
      "ape": 2176,
      "Ġexper": 2177,
      "ulation": 2178,
      "ird": 2179,
      "enn": 2180,
      "ches": 2181,
      "ĠShe": 2182,
      "Ġstd": 2183,
      "bl": 2184,
      "Ġposition": 2185,
      "Ġexample": 2186,
      "check": 2187,
      "sup": 2188,
      "=\\": 2189,
      "Ġmult": 2190,
      "Ġfin": 2191,
      "bed": 2192,
      "Override": 2193,
      "Count": 2194,
      "Ġcommun": 2195,
      "ormal": 2196,
      "Ġeffect": 2197,
      "Arg": 2198,
      "icle": 2199,
      "ifier": 2200,
      "Ġold": 2201,
      ")\\": 2202,
      "Ġplace": 2203,
      "Ġposs": 2204,
      "cd": 2205,
      "static": 2206,
      "ograph": 2207,
      "elect": 2208,
      ">(": 2209,
      "Ġaround": 2210,
      "Ġfeature": 2211,
      "ivity": 2212,
      "print": 2213,
      "select": 2214,
      "namespace": 2215,
      "Ġincre": 2216,
      "ched": 2217,
      "call": 2218,
      "ral": 2219,
      "Ġimp": 2220,
      "ĠĠĊ": 2221,
      "amma": 2222,
      "Ġperson": 2223,
      "Ġdel": 2224,
      "ideo": 2225,
      "Dis": 2226,
      "aterial": 2227,
      "Ġmax": 2228,
      "vailable": 2229,
      "iction": 2230,
      "refer": 2231,
      "ĠGr": 2232,
      "github": 2233,
      "event": 2234,
      "CE": 2235,
      "fe": 2236,
      "Ġsmall": 2237,
      "Ġprogram": 2238,
      "ocus": 2239,
      "uro": 2240,
      "80": 2241,
      "Method": 2242,
      "Ġappe": 2243,
      ")</": 2244,
      "ĠAt": 2245,
      "Ġcalled": 2246,
      "ounc": 2247,
      "$\\": 2248,
      "mu": 2249,
      "lished": 2250,
      "earch": 2251,
      "Ġmessage": 2252,
      "omen": 2253,
      "<!--": 2254,
      "Pr": 2255,
      "Builder": 2256,
      "Ġpresent": 2257,
      "Ġcolor": 2258,
      "Ġandroid": 2259,
      "ĠAmerican": 2260,
      "ĠĠĠĠĠĠĠĠĠĠĠĠĠĠĠĠĠĠĠĠĠĠĠĠĠĠĠĠĠĠĠ": 2261,
      ",âĢĿ": 2262,
      "ively": 2263,
      "Pl": 2264,
      "ĠAll": 2265,
      "ĠEng": 2266,
      "Ġenc": 2267,
      "TH": 2268,
      "uments": 2269,
      "Ġtable": 2270,
      "Ġsource": 2271,
      "](": 2272,
      "ĠHow": 2273,
      "irtual": 2274,
      "Ġbook": 2275,
      "ĠBr": 2276,
      "ilt": 2277,
      "argin": 2278,
      "aving": 2279,
      "Ġlife": 2280,
      "AME": 2281,
      "2015": 2282,
      "itional": 2283,
      "Ġpres": 2284,
      "met": 2285,
      "actory": 2286,
      "Ġweek": 2287,
      "âĢ¦": 2288,
      "Ġday": 2289,
      "ĠPl": 2290,
      "ai": 2291,
      "Ġret": 2292,
      "uk": 2293,
      "sec": 2294,
      "Ġwithout": 2295,
      "Ġaddress": 2296,
      "ety": 2297,
      "space": 2298,
      "Ġreport": 2299,
      "ways": 2300,
      "acy": 2301,
      "Rec": 2302,
      "ĠUS": 2303,
      "cast": 2304,
      "Stream": 2305,
      "atab": 2306,
      "Ðµ": 2307,
      "rix": 2308,
      "Date": 2309,
      "olv": 2310,
      "Ġconsider": 2311,
      "Ġcour": 2312,
      "Ġchang": 2313,
      "style": 2314,
      "Ġservice": 2315,
      "ules": 2316,
      "ready": 2317,
      "Ġresponse": 2318,
      "ONT": 2319,
      "ĠUnited": 2320,
      "Mod": 2321,
      "Ġident": 2322,
      "sl": 2323,
      "ustr": 2324,
      "mathbb": 2325,
      "ised": 2326,
      "ansp": 2327,
      "place": 2328,
      "ĠBut": 2329,
      "Ġbest": 2330,
      "Ġrefer": 2331,
      "45": 2332,
      "ĠâĢĺ": 2333,
      "Ġfour": 2334,
      "null": 2335,
      "Ġ,": 2336,
      "Ġ()": 2337,
      "66": 2338,
      "ored": 2339,
      "_\\": 2340,
      "Ad": 2341,
      "eger": 2342,
      "amed": 2343,
      "options": 2344,
      "current": 2345,
      "Ġmap": 2346,
      "viron": 2347,
      "lib": 2348,
      "query": 2349,
      "Ġsk": 2350,
      "Ġke": 2351,
      "overnment": 2352,
      "ux": 2353,
      "ĠSet": 2354,
      "ended": 2355,
      "Ġsay": 2356,
      "annel": 2357,
      "plement": 2358,
      "ql": 2359,
      "oud": 2360,
      "ories": 2361,
      "Util": 2362,
      "Bar": 2363,
      "Ġresults": 2364,
      "gress": 2365,
      "99": 2366,
      "Ġaccess": 2367,
      "Image": 2368,
      "Ġconf": 2369,
      "button": 2370,
      "\".": 2371,
      "Ġla": 2372,
      "Ġcond": 2373,
      "php": 2374,
      "ĠList": 2375,
      "Ġpower": 2376,
      "with": 2377,
      "ega": 2378,
      "ĠJul": 2379,
      "}_{": 2380,
      "IP": 2381,
      "Ġ\\\\": 2382,
      "see": 2383,
      "Ġselect": 2384,
      "ĠÐ": 2385,
      "])": 2386,
      "Ġschool": 2387,
      "ĠTo": 2388,
      "witch": 2389,
      "Ġiss": 2390,
      "andard": 2391,
      "la": 2392,
      "Ġanother": 2393,
      "Ġsec": 2394,
      "ĠIm": 2395,
      "Ġmain": 2396,
      "pan": 2397,
      "init": 2398,
      "2014": 2399,
      "Ġdocument": 2400,
      "request": 2401,
      "nect": 2402,
      "ead": 2403,
      "Ġcontrol": 2404,
      "client": 2405,
      "aff": 2406,
      "Ġmanag": 2407,
      "Status": 2408,
      "}^{": 2409,
      "Sub": 2410,
      "Ass": 2411,
      "ĠBl": 2412,
      "ering": 2413,
      "References": 2414,
      "ique": 2415,
      "Ġbased": 2416,
      "rist": 2417,
      "Ġsuccess": 2418,
      "func": 2419,
      "Ġ<<": 2420,
      "Ġtri": 2421,
      "Block": 2422,
      "ugg": 2423,
      "ately": 2424,
      "Input": 2425,
      "Ġins": 2426,
      "image": 2427,
      "Ġborder": 2428,
      "Ġwithin": 2429,
      "Ġchange": 2430,
      "55": 2431,
      "ĠCan": 2432,
      "ĠEn": 2433,
      "ixed": 2434,
      "Ġ->": 2435,
      "ired": 2436,
      "Ġbackground": 2437,
      "ĠĠĠĠĠĠĠĠĠĠĠĠĠĠĠĠĠ": 2438,
      "args": 2439,
      "ances": 2440,
      "Ġequ": 2441,
      "igma": 2442,
      "Cell": 2443,
      "ĠThey": 2444,
      "Ġlaw": 2445,
      "ĠJohn": 2446,
      "CH": 2447,
      "tab": 2448,
      "pen": 2449,
      "stru": 2450,
      "Gener": 2451,
      "lex": 2452,
      "inc": 2453,
      "ternational": 2454,
      "Ġrepresent": 2455,
      "End": 2456,
      "jav": 2457,
      "ival": 2458,
      "dir": 2459,
      "bf": 2460,
      "Ġboolean": 2461,
      "Ġproperty": 2462,
      "ĠCent": 2463,
      "Token": 2464,
      "ught": 2465,
      "01": 2466,
      "Ġwidth": 2467,
      "ven": 2468,
      "adi": 2469,
      "hes": 2470,
      "finished": 2471,
      "Ġavailable": 2472,
      "AP": 2473,
      "Ġanal": 2474,
      "Ġmatch": 2475,
      "Str": 2476,
      "Ġcount": 2477,
      "ending": 2478,
      "Ġcell": 2479,
      "Ġdescri": 2480,
      "Ġcare": 2481,
      "Ġann": 2482,
      "-\\": 2483,
      "Ed": 2484,
      "Ġproble": 2485,
      "Ġfa": 2486,
      "Ġbeh": 2487,
      "older": 2488,
      "((": 2489,
      "Ġoutput": 2490,
      "ators": 2491,
      "icense": 2492,
      "ords": 2493,
      "YPE": 2494,
      "ibr": 2495,
      "NS": 2496,
      "chema": 2497,
      "No": 2498,
      "Ġinitial": 2499,
      "mo": 2500,
      "Ġadv": 2501,
      "illion": 2502,
      "Ġet": 2503,
      "prov": 2504,
      "If": 2505,
      "ero": 2506,
      "ĠNULL": 2507,
      "REF": 2508,
      "Ġocc": 2509,
      "alt": 2510,
      "Ġdem": 2511,
      "dl": 2512,
      "ged": 2513,
      "Instance": 2514,
      "âĢĶ": 2515,
      "Ġ\"\"\"": 2516,
      "oper": 2517,
      "ison": 2518,
      "Ġsingle": 2519,
      "OP": 2520,
      "35": 2521,
      "icro": 2522,
      "hand": 2523,
      "ured": 2524,
      "Ġdi": 2525,
      "Ġparent": 2526,
      "Null": 2527,
      "ĠNo": 2528,
      "Ġ{\\": 2529,
      "Ġlater": 2530,
      "urch": 2531,
      "atabase": 2532,
      "rows": 2533,
      "Ġpo": 2534,
      "IR": 2535,
      "Ġtechn": 2536,
      "Ġinclude": 2537,
      "run": 2538,
      "ording": 2539,
      "ls": 2540,
      "Base": 2541,
      "Be": 2542,
      "Ġlang": 2543,
      "ĠBe": 2544,
      "riter": 2545,
      "server": 2546,
      "ocial": 2547,
      "pm": 2548,
      "Ġfamily": 2549,
      "oto": 2550,
      "OL": 2551,
      "Line": 2552,
      "2013": 2553,
      "unfinished": 2554,
      "Ġbo": 2555,
      "Ġspe": 2556,
      "adding": 2557,
      "Ġfew": 2558,
      "opt": 2559,
      "phi": 2560,
      "Em": 2561,
      "dom": 2562,
      "ĠCar": 2563,
      "ĠJan": 2564,
      "header": 2565,
      "Ġfull": 2566,
      "Ġexpl": 2567,
      "iod": 2568,
      "Nav": 2569,
      "vironment": 2570,
      "Ġknown": 2571,
      "Ġtoo": 2572,
      "ajor": 2573,
      "creen": 2574,
      "Ġcap": 2575,
      "has": 2576,
      "ayout": 2577,
      "ither": 2578,
      "Ġleg": 2579,
      "Attribute": 2580,
      "book": 2581,
      "olution": 2582,
      "ĠPol": 2583,
      "tx": 2584,
      "Options": 2585,
      "uman": 2586,
      "Ġelect": 2587,
      "tra": 2588,
      "equal": 2589,
      "0000": 2590,
      "orage": 2591,
      "[\"": 2592,
      "Ġorgan": 2593,
      "Source": 2594,
      "height": 2595,
      "Ð¸": 2596,
      "ently": 2597,
      "Ġfilm": 2598,
      "Ġpage": 2599,
      "Ġseries": 2600,
      "Component": 2601,
      "Rep": 2602,
      "page": 2603,
      "Ġimage": 2604,
      "uted": 2605,
      "39": 2606,
      "Par": 2607,
      "Ġsays": 2608,
      "uture": 2609,
      "target": 2610,
      "cho": 2611,
      "append": 2612,
      "ilar": 2613,
      "active": 2614,
      "Ġ+=": 2615,
      "ks": 2616,
      "Handler": 2617,
      "Action": 2618,
      "^{\\": 2619,
      "yles": 2620,
      "itive": 2621,
      "ĠCo": 2622,
      "ĠĠĠĠĠĠĠĠĊ": 2623,
      "de": 2624,
      "lambda": 2625,
      "Ġaction": 2626,
      "Ġhome": 2627,
      "xy": 2628,
      "EL": 2629,
      "Off": 2630,
      "ĉĉĉĉĉĉĉĉ": 2631,
      "undle": 2632,
      "xml": 2633,
      "ĠTe": 2634,
      "position": 2635,
      "Ġbu": 2636,
      "Ġmonth": 2637,
      "ought": 2638,
      "Ġsever": 2639,
      "Content": 2640,
      "Ġput": 2641,
      "({": 2642,
      "Sc": 2643,
      "Ġturn": 2644,
      "34": 2645,
      "Ġuntil": 2646,
      "SC": 2647,
      "Ġseason": 2648,
      "Ġoriginal": 2649,
      "member": 2650,
      "Ġexec": 2651,
      "parent": 2652,
      "Ġinterest": 2653,
      "Ġnetwork": 2654,
      "2012": 2655,
      "Buffer": 2656,
      "ĠWorld": 2657,
      "EX": 2658,
      "lin": 2659,
      "Ġsum": 2660,
      "beta": 2661,
      "idget": 2662,
      "Ġrange": 2663,
      "Ġgoing": 2664,
      "Ġes": 2665,
      "CK": 2666,
      "json": 2667,
      "ĠReg": 2668,
      "Ġhapp": 2669,
      "Ġreally": 2670,
      "frame": 2671,
      "Ġeng": 2672,
      "ugin": 2673,
      "aim": 2674,
      "build": 2675,
      "property": 2676,
      "navbar": 2677,
      "ittle": 2678,
      "ns": 2679,
      ",\"": 2680,
      "Ġopt": 2681,
      "Ġfore": 2682,
      "Ġalready": 2683,
      "Ġexist": 2684,
      "Dec": 2685,
      "ĠÂ": 2686,
      "ibility": 2687,
      "pecial": 2688,
      "ĠAdd": 2689,
      "wards": 2690,
      "Act": 2691,
      "SP": 2692,
      "ĠIN": 2693,
      "Ġwin": 2694,
      "reen": 2695,
      "Ġ$(": 2696,
      "ĠTest": 2697,
      "Ġmusic": 2698,
      "ĠStates": 2699,
      "Ġdistrib": 2700,
      "EE": 2701,
      "semb": 2702,
      "Resource": 2703,
      "ourn": 2704,
      "Run": 2705,
      "ĠNov": 2706,
      "lem": 2707,
      "Ġsuper": 2708,
      "Hel": 2709,
      "ĠĠĠĠĠĠĠĠĠĠĠĠĠĠ": 2710,
      "37": 2711,
      "bit": 2712,
      "Oper": 2713,
      "AA": 2714,
      "mathbf": 2715,
      "illi": 2716,
      "bum": 2717,
      "....": 2718,
      "Ġtot": 2719,
      "UE": 2720,
      "ĠCal": 2721,
      "thing": 2722,
      "Ġ($": 2723,
      "hat": 2724,
      "ĠRep": 2725,
      "icial": 2726,
      "ted": 2727,
      "Default": 2728,
      "ategory": 2729,
      "Factory": 2730,
      "child": 2731,
      "Version": 2732,
      "raft": 2733,
      "){": 2734,
      "Ġgreat": 2735,
      "urther": 2736,
      "Ġcomput": 2737,
      "flow": 2738,
      "Ġvalid": 2739,
      "ialog": 2740,
      "ho": 2741,
      "Ġshort": 2742,
      "2010": 2743,
      "igation": 2744,
      "DO": 2745,
      "AG": 2746,
      "Ġport": 2747,
      "adata": 2748,
      "Ġnear": 2749,
      "ilon": 2750,
      "Ġbusiness": 2751,
      "2011": 2752,
      "*/": 2753,
      "Ġspace": 2754,
      "07": 2755,
      "ops": 2756,
      "inary": 2757,
      "otype": 2758,
      "Ġarea": 2759,
      "Ġexpected": 2760,
      "LASS": 2761,
      "Ġstat": 2762,
      "hether": 2763,
      "aper": 2764,
      "arning": 2765,
      "btn": 2766,
      "imate": 2767,
      "HT": 2768,
      "ĠGu": 2769,
      "Âł": 2770,
      "ÑĤ": 2771,
      "Ġpub": 2772,
      "andom": 2773,
      "dec": 2774,
      "ĠInt": 2775,
      "ung": 2776,
      "Ġalong": 2777,
      "Ġinvest": 2778,
      "ĠObject": 2779,
      "Ġfoot": 2780,
      "Select": 2781,
      "ĠYork": 2782,
      "31": 2783,
      "arrow": 2784,
      "Start": 2785,
      "imal": 2786,
      "do": 2787,
      "ething": 2788,
      "cer": 2789,
      "Prov": 2790,
      "ection": 2791,
      "ĉĊ": 2792,
      "status": 2793,
      "atform": 2794,
      "ĠDr": 2795,
      "ours": 2796,
      "ĠNational": 2797,
      "Ġdisplay": 2798,
      "Ġlarge": 2799,
      "Ġbig": 2800,
      "Ġnever": 2801,
      "ĠAug": 2802,
      "imum": 2803,
      "Ġlinks": 2804,
      "rel": 2805,
      "Comp": 2806,
      "90": 2807,
      "FONT": 2808,
      "ocol": 2809,
      "leg": 2810,
      "ĠPar": 2811,
      "alf": 2812,
      "Ġproduct": 2813,
      "aps": 2814,
      "rowser": 2815,
      "char": 2816,
      "Style": 2817,
      "resh": 2818,
      "ention": 2819,
      "inition": 2820,
      "src": 2821,
      "ptr": 2822,
      "ĠSp": 2823,
      "FA": 2824,
      "Command": 2825,
      "36": 2826,
      "atter": 2827,
      "iple": 2828,
      "ĠEd": 2829,
      "write": 2830,
      "dr": 2831,
      "ĠSo": 2832,
      "ney": 2833,
      "ales": 2834,
      "Link": 2835,
      "Ġside": 2836,
      "Ġsl": 2837,
      "ĠMed": 2838,
      "ites": 2839,
      "ĠState": 2840,
      "Ġpolit": 2841,
      "ĠMin": 2842,
      "ĠOct": 2843,
      "ĠThere": 2844,
      "era": 2845,
      "post": 2846,
      "case": 2847,
      "Ġ{@": 2848,
      "hip": 2849,
      "ably": 2850,
      "agn": 2851,
      "Ġcharacter": 2852,
      "ĠWest": 2853,
      "Function": 2854,
      "std": 2855,
      "ATE": 2856,
      "module": 2857,
      "used": 2858,
      "Ġfree": 2859,
      "Ġprom": 2860,
      "Read": 2861,
      "tributes": 2862,
      "izer": 2863,
      "Task": 2864,
      "ĠApr": 2865,
      "rl": 2866,
      "44": 2867,
      "ĠCount": 2868,
      "kn": 2869,
      "open": 2870,
      "Ġbas": 2871,
      "struction": 2872,
      "Ġassoci": 2873,
      "05": 2874,
      "\"]": 2875,
      "ached": 2876,
      "Ġless": 2877,
      "find": 2878,
      "Ġclear": 2879,
      "Part": 2880,
      "ĠAb": 2881,
      "Ġprevious": 2882,
      "ians": 2883,
      "Ġrest": 2884,
      "oke": 2885,
      "push": 2886,
      "ĠCont": 2887,
      "Ġdesign": 2888,
      "VER": 2889,
      "ging": 2890,
      "first": 2891,
      "ica": 2892,
      "ĠSup": 2893,
      "External": 2894,
      "pol": 2895,
      "Ġcompany": 2896,
      "require": 2897,
      "host": 2898,
      "rect": 2899,
      "Ġquest": 2900,
      "Ġplayers": 2901,
      "38": 2902,
      "Number": 2903,
      "ables": 2904,
      "bottom": 2905,
      "Ġdepend": 2906,
      "Ġrequired": 2907,
      "mark": 2908,
      "Ġalways": 2909,
      "utions": 2910,
      "ĠNone": 2911,
      "stream": 2912,
      "rior": 2913,
      "ights": 2914,
      "Ġprotected": 2915,
      "Ġresource": 2916,
      "Ġclient": 2917,
      "ĠReturn": 2918,
      "True": 2919,
      "Ġcert": 2920,
      "uary": 2921,
      "Ð½": 2922,
      "umb": 2923,
      "Ġpay": 2924,
      "Ġmight": 2925,
      "layout": 2926,
      "ysis": 2927,
      "img": 2928,
      "Ġcustom": 2929,
      "Ġvol": 2930,
      "Label": 2931,
      "ama": 2932,
      "oman": 2933,
      "Point": 2934,
      "ĠSchool": 2935,
      "au": 2936,
      "sole": 2937,
      "Fl": 2938,
      "Ġaff": 2939,
      "sg": 2940,
      "Ġlabel": 2941,
      "oice": 2942,
      "ones": 2943,
      "Ġprint": 2944,
      "private": 2945,
      "////////////////": 2946,
      "ĠBy": 2947,
      "Window": 2948,
      "Ġbody": 2949,
      "mit": 2950,
      "Frame": 2951,
      "iff": 2952,
      "ĠJuly": 2953,
      "OS": 2954,
      "element": 2955,
      "Equals": 2956,
      "imary": 2957,
      "uster": 2958,
      "});": 2959,
      "pected": 2960,
      "///": 2961,
      "where": 2962,
      "meta": 2963,
      "olds": 2964,
      "ĠĠĠĠĠĠĠĠĠĠĠĠĊ": 2965,
      "Ġthrows": 2966,
      "Check": 2967,
      "ĠGe": 2968,
      "py": 2969,
      "last": 2970,
      "ague": 2971,
      "strong": 2972,
      "CC": 2973,
      "Ġhost": 2974,
      "Ġra": 2975,
      "Ġload": 2976,
      "eff": 2977,
      "Ġmeas": 2978,
      "ilde": 2979,
      "ising": 2980,
      "Ġabove": 2981,
      "Ġ(\\": 2982,
      "obj": 2983,
      "Ġbetter": 2984,
      "ĠClass": 2985,
      "ascript": 2986,
      "48": 2987,
      "Ġdom": 2988,
      ")}": 2989,
      "Ġlength": 2990,
      "stit": 2991,
      "rict": 2992,
      "mat": 2993,
      "endif": 2994,
      "ued": 2995,
      "stand": 2996,
      "yl": 2997,
      "75": 2998,
      "Ġchildren": 2999,
      "ĠJune": 3000,
      "urope": 3001,
      "lease": 3002,
      "Cl": 3003,
      "Us": 3004,
      "pc": 3005,
      "ament": 3006,
      "AM": 3007,
      "08": 3008,
      "Ġstory": 3009,
      "ĠMarch": 3010,
      "aced": 3011,
      "big": 3012,
      "buf": 3013,
      "Gr": 3014,
      "GL": 3015,
      "Ġdest": 3016,
      "imation": 3017,
      "Ġgovernment": 3018,
      "Ġoption": 3019,
      "oop": 3020,
      "Ġgrow": 3021,
      "Ġbound": 3022,
      "Ġant": 3023,
      "ocket": 3024,
      "FI": 3025,
      "Ġcompon": 3026,
      "Create": 3027,
      "${": 3028,
      "Ġseveral": 3029,
      "rt": 3030,
      "now": 3031,
      "Ġseem": 3032,
      "ids": 3033,
      "PRO": 3034,
      "omic": 3035,
      "Ġtyp": 3036,
      "ike": 3037,
      "angle": 3038,
      "signed": 3039,
      "TO": 3040,
      "Ġtrack": 3041,
      "pack": 3042,
      "Ġcommand": 3043,
      "Ġrole": 3044,
      "Ġnum": 3045,
      "Ġmembers": 3046,
      "196": 3047,
      "NO": 3048,
      "Ġpossible": 3049,
      "ABLE": 3050,
      "font": 3051,
      "ĠGo": 3052,
      "Ġtotal": 3053,
      "iment": 3054,
      "ĠGener": 3055,
      "heet": 3056,
      "Ġprof": 3057,
      "SON": 3058,
      "Row": 3059,
      "ĠWar": 3060,
      "gener": 3061,
      "rodu": 3062,
      "ĠCity": 3063,
      "Filter": 3064,
      "close": 3065,
      "Ġhard": 3066,
      "Page": 3067,
      "Return": 3068,
      "Ġide": 3069,
      "Ġdue": 3070,
      "cell": 3071,
      "sigma": 3072,
      "Pol": 3073,
      "container": 3074,
      "Ġmean": 3075,
      "Ġtimes": 3076,
      "only": 3077,
      "*}": 3078,
      "lied": 3079,
      "Ġmajor": 3080,
      "Ġauthor": 3081,
      "Ġ((": 3082,
      "02": 3083,
      "ze": 3084,
      "display": 3085,
      "df": 3086,
      "project": 3087,
      "Ġcity": 3088,
      "Last": 3089,
      "(&": 3090,
      "ĠSouth": 3091,
      "Ġleast": 3092,
      "Ġsomething": 3093,
      "Ġdiv": 3094,
      "ards": 3095,
      "gle": 3096,
      "service": 3097,
      "thers": 3098,
      "acing": 3099,
      "ĠNot": 3100,
      "len": 3101,
      "Controller": 3102,
      "ayer": 3103,
      "description": 3104,
      "ĠSer": 3105,
      "respond": 3106,
      "ifact": 3107,
      "anch": 3108,
      "ober": 3109,
      "ftware": 3110,
      "Ġ...": 3111,
      "vers": 3112,
      "depend": 3113,
      "mber": 3114,
      "ĠDes": 3115,
      "Ġpos": 3116,
      "ĠChrist": 3117,
      "Ġcatch": 3118,
      "ptember": 3119,
      "Ġfri": 3120,
      "ication": 3121,
      "Ġwindow": 3122,
      "ĠDef": 3123,
      "po": 3124,
      "ustral": 3125,
      "Format": 3126,
      "^{-": 3127,
      "allet": 3128,
      "delta": 3129,
      "Ġheight": 3130,
      "format": 3131,
      "erman": 3132,
      "Ġdone": 3133,
      "apping": 3134,
      "Ġobt": 3135,
      "Ġcopy": 3136,
      "UI": 3137,
      "eed": 3138,
      "ster": 3139,
      "Ġaccount": 3140,
      "png": 3141,
      "Ġextends": 3142,
      "\").": 3143,
      "Ġdefined": 3144,
      "ĠPart": 3145,
      "Ġgeneral": 3146,
      "filter": 3147,
      "Button": 3148,
      "ada": 3149,
      "Ġmargin": 3150,
      "rew": 3151,
      "Ġspecial": 3152,
      "+\\": 3153,
      "ĠBrit": 3154,
      "Ġarr": 3155,
      "Ġgot": 3156,
      "Ġstatus": 3157,
      "ÑĢ": 3158,
      "2009": 3159,
      "center": 3160,
      "ĠWith": 3161,
      "Ġeas": 3162,
      "gether": 3163,
      "yc": 3164,
      "Ġcur": 3165,
      "ynam": 3166,
      "ĠMc": 3167,
      "IM": 3168,
      "mem": 3169,
      "Ġgl": 3170,
      "eline": 3171,
      "Ġsong": 3172,
      "params": 3173,
      "Ġwon": 3174,
      "Listener": 3175,
      "Ġlate": 3176,
      "Ġfre": 3177,
      "ilit": 3178,
      "Ġcome": 3179,
      "First": 3180,
      "Ġurl": 3181,
      "response": 3182,
      "\"),": 3183,
      "Ġeither": 3184,
      "Ġjob": 3185,
      "irm": 3186,
      "INT": 3187,
      "Ġcolumn": 3188,
      "idden": 3189,
      "oding": 3190,
      "Ġearly": 3191,
      "Ġ<!--": 3192,
      "Pre": 3193,
      "sol": 3194,
      "ĠWhen": 3195,
      "oney": 3196,
      "javascript": 3197,
      "Ġparticular": 3198,
      "Ġauto": 3199,
      "menu": 3200,
      "Ġimportant": 3201,
      "ĠApp": 3202,
      "ĠApril": 3203,
      "udio": 3204,
      "update": 3205,
      "ana": 3206,
      "eral": 3207,
      "posed": 3208,
      "itory": 3209,
      "Ġestab": 3210,
      "iler": 3211,
      "UM": 3212,
      "ĠDis": 3213,
      "gamma": 3214,
      "Ġstudy": 3215,
      "Ġkeep": 3216,
      ">>": 3217,
      "refix": 3218,
      "Ġregion": 3219,
      "Ġmove": 3220,
      "reet": 3221,
      "vis": 3222,
      "Ġresearch": 3223,
      "Ġ]": 3224,
      "~~": 3225,
      "ĠMan": 3226,
      "ĠHowever": 3227,
      "Ġcamp": 3228,
      "Ġpoints": 3229,
      "Child": 3230,
      "_.": 3231,
      "inst": 3232,
      "Sup": 3233,
      "ams": 3234,
      "local": 3235,
      "Ġtask": 3236,
      "BU": 3237,
      "Box": 3238,
      "ude": 3239,
      "ĠFeb": 3240,
      "ĠCounty": 3241,
      "04": 3242,
      "entry": 3243,
      "energy": 3244,
      "sembly": 3245,
      "Ġhistory": 3246,
      "ves": 3247,
      "Ġlight": 3248,
      "change": 3249,
      "Ġalbum": 3250,
      "ĠHREF": 3251,
      "Ġbit": 3252,
      "Ġcover": 3253,
      "lege": 3254,
      "uccess": 3255,
      "Ġthings": 3256,
      "Ġrespect": 3257,
      "idual": 3258,
      "mathrm": 3259,
      "urg": 3260,
      "Ġlow": 3261,
      "ĠAir": 3262,
      "stract": 3263,
      "Valid": 3264,
      "Ġmar": 3265,
      "unk": 3266,
      "Web": 3267,
      "Ġupdate": 3268,
      "ĠCLASS": 3269,
      "Ġwater": 3270,
      "Ġdeath": 3271,
      "2008": 3272,
      "Ġsimilar": 3273,
      "sim": 3274,
      "Ġdouble": 3275,
      "Ġlittle": 3276,
      "foot": 3277,
      "Ġemp": 3278,
      "attr": 3279,
      "Ġcreated": 3280,
      "uid": 3281,
      "Ġobserv": 3282,
      "Ġho": 3283,
      "Ġwomen": 3284,
      "Ġredu": 3285,
      "Collection": 3286,
      "Ġwhether": 3287,
      "mt": 3288,
      "annot": 3289,
      "ĠAugust": 3290,
      "Char": 3291,
      "rest": 3292,
      "Ġlarg": 3293,
      "ĠEurope": 3294,
      "Ġsite": 3295,
      "ibrary": 3296,
      "Ġpot": 3297,
      "Bundle": 3298,
      "ply": 3299,
      "dep": 3300,
      "ĠAct": 3301,
      "aring": 3302,
      "iddle": 3303,
      "Ð¾Ð": 3304,
      "ĠNorth": 3305,
      "ĠJanuary": 3306,
      "<?": 3307,
      "Ġcomb": 3308,
      "}{\\": 3309,
      "epar": 3310,
      "ĠRec": 3311,
      "Ġobj": 3312,
      "eting": 3313,
      "Ġfar": 3314,
      "ERT": 3315,
      "06": 3316,
      "ĠĠĠĠĠĠĠĠĠĠĠĠĠĠĠĠĠĠĠĠĠĠĠĠĠĠĠĠĠĠĠĠĠĠĠ": 3317,
      "remove": 3318,
      "Ġsearch": 3319,
      "^\\": 3320,
      "Ab": 3321,
      "Ext": 3322,
      "ĠFl": 3323,
      "Ent": 3324,
      "det": 3325,
      "Ġcost": 3326,
      "tag": 3327,
      "ham": 3328,
      "known": 3329,
      "Ġconnection": 3330,
      "ansport": 3331,
      "Ġfont": 3332,
      "Ġdeterm": 3333,
      "Column": 3334,
      "ered": 3335,
      "Length": 3336,
      "apter": 3337,
      "COL": 3338,
      "ĠOF": 3339,
      "ensor": 3340,
      "ynt": 3341,
      "aves": 3342,
      "clus": 3343,
      "Ġevents": 3344,
      "ND": 3345,
      "Ġcountry": 3346,
      "ipp": 3347,
      "cor": 3348,
      "theta": 3349,
      "istor": 3350,
      "Spec": 3351,
      "figure": 3352,
      "ERR": 3353,
      "```": 3354,
      "Ġprovide": 3355,
      "uation": 3356,
      "Met": 3357,
      "ouch": 3358,
      "Ġmedia": 3359,
      "URL": 3360,
      "Ġdays": 3361,
      "omet": 3362,
      "pose": 3363,
      "Ġclose": 3364,
      "195": 3365,
      "soft": 3366,
      "ĠSeptember": 3367,
      "Ġdate": 3368,
      "Cache": 3369,
      "Address": 3370,
      "Ġspecified": 3371,
      "IZ": 3372,
      "ĠDo": 3373,
      "istry": 3374,
      "Ġimplement": 3375,
      "idge": 3376,
      "instance": 3377,
      "styles": 3378,
      "lip": 3379,
      "09": 3380,
      "num": 3381,
      "Ġqual": 3382,
      "Ġhealth": 3383,
      "dict": 3384,
      "ĠEX": 3385,
      "ĠUp": 3386,
      "Ġask": 3387,
      "Output": 3388,
      "igger": 3389,
      "aken": 3390,
      "amil": 3391,
      "Ġprob": 3392,
      ":</": 3393,
      "Det": 3394,
      "irth": 3395,
      "').": 3396,
      "times": 3397,
      "MS": 3398,
      "TYPE": 3399,
      "number": 3400,
      "Ġmass": 3401,
      "quad": 3402,
      "Mode": 3403,
      "ĠCor": 3404,
      "artment": 3405,
      "Tem": 3406,
      "atal": 3407,
      "adio": 3408,
      "structor": 3409,
      "ĠOff": 3410,
      "board": 3411,
      "ĠOctober": 3412,
      "si": 3413,
      "ĠMe": 3414,
      "Ġche": 3415,
      "ino": 3416,
      "ulture": 3417,
      "ills": 3418,
      "ogn": 3419,
      "cul": 3420,
      "Ġserver": 3421,
      "roy": 3422,
      "cember": 3423,
      "TP": 3424,
      "47": 3425,
      "gen": 3426,
      "Ġmeans": 3427,
      "ieve": 3428,
      "ĠRob": 3429,
      "istic": 3430,
      "output": 3431,
      "Ġstrong": 3432,
      "column": 3433,
      "Ġproblem": 3434,
      "Back": 3435,
      "Layout": 3436,
      "NAME": 3437,
      "rypt": 3438,
      "pass": 3439,
      "show": 3440,
      "ĠLicense": 3441,
      "Ġparameter": 3442,
      "utils": 3443,
      "IO": 3444,
      "Ġparameters": 3445,
      "uggest": 3446,
      "mar": 3447,
      "ĠThat": 3448,
      "Ġperiod": 3449,
      "kit": 3450,
      "Ġformer": 3451,
      "itted": 3452,
      "03": 3453,
      "unch": 3454,
      "You": 3455,
      "tau": 3456,
      "efined": 3457,
      ")(": 3458,
      "Ġwrite": 3459,
      "Ġhaving": 3460,
      "Ġclos": 3461,
      "Ġformat": 3462,
      "partial": 3463,
      "ĠVal": 3464,
      "CON": 3465,
      "mon": 3466,
      "Ġprovided": 3467,
      "hel": 3468,
      "Ġglobal": 3469,
      "gor": 3470,
      "Ġmodule": 3471,
      "ensure": 3472,
      "ries": 3473,
      "Ġonce": 3474,
      "]{": 3475,
      "sm": 3476,
      "wise": 3477,
      "Ã¡": 3478,
      "prototype": 3479,
      "iol": 3480,
      "Ġsure": 3481,
      "proto": 3482,
      "level": 3483,
      "ĠGL": 3484,
      "Ġmember": 3485,
      "Ġair": 3486,
      "most": 3487,
      "tool": 3488,
      "dev": 3489,
      "49": 3490,
      "ae": 3491,
      "ĠID": 3492,
      "Per": 3493,
      "Url": 3494,
      "Ġdoesn": 3495,
      "sequ": 3496,
      "came": 3497,
      "idence": 3498,
      "Server": 3499,
      "ring": 3500,
      "Provider": 3501,
      "ĠPres": 3502,
      "Ġacross": 3503,
      "Ġsent": 3504,
      "++)": 3505,
      "Ġoffer": 3506,
      "ĠAustral": 3507,
      "Ġdev": 3508,
      "exp": 3509,
      "Ġclaim": 3510,
      "acity": 3511,
      "ĠAPI": 3512,
      "Ġcallback": 3513,
      "Ġnone": 3514,
      "Ġstop": 3515,
      "Ġframe": 3516,
      "Ġinterface": 3517,
      "rho": 3518,
      "ãģ": 3519,
      "Ñģ": 3520,
      "'re": 3521,
      "ĠOne": 3522,
      "Ġsit": 3523,
      "exec": 3524,
      "Ġlanguage": 3525,
      "Ġbecame": 3526,
      "ĠHT": 3527,
      "tempt": 3528,
      "Ġaway": 3529,
      "Rem": 3530,
      "Ġtook": 3531,
      "small": 3532,
      "DB": 3533,
      "Ġable": 3534,
      "Ġindic": 3535,
      "Ġlik": 3536,
      "Ġrelation": 3537,
      "Tag": 3538,
      "Ġfund": 3539,
      "Ġmaking": 3540,
      "Aut": 3541,
      "Offset": 3542,
      "Ġred": 3543,
      "2007": 3544,
      "else": 3545,
      "Ġfail": 3546,
      "Ġinternal": 3547,
      "Ġ[]": 3548,
      "Ġhuman": 3549,
      "offset": 3550,
      "irection": 3551,
      "Ġq": 3552,
      "Ġver": 3553,
      "Ġstream": 3554,
      "''": 3555,
      "Ġ!==": 3556,
      "ruary": 3557,
      "(_": 3558,
      "na": 3559,
      "aly": 3560,
      "anged": 3561,
      "Ġpast": 3562,
      "Ġstandard": 3563,
      "otion": 3564,
      "Ġenergy": 3565,
      "Ġtogether": 3566,
      "Ġoften": 3567,
      "ĠRev": 3568,
      "actions": 3569,
      "Ġsat": 3570,
      "oph": 3571,
      "Ġfiles": 3572,
      "aul": 3573,
      "olved": 3574,
      "Ġvideo": 3575,
      "Ġlot": 3576,
      "Ġfeel": 3577,
      "Ġdiscuss": 3578,
      "eleg": 3579,
      "Ġbecome": 3580,
      "Ġkind": 3581,
      "Ġadded": 3582,
      "Ġworking": 3583,
      "$-": 3584,
      "ises": 3585,
      "Ġgive": 3586,
      "ĠNovember": 3587,
      "process": 3588,
      "Ġsection": 3589,
      "PC": 3590,
      "reference": 3591,
      "ij": 3592,
      "ried": 3593,
      "aa": 3594,
      "sd": 3595,
      "Acc": 3596,
      "Width": 3597,
      "leq": 3598,
      "ief": 3599,
      "Ġland": 3600,
      "LI": 3601,
      "Update": 3602,
      "ĠArt": 3603,
      "dat": 3604,
      "Ġfuture": 3605,
      "ram": 3606,
      "non": 3607,
      "%%": 3608,
      "Ġep": 3609,
      "Ġmillion": 3610,
      "raphics": 3611,
      "Ġequal": 3612,
      "Ġyoung": 3613,
      "year": 3614,
      "Ġvia": 3615,
      "abor": 3616,
      "Ġcommunity": 3617,
      "Ġnav": 3618,
      "medi": 3619,
      "cel": 3620,
      "ĠBar": 3621,
      "Ġfive": 3622,
      "Ġbegin": 3623,
      "main": 3624,
      "ĠAg": 3625,
      "Ġpract": 3626,
      "Ġdevelopment": 3627,
      "Ġmiss": 3628,
      "Ġreview": 3629,
      "ients": 3630,
      "ĠData": 3631,
      "Ġargs": 3632,
      "Target": 3633,
      "Ġspecific": 3634,
      "Ġsample": 3635,
      "Ġfurther": 3636,
      "unit": 3637,
      "thern": 3638,
      "}(\\": 3639,
      "scope": 3640,
      "Ġsm": 3641,
      "ĠFile": 3642,
      "Ġthough": 3643,
      "wrap": 3644,
      "vision": 3645,
      "essages": 3646,
      "final": 3647,
      "anel": 3648,
      "gorith": 3649,
      "46": 3650,
      "Ġindiv": 3651,
      "********************************": 3652,
      "IV": 3653,
      "Ġlove": 3654,
      "template": 3655,
      "42": 3656,
      "=\"../../../../../": 3657,
      "Types": 3658,
      "Ġmethods": 3659,
      "ĠChar": 3660,
      "ĠDecember": 3661,
      "ĠStr": 3662,
      "Ġsocial": 3663,
      "Ġsw": 3664,
      "ĠAp": 3665,
      "Parameter": 3666,
      "can": 3667,
      "Access": 3668,
      "CODE": 3669,
      "Ġtalk": 3670,
      "Ġthird": 3671,
      "ĠComp": 3672,
      "Ġmom": 3673,
      "Ġplan": 3674,
      "ĠAfter": 3675,
      "Mem": 3676,
      "cit": 3677,
      "Ġinit": 3678,
      "Ġelements": 3679,
      "lies": 3680,
      "though": 3681,
      "Ġperm": 3682,
      "II": 3683,
      "lim": 3684,
      "Level": 3685,
      "support": 3686,
      "Ġseen": 3687,
      "########": 3688,
      "2000": 3689,
      "oved": 3690,
      "aven": 3691,
      "Ġamong": 3692,
      "Ġperformance": 3693,
      "Ġshows": 3694,
      "Ġenough": 3695,
      "Ġconc": 3696,
      "Ġmag": 3697,
      "Ġapplication": 3698,
      "ĠMy": 3699,
      "ĉĉĉĉĉĉĉ": 3700,
      "ĠPer": 3701,
      "Ġattack": 3702,
      "]);": 3703,
      "bool": 3704,
      "Ob": 3705,
      "obile": 3706,
      "Ġmer": 3707,
      "window": 3708,
      "ĠBo": 3709,
      "Ġsignific": 3710,
      "Ġdeb": 3711,
      "iet": 3712,
      "nu": 3713,
      "ĠMon": 3714,
      "ners": 3715,
      "Ġtre": 3716,
      "Ġhttps": 3717,
      "hib": 3718,
      "Ġlimit": 3719,
      "Ġtrad": 3720,
      "ounds": 3721,
      "Ġhouse": 3722,
      "Ġreceived": 3723,
      "criptor": 3724,
      "ULT": 3725,
      "returns": 3726,
      "ĠThese": 3727,
      "ATION": 3728,
      "sv": 3729,
      "][": 3730,
      "ĠHigh": 3731,
      "Ġservices": 3732,
      "Delta": 3733,
      "Ġcontinue": 3734,
      "match": 3735,
      "mult": 3736,
      "Ġwhy": 3737,
      "ensions": 3738,
      "ty": 3739,
      "Ġ**": 3740,
      "Ġfootball": 3741,
      "spec": 3742,
      "otal": 3743,
      "Entry": 3744,
      "isk": 3745,
      "Ġcame": 3746,
      "artifact": 3747,
      "Utils": 3748,
      "Ġgames": 3749,
      "ores": 3750,
      "mm": 3751,
      "ii": 3752,
      "classes": 3753,
      "gl": 3754,
      "Entity": 3755,
      "à¤": 3756,
      "ĠKing": 3757,
      "ĠHouse": 3758,
      "Ġtell": 3759,
      "Ġindu": 3760,
      "Ġbelow": 3761,
      "ements": 3762,
      "$$": 3763,
      "ondon": 3764,
      "Ġreleased": 3765,
      "ington": 3766,
      "example": 3767,
      "Ġgen": 3768,
      "parse": 3769,
      "Ġalign": 3770,
      "One": 3771,
      "uint": 3772,
      "Ġdevice": 3773,
      "Max": 3774,
      "Next": 3775,
      "Case": 3776,
      "aml": 3777,
      "task": 3778,
      "Ġsix": 3779,
      "Ġyet": 3780,
      "root": 3781,
      "Vis": 3782,
      "Ġxml": 3783,
      "()->": 3784,
      "igin": 3785,
      "AV": 3786,
      "ĠArray": 3787,
      "bind": 3788,
      "Ġcoll": 3789,
      "ĠDav": 3790,
      "ference": 3791,
      "eqref": 3792,
      "ĠDep": 3793,
      "2006": 3794,
      "Ġinstall": 3795,
      "ause": 3796,
      "Min": 3797,
      "ĠRuss": 3798,
      "ĠType": 3799,
      "apan": 3800,
      "Ġmen": 3801,
      "ceed": 3802,
      "67": 3803,
      "Ġnec": 3804,
      "Container": 3805,
      "Ġquery": 3806,
      "cache": 3807,
      "ournal": 3808,
      "ges": 3809,
      "Ġfocus": 3810,
      "Ġfac": 3811,
      "Ġben": 3812,
      "Ġinstead": 3813,
      "Ġindividual": 3814,
      "iding": 3815,
      "Interface": 3816,
      "Ġthought": 3817,
      "vari": 3818,
      "Ġreason": 3819,
      "Ġfloat": 3820,
      "ĠFebruary": 3821,
      "avel": 3822,
      "UP": 3823,
      "ography": 3824,
      "Ġcollection": 3825,
      "Ġlen": 3826,
      "Ġcorrespond": 3827,
      "Exec": 3828,
      "asing": 3829,
      "API": 3830,
      "=\"-": 3831,
      "ille": 3832,
      "Ġden": 3833,
      "ilities": 3834,
      "ĠSch": 3835,
      "Ġfilter": 3836,
      "ĠMark": 3837,
      "ĠQu": 3838,
      "Ġchanges": 3839,
      "ĠInter": 3840,
      "Ġnormal": 3841,
      "Ġcompet": 3842,
      "Ġfeatures": 3843,
      "Json": 3844,
      "Ġtypes": 3845,
      "Configuration": 3846,
      "oriz": 3847,
      "ĠPark": 3848,
      "imension": 3849,
      "Ġstarted": 3850,
      "oll": 3851,
      "Ġofficial": 3852,
      "([": 3853,
      "olve": 3854,
      "eh": 3855,
      "Write": 3856,
      "ãĥ": 3857,
      "Ġuint": 3858,
      "'),": 3859,
      "ĠčĊ": 3860,
      "Header": 3861,
      "common": 3862,
      "should": 3863,
      "Se": 3864,
      "Ġpotential": 3865,
      "fty": 3866,
      "Ġstep": 3867,
      "Ġdiff": 3868,
      "}$,": 3869,
      "cm": 3870,
      "float": 3871,
      "fa": 3872,
      "Dr": 3873,
      "Ġmakes": 3874,
      "Ġsubject": 3875,
      "IGN": 3876,
      "ampion": 3877,
      "buffer": 3878,
      "encies": 3879,
      "./": 3880,
      "Top": 3881,
      "88": 3882,
      "ĠHis": 3883,
      "}$.": 3884,
      "ĠSec": 3885,
      "Post": 3886,
      "Ġmode": 3887,
      "Ġoperation": 3888,
      "|\\": 3889,
      "Ġplayed": 3890,
      "Ġcourse": 3891,
      "control": 3892,
      "Ġamount": 3893,
      "Position": 3894,
      "Unit": 3895,
      "KE": 3896,
      "Ġmaterial": 3897,
      "Ġinteg": 3898,
      "aker": 3899,
      "Ġcrit": 3900,
      "That": 3901,
      "ocr": 3902,
      "Ġphys": 3903,
      "PO": 3904,
      "ĠTrans": 3905,
      "Ġmodels": 3906,
      "Med": 3907,
      "unity": 3908,
      "Ġreturned": 3909,
      "Ġbuffer": 3910,
      "Load": 3911,
      "Ġenvironment": 3912,
      "Ġaccept": 3913,
      "ĠLa": 3914,
      "Ġage": 3915,
      "70": 3916,
      "Ġproperties": 3917,
      "long": 3918,
      "tml": 3919,
      "Ġlive": 3920,
      "Ġassociated": 3921,
      "Ġsche": 3922,
      "Ġreturns": 3923,
      ":\"": 3924,
      "Ġterms": 3925,
      "Ġder": 3926,
      "Ġvisit": 3927,
      "Ġintrodu": 3928,
      "Sec": 3929,
      "Ġeduc": 3930,
      "aging": 3931,
      "ĠĠĠĠĠĠĠĠĠĠĠĠĠĠĠĠĠĠĠĠĠ": 3932,
      "empty": 3933,
      "Ġsequ": 3934,
      "Ġarch": 3935,
      "Ġbuilding": 3936,
      "Work": 3937,
      "IF": 3938,
      "omega": 3939,
      "Ġlocation": 3940,
      "wait": 3941,
      "strap": 3942,
      "ba": 3943,
      "izing": 3944,
      "expected": 3945,
      "verage": 3946,
      "ĠWeb": 3947,
      "igure": 3948,
      "infty": 3949,
      "65": 3950,
      "Ġdidn": 3951,
      "Tree": 3952,
      "token": 3953,
      "Control": 3954,
      "Ġsepar": 3955,
      "ha": 3956,
      "Ġwar": 3957,
      "Callback": 3958,
      "caption": 3959,
      "author": 3960,
      "ouncil": 3961,
      "See": 3962,
      "Ġtag": 3963,
      "Ġ{}": 3964,
      "Ġ::": 3965,
      "Ġothers": 3966,
      "late": 3967,
      "Sp": 3968,
      "Ġentry": 3969,
      "eft": 3970,
      "Ġcommon": 3971,
      "xi": 3972,
      "ĠNews": 3973,
      "Ġtown": 3974,
      "Thread": 3975,
      "Height": 3976,
      "inner": 3977,
      "adius": 3978,
      "ĠSim": 3979,
      "Ġbirth": 3980,
      "ĠReturns": 3981,
      "dated": 3982,
      "lit": 3983,
      "Ġcertain": 3984,
      "Http": 3985,
      "Ġemploy": 3986,
      "After": 3987,
      "document": 3988,
      "attle": 3989,
      "Ġcirc": 3990,
      "ART": 3991,
      "Ġpress": 3992,
      "Ġshown": 3993,
      "lying": 3994,
      "ĠSee": 3995,
      "SH": 3996,
      "Process": 3997,
      "tree": 3998,
      "Connection": 3999,
      "Search": 4000,
      "ality": 4001,
      "ĠAm": 4002,
      "How": 4003,
      "Location": 4004,
      "ãĤ": 4005,
      "Ġtoday": 4006,
      "ĠBro": 4007,
      "Ġcou": 4008,
      "even": 4009,
      "Ġrow": 4010,
      "Ġexperience": 4011,
      "licit": 4012,
      "Ġband": 4013,
      "Ġstudents": 4014,
      "Ġincluded": 4015,
      "=\"../../../../../../": 4016,
      "Ġworks": 4017,
      "ological": 4018,
      "istration": 4019,
      "Ġsuggest": 4020,
      "draw": 4021,
      "hent": 4022,
      "layer": 4023,
      "Ag": 4024,
      "plit": 4025,
      "attern": 4026,
      "iven": 4027,
      "Ġhalf": 4028,
      "artifactId": 4029,
      "Ġrelease": 4030,
      "based": 4031,
      "Ġtw": 4032,
      ">,": 4033,
      "QL": 4034,
      "VAL": 4035,
      "COLOR": 4036,
      "Ø§": 4037,
      "Ġnational": 4038,
      "aries": 4039,
      "lier": 4040,
      "Ġbuilt": 4041,
      "STR": 4042,
      "adem": 4043,
      "DL": 4044,
      "uest": 4045,
      "Ġoffset": 4046,
      "Ġvirtual": 4047,
      "tilde": 4048,
      "Ġsignificant": 4049,
      "rown": 4050,
      "Ġcannot": 4051,
      "ĠLog": 4052,
      "2005": 4053,
      "boot": 4054,
      "verse": 4055,
      "ĉĠĠĠ": 4056,
      "%;": 4057,
      "Direct": 4058,
      "Ġplayer": 4059,
      "etch": 4060,
      "FO": 4061,
      "Ġdeg": 4062,
      "cap": 4063,
      "aign": 4064,
      "queue": 4065,
      "adow": 4066,
      "utable": 4067,
      "ĠHar": 4068,
      "Ġtool": 4069,
      "Ġbox": 4070,
      "Ġwritten": 4071,
      "Ġnamed": 4072,
      "Ġthing": 4073,
      "Ġreference": 4074,
      "Ġblack": 4075,
      "ĠNS": 4076,
      "icip": 4077,
      "Ġheld": 4078,
      "Ġfields": 4079,
      "patch": 4080,
      "Ġnight": 4081,
      "ĠRem": 4082,
      "There": 4083,
      "What": 4084,
      "atural": 4085,
      "typ": 4086,
      "ordin": 4087,
      "\\,": 4088,
      "IZE": 4089,
      "ĠCreate": 4090,
      "Empty": 4091,
      "Ġecon": 4092,
      "aged": 4093,
      "bor": 4094,
      "Ġroot": 4095,
      "Hash": 4096,
      "debug": 4097,
      "Font": 4098,
      "\"))": 4099,
      "Ġstructure": 4100,
      "icrosoft": 4101,
      ".$": 4102,
      "Range": 4103,
      "Ġhappen": 4104,
      "drop": 4105,
      "resource": 4106,
      "ĠLondon": 4107,
      "Script": 4108,
      "ĠAfr": 4109,
      "Ġfall": 4110,
      "ĠPe": 4111,
      "Ġmultiple": 4112,
      "Ġtreat": 4113,
      "Ġbi": 4114,
      "Open": 4115,
      "orem": 4116,
      "Ġbar": 4117,
      "ades": 4118,
      "Module": 4119,
      "Ġremove": 4120,
      "ĠBritish": 4121,
      "ĠRed": 4122,
      "Ġwent": 4123,
      "Ġ*)": 4124,
      "ctx": 4125,
      "groupId": 4126,
      "modal": 4127,
      "BC": 4128,
      "like": 4129,
      "Ġshare": 4130,
      "ald": 4131,
      "Ġvarious": 4132,
      "Ġinf": 4133,
      "Enc": 4134,
      "Ġnews": 4135,
      "Ġactiv": 4136,
      "Ġpur": 4137,
      "Ġneg": 4138,
      "Ġunderstand": 4139,
      "Ġsuff": 4140,
      "Ã³": 4141,
      "Dep": 4142,
      "Ġsing": 4143,
      "oose": 4144,
      "\"));": 4145,
      "oded": 4146,
      "ĠEast": 4147,
      "lice": 4148,
      "Params": 4149,
      "device": 4150,
      "ua": 4151,
      "Ġactually": 4152,
      "Ġdeal": 4153,
      "Settings": 4154,
      "illed": 4155,
      "Ġwebs": 4156,
      "icient": 4157,
      "ĠDon": 4158,
      "ris": 4159,
      "None": 4160,
      "Ġcontains": 4161,
      "ĠAcc": 4162,
      "ese": 4163,
      "icles": 4164,
      "Serial": 4165,
      "95": 4166,
      "UB": 4167,
      "Ġcenter": 4168,
      "prop": 4169,
      "values": 4170,
      "Ġcross": 4171,
      "stylesheet": 4172,
      "ĠPresident": 4173,
      "Ġdecl": 4174,
      "Ġtim": 4175,
      "break": 4176,
      "Ġagre": 4177,
      "{{": 4178,
      "ĠSw": 4179,
      "Ġvert": 4180,
      "ael": 4181,
      "conf": 4182,
      "Ġengine": 4183,
      "entity": 4184,
      "ĠAssert": 4185,
      "Copy": 4186,
      "Ġgroups": 4187,
      "():": 4188,
      "Ġlower": 4189,
      "acters": 4190,
      "2020": 4191,
      "ĠAmerica": 4192,
      "achine": 4193,
      "sq": 4194,
      "files": 4195,
      "yd": 4196,
      "Ġphot": 4197,
      "oon": 4198,
      "Ġpack": 4199,
      "urb": 4200,
      "Ġfilename": 4201,
      "Ġdoc": 4202,
      "ĠÃ": 4203,
      "Ġsimple": 4204,
      "Ġtele": 4205,
      "vention": 4206,
      "ĠDist": 4207,
      "thon": 4208,
      "Ġfunctions": 4209,
      "ĠWhat": 4210,
      "Ġtaken": 4211,
      "rench": 4212,
      "uel": 4213,
      "ategy": 4214,
      "CL": 4215,
      "ĠEnglish": 4216,
      "ECT": 4217,
      "ALL": 4218,
      "ĠInternational": 4219,
      "ĠMich": 4220,
      "Ġ>=": 4221,
      "PECT": 4222,
      "ford": 4223,
      "77": 4224,
      "Ġ``": 4225,
      ":(": 4226,
      "Ġattempt": 4227,
      "Ġrender": 4228,
      "ĠSk": 4229,
      "Ġopp": 4230,
      "2004": 4231,
      "models": 4232,
      "unt": 4233,
      "anagement": 4234,
      "ĠUR": 4235,
      "ips": 4236,
      "Local": 4237,
      "ORT": 4238,
      "Ġnames": 4239,
      "Ġrespons": 4240,
      "Ġaccording": 4241,
      "Ġrunning": 4242,
      ".)": 4243,
      "Const": 4244,
      "Ġcomplex": 4245,
      "500": 4246,
      "HO": 4247,
      "Ġflow": 4248,
      "hash": 4249,
      "Current": 4250,
      "Ġparams": 4251,
      "Inst": 4252,
      "Ġlim": 4253,
      "Ġexception": 4254,
      "ĠSub": 4255,
      "agment": 4256,
      "uge": 4257,
      "Option": 4258,
      "Ġrate": 4259,
      "nap": 4260,
      "Ġneeds": 4261,
      "Ġsurv": 4262,
      "Ġsystems": 4263,
      "Port": 4264,
      "Ġquestion": 4265,
      "ĠRE": 4266,
      "Ġappear": 4267,
      "ĠEm": 4268,
      "When": 4269,
      "maz": 4270,
      "tim": 4271,
      "bin": 4272,
      "rics": 4273,
      "ĠGroup": 4274,
      "=\"_": 4275,
      "Ġsuccessful": 4276,
      "tries": 4277,
      "ACK": 4278,
      "Do": 4279,
      "andid": 4280,
      "sign": 4281,
      "eature": 4282,
      "Operation": 4283,
      "Ġexpress": 4284,
      "ĠAc": 4285,
      "erefore": 4286,
      "eqn": 4287,
      "rief": 4288,
      "Document": 4289,
      "istics": 4290,
      "ĠDE": 4291,
      "ugins": 4292,
      "Ġproduction": 4293,
      "41": 4294,
      "cs": 4295,
      "Record": 4296,
      "Ġmarket": 4297,
      "Ġunit": 4298,
      "43": 4299,
      "ĠJapan": 4300,
      "Expression": 4301,
      "Ġactive": 4302,
      "Ġdetails": 4303,
      "unn": 4304,
      "Ġface": 4305,
      "Change": 4306,
      "Ġwait": 4307,
      "chan": 4308,
      "Ġoverride": 4309,
      "oom": 4310,
      "Ġentire": 4311,
      "Ġdescribed": 4312,
      "?:": 4313,
      "Ġpadding": 4314,
      "ĠOut": 4315,
      "ĠWilli": 4316,
      "cr": 4317,
      "anced": 4318,
      "ube": 4319,
      "Ġpercent": 4320,
      "TI": 4321,
      "ico": 4322,
      "Ġcontrib": 4323,
      "Description": 4324,
      ")]": 4325,
      "Ġrather": 4326,
      "Mat": 4327,
      "Ġfire": 4328,
      "Ġdig": 4329,
      "Ġselected": 4330,
      "border": 4331,
      "OM": 4332,
      "Ġhold": 4333,
      "Ġcomponent": 4334,
      "oder": 4335,
      "ĠSan": 4336,
      "DIR": 4337,
      "Ġinfl": 4338,
      "kind": 4339,
      "avor": 4340,
      "fs": 4341,
      "Ġhowever": 4342,
      "Kind": 4343,
      "cdot": 4344,
      "Ptr": 4345,
      "just": 4346,
      "Co": 4347,
      "Ġround": 4348,
      "arks": 4349,
      "ilitary": 4350,
      "ociety": 4351,
      "alle": 4352,
      "issions": 4353,
      "Ġtransform": 4354,
      "yes": 4355,
      "Ġbad": 4356,
      "msg": 4357,
      "Ġsort": 4358,
      "Ġlearn": 4359,
      "Ġempty": 4360,
      "SO": 4361,
      "psi": 4362,
      "utor": 4363,
      "Ġmor": 4364,
      ";->": 4365,
      "Project": 4366,
      "dist": 4367,
      "gorithm": 4368,
      "TER": 4369,
      "Ġhandle": 4370,
      "Ġsolid": 4371,
      "apped": 4372,
      "Ġcases": 4373,
      "Ġpublished": 4374,
      "Ġcareer": 4375,
      "}[": 4376,
      "Ġbegan": 4377,
      "Ġroom": 4378,
      "epsilon": 4379,
      "images": 4380,
      "address": 4381,
      "airs": 4382,
      "Ġcomment": 4383,
      "izes": 4384,
      "gn": 4385,
      "Ġtemplate": 4386,
      "Ġapplic": 4387,
      "Ġstates": 4388,
      "Br": 4389,
      "Ġcomplete": 4390,
      "skip": 4391,
      "Ġpolicy": 4392,
      "ĠEl": 4393,
      "ursor": 4394,
      "Go": 4395,
      "NavBar": 4396,
      "aur": 4397,
      "ĠMore": 4398,
      "ĠHer": 4399,
      "ĠUs": 4400,
      "background": 4401,
      "Stat": 4402,
      "Integer": 4403,
      "Session": 4404,
      "isf": 4405,
      "Ġrights": 4406,
      "Reference": 4407,
      "Ġ\"\\": 4408,
      "ws": 4409,
      "ĠException": 4410,
      "CD": 4411,
      "Ġfront": 4412,
      "sy": 4413,
      "Ġconditions": 4414,
      "Ġtraining": 4415,
      "Ġcut": 4416,
      "docs": 4417,
      "erg": 4418,
      "Ġscale": 4419,
      "Ġneeded": 4420,
      "foo": 4421,
      "ka": 4422,
      "Ġadmin": 4423,
      "Ġwr": 4424,
      "interface": 4425,
      "Rel": 4426,
      "cape": 4427,
      "render": 4428,
      "stry": 4429,
      "Ġdat": 4430,
      "2001": 4431,
      "ĠDem": 4432,
      "command": 4433,
      "Ġnecess": 4434,
      "Ġaddition": 4435,
      "ĠST": 4436,
      "Ġinfo": 4437,
      "ĠRef": 4438,
      "Ġanalysis": 4439,
      "rs": 4440,
      "ĠPhil": 4441,
      "}_{\\": 4442,
      "anger": 4443,
      "amera": 4444,
      "Render": 4445,
      "grad": 4446,
      "Ġpopulation": 4447,
      "Ġliter": 4448,
      "witter": 4449,
      "Properties": 4450,
      "Op": 4451,
      "auth": 4452,
      "Ġsend": 4453,
      "Ġiter": 4454,
      "WE": 4455,
      "Ġhash": 4456,
      "ĠOR": 4457,
      "ĠBG": 4458,
      "Ġhigher": 4459,
      "Ġ~": 4460,
      "Ġmonths": 4461,
      "oggle": 4462,
      "Schema": 4463,
      "Pe": 4464,
      "Ġmoney": 4465,
      "coming": 4466,
      "Ġhom": 4467,
      "Ġwhite": 4468,
      "Ġfailed": 4469,
      "ĠCour": 4470,
      "Ġground": 4471,
      "Ð°Ð": 4472,
      "Ġregister": 4473,
      "before": 4474,
      "ä¸": 4475,
      "tion": 4476,
      "ixt": 4477,
      "ĠIr": 4478,
      "ĠCollege": 4479,
      "Ġattribute": 4480,
      "Ġcapt": 4481,
      "85": 4482,
      "Ġscope": 4483,
      "Store": 4484,
      "Ġarguments": 4485,
      "Match": 4486,
      "Ġadditional": 4487,
      "PR": 4488,
      "rupt": 4489,
      "itte": 4490,
      "ellow": 4491,
      "ully": 4492,
      "Impl": 4493,
      "astic": 4494,
      "Ġbehav": 4495,
      "Menu": 4496,
      "asc": 4497,
      "Big": 4498,
      "ervices": 4499,
      "Ġprior": 4500,
      "atory": 4501,
      "Vari": 4502,
      "iles": 4503,
      "ara": 4504,
      "MO": 4505,
      "Ġissue": 4506,
      "elt": 4507,
      "Ġsession": 4508,
      "iforn": 4509,
      "ĠDi": 4510,
      "Ġtold": 4511,
      "Ġautom": 4512,
      "}/": 4513,
      "ounter": 4514,
      "make": 4515,
      "delete": 4516,
      "ĠSm": 4517,
      "Async": 4518,
      "clear": 4519,
      "ula": 4520,
      "ria": 4521,
      "orizont": 4522,
      "ĠCheck": 4523,
      "Ġgrad": 4524,
      "Po": 4525,
      "lood": 4526,
      "Helper": 4527,
      "Ġsoftware": 4528,
      "duc": 4529,
      "transform": 4530,
      "ĠLeague": 4531,
      "Ġcompan": 4532,
      "copy": 4533,
      "Ġge": 4534,
      "zz": 4535,
      "ĠMod": 4536,
      "Ġcollect": 4537,
      "Ġcorrect": 4538,
      "ican": 4539,
      "ĠEXPECT": 4540,
      "Sim": 4541,
      "Left": 4542,
      "orge": 4543,
      "Ġcred": 4544,
      "Ġ['": 4545,
      "erve": 4546,
      "aching": 4547,
      "Prot": 4548,
      "Bl": 4549,
      "So": 4550,
      "Ġincludes": 4551,
      "ictionary": 4552,
      "Ġsem": 4553,
      "uses": 4554,
      "card": 4555,
      "Down": 4556,
      "Order": 4557,
      "Ġconsidered": 4558,
      "icker": 4559,
      "ependent": 4560,
      "quare": 4561,
      "stack": 4562,
      "Ġmemory": 4563,
      "ensity": 4564,
      "join": 4565,
      "rip": 4566,
      "elegate": 4567,
      "ounced": 4568,
      "Ġalmost": 4569,
      "scri": 4570,
      "Mon": 4571,
      "Ġwriting": 4572,
      "elling": 4573,
      "Ġcurrently": 4574,
      "Ġeval": 4575,
      "97": 4576,
      "ĠUK": 4577,
      "internal": 4578,
      "Ġpers": 4579,
      "Ġnov": 4580,
      "Ġchall": 4581,
      "ĠFirst": 4582,
      "ĠCenter": 4583,
      "Ġpolitical": 4584,
      "ÃŃ": 4585,
      "ifornia": 4586,
      "BO": 4587,
      "scale": 4588,
      "Ġstore": 4589,
      "Ġfight": 4590,
      "aid": 4591,
      "hing": 4592,
      "255": 4593,
      "Ġexcept": 4594,
      "Ġwhole": 4595,
      "Ġago": 4596,
      "Ġ;": 4597,
      "Ġloss": 4598,
      "Ġconfiguration": 4599,
      "abs": 4600,
      "ĠFrom": 4601,
      "tty": 4602,
      "Om": 4603,
      "olume": 4604,
      "send": 4605,
      "Ġweb": 4606,
      "57": 4607,
      "win": 4608,
      "Ġlines": 4609,
      "Ġprop": 4610,
      "Ġparticip": 4611,
      "(:": 4612,
      "Pass": 4613,
      "vm": 4614,
      "nes": 4615,
      "split": 4616,
      "EQ": 4617,
      "SA": 4618,
      "Ġswitch": 4619,
      "ĠThen": 4620,
      "Sign": 4621,
      "omb": 4622,
      "2003": 4623,
      "Ġreported": 4624,
      "cp": 4625,
      "Ġcharacters": 4626,
      "anks": 4627,
      "Ġhit": 4628,
      "ĠService": 4629,
      "Ġelection": 4630,
      "Ġlocated": 4631,
      "Ġrandom": 4632,
      "================================": 4633,
      "ĠHol": 4634,
      "Ġclub": 4635,
      "ĠIndia": 4636,
      "pop": 4637,
      "Ġdraw": 4638,
      "Ġmeasure": 4639,
      "Ġmoment": 4640,
      "aught": 4641,
      "Ġtax": 4642,
      "ĉĉĊ": 4643,
      "Ġobjects": 4644,
      "Ġitself": 4645,
      "alled": 4646,
      "Parameters": 4647,
      "nected": 4648,
      "Ġwatch": 4649,
      "Ġrelated": 4650,
      "ociation": 4651,
      "toString": 4652,
      "ĠĠĠĠĠĠĠĠĠĠĠĠĠĠĠĠĠĠĠĠĠĠĠĠĠĠĠĠĠĠĠĠĠĠĠĠĠĠĠ": 4653,
      "orizontal": 4654,
      "ming": 4655,
      "Ġcomes": 4656,
      "Ġconsum": 4657,
      "greg": 4658,
      "ads": 4659,
      "My": 4660,
      "inn": 4661,
      "second": 4662,
      "dest": 4663,
      "Ġscreen": 4664,
      "Sk": 4665,
      "Ġgraph": 4666,
      "env": 4667,
      "footer": 4668,
      "Ġaverage": 4669,
      "Ġissues": 4670,
      "ĠLaw": 4671,
      "Ġfood": 4672,
      "}}\\": 4673,
      "Names": 4674,
      "Ġign": 4675,
      "RA": 4676,
      "INE": 4677,
      "Ġunique": 4678,
      "hood": 4679,
      "Ġword": 4680,
      "ynamic": 4681,
      "iation": 4682,
      "ĠBGCOLOR": 4683,
      "access": 4684,
      "webkit": 4685,
      "Iter": 4686,
      "ĠWork": 4687,
      "icult": 4688,
      "itect": 4689,
      "Ġwords": 4690,
      "'m": 4691,
      "uri": 4692,
      "Ġjav": 4693,
      "erved": 4694,
      "Ġill": 4695,
      "Ġwebsite": 4696,
      "Ġdoing": 4697,
      "ĠDec": 4698,
      "Ġviol": 4699,
      "Pos": 4700,
      "Ġach": 4701,
      "Can": 4702,
      "Ġtakes": 4703,
      "Ġtoken": 4704,
      "Dir": 4705,
      "endar": 4706,
      "CA": 4707,
      "click": 4708,
      "Ġexpression": 4709,
      "igr": 4710,
      "Ġdescription": 4711,
      "'>": 4712,
      "ledge": 4713,
      "ĠOpen": 4714,
      "Host": 4715,
      "'],": 4716,
      "87": 4717,
      "ado": 4718,
      "Ġpaper": 4719,
      "ensive": 4720,
      "export": 4721,
      "circ": 4722,
      "widget": 4723,
      "uit": 4724,
      "ĠII": 4725,
      "Ġlooking": 4726,
      "CP": 4727,
      "Ġforce": 4728,
      "ĠStud": 4729,
      "estamp": 4730,
      "icture": 4731,
      "Ġselection": 4732,
      "Stack": 4733,
      "types": 4734,
      "equals": 4735,
      "Ge": 4736,
      "ERROR": 4737,
      "Ġargument": 4738,
      "Tim": 4739,
      "Template": 4740,
      "ĠSen": 4741,
      "Ġimprov": 4742,
      "plete": 4743,
      "wide": 4744,
      "elves": 4745,
      "ivil": 4746,
      "asic": 4747,
      "ĠPre": 4748,
      "media": 4749,
      "Title": 4750,
      "Ġquant": 4751,
      "Exp": 4752,
      ")$.": 4753,
      "session": 4754,
      "pg": 4755,
      "den": 4756,
      "Ġparty": 4757,
      "mode": 4758,
      "SL": 4759,
      "ATA": 4760,
      "Use": 4761,
      "Ġactual": 4762,
      "iday": 4763,
      "Ġdeep": 4764,
      "textbf": 4765,
      "ĠJust": 4766,
      "ĠTime": 4767,
      "ĠTV": 4768,
      "ĠErr": 4769,
      "Ġtaking": 4770,
      "Ġconv": 4771,
      "Ġbehind": 4772,
      "system": 4773,
      "ORD": 4774,
      "ĠGoogle": 4775,
      "GET": 4776,
      "Ġnamespace": 4777,
      "bootstrap": 4778,
      "atives": 4779,
      "_;": 4780,
      "atur": 4781,
      "Ġss": 4782,
      "Application": 4783,
      "yntax": 4784,
      "illing": 4785,
      "pecially": 4786,
      "bb": 4787,
      "Ġinternational": 4788,
      "URE": 4789,
      "hover": 4790,
      "oring": 4791,
      "Ġusers": 4792,
      "ĠCON": 4793,
      "Ġ(\"": 4794,
      "BA": 4795,
      "Ġtree": 4796,
      "Handle": 4797,
      "ota": 4798,
      "&#": 4799,
      "bm": 4800,
      "Tool": 4801,
      "Ġstation": 4802,
      "Ġconsist": 4803,
      "Ġwor": 4804,
      "Ġundefined": 4805,
      "96": 4806,
      "DD": 4807,
      "Ġforward": 4808,
      "ĠDavid": 4809,
      "Ġcache": 4810,
      "86": 4811,
      "Ġcondition": 4812,
      "Ġsecurity": 4813,
      "=\"/": 4814,
      "Ġfollows": 4815,
      "Ġwalk": 4816,
      "ĠTHE": 4817,
      "ĠTrump": 4818,
      "then": 4819,
      "avy": 4820,
      "Invalid": 4821,
      "Ġpassed": 4822,
      "Ġvill": 4823,
      "Ġpersonal": 4824,
      "Xml": 4825,
      "Ġconstant": 4826,
      "oundation": 4827,
      "Right": 4828,
      "Ġrecogn": 4829,
      "iqu": 4830,
      "omy": 4831,
      "###": 4832,
      "Americ": 4833,
      "ponents": 4834,
      "inding": 4835,
      "Ġapproach": 4836,
      "(*": 4837,
      "Ġdistribution": 4838,
      "vas": 4839,
      "Ġregular": 4840,
      "ĠDirect": 4841,
      "han": 4842,
      "Ġuses": 4843,
      "ĠCr": 4844,
      "ĠName": 4845,
      "={": 4846,
      "ĠAL": 4847,
      "ampionship": 4848,
      "Device": 4849,
      "Ġrecent": 4850,
      "Assert": 4851,
      "ĠPat": 4852,
      "Head": 4853,
      "ĠNor": 4854,
      "Ġsex": 4855,
      "Ġallowed": 4856,
      "chi": 4857,
      "Args": 4858,
      "weight": 4859,
      "plugin": 4860,
      "Let": 4861,
      "Ġfriend": 4862,
      "Ġoperator": 4863,
      "Ġprovides": 4864,
      "But": 4865,
      "ycle": 4866,
      "Ġparse": 4867,
      "Ġdelete": 4868,
      "ĠĠĠĠĠĠĠĠĠĠĠĠĠĠĠĠĠĠĠĠ": 4869,
      "Ġecho": 4870,
      "icons": 4871,
      "site": 4872,
      "OK": 4873,
      "Gamma": 4874,
      "AND": 4875,
      "Ġpattern": 4876,
      "ancial": 4877,
      "SET": 4878,
      "Ġspect": 4879,
      "Ġthread": 4880,
      "arter": 4881,
      "Reader": 4882,
      "Ġsound": 4883,
      "born": 4884,
      "Ġgetting": 4885,
      "^*": 4886,
      "ĠStreet": 4887,
      "vents": 4888,
      "more": 4889,
      "Non": 4890,
      "56": 4891,
      "ĠRepublic": 4892,
      "Mult": 4893,
      ">.": 4894,
      "Ġpick": 4895,
      "ĠNe": 4896,
      "Ġwhose": 4897,
      "Ġnothing": 4898,
      "anges": 4899,
      "cat": 4900,
      "fg": 4901,
      "Parser": 4902,
      "ĠEnd": 4903,
      "store": 4904,
      "vector": 4905,
      "custom": 4906,
      "EM": 4907,
      "global": 4908,
      "Values": 4909,
      "cert": 4910,
      "lands": 4911,
      "Le": 4912,
      "Ġstand": 4913,
      "|-": 4914,
      "direct": 4915,
      "Ġlikely": 4916,
      "rote": 4917,
      "handle": 4918,
      "disabled": 4919,
      "afe": 4920,
      "ĠMap": 4921,
      "Vert": 4922,
      "Classes": 4923,
      "ida": 4924,
      "sqrt": 4925,
      "Ġsolution": 4926,
      "oe": 4927,
      "Ġbring": 4928,
      "ĠSome": 4929,
      "ynch": 4930,
      "Ġexact": 4931,
      "hr": 4932,
      "Parent": 4933,
      "Ġinline": 4934,
      "quired": 4935,
      "Omega": 4936,
      "ĠCalifornia": 4937,
      "Ġareas": 4938,
      "wner": 4939,
      "Ġitems": 4940,
      "Ġcontainer": 4941,
      "Ġimm": 4942,
      "ĠIS": 4943,
      "aints": 4944,
      "Ġestablished": 4945,
      ">();": 4946,
      "Rev": 4947,
      "Ġpresident": 4948,
      "subsection": 4949,
      "Core": 4950,
      "exports": 4951,
      "mission": 4952,
      "Ġgre": 4953,
      "fony": 4954,
      "ooks": 4955,
      "Ġsym": 4956,
      "!!": 4957,
      "Vector": 4958,
      "ĠPort": 4959,
      "Ġvot": 4960,
      "'ve": 4961,
      "CS": 4962,
      "Ġson": 4963,
      "ĠBlack": 4964,
      "cover": 4965,
      "Ġarticle": 4966,
      "Ġrelationship": 4967,
      "Me": 4968,
      "edit": 4969,
      "---": 4970,
      "req": 4971,
      "Ġled": 4972,
      "Ġindustry": 4973,
      "ĠCre": 4974,
      "ĠDate": 4975,
      "Ġcontact": 4976,
      "ORM": 4977,
      "allow": 4978,
      "Ġupon": 4979,
      "False": 4980,
      "Ġlib": 4981,
      "ymfony": 4982,
      "2002": 4983,
      "ĠLet": 4984,
      "Ġonline": 4985,
      "Rect": 4986,
      "ĠRead": 4987,
      "Ġlost": 4988,
      "eqnarray": 4989,
      "59": 4990,
      "ĠDay": 4991,
      "useum": 4992,
      "Ġdatabase": 4993,
      "Ġoutside": 4994,
      "ĠTrue": 4995,
      "Ġquick": 4996,
      "replace": 4997,
      "irit": 4998,
      "Ġfilms": 4999,
      "Ġsetting": 5000,
      "jo": 5001,
      "Ġplatform": 5002,
      "Track": 5003,
      "lor": 5004,
      "psilon": 5005,
      "Ġhours": 5006,
      "Ġfrequ": 5007,
      "anning": 5008,
      "Ġmaint": 5009,
      "ĠPublic": 5010,
      "erry": 5011,
      "vec": 5012,
      "parameter": 5013,
      "Has": 5014,
      "DF": 5015,
      "ĠGeneral": 5016,
      "Ġregard": 5017,
      "Ġchanged": 5018,
      "ATH": 5019,
      "PL": 5020,
      "cial": 5021,
      "Are": 5022,
      "itude": 5023,
      "Icon": 5024,
      "Ġmatrix": 5025,
      "Ġstage": 5026,
      "connect": 5027,
      "itch": 5028,
      "sql": 5029,
      "enced": 5030,
      "ds": 5031,
      "ĠPal": 5032,
      "Ġprofession": 5033,
      "oader": 5034,
      "Ġ})": 5035,
      "Ġcompanies": 5036,
      "Eng": 5037,
      "Ġanything": 5038,
      "wood": 5039,
      "Ġcampaign": 5040,
      "Ġbyte": 5041,
      "Ġprote": 5042,
      "Ġbenef": 5043,
      "cloud": 5044,
      "Build": 5045,
      "exception": 5046,
      "----------------------------------------------------------------": 5047,
      "`.": 5048,
      "Ġnumer": 5049,
      "Ġbutton": 5050,
      "Que": 5051,
      "help": 5052,
      "ĠFrench": 5053,
      "Ġheader": 5054,
      "room": 5055,
      "perature": 5056,
      "Ġraise": 5057,
      "Click": 5058,
      "Ġscript": 5059,
      "success": 5060,
      "Api": 5061,
      "material": 5062,
      "89": 5063,
      "ĠCouncil": 5064,
      "ĠIndian": 5065,
      "Ġcontract": 5066,
      "Ġdefine": 5067,
      "ĠAnt": 5068,
      "Argument": 5069,
      "Bytes": 5070,
      "Ġsupported": 5071,
      "ĠLoc": 5072,
      "Ġsus": 5073,
      "Ġmot": 5074,
      "Ġmanagement": 5075,
      "Ã¼": 5076,
      "-->": 5077,
      "Ġinc": 5078,
      "hem": 5079,
      "edef": 5080,
      "Ġsets": 5081,
      "Ġmind": 5082,
      "ership": 5083,
      "settings": 5084,
      "Ġheart": 5085,
      "Ġepis": 5086,
      "Debug": 5087,
      "ago": 5088,
      "jection": 5089,
      "GE": 5090,
      "Ġeffort": 5091,
      "Ġhistor": 5092,
      "ctor": 5093,
      "ĠJSON": 5094,
      "dependency": 5095,
      "ali": 5096,
      "di": 5097,
      "ping": 5098,
      "Writer": 5099,
      "Ġprogress": 5100,
      "zer": 5101,
      "ĠPost": 5102,
      "Ġpopular": 5103,
      "MM": 5104,
      "ped": 5105,
      "ĠLO": 5106,
      "Dom": 5107,
      "Long": 5108,
      "Ġalt": 5109,
      "focus": 5110,
      "force": 5111,
      "after": 5112,
      "PS": 5113,
      "Ġconnect": 5114,
      "ĠMat": 5115,
      "ĠRun": 5116,
      "Ġhon": 5117,
      "TS": 5118,
      "Ġspecies": 5119,
      "ĠPaul": 5120,
      "Ġ'/": 5121,
      "fil": 5122,
      "Ġgenerated": 5123,
      "Ġ${\\": 5124,
      "ĠAustralia": 5125,
      "Ġcentury": 5126,
      "aches": 5127,
      "argument": 5128,
      "Num": 5129,
      "ittee": 5130,
      "SION": 5131,
      "bon": 5132,
      "Mar": 5133,
      "Ġinside": 5134,
      "ĠForm": 5135,
      "Ġopport": 5136,
      "Ġchannel": 5137,
      "ĠHealth": 5138,
      "framework": 5139,
      "boolean": 5140,
      "del": 5141,
      "utive": 5142,
      "Ġtechnology": 5143,
      "Draw": 5144,
      "raz": 5145,
      "ĠBen": 5146,
      "virtual": 5147,
      "ios": 5148,
      "Tests": 5149,
      "irl": 5150,
      "Enabled": 5151,
      "Ġscal": 5152,
      "gu": 5153,
      "Ġvict": 5154,
      "very": 5155,
      "stitute": 5156,
      "iform": 5157,
      "icate": 5158,
      "Ġcalcul": 5159,
      "panel": 5160,
      "Ġsold": 5161,
      "Ġbytes": 5162,
      "Ġunsigned": 5163,
      "Ġhot": 5164,
      "aset": 5165,
      "joy": 5166,
      "recated": 5167,
      "ĠMet": 5168,
      "ĠChina": 5169,
      "}\"": 5170,
      "Ġtransaction": 5171,
      "Ġprobably": 5172,
      "Ver": 5173,
      "admin": 5174,
      "Policy": 5175,
      "aws": 5176,
      "Ġansw": 5177,
      "END": 5178,
      "ĉĠ": 5179,
      "ya": 5180,
      "ĠEar": 5181,
      "fn": 5182,
      "Ġidea": 5183,
      "Ġsatisf": 5184,
      "aily": 5185,
      "normal": 5186,
      "ĠJames": 5187,
      "De": 5188,
      "Ġisn": 5189,
      "leep": 5190,
      "Ġinvoke": 5191,
      "plugins": 5192,
      "byte": 5193,
      "imated": 5194,
      "component": 5195,
      "Obj": 5196,
      "range": 5197,
      "ena": 5198,
      "300": 5199,
      "Ġos": 5200,
      "double": 5201,
      "cur": 5202,
      "annotation": 5203,
      "Ġinflu": 5204,
      "ros": 5205,
      "rd": 5206,
      "callback": 5207,
      "Ġfem": 5208,
      "uate": 5209,
      "etime": 5210,
      "had": 5211,
      "CR": 5212,
      "padding": 5213,
      "Ġassum": 5214,
      "58": 5215,
      "comes": 5216,
      "Ġannounced": 5217,
      "Ġrelative": 5218,
      "iting": 5219,
      ";<": 5220,
      "high": 5221,
      "ĠEngland": 5222,
      "Ġbroad": 5223,
      "Ġparts": 5224,
      "Ġvers": 5225,
      "apse": 5226,
      "Body": 5227,
      "Ġvariable": 5228,
      "1000": 5229,
      "legal": 5230,
      "egment": 5231,
      "emph": 5232,
      "^{(": 5233,
      "rapper": 5234,
      "Ġrule": 5235,
      "Ġhimself": 5236,
      "Ġ++": 5237,
      "straint": 5238,
      "blockList": 5239,
      "ĠĠĠĠĠĠĠĠĠĠĠĠĠĠĠĠĠĠ": 5240,
      "Ġaud": 5241,
      "coll": 5242,
      "Ġimpact": 5243,
      "Ġotherwise": 5244,
      "Decl": 5245,
      "mail": 5246,
      "Ġdirectly": 5247,
      "Ġweight": 5248,
      "pub": 5249,
      "Ġavoid": 5250,
      "under": 5251,
      "Metadata": 5252,
      "burg": 5253,
      "mas": 5254,
      "agon": 5255,
      "nov": 5256,
      "Ġpolice": 5257,
      ")$,": 5258,
      "Ġsil": 5259,
      "Delete": 5260,
      "Ġnet": 5261,
      "ĠHTML": 5262,
      "&&": 5263,
      "}^{\\": 5264,
      "'ll": 5265,
      "Ġexists": 5266,
      "PA": 5267,
      "Sl": 5268,
      "Ġpackage": 5269,
      "ashington": 5270,
      "Ġlonger": 5271,
      "ario": 5272,
      "Ġmid": 5273,
      "ĠInc": 5274,
      "ln": 5275,
      "Ã¤": 5276,
      "uple": 5277,
      "toggle": 5278,
      "sf": 5279,
      "ĠĠĠĠĠĠĊ": 5280,
      "Ġexisting": 5281,
      "ĠDepartment": 5282,
      "ncy": 5283,
      "Meta": 5284,
      "Ġapprox": 5285,
      "application": 5286,
      "Ġleading": 5287,
      "ĠSum": 5288,
      "oute": 5289,
      "Ġmatter": 5290,
      "ĠOf": 5291,
      "asons": 5292,
      "Ġdiscover": 5293,
      "Package": 5294,
      "PH": 5295,
      "ĠCanada": 5296,
      "ĠUse": 5297,
      "FAULT": 5298,
      "ĠRobert": 5299,
      "1999": 5300,
      "ulated": 5301,
      "ĠHel": 5302,
      "Net": 5303,
      "Boolean": 5304,
      "ĠKey": 5305,
      "Ġvector": 5306,
      "Byte": 5307,
      "Ġattr": 5308,
      "uby": 5309,
      "clude": 5310,
      "ining": 5311,
      "Ġsense": 5312,
      "Ġbelieve": 5313,
      "`,": 5314,
      "Ġsettings": 5315,
      "alls": 5316,
      "Ġjson": 5317,
      "het": 5318,
      "CTION": 5319,
      "Ap": 5320,
      "ĠArg": 5321,
      "enum": 5322,
      "incip": 5323,
      "Ġreading": 5324,
      "pite": 5325,
      "Ġstre": 5326,
      "Ġextra": 5327,
      "ĠGod": 5328,
      "Ġwrote": 5329,
      "aved": 5330,
      "ĠThom": 5331,
      "Job": 5332,
      "Cre": 5333,
      "protobuf": 5334,
      "PRE": 5335,
      "fill": 5336,
      "Red": 5337,
      "strict": 5338,
      "Ġresources": 5339,
      "Ġespecially": 5340,
      "Feature": 5341,
      "ĠEuropean": 5342,
      "Mock": 5343,
      "auto": 5344,
      "rome": 5345,
      "ifest": 5346,
      "cing": 5347,
      "Ġcast": 5348,
      "400": 5349,
      "ao": 5350,
      "term": 5351,
      "Ġfather": 5352,
      "Ġoperations": 5353,
      "'.": 5354,
      "ye": 5355,
      "ĠIO": 5356,
      "Ġdam": 5357,
      "ipe": 5358,
      "Ġfamil": 5359,
      "fect": 5360,
      "Ġdirectory": 5361,
      "ims": 5362,
      "Ġetc": 5363,
      "Ġseems": 5364,
      "register": 5365,
      "insert": 5366,
      "actor": 5367,
      "olar": 5368,
      "Ġ\"/": 5369,
      "agnost": 5370,
      "Dialog": 5371,
      "atio": 5372,
      "Ġcoming": 5373,
      "ĠassertEquals": 5374,
      "]]": 5375,
      "ederal": 5376,
      "Ġplaying": 5377,
      "Ġfun": 5378,
      "vare": 5379,
      "TED": 5380,
      "uous": 5381,
      "scal": 5382,
      "Doc": 5383,
      "Ġcouple": 5384,
      "rangle": 5385,
      "Ġlisten": 5386,
      "rian": 5387,
      "track": 5388,
      "hi": 5389,
      "elebr": 5390,
      "eek": 5391,
      "Ġpositive": 5392,
      "ĠMal": 5393,
      "pring": 5394,
      "Ġtrying": 5395,
      "IX": 5396,
      "ĠInst": 5397,
      "ying": 5398,
      "Ġdifficult": 5399,
      "Ġimmedi": 5400,
      "AGE": 5401,
      "Ġtro": 5402,
      "Ġrock": 5403,
      "ĠArch": 5404,
      "ees": 5405,
      "spital": 5406,
      "ĠValue": 5407,
      "(-": 5408,
      "51": 5409,
      "American": 5410,
      "orph": 5411,
      "Ġflo": 5412,
      "Ġincrease": 5413,
      "berg": 5414,
      "dot": 5415,
      "Root": 5416,
      "Ġtour": 5417,
      "coq": 5418,
      "Ġreve": 5419,
      "Cal": 5420,
      "Rule": 5421,
      "Ġnatural": 5422,
      "Ġcause": 5423,
      "76": 5424,
      "bert": 5425,
      "Ġallows": 5426,
      "Ġproducts": 5427,
      "ĠMath": 5428,
      ")=": 5429,
      "Ġsens": 5430,
      "iece": 5431,
      "__(": 5432,
      "Descriptor": 5433,
      "Ġmoved": 5434,
      "ailed": 5435,
      "Fields": 5436,
      "coin": 5437,
      "Storage": 5438,
      "MD": 5439,
      "ITY": 5440,
      "fort": 5441,
      "Ġsurface": 5442,
      "Ġprimary": 5443,
      "xis": 5444,
      "ĠRich": 5445,
      "ernel": 5446,
      "fields": 5447,
      "sort": 5448,
      "which": 5449,
      "category": 5450,
      "ĠNOT": 5451,
      "operator": 5452,
      "band": 5453,
      "SSERT": 5454,
      "ĠAut": 5455,
      "email": 5456,
      "Ġobtain": 5457,
      "Ġquality": 5458,
      "Ġeverything": 5459,
      "mock": 5460,
      "Ġworked": 5461,
      "ĠMr": 5462,
      "Ġfinally": 5463,
      "full": 5464,
      "Ġcontain": 5465,
      "ĠNow": 5466,
      "ifying": 5467,
      "Ġcandid": 5468,
      "eal": 5469,
      "Ġstar": 5470,
      "Ġgoal": 5471,
      "ĠDet": 5472,
      "ston": 5473,
      "ĠMart": 5474,
      "Ð»": 5475,
      "ci": 5476,
      "NE": 5477,
      "napsh": 5478,
      "Ġoffice": 5479,
      "\\\"": 5480,
      "ĠMag": 5481,
      "ĠMac": 5482,
      "free": 5483,
      "here": 5484,
      "Ġmsg": 5485,
      "Ġproblems": 5486,
      "iders": 5487,
      "Ġ<=": 5488,
      "romise": 5489,
      "connection": 5490,
      "holder": 5491,
      "Changed": 5492,
      "Custom": 5493,
      "Ġcontr": 5494,
      "language": 5495,
      "Ġproduced": 5496,
      "Ġimages": 5497,
      "cpp": 5498,
      "Ġclean": 5499,
      "'))": 5500,
      "car": 5501,
      "ĠOper": 5502,
      "Ġrot": 5503,
      "$(": 5504,
      "Ġquite": 5505,
      "Ġrisk": 5506,
      "ometry": 5507,
      "ĠCup": 5508,
      "antic": 5509,
      "2021": 5510,
      "Ġzero": 5511,
      "WS": 5512,
      "Each": 5513,
      "Ġabsol": 5514,
      "Ġrev": 5515,
      "ĠCons": 5516,
      "Ġapply": 5517,
      "Ġten": 5518,
      "Ġstatement": 5519,
      "Ġnote": 5520,
      "comment": 5521,
      "ville": 5522,
      "istr": 5523,
      "Ġ\\,": 5524,
      "=\"../../../": 5525,
      "ipeline": 5526,
      "Ġconstruct": 5527,
      "\"\"\"": 5528,
      "Ġconduct": 5529,
      "}=": 5530,
      "ĠBase": 5531,
      "Mark": 5532,
      "Ġsaw": 5533,
      "rightarrow": 5534,
      "ĠDan": 5535,
      "TEST": 5536,
      "Ġsave": 5537,
      "Show": 5538,
      "Ġborn": 5539,
      "ĠQue": 5540,
      "ODO": 5541,
      "Ġsequence": 5542,
      "Ġasked": 5543,
      "ĠRiver": 5544,
      "attribute": 5545,
      "Definition": 5546,
      "Ġhope": 5547,
      "inline": 5548,
      "ĠBel": 5549,
      "Ġemail": 5550,
      "Ġminutes": 5551,
      "ternet": 5552,
      "Ġneigh": 5553,
      "Ġ('": 5554,
      "ech": 5555,
      "Ġsimply": 5556,
      "Ġspeed": 5557,
      "Ġdied": 5558,
      "pare": 5559,
      "Ġnorth": 5560,
      "[\\": 5561,
      "{}": 5562,
      "Ġsomeone": 5563,
      "Ġserved": 5564,
      "mes": 5565,
      "rael": 5566,
      "Ġdistrict": 5567,
      "ĠJack": 5568,
      ".\\": 5569,
      "Ġliving": 5570,
      "ĠError": 5571,
      "Ġfit": 5572,
      "Man": 5573,
      "Ġsoon": 5574,
      "Ġjoin": 5575,
      "van": 5576,
      "ĠMor": 5577,
      "keys": 5578,
      "password": 5579,
      "Ġaward": 5580,
      "ĠUser": 5581,
      "istance": 5582,
      "54": 5583,
      "Ġeducation": 5584,
      "Ġconcern": 5585,
      "Ġpatients": 5586,
      "ĠDistrict": 5587,
      "Ġlock": 5588,
      "Ġtheory": 5589,
      "Ġnumbers": 5590,
      "Any": 5591,
      "Ġveh": 5592,
      "Ġapi": 5593,
      "iences": 5594,
      "varepsilon": 5595,
      "riate": 5596,
      "century": 5597,
      "ĠGerman": 5598,
      "Ġlevels": 5599,
      "Network": 5600,
      "Ġerrors": 5601,
      "Ġdirection": 5602,
      "ĠProject": 5603,
      "Ġjavax": 5604,
      "Ġdecision": 5605,
      "52": 5606,
      "ĠURL": 5607,
      "Ġmilitary": 5608,
      "illa": 5609,
      "GB": 5610,
      "egraphics": 5611,
      "Ġmaximum": 5612,
      "includegraphics": 5613,
      "ynchron": 5614,
      "Ġroad": 5615,
      "proof": 5616,
      "arp": 5617,
      "ĠHo": 5618,
      "HTML": 5619,
      "cmd": 5620,
      "Ġcorresponding": 5621,
      "ountry": 5622,
      "\")]": 5623,
      "Ġmeet": 5624,
      "real": 5625,
      "Ġinj": 5626,
      "Ġcells": 5627,
      "Ġdeveloped": 5628,
      "TC": 5629,
      "step": 5630,
      "ĠNote": 5631,
      "overline": 5632,
      "white": 5633,
      "Ġsymbol": 5634,
      "Ġnodes": 5635,
      "@\"": 5636,
      "Ġshall": 5637,
      "ĠMo": 5638,
      "Ġrepl": 5639,
      "Ġensure": 5640,
      "imately": 5641,
      "Ġclosed": 5642,
      "Ġrules": 5643,
      "plements": 5644,
      "Ġexpand": 5645,
      "}).": 5646,
      "keyword": 5647,
      "Ġjo": 5648,
      "ĠResearch": 5649,
      "Am": 5650,
      "History": 5651,
      "contrib": 5652,
      "Ins": 5653,
      "Ġlibrary": 5654,
      "ulate": 5655,
      "98": 5656,
      "Account": 5657,
      "Transaction": 5658,
      "ĠPy": 5659,
      "Ġ(*": 5660,
      "alysis": 5661,
      "items": 5662,
      "DI": 5663,
      "bound": 5664,
      "erc": 5665,
      "ĠMem": 5666,
      "addr": 5667,
      "Ñĥ": 5668,
      "inated": 5669,
      "Ġconvert": 5670,
      "arily": 5671,
      "ĠDefault": 5672,
      "NA": 5673,
      "Ġcompar": 5674,
      "cons": 5675,
      "Ġbal": 5676,
      "ĠMethod": 5677,
      "ĠOver": 5678,
      "ĠTechn": 5679,
      "Ġmechan": 5680,
      "Ġdemon": 5681,
      "Ġstaff": 5682,
      "bolds": 5683,
      "ixture": 5684,
      "oul": 5685,
      "Ġnecessary": 5686,
      "boldsymbol": 5687,
      "XX": 5688,
      "HECK": 5689,
      "ulations": 5690,
      "ĠĠĠĠĠĠĠĠĠĠĠĠĠĠĠĠĠĠĠĠĠĠĠĠĠ": 5691,
      "ĠMusic": 5692,
      "ĠCourt": 5693,
      "Ġwanted": 5694,
      "Display": 5695,
      "ested": 5696,
      "Ġrace": 5697,
      "ĠRoy": 5698,
      "Ġicon": 5699,
      "Ġeffects": 5700,
      "writ": 5701,
      "Only": 5702,
      "ĠCO": 5703,
      "Ġgets": 5704,
      "ĠEvent": 5705,
      "Di": 5706,
      "mselves": 5707,
      "ignment": 5708,
      "Ġinvolved": 5709,
      "ĠWashington": 5710,
      "Ġprec": 5711,
      "xx": 5712,
      "ieved": 5713,
      "Ġdead": 5714,
      "ĠDiv": 5715,
      "El": 5716,
      "Results": 5717,
      "JECT": 5718,
      "Ġtests": 5719,
      "ĠAre": 5720,
      "}),": 5721,
      "short": 5722,
      "icket": 5723,
      "KEY": 5724,
      "Ġthus": 5725,
      "Ġenjoy": 5726,
      "margin": 5727,
      "JSON": 5728,
      "Ġlearning": 5729,
      "Ġrecomm": 5730,
      "unsigned": 5731,
      "Edit": 5732,
      "ufact": 5733,
      "initial": 5734,
      "ĠNO": 5735,
      "53": 5736,
      "rial": 5737,
      "MENT": 5738,
      "Ġmanager": 5739,
      "Ret": 5740,
      "Ident": 5741,
      "Ġpredict": 5742,
      "Ġwoman": 5743,
      "Timeout": 5744,
      "product": 5745,
      "Ġboard": 5746,
      "estival": 5747,
      "*)": 5748,
      "ucket": 5749,
      "=\"@": 5750,
      "Lock": 5751,
      "Ġmodern": 5752,
      "geq": 5753,
      "ĠOb": 5754,
      "Ġreplace": 5755,
      "enge": 5756,
      "printf": 5757,
      "Ġess": 5758,
      "Ġdirector": 5759,
      "Ġoffic": 5760,
      "vant": 5761,
      "pay": 5762,
      "Ġmovie": 5763,
      "dule": 5764,
      "Channel": 5765,
      "Ġthemselves": 5766,
      "ker": 5767,
      "ĠRel": 5768,
      "ĠFil": 5769,
      "Ã¶": 5770,
      "apos": 5771,
      "ĠGreen": 5772,
      "SD": 5773,
      "ĠAng": 5774,
      "ini": 5775,
      "Ġeasy": 5776,
      "Ġâ": 5777,
      "Ġabs": 5778,
      "ĠCopy": 5779,
      "ĠMichael": 5780,
      "Ġjud": 5781,
      "Ġmock": 5782,
      "Ġwriter": 5783,
      "hest": 5784,
      "Ġhel": 5785,
      "Ġstarting": 5786,
      "Ġdistance": 5787,
      "inder": 5788,
      "Ġmention": 5789,
      "Lambda": 5790,
      "Widget": 5791,
      "Ġfixed": 5792,
      "install": 5793,
      "Ġedge": 5794,
      "dropdown": 5795,
      "region": 5796,
      "ookie": 5797,
      "Ġtransport": 5798,
      "Ġsouth": 5799,
      "Float": 5800,
      "Ġwallet": 5801,
      "Sum": 5802,
      "Scope": 5803,
      "FILE": 5804,
      "ander": 5805,
      "Ġhtml": 5806,
      "ein": 5807,
      "aled": 5808,
      "Tab": 5809,
      "ĠOther": 5810,
      "liance": 5811,
      "Ġtemperature": 5812,
      "important": 5813,
      "ĠPress": 5814,
      "Ġinstanceof": 5815,
      "BR": 5816,
      ";/": 5817,
      "ĠAN": 5818,
      "Ġrecently": 5819,
      "pers": 5820,
      "porary": 5821,
      "ĠWhile": 5822,
      "Active": 5823,
      "////////////////////////////////": 5824,
      "Ġgrowth": 5825,
      "Ġdesigned": 5826,
      "Ġcalls": 5827,
      "Ġcult": 5828,
      "ĠChurch": 5829,
      "ĠGerm": 5830,
      "herit": 5831,
      "Ġstack": 5832,
      "anguage": 5833,
      "gin": 5834,
      "Queue": 5835,
      "ĠParty": 5836,
      "graph": 5837,
      "ĠGeorge": 5838,
      "oub": 5839,
      "ems": 5840,
      "Database": 5841,
      "Ġpair": 5842,
      "Ġmount": 5843,
      "Ġbooks": 5844,
      "Ġobtained": 5845,
      "Ġtreatment": 5846,
      "Ġcountries": 5847,
      "grid": 5848,
      "acebook": 5849,
      "stat": 5850,
      "ĠWhite": 5851,
      "Ġeditor": 5852,
      "Ġreceive": 5853,
      "DA": 5854,
      "Ġshape": 5855,
      "=\"\"": 5856,
      "Ġserial": 5857,
      "Ġsaf": 5858,
      "She": 5859,
      "Now": 5860,
      "Ġwest": 5861,
      "Ġwrong": 5862,
      "82": 5863,
      "Ġcompos": 5864,
      "Bit": 5865,
      "Ġperformed": 5866,
      "ĠOur": 5867,
      "ĠCong": 5868,
      "west": 5869,
      "ĠLeg": 5870,
      "ĠAssociation": 5871,
      "lines": 5872,
      "Ġdb": 5873,
      "nab": 5874,
      "yr": 5875,
      "Ġstay": 5876,
      "Ġfeed": 5877,
      "Ġcourt": 5878,
      "Send": 5879,
      "IE": 5880,
      "Ġanaly": 5881,
      "iller": 5882,
      "ĠView": 5883,
      "ĠField": 5884,
      "Ġclasses": 5885,
      "Ġfast": 5886,
      "Ġtransfer": 5887,
      "Ġgives": 5888,
      "Ġconsole": 5889,
      "Ġcard": 5890,
      "ĠYear": 5891,
      "essor": 5892,
      "varphi": 5893,
      "Ðº": 5894,
      "that": 5895,
      "Ġaltern": 5896,
      "Ġevidence": 5897,
      "[:": 5898,
      "overnor": 5899,
      "Ġfriends": 5900,
      "hs": 5901,
      "atalog": 5902,
      "Ġlayer": 5903,
      "ĠBig": 5904,
      "ĠRoad": 5905,
      "Ac": 5906,
      "Ġbeaut": 5907,
      "ĠSince": 5908,
      "impl": 5909,
      "pute": 5910,
      "ĠIP": 5911,
      "ano": 5912,
      "FT": 5913,
      "utf": 5914,
      "usion": 5915,
      "Ġlatest": 5916,
      "evelopment": 5917,
      "feature": 5918,
      "Initial": 5919,
      "modules": 5920,
      "move": 5921,
      "olic": 5922,
      "dx": 5923,
      "isation": 5924,
      "Ġpain": 5925,
      "ĠSam": 5926,
      "Ġthroughout": 5927,
      "ixel": 5928,
      "Ġdistributed": 5929,
      "ĠLong": 5930,
      "za": 5931,
      "ĠDemocr": 5932,
      "TABLE": 5933,
      "Ġlinear": 5934,
      "ĠFrance": 5935,
      "Init": 5936,
      "gan": 5937,
      "urt": 5938,
      "stop": 5939,
      "spring": 5940,
      "IB": 5941,
      "Ġmother": 5942,
      "Ġtelevision": 5943,
      "Ġestablish": 5944,
      "Perm": 5945,
      "ĠAND": 5946,
      "hentication": 5947,
      "TEX": 5948,
      "Msg": 5949,
      "vest": 5950,
      "Member": 5951,
      "Ġ),": 5952,
      "Pub": 5953,
      "Ġcompared": 5954,
      "Ġslow": 5955,
      "_->": 5956,
      "======": 5957,
      "atively": 5958,
      "Ġactivity": 5959,
      "ancy": 5960,
      "ĠVAL": 5961,
      "Ġelem": 5962,
      "Ġdro": 5963,
      "Logger": 5964,
      "Extension": 5965,
      "lam": 5966,
      "outhern": 5967,
      "stats": 5968,
      "olver": 5969,
      "Ġir": 5970,
      "Ġcompleted": 5971,
      ".*": 5972,
      "ici": 5973,
      "alloc": 5974,
      "Ġhy": 5975,
      "Ġgave": 5976,
      "160": 5977,
      "Ġbtn": 5978,
      "aver": 5979,
      "idents": 5980,
      "84": 5981,
      "pool": 5982,
      "note": 5983,
      "thread": 5984,
      "More": 5985,
      "Ġshared": 5986,
      "Ġmus": 5987,
      "oma": 5988,
      "ĠScience": 5989,
      "ĠBuild": 5990,
      "256": 5991,
      "Ġextension": 5992,
      "Ġdefinition": 5993,
      "Ġpm": 5994,
      "Ġflag": 5995,
      "typeof": 5996,
      "(!": 5997,
      "shape": 5998,
      "(){": 5999,
      "},\\": 6000,
      "itar": 6001,
      "Ġcop": 6002,
      "ires": 6003,
      "jquery": 6004,
      "events": 6005,
      "uting": 6006,
      "lymp": 6007,
      "ĠText": 6008,
      "Ġleave": 6009,
      "Ġlarger": 6010,
      "dates": 6011,
      ".~\\": 6012,
      "election": 6013,
      "Ġconcept": 6014,
      "Ġusually": 6015,
      "Ġbottom": 6016,
      "assertEquals": 6017,
      "ARY": 6018,
      "Ġpretty": 6019,
      "ï¼": 6020,
      "Ġinvestig": 6021,
      "Ġtravel": 6022,
      ".}": 6023,
      "scroll": 6024,
      "sey": 6025,
      "ĠTom": 6026,
      "Ġdark": 6027,
      "numer": 6028,
      "ROM": 6029,
      "Ġcontaining": 6030,
      "Ġbirths": 6031,
      "istan": 6032,
      "none": 6033,
      "\">&": 6034,
      "Ġstudies": 6035,
      "ĠYour": 6036,
      "Ġ>>": 6037,
      "Ġbre": 6038,
      "Ġdomain": 6039,
      "1998": 6040,
      "Ġphase": 6041,
      "ĠProgram": 6042,
      "adian": 6043,
      ")^": 6044,
      "ĠAlex": 6045,
      "ango": 6046,
      "Ġcref": 6047,
      "ĠWilliam": 6048,
      "->_": 6049,
      "LOG": 6050,
      "cos": 6051,
      "mercial": 6052,
      "job": 6053,
      "ĠShow": 6054,
      "Ġmissing": 6055,
      "_,": 6056,
      "throws": 6057,
      "igration": 6058,
      "Ġfollowed": 6059,
      "Flags": 6060,
      "Ġrepe": 6061,
      "Ġbehavior": 6062,
      "ĠPo": 6063,
      "ĠTex": 6064,
      "çļ": 6065,
      "ancel": 6066,
      "Auth": 6067,
      "atically": 6068,
      "radius": 6069,
      "arts": 6070,
      "Ġcore": 6071,
      "asure": 6072,
      "ĠFalse": 6073,
      "pped": 6074,
      "Media": 6075,
      "VERSION": 6076,
      "72": 6077,
      "Ġexperiment": 6078,
      "Ġimplementation": 6079,
      "Ġvolume": 6080,
      "Ġcomponents": 6081,
      "Editor": 6082,
      "Ġcentral": 6083,
      "Ġmiddle": 6084,
      "frak": 6085,
      "Directory": 6086,
      "çļĦ": 6087,
      "sche": 6088,
      "Ġthreat": 6089,
      "ĠAward": 6090,
      "edy": 6091,
      "names": 6092,
      "isions": 6093,
      "Ġdescribe": 6094,
      "Symfony": 6095,
      "ĠCall": 6096,
      "PORT": 6097,
      "Support": 6098,
      "bi": 6099,
      "ifies": 6100,
      "collection": 6101,
      "ĉĉĉĊ": 6102,
      "mitted": 6103,
      "inese": 6104,
      "____": 6105,
      "controller": 6106,
      "Symbol": 6107,
      "icks": 6108,
      "Ġrespectively": 6109,
      "~~~~": 6110,
      "Ġdemonstr": 6111,
      "Ġnor": 6112,
      "EO": 6113,
      "Ġproposed": 6114,
      "()));": 6115,
      "Pool": 6116,
      "onder": 6117,
      "ĠLou": 6118,
      "Ġng": 6119,
      "Ġscen": 6120,
      "Ġcharg": 6121,
      "Ġteach": 6122,
      "tip": 6123,
      "ĠInstitute": 6124,
      "Ġeveryone": 6125,
      "ById": 6126,
      "ression": 6127,
      "ror": 6128,
      "asy": 6129,
      "Ġnovel": 6130,
      "Ġpy": 6131,
      "tsd": 6132,
      "Struct": 6133,
      ")))": 6134,
      "ĠCompany": 6135,
      "Ġstrict": 6136,
      "ĠDel": 6137,
      "napshot": 6138,
      "anner": 6139,
      "Items": 6140,
      "iate": 6141,
      "inger": 6142,
      "Ġkeys": 6143,
      "enter": 6144,
      "ĠBer": 6145,
      "ACE": 6146,
      "Ġindependent": 6147,
      "Security": 6148,
      "enses": 6149,
      "ĠJew": 6150,
      "ĠId": 6151,
      "Ġprevent": 6152,
      "assertEqual": 6153,
      "Ġmis": 6154,
      "Ġstorage": 6155,
      "Ġteams": 6156,
      "phone": 6157,
      "eve": 6158,
      "Ġsignal": 6159,
      "\",\"": 6160,
      "eries": 6161,
      "Ġrank": 6162,
      "Ġfavor": 6163,
      "primary": 6164,
      "Ġdifference": 6165,
      "Generic": 6166,
      "sample": 6167,
      "Ġang": 6168,
      "78": 6169,
      "ĠReview": 6170,
      "orter": 6171,
      "Ġstri": 6172,
      "save": 6173,
      "lyph": 6174,
      "scription": 6175,
      "Ġer": 6176,
      "Ġintegr": 6177,
      "ĠVer": 6178,
      ")));": 6179,
      "profile": 6180,
      "Ġprice": 6181,
      "Ġculture": 6182,
      "LP": 6183,
      "bal": 6184,
      "rot": 6185,
      "Ġproper": 6186,
      "record": 6187,
      "Ġways": 6188,
      "ĠFre": 6189,
      "Ġgoes": 6190,
      "LS": 6191,
      "assets": 6192,
      "Ġtransp": 6193,
      "schema": 6194,
      "Ġopened": 6195,
      "MAX": 6196,
      "ĠFin": 6197,
      "ĠBest": 6198,
      "áĥ": 6199,
      "Ġ[];": 6200,
      "Ġauth": 6201,
      "txt": 6202,
      "while": 6203,
      "Ġtowards": 6204,
      "Ġlegal": 6205,
      "Ġalloc": 6206,
      "clusion": 6207,
      "security": 6208,
      "ository": 6209,
      "iring": 6210,
      "ĠFranc": 6211,
      "ĠHere": 6212,
      "Internal": 6213,
      "pository": 6214,
      ".__": 6215,
      "mazon": 6216,
      "inate": 6217,
      "Ġphysical": 6218,
      "echo": 6219,
      "Ġ%}": 6220,
      "Ġhandler": 6221,
      "Ġremoved": 6222,
      "Ġconstruction": 6223,
      "plex": 6224,
      "FC": 6225,
      "Ġquestions": 6226,
      "wik": 6227,
      "ĠJer": 6228,
      "ĠAirport": 6229,
      "aine": 6230,
      "Ġste": 6231,
      "Ġtransition": 6232,
      "Ġsett": 6233,
      "Ġdegree": 6234,
      "hadoop": 6235,
      "Art": 6236,
      "Ġsn": 6237,
      "NotNull": 6238,
      "=\"\">": 6239,
      "UID": 6240,
      "Ġinterview": 6241,
      "izations": 6242,
      "well": 6243,
      "Ġcelebr": 6244,
      "]:": 6245,
      "Iterator": 6246,
      "MOD": 6247,
      "IMP": 6248,
      "Ġoptim": 6249,
      "Ġarchitect": 6250,
      "las": 6251,
      "Ljava": 6252,
      "men": 6253,
      "Ġroute": 6254,
      "ADD": 6255,
      "ĠAnn": 6256,
      "ĠAR": 6257,
      "Loader": 6258,
      "Ġfactor": 6259,
      "Ġsigned": 6260,
      "SIZE": 6261,
      "Ġgas": 6262,
      "Ġscene": 6263,
      "screen": 6264,
      "nce": 6265,
      "ona": 6266,
      "ius": 6267,
      "Ġfinancial": 6268,
      "inct": 6269,
      "ette": 6270,
      "EXT": 6271,
      "ĠBay": 6272,
      "ĠWindow": 6273,
      "prove": 6274,
      "Ġweeks": 6275,
      "ĠĠĠĠĠĠĠĠĠĠĠĠĠĠĠĠĠĠĠĠĠĠĠĠ": 6276,
      "ishing": 6277,
      "Ġeffective": 6278,
      "1990": 6279,
      "Ġdise": 6280,
      "Ġ[[": 6281,
      "Ġproof": 6282,
      "Ġalthough": 6283,
      "PATH": 6284,
      "Ġlack": 6285,
      "Google": 6286,
      "++;": 6287,
      "68": 6288,
      "Ġdeliver": 6289,
      "Var": 6290,
      "ĠCode": 6291,
      "iny": 6292,
      "Ġhum": 6293,
      "\"`": 6294,
      "Proxy": 6295,
      "ĠHall": 6296,
      "master": 6297,
      "Ġeast": 6298,
      "git": 6299,
      "othing": 6300,
      "ĠChampionship": 6301,
      "ĠVersion": 6302,
      "Ġrelig": 6303,
      "oration": 6304,
      "oted": 6305,
      "selected": 6306,
      "bot": 6307,
      "rule": 6308,
      "aming": 6309,
      "logger": 6310,
      "XML": 6311,
      "loyment": 6312,
      "mi": 6313,
      "Ġ{};": 6314,
      "Ġ${": 6315,
      "ducation": 6316,
      "Ġearlier": 6317,
      "PT": 6318,
      "Ġentity": 6319,
      "langle": 6320,
      "Ġmeeting": 6321,
      "points": 6322,
      "Ġsaying": 6323,
      "Ġclick": 6324,
      "ĠĠĠĠĠĠĠĠĠĠĠĠĠĠĠĠĠĠĠĠĠĠĠĠĠĠĠĠĠĠĠĠĠĠĠĠĠĠĠĠĠĠĠ": 6325,
      "FR": 6326,
      "ibly": 6327,
      "ĠIsrael": 6328,
      "Ġgenerate": 6329,
      "Activity": 6330,
      "Ġtouch": 6331,
      "onic": 6332,
      "Ġcounter": 6333,
      "','": 6334,
      "ĠFunction": 6335,
      "Ġwife": 6336,
      "Ġball": 6337,
      "ental": 6338,
      "ĠMiss": 6339,
      "ett": 6340,
      "Ġmut": 6341,
      "FIG": 6342,
      "Rest": 6343,
      "agram": 6344,
      "SU": 6345,
      "Ġsecret": 6346,
      "azz": 6347,
      "Ġvs": 6348,
      "aste": 6349,
      "Main": 6350,
      "manager": 6351,
      "aud": 6352,
      "LIC": 6353,
      "Ġlives": 6354,
      "PAR": 6355,
      "%%%%": 6356,
      "Ġattributes": 6357,
      "mathfrak": 6358,
      "cut": 6359,
      "overs": 6360,
      "anned": 6361,
      "Ġpractice": 6362,
      "Ġprofile": 6363,
      "Ġprofessional": 6364,
      "()).": 6365,
      "Ġcoordin": 6366,
      "hline": 6367,
      "Ġapplied": 6368,
      "ĠVir": 6369,
      "Ġsources": 6370,
      "Ġlimited": 6371,
      "Te": 6372,
      "79": 6373,
      "Ġhor": 6374,
      "properties": 6375,
      "Ġaccur": 6376,
      "Ġvillage": 6377,
      "ĠGold": 6378,
      "Ġvariables": 6379,
      ".'": 6380,
      "esh": 6381,
      "Ġpurch": 6382,
      "Ġord": 6383,
      "straints": 6384,
      "ificate": 6385,
      "Ġfunc": 6386,
      "69": 6387,
      "DT": 6388,
      "Ġradio": 6389,
      "Desc": 6390,
      "ĠMedia": 6391,
      "ĠPub": 6392,
      "ULE": 6393,
      "ĠFore": 6394,
      "icated": 6395,
      "ocker": 6396,
      "ĠModel": 6397,
      "reek": 6398,
      "haps": 6399,
      "Ġdrug": 6400,
      "urrency": 6401,
      "Ġlargest": 6402,
      "ura": 6403,
      "ĠMary": 6404,
      "ĠMus": 6405,
      "Ġali": 6406,
      "ĠFig": 6407,
      "NavBarCell": 6408,
      "Before": 6409,
      "ĠKe": 6410,
      "ĠExec": 6411,
      "2022": 6412,
      "acc": 6413,
      "Ġcapital": 6414,
      "ecause": 6415,
      "lg": 6416,
      "Close": 6417,
      "Ġscore": 6418,
      "ĠIsland": 6419,
      "faces": 6420,
      "igen": 6421,
      "Ġpreviously": 6422,
      "road": 6423,
      "ĠTim": 6424,
      "notation": 6425,
      "Print": 6426,
      "ĠGermany": 6427,
      "Ġlo": 6428,
      "Windows": 6429,
      "ously": 6430,
      "ray": 6431,
      "Ġdestroy": 6432,
      "Ġchoice": 6433,
      "Pop": 6434,
      "elli": 6435,
      "![": 6436,
      "riend": 6437,
      "Ġnative": 6438,
      "Ġpresented": 6439,
      "Java": 6440,
      "fly": 6441,
      "flags": 6442,
      "ĠÎ": 6443,
      "ĠNode": 6444,
      "Ġextrem": 6445,
      "Conf": 6446,
      "Ġmulti": 6447,
      "ĠChe": 6448,
      "account": 6449,
      "Ġeight": 6450,
      "ĠOption": 6451,
      "Panel": 6452,
      "63": 6453,
      "ĠTor": 6454,
      "domain": 6455,
      "Rece": 6456,
      "Ġknowledge": 6457,
      "Selector": 6458,
      "home": 6459,
      "ĠUnion": 6460,
      "family": 6461,
      "Ġcluster": 6462,
      "rey": 6463,
      "ĠØ": 6464,
      "Ġplease": 6465,
      "Ġpush": 6466,
      "Pattern": 6467,
      "DS": 6468,
      "Ġhous": 6469,
      "kg": 6470,
      "hy": 6471,
      "Ġbeginning": 6472,
      "BUG": 6473,
      "lers": 6474,
      "Adapter": 6475,
      "external": 6476,
      "iterator": 6477,
      "network": 6478,
      "Enum": 6479,
      "Found": 6480,
      "components": 6481,
      "hold": 6482,
      "Ġorigin": 6483,
      "ategories": 6484,
      "ĠHand": 6485,
      "Author": 6486,
      "ronic": 6487,
      "weet": 6488,
      "Ġinteresting": 6489,
      "rb": 6490,
      "forms": 6491,
      "Ġnature": 6492,
      "ĠTop": 6493,
      "SCR": 6494,
      "Ġmale": 6495,
      "à¸": 6496,
      "Ġfully": 6497,
      "ĠScott": 6498,
      "FL": 6499,
      "unday": 6500,
      "house": 6501,
      "Ġability": 6502,
      "ĠBusiness": 6503,
      "Ġperfect": 6504,
      "akers": 6505,
      "Func": 6506,
      "pling": 6507,
      "Grid": 6508,
      "pdf": 6509,
      "Ġalgorithm": 6510,
      "Ġtab": 6511,
      "peed": 6512,
      "Ġbuilder": 6513,
      "Ġincreasing": 6514,
      "uler": 6515,
      "ensuremath": 6516,
      "NG": 6517,
      "ĠĠĠĠĠĠĠĠĠĠĠĠĠĠĠĠĠĠĠĠĠĠ": 6518,
      "ĠAfrica": 6519,
      "bad": 6520,
      "Ġrequires": 6521,
      "fail": 6522,
      "Ġruns": 6523,
      "ðŁ": 6524,
      "Ġscient": 6525,
      "ĠConfig": 6526,
      "ĠUSA": 6527,
      "mid": 6528,
      "Ġpartial": 6529,
      "ky": 6530,
      "RAN": 6531,
      "ĠProv": 6532,
      "rep": 6533,
      "reset": 6534,
      "Ġbasis": 6535,
      "Full": 6536,
      "Ġunless": 6537,
      "ToString": 6538,
      "Del": 6539,
      "Ġsplit": 6540,
      "Ġhidden": 6541,
      "........": 6542,
      "Ġsongs": 6543,
      "Ġdaught": 6544,
      "tools": 6545,
      ")\">": 6546,
      "related": 6547,
      "Ġ(_": 6548,
      "Ġbrought": 6549,
      ")/": 6550,
      "ja": 6551,
      "ĠTable": 6552,
      "look": 6553,
      "Ġunits": 6554,
      "resents": 6555,
      "Sw": 6556,
      "NULL": 6557,
      "Ġinsert": 6558,
      "appa": 6559,
      "WA": 6560,
      "Ġstories": 6561,
      "'])": 6562,
      "Ġinsp": 6563,
      "bour": 6564,
      "ĠMA": 6565,
      "Expr": 6566,
      "ĠInitial": 6567,
      "Ġschools": 6568,
      "1997": 6569,
      "ĠSal": 6570,
      "Second": 6571,
      "'d": 6572,
      "EC": 6573,
      "UTF": 6574,
      "ifications": 6575,
      "ional": 6576,
      "ĠSur": 6577,
      "ved": 6578,
      "super": 6579,
      "ĠHistory": 6580,
      "Ġtrade": 6581,
      "&\\": 6582,
      "inv": 6583,
      "results": 6584,
      "Ġyield": 6585,
      "Browser": 6586,
      "DC": 6587,
      "apply": 6588,
      "Ġrespond": 6589,
      "Ġcontinued": 6590,
      "Events": 6591,
      "Ġcomputer": 6592,
      "Pack": 6593,
      "Ġprojects": 6594,
      "ager": 6595,
      "Ġawait": 6596,
      "ĠMad": 6597,
      "etic": 6598,
      "desc": 6599,
      "azine": 6600,
      "ĠMex": 6601,
      "Ġequival": 6602,
      "Inv": 6603,
      "bytes": 6604,
      "Ġpointer": 6605,
      "ami": 6606,
      "Ġplaces": 6607,
      "Ġremain": 6608,
      "Ġbank": 6609,
      "Ġbasic": 6610,
      "Ġapprop": 6611,
      "tely": 6612,
      "Phi": 6613,
      "eration": 6614,
      "SER": 6615,
      "oped": 6616,
      "Ġmicro": 6617,
      "Ġip": 6618,
      "fit": 6619,
      "browser": 6620,
      "ĠTur": 6621,
      "Ġturned": 6622,
      "Files": 6623,
      "ĠTexas": 6624,
      "Ġdensity": 6625,
      "}}$": 6626,
      "}</": 6627,
      "handler": 6628,
      "configuration": 6629,
      "ki": 6630,
      "SY": 6631,
      "ĠMount": 6632,
      "erial": 6633,
      "Ġ×": 6634,
      "Ġattention": 6635,
      "Ġkilled": 6636,
      "ĠManagement": 6637,
      "GS": 6638,
      "horizontal": 6639,
      "Ġactions": 6640,
      "ĠCam": 6641,
      "ĠBook": 6642,
      "Ġgreater": 6643,
      "miss": 6644,
      "Ġcomments": 6645,
      "prise": 6646,
      "ĠTem": 6647,
      "ĠLife": 6648,
      "Ġupper": 6649,
      "Ġpark": 6650,
      "Ġplant": 6651,
      "Ġinteger": 6652,
      "ĠStar": 6653,
      "olf": 6654,
      "ĠAlso": 6655,
      "ĠClub": 6656,
      "Matrix": 6657,
      "Ġmessages": 6658,
      "shall": 6659,
      "Ã§": 6660,
      "Ġones": 6661,
      "Ġoptional": 6662,
      "Ġspent": 6663,
      "ĠTODO": 6664,
      "Ġbuy": 6665,
      "iverse": 6666,
      "_(": 6667,
      "Ġbus": 6668,
      "Ġrepresentation": 6669,
      "Ġepisode": 6670,
      "Ġchalleng": 6671,
      "Ġutil": 6672,
      "Ġcy": 6673,
      "IPT": 6674,
      "62": 6675,
      "################": 6676,
      "ĠSection": 6677,
      "Ġprotect": 6678,
      "OST": 6679,
      "CI": 6680,
      "Ġshot": 6681,
      "Protocol": 6682,
      "ighest": 6683,
      "Register": 6684,
      "ellig": 6685,
      "ĠAccording": 6686,
      "osen": 6687,
      "Ġseven": 6688,
      "cb": 6689,
      "94": 6690,
      "edge": 6691,
      "nabla": 6692,
      "Prop": 6693,
      "Ġstudent": 6694,
      "Ġgrant": 6695,
      "?âĢĿ": 6696,
      "ora": 6697,
      "osh": 6698,
      "Ġinvalid": 6699,
      "area": 6700,
      "ĉĉĉĉĉĉĉĉĉ": 6701,
      "ĠSmith": 6702,
      "jpg": 6703,
      "uated": 6704,
      "ĠWil": 6705,
      "1996": 6706,
      "Variable": 6707,
      "Ġ{'": 6708,
      "ĠNetwork": 6709,
      "annels": 6710,
      "ĠUN": 6711,
      "Pay": 6712,
      "Ġ=========": 6713,
      "ĠUpdate": 6714,
      "ĠGets": 6715,
      "engine": 6716,
      "ĠCamp": 6717,
      "Ġanti": 6718,
      "Transform": 6719,
      "Ġtherefore": 6720,
      "Ġappoint": 6721,
      "Ġfinished": 6722,
      "ĠThomas": 6723,
      "Attributes": 6724,
      "fully": 6725,
      "Ġanyone": 6726,
      "[$": 6727,
      "idx": 6728,
      "oves": 6729,
      "channel": 6730,
      "reshold": 6731,
      "Ġreflect": 6732,
      "Ġ\"\"": 6733,
      "bra": 6734,
      "Ġworth": 6735,
      "Ġstreng": 6736,
      "ONE": 6737,
      "hidden": 6738,
      "Ġexport": 6739,
      "limit": 6740,
      "Ġsen": 6741,
      "ĠChristian": 6742,
      "Ġjournal": 6743,
      "ĠPlay": 6744,
      "Term": 6745,
      "ding": 6746,
      "uter": 6747,
      "Ġfair": 6748,
      "Ġrecords": 6749,
      "Cond": 6750,
      "Ġcreating": 6751,
      "Plugin": 6752,
      "ĠTask": 6753,
      "Ġimplements": 6754,
      "Ġchain": 6755,
      "Ġio": 6756,
      "ĠSuper": 6757,
      "Ġupdated": 6758,
      "irmed": 6759,
      "74": 6760,
      "icago": 6761,
      "Elements": 6762,
      "Parse": 6763,
      "ldots": 6764,
      "Ġowner": 6765,
      "Ġenabled": 6766,
      "Profile": 6767,
      "Ġincreased": 6768,
      "Step": 6769,
      "unicip": 6770,
      "istent": 6771,
      "Constants": 6772,
      "ĠSociety": 6773,
      "BS": 6774,
      "Ġterr": 6775,
      "angular": 6776,
      ";\\": 6777,
      "Ġparents": 6778,
      "{-": 6779,
      "61": 6780,
      "Ġscience": 6781,
      "ko": 6782,
      "metadata": 6783,
      "Ġmaster": 6784,
      "Ġmeaning": 6785,
      "Ġfn": 6786,
      "structure": 6787,
      "91": 6788,
      "Scroll": 6789,
      "each": 6790,
      "arsed": 6791,
      "isl": 6792,
      "ded": 6793,
      "sur": 6794,
      "ĠFoundation": 6795,
      "Don": 6796,
      "identifier": 6797,
      "Ġwide": 6798,
      "effect": 6799,
      "ĠTH": 6800,
      "ĠCentral": 6801,
      "Ġship": 6802,
      "ĠArmy": 6803,
      "Ġprefer": 6804,
      "SQL": 6805,
      "Ġserious": 6806,
      "getName": 6807,
      "ito": 6808,
      "entials": 6809,
      "Ġdebug": 6810,
      "OUT": 6811,
      "allel": 6812,
      "rees": 6813,
      "Ġwasn": 6814,
      "Ġbecomes": 6815,
      "uly": 6816,
      "LECT": 6817,
      "SR": 6818,
      "trigger": 6819,
      "Ġinstit": 6820,
      "IST": 6821,
      "total": 6822,
      "Ġjoined": 6823,
      "atre": 6824,
      "Ġxmlns": 6825,
      "People": 6826,
      "abilities": 6827,
      "ĠFacebook": 6828,
      "Ġintroduced": 6829,
      "INFO": 6830,
      "Fail": 6831,
      "Ġobserved": 6832,
      "contains": 6833,
      "subset": 6834,
      "prefix": 6835,
      "Ġpool": 6836,
      "Ġbg": 6837,
      "ĠCollection": 6838,
      "Ġcivil": 6839,
      "oday": 6840,
      "webpack": 6841,
      "etimes": 6842,
      "Ġblue": 6843,
      "rum": 6844,
      "Ġexhib": 6845,
      "ĠAssembly": 6846,
      "Statement": 6847,
      "ĠBO": 6848,
      "textit": 6849,
      "Ġfix": 6850,
      "andra": 6851,
      "Ġdrop": 6852,
      "sem": 6853,
      "ÙĦ": 6854,
      "Ġgreen": 6855,
      "Memory": 6856,
      "ĠWed": 6857,
      "gs": 6858,
      "aturday": 6859,
      "allery": 6860,
      "Ġpublish": 6861,
      "Ġimmediately": 6862,
      "Ġbrowser": 6863,
      "ani": 6864,
      "})$": 6865,
      "Ġgun": 6866,
      "ĠRock": 6867,
      "Ġremember": 6868,
      "ĠGreat": 6869,
      "rine": 6870,
      "Keys": 6871,
      "tabs": 6872,
      "kw": 6873,
      "Ġvoc": 6874,
      "Runtime": 6875,
      "ĠRoman": 6876,
      "ita": 6877,
      "Double": 6878,
      "123": 6879,
      "ĠHill": 6880,
      "Ġoffers": 6881,
      "Ġdecided": 6882,
      "Ġmatches": 6883,
      "Auto": 6884,
      "ĠLandroid": 6885,
      "Ġpriv": 6886,
      "Ġapplications": 6887,
      "Ġready": 6888,
      "equiv": 6889,
      "otes": 6890,
      "ounce": 6891,
      "ĠLib": 6892,
      "aration": 6893,
      "ervation": 6894,
      "Ġunknown": 6895,
      "Ġconnected": 6896,
      "Ġpanel": 6897,
      "Ġdigital": 6898,
      "Ġfailure": 6899,
      "ĠOlymp": 6900,
      "83": 6901,
      "king": 6902,
      "ansion": 6903,
      "Ġenter": 6904,
      "udget": 6905,
      "ĠGovernment": 6906,
      "ĠMer": 6907,
      "iated": 6908,
      "Ġmedical": 6909,
      "alian": 6910,
      "Ñı": 6911,
      "sumer": 6912,
      "wid": 6913,
      "Ġrecover": 6914,
      "Abstract": 6915,
      "orida": 6916,
      "Ġremains": 6917,
      "Ġmur": 6918,
      "ĠRussian": 6919,
      "grade": 6920,
      "Dest": 6921,
      "Repository": 6922,
      "Ġinvolv": 6923,
      "ady": 6924,
      "READ": 6925,
      "Ġdetermine": 6926,
      "Ġreports": 6927,
      "crete": 6928,
      "Ġsummer": 6929,
      "Ġwaves": 6930,
      "ĠSO": 6931,
      "gest": 6932,
      "||": 6933,
      "Duration": 6934,
      "Ġencoding": 6935,
      "Ġplans": 6936,
      "Ġreq": 6937,
      "aser": 6938,
      "Details": 6939,
      "3333": 6940,
      "Layer": 6941,
      "Ġleader": 6942,
      "Socket": 6943,
      "ĠIOException": 6944,
      "Ġcharge": 6945,
      ")).": 6946,
      "Ġnom": 6947,
      "switch": 6948,
      "93": 6949,
      "Ġtypeof": 6950,
      "ĠAction": 6951,
      "tmp": 6952,
      "Ġpassword": 6953,
      "rase": 6954,
      "Sync": 6955,
      "Ġded": 6956,
      "Space": 6957,
      "\\%": 6958,
      "itiz": 6959,
      "Ġdriver": 6960,
      "organ": 6961,
      "eds": 6962,
      "1980": 6963,
      "Ġhighlight": 6964,
      "Ġmanufact": 6965,
      "\\!": 6966,
      "hspace": 6967,
      "ĠChinese": 6968,
      "jar": 6969,
      "kens": 6970,
      "iments": 6971,
      "Ġvan": 6972,
      "NN": 6973,
      "Ġexactly": 6974,
      "Ġshoot": 6975,
      "star": 6976,
      "Ġuseful": 6977,
      "Ġcompletely": 6978,
      "ĠColor": 6979,
      "Wrapper": 6980,
      "platform": 6981,
      "ĠEv": 6982,
      "ĠFrancis": 6983,
      "ĠAcadem": 6984,
      "Ġcommit": 6985,
      "Ġok": 6986,
      "iful": 6987,
      "ĠBill": 6988,
      "Success": 6989,
      "Graph": 6990,
      "Ġcategory": 6991,
      "yan": 6992,
      "hav": 6993,
      "Ġtrain": 6994,
      "ffect": 6995,
      "Ġreach": 6996,
      "Ġlooks": 6997,
      "Ġmachine": 6998,
      "Home": 6999,
      "81": 7000,
      "Fil": 7001,
      "Ġdetail": 7002,
      "Ġabsolute": 7003,
      "Ġforces": 7004,
      "Ġforms": 7005,
      "92": 7006,
      "shadow": 7007,
      "itable": 7008,
      "HR": 7009,
      "ĠÂ£": 7010,
      "ĠVis": 7011,
      "shire": 7012,
      "Ġdim": 7013,
      "uing": 7014,
      "Ġtesting": 7015,
      "Car": 7016,
      "åı": 7017,
      "Ġpen": 7018,
      "Ġvoice": 7019,
      "ĠRoyal": 7020,
      "ĠFriday": 7021,
      "ĠStep": 7022,
      "Note": 7023,
      "ĠĠĠĠĠĠĠĠĠĠĠĠĠĠĠĠĠĠĠĠĠĠĠĠĠĠĠĠĠ": 7024,
      "ilation": 7025,
      "Ġsmaller": 7026,
      "wild": 7027,
      "ĠCarol": 7028,
      "ologies": 7029,
      "tests": 7030,
      "CHECK": 7031,
      "ĠMuseum": 7032,
      "hide": 7033,
      "ĠMinister": 7034,
      "Ġtx": 7035,
      "ĠProf": 7036,
      "Ġexternal": 7037,
      "Ġwild": 7038,
      "Ġopening": 7039,
      "stant": 7040,
      "dim": 7041,
      "attributes": 7042,
      "Ġactivities": 7043,
      "Failed": 7044,
      "ĠMax": 7045,
      "IND": 7046,
      "front": 7047,
      "icol": 7048,
      "sect": 7049,
      "ĠPM": 7050,
      "Ġexplicit": 7051,
      "Mapping": 7052,
      "ĠTown": 7053,
      "Ġeconomic": 7054,
      "ato": 7055,
      "ĠGrand": 7056,
      "Remove": 7057,
      "Ġnearly": 7058,
      "riteria": 7059,
      "Ġfigure": 7060,
      "Ġasync": 7061,
      "WN": 7062,
      "Ġadapt": 7063,
      "Ġimag": 7064,
      "article": 7065,
      "sych": 7066,
      "ĠSeries": 7067,
      "care": 7068,
      "lev": 7069,
      "LL": 7070,
      "enty": 7071,
      "Ġloop": 7072,
      "1995": 7073,
      "Ġorganization": 7074,
      "Ġbey": 7075,
      "Ġquickly": 7076,
      "Ġgold": 7077,
      "mutable": 7078,
      "ĠGame": 7079,
      "fc": 7080,
      "Ġparticularly": 7081,
      "ĠWill": 7082,
      "props": 7083,
      "nil": 7084,
      "Ġsometimes": 7085,
      "NOT": 7086,
      "children": 7087,
      "Ġphone": 7088,
      "elease": 7089,
      "ĠCap": 7090,
      "Cor": 7091,
      "mbox": 7092,
      "UD": 7093,
      "Ġdefe": 7094,
      "navList": 7095,
      "protected": 7096,
      "IA": 7097,
      "svg": 7098,
      "ĠResource": 7099,
      "=>": 7100,
      "Ġexam": 7101,
      "Ġnuc": 7102,
      "Ġlaunch": 7103,
      "ĠMost": 7104,
      "Ġdownload": 7105,
      "Ġbeyond": 7106,
      "71": 7107,
      "Ġpages": 7108,
      "serial": 7109,
      "ened": 7110,
      "filename": 7111,
      "Ġchurch": 7112,
      "Ġrg": 7113,
      "dialog": 7114,
      "itation": 7115,
      "Global": 7116,
      "pret": 7117,
      "dy": 7118,
      "ĠMessage": 7119,
      "Ġfamilies": 7120,
      "Pointer": 7121,
      "relation": 7122,
      "ĠOffice": 7123,
      "Ġoppos": 7124,
      ")\"": 7125,
      "Ġrecorded": 7126,
      "Scale": 7127,
      "Ġimprove": 7128,
      "Ġmovement": 7129,
      "anta": 7130,
      "Ġincor": 7131,
      "ĠAustralian": 7132,
      "Ġexc": 7133,
      "Other": 7134,
      "thm": 7135,
      "Ġexpert": 7136,
      "Ġprotocol": 7137,
      "Ġenable": 7138,
      "Route": 7139,
      "ĠServices": 7140,
      "ĠBre": 7141,
      "atible": 7142,
      "ĠFinal": 7143,
      "ĠGen": 7144,
      "hol": 7145,
      "Ġhands": 7146,
      "onym": 7147,
      "Ġappears": 7148,
      "ruby": 7149,
      "Ġmenu": 7150,
      "Ġrail": 7151,
      "ĠChild": 7152,
      "Ġminimum": 7153,
      "libr": 7154,
      "ĠVol": 7155,
      "Ġnegative": 7156,
      ")),": 7157,
      "------------": 7158,
      "ĠAny": 7159,
      "Ġoverall": 7160,
      "BP": 7161,
      "rate": 7162,
      "duction": 7163,
      "ĠNumber": 7164,
      "Ġcli": 7165,
      "Ġagent": 7166,
      "Ġshift": 7167,
      "ĠTimes": 7168,
      "Ġpul": 7169,
      "Ġidentity": 7170,
      "ĠJava": 7171,
      "Common": 7172,
      "73": 7173,
      "atin": 7174,
      "iers": 7175,
      "Ġblocks": 7176,
      "Ġmoving": 7177,
      "pects": 7178,
      "Ġul": 7179,
      "Ġfelt": 7180,
      "ITE": 7181,
      "Ġrequests": 7182,
      "Ġple": 7183,
      "ictor": 7184,
      "Ġcritical": 7185,
      "ĠFrank": 7186,
      "ĠMicrosoft": 7187,
      "Ġdimension": 7188,
      "oms": 7189,
      "ĠĠĠĠĠĠĠĠĠĠĠĠĠĠĠĠĠĠĠĠĠĠĠĠĠĠ": 7190,
      "$/": 7191,
      "Ġanswer": 7192,
      "dp": 7193,
      "ĠParam": 7194,
      "Ġoil": 7195,
      "asket": 7196,
      "Ġprograms": 7197,
      "(__": 7198,
      "Ġconstructor": 7199,
      "onday": 7200,
      "Ġsituation": 7201,
      "Single": 7202,
      "conn": 7203,
      "aight": 7204,
      "ĠCopyright": 7205,
      "Ġappeared": 7206,
      "Ġvisible": 7207,
      "ĠHen": 7208,
      "ĠRegister": 7209,
      "Ġsal": 7210,
      "Ġsports": 7211,
      "ĠMont": 7212,
      "FFFF": 7213,
      "IVE": 7214,
      "Ġeasily": 7215,
      "Ġchoose": 7216,
      "Sample": 7217,
      "anda": 7218,
      "Ġtraditional": 7219,
      "Ġsignature": 7220,
      "Ġgiving": 7221,
      "editor": 7222,
      "tags": 7223,
      "ĠTR": 7224,
      "ICE": 7225,
      "MB": 7226,
      "ĠBi": 7227,
      "Ġextract": 7228,
      "ivery": 7229,
      "Ġhighly": 7230,
      "Ġreli": 7231,
      "\"><!--": 7232,
      "Play": 7233,
      "ensed": 7234,
      "ĠDirector": 7235,
      "Ġrap": 7236,
      "ĠPeter": 7237,
      "wrapper": 7238,
      "ĠBack": 7239,
      "Nodes": 7240,
      "ĠCommission": 7241,
      "Ġharm": 7242,
      "junit": 7243,
      "headers": 7244,
      "Total": 7245,
      "ajax": 7246,
      "undred": 7247,
      "Ġreached": 7248,
      "kappa": 7249,
      "bing": 7250,
      "Opt": 7251,
      "Ġdrive": 7252,
      "Ġpurpose": 7253,
      "ĠjQuery": 7254,
      "=\"${": 7255,
      "Ġdevices": 7256,
      "Ġ\",": 7257,
      "Ġconver": 7258,
      "128": 7259,
      "Identifier": 7260,
      "colLast": 7261,
      "ĠGood": 7262,
      "typedef": 7263,
      "NT": 7264,
      "defined": 7265,
      "Ġproced": 7266,
      "Registry": 7267,
      "clusive": 7268,
      "\\|": 7269,
      "Ġfans": 7270,
      "ĠRet": 7271,
      "Ġletter": 7272,
      "symbol": 7273,
      "Ġsafe": 7274,
      "provider": 7275,
      "Ġbur": 7276,
      "rier": 7277,
      "istant": 7278,
      "och": 7279,
      "ala": 7280,
      "Category": 7281,
      "ĠSwitch": 7282,
      "Ġpull": 7283,
      "ĠKore": 7284,
      "Ġstrategy": 7285,
      "Ġproduce": 7286,
      "\\[": 7287,
      "Product": 7288,
      "ĠUnder": 7289,
      "urred": 7290,
      "acle": 7291,
      "ĠSunday": 7292,
      "TEXT": 7293,
      "otimes": 7294,
      "Ġgrand": 7295,
      "ĠAfrican": 7296,
      "services": 7297,
      ">::": 7298,
      "iger": 7299,
      "ĠSing": 7300,
      "ÐµÐ": 7301,
      "Ġpartners": 7302,
      "ĠEducation": 7303,
      "High": 7304,
      "venue": 7305,
      "STAT": 7306,
      "linear": 7307,
      "Ġsupp": 7308,
      "Ġretr": 7309,
      "Ġdepth": 7310,
      "Ġmix": 7311,
      "??": 7312,
      "cribe": 7313,
      "Ġbelong": 7314,
      "brief": 7315,
      "ĠBoard": 7316,
      "Ġartist": 7317,
      "Ġemb": 7318,
      "citep": 7319,
      "Agent": 7320,
      "variant": 7321,
      "Ġtrigger": 7322,
      "vey": 7323,
      "Ġreadonly": 7324,
      "Since": 7325,
      "arnings": 7326,
      "Ġopportunity": 7327,
      "Ġ=======": 7328,
      "Ġcalling": 7329,
      "ĠMel": 7330,
      "Find": 7331,
      "role": 7332,
      "ĠJose": 7333,
      "Attr": 7334,
      "SCRIPT": 7335,
      "1970": 7336,
      "Trace": 7337,
      "âĢĿ.": 7338,
      "ĠVirgin": 7339,
      "PP": 7340,
      "ĠSun": 7341,
      "Ġ\"<": 7342,
      "Ġforeign": 7343,
      "/\\": 7344,
      "Ġholds": 7345,
      "ĠCommittee": 7346,
      "ĠRichard": 7347,
      "ACT": 7348,
      "ĠTwo": 7349,
      "Ġvote": 7350,
      "liament": 7351,
      "Ġconstit": 7352,
      "Ġheard": 7353,
      "fol": 7354,
      "Ġnavigation": 7355,
      "chor": 7356,
      "ĠEngine": 7357,
      "AAAA": 7358,
      "uty": 7359,
      "zone": 7360,
      "colFirst": 7361,
      "Ġsizeof": 7362,
      "ĠWestern": 7363,
      "allclasses": 7364,
      "execute": 7365,
      "Ġraw": 7366,
      "ĠNAME": 7367,
      "Ġassume": 7368,
      "ella": 7369,
      "Ġblood": 7370,
      "Ġcommercial": 7371,
      "ateway": 7372,
      "Ġdemand": 7373,
      "Ġappend": 7374,
      "Ġstars": 7375,
      "Ġpresence": 7376,
      "Ġhighest": 7377,
      "Ġque": 7378,
      "Ñĭ": 7379,
      "Ġbrand": 7380,
      "Tags": 7381,
      "CESS": 7382,
      "Ġpoor": 7383,
      "amous": 7384,
      "ĠRequest": 7385,
      "ĠFoot": 7386,
      "Ġmill": 7387,
      ".\");": 7388,
      "ĠIE": 7389,
      "equence": 7390,
      "}-": 7391,
      "Ġchance": 7392,
      "Props": 7393,
      "Ġassess": 7394,
      "URI": 7395,
      "Ġnotice": 7396,
      "Ġdoub": 7397,
      "HER": 7398,
      "ĠBank": 7399,
      "ĠPath": 7400,
      "Dist": 7401,
      "Ġinstalled": 7402,
      "Ġdir": 7403,
      "uke": 7404,
      "irls": 7405,
      "Ġfemale": 7406,
      "parser": 7407,
      "Ġpor": 7408,
      "ĠLouis": 7409,
      "icies": 7410,
      ";}": 7411,
      "Ġseconds": 7412,
      "Ġtrust": 7413,
      "Ġ[\"": 7414,
      "Character": 7415,
      "Ġprocessing": 7416,
      "herited": 7417,
      "heel": 7418,
      "Ġsetup": 7419,
      "Ġil": 7420,
      "protocol": 7421,
      "MT": 7422,
      "contin": 7423,
      "widet": 7424,
      "ĠStart": 7425,
      "Ġdaughter": 7426,
      "Ġlay": 7427,
      "Public": 7428,
      "rev": 7429,
      "jango": 7430,
      "BAR": 7431,
      "expr": 7432,
      "ĠHash": 7433,
      "ocaml": 7434,
      "green": 7435,
      "Collections": 7436,
      "emon": 7437,
      "ĠWAR": 7438,
      "Simple": 7439,
      "Ġ\"-": 7440,
      "1994": 7441,
      "agger": 7442,
      ",-": 7443,
      "ĠIl": 7444,
      "Namespace": 7445,
      "iar": 7446,
      "ĠKn": 7447,
      "Tx": 7448,
      "exists": 7449,
      "Ġpiece": 7450,
      "parameters": 7451,
      "mask": 7452,
      "Ġcontroller": 7453,
      "Ġgeneration": 7454,
      "ĠIndex": 7455,
      "axis": 7456,
      "prev": 7457,
      "Headers": 7458,
      "Ġparser": 7459,
      "Ġ],": 7460,
      "ĠLos": 7461,
      "Ġbul": 7462,
      "Ġanim": 7463,
      "Ġgenerally": 7464,
      "Region": 7465,
      "Selected": 7466,
      "va": 7467,
      "ĠOrder": 7468,
      "ĠDuring": 7469,
      "para": 7470,
      "Ġillustr": 7471,
      "Ġut": 7472,
      "Ġmobile": 7473,
      "ĠEmp": 7474,
      "Ġctx": 7475,
      "ĠLine": 7476,
      "ÑĮ": 7477,
      "builder": 7478,
      "May": 7479,
      "ĠDivision": 7480,
      "Att": 7481,
      "ician": 7482,
      "Prefix": 7483,
      "}\\,": 7484,
      "ocity": 7485,
      "ĠSol": 7486,
      "generated": 7487,
      "Ġinform": 7488,
      "ingu": 7489,
      "Ġsafety": 7490,
      "ydro": 7491,
      "Comment": 7492,
      "Ġcarry": 7493,
      "Ġpressure": 7494,
      "netic": 7495,
      "dots": 7496,
      "Ġpred": 7497,
      "ĠCongress": 7498,
      "Ġartists": 7499,
      "Password": 7500,
      "ening": 7501,
      "nodes": 7502,
      "ndef": 7503,
      "ĠLin": 7504,
      "storage": 7505,
      "Ġrepresents": 7506,
      "maven": 7507,
      "Psi": 7508,
      "bu": 7509,
      "Final": 7510,
      "Ġmarried": 7511,
      "Ġaffect": 7512,
      "ĠRussia": 7513,
      "ĠDevelopment": 7514,
      "Ġidx": 7515,
      "ensus": 7516,
      "ĠAM": 7517,
      "Ġsmo": 7518,
      "Gu": 7519,
      "riority": 7520,
      "compiler": 7521,
      "bes": 7522,
      "Ġequation": 7523,
      ";\"": 7524,
      "nonumber": 7525,
      "ĠFlorida": 7526,
      "()</": 7527,
      "Ġkm": 7528,
      "Ġ$.": 7529,
      "mut": 7530,
      "eleted": 7531,
      "izable": 7532,
      "Ġtit": 7533,
      "Ġdesc": 7534,
      "aby": 7535,
      "?>": 7536,
      "ĠCath": 7537,
      "Ġquarter": 7538,
      "Ġeth": 7539,
      "Ġgirl": 7540,
      "Ġeyes": 7541,
      "ALSE": 7542,
      "Ġtypename": 7543,
      "tbody": 7544,
      "ĠSecond": 7545,
      "CF": 7546,
      "Ġseparate": 7547,
      "ĠImage": 7548,
      "Ġreplaced": 7549,
      "150": 7550,
      "widetilde": 7551,
      "ĠSy": 7552,
      "Ġproviding": 7553,
      "La": 7554,
      "Ġdetermined": 7555,
      "Ġremote": 7556,
      "ga": 7557,
      "('.": 7558,
      "Ġshowed": 7559,
      "Ġreduce": 7560,
      "ĠIll": 7561,
      "ĠInteger": 7562,
      "Engine": 7563,
      "Video": 7564,
      "Our": 7565,
      "ĠAS": 7566,
      "ĠCanadian": 7567,
      "Cred": 7568,
      "Ġdraft": 7569,
      "collapse": 7570,
      "eval": 7571,
      "watch": 7572,
      "Ġreader": 7573,
      "Ġappropriate": 7574,
      "Ġformed": 7575,
      "Ġprefix": 7576,
      "inds": 7577,
      "ĠHot": 7578,
      "Sigma": 7579,
      "ĠCD": 7580,
      "indent": 7581,
      "ĠWindows": 7582,
      "incipal": 7583,
      "Ġfirm": 7584,
      "ĠOp": 7585,
      "ãĢ": 7586,
      "RPC": 7587,
      "Help": 7588,
      "Ġmorning": 7589,
      "ĠJournal": 7590,
      "progress": 7591,
      "Ġwants": 7592,
      "Ġfra": 7593,
      "irty": 7594,
      "Ġplaced": 7595,
      "ursday": 7596,
      "aks": 7597,
      "Ġviews": 7598,
      "METH": 7599,
      "socket": 7600,
      "ĠWomen": 7601,
      "ĠSil": 7602,
      "Sche": 7603,
      "reland": 7604,
      "Ġpaint": 7605,
      "ainment": 7606,
      "temp": 7607,
      "pective": 7608,
      "TV": 7609,
      "Ġvisual": 7610,
      "ĠPass": 7611,
      "ĠSaturday": 7612,
      "Ġthr": 7613,
      "shared": 7614,
      "ters": 7615,
      "Admin": 7616,
      "Ġlaws": 7617,
      "Ġcaused": 7618,
      "ĠPeople": 7619,
      "Ġsolutions": 7620,
      "USE": 7621,
      "Ġlicense": 7622,
      "Texture": 7623,
      "Ġweak": 7624,
      "Ġsteps": 7625,
      "ĠChicago": 7626,
      "<!": 7627,
      "ancer": 7628,
      "theme": 7629,
      "ĠHome": 7630,
      "Ġinstr": 7631,
      "ĠHttp": 7632,
      "ĠSocial": 7633,
      "ĠPoint": 7634,
      "Members": 7635,
      "Year": 7636,
      "eller": 7637,
      "oices": 7638,
      "While": 7639,
      "Ġ?>": 7640,
      "anging": 7641,
      "inem": 7642,
      "Ġdeaths": 7643,
      "Ø±": 7644,
      "OB": 7645,
      "ĠGal": 7646,
      "RES": 7647,
      "ny": 7648,
      "itors": 7649,
      "Ġlaun": 7650,
      "single": 7651,
      "ĠAndroid": 7652,
      "ĠSecret": 7653,
      "Ġqueue": 7654,
      "bul": 7655,
      "ications": 7656,
      "Ġminor": 7657,
      "ading": 7658,
      "Ġabstract": 7659,
      "login": 7660,
      "Report": 7661,
      "Ġcamera": 7662,
      "Generator": 7663,
      "Ġfine": 7664,
      "Ġsales": 7665,
      "roke": 7666,
      "TIME": 7667,
      "picker": 7668,
      "Ã³n": 7669,
      "Ġstraight": 7670,
      "Ġsubsequ": 7671,
      "ĠExt": 7672,
      "\"/": 7673,
      "Depend": 7674,
      "done": 7675,
      "acro": 7676,
      "Ġcook": 7677,
      "Cap": 7678,
      "Ġ{{": 7679,
      "upload": 7680,
      "ifdef": 7681,
      "ĠLibrary": 7682,
      "Role": 7683,
      "Ġchem": 7684,
      "Ġlogger": 7685,
      "WR": 7686,
      "endor": 7687,
      "ĠOh": 7688,
      "Ġvariety": 7689,
      "ĠPet": 7690,
      "deg": 7691,
      "ĠDom": 7692,
      "ĠJapanese": 7693,
      "HTTP": 7694,
      "ĠGlobal": 7695,
      "olec": 7696,
      "Ġsurround": 7697,
      "ITION": 7698,
      "ĠOnly": 7699,
      "Ġ&=": 7700,
      "amm": 7701,
      "IGHT": 7702,
      "ĠJim": 7703,
      "DateTime": 7704,
      "METHOD": 7705,
      "Ne": 7706,
      "Ġcollabor": 7707,
      "ĠSupport": 7708,
      "oving": 7709,
      "Ġrestrict": 7710,
      "ĠPage": 7711,
      "iteral": 7712,
      "ĠDen": 7713,
      "'));": 7714,
      "Ġagreed": 7715,
      "construct": 7716,
      "ĠEarth": 7717,
      "ĠResult": 7718,
      "ĠGames": 7719,
      "osis": 7720,
      "Ġpod": 7721,
      "Ġcompare": 7722,
      "ĠMass": 7723,
      "Ġplot": 7724,
      "Ġbillion": 7725,
      "flex": 7726,
      "Ġhear": 7727,
      "arant": 7728,
      ":\\": 7729,
      "words": 7730,
      "isters": 7731,
      "uan": 7732,
      "kin": 7733,
      "}]": 7734,
      "called": 7735,
      "moz": 7736,
      "ashion": 7737,
      "lie": 7738,
      "igan": 7739,
      "Ġelectric": 7740,
      "Ġremaining": 7741,
      "loader": 7742,
      "edom": 7743,
      "ĠInformation": 7744,
      "sys": 7745,
      "elcome": 7746,
      "decl": 7747,
      ")->": 7748,
      "TA": 7749,
      "Ġbattle": 7750,
      "poses": 7751,
      "Ġ'<": 7752,
      "abit": 7753,
      "pat": 7754,
      "ĠAmazon": 7755,
      "1993": 7756,
      "Generated": 7757,
      "iminal": 7758,
      "120": 7759,
      "Ġblog": 7760,
      "ectors": 7761,
      "Ġspin": 7762,
      "Uri": 7763,
      "fire": 7764,
      "BE": 7765,
      "ĠTO": 7766,
      "ĠĠĠĠĠĠĠĠĠĠĠĠĠĠĠĠĠĠĠĠĠĠĠĠĠĠĠĠĠĠĠĠĠĠĠĠĠĠĠĠĠĠĠĠĠĠĠĠĠĠĠĠĠĠĠĠĠĠĠĠĠĠĠĠ": 7767,
      "Ġcoach": 7768,
      "details": 7769,
      "1992": 7770,
      "Ġwat": 7771,
      "Ġframework": 7772,
      "Cluster": 7773,
      "ĠĠĠĠĠĠĠĠĠĠĠĠĠĠĠĠĠĠĠĠĠĠĠĠĠĠĠĠ": 7774,
      "ĠApple": 7775,
      "Player": 7776,
      "ancing": 7777,
      "itz": 7778,
      "ĠJun": 7779,
      "matrix": 7780,
      "Ġflags": 7781,
      "unique": 7782,
      "Ġslight": 7783,
      "Ġeventually": 7784,
      "Gen": 7785,
      "Ġsamples": 7786,
      "\\]": 7787,
      "ERS": 7788,
      "Ġcoq": 7789,
      "Ġ[],": 7790,
      "centering": 7791,
      "uesday": 7792,
      "Ġdisease": 7793,
      "ĠPRO": 7794,
      "Ġclin": 7795,
      "Person": 7796,
      "ĠDev": 7797,
      "ctrine": 7798,
      "ĠAtt": 7799,
      "game": 7800,
      "Background": 7801,
      "They": 7802,
      "Ġhar": 7803,
      "ĠMake": 7804,
      "Resources": 7805,
      "ĠHTTP": 7806,
      "Ġtools": 7807,
      "errors": 7808,
      "Selection": 7809,
      "ĠReport": 7810,
      "Ġcollege": 7811,
      "ĠForce": 7812,
      "Some": 7813,
      "Ġdebut": 7814,
      "MI": 7815,
      "fixed": 7816,
      "Example": 7817,
      "Here": 7818,
      "ĠMartin": 7819,
      "cred": 7820,
      "Ġdu": 7821,
      "war": 7822,
      "xs": 7823,
      "resources": 7824,
      "metric": 7825,
      "Ġfarm": 7826,
      "ĠFree": 7827,
      "=(": 7828,
      "indexOf": 7829,
      "ĠLake": 7830,
      "ĠUI": 7831,
      "ĠTwitter": 7832,
      "MODULE": 7833,
      "ĠTeam": 7834,
      "Ġbgcolor": 7835,
      "Framework": 7836,
      "Ġcloud": 7837,
      "ffff": 7838,
      "ipped": 7839,
      "Ġfactory": 7840,
      "ĠCharles": 7841,
      "username": 7842,
      "Ġenv": 7843,
      "EEEE": 7844,
      "Ġalone": 7845,
      "ester": 7846,
      "Ġthous": 7847,
      "Section": 7848,
      "cy": 7849,
      "Ġdecre": 7850,
      "awn": 7851,
      "safe": 7852,
      "amaz": 7853,
      "ĠOld": 7854,
      "Ġtheme": 7855,
      "Ġtraff": 7856,
      "losed": 7857,
      "hens": 7858,
      "GR": 7859,
      "Py": 7860,
      "Proto": 7861,
      "Ġdog": 7862,
      "nam": 7863,
      "random": 7864,
      "Ġmetadata": 7865,
      "Ġreject": 7866,
      "Ġmask": 7867,
      "invalid": 7868,
      "Ġtimeout": 7869,
      "CRE": 7870,
      "Services": 7871,
      "JS": 7872,
      "('/": 7873,
      "optional": 7874,
      "Ġcapacity": 7875,
      "scr": 7876,
      "Ġsites": 7877,
      "Ġencour": 7878,
      "Ġknew": 7879,
      "Named": 7880,
      "Ġproxy": 7881,
      "Progress": 7882,
      "ĠLocal": 7883,
      "Ġroll": 7884,
      "Ġexit": 7885,
      "ĠSecurity": 7886,
      "otic": 7887,
      "panish": 7888,
      "ĠBu": 7889,
      "Ġ@\"": 7890,
      "xhtml": 7891,
      "Ġdelay": 7892,
      "Ġsch": 7893,
      "Ġgrowing": 7894,
      "ĠKingdom": 7895,
      "Ġsociety": 7896,
      "enabled": 7897,
      "Domain": 7898,
      "ĠLOG": 7899,
      "users": 7900,
      "pu": 7901,
      "VALUE": 7902,
      "Ġforeach": 7903,
      "ench": 7904,
      ")-": 7905,
      "Ġfill": 7906,
      "Ġheaders": 7907,
      "issues": 7908,
      "Ġmaybe": 7909,
      "Ġhyp": 7910,
      "ĠMult": 7911,
      "('#": 7912,
      "Ġlic": 7913,
      "fd": 7914,
      "Ġbrother": 7915,
      "Ġvel": 7916,
      "testing": 7917,
      "enable": 7918,
      "Ġnorm": 7919,
      "ĠThus": 7920,
      "riz": 7921,
      "detail": 7922,
      "Ġnation": 7923,
      "ĠMur": 7924,
      "Ġprovider": 7925,
      "Ġwonder": 7926,
      "cdn": 7927,
      "nesday": 7928,
      "Ġsusp": 7929,
      "Compar": 7930,
      "wildfly": 7931,
      "ĠSQL": 7932,
      "swarm": 7933,
      "LOCK": 7934,
      "ĠCEL": 7935,
      "eck": 7936,
      "ashed": 7937,
      "itness": 7938,
      "Ġmetal": 7939,
      "required": 7940,
      "ups": 7941,
      "isc": 7942,
      "Ġtranslate": 7943,
      "Ġinterval": 7944,
      "ĠCommun": 7945,
      "when": 7946,
      "Ġfig": 7947,
      "TRUE": 7948,
      "Ġessential": 7949,
      "ĠassertThat": 7950,
      "ĠCA": 7951,
      "springframework": 7952,
      "Ġstock": 7953,
      "ĠLem": 7954,
      "zen": 7955,
      "Ġworkers": 7956,
      "ĠEach": 7957,
      "ĠParis": 7958,
      "report": 7959,
      "Ġhuge": 7960,
      "IDTH": 7961,
      "sel": 7962,
      "Ä±": 7963,
      "ĠIran": 7964,
      "shift": 7965,
      "ĠASSERT": 7966,
      "GO": 7967,
      "Ġpan": 7968,
      "Interval": 7969,
      "throw": 7970,
      "Ġneighbor": 7971,
      "ĠArts": 7972,
      "outer": 7973,
      "Visible": 7974,
      "ĠJud": 7975,
      "kr": 7976,
      "pattern": 7977,
      "opes": 7978,
      "FS": 7979,
      "lict": 7980,
      "timeout": 7981,
      "Ġinner": 7982,
      "quis": 7983,
      "John": 7984,
      "ĠSpec": 7985,
      "proxy": 7986,
      "ĠPR": 7987,
      "found": 7988,
      "Ġlisted": 7989,
      "ossible": 7990,
      "Ġcancer": 7991,
      "Ġarm": 7992,
      "ipment": 7993,
      "Then": 7994,
      "ĠWell": 7995,
      "Ġcru": 7996,
      "ĠReact": 7997,
      "ĠMil": 7998,
      "Ġprove": 7999,
      "geles": 8000,
      "Ġlayout": 8001,
      "Ġresponsible": 8002,
      "ĠCustom": 8003,
      "Ġsummary": 8004,
      "fx": 8005,
      "ĠEnter": 8006,
      "ova": 8007,
      "formance": 8008,
      "Ġdirected": 8009,
      "Ġcompetition": 8010,
      "Delegate": 8011,
      "ĠLink": 8012,
      "ĠPower": 8013,
      "fix": 8014,
      "Ġresulting": 8015,
      "ĠFestival": 8016,
      "Ġsurvey": 8017,
      ".<": 8018,
      "Ġmultip": 8019,
      "ĠCast": 8020,
      "Ġdespite": 8021,
      "ĠSoftware": 8022,
      "Ġ{\"": 8023,
      "Ġmixed": 8024,
      "Ġagreement": 8025,
      "ĠArrayList": 8026,
      "(@": 8027,
      "FORM": 8028,
      "lig": 8029,
      "Ġhappened": 8030,
      "console": 8031,
      "Ġcosts": 8032,
      "async": 8033,
      "Ġlos": 8034,
      "flag": 8035,
      "video": 8036,
      "Fragment": 8037,
      "Ġraised": 8038,
      "}}{": 8039,
      "ĠLand": 8040,
      "iques": 8041,
      "Ġonto": 8042,
      "atar": 8043,
      "Ġaudio": 8044,
      "ĠâĢ¦": 8045,
      "POST": 8046,
      "Ġsquare": 8047,
      "Ġagree": 8048,
      "Ġmission": 8049,
      "Ġstrings": 8050,
      "Ġstuff": 8051,
      "Bind": 8052,
      "Ġui": 8053,
      "ji": 8054,
      "ĠDO": 8055,
      "checked": 8056,
      "ĠBlock": 8057,
      "Ġindividuals": 8058,
      "ĠBrown": 8059,
      "Ġexamples": 8060,
      "Ġstored": 8061,
      "Ġhundred": 8062,
      "pressed": 8063,
      "ÐµÐ½": 8064,
      "Ġmanaged": 8065,
      "ĠMonday": 8066,
      "prox": 8067,
      "Ġcharset": 8068,
      "Ġlooked": 8069,
      "agent": 8070,
      "Ġnullptr": 8071,
      "going": 8072,
      "dimension": 8073,
      "Ġav": 8074,
      "Ġwood": 8075,
      "Notification": 8076,
      "Ġsegment": 8077,
      "Import": 8078,
      "Ġrgba": 8079,
      "Db": 8080,
      "ĠAuthor": 8081,
      "thlet": 8082,
      "ircraft": 8083,
      "ENSE": 8084,
      "player": 8085,
      "Cert": 8086,
      "...</": 8087,
      "Ġbroadcast": 8088,
      "ĠCH": 8089,
      "wall": 8090,
      "Ġannual": 8091,
      "arc": 8092,
      "ĠĠĠĊ": 8093,
      "Ġhour": 8094,
      "plus": 8095,
      "Ġshowing": 8096,
      "Ġwhom": 8097,
      "ĠAcademy": 8098,
      "ifiers": 8099,
      "etailed": 8100,
      "Ġradi": 8101,
      "FE": 8102,
      "Ġidentified": 8103,
      "Ġspread": 8104,
      "Ġstructures": 8105,
      "ĠTour": 8106,
      "usform": 8107,
      "numerusform": 8108,
      "Ġhol": 8109,
      "clean": 8110,
      "ira": 8111,
      "Ġheavy": 8112,
      "Microsoft": 8113,
      "{%": 8114,
      "Ġcreation": 8115,
      "Ġoccup": 8116,
      "Ġbuf": 8117,
      "apers": 8118,
      "CTYPE": 8119,
      "About": 8120,
      "Ġrelevant": 8121,
      "Ġmajority": 8122,
      "inf": 8123,
      "ima": 8124,
      "ORTED": 8125,
      "depth": 8126,
      "ĠIreland": 8127,
      "standing": 8128,
      "how": 8129,
      "bel": 8130,
      "Ġfourth": 8131,
      "Ġcmd": 8132,
      ";)": 8133,
      "arden": 8134,
      "uages": 8135,
      "Ġfederal": 8136,
      "pa": 8137,
      "Ġflex": 8138,
      "Ġleaders": 8139,
      "ĠBur": 8140,
      "checkbox": 8141,
      "operation": 8142,
      "uite": 8143,
      "ĠFROM": 8144,
      "Ġversions": 8145,
      "Ġembed": 8146,
      "DEFAULT": 8147,
      "ĠZeal": 8148,
      "Ġadopt": 8149,
      "Ġverify": 8150,
      "Ġbranch": 8151,
      "ĠAngeles": 8152,
      "Ġshut": 8153,
      "Ġarrest": 8154,
      "but": 8155,
      "Ġtemp": 8156,
      "Ã¨": 8157,
      "Ġguitar": 8158,
      "Ġstated": 8159,
      "ĠFilm": 8160,
      "Ġcustomers": 8161,
      "Comple": 8162,
      "Ġconcent": 8163,
      "EEEEFF": 8164,
      "EST": 8165,
      "DEBUG": 8166,
      "ĠElement": 8167,
      "Ġstarts": 8168,
      "Ġenh": 8169,
      "itter": 8170,
      "Ġautomatically": 8171,
      "LINE": 8172,
      "Fin": 8173,
      "stitution": 8174,
      "Ġentries": 8175,
      "Ġaw": 8176,
      "Ġextended": 8177,
      "cean": 8178,
      "Ġadding": 8179,
      "month": 8180,
      "QU": 8181,
      "tabular": 8182,
      "Ġrates": 8183,
      "\"],": 8184,
      "policy": 8185,
      "ocation": 8186,
      "Ġequivalent": 8187,
      "Make": 8188,
      "Ġmurder": 8189,
      "PER": 8190,
      "Ġserve": 8191,
      "Dictionary": 8192,
      "dem": 8193,
      "Ġfactors": 8194,
      "()))": 8195,
      "Volume": 8196,
      "Ġdisabled": 8197,
      "FLA": 8198,
      "World": 8199,
      "ierarch": 8200,
      "Ign": 8201,
      "Ġwall": 8202,
      "Ġopin": 8203,
      "Ġenum": 8204,
      "ean": 8205,
      "Returns": 8206,
      "vs": 8207,
      "since": 8208,
      "Ġshop": 8209,
      "Ġadjust": 8210,
      "Ġbill": 8211,
      "avail": 8212,
      "1991": 8213,
      "gebra": 8214,
      "assembly": 8215,
      "Ġobvious": 8216,
      "ĠProcess": 8217,
      "Ġadvant": 8218,
      "ĠWeek": 8219,
      "ĠZealand": 8220,
      "ĠEp": 8221,
      "Ġtrail": 8222,
      "blue": 8223,
      "ils": 8224,
      "Summary": 8225,
      "ĠANY": 8226,
      "MC": 8227,
      "extern": 8228,
      "owers": 8229,
      "Living": 8230,
      "trace": 8231,
      "riage": 8232,
      "Stats": 8233,
      "Ġbinary": 8234,
      "Ġcritic": 8235,
      "Ġcompl": 8236,
      "Shape": 8237,
      "ĠEven": 8238,
      "Phone": 8239,
      "writer": 8240,
      "condition": 8241,
      "nergy": 8242,
      "ĠEvery": 8243,
      "Ġreasons": 8244,
      "PUT": 8245,
      "SELECT": 8246,
      "Ġspirit": 8247,
      "azy": 8248,
      "Ġsea": 8249,
      "Book": 8250,
      "Landroid": 8251,
      "DOCTYPE": 8252,
      "Ġinstruction": 8253,
      "edia": 8254,
      "Ġbrief": 8255,
      "Ġclaims": 8256,
      "href": 8257,
      "Ġrad": 8258,
      "iro": 8259,
      "Ġaim": 8260,
      "Ġstrateg": 8261,
      "ih": 8262,
      "poration": 8263,
      "icians": 8264,
      "Ġ];": 8265,
      "iced": 8266,
      "special": 8267,
      "ĠSIZE": 8268,
      "Ġvertical": 8269,
      "ishes": 8270,
      "isms": 8271,
      "boost": 8272,
      "wig": 8273,
      "Ġhospital": 8274,
      "ĠĠĠĠĠĠĠĠĠĠĠĠĠĠĠĠĊ": 8275,
      "Ġoccur": 8276,
      "Dat": 8277,
      "Ġkids": 8278,
      "yg": 8279,
      "oken": 8280,
      "Len": 8281,
      "1989": 8282,
      "EV": 8283,
      "Ġmaterials": 8284,
      "Rob": 8285,
      "uplic": 8286,
      "Ġplays": 8287,
      "Wallet": 8288,
      "ĠElect": 8289,
      "km": 8290,
      "ola": 8291,
      "TT": 8292,
      "Ġscheme": 8293,
      "ĠPolicy": 8294,
      "ĠLove": 8295,
      "åĪ": 8296,
      "ĠðŁ": 8297,
      "Ġtried": 8298,
      "Ġolder": 8299,
      "ĠEND": 8300,
      "»¿": 8301,
      "Ġprison": 8302,
      "ĠDown": 8303,
      "ĠAust": 8304,
      "Ġreset": 8305,
      "Install": 8306,
      "Ġstrength": 8307,
      "amazon": 8308,
      "Game": 8309,
      "ĠIts": 8310,
      "ias": 8311,
      "Ġgoals": 8312,
      "prime": 8313,
      "Ùħ": 8314,
      "Ġexecute": 8315,
      "cup": 8316,
      "Ġregions": 8317,
      "Ġmatching": 8318,
      "omorph": 8319,
      "Ġadult": 8320,
      "ï»¿": 8321,
      "Ġtruth": 8322,
      "ĠRecords": 8323,
      "imitive": 8324,
      "Enter": 8325,
      "Ġpaid": 8326,
      "ĠSpecial": 8327,
      "blank": 8328,
      "Ġcandidate": 8329,
      "ournament": 8330,
      "heast": 8331,
      "ĠArab": 8332,
      "ĠAv": 8333,
      "ĠMa": 8334,
      "rid": 8335,
      "Email": 8336,
      "ifndef": 8337,
      "ĠPan": 8338,
      "Ġmonitor": 8339,
      "Ġlif": 8340,
      "iber": 8341,
      "cheduler": 8342,
      "Ġreduced": 8343,
      "Ġdict": 8344,
      "ographic": 8345,
      "ĠGeorg": 8346,
      "plates": 8347,
      "pull": 8348,
      "Ġtal": 8349,
      "original": 8350,
      "porate": 8351,
      "ĠStat": 8352,
      "Ġjoint": 8353,
      "ĠSl": 8354,
      "Bound": 8355,
      "Ġaccom": 8356,
      "ĠAccess": 8357,
      "Cloud": 8358,
      "ĠProperty": 8359,
      "Ġnoted": 8360,
      "Ġrare": 8361,
      "ĠÂ»": 8362,
      "usband": 8363,
      ">:": 8364,
      "NavBarFont": 8365,
      "getElement": 8366,
      "scribe": 8367,
      "Ġfle": 8368,
      "lace": 8369,
      "Ġdoor": 8370,
      "Ġefforts": 8371,
      "Ġearn": 8372,
      "ĠItalian": 8373,
      "Ġstrugg": 8374,
      "undefined": 8375,
      "Ġunderstanding": 8376,
      "Contact": 8377,
      "ivation": 8378,
      "println": 8379,
      "Ġdynam": 8380,
      "Ġprem": 8381,
      "chain": 8382,
      "DR": 8383,
      ";\">": 8384,
      "Skip": 8385,
      "Ġcouldn": 8386,
      "Ġcitiz": 8387,
      "icine": 8388,
      "lications": 8389,
      "Ġleague": 8390,
      "emp": 8391,
      "achment": 8392,
      "600": 8393,
      "world": 8394,
      "ĠGl": 8395,
      "sidebar": 8396,
      "aling": 8397,
      "ĠTre": 8398,
      "ĠSpace": 8399,
      "cf": 8400,
      "ĠScot": 8401,
      "iling": 8402,
      "Ġboost": 8403,
      "Ġcool": 8404,
      "Ġguest": 8405,
      "ea": 8406,
      "Ġchief": 8407,
      "Ġmd": 8408,
      "ummy": 8409,
      "Pair": 8410,
      "Ġexecution": 8411,
      "stone": 8412,
      "signature": 8413,
      "Short": 8414,
      "Ġinfluence": 8415,
      "INS": 8416,
      "Mer": 8417,
      "ĠValid": 8418,
      "Lin": 8419,
      "ĠThursday": 8420,
      "ollowing": 8421,
      "Ġvehicle": 8422,
      "highlight": 8423,
      "Ġmentioned": 8424,
      "ifically": 8425,
      "Ġbuildings": 8426,
      "amel": 8427,
      "ĠVictor": 8428,
      "Ġkept": 8429,
      "she": 8430,
      "Ġprocesses": 8431,
      "âĢĺ": 8432,
      "kins": 8433,
      "ĠValley": 8434,
      "Sequence": 8435,
      "=\"$": 8436,
      "avour": 8437,
      "Ġnp": 8438,
      "eces": 8439,
      "bridge": 8440,
      "lemma": 8441,
      "}+": 8442,
      "Ids": 8443,
      "Ġended": 8444,
      "Ġpowerful": 8445,
      "ĠHead": 8446,
      "asion": 8447,
      "ĠMexico": 8448,
      "keep": 8449,
      "ÙĨ": 8450,
      "Ġgrid": 8451,
      "ĠMain": 8452,
      "ĠJo": 8453,
      "ador": 8454,
      "razil": 8455,
      "Ġcolumns": 8456,
      "ati": 8457,
      "dig": 8458,
      "pared": 8459,
      "Ġanimation": 8460,
      "extension": 8461,
      "Two": 8462,
      "ĠVirginia": 8463,
      "Program": 8464,
      "rift": 8465,
      "Ġhelped": 8466,
      "ilters": 8467,
      "esome": 8468,
      "Ġmostly": 8469,
      "Ġaware": 8470,
      "Conn": 8471,
      "Ġloaded": 8472,
      "Ġdocumentation": 8473,
      "ĠAlthough": 8474,
      "pear": 8475,
      "Ġrepresented": 8476,
      "Ġfinite": 8477,
      "ĠExample": 8478,
      "Ġaf": 8479,
      "Ġignore": 8480,
      "Ġprim": 8481,
      "ĠPenn": 8482,
      "Ġchart": 8483,
      "lat": 8484,
      "Ġratio": 8485,
      "VALID": 8486,
      "BI": 8487,
      "ĠDesign": 8488,
      "ĠInput": 8489,
      "Ġga": 8490,
      "duled": 8491,
      "Ġweap": 8492,
      "Ġboy": 8493,
      "agnostic": 8494,
      "Ġinnov": 8495,
      "elligence": 8496,
      "oes": 8497,
      "Ġsell": 8498,
      "ÛĮ": 8499,
      "Ġcommunities": 8500,
      "repe": 8501,
      "Ġboundary": 8502,
      "ä»": 8503,
      "odies": 8504,
      "ĠMov": 8505,
      "ĠAdmin": 8506,
      "utch": 8507,
      ",'": 8508,
      "Ġlistener": 8509,
      "arian": 8510,
      "Ġopts": 8511,
      "ĠÐ¿": 8512,
      "inations": 8513,
      "tc": 8514,
      "VM": 8515,
      "ĠWood": 8516,
      "tics": 8517,
      "apis": 8518,
      "apes": 8519,
      "Ġbeautiful": 8520,
      "Ġaxis": 8521,
      "gers": 8522,
      "Ġsmart": 8523,
      "Ġspot": 8524,
      "once": 8525,
      "Ġplugin": 8526,
      "emy": 8527,
      "ĠALIGN": 8528,
      "sequence": 8529,
      "ĠPop": 8530,
      "Ġmagn": 8531,
      "Ġrect": 8532,
      "ĠDocument": 8533,
      "Required": 8534,
      "pet": 8535,
      "ulf": 8536,
      "blog": 8537,
      "Ġtasks": 8538,
      "Free": 8539,
      "æľ": 8540,
      "Day": 8541,
      "sin": 8542,
      "ONG": 8543,
      "ares": 8544,
      "(\"/": 8545,
      "views": 8546,
      "ĠHistor": 8547,
      "library": 8548,
      "Ġintr": 8549,
      "Look": 8550,
      "ĠYoung": 8551,
      "tk": 8552,
      "ĠLee": 8553,
      "loop": 8554,
      "asketball": 8555,
      "Endpoint": 8556,
      "ĠFigure": 8557,
      "INTER": 8558,
      "Mask": 8559,
      "EventListener": 8560,
      "Math": 8561,
      "warning": 8562,
      "Multi": 8563,
      "person": 8564,
      "\\{": 8565,
      "helper": 8566,
      "Ġpi": 8567,
      "ANT": 8568,
      "ustrial": 8569,
      "ĠMP": 8570,
      "Ġresolution": 8571,
      "Ġfrequency": 8572,
      "101": 8573,
      "about": 8574,
      "{\"": 8575,
      "Methods": 8576,
      "rf": 8577,
      "Animation": 8578,
      "isted": 8579,
      "ĠLi": 8580,
      "ELD": 8581,
      "1960": 8582,
      "aylor": 8583,
      "Fig": 8584,
      "%,": 8585,
      "Ġregistered": 8586,
      "800": 8587,
      "Ġfear": 8588,
      "ĠCommunity": 8589,
      "rick": 8590,
      "']['": 8591,
      "Ġunion": 8592,
      "ĠAtl": 8593,
      "ĠControl": 8594,
      "Ġofficials": 8595,
      "inet": 8596,
      "Ġneut": 8597,
      "Ġexchange": 8598,
      "PROJECT": 8599,
      "ĠTechnology": 8600,
      "Compiler": 8601,
      "Ġdream": 8602,
      "Arr": 8603,
      "zure": 8604,
      "âĢĿ,": 8605,
      "Ġinterested": 8606,
      "\"].": 8607,
      "atomic": 8608,
      "Stop": 8609,
      "CG": 8610,
      "Ġparties": 8611,
      "Ġ).": 8612,
      "Ġther": 8613,
      "Flow": 8614,
      "Miss": 8615,
      "Language": 8616,
      "resolve": 8617,
      "sets": 8618,
      "ĠNAV": 8619,
      "Ġwid": 8620,
      "Ġwinning": 8621,
      "COMP": 8622,
      "Ġaudience": 8623,
      "fast": 8624,
      "ustain": 8625,
      "Ġcomparison": 8626,
      "Ġ'\\": 8627,
      "Ġspan": 8628,
      "ĠTuesday": 8629,
      "Ġperhaps": 8630,
      "!\"": 8631,
      "Ġ..": 8632,
      "ĠCentre": 8633,
      "ĠHaw": 8634,
      "QUE": 8635,
      "owner": 8636,
      "TRY": 8637,
      "#{": 8638,
      "250": 8639,
      "Ġsupports": 8640,
      "Ġdataset": 8641,
      "Ġfol": 8642,
      "sb": 8643,
      "Ġschema": 8644,
      "ĠTheorem": 8645,
      "Ġadvert": 8646,
      "Ġentered": 8647,
      "Ġideas": 8648,
      "large": 8649,
      "structions": 8650,
      "bserv": 8651,
      "Ġahead": 8652,
      "Sort": 8653,
      "Ġlaunched": 8654,
      "uz": 8655,
      "Ġforced": 8656,
      "ĠSE": 8657,
      "bitr": 8658,
      ".;": 8659,
      "Ġleaving": 8660,
      "Vertex": 8661,
      "ĠPac": 8662,
      "ĠJohnson": 8663,
      "Ġclimate": 8664,
      "Ġprobability": 8665,
      "ĠallClasses": 8666,
      "}^\\": 8667,
      "rich": 8668,
      "Ġsuccessfully": 8669,
      "iciency": 8670,
      "iffer": 8671,
      "ĠEli": 8672,
      "Begin": 8673,
      "facebook": 8674,
      "Ġdie": 8675,
      "Ġchallenge": 8676,
      "Ġscroll": 8677,
      "route": 8678,
      "assandra": 8679,
      "ĠBoolean": 8680,
      "ĠallClassesLink": 8681,
      "Ġtmp": 8682,
      "Ġacadem": 8683,
      "ĠRail": 8684,
      "atial": 8685,
      "ĠMiddle": 8686,
      "download": 8687,
      "HS": 8688,
      "sync": 8689,
      "Ġoriginally": 8690,
      "mouse": 8691,
      "These": 8692,
      "Ġtransl": 8693,
      "ĠSign": 8694,
      "ĠBet": 8695,
      "ĠCommand": 8696,
      "ĠâĢ¢": 8697,
      "Ġfinish": 8698,
      "Ġhappy": 8699,
      "?\"": 8700,
      "ĠTheir": 8701,
      "ĠVector": 8702,
      "asis": 8703,
      "Enumer": 8704,
      "Bean": 8705,
      "ĠCard": 8706,
      "Ġoffered": 8707,
      "Ġdepends": 8708,
      "essions": 8709,
      "ĠLast": 8710,
      "REG": 8711,
      "'];": 8712,
      "ILE": 8713,
      "ĠAwards": 8714,
      "python": 8715,
      "selector": 8716,
      "Wait": 8717,
      "groups": 8718,
      "Ð°Ð½": 8719,
      "ĠBob": 8720,
      "ĠEq": 8721,
      "apy": 8722,
      "Ġrelations": 8723,
      "cluded": 8724,
      "Ġprops": 8725,
      "Ġcontents": 8726,
      "Ġ\"$": 8727,
      "Ġcoast": 8728,
      "Ġderived": 8729,
      "hetic": 8730,
      "ĠFort": 8731,
      "Ġtopic": 8732,
      "isting": 8733,
      "iversal": 8734,
      "Ã¢": 8735,
      "osoph": 8736,
      "Ġpicture": 8737,
      "Ġmodified": 8738,
      ":`": 8739,
      "AF": 8740,
      "Ġpartner": 8741,
      "Area": 8742,
      "ĠĠĠĠĠĠĠĠĠĠĠĠĠĠĠĠĠĠĠĠĠĠĠĠĠĠĠĠĠĠ": 8743,
      "Ġcontinues": 8744,
      "Children": 8745,
      "driver": 8746,
      "expect": 8747,
      "ums": 8748,
      "Ġapproximately": 8749,
      "Ġeq": 8750,
      "%\"": 8751,
      "Ġtraffic": 8752,
      "Ġbalance": 8753,
      "Ġconvers": 8754,
      ".\",": 8755,
      "=\"../../../../../../../": 8756,
      "=-": 8757,
      "oz": 8758,
      "compile": 8759,
      "Ġleads": 8760,
      "ĠWednesday": 8761,
      "ĠFOR": 8762,
      "Serv": 8763,
      "ĠChief": 8764,
      "ribution": 8765,
      "Ġthinking": 8766,
      "ĠHuman": 8767,
      "Ġrob": 8768,
      "creens": 8769,
      "Ã£": 8770,
      "avity": 8771,
      "Ġvalign": 8772,
      "ĠBlue": 8773,
      "opts": 8774,
      "Ġcombination": 8775,
      "PU": 8776,
      "dependent": 8777,
      "lipse": 8778,
      "StyleID": 8779,
      "Ġclearly": 8780,
      "glyph": 8781,
      "lan": 8782,
      "Ġcombined": 8783,
      "Sql": 8784,
      "power": 8785,
      "ĠItaly": 8786,
      "Ġconnections": 8787,
      "}=\\": 8788,
      "wer": 8789,
      "iana": 8790,
      "Ġusage": 8791,
      "supported": 8792,
      "Ġsector": 8793,
      "ressed": 8794,
      "Ġidentify": 8795,
      "orrow": 8796,
      "CALL": 8797,
      "ryption": 8798,
      "life": 8799,
      "Ġsun": 8800,
      "ili": 8801,
      "atever": 8802,
      "transition": 8803,
      "Ġmotion": 8804,
      "Ġregarding": 8805,
      "Ġevolution": 8806,
      "ĠIslam": 8807,
      "Ġrequirements": 8808,
      "Ġoperating": 8809,
      "Ġreserved": 8810,
      "Ang": 8811,
      "Ġcommunication": 8812,
      "animation": 8813,
      "Ġpp": 8814,
      "ArgumentException": 8815,
      "ĠSets": 8816,
      "Ġgovern": 8817,
      "Ġrepresenting": 8818,
      "verter": 8819,
      "Ġfeet": 8820,
      ")=\\": 8821,
      "LC": 8822,
      "Ð²": 8823,
      "Ġdocuments": 8824,
      "Ġfloor": 8825,
      "ĠOS": 8826,
      "Ġdrink": 8827,
      "Ġfru": 8828,
      "Ġgal": 8829,
      "simple": 8830,
      "xspace": 8831,
      "ĠDig": 8832,
      "enumer": 8833,
      "nel": 8834,
      "Ġplus": 8835,
      "Ġtrial": 8836,
      "Ġdialog": 8837,
      "Ġrows": 8838,
      "Ġelected": 8839,
      "ĠWho": 8840,
      "Ġdynamic": 8841,
      "Ġkill": 8842,
      "ez": 8843,
      "getValue": 8844,
      "slice": 8845,
      "Mouse": 8846,
      "icator": 8847,
      "ĠWIT": 8848,
      "kl": 8849,
      "Ġattract": 8850,
      "Ġchosen": 8851,
      "Ġalternative": 8852,
      "Ġmeant": 8853,
      "Ġbeat": 8854,
      "udd": 8855,
      "accept": 8856,
      "amer": 8857,
      "ĠIns": 8858,
      "oston": 8859,
      "Ġpeace": 8860,
      "Ġtoward": 8861,
      "****************************************************************": 8862,
      "tex": 8863,
      "ĠCatholic": 8864,
      "DATA": 8865,
      ":#": 8866,
      "Ġestim": 8867,
      "Allow": 8868,
      "Ġphil": 8869,
      "Ġdetect": 8870,
      "aaaa": 8871,
      "Ġduration": 8872,
      "Dem": 8873,
      "Ġtra": 8874,
      "Execution": 8875,
      "phot": 8876,
      "Arch": 8877,
      "ĠFour": 8878,
      "InputStream": 8879,
      "Ġpri": 8880,
      "^+": 8881,
      "Ġcovered": 8882,
      "Ġpatient": 8883,
      "seud": 8884,
      "Ġcredit": 8885,
      "Ġtransparent": 8886,
      "ĠPlease": 8887,
      "loss": 8888,
      "Ġfounded": 8889,
      "ĠPlan": 8890,
      "Ġfresh": 8891,
      "ĠInternet": 8892,
      "operatorname": 8893,
      "Ġbrain": 8894,
      "Ear": 8895,
      "Ġdaily": 8896,
      "BB": 8897,
      "Ġlab": 8898,
      "agraph": 8899,
      "Ġjobs": 8900,
      "âĢ¢": 8901,
      "reme": 8902,
      "Ġrestaur": 8903,
      "objects": 8904,
      "à¥": 8905,
      "ĠOl": 8906,
      "Ġsupply": 8907,
      "news": 8908,
      "ĠFire": 8909,
      "Ġactor": 8910,
      "/\"": 8911,
      "enger": 8912,
      "alty": 8913,
      "Append": 8914,
      "losure": 8915,
      "aked": 8916,
      "ĠBit": 8917,
      "Ġsenior": 8918,
      "ourney": 8919,
      "zero": 8920,
      "diff": 8921,
      "Ġmeta": 8922,
      "Connect": 8923,
      "SSL": 8924,
      "Save": 8925,
      "Ġoccurred": 8926,
      "unte": 8927,
      "ĠRest": 8928,
      "destroy": 8929,
      "ses": 8930,
      "Ġrecommend": 8931,
      "Ġphoto": 8932,
      "friend": 8933,
      "Dev": 8934,
      "Ġresolve": 8935,
      "Ġlatter": 8936,
      "Fn": 8937,
      "activity": 8938,
      "Syntax": 8939,
      "Ġconfirm": 8940,
      "1988": 8941,
      "cluster": 8942,
      "plan": 8943,
      "ORY": 8944,
      "Focus": 8945,
      "Ġwish": 8946,
      "commons": 8947,
      "Ġreality": 8948,
      "tor": 8949,
      "Ġdisk": 8950,
      "bg": 8951,
      "Native": 8952,
      "dc": 8953,
      "vc": 8954,
      "Ġcompute": 8955,
      "akistan": 8956,
      "Ġnetworks": 8957,
      "ĠSource": 8958,
      "ĠJones": 8959,
      "}'": 8960,
      "umes": 8961,
      "ĠEnt": 8962,
      "Ġdiscussion": 8963,
      "Ġcrow": 8964,
      "ĠWal": 8965,
      "_);": 8966,
      "RR": 8967,
      "Join": 8968,
      "Ġdamage": 8969,
      "ĠTri": 8970,
      "%)": 8971,
      "Ġspecify": 8972,
      "ĠSummer": 8973,
      "ĠCare": 8974,
      "inherit": 8975,
      "ĠSearch": 8976,
      "icode": 8977,
      "agnostics": 8978,
      "MIN": 8979,
      "ĠTherefore": 8980,
      "ĠNAVBAR": 8981,
      "Ġsurpr": 8982,
      "rad": 8983,
      "ĠWay": 8984,
      "NC": 8985,
      "STATE": 8986,
      "Clear": 8987,
      "ĠSpanish": 8988,
      "ĠXML": 8989,
      "typename": 8990,
      ":@\"": 8991,
      "ĠMock": 8992,
      ")[": 8993,
      "imp": 8994,
      "factory": 8995,
      "Ġproceed": 8996,
      "orders": 8997,
      "Ġsql": 8998,
      "ssl": 8999,
      "ĠAbout": 9000,
      "ĠKar": 9001,
      "black": 9002,
      "Warning": 9003,
      "calendar": 9004,
      "GER": 9005,
      "ĠCross": 9006,
      "IOException": 9007,
      "twitter": 9008,
      "ANCE": 9009,
      "clone": 9010,
      "Ġdanger": 9011,
      "Ġsomew": 9012,
      "elem": 9013,
      "Ġtsd": 9014,
      "cdots": 9015,
      "ĠSar": 9016,
      "runtime": 9017,
      "Ġfan": 9018,
      "Ġtalking": 9019,
      "ĠCR": 9020,
      "Ġhusband": 9021,
      "ski": 9022,
      "Ġ''": 9023,
      "Environment": 9024,
      "zip": 9025,
      "tf": 9026,
      "USER": 9027,
      "sa": 9028,
      "awa": 9029,
      "Pod": 9030,
      "isEmpty": 9031,
      "VE": 9032,
      "Ġcursor": 9033,
      "neg": 9034,
      "Ġcontinuous": 9035,
      "itan": 9036,
      "Limit": 9037,
      "ĠClient": 9038,
      "Ġconference": 9039,
      "NSString": 9040,
      "edu": 9041,
      "Flag": 9042,
      "DIS": 9043,
      "Ġsignificantly": 9044,
      "yer": 9045,
      "ogen": 9046,
      "}:": 9047,
      "Nullable": 9048,
      "Ġgone": 9049,
      "Ġcat": 9050,
      "unities": 9051,
      "batch": 9052,
      "Ġbecoming": 9053,
      "Ġaddresses": 9054,
      "sid": 9055,
      "ILD": 9056,
      "ĠObama": 9057,
      "Ġ>>>": 9058,
      "ourse": 9059,
      "Ġplanning": 9060,
      "Ġstreet": 9061,
      "Ġalbums": 9062,
      "kwargs": 9063,
      "validate": 9064,
      "aria": 9065,
      "Ġspaces": 9066,
      "IAL": 9067,
      "sn": 9068,
      "ĠJon": 9069,
      "iant": 9070,
      "Objects": 9071,
      "^^": 9072,
      "bits": 9073,
      "ï¼Į": 9074,
      "Ġmusical": 9075,
      "Ġskills": 9076,
      "uality": 9077,
      "Ġpositions": 9078,
      "iration": 9079,
      "Lower": 9080,
      "1987": 9081,
      "ulator": 9082,
      "ussian": 9083,
      "Ġaircraft": 9084,
      "Ġdestination": 9085,
      ")}\\": 9086,
      "constructor": 9087,
      "Ġpet": 9088,
      "Ġassign": 9089,
      "ĠApache": 9090,
      "Writ": 9091,
      "Ġapplicable": 9092,
      "ĠSenate": 9093,
      "ancell": 9094,
      "SK": 9095,
      "cli": 9096,
      "Ġdistinct": 9097,
      "Ġeconomy": 9098,
      "Ġfamous": 9099,
      "ĠFamily": 9100,
      "ĠEcon": 9101,
      "Ġuniform": 9102,
      "Ġexcit": 9103,
      "Validator": 9104,
      "ixels": 9105,
      "Ġens": 9106,
      "Ġrevealed": 9107,
      "iser": 9108,
      "Ġemer": 9109,
      "Screen": 9110,
      "plementation": 9111,
      "Ġcarried": 9112,
      "Ġpropos": 9113,
      ")^{": 9114,
      "Ġ\\\"": 9115,
      "Ġexpansion": 9116,
      "istence": 9117,
      ">)": 9118,
      "Ġbed": 9119,
      "ĠNE": 9120,
      "Ġmiles": 9121,
      "ĠHenry": 9122,
      "wp": 9123,
      "nn": 9124,
      "amin": 9125,
      "Ġcentre": 9126,
      "ĠOptional": 9127,
      "iano": 9128,
      "ĠReal": 9129,
      "Div": 9130,
      "TestCase": 9131,
      "ĠChris": 9132,
      "ĠCarolina": 9133,
      "gg": 9134,
      "}_\\": 9135,
      "estic": 9136,
      "Scal": 9137,
      "ĠNav": 9138,
      "FUN": 9139,
      "complete": 9140,
      "ĠMike": 9141,
      "Ġplane": 9142,
      "urer": 9143,
      "Binary": 9144,
      "Remote": 9145,
      "Ġofficer": 9146,
      "$)": 9147,
      "uries": 9148,
      "ĠNY": 9149,
      "issue": 9150,
      "Ġsleep": 9151,
      "Ġwind": 9152,
      "Ġking": 9153,
      "Ð¼": 9154,
      "je": 9155,
      "unct": 9156,
      "}}(": 9157,
      "mediate": 9158,
      "ictures": 9159,
      "exit": 9160,
      "ĠSand": 9161,
      "ÑģÑĤ": 9162,
      "sym": 9163,
      "adium": 9164,
      "Ġaren": 9165,
      "Ġbind": 9166,
      "Sm": 9167,
      "Ġcontrast": 9168,
      "illy": 9169,
      "Validation": 9170,
      "{$": 9171,
      "Ġsaved": 9172,
      "dk": 9173,
      "Ġedition": 9174,
      "ipping": 9175,
      "circle": 9176,
      "Ġnotes": 9177,
      "ĠĠĠĠĠĠĠĠĠĠĠĠĠĠĠĠĠĠĠĠĠĠĠĠĠĠĠĠĠĠĠĠĠĠĠĠĠĠĠĠĠĠĠĠĠĠĠ": 9178,
      "created": 9179,
      "Ġzone": 9180,
      "Ġcustomer": 9181,
      "Ġconsists": 9182,
      "Static": 9183,
      "disable": 9184,
      "Posted": 9185,
      "atters": 9186,
      "Ġflat": 9187,
      "Unknown": 9188,
      "ĠWhy": 9189,
      "ĠLord": 9190,
      "ĠRefer": 9191,
      "ools": 9192,
      "Ġselector": 9193,
      "PM": 9194,
      "har": 9195,
      "andon": 9196,
      "Ġmapping": 9197,
      "goto": 9198,
      "OF": 9199,
      "metry": 9200,
      "isset": 9201,
      "Ġnice": 9202,
      "extend": 9203,
      "Ġfeatured": 9204,
      "Ġmetric": 9205,
      "LOC": 9206,
      "Ġcities": 9207,
      "Ġice": 9208,
      "Ġwarning": 9209,
      "WAR": 9210,
      "Ġbiggest": 9211,
      "Ġru": 9212,
      "Ġadministration": 9213,
      "uzz": 9214,
      "()),": 9215,
      "duration": 9216,
      "Strategy": 9217,
      "Ġdepartment": 9218,
      "Ġbudget": 9219,
      "ORDER": 9220,
      "Serializer": 9221,
      "å®": 9222,
      "tar": 9223,
      "Ġeye": 9224,
      "release": 9225,
      "urance": 9226,
      "Ġsuc": 9227,
      "urban": 9228,
      "Move": 9229,
      "seg": 9230,
      "Ġstations": 9231,
      "ĠPH": 9232,
      "WORD": 9233,
      "Ġincome": 9234,
      "Ġforest": 9235,
      "ationToken": 9236,
      "Ġpurs": 9237,
      "origin": 9238,
      "Ġearth": 9239,
      "Ġcancel": 9240,
      "Ġfish": 9241,
      "Leg": 9242,
      "database": 9243,
      "seq": 9244,
      "umni": 9245,
      "feed": 9246,
      "Driver": 9247,
      "expand": 9248,
      "Cast": 9249,
      "Ġisland": 9250,
      "ĠFootball": 9251,
      "rece": 9252,
      "Users": 9253,
      "ucky": 9254,
      "initions": 9255,
      "ĠMany": 9256,
      "Ġ\"\",": 9257,
      "Detail": 9258,
      "Own": 9259,
      "Ali": 9260,
      "Ġcars": 9261,
      "ĠWater": 9262,
      "ĠOriginal": 9263,
      "¿½": 9264,
      "basic": 9265,
      "ĠAsia": 9266,
      "uations": 9267,
      "Ġran": 9268,
      "MODE": 9269,
      "Ġguarant": 9270,
      "ideos": 9271,
      "ylvan": 9272,
      "Ġopacity": 9273,
      "Why": 9274,
      "Ġtypically": 9275,
      "lik": 9276,
      "ĠWrite": 9277,
      "Real": 9278,
      "Ġapparent": 9279,
      "UST": 9280,
      "ĠSte": 9281,
      "Ġstudied": 9282,
      "Ġrac": 9283,
      "Ġrich": 9284,
      "Hub": 9285,
      "1986": 9286,
      "Î±": 9287,
      "Ġalert": 9288,
      "Ġisol": 9289,
      "textwidth": 9290,
      "Ã£o": 9291,
      "athan": 9292,
      "Folder": 9293,
      "oked": 9294,
      "Ġ\\{": 9295,
      "Ġattend": 9296,
      "/_": 9297,
      "Ġlands": 9298,
      "Ġrequested": 9299,
      "Ġ'';": 9300,
      "pag": 9301,
      "imb": 9302,
      "Ġjump": 9303,
      "ysical": 9304,
      "Light": 9305,
      "resentation": 9306,
      "Ġinteraction": 9307,
      "Constructor": 9308,
      "yy": 9309,
      "Ġcontem": 9310,
      "mathsf": 9311,
      "Material": 9312,
      "Ġtags": 9313,
      "STRING": 9314,
      "remarks": 9315,
      "Best": 9316,
      "Ġsb": 9317,
      "ĠLab": 9318,
      "Ġappearance": 9319,
      "volume": 9320,
      "Ġquantum": 9321,
      "Ġestimated": 9322,
      "Ġ\"%": 9323,
      "ĠON": 9324,
      "Ġsufficient": 9325,
      "puter": 9326,
      "rawn": 9327,
      "Alloc": 9328,
      "Html": 9329,
      "}|": 9330,
      "ushed": 9331,
      "REE": 9332,
      "overview": 9333,
      "water": 9334,
      "Ġwaiting": 9335,
      "hesis": 9336,
      "ĠLcom": 9337,
      "ope": 9338,
      "çĶ": 9339,
      "Ġheat": 9340,
      "Ġfrag": 9341,
      "Ġbatch": 9342,
      "jack": 9343,
      "Sur": 9344,
      "cle": 9345,
      "ĠFind": 9346,
      "Ġintended": 9347,
      "TF": 9348,
      "=\\\"": 9349,
      "ĠAff": 9350,
      "cknow": 9351,
      ".~": 9352,
      "ĠIllegal": 9353,
      "Many": 9354,
      "})\\": 9355,
      "ĠNet": 9356,
      "Ñĩ": 9357,
      "\\'": 9358,
      "Renderer": 9359,
      "Ġult": 9360,
      "quote": 9361,
      "mazing": 9362,
      "ĠMi": 9363,
      "okes": 9364,
      "Ġcertainly": 9365,
      "etes": 9366,
      "Ġimplemented": 9367,
      "DOM": 9368,
      "named": 9369,
      "oir": 9370,
      "ishop": 9371,
      "ĠWilliams": 9372,
      "SM": 9373,
      "Ġconn": 9374,
      "UND": 9375,
      "Fact": 9376,
      "Raw": 9377,
      "plot": 9378,
      "messages": 9379,
      "ĠSports": 9380,
      "DEF": 9381,
      "Ġ\"\";": 9382,
      "']);": 9383,
      "ĠJeff": 9384,
      "Env": 9385,
      "Ġburn": 9386,
      "trl": 9387,
      "Ġslightly": 9388,
      "Ġtells": 9389,
      "visible": 9390,
      "Ġlabels": 9391,
      "Ġpal": 9392,
      "ĠAndrew": 9393,
      "merge": 9394,
      "Private": 9395,
      "CHAR": 9396,
      "uts": 9397,
      "SV": 9398,
      "Ġresidents": 9399,
      "bro": 9400,
      "DATE": 9401,
      "ĠOrgan": 9402,
      "claim": 9403,
      "FN": 9404,
      "Ġreligious": 9405,
      "Ġallowing": 9406,
      "ĠConference": 9407,
      "æĸ": 9408,
      "Ġgather": 9409,
      "Ġrise": 9410,
      "Basic": 9411,
      "Ġtracks": 9412,
      "Ġsync": 9413,
      "ĠStandard": 9414,
      "åĲ": 9415,
      "fold": 9416,
      "Ġbenefit": 9417,
      "Ġmaps": 9418,
      "Ġhappens": 9419,
      "Ġassigned": 9420,
      "Should": 9421,
      "Ġguy": 9422,
      "{{\\": 9423,
      "alert": 9424,
      "Just": 9425,
      "ĠSwed": 9426,
      "/.": 9427,
      "getElementById": 9428,
      "Ġappointed": 9429,
      "ione": 9430,
      "Ġwave": 9431,
      "ĠIrish": 9432,
      ":[": 9433,
      "Ġ([": 9434,
      "ĠBow": 9435,
      "bean": 9436,
      "Ġemployees": 9437,
      "abric": 9438,
      "Ġupdates": 9439,
      "Ġexplan": 9440,
      "oos": 9441,
      "Ġinvestigation": 9442,
      "Ġarticles": 9443,
      "ĠBoth": 9444,
      "ĠDEFAULT": 9445,
      "However": 9446,
      "widehat": 9447,
      "Ġarbitr": 9448,
      "Ġsucceed": 9449,
      "zeta": 9450,
      "Ġ^": 9451,
      "Ġsoft": 9452,
      "Ġaccepted": 9453,
      "transaction": 9454,
      "Ġorganizations": 9455,
      "eto": 9456,
      "forEach": 9457,
      "rastructure": 9458,
      "ï¿½": 9459,
      "ĠGre": 9460,
      "stable": 9461,
      "Ġalle": 9462,
      "CONT": 9463,
      "Card": 9464,
      "ĠMos": 9465,
      "eler": 9466,
      "CLASS": 9467,
      "forward": 9468,
      "Ġ_,": 9469,
      "Consumer": 9470,
      "Ġinstances": 9471,
      "ĠEst": 9472,
      "Ġvalidate": 9473,
      "paper": 9474,
      "inity": 9475,
      "Ġfinding": 9476,
      "ĠWIDTH": 9477,
      "Ġelif": 9478,
      "125": 9479,
      "orney": 9480,
      "Ġhistorical": 9481,
      "stein": 9482,
      "Normal": 9483,
      "Ġcycle": 9484,
      "Ġremained": 9485,
      "ĠApplication": 9486,
      "omial": 9487,
      "Coll": 9488,
      "Pers": 9489,
      "acks": 9490,
      "Ġattacks": 9491,
      "ĠJac": 9492,
      "Batch": 9493,
      "vertical": 9494,
      "UMM": 9495,
      "1984": 9496,
      "Ġassembly": 9497,
      "Operator": 9498,
      "Ġliterature": 9499,
      "Ġfunding": 9500,
      "Ġdoll": 9501,
      "folio": 9502,
      "catch": 9503,
      "Ġcontained": 9504,
      "ela": 9505,
      "Ð¾Ð²": 9506,
      "Ġcorner": 9507,
      "NET": 9508,
      "ĠCommon": 9509,
      "ĠNight": 9510,
      "Ġexcell": 9511,
      "setup": 9512,
      "navigation": 9513,
      "Identity": 9514,
      "ĠSaf": 9515,
      "CM": 9516,
      "110": 9517,
      "submit": 9518,
      "Ġdiscussed": 9519,
      "variable": 9520,
      "Ġscored": 9521,
      "Ġowned": 9522,
      "Ġentert": 9523,
      "osp": 9524,
      "Messages": 9525,
      "Ġconsult": 9526,
      "Ġcultural": 9527,
      "nic": 9528,
      "ĠStatus": 9529,
      "Ġguess": 9530,
      "Ġlat": 9531,
      "Ġlived": 9532,
      "unny": 9533,
      "ylvania": 9534,
      "Ġyourself": 9535,
      "ĠGuide": 9536,
      "ĠWild": 9537,
      "Ġestimate": 9538,
      "Ġinvestment": 9539,
      "Ø¯": 9540,
      "Ġequipment": 9541,
      "ĠSelect": 9542,
      "ĠBritain": 9543,
      "{(": 9544,
      "1985": 9545,
[...]
