#version: 0.2
Ġ Ġ
ĠĠ ĠĠ
i n
e r
o n
ĠĠ Ġ
Ġ t
ĠĠĠĠ ĠĠĠĠ
r e
a t
e n
s t
a n
o r
h e
a l
l e
i on
a r
Ġ c
s e
i t
d e
ĠĠĠĠ ĠĠĠ
m e
Ġt he
c t
i s
r o
Ġ a
Ġ f
in g
Ġ =
s s
c e
Ġ p
ĉ ĉ
g e
Ġ o
Ġ s
< /
en t
u r
i c
) ;
= "
Ġ b
l a
Ġ w
e d
Ġ in
Ġ n
Ġ {
u t
- -
u n
Ġ re
Ġ <
an d
ĠĠĠĠĠĠĠĠ ĠĠĠ
Ġ (
l o
i d
/ /
Ġ *
at ion
m p
i l
e s
i f
i g
r a
u l
e x
č Ċ
Ġ m
Ġo f
Ġt h
Ġt o
o l
e l
t h
p e
Ġ d
a me
Ġ $
t r
Ġ }
i v
u e
Ġ h
at e
Ġ v
o t
" >
a d
e t
c o
Ġ \
l i
Ġ and
c h
c k
Ġ S
ĠĠĠĠĠĠĠĠ ĠĠĠĠĠĠĠĠ
ct ion
p t
( )
ĠĠĠĠ Ġ
a s
Ġ T
u m
* *
Ġ "
la ss
t er
a ge
Ġ st
h t
u b
s p
a b
ge t
Ġ C
Ġ is
ur n
u s
I n
on t
r i
Ġ A
en d
ex t
e w
y pe
Ġf or
= =
t urn
-- --
q u
v er
a m
a p
Ġ se
Ġ de
or t
e m
e ct
u p
Ġ '
o de
a v
Ġc lass
o m
al l
Ġ e
. .
o d
Ġ if
ĠĠĠĠĠĠĠĠ ĠĠĠĠĠĠĠ
it h
i st
o w
o ur
in e
Ġ g
Ġb e
m ent
i z
R e
i r
l ic
i m
- >
Ġ //
ul t
re f
ab le
at a
pt ion
er s
i le
in t
Ġc on
Ġ on
Ġ P
Ġth is
at h
Ġ l
Ġ M
er t
Ġre turn
t o
a se
0 0
ĉĉ ĉĉ
: :
al ue
Ġ &
e st
Ġ </
l y
Ġ I
ar t
our ce
k e
Ġ D
u re
_ {
Ġp ro
.. /
an s
i mp
a ck
Ġ @
v i
j ect
Ġth at
Ġ B
ig ht
Ġc o
Ġ F
c on
se t
Ġ N
d er
un ction
it y
Ġw h
Ġ L
or m
Ġw ith
Ġ an
Ġ or
st r
( "
" ,
i me
( );
ro m
s c
Ġ E
Ġ ex
Ġ [
ub lic
ss age
m l
a in
p ro
a y
Ġ -
Ġ /
f f
Ġ it
Ġ +
a c
o c
S t
p h
i al
o o
u se
f a
o re
a g
tr ing
Ġ G
p ar
' ,
---- ----
Ġ H
d iv
> </
Ġa s
l f
sp an
iv e
re s
Ġ me
** **
n ame
o s
Ġ* /
Ġ R
t e
o ut
it e
i b
iz e
â Ģ
o p
Ġn ame
Ġ r
{ \
Ġn ew
ul l
re n
m a
in d
Ġt r
> <
Ġ O
E x
un d
Ġ Ċ
Ġb y
Ġ W
ĠT he
b ject
) .
v e
ar y
l u
) ,
N ame
== ==
er e
../ ../
an t
ĠĠĠĠĠĠĠĠ ĠĠĠĠĠĠĠĠĠĠĠ
imp ort
g in
p ut
s er
i re
s ource
ĉĉ ĉ
d d
ig n
Ġ :
a ct
an ce
Ġ y
ĠĠĠĠĠĠĠĠ Ġ
i es
q ue
p er
it ion
( '
f ig
r or
Ġ al
ro w
lo c
2 0
Ġf unction
Ġ$ \
th is
b er
t a
Ġ .
Ġp ublic
f t
o id
Ġw e
ht ml
i p
Ġa re
Ġ at
) )
Ġc h
Ġn ot
P ro
Ġh ref
il l
T ype
Ġf rom
co m
at ed
v ent
f orm
me ssage
co de
b e
Ġ _
un t
E R
ra y
lo w
Ġc ont
le ment
Ġst r
i el
t p
m ath
la y
S tring
iel d
s h
en ce
Ġ j
O N
l ation
tr ans
Ġ U
Ġs h
or y
la b
p p
I d
re turn
vi ce
de x
Ġ un
on e
Ġt ype
C on
al se
an g
Ġ #
p ort
D e
l l
I N
Ġ= >
par am
or d
ren t
t d
Ġv ar
c ol
en er
ce ss
en s
C ont
Ġ ar
o st
} }
o u
at or
que st
Ġv alue
Ġ get
d i
ke y
/ >
Ġ le
in k
Ġ In
sc ri
re ss
Ġ !
c ont
Ġ |
or k
av e
C o
b o
at ic
t ype
an ge
Ġse t
a ce
ode l
u ct
lo ck
# #
a mp
f in
Ġ i
a ss
u st
" />
^ {
on g
lo g
ar d
t ext
R E
Ġre s
il d
Ġ li
E n
Ġco mp
f o
th od
y st
Ġin t
T o
r iv
a re
Ġse lf
th er
Ġ= =
Ġcon st
Ġ V
trans lation
o me
R es
ro up
p ert
Ġ he
a k
} \
L ist
Ġc an
ce ption
yst em
} $
1 0
ac he
l ine
} ,
v al
Ġd ata
Ġn ull
Ġ J
at ch
u le
fa ult
le ct
ad d
f ra
ap p
a st
T he
S T
Ġv oid
Ġ use
_ _
ul d
Ġd o
b u
um ent
Ġc om
i de
m o
i x
f er
S e
en g
c he
ĠT h
: //
v ar
s o
c al
c lass
el l
n e
er y
c lu
Ġ us
c re
"> <
ic h
pe ct
A T
de d
) );
Ġ el
Ġ `
str ing
ow n
ut e
m b
ter n
1 9
Ġw as
lab el
y n
Ġl ine
Ġ id
ation s
it le
o g
y le
**** ****
s um
pe c
av a
ĠĠĠĠĠĠĠĠĠĠĠĠĠĠĠĠ ĠĠĠĠĠĠĠ
Ġ er
ht tp
um ber
Ġ k
o int
" );
( \
O R
// //
C h
a ch
d ata
Ġf alse
-------- --------
L E
re e
D ata
p s
Ġ >
r ight
be gin
ad er
Ġ )
A r
all y
V alue
id th
ĠĠĠĠĠĠĠĠ ĠĠĠĠĠ
qu al
tr ib
I D
riv ate
) :
w e
Ġstr ing
o uld
in al
Ġtr ue
S er
Ġh as
c ur
se lf
M e
Ġh ave
Ġa ss
ption s
Ġ Re
g s
Ġb o
de f
m ary
Ġ/ **
Ġp ar
g er
1 2
li ent
i ew
' s
eng th
A R
Ġw ill
Ġel se
Ġo ut
v alue
st ance
loc ation
A L
E N
n b
f ile
ir st
r y
m in
Ġ all
b ack
re ad
ĠĠĠĠ ĠĠ
S et
T h
âĢ Ļ
j s
ĠĠĠĠĠĠĠĠĠĠĠĠĠĠĠĠ ĠĠĠĠĠĠĠĠĠĠĠĠĠĠĠĠ
==== ====
ic al
Ex ception
Ġc ol
se s
e y
o f
if i
r ror
se d
C ol
pert y
t y
_{ \
ame ter
nb sp
i o
Ġwh ich
o b
t he
( $
" )
ion s
] ;
Ġres ult
e c
Ġ& &
Ġ en
as k
ar ch
d ate
20 1
e mp
sp ace
a x
} {
Ġ K
clu de
u al
p re
le t
Ġ end
p x
n ot
on se
ar k
m it
c ri
Ġ// /
co mp
S S
m s
ar get
Ġn e
) $
Ġ up
Ġv al
Ġst atic
Ġ --
B u
le ft
O bject
Ġ! =
b ar
Ġy ou
T est
ĠS tring
Ġ x
Co mp
at es
s ub
Ġd is
() .
u d
P ar
Ġt est
Ġf ile
E rror
amp le
Ġt ime
t on
i a
A n
or g
' )
it em
Ġ lo
ing s
Ġor g
u es
t est
G et
qu ire
Ġa dd
() );
ut h
Ġc ase
ro id
scri pt
n ew
Ġ %
Ġa c
et a
' ]
s ize
t ime
Ġde f
fra c
D E
p r
on ent
if ic
Ġs u
Ġ ro
g le
at us
r it
r c
e q
. _
K ey
fa ce
C T
re am
w ork
o und
at ure
ic s
od ule
g ra
U n
le d
o ver
l ink
. </
Ġp rivate
Ġa b
d u
i e
le an
S E
f or
1 6
F ile
ĠĠĠĠ Ċ
os ition
A t
re ate
he ck
p ublic
e p
sum mary
ĉĉĉĉ ĉ
I T
il s
c ite
Ġs er
le ction
a ke
3 2
im age
Ġp re
p i
e qu
T r
v el
" ;
[ '
f unction
o ck
Ġon e
M E
Ġ| |
li st
u g
d a
} )
Ġp er
2 00
il ter
Ġs p
in dex
Ġb ut
a ction
"> </
' );
V iew
m and
ff er
n av
k en
ire ct
l d
s ion
od y
a rent
Ġc ur
N ode
E vent
ĠTh is
I t
b r
() ,
T ime
Ġo bject
Ġin ter
p lay
l er
ro ll
ic k
i ce
vi ew
um n
Ġb u
ol d
r m
Ġf inal
B y
at ive
c a
str uct
ack age
Ġo ver
to p
Ġa pp
Ġwh en
Ġp art
Ġ la
ers ion
w w
ĠS t
Ġ key
Ġ âĢ
ind ow
con st
1 1
tern al
f ore
id er
Ġn o
A N
C O
U L
Ġs o
Ġs up
i se
$ .
or der
b ut
oc ument
con d
lo ad
} .
Ġ );
] ,
p end
l ate
p o
math b
ur l
Ġo b
r ite
qu ot
Q u
Ġan y
an n
cri pt
Ġme thod
tr y
l ang
m on
he d
$ ,
Ġer ror
" :
Ġtr ans
Ġ ext
Ġs ub
Ġ/ >
St ate
en c
d is
=" ../../
un c
! --
Ġch ar
E lement
in ter
la ce
Re quest
Ġfor m
p ath
ri de
C lass
le te
y p
g roup
ag er
t able
oo k
Ġli st
Ġex p
v oid
Ser vice
, \
or s
Ġs pec
o k
/ *
In fo
ro und
ig h
Ġass ert
oo lean
if y
T ext
us er
Ġ ?
as h
equ ation
y s
/ **
ib le
ur ation
re d
t tp
Ġo ther
g ument
c ord
w o
c ent
in clude
co unt
=" +
Ġ imp
I ON
R O
o us
() )
a il
m d
p y
S h
P ath
2 5
ul ar
loc al
Con fig
n o
n ode
f ter
trib ute
at er
l ength
res ent
M an
ph a
g ist
F ield
Ġth row
' :
w idth
] .
w h
math cal
" "
ra p
1 00
Cont ext
Ġ/ *
Ġ qu
P E
In dex
` `
Ġon ly
ain er
T E
L A
C ode
c cess
M ap
fer ence
H e
ic on
Ġn umber
Ġt itle
1 5
n er
con fig
It em
Ġuse d
Ġm ore
ĠĠĠĠĠĠĠĠĠĠĠĠĠĠĠĠ ĠĠĠĠĠĠĠĠĠĠĠ
il der
ra w
E qual
A dd
f ield
W e
u i
Ġb ack
T R
ra me
ro l
Ġj ava
is h
C om
Ġc all
Ġt ra
il ity
} ;
P I
Ġ( !
Ar ray
n ing
ĠC h
Ġm odel
//// ////
oo gle
F or
ect or
Ġ Y
Ġar ray
ĠE x
e ar
lo b
******** ********
v ed
} (
c l
ap i
1 8
ĠW e
Ġf irst
Ġf ield
ap ache
ra ct
iz ed
p en
bo x
fin ed
at ing
s ign
ol low
Ġal so
s on
Me ssage
6 4
Ġ} );
ar ray
st yle
m ap
Ġre p
[ ]
it s
' ;
ut ion
d ing
Ġs ome
O ver
ut il
## ##
Ġb ase
Ġ-- >
Ġde fault
la s
b ase
re ak
Ġa d
al pha
Ġ} ,
w ord
N ot
tr ue
C E
Ġn ode
ĠC on
Ġs ize
ĠS e
ĠP ro
res ult
ĠD e
it ial
re sp
Ġe vent
el y
me m
ass ert
S ize
Ġsh ould
g round
se ction
} ^
ĠA n
Ġm an
Ġw ork
in put
~ \
F orm
er ror
i an
U R
ifi ed
Ġre quest
Ġg ener
A s
} _
o bject
1 4
t itle
is hed
ut o
W ith
http s
Ġst ate
H and
yn c
Ġth ere
n et
.. .
ss ion
Ġex pect
1 3
le m
col or
m odel
Ġer r
ĠC o
ect ed
Ġ ent
val id
b y
ĠI f
d t
us h
Ġa p
S ystem
= '
ĠG et
m an
cre ate
iz ation
+ +
Ġ u
le s
Ġa g
lo at
t s
en se
Ġth en
t il
Ġ: =
Ġcur rent
Ġd if
Res ult
de fault
et urn
Ġe lement
Ġus ing
Ġf ollow
Ġst art
b lock
D es
ment s
Ġ= ==
in s
Ġt wo
ne ction
Ġa ct
h o
Ġin to
l t
Ġcont ent
O n
cont ent
O r
lo se
f rom
Ġthe ir
U T
f e
n g
en u
ot t
Ġwh ere
="../../ ../../
ens ion
p art
Ġit s
j ava
L e
is s
O f
Ġre quire
Ġ_ _
def ine
scri ption
mo ve
Ġ X
Ġre l
Ġm ay
V al
able d
Qu ery
C H
Ġm o
$ \
ce pt
st er
st art
Ġc or
Ġo per
Ġth an
ĠU n
lic ation
Ġbe en
Ġg iv
Ġcon fig
M odel
ver sion
L O
Ġ ra
Ġ} ;
ate g
F F
l an
Ġthe y
> &
' t
co re
Ġof f
a w
U p
Ġus er
ameter s
in fo
M A
n ext
) \
Ġs rc
Ġd ist
p onse
M L
ra ph
b ody
g a
Ġh is
lu gin
p ackage
---------------- ----------------
= \
Man ager
ver t
Ġb et
Ġin stance
C K
Ġ z
u me
Ġt ext
ĠA r
Ġy our
I m
UL L
co pe
ĠI t
Ġh and
IN G
Ġg o
A pp
; &
A D
ress ion
bu g
e vent
st ate
Ġt arget
Ġre sp
m u
ff set
g t
Ġo ur
L I
ust om
ĉĉĉĉ ĉĉ
o ol
Ġn il
te mp
Ġw ere
lab le
i ent
t ings
it or
ĠĠĠĠĠĠĠĠ ĠĠ
L oc
m all
Ġun der
g r
ay s
m er
B e
3 0
t n
Ġc ode
enc y
am ma
ub le
c le
se arch
and roid
in ce
pert ies
t ing
Ġc al
ĠĠĠĠĠĠĠĠ ĠĠĠĠ
C lient
U ser
cont ext
ma x
T able
A l
al ign
p oint
Ġsh ow
In ter
Ġin put
a i
roll er
O ut
c ss
In t
ĠS ystem
Ġe ach
Ġc heck
======== ========
d ot
Col or
it ies
Pro perty
lob al
Ġre ad
Ġbo ol
I s
las ses
l at
Ġ\ \
i able
form ation
ot e
; </
Ġme ssage
Ġ import
c all
Res ponse
Ġ log
Over ride
g oogle
5 0
Ġf e
Ġp oint
am s
3 3
\ \
âĢ Ŀ
Ġin st
Ġin dex
Ġwh o
T D
f alse
me thod
ig ma
at ri
F I
Ġh ttp
o ption
Ġp ath
Ġp h
1 7
G E
ir t
G roup
ug h
T H
en ame
} ^{
ce s
name space
p os
d oc
Ġre g
a ir
t ot
ith ub
> (
v en
ut es
_ \
che ck
ĠS et
d b
L og
um er
Ġab out
Ġs ystem
le ase
Ġm in
we en
M P
Me thod
se lect
Ġcont ext
st atic
d o
Bu ilder
ifi er
we b
Ġr un
} _{
mathb b
Co unt
Ġcon s
Ġsu ch
=" ../
Ġl ong
C all
it er
ann el
Ġstr uct
00 00
=" #
Ġval ues
Ġst d
A B
t es
D O
Ġgiv en
Ġp o
er m
Ġc reate
b f
mb da
he ad
U N
h at
St ream
Ġs ol
2 4
Ġs ource
y mb
yp es
mem ber
Ġch ange
ain s
Ġo ptions
Tr ans
g ithub
end s
us ing
- \
s up
m odule
EN T
Ġs c
t ra
E D
ymb ol
ĠĠĠĠĠĠĠĠĠĠĠĠĠĠĠĠ ĠĠĠĠĠĠĠĠĠĠĠĠĠĠĠ
mp ty
F rom
le x
ott om
Ġg roup
ar gin
o ptions
is ion
F act
t ected
Ġ Q
ra g
Ġa fter
w it
) </
d uct
a it
ff ect
p ri
] (
gist er
Ġit em
ĠĠ Ċ
d own
ph i
f unc
ist s
er n
ver y
Ġin v
Ġb lock
d ir
al e
m od
ro p
Ġb reak
Res ource
li b
D I
D is
In stance
c lient
ĠF or
ĠE n
la mbda
Ġt emp
^ {\
q l
re g
C ell
Ġs ign
Ġm ax
d ition
Ġst yle
p age
t ab
y m
Ġb oolean
uth or
Ġn on
ĠT r
pr int
A ME
atri x
2 2
h as
ww w
Ġand roid
cur rent
< !--
irt ual
orm al
B ase
D ate
Ð °
] )
ĠĠĠĠĠĠĠĠĠĠĠĠĠĠĠĠ Ġ
s k
port s
Ġt e
ol ic
St atus
ific ation
Im age
L o
l p
Ġs ame
qu ery
Ġr ight
Ġ< <
Ġv ersion
c c
In put
Ġdo es
se e
but ton
end er
Comp onent
at s
et work
n ull
Ex p
B lock
ĠN ULL
ile d
Ġne ed
r on
lic k
Ġbet ween
Ġw ould
de l
re quest
Cont ent
( (
il y
ser ver
er r
are d
To ken
Ġor der
if t
ou g
de pend
S I
id d
fer ent
v ider
r int
ce d
Ð ¾
fra me
Ġ{ \
A ction
o x
O T
Ġtr y
Ġthe se
en e
Ġwh ile
ON T
A ll
w ard
Re f
ref er
B ar
e lement
Ġm ap
l it
Ġ image
Ġ ed
Ġw idth
le g
ar gs
u age
m ark
Th is
u ch
b eta
I mp
U E
Ġm y
o v
St yle
4 0
Ġm ust
w ith
n ow
Ġ( )
ph p
c or
ro ugh
at ab
a pe
S ource
Ġ local
Ġ em
Ġd irect
ow er
id ent
rit er
ri but
S ub
Ġcol or
Y PE
fin ition
la st
f ul
ant s
ing le
9 9
Ġpro b
Ġ ->
on d
00 0
At tribute
Ġh igh
En d
Ġ" ""
te ger
T ra
e ps
th ing
ss ert
Ġse e
S C
in es
Ġre source
S p
o se
O ptions
N ew
on s
F rame
Ġout put
L ay
an el
Ġt able
Ġm ake
Hand ler
Ġp e
fin ished
ser vice
add ing
Ġ+ =
mathb f
o ot
R I
s igma
Ġla st
ĉĉĉĉ ĉĉĉĉ
Bu ffer
Ġh ad
ation al
t x
t arget
Ġ$ (
Ġle t
n own
Ġback ground
ar ge
Ġ Ð
il on
r id
Ġthe m
Ġpro vi
Ġ( \
lay er
d l
app end
he ight
L ine
U I
G ener
pro to
Ch ange
a z
e qual
he ader
An d
Ġs a
Ġd ocument
m y
atab ase
S tr
ĠS h
t t
Ġresp onse
( {
Ġf a
Ġh er
ĠĠĠĠĠĠĠĠ Ċ
h and
ve lo
js on
Ġfollow ing
Ġb order
l ight
ĠA s
N av
pro perty
un finished
Ġdif ferent
l ing
p tr
i k
Ð µ
[ "
id get
ĠL ist
ab el
lay out
Ġli ke
S P
x ml
ĠĠĠĠĠĠĠĠ ĠĠĠĠĠĠ
ure s
ol der
De fault
di o
de fined
P h
^{ -
ar g
} {\
ĠâĢ ľ
re p
t ag
Ġc re
in it
E d
ar s
le ss
T O
Ġ Z
ad ata
Ġpro cess
n s
Ġm a
t en
oc i
Ġy ear
und le
c ase
O per
p m
o in
Ġ( $
* /
p arent
sign ed
o ther
m ain
Fact ory
Ġsup port
Ġbe fore
cent er
s he
Ġf ind
x y
che d
ĠH e
6 0
Ġf ound
ĠĠĠĠĠĠĠĠ ĠĠĠĠĊ
im g
Ġm od
al s
w are
E X
V ersion
ĉ Ċ
b tn
Ġse lect
b in
gra ph
Ġle ft
ix ed
AT E
me di
u mp
T ask
8 0
N S
Ġp ri
Ġp osition
ĠR es
Ġj ust
Form at
d ic
it ed
M em
Ġn ow
til de
Ġh ow
) {
Ġal low
Ġ{ @
ch ild
F unction
r l
U S
Ġresult s
olic y
F ilter
row s
w rite
ult ip
ĠM e
Se lect
RE F
Ġn ext
imp le
* }
s rc
ch o
Com mand
nav bar
W indow
a pt
or ld
me d
r u
time s
Ġre f
an k
bu ild
H el
ĠT est
ar n
St art
A ct
// /
ĠO bject
E L
w n
act er
a u
ĠA l
N umber
Ġd i
iv ity
LA SS
ĠN ew
Ġv iew
trib utes
s ide
j av
del ta
Ġser vice
t ain
Ġp age
math rm
P oint
st atus
or age
N o
cur ity
act ive
g amma
T I
r ho
Ġf il
bu f
Ġpro perty
Ġth rough
la gs
P age
Ġto p
+ \
Ġrep resent
Ġin formation
Ġc lient
f ilter
Tr ue
O L
ex p
2 3
c ast
L ink
ch ar
ction s
Ġthrow s
) }
B ut
tot ype
Ġval id
Ġf act
N ull
b ig
Equal s
h er
6 6
is sion
Ġ ,
p ush
ang le
s u
gra m
wit ch
Ġex ample
f low
Ġe qu
iz er
Ġap pro
p osition
F A
ar row
n ect
at tern
" ]
//////// ////////
H T
E E
Ġse cond
^ \
ur ing
p rivate
s g
C heck
re quire
r un
end if
ass word
ser v
} );
me ta
Ġm ost
D el
qu ence
vi ous
op en
de scription
form at
ĠR eturn
r t
b ottom
fig ure
ial og
ent ial
as on
s pec
Ġar gument
ĠN one
ch ange
ca use
p c
2 1
Ġimp lement
the ta
P T
ff ic
an y
Ġv is
f irst
Ġ( (
and om
op y
Ġin itial
C reate
ĠCo mp
$ {
row ser
( &
um b
Con st
Ġs he
an sp
b it
lo ud
g o
F ONT
i er
g ener
C ur
R ow
Ex t
Ġpro tected
Ġm atch
oug h
str ong
p ost
se c
e ver
p lugin
le ar
Ġo pt
om ain
per i
L abel
Ġbo th
T ag
v es
ĠI N
s w
cont ainer
] {
V ER
ic ense
Ġh ere
AB LE
refer ence
C ache
er o
Ġr ange
List ener
v ai
Ġ url
ce iv
_ .
lo t
Ð ¸
Ġe st
as cript
ob j
Ġs im
se mb
Ġs cal
ta u
unt ime
pro ject
~ ~
S ON
Ġsp ace
f ind
Ġme m
s ol
res ource
e k
Ġl ink
d f
op le
Ġw ell
N O
Re ad
ers on
R eturn
Cont roller
Ġf in
dis play
che s
Ġp arent
c y
2 7
i que
in stance
$ -
ateg ory
Ġwh at
Ġbu ild
Ġco uld
f ont
Ġsup er
ig inal
param s
A P
o ve
G L
Ġm odule
Ñ Ĥ
S pec
at tr
il er
Ġch ild
c i
part ial
Ġext ends
M ode
0 1
h ost
Ġp ol
Ġle vel
P RO
ĠS er
Ġpart ic
V ar
Ġbe cause
p ack
l en
P art
IN T
on y
g ress
Ġ čĊ
ang uage
p ng
Ġdis play
com mon
ater ial
Ġc ent
c lose
n u
read y
Ġcont in
at t
she et
ref ix
le q
l s
Ġexpect ed
UR L
b ed
ex pect
st d
Ġm argin
if act
But ton
L ength
Ġde fined
ir on
oc us
up date
ĠC ol
wh ere
st ream
Ser ver
O D
ĠâĢ ĵ
9 0
ab ility
5 5
m enu
o pt
resp onse
e e
ĠC om
im ation
Ġ ]
Val id
Ch ild
Ġin clude
is m
c dot
U t
re en
A S
Ġde c
Ġcomp onent
Ġid ent
im um
Ġdist ribut
Out put
Ġadd ress
Ġa uto
re move
ĠO n
Col umn
l and
re ct
Ġ label
ck et
" ),
pro totype
ĠĠĠĠĠĠĠĠĠĠĠĠĠĠĠĠ ĠĠĠĠĠĠĠĠĠĠĠĠĠĠĠĠĠĠĠ
ĠW h
Ġ low
Ġe very
P O
so le
v is
Ġco unt
w ay
Col lection
che ma
Ġhe ight
de s
Ġpro ject
} (\
Ġs ur
Ġl ength
la g
ar ning
set s
I L
v ol
ĠA dd
3 4
Ã ©
struct or
m m
< ?
ro ss
str u
S c
Ġpar ameter
Ġli mit
jav ascript
yn am
Ġp lay
m t
Ġ< !--
Ġde pend
Ġcom mand
l in
P re
2 8
c ul
c ache
lo y
O ffset
s i
Ġbe ing
vai lable
Ġcol umn
tr ic
T YPE
Del ta
ic ro
ER R
**************** ****************
op er
ĠH REF
Ġspec ified
g y
" ).
Ġo pen
r ing
Ġex ec
C ON
E T
eq ref
Ð ½
to ol
de v
Ġser ver
We b
Ġ! ==
ĠC LASS
I f
Ġ[ ]
co me
Ġcall back
B ox
ĠC ont
B undle
D i
) (
out put
Ġinter face
v iron
and ard
Ġpar ameters
s ing
A d
iv ely
U rl
ER T
Ġo ption
an not
Ġag ain
st ore
7 5
r an
Lay out
ent ry
r ic
ens or
t ity
un k
> >
ri ct
col umn
O b
n umber
ature s
Ġf ont
++ )
`` `
n um
U M
am ily
return s
ĠT o
Ġcons ider
T emp
Ġcon dition
velo p
Ġa ction
st ract
res h
ig ger
Ġup date
: </
Ch ar
CO L
I G
ome ga
' ).
Ġm on
as ure
}$ ,
| \
Ġrequire d
ra int
2 6
ex ec
Ġe ffect
}$ .
C C
Pro vider
N AME
ã ģ
Ġob tain
idd en
Ġc atch
A b
m un
ge st
Ġd own
Add ress
ĠL icense
Ġp rint
ft y
b ook
comp onent
g or
d ay
n on
cri ption
Re ference
A c
ĠE X
par se
al let
l ish
o use
Ġt ask
Ġp resent
R un
Ġw ant
S up
im al
sh ow
t al
in fty
Ġm ode
Ġcal led
o ffset
Ġf rame
Ġm ark
Inter face
L ast
W idth
ator s
un ter
Up date
Ġ q
( _
Ġac cess
art ifact
. "
g n
pro cess
a f
so ft
T ypes
g ing
qu ad
E S
Ġlo ok
Ġob j
lat form
Ġform at
Ġf ilter
el se
Ġp lace
#### ####
Ġ ss
Ġex ist
Ġs mall
ut ils
ĠA PI
Ġan al
a use
o ke
fo ot
lu ster
ent s
% %
T arget
ath er
un it
T P
C ase
Ġbo und
ĠL e
ĠAr ray
c s
ot o
Ġw indow
oo p
Ġco py
D B
s mall
ĠG L
Cont ainer
ig ation
Ġvar iable
ĠB u
Ġn etwork
k it
temp late
Ġar gs
Ġre al
Ġf loat
Ñ Ģ
W h
Ġp ort
ot s
2 9
Ġin clu
log y
Ġsa id
ance l
ĉ ĠĠĠ
ad ing
ge d
ic ally
ca ption
A C
D o
b l
Ġst ud
. ,
En try
H E
ĠP ar
Ġper form
M odule
Ġt ag
R em
ic le
Ġde ta
F e
la ck
I O
Ġcont ain
Ġl en
ib ility
ad ers
\ ,
Ġw ay
u int
ult i
Ġst atus
gor ith
ĠI s
Ġl arge
i or
old s
Ġpo ss
ĠH T
Ġde scri
u k
] );
eq n
bo ol
ĉĉĉĉ ĉĉĉ
it ive
Ġe ven
Ġs ince
co ding
s cope
Ġo p
an e
rap per
$ $
F irst
Config uration
re at
3 9
Ut ils
? :
ĠF ile
Ġm ain
u ally
4 5
in st
() ->
A M
ir c
Ġman y
S to
Ġp ost
19 9
A ccess
Ġre ference
3 5
ex ample
I S
Ġc ell
Ġwith out
Ġdo uble
ĠA pp
s m
bu ffer
t ask
s or
Ð¾ Ð
Ġqu ery
B ack
Le vel
u id
semb ly
: "
P er
ra di
Call back
Ġu int
="../../../../ ../
I C
ar m
Ġin ternal
w indow
at ter
ist ory
Se arch
on ly
sup port
iv ers
io us
P osition
r ation
' '
ĠI D
R ange
He ader
in ation
ith er
d ocument
f s
En tity
O P
it u
m atch
Ġ{ }
A PI
as ic
viron ment
to ken
T ree
f loat
Ġd on
app ing
Ġw rit
Ġt er
li p
. /
re t
W rite
CO DE
ry pt
s q
ro ot
Ġp os
( [
end ing
Ġre n
x i
ne ss
b ind
V is
Ġ* *
s d
Un it
il ar
c m
d raw
ĠT ype
sh ould
V AL
ct x
Ġbu ffer
Ġpe ople
B U
M ax
Par ameter
Ġat t
g ment
Ġk now
Ġfile s
ge s
b ra
Ġn one
he ther
que ue
ta x
' ),
Con nection
Ex ec
am l
le vel
Ġs ingle
Ġ et
la p
w ays
ut able
or ies
Z E
P A
bo ve
mo unt
Ġd ate
Ġcont rol
Ġa vailable
Ġv ery
ĠReturn s
it ory
Ġp ass
Ar gument
im ension
ice s
ĠĠĠĠĠĠĠĠĠĠĠĠĠĠĠĠ ĠĠĠĠĠ
} [
c lasses
Cont rol
Ġre t
He ight
p es
Ġcon nection
t ree
Ġbase d
h av
al k
Ġt ak
style sheet
P C
r al
stru ction
] [
Ġsu ccess
com mand
emp ty
Ġcor resp
ens ions
Ġth ree
de vice
UL T
=" -
g l
s im
J son
w ise
ĠA ssert
Th read
t ed
Set tings
val u
a uth
t ml
Ġs um
. $
bo ard
F O
Ġx ml
ag n
ps i
0 5
ore m
Ġc ache
ĠY ou
c ap
() :
du ction
ver age
}} \
c er
to col
ys is
riv er
ur al
de p
ition al
Ñ ģ
Ġ* )
Ġa bove
S H
Ġal ready
U til
Ġin cre
Ġar g
E mpty
sh ip
da pt
if e
d irect
Ġw rite
M in
Q L
pre c
H ttp
N D
4 4
Ġst ore
Pro cess
K E
a h
inter face
Re g
Ġover ride
Ġt yp
ver se
ut ed
ut ure
re l
N one
ĠA t
Ġhe lp
N ext
at al
r s
AT ION
Ġs k
g gle
ĠD ata
D ocument
ĠC reate
e f
expect ed
S u
e ad
I P
ĠO F
cont rol
3 6
Ġ` `
ig in
H ash
> ,
ar gument
iv es
w ait
Ġ ::
w ide
Ser ial
artifact Id
O p
Ġcon f
Ġde vice
0 2
ul ation
de bug
Ġt ri
fin al
="../../../../ ../../
ock et
M od
" ))
Ġm ultip
Ġin it
Ġreturn s
ol ume
O pen
over n
graph ics
a uthor
Ġoff set
Ġd id
in ary
Par ams
bo ot
M S
sc he
ã ĥ
a j
Ġmethod s
Ġg ame
c an
Ġass oci
COL OR
ĠAn d
ire ction
ener gy
lic it
Ġo ld
val ues
sc ale
Ġwith in
me t
Ġse arch
et ch
Ġv irtual
se cond
di ct
ĠN ame
Exp ression
st rap
Re cord
b m
c p
li ed
Loc ation
f oo
Ġpar ams
A V
0 7
du ce
" ));
T op
Ġo wn
" .
Re p
Ġ row
3 7
U P
ac ity
Ġd uring
or iz
Ġpro perties
Ġelement s
: (
ire d
K ind
) ]
Ġro ot
Id ent
a a
sk ip
Ġ> =
eps ilon
Ġh im
Ġd iv
Ġth ose
cle ar
ule s
l ong
Ġv er
ST R
a ded
Ġs ample
li mit
Ġp op
F ont
w s
Ġst ream
Ġex peri
M et
ap er
3 8
ĠF ig
r ange
Ġp adding
Ġh ost
Ġ" \
Ġre cord
O ption
ver s
po se
)$ .
PE CT
b s
p atch
g en
group Id
v ing
S cript
o le
d rop
i ant
Ġa ut
Ġpre vious
Ġf ull
Ġn av
Ġc ustom
Ġin s
P tr
am b
201 6
p ol
{ {
th on
ms g
o h
ĠC lass
ft ware
con f
Des cription
201 8
yn tax
i ally
As ync
De vice
} _{\
4 8
ens ure
Loc al
ã Ĥ
Ġto tal
Pro perties
Ġv ert
Hand le
Imp l
in c
Oper ation
eqn array
co py
Ġ im
Ġres pect
D ir
ast er
D irect
j e
201 7
Se ssion
sq rt
ren der
0 8
ĠD E
if f
ac y
ent ic
% ;
Ġg lobal
gorith m
file s
d ist
=" _
de lete
me ga
Ġre move
Ġfil ename
A uth
ct or
ĠEx ception
ma il
In teger
c d
Ġ ...
Ġname space
n ap
ch ool
ce ll
a uto
ĠS o
, "
0 4
201 5
sub section
st amp
let ed
in ner
Ġs ide
ĠN o
R L
Ġc lear
ed ia
Ġse ction
Ġdis c
u dio
ĠB y
mer ic
Ġfield s
h ash
} /
C opy
Sto re
R ender
de ta
ĠH ow
Ġren der
text bf
in ternal
Ġde ter
im er
m ode
Ġg ra
Q ue
ide o
Ġ es
P ort
age ment
Ġmodel s
C ore
ĠU p
be fore
g lobal
E CT
Ġspec ific
Ġe qual
================ ================
Ġtemp late
Ġma de
o ff
ĠG ener
al th
Ġst ill
Ġf ail
di a
AL L
E Q
Ġn ormal
Ġmo ve
i as
Nav Bar
Ġa m
U B
20 19
u x
M enu
a int
P o
d s
li ce
ĠN S
P ri
Pro ject
W ork
Ġde velop
Hel per
o od
doc s
Ġyear s
Ġat tribute
Ġfunction s
du ced
Ġb ody
Ġgo od
ffic ient
st ack
s v
OR T
Ġposs ible
A g
Ġn um
is on
m ission
depend ent
image s
Ġit er
M O
Ġgener al
leg ate
Ġme t
^ *
âĢ ĵ
Ġt ake
al t
B ig
ix el
; ->
Ġ ke
6 7
or th
om ic
b order
Ġre st
S chema
_ ;
ansp ort
de st
O mega
M atch
l us
Ġde st
mod al
at ches
ra m
ro y
3 1
Ġt ypes
ĠD o
Ġ art
model s
icro soft
Ġg raph
Ġ[ '
ma ke
ol ve
Ġent ry
Cur rent
Ġhand le
j oin
Ġchar acter
Ġhas h
( :
Ġe ither
G amma
action s
Ġto ken
sp lit
Ġin fo
p ed
ĠO r
b a
cre t
en ded
Ġl anguage
Ġe mpty
Ġ ge
se ssion
8 8
ĠEX PECT
ĠA ll
cre en
R out
ord in
Ġargument s
DI R
D L
I ter
o ice
S ign
ps ilon
ty pes
i um
w idget
Ġm uch
v m
Ġm ak
A A
Ġoper ation
ERR OR
Ġme asure
ĠL og
Ġinst all
i od
Par ser
out h
ut er
use d
c at
Par ameters
Ġin dic
to String
en v
Ġd one
m iss
Ġun defined
ĠB G
Ġ ~
'] ,
H ost
or n
ĠĠĠĠĠĠĠĠĠĠĠĠĠĠĠĠ ĠĠĠĠ
Ġc lo
Ġc ar
Or der
Ġw hether
I con
ĉĉ Ċ
in ing
Ġf ore
equal s
pro p
ve c
eng ine
Ġc lose
A ssert
s f
c cur
il t
iv al
P os
Ġap pe
ĠA d
Ġm atrix
by te
ĠTh ere
up le
)$ ,
Temp late
Ġre ceiv
te gr
Ġapp lication
k nown
Ġby te
V ector
ex port
br ary
v ision
ĠC heck
Le ft
re q
ens ity
r angle
j o
Ġconfig uration
} =
ĠB e
c ing
ĠĠĠĠĠĠĠĠĠĠĠĠĠĠĠĠ ĠĠĠĠĠĠĠĠĠĠĠĠĠĠĠĠĠĠĠĠĠĠĠ
Ġre lation
ĉ Ġ
ction ary
cl us
C L
Ġg u
Ġb it
Ġ energy
ĠO R
s end
imp l
Ġre port
ign ore
im ate
Ġor iginal
T ER
( *
Ġf ree
par ameter
C al
me s
Ġcal cul
0 9
ad ow
he l
Des cript
M M
c ard
Ġro le
Ġcre ated
Ġan other
at ely
m ar
Ġprob lem
ĠT O
Ġpar se
ick er
T itle
un g
it al
oriz ont
d ated
Ġd en
gist ry
b b
In valid
op s
pos itory
s ystem
hand le
it es
AT A
em ber
ĠP h
Re ader
l ished
AR T
ad s
Ġre lease
Ġs at
OR D
ur ther
h over
S O
R A
^{ (
0 6
ĠBG COLOR
' >
F alse
To ol
Ġm ass
0 3
D own
Ġp ower
c lick
ure d
SE T
b reak
Ġsh ort
Ġpoint s
Ġprovi ded
ut ions
}^ {\
R ect
Ġch annel
Val ues
"> &
H O
enc ies
Ġcont ains
s l
De bug
s a
X X
= {
Ġal ign
er a
rep lace
or ity
Ġqu ant
Ġsim ilar
ix t
k ind
Ġ ;
O S
` .
v ector
De f
Ġw ord
> ();
ex ception
sc al
Ar gs
Ġs cope
web kit
ĠS p
Ġex ception
S cal
Ġac count
em ent
orizont al
Ġ loc
Ġhttp s
cord ing
i ct
et s
Ġcont ainer
ĠD es
By tes
include graphics
25 5
Ġa pi
Ġp ackage
. \
Ġsh own
201 4
S A
ĠN ot
St ack
re qu
r ont
set tings
} ).
trans form
p anel
add ress
Ġb ro
ĠSe e
re m
Name s
ynam ic
ex ports
P arent
z e
medi a
D eta
Ġw orld
> .
X ml
App lication
Ġ$ {\
C P
dis abled
Ġtra ck
A pi
) =
v id
back ground
ac cess
Ġar ound
co der
Ġevent s
Met adata
code d
iv er
r r
O ne
## #
=" /
Ġde lete
Ġoper ator
Ġ} )
un try
Ġd er
GE T
foot er
R ight
P RE
Ġv ector
ut or
.. ..
ers ist
Ġun signed
Ġreg ion
p op
ĠM ap
l n
Ġobject s
v are
boot strap
ä ¸
-- -
f il
U se
c ustom
Ġstruct ure
B O
7 7
oo st
In st
ir m
Ġp res
Ġpro duct
e ded
U RE
i i
Ġin line
Ġ location
on ding
-------------------------------- --------------------------------
Ġde scription
ym f
Ġhe ader
De finition
ir d
ĠTr ans
S L
I M
ymf ony
W riter
Ġbe st
ta ch
V ert
Ġlo ad
f n
LI C
ome try
à ¤
or ph
Ġc ert
âĢ ľ
Ġal ways
Ġscal e
Ġby tes
vare psilon
AN D
P olicy
H as
Ġinclu ding
i res
Ġe cho
By te
ist ic
C lasses
Ġc l
d om
ser ved
} ),
b oolean
Ġassert Equals
call back
ĠR em
Ġr andom
at tribute
FA ULT
right arrow
Ġ+ +
Ġ" /
Ġde p
Ġreturn ed
Ġpartic ular
TE ST
ĠT ime
ad min
CH E
Ġde l
En abled
6 5
emp h
Ð° Ð
B ody
& &
Ġd ue
De lete
ra ft
proto buf
A re
Ġp ay
ĠD is
M eta
Ġe ar
[ \
SS ERT
B oolean
ĠJ SON
U s
. ~\
to ggle
Par am
Ġassoci ated
ĠTr ue
v as
Ġ\ ,
ĠC ON
Ġpro gram
av ing
ine ss
Ġp ut
B A
R oot
} "
Ġdef ine
ter s
Ġse ssion
mo ck
prec ated
Ġinst ead
frame work
u c
P ackage
ĠĠĠĠĠĠĠĠĠĠĠĠĠĠĠĠ ĠĠ
S k
Ġg r
__ (
mb ers
C A
-- >
M ock
Descript or
p adding
sh ot
Ch annel
; <
S ION
\ "
ĠM an
h ad
al y
Ġc ap
li es
de sc
g reg
var phi
IN E
Th at
Ġse quence
Ġs witch
4 9
ĠD ate
Test s
EN D
4 7
Ġp lan
Ġj ob
Ġme an
ch i
ĠI m
D raw
con nect
AT H
depend ency
OR M
Ġe lect
unt il
ĠA meric
do uble
Ġre mo
icon s
V er
ĠI O
ur i
Ġv ia
N on
c loud
ge q
F T
Ġc ref
Ġo s
ent ion
201 3
ern el
Ġj son
Ġp as
pe ed
ir cle
Tra ck
. }
C D
s ql
Ġcontin ue
idd le
Ġa uth
Ġbe gin
he lp
Field s
re st
A ss
la in
Ġsol id
Ġth read
Ġad ded
i j
al le
iz es
om ent
V E
c f
ivers ity
re gister
Ġdirect ory
8 7
v irtual
av en
ĠB ut
L et
$ (
Ġcol lection
Ġ' /
r ary
Ġselect ed
ent er
D D
M on
{ }
Ġte ch
fa ct
B ind
ri es
V I
Ġp ub
Bu ild
Ġagain st
CT ION
t le
. âĢĿ
ins ert
Lo ad
Ġter ms
x is
ĠT ra
Ġinv oke
T ab
ĠE rror
n d
Ġs pect
dapt er
over line
W E
p lace
f ocus
N um
Ġcent er
f ill
") ]
4 2
Ġe lem
Change d
co in
Ġfe ature
su ccess
ĠV alue
"" "
t ip
est ed
G N
pro of
Ġd atabase
plugin s
Ed it
Ġcom mun
L ong
con n
Ġp l
Ġe as
Ġbe low
D ialog
St orage
Ġs end
Ġ< =
Ġf our
Ġm sg
bo und
` ,
Ġcan not
o om
tr ics
ateg y
Ġre gister
' ))
Ġdistribut ion
ly ing
Ġst andard
w rap
ym me
c md
we ight
ag ing
yn ch
en um
ip el
item s
pp ed
O M
c la
( -
p ub
Ġun it
Ġt erm
Ġ( "
th en
ĠS T
O K
Ġm er
Ġfollow s
ĠHT ML
Ġis s
il li
Ġg l
Ġk nown
Ġc la
}, \
rag ment
Ġbo x
ser ial
Ġex cept
ed it
ase s
po sed
Ġb el
Ġle ast
Ġv e
R ule
N et
end ar
res sed
ĠWh en
annot ation
Ġact ive
block List
Ġcor rect
Ġto ol
id s
Ġto o
Ġp ot
sol ute
ĠIn t
P ost
ĠL O
Ġ( '
is f
S D
8 6
ĠR E
Ġrep lace
De cl
Ġp erson
Ġp air
ĠC al
s ort
un signed
Ġvar i
Ġex ists
Ġtrans form
C lick
Ġde finition
C ustom
Ġle ss
con nection
ĠS up
Ġnode s
ĠWe b
Ġo ccur
ch or
field s
Ext ension
J ob
G raph
F a
Ob j
ĠĠĠĠĠĠ Ċ
="../../ ../
in line
re cord
h line
x x
app lication
Ex ternal
k s
amb da
8 5
Ġconst ant
Ġgener ated
in itial
Ġset tings
Ġ ),
Ġse par
d r
Ġ until
Ġ( *
tr ie
he s
R el
iter al
M D
ĠHow ever
Ġp r
Ġbut ton
KE Y
Ġfa iled
Ġd ay
Ġbe come
Que ue
Ġp ur
ĠT e
ch annel
ĠM ar
B ound
Time out
Dis play
Ġm ight
ĠN OT
Ġcorresp onding
us ic
HT ML
je ction
Ġz ero
In it
7 0
a ut
Ġt ree
ri ef
ĠĠĠĠĠĠĠĠĠĠĠĠĠĠĠĠ ĠĠĠĠĠĠĠĠĠ
ĠM ath
un der
add r
ru pt
Ġinstance of
ĠU RL
) ^
iz ing
ĠE vent
had oop
hav ior
Ġt urn
Ġs imple
al f
m ut
am era
Ġst ep
Var iable
Ġchange s
Ġmultip le
st ep
co q
c ert
Ġtrans action
Ġme ans
og raph
print f
n ormal
Ġf ew
a fter
gr id
M sg
C re
agn ost
m argin
Ġre m
Ġass ume
W idget
lang le
4 6
8 9
In s
Ġl ight
ĠS c
p assword
ĠTh en
la sh
D atabase
u ss
Ġ{ };
T A
co ver
D oc
Ġse ver
ent ity
Ġs ure
G e
L ambda
ĠS ub
Ġjava x
Ġth ink
P H
Ġal ong
Ġdeta ils
c pp
m i
p g
& #
ipel ine
Ġshow s
_ ->
un ded
J SON
ĠDe fault
Ġrel ative
Act ive
key s
FI LE
in a
_ ,
Ġprovi de
ĠF e
S cope
Ġwe ight
d at
Ġh app
Ġexp ression
Ġd oc
Ġperform ance
Ġh ome
f ull
f ree
ĠA c
Ġst op
Ġl ater
IT Y
//////////////// ////////////////
c ategory
R untime
201 1
Ġcon n
ĠC an
let ion
Ġtime s
Trans action
Ġline ar
20 12
ot ion
Re quire
ce ive
Ġmem ory
Ġname s
Ġser ies
Ġlow er
ynch ron
Ġerror s
Ġcom mon
reg ion
Ġal t
F ound
Ġse lection
ĠU ser
" `
TE D
( !
100 0
Ġass ign
S end
j ust
S ER
m aterial
sh ape
e v
Ġdoes n
& \
L ock
Ġc luster
N etwork
ĠSer vice
Ġh tml
ĠIn ter
F loat
Ġin tegr
sup er
ar ing
us iness
* )
th read
ĠA b
age d
Ġra ise
con trib
a de
ime s
Ġd b
Ġ quest
b olds
Ġs ort
@ "
at io
av es
h r
em ail
al loc
In itial
] ]
c r
ar i
u ary
n a
ol ution
h igh
M ENT
Ġs ay
ĠN ote
Ġitem s
l or
P lugin
Ġa mount
Ġb ook
for med
oh n
g u
nap shot
Ġsol ution
et y
ub e
EX T
Ġset s
if orm
Ġs cript
On ly
ĉĉĉ Ċ
com ment
Ø §
A GE
. __
Ġs w
[ :
E ach
Ġhand ler
iss ing
Se curity
5 7
Not Null
Ġc our
ĠP y
Ġint ro
Ph i
rom ise
Ġl ines
ge x
Ġc ause
Â ł
I I
Ġe mp
Ġst ates
drop down
Ġm ag
inst all
ar p
-> _
c it
Ġfe atures
her it
ĠW ith
Ġs m
ition s
radi us
Ġstr ong
not e
ol l
Sh ow
en ch
Ã ¡
}} $
f lu
sh ort
sc roll
Ġdif f
type of
Ac count
F lags
ĠU se
~~ ~~
n ab
=" "
J ECT
assert Equal
s ave
ly ph
z z
ut f
p ag
Ġst ack
app a
h s
Mem ber
s ite
ro me
Ġme dia
fra k
import ant
id ual
lap se
Log ger
h older
bolds ymbol
l ue
S ymbol
In ternal
5 9
module s
Ġat tr
Ġspec ial
ĠM ay
U ID
Ġact ual
Ġlink s
Ġ[ ];
oper ator
un ch
SI ZE
Ġp attern
M ark
ixt ure
ĠSt ate
al low
d im
)) )
cite p
TE X
t ect
Ġke ep
ab ly
Ġr ate
key word
at ist
Ġcomp lex
li m
ach ine
Ġw ait
aw s
Ġwe b
=" @
ar r
Ġf unc
m box
sum er
th rows
D F
Ġa uthor
Ġcontin u
Ð »
Ġon ce
ra in
ĠV AL
)) );
lic ense
entic ation
Ġbet ter
Ġm ock
N e
() ));
Ġsup p
, -
Ġs ent
li de
sche ma
Ġw allet
ĠV al
n one
Ġset ting
Window s
Select or
assert Equals
A fter
Ġsat isf
Ġwe ek
Item s
Ġare a
ĠG e
Ġper iod
LO G
Ġac cept
f lags
P ool
ĠF alse
Ġne ar
By Id
==== ==
Ġcondition s
Ġ% }
Lo ader
tx t
lang uage
Ġstud y
k appa
. *
Direct ory
ĠB ase
il la
Result s
un e
ĠN ode
wh ite
Ġi de
MA X
G rid
ul lable
umb ers
h ome
Ġchild ren
Ġdist ance
Ġaut om
Ġ$ {
oc ial
Ġs ite
text it
++ ;
Pro tocol
En um
VER SION
st ats
ĠE ng
i ed
ĠIn st
n umer
event s
g re
() ).
_ (
L ib
Ġdeter min
5 6
) ">
c rypt
pri mary
p k
Ñ ĥ
ar ison
nab la
and s
Iter ator
Ed itor
ann er
Ġob serv
P anel
select ed
lan k
C an
ff ff
Ġadd itional
iv ed
ar ies
ld ots
g it
ĠC opy
Sup port
man ager
c lo
=" ">
C S
cont roller
Ġsupport ed
Ġser ial
st op
Pro xy
um an
ĠĠĠĠĠĠĠĠĠĠĠĠĠĠĠĠ ĠĠĠĠĠĠĠĠ
j query
ĠA ct
F in
leg al
re lation
pro duct
Ġimp ro
AD D
Ġimport ant
ur y
ĠI S
Ġp y
C R
/ \
ut ing
Ġd raw
math frak
B it
E M
Ġanal ysis
' .
r ule
w ner
oo se
Ġrun ning
Ġla w
Act ivity
g ative
F unc
f l
R ed
; /
ĠC re
Ġb tn
e cho
Str uct
Ġkey s
'] )
by tes
Ġother wise
AR Y
A uto
Ġro t
Ġra di
ub y
Ġpas sed
ĠThe se
25 6
Ġapp lic
t mp
k a
L java
%% %%
li ke
s ample
ward s
tr ies
Ġne ver
An not
ache d
sc reen
Ġcase s
Ġcon sole
Ġpo inter
ĠL o
Ġmon th
S ymfony
Ġre d
sp ring
\ %
c ar
Ġf ixed
Ġtyp ename
ri p
ĠK ey
ot imes
X ML
Ġ" "
() {
Name space
j ob
hand ler
7 6
li er
ack et
ĠEn d
] :
An y
ĠO pen
P AR
T ABLE
Ġf n
Mem ory
S ocket
Ġd ensity
} )$
as ing
Ġ ignore
v ance
c b
pro perties
vol ution
P ORT
e ach
st and
Ġf ace
ĠĠĠĠĠĠĠĠĠĠĠĠĠĠĠĠ ĠĠĠĠĠĠ
Ġt ab
Ġcon trib
", "
Ġe valu
c irc
At tributes
8 4
Ar g
Ġin teger
Ġn et
I R
and id
Ġext ra
ç ļ
5 00
Ġid x
Gener ic
RO M
raint s
Y ou
net work
Ġd r
Ġn umer
çļ Ħ
' re
Ġhe ad
Ġre ason
P ATH
Ġobtain ed
ch an
iter ator
Ġso ftware
m ult
p ay
r ate
mark s
ri st
C lose
Ġde sign
par a
A dapter
ro s
atal og
Ġcon vert
De p
Ġ( _
il ities
I F
p ing
ĠThe y
equ iv
ol ver
En g
our s
20 10
as sets
Ġun ique
pe ak
M atrix
Ġ qual
######## ########
Ġcomp lete
IG N
Ġf low
Fe ature
P attern
S Y
log ical
Ġbu ilder
act ers
Ġf lu
int e
ĠF unction
Ġn g
NavBar Cell
Ġmax imum
ĠN e
D ist
Ġc y
app ly
Ġat tributes
sub set
Ġen vironment
ac ing
ĠO ption
u la
S QL
} -
[ $
P erm
tra ck
itu de
Ġsever al
wh ich
S o
ĠTO DO
Ġinter est
point s
result s
n t
o logy
N E
Re gister
Ġal gorithm
h idden
Ġb ind
9 6
le y
M edia
Ġc a
9 5
Element s
ĠL et
l ines
d omain
Ġte am
ys ical
Ġi o
h ip
Ġr ule
non umber
In v
Des c
g an
Ġf urther
Par se
, âĢĿ
m id
Ġp aper
Ġext ension
Key s
ĠT able
SC RI
Ġre main
Trans form
Hel p
m ost
se curity
\ |
ge ther
S um
ĠA N
ĠMe thod
on es
om en
ol ved
To String
component s
Ġvariable s
ĠĠĠĠĠĠĠĠĠĠĠĠĠĠĠĠĠĠĠĠĠĠĠĠĠĠĠĠĠĠĠĠ ĠĠĠĠĠĠĠĠĠĠĠ
BU G
se l
Ġne eded
Po inter
get Name
am ent
ang o
IN FO
Ġapp ly
b le
re ed
i ke
Ġd ir
) ).
L S
} </
ĠIO Exception
ĠâĢ Ķ
al es
Ġtest s
Ġal loc
ĠC ar
pro file
N ULL
Ġre cent
Event s
ĠUn iversity
u ro
Ġdistribut ed
v ant
l g
Ġph ase
w in
Ġgo ing
Ġtype of
Ġb ar
Sc roll
File s
S igma
p df
Ġ layer
Ġj Query
Ġmem ber
{ -
Ġf amily
ĠT ext
W S
N G
ential s
am il
ult ure
ĠG u
f amily
UT F
State ment
tool s
ĠN O
b ers
ĠEx p
! [
Ġk ind
m ine
ĠA ss
ĠE d
Pro file
F ig
Ġp lugin
b all
) /
i sed
Ġcom bin
ran ch
A p
s ure
base d
ed ge
ĠV ersion
= (
ĠO ut
Ġ lock
R AN
Ġorg an
last ic
Ġappro x
ts d
G lobal
Ġed ge
met adata
Ġl ife
Ġst rict
ï ¼
ĠS he
cont ains
Ġf uture
al led
in v
T e
col lection
Ġsystem s
if est
Ex pr
vi de
Ġxml ns
at tributes
ident ifier
ri end
Lay er
ĠI mp
Ġimplement s
Ġsub ject
ĠGet s
B rowser
var iant
Ġappro ach
p icker
Con f
Sp ace
ĠT ask
config uration
Ġimplement ation
a ff
ĠF orm
Ġre q
Ġd omain
ĠRes ource
mit ted
Ġas ync
v a
Ã ¤
âĢ ¦
sh ift
t ic
ĠP er
Rem ove
d x
pri me
tot al
Su ccess
Ġsign ific
Ġh y
com m
ĠL android
}} {
Ġsuccess ful
Ġw on
Ġg ive
Ġle g
Th ere
ĠCon fig
ĠĠĠĠĠĠĠĠĠĠĠĠĠĠĠĠ ĠĠĠĠĠĠĠĠĠĠĠĠĠ
tr igger
ĠU S
re set
Char acter
th at
Ġexist ing
overn ment
p refix
T C
8 2
web pack
Ã ³
log ger
Ġoption al
P L
SCRI PT
o unt
P rint
co gn
Ġuse s
Ġa wait
Ġ icon
fer red
pro ps
m at
ur b
Ġs ymbol
Ġa verage
Ġg ot
ind ent
ĠL oc
Service s
Ġ{ '
Ġin valid
G S
ĠM in
ĠM y
Ġne cess
y es
Ġinv est
are a
f it
k ens
ĉĉĉĉ ĉĉĉĉĉ
it tle
b rowser
Ġy et
Fa iled
M y
n i
Const ants
o ss
ex ternal
Node s
Ident ifier
ĠâĢ ĺ
CHE CK
Ġ& =
) ),
Ġde bug
TH OD
id x
S ync
Ġdif ference
ĠS tr
ĠĠĠĠĠĠĠĠĠĠĠĠĠĠĠĠ ĠĠĠĠĠĠĠĠĠĠ
fil ename
O ST
che me
dot s
Ġo pp
F ail
pe at
9 7
if ies
miss ions
or ter
P e
inc ip
J ava
h orizontal
Ġre ally
te ction
Ġgener ate
D uration
res ses
Ð º
fa il
ma ster
Ġme mbers
\ [
4 3
M ain
', '
Ġ" ,
k er
ST AT
P ay
Ġequ ation
ac count
par ser
co s
u ff
div idual
M apping
h a
Ġco st
B R
Ġhigh er
re al
im ated
y ear
b rief
d ialog
=" ${
4 1
Ġpro of
Be fore
Ġen coding
S U
Ġex act
s witch
Ġcon structor
Ġh ard
d p
Ġcomponent s
ul er
; \
Ġ$ .
al ysis
w args
Ġv olume
Pro ps
in o
Ġsu g
Ġtrans ition
scri be
ĠS k
Ġsome thing
Ġs imp
age s
on al
Ġsize of
ĠI P
Ġab le
is ing
RE AD
Re pository
Ġc lasses
Ġc ross
Ġthe ory
Ġent ity
ge bra
Ġins ert
E l
ched ule
U LE
Ġf it
At tr
Ġneed s
} ]
Ġp olicy
Ġnot e
Ġrel ated
Ġcon struct
type def
Ġv ideo
Ġcon nect
Ġli brary
Ġsh ape
ĠD i
oug ht
co very
Ex pect
( __
Ġ[ [
Ġpro m
center ing
Ġc are
Ġh o
ter m
ific ate
Ġsur face
u ck
O UT
al ance
ĠUp date
Ġ= ========
D est
Ġb lack
par ameters
av ed
Ġrespect ively
Ġwrit ten
VAL UE
De pend
Ġse en
Ġanal y
ĠMe ssage
TI ME
Ġallow ed
h ide
ĠT HE
âĢ Ķ
Do uble
Ġm oment
Ab stract
Ġdescri be
ap pro
t i
Ġimage s
Ġen ough
16 0
Ġ Â
Ġf requ
qu ires
Imp ort
Ġrepresent ation
tab s
w er
LE CT
m ore
ĠC or
Ġb ig
ar io
c ial
> ::
ex pr
Ġ Qu
Ġf lag
an a
Ġc tx
j unit
) "
ON E
ren cy
Ġcontain ing
y mp
Ġcons ist
Not e
head ers
P refix
ĠP art
ĠG oogle
ce l
Ġb r
ot a
-------- ----
w rapper
o y
Ġ" <
Ġd imension
ĠE q
Re gistry
pro tected
loy ment
o th
resh old
Wh en
P si
Ġh istory
n il
sh adow
f ly
ĠIn teger
W rapper
able s
m as
Ġtra ining
20 20
name s
er ature
Ġco ordin
t k
loc ity
ock er
Pro to
ab s
Ġexp ress
ĠC ode
el li
ar ation
Ġch ain
F ull
st ar
ot al
P S
ĠB O
Ġen abled
Ġs chool
ĠJ ul
ex ists
: \
wide tilde
P ER
lo ader
200 0
Ġma j
Ġli k
Ġde s
tab ular
Ġar ch
line ar
Ġreceiv ed
atic ally
D et
wit ter
form s
the me
FI G
Ġpot ential
qu are
Ġp anel
I MP
Style ID
CE SS
S yntax
200 9
ĠRe ad
à ¸
Ġfor ce
Ġallow s
proto col
Rout e
exec ute
tag s
Deta ils
F LA
Ġpos itive
ĠS te
u di
Ġdirect ly
Reg ion
ill ion
se ss
ard s
ed itor
ĠP re
child ren
ĠJ an
Ġus ers
Ġd om
Ġl ate
c v
Ġs creen
d ates
tern ational
ĠM odel
C luster
TEX T
if def
V olume
Ġs ave
ĠIn itial
Con dition
Scal e
Com mon
Ġfact or
ump t
Ġexp licit
M OD
ĠSe ction
w rit
Ġincre ase
Collection s
s ymbol
. ");
Pro duct
ang ular
Ġinclu ded
igh b
sv g
Ġsignific ant
5 8
lem ma
so cket
ang er
Ġcurrent ly
ce ed
ĠA p
Ġf ar
ĠRe act
P R
L D
4 00
$ /
ĠS pec
c ame
he m
5 1
AL SE
Ġy ield
con s
HT TP
" /
ĠAmeric an
O pt
Se cond
Gener ator
ul ate
ook s
L im
3 00
ensure math
Ġr g
N ow
Ġg reat
d one
for ce
ĠO b
var iable
UR I
Ġsug gest
Ã Ń
pre v
Ġconsider ed
Ġp assword
Ġd irection
ĠO ne
service s
() </
He aders
m ask
Ġ queue
Ġapp end
ent ly
ĠR un
ĠĠĠĠĠĠĠĠĠĠĠĠĠĠĠĠĠĠĠĠĠĠĠĠĠĠĠĠĠĠĠĠ ĠĠĠĠĠĠĠĠĠĠĠĠĠĠĠĠĠĠĠĠĠĠĠĠĠĠĠĠĠĠĠĠ
ign ment
Ġg row
a o
h ib
. '
Frame work
ĠH ash
} +
5 4
Ġgroup s
p l
d ent
Eng ine
ĠRe g
N OT
) ->
re lease
ph er
bu ilder
Ġm aterial
IT E
Ġ ui
Ġto gether
Ġj oin
pro vider
L L
st orage
Ġor igin
ansp arent
C I
Ġchange d
P assword
Ġcom ment
I ZE
IN D
m aven
comp lete
em ma
ĠUn ited
å ı
ob ile
w ild
Resource s
Ġ" -
b ad
C RE
ĠA SSERT
ex tern
A X
Ġchar acters
j ar
ĠV iew
Ġprovi des
pro gress
Se lection
p latform
Ġc ancel
Ġdescri bed
th ers
Ġequ ival
ĠC all
Ġopt im
lo gin
S ample
7 2
ap os
S imple
ĠJ ohn
Ġt x
W A
ĠC O
iz able
se quence
r ift
P air
\ ]
apt ure
Ñ ı
Pro p
p ress
ax is
P op
ĠU I
S R
ĠI E
D T
script or
Ġ' <
as is
Ġ> >
Ġg en
\ {
ma z
? >
Ġ Ã
Ġwork s
D A
le ep
a e
ĠRe quest
sa fe
Ġdi ag
l legal
led ge
r is
nav List
co unter
Ġ? >
l ers
j ango
Ġp refix
view s
M B
Se quence
L P
Tra ce
5 2
Ġmak es
b um
Ġlog ger
ĠN umber
Ġlo op
A uthor
al ax
error s
Ġc lean
spec ial
Ġ= ======
Ġpar ser
ur face
Ġfore ach
Ġb ottom
Ġoper ations
ĠN AME
Ġac ross
Ġat temp
ve y
7 9
aj ax
ĠF ield
ch ie
bl ue
u a
ad a
Ġst ar
33 33
ĠM ore
Ġh idden
' ));
pre t
gener ated
Ġs ays
t body
Ġ[ ],
po ol
Ġwrit ing
ĠLO G
Ġa ff
Ġ ],
Ġb rowser
al ity
C ategory
D C
ĠS ome
ĠA ND
U SE
TR UE
ĠH ttp
! \
Text ure
p ass
Ġco re
(' .
Con n
E rr
act iv
c ut
her ited
Ġmessage s
Ġmet adata
ar ger
">< !--
Ġw in
Ġco me
ĠR ed
r andom
FF FF
ĠĠĠĠĠĠĠĠĠĠĠĠĠĠĠĠ ĠĠĠĠĠĠĠĠĠĠĠĠ
Ġf lags
Ġco ver
Ġpar am
col lapse
f d
Ġac cording
Ag ent
user name
5 3
th ough
Ġh aving
Ex ample
200 8
at ural
Ġ il
ĠO per
e ffect
deta il
U ri
ut ation
St ats
Ġex port
Ġ[ "
one y
re et
Ġset up
H ow
G B
le ms
e fficient
Select ed
C ap
option al
De legate
} =\
( @
Ġab solute
comp iler
ig en
index Of
Di ctionary
all classes
Name d
Ġ ensure
deta ils
z er
Ġcert ain
H R
Ġclo sed
Ġhe aders
sh ared
D omain
f x
Ġin dividual
{ "
ot on
PA CK
atist ics
ĠW orld
Ġin side
ĠCopy right
Ġa void
j pg
r um
b oost
Ġvis it
Ġs ymme
< !
Ġth us
require d
Ad min
ĠW AR
Ġpro file
ĠCh ar
Ġp layer
ON G
as ync
z eta
w ik
col Last
lu g
S he
Ġreg ular
Ġsign al
Ġli b
time out
Ġcorresp ond
Ġtime out
Ġbe havior
un ique
ir it
O B
Com ment
$ )
en able
Ġent er
Ġassert That
Pro gress
z one
rit ical
ĠJ ava
= >
ME THOD
Ġspec ify
pi ct
mo use
St ep
Ġpre c
o urn
Se ction
resource s
; }
Ġvar ious
Ġact iv
O F
Ġadd ition
ĠS ince
at ible
Ġ{ "
Vis ible
alle l
R ad
EN SE
ĠHT TP
th row
in valid
Inter val
c ircle
r ong
Gener ated
m ber
= -
Ġ ];
ã Ģ
LO CK
th m
B AR
p or
ment al
200 7
ro le
Ġc md
x s
ra se
g ree
col First
F ind
Ġth ings
l ates
(' /
s ys
L anguage
Ġresource s
DE FAULT
v c
Ġex it
an ded
V M
Ġread only
Ġen um
apt er
Ġre search
Ġt mp
L INE
Ġb inary
Ġnull ptr
Ġst orage
ill s
ĠM ark
{ %
Ġit self
12 8
> :
Ġwork ing
ul ly
Ġv ol
Ġremo ved
Ġtak en
Are a
ĠEx t
con struct
Ġm enu
check box
P y
quot e
******************************** ********************************
F R
lic en
8 3
) =\
p a
de finition
6 9
ĠCo unt
(' #
A CT
P i
Ġbu f
mo z
sh all
ĠH and
Ġde fin
clu ster
Ġcall s
Ġear ly
ĠĠĠĠĠĠĠĠĠĠĠĠĠĠĠĠ Ċ
EE EE
Ġsp lit
ĠW indow
il ation
W ord
Ġf all
Ġs ing
com ing
Ġ{ {
Ġapp lied
Ġquest ion
B C
Ġwho se
en ers
dep th
Ġb and
gist ration
Ġoff ic
De c
ĠM od
ĠH el
Ġpro p
Ġwh ite
Date Time
em s
ag ger
clus ion
Ġup per
PO ST
Ġfin ite
Re port
Ġm usic
Ġc red
Ġcol lect
sw arm
z y
L in
Ġh old
RE S
Ġp ixel
F low
en n
select or
wild fly
Ġrequest s
spring framework
) ^{
iss ues
. <
ver ter
ĠD ep
Ġof ten
Ġf oot
Ġbu ilt
ĠBu ild
Ġe v
ĠArray List
s b
fo und
Ġl ittle
Sk ip
n def
Ġver ify
Ġp at
Ġest ab
Ġact ually
en abled
Ġnav igation
. )
Ġob served
P P
} |
Ġright s
use s
__ __
T x
() ))
Re st
er g
p u
Ġcomp any
SS L
Ġv ers
and ra
Ġb ad
Ġd ays
test ing
Ġiss ue
ĠO ct
ĠM on
un defined
6 8
ific ations
B E
ra ction
ĠS O
f lex
Ġcont roller
ĠG roup
Ġas k
IT ION
node s
ID TH
ac ro
ĠS QL
s in
Ġde sc
co ur
Ġp latform
Ġn umbers
Ġpro tocol
f ix
S ingle
Return s
Ġup dated
os ite
velo per
ph one
ĠCon st
N N
as sembly
sign ature
ct r
p ull
A CE
h am
ĠF I
R ole
W N
p attern
Ġem ail
{ (
Ġr ather
) }\
Ġ engine
M I
iv en
.. .</
i os
r f
wh ile
Comp iler
Event Listener
riter ia
R PC
Ġtr igger
ur ch
; ">
ĠC ur
ag ent
Ġhe l
J S
200 1
ĠP ri
C ert
EL D
L android
Ġlo ss
M icrosoft
W R
Ġvis ible
Ġappe ar
7 8
Ġpart s
r b
C or
Not ification
Ġl arger
Ġmak ing
h y
Ġac cur
ame s
ĠIn dex
Ġf ix
Ġfil m
ĠC EL
Ġm at
Ġs co
Ġchar set
Ġg re
Ġatt ack
test s
Ġstart ed
w arning
ol y
EEEE FF
ĠĠĠ Ċ
Ġtak es
RE Q
Ġin dependent
Ġ raw
if ndef
Ġpro xy
S w
net ic
Ġac c
c lean
Ġf ocus
200 6
im s
ĠThe orem
ch art
d imension
ul ated
Ġn p
^ +
Ġth ough
VAL ID
Ġf ig
get Value
Ġservice s
check ed
pro xy
P UT
Ġex ternal
en umer
Ġstring s
Ġo k
} :
get Element
Ġpro gress
Ġth ird
F ragment
hel per
G oogle
; )
Ġent ire
i ol
_ );
ĠT H
F ORM
r uby
ĠW ork
D ATA
M ar
j d
G ER
IN S
M ask
Be an
cdot s
text width
us ers
Ġprob ability
Ġlist ener
Ġname d
et ing
ĠP ath
CT YPE
Ġexperi ence
Ġhow ever
Ġfin ally
cond ition
Ġpro ces
Ġab stract
p resent
Ġp ract
Ġp ast
Ġf und
Ġen v
f ixed
g lyph
h ref
ty pen
Ġ ).
ad o
end or
) |
ĠV er
Ġc ity
Ġh alf
Ġet c
Ġinclude s
fe ature
Ñ Į
C F
Sh ape
Ġ ip
En umer
numer us
ĠFig ure
ĠTh at
numerus form
Ġword s
Ġ" $
ifi ers
I ST
r untime
. ~
Ġa xis
Ġen able
Id s
Test Case
Ġre quires
ide d
com mit
Require d
C red
Ġh ar
Be gin
er ies
medi ate
lo or
x space
Ġhapp en
Ġm atter
S ort
en a
M ake
ĠP ublic
I gn
ate way
gra de
End point
Method s
N T
P layer
typen ame
Ġrg ba
Ġco up
se ct
Ġm d
ou ch
'] ['
Ġinter val
(" /
ateg ories
c up
Ġco q
om an
ĠIm age
di ces
Ġ layout
ST ATE
Ġw ater
ĠAN Y
ĠVal id
8 1
ic o
li brary
NavBar Font
sc r
Ġr ules
Ġt w
Ġnecess ary
. ",
Ġ ans
wide hat
Ġbel ie
par ator
} '
lay ers
Ġc irc
Ġe q
f lag
Ġ Î
Ġopt s
Ġquant um
ĠP e
Ġc lick
" ],
Ġsh ared
b ot
Ġstate ment
Ñ ĭ
Ġg rid
ue st
Se e
art icle
F E
cre te
Ġle arning
Ġext ract
P ub
Ġa way
Ġsk ip
py thon
am az
Ġa chie
ul ations
M ath
Ġad min
lo op
ĠS ource
DE BUG
Ġun less
ĠSt ates
DO CTYPE
cont in
I B
z ero
Ġed itor
v s
G R
print ln
Ġm ulti
L en
re port
S ql
cd n
Ġblock s
vent ion
b on
Ġl ang
D b
M ouse
overn or
Ġm ar
ĠIn put
q quad
Ġcom mit
T otal
l int
Inst all
rid ge
Ġse curity
Ġpri mary
in ed
Ġf ill
at omic
Ġre trie
6 3
ĠS outh
W ORD
Ðµ Ð
p lan
wh en
INT ER
MOD ULE
con sole
is k
Ġco unter
200 5
}^ \
Ġpro posed
f g
ĠF irst
ĠS chool
F S
Ġman ager
x html
ĠA ug
Ġam ong
d y
ĠSt art
Ġ' \
Ġn ative
}_ \
An imation
Ġpart ial
SE LECT
Ġco untry
P od
m ing
ĠCol lection
ĠN ational
iv ing
Ġ@ "
gra d
ug ht
ss l
z ure
\ /
g ments
M ulti
Ġexp lo
Input Stream
Ġwe ak
# {
N ullable
gener ate
Vert ex
Ġdata set
) -
em on
d atabase
math sf
side bar
ca pe
S creen
se qu
ĠPro ject
Ġm ask
s lice
T S
Ġpro per
ĠF rom
Th row
}) \
ĠB oolean
F lag
con structor
Ġw aves
Ġs ql
w ar
m atrix
b lank
ass ign
' ];
Argument Exception
Ġselect or
p are
STR ING
t ex
Ġd rop
it ect
ĠY ork
Ġ\ {
N ormal
ick et
Ġd ynam
ĠS IZE
Ġse ason
s ince
Ġmin imum
Ġ\ "
=" $
Re ceiv
ĠV ector
g reen
Ġst ory
r and
ĠN ov
ĉ ĠĠĠĠĠ
C ALL
Ġed it
Ġme ta
er man
Back ground
Ġe p
Mem bers
let on
i ans
Ġpol it
res olve
j Query
Ġpro ps
ext ension
E C
6 2
Ġin ner
amaz on
Ġdevelop ment
support ed
Ġgiv es
ro ute
s ome
ĠA fter
Serial izer
Ġem bed
ro ad
F UN
US ER
ide s
arn ings
refer red
å Ī
Ġcomp ute
n ers
9 8
Exec ution
M ARY
uro pe
Ġcomp are
Ġof fer
vide o
ro t
Ġh uman
Ġan not
% "
ro ke
Ġs chema
all en
in herit
pe t
l arge
Ġre set
i ence
up lic
Di agnost
ĠF ROM
}\ ,
S K
IO Exception
Ġtemp erature
^ ^
ctr ine
O ff
st at
N ative
7 4
g ers
200 4
ĠW est
}^{ (
Ġt ensor
Ġcomp let
rel ated
it o
ight s
d c
up load
comp ile
C ancel
o ung
I VE
fact ory
ul k
Ġfe el
opt s
Ġd im
ext ra
Ġre ader
ist or
ang ing
DO M
OR TED
valid ate
Ġc amp
Ġb usiness
Ġt re
D S
str al
Ġuse ful
ĠM ake
ab ilities
andid ate
ultip le
H ER
9 1
object s
ĠB ar
ĠEx ec
ĠE ND
Ġexec ute
var i
ho od
ok ie
ĠSet s
Ġt ell
CO MP
dest roy
z ip
r d
Ġc ategory
ap is
elli j
Ġsc roll
at ory
oc aml
Sp an
V ENT
s y
W ait
e lem
» ¿
ile s
i us
ic a
Sum mary
Ġper cent
lo aded
ï »¿
Ġg alax
int ellij
Ġmatch ing
Ġunder stand
H istory
C loud
ĠP RO
ĠĠĠĠĠĠĠĠĠĠĠĠĠĠĠĠ ĠĠĠĠĠĠĠĠĠĠĠĠĠĠ
Ġw riter
ĠA LI
b lack
Ġs peed
ic ol
s ync
ĠA pr
ä »
own er
Ġf un
Un known
E mail
ĠO ther
MO DE
Ġs b
word s
Ġhe alth
Ġde al
di an
m f
Ġcolumn s
li ance
trans ition
Ġstart ing
Ġa ge
t w
ass andra
Lim it
b g
Ġcour se
Ġval ign
Ġbound ary
Ġsp in
c ip
ant ic
Ġdis k
S ince
um in
Ġme chan
Ġwh y
M ore
m ulti
> )
ext end
Ġlong er
et er
Ġsign ature
d river
Ġ ×
ic les
ed er
Valid ation
f r
App end
t c
M T
ff ix
Al low
P lan
Ġ_ ,
{ $
er ve
}\ \
group s
Ġ util
AN CE
ser ve
cit et
ĠCh rist
U D
Ġp ress
om ial
C G
appro x
P ublic
is Empty
tra ce
g ular
Ġdis abled
ĠF in
Ġg overnment
Oper ator
ĠÐ ¿
NS String
ip s
P r
mo b
Ġse m
: `
J oin
m utable
Al loc
app ed
En coded
ĠM o
Ġsource s
um my
7 3
W allet
Ġ$ (\
s ingle
Ġl and
Ġ_ .
ĠOption al
ĠDE FAULT
d ers
H igh
low er
ĠEx ample
Ġ' ';
in y
ĠX ML
Ġwho le
Ġm atches
pp ing
F n
! !
Ġdec la
ex it
Ġcon ver
us r
Ġfail ure
" ].
Ġcont act
Ġvert ical
j a
Ġl ive
Ġf mt
ri ed
vol ume
ĠRes ult
F older
() ),
P ass
ch ain
C la
is set
Ġent ries
sc hed
Ġp ool
M ove
ĠM icrosoft
ð Ł
du c
f etch
ĠM c
St atic
Ġmaj or
Ġ( [
tr l
set up
ĠB lock
or igin
WE B
umpt ion
C lo
& =
mer ge
on ce
Ġeffect s
Ġlo t
f c
M er
Ġde cl
Ðµ Ð½
ort un
V ideo
p air
Child ren
ĠC lient
lo ok
Ġcur sor
Ġdeta il
Con structor
Rem ote
ĠALI GN
g oto
Ġthere fore
}} (
W arning
w p
ĠC ity
ĠD ocument
Ġre fer
oo th
ĠN AV
ap s
M IN
P U
maz on
ic ip
Ġdeter mine
D river
vi e
Ġa ir
el f
ier arch
Object s
face book
ud o
Sh ort
Ġvert ex
r g
Ġfact ory
Ġp od
down load
Ġre ceive
Ġh ouse
LO C
Ġ rows
no logy
il it
Ġno thing
S ave
ic ode
/ "
ĠL emma
ced ure
t or
$ _
Ġro ute
Pro gram
G en
f lat
Ġse gment
Ġde ep
Ġfor ward
Ġre ct
O wn
re act
Ġsc en
Ġ" ";
dis able
ĠH igh
Ġrepresent s
AP P
ge o
DE F
Ġtrans late
Ġm issing
PT ION
mit ive
="../../../../../../ ../
r ank
Reference s
om orph
B inary
Th en
Ġb asic
Ġ" %
Ġall Classes
om s
Ġh olds
Ġme tric
n p
6 1
k wargs
ĠD ec
p olicy
ĠallClasses Link
C l
Ġan gle
b al
ĠRe f
\ '
ĠA g
Ġ ..
. """
Ġun known
lip se
Ġframe work
Valid ator
common s
ot es
a ign
u stral
du cer
it ch
Ar t
ĠS ch
ĠL ong
Const ant
ĠA R
h i
Ġrem ote
ile vel
Ġs yn
CH AR
ĠA ction
Ġ Ø
B asic
C lear
Render er
7 1
Tag s
N UM
b asic
Ġo thers
PRO JECT
li ct
vis ible
ache s
Ġle arn
d iff
Ġsp an
ca de
Ġ& \
Ġc ut
ud a
VI CE
Ġp ush
Ġro und
R aw
Re v
ig ration
e le
ick s
Ġdocument ation
ĠJan uary
Ġpre vent
Ġconn ected
Ġdep th
ed back
ĠS w
us ion
L ower
Ġtest ing
Ġr ank
pe ated
function s
ic ult
H ub
A ut
de c
ĠPro perty
OR Y
ĠAp ache
se q
ava i
Ġs ong
Ident ity
Ġpre dict
at ively
Ġcomp ared
C ONT
lo ts
] $
re marks
Ġco efficient
d uration
D ATE
R R
high light
: [
ĠO ver
ens ive
( .
ne y
æ ľ
ĠAs sembly
in f
Ġf ive
C LASS
licen ses
Ġsimp ly
Ġ> >>
n ob
: @"
struct ure
Ġelect ron
Ġf ront
Î ¿
Ġn u
Ġd a
FI ELD
Ġvalid ate
Co unter
ORD ER
9 4
direct ory
b its
Ġc ame
Ġbe h
ĠTh us
Ġbuild ing
Ġg round
sub mit
Ġs ens
ĠJul y
A li
g ame
ĠW ar
for Each
) +
ĠSo ftware
cl one
Str ategy
ĠI llegal
=\ "
Ġph ot
message s
ĠA S
Ġre view
'] );
s imple
or iginal
de precated
Ġw atch
v ement
en ing
lab or
ĠRe gister
{ {\
oc ation
Ġprob lems
s n
ĠNAV BAR
Bind ing
Ġtr ansparent
Ġel if
ĠW rite
Ġinst alled
ersist ent
Ġd ig
lement ation
Ġap ilevel
b atch
an imation
ĠRem ove
re w
Ġ" ",
lation Token
du ces
k ing
ĠS to
/ {
Ġne gative
Ġpro to
Ġtr ansport
cur s
}} {\
Ġsh ift
En vironment
st able
i ra
B atch
12 3
ist er
Ġsmall er
] ))
Ġtask s
Ġ ^
f ire
row n
> ;
ach ing
Ġstore d
ĠP ost
CH AN
c ancel
getElement ById
H tml
Ġdi ct
al ert
radi ent
r pc
= [
Ġout side
Ġ ri
i et
or ing
Ġs ix
Ġequival ent
Ġin f
n orm
] \
ĉ ĠĠĠĠĠĠĠ
ĠVAL UE
P lay
pk g
ous ly
ĠJ une
En ter
ff ers
il ing
Ġ ir
ac cept
Ã §
ĠĠĠĠĠĠĠĠĠĠĠĠĠĠĠĠĠĠĠĠĠĠĠĠĠĠĠĠĠĠĠĠ Ġ
di ent
C md
Map per
mem ory
ĠR ob
pol y
Ġdepend s
method s
Re lease
ag ue
A SSERT
assert True
Ġ ul
Ġan imation
Message s
AR N
n n
h space
ĠI d
th rift
ĠC l
y ing
Con nect
Se gment
Ġradi us
G ame
Ġ' ',
ex ist
Ġeffect ive
Annot ation
Ġf ac
mon th
Ġautom atically
Ġsample s
Q U
bo se
Ġappro pri
f i
Ġpri or
Y ear
second s
ĠM ock
Ġ' '
at ial
st ers
ut down
Ġpro vider
} +\
ĠL ib
Ġrelease d
Ġcommun ity
ĠIn c
Ġexec ution
Add r
Ð ²
an te
ĠWAR RAN
str ument
Ġlo aded
v o
att le
b i
Ġne ighb
ĠE lement
Ġsecond s
Ġal most
G u
AT TR
d ash
Ġ license
Ġr atio
Ġde lay
argument s
ant i
ry ption
ĠB rit
t ensor
ed s
nav igation
| |
Ġ( -
Ġident ifier
tach ment
T imer
Ins ert
col lect
Ġop acity
mp t
over view
Deta il
RE G
Ġper formed
Ġpro duction
at ives
F ixture
fin ite
W hat
c u
ĠM em
ys ics
ĠD irect
Res olver
er ing
D om
hav i
á ĥ
> \
Ġs ound
change d
Con sumer
ance s
f mt
TR Y
Ġal gebra
> "
am a
Ġper missions
Us age
Ġcontent s
cre ated
Ġs ocket
pict ure
AN G
Ġnot ice
Ġo wner
Not Found
ag raph
9 2
Ġm apping
cre d
' ll
ĠD ist
200 3
Ġle ad
ĠH ere
PH P
Fail ure
Ġal tern
ce ler
Ġch unk
Ġ} }
ra dio
Ġst ars
Ġg as
ans ion
Ġd river
Ð° Ð½
il le
S im
å ®
æ ĸ
Ġequ ations
H ome
Ġsol utions
F C
D rop
y y
Ġt sd
Form s
Ã ¼
ul let
}} ,
ĠT emp
E ST
ĠU N
Ġform er
ĠW IDTH
Ġ que
Ġt reat
}} }
ne q
vert ical
Ġsum mary
Ġt alk
Ġph ysical
Ob server
A udio
Ġth ing
Group Name
" },
ï¼ Į
Ġplay ers
element s
LI ST
Ġst age
ĠW IT
Ġdepend encies
cal endar
Ġlik ely
Ġle ading
ĠSt atus
ĠCh ange
ç Ķ
ĠAr t
Ġb asis
Ġa ctions
Ġ{ },
Process or
ĠM arch
Ġ' %
el low
const ant
Ġw ave
Ġemp loy
o ber
S ite
ĠE urope
Ġw ide
Sh ould
S M
Ġpro ve
v let
Ġdid n
ĠP o
Ġ' .
Ġrep os
) [
} -\
pt ember
ĠL com
trans action
) }{
Ġar bit
to Be
En v
t ar
Sh ared
ir th
ul ator
le ge
l ush
Ġn atural
no indent
Ġ" .
ic ation
ograph y
is ation
Ġf ire
Ġiss ues
Ġreport ed
inte ger
V AR
h ere
Ġpop ulation
Ġ- \
Ġma int
cf g
Ġtak ing
9 3
R ate
or ary
Ġag ent
Ġf av
Ġh it
F ace
d en
Ġtag s
ĠD B
Ġch oice
Ign ore
oo g
Ġmod ified
< <
Ġs ocial
LO W
ĠCom mand
Ġ' ./
comp are
w all
"> (
le vant
a fe
T erm
Comp lete
item ize
Time stamp
w d
ĠN ow
B order
T Y
D iv
Ġs itu
Ġmod ify
Ġtype def
ack son
Ġres olve
u ed
ãĢ Ĥ
A UT
S top
c li
lo ur
po inter
TI ES
Ġfrequ ency
sp acing
Cur sor
cor rect
ĠN orth
Const raint
HE AD
b and
re ader
Ġvalid ation
Nav igation
Ġo l
Ġsh are
Ġde v
F ocus
UR CE
/ ">
Us ers
ene ss
Cont act
$ }
L ook
res ize
Ġrelation ship
ĠCol or
Ġmer ge
ont o
A xis
Ġto ok
content s
en code
n ative
Ver ify
Ġden ote
a ur
Error f
Ed ge
P latform
Lo gin
aa aa
ĠPro cess
Ġve locity
ĠB it
enumer ate
fa ke
20 21
Ġis n
c atch
ra pped
pro d
m ic
the orem
os en
_ )
ĠF ound
ĠA ir
ĠB o
Ġget s
sh al
b c
ing er
Ġb in
G EN
t ics
tr im
no un
ence s
Ġal bum
get Id
Lib rary
Ġpre v
2 13
Ġinstance s
ect ors
con vert
P rivate
k t
st e
g g
ie ce
Ġs cheme
FF ER
Sign ature
Ġpart ition
Ġ$ _
ot ed
Ġde gree
CON FIG
de cor
cal led
Ġest im
Ġto day
r ant
ĉĉĉĉ ĉĉĉĉĉĉ
g overnor
Ġs ys
Con sole
å Ĳ
( {\
Error s
Ġd uration
Task s
Ġbro ad
er ved
Comp at
u uid
v space
ĠAn y
Depend ency
HER E
Ġs ynchron
G ra
ĠC ustom
ict ure
ĠV ar
ĠS im
Ġeas y
load ing
is ode
ĠP ol
M aterial
Ġqu ick
0000 0000
M IT
Ġm ut
play er
Ġs ync
ĠOn ly
R T
' }
s ent
Set ting
n es
Ex port
ĠO p
I E
Ġde ath
Argument s
act ivity
b d
ourn al
i pe
Ġf ast
in ct
Î ±
dimension al
Ġb atch
Ġcre ating
s ig
ĠA ustral
Ġs ense
es ian
Ġm iddle
ĠW hat
Ġb ranch
ĉ čĊ
ĠB A
Ġe ver
S ome
H older
a res
ĠM ax
19 99
re pository
Ġth ought
ĠP res
Group s
top ic
\ ,\
em it
ĠĠĠĠĠĠĠĠĠĠĠĠĠĠĠĠĠĠĠĠĠĠĠĠĠĠĠĠĠĠĠĠ ĠĠĠĠĠĠĠĠĠĠĠĠĠĠĠ
st o
Ġun its
u el
at ur
ann ing
ĠV is
Bound s
as y
Ġde mon
ĠOut put
Ġp ick
N ET
Row s
br id
Ġa mp
Ġident ity
Ġw alk
Ġbecome s
ren g
Ġal ias
S V
ĠApr il
B Y
p an
Ġm ot
Ġany thing
u ge
En coding
Ġpr incip
b es
AT CH
Ġ\ |
ĠAl so
Ġde cre
Ġclass Name
avai lable
Ġsub st
Ġlabel s
e ch
sc ss
Ġc ast
under line
B UI
ĠGener al
B IT
Ġ* ,
R et
b lob
Ġ und
Ġo cc
min us
Ġf ully
Ġm is
ĠThere fore
mult icol
MA GE
Z one
Ġp ack
Ġ ----------------------------------------------------------------
rag ma
ĠAb stract
av id
Ġa udio
A G
p lot
Ġest imate
Ġ â
ain ing
Ġup on
, '
D ay
Ġcall ing
ched uler
ĠD OM
Ġch oose
on ical
The ta
ĠG o
Ġm illion
he st
In formation
ID E
log o
Ġcomp arison
ĠAnd roid
I AL
C ard
F ree
Ġpresent ed
Ġf lat
Ġimp lies
ill ing
Ġ Query
Ġassert True
ub er
Con vert
Ñģ ÑĤ
ĠP age
Draw ing
un n
ur g
Ext ensions
Ġc r
D rag
oci ation
Ġ ut
ĠJ son
vance d
: '
Ġus age
The me
ĠWindow s
class Name
.* ;
Cont ains
IN ST
to uch
can vas
= %
Ð ¼
ĠF ind
Ġp lot
Ġnav bar
re me
ĠI mm
ĠRes ponse
ĠBu ilder
Ġem it
In ner
iz ations
Ġp lease
Ġm aster
> ()
A mount
get Instance
multicol umn
il i
66 66
Ġpay load
Ġst eps
b log
lo od
ĠDes cription
; "
for ward
Ġact ivity
Ġk ernel
Ñ ĩ
Dep th
Ġprocess ing
ĠP ub
ĠD r
T ile
ribut ion
Ġm achine
str y
ĠAr gument
/* !
ir med
Ġre comm
es h
e lastic
And roid
' $
O ther
Ġdo ing
Ġw omen
Ġr untime
Ø ±
y cle
greg ate
Ġb lue
/ _
~ $
ĠĠĠĠĠĠĠĠĠĠ Ċ
AT OR
Ġlo ve
Ex ists
C enter
Ġder ived
Ġlevel s
Ġre served
ĠLoc al
at ar
ĠDe lete
oper ation
> '
C M
it ute
Ġtrans fer
scal a
Pre v
Ġ _{
Ġ ">
glyph icon
Ġref lect
gra dient
ĠP ort
limit s
pr ing
ĠL ink
B B
AT ED
d k
B ool
comp ute
b ert
Ġco mes
ĠP H
time stamp
Ġb its
f ol
Ġsh all
F uture
S napshot
w atch
Ġdis able
Ġresult ing
d ro
lap sed
Ġpre di
bs ite
L a
RE D
Ġconst raints
re po
E ffect
Ġread ing
ĠCre ates
ĠC ent
RA Y
1 20
medi ately
ff f
Ġtime stamp
__ )
pe ar
ac c
ĠAug ust
Ġcomp uted
sub ject
Ġ< -
ĠT R
Ġmap s
F N
Ġro om
Ġm en
es ome
j et
UN D
AR G
ig ate
Ġinitial ize
' ve
exp ression
De precated
ĠC G
Ġst ats
M o
Ġapplic ations
t l
ĠS ci
.... ....
% ,
ĠS UM
Ġlog ging
Ġre cogn
ri m
Ġdetermin ed
head ing
ra st
t f
Point s
Re al
ĠConfig uration
) }$
Ġexample s
m k
ĠG ra
column s
Ġh om
Ġe ff
Tr ansport
ĠS E
Ġpath s
%%%% %%%%
NO DE
Ġpub lished
Ġgre ater
o sed
Ġt d
Ġgame s
Ġbe came
Ġw arning
Ġd riv
Ġf lex
Ġ quot
v ity
Ġreg ard
ĠS um
Ġnew s
en sed
P erson
Ġf riend
Ġprob ably
rem ote
Ġappropri ate
Ġget ting
t wo
ĠD O
an o
Ġb i
Content s
Ġv m
Ġin struction
Ġman agement
p riv
Ġw ar
cont act
m c
; |
Ġdest roy
C ar
S ame
ĠSe ptember
Expect ed
Ã ¶
ĠB ig
sp irit
(" #
c assandra
Ġoper ators
å ħ
ĠSer ver
ĠTh read
Ġapplic able
Array List
STAT US
DE X
ĠI ter
Ġdiff icult
ĠH ar
LIC ENSE
Ac cept
G o
lu str
Ù Ħ
Col lect
ĠBy te
(" %
Ġqual ity
ä ½
U sing
Ġcent ral
er ial
Ġar ia
p b
dis patch
Ġ| =
"/ ></
Ġar r
serv able
stru ctions
y e
ph rase
create Element
P lace
- $
U ST
serial ize
Y Y
yn omial
Me trics
LE D
( ()
Ġexact ly
200 2
Decl aration
om y
ĠCount y
se lection
Ġmag netic
Ġresp ons
la v
AR D
log ging
| ^
ce mber
ab c
( /
' m
Diagnost ics
Ġb us
TH ER
c mp
N A
Run ner
la x
Ġf s
T F
ĠN etwork
operator name
P ixel
INS ERT
Ġb l
ab ric
W IN
L oop
H ere
Ġf ragment
d ark
ĠJ ust
Column s
ĠS imple
ĠL java
Ġspect rum
e ff
Ġs core
Ġbound s
RE E
w orld
Ġ ðŁ
ro py
Ġe volution
qu es
Ġstud ents
Sp lit
ro om
t ty
Perm ission
y l
G ui
an chor
B ottom
Ġend point
valid ation
B ook
page s
h pp
Ï Ħ
Sh ader
Ġdest ination
reference s
RES ULT
Re set
( ['
Ġdemon str
ĠApp lication
tool tip
Man agement
Ġj s
Ð ´
ject ed
**** **
ri al
nob r
Ġd ynamic
We ight
ĠComp onent
Ġm ention
P resent
Ġ{ %
are t
ic ate
Con s
Ch ain
form ance
ĠBO OST
ain ers
au ss
ase d
Ġans wer
Ġp ull
ĠP oint
En able
Ġconnection s
al ias
L ight
MA P
St ub
Ġne ut
ver ify
ir ror
Ġlook ing
Output Stream
de g
ab out
i ses
ĠC OL
Ġon line
Ar ch
p ace
Û Į
Ġcor relation
Ġstr ategy
Ġmark et
ig r
Con verter
Ġadd resses
he el
Ġb oost
Ġno ise
ĠO ur
BU FFER
vid ence
C B
resp ond
Ġto uch
ĠVAL IGN
b old
Ġimp act
ĠSUM MARY
Ġcomp leted
f ect
F OR
R andom
au dio
L iteral
ib ly
b at
g if
m al
Ġb ene
Ġreg ions
Ġtra ce
Ð¾Ð ²
Ġpartic ip
F ore
pro b
Mon th
Ġsup ports
w riter
P Y
ri ction
de ed
ĠD on
Ġw x
ĠSh ow
Ġex ports
Ġv iol
Option al
Ġf i
Ġm ult
j ax
Ġide a
view port
ĉĉ ĠĠĠ
Ġpar sed
' \
Ġl at
Ġc b
p ower
v ation
ĠOct ober
================================ ================================
Ġart icle
15 0
Ġcon struction
u it
C CESS
Part ition
ĠR out
get String
it ution
Ġres olution
ĠM ed
u de
cur sor
vid ers
ĠC SS
ĠS m
gorith ms
ĠF OR
;| &
Ġinter action
Ġon es
Ġc loud
Ġ` ``
up s
w arn
Ġover flow
Ġdisc uss
Ġn orm
Ġrepos itory
f ric
re peat
Ġconst raint
ĠA uth
Ġtech n
im ing
ĠK ing
in i
Ġfor ms
PO S
ĠL ine
ĠM et
Ġun iform
St andard
I V
Ġiter ator
) ",
Ġ img
LE TE
Ġag re
Ġlate st
Ġarbit rary
Ġread y
ĠWARRAN TIES
Ġcomp et
Ġm agn
ark s
be an
Ġchar ge
~~~~ ~~~~
Ġde tect
Ġsa fe
ĠBu ffer
iv ery
(' <
id a
/ .
Ġas sembly
SO URCE
L icense
) {\
0000 00
me mbers
v an
Ġf etch
Ġ' "
Ph one
Ġident ify
get Type
de lay
ĠS D
Ġinput s
Q ual
Ġn s
cl s
der r
Ġ- =
Ġbel ong
R UN
Ġe ss
a ul
av y
ri er
ĠNew s
Auth entication
ĠAc cording
FI X
se m
br uary
clus ive
Ġgo al
Ġc ra
tern et
Co in
Ä ±
Ġpol y
ond on
clu ded
ĠL a
align ed
Ġus ually
Sh arp
P romise
. ',
ĠG erman
ient s
WEB PACK
ĠH er
Ġmo use
* {
k o
V irtual
ĠH ouse
Ġthe me
Ġloc ated
Ex tra
ĠEng lish
> %
ĠRe cord
ĠIN TO
Ġscal ar
id ing
ail y
ĠB ack
ok ed
p ragma
Ġremain ing
Ġplace holder
Ġw rong
ĠI L
Frame s
Ġpartic le
Ġpair s
s r
Ġc ritical
Ġw or
or al
p aper
d jango
Ġm ixed
ĠE l
lib s
Ġd ark
Ġcur ve
Ġd ialog
con cat
text tt
} ",
T er
Ġrequest ed
g on
12 34
om ite
Î µ
ĠSe arch
M issing
Exec utor
Be en
G IN
cor ded
ĠĠĠĠĠĠĠĠĠĠĠĠĠĠĠĠ ĠĠĠĠĊ
v ince
s yn
UE ST
æ ķ
Ġn ight
ro uter
Ġs n
ersist ence
Ġcommand s
ys ql
Ġed ges
Ġd st
Ġc he
ĠO S
ĠU RI
, $
Ġst e
Ġcon cept
math scr
z a
IMP ORTED
omite mpty
CO MM
Ġt ax
pec ially
N V
d rag
Ġd raft
Ġd rag
Ġmo unt
Ġlo ading
Re act
an aly
è ¯
ĠĠĠĠĠĠĠĠĠĠĠĠĠĠĠĠĠĠĠĠĠĠĠĠĠĠĠĠĠĠĠĠ ĠĠĠĠĠ
in et
en coding
m apping
Lin q
C ast
d ocker
Ġe con
Rep lace
ĠSe lect
B its
string s
Ġincre asing
v g
inter val
Ġcomp act
Ġrecord s
T ouch
ent ially
ew idth
EN V
Ġexp and
Id x
Ġder iv
ĠSup port
ĠPar se
Ġa dapt
ĠPy thon
A CK
trans late
Ġflu x
A ST
Ġmod al
Ġpage s
CO UN
Ġt en
ient ation
link s
< >();
ĠC H
ĠCont ext
a el
get Class
S witch
co p
BO OL
uplic ate
CRE ATE
itect ure
grad le
LE MENT
in der
sol r
fa st
Ġch art
Ġin flu
t witter
] +
- (
Ġst and
act ual
De v
ĠP r
Ġp acket
Ġprevious ly
BUI LD
ierarch y
foot note
De lay
reng th
Ġde tection
Ġw idget
Dec imal
Ġl iter
mob ile
label s
ĠR el
Ġh ours
l ider
get Message
annot ations
quire d
not es
M aster
ĠĠĠĠĠĠĠĠĠĠĠĠĠĠĠĠĠĠĠĠĠĠĠĠĠĠĠĠĠĠĠĠ ĠĠ
Ġim mediately
Ġimplement ed
F ALSE
= $
Ġan gular
AV E
> `
ĠI I
Ġv an
\ }$
d st
Ġeas ily
Serial ization
ĠTe ch
c ern
W rit
ĠQ ue
Ġrepresent ing
all ery
G O
f ord
Ġvers ions
M C
Ġgr ant
Ġre duce
ĠLog ger
sd k
Ġd at
D irection
Ġcoordin ates
Over view
Ġw ent
ĠM edia
e g
Î ¹
pro gram
E q
Ġp a
exp and
ĠF rame
Pri ority
Ġintro duced
Ġ' _
UB LIC
b p
} %
ĠNov ember
Ġext ended
rel ative
Ge ometry
au ge
sel ves
ĠA re
Ġrun s
Ch unk
Ġhe ld
Ġal ert
il led
Ġ' ''
ĠT op
Ġm ix
12 7
ch unk
Action s
ing ton
L Y
IL ITY
ĠC our
Ġproduct s
Ġvert ices
Ġtop ic
Com mit
Ġe igen
Ġhigh light
SI S
k et
ĠSt ream
P acket
I Z
Ġra dio
Ġcache d
Ġplan e
Ġp ul
s un
Ġcon duct
Code c
g z
ĠR o
L IN
File Name
Ġindic ates
du mp
Ð ¿
i lo
Line ar
Ġg oto
C aml
Ġde legate
pre vious
ri ends
l ision
ĠRe ference
Ġcell s
ĠS u
f av
S N
ĠO N
d irection
Ġed uc
Bu cket
Ch art
un lock
SP ACE
E Y
Ġtry ing
Ġm id
>< !--
re v
Ġan noun
ĠCon vert
Ġcom ments
Ġsign ed
r ules
Ġqu ite
ĠImm utable
Ġcomp an
Ġfig ure
f older
ĠE ach
O wner
ed u
sc ape
W orld
T uple
}} _
not ify
10 1
Ġ uri
Ġvis ual
pro t
S W
hel lo
ĠLo ad
Ġse ems
}^{ -
ve al
bu cket
gener ator
ol ate
RE CT
w x
ĠST ART
Ġf older
LA Y
u ous
Ġcomp iler
: #
lo ating
lish er
' _
Ġl iteral
Support ed
Ġc ard
Ġ( %
ord s
Ġspace s
ber g
Ġs peak
Ġte le
Ġi get
Ġs low
Loc ale
Ġcol span
alt Color
M achine
id ence
T wo
Ġpart y
g i
b us
Ġdown load
example s
18 0
Ġb alance
(" \
MP L
Ġv s
Ġde scriptor
ta il
Ġh ot
Ġdisc us
local host
Up load
Ġs chedule
00 1
Ġbeh ind
" ];
art esian
As set
ĠL L
T L
Ġexp lain
Ġre levant
Ġadd ing
Ġevery thing
Ġinterest ing
ĠSer ial
Copy right
P RI
ad oc
Ġal pha
Ġreplace d
ĠDe cember
EN ABLE
h ave
tr ansport
oc used
con current
local e
am ing
Ġmin im
pe ech
Ġsuccessful ly
Ġhy per
Ġdevice s
Ġ-- ></
ill is
R C
h an
Ġs aved
Ġ& #
Ġt f
de code
Ġcl one
Ġcre ation
ĠP ark
HO ME
S em
Ġattemp t
ĠA mazon
Ġpro duced
amp ling
as ons
HO UT
IN VALID
cre ment
Ġdel ta
an cy
lin ux
G HT
ĠVALUE S
st rip
s pect
ri a
bind ing
Ġse c
R ules
ak es
ĠCo q
ud it
Ġ' @
CD ATA
ar a
ĠH is
o ch
ä º
ir ing
de legate
ĉĉĉĉ Ċ
% "><
ĠC A
ĠL ic
Ġcont ract
ĠFound ation
Ġag o
Ġmin utes
Se c
x sd
me an
Ġen umer
Table Row
unk nown
cri be
ĠM er
Ù Ĩ
ĠC lasses
Ġpe ak
Ġst ation
ĠR untime
om b
D ER
Ġp ert
Ġm otion
Ġge ometry
m ac
c ryption
Ġwe bsite
Re ason
f ront
Ġcalcul ated
à ¥
par k
Exec ute
F ixed
Ġ# {
D iff
Ġf rag
Ġgener ation
Ġf ake
dic ate
em ents
d anger
ĠS ign
Ġad just
de cl
ĠĠĠĠĠĠĠĠĠĠĠĠĠĠĠĠĠĠĠĠĠĠĠĠĠĠĠĠĠĠĠĠ ĠĠĠĠ
Dis patch
10 24
Ġpres ence
de cla
e a
th umb
ar ante
Ġ" '
ur able
v endor
ĠÐ ²
ol ar
Ġdevelop ed
Ġuser name
TR AN
Ġc apt
Ġp ers
f old
du stry
sh are
UR N
C ook
-------- --
Ġlo st
in n
ĠA ccess
d if
code c
ĠV irtual
( --
FLA G
al an
ch a
F atal
è ¿
ck s
m ag
h ook
ac le
Ġcheck ed
Ġter min
c line
Ġy oung
D TD
Ġprom ise
ser ies
et te
Ġplay ed
ĠIn valid
ĠCont ent
p erson
Ġm icro
Ã³ n
org an
ĠP romise
comp lex
Ġag reed
lic ations
Ġ' #
Ġc ls
W atch
Z ero
Ġsu fficient
de fer
ĠL ay
' d
Ġfin ished
ec lipse
ĠF ace
St at
I X
Ġproces ses
Ġes pecially
) _
H S
Cre ated
h ance
ĠPres ident
Ġme d
ĠDe f
bin ary
w t
F L
A vailable
Ġ' -
ore st
An aly
cp u
Ġa apt
Ġgener ic
Ġcalcul ate
t ical
an ch
Ġconf irm
Ġ Ñģ
ĠE ast
lin ewidth
E mit
ĉ ĠĠ
fra gment
Ġstud ies
Ġmodule s
ank s
SS ION
Ġlimit ed
Ġform ula
ar ator
ap es
ref s
amazon aws
Ġobserv ations
Ġ( $\
z en
Ġmonth s
T w
le c
Ġin dices
Ser vlet
Ġin c
E W
re gex
Ġco p
sw ing
In struction
p id
k ernel
on ses
Res p
ĠWh ile
list ener
Do ctrine
Ġ$ |
20 22
ĠHand le
Ġtra in
Ġm oney
ome tric
ĠS an
Ġtra dition
Ġsc ene
Ġme as
ĠA fric
M at
Ġpro duce
ĠU sing
Down load
mun ity
ĉ ĠĠĠĠ
U ses
ex clude
ĠDe bug
Bu f
fe ssion
ĠJ S
qu ant
date time
add Class
SS AGE
Ġ\ ;
Ġto po
D ynamic
ĠS end
time line
Ġs il
ĠM ich
ĠM odule
P ack
An alysis
d agger
ren ch
ur ations
Pe er
em bed
ĠT ABLE
tr m
ur s
ist og
Ġtool s
s lide
h d
gu ide
du cing
Or igin
Ġem ission
ten ded
g ov
a ver
Ġbu cket
Ġext end
D R
ore d
Control s
M s
TA G
Ġunder lying
allen ge
Format ter
ast e
Ġb ra
Ġle ave
Ġil lustr
ĠCont rol
e val
M utable
**************************************************************** ********
Man y
Ġregister ed
h l
Match er
Ġan chor
ĠB ra
iss ions
ĠIt em
w allet
Ġoffic ial
Ġis instance
w ell
t imer
F il
f p
velop ment
sess ment
å Ĭ
am ount
Ġconsist ent
Trans ition
ĠFe bruary
Ġp riv
olic ies
G C
amil ton
M ed
C amera
ter min
Ġprint f
< \
PRO C
ĠD em
": "
SP AN
Data Type
Cont ract
ĠAmeric a
ĠK EY
BA SE
Ġcontinu ous
on ic
String Builder
Ġg oogle
Î ½
Ġpri ority
Ġpri ce
C annot
Exp ress
ĠC ore
ĠG raph
A I
CO M
m x
Ã £
Ġfa ils
Label s
Enumer able
ces sed
t ile
im ately
Ġde ad
tex trm
an cial
Ġare as
ĠIllegal ArgumentException
f b
Ġh ence
elastic search
ar ily
Ġd ro
de ep
'] .
ĠF ALSE
Ġd ie
ig hest
ĠL ondon
Dis k
un ct
ĉĉĉĉĉĉĉĉ ĉĉĉ
end point
R ot
Ġth reshold
o e
C trl
fore ach
Ġb undle
}} _{
C LI
C ulture
m ms
å ¤
Ġc amera
ĠE RR
Ġ$\ {
B ad
pre pare
ĠP ackage
Ġrecent ly
EN TRY
ĠC enter
ĠC loud
ol id
Ġch osen
Ġdes ired
auss ian
Ġexp onent
Ġsepar ate
ell ar
et ween
ĠM ain
art ment
mo us
P ane
Ġcorrespond s
Ġimp lied
Ġfollow ed
12 5
Ġpartic les
k i
fl ush
Ġview s
Ù ħ
st andard
Ġup dates
process or
h old
fa iled
rt l
not ification
agnost ic
Ġn ational
Ġaccur acy
As sembly
G it
S m
Ġdim ensions
Ġpol ynomial
Ġtrans lation
N C
Ġnetwork s
ĠH AL
Ġf oo
Ġb g
di ag
b t
Ġcon version
ĠA ws
K it
unc il
m atches
Ġperson al
a ils
A F
ĠBrit ish
Ġknow ledge
exec ution
ref resh
d ig
Hash Map
subset eq
pay load
Ġdom in
lan ation
Per iod
we et
Ġtrans actions
B ra
ext ensions
AR RAY
I p
] ->
map s
__ ,
ish ing
Ġbegin ning
ĠWIT HOUT
0000 000
D ITION
ĠG ame
rupt ed
Ġa ffect
Ġse cret
> ${
Work er
Lo ading
ful ly
Ġf raction
Se cret
ĠM E
p od
k es
fa ctor
E VENT
i per
case s
Ġstruct ures
p lus
ain ed
F etch
Ġst ri
as c
Ġst at
SU CCESS
ĠG lobal
Le g
c uda
m iddle
Ġto kens
tool bar
! </
Ġcell padding
Ġper mission
run ner
[ -
Ġdis patch
Ġun cert
Tr igger
ph oton
ony mous
Ġgalax ies
Ġme trics
') ->
Ġoccur s
ADD ING
ĠÐ ½
OR K
BA CK
Ġbind ing
(' ./
r atic
Ġdiscus sed
op lus
k y
Ġre ach
, .
po i
ĠF ix
Ġto wn
çĶ ¨
XX XX
Ġgo es
TI M
Ġpop ular
it able
tr i
ĠGener ated
On ce
spec ific
Ġne g
m ong
Ġcomp atible
b ing
Ġpro pag
Ġs izes
ĠExp ression
RE T
Ġve h
Ġde leted
Ġpro cedure
Ass ign
Ġignore d
Ġhel per
Ġthe orem
Ð ·
æ ĺ
Ġ" ${
h istory
6 00
attr s
ĠCom mon
Ġst ra
vent ory
ĠU K
net es
B S
Ġrot ation
Ġre duced
Comp letion
n y
Ali as
LO AD
b ullet
ĠPro gram
ur a
uber netes
text ure
ĠW illi
ĠS H
oci ety
() ">
Ġestab lished
st ates
Ġappe ars
display Name
be ans
O W
Error Code
i qu
ann ed
Ġm ind
Ġreference s
ĠHash Map
ĠP AR
h base
Fe atures
Ġme di
de scriptor
ident ity
sp i
Ġc lock
include s
Ġopt imal
B o
google apis
Ġcomp uter
Ġto ld
× ķ
C UR
Ġex pr
Ġtext ure
ub ble
RE A
c n
inte gr
b ine
= &
get Attribute
ĠDate Time
ĠIn ternational
Ġt or
ixt ures
cur rency
second ary
h om
O ur
Ġr isk
TO M
Ġexperi ment
Ð° ÑĤ
ca pt
Ġmo ved
ĠT ag
Ġeff ort
Ġ onto
Ġs outh
Ġf amil
java x
ĠAdd ress
Ġpur pose
ĠP lease
Ġp ipeline
F amily
gra ms
Ġex change
log ies
P M
Ġsm ooth
R o
Ġb ring
Ġcon v
conn ected
U CT
Ġt uple
Ġear lier
^{ -\
ench mark
Ġatt ention
Po jo
ug gest
AC ING
de t
Ġp ending
Ġcomplet ely
Ġcom ing
m n
View Controller
ST ART
a ren
sche mas
* ,
ct ree
Bit map
=" {{
Ġcell spacing
Mod ified
no frame
^ -
Ã£ o
Ġrem ains
Act iv
ĠM AX
Ġmeasure d
Ġ" #
ĠU s
== =
Ġsymme try
Ġdec ision
y r
se udo
ĠĠĠĠĠĠĠĠĠĠĠĠĠĠĠĠĠĠĠĠĠĠĠĠĠĠĠĠĠĠĠĠ ĠĠĠĠĠĠ
################ ################
Block ly
ĠK IND
pr ite
Ġlo gin
Ġle d
ĠD ay
S UB
AT URE
contin ue
D id
re c
lo ss
iv ial
ck er
as hed
up dated
Ġsatisf ies
fe atures
Ø ¯
cover ed
ĠDo uble
cache d
Ġmon itor
Ġsc atter
Ï ĥ
ĠStr uct
var s
set minus
S yn
ud ent
curs ive
Di ct
Ġs ending
Ġg reen
ĠJ ap
[] {
RE SS
wh at
Cal endar
s With
Ġdefault s
Ðµ ÑĢ
over ride
Cert ificate
Ġcla im
part s
C apture
j ackson
atri ces
>( <
Ġ' ,
RO W
w ill
Ġindic ate
d ynamic
Ġ$ $
ut ive
depend encies
25 0
Ġsa f
at o
gre es
ĠB ORDER
Ġconst ants
Ġadd r
ĠOr der
ĠA uto
Look up
ĠK e
Ġ" )
w edge
Ex ist
Ġassign ed
P ipeline
TER N
la m
Ġde signed
B reak
P red
T ensor
D em
s z
p ad
ri b
m ix
el i
aw n
ar c
ĠD et
K ernel
] ['
ĠRe search
Menu Item
D one
ne ut
man agement
T T
Ġto wards
ĠB E
p ixel
Name Link
st one
Ġlimit ations
Ġrest rict
Ġbe gan
t od
P ush
lab ility
Ġimpro ve
_ [
Se q
ot ing
Ġw rapper
ĠE ar
Int ent
Ġs ender
Character Offset
S elf
is ms
Ġ\ (
Ġpixel s
Un iform
k m
Ġf ood
Data Source
ĠP rint
con v
S core
199 8
ĠO P
ĠIn v
Ġn or
Track er
now ledge
filter s
A SS
ens itive
ak ing
ĠVer ify
FA IL
j i
Ser ies
iss ue
ĠD CHECK
Ġz one
Ġexperi ments
stats models
Ġin variant
arch ive
Ġcon cern
br and
serv let
fol io
Ġexp ansion
Mod ifier
link ed
p n
PRO P
or ge
Ġe vidence
Run ning
Ġsh ip
re ceiv
p le
Class Name
_ *
Pri mary
WA RE
Ġre direct
N ON
Ġdynam ics
bu ilt
Ġex c
Check ed
ro duction
Ġso on
Ġs light
Ġapprox imation
ĠC HE
AN T
ĠR ender
ĠPH P
ce eded
TableRow Color
B LE
Ġexplicit ly
ĠT ool
ĠM at
Al ert
sub figure
pro c
W rap
Ġdecla re
c lip
Ġcontain ed
[ (
D at
ĠF ree
L ite
V ec
Ġcomp liance
ing u
Access or
pi pe
e b
in ject
Ġmean ing
ĠM O
ĠOr iginal
ĠT V
Ġhe art
ĠM ag
A SE
ĠLic ensed
Ġw ays
Ġno vel
\ }
el t
Ġquest ions
al i
Ġde comp
pend ing
Receiv ed
Ab out
M R
Sup press
u fact
port ion
s ass
Ġgrow th
Ġ} ).
] </
pag ination
o ices
ĠTR UE
big g
Al ign
Ġposition s
Ġpre tty
late st
pack et
(" .
Ġproject s
REQ UEST
Ġlarge st
h ar
red irect
Ġcor re
Ġpolit ical
Ġattr s
sc an
Named Cell
Ġgu arante
p res
ren ce
decla re
if orn
" ?>
vert ex
U A
S lot
L SP
is ions
ons ive
Vis ual
Ġen code
al o
P ut
Ġt s
ĠF ilter
Has Been
she ll
Ġan t
Ġre store
æ Ī
greg ation
Pay ment
y ond
co okie
ĠR uss
_ +
ec ause
Ġt imer
Ġcorrect ly
Ġbo unded
ĠM ac
wik i
Ġhar mon
File Path
to Equal
V EL
" ])
EX PORT
The se
O FF
ph ase
Ġnumer ical
Ġ. =
Ġin equal
set ting
ie f
Annot ations
de scribe
Ġin herit
ĠCur rent
A zure
ME M
* >(
W ARN
il ib
Set up
Ġc lu
Ġc apture
N ECT
g ence
M ut
Ġexperi mental
ĠO ff
Ġ" );
m ultip
Ġ" _
Ġcamp aign
P oly
Ġ| \
Ġle ads
pop up
amp ion
Are Equal
set Text
Ġ======= =
U UID
s ur
DE D
Model s
Ġinv ol
è ®
Ġal though
ivers al
B ER
Ġan im
\ _
package s
Change s
Filter Database
el s
Key word
value Of
k g
OT TOM
Ġrot ate
ĠB lack
re duce
Ġd am
m oment
b x
Ġcontrib ution
ĠY our
ĠD I
at ibility
ĠT YPE
ĠÐ ¸
Fig ure
go ing
T y
ĉĉĉĉĉĉ Ċ
> .</
D P
ĠW HERE
Lower Case
Ġstart s
M ust
T ry
\ ":
ĠCHE CK
Ġe lection
task s
Ġpar allel
D r
Ġchannel s
' ):
el come
andid ates
Ġh ide
ĠB Y
ĠD avid
Ġl att
Ġdeta iled
Fact or
Ex it
B L
Ġout er
Ġopp ortun
db c
is o
Ġg auge
Ġg over
ĠNS String
c py
ar ter
l ated
ĠCol umn
Mon itor
co untry
P lease
Ġ layers
IN IT
Text View
At trib
all s
Rel ation
Own Property
×ķ ×
ĠAr ch
me trics
aw esome
as ses
es cape
Ġcomp utation
Ġ< ?
/ )
Ġep isode
LP ADDING
Ġcoordin ate
ĠCEL LPADDING
wo od
Ġgener ator
C SS
ĠCEL LSP
ĠCELLSP ACING
ĠO f
Ġa v
Ġend if
se parator
s leep
99 99
ĠInitial ize
Ġg it
Dist ance
po ses
N ONE
Ġclass ical
ĠEn tity
HasBeen Set
æķ °
Ġqu eries
Det ector
Ġtrans formation
iforn ia
sl ider
ĠW hether
mut ex
Ġbo ard
ĠI R
Ġho pe
ME SSAGE
Top ic
Ġc andidate
Const raints
cul ate
y a
Me tric
Ġde tected
Ġth erm
Ġcombin ation
DI S
ge ometry
Ġcheck s
s urface
S rc
Ġthrow n
ĠO Caml
frame s
lic a
Ref lection
arg v
u ation
ribut ed
Ġtech nology
ĠCon sole
ak er
Ġprec ision
az ure
Status Code
Ġshow ing
r ance
Ġbelie ve
I ss
Ġs quare
ĠP l
H ave
Ġs it
Valid ate
Ġab ility
ĠSt reet
Ġcoefficient s
Un ique
row se
state ment
Co ordin
! (
lement ed
Ġmode s
F inal
append Child
b undle
M ay
S chedule
IN DEX
Ġ} \
Tool s
U AL
Ġsim ulation
ĠĠĠĠ čĊ
parent Node
bound s
te e
E st
clo sed
+ "
Component s
Test ing
Ġfe e
Ġgener ally
Ġpol ar
ov a
path s
ĠD A
E P
Ġin dent
land s
Ġde t
Ġf ine
Ġcan vas
Ðµ ÑĤ
Ġa x
... )
s core
Ġd u
50 9
S ide
ilit ary
Ġrepresent ed
sp in
istog ram
Ġpract ice
Ġtra de
Ġh yp
draw able
Ġe fficient
per cent
Ġm s
Ġcons ists
ĠP si
External Task
ir ation
In dic
sub string
ĠN ext
Ġse x
Ġf o
gener al
ĠCon s
ĠC la
Ġoccur red
B lob
` )
Ġin dustry
Ġn ature
Ġper fect
ĠS V
! "
Ġb ug
__ ["
ld s
d td
ag o
1 10
a ui
Scal ar
> {
Ġ$ ('#
ĠS SL
/** */
Ġe ase
p ipeline
ites pace
as i
go od
ĠS cal
Mark er
Un der
ĠString Builder
Sc an
st ub
Wh ile
Ġshe ll
Ġpress ure
Ġdi ctionary
Ġra d
E valu
Ġover all
clu ding
ĠL in
man ifest
Ï ģ
ĠPro position
() [
Ġmoment um
Ġimp licit
i ency
set Attribute
pri ce
Ð¾Ð »
a co
ĠSci ence
ĠA L
Ġgover ning
Block s
ho use
ExternalTask Pojo
m is
Ġr ates
ĠN av
Ġl atter
road cast
Ġuncert aint
Ġv ectors
ĠIn it
ĠS yntax
A meric
ĠT OP
L at
SER VER
Ġinv olved
Ġpres ident
} "/>
How ever
havi our
T yp
AR GET
IT LE
Ġh istor
Ġc lip
Ġs yntax
ĠSt andard
ĠH as
Read y
m en
N umer
app le
Sc ene
project s
Ġfact ors
ĠL I
Ġsim ulations
Ġcap acity
al g
En t
S G
look up
to ctree
fe ed
En tries
COUN T
Ġext ensions
PAR AM
Vis itor
ad apter
Ġannot ation
Ġc ircle
N I
Ġst able
a N
AA AA
iv il
ri an
ĠCol lege
Ġ" ;
Ġst rength
] ).
G UI
date picker
ĠHe alth
} &
'] ))
A MP
Ġt ro
ab stract
Ġspect ral
om in
Can vas
Pop up
Path s
ĠSh ould
AS H
Ġpub lish
de veloper
Array s
Su ite
! =
) },
Ġhand ling
e ven
medi um
L ines
Ġbe yond
V O
: %
W arnings
mar shall
Ġal gorithms
non atomic
="@ +
Ġst udi
v it
Que st
Ġse ed
h ard
ret val
Ġ$ [
Al pha
Ġl if
ill er
G LE
ĠD im
br aries
P ower
}} (\
Ġl l
( `
c ross
_{ (
ĠH ence
H int
Ġsitu ation
SI GN
Ġsupp lied
D im
Ġsub set
Ġp ure
]( #
Ġsu c
ĠG rid
max cdn
ig ator
RE NT
requ ency
Ġmeasure ments
ĠAustral ia
ĠC ache
B us
Trans lation
Ġcre ates
Ġplay ing
Ġmo ving
Ġest imated
RO OT
Mer ge
omorph ism
FLA GS
st ri
in herited
de sign
_{ -
os er
at tach
peri od
ffic ial
FORM AT
Ġs lot
E r
B l
S cheme
ĠP al
re ason
Ġas pect
Wh ere
Ġs on
ra b
I FI
ĠH amilton
st rict
P ending
SH A
Ġup load
out er
@ {
P icker
ĠG reen
In jection
Ġnot ification
ch rome
Ref resh
ĠTr ump
~ $\
Dest roy
ab br
MS G
M illis
Ġto String
M esh
ĠIn ternal
ĠAct ive
Ġident ified
Ġcomp ut
Ġp atch
MA SK
ĠH ome
Ġ å
gr pc
data set
ex cept
w est
Ġfilter s
Ġexec uted
Ġre verse
RO UP
sub subsection
Ġask ed
Ġtra vel
div ision
> [
sub Nav
serv ation
Ġcoup ling
ul p
i en
An im
An chor
text sc
Set s
EN CE
Ġstra ight
E LEMENT
over flow
Rad ius
ist r
Rel ative
__ .
se cret
FUN CTION
j oint
peak er
w br
Ġb irth
W ill
Ġg radient
dist ance
Ġmechan ism
Ġla unch
Ġro b
name d
Sup p
Ġcont rast
Ġ-- -
im ize
{ $\
ĠF urther
li k
Back end
n ail
F P
ouse l
Ġassume d
ĠJ ob
Ġamp lit
Ġme et
ri ent
ĠSe curity
Sup er
: &
? (
script s
up per
ĠTo ken
Oper ations
render er
ph ere
//////////////////////////////// ////////////////////////////////
Ġdisplay ed
te le
un tries
Ġj av
Qu ant
[] )
Ġlet ter
to LowerCase
A IN
u lo
vid ing
Ġdec ay
for all
ĠT EST
-------------------------------- ----------------
H z
- ">
initial ize
Oper and
ĠZ end
hash Code
has er
Ġd t
e ss
p at
Ġs napshot
Comp leted
Ġsp atial
Comp arison
Ġexp lanation
Ġsp ent
Ġcomp letion
M ail
), \
Ġproper ly
Ġrelation s
ĠRe public
S afe
. ")
ĠĠĠĠĠĠĠĠĠĠĠĠĠĠĠĠĠĠĠĠĠĠĠĠĠĠĠĠĠĠĠĠ ĠĠĠĠĠĠĠĠĠĠĠĠĠĠĠĠĠĠĠ
Ġopen ed
S UP
Second s
n able
ma ch
Sub scription
Ġwant ed
NG TH
B ridge
Ġad opt
pos al
Z oom
ent ries
Ġor bit
igh ter
Ġcompan ies
is hes
Ġsome one
m icrosoft
WR ITE
Ġh ighest
dir name
v n
Ġass umption
F ix
Ġc li
se gment
ĠOther wise
Q t
T ip
Conn ector
um ing
co ped
P adding
Comp are
Ġlog ic
place holder
ro te
Ġse ll
v ille
Se parator
$ ^{-
ate st
ĠB ook
Ġthrough out
af ka
cs v
or a
al gorithm
ĠUn it
Ġlook up
cond itions
Ġm obile
Ġthem selves
r ink
ĠT ree
He ap
Ġh on
) ^{\
Ġw rap
W in
op acity
Ġdefin es
Ġdepend ing
AND LE
T X
Ġp aint
="../ _
Ø ª
ĠP UBLIC
ĠL anguage
Ġan ti
od ot
aj or
Lo aded
FT WARE
ĠT ry
) }(
came l
Ġcy cle
la ve
Ġ/ ><
ĠAt tribute
Ġfav or
Ġd ual
Ġ+ \
Ġspec ies
Ġcopy right
Ġre ached
Ġcare er
Event Args
Thread ing
Ġretrie ve
in ity
Ġa st
ĉĉĉĉĉĉĉĉ ĉĉĉĉĉĉĉĉ
om as
part y
55 5
i pher
og ene
Pay load
Ġevalu ate
Ġen coded
ĠT er
Ġg ap
ĉĉ čĊ
ollow ing
Ġtreat ment
oll ary
Ġa w
="# "
Ġdocument s
in x
ĠSup er
M ix
Å ¿
lement s
al d
Ġpar a
illi seconds
ĠĠĠĠĠĠĠĠĠĠĠĠĠĠĠĠĠĠĠĠĠĠĠĠĠĠĠĠĠĠĠĠ ĠĠĠĠĠĠĠĠĠ
vis it
40 4
Ġestab lish
ĠC he
Cont in
Ġequal s
an alysis
D M
mu x
ĠS C
R ob
back end
An gle
C lean
He ad
Ġqu ad
In line
F ill
Sub ject
Ġph one
Ġcombin ed
st age
ĠB ro
Ġmeasure ment
ĠA uthor
ĠPar ameters
Ġf ib
ĠU P
u ssion
de mo
roll ers
Ġmod ern
pri se
AB ILITY
Re gex
De fined
Ġprec ise
inv oke
ĠCon nection
Ġn ested
the ad
Ġsub sequ
Ġpert urb
// ----------------------------------------------------------------
ra d
ĠIn dia
k in
8 00
source s
ĠR ich
sample s
et c
Ġmay be
jo y
Ġr hs
ĠUn less
Ġdisc ussion
Ġ{ $
Ġe c
é Ģ
LE VEL
T ex
ĠCON DITION
g oog
Ġde vi
OB JECT
Ù Ī
Ġgu ide
ĠR ad
default s
ĠS y
Ġconfig ured
op am
S urface
Ñ Ĩ
ind ices
re gistry
Ġdist inct
Gener al
it a
] }
ĠB er
Ġr ing
Ġc ss
cc cc
ĠP lay
Ġex am
Equal To
mod ifier
] ),
Ġwork er
; %
X Y
B LOCK
s quare
Ġ// !
Ġintegr al
Ġpackage s
ãģ ®
ĠCh annel
FR AME
d n
ĠÐ ´
me tric
ĠN or
vers ions
Ġauth entication
ĠL ife
Rout er
ĠL aw
ĠG r
ĠFace book
Å ¡
E qu
N ested
_{ {\
Pri ce
p in
ĠM or
over lay
size of
Ġlatt ice
ch at
Ġconfig ure
Ġse ctions
at ype
temp t
Ġin te
Ï Ģ
sh a
Ġtable s
____ ____
Ġlocal e
Ġsc an
Ġpe er
scri ptions
Ġtyp ically
ĠIN T
st eps
Ġf em
and box
sched ule
config ure
H ook
Graph ics
vari ance
Ġ mp
Me asure
Ġweight s
ĠU t
c amera
W ORK
ĠRes p
Ġen crypt
ĠA rm
Ġscen ario
Ġstyle s
ph y
ust ed
Ġf air
G ateway
List eners
n pm
Ġ} ),
l ator
r x
Ġdepend ency
Cook ie
OR S
ss aging
Ñ ĸ
Ġindic ating
d h
ĠO ptions
W I
pear ance
riter ion
scri ber
U int
pre ter
ĠBA SIS
Ġre gex
Ġstudi ed
ord ers
ĠD own
Ġ/* !
style s
Vis ibility
Ġ' ')
t ik
Ġincre ases
ĠÐ º
Ġst ay
pe ction
e valu
char acter
at ile
Ġthe ore
ĠS ize
to c
ant om
Ġs lice
ĠC R
ĠH o
br anch
' },
Ġagre ement
LI B
ĠCONDITION S
ĠRe port
Up dated
Co uld
s amp
ĠDe vice
Ġsort ed
gist ers
è ¡
Al ignment
Function s
hem atic
iver se
ĠCal ifornia
ext ract
Ġcause d
Ġcent ury
Ġex hib
Ġ[ #
Ġsignificant ly
Ġpol ice
ĠIn formation
ĠP aul
dis k
ast ic
incip al
LIN K
Ġj ump
ĠCon struct
ma ss
ib ling
Ġe le
Re c
aw t
ĠL ab
Ġmo lec
Ġ eng
} ))
{ },
ĠM P
Ġhigh ly
S ig
By Name
ĠA T
rg b
b ro
In ject
RI GHT
Ġinflu ence
Ġes cape
ĉĉ Ġ
Ġim ag
we ak
Ġan n
Ġ æ
. ');
Ġintro duce
Base d
it ivity
Ext ract
ong o
Ġs al
N EL
Ġj oint
Ġform ation
Dest ination
Ġse em
Ġfin ish
Cred entials
ist ant
5 12
B lue
Ġconf lict
resp onsive
Ġmark ed
ĠL abel
Struct ure
Ġre c
ĠĠĠĠĠĠĠĠĠĠĠĠĠĠĠĠĠĠĠĠĠĠĠĠĠĠĠĠĠĠĠĠ ĠĠĠĠĠĠĠĠ
c x
ni ques
S lice
Ġv ec
P ol
Ġlook s
.~ (\
tra in
Ġdistribut ions
â Ķ
Pre vious
ĠS en
Icon Error
Ġre ports
e th
ĠMod al
Co untry
cy c
f iler
g p
ĠGu ide
mb ed
ern ate
Ġauth ors
? </
AUT H
ĠLe g
Ġs aw
Ġlist ing
z h
fa ster
Ġcl ub
Ġra ce
Rep ly
se y
Sh ift
) &
ĠMore over
() ]
iz ers
os ity
t bl
<? >
ir l
rypt o
sub scription
ĠN on
Ġun ion
Ġext reme
ĠPub lished
com ments
us age
st derr
U Int
Ġ= \
he x
ĠMethod s
Ġfe ed
Meta Data
Ġsymme tric
pect ive
s ender
Hel lo
Ġexist ence
Ġaltern ative
ĠApp end
IconError Encoded
Re ceive
Ġin ject
cour se
ĠJ ames
ue ss
Java Script
Ġco s
F ake
col on
Ġk wargs
st ra
ĠC lear
Ġbroad cast
Ġm atrices
h ow
Re try
c raft
Ġh or
P K
ĠG od
De coder
S peed
ĠSe ssion
po ch
ĠB OTTOM
s is
ĠLe ague
z oom
pre view
sc ill
Conf irm
ens us
Ġrep ly
Ġoptim ization
t uple
Ġa mb
B est
code s
ĠB ay
help ers
Ġro ll
Al gorithm
> /
bo ss
Ġde mand
fav icon
i ar
custom er
}$ -
no script
Ġlimit s
En coder
Ġmention ed
Ġexpress ions
BY TE
Mod al
Ġconvert ed
end region
ER S
With out
L ONG
Ġsur vey
ut ors
Ġdate time
" }
par agraph
D ry
Ġo dd
te am
Ġw ind
Ġ" +
Ġle aders
/ '
Ġpy thon
ĠSe cond
In f
b or
---- ---
In clude
ref lect
ĠI F
Ġl iving
Re gistration
on ed
i Ã³n
Ġre li
Ġac comp
=- =-
Ġdel iver
p ref
> ../
Ġre veal
order ed
le e
Ġar riv
App ly
Ġp lus
ĠP at
s uch
te ch
ex peri
Ġpro viding
Ġmo vie
Sh adow
Stack Trace
an i
,\ ,
Ġ(! (
$ ).
Ġclass ification
> ()</
row Color
list ing
C tx
ĠP op
ump y
------------ -
stream ing
Ġin d
h aps
app ings
V e
ĠĠĠĠĠ Ċ
Ġ ../
ĠEng ine
ĠDep artment
type param
act or
Ġman aged
Ġinitial ized
M argin
S ent
Trans fer
valid ator
ĠCh ina
ic ity
en vironment
Ġcur ves
L ike
fra g
Per cent
==== =
eder al
Ġ ĉ
Des ign
Ġv ary
Ġhim self
Ġcon ven
Ġframe s
Ġro ad
ĠG it
Ġf ight
ret ch
D imension
text area
os h
å Ń
first row
ĠS ET
Ġde sp
run ning
er c
pro duction
LE NGTH
Request s
sp ark
Ġad vant
Ġcon sumer
ct rl
v et
å ľ
ĠS ymbol
M ac
and er
U sed
Str ip
if rame
He alth
Ġb old
D ig
h int
sub scribe
Ġoutput s
a ult
Ġlist ed
Ġm ail
use um
Ġ' $
LO B
allow ed
v in
Ġ// -->
gener ic
ĠR PC
TEXT URE
ĠD el
j ac
` :
sign al
Ġincrease d
Ġcomp ile
Ġpredi ction
Debug ger
St age
en o
Ġcert ificate
ke ep
199 6
Ġw orth
F oo
Ġinequal ity
Ġwait ing
s peed
O k
act ic
ĠB asic
Ġr c
Ġevalu ation
FN GL
ĠF rench
) _{
K e
ar able
m ay
G uid
lu a
ater n
input s
Ġorgan ization
av el
ĠIn s
S F
Ġc rit
ime d
Ġden otes
ĠEurope an
Ġfoot ball
ĠM atrix
ĠSO FTWARE
Ġcontrol s
Ġob server
Ġdiag ram
cip ient
ç »
and o
Ġreceiv er
Ġscal ing
="# ">
if old
to oth
ĠSt yle
Back up
ra ise
TO OL
it ation
Ġbo ot
Ġform al
C MD
se ed
Ġ[ {
Ġintegr ation
DE C
Ġ"- //
Ġpro jection
T LS
Ġab s
ament al
Ġoff ice
g able
ĠS N
o un
File System
Ġ&= &
l b
In tegr
Style s
per mission
ĠMan agement
Part ial
Link ed
faster xml
Ġpro fession
Ġmat ched
Ġvari ety
ist ration
Ġtarget s
. ";
ĠD an
A lt
Ġn a
ele br
Ġin ternational
Ġj ud
Ġt ile
]] ></
Ġr s
sp ital
199 7
brid ge
Ġsing ular
Ġst atistics
)\ ,
M AN
Found ation
vi sed
PRE FIX
block s
S ender
Ġslight ly
Ġin finite
7 00
ĠOper ation
FFFF FF
cept or
Ġ# #
I ME
Ġw rote
get Key
Ġspect ra
ĠPro p
Ġ rap
ĠP lan
ec ycle
s lds
ĠS ur
ĠAd ded
Ġe ffic
Ġx si
ĠP R
local s
get Text
ĠU sed
to kens
De cor
P G
Ġre member
Gener ate
ĠRob ert
writ ten
Ġcop ies
b ench
ad ded
f its
Ġh our
Ġmark er
w a
^^ ^^
ĠCh ild
D ao
stylesheet s
ĠPro perties
window s
ĠJava Script
neut ral
R atio
Ġ" [
Ġn orth
o log
as set
ge ms
in verse
O PTION
ĠAl low
, </
Ġc atalog
Variable s
s ime
Ù ĩ
Ġpri me
ĠM r
J s
ĠG aussian
Ġquick ly
ash ington
ist ics
Ġstud ent
Ġremo ves
Ġpattern s
Ġor d
M ult
re mark
M ag
Dis abled
Ass ignment
sk i
Ġcommun ication
me asure
Ġrequire ments
ar ia
u zz
n c
Var iant
ĠCan ada
ĠS ymfony
az y
Write Line
V ID
Ġref resh
H AL
ĠEng land
Ġopen ing
Ġw est
Ġnot ify
SD K
ymp tot
ĠRe quired
) ^{-
qu is
Ġnot ation
ĠCo uncil
ĠN ull
ur st
Im mutable
Ġla ck
æ Ĺ
Ġplace d
Ġsome times
../../ ../
az el
ab il
cont ainers
per p
ĠD atabase
S ink
R GB
app s
pri ority
sh op
Ġannoun ced
Ġcol ors
Ġclu sters
channel s
Ġ à¤
ĠM IT
Ġiter ation
ymme tric
sp here
m ann
Ġwork ed
INST ANCE
ĠR ow
Ġcalcul ation
ir al
b el
add EventListener
ĠEn able
Ġturn ed
post s
Ġv ict
ext ype
Ġ[ \
String s
ãĥ ¼
en ed
ĠL ast
ĠSc ott
sime q
ĠM al
inter pret
ĠM art
) *
r v
Ġenter ed
am i
Ġconstruct ed
( []
Ġappro aches
table s
mark er
icip ant
Ġp m
ok ies
ĠU SE
Ġa ren
M ount
ĠCont ainer
E lem
Ġdo ub
' =>
t v
MA IN
ĠD eta
ĠG ET
? "
Ġhapp ens
P ress
ĠF ran
L T
pm atrix
Ġparticular ly
× Ļ
Ġc m
ell ig
F ROM
AC CE
quest ion
ĠE mp
Ġ( `
ĠMich ael
work er
Ġso ft
Ġ ion
flu id
Ġin strument
Ġp icture
Re vision
Up per
Custom er
c aret
Ġlist s
Ġc ru
Ġinter actions
Ġ ult
STR UCT
new s
Ġob serve
H C
remove Class
Ġresp ond
Ġmin imal
pay ment
Ġm orph
Ġanal og
ĠT wo
ĠAd min
reed om
B I
tik z
19 2
N ER
resent ation
Î ·
St d
CL U
Ġdep loy
s ym
Ġst ub
Ġm or
ĠPe ople
Un able
Ġre ject
c lock
ffff ff
Ġcon cent
Ġde cor
re verse
Ġestim ates
Ġst aff
Ġproces sed
O ld
s ch
++ ++
ud y
LO AT
m ma
User name
e lect
Author ization
Fil ename
Ġf riends
Ġin verse
Ġsyn the
Get String
Ġsub scription
Ġdis p
Ġ utils
Ġp iece
Ġc p
co up
s lot
variable s
AR CH
Over lay
^{ +
Ġsatisf y
}} ^
Ġch anging
Tag Name
ĠI gn
Ġgr pc
t ract
] *
Ġgiv ing
Ġt ick
part ition
Allow ed
ĠB r
ĠWh ite
Des erial
Ġc ulture
om a
li des
ĠRem arks
b urg
Ġdepend ence
o logical
l ive
Ġc line
ra ms
Ġsynchron ized
Re q
ĠPar ameter
O ccur
ĠĠ čĊ
Ġ$ -
unn el
get Property
cor por
T ING
K EN
Ġde part
Ġres olved
ri um
Ġassign ment
oot strap
Ġyield s
T ick
ĠM ost
la d
ĠService s
ĠM ont
Ġdr ive
Ġatt ached
qu o
f uture
Ġh ook
PRO TO
Ġst ellar
Ġre asons
19 90
se p
B r
t cp
cr umb
NotFound Exception
am er
MA C
She et
Ġd x
Ġ. /
D if
Pro c
as m
cy cle
Ġr m
/ #
Ġclear ly
> )</
Ġtech niques
Ġor ig
Or gan
rep ly
trie ve
ĠTh row
C atalog
m ultiple
ĠS ec
atter y
pre vent
no logies
g ate
Syntax Kind
ĠCour t
(" <
Pro totype
Ġco ol
Ġvis ibility
g ui
">& #
k ins
Ġon click
Th an
AR B
For ce
Ġst uff
Ġsub mit
">( </
PT S
c as
Red u
Ġaccept ed
ĠIn stance
St mt
ĠA M
Part y
: =
To ggle
int ro
met ic
al gebra
ĠCom mit
Read Only
ers hip
Ġ Ø§
ow ers
Ġre try
ur er
li a
Ġro uter
Ð¾Ð ´
ĠA lex
ĠP M
Y our
const ants
L com
so ck
Ġob vious
Ġpass ing
Ġph oto
D ump
Ġthread s
ĠN et
e per
ĠA ut
( @"
f w
Ġw oman
m ust
Ġeduc ation
Ġto ggle
Ġneighb or
H idden
() `
D X
Ġre gistry
DE LETE
fe ss
ERT Y
HO ST
ops is
Ġloc ations
t one
ĠT arget
place ment
LIC ATION
display style
TE GER
Ġ(! $
Dep loyment
g c
ane se
Ġnear ly
Ġdifference s
Sign al
Ġc c
Ġdefinition s
!\ !\
C AL
ĠT or
ĠX ml
S cheduler
Ġpro ceed
miss ing
Ġg ave
Ġfore ign
s ame
} )$.
i ation
ĠCON FIG
m ime
clus ions
ĠUn ion
S ING
all back
Ġfunction al
Ġab sor
ĠO THER
Ġcred entials
ĠForm at
Ġfor ces
)\ \
p ot
it z
ĠF oot
A ff
Ġplace s
Ġnormal ized
numer ic
conf irm
Ġen hance
fin ity
const raint
process ing
PA SS
Ġg lyph
Ġexp anded
Ġpro tect
MA KE
Ñ ħ
ĠA WS
ĠQ String
Ġte ach
Ġd ire
qu ick
Ġsp read
Ġf ather
) }{\
Data set
Cal led
Ġmaterial s
(" -
TR I
ine se
ĠDi ctionary
d m
ĠF ixed
I MAGE
ĠD iv
Ġopt ical
ĠDis play
M ultiple
Ġre po
st or
Ġse ss
h bar
Ġd jango
Ġpur ch
ol t
ĠP ass
it ar
ĠCon structor
ĠO UT
Ġh orizontal
S printf
App Compat
Ġ" ./
y aml
Type Name
Ġhash Code
Ġ' </
Ġde grees
l iteral
ĠInter face
" </
Indic ator
n io
Ġarray s
C ity
Ġcall er
et ime
ĠB ind
Ġ/ ></
Ġsc ience
I A
Ġshow ed
; ,
h u
Ġevery one
co ut
:: $
Ġtradition al
Ġcon sequence
mod ified
Ġsco ped
ĠUS B
Ġre peated
ell ing
dest ination
t re
Ġs impl
Ġjob s
ĠLib rary
rit ory
ĠM atch
s id
Ġm us
Type Def
Ġleg al
100 00
New ton
chart s
Ġv ac
Ġd ise
ĠC ap
S PE
ag ram
sche me
ify ing
atist ical
se ll
sh ots
Co ord
AME TER
Ġcour t
Ġin sp
$ ~
Filter s
Ġs ites
$ $\
[ ],
ar ded
ov es
illa ge
Ġch ance
ĠP rivate
ĠS un
b as
Ġspec ifies
in em
is l
ĠG en
H ide
D er
Ġd s
Ġc fg
Ġpro grams
At t
y ml
df s
Ġmagn itude
ĠD ATA
Ġin correct
Ġle ader
Ġrespons ible
ĠCre ated
Ġc hem
ĠReg ion
pect or
U V
st mt
button s
Ġ' {
\| _{
h box
Ġe ast
Pred icate
tr ins
ĠM usic
ĠSto re
199 5
}} ^{
G est
B ro
MPL ATE
it ing
Ġorder ed
11 1
is Array
field set
Ġv oice
Ġpass phrase
semb le
Ġp en
IT H
Ġelect ric
St atistics
vers ation
ven ue
Ġre duction
m acro
Ġre tain
ĠĠĠĠĠĠĠĠĠĠĠĠĠĠĠĠĠĠĠĠĠĠĠĠĠĠĠĠĠĠĠĠ ĠĠĠĠĠĠĠĠĠĠ
Ġab ort
oss ible
p f
å ¼
Ġw ild
Art ifact
new command
Th us
j boss
Tw ig
P ersistent
M LE
E MP
Ġ( );
Collect or
ilib rium
Ġco okie
ĠB lue
mer ce
St e
Ġhe avy
Ġparent s
Ġrel atively
V C
T ITLE
Ġth ick
co st
ĠPh il
Ġp tr
vai lability
m ysql
decor ation
u v
C ss
P aint
member NameLink
Ġro ut
ĠB el
U C
is er
imp lementation
Ð¸ ÑĤ
Ġaccess key
Ġtyp ical
Table s
ĠE qu
ai ses
Ġm ac
D MA
Ġco untries
d ating
Ġcon clude
Or iginal
Ġv oc
Ġinter rupt
im a
ĠA UT
Ġb ank
Ġinter pret
ear ning
DI RECT
ĠC S
H orizontal
Ġcustom er
We ek
ĠCh rome
co ordin
Ġsh adow
Sh are
at able
Ġpay ment
w i
ynchron ous
Log ging
ĠF our
C a
ĠAc count
B ranch
al a
Ġ" ")
Ġp la
---- -
ĠSum mary
e es
Alloc ator
ĠÂ ©
Ġsur v
n l
af ari
Ġd f
3 60
Ġto ur
> ');
Ġ' ../
we ek
Spec ial
al so
Ġb rief
Serial izable
N il
Ġrender ed
Ex change
Ġadd s
Receiv er
Ã ¨
Inv oke
Th reshold
ĠJ er
Ġre start
ĠFin ally
å ¯
Ġcover ed
thread s
Un lock
00 2
V T
sc ene
ro b
C ost
p al
ne gative
> ("
ren d
ĠRe p
has OwnProperty
ext ends
Ġwas n
Ġ ens
ĠRe al
---- --
ĠV AR
s izing
ĠH istory
short cut
Ġser ved
l ings
ĠNO TE
st roke
Default s
CK ET
V oid
UN K
ĠFI LE
For ward
> ';
Ġgraph s
Part s
Ġinv oked
ĠĠĠĠĠĠĠĠ čĊ
Fe ed
bad ge
Ġin j
b re
g ot
sub str
Ġla mbda
W M
Ġb ias
Ġequ ip
SY S
ĠImp ort
$ ;
Ġp ref
; ;
c ity
ĠSet tings
He ading
ĠInst itute
BU TE
Ġbe aut
Ġp i
ĠAn ge
c is
' (
ĠS M
ĠC ase
RE AM
Ġpre pare
ĠP ress
IG HT
Event Handler
an im
ĠT om
ol f
sub division
od d
Ġinvest ig
let es
T ARGET
Check er
F ire
NO SCRIPT
Ġallow ing
Instance s
Ġstrong ly
Ã ¥
Any Ref
xy gen
Ġcalcul ations
In dices
H ex
Ġexp ressed
Ġp p
Ġs qu
N ING
Ġcontrib utions
ith metic
Î »
M obile
ĠS chema
ĠTrans action
ĠP O
Ġll vm
10 2
Ġac celer
re store
Ġclient s
å Ľ
Ġ" --
=" //
ĠSt orage
or acle
Initial ized
r atch
WARN ING
O rient
ĠP olicy
ĠG iven
read crumb
Ġlo ader
Con struct
Ġb right
Ġa ck
ugh ter
v ements
Ġreg ime
S n
Ġh op
Ġme eting
[ ];
H ANDLE
Ġm ath
Ġocc up
ĠVar iable
s napshot
Ġcy c
p lain
exception s
on a
temp lates
Ġconver gence
command s
Ġw ish
Ġ( <
or ange
Ġin herited
UP DATE
Ġman ifest
v t
cur l
font s
RET URN
Ġsm art
ĠC F
Ġcap ital
Operation Exception
d type
map sto
ĠEn ter
p referred
velo pe
c g
Ġcar ry
ĠTemp late
ĠTrans itional
Draw able
un iform
Ġco ins
Comp lex
Ġoff ers
Ġm k
la ps
; ]
Con version
s at
utor ial
ari os
s To
Ġco verage
Ġco uple
p ur
ĠB rowser
ĠP ower
sk top
ĠPro duct
Ġinter ested
Ġcode s
re y
Ġin structions
s lf
Ġliter ature
d ays
ĠW ill
mer cial
cons ist
Ġfor med
ĠTest s
Ġex cit
) }}
Ġlocal ized
Ġol der
Ð¾ ÑĢ
prec ision
Ġtra ffic
bra ce
B g
=" {
Ġra ised
ĠS P
Ġbook s
er ed
Pri mitive
air s
ev t
bal ena
> $
cri min
Ġfind ing
w so
ĠD raw
Ġin form
)$ -
c atalog
ĠT ex
Ġpur poses
Ġs in
Ġlist eners
ĠA m
Ġgalax y
ens ors
Ġmin or
TO DO
P haser
Ph ase
ph oto
ĠM ulti
Be havior
g ray
(" ,
Int roduction
Vert ical
lic ity
ĠPart y
ĠSt ar
ĠDe finition
Ġh ole
ab y
ph en
Ġcomplex ity
ver bose
Red irect
L C
ub ic
ĠF act
ĠMem ory
st on
Elements By
Ġsecond ary
Americ an
Ġarch itecture
Ġde code
ume d
Ġd ump
ĠM ember
ab it
ĉĉĉĉĉ Ċ
Ġc ult
Ġs ig
Ġback end
Ġsol ve
pe er
ĠUn der
ĠB est
Ġcheck ing
f loor
li ament
Ġex tern
Ġk m
Ġc ategories
Ġcomp osition
Ġid s
ĉ ĠĠĠĠĠĠĠĠĠĠĠ
+ (
ĠB LA
en ario
Ġo scill
ĠValid ate
k ubernetes
c ategories
Ġse ctor
ma j
Ġachie ve
ĠGener ate
Ġexception s
Ġsu sp
Ġnu cle
Ġs en
Ġc e
G ROUP
P riv
ip pet
Ġreturn ing
la w
Ġobserv ation
Ġsepar ated
O C
Ġcor ner
ĠDem oc
ĠP erson
Module s
get Default
Pro b
Ġat tach
ä¸ Ń
: /
Ġ/ .
vi es
En code
rib ute
Ġinit i
F D
Rout ing
Ġb log
****** /
pro position
ID ENT
ie ces
âĶ Ģ
ĠComp any
sw ap
* >
Ġint ent
/ (
y an
ĠAre a
Ġmeas ures
Dispatch er
Un its
Ġ= ================================================================
Ġdist rict
? ?
Ġd ot
Ġsay ing
d ag
P a
ĠEn vironment
] >
Perm issions
n ight
Pre view
iz ard
Ġhand lers
To kens
b orn
ĠS yn
Å ¾
Ġre peat
ĠS am
** *
ĠC C
Ġpar sing
Ġfin ancial
Image s
ra c
rain ed
Ġph en
Ġen joy
Ġcon vention
ĠY ear
Ġlink ed
Ġreceiv ing
ĠS cript
Ġdescri bes
Ġfe edback
å® ļ
col ors
Ġ( #
Ġacc um
ĠL ook
ĠF loat
Ġloc ally
Ġp in
PO INT
ĠC WE
ĠFor ce
l r
y arn
Ġdirect or
i la
{ })
ĠRe present
ĠGe orge
ĠDes ign
Ġen counter
get Time
Ġdi ed
Ġe ight
ĠL IC
ĠT witter
Te am
ĉĉĉĉĉĉĉĉ ĉĉĉĉ
Ä į
Ġex clude
: -
G T
De code
High light
($ _
rid ay
Ġs che
Ġj ournal
std out
ist an
B ag
Initial ize
Ġs ock
ĠSer ies
Ġm ilitary
VI EW
ul ing
Ġre corded
ĠZ e
Ġb as
: @
× ª
Fin ally
ogene ous
ĠĠĠĠĠĠĠĠĠĠĠĠĠĠĠĠĠĠĠĠĠĠĠĠĠĠĠĠĠĠĠĠ ĠĠĠĠĠĠĠĠĠĠĠĠ
Ġsequence s
< >(
Ex cel
th ere
Ġw all
ĠF il
[ _
Ġpat ients
back s
Comp ute
ĠAss ociation
) `
> -
Ġcancel lationToken
Ġ} .
l ar
ĠA pi
=" ./
Suppress Warnings
me ter
ĠSpec ial
ĠEx pect
ap ers
ĠInst all
G iven
ĠS ave
vis ibility
iv ot
ĠD est
t m
Ġhyp ot
Ġide al
B alan
ĠA li
AS K
Ge o
ĠRe lease
ident s
P l
ĠP ut
ĠGL int
Ġd ense
ick y
hes is
Ñ Ī
Th rows
Ġdep loyment
Ġcould n
ĠRout e
comp ress
Ġw ants
Ġser ve
ĠR ange
ĠW ed
mon itor
ĠValue Error
A IL
Ġf aster
ĠBut ton
Ġbu y
x l
ĠB usiness
Ġz ip
æ ī
Ġstate ments
Ġbe haviour
Ġunderstand ing
amp aign
ĠR iver
the mes
w alk
Ġinter pol
und ay
ENT ER
Ġinitial ization
Ġdata sets
Dependency Injection
Ġdig ital
ĠO K
">< ![
Ġpo or
ĠG old
Ġas set
XML Schema
re ens
ott ed
ateg or
Ar r
ampion ship
ĠW ashington
de termin
open api
ĠAr gs
ĠCOL SPAN
Ġre v
}^ *
Ġn ice
ĠLay out
' +
on der
t ick
Ġc s
ar se
al ed
13 0
R B
Cre ation
sk y
par sed
lim ate
std lib
capt ure
Ġtr uth
s yntax
th rough
Ġmedi um
ĠSc ot
est ival
ib ration
pi ed
ver b
Ġc as
li e
ol s
Ġsu itable
lo m
A CTION
DE VICE
udi ence
exist ing
H y
Help ers
Ġp s
Ġf lush
Ġd type
Ġ} ));
U TE
Not ify
ĠC E
Quest ion
Ġ( ((
ist ed
ĠAl though
Json Property
Ġs leep
Ġconsider ing
ĠG ood
Ġposs ibly
mem Item
Ġfamil ies
ĠCh urch
ĠGener ic
D a
ĠB ecause
ĠIP v
interface s
ul y
Ġsymbol s
] ];
T V
x ref
go al
Ġquant ity
ĠH all
A E
control s
z ed
Ġfil ms
ĠP ay
job s
Ġcan onical
Ġhe at
CLI ENT
D en
Ġhand les
cur r
ik i
duc ation
Ġembed ded
Ġhe x
r at
re cv
Ġmo ther
Record s
Ġwon der
Ġar m
M ultip
Ġsc ient
inner HTML
x e
Ġserial ized
1 12
ar b
Ġg ain
DO WN
Ġmass ive
k w
plan e
Ġmo vement
Ġrender er
Ġtri p
}} $,
ther n
Par cel
ane ous
ct l
Ġp an
) >
Ġint ended
0 200
ĠLIC ENSE
Ñ İ
=" <?
un its
und red
D ash
F ront
R oom
ĠR oy
Page s
Ġweek s
DO CK
Ġt ail
q t
c am
Ġg lob
ĠS ing
s en
ri e
Ġh um
define Property
ĠE N
; -
Ġwork ers
Ġout come
list en
) '
Ġl ives
Ġregard ing
Input s
Ġrel ig
NAME SPACE
M F
The orem
Ġres on
> ";
Ġdifferent ial
Ġvar iant
ĠIm Gui
Ġb re
sp h
dep loy
ist ance
ro tt
car bon
ĠHamilton ian
are st
] -->
Ġevent ually
let s
ĠH ost
list s
ĠL ou
Ġb lob
A SC
stand ing
1 16
Ġp index
lav or
P ref
Ġamplit ude
car ousel
Ġs ymp
Ġus ual
Ġte ams
sm art
ĠWilli am
w ave
ĠN ative
Ġis set
Cap acity
Ġturn s
LE N
NUM BER
Ġex pert
Ġend s
copy right
mach ine
ĠRe set
Ġcallback s
at om
Res olve
] =
la h
Inv ocation
| _{
p d
DE V
Ġas ymptot
Ġb ulk
ĠCollection s
Aut om
ĠD ocker
ig rate
int ent
sh arp
fail ure
o on
ĠS ql
c ref
t iny
ÑĢ Ð°Ð
Ġdecl aration
Ġhand led
}} $.
Cl one
Ġa dapter
g lob
Ġ/** <
Ġresp onses
Ð ¹
Ġad vance
an imate
Ġ{ })
Ġse q
UM ENT
ĠB en
itu ency
u f
Ð¾ ÑĤ
g uid
Ġdepend ent
IN PUT
Tra its
Man ifest
for ge
| -
tensor flow
Sub mit
DE P
Mar shall
/ %
\ {\
Q UE
: }
Ġact or
ĠW rit
D ot
reg ular
ĠAs ync
Ġc at
Ġb orn
ound s
Is Null
Ġc elebr
la re
G r
U INT
ĠTe am
) }_{
AR K
Ġrecomm end
ĠIter ator
ãĤ Ĵ
ab solute
Act or
sh iv
Ġb lo
res olved
av atar
View s
conf irmed
Ġl umin
ĠNo thing
L ow
CC CC
C lip
Ġco lour
Man aged
let ter
* .
Ġrecomm ended
Ġdecla red
Ġsatisf ied
ent al
Ġrap id
y ou
Ph oto
ĠR andom
Ġw rapped
Ġ! !
Ad ded
ent y
Ġc riteria
comp iled
id ers
Ġag ree
FA CE
Ġr at
v oc
}$ )
Ġser ious
ĠB ad
ĠP lugin
r ich
ĠG overnment
al ty
Ġ" :
Ġplugin s
ay lor
Ġscal es
Ġaccur ate
get Logger
Dis able
A Y
Ġde precated
Co ins
Ġtr ust
section s
ĠM a
ph antom
ĠApp le
Ġme sh
199 4
ĠĠĠĠĠĠĠĠĠĠĠĠĠĠĠĠĠĠĠĠĠĠĠĠĠĠĠĠĠĠĠĠ ĠĠĠĠĠĠĠĠĠĠĠĠĠĠĠĠĠĠĠĠĠĠĠ
Ġs i
Ġsol ar
cu ssion
Ġcon j
PI O
Ġex ceed
P rep
x ff
Ġor ders
ĠA C
Ġapprox imately
APP LICATION
char set
Ġstr ateg
le af
S ch
ip age
(" [
P B
Instance Of
ĠRo ad
entic ated
ĠC lose
R S
Ġf d
Ġc andidates
Z end
Ġw arn
Component Model
r ust
19 70
Ġre gistration
leg end
) ',
Command s
N EXT
C riteria
ĠE rr
ĠOb servable
h alf
S ing
ĠDist rict
b ib
Ġim m
Ex peri
activ ate
Ġfil led
ĠGL enum
Emit ter
Ġ ener
Ġapp lying
Numer ic
Ġapp lies
ĠC D
ĠH y
Des cribe
ĠSp ace
Ġsaf ety
Ġg fx
C V
Ġbe am
vers al
ĠSm ith
ĠN um
-- ;
C lock
Ġtri m
i ro
Ġar c
b alance
Ġdec ided
Express ions
Ġbro ught
Fore ign
Ġfunction ality
ist ry
Comp ilation
eli hood
Ġtra ined
set Value
ĠW ait
Ġb all
S ol
HEAD ER
Ġ! (
Ġal one
ate ver
\ .
ç ½
Ġtemp orary
s ocial
b ower
FI L
Ġman ufact
tab End
ĠP OST
min ipage
: **
Ab solute
M atches
re ci
She ll
ä¸ Ģ
OP EN
}} )
ĠIn dian
bit coin
ĠT F
Ġse mi
FE ATURE
F IN
Ġmost ly
J ust
u um
ĠF rance
V P
Ï ħ
ĠU SA
In to
ĠC ancel
Ġimp l
Ġcontinu ed
th ree
Ġre call
viron ments
Ġ um
ab et
Ġany one
Ġarg v
ĠBO OL
ĠEn um
U i
L ang
" +
Ġsum mar
Ġinter act
ring tone
string ify
or ientation
Ġv ote
d id
Ġeas ier
ĠT IM
ĠQ t
Byte Array
Ġtest ed
g mail
Ġlist en
ĠDE BUG
$ ),
S mall
Ġis su
ode s
ĠLe vel
Ġst ock
Ġjoin ed
Ġtele vision
ĠD aily
__ _
Ġhy dro
} )$,
ir y
Ġadvant age
bra ins
1234 5
(' ../
lo s
Ġout line
Cla use
ĠA zure
Ġsign als
get Data
au x
b est
5 000
ĠS W
} `
Ġf ol
Ġalign ment
pe g
Ġpro ved
Ġtherm al
ĠAt omic
ĠH ol
Ġfund amental
fra structure
ool s
An sw
ĠIs ra
onal d
// !
[ <
ĠÃ ł
Ġl in
ĠDocument ation
ud get
} >
lic ated
Ġeffic iency
CON ST
Ġtechn ique
NE W
') ).
it ely
param ref
s aved
Ġs us
-------- ---
s lug
Typ ed
Ġactiv ities
F LOAT
p ause
al ink
ta ke
Ġent ropy
M X
ograph ic
ĠSh ort
w ind
Ġoper and
Ġident ical
ot ic
Ġs ampling
ĠChrist ian
Ġnew ly
Get ter
Ġcol lapse
enc il
ãģ Ļ
ash ion
L ive
ĠResp ond
Ġtre ated
Ġ* _
eng er
æĺ ¯
ĠHel p
r atio
Ġ} {
ĠI MP
ar ma
ĠE very
Ġe val
] ));
Ġde m
Time s
A ck
o ved
Ġke pt
PAR AMETER
}{ |
Ġtra ject
ent ities
Ġtrack s
par allel
Ġscatter ing
w ater
Ġc ri
pub lish
Ġlist ening
at ched
Un til
Ġse gments
n ested
prevent Default
Y P
od ay
t b
man y
Ġ$ ("#
ĠDe velopment
scri bed
Ġm asses
vis or
Ġn ullable
ĠD en
CON F
Ġf ocused
F it
ob server
Ø ³
Pro of
Clo sed
Ġch allenge
block quote
assert False
Ġse ven
å Į
ĠC up
ĠE ven
hib ernate
Ġpl ans
ĠEd itor
ĠStruct ure
Ġread s
NO WN
ĠTr igger
R pc
Ġsu ffix
Ġw ire
su ite
Ġnu clear
ĠM ust
ĠRuntime Exception
h al
fe e
Ġst ated
out line
Ġss l
M iddle
ell er
SET TING
re ports
ĠB ox
Cal cul
form er
Ġk illed
g ap
CA SE
At tachment
Ġsub group
analy tics
14 4
_ -
get ElementsBy
There fore
dim en
Ġequal ity
m r
Comp osite
Ġz oom
b one
Ġp referred
Ġ ì
La unch
Ġs an
umpt ions
Ġ ing
ge om
TE MPLATE
aaaa aaaa
V R
est ing
ĠB oth
J ohn
PA GE
jet brains
199 3
log ic
comp act
Ġ" ");
request s
f un
vi des
fess or
ĠĠĠĠĠĠĠĠĠĠĠĠĠĠĠĠĠĠĠĠĠĠĠĠĠĠĠĠĠĠĠĠ ĠĠĠĠĠĠĠĠĠĠĠĠĠ
Ġnot ed
Ġinst anti
ĠTh omas
ĠM us
with out
rot ate
Ġs lide
B T
Ġbg color
ant ics
Ġl t
Ġel li
Rel ated
trins ic
ĠHe ader
? âĢĿ
å º
Ġaff ected
Ġm om
CON NECT
or ig
) +\
Ġtr unc
Ġcol labor
Ġflu ct
opt im
Ġterm inal
Ap pearance
p ersistence
Ġ$ |\
Ġp al
PROP ERTY
F lush
ĠP lace
Ġpol l
w as
Ġin duced
ĠJ ew
it t
as ci
sc reens
ĠS witch
ĠG al
Ġsubst ant
Ġ ^{
Ġalloc ated
ilar ly
}( {\
Ġpre p
h dr
ĠEn try
ĠERR OR
Ġt body
R M
Ġor ientation
Work space
De ep
Fin der
Com bo
= </
Ġlo s
Py thon
Ġs ensor
Ġrob ust
scal ar
c id
Ġpl ant
Ġsu ite
Res ize
Ġevalu ated
GEN ER
p romise
Ġre pro
V S
ĠEar th
Pe ople
Loc ator
Ġst ories
ĠL at
C N
Newton soft
Ġachie ved
Ġoper ating
å į
STAT IC
------------ --
Ġsubsequ ent
Ġh int
Ġ\ &
ĠCor por
OD Y
St ates
Ġdist ingu
Ġg old
iz z
Cache d
b rowse
at trib
f ort
] ",
Link s
sup p
ion e
F rag
USE D
I llegal
%%%%%%%% %%%%%%%%
ĠC ast
Ġparse Int
CHAN GE
ĠOff ice
Ġschool s
sub title
Re po
ĠT ab
Sw ift
ĠDef ine
Ġcause s
em y
ĠL ock
Ġb ran
n r
get Current
l on
Ġscript s
u an
ty p
Ġpro portion
P reference
Ġsh ot
UM N
Ġph ysics
Ġcomp ilation
Hand lers
Å Ĥ
or ient
Ġc od
ser if
SE CON
Ġveh icle
t ol
access or
ch arge
ĠO pt
TH READ
IN LINE
Imp lementation
proto c
if ts
ĠF LA
Ġen cryption
LE S
Opt s
B tn
enc rypt
P atch
widget s
ATTR I
ut s
a que
Ġf ixture
Y es
sec ure
F ast
Ġopportun ity
Ġdecomp osition
Ġch oices
Ġm acro
la unch
D on
en ance
ĠS TD
ĠP RI
ĠRe view
ph an
ST REAM
Ġm apped
node Type
Ġent ities
at i
The y
pi res
Ġde b
ind ic
Over flow
Ġgener ating
ph ony
now led
ĠA D
ra s
Ġembed ding
Ġ" </
sol id
ĠC ong
Fin ished
19 80
&= &
fin ish
$ :
od ies
P al
Ġgra du
ĠR ight
ÐµÐ½ Ð¸
Ġpro files
ĠF i
Proto s
Throw able
LE FT
ĠF uture
ll umin
inter action
N aN
if ul
( <
Orient ation
ĠS top
Ġlanguage s
ATTRI BUTE
ĠS Y
St ar
Ġstore s
od b
ip edia
N U
Ġnot es
Ġo ps
ĠD WORD
Ġconfig urations
Ġappe ared
Ġdoc s
Key board
ĠSe cret
uff le
lock ed
resource GroupName
ad ian
class path
dist ribution
t an
ĠM B
Ġspec ification
Ġpre dicate
ĠV M
ĠL i
ĠĠĠĠĠĠĠĠĠĠĠĠĠĠ Ċ
Ġpredict ed
Ġh uge
Ġtheore tical
Ġ*/ ;
Ġro utes
trans fer
OP ER
Ġin deed
un ched
TO KEN
con struction
Ġwh om
no v
Ġro ugh
Ġb lank
Ġbro ken
Config ure
å °
Ġcontrol led
abric ator
o auth
w m
th ird
Ġphen omen
( %
Ġtre es
× Ķ
work s
SC A
Ġse qu
mar shal
Ñ Ħ
() "
TI C
P LA
Ġext ent
Su ffix
ĠL im
Ġdis crete
d ummy
) ?
Ġmed ical
Start ed
ĠP et
add on
it an
Ġf irm
Part icipant
Ġmaj ority
T l
rows ers
Ġal location
ĠV ir
ĠĠĠĠ ĉ
Ġman age
TIME OUT
BE GIN
Ġ artifact
Ġle s
igr ations
$ _{
A U
ĠV ideo
ST EM
F W
ĠS al
Ġset Up
A v
ĠFI X
ON LY
Ġro les
M Search
g ies
Ġri se
Ġplan et
O RE
er ry
ĠF ull
Rad io
ĠP osition
f v
AC CESS
ig er
Ġuncertaint y
199 2
Ġcost s
Ġsec ure
Ġ Ã©
Ġest imation
> ',
Linear Layout
Null Exception
as List
f riend
ĠIs land
Http Request
Ġ ].
Ex tended
Ġ{ !
or row
ĠT w
Ġthan k
ĠAfric a
z ier
azel cast
Ġra re
ref ox
size i
Ġrest riction
$ };
E mp
CP U
file Name
d ater
ree k
S ur
Ch at
ĠS ort
ĠLoc ation
lin ed
Ġdo cker
SER VICE
d on
depend ence
Util ities
vi ded
Ġtool tip
ad apt
Ġsh ock
Ġcur l
Ġw ife
F oot
Ġset t
ar er
ĠM enu
B D
Ġel im
At tach
Ġtri ed
is Valid
inherit Doc
ENABLE D
Ġpro te
Ġ ÑĤ
Spec ific
man aged
i q
Ġr ational
Ġp ain
ĠH ill
Ġwindow s
TR ACT
æĸ ĩ
t ls
atern ion
ĠL IM
v p
ĠC luster
æ į
ĠF ont
il ly
contrib uted
Ġinit With
0000 0
k n
as ion
get C
ĠF ire
Direct ive
ph ysical
Block Index
Ġinterface s
pt o
call s
ĠIn ternet
Ġg overn
IT ER
æ İ
ĠW in
Ġcomp uting
Wh ite
R G
"> ,</
Source s
ĠL E
pol l
p ick
ĠE VENT
load s
; =
oper ations
Ġp olicies
Ġprincip al
ap h
if ecycle
ID s
atur day
ER Y
Ġrange s
T ON
Inter op
B lack
ĠCh inese
nav Bar
Doc s
do es
con g
ces ses
ĠM S
Ï Ĥ
Ġimpro ved
S prite
Ġback up
Ġdefault Value
ĠSV G
Ġwhere as
) -\
Ġem b
Ġman ip
Gest ure
read only
Ġhappen ed
d atab
ĠN E
Ġrepresent ations
B in
g ather
Ġf reedom
U ML
Ġc le
Ġca ref
Ġdiag onal
Ġvari ation
Ġkey word
ĠH E
Ġat omic
ĠLIM IT
b ash
Ġ ));
Ù Ĭ
Ġapp s
g ro
Ġs l
d v
Ġro ck
ss ible
Max imum
OUT PUT
Ġsp irit
B AD
ĠBo ard
play back
O IN
ĠS ociety
M ost
14 0
Ġpredi ctions
P lot
10 4
amp ler
Ġth reat
Ġp b
Ġp c
Ġp t
Ġcon cat
Image View
Ġperform ing
Ġto t
")) );
Ġf loor
get Context
att ed
ĠA udio
Ġpower ful
me sh
Ġbelong s
Ġbase line
æ ł
ĠDe v
dash board
ĠU INT
Ġd ip
ff ee
ADD R
i ment
ĠD uring
cent ury
ĠS ER
host name
) --
ĠEn sure
jav ase
24 0
Imp lemented
Res olution
ĠSt ack
dic ates
ĠCal led
re view
"> Â
Arch ive
ĠOn ce
Ġm al
}\ ,\
llumin ate
Dis covery
V ote
Ġs lo
q a
Pro pag
col s
Iss ue
. $$
Ġ) {
) ";
dic ation
ĠExt ension
Mut ex
ĠFurther more
Get Type
auth entication
F ac
MLE lement
ĠG reat
Ġtemp lates
Ġreplace ment
ĠR ule
ĠMan ager
url s
ĠRe st
é ĩ
REA CH
Ġtr ansp
ond ay
b an
C LO
Cre ator
Ġfour th
-------- -
ĠLink ed
Example s
As sessment
Ġrender ing
cred entials
H it
lear ning
Ġp seudo
Ġbutton s
ste in
ĠR ights
w b
=' #
ĠVal ues
ĠW ord
Ġprocess or
ac ion
work space
Ġide as
S PI
Ġsh oot
(( (
Ġk ill
ĠL and
crypt o
ĠC a
LA B
enc ing
f m
ov y
Ġatt ract
Tool bar
en coded
Ġ" {
Ġtw ice
Ġm anner
ers ions
ĠT ur
CONT ENT
ĠA ward
ĠSD K
Sh ard
ä» ¶
h our
S ys
j q
10 5
sup ports
P TED
se par
un ion
Ġth ous
Perm alink
print StackTrace
az ine
Ġat om
ĠCent ral
Ġin corpor
Ġinter mediate
Ġhard ware
Ġp ng
FA I
ĠC OM
RO P
Ġecon omic
Im g
maj or
Ġne ural
Ġ< ![
Ġe poch
jac ent
ig gers
Ġinit ially
"> "
Ġden oted
NO TE
Ġup grade
then Return
A WS
ĠT ensor
end o
Ch oice
u er
ĠI dent
U K
ĠĠĠĠĠĠĠĠĠĠĠĠĠĠĠĠĠĠĠĠĠĠĠĠĠĠĠĠĠĠĠĠ ĠĠĠĠĠĠĠĠĠĠĠĠĠĠ
Ġto ward
ç ±
ar ith
Ġgra vit
}{ (
m g
ĠÐ ·
S uch
Ġcol l
Ġdirect ive
H I
Ġ- &
Ġgr and
change s
Ġt y
Ġen cour
Ġsong s
Ä ģ
ĠGerman y
B alance
Ġfor ced
Ġrun ner
ĠDi agnostic
Ġlog ical
g iven
log ue
Ġtrack ing
Ġb io
OL DER
en ant
div ider
11 11
Ġdec imal
Fatal f
Ġexp lor
l c
Ġcount s
un used
Ġdesp ite
Ġs un
ĠÐ ±
Ġcollect ed
Ġs ales
Ġcred it
Ġapp arent
/ ******/
y er
Th umb
map per
/ $
F ee
Ġact s
Ġexplain ed
Ġcar ried
Ġh undred
ĠD oc
sh ake
ĠA tt
ĠP eter
Ġattack s
navBar Cell
Re cent
Pro ducer
DOCK ED
am ous
Ġme tal
port folio
Supp lier
ĠI ts
ĠComp ute
Ġf elt
! ");
get User
Ġobject ive
B ODY
ĠM ary
Ġf loating
' "
Ġm m
(' \
' </
ĠScot land
oriz on
Ġinte gers
re mo
wall paper
und les
Ġre mark
Ġfilter ed
ĠTime s
ĠO k
Ġs parse
ĠCon dition
Ġr ich
O ps
Ġp ag
Ġle mma
Process ing
flu x
Ġsatisf ying
C our
ĠS il
Ġ` <
Ġis ol
me l
SE SSION
nap shots
3 000
as ide
r w
ut ter
ĠM ad
ORM AL
Ġhel ps
Ġst atistical
Re view
Ġsum mer
f lash
ul s
33 3
Ġ ill
m aml
ac l
}} </
pret ty
Ġar range
12 4
........ ........
it iz
Attr s
R ank
ad or
ĠS ingle
Rot ation
Ġre lax
Ð¾Ð ±
id o
Ġinter pre
it ative
ACCE PTED
R aises
ĠS equ
Ġharmon y
so und
v able
ĠC ONT
and a
Ġe yes
ĠM ode
Ġd ust
Ġg un
11 4
tra ining
Ġcur r
99 9
ä ¿
ism atch
query Selector
ellig ence
ĠAr g
tri angle
ĠType Error
Ġprofession al
' }),
ĠL ie
Ġu uid
oci ated
Ġsuggest ed
ĠAdd s
b ian
Ġderiv ative
Ġdirect ed
In dent
tr ip
Byte String
d yn
log s
al con
D TO
un def
ans wer
ifi able
tikz picture
ĠC ert
ĠL u
j b
Ġlook ed
[ [
di ction
Cal lable
Ġpre par
Ġre jected
co res
text color
St amp
ĠA DC
Ġst ability
Ġle af
Ġgrow ing
ne g
\ !
. (
ĠD MA
Ġm ale
ĠM ove
Ġme ant
ĠI r
Ġmor ning
Ġclean up
ĠC OP
Ġag ents
in erg
Ġc ivil
ĠSte p
bar s
poly mer
x f
ĠC artesian
Ð¾Ð ¼
ĠJap an
ĠLin ux
get Parent
com bin
Bu ilt
F urther
ap on
k l
t frac
ĠF riday
is a
cho ice
) })
F X
Ter min
document ation
ĠP erm
ĠCom mission
Ġla pack
Ġg uest
Ġdebug ging
Ġhe ard
EX CE
Ġcomp ression
Ġincre ment
Ġe th
) ];
$ {\
Ġsp ot
Ġir re
Ġin tern
war ded
Ġper mit
ĠR ect
per form
n an
el n
Non Null
record s
^* $
ic ations
Ġsent ence
h p
am in
ĠB ank
ç± »
ĠM ount
DEF IN
ĠCon nect
Number Of
Ġmot iv
desc r
ĠB rown
tr on
ĠC PU
Ġcla ims
qu id
UL AR
Ġgrant ed
screens aver
ĠS DL
Cur ve
ĠSet up
h ot
ĠR ock
"> #
B G
A ws
co verage
ĠE m
ä¸ ª
m ne
Ġhand s
prob lem
=" '
Ġe vol
s ap
= .
ĠS ol
fin es
F i
comp atible
havi ors
back up
n x
×Ļ ×
:: _
Git Hub
S lider
Serial ize
Ã ¢
Ĺ ãģ
ok es
read able
Ġcharacter istic
ĠP latform
ask et
Un expected
ĠD u
ĠCont roller
CA CHE
P references
co ins
\ )
N AL
Ġder ive
Ġtri al
ĠCall back
ĠF a
ĠJ o
de leted
pt s
ĠJ un
d w
OFF SET
Ġb attle
Get Value
Ġre cover
ĠCom mun
S lide
has Next
] <
ĠB ill
g ulp
res olution
FAI LED
ak a
be at
ĠR oman
H D
Th rough
Ġmer ged
Ġindividual s
Ġ" (
d ensity
ĠM ex
lor ida
Ġg oog
W alk
First Name
ĠS uch
Ġli braries
ent a
ĠS em
val s
W ITH
inerg i
æ ³
... ,
Browser Detector
vet ica
ĠTex as
L arge
ic ago
ĠCl ub
dif ferent
Ġop in
sp ot
ĠC P
c nt
Ġassoci ation
Ġ@ @
ĠP en
Ent ities
RE C
Code Attribute
Ġ ))
Ġ' [
Ġf ra
Ġre lying
ADD RESS
ens ities
Ġclo sure
T ri
iv eness
it ors
Code s
lu c
En crypt
Ġin coming
d frac
Ġpro ducer
0 100
f mf
Ġph ys
LOC AL
m icro
Ġsu ffer
C od
ĠSet ting
mk dir
æľ ī
Ġserver s
-> {
ot or
ĠS ample
Ġvari ance
Ġst roke
Ġa ws
ĠC L
mut ation
Ġset Timeout
sql ite
Text Field
Ġequ ilibrium
I CE
Ã ½
Ġinter section
ĠS unday
direct ive
Balan cer
ĠS ite
Ġad vert
() }
CO PY
ĠInst ead
y c
Ġstop ped
on omy
ĠG T
Ġ lab
AT IVE
)) $
ĠM obile
TR ACE
Ġ* */
qual ity
ĠIns ert
è ¦
,\ ,\
Id le
x FF
CL UD
ĠExec ute
ro uting
(" ")]
. &
Ġmain ly
b az
le ave
so ap
h ol
Ġ' )
ĠE C
)) {
CLUD ING
Ġal ter
Render ing
Require ment
l ating
ĠConst ant
Ġm ur
Ġn ation
he alth
Ġapp oint
Ġcomp atibility
her ent
ch ars
Writ able
be low
Callback s
Ġle aves
Ġgener ates
199 1
å ĩ
ĠV i
Î ¼
List s
Ġal le
ĠM eta
A W
> ",
u ations
Ġresource GroupName
less sim
og onal
serv ative
Ġimport ance
DIS ABLE
ĠA ge
ĠS ocial
ĠJ ournal
[ @
CONT RO
Ġbr and
Ġst rip
SI L
GL enum
m q
ex e
Ġnumer ic
Ġindic ated
li min
con c
Ch rome
; (
l ife
Ġcom m
Ġlow est
Ġper haps
re try
ĠHash Set
Comp arator
State Exception
vi a
Log ical
Ġle aving
Te ch
Ġexec utor
n P
Ð Ł
Ġc v
Map s
Ġtrans mission
Ġconf idence
lect ric
ĠC atalog
ub b
ĠI T
Ġpart ners
fa ir
Ġorder ing
ri ctions
empty set
Ġf old
Ġart ist
Ġitem Members
ĠSh ared
ĠS U
rupted Exception
gu ard
Ġmo ves
Ġp id
Ġf ans
Ġf light
Ð°Ð »
Ġro bot
v art
ur t
p ic
;\ ;\
Ġtr ivial
ar ity
ĠD NS
hand lers
In d
Ġcustom ers
asci i
Ġaut orest
BU F
Ġre ferred
Ġd y
Ġqu arter
Transform er
FIL TER
Ġ* **
P ad
Ġcon d
P ull
am ond
Ġes cap
ĠE ducation
P at
e ction
Ġb os
Ġrad ial
O O
Ġe ye
is c
C U
la cing
Ġm ission
Ġg uess
åı ĸ
th ick
}} .
11 5
ĠAl loc
c art
ĠU TC
un stable
Conn ected
Ġcomp iled
Ġw arnings
P res
ĠP FNGL
Ġport ion
Ġchem ical
LOB AL
lic as
sh ader
Ġstart up
Ġside s
Ġlog s
unt u
16 9
ĠH AVE
Re cogn
Ġb lood
ad just
ap ed
Ġpro totype
ĠL ake
Ġev t
Ġbene fit
Qu ota
urs day
Col ors
Ġnormal ize
normal ize
Ġb ridge
Ġmin ute
ly mp
part icle
at re
ter ms
ĠC ard
Ġhe ar
inet ic
Ġlearn ed
cal c
Ar row
Ġyour self
ĠO ld
Ġman ually
est er
"> '
C ent
al one
ĠÐ¿ ÑĢ
Ġpro tection
i ota
ĉĉĉ ĠĠĠ
ymme try
th reshold
fa de
C Sharp
he ap
Ġf oc
00 5
LE AN
found ation
Ġorigin ally
lo ose
Ġprincip le
Ã º
ĠB ody
ĠV ert
ĠAn n
Ġarch ive
loy ee
ĠH en
G radient
Ġp ad
Word s
Ġli es
Ġconv ex
Ġcheck sum
}) }
Ġver bose
Content Type
Ġwrit es
ĠW al
ĠF low
ĠValid ation
000 1
B M
ĠRich ard
ss h
bo th
="../../../../../../ ../../
tw ig
Ġb ench
Ġs ch
re ject
ĠA cade
P in
IF Y
\ ",
exp anded
}[ \
tod o
ĠT ypes
ĠPro tocol
ĠRE AD
Mix in
gra vity
ĠB inary
Ġre cur
L ab
Ġs ink
Ġ$ ,
S ound
ĠB ound
B inder
C ross
x c
" ):
re dis
EMP TY
At tempt
Ġposs ibility
g h
Ġdo or
G A
current Time
Ġd ashed
inherit doc
ĠW allet
ang les
ï ¿
un ce
11 7
Ġs peech
Depend encies
ov ing
Imp licit
à ¹
us hed
Ġde ferred
An other
ial ect
ĠH ot
N R
assert Raises
SL ONG
Answ er
pe ople
Ġass uming
Ġtemp er
Ġradi ation
ws dl
Ġappear ance
M UL
Ġvol atile
Z ip
ues day
ost ream
Ġo c
Ġco inc
ĠAfric an
Ġsuggest s
Ġplay s
ĠC lo
ĠF rank
Ġb illion
). </
ni h
re h
re main
Ġar row
Ġconf irmed
um s
Ġint ensity
product s
ul se
Ġcon ference
de tect
de velop
Ġab und
ron ic
getElementsBy TagName
Ġopp osite
ide os
Ġt end
ĠCheck s
V ars
De cla
Ġass umptions
Ġextract ed
ĠPro file
ant a
ĠMin ister
Comp ile
re ceive
User Agent
ĠW ell
\ }$.
ch ant
Ġinstall ation
d up
de ps
0 10
ĠCOP Y
ir ls
Ġpercent age
er al
user Id
Ġman ual
Ġwhen ever
Ġ\ ]
re ach
Ġf re
ĠSp an
") ).
b etween
Ġp ause
+ -
Ġa head
ĠOr gan
Ġcirc uit
Cred ential
avel ength
. ')
ct ors
^ (
REQ UI
hy per
k top
r ub
Last Name
Ġsco res
Ġb id
View ById
Ġm ach
Ar n
p ane
Ġut ility
Ġmax imal
Âł Âł
ag ers
ĠCon f
OL D
un icode
rop ic
Ġsw iper
Ġ/*! <
Ġst ress
S pring
ĠQ uest
sh ire
Ġcal c
Ġsim ult
ĠUt ils
Ġb udget
Ġs pher
Ġcol lision
'] [
exp ress
un ing
Ġco pied
Ġleg acy
b n
Ġred shift
Ġsh op
RE SOURCE
limit er
Ġtab index
ĠÂ £
tele phony
Ġname ly
TI P
Ġpat ient
or se
f ixture
Ignore Case
Ġsee k
Ob servable
P TR
g res
be led
vis ual
ne ed
Ġdam age
he ta
Ġdef e
Ġcal endar
Ġattemp ts
set Name
Ġad vanced
Ġb al
ve e
og en
Ġsur round
VAR I
ĠA ST
Ġnecess arily
Ġ( {
node Name
d ns
Ins pector
E ar
M igration
as sed
ĠTH IS
Ġ] );
ĠF ore
Tool tip
T i
j as
ĠU UID
Ut ility
aut om
char At
Ã ¸
to k
Ġsql ite
q q
ce il
RE ST
INTER NAL
ç Ľ
allen ges
Ġcorre ction
B IN
/ ',
tr ivial
ĠJ ose
ĠY ES
Ġf printf
Ġas sets
Sort ed
ÐµÐ ´
V A
Ġmod ification
Ġrect angle
Ġ@ {
Pro vince
cc c
b readcrumb
Not es
Reg ular
Ġv illage
({ },
Ġen coder
reate st
Ġp lain
) }_
}$ }
erc ise
ct ype
Ġtopo logy
mal ink
Ġencrypt ed
ä¸ į
Ġflu id
Ġem er
Ġconst expr
Ch ars
child node
Ġdiv ision
C Y
C s
CharacterOffset End
CharacterOffset Begin
min imum
;& #
Ġfem ale
Ġun set
1 32
b id
Ġbu ffers
C op
ĠâĢ ¦
E mbed
ï¿ ½
/ ************************************************************************
ĠT itle
ĠP DF
ĠFe ature
rom ium
âĢĿ .
ĠT own
end l
tp l
External Project
B IND
start ed
Bu ffers
N P
Ġcom mercial
ĠTech nology
Rect angle
int o
Icon Success
ĠInitial izes
Ġt ip
ĠA P
as er
ĠReg Exp
ĠL ight
Ġleg end
Exp and
ĠH RESULT
TO P
let ing
Ġtechn ical
NE SS
ul ating
] {\
ĠCorpor ation
Click Listener
c are
d ings
ĠFran cis
al ing
LI MIT
ĠB i
ĠU til
ĠP attern
Ġjav adoc
ĠArray s
A cc
GL uint
Ġb la
ap k
CHAN NEL
,\ \
il ine
Ġfile Name
ĠAppend ix
Ã§ Ã£o
Ġdevelop ers
] $.
co v
C AP
instance s
su ffix
Ġla zy
ST D
Re peat
P lus
Ġprogram ming
AD C
Ġf resh
Ġmaint ain
ĠTH REE
ific ates
ĠCons ider
Cons ider
"> .</
sw ift
Ġnon linear
la int
ĠV ol
Ġdraw n
e in
in cluding
as ource
} ")
Ġk new
Ġgra vity
Ġop am
Ġfoot er
Ġra il
IT S
entic ate
Ġ$ ('.
10 7
s il
Ġreference d
' ><
it el
ru it
S DL
Ġp refer
text sf
spec ified
For Key
ce an
AL LOW
alle st
ig gs
Ġsufficient ly
Ġremo ving
f ortun
ĠM any
Ġspecific ally
s an
ĠT ri
Ġn arrow
Ġo il
> *
Ã ł
is EqualTo
omorph ic
Ġsupp ly
ug ment
Ġinvest igate
ĠR ET
Ġp sy
ir q
Request ed
form al
ĠM ur
Ġres ol
W rong
il bert
Ġ" *
Ġb ill
Ġtrigger ed
V D
ĠDefault s
( ',
Table Name
Ġb rowsers
ĠPar liament
ĠU TF
ĠC LI
Ġkey board
================ ========
AUT O
Ġad res
tr ansparent
Ġph oton
FUN C
cal cul
Analy zer
al tern
ion ic
30 4
IconSuccess Encoded
Ġr pc
/ :
Ġaccount s
Project s
Ġg ather
nes day
Ġre action
Ġpost s
)) :
% .
ĠCar ol
Serial ized
Dem o
R ST
sing leton
ro les
Ġdefin ing
Ġt ar
ĠB ob
B ot
}} _{\
Ġver ification
cord ion
TR A
Ġad mit
ĠB UT
d ual
Ġl hs
un ix
L i
Ġsk y
Ġre sc
ĠM I
Initial izer
Ġtrans itions
n ic
G ood
| }
n m
WIN DO
æ ŀ
Button s
S OL
Ġun able
Ġen ded
Ġo w
Com ments
d al
"> )</
K nown
ĠS eq
ĠK ore
Ġschedule d
FAIL URE
li ces
Or g
re load
In herited
initial ized
Compiler Services
MO VE
ĠFact ory
if er
Ġcondition al
Hash Code
Dis pose
ĠIn d
Ġneighbor hood
Ġput s
ĠF unc
] $,
Ġor th
w ers
u pt
h ill
CO RE
h w
ĠC ell
G G
ĠAn alysis
ĠL ag
Ġdif fer
Ġfall back
v ature
al ian
) ");
Ġs printf
Print f
sp lice
start s
2 20
Ġthan ks
Ġdise ase
Ġ"\ "
EN SION
UT C
Ġa sc
multi row
ĠI ss
iv o
Al so
Min imum
Ġs old
Match ers
N ORMAL
ĠI Enumerable
CP P
Ġdel ivery
cap s
Ġener gies
CLU DE
C ircle
ĠPo inter
Ġp or
Ġassert False
integr ation
d riv
Ġh ooks
Pi pe
n am
Sh utdown
do or
ĠArm y
ĠHel per
Ġ) :
ĠDirect or
ke leton
g b
Ġsh utdown
comp arison
ĠÐ ¼
ons or
sk in
ĠBit coin
s ink
ĠE mber
ex c
Ġi i
ig ible
Ġ ur
j dbc
at tachment
="../ ..
Ð ±
Ġfind s
Ġf lash
pres erve
itor ies
? .
space s
= _
Ġdescri bing
Ne gative
Ġsens itive
Value Type
f ollow
Ġres ize
match er
co pes
ĠM ass
ma int
Ġelse if
Å Ł
Ġa f
ĠA V
Thread s
aw ait
ĠM iss
in crement
ard en
re vision
t om
ĠS PI
ride s
R X
and atory
"> {
:: ~
åľ ¨
x t
Ġcra sh
ãĥ ³
Ġp ieces
U uid
Ġcontin ues
Ġpri mitive
Object ive
Dist ribution
serial ized
Ġ[] *
border ed
Ġhold ing
2 11
ĠĠĠĠĠĠĠĠĠĠĠĠĠĠĠĠĠĠĠĠĠĠĠĠĠĠĠĠĠĠĠĠ ĠĠĠĠĠĠĠĠĠĠĠĠĠĠĠĠ
> #
h h
E very
u j
fig ures
Ġj et
Ġstr len
ĠEx pr
Opt im
) }.
h ub
Organ ization
gre y
ĠAir port
10 9
ĠThe ir
irc raft
cop ic
al ways
Ġan ce
ãĢĤ </
æ Ķ
å Ĩ
Ġn om
Ke ep
ĠF R
= }
ign ite
Ġinsert ed
math op
sp her
O VER
C ATION
Mar shal
Ġdro pped
add itional
| }{
Clo sure
Ġpot entially
an c
ĠRuss ian
Ġl d
List View
Ð½ Ñĭ
ĠThrow able
Ap is
ul i
Ġin set
clo sure
Ġm iss
R ound
Con v
Ġinter view
SI G
Ġ/// <
Ġexplo re
âĶĢ âĶĢ
F B
ç½ ®
Ġqu asi
orph ic
H EL
tt ify
g ateway
Ag gregate
Ġm illiseconds
ĠS aturday
Ġd ummy
ĠC amp
Ġpro c
EN S
oo ser
Le ss
p rom
Ġch urch
Ðº Ð°
M gr
Ġda ughter
Ġman ifold
Ġ' --
Ġb ands
è ¨
ĠL os
, ,
Sample s
Ġ'/ '
á »
man ual
Ġdimension al
writ eln
str ategy
Ġw it
up les
ab ort
di gest
19 89
Ġpro duces
sh utdown
- %
16 8
go als
Ġelim in
ĠSt ud
fe edback
H ar
n el
Ġcent re
re peated
PO SE
ĠH uman
set Property
à¤ ¾
Ġ[ -
EQ UAL
inn ed
% );
un icip
Ġdire ctions
ind u
Ġin come
ĠR T
L emma
COM PI
Ġdriv ing
b iz
big l
Ġpro pose
Ġm irror
Out Of
27 0
ĠB ur
cret ion
Ġref lection
ĠC red
Ġro ots
View port
Comp atible
Ġmag net
ĠM aster
Ġcomput ational
Ġf ired
12 2
Connection s
Non null
Ġd aily
ĠM useum
M r
ĠLe ft
loc ations
Tag ged
** :
E B
Ġa ux
ĠAb out
Ġclo sing
long rightarrow
COMM AND
ch er
ĠD ig
Ġsw ap
Ġf if
A mazon
lo red
Ø ¨
ot os
ĠSyntax Kind
f requency
requ ires
Ġ` --
P an
ĠCommit tee
her its
in formation
Qu ick
SH OT
Interop Services
Ġiter ations
S ensor
ĠI II
Ġcollection s
! ]
Ġen ables
ĠAustral ian
DE SC
ĠGL uint
Ġpa id
80 80
Ġf erm
P icture
Ġmatch er
Ġextreme ly
on line
10 3
g un
ĠJap anese
l m
D AT
Add itional
Or Empty
Ġh ack
Cur rency
to Array
ĠRoy al
ĠIn deed
end ant
Ġla unched
Ph abricator
Ġg a
Ġrequire ment
mock ito
ĠC ross
is ot
H ard
re ater
dim s
ynam ics
S ibling
ĠT aylor
é ¡
re land
ĠCont act
Ñ ī
Ġim mediate
Ð» Ð¸
ho le
ĠY oung
ane ously
spec s
Ġu id
Ġapprox imate
Ġcapt ured
ab ling
De leted
Ġshe et
sched uler
M Q
serial izer
ĠWe ek
sp end
l st
add All
) ](
Ġown ed
Ġscen arios
Ġeffort s
ĠM D
At Index
linked ExternalProject
D uring
Off ice
Ġd uplicate
ĠM achine
Ġneut r
ĠS TR
ig id
alle y
Q Name
10 6
On Search
ĠF re
Sh ip
er vation
Ġwh atever
Un defined
Ġcontain ers
tra its
az z
ar ations
ĠS pring
ul us
Ġd anger
O Auth
>: ]<
Ġun lock
> =
en kins
Object Meta
Heading Color
Ġ[ `
Ġb ot
Pr incipal
output s
equ ations
Ġp et
Ġspecify ing
Ġth umb
Op code
ĠSE LECT
o i
pro j
ĠE mpty
datab ind
M acro
}_{ -
h it
Ġunder st
ĠGL sizei
}) (
Ġform atted
Ġins pect
Ġequal To
W IDTH
US B
ĠA DD
Ġ* =
ĠP rep
Ð ³
di e
comp letion
er os
Ġactiv ation
Ġdr ug
i ate
linkedExternalProject Path
Ġdis covered
cla im
Ro les
ĠVis ual
Sub st
G reen
y our
Op acity
Ġtell s
g allery
ĠSk ip
æį ®
Ġinst ant
ĠD er
Bound ing
\ ;
Ġchar ged
Diagnost ic
x hr
S peaker
ĠL ive
I FT
Y LE
ore s
Ġpers pective
å Ģ
New s
h c
P D
Ġar ithmetic
ous ing
thumb nail
Comp any
get s
Ġpas ses
Ġserial ize
") ),
W H
D ocker
f link
. #
ï¼ ļ
ath an
out ube
Ġdiv ided
Ġbreak ing
L azy
Ġst reet
Ġg one
% )
H er
Ġc d
ĠMart in
Ġannot ations
dic ated
Ġt a
assert That
ver ts
++ ]
is son
Ġdetermin es
j sp
ĠF ake
en coder
Ġat trib
th an
Ġend l
Trans actions
Ġx hr
serial ization
As String
AL LOC
luc ene
ĠD rop
Ap pro
' ></
)) \
Ġform ats
g ol
ro utes
auth ors
S dk
Ġprep ared
vart heta
ĠM aterial
keyword s
ĠD rag
ve locity
urch ase
Ġf an
Ġsuc ceed
ri age
LI ED
Up dates
Ä ħ
L F
Ġneut ron
S el
CON TEXT
ĠKing dom
ĠTr ansport
s ip
Def ine
Ġ quote
e h
get Path
h ooks
Ġ" __
Ġgeneral ized
ok ing
Ġp owers
Ġinc ident
ĠĠĠĠĠĠĠĠĠĠĠĠĠĠĠĠ ĠĠĠĠĠĠĠĠĊ
Pub Key
Ġch rome
Text Box
Ġat mo
Ġr id
ĠRes erved
ly n
ĠTrans form
Ġess ential
hl js
column width
Ġbegin s
* \
~~~~~~~~ ~~~~~~~~
3 20
rest rict
å ½
Ã ĳ
Ġreg ression
J NI
ge l
Re store
ĠW ay
Ġhe ap
E val
CK S
Ġdestroy ed
Ac cording
Ġpl anning
de sktop
C XX
Ġprecise ly
Ġs cheduler
Ġc lin
fil led
Ġdis crimin
ĠF lorida
Ġeffect ively
ame l
Ġentire ly
ĠS afari
receiv er
; "><
E scape
ex act
ĠÂ »
ĠDe ep
ĠCom munity
SN AP
F lat
big r
ME DI
Ġhapp y
Lin ux
ĠSt atic
be havior
Ad just
}) =
aw a
St roke
] "
ra sh
1 19
ãĤ ĭ
ĠRE ST
Ġcirc um
Ġdevi ation
Ġgo als
Ġaccess ible
Ġdynam ical
ĠM il
ĠWest ern
bm atrix
Spec ification
ĠVir gin
Ġ\ (\
ĠDes cribe
Ġs ports
Ġquant ities
ĠV ER
ĠWAR NING
ĠA no
Ġretrie ved
V ersions
Ġr v
Ġnumer us
Ġm it
GR AM
PRE SS
Ġtopo logical
Ġess entially
evalu ate
, {\
> ");
Ġwork space
Ġt al
Ġon Click
Open Tl
IT EM
ĠF ast
we ather
cap acity
port let
pro logue
To Array
ĠApp ly
xx xx
r ick
source forge
rot ation
Ġr an
D to
Ã ±
Ġlock ed
ME TA
ro unded
Ġw a
sp y
Ġemp has
Ġj e
de lim
receiv ed
Ġpart ies
script style
ĠCong ress
U X
S B
ĠP layer
Call ing
We ak
Fa ult
ĠB SD
Pos itive
he ast
Ġkeep ing
Ġdet ector
UNK NOWN
N s
\ -
Ġ ----------------
ĠO h
w ire
Ġover view
n f
Ġintegr ated
Ġfund s
Ġd w
ĠM onday
Sm art
IN X
Ġth er
[ ^
un set
Ġwe ather
+ '
} ',
ãĤ ¹
T M
Hash Set
Trans late
Ġv en
res olver
Propag ation
Ġph p
S ens
Te le
. {
Ġvis ited
greg ator
(" ./
L R
s ensor
ĠL ove
Ġelectron ic
ĠExample s
G P
Ġf arm
r hs
ĠW atch
yst al
Ġlog ged
dep loyment
ĠRecord s
s ymp
Part icle
inger print
C apt
ĠAn aly
ĠDo es
cess ary
lo ut
ĠRad io
ĠLou is
w ant
Ġ{ :
device s
SCRIPT ION
') [
Ġlumin osity
ĠPar ser
Ġli e
ĠKe ep
Ġm u
Ġde coder
Descript ors
Ġcompet ition
Ġpresent ation
L M
Or d
- "
Value Pair
Inf os
Ġmom ents
Ġcos mo
ic ular
se g
ER O
Ġf ederal
status Code
> ]
z illa
exec utor
Ġqual ified
l v
% ">
SP H
Mod ify
Ġdrop down
Ġex cell
æ Į
ĠG C
View er
S uggest
Ġ ray
Ġreal ity
> {{
K ER
Ġs ans
Ù ģ
le et
UB LE
ĠV an
r idden
Ġme dian
ul ative
ĠDep end
c riteria
Ġoffer ed
la zy
sub sec
Ġp le
sort ed
Ġlet ters
Ġpe ers
User Id
built in
m atic
i em
agnost ics
ĠS at
æĹ ¶
REF ER
Ä ĩ
Ġe u
per malink
ship s
T rim
Ass ociation
Ġ} }</
Pro jection
Ġh a
Ġreason able
ĠUs age
Code Dom
Ġtensor flow
ig an
Ġdecre ase
ĠP arent
ĠC lean
LE ASE
Un supported
see k
Ġ* (
ĠN ormal
con sumer
ĠEvent s
ĠAno ther
it utions
Ġref id
g pu
a verage
Ġiter ate
ourn ey
Ġregard less
Ð°Ð º
H ence
ĠS mall
ĠDA MAGE
' })
Me an
in er
Ġtemper atures
alloc ate
Ġco okies
ĠH a
la c
Ġn umpy
Ð¾Ð º
ĠChar les
os ing
ĠDis able
H ASH
Ġre interpret
Ġa u
Package s
contrib s
root Scope
E OF
Ġ{ ?
DE CL
Ġs phere
list eners
Ġadopt ed
Y ES
Ġun iqu
At om
k u
D ays
SY STEM
ust rial
collection s
Ġarg c
ĠBe fore
2 64
Ġex posed
ut ch
ĠUn supported
Set ter
PR INT
Ġb ond
P DF
Ġs q
Ġassert NotNull
"> {{
ĠS IL
Ġarch itect
FO UND
"> :
limit ed
Ġcol lege
LA RE
ĠMay be
Ġs ends
Ġstrateg ies
ĠConst ants
Ġcrit ic
es is
Î ¯
Ġsp end
Ġun expected
ĠRem ote
"> @
ĠD ialog
ĠME THOD
parse Int
Ġvis itor
=" .
Ú ©
p ip
Channel s
M icro
Ġknow s
W ire
Ġf ul
Ġsc ratch
Ġmar ried
Ġwh itespace
ĠIn fo
ud ge
Lay ers
s qu
Ġeigen values
Ġal i
ĠJ ack
ĠE st
ver sed
ĠR O
duc ible
Ġref ers
ĠMet adata
pre dicate
Ġexpect ation
ow l
Ġanaly ze
ĠP an
ĠB re
AR M
ĠDirect ory
http Request
Ġcont radi
Fin ish
Ġa im
Ġhost s
: ",
Ġcertain ly
Ġinvol ving
Ġ' ');
bo unded
not ag
Cla im
ĠL ike
Ġw ra
Ġ ------------------------------------------------
ĠG rand
ĠE ner
Ã© s
Assert ion
MP LE
com mun
}} ^{\
ĠCan adian
ĠG uid
Re corded
Rem oved
Ġun iversal
TH E
Ġp itch
ĠIsra el
com merce
Ġpart ner
Ġse a
Ġd ash
Install ation
P ORTED
Ġperiod ic
l ig
G LOBAL
ed ges
Temp lates
r ss
10 8
Ġsh a
:// $
13 5
oper ating
start sWith
ä¸ º
$ &
Ġp ipe
ĠBLA SLONG
v y
In ventory
ST AMP
Com bin
O s
Ġg ray
X i
un safe
Ġk n
ph abet
DI V
ĠSu ccess
> }
Ġh older
Ġvar char
Ð» Ñı
Result Set
J av
Ġb enchmark
t own
ĠT erm
ĠT yp
ĠM i
Ġho spital
}) ^
a con
clean up
Ġre vision
ru ption
R TC
Ġ labor
Ġa udience
Ġexponent ial
Ġun safe
group ed
new line
Ġann ual
Ġcol d
Xml Element
per missions
Ġplatform s
Ġl ift
Ġs z
Ġpro be
19 88
p ix
Ġcon volution
Ġ ic
or i
ĠResource Manager
Ġw arm
ĠWh ere
min ute
Ġs ociety
i pt
ãģ Ĺãģ
ĠF oo
pub lisher
get Node
ĠM A
us b
un te
moz illa
00 3
Ġy es
Ġthe ories
Ġge ometric
Leg acy
urn ament
View Model
"> =</
Ġcla use
AR GS
Ġcommun ities
Ġad ult
ĠM en
ĠT im
Ġrestrict ed
Ġla ws
F ixtures
ĠD C
F s
Ġg ate
ok er
ĠD ie
El se
Ġat oms
' ",
Ġclo ser
ĠSQL Exception
CT RL
S CHE
Ġp kg
SE C
as p
6666 66
Ġc row
] /
v r
ĠP C
ĠM ER
ĠWh y
o mp
IN TEGER
h ls
tain ed
Exp licit
Wh y
f ic
p ite
Ã ª
Do es
ĠE li
**************** ********
ĠCO MM
Ġm igration
So ft
Ab s
Ġhypot hesis
pop over
form ula
Target s
Ġpar ame
Ġart ists
Ġinvest igation
on om
o la
H H
Index Of
11 8
err no
Ġex cess
get Int
Event Type
ed mo
Ġstream s
ĠC UR
l ighter
Ġre covery
and y
ĠV K
Ġor ient
Ġdis covery
ĠC ook
Ph ysical
ĠW ater
ĠPy Object
el if
] ],
par s
Ġis omorphism
I o
Ġbound aries
scal ing
ĠJ on
C at
ĠW alk
COL UMN
Ġsub str
Exception s
Ġcan cer
Ġover lap
r ating
âĢ ĺ
Ġi ce
format ter
Ġaspect s
ke eper
Dir ty
PE G
ak ed
mit em
At omic
se en
ĠWIT H
Ġpres erve
M ATCH
ab ove
count s
Ġ( __
Ġvalid ator
C r
ĠF und
book s
Ġf ashion
Ġes lint
Ġdemonstr ate
vision ing
bu ffers
ĠE qual
ĠJ im
F M
Ġc u
ĠH D
\ |\
è¦ ģ
ict ures
ĠE D
T CP
Buffer ed
RE L
Ġcur rency
è¡ ¨
z i
Spec ify
bl ur
ĠCent re
Ġmat hematic
ance led
RA G
ext ended
bit map
ĠR TC
Ġuser Id
In ternational
v b
Ġl on
ĠĠĠĠĠĠĠĠĠĠĠĠĠĠĠĠĠĠĠĠĠĠĠĠĠĠĠĠĠĠĠĠ ĠĠĠĠĠĠĠĠĠĠĠĠĠĠĠĠĠ
ĠM ajor
>{ @
in variant
ĠP ac
z ing
ĠAct ivity
pro viders
ĠT re
Char Field
h en
ĠP A
}} }\
Ġde mo
od o
Ġca ught
Ġalloc ate
* (
Poly gon
T ax
Ġdom ains
ĠA ff
t age
Ġcomp osed
Rep lication
d ip
j k
A ge
Ġp ip
à ¦
Ġ? ?
} |\
ul ner
math it
ĠAl gorithm
Ġreceiv es
f req
ĠM el
H W
Un icode
Ġsupport ing
ĠSpec ifies
Ġag gregate
conn ector
Ġth in
ĠC ulture
}} =
insert ion
me mitem
Plugin s
C ENTER
B UT
Ġpro mpt
ĠL y
Al location
Ġpanel s
Ġperform s
ee ded
Ġimpro vement
cont ract
ten ant
ĠS ta
od a
Ġnot ion
Track ing
' _{
SNAP SHOT
Symbol s
F un
n oc
, (
Ġtrans mit
for um
re start
TH ON
ĠF UN
Ġw ww
Ġten ant
Ġt ear
cal culate
text up
ĠCom ment
Ġun iverse
mm ar
Ġc ubic
ĠP L
Ġstr ug
depend s
r ang
Del im
Y S
M otion
s uggest
è §
max imum
user Agent
O ct
be am
re gistration
ra ils
get All
W ell
Ġs ust
Ġcons ult
Ġen vironments
12345 67
Ġme mo
Ġbound ing
R ew
ĠC ath
Range s
H AS
æ Ŀ
L ER
jo urn
F ollow
ĠCh icago
Ġhelp ed
Ġrespect ive
Ġcom bine
v ect
St udent
Ġqu ark
Ġwork flow
Interface s
'' '
Index es
Ġh ierarchy
Ġl ua
P ag
rim inal
t im
Ġsup pose
ĠO ffset
Ġ? ></
real m
12 6
gist r
ĠFrame work
dir ty
Enumer ator
olid ay
9 00
le arn
class v
Ġg uid
Ġact ing
Ġget Name
Ġbene fits
ĠA rab
^* \
le v
Ġthink ing
B etween
licen sed
Ġnorm ally
R a
Inter action
b anner
ap y
Ġinterpret ation
m os
ĠM iddle
SPH INX
f our
Ġasymptot ic
j vm
Ġdr ink
Ġc pu
Ġcor por
ĠB et
Ð½ Ð¾
Ġcharacter istics
f h
Ð½ Ð¸
Ġbe an
pos able
ĠH am
w ifi
ĠL ee
ĠO lymp
Ġph ases
Ġ( {\
ma ker
P ause
lor er
AL IGN
13 6
Ġd ates
Ġwide ly
19 87
Ġl p
Ã© e
Ġwin ning
> @
x si
f ac
Ġre duces
Ġ[ (
pt ic
Ġk ids
}{ *
host s
Ġinterval s
. \\
B usiness
QU ERY
B i
Ġde but
Vis it
Ġindex es
Ġ{} ",
Ġshould n
:: __
ip p
Ġpost er
\% $
Ġvar s
Ġmag ic
server s
ĠU V
et al
cur ve
Display Name
y ellow
Un ion
Ġdistance s
A wait
{ }{
Ġ' ;
(" _
Call s
ge m
Ġart icles
o es
G edmo
ĠObject s
EE E
Ġ[ &
Ġsem antic
Add resses
ĠG TEST
UR POSE
Ġown ership
Ġfit ting
dec imal
t z
ribut ions
76 8
ĠTh ursday
d ra
ĠI ran
S at
IG H
DEF INE
ĠĠĠĠĠĠĠ Ċ
Ġw heel
19 60
\ }$,
ĠCh ampionship
Ġrout ine
k h
Ġst och
Ġs we
Ġd ol
ĠDiv ision
ĠPar is
{ |
M ajor
al og
Property Name
filter ed
XXXX XXXX
Str ict
x ffff
on ym
Ġco ach
Ġad jacent
ä ¼
ils on
R D
Ġ' *
organ ization
Ġbe coming
Q T
En cryption
Ġr b
] ):
b ell
Ġgu ard
Ġissu ed
Import s
Ġde dicated
track er
Ġm ist
ched uling
ĠRe place
work flow
ĠLIMIT ED
ĠC am
DA O
rom ag
19 86
Ġbeaut iful
ab b
ĠIn clude
oo thing
ĠBe gin
I ES
Ġfa de
ĠF inal
ĠR a
l hs
Foreign Key
Ġinter sect
Ġpar agraph
ĠS ocket
US H
Ġ[ ])
ĠTe le
Ġsk ills
Ġsepar ator
Ġmolec ular
The lia
| $
Ġgravit ational
Ġget ter
(" ",
Ġres idual
ca des
ĠResource s
Ġc ities
cor ner
mid i
ĠD M
Art icle
mat ched
Ġautom atic
e very
Ġcap abilities
Ġse d
sol ution
SE D
ĠAr ts
====== =
al and
S coped
Ġp ersist
Ġsup posed
Ġbit map
Ġ' :
ĠH H
Rep orter
ll vm
Ġne ither
marshall er
Al tern
Ġto ler
Document s
Ġrecord ing
ĠInt ent
Ġb b
Ġt id
ĠA v
Ġsh ader
ter ritory
Ġreport ing
t ap
ĠResult s
ang ent
ĠTra ck
ãĢ ģ
Ġreveal ed
Marshall er
Ġo prot
er ase
ition ally
F old
C OR
Ġre gisters
SV G
L ANG
ĠK en
Rep resentation
r te
n ol
Ġpar k
type Name
Ġ= =====
Byte Buffer
Î ³
Ġt ight
Ġend ing
ĠS elf
Ġse ar
default Value
ĠG UI
med skip
20 4
ar ound
ĠO fficial
ha us
ra ises
× ľ
r p
Ð°Ð ´
Ġg ene
cond uct
assert Same
ighb or
x a
ĠExec ution
S ym
l its
Ð°Ð½ Ð¸
Ġsubstant ial
Ġch oo
\ }\
P F
E A
ular ity
Sem antic
(' -
ĠT uple
Ġstrict ly
M ime
Ġview port
IT NESS
ilo so
pre dict
Conf lict
Ġcon tribute
Ġtalk ing
Ġfluct uations
var rho
ĠEner gy
re pos
Ġf ish
Ġproto buf
ĠAnge les
Ad s
Ġ' __
String Utils
Ġb ed
fore ign
Ġbe at
Ġf ear
key board
} ~
ime dia
Ġle x
ACT IVE
3 50
comp ressed
is Function
d og
Ġ" ../
my Item
w an
ĠS i
ĠJ e
Ġi OS
ad y
Job s
Ġw ood
b ank
expect s
pro mpt
Ġdraw ing
Ex act
os is
Out er
alloc ator
IFI ER
Ġpro g
ĠP NG
Ġin vert
Ġ( &
ĠW omen
ot er
g ar
AC L
ĠL ooks
)-- (
Ġ<!-- [
ĠC r
Ä ĥ
Ġac ade
DI O
ĠI M
C ategories
ĠT uesday
ĉĉĉĉĉĉĉĉ ĉĉĉĉĉ
ĠW ood
Ġup dating
ival ent
fortun ately
Spec ified
Ġin ference
de coder
m alloc
V B
Ġpop up
Ġequival ence
Ġb ag
raw ler
Ġm i
Ġdiv er
B roadcast
ur ance
So ftware
Ġ( @
Ġchar ges
/* .
^{ *
å ¾
Ġf its
Non User
PLA CE
ĠHe ad
D ll
Al ready
Ġro uting
ĠCon figure
Ag gregation
Ġcommon ly
V ol
et ic
Per formance
---------------------------------------------------------------- ----------
ig uous
Config s
Ġport s
Ġcoup led
Ġco in
comp any
U AGE
ĠD ir
Ġch allenges
CCCC FF
D K
Ġadmin istr
callback s
Gener ation
CL K
ãģ «
Ġcomp aring
Ġde pict
t u
Ġvary ing
Ġsee ing
ĠF T
Ġi put
Cont ainers
/ @
cre ts
WA IT
ĠAcade my
Ġsh ut
Ġgu itar
ĠR ay
Match ing
k b
r n
CHAN T
Ġv tk
Ġc itiz
Ġexp la
BO X
Ġbig gest
sp rint
ĠN a
ir ical
ĠSh ape
Coordin ate
ced ures
Ġconsist ing
c ient
ĠR ES
V L
lik ely
Ġ Ñĥ
OB J
Ġh aven
ĉĉĉ Ġ
Ġsk in
Ġstd out
EX P
m sc
sum ers
min or
Ġm utable
f ish
Ġguarante e
ĠSTD METHOD
PI X
? )
mon d
Ġbro ther
... "
in os
ĠM IN
P referred
o ct
doc utils
Ġch at
^{ (\
ĠQue ue
atur ally
da o
Ġar rest
Ġun icode
Ġfrequ encies
AD ER
ass ignment
Debugger NonUser
ĠG NU
Ab ort
Ġsepar ation
Ġa pt
d am
Al though
>> >
h azelcast
r er
EX TERN
Ġmur der
Dim ensions
ĠW ho
L uc
Ġinv ocation
æ Ģ
sl ant
is p
ĠV alley
Ġrandom ly
Ġc trl
Tab s
Loc ations
sp ro
im ap
art z
Ġan om
ãĥ Ī
ĠT urn
ĠCont in
const raints
or ters
L ex
ĠU int
k ube
sh rink
ĠG ames
Ġdirect ories
Ġ* );
R oll
Pa ired
Ġpre m
IST ER
æ Ń
Ġmot or
Out come
tra ction
Ġdec ide
ro bot
files ystem
Î º
3333 3333
ĠI reland
Ġpers ons
ĠC ategory
Ġp las
ĠP URPOSE
op eng
null ptr
st ory
k ers
vi ct
Action Bar
ĠAc cept
man ent
IS O
Ġvers us
ĠE mail
ĠH tml
Di gest
Ġface s
ĠGit Hub
Ġv i
Ġsche mes
Ġsh aring
ĠImmutable List
Ð¸ Ñģ
pa ren
Ġimplement ations
SR C
+ =
ç ī
ĠRuss ia
Ġhistor ical
A dapt
ar is
Ġc limate
ic ian
MA IL
Ġpract ical
Ġfore st
T rip
Ġ ])
ii i
B log
Ph ysics
ĠST AT
cre ation
Ġobserv able
Ġconnect ing
Ġecon omy
p us
ĠU ri
Field Name
ĠAPI s
ĠID s
213 07
pos itive
Ext ent
Work flow
ĠJ ones
= ${
scal atest
Ġofficial s
gest ure
Ġcorre ctions
Ð¾Ð ³
AN Y
ĠScott ish
Ġrelationship s
arb age
Ġtop ics
ĠP oly
H ooks
wik ipedia
Ġconven ient
Ġear th
Ġse p
Ġk ing
d z
r ical
Ġstoch astic
M ARK
Co verage
uto ff
Ġcol on
b io
Quant ity
Ġmix ing
ĠC are
id i
Tree Node
Ġ{ $\
per m
math comp
Ch oose
un a
C AT
ÑĨ Ð¸
Ġpost ed
ĠC y
Ġover lay
agent o
More over
C ATE
Ġopin ion
Ġcirc ular
backs lash
Ġdiv is
Ġpri mar
ĠWed nesday
Ġperturb ation
Ġpro viders
T ube
Ġindic ator
urb an
or ough
Key words
Ġvari ations
bit Field
W W
Ġh its
Full Name
Ġfund ing
Ãĳ Ãĳ
Ġdi gest
12 1
Ġen force
ĠCon ference
Device s
v oice
Sw ap
Ġnew Value
Or Builder
Bind ings
ÐµÐ ¼
40 1
m ad
ĠP ush
semb ler
hold ers
Ġlo se
Ġresource Culture
Ġc ars
ĠE p
ÏĦ Î¿
p v
set State
lo tt
Ġtab s
ĠH aw
comp uter
Ġcur vature
(" {
Ġ================================================================= ========
ĠVis it
O G
S olution
ci pe
O ffer
Get s
Ġocc asion
Ġl n
ED IT
Ġsign ing
Ġb t
Ġobtain ing
ĠH ard
p ow
Ġdevelop ing
Ġent ang
Ġdef ect
Ġfig ures
Cred it
us al
end a
target s
vis ions
ic an
CUR RENT
Ġg lu
LAB EL
ĠChar acter
new Builder
cast le
Ġf amous
ĠV olume
Ġsens itivity
Ġtrans formed
11 3
Ġemploy ed
Ġsh ard
it ize
ell ite
r ated
Ġas ynchronous
li x
U G
H ierarchy
Ġvac uum
rott le
ĠCh ris
gener ation
Ġ licensed
Object Type
Ġsubject s
do xygen
ĠĠĠĠĠĠĠĠ ĠĊ
net ty
Ġr u
ĠEd it
SP ON
ĠN UM
19 85
ht t
ĠK ar
ĠThe me
vent ions
ĠOpen SSL
Ġ& $
P lain
Sc anner
Pro viders
Is Valid
Ġmy self
R IDE
}\ |
Ġident ification
pub lished
n ullable
e asy
se x
EX EC
14 7
é Ĺ
consist ent
ital ic
Ap ache
Tra cing
ĠA ust
M irror
} ],
Ġw avelength
S inergi
Ġc f
Ġa ward
Ġconduct ed
< >
Ġb rain
Ġm ysql
h fill
20 2
Ġd oll
ĠEx peri
at ers
V m
o ph
ro zen
Ġpre view
Ġb low
Ġ[ _
Ġrecogn ition
clo sing
D uplicate
Ðµ Ñģ
Ġserial izer
ject ure
âĢĿ ,
Cor rect
weight s
) (\
ĠFIX ME
ĠR EQ
comp atibility
Le ave
sh im
di ctionary
Ġs cre
Ġbreak s
Integr ation
w rapped
release s
Ġfa ult
æķ° æį®
Ġb urn
cat Desc
Ġclip board
"/> .
temp erature
TIC ULAR
Ġun used
Ġse aled
ĠCH AR
ĠAR M
m ixed
er ate
st ock
CHANT ABILITY
Data Set
U IT
Ġtemp oral
Ġmap per
Ġabsor ption
ap id
ĠJ aco
c us
( -\
sub st
RA W
x d
Ġadmin istration
ĠT y
ĠRe trie
q r
19 84
tn s
el ly
Http Servlet
Plan e
ut ility
Ġfavor ite
vi ation
ian o
fold ing
Position s
un checked
et ched
LO T
æĪ Ĳ
Extract or
B ench
n th
ĠAl ert
Ġdis cover
Ġst mt
ĠRE G
( _.
M AT
Instance State
prec ation
ĉĉĉ čĊ
Ġ% (
pr ising
Ġfe et
Ġpriv acy
Ġe arn
Ġ"/ "
Ġrest aur
Ġcon clusion
ĠA SC
Ġfew er
Ġauthor ity
Ġ" #{
sec utive
at iv
On line
R F
S an
PO M
M Y
G F
i ator
B and
ĠR ail
class List
âĢ ¢
Ġtra iling
open ssl
Ġsearch Box
Ġorth ogonal
author ization
ASC II
Element Type
lo de
ĠPro b
m v
script ors
ON ENT
st ic
hard ware
Ġh alo
ĠEx ternal
Ġpr ison
ĠFe b
Ġcomp osite
Ġ_ ("
roll ing
valid ators
Ġcon crete
at on
ra it
Ġb s
Ġassert ion
(" ");
ĠO l
CALL TYPE
Qu ad
Ġa ircraft
(' _
PAR ATOR
Pub lish
Condition al
ĠD ynamic
Ġauthor ization
Ġc i
ch en
4 80
que t
Ġret val
Ġed u
um bo
vert ices
Ġchar s
unit test
ĠB ootstrap
initial izer
ĠR oot
Ġ ,\
pro be
z o
lo v
Ġh us
Ġpe ace
PHP Excel
A udit
Ġhost name
ĠL ow
Ġdist ribute
ost on
ĠQ ual
Sp acing
inst ein
Ġb igger
DEFIN ED
Ġ$ ('
ac iÃ³n
Ut f
get Item
ĠJohn son
ab e
contains Key
Bound ary
Contin ue
Ġsome what
Ġ utf
BUILD DIR
In crement
ĠG a
Sup pose
Ġs pring
Ġm iles
] ])
Ġens ures
ĠNot ification
CT L
Fe edback
Ar c
Ġa ware
H over
æ ģ
Ġt il
IAL IZ
ok ia
ĠAUT H
Ġclose ly
Ġa met
ĠLine ar
) ^\
model Version
ĠDown load
activ em
Ġparticip ants
fl ater
z il
f ar
Q R
T W
ĠN ever
Ġweight ed
ens ing
-- )
Re peated
Up grade
in cre
Tra it
ĠØ§ ÙĦ
/ </
ĠCh art
Ġif rame
Ġtri angle
è¡ Į
Ġabs ence
ver ity
ĠFile s
ver al
ĠL ord
ĠF ar
ĠV ec
PRO CESS
ĠR aw
Definition s
ĠL P
é Ļ
T or
Pre c
Ġd Ã©
Ġsynthe tic
× ¨
Ġem erg
Ġsh apes
Res erved
Par allel
C art
get Resource
ob s
] []{
Ġnear by
: =\
Ġis land
2 10
D J
Sec ure
Ġ' &
ĠIllegal StateException
stream s
ht m
sub menu
ĠP od
L B
in dependent
Command Line
Ġintro duction
lo re
ĠExt ract
Ġch apter
EN UM
Ġcla imed
so lete
Ġp our
Ġcom mitted
Ġsm allest
Check point
Ġg irl
Ġbra cket
qu iring
li braries
Ġ` "
Ġpoint ed
API ENTRY
ĠFunction s
x r
ĠName space
ĠIMP LIED
C andidate
ĠPro gress
6 55
Th ree
has Class
SH ORT
in vert
Ġan imated
Ġequip ment
Ġde leg
Ġaccept s
ĠVi ctor
mark down
'] :
ĠDe veloper
G PU
Ġmax im
åĬ ł
Ġ _{\
INTER FACE
script size
d ac
ĠS ync
/ ><
DO C
Pointer Exception
ren a
ĠB ern
ĠE v
Ġexec utable
comp at
ĠI con
Ġre views
ĠZe aland
S izes
Ġexc ited
p ure
Foot er
ĠIt alian
Ġdi agnostic
Ġstandard s
May be
eq z
Ġveh icles
Ġn ine
te en
y o
Ġthe ad
activ ation
ĠâĢ ¢
Ġp ersistent
AV A
g m
Ġd yn
ur ies
ams ung
R x
ĠA RI
ra ma
ĠS R
rep resent
f re
Ġin clusion
Ġo mitted
Pub lisher
T ASK
N ay
ĠB a
Return Value
ĠF ail
Ġfilter ing
Ġs ale
graph ic
Ġf la
ad os
//////// ////
Ġsim ulated
Ġalign ed
k ill
ĠCON TRACT
: ]
Instance Id
ĠDeta ils
C irc
ĠCal endar
Ð ¶
ĠA CTION
re comm
j p
Ġfor get
IST S
Ġse l
Lock ed
å Ŀ
SECON DS
Iter able
Ġwould n
k le
ĠT i
ĠMER CHANTABILITY
: {
Cap abilities
len ium
edit able
Ġed ition
Ġg ateway
down arrow
art icles
d ll
Decla red
Ġcomp lement
li ers
Ġne arest
SIGN ED
ĠLo gin
Ġextension Registry
ĠCo untry
12 9
Ġpart ially
Ġnumer ous
ĠT our
Ġexcell ent
h ang
el m
List Item
ĠO VER
M vc
Field Value
Ġon mouse
Ġmonitor ing
Stream s
Ġinterpre ted
j ira
ĠY es
Ġb eta
Reg Exp
ĠP anel
se to
å ·
me ssaging
Inter pol
Ġbuild ings
re cogn
pp ers
Ġun pack
LA ST
activem q
M EN
dis miss
ĠI V
"> [
Con current
CA ST
Ġat tachment
Ġglyph icon
ĠT imer
k k
ĠĠĠĠĠĠĠĠĠĠĠĠĠĠĠĠĠĠĠĠĠĠĠĠĠĠĠĠĠĠĠĠ ĠĠĠĠĠĠĠĠĠĠĠĠĠĠĠĠĠĠĠĠĠĠĠĠĠĠĠ
C ycle
es ides
subscription Id
ĠG URL
= */
Ġver ified
Ġm ill
A ML
Ġtri es
ĠW idget
Ve locity
Ġk ick
init With
M ON
ĠAss ume
R ay
Ġenumer able
id ad
Sub scriber
je ctions
lo om
tr unc
ex change
ĠA LL
ĠF amily
Ġ/ ^
Ġexp ensive
maz ing
D NS
ĠP K
Ġacc ident
V tbl
ĠPh one
W T
N an
de ad
ĠD omain
Ġbox es
4 50
ant asy
VER TEX
SUP PORTED
ĠFour ier
able View
EX PECT
Ġconsist ency
Ġclose st
J et
ĠO B
f name
ss on
Ġcheck point
SQL ite
16 5
Ġimp ossible
Ġcap able
Dep loy
k afka
Ġt p
Ġconcern s
" })
home page
ĠC lick
ä ¹
tag Name
ĠBy tes
Ġcancel lation
Ġunderst ood
Ġr t
') ),
af ety
Ġstraight forward
Ġt c
Ġv el
Generated Message
ĠR et
Ġv ideos
LE T
Ġh al
Ġlif etime
f ixtures
Ġd ensities
vi k
ĠT ake
Ġend points
17 0
Ġamount s
Ġboot strap
str cmp
render ing
Co lour
ĠFil m
19 0
Ġderiv atives
A verage
AT FORM
Ġwor st
Occur s
ĠPAR TICULAR
ĠS aint
Ġv ision
F lex
{ (\
in str
Ġmark up
4 000
Ġsex ual
Act ual
Or Default
M usic
ib ilities
draw er
Ġcla zz
Ġcontinu um
ro ut
Inter ceptor
erm ine
13 7
ĠProp Types
Ġse g
IP v
ĠS UB
Ġv irt
Ġexp os
E p
Y ea
part ment
ST M
j it
dd en
Ã µ
Ġhe av
comp uted
check er
Stream ing
Ð° ÑĢ
à¥ į
Ġ' ../../
py test
Qu ote
æĸ °
symbol s
H L
h n
un wrap
def s
cip ients
Wait For
m otion
Block ing
ĠSpec ific
M IL
Ġfa ith
ear n
h ive
ĠPl ant
Const ituency
Ġpurch ase
ut y
ĠE ric
C li
; ",
Ġmodel ing
)) ]
Inter preter
" <
writ ing
>& #
Post ed
av g
Time line
ĠĠĠĠĠĠĠĠĠĠĠĠĠĠĠĠĠĠĠĠĠĠĠĠĠĠĠĠĠĠĠĠ ĠĠĠĠĠĠĠĠĠĠĠĠĠĠĠĠĠĠ
DI SP
Ġoff sets
Ġre cursive
Ġ` $
Ġquad ratic
el le
se ud
ic ing
Ġbo y
Ġsurround ing
Ġdo g
ĳ ¼
q s
Ġt iny
jav ac
ĠE con
ĠComp are
H ot
Ġnumber Of
Le af
ĠG PU
f ork
ox y
][ <
YY YY
not ation
ENT IAL
Ġ" ]
3 75
`` .
2 60
Ġconven ience
æ³ ķ
Ġresc ue
N Unit
ĠS ar
Ġsess ions
ili ary
å ī
ĠT otal
map red
lo mb
Eng lish
pro vided
ĠA F
Top ology
ĠLay er
r df
__ );
Ġ ign
author ized
W arn
trans lated
exec utions
Sing leton
ĠL earning
ĠE valu
g al
ra ck
s imp
sprint f
Î ®
Ġre ly
T mp
~ (\
æģ ¯
Ġn b
ul ates
Recorded Vote
s nap
u ing
Ġpolar ization
Ġpri ces
=-=- =-=-
T oo
Ġtable Name
el d
ĠP assword
Ġf r
ĠB ool
mit ives
ĠM C
ĠE mit
"> $
Vertex Attrib
Ġgu y
ĠTh ree
app lications
Comp act
Ġ" @
Ġg ender
>. <
/ ,
ty ped
Ġre cipient
Ġfac ility
ĠMex ico
Ġrep lacing
Volume Source
Ġsystem atic
ĠM ike
ĠD a
ĠT CP
Ġsepar ately
ex clusion
ĠAg ain
v k
Ġb ars
ĠR am
Ġd ream
Col lision
K HR
Ġco ast
p ersist
Ġinvest ment
enta ho
/ ?
ĠW IN
ç ¤
15 2
Ġenvironment al
Comp uted
Version UID
Ġcomp licated
Ġdepart ment
Ġh over
ĠF estival
c ritical
ris is
G lyph
ĠH on
B ootstrap
Ġr ating
åĲ į
Com mun
ĠØ ¨
Ġflow s
ĠEd ge
ĠRe ader
$. }
Ġli quid
b idden
St udio
Ġt urb
ib er
P ersistence
get File
W D
Ġco vers
ĉ ĠĠĠĠĠĠĠĠĠĠĠĠĠĠĠ
r aries
ag g
und o
Ġre act
Ġdata Type
p ers
Ġproportion al
ĠN Y
Ġpresent s
ĠRun nable
g ms
Ġsimult aneously
ĠJ OIN
Ġuniform ly
P N
t id
C AN
ĠBig Decimal
ft p
*} [
ĠSpan ish
Ġq ub
Ġdemonstr ated
Ä Ļ
Ġemploy ees
} ">
Protocol s
st atistics
ĠB atch
Ġinvol ves
Ġin fer
Ġcont emp
Ġb an
MD R
Middle ware
Ġ$\ {\
am ber
Ġsub mitted
acc um
ĠST ATE
< '
Ġ' \\
no vation
Qual ified
Mock ito
Class Loader
ol ation
="@ {
Ġre ward
ir ds
ĠW il
ĠC as
NS Mutable
L int
ĠB io
Ġle ague
register ed
ĠG ro
Ġfeature d
Ġnot ifications
Ñ į
Ġfact s
ĠIt aly
Ġcar bon
Ġfe at
Ġh abit
http Response
De ad
ĠL uc
Ġbuild s
Ġpul se
C LE
ĠT EXT
Ġorgan ized
pan ic
encrypt ed
G rant
oo per
syn opsis
ĠVirgin ia
up al
Ġinter ior
level s
Ġsh arp
ĠName s
u ity
Code d
Ġge o
Ð¾ Ð½
Ġorgan izations
ĠS K
entic ator
Ġis ot
In strument
w char
({ '
2 30
it i
Ġsol ving
sw iper
ak s
Ġst ages
ment ion
Ġj o
åħ ¥
Se ek
re pr
Evalu ation
ĠF lag
ĠPro to
Ġst ead
2 24
p index
ott en
J an
f lare
+ $
o fficial
syn the
av is
BO OST
Ġpre ce
Ġdiff usion
13 4
ĉĉ ĠĠ
Check Box
Ġpres er
um a
stack rel
ĠJ eff
ä½ ¿
ĠB la
col l
Ġ( ;
Ġmus ical
J MS
Ġinsp ired
L ife
. ">
Pr inter
e u
bootstrap cdn
fra ction
ĠP ur
ĠD b
A ware
end ers
ASS IGN
dom in
Ġcru cial
map reduce
erm i
Change Listener
ĠNew ton
Ġcomp ressed
ĠMem bers
B ulk
Port s
MEM ORY
Ġs f
OPTION S
e ast
s ynchron
ĠE lect
ĠF ort
Ġn an
Ġcom mut
pro filer
ierarch ical
gol ang
Ġ è
FILE S
ac cordion
Ġdisplay s
Red is
#### #
effect s
up arrow
cert ificate
Ġpack ets
p w
Ġhom ogeneous
ĠM UST
Ġrep orter
sh ard
Ðº Ð¸
Ġprimar ily
$\ ,
Level s
Ġscal ed
V K
Ġ( .
Ġ" ).
the less
ĠCh ief
ĠE ffect
Ġindex ed
;-> <
Ġrelig ious
b la
ĠMer ge
) ")
Ġdig its
Ġw s
ST YLE
Ġhelp ers
ĠF ITNESS
ĠField s
ĠExpect ed
Tr ust
Ġp d
ĠSystem s
AX B
ant ly
an es
Ġgra de
w heel
Ġrough ly
Start ing
^* (
Ġsimilar ity
st ation
Un ary
G M
i h
d ue
Ġab c
Ġconj ug
Ġrepresent ative
F lash
xx x
T urn
ur is
oper and
19 83
pre ttify
ĠGe V
ĠM OD
ul um
(' :
Ġac cessed
" \
Ġe g
Hand ling
ĠSh im
sp arse
Ġf uel
Ġper mitted
Ġan onymous
vent ure
}$ \
he at
Ð¾Ð» ÑĮ
ĠHen ry
q view
de gree
Ġclass ic
ĠVAR CHAR
Ġtraject ory
ST OP
macro def
y ield
Ġcal lable
Ġformat ter
G ap
ĠP ak
List en
p entaho
Ġanaly tic
Ġcyc les
20 3
D ummy
Re cv
ĠT LS
60 1
C artesian
ines ses
Ġcount y
ĠNot Implemented
Ġes c
Ġalgebra ic
ag a
T icks
os a
Ġdecre ases
14 3
P ressed
ĠIn tegr
Ad vanced
no va
Ver b
Ġap art
Exist ing
ap ro
ĠE U
indic ator
________ ________
Ġcomp ress
ĠO MIT
Ġlik elihood
å ¸
Ġhas n
ĠNot es
Ref s
Place holder
pre d
ĉ ĠĊ
DebuggerNonUser CodeAttribute
table View
ĠCon n
sp read
ĠURL s
W ater
ĠW R
Ð°ÑĤ ÑĮ
ä¸ ĭ
t icket
V ED
Ġc ards
Start Time
ist a
cor ollary
T ake
dir s
Ġestim ator
ĠJ oe
curs ively
P AT
Ġt icket
Let ter
Ġmet av
ome ter
TRAN S
comp leted
Http Client
Ġw elcome
es lint
B lank
com munity
Ġho les
). __
re name
m igrate
&& \
S ynchron
v irt
Des ktop
Ġde veloper
D ark
Ġch ief
Tra de
bound ary
Ġneut ral
ĠJ oin
æĸ ¹
ĠSup pose
ĠM u
N eeded
Ġres idents
laps ible
key Code
Ġremain ed
Ġh air
Ġt ex
Ġperiod s
UR ATION
Bo ard
$- $
Ġb odies
ĠRe trieve
FA CT
Ġsign s
Ġin ternet
table Name
Ġlog o
P ART
Index ed
ĠSm art
, %
Ġ\ ,\
get State
mat htt
Ġch all
Type Id
Ġthous ands
D Y
Ġs mo
**** *
sol ut
Ġv a
ĠId entity
LOC ATION
Drop down
åı ¯
sp rite
ĠC K
imp licit
Ġac cretion
comp ilation
Ġre load
Ġsen ior
h icle
ĠAt l
Ġt i
F LOW
im ator
S py
h ist
min i
co ord
ĠPerm ission
S i
ar ian
C rypto
Clean up
Ġh orizon
ĠGe org
in struction
': '
Ġelect ed
le ading
foot notes
ic ast
ĠE S
ĠOb ama
user content
UN IT
in ction
ik a
Ġread ers
æİ ¥
Ġ" &
Â °
per formance
om ics
Ġorbit al
eng ing
Ġscal a
bind ings
inter pol
Ed m
Ġoffer ing
ĠAuth ors
Prob lem
38 4
C nt
In variant
at ivity
Ġ\ [
op enc
B oth
ĠInput Stream
Ġr is
SPON SE
Ġuncertaint ies
ĠN ight
Ġf ly
Ġsimilar ly
S ector
b ul
b ow
Ġth r
Ġpropag ation
F requency
ĠHand ler
Ġqu iet
s andbox
(' %
IL L
Ġw er
account s
t iming
ĠR OW
Ġhe ading
ĠQu ant
( /\
s ized
pro pto
BUT TON
ĠG tk
Ġs lider
ĠSim ilarly
\ ">
Ġt rend
N orm
ĠPro xy
gin es
Ġcomplet es
Ġfamil iar
E ven
Start up
Ġprom ote
Ġp late
ĠE V
Ġre dis
Ġserial ization
ot ype
ĠNav igation
Ġopportun ities
is i
ne eds
Decor ator
or ial
( ::
S leep
ĠO Auth
D U
uc lide
Ġsol ved
ĠD ark
class Frame
ctx t
n umbers
ĠT RA
Ġ\ '
ĠH iggs
Ġbirth s
Ġre use
ain ment
is olate
Ġex clusive
temp ts
up grade
bu ff
& )
Ġconcent ration
cord ova
ch oose
Ġimport ed
$ ^
res ume
ĠA I
b j
Ġ# ##
inal ity
get Bytes
Ġpro mi
Ġhus band
SE PARATOR
ĠLI ABILITY
b usiness
Ġdol or
Ġser ving
ab i
n v
ì Ŀ
ĠArgument s
C rypt
no ise
Prep are
Ġdriv en
Ġsurface s
Ġs y
Ġwor se
app y
Ġany where
ĠBlock ly
ĠAut om
rang ian
Ġf l
Ġde cades
Ġun a
ne ar
Ġx s
Ġcon versation
Ġi prot
Ġl it
From String
Ġent ert
ru id
a ac
Ġdisp ersion
ĠPRO VID
P en
Ġcluster ing
Ġ{ *}
in el
ĠM age
Access ibility
Ġc tor
cg MDR
Ġconfig urable
get Content
ak en
n od
ĠAn imation
ac cur
ĠÐ½ Ð°
Ġcult ural
Ġslo pe
DO UBLE
Service Model
R ing
ĉĉ ĠĠĠĠĠĠĠ
Ġfib er
l bl
Ġstrong er
Document ation
( |
Ġsh ares
ile ge
ĠIr ish
he t
ĠðŁ ĳ¼
ĠðŁĳ¼ </
ord an
Ġcover ing
Ġrecogn ized
ĠAct iv
E AR
Ġer a
oci ate
Check box
Sh op
Ġpro posal
ĠCol lect
åĪ °
Date Format
g d
C atch
ĠG ar
Ġassume s
id le
Ġst ands
Ġform ulation
G LA
ig o
link col
field Name
ab ul
Log s
subNav List
Ġ*/ ,
cyc ler
å ¹
Ġtransform ations
Ġsee med
r k
ĠWilli ams
P ur
Ðµ Ð»
Ġguarante ed
scal ed
Ġfun ctor
ĠD S
ĠIn dicates
Ġcode c
lo ver
Ġdec isions
Ġca ption
ĠFi refox
ps is
Ac celer
INST ALL
lott ed
Ġst ations
O PT
re ction
W ild
man age
e ur
es ium
!! !!
" =>
p ager
Ġc rypt
dist ributed
fin der
P t
Ġc riterion
H o
ĠS park
ĠJ av
Mark up
Ġdiag rams
ĠRepresent s
insert Before
Ġvolume s
EXCE PTION
Ġsitu ations
Ġsus pect
Error Message
{ .
Sc enario
Ġdeath s
ĠAuth entication
ĠD al
er ance
sw agger
Ġtyp ed
PRE V
ĠS ide
ĠW ild
O LEAN
Ġ$ ^{
Ġli ber
Ġin frastructure
Not ifications
Ġk o
? ,
EN ER
ĠFR AME
L ifecycle
itu des
FO REACH
ĠD IS
con ver
Ġwatch ing
Ġres olver
mis c
O PTS
19 82
ann a
Ġany way
unknown Fields
-- ">
bat im
Ġmk dir
Ġoffic er
ee ee
Ġannoun ce
Ġem otion
Ġnow rap
Bro ker
TYPE S
Ġa ugment
strict Equal
ç¤ º
j om
web site
he art
et ary
E m
system s
b en
mp eg
Del ivery
ak i
II I
Ġmod ifier
Face book
Ġleaders hip
ĠI SO
cell s
Ġtrack er
H istogram
romag netic
search Box
14 5
J o
parent s
No Error
Ġt ur
Buffer Size
Ġlarge ly
connection s
bas ename
G reater
jav adoc
00 7
FI RST
Se gments
Ġtool bar
is abs
Ġex cluded
su fficient
y outube
WI SE
å¯ ¹
Ġdeliver ed
an imated
$\ \
ĠJose ph
=" __
d ma
As sets
$ '
Ġelectron s
ame d
Ġlo ops
Ġpolynomial s
Ġdistingu ish
is y
Ġcomp reh
eder ation
Ġpolit ics
Watch er
Ġb link
Ġm b
ĠAl tern
and as
User Name
Run nable
30 1
ab a
ä» ¥
Relation ship
Ġk id
Service Client
coordin ate
Http Response
aut orest
ĠMax imum
ian a
w y
soft ware
Ġoptim ized
Ġser ves
ĠGe o
Ġbran ches
è® ¾
D WORD
="# !"
Check s
00 4
: .
Property Changed
Ġcheck box
ĠC M
SO CKET
Ġf p
Ġn pm
be cause
can onical
Ġn aturally
ĠD if
top ology
"/ ><
A cl
Ø ´
Ġs pi
c andidate
| ^{
Ġweek end
up pet
Ter ms
quis ition
Ġfor k
D ROP
CH ED
remain ing
de als
pack aging
Ġlimit ation
ä ¾
Ġdriv ers
currentTime Millis
FO S
H om
READ Y
14 6
first Child
Ġedit ing
RE LEASE
ĠL ength
16 6
ĠPar am
Ġmechan isms
dif ference
u ce
Ġax es
Ġt error
Ġscient ific
] '
p aint
Con trib
c annot
} ");
ren ew
ĠS afe
ĠInt Ptr
Ġsound s
Qual ifier
W heel
Ð Ĵ
Ġelect ro
test ng
Ġquot a
Ġb are
Ġmem cpy
Ġoper ate
ĠSup p
Se g
ĠLOG GER
b rew
j ump
Con str
Ð½ Ð°
Q String
ĠL ANG
ĠB log
ĠCatalog ue
Gu ide
ĠSequ ence
s peaker
p md
ĠS ports
Ġcom ma
P s
Register ed
ĠR ole
alax y
Ġcom fort
key frames
Ġf atal
ĠX XX
Ġvis bl
F lu
ĠDec l
Ġisol ated
f an
Runtime Exception
N umbers
Ġm yst
L earning
Work ing
Å ¼
= $(
LA BLE
Z Z
con cept
Ġflat ten
8 75
Ġc art
PRE C
Ġla beled
ĠT X
ĠDan iel
) <
ran e
Ġno except
m irror
ĠAt tributes
cred it
P ick
ĠF ood
VARI ABLE
itel ist
Dist ributed
Ġp apers
ĠPol it
S parse
Ġappe aring
k an
Col s
Ġo ct
Ġserial VersionUID
Ġch air
x ies
Ġm ime
Edit able
_ "
Ġ\ |\
pro files
Ġde coded
Ġdef ense
work ing
Ġfo unded
me th
position s
vari ants
Ġre construction
ap ons
ĠAs ia
Ġc t
14 9
number Of
pro cessed
** /
GE X
Ġc ro
K S
Ġsub class
Second ary
pre p
Ġs park
Ġprob abilities
In side
ĠInitial ized
M ass
de velopment
ĠText ure
Ġtr uly
ĠJ ackson
Ġangle s
Ã ¦
ip v
ome stic
wit ches
be c
Real m
Int Ptr
M appings
bu ck
40 3
ĠT IME
Ġcol s
el rte
ic ht
Ġun iversity
key down
Comp uter
: !
M al
y ll
22 2
F allback
ss f
F ULL
B rows
sph inx
Ġrat ios
ĠM ouse
ĠCONT ENT
Im mediate
ING S
Ġs vg
DA Y
Pixel s
Ġr and
D N
ĠC MD
Ġfac ilities
ĠBrit ain
Ï Į
Condition s
G I
15 5
pk t
Ġexec uting
/// <
in ator
åŃ Ĺ
ĠCancel lationToken
Ġcaref ul
Ġnormal ization
Ġj ourney
Ġfac ilit
IDE O
ĠL td
ĠCal culate
Ġtx t
Ġget Default
ĠEn umer
ĠCOPY RIGHT
ident ial
Ġconcat en
ĠSur vey
ck o
sv c
_ ),
b ulk
19 79
Ġmod ifications
z u
Load Balancer
Ġd war
With Error
++++ ++++
c xx
ch romium
b w
]( /
asket ball
sp lus
Ġ} ];
Code Analysis
ĠAdd itional
ĠDig ital
X Path
ent e
ĠSTDMETHOD CALLTYPE
on o
Ġcorrelation s
Ġk ube
Ġjud ge
a head
Ġ( +
Ġ{ });
Test er
, &
al ib
ĠT ax
z end
Ġdir ty
flat ten
Ġlength s
Ġoptim ize
Ġcancel led
As pect
send coins
. (*
ic ians
sub net
EN O
Ġs aving
17 5
Can onical
u ches
Ġso le
ĠG O
\": \"
Scal ing
Ġapp reci
¦ Ĥ
J ar
wh o
K B
ĠD eter
De veloper
L and
Ġbind ings
)} (\
Ġplace ment
id en
ro g
IN CLUDE
Ġover write
Return Type
render ed
Ġconn ector
form ing
Ġillustr ated
Ġda emon
ĠJ es
o val
Ġt iming
ch r
Redu ce
github usercontent
dev tools
m uted
W est
Ġstream ing
j peg
Ġla ser
M c
Ġv ir
name of
inter op
ĠSk y
Ġconcern ed
Ġbefore Each
Ġcri me
I Enumerable
col lapsed
V ATE
que e
file path
solut ely
valu ed
SY NC
ç §
ĠM ic
ĠGL float
Ġst abil
ĠC T
Ġl ived
RO UND
Ġb ur
Ġher self
f k
Ph p
uclide an
- }
Ġdis ap
ĠCol umb
}. }
istor ic
A sc
P ing
ĠG rant
Ġcons ume
Ġdomin ant
ĠFa iled
"] ["
Ġdec rypt
memItem Left
ĠUnsupported OperationException
de serialize
Ġsimp licity
B ecause
st udent
Local ized
ĠNe ed
ĠSerial izable
Ġkind s
ĠR uby
inst alled
Ġsearch ing
f lip
Ġregion al
Ġcomp arable
Ġconvention al
Ġac quired
L atest
ĠĠĠĠĠĠĠĠĠĠĠĠĠĠĠĠĠĠĠĠĠĠĠĠĠĠĠĠĠĠĠĠ ĠĠĠĠĠĠĠĠĠĠĠĠĠĠĠĠĠĠĠĠ
Ġr x
gy pt
ĠDo ctrine
Ġteach er
& =\
Ġphot os
port al
Ġen semble
ipher al
inem atic
L u
ĠS IGN
Url s
Ġâ Ĩ
ĠCO MP
P IN
ep och
memItem Right
ĠDAMAGE S
(' [
Analy tics
Node Type
che ster
++ ){
b roadcast
Ġmembers hip
Comp ression
arg o
Ġca using
Cap ability
Ġinterpol ation
h ours
sub scriptions
Trans lator
R ating
b ias
ĠB reak
è ¾
OR ITY
as io
PACK AGE
RE EN
ĠSH ALL
ĠL ittle
o j
get S
19 81
R ich
Log ic
Ġmark s
Ġdis connect
ra ce
P oll
ĠCl one
ĠU rl
Rout es
Ġd otted
in ations
ĠM id
ĠD ar
ĠCarol ina
Ġp x
In str
Ġencounter ed
X HR
C fg
P UBLIC
Ġar ms
sim ilar
comp ose
se lenium
ĠC ost
Ġ( []
Ġh r
Ġse at
C WE
ĠA PP
Ġsp y
Ġfrequ ently
form ats
Un install
Ġpart itions
ĠPol ice
Ġfrag ments
am ar
en ix
20 8
ĠSt an
CONTRO L
D ie
W ay
ĠF etch
ber ry
Ġc er
in ode
su it
ĠS ep
SH IFT
} ";
ST ER
le f
min es
com mod
ens ation
Ġneg ot
Ġv endor
Combo Box
Ġcon secutive
term inal
E V
g md
}/ \
x path
Ġtot ally
C he
Par sing
D ock
res pect
^^^^ ^^^^
Ġbelie ved
Ġmet all
= ['
------------ ---
or ry
Ġke eps
SCHE MA
ĠCon trib
Ġmo vies
mark et
Ġrespons ibility
q p
ĠH ad
Ġprote in
Ġb ubble
ad vert
po ssible
ĠB undle
Type Info
Ġwrit ers
ĠHttp Response
ĠPr ince
U id
Ġtemp or
Ġdiv erg
az e
ĠRe pository
Access Token
v iz
ä½¿ çĶ¨
Ġmach ines
cont rollers
IN F
ĠMed ical
o ir
Ġ(* .
Ġdig it
ĠP ack
Ġcons umption
Ġinvestig ated
ĠT RI
ort ex
ĠP S
Ġc riminal
J oint
es sel
ĠCath olic
Ġsplit ting
F ollowing
Aut ow
Ġsol di
ãĤ ¯
uck y
ĠMark et
ĠBE GIN
Ġsu ff
ĠModel s
30 2
ĠD river
Ġj q
ĠK ind
Ġ< >
19 50
A ir
tod ay
Ġd ry
d ashed
full comment
full screen
hand led
footnotes ize
ĠA wards
Ġside bar
Ġt on
ĠPROVID ED
un es
Ġtitle s
ĠTr ust
ĠEx port
C ritical
al ter
oid s
Ġs port
ĠJew ish
ĠS chedule
Gu ard
z ab
ĠQuest ion
P rom
ĠF E
aw ay
EXT ENSION
Ġviol ence
ĉĉ ĠĠĠĠ
ĠFUN CTION
get Column
ĠGener ator
RAN GE
Ġindependent ly
B F
on load
")) )
Tool Strip
re lax
ĠSen ate
ĠIN CLUDING
Count s
ĠComp ile
stance s
"] :
Ġfeel ing
Ġfail ures
Ġ` .
[] []
g ls
d g
ĠS PE
cor relation
omb re
S al
ic ious
Ġde fer
Ġun e
ĠD ub
ĠF C
ra q
Qual ity
Ġanim als
h dfs
$ ^{
| .
sc all
(' ',
Order ed
Calcul ator
ide a
del ivery
uplic ates
! âĢĿ
Ġrelease s
ĠName d
ag gregate
fin ement
Cancel lationToken
7 20
photon ui
Ġf er
Ġm unicip
gl Get
ĠM ail
develop ers
b et
No thing
Ġsuc ceeded
ĠDeta il
orange hill
orangehill dev
[ ![
Ġ' );
dis connect
PASS WORD
R DF
Ġst ride
De leg
match ing
ÑĢ Ñĥ
Un grouped
H our
und ant
bold math
is Null
Re fer
ĠOn line
text Color
ĠD ue
return Value
Ġcontext s
ĠPackage s
ac er
set Enabled
list item
ĠMe an
Ġg reatest
Ġa vailability
Ġv on
Ġv ot
f allback
ĠD om
pre sto
Ġvict ory
ä¸ Ĭ
ĉ ĠĠĠĠĠĠĠĠĠ
({ "
pro g
st retch
To k
Ġcal ibration
Ġfi ction
Ġcon current
&= &\
ĠChild ren
skip Nav
Ġg c
Ġget Value
SOL R
Ġfav our
Ġrest rictions
der iv
Res ume
CO PE
Vert ices
lab s
13 1
N p
F ab
add le
2 25
ĠF un
lan e
NS Dictionary
get Parameter
ĠB BC
Ġstrug gle
ĠS n
ĠS on
Pro filer
Ġspeak ing
Dr ive
Ð ¡
ub untu
Ver bose
Ġdiscuss ions
Ġd ram
C ref
Ġtranslate Y
Ġremo val
Ġg lass
. [
of ill
US Y
li ms
ach er
/ ",
er gy
ific ial
Ġgu ys
Ġcre ative
) ])
ĠP ot
D st
if etime
END ING
Dif ference
if s
Ġreal m
A K
Ġbus inesses
> ")
cent ral
O gre
Rep lica
Ð¾ Ñģ
ĠBind ing
) _{\
iv ari
mid rule
W ARD
ĠH O
Ġa z
ĠC OR
ra cle
. %
s ites
pro portion
ock ey
Activ ation
tr ight
ĠC apt
ir ms
? (:
DO MAIN
Ġfind ings
Ġback ward
Ġenumer ate
$ ('#
Ġstruct ural
S aved
ĠState ment
f loating
scroll Top
Ġtra il
STR A
exclude s
Re start
ah oo
Ġsem antics
Ġpop ulate
è ½
s izes
Account s
Ġband width
DEC LARE
Ġreli able
Ġchall enging
$ "
ĠAg ent
Ġaccess or
co okies
N AM
Ġg ro
w g
ĠArt icle
h olds
ĠF ront
ST ORE
mix ins
regex p
Ġ ĉĉ
Ġe lastic
ins pect
j an
Å Ľ
re cent
mod ify
ĠSt ory
stri pe
Ġget attr
dh x
Ġimp ly
p ressed
Type Error
Ġip sum
get Status
13 3
Rec order
Ġcomp ri
duc ers
k v
IO S
ers core
ĠD at
Ġ ~\
Se par
Ġassoci ate
Ġpublic ation
ĠPri me
get Num
lp Vtbl
Default Value
Par sed
ult y
ĠP riv
N L
ĠAd am
ĠW ilson
Ġhy brid
ĠB C
Ġinput Stream
m gr
_{ -\
Ġdomin ated
u art
M aker
Form ats
66 6
ĠExp ress
ĠBase d
Ġsub space
SE ARCH
Ġtra cing
d raft
m apped
ĠInter ruptedException
Ġt im
% =
client s
Ġimpro vements
st ors
elect ron
align ment
Ġcap ability
Ord inal
in ja
la pping
ĠL ists
Field Type
sp inner
LE X
Ġfor t
Det ection
F av
Ġexceed s
A jax
Present ation
x b
ãģ §
UST OM
Ġatt end
eng ers
Ġs lots
ĠC I
Ġtest Get
ĠJust ice
ĠB oston
Ġst derr
tra it
ev in
H ours
ĠBuffer ed
Ġoffic ers
Dif ferent
A m
f ocused
ĠSe lection
Group Id
ad ium
us c
Ġn d
Global s
Schedule d
Ġbr ings
ins ide
Ġre serv
Ġpl anned
c make
al ic
ap im
Ġg iant
au di
Ġhelp ful
ĠS a
Ġneutr ino
log out
not ice
Ġre construct
get Last
Ġresearch ers
0000000 1
Ġco variance
sub equations
WINDO W
Assert ions
H A
Ġy oun
Ġst retch
Ġdefin itely
R ename
Y M
Ġtal ent
ĠCE O
do jo
] ',
Ġa jax
namespace s
le ad
Ġy ellow
Ġc mp
col One
Ġgraph ics
Bit coin
Ġin trinsic
ri ers
Ġb a
Of Type
may be
gra ded
Ġ rom
ee per
ĉĉĉĉ Ġ
to o
Ġad vers
ĠArgument NullException
Ġdeal ing
Syn dication
Ł ¥
Ġp lots
Ġst y
Upper Case
ĠInv est
TOOL TIP
Autow ired
Ġarriv ed
C MAKE
Ġoverride s
Ġp ump
Ġpay ments
Request Id
Ġremain der
m art
Ġext ensive
as pect
cloud flare
Ġp lug
ne cessary
Ġalbum s
re cursive
Ġgener ators
Ġcharacter ized
Ġsub net
ĠCom Visible
( ["
Ġ ----------
ĠT S
ĠLab or
Anim ator
it ro
build ing
\| _
ĥ ½
Offset s
R W
Ġw p
s ensitive
ĠV e
T enant
CF G
ir k
ren ds
PH A
get Object
Ġpro min
tra vis
DIRECT ORY
\, {\
ĠPh oto
ĠChrist mas
ç Ĳ
ãĥ ĥ
dim ensions
Ġ========= ==
f all
Dat um
Ġexit ing
LI BR
I lluminate
ĠPac ific
Ġadapt ed
B P
m ation
pro tect
Ġr iver
Ġspher ical
' /
ĠR oom
Draw er
Ġmac ros
Click ed
T s
Ġis olate
Ġdetermin ing
or bit
dis pose
remo ved
^+ $
is Set
P OL
}{ $\
s peech
ĠMon o
s ens
Un signed
w ml
ĠT E
Ġ[ $
Ġmorph ism
T K
Ġplas ma
NS Array
Ch an
st ro
Cre ating
G AN
ĠE asy
Pod s
N LS
Bl end
Sub scribe
Ġask ing
Ġchunk s
Ġmin i
be zier
Ġs ight
Ġb ary
ķ ãĤ
M aint
H AVE
2 32
ĠH ilbert
ms gs
Sol r
@ @
assert Is
Con vention
Ġsu it
header link
à¤ °
å¼ ı
Ġtranslate X
Ġphot ograph
Ġcosmo logical
ĠDemoc ratic
Ġ" ."
Ġco ord
g row
Ġc um
ĠBe ach
Ġf ellow
ĠUn icode
u des
loc ities
A x
bin om
ĠSw ed
Al ive
Ð°Ð ·
; :
Ġc ros
Ġput ting
ck e
Ġg ran
or lib
ĠIN TEGER
com bo
COMP ONENT
fair biz
fairbiz deals
code haus
ST ACK
ĠRET URN
8 000
Ġan imate
with in
Ġa mazing
orient ed
Ġal ive
ĠSp lit
IC AL
el la
Di ag
Ġprint ed
ru gs
ĠARI SING
AL TER
ĠDet ermine
ĠRe vision
TIME STAMP
)) ))
Ġrg b
ç Ĥ
il io
Con d
Ġirre ducible
Ġt v
A pr
ĠIgn ore
ĠCo unter
med y
Ġy outh
en viron
ing ly
REG ISTER
Ġas sess
19 77
lat t
Ġad vice
card s
ĠSw ift
p iece
H alf
Ġrepro duce
get Child
T icket
R V
in ria
Ġe at
ib us
ong s
T re
enn is
Wh itespace
Ġs lave
ĠC over
ans as
Pro cedure
ish op
Ġcombin ations
ĠAnd rew
Ġalloc ator
an cing
PL ATFORM
de m
ĠUp dates
ul f
rol led
Ġph iloso
Ġinter cept
read Int
test case
Ġ lay
Ġt unnel
abul ary
Ġconcept s
: <
Ġ --------------------------------
j u
l ater
13 9
ĠFe atures
Ðµ Ðº
ĠH or
Table Model
language s
Ġaltern ate
Ġexpos ure
google ads
Function al
ĠLI ABLE
ĠComp iler
Evalu ator
19 76
bra cket
child Nodes
Ġb ott
process ors
Se ed
ĠLag rangian
Ġw inner
ĠTra its
i am
=\ {
arg c
c ms
ĠB and
j umbo
ĠData Type
C as
left arrow
Ġformat ting
pattern s
Ġscen es
Ġrep lication
Ġst udio
Ġg irls
ĠB on
Face t
. ;
Ġ× Ķ
Ġcom mission
Ġpro ducing
Ġres ume
: _
cre st
inv ocation
Ġord inary
lu splus
type col
las hes
out s
PROTO COL
x sl
ĠSc roll
Ġst ops
ĠChange s
ĠNew Page
Ġsouth ern
ĠE M
STRA INT
yy yy
ĠB attle
End points
Ġn arr
cite alt
Ġre ducing
de cess
Ġch a
ly wood
15 1
Cell s
IDENT IFIER
OnSearch Select
al bum
Ġcon cert
ĠCont ract
Ð°Ð ²
Ġs alt
Ġstand ing
dot net
Ġ ../../
Ġv ulner
Ġshort cut
Ġlog arith
imp lements
Mon o
Sign ed
Ø ¹
Pub lished
~~ ~
Port al
RE SPONSE
Dig it
, ...,
Ġ ath
new Instance
Ġ\ }
n ick
Ed ges
WR AP
ĠEqual s
Ġg ithub
G D
åĽ ŀ
vis ited
H IGH
Ï Ĩ
Ġre write
Ġtrans verse
Ġre name
tr an
Un marshal
B LA
i ot
Ġas sessment
Ġf usion
Deserial izer
Ġk inetic
ud p
Ġg od
cdn js
ĠAss ign
im its
Ġstart Time
ok u
ĠOper ator
sequ ently
T ap
Ġag ency
ĠAp pro
im ag
g ent
Da emon
ph ia
Ġp reference
Ġcenter ed
ĠCurrent ly
B N
Method Name
Min utes
D ynam
ad vanced
ĠFrancis co
quant ity
Ġm ob
Ġd p
Ġ{ &
ĠU SER
SE QU
ĠLO CK
as ible
Ġdoc utils
ĠIter able
Ġar my
15 7
mux er
' ',
In c
index es
Ġsub tract
deta ch
ĠC NN
Ġfix es
J B
Ġil legal
am d
inter rupt
\, ,
¶ </
ĠRem oves
mine craft
b mp
add resses
Un do
Pro position
Coordin ates
Ġlocal s
Ġc ash
Ġnew sp
MO DI
ar ial
ĠThe atre
Ġh ousing
i ri
}^{ +
mark up
Ġengine ering
Ġblock ing
Ph ys
ĠTest ing
SH OW
Method Call
C ause
\ },
ur istic
ut r
Ġget Type
Ġme ss
ĠPro fessor
}) ^{
s coped
schema Location
Re verse
Ġpoint ing
ĠUs ers
ref ptr
}} /
ĠAn gular
v tk
f ab
Ġbase s
leg acy
Ġ* >
est s
CI AL
a udit
Qu eries
Ġcor rupt
E sc
c z
Ġm ent
Ġintern ally
Ġimplement ing
Ġreal ized
Ġbus y
ĠQue ens
Ġin duction
ĠImp ro
cer ning
Ġs ister
Ġ\ #
D lg
end ants
starts with
ĠY O
g as
class ification
Ġappro ved
ivari ate
equals IgnoreCase
F riend
_{ +
Con cept
symp ad
P NG
}[ !
Ġcon verter
Configure Await
ad ic
Ġstation ary
O h
Ġview ed
ĠOb j
Ġult ra
Ġon Changed
RE SET
A CC
Ġfore cast
P lug
RO LL
Z END
Ġor bits
top ics
Ġc av
F ar
ĠĠĠĠĠĠĠĠĠĠĠĠĠĠĠĠĠĠĠĠĠĠĠĠĠĠĠĠĠĠĠĠ ĠĠĠĠĠĠĠĠĠĠĠĠĠĠĠĠĠĠĠĠĠ
Ġag greg
r st
Ġidentify ing
Ġw el
Ġclass ifier
ĠL ore
S outh
V iol
ĠB al
ĠS ound
ost er
ĠPro vider
Ġfall s
success ful
Ġsegment ation
å ±
ĠByte Array
up dates
ĠByte Buffer
Ġ' +
Ġeigen value
normal ized
Ġphot ons
Ġdoub t
For Testing
resp onding
çĲ Ĩ
P UB
Ġ// $
Ġconst rained
g host
Un marshaller
exp licit
Bench marks
Ġsup ers
Message Box
in ery
Ġpointer s
view er
has is
ĠW HE
\ }.
Not ice
J P
P ager
p ersistent
tr ust
ĠF air
Ġreson ance
s lides
cons ider
Ġaccomp any
pe m
reach able
MB OL
\ [\
Ġapprox im
un ge
Ġneighb ors
W P
ĉĉĉĉĉĉĉĉ ĉĉĉĉĉĉ
Ġvari ants
// -->
ĠStud ies
co ords
dispatch er
B en
r vm
Scroll View
ad v
Er rs
un confirmed
ĠZ one
m ul
Ġpro cedures
19 78
Mod ifiers
åĩ º
Ĥ ¬
pro vide
ä½ į
or ney
Ġtra it
ĠTime Unit
Ġtrans lated
Ne ed
U ART
Ġh istogram
ĠS and
ĠA ri
ĠU ART
Short cut
Ġvalid ity
AIN ER
Ġharmon ic
ro vers
Ġid le
W ar
Z ERO
Ġm igrations
ĠI ll
ãĤ ¤
Ġpract ices
ON Y
Ġexperience s
Ġre lay
xffff ffff
ph ysics
Ġfiles ystem
Mouse Event
Ġex ercise
Ġfull Comment
` );
} &\
45 6
Pre par
res izable
Token izer
fa re
($ (
Ġv ast
Com bine
Ġh ass
Ġapp ended
ĠSci ences
Ġf abric
Ġint ention
pri mitive
m ers
Ġc raft
Ġan imal
Ġset ter
RE SH
Rot ate
Ġinj ury
C riterion
jd k
Ġn od
ĠD ET
Icon s
St eps
get Request
control led
\\ \\
( **
W as
Ġb urst
mult line
ĠSte ve
w c
ĠNor thern
Ġre new
experi mental
Ġport ions
K V
Ġtrans ient
`` ,
"] );
ĠIgn ite
( ?:
mem name
alloc ated
dr ive
ĠG R
Ġdecre asing
et o
Ġ========= =
iem ann
Ġcut s
se ason
ĠP red
sr v
cre ator
Ġd ance
Ġimport s
Ġund o
` ;
Ġa udit
om er
ĠAdd itionally
Ġp k
ĠLog ical
Build ing
V IS
ĠF ermi
Ġin str
prop ag
Ã¡ n
Ġpro vince
De ferred
åī į
j ack
ĠCustom er
× ©
Ġbar rier
se gments
ĠIN VALID
the ory
el er
con verter
ĠEX PRESS
ĠEqu ation
Ð Ŀ
Ġt ill
ĠC op
Ġcontrib utors
ma iler
ĠRepublic an
( ...
small skip
ĠP ipeline
ĠT oday
HEL P
Ġposter ior
e se
Ġv ice
BYTE S
h ort
ĠC V
GLA PI
F our
S UM
ĠAssert ion
ĠEngine ering
A vailability
} ));
Ġmark eting
ĠC at
A sp
fe ction
TE MP
B IG
ĠD onald
Ġsu dden
h us
F H
30 3
Ġepisode s
ĠSouth ern
it age
Ġdeb ate
N ear
ud son
ĠG P
un pack
Ver ification
ĠEq s
ĠPRI MARY
Bl ur
UI Color
} <
Ġs ym
lo on
Ġ\ {\
ĠPub lish
Ġin dependence
Ġj ar
N ov
Ġproject ed
Ġemp irical
R aster
Ġ$ <
Ġon going
o ul
n umpy
TR IC
ĠTool s
M ov
B ank
sp onsor
mag ic
W elcome
t utorial
Ġ ë
EN G
SI C
'] ),
Ġcoll isions
inherit ance
Ġaff ine
ĠS A
et ies
Su c
åŃ ĺ
k r
Ch anging
h op
Ġd d
Ġescap ed
le ans
Ġst orm
ĉĉĉĉĉĉĉĉ ĉĉĉĉĉĉĉ
13 8
S y
ĠV k
Ġack nowled
+- +-
Ġover ridden
Call er
Ġnor thern
L atch
Ġn ob
ĠCor ollary
g fx
u las
file Path
pixel s
Ġunit ary
__( /*!
comp osition
ced ence
Der ived
D EN
Ġopp osed
Product s
i y
vis itor
v v
ĠSt udio
Ġmultip lication
qu eries
ĠF ederal
cent ric
re ets
Ġhelp ing
LE CTION
In Progress
ĠF ollowing
Big g
Prototype Of
Ġtrans ferred
M a
Ġ iv
Ï ī
ĠF ish
Ġexec utive
scr atch
M W
ĠS creen
Ġconsider ation
= #
Ġsp acing
at z
Ġtr ick
Ġpol ling
ig a
ce ipt
Ġneg lect
Ġf ell
up iter
Ġsco red
ĠI o
ĠR om
Ġhost ed
ĠRed ist
19 74
format ted
for ced
: *
Ġm v
_ '
x im
2 80
] ^
MUL TI
Ġbrief ly
ĠC ome
Ġan tic
ĠR GB
Ġmon o
}{* }{
b v
>< ?
entry Set
ĠD id
pr inter
ĠBuild ing
Ġst im
Ġlo ts
Ġtr iggers
ãģ ¯
ship ping
Writ ten
ĠO ffic
ar on
Ġm appings
Ġ[ :
ĠS EC
VO ID
ĠM icro
Ġan isot
ester day
Ð ŀ
ĠA CT
Ġdatabase s
Ġread able
ĠCal cul
property Name
gin x
Ġrapid ly
Un ited
>: <
ĠCG Float
burg h
Ġnav igate
ator ial
izz le
me mp
Ġv ch
ĠF ox
LIC Y
w orth
o z
type NameLink
Ġb ash
un i
Ġco ords
res erve
ĠFI ELD
ult ural
ĠN ON
Ġans wers
ĠM ult
Ġcre w
Ġmar riage
ä¿ ¡
ay a
Ġpro ton
Ġemit ted
">Â ¶</
N u
ĠMar shall
g wt
ll ing
:: -
ĠT I
ĠK im
Ġown ers
Ge V
By Key
ĠG reg
ert y
ok emon
T oday
App s
ĠD ement
ĠQue en
S phere
ĠCont ains
Ġanaly zed
ere f
ãģ Ħ
Ġact ors
ĠCON NECT
Ġan cient
G UID
=" %
Ġf urn
ph ys
di ents
Ġpod s
ĠWARRAN TY
pe ts
r q
rg ba
Bra ins
Ġexhib it
Ġgra b
M id
dis p
Ġpack ed
ĠTh rough
ĠM ah
not ifications
14 8
Ġre le
ow ski
Min or
s lots
Ġenhance d
get Field
h or
ĠĠĠĠĠĠĠĠĠĠĠĠ čĊ
Tab Index
Ġre aches
est imate
Ġac id
[] >
Inter rupt
Ġs now
hand les
s udo
ex emp
AB C
Ġsol ver
Ġsur prising
& ,
bo k
# .
end um
ĠUP nP
) ((
ND ER
ĠWHE THER
) }$.
Ġb le
Ġexam ine
Ġ iron
Place ment
ĠVert ex
ĠDe ad
Generated Code
Ġa id
Des cri
Î Ń
Ġ" ../../
Track s
Ġt m
ĠO x
in son
ĠN u
N a
dis crete
ts a
Read able
Table HeadingColor
Ġme dic
Ġget All
Ġhas attr
ĠB us
FRAME S
Ø ²
Ġy aml
l ite
19 3
ĠNull PointerException
P ersist
the tic
Br ush
ĠB ridge
ug o
> ().
t ier
get First
Ð°Ð ¹
ĠJer sey
we ets
P iece
Blue tooth
Layout Params
m or
à¥ ĩ
Ġali ases
arr ant
"> :</
ĠEx change
base line
illa ume
a rency
ĠInter rupt
Ste am
ĠRout er
ust ic
re gs
ç ´
wait For
SING LE
ĠOper a
> ());
Ġsh orter
dd y
Ġle ts
Ġ Å¿
{\ "
Framework Bundle
r us
Ġadjust ed
Ġver b
Ġin direct
ĠT ok
ÑĢ Ð°
}} ,\
N ever
Web Kit
Ġinitial izer
A w
Ġconfirm ations
d get
ĠA B
M ongo
O Data
| _
Access ible
t ario
Ġ urban
á º
fin itely
ps z
DF S
aris ons
Ġf lip
che my
Ġc n
Ġs and
ĠSum mer
ch ip
ĠTra ce
ĠM T
Is olate
BIN ARY
ĠOR DER
Ġel it
dig it
Ca ption
A RE
no thing
h uman
Ġre pe
ĠB ug
Ġintegr ity
Ġbl k
SS H
l w
Ġd c
Ġse es
Not Supported
start Time
ãĥ¼ ãĥ
B oot
h ass
Ġsupp ress
Ġskip ped
ĠÎ ¼
ĠDement ia
Edit ing
time zone
ĠAl ways
st ride
tright arrow
ĠB l
APIENTRY P
Ġpres sed
ich ael
QUE UE
k ed
add Child
C y
t ension
~ &
=" "/>
ĠTime stamp
xy z
app oint
ch apter
co vers
yl van
ĠOTHER WISE
ĠB ell
Re ports
={ '
ĠP RE
Ġab solutely
Ġactiv ate
assign ed
Ġsur ve
Script s
Ġjust ify
Ġin jection
UT IL
Ġsust ain
cp lusplus
ĠE lastic
ps oid
ĠF L
ĠB an
ÑĤ Ð¸
zer os
get Mock
ĠHo spital
Ġstead y
N d
collect or
p refs
ĠRect angle
Ġend block
Ġmaint enance
Î ¸
Ġ ist
Ġappoint ed
] ="
Cal c
Ġs prite
dd d
global s
ĠCo ast
he ses
Read Write
Ġf at
scal er
block ing
FO RE
ar ters
ag on
ri x
Fore ground
m igration
ceiv ed
Ġeven ing
source Line
h on
ED TLS
Frame buffer
Ġfile path
Inject or
Ġex emp
19 75
Ġmag azine
Or Update
con j
Ġpeak s
Ġabund ance
Check sum
lat ex
- '
Ġtech nologies
zab eth
ĠSe ason
Ġsaf ely
Ġp lotted
36 5
Ġs nap
d an
Ġc risis
mode s
comp ression
compare To
Ġw alls
close st
Ġind ustrial
666666 67
Ġmark ets
æŀ ľ
Ġturn ing
é Ŀ
ĠI ce
find ViewById
ĠSecret ary
Data Grid
\| ^
W ifi
res erved
Ġis omorphic
sm ooth
sp atial
set On
Ġchoo sing
ĠR od
ide l
B el
ST OR
gro ovy
th ink
ĠRe v
Ġclick ed
ĠR og
BIT S
>< ![
ĠSto ck
ĠTime out
Ġpick ed
T ol
Ġextra ction
Ġ= ================
Ä «
top Nav
ĠDe fines
str len
Ġvol tage
{ };
vi se
Ġher o
Ġrep lica
Ġdynam ically
Ġsing er
ĠP acket
el ian
get Next
ĠComp lex
An onymous
ĠDE LETE
Ġsample d
lic ate
MEDI A
Me ssaging
Ġab sl
Media Type
ĠSe a
C ut
ĠT ro
Ġp ushed
ast ers
vi ction
Ġde letion
Re covery
Int ro
Ġcirc les
ad vance
ĠIn di
Ġfriend ly
tr ansp
UT ION
B ubble
get Source
ht able
Ä Ł
ĠF riend
Ġle ct
Ġexplor ation
Ġh ls
cho ices
Ġprotocol s
Ġgeneral ization
K ills
pos it
Ġw ins
d ense
Ġfor th
Ġcon servation
class name
Ġside Weight
$/ .
p reference
}{ }
du ctions
Server s
maint ainer
17 6
bottom Nav
sv n
Ġbro ker
ĠR FC
CH O
Re call
ĠNot ice
Ġfight ing
ld ap
Web View
İ ·
Ġacceler ation
ĠMap s
" '
Ġ lic
ĠSt ation
Ch ooser
Ġra in
- .
AI LABLE
the y
H AN
get Max
Ġel s
append To
Ä ĵ
sh apes
ĠC ivil
it ud
Ġpro ven
Ġstr ange
ĠD T
r ans
Ġf lavor
ĠP rem
ĠSp ain
Sto ck
get ter
CONNECT ION
M oney
="# "><
UN I
To List
de crypt
ĠAUT O
ĠJ r
) !
= /
Ġt t
Ġdetermin istic
Resp onder
N ational
ĠAmeric ans
st orm
Ġexpect s
RG BA
Ġch ip
c rop
Ġget Class
ad words
ĠC ro
ĠM ultiple
Î ¬
Key Value
15 9
ile y
> ".
}) =\
Inst anti
: ',
20 6
ĠF A
Ġp g
Term inal
us ive
ĠH arr
interop Require
Fixture B
Ġbl ur
DI ST
ĠN umer
ĠG PIO
LI GHT
Ø§ ÛĮ
Ġconver ges
$ _{\
e i
Ġp ictures
pro jection
()) {
Com ma
D avid
set ter
ĠGe ometry
Al ways
def n
P FNGL
Out line
l x
ĠLab our
ĠR ot
ĠR ails
dis c
ÏĢ Î¿
Ġh ub
oper ators
Ġelection s
ĠT ORT
Di Container
ĠEnd point
Ġdecl arations
00 6
ĠA CE
ord on
B bb
Ġimp ress
ĠSup reme
TA IL
Ġlo ads
m ont
Comp ound
it ter
Ġpat ent
h ab
Ġclin ical
M en
enn y
Å Ļ
Sp atial
ĠTra ining
t ro
Ġselect ing
Ch rist
Ġin finity
ĠLL VM
w en
Ġ[ @
> ?
IMP ORT
COMPI LER
19 68
Further more
é ¢
her ence
ist ers
Dash board
ĠÎ ±
SETTING S
script scriptstyle
IsNull OrEmpty
Ġemb od
f abric
Dll Import
Ġinf lation
en queue
ol i
nav igator
cancel lationToken
Di agram
Ġu k
DiContainer Benchmarks
Ġs ac
ĠL oop
19 73
n om
Te X
S il
19 72
IMP L
ĠIm ages
Ġcross ing
qu ark
l iter
Ġun stable
Se qu
Ġslow ly
ĠM ask
ĠN C
background Color
if olds
Ġde ps
Initial ization
Print ln
n at
v l
Ġcount ing
mail to
Ġinter active
\| _{\
an onymous
_ %
Ass ume
diag ram
Ġpl ants
to Have
reg ression
r ats
Ġim aging
Ġst ick
Ġop ens
Ġurl s
ek yll
Ali ases
) ],
Ġh i
Handle TypeDef
PI C
Ġsc anner
pe ek
AS A
Py Object
ĠA sh
start ing
In verse
}} "
embed ded
S chool
ma de
Ġlos ses
s lick
ra cy
N orth
PI PE
Ġc aching
do ctrine
Web Socket
ĠM ut
!\ !
Ġsh allow
Ġenter ing
ĠDET AIL
W all
23 4
mp s
Ġany more
Ġren ormal
Ġv ent
Â ·
ĠCG Rect
ant t
pot ential
ĠF ill
19 69
wik imedia
ĠMed ic
ĠE r
15 4
Ġf ru
ĠPer formance
oo led
Ġdanger ous
è®¾ ç½®
Ġin jected
Ġour selves
some thing
as l
Ġfair ly
Ġturb ul
G PL
ĠCon verts
ĠW all
che v
g ender
Ġch ains
ptr c
åĪ Ĩ
Illegal ArgumentException
Prec ision
Ġcol le
Ġge m
Ġback wards
8 90
(" ../
rect angle
J O
ĠUn known
Ġstring With
Ġdist ort
Ġpo se
en ium
Char set
"> ()</
File Info
Re quires
Ġpop ulated
(" :
cc ion
Ġan g
ĠFore ign
Ġland scape
ł ģ
ĠW H
Ð¾Ð ¶
IFI CATION
ĠActive Record
Ġ= &
Ġag gregation
Ġ Ñĩ
ĠP ATH
Ret ention
is en
Ġpy test
u z
i ary
Ġcool ing
OR IZ
sm ic
effect ive
Person al
Ġmis sed
ĠMich igan
Ġexpla ins
DB C
R ol
ĠS ir
ext ent
D roid
26 3
Ġâ Ķ
@ ",
Ġdi agnostics
th in
Ġfall ing
config s
Ġacade mic
) }$,
auto ref
Ġt cp
/ ${
T AB
ĠFoot notes
ĠO wn
-> __
network s
c ube
Ġreal istic
ĠComp uter
Ġfor Key
i ated
Ġg amma
ĠNS Mutable
x p
}} ;
S ampler
ä¸Ģ ä¸ª
ĠE gypt
ĠI raq
Ġhe aring
respond s
'=> '
Ġtri ple
/ &
auto complete
e ah
file set
Ġin tr
SE L
Cont ain
# /
ĠZ ero
ial s
remove Child
ĠIN DEX
ĠF ac
sp ath
Ġ licenses
ield s
H i
W nd
ĠN EW
Man ip
14 1
ĠC Tx
Ġunit test
M utation
ĠP i
over set
next Token
Ġhe ter
bl k
Ġaff ili
\ }_{
sequ ential
ĠPro vides
ĠWith out
B oost
W rapped
() )));
ĠN orm
class method
E F
F raction
n orth
s low
Ġblock ed
Ġdifficult y
T witter
(' ');
Ã ´
et t
ard own
ĠBra zil
Ġstri ke
18 7
NET WORK
Ġqu as
Ġcomp oser
ĠT C
ĠRe quire
AL PHA
Ġz eros
n ik
Ġe co
out e
ĠSh are
PY THON
| =
URL Request
Ġneighb our
sess ions
CG Float
ĠP os
track ing
Inv oice
Con cat
RE GEX
ĠG reek
Namespace s
Ġb on
Ġch ose
St ation
Ġfif th
nol imits
le ter
U Integer
Ð°Ð ¿
w ing
ĠE FI
Â »
s am
ç ¼
par ame
Ġre ar
Ġfit ted
Ġ= ================================
sourceLine No
SA MPLE
ĠOVER RIDE
ĠH ave
}) ();
tra ined
Ġquot es
Ġp ix
; .
ĠF S
ĠOper and
V oice
Ġb ul
new Value
n ical
Ġsp ell
Ġmaint ained
he ll
Ġviol ation
Ġ ib
In herit
Pro tection
ener ated
un ed
Ġ|| =
Logger Factory
Ġspace time
b pm
pos ing
Rem aining
Attribute Value
Ġit emp
d to
mong odb
READ ME
g f
Ġs la
u able
Ġm ismatch
14 2
Ġentang lement
Ġw inter
An t
Ġexperience d
friend ly
E t
S sl
FOR CE
19 8
ylvan ia
E lastic
ĠBro ok
Node Id
P olicies
Ġult imately
ĠDI RECT
b urn
h ssf
ink s
Ð¾Ð ¹
Ġoption ally
T ail
on ing
ĠE ither
S che
Ġs av
Ġkey words
Dec ision
ĠC amera
ĠG i
Ġ# [
Ġlo sing
× ŀ
Public Key
h skip
spher ic
16 7
L ng
en ses
Ap J
fore ground
TRAN SL
. },
To Int
ĠTH EN
Aff inity
ĠUP DATE
d uplicate
Ġ unt
20 5
ç Ń
Man age
S on
ĠG er
control cap
Ġarr ive
Ġ` ${
multip ly
op p
Ġne ur
= -\
t ion
ID S
ĠPer form
Ġreg arded
2 12
ĠB as
cond itional
OPER ATION
Ġ} $
3 30
Ġcombin ing
Ġance stor
to UpperCase
INTER VAL
ĠLe ss
assert NotNull
Ġn m
k ov
M ixed
Ġq view
lu es
an other
Ġd up
Res olved
Ġre quiring
definition s
= <
Ġ} }"
For Type
gr ant
Leg end
orph ism
Ġgovern ed
ĠAn g
ĠUp dated
_{ {
Ġass ist
Ġdisplay Name
Ġpoly gon
ĠIss ue
================================================================ ========
th ur
Recogn izer
Ġis o
c lang
w r
Log o
Un ity
check s
amp ing
AT TA
Ġnon zero
ĠTest Case
ĠA rial
Ġmathematic al
p q
fra red
ĠComp lete
Ġuniqu ely
ĠGeorg ia
pro posal
Char acters
Ġa warded
}{ {\
Ġsub section
ĠFoot ball
AB ASE
H P
itution al
ĠA th
ĠH R
Mark et
ĠDepend ency
G PIO
Ġop code
contin uous
jet ty
Ð¸ÑĤ ÑĮ
Ġatmo sphere
V IDEO
A O
Ġen c
Ġsp o
dis covery
ĠTh anks
Ġincre d
ĠC RE
Ġdelay ed
an cer
Ġde coding
ĠKore a
T iming
è¯ ·
Http Kernel
SY MBOL
f und
æľ ¬
quot a
Ġattemp ted
ĠLat in
n okia
n as
MODE L
BIND ING
28 8
r h
); </
ä½ ľ
Ġitemp rop
instance type
Ġaffect s
Ġt uples
vi et
Ġch rom
Ġhot el
Co ords
Ġm ental
. (\
SE CTION
Ġerr no
Part itions
Cour se
ch tml
Ġparse Float
SA FE
l ift
ĠP ER
JSON Object
Ġb attery
ĠL D
Ġinterest s
Ġmatter s
Ġvol unte
ĠW ales
ax es
is In
ĠF ormal
15 8
Ġjust ice
su c
ĠPo isson
Ġm ixture
RO LE
PE D
Ġsort ing
ĠM L
, ~
em a
ind s
D am
clear fix
! ",
15 3
coordin ates
user id
Ġsur g
co uld
Ġshoot ing
b ury
pre pend
Ġne gl
VAR CHAR
Comp osition
ĠTrans fer
00 8
Ġobvious ly
} ):
Thread Pool
sect et
æĸĩ ä»¶
ĠP air
Ġaccept able
DE SCRIPTION
Ġs oc
ĠS can
Ġ* >(
middle ware
Ġcon sumers
min utes
con version
Service Provider
Right arrow
ref lection
F RAG
pair s
t ically
st raction
ar x
igh th
n ci
Members hip
Ins pection
Ġb ins
= ="
c rit
Ġcor related
radi ents
Ġdem oc
Ġdi ameter
per f
An ce
Or Create
Ġp ane
Ġcollabor ation
55 55
ĠH OLDER
SPE C
k ar
Ġt ack
ĠVER SION
is Debug
rol lable
Ġis Equal
Ġco res
data Type
RO ID
ROW SER
ĠSource s
Ø ©
T om
}} =\
ĠDO C
ol is
Sp in
ino is
Ġo u
Ġwill ing
leq slant
ĠT x
m usic
ph ra
12 00
Ġalong side
Ġd ans
am big
Ġpul s
Ġresult ed
50 1
Ġre aching
ĠâĨ Ĵ
Ġm ile
w izard
So ap
omin ator
fil ing
ĠU LONG
AD MIN
or ite
loc ator
ĠEX ISTS
dal vik
b olic
rep resentation
Ġr df
ĠInt el
ĠD imension
ve als
åı ĳ
N F
Ġalle ged
P aste
Un safe
Ġde cade
member Of
ĠEmp ire
re search
' ^
); "
Ġcon e
Ġi e
mem Separator
Ġge odes
in flux
Ġcontinu ation
ut c
ĠC irc
aff ected
H PP
f lix
Ġsimpl ify
ĠFile System
VI SI
XX X
mean ing
Q A
S ales
ĠB order
ĠFRAME S
Ġsubsequ ently
Ġpro position
report ing
her o
PORT S
not in
Ġhum ans
ĠM ongo
ĠJ s
Ġve locities
Ġor ange
Ġg lad
Ġsk ill
Tagged Value
ĠP ear
bro ker
ent h
ĠF ragment
è ´
Ġc rypto
Ġab use
to s
Ġcollect or
ĠS cope
17 2
åĢ ¼
Ġwe alth
f printf
ur ator
| _{\
ig s
Ġv otes
DEP TH
">< ?
Ġspect ros
ĠSign ature
Ġanim ations
ĠN aN
Ġar ise
request ed
C ampaign
M apped
lick r
ble ms
ĠMar shal
ĠMont e
19 1
im ode
les cope
ĠSH A
V OL
Ġequ ally
Ð¾Ð ¿
us ual
Ġre cv
function al
Resource Manager
f ancy
Ġperturb ations
REFER ENCE
S ans
ĠPak istan
Get Instance
Argument NullException
` ](
Ġun changed
Ear ly
amil ies
ĠX HTML
at is
20 9
Ġdiv ide
ĠBit map
################################ ################################
ĠSc ene
Deserial ize
R U
in ventory
get Connection
ĠP a
ĠDes cript
Ġcod ing
g uest
computer output
15 6
Ġmut ex
DE S
/ ~
Ġw ake
open source
Ġfraction al
Ġhundred s
order ing
Ġin nov
Ġsee king
ĠOpt im
Ġm g
ĠS ame
× Ĳ
cl ing
Ġpartners hip
Ġtime line
ĠK on
Ġbuffer ed
ĠScal e
× §
ure n
col group
Ġac commod
Wait ing
n ed
st an
face s
big cup
UB E
ĠNot ify
Measure ment
set Timeout
LA IM
ĠImp lementation
Ġman aging
ĠS oc
ĉĉĉ ĠĠ
Ġm ine
Ġoper ated
W ho
Ð¸ Ð¼
z k
li est
Ġpop ulations
Ġ! $
ĠDist ributed
Ġt ap
y al
2 33
ali ases
B SD
: $
Ġclass ified
ib lings
Ġauthor ities
net beans
ĠB oy
Unit Test
ĠÐ´ Ð»Ñı
M SC
b link
ĠQu ick
Ġlo ved
Tool kit
Ġs v
data Source
Ġalgebra s
Ġtalk s
Embed ded
i Name
k ern
å Ļ
Ġcontradi ction
Comp arer
k ra
Ġcr ystal
writ able
An imated
Ġtransform s
Ġco al
64 0
Ġtro uble
Ġb one
ĠP atch
UN T
Ġed ited
NS Integer
b abel
Ġun translated
Ġexpect ations
ĠIdent ifier
Ġis l
ĠA vailable
Built in
Ġm ort
Ġminim ize
... ");
Acc um
Ġquot ed
ic ken
Ġpen alty
ĠTra de
åĮ ħ
Ġ ride
ĠHe aders
String Value
Ø§ ÙĦ
Re cursive
ĠI DE
ma king
ĠOh io
Co ver
Ġcon sectet
Ġint el
ĠH op
re cur
inv oice
K i
or ne
set Up
cont aining
User Bundle
Ġsw im
Re trie
ĠEx it
Un iversity
19 67
18 2
W HERE
åĻ ¨
fin ing
=' "
PREC ATED
W ave
ack s
s al
Ġsim ulate
store d
ĠSpec ify
Ġanaly tical
e try
Ġ> ::
User Data
40 5
ĠD am
driv en
*/ ;
PO INTER
Ġwalk ing
TIM ER
in fin
priv acy
(' --
ĠK n
Mo vie
ee e
b ay
Ġde serialize
Work Item
Ġb ought
Ġport al
Ġun ivers
Ġcommit tee
PRI ORITY
Key Event
Ġactiv ated
A ug
ĠC ra
ĠInv oke
Hand les
Ġcontrib uted
Ġm il
Ġres istance
Ġtr uck
M ATH
Ġc x
Ġtraject ories
Ġe lems
iter ation
\, .
Ġc ab
Ġnon atomic
Column Name
Ġaccompany ing
SC I
opt imal
0 22
ĠHe art
Ġt ensors
table t
Exp iration
journ al
4 32
19 64
PAT TERN
Ġint elligence
Ġbas ically
ĠMod ern
ĠH lo
Ġtermin ate
umn i
Ġperformance s
Ġtoler ance
Ġin compatibility
Ġpro vision
do ctype
ĠÐ½ Ðµ
f ers
ĠDes pite
B id
a des
j ena
Dis connect
istor ical
Ġ= "
Ġp v
Ġfield Name
ĠI C
vi o
de ferred
Ġwe apons
Sp ot
ĠF lu
Ġlat ent
Ð°Ð ¼
Ġcle ared
Up dater
Ġinst itutions
Ġmin ing
ĠQ R
j j
Â Ģ
ĠG allery
she s
Ġpres erved
Ġcrow d
E v
EX IT
c wd
Pro be
Ġcom b
' $.
Ġd il
With in
g nu
ĠR ound
p assed
ham crest
Ġre in
Ġm useum
be e
h ind
è ĩ
% {
Ġdiver se
} ')
ĠB B
' )$
ul la
Ġsp ending
renew command
_ :
Ġg tk
sat isf
ĠSIGN AL
He art
åĬ ¨
decl aration
ĠG B
Ġillustr ate
Ġv it
Un ix
; //
ann y
Ġcoup lings
sent ence
30 8
T im
Ø§ Ø±
p unct
in herits
Ġn ick
spec ies
ĠCon current
Ġhe ads
88 59
ĠPre vious
AM D
super vised
ĠDeter mines
if ting
Ġpro fit
ENT ITY
Ġp un
ĠAlex ander
19 71
Value Error
Ġover head
pack ed
S ocial
Ġ` /
al ive
I de
Ġd iversity
ĠC ru
Ġp ic
PRO GRAM
be haviors
ĠJSON Object
H is
Ġ} ]
bib li
v codec
Ġcon tr
ĠM iller
Ġ' ?
ĠP ra
unit Pattern
resize box
sp ort
Ġla s
' });
it on
(" --
), (
ĠN ick
o cop
Ġbu gs
qual ified
Ġad voc
HE IGHT
ci pher
ÂĢ Â
sc atter
Ġconstruct ors
emp hasis
Ġqu it
ĠBu ilt
D ue
ver batim
ĠCert ificate
Trans formation
ĠM PI
ĠB ru
own ed
Ġte aching
P ID
S LO
key Set
Context Menu
wallet Main
ĠK ong
Ġsub sets
Ġpl ural
Ġhon est
23 5
Ġident ifies
lin eno
Ex clude
Ġco herent
Ġefficient ly
Ġhistor ic
Ġto w
ĠL ew
Re comm
ĠF ord
Ġbring ing
Ġtra its
Ġm ong
Ġ" \\
experi ment
ere o
Ġex ha
lo dash
ert ow
ĠOrgan ization
GL int
quot ed
Ġartifact s
ĠN ET
f ollowing
ver aging
Gra de
Ġo mit
ĠInst alled
G ate
Ġcont rovers
ENT S
ĠP AGE
Ġso lo
Ġagre ements
al go
âĢ ī
H a
s ymfony
Ġg ulp
Ġcont rollers
unc y
ĠPAR SER
In flater
nes ota
text Content
Ġfeat uring
Ġhydro gen
Reg ions
ĠI lluminate
ĠR os
var pi
ĠS L
ĠM att
lect ic
Ġs d
un expected
ns ylvania
ĠFrame s
b ag
Ġk illing
al ready
Ġcon servative
scri bers
++ ,
ar dian
ĠE L
iline ar
è Ģ
ter ior
ĠJ Query
C are
S Q
Ġh ist
E OL
Ġt b
Author ity
Ġph rase
Ġelement ary
REQUI RED
Ġcomp ound
ĠSpecific ally
Ġaff ord
il ers
ĠD uration
ĠN GC
J ump
c gi
Ġe lapsed
iv ar
ĠPrep are
V k
Ġif f
Ġv ib
RE NDER
Ġs ad
åľ °
Ġ' .'
Ġdesc ent
Ġhealth y
Ġparame tr
} ~\
å ŀ
3333 33
Ġ icons
Ġre venue
ĠPri mary
qu iet
Ġp ow
oid al
Ġpure ly
Ġde limiter
ç ¨
am an
Page Token
ĠD NA
Ġback ing
SI X
ĠMark ov
contact s
Ġinter ference
ĠTh ose
TR IB
Bu ff
Ġpre d
Ġinv olve
ĠE T
Ġswitch ing
ĠC U
dat asource
D RI
in strument
ĠED IT
co d
dat atype
Ġpub lisher
separ ated
Ġin ferred
Cont rollers
ĠRE F
LE G
# [
ĠMo vie
ĠLook up
ĠP I
ĠL ap
Ġelse where
Ġglob ally
i at
ĠP ossible
ĠC annot
light s
Mode s
Ġlat ency
g dx
ÑĢ Ð°Ð½
inter sect
ĠSTR ING
ĠEn coding
Bu g
ĠY ii
Ġexport ed
ç łģ
ĠS F
hav ing
o ffer
wikimedia ui
g ue
Ġshift ed
ĠMOD ULE
Ġrestore d
Ġp references
Ġch iral
im o
18 8
M agento
ĠB ooks
Ġpy lint
ãģ Į
Ġfeel s
ĠGu illaume
Ġsome where
Hy per
Ġb aby
ph inx
PRI VATE
ĠSyn opsis
Ñģ Ñı
Primary Key
ĠUn ique
| --------------------------------------------------------------------------
19 6
ANG LE
Ġm r
ĠĠĠĠĠĠĠĠĠĠĠĠĠĠĠĠ ĠĠĠĠĠĠĠĠĠĠĠĠĊ
Ġheav ily
uzz y
ĠW riter
Exp anded
25 4
Com munity
xml ns
H its
Ġab and
P x
Ġdeploy ed
b ur
Ġdirect ives
Ġembed dings
CT X
front end
MODI FI
. ';
Ġ" :"
to gether
Ġcent ers
Fact ories
ĠĠĠĠĠĠĠĠĠĠĠĠĠĠĠĠĠĠĠĠĠĠĠĠĠĠĠĠĠĠĠĠ ĠĠĠĠĠĠĠĠĠĠĠĠĠĠĠĠĠĠĠĠĠĠ
ĠEast ern
ĠC BlockIndex
Ġexpand ing
lin der
Ġlinear ly
Med ium
me try
ĠP E
wn d
SO AP
Ġhome s
ome tries
CLO SE
Ġde scriptors
class ifier
n h
Ġoff line
ĠCON F
ing ham
rt c
ĠDec imal
document s
Ġf t
Ġl ens
Ġp sz
Ġcopy ing
S park
ĠR h
ANG O
Ġnamespace s
Mag ick
altern ate
ĠB rand
p ivot
Ġnew er
Ch apter
Var i
Percent age
Ġres id
Service Response
åĿ Ģ
Å ¥
Ġmin ister
EN C
M illiseconds
ç ¬
Ġprogram me
y ard
19 5
ĠAl bert
ĠMon th
k ie
Absolute Path
Hel vetica
pp le
}$ &
ĠIs lands
del phia
Exec utable
ĉ ĠĠĠĠĠĠ
Ġto urnament
ÑĢ Ð¾Ð²
Ġsignific ance
De ps
document Element
ĠM AC
Tool Tip
v est
Ġincreasing ly
typeName Label
ĠH an
P ot
Ġp ray
ĠW is
p om
y u
ro oms
co lour
clip board
if ace
ĠS S
ĠT ouch
ĠSerial ize
sur vey
R P
get Response
Ġpul led
Ġgroup ed
us able
md c
() (
End Point
der eq
Spec s
ĉĉĉĉ ĠĠĠ
ĠĠĠĠĠĠĠĠĠĠĠĠĠĠĠĠĠĠĠĠĠĠĠĠĠĠĠĠĠĠĠĠ ĠĠĠĠĠĠĠĠĠĠĠĠĠĠĠĠĠĠĠĠĠĠĠĠĠĠĠĠĠĠĠ
19 65
í ķ
set Type
Ġw aste
ĠB rian
r ations
or able
Ġquot ient
19 66
Ã¤ n
ĠUS ART
Ġattemp ting
Ġgre w
ĠMock ito
Sub net
range s
ĠScal a
W AL
from Now
Re ach
Ġexpert s
ĠROW SPAN
Ġp ing
col lapsible
las k
Ġamplit udes
ir s
ãģĻ ãĤĭ
Ġb ath
event Name
Ġmolec ules
Ġbright ness
Ġtext area
Ġmem set
G uest
ach u
b illing
Ġb ass
Track ed
Present er
ĠTag s
Ġc uda
ĠLog ging
Ġwest ern
Ġcorrespond ence
Ġ@ }
ĠSER VICE
es Module
è ĥ½
sc ious
unt ing
Ġsn ippet
Time Zone
Ġc ensus
ĠYou Tube
Ġt foot
ic he
B ROWSER
s ampling
- &
z A
ĠS quare
qu it
Ġsub mission
ĠAn t
! )
ĠN an
ategor ical
Cod er
ÑģÑĤ Ð²
ap ore
å »
get X
Ġre lies
Ġ) (
ĠW at
pur ple
J ul
H old
Ġconfirm ation
C assandra
Ġco uncil
Ġperfect ly
ĠF O
****** *
Ġpromin ent
Ġsk ew
w l
db g
m h
App lications
Fetch er
Ġapparent ly
CALL BACK
ĠB LOCK
A ES
=" &
}, {"
first Name
," ./
_ <
() ");
IR Q
Ġcon formal
ĠPri ority
ĠL arge
Ġarg ue
P LAY
Ġaccess ing
Ġde leting
CE D
Ġpos it
ĠR iemann
gr p
Ġwrit able
Ġstudy ing
. }\
w ich
GeneratedMessage V
ro ck
Ġlimit ing
Ġpre g
R CC
s chool
un shift
sp awn
G ro
L IT
Ġcor ners
IP S
Ġadvert ising
A lex
S COPE
get Size
n oop
~ (
lf ind
Ġun like
Ġx y
Al bum
enn es
V endor
ĠUn ity
Ġintro ducing
ĠCall ing
W hether
ĠAs ian
ĠG ENER
ĠS IG
ĠCo ordin
CO D
Ð¾Ð ·
æĮ ĩ
En ergy
Ġstop ping
i est
ĠW ars
File system
Ġins ight
Output s
L ater
b ill
Sim ilar
Ġh arm
Ġf lav
AA A
åŀ ĭ
* -
Ġdis joint
Sp inner
i Sector
15 00
I CON
") [
Ġhouse s
ub a
ĠRe member
Ġcircum stances
ĠRe gex
remove EventListener
Ġchain ed
sc anner
ĠP resent
custom ize
é Ķ
Ġf lood
ĠSim ilar
R SA
comp oser
Ag gregator
Ġp unct
ik es
Ġa ims
Ġmount ed
Con ver
let able
ĠLANG UAGE
v dots
ĠM os
æ Ľ
== '
ĠMe asure
Ã¶ r
Ġwor ry
oc al
sub stack
Ġper manent
Ġack nowledge
ĠColumb ia
Client s
in ate
os itor
U ME
ĠR yan
Ġlocal ization
Big Decimal
Ġpsy cho
" &
ren ces
Ġdescri ptions
Un less
AV AILABLE
Ïĥ Î·
C ls
is lation
Ġget Id
Time Unit
ĠSt age
n ie
Ġan ten
off ice
Ġat tended
ĠIn struction
Ġarriv al
cre ase
ĠL es
Ġch mod
ĠDi rac
19 20
Ġcommun ications
Ġp name
İ· åıĸ
mo jom
Data Provider
Sur vey
Ġ... )
iv y
Ġm x
AT AL
ĠF all
24 5
Ġtell ing
D an
Ġhere by
Ġinsert ion
er ender
Ġp df
ĠR en
enc er
B er
d or
d ock
Ġadd ressed
se a
Play back
Ġoutcome s
da emon
ile ges
require ment
ä¸Ń çļĦ
j st
Ġcl ar
ĠC onse
PO LICY
Fire wall
ĠSt atistics
}^ +
Ġt angent
bu gs
dis cussion
Th rift
C Q
Ġemploy ee
äº Ĩ
M N
un less
ĠM otion
Ġus b
H uman
J ournal
ãģ ¾
()); </
Ġcloud s
interopRequire Default
~ /
Ġ' (
Ġweak ly
S qu
Ġ Ùħ
up id
ĠL ar
SS ING
Run With
22 22
f rm
x it
is pan
Ġmark ers
Ġc ir
Ġanalog ous
O US
ĠD one
Group Layout
Ġtyp ing
ub ect
DE ST
Ġreflect ed
ub es
ĠC riteria
ĠAn th
Ġsat ellite
ĠSt udent
Ġsuggest ions
Dev Express
AP H
n or
ĠC lock
dump s
get Width
Ġexp ired
Effect s
Ġmargin al
y ui
part icles
Ġdetermin ation
Ġinteract ing
Ġaverage d
Ġ// ////////////////////////////////////////////////////////////////
ĠDr ive
post gres
ĠS td
oo re
Ġen velope
quest ions
ĠCom ments
Web Contents
Ġag g
blue tooth
gs ql
v skip
sc ience
be y
im en
ĠH al
Ġdo ctor
G allery
M U
t te
Cont aining
ĠN avy
reg ions
Po ssible
ĠR CC
23 7
^* _
Test Utils
Ġac cord
Image Path
track s
ĠRetrie ves
Ġjav ascript
b k
Ġbad ge
HttpServlet Request
St encil
Ġ[ %
ĠCla ret
Ġequip ped
ĠSh er
d os
(( *
ubect l
2 16
ĠP Y
Ġst amp
M is
ĠMessage s
Ġno translate
ĠRead Only
ĠPri ce
Ġtermin ated
Ġc lang
ĠC e
Background Color
> -->
Ġ ../../../
Ġun ity
; @
ĠS ans
S END
al lax
SQL Exception
Relative Layout
Ġquad r
pal ette
ĠM SG
}} {{
Temp lating
ĠPer iod
check sum
Ġcompreh ensive
Ù Ĥ
rest riction
ĠPay ment
sp lash
Ġre serve
key up
Ġmod ifiers
Ġimplicit ly
STOR AGE
iv a
Dump er
Ġconsequence s
C pu
get Application
Http Foundation
Ab a
s outh
Ġsing leton
PK G
ig or
C ube
Ġ Ïĥ
an z
base dir
">Â «
8 64
ĠC esium
is Object
}{ %
Ġc rop
ile ged
ĠK ent
Per formed
table block
ĠAd vanced
ast y
ME T
Mag ic
i u
Ġc sv
Ġv c
ĠU Int
Ġdis order
Cre ates
Ġvan ishes
U GIN
Re search
ure au
f id
Brows able
oo keeper
ĠV en
Ġaux iliary
end points
ĠConst raint
ĠEli zabeth
Ġin de
Ġc ube
Im m
Per form
17 7
ĠLoc ale
Ġre build
sk b
a is
s ms
ĠB lob
âĢĻ ,
0 30
v ch
Contact s
Ġcitiz ens
Ġ* ************************************************************************
Jet Brains
re aded
Ġjoin ing
d ynam
ĠD R
check ered
Ġing re
æĪ ·
J AVA
ARG UMENT
Activ ate
UN USED
stri ped
è ±
Ġex pose
ĠDest roy
Ġm outh
che f
d ney
Ġo x
ĠA rc
Met er
ĠAnd re
nt z
ĠT ony
âĢĻ .
ĠCon sumer
quant um
un s
}) _{
list ed
sheet s
æ ı
pro ducer
Ġrecogn ize
Or ders
tain ment
ss ions
ul ators
Rep licas
Ġappro val
In et
UI View
n atural
al ous
ĠL ang
text normal
st aff
ĠEn t
find One
ãĥ ©
CG Rect
Ġm utation
Ġd omestic
Ġgre y
Temp orary
is ations
AB I
Ġ{ {\
open ed
A H
N aming
Ġre named
Ġh ur
Pro cessed
ann on
SU FF
Ġper mutation
áĥ Ĳ
Pal ette
Ġm c
ĠO PTION
Ġpr inter
Ġtrunc ated
Ġp run
sort able
ID R
Enumer ation
Ġphenomen on
Ġle ak
que ued
Ġw char
' $,
ut ures
Ġrelig ion
ĠP ers
ne ver
Ġexcit ation
w oo
ĠK evin
N B
}} )$
P js
C amel
df p
ĠAdmin istration
tern oon
Ġj a
Equal ity
user model
Ġprepar ation
Pro files
m agn
ĠHOLDER S
Ġ(! _
18 5
es cap
ĠT AG
Ġm andatory
Ġcol lapsed
e z
Ġf init
Ġr uby
Ġen emy
Ġsh rink
We ather
Ġcon jecture
ĠB ranch
Ġext ending
G aussian
vol ve
Ġadmit s
Cre ative
unn y
Ġgood s
ĠTor onto
ĠDif ferent
= (\
h yp
Ġguarante es
Ġ\ !
Ġcap s
Gra d
Ġco smic
Ġsimpl ified
ï ¸
lom orphic
P et
S pect
Ġflex ible
AAAA AAAA
et ics
cor r
TR ACK
H op
off s
c in
Ġrel ativ
C tor
d ruid
ĠAlloc ate
Ġf lo
}/ {
Â ©
min imal
V s
ĠHttp Request
il inx
Le ader
Ġdown loaded
progress ive
h b
D ns
Ġre covered
ĠAn notation
Ġin ventory
Ġy ii
ron s
Not ifier
ron o
ĠMc C
Ġre written
ain ter
op code
Buffer Exception
Ġthe mes
Ġyoun ger
O Caml
ĠA k
Ġpro test
sh int
Ġfile d
Ġre tail
Ġd rugs
iz ar
ĠQueens land
ge ode
Ġe state
ĠSch olar
Th ird
Ġin clusive
ĠC lint
check point
ow s
present ation
Ġlat itude
ĠComp osite
t ur
å ¿
de e
RE MO
ĠSte phen
Prop Types
Ġsens ors
Ġconsectet ur
.. "><
Ġa xi
Play list
get Properties
="../../../../ .."><
Ġstats models
a ug
m vc
ĠA GN
}} }{
ĠOper ations
g w
ĠData set
Ġdesign er
] ["
b urst
Ġg allery
Ġproof s
und a
ĠD oug
box es
hed ral
ĠConstruct s
' }\
Ġb sl
enc ia
Clo sing
4 28
A rena
Ġsever e
poly gon
Ġprom otion
Ġsp awn
prob ability
) |\
Dis posable
Ġpot entials
ĠstringWith Format
ĠB at
P aren
ĠS us
Ġoccur rence
eler ik
Ġpro ves
ĠL azy
Ġloc ator
Ġup loaded
Big l
Ġins urance
Equ ation
}/ ${
uct or
16 2
ĠRed is
Ġreal ize
( #
Ġre veals
Ġgoogle api
Ch arge
Require ments
Ġpa ssage
)) (
Sim ilarly
aren ess
Ġme s
P ic
Ġsh ips
Ġwait For
ToolStrip MenuItem
Ġ$ -$
lo be
Web API
Ġst oring
(' ../../
ĠREQ UI
Ġre min
ĠAn ton
exp onent
coup on
rf c
ĠOver ride
un register
ĠTop ic
get Table
Ġ/ =
the se
Ġhappen ing
S andbox
ç ®
obj c
Ġun likely
">( <
Ġrestaur ant
s ong
Autom ation
S un
_{ [
ĠR EL
Ġdec ays
ric ing
l is
}) -
ĠImp lement
Iter ation
Ġrelax ation
un bind
Ġal phabet
Ġcon cerning
ĠRe gistry
Class ification
ĠPart ition
Ġe ig
ĠSta ff
ĠF orest
sc enario
oc am
="../.. ">
c rawler
de z
Form ula
ro gate
ĠAnd erson
p ig
ĠE P
Ġac quire
call er
FOR WARD
amer as
K ube
è± ¡
K eeper
Ġ?> "
Ġf acing
H ive
Ġa ges
aaaaaaaa aaaaaaaa
is Equal
param name
ass ociated
ĠC ould
under set
bus y
Comp ressed
P ers
dd dd
16 1
PA Y
Ġemerg ency
Y ARN
or ation
set length
ĠMat hematic
get Local
ĠR ose
Ag ain
D H
ĠJ ordan
Ã «
ĠA cc
ĠMo zilla
content Type
Wh ich
R en
AT T
o a
' }}
ĠF lat
ITER AL
AL T
ĠSe gment
/ <
ĠA mb
v ote
ĠI l
ĠTh ird
get Root
ĠL ower
De fs
Ġamp l
mem cpy
<!-- [
åĽ ¾
G tk
h m
ĠS LOT
Ġworld wide
z es
Ġpublic ly
state ments
ĠS av
Ġ_ )
Ġinst ability
. ]
mo vie
Ġproperty Name
off line
ĠC B
ĠĠĠĠĠĠĠĠĠĠĠĠĠĠĠĠĠĠĠĠĠĠĠĠĠĠĠĠĠĠĠĠ ĠĠĠĠĠĠĠĠĠĠĠĠĠĠĠĠĠĠĠĠĠĠĠĠĠĠĠĠĠĠĠĠĠĠĠ
j on
Ġscroll ing
ert o
Ġtrans ak
ĠCh air
Ġte en
big array
Enum s
ĠMon itor
col lision
ĠRe cent
Max Value
ch k
ĠIt ems
ĠTra it
Ġpass ion
trans lator
Ġprint ing
Ġst em
19 4
)` |
Ġprincip les
Ġde sktop
View Group
b is
gress ive
× ¢
ĠF M
ĠJ AXB
find utils
Cor ner
sb ol
exemp lar
E le
Im Gui
W ER
rep orter
00000000 00000000
State ments
ent ropy
ĠE dition
{ [
co ffee
Get ting
Ġsign atures
Ġ; ;
Ġupper case
A mb
F K
f if
ag rant
Ġen abling
ĉĉ ĠĠĠĠĠĠĠĠĠĠĠ
IN C
Tr unc
ĠDescript or
er ce
Ġfind utils
B attle
ĠA venue
web socket
ath on
er v
Ġ__ (
;\ ;
Ġsur prise
ĠD avis
set Id
ĠG MT
44 4
Ġk w
Ġ\ )
get Index
æ ĭ
s lave
y ers
); }
ĠSt udy
Ġsc oring
Ġset Value
ins pection
Ġexplo de
B rit
S quare
BO OLEAN
ynchron ously
LOG GER
b ird
In coming
ĠMo on
_ ));
ĠE instein
z f
Off line
Lat ency
Does Not
T OT
Ġ gesture
Ġex pires
ĠG em
ĠSh adow
power ed
aw k
Ġk inematic
File Type
lat in
17 3
A st
he mer
ĠEd ward
Ġan no
m ate
Ø ®
st udio
Ġdis ks
>? [<
v ue
ĠDis k
Ã¼ r
Ġw arrant
Ġout going
Ġ($ (
Ġimag ine
\ +
g id
Th anks
Ġprevent s
Est imate
ass ociation
Sub string
J OB
L ua
Ġup coming
Ġra ces
B a
UST ER
ĠRel ation
Ġj arg
ther lands
è¿ Ķ
F ly
un install
th ought
ĠColor ado
Ġcomput ations
ag le
Ġevery where
Depend ent
Ġimag inary
ire ctions
Ġdocument ed
)} _{\
Pre conditions
Ġden ied
U psilon
put s
ĠA lice
Ġsw ift
B rand
Ġse asons
Ġnumer ically
ĠVar iant
get Entity
ĠG UID
ĠO FF
Pattern s
Space s
ord inal
face t
Ġdisc la
w al
graph s
Ġsear ches
ĠJ am
ĠD ummy
ip y
Ġdis sip
al p
tx fee
/ [
ĠB ang
ĠL iteral
Ġ$ [\
26 2
Ġt rap
Ġs pr
)= (
Ġcollect ive
Ï į
es se
17 8
und erscore
Ġshe ar
ĠDE C
J Unit
ĠQ CD
="../.. ">Â«
ĠTRA CE
ra co
clu sters
Ġ" ,"
Ġconver ts
get Height
Ġro oms
Ġfail ing
ĠPh ys
ç º
Ġre form
Pro mpt
RI X
in structions
as ures
ĠI de
Ġh all
Is True
tol ua
Asp Net
Ġobserv ables
ne eded
ĠĠĠĠĠĠĠĠĠĠĠĠĠĠĠĠĠĠĠĠĠĠĠĠĠĠĠĠĠĠĠĠ ĠĠĠĠĠĠĠĠĠĠĠĠĠĠĠĠĠĠĠĠĠĠĠĠ
lat itude
LIBR ARY
B ay
MA G
*/ ,
CODE GEN
d ana
}^{ (\
Ġsimp ler
Ġcontemp orary
G ot
r type
la mic
Ġs lides
Ġtime zone
å» º
B enchmark
ĠOx ford
Ġin hib
Ġ} {\
Ġg ained
Ġvot ers
çĤ ¹
Ġm alloc
)| ^
ĠScal ar
IG NO
is Not
Ġg ar
CO VER
Ġacc used
bo unce
add Action
ra ble
center line
Ġcompet itive
cons in
B attery
co hol
ĠSt ill
Ġwit ness
ï¸ ı
run s
} '.
ĠF lags
out heast
En dian
ss a
Ġl s
Ġk lass
Persistent Volume
." ));
Att ached
ĠOffic er
w elcome
Ġpro spect
P refs
ĠM it
ĠWork s
Ð ļ
Ġn oop
Ġde duce
Re cur
Ġ{? }
Ġval uable
mod ern
IB ILITY
7 50
@ {}
ĠC AN
CP TR
Ġgreat ly
ĠIll inois
Ġt ends
Ġdata Source
f la
}. \
Ġs r
ĠDes erial
ĠH it
17 9
ATTR IB
E IN
Ġs cheduling
Ġg t
ĠMin or
j er
STRUCT OR
ĠB P
ĠParliament ary
ivers ary
Ġimpro ving
L iving
Ġcre ator
Ġ$ $\
Ġpro ud
Ġto ugh
Ġg radients
ĠĠĠĠĠĠĠĠ ĉ
ri k
pol ar
Ġth orough
Ġpi lot
Ġview er
NO OP
/ -
ĠC SV
Object Id
>( </
Fac ade
Ġassert Null
Ġlink ing
acion es
Ġprece ding
Ġno va
Log Level
P ix
recomm ended
b enchmark
el ix
: ;"
? \
Ġfound ation
sol ver
Ġuint ptr
Ġol dest
Ġful fill
Ġa de
ex pires
Ġbelong ing
Ġs ap
u ched
bl end
ĠH oly
Ġloc ate
Ġon Create
Ġm ic
Ġord inal
od ge
] |
one percent
TRIB UT
b ab
"> //
bad logic
Ġev il
Full screen
M V
TR IG
Ġcyc lic
æī Ģ
Ġtarget ed
el ize
ri o
Pat ient
Ġf iring
ĠH ide
). }
Ġd rama
æł ĩ
Ġ ^{\
Ġch ampionship
mathbb m
E urope
F REE
ĠF lash
\\ \
IL D
Manager Service
aa a
Ġexcit ing
lement ary
l tr
Sto pped
Ġmeaning ful
assert Not
Ġ$\ |
Ġgra in
Ġcaref ully
Ġvalid ated
Sto red
Ġmechan ical
Ġdemonstr ates
Ġs udo
ĠSO CKS
ocam lfind
ĠV oid
ĠP ull
PH ONY
Protocol BufferException
ĠGraph ics
recogn ized
pc i
Exp ansion
ĠI B
ass oc
id ge
/ ).
Str ong
aw are
method Name
ĠI NS
get Config
sub package
Ġclo ses
gs on
Ne eds
ĠP aper
oo f
Ġsin on
limin ary
44 3
d ap
c ab
download s
ĠLL C
ĠPen nsylvania
cond ensed
Ġdesign s
synchron ized
æĸ¹ æ³ķ
* );
DI F
ĠS peed
ass istant
80 211
ĠC art
Big r
o ft
base Url
ĠPh ysics
vent ed
Ġsp oke
roll ment
member of
ow a
Ġopp onent
har mon
g ml
Ġpro fessor
Ġthought s
ĠJ oh
em o
Context s
Ġtherm od
Occur red
ĠI PC
resh olds
ĠCONNECT ION
ĠS el
16 4
Field Set
Ä Ľ
ug ar
Ã¡ s
Ġde formation
E MAIL
ĠB S
Ġres ign
AT OM
Test Method
SH ADER
access ibility
up on
we i
R FC
ç «
Ġcalcul ating
ĠThe ory
ÐµÐ½Ð¸ Ðµ
lo dy
Ġdr ift
Commun ication
FUN CPTR
Ġthick ness
Ġco medy
ĠNS Array
ĠWeb Kit
UIT ableView
ord ova
dom ains
Ġcamp us
20 7
S ENT
Ġdiff ers
Ġw atched
ĠR UN
Ġn omin
put ation
Ġp ron
Ġspeak er
struct ured
Ġarg ued
Ġ/ \
clo ak
set Data
ri ble
gr unt
y ii
38 6
EX TRA
diag onal
Ġconflict s
× ĳ
ĠMin nesota
UI Image
Î ´
li us
v f
ĠUn iverse
Ġde als
ĠFor ward
raw l
IS H
ĠArch ive
Tra ining
Ġopp osition
Ġsoldi ers
Ġto m
ERR U
ĠHar ry
Pro tected
Ñģ Ð¿
Report ing
co w
aph ore
f ive
Ġso ap
Inline Data
Ġ{ (
ĠDe ath
Ġpag ination
19 30
22 6
Ġcon clusions
Ex ports
ĠTo String
17 1
ufact urer
s ans
t el
Ġregex p
s ures
TH ROW
int Value
Ġcar rier
ĠLogger Factory
() -
Se p
DE L
Ġro l
complex Type
Ġ// //
AD ATA
ĠM M
Ġgroup ing
20 48
ING E
çĶ Ł
Nav igator
remove All
ro ots
is cal
') \
Ġvisit ors
Ġcontact s
fession al
get Date
ag ain
Ġgra d
Line Number
Ġcontrib utor
Ġs weet
sc m
Ġun supported
ther net
19 40
tal k
Extension Registry
Se ctions
Ġg al
Per f
Ġpay ing
Ġmount ain
Par agraph
Is Empty
Some thing
reci pe
Ġpar ad
TRI ES
Ġb asketball
}= (
ĠðŁ ı
Ġarrest ed
ĠW as
ĠMy SQL
Ġplan ets
Proto buf
Ġhor se
ed y
ĠF r
ĠString Utils
ĠUt ility
Ġsil ver
SE Q
catch all
POS ITION
Ġre cursively
ĠP rom
extra s
Ġmeas uring
work ers
Ġconnect ivity
Ġag ric
SPHINX OPTS
on i
Ġc utoff
ĠAUTH ORS
') {
Ġbit Field
GO OD
Ġdoll ars
li ant
ĠB all
ĠImp lements
CRE T
Emp loyee
miss ible
o pher
}_{ {\
Ġdead line
measure ment
urn e
Ġderiv ation
an ode
Ġpl enty
Ġauthor ized
ĠC hem
Sens io
G a
Dir s
ĠHT MLElement
Min ute
M arch
is String
ĠRe store
Ġsit ting
B eta
Ġsh ifts
Ġup stream
ĠProb lem
ĠT reat
Ġt ied
ort heast
ĠJSON RPC
å ¦Ĥ
åĪ Ĺ
get ting
pr incipal
>: ][<
' -
itle d
DL ER
Ġin duces
ĠB ol
der ived
ĠE th
Ġcheck er
Ver ifier
ĠASC II
s lo
ĠP ORT
S lave
ĠS ent
get Result
In sets
Ġp seud
Ġcorpor ate
å ĳ
Ġcorrect ed
æ ¬
Ġout standing
Ġtw enty
ĠW S
ĠH ay
ĠW P
ĠN FL
S lug
23 1
att ack
Mod ification
K L
u y
ĠP in
b ubble
em b
ĠL INE
Ġ Ä
ĠT RAN
ug ue
ATION S
in tr
Error Response
DB G
sub float
:" -
long itude
DL L
ĠPre vent
Ġin complete
ME lement
Ġair port
Ã Ĺ
read s
Web Service
final ize
Det ect
w arnings
ĠP ool
ic ide
cor responding
( ../
Ġa zure
Ġ] ];
l un
() ];
set Visible
b irth
s ax
out ine
Ġro unded
pro cedure
Coordin ator
Ġa wards
ĠE GL
Ġtrans it
Text Appearance
Ġprint Line
Ġb ow
Ð¸ Ð½
b asis
3 64
ang ers
debug ger
tr uth
ĠSc ient
sh own
4 20
: ^(
Ġf c
t ains
non ce
Get HashCode
v d
Ġsell ing
Dynam ically
Ġbu ff
Ġtra ces
C USTOM
X R
Ġg rows
Order By
AU DIO
Cent ral
h istogram
he tic
foo bar
ĠN i
Ġwith draw
ses sed
F ocused
Ġal arm
Ġra c
ĠHe ap
Ġcred ential
Override s
pos als
Ġw o
data sets
e en
S olver
ĠS TRI
Ġ+ (
check out
Ï ĩ
Ġnot ified
m igr
%%%%%%%%%%%%%%%% %%%%%%%%%%%%%%%%
st h
ĠSt at
Ġdisc ard
ate ch
g old
Ġde serialized
und ertow
Ġis Valid
g ene
ak ai
hom ology
Ġexp iration
ng doc
umb le
ĠAg ency
rub ocop
Ġs lug
ĠE uler
synthe size
& );
ĠDie go
S vg
ib ernate
po ss
][ :
I EEE
D W
An n
Ġsuper conduct
Ġdifferent ly
Ġanaly ses
51 20
li me
}( -
ÑĢ ÐµÑģ
Ġantic ip
al location
N M
Ġgrow n
me the
ĠP sy
Tra ffic
Ġknow ing
Ġearn ed
30 6
AT ER
Ġsubst it
Ġt weet
Ġst reets
ÐµÐ ¹
display math
ST AR
Oper ators
åı Ĥ
ï»¿ //
Ġsub scribe
Fin ite
char Code
Ã¤ r
åĮ ĸ
ĠDoc s
ME MB
stop Propagation
Ġn ur
Ġar rows
=' /
FR INGE
] []
ĠE uclidean
ECT OR
ĠMag ic
w ang
18 9
Ġco ut
bo y
Sk in
el led
Ġon load
19 7
}% &
ĠPhil ipp
qu er
Ġ<!-- <
Ġcons umed
Ġplay list
Ġi Phone
Ġf id
ject ive
ĠM ix
ey e
st udy
ĠW i
Ġcom bat
get Service
ĠL A
List ing
26 5
Ġp lt
Ġh ate
Ġmin us
static method
rs quo
à¸ ²
ur bed
Ġsqu ares
Invalid ProtocolBufferException
$ --
ĠL ady
\ :\
aur a
Ġnav igator
Ġ× ľ
Ġto do
22 1
P df
n ano
($ .
db us
Ġhighlight ed
SUP PORT
Ġtag ged
Ġteach ers
. âĢĻ
Ġcompan ion
VISI BLE
HT MLElement
serv ations
drag gable
Walk er
log ged
Ġparticip ate
TL R
Config urations
last Name
ĠMin istry
ĠJav ascript
ĠL ater
ac quire
ag ues
Ġas semb
sk ill
NS URL
ĠD ream
ac celer
struct ures
Ġfill ing
id p
ĠHel vetica
l ng
Ġcomp arisons
Ġsuggest ing
é ģ
Ġform ing
Ġport folio
ĠGold en
ĠPRO P
Ġb ubb
Ġtra ding
ĠÎ µ
With Arguments
Inst ant
um or
Experi ment
Ġo m
st ellar
ĠL ex
ĠAPI ENTRY
ĠS ie
ÐµÐ½Ð¸ Ñı
k lass
ĠEvent Args
R m
Ġdis cret
ĠT al
[' _
ĠE OF
Ġb unch
index Path
Ġb omb
che stra
ends With
other wise
F ra
> >(
upload s
tre es
Ġ= ~
get Host
Ġinter preter
ĠB T
Cancel led
me mo
M oves
Ġp atches
mp l
ĠSil ver
ĠW ik
ĠCh apter
Ġauth enticated
XY Z
Ġconsist ently
( ?
M i
amp ions
Ġpromi ses
FRINGE MENT
Ġd ots
respect ively
M ID
ĠCar lo
Ġb anks
ĠS in
Throw n
C e
Ġpar ity
IM G
Pass phrase
Sh aring
C b
is NaN
Ġst one
sing ular
p lex
em an
Ġen gines
ĠWe bsite
Ġmon oton
ĠE mbed
Ġfe asible
List Result
SL S
CLE AR
co ol
Ġsub process
Collect ors
il st
Ġtri als
fix es
B ob
17 4
ĠÂ ·
Ġb es
F ET
Ġp thread
RE N
Ġinvalid ate
VALUE S
}} }$
Ġlight s
) ');
W ra
). \
ed ition
mp ot
Tr ansp
CS V
et ches
Ġeas ing
Test Suite
ĠBY TE
' }$
ĠT ile
Resp onses
im als
Ġr Ã©
ĠOP EN
Ġmill ions
Ġdiscla imer
Ġ$ (".
ĠWh ich
sem antic
T B
f u
r ates
Hard ware
ĠP aint
Check ing
H ad
B ed
Ġradi i
ing roup
ĠS ales
Ġcom mod
Ġlong itude
cip es
sp er
Ġtra verse
ific ant
Ġcomp arator
Set Value
cla zz
x link
Ġstruct ured
C ipher
b right
Ġin active
py mel
dist ribute
TRANSL ATE
ĠCommon s
K K
i ph
ĠD iff
ĠF F
ens ate
ĠRes olve
Ġcontinu ing
Ġt ension
Ġb rown
19 62
Ĵ Į
Ġdwar f
> (),
v x
Re load
Ġnode Name
Ġsco pes
dec ay
E s
E ast
ĠK er
ch itz
Ġg p
lock s
Ignore d
chev ron
ĠG ib
Ġdisc ip
Comp ress
Table View
ĠSo viet
25 2
cycler View
methe us
G erman
# __
ĠGo String
Ġto k
ĠB oost
move To
Ġface t
O ID
p lug
Ġsch olar
us cript
os gi
IN FRINGEMENT
yst ick
Ġwire less
L AN
Ġw ed
ell s
Add ing
util ities
Entity Type
Ġs andbox
DE TAIL
åĲ İ
fo od
\ }}
De partment
cap abilities
Ġlif ecycle
' =
re ement
ĠA ctor
Ġfore ground
Ġsock addr
Â ®
Ġcontent Type
US ART
weight ed
activ ated
Ġev ident
Ġtear Down
ĠN atural
App le
ila delphia
u its
ing ers
Ġbu mp
ĠN ested
Ġintegr als
cons ume
en es
get Target
Ġu v
ĠExec utive
St ory
ĠRe call
Al arm
ys q
re veal
cal lable
C am
Ġpro v
40 96
ĠWork er
mod ifiable
Lim its
KER NEL
infin ispan
2 15
Ġvoc als
du x
] ^{
ĠD or
Ġcr icket
CO S
19 63
Error Reason
P V
De crypt
Key Down
iter ate
ãģ ¨
Ġter ritory
Ġb alan
Ġmer ely
g is
th y
ph otos
Ġgeneral ity
ATTA CH
Scal a
s lash
G old
ĠH ong
Ġsub scriber
resp onses
search box
i om
z n
Object Name
ĠDe velop
ot ions
D UCT
Ġaccording ly
Ġdepict ed
( ...)
Ġther apy
E c
aren a
(' $
ĠIN ST
ĠSer vlet
Ġ_ __
indu ced
Ġsuff ices
isDebug Enabled
TH IS
Ġchain ing
GENER IC
ĠS ong
Ġr ub
' %
ĠS pect
ĠCapt ain
Ġc ipher
all Errs
mark ed
Ġwe apon
ĠLim it
Ġv oting
Format ting
hav es
CONT AINER
H F
h ierarchy
offset s
l k
Ġp it
Re lay
ĠShe ll
REC ORD
3 10
Ġcomp laint
start up
Ġdivis or
M art
Ġg arbage
tr ation
set ts
Ref lect
em ale
Ġvar ies
Ġcame l
J uly
u u
the w
pri or
Ġview ing
ĠIN C
ĠDo ctor
Ġbro ke
Ġcl oned
mer ged
Ġsuper ior
nes ses
() +
Dig its
Ġm as
pt on
ĠY et
Ġappe al
ĠRem ark
ĠT a
Ġadd EventListener
Ġlon gest
trip le
Greater Than
ĠĠĠĠĠĠĠĠĠĠĠĠĠĠĠĠĠĠĠĠĠĠĠĠĠĠĠĠĠĠĠĠ ĠĠĠĠĠĠĠĠĠĠĠĠĠĠĠĠĠĠĠĠĠĠĠĠĠ
tag ged
ĠDis ney
ĠA w
Bounding Box
Ġaf ternoon
:"- "`
Av atar
Design er
] ()
Ġident ifiers
ra ster
Ġdesign ated
de sh
Ġs me
co ck
ĠK B
ris k
ĠE MP
Cap s
Read ing
ro bo
to List
ĠR ED
Of Week
s ales
ol en
iz en
To ast
du ate
g ian
over load
ĠElement s
Ġgr unt
ĠEl se
Re cipient
ĠCom bin
ifest yle
URI Component
ĠRun ning
Re pos
Ġcommun icate
ad i
= {{
ĠM apping
ĠH art
ili ation
ĠV iet
Get Current
Ġso ul
est im
Ġsum s
}| ^
QU AL
inject or
Ġw ine
Ġbin aries
Ġformal ism
Ġref s
scroll bar
Ġs lash
Ġin cl
ious ly
Viol ation
', \
ĠW el
Web GL
8 601
w f
Ġb undles
19 45
`` ``
Ġbo ys
Ġregular ization
ĠJe an
Ġnewsp aper
Ġpro mp
Ġelli ptic
7 67
M or
Ġevalu ating
il lo
Ġcour ses
SECON D
Font Size
Parse Exception
out il
Ġclear fix
ĠR oss
Ãµ es
per l
CRE MENT
S peech
mo ves
ĠK afka
Ve hicle
"] [
Ġeffect iveness
Ġ Ú©
L ITERAL
Ġinstanti ate
Ġr igid
Ġoffic ially
Ġadapt ation
Luc ene
AT I
à¤ ¿
ĠSign al
b os
Ġpro hib
pre g
ho enix
Ġb att
Ġv eter
Ġim mun
Ġadult s
Ġ -------
ip pets
cer pt
Ġre actions
Message Type
empty List
En velope
Arch itecture
h f
18 1
Ġ` [
ĠLe ave
) ~
get Query
Ġenjoy ed
Ġpre pend
Ġnotice d
åĲ ¦
Ġext ens
moment um
s ymmetric
div id
24 7
ĠDemoc rats
Ģ </
spect ral
Error Type
! /
res se
Ġob st
Rep resent
p late
ar ative
ĠT rip
__ ((
Dis p
q i
| ,
Ġz h
err s
PL Y
Ġoccup ied
ĠUp load
] _{
Ġform ulas
xim ity
s alt
big skip
Q P
st reet
Rob ot
achu setts
ë ĭ
bar a
ĠÎ ´
emit ter
ĠCred it
ĠD utch
Contin uous
Clip board
C aret
express ions
ĠSTRI CT
P DO
Ġfile Path
Ġart s
ĠT ARGET
18 3
ĠF ra
22 3
lin ing
Ġf le
Ġfrequ ent
OPER ATOR
G RE
Ġd as
ĠC Wallet
ĠA mong
Ġmsg id
Ġme g
Ġmiddle ware
ĠM ach
ĠL dalvik
Ġint u
title s
v ac
Ġpo le
I SS
Ad vert
is an
Request Handler
Ġenumer ation
Ġs om
Ġin duct
Ġf ires
Ġpar king
ĠK h
clo ver
itch en
Regex p
ĠAnaly tics
Ġn ib
. -
ĠV ari
Ġqu i
Ne g
Ġpublish ing
f ld
f atal
ĠC apture
Ġde eper
Ġexplo red
add Listener
18 6
ag en
ib li
ĠK r
Unknown Fields
g log
ignore d
Direct or
}} \,
Set Name
UN SIGNED
w icket
ĠM arg
ĠSt ats
ĠD ATE
c ies
Ġoper ands
4 30
Ð Ķ
AL OG
ĠAs set
E poch
S lots
ang a
Ġw ider
Ġr anging
text Size
Ġman agers
')) )
ĠJes us
u dd
Ġsur pri
Ġsequ ential
ma kers
ENS OR
ĠU ses
Ġform ally
Ġt iles
ĠDis pose
Ġmer ging
up port
Ġde bt
ĠĠĠĠĠĠĠĠĠĠĠĠĠĠĠĠĠĠĠĠĠĠĠĠĠĠĠĠĠĠĠĠ Ċ
[: ,
Ġwonder ful
$ (\
Ġhe ating
" }}
Ġtranslation s
G pu
éĻ ¤
c ampaign
k bd
ag s
ne e
lex er
Ġlo ose
Normal ized
Ġnegl igible
pro vision
md l
.' /
Ġp lastic
. :
le ader
r in
Ġd ns
}; \
ĠMB EDTLS
v out
Ġname of
g lass
ĠM is
Ġim mutable
Play ing
+ |
}$ ).
* </
Ġt rends
imp lemented
ĠU lt
Ġleg islation
Ġcarry ing
Ġbe er
Ġval s
Error Handler
ĠT ar
put y
ĠE SP
Spec ifies
h x
CI FI
Ġv o
ĠEx tra
33 7
ĠLO CAL
ĠRed irect
=[ [
Ġhon or
G ORY
enum s
urn ame
Ġpurch ased
n w
ĠBe an
period ic
Prepar er
bo uncy
ĠUn like
relation ship
ĠHot el
Less Than
mention ed
ĠP ick
D s
Ġme ets
rop ical
ĠPal est
Ġre volution
()) ->
Ġ[ <
Ġle verage
j l
ĠR C
click ed
Ġt ray
an ies
sh oot
)} =
v fs
Ġg ift
Con struction
og gle
Ġdeta ch
77 7
ĠC Script
SK IP
J une
og a
^ +\
× Ĺ
Ġp ed
Simple Name
lood light
, ...
G i
translation s
Ġcommit ment
ç İ
19 61
LE TED
serv ing
Ġh am
j enkins
Ġcal ib
Ġke V
writ es
AL I
Ġme son
Test Base
Ġph on
FA KE
ACT IV
Ġtro ops
Min us
Lo ss
e igen
Ġd os
ĠG ROUP
Ġm ales
Ġover come
Ġvari ability
ĠChe f
Ġtrans mitted
Ġin ert
"> %
co ustic
VER IFY
` ).
UB Y
Cons ist
Ġ'- '
V o
//---------------------------------------------------------------- -------------
Ġdash board
Ġdis connected
ared Statement
Ġst rain
gra v
Ġbe ar
Ġg rep
SC AN
B old
ac cent
}_{ (
Ġauto complete
ou ston
lem an
L ost
Ġse ats
Col l
Ġbeh alf
Token Type
Ġnucle i
St and
Auth enticated
Status Bar
Ġgen us
Ġs igma
ĠPart ial
Ø Ń
ĠS I
Lex er
Ġss h
mg mt
X T
ĠD ave
Action Event
he ld
es a
($ \
annot ated
Ġp icker
Ġst ood
X P
ĠB UI
Ġf li
Ġb ip
Ø§ ÙĨ
)) $.
sh uffle
25 7
Apr il
// #
Ġra ster
× ł
ĠHol lywood
Ext end
LIST S
ĠEN ABLE
Ġoc aml
de scribed
Ġthere by
äº İ
k im
get As
emp lace
Ġf estival
Ð° Ñģ
ĠClint on
Cook ies
write Field
Ġemit ter
ĠP P
Ġtr usted
be ing
ob served
t actic
Accessor Table
uss ian
oxy gen
imp ro
conf lict
bouncy castle
Ġk v
Ġindex Of
Ġart ificial
Ġ" ^
omorph isms
on Error
il de
Response Body
Ġdown stream
SCA LE
ĠCam bridge
M u
C MS
ac i
Ġ Ð¾ÑĤ
ãĥ ª
Ġpri m
exec utable
Ġt ort
ID X
linked in
{ #
as InstanceOf
Ġbuilt in
em is
ĠE ll
ĠS anta
E lect
wait ing
Ġac quisition
pr ule
Obj C
ĠLim ited
Ġepoch s
Ġch an
Ġa vg
ĠD og
Ġscient ists
Ġd uty
play ing
vers ations
Linked Library
Alloc ate
inter section
Ġchart s
Event Emitter
Ġthous and
Ġcon form
free ze
K P
Ġp block
ĠA U
Filter ed
Ð¾Ð³ Ð¾
t g
w rong
Ġsp lits
v ic
on ge
Ġfor um
ob tain
000 2
ĠG ran
SY N
ip ment
Ġdes ire
è¿ ĩ
k d
AND ROID
ĠBer lin
Sp read
q us
SUFF IX
$ =
coup ling
st a
Ġs nd
wit ched
Dynamically LinkedLibrary
3 80
ĠL ane
Ġfe es
Ġimpro ves
Ġget Data
z ona
ĠR ol
S am
mp p
ĠSt one
t icks
Ġround s
book mark
ĠM s
En sure
ĠG overnor
Ġ([ @
d as
de limiter
th a
Ġsil ent
S en
n Height
Ġb orders
SA CTION
Ġmultip lier
Ġintegr ate
è¿ Ļ
G V
S ites
ĠMod ify
32 5
Ġgra ce
re lat
al chemy
EDIT OR
Ġfind ViewById
ĠP ad
ĠVictor ia
27 5
MA STER
Ġass istance
Non ce
I l
h ci
Ġbos on
100 0000
Ġproject ive
Ġele v
Ġdecor ated
lef trightarrow
St udy
omp son
g lu
select ors
Ġtop Level
Host s
Ġon Error
Ident ifiers
high charts
Ġsupp ressed
AMP LE
H IST
Ġnot able
orth and
ĠS EQ
ĠEx tended
Socket Address
Con clusion
ĠMe tric
rep ren
Ġbeaut y
Ġbo at
IC S
ipel ines
de tection
ĠAssembly Version
Ġdispatch er
Ñ Ĭ
Ġc nt
ĠDet ect
trans actions
Ġad vis
' />
rf loor
Ġtw ist
myItem Id
ĠBig Integer
dispatch Event
ab lish
16 3
myItem Type
Ġto wer
Qu aternion
Ġaccur ately
s ay
el ve
qu ently
"> -
Ġvan ishing
ĠR ome
IN K
)\ ,\
P ts
Ġs ought
to prule
éĹ ´
Scroll bar
v im
ĠE NV
End Of
ĠNS Log
ĠH W
deep Equal
Ġar ises
bo urne
ĠSh ader
$ ("#
de mand
Ġhyper bolic
Ġdiverg ence
ĠTh ough
ĠHttp Servlet
h is
Time Span
Ġ} (
fig s
Web site
L un
ĠT ai
get Method
33 6
Ġinstrument s
ç¨ ĭ
Ī Ĵ
Ġiter able
cell color
Ġ ÑĦ
use Summary
Ġlo an
MSearch Results
Ġout flow
Table t
rab bit
e de
inem a
ne ighbor
mut ations
ĠSub ject
Phone Number
bo b
Ġsqu ared
22 9
ä¿¡ æģ¯
Ġplan es
Ġadapt ive
§ ĭ
ĠN iger
ĠOn tario
' <
p lt
get Selected
ĠC os
fra gments
CON D
Jav adoc
ĠLore ntz
(" $
MIL LI
> ):
m oney
Ġretrie val
Sn ippet
f Lite
ne z
n Ã©
Ġy esterday
test er
Ġfor Each
m cite
w av
}{ {
sub tract
Sh own
ãĥ¼ ãĤ
Ġf lying
Ġcont est
Ġsuggest ion
Ġaw esome
ĠLew is
ĠM ultip
Ġper ipheral
accur acy
res ol
assert In
IN CLUDING
Ġdis put
Ġmod uli
ab ar
ust ries
UN IF
plan et
rid ing
ĠNe therlands
ulo us
pro fit
do ja
Ġ --------
ol itan
($ "
L U
O WN
PA RENT
gistr ar
ĠH old
Ġlo b
PRO VID
Ġplay back
breadcrumb s
2 14
ĠPro tection
lo p
//---------------------------------------------------------------- --------------
DO T
19 59
ey l
small er
æ ±
ĠTh ings
ual ity
ĠCOMM AND
Ġco ffee
Work s
Ġparse From
= {\
LA S
C ANCE
T ur
Ġass istant
Ġinitial izing
G H
ĠG ab
ĠSim on
! ("
Bar rier
Ġop aque
am odel
All Types
ĠSh op
cla use
M ichael
}} +
Widget s
cit ation
Ġm t
Ġoper ational
M ont
Ġb p
Ġr ising
Ġag encies
27 7
ĠĠ ĉ
Ġassign ments
" ',
act ics
Un available
]( ../
ĠF AIL
auto load
Progress Bar
100 000
in cess
Ġget Current
18 4
27 3
ĠĠĠĠ ĉĉ
ĠUn fortunately
ĠB or
Ġbre ath
R ATE
m illi
Ġcontinu ity
Americ a
MEN U
ðŁ ĵ
/@ %
D plugins
G X
Sub view
Sub mission
B photon
ĠL ua
Bphoton ImagePath
zz le
ĠP haser
Lib raries
com bine
ĉĉĉĉĉĉĉ Ċ
Ġorient ed
ĠW ind
Basic Block
ĠE igen
ĠTime Span
Ġta ught
L K
path name
Ġtext s
F req
ĠT ITLE
Hint s
Ġmanufact uring
ĠM aven
ey ond
Un used
ĠMus lim
re trieve
Ġn r
el in
year s
\ @
ĠB ush
ĠB road
B rowse
Ġc ance
}} -
ĠMag azine
T riv
data Provider
Auth enticator
Ġparticip ant
n z
Socket s
Ġbe haviors
over ty
Make Files
" };
pol ling
olt z
} ".
id ade
ip c
Time Stamp
Ġmin Occurs
AM S
ĠDis patch
nowled gments
Ġencour age
to lower
end ors
ĠMe V
ĠR ic
ĠL ind
labor ation
Ġm ature
Big Integer
K ill
ĠD ash
H ID
ht c
Edit Text
'] ->
w ra
it is
Ġdis count
n of
Config urable
rout ine
j upiter
ro it
Ġa i
Ġn ec
Ġdis pose
ĠIs lam
áĥ ĺ
LO PT
//////////////////////////////////////////////////////////////// ////////////////
ga q
NON YM
inter active
Ġrelativ istic
Ġperson nel
S ending
get Y
lf loor
Ġint ra
big gl
msc l
s ers
åį ķ
ĠL iter
cre pan
Ġt icks
St ake
Ġa po
Ġr ural
Inter ruptedException
Ġfor cing
W izard
Ġtri angles
F x
js x
Bag Constraints
ĠR F
Ġsent ences
ĠSec ure
ĠFin ancial
ĠC ab
PRO G
Ġship ping
Ġtick ets
A vg
ĠPRO TO
ur u
Ġde struction
19 00
Dis cussion
ĠLinked List
Ġt bl
get Start
30 7
ĠCast le
Ġkn ock
ĉ ĠĠĠĠĠĠĠĠĠĠĠĠĠĠĠĠĠĠĠ
qu iry
re lay
Ġrepeated ly
ar o
sm tp
Ġsuffer ed
ĠR ank
equal To
G ray
ur ers
Ġvict im
ud ents
qu arters
* {-
ĠS UP
ox el
samp ler
F loating
par sing
ĠJ ane
40 9
C pp
Ġn l
ur ity
Ġreason ing
ĠC ooper
ĠPro of
Ġdro ps
@ -
pl ural
DT S
latt ice
Ġp ra
ĠS imp
Ġwild card
Ġper f
,- .
Ġconver ge
> ')
è ·
st ars
Ġb ullet
m ot
un ning
co ders
ik o
ĠConst ituency
5 37
ĠS SH
ĠC Transaction
inter est
Bucket s
AND ARD
Ġeduc ational
$ }}
ss enger
Ġas ide
re interpret
24 2
ĠGal actic
ĠDE F
M g
Ġgra mmar
set Max
S a
Ġm ne
ĠM AP
éĢ ļ
p references
ĠP ract
z c
re write
Ġ\\ [
Ġro of
] _
Ġ( ),
h ore
sim ulation
ĠW EB
Ġpan ic
get Row
Volume s
R uby
combin ed
Ġ_ ('
Ġs quad
Index Path
//////////////////////////////// ////////////////
ĠStr ategy
Ø ¬
Ġcons ent
Ġconj unction
B s
M illi
ĠMount ain
o asis
Ġintro duces
PER TIES
Ġfinit ely
C sv
Ġcons iders
Ġlower case
Ġl ig
Ġaccord ance
:: ::
mon o
Sh ards
Ġmut ual
Ġ ug
Ġc up
Man ual
ĠPh ase
B irth
st y
And Get
Asset ic
NAM IC
Ġr ings
glyph icons
Ġbase ball
ga uge
Test Data
D u
ĠB IT
ac s
Multip lier
2 90
R AD
T ou
m ud
address book
å¤ §
Ġ========================================================================= =
data store
I ce
b undles
No Such
B H
Ġy ards
Ġpropag ate
ĠN ations
ĠSQL ite
ĠSy dney
Ġ` '
([ ^
Thumb nail
5 90
ĠPat rick
, :
P seudo
Ġas ks
ĠK al
Re trieve
semb les
5 50
\ !\
ime ter
Nd Ex
ĠE ss
tic les
Ġdefe ated
}} ^{(
Ġa ui
ĠC ou
Change Event
ĠJon athan
Ġf name
lu ck
Ġcont our
As sembler
cs rf
V ia
ãĥ «
dr v
Sequ ential
Ġrot ational
Ġlik es
c amp
Ġab sent
SY NONYM
CON DITION
(_ ("
ĠImmutable Map
at tempt
co sh
hance d
n ice
Ġf ruit
Ġh at
A GER
ĠSTAT US
Ġ& (
Ġso ph
Ġselect ors
in ch
get Base
Ð¾ ÑģÑĤ
27 1
ĠðŁ ļ
Ġstand alone
Ġfor g
Ġsimple st
Ġvict ims
iss a
ĠConse quently
Last Error
Ġaut oc
Ġeast ern
Ġb n
ä¼ ļ
G s
N ick
Ġ\ }$
id ot
DE LAY
Ġtemplate Url
ĠP tr
s ix
ĠB urn
Ġcert ificates
Ġhouse hold
Ġfoc using
* ='
S l
ĠC u
ĠC lin
With Location
Sim ulation
it ness
open stack
Tra versal
Ġret ire
Pack ed
Ġem ails
b h
Ġmer ger
Index er
pet ition
Ġhouse holds
ĠMedic ine
Ġs ake
(" \\
Ġwe bs
en z
Ġtransform er
T cp
Ġv illa
Xml Type
ĠSO AP
Ġmethod Name
OutOf Range
ĠC ri
Bra cket
ĠP D
25 3
App ender
else if
ĠExec utor
H ouse
Ġbelie f
istr ator
schedule d
L ic
Ġ% >
get Configuration
assert ion
inf os
Ġdebug ger
I am
ĠA MD
KEY WORD
fg han
Ġtor us
[...]
