{
  "version": "1.0",
  "truncation": null,
  "padding": null,
  "added_tokens": [
    {
      "id": 0,
      "content": "[UNK]",
      "single_word": false,
      "lstrip": false,
      "rstrip": false,
      "normalized": false,
      "special": true
    }
  ],
  "normalizer": null,
  "pre_tokenizer": {
    "type": "Sequence",
    "pretokenizers": [
      {
        "type": "Digits",
        "individual_digits": false
      },
      {
        "type": "ByteLevel",
        "add_prefix_space": false,
        "trim_offsets": true,
        "use_regex": true
      }
    ]
  },
  "post_processor": null,
  "decoder": null,
  "model": {
    "type": "BPE",
    "dropout": null,
    "unk_token": "[UNK]",
    "continuing_subword_prefix": null,
    "end_of_word_suffix": null,
    "fuse_unk": false,
    "byte_fallback": false,
    "vocab": {
      "[UNK]": 0,
      "!": 1,
      "\"": 2,
      "#": 3,
      "$": 4,
      "%": 5,
      "&": 6,
      "'": 7,
      "(": 8,
      ")": 9,
      "*": 10,
      "+": 11,
      ",": 12,
      "-": 13,
      ".": 14,
      "/": 15,
      "0": 16,
      "1": 17,
      "2": 18,
      "3": 19,
      "4": 20,
      "5": 21,
      "6": 22,
      "7": 23,
      "8": 24,
      "9": 25,
      ":": 26,
      ";": 27,
      "<": 28,
      "=": 29,
      ">": 30,
      "?": 31,
      "@": 32,
      "A": 33,
      "B": 34,
      "C": 35,
      "D": 36,
      "E": 37,
      "F": 38,
      "G": 39,
      "H": 40,
      "I": 41,
      "J": 42,
      "K": 43,
      "L": 44,
      "M": 45,
      "N": 46,
      "O": 47,
      "P": 48,
      "Q": 49,
      "R": 50,
      "S": 51,
      "T": 52,
      "U": 53,
      "V": 54,
      "W": 55,
      "X": 56,
      "Y": 57,
      "Z": 58,
      "[": 59,
      "\\": 60,
      "]": 61,
      "^": 62,
      "_": 63,
      "`": 64,
      "a": 65,
      "b": 66,
      "c": 67,
      "d": 68,
      "e": 69,
      "f": 70,
      "g": 71,
      "h": 72,
      "i": 73,
      "j": 74,
      "k": 75,
      "l": 76,
      "m": 77,
      "n": 78,
      "o": 79,
      "p": 80,
      "q": 81,
      "r": 82,
      "s": 83,
      "t": 84,
      "u": 85,
      "v": 86,
      "w": 87,
      "x": 88,
      "y": 89,
      "z": 90,
      "{": 91,
      "|": 92,
      "}": 93,
      "~": 94,
      "¡": 95,
      "¢": 96,
      "£": 97,
      "¤": 98,
      "¥": 99,
      "¦": 100,
      "§": 101,
      "¨": 102,
      "©": 103,
      "ª": 104,
      "«": 105,
      "¬": 106,
      "®": 107,
      "¯": 108,
      "°": 109,
      "±": 110,
      "²": 111,
      "³": 112,
      "´": 113,
      "µ": 114,
      "¶": 115,
      "·": 116,
      "¸": 117,
      "¹": 118,
      "º": 119,
      "»": 120,
      "¼": 121,
      "½": 122,
      "¾": 123,
      "¿": 124,
      "Â": 125,
      "Ã": 126,
      "Ä": 127,
      "Å": 128,
      "Æ": 129,
      "Ç": 130,
      "È": 131,
      "É": 132,
      "Ê": 133,
      "Ë": 134,
      "Ì": 135,
      "Í": 136,
      "Î": 137,
      "Ï": 138,
      "Ð": 139,
      "Ñ": 140,
      "Ò": 141,
      "Ó": 142,
      "Ô": 143,
      "Õ": 144,
      "Ö": 145,
      "×": 146,
      "Ø": 147,
      "Ù": 148,
      "Ú": 149,
      "Û": 150,
      "Ü": 151,
      "Ý": 152,
      "Þ": 153,
      "ß": 154,
      "à": 155,
      "á": 156,
      "â": 157,
      "ã": 158,
      "ä": 159,
      "å": 160,
      "æ": 161,
      "ç": 162,
      "è": 163,
      "é": 164,
      "ê": 165,
      "ë": 166,
      "ì": 167,
      "í": 168,
      "î": 169,
      "ï": 170,
      "ð": 171,
      "ñ": 172,
      "ò": 173,
      "ó": 174,
      "ô": 175,
      "Ā": 176,
      "ā": 177,
      "Ă": 178,
      "ă": 179,
      "Ą": 180,
      "ą": 181,
      "Ć": 182,
      "ć": 183,
      "Ĉ": 184,
      "ĉ": 185,
      "Ċ": 186,
      "ċ": 187,
      "Č": 188,
      "č": 189,
      "Ď": 190,
      "ď": 191,
      "Đ": 192,
      "đ": 193,
      "Ē": 194,
      "ē": 195,
      "Ĕ": 196,
      "ĕ": 197,
      "Ė": 198,
      "ė": 199,
      "Ę": 200,
      "ę": 201,
      "Ě": 202,
      "ě": 203,
      "Ĝ": 204,
      "ĝ": 205,
      "Ğ": 206,
      "ğ": 207,
      "Ġ": 208,
      "ġ": 209,
      "Ģ": 210,
      "ģ": 211,
      "Ĥ": 212,
      "ĥ": 213,
      "Ħ": 214,
      "ħ": 215,
      "Ĩ": 216,
      "ĩ": 217,
      "Ī": 218,
      "ī": 219,
      "Ĭ": 220,
      "ĭ": 221,
      "Į": 222,
      "į": 223,
      "İ": 224,
      "ı": 225,
      "Ĳ": 226,
      "ĳ": 227,
      "Ĵ": 228,
      "ĵ": 229,
      "Ķ": 230,
      "ķ": 231,
      "ĸ": 232,
      "Ĺ": 233,
      "ĺ": 234,
      "Ļ": 235,
      "ļ": 236,
      "Ľ": 237,
      "ľ": 238,
      "Ŀ": 239,
      "ŀ": 240,
      "Ł": 241,
      "ł": 242,
      "Ń": 243,
      "ĠĠ": 244,
      "ĠĠĠĠ": 245,
      "in": 246,
      "er": 247,
      "on": 248,
      "ĠĠĠ": 249,
      "Ġt": 250,
      "ĠĠĠĠĠĠĠĠ": 251,
      "re": 252,
      "at": 253,
      "en": 254,
      "st": 255,
      "an": 256,
      "or": 257,
      "he": 258,
      "al": 259,
      "le": 260,
      "ion": 261,
      "ar": 262,
      "Ġc": 263,
      "se": 264,
      "it": 265,
      "de": 266,
      "ĠĠĠĠĠĠĠ": 267,
      "me": 268,
      "Ġthe": 269,
      "ct": 270,
      "is": 271,
      "ro": 272,
      "Ġa": 273,
      "Ġf": 274,
      "ing": 275,
      "Ġ=": 276,
      "ss": 277,
      "ce": 278,
      "Ġp": 279,
      "ĉĉ": 280,
      "ge": 281,
      "Ġo": 282,
      "Ġs": 283,
      "</": 284,
      "ent": 285,
      "ur": 286,
      "ic": 287,
      ");": 288,
      "=\"": 289,
      "Ġb": 290,
      "la": 291,
      "Ġw": 292,
      "ed": 293,
      "Ġin": 294,
      "Ġn": 295,
      "Ġ{": 296,
      "ut": 297,
      "--": 298,
      "un": 299,
      "Ġre": 300,
      "Ġ<": 301,
      "and": 302,
      "ĠĠĠĠĠĠĠĠĠĠĠ": 303,
      "Ġ(": 304,
      "lo": 305,
      "id": 306,
      "//": 307,
      "Ġ*": 308,
      "ation": 309,
      "mp": 310,
      "il": 311,
      "es": 312,
      "if": 313,
      "ig": 314,
      "ra": 315,
      "ul": 316,
      "ex": 317,
      "čĊ": 318,
      "Ġm": 319,
      "Ġof": 320,
      "Ġth": 321,
      "Ġto": 322,
      "ol": 323,
      "el": 324,
      "th": 325,
      "pe": 326,
      "Ġd": 327,
      "ame": 328,
      "Ġ$": 329,
      "tr": 330,
      "Ġ}": 331,
      "iv": 332,
      "ue": 333,
      "Ġh": 334,
      "ate": 335,
      "Ġv": 336,
      "ot": 337,
      "\">": 338,
      "ad": 339,
      "et": 340,
      "co": 341,
      "Ġ\\": 342,
      "li": 343,
      "Ġand": 344,
      "ch": 345,
      "ck": 346,
      "ĠS": 347,
      "ĠĠĠĠĠĠĠĠĠĠĠĠĠĠĠĠ": 348,
      "ction": 349,
      "pt": 350,
      "()": 351,
      "ĠĠĠĠĠ": 352,
      "as": 353,
      "ĠT": 354,
      "um": 355,
      "**": 356,
      "Ġ\"": 357,
      "lass": 358,
      "ter": 359,
      "age": 360,
      "Ġst": 361,
      "ht": 362,
      "ub": 363,
      "sp": 364,
      "ab": 365,
      "get": 366,
      "ĠC": 367,
      "Ġis": 368,
      "urn": 369,
      "us": 370,
      "In": 371,
      "ont": 372,
      "ri": 373,
      "ĠA": 374,
      "end": 375,
      "ext": 376,
      "ew": 377,
      "ype": 378,
      "Ġfor": 379,
      "==": 380,
      "turn": 381,
      "----": 382,
      "qu": 383,
      "ver": 384,
      "am": 385,
      "ap": 386,
      "Ġse": 387,
      "Ġde": 388,
      "ort": 389,
      "em": 390,
      "ect": 391,
      "up": 392,
      "Ġ'": 393,
      "ode": 394,
      "av": 395,
      "Ġclass": 396,
      "om": 397,
      "all": 398,
      "Ġe": 399,
      "..": 400,
      "od": 401,
      "Ġif": 402,
      "ĠĠĠĠĠĠĠĠĠĠĠĠĠĠĠ": 403,
      "ith": 404,
      "ist": 405,
      "ow": 406,
      "our": 407,
      "ine": 408,
      "Ġg": 409,
      "Ġbe": 410,
      "ment": 411,
      "iz": 412,
      "Re": 413,
      "ir": 414,
      "lic": 415,
      "im": 416,
      "->": 417,
      "Ġ//": 418,
      "ult": 419,
      "ref": 420,
      "able": 421,
      "ata": 422,
      "ption": 423,
      "ers": 424,
      "ile": 425,
      "int": 426,
      "Ġcon": 427,
      "Ġon": 428,
      "ĠP": 429,
      "Ġthis": 430,
      "ath": 431,
      "Ġl": 432,
      "ĠM": 433,
      "ert": 434,
      "Ġreturn": 435,
      "to": 436,
      "ase": 437,
      "00": 438,
      "ĉĉĉĉ": 439,
      "::": 440,
      "alue": 441,
      "Ġ&": 442,
      "est": 443,
      "Ġ</": 444,
      "ly": 445,
      "ĠI": 446,
      "art": 447,
      "ource": 448,
      "ke": 449,
      "ĠD": 450,
      "ure": 451,
      "_{": 452,
      "Ġpro": 453,
      "../": 454,
      "ans": 455,
      "imp": 456,
      "ack": 457,
      "Ġ@": 458,
      "vi": 459,
      "ject": 460,
      "Ġthat": 461,
      "ĠB": 462,
      "ight": 463,
      "Ġco": 464,
      "ĠF": 465,
      "con": 466,
      "set": 467,
      "ĠN": 468,
      "der": 469,
      "unction": 470,
      "ity": 471,
      "Ġwh": 472,
      "ĠL": 473,
      "orm": 474,
      "Ġwith": 475,
      "Ġan": 476,
      "Ġor": 477,
      "str": 478,
      "(\"": 479,
      "\",": 480,
      "ime": 481,
      "();": 482,
      "rom": 483,
      "sc": 484,
      "ĠE": 485,
      "Ġex": 486,
      "Ġ[": 487,
      "ublic": 488,
      "ssage": 489,
      "ml": 490,
      "ain": 491,
      "pro": 492,
      "ay": 493,
      "Ġ-": 494,
      "Ġ/": 495,
      "ff": 496,
      "Ġit": 497,
      "Ġ+": 498,
      "ac": 499,
      "oc": 500,
      "St": 501,
      "ph": 502,
      "ial": 503,
      "oo": 504,
      "use": 505,
      "fa": 506,
      "ore": 507,
      "ag": 508,
      "tring": 509,
      "ĠG": 510,
      "par": 511,
      "',": 512,
      "--------": 513,
      "ĠH": 514,
      "div": 515,
      "></": 516,
      "Ġas": 517,
      "lf": 518,
      "span": 519,
      "ive": 520,
      "res": 521,
      "Ġme": 522,
      "****": 523,
      "name": 524,
      "os": 525,
      "Ġ*/": 526,
      "ĠR": 527,
      "te": 528,
      "out": 529,
      "ite": 530,
      "ib": 531,
      "ize": 532,
      "âĢ": 533,
      "op": 534,
      "Ġname": 535,
      "Ġr": 536,
      "{\\": 537,
      "Ġnew": 538,
      "ull": 539,
      "ren": 540,
      "ma": 541,
      "ind": 542,
      "Ġtr": 543,
      "><": 544,
      "ĠO": 545,
      "Ex": 546,
      "und": 547,
      "ĠĊ": 548,
      "Ġby": 549,
      "ĠW": 550,
      "ĠThe": 551,
      "bject": 552,
      ").": 553,
      "ve": 554,
      "ary": 555,
      "lu": 556,
      "),": 557,
      "Name": 558,
      "====": 559,
      "ere": 560,
      "../../": 561,
      "ant": 562,
      "ĠĠĠĠĠĠĠĠĠĠĠĠĠĠĠĠĠĠĠ": 563,
      "import": 564,
      "gin": 565,
      "put": 566,
      "ser": 567,
      "ire": 568,
      "source": 569,
      "ĉĉĉ": 570,
      "dd": 571,
      "ign": 572,
      "Ġ:": 573,
      "act": 574,
      "ance": 575,
      "Ġy": 576,
      "ĠĠĠĠĠĠĠĠĠ": 577,
      "ies": 578,
      "que": 579,
      "per": 580,
      "ition": 581,
      "('": 582,
      "fig": 583,
      "ror": 584,
      "Ġal": 585,
      "row": 586,
      "loc": 587,
      "20": 588,
      "Ġfunction": 589,
      "Ġ$\\": 590,
      "this": 591,
      "ber": 592,
      "ta": 593,
      "Ġ.": 594,
      "Ġpublic": 595,
      "ft": 596,
      "oid": 597,
      "Ġwe": 598,
      "html": 599,
      "ip": 600,
      "Ġare": 601,
      "Ġat": 602,
      "))": 603,
      "Ġch": 604,
      "Ġnot": 605,
      "Pro": 606,
      "Ġhref": 607,
      "ill": 608,
      "Type": 609,
      "Ġfrom": 610,
      "com": 611,
      "ated": 612,
      "vent": 613,
      "form": 614,
      "message": 615,
      "code": 616,
      "be": 617,
      "Ġ_": 618,
      "unt": 619,
      "ER": 620,
      "ray": 621,
      "low": 622,
      "Ġcont": 623,
      "lement": 624,
      "Ġstr": 625,
      "iel": 626,
      "tp": 627,
      "math": 628,
      "lay": 629,
      "String": 630,
      "ield": 631,
      "sh": 632,
      "ence": 633,
      "Ġj": 634,
      "ON": 635,
      "lation": 636,
      "trans": 637,
      "ĠU": 638,
      "Ġsh": 639,
      "ory": 640,
      "lab": 641,
      "pp": 642,
      "Id": 643,
      "return": 644,
      "vice": 645,
      "dex": 646,
      "Ġun": 647,
      "one": 648,
      "Ġtype": 649,
      "Con": 650,
      "alse": 651,
      "ang": 652,
      "Ġ#": 653,
      "port": 654,
      "De": 655,
      "ll": 656,
      "IN": 657,
      "Ġ=>": 658,
      "param": 659,
      "ord": 660,
      "rent": 661,
      "td": 662,
      "Ġvar": 663,
      "col": 664,
      "ener": 665,
      "cess": 666,
      "ens": 667,
      "Cont": 668,
      "Ġar": 669,
      "ost": 670,
      "}}": 671,
      "ou": 672,
      "ator": 673,
      "quest": 674,
      "Ġvalue": 675,
      "Ġget": 676,
      "di": 677,
      "key": 678,
      "/>": 679,
      "Ġle": 680,
      "ink": 681,
      "ĠIn": 682,
      "scri": 683,
      "ress": 684,
      "Ġ!": 685,
      "cont": 686,
      "Ġ|": 687,
      "ork": 688,
      "ave": 689,
      "Co": 690,
      "bo": 691,
      "atic": 692,
      "type": 693,
      "ange": 694,
      "Ġset": 695,
      "ace": 696,
      "odel": 697,
      "uct": 698,
      "lock": 699,
      "##": 700,
      "amp": 701,
      "fin": 702,
      "Ġi": 703,
      "ass": 704,
      "ust": 705,
      "\"/>": 706,
      "^{": 707,
      "ong": 708,
      "log": 709,
      "ard": 710,
      "text": 711,
      "RE": 712,
      "Ġres": 713,
      "ild": 714,
      "Ġli": 715,
      "En": 716,
      "Ġcomp": 717,
      "fo": 718,
      "thod": 719,
      "yst": 720,
      "Ġint": 721,
      "To": 722,
      "riv": 723,
      "are": 724,
      "Ġself": 725,
      "ther": 726,
      "Ġ==": 727,
      "Ġconst": 728,
      "ĠV": 729,
      "translation": 730,
      "ome": 731,
      "Res": 732,
      "roup": 733,
      "pert": 734,
      "Ġhe": 735,
      "ak": 736,
      "}\\": 737,
      "List": 738,
      "Ġcan": 739,
      "ception": 740,
      "ystem": 741,
      "}$": 742,
      "10": 743,
      "ache": 744,
      "line": 745,
      "},": 746,
      "val": 747,
      "Ġdata": 748,
      "Ġnull": 749,
      "ĠJ": 750,
      "atch": 751,
      "ule": 752,
      "fault": 753,
      "lect": 754,
      "add": 755,
      "fra": 756,
      "app": 757,
      "ast": 758,
      "The": 759,
      "ST": 760,
      "Ġvoid": 761,
      "Ġuse": 762,
      "__": 763,
      "uld": 764,
      "Ġdo": 765,
      "bu": 766,
      "ument": 767,
      "Ġcom": 768,
      "ide": 769,
      "mo": 770,
      "ix": 771,
      "fer": 772,
      "Se": 773,
      "eng": 774,
      "che": 775,
      "ĠTh": 776,
      "://": 777,
      "var": 778,
      "so": 779,
      "cal": 780,
      "class": 781,
      "ell": 782,
      "ne": 783,
      "ery": 784,
      "clu": 785,
      "Ġus": 786,
      "cre": 787,
      "\"><": 788,
      "ich": 789,
      "pect": 790,
      "AT": 791,
      "ded": 792,
      "));": 793,
      "Ġel": 794,
      "Ġ`": 795,
      "string": 796,
      "own": 797,
      "ute": 798,
      "mb": 799,
      "tern": 800,
      "19": 801,
      "Ġwas": 802,
      "label": 803,
      "yn": 804,
      "Ġline": 805,
      "Ġid": 806,
      "ations": 807,
      "itle": 808,
      "og": 809,
      "yle": 810,
      "********": 811,
      "sum": 812,
      "pec": 813,
      "ava": 814,
      "ĠĠĠĠĠĠĠĠĠĠĠĠĠĠĠĠĠĠĠĠĠĠĠ": 815,
      "Ġer": 816,
      "http": 817,
      "umber": 818,
      "Ġk": 819,
      "oint": 820,
      "\");": 821,
      "(\\": 822,
      "OR": 823,
      "////": 824,
      "Ch": 825,
      "ach": 826,
      "data": 827,
      "Ġfalse": 828,
      "----------------": 829,
      "LE": 830,
      "ree": 831,
      "Data": 832,
      "ps": 833,
      "Ġ>": 834,
      "right": 835,
      "begin": 836,
      "ader": 837,
      "Ġ)": 838,
      "Ar": 839,
      "ally": 840,
      "Value": 841,
      "idth": 842,
      "ĠĠĠĠĠĠĠĠĠĠĠĠĠ": 843,
      "qual": 844,
      "trib": 845,
      "ID": 846,
      "rivate": 847,
      "):": 848,
      "we": 849,
      "Ġstring": 850,
      "ould": 851,
      "inal": 852,
      "Ġtrue": 853,
      "Ser": 854,
      "Ġhas": 855,
      "cur": 856,
      "self": 857,
      "Me": 858,
      "Ġhave": 859,
      "Ġass": 860,
      "ptions": 861,
      "ĠRe": 862,
      "gs": 863,
      "Ġbo": 864,
      "def": 865,
      "mary": 866,
      "Ġ/**": 867,
      "Ġpar": 868,
      "ger": 869,
      "12": 870,
      "lient": 871,
      "iew": 872,
      "'s": 873,
      "ength": 874,
      "AR": 875,
      "Ġwill": 876,
      "Ġelse": 877,
      "Ġout": 878,
      "value": 879,
      "stance": 880,
      "location": 881,
      "AL": 882,
      "EN": 883,
      "nb": 884,
      "file": 885,
      "irst": 886,
      "ry": 887,
      "min": 888,
      "Ġall": 889,
      "back": 890,
      "read": 891,
      "ĠĠĠĠĠĠ": 892,
      "Set": 893,
      "Th": 894,
      "âĢĻ": 895,
      "js": 896,
      "ĠĠĠĠĠĠĠĠĠĠĠĠĠĠĠĠĠĠĠĠĠĠĠĠĠĠĠĠĠĠĠĠ": 897,
      "========": 898,
      "ical": 899,
      "Exception": 900,
      "Ġcol": 901,
      "ses": 902,
      "ey": 903,
      "of": 904,
      "ifi": 905,
      "rror": 906,
      "sed": 907,
      "Col": 908,
      "perty": 909,
      "ty": 910,
      "_{\\": 911,
      "ameter": 912,
      "nbsp": 913,
      "io": 914,
      "Ġwhich": 915,
      "ob": 916,
      "the": 917,
      "($": 918,
      "\")": 919,
      "ions": 920,
      "];": 921,
      "Ġresult": 922,
      "ec": 923,
      "Ġ&&": 924,
      "Ġen": 925,
      "ask": 926,
      "arch": 927,
      "date": 928,
      "201": 929,
      "emp": 930,
      "space": 931,
      "ax": 932,
      "}{": 933,
      "ĠK": 934,
      "clude": 935,
      "ual": 936,
      "pre": 937,
      "let": 938,
      "Ġend": 939,
      "px": 940,
      "not": 941,
      "onse": 942,
      "ark": 943,
      "mit": 944,
      "cri": 945,
      "Ġ///": 946,
      "comp": 947,
      "SS": 948,
      "ms": 949,
      "arget": 950,
      "Ġne": 951,
      ")$": 952,
      "Ġup": 953,
      "Ġval": 954,
      "Ġstatic": 955,
      "Ġ--": 956,
      "Bu": 957,
      "left": 958,
      "Object": 959,
      "Ġ!=": 960,
      "bar": 961,
      "Ġyou": 962,
      "Test": 963,
      "ĠString": 964,
      "Ġx": 965,
      "Comp": 966,
      "ates": 967,
      "sub": 968,
      "Ġdis": 969,
      "().": 970,
      "ud": 971,
      "Par": 972,
      "Ġtest": 973,
      "Ġfile": 974,
      "Error": 975,
      "ample": 976,
      "Ġtime": 977,
      "ton": 978,
      "ia": 979,
      "An": 980,
      "org": 981,
      "')": 982,
      "item": 983,
      "Ġlo": 984,
      "ings": 985,
      "Ġorg": 986,
      "ues": 987,
      "test": 988,
      "Get": 989,
      "quire": 990,
      "Ġadd": 991,
      "());": 992,
      "uth": 993,
      "Ġcase": 994,
      "roid": 995,
      "script": 996,
      "new": 997,
      "Ġ%": 998,
      "Ġac": 999,
      "eta": 1000,
      "']": 1001,
      "size": 1002,
      "time": 1003,
      "Ġdef": 1004,
      "frac": 1005,
      "DE": 1006,
      "pr": 1007,
      "onent": 1008,
      "ific": 1009,
      "Ġsu": 1010,
      "Ġro": 1011,
      "gle": 1012,
      "atus": 1013,
      "rit": 1014,
      "rc": 1015,
      "eq": 1016,
      "._": 1017,
      "Key": 1018,
      "face": 1019,
      "CT": 1020,
      "ream": 1021,
      "work": 1022,
      "ound": 1023,
      "ature": 1024,
      "ics": 1025,
      "odule": 1026,
      "gra": 1027,
      "Un": 1028,
      "led": 1029,
      "over": 1030,
      "link": 1031,
      ".</": 1032,
      "Ġprivate": 1033,
      "Ġab": 1034,
      "du": 1035,
      "ie": 1036,
      "lean": 1037,
      "SE": 1038,
      "for": 1039,
      "16": 1040,
      "File": 1041,
      "ĠĠĠĠĊ": 1042,
      "osition": 1043,
      "At": 1044,
      "reate": 1045,
      "heck": 1046,
      "public": 1047,
      "ep": 1048,
      "summary": 1049,
      "ĉĉĉĉĉ": 1050,
      "IT": 1051,
      "ils": 1052,
      "cite": 1053,
      "Ġser": 1054,
      "lection": 1055,
      "ake": 1056,
      "32": 1057,
      "image": 1058,
      "Ġpre": 1059,
      "pi": 1060,
      "equ": 1061,
      "Tr": 1062,
      "vel": 1063,
      "\";": 1064,
      "['": 1065,
      "function": 1066,
      "ock": 1067,
      "Ġone": 1068,
      "ME": 1069,
      "Ġ||": 1070,
      "list": 1071,
      "ug": 1072,
      "da": 1073,
      "})": 1074,
      "Ġper": 1075,
      "200": 1076,
      "ilter": 1077,
      "Ġsp": 1078,
      "index": 1079,
      "Ġbut": 1080,
      "action": 1081,
      "\"></": 1082,
      "');": 1083,
      "View": 1084,
      "mand": 1085,
      "ffer": 1086,
      "nav": 1087,
      "ken": 1088,
      "irect": 1089,
      "ld": 1090,
      "sion": 1091,
      "ody": 1092,
      "arent": 1093,
      "Ġcur": 1094,
      "Node": 1095,
      "Event": 1096,
      "ĠThis": 1097,
      "It": 1098,
      "br": 1099,
      "(),": 1100,
      "Time": 1101,
      "Ġobject": 1102,
      "Ġinter": 1103,
      "play": 1104,
      "ler": 1105,
      "roll": 1106,
      "ick": 1107,
      "ice": 1108,
      "view": 1109,
      "umn": 1110,
      "Ġbu": 1111,
      "old": 1112,
      "rm": 1113,
      "Ġfinal": 1114,
      "By": 1115,
      "ative": 1116,
      "ca": 1117,
      "struct": 1118,
      "ackage": 1119,
      "Ġover": 1120,
      "top": 1121,
      "Ġapp": 1122,
      "Ġwhen": 1123,
      "Ġpart": 1124,
      "Ġla": 1125,
      "ersion": 1126,
      "ww": 1127,
      "ĠSt": 1128,
      "Ġkey": 1129,
      "ĠâĢ": 1130,
      "indow": 1131,
      "const": 1132,
      "11": 1133,
      "ternal": 1134,
      "fore": 1135,
      "ider": 1136,
      "Ġno": 1137,
      "AN": 1138,
      "CO": 1139,
      "UL": 1140,
      "Ġso": 1141,
      "Ġsup": 1142,
      "ise": 1143,
      "$.": 1144,
      "order": 1145,
      "but": 1146,
      "ocument": 1147,
      "cond": 1148,
      "load": 1149,
      "}.": 1150,
      "Ġ);": 1151,
      "],": 1152,
      "pend": 1153,
      "late": 1154,
      "po": 1155,
      "mathb": 1156,
      "url": 1157,
      "Ġob": 1158,
      "rite": 1159,
      "quot": 1160,
      "Qu": 1161,
      "Ġany": 1162,
      "ann": 1163,
      "cript": 1164,
      "Ġmethod": 1165,
      "try": 1166,
      "lang": 1167,
      "mon": 1168,
      "hed": 1169,
      "$,": 1170,
      "Ġerror": 1171,
      "\":": 1172,
      "Ġtrans": 1173,
      "Ġext": 1174,
      "Ġsub": 1175,
      "Ġ/>": 1176,
      "State": 1177,
      "enc": 1178,
      "dis": 1179,
      "=\"../../": 1180,
      "unc": 1181,
      "!--": 1182,
      "Ġchar": 1183,
      "Element": 1184,
      "inter": 1185,
      "lace": 1186,
      "Request": 1187,
      "Ġform": 1188,
      "path": 1189,
      "ride": 1190,
      "Class": 1191,
      "lete": 1192,
      "yp": 1193,
      "group": 1194,
      "ager": 1195,
      "table": 1196,
      "ook": 1197,
      "Ġlist": 1198,
      "Ġexp": 1199,
      "void": 1200,
      "Service": 1201,
      ",\\": 1202,
      "ors": 1203,
      "Ġspec": 1204,
      "ok": 1205,
      "/*": 1206,
      "Info": 1207,
      "round": 1208,
      "igh": 1209,
      "Ġassert": 1210,
      "oolean": 1211,
      "ify": 1212,
      "Text": 1213,
      "user": 1214,
      "Ġ?": 1215,
      "ash": 1216,
      "equation": 1217,
      "ys": 1218,
      "/**": 1219,
      "ible": 1220,
      "uration": 1221,
      "red": 1222,
      "ttp": 1223,
      "Ġother": 1224,
      "gument": 1225,
      "cord": 1226,
      "wo": 1227,
      "cent": 1228,
      "include": 1229,
      "count": 1230,
      "=\"+": 1231,
      "Ġimp": 1232,
      "ION": 1233,
      "RO": 1234,
      "ous": 1235,
      "())": 1236,
      "ail": 1237,
      "md": 1238,
      "py": 1239,
      "Sh": 1240,
      "Path": 1241,
      "25": 1242,
      "ular": 1243,
      "local": 1244,
      "Config": 1245,
      "no": 1246,
      "node": 1247,
      "fter": 1248,
      "tribute": 1249,
      "ater": 1250,
      "length": 1251,
      "resent": 1252,
      "Man": 1253,
      "pha": 1254,
      "gist": 1255,
      "Field": 1256,
      "Ġthrow": 1257,
      "':": 1258,
      "width": 1259,
      "].": 1260,
      "wh": 1261,
      "mathcal": 1262,
      "\"\"": 1263,
      "rap": 1264,
      "100": 1265,
      "Context": 1266,
      "Ġ/*": 1267,
      "Ġqu": 1268,
      "PE": 1269,
      "Index": 1270,
      "``": 1271,
      "Ġonly": 1272,
      "ainer": 1273,
      "TE": 1274,
      "LA": 1275,
      "Code": 1276,
      "ccess": 1277,
      "Map": 1278,
      "ference": 1279,
      "He": 1280,
      "icon": 1281,
      "Ġnumber": 1282,
      "Ġtitle": 1283,
      "15": 1284,
      "ner": 1285,
      "config": 1286,
      "Item": 1287,
      "Ġused": 1288,
      "Ġmore": 1289,
      "ĠĠĠĠĠĠĠĠĠĠĠĠĠĠĠĠĠĠĠĠĠĠĠĠĠĠĠ": 1290,
      "ilder": 1291,
      "raw": 1292,
      "Equal": 1293,
      "Add": 1294,
      "field": 1295,
      "We": 1296,
      "ui": 1297,
      "Ġback": 1298,
      "TR": 1299,
      "rame": 1300,
      "rol": 1301,
      "Ġjava": 1302,
      "ish": 1303,
      "Com": 1304,
      "Ġcall": 1305,
      "Ġtra": 1306,
      "ility": 1307,
      "};": 1308,
      "PI": 1309,
      "Ġ(!": 1310,
      "Array": 1311,
      "ning": 1312,
      "ĠCh": 1313,
      "Ġmodel": 1314,
      "////////": 1315,
      "oogle": 1316,
      "For": 1317,
      "ector": 1318,
      "ĠY": 1319,
      "Ġarray": 1320,
      "ĠEx": 1321,
      "ear": 1322,
      "lob": 1323,
      "****************": 1324,
      "ved": 1325,
      "}(": 1326,
      "cl": 1327,
      "api": 1328,
      "18": 1329,
      "ĠWe": 1330,
      "Ġfirst": 1331,
      "Ġfield": 1332,
      "apache": 1333,
      "ract": 1334,
      "ized": 1335,
      "pen": 1336,
      "box": 1337,
      "fined": 1338,
      "ating": 1339,
      "sign": 1340,
      "ollow": 1341,
      "Ġalso": 1342,
      "son": 1343,
      "Message": 1344,
      "64": 1345,
      "Ġ});": 1346,
      "array": 1347,
      "style": 1348,
      "map": 1349,
      "Ġrep": 1350,
      "[]": 1351,
      "its": 1352,
      "';": 1353,
      "ution": 1354,
      "ding": 1355,
      "Ġsome": 1356,
      "Over": 1357,
      "util": 1358,
      "####": 1359,
      "Ġbase": 1360,
      "Ġ-->": 1361,
      "Ġdefault": 1362,
      "las": 1363,
      "base": 1364,
      "reak": 1365,
      "Ġad": 1366,
      "alpha": 1367,
      "Ġ},": 1368,
      "word": 1369,
      "Not": 1370,
      "true": 1371,
      "CE": 1372,
      "Ġnode": 1373,
      "ĠCon": 1374,
      "Ġsize": 1375,
      "ĠSe": 1376,
      "ĠPro": 1377,
      "result": 1378,
      "ĠDe": 1379,
      "itial": 1380,
      "resp": 1381,
      "Ġevent": 1382,
      "ely": 1383,
      "mem": 1384,
      "assert": 1385,
      "Size": 1386,
      "Ġshould": 1387,
      "ground": 1388,
      "section": 1389,
      "}^": 1390,
      "ĠAn": 1391,
      "Ġman": 1392,
      "Ġwork": 1393,
      "input": 1394,
      "~\\": 1395,
      "Form": 1396,
      "error": 1397,
      "ian": 1398,
      "UR": 1399,
      "ified": 1400,
      "Ġrequest": 1401,
      "Ġgener": 1402,
      "As": 1403,
      "}_": 1404,
      "object": 1405,
      "14": 1406,
      "title": 1407,
      "ished": 1408,
      "uto": 1409,
      "With": 1410,
      "https": 1411,
      "Ġstate": 1412,
      "Hand": 1413,
      "ync": 1414,
      "Ġthere": 1415,
      "net": 1416,
      "...": 1417,
      "ssion": 1418,
      "Ġexpect": 1419,
      "13": 1420,
      "lem": 1421,
      "color": 1422,
      "model": 1423,
      "Ġerr": 1424,
      "ĠCo": 1425,
      "ected": 1426,
      "Ġent": 1427,
      "valid": 1428,
      "by": 1429,
      "ĠIf": 1430,
      "dt": 1431,
      "ush": 1432,
      "Ġap": 1433,
      "System": 1434,
      "='": 1435,
      "ĠGet": 1436,
      "man": 1437,
      "create": 1438,
      "ization": 1439,
      "++": 1440,
      "Ġu": 1441,
      "les": 1442,
      "Ġag": 1443,
      "loat": 1444,
      "ts": 1445,
      "ense": 1446,
      "Ġthen": 1447,
      "til": 1448,
      "Ġ:=": 1449,
      "Ġcurrent": 1450,
      "Ġdif": 1451,
      "Result": 1452,
      "default": 1453,
      "eturn": 1454,
      "Ġelement": 1455,
      "Ġusing": 1456,
      "Ġfollow": 1457,
      "Ġstart": 1458,
      "block": 1459,
      "Des": 1460,
      "ments": 1461,
      "Ġ===": 1462,
      "ins": 1463,
      "Ġtwo": 1464,
      "nection": 1465,
      "Ġact": 1466,
      "ho": 1467,
      "Ġinto": 1468,
      "lt": 1469,
      "Ġcontent": 1470,
      "On": 1471,
      "content": 1472,
      "Or": 1473,
      "lose": 1474,
      "from": 1475,
      "Ġtheir": 1476,
      "UT": 1477,
      "fe": 1478,
      "ng": 1479,
      "enu": 1480,
      "ott": 1481,
      "Ġwhere": 1482,
      "=\"../../../../": 1483,
      "ension": 1484,
      "part": 1485,
      "Ġits": 1486,
      "java": 1487,
      "Le": 1488,
      "iss": 1489,
      "Of": 1490,
      "Ġrequire": 1491,
      "Ġ__": 1492,
      "define": 1493,
      "scription": 1494,
      "move": 1495,
      "ĠX": 1496,
      "Ġrel": 1497,
      "Ġmay": 1498,
      "Val": 1499,
      "abled": 1500,
      "Query": 1501,
      "CH": 1502,
      "Ġmo": 1503,
      "$\\": 1504,
      "cept": 1505,
      "ster": 1506,
      "start": 1507,
      "Ġcor": 1508,
      "Ġoper": 1509,
      "Ġthan": 1510,
      "ĠUn": 1511,
      "lication": 1512,
      "Ġbeen": 1513,
      "Ġgiv": 1514,
      "Ġconfig": 1515,
      "Model": 1516,
      "version": 1517,
      "LO": 1518,
      "Ġra": 1519,
      "Ġ};": 1520,
      "ateg": 1521,
      "FF": 1522,
      "lan": 1523,
      "Ġthey": 1524,
      ">&": 1525,
      "'t": 1526,
      "core": 1527,
      "Ġoff": 1528,
      "aw": 1529,
      "Up": 1530,
      "Ġuser": 1531,
      "ameters": 1532,
      "info": 1533,
      "MA": 1534,
      "next": 1535,
      ")\\": 1536,
      "Ġsrc": 1537,
      "Ġdist": 1538,
      "ponse": 1539,
      "ML": 1540,
      "raph": 1541,
      "body": 1542,
      "ga": 1543,
      "Ġhis": 1544,
      "lugin": 1545,
      "package": 1546,
      "--------------------------------": 1547,
      "=\\": 1548,
      "Manager": 1549,
      "vert": 1550,
      "Ġbet": 1551,
      "Ġinstance": 1552,
      "CK": 1553,
      "Ġz": 1554,
      "ume": 1555,
      "Ġtext": 1556,
      "ĠAr": 1557,
      "Ġyour": 1558,
      "Im": 1559,
      "ULL": 1560,
      "cope": 1561,
      "ĠIt": 1562,
      "Ġhand": 1563,
      "ING": 1564,
      "Ġgo": 1565,
      "App": 1566,
      ";&": 1567,
      "AD": 1568,
      "ression": 1569,
      "bug": 1570,
      "event": 1571,
      "state": 1572,
      "Ġtarget": 1573,
      "Ġresp": 1574,
      "mu": 1575,
      "ffset": 1576,
      "gt": 1577,
      "Ġour": 1578,
      "LI": 1579,
      "ustom": 1580,
      "ĉĉĉĉĉĉ": 1581,
      "ool": 1582,
      "Ġnil": 1583,
      "temp": 1584,
      "Ġwere": 1585,
      "lable": 1586,
      "ient": 1587,
      "tings": 1588,
      "itor": 1589,
      "ĠĠĠĠĠĠĠĠĠĠ": 1590,
      "Loc": 1591,
      "mall": 1592,
      "Ġunder": 1593,
      "gr": 1594,
      "ays": 1595,
      "mer": 1596,
      "Be": 1597,
      "30": 1598,
      "tn": 1599,
      "Ġcode": 1600,
      "ency": 1601,
      "amma": 1602,
      "uble": 1603,
      "cle": 1604,
      "search": 1605,
      "android": 1606,
      "ince": 1607,
      "perties": 1608,
      "ting": 1609,
      "Ġcal": 1610,
      "ĠĠĠĠĠĠĠĠĠĠĠĠ": 1611,
      "Client": 1612,
      "User": 1613,
      "context": 1614,
      "max": 1615,
      "Table": 1616,
      "Al": 1617,
      "align": 1618,
      "point": 1619,
      "Ġshow": 1620,
      "Inter": 1621,
      "Ġinput": 1622,
      "ai": 1623,
      "roller": 1624,
      "Out": 1625,
      "css": 1626,
      "Int": 1627,
      "ĠSystem": 1628,
      "Ġeach": 1629,
      "Ġcheck": 1630,
      "================": 1631,
      "dot": 1632,
      "Color": 1633,
      "ities": 1634,
      "Property": 1635,
      "lobal": 1636,
      "Ġread": 1637,
      "Ġbool": 1638,
      "Is": 1639,
      "lasses": 1640,
      "lat": 1641,
      "Ġ\\\\": 1642,
      "iable": 1643,
      "formation": 1644,
      "ote": 1645,
      ";</": 1646,
      "Ġmessage": 1647,
      "Ġimport": 1648,
      "call": 1649,
      "Response": 1650,
      "Ġlog": 1651,
      "Override": 1652,
      "google": 1653,
      "50": 1654,
      "Ġfe": 1655,
      "Ġpoint": 1656,
      "ams": 1657,
      "33": 1658,
      "\\\\": 1659,
      "âĢĿ": 1660,
      "Ġinst": 1661,
      "Ġindex": 1662,
      "Ġwho": 1663,
      "TD": 1664,
      "false": 1665,
      "method": 1666,
      "igma": 1667,
      "atri": 1668,
      "FI": 1669,
      "Ġhttp": 1670,
      "option": 1671,
      "Ġpath": 1672,
      "Ġph": 1673,
      "17": 1674,
      "GE": 1675,
      "irt": 1676,
      "Group": 1677,
      "ugh": 1678,
      "TH": 1679,
      "ename": 1680,
      "}^{": 1681,
      "ces": 1682,
      "namespace": 1683,
      "pos": 1684,
      "doc": 1685,
      "Ġreg": 1686,
      "air": 1687,
      "tot": 1688,
      "ithub": 1689,
      ">(": 1690,
      "ven": 1691,
      "utes": 1692,
      "_\\": 1693,
      "check": 1694,
      "ĠSet": 1695,
      "db": 1696,
      "Log": 1697,
      "umer": 1698,
      "Ġabout": 1699,
      "Ġsystem": 1700,
      "lease": 1701,
      "Ġmin": 1702,
      "ween": 1703,
      "MP": 1704,
      "Method": 1705,
      "select": 1706,
      "Ġcontext": 1707,
      "static": 1708,
      "do": 1709,
      "Builder": 1710,
      "ifier": 1711,
      "web": 1712,
      "Ġrun": 1713,
      "}_{": 1714,
      "mathbb": 1715,
      "Count": 1716,
      "Ġcons": 1717,
      "Ġsuch": 1718,
      "=\"../": 1719,
      "Ġlong": 1720,
      "Call": 1721,
      "iter": 1722,
      "annel": 1723,
      "Ġstruct": 1724,
      "0000": 1725,
      "=\"#": 1726,
      "Ġvalues": 1727,
      "Ġstd": 1728,
      "AB": 1729,
      "tes": 1730,
      "DO": 1731,
      "Ġgiven": 1732,
      "Ġpo": 1733,
      "erm": 1734,
      "Ġcreate": 1735,
      "bf": 1736,
      "mbda": 1737,
      "head": 1738,
      "UN": 1739,
      "hat": 1740,
      "Stream": 1741,
      "Ġsol": 1742,
      "24": 1743,
      "Ġsource": 1744,
      "ymb": 1745,
      "ypes": 1746,
      "member": 1747,
      "Ġchange": 1748,
      "ains": 1749,
      "Ġoptions": 1750,
      "Trans": 1751,
      "github": 1752,
      "ends": 1753,
      "using": 1754,
      "-\\": 1755,
      "sup": 1756,
      "module": 1757,
      "ENT": 1758,
      "Ġsc": 1759,
      "tra": 1760,
      "ED": 1761,
      "ymbol": 1762,
      "ĠĠĠĠĠĠĠĠĠĠĠĠĠĠĠĠĠĠĠĠĠĠĠĠĠĠĠĠĠĠĠ": 1763,
      "mpty": 1764,
      "From": 1765,
      "lex": 1766,
      "ottom": 1767,
      "Ġgroup": 1768,
      "argin": 1769,
      "options": 1770,
      "ision": 1771,
      "Fact": 1772,
      "tected": 1773,
      "ĠQ": 1774,
      "rag": 1775,
      "Ġafter": 1776,
      "wit": 1777,
      ")</": 1778,
      "duct": 1779,
      "ait": 1780,
      "ffect": 1781,
      "pri": 1782,
      "](": 1783,
      "gister": 1784,
      "Ġitem": 1785,
      "ĠĠĊ": 1786,
      "down": 1787,
      "phi": 1788,
      "func": 1789,
      "ists": 1790,
      "ern": 1791,
      "very": 1792,
      "Ġinv": 1793,
      "Ġblock": 1794,
      "dir": 1795,
      "ale": 1796,
      "mod": 1797,
      "rop": 1798,
      "Ġbreak": 1799,
      "Resource": 1800,
      "lib": 1801,
      "DI": 1802,
      "Dis": 1803,
      "Instance": 1804,
      "client": 1805,
      "ĠFor": 1806,
      "ĠEn": 1807,
      "lambda": 1808,
      "Ġtemp": 1809,
      "^{\\": 1810,
      "ql": 1811,
      "reg": 1812,
      "Cell": 1813,
      "Ġsign": 1814,
      "Ġmax": 1815,
      "dition": 1816,
      "Ġstyle": 1817,
      "page": 1818,
      "tab": 1819,
      "ym": 1820,
      "Ġboolean": 1821,
      "uthor": 1822,
      "Ġnon": 1823,
      "ĠTr": 1824,
      "print": 1825,
      "AME": 1826,
      "atrix": 1827,
      "22": 1828,
      "has": 1829,
      "www": 1830,
      "Ġandroid": 1831,
      "current": 1832,
      "<!--": 1833,
      "irtual": 1834,
      "ormal": 1835,
      "Base": 1836,
      "Date": 1837,
      "Ð°": 1838,
      "])": 1839,
      "ĠĠĠĠĠĠĠĠĠĠĠĠĠĠĠĠĠ": 1840,
      "sk": 1841,
      "ports": 1842,
      "Ġte": 1843,
      "olic": 1844,
      "Status": 1845,
      "ification": 1846,
      "Image": 1847,
      "Lo": 1848,
      "lp": 1849,
      "Ġsame": 1850,
      "query": 1851,
      "Ġright": 1852,
      "Ġ<<": 1853,
      "Ġversion": 1854,
      "cc": 1855,
      "Input": 1856,
      "Ġdoes": 1857,
      "see": 1858,
      "button": 1859,
      "ender": 1860,
      "Component": 1861,
      "ats": 1862,
      "etwork": 1863,
      "null": 1864,
      "Exp": 1865,
      "Block": 1866,
      "ĠNULL": 1867,
      "iled": 1868,
      "Ġneed": 1869,
      "ron": 1870,
      "lick": 1871,
      "Ġbetween": 1872,
      "Ġwould": 1873,
      "del": 1874,
      "request": 1875,
      "Content": 1876,
      "((": 1877,
      "ily": 1878,
      "server": 1879,
      "err": 1880,
      "ared": 1881,
      "Token": 1882,
      "Ġorder": 1883,
      "ift": 1884,
      "oug": 1885,
      "depend": 1886,
      "SI": 1887,
      "idd": 1888,
      "ferent": 1889,
      "vider": 1890,
      "rint": 1891,
      "ced": 1892,
      "Ð¾": 1893,
      "frame": 1894,
      "Ġ{\\": 1895,
      "Action": 1896,
      "ox": 1897,
      "OT": 1898,
      "Ġtry": 1899,
      "Ġthese": 1900,
      "ene": 1901,
      "Ġwhile": 1902,
      "ONT": 1903,
      "All": 1904,
      "ward": 1905,
      "Ref": 1906,
      "refer": 1907,
      "Bar": 1908,
      "element": 1909,
      "Ġmap": 1910,
      "lit": 1911,
      "Ġimage": 1912,
      "Ġed": 1913,
      "Ġwidth": 1914,
      "leg": 1915,
      "args": 1916,
      "uage": 1917,
      "mark": 1918,
      "This": 1919,
      "uch": 1920,
      "beta": 1921,
      "Imp": 1922,
      "UE": 1923,
      "Ġmy": 1924,
      "ov": 1925,
      "Style": 1926,
      "40": 1927,
      "Ġmust": 1928,
      "with": 1929,
      "now": 1930,
      "Ġ()": 1931,
      "php": 1932,
      "cor": 1933,
      "rough": 1934,
      "atab": 1935,
      "ape": 1936,
      "Source": 1937,
      "Ġlocal": 1938,
      "Ġem": 1939,
      "Ġdirect": 1940,
      "ower": 1941,
      "ident": 1942,
      "riter": 1943,
      "ribut": 1944,
      "Sub": 1945,
      "Ġcolor": 1946,
      "YPE": 1947,
      "finition": 1948,
      "last": 1949,
      "ful": 1950,
      "ants": 1951,
      "ingle": 1952,
      "99": 1953,
      "Ġprob": 1954,
      "Ġ->": 1955,
      "ond": 1956,
      "000": 1957,
      "Attribute": 1958,
      "Ġhigh": 1959,
      "End": 1960,
      "Ġ\"\"\"": 1961,
      "teger": 1962,
      "Tra": 1963,
      "eps": 1964,
      "thing": 1965,
      "ssert": 1966,
      "Ġsee": 1967,
      "SC": 1968,
      "ines": 1969,
      "Ġresource": 1970,
      "Sp": 1971,
      "ose": 1972,
      "Options": 1973,
      "New": 1974,
      "ons": 1975,
      "Frame": 1976,
      "Ġoutput": 1977,
      "Lay": 1978,
      "anel": 1979,
      "Ġtable": 1980,
      "Ġmake": 1981,
      "Handler": 1982,
      "Ġpe": 1983,
      "finished": 1984,
      "service": 1985,
      "adding": 1986,
      "Ġ+=": 1987,
      "mathbf": 1988,
      "oot": 1989,
      "RI": 1990,
      "sigma": 1991,
      "Ġlast": 1992,
      "ĉĉĉĉĉĉĉĉ": 1993,
      "Buffer": 1994,
      "Ġhad": 1995,
      "ational": 1996,
      "tx": 1997,
      "target": 1998,
      "Ġ$(": 1999,
      "Ġlet": 2000,
      "nown": 2001,
      "Ġbackground": 2002,
      "arge": 2003,
      "ĠÐ": 2004,
      "ilon": 2005,
      "rid": 2006,
      "Ġthem": 2007,
      "Ġprovi": 2008,
      "Ġ(\\": 2009,
      "layer": 2010,
      "dl": 2011,
      "append": 2012,
      "height": 2013,
      "Line": 2014,
      "UI": 2015,
      "Gener": 2016,
      "proto": 2017,
      "Change": 2018,
      "az": 2019,
      "equal": 2020,
      "header": 2021,
      "And": 2022,
      "Ġsa": 2023,
      "Ġdocument": 2024,
      "my": 2025,
      "atabase": 2026,
      "Str": 2027,
      "ĠSh": 2028,
      "tt": 2029,
      "Ġresponse": 2030,
      "({": 2031,
      "Ġfa": 2032,
      "Ġher": 2033,
      "ĠĠĠĠĠĠĠĠĊ": 2034,
      "hand": 2035,
      "velo": 2036,
      "json": 2037,
      "Ġfollowing": 2038,
      "Ġborder": 2039,
      "light": 2040,
      "ĠAs": 2041,
      "Nav": 2042,
      "property": 2043,
      "unfinished": 2044,
      "Ġdifferent": 2045,
      "ling": 2046,
      "ptr": 2047,
      "ik": 2048,
      "Ðµ": 2049,
      "[\"": 2050,
      "idget": 2051,
      "ĠList": 2052,
      "abel": 2053,
      "layout": 2054,
      "Ġlike": 2055,
      "SP": 2056,
      "xml": 2057,
      "ĠĠĠĠĠĠĠĠĠĠĠĠĠĠ": 2058,
      "ures": 2059,
      "older": 2060,
      "Default": 2061,
      "dio": 2062,
      "defined": 2063,
      "Ph": 2064,
      "^{-": 2065,
      "arg": 2066,
      "}{\\": 2067,
      "ĠâĢľ": 2068,
      "rep": 2069,
      "tag": 2070,
      "Ġcre": 2071,
      "init": 2072,
      "Ed": 2073,
      "ars": 2074,
      "less": 2075,
      "TO": 2076,
      "ĠZ": 2077,
      "adata": 2078,
      "Ġprocess": 2079,
      "ns": 2080,
      "Ġma": 2081,
      "ten": 2082,
      "oci": 2083,
      "Ġyear": 2084,
      "undle": 2085,
      "case": 2086,
      "Oper": 2087,
      "pm": 2088,
      "oin": 2089,
      "Ġ($": 2090,
      "*/": 2091,
      "parent": 2092,
      "signed": 2093,
      "other": 2094,
      "main": 2095,
      "Factory": 2096,
      "Ġsupport": 2097,
      "Ġbefore": 2098,
      "center": 2099,
      "she": 2100,
      "Ġfind": 2101,
      "xy": 2102,
      "ched": 2103,
      "ĠHe": 2104,
      "60": 2105,
      "Ġfound": 2106,
      "ĠĠĠĠĠĠĠĠĠĠĠĠĊ": 2107,
      "img": 2108,
      "Ġmod": 2109,
      "als": 2110,
      "ware": 2111,
      "EX": 2112,
      "Version": 2113,
      "ĉĊ": 2114,
      "btn": 2115,
      "Ġselect": 2116,
      "bin": 2117,
      "graph": 2118,
      "Ġleft": 2119,
      "ixed": 2120,
      "ATE": 2121,
      "medi": 2122,
      "ump": 2123,
      "Task": 2124,
      "80": 2125,
      "NS": 2126,
      "Ġpri": 2127,
      "Ġposition": 2128,
      "ĠRes": 2129,
      "Ġjust": 2130,
      "Format": 2131,
      "dic": 2132,
      "ited": 2133,
      "Mem": 2134,
      "Ġnow": 2135,
      "tilde": 2136,
      "Ġhow": 2137,
      "){": 2138,
      "Ġallow": 2139,
      "Ġ{@": 2140,
      "child": 2141,
      "Function": 2142,
      "rl": 2143,
      "US": 2144,
      "Ġresults": 2145,
      "olicy": 2146,
      "Filter": 2147,
      "rows": 2148,
      "write": 2149,
      "ultip": 2150,
      "ĠMe": 2151,
      "Select": 2152,
      "REF": 2153,
      "Ġnext": 2154,
      "imple": 2155,
      "*}": 2156,
      "src": 2157,
      "cho": 2158,
      "Command": 2159,
      "navbar": 2160,
      "Window": 2161,
      "apt": 2162,
      "orld": 2163,
      "med": 2164,
      "ru": 2165,
      "times": 2166,
      "Ġref": 2167,
      "ank": 2168,
      "build": 2169,
      "Hel": 2170,
      "ĠTest": 2171,
      "arn": 2172,
      "Start": 2173,
      "Act": 2174,
      "///": 2175,
      "ĠObject": 2176,
      "EL": 2177,
      "wn": 2178,
      "acter": 2179,
      "au": 2180,
      "ĠAl": 2181,
      "Number": 2182,
      "Ġdi": 2183,
      "ivity": 2184,
      "LASS": 2185,
      "ĠNew": 2186,
      "Ġview": 2187,
      "tributes": 2188,
      "side": 2189,
      "jav": 2190,
      "delta": 2191,
      "Ġservice": 2192,
      "tain": 2193,
      "Ġpage": 2194,
      "mathrm": 2195,
      "Point": 2196,
      "status": 2197,
      "orage": 2198,
      "No": 2199,
      "curity": 2200,
      "active": 2201,
      "gamma": 2202,
      "TI": 2203,
      "rho": 2204,
      "Ġfil": 2205,
      "buf": 2206,
      "Ġproperty": 2207,
      "Ġthrough": 2208,
      "lags": 2209,
      "Page": 2210,
      "Ġtop": 2211,
      "+\\": 2212,
      "Ġrepresent": 2213,
      "Ġinformation": 2214,
      "Ġclient": 2215,
      "filter": 2216,
      "True": 2217,
      "OL": 2218,
      "exp": 2219,
      "23": 2220,
      "cast": 2221,
      "Link": 2222,
      "char": 2223,
      "ctions": 2224,
      "Ġthrows": 2225,
      ")}": 2226,
      "But": 2227,
      "totype": 2228,
      "Ġvalid": 2229,
      "Ġfact": 2230,
      "Null": 2231,
      "big": 2232,
      "Equals": 2233,
      "her": 2234,
      "66": 2235,
      "ission": 2236,
      "Ġ,": 2237,
      "push": 2238,
      "angle": 2239,
      "su": 2240,
      "gram": 2241,
      "witch": 2242,
      "Ġexample": 2243,
      "flow": 2244,
      "Ġequ": 2245,
      "izer": 2246,
      "Ġappro": 2247,
      "position": 2248,
      "FA": 2249,
      "arrow": 2250,
      "nect": 2251,
      "attern": 2252,
      "\"]": 2253,
      "////////////////": 2254,
      "HT": 2255,
      "EE": 2256,
      "Ġsecond": 2257,
      "^\\": 2258,
      "uring": 2259,
      "private": 2260,
      "sg": 2261,
      "Check": 2262,
      "require": 2263,
      "run": 2264,
      "endif": 2265,
      "assword": 2266,
      "serv": 2267,
      "});": 2268,
      "meta": 2269,
      "Ġmost": 2270,
      "Del": 2271,
      "quence": 2272,
      "vious": 2273,
      "open": 2274,
      "description": 2275,
      "format": 2276,
      "ĠReturn": 2277,
      "rt": 2278,
      "bottom": 2279,
      "figure": 2280,
      "ialog": 2281,
      "ential": 2282,
      "ason": 2283,
      "spec": 2284,
      "Ġargument": 2285,
      "ĠNone": 2286,
      "change": 2287,
      "cause": 2288,
      "pc": 2289,
      "21": 2290,
      "Ġimplement": 2291,
      "theta": 2292,
      "PT": 2293,
      "ffic": 2294,
      "any": 2295,
      "Ġvis": 2296,
      "first": 2297,
      "Ġ((": 2298,
      "andom": 2299,
      "opy": 2300,
      "Ġinitial": 2301,
      "Create": 2302,
      "ĠComp": 2303,
      "${": 2304,
      "rowser": 2305,
      "(&": 2306,
      "umb": 2307,
      "Const": 2308,
      "Ġshe": 2309,
      "ansp": 2310,
      "bit": 2311,
      "loud": 2312,
      "go": 2313,
      "FONT": 2314,
      "ier": 2315,
      "gener": 2316,
      "Cur": 2317,
      "Row": 2318,
      "Ext": 2319,
      "Ġprotected": 2320,
      "Ġmatch": 2321,
      "ough": 2322,
      "strong": 2323,
      "post": 2324,
      "sec": 2325,
      "ever": 2326,
      "plugin": 2327,
      "lear": 2328,
      "Ġopt": 2329,
      "omain": 2330,
      "peri": 2331,
      "Label": 2332,
      "Ġboth": 2333,
      "Tag": 2334,
      "ves": 2335,
      "ĠIN": 2336,
      "sw": 2337,
      "container": 2338,
      "]{": 2339,
      "VER": 2340,
      "icense": 2341,
      "Ġhere": 2342,
      "ABLE": 2343,
      "reference": 2344,
      "Cache": 2345,
      "ero": 2346,
      "Ġrange": 2347,
      "Listener": 2348,
      "vai": 2349,
      "Ġurl": 2350,
      "ceiv": 2351,
      "_.": 2352,
      "lot": 2353,
      "Ð¸": 2354,
      "Ġest": 2355,
      "ascript": 2356,
      "obj": 2357,
      "Ġsim": 2358,
      "semb": 2359,
      "Ġscal": 2360,
      "tau": 2361,
      "untime": 2362,
      "project": 2363,
      "~~": 2364,
      "SON": 2365,
      "Ġspace": 2366,
      "find": 2367,
      "Ġmem": 2368,
      "sol": 2369,
      "resource": 2370,
      "ek": 2371,
      "Ġlink": 2372,
      "df": 2373,
      "ople": 2374,
      "Ġwell": 2375,
      "NO": 2376,
      "Read": 2377,
      "erson": 2378,
      "Return": 2379,
      "Controller": 2380,
      "Ġfin": 2381,
      "display": 2382,
      "ches": 2383,
      "Ġparent": 2384,
      "cy": 2385,
      "27": 2386,
      "ique": 2387,
      "instance": 2388,
      "$-": 2389,
      "ategory": 2390,
      "Ġwhat": 2391,
      "Ġbuild": 2392,
      "Ġcould": 2393,
      "font": 2394,
      "Ġsuper": 2395,
      "iginal": 2396,
      "params": 2397,
      "AP": 2398,
      "ove": 2399,
      "GL": 2400,
      "Ġmodule": 2401,
      "ÑĤ": 2402,
      "Spec": 2403,
      "attr": 2404,
      "iler": 2405,
      "Ġchild": 2406,
      "ci": 2407,
      "partial": 2408,
      "Ġextends": 2409,
      "Mode": 2410,
      "01": 2411,
      "host": 2412,
      "Ġpol": 2413,
      "Ġlevel": 2414,
      "PRO": 2415,
      "ĠSer": 2416,
      "Ġpartic": 2417,
      "Var": 2418,
      "Ġbecause": 2419,
      "pack": 2420,
      "len": 2421,
      "Part": 2422,
      "INT": 2423,
      "ony": 2424,
      "gress": 2425,
      "ĠčĊ": 2426,
      "anguage": 2427,
      "png": 2428,
      "Ġdisplay": 2429,
      "common": 2430,
      "aterial": 2431,
      "Ġcent": 2432,
      "close": 2433,
      "nu": 2434,
      "ready": 2435,
      "Ġcontin": 2436,
      "att": 2437,
      "sheet": 2438,
      "refix": 2439,
      "leq": 2440,
      "ls": 2441,
      "Ġexpected": 2442,
      "URL": 2443,
      "bed": 2444,
      "expect": 2445,
      "std": 2446,
      "Ġmargin": 2447,
      "ifact": 2448,
      "Button": 2449,
      "Length": 2450,
      "Ġdefined": 2451,
      "iron": 2452,
      "ocus": 2453,
      "update": 2454,
      "ĠCol": 2455,
      "where": 2456,
      "stream": 2457,
      "Server": 2458,
      "OD": 2459,
      "ĠâĢĵ": 2460,
      "90": 2461,
      "ability": 2462,
      "55": 2463,
      "menu": 2464,
      "opt": 2465,
      "response": 2466,
      "ee": 2467,
      "ĠCom": 2468,
      "imation": 2469,
      "Ġ]": 2470,
      "Valid": 2471,
      "Child": 2472,
      "Ġinclude": 2473,
      "ism": 2474,
      "cdot": 2475,
      "Ut": 2476,
      "reen": 2477,
      "AS": 2478,
      "Ġdec": 2479,
      "Ġcomponent": 2480,
      "Ġident": 2481,
      "imum": 2482,
      "Ġdistribut": 2483,
      "Output": 2484,
      "Ġaddress": 2485,
      "Ġauto": 2486,
      "remove": 2487,
      "ĠOn": 2488,
      "Column": 2489,
      "land": 2490,
      "rect": 2491,
      "Ġlabel": 2492,
      "cket": 2493,
      "\"),": 2494,
      "prototype": 2495,
      "ĠĠĠĠĠĠĠĠĠĠĠĠĠĠĠĠĠĠĠĠĠĠĠĠĠĠĠĠĠĠĠĠĠĠĠ": 2496,
      "ĠWh": 2497,
      "Ġlow": 2498,
      "Ġevery": 2499,
      "PO": 2500,
      "sole": 2501,
      "vis": 2502,
      "Ġcount": 2503,
      "way": 2504,
      "Collection": 2505,
      "chema": 2506,
      "Ġheight": 2507,
      "des": 2508,
      "Ġproject": 2509,
      "}(\\": 2510,
      "Ġsur": 2511,
      "Ġlength": 2512,
      "lag": 2513,
      "arning": 2514,
      "sets": 2515,
      "IL": 2516,
      "vol": 2517,
      "ĠAdd": 2518,
      "34": 2519,
      "Ã©": 2520,
      "structor": 2521,
      "mm": 2522,
      "<?": 2523,
      "ross": 2524,
      "stru": 2525,
      "Sc": 2526,
      "Ġparameter": 2527,
      "Ġlimit": 2528,
      "javascript": 2529,
      "ynam": 2530,
      "Ġplay": 2531,
      "mt": 2532,
      "Ġ<!--": 2533,
      "Ġdepend": 2534,
      "Ġcommand": 2535,
      "lin": 2536,
      "Pre": 2537,
      "28": 2538,
      "cul": 2539,
      "cache": 2540,
      "loy": 2541,
      "Offset": 2542,
      "si": 2543,
      "Ġbeing": 2544,
      "vailable": 2545,
      "Ġcolumn": 2546,
      "tric": 2547,
      "TYPE": 2548,
      "Delta": 2549,
      "icro": 2550,
      "ERR": 2551,
      "********************************": 2552,
      "oper": 2553,
      "ĠHREF": 2554,
      "Ġspecified": 2555,
      "gy": 2556,
      "\").": 2557,
      "Ġopen": 2558,
      "ring": 2559,
      "Ġexec": 2560,
      "CON": 2561,
      "ET": 2562,
      "eqref": 2563,
      "Ð½": 2564,
      "tool": 2565,
      "dev": 2566,
      "Ġserver": 2567,
      "Web": 2568,
      "Ġ!==": 2569,
      "ĠCLASS": 2570,
      "If": 2571,
      "Ġ[]": 2572,
      "come": 2573,
      "Ġcallback": 2574,
      "Box": 2575,
      "ĠCont": 2576,
      "Bundle": 2577,
      "Di": 2578,
      ")(": 2579,
      "output": 2580,
      "Ġinterface": 2581,
      "viron": 2582,
      "andard": 2583,
      "Ġparameters": 2584,
      "sing": 2585,
      "Ad": 2586,
      "ively": 2587,
      "Url": 2588,
      "ERT": 2589,
      "Ġoption": 2590,
      "annot": 2591,
      "Ġagain": 2592,
      "store": 2593,
      "75": 2594,
      "ran": 2595,
      "Layout": 2596,
      "entry": 2597,
      "ric": 2598,
      "ensor": 2599,
      "tity": 2600,
      "unk": 2601,
      ">>": 2602,
      "rict": 2603,
      "column": 2604,
      "Ob": 2605,
      "number": 2606,
      "atures": 2607,
      "Ġfont": 2608,
      "++)": 2609,
      "```": 2610,
      "num": 2611,
      "UM": 2612,
      "amily": 2613,
      "returns": 2614,
      "ĠTo": 2615,
      "Ġconsider": 2616,
      "Temp": 2617,
      "Ġcondition": 2618,
      "velop": 2619,
      "Ġaction": 2620,
      "stract": 2621,
      "resh": 2622,
      "igger": 2623,
      "Ġupdate": 2624,
      ":</": 2625,
      "Char": 2626,
      "COL": 2627,
      "IG": 2628,
      "omega": 2629,
      "').": 2630,
      "Ġmon": 2631,
      "asure": 2632,
      "}$,": 2633,
      "|\\": 2634,
      "Ġrequired": 2635,
      "raint": 2636,
      "26": 2637,
      "exec": 2638,
      "Ġeffect": 2639,
      "}$.": 2640,
      "CC": 2641,
      "Provider": 2642,
      "NAME": 2643,
      "ãģ": 2644,
      "Ġobtain": 2645,
      "idden": 2646,
      "Ġcatch": 2647,
      "Ab": 2648,
      "mun": 2649,
      "gest": 2650,
      "Ġdown": 2651,
      "Address": 2652,
      "ĠLicense": 2653,
      "Ġprint": 2654,
      "fty": 2655,
      "book": 2656,
      "component": 2657,
      "gor": 2658,
      "day": 2659,
      "non": 2660,
      "cription": 2661,
      "Reference": 2662,
      "Ac": 2663,
      "ĠEX": 2664,
      "parse": 2665,
      "allet": 2666,
      "lish": 2667,
      "ouse": 2668,
      "Ġtask": 2669,
      "Ġpresent": 2670,
      "Run": 2671,
      "Ġwant": 2672,
      "Sup": 2673,
      "imal": 2674,
      "show": 2675,
      "tal": 2676,
      "infty": 2677,
      "Ġmode": 2678,
      "Ġcalled": 2679,
      "offset": 2680,
      "Ġframe": 2681,
      "Ġmark": 2682,
      "Interface": 2683,
      "Last": 2684,
      "Width": 2685,
      "ators": 2686,
      "unter": 2687,
      "Update": 2688,
      "Ġq": 2689,
      "(_": 2690,
      "Ġaccess": 2691,
      "artifact": 2692,
      ".\"": 2693,
      "gn": 2694,
      "process": 2695,
      "af": 2696,
      "soft": 2697,
      "Types": 2698,
      "ging": 2699,
      "quad": 2700,
      "ES": 2701,
      "Ġlook": 2702,
      "Ġobj": 2703,
      "latform": 2704,
      "Ġformat": 2705,
      "Ġfilter": 2706,
      "else": 2707,
      "Ġplace": 2708,
      "########": 2709,
      "Ġss": 2710,
      "Ġexist": 2711,
      "Ġsmall": 2712,
      "utils": 2713,
      "ĠAPI": 2714,
      "Ġanal": 2715,
      "ause": 2716,
      "oke": 2717,
      "foot": 2718,
      "luster": 2719,
      "ents": 2720,
      "%%": 2721,
      "Target": 2722,
      "ather": 2723,
      "unit": 2724,
      "TP": 2725,
      "Case": 2726,
      "Ġbound": 2727,
      "ĠLe": 2728,
      "ĠArray": 2729,
      "cs": 2730,
      "oto": 2731,
      "Ġwindow": 2732,
      "oop": 2733,
      "Ġcopy": 2734,
      "DB": 2735,
      "small": 2736,
      "ĠGL": 2737,
      "Container": 2738,
      "igation": 2739,
      "Ġvariable": 2740,
      "ĠBu": 2741,
      "Ġnetwork": 2742,
      "kit": 2743,
      "template": 2744,
      "Ġargs": 2745,
      "Ġreal": 2746,
      "Ġfloat": 2747,
      "ÑĢ": 2748,
      "Wh": 2749,
      "Ġport": 2750,
      "ots": 2751,
      "29": 2752,
      "Ġinclu": 2753,
      "logy": 2754,
      "Ġsaid": 2755,
      "ancel": 2756,
      "ĉĠĠĠ": 2757,
      "ading": 2758,
      "ged": 2759,
      "ically": 2760,
      "caption": 2761,
      "AC": 2762,
      "Do": 2763,
      "bl": 2764,
      "Ġstud": 2765,
      ".,": 2766,
      "Entry": 2767,
      "HE": 2768,
      "ĠPar": 2769,
      "Ġperform": 2770,
      "Module": 2771,
      "Ġtag": 2772,
      "Rem": 2773,
      "icle": 2774,
      "Ġdeta": 2775,
      "Fe": 2776,
      "lack": 2777,
      "IO": 2778,
      "Ġcontain": 2779,
      "Ġlen": 2780,
      "ibility": 2781,
      "aders": 2782,
      "\\,": 2783,
      "Ġway": 2784,
      "uint": 2785,
      "ulti": 2786,
      "Ġstatus": 2787,
      "gorith": 2788,
      "ĠIs": 2789,
      "Ġlarge": 2790,
      "ior": 2791,
      "olds": 2792,
      "Ġposs": 2793,
      "ĠHT": 2794,
      "Ġdescri": 2795,
      "uk": 2796,
      "]);": 2797,
      "eqn": 2798,
      "bool": 2799,
      "ĉĉĉĉĉĉĉ": 2800,
      "itive": 2801,
      "Ġeven": 2802,
      "Ġsince": 2803,
      "coding": 2804,
      "scope": 2805,
      "Ġop": 2806,
      "ane": 2807,
      "rapper": 2808,
      "$$": 2809,
      "First": 2810,
      "Configuration": 2811,
      "reat": 2812,
      "39": 2813,
      "Utils": 2814,
      "?:": 2815,
      "ĠFile": 2816,
      "Ġmain": 2817,
      "ually": 2818,
      "45": 2819,
      "inst": 2820,
      "()->": 2821,
      "AM": 2822,
      "irc": 2823,
      "Ġmany": 2824,
      "Sto": 2825,
      "Ġpost": 2826,
      "199": 2827,
      "Access": 2828,
      "Ġreference": 2829,
      "35": 2830,
      "example": 2831,
      "IS": 2832,
      "Ġcell": 2833,
      "Ġwithout": 2834,
      "Ġdouble": 2835,
      "ĠApp": 2836,
      "sm": 2837,
      "buffer": 2838,
      "task": 2839,
      "sor": 2840,
      "Ð¾Ð": 2841,
      "Ġquery": 2842,
      "Back": 2843,
      "Level": 2844,
      "uid": 2845,
      "sembly": 2846,
      ":\"": 2847,
      "Per": 2848,
      "radi": 2849,
      "Callback": 2850,
      "Ġuint": 2851,
      "=\"../../../../../": 2852,
      "IC": 2853,
      "arm": 2854,
      "Ġinternal": 2855,
      "window": 2856,
      "atter": 2857,
      "istory": 2858,
      "Search": 2859,
      "only": 2860,
      "support": 2861,
      "ivers": 2862,
      "ious": 2863,
      "Position": 2864,
      "ration": 2865,
      "''": 2866,
      "ĠID": 2867,
      "Range": 2868,
      "Header": 2869,
      "ination": 2870,
      "ither": 2871,
      "document": 2872,
      "fs": 2873,
      "Entity": 2874,
      "OP": 2875,
      "itu": 2876,
      "match": 2877,
      "Ġ{}": 2878,
      "API": 2879,
      "asic": 2880,
      "vironment": 2881,
      "token": 2882,
      "Tree": 2883,
      "float": 2884,
      "Ġdon": 2885,
      "apping": 2886,
      "Ġwrit": 2887,
      "Ġter": 2888,
      "lip": 2889,
      "./": 2890,
      "ret": 2891,
      "Write": 2892,
      "CODE": 2893,
      "rypt": 2894,
      "sq": 2895,
      "root": 2896,
      "Ġpos": 2897,
      "([": 2898,
      "ending": 2899,
      "Ġren": 2900,
      "xi": 2901,
      "ness": 2902,
      "bind": 2903,
      "Vis": 2904,
      "Ġ**": 2905,
      "sd": 2906,
      "Unit": 2907,
      "ilar": 2908,
      "cm": 2909,
      "draw": 2910,
      "ĠType": 2911,
      "should": 2912,
      "VAL": 2913,
      "ctx": 2914,
      "Ġbuffer": 2915,
      "Ġpeople": 2916,
      "BU": 2917,
      "Max": 2918,
      "Parameter": 2919,
      "Ġatt": 2920,
      "gment": 2921,
      "Ġknow": 2922,
      "Ġfiles": 2923,
      "ges": 2924,
      "bra": 2925,
      "Ġnone": 2926,
      "hether": 2927,
      "queue": 2928,
      "tax": 2929,
      "'),": 2930,
      "Connection": 2931,
      "Exec": 2932,
      "aml": 2933,
      "level": 2934,
      "Ġsingle": 2935,
      "Ġet": 2936,
      "lap": 2937,
      "ways": 2938,
      "utable": 2939,
      "ories": 2940,
      "ZE": 2941,
      "PA": 2942,
      "bove": 2943,
      "mount": 2944,
      "Ġdate": 2945,
      "Ġcontrol": 2946,
      "Ġavailable": 2947,
      "Ġvery": 2948,
      "ĠReturns": 2949,
      "itory": 2950,
      "Ġpass": 2951,
      "Argument": 2952,
      "imension": 2953,
      "ices": 2954,
      "ĠĠĠĠĠĠĠĠĠĠĠĠĠĠĠĠĠĠĠĠĠ": 2955,
      "}[": 2956,
      "classes": 2957,
      "Control": 2958,
      "Ġret": 2959,
      "Height": 2960,
      "pes": 2961,
      "Ġconnection": 2962,
      "tree": 2963,
      "Ġbased": 2964,
      "hav": 2965,
      "alk": 2966,
      "Ġtak": 2967,
      "stylesheet": 2968,
      "PC": 2969,
      "ral": 2970,
      "struction": 2971,
      "][": 2972,
      "Ġsuccess": 2973,
      "command": 2974,
      "empty": 2975,
      "Ġcorresp": 2976,
      "ensions": 2977,
      "Ġthree": 2978,
      "device": 2979,
      "ULT": 2980,
      "=\"-": 2981,
      "gl": 2982,
      "sim": 2983,
      "Json": 2984,
      "wise": 2985,
      "ĠAssert": 2986,
      "Thread": 2987,
      "ted": 2988,
      "Settings": 2989,
      "valu": 2990,
      "auth": 2991,
      "tml": 2992,
      "Ġsum": 2993,
      ".$": 2994,
      "board": 2995,
      "FO": 2996,
      "Ġxml": 2997,
      "agn": 2998,
      "psi": 2999,
      "05": 3000,
      "orem": 3001,
      "Ġcache": 3002,
      "ĠYou": 3003,
      "cap": 3004,
      "():": 3005,
      "duction": 3006,
      "verage": 3007,
      "}}\\": 3008,
      "cer": 3009,
      "tocol": 3010,
      "ysis": 3011,
      "river": 3012,
      "ural": 3013,
      "dep": 3014,
      "itional": 3015,
      "Ñģ": 3016,
      "Ġ*)": 3017,
      "Ġabove": 3018,
      "SH": 3019,
      "Ġalready": 3020,
      "Util": 3021,
      "Ġincre": 3022,
      "Ġarg": 3023,
      "Empty": 3024,
      "ship": 3025,
      "dapt": 3026,
      "ife": 3027,
      "direct": 3028,
      "Ġwrite": 3029,
      "Min": 3030,
      "QL": 3031,
      "prec": 3032,
      "Http": 3033,
      "ND": 3034,
      "44": 3035,
      "Ġstore": 3036,
      "Process": 3037,
      "KE": 3038,
      "ah": 3039,
      "interface": 3040,
      "Reg": 3041,
      "Ġoverride": 3042,
      "Ġtyp": 3043,
      "verse": 3044,
      "uted": 3045,
      "uture": 3046,
      "rel": 3047,
      "None": 3048,
      "ĠAt": 3049,
      "Ġhelp": 3050,
      "Next": 3051,
      "atal": 3052,
      "rs": 3053,
      "ATION": 3054,
      "Ġsk": 3055,
      "ggle": 3056,
      "ĠData": 3057,
      "Document": 3058,
      "ĠCreate": 3059,
      "ef": 3060,
      "expected": 3061,
      "Su": 3062,
      "ead": 3063,
      "IP": 3064,
      "ĠOF": 3065,
      "control": 3066,
      "36": 3067,
      "Ġ``": 3068,
      "igin": 3069,
      "Hash": 3070,
      ">,": 3071,
      "argument": 3072,
      "ives": 3073,
      "wait": 3074,
      "Ġ::": 3075,
      "wide": 3076,
      "Serial": 3077,
      "artifactId": 3078,
      "Op": 3079,
      "Ġconf": 3080,
      "Ġdevice": 3081,
      "02": 3082,
      "ulation": 3083,
      "debug": 3084,
      "Ġtri": 3085,
      "final": 3086,
      "=\"../../../../../../": 3087,
      "ocket": 3088,
      "Mod": 3089,
      "\"))": 3090,
      "Ġmultip": 3091,
      "Ġinit": 3092,
      "Ġreturns": 3093,
      "olume": 3094,
      "Open": 3095,
      "overn": 3096,
      "graphics": 3097,
      "author": 3098,
      "Ġoffset": 3099,
      "Ġdid": 3100,
      "inary": 3101,
      "Params": 3102,
      "boot": 3103,
      "MS": 3104,
      "sche": 3105,
      "ãĥ": 3106,
      "aj": 3107,
      "Ġmethods": 3108,
      "Ġgame": 3109,
      "can": 3110,
      "Ġassoci": 3111,
      "COLOR": 3112,
      "ĠAnd": 3113,
      "irection": 3114,
      "energy": 3115,
      "licit": 3116,
      "Ġold": 3117,
      "values": 3118,
      "scale": 3119,
      "Ġwithin": 3120,
      "met": 3121,
      "Ġsearch": 3122,
      "etch": 3123,
      "Ġvirtual": 3124,
      "second": 3125,
      "dict": 3126,
      "ĠName": 3127,
      "Expression": 3128,
      "strap": 3129,
      "Record": 3130,
      "bm": 3131,
      "cp": 3132,
      "lied": 3133,
      "Location": 3134,
      "foo": 3135,
      "Ġparams": 3136,
      "AV": 3137,
      "07": 3138,
      "duce": 3139,
      "\"));": 3140,
      "Top": 3141,
      "Ġown": 3142,
      "\".": 3143,
      "Rep": 3144,
      "Ġrow": 3145,
      "37": 3146,
      "UP": 3147,
      "acity": 3148,
      "Ġduring": 3149,
      "oriz": 3150,
      "Ġproperties": 3151,
      "Ġelements": 3152,
      ":(": 3153,
      "ired": 3154,
      "Kind": 3155,
      ")]": 3156,
      "Ġroot": 3157,
      "Ident": 3158,
      "aa": 3159,
      "skip": 3160,
      "Ġ>=": 3161,
      "epsilon": 3162,
      "Ġhim": 3163,
      "Ġdiv": 3164,
      "Ġthose": 3165,
      "clear": 3166,
      "ules": 3167,
      "long": 3168,
      "Ġver": 3169,
      "STR": 3170,
      "aded": 3171,
      "Ġsample": 3172,
      "limit": 3173,
      "Ġpop": 3174,
      "Font": 3175,
      "ws": 3176,
      "Ġstream": 3177,
      "Ġexperi": 3178,
      "Met": 3179,
      "aper": 3180,
      "38": 3181,
      "ĠFig": 3182,
      "range": 3183,
      "Ġpadding": 3184,
      "Ġhost": 3185,
      "Ġ\"\\": 3186,
      "Ġrecord": 3187,
      "Option": 3188,
      "vers": 3189,
      "pose": 3190,
      ")$.": 3191,
      "PECT": 3192,
      "bs": 3193,
      "patch": 3194,
      "gen": 3195,
      "groupId": 3196,
      "ving": 3197,
      "Script": 3198,
      "ole": 3199,
      "drop": 3200,
      "iant": 3201,
      "Ġaut": 3202,
      "Ġprevious": 3203,
      "Ġfull": 3204,
      "Ġnav": 3205,
      "Ġcustom": 3206,
      "Ġins": 3207,
      "Ptr": 3208,
      "amb": 3209,
      "2016": 3210,
      "pol": 3211,
      "{{": 3212,
      "thon": 3213,
      "msg": 3214,
      "oh": 3215,
      "ĠClass": 3216,
      "ftware": 3217,
      "conf": 3218,
      "Description": 3219,
      "2018": 3220,
      "yntax": 3221,
      "ially": 3222,
      "Async": 3223,
      "Device": 3224,
      "}_{\\": 3225,
      "48": 3226,
      "ensure": 3227,
      "Local": 3228,
      "ãĤ": 3229,
      "Ġtotal": 3230,
      "Properties": 3231,
      "Ġvert": 3232,
      "Handle": 3233,
      "Impl": 3234,
      "inc": 3235,
      "Operation": 3236,
      "eqnarray": 3237,
      "copy": 3238,
      "Ġim": 3239,
      "Ġrespect": 3240,
      "Dir": 3241,
      "aster": 3242,
      "Direct": 3243,
      "je": 3244,
      "2017": 3245,
      "Session": 3246,
      "sqrt": 3247,
      "render": 3248,
      "08": 3249,
      "ĠDE": 3250,
      "iff": 3251,
      "acy": 3252,
      "entic": 3253,
      "%;": 3254,
      "Ġglobal": 3255,
      "gorithm": 3256,
      "files": 3257,
      "dist": 3258,
      "=\"_": 3259,
      "delete": 3260,
      "mega": 3261,
      "Ġremove": 3262,
      "Ġfilename": 3263,
      "Auth": 3264,
      "ctor": 3265,
      "ĠException": 3266,
      "mail": 3267,
      "Integer": 3268,
      "cd": 3269,
      "Ġ...": 3270,
      "Ġnamespace": 3271,
      "nap": 3272,
      "chool": 3273,
      "cell": 3274,
      "auto": 3275,
      "ĠSo": 3276,
      ",\"": 3277,
      "04": 3278,
      "2015": 3279,
      "subsection": 3280,
      "stamp": 3281,
      "leted": 3282,
      "inner": 3283,
      "Ġside": 3284,
      "ĠNo": 3285,
      "RL": 3286,
      "Ġclear": 3287,
      "edia": 3288,
      "Ġsection": 3289,
      "Ġdisc": 3290,
      "udio": 3291,
      "ĠBy": 3292,
      "meric": 3293,
      "Ġfields": 3294,
      "hash": 3295,
      "}/": 3296,
      "Copy": 3297,
      "Store": 3298,
      "Render": 3299,
      "deta": 3300,
      "ĠHow": 3301,
      "Ġrender": 3302,
      "textbf": 3303,
      "internal": 3304,
      "Ġdeter": 3305,
      "imer": 3306,
      "mode": 3307,
      "Ġgra": 3308,
      "Que": 3309,
      "ideo": 3310,
      "Ġes": 3311,
      "Port": 3312,
      "agement": 3313,
      "Ġmodels": 3314,
      "Core": 3315,
      "ĠUp": 3316,
      "before": 3317,
      "global": 3318,
      "ECT": 3319,
      "Ġspecific": 3320,
      "Ġequal": 3321,
      "================================": 3322,
      "Ġtemplate": 3323,
      "Ġmade": 3324,
      "off": 3325,
      "ĠGener": 3326,
      "alth": 3327,
      "Ġstill": 3328,
      "Ġfail": 3329,
      "dia": 3330,
      "ALL": 3331,
      "EQ": 3332,
      "Ġnormal": 3333,
      "Ġmove": 3334,
      "ias": 3335,
      "NavBar": 3336,
      "Ġam": 3337,
      "UB": 3338,
      "2019": 3339,
      "ux": 3340,
      "Menu": 3341,
      "aint": 3342,
      "Po": 3343,
      "ds": 3344,
      "lice": 3345,
      "ĠNS": 3346,
      "Pri": 3347,
      "Project": 3348,
      "Work": 3349,
      "Ġdevelop": 3350,
      "Helper": 3351,
      "ood": 3352,
      "docs": 3353,
      "Ġyears": 3354,
      "Ġattribute": 3355,
      "Ġfunctions": 3356,
      "duced": 3357,
      "Ġbody": 3358,
      "Ġgood": 3359,
      "fficient": 3360,
      "stack": 3361,
      "sv": 3362,
      "ORT": 3363,
      "Ġpossible": 3364,
      "Ag": 3365,
      "Ġnum": 3366,
      "ison": 3367,
      "mission": 3368,
      "dependent": 3369,
      "images": 3370,
      "Ġiter": 3371,
      "MO": 3372,
      "Ġgeneral": 3373,
      "legate": 3374,
      "Ġmet": 3375,
      "^*": 3376,
      "âĢĵ": 3377,
      "Ġtake": 3378,
      "alt": 3379,
      "Big": 3380,
      "ixel": 3381,
      ";->": 3382,
      "Ġke": 3383,
      "67": 3384,
      "orth": 3385,
      "omic": 3386,
      "border": 3387,
      "Ġrest": 3388,
      "Schema": 3389,
      "_;": 3390,
      "ansport": 3391,
      "dest": 3392,
      "Omega": 3393,
      "Match": 3394,
      "lus": 3395,
      "Ġdest": 3396,
      "modal": 3397,
      "atches": 3398,
      "ram": 3399,
      "roy": 3400,
      "31": 3401,
      "Ġtypes": 3402,
      "ĠDo": 3403,
      "Ġart": 3404,
      "models": 3405,
      "icrosoft": 3406,
      "Ġgraph": 3407,
      "Ġ['": 3408,
      "make": 3409,
      "olve": 3410,
      "Ġentry": 3411,
      "Current": 3412,
      "Ġhandle": 3413,
      "join": 3414,
      "Ġcharacter": 3415,
      "Ġhash": 3416,
      "(:": 3417,
      "Ġeither": 3418,
      "Gamma": 3419,
      "actions": 3420,
      "Ġtoken": 3421,
      "split": 3422,
      "Ġinfo": 3423,
      "ped": 3424,
      "ĠOr": 3425,
      "ba": 3426,
      "cret": 3427,
      "ended": 3428,
      "Ġlanguage": 3429,
      "Ġempty": 3430,
      "Ġge": 3431,
      "session": 3432,
      "88": 3433,
      "ĠEXPECT": 3434,
      "ĠAll": 3435,
      "creen": 3436,
      "Rout": 3437,
      "ordin": 3438,
      "Ġarguments": 3439,
      "DIR": 3440,
      "DL": 3441,
      "Iter": 3442,
      "oice": 3443,
      "Sign": 3444,
      "psilon": 3445,
      "types": 3446,
      "ium": 3447,
      "widget": 3448,
      "Ġmuch": 3449,
      "vm": 3450,
      "Ġmak": 3451,
      "AA": 3452,
      "Ġoperation": 3453,
      "ERROR": 3454,
      "Ġmeasure": 3455,
      "ĠLog": 3456,
      "Ġinstall": 3457,
      "iod": 3458,
      "Parser": 3459,
      "outh": 3460,
      "uter": 3461,
      "used": 3462,
      "cat": 3463,
      "Parameters": 3464,
      "Ġindic": 3465,
      "toString": 3466,
      "env": 3467,
      "Ġdone": 3468,
      "miss": 3469,
      "Ġundefined": 3470,
      "ĠBG": 3471,
      "Ġ~": 3472,
      "'],": 3473,
      "Host": 3474,
      "orn": 3475,
      "ĠĠĠĠĠĠĠĠĠĠĠĠĠĠĠĠĠĠĠĠ": 3476,
      "Ġclo": 3477,
      "Ġcar": 3478,
      "Order": 3479,
      "Ġwhether": 3480,
      "Icon": 3481,
      "ĉĉĊ": 3482,
      "ining": 3483,
      "Ġfore": 3484,
      "equals": 3485,
      "prop": 3486,
      "vec": 3487,
      "engine": 3488,
      "Ġclose": 3489,
      "Assert": 3490,
      "sf": 3491,
      "ccur": 3492,
      "ilt": 3493,
      "ival": 3494,
      "Pos": 3495,
      "Ġappe": 3496,
      "ĠAd": 3497,
      "Ġmatrix": 3498,
      "byte": 3499,
      "ĠThere": 3500,
      "uple": 3501,
      ")$,": 3502,
      "Template": 3503,
      "Ġreceiv": 3504,
      "tegr": 3505,
      "Ġapplication": 3506,
      "known": 3507,
      "Ġbyte": 3508,
      "Vector": 3509,
      "export": 3510,
      "brary": 3511,
      "vision": 3512,
      "ĠCheck": 3513,
      "Left": 3514,
      "req": 3515,
      "ensity": 3516,
      "rangle": 3517,
      "jo": 3518,
      "Ġconfiguration": 3519,
      "}=": 3520,
      "ĠBe": 3521,
      "cing": 3522,
      "ĠĠĠĠĠĠĠĠĠĠĠĠĠĠĠĠĠĠĠĠĠĠĠĠĠĠĠĠĠĠĠĠĠĠĠĠĠĠĠ": 3523,
      "Ġrelation": 3524,
      "ĉĠ": 3525,
      "ctionary": 3526,
      "clus": 3527,
      "CL": 3528,
      "Ġgu": 3529,
      "Ġbit": 3530,
      "Ġenergy": 3531,
      "ĠOR": 3532,
      "send": 3533,
      "impl": 3534,
      "Ġreport": 3535,
      "ignore": 3536,
      "imate": 3537,
      "Ġoriginal": 3538,
      "TER": 3539,
      "(*": 3540,
      "Ġfree": 3541,
      "parameter": 3542,
      "Cal": 3543,
      "mes": 3544,
      "Ġcalcul": 3545,
      "09": 3546,
      "adow": 3547,
      "hel": 3548,
      "Descript": 3549,
      "MM": 3550,
      "card": 3551,
      "Ġrole": 3552,
      "Ġcreated": 3553,
      "Ġanother": 3554,
      "ately": 3555,
      "mar": 3556,
      "Ġproblem": 3557,
      "ĠTO": 3558,
      "Ġparse": 3559,
      "icker": 3560,
      "Title": 3561,
      "ung": 3562,
      "ital": 3563,
      "orizont": 3564,
      "dated": 3565,
      "Ġden": 3566,
      "gistry": 3567,
      "bb": 3568,
      "Invalid": 3569,
      "ops": 3570,
      "pository": 3571,
      "system": 3572,
      "handle": 3573,
      "ites": 3574,
      "ATA": 3575,
      "ember": 3576,
      "ĠPh": 3577,
      "Reader": 3578,
      "lished": 3579,
      "ART": 3580,
      "ads": 3581,
      "Ġrelease": 3582,
      "Ġsat": 3583,
      "ORD": 3584,
      "urther": 3585,
      "hover": 3586,
      "SO": 3587,
      "RA": 3588,
      "^{(": 3589,
      "06": 3590,
      "ĠBGCOLOR": 3591,
      "'>": 3592,
      "False": 3593,
      "Tool": 3594,
      "Ġmass": 3595,
      "03": 3596,
      "Down": 3597,
      "Ġpower": 3598,
      "click": 3599,
      "ured": 3600,
      "SET": 3601,
      "break": 3602,
      "Ġshort": 3603,
      "Ġpoints": 3604,
      "Ġprovided": 3605,
      "utions": 3606,
      "}^{\\": 3607,
      "Rect": 3608,
      "Ġchannel": 3609,
      "Values": 3610,
      "\">&": 3611,
      "HO": 3612,
      "encies": 3613,
      "Ġcontains": 3614,
      "sl": 3615,
      "Debug": 3616,
      "sa": 3617,
      "XX": 3618,
      "={": 3619,
      "Ġalign": 3620,
      "era": 3621,
      "replace": 3622,
      "ority": 3623,
      "Ġquant": 3624,
      "Ġsimilar": 3625,
      "ixt": 3626,
      "kind": 3627,
      "Ġ;": 3628,
      "OS": 3629,
      "`.": 3630,
      "vector": 3631,
      "Def": 3632,
      "Ġword": 3633,
      ">();": 3634,
      "exception": 3635,
      "scal": 3636,
      "Args": 3637,
      "Ġscope": 3638,
      "webkit": 3639,
      "ĠSp": 3640,
      "Ġexception": 3641,
      "Scal": 3642,
      "Ġaccount": 3643,
      "ement": 3644,
      "orizontal": 3645,
      "Ġloc": 3646,
      "Ġhttps": 3647,
      "cording": 3648,
      "ict": 3649,
      "ets": 3650,
      "Ġcontainer": 3651,
      "ĠDes": 3652,
      "Bytes": 3653,
      "includegraphics": 3654,
      "255": 3655,
      "Ġapi": 3656,
      "Ġpackage": 3657,
      ".\\": 3658,
      "Ġshown": 3659,
      "2014": 3660,
      "SA": 3661,
      "ĠNot": 3662,
      "Stack": 3663,
      "requ": 3664,
      "ront": 3665,
      "settings": 3666,
      "}).": 3667,
      "transform": 3668,
      "panel": 3669,
      "address": 3670,
      "Ġbro": 3671,
      "ĠSee": 3672,
      "rem": 3673,
      "Names": 3674,
      "ynamic": 3675,
      "exports": 3676,
      "Parent": 3677,
      "ze": 3678,
      "media": 3679,
      "Deta": 3680,
      "Ġworld": 3681,
      ">.": 3682,
      "Xml": 3683,
      "Application": 3684,
      "Ġ${\\": 3685,
      "CP": 3686,
      "disabled": 3687,
      "Ġtrack": 3688,
      "Api": 3689,
      ")=": 3690,
      "vid": 3691,
      "background": 3692,
      "access": 3693,
      "Ġaround": 3694,
      "coder": 3695,
      "Ġevents": 3696,
      "Metadata": 3697,
      "coded": 3698,
      "iver": 3699,
      "rr": 3700,
      "One": 3701,
      "###": 3702,
      "=\"/": 3703,
      "Ġdelete": 3704,
      "Ġoperator": 3705,
      "Ġ})": 3706,
      "untry": 3707,
      "Ġder": 3708,
      "GET": 3709,
      "footer": 3710,
      "Right": 3711,
      "PRE": 3712,
      "Ġvector": 3713,
      "utor": 3714,
      "....": 3715,
      "ersist": 3716,
      "Ġunsigned": 3717,
      "Ġregion": 3718,
      "pop": 3719,
      "ĠMap": 3720,
      "ln": 3721,
      "Ġobjects": 3722,
      "vare": 3723,
      "bootstrap": 3724,
      "ä¸": 3725,
      "---": 3726,
      "fil": 3727,
      "Use": 3728,
      "custom": 3729,
      "Ġstructure": 3730,
      "BO": 3731,
      "77": 3732,
      "oost": 3733,
      "Inst": 3734,
      "irm": 3735,
      "Ġpres": 3736,
      "Ġproduct": 3737,
      "eded": 3738,
      "URE": 3739,
      "ii": 3740,
      "Ġinline": 3741,
      "Ġlocation": 3742,
      "onding": 3743,
      "----------------------------------------------------------------": 3744,
      "Ġdescription": 3745,
      "ymf": 3746,
      "Ġheader": 3747,
      "Definition": 3748,
      "ird": 3749,
      "ĠTrans": 3750,
      "SL": 3751,
      "IM": 3752,
      "ymfony": 3753,
      "Writer": 3754,
      "Ġbest": 3755,
      "tach": 3756,
      "Vert": 3757,
      "Ġload": 3758,
      "fn": 3759,
      "LIC": 3760,
      "ometry": 3761,
      "à¤": 3762,
      "orph": 3763,
      "Ġcert": 3764,
      "âĢľ": 3765,
      "Ġalways": 3766,
      "Ġscale": 3767,
      "Ġbytes": 3768,
      "varepsilon": 3769,
      "AND": 3770,
      "Policy": 3771,
      "Has": 3772,
      "Ġincluding": 3773,
      "ires": 3774,
      "Ġecho": 3775,
      "Byte": 3776,
      "istic": 3777,
      "Classes": 3778,
      "Ġcl": 3779,
      "dom": 3780,
      "served": 3781,
      "}),": 3782,
      "boolean": 3783,
      "ĠassertEquals": 3784,
      "callback": 3785,
      "ĠRem": 3786,
      "Ġrandom": 3787,
      "attribute": 3788,
      "FAULT": 3789,
      "rightarrow": 3790,
      "Ġ++": 3791,
      "Ġ\"/": 3792,
      "Ġdep": 3793,
      "Ġreturned": 3794,
      "Ġparticular": 3795,
      "TEST": 3796,
      "ĠTime": 3797,
      "admin": 3798,
      "CHE": 3799,
      "Ġdel": 3800,
      "Enabled": 3801,
      "65": 3802,
      "emph": 3803,
      "Ð°Ð": 3804,
      "Body": 3805,
      "&&": 3806,
      "Ġdue": 3807,
      "Delete": 3808,
      "raft": 3809,
      "protobuf": 3810,
      "Are": 3811,
      "Ġpay": 3812,
      "ĠDis": 3813,
      "Meta": 3814,
      "Ġear": 3815,
      "[\\": 3816,
      "SSERT": 3817,
      "Boolean": 3818,
      "ĠJSON": 3819,
      "Us": 3820,
      ".~\\": 3821,
      "toggle": 3822,
      "Param": 3823,
      "Ġassociated": 3824,
      "ĠTrue": 3825,
      "vas": 3826,
      "Ġ\\,": 3827,
      "ĠCON": 3828,
      "Ġprogram": 3829,
      "aving": 3830,
      "iness": 3831,
      "Ġput": 3832,
      "BA": 3833,
      "Root": 3834,
      "}\"": 3835,
      "Ġdefine": 3836,
      "ters": 3837,
      "Ġsession": 3838,
      "mock": 3839,
      "precated": 3840,
      "Ġinstead": 3841,
      "framework": 3842,
      "uc": 3843,
      "Package": 3844,
      "ĠĠĠĠĠĠĠĠĠĠĠĠĠĠĠĠĠĠ": 3845,
      "Sk": 3846,
      "Ġgr": 3847,
      "__(": 3848,
      "mbers": 3849,
      "CA": 3850,
      "-->": 3851,
      "Mock": 3852,
      "Descriptor": 3853,
      "padding": 3854,
      "shot": 3855,
      "Channel": 3856,
      ";<": 3857,
      "SION": 3858,
      "\\\"": 3859,
      "ĠMan": 3860,
      "had": 3861,
      "aly": 3862,
      "Ġcap": 3863,
      "lies": 3864,
      "desc": 3865,
      "greg": 3866,
      "varphi": 3867,
      "INE": 3868,
      "That": 3869,
      "Ġsequence": 3870,
      "Ġswitch": 3871,
      "49": 3872,
      "ĠDate": 3873,
      "Tests": 3874,
      "END": 3875,
      "47": 3876,
      "Ġplan": 3877,
      "Ġjob": 3878,
      "Ġmean": 3879,
      "chi": 3880,
      "ĠIm": 3881,
      "Draw": 3882,
      "connect": 3883,
      "ATH": 3884,
      "dependency": 3885,
      "ORM": 3886,
      "Ġelect": 3887,
      "until": 3888,
      "ĠAmeric": 3889,
      "double": 3890,
      "Ġremo": 3891,
      "icons": 3892,
      "Ver": 3893,
      "ĠIO": 3894,
      "uri": 3895,
      "Ġvia": 3896,
      "Non": 3897,
      "cloud": 3898,
      "geq": 3899,
      "FT": 3900,
      "Ġcref": 3901,
      "Ġos": 3902,
      "ention": 3903,
      "2013": 3904,
      "ernel": 3905,
      "Ġjson": 3906,
      "Ġpas": 3907,
      "peed": 3908,
      "ircle": 3909,
      "Track": 3910,
      ".}": 3911,
      "CD": 3912,
      "sql": 3913,
      "Ġcontinue": 3914,
      "iddle": 3915,
      "Ġauth": 3916,
      "Ġbegin": 3917,
      "help": 3918,
      "Fields": 3919,
      "rest": 3920,
      "Ass": 3921,
      "lain": 3922,
      "Ġsolid": 3923,
      "Ġthread": 3924,
      "Ġadded": 3925,
      "ij": 3926,
      "alle": 3927,
      "izes": 3928,
      "oment": 3929,
      "VE": 3930,
      "cf": 3931,
      "iversity": 3932,
      "register": 3933,
      "Ġdirectory": 3934,
      "87": 3935,
      "virtual": 3936,
      "aven": 3937,
      "ĠBut": 3938,
      "Let": 3939,
      "$(": 3940,
      "Ġcollection": 3941,
      "Ġ'/": 3942,
      "rary": 3943,
      "Ġselected": 3944,
      "enter": 3945,
      "DD": 3946,
      "Mon": 3947,
      "{}": 3948,
      "Ġtech": 3949,
      "fact": 3950,
      "Bind": 3951,
      "ries": 3952,
      "VI": 3953,
      "Ġpub": 3954,
      "Build": 3955,
      "Ġagainst": 3956,
      "CTION": 3957,
      "tle": 3958,
      ".âĢĿ": 3959,
      "insert": 3960,
      "Load": 3961,
      "Ġterms": 3962,
      "xis": 3963,
      "ĠTra": 3964,
      "Ġinvoke": 3965,
      "Tab": 3966,
      "ĠError": 3967,
      "nd": 3968,
      "Ġspect": 3969,
      "dapter": 3970,
      "overline": 3971,
      "WE": 3972,
      "place": 3973,
      "focus": 3974,
      "Num": 3975,
      "Ġcenter": 3976,
      "fill": 3977,
      "\")]": 3978,
      "42": 3979,
      "Ġelem": 3980,
      "Changed": 3981,
      "coin": 3982,
      "Ġfeature": 3983,
      "success": 3984,
      "ĠValue": 3985,
      "\"\"\"": 3986,
      "tip": 3987,
      "ested": 3988,
      "GN": 3989,
      "proof": 3990,
      "Ġdatabase": 3991,
      "plugins": 3992,
      "Edit": 3993,
      "Ġcommun": 3994,
      "Long": 3995,
      "conn": 3996,
      "Ġpl": 3997,
      "Ġeas": 3998,
      "Ġbelow": 3999,
      "Dialog": 4000,
      "Storage": 4001,
      "Ġsend": 4002,
      "Ġ<=": 4003,
      "Ġfour": 4004,
      "Ġmsg": 4005,
      "bound": 4006,
      "`,": 4007,
      "Ġcannot": 4008,
      "oom": 4009,
      "trics": 4010,
      "ategy": 4011,
      "Ġregister": 4012,
      "'))": 4013,
      "Ġdistribution": 4014,
      "lying": 4015,
      "Ġstandard": 4016,
      "wrap": 4017,
      "ymme": 4018,
      "cmd": 4019,
      "weight": 4020,
      "aging": 4021,
      "ynch": 4022,
      "enum": 4023,
      "ipel": 4024,
      "items": 4025,
      "pped": 4026,
      "OM": 4027,
      "cla": 4028,
      "(-": 4029,
      "pub": 4030,
      "Ġunit": 4031,
      "Ġterm": 4032,
      "Ġ(\"": 4033,
      "then": 4034,
      "ĠST": 4035,
      "OK": 4036,
      "Ġmer": 4037,
      "Ġfollows": 4038,
      "ĠHTML": 4039,
      "Ġiss": 4040,
      "illi": 4041,
      "Ġgl": 4042,
      "Ġknown": 4043,
      "Ġcla": 4044,
      "},\\": 4045,
      "ragment": 4046,
      "Ġbox": 4047,
      "serial": 4048,
      "Ġexcept": 4049,
      "edit": 4050,
      "ases": 4051,
      "posed": 4052,
      "Ġbel": 4053,
      "Ġleast": 4054,
      "Ġve": 4055,
      "Rule": 4056,
      "Net": 4057,
      "endar": 4058,
      "ressed": 4059,
      "ĠWhen": 4060,
      "annotation": 4061,
      "Ġactive": 4062,
      "blockList": 4063,
      "Ġcorrect": 4064,
      "Ġtool": 4065,
      "ids": 4066,
      "Ġtoo": 4067,
      "Ġpot": 4068,
      "solute": 4069,
      "ĠInt": 4070,
      "Post": 4071,
      "ĠLO": 4072,
      "Ġ('": 4073,
      "isf": 4074,
      "SD": 4075,
      "86": 4076,
      "ĠRE": 4077,
      "Ġreplace": 4078,
      "Decl": 4079,
      "Ġperson": 4080,
      "Ġpair": 4081,
      "ĠCal": 4082,
      "sort": 4083,
      "unsigned": 4084,
      "Ġvari": 4085,
      "Ġexists": 4086,
      "Ġtransform": 4087,
      "Click": 4088,
      "Ġdefinition": 4089,
      "Custom": 4090,
      "Ġless": 4091,
      "connection": 4092,
      "ĠSup": 4093,
      "Ġnodes": 4094,
      "ĠWeb": 4095,
      "Ġoccur": 4096,
      "chor": 4097,
      "fields": 4098,
      "Extension": 4099,
      "Job": 4100,
      "Graph": 4101,
      "Fa": 4102,
      "Obj": 4103,
      "ĠĠĠĠĠĠĊ": 4104,
      "=\"../../../": 4105,
      "inline": 4106,
      "record": 4107,
      "hline": 4108,
      "xx": 4109,
      "application": 4110,
      "External": 4111,
      "ks": 4112,
      "ambda": 4113,
      "85": 4114,
      "Ġconstant": 4115,
      "Ġgenerated": 4116,
      "initial": 4117,
      "Ġsettings": 4118,
      "Ġ),": 4119,
      "Ġsepar": 4120,
      "dr": 4121,
      "Ġuntil": 4122,
      "Ġ(*": 4123,
      "trie": 4124,
      "hes": 4125,
      "Rel": 4126,
      "iteral": 4127,
      "MD": 4128,
      "ĠHowever": 4129,
      "Ġpr": 4130,
      "Ġbutton": 4131,
      "KEY": 4132,
      "Ġfailed": 4133,
      "Ġday": 4134,
      "Ġbecome": 4135,
      "Queue": 4136,
      "Ġpur": 4137,
      "ĠTe": 4138,
      "channel": 4139,
      "ĠMar": 4140,
      "Bound": 4141,
      "Timeout": 4142,
      "Display": 4143,
      "Ġmight": 4144,
      "ĠNOT": 4145,
      "Ġcorresponding": 4146,
      "usic": 4147,
      "HTML": 4148,
      "jection": 4149,
      "Ġzero": 4150,
      "Init": 4151,
      "70": 4152,
      "aut": 4153,
      "Ġtree": 4154,
      "rief": 4155,
      "ĠĠĠĠĠĠĠĠĠĠĠĠĠĠĠĠĠĠĠĠĠĠĠĠĠ": 4156,
      "ĠMath": 4157,
      "under": 4158,
      "addr": 4159,
      "rupt": 4160,
      "Ġinstanceof": 4161,
      "ĠURL": 4162,
      ")^": 4163,
      "izing": 4164,
      "ĠEvent": 4165,
      "hadoop": 4166,
      "havior": 4167,
      "Ġturn": 4168,
      "Ġsimple": 4169,
      "alf": 4170,
      "mut": 4171,
      "amera": 4172,
      "Ġstep": 4173,
      "Variable": 4174,
      "Ġchanges": 4175,
      "Ġmultiple": 4176,
      "step": 4177,
      "coq": 4178,
      "cert": 4179,
      "Ġtransaction": 4180,
      "Ġmeans": 4181,
      "ograph": 4182,
      "printf": 4183,
      "normal": 4184,
      "Ġfew": 4185,
      "after": 4186,
      "grid": 4187,
      "Msg": 4188,
      "Cre": 4189,
      "agnost": 4190,
      "margin": 4191,
      "Ġrem": 4192,
      "Ġassume": 4193,
      "Widget": 4194,
      "langle": 4195,
      "46": 4196,
      "89": 4197,
      "Ins": 4198,
      "Ġlight": 4199,
      "ĠSc": 4200,
      "password": 4201,
      "ĠThen": 4202,
      "lash": 4203,
      "Database": 4204,
      "uss": 4205,
      "Ġ{};": 4206,
      "TA": 4207,
      "cover": 4208,
      "Doc": 4209,
      "Ġsever": 4210,
      "entity": 4211,
      "Ġsure": 4212,
      "Ge": 4213,
      "Lambda": 4214,
      "ĠSub": 4215,
      "Ġjavax": 4216,
      "Ġthink": 4217,
      "PH": 4218,
      "Ġalong": 4219,
      "Ġdetails": 4220,
      "cpp": 4221,
      "mi": 4222,
      "pg": 4223,
      "&#": 4224,
      "ipeline": 4225,
      "Ġshows": 4226,
      "_->": 4227,
      "unded": 4228,
      "JSON": 4229,
      "ĠDefault": 4230,
      "Ġrelative": 4231,
      "Active": 4232,
      "keys": 4233,
      "FILE": 4234,
      "ina": 4235,
      "_,": 4236,
      "Ġprovide": 4237,
      "ĠFe": 4238,
      "Scope": 4239,
      "Ġweight": 4240,
      "dat": 4241,
      "Ġhapp": 4242,
      "Ġexpression": 4243,
      "Ġdoc": 4244,
      "Ġperformance": 4245,
      "Ġhome": 4246,
      "full": 4247,
      "free": 4248,
      "ĠAc": 4249,
      "Ġstop": 4250,
      "Ġlater": 4251,
      "ITY": 4252,
      "////////////////////////////////": 4253,
      "category": 4254,
      "Runtime": 4255,
      "2011": 4256,
      "Ġconn": 4257,
      "ĠCan": 4258,
      "letion": 4259,
      "Ġtimes": 4260,
      "Transaction": 4261,
      "Ġlinear": 4262,
      "2012": 4263,
      "otion": 4264,
      "Require": 4265,
      "ceive": 4266,
      "Ġmemory": 4267,
      "Ġnames": 4268,
      "Ġseries": 4269,
      "Ġlower": 4270,
      "ynchron": 4271,
      "Ġerrors": 4272,
      "Ġcommon": 4273,
      "region": 4274,
      "Ġalt": 4275,
      "Found": 4276,
      "Ġselection": 4277,
      "ĠUser": 4278,
      "\"`": 4279,
      "TED": 4280,
      "(!": 4281,
      "1000": 4282,
      "Ġassign": 4283,
      "Send": 4284,
      "just": 4285,
      "SER": 4286,
      "material": 4287,
      "shape": 4288,
      "ev": 4289,
      "Ġdoesn": 4290,
      "&\\": 4291,
      "Lock": 4292,
      "Ġcluster": 4293,
      "Network": 4294,
      "ĠService": 4295,
      "Ġhtml": 4296,
      "ĠInter": 4297,
      "Float": 4298,
      "Ġintegr": 4299,
      "super": 4300,
      "aring": 4301,
      "usiness": 4302,
      "*)": 4303,
      "thread": 4304,
      "ĠAb": 4305,
      "aged": 4306,
      "Ġraise": 4307,
      "contrib": 4308,
      "ade": 4309,
      "imes": 4310,
      "Ġdb": 4311,
      "Ġquest": 4312,
      "bolds": 4313,
      "Ġsort": 4314,
      "@\"": 4315,
      "atio": 4316,
      "aves": 4317,
      "hr": 4318,
      "email": 4319,
      "alloc": 4320,
      "Initial": 4321,
      "]]": 4322,
      "cr": 4323,
      "ari": 4324,
      "uary": 4325,
      "na": 4326,
      "olution": 4327,
      "high": 4328,
      "MENT": 4329,
      "Ġsay": 4330,
      "ĠNote": 4331,
      "Ġitems": 4332,
      "lor": 4333,
      "Plugin": 4334,
      "Ġamount": 4335,
      "Ġbook": 4336,
      "formed": 4337,
      "ohn": 4338,
      "gu": 4339,
      "napshot": 4340,
      "Ġsolution": 4341,
      "ety": 4342,
      "ube": 4343,
      "EXT": 4344,
      "Ġsets": 4345,
      "iform": 4346,
      "Ġscript": 4347,
      "Only": 4348,
      "ĉĉĉĊ": 4349,
      "comment": 4350,
      "Ø§": 4351,
      "AGE": 4352,
      ".__": 4353,
      "Ġsw": 4354,
      "[:": 4355,
      "Each": 4356,
      "Ġhandler": 4357,
      "issing": 4358,
      "Security": 4359,
      "57": 4360,
      "NotNull": 4361,
      "Ġcour": 4362,
      "ĠPy": 4363,
      "Ġintro": 4364,
      "Phi": 4365,
      "romise": 4366,
      "Ġlines": 4367,
      "gex": 4368,
      "Ġcause": 4369,
      "Âł": 4370,
      "II": 4371,
      "Ġemp": 4372,
      "Ġstates": 4373,
      "dropdown": 4374,
      "Ġmag": 4375,
      "install": 4376,
      "arp": 4377,
      "->_": 4378,
      "cit": 4379,
      "Ġfeatures": 4380,
      "herit": 4381,
      "ĠWith": 4382,
      "Ġsm": 4383,
      "itions": 4384,
      "radius": 4385,
      "Ġstrong": 4386,
      "note": 4387,
      "oll": 4388,
      "Show": 4389,
      "ench": 4390,
      "Ã¡": 4391,
      "}}$": 4392,
      "flu": 4393,
      "short": 4394,
      "scroll": 4395,
      "Ġdiff": 4396,
      "typeof": 4397,
      "Account": 4398,
      "Flags": 4399,
      "ĠUse": 4400,
      "~~~~": 4401,
      "nab": 4402,
      "=\"\"": 4403,
      "JECT": 4404,
      "assertEqual": 4405,
      "save": 4406,
      "lyph": 4407,
      "zz": 4408,
      "utf": 4409,
      "pag": 4410,
      "Ġstack": 4411,
      "appa": 4412,
      "hs": 4413,
      "Member": 4414,
      "site": 4415,
      "rome": 4416,
      "Ġmedia": 4417,
      "frak": 4418,
      "important": 4419,
      "idual": 4420,
      "lapse": 4421,
      "Logger": 4422,
      "holder": 4423,
      "boldsymbol": 4424,
      "lue": 4425,
      "Symbol": 4426,
      "Internal": 4427,
      "59": 4428,
      "modules": 4429,
      "Ġattr": 4430,
      "Ġspecial": 4431,
      "ĠMay": 4432,
      "UID": 4433,
      "Ġactual": 4434,
      "Ġlinks": 4435,
      "Ġ[];": 4436,
      "operator": 4437,
      "unch": 4438,
      "SIZE": 4439,
      "Ġpattern": 4440,
      "Mark": 4441,
      "ixture": 4442,
      "ĠState": 4443,
      "allow": 4444,
      "dim": 4445,
      ")))": 4446,
      "citep": 4447,
      "TEX": 4448,
      "tect": 4449,
      "Ġkeep": 4450,
      "ably": 4451,
      "Ġrate": 4452,
      "keyword": 4453,
      "atist": 4454,
      "Ġcomplex": 4455,
      "lim": 4456,
      "achine": 4457,
      "Ġwait": 4458,
      "aws": 4459,
      "Ġweb": 4460,
      "=\"@": 4461,
      "arr": 4462,
      "Ġfunc": 4463,
      "mbox": 4464,
      "sumer": 4465,
      "throws": 4466,
      "DF": 4467,
      "Ġauthor": 4468,
      "Ġcontinu": 4469,
      "Ð»": 4470,
      "Ġonce": 4471,
      "rain": 4472,
      "ĠVAL": 4473,
      ")));": 4474,
      "license": 4475,
      "entication": 4476,
      "Ġbetter": 4477,
      "Ġmock": 4478,
      "Ne": 4479,
      "()));": 4480,
      "Ġsupp": 4481,
      ",-": 4482,
      "Ġsent": 4483,
      "lide": 4484,
      "schema": 4485,
      "Ġwallet": 4486,
      "ĠVal": 4487,
      "none": 4488,
      "Ġsetting": 4489,
      "Windows": 4490,
      "Selector": 4491,
      "assertEquals": 4492,
      "After": 4493,
      "Ġsatisf": 4494,
      "Ġweek": 4495,
      "Items": 4496,
      "Ġarea": 4497,
      "ĠGe": 4498,
      "Ġperiod": 4499,
      "LOG": 4500,
      "Ġaccept": 4501,
      "flags": 4502,
      "Pool": 4503,
      "ĠFalse": 4504,
      "Ġnear": 4505,
      "ById": 4506,
      "======": 4507,
      "Ġconditions": 4508,
      "Ġ%}": 4509,
      "Loader": 4510,
      "txt": 4511,
      "language": 4512,
      "Ġstudy": 4513,
      "kappa": 4514,
      ".*": 4515,
      "Directory": 4516,
      "ĠBase": 4517,
      "illa": 4518,
      "Results": 4519,
      "une": 4520,
      "ĠNode": 4521,
      "white": 4522,
      "Ġide": 4523,
      "MAX": 4524,
      "Grid": 4525,
      "ullable": 4526,
      "umbers": 4527,
      "home": 4528,
      "Ġchildren": 4529,
      "Ġdistance": 4530,
      "Ġautom": 4531,
      "Ġ${": 4532,
      "ocial": 4533,
      "Ġsite": 4534,
      "textit": 4535,
      "++;": 4536,
      "Protocol": 4537,
      "Enum": 4538,
      "VERSION": 4539,
      "stats": 4540,
      "ĠEng": 4541,
      "ied": 4542,
      "ĠInst": 4543,
      "numer": 4544,
      "events": 4545,
      "gre": 4546,
      "()).": 4547,
      "_(": 4548,
      "Lib": 4549,
      "Ġdetermin": 4550,
      "56": 4551,
      ")\">": 4552,
      "crypt": 4553,
      "primary": 4554,
      "pk": 4555,
      "Ñĥ": 4556,
      "arison": 4557,
      "nabla": 4558,
      "ands": 4559,
      "Iterator": 4560,
      "Editor": 4561,
      "anner": 4562,
      "Ġobserv": 4563,
      "Panel": 4564,
      "selected": 4565,
      "lank": 4566,
      "Can": 4567,
      "ffff": 4568,
      "Ġadditional": 4569,
      "ived": 4570,
      "aries": 4571,
      "ldots": 4572,
      "git": 4573,
      "ĠCopy": 4574,
      "Support": 4575,
      "manager": 4576,
      "clo": 4577,
      "=\"\">": 4578,
      "CS": 4579,
      "controller": 4580,
      "Ġsupported": 4581,
      "Ġserial": 4582,
      "stop": 4583,
      "Proxy": 4584,
      "uman": 4585,
      "ĠĠĠĠĠĠĠĠĠĠĠĠĠĠĠĠĠĠĠĠĠĠĠĠ": 4586,
      "jquery": 4587,
      "ĠAct": 4588,
      "Fin": 4589,
      "legal": 4590,
      "relation": 4591,
      "product": 4592,
      "Ġimpro": 4593,
      "ADD": 4594,
      "Ġimportant": 4595,
      "ury": 4596,
      "ĠIS": 4597,
      "Ġpy": 4598,
      "CR": 4599,
      "/\\": 4600,
      "uting": 4601,
      "Ġdraw": 4602,
      "mathfrak": 4603,
      "Bit": 4604,
      "EM": 4605,
      "Ġanalysis": 4606,
      "'.": 4607,
      "rule": 4608,
      "wner": 4609,
      "oose": 4610,
      "Ġrunning": 4611,
      "Ġlaw": 4612,
      "Activity": 4613,
      "gative": 4614,
      "Func": 4615,
      "fl": 4616,
      "Red": 4617,
      ";/": 4618,
      "ĠCre": 4619,
      "Ġbtn": 4620,
      "echo": 4621,
      "Struct": 4622,
      "Ġkeys": 4623,
      "'])": 4624,
      "bytes": 4625,
      "Ġotherwise": 4626,
      "ARY": 4627,
      "Auto": 4628,
      "Ġrot": 4629,
      "Ġradi": 4630,
      "uby": 4631,
      "Ġpassed": 4632,
      "ĠThese": 4633,
      "256": 4634,
      "Ġapplic": 4635,
      "tmp": 4636,
      "ka": 4637,
      "Ljava": 4638,
      "%%%%": 4639,
      "like": 4640,
      "sample": 4641,
      "wards": 4642,
      "tries": 4643,
      "Ġnever": 4644,
      "Annot": 4645,
      "ached": 4646,
      "screen": 4647,
      "Ġcases": 4648,
      "Ġconsole": 4649,
      "Ġpointer": 4650,
      "ĠLo": 4651,
      "Ġmonth": 4652,
      "Symfony": 4653,
      "Ġred": 4654,
      "spring": 4655,
      "\\%": 4656,
      "car": 4657,
      "Ġfixed": 4658,
      "Ġtypename": 4659,
      "rip": 4660,
      "ĠKey": 4661,
      "otimes": 4662,
      "XML": 4663,
      "Ġ\"\"": 4664,
      "(){": 4665,
      "Namespace": 4666,
      "job": 4667,
      "handler": 4668,
      "76": 4669,
      "lier": 4670,
      "acket": 4671,
      "ĠEnd": 4672,
      "]:": 4673,
      "Any": 4674,
      "ĠOpen": 4675,
      "PAR": 4676,
      "TABLE": 4677,
      "Ġfn": 4678,
      "Memory": 4679,
      "Socket": 4680,
      "Ġdensity": 4681,
      "})$": 4682,
      "asing": 4683,
      "Ġignore": 4684,
      "vance": 4685,
      "cb": 4686,
      "properties": 4687,
      "volution": 4688,
      "PORT": 4689,
      "each": 4690,
      "stand": 4691,
      "Ġface": 4692,
      "ĠĠĠĠĠĠĠĠĠĠĠĠĠĠĠĠĠĠĠĠĠĠ": 4693,
      "Ġtab": 4694,
      "Ġcontrib": 4695,
      "\",\"": 4696,
      "Ġevalu": 4697,
      "circ": 4698,
      "Attributes": 4699,
      "84": 4700,
      "Arg": 4701,
      "Ġinteger": 4702,
      "Ġnet": 4703,
      "IR": 4704,
      "andid": 4705,
      "Ġextra": 4706,
      "çļ": 4707,
      "500": 4708,
      "Ġidx": 4709,
      "Generic": 4710,
      "ROM": 4711,
      "raints": 4712,
      "You": 4713,
      "network": 4714,
      "Ġdr": 4715,
      "Ġnumer": 4716,
      "çļĦ": 4717,
      "'re": 4718,
      "Ġhead": 4719,
      "Ġreason": 4720,
      "PATH": 4721,
      "Ġobtained": 4722,
      "chan": 4723,
      "iterator": 4724,
      "Ġsoftware": 4725,
      "mult": 4726,
      "pay": 4727,
      "rate": 4728,
      "marks": 4729,
      "rist": 4730,
      "Close": 4731,
      "Ġdesign": 4732,
      "para": 4733,
      "Adapter": 4734,
      "ros": 4735,
      "atalog": 4736,
      "Ġconvert": 4737,
      "Dep": 4738,
      "Ġ(_": 4739,
      "ilities": 4740,
      "IF": 4741,
      "ping": 4742,
      "ĠThey": 4743,
      "equiv": 4744,
      "olver": 4745,
      "Eng": 4746,
      "ours": 4747,
      "2010": 4748,
      "assets": 4749,
      "Ġunique": 4750,
      "peak": 4751,
      "Matrix": 4752,
      "Ġqual": 4753,
      "################": 4754,
      "Ġcomplete": 4755,
      "IGN": 4756,
      "Ġflow": 4757,
      "Feature": 4758,
      "Pattern": 4759,
      "SY": 4760,
      "logical": 4761,
      "Ġbuilder": 4762,
      "acters": 4763,
      "Ġflu": 4764,
      "inte": 4765,
      "ĠFunction": 4766,
      "Ġng": 4767,
      "NavBarCell": 4768,
      "Ġmaximum": 4769,
      "ĠNe": 4770,
      "Dist": 4771,
      "Ġcy": 4772,
      "apply": 4773,
      "Ġattributes": 4774,
      "subset": 4775,
      "Ġenvironment": 4776,
      "acing": 4777,
      "ĠOption": 4778,
      "ula": 4779,
      "SQL": 4780,
      "}-": 4781,
      "[$": 4782,
      "Perm": 4783,
      "track": 4784,
      "itude": 4785,
      "Ġseveral": 4786,
      "which": 4787,
      "So": 4788,
      "ĠTODO": 4789,
      "Ġinterest": 4790,
      "points": 4791,
      "results": 4792,
      "nt": 4793,
      "ology": 4794,
      "NE": 4795,
      "Register": 4796,
      "Ġalgorithm": 4797,
      "hidden": 4798,
      "Ġbind": 4799,
      "96": 4800,
      "ley": 4801,
      "Media": 4802,
      "Ġca": 4803,
      "95": 4804,
      "Elements": 4805,
      "ĠLet": 4806,
      "lines": 4807,
      "domain": 4808,
      "Ġteam": 4809,
      "ysical": 4810,
      "Ġio": 4811,
      "hip": 4812,
      "Ġrule": 4813,
      "nonumber": 4814,
      "Inv": 4815,
      "Desc": 4816,
      "gan": 4817,
      "Ġfurther": 4818,
      "Parse": 4819,
      ",âĢĿ": 4820,
      "mid": 4821,
      "Ġpaper": 4822,
      "Ġextension": 4823,
      "Keys": 4824,
      "ĠTable": 4825,
      "SCRI": 4826,
      "Ġremain": 4827,
      "Transform": 4828,
      "Help": 4829,
      "most": 4830,
      "security": 4831,
      "\\|": 4832,
      "gether": 4833,
      "Sum": 4834,
      "ĠAN": 4835,
      "ĠMethod": 4836,
      "ones": 4837,
      "omen": 4838,
      "olved": 4839,
      "ToString": 4840,
      "components": 4841,
      "Ġvariables": 4842,
      "ĠĠĠĠĠĠĠĠĠĠĠĠĠĠĠĠĠĠĠĠĠĠĠĠĠĠĠĠĠĠĠĠĠĠĠĠĠĠĠĠĠĠĠ": 4843,
      "BUG": 4844,
      "sel": 4845,
      "Ġneeded": 4846,
      "Pointer": 4847,
      "getName": 4848,
      "ament": 4849,
      "ango": 4850,
      "INFO": 4851,
      "Ġapply": 4852,
      "ble": 4853,
      "reed": 4854,
      "ike": 4855,
      "Ġdir": 4856,
      ")).": 4857,
      "LS": 4858,
      "}</": 4859,
      "ĠIOException": 4860,
      "ĠâĢĶ": 4861,
      "ales": 4862,
      "Ġtests": 4863,
      "Ġalloc": 4864,
      "ĠCar": 4865,
      "profile": 4866,
      "NULL": 4867,
      "Ġrecent": 4868,
      "Events": 4869,
      "ĠUniversity": 4870,
      "uro": 4871,
      "Ġdistributed": 4872,
      "vant": 4873,
      "lg": 4874,
      "Ġphase": 4875,
      "win": 4876,
      "Ġgoing": 4877,
      "Ġtypeof": 4878,
      "Ġbar": 4879,
      "Scroll": 4880,
      "Files": 4881,
      "Sigma": 4882,
      "pdf": 4883,
      "Ġlayer": 4884,
      "ĠjQuery": 4885,
      "Ġmember": 4886,
      "{-": 4887,
      "Ġfamily": 4888,
      "ĠText": 4889,
      "WS": 4890,
      "NG": 4891,
      "entials": 4892,
      "amil": 4893,
      "ulture": 4894,
      "ĠGu": 4895,
      "family": 4896,
      "UTF": 4897,
      "Statement": 4898,
      "tools": 4899,
      "ĠNO": 4900,
      "bers": 4901,
      "ĠExp": 4902,
      "![": 4903,
      "Ġkind": 4904,
      "mine": 4905,
      "ĠAss": 4906,
      "ĠEd": 4907,
      "Profile": 4908,
      "Fig": 4909,
      "Ġplugin": 4910,
      "ball": 4911,
      ")/": 4912,
      "ised": 4913,
      "Ġcombin": 4914,
      "ranch": 4915,
      "Ap": 4916,
      "sure": 4917,
      "based": 4918,
      "edge": 4919,
      "ĠVersion": 4920,
      "=(": 4921,
      "ĠOut": 4922,
      "Ġlock": 4923,
      "RAN": 4924,
      "Ġorgan": 4925,
      "lastic": 4926,
      "Ġapprox": 4927,
      "tsd": 4928,
      "Global": 4929,
      "Ġedge": 4930,
      "metadata": 4931,
      "Ġlife": 4932,
      "Ġstrict": 4933,
      "ï¼": 4934,
      "ĠShe": 4935,
      "contains": 4936,
      "Ġfuture": 4937,
      "alled": 4938,
      "inv": 4939,
      "Te": 4940,
      "collection": 4941,
      "Ġsystems": 4942,
      "ifest": 4943,
      "Expr": 4944,
      "vide": 4945,
      "Ġxmlns": 4946,
      "attributes": 4947,
      "identifier": 4948,
      "riend": 4949,
      "Layer": 4950,
      "ĠImp": 4951,
      "Ġimplements": 4952,
      "Ġsubject": 4953,
      "ĠGets": 4954,
      "Browser": 4955,
      "variant": 4956,
      "Ġapproach": 4957,
      "picker": 4958,
      "Conf": 4959,
      "Space": 4960,
      "ĠTask": 4961,
      "configuration": 4962,
      "Ġimplementation": 4963,
      "aff": 4964,
      "ĠForm": 4965,
      "Ġreq": 4966,
      "Ġdomain": 4967,
      "ĠResource": 4968,
      "mitted": 4969,
      "Ġasync": 4970,
      "va": 4971,
      "Ã¤": 4972,
      "âĢ¦": 4973,
      "shift": 4974,
      "tic": 4975,
      "ĠPer": 4976,
      "Remove": 4977,
      "dx": 4978,
      "prime": 4979,
      "total": 4980,
      "Success": 4981,
      "Ġsignific": 4982,
      "Ġhy": 4983,
      "comm": 4984,
      "ĠLandroid": 4985,
      "}}{": 4986,
      "Ġsuccessful": 4987,
      "Ġwon": 4988,
      "Ġgive": 4989,
      "Ġleg": 4990,
      "There": 4991,
      "ĠConfig": 4992,
      "ĠĠĠĠĠĠĠĠĠĠĠĠĠĠĠĠĠĠĠĠĠĠĠĠĠĠĠĠĠ": 4993,
      "trigger": 4994,
      "ĠUS": 4995,
      "reset": 4996,
      "Character": 4997,
      "that": 4998,
      "Ġexisting": 4999,
      "overnment": 5000,
      "prefix": 5001,
      "TC": 5002,
      "82": 5003,
      "webpack": 5004,
      "Ã³": 5005,
      "logger": 5006,
      "Ġoptional": 5007,
      "PL": 5008,
      "SCRIPT": 5009,
      "ount": 5010,
      "Print": 5011,
      "cogn": 5012,
      "Ġuses": 5013,
      "Ġawait": 5014,
      "Ġicon": 5015,
      "ferred": 5016,
      "props": 5017,
      "mat": 5018,
      "urb": 5019,
      "Ġsymbol": 5020,
      "Ġaverage": 5021,
      "Ġgot": 5022,
      "indent": 5023,
      "ĠLoc": 5024,
      "Services": 5025,
      "Ġ{'": 5026,
      "Ġinvalid": 5027,
      "GS": 5028,
      "ĠMin": 5029,
      "ĠMy": 5030,
      "Ġnecess": 5031,
      "yes": 5032,
      "Ġinvest": 5033,
      "area": 5034,
      "fit": 5035,
      "kens": 5036,
      "ĉĉĉĉĉĉĉĉĉ": 5037,
      "ittle": 5038,
      "browser": 5039,
      "Ġyet": 5040,
      "Failed": 5041,
      "My": 5042,
      "ni": 5043,
      "Constants": 5044,
      "oss": 5045,
      "external": 5046,
      "Nodes": 5047,
      "Identifier": 5048,
      "ĠâĢĺ": 5049,
      "CHECK": 5050,
      "Ġ&=": 5051,
      ")),": 5052,
      "Ġdebug": 5053,
      "THOD": 5054,
      "idx": 5055,
      "Sync": 5056,
      "Ġdifference": 5057,
      "ĠStr": 5058,
      "ĠĠĠĠĠĠĠĠĠĠĠĠĠĠĠĠĠĠĠĠĠĠĠĠĠĠ": 5059,
      "filename": 5060,
      "OST": 5061,
      "cheme": 5062,
      "dots": 5063,
      "Ġopp": 5064,
      "Fail": 5065,
      "peat": 5066,
      "97": 5067,
      "ifies": 5068,
      "missions": 5069,
      "orter": 5070,
      "Pe": 5071,
      "incip": 5072,
      "Java": 5073,
      "horizontal": 5074,
      "Ġreally": 5075,
      "tection": 5076,
      "Ġgenerate": 5077,
      "Duration": 5078,
      "resses": 5079,
      "Ðº": 5080,
      "fail": 5081,
      "master": 5082,
      "Ġmembers": 5083,
      "\\[": 5084,
      "43": 5085,
      "Main": 5086,
      "','": 5087,
      "Ġ\",": 5088,
      "ker": 5089,
      "STAT": 5090,
      "Pay": 5091,
      "Ġequation": 5092,
      "account": 5093,
      "parser": 5094,
      "cos": 5095,
      "uff": 5096,
      "dividual": 5097,
      "Mapping": 5098,
      "ha": 5099,
      "Ġcost": 5100,
      "BR": 5101,
      "Ġhigher": 5102,
      "real": 5103,
      "imated": 5104,
      "year": 5105,
      "brief": 5106,
      "dialog": 5107,
      "=\"${": 5108,
      "41": 5109,
      "Ġproof": 5110,
      "Before": 5111,
      "Ġencoding": 5112,
      "SU": 5113,
      "Ġexact": 5114,
      "switch": 5115,
      "Ġconstructor": 5116,
      "Ġhard": 5117,
      "dp": 5118,
      "Ġcomponents": 5119,
      "uler": 5120,
      ";\\": 5121,
      "Ġ$.": 5122,
      "alysis": 5123,
      "wargs": 5124,
      "Ġvolume": 5125,
      "Props": 5126,
      "ino": 5127,
      "Ġsug": 5128,
      "Ġtransition": 5129,
      "scribe": 5130,
      "ĠSk": 5131,
      "Ġsomething": 5132,
      "Ġsimp": 5133,
      "ages": 5134,
      "onal": 5135,
      "Ġsizeof": 5136,
      "ĠIP": 5137,
      "Ġable": 5138,
      "ising": 5139,
      "READ": 5140,
      "Repository": 5141,
      "Ġclasses": 5142,
      "Ġcross": 5143,
      "Ġtheory": 5144,
      "Ġentity": 5145,
      "gebra": 5146,
      "Ġinsert": 5147,
      "El": 5148,
      "chedule": 5149,
      "ULE": 5150,
      "Ġfit": 5151,
      "Attr": 5152,
      "Ġneeds": 5153,
      "}]": 5154,
      "Ġpolicy": 5155,
      "Ġnote": 5156,
      "Ġrelated": 5157,
      "Ġconstruct": 5158,
      "typedef": 5159,
      "Ġvideo": 5160,
      "Ġconnect": 5161,
      "Ġlibrary": 5162,
      "Ġshape": 5163,
      "ĠDi": 5164,
      "ought": 5165,
      "covery": 5166,
      "Expect": 5167,
      "(__": 5168,
      "Ġ[[": 5169,
      "Ġprom": 5170,
      "centering": 5171,
      "Ġcare": 5172,
      "Ġho": 5173,
      "term": 5174,
      "ificate": 5175,
      "Ġsurface": 5176,
      "uck": 5177,
      "OUT": 5178,
      "alance": 5179,
      "ĠUpdate": 5180,
      "Ġ=========": 5181,
      "Dest": 5182,
      "Ġblack": 5183,
      "parameters": 5184,
      "aved": 5185,
      "Ġrespectively": 5186,
      "Ġwritten": 5187,
      "VALUE": 5188,
      "Depend": 5189,
      "Ġseen": 5190,
      "Ġanaly": 5191,
      "ĠMessage": 5192,
      "TIME": 5193,
      "Ġallowed": 5194,
      "hide": 5195,
      "ĠTHE": 5196,
      "âĢĶ": 5197,
      "Double": 5198,
      "Ġmoment": 5199,
      "Abstract": 5200,
      "Ġdescribe": 5201,
      "appro": 5202,
      "ti": 5203,
      "Ġimages": 5204,
      "Ġenough": 5205,
      "160": 5206,
      "ĠÂ": 5207,
      "Ġfrequ": 5208,
      "quires": 5209,
      "Import": 5210,
      "Ġrepresentation": 5211,
      "tabs": 5212,
      "wer": 5213,
      "LECT": 5214,
      "more": 5215,
      "ĠCor": 5216,
      "Ġbig": 5217,
      "ario": 5218,
      "cial": 5219,
      ">::": 5220,
      "expr": 5221,
      "ĠQu": 5222,
      "Ġflag": 5223,
      "ana": 5224,
      "Ġctx": 5225,
      "junit": 5226,
      ")\"": 5227,
      "ONE": 5228,
      "rency": 5229,
      "Ġcontaining": 5230,
      "ymp": 5231,
      "Ġconsist": 5232,
      "Note": 5233,
      "headers": 5234,
      "Prefix": 5235,
      "ĠPart": 5236,
      "ĠGoogle": 5237,
      "cel": 5238,
      "Ġbr": 5239,
      "ota": 5240,
      "------------": 5241,
      "wrapper": 5242,
      "oy": 5243,
      "Ġ\"<": 5244,
      "Ġdimension": 5245,
      "ĠEq": 5246,
      "Registry": 5247,
      "protected": 5248,
      "loyment": 5249,
      "oth": 5250,
      "reshold": 5251,
      "When": 5252,
      "Psi": 5253,
      "Ġhistory": 5254,
      "nil": 5255,
      "shadow": 5256,
      "fly": 5257,
      "ĠInteger": 5258,
      "Wrapper": 5259,
      "ables": 5260,
      "mas": 5261,
      "Ġtraining": 5262,
      "2020": 5263,
      "names": 5264,
      "erature": 5265,
      "Ġcoordin": 5266,
      "tk": 5267,
      "locity": 5268,
      "ocker": 5269,
      "Proto": 5270,
      "abs": 5271,
      "Ġexpress": 5272,
      "ĠCode": 5273,
      "elli": 5274,
      "aration": 5275,
      "Ġchain": 5276,
      "Full": 5277,
      "star": 5278,
      "otal": 5279,
      "PS": 5280,
      "ĠBO": 5281,
      "Ġenabled": 5282,
      "Ġschool": 5283,
      "ĠJul": 5284,
      "exists": 5285,
      ":\\": 5286,
      "widetilde": 5287,
      "PER": 5288,
      "loader": 5289,
      "2000": 5290,
      "Ġmaj": 5291,
      "Ġlik": 5292,
      "Ġdes": 5293,
      "tabular": 5294,
      "Ġarch": 5295,
      "linear": 5296,
      "Ġreceived": 5297,
      "atically": 5298,
      "Det": 5299,
      "witter": 5300,
      "forms": 5301,
      "theme": 5302,
      "FIG": 5303,
      "Ġpotential": 5304,
      "quare": 5305,
      "Ġpanel": 5306,
      "IMP": 5307,
      "StyleID": 5308,
      "CESS": 5309,
      "Syntax": 5310,
      "2009": 5311,
      "ĠRead": 5312,
      "à¸": 5313,
      "Ġforce": 5314,
      "Ġallows": 5315,
      "protocol": 5316,
      "Route": 5317,
      "execute": 5318,
      "tags": 5319,
      "Details": 5320,
      "FLA": 5321,
      "Ġpositive": 5322,
      "ĠSte": 5323,
      "udi": 5324,
      "Ġdirectly": 5325,
      "Region": 5326,
      "illion": 5327,
      "sess": 5328,
      "ards": 5329,
      "editor": 5330,
      "ĠPre": 5331,
      "children": 5332,
      "ĠJan": 5333,
      "Ġusers": 5334,
      "Ġdom": 5335,
      "Ġlate": 5336,
      "cv": 5337,
      "Ġscreen": 5338,
      "dates": 5339,
      "ternational": 5340,
      "ĠModel": 5341,
      "Cluster": 5342,
      "TEXT": 5343,
      "ifdef": 5344,
      "Volume": 5345,
      "Ġsave": 5346,
      "ĠInitial": 5347,
      "Condition": 5348,
      "Scale": 5349,
      "Common": 5350,
      "Ġfactor": 5351,
      "umpt": 5352,
      "Ġexplicit": 5353,
      "MOD": 5354,
      "ĠSection": 5355,
      "writ": 5356,
      "Ġincrease": 5357,
      "Collections": 5358,
      "symbol": 5359,
      ".\");": 5360,
      "Product": 5361,
      "angular": 5362,
      "Ġincluded": 5363,
      "ighb": 5364,
      "svg": 5365,
      "Ġsignificant": 5366,
      "58": 5367,
      "lemma": 5368,
      "socket": 5369,
      "anger": 5370,
      "Ġcurrently": 5371,
      "ceed": 5372,
      "ĠAp": 5373,
      "Ġfar": 5374,
      "ĠReact": 5375,
      "PR": 5376,
      "LD": 5377,
      "400": 5378,
      "$/": 5379,
      "ĠSpec": 5380,
      "came": 5381,
      "hem": 5382,
      "51": 5383,
      "ALSE": 5384,
      "Ġyield": 5385,
      "cons": 5386,
      "HTTP": 5387,
      "\"/": 5388,
      "ĠAmerican": 5389,
      "Opt": 5390,
      "Second": 5391,
      "Generator": 5392,
      "ulate": 5393,
      "ooks": 5394,
      "Lim": 5395,
      "300": 5396,
      "ensuremath": 5397,
      "Ġrg": 5398,
      "Now": 5399,
      "Ġgreat": 5400,
      "done": 5401,
      "force": 5402,
      "ĠOb": 5403,
      "variable": 5404,
      "URI": 5405,
      "Ġsuggest": 5406,
      "ÃŃ": 5407,
      "prev": 5408,
      "Ġconsidered": 5409,
      "Ġpassword": 5410,
      "Ġdirection": 5411,
      "ĠOne": 5412,
      "services": 5413,
      "()</": 5414,
      "Headers": 5415,
      "mask": 5416,
      "Ġqueue": 5417,
      "Ġappend": 5418,
      "ently": 5419,
      "ĠRun": 5420,
      "ĠĠĠĠĠĠĠĠĠĠĠĠĠĠĠĠĠĠĠĠĠĠĠĠĠĠĠĠĠĠĠĠĠĠĠĠĠĠĠĠĠĠĠĠĠĠĠĠĠĠĠĠĠĠĠĠĠĠĠĠĠĠĠĠ": 5421,
      "ignment": 5422,
      "Ġgrow": 5423,
      "ao": 5424,
      "hib": 5425,
      ".'": 5426,
      "Framework": 5427,
      "ĠHash": 5428,
      "}+": 5429,
      "54": 5430,
      "Ġgroups": 5431,
      "pl": 5432,
      "dent": 5433,
      "Engine": 5434,
      "ĠReg": 5435,
      "NOT": 5436,
      ")->": 5437,
      "release": 5438,
      "pher": 5439,
      "builder": 5440,
      "Ġmaterial": 5441,
      "ITE": 5442,
      "Ġui": 5443,
      "Ġtogether": 5444,
      "Ġjoin": 5445,
      "provider": 5446,
      "LL": 5447,
      "storage": 5448,
      "Ġorigin": 5449,
      "ansparent": 5450,
      "CI": 5451,
      "Ġchanged": 5452,
      "Password": 5453,
      "Ġcomment": 5454,
      "IZE": 5455,
      "IND": 5456,
      "maven": 5457,
      "complete": 5458,
      "emma": 5459,
      "ĠUnited": 5460,
      "åı": 5461,
      "obile": 5462,
      "wild": 5463,
      "Resources": 5464,
      "Ġ\"-": 5465,
      "bad": 5466,
      "CRE": 5467,
      "ĠASSERT": 5468,
      "extern": 5469,
      "AX": 5470,
      "Ġcharacters": 5471,
      "jar": 5472,
      "ĠView": 5473,
      "Ġprovides": 5474,
      "progress": 5475,
      "Selection": 5476,
      "platform": 5477,
      "Ġcancel": 5478,
      "Ġdescribed": 5479,
      "thers": 5480,
      "Ġequival": 5481,
      "ĠCall": 5482,
      "Ġoptim": 5483,
      "login": 5484,
      "Sample": 5485,
      "72": 5486,
      "apos": 5487,
      "Simple": 5488,
      "ĠJohn": 5489,
      "Ġtx": 5490,
      "WA": 5491,
      "ĠCO": 5492,
      "izable": 5493,
      "sequence": 5494,
      "rift": 5495,
      "Pair": 5496,
      "\\]": 5497,
      "apture": 5498,
      "Ñı": 5499,
      "Prop": 5500,
      "press": 5501,
      "axis": 5502,
      "Pop": 5503,
      "ĠUI": 5504,
      "SR": 5505,
      "ĠIE": 5506,
      "DT": 5507,
      "scriptor": 5508,
      "Ġ'<": 5509,
      "asis": 5510,
      "Ġ>>": 5511,
      "Ġgen": 5512,
      "\\{": 5513,
      "maz": 5514,
      "?>": 5515,
      "ĠÃ": 5516,
      "Ġworks": 5517,
      "DA": 5518,
      "leep": 5519,
      "ae": 5520,
      "ĠRequest": 5521,
      "safe": 5522,
      "Ġdiag": 5523,
      "llegal": 5524,
      "ledge": 5525,
      "ris": 5526,
      "navList": 5527,
      "counter": 5528,
      "Ġ?>": 5529,
      "lers": 5530,
      "jango": 5531,
      "Ġprefix": 5532,
      "views": 5533,
      "MB": 5534,
      "Sequence": 5535,
      "LP": 5536,
      "Trace": 5537,
      "52": 5538,
      "Ġmakes": 5539,
      "bum": 5540,
      "Ġlogger": 5541,
      "ĠNumber": 5542,
      "Ġloop": 5543,
      "Author": 5544,
      "alax": 5545,
      "errors": 5546,
      "Ġclean": 5547,
      "special": 5548,
      "Ġ=======": 5549,
      "Ġparser": 5550,
      "urface": 5551,
      "Ġforeach": 5552,
      "Ġbottom": 5553,
      "Ġoperations": 5554,
      "ĠNAME": 5555,
      "Ġacross": 5556,
      "Ġattemp": 5557,
      "vey": 5558,
      "79": 5559,
      "ajax": 5560,
      "ĠField": 5561,
      "chie": 5562,
      "blue": 5563,
      "ua": 5564,
      "ada": 5565,
      "Ġstar": 5566,
      "3333": 5567,
      "ĠMore": 5568,
      "Ġhidden": 5569,
      "'));": 5570,
      "pret": 5571,
      "generated": 5572,
      "Ġsays": 5573,
      "tbody": 5574,
      "Ġ[],": 5575,
      "pool": 5576,
      "Ġwriting": 5577,
      "ĠLOG": 5578,
      "Ġaff": 5579,
      "Ġ],": 5580,
      "Ġbrowser": 5581,
      "ality": 5582,
      "Category": 5583,
      "DC": 5584,
      "ĠSome": 5585,
      "ĠAND": 5586,
      "USE": 5587,
      "TRUE": 5588,
      "ĠHttp": 5589,
      "!\\": 5590,
      "Texture": 5591,
      "pass": 5592,
      "Ġcore": 5593,
      "('.": 5594,
      "Conn": 5595,
      "Err": 5596,
      "activ": 5597,
      "cut": 5598,
      "herited": 5599,
      "Ġmessages": 5600,
      "Ġmetadata": 5601,
      "arger": 5602,
      "\"><!--": 5603,
      "Ġwin": 5604,
      "Ġcome": 5605,
      "ĠRed": 5606,
      "random": 5607,
      "FFFF": 5608,
      "ĠĠĠĠĠĠĠĠĠĠĠĠĠĠĠĠĠĠĠĠĠĠĠĠĠĠĠĠ": 5609,
      "Ġflags": 5610,
      "Ġcover": 5611,
      "Ġparam": 5612,
      "collapse": 5613,
      "fd": 5614,
      "Ġaccording": 5615,
      "Agent": 5616,
      "username": 5617,
      "53": 5618,
      "though": 5619,
      "Ġhaving": 5620,
      "Example": 5621,
      "2008": 5622,
      "atural": 5623,
      "Ġil": 5624,
      "ĠOper": 5625,
      "effect": 5626,
      "detail": 5627,
      "Uri": 5628,
      "utation": 5629,
      "Stats": 5630,
      "Ġexport": 5631,
      "Ġ[\"": 5632,
      "oney": 5633,
      "reet": 5634,
      "Ġsetup": 5635,
      "How": 5636,
      "GB": 5637,
      "lems": 5638,
      "efficient": 5639,
      "Selected": 5640,
      "Cap": 5641,
      "optional": 5642,
      "Delegate": 5643,
      "}=\\": 5644,
      "(@": 5645,
      "Ġabsolute": 5646,
      "compiler": 5647,
      "igen": 5648,
      "indexOf": 5649,
      "Dictionary": 5650,
      "allclasses": 5651,
      "Named": 5652,
      "Ġensure": 5653,
      "details": 5654,
      "zer": 5655,
      "Ġcertain": 5656,
      "HR": 5657,
      "Ġclosed": 5658,
      "Ġheaders": 5659,
      "shared": 5660,
      "Domain": 5661,
      "fx": 5662,
      "Ġindividual": 5663,
      "{\"": 5664,
      "oton": 5665,
      "PACK": 5666,
      "atistics": 5667,
      "ĠWorld": 5668,
      "Ġinside": 5669,
      "ĠCopyright": 5670,
      "Ġavoid": 5671,
      "jpg": 5672,
      "rum": 5673,
      "boost": 5674,
      "Ġvisit": 5675,
      "Ġsymme": 5676,
      "<!": 5677,
      "Ġthus": 5678,
      "required": 5679,
      "Admin": 5680,
      "ĠWAR": 5681,
      "Ġprofile": 5682,
      "ĠChar": 5683,
      "Ġplayer": 5684,
      "ONG": 5685,
      "async": 5686,
      "zeta": 5687,
      "wik": 5688,
      "colLast": 5689,
      "lug": 5690,
      "She": 5691,
      "Ġregular": 5692,
      "Ġsignal": 5693,
      "Ġlib": 5694,
      "timeout": 5695,
      "Ġcorrespond": 5696,
      "Ġtimeout": 5697,
      "Ġbehavior": 5698,
      "unique": 5699,
      "irit": 5700,
      "OB": 5701,
      "Comment": 5702,
      "$)": 5703,
      "enable": 5704,
      "Ġenter": 5705,
      "ĠassertThat": 5706,
      "Progress": 5707,
      "zone": 5708,
      "ritical": 5709,
      "ĠJava": 5710,
      "=>": 5711,
      "METHOD": 5712,
      "Ġspecify": 5713,
      "pict": 5714,
      "mouse": 5715,
      "Step": 5716,
      "Ġprec": 5717,
      "ourn": 5718,
      "Section": 5719,
      "resources": 5720,
      ";}": 5721,
      "Ġvarious": 5722,
      "Ġactiv": 5723,
      "OF": 5724,
      "Ġaddition": 5725,
      "ĠSince": 5726,
      "atible": 5727,
      "Ġ{\"": 5728,
      "Visible": 5729,
      "allel": 5730,
      "Rad": 5731,
      "ENSE": 5732,
      "ĠHTTP": 5733,
      "throw": 5734,
      "invalid": 5735,
      "Interval": 5736,
      "circle": 5737,
      "rong": 5738,
      "Generated": 5739,
      "mber": 5740,
      "=-": 5741,
      "Ġ];": 5742,
      "ãĢ": 5743,
      "LOCK": 5744,
      "thm": 5745,
      "BAR": 5746,
      "por": 5747,
      "mental": 5748,
      "2007": 5749,
      "role": 5750,
      "Ġcmd": 5751,
      "xs": 5752,
      "rase": 5753,
      "gree": 5754,
      "colFirst": 5755,
      "Find": 5756,
      "Ġthings": 5757,
      "lates": 5758,
      "('/": 5759,
      "sys": 5760,
      "Language": 5761,
      "Ġresources": 5762,
      "DEFAULT": 5763,
      "vc": 5764,
      "Ġexit": 5765,
      "anded": 5766,
      "VM": 5767,
      "Ġreadonly": 5768,
      "Ġenum": 5769,
      "apter": 5770,
      "Ġresearch": 5771,
      "Ġtmp": 5772,
      "LINE": 5773,
      "Ġbinary": 5774,
      "Ġnullptr": 5775,
      "Ġstorage": 5776,
      "ills": 5777,
      "ĠMark": 5778,
      "{%": 5779,
      "Ġitself": 5780,
      "128": 5781,
      ">:": 5782,
      "Ġworking": 5783,
      "ully": 5784,
      "Ġvol": 5785,
      "Ġremoved": 5786,
      "Ġtaken": 5787,
      "Area": 5788,
      "ĠExt": 5789,
      "construct": 5790,
      "Ġmenu": 5791,
      "checkbox": 5792,
      "Py": 5793,
      "quote": 5794,
      "****************************************************************": 5795,
      "FR": 5796,
      "licen": 5797,
      "83": 5798,
      ")=\\": 5799,
      "pa": 5800,
      "definition": 5801,
      "69": 5802,
      "ĠCount": 5803,
      "('#": 5804,
      "ACT": 5805,
      "Pi": 5806,
      "Ġbuf": 5807,
      "moz": 5808,
      "shall": 5809,
      "ĠHand": 5810,
      "Ġdefin": 5811,
      "cluster": 5812,
      "Ġcalls": 5813,
      "Ġearly": 5814,
      "ĠĠĠĠĠĠĠĠĠĠĠĠĠĠĠĠĊ": 5815,
      "EEEE": 5816,
      "Ġsplit": 5817,
      "ĠWindow": 5818,
      "ilation": 5819,
      "Word": 5820,
      "Ġfall": 5821,
      "Ġsing": 5822,
      "coming": 5823,
      "Ġ{{": 5824,
      "Ġapplied": 5825,
      "Ġquestion": 5826,
      "BC": 5827,
      "Ġwhose": 5828,
      "eners": 5829,
      "depth": 5830,
      "Ġband": 5831,
      "gistration": 5832,
      "Ġoffic": 5833,
      "Dec": 5834,
      "ĠMod": 5835,
      "ĠHel": 5836,
      "Ġprop": 5837,
      "Ġwhite": 5838,
      "DateTime": 5839,
      "ems": 5840,
      "agger": 5841,
      "clusion": 5842,
      "Ġupper": 5843,
      "POST": 5844,
      "Ġfinite": 5845,
      "Report": 5846,
      "Ġmusic": 5847,
      "Ġcred": 5848,
      "Ġcollect": 5849,
      "swarm": 5850,
      "zy": 5851,
      "Lin": 5852,
      "Ġhold": 5853,
      "RES": 5854,
      "Ġpixel": 5855,
      "Flow": 5856,
      "enn": 5857,
      "selector": 5858,
      "wildfly": 5859,
      "Ġrequests": 5860,
      "springframework": 5861,
      ")^{": 5862,
      "issues": 5863,
      ".<": 5864,
      "verter": 5865,
      "ĠDep": 5866,
      "Ġoften": 5867,
      "Ġfoot": 5868,
      "Ġbuilt": 5869,
      "ĠBuild": 5870,
      "Ġev": 5871,
      "ĠArrayList": 5872,
      "sb": 5873,
      "found": 5874,
      "Ġlittle": 5875,
      "Skip": 5876,
      "ndef": 5877,
      "Ġverify": 5878,
      "Ġpat": 5879,
      "Ġestab": 5880,
      "Ġactually": 5881,
      "enabled": 5882,
      "Ġnavigation": 5883,
      ".)": 5884,
      "Ġobserved": 5885,
      "PP": 5886,
      "}|": 5887,
      "Ġrights": 5888,
      "uses": 5889,
      "____": 5890,
      "Tx": 5891,
      "()))": 5892,
      "Rest": 5893,
      "erg": 5894,
      "pu": 5895,
      "Ġcompany": 5896,
      "SSL": 5897,
      "Ġvers": 5898,
      "andra": 5899,
      "Ġbad": 5900,
      "Ġdays": 5901,
      "testing": 5902,
      "Ġissue": 5903,
      "ĠOct": 5904,
      "ĠMon": 5905,
      "undefined": 5906,
      "68": 5907,
      "ifications": 5908,
      "BE": 5909,
      "raction": 5910,
      "ĠSO": 5911,
      "flex": 5912,
      "Ġcontroller": 5913,
      "ĠGroup": 5914,
      "Ġask": 5915,
      "ITION": 5916,
      "nodes": 5917,
      "IDTH": 5918,
      "acro": 5919,
      "ĠSQL": 5920,
      "sin": 5921,
      "Ġdesc": 5922,
      "cour": 5923,
      "Ġplatform": 5924,
      "Ġnumbers": 5925,
      "Ġprotocol": 5926,
      "fix": 5927,
      "Single": 5928,
      "Returns": 5929,
      "Ġupdated": 5930,
      "osite": 5931,
      "veloper": 5932,
      "phone": 5933,
      "ĠConst": 5934,
      "NN": 5935,
      "assembly": 5936,
      "signature": 5937,
      "ctr": 5938,
      "pull": 5939,
      "ACE": 5940,
      "ham": 5941,
      "ĠFI": 5942,
      "Role": 5943,
      "WN": 5944,
      "pattern": 5945,
      "Ġemail": 5946,
      "{(": 5947,
      "Ġrather": 5948,
      ")}\\": 5949,
      "Ġengine": 5950,
      "MI": 5951,
      "iven": 5952,
      "...</": 5953,
      "ios": 5954,
      "rf": 5955,
      "while": 5956,
      "Compiler": 5957,
      "EventListener": 5958,
      "riteria": 5959,
      "RPC": 5960,
      "Ġtrigger": 5961,
      "urch": 5962,
      ";\">": 5963,
      "ĠCur": 5964,
      "agent": 5965,
      "Ġhel": 5966,
      "JS": 5967,
      "2001": 5968,
      "ĠPri": 5969,
      "Cert": 5970,
      "ELD": 5971,
      "Landroid": 5972,
      "Ġloss": 5973,
      "Microsoft": 5974,
      "WR": 5975,
      "Ġvisible": 5976,
      "Ġappear": 5977,
      "78": 5978,
      "Ġparts": 5979,
      "rb": 5980,
      "Cor": 5981,
      "Notification": 5982,
      "Ġlarger": 5983,
      "Ġmaking": 5984,
      "hy": 5985,
      "Ġaccur": 5986,
      "ames": 5987,
      "ĠIndex": 5988,
      "Ġfix": 5989,
      "Ġfilm": 5990,
      "ĠCEL": 5991,
      "Ġmat": 5992,
      "Ġsco": 5993,
      "Ġcharset": 5994,
      "Ġgre": 5995,
      "Ġattack": 5996,
      "tests": 5997,
      "Ġstarted": 5998,
      "warning": 5999,
      "oly": 6000,
      "EEEEFF": 6001,
      "ĠĠĠĊ": 6002,
      "Ġtakes": 6003,
      "REQ": 6004,
      "Ġindependent": 6005,
      "Ġraw": 6006,
      "ifndef": 6007,
      "Ġproxy": 6008,
      "Sw": 6009,
      "netic": 6010,
      "Ġacc": 6011,
      "clean": 6012,
      "Ġfocus": 6013,
      "2006": 6014,
      "ims": 6015,
      "ĠTheorem": 6016,
      "chart": 6017,
      "dimension": 6018,
      "ulated": 6019,
      "Ġnp": 6020,
      "^+": 6021,
      "Ġthough": 6022,
      "VALID": 6023,
      "Ġfig": 6024,
      "getValue": 6025,
      "Ġservices": 6026,
      "checked": 6027,
      "proxy": 6028,
      "PUT": 6029,
      "Ġexternal": 6030,
      "enumer": 6031,
      "Ġstrings": 6032,
      "Ġok": 6033,
      "}:": 6034,
      "getElement": 6035,
      "Ġprogress": 6036,
      "Ġthird": 6037,
      "Fragment": 6038,
      "helper": 6039,
      "Google": 6040,
      ";)": 6041,
      "Ġentire": 6042,
      "iol": 6043,
      "_);": 6044,
      "ĠTH": 6045,
      "FORM": 6046,
      "ruby": 6047,
      "ĠWork": 6048,
      "DATA": 6049,
      "Mar": 6050,
      "jd": 6051,
      "GER": 6052,
      "INS": 6053,
      "Mask": 6054,
      "Bean": 6055,
      "cdots": 6056,
      "textwidth": 6057,
      "users": 6058,
      "Ġprobability": 6059,
      "Ġlistener": 6060,
      "Ġnamed": 6061,
      "eting": 6062,
      "ĠPath": 6063,
      "CTYPE": 6064,
      "Ġexperience": 6065,
      "Ġhowever": 6066,
      "Ġfinally": 6067,
      "condition": 6068,
      "Ġproces": 6069,
      "Ġabstract": 6070,
      "present": 6071,
      "Ġpract": 6072,
      "Ġpast": 6073,
      "Ġfund": 6074,
      "Ġenv": 6075,
      "fixed": 6076,
      "glyph": 6077,
      "href": 6078,
      "typen": 6079,
      "Ġ).": 6080,
      "ado": 6081,
      "endor": 6082,
      ")|": 6083,
      "ĠVer": 6084,
      "Ġcity": 6085,
      "Ġhalf": 6086,
      "Ġetc": 6087,
      "Ġincludes": 6088,
      "feature": 6089,
      "ÑĮ": 6090,
      "CF": 6091,
      "Shape": 6092,
      "Ġip": 6093,
      "Enumer": 6094,
      "numerus": 6095,
      "ĠFigure": 6096,
      "ĠThat": 6097,
      "numerusform": 6098,
      "Ġwords": 6099,
      "Ġ\"$": 6100,
      "ifiers": 6101,
      "IST": 6102,
      "runtime": 6103,
      ".~": 6104,
      "Ġaxis": 6105,
      "Ġenable": 6106,
      "Ids": 6107,
      "TestCase": 6108,
      "Ġrequires": 6109,
      "ided": 6110,
      "commit": 6111,
      "Required": 6112,
      "Cred": 6113,
      "Ġhar": 6114,
      "Begin": 6115,
      "eries": 6116,
      "mediate": 6117,
      "loor": 6118,
      "xspace": 6119,
      "Ġhappen": 6120,
      "Ġmatter": 6121,
      "Sort": 6122,
      "ena": 6123,
      "Make": 6124,
      "ĠPublic": 6125,
      "Ign": 6126,
      "ateway": 6127,
      "grade": 6128,
      "Endpoint": 6129,
      "Methods": 6130,
      "NT": 6131,
      "Player": 6132,
      "typename": 6133,
      "Ġrgba": 6134,
      "Ġcoup": 6135,
      "sect": 6136,
      "Ġmd": 6137,
      "ouch": 6138,
      "']['": 6139,
      "Ġinterval": 6140,
      "(\"/": 6141,
      "ategories": 6142,
      "cup": 6143,
      "Ġcoq": 6144,
      "oman": 6145,
      "ĠImage": 6146,
      "dices": 6147,
      "Ġlayout": 6148,
      "STATE": 6149,
      "Ġwater": 6150,
      "ĠANY": 6151,
      "ĠValid": 6152,
      "81": 6153,
      "ico": 6154,
      "library": 6155,
      "NavBarFont": 6156,
      "scr": 6157,
      "Ġrules": 6158,
      "Ġtw": 6159,
      "Ġnecessary": 6160,
      ".\",": 6161,
      "Ġans": 6162,
      "widehat": 6163,
      "Ġbelie": 6164,
      "parator": 6165,
      "}'": 6166,
      "layers": 6167,
      "Ġcirc": 6168,
      "Ġeq": 6169,
      "flag": 6170,
      "ĠÎ": 6171,
      "Ġopts": 6172,
      "Ġquantum": 6173,
      "ĠPe": 6174,
      "Ġclick": 6175,
      "\"],": 6176,
      "Ġshared": 6177,
      "bot": 6178,
      "Ġstatement": 6179,
      "Ñĭ": 6180,
      "Ġgrid": 6181,
      "uest": 6182,
      "See": 6183,
      "article": 6184,
      "FE": 6185,
      "crete": 6186,
      "Ġlearning": 6187,
      "Ġextract": 6188,
      "Pub": 6189,
      "Ġaway": 6190,
      "Ġskip": 6191,
      "python": 6192,
      "amaz": 6193,
      "Ġachie": 6194,
      "ulations": 6195,
      "Math": 6196,
      "Ġadmin": 6197,
      "loop": 6198,
      "ĠSource": 6199,
      "DEBUG": 6200,
      "Ġunless": 6201,
      "ĠStates": 6202,
      "DOCTYPE": 6203,
      "contin": 6204,
      "IB": 6205,
      "zero": 6206,
      "Ġeditor": 6207,
      "vs": 6208,
      "GR": 6209,
      "println": 6210,
      "Ġmulti": 6211,
      "Len": 6212,
      "report": 6213,
      "Sql": 6214,
      "cdn": 6215,
      "Ġblocks": 6216,
      "vention": 6217,
      "bon": 6218,
      "Ġlang": 6219,
      "Db": 6220,
      "Mouse": 6221,
      "overnor": 6222,
      "Ġmar": 6223,
      "ĠInput": 6224,
      "qquad": 6225,
      "Ġcommit": 6226,
      "Total": 6227,
      "lint": 6228,
      "Install": 6229,
      "ridge": 6230,
      "Ġsecurity": 6231,
      "Ġprimary": 6232,
      "ined": 6233,
      "Ġfill": 6234,
      "atomic": 6235,
      "Ġretrie": 6236,
      "63": 6237,
      "ĠSouth": 6238,
      "WORD": 6239,
      "ÐµÐ": 6240,
      "plan": 6241,
      "when": 6242,
      "INTER": 6243,
      "MODULE": 6244,
      "console": 6245,
      "isk": 6246,
      "Ġcounter": 6247,
      "2005": 6248,
      "}^\\": 6249,
      "Ġproposed": 6250,
      "fg": 6251,
      "ĠFirst": 6252,
      "ĠSchool": 6253,
      "FS": 6254,
      "Ġmanager": 6255,
      "xhtml": 6256,
      "ĠAug": 6257,
      "Ġamong": 6258,
      "dy": 6259,
      "ĠStart": 6260,
      "Ġ'\\": 6261,
      "Ġnative": 6262,
      "}_\\": 6263,
      "Animation": 6264,
      "Ġpartial": 6265,
      "SELECT": 6266,
      "Ġcountry": 6267,
      "Pod": 6268,
      "ming": 6269,
      "ĠCollection": 6270,
      "ĠNational": 6271,
      "iving": 6272,
      "Ġ@\"": 6273,
      "grad": 6274,
      "ught": 6275,
      "ssl": 6276,
      "zure": 6277,
      "\\/": 6278,
      "gments": 6279,
      "Multi": 6280,
      "Ġexplo": 6281,
      "InputStream": 6282,
      "Ġweak": 6283,
      "#{": 6284,
      "Nullable": 6285,
      "generate": 6286,
      "Vertex": 6287,
      "Ġdataset": 6288,
      ")-": 6289,
      "emon": 6290,
      "database": 6291,
      "mathsf": 6292,
      "sidebar": 6293,
      "cape": 6294,
      "Screen": 6295,
      "sequ": 6296,
      "ĠProject": 6297,
      "Ġmask": 6298,
      "slice": 6299,
      "TS": 6300,
      "Ġproper": 6301,
      "ĠFrom": 6302,
      "Throw": 6303,
      "})\\": 6304,
      "ĠBoolean": 6305,
      "Flag": 6306,
      "constructor": 6307,
      "Ġwaves": 6308,
      "Ġsql": 6309,
      "war": 6310,
      "matrix": 6311,
      "blank": 6312,
      "assign": 6313,
      "'];": 6314,
      "ArgumentException": 6315,
      "Ġselector": 6316,
      "pare": 6317,
      "STRING": 6318,
      "tex": 6319,
      "Ġdrop": 6320,
      "itect": 6321,
      "ĠYork": 6322,
      "Ġ\\{": 6323,
      "Normal": 6324,
      "icket": 6325,
      "Ġdynam": 6326,
      "ĠSIZE": 6327,
      "Ġseason": 6328,
      "since": 6329,
      "Ġminimum": 6330,
      "Ġ\\\"": 6331,
      "=\"$": 6332,
      "Receiv": 6333,
      "ĠVector": 6334,
      "green": 6335,
      "Ġstory": 6336,
      "rand": 6337,
      "ĠNov": 6338,
      "ĉĠĠĠĠĠ": 6339,
      "CALL": 6340,
      "Ġedit": 6341,
      "Ġmeta": 6342,
      "erman": 6343,
      "Background": 6344,
      "Ġep": 6345,
      "Members": 6346,
      "leton": 6347,
      "ians": 6348,
      "Ġpolit": 6349,
      "resolve": 6350,
      "jQuery": 6351,
      "Ġprops": 6352,
      "extension": 6353,
      "EC": 6354,
      "62": 6355,
      "Ġinner": 6356,
      "amazon": 6357,
      "Ġdevelopment": 6358,
      "supported": 6359,
      "Ġgives": 6360,
      "route": 6361,
      "some": 6362,
      "ĠAfter": 6363,
      "Serializer": 6364,
      "Ġembed": 6365,
      "road": 6366,
      "FUN": 6367,
      "USER": 6368,
      "ides": 6369,
      "arnings": 6370,
      "referred": 6371,
      "åĪ": 6372,
      "Ġcompute": 6373,
      "ners": 6374,
      "98": 6375,
      "Execution": 6376,
      "MARY": 6377,
      "urope": 6378,
      "Ġcompare": 6379,
      "Ġoffer": 6380,
      "video": 6381,
      "rot": 6382,
      "Ġhuman": 6383,
      "Ġannot": 6384,
      "%\"": 6385,
      "roke": 6386,
      "Ġschema": 6387,
      "allen": 6388,
      "inherit": 6389,
      "pet": 6390,
      "large": 6391,
      "Ġreset": 6392,
      "ience": 6393,
      "uplic": 6394,
      "Diagnost": 6395,
      "ĠFROM": 6396,
      "}\\,": 6397,
      "SK": 6398,
      "IOException": 6399,
      "Ġtemperature": 6400,
      "^^": 6401,
      "ctrine": 6402,
      "Off": 6403,
      "stat": 6404,
      "Native": 6405,
      "74": 6406,
      "gers": 6407,
      "2004": 6408,
      "ĠWest": 6409,
      "}^{(": 6410,
      "Ġtensor": 6411,
      "Ġcomplet": 6412,
      "related": 6413,
      "ito": 6414,
      "ights": 6415,
      "dc": 6416,
      "upload": 6417,
      "compile": 6418,
      "Cancel": 6419,
      "oung": 6420,
      "IVE": 6421,
      "factory": 6422,
      "ulk": 6423,
      "Ġfeel": 6424,
      "opts": 6425,
      "Ġdim": 6426,
      "extra": 6427,
      "Ġreader": 6428,
      "istor": 6429,
      "anging": 6430,
      "DOM": 6431,
      "ORTED": 6432,
      "validate": 6433,
      "Ġcamp": 6434,
      "Ġbusiness": 6435,
      "Ġtre": 6436,
      "DS": 6437,
      "stral": 6438,
      "Ġuseful": 6439,
      "ĠMake": 6440,
      "abilities": 6441,
      "andidate": 6442,
      "ultiple": 6443,
      "HER": 6444,
      "91": 6445,
      "objects": 6446,
      "ĠBar": 6447,
      "ĠExec": 6448,
      "ĠEND": 6449,
      "Ġexecute": 6450,
      "vari": 6451,
      "hood": 6452,
      "okie": 6453,
      "ĠSets": 6454,
      "Ġtell": 6455,
      "COMP": 6456,
      "destroy": 6457,
      "zip": 6458,
      "rd": 6459,
      "Ġcategory": 6460,
      "apis": 6461,
      "ellij": 6462,
      "Ġscroll": 6463,
      "atory": 6464,
      "ocaml": 6465,
      "Span": 6466,
      "VENT": 6467,
      "sy": 6468,
      "Wait": 6469,
      "elem": 6470,
      "»¿": 6471,
      "iles": 6472,
      "ius": 6473,
      "ica": 6474,
      "Summary": 6475,
      "Ġpercent": 6476,
      "loaded": 6477,
      "ï»¿": 6478,
      "Ġgalax": 6479,
      "intellij": 6480,
      "Ġmatching": 6481,
      "Ġunderstand": 6482,
      "History": 6483,
      "Cloud": 6484,
      "ĠPRO": 6485,
      "ĠĠĠĠĠĠĠĠĠĠĠĠĠĠĠĠĠĠĠĠĠĠĠĠĠĠĠĠĠĠ": 6486,
      "Ġwriter": 6487,
      "ĠALI": 6488,
      "black": 6489,
      "Ġspeed": 6490,
      "icol": 6491,
      "sync": 6492,
      "ĠApr": 6493,
      "ä»": 6494,
      "owner": 6495,
      "Ġfun": 6496,
      "Unknown": 6497,
      "Email": 6498,
      "ĠOther": 6499,
      "MODE": 6500,
      "Ġsb": 6501,
      "words": 6502,
      "Ġhealth": 6503,
      "Ġdeal": 6504,
      "dian": 6505,
      "mf": 6506,
      "Ġcolumns": 6507,
      "liance": 6508,
      "transition": 6509,
      "Ġstarting": 6510,
      "Ġage": 6511,
      "tw": 6512,
      "assandra": 6513,
      "Limit": 6514,
      "bg": 6515,
      "Ġcourse": 6516,
      "Ġvalign": 6517,
      "Ġboundary": 6518,
      "Ġspin": 6519,
      "cip": 6520,
      "antic": 6521,
      "Ġdisk": 6522,
      "Since": 6523,
      "umin": 6524,
      "Ġmechan": 6525,
      "Ġwhy": 6526,
      "More": 6527,
      "multi": 6528,
      ">)": 6529,
      "extend": 6530,
      "Ġlonger": 6531,
      "eter": 6532,
      "Ġsignature": 6533,
      "driver": 6534,
      "Ġ×": 6535,
      "icles": 6536,
      "eder": 6537,
      "Validation": 6538,
      "fr": 6539,
      "Append": 6540,
      "tc": 6541,
      "MT": 6542,
      "ffix": 6543,
      "Allow": 6544,
      "Plan": 6545,
      "Ġ_,": 6546,
      "{$": 6547,
      "erve": 6548,
      "}\\\\": 6549,
      "groups": 6550,
      "Ġutil": 6551,
      "ANCE": 6552,
      "serve": 6553,
      "citet": 6554,
      "ĠChrist": 6555,
      "UD": 6556,
      "Ġpress": 6557,
      "omial": 6558,
      "CG": 6559,
      "approx": 6560,
      "Public": 6561,
      "isEmpty": 6562,
      "trace": 6563,
      "gular": 6564,
      "Ġdisabled": 6565,
      "ĠFin": 6566,
      "Ġgovernment": 6567,
      "Operator": 6568,
      "ĠÐ¿": 6569,
      "NSString": 6570,
      "ips": 6571,
      "Pr": 6572,
      "mob": 6573,
      "Ġsem": 6574,
      ":`": 6575,
      "Join": 6576,
      "mutable": 6577,
      "Alloc": 6578,
      "apped": 6579,
      "Encoded": 6580,
      "ĠMo": 6581,
      "Ġsources": 6582,
      "ummy": 6583,
      "73": 6584,
      "Wallet": 6585,
      "Ġ$(\\": 6586,
      "single": 6587,
      "Ġland": 6588,
      "Ġ_.": 6589,
      "ĠOptional": 6590,
      "ĠDEFAULT": 6591,
      "ders": 6592,
      "High": 6593,
      "lower": 6594,
      "ĠExample": 6595,
      "Ġ'';": 6596,
      "iny": 6597,
      "ĠXML": 6598,
      "Ġwhole": 6599,
      "Ġmatches": 6600,
      "pping": 6601,
      "Fn": 6602,
      "!!": 6603,
      "Ġdecla": 6604,
      "exit": 6605,
      "Ġconver": 6606,
      "usr": 6607,
      "Ġfailure": 6608,
      "\"].": 6609,
      "Ġcontact": 6610,
      "Ġvertical": 6611,
      "ja": 6612,
      "Ġlive": 6613,
      "Ġfmt": 6614,
      "ried": 6615,
      "volume": 6616,
      "ĠResult": 6617,
      "Folder": 6618,
      "()),": 6619,
      "Pass": 6620,
      "chain": 6621,
      "Cla": 6622,
      "isset": 6623,
      "Ġentries": 6624,
      "sched": 6625,
      "Ġpool": 6626,
      "Move": 6627,
      "ĠMicrosoft": 6628,
      "ðŁ": 6629,
      "duc": 6630,
      "fetch": 6631,
      "ĠMc": 6632,
      "Static": 6633,
      "Ġmajor": 6634,
      "Ġ([": 6635,
      "trl": 6636,
      "setup": 6637,
      "ĠBlock": 6638,
      "origin": 6639,
      "WEB": 6640,
      "umption": 6641,
      "Clo": 6642,
      "&=": 6643,
      "merge": 6644,
      "once": 6645,
      "Ġeffects": 6646,
      "Ġlot": 6647,
      "fc": 6648,
      "Mer": 6649,
      "Ġdecl": 6650,
      "ÐµÐ½": 6651,
      "ortun": 6652,
      "Video": 6653,
      "pair": 6654,
      "Children": 6655,
      "ĠClient": 6656,
      "look": 6657,
      "Ġcursor": 6658,
      "Ġdetail": 6659,
      "Constructor": 6660,
      "Remote": 6661,
      "ĠALIGN": 6662,
      "goto": 6663,
      "Ġtherefore": 6664,
      "}}(": 6665,
      "Warning": 6666,
      "wp": 6667,
      "ĠCity": 6668,
      "ĠDocument": 6669,
      "Ġrefer": 6670,
      "ooth": 6671,
      "ĠNAV": 6672,
      "aps": 6673,
      "MIN": 6674,
      "PU": 6675,
      "mazon": 6676,
      "icip": 6677,
      "Ġdetermine": 6678,
      "Driver": 6679,
      "vie": 6680,
      "Ġair": 6681,
      "elf": 6682,
      "ierarch": 6683,
      "Objects": 6684,
      "facebook": 6685,
      "udo": 6686,
      "Short": 6687,
      "Ġvertex": 6688,
      "rg": 6689,
      "Ġfactory": 6690,
      "Ġpod": 6691,
      "download": 6692,
      "Ġreceive": 6693,
      "Ġhouse": 6694,
      "LOC": 6695,
      "Ġrows": 6696,
      "nology": 6697,
      "ilit": 6698,
      "Ġnothing": 6699,
      "Save": 6700,
      "icode": 6701,
      "/\"": 6702,
      "ĠLemma": 6703,
      "cedure": 6704,
      "tor": 6705,
      "$_": 6706,
      "Ġroute": 6707,
      "Program": 6708,
      "Gen": 6709,
      "flat": 6710,
      "Ġsegment": 6711,
      "Ġdeep": 6712,
      "Ġforward": 6713,
      "Ġrect": 6714,
      "Own": 6715,
      "react": 6716,
      "Ġscen": 6717,
      "Ġ\"\";": 6718,
      "disable": 6719,
      "ĠHigh": 6720,
      "Ġrepresents": 6721,
      "APP": 6722,
      "geo": 6723,
      "DEF": 6724,
      "Ġtranslate": 6725,
      "Ġmissing": 6726,
      "PTION": 6727,
      "mitive": 6728,
      "=\"../../../../../../../": 6729,
      "rank": 6730,
      "References": 6731,
      "omorph": 6732,
      "Binary": 6733,
      "Then": 6734,
      "Ġbasic": 6735,
      "Ġ\"%": 6736,
      "ĠallClasses": 6737,
      "oms": 6738,
      "Ġholds": 6739,
      "Ġmetric": 6740,
      "np": 6741,
      "61": 6742,
      "kwargs": 6743,
      "ĠDec": 6744,
      "policy": 6745,
      "ĠallClassesLink": 6746,
      "Cl": 6747,
      "Ġangle": 6748,
      "bal": 6749,
      "ĠRef": 6750,
      "\\'": 6751,
      "ĠAg": 6752,
      "Ġ..": 6753,
      ".\"\"\"": 6754,
      "Ġunknown": 6755,
      "lipse": 6756,
      "Ġframework": 6757,
      "Validator": 6758,
      "commons": 6759,
      "otes": 6760,
      "aign": 6761,
      "ustral": 6762,
      "ducer": 6763,
      "itch": 6764,
      "Art": 6765,
      "ĠSch": 6766,
      "ĠLong": 6767,
      "Constant": 6768,
      "ĠAR": 6769,
      "hi": 6770,
      "Ġremote": 6771,
      "ilevel": 6772,
      "Ġsyn": 6773,
      "CHAR": 6774,
      "ĠAction": 6775,
      "ĠØ": 6776,
      "Basic": 6777,
      "Clear": 6778,
      "Renderer": 6779,
      "71": 6780,
      "Tags": 6781,
      "NUM": 6782,
      "basic": 6783,
      "Ġothers": 6784,
      "PROJECT": 6785,
      "lict": 6786,
      "visible": 6787,
      "aches": 6788,
      "Ġlearn": 6789,
      "diff": 6790,
      "Ġspan": 6791,
      "cade": 6792,
      "Ġ&\\": 6793,
      "Ġcut": 6794,
      "uda": 6795,
      "VICE": 6796,
      "Ġpush": 6797,
      "Ġround": 6798,
      "Raw": 6799,
      "Rev": 6800,
      "igration": 6801,
      "ele": 6802,
      "icks": 6803,
      "Ġdocumentation": 6804,
      "ĠJanuary": 6805,
      "Ġprevent": 6806,
      "Ġconnected": 6807,
      "Ġdepth": 6808,
      "edback": 6809,
      "ĠSw": 6810,
      "usion": 6811,
      "Lower": 6812,
      "Ġtesting": 6813,
      "Ġrank": 6814,
      "peated": 6815,
      "functions": 6816,
      "icult": 6817,
      "Hub": 6818,
      "Aut": 6819,
      "dec": 6820,
      "ĠProperty": 6821,
      "ORY": 6822,
      "ĠApache": 6823,
      "seq": 6824,
      "avai": 6825,
      "Ġsong": 6826,
      "Identity": 6827,
      "Ġpredict": 6828,
      "atively": 6829,
      "Ġcompared": 6830,
      "CONT": 6831,
      "lots": 6832,
      "]$": 6833,
      "remarks": 6834,
      "Ġcoefficient": 6835,
      "duration": 6836,
      "DATE": 6837,
      "RR": 6838,
      "highlight": 6839,
      ":[": 6840,
      "ĠOver": 6841,
      "ensive": 6842,
      "(.": 6843,
      "ney": 6844,
      "æľ": 6845,
      "ĠAssembly": 6846,
      "inf": 6847,
      "Ġfive": 6848,
      "CLASS": 6849,
      "licenses": 6850,
      "Ġsimply": 6851,
      "Ġ>>>": 6852,
      "nob": 6853,
      ":@\"": 6854,
      "structure": 6855,
      "Ġelectron": 6856,
      "Ġfront": 6857,
      "Î¿": 6858,
      "Ġnu": 6859,
      "Ġda": 6860,
      "FIELD": 6861,
      "Ġvalidate": 6862,
      "Counter": 6863,
      "ORDER": 6864,
      "94": 6865,
      "directory": 6866,
      "bits": 6867,
      "Ġcame": 6868,
      "Ġbeh": 6869,
      "ĠThus": 6870,
      "Ġbuilding": 6871,
      "Ġground": 6872,
      "submit": 6873,
      "Ġsens": 6874,
      "ĠJuly": 6875,
      "Ali": 6876,
      "game": 6877,
      "ĠWar": 6878,
      "forEach": 6879,
      ")+": 6880,
      "ĠSoftware": 6881,
      "clone": 6882,
      "Strategy": 6883,
      "ĠIllegal": 6884,
      "=\\\"": 6885,
      "Ġphot": 6886,
      "messages": 6887,
      "ĠAS": 6888,
      "Ġreview": 6889,
      "']);": 6890,
      "simple": 6891,
      "original": 6892,
      "deprecated": 6893,
      "Ġwatch": 6894,
      "vement": 6895,
      "ening": 6896,
      "labor": 6897,
      "ĠRegister": 6898,
      "{{\\": 6899,
      "ocation": 6900,
      "Ġproblems": 6901,
      "sn": 6902,
      "ĠNAVBAR": 6903,
      "Binding": 6904,
      "Ġtransparent": 6905,
      "Ġelif": 6906,
      "ĠWrite": 6907,
      "Ġinstalled": 6908,
      "ersistent": 6909,
      "Ġdig": 6910,
      "lementation": 6911,
      "Ġapilevel": 6912,
      "batch": 6913,
      "animation": 6914,
      "ĠRemove": 6915,
      "rew": 6916,
      "Ġ\"\",": 6917,
      "lationToken": 6918,
      "duces": 6919,
      "king": 6920,
      "ĠSto": 6921,
      "/{": 6922,
      "Ġnegative": 6923,
      "Ġproto": 6924,
      "Ġtransport": 6925,
      "curs": 6926,
      "}}{\\": 6927,
      "Ġshift": 6928,
      "Environment": 6929,
      "stable": 6930,
      "ira": 6931,
      "Batch": 6932,
      "123": 6933,
      "ister": 6934,
      "Ġsmaller": 6935,
      "]))": 6936,
      "Ġtasks": 6937,
      "Ġ^": 6938,
      "fire": 6939,
      "rown": 6940,
      ">;": 6941,
      "aching": 6942,
      "Ġstored": 6943,
      "ĠPost": 6944,
      "CHAN": 6945,
      "cancel": 6946,
      "getElementById": 6947,
      "Html": 6948,
      "Ġdict": 6949,
      "alert": 6950,
      "radient": 6951,
      "rpc": 6952,
      "=[": 6953,
      "Ġoutside": 6954,
      "Ġri": 6955,
      "iet": 6956,
      "oring": 6957,
      "Ġsix": 6958,
      "Ġequivalent": 6959,
      "Ġinf": 6960,
      "norm": 6961,
      "]\\": 6962,
      "ĉĠĠĠĠĠĠĠ": 6963,
      "ĠVALUE": 6964,
      "Play": 6965,
      "pkg": 6966,
      "ously": 6967,
      "ĠJune": 6968,
      "Enter": 6969,
      "ffers": 6970,
      "iling": 6971,
      "Ġir": 6972,
      "accept": 6973,
      "Ã§": 6974,
      "ĠĠĠĠĠĠĠĠĠĠĠĠĠĠĠĠĠĠĠĠĠĠĠĠĠĠĠĠĠĠĠĠĠ": 6975,
      "dient": 6976,
      "Cmd": 6977,
      "Mapper": 6978,
      "memory": 6979,
      "ĠRob": 6980,
      "poly": 6981,
      "Ġdepends": 6982,
      "methods": 6983,
      "Release": 6984,
      "ague": 6985,
      "ASSERT": 6986,
      "assertTrue": 6987,
      "Ġul": 6988,
      "Ġanimation": 6989,
      "Messages": 6990,
      "ARN": 6991,
      "nn": 6992,
      "hspace": 6993,
      "ĠId": 6994,
      "thrift": 6995,
      "ĠCl": 6996,
      "ying": 6997,
      "Connect": 6998,
      "Segment": 6999,
      "Ġradius": 7000,
      "Game": 7001,
      "Ġ'',": 7002,
      "exist": 7003,
      "Ġeffective": 7004,
      "Annotation": 7005,
      "Ġfac": 7006,
      "month": 7007,
      "Ġautomatically": 7008,
      "Ġsamples": 7009,
      "QU": 7010,
      "bose": 7011,
      "Ġappropri": 7012,
      "fi": 7013,
      "Ġprior": 7014,
      "Year": 7015,
      "seconds": 7016,
      "ĠMock": 7017,
      "Ġ''": 7018,
      "atial": 7019,
      "sters": 7020,
      "utdown": 7021,
      "Ġprovider": 7022,
      "}+\\": 7023,
      "ĠLib": 7024,
      "Ġreleased": 7025,
      "Ġcommunity": 7026,
      "ĠInc": 7027,
      "Ġexecution": 7028,
      "Addr": 7029,
      "Ð²": 7030,
      "ante": 7031,
      "ĠWARRAN": 7032,
      "strument": 7033,
      "Ġloaded": 7034,
      "vo": 7035,
      "attle": 7036,
      "bi": 7037,
      "Ġneighb": 7038,
      "ĠElement": 7039,
      "Ġseconds": 7040,
      "Ġalmost": 7041,
      "Gu": 7042,
      "ATTR": 7043,
      "dash": 7044,
      "Ġlicense": 7045,
      "Ġratio": 7046,
      "Ġdelay": 7047,
      "arguments": 7048,
      "anti": 7049,
      "ryption": 7050,
      "ĠBrit": 7051,
      "tensor": 7052,
      "eds": 7053,
      "navigation": 7054,
      "||": 7055,
      "Ġ(-": 7056,
      "Ġidentifier": 7057,
      "tachment": 7058,
      "Timer": 7059,
      "Insert": 7060,
      "collect": 7061,
      "Ġopacity": 7062,
      "mpt": 7063,
      "overview": 7064,
      "Detail": 7065,
      "REG": 7066,
      "Ġperformed": 7067,
      "Ġproduction": 7068,
      "atives": 7069,
      "Fixture": 7070,
      "finite": 7071,
      "What": 7072,
      "cu": 7073,
      "ĠMem": 7074,
      "ysics": 7075,
      "ĠDirect": 7076,
      "Resolver": 7077,
      "ering": 7078,
      "Dom": 7079,
      "havi": 7080,
      "áĥ": 7081,
      ">\\": 7082,
      "Ġsound": 7083,
      "changed": 7084,
      "Consumer": 7085,
      "ances": 7086,
      "fmt": 7087,
      "TRY": 7088,
      "Ġalgebra": 7089,
      ">\"": 7090,
      "ama": 7091,
      "Ġpermissions": 7092,
      "Usage": 7093,
      "Ġcontents": 7094,
      "created": 7095,
      "Ġsocket": 7096,
      "picture": 7097,
      "ANG": 7098,
      "Ġnotice": 7099,
      "Ġowner": 7100,
      "NotFound": 7101,
      "agraph": 7102,
      "92": 7103,
      "Ġmapping": 7104,
      "cred": 7105,
      "'ll": 7106,
      "ĠDist": 7107,
      "2003": 7108,
      "Ġlead": 7109,
      "ĠHere": 7110,
      "PHP": 7111,
      "Failure": 7112,
      "Ġaltern": 7113,
      "celer": 7114,
      "Ġchunk": 7115,
      "Ġ}}": 7116,
      "radio": 7117,
      "Ġstars": 7118,
      "Ġgas": 7119,
      "ansion": 7120,
      "Ġdriver": 7121,
      "Ð°Ð½": 7122,
      "ille": 7123,
      "Sim": 7124,
      "å®": 7125,
      "æĸ": 7126,
      "Ġequations": 7127,
      "Home": 7128,
      "Ġsolutions": 7129,
      "FC": 7130,
      "Drop": 7131,
      "yy": 7132,
      "Ġtsd": 7133,
      "Forms": 7134,
      "Ã¼": 7135,
      "ullet": 7136,
      "}},": 7137,
      "ĠTemp": 7138,
      "EST": 7139,
      "ĠUN": 7140,
      "Ġformer": 7141,
      "ĠWIDTH": 7142,
      "Ġque": 7143,
      "Ġtreat": 7144,
      "}}}": 7145,
      "neq": 7146,
      "vertical": 7147,
      "Ġsummary": 7148,
      "Ġtalk": 7149,
      "Ġphysical": 7150,
      "Observer": 7151,
      "Audio": 7152,
      "Ġthing": 7153,
      "GroupName": 7154,
      "\"},": 7155,
      "ï¼Į": 7156,
      "Ġplayers": 7157,
      "elements": 7158,
      "LIST": 7159,
      "Ġstage": 7160,
      "ĠWIT": 7161,
      "Ġdependencies": 7162,
      "calendar": 7163,
      "Ġlikely": 7164,
      "Ġleading": 7165,
      "ĠStatus": 7166,
      "ĠChange": 7167,
      "çĶ": 7168,
      "ĠArt": 7169,
      "Ġbasis": 7170,
      "Ġactions": 7171,
      "Ġ{},": 7172,
      "Processor": 7173,
      "ĠMarch": 7174,
      "Ġ'%": 7175,
      "ellow": 7176,
      "constant": 7177,
      "Ġwave": 7178,
      "Ġemploy": 7179,
      "ober": 7180,
      "Site": 7181,
      "ĠEurope": 7182,
      "Ġwide": 7183,
      "Should": 7184,
      "SM": 7185,
      "Ġprove": 7186,
      "vlet": 7187,
      "Ġdidn": 7188,
      "ĠPo": 7189,
      "Ġ'.": 7190,
      "Ġrepos": 7191,
      ")[": 7192,
      "}-\\": 7193,
      "ptember": 7194,
      "ĠLcom": 7195,
      "transaction": 7196,
      ")}{": 7197,
      "Ġarbit": 7198,
      "toBe": 7199,
      "Env": 7200,
      "tar": 7201,
      "Shared": 7202,
      "irth": 7203,
      "ulator": 7204,
      "lege": 7205,
      "lush": 7206,
      "Ġnatural": 7207,
      "noindent": 7208,
      "Ġ\".": 7209,
      "ication": 7210,
      "ography": 7211,
      "isation": 7212,
      "Ġfire": 7213,
      "Ġissues": 7214,
      "Ġreported": 7215,
      "integer": 7216,
      "VAR": 7217,
      "here": 7218,
      "Ġpopulation": 7219,
      "Ġ-\\": 7220,
      "Ġmaint": 7221,
      "cfg": 7222,
      "Ġtaking": 7223,
      "93": 7224,
      "Rate": 7225,
      "orary": 7226,
      "Ġagent": 7227,
      "Ġfav": 7228,
      "Ġhit": 7229,
      "Face": 7230,
      "den": 7231,
      "Ġtags": 7232,
      "ĠDB": 7233,
      "Ġchoice": 7234,
      "Ignore": 7235,
      "oog": 7236,
      "Ġmodified": 7237,
      "<<": 7238,
      "Ġsocial": 7239,
      "LOW": 7240,
      "ĠCommand": 7241,
      "Ġ'./": 7242,
      "compare": 7243,
      "wall": 7244,
      "\">(": 7245,
      "levant": 7246,
      "afe": 7247,
      "Term": 7248,
      "Complete": 7249,
      "itemize": 7250,
      "Timestamp": 7251,
      "wd": 7252,
      "ĠNow": 7253,
      "Border": 7254,
      "TY": 7255,
      "Div": 7256,
      "Ġsitu": 7257,
      "Ġmodify": 7258,
      "Ġtypedef": 7259,
      "ackson": 7260,
      "Ġresolve": 7261,
      "ued": 7262,
      "ãĢĤ": 7263,
      "AUT": 7264,
      "Stop": 7265,
      "cli": 7266,
      "lour": 7267,
      "pointer": 7268,
      "TIES": 7269,
      "Ġfrequency": 7270,
      "spacing": 7271,
      "Cursor": 7272,
      "correct": 7273,
      "ĠNorth": 7274,
      "Constraint": 7275,
      "HEAD": 7276,
      "band": 7277,
      "reader": 7278,
      "Ġvalidation": 7279,
      "Navigation": 7280,
      "Ġol": 7281,
      "Ġshare": 7282,
      "Ġdev": 7283,
      "Focus": 7284,
      "URCE": 7285,
      "/\">": 7286,
      "Users": 7287,
      "eness": 7288,
      "Contact": 7289,
      "$}": 7290,
      "Look": 7291,
      "resize": 7292,
      "Ġrelationship": 7293,
      "ĠColor": 7294,
      "Ġmerge": 7295,
      "onto": 7296,
      "Axis": 7297,
      "Ġtook": 7298,
      "contents": 7299,
      "encode": 7300,
      "native": 7301,
      "Verify": 7302,
      "Ġdenote": 7303,
      "aur": 7304,
      "Errorf": 7305,
      "Edge": 7306,
      "Platform": 7307,
      "Login": 7308,
      "aaaa": 7309,
      "ĠProcess": 7310,
      "Ġvelocity": 7311,
      "ĠBit": 7312,
      "enumerate": 7313,
      "fake": 7314,
      "2021": 7315,
      "Ġisn": 7316,
      "catch": 7317,
      "rapped": 7318,
      "prod": 7319,
      "mic": 7320,
      "theorem": 7321,
      "osen": 7322,
      "_)": 7323,
      "ĠFound": 7324,
      "ĠAir": 7325,
      "ĠBo": 7326,
      "Ġgets": 7327,
      "shal": 7328,
      "bc": 7329,
      "inger": 7330,
      "Ġbin": 7331,
      "GEN": 7332,
      "tics": 7333,
      "trim": 7334,
      "noun": 7335,
      "ences": 7336,
      "Ġalbum": 7337,
      "getId": 7338,
      "Library": 7339,
      "Ġprev": 7340,
      "213": 7341,
      "Ġinstances": 7342,
      "ectors": 7343,
      "convert": 7344,
      "Private": 7345,
      "kt": 7346,
      "ste": 7347,
      "gg": 7348,
      "iece": 7349,
      "Ġscheme": 7350,
      "FFER": 7351,
      "Signature": 7352,
      "Ġpartition": 7353,
      "Ġ$_": 7354,
      "oted": 7355,
      "Ġdegree": 7356,
      "CONFIG": 7357,
      "decor": 7358,
      "called": 7359,
      "Ġestim": 7360,
      "Ġtoday": 7361,
      "rant": 7362,
      "ĉĉĉĉĉĉĉĉĉĉ": 7363,
      "governor": 7364,
      "Ġsys": 7365,
      "Console": 7366,
      "åĲ": 7367,
      "({\\": 7368,
      "Errors": 7369,
      "Ġduration": 7370,
      "Tasks": 7371,
      "Ġbroad": 7372,
      "erved": 7373,
      "Compat": 7374,
      "uuid": 7375,
      "vspace": 7376,
      "ĠAny": 7377,
      "Dependency": 7378,
      "HERE": 7379,
      "Ġsynchron": 7380,
      "Gra": 7381,
      "ĠCustom": 7382,
      "icture": 7383,
      "ĠVar": 7384,
      "ĠSim": 7385,
      "Ġeasy": 7386,
      "loading": 7387,
      "isode": 7388,
      "ĠPol": 7389,
      "Material": 7390,
      "Ġquick": 7391,
      "00000000": 7392,
      "MIT": 7393,
      "Ġmut": 7394,
      "player": 7395,
      "Ġsync": 7396,
      "ĠOnly": 7397,
      "RT": 7398,
      "'}": 7399,
      "sent": 7400,
      "Setting": 7401,
      "nes": 7402,
      "Export": 7403,
      "ĠOp": 7404,
      "IE": 7405,
      "Ġdeath": 7406,
      "Arguments": 7407,
      "activity": 7408,
      "bd": 7409,
      "ournal": 7410,
      "ipe": 7411,
      "Ġfast": 7412,
      "inct": 7413,
      "Î±": 7414,
      "dimensional": 7415,
      "Ġbatch": 7416,
      "Ġcreating": 7417,
      "sig": 7418,
      "ĠAustral": 7419,
      "Ġsense": 7420,
      "esian": 7421,
      "Ġmiddle": 7422,
      "ĠWhat": 7423,
      "Ġbranch": 7424,
      "ĉčĊ": 7425,
      "ĠBA": 7426,
      "Ġever": 7427,
      "Some": 7428,
      "Holder": 7429,
      "ares": 7430,
      "ĠMax": 7431,
      "1999": 7432,
      "repository": 7433,
      "Ġthought": 7434,
      "ĠPres": 7435,
      "Groups": 7436,
      "topic": 7437,
      "\\,\\": 7438,
      "emit": 7439,
      "ĠĠĠĠĠĠĠĠĠĠĠĠĠĠĠĠĠĠĠĠĠĠĠĠĠĠĠĠĠĠĠĠĠĠĠĠĠĠĠĠĠĠĠĠĠĠĠ": 7440,
      "sto": 7441,
      "Ġunits": 7442,
      "uel": 7443,
      "atur": 7444,
      "anning": 7445,
      "ĠVis": 7446,
      "Bounds": 7447,
      "asy": 7448,
      "Ġdemon": 7449,
      "ĠOutput": 7450,
      "Ġpick": 7451,
      "NET": 7452,
      "Rows": 7453,
      "brid": 7454,
      "Ġamp": 7455,
      "Ġidentity": 7456,
      "Ġwalk": 7457,
      "Ġbecomes": 7458,
      "reng": 7459,
      "Ġalias": 7460,
      "SV": 7461,
      "ĠApril": 7462,
      "BY": 7463,
      "pan": 7464,
      "Ġmot": 7465,
      "Ġanything": 7466,
      "uge": 7467,
      "Encoding": 7468,
      "Ġprincip": 7469,
      "bes": 7470,
      "ATCH": 7471,
      "Ġ\\|": 7472,
      "ĠAlso": 7473,
      "Ġdecre": 7474,
      "ĠclassName": 7475,
      "available": 7476,
      "Ġsubst": 7477,
      "Ġlabels": 7478,
      "ech": 7479,
      "scss": 7480,
      "Ġcast": 7481,
      "underline": 7482,
      "BUI": 7483,
      "ĠGeneral": 7484,
      "BIT": 7485,
      "Ġ*,": 7486,
      "Ret": 7487,
      "blob": 7488,
      "Ġund": 7489,
      "Ġocc": 7490,
      "minus": 7491,
      "Ġfully": 7492,
      "Ġmis": 7493,
      "ĠTherefore": 7494,
      "multicol": 7495,
      "MAGE": 7496,
      "Zone": 7497,
      "Ġpack": 7498,
      "Ġ----------------------------------------------------------------": 7499,
      "ragma": 7500,
      "ĠAbstract": 7501,
      "avid": 7502,
      "Ġaudio": 7503,
      "AG": 7504,
      "plot": 7505,
      "Ġestimate": 7506,
      "Ġâ": 7507,
      "aining": 7508,
      "Ġupon": 7509,
      ",'": 7510,
      "Day": 7511,
      "Ġcalling": 7512,
      "cheduler": 7513,
      "ĠDOM": 7514,
      "Ġchoose": 7515,
      "onical": 7516,
      "Theta": 7517,
      "ĠGo": 7518,
      "Ġmillion": 7519,
      "hest": 7520,
      "Information": 7521,
      "IDE": 7522,
      "logo": 7523,
      "Ġcomparison": 7524,
      "ĠAndroid": 7525,
      "IAL": 7526,
      "Card": 7527,
      "Free": 7528,
      "Ġpresented": 7529,
      "Ġflat": 7530,
      "Ġimplies": 7531,
      "illing": 7532,
      "ĠQuery": 7533,
      "ĠassertTrue": 7534,
      "uber": 7535,
      "Convert": 7536,
      "ÑģÑĤ": 7537,
      "ĠPage": 7538,
      "Drawing": 7539,
      "unn": 7540,
      "urg": 7541,
      "Extensions": 7542,
      "Ġcr": 7543,
      "Drag": 7544,
      "ociation": 7545,
      "Ġut": 7546,
      "ĠJson": 7547,
      "vanced": 7548,
      ":'": 7549,
      "Ġusage": 7550,
      "Theme": 7551,
      "ĠWindows": 7552,
      "className": 7553,
      ".*;": 7554,
      "Contains": 7555,
      "INST": 7556,
      "touch": 7557,
      "canvas": 7558,
      "=%": 7559,
      "Ð¼": 7560,
      "ĠFind": 7561,
      "Ġplot": 7562,
      "Ġnavbar": 7563,
      "reme": 7564,
      "ĠImm": 7565,
      "ĠResponse": 7566,
      "ĠBuilder": 7567,
      "Ġemit": 7568,
      "Inner": 7569,
      "izations": 7570,
      "Ġplease": 7571,
      "Ġmaster": 7572,
      ">()": 7573,
      "Amount": 7574,
      "getInstance": 7575,
      "multicolumn": 7576,
      "ili": 7577,
      "6666": 7578,
      "Ġpayload": 7579,
      "Ġsteps": 7580,
      "blog": 7581,
      "lood": 7582,
      "ĠDescription": 7583,
      ";\"": 7584,
      "forward": 7585,
      "Ġactivity": 7586,
      "Ġkernel": 7587,
      "Ñĩ": 7588,
      "Depth": 7589,
      "Ġprocessing": 7590,
      "ĠPub": 7591,
      "ĠDr": 7592,
      "Tile": 7593,
      "ribution": 7594,
      "Ġmachine": 7595,
      "stry": 7596,
      "ĠArgument": 7597,
      "/*!": 7598,
      "irmed": 7599,
      "Ġrecomm": 7600,
      "esh": 7601,
      "elastic": 7602,
      "Android": 7603,
      "'$": 7604,
      "Other": 7605,
      "Ġdoing": 7606,
      "Ġwomen": 7607,
      "Ġruntime": 7608,
      "Ø±": 7609,
      "ycle": 7610,
      "gregate": 7611,
      "Ġblue": 7612,
      "/_": 7613,
      "~$": 7614,
      "ĠĠĠĠĠĠĠĠĠĠĊ": 7615,
      "ATOR": 7616,
      "Ġlove": 7617,
      "Exists": 7618,
      "Center": 7619,
      "Ġderived": 7620,
      "Ġlevels": 7621,
      "Ġreserved": 7622,
      "ĠLocal": 7623,
      "atar": 7624,
      "ĠDelete": 7625,
      "operation": 7626,
      ">'": 7627,
      "CM": 7628,
      "itute": 7629,
      "Ġtransfer": 7630,
      "scala": 7631,
      "Prev": 7632,
      "Ġ_{": 7633,
      "Ġ\">": 7634,
      "glyphicon": 7635,
      "Ġreflect": 7636,
      "gradient": 7637,
      "ĠPort": 7638,
      "limits": 7639,
      "pring": 7640,
      "ĠLink": 7641,
      "BB": 7642,
      "ATED": 7643,
      "dk": 7644,
      "Bool": 7645,
      "compute": 7646,
      "bert": 7647,
      "Ġcomes": 7648,
      "ĠPH": 7649,
      "timestamp": 7650,
      "Ġbits": 7651,
      "fol": 7652,
      "Ġshall": 7653,
      "Future": 7654,
      "Snapshot": 7655,
      "watch": 7656,
      "Ġdisable": 7657,
      "Ġresulting": 7658,
      "dro": 7659,
      "lapsed": 7660,
      "Ġpredi": 7661,
      "bsite": 7662,
      "La": 7663,
      "RED": 7664,
      "Ġconstraints": 7665,
      "repo": 7666,
      "Effect": 7667,
      "Ġreading": 7668,
      "ĠCreates": 7669,
      "ĠCent": 7670,
      "RAY": 7671,
      "120": 7672,
      "mediately": 7673,
      "fff": 7674,
      "Ġtimestamp": 7675,
      "__)": 7676,
      "pear": 7677,
      "acc": 7678,
      "ĠAugust": 7679,
      "Ġcomputed": 7680,
      "subject": 7681,
      "Ġ<-": 7682,
      "ĠTR": 7683,
      "Ġmaps": 7684,
      "FN": 7685,
      "Ġroom": 7686,
      "Ġmen": 7687,
      "esome": 7688,
      "jet": 7689,
      "UND": 7690,
      "ARG": 7691,
      "igate": 7692,
      "Ġinitialize": 7693,
      "'ve": 7694,
      "expression": 7695,
      "Deprecated": 7696,
      "ĠCG": 7697,
      "Ġstats": 7698,
      "Mo": 7699,
      "Ġapplications": 7700,
      "tl": 7701,
      "ĠSci": 7702,
      "........": 7703,
      "%,": 7704,
      "ĠSUM": 7705,
      "Ġlogging": 7706,
      "Ġrecogn": 7707,
      "rim": 7708,
      "Ġdetermined": 7709,
      "heading": 7710,
      "rast": 7711,
      "tf": 7712,
      "Points": 7713,
      "Real": 7714,
      "ĠConfiguration": 7715,
      ")}$": 7716,
      "Ġexamples": 7717,
      "mk": 7718,
      "ĠGra": 7719,
      "columns": 7720,
      "Ġhom": 7721,
      "Ġeff": 7722,
      "Transport": 7723,
      "ĠSE": 7724,
      "Ġpaths": 7725,
      "%%%%%%%%": 7726,
      "NODE": 7727,
      "Ġpublished": 7728,
      "Ġgreater": 7729,
      "osed": 7730,
      "Ġtd": 7731,
      "Ġgames": 7732,
      "Ġbecame": 7733,
      "Ġwarning": 7734,
      "Ġdriv": 7735,
      "Ġflex": 7736,
      "Ġquot": 7737,
      "vity": 7738,
      "Ġregard": 7739,
      "ĠSum": 7740,
      "Ġnews": 7741,
      "ensed": 7742,
      "Person": 7743,
      "Ġfriend": 7744,
      "Ġprobably": 7745,
      "remote": 7746,
      "Ġappropriate": 7747,
      "Ġgetting": 7748,
      "two": 7749,
      "ĠDO": 7750,
      "ano": 7751,
      "Ġbi": 7752,
      "Contents": 7753,
      "Ġvm": 7754,
      "Ġinstruction": 7755,
      "Ġmanagement": 7756,
      "priv": 7757,
      "Ġwar": 7758,
      "contact": 7759,
      "mc": 7760,
      ";|": 7761,
      "Ġdestroy": 7762,
      "Car": 7763,
      "Same": 7764,
      "ĠSeptember": 7765,
      "Expected": 7766,
      "Ã¶": 7767,
      "ĠBig": 7768,
      "spirit": 7769,
      "(\"#": 7770,
      "cassandra": 7771,
      "Ġoperators": 7772,
      "åħ": 7773,
      "ĠServer": 7774,
      "ĠThread": 7775,
      "Ġapplicable": 7776,
      "ArrayList": 7777,
      "STATUS": 7778,
      "DEX": 7779,
      "ĠIter": 7780,
      "Ġdifficult": 7781,
      "ĠHar": 7782,
      "LICENSE": 7783,
      "Accept": 7784,
      "Go": 7785,
      "lustr": 7786,
      "ÙĦ": 7787,
      "Collect": 7788,
      "ĠByte": 7789,
      "(\"%": 7790,
      "Ġquality": 7791,
      "ä½": 7792,
      "Using": 7793,
      "Ġcentral": 7794,
      "erial": 7795,
      "Ġaria": 7796,
      "pb": 7797,
      "dispatch": 7798,
      "Ġ|=": 7799,
      "\"/></": 7800,
      "Ġarr": 7801,
      "servable": 7802,
      "structions": 7803,
      "ye": 7804,
      "phrase": 7805,
      "createElement": 7806,
      "Place": 7807,
      "-$": 7808,
      "UST": 7809,
      "serialize": 7810,
      "YY": 7811,
      "ynomial": 7812,
      "Metrics": 7813,
      "LED": 7814,
      "(()": 7815,
      "Ġexactly": 7816,
      "2002": 7817,
      "Declaration": 7818,
      "omy": 7819,
      "ĠCounty": 7820,
      "selection": 7821,
      "Ġmagnetic": 7822,
      "Ġrespons": 7823,
      "lav": 7824,
      "ARD": 7825,
      "logging": 7826,
      "|^": 7827,
      "cember": 7828,
      "abc": 7829,
      "(/": 7830,
      "'m": 7831,
      "Diagnostics": 7832,
      "Ġbus": 7833,
      "THER": 7834,
      "cmp": 7835,
      "NA": 7836,
      "Runner": 7837,
      "lax": 7838,
      "Ġfs": 7839,
      "TF": 7840,
      "ĠNetwork": 7841,
      "operatorname": 7842,
      "Pixel": 7843,
      "INSERT": 7844,
      "Ġbl": 7845,
      "abric": 7846,
      "WIN": 7847,
      "Loop": 7848,
      "Here": 7849,
      "Ġfragment": 7850,
      "dark": 7851,
      "ĠJust": 7852,
      "Columns": 7853,
      "ĠSimple": 7854,
      "ĠLjava": 7855,
      "Ġspectrum": 7856,
      "eff": 7857,
      "Ġscore": 7858,
      "Ġbounds": 7859,
      "REE": 7860,
      "world": 7861,
      "ĠðŁ": 7862,
      "ropy": 7863,
      "Ġevolution": 7864,
      "ques": 7865,
      "Ġstudents": 7866,
      "Split": 7867,
      "room": 7868,
      "tty": 7869,
      "Permission": 7870,
      "yl": 7871,
      "Gui": 7872,
      "anchor": 7873,
      "Bottom": 7874,
      "Ġendpoint": 7875,
      "validation": 7876,
      "Book": 7877,
      "pages": 7878,
      "hpp": 7879,
      "ÏĦ": 7880,
      "Shader": 7881,
      "Ġdestination": 7882,
      "references": 7883,
      "RESULT": 7884,
      "Reset": 7885,
      "(['": 7886,
      "Ġdemonstr": 7887,
      "ĠApplication": 7888,
      "tooltip": 7889,
      "Management": 7890,
      "Ġjs": 7891,
      "Ð´": 7892,
      "jected": 7893,
      "******": 7894,
      "rial": 7895,
      "nobr": 7896,
      "Ġdynamic": 7897,
      "Weight": 7898,
      "ĠComponent": 7899,
      "Ġmention": 7900,
      "Present": 7901,
      "Ġ{%": 7902,
      "aret": 7903,
      "icate": 7904,
      "Cons": 7905,
      "Chain": 7906,
      "formance": 7907,
      "ĠBOOST": 7908,
      "ainers": 7909,
      "auss": 7910,
      "ased": 7911,
      "Ġanswer": 7912,
      "Ġpull": 7913,
      "ĠPoint": 7914,
      "Enable": 7915,
      "Ġconnections": 7916,
      "alias": 7917,
      "Light": 7918,
      "MAP": 7919,
      "Stub": 7920,
      "Ġneut": 7921,
      "verify": 7922,
      "irror": 7923,
      "Ġlooking": 7924,
      "OutputStream": 7925,
      "deg": 7926,
      "about": 7927,
      "ises": 7928,
      "ĠCOL": 7929,
      "Ġonline": 7930,
      "Arch": 7931,
      "pace": 7932,
      "ÛĮ": 7933,
      "Ġcorrelation": 7934,
      "Ġstrategy": 7935,
      "Ġmarket": 7936,
      "igr": 7937,
      "Converter": 7938,
      "Ġaddresses": 7939,
      "heel": 7940,
      "Ġboost": 7941,
      "Ġnoise": 7942,
      "ĠOur": 7943,
      "BUFFER": 7944,
      "vidence": 7945,
      "CB": 7946,
      "respond": 7947,
      "Ġtouch": 7948,
      "ĠVALIGN": 7949,
      "bold": 7950,
      "Ġimpact": 7951,
      "ĠSUMMARY": 7952,
      "Ġcompleted": 7953,
      "fect": 7954,
      "FOR": 7955,
      "Random": 7956,
      "audio": 7957,
      "Literal": 7958,
      "ibly": 7959,
      "bat": 7960,
      "gif": 7961,
      "mal": 7962,
      "Ġbene": 7963,
      "Ġregions": 7964,
      "Ġtrace": 7965,
      "Ð¾Ð²": 7966,
      "Ġparticip": 7967,
      "Fore": 7968,
      "prob": 7969,
      "Month": 7970,
      "Ġsupports": 7971,
      "writer": 7972,
      "PY": 7973,
      "riction": 7974,
      "deed": 7975,
      "ĠDon": 7976,
      "Ġwx": 7977,
      "ĠShow": 7978,
      "Ġexports": 7979,
      "Ġviol": 7980,
      "Optional": 7981,
      "Ġfi": 7982,
      "Ġmult": 7983,
      "jax": 7984,
      "Ġidea": 7985,
      "viewport": 7986,
      "ĉĉĠĠĠ": 7987,
      "Ġparsed": 7988,
      "'\\": 7989,
      "Ġlat": 7990,
      "Ġcb": 7991,
      "power": 7992,
      "vation": 7993,
      "ĠOctober": 7994,
      "================================================================": 7995,
      "Ġarticle": 7996,
      "150": 7997,
      "Ġconstruction": 7998,
      "uit": 7999,
      "CCESS": 8000,
      "Partition": 8001,
      "ĠRout": 8002,
      "getString": 8003,
      "itution": 8004,
      "Ġresolution": 8005,
      "ĠMed": 8006,
      "ude": 8007,
      "cursor": 8008,
      "viders": 8009,
      "ĠCSS": 8010,
      "ĠSm": 8011,
      "gorithms": 8012,
      "ĠFOR": 8013,
      ";|&": 8014,
      "Ġinteraction": 8015,
      "Ġones": 8016,
      "Ġcloud": 8017,
      "Ġ```": 8018,
      "ups": 8019,
      "warn": 8020,
      "Ġoverflow": 8021,
      "Ġdiscuss": 8022,
      "Ġnorm": 8023,
      "Ġrepository": 8024,
      "fric": 8025,
      "repeat": 8026,
      "Ġconstraint": 8027,
      "ĠAuth": 8028,
      "Ġtechn": 8029,
      "iming": 8030,
      "ĠKing": 8031,
      "ini": 8032,
      "Ġforms": 8033,
      "POS": 8034,
      "ĠLine": 8035,
      "ĠMet": 8036,
      "Ġuniform": 8037,
      "Standard": 8038,
      "IV": 8039,
      "Ġiterator": 8040,
      ")\",": 8041,
      "Ġimg": 8042,
      "LETE": 8043,
      "Ġagre": 8044,
      "Ġlatest": 8045,
      "Ġarbitrary": 8046,
      "Ġready": 8047,
      "ĠWARRANTIES": 8048,
      "Ġcompet": 8049,
      "Ġmagn": 8050,
      "arks": 8051,
      "bean": 8052,
      "Ġcharge": 8053,
      "~~~~~~~~": 8054,
      "Ġdetect": 8055,
      "Ġsafe": 8056,
      "ĠBuffer": 8057,
      "ivery": 8058,
      "('<": 8059,
      "ida": 8060,
      "/.": 8061,
      "Ġassembly": 8062,
      "SOURCE": 8063,
      "License": 8064,
      "){\\": 8065,
      "000000": 8066,
      "members": 8067,
      "van": 8068,
      "Ġfetch": 8069,
      "Ġ'\"": 8070,
      "Phone": 8071,
      "Ġidentify": 8072,
      "getType": 8073,
      "delay": 8074,
      "ĠSD": 8075,
      "Ġinputs": 8076,
      "Qual": 8077,
      "Ġns": 8078,
      "cls": 8079,
      "derr": 8080,
      "Ġ-=": 8081,
      "Ġbelong": 8082,
      "RUN": 8083,
      "Ġess": 8084,
      "aul": 8085,
      "avy": 8086,
      "rier": 8087,
      "ĠNews": 8088,
      "Authentication": 8089,
      "ĠAccording": 8090,
      "FIX": 8091,
      "sem": 8092,
      "bruary": 8093,
      "clusive": 8094,
      "Ġgoal": 8095,
      "Ġcra": 8096,
      "ternet": 8097,
      "Coin": 8098,
      "Ä±": 8099,
      "Ġpoly": 8100,
      "ondon": 8101,
      "cluded": 8102,
      "ĠLa": 8103,
      "aligned": 8104,
      "Ġusually": 8105,
      "Sharp": 8106,
      "Promise": 8107,
      ".',": 8108,
      "ĠGerman": 8109,
      "ients": 8110,
      "WEBPACK": 8111,
      "ĠHer": 8112,
      "Ġmouse": 8113,
      "*{": 8114,
      "ko": 8115,
      "Virtual": 8116,
      "ĠHouse": 8117,
      "Ġtheme": 8118,
      "Ġlocated": 8119,
      "Extra": 8120,
      "ĠEnglish": 8121,
      ">%": 8122,
      "ĠRecord": 8123,
      "ĠINTO": 8124,
      "Ġscalar": 8125,
      "iding": 8126,
      "aily": 8127,
      "ĠBack": 8128,
      "oked": 8129,
      "pragma": 8130,
      "Ġremaining": 8131,
      "Ġplaceholder": 8132,
      "Ġwrong": 8133,
      "ĠIL": 8134,
      "Frames": 8135,
      "Ġparticle": 8136,
      "Ġpairs": 8137,
      "sr": 8138,
      "Ġcritical": 8139,
      "Ġwor": 8140,
      "oral": 8141,
      "paper": 8142,
      "django": 8143,
      "Ġmixed": 8144,
      "ĠEl": 8145,
      "libs": 8146,
      "Ġdark": 8147,
      "Ġcurve": 8148,
      "Ġdialog": 8149,
      "concat": 8150,
      "texttt": 8151,
      "}\",": 8152,
      "Ter": 8153,
      "Ġrequested": 8154,
      "gon": 8155,
      "1234": 8156,
      "omite": 8157,
      "Îµ": 8158,
      "ĠSearch": 8159,
      "Missing": 8160,
      "Executor": 8161,
      "Been": 8162,
      "GIN": 8163,
      "corded": 8164,
      "ĠĠĠĠĠĠĠĠĠĠĠĠĠĠĠĠĠĠĠĠĊ": 8165,
      "vince": 8166,
      "syn": 8167,
      "UEST": 8168,
      "æķ": 8169,
      "Ġnight": 8170,
      "router": 8171,
      "Ġsn": 8172,
      "ersistence": 8173,
      "Ġcommands": 8174,
      "ysql": 8175,
      "Ġedges": 8176,
      "Ġdst": 8177,
      "Ġche": 8178,
      "ĠOS": 8179,
      "ĠURI": 8180,
      ",$": 8181,
      "Ġste": 8182,
      "Ġconcept": 8183,
      "mathscr": 8184,
      "za": 8185,
      "IMPORTED": 8186,
      "omitempty": 8187,
      "COMM": 8188,
      "Ġtax": 8189,
      "pecially": 8190,
      "NV": 8191,
      "drag": 8192,
      "Ġdraft": 8193,
      "Ġdrag": 8194,
      "Ġmount": 8195,
      "Ġloading": 8196,
      "React": 8197,
      "analy": 8198,
      "è¯": 8199,
      "ĠĠĠĠĠĠĠĠĠĠĠĠĠĠĠĠĠĠĠĠĠĠĠĠĠĠĠĠĠĠĠĠĠĠĠĠĠ": 8200,
      "inet": 8201,
      "encoding": 8202,
      "mapping": 8203,
      "Linq": 8204,
      "Cast": 8205,
      "docker": 8206,
      "Ġecon": 8207,
      "Replace": 8208,
      "ĠSelect": 8209,
      "Bits": 8210,
      "strings": 8211,
      "Ġincreasing": 8212,
      "vg": 8213,
      "interval": 8214,
      "Ġcompact": 8215,
      "Ġrecords": 8216,
      "Touch": 8217,
      "entially": 8218,
      "ewidth": 8219,
      "ENV": 8220,
      "Ġexpand": 8221,
      "Idx": 8222,
      "Ġderiv": 8223,
      "ĠSupport": 8224,
      "ĠParse": 8225,
      "Ġadapt": 8226,
      "ĠPython": 8227,
      "ACK": 8228,
      "translate": 8229,
      "Ġflux": 8230,
      "AST": 8231,
      "Ġmodal": 8232,
      "Ġpages": 8233,
      "COUN": 8234,
      "Ġten": 8235,
      "ientation": 8236,
      "links": 8237,
      "<>();": 8238,
      "ĠCH": 8239,
      "ĠContext": 8240,
      "ael": 8241,
      "getClass": 8242,
      "Switch": 8243,
      "cop": 8244,
      "BOOL": 8245,
      "uplicate": 8246,
      "CREATE": 8247,
      "itecture": 8248,
      "gradle": 8249,
      "LEMENT": 8250,
      "inder": 8251,
      "solr": 8252,
      "fast": 8253,
      "Ġchart": 8254,
      "Ġinflu": 8255,
      "twitter": 8256,
      "]+": 8257,
      "-(": 8258,
      "Ġstand": 8259,
      "actual": 8260,
      "Dev": 8261,
      "ĠPr": 8262,
      "Ġpacket": 8263,
      "Ġpreviously": 8264,
      "BUILD": 8265,
      "ierarchy": 8266,
      "footnote": 8267,
      "Delay": 8268,
      "rength": 8269,
      "Ġdetection": 8270,
      "Ġwidget": 8271,
      "Decimal": 8272,
      "Ġliter": 8273,
      "mobile": 8274,
      "labels": 8275,
      "ĠRel": 8276,
      "Ġhours": 8277,
      "lider": 8278,
      "getMessage": 8279,
      "annotations": 8280,
      "quired": 8281,
      "notes": 8282,
      "Master": 8283,
      "ĠĠĠĠĠĠĠĠĠĠĠĠĠĠĠĠĠĠĠĠĠĠĠĠĠĠĠĠĠĠĠĠĠĠ": 8284,
      "Ġimmediately": 8285,
      "Ġimplemented": 8286,
      "FALSE": 8287,
      "=$": 8288,
      "Ġangular": 8289,
      "AVE": 8290,
      ">`": 8291,
      "ĠII": 8292,
      "Ġvan": 8293,
      "\\}$": 8294,
      "dst": 8295,
      "Ġeasily": 8296,
      "Serialization": 8297,
      "ĠTech": 8298,
      "cern": 8299,
      "Writ": 8300,
      "ĠQue": 8301,
      "Ġrepresenting": 8302,
      "allery": 8303,
      "GO": 8304,
      "ford": 8305,
      "Ġversions": 8306,
      "MC": 8307,
      "Ġgrant": 8308,
      "Ġreduce": 8309,
      "ĠLogger": 8310,
      "sdk": 8311,
      "Ġdat": 8312,
      "Direction": 8313,
      "Ġcoordinates": 8314,
      "Overview": 8315,
      "Ġwent": 8316,
      "ĠMedia": 8317,
      "eg": 8318,
      "Î¹": 8319,
      "program": 8320,
      "Eq": 8321,
      "Ġpa": 8322,
      "expand": 8323,
      "ĠFrame": 8324,
      "Priority": 8325,
      "Ġintroduced": 8326,
      "Ġ'_": 8327,
      "UBLIC": 8328,
      "bp": 8329,
      "}%": 8330,
      "ĠNovember": 8331,
      "Ġextended": 8332,
      "relative": 8333,
      "Geometry": 8334,
      "auge": 8335,
      "selves": 8336,
      "ĠAre": 8337,
      "Ġruns": 8338,
      "Chunk": 8339,
      "Ġheld": 8340,
      "Ġalert": 8341,
      "illed": 8342,
      "Ġ'''": 8343,
      "ĠTop": 8344,
      "Ġmix": 8345,
      "127": 8346,
      "chunk": 8347,
      "Actions": 8348,
      "ington": 8349,
      "LY": 8350,
      "ILITY": 8351,
      "ĠCour": 8352,
      "Ġproducts": 8353,
      "Ġvertices": 8354,
      "Ġtopic": 8355,
      "Commit": 8356,
      "Ġeigen": 8357,
      "Ġhighlight": 8358,
      "SIS": 8359,
      "ket": 8360,
      "ĠStream": 8361,
      "Packet": 8362,
      "IZ": 8363,
      "Ġradio": 8364,
      "Ġcached": 8365,
      "Ġplane": 8366,
      "Ġpul": 8367,
      "sun": 8368,
      "Ġconduct": 8369,
      "Codec": 8370,
      "gz": 8371,
      "ĠRo": 8372,
      "LIN": 8373,
      "FileName": 8374,
      "Ġindicates": 8375,
      "dump": 8376,
      "Ð¿": 8377,
      "ilo": 8378,
      "Linear": 8379,
      "Ġgoto": 8380,
      "Caml": 8381,
      "Ġdelegate": 8382,
      "previous": 8383,
      "riends": 8384,
      "lision": 8385,
      "ĠReference": 8386,
      "Ġcells": 8387,
      "ĠSu": 8388,
      "fav": 8389,
      "SN": 8390,
      "ĠON": 8391,
      "direction": 8392,
      "Ġeduc": 8393,
      "Bucket": 8394,
      "Chart": 8395,
      "unlock": 8396,
      "SPACE": 8397,
      "EY": 8398,
      "Ġtrying": 8399,
      "Ġmid": 8400,
      "><!--": 8401,
      "rev": 8402,
      "Ġannoun": 8403,
      "ĠConvert": 8404,
      "Ġcomments": 8405,
      "Ġsigned": 8406,
      "rules": 8407,
      "Ġquite": 8408,
      "ĠImmutable": 8409,
      "Ġcompan": 8410,
      "Ġfigure": 8411,
      "folder": 8412,
      "ĠEach": 8413,
      "Owner": 8414,
      "edu": 8415,
      "scape": 8416,
      "World": 8417,
      "Tuple": 8418,
      "}}_": 8419,
      "notify": 8420,
      "101": 8421,
      "Ġuri": 8422,
      "Ġvisual": 8423,
      "prot": 8424,
      "SW": 8425,
      "hello": 8426,
      "ĠLoad": 8427,
      "Ġseems": 8428,
      "}^{-": 8429,
      "veal": 8430,
      "bucket": 8431,
      "generator": 8432,
      "olate": 8433,
      "RECT": 8434,
      "wx": 8435,
      "ĠSTART": 8436,
      "Ġfolder": 8437,
      "LAY": 8438,
      "uous": 8439,
      "Ġcompiler": 8440,
      ":#": 8441,
      "loating": 8442,
      "lisher": 8443,
      "'_": 8444,
      "Ġliteral": 8445,
      "Supported": 8446,
      "Ġcard": 8447,
      "Ġ(%": 8448,
      "ords": 8449,
      "Ġspaces": 8450,
      "berg": 8451,
      "Ġspeak": 8452,
      "Ġtele": 8453,
      "Ġiget": 8454,
      "Ġslow": 8455,
      "Locale": 8456,
      "Ġcolspan": 8457,
      "altColor": 8458,
      "Machine": 8459,
      "idence": 8460,
      "Two": 8461,
      "Ġparty": 8462,
      "gi": 8463,
      "bus": 8464,
      "Ġdownload": 8465,
      "examples": 8466,
      "180": 8467,
      "Ġbalance": 8468,
      "(\"\\": 8469,
      "MPL": 8470,
      "Ġvs": 8471,
      "Ġdescriptor": 8472,
      "tail": 8473,
      "Ġhot": 8474,
      "Ġdiscus": 8475,
      "localhost": 8476,
      "Upload": 8477,
      "Ġschedule": 8478,
      "001": 8479,
      "Ġbehind": 8480,
      "\"];": 8481,
      "artesian": 8482,
      "Asset": 8483,
      "ĠLL": 8484,
      "TL": 8485,
      "Ġexplain": 8486,
      "Ġrelevant": 8487,
      "Ġadding": 8488,
      "Ġeverything": 8489,
      "Ġinteresting": 8490,
      "ĠSerial": 8491,
      "Copyright": 8492,
      "PRI": 8493,
      "adoc": 8494,
      "Ġalpha": 8495,
      "Ġreplaced": 8496,
      "ĠDecember": 8497,
      "ENABLE": 8498,
      "have": 8499,
      "transport": 8500,
      "ocused": 8501,
      "concurrent": 8502,
      "locale": 8503,
      "aming": 8504,
      "Ġminim": 8505,
      "peech": 8506,
      "Ġsuccessfully": 8507,
      "Ġhyper": 8508,
      "Ġdevices": 8509,
      "Ġ--></": 8510,
      "illis": 8511,
      "RC": 8512,
      "han": 8513,
      "Ġsaved": 8514,
      "Ġ&#": 8515,
      "Ġtf": 8516,
      "decode": 8517,
      "Ġclone": 8518,
      "Ġcreation": 8519,
      "ĠPark": 8520,
      "HOME": 8521,
      "Sem": 8522,
      "Ġattempt": 8523,
      "ĠAmazon": 8524,
      "Ġproduced": 8525,
      "ampling": 8526,
      "asons": 8527,
      "HOUT": 8528,
      "INVALID": 8529,
      "crement": 8530,
      "Ġdelta": 8531,
      "ancy": 8532,
      "linux": 8533,
      "GHT": 8534,
      "ĠVALUES": 8535,
      "strip": 8536,
      "spect": 8537,
      "ria": 8538,
      "binding": 8539,
      "Ġsec": 8540,
      "Rules": 8541,
      "akes": 8542,
      "ĠCoq": 8543,
      "udit": 8544,
      "Ġ'@": 8545,
      "CDATA": 8546,
      "ara": 8547,
      "ĠHis": 8548,
      "och": 8549,
      "äº": 8550,
      "iring": 8551,
      "delegate": 8552,
      "ĉĉĉĉĊ": 8553,
      "%\"><": 8554,
      "ĠCA": 8555,
      "ĠLic": 8556,
      "Ġcontract": 8557,
      "ĠFoundation": 8558,
      "Ġago": 8559,
      "Ġminutes": 8560,
      "Sec": 8561,
      "xsd": 8562,
      "mean": 8563,
      "Ġenumer": 8564,
      "TableRow": 8565,
      "unknown": 8566,
      "cribe": 8567,
      "ĠMer": 8568,
      "ÙĨ": 8569,
      "ĠClasses": 8570,
      "Ġpeak": 8571,
      "Ġstation": 8572,
      "ĠRuntime": 8573,
      "omb": 8574,
      "DER": 8575,
      "Ġpert": 8576,
      "Ġmotion": 8577,
      "Ġgeometry": 8578,
      "mac": 8579,
      "cryption": 8580,
      "Ġwebsite": 8581,
      "Reason": 8582,
      "front": 8583,
      "Ġcalculated": 8584,
      "à¥": 8585,
      "park": 8586,
      "Execute": 8587,
      "Fixed": 8588,
      "Ġ#{": 8589,
      "Diff": 8590,
      "Ġfrag": 8591,
      "Ġgeneration": 8592,
      "Ġfake": 8593,
      "dicate": 8594,
      "ements": 8595,
      "danger": 8596,
      "ĠSign": 8597,
      "Ġadjust": 8598,
      "decl": 8599,
      "ĠĠĠĠĠĠĠĠĠĠĠĠĠĠĠĠĠĠĠĠĠĠĠĠĠĠĠĠĠĠĠĠĠĠĠĠ": 8600,
      "Dispatch": 8601,
      "1024": 8602,
      "Ġpresence": 8603,
      "decla": 8604,
      "ea": 8605,
      "thumb": 8606,
      "arante": 8607,
      "Ġ\"'": 8608,
      "urable": 8609,
      "vendor": 8610,
      "ĠÐ²": 8611,
      "olar": 8612,
      "Ġdeveloped": 8613,
      "Ġusername": 8614,
      "TRAN": 8615,
      "Ġcapt": 8616,
      "Ġpers": 8617,
      "fold": 8618,
      "dustry": 8619,
      "share": 8620,
      "URN": 8621,
      "Cook": 8622,
      "----------": 8623,
      "Ġlost": 8624,
      "inn": 8625,
      "ĠAccess": 8626,
      "dif": 8627,
      "codec": 8628,
      "ĠVirtual": 8629,
      "(--": 8630,
      "FLAG": 8631,
      "alan": 8632,
      "cha": 8633,
      "Fatal": 8634,
      "è¿": 8635,
      "cks": 8636,
      "mag": 8637,
      "hook": 8638,
      "acle": 8639,
      "Ġchecked": 8640,
      "Ġtermin": 8641,
      "cline": 8642,
      "Ġyoung": 8643,
      "DTD": 8644,
      "Ġpromise": 8645,
      "series": 8646,
      "ette": 8647,
      "Ġplayed": 8648,
      "ĠInvalid": 8649,
      "ĠContent": 8650,
      "person": 8651,
      "Ġmicro": 8652,
      "Ã³n": 8653,
      "organ": 8654,
      "ĠPromise": 8655,
      "complex": 8656,
      "Ġagreed": 8657,
      "lications": 8658,
      "Ġ'#": 8659,
      "Ġcls": 8660,
      "Watch": 8661,
      "Zero": 8662,
      "Ġsufficient": 8663,
      "defer": 8664,
      "ĠLay": 8665,
      "'d": 8666,
      "Ġfinished": 8667,
      "eclipse": 8668,
      "ĠFace": 8669,
      "Stat": 8670,
      "IX": 8671,
      "Ġprocesses": 8672,
      "Ġespecially": 8673,
      ")_": 8674,
      "HS": 8675,
      "Created": 8676,
      "hance": 8677,
      "ĠPresident": 8678,
      "Ġmed": 8679,
      "ĠDef": 8680,
      "binary": 8681,
      "wt": 8682,
      "FL": 8683,
      "Available": 8684,
      "Ġ'-": 8685,
      "orest": 8686,
      "Analy": 8687,
      "cpu": 8688,
      "Ġaapt": 8689,
      "Ġgeneric": 8690,
      "Ġcalculate": 8691,
      "tical": 8692,
      "anch": 8693,
      "Ġconfirm": 8694,
      "ĠÑģ": 8695,
      "ĠEast": 8696,
      "linewidth": 8697,
      "Emit": 8698,
      "ĉĠĠ": 8699,
      "fragment": 8700,
      "Ġstudies": 8701,
      "Ġmodules": 8702,
      "anks": 8703,
      "SSION": 8704,
      "Ġlimited": 8705,
      "Ġformula": 8706,
      "arator": 8707,
      "apes": 8708,
      "refs": 8709,
      "amazonaws": 8710,
      "Ġobservations": 8711,
      "Ġ($\\": 8712,
      "zen": 8713,
      "Ġmonths": 8714,
      "Tw": 8715,
      "lec": 8716,
      "Ġindices": 8717,
      "Servlet": 8718,
      "Ġinc": 8719,
      "EW": 8720,
      "regex": 8721,
      "Ġcop": 8722,
      "swing": 8723,
      "Instruction": 8724,
      "pid": 8725,
      "kernel": 8726,
      "onses": 8727,
      "Resp": 8728,
      "ĠWhile": 8729,
      "listener": 8730,
      "Doctrine": 8731,
      "Ġ$|": 8732,
      "2022": 8733,
      "ĠHandle": 8734,
      "Ġtrain": 8735,
      "Ġmoney": 8736,
      "ometric": 8737,
      "ĠSan": 8738,
      "Ġtradition": 8739,
      "Ġscene": 8740,
      "Ġmeas": 8741,
      "ĠAfric": 8742,
      "Mat": 8743,
      "Ġproduce": 8744,
      "ĠUsing": 8745,
      "Download": 8746,
      "munity": 8747,
      "ĉĠĠĠĠ": 8748,
      "Uses": 8749,
      "exclude": 8750,
      "ĠDebug": 8751,
      "Buf": 8752,
      "fession": 8753,
      "ĠJS": 8754,
      "quant": 8755,
      "datetime": 8756,
      "addClass": 8757,
      "SSAGE": 8758,
      "Ġ\\;": 8759,
      "Ġtopo": 8760,
      "Dynamic": 8761,
      "ĠSend": 8762,
      "timeline": 8763,
      "Ġsil": 8764,
      "ĠMich": 8765,
      "ĠModule": 8766,
      "Pack": 8767,
      "Analysis": 8768,
      "dagger": 8769,
      "rench": 8770,
      "urations": 8771,
      "Peer": 8772,
      "embed": 8773,
      "ĠTABLE": 8774,
      "trm": 8775,
      "urs": 8776,
      "istog": 8777,
      "Ġtools": 8778,
      "slide": 8779,
      "hd": 8780,
      "guide": 8781,
      "ducing": 8782,
      "Origin": 8783,
      "Ġemission": 8784,
      "tended": 8785,
      "gov": 8786,
      "aver": 8787,
      "Ġbucket": 8788,
      "Ġextend": 8789,
      "DR": 8790,
      "ored": 8791,
      "Controls": 8792,
      "Ms": 8793,
      "TAG": 8794,
      "Ġunderlying": 8795,
      "allenge": 8796,
      "Formatter": 8797,
      "aste": 8798,
      "Ġbra": 8799,
      "Ġleave": 8800,
      "Ġillustr": 8801,
      "ĠControl": 8802,
      "eval": 8803,
      "Mutable": 8804,
      "************************************************************************": 8805,
      "Many": 8806,
      "Ġregistered": 8807,
      "hl": 8808,
      "Matcher": 8809,
      "Ġanchor": 8810,
      "ĠBra": 8811,
      "issions": 8812,
      "ĠItem": 8813,
      "wallet": 8814,
      "Ġofficial": 8815,
      "Ġisinstance": 8816,
      "well": 8817,
      "timer": 8818,
      "Fil": 8819,
      "fp": 8820,
      "velopment": 8821,
      "sessment": 8822,
      "åĬ": 8823,
      "amount": 8824,
      "Ġconsistent": 8825,
      "Transition": 8826,
      "ĠFebruary": 8827,
      "Ġpriv": 8828,
      "olicies": 8829,
      "GC": 8830,
      "amilton": 8831,
      "Med": 8832,
      "Camera": 8833,
      "termin": 8834,
      "Ġprintf": 8835,
      "<\\": 8836,
      "PROC": 8837,
      "ĠDem": 8838,
      "\":\"": 8839,
      "SPAN": 8840,
      "DataType": 8841,
      "Contract": 8842,
      "ĠAmerica": 8843,
      "ĠKEY": 8844,
      "BASE": 8845,
      "Ġcontinuous": 8846,
      "onic": 8847,
      "StringBuilder": 8848,
      "Ġgoogle": 8849,
      "Î½": 8850,
      "Ġpriority": 8851,
      "Ġprice": 8852,
      "Cannot": 8853,
      "Express": 8854,
      "ĠCore": 8855,
      "ĠGraph": 8856,
      "AI": 8857,
      "COM": 8858,
      "mx": 8859,
      "Ã£": 8860,
      "Ġfails": 8861,
      "Labels": 8862,
      "Enumerable": 8863,
      "cessed": 8864,
      "tile": 8865,
      "imately": 8866,
      "Ġdead": 8867,
      "textrm": 8868,
      "ancial": 8869,
      "Ġareas": 8870,
      "ĠIllegalArgumentException": 8871,
      "fb": 8872,
      "Ġhence": 8873,
      "elasticsearch": 8874,
      "arily": 8875,
      "Ġdro": 8876,
      "deep": 8877,
      "'].": 8878,
      "ĠFALSE": 8879,
      "Ġdie": 8880,
      "ighest": 8881,
      "ĠLondon": 8882,
      "Disk": 8883,
      "unct": 8884,
      "ĉĉĉĉĉĉĉĉĉĉĉ": 8885,
      "endpoint": 8886,
      "Rot": 8887,
      "Ġthreshold": 8888,
      "oe": 8889,
      "Ctrl": 8890,
      "foreach": 8891,
      "Ġbundle": 8892,
      "}}_{": 8893,
      "CLI": 8894,
      "Culture": 8895,
      "mms": 8896,
      "å¤": 8897,
      "Ġcamera": 8898,
      "ĠERR": 8899,
      "Ġ$\\{": 8900,
      "Bad": 8901,
      "prepare": 8902,
      "ĠPackage": 8903,
      "Ġrecently": 8904,
      "ENTRY": 8905,
      "ĠCenter": 8906,
      "ĠCloud": 8907,
      "olid": 8908,
      "Ġchosen": 8909,
      "Ġdesired": 8910,
      "aussian": 8911,
      "Ġexponent": 8912,
      "Ġseparate": 8913,
      "ellar": 8914,
      "etween": 8915,
      "ĠMain": 8916,
      "artment": 8917,
      "mous": 8918,
      "Pane": 8919,
      "Ġcorresponds": 8920,
      "Ġimplied": 8921,
      "Ġfollowed": 8922,
      "125": 8923,
      "Ġparticles": 8924,
      "ki": 8925,
      "flush": 8926,
      "Ġviews": 8927,
      "Ùħ": 8928,
      "standard": 8929,
      "Ġupdates": 8930,
      "processor": 8931,
      "hold": 8932,
      "failed": 8933,
      "rtl": 8934,
      "notification": 8935,
      "agnostic": 8936,
      "Ġnational": 8937,
      "Ġaccuracy": 8938,
      "Assembly": 8939,
      "Git": 8940,
      "Sm": 8941,
      "Ġdimensions": 8942,
      "Ġpolynomial": 8943,
      "Ġtranslation": 8944,
      "NC": 8945,
      "Ġnetworks": 8946,
      "ĠHAL": 8947,
      "Ġfoo": 8948,
      "Ġbg": 8949,
      "diag": 8950,
      "bt": 8951,
      "Ġconversion": 8952,
      "ĠAws": 8953,
      "Kit": 8954,
      "uncil": 8955,
      "matches": 8956,
      "Ġpersonal": 8957,
      "ails": 8958,
      "AF": 8959,
      "ĠBritish": 8960,
      "Ġknowledge": 8961,
      "execution": 8962,
      "refresh": 8963,
      "dig": 8964,
      "HashMap": 8965,
      "subseteq": 8966,
      "payload": 8967,
      "Ġdomin": 8968,
      "lanation": 8969,
      "Period": 8970,
      "weet": 8971,
      "Ġtransactions": 8972,
      "Bra": 8973,
      "extensions": 8974,
      "ARRAY": 8975,
      "Ip": 8976,
      "]->": 8977,
      "maps": 8978,
      "__,": 8979,
      "ishing": 8980,
      "Ġbeginning": 8981,
      "ĠWITHOUT": 8982,
      "0000000": 8983,
      "DITION": 8984,
      "ĠGame": 8985,
      "rupted": 8986,
      "Ġaffect": 8987,
      "Ġsecret": 8988,
      ">${": 8989,
      "Worker": 8990,
      "Loading": 8991,
      "fully": 8992,
      "Ġfraction": 8993,
      "Secret": 8994,
      "ĠME": 8995,
      "pod": 8996,
      "kes": 8997,
      "factor": 8998,
      "EVENT": 8999,
      "iper": 9000,
      "cases": 9001,
      "Ġstructures": 9002,
      "plus": 9003,
      "ained": 9004,
      "Fetch": 9005,
      "Ġstri": 9006,
      "asc": 9007,
      "Ġstat": 9008,
      "SUCCESS": 9009,
      "ĠGlobal": 9010,
      "Leg": 9011,
      "cuda": 9012,
      "middle": 9013,
      "Ġtokens": 9014,
      "toolbar": 9015,
      "!</": 9016,
      "Ġcellpadding": 9017,
      "Ġpermission": 9018,
      "runner": 9019,
      "[-": 9020,
      "Ġdispatch": 9021,
      "Ġuncert": 9022,
      "Trigger": 9023,
      "photon": 9024,
      "onymous": 9025,
      "Ġgalaxies": 9026,
      "Ġmetrics": 9027,
      "')->": 9028,
      "Ġoccurs": 9029,
      "ADDING": 9030,
      "ĠÐ½": 9031,
      "ORK": 9032,
      "BACK": 9033,
      "Ġbinding": 9034,
      "('./": 9035,
      "ratic": 9036,
      "Ġdiscussed": 9037,
      "oplus": 9038,
      "ky": 9039,
      "Ġreach": 9040,
      ",.": 9041,
      "poi": 9042,
      "ĠFix": 9043,
      "Ġtown": 9044,
      "çĶ¨": 9045,
      "XXXX": 9046,
      "Ġgoes": 9047,
      "TIM": 9048,
      "Ġpopular": 9049,
      "itable": 9050,
      "tri": 9051,
      "ĠGenerated": 9052,
      "Once": 9053,
      "specific": 9054,
      "Ġneg": 9055,
      "mong": 9056,
      "Ġcompatible": 9057,
      "bing": 9058,
      "Ġpropag": 9059,
      "Ġsizes": 9060,
      "ĠExpression": 9061,
      "RET": 9062,
      "Ġveh": 9063,
      "Ġdeleted": 9064,
      "Ġprocedure": 9065,
      "Assign": 9066,
      "Ġignored": 9067,
      "Ġhelper": 9068,
      "Ġtheorem": 9069,
      "Ð·": 9070,
      "æĺ": 9071,
      "Ġ\"${": 9072,
      "history": 9073,
      "600": 9074,
      "attrs": 9075,
      "ĠCommon": 9076,
      "Ġstra": 9077,
      "ventory": 9078,
      "ĠUK": 9079,
      "netes": 9080,
      "BS": 9081,
      "Ġrotation": 9082,
      "Ġreduced": 9083,
      "Completion": 9084,
      "ny": 9085,
      "Alias": 9086,
      "LOAD": 9087,
      "bullet": 9088,
      "ĠProgram": 9089,
      "ura": 9090,
      "ubernetes": 9091,
      "texture": 9092,
      "ĠWilli": 9093,
      "ĠSH": 9094,
      "ociety": 9095,
      "()\">": 9096,
      "Ġestablished": 9097,
      "states": 9098,
      "Ġappears": 9099,
      "displayName": 9100,
      "beans": 9101,
      "OW": 9102,
      "ErrorCode": 9103,
      "iqu": 9104,
      "anned": 9105,
      "Ġmind": 9106,
      "Ġreferences": 9107,
      "ĠHashMap": 9108,
      "ĠPAR": 9109,
      "hbase": 9110,
      "Features": 9111,
      "Ġmedi": 9112,
      "descriptor": 9113,
      "identity": 9114,
      "spi": 9115,
      "Ġclock": 9116,
      "includes": 9117,
      "Ġoptimal": 9118,
      "Bo": 9119,
      "googleapis": 9120,
      "Ġcomputer": 9121,
      "Ġtold": 9122,
      "×ķ": 9123,
      "CUR": 9124,
      "Ġexpr": 9125,
      "Ġtexture": 9126,
      "ubble": 9127,
      "REA": 9128,
      "cn": 9129,
      "integr": 9130,
      "bine": 9131,
      "=&": 9132,
      "getAttribute": 9133,
      "ĠDateTime": 9134,
      "ĠInternational": 9135,
      "Ġtor": 9136,
      "ixtures": 9137,
      "currency": 9138,
      "secondary": 9139,
      "hom": 9140,
      "Our": 9141,
      "Ġrisk": 9142,
      "TOM": 9143,
      "Ġexperiment": 9144,
      "Ð°ÑĤ": 9145,
      "capt": 9146,
      "Ġmoved": 9147,
      "ĠTag": 9148,
      "Ġeffort": 9149,
      "Ġonto": 9150,
      "Ġsouth": 9151,
      "Ġfamil": 9152,
      "javax": 9153,
      "ĠAddress": 9154,
      "Ġpurpose": 9155,
      "ĠPlease": 9156,
      "Ġpipeline": 9157,
      "Family": 9158,
      "grams": 9159,
      "Ġexchange": 9160,
      "logies": 9161,
      "PM": 9162,
      "Ġsmooth": 9163,
      "Ro": 9164,
      "Ġbring": 9165,
      "Ġconv": 9166,
      "connected": 9167,
      "UCT": 9168,
      "Ġtuple": 9169,
      "Ġearlier": 9170,
      "^{-\\": 9171,
      "enchmark": 9172,
      "Ġattention": 9173,
      "Pojo": 9174,
      "uggest": 9175,
      "ACING": 9176,
      "det": 9177,
      "Ġpending": 9178,
      "Ġcompletely": 9179,
      "Ġcoming": 9180,
      "mn": 9181,
      "ViewController": 9182,
      "START": 9183,
      "aren": 9184,
      "schemas": 9185,
      "*,": 9186,
      "ctree": 9187,
      "Bitmap": 9188,
      "=\"{{": 9189,
      "Ġcellspacing": 9190,
      "Modified": 9191,
      "noframe": 9192,
      "^-": 9193,
      "Ã£o": 9194,
      "Ġremains": 9195,
      "Activ": 9196,
      "ĠMAX": 9197,
      "Ġmeasured": 9198,
      "Ġ\"#": 9199,
      "ĠUs": 9200,
      "===": 9201,
      "Ġsymmetry": 9202,
      "Ġdecision": 9203,
      "yr": 9204,
      "seudo": 9205,
      "ĠĠĠĠĠĠĠĠĠĠĠĠĠĠĠĠĠĠĠĠĠĠĠĠĠĠĠĠĠĠĠĠĠĠĠĠĠĠ": 9206,
      "################################": 9207,
      "Blockly": 9208,
      "ĠKIND": 9209,
      "prite": 9210,
      "Ġlogin": 9211,
      "Ġled": 9212,
      "ĠDay": 9213,
      "SUB": 9214,
      "ATURE": 9215,
      "continue": 9216,
      "Did": 9217,
      "rec": 9218,
      "loss": 9219,
      "ivial": 9220,
      "cker": 9221,
      "ashed": 9222,
      "updated": 9223,
      "Ġsatisfies": 9224,
      "features": 9225,
      "Ø¯": 9226,
      "covered": 9227,
      "ĠDouble": 9228,
      "cached": 9229,
      "Ġmonitor": 9230,
      "Ġscatter": 9231,
      "Ïĥ": 9232,
      "ĠStruct": 9233,
      "vars": 9234,
      "setminus": 9235,
      "Syn": 9236,
      "udent": 9237,
      "cursive": 9238,
      "Dict": 9239,
      "Ġsending": 9240,
      "Ġgreen": 9241,
      "ĠJap": 9242,
      "[]{": 9243,
      "RESS": 9244,
      "what": 9245,
      "Calendar": 9246,
      "sWith": 9247,
      "Ġdefaults": 9248,
      "ÐµÑĢ": 9249,
      "override": 9250,
      "Certificate": 9251,
      "Ġclaim": 9252,
      "parts": 9253,
      "Capture": 9254,
      "jackson": 9255,
      "atrices": 9256,
      ">(<": 9257,
      "Ġ',": 9258,
      "ROW": 9259,
      "will": 9260,
      "Ġindicate": 9261,
      "dynamic": 9262,
      "Ġ$$": 9263,
      "utive": 9264,
      "dependencies": 9265,
      "250": 9266,
      "Ġsaf": 9267,
      "ato": 9268,
      "grees": 9269,
      "ĠBORDER": 9270,
      "Ġconstants": 9271,
      "Ġaddr": 9272,
      "ĠOrder": 9273,
      "ĠAuto": 9274,
      "Lookup": 9275,
      "ĠKe": 9276,
      "Ġ\")": 9277,
      "wedge": 9278,
      "Exist": 9279,
      "Ġassigned": 9280,
      "Pipeline": 9281,
      "TERN": 9282,
      "lam": 9283,
      "Ġdesigned": 9284,
      "Break": 9285,
      "Pred": 9286,
      "Tensor": 9287,
      "Dem": 9288,
      "sz": 9289,
      "pad": 9290,
      "rib": 9291,
      "mix": 9292,
      "eli": 9293,
      "awn": 9294,
      "arc": 9295,
      "ĠDet": 9296,
      "Kernel": 9297,
      "]['": 9298,
      "ĠResearch": 9299,
      "MenuItem": 9300,
      "Done": 9301,
      "neut": 9302,
      "management": 9303,
      "TT": 9304,
      "Ġtowards": 9305,
      "ĠBE": 9306,
      "pixel": 9307,
      "NameLink": 9308,
      "stone": 9309,
      "Ġlimitations": 9310,
      "Ġrestrict": 9311,
      "Ġbegan": 9312,
      "tod": 9313,
      "Push": 9314,
      "lability": 9315,
      "Ġimprove": 9316,
      "_[": 9317,
      "Seq": 9318,
      "oting": 9319,
      "Ġwrapper": 9320,
      "ĠEar": 9321,
      "Intent": 9322,
      "Ġsender": 9323,
      "CharacterOffset": 9324,
      "Self": 9325,
      "isms": 9326,
      "Ġ\\(": 9327,
      "Ġpixels": 9328,
      "Uniform": 9329,
      "km": 9330,
      "Ġfood": 9331,
      "DataSource": 9332,
      "ĠPrint": 9333,
      "conv": 9334,
      "Score": 9335,
      "1998": 9336,
      "ĠOP": 9337,
      "ĠInv": 9338,
      "Ġnor": 9339,
      "Tracker": 9340,
      "nowledge": 9341,
      "filters": 9342,
      "ASS": 9343,
      "ensitive": 9344,
      "aking": 9345,
      "ĠVerify": 9346,
      "FAIL": 9347,
      "ji": 9348,
      "Series": 9349,
      "issue": 9350,
      "ĠDCHECK": 9351,
      "Ġzone": 9352,
      "Ġexperiments": 9353,
      "statsmodels": 9354,
      "Ġinvariant": 9355,
      "archive": 9356,
      "Ġconcern": 9357,
      "brand": 9358,
      "servlet": 9359,
      "folio": 9360,
      "Ġexpansion": 9361,
      "Modifier": 9362,
      "linked": 9363,
      "pn": 9364,
      "PROP": 9365,
      "orge": 9366,
      "Ġevidence": 9367,
      "Running": 9368,
      "Ġship": 9369,
      "receiv": 9370,
      "ple": 9371,
      "ClassName": 9372,
      "_*": 9373,
      "Primary": 9374,
      "WARE": 9375,
      "Ġredirect": 9376,
      "NON": 9377,
      "Ġdynamics": 9378,
      "built": 9379,
      "Ġexc": 9380,
      "Checked": 9381,
      "roduction": 9382,
      "Ġsoon": 9383,
      "Ġslight": 9384,
      "Ġapproximation": 9385,
      "ĠCHE": 9386,
      "ANT": 9387,
      "ĠRender": 9388,
      "ĠPHP": 9389,
      "ceeded": 9390,
      "TableRowColor": 9391,
      "BLE": 9392,
      "Ġexplicitly": 9393,
      "ĠTool": 9394,
      "ĠMat": 9395,
      "Alert": 9396,
      "subfigure": 9397,
      "proc": 9398,
      "Wrap": 9399,
      "Ġdeclare": 9400,
      "clip": 9401,
      "Ġcontained": 9402,
      "[(": 9403,
      "Dat": 9404,
      "ĠFree": 9405,
      "Lite": 9406,
      "Vec": 9407,
      "Ġcompliance": 9408,
      "ingu": 9409,
      "Accessor": 9410,
      "pipe": 9411,
      "eb": 9412,
      "inject": 9413,
      "Ġmeaning": 9414,
      "ĠMO": 9415,
      "ĠOriginal": 9416,
      "ĠTV": 9417,
      "Ġheart": 9418,
      "ĠMag": 9419,
      "ASE": 9420,
      "ĠLicensed": 9421,
      "Ġways": 9422,
      "Ġnovel": 9423,
      "\\}": 9424,
      "elt": 9425,
      "Ġquestions": 9426,
      "ali": 9427,
      "Ġdecomp": 9428,
      "pending": 9429,
      "Received": 9430,
      "About": 9431,
      "MR": 9432,
      "Suppress": 9433,
      "ufact": 9434,
      "portion": 9435,
      "sass": 9436,
      "Ġgrowth": 9437,
      "Ġ}).": 9438,
      "]</": 9439,
      "pagination": 9440,
      "oices": 9441,
      "ĠTRUE": 9442,
      "bigg": 9443,
      "Align": 9444,
      "Ġpositions": 9445,
      "Ġpretty": 9446,
      "latest": 9447,
      "packet": 9448,
      "(\".": 9449,
      "Ġprojects": 9450,
      "REQUEST": 9451,
      "Ġlargest": 9452,
      "har": 9453,
      "redirect": 9454,
      "Ġcorre": 9455,
      "Ġpolitical": 9456,
      "Ġattrs": 9457,
      "scan": 9458,
      "NamedCell": 9459,
      "Ġguarante": 9460,
      "pres": 9461,
      "rence": 9462,
      "declare": 9463,
      "iforn": 9464,
      "\"?>": 9465,
      "vertex": 9466,
      "UA": 9467,
      "Slot": 9468,
      "LSP": 9469,
      "isions": 9470,
      "onsive": 9471,
      "Visual": 9472,
      "Ġencode": 9473,
      "alo": 9474,
      "Put": 9475,
      "Ġts": 9476,
      "ĠFilter": 9477,
      "HasBeen": 9478,
      "shell": 9479,
      "Ġant": 9480,
      "Ġrestore": 9481,
      "æĪ": 9482,
      "gregation": 9483,
      "Payment": 9484,
      "yond": 9485,
      "cookie": 9486,
      "ĠRuss": 9487,
      "_+": 9488,
      "ecause": 9489,
      "Ġtimer": 9490,
      "Ġcorrectly": 9491,
      "Ġbounded": 9492,
      "ĠMac": 9493,
      "wiki": 9494,
      "Ġharmon": 9495,
      "FilePath": 9496,
      "toEqual": 9497,
      "VEL": 9498,
      "\"])": 9499,
      "EXPORT": 9500,
      "These": 9501,
      "OFF": 9502,
      "phase": 9503,
      "Ġnumerical": 9504,
      "Ġ.=": 9505,
      "Ġinequal": 9506,
      "setting": 9507,
      "ief": 9508,
      "Annotations": 9509,
      "describe": 9510,
      "Ġinherit": 9511,
      "ĠCurrent": 9512,
      "Azure": 9513,
      "MEM": 9514,
      "*>(": 9515,
      "WARN": 9516,
      "ilib": 9517,
      "Setup": 9518,
      "Ġclu": 9519,
      "Ġcapture": 9520,
      "NECT": 9521,
      "gence": 9522,
      "Mut": 9523,
      "Ġexperimental": 9524,
      "ĠOff": 9525,
      "Ġ\");": 9526,
      "multip": 9527,
      "Ġ\"_": 9528,
      "Ġcampaign": 9529,
      "Poly": 9530,
      "Ġ|\\": 9531,
      "Ġleads": 9532,
      "popup": 9533,
      "ampion": 9534,
      "AreEqual": 9535,
      "setText": 9536,
      "Ġ========": 9537,
      "UUID": 9538,
      "sur": 9539,
      "DED": 9540,
      "Models": 9541,
[...]
