#version: 0.2
Ġ Ġ
Ġ t
i n
h e
Ġ a
o n
e r
ĠĠ ĠĠ
r e
a t
Ġt he
e n
o r
Ġ s
a l
a n
i s
e s
i t
Ġ o
a r
Ġ c
e d
Ġ w
i on
Ġ f
Ġ p
Ġo f
n d
Ġ in
i c
l e
in g
Ġ b
a s
r o
Ġa nd
Ġ d
Ġ m
ĠĠ Ġ
Ġt o
c t
en t
e t
ĠĠĠĠ ĠĠĠĠ
o u
e l
s t
i l
a m
o m
Ġ re
Ġ h
Ġ \
i g
Ġ S
Ġt h
Ġ n
o l
at ion
Ġ $
Ġ (
Ġ T
i m
a c
i d
Ġ C
Ġ e
o t
Ġ l
Ġ A
u r
i v
u t
a d
Ġ is
s e
u l
Ġf or
c e
Ġ M
Ġ g
o w
Ġ I
l y
c h
a y
e m
Ġ on
o d
t er
a g
ĠĠĠĠ ĠĠĠ
u s
u n
i f
u m
a b
Ġs t
v er
Ġ B
Ġ P
â Ģ
i r
Ġb e
Ġ =
it h
q u
2 0
{ \
Ġa s
is t
a p
t h
Ġc on
Ġth at
Ġ H
er s
at e
Ġ v
Ġ R
p e
1 9
Ġw ith
Ġ F
Ġ D
ĉ ĉ
es t
Ġ L
r i
an d
en d
o c
ĠT he
Ġa l
ct ion
a v
h t
he r
Ġw as
< /
re s
Ġp ro
e x
Ġa n
č Ċ
Ġ N
o p
= "
) ;
a in
Ġ W
Ġb y
Ġ G
at h
u p
u b
o s
- -
Ġd e
it y
e w
Ġ E
Ġw h
ro m
es s
_ {
Ġ {
e g
as s
Ġa t
or t
Ġc om
ar t
Ġ it
Ġ <
Ġ r
Ġe x
Ġ "
p t
Ġ Ċ
am e
o re
al l
t r
i es
Ġ$ \
ig ht
ĠĠĠĠĠĠĠĠ ĠĠĠ
p l
il l
in e
Ġf rom
u re
u e
Ġ J
Ġ or
m ent
ou r
Ġ &
Ġa re
/ /
e ct
i al
a k
Ġ he
Ġ O
an t
u d
Ġ *
m ath
Ġs e
iv e
ag e
n t
g e
Ġc l
l d
o g
i z
b er
c l
Ġ }
re f
Ġw e
Ġ U
e f
ul t
ac k
Ġth is
an s
ex t
' s
it e
T he
p er
Ġ y
ar d
Ġt r
ic h
at ed
ar y
c on
Ġc h
} \
i p
p ort
u nd
0 0
p h
20 1
} $
el l
or m
o v
ĠĠĠĠĠĠĠĠ ĠĠĠĠĠĠĠĠ
" >
Ġ K
a ct
^ {
u st
Ġs h
) ,
Ġn ot
ig n
ic al
ur n
a re
i a
. .
it ion
av e
Ġ le
in t
f f
ab le
ĠI n
Ġp l
i an
ĠĠĠĠ Ġ
or d
u g
on g
as t
Ġ âĢ
i re
o st
Ġ k
m a
f t
) .
ac e
an g
Ġre s
Ġcom p
e p
âĢ Ļ
f r
Ġ -
p ro
or k
en s
ou t
im e
I n
t o
as e
* *
Ġwh ich
ation s
ĠS t
Ġ V
c c
} }
( \
in d
Ġ if
en ce
id e
ic e
Ġh is
e ar
t a
Ġcl ass
s o
er v
i b
e c
Ġw he
st r
c al
20 0
eg in
t ext
Ġh ave
ion s
t urn
en c
i le
y pe
s p
il d
Ġ un
Ġ us
t her
c om
b egin
od e
o k
r a
d u
Ġc an
g et
Ġh as
er e
ub l
l i
e y
ĠC h
-- --
Ġ j
Ġ '
ou s
( )
Ġal l
Ġa r
or y
Ġa p
Ġ |
Ġa d
f orm
ou ld
is h
Ġ im
) $
= =
an ce
_ {\
ac h
at a
Ġa b
e qu
m er
j ect
Ġcon t
e v
o ver
1 8
en er
u se
ter n
Ġal so
ĠT h
} {
ro w
ent s
Ġw ere
ir st
f er
res s
} ,
ow n
ol l
ab el
o b
ou nd
ic t
r ight
un ction
Ġp art
fr ac
ri b
e q
er m
re e
1 0
ĠĠĠĠĠĠĠĠ ĠĠĠĠĠĠĠ
at es
ou nt
Ġn ew
cl ud
r it
ubl ic
Ġon e
Ġ +
ol d
a il
Ġs u
f ig
or s
al ue
Ġre turn
u al
t he
r y
am p
om e
w o
Ġd is
l l
er t
o se
ar k
r m
oc k
c ite
t e
he d
Ġb ut
el y
Ġ [
ĠU n
i el
Ġthe ir
Ġst r
w e
Ġs p
in al
Ġ //
on e
s et
ic s
r ap
Ġ ro
l abel
in k
i k
Ġo ut
ar am
Ġ Y
math b
Ġo b
Ġp r
Ġf irst
Ġit s
" ,
Ġe v
s s
ĠH e
Ġm e
iz e
- >
ĠI t
C on
ation al
iel d
Ġde f
n g
Ġ qu
s c
, \
p on
p s
Ġp er
ĉĉ ĉĉ
Ġm od
pe ct
Ġh ad
Ġs et
le ct
el f
Ġo ther
: :
Ġs c
o int
ul l
our ce
Ġ up
$ ,
f ter
E x
$ .
s h
o ol
Ġwh o
âĢ ĵ
S t
a w
Ġ| |
Ġw ill
Ġ </
Ġd o
at er
math cal
Ġt wo
Ġp re
y st
le ft
Ġm an
19 9
Ġa g
Ġin t
ing s
ar i
ic k
Ġo ver
Ġw ork
.. /
pt ion
pe c
l es
et h
p ut
r ay
i x
Ġf unction
et a
Ġpl ay
equ ation
} .
s um
c ent
Ġd es
Ġt e
is s
} )
Ġbe en
i ew
i ed
ak e
m b
Ġy ou
ĠâĢ ĵ
Ġt ime
c k
Ġthe y
Ġ @
ro up
Ġ en
l ine
Ġin ter
1 2
o ok
p r
n e
Ġm ore
d iv
ul ar
an c
ig h
Ġ .
Ġy ear
yst em
Ġ /
am b
ut ion
p os
} (
\ \
um ber
âĢ Ŀ
or n
le ment
rap h
Ġcom m
i e
op le
Ġ und
} _
a x
m l
Ġ ver
at ive
} ^
oll ow
enc es
~ \
Ġp ublic
( "
im es
Ġ her
Ġs ub
i o
as ed
r am
v el
c re
o ot
em ber
Ġn e
it ed
Ġp e
( );
m s
t y
Ġs o
Ġn ame
ph a
l and
if ic
o od
Ġre g
ic an
Ġwhe n
ug h
Ġin clud
er r
ad e
Ġs up
Ġb et
u ct
Ġon ly
1 6
ess age
o f
Ġwhe re
o y
ro und
' ,
d er
ou n
ar g
al pha
d a
Ġin to
le t
Ġre l
Ġthe re
Ġa cc
Ġres ult
tr ing
Ġtr ans
1 5
iv ers
ou g
w ard
an n
res ent
ĠTh is
Ġf ollow
Ġsu ch
ap p
---- ----
> </
Ġcon s
Ġf il
ĠC om
id ent
ol og
Ġ :
sp an
on t
Ġd if
Ġth an
i ent
1 7
al s
ar ch
s ub
Ġund er
Ġc ol
Ġin d
Ġab out
at or
at ing
it ies
o x
Ġan y
on s
Ġof f
Ġa ct
Ġfor m
ĠâĢ ľ
el ta
Ġpro v
Ġw ould
Ġg et
an ge
Ġf l
ur ing
19 8
Ġre c
is e
ov e
ĠS e
in ce
t ain
Ġp os
am es
) \
re d
Ġad d
ĠA r
Ġl oc
ĠN ew
ay s
we en
u es
Ġthe n
c ed
Ġas s
Ġk n
P ro
ĠW e
Ġd ist
Ġs ome
con d
Ġp ol
c ol
R ef
o id
Ġa fter
> <
** **
h at
Ġd ata
c he
Ġ* /
Ġg ener
amb da
Ġc o
re n
en g
t on
ot h
y s
at ic
ut e
ar s
) )
t t
Ġl ine
ist s
1 1
u ild
Ġ end
ire ct
ab l
_ _
or ld
it s
Ġpe ople
eth od
y n
Ġbet ween
Ġn o
il ity
m in
Ġin v
id th
ĠA mer
$ \
ĠA l
r al
ĠĠĠĠĠĠĠĠ Ġ
Ġmod el
u res
Ġv alue
in ed
Ġo p
am ma
Ġp h
../ ../
1 3
ĠP ro
em ent
ĉĉ ĉ
_ \
E R
ow er
== ==
id er
an k
f l
d ot
Ġs he
Ġbe c
Ġat t
is hed
al ly
ĠĠĠĠĠĠĠĠ ĠĠĠĠĠĠĠĠĠĠĠ
= \
Ġo ur
Ġus ed
Ġs im
Ġsh ow
1 4
mathb b
Ġs erv
Ġb l
b r
m u
w n
is ion
Ġst ud
il y
at ure
Ġt ype
as h
ib le
s on
Ġ\ \
ht ml
ch ool
v e
ro ugh
ig ma
Ġs pec
Ġf e
} _{
Ġ i
d ef
Ġre m
( '
a ir
Ġpro du
at ch
n ame
19 7
t s
Ġ use
Ref er
h o
Ġdif fer
i ous
th is
ri pt
re nt
} ^{
eg a
b ar
c ess
an y
Ġm ost
n ing
Ġh ref
ction s
- \
Ġm ay
2 5
al ign
Ġre qu
Ġ #
ic es
T h
p art
oc i
iz ed
Ġ est
Ġn umber
Ġcon st
Ġc all
Ġ ent
g an
Ġthe se
O N
Ġg r
p i
Ġe qu
N ame
I N
h ip
a id
Ġd et
Ġs ystem
b le
m an
Ġc ur
tr ans
in es
o h
ph i
ivers ity
Refer ences
^ {\
Ġc ase
Ġc or
us s
a use
Ġe ach
ut h
e e
i er
n ot
s ource
Ġg iv
Ġthe m
e ver
Ġ Q
l ation
T ype
pl ic
oug h
p aram
er y
as on
tern al
m essage
Ġ Z
Ġ {\
re at
Ġth rough
Ġ x
at t
b all
se ction
o ad
C om
ik e
S tring
r ic
in s
ĠF or
3 0
im port
d d
Ġin st
as k
Ġ ed
2 1
Ġp oint
b f
Ġe ff
Ġyear s
it em
l ambda
on d
I d
C h
Ġ el
y m
u c
it t
Ġa m
e ad
Ġch ar
al se
ag es
W e
19 6
is m
if e
Ġw ell
Ġc ent
Ġg o
m all
Ġc re
Ġb ack
v ent
mathb f
Ġo per
ap t
Ġag ain
Ġf ound
a z
Ġre p
n er
Ġs ign
a h
2 2
iz ation
Ġst ate
he n
re ad
or th
il on
Ġa c
v ar
Ġv al
Ġ= >
ĠS h
Ġh im
ĠT r
y le
R E
Ġg roup
ac he
ur y
amp le
ĠA s
: //
Ġs elf
u ch
ĠC on
Ġs ame
et er
ou th
S T
Ġv ari
over n
ĠC l
/ >
c es
t d
iv er
c ode
ad d
re turn
Ġe m
p ar
Ġex p
ment s
m od
Ġs er
um ent
f or
a j
g y
Ġap pro
00 0
ĠI nd
er n
s igma
ĠAmer ican
al e
Ġm in
Ġs ol
cl ass
it le
ou se
Ġth ree
5 0
w ay
le ction
ire d
b l
u ary
Ġb oth
a ult
ĠD e
ce ption
Ġm on
s erv
Ġf ield
u le
R es
v al
Ġh ow
ang le
t en
# #
ers on
ĠA n
Ġdiffer ent
A T
Ġpart ic
Ġ `
ion al
Ġb r
Ġs ur
" />
b eta
ĠUn iversity
o le
ical ly
C l
p le
ild e
Ġ( \
Ġse cond
ot e
Ġs ing
^{ -
Ġde c
ĠC ol
Ġf inal
Ġle ad
Ġn on
Ġh igh
ep s
} {\
Ġ !
math rm
Ġex t
t ype
Ġwh ile
Ġe ver
Ġd uring
Ġf am
Ġdes c
Ġar t
f ore
ar ray
. "
Ġbe ing
w ork
Ġus ing
b ack
Ġman y
Ġ _
. ,
A r
Ġd irect
ar ly
Ġfollow ing
ĠUn ited
y p
is ter
L ist
Ã ©
Ġl ink
v iew
2 4
Ġm at
um n
ir c
he re
b y
f ul
Ġst art
* }
ur al
ant s
A R
Ġor der
Ġt erm
Ġm ade
w idth
Ġl ong
at her
Ġper form
+ \
e k
es c
eng th
ot her
r on
iv ate
Ġ X
ce pt
) :
iv ed
ĠS c
19 4
g amma
et s
Ġt est
are d
ĠL e
ĠF r
Ġ err
b ers
ht t
I t
form ation
Ġgiv en
Ġr ight
] {
Ġs aid
Ġdis c
Ġv ar
p re
s y
ot t
T r
Ġm ethod
s elf
k e
el s
Ġre le
Ġm ed
olog y
as es
Ġf act
Ġ= =
g ram
if ied
m e
Ġl ike
^ \
Ġwh at
ro ss
Ġw rit
or g
f o
ist ory
Ġbe fore
Ġ >
fig ure
) }
ition s
trans lation
l oc
d elta
the ta
Ġj ust
2 3
Ġcons ider
vel op
Ġne ed
Ġn ull
enc y
cc ess
ul ation
ĠI s
Ġb el
L E
ro p
O R
Ġte am
s ion
Ġp aram
Ġde velop
r ho
l og
od y
ta u
al ity
t il
ĠE x
Ġ --
Ġl ist
us ic
ain s
Ġc ould
ak ing
s er
le q
oh n
in a
ĠĠĠĠĠĠĠĠĠĠĠĠĠĠĠĠ ĠĠĠĠĠĠĠĠĠĠĠĠĠĠĠĠ
per ty
c dot
Ġtr ue
Ġm ain
iss ion
Ġd r
ter s
o ber
Ġv oid
Ġsup port
se c
Ġp op
tr y
Ġn ow
Ġsh ould
iv ely
Ġbec ause
Ġm ov
T o
$ -
iv es
Ġm em
in clud
ent ial
Ġcont in
ic a
Ġr un
Ġ z
ĠE ng
Ġo wn
Ġf in
an e
3 2
ĠCom m
g er
ar n
}$ .
ar row
op t
om en
}$ ,
l ed
Ġs mall
ar ge
ĠĠĠĠ ĠĠ
ual ly
rib ut
b ig
ain ing
m ed
I D
ra w
S S
ar get
en n
eq ref
iv ing
Â ł
Ġ )
ĠS he
ĠSt ates
ch i
ot s
if y
u ff
c o
en se
ist r
qu ad
} (\
Ġim p
A L
Ġs ince
re am
Ġinclud ing
ro l
w w
t ing
Ġex per
Ġever y
ĠO n
p end
Ġf alse
"> <
Ġap pe
Ġrec ord
m p
a f
t imes
r r
Ġcon str
oot ball
pl ay
a ction
Ġb uild
Ġb ro
i ence
Ġeff ect
Ġor ig
Ġpro cess
i qu
E N
a u
F or
e le
O b
Ġkn own
con t
19 5
ch n
Ġfil m
i or
Ġf our
) );
ĠĠĠĠĠĠĠĠ ĠĠĠĠĠ
le y
Ġre ad
are nt
ect or
cent er
overn ment
n ew
part ial
ep end
O n
Ġse e
Ġst at
et work
ab ility
res pon
1 00
Ġcur rent
un e
av a
Ġob ject
ĠB r
Ġl ater
Ġg u
Ġver y
Ġim port
og raph
Ġagain st
Ġs chool
ar ri
-------- --------
Ġp res
p m
Ġlink s
re g
d ata
Ġo pt
Ġdo es
ĠP h
k ey
p or
sp ace
Ġd id
Ġm y
A s
le x
Ġm et
ft y
Ġrep resent
ĠB l
Ġel se
u ro
4 0
str ing
ri x
Ġh and
Ġcon d
ĠP r
Ġev en
l er
**** ****
n u
ĠH ow
Ġc r
Ġstr uct
f ace
U n
in fty
v alue
Ġc oun
al th
re qu
Ġp resent
om ega
Ġloc al
" .
ro ll
ac es
Ġf r
ĠP l
.. .
mb ol
c ur
b um
Ġm ake
Ġth ose
it al
2 7
Ġs l
| \
ĠA nd
tern ational
ount y
Ġresult s
Ġcomm un
Ġl ast
2 6
t ilde
Ex ternal
C ol
Ġch ild
Ġp ass
g r
ĠJ ohn
it ial
Ġap p
Ġin cre
Ġplay ers
ĠM ar
ow s
" );
ect ed
2 8
Ġf ind
Ġop en
D elta
Ġe lect
n ess
Ġto p
ur ch
os s
uth or
ĠO r
ord er
Ġres pon
Th is
ĠS p
ain ed
ĠM ay
g round
Ġw orld
l p
Ġb ased
D ata
v ious
20 19
V alue
id ed
re m
ir d
Ġchar act
Ġre ce
et y
in c
Ġdesc rib
ĠI f
v en
iv al
g or
Ġ id
ĠN ational
d is
Ġcall ed
ĠĠĠĠĠĠĠĠĠĠĠĠĠĠĠĠ ĠĠĠĠĠĠĠ
Ġpos s
Ġstr ing
Ġ u
3 3
Ġan al
ag n
Ġl aw
201 7
t est
b e
th s
ar m
d ay
Ġser ies
Ġob tain
Ġw ay
f ile
ver t
Ġ$ (
Ġpr ivate
port s
eq n
201 6
Ġm ult
ĠĠ Ċ
re en
Ġa v
' t
a i
Ġc he
201 8
ĠW orld
et ers
ĠR e
Ġdes ign
Ġse ver
Ġpro gram
f ield
col or
Ġest abl
com e
ang u
ag ue
al k
S E
in ess
2 9
Ġpro ble
Ġfam ily
" )
Ġk ey
Ġar g
Ġb ound
ĠY ork
Ġse ason
' )
um er
id es
t ime
Ġl ife
Ġ& &
d ate
201 5
ĠA d
r ist
Ġev ent
Ġl arge
Ġ ,
is ed
Ġy our
Ġg l
w here
o ard
Ġre f
Ġpol it
s q
Ġle ft
i am
sc ript
Ġp ar
\ ,
S et
ĠJ an
Ġme as
Ġe lement
Ġre fer
in ter
\ !
201 4
ĠC an
r t
B y
A C
Ġex pect
ol ution
o pe
Ġc are
6 4
ĠR es
i ans
A N
ore m
s k
aj or
ĠW ar
} [
Ġin formation
Ġl im
Ġ/ **
I T
i um
D E
he ad
s ize
ur ther
ol v
x i
com m
Ġob serv
p x
m ary
l ess
Ġ// /
Ġt em
ĠJ ul
P h
it ive
201 0
ĠA ust
Ġst atic
Ġhe ad
Ġv is
ĠC ent
( $
ro id
] ;
Ġgener al
us h
Ġal bum
Ġor gan
Ġre al
m et
un c
Ġb ook
ak es
Ġst and
s ide
Ġres pect
// //
Ġbec ame
id d
Ġt itle
ĠâĢ Ķ
le ar
} }\
)$ .
Ġc our
==== ====
f ess
ĠG r
rib ution
is on
at ely
Ġle vel
Ġp ower
Ex ception
Ġex pl
ĠB rit
le m
at s
Ġo cc
Ġp erson
ĠC ar
. âĢĿ
] ,
am ed
201 3
A n
d e
tr act
ĠA t
ĠA ll
Ġkn ow
Ġun til
it er
Ġan n
pos ition
201 2
ĠF e
Ġ ident
ĠN ov
re ak
E n
Ġm uch
A l
en e
ĠA ss
ag er
Ġs ize
in ation
Ġf ootball
n b
r ite
Ġm ark
ĠS chool
b s
he s
ro du
u ck
201 1
Ġsp ace
8 0
Ġwith in
ap e
I nd
ĠC ounty
ward s
Ġle t
ain t
Ob ject
cal e
ific ation
Ġm ust
Ġa round
ĠW h
eps ilon
s im
us iness
i od
as ter
ac y
Ġd own
t able
Ġoff ic
ĠG e
ition al
oc ument
t op
ri ption
Ġsing le
Ġm ass
Ġr ad
respon d
rr or
ri es
S e
ener gy
Ġc ap
6 0
o ff
ĠS outh
O m
ĠS tring
se arch
ĠThe y
Ġpl ace
Ġsever al
t ab
} ;
pl oy
Con t
M E
Ġ %
Ġn ear
Ġare a
c m
if t
g o
M od
Ġst ill
Ġm usic
av ing
ord ing
Ġorig inal
Ġde ath
loc ation
ill ion
$ $
T est
ord s
Ġal ong
} _{\
ug ust
Ġd ue
Ġs ong
ĠG erm
Ġ! =
am ent
a im
Ġb ir
Ġg overnment
H e
ĠHow ever
end ed
ĠO ct
S h
Ġval ues
C O
Ġhe lp
Ġex ample
Ġis s
om et
pt ember
C T
Om ega
at ors
3 5
it or
orm al
( ).
ict ion
ress ion
w h
ps i
du ct
l ink
Ġle g
per t
ens ion
nb sp
ist or
Ġd em
v ir
il ar
.. ..
ĠSt ate
am pl
Ġa ut
Ġw on
ĠF ig
Ġg ame
anc es
pos ed
i j
u ed
Ġpro ject
l im
ĠP ol
raph ics
ore d
om an
uro pe
Ġp ost
ut il
l oad
erv ice
m ber
on y
Ġsu ccess
f unction
9 0
20 20
se e
le ge
Ġre port
u ction
um an
ĠM arch
Ġas sum
Ġt ake
p p
Ġs um
R O
oc ial
b m
ĠM in
Ġn ext
r c
l ist
pr il
G et
c apt
() );
st it
our ces
end s
il it
ap er
sq rt
angu age
od es
Ġinter est
^ *
b ut
Ġhe re
200 9
eqn array
)$ ,
em pt
n o
text bf
Ġl arg
our n
ur ation
ĠJan uary
er o
ps ilon
il t
Ġb u
I m
Ġpartic ular
ĠA ugust
ĠM an
Ġc ount
Ġbe h
200 8
Ġto t
ĠU S
ĠP ar
Ġte chn
ĠSe ptember
Ġad v
b old
ĠĠĠĠ Ċ
K ey
Ġp at
ug g
ĠJ une
le g
b ox
Ġcor respond
7 5
Ġd i
Ġc al
a ff
l ish
g in
Ġab ove
ĠJul y
sub section
" :
4 5
Ġo ld
Ġwith out
Ġn etwork
ce mber
ĉĉĉĉ ĉ
Ġt ri
Ġ energy
Ġint eg
a us
Ġfor mer
ĠC al
Ġb est
g roup
ens ure
Ġg ood
ĠOct ober
op er
op y
ur s
Ġv iew
Ġpro t
Ġor g
Ġb as
Ġcharact er
Ġerr or
ob al
Ġe arly
Ġm ap
Ġp ubl
lect ed
Cl ass
re t
her n
re l
capt ion
s l
ĠR eg
ind ex
Ġmem bers
ib r
Ġw in
ĠF l
a e
Ġt yp
Ġest im
ĠB e
ĠY ou
G amma
w it
E rror
Ġ čĊ
htt p
ac ed
Ġd en
Ġall ow
p ed
ar r
p ace
Ġm ajor
ĠE urope
Ġin itial
l ing
v are
ĠG u
f in
R e
w ith
Ġan other
ur g
Ġd ay
Ġc ity
ĠN orth
L L
con om
ĠA pril
ĠCh rist
m y
Ġc rit
200 7
iv ity
Ġ$ {\
Ġch ang
ĠC ity
ĠI I
Ġpre vious
3 1
V iew
at ter
Ġinclud e
c er
] .
ure d
im al
gor ith
Ġw omen
ial ly
che s
[ '
P l
vare psilon
. _
Ġl and
Ġen g
Ġm ax
n av
Ġde pend
ert ain
p ublic
j s
I nt
sy mbol
oc us
str uct
Ġex ist
Ġf ile
" ;
Ġb and
amp ions
3 9
Ġd om
200 6
Ġa ff
le v
Ġcomp ut
ic le
ĠT e
Ġse ction
im ent
u k
Ġw ant
^{ (
ix ed
| -
T E
Ġl ook
Ġh ome
Ġs pe
ĠAust ral
un g
ĠNov ember
ĠDe cember
Ġs at
at ures
rib ute
Ġsh ort
p ath
3 6
at us
} =
N ot
Ġass oci
3 4
z e
Ġcl os
al es
Ġt ext
l in
ĠC o
ef f
Ġper iod
eg raphics
includ egraphics
}^ {\
Ġd el
ent ion
Ġt arget
"> </
\\ \\
Ġh old
Ġinv est
Ġver sion
ĠR ep
ĠW ill
plic ation
ma x
Ġsim ilar
ĠE d
f il
R equ
er ing
sum mary
3 8
w ays
I C
âĢ Ķ
A P
pert ies
em ph
r angle
Ġtot al
Ġrele ased
ver s
Ġs k
ic y
m at
Ġd iv
) =
ail able
ĠBrit ish
' );
3 7
n ode
n on
Ġplay ed
Ġc over
epend ent
ĠCan ad
Ġh ig
iqu e
ur l
Ġst yle
o or
er ed
Ġl og
ĠB ut
ĠE n
m ap
Ġc ar
Ġdef ined
Ġrequ est
ist ic
Ġserv ice
Ġcomp let
ĠThe re
. </
ide o
pl it
br uary
it her
id ual
d om
ĠP art
S c
um p
Ġcomp any
Ġass ert
Ġimport ant
Ġdet erm
Ġpos ition
Ġpoint s
ĠS up
Ġstud y
Ġre du
Ġproble m
' '
ra ft
ref ore
st and
h old
Ġh istory
Ġp ath
ail s
h am
ul es
Ġre t
ĠN o
âĢ ľ
Ġpro b
u x
Ġpro m
T ime
Ġint rodu
( ),
P E
20 00
in ition
A S
Ġm ember
se qu
W ith
ĠT o
ĠB y
ed er
Ġ enc
19 0
ight s
al f
ĠM ed
right arrow
' ]
Ġ\ ,
vir on
a ut
Ġf ew
m m
. ~\
Ġde v
Ġb usiness
Ġl ow
con st
I ON
yn am
var phi
th ough
i us
ys is
ograph y
B ig
Ġl a
x im
Ġa uthor
Ġd er
ack age
Ġf ull
Ġt urn
Ġs ay
D ef
Ġsh own
ĠK ing
b orn
Ġchild ren
M an
Ġcomp et
um e
9 9
Ġme an
s up
p ose
Ġin s
Ġch ange
row s
7 0
ay er
! --
ĠA b
oug ht
ad em
S ee
Ġd on
Ġterm s
Ġshow s
, âĢĿ
F ile
ater ial
ap an
bold symbol
ag ed
ate g
fr ak
i ev
w are
ust om
ens ity
Ġcom b
u f
Ġstr ong
ge q
c or
Ġ et
Ġbl ock
se mb
in o
O r
og le
Ġcont rol
pro of
Ġg reat
Ġth ink
Ġdisc uss
ĠM c
ĠFe bruary
a it
Ġ ide
Ġv ol
Ġa ction
Ġre st
Ġin put
ur b
os p
re w
em s
Ġt imes
o at
Ġwe ek
. }
Ġfollow s
b it
Ġposs ible
\! \!
ab les
p oint
ĠP res
200 5
im um
ĠA fter
Ġn ational
Ġmodel s
Ġdescrib ed
Ġcare er
A ll
Ġs ide
or ies
Ġp ot
Ġ/ >
6 5
=" ../../
Q u
Ġst ates
Ġed uc
Ġf ore
St ate
Ġl ess
olog ical
Ġreg ion
Ã ¡
Ġb ase
u ation
Ġch o
ĠH is
uff er
qu ot
ĠW est
ĠA fr
Ġto ok
g l
Ġhe ld
v es
Ġcoun try
ren ch
Ġqu ant
A dd
ener al
Ġs pect
ĠA rm
an a
o ole
ing ton
) (
Ġp ort
us er
L A
Ġj o
Ġto wn
row n
}, \
l ength
Ġc amp
Ġro le
Ġbe gan
Ġpop ulation
Ġw ar
err or
ud e
T ext
f rom
Ġprodu ct
ĠR uss
F ield
F il
Ġr ange
v ec
is ing
c il
D e
Ġde g
ĠA ct
ĠLe ague
g es
200 4
Ġpre d
T R
com p
Ġm en
Requ est
E qu
d t
=" +
and om
ail ed
Ġ ?
a ul
Ġs it
Ġrece ived
Ġk e
ampions hip
ard s
Ġs ource
F orm
ĠD r
/ *
c ast
math frak
A mer
st yle
Ġfil ms
E vent
es e
In fo
P ath
P aram
Ġn amed
ĠC or
Ġh tt
O ver
over line
ent ly
Ġa ver
B l
` `
ĠE l
oole an
ip le
[ \
htt ps
} ).
Ġpro fess
Ġn ode
L et
ou ble
if f
Ġf urther
ab ly
Ġgr ad
I S
Ġof ten
ut ure
ĠEng lish
ak en
st ate
Ġsign ific
c ul
& \
i ber
N ode
Ġph ot
in ary
le te
s w
Ġf ive
ign ed
Ġe as
Ġam ong
Ġav ailable
m ult
Ġcon f
ond on
is f
id ge
cent ury
or ph
st er
Ġe p
ic on
Ġche ck
' :
st ance
Ġth ird
Ġtr y
Ġh ouse
i i
nd er
viron ment
ĠO b
cl us
ilit ary
h line
c her
Ġcont ent
res ult
pro v
Ġre pl
ĠC oun
ĠA p
Ġpro perty
Ġcomp on
i ol
Ġcl aim
on es
Ġf ree
Ġspec ial
gorith m
Ġa ge
Ġf ac
Ġcon text
Ġbir ths
Ġestabl ished
A D
4 8
read y
Ġin div
n ow
Ġacc ess
ind ow
Ġstruct ure
Ġcomm on
op s
E lement
al t
ay out
) ^
M ap
Ġsup er
Ġs ix
id ence
op h
F F
i ents
i ef
al d
Ġdist ribution
ev el
Ġinv olv
ames pace
ann el
Ġph ys
Ġm atch
ic ient
Ġqu est
Ġcre ate
ww w
ec ut
Ġmeas ure
s f
/ **
ĠR ec
() )
Ġappe ar
ampl es
Ġpubl ished
Con text
A t
w id
ĠM e
d own
Ġfe ature
Ġre search
N ew
d raw
ĠB ar
um ents
re et
itt le
Ġre cent
u i
Ġ: =
ĠThe se
Ġus er
il le
Ġm illion
our s
Ġle ast
re ed
og n
Ġar ch
r ide
} }$
Ġrel ations
Ġtr ack
Ġp ri
Ġperform ance
A A
Ġ/ *
Ġcor re
Ġ( $
Con fig
ĠAr t
Ġ );
ib ility
Ġpr act
in put
Ġrequ ire
Ġd at
ĠCol lege
k s
ĠCom p
Ġloc ated
Ġind ic
ĠS er
Ġb reak
Ind ex
Amer ican
e ople
e ction
b ody
Ġbe come
ear ch
Ġbu ilt
Ġm ot
r ation
ym met
ess ion
ab or
con fig
6 6
ĠJ apan
n a
l angle
Ġar ray
Ġparam eters
ĠS ystem
Ġinclud ed
re st
pon ent
um b
et ic
ĠD ep
Ġf und
5 5
Ġse qu
ag ement
Ġsu ff
Ġcommun ity
ott om
I f
Ġre d
ĠCh ar
d f
ap i
Ġindiv idual
an ch
Ġc ou
tr a
Ġc ode
Ġc oll
Ġpot ential
ld ots
i et
ĠH ouse
app a
ĠL ondon
istr ict
ĠD av
Res ult
Ġar r
Ġin fl
Ġw ater
ĠĠĠĠĠĠĠĠĠĠĠĠĠĠĠĠ ĠĠĠĠĠĠĠĠĠĠĠ
Ġ( !
Ġan t
S ervice
ne ction
, "
Ġs y
ag s
200 3
Ġem ploy
M P
Ġappro xim
ensure math
ĠC he
Ġdef ault
Ar ray
U R
tr ue
F rom
Ġdevelop ment
Ġc ult
Ġim age
Ġcl ub
Ġcomp lex
Ġh uman
0 1
ĠA m
Ġinst ance
end ing
g ress
L ambda
Ġc irc
Ġg ames
as c
ac hed
arri ed
Ġvari ous
ĠG l
ĠO ne
Ġl ength
ut ions
Ġconsider ed
Ġatt ack
. \
## ##
oc r
Ġbuild ing
ĠS ch
Ġs ocial
Ġcent ury
ver sion
f ord
end er
Ġ} );
im ens
oci ety
ĠWill iam
I s
Ġa ir
Ġst ation
Ġc ost
v oid
ĠA ir
Ġev ents
c y
Ġtr ad
ĠP ark
Ġlim it
ĠThe n
es tern
Ġv ill
Ġpr im
ug ht
Ġcon n
Ġwrit ten
Tr ans
Ġdif f
Ġp ut
Ġf ocus
Ġl ight
c irc
Ġst ory
Ġcon fig
ĠA g
ĠW hen
4 4
Ġsignific ant
Ġ( )
F l
Ġh aving
Ġacc ount
w ord
Ġne ver
Ġ q
m ost
Ġal ign
Ġ} ,
Ġprov ide
Ġe conom
ĠH igh
20 21
ĠO ff
200 1
Ġserv ed
as ing
text it
Com m
Ġh ost
b or
Ġg raph
ĠS o
ĠM on
Ġs ent
ourn al
L O
sh ip
Ġse par
Ġadd ress
Ġfunction s
Ġc ell
l ang
cite p
Ġimp lement
Ġe ither
Ġm agn
Ġyou ng
er a
Ġtr aining
ĠS ec
ĠL ist
un ic
E D
itt ed
Ġback ground
ĠQ u
ĠA ng
Ġ Ð
ĠB ro
ĠC our
U T
Ġind ex
Ġc ases
Ġsat isf
s i
Ġhow ever
ĠâĢ ĺ
ĠIn ternational
k en
at ural
Ġpl an
Ġrespon se
Ġcre ated
r ing
ĠH er
k appa
ob ject
bl ock
Ph i
pl ate
ĠF rench
Ġ-- >
p en
9 5
m d
get her
t itle
am a
Ġl abel
Ġto gether
ĠP er
B uild
Ġparam eter
ex p
ar ning
abl ed
Ġhe alth
Ġk ill
ec ess
Ġcomp os
P r
ap ache
ĠPres ident
m ark
+ +
em ents
min istr
Ġp aper
A B
Ġg row
ĠH ar
200 2
' ;
0 5
Ġme ans
abl a
Ġwork s
Ġg en
Ġcomm and
I G
n own
Ġthe ory
fer ence
Ġappro ach
R ec
w ide
Ġver t
L oc
Ġn eg
Ġrequ ired
Ġcol or
y l
Ġse en
Ġp o
sub set
******** ********
A tt
Ġal ready
iv il
et urn
7 8
u it
y d
Ġpolit ical
S ize
Ġobtain ed
Ġl ower
ĠL et
n abla
E S
Ġs om
ir t
is c
chi ev
Ġd ocument
Ġann oun
" "
Ġsystem s
Ġb orn
ou d
Ġcon c
Ġr ate
C ode
ĠL a
Ġbet ter
[ ]
c all
Ġal ways
ugg est
Ġd est
Ġdist r
Ġstud ents
} ),
e ed
Ġc ross
Ġ __
M A
b t
Ġexpect ed
av es
c le
Ġc ame
if orn
Ð °
Ġac ross
C H
F r
n ext
Ġs ite
ĠW ith
Ġgroup s
E T
Ġgo ing
Ġadd ition
H and
ap s
Ġaver age
Ġp arent
Ġmat rix
Ġin ternational
} )$
O f
Ġplay er
g ed
Ġanal ysis
Ġab s
mb ox
Ġf ar
A nd
Ġbl ack
ly ing
iforn ia
def ine
Ġto o
ĠS w
\ %
M L
Ġsol ution
ot imes
ce ed
Ġfe atures
Ã ³
ĠPh il
ass ert
Ġh app
Ġm om
ĠAmer ica
ĠI r
ĠGerm an
h ib
Ġf ri
Ġcons ist
i ation
Ġt w
ĠD istrict
c it
al y
Ġt ask
Ġ` `
A d
\ |
Ð ¾
Ġwork ing
iv en
C C
Ġb i
idd le
ar ies
dot s
att le
Ġs em
yn c
oci ation
Ġm ight
Ġprov ided
qu e
esc ription
Ġcond itions
Ġd ays
Ġg e
Ġte lev
I I
in ing
art ment
il ities
Ġab le
Ġconst ant
U N
Ġh om
Ġhig her
Ġset t
p an
Ġh istor
8 8
Ġdistr ict
du c
Ġm er
cre ate
Ġp erm
Ġh ard
Ġp air
Ġs m
av y
ĠM ich
S er
ĉ Ċ
Ġd ensity
Ġl ik
M essage
4 9
o on
Ġstand ard
Ġbel iev
e h
it ect
Ġmethod s
it te
Ġcon v
ĠR ev
in n
or ge
p ly
Ġspec ies
ref er
Ġre view
use um
Ġserv ices
Ġb ody
pl ied
b ased
It em
c ap
u el
Ġn ov
ĠĠĠĠĠĠĠĠ ĠĠ
V al
ul a
Ġe ar
Ġstart ed
Ġind ust
Ġm aking
Ġl ed
Ġwhe ther
Ġout put
Ġd ied
c ell
Ġl oss
IN G
7 6
Ġbel ow
ot ed
Ġde p
Ġs uggest
In ter
Ġcond ition
Ġconstr uct
med i
ĠCal ifornia
che ck
Ġp ay
Ġt aken
Ġassoci ated
Ġtelev ision
U S
av el
ĠĠĠĠĠĠĠĠ ĠĠĠĠ
id ing
w ise
b ra
r ad
Ġa chiev
ord in
mod el
l s
ic o
f oot
ibr ary
Ġt re
Ġprodu ction
l t
~ ~
non umber
Ġw idth
Ġsur v
Ġme et
Ġcl ose
Ġc ertain
Ġh alf
o ch
Ġc aus
ian ce
//// ////
ĠS an
}} {
ish ing
Ġrespect ively
= '
Ġg ive
Ġoffic ial
O ut
Ġbe gin
ĠInd ian
Ġind ependent
j ava
A p
Ġs cal
Ġw ent
Ġj ava
g t
Ġcorrespond ing
ĠC r
Ġact iv
ust er
ir m
S igma
Ġl anguage
ĠRep ublic
Ġs on
ers hip
o op
="../../ ../../
ĠA c
def ault
Ġbe com
\ [
in fo
Ġf uture
ig ation
b urg
Ġt able
Ġr a
R eg
ĠCh ampionship
t es
S ystem
Ġm iss
cont ent
Ġv ia
ar a
Ġn orth
/ \
ĠEng land
Ã Ń
Ġg round
Ġf requ
y ear
ol ic
ic ro
7 7
ers ion
and roid
re c
Ġro und
ateg ory
Ġcom e
b ook
Mod el
Ð µ
L og
Ġv ideo
im ate
Ġpro perties
Ġth us
Ġb en
ew ork
Ġelement s
ĠC ont
ĠV al
B C
{ -
ĠG et
ire ction
a el
roll er
Ġcal cul
ly mp
199 9
Ġsc he
Ġl ate
U LL
Ġother s
Ġ es
and s
if ier
center ing
k nown
ĠCh urch
Ġpartic ip
Ġn ormal
Ġreg ular
wid et
Ġm aterial
b ase
m en
U p
g en
m ar
oy al
m it
Ġ ill
Col or
h ood
iz ing
val id
Ġeng ine
om b
li ent
ut es
st art
ĠE ast
wit ch
O T
pon se
Ġre ason
ĠD ef
le ctions
Ġequ ation
I R
Ġsub ject
Ġp ur
B ut
h and
Ġprodu ced
Ġv iol
ok e
ĠCour t
Ã ¼
Ġ Â
Ġn umer
Ġn um
Ġ= ==
is k
i res
ad es
ĠC up
Ġof fer
Ġval id
ĠD iv
Ġf ather
---------------- ----------------
Ġd one
Ġth ough
S P
ĠTh at
Ġl ines
ĠTr ans
Ġb order
land s
Ġe mb
and id
4 6
199 0
Ġbro ad
us ing
pt ions
T able
at ives
ĠN e
Ġp ast
Ġs rc
ch an
Ġr andom
O D
Ġpres ident
Ġb ig
pro t
widet ilde
tain er
ĠR iver
Ġatt empt
is es
I P
âĢ ¦
ac ing
pl ies
ip s
Ġde cl
ĉĉĉĉ ĉĉ
Ġon ce
Man ager
ok en
pr int
ĠF irst
ĠS im
Ġm essage
includ e
G roup
ill s
a ugh
Ġph ase
Ġexp ress
ĠB er
A ss
s mall
> &
Ġv ector
Ġ} ;
Ġst ep
Ġc y
ar ing
4 7
l ight
ĠS et
c ss
Ġn il
ĠI m
Ġre ally
Ġbeh av
Ġp ress
T D
F ig
Ġrel ated
Ġpos itive
Ġs old
ĠL aw
9 8
N A
Ġm ilitary
=" #
th m
bs ite
Ġa way
Ġc lear
ĠCoun cil
con text
ĠEurope an
c ount
tab ular
Ġmov ed
cc ording
n ey
y r
ĠPart y
o e
ĠInd ia
ĠSt ud
h a
Ġ Ã
Ġreturn ed
M S
Ġgl obal
ĠAustral ia
0 8
Ġs outh
ĠSe ction
pro p
9 6
Ġcontin u
Ġtem per
U ser
r up
Ġacc ording
18 8
ĠS en
Ġn ecess
pt y
Ġl iter
ul ations
stit ute
Ġpro of
ĠD em
ist ry
Ġrec ogn
ache s
A fter
eth ing
) {
ĠM od
itte e
Ġright s
Ġmed ia
ro y
Ġreport ed
Ġan g
Ġdeg ree
Ġf ig
ĠP al
ash ington
arg in
=" ../
Ġinfl u
Ġg ot
Ġpro posed
m ethod
ĠS ince
und er
} -
ĠG eneral
th ing
wh ich
Ġas k
Ġmark et
ch ange
n s
b uild
eder al
n et
E d
O S
d ev
Ġwh ose
ĠR ed
m on
ribut ed
Ġspec ific
C all
Ġinst ead
Ġcont ains
ĠCanad a
x y
a ign
) ]
ic les
ist ics
Ġd ynam
d oc
we b
Ġopt ions
in ated
Ġwork ed
S ub
Ġrespon s
ak er
ĠM ore
ĠL em
st atic
Ġvill age
go ogle
b ug
Ġst ar
ot a
Ġunder stand
f ill
T H
ĠI nt
s ing
Ġline ar
Ġeduc ation
Ġf em
ĠCent er
199 8
ĠP ort
ell ow
ens or
Ġcomp an
Ġr ather
id s
Com p
Ġt reat
Ġa ward
at al
Ġen vironment
\ ]
ag ing
en ed
Pro perty
at rix
ĠA ward
p ackage
s in
ro te
ĠP aul
b oard
at ory
b b
Ġun it
0 2
B ar
C E
Ġpop ular
Ġadd itional
ĠH am
4 2
Ġex ists
ver se
Ġc le
Ġl ittle
Ġcon tr
ell ing
ĠF il
Ġj ob
ĠDep artment
ĠM ark
Ġp age
Ġent ire
F A
Ġr ank
Ġmult i
Ġare as
semb ly
The re
re ate
ur ity
Ġpart y
Ġac cept
Ġl ive
20 22
Ġal gorithm
Ð ¸
ĠR ober
Ġcan not
p arent
d r
Ġadd ed
c os
H istory
. )
g s
Ġfield s
E nd
Ġe lection
Ġcol umn
\ {
li ke
ĠE m
p ol
p ing
N o
; &
Ġsuccess ful
ĠS m
Ġdef ine
0 6
( (
E E
c hed
Ġm ove
dis play
EN T
ul ated
0 4
Ġen ough
Ġh on
Ġannoun ced
Ġs ays
} +
at form
im age
n amespace
i ers
s cale
ĠS tr
ĠB el
ig en
Ġsim ple
ith ub
ĠE q
Ġ& =
ĠA nt
Ġre v
Ġk ind
om orph
I L
o o
z eta
ict ed
cur rent
ĠFr ance
Ġcon duct
Ġmom ent
d b
] (
us ed
ĠF rom
ĠM al
Ġb ool
ot es
ĠJ ames
un k
P eople
Ġw rite
ic ult
ĠCh ina
opt ion
it es
ĠM or
s pec
f alse
ĠM y
u z
ĠTh om
======== ========
ĠArm y
ĠDav id
Over ride
pr ime
Ġdevelop ed
le vel
ch o
Ġam ount
Ġcent er
Ġchang es
ĠD es
ast ic
ev ent
C ount
Ġev al
ic ense
ĠThe orem
qu are
Ġestabl ish
Ġmult iple
in it
Ġs cale
ag o
) =\
ĠH ol
ĠIn ter
Ġal most
199 6
ort hern
} ]
Res ponse
c ore
ber g
199 7
Ġquest ion
9 7
} =\
Ġne igh
Ġcour se
act ory
; </
Ġpri or
un ity
ĠCl ass
ra el
Ġlead ing
d et
enc ies
ĠP at
Ġke ep
Ġn atural
Ġpol icy
a ctions
Ġhtt p
G L
ef ore
W h
R ead
}_ \
198 0
plic it
Ġle arning
v ille
t em
ĠGe orge
, -
M ethod
| |
C lient
Ġc apt
L iving
un n
0 3
Ġocc ur
Ġth ings
ĠSt reet
ĠA dd
ĠR ich
act ive
Ġle arn
Ġapp oint
Ġm ale
led ge
0 7
{ (
Ġconstr uction
g ithub
m ore
Ġcon tract
Ġpr inc
ĠAss ociation
he ight
Ġdis play
ĠW ashington
Ġrele ase
Ġf all
il es
o res
5 8
v an
sk ip
Ġc ut
N S
Ġlarg er
ens ive
y a
P I
) }\
Ġd ate
ĠG roup
Ġse arch
Ġz ero
Ġw rote
Ġinclud es
imens ional
Ġfin ite
\\\\ \\\\
ach ing
ĠD o
m ing
ĠĠĠĠĠĠĠĠĠĠĠĠĠĠĠĠ ĠĠĠĠĠĠĠĠĠĠĠĠĠĠĠ
Ġa ud
ip al
Ġcomp lete
g ing
Ġsom ething
as ons
ĠD on
ag on
itt ing
O P
Ġst d
ed d
5 6
it ar
id a
Ġsur face
Ġfact or
Ġcent ral
ĠQ ue
out hern
Ġoper ator
Ġr at
h an
Ġreg ard
ct or
app ing
Ġex act
el ine
Qu ery
Ġdirect or
P ol
if orm
5 00
Ġperform ed
ĠR oman
ri an
ĠG o
Ġep is
und le
p df
Ġs ymmet
Ġs w
G e
Ġc andid
Ġt ax
rit er
ribut ions
ari o
.... ....
ma il
}^ \
Im age
Ġl ost
ar ily
Ġdist ance
h as
en ame
ĠG od
Ġdeath s
a ur
r ated
ĠT est
ĠUn ion
Ġsequ ence
Ġstat us
n ull
k y
Ġch all
wo od
B e
ber t
al ax
Ġj ud
ol s
ĠO lymp
Ġexper iment
S tr
iz es
il i
Ġarch itect
Ġobserv ed
ri ate
b and
text width
O ff
o z
0 9
$ )
r un
e in
D ate
Ġde al
Build er
r um
Ġper cent
lem ma
Ġup on
ri a
Ġt aking
ĠM r
Ġ ir
ĠH all
f unc
k a
Ġand roid
Ġequ ival
Ġf ixed
199 5
Ġm id
anc ed
p age
Ġex ecut
ĠR ef
Ġoff ice
ĠN ot
c ase
Ġrelations hip
Ġp ers
Ġm ag
Ġcour t
) ^{
Ġso ft
ĠS um
Ġst op
Ġc ustom
and er
c up
Ġv ict
Ġtrans form
Ġits elf
p ite
Ġro ad
> (
Ġcont ain
e al
d l
Ġfor ce
Ġth row
Ġm akes
ĠBl ack
R A
Ġs ound
Ġth ought
o om
Ġmon ths
4 1
p c
Ġcompan ies
Ġf ail
Ġh or
; \
ge bra
l or
Ġch urch
Ġim prov
Ġt en
Ġad ministr
ac ity
S up
Ġrem ov
Ġst age
Ġpr int
he l
Ġcount ries
Ġ\ {
Ġjo ined
ab ase
Ġiss ue
Ġd ouble
c ing
math sf
Ġset s
it ude
x space
al le
E X
ĠIn stitute
< !--
Ġiss ues
ra z
an el
j o
Ã ¶
iz er
ul ly
Ġdisc over
ĠGerm any
et t
Ex p
ic ol
ph p
Ġsh all
] [
an ish
00 00
ĠĠĠĠĠĠĠĠĠĠĠĠĠĠĠĠ Ġ
Ġact ive
6 8
4 3
is ions
Ġcou pl
Ġbas is
St ream
Ġap plic
ail way
Ġintrodu ced
k i
cre t
or age
ĠJ er
ree k
Ġtyp es
Ġhe ight
s m
In put
p ng
ĠC ong
Ġdiff icult
d ir
ĠU K
ĠL ou
ĠD i
Ġfr ont
ĠN ULL
ĠFr anc
U E
qu ery
Ġpolit ic
in st
Ġin str
m id
Ġeff ort
d o
Ġprov ides
C he
ari ant
Ġpro p
cdot s
5 7
Ġwe bsite
ap ter
Ġinst all
Ġclos ed
c an
ain ts
ic ation
) </
Ġnov el
Ġloc ation
Ġexper ience
q quad
Ġthe refore
ĠM ary
l ong
U til
} |
Ġde but
Ġequ al
Ġl ot
Ð ½
am ily
Ġf av
Ġfl ow
t x
199 4
197 0
d en
Ġproble ms
ĠComp any
rup t
Ġcol lection
ĠAr ch
Ġtrans fer
Ġpresent ed
Ñ Ĥ
u ate
Ġrel ig
ser ver
Ġincre ase
opt ions
Ġwh ite
O ne
h ost
Ġed ge
ĠĠĠĠĠĠĠĠ ĠĠĠĠĠĠ
pec ially
ĠM art
anc ial
ĠD irect
Ġw ords
oot h
P si
not e
an i
ĠJ ew
Ġeffect s
inal ly
Ġprob ability
199 2
Ġt alk
r is
}} (
c el
Ġm arried
ĠR oyal
Ġcamp aign
Ġcurrent ly
ĠDiv ision
Ġprofess ional
Ġnot e
Ġcontin ued
Ġvis it
E C
Ġass ist
}) \
un t
. ~
Ġcomp ar
Ġal though
Ġwe ight
enc ed
ial og
S C
Ġst re
but ton
Ġs ample
ict ure
st ream
S ource
6 7
Ġinvolv ed
at ively
Ġm other
j av
St atus
Ġmod ern
Ġhim self
Ġgiv es
Ġmat ter
Ġqu al
Ġ< <
ac her
A G
b ound
Ġpart s
Ġ- >
Ġto day
ou l
ĠFig ure
Ġlarg est
ch ild
Ġgo al
e es
Ġde part
al ian
] )
Ġl iving
{ {\
cl ient
requ est
Ġs af
ĠRober t
G r
Ġrad io
u a
ar ter
Ġstud ies
Ġb g
Ġcompon ent
ĠS ociety
Ġin c
in i
Ġb ox
ĠIs rael
ab s
9 3
ĠP ress
5 1
e lement
Ġoper ation
Ġf ram
fl ow
A ct
gr ad
ĠV ir
ap pro
}\ ,
ON T
I M
arg s
Ġpre c
sh ire
ĠG reen
y les
Ġme chan
Ġre str
H ead
i os
Ġdirect ly
r d
Ġcontin ue
Ġ& \
Ġl oad
Y PE
ĠC ons
Ġdef inition
ĠM usic
m ain
Ġacc ur
ĠWh ile
ic ial
ĠS l
Ġimp act
In stance
H ow
L ine
ĠT V
F irst
Ġap plication
Ġcomplet ed
on str
Ġdat as
P os
ec k
ĠP e
v is
z er
li ament
idd en
Ġopen ed
app end
Ġear li
ines e
Ġd irection
pl ace
S pec
Ġse lected
Ġhold s
ĠAc adem
Ġro ck
Ġanal y
Ġin j
Ġw ife
u ated
fin ished
Ġconst it
O L
ĠT ex
Ġassum e
el t
ĠD uring
Ġs ex
Ġeffect ive
equ iv
Ġb ank
Ġsong s
ĠM ex
Ġdef e
Ġag re
om s
n es
Ġd im
a res
Ġallow ed
D is
199 3
Ġb oard
Ġquant um
Ġp ain
& =
Ġben ef
ĠAfr ica
evel op
^ +
( {
add ing
Ġun ique
s u
f irst
Ġthrough out
B ase
W hen
ri ef
ot o
C D
l ib
re y
Ġl ove
Ġd raw
Ġbro ther
Ġdec ision
b a
Ġfe el
ĠDem ocr
Ġd augh
Ġmon ey
u id
ĠJ ust
Ġt akes
Ġcomp ared
se lect
i ences
el ves
f e
ant ic
ĠJ ack
Ġf ire
on ic
T oken
iz ations
Ġout side
Ġim m
ĠG L
Ġinst it
O per
ĠAfr ican
Ġst ri
ed ge
Ġac qu
od ing
Ġy et
ĠU p
ĠChrist ian
ĠB ay
Ġwho le
P art
ĠĠĠĠĠĠĠĠ Ċ
Ġsp in
5 9
}^{ (
est ival
Ġes pecially
Ġrefer ence
Ġlik ely
Ġwrit ing
b ottom
ribut es
ĠM ount
Ġb oolean
Ġsupport ed
ĠS ing
Ñ Ģ
st on
ĠAustral ian
Ġperson al
Ġg as
AT E
Ġbg color
V ert
p ass
st ant
ang ed
col umn
il ton
Ġt ro
a ud
ĠC ath
oc ol
ĠLem ma
Ġin it
ĠTh us
Ġschool s
Ġgener ated
ad a
d s
Ġev idence
Ġun c
il ies
he t
t arget
Ġdet ails
Ġsign ed
se y
ain e
Ġw ord
Ġus es
Ġse cur
wide hat
Ġ$ (\
st ar
ĠM et
ous ly
op en
Ġr ace
ĠS ome
Equ al
Ġit em
Ġprot ected
Bl ock
pect ed
Ġc ivil
[ "
Ġteam s
7 4
Ġact ually
} :
Ġc opy
ĠMin ister
ĠV ol
N ull
ch ar
ĠAng el
Ġc ast
b our
ate gy
ind ent
s plit
Ġres ource
S p
Ġneed ed
y ing
Ġim ages
p ost
Ġfollow ed
9 2
Ġ row
Ġobject s
ĠPro v
Ġtemper ature
ĠN or
Ġro t
d at
ĠC ap
G ener
ĠH en
mod ule
Ġ ess
ad o
Ġbook s
ĠM iss
Ġindust ry
199 1
Ġn ight
pre t
Ġ+ =
5 4
Ġco ordin
Ġcon ver
Ġb it
A ction
5 2
head er
erv e
Ġf a
O M
Ġoper ations
Ġpol ice
H T
am s
is ation
ĠI N
eg er
ĠF ound
ĠR oad
Ġinvest ig
Ġdem onstr
h i
F I
ot ype
Ġdesign ed
ĠS ub
Ġv oc
ens us
Ġm ention
Hand ler
osp ital
l a
Ġincre asing
) -
id ents
Ġbound ary
un ch
N av
Ġform ed
ĠB ook
Ġex cept
Ġrun ning
ĠT ur
Ġcorre ct
Ġc red
Ġ" ""
9 4
Ġo ption
ĠWh ite
Ġdirect ed
Ġst ars
av en
Ġwh y
Ġmax imum
Ġs ens
I V
}\ \
Ġnum bers
d ist
Ġus ually
ann ing
S U
Ġset ting
ver y
ĠM useum
en a
Ġrecord ed
air s
pro perty
Ġr ule
clus ion
ĠM at
Ch ar
ĠCl ub
he st
Ġan im
ĠIs land
ĠRuss ian
ask et
Ġg alax
un finished
Com ponent
d ec
el oc
r l
or ing
w in
ĠL eg
re me
S ince
Ġg ave
ĠE ar
Ġplay ing
t ings
irt ual
Ġim medi
ag ram
i as
Ġe ight
Ġs ense
Ġide a
O ptions
Ġh y
Ġopt im
E ng
A M
ars er
str ong
] $
cit et
Ġphys ical
H E
Ġad j
B ack
Ġrepresent ation
Ġfor ces
Ġst ream
Ġin ternal
Ġg overn
ĠW ork
os en
Ġap plied
ĠTex as
n ect
ĠCanad ian
196 0
Ġprim ary
Ġpat tern
ĠG reat
5 3
Ġacc om
ĠD is
ĠSc ience
on a
Ġc it
ĠW il
Ġappe ared
p ress
Ġver s
Ġn om
ur rent
Ġconc ern
sc r
M em
P RO
Ġch annel
is l
Ġex hib
Ġnew s
duc ation
ĠS ervice
Ġdiffer ence
ed y
Ġs us
loc al
Ġd am
ĠMich ael
Ġpro te
Ġh ous
Ġcharact ers
al a
ĠS pec
i pl
Ġse lect
ro s
} /
Ġn uc
Ġb ar
ach ine
ĠD ay
ark s
C o
h space
un s
ĠThom as
ĠT own
ĠY ear
umn i
L e
all s
7 9
ir it
Ġup per
Ġs ources
Att ribute
f ind
A b
Ġsh ip
L T
Ġneed s
ind ows
ĠA lex
B ox
Ġtrans ition
Ġbeh ind
ĠRes earch
Ġto ld
Cont ent
ĠB est
w rite
Ġfri end
ĠP ublic
ing u
g ent
Ġk m
s g
L abel
ĠCent ral
Ġre ve
Ġin f
Ġsc en
ĠM ac
P re
R ep
St art
Ġcl ient
ri al
' $
Ġbecom es
umer ate
ĠG old
ĠComm ission
ĠW estern
& &
Ġnecess ary
198 9
} +\
ip p
re ater
ĠHe alth
Ġf ight
ĠH istory
th at
Ġt ell
ĠS am
Ġlong er
Ġsub sequ
ĠVir gin
Ġm ar
o ice
Ġsecur ity
Ġn ames
P oint
Ġs eg
Ġto ur
omet imes
in ct
Ġit er
ĠB ill
Ġto wards
Ġor d
n ce
an o
Ġall ows
Ġcompon ents
ic i
ro ad
empt y
ed ia
ict or
ĠOb ject
Ġe mer
ad ata
on ly
Ġun its
Ġmon th
ub e
Ġd ig
ĠM ag
C ell
ĠO ut
Ġde ep
Ġelect ed
w ell
* /
B A
ĠKing dom
ĠM ad
ĠO ther
Ġden ote
en ing
P er
Ġsol utions
Ġrem ains
n eq
Ġj ournal
ĠSc ott
m ember
str act
j son
Ġleg al
ol ve
Ġrel ative
Ġcap ital
mer c
im ents
Ġal tern
ans ion
ify ing
f inal
ĠM us
8 6
ĠK ore
S I
Ġmain tain
ang er
P C
Ġt ree
Ġm ode
Ñ ģ
Ġbehav ior
Ġsc ient
Ġchang ed
Ġbir th
Ġs il
Ġsmall er
Ġd rop
Ġfound ed
ĠM er
Ġprevious ly
N N
Ġf ood
F unction
Ã ¤
B uffer
7 2
( {\
Ġprov e
" ).
N umber
Ġart icle
Def ault
n ormal
ob j
vent ion
ĠR ad
Ġy ield
ĠS y
Ġequ ations
Ġcrit ical
H el
( -
Ġpract ice
x ml
Ġop port
ĠNew s
ĠCh inese
at ur
Ġf ace
f ont
198 8
Ġs aw
Ġsim ply
Ġcon cept
ĠR eturn
ĠCar ol
Ġtrans port
ug in
ay ers
ĠAcadem y
Ġ ...
n ov
Pro v
ĠM ont
ĠH istor
l ayout
" ]
Ġrel ation
pro ject
Ġspec ified
R un
}} {\
g ener
Ġcon nection
ĠS al
Ġeconom ic
al let
Ġext ends
ock et
Ġm argin
} -\
st atus
p y
Ġtrans l
u ge
L ink
| ^
Ġ{ @
V ersion
Ġaut om
9 1
Ġexp ression
l n
F e
Ġdom ain
az ine
Ġst aff
Ġkill ed
Ð¾ Ð
pt r
Ġapp ly
Ġcom es
Ġpl aces
ĠT om
ĠLou is
Ġappoint ed
$ {
Ġelect ron
6 2
Ġexp and
RE F
T ask
Ġmod ule
om ial
Ġse ven
por ary
er rit
b on
Ġvari ables
F actory
Ġfor ward
ĠN ote
Ġob j
us ion
] \
Ġbr ing
w est
LA SS
p ack
ĠComm ittee
Ġknow ledge
ĠN one
s rc
ĠGr and
Ġad m
198 7
Ġsh are
ĠB en
ĠJapan ese
e an
Ġv eloc
en umerate
Ġ- \
Comm and
Ġad apt
Ġform at
on om
Ġt im
Ġch arg
ect ors
ob ile
Ġup date
ĠS ur
Ġsign al
Ġsc ience
ĉĉĉĉ ĉĉĉĉ
S im
Ġman agement
ĠR em
f it
le ase
8 5
n um
O C
l ock
ĠCong ress
Ġs en
Ġdaugh ter
Ġm us
n ers
ol ar
t ex
ĠChar les
Ġstud ied
v ed
Ġarg ument
Ġav oid
Ġd ram
for ce
nav bar
Ġspe ed
ĠG ames
ri ev
d imensional
r ule
back ground
Ġlim ited
re land
Ġn ature
ag ger
p at
ĠA ccording
Ġim plies
ist an
ĠL at
P S
Ġalbum s
the orem
L oad
E nt
Ġ( "
Ġe ast
P i
Ġth rows
ĠFr ank
ĠD an
ĠF ore
\ ,\
oper at
F T
Ġsc reen
Ġcom ment
val ues
asket ball
l en
item ize
D B
Ġtr avel
d i
L S
uf act
Ġpass ed
Ġcho ice
m es
if act
) }{
Ġdid n
it z
Ġwrit er
" ),
alle l
A pp
it a
Ġst ated
Ġw est
Ġon line
comm and
Che ck
Ġd ed
Ġl o
Res ource
Ġf ra
Ġh it
6 3
Ġpred ict
Ġdesc ription
Ġro b
ele br
ent al
operat orn
str uction
Ġbegin ning
m eta
Ġpro ced
a o
Ġcult ure
Ġqu ality
pro cess
Ġm ix
ig r
{ }
Ġsol id
Ġ ]
Ġc atch
Ġcon clud
is her
Ġf ailed
end if
ent ry
F C
ĠFranc is
B r
Ġev olution
Ġconn ected
as tern
ms elves
at re
operatorn ame
Ġvari able
Ġaut o
M et
Ġn av
ĠCath olic
yp es
Ġfam ilies
ate gor
Ġfin ancial
ĠG overnment
Ġearli er
ĠT or
p ush
E m
8 9
N D
Ġ er
Ġtechn ology
Ġs ure
Ġcon sum
Ġ( (
p o
D et
ig ger
ĠJ ose
n umber
Ġread ing
Ġsy mbol
ult ure
omet ry
ĠThe refore
Ġlevel s
}} _
ele te
k r
Ġclass es
bt n
Ġco eff
Ġgrow th
Ġdoes n
ir l
$ }
Ġl ack
ĠT able
Ġthe mselves
} );
Ġrepl aced
y e
Ġfil ter
ĠB oard
ĠFl or
uss ian
l am
ĠW hat
v ant
ĠSm ith
Ġdeterm ined
u an
ĠTe chn
tr ack
Ġgener ally
l ast
Ġstruct ures
ĠZ eal
math scr
et her
pr ivate
198 6
Ġrepresent ed
Ġrem ain
du ction
Tr ue
Ġant i
row ser
Ġrecent ly
cl ose
// /
merc ial
D esc
Y ou
Ġstre ng
ic ago
ĠIt alian
d escription
Ġmem ory
no indent
Ġmov ement
Ġde cre
ĠRich ard
th let
ĠE v
Ġcont act
Ġn one
Ġs ports
l o
S he
Ex t
ĠRec ords
Ġill ust
P age
ĠZeal and
Ġa x
irc raft
Ġocc up
Ġr ules
act er
Ġpe ak
7 3
Ġl at
ur a
Ġdo ing
st ack
Ġent ry
g reg
Ġh ours
Ġ( -
Ġreg ions
Ġreg ister
Ġwe ak
Ġart ists
M M
Ġgu itar
Ġchar ge
Ġm ount
ĠR ob
198 4
V ER
Ġw indow
Ġv eh
res h
Ġw id
S ec
Ġf it
Ġcol lect
Ġbel ong
ĠP eter
v space
Ġstart ing
Ġevent ually
or ial
6 1
b in
Ġmagn etic
g ence
Ġw alk
Ġbro ught
ĠD el
ĠSe cond
in ner
Ġtr ain
Ġmean ing
ot al
Ar g
Ġorgan ization
Ġc ause
Ġst e
) }$
c s
Ġle ague
form at
Ġqu ick
Ġgr ant
R eturn
im g
ĠM ass
Ġp ick
Ġal gebra
Ġproduct s
Ġfr ame
Ġne ut
Ġb ur
Ġth ing
Ġfin ished
icol umn
ĠM em
we ight
Ġstat ement
ĠD ata
Ġfem ale
198 5
Ġw oman
ec ause
ĠL os
l anguage
7 1
Ġhtt ps
mult icolumn
ot ion
ĠRuss ia
Ġs ch
Ġin side
ĠĠĠĠĠĠĠĠ ĠĠĠĠĊ
Ġstud ent
Ġparticular ly
Equ als
Ġim pro
Ġc a
ann ed
N ote
Ġprogram s
i h
Ġre con
F ONT
Ġb re
Ġad opt
op l
3 00
ar p
\ }$
ol f
ollow ing
set s
it ch
Ġre ached
E L
Ġan sw
b an
Ġtr ade
m as
Ġequival ent
b o
ĠT ime
Ġbuild ings
= #
ĠP ri
fil ter
Ġdec ided
ĠH ill
. $
Ġ ~
ĠPar is
m em
Ġfor ms
ĠSec ret
con tainer
Ġb ad
ĠTr ump
ĠO pen
Ġa im
ĠB ank
Ġf ill
Ġinter view
ie ce
' re
Ġorig in
erm an
k m
Ġincre ased
D r
iver se
il er
ot ic
evelop ment
asc ript
al ed
Ġso on
Ġestim ate
Ġlead er
Ġmiss ing
ex ample
Ġcoun ter
Ġth reat
g n
Ġmed ical
Ġb all
C reate
Ġresult ing
z a
ĠO per
Ġhig hest
om a
ĠSup er
C an
Ġexist ing
A ut
fl ict
Ġl atter
b uf
c r
6 9
reed om
Ch ild
ĠP ost
so ft
We b
Ġco ach
ĠF in
__ __
stit ution
ref ix
e ch
appro x
ind ing
ĠO ur
P R
Ġse em
Ġlist ed
anc y
out put
Ġrun s
a a
g le
P ar
the n
ry pt
en ge
ĠAn n
Ġrec over
Form at
respon se
oy s
un it
C A
S D
Ġdest roy
Ġpro gress
Ġepis ode
Ġpres ence
St yle
ĠC amp
B U
Ġconn ect
ĠS k
Ġr isk
Ġfig ure
Ġmov ie
T em
st d
ĠW omen
Ġt it
ĠR ock
Ġappe ars
Ġover all
Ġch art
Ġspect rum
Ġh ot
ill a
Ġd oc
m t
ĠF orm
Ġcol lege
Ġse lection
W ork
ar ian
sc he
Ġpl ant
The n
n orm
L ast
Ġart ist
re al
N O
ĠFor ce
Ġoriginal ly
Ġatt ention
Ġvol ume
AB LE
or al
Ġbeliev e
ir ing
so le
S ON
Ġrat io
Ġpl atform
or a
ic ated
Ġf ederal
ĠVirgin ia
ant a
Ġd ark
N ext
up date
serv ice
IN T
{ $
ĠFound ation
R em
Ġser ver
19 50
Ġagre ement
ĠI reland
Ġ _{
ĠSum mer
ter m
ur t
ĠC O
Ġf ont
Ġpl aced
cre te
Ġcrit ic
b ul
Ġsc ore
Ġneg ative
F L
Ġinter face
U s
g raph
erv ed
ig an
198 3
Ġf ully
ol k
Ġreturn s
Ġext ended
Ġex plicit
Ġneigh bor
Ġn odes
= {
Ġa uth
h ing
Ġg old
Ġclass ical
Ġ esc
Ġw ide
ul ate
ĠGe org
men u
ĠI D
line ar
Ġre pe
Ġdim ension
Ġask ed
Ġfinal ly
Ġconfig uration
ĠN ow
Ġp ack
od er
Ġ< !--
Ġqu ite
Ġp urch
Ġnot ed
ĠSe e
j ection
Ġal umni
ef t
Ġc op
Ġsoft ware
Ġapproxim ately
Ġpro per
Cont roller
( &
Ġactiv ities
Ġsp ent
M ar
w ar
Ġres ources
ĠSp anish
Ġst ations
ĠOr der
Ġsuff icient
Ġr ap
tt p
d ep
b reak
ell a
~ $
Ġpre m
ĠM el
Ġdis e
ic ate
hed ul
Ġchall eng
Ġfootball ers
T P
ov iet
Ġm ur
Ġmin or
at tr
Ġmajor ity
Ġfour th
T op
t ag
ĠP enn
Ġdescrib e
Ġe arn
ĠO f
Ġm unic
U I
S che
Ġother wise
Fil ter
198 2
ĠL ake
ĠCh icago
ail y
Ġtreat ment
Ġtrad itional
Ġhe art
Ġ ensure
Ġl ayer
Ġp en
ĠG a
Ġsh ape
d ated
re a
res ents
min us
Ġac adem
T hat
ĠĠĠ Ċ
Ġwant ed
8 4
Ġun iform
ĠPro fess
Ġqu ery
it ing
ol id
Ġro om
ĠH ere
r ate
Ġan c
M in
G B
ĠP re
Ġfram ework
in em
B undle
c d
ĠOlymp ics
Ġm iddle
Ġpre vent
ang es
ĠT imes
ĠIn c
Ġl ives
ess ages
Ġ url
ĠC E
) +
ĠO F
ĠF ootball
ĠU nder
m ission
Ġ ;
Ġro ot
ĠD u
Ġs ort
ĠB rown
rel ated
ĠFil m
ick et
Ġv ac
P P
fil es
pon ents
text tt
Ġredu ced
ĠB ur
Ġs ometimes
ĠAt l
ĠAngel es
S A
ri p
f ect
rib e
ec ution
ish op
Ġfore ign
ĠO ver
Ġdev ice
ĠAl though
ĠFlor ida
in v
Ġgr and
f ort
h r
Ġact ual
ĠHen ry
Ġfrequ ency
n el
ER T
et te
Ġveloc ity
C L
Ġrem ained
ĠAr ts
olv ed
ĠE ducation
jav ascript
g u
Ġfil es
Ġc elebr
ĠV ictor
ĠD et
4 00
sc ope
r ics
S o
param s
Ġs n
N ow
erv ices
Ġin cor
Ġm ind
Ġhe l
\ "
ud d
Ġprob ably
Ġ\ |
not her
ĠSer ies
Ġident ity
c i
el se
ĠDirect or
ĠI ll
197 9
ĠĠĠĠĠĠĠĠĠĠĠĠĠĠĠĠ ĠĠĠĠĠĠĠĠĠĠĠĠĠĠĠĠĠĠĠ
Ġcons ists
yn ch
Ġe igen
} '
ri z
re es
ĠL and
Ġrequ ires
bl ack
ĠD en
au ge
Ġed itor
sh ow
Ġvari ety
ĠT ype
it able
Ġw ave
ĠA tt
8 7
sy ch
ym pt
. /
Ġsit uation
fl oat
Ġin sp
Ġcom ing
Ġse ems
Ġs ociety
ou ri
Ġmeet ing
Ġrem aining
But ton
and a
Ġinter pret
Ġmin imum
P ost
ĠR el
ĠMex ico
is ms
cl os
cl es
ell ig
iss ions
Ġb o
Ġcon sequ
ĠC D
id ers
w rit
ĠHam ilton
ĠT wo
R el
Ġto urn
% %
he et
M ax
198 1
M en
Ġappro p
Ġpr ison
Ġmet ric
Ġ ign
ĠP o
Ġse cret
in os
ĠH el
Ġman ufact
Ġch osen
Ġv an
Val id
et ime
Ġn orm
raz il
ore t
Ġtr a
Ġre li
List ener
Ġte acher
yn omial
Ġcaus ed
B S
Ġh um
Ġsche me
< ?
T O
v ision
ĠIr an
Ġun ion
az z
ĠH REF
Ġestim ated
L ength
Out put
ĠI S
Ġmot ion
Ġnear ly
Ġman ager
M on
W hat
f g
Ġinflu ence
ĠSc ot
refer ence
ĠV er
Ġcompet ition
Ġinterest ing
Ġst ore
N et
Ġprodu ce
Add ress
tr m
iqu es
Ġun s
Ġst ay
ing er
Ġche m
ev en
Ġc ategory
Ġext ension
Ġp anel
ĠC LASS
oun ter
Ġaward ed
Ġhigh ly
Ġdeterm ine
{ {
k in
erv ation
ĠAs sembly
Ġrem ove
ĠIt s
Ã³ n
Ġus ers
ann ot
tex trm
d epend
Ġse ek
Ġa ircraft
ĠM ost
ĠSt ar
Ġno ise
ib ly
8 2
`` `
: </
M ode
Ġcoll abor
Ġle ave
Ġact ivity
Ġcl uster
f ound
Ġf un
ef ined
ut ch
subset eq
ed s
Ġex am
d esc
ĠL ife
ig er
Ġh yp
Ġequ ip
Ġthe orem
rem ove
ĠAr ab
ĠJ ournal
ren ce
ern el
b i
Ġse c
^ -
ock ey
Ġcit iz
//////// ////////
f ree
ĠB ase
Ġpress ure
Ġw ays
ĠL ong
Ġdiscuss ed
C ase
V AL
under line
197 8
Ġon es
ĠE mp
( _
or ation
ĠL iber
Ġdr ug
ER R
Ġbl ue
Ġg reater
Ġex ception
Ġparent s
pe ople
Ġfeature d
ĠOff ice
I O
Ġdatas et
Ġexp ansion
Ġder ived
in y
I F
Ġf ast
in stance
ab it
8 3
ĠL og
ĠC ast
Ġp ark
Ġrecord s
( [
ill er
}} }
Ġet c
Ġbas ic
w rap
arri age
h y
Col umn
k er
ole c
a uthor
197 6
Ġplay s
Ġlead s
Ġre comm
pro d
i en
Ġ$\ {
; "
Ġindividual s
ĠE X
q l
Ġw or
Se lect
Ġa ctions
Ġin equ
ĠJ ud
ĠIt aly
ĠS ocial
Ġhouse hold
197 2
Ġarg uments
d x
ow ers
Ġliter ature
C P
The ta
Ġm is
ĠK e
Ġder iv
Ġc ore
L ayout
Ġab ility
\!\! \!\!
NA ME
Ġex tra
Ġlaw s
Ġm ission
Param eter
t ask
ad y
res hold
Ġ util
Ġrep resents
as hed
pro to
Ġsur round
er c
ĠH on
Ã ¨
CO L
Ġf if
Ġwh om
Ġmed al
Ġar bit
ĠA PI
ĠB uild
ol a
197 4
$ (
V is
T YPE
Ġinter action
Ġoper ators
Ġcont aining
all ery
Ġcommun ities
C ON
ĠF estival
is hes
Ġre ach
ol es
ĠF ield
' ).
T e
ex pected
< \
T V
Ġsh ift
Ġv irtual
Ġ\ ;
C S
> >
it ory
il s
A V
#### ####
tern et
Ġs amples
ĠA v
Ġex amples
ĠE nd
b ed
d im
yd ro
Ġmin utes
Ġr ul
th on
197 5
ĠPro gram
s ign
Ġcandid ate
oc ation
Ġin fin
Ġpro file
ma z
ĠSw ed
Ġpur pose
ĠB ig
h ouse
ab ilities
Ġro ute
UR L
Ġv ote
ap ers
T ag
Ġb rief
Ġproject s
sup port
out e
at o
Ġelect ric
++ )
P O
Ġag o
Ġph il
ã ģ
ven ue
Ġwe b
Ġcom mercial
r ong
Ġerr ors
Ġhe nce
as ion
om ic
197 7
ian a
Ġimmedi ately
Ġapplic ations
Tr ack
ple te
Ġnot hing
Ġess ential
Ġcontinu ous
N e
Ġ[ ]
a fter
pos es
od ed
old er
p resent
Ġsepar ate
D F
Ġd u
Ġsh ot
set minus
$ _
ĠF re
}^{ -
unc hed
C R
ĠO h
S l
ĠH T
ĠPar liament
Ġstr ategy
ic ans
iz ont
fr ame
ell ed
ĠCarol ina
Ġp oor
Ġrelig ious
Ġb al
ec ute
Ġmat ches
ĠM ur
Ġnetwork s
Ġun ivers
sh ift
Ġs quare
Ġst ories
sh ould
Ġfact ors
Ġobserv ations
s d
Ġsay ing
prot otype
Ġeas ily
con s
ew idth
class es
ĠD ec
Ġbroad cast
Ġf ix
st yles
Ġsum mer
att ice
Ġem pty
Ġman if
Ġeas y
ir al
) /
ac ement
Ġgr av
Ġsl ight
Ġcomplet ely
mod els
requ ire
Ġmention ed
O ther
foot note
196 8
Ġsm ooth
if ically
he nt
al o
ĠAr ray
im a
id ae
M ore
s pect
D ec
Ġag ent
Ġbe y
Ġ$ |
Ġp ert
C ache
Ġcall back
Ġhy per
Ġabs ol
Ġcom pl
Ġopen ing
Ġrespons ible
et ch
Ġm ut
8 1
197 3
U rl
v ector
W idth
os c
Ġremov ed
d eg
Ġvert ex
ĠO ld
ĠS il
Ġbr anch
ĠM o
Ġde ad
Ġn ation
r im
Ġuse ful
Ġm aster
ig inal
ian o
g ate
Ġbey ond
Prov ider
Ġd ou
ĠM il
ĠK n
ĠAl so
J ohn
m ann
Ġfri ends
P ort
Ġcho ose
s ystem
w s
Ġend ed
Ġ\ (
il arly
ĠP et
ĠMart in
Ġin come
Ġsurv ey
A m
AT ION
Ġident ified
t ree
il ed
se cond
Ġrele vant
^{ -\
Ġa mb
Ġcont ribution
ĠEng ine
Ġlook ing
off set
con f
Ġsc ope
A ccess
E M
y es
ĠCh ief
D D
ĠP eople
R ow
S y
E l
Ġqu e
ty p
P A
d es
Ġsing er
Ġmap s
Ġdiv ision
uct ure
h or
ĠE r
Ġf air
ĠN avy
f a
Ġ eth
Ġweek s
}} ,
Ġen j
se ct
ĠL icense
el er
n y
Ġpolitic ian
IN E
ĠF urther
ĠS aint
und red
Ġact or
Ġj oint
Ġas pect
ult ural
ã ĥ
D ev
Ġprocess es
w ait
v ey
_ .
ĠG en
ag ment
Ġpl ane
ĠO l
Ser ver
1 000
**************** ****************
Ġc ard
ut y
Ġb ottom
or ter
Ġemb edd
Ġdist ributed
}} _{
c a
ot ing
Ġaff ect
Ġcompar ison
Ġwin ning
Ġcomp act
Ġbound ed
Up date
Ġhe avy
omorph ism
T arget
Ġcon flict
Ġann ual
Ġw ait
Ġrece ive
Ġcar ry
Ġwrit ers
Ġde b
Ġsc ored
Ġexist ence
Ġfav or
c at
ĠYou ng
ig ration
Ġm icro
ĠReg ister
r or
ol t
roll ed
Ġst ra
ĠJose ph
Ġc os
os ing
Ġgener ation
du ced
Ã §
ad ow
Ġprot ect
ĠIs lam
Ġun known
Fr ame
Ġimpro ve
Ġpart ies
D O
am era
ĠM a
M y
ĠA wards
Ġcomput er
est ed
Ġ! ==
Ġquest ions
p are
Ġpol ynomial
ĠPro ject
Ġb us
Ġcontr ast
Ġcon vert
Ġsc ript
196 9
in ant
van ia
ad ium
' ),
Ġexact ly
Ġch ief
Ġbe g
ĠT im
Q L
ĠJ im
tem plate
Ġmov ing
_ *
Ġgo als
T S
Ġwork ers
ĠS un
Ġ( $\
Ġsl ow
ĠD ev
i ro
ell ar
= (
ĠP ac
os h
Ġtry ing
D escription
p g
I A
ic ens
Ġs ession
lim its
ĠCol umb
al i
u int
H O
act or
ĠF ort
k o
ĉ ĠĠĠ
ĠK ar
Ġh arm
ĠW ood
overn or
Ġn ative
T ypes
197 1
izont al
ar ant
Ġcur ve
Ġch ain
f s
oc al
re ct
D es
Ġsc ene
ĠB as
sub figure
j a
w a
Ġ$ [
Ġarbit r
ĠR ead
ĠT em
b el
Ġfe ed
ĠM ax
ĠA ut
l ines
ur i
ĠS oviet
r ange
Off set
Ġgo es
Ġfl ux
Ġal leg
ĠL u
ĠS pr
Ġexper iments
lin ewidth
Ġmost ly
Ġget ting
Ġr ates
Ġform ation
_ +
ir med
Ġb ul
ak ers
in ate
Result s
E arly
he mat
Ġserv e
Ġsy nt
return s
def inition
cher s
R L
ĠN S
comm on
R ight
Ġc arried
ĠJ o
Ġt ag
Ġpl ans
) |
sy l
Ġoffic er
K E
i ant
y an
M C
ĠII I
k it
Ġpl ot
ĠH aw
Ġg reen
Ġf oot
n am
Ġl ived
C urrent
Ġit ems
Ġres olution
us band
Ġs end
Ġt errit
Ġu int
p op
Ġredu ce
ĠL ee
194 0
Ġconstruct ed
b as
\\\\\\\\ \\\\\\\\
it ation
ans as
ent y
Ġdist inct
Ġcap acity
Ġ* *
d agger
in ations
ĠL ine
Ġser ious
u ations
Ġturn ed
k l
im inal
_{ (
Ġdynam ics
Ġform ula
Ġed ition
Ġal t
ens ions
Ġpr iv
D uring
st ein
Ġhand le
wh ile
Ġprov iding
ript or
ĠCh ild
Ġmus ical
Ġpro ceed
Ġsc atter
Ġst eps
are er
P erson
Ġqu arter
par se
Ġpartic les
Ġsen ior
ag raph
ĠĠĠĠĠĠĠĠĠĠĠĠĠĠĠĠ ĠĠĠĠĠ
Ġb asketball
-- -
ĠP an
Loc al
Ġcon cent
Ġsh ared
* {
CO DE
rop y
air man
Ġf arm
D irect
ro ot
Ġlead ers
Ġk ing
ĠIr ish
ind er
at ically
Ġrefer red
\ }
Ġs plit
Ġdi agram
Ġs witch
ĠT op
H ere
196 7
Ġstr ict
av ed
Ġnew sp
iction ary
Cont rol
Ġgener ate
ĠWe b
Ġpol ar
Loc ation
Ġb attle
h aps
Ġsim pl
F urther
ĠJew ish
Ġs ister
t ure
ĠB i
Ġeffort s
Ġpartic le
ro t
Ġgiv ing
Ġl if
ĠEar th
app ed
Ġmur der
ĉĉ Ċ
Ġtourn ament
w edge
P o
Ġstra ight
Ġarg s
Ġnumer ous
Ġis land
Ġarchitect ure
AP I
19 30
Ġra ised
w an
Ġpos itions
he ast
Ġestablish ments
ĠW ales
Ġorgan izations
Ġco ast
b ool
Ġoff set
How ever
Ġg auge
Not es
AR T
it an
Ent ity
ĠC ivil
En try
ug by
Ä ģ
Ġany thing
Ġdem and
Ġshow ed
194 5
ĠN etwork
syl vania
in et
196 4
Ġconsist ent
r ich
ĠB ob
P op
Ġinteg r
: \
ress ed
Con tainer
m atch
ound s
Ġold er
O ur
it ors
gy pt
d rop
P at
omet ric
se ud
: "
por ation
ĠD evelopment
Ġcomm ission
Ġatt ended
ĠB razil
U M
Ġlet ter
im ary
am l
ĠL ibrary
es h
hes is
ĠBrit ain
angu ages
ific ations
atal og
Ġla unched
at i
Ar t
Ġar rest
ar c
v est
Ġvis ual
ic ine
ĠK h
li e
opl us
Ġfor ced
l ig
at ial
ĠU N
Ġmeas ured
Ġhelp ed
ir ls
col on
ap se
s ur
Ġsymmet ry
ĠD om
d el
if ies
="../../../../ ../
ĠN orthern
ult y
ĠL ove
ud get
Ġc orn
Ġw ind
wh ite
Ġbecom ing
d ocument
Ġsp read
ĠS ir
Ġdepart ment
. [
] );
ĠT our
E v
Ġstud io
Ġpol ic
A cc
a ver
Wh ile
align ed
ev e
D S
Ġact ress
= -
im ation
Ġimplement ation
Ġdel iver
m ond
util s
ĠSecret ary
Ġhistor ical
sec ut
stand ing
Ġw atch
ĠL ord
Ġl ibrary
Ġdes pite
Ġmin ister
Ġcomp ute
Ġcent re
D o
Ġin form
ip ality
' \
Head er
ĠW al
ĠH ot
ost on
Ġex tract
ĠSt ep
Ġsp aces
Ġass ign
Ġdepend s
orn ey
D A
T ree
() ->
ĠA pp
ra q
ick s
art ifact
ist ance
Ġr iver
os oph
Ġl en
iv ial
ĠC re
S O
oll ary
), \
Ġgalax ies
Ġauth ors
Ġsome one
Ġrad ius
Ġform al
à ¤
ategor ies
Ġappear ance
oot str
Ġcomb ined
Sc ript
Ġproced ure
196 5
Ġs outhern
Inter face
R ev
Ġprodu cer
Ġcont ributions
Ġcell s
tain s
Ġfl oat
Ġopt imal
Ġsh oot
Ġp aint
Ġem ission
ĠS T
=" -
M e
% ;
ent ity
as ure
Ġinit i
ĉĉĉĉ ĉĉĉ
al ysis
ĠF ile
Ġpo et
ĠChampionship s
ĠHe ad
big g
Ġh ar
ĠVal ley
B O
ĠEmp ire
ĠJ ac
Ġunderstand ing
Ġn orthern
ck now
Ġsignificant ly
Ġconstr aints
ĠE ach
ĠF ri
ĠH uman
196 6
Ġdis s
ĠS und
ent h
param eter
Eng lish
cont in
Ġinitial ly
Ġref lect
W E
Util s
Ġ{ }
res ource
Ġc ert
ament al
Ġapproxim ation
ici ency
Ġapprop riate
Ġexperiment al
Ġp urs
Ġquick ly
G l
Ġh usband
ĠAs ia
Ġv s
ã Ĥ
Ġ â
Ġw ood
Config uration
Ġb uffer
cont rol
ĠJ es
d est
ĠU kr
Ġent ered
Ġo il
u er
Ġenc our
u ce
Ġun iversity
ĠM en
dev ice
im ages
r idge
s cal
un ct
Ġn et
Ġ} \
v a
W rite
Ġthe rm
Ġb illion
AC K
Ġent er
ĠL in
Ġjo in
Ġm achine
Ġra ise
)\ ,
su ccess
L P
N on
Ġrel atively
y er
c ard
Ġcl ust
Ġvert ices
Ġse asons
Ġinteg er
c ache
b u
Ġown ed
gorith ms
Ġs ector
pt on
Z E
15 0
Ġtyp ically
ĠC ross
orn ing
Ġh ope
M ult
ro om
Ġin ner
Ġenj oy
ĠDemocr atic
ĠG al
ĠThe ir
b uffer
Ġmeas ures
z ero
Ġf irm
k et
ĠG reek
Ġp oll
TE D
Ġstr ateg
Ġm ixed
Ġx ml
ĠB re
Ġaccur acy
ĠH ence
Ġb ill
ad or
ct x
Ġadv ant
19 20
h igh
O pen
Ġre ports
Ġcult ural
Ġadministr ation
p ers
urb an
ĠTe am
Ġfl ag
ĠP ak
d irect
ĠPenn sylvania
Ġdiscuss ion
ĠS outhern
od ay
i Ä
F ont
Ġed ges
Ġcle an
leg al
Pro cess
ĠSen ate
" ))
he m
Ġc ounty
com ing
' m
Ġm ill
ĠL ie
Ð° Ð
rodu ction
Ġe lections
Ġsit es
end ar
Ġmag azine
ĠRev iew
; ->
ĠP y
_{ {\
D P
S earch
Ġtr aff
ĠSp ain
Ġtri al
ĠL i
Ġ$ {
ĠS pe
r ick
Ġp p
Ġ$ -
m ode
D on
il ation
N E
O p
ann els
He ight
ĠB usiness
R ange
Mod ule
ootstr ap
du le
Ġsatisf ies
ĠE qu
ir a
A c
n amed
Ġth ous
ov a
R ed
Ġfam ous
Ġdise ase
T I
Ġnuc lear
ĠM ov
ĠJohn son
ic ity
W indow
Ġclaim ed
Ġc ities
as er
Ġse a
al g
Ġmoment um
at ers
J son
ĠMore over
em porary
ĠPro position
\ '
ĠReturn s
Ġass ess
er ry
text sc
ĠG ood
ad r
Ġmain ly
Ġvoc als
st ep
Ġre form
ell er
Ġat tract
ĠO p
cl aim
um s
Ġd ual
Ġtechn iques
ĠSh ow
H ttp
IG N
r u
Ġnumer ical
Ġcou ple
st o
Ġoffic ers
Ġprop ag
ĠR et
Ġcover ed
Param s
er ies
Ġh undred
ĠCol or
pos ite
_{ -
L evel
Ġpert urb
ĠE conom
Ġtr ust
Ġseg ment
av al
olog ies
if fer
Ġar m
ĠUS A
Ġh op
Ġw orth
Ġcirc le
ĠCent re
A ccording
ĠM any
R I
f aces
St at
ce an
ĠC amb
Ġn ine
Ġtest s
Ġexpress ed
Rec ord
P L
ellig ence
s v
ic ients
amp ion
Ġcomb ination
str a
Ġf reedom
H ash
Ġex change
Ġmeasure ments
Pro ject
anc ing
Em pty
c ases
Ġang le
Ġr an
F O
ĠM iddle
ĠT re
Ġch ampionship
Ġs al
Ġevery thing
ĠG ener
ar ia
Ġcoupl ing
Ġar my
ĠJust ice
per p
Ġext rem
Ġcalcul ated
im er
un ior
ĠC am
Un it
M at
25 5
Ġcorrespond s
Ġpat ients
r ical
Ġopport unity
sh ot
Ġcitiz ens
to ken
ĠIn st
D ir
Ġinequ ality
Ġth r
ĠM ap
Ġt ensor
mat rix
ĠHistor ic
Ġoffer ed
et ts
Ġle aving
ĠS ar
}} (\
b al
Ġtem plate
Or der
Ġfra ction
Call back
M O
Ġassum ed
ĠCon ference
Ġinteg ral
c ript
Ġclass ification
' _
Ġspect ral
it ness
Å į
C ar
p ower
l aw
ĠMich igan
Ġp i
Ġim ag
} %
est s
Ġcre ating
D at
t ml
Ġex ternal
Ġ> =
in f
ĠI raq
s or
artifact Id
Ġd raft
Ġ| \
Ġre asons
S H
The se
S L
> ,
Ġincre ases
ĠE gypt
k ins
as tr
Ġpr ice
Ġcol on
Ġgrow ing
Ġp iece
Ġto uch
ĠK ey
Ġatt ribute
Ġcle arly
ĠJ ones
Ġr ailway
ul s
l ers
ay lor
Pos ition
Ġen h
Ġc at
ĠOh io
b ury
' .
Y ear
ib li
ard en
ĠD E
ach us
Ġassum ption
Ġdat abase
ĠProv ince
Ġv oice
ino is
Ġdep th
at riate
w indow
Ġr ing
Ġpol y
g a
Ġmin im
et ween
Ġper fect
ĉ Ġ
c ar
ak a
I ST
Ġcall s
ĠO x
ĠPac ific
m itted
Ġbeliev ed
Ġp ull
struct or
Ġclaim s
N one
ang ing
h om
ĠE lect
ĠWilliam s
Ġdet ection
Ġappro aches
as y
Mem bers
Ġfail ure
Ġreg ime
Ġsim ulations
~~ ~~
Ġ* )
ograph ic
Ġsp irit
="../../../../ ../../
Ġpair s
COL OR
ĠSt at
" ));
L ong
Ġm olec
Ġcre ation
C al
P T
Ġstreng th
a uth
Ġl attice
Ġcl imate
196 3
ĠS ong
Ġdec ay
Oper ation
mod al
sub subsection
,\ ,
M D
Ġexecut ive
equ al
Ġ ::
Th read
Ġon to
ĠB oth
L eft
Ġorder ed
Ġs ampl
196 2
C opy
ul y
Ġserv ing
ĠT ele
ĠW ell
ĠRad io
add ress
Ġsem i
ĠJer sey
Ġget s
h ash
ĠB o
Ġl i
ĠSup reme
Ġcont ained
Ġc ensus
Ġachiev ed
trans form
ĠR un
Ġdet ail
ĠC reate
ur ies
k ind
S ing
In st
Ġp adding
Ġpro pos
Ġslight ly
Ġam plit
Ġprov ed
ĠF ederal
c p
in ion
Ġvict ory
Ġl iber
Ġw rong
Ġrespon d
E q
ĠB attle
ĠĠĠĠĠĠĠĠĠĠĠĠĠĠĠĠ ĠĠĠĠ
epend ence
gl obal
Ġaltern ative
() :
ĠU r
: (
Ġident ify
ĠFrancis co
Ġfore st
ĠC all
Ġincor por
", "
Ġmaterial s
ĠR E
ĠÂ £
ĠCar l
G o
w er
Ġ ut
ĠSpec ial
n eg
Ġofficial s
Ġp il
Ġal one
imens ions
Ġr ail
Ġr ise
' ve
Ġdefe ated
Ġbl ood
x x
Ġst able
Ġiss ued
im s
result s
Ġl ies
og rap
ĠAss ert
Ġbe aut
Ġdiscover ed
Ġf elt
ition ally
ĠMus lim
se ar
Ġl ock
el a
ĠScot land
I B
1 20
ĠA ff
group Id
che n
le ep
Ġr ac
Ġpro min
Ġass igned
fr ont
Ġrap id
ĠB oston
icro soft
ab eth
ad el
Ġfil ename
Ġsett ings
ĠMed ia
ĠR am
sk y
ĠL ab
C areer
re nder
achus etts
Ġl oop
Ġsex ual
it age
as i
D om
ynch ron
Ġunc ertain
Ġoff ers
p ool
ĠG i
ic ed
af e
ĠRep resent
burg h
Ġin fr
ĠB ul
S w
c ut
Ġm arriage
Ġscal ar
styles heet
b efore
Ġp refer
ĠW ay
Ġsett lement
ĠEn ter
en ant
Ġfl at
P ass
b ell
for all
rom e
ĠM P
Set tings
ĠQue en
m ake
X X
Ġsur pr
Ġlead ership
Ġdram a
Ġh ospital
Ġreg ional
Ġocc urs
Ġeff icient
196 1
Ġtask s
Ġman aged
Ġsim ulation
ĠProfess or
ynam ic
ĠGeorg ia
Ġtr ained
j i
Ġad ult
) }(
Ġconduct ed
Ġprofess or
Ġor ient
ari able
Se ction
T C
Q ue
enn is
D L
O ption
Ġsu c
S um
ick er
Ġhas h
igh ter
Ġachiev e
f ri
Ġag reed
Ġb inary
Fil ms
Ġre ject
Ser ial
con n
Ġm useum
A g
b order
ell i
S ign
Ġtest ing
aw a
ĠH ome
de bug
ĠB ern
ac cess
Ġex c
ĠP ubl
og ene
ĠA cc
Ġpart ial
Ġact ors
wit ter
D ep
Ġr are
on ym
T ER
Ġcl oud
Ġcomp are
ph as
Ġdig ital
ĠH or
Ch ange
ĠChe ck
Ġadopt ed
........ ........
) _{
Ġanaly t
ĠGo ogle
Ġeconom y
Ġsaf ety
ĠK ent
ĠAs ian
Ġp ure
ple x
Ġ ice
bul let
Ġ{ };
Ġstr ugg
Col lection
ĠSt e
D ocument
st at
em ic
Ġintrodu ce
Ġansw er
Ġown er
Ġse at
m i
ĠS and
Ġdiffer ences
Ġf ine
ĠM ajor
Ġpar allel
r ices
Ġt or
c f
194 4
are t
Ġshow ing
Ġsuc ceed
ra wn
ĠE p
Ġparam s
Ġ+ \
ĠR h
ĠW all
En c
Ġcy cle
b ind
Ġinterest ed
{ $\
ĠO R
b re
ĠSt and
Ġacadem ic
Ġs ave
ĠT ra
Ġdist ingu
M ark
Ġcoeff icients
Ġst ock
Ġde com
Ġres idents
ap ed
ob s
ĠT ro
Ġrec all
Ġal gorithms
D i
Ġcoun cil
ol ume
ĠAmer icans
go ing
Ġel im
Ġcost s
j e
mult i
Ġoper ating
p lement
ĠP op
ĠEd ward
Ġw all
D IR
PE CT
Ġcompos ed
ĠB ow
Ġarbitr ary
Ġp aid
ion e
}$ -
ri um
m ut
Ġcomput ed
r id
ĠJ r
ĠIll inois
il a
Ġstat istics
ud es
) ^{\
Con nection
Ġgu arant
ploy ment
u ing
Ġcan cer
o ir
Ġp ackage
ĠU s
Pro t
Ġimport ance
G E
Ġf le
Ġcommun ication
\ _
doc s
ĠG ame
pos s
ĠS ol
Ġrecord ing
Ġattack s
Ġse ctions
Ġart icles
Ġbehav i
Ġover l
Pro perties
Ġint ended
Ġdet ailed
Ġdis k
ug ins
c oll
ĠThe atre
Ġre sear
ĠK ong
bl ue
Int eger
ĠM ethod
pm atrix
Ġnot ice
ĠC ro
Ġth reshold
ĠTechn ology
in ternal
Ġsing les
Ġrestr ict
ay a
ĠE astern
ĠP oint
b its
Ġide as
Ġw estern
id ay
ank s
Ġthe oret
ing ham
Ġl abor
pect ive
Ġv ary
ĠMass achusetts
Ġth read
ab il
ĠMod el
Ġtr uth
ĠKore a
g est
Ġob vious
r ons
ĠV an
L a
anc he
Ġin tr
Ġtrack s
s ort
Ġwe ap
l as
Ġindic ates
E ach
M ed
Ð º
Ġinstit utions
ĠS ervices
ist ical
Ġestim ates
D own
U LT
ĠEx ception
i y
ph y
Ġaccept ed
P tr
em y
u ous
Ġden otes
field s
el i
on to
let s
Ġdel ay
ĠB G
Ġp sych
ĠMan agement
ov ed
hen omen
r ine
R C
t n
ash ion
Ġax is
Ġcorre lation
Ġ ult
w riter
ix el
Ġto ken
Ġb att
h ar
s end
Ġp le
od ies
est ic
G ET
ĠTr ue
W ill
Ġs qu
ĠRepublic an
ĠC ard
Ġstrong ly
typ es
ĠL y
m iss
g g
ĠBl ue
ĠPl an
Ġpolic ies
i ate
up le
Ġover ride
Ġe cho
Ġn am
Ġl anguages
.~ (\
Ġanal og
s el
Ġearn ed
ĠColumb ia
B i
Ġregard ing
v as
us es
Ġs ales
ĠĠĠĠĠĠĠĠĠĠĠĠĠĠĠĠĠĠĠĠĠĠĠĠĠĠĠĠĠĠĠĠ ĠĠĠĠĠĠĠ
Ġneighbor hood
Ġoper ated
) ^{-
Ġgen us
inter face
ĠSec urity
Ġpolit ics
st one
16 0
194 2
Ġcomm it
Ġdist ributions
Fig ure
er g
ĠG overnor
A ust
ĠPol and
Ġcal c
re q
P H
ĠPl ay
ĠR os
Ġtrans formation
N ational
ad er
ĠM ain
ime q
195 8
Men u
Nav Bar
Ġpart ner
195 9
Ġdef end
194 8
Ġpower ful
s imeq
Ġret ired
ĠCo ast
Ġpolitic ians
Ġmod es
es ter
ĠH a
agon al
P RE
Ġke pt
Ġcon ference
Ġtyp ical
Ġact s
jo in
ĠJack son
ĠSt an
t og
ĠJ eff
Ġwid ely
p icture
Ġcr iminal
Ġded icated
AL L
let on
195 6
Ġst ack
e z
ne ctions
pro duct
ĠT HE
ĠAnd rew
Ġindic ate
Ġinter val
M ain
f ull
C or
Ġconc ert
Ġf ellow
' }
Ġg un
Ġsh ips
ĠM u
and on
pend ix
ĠComm on
Ġpre t
Ġact ing
}^ *
b ot
19 39
put e
ĠL uc
call ed
ist ent
OR T
se x
G u
Ġcr ime
Ġreve aled
âĢĿ .
Ġcontin ues
el d
Ġp et
ack et
Ġcandid ates
ĠM ath
Ġoccur red
D em
Ġfund amental
Ġfe at
ĠM id
ĠPhil ipp
ĠS u
Ġabsol ute
V er
ar ters
r s
vir t
uck y
Ġw ild
$ ).
U P
Ġmet al
ĠE st
ĠC a
Ġsp atial
am m
ĠD utch
Ġyou th
Ġprim arily
Ġpro test
ĠPr ince
Ġb ass
Ġdet ect
it ical
s pe
Ġh ydro
ĠP rem
ĠOx ford
Ġcoordin ates
M B
is is
ĠM ah
S ome
Ġspe ech
( :
Ġsuggest ed
St ack
Ġallow ing
eng er
Ġinvest igation
in ity
ĠY our
ĠBro ad
H ost
Hel per
E Q
ab y
te en
Se cond
ĠOr gan
k es
U B
ĠC y
As ync
p ir
Ġun less
ful ly
or ough
ĠLat in
Ġblock s
25 6
194 1
ä ¸
Ġvers ions
Ã ±
ĠR ay
Ġsc hedul
) {\
Ġapp arent
a is
ap es
Ð »
ĠPol ice
) }{\
point s
ĠComm unity
v m
Ġfa ith
iz abeth
il ib
Ġdiv ided
op her
Ġabs or
Ġcrit er
Ġmeasure ment
ĠE ven
Ġtrans action
Ġinter actions
AN D
Ġto ward
ac le
s en
t ri
ĠAd ministr
c lear
ip eline
Hand le
Ġis n
ĠB ecause
ĠC ON
U se
od d
tain ed
ms g
sh all
Ġauthor ity
ĠIn formation
Ġ" \
clus ive
Ġview s
ĠH and
def ined
Ġfor t
Ġins ert
Ġmod ified
Ġj ourn
ĠB u
let ed
Exp ression
c opy
Ġatt end
ner gy
v in
Ġrequire ments
Ġpro port
ry st
sh ort
agn ost
ĠN ame
ou ch
A F
Ġrepresent ing
Å ¡
Ġtri ed
Ġ ens
Ġex tr
Ġro ll
Ġcur ves
ec es
est amp
Ġp ool
Ġfocus ed
Ġprocess ing
f n
Ġdepend ence
S k
un ities
ĠW ater
\ )
Ġs ust
n ap
St ore
Ġmark ed
In valid
Ġhe ard
S ession
Ġem phas
d elete
Ġgr id
Ġcom edy
Ġdeg rees
: #
Im pl
Ġacqu ired
Ġro ugh
p a
195 7
D isc
ĠM ot
b ro
Ġex cit
S ym
B rit
Ġe mail
Ġconf irmed
Ġprote ction
ĠC H
ĠW is
ĠP ower
pre c
}} ^
ik i
R S
Ġsub set
Ġdef in
id get
194 3
ĠK enn
ors hip
Ġa ware
Ġg ain
en v
ĠH ospital
old s
Ġlearn ed
Ġsubsequ ently
Ġevery one
Ġpart ition
I ter
ĠStud ies
ĠSe a
ĠL ittle
fr am
Ġg ap
het ic
Ġsing ular
m ic
Ġh idden
Ġ= \
ĠH arr
art s
Ä ±
K ind
Ġc ache
am ber
ĠH ig
Refer ence
olog ist
ĠPort ug
Ġbr idge
Ġp icture
Ġinstr ument
Ġc er
ĠF C
194 6
================ ================
Ġhand s
Ġord ers
fo o
Ġtro ops
Ġf re
Ġsub stant
Ġfind ing
Ġst orage
oth ing
Ġs quad
ĠBro ok
Ġt end
~ $\
Ġlarg ely
Ġg irl
oc ated
to String
r an
Ġide al
ST R
) "
n ership
Ġperson nel
com ponent
Ġinv ariant
Ġhyp ot
Ġredu ction
Ġto ol
Ġobserv e
ĠSund ay
Ġdr iver
Ġpur poses
R ad
h ad
h s
ed it
Ġorgan ized
Back ground
ĠR ights
)$ -
Ġtraff ic
Ġviol ence
ĠWil son
Ġanc ient
Ġ$ $
Ġa wards
Ġdr ive
) \\
cl ick
ĠH ong
com ment
hand le
=" _
ier arch
Ġcy cl
os is
Ġro les
Ġrem ember
Ġspe ak
un te
sc ape
Ġtechn ical
g ers
ĠT ri
ĠR equ
map sto
Ġmass ive
erv ative
S ch
ĠI d
194 7
ent er
ĠB ang
omorph ic
Ġin fo
Ġnear by
Ñ ĥ
Ġmechan ism
en ess
Th us
im ately
Ġarr ived
Ġpl anning
ĠW ild
al ing
Ġ$ .
oper ation
ĠK en
Sche ma
Ġinv oke
ĠF our
Ġrepl ace
$ ^{-
Def inition
ĠV is
z en
D raw
E rr
d ouble
en um
od ot
Ġchall enge
cknow led
S u
Ġscient ific
195 5
equ als
Ġ Î
ograp her
} )$.
ird s
Ġdes cent
Ġ Å
Ġth ick
ĠBer lin
il ly
Ġw aves
Ġfac ilities
O K
Ġsymmet ric
Ġv on
Ġj av
Ġco al
arri er
W orld
Ġl ab
ĠScott ish
Ġhon or
Ġvert ical
n ic
Ġt a
Ġyield s
N ames
Ġp henomen
ĠJ ean
Ġadvant age
Ġin line
% )
Tem plate
Ġadd ing
ub y
ĠR o
H S
^{ +
G eneral
Param eters
sc ription
Ġ era
ag ers
cl oud
ĠR ailway
ap pe
Ġloc ations
Ġb udget
ĠDan iel
Ġp an
Ġle aves
ĠJ on
a ug
Un ited
195 2
t ik
B efore
ul f
' ],
l ow
E CT
Ġro ut
Ġde lete
Ġm iles
ad s
H z
Ġvis ible
s ive
ul pt
ĠK r
wid get
Ġlim its
plic ations
G C
Ġme ant
Ġfig ures
Ġexpl ained
ĠD ate
Ġo dd
Ã £
Ġ il
med ia
Ġmat rices
D C
ERR OR
ĠMed ical
ĠEX PECT
s ession
un a
Ġhous es
Ġprinc ipal
S M
ĠN ight
Ġbr and
ĠF I
ĠL ead
rem ark
iÄ ĩ
eder ation
ĠL im
ĠE vent
Ġcl in
25 0
ĠF ar
Ġsuccessful ly
Ġent ity
c ategory
f amily
ĠĠĠĠĠĠĠĠĠĠĠĠĠĠĠĠ ĠĠ
Ġdec ades
ĠĠĠĠĠĠ Ċ
( *
id el
Ġchem ical
De cl
on al
ĠV iet
rop ol
it o
ĠB ell
foot er
195 4
th ur
Ġcomm ittee
ĠGl obal
s uch
ott ed
medi ate
int on
Ø §
t an
inal s
ad ing
Ġg rew
Ġd aily
) _
T ool
it led
ur er
Dev ice
Ġfund ing
ĠF inally
Ap plication
Ġs ides
Ġt error
Ġthem e
Ġdoc uments
ĠAlex ander
ĠPh ys
enn es
an es
ĠWe ek
\| _{
ĠC oll
ĠC ode
Ġb oy
Ġund efined
Ġenvironment al
ĠGa ussian
Ġst reet
z h
Ġcirc um
Ġre ality
ĠS om
Ġst ellar
Ob j
Ġprinc iple
$ $\
Ġte aching
T itle
OR M
ĠT aylor
on ia
m c
1 10
AT A
Ġequip ment
f ony
Ġ&= &
m aterial
Ġspect ra
## #
aw s
Ġn or
ph ia
ĠJ oe
Ġstart s
pon ential
Ġto ols
Ġclub s
Ġdescrib es
ĠS witch
s ch
Ġpr ime
Ġaff ected
C ore
Ġcons ult
if ul
he lp
Ġcommon ly
Ġpe ace
Å Ĥ
Ġconsider ing
Ġp ages
194 9
Ġfl oor
Ġemploy ees
Ġserv es
ĠBG COLOR
ĠT w
Ġsecond ary
h over
Ġc ool
195 3
Ġp ush
Ġm orph
12 8
b ec
Ġveh icle
ĠN ations
Ġdepend ing
ex ports
Ġsold iers
on ical
p et
Ġassoci ation
6 00
l ife
ĠB oy
ex port
Ġdev ices
an try
ĠU se
Ġf ans
R ect
Ġla unch
ce ived
sh ape
b en
we et
Ġear th
Ġaud ience
Ġl ayers
Ġis ol
ic ip
ĠH ung
oc cer
Ġcom ments
F ound
R et
Ġcapt ured
Val ues
hold er
at ible
fram ework
adel phia
ĠD ar
ĠF ree
ath an
ĠPr ime
el ess
ph one
Ġch annels
u v
ĠR og
for ward
M ay
con nect
ecut ive
ĠM as
ĠGu ard
ĠD isc
Ġrem ark
ĠMin istry
Ġrecogn ized
Ġn arrow
ĠOn ly
t wo
pro position
F alse
Ġdevelop ing
ĠM aster
f ocus
ĠC at
Ġser ial
Ġfif th
ĠL ew
Ġnot es
Ġin nov
ĠSc iences
ĠP ass
H as
ann er
Ġcontain er
eff ect
Ġs pl
ang ular
P arent
il ing
Ġdam age
X ml
nt ario
p atch
AT H
Ġopt ical
Ġsatisf y
ent ed
âĢĿ ,
m aster
Test s
S ports
Ġobserv ation
ĠA uthor
N R
Ġ ul
Ġwin ner
Ġhead er
Ġn amespace
ĠA nother
s id
Ġperform ing
ĠG ar
Ġconstr aint
à ¸
Ġv ectors
Ġl ie
ĠCor poration
Ġper haps
Ġconver gence
D R
sc ill
Ġnewsp aper
in son
Ġimplement ed
19 18
ĠP en
Ġinc ident
in itial
B I
Ġplan et
The orem
S R
Ġtre es
Ġfootball er
Ġhous ing
Field s
ĠS i
im b
Ġuns igned
Ġs port
tik z
Ġup dated
Ġphys ics
ĠC irc
Ġsubsequ ent
Ġpred iction
Ġ} )
m osp
Ġpar se
c ustom
in line
> ();
B oolean
V ector
Ġmed ian
Ġat tr
not es
Ġch ance
Ġtrans lation
isl ative
all ow
Ġdecl ared
st ore
"> &
Ġ[ '
Ġperm an
Ġman ner
Ġwas n
t im
Ġexpand ed
Ġr ural
ĠB ack
N um
Ġcapt ure
Ġmin imal
yd ney
) },
Ġres on
Ġext end
Ġag ric
\ {\
or gan
dis abled
Ġcont ro
Ġtw ice
w ater
ĠL ater
195 1
ĠPak istan
Ġsuggest s
Ġcor por
he rent
Ġcall ing
ĠB a
Ġeas tern
Ġexpl ain
C F
ĠF amily
ord ers
Ġsom ew
Ġtransfer red
n ames
Ġauthor ities
Ġepis odes
Ġinvolv ing
C I
ĠCh ris
ĠSt ation
Ġbenef it
Ġimprov ed
ĠMc C
8 00
web kit
ins ert
ĠS ports
ĠM ike
ĠRev olution
Ġmagn itude
h bar
$ ;
ilib rium
OR D
Ġk ernel
ĠTh ree
ur ance
gr ade
Ġbound s
ĠComm and
v ing
am in
P ublic
Brit ish
. '
Arg ument
ĠHamilton ian
ĠEl izabeth
Ġprov ince
ĠR om
am i
osoph y
Ġlat est
Ġprogram ming
Ġm orning
ar ation
Ġbase ball
Ġspec ifically
Ġdifferent ial
dis c
eg o
ĠA R
Ġpl anned
Ġag ents
virt ual
j ust
Ġtechn ique
ac c
Ġ icon
ic ons
Ġhapp en
Ġc ars
u ctions
ap ol
d ict
form ance
Ġd imensions
o is
Ġmatch ing
Ġind eed
Ġhe at
Ġas ympt
ĠC reek
ĠL ight
Ġengine ering
ĠF und
ĠL ag
Ġc ov
Ġset up
Ġp owers
reg ister
Ġsum mary
Ġpromin ent
Ġband s
Ġw rap
atur day
M T
Ġtre nd
gr id
Class es
ĠFurther more
ic er
ren cy
- $
Ġdis pl
Ġkn ew
Ġcharg ed
ict ures
Ġsup ply
Read er
' ll
-------------------------------- --------------------------------
Ġalong side
pan el
ap plication
h ard
V ar
Ġb in
V D
ta il
Ġ+ +
C ast
Ġindust rial
ĠF ace
ĠH y
Ġemploy ed
ific ate
Ġst ress
or i
ĠCor ps
Ġnot ation
Ġinvest ment
Ġre ct
> .
Ġmed ium
ĠVictor ia
Ġp al
semb le
rom ise
b ootstrap
Ġgrad ient
ĠW alk
Ġp seud
W rap
Ġdem ocr
h ab
19 38
Ġassist ant
A pi
G S
Ġconclud e
Ġm ask
ĠB BC
m ma
Ġex erc
) ).
ĠBel g
s es
Ġsecond s
Ġh ockey
_ ;
ĠJew s
ook s
an th
ĠPol ish
' (
Ass ert
ĠB on
Ġap i
B P
ĠR ome
b oolean
al so
ar se
Ġadv ance
ze ch
Ġend s
ĠPri ze
Ġfl ight
um es
Ġrepe ated
Ġp ra
cl ip
con sin
Ġm apping
U sing
Ġgalax y
á ĥ
ĠB C
Ġgraph s
De bug
U RE
ac ro
ĠIs lands
Ã£ o
ist ed
Ġtheoret ical
riev ed
Ġv en
c ref
ĠC orn
Ġcol lected
Ġby te
Ġgrant ed
Ġf ear
Ġ ..
ipl es
Ġ urban
mod ules
Ġnuc le
Ġbeg ins
T ab
ĠS us
ĠAr gent
uz z
and ra
Ġany one
Ġn arr
Ġag ree
ĠRe port
ĠUn ivers
p adding
B ody
ĠS her
Ġpre p
Ġinterest s
al id
-- >
Ġo scill
Ġ' /
Ġbenef its
Ġread er
In itial
if er
Ġunder lying
ĠKore an
per ial
Ġadministr ative
ĠTor onto
Ġdef ense
anc er
ĠReg ion
Ġreview s
b ad
Ġobject ive
h ol
Ġt al
Ġsaf e
ether lands
depend ency
P arser
Ġest ate
ĠM ember
ĠInd ust
Ġw itness
Ġhapp ened
Ġadj ust
ĠCon stitution
ĠT am
by te
st ro
19 36
Ġbe am
i able
Ġsh ock
ĠU sing
ĠPl aces
Ġtell s
Ġdestroy ed
ac ent
Ġcompos ition
ell o
ing ly
Ġinsp ired
ĠV ill
Ġmass es
ud io
ĠStep hen
ĠF ollowing
Ġoptim ization
| _{
Ġlabel s
ly n
Ġmat hemat
Ġfe et
Con s
ĠR ail
ĠR en
Ġrepresent ative
aut o
ĠV iew
Ġcover age
Ġprom oted
ĠOff icial
Ar gs
Ġrot ation
Ġd ie
Ġrec ip
Ġeff iciency
y o
ig a
ĠF air
| }
Ġex ecution
Ġrecogn ition
form s
Ġmunic ipality
Ġp it
M R
$ ~
Ġacc eler
ĠO ntario
Ġcomplex ity
Ġread y
ĠOlymp ic
ĠSp ace
Pol icy
ĠC ur
Ã¡ n
Ġnew ly
Ġsurround ing
d ependent
ĠI P
Ġs yn
astr ucture
Ġshe ll
g reen
ĠC ub
Ġfeat uring
ĠCl ark
Ġfunction al
Ġhistor ic
Ġjob s
Ġad vert
ĠPal est
Ġposs ibly
Ġbel ief
SE T
12 3
ig in
ron ic
Ġa thlet
Ġpre par
pl ugin
Ġf ell
Ġdisc rim
B E
} "
n i
Ġbe at
fl oor
ĠN Y
Ġge ometry
ĠS em
ra ham
ax is
Ġcre w
W S
f i
set tings
EX T
ĠA k
Ġchang ing
Ġp y
Ġdynam ic
ĠOb ama
Ġadv anced
ĠChrist mas
Ġhe av
Ġ( '
Ġsol ve
d ates
}} ^{
Ġgrad uated
cre d
re place
ĠIn ternet
s he
Ġeval uation
D ialog
ak i
ol ver
act ic
rop ical
W A
T wo
if ts
ut enant
st op
Ġb omb
Ġres ident
l an
By tes
h u
aw n
Cl ick
EN D
ow a
y ard
Ġpl ants
istr ation
sup er
ĠA ND
Ġm essages
h box
ĠM ir
ip age
Ġstand ards
Ġcon ven
Ġby tes
co pe
ad min
The y
M I
AG E
Ġwhere as
' >
Ġappear ances
` .
Ġcharg es
Ġuncertain ty
reg ion
du ce
iam ond
Ġfund s
Ġre nder
st able
W riter
Ġmot or
Ġjud ge
ĠB and
? :
it ivity
ang o
ĠW he
display style
C re
M eta
=" "
ost er
igr ants
ĠJ SON
Ġop inion
ĠE very
B R
Ġaspect s
ĠC P
Ġb ond
che stra
ask a
l at
Un iversity
} &
ĠPol icy
Ġh uge
10 1
Ġscatter ing
Ġd anger
Ġconstit u
ĠDes ign
j pg
ĠB ad
m o
Ġc e
An y
onom y
Met adata
Ġex clud
ri or
Ġsh op
not ation
Ġlist ing
ĠS uch
Ġinfin ite
z z
Ġus ual
ĠK im
Ch anged
[ (
Ġexpl an
ĠC ount
) +\
ĠAir port
D elete
Ġneg ot
Ġfac ulty
Ġdirect ory
Al though
Ġtr igger
St ep
S ION
min ipage
w orth
Ġcop ies
ĠM ult
m ass
C RE
Ġmot iv
is er
ag a
Ġfac ility
Ġveh icles
Ġfin ish
Ġs an
A v
ĠTr ust
A ME
r ase
ĠJes us
H is
k g
p ot
F ix
__ (
ĠN az
ĠM arg
Ġexper i
Ġinstall ed
Ġang ular
og en
Ġop posite
d y
Ġposs ibility
ĠIn f
AC E
L em
Ġo s
Ġhigh light
Ġag greg
em ail
s ince
Ġ\ (\
Ġturn s
per or
} }$,
19 37
ĠS ydney
) -\
Ġpass ing
M usic
Ġsup erv
qu arters
ĠAn y
F inally
ĠV alue
ogene ous
Ġtr av
Ġcomp r
Ġ ),
Ġin her
ĠA venue
ĠI l
port ed
pl ugins
up s
ĠN OT
Ġinteg ration
ĠM A
Ġr ich
ord an
os a
N etwork
} }$.
b at
Ġhe ar
ĠR od
=" /
Ġrefer ences
C ap
: }
bour ne
Ġcon j
ĠD own
En abled
Ġb right
m argin
Ġbr ain
Ġcon vers
add r
Ġh our
On ly
R ender
Ġwon der
ĠA sh
em an
Ġsol o
Ġsol ar
w ing
ĠA L
Ġcaus es
g ency
cc cc
Ġcont emporary
Ġte le
Ġextrem ely
' ))
ĠBe ach
ĠMin nes
@ "
os es
Ġexper t
ur ches
Ġh ole
Ġsupport ing
Ġv otes
Ġtri p
D oc
Ġ ener
ĠI V
Ġloc ally
arr ing
Int roduction
ĠCamb ridge
Ġl um
ly wood
ap ore
ĠI O
am er
ĠF ire
Ġport ion
Ġin n
Ġfind s
Ġatt ributes
Ġag ency
Ġrest aur
Ġd og
ĠE rror
ĠDav is
ult ane
Ġd oll
ĠS ant
ĠE U
Ġre nd
ĠĠĠĠĠĠĠĠĠĠĠĠĠĠĠĠĠĠĠĠĠĠĠĠĠĠĠĠĠĠĠĠ ĠĠĠĠĠĠĠĠĠĠĠĠĠĠĠĠĠĠĠĠĠĠĠĠĠĠĠĠĠĠĠĠ
Ġscen ario
Ġconstit ution
Ġc row
ĠMinnes ota
ps on
co in
ades h
LO C
R ule
an z
ĠL abor
$ };
ĠW ho
dom ain
Ġregister ed
Ġcorn er
B it
Ġentire ly
ĠPhil adelphia
inst all
call back
Ġdes ired
Ġjust ice
Ġ< =
ĠP ers
Ġin duced
Ġsk ills
ĠS a
ĠL O
Ġhe ro
FA ULT
Ġs ell
em et
param eters
Ġdr iving
il bert
rec ord
li k
ĠW at
} )$,
Ġtem por
Ġent ries
Ġar ts
Ġcolumn s
ĠTur k
ĠA N
Ġcer em
ĠWis consin
block List
Ġrelig ion
) ),
Ġre action
p ic
ĠEngine ering
ĠT ext
ĠAnt on
IT Y
! !
w all
Pro p
key s
HT ML
oc ate
Ġop position
W idget
con v
Ġbal ance
g ment
rad ius
r at
D el
Ġf iction
By te
Ġen able
sp ring
od ec
Ġmusic ians
R oot
un es
Ġclust ers
op ic
Ġd ance
ĠW ars
ĠL ev
19 19
ĠO t
Ġscal es
ĠB al
,\ ,\
M edia
Ġpattern s
d iff
Ġl icense
ack s
Ġchalleng es
Ġcomput ational
Ġz one
Ġrecomm end
ĠDes pite
Ġresult ed
Ġ ^
C ustom
ĠD oug
ĠN etherlands
Ġc ategories
ĠĠĠĠĠĠĠĠĠĠĠĠĠĠĠĠ ĠĠĠĠĠĠĠĠĠ
force ment
Ġse ats
per iment
maz on
12 5
ĠK ir
X T
Ġinstit ution
ĠU ser
l arge
Ġperform ances
G en
sq l
ĠA li
Ġclos ely
Ġcon vent
ĠD ig
Ã ¸
Ġst ability
ĠN C
Ġterrit ory
Ġc art
Ġoffic ially
ĠG ro
ĠN O
Ġext ensive
ymmet ric
Aust ral
Ġcalc ulation
Ġcalcul ations
Ġexplicit ly
Ġsc ulpt
iven ess
ble m
Ġta ught
proto buf
Ġmon itor
ĠK el
au x
T im
Ġassert Equals
iv ery
Ġe q
Ġde leg
Ġrece iving
Ġanim als
p res
Ġre pro
N ov
Ġelectron ic
Ġg ained
ĠS anta
is lation
ĠAn th
ĠSt eve
j ar
Ġwe ights
Ġtra ject
t w
Ġwe alth
}{ |
Ġex cell
Ġpublic ation
v s
agn etic
T A
Ġcoordin ate
Ġcompet ed
in er
V ideo
ĠA ction
Desc riptor
, $
II I
Ġtre ated
f ly
ĠSt adium
D I
ĠE ll
Ġf ashion
Ġcalcul ate
v ard
Ġvari ation
Ġat mosp
Ġ ion
19 35
ater n
ĠCoun try
ĠE nergy
riz ona
Ġ$ |\
p erson
Ġsp ons
Ġamplit ude
Ġcamp us
Ġco inc
Ġcomput ation
ĠR oute
Ġc amera
ul i
OD O
ĠG er
ĠL ocal
i ated
H igh
Ġc ook
Ġj son
ill ing
circ le
ĠRe al
emet ery
ĠHT ML
) }}
ri e
$ ),
d em
Ġsil ver
19 33
new command
P ool
ĠH om
Ġ( *
tog gle
ĠN umber
Ġnam ely
ĠF ox
con g
19 14
ĠL ast
ĠDu ke
Ġattempt s
arg ument
Ġcan cell
}( {\
Ġappro ved
clus ions
n etwork
w orld
Ġcomm itted
ĠReg iment
Ġconcern s
ĠH un
ĠFore ign
_ -
Ġmunic ipal
ĠEx ecutive
Ġtit les
}$ )
ĠA re
F N
) )$
ĠAff airs
The refore
Ġsch olar
av or
Ġor bit
St orage
Sec urity
Ġdo ctor
ĠV en
poss ible
ad ed
ex ists
Ġrob ust
ann a
19 17
) }_{
rit ical
S outh
ĠM ond
Ġintrodu ction
n umer
Ġfight ing
Ġpart nership
ĠB att
ĠA rea
B B
es ian
Ġb urn
ic ian
ut t
ĠN on
Ġsu itable
Com par
ĠBr ig
Ġnot able
igh th
Ġext ent
Ġab stract
Ġpl us
Ġsub group
Ġsuff ered
Ġconv ex
ĠH ard
Person al
Ġfl uct
pl om
n one
P ackage
ele ase
In ternational
L ock
Ġ[ \
Ġkey s
ĠR on
AC T
Ġs ym
uss ion
Ġun able
Ġacc ident
ff ect
Ġsupport s
Ġhold ing
ex ception
Ġd rawn
Ġaccur ate
ach ment
Ġcont rolled
Ġpro jection
Ġcharacter istic
pro file
ĠEn vironment
Ġpar liament
ag an
] }
import ant
Ar ch
18 0
Ġw ants
st ances
Ġpret ty
et ing
r ang
att ribute
L C
erv es
Ġe lev
ĠU RL
reg on
Ġent r
pro perties
Ġpi eces
Ġfact ory
ĠColor ado
Ġalleg ed
CT ION
D ist
ĠS ab
ĠL ike
J ECT
Ġsp ring
I E
i pe
Ġthous ands
Ġeval uate
Ġdatas ets
Ġexpl o
Ġbu y
Ġbusiness es
al ion
Ġpath s
Ġparticip ated
Ġir re
ĠA z
Ġcr isis
rib ed
w eg
; <
Ġr ain
Ġm ock
ur is
ĠTur key
S m
c ert
KE Y
Ã© e
ĠS che
Ñ ı
ob e
Dis play
sec urity
Ġcred it
Ġf lex
Ġlet ters
ĠB udd
ĠL es
Ġscal ing
est abl
sc reen
] ]
ĠM ill
iz able
Ġthe ories
ĠS ym
Pat tern
Ġprot ocol
}{ (
Ev ents
Id ent
Ġcon nections
at on
ĠS U
` ,
Ġbl og
ĠE th
19 29
Ġex ponential
Ġsp ot
Ġesc ape
ĠL ady
ĠUkr aine
ĠSpr ing
Ġor th
19 00
M ock
Ġult imately
Ġstat ements
ĠOb serv
ĠH ay
Ġret ire
ĠR aj
Ġwin ners
ĠT ok
ĠAb out
con nection
Ġdet ected
Ġtr ace
S end
="../../ ../
ak h
ĠW in
Ġsign ature
Ġa head
ĠS aturday
Ġr aces
Ġhost ed
F ram
p red
and y
Ġinst ances
ch annel
Ġex ceed
c pp
i ations
Ġfrequ ently
p ay
ĠL ind
ĠChild ren
Ġd ust
ist ant
ĠCon f
sk i
J o
hed ral
Ġinj ury
Ġqu adr
e en
Con n
ĠBr idge
co q
19 34
AA AA
Ġle mma
Ġdom estic
com ponents
Ġaud io
EC K
ĠP aram
ĠBook s
Ġindic ated
Ġm obile
R est
Ġref ers
Con st
th read
Ġconsequ ence
u ating
are a
ĠAtl antic
Ass ociation
Ġmount ain
pl ot
Ġar ms
VAL UE
Ġbro ken
Sh ow
ĠĠĠĠĠĠĠĠĠĠĠĠĠĠĠĠ ĠĠĠĠĠĠĠĠ
Ġdocument ary
&= &
Ġtw enty
Ġopport unities
Ġab andon
j an
Ġcon sole
Ġtherm al
ĠC as
ad ian
ĠP age
Ġdis crete
Ġfound er
is ely
ĠH ind
Ġsum mar
annot ation
Ġv ice
Ġbehavi our
Ġpred icted
le an
Ġph one
Ġeffect ively
Ġv ot
ĠG ree
ĠB all
R R
uck et
Ġg ender
ĠFr iday
V ID
al gorithm
ennes see
ot on
er ial
Ġyoung er
w hen
Ch annel
Acc ount
ĠC ase
Ġch ampion
is a
Â °
includ ing
ail ing
Ġen abled
ĠEx t
i Ã³n
Ġop posed
Ġdefe at
Ġreturn ing
In v
M atch
h l
are st
ink ing
L eg
= >
Ġsatisf ying
Ġben ch
G O
t otal
cm d
) [
I con
ĠG reg
ct rine
os l
less sim
Ġrequest s
Ġout er
Ġg irls
Ġapp lying
Ġcover s
Ġpurch ased
e ach
plic ity
ĠS on
ĠC opy
RO M
c oh
m ad
Ġ" /
Ġthan k
Ġv ision
M OD
F R
19 32
ĠB ol
av ity
Ġexp atriate
Ġstat istical
ĠMiss ouri
Act ive
ĠIndian a
enn a
19 28
Ġw ing
Ġtown s
ĠT y
ĠAd v
hent ication
ĠRes ult
al ty
Ġconvert ed
ĠQue ens
par agraph
Ġcoeff icient
ir ty
Ġequ ality
d frac
ĠL ive
g ies
19 10
ph ys
Ġcontr ad
Ġne ural
ĠInd eed
Ġden oted
Ġv ess
ĠLew is
ĠM ilitary
Ġconsist ing
ide os
ĠD er
ĠD C
B est
Ġf uel
anc el
Ġenc oding
or row
ĠĠĠĠĠĠĠĠĠĠĠĠĠĠĠĠ ĠĠĠĠĠĠ
Ġint elligence
ĠT ask
ut ed
Ġthink ing
ian g
ic he
g eneral
ĠSh ort
ar iance
Ġf resh
uc ial
f old
im it
ord on
Ġm yst
Ġ{ $
Ext ension
Ã º
re ll
et ies
tx t
j oint
Ġend ing
lim it
tain ment
Ġw allet
ĠK ansas
c are
ĠD ist
Ġ rom
Ġdec isions
Ġarrest ed
D av
s ol
I MP
iz on
H L
end ment
ĠV ersion
ĠD am
ĠGold en
W indows
fg han
est ion
item s
: =
Ġconf irm
Ġnov els
,\ \
Ġf ish
l oop
ĠN iger
Ġbig gest
Ġtop ic
" |
pass word
ĠMary land
Ġr aw
ĠCol lection
P res
Ġinvestig ate
osc ow
ess ions
ĠIn vest
ĠIn itial
\ }$.
S cope
Ġhousehold s
l ate
Ġrespons ibility
Con d
form er
ĠT al
Ġjav ax
J ob
Ġin fer
Ġab und
Ġtrad ition
ĠW el
ne ver
ĠFore st
D T
it ative
C M
st ats
Ġp iano
Ġsim ultane
rupt ion
ist ence
Ġs ac
w ords
b ian
Ġleg islation
ur ations
ibli ography
Ġl osing
f all
Ġpain ting
Ġcon clusion
ik a
ar ity
Que ue
h ow
Ġe c
ĠSt ock
ĠB ishop
Ġver ify
M ENT
oun try
Ġpers pective
\!\! \!
Ġdo or
ĠAdministr ation
Ġr ational
Ġa id
FI LE
)) )
Ġdrop ped
Ġap art
Ġh abit
Ġm ist
eli hood
Ġphot o
AR Y
u um
ĠCE O
out s
Ġbut ton
Ġt ail
ĠSwed ish
ĠHol y
In it
ĠSwed en
web pack
uns igned
ĠG allery
ropol itan
com plete
p ur
ĠW inter
J SON
ĠDon ald
Ġlook s
Ġst one
Ġind ependence
Ġp un
Ġestim ation
ĠAg ain
Ġcertain ly
Ġprofess ion
G raph
ch or
in ating
ĠS at
Ġnecess arily
Ġm and
ĠV i
Ġvis ited
ĠT ai
Ġsufficient ly
ur r
cre en
Ġb odies
Ġbi as
ĠN orm
ĠCom put
er ior
m ove
N G
ĠTh rough
ĠE lement
Ġprom ote
ĠIsrael i
ĠA thlet
Ġsequ ences
Ġd b
Ġrepresent ations
Ġcont ribut
Ġarr ang
Act ivity
}\ ,\
Ġc ab
U LE
Ġse vent
st ood
ĠA D
s ite
F S
%% %%
rec ated
19 22
ivers ary
}} _{\
() {
ĠMed al
ĠH o
Ġpers ons
ut her
ĠF inal
Ġd ream
ev ents
Ġgreat est
Ġl iqu
[ :
Ġinter section
ĠSing apore
] :
Ġpre v
Ġdec ade
MA X
Ġre named
F ollowing
J an
Ġstand s
ĠBr ad
enc ing
Ġcont est
Ġpract ices
ĠM oh
% ,
Ġcomput ing
Ġv ir
Ġautom atically
Ġe ye
TE ST
Ġst orm
Ġfl ood
ĠH art
=" @
19 24
19 31
$ :
Sy mbol
Ġd ire
ĠCon nect
Sym fony
Ġtit led
Ġpar ish
Ġh tml
U nder
Ġsepar ated
ĠP it
cond ition
m ock
Ġent ropy
' d
Ġr ig
Ġh ol
") ]
ĠFace book
Ġm ental
. *
out heast
clos ed
Ġd uration
ĠDef ault
Ġocc asion
ot ional
ĠO regon
e lect
ĠW rit
ast y
ft ware
Ġtrans mission
pl us
ĠPrem ier
Ġrad iation
Ġp apers
Ġsampl ing
ĠMem orial
ev in
Ġrev olution
Ġport ray
Ġhapp ens
Ġgener ic
Ġrelationship s
Ġweap ons
P erm
Ġresear chers
Ġro y
Ġcompos er
ĠT urn
the less
us hed
ĠA rizona
child ren
Ġf estival
ĠM unic
ĠM iller
^* $
P AR
ur d
ar ry
Ġl icens
ĠN a
ĠC A
ĠN ative
Ġinv alid
ĠBro ther
pl ane
Ġbul k
; /
Ġinter act
H ome
Ed itor
Ġm ir
ĠC zech
19 27
Ġs un
Ġ\ ]
Ġl it
ĠCh annel
Ġinteg rated
> \
ĠB et
at ar
ĠAr thur
ĠLe on
ĠM ari
im pl
ĠT oday
ĠAnd erson
er al
Ġpre ced
Ġarg ued
n n
Ġcor rel
}[ \
Ġp od
ĠPr inc
Ġconst ants
Ġv ent
Ġn g
eng ers
ĠR ose
] $.
plic ated
Ġconcern ed
Ġent itled
L java
Ġinter ior
ĉĉĉ Ċ
k ing
unn el
Ġinst ant
ly ph
Ġse ed
ĠIslam ic
u y
v als
Pr int
Ġd ict
Ġmax im
N C
ĠAd am
Ġm ent
) )\
O pt
secut ive
Ġjournal ist
S pan
Ġin verse
in ction
ĠAss oci
M any
T ele
ap l
Ġpresident ial
M ember
Time out
Trans action
Ġsch ol
om ent
ĠF alse
G A
Ġ( .
Ch rist
Ġvol unte
Ġhom es
ĠTrans port
ĠF ord
Ġd ialog
Ġm sg
Ðµ Ð
ĠSup port
Ġassum ptions
19 21
ap h
aly t
Se lected
ang a
Ġeduc ational
() ).
c raft
th rows
ure au
ouri er
m n
pr imary
ĠJ oh
19 23
Ġs izes
ĠT ennessee
ĠH ou
ĠT er
ok es
Ġdeb ate
Ġengine er
int eg
ĠF unction
ĠInd ones
f ix
Ġident ical
ĠA mb
og ram
Ġfav our
Ġn ob
art icle
Ġinstance of
ock er
se ason
ĠViet nam
Ġs ale
Ġparticip ants
om ot
anc ell
ve e
Ġschedul ed
ĠI mp
bu ilt
Ġgovern or
Pl ay
ele gate
Ġsp an
br id
Ġinterpret ation
Ġc m
l ook
weg ian
Ġpat ient
ĠCap tain
ĠĠĠĠĠĠĠĠĠĠĠĠĠĠĠĠĠĠĠĠĠĠĠĠĠĠĠĠĠĠĠĠ ĠĠĠĠĠĠĠĠĠĠĠ
B as
Ġal ter
cont roller
Ġle ct
ag ues
ant om
i em
Ġaccount s
Ġsw im
ĠMar ia
$ _{
Ġch apter
Ġd iver
Ġm arg
Ġher self
ag en
Ġgl ass
t frac
Ġdecom position
ac count
un ately
Ġcar bon
Ġsatisf ied
ĠOn ce
op es
let ion
br ace
Ġw el
ĠC are
% .
U L
Ġar c
Ġd ro
Ġb ow
Ġsup posed
SS ERT
Ġatt orney
Pro xy
Ġequ ilibrium
Ġexper iences
A nother
ST ATE
Gener ic
Ġdown load
in ator
M ost
19 12
Fl ags
iv als
ĠAl f
Ġlow est
ĠTown ship
Ġgu ard
ell ite
over y
m ers
Ġsubject s
Ġw ish
Log ger
ĠS av
ĠO cean
ĠSur vey
s a
ĠI mm
we alth
ĠR a
Ġt urb
ï ¼
ĠSt art
b les
eng ine
bm atrix
Ġadj acent
Ġstr ings
19 25
sc roll
Fl oat
ef e
H R
Ġr ugby
Ġrough ly
\ ;
Ġso le
ĠV AL
Ġneut r
13 0
pos itory
ĠMount ain
ro le
os itory
T ABLE
Ġde ploy
que ue
Ġmix ing
[ -
Ġs ought
ĠR oss
ĠH al
Ġdec or
Ġb tn
Ġoption al
s ave
ĠG iven
se lected
ĠMex ican
A ng
iffer ent
Ġillust r
Ġprep ared
amb ig
& #
config uration
ĠInst ead
H ER
ĠJac ob
Ġcharacter istics
W omen
ĠV ice
Ġres c
qu es
G erman
ĠB ush
ĠM oscow
] $,
ĠS ign
drop down
T erm
Ġpract ical
Ġdistrict s
A nt
S QL
Ġlink ed
Ġc atalog
ĠB efore
) --
Ġex cess
A uthor
Fil es
Ġf an
ĠL iter
ro it
\\\\\\\\\\\\\\\\ \\\\\\\\\\\\\\\\
ĠL ow
| }{
Ġy ards
col n
Ġap pend
ĠP M
un ing
V M
Ġh all
ul ating
Ġpredict ions
ĠS quad
f ire
ĠC art
Ed it
ty ped
$ /
h ome
empty set
ĠCast le
ĠF ederation
G P
our se
ĠChar l
ev al
fri end
19 26
v o
Ġl ists
Ġe le
ĠSt ory
Ġcover ing
Ġrank ed
ĠO s
19 15
ch a
Ġexpl ore
w estern
Ġw arn
Ġw arm
och astic
ĠIm age
Ġlist en
IC E
Ġlo an
ic ide
ic ians
math op
F rench
ul se
Ġst ored
mer ce
Trans port
Ġt rib
ow nt
Ġabs ence
r as
Ġkill ing
Ġt ab
19 16
==== ==
Ġthe rap
ĠN et
7 00
ĠA M
d p
}} )
Ġdepend ent
S pace
Ġre new
ĠH an
us al
to ols
Ġprogram me
ĠB S
ĠR est
reg ular
ĠP ier
Ġd imensional
ound ed
O wn
ĠA fghan
Ġperman ent
Ġderiv ative
Ġunivers al
Ġex pos
B el
ĠCont rol
F unc
Ġus age
Ġg one
be an
S em
ĠK al
s ample
Ġrem ote
ĠSt aff
it ational
" `
Ã ¢
Ä į
ĠMed icine
j query
Ġe yes
c over
ĠP ath
n ight
Ġan imal
Ġaff ili
Ġconf idence
Ġatt ached
iss ip
Ġsent ence
ĠCol on
key word
ag h
Ġjourn ey
ĠAp pendix
ĠM un
Ġg ate
Gr id
": "
ĠN ext
ĠHar ry
Ġhot el
Ġessential ly
pro b
Ġdesign ated
Ġref used
olog ists
ĠOff icer
ĠS I
Ġj ump
}) }
ĠMod ern
ĠA h
is or
Ġd a
et al
Ġcustom ers
c b
Ġsign als
sequ ently
r andom
Ġhand ler
Ġfill ed
in ian
Ġcommun ic
Ġbrief ly
ĠLab our
ĠPhilipp ines
put ation
Ġc as
big l
and o
t or
ad i
Ġcomb at
Ġcomplet ion
assert Equals
ĠE P
ul ator
Ġdi plom
_ ->
Ġag encies
z y
z one
Ġl yr
ĠPhil ip
ĠL td
if iers
Ġexperi enced
Ġscen es
Char acter
Ġcollabor ation
Ġch airman
igen ous
Ġapplic able
ro g
up l
in us
G N
Ġcomm ut
P anel
or iginal
um a
Pro of
ĠD at
wit zer
ĠJ ordan
Ġimmedi ate
! \!\!\!\!
k h
ĠC ost
anche ster
Ġc ref
sche ma
Ġprec isely
B M
Ġs oci
Ġrel ax
ah oma
ĠComm un
ibr aries
ist ing
ĠB at
ear s
Ġbur ied
Ġ[ ];
ĠInd ex
Ġ ^{
M sg
ĠF ellow
Ġm el
Ġm ach
el lect
Ġattempt ed
ĠD or
Ġc old
script size
Ã© s
ĠN ever
W rit
rop ic
Ġworld wide
ĠA ge
Ġl ay
Ġw alls
F ull
Ġwe ather
ou red
Ġint ensity
v ature
U ID
Ġw rest
Ġm ys
VER SION
w ick
S ong
f ol
Ġ% }
ĠN E
ache lor
inem a
ential s
Ġaccom pl
am ing
G iven
( !
inc ial
r ank
sum er
Comm on
ab ama
M atrix
Ġcont roller
ĠComm unic
as et
H C
Ġembedd ing
nt ax
ut ies
Ġsomew hat
ĠRepresent atives
G R
s at
ĠO ption
big r
Ġ rows
Ġcos m
-> _
az a
ĠC ab
Ġcon secutive
Ġfr ag
Ġinfr astructure
Ġthe atre
anc hes
witzer land
ĠB arn
\ /
A uth
Ġfem ales
Ġb ought
Will iam
[ $
T L
ĠU l
Ġca ref
Ġprodu cing
Ġgrav ity
ĠFr ont
column width
Ġpro pose
ĠS O
ĠS af
ship s
re ens
Ġab use
Ġmax imal
Ġstand ing
Direct ory
ĠW ed
ĠJ ava
sl ant
Ġgu est
t i
S ources
( __
are n
Ġnot ion
Ġas sembly
sc ious
Ġhum ans
Ġstrateg ies
u j
ĠF ac
ak ed
)) );
off s
ĠS M
Ġvict ims
Ġsust ain
Ġreject ed
Iter ator
form al
######## ########
ĠP erson
Ġp lease
spec ial
pr ise
res p
Ġexecut ed
ov en
Ġreason able
cer ning
Ġsc oring
Select or
ĠI owa
Ġb undle
Ġl ib
Bi ography
ort ion
ĠE nt
l ayer
Ġimplement s
mon th
Ġnom inated
}) =
____ ____
Ġbeaut iful
over ty
Ġsh ares
ĠHigh way
ĠGr ant
It ems
ĠB alt
Ġsec ure
_ ,
ate ver
ĠA mazon
ĠR ow
Ġcont ributed
od ox
Ġw inter
ic ular
ĠD ir
ov es
Ġold est
Ġmet rics
ĠP ot
f ixed
he red
ĠNor way
SI ZE
ibr ation
v ari
Ġscient ists
b p
Ġmult ip
tikz picture
! \
ill ery
ĠRes ource
Ġqual ified
Ġhypot hesis
Ġext reme
ĠAr k
ĠW indows
LE CT
Ġtalk ing
ĠT R
ast e
it i
ap el
ile y
assert Equal
R oute
p ression
ib ilities
Ġlaw yer
* )
, {\
ĠJ ane
S eg
Ġcl ients
Ġbre aking
ĠBuild ing
Ġstri ke
Ġw ins
ens es
Ġmat ters
ĠMag azine
F inal
}} .
Ġenc ounter
Con str
Ġfl uid
Ġder ive
m al
Ġtemper atures
p air
ĠL ear
Pro file
Not Null
Ġcan onical
Ġdi agonal
ĠO ak
ON E
ph ony
Ġin h
ĠAm ong
ĠT ony
d on
Ġst ages
ĠBar on
Ġexhib ition
Sc roll
P ATH
W est
Ġsh ut
ĠG h
Ġcomp re
ant e
H er
Ġpropos al
LO G
Ġv irt
Ġs urn
ĠG ib
Ġp ed
++ ;
Ġoccup ied
Ã¼ r
re lation
By Id
Ġmanif old
ĠFre der
P D
Ġclass ic
con str
Ġexpress ions
Ġmark ets
Ġl ayout
Ġhe aring
Ġen emy
ee k
Ġimprov ement
ĠN ick
ee per
Ġex port
ill ed
Ġsk y
Ġbuild er
Ġvoc al
ĠL ink
g it
ĠS E
Ġvers us
f ail
Ġtr ivial
Det ails
() ));
br as
ĠS D
Ġd ens
l iving
J ava
Ġpurch ase
Ġmov ies
ĠSe ver
ick ing
O lymp
kl ahoma
Ġcol our
Ġor b
Ġrestr icted
In s
Ġcrit ics
Ġir on
ĠRec ord
Ġf unc
ch ant
Ġhor se
ĠM it
Ġfound ation
Ġcriter ia
Ġconclud ed
ual ity
Ġf aced
ĠL o
T ax
ĠW y
Ġtarget s
ver b
ou st
Ġcontrol s
Ġjo ining
ĠKent ucky
d ash
Ġb an
Ġj et
c ers
ĠR oll
Ġv eter
Ġy ellow
Ġdemonstr ate
ĠB rian
Ġbrother s
Ġunder stood
g ame
Ġref uge
Ġins urance
Ġoper ate
ĠD ue
ĠMal ays
ĠSen ior
com es
Ä ĥ
P e
Ġsee ing
Ġassist ance
ĠS ky
y ers
Ġh ierarch
Ġclos er
Ġpil ot
Ġcomp ens
ĠB O
ĠE u
Ġbr on
Ġheav ily
Ġcirc uit
Ġappe al
s quare
ix els
ĠHol lywood
ari os
Ġteacher s
L IC
Ġex it
/ (
ĠMel bourne
19 13
. __
ir ation
ĠB an
he im
ĠD ark
Ġres istance
Ġposs ess
ret ch
or ient
ĠDef ense
Ġgrad uate
Ġdom inant
Sum mary
f ast
Ġd ense
Ġmom ents
!\!\!\!\! \!\!\!
ĠEnter tainment
ub ble
Ġdis miss
Ġmov es
ĠS ri
N T
Ġfl ows
ĠSim on
ĠS ix
Ñ ĭ
Ñ Į
Ġs and
ĠDi ego
Gl obal
ĠE s
Ġd uty
l ay
Load er
ur st
Ġcont ribute
ang el
ĠBase ball
Ġregard ed
Ġun iverse
Con f
Ġbro ke
ĠL android
Ġphot on
ĠB or
Ġbo ost
ows ki
ĠM icrosoft
ĠB ah
fig ures
ÃŃ a
type of
ten ance
ud den
ĠAl bert
Ġhelp ing
ĠS C
Ġbring ing
Sh ort
long rightarrow
v art
ra it
D est
Ad apter
FF FF
Ġdemonstr ated
ĠâĢ ¦
sing le
Ġ[ [
,\ !\!\!\!\!\!\!\!
Ġgood s
h idden
Ġb ed
od s
B L
Ġp refix
con tains
ab et
Ġto wer
ĠT el
Ġint ent
Ġf n
Fe ature
Ġperiod s
Ġmembers hip
Ġcomp lement
Ġdeliver ed
ag g
$ &
S cale
ig ious
}} }\
Ġinvolv es
ĠAg ency
ĠA S
ĠGree ce
st an
is en
Ġne ither
Ġprom pt
ol i
}) ^
F IG
.. .,
re nd
had oop
ĠUp date
}} ^{\
F in
h av
Ġeng aged
D ouble
el ve
k w
Ġv ideos
ĠM att
ort heast
iam i
ĠPe ak
Ġk ids
aw are
ĠStand ard
up load
Ġthan ks
ic ing
Ġd ates
Ġpass es
Ġlum inos
ir th
Ġsucceed ed
NavBar Cell
Ġneut ral
tr ivial
ip her
Ġlook ed
_ (
Ġfil ed
ĠB ab
Ġk id
ĠH as
Ġkeep ing
ĠT a
ues e
cl ine
Ġcap able
Ġsepar ation
Ġdirect ors
in th
H ence
Ġch ose
Ex pr
hen sive
s ys
ic ut
Ġnon linear
p ubl
In ternal
ĠMond ay
H on
act s
Ġsett led
Ġent ertain
i ota
N orth
Ġcl ock
A wards
app ly
w ill
es ides
Ġre aching
hor izontal
atur ally
fl ags
Ġcour ts
Ġad vent
Ġa wait
Ġst arring
St ar
ĠN ode
A E
Ġquant ity
print f
19 11
Ġnav igation
Cl ose
t ensor
Ġdep ict
Ġprote in
ĠH op
M er
Can adian
Eng ine
pl an
Ġcaus ing
in her
Ġcons ervation
Ġp m
us cript
Ġdef ines
urs day
Ġcon version
P y
ous es
Ġspe aking
ĠN AS
Ġro ots
Ġin ject
Ġrequest ed
Ġquant ities
I mp
d am
avel ength
Ġexplan ation
St and
n ie
hand ler
Ġf aster
ĠLin coln
sl ash
Ġincreasing ly
man ager
Ġc odes
n il
osp it
M AC
Ġhel ps
Cons ider
ç ļ
ĠGu ide
an im
Ġ" "
Ġstop ped
ish ment
ii i
Ġinput s
Ġdest r
P M
Ġsur g
Ġacc used
ict ional
Dat abase
Ġman agers
it ics
pt ic
ĠAr g
BU G
00 1
Ġeduc ated
N ULL
Ġsc ores
Ġener gies
en z
ĠJ unior
t mp
Ġcent uries
Ġsub sid
W N
Ġwrit es
Ġparticip ate
Ġemploy ment
ch ain
Ġmay or
Ġs ynchron
Lem ma
}_{ -
Ġair port
ĠAust ria
Ġsup por
Ġprinc iples
f c
b urn
Ġsix th
Ġmaintain ed
ene z
issip pi
ĠC ape
ĠAl abama
//////////////// ////////////////
Ġvill ages
ed itor
ĠT witter
ĠD ick
g ar
ĠSt one
Ġleg end
1 12
ut f
Ġrad ial
ĠFor ces
Ġv oted
pro fit
m ont
ĠDo ctor
Ġind ices
M c
ow ed
Ġoffer ing
Ġdr iven
ĠF red
ĠN av
ut able
log ger
ues day
col lection
gress ive
Ġc arri
Ġoff ices
pl es
Ġm ort
ĠC R
U C
Mem ory
ĠK at
ĠK han
Ġprec ision
Olymp ic
Ġdom inated
Ġprom otion
$ {\
Ġcircum stances
in cess
Ġfl ags
ident ifier
nes day
ĠCon fig
ĠS witzerland
get Name
Ġhead quarters
ĠA ccess
Ġas sets
ĠF ame
al gebra
L ife
Ġmagn et
Ġpercent age
ĠBl ock
Ġgu ide
ĠHow ard
] {\
Ġv o
to ol
ĠHe art
ar on
Ġst ores
G ame
Ġcharacter ized
ab out
Ġ} }
O ct
Ġad min
e cho
uer to
Ġanaly z
Ġconcent ration
ok ed
Ġ io
ĠReg ional
el son
Ġdecre ase
Ġtop ological
Ġdisplay ed
çļ Ħ
ĠA ud
Ġ} {
Ġc ryst
ĠĠĠĠĠĠĠĠĠĠĠĠĠĠĠĠ ĠĠĠĠĠĠĠĠĠĠĠĠĠ
Ġp ars
ĠS ound
w as
Ġprov ision
i ary
Ġphot ograph
ĠB ureau
ge bras
qu ant
Ġsens itive
T otal
ymmet ry
Ġcol ors
Ġ ip
Ġm ob
33 33
Ġfeed back
S Y
Ġrespect ive
se m
dep th
S pe
Ġhapp y
Ġgener ating
Ġg ar
][ ]{
\ }$,
Ġvar iance
ĠHou ston
IP T
Ġdiscover y
UT F
Ġenh ance
Ġmedal ists
atter y
ĠPat rick
Ġcrow d
Ġprem ier
ĠS quare
ĠF a
ĠDis ney
ĠD ream
cl uster
ĠR oy
ĠC ook
Ġestablish ment
play er
ens is
Ġass ault
ch anged
ex pect
ĠR ight
u able
ĠAll en
Ġdis appe
Ġproper ly
Ġtest ed
ĠJ am
Ġr acing
Ġpop ulations
\ }\
Ġh air
Ġs ons
Ġm es
Ġe lem
tr ace
ĠP ut
Ġprodu ces
Ġj uris
ĠB os
ĠH ans
ĠPro cess
ĠV o
the re
Ġstudy ing
}$ }
J apan
Ġassum ing
Ġanim ation
m ask
ĠÃ ĥ
Ġadapt ed
Ġ( _
aud i
ts d
ov ing
ĠTh ird
b g
=" ${
Ġapproxim ate
Ġrequire ment
F M
Ġm al
pos ing
ac on
Ġf ul
Ġw ire
Ġfr agment
Ġb os
Ab stract
L ayer
Ġdis p
Ġshort ly
Ġf olk
ĠA P
Ġinter mediate
Ġindic ating
nap shot
Ġo k
ĠH ash
Ġf ant
Ġqu ark
ann y
Ġcr ucial
sub sec
ĠDe ath
Ġsp ac
ĠM anchester
Ġgeneral ized
S ur
Bl ack
Ġd x
Ġinv ited
Ġbound aries
ĠMar ine
? âĢĿ
Ġf erm
190 8
ĠW ind
ĠI R
Ġacc ord
M iss
- (
el and
Ġtr ains
Fil m
Ġdire ctions
C red
h ide
tr igger
1 15
D M
Ġlog ic
Ġattack ed
ĠS to
B ook
Cl uster
Ġcorpor ate
Ġfac ilit
ĠB urn
W R
ĠZ h
Ġinflu enced
s is
par a
ili ar
ex ternal
ab ric
ĠP ope
ĠE ric
a ired
Ġk il
Aut o
Ġretire ment
Ġsche dule
ĠM S
at iv
Ġd iverse
enn y
Ġbelong s
w ho
Ġneigh bour
ĠÂ §
Ġsubstant ial
ĠT ODO
ĠM and
ĠM oon
Ġs leep
ex pr
F ail
." );
Reg ion
Ġ> >
Ġl es
X ML
ist a
Ġpost ed
Rep ository
Ġmolec ular
U K
ĠN FL
Ġtr ail
Ġpotential ly
ĠG ets
Ġf ought
Ġch urches
Ġliter ary
l ad
ain ian
ul us
w ich
Mult i
Ġformer ly
ĠTurk ish
Ġa cknowled
Ð ²
Ġ ×
iter ator
res et
ĠN ich
ĠJ ay
S ER
Ġw at
ang ers
Ġcap tain
is ations
ubl in
Ġst ead
id x
Ġfr anch
ĠC ustom
) }_
F amily
Ġperm ission
iss ue
er os
qu ir
ĠMo ore
ĠHar vard
ĠMar c
Ġsp ending
Ġcr ick
l g
ordin ate
P ay
Ph ys
w p
Ġcommand er
Ġhundred s
neg ative
} |\
U D
Ġt ight
Vert ex
Ġvalid ation
Ġclass ified
he ta
Ġmod ules
Ġgener ator
Ġn ations
Ġst ochastic
ul ner
\ |\
ĠG P
Ġfe e
yn asty
ĠR ey
ext ension
Ġh its
Ġcho ices
Ġre ward
Ġb atch
re v
Ġis omorphism
To String
D uration
Com ment
iv ation
Ġvari ations
Ġbron ze
ip ped
ĠĠĠĠĠĠĠĠĠĠĠĠĠĠĠĠ ĠĠĠĠĠĠĠĠĠĠ
ĠL ank
Ġorient ation
ĠWal ter
all as
Reg ister
multi row
Ġg ene
H P
'] )
J S
ib l
oc ese
pol y
ĠN ev
Ġw a
ĠSy ria
Ġeval uated
Ġmer ged
ĠOr th
N V
og ether
Ġim possible
el le
conn ected
Ġlyr ics
Ab out
ass ets
od ge
ĠG ard
me an
Ġfound ing
Ġpoint ed
Ġca ught
Ġpro hib
Ġt ack
ĠUn it
B ibliography
{ %
edd ing
end or
Tr ace
Ġque ue
RE AD
Ġasympt otic
v c
ĠF ood
Ġfact s
Ġview ed
B rowser
ĠO klahoma
Ġm ales
t ags
re pre
) })
ĠD un
by tes
Ġsp r
ĠMr s
Ġaccom pan
olv ing
ĠC urrent
typed ef
; }
Pl ot
ĠJ os
com b
Ġchart s
Ġpres ents
18 90
s ome
Ġunivers ities
Ġown ers
ĠC ulture
Ġh un
ar o
Ġpubl isher
Ġdest ination
Ġb its
is ition
Run time
t iny
Ġmod er
ĠM ake
ĠB h
re present
ik h
Sing le
inst ein
ĠHaw ai
Ġshoot ing
Ġpl ate
Ġdefin itions
oy d
ob serv
Ġs s
IN D
Ġprov ider
ĠT reat
u its
Ġs aved
Ġsign s
met adata
Ġaccom mod
ellect ual
C ategory
ov ak
form ed
De ath
od a
Ġloss es
Ġro of
ĠL ore
Ġpro xy
oc a
Ġcur vature
Ġmed icine
iss on
ag ent
L in
y y
Ġm eta
as ters
Ġexpl os
Ġ[ "
repre ne
ĠHot el
} ~
Ġhor izontal
MOD ULE
T ags
cy cl
r ig
ĠE c
CH ECK
20 23
Dav id
Ġphil osophy
? "
Ġclin ical
T T
Key s
ĠD ocument
urr ican
Pro duct
Ġdrug s
con duct
Ġdi agn
writ ten
Ġcould n
Ġpoet ry
Ġg ather
Ġpo inter
gener ated
Ġadv ice
it ter
E V
S equ
Ġqu asi
Ġmarket ing
on i
Ġbank s
& =\
det ail
ĠB ra
pl atform
Ġappear ing
Ġsever e
Ġemer gency
d ialog
N OT
s n
ĠInf antry
c ross
ct ors
ograph ical
T x
ĠRet rieved
M ich
ĠG all
M apping
ard o
Ġexcell ent
ĠDet roit
g i
Ġdescrib ing
Pl ugin
Ġcoupl ed
ĠEconom ic
ĠT H
Ġl aid
ĠCons ider
id al
Ġ= ========
Ġ$ ,
ign ment
ĠB ible
Ġiter ation
Ġpart ially
ex ecute
Ġanc est
iev al
Ġres olve
Ġdis order
Ġco aches
L i
J ust
Ġl ift
ĠG ordon
', '
Ġst uff
fe ature
ownt own
un ique
Ġpart ners
s witch
it udes
prot ected
Ge ography
b c
Ġph ases
Ġmin ute
Ph il
st ates
Ġdis abled
}} =
C ur
Ġc ub
Ġdr um
pat tern
Ġrapid ly
Ġcomp atible
ĠIO Exception
Ġsp end
Ġar med
ĠTem ple
Ġd iam
op ed
Ġmay be
@ {
10 5
D en
ta h
Ġret riev
GB T
ĠT erm
ĠG ram
Ġcerem ony
ĠAn ne
w ild
Ġign ore
Ġrul ed
Ġv ast
om er
Ðµ Ð½
ud a
Ġsim ilarly
ot te
^{ (\
Ġpublic ations
ĠAdd itionally
Ġch air
ĠSil ver
Ġ( ;
Ġred shift
Sports people
ĠCl inton
L at
Ġ( ),
Su ccess
ri ed
med skip
p refix
om y
tab s
not ag
ĠL anguage
s r
Ġconstruct or
Ġcre ative
ĠG ab
Ġwor st
Pop ulated
k ov
D ay
Ġre q
struct ed
ĠTok yo
Ġap plies
cept ions
ĠCol omb
v ideo
ag u
TE XT
ĠCommon wealth
Ġ ).
O ST
ĠT en
fort unately
in ces
Ġcour ses
Ġpain ter
Ġ{ {
: =\
ĠN ob
Ġp ref
Const ants
Ã ¥
Ġr g
U SE
ĠMat the
l ower
ym n
ir ms
Ġdr ivers
Ġre in
iv a
ĠS in
ĠHarr is
Ġdynam ical
ate ur
et ary
ĠC op
ĠAnth ony
v olume
over s
Ġread s
Ġ\ &
ĠV ideo
Ġil legal
Ġseek ing
Ġhistor ian
Ġde bt
Ġ( {\
b rowser
E st
Ġag ed
Ġd ashed
Element s
ĠL ib
Ġgovern ments
Ġrepl acing
Ġt x
= .
More over
Ġwait ing
Ġcross ing
ĠB uck
par allel
ĠBill board
clud e
Ġb rowser
Ġpen alty
Ġth in
Ġfl o
ĠArt icle
Ġpr ices
Ġeas ier
L INE
o a
Ġillust rated
L R
Ġliqu id
C ent
if def
h ave
ĠT O
PRO C
ĠEar l
Ġexerc ise
Ġsit uated
O UT
Ġp ione
Ġdr ums
oper ator
ĠEm peror
ĠCh all
ĠR yan
OR TED
Ġregular ly
Ġman ip
sim ple
ĠK y
ĠPro t
Ġte en
Ġvot ers
pre v
d ers
ĠN ap
de cl
M r
Ġsimultane ously
Ġfind ings
arg o
ĠMiss issippi
ĠMe an
ĠConnect icut
unn y
ro c
se par
ĠCh airman
th row
as m
Sim ple
o i
Ġcon cerning
th rough
ĠI ss
Ġn a
) ">
Ġdec ide
og onal
IT E
ph an
At tr
Ġdou bt
Ġs we
ol ly
ĠP S
Ġsize of
;\ ;\
ĠArch itect
rang ian
Ġmusic ian
1 17
as p
se q
it ely
k ens
Ġ-- -
14 0
Ġre venue
ĠTele vision
e a
ĠSc ient
ĠPro p
G M
-------- ----
u is
Ġm art
t c
Ġin clusion
im ore
ĠĠĠĠĠĠĠĠĠĠĠĠĠĠĠĠ ĠĠĠĠĠĠĠĠĠĠĠĠ
serv ices
V ariable
Ġground s
form ing
ĠM ic
struct ure
190 5
ĠQue bec
f d
}\ |
Ġsup press
190 9
Ġrecomm ended
Ġspec ify
Ġrecover y
sh adow
Ġa str
ĠB eng
Ġinj ured
Ġsymbol s
Ġcent ers
F E
Ġconfig urations
Ġtransl ated
11 1
Att ributes
d oor
che ll
Ġdesign s
Ġsup pose
Ġun us
Ġp overty
h ist
Ġ{ '
ph ase
re ement
Ġproport ional
b d
Ġg uns
Ġdet ector
Sup pose
leg es
Ġreport ing
p u
OC K
ĠS ite
ĠP a
ĠSquad ron
Ġroy al
Ġincorpor ated
ant on
Ġtem porary
Pl an
Ġconsum er
Ġtem ple
E p
ĠWh it
ĠR ab
ĠF all
Ġstre ets
ĠCopy right
AD D
Ġa w
Ġcons ervative
Ġnormal ized
t ar
D iv
S ocket
v ect
Ġon going
ambig uation
Pl ayer
aint ies
d ig
Ġpaint ings
D epend
Ġsh aring
Ã© t
end a
spec ific
Po inter
Ġcont ents
ific ial
Gener ated
ĠP C
F ailed
Ġrepl acement
Ġseem ed
Austral ian
ĠBatt alion
iss ance
F ore
wrap per
ur able
Ġmys elf
Ġannoun ce
Ġreg ulations
ĠHer itage
Ġw indows
over ning
ĠCh ile
Ġdiscuss ions
Î ±
Ġkn ows
Se lection
Ġredu ces
Ġste el
b us
Ġj azz
En um
å ı
Ġm ilit
Ġout come
Ġf ails
Par se
Ġassoci ate
ĠHon or
ĠY outh
! ]
R ole
^{ *
onym ous
Ġcorre ction
ort ed
fl at
Ġb ind
ĠLiber al
fil ename
ĠD ead
Ġs ending
Ġan om
Ġeven ing
function s
ĠDig ital
Ġl ose
des ign
Ġem pir
Ġent ang
Ġstrong er
ĠTr ade
ĠDoug las
P rior
ĠO S
ĠArm en
Ġb oys
Wrap per
erv ing
os ed
ĠH amp
Ġident ification
script style
Ġcoll apse
Date Time
Ġcarry ing
r uby
um ps
est yle
Ġpay ment
en able
ick ets
Ġen v
+ (
ĠS oc
ĠE arly
ĠOper ation
Ġown ership
R ober
w ig
P ORT
ĠP as
ri k
ou pl
Ġform ally
Ġd ry
Ġpass word
ĠAp ple
ĠLouis iana
B egin
itar ian
j ob
tr im
ĠAtt orney
v ia
Ġde put
ut s
Ġcol lections
iss ues
ĠE uro
Ġk ick
Ġread only
Ġ urg
ĠC ond
Ġreal ized
ĠM L
Ġinv ent
a ire
ĠWh y
ser ies
Ġas ync
ĠPl ace
stand ard
ut ing
ĠT ag
ĠNor wegian
Ġtop ics
Ġinstr uction
ĠB ry
Ġgr ade
190 7
Ġeigen values
M F
nav List
sc opic
Ġxml ns
az e
B orn
ĠM iami
< !
Ġtransl ate
Ġre nt
Ġcol le
ĠF er
O F
f ather
Ġs udden
j u
vart heta
190 6
Ġfeel ing
ĠB ron
=" ">
equ ations
Ġvac uum
IV E
Ġwork er
Ġann iversary
Ġkey board
Ġcan cel
ĠBul g
or er
sh op
Ġad vers
ub er
S ync
ĠPro perty
F UN
Ġschol ars
head ers
F ree
Ġrecon struction
ol o
Ġsecret ary
Ġinh abit
ĠD a
Pro gram
Ex ample
âĢ ĺ
ĠPh ill
y cl
Ġconvent ional
z o
ver age
ers et
ĠMc K
te ction
Ġshe l
l u
id ges
ar ith
Ġman age
Ġadapt ation
ĠD ak
10 2
pro ps
Ġc tx
Ġgrav itational
rupt ed
Ġf ly
ed u
ĠF ull
ĠD ur
Ġcre ates
AL SE
err ors
Ġsp oke
ĠC le
det ails
Ġfl u
ĠO tt
A gent
Stat ement
C ert
Ġcon crete
Ġcommission ed
Ġis ot
ĠDemocr ats
Post ed
Ġcl er
ĠSim ilarly
Ġstrict ly
Ġs elling
ĠCont in
ĠEx press
Ġ\ !
\% $
sp in
is p
Ġaddress es
w en
w t
Ġm it
Ġd iversity
L I
ĉĉĉĉ ĉĉĉĉĉ
ac o
Prot ocol
Ġmodel ing
Ġmin ing
Ġocc as
Ġm il
ĠG R
ĠSo ftware
. \\
man if
Ġk in
Ġex ecute
Ġc ash
th ick
L en
C r
ĠK evin
ĠH ug
ol ished
Ġland scape
Ġb inding
et he
Ġman uscript
ĠCh ange
Ġres erved
s ym
Ġneigh b
Ġequival ence
Ġadm itted
Ġs ter
ĠS ource
agnost ic
Ġt er
viron ments
al ia
Ġfavor ite
Ġsignific ance
apol is
ĠN atural
Ġsm art
O B
r g
ug ar
Ġprior ity
ou ter
Ġ$\ {\
Ġleg isl
Ñģ ÑĤ
10 4
an ia
coll apse
j unit
ĠB ox
Ident ifier
V olume
Ġ ,\
Ġ" ,
Ġprec ise
ĠC S
ĠWalk er
Ġsu it
down arrow
Ġd ir
ins ic
ts burgh
ĠF uture
ass ador
ĠN aval
ather ine
Ġwar ning
Ġp ixel
ram a
az y
Ġpolar ization
ĠS earch
Ġvary ing
cle an
m f
cont rib
ĠP uerto
Ġb oat
Ġr ating
Ġamount s
iz ers
ĠC emetery
ĠP RO
i eg
fl u
ane ous
g ood
sh ared
Ġdel ivery
Ġexhib it
ert ainties
Ġtechn ologies
Ġpriv acy
Ġt all
br idge
ĠâĢ ¢
Ġ" <
g ather
ĠQueens land
es is
Ġfluct uations
h ref
Ġabandon ed
l oss
Ġpro fit
Ġs ight
tri angle
ĠHistor ical
Ġm ine
att ributes
us ers
Ġl ake
Ġdocument ation
Ġeth nic
ĠTr aining
Ġassert That
ĠP ed
">< !--
Ġcom ic
Ġdisc ipl
Ġro utes
Ġge ometric
E P
is ot
Ġperiod ic
level and
Ġn aturally
Ġre verse
mat htt
Ġcontro vers
ĠSw iss
ĠBr un
ĠJud ge
Ġp up
C ho
bum s
ĠPe ace
b es
G a
ĠTh ursday
ST AT
Ġtr uck
Ġsit uations
Ġst ating
aps ed
S ervices
Ġoper a
ĠD aily
Ġwill ing
ĠWed nesday
c ounter
se p
Ġst yles
ĠArgent ina
Ġcon vention
H om
fol io
m aking
ĠâĢ ł
ject ure
AN T
Ġexc ited
Ġparticip ation
ĠGe V
190 4
ul er
Ġa f
ĠT uesday
Ġluminos ity
Ġappro val
! "
^* \
bold math
Ġcl ick
Ġpan els
aj ax
ĠF A
Ġfram es
Ġredu cing
ĠCap ital
ĠAl an
ĠP i
P al
Ġconsider ation
Ġscen arios
ĠInd ependent
ĠF ix
R elease
Ġsol ving
Ġpro files
Ġup dates
pl ates
de ep
B N
Ġchalleng ing
ĠKenn edy
ut r
ĠN AME
ail ability
ĠV in
z i
/ .
ub le
mark s
ĠPl ayer
f ef
Ġte ach
ĠB oolean
ĠK now
ĠN ash
Ġdraw ing
ĠN ik
Col lections
ac ht
Str uct
cor ollary
b rief
p aper
Ġpass ion
Ġlimit ations
Ġproced ures
P aul
ĠM essage
nd ef
ĠMay or
M al
op ter
Ġtr uly
Ġim pr
Ġre tain
ĠD VD
Ġtype of
Ġid x
Hel p
Ġf ired
ĠF le
Ġf aces
u h
ig ate
Ġfall s
Ġconsist ed
Ġisol ated
az on
B ound
or ous
tem p
) ^\
Ġmet adata
il st
Ġfor th
Ġsing ers
ser ial
oc he
ĠDep uty
Ġinv asion
B en
Go ogle
ĠAfghan istan
ia h
ĉ čĊ
br and
op ol
Ġsur faces
ĠÐ ¿
Ġan th
Ġsche mes
ĠSt ew
Ġmanufact uring
Ġ= ======
Ġinstr uments
E urope
FN GL
Ġfrequ encies
ĠAnton io
in ch
3 60
l on
190 1
T ube
um ption
v i
ĠI E
t ons
Ġr ival
Ġcr imes
back slash
Re port
Ġap pre
d one
ĠBelg ium
^* (
Rem ove
e ast
dis ambiguation
build er
l arg
Ġsystem atic
Ġstruct ural
ĠChe m
Ġbr anches
N odes
p arser
aw ay
ĠT errit
Ġc raft
her ical
ĠInt eger
ĠVill age
Å «
Ġprom ise
Ġre vers
Ġj Query
sh al
D b
eg et
ke ep
Ġ" -
all classes
b ey
Ġr anges
coh ol
F P
is ons
Ġqu ot
Ġsc r
Ġpass enger
C ard
Ġh ired
ynam ics
Text ure
Ġ\ ,\
ĠK er
ĠLa ure
ĠS ud
ĠAuthor ity
C G
Ġarr ival
Dom ain
n odes
{ |
M ath
Ġdiff usion
Ġland s
Tele vision
Î ¿
ĠP ur
Ġen forcement
Ġst ood
duc ible
Ġord inary
j ango
ĠAtl anta
Ġt ries
B AR
ĠF inn
12 7
Ġin aug
Ġacc um
ĠKel ly
ĠP A
in valid
ĠPortug uese
Ġw avelength
Ġst adium
ook ie
ik ip
Reg istry
Ġcom plicated
oth s
Ġinvestig ated
p icker
Ġbeh alf
ĠE mer
R ich
Ġparam et
bl og
user name
prot ocol
Ġhead ers
hold ers
Ġour s
9 00
prov ider
part s
t body
Ġclos ure
init ely
ĠEx ample
Ġb rown
Pass word
ĠD O
Re al
in burgh
ĠF ather
m oment
ĠSam uel
ĠD al
N amespace
um my
r ift
Ġf itting
UR I
Ġanal ys
w ave
Ġweek end
Ġcom fort
AR N
ĠL am
}{ *
C oll
M ill
Ġdom ains
ig e
Ġt err
Ġden ied
Ġsus pend
Ġcomp ilation
ĠAl ber
Ġseg ments
Ġa ired
elf are
Ġentr ance
ĠAl ice
P ER
{ "
Ġre ign
ut ely
Ġcompet e
ĠH it
iv idual
Ġat oms
Ġpresent ation
ĠP R
Ġc ited
ĠP ay
n est
Ġcustom er
P refix
re p
Im port
Ġcorre ctions
( -\
Ġform ulation
Ġse es
fin ite
Ġv oting
re tt
Ġtrans parent
up arrow
g on
Ġaccess ible
Ġmet res
Ġim plicit
ĠRef er
E ducation
Ġs occer
Ġwh atever
ĠTai wan
bl ed
Ġt ang
ĠD M
Ġcontinu ing
Ġaff ord
K e
Ñ ĩ
Ġmen u
Ġagric ultural
ĠS el
ect ure
roll ing
TR Y
I X
Ġde pos
foot notes
ĠPri or
Ġsup ers
ĠV ari
x s
Ġat omic
190 3
Ġconsequ ences
Ġcompet itions
ĠNC AA
Ġvari ant
ĠRes erve
enez uel
Ġdr ag
Ġbr ings
Ġ( ,
ĠD ave
st ory
ac ew
1 16
ĠB uff
ren a
M ajor
TI ME
Ġtop ology
Ġg rown
ct ic
ĠF ROM
Ġsk in
ĠH ills
ah n
m oz
id ency
ors es
, '
Ġ Ä
R ob
Ġfle et
comp iler
ĠW here
Ġexp ensive
Ġpublic ly
Ġturn ing
ĠG irl
ĠMor gan
Ġuniform ly
Ġread ers
ĠCro at
em en
ĠOr chestra
Ġsens itivity
m outh
ã Ģ
Ġcompre hensive
i op
v ol
er on
Ġrul ing
Ġhead s
Ġrob ot
Ġmov ements
Ġis lands
ĠSystem s
Ð ¼
On ce
() </
M arch
ĠAl b
ĠHT TP
Ġstraight forward
Ġmechan isms
h us
Ġatmosp here
Res ources
Ġdist ances
fef efe
Ġexpl ains
Ġdeg ener
ĠA T
CO MP
d ark
Ġ Ø
Ġstrugg le
ĠLaw rence
Ġalgebra ic
Ġres erve
ĠE ver
ĠL as
Ġassign ment
ĠS QL
Ġin duct
check ed
Ġperturb ation
)-- (
Ġjud ges
ĠPh ot
Ġg ay
ĠC it
18 80
d ag
osl av
Ġac id
X i
ĠH um
ĠNew ton
Ġsat ellite
Ġhost s
Ġcr ash
190 2
Ġquadr atic
new s
Ġ ri
L ook
Ġre ar
Ġro oms
ĠD NA
M s
Ġbas eline
u on
V ill
Ġw aters
bar a
res ources
Ġemploy ee
Ġrac ial
Ġunc ertainties
ĠK az
Al so
Ġdef ining
fl ag
ĠE ag
Ġequip ped
? >
) ->
ĠCon vention
Ġexpect ation
ikip edia
Ġvisit ors
requ ency
n ed
A x
Ġr u
E very
Ġd ip
Ind ian
Ġadv oc
ĠR ound
Ġp arser
om as
Ġadult s
Ġcommit ment
Ġrestr iction
" ],
Ð° Ð½
Ġexpos ure
cy cle
J ames
Ġtrans actions
Ġstrateg ic
al og
Ġtransport ation
du cer
Ġmy th
SE LECT
ro ck
Ġre tail
g ov
Ġt ennis
Ġent ering
Ġmeet ings
Ġh am
ug u
Ð ´
ĠH oll
Ġtime out
requ ired
Ġanim ated
ĠTh ough
Ġstri p
ĠH erm
res ize
Ġdanger ous
$. }
Ġplatform s
Ġfam iliar
Ġcommunic ations
ĠC ensus
Ġf asc
' ));
ĠF ourier
ĠSup pose
ĠCh amber
Q U
ĠS N
ĠA le
ob by
ok ing
ir cles
nt il
ĠP ear
IG HT
Ġ' <
ĠBrig ade
Ġare n
ĠG arden
footnotes ize
Ġhigh way
ĠSe ason
ĠCo oper
Form er
ĠF ind
ĠSen ator
H ar
ex tern
V E
ĠC ow
en abled
ĠM os
ĠOrgan ization
S an
Ġsing ing
Ġh olid
Ġelect rons
Ġcorrect ly
ili ary
own er
Ġconsider able
Ġcol span
Ġdoll ars
ĠDen mark
Ġel ig
usal em
st orage
ĠC hen
ul um
ug s
Ġpubl ishing
ĠD ublin
Ġcompet itive
Ġsub mitted
Ġdes ire
o es
Ġsp here
ĠAb d
ĠSar ah
ĠM aur
support ed
Ġpar agraph
ĠJ un
oc aml
Ġroad s
Ġmet all
Ġ[ ],
Ġderiv atives
Ġv ulner
Ġpres c
;" |
ail and
Ġexper ts
) }.
ĠAnd roid
olv es
m ay
test ing
ĠDe an
Ġed ited
il ty
Ġwhe never
Inst all
eg as
Ġf lying
ĠM ission
Ġd uties
am ents
ĠĠ čĊ
op ts
Pro to
ĠB us
pt o
Ġmod ify
ĠOrth odox
Ġinter pol
Ġt ropical
com put
Ġoper ates
Ġprefer red
ĠSe attle
ĠN am
ĠVol ume
ĠA C
ĠBow l
Ġtouch down
Ġm oral
ĠAg ric
oust ic
Child ren
b atch
Ġdev iation
ĠRef orm
Ġd ies
ce ive
Ġindependent ly
Ġep och
d k
Ġsub t
Ġtw elve
Ġgreat ly
ĠAust in
Ġstr uck
const ant
dist ance
Ġconcept s
ĠFri ed
vious ly
> ::
ĠAll iance
ĠMc G
int end
Ġloc omot
Ġfac ing
ĠIndones ia
ĠB it
ro ke
M us
Ġdecl ine
on ce
Ġwor se
S cal
Not able
Ġearli est
k t
ĠBang l
Ġlog ger
p ull
Ġcoll ision
Ã «
ĠN ag
log in
ul atory
Ġgu ess
y ll
ĠĠĠĠĠĠĠĠĠĠĠĠĠĠĠĠ ĠĠĠĠĠĠĠĠĠĠĠĠĠĠ
ĠArk ansas
Ġex posed
Ġarch ae
Ġ? >
r b
ĠAp pe
. <
oun ced
ĠBr uce
Ġdistingu ish
A ugust
Ġapparent ly
Ġ@ "
Ġf ib
Vis ible
Ġeng ines
Ġback ing
Ġent ities
on der
d ale
he astern
Ġtempor al
ob i
10 3
n ik
Ġentertain ment
F ind
ĠR ot
PO ST
ell s
Ġign ored
ĠK am
Ġcritic ism
Ġelect ro
ĠBe at
Ġsurn ame
ĠP ap
Ġh alo
Ġfranch ise
ĠMont real
ol ph
Ġ{ $\
ĠRequ est
ol as
at omic
Ġst abil
W here
Ġp itch
ĠW olf
Over view
ĠYear s
En ter
el ian
*} [
group s
| $
ĠI ron
ĠD allas
S pr
st age
t ies
ph antom
ak s
ĠB ou
ĠF arm
Ġsn ap
ĠRuss ell
> :
$ ^
te am
Ġarg ue
Ġoccup ation
Ġres idence
Ġle af
L android
Ġfocus es
ĠStud ios
l ibrary
s ig
sv g
ð Ł
Ġun iqu
ĠS port
ac cept
Ġtem p
Ġconsum ption
Ġassess ment
Ġut ility
Ġpri ze
the me
Ġc reat
Ġaff airs
Ġs now
ĠCon stant
ĠH ockey
Ġre b
Ġbeliev es
Ġconnect ing
Ġspirit ual
Ġj unior
M ilitary
Ġpre pare
Ġen semble
) (\
ĠHig gs
ĠJ uan
ff ff
vert ex
ĠPr ivate
Ġdis establ
Ġform ing
Ġcr icket
ĠFreder ick
, .
B order
Ġg iant
! [
Ġimp ress
m ag
ĠN eg
} >
ĠK a
Ġsk ip
Ġcompar able
ĠArray List
or ro
por ated
index Of
bo ost
n p
(' .
ĠWork s
Pro ps
Sup port
stack rel
Ġw ww
ĠLO G
agnost ics
Trans form
ĠPortug al
Ð¾Ð ²
Ġc ards
Ġrepresent atives
ĠMon te
Ġvict im
s ong
ĠTh ose
T F
ĠL ock
Ġn ick
n an
Ġlik elihood
ĠS mall
ĠChrist opher
s un
ĠC NN
R oman
ĠAl gorithm
Ġpass engers
am an
Ġres idual
Ġrestaur ant
ĠU I
math it
rom agnetic
l ab
Ġcon front
Ġpr on
Ġaccompan ied
Ã ´
Ġb irds
ĠS audi
A re
Ġ ],
as ma
Cl oud
Ġhard ware
Ġs ed
Ġwith draw
ĠR ick
Ġreli ef
Ġvol umes
Ġint ention
Ġ( [
L anguage
Ob serv
Ġelement ary
az ines
l ined
per iod
app oint
ĠCent ury
)} (\
ĠB art
pe at
; )
ĠP rix
Ġm outh
b ia
ĠĠĠĠĠĠĠĠĠĠĠĠĠĠĠĠ Ċ
em pl
Ġ ĉ
Ġweight ed
Ġb id
ĠSever al
Ġt el
col Last
ĠP eters
ĠMem bers
Th rough
Ġaim s
ry ption
Ġembedd ed
m aven
Ġanaly ze
x html
Ġpre gn
Ġful fill
l ass
Ġsy nd
we ek
Ġhand ling
Work s
Ġg overning
ast s
Ġal ert
inc or
d in
Ġchild hood
Ġabsor ption
ĠCh ampions
ĠPol itical
ug ment
le e
Ġtrans itions
qu al
ĠA I
Ġrespons es
Ġrestrict ions
V P
Ġsound s
maz ing
pro xy
Ġextract ed
Ġcolon ial
Ġne arest
ĠW ard
Ġin ternet
ĠOr iginal
Ġund ert
ĠG ulf
Ġsub section
Ġp ipeline
Ġre aches
Ġb old
Ġfore ach
Ġdiam eter
Pro gress
Ġrecover ed
Ġdeal ing
Ġvac c
EE EE
ĠEd inburgh
act ivity
Ġdecre ases
T ra
Ġorgan isation
Ġp uls
Ġcheck ed
Ġput ting
Ġin tern
grad uate
Ġconj ug
k ee
Ġsh r
Ġrecord ings
. ;
Ġask ing
' _{
. $$
h ill
ĠMalays ia
Ġliber al
D elegate
trans ition
V ari
Ġcollect ive
Ġco q
(' /
Ġover se
at en
ĠT rib
vert ed
l ights
ĠL com
F ootball
ĠDe ep
Ġthe ater
Ġl ang
y ou
} </
P ubl
get s
Ġprov isions
Or gan
ĠLe ban
J une
ĠSchool s
ĠH u
ĠW oman
ash i
Ġre putation
Ġacc ret
cast ing
Ġenjoy ed
Ġjournal ists
Gener ator
Ġhom ogeneous
Ġg ang
» ¿
Ġcopy right
IT ION
iter al
Ġrandom ly
i at
Ġpe er
bor ough
f eed
col First
at hered
h our
Ġcut s
h fill
time out
Head ers
Ġpolynomial s
ĠAd ams
Ġm or
lim inary
H D
Ġsup plement
Ġint ellectual
Ġgl ob
18 98
as sembly
ĠU tah
cd n
ER S
Ġd ial
G LE
ĠIm perial
Ġen um
ĠC ore
b ing
H istor
Ġfin ishing
li ed
or ia
ĠAcc ount
ver sy
in ist
ur ers
Ġsports people
i ors
qu ote
ĠF ive
HT TP
ĠS ac
Ġ{ "
Ġn an
) >
i est
J uly
Ġbe ar
ab ad
Inter val
Ġexp ed
10 9
test s
Ġdef ect
and al
C ref
ï »¿
se a
Ġsum m
Ã ł
ĠF M
N ative
ĠC ole
n m
Ġkn ock
Ġremain der
I gn
âĢ ¢
g ot
ĠChrist ians
ĠLie utenant
Ġf itted
Ġprodu cers
Rober t
d iction
Ġc yl
=\ {
Ġres et
Sh ape
ĠN elson
du ces
Ġsu icide
Ġst im
Ġguarant ee
Ġinterpret ed
A pril
Ġconv olution
ĠRog er
ĠAd vent
Ġreg ression
ĠCommun ist
ĠS n
Ġcount s
Ġdesc end
Ġrg ba
ĠSing h
ĠG on
Ġl oved
b one
Ġdistingu ished
ĠE ss
Ġt ied
Ġme ets
spring framework
Ġdiv or
" ].
ĠThom pson
B ecause
clos ure
Ġinhabit ants
ĠK o
ĠMan ager
op les
ul p
ĠBrazil ian
Ġgu id
ist ol
Ġf old
âĢ¦ .
le ans
Ġen vironments
ĠK itt
3 50
S N
ĠA BC
ĠB etween
sp ir
div ision
Ġall oc
Ġresident ial
Ġmain tenance
st ud
i ac
Ġcompl iance
P air
r uit
ĠJer usalem
ce il
Ġphot os
Ġmanif est
ĠMark et
f x
ĠBalt imore
=" $
Ġsurv ived
Ġconvers ation
ĠS R
bound s
ĠK ings
j et
ic ht
u ced
ol utions
Ġregard less
. âĢĻ
Ġdesign er
Ed ge
Method s
ĠAn alysis
ĠAd vis
Ġthous and
comp are
Cl ub
view s
sc ribe
Ġp sy
Ġtraject ory
Ġres olved
Ġd t
claim ed
opt ional
ish ops
Ġp ixels
ĠT ax
an alysis
F ORM
print ln
t ed
ĠDef inition
Ġorb ital
m ill
Ġt ables
iv ated
ĠMarg aret
av ailable
Ġb ars
her ic
Oct ober
ĠOn line
ĠComm ander
ut ation
St ats
Ġpost s
Ġlist ener
m k
10 6
Ġprison ers
ĠLag rangian
ĠL P
ter y
U ri
RE G
B ind
Ġt ank
18 70
ĠF ern
Ġres ign
BP ACK
ĠAn na
Ġrece iver
Å Ł
ĠL INE
Fr agment
e lection
Ġrad ical
Ġtrad ing
Ġdifficult y
Ġres igned
ĠL ook
ĠMar shall
Ġg ift
ĠT ree
y cle
Ġterm inal
~ (\
Pl ace
H am
Ġmer ge
ĠC rown
18 99
10 8
ĠM C
Ġnorm ally
Ġaddress ed
amp s
L ower
ĠG il
Ġoper ational
Ġreve als
ĠCO VID
m illion
Ġsol ved
ĠM es
if ting
left arrow
dr iver
g ray
as a
periment al
En vironment
Don ald
ut er
ĠS P
O ld
Ġrest ored
Ġneutr ino
Ġsuff ering
ĠG raham
Ġher itage
f lex
Ġsurg ery
E mail
work s
Ġpres erved
th a
ĠD ance
Ġa ux
Ġdr ink
ĠM D
ĠL eft
ĠEd itor
Ġt ort
Ġ\ [
ig inally
Ġm o
Ġwould n
ĠY e
urrican e
ĠEx pl
ĠS H
b ach
Ġform ul
ĠVal id
ĠUkr ainian
n c
inv ariant
Ġdens ities
ĠC leveland
ĠD anish
{ (\
Ġpro spect
Ġload ed
Ġc od
text normal
j amin
Ġinter vals
Pr ivate
oid s
Ġnarr ative
igh ters
Ge V
(' #
d ensity
Ġchar set
sequ ence
ĠL ower
Ġfair ly
S ample
ir i
Ġprov en
M EN
h ot
ĠSp irit
Ġill ness
ĠRob inson
st e
Ġem otional
ĠD B
Ġappoint ment
N ormal
Ġs ympt
m ate
Ġinvolv ement
Ġr is
Ġs in
Ġcast le
ay an
Ġcl ip
ĠW right
Ġext ensions
Jan uary
Ġleg acy
S W
Ġsmall est
Ã© n
Ġcond itional
Ġvisit ing
g ments
Ġf ault
Ġarr anged
A rea
c am
Ġne uro
Ġsche ma
ĠTh ailand
Ġr aid
ID TH
is ode
id o
Ġpri est
Ġre ly
im its
lear ning
10 7
Ġ' '
h alf
, ...,
M ac
ĠB oys
Ġkind s
ĠH ell
ĠN ation
Ġch ampions
or us
text up
Ġnot ably
ed a
Ġwhe el
ĠFin ancial
Ġperform s
( .
Ġdep icted
ĠP os
Ġsurpr ising
Requ ired
PRO JECT
ĠStew art
E ST
}. }
li x
ĠDom in
Ġhead ed
Ġfr uit
d ays
St ud
LOC K
Ġh ospit
ĠD og
Ġd ress
ĠFin land
Ġin ference
Ġadd s
Ġmark s
Ġcelebr ated
over view
Ġvalid ate
ĠT ig
pro gram
hip s
im ated
1 18
St op
Ġhy brid
ĠLeg islative
Ġfew er
ĠYou Tube
li er
Ġlabel ed
L ight
Ġn ice
p ub
display Name
Ġde bug
text color
Ġ _{\
Ac adem
ĠCE LL
CT YPE
ev a
Ġt elling
Ī Ĵ
Ġhor izon
Ġdeput y
Ġh a
ME TH
S ep
}) ^{
; ">
ĠCar ter
b ow
hy thm
ĠIn s
Ġadvert ising
ĠPit tsburgh
Ġrun time
Sk ip
Ġgr ass
Ġu i
Ġval uable
Ġrec ur
ĠOr leans
Ġt mp
Ġto ler
INT ER
Ġrank ing
se ctions
Ġnull ptr
Ġorth ogonal
M art
iem ann
Ġoff ensive
Ġro se
b oth
br ane
Ġgen re
Ġanalyt ic
Ġm acro
Ġpres erve
i ere
ĠPubl ishing
Ġcirc ular
&= &\
P ers
W allet
ĠB ull
ĠL anc
ĠR ic
Con ver
Ġsem antic
as ync
Ġc ro
Ġmathemat ical
Ġrece ives
Ġcorrel ations
dest roy
w he
ĠIn v
Ġhor ror
Ġre tained
Ġdestr uction
. :
() ))
Ġcomp aring
Ø ±
ex ec
/ "
Ġf its
ith uan
ograph ics
t f
Ġrecogn ize
M ount
ro se
b est
Ġtri als
B ased
Ġviol ation
im ir
Ġsimilar ity
Å ¾
Ġrel ating
ĠH ttp
ĠAlf red
am azon
ĠCor ollary
} /\
Ġsevent h
Ġhe ter
A li
| ^{
und efined
M aster
á »
im p
Ġimprov ements
Ġslow ly
pare n
WE BPACK
Ġb on
Ġrun ner
ine ar
ĠD ub
$- $
Ġval ley
ĠT ar
Ġphenomen on
ĠRes ponse
Ġan not
Ex ecut
Ġclos ing
Ġactiv ist
ĠP sych
18 95
ĠZ e
sw arm
Ġbelong ing
list ed
ĠM agn
th ree
Ġ å
ĠDak ota
Ġdiv isions
EEEE FF
Ġcoun sel
ĠOper a
An imation
ĠPal ace
Wh y
Ġdam aged
Ġent reprene
ĠE ND
Ġmill ions
Ġh oles
bas ic
Ġh al
ex pl
Ġtransform ed
Ġp ictures
Ġreg istration
Ġatt ributed
check box
b rew
ĠL GBT
em on
Ġsh arp
... </
s ocket
al ph
ĠH ad
Ġsepar ately
ÃŃ n
Ġal ias
Ġpseud o
ev ens
d c
ĠG ill
Ġex ports
Ġcon figure
Ġmiss ed
text sf
u ity
ane an
ĠV enezuel
lik ely
ĠVi enna
ĠF reedom
Ġimpr ison
part icle
ap os
ĠP lease
hat tan
Ġcommand s
P red
en ix
Ġdemocr acy
}^{ +
ou ver
ĠBrook lyn
Ġtal ent
com plex
Ġ elli
ĠAss istant
Ġmechan ical
et ition
ĠMet ropolitan
Ġsim ulated
Ġbu f
ĠÃ ī
acew atch
Ġsign ing
wild fly
c ountry
ĠNaz i
ater al
Ġso il
$\ ,
cre ated
L ike
Ġconven ient
Ġan chor
Ġqu eries
if ndef
Ġathlet es
IMP ORTED
In formation
f are
leq slant
Ġaim ed
ro ute
æ ľ
Ġweek ly
ĠCl oud
Off icial
ĠK l
Sequ ence
um in
Ġwatch ing
Ġb reed
ĠG re
Ġpopular ity
Ġsup plied
_{ +
18 97
t b
grad ient
Ġsim plicity
DE FAULT
Ġas c
erv oir
Ġtalk s
ab a
ĠC arn
ĠP rom
ort on
ĠAust rian
\| _
e enth
T ex
m issions
Ġoutput s
ra ig
w arning
Ġdepend encies
DO CTYPE
Fram ework
up per
ac er
app y
sect s
Id s
ĠHamp shire
ĠBrother s
Ġround s
: @"
Ġr ising
ĠLim ited
ant i
Ġmar ine
Ġunus ual
G reen
us form
ĠPat ri
Mich ael
numer usform
all oc
Ġco operation
con structor
ĠM other
Ġl ens
cept or
ĠKn ight
Ġsl ope
f act
Ġinv olve
Ġfund ed
= [
es ome
$ ^{
P resent
sh a
Ġpick ed
Ġn p
METH OD
Ġdis cret
Ġp ub
Ġpl ain
set up
v y
VAL ID
con struct
Ġtrans verse
Ġh at
re port
ĠMuslim s
( @
ĠMov ement
Ġlif etime
Ġop acity
ĠCom ics
Ġsub space
or igin
Ġcontinu um
ĠI T
Ġelse where
bl ank
Sc ott
Pro fess
Ġequ ally
ĠR ain
m atic
ip h
Ġh ill
Ġinfl ation
t k
sl ice
Ġpro ps
Se ptember
Ġb ases
an imation
side bar
Ġimprov ing
Ġactress es
Ġinj uries
at ibility
Ġb om
t p
Ġmer ely
d ied
Ġgen etic
ĠN ic
ĠSp acewatch
Ġref lection
Ġs oul
Ġf urn
/ {
v ariable
p read
Ġt ags
B ur
Ġ ur
ĠFrank lin
ĠB ey
Ġmarg inal
L imit
Ġequ als
Ġcon qu
Ġat om
Ġpra ised
final s
pro gress
ĠGr ad
Ġc md
Ġpost erior
Ġre ception
ĠLank a
Big g
mult line
ial s
Ġspect ro
D ictionary
. ",
ĠR io
ĠF al
Ġl aser
Ġiniti ative
Q UE
Ġtri angle
ĠIn put
Ġsuper ior
Ġf est
ine a
p in
M ask
el astic
at ivity
th an
Ġv ic
uk i
ĠCons ervative
ch arge
18 96
Ġlaw yers
ĠJ e
clip se
Ġimp ly
Ġappre ci
Ġtransform ations
ĠL ang
EN SE
Ġdiagram s
t re
ab i
Ġopt s
ĠO ri
ourn ament
f our
ĠStud y
ĠCamp bell
m ates
ĠP ho
E ffect
Ġsus pect
Ġpriv ile
Ġinteg ers
em ed
Ġdise ases
Ġpass age
anch or
Ġcorrespond ence
Ġempir ical
V ol
Ġrequ iring
w d
Comp iler
ĠPol y
Ġsuppor ters
v et
el ines
ĠCar ib
$ '
ĠJ ason
ins ula
ĠG irls
13 5
cent ral
Ġm d
Ġdisp ersion
sc ar
Ġtrack ing
Ġdesc ript
ĠK it
um ul
Ġim posed
ĠPy thon
Re ception
0000 00
Ġart istic
Ġb aby
ong o
ĠWar ren
ĠP ref
TR UE
W eek
ĠNiger ia
C ity
Ġthem es
fr ag
Ġun like
NavBar Font
\! \
Ġob lig
ĠC atal
Ġminor ity
it err
d uration
ativ istic
Ġacqu isition
mid rule
s b
Ġwas te
re lease
ĠPh D
Ġf at
ĠV ector
ĠL l
DE BUG
ens ively
Ġout standing
' ];
Exp atriate
h al
Ð ¿
Ġyour self
ĠLear ning
ĠResult s
ĠT ol
ĠRail road
object s
~~~~ ~~~~
R AN
Ġc rown
ĠK on
ĠRes ources
Label s
Ġb ishop
ĠHung ary
ab ul
f ish
oun ce
Ġne ur
'] ['
irm ingham
ĠC ass
ill o
iver pool
ĠW atch
Ġrail road
Ġrad i
Ġth rown
pl ier
De cember
Ge orge
Ġreson ance
ĠS S
ĠG ray
S ave
ĠD ie
Des pite
vis ible
Ġirre ducible
Ġfe as
Ġinstr uctions
ĠE mb
ic ator
Ġcl ar
Ġw ounded
py thon
Ġmonitor ing
ĠMatthe w
ĠMP s
ĠU pon
sub ject
ann on
pr iv
Sup er
\ },
ĠPro tection
ĠN i
ĠV ik
ĠBangl adesh
it ure
lyph icon
ĠO bl
ra ise
ij ing
ĠC er
Ġencour aged
Ġt um
Ġconstitution al
ip art
ĠU V
ĠIran ian
Ġt unnel
}^ +
m aker
part y
Ġass ass
ro b
Ġm m
Ġwe ar
Ġb uff
R T
Not ification
H ub
mem ory
ĠWel sh
Ġinform ed
ĠR ap
ol ute
con sole
ĠUn iverse
Ġag es
Ġgu ilty
Ġv eget
Ġ" $
ap ters
pro pto
R ussian
Ġp and
ĠH end
ĠRoman ia
over e
bel ow
ĠJoh ann
ph oton
g oto
ops is
Ġaware ness
p b
as g
ĠWe bsite
ĠAp ache
n ia
"" "
ĠMor ris
ĠMur ray
Ġfall ing
ĠRel ations
=\ "
Ġtext s
Ġpack et
Ġperson ality
Ġw ides
s pl
ĠKar l
ĠEd ition
A I
24 0
Ġm ile
ĠM aine
) _{\
Ġdis ag
SC R
Ġarr ive
Ġ\ |\
Ã ª
Ġ ~\
. ),
Ġbl ow
Ġmet ers
Ġre nov
Ġin duction
d n
ĠN ep
Ġp ole
Ġfrequ ent
Ġw ider
Ġfra ud
M ag
Ġpl ugin
Ġdis contin
G ER
Ġreve al
Ġab road
ĠR ico
Bas ic
Ġb ot
ĠK ur
ĠP ack
bin om
Return s
ar us
pol icy
Ġaccord ance
oth y
ĠMari e
_{ [
Ġinflu ential
Ġsp oken
Ph one
Ġang les
Ġthreat ened
Ġviol ent
erm i
11 4
Id entity
ĠC lient
Ġb are
Ġcompet ing
iz z
Ġtax es
B g
Ġactiv ists
ĠAN Y
B al
Ap pend
int ro
win ning
face book
Ġal cohol
ĠUp per
Ġd ating
ha ust
Ġtr unc
Ã³ w
O W
Ġ\ {\
um ed
Form s
ĠO N
Ġmem orial
Ġd ynasty
back s
ĠP un
ĠK u
gle w
v ars
Ġreli able
Ġa ugment
equ ate
ock s
Ġfin ance
Ġnewsp apers
Ġr anging
he ll
P od
Ġwith d
En umer
load er
ĠF OR
ov o
incor porated
D ig
Ġp atch
ens itive
f its
ss on
ir ates
18 60
it is
Oper ator
ter ior
U ST
ĠMot or
ĠB ed
d ynamic
ĠN AV
$ \\
Ġout comes
Ġ\ "
big cup
Stand ard
vert ical
Ġprepar ation
Ġf ake
ĠMount ains
Be an
Ġdiscrim ination
ĠMet ro
ĠSoc orro
Ġdef ensive
ĠSt atus
Nov ember
ĠSh ah
iff s
Ġar ise
ĠLINE AR
Ġcount ies
& &\
ĠR y
d irection
OR Y
Ser ies
Ġimm igration
Ġg rows
Ġgu y
Ġmer ger
Ġd owntown
method s
Ġstay ed
Ġcon gress
we ak
End point
D ATA
ge o
t ures
âĢĻ ,
get Element
Ġev ident
Compar ison
n ol
ĠB ased
in istic
ĠY et
ĠM ars
b oy
ant ed
Ġelectric ity
AT TR
K S
] ^
est one
ĠJim my
Str ategy
ĠD ouble
Pro position
Con nect
uc lear
ter ed
Ġr id
p us
Ġf iber
Ġtot ally
ar ial
Ġprotest s
}[ !
Ġmid field
ĠJ enn
Ġreal istic
an Ã§
she ll
IN S
................ ................
W ait
Ġt on
ĠX ML
Ï Ħ
Ġb ath
cl ide
Ġleg it
ĠR oom
Ġhon est
og a
Ġexpl oration
}$ \
ĠB aker
ĠL ane
ĠR and
ĠT an
ĠPr incess
Ġneg lig
E SS
ac ef
sp irit
Ġencour age
Ġdev oted
ĠO k
Ġch a
ĠWith out
ĠCh apter
ĠHung arian
) }$.
Ġpaint ed
ĠSI ZE
book s
Ġg arden
apt ist
at in
Ġh ide
sub equations
Ġpet ition
eg r
Song s
I r
Ġpl ots
ab ove
P ower
Object s
comp ile
AN CE
ĠD est
u ates
D IS
S creen
Ġremov al
Ġprint ed
ĠTam il
Ġim plied
spe ed
Ġcon fer
Ġaver aged
ĠBern ard
ĠW rite
ĠM ust
b etween
ä »
\ }.
Ġfil ters
Ġcent ered
Ġjuris diction
ĠInd ians
h arm
n l
Ĥ ¬
Ġpo em
ĠSt age
ĠS r
Ġrele ases
ĠB eck
ĠChar lie
= $
P UT
ĠStan ley
It alian
ĠPl ant
R a
Argument Exception
D an
pl oad
Ġexam ine
ĠE dd
M ake
build ing
Ġex clusive
Th ree
Ġstead y
Ġref lected
Ġalign ment
ĠC os
r f
ĠThe ater
Ġcho osing
Ġs essions
Ġsound track
Ġincre d
chi at
Ġcert ificate
or ate
\ -
ces ter
Ġload ing
Ġm ess
Build ings
Ġs itting
A rm
I AL
Ġcor ruption
Ġw ine
id ad
Ġgrad ually
os opher
ĠH ilbert
w atch
Ġn ortheast
Ġst ake
cal endar
Ġc ircles
ĠÂ »
anc ouver
ĠTe ch
ĠBroad way
Ġdeterm ination
ĠC ultural
Ġprov incial
Ġinter ference
select or
Ġdecl ined
ĠS W
ĠFin ance
ĠCommunic ations
ĠY ang
ad v
clus ively
ĠRe act
18 92
t own
Ġo cean
Cond ition
iterr anean
aud io
Ġmorph ism
ĠJ u
ĠP ad
ĠJ osh
Ġcritic ized
Un known
Ġsurround ed
5 12
Ġcontrovers ial
M ove
ĠM ess
ish ments
ug oslav
val ued
ĠR ace
R ate
Ġwalk ing
ap is
ĠCh air
inn ers
Ġ$ ^{
E val
et ry
ĠL uther
Ġmach ines
Japan ese
Con stant
f actor
m ouse
Ġall Classes
2 20
Ġpro ud
xy gen
Ġco ff
b ai
Ġsp arse
N P
k ar
Ġw orship
18 93
Ġrat ios
Ġel der
ĠMov ie
load ed
b ishop
ĠallClasses Link
com par
end ers
s ync
ab e
E ven
ĠBl ues
m apping
ĠM aj
ĠĠĠĠĠĠĠĠĠĠĠĠĠĠĠĠĠĠĠĠĠĠĠĠĠĠĠĠĠĠĠĠ ĠĠĠĠĠĠĠĠĠĠĠĠĠĠĠ
ĠN ature
ge on
\ [\
pan ic
f am
F LA
small skip
IO Exception
B inary
Fl ag
Û Į
B T
run time
ace ae
M IN
cl one
ĠEqu ation
comm ons
as hes
Ġd il
onom ous
Fl ow
ud son
Ġen ables
: `
C apt
E lect
Ex ecution
Ġpar ad
ĠC SS
ĠU C
188 9
Wh ite
Ġal gebras
Ġiter ations
Ġemer ged
Ġ ];
Ġdem ands
om p
âĢĻ .
ĠEv ans
ĠT s
ĠL iving
str ings
Ġlong est
Ġconv icted
A z
Ġe ase
) &
Ġe g
Ġremov ing
ĠTr ack
Ġdecre asing
Ġagric ulture
ĠG ary
exp and
Ġresc ue
ĠEx change
Further more
ap ing
ĠAl ban
Ġenc oded
Ġland ing
en berg
ind ependent
is o
l ia
sec ution
B atch
Ġconstitu ency
Ġj ury
Ġwides pread
w x
: [
enc er
Ġfe els
b n
ig o
ang les
ĠM ind
M a
ĠSe lect
ĠMan hattan
EE E
Ġabsol utely
at io
HER E
et on
Ġun ity
ĠT ower
Jo in
Ġexpand ing
Ġcom ed
Ġs wit
dat abase
F ocus
B ro
m iral
ĠPro duct
Ġse ar
m und
Ġs ensor
w right
ĠS A
Ġthere by
rad io
ri el
Ġfocus ing
T ok
rem arks
writ ing
clide an
ĠR ugby
ear ing
Ġphot ons
Ġcy cles
iv ia
Ġselect or
act ical
re le
St ation
Ġqu as
Ä «
Ġdist urb
Ġvol t
in cre
Us age
Î ¹
Ġpro position
Ġcap abilities
Ġexist ed
Ġal ive
Ġ" %
Ġestabl ishing
Ġinvest ors
Ġev il
is set
tr l
Ġm igr
MO DE
Ġtrans mit
Ġaccret ion
J ack
iv an
ĠAr n
Ġ' \
A ir
ĠC C
Ġr ivers
ĠL A
Ġsurv ive
Ġenh anced
Ġm ail
18 94
ĠH D
Ġfarm ers
ĠCommission er
Ġsuccess or
11 3
ĠCirc uit
ĠPr iv
Ġf oss
ĠEgypt ian
ĠA ug
Ad min
Ġreal ize
Ġris ks
ch anges
Ġsub mar
oc ent
ĠCr ime
ac re
Ġnot ing
ĠNever theless
ĠA the
N ET
ĠL oad
ling ton
Ġsynt hetic
res olve
Ġg ram
Ġ ig
Ġimm igrants
W ar
Ġpro secut
appro xim
Ġnom ination
EL D
A fr
17 0
ĠA st
Ġjud gment
Ġmix ture
inem at
Ġdeterm ines
hib ition
int o
Com plete
Des ign
ĠR ub
ĠA SSERT
Ins ert
ĠC G
UN D
Ġneut ron
ĠD ictionary
ĠCon n
ĠCat hedral
Ġs av
grad ed
Ġturb ul
ĠWay ne
Ġant icip
ext end
ĠJon athan
Ġlicens ed
hel per
V I
(" #
Ġcontrad iction
ch t
N a
SS L
met ic
V C
al ities
Ġs ke
ĠHawai i
Ġarrang ement
Ġt ens
Ġman aging
ok er
res pect
Ġn urs
Ġintrodu cing
Ġneighb ors
ĠR ud
ĠM ack
Ġprob abilities
ĠH old
Ġrepe at
Ġco oper
18 91
comm unic
ĠCarib bean
g iven
Ġcon scious
j k
ĠEnvironment al
ic it
dis able
Ġrank s
if i
Ġbig ger
is cal
ob a
? ?
do i
H or
Ġ" ",
Ġsp herical
r h
ĠO d
ĠPr int
Ġobtain ing
act ed
Ġpurs ue
Ġb ott
Ġcol leges
Ġrom antic
Ġhydro gen
Ġven ues
Vill ages
h ai
\ }_{
c ost
Ġd ated
Ġart ificial
Ġelim inated
Ġorgan isations
IN FO
ĠGu y
im m
Ġnav al
Ġdeterm ining
ĠH orn
sign ature
AR B
Ġm ouse
ĠAl aska
Ġdeploy ed
ĠH ero
ĠSt ream
ir k
ĠK ath
Ġgener ates
uch y
re ck
arch ive
Ġs ail
it ime
ul u
Ġm igration
ĠR ule
um ing
_{ -\
Ġgeneral ization
Rad io
Ġs oph
Ġcosm ological
] =
new line
A lex
valid ate
em b
ot ions
Ġstat s
Ġbeaut y
out ing
Ġt ur
M ass
IN CRE
con ver
Ġgener ators
Ġunit ary
Ġh aven
Ġis omorphic
Ġt ie
W in
ix on
B D
Ġdialog ue
ĠM eg
}} ,\
se lection
R aw
Ġtyp ename
Ġrep orter
ex it
ĠSh ar
Man agement
Ġobvious ly
get Value
ĠLem mon
M AP
ĠJos Ã©
Ġse p
Ġcontract s
Ġcoupl es
um ar
Ġleg islative
188 5
Ġdef ence
Ġproject ed
Ġbe ach
Set ting
G rad
h ook
Ġspe aker
Ġmiss ions
Ġmin i
Ġcons ent
Ph oto
Ġtri ple
Ġann ually
Ġking dom
Ġt ip
Ġeng age
dom inant
he rence
f iction
ĠW as
let ter
ĠD esc
Ġsub stit
Ġinher ited
ĠPer formance
Ġd war
Ġsuspend ed
Ġelect rical
F uture
N amed
O h
ry ing
Ġcond ens
NS String
ion ed
18 65
Ġorder ing
Ġcur sor
ke ley
Ġfriend ly
ĠBl ood
Ġphot ographer
L M
Ġtherap y
rel ative
R andom
ĠPalest inian
^* _
ĠS ets
og y
Ġj s
ĠT ake
Ġelect oral
tr aining
umb ent
Ġinterview s
Pl atform
14 4
ĠA qu
id en
ĠOption al
ĠW ang
def n
em ale
Ġperm itted
ĠL iverpool
d ing
Ġd elta
ĠMin or
ĠNorm an
ĠMad rid
Ø§ Ù
$ }}
Ġcompos ers
Pol itical
ĠB illy
Ġpay load
******************************** ********************************
Ġphotograph s
B ad
ac les
ur se
US ER
Ġbreak s
Ġpropag ation
ĠElect ric
ĠSt ill
L ater
Ġas semb
S al
Ġattract ed
Ġdaugh ters
Ġart ifact
Ġinnov ation
op edia
Ġrecip ient
osp el
ĠS hip
MAC RO
U V
ĠInt elligence
Ġed it
or o
ĠOtt oman
Ġindust ries
Ġcon e
Ġbi ological
ĠA rena
high light
C lear
Ġconver ges
| _{\
ĠS ep
18 88
av i
ĠAL IGN
ĠIl legal
ĠB irmingham
Ġcontro versy
ict ions
on ian
u art
im plement
Ġwh ilst
ĠAp plication
Ġpro be
det erm
sh aped
inher it
ĠM i
Ġreg ulation
char acter
Ġcoal ition
Ġth irty
Ġautom atic
Ġdef initely
Ġeigen value
R ailway
Ġbr ig
ĠMark ov
Ġb il
omorph isms
Ġc ous
(" /
ĠU E
ex tra
f b
Rec all
Ġtyp ed
own ed
m ix
Ġabund ance
st ers
om on
Ġdevelop ments
Ġpart ly
Ġinstrument al
ĠChristian ity
M ouse
Ġdeep ly
is y
ĠI F
ĠJohn ny
Ġsc roll
Spec ial
B ottom
ch art
ĠNAV BAR
ĠP ictures
Ġas set
n ob
Ġnorth west
="../../../../../../ ../
ow ell
Ġor bits
ĠBar bara
j or
tern oon
ĠCar lo
Ġkin etic
Pro duction
ĠCl in
Ġvess els
pro blem
Copy right
Ġmed ieval
Ġmount ains
m iddle
our t
ĠCh ampion
ĠI an
aval ry
ĠChall enge
Ġclust ering
Ġsurpr ise
æ ĸ
an ne
ĠM achine
ĠAb stract
% "
He alth
ĠTh or
col lect
Ġserious ly
og ue
Ġop ens
Ġamong st
ĠStud io
Input Stream
Ġbeg un
Ġcoast al
Ġlist ening
tr ight
ĠPort land
ĉ ĠĠĠĠĠ
Ġlab our
m ount
k top
ĠB achelor
Ġsup plies
un iform
du al
Ġste am
Ġch amber
Ġcomp iled
c ient
her s
cor respond
A udio
ĠMic hel
L and
Ġind igenous
ĠCub a
ĠBr anch
esc ope
ĠT ab
ĠMit chell
ast ro
ĠAnd y
au er
ĠPh oto
ĠP il
Ġguid ance
load ing
Ġch iral
Ġconsist ency
Ġcolle agues
ID S
ĠDef ence
Ġend point
cur sor
Ġ\ }
z ip
Q ual
ass y
Ġsympt oms
Ġcriter ion
}{* }{
ĠW IT
Ġpremier ed
Ġl ibraries
Ġac oustic
ĠDel hi
ĠR ural
idel ines
Ġreg iment
is Empty
id i
Ġmat ched
Ġhealth y
ĠN ord
B Y
Ġcancell ation
om ing
AR D
Ġadm its
P G
Ġforest s
sh arp
grad le
ue z
mer ge
cc a
Ġclos est
exp ression
ĠC F
ĠL ad
J ew
ĠComput er
Ġcl im
le ading
Ġpl asma
Ġcomm em
Pres ident
ĠBen jamin
Ġpro to
ĠW rest
f actory
min ute
Ġb acter
Ġre ven
18 50
ĠRes pon
Ġr ide
d v
qu et
ĠI ce
Ġo x
ĠI C
ĠS eg
Ġmut ual
Ġspl itting
ĠEq s
math ds
ĠColon el
asg ow
ĠC old
Ġcond em
Europe an
Ĩ Ĵ
\, ,
Ġb at
ĠCh art
ĠY es
map s
EN TRY
Ã¨ re
ion ic
ĠT ak
ĠD escription
Ġcon formal
Ġre plic
dep recated
sp acing
40 4
Ġident ifier
Ġproport ion
Ġinter vention
bound ed
tr ain
T om
ĠK an
duc ational
Ġelig ible
_ );
) }$,
Ġrest ore
quir y
Ġexpl ored
Med al
valid ation
Ġdifficult ies
Ġc rypt
Ġre semb
Ġto w
^+ $
ĠRepublic ans
im itive
S chool
M o
uff icient
Ġoverl ap
ard ed
ĠR ange
ĠV I
Ġpeak s
ĠB ud
ĠT ob
Ġrespond ed
w ind
Å Ħ
Ġsac r
An notation
ty pen
ham mad
b x
Ġpar a
ort ex
ok a
m akers
ĠProfess ional
le in
or f
B oth
Ġdecl are
DE F
h aus
re str
k an
ĠS ide
not in
m essages
RE E
ĠA ld
MEN TED
Ġg rey
Us ers
Ġsus p
ĠF ight
m ir
ĠB A
Ġl oyal
Ġcal endar
W arning
ĠV erm
Ġshe et
Ġb orders
Ġincor rect
Ġconf ident
op al
Ġstation ary
br aska
ĠV egas
Ġpure ly
Ġ$ _
me asure
188 7
Valid ator
kw args
ĠC red
olog ically
Ġlog arith
zer bai
ĠF ine
ĠN BA
> )
ĠBe ijing
F n
Ġins ight
Ġc oc
ĠSal v
p rom
ĠConf eder
Ġt ies
. -
ĠComm ons
in ates
ho le
ĠÐ ²
Ġp ulse
B usiness
ĠSh ould
7 50
Ġphot ography
Ġun success
OP T
Ġhealth care
Ġsh orter
mathbb m
ĠN eed
tright arrow
R PC
C ulture
greg ation
h um
* \
tra ctions
et o
Ġcomb ine
u in
Dist ribution
Dr iver
arg uments
ĠPark er
}) =\
En v
c z
Ġcons iders
Ġph on
ĠPro test
l m
ĠBar ry
ot ton
Ġvess el
ĠH ope
Ġtarget ed
Ġst retch
Ġcred ited
un ion
Ġin g
Cont act
Ġshift ed
Î ½
M aterial
Ġentang lement
Ġf ishing
ĠNev ada
d z
ĠUr ban
Ġover view
cast le
Ġterrit ories
ĠW AR
Ġclaim ing
e or
= &
Ġremark able
D rop
\| ^
element s
B er
down load
S ever
Ġsub mit
Ġmolec ules
AS H
å Ī
Ġst em
ĠG un
ĠIndust ry
Draw ing
ley ball
Ġ' ';
aa aa
18 61
f ar
ĠFac ulty
12 4
ORD ER
Ġ ðŁ
ĠC BS
ĠNov a
ç Ķ
Not Found
Ġmag azines
Ġj unction
AT CH
ĠSong s
Ġcomb ining
W I
Ġfe es
ĠSt ars
olt ip
mark et
Ġhabit at
Ġansw ers
ed ed
Ġestim ator
ey er
Ġcons ensus
Ġdispl ays
Ġours elves
Ġc ogn
Ġweap on
Ġsl ave
Ġloc ality
as ant
Ġbl ind
typen ame
ĠK il
l ive
n ative
w arn
Ġra ising
ar ance
log o
' $.
ĠA y
å ®
Ġk it
ĠK os
Ġcompens ation
Ġrot ate
ĠF isher
Ġg allery
Ġinstall ation
urs or
ĠStud ent
Ġmaintain ing
Point s
Ġlog ging
Ã© r
ard ing
ĠÃ ł
T oday
Ġqu iet
Ġemer ging
'] );
Ġc up
Ġrec ruit
Ġmon ument
ĠAut o
Ġs ql
phys ical
Ġdis put
ĠBr and
e b
ĠN ad
}) )
Seg ment
ĠObl ast
Ġall ocation
ose x
ĠF el
66 66
) ",
Ġex clusively
Ġco herent
Ġ Ñģ
Rev iew
Ġcoupl ings
}{ }
Ġstar red
Ġs ectors
ĠZ one
FF ER
Ġfun ctor
Ġprofession als
We ight
c atch
ĠH ub
12 1
Valid ation
Th omas
ab c
Ġlocal ized
Ġem issions
Ġt ends
V AR
Group s
ĠĠĠĠĠĠĠĠ ĠĠĊ
T y
Fe bruary
18 00
is an
Event Listener
Ġcontribut ing
Ġco ins
os ph
ĠSt ein
Ġw av
Ġ' ',
ĠD J
Ġrem ind
Ġgener a
cons istent
writ ers
Ġcred its
Ġmod ification
Ġaut hent
Ġposs ession
Ġgener ations
hol m
vel ope
let t
19 2
Ġaggreg ate
Ġa mazing
Ġoccasion ally
ĠB Y
ĠO cc
Ġge odes
Ġactiv ation
ĠM all
P an
ult an
ov ich
ĠM ak
Ġg rap
E r
W ord
ĠP ast
Ġrep air
Ġprom oting
Ġplan ets
Ġres ort
**** **
ĠRefer ence
ĠEconom ics
m ac
Ġmathemat ics
Ġm esh
c ass
S en
ag ination
get Id
ĠW ord
W H
Ġdepart ure
ĠAnn ual
Ġrare ly
ic ates
C LASS
{ .
an alyt
Rem ote
ĠTre as
per ature
Ġamplit udes
ĠV ancouver
var rho
h n
Ġguitar ist
ĠArab ia
Ġprocess ed
ĠAl tern
ĠF ro
sub stack
ĠStud ents
Ġcheck s
] +
Ġinher it
AT ED
ĠUnivers al
Ġbench mark
à ¥
Ġd ictionary
IN ST
L ive
s z
h istory
LE D
a uc
Ġcov ariance
om atic
ul o
sc ss
ĠMat hemat
Ġc inema
e u
Ġprov iders
ĠOper ations
Ġadmin ister
Ġ_ ,
F older
Ġcas ual
or b
ĠR iemann
over ed
Ġf ictional
l r
Ġg ray
Ġg od
ist ogram
ĠDE FAULT
trans action
l b
Ġap artment
Ġpain ters
Sh ould
Ġinc idents
Ġp ushed
le f
for ced
ĠĠĠĠĠĠĠĠĠĠĠĠĠĠĠĠĠĠĠĠĠĠĠĠĠĠĠĠĠĠĠĠ Ġ
188 6
Ġph rase
ï¼ Į
Ġatt ending
B o
Ġel if
or ious
ber ry
ĠCon text
k n
ch arg
ĠTurn er
t ol
ĠOr ange
ĠBS LS
ĠColl ins
Ġim aging
Ġdis pute
Ġwe aring
t v
ĠCarl os
S ame
ĠTro phy
Ġdis appoint
C enter
Ġd ub
em it
ĠSt orm
Î µ
Ġfor get
Ġg all
Ġp ending
Ġman ual
Ġsent enced
ĠÂ ©
ph rase
ĠW ing
Com b
Ġcon clusions
ro v
Ġsh adow
ĠL ithuan
Ġmag ic
ĠM O
Th row
/ _
G old
P lease
con tain
Ġparticip ating
Ġillust rate
Ġch rom
Ġanalyt ical
C N
ex amples
Ġeng agement
Ġhand led
Ġas ks
Ġvari ants
Ġsl ot
im ension
Ġext ending
Ġsurv ival
Ġv align
}{ {\
Ġact ed
Con structor
ig s
Ġbr ick
H tml
l icens
Ġvar ies
riter ia
Det ail
oc ols
Ġs b
ĠS ex
Ġcr u
iv ities
}} )$
Con sumer
__ _
ĠO pt
B inding
ĠAm endment
Ġf mt
ari ans
ĠPol itics
L ibrary
b olic
Ġbatt les
ĠB E
ass ign
S G
ĠJ azz
Y Y
ĠCharl otte
Ġs outheast
ĠG ate
Ġsub sets
F OR
ĠThe ory
Ġm ac
Ġdevelop ers
ĠCont ent
a ac
v dots
ol ia
abl ing
Ġhierarch y
Ġp or
4 50
F act
Ġinitial ize
s per
w alk
18 64
Ġfl ash
T or
Ġident ifying
H en
ĠCom par
Err ors
j ack
ne e
New s
S il
Ġadv is
Ġsurv iv
bour g
Sy ntax
Ġhistor ians
nt z
ĠRober ts
Test Case
Ġc able
ant ine
Ġpand emic
S am
ent e
Ġd rew
in x
Ġemphas is
Ġd s
Ġnegot iations
ampl ing
ĠN BC
Ġpubl ish
Ġc arrier
ĠĠĠĠ ĠĊ
ĠArch ives
B eh
ele m
ĠW or
ĠCh ron
Ġsil ent
Ġpl otted
188 1
for Each
Ġbox es
refer red
Pre vious
Ġvis its
() ),
un known
Ġres p
met ric
ĠJeff erson
ord inary
ut ter
ile vel
ache l
C md
Ġw elfare
Ġpo ems
Ġharm onic
ocr atic
Ġsouth west
if le
Ġg host
pl er
ĠI van
Ġscient ist
enn ial
" },
ĠSt ore
e per
Ġsuggest ing
Ġcub ic
cite alt
Ġcitiz en
D er
et ric
Ġcrick eters
ĠM ans
W ell
ĠPier re
ĠFor um
ĠSim ple
ĠShe l
read er
Ġob st
Ġpred ecess
ĠSer ge
S V
Ġs ocket
27 0
Ġt icket
ĠMed iterranean
SCR IPT
Ġex haust
b inary
Ġev olved
Ġchar ity
gener ate
Ġput s
ĠS ax
ul ates
Ġmain stream
L aw
Ġeffect iveness
ĠB asketball
Ðµ ÑĢ
CH AR
ro d
Ġh ip
Ġconsist ently
G ood
ĠWar ner
jav ax
ier ra
ĠSte el
Ã ¦
re ction
alax y
ĠGu inea
Ġs alt
Ġexpect ations
sup erv
ĠMar vel
us k
ĠE instein
ĠYork shire
d ashed
lect ic
ĠPr imary
Ġbusiness man
Ġpull ed
Serial izer
ĠC her
Ġtrans it
Ġmeas uring
Ġparliament ary
Ġind irect
ĠG ra
int eger
Ġh orses
ĠTra il
MACRO INCRE
ĠS pect
Ġflow ers
ĠSer ver
Ġcoll isions
MACROINCRE MENTED
b ast
ĠB urg
Ġaff ine
ĠM ason
Ġim plications
PH P
ĠF alls
\, {\
ĠS now
Ġdist inction
ĠQ CD
Ġover s
p mb
Ġb io
ĠH MS
Ġdial ect
Ġhon our
Ġtrans c
ĠHun ter
Render er
re ason
inc inn
Ġqual ifying
Ġdep ression
Ġintr insic
it on
18 63
| =
Ġanalyz ed
del ay
f mt
ĠOther wise
Ġconsum ers
Rec ip
ĠP ant
Ġprov es
M essages
Ġtext ure
ĠC ov
u ke
Ġext ensively
ol en
Imp lement
Ġre actions
Depend ency
Ġun con
/* !
Ġf er
Ġlog ical
ĠAthlet ic
Ġup coming
ĠE li
Ġcomb inations
Ġb ird
ĠWith in
Ġpos it
comm it
M icrosoft
Ġch ains
18 62
Cont ents
S napshot
ĠUn like
Ġres id
Ġdo ctors
Ġent hus
Ġpay ments
cont act
i ref
cc c
Ġrest oration
STR ING
ĠLiter ature
M ean
et ta
Map per
i ot
Ġtraject ories
pos itions
ĠFl ore
Ġcool ing
bor ne
." ""
Ġminister s
Ġg olf
Ġreported ly
uss ia
ĠGl asgow
ĠM s
end um
Ġsp okes
ĠClass ic
Ġ& $
ant ly
Ġcampaign s
Ġdis aster
> "
ĠH IV
E ast
Ġde als
Ġperm issions
< <
Ġinsp iration
Ġt y
# {
ĠM obile
Ġpay ing
RE D
Ġan isot
ĠPubl ished
ce iver
Ġdebut ed
Ġcancell ed
Ġsold ier
Ġex ponent
bl ing
dist ribution
[ ]{
rypt ed
ĠAlber ta
un ed
ĠCo al
Ġun expected
al ert
N UM
ĠT ournament
Ġf usion
sub mit
eg u
Ġun likely
Right arrow
Ġexclud ed
sp aces
Ã Ł
ĠEth iop
Ġout break
Ġcontr ary
' )$
Ġbelief s
ĠU g
å Ĳ
ack ed
ĠJ oy
Ġspac etime
Ġsustain able
Ġsub stitute
Ġb ary
ĠW IDTH
Ġprim itive
ĠMean while
Ġd ot
te chn
ĠAlex and
incinn ati
b ib
Ġ" ";
Ġover come
Ġsurv iving
dr iven
qu ality
ĠWhe ther
D iff
ol y
Ġth orough
i ology
ĠO wn
Ġmon arch
st eps
us c
S F
ĠF err
ĠPr adesh
Rel ated
L Y
Ġb attery
w ang
Ġdram atic
188 4
ĠN ar
Ġb arrier
Ġfil med
ĠSy rian
p d
Ġunder ground
× ķ
^ ^
str ument
Ġwel come
T own
od o
ĉ ĠĠĠĠĠĠĠ
ĠU SS
ĠL yn
av is
Ġphil osopher
Dem ographics
Ġw et
j ud
ĠS even
Ġhelp ful
188 2
Ġsole ly
Ġs ync
ĠCons erv
Pre v
Line ar
ĠF ant
Ġven ue
Ch art
j ax
ĠSt even
Ġanalog ous
Ġf ol
j d
ĠRich mond
W IN
ĠN icol
raz y
Ġ< -
ush ing
ival ent
Ġprote ins
ĠG reater
} ~\
Ġr um
ĠĠĠĠĠĠĠĠ ĠĊ
X Y
cel ona
getElement ById
Ġgr ants
Ġop ponents
Ġun stable
Ġcarri es
ĠL java
L D
T ur
Ġcut ting
Ġswim ming
Ġd y
Ġinnov ative
Ġjourn als
cred ited
Ġg ross
Ġlat ent
u cc
ĠPhys ics
12 2
Z ero
Ġdiss ip
iz ard
Ġperm it
ĠB ak
\\\\\\\\\\\\\\\\\\\\\\\\\\\\\\\\ \\\\\\\\\\\\\\\\\\\\\\\\\\\\\\\\
ant ics
Ġde ployment
mult ip
Ġ" [
Ġph arm
Ġpat ent
Ġlength s
Ġhapp ening
Ġre cre
process ing
c ussion
ĠP DF
ĠL ud
t ip
ĠDen ver
Ġrepeated ly
ĠB arr
Sec ret
re pository
ig ion
ĠSpec ifically
)= (
ĠHarr ison
ĠP ic
deg ree
Ð ·
ist ically
Is rael
Ġtim estamp
ĠF ermi
ĠV lad
comp act
ĠHind u
ĠSaf ety
in formation
Ġattempt ing
r ac
Ġtr im
Ġliter al
Met rics
UN T
Ġstr ange
c v
ĠPar ish
Ġqu ad
Ġde emed
C ONT
the ory
it us
ĠD A
ess ed
Ġview ers
ĠG ot
ĠJ ama
ĠT un
c od
on na
Ġsampl ed
ĠY ugoslav
Ġtrad itions
U psilon
Ġthe at
A cknowled
Ġob server
p kg
ĠF itz
Pol y
Ġsequ el
Fix ture
%%%% %%%%
ĠNAS A
Ġeconom ics
t witter
rib le
Ġdo ors
ĠRem ove
Ġiniti ated
st ad
ĠFe b
Ġholid ay
ĠGr an
nav igation
ach i
Ġfant asy
iv ic
a very
ĠC raig
Ġrefuge es
Ġthought s
Ġw arr
Ġul tr
Ġim pl
je ctions
S ql
Ġde leted
it ary
15 5
Ġaf ternoon
i w
te enth
ĠNich olas
ĠF am
Ġmon ot
ĠTreat y
cel and
Ġdes ert
AC H
ĠG raph
hy per
ĠD ays
ĠSt re
ä º
Ġs ad
Ġpe oples
In f
Ġcaref ully
ĠB ond
ĠKir k
ĠV irtual
ĠE C
ĠBl oom
c ov
Ġreflect s
g un
ĠCamp aign
Ġs ends
ĠSym phony
rit ic
Ġinflu ences
Ã¶ r
Ġnav bar
ĠV iol
in ions
Ġaux iliary
ro oms
z b
ig ator
N umer
Ġstream s
ĠDir ac
Qu ant
Ġaffect s
Ġcivil ian
Ġs ick
ĠFle et
ur u
b inding
= -\
ĠTh read
tr action
C ounter
Ġphys ician
ĠFI FA
Com put
Ġrefer ring
Ġweak ly
Ġthreat s
The me
ĠSer bia
Dep th
ad ic
ĠSpe ed
2 13
Ġpl astic
ancell or
ĠM yst
Ġearth qu
} <
cur rency
Ġtravel ed
g h
Ġmunicipal ities
i u
ĠOl iver
Ġto kens
Ġst roke
Ġf irms
Ġnormal ization
ator ial
Ġcomp ression
Ġtrend s
ĠMu hammad
he ro
ĠC arm
Ġt ension
Ġc ategor
ĠC ert
È Ļ
N or
å ħ
re act
Ġrele g
Ġfinal s
ĠM ix
Ġtro uble
Ġp ose
ĠPo isson
Ax is
Ġvir us
) |\
int s
Ġknow ing
d al
oid al
c n
Ġs ys
ĠB enn
Ġdis joint
. ).
Ġess ay
Ġexhib its
Ġp ian
ect ive
R ot
18 76
St atic
ĠEn cycl
igh bor
ĠTig ers
im ony
sub float
ĠEx per
Ġt sd
Ġemb r
ĠColomb ia
ĠAnd re
L o
Cont in
Â Ń
Ġsk ill
ĠAthlet ics
V A
ĠT ool
| _
ĠAl bum
with out
ĠF ram
ĠLead er
Ġo xygen
Ġun f
ĠAg reement
ĠS elf
Ġlimit ing
ĠIn n
Ġdec ays
p any
ĠS occer
nol imits
w hel
Ġdemocr atic
Ġre normal
ĠT alk
D ue
ĠO P
u ition
Ġg ard
column s
Ġver b
l ag
Ġdeleg ate
a que
ster dam
sh are
ĠCon sequently
Ġcab inet
Ġto x
ĠPro file
}} =\
Ġ{ },
hedul er
Ġ' ./
ick en
om es
ĠI gn
ĠNe braska
al ias
L ou
uk a
ĠVictor ian
Ġwood en
cont ents
akes pe
K ing
pl ain
S i
Ġagre ements
Ġgu ests
ric ulum
A bs
ĠO il
Ġor chestra
p ref
Ġoccas ions
Ġarchitect ural
at om
Ġs overe
Ġe ighth
am o
Ġim perial
sc ore
l ater
qu is
ĠE ffect
}_{ {\
ĠM oz
Ġch unk
c ity
Ġpre liminary
re z
10 24
ĠDe cl
;\ ;
Ġprogress ive
Null able
Ġfl ower
' +
ĠP oll
evel oper
B F
ĠBelg ian
Ġdelay ed
cal cul
Fail ure
ĠS ad
Ġscholar ship
Ap J
Ġsuff er
Ġmotiv ated
up t
en o
Ġg athered
Ġfr ust
z ym
om m
rt l
ĠConfig uration
ĠF BI
p f
2 10
s olid
ar an
ĠMil an
ff f
ĠSt evens
Ġd upl
ĠPho enix
Ġin comp
Ġneighbor ing
Ġrestaur ants
Rich ard
h op
Ġpeak ed
Ch ain
ĠAss ume
Ġpropos als
Ġvolt age
ĠMunic ipality
' $,
Ġgrad uating
ĠM ock
ĠRob in
sur face
Ġanalys es
Ġproject ive
Ġsh apes
C amp
T ri
Ġcl othing
ĠPer ry
en ers
Ġtravel ing
ĠM IT
Ġdecl aration
ĠDer by
AT O
bre v
Ġconflict s
B uff
ĉ ĠĠ
Ġa st
int ell
ĠBer keley
add le
S uch
Nav igation
Ġmoder ate
12 6
Ġhop es
ĠElement ary
Ġphys ically
c ourse
ĠS aints
Ġgu ys
p ad
Ġel abor
Ġorig ins
ĠPref ecture
Ġreview ed
Ġm ath
H A
ĠT ogether
Ġlast ed
188 3
ĠMult i
17 5
m other
. }\
Ġdon ated
o j
ĠE ug
ĠDr ive
ĠVin cent
re view
aster y
em ies
du ctions
s qu
head ing
Ġ Ù
et r
ri ber
ĠB aptist
B ool
can vas
V ICE
Ġcom ics
Ġconstr ained
Ġdefe ating
T uple
ĠSc ript
Ġf abric
ĠC row
Am ount
ĠF if
A UT
Ġaccom pany
ast rop
An alysis
Ġig et
ĠR acing
Ġcur rency
Ġportray ed
ĠSpr ings
th ird
sc ience
Z one
Ġafter wards
] ))
S plit
oc o
18 78
ĠLu ke
Ġden om
prov ed
b ecause
Ġfeel ings
st ation
pat cher
ah l
Ġp in
S erv
ĠTr inity
ĠDe lete
Ġperturb ations
ĠG round
ick y
U pload
Ġcon jecture
R ows
f ac
ex cept
Ġimpress ive
ĠA GN
Ġv ital
ina e
H y
direct ory
Ġ' .
ĠSus an
ĠP aper
um ann
Ġ" .
if ference
Ġhospit als
Ġg ro
AN G
Span ish
ĠPr ice
Ġstreng then
Log in
v skip
w iki
S ort
Ġprom ising
Ġcontinu ity
view port
Ġvari ed
Ġaltern ate
c x
Ġperson ally
Ġrend ered
Ġall ocated
be ing
over set
intell ij
at z
Ġcross ed
Ġleg s
akespe are
th y
Ġens ures
ik o
Ġproceed ings
Ġcomp iler
Sche dule
2 30
p al
fore ach
r and
Ġ> >>
p ages
Ex port
ov iÄĩ
ĠAng l
Sim ilarly
f olk
C V
ĠArt ist
ĠHit ler
ĠSh a
h uman
Ġtown ship
' }\
Ï ģ
ĠArab ic
Ġ$\ |
Un ivers
Ġact ively
ent i
Ġdel iber
ĠAnt i
Ġb anned
ĠA zerbai
3 20
Con sole
l icense
V irtual
Ġele ven
Ġp ump
ister s
K it
c ill
ĠJ S
Ġfl ed
ĠJer ry
ut o
Ġfor cing
Ġmod al
S elf
ĠH em
ĠKen ya
Ġh ook
Ġarrang ements
Ġrig id
; |
Ġlabor atory
Ġm os
Ġapprop ri
Ġtrib es
it ud
che str
Ġspe akers
ĠBuild er
Ġvan ishes
ĠDat abase
16 5
Enc oding
us ive
inter val
ject ive
amp a
Ġsh ifts
ĠP red
ĠBas ic
roll ers
A K
Ġ ----------------------------------------------------------------
Ġm ic
ĠR ank
Ġmechan ics
HE AD
Ġjud icial
R ound
s outh
is i
rat io
Ġbur st
f und
inn ed
Ġre pository
ĠS ay
Ġcomp ound
assert True
ĠD id
ĠRepresent ative
Ġexped ition
ON G
m obile
Ġauthor ized
Ġten ure
ĠN um
Ġcomplet ing
t ouch
ĠF ab
Ġpo ets
Ġdismiss ed
on line
J ac
ĠV el
Ġmir ror
Ġsh ore
Te am
ĠL ost
ĠJ en
og s
Ġn eck
m usic
ĠO C
sd k
Ġinfin ity
Ġr ub
Ġstr ain
Ġf ro
ĠS id
Ġl ingu
ĠFinn ish
5 000
it ol
å ¤
Ġint ense
P ut
Ġmem or
ĠR u
Ġp arks
row th
ĠJ son
er en
ĠCr icket
ore ms
Ġster e
Ġl os
s afe
ins ky
Ġl ots
ath on
18 75
Ġf ighter
Ġw edding
Ġste ep
P eter
ta wa
ĠPer u
ĠTechn ical
Ġgr an
ĠOut put
Ġclass ifier
qu arter
Ass ume
pro duction
ĠSt ories
Ġcan vas
Ġmin istry
re peat
Ġst ops
ĠW a
Ġinst ability
Ġ} {\
ĠL ess
ĠE ston
M or
ĠR ing
uck er
/ ">
Ġh ate
Ġnom ine
Ġoverse as
ĠW es
Fr ank
Ġgr ain
: '
pe ction
An n
Ġpark ing
Ġnon zero
I Z
Ġal pha
Ġcheck ing
et ics
k ernel
C ursor
t ot
sm ooth
ag ar
$ _{\
is ch
ĠJ ess
ĠCont emporary
Ġb orrow
ĠB orn
ĠWrest ling
ĠC L
ĠLeg al
Ġin cl
Ġguarant eed
Ġpack ages
the y
v p
ĠVenezuel a
Ġsegment ation
Ġ' %
ai ro
ĠIn nov
ĠM ong
Ġke eps
au kee
= (\
14 7
ĠS yn
ri en
ĠO scar
Add r
Ï ĥ
, (
ĠCl are
ĠH ann
ub ern
Ġwind s
ir s
Ġcl ause
top ic
fl uid
Ġdepend ency
F ac
link s
Ġspecial ized
Ġveloc ities
Ġe at
un ning
ĠAnt ar
Ġmuseum s
ovak ia
ĠS or
ĠIn ternal
g ression
ĠN ear
iss a
inter pret
Ġpers u
ĠMas ters
f etch
t l
w hat
ĠBr istol
gl s
Ġconstant ly
ment ioned
ĠAb u
Ð° ÑĤ
B IT
ĠCost a
cond itions
Ġge omet
18 71
h is
ĠN an
ĠB our
ag ma
Ġpre st
Ġre act
ĠC T
Char les
B bb
Ġ rib
00 2
m ime
ential ly
g om
Ġexcit ing
Ġgovern ed
18 79
Ġinf ection
ĠT ib
ĠPr act
ĠM icro
link ed
Ġcal ibration
t z
Ġcelebr ate
ĠG ay
ft en
Ġfl av
ĠFl ight
Ġcomm une
il ia
fer red
ĠArch ive
run ning
ĠEu clidean
ĠMag ic
res olution
ari ate
che ster
F ar
opt im
ĠH udson
18 67
Ġr ings
Ġpre dominant
ĠCon struction
Ġout per
itte es
MM ARY
Y es
Y our
Constr aint
ĠB uch
ĠDemocr at
Ġshop ping
Ġalleg ations
ĠIndust rial
ĠL evel
Ġannounce ment
B etween
it ual
tr ained
he res
ĉĉĉĉ ĉĉĉĉĉĉ
Ġnom inations
ĠC atherine
ĠAd miral
Arg uments
no ise
hav ior
est on
ĠFri ends
eff icient
ĠP od
Ġav ailability
Ġwe bs
ĠG as
Ġcomput ers
al is
ĠScient ific
Ġinvestig ations
ĠGi ants
Ġt ub
Ġ( âĢľ
Ġvalid ity
ig m
Di agnostics
Ġt ill
und les
aut ore
W F
Ġde eper
ett i
Ġlo ops
ĠSing le
ĠCh and
Ġqual ify
Ġdepart ments
Ac cept
Ġall ies
Big l
ĠP ent
Ġt ribe
ĠB orough
ĠM ach
Ġvent ure
Ġspons ored
Ð¾Ð »
AC CE
ĠL ate
Ġc ul
Ġt uple
Ġp ip
ne ut
BU FFER
ig rated
ĠB reak
ĠJ oint
Sh ared
Ġcos mic
f requency
Ġany where
Ġphenomen a
Ġstream ing
Ġper pet
Ġsent ences
ĠL arry
Ġl ying
.* ;
U r
ĠI ter
ĠHe brew
ĠB omb
Ġline arly
L ie
Ġclass Name
Ġhon ors
ĠI da
CON FIG
18 77
superv ised
Ġmount ed
× Ļ
Ġcor related
s amples
ĠF u
ĠAdd ress
ab olic
13 6
Ġrecommend ations
Ġwonder ful
Ġde formation
Ġexcept ions
Ġall iance
Ġmonth ly
ep he
Ġobject ives
Ġterror ist
' ',
Ġcamp s
f p
Ġrelax ation
Ġevery where
sl ide
oph one
Ġyoung est
ĠCom merce
Ġsettlement s
A ST
dat aset
al ym
ia o
od el
Al umni
ph al
Ġencounter ed
ĠSh aw
Le ague
Ġprem iere
ĠRog ers
B ounds
ens en
u uid
ĠJ ob
aj a
D id
Ġam ateur
r ules
18 68
F our
Ġover flow
And roid
Bl ue
Ġvulner able
Ġan ten
B us
ĠRoman ian
G overnment
op ing
Ġacceler ation
Ġ" '
Process or
Ġco aching
Ġcomment ed
Ġfest ivals
ch itz
Ġfor b
Ġqu oted
ĠY ank
co ordinate
Ġquot ient
ĠB og
Ġb es
mut able
ĠLl oyd
em a
ew ise
com pute
Ġsec ured
ĠR andom
Ġchem istry
ĠHig her
Ġsuper conduct
12 9
Ġfail ing
me as
Un iform
Ġtw in
bell ion
Ġcontinu ously
1 19
ĠV as
ĠB ot
Ġport rait
L oop
} &\
RA M
at che
on ed
Ġel astic
Ġsc an
ĠGerm ans
th rift
Ġexam ination
Ġcons olid
am pton
di ag
ben ch
ĠBar celona
W he
av an
Ġmulti plication
Ġchampionship s
ĠM I
ĠKe ith
ĠBuff alo
ve ill
Ġing red
ĠÐ ½
Ġc ust
arri ors
Ġded uce
B u
Ġreason ing
Ġ ell
ĠIraq i
Ġsl ice
ĠL en
ĠP le
Ġefficient ly
Ġbirth day
Ġfin itely
per cent
16 8
ĠHor se
ĠMont ana
Ġaccount ing
w aukee
ugg ing
Ġaccept ance
it ro
ol ition
ID E
Fram es
ĠH ur
get Instance
c ott
h d
n ecess
S ite
ĠB ird
ĠCol umn
Ġreg ulatory
13 8
re ach
Ġlaws uit
Ġimag ine
14 5
ark ed
ĠCom b
A MP
Con tains
Ġcous in
Vis ual
S te
Q t
ich i
j Query
13 4
iv o
oth ic
Ġo ct
Ġt orn
orient ed
Ġim g
Ġengine ers
Ġco hom
, ~
Ġde ck
ĠLeban on
Ġexam ined
s ay
in ery
Array List
Ġacqu ire
ĠTerrit ory
Res olver
ĠM aterial
Ġar ises
FI X
Ġent ers
In ner
Ġsurvey s
spir acy
Ġmanufact urer
att ed
ĠG rey
Al bums
Ġinn ings
Ġdef ending
Be en
ust ers
as is
z es
he ld
18 74
ĠForm ula
m ade
Ġend emic
Ġcult ures
g lyphicon
amp ed
S ocial
e lected
script ions
B ul
ar as
B H
. },
ph abet
Ġmer chant
G T
Ġcl one
Ġy es
SO UR
Ġharm ony
Ġmed als
ĠSch olar
ĠS end
Ġrec urs
" /
Ġor ange
Ġcl imb
AS K
ĠT on
Ġj ail
Ġrec ru
ord ination
Ġdis able
Ġarch ive
Ġprot otype
ĠT u
ĠT itle
Tim estamp
AT OR
Ġentreprene ur
Ġt ons
F oot
t bl
}\ ;
ĠQu arter
Ġal igned
ĠC ancer
ĠAm sterdam
Dec imal
ĉĉĉĉ Ċ
ĠGuard ian
Ġcaref ul
ĠMor oc
e ctions
Ġl ad
U ES
om eter
Ġg al
Ġhead ing
Ġ ^{\
Ġcryst al
veill ance
Ġnot iced
Ġorgan ised
Ġin coming
Miss ing
R M
fl ush
Ġinternational ly
Ġin duces
ĠMar x
ĠQu ery
18 72
D OM
P rom
Ġem p
ĠD raw
ĠĠĠĠĠĠĠĠĠĠĠĠĠĠĠĠĠĠĠĠĠĠĠĠĠĠĠĠĠĠĠĠ ĠĠ
Ġperfect ly
Ġt one
RE SU
Ġhel ic
hem atic
Ġbas ically
Ġcoff ee
ĠS F
Ġagre es
Ġdou b
po inter
Ġam pl
Big r
U CT
ist ani
ĠS alt
includ es
F eed
With out
ser vers
Ġas ide
w art
Ġin herent
W ashington
Ä Ł
ĠW onder
M el
~ (
ĠMethod s
et es
ĠJ a
Str ucture
ĠR angers
Ġrel ay
ĠIn stit
E ar
ĠB ir
ĠSh ang
Ġ_ .
ad oc
Ġmeaning ful
ĠV ar
Ġelev ation
ĠV ic
Ġfacilit ate
T imer
ĠCit iz
c u
__ )
ĠC ox
Ġâ Ĥ¬
as ia
18 66
ous ing
Ġatt itude
Ġsuff ices
ĠStan ford
ĠN GC
ips chitz
Ġbo ats
& $
ing e
W ORD
Ġattract ive
o il
Person nel
ĠGr ace
Ġmark er
Sign ature
Ġob sc
ĠMur phy
Ġover whel
sim ilar
Ġrev ised
Co in
om pass
St age
Ġun em
s yn
ä ½
Ġplace holder
ĠS z
tt ing
Ġexpert ise
ĠAthe ns
ĠB egin
ĠRec all
ĠL oc
A SE
Se ason
atern al
ĠNot ice
ĠG arc
Ġcloud s
ĠE V
Ġ$ <
Ġart illery
\, .
Group Name
Ġaccur ately
ĠGon z
c op
ĠT erry
m el
pert urb
ĠInd ependence
RA Y
cl ock
__ ["
Ġper ceived
ĠAp pro
to Be
}. \
ĠPalest ine
ĠCan al
)} _{\
ĠWat son
ĠLeg end
Ġbr idges
Ġver ified
15 00
ĠP el
Ġfl ights
Ġenc oder
Ġabs ent
C a
Ġcount ing
13 3
Ġcompos ite
Ġliter ally
ĠCl ay
Ġmurder ed
Ġthe sis
Ø ¯
enc ode
ac ies
ĠB ath
Ġrel ies
FI ELD
Ġ" >
ov an
Ġab ortion
\| _{\
ĠM uch
ĠArchitect ure
Ġoccur ring
Ġla ugh
ĠY am
ac cur
ĠClass es
Christ ian
ull ivan
ars on
Ġgr ave
Ġretriev e
ij i
Ġop ponent
Ġvolunte ers
u et
ĠAnd r
ĠM end
20 2
18 73
ĠL ux
Ġimag inary
on ies
ĠC ob
ĠK ap
;| &
Comp at
Ġ$ $\
P OS
log ging
Ġstat ue
Ġextr action
is b
Ġar ising
bl ob
Ġanom al
18 40
Ġcap ability
T ile
Dep recated
Ġadvent ure
ĠI celand
um ped
ĠEd wards
F ace
Ġan ime
D ATE
ĠOver all
ith metic
Ġdou bles
ĠF un
D ynamic
Ġcert ified
ĠM ann
Ðµ ÑĤ
' }$
Ġgrand father
l floor
ash a
pro c
Ġdemonstr ates
I l
Ġep id
Ġins pect
ĠVAL IGN
Con vert
Ġpsych ological
Ġmanufact urers
con struction
om eters
ĠNe il
at ile
ĠA x
if iable
scal a
pl acement
Ġcap s
enc oding
ĠRem ark
ĠMad ison
Ġbl ank
am ination
Ġto ugh
R UN
r ame
effect ive
ĠRey n
Ġdec ides
m ust
String Builder
CO MM
Ġformul as
> $
ĠSh akespeare
Us es
qu er
ĠH ave
Ġveter an
f ake
Ġsudden ly
Ġg ains
h yp
Ġvis ibility
Jew ish
Ġhighlight ed
Ġcon fess
3 000
ĠA B
Ġgener ality
ĠFe ature
ey l
Ġfeas ible
k ern
Ġ æ
Ġap ilevel
g z
Ġbr ands
ĠB right
ĠTransport ation
ĠC IA
Ġbroadcast ing
Ġ$ [\
i ating
ĠD oc
S ir
14 8
ĠBy z
label s
Ġm apped
ĠNash ville
2 25
Ġvari eties
Ġgen es
Ġbi ography
Ġappro ached
ident ity
Ġm arch
ĠCh ap
= %
Ġsynt hesis
ĠB rew
ĠL ion
ĠPr im
Perm ission
ĠM aced
ac co
ĠAl ong
G EN
Al gorithm
Ġm as
ĠA str
) !
Ġdr inking
tim estamp
Ġsquad ron
re po
Ob server
Ġenc ode
licens es
Loc ale
ingu ished
y t
Ġs ax
ĠSocial ist
k k
P Y
c fg
Ġun ions
ack ing
Ġw ars
Ġbre ast
ĠLabor atory
Ġchar ter
ĠBer g
ĠHoll and
ĠSU MMARY
r floor
ĠR ou
Ġelim inate
( |
P ress
se en
Ġtreat y
ĠDo es
Ġtherm od
ĠC incinnati
ĠH ost
trans l
Ġsubsid iary
Ġhe ating
Ġpars ed
ĠAct or
W ho
f ers
h ig
Ġiniti atives
ic z
T yp
Po jo
ĠE le
)} =
Ġassoci ations
Ġreform s
Ġwealth y
) |^
Ġcol ony
rem ote
ĠSpe aker
Ġguarant ees
ir able
}_ +
. (
G G
p iece
he v
B uf
amb ers
ĠD iamond
Ġ{ {\
St ub
Ġch ron
Ñ Ĩ
âĢ ĭ
r v
ĠSe pt
Ġinsert ed
Ġh ub
ĠIm port
P FNGL
Re ason
Ġconcert s
Ġassum es
J ose
cknow ledge
Ġf etch
ĠT arget
! âĢĿ
Ġt ribute
T M
ust ed
Ġobserv able
act ual
Ġg ates
Ġr hythm
Ġsubstant ially
p ars
F RA
Ġbank ing
Ġdiv ide
st ock
Ġf inger
Ġs le
Ġconf usion
ass oci
Run ner
Ġsup ern
ĠC urt
F ixed
ĠM ut
L ib
ĠF ast
ink s
13 7
Ġcard inal
st rip
ag i
}_{ (
Ġrem arks
am ount
display math
Ġassist ed
b ie
ou p
LE MENT
ĠDel aware
S ide
ĠCre ates
Ġneighbour hood
ĠC lear
Option al
ĠL LC
ĠU RI
Ġvol can
Ġaffili ated
ĠLore ntz
ĠAb raham
}= (
ela ide
Ġanal yst
Or iginal
^{ [
ĠN A
Ġspec ification
55 5
por al
ĠEl li
G s
ĠComp an
iz a
min a
M ont
d ating
arri ers
_ )
RESU LT
Ġsl aves
ĠT i
fr agment
Ġg ent
c orn
Ġf iscal
Ġout line
s ame
ĠCP U
class Name
P s
ĠK E
Ġev ac
14 3
R oyal
sw ing
Ġhuman ity
th lete
or se
ĠD raft
ĠMun ich
Ġint ens
Ġmyst ery
s ocial
ri er
Ġ{ %
ĠW ol
ĠY u
H older
r pc
t m
Ġre fr
ac a
ak ov
Ġpat rol
K K
Ġpsych ology
ĠT otal
Ġdeterm inistic
h aw
ĠDef ine
Ġpotential s
Ġbroad er
I ll
C ountry
en os
al am
ĠH aving
ĠCh o
Ġw ings
Ġres ervoir
Error f
Ġdocument ed
> ()
' },
Ġb le
18 69
Ġrep ly
g em
ĠB ass
ĠBe aut
Del ay
Ġan notation
Ġad mit
ĠB und
med ium
Ġal ien
lib s
* ,
Ġt d
. (\
f ive
ĠSt op
C at
' =
gener ator
ĠSim ilar
ĠCar r
A SSERT
HO ME
Ġun cle
13 2
R GB
Conver ter
ar ound
Ġwat ched
J im
app ings
ĠStat istics
ev ille
ethe less
ĠVerm ont
ĠU til
Ġf older
Ġb ug
L ondon
hes es
Ġcompan ion
ĠBeng al
Ġamb ig
us p
ĠMe V
ĠGh ana
get Type
Ġf atal
Ġlocomot ives
UB LIC
Ġplan es
ĠB ody
M ot
18 48
ĠY ale
C am
Ġprov inces
opt imal
c ritical
ĠEn c
cl s
Ex pected
}) (
Ġlog o
ĠM ol
M W
ĠWeek ly
( ['
Ġl ights
}} }{
ĠN othing
Mod els
Ġachiev ing
Ġrout ine
45 6
Ġminim ize
Ġpop ulated
ĠLu is
ĠNep al
Ġorgan ic
B s
h all
Ġop inions
d ifferent
Ġaud iences
Ġ( +
Ġr iding
ust ain
uck land
ul ous
ĠCom ment
C irc
Ġhyper bolic
Ġadv ocate
mem bers
ĠE sp
G IN
Ex ists
Ġem otion
ĠPhilipp ine
ĠN HL
V ec
acef ul
in ology
ĠChe l
ĠV eter
ĠAl ger
Ġconv ey
Sep ar
os hi
in ced
ĠPro duction
cor rect
Ġd st
ĠC u
RE SS
Ġsoci eties
Ġnumer ically
Ġpro ton
ill iant
h istor
Aut hentication
Ġintegr als
inem atic
in ance
ad itional
osoph ical
ate ful
pos itive
ĠAdv anced
}\ }$
ĠUn fortunately
DE X
PRO P
Ġconven ience
Ġse eds
az i
script scriptstyle
Ġprom ised
Part ition
Ġme at
R ay
c ancel
ious ly
Ġ-- ></
ul sion
}} }$
Ġim per
OR K
Ġsister s
Ġexc av
Ġtim ing
ena issance
00 5
Ġassert ion
" ];
(' <
qu estion
ub a
$ (\
ĠM ort
q q
Ġco in
ĠL is
ĠN ull
Ġf ert
E conom
ĠPl anning
] ^{
AAAA AAAA
ĠA round
}) -
Ġab elian
G allery
Ġsimpl ified
refer ences
ra h
Ġg raphics
ro e
Ġac res
it ations
Ġformal ism
Run ning
Ġpl acing
fig s
ars ity
Afr ican
Ġaccess ed
con vert
ep ing
) )$.
ĠP L
ĠAv iation
Own er
n ear
Ġenc ompass
Ġb read
Ġl ap
Column s
C ritical
ĠB ald
ĠCo q
ĠIt em
Ġimpact s
d st
Ġdis cre
Ġe arning
á º
Ġmod ifications
Res et
Ġi i
UR N
publ ished
ĠPers ian
F ALSE
ĠD elta
ĠE uler
te ch
ĠMon th
ĠS V
project s
Ġsearch ing
spect or
Ġc amer
Ġb oss
get String
ĠCom plex
ĠFri end
ĠL L
Ã ½
Ġorient ed
LO W
ĠL ions
ĠInter est
P romise
ĠEx p
Ġcelebr ation
Do ctrine
M ad
Ġr ab
& -
W il
ĠSer ial
Ġdesc riptor
ĠSer bian
BU IL
As set
Ġhom ot
ĠMer c
Ġasympt ot
L ow
vel t
ĠCr uz
Medal ists
Ġ\ #
S K
prot ect
Ġw ake
C ost
è ¯
Ġintegr ity
Ġdefend ant
ent in
p rior
Col lect
Ġen emies
Ġconnect s
ĠRead ing
Ġ uri
Ġrecogn ised
Ġwrest ling
ĠR ivers
man agement
C ancel
Ġver ification
14 6
Ġhe x
Ġfun eral
ĠBO OST
ut ton
18 30
Ġhigh lights
Ġl in
B road
el o
Ġshe ar
ĠHis panic
Ġconsider ably
Ġsc iences
ĠDr agon
d m
Ġexcit ation
Ġâ ĨĴ
t uple
ent o
ĠS cal
Ġar row
ĠQu ant
( ()
ab stract
ĠDe ut
Output Stream
ĠCl imate
Ġarg ues
m ms
Ñ ħ
Ġachiev ement
Ġc rop
Ġrat ings
Ġexception al
> '
r age
Ġdem olished
Ġconduct ing
Ġsynt ax
it zer
paren cy
_ [
). }
iv odes
hand ed
. ]
b undle
Ġinter pre
Per iod
pre vious
C ross
ĠâĢ Ļ
Ġvo ices
Ġl iv
ĠF oot
am ation
ĠH im
ĠSud an
Ġdist ant
ĠForm er
b ank
Ġvirt ually
alt ies
Ġs a
ĠST ART
fe atures
ĠHel en
ĠPerson al
ĠAct ive
ĠP in
ĠCo hen
om o
uck s
oun ters
L ead
f lix
ĠS ah
ĠA F
Ġsk i
RE CT
Ġtrad ed
ĠHer z
Ġb oot
ĠR aw
Sever al
ĠNor folk
ĉĉ ĠĠĠ
Ġimp ose
hel m
B ooks
Ġincre ment
Ġmart ial
ise cond
Ġt iny
A X
Ġglob ally
Ġbond s
Ġc argo
ĠB ach
(" %
ical s
Ġqu art
Ġuniqu ely
Ġm s
ĠSe an
ss l
Ġscreen ing
ĠPen insula
ĠS outheast
Control s
Ġfast est
dis k
LE TE
Hon ours
ro at
Ġ( #
ĠD ennis
Ġpoint ing
Academ ic
Ġper cussion
Ġconv inced
Ġelli ptic
om ed
Ġexplos ion
Ġt ube
Ġdu o
ibl ical
ĠB eth
ĠĠĠĠĠĠĠĠĠĠĠĠĠĠĠĠĠĠĠĠĠĠĠĠĠĠĠĠĠĠĠĠ ĠĠĠĠĠ
Ġm anga
ĠSm art
pe g
Ġto mb
{ [
um i
AP P
l c
STAT US
×ķ ×
Ġpreced ing
Ġdiver gence
K ar
S n
ĠBudd hist
S mall
ĠCh apel
ĠCons ervation
ĠBut ler
' -
t oc
Ġob l
gom ery
mid t
$ --
stats models
Ġconj unction
ĠWork ers
ĠAng lo
O k
Ġneglig ible
ĠC ant
Ġgo ogle
Ġin cent
Fl ora
ĠTh ings
Tax a
Ch inese
Ġtour ism
s heet
part ition
ĠLi u
Ġsqu ares
Ġcontrad ict
h p
Ġh az
ep age
Ġobserv ables
ĠÐ ¸
ap id
ĠK un
Ġtrad itionally
T AG
Ġd iamond
Ġunder graduate
augh ter
Ġa cknowledge
P ack
IL ITY
ced ure
C art
ĠHar vey
ĠH amb
ĠP ub
Ġsub str
) <
ĠL E
second ary
ĠM atch
l ies
ĠD ol
Ġgot o
h ou
ĠPeters burg
Ġlie utenant
M oths
ĠTr avel
ĠC OL
m any
he x
ĠMed ic
Ġconcent rated
ordin ates
Ġpat ron
}, {\
ox y
ivodes hip
ĠK rist
Ġf ighters
Ġcomplet es
h pp
Ã¡ s
ĠL ov
Ġvol unt
Ġens uring
ĠH at
Ġp reference
ĠP ick
> %
Ġc ow
lim ited
( --
is se
in ters
Ġsub scription
ew ay
ĠĠĠĠĠĠĠĠĠĠĠĠĠĠĠĠĠĠĠĠĠĠĠĠĠĠĠĠĠĠĠĠ ĠĠĠĠ
C ALL
N I
ĠP av
15 2
Ġposs ibilities
Ġcou p
d jango
ĠH unt
ic ode
ber ger
Ġread ily
ĠHer bert
ign ore
ac iÃ³n
Ġcor poration
l st
o ons
Ġpl aint
d ie
Ġd ivers
ann i
Ġdiplom atic
Ġsus pic
Ġen umer
ĠMe chan
g p
bre aking
ĠAgric ulture
et ter
ot he
Ġstop ping
Ġplay offs
ĠLiber ty
H H
En able
ex act
r ations
= {\
Ġdevelop er
ĠCam eron
Ġsust ained
Ġed iting
Ġen orm
itud inal
K n
us r
Ġt anks
Ġsp ots
def er
QUE ST
at ri
Ġembedd ings
f uture
create Element
Ġdig it
Ġsub graph
Ġbus y
ĠOt tawa
' )\
ĠM idd
Ġa z
Ġn s
Ġstri king
Trans ition
Ġrefer endum
ĠGl en
Ġsh ots
Ġsub stance
ĠBroad casting
ir ts
L ear
ĠP ra
ĠL apl
en burg
Ġorig inated
ĠPhill ips
im eter
NO DE
I p
Ġad option
18 59
k u
Ġa ria
ĠS L
m v
ex ecut
order ed
Ġ' "
I ss
BA SE
ĠFil ms
Ġsort ed
Ġperm utation
R ules
Ġsc rap
IC ATION
andid ate
en vironment
Ġgu idelines
ĠArt illery
C B
Ġless ons
ĠC OM
ĠQ ual
rele ased
F ort
LA Y
Ġrecall ed
f un
at ra
igr ant
Ġexhib ited
H ung
Ä ĩ
IM IT
g ender
Ġen zym
ĠS yl
16 9
gr av
Ġsuppress ed
Ġs weet
ey n
Ġdr ift
Ġtyped ef
M ary
Ġf ur
Ġed itions
Ð¾ ÑĢ
Ġderiv ation
on ing
US A
ĠHug hes
Ġident ities
ĠMunic ipal
Ġelect romagnetic
ĠP ont
Ġinequ alities
ĠAssoci ate
h skip
Ġp c
Ġb one
be at
Ġpract ition
Ġsusp ension
vers ely
Ġlegisl ature
@ {}
W arn
un lock
Ġland ed
pt s
Ġrepro duce
r ating
Ġ' #
Ġmodel ed
Ġthick ness
ens on
T ouch
l ua
ert on
ryst al
sp ot
H a
Ġregular ization
Ġbal anced
ĠVo ivodeship
ĠD OM
Br idge
N Y
ĠU lt
W atch
l int
leg iate
Ġun w
im an
Ġseek s
R F
ĠH ob
ĠThe od
p id
x rightarrow
OL D
Ġc umul
Ġbl ues
Ġel ite
Ġa qu
om i
Ġhar ass
ell ows
ind uced
Ġm ild
im od
B ill
Ġag enda
ip per
Com pan
all ed
}\ )
olt z
ĠD ou
n orth
w allet
6 50
Al pha
Ġintrodu ces
L IST
Ġgraph ic
B ER
ain er
Or igin
Ġinteract ing
Ġaccompl ished
m art
ĠT ed
ĠG T
Ġassert True
ĠAb bey
Ġem it
Ġport folio
Id x
un i
ose velt
ĠL abel
G ate
à ¦
Ġvolunte er
ind a
Ġqu ote
Ġpo ison
T our
__ ,
fl ux
ĠW ikipedia
L uc
Ġcan n
Disc ography
Ġc am
Ġrel ate
] _{
stro ke
ĠAgain st
ĠLeon ard
) *
b uff
Ġpal ace
j b
ab we
uch i
ĉ ĠĠĠĠ
Ġw x
Ġfraction al
ĠT yp
gr avity
uss els
Ġsummar ized
ĠH ugh
Ġ| =
ever y
Ġdispl acement
it r
Ġto urs
Ġsu ite
W alk
Ġpower ed
Ġbre ath
ot er
âĢ¦. âĢ¦.
get Message
s ized
pp ed
amp ing
sc opy
Ġc avity
ĠS ierra
Ġhistor ically
ĠAir lines
External Task
or ters
Ign ore
Ġst y
Spr ing
set ting
Al t
ĠUE FA
< >();
L icense
}| ^
Ġmil k
A U
Ġimplement ing
ĠS oci
Ġ- =
Ġsnap shot
D irection
Ġcommun icate
Add itional
ĠPro perties
Ġr itual
Ã± a
hab ilit
Ġtest imony
Recip ients
if ice
Ġb ucket
ot hes
ĠP romise
Down load
18 57
ĠS ession
EN V
Ġt issue
ĠAr c
Ġflex ible
ĠN at
str ict
Pr imary
Ġinv ariance
Ġann ih
Ġastr onom
Ġrep ublic
ov sky
Ġdog s
CC ESS
ĠR idge
sc an
ĠF L
Ġequ ity
Ġwrit ings
Ġscal ed
ace ut
ors ion
Ã ī
Ġhe ll
ĠWrit ing
ĠS olar
ch at
Ġprepar ing
ĠS ony
ĠV ent
ick ed
ik es
st ri
oupl ing
ĠK ay
ĠS oul
Ġbank rupt
Ġwebs ites
Ġnot ification
ĠW u
ta x
Ġcross es
Ġn inth
ĠC ad
ĠWell s
ĠLa ura
Te chn
Ġcont ested
ij k
Ġdecor ated
Ġhun ting
ur ated
annot ations
Ġer ected
Ex ecute
trans fer
qu est
Ch anges
ren ew
}) _{
}( -
Ġdev ast
Ġvari ability
Ġcompos itions
ist le
sur ance
Enc oded
Ġfem in
ĠS ultan
G D
min ster
cos ystem
U ntil
f m
Ġaccept able
c mp
Ġchalleng ed
Ġin hib
Ġtele phone
Ġterror ism
ĠR alph
f eld
sh ops
TR AN
Ġrecon structed
TH E
Av ailable
Ġvan ishing
ma jor
Mon th
Ver ify
not ify
Ġprodu ctions
ĠVen ice
Ġr ay
ĠC ell
Ġesc aped
ĠG host
C odec
Ġindic ator
ĠT ang
Stat istics
Ġsens ors
cass andra
N eg
Ġremov es
Ġext inction
A ff
im o
ĠBulg aria
w oman
Ġr ated
ĠL icens
ah an
ĠT oy
15 6
r ain
ĠP resent
Ġcaus al
Ġbon us
J ud
ĠGr ade
ĠD R
Ġj u
Ġpat ri
LIC ENSE
Ġsum mit
Ġtempor arily
ic as
ĠSt uart
Ġproof s
ver ify
Sm ith
pos al
lev ant
Ġam endment
c aster
z ing
ExternalTask Pojo
ĠN y
imb abwe
power ed
se gment
be ans
Ġdecre ased
aus es
Ġport s
Ġboard s
act ers
ST M
s al
Def unct
Ġattend ance
================================ ================================
it ious
Ġv ibr
ĠG C
N orm
Ġv e
Ġsk etch
G F
le man
Ġmem ories
ĠArt ists
Ġt ar
ĠAd elaide
Ġred irect
ĠS ask
H ave
n om
Ġsynd rome
UT C
Rad ius
." )
Ġc ave
ĠIm ages
utr ition
ĠJ ar
SP AN
Ġsh ield
Ind eed
Ġinter sect
Profess ional
ĠPhil osophy
Âł Âł
spec ies
p n
all ing
ĠCh i
Ġinaug ural
S aint
p lectic
he art
Ġd otted
L IN
Ġflo ating
g ements
Ġc b
ĠCon c
at em
C AR
Ġ ib
Rep ublic
Ġ à¤
Ġpro c
pr agma
Ġfl avor
Ġunc lear
R ock
ĠProtest ant
at able
Ġshall ow
Ġmaintain s
Ġprov ing
Ġf s
Reg ular
Ġtro ubl
ĠFa ith
* {-
Ġpr ayer
}$ ).
ĠHe avy
Ġadvant ages
Ġ` ``
se cret
ĠCr iminal
Ġs ugar
con cat
Ġtr aces
fr ames
Ġl obby
Trans lation
H F
^- $
__ .
Ġch ronic
l it
A thlet
b is
act ing
Ġachiev es
Ġpun ishment
Ġs aving
ester day
di agram
Ġ' _
Load ing
ĠT as
Ġj ets
Ġprint f
ĠBy te
Ġemploy er
Not ice
und erset
ĠHar old
ĠMem ory
ĠR oche
Ġs hed
ĠA ber
ĠF actory
text ure
Ġf iring
B razil
Ġcivil ians
ĠArmen ian
ill es
end point
ry s
ĠS ox
Ġ' ,
am ic
trans port
Sc ore
he alth
Ġinj ection
Ġref ere
ĠZh ang
w al
Ġass ists
As sembly
Ġport ions
è ¿
ĠWall ace
isher s
V O
arr ison
ĠCong o
M ur
ĠS ak
ĠN ATO
ĠHar bor
ĠBob by
ĠF iction
ĠK ol
ĠEd ge
Ġm ines
Ġjoint ly
Ġcompet itors
Ġsett lers
Ġthere after
Ġalleged ly
TI ES
m ot
M achine
M ust
Cent ral
stit u
40 1
oca ust
Ġ} $
h ang
Ġm amm
Ġviol ations
Ġcommand ed
U nd
Ġs ake
Ġ& #
Ġsc andal
ĠA uckland
av ier
99 99
tr on
sol r
Ġinf antry
ener ate
Ġhand ed
Ġfif teen
big skip
Ġcent res
Ġlik ed
L iteral
ore l
vel oc
ap est
Ġout door
M ix
ĠM orning
pi pe
33 3
ĠAmb assador
( /
Ġc emetery
b ur
ĠCroat ia
Ġswitch ing
Ġab ilities
Ġtang ent
ĠArn old
P N
Ġsculpt ure
Z Z
K L
m g
ra f
ĠG overn
Task s
Ġuser name
v ance
m un
Ġmod ular
ici ary
ĠL ot
Ġp ill
ĠR ules
loc ale
ĠB H
ĠC M
Ġper ception
ĠR osen
idel ity
Ġinvest ments
am y
v v
Ġmake up
Ġwav ef
od ic
Ġtalk ed
respect ively
Ġn inet
ĠL iga
rel ations
xim ity
Ġsl avery
EX PORT
B reak
Ġprogram mes
p ine
Ġprint ing
ancell ation
ĠTe acher
> [
ĠVis ual
Ġconstit ute
Ġacknowled ged
\ }}
ĠF O
Mon itor
ĠN ancy
ĠDi ocese
ĠFil ip
oc hem
Ñģ Ðº
res olved
Ġlearn s
Ġb ag
Ġobserv ing
O cc
ellig ent
Ġbehavi ors
ĠCl iff
Ġfoot age
ĠK ill
File Name
ĠG ilbert
b ibli
ĠMon ey
ĠEv ents
Ġdisestabl ished
Ġv ec
13 1
Ex amples
M ale
f av
ĠDr ag
f w
ĠAn cient
Ġviol in
Ġburn ed
Ġconsider ations
ĠPar se
Ġarr iving
ĠE T
ĠLe o
Ġbos on
S ol
ĠP ain
Ġtrans mitted
H uman
Ġspeak s
Ġanth rop
Ġcharacter ization
20 3
S at
ĠR O
ĠÂ ·
agon ist
at um
il o
cons ider
Ġcollect ing
Ġm oon
ĠW HERE
found ation
M ex
H ot
ĠÐ º
Ġrect angle
14 9
Å Ļ
Ġdifferent ly
RAN TIES
it ic
Ġult imate
Ġtrigger ed
Ġfoss il
ĠK ate
im en
ĠB esides
Ġrel ativistic
Fe atures
m ov
Ġeg gs
ath y
po i
Pr inc
ĠArch bishop
RE T
ĠFlore nce
Ġt ale
ĠTh ank
ĠB aby
Ġbe ating
Ġfarm ing
center line
Ġl ux
ĠH av
Ġaccommod ate
Ġsus pected
Ġmar ry
war z
ĠĠĠĠĠĠĠ Ċ
Array s
ĠSl oven
ac ion
Gr and
Â ©
ĠV ict
br anch
RE S
Ġbelong ed
Ġfunction ality
Ġsec ular
ARN ING
Ġcompr ises
former ly
Ġcompl aint
Ġre built
pot ential
Cre ated
ĠPro ductions
pre pare
Ġtack le
22 4
Ġdis orders
ĠSing les
An im
> ;
Ġrad ar
W el
Ġfore cast
Ġcop per
ĠGreg ory
ĠJust in
ĠRun time
ĠA f
Ġfollow ers
e conom
Ġ( %
ĠHe in
Scott ish
ĠJenn ifer
Ġte a
lin ux
el ia
ĠH az
in ject
Ġb ull
get Class
) }^
ur as
Ġdiff ers
ĠLog ger
ap y
Ġcomp ounds
30 1
ĠAzerbai jan
H I
d ue
ĠWAR RANTIES
sup p
ĠIn valid
ĠS oph
ĠIn iti
ĠW ait
p k
ĠArm ed
google apis
Ġto m
L ittle
N L
Ġinc umbent
ĠSo on
ĠEx amples
Ġblock ed
Ġen rolled
DE D
Ġmethod ology
Ġinterpol ation
S witch
15 3
ĠMil waukee
ĠV oice
alt Color
rot ate
Ġfrag ments
ĠS uz
ĠReyn olds
20 8
Ġhold er
Ġdo ctrine
ĠLin ux
ĠEncycl opedia
15 1
Ġaver aging
re duce
ĠN athan
Ġrend ering
path s
Ġburn ing
op ens
ĠM ick
Ex pect
st ellar
ĠSu ccess
L ines
ĠW er
Ch ina
Ġinter active
ĠI de
Ġfall en
Ġlisten ers
harm onic
Ġthr one
ĠB ear
Ġcitizens hip
Ġsh ops
or ange
S ound
Requ ire
D TD
ĠM ul
att en
Ġpar ity
Sw ed
ol ine
ad ers
>< !--
ĠE SP
Ġo mitted
ĠLat ino
Ġdivor ce
16 6
Ġl ic
Name Link
ĠT ry
Ġconf used
ĠCom ponent
pr ises
Ġpe ers
p el
Ġm eth
ĠW i
Ġch apel
Ġlocal ization
th al
s an
Sup ported
Ġadapt ive
Ġt ape
r x
ed ges
Ġthr iller
Ġ\, ,
cho ose
br acket
t ake
Ġex terior
Ġgold en
z ig
Up per
N ever
}}\ \
te le
ĠRo osevelt
Ġwalk s
Ġst ick
De ep
Function s
Ġsymmet ries
g overnment
item pty
} ",
â ĪĴ
Ġemp ire
Ġcur riculum
âĢ¦ âĢ¦
Ext ensions
Ġmanufact ured
g al
. ',
ĠG ust
om itempty
Ġad equate
Ġed itors
Ġsurpr ised
Serial ization
ĠR elease
Sh ader
Ġ' ''
18 55
ĠJo an
Ġ( ).
pi res
Ġsimpl er
Ġt f
Ġsoph istic
100 00
R ank
å Ĭ
Ex tra
Ġswit ched
Ġconduct or
ig roup
ĠA aron
ĠE ld
g raphics
Ġmotiv ation
ort s
26 0
und a
U A
u ine
ĠTest ament
Ġrock s
Ġor al
Ġdrum mer
T reat
v or
ĠA w
Ġdist ribut
An not
Con v
ĠFellow ship
30 4
Ġb orough
ĠS K
ĠPun j
Ġdro ve
18 58
Ġpre val
Ġup grade
ĠCol lect
20 5
W C
e ur
Ġstruct ured
ff ield
Res earch
Ġbr ut
Ġr ally
Ġins ights
Ġquant itative
Ġcomment ary
Ġscatter ed
Ġpro l
New ton
c oc
Ġtr ump
Ġat tractions
14 2
Ġconver ge
or um
Ġpl enty
Ġs ender
pect ives
ĠM ail
}} +
Ġinter fer
Ġpoor ly
ĠV ert
BO OL
ext ensions
Ã¼ n
Ġto uring
18 54
ĠR enaissance
Ġdistinct ive
ĠL an
rypt o
ĠCirc le
Ġform ations
ĠT OP
22 2
ac ular
F ire
ĠR L
Ġlock ed
Ġpl acement
18 56
Ġrel ocated
ĠR us
Ġfr act
28 0
ro uter
Serv let
ĠRe ed
Ġhas n
Ã Ĺ
ĠM ig
Am ong
æ ķ
Ġsus cept
Ġ Ã©
uc le
Ġsuperv ised
ok u
stat ement
a qu
(" \
^ +\
Ġcont rolling
15 8
Ġoptim ized
ĠR uth
ĠWork ing
ah u
Â ½
M AN
Ġproceed s
lef trightarrow
Ġpoll ution
s olution
ĠAdvis ory
ĠD ise
d anger
Ġb ishops
Ġdescript ions
ĠĠĠĠĠĠĠĠĠĠĠĠĠĠĠĠĠĠĠĠĠĠĠĠĠĠĠĠĠĠĠĠ ĠĠĠĠĠĠĠĠĠĠĠĠĠĠĠĠĠĠĠ
Dr ag
E u
Ġh ang
Ġ\ }$
ĠHar per
Ġexhib itions
sh ore
Prior ity
ĠEx cell
D istrict
ĠHen ri
Table Row
ĠG ene
Execut or
Ġan onymous
In jection
Ġin ev
Ġneg lect
ĠK re
Ġbi ology
Ġp our
C trl
in itions
R G
ĠE lection
ĠE val
Fig ures
)\ ,\
et e
ent ric
-------- --
Ġeditor ial
Ġdraft ed
Ġincorpor ate
[ {\
Ġdefend ers
ĠBay esian
ump y
Ġres erves
Ġv m
14 1
osp here
ĠMA X
amazon aws
Ġm oth
Ġcy ber
to oltip
13 9
Ġexpl oring
in j
em ption
ĠN ak
Ġaff air
ĠLe eds
out heastern
Ġc attle
Ġt ickets
Ġc ached
enc ia
Ġbut ter
fil m
Ġoscill ations
F i
b ird
asc ade
Ġwrap ped
ĠB log
ph ot
Ġval ued
Ġdiscre p
or ne
ĠHand le
f older
ĠR T
LO AD
ĠK id
IN VALID
Ġ' -
Ġpsy chiat
Ġcomp ress
Ġform ats
Ġh urt
Ġr h
b ard
ĠEr nest
Ġmanif olds
run ner
ĠD od
Ġearthqu ake
app le
Ġsub sc
F ri
ãĢ Ĥ
Fr ance
Ġh orn
Ġgovern ance
Ġiter ator
flu ence
r ically
m x
ĠG W
): =\
Ġpro sper
Ġthread s
ĠId ent
un ks
Ġaut hentication
add ed
15 4
Part icip
ĠCurrent ly
Ġcohom ology
ĠPed ro
autore f
Ġover head
por ter
act ics
Ġwalk ed
ĠT it
che m
M obile
H ol
g overnor
Ġobserv ational
ĠFour th
S yn
Ġw age
ĠM ills
ond o
vent ions
Mus ical
ĠArgent ine
e clipse
Ġgeodes ic
tem perature
Fore ign
S PE
Ġin cur
ĠS old
Ġthink s
ad apt
Ap pe
ĠSh op
ĠStr ateg
aff e
' (\
Ġmed ic
Ġtour ist
pay load
ĠG ang
Ġlight ing
Ġdo zen
ĠEag les
ĠW ald
ĠSt ef
Ġap ps
ĠGro ve
ut a
ĠM atrix
ĠC oul
}^{ (\
ĠCon vert
list ener
s elling
ĠEdd ie
Ġcomput ations
G al
bal ance
c as
ĠMax well
pol ar
Ġfre ely
ter ms
ĠS creen
g if
"> (
/** */
Ġn ested
= }
B its
Ï Ģ
Ġce ased
G AN
Rel ative
ĠY uk
ĠNorth west
Ġband width
if est
ge ometry
ĠĠĠĠĠĠĠĠĠĠĠĠĠĠĠĠĠĠĠĠĠĠĠĠĠĠĠĠĠĠĠĠ ĠĠĠĠĠĠ
ack er
ĠConfeder ate
Ġch apters
Ġpi pe
r n
ar ms
Ġextra ordinary
Ġkeyboard s
S un
20 4
ĠDirect ors
Ġhard er
ierarch y
h agen
Cal endar
met rics
allow ed
ĠO K
Ġadvert is
Ġship ping
ĠF ont
ĠR at
G reat
Ġre nown
}] $
ĠP O
ĠBe ing
ĠCo ach
ĠS ize
ĠW orth
F re
ĠP T
Ġpredecess or
ĠH E
16 7
Ġwitness es
Ġadvers arial
C SS
I ES
B a
Rep resent
15 9
Ġcommut ative
um m
}} _\
Ġir regular
ĠS tra
up dated
Th ird
ĠE state
Ġsuff ix
Ġbomb ing
ĠScot ia
M id
ĠF oster
script s
ĠInt eg
Ġattr action
ĠL ex
att ing
Ġsal ary
bro ok
ĠF ed
itect ure
ĠF ish
Ġaffect ing
D istance
$& $
ex per
x it
ĠD rama
æ ĺ
ack ets
Ġser vers
enti eth
T ake
ĠColumb us
R oll
Ġb ay
ĠLeg isl
Ġsh aped
Ġdec oder
Ġal phabet
as se
Ġown s
Ġoff ense
Ġback ward
Ġprevent ed
Set up
Ġarr ives
Ġdefault s
Ġ# {
ĠPr ison
Ġlik es
ĠGal actic
Ġj ew
18 5
K O
ĠM B
el ing
ĠA V
Ġsomew here
L ove
ex ecution
SP ACE
st own
OT T
b ill
ĠEx pression
Ġp ace
Ġre lying
Ġcycl ic
Ġback up
pend ing
Ġpres erving
Ġachiev ements
ĠE ve
ia z
Ġver se
\\ \
ĠE M
Ġparamet riz
in as
pr us
ex isting
Ġw ard
ol ics
ĠM ade
Ġtransl ations
n al
sw ick
ĠMont gomery
m ans
Ġen force
col head
por ate
L ev
Ġcamer as
ĠNob el
Ġtr ap
uff le
ps y
Ġtourn aments
desc ribe
EN ABLE
Ġhom osex
Ġveter ans
Ġant ib
Ġprotect ing
Ġcurrent s
Ġrow span
Ġres ist
ĠP erm
Ġam end
Ġprocess or
Rec ords
A ctions
Ġpredominant ly
+ |
Ġfif ty
ĠRh ode
SOUR CE
Ġor chestr
Ġinitial ized
Ġman ages
ĠAngl ican
] ).
Ġob ey
W at
ĠS Y
N B
Ġth ir
Ġresear cher
Art icle
est imate
au i
m eter
Up dated
L arge
}}\ ,
Ġ\\ [
50 9
ĠTr ain
At l
Ġsynt hes
Ġs ang
isc opal
Ġmem oir
sh ots
Ġsong writer
ĠL isa
rel ax
ĠPal mer
p aces
Ġutil ized
M ut
al one
Ġrecommend ation
Ġcontin uation
Ġevolution ary
gu ide
Ġartifact s
el ly
ĠC hern
am ar
h art
h orn
Sc an
Ġquarter back
am med
per m
Austral ia
t imer
b oot
LA B
Ġg amma
ess ment
Ġst eal
CO M
0000 0000
m ys
w i
Ph ase
Ġcro ps
Ġrevolution ary
iss ible
Ġen abling
ou x
Ġoccur rence
Ġremember ed
Bit map
i ator
Ġto ll
Ġfor ty
es ters
Ġcoinc ide
v ectors
ĠR AF
Ġsp ell
Ġe ating
Ġloc ale
ĠMay be
ĠC inema
top rule
ĠT I
Ġcounter part
ĠRon ald
]{ ./
pos er
Mod ified
Ġle x
uzz le
Ġart work
Ġdescend ants
Ġunsuccess ful
ĠImp lement
Ġdip ole
00 3
Ġdiagn osis
Ġdiscuss ing
ĠAl lied
duc ing
b urst
quant um
Ġar ithmetic
F actor
enc il
Ġexp enses
Ġz ones
Ġexclud e
Ġharm on
~ {\
Ġwid get
eg al
15 7
S B
ĠA udio
pend icular
Ġav iation
mut ex
P DF
Ġdim in
ch unk
Ġdesign ation
Ġwe aken
ari e
cons ist
}$ ;
== =
Ġdef ended
}\ !
ĠUs ed
ĠTib et
}} +\
M utable
ĠL if
eq q
Ġillustr ates
ĠIn surance
Ġsum s
s ources
Ġa stro
ĠD ame
Ġinter change
g ap
Ġimpro ves
ĠT odd
Ġarray s
land o
ĠÃ ģ
Ġhost ing
ak u
greg ate
ĠĠĠĠ čĊ
M iddle
Ġinvestig ating
Ġtor us
Ġaut onomous
Ġpri ests
ĠG O
ĠS ave
er ious
Ġa uction
ĠG olf
sign al
Ġalter ed
Ġmod uli
Ġany way
Ġa ster
SS ION
Ġrespons ibilities
Ġimp ression
ish a
Ġf ed
Ġbr illiant
set length
ĠW alt
S ig
op am
! </
H ouse
Ġa est
ĠJul ian
con current
oe ing
T imes
ĠIda ho
ĠP arent
Ġvic inity
ĠM az
m r
Ġsp ir
in ar
ow der
Ġcell padding
Con clusion
ator ies
g tr
ie u
________ ________
got ten
aur us
Ġsubmar ine
Ð ±
der iv
Ġexp ense
Ġtrav els
Ġ )$
ĠC e
Ġcol ored
- {\
Ġmiss ile
fr action
Ġtrav elled
Ġsp ur
Ġrecip ients
ĠRay mond
ĠClark e
P ane
Ġf reed
ĠF is
Ġplay wright
im mer
Ġlegit imate
Ġp ale
ĠMan uel
Ġwire less
r us
Ġaddress ing
ĠC atalog
ĠLead ership
' ,\
ĠL amb
Ġresign ation
\' {
Ġgather ing
Ġdr ives
Menu Item
b oat
ab ases
Ġnucle us
sp ired
C amera
task s
ĠVlad imir
Ġd inner
Ġl ung
Ġg ear
Ġt une
Ġ* ,
ĠPrinc eton
ĠD eg
necess ary
å Ń
ĠSum mary
ll a
ĠÐ ´
Ġin vert
ern ess
) ~\
AV E
ĠY a
ĠIllegal ArgumentException
r in
Ġrem n
v iol
Ġback ed
Pl ayers
Ġr ape
Ġatmosp heric
Ġhe m
m ind
Ġto ured
Oper ations
A ud
Ġreal ization
Al tern
Met ric
ĠS uff
iv ariate
Ġdefin ite
l ov
Ġt ribut
T Y
ur ities
Ġinitial ization
lat est
d ad
Ġrun ners
Å Ľ
J ul
Ġdis patch
ĠB R
(' ./
Ġmem brane
ĠB av
ĠE ight
Ġjournal ism
ĠS ey
Ġview ing
HO UT
w yn
Ġconclud es
Film ography
na issance
lect ric
ad ows
b oys
ĠL ak
ĠOak land
Ġinter cept
Ġb achelor
ig ue
Ï Ĥ
ĠB ened
Ġwithd rew
ĠP eng
oy age
m icro
Ġprot ocols
H ello
ho e
Ġ" ${
Ġcogn itive
ÑĢ Ð°Ð
f ailed
O s
Ġt ut
ĠI L
k ip
Ġc ad
ĠF ALSE
im edia
ĠM ik
og g
Ġconsequ ently
mat ches
ĠG az
ĠPar alym
ĠCred it
Ġwarr ant
Ġspecial ist
Ġdual ity
20 6
() [
ĠP icture
Ch arts
ene ath
Ġenter prise
Ġb eta
pr ice
ĠBel arus
18 52
Ge ometry
Form atter
P ac
ĠC V
Ġexecut ives
ĠKn ights
L ab
ĠSt yle
ĠKE Y
Ġn est
ĠS EC
Ġmetall icity
ok o
Det ector
he imer
w ent
Ġstri kes
p q
ĠWars aw
Ġem peror
ĠCl ose
yst yle
Ġfill ing
F K
Ġcontext s
ik ing
d evelop
contin ue
ic ia
pop up
Ġinstitution al
/ )
Ġinteg rate
v ation
Ġnucle i
Ġli ability
Decl aration
F D
Ġs or
Ġb alls
Ġre organ
W ater
Ġf ate
ĠCh ang
by ter
] }\
'' .
R ivers
i ast
Ġqu bits
ĠPro of
Ġdi et
ĠArg ument
ĠS ic
ĠIn stitution
M IT
ĠG amb
unc an
ĠD h
c amp
Ġc oding
ME M
Ã¶ n
ĠY ellow
found er
Ġconfer ences
Ġill um
sche me
d ocker
Ġd ying
View Controller
) /\
B ob
ur bs
ad vant
Ġhonor ary
do es
gener ic
18 51
ĠL I
Ġunder go
tract ed
Ġan ger
Ġtw ist
ĠK ash
Ġcl s
Ġcon spiracy
ard i
24 5
TE X
ĠTun is
Ġfor wards
Ġcell spacing
Ġcon form
ĠCl aim
i ens
ros so
Ġdis ability
ĠE RR
Ġfaith ful
ĠC elt
rg b
ĠAl t
Part y
u o
Ġst olen
b org
Ġb ills
ĠBey ond
S ets
Ġlimit ation
In struction
ĠBrook s
Ġgard ens
q a
Ġg est
Ġmat hematic
Ġsurviv ors
ĠA my
Int eg
Ġfriend ship
Ġpro jections
ĠW ag
Ġutil ize
Fr anc
Ġin complete
Ġo w
ĠC raw
Ġdis pers
... )
ĠC rit
ĠR ams
Ġeval uating
Ġis instance
ĠV II
M il
Th m
ĠSp encer
ĠTom my
gl ob
Leg acy
vers al
}] \
Ġsp ont
Ġcart oon
Ġadd r
arri or
Ġair line
conv ex
() ">
ĠOut standing
add y
Ð ¹
Ġfilm ing
################ ################
), (
Ġplay off
ourn ey
ĠEnter prise
off icial
Ġgrad ed
ĠR ah
Ġw eren
Ġrot ational
local host
cess ion
ĠNap ole
T w
er k
ĠF ly
ĠG uild
dat etime
no frame
Ġdiscipl ine
list ing
Jose ph
F W
Ġinv ari
ĠAdd itional
os er
ĠD aw
Ġqu bit
Has Been
ĠT YPE
Ġrest art
ĠComp etition
ĠLuc as
ht bp
Ġpresent ing
Ġsur veillance
Ġup load
ĠP owell
Ġpl ates
FFFF FF
' ].
ĠCh a
ĠA ws
Ġsub urb
Work er
Ġdraw s
c art
Ġlo ans
ĠS Ã£o
% "><
Ġcit ing
ĠByz antine
ĠShang hai
Ġmob ility
Ġadv ances
H ard
ĠCab inet
ĠN ormal
correspond ing
ĠRevolution ary
Ġsuperv ision
uct ive
yl um
ĠA uth
Ġbus es
] _
Int ent
Ġhous ed
S eq
ĠE rr
M ov
ĠSc ar
P ub
Ġinter faces
atche wan
Ġv it
est im
All oc
s ure
is che
ed e
ST AR
be it
dec ode
ĠRequ ired
000 1
TER N
Ġsome how
AR G
Ġbright ness
Ġdwar f
Ġbu ying
INS ERT
Tem p
n ell
ĠIs aac
Ġex pr
Ġeng aging
ĠCh an
ĠH us
ĠGl ass
SP AC
olec ular
Ġsever ely
ĠBenn ett
ell ers
Ġro ster
pro j
cell color
in verse
ri ent
Ġe cosystem
ĠPark s
em e
Ġa fore
H ig
ĠF at
clud es
ĠN ott
Å ¿
h h
Ġatt ach
ĠM E
Ġhom omorphism
prec ision
Ġb is
ĠP rest
ĠTh under
\\ [
ht b
Ir ish
ĠF R
? )
Ġle agues
v endor
Ġbur den
ch ing
Ġ} ).
clud ed
ĠBat man
Ġth rew
ĠNew castle
Ġem igrants
ĠD im
% ),
r ag
ress es
T ip
cs v
veloc ity
i ya
Ġfl our
ĠCon nection
E mb
compar ison
f ollow
Ġ' @
Ġenorm ous
Ġag gressive
ĠN N
row ing
ĠImm utable
Ġpres ervation
Ġphys ic
Ġcontact s
m agn
18 53
Ġref resh
Ġrot ating
jack son
Ġcl othes
Ġmod est
ADD ING
ĠG alaxy
ac ional
> ${
it ars
Ġf ires
ĠHop kins
h im
r ant
Ġen velope
Ġj oy
Ġexponential ly
ĠL arge
d or
z ens
cc entric
ĠJ ung
ĉĉ Ġ
Ġreg imes
G RO
Ġprest igious
Ġwhe at
ĠMethod ist
Ġplan ar
L ee
un al
int f
ĠGener ation
g re
ieg e
Ġf unny
Ġqu arks
ot ypes
ĠSy mbol
Ġgr ab
ibl ings
Ġhon ored
is ible
ĠZ imbabwe
ĠO w
Ġhop ing
V ir
Ġover r
Ġsingular ity
u u
Ġm ature
Ġjo ins
Spe ed
$ }\
Ġdet ectors
P acket
ĠCon st
bibli ograph
3 75
Ġa fr
lig a
Ù Ĩ
Ġbe ings
Pe er
â Ķ
Ġv anish
ĠRh odes
ĠR ever
ĠInd ies
IN IT
Ġrad ii
MA GE
Ġh ur
Ġcor on
ous el
Ġsl ide
Ġmer ch
Ġpil ots
Ġsear ches
Ġa thlete
Ġwe aker
oll o
Ġs id
Ġab brev
æ Ī
Ġattack ing
ĠN om
Ġfl ip
Ġelev ated
Ġcomfort able
Ġcoinc ides
p ixel
ĠPear l
ĠPriv acy
or bit
R en
Ġman ually
K ernel
ĠDec ision
Football ers
Ġel dest
i ov
Ġlog in
ĠOC aml
Ġare na
ĠGener ated
ĠStr ucture
ĠSi eg
ib ling
Ġcol ours
Ġpit cher
Ġcon current
ĠMod ule
cp u
Ġte eth
CRE ATE
moment um
Ġb atter
s it
ĠWood s
le af
Ġwar fare
ĠW W
pl ant
}} ^{(
ĠThrough out
Ġbel t
Ð¸ ÑĤ
Ġhop ed
bibliograph ystyle
ĠChe ster
ĠNS String
unt ed
Ġhard ly
C annot
Hash Map
HasBeen Set
ĠQu est
anc ers
io let
Ġdemand ed
Ġde ce
ĠFr anÃ§
Î »
clud ing
ĠCol lections
ĠS equ
g ie
ĠSt ri
Ġb ipart
Ġ! !
Ġadjust ed
ĠGab riel
Ġtr ick
ess a
Ġreal m
Ġemploy ers
ic us
Ġb ra
Ġdis band
Ġeth n
ĠTh ai
pos able
Ġconstruct ing
M ah
O FF
N ON
es a
get Attribute
Ġ} ),
Ġisot ropic
ĠU P
Ġcre ator
OR S
st ead
h m
th umb
b ay
.. ."
') ->
Ġins pection
Ġg ymn
Ġconsult ant
ac l
whe el
it atively
ĠD I
ĠPro blem
ond e
ĠEn try
Ġbackground s
ĠInnov ation
18 49
Def ine
ĠWell ington
Ġamb assador
ĠB ound
P ADDING
2 11
ĠG it
con j
Ġcap ac
Ġanom aly
ĠT all
B on
Ġt rem
ĠT ABLE
g ement
Ġneur ons
constr aint
ĠBrun swick
Ġgrad uation
c C
al in
Ġpregn ant
Ġcon gr
EV ENT
isb ane
Ġk w
z oom
Ġb oom
sat isf
ĠHash Map
16 2
G od
Ġj e
intend o
s chool
ut down
Ġst ub
ĠUn less
Im ages
Ġcl an
Ġre write
to o
ĠPlan et
ĠAp ost
L IB
ĠBr isbane
Hen ry
s igned
Ġa xi
Ġfilter ing
ĠM is
}) }\
ĠCons ult
OTT OM
iv ot
17 6
ĠPro gress
ĠN otes
Can ada
ĠCommunic ation
Ġpron ounced
tes y
ur istic
ĠCamp us
names e
w ik
W estern
p ent
Ġh ull
n atural
ĠH alf
ĠR oot
add Class
Ġregular ity
abil istic
Ġsp iral
mult iple
Re ceived
s ymmetric
3 30
ae us
Look up
Ġf ame
Ġno isy
Ġsimpl est
ĠB ORDER
B ay
Ġhel per
Ġabsor bed
ang ered
M ir
man uel
bound ary
}{ $
Ġshould n
ĠBro s
Ġin quiry
reg ation
umb ai
a ft
un ate
ĠD epend
Ġnovel ist
ĠCard inals
t one
ref resh
eg an
Dan iel
S om
ĠWild life
Ġse cre
ĠTR UE
Ġfle w
os ity
Ġpione er
Ø ª
Ġrenown ed
Ġphil anth
ph ib
ĠJul ia
ĠHol mes
ĠT oken
ĠF ighter
op acity
ĠBr ussels
bor o
C le
Ġafore mentioned
abet es
Ġbound ing
Death s
Ġmist ake
ĉĉ čĊ
process or
S a
ĠO ptions
et c
Ġin ad
Ġg aining
Ã© d
Ġsuccess ive
Ġref in
A mb
z ed
Ġb ins
ĠPr ague
Ġout lined
Ġjust ify
Ġneighborhood s
Ġas h
Ġor n
Ġinfer red
s ix
Ġ ../
Mat cher
Ġdam ages
Ġdemonstr ation
Ġt ile
23 5
Ġevery body
alth ough
Ġfavour ite
Ġany more
ĠÐ ¾
un credited
ĠPet e
ĠG and
Ġco at
Ġvari ational
att ices
ĠAppe als
a ude
id ity
Ġab oard
36 5
ĠPh ase
ĠTreas ury
Mult iple
ĠC ategory
av ia
LE V
ĠHer ald
Ġpod cast
y u
ĠK as
ĠAd ult
ĠCub an
Ġnorm s
Ġferm ions
Ġconfigure d
ĠB order
RE QUEST
ices ter
ĠPhys ical
Ġ ions
Ġn ut
Ġtr act
Ġcoll apsed
Ġball ot
f urt
L ite
ark er
Ġt uning
st reet
Ù Ī
ĠSe bast
n od
}$ $
Con tract
Ġsynchron ized
p her
Ġobtain s
Ġcorpor ations
Ġcyl ind
Ġen roll
bottom rule
ĠB ag
ĠP ars
ĠH ir
IT LE
Ġpro ximity
Ġintegr ating
Ġfit ness
zh ou
Ġcon ce
ĠE sc
Ġident ifies
chi ef
ĠTr uth
16 1
az ure
d an
Ġ$ -\
ĠR av
}, \\
Ġret reat
Ġwrap per
ĠDes ert
d td
ĠAh med
Ġred und
Ġwarn ed
99 9
Ġdes per
ĠCon cert
th ood
11 11
, âĢĻ
Ġ" _
the se
ans k
ri o
Ġst ret
ĠM ull
Ġmet ropolitan
ĠB ent
Ġm im
ari um
ĠĠĠĠĠĠĠĠĠĠĠĠĠĠĠĠ ĠĠĠĠĊ
}} }{\
uff ix
play ing
C K
ĠK or
Ġle ase
ĠW H
ĠV at
yl an
emph is
: %
Pro c
ĠCom edy
ĠSh ir
ĠEs sex
pr ising
er ie
ĠS ullivan
ĠR ice
="../ _
Sup press
Ġsan ctions
Ġh itting
ĠA ires
Col lege
Ġcred entials
ĠEag le
ĠJ in
L F
Dest roy
op ened
19 3
18 47
s ent
ex tr
Ġr ice
ort heastern
Ġ[ -
Ġgrad es
ĠGr id
×Ļ ×
ĠN g
:: $
le igh
Ġnational ly
ĠHol ocaust
ĠArch ae
en h
red irect
Ġpre vention
Ġvol leyball
Ġd ancing
Ġer g
ĠT ong
Ġun e
Ġun ve
AR RAY
block s
algorithm ic
orm s
ĠStr ong
ĠC ec
iber n
ĠInitial ize
AN N
b v
Ad v
Ġparticip ant
C lean
al ter
B ACK
ab is
Ġcorn ers
Ġcorrect ed
Ġin clusive
Ġpair ing
Ġexpl aining
âĢĿ )
ĠMot ors
Ñ Ī
Ġseem ingly
17 8
D utch
Ġhol omorphic
+ $
i q
For ce
abul ary
Ġcyl inder
Ġ$- $
value Of
Ġselect ing
et erm
Ġkid n
ĠR ole
Ġrev ision
ian ces
n ational
Ġh yd
ĠR ather
Ġlif estyle
Ġleg ally
ynchron ous
Ġret rieved
ress ions
ĠGen eva
ĠH ousing
ĠMus ical
ĠK ra
mar shall
à ®
Ġrenew ed
ĠAcadem ic
az ar
50 1
Ġoptim ize
C op
Ġcompar isons
Ġfle e
A W
renew command
N eed
ul ators
ĠD anny
Ġche st
resize box
Ġadminister ed
ĠSher iff
u ant
xi ety
'' '
Ali as
gtr sim
Enumer able
ĠH ass
ĠG ent
ĠPl atform
[ [
D isk
ĠIN TO
Ġpart itions
found ed
Â »
23 4
fil ters
20 7
and ed
Ph ot
ĠKer ala
l ived
ĠField s
Ġsymbol ic
ĠPsych ology
Ġgrad ients
ĠDur ham
t abl
it ian
ĠObserv atory
s il
Read y
t lement
Ġshel ter
Ġ======= =
or ic
Ġsp anning
Ġann ex
Ġwild life
ĠFried rich
ipl inary
**************************************************************** ********
R h
ĠS SL
ĠAng els
STR UCT
oc om
Data Type
atin um
ĠP sy
U AL
ĠPar ad
ĠR achel
In c
Ġconscious ness
ĠO wen
Ġacc red
Ġscript s
k el
Ġc f
ch air
Ġarchae ological
he nd
ĠBulg arian
Ġt aste
al ong
Ġsimpl ify
Ġdro ps
ĠPaul o
ĠCon struct
ron es
}$ ),
Ġprevent ing
lev ard
Ġcharacter ize
Ġcont ributes
Ġpres erves
Ġgen uine
Ġnation wide
Ġh istogram
ĠS ter
Ġfilter ed
Ġvis cos
, }
sk a
q ed
big oplus
S ent
ir cl
}{ $\
P ush
) },\
sin h
Ġexplo it
ĠP HP
Ġsent iment
f red
E mit
ĠPl ayers
Ġstrong est
pro port
isecond s
l ift
ĠRe ich
p ipeline
r ise
D ITION
_{ (\
F s
Ġd ots
ĠCap itol
Ġun changed
2 12
ĠP P
ĉĉĉĉĉĉ Ċ
Ġdoll ar
ĠS ang
ĠA ub
ĠW inn
Ġimport ed
CR IPT
ĠB AS
Ġsophistic ated
Y P
ĠLicens ed
d ens
Ġbranch ing
Ġperman ently
=" {{
Ġsem if
S to
og an
Ġt s
ĠV ern
Ã ¯
Ġisol ation
Ġbrig ade
Ġs ung
DE C
Ġsett le
ĠShe ffield
Ġide als
ĠWest minster
ĠDiv is
Ġde alt
Ñ İ
ĠDist inguished
Ġdev iations
DB LP
ab ol
ĠB io
oc ene
Ġemphas ize
cho ice
Ġcompr ising
ĠJama ica
p oll
Ġlong itudinal
Ġre un
Ġche ss
'] ))
Ġsure ly
ĠÅ ł
Ġtr apped
ĠRev ival
ĠCy prus
on so
Ġtim ber
L y
Ġfore ver
Ġs ailed
Ġenc ryption
Ġepoch s
Compan ies
d h
Mart in
re cur
ĠEngine ers
Cert ificate
d istrict
Ġh alt
ĠSh adow
Ġg aps
Ġsaf ely
ÐµÐ½ Ð¸
ĠInd igenous
Ex change
ĠC ork
Ġnot ify
Ġincred ible
16 4
Ġsign atures
ogn ition
Ġtax p
ĠB ears
Ġstand ings
ĠSim pson
adem ark
ĠV illa
ĠDev on
Ġaccompany ing
Ġn ephe
ĠCre ative
A SS
P ipeline
re b
ĠSecond ary
ĠA chiev
ĠBl ake
ĠG y
ack now
) '
k le
Ġrac ism
th in
Ġcounter parts
neut ral
SPAC ING
ĠPresident ial
\ ).
b eck
Ġcrick eter
g art
Ġrel ates
og gle
Ġadministr ator
" ?>
Ġadd itive
Ġt ent
c ock
mod ern
S oviet
ĠC ut
18 46
Ġl oves
G erm
Ġbe er
ff ic
Ġavoid ed
ĠCom ments
Ġsk ew
O l
Ġep ic
Ġext inct
Ġm a
Ġrel atives
Ġconjug ate
ov ina
cur ve
D ry
Ġcons erv
ĠProt ocol
d elegate
system s
Ġam ended
ĠParam eters
ĠMal ay
Ġbar rel
L iber
Ġell ip
C AP
Ġ um
icy cle
ĠRod rig
ific ates
b il
ĠY emen
Mod ifier
Ġpropag anda
Ch apter
Ġw orn
per formance
Ġcho ir
Ġdream s
ĠL ac
Tool s
scal ar
T X
Ġtri angular
m acro
Ġform ulated
Ġconv iction
Ġdisc ount
Ġdel ight
ĠD IS
Ġsp ins
Ġut ter
+ "
Ġcul min
Ġs its
Ġactiv ated
Comm it
ĠH urricane
E LEMENT
ed o
ian i
ĠC apt
Ġst reak
ĠR af
ĠFl ag
çĶ ¨
ĠOr iginally
vari ables
S port
Ġl akes
P aint
he ne
Ġl oud
ĠL akes
I ts
è ®
TableRow Color
ĠLegisl ature
Ã§ Ã£o
ĠEll is
Ġt ier
Ġdemand ing
ho o
ĠB ert
Com ponents
Ġhom eless
Ġbe ars
ĠCor p
ĠS part
z el
Ġh ills
ĠM ario
ĠF lying
ass er
esc o
ĠRichard son
colon eqq
ĠEthiop ia
Un ion
Ġcalcul ating
Î ·
Ġmand atory
ĠPer iod
Ġsp y
ĠWIT HOUT
C hat
en i
ĠT D
str uctions
od ia
St rip
ĠDe bug
Publ ished
Ġcust ody
D ict
Ġtri ps
Ġbas in
30 3
Second s
ĠMarc us
ĠGrad uate
Ġathlet ic
Ġw ishes
song writer
Ġp ap
H aving
Ġreg istry
Ġlegend ary
ular ity
ĠL oss
em bourg
stream ing
atter ing
Ġ" #
ap prop
Ġloc als
****** /
ST ART
initial ize
Ġtim er
Ġcongress ional
ĠM BA
G ui
^* (\
Ġem otions
Ġ\ :
Rec ent
dem o
Ġstrugg ling
x sd
and ro
Ġrul er
ic ious
N orthern
cal c
ĠO ber
ĠHe ights
Az ure
sh ifts
ha o
ĠCon v
ĠKr ish
ĠSw ift
[ ->
make box
att ach
Ġdi agnostic
Ġtr ig
ĠA ur
car bon
ĠK ind
ĠFil ter
Ġdesign ers
spe aking
Ġdegener ate
! =
ĠBaron et
Ġmolec ule
Par cel
em p
Comm unes
C ould
18 7
ĠSp ider
N ONE
m itt
on ne
fil er
Ġoblig ations
> {
Ġpro found
Ġadv ised
20 9
N U
ol ith
ĠP FNGL
ĠS ou
Pro b
Ġmod elling
Top ic
arg v
Ġneutr inos
ĠT error
ĠGard ens
Ġtransform s
Track er
var pi
ĠU ntil
in ite
17 4
Ġcler gy
ll er
Per formance
sm ith
ĠCath olics
P K
ĠAct ress
). $$
Ġtechn ological
Ġimm une
air y
Ġs ink
Ġbe et
aged y
intend ent
Ġinstit ute
Ġdisappe ared
Lou is
en ario
T ensor
el ong
Ġsim ulate
Ġsem antics
ĠBos nia
Ġm ood
erg us
Ġpol es
ĠAn a
ĠL or
Ġfail ures
cont rolled
Ġcompr ised
å ľ
id y
f aster
on aut
ow ards
reed y
out ube
Ġpush ing
ĠBi ography
Ġt et
ĠP ul
Ġun anim
Ġconf ined
ĠMet al
) ~
ĠPro f
Ġgu ided
ĠIniti ative
Test ing
um ably
ĠEvent ually
Scal ar
Ġcolon ies
Ġcommem or
M X
sl o
esc ape
h ind
attr s
ĠCard inal
depend encies
t ility
Ġwork shops
- $\
text style
Ge org
33 5
ĠMe eting
ĠR ol
ĠO m
ĠD y
erial ize
Ġl l
gr and
Ġadm ission
Ġdepart ed
r ison
Ġspec ifies
ĠReg ulations
ĠG em
ĉĉĉĉĉĉĉĉ ĉĉĉ
ĠC lean
cl i
s ens
ĠUg anda
ĠPan ama
Ġneg lected
M N
Ġb arriers
> `
Ġsp ite
Ġc ant
st ed
Ð¾Ð ´
ad os
ĠH ait
17 2
FLA G
ĠPo etry
se ed
ĠH AL
are l
Ġencour aging
17 3
Ġtreat ments
Ġt enth
Ġcut off
us a
Ġpro fits
---------------- ----
ĠJac ques
ĠG or
ĠTas man
est rian
ĠEm ily
ĠEnt ity
leg end
ĠSalv ador
oot ing
oy le
Ġcle ared
Ġh int
}} -
iev e
s om
Sim ilar
ĠMathemat ics
Ġnumber ed
Ġem itted
Ġsub mission
ĠB irth
CO UNT
}) :
Ġz oom
Ġqual ification
Ġd ign
Ġevery day
Through out
ĠLeg ion
Ġn m
Mill is
ed uc
Ġpers istent
Ġpoly mer
Ġapproxim ations
ĠIndian apolis
hab ited
pred ict
ĠIss ue
ĠCELL SPACING
Ġpres idency
com ments
>( <
ĠCELL PADDING
aver age
g c
ĠN u
P ref
Ġp ounds
umber land
ĠĠĠĠĠĠĠĠĠĠĠĠĠĠĠĠĠĠĠĠĠĠĠĠĠĠĠĠĠĠĠĠ ĠĠĠĠĠĠĠĠ
Ġfar ms
IE W
ic ers
Ġcare ers
Ġland mark
ĠBu enos
ing ing
ĠSus sex
manif est
sub Nav
cor relation
start s
Ġinterview ed
ĠNot able
Ġsh ar
AR CH
Ġapproxim ated
ra its
Ġment ions
ĠDr ug
ĠEc u
Ġqual itative
x e
Sc ene
T i
Ġsuccess ion
| {\
Ġviol ated
Ġcapt ures
Ġsubt le
am as
ish i
ubern etes
L ists
Ġout s
max cdn
Ġcomplex es
ĠSom erset
Ġper pendicular
under brace
Ġdraw ings
Ġcount ed
g ui
Ġv ow
ific ant
Ġprom ises
T s
Ġlogarith mic
ore n
Ġimportant ly
Ġcirc ulation
at ics
Ġflux es
ĠN as
ĠÃ Ĺ
Ġsup pression
ĠInter view
tr ation
Ġch ip
big gr
ĠCh oice
Ġp unk
ash ing
sl ider
Tr igger
2 15
Ġsqu ared
Ġpra ise
Ġde prec
c ategories
^{ {\
ĠMc L
Ġmon astery
Ġh ind
18 45
Ġph osph
up iter
): =
ĠL iv
Ġy ard
Ġconnect ivity
: -
You ng
ass o
Ġlit igation
C y
18 37
ĠSask atchewan
Ġadv isor
ĠWy oming
id ually
Access or
P ixel
sc apes
Ġpolit ically
as ive
Ġun ified
Ġhand les
ĠN ine
e i
Ġ( {
Ġinduct ed
ĠPrinc ipal
Ġdiagn osed
ĠRem arks
u ins
C ities
ĠStock holm
ĠC elebr
Ġstud ios
Att rib
S ar
ĠCal cul
op r
ĠOther s
stan bul
Ġbad ly
ill on
Ġm ere
Ġar rows
Ġillust ration
ĠR aid
Ġcasual ties
17 1
Ch ief
Ġmus cle
ĠDate Time
open hagen
Th ough
R o
ĠTre k
T OP
ĠK IND
Ġprison er
Ġinv oked
Ġd Ã©
min imum
ĠDemocr acy
Ġcomb inator
re ts
Ġcan al
l ap
ĠDe b
EN CE
ĠGrand e
ĠAssoci ated
4 80
E nergy
Ġcomp ile
ĠVol unte
ĠS ig
Ġinter ven
form ula
& +
ĠProgram me
I reland
ere k
Ġd ish
ĠV iv
Ġfound ers
] </
Ġl y
Mark er
] ^{\
ĠGl obe
H o
Ġque en
ĠCroat ian
M u
LE S
Ġarg uing
ĠPal m
ĠLet ter
! (
y ang
Ch ris
Ġgr ateful
ĠAg ent
anc ies
b ucket
Mar shall
Con version
Ġlook up
FA IL
ic her
Ġinf ected
tab les
Ġtoler ance
ĠHamb urg
ĠHe aven
Ġliter acy
ell ites
pr inc
c odec
Beh av
Ġarchitect s
Sing les
work er
Ġend if
un ting
ĠL ik
Ġreason ably
Ġnomine e
Ġco arse
Ġlink ing
Ġadj oint
Ġind oor
ĠPer th
Ġcomp atibility
Ġimprison ed
ĠM ine
ĠL it
ĠE R
18 3
ĠKaz akh
ĠE N
p od
ĠWil helm
Ġrele asing
Ġv ig
Ġarchitect ures
Ġax es
enn ium
00 4
Ġpr ay
SU CCESS
ĠF lem
kin son
ĠVAL UES
: &
Ġtor ped
Ġind ent
Ġam id
Ġrefer enced
th reshold
pack et
Ġdepict s
Ġperform ers
ĠKenn eth
Ġoverwhel ming
Ġfavor able
ĠM otion
> .</
Ġtre as
ĠA part
b os
Ex it
Ġin ert
dim ension
ĠF ul
Writ ers
ĠB row
l brace
H aw
ĠS ometimes
Ġrev ival
oc ide
Ġthere in
Ġg a
t ec
iz ar
I sl
ĠD oll
j j
dis patch
ĠP ink
Ġalt itude
] \\
SE C
Ġenhance ment
G it
ĠF olk
ĠV ers
ĠArm strong
Ġmot ions
ĠPer haps
ĠN uclear
dr ag
av o
ĠChar ter
ĠMoroc co
Ġin duce
Path s
Ġ\, .
Ġferm ion
r k
v dash
Ġaccept s
ĠO g
16 3
Sl ot
Ġconstitu encies
ĠGram my
I EEE
æ Ĺ
ull ah
Lin q
Ġch ore
Ġcor rupt
less ly
Ġviscos ity
` )
qu ark
( $\
decl are
Ġattr s
es ar
Ġl ip
Ġpresc ribed
á ¹
ĠS of
18 4
Ġsummar ize
K im
="@ +
Ġhomot opy
Ġv in
A Y
ERT Y
Ġnam ing
Ġcommun ist
S us
ĠP D
}$ :
Ġlist ings
asc ular
Ġp ension
ĠA ges
ĠK ids
Ġco res
Ġwe igh
Ġrobust ness
Ġkil ometers
Ã© g
log ical
WA RE
Ġevent ual
elastic search
}$ &
trans late
ĠJ ak
Ġpurs ued
ĠI BM
ĠDav ies
ĠTest s
big gl
ĠR ele
ĠSw an
Ġrecru ited
mb f
Ġkit chen
Ġacadem y
Ġaffili ate
d g
Ġg amb
ĠP si
Mod ern
il ian
Col umb
Comp letion
ĠSh im
Ġcont our
Ġcollabor ated
ĠK umar
Al ert
}; \
Ġroll ing
ĠCom plete
ĠL ipschitz
Ent ries
ad just
ĠCh ase
Part ial
ĠInvest ment
Ġsac red
ĠI o
ĠN ames
{ |\
Ġsingular ities
Ġpurs uit
ĠOt to
Ġtel escope
W W
m itting
Ġoverl ook
acknow led
ĠO z
Ġte ch
Ch unk
ij a
ent ries
)} ]
Un ique
Ġphot ometric
ĠU TC
ĠHel p
ĠCa uc
m ak
andid ates
Ġaccept ing
Ġnick name
Ġtort ure
]( #
ig nt
Ġ< ?
S in
sen al
Ä ħ
ĠP UBLIC
Transport ation
Ġbacter ia
ĠFif th
Ġs v
ro tt
ĠCol in
ĠEm ma
ĠV e
C over
aw i
ĠH R
Ġexp ans
ĠK in
ĠM ob
ĠE D
AB C
ĠA pr
Trans fer
Ġs iege
Ġunem ployment
ĠEcu ador
r ab
18 2
Con struction
e ah
ĠS ales
over ride
ĠR F
ĠYugoslav ia
Ġw ore
Ġcomp ly
class ical
habilit ation
Ġstat ute
5 50
é Ģ
ĠM umbai
Java Script
c us
ĠRel igion
Ä Ļ
ref lect
ĠEm ploy
ĠD iana
any on
cos h
9 78
Ġdr ain
second s
ĠSol omon
Z oom
, [
Ġb ol
Ġkill er
ĠR M
18 12
ION S
Ġprohib ited
ĠC ache
ĠGe off
separ ator
ĠW eyl
ĠAndrew s
}{ !
ĠTy ler
Ġas ymmetry
ĠV il
ĠIll ust
Al ign
Ġ} .
Ġdiss olved
d w
18 39
] ),
Status Code
ĠJohann es
back end
ing o
Pr iv
edd ed
ĠP E
Ġwithdraw al
weight ed
Constr aints
w at
un ches
Ġdis ks
Ġtour ists
Ġspeed s
ĠBudd h
Ġpregn ancy
D ao
Ġtrav elling
ĠPh arm
Ġsym plectic
Ġcomm ittees
Ġbe aring
Spec ies
Ġrock et
Ġby pass
ĠA G
Ġdown stream
}. $$
Ġarbitr arily
Ga ussian
on ial
ĠA LL
ĠL ok
ĠCoal ition
mod ified
Ġequival ently
go al
Ġcirc uits
Ġrevers ed
oupl ed
F ictional
tract or
Ġhum or
ĠDisc overy
' =>
st en
ĠR an
ĠDet erm
Ä Ľ
ri ans
Ġle tting
St ates
Ġautom ated
Ġe ccentric
Ġse ized
Ġb ell
ĠĠĠĠĠĠĠĠĠĠĠĠĠĠĠĠĠĠĠĠĠĠĠĠĠĠĠĠĠĠĠĠ ĠĠĠĠĠĠĠĠĠ
Ind icator
XX XX
pro duced
Ġcomb ines
Ind ia
ĠStr ategy
D a
al tern
serv let
iz ational
ĠObserv able
ĠMig uel
Ġst uck
Ġconc aten
Ġcompl aints
Ġcal ibr
n at
it icians
Ġm ad
}\, ,
Ġbatt alion
}} ;
18 9
Ġ" );
}} )\
Ġreg ret
Ġbr acket
Att empt
bat im
Mer ge
ast ics
)} =\
ĠMan it
ĠAss umption
Class Name
Ġwork shop
Fr ont
ĠTw enty
Ġbenef icial
Ġd w
Ġb rew
pre ced
Ġjust ified
omet own
ah a
Ġcour age
T urn
geq slant
ĠP and
Pr ice
Ġeth ics
Conf irm
Ġsl opes
ag ation
Us ed
Ġsport ing
}. $
Ġconvolution al
Ġaccording ly
byter ian
ĠTh row
ĠBrad ley
Pr imitive
oc y
ĠV ision
ĠC ann
Ġathlet ics
il iation
Ġan ch
ĠW I
ern els
Ġgu ards
track s
Dat aset
7 70
B G
n ut
ĠCont act
ĠR ut
Ġcomm enced
Ġspread ing
ĠT E
ne apolis
an mar
ĠImp act
om ar
Ġl ag
^* _{
" =>
ĠCh uck
Ġ[ {
G uid
dl ib
Ġnob le
' }(
ew ard
ĠSum mit
ĠV ery
ĠZ ion
ĠS weet
D one
ĠS ob
m os
Ġmoment a
Ġvirt ue
Ġf oo
P ad
Ġres umed
Su ite
Ġ$\ |\
hom ogeneous
27 5
( `
G reek
ĠInd ividual
Ġpass ive
ĠM iles
Ġgl ac
Ġdebut s
Ġadvoc acy
ag ic
Ġinv ented
}} ^\
=" ./
ud o
Ġacc us
ble ms
ist on
Ġpat ches
J on
i ago
Ġconvers ations
p agination
Ġ" ;
Ġwh ites
Sh are
Ġpick s
Ġb eneath
Ġtri angles
ĠB elf
represent ation
z ier
Ġb er
Ġrele vance
ac ian
ĠNott ingham
G raphics
is ive
ĠE ye
B rien
ĠN urs
)) =
ĠOr lando
Ġcumul ative
Ġimp ressed
inter est
Ġd ump
Ġinter im
iff e
Ġpian ist
c amera
manif old
ĠMod al
pe ated
ĠG ospel
Ġdef ender
P ending
Ġpro secution
is le
ĠLet ters
ĠD uncan
sub scribe
ct uary
ĠSh ield
gu ard
Ġeth ical
ĠN R
ind ices
Ġmyst erious
Ġdram atically
Ġdist ribute
Re place
Sur face
Ġterm inus
Ġred es
n ick
ĠRe id
Me asure
W ild
ĠCre ated
og o
ĠAbd ul
um per
Ar gent
Ġr am
ĠPlan ck
en ary
ĠChem istry
desc riptor
Ġb arr
ĠC yr
IN DEX
ĠParam eter
ĠInitial ly
D evelopment
Ġb ubble
if fin
M esh
Ġtend ency
ĠLind a
ov al
Ġle ak
18 20
18 44
ap a
Ġsequ ential
Ġvacc ine
$ =
af ka
Ġdis par
ĠNe uro
lock ed
ĠH aven
Ġexp end
Ġwid ow
} "/>
ĠH ale
oc cup
Ġdis abilities
Ġasymptot ically
Ġindic ation
Ġpl ural
ĠWe ather
R ugby
Ġbuild s
... ]
Ġ\| _{
ce q
Ġstr at
() ]
ĠDomin ican
1 200
M ail
Ġsl ower
ĠPak istani
' })
F ast
ath a
Ġcatalog ue
ol in
Ġun ited
18 38
g ue
Ex pl
Ġple asure
ĠIndones ian
est e
Ġper f
Ġbeat en
ĠC ay
Ġfor um
Ġe leg
J ean
c ached
ĠB ec
sc reens
Ġinvest ed
ĠMaur ice
Ġflex ibility
ĠBry an
Ġsimilar ities
38 4
sp i
Ġafr aid
ĠAt omic
o que
Ġhierarch ical
âĶ Ģ
H ook
Ġnon trivial
ĠPublic ations
Ġconcept ual
ĠEp isode
Ġl as
ap ps
Ġpr ince
post s
Ġprefer ences
Ġtow ers
> ../
Ġins ufficient
gener ation
She et
Ġansw ered
let es
S hip
Check ed
Ġprompt ed
Ġundert aken
t ile
ĠStr uct
ĠJ unction
ĠCh rome
ĠC ome
ĠP anel
Ġshould er
ĠS ho
al ink
)\ )
ĠTrans it
â Ĩ
H op
ĠT iger
qu ire
ĠCoun sel
Vis itor
\" {
un its
ĠC over
Ġob s
Ġvis itor
Ġmulti plicity
Ġ" ./
ĠT ampa
ĠYank ees
] }$
scale box
Ġfactor ization
d ynamics
Ar r
ĠEmer gency
V S
M G
Ġab olished
ME SS
F B
ĠS ect
Ġrob ots
Ġr ays
ess el
Cal ifornia
elect ron
Ġelabor ate
Ġdisestabl ishments
Ġimprison ment
Ġless er
h it
23 2
fin ity
Ġmulti plic
erm ark
Ġcap ita
ĠMan ila
ĠMer it
rest rial
ĠM W
Ġbare ly
F G
ĠPlay Station
man aged
Ġappreci ate
ari us
Ġg it
V ariant
o ct
Ġo c
Ġfound ations
hash Code
k now
ĠZ ero
ĠGer ald
R oad
Ġlo ose
ich let
Ġradi ative
Ġpe aceful
Ġtheat rical
è ¡
fr astructure
Sub ject
sub string
elect ric
b ol
ond s
ĠMod els
ĠSand ers
ĠPop ular
cam el
L com
M arg
Ġclass room
Res pon
_{ {
P adding
ĠInt roduction
set Text
nob r
Ġ$ ('#
ad j
iffer ential
Lower Case
w y
w ire
@{ }}
not ification
Ġmeas urable
Ġinfr ared
ĠS ustain
ĠQ t
Ġlect ures
Ġpit ched
r isk
B rown
L es
p ics
ĠT aking
L u
am ine
Ġstrugg les
tim eline
Ass ign
ĠAl pha
18 35
Ġqu it
Ġfe ud
ĠG A
RO OT
LEV EL
Ġap pendix
ĠGib son
c ookie
Ar thur
F ollow
Ġl ob
\ ),
Ġb rows
Ġon set
Can vas
Ġrem ix
re ports
Ġ( `
Ġres iding
Ġterm inology
er i
V T
Ġgu itars
re ne
ib a
/ $
V an
x ym
ĠA A
ĠB uffer
n st
con figure
en es
Ag ain
ĠPl us
ol an
Ġex empl
we ets
WR ITE
C AL
le ad
ĠK err
Ñ ĸ
ĠR N
atern ity
im i
ĠFr anz
ĠCour se
ĠY an
ĠVal ent
l ane
Ġund ers
Ð¾Ð ¼
fe ctions
Ġwor ry
Ġd ressed
Ġmain land
w b
Ġw ages
With in
sm art
ĠMal ta
ad ier
Ġwarn ings
L U
ĠA bs
Ġcons erved
let te
j ournal
Ġexperiment ally
pot ent
l os
Ġvict ories
ĠJer emy
Ġt actics
ĠH off
he ng
FORM AT
aw t
Ġsav ings
ĠR ush
ĠGr iff
Dest ination
Ġang ry
ĠK aren
Ġdet erior
pack ages
ut ory
18 32
Ġen larg
Start ing
Ġstreng ths
Ġextr apol
Ġcor ps
seud o
Sh ift
19 1
Ġund erm
Event Args
Ï ħ
" ])
ĠInter ior
FRA ME
ĠArmen ia
F ill
l if
Ġp unct
ĠT X
Ġn erv
ats u
Ġpost er
us age
al go
Ġmark ing
Ġbreed ing
Ġs oc
x c
Ġhyp ers
ĠBou levard
r brace
d dot
U kr
ĠEx ped
B ern
Ġl on
Ġgl ad
Tax onomy
ĠExcell ence
Ġrom ance
Ġs el
ĠH arm
to Equal
Ġcan on
ing ers
ĠSh in
n or
Ġs iblings
ig g
Dec oder
ĠM old
f ollowing
Comp leted
Ġn ights
av ian
ĠG ir
ĠTh an
Sh adow
vent ory
Ġant is
' "
AR K
ĠB P
ĠP ackage
j in
ag le
26 4
ĠNiger ian
ĠLe ave
Ġp ec
ãģ ®
c ia
Ġreleg ated
O H
Ġthe ology
Ġnom inal
bas is
sh i
Ġemer ge
Ġanticip ated
ĠBl u
ox el
Ġrecon struct
Ġexceed s
ĠG ren
ne z
Ġphys icians
Text View
Ġassemb led
Â ·
st ub
ĠĠĠĠ ĉ
Ġsuggest ions
ĠTh anks
)} }\
Ġfin ancing
fl ows
Ġle ver
Ġprop ri
W ang
Ġap pl
ĠLe icester
File Path
; %
in ians
C AC
Ġrespect ed
T ry
All ow
ĠS ET
Ġop posing
Ġdel ays
)$ }
ĠS ul
ep per
ĠAr ctic
Public ations
Ġz eros
18 36
Ġrep orters
ex ist
17 7
miss ing
Ġs ew
Ġaut obi
osc ript
h ydro
] ->
c aret
Ġl ady
ĠViet namese
ĠMark eting
ĠAmer icas
{ },
Ġdevelop s
Ñ Ħ
mont on
. }}
Ġcoun cill
ĠWrit ers
ĠH ab
ĠAb original
le en
itt en
Ġmur ders
Ġw are
40 5
eg ovina
ĠC openhagen
}) }{
Ġstay ing
Ġtrans ient
hell o
ĠShort ly
cur l
f u
Ġc ock
ed ing
Ù ħ
ĠClass ical
ĠVat ican
ĠBa iley
W ORK
Ġr hs
GLE W
n r
] _{\
um en
Ġtrib al
------------ -
Ġround ed
), \\
le ys
Ġelim ination
Ġdo zens
Debug ger
ĠT at
am ous
ĠI v
Ġr c
path y
ĠCart esian
ap or
Ġhar vest
ĠCorn wall
non atomic
ĠDom ain
ĠPut in
le z
Ġemer gence
Ġdisput es
Ġrenew able
che l
] ['
Ham ilton
i pt
Ġstep ped
ĠF eder
P ak
Ġdiv isor
ĠGi ov
ph ant
li um
Ret ry
ĠLore n
or ers
Ġbul let
Ġr amp
30 2
ĠPop ulation
Ġwitness ed
Sub scription
or p
ĠIn side
Ġmind s
ĠZ end
Ġreflect ing
22 3
Q UI
ĠEx hibition
Ġre vel
ang led
Comp are
Stack Trace
Ġc avalry
ĠG othic
Ġgr ains
Ġneighbour ing
Ġple ased
Ġcook ies
Con tain
Ġtw isted
ĠX X
Ġche ap
Ġdeterm inant
db c
FUN CTION
Ġobl igation
ĠProv incial
Sche me
ĠK lein
the ir
Ġsocial ist
Ġgram mar
\ @
Ġsubgroup s
? (
Ġde grad
ĠMc Donald
ĠGl enn
ĠPract ice
ĠLithuan ia
ĠBar ack
NR AS
ĠU nd
Ġprivile ge
B re
ow itz
Ġso ap
Ġtal ented
^ *}
ar v
(" .
Ġtem plates
ĠR C
Ð°Ð »
g ary
l v
Ġflood ing
Ġrel uct
/ #
ĠP orter
Ġcomplet eness
Ġopen ly
ĠCle arly
K h
g as
ĠAb b
Cl os
OB JECT
ĠM oses
Ġh ab
Ġcapt uring
ian e
ĠNet flix
J ournal
Ġun incorporated
ric ia
Ġicon ic
And rew
Ġint elligent
inv oke
ed ly
Ġ( <
ĠB od
ĠK i
Ġprot esters
Ġtrail er
fam ilies
| }{\
ĠS NR
un ar
aw esome
Ġtre ating
ir us
f v
t u
Ġ" (
Ġincorpor ating
i ab
Ġg ods
Ġcollabor ative
us hes
an ian
ĠGL int
ĠDet ails
Ġoccas ional
ĠClin ical
ĠB ever
ys ide
Ġsm oke
ĠL enn
r ates
er als
e igen
ĠV a
Ġlux ury
Ġlift ed
Ġassass ination
mod ifier
Ġpy thon
ĠP H
te in
Separ ator
ĠK urt
br ack
ĠFranc o
Ù ĩ
ĠPart ners
ĠLou ise
Ġminim izing
c ats
work ing
}= -
Back end
Ġil leg
Ġpup ils
e V
ĠGu atem
Ġch at
Ġapproach ing
r ice
ĠCr u
App ly
Ġdesign ing
ĠQu estion
Ġafter math
Ġmyth ology
ĠN ixon
n x
ĠEngine er
ĠEv angel
ĠDev il
SH A
default s
ide a
Ġup set
ĠS aw
Ġst ones
ĠC rist
ĠM emphis
ĠL ip
av in
s ided
Ġw ound
ĠS event
ĠM ead
c in
Ġreg ards
ĠCr isis
Ġquestion ed
Ġ= &
ĠEd mund
ĠAh mad
Ġturbul ent
ĠM R
Ġep it
enz ie
-- \
input s
Load ed
ĠFram ework
Ġev olve
Style ID
b age
vis ual
ĠRoll ing
ĠV AR
Ġstrugg led
ĠD rop
Valid ate
Ġterm inated
Ġin ches
parent Node
MP L
int rodu
ors ed
oy a
E ducational
T ODO
rend ered
ĠBeat les
Ġre he
Ġfeed ing
Ġadvoc ates
B and
Ġn od
ĠBer ry
ĠA ch
log ic
,\,\ ,\,\
Ġelder ly
18 6
ju ana
av g
ĠG Ã¶
k al
Ġlast ing
ĠFig s
ancellation Token
? }
ĠD ifferent
18 41
ig i
ĠSt orage
Ġhot els
Ġim pe
ĠC lement
Ġv iable
TE S
sche mas
ur an
Ġkill s
Ġ )\
ĠG ET
pl ays
Ġdis advant
Ġdepos its
ĠKe ep
Ġup dating
ĠSh ore
ĠRe agan
For ward
se ver
Ġ" )
rosso ver
Y S
Ġrout ing
um ble
ĠF ergus
sw ap
at ype
Ġgl uon
Ġturbul ence
ĠM Ã©
ĠT IM
r ors
Ġe ject
Ġtarget ing
Ġnever theless
Ġdon ations
ĠT anz
~~ ~
Ġmin eral
m pi
Ġc c
log y
col m
Ġter rible
Ġdiscuss es
Ġdes irable
Ġvocal ist
Ġimplement ations
communic ations
Per cent
art icles
NE W
ĠB OTTOM
ĠP ir
Sc ience
ter min
u pe
ĠJava Script
H ouses
riev e
ĠR out
respon sive
40 3
Ġcert ification
P oll
n oscript
ĠD in
Ġk ings
sub scription
Ġtransport ed
Gate way
J P
TEXT URE
Ġ} (
Equ ation
Ġcontin ent
T ON
Ġb unch
G H
Ġw reck
S afe
n ai
is co
Amer ica
Ġreb els
Ġ\ \\
ac ements
Ġb undles
h ire
l iteral
Ġco ordination
Ġsuggest ion
Ġthe or
In ject
raise box
Ġper ipher
Co ord
Art icles
23 1
ĠAll an
ath olic
ra ising
Ġw is
18 1
E th
ĠCa uchy
ĠL odge
row se
Ġco herence
Le ave
be am
ag ain
ograph ies
Ġhuman itarian
ĠM iche
Ġreli ability
Sign al
reg ex
Ap pro
ĠJohn s
w ald
Ġ. =
Ġcomplement ary
) _\
17 9
xym atrix
Ġfin anc
Equal To
the ad
ym ph
und ers
ut ers
ĠL HC
col ors
Ġmob il
Ġgrand son
abl o
iling ual
ĠDe al
Ġbankrupt cy
Ġh ung
Ġinvari ants
fav icon
Ġconvent ions
Ġa erial
ĠD ob
the m
Ġt weet
up les
Ġindiv idually
Ġpair wise
m achine
by e
ĠGr ass
di agonal
F IN
Ġatt achment
ĠLib ya
ĠM N
18 42
}$ ~
Un incorporated
Ġsur f
ĠB il
ĠN P
k ers
n ail
ĠD S
Ġap olog
| }\
Ġm i
N atural
ĠVal ues
ĠDis play
charg ed
22 7
Author ization
ĠHind i
( @"
ĠEv olution
Ġf o
ĠM TV
ĠQu art
ĠMon roe
Ġess ays
Ġsc reens
Ġlog s
yst er
Warn ings
g reat
ĠR ac
ess ing
- ">
Ex cel
Ġdies el
ĠAn imal
Ġcon gregation
ignt y
ĠR ib
sp ark
rid or
anc a
B ank
Ġsc ar
Ġprem ises
* }\
ĠC anyon
ter bury
ff bb
ĠHe ath
ar ations
ĠIn cre
0 10
Ġhom ology
Ġcop ied
Ġfar mer
Ġf ut
ĠT ell
tool bar
ĠBr as
Ġbur ial
PA SS
Ġre bellion
." ;
ĠDev ice
contin uous
PRE FIX
n v
Ġterr ain
ĠSac ram
l vert
Ġp ink
}) ^{\
Ġemploy ing
ĠNetwork s
U int
ou cester
ool s
Ġb apt
Ġnephe w
ĠIS BN
Ġcontribut or
Ġanalyz ing
Ġp t
Ġconfirm ation
C NN
Ġdef icit
P icker
Ġhero es
b rit
th us
as ide
Ġgl obe
ĠD CHECK
18 43
ct rl
ĠC WE
ĠString Builder
Ġk nee
Ġmod ulation
AB ILITY
D u
ram id
Ġdec oding
Back up
Ġcomed ian
ĠD as
Ġe gg
cl ub
Ġdom inate
Ġsp at
Con serv
es se
TH ER
ĠPunj ab
Ġdiff e
Ġin struct
} '$
ĠFl ash
API ENTRY
Ġs ubl
Ġbre ach
Swed ish
W ood
pl ots
ĠMar in
Ind ividual
Ġtrem end
Ġra ises
ĠE t
Ġc otton
ĠE RA
con tr
upload s
Ġdrop ping
^{ *}
Custom er
Behav ior
ĠCh ad
Ġlect ure
Ġs ou
em in
ĠUr ugu
ĠHend erson
D NS
r ans
Ġpredict ive
m ixed
ĠK iss
os ion
ĠPl ate
ih ad
ĠBank s
Ġinn ocent
Ġex empt
Ġcarri ers
ĠHard y
E t
Ġto String
all a
pay ment
re verse
Ġ// -->
ĠEm my
Ġmidfield er
}{ -
Ġab ort
U UID
ĠContin ental
T wig
Pay load
* >(
30 5
Ġsur pass
Ġcr ashed
+ }
ĠG DP
implement ation
p ark
Ġperturb ative
ĠP om
IT H
ĠCar roll
Component Model
Ang le
Pol ish
Ġgrand mother
)$ )
Ġend e
Î ¼
ĠT F
ĠP rec
Ġacadem ics
ĠR as
Ġstart up
Ġfre ight
Ġre bounds
ast ed
Me V
Ġb esides
ĠS hen
_{ |
In cre
ĠCom mercial
first row
Ġn urse
==== =
ĠEconom y
Ġat tain
ACT ION
eth yl
yl on
Ġc ss
ĠN intendo
Ġy esterday
que z
v ariant
Ġmot if
over flow
ĠWh ich
ĠMor rison
Ġterm ination
f itting
Ġan xiety
ĠE E
37 0
ĠCitiz ens
ell ation
Ġif f
fill ed
look up
Ġc ry
Ġh urricane
$ ^\
Ġr ifle
Ġassign ments
ar in
Ġdeliver ing
æķ °
L iter
g ang
ĠCarol ine
ĠDecl aration
23 3
ht m
Qu estion
Ø§ Ø
ib us
23 7
Ġir r
append ix
hedul ed
ath i
Ġpoll s
ĠBi ology
C orn
gr pc
ĠH ess
ĠSl av
faster xml
P ier
Ġacc idents
B attle
P et
s napshot
cond itional
)- (
ĠE isen
Ġmaxim ize
Ġv ortex
Ġret iring
Ġtox ic
Ġperform er
Ġnon profit
ĠGu itar
il ion
Ġarch ives
Ġbot an
Ġfl ank
ä¸ Ń
Ġdet ention
ret val
Ġport al
ĠLux embourg
ĠG ov
** *
ild a
ĠAn imation
dir name
ĠB ee
) )$,
Ġbreak down
Ġse q
ĠGP U
AR GET
ĠIS O
econom ic
ĠL ed
ĠG M
16 00
ĠT ir
Ġcr ack
eck er
Ġuniqu eness
P ars
equ ivalent
ĠBarn es
Ġsw ap
Ġannot ations
Ġfem inist
in aries
con e
! ,
ĠH od
if a
aceut ical
On line
Ġprec ip
Ġavoid ing
Ġmand ate
N ER
S rc
inst on
23 6
Ġh ometown
ĠB oeing
d yn
anc o
Ġtraff icking
ĠCoun ter
Ġt idal
Ġte aches
Ġal umin
ĠL ocation
Ġpriv ately
Dem ocratic
c atalog
ov ic
An chor
Pop up
ard e
l ar
00 7
ĠMar tha
SER VER
Ġmanuscript s
Ġreven ues
Mean while
Ġr iders
Ġrefere e
Ġb ail
Bl ob
Ġvo iced
Gener ate
ĠF an
Ġtem ples
Ġp ent
30 6
ĠForm at
Ġhar sh
Ġtrans parency
ĠCon sumer
orient ation
Ġfix ture
) ||
ÑĢ Ð¸
v ary
ĠA ce
ĠI g
pre view
Ġweak ness
ĠL t
ant le
other wise
Ġvolunt ary
Ġf u
Ġprot agonist
ĠCal gary
- )
he y
W T
Ġpar as
8 50
The ir
spec ified
Own Property
M Hz
Ġt ick
Ġb ats
ĠIs le
Pay ment
Ġde code
es p
Ġp ad
Ġent ert
D ot
Ġc s
ĠDep ression
ĠNot re
ĠForm ation
" }
Ġcov ariant
Ġcook ie
ĠS ons
Ġde form
ov y
phys ics
3 25
ĠC ort
ĠCh ancellor
Ġline up
ĠTo o
Ġprem ium
Ġt orsion
ĠS ed
l iter
' ):
P a
Prot otype
Ġcha os
b ands
ĠP or
Ġcall er
ĠC av
Ġcell ular
Ġmetall ic
Ġexpl ores
Ġs word
Ġrect angular
h base
ĠChar acter
ĠW end
ĠK yle
ĠP iano
ĠR ender
qual ified
ĠNew port
ĠH ey
Ġlocomot ive
Ġd ancer
00 6
J eff
Ġal arm
Ġthrow ing
H ex
m ons
dec om
Ġbox ing
ĠLuther an
Ġret ro
ib an
ent ropy
Ø§Ù Ħ
ag ne
ĠD ylan
ev o
22 6
Ġtrans cript
ĠN L
Pol itics
Ġdeleg ation
Ġshe ep
ÅĤ aw
V R
Ġsur render
Ex ec
or ig
Ġde pr
Ar n
ĠD ialog
ĠV III
He ap
Ġpolar ized
ord e
ĠHe at
Ġconduct ivity
Ġsp ark
Ġconsum ed
set Attribute
Ġingred ients
o an
ph on
Ġkil omet
uis ine
L os
ĠCon tract
ĠCurt is
Ġin version
Ġfor g
ced es
ĠCon sole
Ġf Ã¼r
[ <
Ġcon fin
Ġ. /
ow l
ĠRail ways
ĠM aking
Ġr ises
Ġquant ization
{ }\
ĠW arriors
Ġcondem ned
&& &&
g mail
ĠP oss
}) ^{-
Ġeduc ator
Ġnot ions
Ġk ernels
ĠAdvent ures
b eq
Ġm oll
ĠMin neapolis
st retch
cor r
Ġmanip ulation
ĠC i
Ġfurn iture
ĉĉĉĉĉ Ċ
Ġcoordin ator
member NameLink
ĠLyn n
ĠLes lie
Ġcomp ass
Ġunder went
Ad ministr
ĠElli ott
ĠF emale
Sl ice
establ ished
ĠSch r
ĠE ff
ock ets
sl f
Ġl iver
ab b
List eners
Ġdub bed
r ceil
4 000
Ġf ier
29 0
ĠConstitution al
ink i
with in
Ġide ology
Pop ulation
ographer s
ĠMar shal
ĠD ale
Ġestim ating
Ġess ence
oret ical
ĠExt ension
V ictor
Ġaddition ally
ĠNe umann
ĠRobert son
ĠPl aza
Ġcur ved
ĠS erv
Ġcustom s
Ġsome body
Ġaggreg ation
ter rit
Ġschedul ing
K w
Ġto b
ac i
t ick
}\, .
role um
ogene ity
Found ation
G reg
h urst
conf irm
ve ction
Ġex ile
Ð ³
ĠTh r
Ġsat ellites
the o
Con clusions
Ġgen res
ol ate
ĠH els
ĠCont est
ĠK arn
Ġserv ant
ĠSant iago
ĠStart ing
Ġanten na
Ġtr il
ĠHerz egovina
uet ooth
ĠF inals
ash ire
N F
Ġdefect s
ĠS ER
V s
F oo
n othing
ch anging
ãĥ ¼
s ible
28 8
utt le
NG TH
Ġsacr ifice
Ġterrit orial
e ut
Ġn ose
e o
ĠĠĠĠĠĠĠĠ čĊ
ans on
ab ic
pt ical
c A
Ġreve aling
se ek
ĠP ret
k ill
Ð½ Ñĭ
R atio
y ellow
ĠAl bums
ĠAtt ribute
al most
ĠU SE
ph ic
Ġadm issible
help ers
ĠG ael
Ġbroadcast s
comm ut
=- =-
Ġmer c
ĠStat ement
ĠT rent
R IGHT
se g
Ġtrunc ated
r ases
Ġfood s
aid en
Ġdead line
M NRAS
Ġdat abases
E ll
ĠB agh
AME TER
v iv
ott ing
Al ignment
H K
Ġassess ed
Ġafford able
Ġhe aven
ING S
st re
? </
Ġx si
ins ki
ec ycle
q w
ad apter
ul in
Ġg ig
!! !!
l ceil
r vert
ge ons
ĠPos ition
comm ands
Ġup graded
ĠTrans itional
Ġlat ency
ĠAz ure
Ġout lets
}) +
c py
unn ers
ĠESP N
sw er
ĠBer k
Ass oci
ĠManit oba
Ġnew er
Ġhelic opter
od ium
au f
riter ion
ĠB in
ĠAp plied
Re act
ass et
Ġexplan ations
m us
pl aced
Cred entials
inter action
3 40
Ġ/* !
N ear
unn able
Ġrain fall
ĠBened ict
ph ones
ĠAchiev ement
Ġadvis ory
] },
ott i
M ike
if ax
ar u
loc als
LO B
Ġpars ing
Ġd ash
Ġ' ')
Request s
Ġtouchdown s
ĠCoul omb
V IEW
hard t
g ems
Ġnurs ing
ordin ator
ugg ed
ĠA ri
Reg istration
Ġabund ances
Ġflo ors
preced ented
Ġa er
Ġgrad uates
Ġgeneral ize
ĠIn g
com ed
aj i
; ,
ĠR oth
ĠPres byterian
ĠLink ed
Ġinvert ible
Ġcomm od
ES CO
dec ay
AUT H
> ("
ex istence
Ġmut ation
ĠAgric ultural
\, $
ro ps
Ġv i
Ġhon ey
li o
append Child
ar ag
Ġstat istic
ĠD um
ray s
Ġindex ed
sat z
ĠF P
ĠÂ «
Ġreven ge
Ġle pton
b id
Ġsuppor ter
d og
Ġblock ing
C tx
Ġurg ed
Ġcomp ressed
ĠFant asy
Ġm aj
Ġend orse
ĠChel sea
( (\
h in
to LowerCase
Ġart ic
ĠLaw s
at ta
Ġfra ctions
ĠW indow
other apy
Ġharass ment
ap ur
Ref resh
g age
y i
Ġbl ame
ĠEug ene
ĠInter state
Ġfix ing
Pac ific
ĠS ent
Ġdiscover s
ĠCy cl
Ġthir teen
Ġdem o
Ġpred icate
L ag
comp iled
parent s
Ġacceler ated
ĠEll en
friend ly
ĠNew man
period ic
o qu
> -
ĠPart nership
RE NT
Ġsculpt ures
W all
F un
ĠK end
CD ATA
FT WARE
ĠH ood
Ġch orus
ĠBl air
s leep
ct ree
ĠC areer
mark er
Ġanalog y
ĠH ull
ĠR iv
="# ">
ĠRespon d
associ ated
quarter ed
Ġsp acing
18 34
over lay
Ġspace craft
Ġsculpt or
Ġb ab
PO INT
Ġle verage
Ġ/ ><
Ġtri o
L ang
Ġh o
23 8
ĠInt el
ĠM om
b read
ip es
ĠDivis iÃ³n
3 80
Ġpur ple
ĠTri ple
× Ķ
sc ene
g ro
stitution al
Ġtra its
ĠD j
ĠG aza
b ars
ĠBr ain
integ ration
Rel ation
Ġsil ence
Ġpen alties
ĠWag ner
Annot ations
Ġdo i
ĠS olid
Ġm eter
Ġre try
ĠBur ton
18 15
ĠCH ECK
ur ally
all i
St an
Ġprev ents
en stein
ĠJeff rey
n is
ĠVeter ans
Ġorgan ize
draw able
ĠReview s
CL U
ĠVer ify
ĠJo el
n io
Ġl unch
Ġcrit ically
ĠQ uality
ĠMar sh
Ġpract iced
MA IN
<? >
Ã µ
ĠM uk
ism atch
Ġoscill ation
G er
App Compat
Ġdat etime
Ġgirl friend
Ġconsult ing
p ure
Ġdec imal
ĠFig ures
T ables
Ġf t
Ġanomal ous
h c
Ġcollect or
Ġpractition ers
Ġwarm ing
vis ibility
K P
et z
U pon
Rep ly
io x
I ENT
Pol iticians
Ġ"- //
N AS
Ġcomp romise
Ġref ined
din and
d ump
Ġnovel ists
le ave
ĠT EST
aff ected
che ss
B LOCK
es ch
Ġc ere
ro gate
B ucket
). $
ĠBelf ast
Ġtw entieth
Ġsecur ities
Ġcast ing
Ġrepl ied
Ã¨ s
Ġem power
Ġpredict s
St yles
Tr ump
Ġlab elled
ote chn
max imum
qu o
Ġre ass
ĠD ew
Ġcat hedral
ircl ed
Ġf ung
ĠI stanbul
ĠChurch ill
I ran
ort ium
)$ $
r ink
ĠE g
ipp et
Ġout going
Pro blem
cy l
ĠH aus
ier i
22 8
Ġimm igrant
ams ung
Ġle pt
Ġdiv ine
N OS
att i
Ġch ances
ĠAd S
Ġhand ful
Ġb out
Ġl od
HO ST
scal ing
Ġscr atch
act iv
Ġst aged
be cca
Ġe V
ne um
Ġtrans fers
read only
ĠBul let
INST ANCE
D ark
k ok
ĠW ak
Block s
Ġdirect ive
ĠAd rian
Ġre cept
24 8
26 5
ĠWar wick
ĠOcc up
Ġt ear
or acle
ĠCr us
ĠMy anmar
Red is
Sh arp
US Y
Ġten ant
E s
As ian
Ġintegr able
P en
ĠR ica
)) ^
S and
Ġn u
L im
ext ype
ĠV eh
s ensitive
equ ilibrium
Ġsix teen
ogen ic
p es
ĠPot ter
ĠFern ando
Ġwant ing
Ġc ube
Ġcl ay
She ll
ot yp
ĠCON DITION
im ize
Ġpro f
ocol ate
ĠW E
Ġâ ĪĴ
Ġmes on
ain es
ant o
18 33
Ġsup rem
dest ination
min ent
CC CC
Ġcontr action
if old
al bum
ĠU tt
ĠW ant
Vis ibility
con sum
ĠG reens
v b
Ã °
we ights
G i
ighth ouse
Key word
ĠW riter
ĠJ ourney
ĠR S
ĠRich ards
art a
ud er
Ġaltern atives
H idden
Ġb ones
Ġd ock
ad h
C MD
Ġs i
($ _
Ġpurs uing
look ing
G Hz
Ġmagn itudes
place holder
$ ^{\
g auge
ĠM ang
.\ ]
Ġacknowled ges
å Ľ
ĠIn spector
ĠAnd ers
in come
sec ure
Ġse aled
oy e
B ag
F ake
ç »
Ġap par
Mod al
print s
ar is
Ġdiscrep ancy
Ġspec imens
) ];
P rem
d ed
Ġpurs uant
C hen
Ġinf ect
Ġpr ide
ĠLe op
Ġstation ed
Ġco ached
Ġsol ver
b usiness
ĠP ool
Call ed
="# "
ĠPat tern
l ayers
Ġpack ets
B oard
ĠB alk
Ġnecess ity
Ġp ic
Ġch lor
Ġphil osophical
T a
y g
Ġmort ality
ĠC I
Ġrenormal ization
Ġdisband ed
m ology
Ġshell s
conf irmed
x l
ing en
ĠCond ition
h on
ĠL ynch
ĠJul ie
Ġproceed ed
W P
for ge
Ġelectron ics
ĠBur ke
ĠWor cester
ĠStrateg ic
Ġprob abilistic
Ġd ys
ĠQ String
Ar c
sub division
Ġfasc inating
R end
ĠRiemann ian
il ateral
Ġh iding
Cor ollary
TO OL
Ġspons or
Ġexcess ive
ĠBurn s
Play ing
C ookie
ĠDr um
| ,
Com position
% ).
ĠLuc y
}}{ (
t el
ass umption
Ġden y
Ġhol y
l ore
d id
Ġp s
). \
ĠBel grade
Que en
ĠT err
ĠBe a
Sc heduler
Ðµ Ð»
et ches
ĠA way
ploy ed
product s
ĠJam ie
ĠAlexand ria
Ġsyn onym
22 9
Ġm ari
ĠChe ss
Ġmark ers
Ġearn ings
Ġg aming
ĠL ar
Ġconcent rations
re li
ĠC el
est y
Ã± o
ant es
` :
ĠA WS
Ġinfin itely
ari at
Ġac claimed
H u
ĠEp iscopal
A ge
ĠĠĠĠĠĠĠĠĠĠĠĠĠĠĠĠĠĠĠĠĠĠĠĠĠĠĠĠĠĠĠĠ ĠĠĠĠĠĠĠĠĠĠ
ĠW ool
w ere
ĠGl oucester
ĠBet ter
am on
Ġke en
ast ore
ien ne
ĠEvery thing
ĠDise ase
Ġt il
sh own
ĠCl uster
Ġperm its
Sw ift
Ġto y
let ing
dot ted
Ġmet als
ĠFl oat
Ġhe ir
an an
Sp in
im ming
ĠBas il
Ġfro zen
ĠLiber ation
short cut
Ġge ographical
ĠL ines
d iamond
ath am
ĠI sh
Ġamb itious
@ {\
ĠÃ ĸ
se min
ĠE ducational
Ġro oted
irt k
ĠCh in
sh ine
Ġsl ip
Ġinject ive
ĠDub ai
ĠAntar ctic
Ġm arri
su cc
ĠT ennis
min or
udd y
ch rome
Data Source
Ġconstit utes
ĠF act
Ġh i
K A
s ound
ex tract
en ue
Ġmer ging
Ġle ar
)$ ;
ĠM ove
ĠM ale
Ġt ong
im als
Ġat tained
ik er
Ġac ute
$ ~\
ĠS isters
ĠP AR
h ub
en za
em ia
MA KE
l is
im ization
ĠA IDS
Ġfilm maker
per mission
O O
Ġaccount ed
Ð½ Ð¾
ĠChem ical
ĠExped ition
J oe
ĠA ST
ch annels
Ġwhe els
ĠSte phan
Ġsqu ee
ĠIP v
Ù Ĭ
ĠSh i
Ġfour teen
ĠIN T
SU B
ĠMont en
em er
sk in
Ġsu ited
Ġred shifts
ĠM eta
Ġodd s
Ġke V
ĠPro b
ĠT ales
Ġsen ator
Rel ations
Ġhousehold er
y aml
ĠO UT
Ġspl its
MS G
C itations
ĠCont ainer
Ġ ÑĤ
Cl ip
Ġnob ody
Ġs ailing
ĠM T
histor ic
ĠG LE
ĠRom ans
( []
h ra
ĠKing ston
ĠH ern
Ġmass less
Ġh anging
con c
Ġins isted
ME D
Ġcom plications
t alk
ev olution
ec a
EX P
K B
if les
23 9
Desc ribe
ly mouth
found land
Ġmet eor
ĠLiter ary
ĠEd it
Enc oder
ĠFilip ino
D ER
d eveloper
Ġbom bs
2 16
Ġdiplom at
Ġninet eenth
J ones
is ors
N i
an ium
Ġpersonal ities
Ġlack ing
ĠBre xit
n as
Â ®
Ġr idge
y ield
sh aw
el n
ĠC rystal
Part s
Ġtruck s
Ġgener als
ĠFl ow
Pi pe
Ġdece ased
l ists
ov i
omet ime
ht ra
}$ };
00 000
ec hes
Ġsem igroup
Ġtri um
Ġdiscontin ued
> ()</
Ġmidfield ers
Ġl ambda
ĠH i
× ª
pl iers
m ile
Ġsp ans
Ġn ons
Ġex clusion
Ġpers pectives
Ġemphas ized
it Ã©
Ġkey word
Ġqual ities
dec oration
Ġparad igm
Q R
Ġr ivals
Ġaut omorphism
Ġ(! (
Ġthermod ynamic
dis crete
spect rum
Ġsens ing
g ae
Ġ' $
multip ut
v t
j ee
3 45
F at
Ġa pert
Ġaut umn
Ref lection
l ic
ĠMar ion
ĠAppe al
* (
p it
Ġj ur
ĠFrank furt
ĠParliament ary
Ġtum or
ĠCelt ic
t le
Disc ussion
o ating
ho ff
ĠM ask
head ed
ĠF ay
ĠD w
Ġinv itation
Ġmon uments
Ġdirect ing
asc ar
ipe g
Ġg ifts
ist o
, ...
ĠF E
esc u
65 5
ĠM ilton
Ã¤ r
Ġannih ilation
ĠC B
Ġplaint iff
Ġ" +
ĠRe ports
All owed
ĠN atal
Ġfil ing
R oom
Ġc ig
nd ez
ĠG ates
Ġinter rupt
ĠDar win
Ġforb idden
Ġun necessary
urch ase
size of
Ġexerc ises
product ive
rib es
Ġinvent ory
al an
Art ifact
I ce
M as
Ġfor gotten
ĠM orm
rit z
Th reshold
mys ql
ĠT roy
ak is
Ġdeleg ates
upl icate
Ġtob acco
Ġon wards
Ġener get
ĠZ amb
s ampling
ĠC ool
ĠQ atar
get Key
ĠM ET
ĠD iet
ĠG ol
Ġcomp elling
T ick
Ġc razy
ann ah
He art
Ġpartnership s
Ġnerv ous
ĠF ra
Ġwis dom
ys on
Ġaud it
. ');
Ġst ays
ĠR GB
Ġsub stitution
ĠEston ia
ĠSche ma
Ġrecurs ive
ĠA id
c ot
ĠR PC
ident ified
j obs
Ġin structor
Ġin scription
ĠD ow
ĠHigh land
âĢ ł
Ġre jection
Ġb uck
Ġdig its
ĠSuper ior
Ġutil izing
ig raph
ĠO slo
da ugh
m and
ĠS ample
Ġnot ations
p referred
ad al
ev es
RO W
Ġph ones
\% ,
ĠMan ufact
ĠMichel le
' ^
R outer
row Color
ĠJen kins
, </
Ġ| ____
br anes
ĠGeorg ian
ĠBar b
ĠSch ol
ĠDirect ory
im id
pl anes
}, $
ĠDay ton
ĠP apers
ĠW aters
Dis abled
sup set
Car thy
Ġexcell ence
ĠCzech osl
ĠRec ent
ĠTechn ologies
board s
ĠCONDITION S
Ġm u
ĠR overs
oc on
vers ions
ĠLanc ashire
in fl
}} }}
ĠS FR
ĠCorn ell
A h
Ġinv ention
Inst ances
Ġre ceptor
Ġrec ycl
arri e
IS O
W ay
t cp
AT URE
Ġpen et
ĠBAS IS
H ide
amm ad
ĠH P
w indows
ĠC ould
ĠTe V
Ġul tra
Ġn ic
ĠP am
ĠK om
25 4
stad t
Tur k
ĠWes ley
Ġb ike
aly zer
IP S
ĠId entity
Ġrout er
b ons
ĠGu ards
Ġancest ors
k ed
ĠTrans form
Ġcancel ed
reg istry
ĠSing er
Link ed
Ġpublisher s
ĠG ross
Ġpresc ription
å į
Ġcapt ion
Ġcab in
Ġdissip ation
Ġoutper forms
g io
ĠAlban ia
ĠC ord
ĠN acional
ĠM ell
ĠI X
ĠH ook
Ġdis charge
Ġexcit ations
ĠB inary
part icular
Ġpre y
Ġenc ounters
V V
ros se
ĠCON FIG
ĠSouth west
Ġsimultane ous
ĠAdvent ure
Ġdivor ced
ĠNad u
ext ended
Ġorgan izing
pe x
to kens
alk eeper
ĠC avalry
ĠĠĠĠĠĠĠĠĠĠĠĠĠĠĠĠĠĠĠĠĠĠĠĠĠĠĠĠĠĠĠĠ ĠĠĠĠĠĠĠĠĠĠĠĠĠĠĠĠĠĠĠĠĠĠĠ
Ġexpect s
Ġhon ours
ĠBas in
Ġp ig
ĠF ixed
ug a
Ġbut tons
ĠRel igious
ĠRoche ster
ĠL R
ph oto
Ġdestroy ing
inher ited
}: \
ĠC ities
AT T
Ġb ij
th ouse
ĠB end
Ġf oster
Ġro ok
Ġpass phrase
h w
al gebras
ch in
b ower
ber y
Ġes cal
Ġapp rent
h ouses
Ġamb ient
Fr ag
Ġdimension less
art ist
Ġexpress ing
Ġfol ks
aint ed
ĠStaff ord
F ive
am oto
Ġr m
ĠN umer
Ġmanufact ure
ĠC ou
Ġvot er
Ġtens ors
o ft
cl air
Ġsub div
Ġserv ants
Ġtribut ary
[...]
