{
  "version": "1.0",
  "truncation": null,
  "padding": null,
  "added_tokens": [
    {
      "id": 0,
      "content": "[UNK]",
      "single_word": false,
      "lstrip": false,
      "rstrip": false,
      "normalized": false,
      "special": true
    }
  ],
  "normalizer": null,
  "pre_tokenizer": {
    "type": "Sequence",
    "pretokenizers": [
      {
        "type": "Digits",
        "individual_digits": false
      },
      {
        "type": "ByteLevel",
        "add_prefix_space": false,
        "trim_offsets": true,
        "use_regex": true
      }
    ]
  },
  "post_processor": null,
  "decoder": null,
  "model": {
    "type": "BPE",
    "dropout": null,
    "unk_token": "[UNK]",
    "continuing_subword_prefix": null,
    "end_of_word_suffix": null,
    "fuse_unk": false,
    "byte_fallback": false,
    "vocab": {
      "[UNK]": 0,
      "!": 1,
      "\"": 2,
      "#": 3,
      "$": 4,
      "%": 5,
      "&": 6,
      "'": 7,
      "(": 8,
      ")": 9,
      "*": 10,
      "+": 11,
      ",": 12,
      "-": 13,
      ".": 14,
      "/": 15,
      "0": 16,
      "1": 17,
      "2": 18,
      "3": 19,
      "4": 20,
      "5": 21,
      "6": 22,
      "7": 23,
      "8": 24,
      "9": 25,
      ":": 26,
      ";": 27,
      "<": 28,
      "=": 29,
      ">": 30,
      "?": 31,
      "@": 32,
      "A": 33,
      "B": 34,
      "C": 35,
      "D": 36,
      "E": 37,
      "F": 38,
      "G": 39,
      "H": 40,
      "I": 41,
      "J": 42,
      "K": 43,
      "L": 44,
      "M": 45,
      "N": 46,
      "O": 47,
      "P": 48,
      "Q": 49,
      "R": 50,
      "S": 51,
      "T": 52,
      "U": 53,
      "V": 54,
      "W": 55,
      "X": 56,
      "Y": 57,
      "Z": 58,
      "[": 59,
      "\\": 60,
      "]": 61,
      "^": 62,
      "_": 63,
      "`": 64,
      "a": 65,
      "b": 66,
      "c": 67,
      "d": 68,
      "e": 69,
      "f": 70,
      "g": 71,
      "h": 72,
      "i": 73,
      "j": 74,
      "k": 75,
      "l": 76,
      "m": 77,
      "n": 78,
      "o": 79,
      "p": 80,
      "q": 81,
      "r": 82,
      "s": 83,
      "t": 84,
      "u": 85,
      "v": 86,
      "w": 87,
      "x": 88,
      "y": 89,
      "z": 90,
      "{": 91,
      "|": 92,
      "}": 93,
      "~": 94,
      "¡": 95,
      "¢": 96,
      "£": 97,
      "¤": 98,
      "¥": 99,
      "¦": 100,
      "§": 101,
      "¨": 102,
      "©": 103,
      "ª": 104,
      "«": 105,
      "¬": 106,
      "®": 107,
      "¯": 108,
      "°": 109,
      "±": 110,
      "²": 111,
      "³": 112,
      "´": 113,
      "µ": 114,
      "¶": 115,
      "·": 116,
      "¸": 117,
      "¹": 118,
      "º": 119,
      "»": 120,
      "¼": 121,
      "½": 122,
      "¾": 123,
      "¿": 124,
      "Â": 125,
      "Ã": 126,
      "Ä": 127,
      "Å": 128,
      "Æ": 129,
      "Ç": 130,
      "È": 131,
      "É": 132,
      "Ê": 133,
      "Ë": 134,
      "Ì": 135,
      "Í": 136,
      "Î": 137,
      "Ï": 138,
      "Ð": 139,
      "Ñ": 140,
      "Ò": 141,
      "Ó": 142,
      "Ô": 143,
      "Õ": 144,
      "Ö": 145,
      "×": 146,
      "Ø": 147,
      "Ù": 148,
      "Ú": 149,
      "Û": 150,
      "Ü": 151,
      "Ý": 152,
      "Þ": 153,
      "ß": 154,
      "à": 155,
      "á": 156,
      "â": 157,
      "ã": 158,
      "ä": 159,
      "å": 160,
      "æ": 161,
      "ç": 162,
      "è": 163,
      "é": 164,
      "ê": 165,
      "ë": 166,
      "ì": 167,
      "í": 168,
      "î": 169,
      "ï": 170,
      "ð": 171,
      "ó": 172,
      "ô": 173,
      "Ā": 174,
      "ā": 175,
      "Ă": 176,
      "ă": 177,
      "Ą": 178,
      "ą": 179,
      "Ć": 180,
      "ć": 181,
      "Ĉ": 182,
      "ĉ": 183,
      "Ċ": 184,
      "ċ": 185,
      "Č": 186,
      "č": 187,
      "Ď": 188,
      "ď": 189,
      "Đ": 190,
      "đ": 191,
      "Ē": 192,
      "ē": 193,
      "Ĕ": 194,
      "ĕ": 195,
      "Ė": 196,
      "ė": 197,
      "Ę": 198,
      "ę": 199,
      "Ě": 200,
      "ě": 201,
      "Ĝ": 202,
      "ĝ": 203,
      "Ğ": 204,
      "ğ": 205,
      "Ġ": 206,
      "ġ": 207,
      "Ģ": 208,
      "ģ": 209,
      "Ĥ": 210,
      "ĥ": 211,
      "Ħ": 212,
      "ħ": 213,
      "Ĩ": 214,
      "ĩ": 215,
      "Ī": 216,
      "ī": 217,
      "Ĭ": 218,
      "ĭ": 219,
      "Į": 220,
      "į": 221,
      "İ": 222,
      "ı": 223,
      "Ĳ": 224,
      "ĳ": 225,
      "Ĵ": 226,
      "ĵ": 227,
      "Ķ": 228,
      "ķ": 229,
      "ĸ": 230,
      "Ĺ": 231,
      "ĺ": 232,
      "Ļ": 233,
      "ļ": 234,
      "Ľ": 235,
      "ľ": 236,
      "Ŀ": 237,
      "ŀ": 238,
      "Ł": 239,
      "ł": 240,
      "Ń": 241,
      "ĠĠ": 242,
      "Ġt": 243,
      "in": 244,
      "he": 245,
      "Ġa": 246,
      "on": 247,
      "er": 248,
      "ĠĠĠĠ": 249,
      "re": 250,
      "at": 251,
      "Ġthe": 252,
      "en": 253,
      "or": 254,
      "Ġs": 255,
      "al": 256,
      "an": 257,
      "is": 258,
      "es": 259,
      "it": 260,
      "Ġo": 261,
      "ar": 262,
      "Ġc": 263,
      "ed": 264,
      "Ġw": 265,
      "ion": 266,
      "Ġf": 267,
      "Ġp": 268,
      "Ġof": 269,
      "nd": 270,
      "Ġin": 271,
      "ic": 272,
      "le": 273,
      "ing": 274,
      "Ġb": 275,
      "as": 276,
      "ro": 277,
      "Ġand": 278,
      "Ġd": 279,
      "Ġm": 280,
      "ĠĠĠ": 281,
      "Ġto": 282,
      "ct": 283,
      "ent": 284,
      "et": 285,
      "ĠĠĠĠĠĠĠĠ": 286,
      "ou": 287,
      "el": 288,
      "st": 289,
      "il": 290,
      "am": 291,
      "om": 292,
      "Ġre": 293,
      "Ġh": 294,
      "Ġ\\": 295,
      "ig": 296,
      "ĠS": 297,
      "Ġth": 298,
      "Ġn": 299,
      "ol": 300,
      "ation": 301,
      "Ġ$": 302,
      "Ġ(": 303,
      "ĠT": 304,
      "im": 305,
      "ac": 306,
      "id": 307,
      "ĠC": 308,
      "Ġe": 309,
      "ot": 310,
      "Ġl": 311,
      "ĠA": 312,
      "ur": 313,
      "iv": 314,
      "ut": 315,
      "ad": 316,
      "Ġis": 317,
      "se": 318,
      "ul": 319,
      "Ġfor": 320,
      "ce": 321,
      "ĠM": 322,
      "Ġg": 323,
      "ow": 324,
      "ĠI": 325,
      "ly": 326,
      "ch": 327,
      "ay": 328,
      "em": 329,
      "Ġon": 330,
      "od": 331,
      "ter": 332,
      "ag": 333,
      "ĠĠĠĠĠĠĠ": 334,
      "us": 335,
      "un": 336,
      "if": 337,
      "um": 338,
      "ab": 339,
      "Ġst": 340,
      "ver": 341,
      "ĠB": 342,
      "ĠP": 343,
      "âĢ": 344,
      "ir": 345,
      "Ġbe": 346,
      "Ġ=": 347,
      "ith": 348,
      "qu": 349,
      "20": 350,
      "{\\": 351,
      "Ġas": 352,
      "ist": 353,
      "ap": 354,
      "th": 355,
      "Ġcon": 356,
      "Ġthat": 357,
      "ĠH": 358,
      "ers": 359,
      "ate": 360,
      "Ġv": 361,
      "ĠR": 362,
      "pe": 363,
      "19": 364,
      "Ġwith": 365,
      "ĠF": 366,
      "ĠD": 367,
      "ĉĉ": 368,
      "est": 369,
      "ĠL": 370,
      "ri": 371,
      "and": 372,
      "end": 373,
      "oc": 374,
      "ĠThe": 375,
      "Ġal": 376,
      "ction": 377,
      "av": 378,
      "ht": 379,
      "her": 380,
      "Ġwas": 381,
      "</": 382,
      "res": 383,
      "Ġpro": 384,
      "ex": 385,
      "Ġan": 386,
      "čĊ": 387,
      "ĠN": 388,
      "op": 389,
      "=\"": 390,
      ");": 391,
      "ain": 392,
      "ĠW": 393,
      "Ġby": 394,
      "ĠG": 395,
      "ath": 396,
      "up": 397,
      "ub": 398,
      "os": 399,
      "--": 400,
      "Ġde": 401,
      "ity": 402,
      "ew": 403,
      "ĠE": 404,
      "Ġwh": 405,
      "rom": 406,
      "ess": 407,
      "_{": 408,
      "Ġ{": 409,
      "eg": 410,
      "ass": 411,
      "Ġat": 412,
      "ort": 413,
      "Ġcom": 414,
      "art": 415,
      "Ġit": 416,
      "Ġ<": 417,
      "Ġr": 418,
      "Ġex": 419,
      "Ġ\"": 420,
      "pt": 421,
      "ĠĊ": 422,
      "ame": 423,
      "ore": 424,
      "all": 425,
      "tr": 426,
      "ies": 427,
      "Ġ$\\": 428,
      "ight": 429,
      "ĠĠĠĠĠĠĠĠĠĠĠ": 430,
      "pl": 431,
      "ill": 432,
      "ine": 433,
      "Ġfrom": 434,
      "ure": 435,
      "ue": 436,
      "ĠJ": 437,
      "Ġor": 438,
      "ment": 439,
      "our": 440,
      "Ġ&": 441,
      "Ġare": 442,
      "//": 443,
      "ect": 444,
      "ial": 445,
      "ak": 446,
      "Ġhe": 447,
      "ĠO": 448,
      "ant": 449,
      "ud": 450,
      "Ġ*": 451,
      "math": 452,
      "Ġse": 453,
      "ive": 454,
      "age": 455,
      "nt": 456,
      "ge": 457,
      "Ġcl": 458,
      "ld": 459,
      "og": 460,
      "iz": 461,
      "ber": 462,
      "cl": 463,
      "Ġ}": 464,
      "ref": 465,
      "Ġwe": 466,
      "ĠU": 467,
      "ef": 468,
      "ult": 469,
      "ack": 470,
      "Ġthis": 471,
      "ans": 472,
      "ext": 473,
      "'s": 474,
      "ite": 475,
      "The": 476,
      "per": 477,
      "Ġy": 478,
      "ard": 479,
      "Ġtr": 480,
      "ich": 481,
      "ated": 482,
      "ary": 483,
      "con": 484,
      "Ġch": 485,
      "}\\": 486,
      "ip": 487,
      "port": 488,
      "und": 489,
      "00": 490,
      "ph": 491,
      "201": 492,
      "}$": 493,
      "ell": 494,
      "orm": 495,
      "ov": 496,
      "ĠĠĠĠĠĠĠĠĠĠĠĠĠĠĠĠ": 497,
      "\">": 498,
      "ĠK": 499,
      "act": 500,
      "^{": 501,
      "ust": 502,
      "Ġsh": 503,
      "),": 504,
      "Ġnot": 505,
      "ign": 506,
      "ical": 507,
      "urn": 508,
      "are": 509,
      "ia": 510,
      "..": 511,
      "ition": 512,
      "ave": 513,
      "Ġle": 514,
      "int": 515,
      "ff": 516,
      "able": 517,
      "ĠIn": 518,
      "Ġpl": 519,
      "ian": 520,
      "ĠĠĠĠĠ": 521,
      "ord": 522,
      "ug": 523,
      "ong": 524,
      "ast": 525,
      "ĠâĢ": 526,
      "ire": 527,
      "ost": 528,
      "Ġk": 529,
      "ma": 530,
      "ft": 531,
      ").": 532,
      "ace": 533,
      "ang": 534,
      "Ġres": 535,
      "Ġcomp": 536,
      "ep": 537,
      "âĢĻ": 538,
      "fr": 539,
      "Ġ-": 540,
      "pro": 541,
      "ork": 542,
      "ens": 543,
      "out": 544,
      "ime": 545,
      "In": 546,
      "to": 547,
      "ase": 548,
      "**": 549,
      "Ġwhich": 550,
      "ations": 551,
      "ĠSt": 552,
      "ĠV": 553,
      "cc": 554,
      "}}": 555,
      "(\\": 556,
      "ind": 557,
      "Ġif": 558,
      "ence": 559,
      "ide": 560,
      "ice": 561,
      "Ġhis": 562,
      "ear": 563,
      "ta": 564,
      "Ġclass": 565,
      "so": 566,
      "erv": 567,
      "ib": 568,
      "ec": 569,
      "Ġwhe": 570,
      "str": 571,
      "cal": 572,
      "200": 573,
      "egin": 574,
      "text": 575,
      "Ġhave": 576,
      "ions": 577,
      "turn": 578,
      "enc": 579,
      "ile": 580,
      "ype": 581,
      "sp": 582,
      "ild": 583,
      "Ġun": 584,
      "Ġus": 585,
      "ther": 586,
      "com": 587,
      "begin": 588,
      "ode": 589,
      "ok": 590,
      "ra": 591,
      "du": 592,
      "Ġcan": 593,
      "get": 594,
      "Ġhas": 595,
      "ere": 596,
      "ubl": 597,
      "li": 598,
      "ey": 599,
      "ĠCh": 600,
      "----": 601,
      "Ġj": 602,
      "Ġ'": 603,
      "ous": 604,
      "()": 605,
      "Ġall": 606,
      "Ġar": 607,
      "ory": 608,
      "Ġap": 609,
      "Ġ|": 610,
      "Ġad": 611,
      "form": 612,
      "ould": 613,
      "ish": 614,
      "Ġim": 615,
      ")$": 616,
      "==": 617,
      "ance": 618,
      "_{\\": 619,
      "ach": 620,
      "ata": 621,
      "Ġab": 622,
      "equ": 623,
      "mer": 624,
      "ject": 625,
      "Ġcont": 626,
      "ev": 627,
      "over": 628,
      "18": 629,
      "ener": 630,
      "use": 631,
      "tern": 632,
      "Ġalso": 633,
      "ĠTh": 634,
      "}{": 635,
      "row": 636,
      "ents": 637,
      "Ġwere": 638,
      "irst": 639,
      "fer": 640,
      "ress": 641,
      "},": 642,
      "own": 643,
      "oll": 644,
      "abel": 645,
      "ob": 646,
      "ound": 647,
      "ict": 648,
      "right": 649,
      "unction": 650,
      "Ġpart": 651,
      "frac": 652,
      "rib": 653,
      "eq": 654,
      "erm": 655,
      "ree": 656,
      "10": 657,
      "ĠĠĠĠĠĠĠĠĠĠĠĠĠĠĠ": 658,
      "ates": 659,
      "ount": 660,
      "Ġnew": 661,
      "clud": 662,
      "rit": 663,
      "ublic": 664,
      "Ġone": 665,
      "Ġ+": 666,
      "old": 667,
      "ail": 668,
      "Ġsu": 669,
      "fig": 670,
      "ors": 671,
      "alue": 672,
      "Ġreturn": 673,
      "ual": 674,
      "the": 675,
      "ry": 676,
      "amp": 677,
      "ome": 678,
      "wo": 679,
      "Ġdis": 680,
      "ll": 681,
      "ert": 682,
      "ose": 683,
      "ark": 684,
      "rm": 685,
      "ock": 686,
      "cite": 687,
      "te": 688,
      "hed": 689,
      "Ġbut": 690,
      "ely": 691,
      "Ġ[": 692,
      "ĠUn": 693,
      "iel": 694,
      "Ġtheir": 695,
      "Ġstr": 696,
      "we": 697,
      "Ġsp": 698,
      "inal": 699,
      "Ġ//": 700,
      "one": 701,
      "set": 702,
      "ics": 703,
      "rap": 704,
      "Ġro": 705,
      "label": 706,
      "ink": 707,
      "ik": 708,
      "Ġout": 709,
      "aram": 710,
      "ĠY": 711,
      "mathb": 712,
      "Ġob": 713,
      "Ġpr": 714,
      "Ġfirst": 715,
      "Ġits": 716,
      "\",": 717,
      "Ġev": 718,
      "ss": 719,
      "ĠHe": 720,
      "Ġme": 721,
      "ize": 722,
      "->": 723,
      "ĠIt": 724,
      "Con": 725,
      "ational": 726,
      "ield": 727,
      "Ġdef": 728,
      "ng": 729,
      "Ġqu": 730,
      "sc": 731,
      ",\\": 732,
      "pon": 733,
      "ps": 734,
      "Ġper": 735,
      "ĉĉĉĉ": 736,
      "Ġmod": 737,
      "pect": 738,
      "Ġhad": 739,
      "Ġset": 740,
      "lect": 741,
      "elf": 742,
      "Ġother": 743,
      "::": 744,
      "Ġsc": 745,
      "oint": 746,
      "ull": 747,
      "ource": 748,
      "Ġup": 749,
      "$,": 750,
      "fter": 751,
      "Ex": 752,
      "$.": 753,
      "sh": 754,
      "ool": 755,
      "Ġwho": 756,
      "âĢĵ": 757,
      "St": 758,
      "aw": 759,
      "Ġ||": 760,
      "Ġwill": 761,
      "Ġ</": 762,
      "Ġdo": 763,
      "ater": 764,
      "mathcal": 765,
      "Ġtwo": 766,
      "Ġpre": 767,
      "yst": 768,
      "left": 769,
      "Ġman": 770,
      "199": 771,
      "Ġag": 772,
      "Ġint": 773,
      "ings": 774,
      "ari": 775,
      "ick": 776,
      "Ġover": 777,
      "Ġwork": 778,
      "../": 779,
      "ption": 780,
      "pec": 781,
      "les": 782,
      "eth": 783,
      "put": 784,
      "ray": 785,
      "ix": 786,
      "Ġfunction": 787,
      "eta": 788,
      "Ġplay": 789,
      "equation": 790,
      "}.": 791,
      "sum": 792,
      "cent": 793,
      "Ġdes": 794,
      "Ġte": 795,
      "iss": 796,
      "})": 797,
      "Ġbeen": 798,
      "iew": 799,
      "ied": 800,
      "ake": 801,
      "mb": 802,
      "Ġyou": 803,
      "ĠâĢĵ": 804,
      "Ġtime": 805,
      "ck": 806,
      "Ġthey": 807,
      "Ġ@": 808,
      "roup": 809,
      "Ġen": 810,
      "line": 811,
      "Ġinter": 812,
      "12": 813,
      "ook": 814,
      "pr": 815,
      "ne": 816,
      "Ġmore": 817,
      "div": 818,
      "ular": 819,
      "anc": 820,
      "igh": 821,
      "Ġ.": 822,
      "Ġyear": 823,
      "ystem": 824,
      "Ġ/": 825,
      "amb": 826,
      "ution": 827,
      "pos": 828,
      "}(": 829,
      "\\\\": 830,
      "umber": 831,
      "âĢĿ": 832,
      "orn": 833,
      "lement": 834,
      "raph": 835,
      "Ġcomm": 836,
      "ie": 837,
      "ople": 838,
      "Ġund": 839,
      "}_": 840,
      "ax": 841,
      "ml": 842,
      "Ġver": 843,
      "ative": 844,
      "}^": 845,
      "ollow": 846,
      "ences": 847,
      "~\\": 848,
      "Ġpublic": 849,
      "(\"": 850,
      "imes": 851,
      "Ġher": 852,
      "Ġsub": 853,
      "io": 854,
      "ased": 855,
      "ram": 856,
      "vel": 857,
      "cre": 858,
      "oot": 859,
      "ember": 860,
      "Ġne": 861,
      "ited": 862,
      "Ġpe": 863,
      "();": 864,
      "ms": 865,
      "ty": 866,
      "Ġso": 867,
      "Ġname": 868,
      "pha": 869,
      "land": 870,
      "ific": 871,
      "ood": 872,
      "Ġreg": 873,
      "ican": 874,
      "Ġwhen": 875,
      "ugh": 876,
      "Ġinclud": 877,
      "err": 878,
      "ade": 879,
      "Ġsup": 880,
      "Ġbet": 881,
      "uct": 882,
      "Ġonly": 883,
      "16": 884,
      "essage": 885,
      "of": 886,
      "Ġwhere": 887,
      "oy": 888,
      "round": 889,
      "',": 890,
      "der": 891,
      "oun": 892,
      "arg": 893,
      "alpha": 894,
      "da": 895,
      "Ġinto": 896,
      "let": 897,
      "Ġrel": 898,
      "Ġthere": 899,
      "Ġacc": 900,
      "Ġresult": 901,
      "tring": 902,
      "Ġtrans": 903,
      "15": 904,
      "ivers": 905,
      "oug": 906,
      "ward": 907,
      "ann": 908,
      "resent": 909,
      "ĠThis": 910,
      "Ġfollow": 911,
      "Ġsuch": 912,
      "app": 913,
      "--------": 914,
      "></": 915,
      "Ġcons": 916,
      "Ġfil": 917,
      "ĠCom": 918,
      "ident": 919,
      "olog": 920,
      "Ġ:": 921,
      "span": 922,
      "ont": 923,
      "Ġdif": 924,
      "Ġthan": 925,
      "ient": 926,
      "17": 927,
      "als": 928,
      "arch": 929,
      "sub": 930,
      "Ġunder": 931,
      "Ġcol": 932,
      "Ġind": 933,
      "Ġabout": 934,
      "ator": 935,
      "ating": 936,
      "ities": 937,
      "ox": 938,
      "Ġany": 939,
      "ons": 940,
      "Ġoff": 941,
      "Ġact": 942,
      "Ġform": 943,
      "ĠâĢľ": 944,
      "elta": 945,
      "Ġprov": 946,
      "Ġwould": 947,
      "Ġget": 948,
      "ange": 949,
      "Ġfl": 950,
      "uring": 951,
      "198": 952,
      "Ġrec": 953,
      "ise": 954,
      "ove": 955,
      "ĠSe": 956,
      "ince": 957,
      "tain": 958,
      "Ġpos": 959,
      "ames": 960,
      ")\\": 961,
      "red": 962,
      "Ġadd": 963,
      "ĠAr": 964,
      "Ġloc": 965,
      "ĠNew": 966,
      "ays": 967,
      "ween": 968,
      "ues": 969,
      "Ġthen": 970,
      "ced": 971,
      "Ġass": 972,
      "Ġkn": 973,
      "Pro": 974,
      "ĠWe": 975,
      "Ġdist": 976,
      "Ġsome": 977,
      "cond": 978,
      "Ġpol": 979,
      "col": 980,
      "Ref": 981,
      "oid": 982,
      "Ġafter": 983,
      "><": 984,
      "****": 985,
      "hat": 986,
      "Ġdata": 987,
      "che": 988,
      "Ġ*/": 989,
      "Ġgener": 990,
      "ambda": 991,
      "Ġco": 992,
      "ren": 993,
      "eng": 994,
      "ton": 995,
      "oth": 996,
      "ys": 997,
      "atic": 998,
      "ute": 999,
      "ars": 1000,
      "))": 1001,
      "tt": 1002,
      "Ġline": 1003,
      "ists": 1004,
      "11": 1005,
      "uild": 1006,
      "Ġend": 1007,
      "irect": 1008,
      "abl": 1009,
      "__": 1010,
      "orld": 1011,
      "its": 1012,
      "Ġpeople": 1013,
      "ethod": 1014,
      "yn": 1015,
      "Ġbetween": 1016,
      "Ġno": 1017,
      "ility": 1018,
      "min": 1019,
      "Ġinv": 1020,
      "idth": 1021,
      "ĠAmer": 1022,
      "$\\": 1023,
      "ĠAl": 1024,
      "ral": 1025,
      "ĠĠĠĠĠĠĠĠĠ": 1026,
      "Ġmodel": 1027,
      "ures": 1028,
      "Ġvalue": 1029,
      "ined": 1030,
      "Ġop": 1031,
      "amma": 1032,
      "Ġph": 1033,
      "../../": 1034,
      "13": 1035,
      "ĠPro": 1036,
      "ement": 1037,
      "ĉĉĉ": 1038,
      "_\\": 1039,
      "ER": 1040,
      "ower": 1041,
      "====": 1042,
      "ider": 1043,
      "ank": 1044,
      "fl": 1045,
      "dot": 1046,
      "Ġshe": 1047,
      "Ġbec": 1048,
      "Ġatt": 1049,
      "ished": 1050,
      "ally": 1051,
      "ĠĠĠĠĠĠĠĠĠĠĠĠĠĠĠĠĠĠĠ": 1052,
      "=\\": 1053,
      "Ġour": 1054,
      "Ġused": 1055,
      "Ġsim": 1056,
      "Ġshow": 1057,
      "14": 1058,
      "mathbb": 1059,
      "Ġserv": 1060,
      "Ġbl": 1061,
      "br": 1062,
      "mu": 1063,
      "wn": 1064,
      "ision": 1065,
      "Ġstud": 1066,
      "ily": 1067,
      "ature": 1068,
      "Ġtype": 1069,
      "ash": 1070,
      "ible": 1071,
      "son": 1072,
      "Ġ\\\\": 1073,
      "html": 1074,
      "chool": 1075,
      "ve": 1076,
      "rough": 1077,
      "igma": 1078,
      "Ġspec": 1079,
      "Ġfe": 1080,
      "}_{": 1081,
      "Ġi": 1082,
      "def": 1083,
      "Ġrem": 1084,
      "('": 1085,
      "air": 1086,
      "Ġprodu": 1087,
      "atch": 1088,
      "name": 1089,
      "197": 1090,
      "ts": 1091,
      "Ġuse": 1092,
      "Refer": 1093,
      "ho": 1094,
      "Ġdiffer": 1095,
      "ious": 1096,
      "this": 1097,
      "ript": 1098,
      "rent": 1099,
      "}^{": 1100,
      "ega": 1101,
      "bar": 1102,
      "cess": 1103,
      "any": 1104,
      "Ġmost": 1105,
      "ning": 1106,
      "Ġhref": 1107,
      "ctions": 1108,
      "-\\": 1109,
      "Ġmay": 1110,
      "25": 1111,
      "align": 1112,
      "Ġrequ": 1113,
      "Ġ#": 1114,
      "ices": 1115,
      "Th": 1116,
      "part": 1117,
      "oci": 1118,
      "ized": 1119,
      "Ġest": 1120,
      "Ġnumber": 1121,
      "Ġconst": 1122,
      "Ġcall": 1123,
      "Ġent": 1124,
      "gan": 1125,
      "Ġthese": 1126,
      "ON": 1127,
      "Ġgr": 1128,
      "pi": 1129,
      "Ġequ": 1130,
      "Name": 1131,
      "IN": 1132,
      "hip": 1133,
      "aid": 1134,
      "Ġdet": 1135,
      "Ġsystem": 1136,
      "ble": 1137,
      "man": 1138,
      "Ġcur": 1139,
      "trans": 1140,
      "ines": 1141,
      "oh": 1142,
      "phi": 1143,
      "iversity": 1144,
      "References": 1145,
      "^{\\": 1146,
      "Ġcase": 1147,
      "Ġcor": 1148,
      "uss": 1149,
      "ause": 1150,
      "Ġeach": 1151,
      "uth": 1152,
      "ee": 1153,
      "ier": 1154,
      "not": 1155,
      "source": 1156,
      "Ġgiv": 1157,
      "Ġthem": 1158,
      "ever": 1159,
      "ĠQ": 1160,
      "lation": 1161,
      "Type": 1162,
      "plic": 1163,
      "ough": 1164,
      "param": 1165,
      "ery": 1166,
      "ason": 1167,
      "ternal": 1168,
      "message": 1169,
      "ĠZ": 1170,
      "Ġ{\\": 1171,
      "reat": 1172,
      "Ġthrough": 1173,
      "Ġx": 1174,
      "att": 1175,
      "ball": 1176,
      "section": 1177,
      "oad": 1178,
      "Com": 1179,
      "ike": 1180,
      "String": 1181,
      "ric": 1182,
      "ins": 1183,
      "ĠFor": 1184,
      "30": 1185,
      "import": 1186,
      "dd": 1187,
      "Ġinst": 1188,
      "ask": 1189,
      "Ġed": 1190,
      "21": 1191,
      "Ġpoint": 1192,
      "bf": 1193,
      "Ġeff": 1194,
      "Ġyears": 1195,
      "item": 1196,
      "lambda": 1197,
      "ond": 1198,
      "Id": 1199,
      "Ch": 1200,
      "Ġel": 1201,
      "ym": 1202,
      "uc": 1203,
      "itt": 1204,
      "Ġam": 1205,
      "ead": 1206,
      "Ġchar": 1207,
      "alse": 1208,
      "ages": 1209,
      "We": 1210,
      "196": 1211,
      "ism": 1212,
      "ife": 1213,
      "Ġwell": 1214,
      "Ġcent": 1215,
      "Ġgo": 1216,
      "mall": 1217,
      "Ġcre": 1218,
      "Ġback": 1219,
      "vent": 1220,
      "mathbf": 1221,
      "Ġoper": 1222,
      "apt": 1223,
      "Ġagain": 1224,
      "Ġfound": 1225,
      "az": 1226,
      "Ġrep": 1227,
      "ner": 1228,
      "Ġsign": 1229,
      "ah": 1230,
      "22": 1231,
      "ization": 1232,
      "Ġstate": 1233,
      "hen": 1234,
      "read": 1235,
      "orth": 1236,
      "ilon": 1237,
      "Ġac": 1238,
      "var": 1239,
      "Ġval": 1240,
      "Ġ=>": 1241,
      "ĠSh": 1242,
      "Ġhim": 1243,
      "ĠTr": 1244,
      "yle": 1245,
      "RE": 1246,
      "Ġgroup": 1247,
      "ache": 1248,
      "ury": 1249,
      "ample": 1250,
      "ĠAs": 1251,
      "://": 1252,
      "Ġself": 1253,
      "uch": 1254,
      "ĠCon": 1255,
      "Ġsame": 1256,
      "eter": 1257,
      "outh": 1258,
      "ST": 1259,
      "Ġvari": 1260,
      "overn": 1261,
      "ĠCl": 1262,
      "/>": 1263,
      "ces": 1264,
      "td": 1265,
      "iver": 1266,
      "code": 1267,
      "add": 1268,
      "return": 1269,
      "Ġem": 1270,
      "par": 1271,
      "Ġexp": 1272,
      "ments": 1273,
      "mod": 1274,
      "Ġser": 1275,
      "ument": 1276,
      "for": 1277,
      "aj": 1278,
      "gy": 1279,
      "Ġappro": 1280,
      "000": 1281,
      "ĠInd": 1282,
      "ern": 1283,
      "sigma": 1284,
      "ĠAmerican": 1285,
      "ale": 1286,
      "Ġmin": 1287,
      "Ġsol": 1288,
      "class": 1289,
      "itle": 1290,
      "ouse": 1291,
      "Ġthree": 1292,
      "50": 1293,
      "way": 1294,
      "lection": 1295,
      "ired": 1296,
      "bl": 1297,
      "uary": 1298,
      "Ġboth": 1299,
      "ault": 1300,
      "ĠDe": 1301,
      "ception": 1302,
      "Ġmon": 1303,
      "serv": 1304,
      "Ġfield": 1305,
      "ule": 1306,
      "Res": 1307,
      "val": 1308,
      "Ġhow": 1309,
      "angle": 1310,
      "ten": 1311,
      "##": 1312,
      "erson": 1313,
      "ĠAn": 1314,
      "Ġdifferent": 1315,
      "AT": 1316,
      "Ġpartic": 1317,
      "Ġ`": 1318,
      "ional": 1319,
      "Ġbr": 1320,
      "Ġsur": 1321,
      "\"/>": 1322,
      "beta": 1323,
      "ĠUniversity": 1324,
      "ole": 1325,
      "ically": 1326,
      "Cl": 1327,
      "ple": 1328,
      "ilde": 1329,
      "Ġ(\\": 1330,
      "Ġsecond": 1331,
      "ote": 1332,
      "Ġsing": 1333,
      "^{-": 1334,
      "Ġdec": 1335,
      "ĠCol": 1336,
      "Ġfinal": 1337,
      "Ġlead": 1338,
      "Ġnon": 1339,
      "Ġhigh": 1340,
      "eps": 1341,
      "}{\\": 1342,
      "Ġ!": 1343,
      "mathrm": 1344,
      "Ġext": 1345,
      "type": 1346,
      "Ġwhile": 1347,
      "Ġever": 1348,
      "Ġduring": 1349,
      "Ġfam": 1350,
      "Ġdesc": 1351,
      "Ġart": 1352,
      "fore": 1353,
      "array": 1354,
      ".\"": 1355,
      "Ġbeing": 1356,
      "work": 1357,
      "Ġusing": 1358,
      "back": 1359,
      "Ġmany": 1360,
      "Ġ_": 1361,
      ".,": 1362,
      "Ar": 1363,
      "Ġdirect": 1364,
      "arly": 1365,
      "Ġfollowing": 1366,
      "ĠUnited": 1367,
      "yp": 1368,
      "ister": 1369,
      "List": 1370,
      "Ã©": 1371,
      "Ġlink": 1372,
      "view": 1373,
      "24": 1374,
      "Ġmat": 1375,
      "umn": 1376,
      "irc": 1377,
      "here": 1378,
      "by": 1379,
      "ful": 1380,
      "Ġstart": 1381,
      "*}": 1382,
      "ural": 1383,
      "ants": 1384,
      "AR": 1385,
      "Ġorder": 1386,
      "Ġterm": 1387,
      "Ġmade": 1388,
      "width": 1389,
      "Ġlong": 1390,
      "ather": 1391,
      "Ġperform": 1392,
      "+\\": 1393,
      "ek": 1394,
      "esc": 1395,
      "ength": 1396,
      "other": 1397,
      "ron": 1398,
      "ivate": 1399,
      "ĠX": 1400,
      "cept": 1401,
      "):": 1402,
      "ived": 1403,
      "ĠSc": 1404,
      "194": 1405,
      "gamma": 1406,
      "ets": 1407,
      "Ġtest": 1408,
      "ared": 1409,
      "ĠLe": 1410,
      "ĠFr": 1411,
      "Ġerr": 1412,
      "bers": 1413,
      "htt": 1414,
      "It": 1415,
      "formation": 1416,
      "Ġgiven": 1417,
      "Ġright": 1418,
      "]{": 1419,
      "Ġsaid": 1420,
      "Ġdisc": 1421,
      "Ġvar": 1422,
      "pre": 1423,
      "sy": 1424,
      "ott": 1425,
      "Tr": 1426,
      "Ġmethod": 1427,
      "self": 1428,
      "ke": 1429,
      "els": 1430,
      "Ġrele": 1431,
      "Ġmed": 1432,
      "ology": 1433,
      "ases": 1434,
      "Ġfact": 1435,
      "Ġ==": 1436,
      "gram": 1437,
      "ified": 1438,
      "me": 1439,
      "Ġlike": 1440,
      "^\\": 1441,
      "Ġwhat": 1442,
      "ross": 1443,
      "Ġwrit": 1444,
      "org": 1445,
      "fo": 1446,
      "istory": 1447,
      "Ġbefore": 1448,
      "Ġ>": 1449,
      "figure": 1450,
      ")}": 1451,
      "itions": 1452,
      "translation": 1453,
      "loc": 1454,
      "delta": 1455,
      "theta": 1456,
      "Ġjust": 1457,
      "23": 1458,
      "Ġconsider": 1459,
      "velop": 1460,
      "Ġneed": 1461,
      "Ġnull": 1462,
      "ency": 1463,
      "ccess": 1464,
      "ulation": 1465,
      "ĠIs": 1466,
      "Ġbel": 1467,
      "LE": 1468,
      "rop": 1469,
      "OR": 1470,
      "Ġteam": 1471,
      "sion": 1472,
      "Ġparam": 1473,
      "Ġdevelop": 1474,
      "rho": 1475,
      "log": 1476,
      "ody": 1477,
      "tau": 1478,
      "ality": 1479,
      "til": 1480,
      "ĠEx": 1481,
      "Ġ--": 1482,
      "Ġlist": 1483,
      "usic": 1484,
      "ains": 1485,
      "Ġcould": 1486,
      "aking": 1487,
      "ser": 1488,
      "leq": 1489,
      "ohn": 1490,
      "ina": 1491,
      "ĠĠĠĠĠĠĠĠĠĠĠĠĠĠĠĠĠĠĠĠĠĠĠĠĠĠĠĠĠĠĠĠ": 1492,
      "perty": 1493,
      "cdot": 1494,
      "Ġtrue": 1495,
      "Ġmain": 1496,
      "ission": 1497,
      "Ġdr": 1498,
      "ters": 1499,
      "ober": 1500,
      "Ġvoid": 1501,
      "Ġsupport": 1502,
      "sec": 1503,
      "Ġpop": 1504,
      "try": 1505,
      "Ġnow": 1506,
      "Ġshould": 1507,
      "ively": 1508,
      "Ġbecause": 1509,
      "Ġmov": 1510,
      "To": 1511,
      "$-": 1512,
      "ives": 1513,
      "Ġmem": 1514,
      "includ": 1515,
      "ential": 1516,
      "Ġcontin": 1517,
      "ica": 1518,
      "Ġrun": 1519,
      "Ġz": 1520,
      "ĠEng": 1521,
      "Ġown": 1522,
      "Ġfin": 1523,
      "ane": 1524,
      "32": 1525,
      "ĠComm": 1526,
      "ger": 1527,
      "arn": 1528,
      "}$.": 1529,
      "arrow": 1530,
      "opt": 1531,
      "omen": 1532,
      "}$,": 1533,
      "led": 1534,
      "Ġsmall": 1535,
      "arge": 1536,
      "ĠĠĠĠĠĠ": 1537,
      "ually": 1538,
      "ribut": 1539,
      "big": 1540,
      "aining": 1541,
      "med": 1542,
      "ID": 1543,
      "raw": 1544,
      "SS": 1545,
      "arget": 1546,
      "enn": 1547,
      "eqref": 1548,
      "iving": 1549,
      "Âł": 1550,
      "Ġ)": 1551,
      "ĠShe": 1552,
      "ĠStates": 1553,
      "chi": 1554,
      "ots": 1555,
      "ify": 1556,
      "uff": 1557,
      "co": 1558,
      "ense": 1559,
      "istr": 1560,
      "quad": 1561,
      "}(\\": 1562,
      "Ġimp": 1563,
      "AL": 1564,
      "Ġsince": 1565,
      "ream": 1566,
      "Ġincluding": 1567,
      "rol": 1568,
      "ww": 1569,
      "ting": 1570,
      "Ġexper": 1571,
      "Ġevery": 1572,
      "ĠOn": 1573,
      "pend": 1574,
      "Ġfalse": 1575,
      "\"><": 1576,
      "Ġappe": 1577,
      "Ġrecord": 1578,
      "mp": 1579,
      "af": 1580,
      "times": 1581,
      "rr": 1582,
      "Ġconstr": 1583,
      "ootball": 1584,
      "play": 1585,
      "action": 1586,
      "Ġbuild": 1587,
      "Ġbro": 1588,
      "ience": 1589,
      "Ġeffect": 1590,
      "Ġorig": 1591,
      "Ġprocess": 1592,
      "iqu": 1593,
      "EN": 1594,
      "au": 1595,
      "For": 1596,
      "ele": 1597,
      "Ob": 1598,
      "Ġknown": 1599,
      "cont": 1600,
      "195": 1601,
      "chn": 1602,
      "Ġfilm": 1603,
      "ior": 1604,
      "Ġfour": 1605,
      "));": 1606,
      "ĠĠĠĠĠĠĠĠĠĠĠĠĠ": 1607,
      "ley": 1608,
      "Ġread": 1609,
      "arent": 1610,
      "ector": 1611,
      "center": 1612,
      "overnment": 1613,
      "new": 1614,
      "partial": 1615,
      "epend": 1616,
      "On": 1617,
      "Ġsee": 1618,
      "Ġstat": 1619,
      "etwork": 1620,
      "ability": 1621,
      "respon": 1622,
      "100": 1623,
      "Ġcurrent": 1624,
      "une": 1625,
      "ava": 1626,
      "Ġobject": 1627,
      "ĠBr": 1628,
      "Ġlater": 1629,
      "Ġgu": 1630,
      "Ġvery": 1631,
      "Ġimport": 1632,
      "ograph": 1633,
      "Ġagainst": 1634,
      "Ġschool": 1635,
      "arri": 1636,
      "----------------": 1637,
      "Ġpres": 1638,
      "pm": 1639,
      "Ġlinks": 1640,
      "reg": 1641,
      "data": 1642,
      "Ġopt": 1643,
      "Ġdoes": 1644,
      "ĠPh": 1645,
      "key": 1646,
      "por": 1647,
      "space": 1648,
      "Ġdid": 1649,
      "Ġmy": 1650,
      "As": 1651,
      "lex": 1652,
      "Ġmet": 1653,
      "fty": 1654,
      "Ġrepresent": 1655,
      "ĠBl": 1656,
      "Ġelse": 1657,
      "uro": 1658,
      "40": 1659,
      "string": 1660,
      "rix": 1661,
      "Ġhand": 1662,
      "Ġcond": 1663,
      "ĠPr": 1664,
      "Ġeven": 1665,
      "ler": 1666,
      "********": 1667,
      "nu": 1668,
      "ĠHow": 1669,
      "Ġcr": 1670,
      "Ġstruct": 1671,
      "face": 1672,
      "Un": 1673,
      "infty": 1674,
      "value": 1675,
      "Ġcoun": 1676,
      "alth": 1677,
      "requ": 1678,
      "Ġpresent": 1679,
      "omega": 1680,
      "Ġlocal": 1681,
      "\".": 1682,
      "roll": 1683,
      "aces": 1684,
      "Ġfr": 1685,
      "ĠPl": 1686,
      "...": 1687,
      "mbol": 1688,
      "cur": 1689,
      "bum": 1690,
      "Ġmake": 1691,
      "Ġthose": 1692,
      "ital": 1693,
      "27": 1694,
      "Ġsl": 1695,
      "|\\": 1696,
      "ĠAnd": 1697,
      "ternational": 1698,
      "ounty": 1699,
      "Ġresults": 1700,
      "Ġcommun": 1701,
      "Ġlast": 1702,
      "26": 1703,
      "tilde": 1704,
      "External": 1705,
      "Col": 1706,
      "Ġchild": 1707,
      "Ġpass": 1708,
      "gr": 1709,
      "ĠJohn": 1710,
      "itial": 1711,
      "Ġapp": 1712,
      "Ġincre": 1713,
      "Ġplayers": 1714,
      "ĠMar": 1715,
      "ows": 1716,
      "\");": 1717,
      "ected": 1718,
      "28": 1719,
      "Ġfind": 1720,
      "Ġopen": 1721,
      "Delta": 1722,
      "Ġelect": 1723,
      "ness": 1724,
      "Ġtop": 1725,
      "urch": 1726,
      "oss": 1727,
      "uthor": 1728,
      "ĠOr": 1729,
      "order": 1730,
      "Ġrespon": 1731,
      "This": 1732,
      "ĠSp": 1733,
      "ained": 1734,
      "ĠMay": 1735,
      "ground": 1736,
      "Ġworld": 1737,
      "lp": 1738,
      "Ġbased": 1739,
      "Data": 1740,
      "vious": 1741,
      "2019": 1742,
      "Value": 1743,
      "ided": 1744,
      "rem": 1745,
      "ird": 1746,
      "Ġcharact": 1747,
      "Ġrece": 1748,
      "ety": 1749,
      "inc": 1750,
      "Ġdescrib": 1751,
      "ĠIf": 1752,
      "ven": 1753,
      "ival": 1754,
      "gor": 1755,
      "Ġid": 1756,
      "ĠNational": 1757,
      "dis": 1758,
      "Ġcalled": 1759,
      "ĠĠĠĠĠĠĠĠĠĠĠĠĠĠĠĠĠĠĠĠĠĠĠ": 1760,
      "Ġposs": 1761,
      "Ġstring": 1762,
      "Ġu": 1763,
      "33": 1764,
      "Ġanal": 1765,
      "agn": 1766,
      "Ġlaw": 1767,
      "2017": 1768,
      "test": 1769,
      "be": 1770,
      "ths": 1771,
      "arm": 1772,
      "day": 1773,
      "Ġseries": 1774,
      "Ġobtain": 1775,
      "Ġway": 1776,
      "file": 1777,
      "vert": 1778,
      "Ġ$(": 1779,
      "Ġprivate": 1780,
      "ports": 1781,
      "eqn": 1782,
      "2016": 1783,
      "Ġmult": 1784,
      "ĠĠĊ": 1785,
      "reen": 1786,
      "Ġav": 1787,
      "'t": 1788,
      "ai": 1789,
      "Ġche": 1790,
      "2018": 1791,
      "ĠWorld": 1792,
      "eters": 1793,
      "ĠRe": 1794,
      "Ġdesign": 1795,
      "Ġsever": 1796,
      "Ġprogram": 1797,
      "field": 1798,
      "color": 1799,
      "Ġestabl": 1800,
      "come": 1801,
      "angu": 1802,
      "ague": 1803,
      "alk": 1804,
      "SE": 1805,
      "iness": 1806,
      "29": 1807,
      "Ġproble": 1808,
      "Ġfamily": 1809,
      "\")": 1810,
      "Ġkey": 1811,
      "Ġarg": 1812,
      "Ġbound": 1813,
      "ĠYork": 1814,
      "Ġseason": 1815,
      "')": 1816,
      "umer": 1817,
      "ides": 1818,
      "time": 1819,
      "Ġlife": 1820,
      "Ġ&&": 1821,
      "date": 1822,
      "2015": 1823,
      "ĠAd": 1824,
      "rist": 1825,
      "Ġevent": 1826,
      "Ġlarge": 1827,
      "Ġ,": 1828,
      "ised": 1829,
      "Ġyour": 1830,
      "Ġgl": 1831,
      "where": 1832,
      "oard": 1833,
      "Ġref": 1834,
      "Ġpolit": 1835,
      "sq": 1836,
      "Ġleft": 1837,
      "iam": 1838,
      "script": 1839,
      "Ġpar": 1840,
      "\\,": 1841,
      "Set": 1842,
      "ĠJan": 1843,
      "Ġmeas": 1844,
      "Ġelement": 1845,
      "Ġrefer": 1846,
      "inter": 1847,
      "\\!": 1848,
      "2014": 1849,
      "ĠCan": 1850,
      "rt": 1851,
      "By": 1852,
      "AC": 1853,
      "Ġexpect": 1854,
      "olution": 1855,
      "ope": 1856,
      "Ġcare": 1857,
      "64": 1858,
      "ĠRes": 1859,
      "ians": 1860,
      "AN": 1861,
      "orem": 1862,
      "sk": 1863,
      "ajor": 1864,
      "ĠWar": 1865,
      "}[": 1866,
      "Ġinformation": 1867,
      "Ġlim": 1868,
      "Ġ/**": 1869,
      "IT": 1870,
      "ium": 1871,
      "DE": 1872,
      "head": 1873,
      "size": 1874,
      "urther": 1875,
      "olv": 1876,
      "xi": 1877,
      "comm": 1878,
      "Ġobserv": 1879,
      "px": 1880,
      "mary": 1881,
      "less": 1882,
      "Ġ///": 1883,
      "Ġtem": 1884,
      "ĠJul": 1885,
      "Ph": 1886,
      "itive": 1887,
      "2010": 1888,
      "ĠAust": 1889,
      "Ġstatic": 1890,
      "Ġhead": 1891,
      "Ġvis": 1892,
      "ĠCent": 1893,
      "($": 1894,
      "roid": 1895,
      "];": 1896,
      "Ġgeneral": 1897,
      "ush": 1898,
      "Ġalbum": 1899,
      "Ġorgan": 1900,
      "Ġreal": 1901,
      "met": 1902,
      "unc": 1903,
      "Ġbook": 1904,
      "akes": 1905,
      "Ġstand": 1906,
      "side": 1907,
      "Ġrespect": 1908,
      "////": 1909,
      "Ġbecame": 1910,
      "idd": 1911,
      "Ġtitle": 1912,
      "ĠâĢĶ": 1913,
      "lear": 1914,
      "}}\\": 1915,
      ")$.": 1916,
      "Ġcour": 1917,
      "========": 1918,
      "fess": 1919,
      "ĠGr": 1920,
      "ribution": 1921,
      "ison": 1922,
      "ately": 1923,
      "Ġlevel": 1924,
      "Ġpower": 1925,
      "Exception": 1926,
      "Ġexpl": 1927,
      "ĠBrit": 1928,
      "lem": 1929,
      "ats": 1930,
      "Ġocc": 1931,
      "Ġperson": 1932,
      "ĠCar": 1933,
      ".âĢĿ": 1934,
      "],": 1935,
      "amed": 1936,
      "2013": 1937,
      "An": 1938,
      "de": 1939,
      "tract": 1940,
      "ĠAt": 1941,
      "ĠAll": 1942,
      "Ġknow": 1943,
      "Ġuntil": 1944,
      "iter": 1945,
      "Ġann": 1946,
      "position": 1947,
      "2012": 1948,
      "ĠFe": 1949,
      "Ġident": 1950,
      "ĠNov": 1951,
      "reak": 1952,
      "En": 1953,
      "Ġmuch": 1954,
      "Al": 1955,
      "ene": 1956,
      "ĠAss": 1957,
      "ager": 1958,
      "Ġsize": 1959,
      "ination": 1960,
      "Ġfootball": 1961,
      "nb": 1962,
      "rite": 1963,
      "Ġmark": 1964,
      "ĠSchool": 1965,
      "bs": 1966,
      "hes": 1967,
      "rodu": 1968,
      "uck": 1969,
      "2011": 1970,
      "Ġspace": 1971,
      "80": 1972,
      "Ġwithin": 1973,
      "ape": 1974,
      "Ind": 1975,
      "ĠCounty": 1976,
      "wards": 1977,
      "Ġlet": 1978,
      "aint": 1979,
      "Object": 1980,
      "cale": 1981,
      "ification": 1982,
      "Ġmust": 1983,
      "Ġaround": 1984,
      "ĠWh": 1985,
      "epsilon": 1986,
      "sim": 1987,
      "usiness": 1988,
      "iod": 1989,
      "aster": 1990,
      "acy": 1991,
      "Ġdown": 1992,
      "table": 1993,
      "Ġoffic": 1994,
      "ĠGe": 1995,
      "itional": 1996,
      "ocument": 1997,
      "top": 1998,
      "ription": 1999,
      "Ġsingle": 2000,
      "Ġmass": 2001,
      "Ġrad": 2002,
      "respond": 2003,
      "rror": 2004,
      "ries": 2005,
      "Se": 2006,
      "energy": 2007,
      "Ġcap": 2008,
      "60": 2009,
      "off": 2010,
      "ĠSouth": 2011,
      "Om": 2012,
      "ĠString": 2013,
      "search": 2014,
      "ĠThey": 2015,
      "Ġplace": 2016,
      "Ġseveral": 2017,
      "tab": 2018,
      "};": 2019,
      "ploy": 2020,
      "Cont": 2021,
      "ME": 2022,
      "Ġ%": 2023,
      "Ġnear": 2024,
      "Ġarea": 2025,
      "cm": 2026,
      "ift": 2027,
      "go": 2028,
      "Mod": 2029,
      "Ġstill": 2030,
      "Ġmusic": 2031,
      "aving": 2032,
      "ording": 2033,
      "Ġoriginal": 2034,
      "Ġdeath": 2035,
      "location": 2036,
      "illion": 2037,
      "$$": 2038,
      "Test": 2039,
      "ords": 2040,
      "Ġalong": 2041,
      "}_{\\": 2042,
      "ugust": 2043,
      "Ġdue": 2044,
      "Ġsong": 2045,
      "ĠGerm": 2046,
      "Ġ!=": 2047,
      "ament": 2048,
      "aim": 2049,
      "Ġbir": 2050,
      "Ġgovernment": 2051,
      "He": 2052,
      "ĠHowever": 2053,
      "ended": 2054,
      "ĠOct": 2055,
      "Sh": 2056,
      "Ġvalues": 2057,
      "CO": 2058,
      "Ġhelp": 2059,
      "Ġexample": 2060,
      "Ġiss": 2061,
      "omet": 2062,
      "ptember": 2063,
      "CT": 2064,
      "Omega": 2065,
      "ators": 2066,
      "35": 2067,
      "itor": 2068,
      "ormal": 2069,
      "().": 2070,
      "iction": 2071,
      "ression": 2072,
      "wh": 2073,
      "psi": 2074,
      "duct": 2075,
      "link": 2076,
      "Ġleg": 2077,
      "pert": 2078,
      "ension": 2079,
      "nbsp": 2080,
      "istor": 2081,
      "Ġdem": 2082,
      "vir": 2083,
      "ilar": 2084,
      "....": 2085,
      "ĠState": 2086,
      "ampl": 2087,
      "Ġaut": 2088,
      "Ġwon": 2089,
      "ĠFig": 2090,
      "Ġgame": 2091,
      "ances": 2092,
      "posed": 2093,
      "ij": 2094,
      "ued": 2095,
      "Ġproject": 2096,
      "lim": 2097,
      "ĠPol": 2098,
      "raphics": 2099,
      "ored": 2100,
      "oman": 2101,
      "urope": 2102,
      "Ġpost": 2103,
      "util": 2104,
      "load": 2105,
      "ervice": 2106,
      "mber": 2107,
      "ony": 2108,
      "Ġsuccess": 2109,
      "function": 2110,
      "90": 2111,
      "2020": 2112,
      "see": 2113,
      "lege": 2114,
      "Ġreport": 2115,
      "uction": 2116,
      "uman": 2117,
      "ĠMarch": 2118,
      "Ġassum": 2119,
      "Ġtake": 2120,
      "pp": 2121,
      "Ġsum": 2122,
      "RO": 2123,
      "ocial": 2124,
      "bm": 2125,
      "ĠMin": 2126,
      "Ġnext": 2127,
      "rc": 2128,
      "list": 2129,
      "pril": 2130,
      "Get": 2131,
      "capt": 2132,
      "());": 2133,
      "stit": 2134,
      "ources": 2135,
      "ends": 2136,
      "ilit": 2137,
      "aper": 2138,
      "sqrt": 2139,
      "anguage": 2140,
      "odes": 2141,
      "Ġinterest": 2142,
      "^*": 2143,
      "but": 2144,
      "Ġhere": 2145,
      "2009": 2146,
      "eqnarray": 2147,
      ")$,": 2148,
      "empt": 2149,
      "no": 2150,
      "textbf": 2151,
      "Ġlarg": 2152,
      "ourn": 2153,
      "uration": 2154,
      "ĠJanuary": 2155,
      "ero": 2156,
      "psilon": 2157,
      "ilt": 2158,
      "Ġbu": 2159,
      "Im": 2160,
      "Ġparticular": 2161,
      "ĠAugust": 2162,
      "ĠMan": 2163,
      "Ġcount": 2164,
      "Ġbeh": 2165,
      "2008": 2166,
      "Ġtot": 2167,
      "ĠUS": 2168,
      "ĠPar": 2169,
      "Ġtechn": 2170,
      "ĠSeptember": 2171,
      "Ġadv": 2172,
      "bold": 2173,
      "ĠĠĠĠĊ": 2174,
      "Key": 2175,
      "Ġpat": 2176,
      "ugg": 2177,
      "ĠJune": 2178,
      "leg": 2179,
      "box": 2180,
      "Ġcorrespond": 2181,
      "75": 2182,
      "Ġdi": 2183,
      "Ġcal": 2184,
      "aff": 2185,
      "lish": 2186,
      "gin": 2187,
      "Ġabove": 2188,
      "ĠJuly": 2189,
      "subsection": 2190,
      "\":": 2191,
      "45": 2192,
      "Ġold": 2193,
      "Ġwithout": 2194,
      "Ġnetwork": 2195,
      "cember": 2196,
      "ĉĉĉĉĉ": 2197,
      "Ġtri": 2198,
      "Ġenergy": 2199,
      "Ġinteg": 2200,
      "aus": 2201,
      "Ġformer": 2202,
      "ĠCal": 2203,
      "Ġbest": 2204,
      "group": 2205,
      "ensure": 2206,
      "Ġgood": 2207,
      "ĠOctober": 2208,
      "oper": 2209,
      "opy": 2210,
      "urs": 2211,
      "Ġview": 2212,
      "Ġprot": 2213,
      "Ġorg": 2214,
      "Ġbas": 2215,
      "Ġcharacter": 2216,
      "Ġerror": 2217,
      "obal": 2218,
      "Ġearly": 2219,
      "Ġmap": 2220,
      "Ġpubl": 2221,
      "lected": 2222,
      "Class": 2223,
      "ret": 2224,
      "hern": 2225,
      "rel": 2226,
      "caption": 2227,
      "sl": 2228,
      "ĠReg": 2229,
      "index": 2230,
      "Ġmembers": 2231,
      "ibr": 2232,
      "Ġwin": 2233,
      "ĠFl": 2234,
      "ae": 2235,
      "Ġtyp": 2236,
      "Ġestim": 2237,
      "ĠBe": 2238,
      "ĠYou": 2239,
      "Gamma": 2240,
      "wit": 2241,
      "Error": 2242,
      "ĠčĊ": 2243,
      "http": 2244,
      "aced": 2245,
      "Ġden": 2246,
      "Ġallow": 2247,
      "ped": 2248,
      "arr": 2249,
      "pace": 2250,
      "Ġmajor": 2251,
      "ĠEurope": 2252,
      "Ġinitial": 2253,
      "ling": 2254,
      "vare": 2255,
      "ĠGu": 2256,
      "fin": 2257,
      "Re": 2258,
      "with": 2259,
      "Ġanother": 2260,
      "urg": 2261,
      "Ġday": 2262,
      "Ġcity": 2263,
      "ĠNorth": 2264,
      "LL": 2265,
      "conom": 2266,
      "ĠApril": 2267,
      "ĠChrist": 2268,
      "my": 2269,
      "Ġcrit": 2270,
      "2007": 2271,
      "ivity": 2272,
      "Ġ${\\": 2273,
      "Ġchang": 2274,
      "ĠCity": 2275,
      "ĠII": 2276,
      "Ġprevious": 2277,
      "31": 2278,
      "View": 2279,
      "atter": 2280,
      "Ġinclude": 2281,
      "cer": 2282,
      "].": 2283,
      "ured": 2284,
      "imal": 2285,
      "gorith": 2286,
      "Ġwomen": 2287,
      "ially": 2288,
      "ches": 2289,
      "['": 2290,
      "Pl": 2291,
      "varepsilon": 2292,
      "._": 2293,
      "Ġland": 2294,
      "Ġeng": 2295,
      "Ġmax": 2296,
      "nav": 2297,
      "Ġdepend": 2298,
      "ertain": 2299,
      "public": 2300,
      "js": 2301,
      "Int": 2302,
      "symbol": 2303,
      "ocus": 2304,
      "struct": 2305,
      "Ġexist": 2306,
      "Ġfile": 2307,
      "\";": 2308,
      "Ġband": 2309,
      "ampions": 2310,
      "39": 2311,
      "Ġdom": 2312,
      "2006": 2313,
      "Ġaff": 2314,
      "lev": 2315,
      "Ġcomput": 2316,
      "icle": 2317,
      "ĠTe": 2318,
      "Ġsection": 2319,
      "iment": 2320,
      "uk": 2321,
      "Ġwant": 2322,
      "^{(": 2323,
      "ixed": 2324,
      "|-": 2325,
      "TE": 2326,
      "Ġlook": 2327,
      "Ġhome": 2328,
      "Ġspe": 2329,
      "ĠAustral": 2330,
      "ung": 2331,
      "ĠNovember": 2332,
      "ĠDecember": 2333,
      "Ġsat": 2334,
      "atures": 2335,
      "ribute": 2336,
      "Ġshort": 2337,
      "path": 2338,
      "36": 2339,
      "atus": 2340,
      "}=": 2341,
      "Not": 2342,
      "Ġassoci": 2343,
      "34": 2344,
      "ze": 2345,
      "Ġclos": 2346,
      "ales": 2347,
      "Ġtext": 2348,
      "lin": 2349,
      "ĠCo": 2350,
      "eff": 2351,
      "Ġperiod": 2352,
      "egraphics": 2353,
      "includegraphics": 2354,
      "}^{\\": 2355,
      "Ġdel": 2356,
      "ention": 2357,
      "Ġtarget": 2358,
      "\"></": 2359,
      "\\\\\\\\": 2360,
      "Ġhold": 2361,
      "Ġinvest": 2362,
      "Ġversion": 2363,
      "ĠRep": 2364,
      "ĠWill": 2365,
      "plication": 2366,
      "max": 2367,
      "Ġsimilar": 2368,
      "ĠEd": 2369,
      "fil": 2370,
      "Requ": 2371,
      "ering": 2372,
      "summary": 2373,
      "38": 2374,
      "ways": 2375,
      "IC": 2376,
      "âĢĶ": 2377,
      "AP": 2378,
      "perties": 2379,
      "emph": 2380,
      "rangle": 2381,
      "Ġtotal": 2382,
      "Ġreleased": 2383,
      "vers": 2384,
      "Ġsk": 2385,
      "icy": 2386,
      "mat": 2387,
      "Ġdiv": 2388,
      ")=": 2389,
      "ailable": 2390,
      "ĠBritish": 2391,
      "');": 2392,
      "37": 2393,
      "node": 2394,
      "non": 2395,
      "Ġplayed": 2396,
      "Ġcover": 2397,
      "ependent": 2398,
      "ĠCanad": 2399,
      "Ġhig": 2400,
      "ique": 2401,
      "url": 2402,
      "Ġstyle": 2403,
      "oor": 2404,
      "ered": 2405,
      "Ġlog": 2406,
      "ĠBut": 2407,
      "ĠEn": 2408,
      "map": 2409,
      "Ġcar": 2410,
      "Ġdefined": 2411,
      "Ġrequest": 2412,
      "istic": 2413,
      "Ġservice": 2414,
      "Ġcomplet": 2415,
      "ĠThere": 2416,
      ".</": 2417,
      "ideo": 2418,
      "plit": 2419,
      "bruary": 2420,
      "ither": 2421,
      "idual": 2422,
      "dom": 2423,
      "ĠPart": 2424,
      "Sc": 2425,
      "ump": 2426,
      "Ġcompany": 2427,
      "Ġassert": 2428,
      "Ġimportant": 2429,
      "Ġdeterm": 2430,
      "Ġposition": 2431,
      "Ġpoints": 2432,
      "ĠSup": 2433,
      "Ġstudy": 2434,
      "Ġredu": 2435,
      "Ġproblem": 2436,
      "''": 2437,
      "raft": 2438,
      "refore": 2439,
      "stand": 2440,
      "hold": 2441,
      "Ġhistory": 2442,
      "Ġpath": 2443,
      "ails": 2444,
      "ham": 2445,
      "ules": 2446,
      "Ġret": 2447,
      "ĠNo": 2448,
      "âĢľ": 2449,
      "Ġprob": 2450,
      "ux": 2451,
      "Ġprom": 2452,
      "Time": 2453,
      "Ġintrodu": 2454,
      "(),": 2455,
      "PE": 2456,
      "2000": 2457,
      "inition": 2458,
      "AS": 2459,
      "Ġmember": 2460,
      "sequ": 2461,
      "With": 2462,
      "ĠTo": 2463,
      "ĠBy": 2464,
      "eder": 2465,
      "Ġenc": 2466,
      "190": 2467,
      "ights": 2468,
      "alf": 2469,
      "ĠMed": 2470,
      "rightarrow": 2471,
      "']": 2472,
      "Ġ\\,": 2473,
      "viron": 2474,
      "aut": 2475,
      "Ġfew": 2476,
      "mm": 2477,
      ".~\\": 2478,
      "Ġdev": 2479,
      "Ġbusiness": 2480,
      "Ġlow": 2481,
      "const": 2482,
      "ION": 2483,
      "ynam": 2484,
      "varphi": 2485,
      "though": 2486,
      "ius": 2487,
      "ysis": 2488,
      "ography": 2489,
      "Big": 2490,
      "Ġla": 2491,
      "xim": 2492,
      "Ġauthor": 2493,
      "Ġder": 2494,
      "ackage": 2495,
      "Ġfull": 2496,
      "Ġturn": 2497,
      "Ġsay": 2498,
      "Def": 2499,
      "Ġshown": 2500,
      "ĠKing": 2501,
      "born": 2502,
      "Ġchildren": 2503,
      "Man": 2504,
      "Ġcompet": 2505,
      "ume": 2506,
      "99": 2507,
      "Ġmean": 2508,
      "sup": 2509,
      "pose": 2510,
      "Ġins": 2511,
      "Ġchange": 2512,
      "rows": 2513,
      "70": 2514,
      "ayer": 2515,
      "!--": 2516,
      "ĠAb": 2517,
      "ought": 2518,
      "adem": 2519,
      "See": 2520,
      "Ġdon": 2521,
      "Ġterms": 2522,
      "Ġshows": 2523,
      ",âĢĿ": 2524,
      "File": 2525,
      "aterial": 2526,
      "apan": 2527,
      "boldsymbol": 2528,
      "aged": 2529,
      "ateg": 2530,
      "frak": 2531,
      "iev": 2532,
      "ware": 2533,
      "ustom": 2534,
      "ensity": 2535,
      "Ġcomb": 2536,
      "uf": 2537,
      "Ġstrong": 2538,
      "geq": 2539,
      "cor": 2540,
      "Ġet": 2541,
      "Ġblock": 2542,
      "semb": 2543,
      "ino": 2544,
      "Or": 2545,
      "ogle": 2546,
      "Ġcontrol": 2547,
      "proof": 2548,
      "Ġgreat": 2549,
      "Ġthink": 2550,
      "Ġdiscuss": 2551,
      "ĠMc": 2552,
      "ĠFebruary": 2553,
      "ait": 2554,
      "Ġide": 2555,
      "Ġvol": 2556,
      "Ġaction": 2557,
      "Ġrest": 2558,
      "Ġinput": 2559,
      "urb": 2560,
      "osp": 2561,
      "rew": 2562,
      "ems": 2563,
      "Ġtimes": 2564,
      "oat": 2565,
      "Ġweek": 2566,
      ".}": 2567,
      "Ġfollows": 2568,
      "bit": 2569,
      "Ġpossible": 2570,
      "\\!\\!": 2571,
      "ables": 2572,
      "point": 2573,
      "ĠPres": 2574,
      "2005": 2575,
      "imum": 2576,
      "ĠAfter": 2577,
      "Ġnational": 2578,
      "Ġmodels": 2579,
      "Ġdescribed": 2580,
      "Ġcareer": 2581,
      "All": 2582,
      "Ġside": 2583,
      "ories": 2584,
      "Ġpot": 2585,
      "Ġ/>": 2586,
      "65": 2587,
      "=\"../../": 2588,
      "Qu": 2589,
      "Ġstates": 2590,
      "Ġeduc": 2591,
      "Ġfore": 2592,
      "State": 2593,
      "Ġless": 2594,
      "ological": 2595,
      "Ġregion": 2596,
      "Ã¡": 2597,
      "Ġbase": 2598,
      "uation": 2599,
      "Ġcho": 2600,
      "ĠHis": 2601,
      "uffer": 2602,
      "quot": 2603,
      "ĠWest": 2604,
      "ĠAfr": 2605,
      "Ġtook": 2606,
      "gl": 2607,
      "Ġheld": 2608,
      "ves": 2609,
      "Ġcountry": 2610,
      "rench": 2611,
      "Ġquant": 2612,
      "Add": 2613,
      "eneral": 2614,
      "Ġspect": 2615,
      "ĠArm": 2616,
      "ana": 2617,
      "oole": 2618,
      "ington": 2619,
      ")(": 2620,
      "Ġport": 2621,
      "user": 2622,
      "LA": 2623,
      "Ġjo": 2624,
      "Ġtown": 2625,
      "rown": 2626,
      "},\\": 2627,
      "length": 2628,
      "Ġcamp": 2629,
      "Ġrole": 2630,
      "Ġbegan": 2631,
      "Ġpopulation": 2632,
      "Ġwar": 2633,
      "error": 2634,
      "ude": 2635,
      "Text": 2636,
      "from": 2637,
      "Ġproduct": 2638,
      "ĠRuss": 2639,
      "Field": 2640,
      "Fil": 2641,
      "Ġrange": 2642,
      "vec": 2643,
      "ising": 2644,
      "cil": 2645,
      "De": 2646,
      "Ġdeg": 2647,
      "ĠAct": 2648,
      "ĠLeague": 2649,
      "ges": 2650,
      "2004": 2651,
      "Ġpred": 2652,
      "TR": 2653,
      "comp": 2654,
      "Ġmen": 2655,
      "Request": 2656,
      "Equ": 2657,
      "dt": 2658,
      "=\"+": 2659,
      "andom": 2660,
      "ailed": 2661,
      "Ġ?": 2662,
      "aul": 2663,
      "Ġsit": 2664,
      "Ġreceived": 2665,
      "Ġke": 2666,
      "ampionship": 2667,
      "ards": 2668,
      "Ġsource": 2669,
      "Form": 2670,
      "ĠDr": 2671,
      "/*": 2672,
      "cast": 2673,
      "mathfrak": 2674,
      "Amer": 2675,
      "style": 2676,
      "Ġfilms": 2677,
      "Event": 2678,
      "ese": 2679,
      "Info": 2680,
      "Path": 2681,
      "Param": 2682,
      "Ġnamed": 2683,
      "ĠCor": 2684,
      "Ġhtt": 2685,
      "Over": 2686,
      "overline": 2687,
      "ently": 2688,
      "Ġaver": 2689,
      "Bl": 2690,
      "``": 2691,
      "ĠEl": 2692,
      "oolean": 2693,
      "iple": 2694,
      "[\\": 2695,
      "https": 2696,
      "}).": 2697,
      "Ġprofess": 2698,
      "Ġnode": 2699,
      "Let": 2700,
      "ouble": 2701,
      "iff": 2702,
      "Ġfurther": 2703,
      "ably": 2704,
      "Ġgrad": 2705,
      "IS": 2706,
      "Ġoften": 2707,
      "uture": 2708,
      "ĠEnglish": 2709,
      "aken": 2710,
      "state": 2711,
      "Ġsignific": 2712,
      "cul": 2713,
      "&\\": 2714,
      "iber": 2715,
      "Node": 2716,
      "Ġphot": 2717,
      "inary": 2718,
      "lete": 2719,
      "sw": 2720,
      "Ġfive": 2721,
      "igned": 2722,
      "Ġeas": 2723,
      "Ġamong": 2724,
      "Ġavailable": 2725,
      "mult": 2726,
      "Ġconf": 2727,
      "ondon": 2728,
      "isf": 2729,
      "idge": 2730,
      "century": 2731,
      "orph": 2732,
      "ster": 2733,
      "Ġep": 2734,
      "icon": 2735,
      "Ġcheck": 2736,
      "':": 2737,
      "stance": 2738,
      "Ġthird": 2739,
      "Ġtry": 2740,
      "Ġhouse": 2741,
      "ii": 2742,
      "nder": 2743,
      "vironment": 2744,
      "ĠOb": 2745,
      "clus": 2746,
      "ilitary": 2747,
      "hline": 2748,
      "cher": 2749,
      "Ġcontent": 2750,
      "result": 2751,
      "prov": 2752,
      "Ġrepl": 2753,
      "ĠCoun": 2754,
      "ĠAp": 2755,
      "Ġproperty": 2756,
      "Ġcompon": 2757,
      "iol": 2758,
      "Ġclaim": 2759,
      "ones": 2760,
      "Ġfree": 2761,
      "Ġspecial": 2762,
      "gorithm": 2763,
      "Ġage": 2764,
      "Ġfac": 2765,
      "Ġcontext": 2766,
      "Ġbirths": 2767,
      "Ġestablished": 2768,
      "AD": 2769,
      "48": 2770,
      "ready": 2771,
      "Ġindiv": 2772,
      "now": 2773,
      "Ġaccess": 2774,
      "indow": 2775,
      "Ġstructure": 2776,
      "Ġcommon": 2777,
      "ops": 2778,
      "Element": 2779,
      "alt": 2780,
      "ayout": 2781,
      ")^": 2782,
      "Map": 2783,
      "Ġsuper": 2784,
      "Ġsix": 2785,
      "idence": 2786,
      "oph": 2787,
      "FF": 2788,
      "ients": 2789,
      "ief": 2790,
      "ald": 2791,
      "Ġdistribution": 2792,
      "evel": 2793,
      "Ġinvolv": 2794,
      "amespace": 2795,
      "annel": 2796,
      "Ġphys": 2797,
      "Ġmatch": 2798,
      "icient": 2799,
      "Ġquest": 2800,
      "Ġcreate": 2801,
      "www": 2802,
      "ecut": 2803,
      "Ġmeasure": 2804,
      "sf": 2805,
      "/**": 2806,
      "ĠRec": 2807,
      "())": 2808,
      "Ġappear": 2809,
      "amples": 2810,
      "Ġpublished": 2811,
      "Context": 2812,
      "At": 2813,
      "wid": 2814,
      "ĠMe": 2815,
      "down": 2816,
      "Ġfeature": 2817,
      "Ġresearch": 2818,
      "New": 2819,
      "draw": 2820,
      "ĠBar": 2821,
      "uments": 2822,
      "reet": 2823,
      "ittle": 2824,
      "Ġrecent": 2825,
      "ui": 2826,
      "Ġ:=": 2827,
      "ĠThese": 2828,
      "Ġuser": 2829,
      "ille": 2830,
      "Ġmillion": 2831,
      "ours": 2832,
      "Ġleast": 2833,
      "reed": 2834,
      "ogn": 2835,
      "Ġarch": 2836,
      "ride": 2837,
      "}}$": 2838,
      "Ġrelations": 2839,
      "Ġtrack": 2840,
      "Ġpri": 2841,
      "Ġperformance": 2842,
      "AA": 2843,
      "Ġ/*": 2844,
      "Ġcorre": 2845,
      "Ġ($": 2846,
      "Config": 2847,
      "ĠArt": 2848,
      "Ġ);": 2849,
      "ibility": 2850,
      "Ġpract": 2851,
      "input": 2852,
      "Ġrequire": 2853,
      "Ġdat": 2854,
      "ĠCollege": 2855,
      "ks": 2856,
      "ĠComp": 2857,
      "Ġlocated": 2858,
      "Ġindic": 2859,
      "ĠSer": 2860,
      "Ġbreak": 2861,
      "Index": 2862,
      "American": 2863,
      "eople": 2864,
      "ection": 2865,
      "body": 2866,
      "Ġbecome": 2867,
      "earch": 2868,
      "Ġbuilt": 2869,
      "Ġmot": 2870,
      "ration": 2871,
      "ymmet": 2872,
      "ession": 2873,
      "abor": 2874,
      "config": 2875,
      "66": 2876,
      "ĠJapan": 2877,
      "na": 2878,
      "langle": 2879,
      "Ġarray": 2880,
      "Ġparameters": 2881,
      "ĠSystem": 2882,
      "Ġincluded": 2883,
      "rest": 2884,
      "ponent": 2885,
      "umb": 2886,
      "etic": 2887,
      "ĠDep": 2888,
      "Ġfund": 2889,
      "55": 2890,
      "Ġsequ": 2891,
      "agement": 2892,
      "Ġsuff": 2893,
      "Ġcommunity": 2894,
      "ottom": 2895,
      "If": 2896,
      "Ġred": 2897,
      "ĠChar": 2898,
      "df": 2899,
      "api": 2900,
      "Ġindividual": 2901,
      "anch": 2902,
      "Ġcou": 2903,
      "tra": 2904,
      "Ġcode": 2905,
      "Ġcoll": 2906,
      "Ġpotential": 2907,
      "ldots": 2908,
      "iet": 2909,
      "ĠHouse": 2910,
      "appa": 2911,
      "ĠLondon": 2912,
      "istrict": 2913,
      "ĠDav": 2914,
      "Result": 2915,
      "Ġarr": 2916,
      "Ġinfl": 2917,
      "Ġwater": 2918,
      "ĠĠĠĠĠĠĠĠĠĠĠĠĠĠĠĠĠĠĠĠĠĠĠĠĠĠĠ": 2919,
      "Ġ(!": 2920,
      "Ġant": 2921,
      "Service": 2922,
      "nection": 2923,
      ",\"": 2924,
      "Ġsy": 2925,
      "ags": 2926,
      "2003": 2927,
      "Ġemploy": 2928,
      "MP": 2929,
      "Ġapproxim": 2930,
      "ensuremath": 2931,
      "ĠChe": 2932,
      "Ġdefault": 2933,
      "Array": 2934,
      "UR": 2935,
      "true": 2936,
      "From": 2937,
      "Ġdevelopment": 2938,
      "Ġcult": 2939,
      "Ġimage": 2940,
      "Ġclub": 2941,
      "Ġcomplex": 2942,
      "Ġhuman": 2943,
      "01": 2944,
      "ĠAm": 2945,
      "Ġinstance": 2946,
      "ending": 2947,
      "gress": 2948,
      "Lambda": 2949,
      "Ġcirc": 2950,
      "Ġgames": 2951,
      "asc": 2952,
      "ached": 2953,
      "arried": 2954,
      "Ġvarious": 2955,
      "ĠGl": 2956,
      "ĠOne": 2957,
      "Ġlength": 2958,
      "utions": 2959,
      "Ġconsidered": 2960,
      "Ġattack": 2961,
      ".\\": 2962,
      "####": 2963,
      "ocr": 2964,
      "Ġbuilding": 2965,
      "ĠSch": 2966,
      "Ġsocial": 2967,
      "Ġcentury": 2968,
      "version": 2969,
      "ford": 2970,
      "ender": 2971,
      "Ġ});": 2972,
      "imens": 2973,
      "ociety": 2974,
      "ĠWilliam": 2975,
      "Is": 2976,
      "Ġair": 2977,
      "Ġstation": 2978,
      "Ġcost": 2979,
      "void": 2980,
      "ĠAir": 2981,
      "Ġevents": 2982,
      "cy": 2983,
      "Ġtrad": 2984,
      "ĠPark": 2985,
      "Ġlimit": 2986,
      "ĠThen": 2987,
      "estern": 2988,
      "Ġvill": 2989,
      "Ġprim": 2990,
      "ught": 2991,
      "Ġconn": 2992,
      "Ġwritten": 2993,
      "Trans": 2994,
      "Ġdiff": 2995,
      "Ġput": 2996,
      "Ġfocus": 2997,
      "Ġlight": 2998,
      "circ": 2999,
      "Ġstory": 3000,
      "Ġconfig": 3001,
      "ĠAg": 3002,
      "ĠWhen": 3003,
      "44": 3004,
      "Ġsignificant": 3005,
      "Ġ()": 3006,
      "Fl": 3007,
      "Ġhaving": 3008,
      "Ġaccount": 3009,
      "word": 3010,
      "Ġnever": 3011,
      "Ġq": 3012,
      "most": 3013,
      "Ġalign": 3014,
      "Ġ},": 3015,
      "Ġprovide": 3016,
      "Ġeconom": 3017,
      "ĠHigh": 3018,
      "2021": 3019,
      "ĠOff": 3020,
      "2001": 3021,
      "Ġserved": 3022,
      "asing": 3023,
      "textit": 3024,
      "Comm": 3025,
      "Ġhost": 3026,
      "bor": 3027,
      "Ġgraph": 3028,
      "ĠSo": 3029,
      "ĠMon": 3030,
      "Ġsent": 3031,
      "ournal": 3032,
      "LO": 3033,
      "ship": 3034,
      "Ġsepar": 3035,
      "Ġaddress": 3036,
      "Ġfunctions": 3037,
      "Ġcell": 3038,
      "lang": 3039,
      "citep": 3040,
      "Ġimplement": 3041,
      "Ġeither": 3042,
      "Ġmagn": 3043,
      "Ġyoung": 3044,
      "era": 3045,
      "Ġtraining": 3046,
      "ĠSec": 3047,
      "ĠList": 3048,
      "unic": 3049,
      "ED": 3050,
      "itted": 3051,
      "Ġbackground": 3052,
      "ĠQu": 3053,
      "ĠAng": 3054,
      "ĠÐ": 3055,
      "ĠBro": 3056,
      "ĠCour": 3057,
      "UT": 3058,
      "Ġindex": 3059,
      "Ġcases": 3060,
      "Ġsatisf": 3061,
      "si": 3062,
      "Ġhowever": 3063,
      "ĠâĢĺ": 3064,
      "ĠInternational": 3065,
      "ken": 3066,
      "atural": 3067,
      "Ġplan": 3068,
      "Ġresponse": 3069,
      "Ġcreated": 3070,
      "ring": 3071,
      "ĠHer": 3072,
      "kappa": 3073,
      "object": 3074,
      "block": 3075,
      "Phi": 3076,
      "plate": 3077,
      "ĠFrench": 3078,
      "Ġ-->": 3079,
      "pen": 3080,
      "95": 3081,
      "md": 3082,
      "gether": 3083,
      "title": 3084,
      "ama": 3085,
      "Ġlabel": 3086,
      "Ġtogether": 3087,
      "ĠPer": 3088,
      "Build": 3089,
      "Ġparameter": 3090,
      "exp": 3091,
      "arning": 3092,
      "abled": 3093,
      "Ġhealth": 3094,
      "Ġkill": 3095,
      "ecess": 3096,
      "Ġcompos": 3097,
      "Pr": 3098,
      "apache": 3099,
      "ĠPresident": 3100,
      "mark": 3101,
      "++": 3102,
      "ements": 3103,
      "ministr": 3104,
      "Ġpaper": 3105,
      "AB": 3106,
      "Ġgrow": 3107,
      "ĠHar": 3108,
      "2002": 3109,
      "';": 3110,
      "05": 3111,
      "Ġmeans": 3112,
      "abla": 3113,
      "Ġworks": 3114,
      "Ġgen": 3115,
      "Ġcommand": 3116,
      "IG": 3117,
      "nown": 3118,
      "Ġtheory": 3119,
      "ference": 3120,
      "Ġapproach": 3121,
      "Rec": 3122,
      "wide": 3123,
      "Ġvert": 3124,
      "Loc": 3125,
      "Ġneg": 3126,
      "Ġrequired": 3127,
      "Ġcolor": 3128,
      "yl": 3129,
      "Ġseen": 3130,
      "Ġpo": 3131,
      "subset": 3132,
      "****************": 3133,
      "Att": 3134,
      "Ġalready": 3135,
      "ivil": 3136,
      "eturn": 3137,
      "78": 3138,
      "uit": 3139,
      "yd": 3140,
      "Ġpolitical": 3141,
      "Size": 3142,
      "Ġobtained": 3143,
      "Ġlower": 3144,
      "ĠLet": 3145,
      "nabla": 3146,
      "ES": 3147,
      "Ġsom": 3148,
      "irt": 3149,
      "isc": 3150,
      "chiev": 3151,
      "Ġdocument": 3152,
      "Ġannoun": 3153,
      "\"\"": 3154,
      "Ġsystems": 3155,
      "Ġborn": 3156,
      "oud": 3157,
      "Ġconc": 3158,
      "Ġrate": 3159,
      "Code": 3160,
      "ĠLa": 3161,
      "Ġbetter": 3162,
      "[]": 3163,
      "call": 3164,
      "Ġalways": 3165,
      "uggest": 3166,
      "Ġdest": 3167,
      "Ġdistr": 3168,
      "Ġstudents": 3169,
      "}),": 3170,
      "eed": 3171,
      "Ġcross": 3172,
      "Ġ__": 3173,
      "MA": 3174,
      "bt": 3175,
      "Ġexpected": 3176,
      "aves": 3177,
      "cle": 3178,
      "Ġcame": 3179,
      "iforn": 3180,
      "Ð°": 3181,
      "Ġacross": 3182,
      "CH": 3183,
      "Fr": 3184,
      "next": 3185,
      "Ġsite": 3186,
      "ĠWith": 3187,
      "Ġgroups": 3188,
      "ET": 3189,
      "Ġgoing": 3190,
      "Ġaddition": 3191,
      "Hand": 3192,
      "aps": 3193,
      "Ġaverage": 3194,
      "Ġparent": 3195,
      "Ġmatrix": 3196,
      "Ġinternational": 3197,
      "})$": 3198,
      "Of": 3199,
      "Ġplayer": 3200,
      "ged": 3201,
      "Ġanalysis": 3202,
      "Ġabs": 3203,
      "mbox": 3204,
      "Ġfar": 3205,
      "And": 3206,
      "Ġblack": 3207,
      "lying": 3208,
      "ifornia": 3209,
      "define": 3210,
      "Ġtoo": 3211,
      "ĠSw": 3212,
      "\\%": 3213,
      "ML": 3214,
      "Ġsolution": 3215,
      "otimes": 3216,
      "ceed": 3217,
      "Ġfeatures": 3218,
      "Ã³": 3219,
      "ĠPhil": 3220,
      "assert": 3221,
      "Ġhapp": 3222,
      "Ġmom": 3223,
      "ĠAmerica": 3224,
      "ĠIr": 3225,
      "ĠGerman": 3226,
      "hib": 3227,
      "Ġfri": 3228,
      "Ġconsist": 3229,
      "iation": 3230,
      "Ġtw": 3231,
      "ĠDistrict": 3232,
      "cit": 3233,
      "aly": 3234,
      "Ġtask": 3235,
      "Ġ``": 3236,
      "Ad": 3237,
      "\\|": 3238,
      "Ð¾": 3239,
      "Ġworking": 3240,
      "iven": 3241,
      "CC": 3242,
      "Ġbi": 3243,
      "iddle": 3244,
      "aries": 3245,
      "dots": 3246,
      "attle": 3247,
      "Ġsem": 3248,
      "ync": 3249,
      "ociation": 3250,
      "Ġmight": 3251,
      "Ġprovided": 3252,
      "que": 3253,
      "escription": 3254,
      "Ġconditions": 3255,
      "Ġdays": 3256,
      "Ġge": 3257,
      "Ġtelev": 3258,
      "II": 3259,
      "ining": 3260,
      "artment": 3261,
      "ilities": 3262,
      "Ġable": 3263,
      "Ġconstant": 3264,
      "UN": 3265,
      "Ġhom": 3266,
      "Ġhigher": 3267,
      "Ġsett": 3268,
      "pan": 3269,
      "Ġhistor": 3270,
      "88": 3271,
      "Ġdistrict": 3272,
      "duc": 3273,
      "Ġmer": 3274,
      "create": 3275,
      "Ġperm": 3276,
      "Ġhard": 3277,
      "Ġpair": 3278,
      "Ġsm": 3279,
      "avy": 3280,
      "ĠMich": 3281,
      "Ser": 3282,
      "ĉĊ": 3283,
      "Ġdensity": 3284,
      "Ġlik": 3285,
      "Message": 3286,
      "49": 3287,
      "oon": 3288,
      "Ġstandard": 3289,
      "Ġbeliev": 3290,
      "eh": 3291,
      "itect": 3292,
      "Ġmethods": 3293,
      "itte": 3294,
      "Ġconv": 3295,
      "ĠRev": 3296,
      "inn": 3297,
      "orge": 3298,
      "ply": 3299,
      "Ġspecies": 3300,
      "refer": 3301,
      "Ġreview": 3302,
      "useum": 3303,
      "Ġservices": 3304,
      "Ġbody": 3305,
      "plied": 3306,
      "based": 3307,
      "Item": 3308,
      "cap": 3309,
      "uel": 3310,
      "Ġnov": 3311,
      "ĠĠĠĠĠĠĠĠĠĠ": 3312,
      "Val": 3313,
      "ula": 3314,
      "Ġear": 3315,
      "Ġstarted": 3316,
      "Ġindust": 3317,
      "Ġmaking": 3318,
      "Ġled": 3319,
      "Ġwhether": 3320,
      "Ġoutput": 3321,
      "Ġdied": 3322,
      "cell": 3323,
      "Ġloss": 3324,
      "ING": 3325,
      "76": 3326,
      "Ġbelow": 3327,
      "oted": 3328,
      "Ġdep": 3329,
      "Ġsuggest": 3330,
      "Inter": 3331,
      "Ġcondition": 3332,
      "Ġconstruct": 3333,
      "medi": 3334,
      "ĠCalifornia": 3335,
      "check": 3336,
      "Ġpay": 3337,
      "Ġtaken": 3338,
      "Ġassociated": 3339,
      "Ġtelevision": 3340,
      "US": 3341,
      "avel": 3342,
      "ĠĠĠĠĠĠĠĠĠĠĠĠ": 3343,
      "iding": 3344,
      "wise": 3345,
      "bra": 3346,
      "rad": 3347,
      "Ġachiev": 3348,
      "ordin": 3349,
      "model": 3350,
      "ls": 3351,
      "ico": 3352,
      "foot": 3353,
      "ibrary": 3354,
      "Ġtre": 3355,
      "Ġproduction": 3356,
      "lt": 3357,
      "~~": 3358,
      "nonumber": 3359,
      "Ġwidth": 3360,
      "Ġsurv": 3361,
      "Ġmeet": 3362,
      "Ġclose": 3363,
      "Ġcertain": 3364,
      "Ġhalf": 3365,
      "och": 3366,
      "Ġcaus": 3367,
      "iance": 3368,
      "////////": 3369,
      "ĠSan": 3370,
      "}}{": 3371,
      "ishing": 3372,
      "Ġrespectively": 3373,
      "='": 3374,
      "Ġgive": 3375,
      "Ġofficial": 3376,
      "Out": 3377,
      "Ġbegin": 3378,
      "ĠIndian": 3379,
      "Ġindependent": 3380,
      "java": 3381,
      "Ap": 3382,
      "Ġscal": 3383,
      "Ġwent": 3384,
      "Ġjava": 3385,
      "gt": 3386,
      "Ġcorresponding": 3387,
      "ĠCr": 3388,
      "Ġactiv": 3389,
      "uster": 3390,
      "irm": 3391,
      "Sigma": 3392,
      "Ġlanguage": 3393,
      "ĠRepublic": 3394,
      "Ġson": 3395,
      "ership": 3396,
      "oop": 3397,
      "=\"../../../../": 3398,
      "ĠAc": 3399,
      "default": 3400,
      "Ġbecom": 3401,
      "\\[": 3402,
      "info": 3403,
      "Ġfuture": 3404,
      "igation": 3405,
      "burg": 3406,
      "Ġtable": 3407,
      "Ġra": 3408,
      "Reg": 3409,
      "ĠChampionship": 3410,
      "tes": 3411,
      "System": 3412,
      "Ġmiss": 3413,
      "content": 3414,
      "Ġvia": 3415,
      "ara": 3416,
      "Ġnorth": 3417,
      "/\\": 3418,
      "ĠEngland": 3419,
      "ÃŃ": 3420,
      "Ġground": 3421,
      "Ġfrequ": 3422,
      "year": 3423,
      "olic": 3424,
      "icro": 3425,
      "77": 3426,
      "ersion": 3427,
      "android": 3428,
      "rec": 3429,
      "Ġround": 3430,
      "ategory": 3431,
      "Ġcome": 3432,
      "book": 3433,
      "Model": 3434,
      "Ðµ": 3435,
      "Log": 3436,
      "Ġvideo": 3437,
      "imate": 3438,
      "Ġproperties": 3439,
      "Ġthus": 3440,
      "Ġben": 3441,
      "ework": 3442,
      "Ġelements": 3443,
      "ĠCont": 3444,
      "ĠVal": 3445,
      "BC": 3446,
      "{-": 3447,
      "ĠGet": 3448,
      "irection": 3449,
      "ael": 3450,
      "roller": 3451,
      "Ġcalcul": 3452,
      "lymp": 3453,
      "1999": 3454,
      "Ġsche": 3455,
      "Ġlate": 3456,
      "ULL": 3457,
      "Ġothers": 3458,
      "Ġes": 3459,
      "ands": 3460,
      "ifier": 3461,
      "centering": 3462,
      "known": 3463,
      "ĠChurch": 3464,
      "Ġparticip": 3465,
      "Ġnormal": 3466,
      "Ġregular": 3467,
      "widet": 3468,
      "Ġmaterial": 3469,
      "base": 3470,
      "men": 3471,
      "Up": 3472,
      "gen": 3473,
      "mar": 3474,
      "oyal": 3475,
      "mit": 3476,
      "Ġill": 3477,
      "Color": 3478,
      "hood": 3479,
      "izing": 3480,
      "valid": 3481,
      "Ġengine": 3482,
      "omb": 3483,
      "lient": 3484,
      "utes": 3485,
      "start": 3486,
      "ĠEast": 3487,
      "witch": 3488,
      "OT": 3489,
      "ponse": 3490,
      "Ġreason": 3491,
      "ĠDef": 3492,
      "lections": 3493,
      "Ġequation": 3494,
      "IR": 3495,
      "Ġsubject": 3496,
      "Ġpur": 3497,
      "But": 3498,
      "hand": 3499,
      "Ġproduced": 3500,
      "Ġviol": 3501,
      "oke": 3502,
      "ĠCourt": 3503,
      "Ã¼": 3504,
      "ĠÂ": 3505,
      "Ġnumer": 3506,
      "Ġnum": 3507,
      "Ġ===": 3508,
      "isk": 3509,
      "ires": 3510,
      "ades": 3511,
      "ĠCup": 3512,
      "Ġoffer": 3513,
      "Ġvalid": 3514,
      "ĠDiv": 3515,
      "Ġfather": 3516,
      "--------------------------------": 3517,
      "Ġdone": 3518,
      "Ġthough": 3519,
      "SP": 3520,
      "ĠThat": 3521,
      "Ġlines": 3522,
      "ĠTrans": 3523,
      "Ġborder": 3524,
      "lands": 3525,
      "Ġemb": 3526,
      "andid": 3527,
      "46": 3528,
      "1990": 3529,
      "Ġbroad": 3530,
      "using": 3531,
      "ptions": 3532,
      "Table": 3533,
      "atives": 3534,
      "ĠNe": 3535,
      "Ġpast": 3536,
      "Ġsrc": 3537,
      "chan": 3538,
      "Ġrandom": 3539,
      "OD": 3540,
      "Ġpresident": 3541,
      "Ġbig": 3542,
      "prot": 3543,
      "widetilde": 3544,
      "tainer": 3545,
      "ĠRiver": 3546,
      "Ġattempt": 3547,
      "ises": 3548,
      "IP": 3549,
      "âĢ¦": 3550,
      "acing": 3551,
      "plies": 3552,
      "ips": 3553,
      "Ġdecl": 3554,
      "ĉĉĉĉĉĉ": 3555,
      "Ġonce": 3556,
      "Manager": 3557,
      "oken": 3558,
      "print": 3559,
      "ĠFirst": 3560,
      "ĠSim": 3561,
      "Ġmessage": 3562,
      "include": 3563,
      "Group": 3564,
      "ills": 3565,
      "augh": 3566,
      "Ġphase": 3567,
      "Ġexpress": 3568,
      "ĠBer": 3569,
      "Ass": 3570,
      "small": 3571,
      ">&": 3572,
      "Ġvector": 3573,
      "Ġ};": 3574,
      "Ġstep": 3575,
      "Ġcy": 3576,
      "aring": 3577,
      "47": 3578,
      "light": 3579,
      "ĠSet": 3580,
      "css": 3581,
      "Ġnil": 3582,
      "ĠIm": 3583,
      "Ġreally": 3584,
      "Ġbehav": 3585,
      "Ġpress": 3586,
      "TD": 3587,
      "Fig": 3588,
      "Ġrelated": 3589,
      "Ġpositive": 3590,
      "Ġsold": 3591,
      "ĠLaw": 3592,
      "98": 3593,
      "NA": 3594,
      "Ġmilitary": 3595,
      "=\"#": 3596,
      "thm": 3597,
      "bsite": 3598,
      "Ġaway": 3599,
      "Ġclear": 3600,
      "ĠCouncil": 3601,
      "context": 3602,
      "ĠEuropean": 3603,
      "count": 3604,
      "tabular": 3605,
      "Ġmoved": 3606,
      "ccording": 3607,
      "ney": 3608,
      "yr": 3609,
      "ĠParty": 3610,
      "oe": 3611,
      "ĠIndia": 3612,
      "ĠStud": 3613,
      "ha": 3614,
      "ĠÃ": 3615,
      "Ġreturned": 3616,
      "MS": 3617,
      "Ġglobal": 3618,
      "ĠAustralia": 3619,
      "08": 3620,
      "Ġsouth": 3621,
      "ĠSection": 3622,
      "prop": 3623,
      "96": 3624,
      "Ġcontinu": 3625,
      "Ġtemper": 3626,
      "User": 3627,
      "rup": 3628,
      "Ġaccording": 3629,
      "188": 3630,
      "ĠSen": 3631,
      "Ġnecess": 3632,
      "pty": 3633,
      "Ġliter": 3634,
      "ulations": 3635,
      "stitute": 3636,
      "Ġproof": 3637,
      "ĠDem": 3638,
      "istry": 3639,
      "Ġrecogn": 3640,
      "aches": 3641,
      "After": 3642,
      "ething": 3643,
      "){": 3644,
      "ĠMod": 3645,
      "ittee": 3646,
      "Ġrights": 3647,
      "Ġmedia": 3648,
      "roy": 3649,
      "Ġreported": 3650,
      "Ġang": 3651,
      "Ġdegree": 3652,
      "Ġfig": 3653,
      "ĠPal": 3654,
      "ashington": 3655,
      "argin": 3656,
      "=\"../": 3657,
      "Ġinflu": 3658,
      "Ġgot": 3659,
      "Ġproposed": 3660,
      "method": 3661,
      "ĠSince": 3662,
      "under": 3663,
      "}-": 3664,
      "ĠGeneral": 3665,
      "thing": 3666,
      "which": 3667,
      "Ġask": 3668,
      "Ġmarket": 3669,
      "change": 3670,
      "ns": 3671,
      "build": 3672,
      "ederal": 3673,
      "net": 3674,
      "Ed": 3675,
      "OS": 3676,
      "dev": 3677,
      "Ġwhose": 3678,
      "ĠRed": 3679,
      "mon": 3680,
      "ributed": 3681,
      "Ġspecific": 3682,
      "Call": 3683,
      "Ġinstead": 3684,
      "Ġcontains": 3685,
      "ĠCanada": 3686,
      "xy": 3687,
      "aign": 3688,
      ")]": 3689,
      "icles": 3690,
      "istics": 3691,
      "Ġdynam": 3692,
      "doc": 3693,
      "web": 3694,
      "Ġoptions": 3695,
      "inated": 3696,
      "Ġworked": 3697,
      "Sub": 3698,
      "Ġrespons": 3699,
      "aker": 3700,
      "ĠMore": 3701,
      "ĠLem": 3702,
      "static": 3703,
      "Ġvillage": 3704,
      "google": 3705,
      "bug": 3706,
      "Ġstar": 3707,
      "ota": 3708,
      "Ġunderstand": 3709,
      "fill": 3710,
      "TH": 3711,
      "ĠInt": 3712,
      "sing": 3713,
      "Ġlinear": 3714,
      "Ġeducation": 3715,
      "Ġfem": 3716,
      "ĠCenter": 3717,
      "1998": 3718,
      "ĠPort": 3719,
      "ellow": 3720,
      "ensor": 3721,
      "Ġcompan": 3722,
      "Ġrather": 3723,
      "ids": 3724,
      "Comp": 3725,
      "Ġtreat": 3726,
      "Ġaward": 3727,
      "atal": 3728,
      "Ġenvironment": 3729,
      "\\]": 3730,
      "aging": 3731,
      "ened": 3732,
      "Property": 3733,
      "atrix": 3734,
      "ĠAward": 3735,
      "package": 3736,
      "sin": 3737,
      "rote": 3738,
      "ĠPaul": 3739,
      "board": 3740,
      "atory": 3741,
      "bb": 3742,
      "Ġunit": 3743,
      "02": 3744,
      "Bar": 3745,
      "CE": 3746,
      "Ġpopular": 3747,
      "Ġadditional": 3748,
      "ĠHam": 3749,
      "42": 3750,
      "Ġexists": 3751,
      "verse": 3752,
      "Ġcle": 3753,
      "Ġlittle": 3754,
      "Ġcontr": 3755,
      "elling": 3756,
      "ĠFil": 3757,
      "Ġjob": 3758,
      "ĠDepartment": 3759,
      "ĠMark": 3760,
      "Ġpage": 3761,
      "Ġentire": 3762,
      "FA": 3763,
      "Ġrank": 3764,
      "Ġmulti": 3765,
      "Ġareas": 3766,
      "sembly": 3767,
      "There": 3768,
      "reate": 3769,
      "urity": 3770,
      "Ġparty": 3771,
      "Ġaccept": 3772,
      "Ġlive": 3773,
      "2022": 3774,
      "Ġalgorithm": 3775,
      "Ð¸": 3776,
      "ĠRober": 3777,
      "Ġcannot": 3778,
      "parent": 3779,
      "dr": 3780,
      "Ġadded": 3781,
      "cos": 3782,
      "History": 3783,
      ".)": 3784,
      "gs": 3785,
      "Ġfields": 3786,
      "End": 3787,
      "Ġelection": 3788,
      "Ġcolumn": 3789,
      "\\{": 3790,
      "like": 3791,
      "ĠEm": 3792,
      "pol": 3793,
      "ping": 3794,
      "No": 3795,
      ";&": 3796,
      "Ġsuccessful": 3797,
      "ĠSm": 3798,
      "Ġdefine": 3799,
      "06": 3800,
      "((": 3801,
      "EE": 3802,
      "ched": 3803,
      "Ġmove": 3804,
      "display": 3805,
      "ENT": 3806,
      "ulated": 3807,
      "04": 3808,
      "Ġenough": 3809,
      "Ġhon": 3810,
      "Ġannounced": 3811,
      "Ġsays": 3812,
      "}+": 3813,
      "atform": 3814,
      "image": 3815,
      "namespace": 3816,
      "iers": 3817,
      "scale": 3818,
      "ĠStr": 3819,
      "ĠBel": 3820,
      "igen": 3821,
      "Ġsimple": 3822,
      "ithub": 3823,
      "ĠEq": 3824,
      "Ġ&=": 3825,
      "ĠAnt": 3826,
      "Ġrev": 3827,
      "Ġkind": 3828,
      "omorph": 3829,
      "IL": 3830,
      "oo": 3831,
      "zeta": 3832,
      "icted": 3833,
      "current": 3834,
      "ĠFrance": 3835,
      "Ġconduct": 3836,
      "Ġmoment": 3837,
      "db": 3838,
      "](": 3839,
      "used": 3840,
      "ĠFrom": 3841,
      "ĠMal": 3842,
      "Ġbool": 3843,
      "otes": 3844,
      "ĠJames": 3845,
      "unk": 3846,
      "People": 3847,
      "Ġwrite": 3848,
      "icult": 3849,
      "ĠChina": 3850,
      "option": 3851,
      "ites": 3852,
      "ĠMor": 3853,
      "spec": 3854,
      "false": 3855,
      "ĠMy": 3856,
      "uz": 3857,
      "ĠThom": 3858,
      "================": 3859,
      "ĠArmy": 3860,
      "ĠDavid": 3861,
      "Override": 3862,
      "prime": 3863,
      "Ġdeveloped": 3864,
      "level": 3865,
      "cho": 3866,
      "Ġamount": 3867,
      "Ġcenter": 3868,
      "Ġchanges": 3869,
      "ĠDes": 3870,
      "astic": 3871,
      "event": 3872,
      "Count": 3873,
      "Ġeval": 3874,
      "icense": 3875,
      "ĠTheorem": 3876,
      "quare": 3877,
      "Ġestablish": 3878,
      "Ġmultiple": 3879,
      "init": 3880,
      "Ġscale": 3881,
      "ago": 3882,
      ")=\\": 3883,
      "ĠHol": 3884,
      "ĠInter": 3885,
      "Ġalmost": 3886,
      "1996": 3887,
      "orthern": 3888,
      "}]": 3889,
      "Response": 3890,
      "core": 3891,
      "berg": 3892,
      "1997": 3893,
      "Ġquestion": 3894,
      "97": 3895,
      "}=\\": 3896,
      "Ġneigh": 3897,
      "Ġcourse": 3898,
      "actory": 3899,
      ";</": 3900,
      "Ġprior": 3901,
      "unity": 3902,
      "ĠClass": 3903,
      "rael": 3904,
      "Ġleading": 3905,
      "det": 3906,
      "encies": 3907,
      "ĠPat": 3908,
      "Ġkeep": 3909,
      "Ġnatural": 3910,
      "Ġpolicy": 3911,
      "actions": 3912,
      "Ġhttp": 3913,
      "GL": 3914,
      "efore": 3915,
      "Wh": 3916,
      "Read": 3917,
      "}_\\": 3918,
      "1980": 3919,
      "plicit": 3920,
      "Ġlearning": 3921,
      "ville": 3922,
      "tem": 3923,
      "ĠGeorge": 3924,
      ",-": 3925,
      "Method": 3926,
      "||": 3927,
      "Client": 3928,
      "Ġcapt": 3929,
      "Living": 3930,
      "unn": 3931,
      "03": 3932,
      "Ġoccur": 3933,
      "Ġthings": 3934,
      "ĠStreet": 3935,
      "ĠAdd": 3936,
      "ĠRich": 3937,
      "active": 3938,
      "Ġlearn": 3939,
      "Ġappoint": 3940,
      "Ġmale": 3941,
      "ledge": 3942,
      "07": 3943,
      "{(": 3944,
      "Ġconstruction": 3945,
      "github": 3946,
      "more": 3947,
      "Ġcontract": 3948,
      "Ġprinc": 3949,
      "ĠAssociation": 3950,
      "height": 3951,
      "Ġdisplay": 3952,
      "ĠWashington": 3953,
      "Ġrelease": 3954,
      "Ġfall": 3955,
      "iles": 3956,
      "ores": 3957,
      "58": 3958,
      "van": 3959,
      "skip": 3960,
      "Ġcut": 3961,
      "NS": 3962,
      "Ġlarger": 3963,
      "ensive": 3964,
      "ya": 3965,
      "PI": 3966,
      ")}\\": 3967,
      "Ġdate": 3968,
      "ĠGroup": 3969,
      "Ġsearch": 3970,
      "Ġzero": 3971,
      "Ġwrote": 3972,
      "Ġincludes": 3973,
      "imensional": 3974,
      "Ġfinite": 3975,
      "\\\\\\\\\\\\\\\\": 3976,
      "aching": 3977,
      "ĠDo": 3978,
      "ming": 3979,
      "ĠĠĠĠĠĠĠĠĠĠĠĠĠĠĠĠĠĠĠĠĠĠĠĠĠĠĠĠĠĠĠ": 3980,
      "Ġaud": 3981,
      "ipal": 3982,
      "Ġcomplete": 3983,
      "ging": 3984,
      "Ġsomething": 3985,
      "asons": 3986,
      "ĠDon": 3987,
      "agon": 3988,
      "itting": 3989,
      "OP": 3990,
      "Ġstd": 3991,
      "edd": 3992,
      "56": 3993,
      "itar": 3994,
      "ida": 3995,
      "Ġsurface": 3996,
      "Ġfactor": 3997,
      "Ġcentral": 3998,
      "ĠQue": 3999,
      "outhern": 4000,
      "Ġoperator": 4001,
      "Ġrat": 4002,
      "han": 4003,
      "Ġregard": 4004,
      "ctor": 4005,
      "apping": 4006,
      "Ġexact": 4007,
      "eline": 4008,
      "Query": 4009,
      "Ġdirector": 4010,
      "Pol": 4011,
      "iform": 4012,
      "500": 4013,
      "Ġperformed": 4014,
      "ĠRoman": 4015,
      "rian": 4016,
      "ĠGo": 4017,
      "Ġepis": 4018,
      "undle": 4019,
      "pdf": 4020,
      "Ġsymmet": 4021,
      "Ġsw": 4022,
      "Ge": 4023,
      "Ġcandid": 4024,
      "Ġtax": 4025,
      "riter": 4026,
      "ributions": 4027,
      "ario": 4028,
      "........": 4029,
      "mail": 4030,
      "}^\\": 4031,
      "Image": 4032,
      "Ġlost": 4033,
      "arily": 4034,
      "Ġdistance": 4035,
      "has": 4036,
      "ename": 4037,
      "ĠGod": 4038,
      "Ġdeaths": 4039,
      "aur": 4040,
      "rated": 4041,
      "ĠTest": 4042,
      "ĠUnion": 4043,
      "Ġsequence": 4044,
      "Ġstatus": 4045,
      "null": 4046,
      "ky": 4047,
      "Ġchall": 4048,
      "wood": 4049,
      "Be": 4050,
      "bert": 4051,
      "alax": 4052,
      "Ġjud": 4053,
      "ols": 4054,
      "ĠOlymp": 4055,
      "Ġexperiment": 4056,
      "Str": 4057,
      "izes": 4058,
      "ili": 4059,
      "Ġarchitect": 4060,
      "Ġobserved": 4061,
      "riate": 4062,
      "band": 4063,
      "textwidth": 4064,
      "Off": 4065,
      "oz": 4066,
      "09": 4067,
      "$)": 4068,
      "run": 4069,
      "ein": 4070,
      "Date": 4071,
      "Ġdeal": 4072,
      "Builder": 4073,
      "rum": 4074,
      "Ġpercent": 4075,
      "lemma": 4076,
      "Ġupon": 4077,
      "ria": 4078,
      "Ġtaking": 4079,
      "ĠMr": 4080,
      "Ġir": 4081,
      "ĠHall": 4082,
      "func": 4083,
      "ka": 4084,
      "Ġandroid": 4085,
      "Ġequival": 4086,
      "Ġfixed": 4087,
      "1995": 4088,
      "Ġmid": 4089,
      "anced": 4090,
      "page": 4091,
      "Ġexecut": 4092,
      "ĠRef": 4093,
      "Ġoffice": 4094,
      "ĠNot": 4095,
      "case": 4096,
      "Ġrelationship": 4097,
      "Ġpers": 4098,
      "Ġmag": 4099,
      "Ġcourt": 4100,
      ")^{": 4101,
      "Ġsoft": 4102,
      "ĠSum": 4103,
      "Ġstop": 4104,
      "Ġcustom": 4105,
      "ander": 4106,
      "cup": 4107,
      "Ġvict": 4108,
      "Ġtransform": 4109,
      "Ġitself": 4110,
      "pite": 4111,
      "Ġroad": 4112,
      ">(": 4113,
      "Ġcontain": 4114,
      "eal": 4115,
      "dl": 4116,
      "Ġforce": 4117,
      "Ġthrow": 4118,
      "Ġmakes": 4119,
      "ĠBlack": 4120,
      "RA": 4121,
      "Ġsound": 4122,
      "Ġthought": 4123,
      "oom": 4124,
      "Ġmonths": 4125,
      "41": 4126,
      "pc": 4127,
      "Ġcompanies": 4128,
      "Ġfail": 4129,
      "Ġhor": 4130,
      ";\\": 4131,
      "gebra": 4132,
      "lor": 4133,
      "Ġchurch": 4134,
      "Ġimprov": 4135,
      "Ġten": 4136,
      "Ġadministr": 4137,
      "acity": 4138,
      "Sup": 4139,
      "Ġremov": 4140,
      "Ġstage": 4141,
      "Ġprint": 4142,
      "hel": 4143,
      "Ġcountries": 4144,
      "Ġ\\{": 4145,
      "Ġjoined": 4146,
      "abase": 4147,
      "Ġissue": 4148,
      "Ġdouble": 4149,
      "cing": 4150,
      "mathsf": 4151,
      "Ġsets": 4152,
      "itude": 4153,
      "xspace": 4154,
      "alle": 4155,
      "EX": 4156,
      "ĠInstitute": 4157,
      "<!--": 4158,
      "Ġissues": 4159,
      "raz": 4160,
      "anel": 4161,
      "jo": 4162,
      "Ã¶": 4163,
      "izer": 4164,
      "ully": 4165,
      "Ġdiscover": 4166,
      "ĠGermany": 4167,
      "ett": 4168,
      "Exp": 4169,
      "icol": 4170,
      "php": 4171,
      "Ġshall": 4172,
      "][": 4173,
      "anish": 4174,
      "0000": 4175,
      "ĠĠĠĠĠĠĠĠĠĠĠĠĠĠĠĠĠ": 4176,
      "Ġactive": 4177,
      "68": 4178,
      "43": 4179,
      "isions": 4180,
      "Ġcoupl": 4181,
      "Ġbasis": 4182,
      "Stream": 4183,
      "Ġapplic": 4184,
      "ailway": 4185,
      "Ġintroduced": 4186,
      "ki": 4187,
      "cret": 4188,
      "orage": 4189,
      "ĠJer": 4190,
      "reek": 4191,
      "Ġtypes": 4192,
      "Ġheight": 4193,
      "sm": 4194,
      "Input": 4195,
      "png": 4196,
      "ĠCong": 4197,
      "Ġdifficult": 4198,
      "dir": 4199,
      "ĠUK": 4200,
      "ĠLou": 4201,
      "ĠDi": 4202,
      "Ġfront": 4203,
      "ĠNULL": 4204,
      "ĠFranc": 4205,
      "UE": 4206,
      "query": 4207,
      "Ġpolitic": 4208,
      "inst": 4209,
      "Ġinstr": 4210,
      "mid": 4211,
      "Ġeffort": 4212,
      "do": 4213,
      "Ġprovides": 4214,
      "Che": 4215,
      "ariant": 4216,
      "Ġprop": 4217,
      "cdots": 4218,
      "57": 4219,
      "Ġwebsite": 4220,
      "apter": 4221,
      "Ġinstall": 4222,
      "Ġclosed": 4223,
      "can": 4224,
      "aints": 4225,
      "ication": 4226,
      ")</": 4227,
      "Ġnovel": 4228,
      "Ġlocation": 4229,
      "Ġexperience": 4230,
      "qquad": 4231,
      "Ġtherefore": 4232,
      "ĠMary": 4233,
      "long": 4234,
      "Util": 4235,
      "}|": 4236,
      "Ġdebut": 4237,
      "Ġequal": 4238,
      "Ġlot": 4239,
      "Ð½": 4240,
      "amily": 4241,
      "Ġfav": 4242,
      "Ġflow": 4243,
      "tx": 4244,
      "1994": 4245,
      "1970": 4246,
      "den": 4247,
      "Ġproblems": 4248,
      "ĠCompany": 4249,
      "rupt": 4250,
      "Ġcollection": 4251,
      "ĠArch": 4252,
      "Ġtransfer": 4253,
      "Ġpresented": 4254,
      "ÑĤ": 4255,
      "uate": 4256,
      "Ġrelig": 4257,
      "server": 4258,
      "Ġincrease": 4259,
      "options": 4260,
      "Ġwhite": 4261,
      "One": 4262,
      "host": 4263,
      "Ġedge": 4264,
      "ĠĠĠĠĠĠĠĠĠĠĠĠĠĠ": 4265,
      "pecially": 4266,
      "ĠMart": 4267,
      "ancial": 4268,
      "ĠDirect": 4269,
      "Ġwords": 4270,
      "ooth": 4271,
      "Psi": 4272,
      "note": 4273,
      "ani": 4274,
      "ĠJew": 4275,
      "Ġeffects": 4276,
      "inally": 4277,
      "Ġprobability": 4278,
      "1992": 4279,
      "Ġtalk": 4280,
      "ris": 4281,
      "}}(": 4282,
      "cel": 4283,
      "Ġmarried": 4284,
      "ĠRoyal": 4285,
      "Ġcampaign": 4286,
      "Ġcurrently": 4287,
      "ĠDivision": 4288,
      "Ġprofessional": 4289,
      "Ġnote": 4290,
      "Ġcontinued": 4291,
      "Ġvisit": 4292,
      "EC": 4293,
      "Ġassist": 4294,
      "})\\": 4295,
      "unt": 4296,
      ".~": 4297,
      "Ġcompar": 4298,
      "Ġalthough": 4299,
      "Ġweight": 4300,
      "enced": 4301,
      "ialog": 4302,
      "SC": 4303,
      "Ġstre": 4304,
      "button": 4305,
      "Ġsample": 4306,
      "icture": 4307,
      "stream": 4308,
      "Source": 4309,
      "67": 4310,
      "Ġinvolved": 4311,
      "atively": 4312,
      "Ġmother": 4313,
      "jav": 4314,
      "Status": 4315,
      "Ġmodern": 4316,
      "Ġhimself": 4317,
      "Ġgives": 4318,
      "Ġmatter": 4319,
      "Ġqual": 4320,
      "Ġ<<": 4321,
      "acher": 4322,
      "AG": 4323,
      "bound": 4324,
      "Ġparts": 4325,
      "Ġ->": 4326,
      "Ġtoday": 4327,
      "oul": 4328,
      "ĠFigure": 4329,
      "Ġlargest": 4330,
      "child": 4331,
      "Ġgoal": 4332,
      "ees": 4333,
      "Ġdepart": 4334,
      "alian": 4335,
      "])": 4336,
      "Ġliving": 4337,
      "{{\\": 4338,
      "client": 4339,
      "request": 4340,
      "Ġsaf": 4341,
      "ĠRobert": 4342,
      "Gr": 4343,
      "Ġradio": 4344,
      "ua": 4345,
      "arter": 4346,
      "Ġstudies": 4347,
      "Ġbg": 4348,
      "Ġcomponent": 4349,
      "ĠSociety": 4350,
      "Ġinc": 4351,
      "ini": 4352,
      "Ġbox": 4353,
      "ĠIsrael": 4354,
      "abs": 4355,
      "93": 4356,
      "ĠPress": 4357,
      "51": 4358,
      "element": 4359,
      "Ġoperation": 4360,
      "Ġfram": 4361,
      "flow": 4362,
      "Act": 4363,
      "grad": 4364,
      "ĠVir": 4365,
      "appro": 4366,
      "}\\,": 4367,
      "ONT": 4368,
      "IM": 4369,
      "args": 4370,
      "Ġprec": 4371,
      "shire": 4372,
      "ĠGreen": 4373,
      "yles": 4374,
      "Ġmechan": 4375,
      "Ġrestr": 4376,
      "Head": 4377,
      "ios": 4378,
      "Ġdirectly": 4379,
      "rd": 4380,
      "Ġcontinue": 4381,
      "Ġ&\\": 4382,
      "Ġload": 4383,
      "YPE": 4384,
      "ĠCons": 4385,
      "Ġdefinition": 4386,
      "ĠMusic": 4387,
      "main": 4388,
      "Ġaccur": 4389,
      "ĠWhile": 4390,
      "icial": 4391,
      "ĠSl": 4392,
      "Ġimpact": 4393,
      "Instance": 4394,
      "How": 4395,
      "Line": 4396,
      "ĠTV": 4397,
      "First": 4398,
      "Ġapplication": 4399,
      "Ġcompleted": 4400,
      "onstr": 4401,
      "Ġdatas": 4402,
      "Pos": 4403,
      "eck": 4404,
      "ĠPe": 4405,
      "vis": 4406,
      "zer": 4407,
      "liament": 4408,
      "idden": 4409,
      "Ġopened": 4410,
      "append": 4411,
      "Ġearli": 4412,
      "inese": 4413,
      "Ġdirection": 4414,
      "place": 4415,
      "Spec": 4416,
      "Ġselected": 4417,
      "Ġholds": 4418,
      "ĠAcadem": 4419,
      "Ġrock": 4420,
      "Ġanaly": 4421,
      "Ġinj": 4422,
      "Ġwife": 4423,
      "uated": 4424,
      "finished": 4425,
      "Ġconstit": 4426,
      "OL": 4427,
      "ĠTex": 4428,
      "Ġassume": 4429,
      "elt": 4430,
      "ĠDuring": 4431,
      "Ġsex": 4432,
      "Ġeffective": 4433,
      "equiv": 4434,
      "Ġbank": 4435,
      "Ġsongs": 4436,
      "ĠMex": 4437,
      "Ġdefe": 4438,
      "Ġagre": 4439,
      "oms": 4440,
      "nes": 4441,
      "Ġdim": 4442,
      "ares": 4443,
      "Ġallowed": 4444,
      "Dis": 4445,
      "1993": 4446,
      "Ġboard": 4447,
      "Ġquantum": 4448,
      "Ġpain": 4449,
      "&=": 4450,
      "Ġbenef": 4451,
      "ĠAfrica": 4452,
      "evelop": 4453,
      "^+": 4454,
      "({": 4455,
      "adding": 4456,
      "Ġunique": 4457,
      "su": 4458,
      "first": 4459,
      "Ġthroughout": 4460,
      "Base": 4461,
      "When": 4462,
      "rief": 4463,
      "oto": 4464,
      "CD": 4465,
      "lib": 4466,
      "rey": 4467,
      "Ġlove": 4468,
      "Ġdraw": 4469,
      "Ġbrother": 4470,
      "Ġdecision": 4471,
      "ba": 4472,
      "Ġfeel": 4473,
      "ĠDemocr": 4474,
      "Ġdaugh": 4475,
      "Ġmoney": 4476,
      "uid": 4477,
      "ĠJust": 4478,
      "Ġtakes": 4479,
      "Ġcompared": 4480,
      "select": 4481,
      "iences": 4482,
      "elves": 4483,
      "fe": 4484,
      "antic": 4485,
      "ĠJack": 4486,
      "Ġfire": 4487,
      "onic": 4488,
      "Token": 4489,
      "izations": 4490,
      "Ġoutside": 4491,
      "Ġimm": 4492,
      "ĠGL": 4493,
      "Ġinstit": 4494,
      "Oper": 4495,
      "ĠAfrican": 4496,
      "Ġstri": 4497,
      "edge": 4498,
      "Ġacqu": 4499,
      "oding": 4500,
      "Ġyet": 4501,
      "ĠUp": 4502,
      "ĠChristian": 4503,
      "ĠBay": 4504,
      "Ġwhole": 4505,
      "Part": 4506,
      "ĠĠĠĠĠĠĠĠĊ": 4507,
      "Ġspin": 4508,
      "59": 4509,
      "}^{(": 4510,
      "estival": 4511,
      "Ġespecially": 4512,
      "Ġreference": 4513,
      "Ġlikely": 4514,
      "Ġwriting": 4515,
      "bottom": 4516,
      "ributes": 4517,
      "ĠMount": 4518,
      "Ġboolean": 4519,
      "Ġsupported": 4520,
      "ĠSing": 4521,
      "ÑĢ": 4522,
      "ston": 4523,
      "ĠAustralian": 4524,
      "Ġpersonal": 4525,
      "Ġgas": 4526,
      "ATE": 4527,
      "Ġbgcolor": 4528,
      "Vert": 4529,
      "pass": 4530,
      "stant": 4531,
      "anged": 4532,
      "column": 4533,
      "ilton": 4534,
      "Ġtro": 4535,
      "aud": 4536,
      "ĠCath": 4537,
      "ocol": 4538,
      "ĠLemma": 4539,
      "Ġinit": 4540,
      "ĠThus": 4541,
      "Ġschools": 4542,
      "Ġgenerated": 4543,
      "ada": 4544,
      "ds": 4545,
      "Ġevidence": 4546,
      "Ġunc": 4547,
      "ilies": 4548,
      "het": 4549,
      "target": 4550,
      "Ġdetails": 4551,
      "Ġsigned": 4552,
      "sey": 4553,
      "aine": 4554,
      "Ġword": 4555,
      "Ġuses": 4556,
      "Ġsecur": 4557,
      "widehat": 4558,
      "Ġ$(\\": 4559,
      "star": 4560,
      "ĠMet": 4561,
      "ously": 4562,
      "open": 4563,
      "Ġrace": 4564,
      "ĠSome": 4565,
      "Equal": 4566,
      "Ġitem": 4567,
      "Ġprotected": 4568,
      "Block": 4569,
      "pected": 4570,
      "Ġcivil": 4571,
      "[\"": 4572,
      "Ġteams": 4573,
      "74": 4574,
      "Ġactually": 4575,
      "}:": 4576,
      "Ġcopy": 4577,
      "ĠMinister": 4578,
      "ĠVol": 4579,
      "Null": 4580,
      "char": 4581,
      "ĠAngel": 4582,
      "Ġcast": 4583,
      "bour": 4584,
      "ategy": 4585,
      "indent": 4586,
      "split": 4587,
      "Ġresource": 4588,
      "Sp": 4589,
      "Ġneeded": 4590,
      "ying": 4591,
      "Ġimages": 4592,
      "post": 4593,
      "Ġfollowed": 4594,
      "92": 4595,
      "Ġrow": 4596,
      "Ġobjects": 4597,
      "ĠProv": 4598,
      "Ġtemperature": 4599,
      "ĠNor": 4600,
      "Ġrot": 4601,
      "dat": 4602,
      "ĠCap": 4603,
      "Gener": 4604,
      "ĠHen": 4605,
      "module": 4606,
      "Ġess": 4607,
      "ado": 4608,
      "Ġbooks": 4609,
      "ĠMiss": 4610,
      "Ġindustry": 4611,
      "1991": 4612,
      "Ġnight": 4613,
      "pret": 4614,
      "Ġ+=": 4615,
      "54": 4616,
      "Ġcoordin": 4617,
      "Ġconver": 4618,
      "Ġbit": 4619,
      "Action": 4620,
      "52": 4621,
      "header": 4622,
      "erve": 4623,
      "Ġfa": 4624,
      "OM": 4625,
      "Ġoperations": 4626,
      "Ġpolice": 4627,
      "HT": 4628,
      "ams": 4629,
      "isation": 4630,
      "ĠIN": 4631,
      "eger": 4632,
      "ĠFound": 4633,
      "ĠRoad": 4634,
      "Ġinvestig": 4635,
      "Ġdemonstr": 4636,
      "hi": 4637,
      "FI": 4638,
      "otype": 4639,
      "Ġdesigned": 4640,
      "ĠSub": 4641,
      "Ġvoc": 4642,
      "ensus": 4643,
      "Ġmention": 4644,
      "Handler": 4645,
      "ospital": 4646,
      "la": 4647,
      "Ġincreasing": 4648,
      ")-": 4649,
      "idents": 4650,
      "Ġboundary": 4651,
      "unch": 4652,
      "Nav": 4653,
      "Ġformed": 4654,
      "ĠBook": 4655,
      "Ġexcept": 4656,
      "Ġrunning": 4657,
      "ĠTur": 4658,
      "Ġcorrect": 4659,
      "Ġcred": 4660,
      "Ġ\"\"\"": 4661,
      "94": 4662,
      "Ġoption": 4663,
      "ĠWhite": 4664,
      "Ġdirected": 4665,
      "Ġstars": 4666,
      "aven": 4667,
      "Ġwhy": 4668,
      "Ġmaximum": 4669,
      "Ġsens": 4670,
      "IV": 4671,
      "}\\\\": 4672,
      "Ġnumbers": 4673,
      "dist": 4674,
      "Ġusually": 4675,
      "anning": 4676,
      "SU": 4677,
      "Ġsetting": 4678,
      "very": 4679,
      "ĠMuseum": 4680,
      "ena": 4681,
      "Ġrecorded": 4682,
      "airs": 4683,
      "property": 4684,
      "Ġrule": 4685,
      "clusion": 4686,
      "ĠMat": 4687,
      "Char": 4688,
      "ĠClub": 4689,
      "hest": 4690,
      "Ġanim": 4691,
      "ĠIsland": 4692,
      "ĠRussian": 4693,
      "asket": 4694,
      "Ġgalax": 4695,
      "unfinished": 4696,
      "Component": 4697,
      "dec": 4698,
      "eloc": 4699,
      "rl": 4700,
      "oring": 4701,
      "win": 4702,
      "ĠLeg": 4703,
      "reme": 4704,
      "Since": 4705,
      "Ġgave": 4706,
      "ĠEar": 4707,
      "Ġplaying": 4708,
      "tings": 4709,
      "irtual": 4710,
      "Ġimmedi": 4711,
      "agram": 4712,
      "ias": 4713,
      "Ġeight": 4714,
      "Ġsense": 4715,
      "Ġidea": 4716,
      "Options": 4717,
      "Ġhy": 4718,
      "Ġoptim": 4719,
      "Eng": 4720,
      "AM": 4721,
      "arser": 4722,
      "strong": 4723,
      "]$": 4724,
      "citet": 4725,
      "Ġphysical": 4726,
      "HE": 4727,
      "Ġadj": 4728,
      "Back": 4729,
      "Ġrepresentation": 4730,
      "Ġforces": 4731,
      "Ġstream": 4732,
      "Ġinternal": 4733,
      "Ġgovern": 4734,
      "ĠWork": 4735,
      "osen": 4736,
      "Ġapplied": 4737,
      "ĠTexas": 4738,
      "nect": 4739,
      "ĠCanadian": 4740,
      "1960": 4741,
      "Ġprimary": 4742,
      "Ġpattern": 4743,
      "ĠGreat": 4744,
      "53": 4745,
      "Ġaccom": 4746,
      "ĠDis": 4747,
      "ĠScience": 4748,
      "ona": 4749,
      "Ġcit": 4750,
      "ĠWil": 4751,
      "Ġappeared": 4752,
      "press": 4753,
      "Ġvers": 4754,
      "Ġnom": 4755,
      "urrent": 4756,
      "Ġconcern": 4757,
      "scr": 4758,
      "Mem": 4759,
      "PRO": 4760,
      "Ġchannel": 4761,
      "isl": 4762,
      "Ġexhib": 4763,
      "Ġnews": 4764,
      "ducation": 4765,
      "ĠService": 4766,
      "Ġdifference": 4767,
      "edy": 4768,
      "Ġsus": 4769,
      "local": 4770,
      "Ġdam": 4771,
      "ĠMichael": 4772,
      "Ġprote": 4773,
      "Ġhous": 4774,
      "Ġcharacters": 4775,
      "ala": 4776,
      "ĠSpec": 4777,
      "ipl": 4778,
      "Ġselect": 4779,
      "ros": 4780,
      "}/": 4781,
      "Ġnuc": 4782,
      "Ġbar": 4783,
      "achine": 4784,
      "ĠDay": 4785,
      "arks": 4786,
      "Co": 4787,
      "hspace": 4788,
      "uns": 4789,
      "ĠThomas": 4790,
      "ĠTown": 4791,
      "ĠYear": 4792,
      "umni": 4793,
      "Le": 4794,
      "alls": 4795,
      "79": 4796,
      "irit": 4797,
      "Ġupper": 4798,
      "Ġsources": 4799,
      "Attribute": 4800,
      "find": 4801,
      "Ab": 4802,
      "Ġship": 4803,
      "LT": 4804,
      "Ġneeds": 4805,
      "indows": 4806,
      "ĠAlex": 4807,
      "Box": 4808,
      "Ġtransition": 4809,
      "Ġbehind": 4810,
      "ĠResearch": 4811,
      "Ġtold": 4812,
      "Content": 4813,
      "ĠBest": 4814,
      "write": 4815,
      "Ġfriend": 4816,
      "ĠPublic": 4817,
      "ingu": 4818,
      "gent": 4819,
      "Ġkm": 4820,
      "sg": 4821,
      "Label": 4822,
      "ĠCentral": 4823,
      "Ġreve": 4824,
      "Ġinf": 4825,
      "Ġscen": 4826,
      "ĠMac": 4827,
      "Pre": 4828,
      "Rep": 4829,
      "Start": 4830,
      "Ġclient": 4831,
      "rial": 4832,
      "'$": 4833,
      "Ġbecomes": 4834,
      "umerate": 4835,
      "ĠGold": 4836,
      "ĠCommission": 4837,
      "ĠWestern": 4838,
      "&&": 4839,
      "Ġnecessary": 4840,
      "1989": 4841,
      "}+\\": 4842,
      "ipp": 4843,
      "reater": 4844,
      "ĠHealth": 4845,
      "Ġfight": 4846,
      "ĠHistory": 4847,
      "that": 4848,
      "Ġtell": 4849,
      "ĠSam": 4850,
      "Ġlonger": 4851,
      "Ġsubsequ": 4852,
      "ĠVirgin": 4853,
      "Ġmar": 4854,
      "oice": 4855,
      "Ġsecurity": 4856,
      "Ġnames": 4857,
      "Point": 4858,
      "Ġseg": 4859,
      "Ġtour": 4860,
      "ometimes": 4861,
      "inct": 4862,
      "Ġiter": 4863,
      "ĠBill": 4864,
      "Ġtowards": 4865,
      "Ġord": 4866,
      "nce": 4867,
      "ano": 4868,
      "Ġallows": 4869,
      "Ġcomponents": 4870,
      "ici": 4871,
      "road": 4872,
      "empty": 4873,
      "edia": 4874,
      "ictor": 4875,
      "ĠObject": 4876,
      "Ġemer": 4877,
      "adata": 4878,
      "only": 4879,
      "Ġunits": 4880,
      "Ġmonth": 4881,
      "ube": 4882,
      "Ġdig": 4883,
      "ĠMag": 4884,
      "Cell": 4885,
      "ĠOut": 4886,
      "Ġdeep": 4887,
      "Ġelected": 4888,
      "well": 4889,
      "*/": 4890,
      "BA": 4891,
      "ĠKingdom": 4892,
      "ĠMad": 4893,
      "ĠOther": 4894,
      "Ġdenote": 4895,
      "ening": 4896,
      "Per": 4897,
      "Ġsolutions": 4898,
      "Ġremains": 4899,
      "neq": 4900,
      "Ġjournal": 4901,
      "ĠScott": 4902,
      "member": 4903,
      "stract": 4904,
      "json": 4905,
      "Ġlegal": 4906,
      "olve": 4907,
      "Ġrelative": 4908,
      "Ġcapital": 4909,
      "merc": 4910,
      "iments": 4911,
      "Ġaltern": 4912,
      "ansion": 4913,
      "ifying": 4914,
      "final": 4915,
      "ĠMus": 4916,
      "86": 4917,
      "ĠKore": 4918,
      "SI": 4919,
      "Ġmaintain": 4920,
      "anger": 4921,
      "PC": 4922,
      "Ġtree": 4923,
      "Ġmode": 4924,
      "Ñģ": 4925,
      "Ġbehavior": 4926,
      "Ġscient": 4927,
      "Ġchanged": 4928,
      "Ġbirth": 4929,
      "Ġsil": 4930,
      "Ġsmaller": 4931,
      "Ġdrop": 4932,
      "Ġfounded": 4933,
      "ĠMer": 4934,
      "Ġpreviously": 4935,
      "NN": 4936,
      "Ġfood": 4937,
      "Function": 4938,
      "Ã¤": 4939,
      "Buffer": 4940,
      "72": 4941,
      "({\\": 4942,
      "Ġprove": 4943,
      "\").": 4944,
      "Number": 4945,
      "Ġarticle": 4946,
      "Default": 4947,
      "normal": 4948,
      "obj": 4949,
      "vention": 4950,
      "ĠRad": 4951,
      "Ġyield": 4952,
      "ĠSy": 4953,
      "Ġequations": 4954,
      "Ġcritical": 4955,
      "Hel": 4956,
      "(-": 4957,
      "Ġpractice": 4958,
      "xml": 4959,
      "Ġopport": 4960,
      "ĠNews": 4961,
      "ĠChinese": 4962,
      "atur": 4963,
      "Ġface": 4964,
      "font": 4965,
      "1988": 4966,
      "Ġsaw": 4967,
      "Ġsimply": 4968,
      "Ġconcept": 4969,
      "ĠReturn": 4970,
      "ĠCarol": 4971,
      "Ġtransport": 4972,
      "ugin": 4973,
      "ayers": 4974,
      "ĠAcademy": 4975,
      "Ġ...": 4976,
      "nov": 4977,
      "Prov": 4978,
      "ĠMont": 4979,
      "ĠHistor": 4980,
      "layout": 4981,
      "\"]": 4982,
      "Ġrelation": 4983,
      "project": 4984,
      "Ġspecified": 4985,
      "Run": 4986,
      "}}{\\": 4987,
      "gener": 4988,
      "Ġconnection": 4989,
      "ĠSal": 4990,
      "Ġeconomic": 4991,
      "allet": 4992,
      "Ġextends": 4993,
      "ocket": 4994,
      "Ġmargin": 4995,
      "}-\\": 4996,
      "status": 4997,
      "py": 4998,
      "Ġtransl": 4999,
      "uge": 5000,
      "Link": 5001,
      "|^": 5002,
      "Ġ{@": 5003,
      "Version": 5004,
      "Ġautom": 5005,
      "91": 5006,
      "Ġexpression": 5007,
      "ln": 5008,
      "Fe": 5009,
      "Ġdomain": 5010,
      "azine": 5011,
      "Ġstaff": 5012,
      "Ġkilled": 5013,
      "Ð¾Ð": 5014,
      "ptr": 5015,
      "Ġapply": 5016,
      "Ġcomes": 5017,
      "Ġplaces": 5018,
      "ĠTom": 5019,
      "ĠLouis": 5020,
      "Ġappointed": 5021,
      "${": 5022,
      "Ġelectron": 5023,
      "62": 5024,
      "Ġexpand": 5025,
      "REF": 5026,
      "Task": 5027,
      "Ġmodule": 5028,
      "omial": 5029,
      "Ġseven": 5030,
      "porary": 5031,
      "errit": 5032,
      "bon": 5033,
      "Ġvariables": 5034,
      "Factory": 5035,
      "Ġforward": 5036,
      "ĠNote": 5037,
      "Ġobj": 5038,
      "usion": 5039,
      "]\\": 5040,
      "Ġbring": 5041,
      "west": 5042,
      "LASS": 5043,
      "pack": 5044,
      "ĠCommittee": 5045,
      "Ġknowledge": 5046,
      "ĠNone": 5047,
      "src": 5048,
      "ĠGrand": 5049,
      "Ġadm": 5050,
      "1987": 5051,
      "Ġshare": 5052,
      "ĠBen": 5053,
      "ĠJapanese": 5054,
      "ean": 5055,
      "Ġveloc": 5056,
      "enumerate": 5057,
      "Ġ-\\": 5058,
      "Command": 5059,
      "Ġadapt": 5060,
      "Ġformat": 5061,
      "onom": 5062,
      "Ġtim": 5063,
      "Ġcharg": 5064,
      "ectors": 5065,
      "obile": 5066,
      "Ġupdate": 5067,
      "ĠSur": 5068,
      "Ġsignal": 5069,
      "Ġscience": 5070,
      "ĉĉĉĉĉĉĉĉ": 5071,
      "Sim": 5072,
      "Ġmanagement": 5073,
      "ĠRem": 5074,
      "fit": 5075,
      "lease": 5076,
      "85": 5077,
      "num": 5078,
      "OC": 5079,
      "lock": 5080,
      "ĠCongress": 5081,
      "Ġsen": 5082,
      "Ġdaughter": 5083,
      "Ġmus": 5084,
      "ners": 5085,
      "olar": 5086,
      "tex": 5087,
      "ĠCharles": 5088,
      "Ġstudied": 5089,
      "ved": 5090,
      "Ġargument": 5091,
      "Ġavoid": 5092,
      "Ġdram": 5093,
      "force": 5094,
      "navbar": 5095,
      "Ġspeed": 5096,
      "ĠGames": 5097,
      "riev": 5098,
      "dimensional": 5099,
      "rule": 5100,
      "background": 5101,
      "Ġlimited": 5102,
      "reland": 5103,
      "Ġnature": 5104,
      "agger": 5105,
      "pat": 5106,
      "ĠAccording": 5107,
      "Ġimplies": 5108,
      "istan": 5109,
      "ĠLat": 5110,
      "PS": 5111,
      "Ġalbums": 5112,
      "theorem": 5113,
      "Load": 5114,
      "Ent": 5115,
      "Ġ(\"": 5116,
      "Ġeast": 5117,
      "Pi": 5118,
      "Ġthrows": 5119,
      "ĠFrank": 5120,
      "ĠDan": 5121,
      "ĠFore": 5122,
      "\\,\\": 5123,
      "operat": 5124,
      "FT": 5125,
      "Ġscreen": 5126,
      "Ġcomment": 5127,
      "values": 5128,
      "asketball": 5129,
      "len": 5130,
      "itemize": 5131,
      "DB": 5132,
      "Ġtravel": 5133,
      "di": 5134,
      "LS": 5135,
      "ufact": 5136,
      "Ġpassed": 5137,
      "Ġchoice": 5138,
      "mes": 5139,
      "ifact": 5140,
      ")}{": 5141,
      "Ġdidn": 5142,
      "itz": 5143,
      "Ġwriter": 5144,
      "\"),": 5145,
      "allel": 5146,
      "App": 5147,
      "ita": 5148,
      "Ġstated": 5149,
      "Ġwest": 5150,
      "Ġonline": 5151,
      "command": 5152,
      "Check": 5153,
      "Ġded": 5154,
      "Ġlo": 5155,
      "Resource": 5156,
      "Ġfra": 5157,
      "Ġhit": 5158,
      "63": 5159,
      "Ġpredict": 5160,
      "Ġdescription": 5161,
      "Ġrob": 5162,
      "elebr": 5163,
      "ental": 5164,
      "operatorn": 5165,
      "struction": 5166,
      "Ġbeginning": 5167,
      "meta": 5168,
      "Ġproced": 5169,
      "ao": 5170,
      "Ġculture": 5171,
      "Ġquality": 5172,
      "process": 5173,
      "Ġmix": 5174,
      "igr": 5175,
      "{}": 5176,
      "Ġsolid": 5177,
      "Ġ]": 5178,
      "Ġcatch": 5179,
      "Ġconclud": 5180,
      "isher": 5181,
      "Ġfailed": 5182,
      "endif": 5183,
      "entry": 5184,
      "FC": 5185,
      "ĠFrancis": 5186,
      "Br": 5187,
      "Ġevolution": 5188,
      "Ġconnected": 5189,
      "astern": 5190,
      "mselves": 5191,
      "atre": 5192,
      "operatorname": 5193,
      "Ġvariable": 5194,
      "Ġauto": 5195,
      "Met": 5196,
      "Ġnav": 5197,
      "ĠCatholic": 5198,
      "ypes": 5199,
      "Ġfamilies": 5200,
      "ategor": 5201,
      "Ġfinancial": 5202,
      "ĠGovernment": 5203,
      "Ġearlier": 5204,
      "ĠTor": 5205,
      "push": 5206,
      "Em": 5207,
      "89": 5208,
      "ND": 5209,
      "Ġer": 5210,
      "Ġtechnology": 5211,
      "Ġsure": 5212,
      "Ġconsum": 5213,
      "Ġ((": 5214,
      "po": 5215,
      "Det": 5216,
      "igger": 5217,
      "ĠJose": 5218,
      "number": 5219,
      "Ġreading": 5220,
      "Ġsymbol": 5221,
      "ulture": 5222,
      "ometry": 5223,
      "ĠTherefore": 5224,
      "Ġlevels": 5225,
      "}}_": 5226,
      "elete": 5227,
      "kr": 5228,
      "Ġclasses": 5229,
      "btn": 5230,
      "Ġcoeff": 5231,
      "Ġgrowth": 5232,
      "Ġdoesn": 5233,
      "irl": 5234,
      "$}": 5235,
      "Ġlack": 5236,
      "ĠTable": 5237,
      "Ġthemselves": 5238,
      "});": 5239,
      "Ġreplaced": 5240,
      "ye": 5241,
      "Ġfilter": 5242,
      "ĠBoard": 5243,
      "ĠFlor": 5244,
      "ussian": 5245,
      "lam": 5246,
      "ĠWhat": 5247,
      "vant": 5248,
      "ĠSmith": 5249,
      "Ġdetermined": 5250,
      "uan": 5251,
      "ĠTechn": 5252,
      "track": 5253,
      "Ġgenerally": 5254,
      "last": 5255,
      "Ġstructures": 5256,
      "ĠZeal": 5257,
      "mathscr": 5258,
      "ether": 5259,
      "private": 5260,
      "1986": 5261,
      "Ġrepresented": 5262,
      "Ġremain": 5263,
      "duction": 5264,
      "True": 5265,
      "Ġanti": 5266,
      "rowser": 5267,
      "Ġrecently": 5268,
      "close": 5269,
      "///": 5270,
      "mercial": 5271,
      "Desc": 5272,
      "You": 5273,
      "Ġstreng": 5274,
      "icago": 5275,
      "ĠItalian": 5276,
      "description": 5277,
      "Ġmemory": 5278,
      "noindent": 5279,
      "Ġmovement": 5280,
      "Ġdecre": 5281,
      "ĠRichard": 5282,
      "thlet": 5283,
      "ĠEv": 5284,
      "Ġcontact": 5285,
      "Ġnone": 5286,
      "Ġsports": 5287,
      "lo": 5288,
      "She": 5289,
      "Ext": 5290,
      "ĠRecords": 5291,
      "Ġillust": 5292,
      "Page": 5293,
      "ĠZealand": 5294,
      "Ġax": 5295,
      "ircraft": 5296,
      "Ġoccup": 5297,
      "Ġrules": 5298,
      "acter": 5299,
      "Ġpeak": 5300,
      "73": 5301,
      "Ġlat": 5302,
      "ura": 5303,
      "Ġdoing": 5304,
      "stack": 5305,
      "Ġentry": 5306,
      "greg": 5307,
      "Ġhours": 5308,
      "Ġ(-": 5309,
      "Ġregions": 5310,
      "Ġregister": 5311,
      "Ġweak": 5312,
      "Ġartists": 5313,
      "MM": 5314,
      "Ġguitar": 5315,
      "Ġcharge": 5316,
      "Ġmount": 5317,
      "ĠRob": 5318,
      "1984": 5319,
      "VER": 5320,
      "Ġwindow": 5321,
      "Ġveh": 5322,
      "resh": 5323,
      "Ġwid": 5324,
      "Sec": 5325,
      "Ġfit": 5326,
      "Ġcollect": 5327,
      "Ġbelong": 5328,
      "ĠPeter": 5329,
      "vspace": 5330,
      "Ġstarting": 5331,
      "Ġeventually": 5332,
      "orial": 5333,
      "61": 5334,
      "bin": 5335,
      "Ġmagnetic": 5336,
      "gence": 5337,
      "Ġwalk": 5338,
      "Ġbrought": 5339,
      "ĠDel": 5340,
      "ĠSecond": 5341,
      "inner": 5342,
      "Ġtrain": 5343,
      "Ġmeaning": 5344,
      "otal": 5345,
      "Arg": 5346,
      "Ġorganization": 5347,
      "Ġcause": 5348,
      "Ġste": 5349,
      ")}$": 5350,
      "cs": 5351,
      "Ġleague": 5352,
      "format": 5353,
      "Ġquick": 5354,
      "Ġgrant": 5355,
      "Return": 5356,
      "img": 5357,
      "ĠMass": 5358,
      "Ġpick": 5359,
      "Ġalgebra": 5360,
      "Ġproducts": 5361,
      "Ġframe": 5362,
      "Ġneut": 5363,
      "Ġbur": 5364,
      "Ġthing": 5365,
      "Ġfinished": 5366,
      "icolumn": 5367,
      "ĠMem": 5368,
      "weight": 5369,
      "Ġstatement": 5370,
      "ĠData": 5371,
      "Ġfemale": 5372,
      "1985": 5373,
      "Ġwoman": 5374,
      "ecause": 5375,
      "ĠLos": 5376,
      "language": 5377,
      "71": 5378,
      "Ġhttps": 5379,
      "multicolumn": 5380,
      "otion": 5381,
      "ĠRussia": 5382,
      "Ġsch": 5383,
      "Ġinside": 5384,
      "ĠĠĠĠĠĠĠĠĠĠĠĠĊ": 5385,
      "Ġstudent": 5386,
      "Ġparticularly": 5387,
      "Equals": 5388,
      "Ġimpro": 5389,
      "Ġca": 5390,
      "anned": 5391,
      "Note": 5392,
      "Ġprograms": 5393,
      "ih": 5394,
      "Ġrecon": 5395,
      "FONT": 5396,
      "Ġbre": 5397,
      "Ġadopt": 5398,
      "opl": 5399,
      "300": 5400,
      "arp": 5401,
      "\\}$": 5402,
      "olf": 5403,
      "ollowing": 5404,
      "sets": 5405,
      "itch": 5406,
      "Ġreached": 5407,
      "EL": 5408,
      "Ġansw": 5409,
      "ban": 5410,
      "Ġtrade": 5411,
      "mas": 5412,
      "Ġequivalent": 5413,
      "bo": 5414,
      "ĠTime": 5415,
      "Ġbuildings": 5416,
      "=#": 5417,
      "ĠPri": 5418,
      "filter": 5419,
      "Ġdecided": 5420,
      "ĠHill": 5421,
      ".$": 5422,
      "Ġ~": 5423,
      "ĠParis": 5424,
      "mem": 5425,
      "Ġforms": 5426,
      "ĠSecret": 5427,
      "container": 5428,
      "Ġbad": 5429,
      "ĠTrump": 5430,
      "ĠOpen": 5431,
      "Ġaim": 5432,
      "ĠBank": 5433,
      "Ġfill": 5434,
      "Ġinterview": 5435,
      "iece": 5436,
      "'re": 5437,
      "Ġorigin": 5438,
      "erman": 5439,
      "km": 5440,
      "Ġincreased": 5441,
      "Dr": 5442,
      "iverse": 5443,
      "iler": 5444,
      "otic": 5445,
      "evelopment": 5446,
      "ascript": 5447,
      "aled": 5448,
      "Ġsoon": 5449,
      "Ġestimate": 5450,
      "Ġleader": 5451,
      "Ġmissing": 5452,
      "example": 5453,
      "Ġcounter": 5454,
      "Ġthreat": 5455,
      "gn": 5456,
      "Ġmedical": 5457,
      "Ġball": 5458,
      "Create": 5459,
      "Ġresulting": 5460,
      "za": 5461,
      "ĠOper": 5462,
      "Ġhighest": 5463,
      "oma": 5464,
      "ĠSuper": 5465,
      "Can": 5466,
      "Ġexisting": 5467,
      "Aut": 5468,
      "flict": 5469,
      "Ġlatter": 5470,
      "buf": 5471,
      "cr": 5472,
      "69": 5473,
      "reedom": 5474,
      "Child": 5475,
      "ĠPost": 5476,
      "soft": 5477,
      "Web": 5478,
      "Ġcoach": 5479,
      "ĠFin": 5480,
      "____": 5481,
      "stitution": 5482,
      "refix": 5483,
      "ech": 5484,
      "approx": 5485,
      "inding": 5486,
      "ĠOur": 5487,
      "PR": 5488,
      "Ġseem": 5489,
      "Ġlisted": 5490,
      "ancy": 5491,
      "output": 5492,
      "Ġruns": 5493,
      "aa": 5494,
      "gle": 5495,
      "Par": 5496,
      "then": 5497,
      "rypt": 5498,
      "enge": 5499,
      "ĠAnn": 5500,
      "Ġrecover": 5501,
      "Format": 5502,
      "response": 5503,
      "oys": 5504,
      "unit": 5505,
      "CA": 5506,
      "SD": 5507,
      "Ġdestroy": 5508,
      "Ġprogress": 5509,
      "Ġepisode": 5510,
      "Ġpresence": 5511,
      "Style": 5512,
      "ĠCamp": 5513,
      "BU": 5514,
      "Ġconnect": 5515,
      "ĠSk": 5516,
      "Ġrisk": 5517,
      "Ġfigure": 5518,
      "Ġmovie": 5519,
      "Tem": 5520,
      "std": 5521,
      "ĠWomen": 5522,
      "Ġtit": 5523,
      "ĠRock": 5524,
      "Ġappears": 5525,
      "Ġoverall": 5526,
      "Ġchart": 5527,
      "Ġspectrum": 5528,
      "Ġhot": 5529,
      "illa": 5530,
      "Ġdoc": 5531,
      "mt": 5532,
      "ĠForm": 5533,
      "Ġcollege": 5534,
      "Ġselection": 5535,
      "Work": 5536,
      "arian": 5537,
      "sche": 5538,
      "Ġplant": 5539,
      "Then": 5540,
      "norm": 5541,
      "Last": 5542,
      "Ġartist": 5543,
      "real": 5544,
      "NO": 5545,
      "ĠForce": 5546,
      "Ġoriginally": 5547,
      "Ġattention": 5548,
      "Ġvolume": 5549,
      "ABLE": 5550,
      "oral": 5551,
      "Ġbelieve": 5552,
      "iring": 5553,
      "sole": 5554,
      "SON": 5555,
      "Ġratio": 5556,
      "Ġplatform": 5557,
      "ora": 5558,
      "icated": 5559,
      "Ġfederal": 5560,
      "ĠVirginia": 5561,
      "anta": 5562,
      "Ġdark": 5563,
      "Next": 5564,
      "update": 5565,
      "service": 5566,
      "INT": 5567,
      "{$": 5568,
      "ĠFoundation": 5569,
      "Rem": 5570,
      "Ġserver": 5571,
      "1950": 5572,
      "Ġagreement": 5573,
      "ĠIreland": 5574,
      "Ġ_{": 5575,
      "ĠSummer": 5576,
      "term": 5577,
      "urt": 5578,
      "ĠCO": 5579,
      "Ġfont": 5580,
      "Ġplaced": 5581,
      "crete": 5582,
      "Ġcritic": 5583,
      "bul": 5584,
      "Ġscore": 5585,
      "Ġnegative": 5586,
      "FL": 5587,
      "Ġinterface": 5588,
      "Us": 5589,
      "graph": 5590,
      "erved": 5591,
      "igan": 5592,
      "1983": 5593,
      "Ġfully": 5594,
      "olk": 5595,
      "Ġreturns": 5596,
      "Ġextended": 5597,
      "Ġexplicit": 5598,
      "Ġneighbor": 5599,
      "Ġnodes": 5600,
      "={": 5601,
      "Ġauth": 5602,
      "hing": 5603,
      "Ġgold": 5604,
      "Ġclassical": 5605,
      "Ġesc": 5606,
      "Ġwide": 5607,
      "ulate": 5608,
      "ĠGeorg": 5609,
      "menu": 5610,
      "ĠID": 5611,
      "linear": 5612,
      "Ġrepe": 5613,
      "Ġdimension": 5614,
      "Ġasked": 5615,
      "Ġfinally": 5616,
      "Ġconfiguration": 5617,
      "ĠNow": 5618,
      "Ġpack": 5619,
      "oder": 5620,
      "Ġ<!--": 5621,
      "Ġquite": 5622,
      "Ġpurch": 5623,
      "Ġnoted": 5624,
      "ĠSee": 5625,
      "jection": 5626,
      "Ġalumni": 5627,
      "eft": 5628,
      "Ġcop": 5629,
      "Ġsoftware": 5630,
      "Ġapproximately": 5631,
      "Ġproper": 5632,
      "Controller": 5633,
      "(&": 5634,
      "Ġactivities": 5635,
      "Ġspent": 5636,
      "Mar": 5637,
      "war": 5638,
      "Ġresources": 5639,
      "ĠSpanish": 5640,
      "Ġstations": 5641,
      "ĠOrder": 5642,
      "Ġsufficient": 5643,
      "Ġrap": 5644,
      "ttp": 5645,
      "dep": 5646,
      "break": 5647,
      "ella": 5648,
      "~$": 5649,
      "Ġprem": 5650,
      "ĠMel": 5651,
      "Ġdise": 5652,
      "icate": 5653,
      "hedul": 5654,
      "Ġchalleng": 5655,
      "Ġfootballers": 5656,
      "TP": 5657,
      "oviet": 5658,
      "Ġmur": 5659,
      "Ġminor": 5660,
      "attr": 5661,
      "Ġmajority": 5662,
      "Ġfourth": 5663,
      "Top": 5664,
      "tag": 5665,
      "ĠPenn": 5666,
      "Ġdescribe": 5667,
      "Ġearn": 5668,
      "ĠOf": 5669,
      "Ġmunic": 5670,
      "UI": 5671,
      "Sche": 5672,
      "Ġotherwise": 5673,
      "Filter": 5674,
      "1982": 5675,
      "ĠLake": 5676,
      "ĠChicago": 5677,
      "aily": 5678,
      "Ġtreatment": 5679,
      "Ġtraditional": 5680,
      "Ġheart": 5681,
      "Ġensure": 5682,
      "Ġlayer": 5683,
      "Ġpen": 5684,
      "ĠGa": 5685,
      "Ġshape": 5686,
      "dated": 5687,
      "rea": 5688,
      "resents": 5689,
      "minus": 5690,
      "Ġacadem": 5691,
      "That": 5692,
      "ĠĠĠĊ": 5693,
      "Ġwanted": 5694,
      "84": 5695,
      "Ġuniform": 5696,
      "ĠProfess": 5697,
      "Ġquery": 5698,
      "iting": 5699,
      "olid": 5700,
      "Ġroom": 5701,
      "ĠHere": 5702,
      "rate": 5703,
      "Ġanc": 5704,
      "Min": 5705,
      "GB": 5706,
      "ĠPre": 5707,
      "Ġframework": 5708,
      "inem": 5709,
      "Bundle": 5710,
      "cd": 5711,
      "ĠOlympics": 5712,
      "Ġmiddle": 5713,
      "Ġprevent": 5714,
      "anges": 5715,
      "ĠTimes": 5716,
      "ĠInc": 5717,
      "Ġlives": 5718,
      "essages": 5719,
      "Ġurl": 5720,
      "ĠCE": 5721,
      ")+": 5722,
      "ĠOF": 5723,
      "ĠFootball": 5724,
      "ĠUnder": 5725,
      "mission": 5726,
      "Ġ;": 5727,
      "Ġroot": 5728,
      "ĠDu": 5729,
      "Ġsort": 5730,
      "ĠBrown": 5731,
      "related": 5732,
      "ĠFilm": 5733,
      "icket": 5734,
      "Ġvac": 5735,
      "PP": 5736,
      "files": 5737,
      "ponents": 5738,
      "texttt": 5739,
      "Ġreduced": 5740,
      "ĠBur": 5741,
      "Ġsometimes": 5742,
      "ĠAtl": 5743,
      "ĠAngeles": 5744,
      "SA": 5745,
      "rip": 5746,
      "fect": 5747,
      "ribe": 5748,
      "ecution": 5749,
      "ishop": 5750,
      "Ġforeign": 5751,
      "ĠOver": 5752,
      "Ġdevice": 5753,
      "ĠAlthough": 5754,
      "ĠFlorida": 5755,
      "inv": 5756,
      "Ġgrand": 5757,
      "fort": 5758,
      "hr": 5759,
      "Ġactual": 5760,
      "ĠHenry": 5761,
      "Ġfrequency": 5762,
      "nel": 5763,
      "ERT": 5764,
      "ette": 5765,
      "Ġvelocity": 5766,
      "CL": 5767,
      "Ġremained": 5768,
      "ĠArts": 5769,
      "olved": 5770,
      "ĠEducation": 5771,
      "javascript": 5772,
      "gu": 5773,
      "Ġfiles": 5774,
      "Ġcelebr": 5775,
      "ĠVictor": 5776,
      "ĠDet": 5777,
      "400": 5778,
      "scope": 5779,
      "rics": 5780,
      "So": 5781,
      "params": 5782,
      "Ġsn": 5783,
      "Now": 5784,
      "ervices": 5785,
      "Ġincor": 5786,
      "Ġmind": 5787,
      "Ġhel": 5788,
      "\\\"": 5789,
      "udd": 5790,
      "Ġprobably": 5791,
      "Ġ\\|": 5792,
      "nother": 5793,
      "ĠSeries": 5794,
      "Ġidentity": 5795,
      "ci": 5796,
      "else": 5797,
      "ĠDirector": 5798,
      "ĠIll": 5799,
      "1979": 5800,
      "ĠĠĠĠĠĠĠĠĠĠĠĠĠĠĠĠĠĠĠĠĠĠĠĠĠĠĠĠĠĠĠĠĠĠĠ": 5801,
      "Ġconsists": 5802,
      "ynch": 5803,
      "Ġeigen": 5804,
      "}'": 5805,
      "riz": 5806,
      "rees": 5807,
      "ĠLand": 5808,
      "Ġrequires": 5809,
      "black": 5810,
      "ĠDen": 5811,
      "auge": 5812,
      "Ġeditor": 5813,
      "show": 5814,
      "Ġvariety": 5815,
      "ĠType": 5816,
      "itable": 5817,
      "Ġwave": 5818,
      "ĠAtt": 5819,
      "87": 5820,
      "sych": 5821,
      "ympt": 5822,
      "./": 5823,
      "Ġsituation": 5824,
      "float": 5825,
      "Ġinsp": 5826,
      "Ġcoming": 5827,
      "Ġseems": 5828,
      "Ġsociety": 5829,
      "ouri": 5830,
      "Ġmeeting": 5831,
      "Ġremaining": 5832,
      "Button": 5833,
      "anda": 5834,
      "Ġinterpret": 5835,
      "Ġminimum": 5836,
      "Post": 5837,
      "ĠRel": 5838,
      "ĠMexico": 5839,
      "isms": 5840,
      "clos": 5841,
      "cles": 5842,
      "ellig": 5843,
      "issions": 5844,
      "Ġbo": 5845,
      "Ġconsequ": 5846,
      "ĠCD": 5847,
      "iders": 5848,
      "writ": 5849,
      "ĠHamilton": 5850,
      "ĠTwo": 5851,
      "Rel": 5852,
      "Ġtourn": 5853,
      "%%": 5854,
      "heet": 5855,
      "Max": 5856,
      "1981": 5857,
      "Men": 5858,
      "Ġapprop": 5859,
      "Ġprison": 5860,
      "Ġmetric": 5861,
      "Ġign": 5862,
      "ĠPo": 5863,
      "Ġsecret": 5864,
      "inos": 5865,
      "ĠHel": 5866,
      "Ġmanufact": 5867,
      "Ġchosen": 5868,
      "Ġvan": 5869,
      "Valid": 5870,
      "etime": 5871,
      "Ġnorm": 5872,
      "razil": 5873,
      "oret": 5874,
      "Ġtra": 5875,
      "Ġreli": 5876,
      "Listener": 5877,
      "Ġteacher": 5878,
      "ynomial": 5879,
      "Ġcaused": 5880,
      "BS": 5881,
      "Ġhum": 5882,
      "Ġscheme": 5883,
      "<?": 5884,
      "TO": 5885,
      "vision": 5886,
      "ĠIran": 5887,
      "Ġunion": 5888,
      "azz": 5889,
      "ĠHREF": 5890,
      "Ġestimated": 5891,
      "Length": 5892,
      "Output": 5893,
      "ĠIS": 5894,
      "Ġmotion": 5895,
      "Ġnearly": 5896,
      "Ġmanager": 5897,
      "Mon": 5898,
      "What": 5899,
      "fg": 5900,
      "Ġinfluence": 5901,
      "ĠScot": 5902,
      "reference": 5903,
      "ĠVer": 5904,
      "Ġcompetition": 5905,
      "Ġinteresting": 5906,
      "Ġstore": 5907,
      "Net": 5908,
      "Ġproduce": 5909,
      "Address": 5910,
      "trm": 5911,
      "iques": 5912,
      "Ġuns": 5913,
      "Ġstay": 5914,
      "inger": 5915,
      "Ġchem": 5916,
      "even": 5917,
      "Ġcategory": 5918,
      "Ġextension": 5919,
      "Ġpanel": 5920,
      "ĠCLASS": 5921,
      "ounter": 5922,
      "Ġawarded": 5923,
      "Ġhighly": 5924,
      "Ġdetermine": 5925,
      "{{": 5926,
      "kin": 5927,
      "ervation": 5928,
      "ĠAssembly": 5929,
      "Ġremove": 5930,
      "ĠIts": 5931,
      "Ã³n": 5932,
      "Ġusers": 5933,
      "annot": 5934,
      "textrm": 5935,
      "depend": 5936,
      "Ġseek": 5937,
      "Ġaircraft": 5938,
      "ĠMost": 5939,
      "ĠStar": 5940,
      "Ġnoise": 5941,
      "ibly": 5942,
      "82": 5943,
      "```": 5944,
      ":</": 5945,
      "Mode": 5946,
      "Ġcollabor": 5947,
      "Ġleave": 5948,
      "Ġactivity": 5949,
      "Ġcluster": 5950,
      "found": 5951,
      "Ġfun": 5952,
      "efined": 5953,
      "utch": 5954,
      "subseteq": 5955,
      "eds": 5956,
      "Ġexam": 5957,
      "desc": 5958,
      "ĠLife": 5959,
      "iger": 5960,
      "Ġhyp": 5961,
      "Ġequip": 5962,
      "Ġtheorem": 5963,
      "remove": 5964,
      "ĠArab": 5965,
      "ĠJournal": 5966,
      "rence": 5967,
      "ernel": 5968,
      "bi": 5969,
      "Ġsec": 5970,
      "^-": 5971,
      "ockey": 5972,
      "Ġcitiz": 5973,
      "////////////////": 5974,
      "free": 5975,
      "ĠBase": 5976,
      "Ġpressure": 5977,
      "Ġways": 5978,
      "ĠLong": 5979,
      "Ġdiscussed": 5980,
      "Case": 5981,
      "VAL": 5982,
      "underline": 5983,
      "1978": 5984,
      "Ġones": 5985,
      "ĠEmp": 5986,
      "(_": 5987,
      "oration": 5988,
      "ĠLiber": 5989,
      "Ġdrug": 5990,
      "ERR": 5991,
      "Ġblue": 5992,
      "Ġgreater": 5993,
      "Ġexception": 5994,
      "Ġparents": 5995,
      "people": 5996,
      "Ġfeatured": 5997,
      "ĠOffice": 5998,
      "IO": 5999,
      "Ġdataset": 6000,
      "Ġexpansion": 6001,
      "Ġderived": 6002,
      "iny": 6003,
      "IF": 6004,
      "Ġfast": 6005,
      "instance": 6006,
      "abit": 6007,
      "83": 6008,
      "ĠLog": 6009,
      "ĠCast": 6010,
      "Ġpark": 6011,
      "Ġrecords": 6012,
      "([": 6013,
      "iller": 6014,
      "}}}": 6015,
      "Ġetc": 6016,
      "Ġbasic": 6017,
      "wrap": 6018,
      "arriage": 6019,
      "hy": 6020,
      "Column": 6021,
      "ker": 6022,
      "olec": 6023,
      "author": 6024,
      "1976": 6025,
      "Ġplays": 6026,
      "Ġleads": 6027,
      "Ġrecomm": 6028,
      "prod": 6029,
      "ien": 6030,
      "Ġ$\\{": 6031,
      ";\"": 6032,
      "Ġindividuals": 6033,
      "ĠEX": 6034,
      "ql": 6035,
      "Ġwor": 6036,
      "Select": 6037,
      "Ġactions": 6038,
      "Ġinequ": 6039,
      "ĠJud": 6040,
      "ĠItaly": 6041,
      "ĠSocial": 6042,
      "Ġhousehold": 6043,
      "1972": 6044,
      "Ġarguments": 6045,
      "dx": 6046,
      "owers": 6047,
      "Ġliterature": 6048,
      "CP": 6049,
      "Theta": 6050,
      "Ġmis": 6051,
      "ĠKe": 6052,
      "Ġderiv": 6053,
      "Ġcore": 6054,
      "Layout": 6055,
      "Ġability": 6056,
      "\\!\\!\\!\\!": 6057,
      "NAME": 6058,
      "Ġextra": 6059,
      "Ġlaws": 6060,
      "Ġmission": 6061,
      "Parameter": 6062,
      "task": 6063,
      "ady": 6064,
      "reshold": 6065,
      "Ġutil": 6066,
      "Ġrepresents": 6067,
      "ashed": 6068,
      "proto": 6069,
      "Ġsurround": 6070,
      "erc": 6071,
      "ĠHon": 6072,
      "Ã¨": 6073,
      "COL": 6074,
      "Ġfif": 6075,
      "Ġwhom": 6076,
      "Ġmedal": 6077,
      "Ġarbit": 6078,
      "ĠAPI": 6079,
      "ĠBuild": 6080,
      "ola": 6081,
      "1974": 6082,
      "$(": 6083,
      "Vis": 6084,
      "TYPE": 6085,
      "Ġinteraction": 6086,
      "Ġoperators": 6087,
      "Ġcontaining": 6088,
      "allery": 6089,
      "Ġcommunities": 6090,
      "CON": 6091,
      "ĠFestival": 6092,
      "ishes": 6093,
      "Ġreach": 6094,
      "oles": 6095,
      "ĠField": 6096,
      "').": 6097,
      "Te": 6098,
      "expected": 6099,
      "<\\": 6100,
      "TV": 6101,
      "Ġshift": 6102,
      "Ġvirtual": 6103,
      "Ġ\\;": 6104,
      "CS": 6105,
      ">>": 6106,
      "itory": 6107,
      "ils": 6108,
      "AV": 6109,
      "########": 6110,
      "ternet": 6111,
      "Ġsamples": 6112,
      "ĠAv": 6113,
      "Ġexamples": 6114,
      "ĠEnd": 6115,
      "bed": 6116,
      "dim": 6117,
      "ydro": 6118,
      "Ġminutes": 6119,
      "Ġrul": 6120,
      "thon": 6121,
      "1975": 6122,
      "ĠProgram": 6123,
      "sign": 6124,
      "Ġcandidate": 6125,
      "ocation": 6126,
      "Ġinfin": 6127,
      "Ġprofile": 6128,
      "maz": 6129,
      "ĠSwed": 6130,
      "Ġpurpose": 6131,
      "ĠBig": 6132,
      "house": 6133,
      "abilities": 6134,
      "Ġroute": 6135,
      "URL": 6136,
      "Ġvote": 6137,
      "apers": 6138,
      "Tag": 6139,
      "Ġbrief": 6140,
      "Ġprojects": 6141,
      "support": 6142,
      "oute": 6143,
      "ato": 6144,
      "Ġelectric": 6145,
      "++)": 6146,
      "PO": 6147,
      "Ġago": 6148,
      "Ġphil": 6149,
      "ãģ": 6150,
      "venue": 6151,
      "Ġweb": 6152,
      "Ġcommercial": 6153,
      "rong": 6154,
      "Ġerrors": 6155,
      "Ġhence": 6156,
      "asion": 6157,
      "omic": 6158,
      "1977": 6159,
      "iana": 6160,
      "Ġimmediately": 6161,
      "Ġapplications": 6162,
      "Track": 6163,
      "plete": 6164,
      "Ġnothing": 6165,
      "Ġessential": 6166,
      "Ġcontinuous": 6167,
      "Ne": 6168,
      "Ġ[]": 6169,
      "after": 6170,
      "poses": 6171,
      "oded": 6172,
      "older": 6173,
      "present": 6174,
      "Ġseparate": 6175,
      "DF": 6176,
      "Ġdu": 6177,
      "Ġshot": 6178,
      "setminus": 6179,
      "$_": 6180,
      "ĠFre": 6181,
      "}^{-": 6182,
      "unched": 6183,
      "CR": 6184,
      "ĠOh": 6185,
      "Sl": 6186,
      "ĠHT": 6187,
      "ĠParliament": 6188,
      "Ġstrategy": 6189,
      "icans": 6190,
      "izont": 6191,
      "frame": 6192,
      "elled": 6193,
      "ĠCarolina": 6194,
      "Ġpoor": 6195,
      "Ġreligious": 6196,
      "Ġbal": 6197,
      "ecute": 6198,
      "Ġmatches": 6199,
      "ĠMur": 6200,
      "Ġnetworks": 6201,
      "Ġunivers": 6202,
      "shift": 6203,
      "Ġsquare": 6204,
      "Ġstories": 6205,
      "should": 6206,
      "Ġfactors": 6207,
      "Ġobservations": 6208,
      "sd": 6209,
      "Ġsaying": 6210,
      "prototype": 6211,
      "Ġeasily": 6212,
      "cons": 6213,
      "ewidth": 6214,
      "classes": 6215,
      "ĠDec": 6216,
      "Ġbroadcast": 6217,
      "Ġfix": 6218,
      "styles": 6219,
      "Ġsummer": 6220,
      "attice": 6221,
      "Ġempty": 6222,
      "Ġmanif": 6223,
      "Ġeasy": 6224,
      "iral": 6225,
      ")/": 6226,
      "acement": 6227,
      "Ġgrav": 6228,
      "Ġslight": 6229,
      "Ġcompletely": 6230,
      "models": 6231,
      "require": 6232,
      "Ġmentioned": 6233,
      "Other": 6234,
      "footnote": 6235,
      "1968": 6236,
      "Ġsmooth": 6237,
      "ifically": 6238,
      "hent": 6239,
      "alo": 6240,
      "ĠArray": 6241,
      "ima": 6242,
      "idae": 6243,
      "More": 6244,
      "spect": 6245,
      "Dec": 6246,
      "Ġagent": 6247,
      "Ġbey": 6248,
      "Ġ$|": 6249,
      "Ġpert": 6250,
      "Cache": 6251,
      "Ġcallback": 6252,
      "Ġhyper": 6253,
      "Ġabsol": 6254,
      "Ġcompl": 6255,
      "Ġopening": 6256,
      "Ġresponsible": 6257,
      "etch": 6258,
      "Ġmut": 6259,
      "81": 6260,
      "1973": 6261,
      "Url": 6262,
      "vector": 6263,
      "Width": 6264,
      "osc": 6265,
      "Ġremoved": 6266,
      "deg": 6267,
      "Ġvertex": 6268,
      "ĠOld": 6269,
      "ĠSil": 6270,
      "Ġbranch": 6271,
      "ĠMo": 6272,
      "Ġdead": 6273,
      "Ġnation": 6274,
      "rim": 6275,
      "Ġuseful": 6276,
      "Ġmaster": 6277,
      "iginal": 6278,
      "iano": 6279,
      "gate": 6280,
      "Ġbeyond": 6281,
      "Provider": 6282,
      "Ġdou": 6283,
      "ĠMil": 6284,
      "ĠKn": 6285,
      "ĠAlso": 6286,
      "John": 6287,
      "mann": 6288,
      "Ġfriends": 6289,
      "Port": 6290,
      "Ġchoose": 6291,
      "system": 6292,
      "ws": 6293,
      "Ġended": 6294,
      "Ġ\\(": 6295,
      "ilarly": 6296,
      "ĠPet": 6297,
      "ĠMartin": 6298,
      "Ġincome": 6299,
      "Ġsurvey": 6300,
      "Am": 6301,
      "ATION": 6302,
      "Ġidentified": 6303,
      "tree": 6304,
      "iled": 6305,
      "second": 6306,
      "Ġrelevant": 6307,
      "^{-\\": 6308,
      "Ġamb": 6309,
      "Ġcontribution": 6310,
      "ĠEngine": 6311,
      "Ġlooking": 6312,
      "offset": 6313,
      "conf": 6314,
      "Ġscope": 6315,
      "Access": 6316,
      "EM": 6317,
      "yes": 6318,
      "ĠChief": 6319,
      "DD": 6320,
      "ĠPeople": 6321,
      "Row": 6322,
      "Sy": 6323,
      "El": 6324,
      "Ġque": 6325,
      "typ": 6326,
      "PA": 6327,
      "des": 6328,
      "Ġsinger": 6329,
      "Ġmaps": 6330,
      "Ġdivision": 6331,
      "ucture": 6332,
      "hor": 6333,
      "ĠEr": 6334,
      "Ġfair": 6335,
      "ĠNavy": 6336,
      "fa": 6337,
      "Ġeth": 6338,
      "Ġweeks": 6339,
      "}},": 6340,
      "Ġenj": 6341,
      "sect": 6342,
      "ĠLicense": 6343,
      "eler": 6344,
      "ny": 6345,
      "Ġpolitician": 6346,
      "INE": 6347,
      "ĠFurther": 6348,
      "ĠSaint": 6349,
      "undred": 6350,
      "Ġactor": 6351,
      "Ġjoint": 6352,
      "Ġaspect": 6353,
      "ultural": 6354,
      "ãĥ": 6355,
      "Dev": 6356,
      "Ġprocesses": 6357,
      "wait": 6358,
      "vey": 6359,
      "_.": 6360,
      "ĠGen": 6361,
      "agment": 6362,
      "Ġplane": 6363,
      "ĠOl": 6364,
      "Server": 6365,
      "1000": 6366,
      "********************************": 6367,
      "Ġcard": 6368,
      "uty": 6369,
      "Ġbottom": 6370,
      "orter": 6371,
      "Ġembedd": 6372,
      "Ġdistributed": 6373,
      "}}_{": 6374,
      "ca": 6375,
      "oting": 6376,
      "Ġaffect": 6377,
      "Ġcomparison": 6378,
      "Ġwinning": 6379,
      "Ġcompact": 6380,
      "Ġbounded": 6381,
      "Update": 6382,
      "Ġheavy": 6383,
      "omorphism": 6384,
      "Target": 6385,
      "Ġconflict": 6386,
      "Ġannual": 6387,
      "Ġwait": 6388,
      "Ġreceive": 6389,
      "Ġcarry": 6390,
      "Ġwriters": 6391,
      "Ġdeb": 6392,
      "Ġscored": 6393,
      "Ġexistence": 6394,
      "Ġfavor": 6395,
      "cat": 6396,
      "ĠYoung": 6397,
      "igration": 6398,
      "Ġmicro": 6399,
      "ĠRegister": 6400,
      "ror": 6401,
      "olt": 6402,
      "rolled": 6403,
      "Ġstra": 6404,
      "ĠJoseph": 6405,
      "Ġcos": 6406,
      "osing": 6407,
      "Ġgeneration": 6408,
      "duced": 6409,
      "Ã§": 6410,
      "adow": 6411,
      "Ġprotect": 6412,
      "ĠIslam": 6413,
      "Ġunknown": 6414,
      "Frame": 6415,
      "Ġimprove": 6416,
      "Ġparties": 6417,
      "DO": 6418,
      "amera": 6419,
      "ĠMa": 6420,
      "My": 6421,
      "ĠAwards": 6422,
      "Ġcomputer": 6423,
      "ested": 6424,
      "Ġ!==": 6425,
      "Ġquestions": 6426,
      "pare": 6427,
      "Ġpolynomial": 6428,
      "ĠProject": 6429,
      "Ġbus": 6430,
      "Ġcontrast": 6431,
      "Ġconvert": 6432,
      "Ġscript": 6433,
      "1969": 6434,
      "inant": 6435,
      "vania": 6436,
      "adium": 6437,
      "'),": 6438,
      "Ġexactly": 6439,
      "Ġchief": 6440,
      "Ġbeg": 6441,
      "ĠTim": 6442,
      "QL": 6443,
      "ĠJim": 6444,
      "template": 6445,
      "Ġmoving": 6446,
      "_*": 6447,
      "Ġgoals": 6448,
      "TS": 6449,
      "Ġworkers": 6450,
      "ĠSun": 6451,
      "Ġ($\\": 6452,
      "Ġslow": 6453,
      "ĠDev": 6454,
      "iro": 6455,
      "ellar": 6456,
      "=(": 6457,
      "ĠPac": 6458,
      "osh": 6459,
      "Ġtrying": 6460,
      "Description": 6461,
      "pg": 6462,
      "IA": 6463,
      "icens": 6464,
      "Ġsession": 6465,
      "limits": 6466,
      "ĠColumb": 6467,
      "ali": 6468,
      "uint": 6469,
      "HO": 6470,
      "actor": 6471,
      "ĠFort": 6472,
      "ko": 6473,
      "ĉĠĠĠ": 6474,
      "ĠKar": 6475,
      "Ġharm": 6476,
      "ĠWood": 6477,
      "overnor": 6478,
      "Ġnative": 6479,
      "Types": 6480,
      "1971": 6481,
      "izontal": 6482,
      "arant": 6483,
      "Ġcurve": 6484,
      "Ġchain": 6485,
      "fs": 6486,
      "ocal": 6487,
      "rect": 6488,
      "Des": 6489,
      "Ġscene": 6490,
      "ĠBas": 6491,
      "subfigure": 6492,
      "ja": 6493,
      "wa": 6494,
      "Ġ$[": 6495,
      "Ġarbitr": 6496,
      "ĠRead": 6497,
      "ĠTem": 6498,
      "bel": 6499,
      "Ġfeed": 6500,
      "ĠMax": 6501,
      "ĠAut": 6502,
      "lines": 6503,
      "uri": 6504,
      "ĠSoviet": 6505,
      "range": 6506,
      "Offset": 6507,
      "Ġgoes": 6508,
      "Ġflux": 6509,
      "Ġalleg": 6510,
      "ĠLu": 6511,
      "ĠSpr": 6512,
      "Ġexperiments": 6513,
      "linewidth": 6514,
      "Ġmostly": 6515,
      "Ġgetting": 6516,
      "Ġrates": 6517,
      "Ġformation": 6518,
      "_+": 6519,
      "irmed": 6520,
      "Ġbul": 6521,
      "akers": 6522,
      "inate": 6523,
      "Results": 6524,
      "Early": 6525,
      "hemat": 6526,
      "Ġserve": 6527,
      "Ġsynt": 6528,
      "returns": 6529,
      "definition": 6530,
      "chers": 6531,
      "RL": 6532,
      "ĠNS": 6533,
      "common": 6534,
      "Right": 6535,
      "Ġcarried": 6536,
      "ĠJo": 6537,
      "Ġtag": 6538,
      "Ġplans": 6539,
      ")|": 6540,
      "syl": 6541,
      "Ġofficer": 6542,
      "KE": 6543,
      "iant": 6544,
      "yan": 6545,
      "MC": 6546,
      "ĠIII": 6547,
      "kit": 6548,
      "Ġplot": 6549,
      "ĠHaw": 6550,
      "Ġgreen": 6551,
      "Ġfoot": 6552,
      "nam": 6553,
      "Ġlived": 6554,
      "Current": 6555,
      "Ġitems": 6556,
      "Ġresolution": 6557,
      "usband": 6558,
      "Ġsend": 6559,
      "Ġterrit": 6560,
      "Ġuint": 6561,
      "pop": 6562,
      "Ġreduce": 6563,
      "ĠLee": 6564,
      "1940": 6565,
      "Ġconstructed": 6566,
      "bas": 6567,
      "\\\\\\\\\\\\\\\\\\\\\\\\\\\\\\\\": 6568,
      "itation": 6569,
      "ansas": 6570,
      "enty": 6571,
      "Ġdistinct": 6572,
      "Ġcapacity": 6573,
      "Ġ**": 6574,
      "dagger": 6575,
      "inations": 6576,
      "ĠLine": 6577,
      "Ġserious": 6578,
      "uations": 6579,
      "Ġturned": 6580,
      "kl": 6581,
      "iminal": 6582,
      "_{(": 6583,
      "Ġdynamics": 6584,
      "Ġformula": 6585,
      "Ġedition": 6586,
      "Ġalt": 6587,
      "ensions": 6588,
      "Ġpriv": 6589,
      "During": 6590,
      "stein": 6591,
      "Ġhandle": 6592,
      "while": 6593,
      "Ġproviding": 6594,
      "riptor": 6595,
      "ĠChild": 6596,
      "Ġmusical": 6597,
      "Ġproceed": 6598,
      "Ġscatter": 6599,
      "Ġsteps": 6600,
      "areer": 6601,
      "Person": 6602,
      "Ġquarter": 6603,
      "parse": 6604,
      "Ġparticles": 6605,
      "Ġsenior": 6606,
      "agraph": 6607,
      "ĠĠĠĠĠĠĠĠĠĠĠĠĠĠĠĠĠĠĠĠĠ": 6608,
      "Ġbasketball": 6609,
      "---": 6610,
      "ĠPan": 6611,
      "Local": 6612,
      "Ġconcent": 6613,
      "Ġshared": 6614,
      "*{": 6615,
      "CODE": 6616,
      "ropy": 6617,
      "airman": 6618,
      "Ġfarm": 6619,
      "Direct": 6620,
      "root": 6621,
      "Ġleaders": 6622,
      "Ġking": 6623,
      "ĠIrish": 6624,
      "inder": 6625,
      "atically": 6626,
      "Ġreferred": 6627,
      "\\}": 6628,
      "Ġsplit": 6629,
      "Ġdiagram": 6630,
      "Ġswitch": 6631,
      "ĠTop": 6632,
      "Here": 6633,
      "1967": 6634,
      "Ġstrict": 6635,
      "aved": 6636,
      "Ġnewsp": 6637,
      "ictionary": 6638,
      "Control": 6639,
      "Ġgenerate": 6640,
      "ĠWeb": 6641,
      "Ġpolar": 6642,
      "Location": 6643,
      "Ġbattle": 6644,
      "haps": 6645,
      "Ġsimpl": 6646,
      "Further": 6647,
      "ĠJewish": 6648,
      "Ġsister": 6649,
      "ture": 6650,
      "ĠBi": 6651,
      "Ġefforts": 6652,
      "Ġparticle": 6653,
      "rot": 6654,
      "Ġgiving": 6655,
      "Ġlif": 6656,
      "ĠEarth": 6657,
      "apped": 6658,
      "Ġmurder": 6659,
      "ĉĉĊ": 6660,
      "Ġtournament": 6661,
      "wedge": 6662,
      "Po": 6663,
      "Ġstraight": 6664,
      "Ġargs": 6665,
      "Ġnumerous": 6666,
      "Ġisland": 6667,
      "Ġarchitecture": 6668,
      "API": 6669,
      "1930": 6670,
      "Ġraised": 6671,
      "wan": 6672,
      "Ġpositions": 6673,
      "heast": 6674,
      "Ġestablishments": 6675,
      "ĠWales": 6676,
      "Ġorganizations": 6677,
      "Ġcoast": 6678,
      "bool": 6679,
      "Ġoffset": 6680,
      "However": 6681,
      "Ġgauge": 6682,
      "Notes": 6683,
      "ART": 6684,
      "itan": 6685,
      "Entity": 6686,
      "ĠCivil": 6687,
      "Entry": 6688,
      "ugby": 6689,
      "Äģ": 6690,
      "Ġanything": 6691,
      "Ġdemand": 6692,
      "Ġshowed": 6693,
      "1945": 6694,
      "ĠNetwork": 6695,
      "sylvania": 6696,
      "inet": 6697,
      "1964": 6698,
      "Ġconsistent": 6699,
      "rich": 6700,
      "ĠBob": 6701,
      "Pop": 6702,
      "Ġintegr": 6703,
      ":\\": 6704,
      "ressed": 6705,
      "Container": 6706,
      "match": 6707,
      "ounds": 6708,
      "Ġolder": 6709,
      "Our": 6710,
      "itors": 6711,
      "gypt": 6712,
      "drop": 6713,
      "Pat": 6714,
      "ometric": 6715,
      "seud": 6716,
      ":\"": 6717,
      "poration": 6718,
      "ĠDevelopment": 6719,
      "Ġcommission": 6720,
      "Ġattended": 6721,
      "ĠBrazil": 6722,
      "UM": 6723,
      "Ġletter": 6724,
      "imary": 6725,
      "aml": 6726,
      "ĠLibrary": 6727,
      "esh": 6728,
      "hesis": 6729,
      "ĠBritain": 6730,
      "anguages": 6731,
      "ifications": 6732,
      "atalog": 6733,
      "Ġlaunched": 6734,
      "ati": 6735,
      "Art": 6736,
      "Ġarrest": 6737,
      "arc": 6738,
      "vest": 6739,
      "Ġvisual": 6740,
      "icine": 6741,
      "ĠKh": 6742,
      "lie": 6743,
      "oplus": 6744,
      "Ġforced": 6745,
      "lig": 6746,
      "atial": 6747,
      "ĠUN": 6748,
      "Ġmeasured": 6749,
      "Ġhelped": 6750,
      "irls": 6751,
      "colon": 6752,
      "apse": 6753,
      "sur": 6754,
      "Ġsymmetry": 6755,
      "ĠDom": 6756,
      "del": 6757,
      "ifies": 6758,
      "=\"../../../../../": 6759,
      "ĠNorthern": 6760,
      "ulty": 6761,
      "ĠLove": 6762,
      "udget": 6763,
      "Ġcorn": 6764,
      "Ġwind": 6765,
      "white": 6766,
      "Ġbecoming": 6767,
      "document": 6768,
      "Ġspread": 6769,
      "ĠSir": 6770,
      "Ġdepartment": 6771,
      ".[": 6772,
      "]);": 6773,
      "ĠTour": 6774,
      "Ev": 6775,
      "Ġstudio": 6776,
      "Ġpolic": 6777,
      "Acc": 6778,
      "aver": 6779,
      "While": 6780,
      "aligned": 6781,
      "eve": 6782,
      "DS": 6783,
      "Ġactress": 6784,
      "=-": 6785,
      "imation": 6786,
      "Ġimplementation": 6787,
      "Ġdeliver": 6788,
      "mond": 6789,
      "utils": 6790,
      "ĠSecretary": 6791,
      "Ġhistorical": 6792,
      "secut": 6793,
      "standing": 6794,
      "Ġwatch": 6795,
      "ĠLord": 6796,
      "Ġlibrary": 6797,
      "Ġdespite": 6798,
      "Ġminister": 6799,
      "Ġcompute": 6800,
      "Ġcentre": 6801,
      "Do": 6802,
      "Ġinform": 6803,
      "ipality": 6804,
      "'\\": 6805,
      "Header": 6806,
      "ĠWal": 6807,
      "ĠHot": 6808,
      "oston": 6809,
      "Ġextract": 6810,
      "ĠStep": 6811,
      "Ġspaces": 6812,
      "Ġassign": 6813,
      "Ġdepends": 6814,
      "orney": 6815,
      "DA": 6816,
      "Tree": 6817,
      "()->": 6818,
      "ĠApp": 6819,
      "raq": 6820,
      "icks": 6821,
      "artifact": 6822,
      "istance": 6823,
      "Ġriver": 6824,
      "osoph": 6825,
      "Ġlen": 6826,
      "ivial": 6827,
      "ĠCre": 6828,
      "SO": 6829,
      "ollary": 6830,
      "),\\": 6831,
      "Ġgalaxies": 6832,
      "Ġauthors": 6833,
      "Ġsomeone": 6834,
      "Ġradius": 6835,
      "Ġformal": 6836,
      "à¤": 6837,
      "ategories": 6838,
      "Ġappearance": 6839,
      "ootstr": 6840,
      "Ġcombined": 6841,
      "Script": 6842,
      "Ġprocedure": 6843,
      "1965": 6844,
      "Ġsouthern": 6845,
      "Interface": 6846,
      "Rev": 6847,
      "Ġproducer": 6848,
      "Ġcontributions": 6849,
      "Ġcells": 6850,
      "tains": 6851,
      "Ġfloat": 6852,
      "Ġoptimal": 6853,
      "Ġshoot": 6854,
      "Ġpaint": 6855,
      "Ġemission": 6856,
      "ĠST": 6857,
      "=\"-": 6858,
      "Me": 6859,
      "%;": 6860,
      "entity": 6861,
      "asure": 6862,
      "Ġiniti": 6863,
      "ĉĉĉĉĉĉĉ": 6864,
      "alysis": 6865,
      "ĠFile": 6866,
      "Ġpoet": 6867,
      "ĠChampionships": 6868,
      "ĠHead": 6869,
      "bigg": 6870,
      "Ġhar": 6871,
      "ĠValley": 6872,
      "BO": 6873,
      "ĠEmpire": 6874,
      "ĠJac": 6875,
      "Ġunderstanding": 6876,
      "Ġnorthern": 6877,
      "cknow": 6878,
      "Ġsignificantly": 6879,
      "Ġconstraints": 6880,
      "ĠEach": 6881,
      "ĠFri": 6882,
      "ĠHuman": 6883,
      "1966": 6884,
      "Ġdiss": 6885,
      "ĠSund": 6886,
      "enth": 6887,
      "parameter": 6888,
      "English": 6889,
      "contin": 6890,
      "Ġinitially": 6891,
      "Ġreflect": 6892,
      "WE": 6893,
      "Utils": 6894,
      "Ġ{}": 6895,
      "resource": 6896,
      "Ġcert": 6897,
      "amental": 6898,
      "Ġapproximation": 6899,
      "iciency": 6900,
      "Ġappropriate": 6901,
      "Ġexperimental": 6902,
      "Ġpurs": 6903,
      "Ġquickly": 6904,
      "Gl": 6905,
      "Ġhusband": 6906,
      "ĠAsia": 6907,
      "Ġvs": 6908,
      "ãĤ": 6909,
      "Ġâ": 6910,
      "Ġwood": 6911,
      "Configuration": 6912,
      "Ġbuffer": 6913,
      "control": 6914,
      "ĠJes": 6915,
      "dest": 6916,
      "ĠUkr": 6917,
      "Ġentered": 6918,
      "Ġoil": 6919,
      "uer": 6920,
      "Ġencour": 6921,
      "uce": 6922,
      "Ġuniversity": 6923,
      "ĠMen": 6924,
      "device": 6925,
      "images": 6926,
      "ridge": 6927,
      "scal": 6928,
      "unct": 6929,
      "Ġnet": 6930,
      "Ġ}\\": 6931,
      "va": 6932,
      "Write": 6933,
      "Ġtherm": 6934,
      "Ġbillion": 6935,
      "ACK": 6936,
      "Ġenter": 6937,
      "ĠLin": 6938,
      "Ġjoin": 6939,
      "Ġmachine": 6940,
      "Ġraise": 6941,
      ")\\,": 6942,
      "success": 6943,
      "LP": 6944,
      "Non": 6945,
      "Ġrelatively": 6946,
      "yer": 6947,
      "card": 6948,
      "Ġclust": 6949,
      "Ġvertices": 6950,
      "Ġseasons": 6951,
      "Ġinteger": 6952,
      "cache": 6953,
      "bu": 6954,
      "Ġowned": 6955,
      "gorithms": 6956,
      "Ġsector": 6957,
      "pton": 6958,
      "ZE": 6959,
      "150": 6960,
      "Ġtypically": 6961,
      "ĠCross": 6962,
      "orning": 6963,
      "Ġhope": 6964,
      "Mult": 6965,
      "room": 6966,
      "Ġinner": 6967,
      "Ġenjoy": 6968,
      "ĠDemocratic": 6969,
      "ĠGal": 6970,
      "ĠTheir": 6971,
      "buffer": 6972,
      "Ġmeasures": 6973,
      "zero": 6974,
      "Ġfirm": 6975,
      "ket": 6976,
      "ĠGreek": 6977,
      "Ġpoll": 6978,
      "TED": 6979,
      "Ġstrateg": 6980,
      "Ġmixed": 6981,
      "Ġxml": 6982,
      "ĠBre": 6983,
      "Ġaccuracy": 6984,
      "ĠHence": 6985,
      "Ġbill": 6986,
      "ador": 6987,
      "ctx": 6988,
      "Ġadvant": 6989,
      "1920": 6990,
      "high": 6991,
      "Open": 6992,
      "Ġreports": 6993,
      "Ġcultural": 6994,
      "Ġadministration": 6995,
      "pers": 6996,
      "urban": 6997,
      "ĠTeam": 6998,
      "Ġflag": 6999,
      "ĠPak": 7000,
      "direct": 7001,
      "ĠPennsylvania": 7002,
      "Ġdiscussion": 7003,
      "ĠSouthern": 7004,
      "oday": 7005,
      "iÄ": 7006,
      "Font": 7007,
      "Ġedges": 7008,
      "Ġclean": 7009,
      "legal": 7010,
      "Process": 7011,
      "ĠSenate": 7012,
      "\"))": 7013,
      "hem": 7014,
      "Ġcounty": 7015,
      "coming": 7016,
      "'m": 7017,
      "Ġmill": 7018,
      "ĠLie": 7019,
      "Ð°Ð": 7020,
      "roduction": 7021,
      "Ġelections": 7022,
      "Ġsites": 7023,
      "endar": 7024,
      "Ġmagazine": 7025,
      "ĠReview": 7026,
      ";->": 7027,
      "ĠPy": 7028,
      "_{{\\": 7029,
      "DP": 7030,
      "Search": 7031,
      "Ġtraff": 7032,
      "ĠSpain": 7033,
      "Ġtrial": 7034,
      "ĠLi": 7035,
      "Ġ${": 7036,
      "ĠSpe": 7037,
      "rick": 7038,
      "Ġpp": 7039,
      "Ġ$-": 7040,
      "mode": 7041,
      "Don": 7042,
      "ilation": 7043,
      "NE": 7044,
      "Op": 7045,
      "annels": 7046,
      "Height": 7047,
      "ĠBusiness": 7048,
      "Range": 7049,
      "Module": 7050,
      "ootstrap": 7051,
      "dule": 7052,
      "Ġsatisfies": 7053,
      "ĠEqu": 7054,
      "ira": 7055,
      "Ac": 7056,
      "named": 7057,
      "Ġthous": 7058,
      "ova": 7059,
      "Red": 7060,
      "Ġfamous": 7061,
      "Ġdisease": 7062,
      "TI": 7063,
      "Ġnuclear": 7064,
      "ĠMov": 7065,
      "ĠJohnson": 7066,
      "icity": 7067,
      "Window": 7068,
      "Ġclaimed": 7069,
      "Ġcities": 7070,
      "aser": 7071,
      "Ġsea": 7072,
      "alg": 7073,
      "Ġmomentum": 7074,
      "aters": 7075,
      "Json": 7076,
      "ĠMoreover": 7077,
      "emporary": 7078,
      "ĠProposition": 7079,
      "\\'": 7080,
      "ĠReturns": 7081,
      "Ġassess": 7082,
      "erry": 7083,
      "textsc": 7084,
      "ĠGood": 7085,
      "adr": 7086,
      "Ġmainly": 7087,
      "Ġvocals": 7088,
      "step": 7089,
      "Ġreform": 7090,
      "eller": 7091,
      "Ġattract": 7092,
      "ĠOp": 7093,
      "claim": 7094,
      "ums": 7095,
      "Ġdual": 7096,
      "Ġtechniques": 7097,
      "ĠShow": 7098,
      "Http": 7099,
      "IGN": 7100,
      "ru": 7101,
      "Ġnumerical": 7102,
      "Ġcouple": 7103,
      "sto": 7104,
      "Ġofficers": 7105,
      "Ġpropag": 7106,
      "ĠRet": 7107,
      "Ġcovered": 7108,
      "Params": 7109,
      "eries": 7110,
      "Ġhundred": 7111,
      "ĠColor": 7112,
      "posite": 7113,
      "_{-": 7114,
      "Level": 7115,
      "Ġperturb": 7116,
      "ĠEconom": 7117,
      "Ġtrust": 7118,
      "Ġsegment": 7119,
      "aval": 7120,
      "ologies": 7121,
      "iffer": 7122,
      "Ġarm": 7123,
      "ĠUSA": 7124,
      "Ġhop": 7125,
      "Ġworth": 7126,
      "Ġcircle": 7127,
      "ĠCentre": 7128,
      "According": 7129,
      "ĠMany": 7130,
      "RI": 7131,
      "faces": 7132,
      "Stat": 7133,
      "cean": 7134,
      "ĠCamb": 7135,
      "Ġnine": 7136,
      "Ġtests": 7137,
      "Ġexpressed": 7138,
      "Record": 7139,
      "PL": 7140,
      "elligence": 7141,
      "sv": 7142,
      "icients": 7143,
      "ampion": 7144,
      "Ġcombination": 7145,
      "stra": 7146,
      "Ġfreedom": 7147,
      "Hash": 7148,
      "Ġexchange": 7149,
      "Ġmeasurements": 7150,
      "Project": 7151,
      "ancing": 7152,
      "Empty": 7153,
      "cases": 7154,
      "Ġangle": 7155,
      "Ġran": 7156,
      "FO": 7157,
      "ĠMiddle": 7158,
      "ĠTre": 7159,
      "Ġchampionship": 7160,
      "Ġsal": 7161,
      "Ġeverything": 7162,
      "ĠGener": 7163,
      "aria": 7164,
      "Ġcoupling": 7165,
      "Ġarmy": 7166,
      "ĠJustice": 7167,
      "perp": 7168,
      "Ġextrem": 7169,
      "Ġcalculated": 7170,
      "imer": 7171,
      "unior": 7172,
      "ĠCam": 7173,
      "Unit": 7174,
      "Mat": 7175,
      "255": 7176,
      "Ġcorresponds": 7177,
      "Ġpatients": 7178,
      "rical": 7179,
      "Ġopportunity": 7180,
      "shot": 7181,
      "Ġcitizens": 7182,
      "token": 7183,
      "ĠInst": 7184,
      "Dir": 7185,
      "Ġinequality": 7186,
      "Ġthr": 7187,
      "ĠMap": 7188,
      "Ġtensor": 7189,
      "matrix": 7190,
      "ĠHistoric": 7191,
      "Ġoffered": 7192,
      "etts": 7193,
      "Ġleaving": 7194,
      "ĠSar": 7195,
      "}}(\\": 7196,
      "bal": 7197,
      "Ġtemplate": 7198,
      "Order": 7199,
      "Ġfraction": 7200,
      "Callback": 7201,
      "MO": 7202,
      "Ġassumed": 7203,
      "ĠConference": 7204,
      "Ġintegral": 7205,
      "cript": 7206,
      "Ġclassification": 7207,
      "'_": 7208,
      "Ġspectral": 7209,
      "itness": 7210,
      "Åį": 7211,
      "Car": 7212,
      "power": 7213,
      "law": 7214,
      "ĠMichigan": 7215,
      "Ġpi": 7216,
      "Ġimag": 7217,
      "}%": 7218,
      "ests": 7219,
      "Ġcreating": 7220,
      "Dat": 7221,
      "tml": 7222,
      "Ġexternal": 7223,
      "Ġ>=": 7224,
      "inf": 7225,
      "ĠIraq": 7226,
      "sor": 7227,
      "artifactId": 7228,
      "Ġdraft": 7229,
      "Ġ|\\": 7230,
      "Ġreasons": 7231,
      "SH": 7232,
      "These": 7233,
      "SL": 7234,
      ">,": 7235,
      "Ġincreases": 7236,
      "ĠEgypt": 7237,
      "kins": 7238,
      "astr": 7239,
      "Ġprice": 7240,
      "Ġcolon": 7241,
      "Ġgrowing": 7242,
      "Ġpiece": 7243,
      "Ġtouch": 7244,
      "ĠKey": 7245,
      "Ġattribute": 7246,
      "Ġclearly": 7247,
      "ĠJones": 7248,
      "Ġrailway": 7249,
      "uls": 7250,
      "lers": 7251,
      "aylor": 7252,
      "Position": 7253,
      "Ġenh": 7254,
      "Ġcat": 7255,
      "ĠOhio": 7256,
      "bury": 7257,
      "'.": 7258,
      "Year": 7259,
      "ibli": 7260,
      "arden": 7261,
      "ĠDE": 7262,
      "achus": 7263,
      "Ġassumption": 7264,
      "Ġdatabase": 7265,
      "ĠProvince": 7266,
      "Ġvoice": 7267,
      "inois": 7268,
      "Ġdepth": 7269,
      "atriate": 7270,
      "window": 7271,
      "Ġring": 7272,
      "Ġpoly": 7273,
      "ga": 7274,
      "Ġminim": 7275,
      "etween": 7276,
      "Ġperfect": 7277,
      "ĉĠ": 7278,
      "car": 7279,
      "aka": 7280,
      "IST": 7281,
      "Ġcalls": 7282,
      "ĠOx": 7283,
      "ĠPacific": 7284,
      "mitted": 7285,
      "Ġbelieved": 7286,
      "Ġpull": 7287,
      "structor": 7288,
      "Ġclaims": 7289,
      "None": 7290,
      "anging": 7291,
      "hom": 7292,
      "ĠElect": 7293,
      "ĠWilliams": 7294,
      "Ġdetection": 7295,
      "Ġapproaches": 7296,
      "asy": 7297,
      "Members": 7298,
      "Ġfailure": 7299,
      "Ġregime": 7300,
      "Ġsimulations": 7301,
      "~~~~": 7302,
      "Ġ*)": 7303,
      "ographic": 7304,
      "Ġspirit": 7305,
      "=\"../../../../../../": 7306,
      "Ġpairs": 7307,
      "COLOR": 7308,
      "ĠStat": 7309,
      "\"));": 7310,
      "Long": 7311,
      "Ġmolec": 7312,
      "Ġcreation": 7313,
      "Cal": 7314,
      "PT": 7315,
      "Ġstrength": 7316,
      "auth": 7317,
      "Ġlattice": 7318,
      "Ġclimate": 7319,
      "1963": 7320,
      "ĠSong": 7321,
      "Ġdecay": 7322,
      "Operation": 7323,
      "modal": 7324,
      "subsubsection": 7325,
      ",\\,": 7326,
      "MD": 7327,
      "Ġexecutive": 7328,
      "equal": 7329,
      "Ġ::": 7330,
      "Thread": 7331,
      "Ġonto": 7332,
      "ĠBoth": 7333,
      "Left": 7334,
      "Ġordered": 7335,
      "Ġsampl": 7336,
      "1962": 7337,
      "Copy": 7338,
      "uly": 7339,
      "Ġserving": 7340,
      "ĠTele": 7341,
      "ĠWell": 7342,
      "ĠRadio": 7343,
      "address": 7344,
      "Ġsemi": 7345,
      "ĠJersey": 7346,
      "Ġgets": 7347,
      "hash": 7348,
      "ĠBo": 7349,
      "Ġli": 7350,
      "ĠSupreme": 7351,
      "Ġcontained": 7352,
      "Ġcensus": 7353,
      "Ġachieved": 7354,
      "transform": 7355,
      "ĠRun": 7356,
      "Ġdetail": 7357,
      "ĠCreate": 7358,
      "uries": 7359,
      "kind": 7360,
      "Sing": 7361,
      "Inst": 7362,
      "Ġpadding": 7363,
      "Ġpropos": 7364,
      "Ġslightly": 7365,
      "Ġamplit": 7366,
      "Ġproved": 7367,
      "ĠFederal": 7368,
      "cp": 7369,
      "inion": 7370,
      "Ġvictory": 7371,
      "Ġliber": 7372,
      "Ġwrong": 7373,
      "Ġrespond": 7374,
      "Eq": 7375,
      "ĠBattle": 7376,
      "ĠĠĠĠĠĠĠĠĠĠĠĠĠĠĠĠĠĠĠĠ": 7377,
      "ependence": 7378,
      "global": 7379,
      "Ġalternative": 7380,
      "():": 7381,
      "ĠUr": 7382,
      ":(": 7383,
      "Ġidentify": 7384,
      "ĠFrancisco": 7385,
      "Ġforest": 7386,
      "ĠCall": 7387,
      "Ġincorpor": 7388,
      "\",\"": 7389,
      "Ġmaterials": 7390,
      "ĠRE": 7391,
      "ĠÂ£": 7392,
      "ĠCarl": 7393,
      "Go": 7394,
      "wer": 7395,
      "Ġut": 7396,
      "ĠSpecial": 7397,
      "neg": 7398,
      "Ġofficials": 7399,
      "Ġpil": 7400,
      "Ġalone": 7401,
      "imensions": 7402,
      "Ġrail": 7403,
      "Ġrise": 7404,
      "'ve": 7405,
      "Ġdefeated": 7406,
      "Ġblood": 7407,
      "xx": 7408,
      "Ġstable": 7409,
      "Ġissued": 7410,
      "ims": 7411,
      "results": 7412,
      "Ġlies": 7413,
      "ograp": 7414,
      "ĠAssert": 7415,
      "Ġbeaut": 7416,
      "Ġdiscovered": 7417,
      "Ġfelt": 7418,
      "itionally": 7419,
      "ĠMuslim": 7420,
      "sear": 7421,
      "Ġlock": 7422,
      "ela": 7423,
      "ĠScotland": 7424,
      "IB": 7425,
      "120": 7426,
      "ĠAff": 7427,
      "groupId": 7428,
      "chen": 7429,
      "leep": 7430,
      "Ġrac": 7431,
      "Ġpromin": 7432,
      "Ġassigned": 7433,
      "front": 7434,
      "Ġrapid": 7435,
      "ĠBoston": 7436,
      "icrosoft": 7437,
      "abeth": 7438,
      "adel": 7439,
      "Ġfilename": 7440,
      "Ġsettings": 7441,
      "ĠMedia": 7442,
      "ĠRam": 7443,
      "sky": 7444,
      "ĠLab": 7445,
      "Career": 7446,
      "render": 7447,
      "achusetts": 7448,
      "Ġloop": 7449,
      "Ġsexual": 7450,
      "itage": 7451,
      "asi": 7452,
      "Dom": 7453,
      "ynchron": 7454,
      "Ġuncertain": 7455,
      "Ġoffers": 7456,
      "pool": 7457,
      "ĠGi": 7458,
      "iced": 7459,
      "afe": 7460,
      "ĠRepresent": 7461,
      "burgh": 7462,
      "Ġinfr": 7463,
      "ĠBul": 7464,
      "Sw": 7465,
      "cut": 7466,
      "Ġmarriage": 7467,
      "Ġscalar": 7468,
      "stylesheet": 7469,
      "before": 7470,
      "Ġprefer": 7471,
      "ĠWay": 7472,
      "Ġsettlement": 7473,
      "ĠEnter": 7474,
      "enant": 7475,
      "Ġflat": 7476,
      "Pass": 7477,
      "bell": 7478,
      "forall": 7479,
      "rome": 7480,
      "ĠMP": 7481,
      "Settings": 7482,
      "ĠQueen": 7483,
      "make": 7484,
      "XX": 7485,
      "Ġsurpr": 7486,
      "Ġleadership": 7487,
      "Ġdrama": 7488,
      "Ġhospital": 7489,
      "Ġregional": 7490,
      "Ġoccurs": 7491,
      "Ġefficient": 7492,
      "1961": 7493,
      "Ġtasks": 7494,
      "Ġmanaged": 7495,
      "Ġsimulation": 7496,
      "ĠProfessor": 7497,
      "ynamic": 7498,
      "ĠGeorgia": 7499,
      "Ġtrained": 7500,
      "ji": 7501,
      "Ġadult": 7502,
      ")}(": 7503,
      "Ġconducted": 7504,
      "Ġprofessor": 7505,
      "Ġorient": 7506,
      "ariable": 7507,
      "Section": 7508,
      "TC": 7509,
      "Que": 7510,
      "ennis": 7511,
      "DL": 7512,
      "Option": 7513,
      "Ġsuc": 7514,
      "Sum": 7515,
      "icker": 7516,
      "Ġhash": 7517,
      "ighter": 7518,
      "Ġachieve": 7519,
      "fri": 7520,
      "Ġagreed": 7521,
      "Ġbinary": 7522,
      "Films": 7523,
      "Ġreject": 7524,
      "Serial": 7525,
      "conn": 7526,
      "Ġmuseum": 7527,
      "Ag": 7528,
      "border": 7529,
      "elli": 7530,
      "Sign": 7531,
      "Ġtesting": 7532,
      "awa": 7533,
      "ĠHome": 7534,
      "debug": 7535,
      "ĠBern": 7536,
      "access": 7537,
      "Ġexc": 7538,
      "ĠPubl": 7539,
      "ogene": 7540,
      "ĠAcc": 7541,
      "Ġpartial": 7542,
      "Ġactors": 7543,
      "witter": 7544,
      "Dep": 7545,
      "Ġrare": 7546,
      "onym": 7547,
      "TER": 7548,
      "Ġcloud": 7549,
      "Ġcompare": 7550,
      "phas": 7551,
      "Ġdigital": 7552,
      "ĠHor": 7553,
      "Change": 7554,
      "ĠCheck": 7555,
      "Ġadopted": 7556,
      "................": 7557,
      ")_{": 7558,
      "Ġanalyt": 7559,
      "ĠGoogle": 7560,
      "Ġeconomy": 7561,
      "Ġsafety": 7562,
      "ĠKent": 7563,
      "ĠAsian": 7564,
      "Ġpure": 7565,
      "plex": 7566,
      "Ġice": 7567,
      "bullet": 7568,
      "Ġ{};": 7569,
      "Ġstrugg": 7570,
      "Collection": 7571,
      "ĠSte": 7572,
      "Document": 7573,
      "stat": 7574,
      "emic": 7575,
      "Ġintroduce": 7576,
      "Ġanswer": 7577,
      "Ġowner": 7578,
      "Ġseat": 7579,
      "mi": 7580,
      "ĠSand": 7581,
      "Ġdifferences": 7582,
      "Ġfine": 7583,
      "ĠMajor": 7584,
      "Ġparallel": 7585,
      "rices": 7586,
      "Ġtor": 7587,
      "cf": 7588,
      "1944": 7589,
      "aret": 7590,
      "Ġshowing": 7591,
      "Ġsucceed": 7592,
      "rawn": 7593,
      "ĠEp": 7594,
      "Ġparams": 7595,
      "Ġ+\\": 7596,
      "ĠRh": 7597,
      "ĠWall": 7598,
      "Enc": 7599,
      "Ġcycle": 7600,
      "bind": 7601,
      "Ġinterested": 7602,
      "{$\\": 7603,
      "ĠOR": 7604,
      "bre": 7605,
      "ĠStand": 7606,
      "Ġacademic": 7607,
      "Ġsave": 7608,
      "ĠTra": 7609,
      "Ġdistingu": 7610,
      "Mark": 7611,
      "Ġcoefficients": 7612,
      "Ġstock": 7613,
      "Ġdecom": 7614,
      "Ġresidents": 7615,
      "aped": 7616,
      "obs": 7617,
      "ĠTro": 7618,
      "Ġrecall": 7619,
      "Ġalgorithms": 7620,
      "Di": 7621,
      "Ġcouncil": 7622,
      "olume": 7623,
      "ĠAmericans": 7624,
      "going": 7625,
      "Ġelim": 7626,
      "Ġcosts": 7627,
      "je": 7628,
      "multi": 7629,
      "Ġoperating": 7630,
      "plement": 7631,
      "ĠPop": 7632,
      "ĠEdward": 7633,
      "Ġwall": 7634,
      "DIR": 7635,
      "PECT": 7636,
      "Ġcomposed": 7637,
      "ĠBow": 7638,
      "Ġarbitrary": 7639,
      "Ġpaid": 7640,
      "ione": 7641,
      "}$-": 7642,
      "rium": 7643,
      "mut": 7644,
      "Ġcomputed": 7645,
      "rid": 7646,
      "ĠJr": 7647,
      "ĠIllinois": 7648,
      "ila": 7649,
      "Ġstatistics": 7650,
      "udes": 7651,
      ")^{\\": 7652,
      "Connection": 7653,
      "Ġguarant": 7654,
      "ployment": 7655,
      "uing": 7656,
      "Ġcancer": 7657,
      "oir": 7658,
      "Ġpackage": 7659,
      "ĠUs": 7660,
      "Prot": 7661,
      "Ġimportance": 7662,
      "GE": 7663,
      "Ġfle": 7664,
      "Ġcommunication": 7665,
      "\\_": 7666,
      "docs": 7667,
      "ĠGame": 7668,
      "poss": 7669,
      "ĠSol": 7670,
      "Ġrecording": 7671,
      "Ġattacks": 7672,
      "Ġsections": 7673,
      "Ġarticles": 7674,
      "Ġbehavi": 7675,
      "Ġoverl": 7676,
      "Properties": 7677,
      "Ġintended": 7678,
      "Ġdetailed": 7679,
      "Ġdisk": 7680,
      "ugins": 7681,
      "coll": 7682,
      "ĠTheatre": 7683,
      "Ġresear": 7684,
      "ĠKong": 7685,
      "blue": 7686,
      "Integer": 7687,
      "ĠMethod": 7688,
      "pmatrix": 7689,
      "Ġnotice": 7690,
      "ĠCro": 7691,
      "Ġthreshold": 7692,
      "ĠTechnology": 7693,
      "internal": 7694,
      "Ġsingles": 7695,
      "Ġrestrict": 7696,
      "aya": 7697,
      "ĠEastern": 7698,
      "ĠPoint": 7699,
      "bits": 7700,
      "Ġideas": 7701,
      "Ġwestern": 7702,
      "iday": 7703,
      "anks": 7704,
      "Ġtheoret": 7705,
      "ingham": 7706,
      "Ġlabor": 7707,
      "pective": 7708,
      "Ġvary": 7709,
      "ĠMassachusetts": 7710,
      "Ġthread": 7711,
      "abil": 7712,
      "ĠModel": 7713,
      "Ġtruth": 7714,
      "ĠKorea": 7715,
      "gest": 7716,
      "Ġobvious": 7717,
      "rons": 7718,
      "ĠVan": 7719,
      "La": 7720,
      "anche": 7721,
      "Ġintr": 7722,
      "Ġtracks": 7723,
      "sort": 7724,
      "Ġweap": 7725,
      "las": 7726,
      "Ġindicates": 7727,
      "Each": 7728,
      "Med": 7729,
      "Ðº": 7730,
      "Ġinstitutions": 7731,
      "ĠServices": 7732,
      "istical": 7733,
      "Ġestimates": 7734,
      "Down": 7735,
      "ULT": 7736,
      "ĠException": 7737,
      "iy": 7738,
      "phy": 7739,
      "Ġaccepted": 7740,
      "Ptr": 7741,
      "emy": 7742,
      "uous": 7743,
      "Ġdenotes": 7744,
      "fields": 7745,
      "eli": 7746,
      "onto": 7747,
      "lets": 7748,
      "Ġdelay": 7749,
      "ĠBG": 7750,
      "Ġpsych": 7751,
      "ĠManagement": 7752,
      "oved": 7753,
      "henomen": 7754,
      "rine": 7755,
      "RC": 7756,
      "tn": 7757,
      "ashion": 7758,
      "Ġaxis": 7759,
      "Ġcorrelation": 7760,
      "Ġult": 7761,
      "writer": 7762,
      "ixel": 7763,
      "Ġtoken": 7764,
      "Ġbatt": 7765,
      "har": 7766,
      "send": 7767,
      "Ġple": 7768,
      "odies": 7769,
      "estic": 7770,
      "GET": 7771,
      "ĠTrue": 7772,
      "Will": 7773,
      "Ġsqu": 7774,
      "ĠRepublican": 7775,
      "ĠCard": 7776,
      "Ġstrongly": 7777,
      "types": 7778,
      "ĠLy": 7779,
      "miss": 7780,
      "gg": 7781,
      "ĠBlue": 7782,
      "ĠPlan": 7783,
      "Ġpolicies": 7784,
      "iate": 7785,
      "uple": 7786,
      "Ġoverride": 7787,
      "Ġecho": 7788,
      "Ġnam": 7789,
      "Ġlanguages": 7790,
      ".~(\\": 7791,
      "Ġanalog": 7792,
      "sel": 7793,
      "Ġearned": 7794,
      "ĠColumbia": 7795,
      "Bi": 7796,
      "Ġregarding": 7797,
      "vas": 7798,
      "uses": 7799,
      "Ġsales": 7800,
      "ĠĠĠĠĠĠĠĠĠĠĠĠĠĠĠĠĠĠĠĠĠĠĠĠĠĠĠĠĠĠĠĠĠĠĠĠĠĠĠ": 7801,
      "Ġneighborhood": 7802,
      "Ġoperated": 7803,
      ")^{-": 7804,
      "Ġgenus": 7805,
      "interface": 7806,
      "ĠSecurity": 7807,
      "Ġpolitics": 7808,
      "stone": 7809,
      "160": 7810,
      "1942": 7811,
      "Ġcommit": 7812,
      "Ġdistributions": 7813,
      "Figure": 7814,
      "erg": 7815,
      "ĠGovernor": 7816,
      "Aust": 7817,
      "ĠPoland": 7818,
      "Ġcalc": 7819,
      "req": 7820,
      "PH": 7821,
      "ĠPlay": 7822,
      "ĠRos": 7823,
      "Ġtransformation": 7824,
      "National": 7825,
      "ader": 7826,
      "ĠMain": 7827,
      "imeq": 7828,
      "1958": 7829,
      "Menu": 7830,
      "NavBar": 7831,
      "Ġpartner": 7832,
      "1959": 7833,
      "Ġdefend": 7834,
      "1948": 7835,
      "Ġpowerful": 7836,
      "simeq": 7837,
      "Ġretired": 7838,
      "ĠCoast": 7839,
      "Ġpoliticians": 7840,
      "Ġmodes": 7841,
      "ester": 7842,
      "ĠHa": 7843,
      "agonal": 7844,
      "PRE": 7845,
      "Ġkept": 7846,
      "Ġconference": 7847,
      "Ġtypical": 7848,
      "Ġacts": 7849,
      "join": 7850,
      "ĠJackson": 7851,
      "ĠStan": 7852,
      "tog": 7853,
      "ĠJeff": 7854,
      "Ġwidely": 7855,
      "picture": 7856,
      "Ġcriminal": 7857,
      "Ġdedicated": 7858,
      "ALL": 7859,
      "leton": 7860,
      "1956": 7861,
      "Ġstack": 7862,
      "ez": 7863,
      "nections": 7864,
      "product": 7865,
      "ĠTHE": 7866,
      "ĠAndrew": 7867,
      "Ġindicate": 7868,
      "Ġinterval": 7869,
      "Main": 7870,
      "full": 7871,
      "Cor": 7872,
      "Ġconcert": 7873,
      "Ġfellow": 7874,
      "'}": 7875,
      "Ġgun": 7876,
      "Ġships": 7877,
      "ĠMu": 7878,
      "andon": 7879,
      "pendix": 7880,
      "ĠCommon": 7881,
      "Ġpret": 7882,
      "Ġacting": 7883,
      "}^*": 7884,
      "bot": 7885,
      "1939": 7886,
      "pute": 7887,
      "ĠLuc": 7888,
      "called": 7889,
      "istent": 7890,
      "ORT": 7891,
      "sex": 7892,
      "Gu": 7893,
      "Ġcrime": 7894,
      "Ġrevealed": 7895,
      "âĢĿ.": 7896,
      "Ġcontinues": 7897,
      "eld": 7898,
      "Ġpet": 7899,
      "acket": 7900,
      "Ġcandidates": 7901,
      "ĠMath": 7902,
      "Ġoccurred": 7903,
      "Dem": 7904,
      "Ġfundamental": 7905,
      "Ġfeat": 7906,
      "ĠMid": 7907,
      "ĠPhilipp": 7908,
      "ĠSu": 7909,
      "Ġabsolute": 7910,
      "Ver": 7911,
      "arters": 7912,
      "rs": 7913,
      "virt": 7914,
      "ucky": 7915,
      "Ġwild": 7916,
      "$).": 7917,
      "UP": 7918,
      "Ġmetal": 7919,
      "ĠEst": 7920,
      "ĠCa": 7921,
      "Ġspatial": 7922,
      "amm": 7923,
      "ĠDutch": 7924,
      "Ġyouth": 7925,
      "Ġprimarily": 7926,
      "Ġprotest": 7927,
      "ĠPrince": 7928,
      "Ġbass": 7929,
      "Ġdetect": 7930,
      "itical": 7931,
      "spe": 7932,
      "Ġhydro": 7933,
      "ĠPrem": 7934,
      "ĠOxford": 7935,
      "Ġcoordinates": 7936,
      "MB": 7937,
      "isis": 7938,
      "ĠMah": 7939,
      "Some": 7940,
      "Ġspeech": 7941,
      "(:": 7942,
      "Ġsuggested": 7943,
      "Stack": 7944,
      "Ġallowing": 7945,
      "enger": 7946,
      "Ġinvestigation": 7947,
      "inity": 7948,
      "ĠYour": 7949,
      "ĠBroad": 7950,
      "Host": 7951,
      "Helper": 7952,
      "EQ": 7953,
      "aby": 7954,
      "teen": 7955,
      "Second": 7956,
      "ĠOrgan": 7957,
      "kes": 7958,
      "UB": 7959,
      "ĠCy": 7960,
      "Async": 7961,
      "pir": 7962,
      "Ġunless": 7963,
      "fully": 7964,
      "orough": 7965,
      "ĠLatin": 7966,
      "Ġblocks": 7967,
      "256": 7968,
      "1941": 7969,
      "ä¸": 7970,
      "Ġversions": 7971,
      "Ã±": 7972,
      "ĠRay": 7973,
      "Ġschedul": 7974,
      "){\\": 7975,
      "Ġapparent": 7976,
      "ais": 7977,
      "apes": 7978,
      "Ð»": 7979,
      "ĠPolice": 7980,
      ")}{\\": 7981,
      "points": 7982,
      "ĠCommunity": 7983,
      "vm": 7984,
      "Ġfaith": 7985,
      "izabeth": 7986,
      "ilib": 7987,
      "Ġdivided": 7988,
      "opher": 7989,
      "Ġabsor": 7990,
      "Ġcriter": 7991,
      "Ġmeasurement": 7992,
      "ĠEven": 7993,
      "Ġtransaction": 7994,
      "Ġinteractions": 7995,
      "AND": 7996,
      "Ġtoward": 7997,
      "acle": 7998,
      "sen": 7999,
      "tri": 8000,
      "ĠAdministr": 8001,
      "clear": 8002,
      "ipeline": 8003,
      "Handle": 8004,
      "Ġisn": 8005,
      "ĠBecause": 8006,
      "ĠCON": 8007,
      "Use": 8008,
      "odd": 8009,
      "tained": 8010,
      "msg": 8011,
      "shall": 8012,
      "Ġauthority": 8013,
      "ĠInformation": 8014,
      "Ġ\"\\": 8015,
      "clusive": 8016,
      "Ġviews": 8017,
      "ĠHand": 8018,
      "defined": 8019,
      "Ġfort": 8020,
      "Ġinsert": 8021,
      "Ġmodified": 8022,
      "Ġjourn": 8023,
      "ĠBu": 8024,
      "leted": 8025,
      "Expression": 8026,
      "copy": 8027,
      "Ġattend": 8028,
      "nergy": 8029,
      "vin": 8030,
      "Ġrequirements": 8031,
      "Ġproport": 8032,
      "ryst": 8033,
      "short": 8034,
      "agnost": 8035,
      "ĠName": 8036,
      "ouch": 8037,
      "AF": 8038,
      "Ġrepresenting": 8039,
      "Å¡": 8040,
      "Ġtried": 8041,
      "Ġens": 8042,
      "Ġextr": 8043,
      "Ġroll": 8044,
      "Ġcurves": 8045,
      "eces": 8046,
      "estamp": 8047,
      "Ġpool": 8048,
      "Ġfocused": 8049,
      "Ġprocessing": 8050,
      "fn": 8051,
      "Ġdependence": 8052,
      "Sk": 8053,
      "unities": 8054,
      "ĠWater": 8055,
      "\\)": 8056,
      "Ġsust": 8057,
      "nap": 8058,
      "Store": 8059,
      "Ġmarked": 8060,
      "Invalid": 8061,
      "Ġheard": 8062,
      "Session": 8063,
      "Ġemphas": 8064,
      "delete": 8065,
      "Ġgrid": 8066,
      "Ġcomedy": 8067,
      "Ġdegrees": 8068,
      ":#": 8069,
      "Impl": 8070,
      "Ġacquired": 8071,
      "Ġrough": 8072,
      "pa": 8073,
      "1957": 8074,
      "Disc": 8075,
      "ĠMot": 8076,
      "bro": 8077,
      "Ġexcit": 8078,
      "Sym": 8079,
      "Brit": 8080,
      "Ġemail": 8081,
      "Ġconfirmed": 8082,
      "Ġprotection": 8083,
      "ĠCH": 8084,
      "ĠWis": 8085,
      "ĠPower": 8086,
      "prec": 8087,
      "}}^": 8088,
      "iki": 8089,
      "RS": 8090,
      "Ġsubset": 8091,
      "Ġdefin": 8092,
      "idget": 8093,
      "1943": 8094,
      "ĠKenn": 8095,
      "orship": 8096,
      "Ġaware": 8097,
      "Ġgain": 8098,
      "env": 8099,
      "ĠHospital": 8100,
      "olds": 8101,
      "Ġlearned": 8102,
      "Ġsubsequently": 8103,
      "Ġeveryone": 8104,
      "Ġpartition": 8105,
      "Iter": 8106,
      "ĠStudies": 8107,
      "ĠSea": 8108,
      "ĠLittle": 8109,
      "fram": 8110,
      "Ġgap": 8111,
      "hetic": 8112,
      "Ġsingular": 8113,
      "mic": 8114,
      "Ġhidden": 8115,
      "Ġ=\\": 8116,
      "ĠHarr": 8117,
      "arts": 8118,
      "Ä±": 8119,
      "Kind": 8120,
      "Ġcache": 8121,
      "amber": 8122,
      "ĠHig": 8123,
      "Reference": 8124,
      "ologist": 8125,
      "ĠPortug": 8126,
      "Ġbridge": 8127,
      "Ġpicture": 8128,
      "Ġinstrument": 8129,
      "Ġcer": 8130,
      "ĠFC": 8131,
      "1946": 8132,
      "================================": 8133,
      "Ġhands": 8134,
      "Ġorders": 8135,
      "foo": 8136,
      "Ġtroops": 8137,
      "Ġfre": 8138,
      "Ġsubstant": 8139,
      "Ġfinding": 8140,
      "Ġstorage": 8141,
      "othing": 8142,
      "Ġsquad": 8143,
      "ĠBrook": 8144,
      "Ġtend": 8145,
      "~$\\": 8146,
      "Ġlargely": 8147,
      "Ġgirl": 8148,
      "ocated": 8149,
      "toString": 8150,
      "ran": 8151,
      "Ġideal": 8152,
      "STR": 8153,
      ")\"": 8154,
      "nership": 8155,
      "Ġpersonnel": 8156,
      "component": 8157,
      "Ġinvariant": 8158,
      "Ġhypot": 8159,
      "Ġreduction": 8160,
      "Ġtool": 8161,
      "Ġobserve": 8162,
      "ĠSunday": 8163,
      "Ġdriver": 8164,
      "Ġpurposes": 8165,
      "Rad": 8166,
      "had": 8167,
      "hs": 8168,
      "edit": 8169,
      "Ġorganized": 8170,
      "Background": 8171,
      "ĠRights": 8172,
      ")$-": 8173,
      "Ġtraffic": 8174,
      "Ġviolence": 8175,
      "ĠWilson": 8176,
      "Ġancient": 8177,
      "Ġ$$": 8178,
      "Ġawards": 8179,
      "Ġdrive": 8180,
      ")\\\\": 8181,
      "click": 8182,
      "ĠHong": 8183,
      "comment": 8184,
      "handle": 8185,
      "=\"_": 8186,
      "ierarch": 8187,
      "Ġcycl": 8188,
      "osis": 8189,
      "Ġroles": 8190,
      "Ġremember": 8191,
      "Ġspeak": 8192,
      "unte": 8193,
      "scape": 8194,
      "Ġtechnical": 8195,
      "gers": 8196,
      "ĠTri": 8197,
      "ĠRequ": 8198,
      "mapsto": 8199,
      "Ġmassive": 8200,
      "ervative": 8201,
      "Sch": 8202,
      "ĠId": 8203,
      "1947": 8204,
      "enter": 8205,
      "ĠBang": 8206,
      "omorphic": 8207,
      "Ġinfo": 8208,
      "Ġnearby": 8209,
      "Ñĥ": 8210,
      "Ġmechanism": 8211,
      "eness": 8212,
      "Thus": 8213,
      "imately": 8214,
      "Ġarrived": 8215,
      "Ġplanning": 8216,
      "ĠWild": 8217,
      "aling": 8218,
      "Ġ$.": 8219,
      "operation": 8220,
      "ĠKen": 8221,
      "Schema": 8222,
      "Ġinvoke": 8223,
      "ĠFour": 8224,
      "Ġreplace": 8225,
      "$^{-": 8226,
      "Definition": 8227,
      "ĠVis": 8228,
      "zen": 8229,
      "Draw": 8230,
      "Err": 8231,
      "double": 8232,
      "enum": 8233,
      "odot": 8234,
      "Ġchallenge": 8235,
      "cknowled": 8236,
      "Su": 8237,
      "Ġscientific": 8238,
      "1955": 8239,
      "equals": 8240,
      "ĠÎ": 8241,
      "ographer": 8242,
      "})$.": 8243,
      "irds": 8244,
      "Ġdescent": 8245,
      "ĠÅ": 8246,
      "Ġthick": 8247,
      "ĠBerlin": 8248,
      "illy": 8249,
      "Ġwaves": 8250,
      "Ġfacilities": 8251,
      "OK": 8252,
      "Ġsymmetric": 8253,
      "Ġvon": 8254,
      "Ġjav": 8255,
      "Ġcoal": 8256,
      "arrier": 8257,
      "World": 8258,
      "Ġlab": 8259,
      "ĠScottish": 8260,
      "Ġhonor": 8261,
      "Ġvertical": 8262,
      "nic": 8263,
      "Ġta": 8264,
      "Ġyields": 8265,
      "Names": 8266,
      "Ġphenomen": 8267,
      "ĠJean": 8268,
      "Ġadvantage": 8269,
      "Ġinline": 8270,
      "%)": 8271,
      "Template": 8272,
      "Ġadding": 8273,
      "uby": 8274,
      "ĠRo": 8275,
      "HS": 8276,
      "^{+": 8277,
      "General": 8278,
      "Parameters": 8279,
      "scription": 8280,
      "Ġera": 8281,
      "agers": 8282,
      "cloud": 8283,
      "ĠRailway": 8284,
      "appe": 8285,
      "Ġlocations": 8286,
      "Ġbudget": 8287,
      "ĠDaniel": 8288,
      "Ġpan": 8289,
      "Ġleaves": 8290,
      "ĠJon": 8291,
      "aug": 8292,
      "United": 8293,
      "1952": 8294,
      "tik": 8295,
      "Before": 8296,
      "ulf": 8297,
      "'],": 8298,
      "low": 8299,
      "ECT": 8300,
      "Ġrout": 8301,
      "Ġdelete": 8302,
      "Ġmiles": 8303,
      "ads": 8304,
      "Hz": 8305,
      "Ġvisible": 8306,
      "sive": 8307,
      "ulpt": 8308,
      "ĠKr": 8309,
      "widget": 8310,
      "Ġlimits": 8311,
      "plications": 8312,
      "GC": 8313,
      "Ġmeant": 8314,
      "Ġfigures": 8315,
      "Ġexplained": 8316,
      "ĠDate": 8317,
      "Ġodd": 8318,
      "Ã£": 8319,
      "Ġil": 8320,
      "media": 8321,
      "Ġmatrices": 8322,
      "DC": 8323,
      "ERROR": 8324,
      "ĠMedical": 8325,
      "ĠEXPECT": 8326,
      "session": 8327,
      "una": 8328,
      "Ġhouses": 8329,
      "Ġprincipal": 8330,
      "SM": 8331,
      "ĠNight": 8332,
      "Ġbrand": 8333,
      "ĠFI": 8334,
      "ĠLead": 8335,
      "remark": 8336,
      "iÄĩ": 8337,
      "ederation": 8338,
      "ĠLim": 8339,
      "ĠEvent": 8340,
      "Ġclin": 8341,
      "250": 8342,
      "ĠFar": 8343,
      "Ġsuccessfully": 8344,
      "Ġentity": 8345,
      "category": 8346,
      "family": 8347,
      "ĠĠĠĠĠĠĠĠĠĠĠĠĠĠĠĠĠĠ": 8348,
      "Ġdecades": 8349,
      "ĠĠĠĠĠĠĊ": 8350,
      "(*": 8351,
      "idel": 8352,
      "Ġchemical": 8353,
      "Decl": 8354,
      "onal": 8355,
      "ĠViet": 8356,
      "ropol": 8357,
      "ito": 8358,
      "ĠBell": 8359,
      "footer": 8360,
      "1954": 8361,
      "thur": 8362,
      "Ġcommittee": 8363,
      "ĠGlobal": 8364,
      "such": 8365,
      "otted": 8366,
      "mediate": 8367,
      "inton": 8368,
      "Ø§": 8369,
      "tan": 8370,
      "inals": 8371,
      "ading": 8372,
      "Ġgrew": 8373,
      "Ġdaily": 8374,
      ")_": 8375,
      "Tool": 8376,
      "itled": 8377,
      "urer": 8378,
      "Device": 8379,
      "Ġfunding": 8380,
      "ĠFinally": 8381,
      "Application": 8382,
      "Ġsides": 8383,
      "Ġterror": 8384,
      "Ġtheme": 8385,
      "Ġdocuments": 8386,
      "ĠAlexander": 8387,
      "ĠPhys": 8388,
      "ennes": 8389,
      "anes": 8390,
      "ĠWeek": 8391,
      "\\|_{": 8392,
      "ĠColl": 8393,
      "ĠCode": 8394,
      "Ġboy": 8395,
      "Ġundefined": 8396,
      "Ġenvironmental": 8397,
      "ĠGaussian": 8398,
      "Ġstreet": 8399,
      "zh": 8400,
      "Ġcircum": 8401,
      "Ġreality": 8402,
      "ĠSom": 8403,
      "Ġstellar": 8404,
      "Obj": 8405,
      "Ġprinciple": 8406,
      "$$\\": 8407,
      "Ġteaching": 8408,
      "Title": 8409,
      "ORM": 8410,
      "ĠTaylor": 8411,
      "onia": 8412,
      "mc": 8413,
      "110": 8414,
      "ATA": 8415,
      "Ġequipment": 8416,
      "fony": 8417,
      "Ġ&=&": 8418,
      "material": 8419,
      "Ġspectra": 8420,
      "###": 8421,
      "aws": 8422,
      "Ġnor": 8423,
      "phia": 8424,
      "ĠJoe": 8425,
      "Ġstarts": 8426,
      "ponential": 8427,
      "Ġtools": 8428,
      "Ġclubs": 8429,
      "Ġdescribes": 8430,
      "ĠSwitch": 8431,
      "sch": 8432,
      "Ġprime": 8433,
      "Ġaffected": 8434,
      "Core": 8435,
      "Ġconsult": 8436,
      "iful": 8437,
      "help": 8438,
      "Ġcommonly": 8439,
      "Ġpeace": 8440,
      "ÅĤ": 8441,
      "Ġconsidering": 8442,
      "Ġpages": 8443,
      "1949": 8444,
      "Ġfloor": 8445,
      "Ġemployees": 8446,
      "Ġserves": 8447,
      "ĠBGCOLOR": 8448,
      "ĠTw": 8449,
      "Ġsecondary": 8450,
      "hover": 8451,
      "Ġcool": 8452,
      "1953": 8453,
      "Ġpush": 8454,
      "Ġmorph": 8455,
      "128": 8456,
      "bec": 8457,
      "Ġvehicle": 8458,
      "ĠNations": 8459,
      "Ġdepending": 8460,
      "exports": 8461,
      "Ġsoldiers": 8462,
      "onical": 8463,
      "pet": 8464,
      "Ġassociation": 8465,
      "600": 8466,
      "life": 8467,
      "ĠBoy": 8468,
      "export": 8469,
      "Ġdevices": 8470,
      "antry": 8471,
      "ĠUse": 8472,
      "Ġfans": 8473,
      "Rect": 8474,
      "Ġlaunch": 8475,
      "ceived": 8476,
      "shape": 8477,
      "ben": 8478,
      "weet": 8479,
      "Ġearth": 8480,
      "Ġaudience": 8481,
      "Ġlayers": 8482,
      "Ġisol": 8483,
      "icip": 8484,
      "ĠHung": 8485,
      "occer": 8486,
      "Ġcomments": 8487,
      "Found": 8488,
      "Ret": 8489,
      "Ġcaptured": 8490,
      "Values": 8491,
      "holder": 8492,
      "atible": 8493,
      "framework": 8494,
      "adelphia": 8495,
      "ĠDar": 8496,
      "ĠFree": 8497,
      "athan": 8498,
      "ĠPrime": 8499,
      "eless": 8500,
      "phone": 8501,
      "Ġchannels": 8502,
      "uv": 8503,
      "ĠRog": 8504,
      "forward": 8505,
      "May": 8506,
      "connect": 8507,
      "ecutive": 8508,
      "ĠMas": 8509,
      "ĠGuard": 8510,
      "ĠDisc": 8511,
      "Ġremark": 8512,
      "ĠMinistry": 8513,
      "Ġrecognized": 8514,
      "Ġnarrow": 8515,
      "ĠOnly": 8516,
      "two": 8517,
      "proposition": 8518,
      "False": 8519,
      "Ġdeveloping": 8520,
      "ĠMaster": 8521,
      "focus": 8522,
      "ĠCat": 8523,
      "Ġserial": 8524,
      "Ġfifth": 8525,
      "ĠLew": 8526,
      "Ġnotes": 8527,
      "Ġinnov": 8528,
      "ĠSciences": 8529,
      "ĠPass": 8530,
      "Has": 8531,
      "anner": 8532,
      "Ġcontainer": 8533,
      "effect": 8534,
      "Ġspl": 8535,
      "angular": 8536,
      "Parent": 8537,
      "iling": 8538,
      "Ġdamage": 8539,
      "Xml": 8540,
      "ntario": 8541,
      "patch": 8542,
      "ATH": 8543,
      "Ġoptical": 8544,
      "Ġsatisfy": 8545,
      "ented": 8546,
      "âĢĿ,": 8547,
      "master": 8548,
      "Tests": 8549,
      "Sports": 8550,
      "Ġobservation": 8551,
      "ĠAuthor": 8552,
      "NR": 8553,
      "Ġul": 8554,
      "Ġwinner": 8555,
      "Ġheader": 8556,
      "Ġnamespace": 8557,
      "ĠAnother": 8558,
      "sid": 8559,
      "Ġperforming": 8560,
      "ĠGar": 8561,
      "Ġconstraint": 8562,
      "à¸": 8563,
      "Ġvectors": 8564,
      "Ġlie": 8565,
      "ĠCorporation": 8566,
      "Ġperhaps": 8567,
      "Ġconvergence": 8568,
      "DR": 8569,
      "scill": 8570,
      "Ġnewspaper": 8571,
      "inson": 8572,
      "Ġimplemented": 8573,
      "1918": 8574,
      "ĠPen": 8575,
      "Ġincident": 8576,
      "initial": 8577,
      "BI": 8578,
      "Ġplanet": 8579,
      "Theorem": 8580,
      "SR": 8581,
      "Ġtrees": 8582,
      "Ġfootballer": 8583,
      "Ġhousing": 8584,
      "Fields": 8585,
      "ĠSi": 8586,
      "imb": 8587,
      "Ġunsigned": 8588,
      "Ġsport": 8589,
      "tikz": 8590,
      "Ġupdated": 8591,
      "Ġphysics": 8592,
      "ĠCirc": 8593,
      "Ġsubsequent": 8594,
      "Ġprediction": 8595,
      "Ġ})": 8596,
      "mosp": 8597,
      "Ġparse": 8598,
      "custom": 8599,
      "inline": 8600,
      ">();": 8601,
      "Boolean": 8602,
      "Vector": 8603,
      "Ġmedian": 8604,
      "Ġattr": 8605,
      "notes": 8606,
      "Ġchance": 8607,
      "Ġtranslation": 8608,
      "islative": 8609,
      "allow": 8610,
      "Ġdeclared": 8611,
      "store": 8612,
      "\">&": 8613,
      "Ġ['": 8614,
      "Ġperman": 8615,
      "Ġmanner": 8616,
      "Ġwasn": 8617,
      "tim": 8618,
      "Ġexpanded": 8619,
      "Ġrural": 8620,
      "ĠBack": 8621,
      "Num": 8622,
      "Ġcapture": 8623,
      "Ġminimal": 8624,
      "ydney": 8625,
      ")},": 8626,
      "Ġreson": 8627,
      "Ġextend": 8628,
      "Ġagric": 8629,
      "\\{\\": 8630,
      "organ": 8631,
      "disabled": 8632,
      "Ġcontro": 8633,
      "Ġtwice": 8634,
      "water": 8635,
      "ĠLater": 8636,
      "1951": 8637,
      "ĠPakistan": 8638,
      "Ġsuggests": 8639,
      "Ġcorpor": 8640,
      "herent": 8641,
      "Ġcalling": 8642,
      "ĠBa": 8643,
      "Ġeastern": 8644,
      "Ġexplain": 8645,
      "CF": 8646,
      "ĠFamily": 8647,
      "orders": 8648,
      "Ġsomew": 8649,
      "Ġtransferred": 8650,
      "names": 8651,
      "Ġauthorities": 8652,
      "Ġepisodes": 8653,
      "Ġinvolving": 8654,
      "CI": 8655,
      "ĠChris": 8656,
      "ĠStation": 8657,
      "Ġbenefit": 8658,
      "Ġimproved": 8659,
      "ĠMcC": 8660,
      "800": 8661,
      "webkit": 8662,
      "insert": 8663,
      "ĠSports": 8664,
      "ĠMike": 8665,
      "ĠRevolution": 8666,
      "Ġmagnitude": 8667,
      "hbar": 8668,
      "$;": 8669,
      "ilibrium": 8670,
      "ORD": 8671,
      "Ġkernel": 8672,
      "ĠThree": 8673,
      "urance": 8674,
      "grade": 8675,
      "Ġbounds": 8676,
      "ĠCommand": 8677,
      "ving": 8678,
      "amin": 8679,
      "Public": 8680,
      "British": 8681,
      ".'": 8682,
      "Argument": 8683,
      "ĠHamiltonian": 8684,
      "ĠElizabeth": 8685,
      "Ġprovince": 8686,
      "ĠRom": 8687,
      "ami": 8688,
      "osophy": 8689,
      "Ġlatest": 8690,
      "Ġprogramming": 8691,
      "Ġmorning": 8692,
      "aration": 8693,
      "Ġbaseball": 8694,
      "Ġspecifically": 8695,
      "Ġdifferential": 8696,
      "disc": 8697,
      "ego": 8698,
      "ĠAR": 8699,
      "Ġplanned": 8700,
      "Ġagents": 8701,
      "virtual": 8702,
      "just": 8703,
      "Ġtechnique": 8704,
      "acc": 8705,
      "Ġicon": 8706,
      "icons": 8707,
      "Ġhappen": 8708,
      "Ġcars": 8709,
      "uctions": 8710,
      "apol": 8711,
      "dict": 8712,
      "formance": 8713,
      "Ġdimensions": 8714,
      "ois": 8715,
      "Ġmatching": 8716,
      "Ġindeed": 8717,
      "Ġheat": 8718,
      "Ġasympt": 8719,
      "ĠCreek": 8720,
      "ĠLight": 8721,
      "Ġengineering": 8722,
      "ĠFund": 8723,
      "ĠLag": 8724,
      "Ġcov": 8725,
      "Ġsetup": 8726,
      "Ġpowers": 8727,
      "register": 8728,
      "Ġsummary": 8729,
      "Ġprominent": 8730,
      "Ġbands": 8731,
      "Ġwrap": 8732,
      "aturday": 8733,
      "MT": 8734,
      "Ġtrend": 8735,
      "grid": 8736,
      "Classes": 8737,
      "ĠFurthermore": 8738,
      "icer": 8739,
      "rency": 8740,
      "-$": 8741,
      "Ġdispl": 8742,
      "Ġknew": 8743,
      "Ġcharged": 8744,
      "ictures": 8745,
      "Ġsupply": 8746,
      "Reader": 8747,
      "'ll": 8748,
      "----------------------------------------------------------------": 8749,
      "Ġalongside": 8750,
      "panel": 8751,
      "application": 8752,
      "hard": 8753,
      "Var": 8754,
      "Ġbin": 8755,
      "VD": 8756,
      "tail": 8757,
      "Ġ++": 8758,
      "Cast": 8759,
      "Ġindustrial": 8760,
      "ĠFace": 8761,
      "ĠHy": 8762,
      "Ġemployed": 8763,
      "ificate": 8764,
      "Ġstress": 8765,
      "ori": 8766,
      "ĠCorps": 8767,
      "Ġnotation": 8768,
      "Ġinvestment": 8769,
      "Ġrect": 8770,
      ">.": 8771,
      "Ġmedium": 8772,
      "ĠVictoria": 8773,
      "Ġpal": 8774,
      "semble": 8775,
      "romise": 8776,
      "bootstrap": 8777,
      "Ġgradient": 8778,
      "ĠWalk": 8779,
      "Ġpseud": 8780,
      "Wrap": 8781,
      "Ġdemocr": 8782,
      "hab": 8783,
      "1938": 8784,
      "Ġassistant": 8785,
      "Api": 8786,
      "GS": 8787,
      "Ġconclude": 8788,
      "Ġmask": 8789,
      "ĠBBC": 8790,
      "mma": 8791,
      "Ġexerc": 8792,
      ")).": 8793,
      "ĠBelg": 8794,
      "ses": 8795,
      "Ġseconds": 8796,
      "Ġhockey": 8797,
      "_;": 8798,
      "ĠJews": 8799,
      "ooks": 8800,
      "anth": 8801,
      "ĠPolish": 8802,
      "'(": 8803,
      "Assert": 8804,
      "ĠBon": 8805,
      "Ġapi": 8806,
      "BP": 8807,
      "ĠRome": 8808,
      "boolean": 8809,
      "also": 8810,
      "arse": 8811,
      "Ġadvance": 8812,
      "zech": 8813,
      "Ġends": 8814,
      "ĠPrize": 8815,
      "Ġflight": 8816,
      "umes": 8817,
      "Ġrepeated": 8818,
      "Ġpra": 8819,
      "clip": 8820,
      "consin": 8821,
      "Ġmapping": 8822,
      "Using": 8823,
      "Ġgalaxy": 8824,
      "áĥ": 8825,
      "ĠBC": 8826,
      "Ġgraphs": 8827,
      "Debug": 8828,
      "URE": 8829,
      "acro": 8830,
      "ĠIslands": 8831,
      "Ã£o": 8832,
      "isted": 8833,
      "Ġtheoretical": 8834,
      "rieved": 8835,
      "Ġven": 8836,
      "cref": 8837,
      "ĠCorn": 8838,
      "Ġcollected": 8839,
      "Ġbyte": 8840,
      "Ġgranted": 8841,
      "Ġfear": 8842,
      "Ġ..": 8843,
      "iples": 8844,
      "Ġurban": 8845,
      "modules": 8846,
      "Ġnucle": 8847,
      "Ġbegins": 8848,
      "Tab": 8849,
      "ĠSus": 8850,
      "ĠArgent": 8851,
      "uzz": 8852,
      "andra": 8853,
      "Ġanyone": 8854,
      "Ġnarr": 8855,
      "Ġagree": 8856,
      "ĠReport": 8857,
      "ĠUnivers": 8858,
      "padding": 8859,
      "Body": 8860,
      "ĠSher": 8861,
      "Ġprep": 8862,
      "Ġinterests": 8863,
      "alid": 8864,
      "-->": 8865,
      "Ġoscill": 8866,
      "Ġ'/": 8867,
      "Ġbenefits": 8868,
      "Ġreader": 8869,
      "Initial": 8870,
      "ifer": 8871,
      "Ġunderlying": 8872,
      "ĠKorean": 8873,
      "perial": 8874,
      "Ġadministrative": 8875,
      "ĠToronto": 8876,
      "Ġdefense": 8877,
      "ancer": 8878,
      "ĠRegion": 8879,
      "Ġreviews": 8880,
      "bad": 8881,
      "Ġobjective": 8882,
      "hol": 8883,
      "Ġtal": 8884,
      "Ġsafe": 8885,
      "etherlands": 8886,
      "dependency": 8887,
      "Parser": 8888,
      "Ġestate": 8889,
      "ĠMember": 8890,
      "ĠIndust": 8891,
      "Ġwitness": 8892,
      "Ġhappened": 8893,
      "Ġadjust": 8894,
      "ĠConstitution": 8895,
      "ĠTam": 8896,
      "byte": 8897,
      "stro": 8898,
      "1936": 8899,
      "Ġbeam": 8900,
      "iable": 8901,
      "Ġshock": 8902,
      "ĠUsing": 8903,
      "ĠPlaces": 8904,
      "Ġtells": 8905,
      "Ġdestroyed": 8906,
      "acent": 8907,
      "Ġcomposition": 8908,
      "ello": 8909,
      "ingly": 8910,
      "Ġinspired": 8911,
      "ĠVill": 8912,
      "Ġmasses": 8913,
      "udio": 8914,
      "ĠStephen": 8915,
      "ĠFollowing": 8916,
      "Ġoptimization": 8917,
      "|_{": 8918,
      "Ġlabels": 8919,
      "lyn": 8920,
      "Ġmathemat": 8921,
      "Ġfeet": 8922,
      "Cons": 8923,
      "ĠRail": 8924,
      "ĠRen": 8925,
      "Ġrepresentative": 8926,
      "auto": 8927,
      "ĠView": 8928,
      "Ġcoverage": 8929,
      "Ġpromoted": 8930,
      "ĠOfficial": 8931,
      "Args": 8932,
      "Ġrotation": 8933,
      "Ġdie": 8934,
      "Ġrecip": 8935,
      "Ġefficiency": 8936,
      "yo": 8937,
      "iga": 8938,
      "ĠFair": 8939,
      "|}": 8940,
      "Ġexecution": 8941,
      "Ġrecognition": 8942,
      "forms": 8943,
      "Ġmunicipality": 8944,
      "Ġpit": 8945,
      "MR": 8946,
      "$~": 8947,
      "Ġacceler": 8948,
      "ĠOntario": 8949,
      "Ġcomplexity": 8950,
      "Ġready": 8951,
      "ĠOlympic": 8952,
      "ĠSpace": 8953,
      "Policy": 8954,
      "ĠCur": 8955,
      "Ã¡n": 8956,
      "Ġnewly": 8957,
      "Ġsurrounding": 8958,
      "dependent": 8959,
      "ĠIP": 8960,
      "Ġsyn": 8961,
      "astructure": 8962,
      "Ġshell": 8963,
      "green": 8964,
      "ĠCub": 8965,
      "Ġfeaturing": 8966,
      "ĠClark": 8967,
      "Ġfunctional": 8968,
      "Ġhistoric": 8969,
      "Ġjobs": 8970,
      "Ġadvert": 8971,
      "ĠPalest": 8972,
      "Ġpossibly": 8973,
      "Ġbelief": 8974,
      "SET": 8975,
      "123": 8976,
      "igin": 8977,
      "ronic": 8978,
      "Ġathlet": 8979,
      "Ġprepar": 8980,
      "plugin": 8981,
      "Ġfell": 8982,
      "Ġdiscrim": 8983,
      "BE": 8984,
      "}\"": 8985,
      "ni": 8986,
      "Ġbeat": 8987,
      "floor": 8988,
      "ĠNY": 8989,
      "Ġgeometry": 8990,
      "ĠSem": 8991,
      "raham": 8992,
      "axis": 8993,
      "Ġcrew": 8994,
      "WS": 8995,
      "fi": 8996,
      "settings": 8997,
      "EXT": 8998,
      "ĠAk": 8999,
      "Ġchanging": 9000,
      "Ġpy": 9001,
      "Ġdynamic": 9002,
      "ĠObama": 9003,
      "Ġadvanced": 9004,
      "ĠChristmas": 9005,
      "Ġheav": 9006,
      "Ġ('": 9007,
      "Ġsolve": 9008,
      "dates": 9009,
      "}}^{": 9010,
      "Ġgraduated": 9011,
      "cred": 9012,
      "replace": 9013,
      "ĠInternet": 9014,
      "she": 9015,
      "Ġevaluation": 9016,
      "Dialog": 9017,
      "aki": 9018,
      "olver": 9019,
      "actic": 9020,
      "ropical": 9021,
      "WA": 9022,
      "Two": 9023,
      "ifts": 9024,
      "utenant": 9025,
      "stop": 9026,
      "Ġbomb": 9027,
      "Ġresident": 9028,
      "lan": 9029,
      "Bytes": 9030,
      "hu": 9031,
      "awn": 9032,
      "Click": 9033,
      "END": 9034,
      "owa": 9035,
      "yard": 9036,
      "Ġplants": 9037,
      "istration": 9038,
      "super": 9039,
      "ĠAND": 9040,
      "Ġmessages": 9041,
      "hbox": 9042,
      "ĠMir": 9043,
      "ipage": 9044,
      "Ġstandards": 9045,
      "Ġconven": 9046,
      "Ġbytes": 9047,
      "cope": 9048,
      "admin": 9049,
      "They": 9050,
      "MI": 9051,
      "AGE": 9052,
      "Ġwhereas": 9053,
      "'>": 9054,
      "Ġappearances": 9055,
      "`.": 9056,
      "Ġcharges": 9057,
      "Ġuncertainty": 9058,
      "region": 9059,
      "duce": 9060,
      "iamond": 9061,
      "Ġfunds": 9062,
      "Ġrender": 9063,
      "stable": 9064,
      "Writer": 9065,
      "Ġmotor": 9066,
      "Ġjudge": 9067,
      "ĠBand": 9068,
      "?:": 9069,
      "itivity": 9070,
      "ango": 9071,
      "ĠWhe": 9072,
      "displaystyle": 9073,
      "Cre": 9074,
      "Meta": 9075,
      "=\"\"": 9076,
      "oster": 9077,
      "igrants": 9078,
      "ĠJSON": 9079,
      "Ġopinion": 9080,
      "ĠEvery": 9081,
      "BR": 9082,
      "Ġaspects": 9083,
      "ĠCP": 9084,
      "Ġbond": 9085,
      "chestra": 9086,
      "aska": 9087,
      "lat": 9088,
      "University": 9089,
      "}&": 9090,
      "ĠPolicy": 9091,
      "Ġhuge": 9092,
      "101": 9093,
      "Ġscattering": 9094,
      "Ġdanger": 9095,
      "Ġconstitu": 9096,
      "ĠDesign": 9097,
      "jpg": 9098,
      "ĠBad": 9099,
      "mo": 9100,
      "Ġce": 9101,
      "Any": 9102,
      "onomy": 9103,
      "Metadata": 9104,
      "Ġexclud": 9105,
      "rior": 9106,
      "Ġshop": 9107,
      "notation": 9108,
      "Ġlisting": 9109,
      "ĠSuch": 9110,
      "Ġinfinite": 9111,
      "zz": 9112,
      "Ġusual": 9113,
      "ĠKim": 9114,
      "Changed": 9115,
      "[(": 9116,
      "Ġexplan": 9117,
      "ĠCount": 9118,
      ")+\\": 9119,
      "ĠAirport": 9120,
      "Delete": 9121,
      "Ġnegot": 9122,
      "Ġfaculty": 9123,
      "Ġdirectory": 9124,
      "Although": 9125,
      "Ġtrigger": 9126,
      "Step": 9127,
      "SION": 9128,
      "minipage": 9129,
      "worth": 9130,
      "Ġcopies": 9131,
      "ĠMult": 9132,
      "mass": 9133,
      "CRE": 9134,
      "Ġmotiv": 9135,
      "iser": 9136,
      "aga": 9137,
      "Ġfacility": 9138,
      "Ġvehicles": 9139,
      "Ġfinish": 9140,
      "Ġsan": 9141,
      "Av": 9142,
      "ĠTrust": 9143,
      "AME": 9144,
      "rase": 9145,
      "ĠJesus": 9146,
      "His": 9147,
      "kg": 9148,
      "pot": 9149,
      "Fix": 9150,
      "__(": 9151,
      "ĠNaz": 9152,
      "ĠMarg": 9153,
      "Ġexperi": 9154,
      "Ġinstalled": 9155,
      "Ġangular": 9156,
      "ogen": 9157,
      "Ġopposite": 9158,
      "dy": 9159,
      "Ġpossibility": 9160,
      "ĠInf": 9161,
      "ACE": 9162,
      "Lem": 9163,
      "Ġos": 9164,
      "Ġhighlight": 9165,
      "Ġaggreg": 9166,
      "email": 9167,
      "since": 9168,
      "Ġ\\(\\": 9169,
      "Ġturns": 9170,
      "peror": 9171,
      "}}$,": 9172,
      "1937": 9173,
      "ĠSydney": 9174,
      ")-\\": 9175,
      "Ġpassing": 9176,
      "Music": 9177,
      "Ġsuperv": 9178,
      "quarters": 9179,
      "ĠAny": 9180,
      "Finally": 9181,
      "ĠValue": 9182,
      "ogeneous": 9183,
      "Ġtrav": 9184,
      "Ġcompr": 9185,
      "Ġ),": 9186,
      "Ġinher": 9187,
      "ĠAvenue": 9188,
      "ĠIl": 9189,
      "ported": 9190,
      "plugins": 9191,
      "ups": 9192,
      "ĠNOT": 9193,
      "Ġintegration": 9194,
      "ĠMA": 9195,
      "Ġrich": 9196,
      "ordan": 9197,
      "osa": 9198,
      "Network": 9199,
      "}}$.": 9200,
      "bat": 9201,
      "Ġhear": 9202,
      "ĠRod": 9203,
      "=\"/": 9204,
      "Ġreferences": 9205,
      "Cap": 9206,
      ":}": 9207,
      "bourne": 9208,
      "Ġconj": 9209,
      "ĠDown": 9210,
      "Enabled": 9211,
      "Ġbright": 9212,
      "margin": 9213,
      "Ġbrain": 9214,
      "Ġconvers": 9215,
      "addr": 9216,
      "Ġhour": 9217,
      "Only": 9218,
      "Render": 9219,
      "Ġwonder": 9220,
      "ĠAsh": 9221,
      "eman": 9222,
      "Ġsolo": 9223,
      "Ġsolar": 9224,
      "wing": 9225,
      "ĠAL": 9226,
      "Ġcauses": 9227,
      "gency": 9228,
      "cccc": 9229,
      "Ġcontemporary": 9230,
      "Ġtele": 9231,
      "Ġextremely": 9232,
      "'))": 9233,
      "ĠBeach": 9234,
      "ĠMinnes": 9235,
      "@\"": 9236,
      "oses": 9237,
      "Ġexpert": 9238,
      "urches": 9239,
      "Ġhole": 9240,
      "Ġsupporting": 9241,
      "Ġvotes": 9242,
      "Ġtrip": 9243,
      "Doc": 9244,
      "Ġener": 9245,
      "ĠIV": 9246,
      "Ġlocally": 9247,
      "arring": 9248,
      "Introduction": 9249,
      "ĠCambridge": 9250,
      "Ġlum": 9251,
      "lywood": 9252,
      "apore": 9253,
      "ĠIO": 9254,
      "amer": 9255,
      "ĠFire": 9256,
      "Ġportion": 9257,
      "Ġinn": 9258,
      "Ġfinds": 9259,
      "Ġattributes": 9260,
      "Ġagency": 9261,
      "Ġrestaur": 9262,
      "Ġdog": 9263,
      "ĠError": 9264,
      "ĠDavis": 9265,
      "ultane": 9266,
      "Ġdoll": 9267,
      "ĠSant": 9268,
      "ĠEU": 9269,
      "Ġrend": 9270,
      "ĠĠĠĠĠĠĠĠĠĠĠĠĠĠĠĠĠĠĠĠĠĠĠĠĠĠĠĠĠĠĠĠĠĠĠĠĠĠĠĠĠĠĠĠĠĠĠĠĠĠĠĠĠĠĠĠĠĠĠĠĠĠĠĠ": 9271,
      "Ġscenario": 9272,
      "Ġconstitution": 9273,
      "Ġcrow": 9274,
      "ĠMinnesota": 9275,
      "pson": 9276,
      "coin": 9277,
      "adesh": 9278,
      "LOC": 9279,
      "Rule": 9280,
      "anz": 9281,
      "ĠLabor": 9282,
      "$};": 9283,
      "ĠWho": 9284,
      "domain": 9285,
      "Ġregistered": 9286,
      "Ġcorner": 9287,
      "Bit": 9288,
      "Ġentirely": 9289,
      "ĠPhiladelphia": 9290,
      "install": 9291,
      "callback": 9292,
      "Ġdesired": 9293,
      "Ġjustice": 9294,
      "Ġ<=": 9295,
      "ĠPers": 9296,
      "Ġinduced": 9297,
      "Ġskills": 9298,
      "ĠSa": 9299,
      "ĠLO": 9300,
      "Ġhero": 9301,
      "FAULT": 9302,
      "Ġsell": 9303,
      "emet": 9304,
      "parameters": 9305,
      "Ġdriving": 9306,
      "ilbert": 9307,
      "record": 9308,
      "lik": 9309,
      "ĠWat": 9310,
      "})$,": 9311,
      "Ġtempor": 9312,
      "Ġentries": 9313,
      "Ġarts": 9314,
      "Ġcolumns": 9315,
      "ĠTurk": 9316,
      "ĠAN": 9317,
      "Ġcerem": 9318,
      "ĠWisconsin": 9319,
      "blockList": 9320,
      "Ġreligion": 9321,
      ")),": 9322,
      "Ġreaction": 9323,
      "pic": 9324,
      "ĠEngineering": 9325,
      "ĠText": 9326,
      "ĠAnton": 9327,
      "ITY": 9328,
      "!!": 9329,
      "wall": 9330,
      "Prop": 9331,
      "keys": 9332,
      "HTML": 9333,
      "ocate": 9334,
      "Ġopposition": 9335,
      "Widget": 9336,
      "conv": 9337,
      "Ġbalance": 9338,
      "gment": 9339,
      "radius": 9340,
      "rat": 9341,
      "Del": 9342,
      "Ġfiction": 9343,
      "Byte": 9344,
      "Ġenable": 9345,
      "spring": 9346,
      "odec": 9347,
      "Ġmusicians": 9348,
      "Root": 9349,
      "unes": 9350,
      "Ġclusters": 9351,
      "opic": 9352,
      "Ġdance": 9353,
      "ĠWars": 9354,
      "ĠLev": 9355,
      "1919": 9356,
      "ĠOt": 9357,
      "Ġscales": 9358,
      "ĠBal": 9359,
      ",\\,\\": 9360,
      "Media": 9361,
      "Ġpatterns": 9362,
      "diff": 9363,
      "Ġlicense": 9364,
      "acks": 9365,
      "Ġchallenges": 9366,
      "Ġcomputational": 9367,
      "Ġzone": 9368,
      "Ġrecommend": 9369,
      "ĠDespite": 9370,
      "Ġresulted": 9371,
      "Ġ^": 9372,
      "Custom": 9373,
      "ĠDoug": 9374,
      "ĠNetherlands": 9375,
      "Ġcategories": 9376,
      "ĠĠĠĠĠĠĠĠĠĠĠĠĠĠĠĠĠĠĠĠĠĠĠĠĠ": 9377,
      "forcement": 9378,
      "Ġseats": 9379,
      "periment": 9380,
      "mazon": 9381,
      "125": 9382,
      "ĠKir": 9383,
      "XT": 9384,
      "Ġinstitution": 9385,
      "ĠUser": 9386,
      "large": 9387,
      "Ġperformances": 9388,
      "Gen": 9389,
      "sql": 9390,
      "ĠAli": 9391,
      "Ġclosely": 9392,
      "Ġconvent": 9393,
      "ĠDig": 9394,
      "Ã¸": 9395,
      "Ġstability": 9396,
      "ĠNC": 9397,
      "Ġterritory": 9398,
      "Ġcart": 9399,
      "Ġofficially": 9400,
      "ĠGro": 9401,
      "ĠNO": 9402,
      "Ġextensive": 9403,
      "ymmetric": 9404,
      "Austral": 9405,
      "Ġcalculation": 9406,
      "Ġcalculations": 9407,
      "Ġexplicitly": 9408,
      "Ġsculpt": 9409,
      "iveness": 9410,
      "blem": 9411,
      "Ġtaught": 9412,
      "protobuf": 9413,
      "Ġmonitor": 9414,
      "ĠKel": 9415,
      "aux": 9416,
      "Tim": 9417,
      "ĠassertEquals": 9418,
      "ivery": 9419,
      "Ġeq": 9420,
      "Ġdeleg": 9421,
      "Ġreceiving": 9422,
      "Ġanimals": 9423,
      "pres": 9424,
      "Ġrepro": 9425,
      "Nov": 9426,
      "Ġelectronic": 9427,
      "Ġgained": 9428,
      "ĠSanta": 9429,
      "islation": 9430,
      "ĠAnth": 9431,
      "ĠSteve": 9432,
      "jar": 9433,
      "Ġweights": 9434,
      "Ġtraject": 9435,
      "tw": 9436,
      "Ġwealth": 9437,
      "}{|": 9438,
      "Ġexcell": 9439,
      "Ġpublication": 9440,
      "vs": 9441,
      "agnetic": 9442,
      "TA": 9443,
      "Ġcoordinate": 9444,
      "Ġcompeted": 9445,
      "iner": 9446,
      "Video": 9447,
      "ĠAction": 9448,
      "Descriptor": 9449,
      ",$": 9450,
      "III": 9451,
      "Ġtreated": 9452,
      "fly": 9453,
      "ĠStadium": 9454,
      "DI": 9455,
      "ĠEll": 9456,
      "Ġfashion": 9457,
      "Ġcalculate": 9458,
      "vard": 9459,
      "Ġvariation": 9460,
      "Ġatmosp": 9461,
      "Ġion": 9462,
      "1935": 9463,
      "atern": 9464,
      "ĠCountry": 9465,
      "ĠEnergy": 9466,
      "rizona": 9467,
      "Ġ$|\\": 9468,
      "person": 9469,
      "Ġspons": 9470,
      "Ġamplitude": 9471,
      "Ġcampus": 9472,
      "Ġcoinc": 9473,
      "Ġcomputation": 9474,
      "ĠRoute": 9475,
      "Ġcamera": 9476,
      "uli": 9477,
      "ODO": 9478,
      "ĠGer": 9479,
[...]
