#version: 0.2
Ġ Ġ
Ġ t
i n
Ġ a
h e
o n
e r
r e
ĠĠ ĠĠ
a t
Ġt he
e n
Ġ s
o r
a n
e s
i t
i s
Ġ c
Ġ w
a l
Ġ o
a r
e d
Ġ f
in g
Ġ p
n d
Ġ b
i on
o u
i c
Ġ in
Ġo f
l e
a s
Ġ m
Ġt o
Ġa nd
Ġ d
r o
en t
Ġ h
c t
e t
e l
i l
s t
ĠĠ Ġ
Ġt h
o m
ĠĠĠĠ ĠĠĠĠ
â Ģ
Ġ re
Ġ n
Ġ S
a m
Ġ l
Ġ T
i d
Ġ C
o l
Ġ A
Ġ e
o t
i g
u t
a c
at ion
i m
u r
i v
a d
Ġ g
Ġ (
Ġ I
Ġ is
u s
a y
Ġ M
o w
Ġf or
l y
Ġ on
c e
Ġb e
er s
u l
Ġ P
Ġs t
c h
Ġ B
i r
a g
e m
u n
it h
o d
i f
t er
s e
Ġth at
Ġ v
a v
2 0
ĠĠĠĠ ĠĠĠ
Ġ D
u m
Ġ R
Ġw ith
a b
Ġ H
he r
Ġa s
âĢ Ļ
v er
es t
Ġ F
at e
t h
Ġc on
p e
Ġ y
is t
Ġ W
Ġa n
q u
Ġa l
Ġ L
an d
a p
Ġ it
h t
Ġ =
o c
Ġ $
e w
Ġ N
es s
Ġp ro
Ġw h
o p
r i
ĠT he
re s
Ġ G
ou r
il l
Ġ E
< /
Ġ \
ĉ ĉ
a in
Ġ r
or t
o s
= "
it y
Ġ he
Ġa t
en d
Ġw as
ro m
Ġc om
o re
ct ion
k e
Ġd e
u p
Ġb y
Ġe x
l d
Ġa re
ar t
) ;
as s
u b
Ġ or
- -
i es
Ġ J
m ent
Ġs e
Ġ âĢ
Ġ {
an t
Ġ <
Ġ O
iv e
n t
ig ht
am e
p t
e x
al l
Ġf rom
p l
in e
Ġth is
ag e
u re
1 9
u d
u e
/ /
o g
av e
i al
Ġc l
ĠĠĠĠĠĠĠĠ ĠĠĠ
Ġw e
u st
e ct
ac k
Ġ "
č Ċ
t r
. .
Ġt r
Ġs h
ar d
p ort
Ġn ot
g e
Ġc h
T he
an s
Ġ U
o v
ou t
Ġy ou
Ġ *
el l
b er
r ou
a ct
i z
0 0
f f
c l
Ġ us
as t
o st
a k
a re
Ġ le
p er
Ġh ave
i p
ul t
o k
' s
ar y
or m
i a
ou ld
at ed
Ġp l
ic h
Ġ K
20 1
e ar
Ġ }
ab le
" >
om e
ic al
in d
c on
at h
i re
id e
ic e
on g
or d
Ġa b
or k
ur n
Ġh as
ĠI n
âĢ Ŀ
Ġ j
e p
e g
Ġc an
{ \
Ġ &
it e
ac e
ion s
Ġal l
ĠS t
Ġ -
as e
Ġ k
Ġ V
in t
im e
e f
c c
Ġre s
ig n
ĠĠĠĠĠĠĠĠ ĠĠĠĠĠĠĠĠ
en ce
Ġcom p
Ġw he
t her
ex t
Ġh is
Ġin t
Ġ if
i le
a il
i b
ou s
Ġa d
Ġw ill
on e
ĠĠĠĠ Ġ
an ce
ation s
an g
r y
er v
en s
Ġ un
Ġb ut
Ġcon t
c om
( )
g h
u nd
Ġ im
er e
Ġd o
Ġwh ich
e c
ĠT h
Ġcl ass
f orm
e v
d u
Ġo ut
o ok
Ġg o
Ġn ew
s o
r a
* *
re f
ĠC h
it ion
Ġthe ir
g et
or y
ent s
Ġ up
Ġa p
p ro
Ġ en
il d
l i
o b
ub l
I n
Ġm e
ou nt
Ġ Ċ
Ġa r
ĠâĢ ľ
res s
t urn
y pe
Ġthe y
s p
_ {
Ġon e
Ġ '
ac h
al ly
l l
) ,
r u
ow n
i an
ar k
) .
Ġwh o
od e
Ġm ore
at a
p h
a ke
-- --
f t
Ġ Y
j ect
Ġw ere
1 0
ou nd
or s
ro w
f er
Ġd is
= =
re e
Ġs u
Ġs c
Ġp er
in k
Ġe v
m er
is h
el y
ic k
Ġm an
Ġs o
o se
on t
n e
Ġp art
oc k
ay s
ir st
Ġab out
er t
Ġal so
ubl ic
Ġs p
Ġa g
Ġ$ \
Ġ her
en c
ol l
Ġo ther
Ġl i
ter n
Ġ qu
Ġp r
Ġs a
ing s
20 0
t e
p s
ic t
i ew
Ġit s
Ġw ork
s s
Ġbe en
Ġh ad
Ġy ear
ĠĠĠĠĠĠĠĠ ĠĠĠĠĠĠĠ
Ġ [
p le
r it
Ġn e
he d
el f
ol d
at es
w o
ĠI t
Ġt e
m a
Ġre turn
cl ud
ri b
Ġo ver
er y
Ġp re
Ġg et
c k
o ol
ĠâĢ ĵ
w e
ul l
Ġt ime
re at
Ġo ur
al ue
f ter
n g
Ġy our
u g
our ce
y st
us e
i e
s c
le ct
f r
o ver
a w
ĠH e
on d
an c
on s
et h
st r
un ction
Ġw ould
Ġp e
Ġan y
pe ct
Ġ //
u al
Ġ ro
Ġwhe n
is s
m ath
Ġth an
ic s
v e
en er
pe c
er m
o y
S t
op le
Ġ </
i el
Ġ |
Ġthe re
Ġf irst
ĠU n
Ġof f
Ġs ome
Ġint o
Ġre c
1 8
ĉĉ ĉĉ
at er
o int
: :
ig h
Ġk n
Ġthe m
v el
- >
p r
l es
^ {
Ġa cc
} \
s h
Ġs up
Ġ /
1 2
Ġd es
ad e
.. /
ation al
Ġin d
Ġcom m
Ġ und
Ġsa id
i ous
t he
Ġin ter
t t
iz e
r am
pt ion
y s
Ġ +
Ġas s
l o
} $
iel d
Ġs he
i o
yst em
Ġde f
Ġt wo
Ġs et
Ġli ke
rou nd
Ġn o
i x
p ar
ol og
in al
" ,
n ing
Ġ @
Ġb et
r ap
ov e
Ġo b
Ġbe c
if ic
Ġon ly
c re
ĠW e
Ġpe ople
i ed
ĠC om
is e
e qu
em ber
m l
ĠA r
Ġf e
Ġst r
Ġpl ay
Ġm y
ess age
Ġwh at
Ġp ublic
Ġad d
id ent
Ġin clud
Ġa ct
iv ers
it ies
p os
Ġm od
or ld
T h
ĠN ew
em ent
ap p
Ġj ust
p ut
t a
an ge
as ed
Ġ .
E R
at ing
Ġo p
ĠTh is
t y
a x
Ġre g
ar ch
Ġa m
al s
at ive
1 1
Ġn ame
Ġund er
ul ar
rou gh
Ġcon s
re d
ĠP ro
Ġa fter
Ġin v
E x
Ġe m
s et
Ġh ow
Ġe ver
l and
ot h
l ine
w ard
Ġb ack
Ġb l
.. .
Ġpro v
Ġc ol
ou gh
it ed
a use
Ġm ay
e k
w n
i ent
( "
1 5
u es
Ġwhe re
Ġs ub
ar g
r ight
Ġtr ans
Ġv ar
Ġre l
} }
sp an
ment s
an k
: //
( );
Ġd if
ow er
t o
Ġp os
o od
d iv
at ch
Ġ end
Ġm ost
f ig
> </
r ay
rou p
Ġf unction
am p
um ber
il ity
ĠS e
( \
it t
ĠT r
Ġb u
am es
Ġp h
ut ion
1 6
er r
Ġh im
ur ing
u res
as h
Ġth rough
Ġst ud
Ġre m
eg in
ic es
oll ow
ab el
ib le
n c
' ,
> <
O N
it s
t s
c he
---- ----
an n
Ġat t
I N
il y
o x
Ġd ata
ar s
t ext
Ġp ol
Ġthe se
Ġs erv
âĢ ľ
t on
al e
m s
Ġsh ow
an y
Ġthe n
2 1
a ir
Ġne ed
at or
tr ing
b egin
Ġ :
ĠA l
if e
ur re
Ġpro du
Ġf l
Ġc ould
Ġsu ch
e ad
h at
d ay
res ent
e b
ĠS h
P ro
o id
en g
Ġyear s
. âĢĿ
ire ct
Ġ ent
in s
Ġb r
n er
im es
3 0
Ġ #
Ġw ell
w w
Ġcon st
Ġus e
y m
Ġ ke
b le
o ot
d er
c ess
Ġa c
Ġs pec
Ġc all
ut h
../ ../
f ul
Ġc o
Ġl oc
re ad
Ġres ult
we en
Ġre qu
mer ic
at ic
a h
in ce
in es
le t
ers on
u ch
ch ool
Ġn ow
Ġag ain
Ġl ine
re n
_ {\
ot her
ĠA n
1 4
con d
ht ml
as on
Ġf il
ut e
Ġe ff
p on
' t
) $
1 7
at ure
Ġkn ow
o f
Ġ* /
Ġin st
id er
Ġf ollow
he n
Ġever y
19 9
l ed
Ġg r
Ġdif fer
R E
ction s
Ġus ed
s ource
2 5
m an
1 3
rap h
ag es
ĠC l
Ġh ref
v ent
Ġsh ould
Ġfor m
l ation
ĠĠĠĠĠĠĠĠ ĠĠĠĠĠĠĠĠĠĠĠ
** **
el s
} ,
tr ans
Ġs m
Ġbet ween
c al
ak ing
ist s
al th
== ==
c ent
Ġt ype
Ġc or
g an
m essage
Ġ el
ĠĠĠĠĠĠĠĠ Ġ
Ġst art
C h
t ing
o h
ĉĉ ĉ
form ation
Ġd id
} {
Ġs ystem
Ġman y
n ame
Ġbe ing
Ġr ight
h ip
( '
d d
Ġ i
A T
âĢ ĵ
Ġm ake
r al
v iew
Ġd et
Ġse e
i ence
Ġev en
ri pt
pl ic
i er
Ġd ist
iv es
urre nt
ĠA nd
Ġv alue
Ġl ook
20 20
is hed
S T
f ore
Ġl ong
Ġhe l
oc i
eth od
Ġs im
in ed
th is
fr ac
Ġs ur
w ay
) )
e le
Ġ Q
Ġch ar
Ġg ener
Ġh igh
I t
a z
et s
at t
Ġs ign
00 0
ht t
I D
Ġbec ause
Ġg u
is ion
ru ct
c ed
ou se
enc es
ĠF or
Ġw ay
Ġc ount
t d
Ġar t
m in
iz ed
in ess
s on
Ġo wn
_ _
Ġv ery
ĠA meric
ant s
t ain
or n
Ġm on
Ġp oint
us s
ivers ity
Ġ Z
olog y
al se
is m
r ic
c ol
er n
al k
Ġbe fore
e ver
f l
C om
Ġdo es
N ame
p ress
ĠE x
Ġre ad
Ġex per
Ġm in
at her
ĠS c
Ġw orld
od y
Ġc re
b r
C on
e q
A R
Ġ ed
Ġs elf
i k
Ġsup port
u c
Ġm ade
Ġwh ile
W e
ch n
Ġt est
Ġde c
l abel
Ġb el
e y
Ġle ad
Ġp ar
âĢ ¦
Ġf ound
Ġd r
or th
T ype
et a
Ġe ach
Ġl ast
Ġs er
t en
ĠC on
/ >
Ġm ed
Ġn umber
ĠI nd
Ġd own
g ram
Ġf am
vel op
g y
ce pt
Ġ= >
im port
ot e
5 0
O R
Ġe ar
Ġde velop
I d
Ġth ose
ĠY ou
s elf
Ġs ame
, âĢĿ
ro ss
ire d
it al
ac he
us iness
Ġm uch
Ġc ase
as k
ical ly
e e
Ġgo od
par am
Ġth ink
Ġb oth
em b
le ft
um ent
iv er
ĠâĢ ĺ
b y
are d
a u
ers ion
Ġhel p
S tring
# #
C ont
o le
r m
am b
Ġc ent
Ġd on
Ġhe re
2 4
or g
a j
" />
ĠD e
Ġe le
Ġf ind
Ġh and
ad d
Ġte am
c es
. ,
Ġth ree
. "
Ġw ant
iv en
a ult
Ġdis c
u ally
ĠI s
Ġdiffer ent
C l
trans lation
E N
it le
ĠA s
Ġd uring
ro l
w ork
iv ing
Ġv al
re am
Ġl ist
d ef
Ġa v
Ġs ol
n ess
Ġo per
en se
ĠP h
2 2
Ġr un
ĠF r
Ġc ar
A L
Ġm ov
as es
iv ate
ĠC ol
Ġf in
ar m
c ite
Ġap pro
) :
c ode
Ġst ate
Ġg l
ĠW h
y p
ĠP l
Ġre port
y le
Ġc he
p re
Ġcomm un
enc y
cc ess
he re
Ġin formation
ak es
Ġs l
ĠB l
ot t
b ack
re turn
Ġe qu
Ġf act
c o
ce ption
Ġre al
R es
Ġst ill
ur al
Th is
equ ation
ĠR es
Ġg reat
Ġse cond
Ġcont in
Ġm ark
g ht
Ġex t
i ev
Ġre p
et er
ou th
Ġpart ic
Ġus ing
iz ation
b l
, \
ion al
$ .
} )
f or
s er
ot s
m od
Ġt ake
r on
cl ass
y n
f o
um m
ĠB ut
ĠR e
$ ,
A r
b ar
Ġp erson
am ple
Ġ| |
A N
T r
in a
Ġ >
us ic
Ġwe ek
ĠM ar
Ġ !
ĠI f
ĠâĢ Ķ
ĠUn iversity
Ġc ap
an e
m e
Ġ est
Ġa round
m ed
are nt
ĠP r
ain s
Ġg ame
Ġs om
v al
b s
ent ial
Ġl ife
if ied
Ġd irect
Ġper form
Ġpro cess
Ġw rit
Ġp at
Ġ --
L E
Ġch ild
p art
19 8
Ġp ass
Ġre le
Ġtr ue
et y
v en
2 3
is ter
l oc
ĠS he
Ġim port
ĠA d
iss ion
if y
Ġv is
le ar
L ist
um p
v ar
ĠO n
Ġin cre
ĠCom m
Ġd ay
A S
Ġ _
ur y
t ype
g er
Ġs ay
Ġeff ect
id th
Ġc our
b f
Ġb ook
Ġop en
Ġto p
re en
Ġagain st
es c
Ġc urrent
oh n
Ġbu ild
ro p
b e
Ġinclud ing
ĠM ay
Ġb est
Ġp ost
uth or
iv ed
ar get
ĠJ an
Ġf r
Ġ X
o ber
Ġm ain
Ġc r
l ess
} .
u le
Ġhe ad
Ġ x
s ide
Ġap p
le y
d a
4 0
Ġs ing
ĠH ow
ar n
Ġprov id
un e
1 00
pl ay
end s
om en
T o
qu e
ph a
Ġc are
ist ory
Ġel se
Ġ= =
20 19
B y
tern al
n ment
t il
ĠS p
s ub
Ġb re
ou nc
per ty
en n
n ot
Ġd el
Ġst at
it ions
Ġs ince
Ġ `
ĠU S
ur s
Ġn on
ord s
r ist
Ġn ull
ill ion
Ġor der
Ġgo ver
ir d
Ġf alse
Ġp res
Ġpos s
Ġf ield
Ġsm all
eng th
Ġf inal
i or
math cal
Ġs chool
I T
Ġs ays
Ġpro gram
Ġall ow
A n
Ġp op
al ity
Ġm ust
av ing
ĠA ll
ac y
Ġdes ign
Ġt erm
Ġv oid
Ġex pl
ro ll
pon se
r ation
ain ing
ĠE ng
u ff
os s
Ġad v
ĠL e
Ġb o
le x
ĠO r
Ġex pect
Ġg roup
} (
Ġdes c
g g
v ious
us h
Ġp ower
u ro
201 8
2 7
2 6
Ġb usiness
u ck
Ġte chn
ke y
oc ial
ĠThe y
i um
"> <
2 8
err or
Ġn ext
Ġst and
Ġap pe
le ction
at s
con t
b all
pl oy
is ed
Ġpl ace
n ew
o ad
iv ely
E S
Ġh ome
op t
Ã ©
A s
Ġcons ider
Ġle vel
201 7
u ild
R ef
Ġm et
p or
Ġpro t
o pe
at ter
Ġis s
a ction
Ġan n
Ġre ce
ab ility
lo ad
âĢ Ķ
Ġgo ing
Ġl aw
ĠM an
al pha
Ġpro f
ĠB r
Ġre ally
w ays
Ġ )
Ġf our
a ff
ail able
F or
f ace
ul ation
et work
s erv
201 6
er ing
l er
Ġp resent
ĠC ent
Ġre f
a f
ect ed
ĠA ss
ir c
or ies
A C
com m
Ġfollow ing
6 0
d ate
} ^
ar ge
p i
Ġm ethod
Ġchar act
str ing
19 7
Ġ Â
ĠAmeric an
he ad
ĠĠĠĠĠĠĠĠ ĠĠĠĠĠ
Ġmon th
Ġo pt
ĠN ov
ĠĠĠĠĠĠĠĠĠĠĠĠĠĠĠĠ ĠĠĠĠĠĠĠ
Ġan other
l ing
3 2
rib ut
at ely
Ġloc al
ord ing
I C
Ġg iven
Ġmod el
O n
Ġinv est
Ġto o
Ġinter est
} _
ust om
p ed
ou ght
it em
U n
Ġt ri
ĠB e
a i
b b
Ġwith out
ac es
re g
av a
Ġor gan
ĠA p
Ġd em
ic le
r or
ol v
-------- --------
Ġ id
ĠT e
Ġpro ject
id d
um an
Ġo ld
g r
en e
el ta
it or
ĠT o
Ġle ft
// //
v ir
se arch
u ly
Ġf ew
Ġfam ily
ĠJ ohn
Ġ z
as ter
Ġle g
Ġh app
$ \
he s
2 9
ra w
in ation
Ġhe alth
u ary
~ \
ate g
itt le
Ġbe h
" )
ww w
Ġan al
201 5
um n
re m
ĠG r
Ġs k
C ol
tr act
amb da
w it
Ġpr ivate
Ġs pe
Ġh tt
ĠC ar
ert ain
Ġw in
tern ational
emb ers
Ġor ig
b ject
Ġb ro
f ield
Ġev ent
ĠUn ited
a im
ĠC an
ord er
Ġl ink
re qu
ial ly
d ata
3 3
D ata
ur ch
Ġt urn
st and
S h
ap t
Ġman ag
Ġv iew
um b
i ents
ou n
og raph
ob al
it ive
a pe
w are
Ġe lect
ent ly
op y
Ġtr y
ĠM ed
ĠĠĠĠ ĠĠ
Ġob ject
Ġcomp any
ne y
Ġb ig
ĠO ct
ĠP ol
ab l
th ing
Ġwith in
port s
am ma
t ime
ĠC O
V alue
v ers
m u
) \
ep end
Ġ et
con om
Ġg row
E C
ail s
A M
Ġcon d
E D
ro id
Ġch ang
ep s
Ġpro ble
Ġa ut
aj or
g o
201 4
Ġp ut
Ġstr ing
oc ument
ide o
ight s
Ġse ver
Ġse ason
Ġm ult
Ġne ver
em s
ri es
Ġke y
in c
iv id
20 21
ar i
Ġcall ed
**** ****
ic y
v alue
ĠA t
ver t
iv al
eth ing
Ġoff ic
H e
htt p
" );
Ġex p
ition al
og le
h o
ĠA ug
ard s
A l
p x
our n
umm ary
Ġav ailable
du ct
Ġqu est
Ġ ident
ind ow
loc ation
C O
um er
b ox
Ġprodu ct
end ed
i am
ĠC ount
ĠThe re
g round
ĠC o
l og
ĠĠĠĠĠĠĠĠĠĠĠĠĠĠĠĠ ĠĠĠĠĠĠĠĠĠĠĠĠĠĠĠĠ
Ġvar i
Ġl im
ain ed
oc us
Ġb ased
Ġt em
Ġf ull
al es
Ġbet ter
Ġn ear
Ġch ange
Ġle t
Ġm usic
Ġin s
htt ps
a ut
ag n
ĠG u
is ing
Ġen g
our s
ent ion
E T
ar ray
ĠA pr
Ġser ies
ĠN o
Ġg ot
Ġar g
if t
Ġfil m
ang u
is on
our ces
Ġl a
Ġl ess
) );
I S
ur ity
n b
m p
Ġin it
ap s
ab ly
Ġcom e
R O
m y
Ġcon f
ward s
ĠA ust
on y
os p
ĠJan uary
6 4
201 3
Ġde p
Ġacc ess
ur ther
and s
Ġres p
S et
it er
i ans
ĠW orld
Ġm ight
b o
vir on
f e
Ġa ff
Ġgover nment
is k
ar r
_ \
ri ption
Ġkn own
Ġst ory
Ġas k
Ġ/ **
Ġre st
iv ity
a it
Ġpol it
Ġo cc
ut ure
= \
Ġde v
Ġresult s
Ġf ree
read y
il ar
r ite
anc es
m ber
Ġsu ccess
end ing
Ġpl an
Ġl ater
Ġal ong
G et
Ġh ard
sc ript
ĠF l
Ġsom ething
ĠN ational
Ġe as
ure d
o in
ig ma
Ġal ways
Ġserv ice
ĠY ork
ific ation
Ġcont ent
I nd
ore d
ĠS o
4 5
g in
Ġ\ \
Ġth ings
y l
Ġ ide
Ġun til
ater ial
g ed
] ,
I m
Ġimport ant
o ff
Ġstud y
P h
E r
ĠM arch
( $
ĠE d
ĠM in
ĠCh rist
ĠS chool
201 2
Ġst ruct
==== ====
Ġpar am
al f
ic a
' )
Ġl arge
i od
che s
Ġ{ \
un c
nb sp
um e
Ġare a
erv ice
Ġre t
Ġme as
3 5
] ;
I ON
uro pe
om an
, "
Ġcount ry
Ġ& &
Ġ ,
et ing
un g
Ġl ittle
ph i
A P
L L
Ġs it
ess ion
8 0
Ġd ays
ĠD r
Ġpro m
Ġin c
Ġf ri
i ke
Ex ception
s w
ce mber
ĠG e
ain t
il es
im ate
d is
Ġf ac
c er
at ors
ĠTh at
con st
Ġcont rol
ĠW ith
t est
it her
] .
^{ -
Ġme an
pt ember
Ġfe el
Ġof fer
p ly
Ġp ay
Ġrep resent
Ġ// /
T est
er ed
Ġd i
u k
Ġt itle
ĠSt ate
I f
ĠF eb
Ġst atic
Ġsh ort
one y
a us
t op
ear ch
Ġchild ren
on es
^ {\
ap er
b ook
A nd
ĠJ une
ĠS up
d e
c ast
f ile
v es
ol ution
ĠSt ates
Ġre fer
id es
ĠC ity
Ġcl os
l ink
Ġ %
Ġrec ord
} _{
Ġap plic
s ize
Ġw ater
Ġm ajor
p m
se ction
ĠS outh
ĠI m
at ures
V iew
o ice
Ġen er
Ġc ell
Ġf ar
ĠE n
Ġf ore
ĠJ uly
viron ment
Ġf ile
R e
Ġsing le
3 1
Ġinclud e
le ment
Ġt arget
Ġl ot
Ġs ocial
ĠR ep
ĠM c
Ġm embers
ĠIn st
M od
Ġan t
Ġal ready
Ġsp ace
Ġd ue
Ġb as
Ġex ample
Ġear ly
Ġto t
Ġke ep
l ist
Ġcommun ity
i que
ut il
S c
Ref er
Ġac ross
Ġl ove
ĠS tring
pos ed
Ġc ost
Ġt imes
ul es
w h
201 1
ĠApr il
ĠC al
r c
Ġp ot
Ġw omen
Ġsever al
S e
Ġc lear
O bject
u ed
ĠNew s
ĠR ev
le ge
Ġl and
Ġm illion
ict ion
ir l
U S
in clud
201 0
Ġc ity
ĠOct ober
W ith
ur ation
Ġim pro
Ġf und
"> </
f unction
l ambda
Ġt ext
Ġdesc rib
ect or
Ġa way
N ew
Ġle ast
Ġcharact er
id ence
D E
Ġt yp
ĠDe cember
Ġs ize
ĠNov ember
ĠE urope
Ġbel iev
Ġs ide
ĠC ont
ĠAug ust
Ġst re
ib r
Ġ! =
Ġa uthor
ĠP ar
ev el
Ġind ust
al ign
ang le
il t
Ġde ath
ag er
Ġli k
Ġprov ide
Ġche ck
t ies
ĠP art
re w
n av
ĠSe ptember
j s
Ġposs ible
ĠW ill
pl es
w idth
() .
p ublic
Ġwork ing
Ġpartic ular
Ġc over
Ġf oot
Ġrequ est
ar ing
em pt
Ġpr act
Cl ass
ys is
W hat
Ġse c
Ġre search
A ll
Ġr ad
b ut
ag ue
Ġp ast
ĠA b
Ġh istory
ĠW ar
ĠP res
ĠĠĠĠ Ċ
ra ft
ur l
Ġm aking
Ġph ot
u f
() );
angu age
9 0
Ġl ow
} ^{
Ġim p
Ġl og
Ġh uman
ak en
Ġab le
Ġm en
Ġm ass
ens ion
Ġexper ience
Ġc rit
Ġh ig
Ġv ol
P ar
ĠC he
Ġem ploy
Ġt alk
il le
b um
. </
Ġwh y
Ġspec ial
Ġh old
lect ed
g ress
ĠC or
ou ble
ind ex
ro du
Ġg ive
U R
Ġres pect
orm al
n ow
- \
Ġplay ers
Ġyou ng
ĠN orth
d own
i ol
Ġre du
Ġre view
Ġc amp
ic ro
rib ute
Ġa ir
Ġm ar
h am
ivid ual
math bb
ĠO ff
n ers
Ġbre ak
Ġcre ate
ĠA m
Ġbec ome
ĠCount y
ĠR eg
ĠAust ral
Ġstr ong
ĠM e
A D
get her
Ġto gether
Ġv ersion
B ut
IN G
Ġab ove
Ġw on
à ¤
Ġl ight
Ġener gy
s ummary
Ġs ong
Ġth ought
H ow
s k
Ġadd ress
Ġh aving
A p
Er ror
Ġen c
ack age
Ġcl aim
c her
Q u
av el
ĠHow ever
Ġp ath
et ers
il it
7 0
Ġdisc uss
r ict
19 6
ĉĉĉĉ ĉ
Ġp ubl
ĠA g
Ġl arg
Ġth row
Ġc al
[ '
Ġp o
Ġstud ents
ĠB rit
Ġc ustom
Ġc ult
3 6
" ;
ad a
P l
Ġp ort
9 9
O T
=" +
c d
V ID
m ost
ir t
at ri
re l
Ġa ction
b t
W h
Y ou
ru ary
f in
3 4
ĠB y
ĠW hat
er al
Ġgener al
ab or
w here
am ed
Ġn etwork
st er
press ion
Ġserv ices
Ġof ten
se c
ent al
Ġass oci
Ġpre vious
le ase
Ġm om
" :
Ġtr ad
Ġf uture
Ġam ong
Ġdevelop ment
Ġor g
K ey
at us
Ġnew s
ĠG l
I nt
Ġcomp let
Ġs ite
ĠO ne
Ġacc ount
tr a
Ġunder stand
Ġse en
ĠG o
b eta
. _
Ġex ist
t able
Ġto day
Ġth ough
Ġj ob
ĠQ u
i ef
il on
Ġ( \
Ġex c
ib ility
m et
Ġt ell
Ġto ok
ail ed
Ġc ame
ill s
ic on
U T
Ġsign ific
H E
un ity
ag s
Ġbl ock
an a
Ġob serv
Ġf ocus
Ġdid n
p ath
\ \
Ġme ans
3 7
Ġk ind
id s
Ġpro b
Ġcon c
p ace
s el
p ing
Ġcom b
Ġen ough
0 1
I s
Ġe conom
Ġper iod
Ġpos ition
u ation
ip s
ĠW hen
as c
n o
Ġt reat
end er
ple ment
Ġmed ia
Ġ/ >
qu ot
cl us
' );
Ġe p
! --
Ġsim ilar
in o
h old
ist or
5 5
res p
ĠAr t
Ġrequ ire
Ġf ive
op h
b ol
Ġ u
ĠE l
Ġb en
og n
rib ution
in ter
Ġcour se
Ġed uc
ou d
Ġar r
Ġ ?
op s
Ġus er
ourn al
col or
a ul
Ġtr ack
bs ite
N ot
ar row
ist ic
p en
3 8
Ġd one
M an
ild e
Ġf urther
ac c
u x
g a
ĠA ct
ru ction
3 9
Ġro le
ĠD is
.. ..
er o
Ġg ames
ri ed
ĠN ot
ĠM ark
Ġh ouse
op er
S S
it ing
Ġs ym
ĠW est
Ġother s
Refer ences
Ġtot al
b ody
Ġind ividual
ĠE m
Ġest abl
Ġr ange
A dd
Ġw ar
Ġc ertain
ĠS ystem
s um
R equ
200 9
O r
em ic
ĠD o
Ġth ing
Ġd om
Ġdet erm
ĠD av
Ġt re
ĠFeb ruary
Ġs ure
oc r
F ile
T R
Ġinv olv
e h
Ġon ce
Ġg en
th ough
Ġval ues
g l
B l
Ġpot ential
ond on
olog ical
z e
ĠB o
l ish
Ġfor mer
ec ut
' ]
Ġv ideo
Ġp ri
od es
s igma
nd er
I G
=" ../../
Ġl ive
" .
() ,
ĠP ark
Ġm em
ir m
g amma
er a
T ime
n a
Ġmark et
I M
Ġc ur
Ġb ody
her n
Ġint eg
Ġm akes
Ġpoint s
ill ed
4 4
ĠB ar
ĠP er
rou ps
im al
le te
Ġn ight
Ġs ource
200 8
E n
Ġst yle
Ġc ou
ĠH ouse
ĠS er
ab les
Ġr a
itt ed
k s
ĠA fr
Ġshow s
Ġproble m
g roup
Ġb ase
ac ed
Ġrel ations
Ġdoes n
s m
ĠS m
} {\
Ġob tain
o on
Ġcomp et
Ġth ird
ĠM y
Ġsignific ant
us er
ĠR ec
if f
ud e
ĠThe se
ing ton
un ch
A t
Ġph ys
Ġb it
Ġ es
ĠTr ump
Ġc oll
ĠU K
ip le
Ġorig inal
Ġwhe ther
7 5
Ġc ases
P r
w ith
4 8
ĠG erm
e ff
n ect
The re
Ġm ot
ir us
at form
en ed
re t
Ġs ix
Ġs ound
Ġc reat
Ġs w
em ents
Ġp ress
ĠHe alth
Ġp arent
Ġsup er
Ġres ponse
Ġy et
d om
o ke
Ġde al
ct or
d o
il ities
um ents
Ġal bum
ĠD ep
p oint
as ing
ĠCom p
ĠĠ Ċ
ĠPres ident
Ġst op
Ġre ason
Ġe ither
Ġ error
per ties
ay er
Ġa ge
y d
' re
se e
p ose
y ear
pos ition
Ġperform ance
U N
l im
Ġh ost
Ġev ents
Ġw ent
m d
Ġs at
0 5
i j
ur g
Ġcomm on
Ġstart ed
A B
in ary
ĠA fter
Ġr isk
O ver
id ge
E vent
is es
an ies
ig ation
Ġf lo
' :
Ġp age
ix ed
ag ed
+ \
math bf
Ġbec ame
re st
ĠI nt
Ġcomp ut
ĠSt ud
r ing
ĠH is
Ġsu gg
Ġon line
Ġab s
Ġsugg est
am a
D ef
Ġmonth s
art ment
Ġm aterial
Ġto ld
Ġatt ack
Ġn ec
6 6
ĠK ing
Ġm ax
F F
ir th
ap an
ne ction
Ġch all
a ur
ĠP e
Ġm oney
L O
St ate
ĠS ch
c hed
it es
e ed
` `
T ext
Ġbuild ing
f rom
d t
Ġh alf
Ġf ood
Ġ err
ĠAmeric a
Ġcl ose
ut ions
Ġs ent
Ġc ode
re ed
he l
at ory
C H
qu ad
g es
ĠCO VID
h ib
s y
d elta
Ġm iss
ĠI I
ĠB ro
in st
ĠL ondon
b ig
idd le
Ġle arn
b it
al d
r ho
Ġpro perty
In fo
Ġbe gin
Ġbl ack
## ##
ref er
ĠCh ar
Ġterm s
Ġa ud
F rom
F orm
S E
the ta
ĠH ar
av es
in it
Ġrequ ired
Ġ-- >
ver age
at ural
ta u
am s
ounc il
Ġn ational
Ġre d
ott om
Ġd est
^ \
A d
g ing
l ight
eq n
al t
Ġwe bsite
row n
Ġt aken
Ġact ually
l in
Ġ ens
Requ est
u ct
au gh
Ġact iv
ĠS ec
n u
Ġind ic
Ġb ound
Ġindust ry
ur b
st ate
Ġquest ion
Ġlink s
/ **
Ġd ocument
a el
Ġdif f
ĠG et
) }
ac hed
im um
Ġt w
Ġag o
ĠR uss
P ath
resp ond
C T
un k
am ent
A G
Ġin fl
Ġpat ients
ic les
fig ure
i et
ann el
Ġcol or
Ġint rodu
Ġass ert
ĠM r
Ġre pl
200 7
Ġm ove
Ġ );
Ġf ace
ok en
ĠH igh
l ength
w ord
ĠG ener
19 5
4 9
pon ent
Ġm ember
Ġen vironment
I P
a ign
Ġb i
c le
oci ety
Ġcom es
/ *
Ġf av
b ased
Ġbel ow
Ġperson al
Ġf all
Ġpre d
min ist
atri x
Ġgl obal
l t
Ġlook ing
ag ing
Ġro om
ad es
ĠM ich
ĠA ng
epend ent
ab led
et t
Ġv ia
Ġresp ons
f ord
i us
N ode
ĠL aw
In st
re et
i ation
ap i
ĠM ore
ĠM on
() )
ole an
ig ital
} ;
Ġm atch
ell ing
an ch
ĠĠĠĠĠĠĠĠĠĠĠĠĠĠĠĠ ĠĠĠĠĠĠĠĠĠĠĠ
Ġp ur
ut es
Ġfe atures
Ġexpect ed
Ġm or
n es
fer ence
ay out
N o
Ġcont ext
Ġacc ording
Ġhtt ps
en ing
E qu
Ġfe ature
Ġc ut
Ġop port
4 7
0 7
com p
sp ace
j oy
tr ue
r ide
ĠD on
Ġcontin ue
id ay
I L
Ġcor re
ames pace
ĠT V
u i
Ġhtt p
ak er
Ġe y
a id
Ġvis it
Ġdo ing
Ġoffic ial
r is
Ġprovid ed
Ġt able
* }
Ġsystem s
Ġh om
t itle
Ġhe ld
m it
med i
i res
Ġopt ions
ĠA ir
Ġrece ived
ank s
con fig
Ġto wn
O f
Ġplay ed
ĠC our
Ġrele ased
0 8
Ġprodu ction
Ġse ction
Ġbr ing
id ed
Ġal most
EN T
Ind ex
m ark
v oid
Ġ Ð
ig ure
se qu
Ġben ef
ĠU p
Ġpr im
ograph y
Ġvar ious
s up
et urn
ĠIn ternational
at est
r up
Ġwork s
ag ement
Ġr ather
a ug
ign ed
Ġdef ault
ĠTr ans
$ -
x i
4 6
Ġann ounc
//// ////
F ield
ru g
v ersion
part ial
Ġtechn ology
M ap
Ġchang es
es e
ĠCol lege
Ġimp act
ĠEng lish
200 6
Ġc irc
Ġreport ed
Ġper cent
ish ing
C C
Ġse em
Ġent ire
Cont ext
ĠS tr
bl ock
um mer
anc ial
Ġneed s
al y
u el
Ġt ax
Ġn eg
Ġfr ont
e ction
F r
Ġadd ed
Ġhow ever
att le
Ġsub ject
pec ially
h ing
Ġar ray
Ġreg ion
b or
Ġcomp anies
t imes
o e
m on
. )
m en
Ġim age
Ġcre ated
ĠD em
Ġwho le
0 6
Ġhig her
ch iev
Ġf un
Ġr ate
0 9
sel ves
Ġt aking
ĠD es
f ect
math rm
g en
ĠCent er
Ġm ind
ibr ary
Ġd ate
Ġc aus
Ġso ft
Con fig
Ġw alk
el t
Ġback ground
Ġw atch
m ap
Ġ( !
ov ed
Ġiss ues
ĠI N
ful ly
re c
B C
et ic
ĠH er
Ġh ours
Ġd en
O S
Ġanal ysis
a e
Ġg round
s l
o res
Ġsu ff
ma z
U p
' ;
ĠBl ack
+ +
Ġget ting
ĠJ apan
un t
oun ter
Ġv iol
Ġsh own
S ervice
du c
ic ation
Ġl o
s q
Ġbeh ind
com ing
Ġpolit ical
Ġm essage
Ġpartic ip
v ed
Ġse x
pl ate
v ision
ref ore
Ġin put
Ġmom ent
ĠM od
o o
Ġ} );
0 4
yn am
Ġc y
ce ed
Ġst ep
ĠF in
Ġam ount
L oc
\ ,
Ġappro ach
Ġb ad
Tr ans
W hen
in put
S P
Ġlik ely
ĠO f
Ġw ords
0 2
}$ ,
cont ent
I R
ĠInd ia
Ġcon fig
Ġright s
Ġst ates
Ġadd ition
Ġac cept
if orn
res ult
he m
}$ .
ome ga
le q
] {
Â ł
Ġ$ (
Ġrec ent
ar ning
Ġ} ,
ens ive
B uild
Ġsh are
Ġhe art
Ġeng ine
ĠV al
Ġb and
ob ject
ic ult
Ġim m
om et
Ġ ill
Ġinclud ed
R ead
ĠF rom
r t
it ute
Ġg roups
ĠBrit ish
ac ing
Ġspec ific
O D
Ġart icle
Ġeff ort
Ġf ight
am ples
M L
pro t
n s
Ġbeliev e
ic an
t es
Ġfoot ball
ĠA c
T E
Ġp ers
c ome
ot o
Ġcont act
Ġbe gan
eqn array
n own
Ġare as
Ġdis play
0 3
ic ient
Ġpubl ished
Ġb ar
ĠR ed
Ġc ross
Ġele ment
ar ies
Ġwrit ten
y ing
Ġ ...
ĠIn ter
Ġse arch
ĠJ ust
ma x
A tt
er c
t ilde
Ġl ower
osp ital
Ġl ate
iforn ia
ĠS en
led ge
} (\
Ġen joy
E lement
Ġappe ar
in fo
Ġnec ess
ĠPh il
Ġqu ick
s im
Ġcare er
it te
ĠS w
f ort
Ġrele ase
D e
ĠB ook
ĠD ist
Ġrelations hip
Ġro ad
20 00
D elta
Ġde g
Ð °
ĠA cc
Ġcomp on
n ov
" "
O M
ĠM or
Ġ/ *
at ur
an el
st yle
Ġv ot
iz ing
Ar ray
i ences
Ġpart y
ĠG over
and om
Ġcomp lex
Ġl anguage
ĠS an
Ġar ch
6 5
ri p
g t
Ġp ick
Ġinst ance
Ġset t
ĠL ist
Res ult
pl it
eg a
ul ations
ch an
ĠWill iam
Ġpol icy
n et
Ġa chiev
Ġprof ess
Ġcond itions
esc ription
ĠAss oci
It em
ass ert
ĠD ay
ap ache
Ġl oss
anc ed
amp ions
Ġinit ial
ar a
ĠG od
Ġmod els
av en
Ġpres ident
Ġm ap
Ġbu ilt
ren ch
Ġch o
Ġde cl
wit ter
Ġrec ogn
ell ow
ĠDav id
Ġte le
Ġind ex
ĠG roup
Ġp aper
S er
itt ing
Ġst aff
e es
Ġf ire
Ġproduct s
ilit ary
ĠI r
ĠRep ublic
iv il
Ġin j
Ġiss ue
n ode
ul ated
Ġcan not
Ġd er
In ter
h ood
i ber
Ġb irth
l ang
Ġtr aining
ĠL a
Ġd iv
Ġm at
ĠH ol
Ġpro te
M essage
es tern
ĠA dd
Ġw or
ar ter
D is
Ġm atter
C ode
4 2
uff er
us ing
= '
evel op
200 5
P E
Ġa verage
c all
ĠS im
Ġse par
l or
act ive
in ing
Ġcom ing
="../../ ../../
im ent
Ġfor ward
ist ry
Ġwh ite
ĠC ons
ft y
or ge
ail y
pr int
ast ic
S ize
Ġs ens
5 00
Ġpol ice
av y
ĠCh ina
ĠAustral ia
Ġstand ard
Ġany thing
Ġto ol
Ġt akes
Ġcor respond
Ġes pecially
ĠSt reet
ver y
ed eral
sh ip
il ter
Ġpop ulation
at al
Ġatt empt
in ition
Ġcamp aign
Ġconsider ed
A b
e ch
Ġmanag ement
V al
Ð ¾
Ġneed ed
ĠD irect
> &
m ission
at ives
Ġfri end
ĠF irst
Ġplay er
A ss
O ut
Ġr ound
O P
I V
ele br
Ġim plement
Ġfam il
Ġinclud es
Ġcl ub
Ġsec urity
wo od
p arent
Ġ __
Ġs us
Ġnot hing
Ġinst all
******** ********
Ġinst ead
com es
ateg ory
Ġannounc ed
pl ied
9 5
Ġsa f
Ġcal c
Ġsome one
ĠCl ass
ud d
R eg
Ġin ternational
! !
R ec
cre ate
ĠW ork
Ġdef ined
ou ch
Ġh ope
us ed
ĠP at
Ġlead ers
Ġstruct ure
ang er
[ ]
' '
E d
ly ing
S o
def ault
Ġide a
Ġrel ated
ob ile
t ab
Ex ternal
li ke
c ial
Ġs rc
Ġh ot
Ġassoci ated
y nc
ach ing
Ġs pect
v is
Ġcom ment
Ġh or
li ent
Ġl ength
or ing
ĠDep artment
Ġcon tract
Ġg irl
in fty
n on
Ġd at
M P
ĠO ur
le an
le g
Ġqu ite
Ġbeh av
Ġh on
Ġqu ality
Ġpri or
i i
Ġpop ular
Ġreg ard
ĠE ast
ou l
Ġb order
Ġcomp lete
ĠCal ifornia
Ġl ost
H and
Ã ¡
Ġtr avel
ĠD ef
Ġconc ern
Ġn ov
Ġout side
Ġme et
om b
Ġoff ice
Ġask ed
ĠA N
Ġgr ad
ic o
Ġst ay
rup t
ch ange
Ġup on
Ġits elf
ĠRes earch
O ne
Ġdiff icult
Ġeduc ation
ĠS k
Ġevery thing
Ġincre ase
' m
Ġpl atform
Ġse ems
ĠRev iew
p ite
b ase
n y
lo od
C E
Ġmeas ure
u ge
or age
Ġc red
Ġan sw
Ġj ava
om s
go ogle
ĠC ap
ac her
Ġbro ad
f alse
4 3
air s
ĠN e
Ġn amed
Ġhim self
Ġdescrib ed
7 7
ache s
roll er
em y
ĠO ut
a res
Ġinfl u
w ide
C ount
p ri
Ġv ict
ĠE ar
Ġprob ably
ic ense
Ġse qu
Ġs ense
Ġtry ing
4 1
ist ics
Ġqu ant
E m
Ġprovid es
use um
Ġis n
wit ch
Ġpr int
Ġdis e
Ġre ve
200 4
Ġcurrent ly
ub e
S ystem
c ss
M A
Ġrun ning
Ġm ag
ĠY our
x y
Ġex press
| \
$ $
land s
tt y
Ġr out
Ġ= ==
Ġl iving
ef ore
Ġn ormal
w ise
B e
r ad
Ġl ed
h a
Ġso on
ĠTe chn
Ġsim ple
am ily
Ġsa w
S ub
ens ity
Ġpos itive
Ġwrit ing
j ava
Ġh istor
i qu
L og
Ġadd itional
Ġ ir
st art
Ġsh all
Ð µ
Ġn ode
id a
re ate
h and
Ġf ail
Ġlim it
Ġlead ing
re ak
Ġh it
---------------- ----------------
plic ation
Ġd am
ĠLe ague
Ġevery one
it ution
Ġe mer
ĠThe n
Ġtreat ment
ĠC r
ow s
Ġdet ails
c m
eq ref
itte e
i ers
Ġf ather
Ġm er
Ġmult iple
el ine
ĠIn c
ĠU s
S p
ew ork
ro te
ol ar
Ġ( $
Ġt our
m m
ve y
ĠN ow
ĠJ ames
Ġs on
ra z
Ġwant ed
Ġl abel
and id
ch i
ĠCour t
ĠE v
Ġl oad
ĠC ouncil
g or
Ġde ep
' ve
Ġev idence
Ġw oman
u it
Ġdec ision
T able
Ġtem per
b uild
ĠP ort
O L
Ġo ption
umb ers
Ġcons ist
U ser
ĠA nt
is ode
E nt
C all
Th at
Ġl iter
ire ction
ĠP aul
opt ion
m ing
Ġcon duct
is f
ĠĠĠĠĠĠĠĠ ĠĠĠĠ
Ġbe aut
P ost
Ġapplic ation
; </
st ruct
M S
def ine
Ġ ess
li er
ic ip
ĠCan ada
che ck
ash ington
includ e
Col or
con text
Ġb all
Ġplay ing
ĠInd ian
irt ual
U LL
r ong
Ġex act
ĠP ost
Ġv ill
b ed
uf act
in ated
Ġg e
p age
ot a
ap ter
ĉĉĉĉ ĉĉ
oc ol
Ġthem selves
Ġcount ries
T D
y r
Ġfri ends
Ġreg ular
A fter
Ġun ique
ĠA P
Ġeffect s
Ġsc reen
7 8
ĠP al
Ġn atural
Ġval id
Ġwork ed
ĠEurope an
ad o
arg in
ill ing
Ġc opy
k en
I I
erv ices
pt y
Ġb ox
Ġm other
Ġw rite
Ġw ait
Ġ} ;
cent er
Ġt ask
Ġdisc over
bo ard
Ġwho se
a ctions
Ġs old
v ille
we b
as ons
if ier
Ġ Ã
Ġgrow th
Ġloc ated
m ore
it ect
ond er
i ant
=" ../
Par am
res h
Ġrec ently
ĠEng land
Ġf em
c ell
ace book
rou ght
est s
ĠA re
Ġst e
val id
ĠP ublic
Ġv eh
Ġan g
ul ly
enc ies
c ing
ĠM al
Ġj ud
Ġf requ
Ġ: =
and roid
pt ions
ac ity
ĠD ec
ps i
Ġmin utes
Ġcour t
ĠG reen
Man ager
Ġm id
B ar
Ġout put
Ġus ers
G ener
Ġsol ution
ĠB usiness
Ġlong er
raph ics
z z
tern et
ĠP re
mod el
Ġstat us
Ġbook s
Ġlevel s
ĠS ome
x im
Com m
8 8
cre t
c ount
Ġw indow
act ory
ĠJ ack
ĠR ead
Ġw ord
ĠR ich
y a
ĠWh ite
v est
enc ed
pl ace
al ed
AS S
Ġinvolv ed
Ġs il
Ġl ives
Ġin f
ĠY ear
p ackage
Ġl atest
Ġst ream
eps ilon
ĠT HE
ĠGener al
Ġproble ms
ain er
Ġ( )
ĠD i
G L
E X
ĠSc ience
ĠR ober
oy al
Ġeas y
Pro perty
Ġcomp os
id ents
r ated
Mod el
d oc
Ġd raw
Ġro ck
Ġcom pl
T H
Ġst ar
E E
F l
Im age
Ġaut om
ĠO F
Ġbo ard
Ġdel iver
O m
Ġleg al
ĠD an
Ġw ays
Ġweek s
ĠB er
Ġcent er
gor ith
Ġl ines
A A
ĠH am
Ġst age
Ġcol lection
Ġele ments
Ġc am
ag o
Ġdevelop ed
=" #
ĠĠĠĠĠĠĠĠ ĠĠ
Ġst ation
Qu ery
Ġan im
Ġmov ie
Ġass ist
Ġquest ions
Ġdist ribution
ri an
ore m
Ð ¸
Ġm agn
Ġstud ies
d f
Ġde ad
Ġthe ory
Ġsim ply
Ġle arning
Ġd ouble
Ġmod ern
Ġre comm
ĠM art
Ġthrough out
fin ished
ĠWh ile
Ġm ention
pec ial
Ġspec ies
ĠF rench
Ġd rop
ri ef
st atic
M y
P re
ith ub
ym bol
Ġdem on
ag on
Ġup d
Ġc ook
Ġcent ury
ĠAn n
cd ot
)$ .
200 3
Ġacc om
S C
ĠGo ogle
Ġp ark
and er
Ġfin ancial
Ġw rote
Ġchall eng
ro y
he t
row s
Ġim medi
ĠDem ocr
im ens
; &
ĠTh om
ul a
Ġex ecut
} }\
n amespace
ĠS ub
S ee
Ġgo al
ul ate
Ġre v
erv ed
C lient
Ġcap t
d ev
aug ht
ir it
ie ce
F A
Ġloc ation
Ġsc he
< !--
Ġfor ce
Ġch arg
Ġv er
) </
Ġ čĊ
5 6
Ġp ain
er ia
Ġp ack
ĠS und
y les
Ġfollow s
c apt
ĠM usic
Ġcharact ers
Ġread ing
ĠD ata
Ġinter view
Ġpro gress
Ġth reat
erv e
ampions hip
im age
ĠMich ael
Ġmethod s
ate gy
row ser
Ġr ace
U L
ar ily
Ġw idth
O ff
Ġest im
ĠF ound
Ġcond ition
5 9
Ġestabl ished
Ġa ward
al ing
f oot
d r
i os
A cc
ra el
' ll
d l
ĠAr ch
ĠW ashington
Ġp ict
Ġcont ribut
ph p
k nown
Ġpre vent
ĠS ervice
r un
ĠT est
ĠF il
Ġin side
ĠÂ £
Ġc elebr
Ġev al
Ġorig in
le m
Ġ â
Ġconst ant
b and
Ġst d
p at
? âĢĿ
Ar g
ust er
Ġprot ect
M ethod
ĠInst itute
Ġsay ing
en ge
Ġtyp es
n ed
E L
ber g
v ant
5 8
con tain
Ġele ction
Ġt en
ab ase
Ġand roid
A meric
av irus
ĠM ag
Ġd rug
Ġpre c
ĠL eg
Ġpr ice
augh ter
ĠL et
ĠB en
Ġem ail
h ost
S ource
ev ent
Ġg as
P art
m ethod
Ġdesign ed
Ġcon tr
Ġmed ical
======== ========
ĠS et
it ch
c ore
Ġb orn
âĢĿ .
g ithub
ro s
Ġm is
ĠPro gram
ĠG reat
Ġle ave
Ġg ave
Ġad minist
Ġinvest ig
ch ild
Ġm ach
G roup
qu are
ĠR ef
j ust
m itted
N S
u ate
Ġdep end
c el
ĠH all
b on
Ġd ied
Ġallow ed
t em
pect ed
Ġpre tty
and emic
ĠĠĠĠĠĠĠĠĠĠĠĠĠĠĠĠ ĠĠĠĠĠĠĠĠĠĠĠĠĠĠĠ
Ġs em
ĠR oad
d b
iz er
c i
6 8
Ġsur face
ON T
5 7
Ġper fect
ri al
Ġto wards
sq rt
Ġcult ure
Ġdev ice
Ġs ort
Ġact ive
E O
L et
Ġv ers
S tr
so ft
le vel
is her
ed ia
Ġde part
ĠP ress
h as
Ġp m
Ġb ool
S he
B ig
200 1
Ġcell s
on avirus
S up
C he
C L
N A
Ġcon v
EC T
ĠC am
evelop ment
ĠM et
F irst
j av
un finished
ĠB el
6 7
Ġpro perties
Ġoff ers
iz es
Ġpract ice
Ġfav or
h aps
Ġfil ms
Ġdirect or
F L
D r
ĠAfr ica
Ġg ives
idd en
Ġme chan
Ġcomp ared
Ġ$ {\
Ġp urch
Ġsoft ware
Ġc ause
AT E
D o
Ġany one
D ate
bt n
Ġs n
ĠS ing
Ġspe ed
} [
ol ic
Ġsub st
ĠQ ue
ĠAng el
Ġb oy
Ġpart s
Ġcontin u
Ġbu y
ĠB est
Over ride
all s
Ġst ories
G amma
w in
Ġus es
iv acy
H T
emb ly
is ions
Ġne igh
d ir
Ġc andid
Ġwe b
Ġteam s
ur t
Ġfl ow
Om ega
ĠDist rict
Ġcol lect
Ġsur v
ĠD el
os h
for ce
r s
c urrent
Ġget s
Ġme eting
Ġc ast
Ġet c
Ġknow ledge
Ġparam eters
Ġf ast
~ ~
} _{\
Ġc atch
Build er
c ase
st on
A ct
Ġd ark
Ġfunction s
Ġre str
] (
Ġsc ale
Ġass um
ial og
Ġl ack
Ġh um
Ġun it
Ġac qu
n ull
mer cial
Ġin sp
ĠAssoci ation
E nd
Res ponse
00 00
ev e
Ġpart ners
Ġgo es
Ġw rong
ous ly
ĠF acebook
Ġdirect ly
200 2
m iss
Ġh ol
Ġmain tain
Ġinterest ing
ĠH ere
Ġcol umn
Ġw orth
ĠT om
Ġens ure
Ġse ek
Ġn umbers
ĠS am
Ġpred ict
Ġre li
Ġprodu ced
Ġa w
Ġsur pr
^ *
Ġsat isf
Ġdemon str
L ast
in ate
Ġphys ical
Ġm ilitary
Ġb us
Ġsc ient
ĠE duc
ĠCh urch
} =
c an
Ġt im
Ġup date
ak ers
Ġn il
Ġp lease
ĠPro f
U s
Ġsaf ety
Ġres ources
Ġser ious
ĠG L
id ing
ines e
est ival
Ġconst ruct
Ġst ru
] )
ĠC ong
ic i
Ġag re
Ġeffect ive
P S
Ġmov ed
Ġcorre ct
> (
ĠW ed
ult ure
con s
app ing
opt ions
anc y
ĠS l
ĠM ac
Ġwas n
Ġj oin
Ġav oid
ag ram
Ġstat ement
ro om
Ġnecess ary
Ġmult i
Ġs y
capt ion
e in
Ġsh ip
ill er
g ener
n or
ĠR em
Ġv acc
und le
Ġsc ience
it ude
Ġb rought
Ġdist rict
Ġf a
Ġprot ected
h an
on a
Ġschool s
Ġn ature
Ġd igital
st ream
9 8
ĠR iver
ir ing
sy ch
Ġde b
Ġit em
ĠR el
im s
o z
Ġnot e
Ġocc ur
Ġdise ase
ri a
Ġr ules
Ġres ource
g est
Ġopport unity
ond ay
Ġear lier
ĠO ver
Ġm us
St ream
Ġst ore
Ġeconom ic
Ġpr inc
ex as
Ġrece ive
Ġr at
iz ations
Ġus ually
âĢ ĺ
add ing
oc al
Ġpl ans
C D
l a
r angle
Ġcl ient
ol f
ĠT ime
Ġpre p
ĠO ther
ify ing
V ER
b orn
re y
w ell
Ñ Ĥ
Ġn umer
ĠGe orge
ĠE r
Ġdiffer ence
wh ich
Ġlim ited
Ġincre ased
ĠG old
ĠO b
) (
Ġprofess ional
Ġtrans fer
ĠV ol
Ġman ufact
n ected
en a
n ext
he st
m ember
ĠL ife
ec k
P ol
Ġwe ight
Ã ³
Ġn ames
Ġab ility
Ġrel ig
but ton
Ġpl ant
ĠA lex
Ġreturn ed
O C
Ġcomm and
U E
Ġcon cept
)$ ,
c it
ib ly
G r
Ġnov el
Ã Ń
Ġrem ember
Ġchang ed
Ġh ous
ĠFr ance
Ġc ard
Ġth us
Ġf ans
k a
^{ (
ĠR ob
w rit
ĠO pen
en ame
m ar
qu ery
c over
Ġse lect
ĠâĢ ¦
9 7
ound s
Ġanal y
Ġallow s
Ġincre asing
Ġcou ple
Ġw ife
it ar
ind ing
Ġf air
ĠMed ia
ĠComp any
ĠK e
Ġqu al
at ively
if ul
a ud
pl ies
ĠS ervices
od ing
Ġserv ed
right arrow
Ġstud ent
Ġact ivity
Ġclos ed
Ġj o
Ġ< <
R A
ĠFr iday
H ead
ĠJ ul
Ġsc en
Ġfin ally
Ġind ependent
Ġcap ital
Ġturn ed
ps ilon
Ġhe ight
Ġactiv ities
cl ient
Ġv ert
Ġbr and
T Y
u a
ron ic
Ġex tra
Ġd ynam
om a
U til
ĠM us
Ġparent s
Ġreg ister
Ġb ank
Ġhand s
Ġpro p
ain e
Ġprom ot
is ation
al a
ser ver
Ġex cept
ĉ Ċ
E M
P oint
o ch
arg s
Ġobtain ed
Ġcont ains
Ġcent ral
ol ve
Ġrem ain
ĠM at
ab s
old s
Ġal though
u id
w id
m as
l ib
Ġ\ ,
ort hern
Ġfe ed
Ġn orth
Ġal tern
) {
c y
Ġstre ng
Ġass ess
ang ed
ĠSe e
Ġin ternal
Ð ½
Ġfield s
Ġtrans port
od ay
Ġparam eter
l ock
ĠPart y
ĠSund ay
he ight
ell ig
ĠH istory
ĠGerm an
ĠMan agement
Ġs en
I F
O ur
Ġstart ing
ĠJ ew
gr ad
Ġatt ention
Ġsit uation
Ġf elt
ĠFr anc
ĠC L
atur day
p ost
( {
Ġant i
Ġexp and
St atus
Ġl ock
Ġpat tern
Bl ock
5 1
M ar
ĠP M
ĠM ary
Ġcl in
es ter
Ġfollow ed
ĠI S
Ġp andemic
Ġp le
ĠSc ott
p y
P e
op en
Ġn ation
Ġm icro
) =
Ġsl ow
ĠJ ournal
Ġ q
Ġb al
Ġsol id
Ġp ull
out hern
Ġproject s
ov ers
Ġlarg est
Ġprim ary
ĠB ay
Ġv s
Ġph ase
Ġf it
ĠSt ar
ĠIs rael
Ġcon nect
3 00
ock et
Ġresp ond
ĠGover nment
Ġnear ly
Ġch oice
ivers e
f irst
Ġdem and
Ġhe ard
Ġconst ruction
str act
ec ause
U M
O W
Ġcon nection
ĠI D
Ġequ ip
ĠFl or
Ġc lean
5 2
ĠPro ject
Ġlarg er
Ġv oice
in ner
ĠB ig
ter m
L e
Ġtrans form
ĠL ou
ĠD iv
ry pt
ĠS ur
Ġe ight
T S
N ext
ent y
Ġdist ance
ed y
M ore
ĠF ore
Ġcomp ar
ic ial
Ġr andom
Com ponent
Ap p
u ccess
s i
ĠA tt
re me
l am
an i
( (
N av
in i
ĠH el
In put
Ġfamil ies
5 4
ĠT op
ber t
Ġsom et
Ġex am
head er
und er
Ġappro xim
9 6
Ġh y
Ġreport s
Ġlook s
lo at
Ġquick ly
ĠC up
Ġbe y
Ġor d
Ġb ur
it iz
ĠUS A
it ation
Ġn one
v are
Ġoper ation
P os
ĠOff ice
ĠM ont
Americ an
Ġwork ers
Ġbas is
anc ing
Ġm ix
Ġtr ade
Ġbey ond
H el
ĠCl ub
az ine
vers e
Ġim ages
L ink
Ġpass ed
h ouse
ing er
ĠĠĠĠĠĠĠĠĠĠĠĠĠĠĠĠ Ġ
il ed
ĠM iss
ĠIs land
Ġdec ided
Ġcustom ers
ĠSm ith
eb ug
Ġdeg ree
C an
Ġ- >
Ġn av
P C
Ġcontin ued
Ġse ven
sub section
ar io
ĠH ome
Ġs outh
ug in
al le
Ġmean ing
Ġbro ther
c or
Ġimpro ve
ĠA M
we et
ot ype
Ġg raph
Ñ Ģ
ues day
ĠPl an
Ġs ummer
Ġparticular ly
Ġsuccess ful
B ase
199 9
ĠN ULL
Ġse lected
ĠB re
r d
Ġh op
Ġpresent ed
Cont ent
Inst ance
c os
ĠDirect or
5 3
Ġj ournal
e al
t arget
ĠPl ay
Ch ar
Ġey es
Ġw ide
Ġacc ur
requ est
v ider
P er
Ġsp read
Ġperform ed
por ary
Ġm ount
ĠT imes
ĠComm ission
d et
ĠA ward
ann ed
Ġd irection
Ġsh ot
ĠS T
ĠChrist ian
Ġon es
St art
var phi
ig ger
ĠPe ople
Ġpl aces
Ġoper ations
ĠB i
B A
ic ine
p ack
ant ic
Ġbo olean
il i
ĠG ood
z a
Ġ ign
ĠS ince
p p
}^ {\
r l
ven ue
b ottom
un s
D A
Ġset ting
an ia
Ġcrit ical
Ġex pression
Ġrem ains
le ctions
nes day
[ "
Ġb illion
Ġhe ar
Ġdr ive
Ġimpro v
Ġbegin ning
ĠT exas
ĠH ill
rib e
ad ata
Ġfact or
ĠF e
g n
Ġs end
Ġv ote
Ġb lood
Ġim ag
ĠCh inese
app end
B S
Ġre ach
ĠWe b
l ong
ĠR eturn
Ġm ode
ĠC D
p ng
ad ian
ain ts
Ġent ry
z er
Ġch ance
opy right
dis play
Ġc ivil
r ate
Ġrec over
ĠM ad
M e
Ġr ap
ĠEduc ation
G e
ĠR ad
clus ion
Ġm iddle
Ġdist ribut
ĠM onday
Ġrefer ence
ĠSer ies
Ġm ess
Ġg iving
Ġd ed
ĠS ociety
nav bar
ĠV ir
Ġprogram s
ex p
Ġsol utions
Ġcons um
Ġpro posed
Ġhigh ly
Ġin form
Ġh ar
vent ion
Ġf ully
ĠGerm any
ĠS ocial
L ine
AT ION
eg er
b m
Ġbl og
ĠN et
ĠĠĠĠĠĠĠĠ Ċ
Ġ" ""
Ġd oc
A ction
b a
Ġm ur
Ġmor ning
Ġp refer
Ġkn ew
ip p
Ġw ild
ĠD evelopment
Ġcomplet ely
ĠT re
se lect
P RO
ĠBo ard
it able
ĠAc ad
T ER
Ġro ll
Ġmem ory
ĉĉĉĉ ĉĉĉĉ
f unc
m ult
vare psilon
Ġt ouch
Ġform at
C o
olog ies
icro soft
Ã ¼
fl ow
Ġtemper ature
us ion
ĠT witter
Ġf arm
ĠCar ol
ĠRober t
Ġr ule
B ack
ĠâĢ ¢
Ġh ospital
Ġph one
ĠS y
Ġenc our
und red
R ep
ick s
ot al
Ġapp oint
The y
ĠS al
p ol
Ġsc ene
Ġd ou
Ġlaw s
Ġex hib
Ġsp ent
R un
ĠS un
ĠE nd
ĠB ill
Ġsh oot
Ġs ales
Ġpre m
Ġthe refore
ĠPol icy
le ep
os ing
m box
Ġcoll abor
Ġs ports
Ġs ources
ic ate
str ong
Ġw onder
d raw
ĠR ock
I A
ĠC amp
Ġd ram
ĠA v
ĠĠĠĠĠĠĠĠ ĠĠĠĠĠĠ
an o
t x
Ġse cret
Ġcom ments
gorith m
Ġess ential
Ġent er
Ġin nov
ĠSup er
p c
Ġexist ing
Ġsa fe
Ġapp ly
ĠM ost
Ġtele vision
urs day
ad y
ĠUn ion
ree k
ĠF orm
Ġtr ust
sm all
ele te
L abel
Ġst ri
Ġt er
Ġpo or
Ġrespect ively
ic ated
and a
ĠM ex
7 6
G o
cher s
T op
ĠR E
Ġun s
Ġtrad itional
Ġep isode
Ġorgan ization
v ec
ĠĠĠĠĠĠĠĠ ĠĠĠĠĊ
c are
as y
Ġrad io
C A
ĠN one
p ass
D on
ust ain
ĠSh ow
Ġchar ge
ĠD et
ĠA ut
Ġsomet imes
ch o
indow s
Ġ er
T oken
Ġbe comes
ur ance
ĠB ank
Ġg reen
un ities
ig en
I O
as tr
P R
r um
AM E
ã ģ
Ġv irtual
ĠAfr ican
uct ure
Ġf irm
ele ment
yp es
O ptions
o om
os is
RE F
oun ce
Ġth ous
ĠF ig
} ).
Ġpro per
Ġsong s
Ġsh ared
Equ al
ĠM useum
i ance
Ġaut o
Che ck
m at
ĠT or
ĠCh ild
Ġprevious ly
Ġlead er
i as
Ġf ailed
x ml
Ġlook ed
ĠO bject
Ġs al
on ic
Ġopen ed
Ġread y
ĠFlor ida
Ġh uge
th at
ud get
B uffer
Ġt ree
ram ework
Ġbehav ior
f ind
ribut es
Ġgreat er
cl ose
ĠS aturday
Ġsupport ed
Ġfil es
u y
O per
Ġm argin
Ġprovid ing
Ġshow ed
Ġabs ol
W eb
er ry
ev en
Ġarch itect
Ġd ensity
in ct
N ow
Ġover all
ĠMin ister
Ġpress ure
l ast
Ġobserv ed
Ġmov ing
h i
Ġmod ule
Ġcost s
ĠW il
Ġset s
ĠWe ek
ĠW ell
Ġ` `
Ġgr and
ĠN or
am ing
Ġact ual
Ġte acher
im inal
id en
Ġche m
H ome
M et
Ġgrow ing
Ġre pe
ĠU nder
in y
d en
ch ar
Ġindividual s
D et
ant a
Ġ+ =
al let
Ġk illed
em ph
Ġcan cer
Ġal ign
ĠFound ation
Ġd og
Ġg old
Ġag ree
ĠT ur
Ġo il
Ġgr ant
Ġtest ing
6 1
ĠM ount
Ġ ×
L ambda
. ~\
Ġappro pri
Ġelect ric
ar ant
ĠAustral ian
Ġeas ily
j son
ark s
ĠP eter
mod ule
8 5
ro ad
Ñ ģ
Ġit ems
Ġqu arter
ic ations
Ġs ave
ed s
ĠM ov
text bf
ot ic
C R
Ġmov ement
ĠThom as
so le
Ġexper im
plic it
P A
ĠCon st
N ull
Ġcomput er
6 9
ĠN etwork
t ings
pro of
Ġansw er
Ġs ociety
in n
o oth
âĢĿ ,
ĠComm ittee
at re
et te
Ġser ver
Ġpur pose
d at
Ġcompon ent
pr ivate
b our
Ġexact ly
Ġp iece
S ON
maz on
n el
Ġse lection
Ġr ank
Ġal one
Ġhapp en
Ch ild
Ġro ot
Ġw ants
Ġcomplet ed
ĠCent ral
over line
Ġst ra
Ġcar ry
& \
P D
ash ion
Ġrestr ict
n ce
ri er
Ġapplic ations
199 8
. \
ĠT uesday
B r
ĠB uild
ab y
Ġp air
it ors
Ġl if
ist an
Ġaff ect
Ġcommun ities
Ġw at
er ation
d ep
Ġimmedi ately
ul f
if act
L oad
ult s
6 3
ĠM o
ist ance
ĠG en
E W
Ġp en
4 00
Ġsh op
ick et
S A
ĠCong ress
Ġ ]
ã ĥ
ĠV ict
ĠC are
Ġz ero
Att ribute
Ġla unch
ĠL og
nc y
7 2
Ġbusiness es
ĠM el
N umber
Ġk ids
V ersion
Com p
Ġsign ed
Ġvill age
pect ive
Ġhapp ened
Ġspe ak
Ġst ock
Hand ler
ĠH ot
Ġ Î
Ġth r
Ġsit es
. }
Def ault
ĠL os
im g
Ġw el
ĠWed nesday
ri end
it a
Tr ue
Ġpres ence
ly mp
P L
Ġequ al
act er
pro perty
Ġp oll
ill a
Ġappe ars
ĠFranc is
F unction
Ġm ale
k y
ic ago
Ġother wise
al ax
ĠFr ank
) ^
Ġintrodu ced
du ction
Ġst ars
Ġcom mercial
ĠO per
erv ation
w rite
F actory
u ated
Ġ ;
S U
pre t
Ġstru gg
Ġf ederal
Ġro b
199 0
ĠP ower
Wh ile
Ġm ut
ĠT own
m eta
Ġart ist
Ġthrow s
ĠP ri
Ġw ind
Ġn uc
m ain
ĠR oyal
asc ript
or ial
$ {
Ġpro ced
fl ict
g ment
yd ro
p ers
s rc
Ġopen ing
or ph
Ġestabl ish
ir med
Ġm atrix
ĠGr and
Ġvari ety
ĠE very
sc ale
Ġf igure
app a
T C
Ġun c
l angle
st atus
ĠEar th
Ġcall s
ic ens
hed ul
E ng
Ġwrit er
il er
Ġeffort s
Comm and
ĠIn formation
b reak
Ġch urch
' d
Ġc op
âĢ ¢
ĠW estern
ent ry
on ly
ĠEng ine
R eturn
Ġcl imate
Ġan c
Ġspec ified
Ġ row
Ġcho ose
reed om
p ush
Ġd aughter
Ġc ru
P age
rel ated
Ġunderstand ing
T ag
Ġext ends
Ġp aid
Ġstra ight
Ġr ates
Ġdo or
an ish
Ġch annel
" ]
7 9
Ġc ool
uth ors
cl os
Ġ esc
Ġjo ined
Ġdes pite
Ġrec ords
* /
Ġco ord
Ġem ot
ĠS ol
Ð¾ Ð
Ġs ample
Ġclaim s
Ġtr ain
am m
Ġcorrespond ing
Ġ eth
Ġa ware
loc al
T ask
ĠW omen
ĠL ong
Ġprodu ce
Ġmanag er
in ion
ĠE ven
Ġreturn s
Ġappe ared
6 2
Ġstr ateg
ans ion
s pec
Ġinter face
os en
Ġc ounter
Ġhig hest
" ).
unc hed
} );
Ġfem ale
ĠT im
Ġbe g
ĠTechn ology
al ian
ge q
ĠRich ard
Ġbeaut iful
Ġf ear
ĠS il
T O
Ġd aily
Ġh undred
pro ject
eg raphics
y an
por ate
includ egraphics
[ \
Ġsc ore
R em
A m
ĠCh ampionship
ĠK ore
az z
ĠJ un
Ġemploy ees
c irc
ef ul
ĠT wo
s g
Ġfact ors
Ġsur round
pect s
re land
ĠF ree
AB LE
ĠComm unity
ĠAl so
Ġf ra
Ġobject s
Ġt al
he nt
ig r
C ell
Ġed ge
av ed
pt r
Ġpart ner
W ork
ol k
Ġob vious
Ġc ore
at in
Ġbl ue
T P
form at
ĠE conom
ĠE p
ĠM ur
b ra
ĠSt ep
Ġtrans ition
> >
b i
Ġfore ign
ĠD ev
Ġrem ove
B ox
//////// ////////
ĠB rown
ĠIn s
Res ource
ĠTh ursday
ĠVir gin
cent ury
} ),
ĠM er
if orm
Ġd ream
Ġm ission
d ing
Ġs ession
ĠÂ »
ĠS pe
Ġoper ator
Ġa head
ĠAN D
ĠB ur
Ġstr ategy
Ġhapp y
C reate
Ġc at
g ency
Ġthink ing
b urg
Ġpro of
D esc
ad ow
Ġed itor
Ġfor ms
ers e
ĠL and
g u
ĠAngel es
Ġart ists
Ġsus p
ĠRe port
Ġcaus ed
ow ers
Ġf ine
Ġr ac
ð Ł
serv ice
Ø §
Ġfor ces
a o
ner gy
al ysis
non umber
ĠH en
Ġcor onavirus
ĠTe am
Ġcreat ing
ĠU N
Ġs ell
ĠL ead
Ġeconom y
Ġbas ic
Ġre ached
Ġa ctions
Ġf ixed
Ġs un
Ġmax imum
Ġp ages
Ġde but
ĠProf ess
G B
d escription
Ġinit i
Ġn om
ard en
Ġw ood
Ġredu ce
Ġap plied
Ġa im
Ġsl ight
Ġse ctor
Ġext rem
Ġen h
Ġa f
ĠRuss ian
Ġsequ ence
Ġlet ter
Ġ{ @
ell a
Ġfil ter
ĠAr ts
ig ration
ĠG ame
Ġrun s
Ġf ig
l s
n umber
Ġrecord ed
Ġl ay
iv ery
199 7
i en
ĠGl obal
Ġsmall er
Ġdeath s
R ev
Ġp ush
V is
Ġagre ement
F ONT
clus ive
in em
S che
ĠS pr
Ġb ill
Ġt it
Ġgener ally
Ġrel ative
our ney
it ness
Ġline ar
A V
Ã ¶
g ar
Ġcol lege
Ġm ill
on om
Ġmaterial s
ĠR oman
Ġarg ument
pro cess
ind er
wh ile
| -
Ġdeterm ined
ab ilities
Ġun its
Ġtr uth
it z
ĠM ass
Ex t
Ġdesc ription
8 9
Ġcont ain
ri age
Ph i
c ap
C ar
Ġrespons ible
Ġrest aur
}, \
ig an
l ayout
Ġpat ient
Ġofficial s
Ġw id
ĠJ ud
" ),
G l
Ġcap acity
Ġann ual
ang ing
Ġm aster
ĠAr my
Ġpol ic
ĠV is
ĠJ ose
Ġtri ed
Ġhe avy
pos es
ĠL ove
Ġex ists
u ke
sh ow
at ically
I B
ĠHe ad
Ġm obile
ap pro
Ġmajor ity
M in
el ess
sup port
roll ed
or ter
pl ing
ĠT ype
men u
A ut
ic ed
Ġhelp ed
8 6
il ton
Ġsp irit
ĠO h
Ġsk ills
Wh y
Ġad apt
Ġtrans l
Ġneg ative
Ġp i
ĉ ĠĠĠ
Ġrequ ires
d s
ĠE lect
Ġown ers
ĠJapan ese
Ġref lect
ĠGe org
Ġinvest ment
Ġcontin ues
ĠO p
Ġide as
ĠD uring
Ġdef ine
ĠSe ction
Ġde cre
Ġmeas ures
Ġv ector
Ġmiss ing
Ġf ix
m ail
y th
f ree
Ġrele vant
Ġpower ful
Ġgu id
ĠAp ple
Ġchall enge
ĠLou is
il s
ĠL ake
f ont
199 6
I ST
Ġcompet ition
ĠCent re
Ġqu e
ĠC all
b ur
Ġequ ival
ĠWh y
D S
8 7
Ġadv ant
Ġc itiz
Ġvol ume
S pec
Ġ< !--
jav ascript
ateg ories
g le
F I
Ġfr ame
ĠW ood
K E
Ġcon cent
Ġex ception
ex pected
ang es
ĠJ oe
as ure
Ġsym bol
Ġreal ity
ĠJ im
n ight
Ġbu ff
ĠSc ot
Ġc ert
Ġb attle
Ġh arm
E l
H ere
ĠR un
ole c
Ġper haps
Ġs ch
Ġr are
Ġmar ried
ap ers
p o
O pen
st d
Ġtool s
l ook
Ġsm art
ĠChrist mas
ĠC H
T em
ĠSec ret
Ġtest s
Ġinterest ed
ĠAp p
T V
R el
T e
Ġro t
Ġfe et
ã Ĥ
Ġtr aff
ĠEn ter
Ġm ys
ĠB ack
us band
a uthor
Ġdr ink
Ġequ ation
ĠE X
Ġv an
c r
res ponse
D es
Ġd im
Ġmay be
ĠG ames
ĠF und
Ġb ottom
Ġoffer ed
ĠL ee
a a
ld ots
Ġill ust
S im
tt p
Ġtri al
i ar
ool s
Ġcompon ents
Ġr ail
Ġh our
Ġdev ices
P O
Ġgener ation
Ġb ul
C S
Ġmur der
Ġf ont
Ġdeterm ine
ĠAt l
f inal
Â ©
ph one
go ing
li ament
od ed
ĠRuss ia
ef t
Ġst uff
ig inal
ĠP et
Ġre asons
Ġn et
Ġar rest
stand ing
i h
ĠAcc ording
Ġv irus
Ġbenef its
ĠB et
Ġtalk ing
k appa
Ġstreng th
Ġnot ice
Ġ util
Ġ url
Ġcon nected
Ġcl ick
ĠMart in
end if
Ġpart ies
ĠH uman
Ġus eful
Ġhand le
Ġwe ak
Ġveh icle
B O
du le
h line
ĠF amily
Ġplan ning
Add ress
fr ont
Ġad vert
ĠH T
ĠAb out
he et
Ġopt im
I Z
Ġ ~
contain er
Ġclear ly
Ġsp ot
Ġke pt
Ġcould n
Ġleg is
Ġserv e
ĠC ath
Ġac ad
OR T
Ġb rief
param s
F O
C ons
Ġsh ape
ĠI reland
Ġmach ine
p g
or ation
7 1
Ġcr is
Ġra ise
ĠDes ign
Ã ¤
Ġrecomm end
Ġb ed
F C
ellig ence
Ġgener ated
Ġpl aced
UR L
c ar
b in
Ġclass es
Ġcertain ly
Ġaud ience
st ar
Ġs witch
S ec
ĠD en
Ġsup ply
m t
rom e
7 3
M on
Ġd anger
AL L
ask et
ĠCh icago
ĠCan adian
sk ip
Ġin fr
out e
J ohn
se ar
app ed
Ġco ach
ack s
7 4
Ġident ified
} }$
erm an
am l
Ġin str
Ġra ised
Ġcon vers
at o
Ġdef e
Ġg one
ĠF oot
M ark
Ġap pre
ac ement
Equ als
ann ot
ob j
Se lect
Ġsp in
Ġcomm it
198 0
ut y
Ġmention ed
ens or
um s
ĠN S
F e
ĉ Ġ
Ġh yp
Ġfin ished
Ġres idents
Col umn
ĠM ot
à ¥
Ġold er
ĠU se
ĠT our
ĠAr ab
U I
im b
olv ed
maz ing
st yles
up date
ĠI d
all ery
n am
ĠO ld
Ġcred it
ĠChe ck
( &
Ġf an
Ġexc ell
li e
Ġview s
#### ####
D irect
as ion
Ġmin or
ĠV iew
Ab out
d ot
Ġdi agn
ubl ished
ĠThe ir
w est
Ġdef inition
ref ix
ĠO lymp
W rit
g ent
Ġfund ing
f ilter
ĠC EO
ĠO l
af e
Ġcon str
k ins
Ġappropri ate
ĠSec urity
Ġinflu ence
abl a
pon ents
Ġbig gest
Ġst orage
Form at
ĠFil m
Ġem b
Ġpl ays
Ġst ated
A Y
Ġcl oud
M M
// /
ĠP o
Ġt ag
Ġar m
ar p
Ġal le
art s
Ġident ity
Ġpe ace
th let
Ġdown load
cl es
Ar t
Ġpict ure
Ġopport unities
l ife
ent ed
H S
ec ution
ER R
) ]
ĠCh ief
Ġy ield
ĠV er
ic ians
p ower
199 5
iqu es
Ġst eps
ĠL in
ĠD own
Ġm iles
is hes
Ġmys elf
M en
Ġf resh
we ight
Ġin fo
List ener
h ab
Ġequip ment
Ġtre nd
ru it
Ġbenef it
ot imes
p an
Ġcons ult
Ġvis ual
ici ency
l en
Ġexper t
Ġevent ually
ĠS pecial
ic ian
Ġw all
Ġch ief
ĠS u
8 4
D ev
ĠI ll
od ies
f a
St yle
h or
: </
Ġ( (
ĠSt and
re al
Ġme ant
< ?
Ġwh om
Ġw ave
9 3
Ġocc up
Ġat tract
ĠWh o
col umn
. ;
The se
Ġin tr
ĠPro v
Ġse a
ple te
ĠZ eal
A re
ĠVict or
Ġon to
id ers
B undle
ĠVal ley
/ \
AN D
Ġla unched
Pe ople
d ec
Ġsen ior
ĠM em
od cast
c a
Cont roller
k er
Ġprof ile
Ġhold s
Ġsh ift
Ġst ress
Ġrequire ments
S H
O b
ĠAcad emy
s f
9 4
Ġgo als
ide os
Ġto ward
Ġown er
S ome
ate ver
1 000
Ġear th
AR T
ĠM ax
f it
ĠR et
Ġinc or
Ġc row
ars er
ĠPar is
Ġchalleng es
m es
8 2
ĠA mazon
re es
oc ation
n abla
imens ional
ĠMed ical
c ript
or row
Ġre sear
Ġp sych
ĠĠĠĠĠĠĠĠĠĠĠĠĠĠĠĠ ĠĠĠĠĠĠĠĠĠĠĠĠĠĠĠĠĠĠĠ
Ġorgan izations
est ic
ĠC ast
ĠL ibrary
ĠN Y
g ate
h r
ĠN OT
Ġd oll
ov id
fr ak
ĠF estival
m em
Ġregard ing
el se
og en
Ġw ish
Ġup per
_ .
ĠJ o
Ġbr ain
as tern
t ag
old er
ol a
Ġredu ced
in ations
Ġnot ed
Ġtr ail
ĠZeal and
But ton
B U
d rop
N O
L ength
Ġshow ing
ĠComm un
Ġp aint
it ory
Ġcrit ic
ĠChar les
Ġinc ome
pro p
Ġrout e
M ay
% )
ĠO R
ĠIt s
Ġbirth s
S ince
Ġ ut
ĠSe cond
Ġcom fort
' ).
ĠAl though
U rl
Ġr ise
it che
k i
F ilter
Val id
Post ed
Ġbe at
Ġflo or
Ġs umm
Ġexper i
Ġc ars
Ġrem oved
ef ined
ĠL icense
`` `
] [
ĠDiv ision
Ġdom ain
ĠC A
Ġsepar ate
Up date
Ġjob s
Ġ( "
ĠN ote
S l
Ġneigh bor
ER T
Ġprocess es
Ġfor ced
Ġsex ual
c s
ing u
Ġp anel
Ġyour self
Ġsc ript
Ġp ackage
Ġmost ly
Ġem pty
b ound
ĠW ater
Ġgu y
Ġle aving
ĠIr an
ĠKing dom
Ġh usband
Ġatt end
ĠB oy
ĠF ort
M ax
Ġsh ut
irc raft
P P
Ġreve aled
M O
Ġform ed
un te
9 2
Ġey e
Ġadminist ration
if ically
sc ope
ĠJohn son
ĠR ights
ec es
S igma
ĠW ay
Ġend ed
B o
Ġcon sequ
Ġal t
ĠYou ng
Ġdiscuss ion
ĠAn y
ĠF ile
ĠD E
ĠIs lam
ur a
Ġclin ical
or ney
q l
Ġp et
w rap
ĠM il
ĠA R
Ġw arm
Ġpr ison
Ġcon ference
Ġbel ong
Ġk m
et ime
9 1
g s
S D
ĠIn vest
d ed
Ġdest roy
H O
Ġsignificant ly
ĠCh ris
ĠE U
os oph
Ġsign al
act or
15 0
is ms
at tr
Ġwe ap
ĠSt at
comm and
ĠS and
ES S
ĠCL ASS
ce an
rem ove
Ġart icles
j ection
199 4
H istory
C or
Ġfavor ite
out put
ĠJ ones
ĠD ate
ĠCarol ina
ro ph
Ġass ume
ĠF ire
Ġlist ed
ot es
ĠF ield
ĠM en
Ġlead s
Ġn ice
Ġsee ing
D B
ov es
S earch
Ġmin imum
ap se
ok es
r ics
ĠH aw
ĠP enn
r ick
ĠTh us
k in
Ã ¢
Ġcon flict
il ing
ult ural
Ġdam age
Ġident ify
L ayout
Ġbe coming
oth ing
ell ed
ĠMex ico
Ġwin ning
Ġmanag ed
comm on
Ġb udget
ay lor
Ġim press
D F
N et
Ġg un
Con st
Ġfour th
! âĢĿ
Ġdr iver
Ġpro ve
C ON
8 3
Ġm ask
ur ies
sc ape
ĠS ports
Ġsom ew
Ġc ities
ĠB as
ĠPol ice
Ġfam ous
Ġw ww
ĠA uthor
Ġdescrib e
astr ucture
d esc
Ġconf irmed
Ġev olution
ĠG ar
Ġ* *
inst ance
Ġcam era
P ort
Ġleaders hip
k ind
ĠL ast
ĠIn ternet
ut r
n ormal
or a
Ġcris is
O ther
Ġhe ro
ul s
init ely
ĠT em
Ġare n
os es
ĠC y
Ġknow s
A ccess
yn ch
ific ations
ĠA wards
ĠB ob
as er
Ġl ibrary
AC K
hen s
C ase
n ote
Ġwould n
Ġcall back
ens us
cl aim
d ocument
ĠL ear
Ġun less
ĠM a
ĠW rit
TY PE
att ers
Ġstre et
Ġa x
y e
Ġle ague
Ġ ult
ĠD om
g reg
a fter
ĠT able
Ġch ain
L C
Ser ver
un it
Ġviol ence
Ġp urs
math frak
E nc
Ġ icon
j a
Ġoper ating
ĠSen ate
ĠL im
Pro vider
In it
CO L
et ch
m ut
plic ations
res ents
197 0
ed ge
fr ame
ĠM any
end ar
B ook
Ġ à¤
ind s
ĠF ood
Ġprote ction
ploy ment
Ġfeel ing
Ġph il
ĠCol or
up s
Loc ation
requ ire
Ġf ant
ĠS ar
8 1
Ġcent re
s ign
ĠL ab
pr ime
Out put
sh ire
ĠÂ ©
Ġtri p
anc er
ĠM ike
Ġcult ural
Ġc ategory
Ġdr iving
M ode
n um
Ġin fe
' .
D ec
IN E
oin ter
Ġoffic er
ing ly
ot ed
ĠA ff
}} {
Ġmon itor
pos s
ĠInd ust
e an
el ines
i able
ĠJ on
Ġcommun ication
Ġcon vert
Ġsub sequ
ĠM iddle
O p
ĠAP I
Ġgu ide
Ġdet ail
un icip
ĠE nergy
Ġrap id
AP I
im ary
Ġco ast
ĠH or
ĠH REF
Ġpro pos
ĠAs ia
s d
ct ors
om ic
anc he
ĠOr gan
Ġanim als
h ow
Ġcar ried
ing le
Ġinter pret
Ġf if
How ever
= &
Ġcover ed
D ep
Ġinvest igation
Ġd ig
Ġs ustain
clud e
Ġenvironment al
cre te
Ġbuild ings
ec ute
ĠP ac
ĠA ud
Ġn orm
ĠOn line
An y
Ġthan k
Ġrel ation
ob s
Ġreg ions
l ig
Ġk ill
ĠVirgin ia
Ġext ended
Ġm ist
el er
Ġapp arent
Ġoff set
w ar
Ġpe ak
ĠSt e
Ġ! ==
Ġstart s
Ġfail ure
Ġtraff ic
R I
Ġcustom er
Ġpl us
erson al
Ġqu ery
k it
} )$
ĠP age
Ġpro s
Ġpro ceed
Ġfl ight
ĠL ord
ens ions
por ation
ĠIt alian
ĠT O
Ġcall ing
="../../../../ ../
ĠL ike
omet ry
am in
Ġmark eting
Ġoffer ing
Ġstand ards
ĠK ey
F in
et ry
Ġj ourney
ĠH ospital
ig er
br idge
Ġun ivers
Ġpl ot
refer ence
ĠM ap
Ġal gorithm
b olds
Ġseem ed
Ġsc ope
u an
Ġd ie
Ġ ur
Ġphot o
ĠIt aly
r im
ĠB iden
++ )
Ġarg uments
Ġpolic ies
the n
W E
ik i
ĠPol it
Ġtechn ical
alle l
199 2
ĠN ame
20 22
ĠAnd rew
% ;
ian a
urb an
ell er
C al
ĠT H
C M
Ġfac ilities
ĠE ach
Ġupd ated
u ing
ograph ic
S ign
Ġthan ks
199 3
C urrent
Ġth read
p ool
Ġaltern ative
ol es
bolds ymbol
Ġapproxim ately
Ġr ul
} -
K e
u zz
ĠP op
Ġsur vey
y er
Ġfl ag
Ġs ale
Ġad just
class es
ath an
ĠGu ide
ĠC ard
Ġdepart ment
Ġm yst
Ġmet al
Ġcr iminal
al i
Ġlist en
ĠM icrosoft
Fr ame
p op
p df
Ġsett ings
Ġthe rap
Ġfind ing
\ !
Ġdat abase
Ġmot ion
atal og
ĠIn it
ĠA L
Ġed ition
Ġad opt
E v
ĠAmeric ans
ĠRe al
uck y
is er
.... ....
? "
Ġsym met
ĠE qu
l ines
C ache
U B
gy pt
Ġvari able
Ġa mazing
W idth
raz il
D D
Ġrem aining
ĠS ep
=" -
Ġret ail
sh ould
ag ger
off set
Ġj oint
Ġh air
ĠL ive
S m
Ġex erc
P H
iz ont
as hed
Ġwe ather
Ġtr av
Ġconfig uration
ĠFor ce
Ġprocess ing
P T
Ġn ative
P at
Ġweek end
Ġd u
ĠK ar
ov ing
Ġpost ed
Ġthous ands
Ġtr uly
Ġdirect ed
Ġn or
Ġlearn ed
ast e
d epend
k r
z en
tem plate
Ġsche me
M ed
ak a
ĠW all
D own
ĠSup port
ĠB ow
u int
Ġcomb ination
av er
Ġrepresent ation
Ġb urn
Ġfore st
Ġgu ess
Off set
Ġdevelop ing
ĠBl ue
Ġl ayer
in et
Ġadv ice
m id
Ġiss ued
T arget
ĠE q
{ {
The n
ge bra
d es
ĠN ight
ick er
ĠW al
Ġquant um
ĠJ es
Ġfr ag
Ġresult ing
Ġr ich
Ġcl ients
Ġl ived
f loat
Ġw est
Ġgu itar
Ġ ice
N e
Acc ording
Ġsh ock
UL T
Ġcook ies
l n
igh ter
Ġmass ive
ens ure
Ġdep th
ist ers
\ [
Ġb ird
L evel
Ġgover n
D escription
f riend
Ġag reed
Ġcomb ined
cont rol
Ġpolit ics
Ġp il
IN T
Ġadvant age
ad er
Ġp an
Ġcr ime
Ġfund s
Ġex change
ad ing
Ġgl ass
sc he
u ations
Ġhistor ical
ĠJ eff
Ġcont aining
ĠWilliam s
est ed
t ree
Ġfocus ed
Ġt end
f ound
Ġext ension
; \
val ues
= >
Ġis ol
R L
Ġhe at
Ĥ ¬
ist ration
ĠL ink
Loc al
Ġrelig ious
Ġcandid ate
Ġf uel
ĠK en
Ġrat io
ĠOb ama
Ġstruct ures
Ġl abor
P M
Ġtell s
Ġn ine
Ġag ent
em porary
Ġcre w
Ġj ump
if ies
. /
sub set
Un it
Ġop inion
Ġexecut ive
Ġvacc ine
aw s
ĠJust ice
W ill
Ġa uthors
on ym
d ated
ck now
Ġf ashion
Ġl ab
j o
J ust
{ -
R ed
and on
ĠP lease
Ġher self
ost on
B I
ut ch
ĠC oll
Ġs port
aw a
Ġex amples
ĠPh ys
rou d
ple t
\ |
ad s
Ġfa ith
ĠB ase
O K
ir al
Ġslight ly
Ġwatch ing
ĠW ild
ĠO N
con f
Ġadd ing
un ately
Ġann ounce
es h
ty p
d i
ĠM ethod
us hed
um in
ĠB ecause
ĠSp anish
ot hes
Ġ[ ]
T ypes
Ġcontr ast
pr ise
Ġdiscuss ed
Ġdis s
c at
Ġhapp ens
Ġtr a
Mod ule
Ġachiev e
Ġc ry
Ġextrem ely
ĠAr ray
Ġv ision
b ul
() ->
Ġpartners hip
asket ball
ĠT ele
ig in
im ages
Ġflo at
Ġle tt
Ġe ast
Ġorigin ally
d ist
ut s
Ġa ircraft
b order
ĠGeorg ia
Sc ript
. âĢĻ
Ġrep resents
Ġgu ys
Ġded icated
Ġdet ect
ĠEx per
c ard
Ġv ac
ĠH istor
âĢ ī
Ġhel ps
yl v
Ġcitiz ens
b ool
ript or
Ġt un
udd en
Ġsp end
Ġdel ivery
art ifact
( -
p et
Ġgirl s
new s
ly wood
Ġdec ades
Ġexp ansion
ollow ing
R ow
ro ot
ĠP ass
Ġconcern s
wid et
ĠH arr
ri ev
Ġs quare
Ġv el
Ġs leep
g raph
Ġbroad cast
ĠScot land
par se
Ġsub sc
r ich
ĠL iber
us es
Ġre b
Ġhouse hold
re ct
Ġm ental
G u
oc ity
ian o
ĠM P
ob e
Ġmus ical
er ies
F ig
Ġc old
w an
ĉĉĉĉ ĉĉĉ
Ġun known
AG E
het ic
b efore
ĠF ederal
ĠH and
Ġis land
Ġhelp ing
ĠL uc
equ iv
} /
ĠOn ly
it age
Ġnot es
iction ary
ann els
Ġchang ing
tr ack
prot otype
S L
Ġl oved
Ġbal ance
Param eter
Ġd ivid
Ġdoc uments
it utions
return s
Ġf le
ĠAd v
Ġad vent
' ),
Ġpract ices
ĠA ction
ent ity
ĠL ine
ip al
ĠB oth
Ġexper iences
Cl ick
im er
1 20
ors hip
Ġincre d
od er
ĠAd minist
ĠL i
Ġoffic ers
S O
Ġex ternal
Ġyou th
199 1
ĠCath olic
ĠMark et
ac le
ĠP C
izont al
Ġinj ury
cit ep
ri z
eng er
Ġle aves
ĠH y
Ġdel ay
ĠRec ords
d ots
r id
] ]
t ml
ers ey
N N
g ers
ĠP rem
Ġf ramework
back ground
ĠÂ ·
Ġimplement ation
Ġaff ected
Ġreview s
Ġbehav i
T ree
Pro cess
Ġbut ton
Ġexcell ent
ĠW he
text it
V AL
t ure
m ond
ĠMus lim
) -
ĠCon ference
Ġsk in
**************** ****************
ĠR equ
Ġch osen
} +
Ġspe ech
Ġmov ies
Ġr ain
& &
ĠC ross
widet ilde
Ġdou bt
Ġ{ }
ĠHen ry
i pe
el ly
. ~
Ġhy per
( _
ĠW alk
ĠSc iences
ict ed
ĠT erm
\ %
Ġequival ent
Ġstr ict
ĠR o
Ġs amples
ĠT oday
Ġch air
at i
Ġl atter
Ġh ab
Ġdef ense
ĠV an
Ġarg s
f iles
h igh
Ġob j
Ġp hen
Ġpre par
ĠDon ald
IG N
Ġk id
Ġk ing
Ġt error
Ġag ency
Ġr an
ĠI T
ĠW at
Ġunc ertain
? ?
ĠL em
ĠI P
pos ite
Ġh ydro
Ġpurch ase
ĠC reate
R ight
Ġpl ants
Ġrepl aced
Ġveh icles
Ġallow ing
il ly
ff ect
ap pe
Ġdiffer ences
gr ade
ĠEn vironment
Util s
ĠDan iel
ĠRepublic an
Ġ ðŁ
ab eth
ord ers
og rap
ĠD aily
Ġs qu
Ġclass ic
ĠE nt
ecut ive
Ġimport ance
ourn ament
Ġwait ing
Ġliter ature
Ġnumer ous
Ġrel atively
Ġun iversity
( [
Ġ ::
Ġcompar ison
Ġtre ated
Ġfeature d
r ical
Ġconduct ed
j i
Rec ord
ick ets
Ġe cho
ĠL o
Ġ rom
Ġw rap
ĠC ON
ĠBrit ain
Pro ject
Ġf reedom
s ystem
Ġcirc um
N ote
ĠW indows
ab b
Ġo dd
Ent ity
st ra
ĠStud ies
Ġnetwork s
Ġdef initely
st ein
Head er
ad ium
Ġint ended
Ġvari ables
er g
ĠG irl
Ġmot or
D O
Ġcon ver
Q L
ĠC ode
ER S
}\ ,
ĠIr ish
R C
Ġse at
Ġfrequ ency
Ġregister ed
Ġstud ied
ear s
âĢĻ .
Ġf ellow
Ġmark ets
Ġfl at
ĠOr der
ĠReturn s
Ent ry
mod els
? :
k o
Ġres olution
] );
Ġexpl ain
Ġfin ite
Ġex pos
Ġerr ors
Ġhom es
ĠP oint
ĠJew ish
ap ed
int on
Ġeff icient
W rite
Ġappear ance
U RE
Ġc ash
f s
Ġdet ailed
ap es
Ġdist inct
Ġprof ession
Ġf re
ĠThe refore
Sche ma
ĠJ ac
Ġestim ated
ev in
st ack
Ġg ain
Cont rol
Ġvict ory
Ġexpl ained
ĠM ain
ĠBe ach
s plit
Inter face
Ġfac ility
mod al
s en
ĠO k
Ġfound ed
8 00
V ert
et her
Ġinteg r
A c
Ġn arr
Ġm ixed
Ġeven ing
ult y
J an
ĠSp ace
ĠR am
M E
h ar
ĠMed icine
19 60
se cond
oot str
ĠE vent
g al
Ġact or
Ġcreat ive
ĠS ign
Ġrepresent ed
Ġdiscover ed
w ater
Ġb atter
25 5
Ġpr ices
Ġturn s
Ġsym pt
v as
Cont ainer
enc ing
ĠII I
if est
Ġtrans action
m aterial
c ache
ĠL ight
ä ¸
ĠFrancis co
Ġp p
t ask
Ġ ul
Ġinter action
Ġw arn
Ġwh atever
ar ian
A uthor
25 0
ĠT aylor
Ġprote in
ĠTr ue
Ġpol y
ĠTr ust
os c
ĠD igital
ĠF ar
ĠA ccess
ĠR ail
Ġdistribut ed
Ġbuff er
ĠJose ph
Ġelect ed
ĠDemocr atic
Ġcor ner
He ight
ĠF urther
6 00
ident ial
ĠM id
Ġent ertain
Ġbr ings
Ġw itness
ĠE gypt
util s
Ġphot os
Ġli ber
t oken
Ġs um
Ġsupport ing
Ġh aven
Ġsy nt
Ġconsist ent
ĠS af
Ġd ress
Ġd raft
ĠBook s
m osp
M at
Ġgu arant
Ġpur poses
ĠM A
Ġdec isions
co in
ĠF igure
Ġattack s
ans as
ent er
Ġsc hedul
Ġsuff icient
ir a
ensure math
Ġf lex
Ġex tract
Ġtyp ically
Ġk ick
ĠN orthern
Ġl en
styles heet
Ð »
ak ed
ĠFoot ball
Ġhigh light
Ġsecond s
ĠProfess or
pro duct
Ġsup posed
ur er
z eta
Ġen able
ĠH on
ĠL ook
f ocus
Ġan imal
ĠV ideo
Ġr ing
N on
Ġsound s
b al
d irect
H ttp
ug ins
Ġexper iment
ĠĠĠĠĠĠĠĠĠĠĠĠĠĠĠĠ ĠĠĠĠĠ
Ġsp aces
Ġp ure
artifact Id
s ite
U se
C P
Ġb ond
ĠL ittle
r ange
w indow
ĠCol umb
i ro
F T
ĠSe ason
P ass
Ġin ternet
Ġbeg ins
ne ctions
v a
ra wn
198 9
Ġhous ing
N one
Ġhot el
clud ed
b re
b ury
Ġp un
ual ity
im ately
Pro t
Ġcre ation
Ġthem e
AT A
s pe
sk i
ĠK im
Ð º
at uring
ir ty
Ġp adding
Ġcover age
Ġrem ote
IT Y
Ġf ish
f il
ĠMc C
Ġfin ish
al o
Config uration
urs or
ĠMod el
Ġcomm itted
Ġjust ice
Ġpi eces
Ġbound ary
or al
EN D
in ating
ĠRad io
Ġgener ate
$ )
ion e
miss ions
ĠR ele
ĠE N
od d
med ia
Ġu int
Ġs an
Ġrem ained
ut ely
Ġaud io
Ġfav our
f aces
Ġm olec
Ġv ent
\ {
sec ut
Ġg alax
ĠJack son
ĠM ult
Ġnuc lear
ov a
ĠT w
" ))
ĠCo ast
ĠM ake
res ource
r b
m o
ĠSt eve
St at
ic ity
empt y
Ġp al
ost er
Ġhe aring
ph as
Ġadv ance
Ġloc ations
Ġs ister
D R
Ġpl ane
av or
Ġmar riage
ex ample
ĠR h
ic ons
ant ly
Ġadv anced
ĠL td
form ance
Ġsol ar
ĠS outhern
Ġv ideos
. $
ĠC ovid
Ġpos itions
b uffer
T ags
Ġreg ional
M ult
Ġexperi enced
I X
ic ol
im ation
Ġmat ches
="../../../../ ../../
Ġkeep ing
ĠSt ory
ff ee
Ġcol le
Ġsp ring
New s
G en
Ph one
Ġf ell
Ġsm ooth
Ġprep ared
ĠPr ivacy
iven ess
Ġs plit
ĠCont rol
ĠP ak
Ġent ered
âĢĻ ,
w orld
Ġtechn iques
Ġb an
ĠPh ot
ru le
Ġanc ient
CO DE
Ġimpro ved
h ome
Ġt on
ĠP an
im a
ĠR om
ĠE th
ĠM aster
Ġexpress ed
T ube
Ġin n
Ġchem ical
ins on
. '
Ġmess ages
\ ]
Ġex plicit
m ann
angu ages
Ġcar bon
ĠW atch
ootstr ap
Ġb right
M C
ell o
Ġp ool
Ġspect rum
ert s
Ġemer gency
v ector
Ġtre es
Ġcomm ission
W indow
ĠF ed
urre ncy
Ġbr anch
ĠAir port
og y
if fer
Con nection
ĠS ummer
ĠM u
E ar
ĠSo ft
m atch
Ġcount y
L ong
Ġstud io
ĠQue en
Ġhold ing
s in
ĠM ic
Ġarr ived
Ġprot ocol
Ġap art
ro t
c oll
¿ ½
ĠJ er
an es
Ġpass ion
ĠF air
Ġsec ure
Ġplan et
Call back
Ġmeas ured
Ġupd ates
Ġnew sp
ĠPac ific
ĠJ r
Th read
Â °
Ġscient ific
c oh
ĠChild ren
ĠA venue
it an
ĠB razil
Ġprob ability
Ġc aught
Ġr iver
poss ible
Ġc as
ĠSw ed
Ġman ner
ann er
Ġh idden
iv ation
Ġexpl ore
Ġfig ures
ĠD ou
Ch ange
Ġst ations
Ġno ise
Ġtest ed
group Id
ĠMich igan
e ah
Ġend s
F il
Ġown ed
os a
) =\
ĠS us
om orph
ĠC ustom
e per
tab ular
t ical
ï ¿½
Ġposs ibly
j oin
dev ice
as et
ic er
iz abeth
ip eline
ple x
pro v
ul ner
const ruct
Pos ition
Ã §
Ġvol unte
amp ion
Ġman age
Ġcy cle
B est
hem at
au ge
sh op
Ġd ance
ess ions
Ġtrack s
Ġto w
> ,
ĠD C
Ġeas ier
c uss
h ash
ĠB oston
OR M
Ġsur g
Ġcharg es
og gle
N AME
Ġdef end
Ġreg ul
ly n
Ġcont ribution
ĠG al
Ġtem plate
ST R
Ġinfr astructure
ac cess
ĠSt art
Ġsuggest ed
pl ed
Ġfight ing
res hold
Em pty
ĠR est
oper ator
EX T
Ġe at
Ġind eed
ĠT ri
= {
ial ize
av id
co pe
Ġform ation
Ġclaim ed
R ange
Ġre nt
Q ue
ad or
Ġv en
ĠW in
du ced
ĠCom put
Tr ack
Ġconf irm
Ġadv oc
Ġus ual
Ġc ouncil
ĠL ocal
D ocument
Ġfind s
Ġinsp ired
D om
d est
Ġappro ved
} =\
aw n
ont o
H ash
ĠEngine ering
m ake
in ates
y o
Ġequ ations
Ġl ose
ĠBro ok
ĠSp ain
st ore
T itle
Ġb rowser
ĠSecret ary
W ell
ann a
Ġfe els
Ġ" \
el a
| |
ĠThe atre
Ġentire ly
ot i
ĠT er
% ,
Ġfor t
L A
T wo
Set tings
Ġp roud
Ġadminist r
if er
G E
ĠW ales
enn is
av ity
b ro
ĠBl og
AT H
ĠE mp
Ġre form
ĠC ivil
ce ived
Ġord ers
Ġatt ribute
ĠAss embly
Ġg ather
all ow
D C
ĠR en
ct x
Par ams
198 8
Ġc os
Ġprot est
Ã ¨
Ġcharg ed
Ġr ough
Ġappoint ed
ĠN on
ir ation
Ġres erved
Ġel im
f ast
P si
op her
tr y
r an
Ġread ers
ĠF ull
d el
j pg
ĠS ir
k m
bur gh
Ġrelationship s
Ġs udden
il a
Ġacad emic
M r
ĉĉ Ċ
h over
ĠS aint
ĠU ser
Men u
Ġpl anned
p resent
Ġf ill
Ġbring ing
Ġre ject
osoph y
o es
ĠAnd roid
Ġspec ifically
ĠC ook
AN T
Ġauthor ities
ic ing
__ __
IZ E
Ġexist ence
() :
Ġl icense
Ġdem ocr
ist ent
J son
Ġmagn etic
COL OR
pt on
% %
Ġl ies
Ġun ion
se y
c f
Ġdiv ision
st one
Ġre tain
act s
Ġinc ident
ĠAg ain
Ġcol lected
Ġpost s
ĠK now
f ol
u ous
ĠS ong
Ġs ides
Ġresear chers
d ebug
Ġwrit ers
e z
ish op
v in
Ġwor se
un ting
ĠF red
cl ick
Ġthe rm
Ġaccept ed
est ion
! "
ict ure
ĠP ay
li k
Ġt ro
D P
w s
Ġhon est
ĠD ar
erv ative
D L
ĠEX P
ĠR ay
ĠAre a
Sh ow
ĠF ox
ĠK n
wh ite
F R
Ġpers pective
Ġstop ped
ĠF our
O ption
Ġbeliev ed
Pro perties
Ġsing er
Ġauthor ity
l aw
is a
Ġcandid ates
Ġacc ident
w ords
Ġmed ium
Ġexper ts
in ternal
Ġa cknow
Ġrefer red
Ġad m
ĠC ur
q quad
sc ious
-- -
ĠGu ard
Y es
out s
Ġalle ged
ic ious
Ġsc ored
Ġem phas
Ġsh ares
ĠS om
p erson
ĠSe a
Ġwin ner
: "
V er
Ġass ign
Ġtechn ologies
Ġtr uck
iss ions
em ail
Ġtw ice
Ġtop ic
E very
G R
ock s
Ġcl uster
Ġs oul
Ġpr ivacy
Ġmag azine
Ġm ent
ĠB ern
^ +
are n
AC T
Ġaff ord
OR D
ir ms
Ġs and
Ġoper ators
Ġrece iving
Ġest imate
: (
red it
ĠP rom
Ġc art
Ġf illed
ific ate
ĠH a
Ġter rit
equ al
Ġsuggest s
ĠH ard
itution al
ind ent
ĠCh air
D T
P lease
Ġm ort
W orld
Ġtrad ition
ĠB ul
Ġincre ases
l ers
Ġhealth y
or ry
ĠBro ad
Ġun iform
i pl
S w
Ġaward ed
Ġr h
=" _
hold er
Ġre action
re ens
Ġsubst ant
il ation
Ġex tr
Ġcaus es
G A
ĠC re
") );
S k
Ġab use
ĠM S
ĠSt an
Ġm el
198 7
Ġc er
L a
ylv ania
ĠM ah
Ġrec ording
ĠS her
inter face
c p
Ġfamil iar
ĠS che
ĠTh ree
br id
con nect
Ġask ing
Ġ ille
Ġas pects
d imensional
$ (
ĠA f
Ġsh aring
le ments
F ind
Ġbro ken
Ġconsider ing
Ġte aching
Ġsp ons
ĠCar l
ĠN ext
ist ant
16 0
Ġmin ute
it u
ĠPr ime
Ġl it
ĠY es
es ome
en um
Ġcont ainer
am ber
s end
Ġ era
10 1
is odes
force ment
Ġrespons ibility
i ples
G ET
ari ant
ĠS E
ĠO x
f ull
Ġcons ists
W here
p ay
( :
p atch
doc s
y es
ĠC irc
Ġover ride
Ġwin ter
oc key
ĠK ong
Ġparticip ants
c ut
Ġder ived
St ore
t ics
ĠL u
L eft
li x
fort unately
Ġappre ci
en v
ĠA sh
Ġg ender
L S
E ach
Ġdeliver ed
ast ers
) ^{
Ġs ac
Ġv oc
Pre vious
Ġengine ering
ro vers
Ġstand ing
Ġinterest s
Ġf at
Ġcons umer
ĠV ill
) /
Ġserv ing
t n
Ġinst itutions
ĠK h
ĠM ath
ĠEx ecutive
Ġgreat est
Ġear n
Ġ ing
ap ore
Ġw aves
ad el
Ġin ner
"> &
IV E
Ġexc ited
Ġind epend
Ġli qu
dis abled
Ġtyp ical
op l
Ġabsol ute
eff ect
ĠT urn
Ġt or
ĠW here
) }\
ĠF inal
ress ion
Ġact ing
Ġredu ction
} ]
Ġs we
Ġn odes
Go ogle
Ġindust rial
Ġvis ible
Ġoccur red
Ġwill ing
ist ed
ur i
A F
Ġat mosp
ĠD eb
Ġest ate
F ont
Ġb aby
Ġcomp re
L iving
Ġto ken
Ġj av
Ġ> =
Int eger
ail ing
Ġfil ename
AC E
ĠPar liament
Im pl
um es
ĠA T
m ode
S ession
s ession
Ġform al
o ir
198 4
Ġm ir
Ġdeb ate
X X
Ġinstr ument
ĠHam ilton
Ġrec all
or ough
ens es
Ġsupport s
cont in
Ġthought s
ĠB ru
pre ne
c ur
Ġ* )
n ap
ĠS at
' >
eng ers
ĠN umber
H as
Ġfor g
H ost
Ġconcern ed
198 6
Ã³ n
am ental
k ing
Ġmom ents
Ġp ed
Ġrepl ace
add ress
Ġwe ar
Ġprogram me
ĠOn ce
F ound
Ġse gment
Or der
ak s
; ->
y cl
ograp her
Ġsim pl
if ts
ĠM O
ĠEx ception
Ġarchitect ure
ĠB G
Ġx ml
C opyright
ĠS earch
ack et
Ġput ting
gl obal
ĠK ent
ĠC ost
Ġcon ven
ĠKore a
ĠP R
Ġv eg
D uring
Ġtr igger
Ù Ħ
Hel per
ym met
in ator
Ġsuccess fully
Ġhas h
cent ering
Ġide al
ra ham
Ġmain ly
ĠAss ert
c up
Ġcomp are
Ġcomm ittee
Ġdram a
foot er
Ġbo ost
Ġwas te
Ġb ow
ĠI ss
Ġclos er
V D
rupt ion
B R
Ġcircum st
re prene
Ġtherap y
ul ating
, -
Ġw a
U P
ĠC at
ut ral
Ġinstall ed
Ġde lete
Ġcomp r
d ict
r ine
St ep
Ġit er
Ġachiev ed
ĠS on
ĠB ad
Ġwe alth
Ġdep ends
Ġsu c
Ġac id
ra q
Ġbel ief
ĠSt aff
Ġg ar
ri e
ĠW is
Ġrem ark
Ġsign s
Ġam b
rec ord
Ġg rew
ĠB BC
sc reen
ex ports
ĠT ext
Ġparam s
Ġneighbor hood
Ġ urban
ĠH as
Ġgu ard
ĠSup reme
Ġwor st
ĠC ro
Ġp it
ĠL ew
ino is
O h
erv es
w orth
ĠC ase
Ġm il
Ġaccount s
ĠB u
Ġm aps
iam ond
ent h
x x
ĠPh oto
ĠA ge
ĠThe orem
s ylvania
mer ce
art ers
. [
Ġd ro
Nav Bar
umn i
ern el
cd ots
em an
B efore
Ġpr iv
ĠJ ersey
l anguage
ex port
Ġsp ending
ĠK enn
Ġst orm
M T
Y our
l ights
ow nt
in ity
Ġwel come
D at
or gan
ĠAs ian
As ync
Ġcor porate
Ġelect ron
ĠUp date
C ore
Ġrepe ated
ĠOh io
Ph oto
Ġvers ions
Ġconf idence
st at
ĠL O
Ġn um
ĠM att
Ġact s
Ġdanger ous
al ar
{ (
Ġconvers ation
ĠCl in
Ġhum ans
ub y
Ġreport ing
p anel
Col lection
X ml
d y
Ġro les
Ġent ity
s v
a uth
vir t
Ġclass ical
ps on
st op
sh all
Ġcol on
st ep
Ġread er
Oper ation
Ġar bit
Ġelect ronic
is c
Ġl icens
w a
lem ma
N ov
ott ed
Ġdrug s
s id
ĠL abor
ĠS ite
v ol
Ġpay ment
Ġz one
P op
Ġdec ade
Ġprov ider
Ġint elligence
Ġele ctions
field s
Ġm atters
ĠCor poration
Ġ( +
Ġex port
he ast
j e
b ind
ix el
ĠR og
ĠĠĠĠĠĠĠĠĠĠĠĠĠĠĠĠ ĠĠĠĠ
Ġper man
Ġy es
Ġrestaur ant
ĠS P
Ġins urance
Ġalbum s
Ġ[ '
ten ance
ĠM ajor
m ic
Ġun f
D ir
1 10
ob uf
Ġar ms
Ġprodu cer
Ġproced ure
le ts
Ġcon sole
Ġco al
Ġc le
te en
Ġexperim ental
ĠN av
b oy
Ġv ary
ĠYou Tube
c lear
ro ke
Ġv ulner
St ud
ĠSystem s
Ġsympt oms
are t
iz z
Ġdirect ory
=" /
ĠAn th
hens ive
o or
Ġdynam ic
}_ \
198 5
ĠCount ry
ERR OR
Ġjud ge
U D
Ġc raft
Ġst ores
Ġcontribut ions
eg o
f ire
Ġeff iciency
Ġlarg ely
Ġhundred s
app oint
}) \
Ġsuc ceed
M em
Ġpass ing
Ġd ry
ĠG i
ĠF OR
ĠT R
y ou
ĠH om
line ar
com ponent
Result s
tern oon
Dev ice
in er
n i
Ġre new
imens ions
ĠA S
og ether
Ġo k
d elete
Ġr ide
( {\
ĠSpr ing
Ġlo op
Ġhe av
ester day
ar c
ip ped
Ġindic ate
ĠPro duct
ĠEx t
} |
Ġassoci ation
ĠS pec
ers hip
ap h
ach ine
Ġe c
H igh
ĠAd am
Ġdrop ped
s es
Ġon going
Ġseek ing
Ġsk y
## #
Ġs pl
ell s
sh ort
Ġp owers
Ġtal ent
let ter
ĠR ight
Ġt ight
ĠG reek
ĠAn other
Ġexperim ents
Ġworld wide
{ }
Ser ial
Ġfor get
Ġa id
ĠM ir
ĠE st
Ġprom ote
E ST
M ain
Ġdom estic
Ġblock s
Ġre venue
Ġrec ip
Pl ay
Ġvisit ors
f ill
Ġem bed
ĠInst agram
ĠTr ail
M ost
Ġcont ained
Ġto m
ĠPr ince
Ġg ene
Ġdeg rees
Ġsche dule
ach ment
Refer ence
t im
Ġf ly
iss ue
Ġinit ially
Ġs ad
and ra
p adding
e en
it o
it als
Ġad ults
ĠTh rough
typ es
G O
{ {\
Ġorder ed
up load
d ouble
Ġs now
wid get
ĠN ick
Ġabs or
\ "
D IR
Ġad ult
g ov
Ġstre t
ĠC opyright
ud es
Ġdec ide
Ġm useum
F igure
Ġpl enty
ĠMag azine
ĠReg ister
ĠP ers
S ION
ĠC a
Ñ ĥ
ord an
Ġrecover y
g ence
Ġlink ed
Ġte ch
Ġsurround ing
U K
}^ \
Ġspe aking
u ction
qu ir
Ġund efined
b el
Ġfe aturing
Ġcy cl
Ġtalk s
m aster
ĠDe ath
Ġhistor ic
12 3
Ġar my
ĠHot el
ĠWil son
On ly
ren ce
Ġstand s
i y
Ġv eter
Ġm and
ĠB ol
Ġshoot ing
ĠR yan
Ġwalk ing
ĠB on
Ġt um
ĠR on
ynch ron
à ¸
19 50
Ġth ick
ĠR od
Ġposs ibility
ĠPro cess
Ġdo ctor
Ġdim ension
ĠEx pl
Ġs outhern
ĠR os
uss ian
ĠF ord
and y
ke ys
================ ================
ĠP RO
se x
yd ney
ms g
Ġfil ed
Ġn orthern
M ENT
oun sel
ĠN O
Ġmark ed
Ġexc iting
Ġm outh
Ġag ric
ĠP en
ĠD ead
p a
ĠW el
hand le
Ġc ab
ĠU kr
Â ®
Ġstat ements
Ġwid ely
Ġaccur ate
Ġqu iet
Ġassess ment
P ublic
Ġdep ending
anche ster
Ġn arrow
Ġli e
Ġconsum ers
Ġb ought
Ġg ap
put e
Ġmen u
Ex p
or i
ĠEl izabeth
ĠV alue
ĠC reat
A v
Ġappro aches
Ġad j
An other
Ġch annels
Ġcollabor ation
ĠC ru
Ġexpos ure
Ġl ots
Ġele v
' ],
oper ation
pl ugin
ru ctions
um a
p are
Ġte en
IC E
ĠN C
Ġhous es
L ook
k g
Ġ} )
ĠD NA
Ġcont rolled
Ġwonder ful
Ġhon or
Ġst able
Ġco eff
Class es
sh ot
to String
ial s
Ġsp oke
trans form
Ġteacher s
Ġalong side
Î ±
Ġvert ical
M any
om y
he red
tain ment
Ġexerc ise
th m
ĠMan ager
D raw
Ġatt ended
u able
ĠCh ange
Ġbr idge
Ġtell ing
S R
Ġnear by
s he
Ġabsol utely
f ly
Se cond
f ony
ĠH ong
ab et
un a
Ġl osing
i at
ĠCol lection
fr am
olog ist
Ġstrong ly
Ġprop ag
rodu ction
ad min
Ġsecond ary
ĠChe m
ay a
Met adata
fo o
cl oud
}^{ (
Ġhead er
ĠB ang
Ġport ion
ar ation
Ġphen omen
Ex pression
ĠĠĠĠĠĠĠĠĠĠĠĠĠĠĠĠ ĠĠĠĠĠĠĠĠĠĠĠĠĠĠĠĠĠĠĠĠĠĠĠ
Ġfind ings
Ġb odies
ĠComm on
ok ing
ĠE astern
Ġautom atically
em ble
Ġexpl an
N ational
ĠN FL
Ġext ent
Ġse asons
b as
ym fony
ĠBr ad
Ġm ac
ĠM ill
ist ical
n ic
A ust
Ġcontinu ous
ĠStep hen
Ġlim its
Ġf aster
St ack
Ġal ter
do or
AR Y
Ġsu it
ple ments
ĠAn alysis
ĠUs ing
Ġvel ocity
ĠB all
an th
ĠPenn sylvania
ag a
r at
ĠE ll
ĠHT ML
ĠDis ney
% .
Ġsc atter
Ġpict ures
P res
Ġt ail
ou red
call ed
Ġa thlet
nes ota
Ġs ummary
ĠL atin
ĠA D
ell i
c ustom
ang o
âĢ¦ .
Ġdet ection
ĠF ind
R ad
C ustom
am i
I ter
Sup port
od s
a is
id get
Ġn ob
ĠSt ation
Ġclos ely
Ġinvest ors
ag ues
I con
it is
Ġun able
V ector
ĠW ars
Ġres c
Ġnew ly
Ġw ire
Ġim plies
Ġpen al
Ġpartic les
Ġse ctions
Ġenjoy ed
198 3
Ġesc ape
Ġmill ions
Ġpattern s
Ġfl u
Ġm unicip
K ind
P arent
Ch rist
Ġins ert
S pe
k es
Ap plication
v ard
ĠUn ivers
C ap
ĠPro te
Ġa wards
ĠFin ancial
E Q
Ġr aw
ĠJ SON
Ġag ents
Ġcamp us
Ġt err
h ol
Ġint ent
f all
Pr ice
Ġcrow d
Ġst ack
inst all
Ġrecogn ized
Ġang le
Ġfe e
em on
H R
Ġschedul ed
Ġobserv ations
ĠI raq
us et
est amp
ĠH ig
Ġst ick
o ices
param eter
Ġaut hent
ĠL ow
D el
ĠB a
In s
W ho
L P
ĠJes us
T im
l ow
ĠB ox
ĠF re
Ġpro port
Ġyoung er
Ġcalc ulated
Ġcont emporary
Ġc e
Ġstrateg ies
ĠD ark
sp ring
ĠHol lywood
Ġinvolv ing
Ġinfe ction
Tem plate
Ġass ets
ĠF uture
ĠAdminist ration
ĠE ric
× ķ
Ġsch olar
Ġfact s
IN D
M edia
Ġcur ve
Ġprim arily
ĠB and
Ġcapt ure
Ġsign ature
I E
ĠIll inois
Val ues
Ġcom edy
N C
ĠP A
y ers
ĠDav is
F ull
ĠP ath
Ġag encies
Ġscient ists
Def inition
ĠG a
ir k
\ '
Ġmod ified
Ġw ins
ĠAcc ount
Ġbeaut y
Ġaccur acy
ĠC ulture
coh ol
Ġboy s
Ġmag ic
ĠD am
Ġmin ister
ĠMin istry
ast s
equ als
Ġocc urs
ĠC as
Ġs elling
N ames
Ġpublic ation
Ġadvert ising
v ing
W S
F alse
ĠN avy
Ġmechan ism
Ġt ournament
Ġarrest ed
ĠEmp ire
end a
Un iversity
ĠF ac
Ġre nd
~~ ~~
b les
Ġact ors
ĠInd ex
ĠA k
ĠA I
Ġenh ance
ar on
ĠSoft ware
12 8
fol io
Al so
× Ļ
r ase
Ġplatform s
Ġcon nections
Ġar ts
Ġy ards
Ġserv es
Ġentertain ment
cre en
ĠGover nor
Ġocc asion
Ġvis ited
Ġvict ims
ĠS anta
RO M
Ġrequest s
ĠS a
Ġaccom mod
ĠDemocr ats
Ġmov es
Ġd ialog
ĠB C
ĠP ot
Ġcommit ment
Ä ģ
Ġcontrol s
b ad
ĠO nt
ĠTor onto
s uccess
Ġscen es
25 6
ĠT ax
am il
Test s
Ġser ial
" =>
198 2
M B
Ġcap able
Ġeffect ively
v m
Ġop posite
V ideo
s ol
Ġd iverse
ur d
J ECT
ar ry
ĠB rian
-- >
Ġent r
ĠN AS
Ġs am
Ġin tern
ĠB efore
ĠE s
d eg
Ġc overs
Ġrestrict ions
D avid
Ġform ula
aw ay
Ġfac ing
Ġend ing
Ġep isodes
v an
__ (
ivers ary
Ġhor se
bl og
Ġcont rovers
ĠĠĠĠĠĠ Ċ
Ġh ole
pl ugins
ĠU RL
it led
Ġg ift
Ġult imately
ab il
Ġke ys
ri ers
ĠIs lands
iam i
m al
Ġst im
ĠInst ead
ou ston
Ġcircumst ances
P ORT
Ġpre gn
r ations
D i
ĠVictor ia
ĠD u
Ġsever e
Ġinter actions
ĠScott ish
Ġweap ons
ĠFore st
g ame
Ġfunction al
ind u
Ġenc ounter
Ġsurpr ise
Ġact ress
Ġaf ternoon
ĠHar ry
it ivity
9 00
Ġemot ional
Ġperform ing
an z
Ġf ol
ĠTh anks
Ġstre ets
Ġwar ning
st ood
Ġw estern
plic ated
Ġhol iday
ag raph
Ġs itting
ĠE mer
v i
Ġat tr
} :
Ġdis pl
ĠS C
ĠP ubl
Ġtrans mission
reg on
Ġemploy ee
Ġdoll ars
Ġprov ed
h space
ow a
y ard
Ġg auge
Ġm ock
V E
T A
w ing
Ġim possible
Ġf iction
P tr
Ġv ast
ET H
el lect
Y ear
Ġexpand ed
ĠC R
writ er
Ġt ack
Param eters
Ġor ient
O ct
uset ts
Ġl anguages
c ategory
d im
Ġin fin
ĠC ond
fram ework
ach usetts
Ġpar se
t le
M ich
ĠB ell
ĠCap ital
U nder
Ġ- \
ĠB al
Ġc ards
ap plication
ĠA li
Ġrelig ion
F ree
Ġmiss ed
Ġaccom pl
Ġn amespace
ĠOff icer
point s
AS E
ĠEd ition
Ġres istance
ed u
ĠSing apore
Ġst ored
cre d
Ġre nder
Ġgu est
ĠMark eting
Ġexpl ains
ĠJ enn
ĠColor ado
Ġc ache
rib le
ec ess
f n
ĠPhil ipp
Ġfeed back
re nder
Ġh a
ĠK at
includ ing
d x
Ġb asketball
ĠEd itor
Ġext ensive
ell ar
ĠTr avel
RE S
Ġgood s
depend ency
Ġal gebra
Ġsem i
Ġinv oke
ile y
Al though
Hand le
R ule
Ġadopt ed
Ġr ural
Ġrecogn ition
ap y
riz ona
Ġk illing
> ();
Ġch apter
reg ister
Ġrecomm ended
ĠL ev
Ġ Ø
ĠBG COLOR
A g
V ol
t oggle
I ES
Ġtit les
Ġf asc
EC K
Ġturn ing
Ġindic ates
Ġt ough
Ġdr ivers
ĠEd ward
Ġhe ll
D ebug
l ay
web kit
Ġs ight
Ġfact ory
Ġimplement ed
ib ilities
Ġpract ical
Ġb omb
Ġear ned
Ġfund amental
s ur
Ġpotential ly
at ial
ĠEXP ECT
In valid
ĠS em
W A
F S
Ġch art
( *
ly ph
ĠT y
Ġappe al
Ġch ampionship
ER E
Ġtrans formation
Ġass igned
ĠRes ources
ar ity
er ate
Ġbig ger
Ġde bt
az e
Ġassist ance
ov en
Ġv irt
Ġbehavi our
Ġw allet
197 9
it ol
De cl
ann y
ĠD O
Ġst ood
Ġant ib
Gl obal
ĠSh ort
Ġs weet
Ġdescrib es
Ġstat istics
Ġtask s
se ct
P arser
her it
D oc
enn es
ĠIm m
Ġap ps
ĠH o
Ġdynam ics
ol is
Ġp ra
Ġ( '
w all
-------------------------------- --------------------------------
ad ed
do i
Ġpers ons
ĠBuild ing
Ġpro min
Ġm ob
Ġhab it
ĠAg ency
Ġreturn ing
Ġext end
ĠM iller
ĠPak istan
ĠPr act
Ġtot ally
lo om
Ġg iant
; /
ĠS O
ĠN eed
Gener al
H is
Ġad min
H L
f lix
ĠTe ch
Ġmet ric
Ġin hib
Ġvot es
c ert
ĠN ig
Ġexp ensive
t urb
Ġmoment um
Ġo s
in f
Ġ\ {
Ð° Ð
ĠV en
Ġproper ly
B ody
Ġhe nce
annot ation
Bl ack
Ġindic ated
adel ph
Ġcharacter istics
ov iet
IG HT
ĠB attle
al id
Ġcon vent
Ġall oc
Ġf ab
Ġprofess or
Ġw ond
ĠH ave
Ġm o
ak i
ĠF all
ele ction
el le
ĠMod ern
Ġleg end
ask a
Ġbre ath
Ġo vers
Ġex ceed
f amily
Ġneg oti
t ool
}\ \
ram es
Ġdi agram
H A
ul us
i ac
Ġfra ud
Ġmin im
h u
cons in
ĠIm age
mon th
Ġr id
Ġtop ics
Ġbre aking
ro g
c opy
se ud
& #
ï ¼
at ar
B en
ĠM ember
\ ,\
g reen
un ter
ĠH ay
Ġconstruct ed
Ġs av
> .
ins ert
Ġfrequ ently
raz y
Â Ģ
_ ;
ĠSch olar
ĠV iet
Ġh ate
Ġacqu ired
Ġgrant ed
Ġf aces
ne ver
ĠL y
Ġ( @
Ġup coming
Ġlegis lation
ang ers
Ġeduc ational
press ed
Ġh all
ĠP S
ĠAl b
on ia
Ġincreasing ly
ĠK evin
ok ed
Ġ[ [
Ġprom pt
et ary
ĠL A
prot obuf
Ġ _{
is ition
end ment
t witter
Ġtechn ique
âĢ ĭ
Ġmount ain
T oday
hold ers
itche n
198 1
ĠĠĠĠĠĠĠĠĠĠĠĠĠĠĠĠ ĠĠ
D em
Ġmanufact uring
h ire
ĠOx ford
7 00
re q
in ant
Ġf estival
Ġvot ers
Ġc ro
Ġshe l
ĠT ake
Ġst one
adelph ia
b ootstrap
Ġcomp act
Ġinteg rated
Ġrel ax
ĠCon nect
ic ide
Ġrepresent ing
Ġinnov ation
ĠV eg
wide hat
Ġtr ained
ĠM arg
Ġdis appe
ĠCon f
Ġpart ial
Ġd rawn
Ġint ers
Ġgrow n
ÂĢ Â
Ġr ig
Ġadd s
Ġper mission
t ic
Ġsomew hat
bl ack
ul ator
LO G
s ort
i ot
Ġrisk s
Ġhealth care
Ġpartic le
in ch
no indent
block List
iv als
ĠL ie
Ġeval uation
Ġso le
ĠC rit
ĠB at
virt ual
om atic
R S
Ġre pro
ĠS ydney
re place
Ã ±
ĠColumb ia
app y
ess ed
Ġb anks
| ^
Ġdr ag
ĠAr m
ĠO s
Ġimag ine
Ġhapp ening
R oot
os ed
D ay
es is
Ġpr ime
art icle
w atch
ĠRep resent
Ġcol our
Ġdef in
Ġwe aring
R et
com ment
ym ph
ĠTh ose
yth on
Ġc m
ĠR eb
1 30
ob by
Ġl ift
ĠPart ners
Ġbr ands
ĠT ony
Ġev il
Ġattempt s
Ġfif th
; <
Ġintrodu ce
Ġl augh
Ġinteg ration
ĠTrans port
ub s
Ġpre v
ĠC urrent
Ġco ffee
Ġm ine
Ġc ategories
Ġarbit r
Ġland scape
Ġimmedi ate
Ġse ed
ĠB O
C K
ĠAl li
ĠSk y
ĠC E
Ġfac ilit
bour ne
our se
Ġestim ates
' $
Ġh its
ĠR a
Ġb ag
h ard
ul pt
Ġfor th
ĠG allery
set tings
Ġout come
ĠS ound
ĠH u
w p
Ch annel
Ġtw enty
Ġ& \
Ġ> >
umer ate
A ud
ov al
Ġreason able
12 5
Ġlett ers
Ġperform ances
ache l
ust ers
h av
ĠD ream
ĠL iter
ĠT al
Ġl es
Ġsold iers
W atch
ĠEnter tainment
Ġd ating
Ġdis appoint
Ġbo at
Ġse ats
Arg s
ess ages
ire ment
B M
ed it
Ġne ither
Ġgr id
Ġaccess ible
d em
ĠV ersion
Ġlist ening
ĠGr ant
an while
ul ous
Ġacc ord
ĠO S
Ġapplic able
u z
ĠSt ore
Ġw ed
Ġcont ribute
ĠF A
Ġdr iven
ost ic
Ġprogram ming
ĠCont in
Ed itor
b en
Ġintrodu ction
n ames
Ġw ine
ynam ic
Ġguid ance
ĠT her
Ġsubject s
Ġir on
Ġb ands
Ġbeliev es
or ne
ant i
Ġpresent ation
Dis play
e lect
ĠHarr is
Ġille gal
Writ er
Ġb are
Ġ$ (\
Ġb att
ĠBro ther
text width
` .
Ġcan cell
th ur
}} (
m i
V ari
Ġreg ime
oc cer
ĠMin nesota
Ġw er
C N
D ialog
197 5
Ġse es
iz on
on na
Ġcrit eria
el i
Ġbatter y
Ġpar allel
Ġoper ate
Ġsp an
Ġcomb at
ĠW as
Un ited
Read er
Ġben ch
Ġprior ity
ĠL ady
Ġdes ire
Ġuns igned
ri or
ĠAlex ander
sp ir
ĠQue ens
a ire
call back
appro x
co q
Ġroom s
C opy
bo olean
ĠHe art
Ġphot ograph
Ġapparent ly
V ar
in v
= -
onym ous
Ġimprov ement
Ġcont est
d on
R ender
con nection
Ġprovid ers
ĠCl inton
Ġlegis l
h us
d ependent
Ġb g
Pol icy
Ġacc used
ĠMass achusetts
Ġt aught
B E
the w
ĠStud y
drop down
ĠA z
Ġpil ot
ist ing
P i
st al
ack ing
ĠSt ock
Ġprom ise
G ood
ĠA h
Ob j
Ġconc ert
c raft
equ ence
Ġb es
c am
ĠJ ean
Ġen abled
ĠLew is
ĠMr s
Ġcover ing
Ġreli ef
X T
c ers
l an
Ġinnov ative
ĠMount ain
Ġdecl ared
Ġarr ang
ĠPro p
Re port
ĠM anchester
Ġdest ination
Ġcr ash
Ġde ploy
Ġemploy ment
} "
ĠJ ava
Ġrev olution
int end
N OT
ĠRes p
Ġab andon
Ġpropos al
pro fit
ĠD un
197 6
ĠM D
ĠPro t
t ex
Ġchalleng ing
Ġthe ore
Ġpol ar
ĠCh annel
sc ribe
By tes
Ġw alls
Ġcommon ly
ĠLem ma
) +
aut o
Ġair port
Ġdivid ed
Ġres id
ane ous
ig ate
Ġpull ed
â Ĩ
Ġtarget s
ĠC P
Ġfound er
ing ham
Ġsp r
gress ive
Ġclub s
inem a
Ġnav igation
it ative
197 8
Ġb on
A ug
Ġimpress ive
L ock
ĠL es
KE Y
} +\
Ġs ick
Em ail
Ġt ab
ĠK r
omet ric
Ġd iversity
Ġwrit es
Arg ument
Ġus age
B P
ur ers
ang ular
N etwork
ep ing
Ġcompre hensive
M ock
ak h
Ġ$ {
Ġby tes
iv ated
Ġop position
ĠDes pite
z ed
ag en
Ġal ive
En abled
Ġwhe el
Ġmeasure ments
}} {\
Ġden ote
Ġm al
Eng lish
du ce
Ġstri ke
ĠOnt ario
ition ally
hel p
as i
ĠS uch
Ġour selves
ro le
j ar
ĠCh all
ĠGold en
ĠMay be
Ġdist ingu
h y
ik a
Ġs yn
Ġwat ched
ĠS ource
Ġex posed
197 2
Ġcomp at
Ġv ess
ĠJ am
ĠEconom ic
ol ver
Ġassum ed
en ess
Ġcho ices
ON E
Ġvict im
ĠOlymp ics
w ait
by te
Ġexpl o
ĠS N
ĠChar l
ĠSar ah
ab out
sh ips
Ġnecess arily
anc el
ĠT ra
roll ing
def ined
ribut ed
Ġab stract
M D
Ġmed icine
Ġappro val
Ġg ro
ĠV ice
ĠRec ord
S outh
ĠT ok
ĠN ever
osp itals
ĠI mp
ĠLab our
Ġreg ulations
197 7
ot ten
t wo
medi ate
Ġunder lying
Ġ âĢĻ
view s
ĠP resent
ĠG reg
c pp
b rowser
ĠR ose
P ress
Ġst rip
ĠStand ard
Ġs quad
ail ability
ĠEr ror
Ġj son
ĠF unction
R ect
bs ites
ink ing
="../../ ../
A pi
Ġinteg er
pl us
Ġparticip ate
Ġproced ures
Ġsol ve
â Ĥ¬
Ġsurg ery
ownt own
I AL
Ġex clusive
Ġgu ests
ĠG ro
Ġpercent age
Ġbro ke
P ER
is l
P ackage
Ġsurpr ising
form s
Ġs aved
Ar ch
Ġby te
ĠS av
ag an
Ġex cess
Acc ount
Ġn urs
Ġtr ouble
Ġpolit icians
Ġcomp ens
Ġb ass
D elete
Bo olean
ĠDr ive
Ġatt ributes
' ))
196 8
Ġpresident ial
reg ion
ch ain
pro file
Ġin line
ĠSaf ety
ential s
On ce
Ġcontinu ing
ĠI l
ĉĉĉ Ċ
ĠL ind
En ter
bl ing
ĠPort ug
ater n
Ġpres ents
Ġprep are
Ġshe ll
Ġy esterday
ear ing
it ut
Ġadv is
Ġd ates
n amed
S end
Ġ+ +
Ġ ),
Ġs ending
Ġprofession als
Ġdis k
Ġun iverse
pe ople
Ġel ig
j u
Ġfe es
y al
Ġnewsp aper
St orage
ĠT reat
Ġorgan ized
A nt
ia h
Ġpick ed
n umer
ik ip
Ġsu itable
Ġsol o
ĠSen ior
ts d
Ġp apers
Ġex it
Ġd ict
] $
rib ed
ĠM oon
t an
ĠE ver
Ġmonitor ing
Ġperson nel
is ations
ĠSh ould
im m
ific ial
ĠD id
import ant
Ġrespons es
sq l
18 0
Ġm g
Ass ert
ĠR oss
] :
ip ping
ĠF arm
ĠSt ill
FA ULT
Ġi Phone
Ġste el
Ġhas n
Ġpark ing
Rev iew
Ġre put
^ -
re ll
for ward
ot ion
il st
Ġap i
here nt
Ġhead s
F P
Ġb ott
Ġencour age
E ven
Ġliqu id
V I
Ġext reme
play er
un ning
Ġsh ips
L ike
Ġcre ates
Ġbe ar
ĠBer lin
Ġv ice
Ġwor ry
sup er
Ġincor por
ĠPl ace
ĠPro perty
ĠMore over
N T
HT ML
ĠDo es
Ġpl ate
197 3
Ġp itch
Ġsustain able
st ers
em ony
Ġmeasure ment
197 4
ĠD utch
Ġinform ed
Ġobvious ly
el d
Ġsubsequ ent
Ġpoint ed
Ġ' /
Y PE
a ired
v y
ĠR ome
Ġout comes
! [
Ġsup erv
ĠA rizona
ug s
ĠN ations
Ġfl ux
Ġass ault
Ġst ake
G C
Ġf ulf
ou ter
N um
n eg
ĠC reek
as m
Ġsil ver
Ġl at
Ġslow ly
Ġvers us
S ET
Ġwhere as
By te
iz able
se ason
igr ants
Ġprinc ipal
n ie
b ell
Ġb le
ĠSt one
ĠC ancer
Ġmeet ings
i est
ol ly
her lands
Ġfun ny
ill iant
Ġ urg
ell ite
Ġaw ait
ĠT en
Cont act
Ġdestroy ed
Ġlo an
i ology
ĠWis consin
mod ules
Ġth reshold
ĠTr aining
gorith ms
Ġex ecution
Ġset up
ĠJ osh
ast y
Ġd uration
Ġcompl iance
ĠAd vent
Ġfra ction
) }{
act ic
Ġunder stood
all as
m argin
ĠS ix
g ments
ĠF ri
ĠDo ctor
M embers
. *
Ġserious ly
D ist
Ġinv ent
G S
Ġrad ius
Ġcompet itive
T ool
ĠLear ning
Ġguid elines
t w
ĠG ree
A pr
ĠCl oud
Ġg arden
Ġas pect
Ġcop ies
rad ius
ass ets
n orm
od ec
T erm
Ġsuff ered
Ġt ou
W rap
Ġm m
Ġinvestig ate
ĠH ouston
Ġcorre lation
pl ant
att ice
Ġsur ve
ĠM iami
Ġjav ax
` ,
Ġsc r
ĠAff airs
ĠF alse
ĠT alk
Ġcommun ications
ibr aries
Ġany where
Ġvot ing
ĠBr idge
ĠB it
Ġsc ores
} -\
arr ing
Desc riptor
ĠC orn
ĠJ ordan
3 60
clos ed
ĠCom ments
F urther
Ġgr ade
w ill
P o
Ġm it
ĠPr inc
f ix
ĠS quare
ikip edia
Ġaddress es
w hen
Ġre ar
Ġcapt ured
ĠD og
Ġmain tenance
R est
Ġbeh alf
pass word
sh ift
g i
Ġ\ ;
Ġdisc rim
C am
result s
Ġd uty
ĠO regon
ip her
Ġatt ached
sc r
196 9
ĠC ab
ĠI O
Ġem ission
Ġeng aged
Ġant icip
ious ly
ĠPal est
um ps
ĠTh ings
Ch anged
â Ħ
ĠSm all
re tt
Ġcopy right
Ġ< =
ĠCont act
Ġm sg
B L
Ġund ert
ĠSim on
ĠW ord
ĠP sych
sh ape
ĠG il
er on
Id ent
up le
ym pt
P erm
ĠL anguage
Eng ine
, '
Ġrepresent ative
Ġresult ed
x space
ed itor
Ġf lying
Ġoption al
Ġy ellow
ev ents
m akers
az a
and al
Ġb ath
w ich
=" "
up l
ĠR oll
H z
ĠS i
ĠPrem ier
Ġbe ach
ĠFin ally
ateg or
RE AD
Ġh at
Ġstr ange
Ñ ı
Act ive
Ġf ib
Ġexhib ition
sk y
ne q
Trans action
Ġfac ed
ĠMar c
ĠTur key
Ġd ire
Ġdog s
Ġdemonstr ated
Ġpurch ased
ĠIndust ry
r ons
acc ount
Ġcompos ition
ĠC S
m aking
TE ST
ĠP ut
arch y
Ġdis miss
ug by
Ġcour ses
Ġe gg
Î ¿
Ġcons ent
ĠO tt
ĠU l
olv ing
Ġreal ize
Ġtrad ing
Sec urity
Ġp up
er as
ĠB ush
Pro f
Ġd ual
un ct
Ġatt orney
ĠR aj
Ġhost ed
clos ure
R T
Ġwalk ed
Ġfr anch
ord on
ĠY et
item s
Ġpay ing
th read
M usic
Ġs le
ed ing
Ġopt ical
ĠĠĠĠĠĠĠĠĠĠĠĠĠĠĠĠ ĠĠĠĠĠĠĠĠ
ĠReview s
Ġso il
sec urity
ĠS U
Ġcaus ing
Ġst ages
= (
ĠPat rick
ĠT ask
ch or
A ng
ĠAnt on
Ġax is
Ġs ought
Ġh ook
th rough
St ar
ĠP H
ĠC ore
Er r
end or
Ġbus y
) }$
ĠD at
Ġde als
atur ally
Ġveg et
Ġth in
Ġtrans lation
ĠB E
Ġp odcast
Ġsent ence
b ec
Ġexpl os
Ġ{ };
s uch
OD O
Ġde leg
ble m
se a
ellect ual
n one
Ġprodu cing
Ġprinc iple
Ġstrugg le
Ġacc eler
ĠĠĠ Ċ
Ġh tml
Ġd b
Ġpl astic
ou ri
197 1
Ġatmosp here
Ġb tn
ĠCont ent
Ġre cept
ty ped
S y
ag ment
Ġoffic ially
f i
ĠW H
P RE
Ġdisplay ed
ĠE ffect
Ġpass word
ĠB urn
m ad
z ero
{ $
Ġkn ock
ĠL at
Ġinter act
S ch
Ġs in
ĠJew s
ĠCam bridge
Ġro of
er k
Ġ ri
ĠJ ane
Ġval uable
child ren
L eg
ĠK elly
Ġdel ight
Ġscen ario
Ġexplan ation
Ġcirc le
Ġnarr ative
ĠMov ie
Ġl ux
Com mon
lo or
Ġr acing
Ġte ach
rop y
Ġd ust
Ġf ruit
re port
Ġaware ness
Ġcon clusion
nov ation
] \
Ġmatch ing
D I
aud i
Ġstrateg ic
Ġoper ated
Ġcon j
Ġm ail
Ġdet ected
E p
Ġprinc iples
Ġrequest ed
Ġph arm
ĠI V
ch annel
19 40
T ab
Ġobject ive
Ġc atalog
Ġrestaur ants
) "
Ġmy th
ĠFore ign
op ic
Ġg ate
Ġcomfort able
Ġass embly
on al
Ġun us
as p
C are
) ).
Fe ature
ĠDi ego
O wn
In ternational
L o
Ġrefer ences
ĠOff icial
ĠW inter
eng ine
cit et
Ġder iv
Ø ±
ĠPhil adelphia
He alth
Ġabs ence
Ġret ired
ĠF a
Ġincred ible
M I
ĠS oviet
Ġch ampion
H er
Ġdise ases
st ats
att ribute
col n
Ġl ists
ĠL ib
Ġreal ized
Ġmod es
ĠSe lect
igen ous
P ay
cer ning
Ġtem por
ick ing
b ass
Ġen forcement
ish ment
Ġmin imal
Ġre ward
ĠH D
be an
Ġke eps
od ge
Ġregular ly
Ġsurpr ised
Ġr aces
over ty
part y
W est
u ilt
Ġconsum ption
ĠT ai
Ġa st
ĠSc ient
ĠBru ce
Ġen emy
Ġres on
omet imes
Ġent ries
in cess
Ä ±
t ons
iver pool
Ġtri als
ĠG h
l g
Ġâ Ĩ
cl ip
au x
S pace
u v
Ġst ead
M ember
Ġcru cial
G ame
Ġinteg ral
P AR
Ġconstr aints
Ġoff ices
ĠS ab
Ġcan cel
g it
Ġj oy
Ġhand ling
RE E
ĠP ack
Ġemploy ed
F iles
t ers
ter y
ĠH art
ick en
Field s
Ġconcent ration
in line
ĠReg ion
Ġknow ing
Ġdevelop ers
ĠWe bsite
ĠB udd
Ġbase ball
Ġde let
Ġprov ince
B rit
rec ated
Ġr ub
âĦ ¢
ĠS port
Ġinter ior
Ġvot ed
Ġinj uries
ĠKore an
Ġt ickets
196 7
Ġconsequ ences
r ig
Ġprof it
ĠJ ay
Ġt all
ĠP ersonal
FI LE
og ene
els on
Ġperman ent
ock er
i ors
Ġem p
Tr ump
ĠEv ents
Ġv it
l ah
ut en
ĠAnd erson
U ST
ĠSil ver
T HE
ĠA bb
ĠE ss
T otal
; "
ĠD ocument
Ġent reprene
Mich ael
are a
al g
math sf
ĠĠĠĠĠĠĠĠĠĠĠĠĠĠĠĠ ĠĠĠĠĠĠĠĠĠ
Se ction
ĠTr ade
Ġinv ited
Ī Ĵ
######## ########
ĠHol y
Ġnuc le
Ġr ising
Ġlik es
Ġbu ying
Ġde pos
Ġsub mitted
Ġb id
ĠFr ont
Ġeval uate
Ġc a
ic he
en umerate
ĠPl us
Ġlik ed
ou st
ĠJ ason
Ev ents
Ġassert Equals
up id
u in
Ġal umni
Ġreg istration
ache lor
ĠD ave
C r
j query
G raph
ĠY O
M c
ĠRepublic ans
Ġh ur
ect ors
ele gate
ĠCl ark
Ġd a
Ġign ore
Ġ& =
gr id
ĠAtl antic
Ġr ating
Ġp airs
ĠMem orial
Ġal cohol
ĠDef ault
un es
Ġtrans parent
ĠLe on
ĠM oh
IT E
Ġs oci
onom y
Ġhop es
ĠG ard
ĠLim ited
ĠR oy
Ġlock down
Ġlaw yer
Ġrapid ly
arr ant
Ġbl ow
Ġag ed
ĠI L
19 30
Ġg ay
ennes see
ĠC T
de cl
riev ed
pr imary
//////////////// ////////////////
Ġreve al
S ymfony
ĠIm ages
U ID
Ġche ap
F ollow
Ġed ges
Ġr um
Ġsymmet ry
under line
Ġweek ly
Ġreve als
ado op
in os
ro it
Us ing
Ġshop ping
iss ues
ĠRel ations
Ġ" /
Ġtemper atures
=" @
ort ion
Ġfarm ers
Ġeng age
ĠAnth ony
com ponents
Ġpubl isher
ĠMon th
Ġcol ors
Ġansw ers
Ġp y
e a
Ġp ul
ĠS H
Ġag greg
Ġjoin ing
re le
bl ue
Ġacknow led
ĠE P
J SON
M atch
} %
Ġassist ant
Ġcompos ed
Ġbg color
ĠB ry
arg o
ag u
Pr int
19 20
z one
equ ality
Ġgovern ments
ades h
ab is
Ġsp okes
ĠBel g
=" ">
Ġd ies
Ġch ose
iffer ent
os ph
Ġdiscover y
ĠComm and
ex ception
VER SION
Ġfair ly
ĠG P
p res
Ġcou pling
Ġadvent ure
out ube
Ġto x
ĠP DF
Ġessential ly
B it
Ġb inary
Que ue
Ġf ault
Ġsub sid
Ġt icket
o en
ĠD or
Ġdisc ipl
Ġh ide
lik ely
ich ol
t otal
00 1
==== ==
Ġinter val
Å ¡
cuss ion
Ġfac ulty
ĠH op
the orem
MA X
Ġsupport ers
ĠH ung
Ġl ayout
ĠCap tain
ig ious
Ġdat aset
Ġany way
i op
el and
Ġbird s
ĠO cean
ĠL LC
Ġgr ass
sche ma
Ġsk ill
Ġsens itive
w ho
ĠP itt
ĠIslam ic
Ġvoc als
Ġpass es
or iginal
v space
J oin
Ġent hus
Ġ( *
Ġa ims
J ob
Ab stract
ĠS D
Ġbre ast
} ^{-
ĠDef ense
Ġle ct
Ġfriend ly
rop ical
Ġfound ation
Ġal leg
ĠCap itol
Ġv ital
By Id
Ġrele ases
P aul
ĠO ption
rom ise
ĠV AL
leg al
Ed it
ĠNet herlands
et ies
clus ions
N orth
Ġcut s
Ġill ness
Ġclass ification
Ġo x
ĠN a
Ġg ained
Ġs ed
Ġwe bsites
w ild
w ick
E P
Ġtro ops
s ave
, âĢĻ
c md
par a
Ġdec ay
Ã £
Ġsit uations
be ing
Ġmembers hip
Ġdemonstr ate
ors es
Ġcont roller
pro d
Ġinj ured
C ategory
Ġsudden ly
Ġeng agement
operator name
Ġb oss
Ġsw im
ĠK ansas
ĠStud ents
Ġfew er
Ġfore cast
Ġd imensions
ĠH ope
Ġb inding
az y
Ġman ip
t ip
Back ground
[ :
W idget
19 45
Ext ension
Ġhor ror
ĠM icro
ac on
ĠB arn
Aust ral
Ġla id
Ġrad iation
} '
Ġst ability
in ar
Ġh urt
all oc
M eta
Ġcarry ing
p red
s pecial
ĠD er
Ġre in
Ġfall s
ĠM embers
Ġiniti ative
not ation
B as
Ġfl uid
c b
ĠBl ock
Ġvis iting
ĠIn f
ac ent
Hel p
19 64
k w
re ement
ĠLeg al
ĠSt adium
Ġad mitted
ĠProte ction
il ty
Ġout break
Fl ags
ig e
qu arters
fl u
ĠNig eria
ur is
ĠR ow
Act ivity
Con f
Ġcon version
Ġtrend s
Ġlay ers
Ġf ake
Ġdeal ing
ĠPri ze
Ġdocument ary
Ġheav ily
we ek
Ġpres c
Ġput s
ĠPr int
Ġre ct
p ot
) ),
ĠAd vis
Ġsy nd
Ġstrong er
( !
ĠYear s
Ġgen etic
ro oms
Ġsurv ival
ĠArt icle
op ed
ETH OD
Ġal ert
ĠUn it
Ġfall ing
ong s
Ï Ħ
P ool
ch a
LE CT
ct rine
Det ails
Ġop posed
b et
off s
Ġ$ .
tes y
P G
ĠI owa
F i
e ach
Ġe igen
ĠAll en
Th anks
ĠArch itect
ad i
se lected
Ġop ens
ĠFin ance
Ġfr ust
ut her
ĠH an
sc roll
Ear ly
im ents
Ġcl ock
Ġhard ware
ind ed
AR D
Ġcelebr ate
M sg
ĠO ak
Ġinv alid
196 5
ĠEar ly
Ġwork er
Ġdefe at
Ġdec or
yn om
Ġbu ck
Ġexpect ations
l ate
ĠR ound
S ur
ĠS ex
ure au
x s
Ġthous and
ex ternal
im pl
ĠRes ource
In ternal
b urn
ĠG row
ĠE lement
her ited
Ġro se
gh an
b uf
le tt
ĠP u
Ġfl ash
Ġredu cing
ĠInd ones
b ot
Ġanal ys
Ġinstance of
Ġcap abilities
Ġstream ing
Ġenc oding
Ġmed al
Ġdraw ing
Ġkind s
ĠC art
u ating
or ous
Ġw ing
ĠT ag
Ġab und
In v
Ġinvolv es
Ġthink s
M iss
pos itory
Ġpay ments
Ġamount s
ĠN EW
ĠRev olution
ĠF I
Ġsim ulation
iv ial
ax is
ĠPlan ning
Ġem br
ĠC redit
ĠL as
à ¦
ct ic
ĠRe act
Ġwin ners
Ġnot iced
Ġcont ents
Ġperfect ly
Ġaff ili
ĠF ellow
ĠFurther more
it ure
Ġobserv ation
Ġterrit ory
assert Equal
Ġdis abled
ĠStud ent
ĠS ales
the re
ã Ģ
Ġres olve
arg ument
Ġsim ult
Jan uary
Ġperson ally
Ġroad s
33 33
Ġpromin ent
Ġmanag ers
ĠF L
OC K
ug g
_ ->
Ġmanag ing
ĠA G
Ġphys ics
spec ific
Com ment
Ġf uck
Ġlow est
Ù ħ
olv es
Ġelectric ity
Ġref uge
Ġload ed
ĠPr ice
Ġbas ically
Ġtr ace
w as
ane ously
ĠMo ore
ĠN az
ĠG ets
P ublished
Ġme at
Ġs izes
C ond
B D
Ġdo ors
item ize
Ġb at
ot ing
Ġcons ervation
ĠPol and
ĠCast le
ĠD ise
b led
re ated
ams ung
ĠP ur
Ġprov en
IP T
ĠF C
dom ain
d ers
Ġdocument ation
$ }
Ġdes ired
Ġl ib
Time out
s a
ĠTerm s
)) )
Ġg aming
ĠN atural
Ġt ank
ĠAtt orney
Ġcut ting
Ġf irms
ist a
ĠAuthor ity
Ġsett lement
Ġsuff ering
Ġloss es
ist ence
Ġtransport ation
yr ics
d am
ĠOlymp ic
Ġwindow s
Ġpolit ician
o a
ĠCh apter
A uth
T IM
per ial
ĠP ed
ĠSchool s
Ġdes k
Ù Ĩ
ĠEx press
Ġn g
ĠL iving
pro to
Ġbr illiant
and o
un ches
ĠN ature
C ent
F eb
ab ama
ĠMal ays
ol y
ĠF ant
ĠRef er
n etwork
pre c
end ers
Ġlist ing
Pro duct
ĠF un
h l
s is
Ġmusic ians
m ock
pro perties
Pro p
bs erv
Ġuncertain ty
D an
Ġme ets
ĠNet flix
Ð ²
ĠSm art
Ġsub mit
Ġclos ing
ĠReg ional
Ġhand ler
S equence
ĠAp plication
Ġpass engers
ot te
u ce
ol id
web pack
z y
âĢ¦ ]
Ġgalax ies
Ġre act
ĠEnvironment al
Ġcomp ute
ph ot
am az
Ġtri es
Ġro yal
Ġrespect ive
agn etic
Ġgrad uate
viron ments
ĠS in
Ġent itled
Ġt iny
ĠRes ults
Ġpop ulations
old ing
Ġwer en
Ġthe orem
}} _
set s
ĠL ag
P ATH
Ġk il
ĠN ob
ut ter
Ġag es
196 6
ra id
Ġpre ced
ub a
b at
_ ,
oc y
hor izontal
Ġf ired
Ġins ight
Ġsurv ive
ĠG arden
ather ine
Ġprov ision
Ġtrans actions
Ġa er
Ġe q
Ġhyp othes
Ġtem porary
ol i
ĠHaw ai
Ġw ound
Ġ( -
Ġcirc uit
Ġb in
ub ble
pos ing
ĠP O
ĠD VD
ĠN orm
Ġdefe ated
ĠR oom
Ġthe ories
om ent
Ġconsider ation
M arch
Ġd inner
b its
ĠSe attle
", "
igh th
B N
ĠO wn
Ġl ights
Ġbuild er
à¤ ¾
Ġo cean
ĠSh op
ĠTur k
V A
Ġ{ {
d agger
olog ists
ĠLa ure
b ow
} </
s ome
S cope
m ove
M R
lo op
Ġelect ro
ION S
Ġannounce ment
ç ļ
ĠP y
Ġchild hood
Reg ister
Ġe ase
L ife
O pt
ĠTh ank
Ġnec k
Pro v
Ġsc ulpt
Ġt aste
") ]
Ġdi pl
ĠL oc
Ġanim ation
Ġmach ines
h om
enn a
Ġvari ation
R ob
Ġthe atre
}} ,
Ġreli able
Ġjournal ist
ĠM s
Ġrob ust
ĠV in
}} }
R ich
typed ef
oy d
os itory
ce ive
d p
wit zer
it ter
Ġtransfer red
Ġopt imal
st e
que ue
L java
Ġr g
Ġdesign s
iv a
ey ond
Cl ose
ĠPh ill
Ġfin ance
Ġexpert ise
M ake
W indows
Ġver ify
Ġpain ting
ĠAg ric
Ġref ers
Ġk ne
aw are
G reat
II I
F N
Ġse vent
_ +
ĠAust in
Ġocc as
Ġimprov ing
Ġarbitr ary
Ġinst ances
10 5
ang el
ram a
ch ant
Ġfant astic
Ġcomplet ion
Ġpath s
D id
Ġcontribut ed
Ġrecogn ize
Ġsing ular
I LL
S M
Ġinst ruct
Ġinterview s
ĠCommun ications
ut f
ath y
S am
L IC
i ary
Ġwat ers
ĠN ev
Ġem issions
ĠM eg
A K
Ġf inger
ĠVill age
ĠH al
Ġgl ob
ro ck
lim it
çļ Ħ
im it
ĉ ĠĠĠĠĠ
ĠH ence
uns igned
ĠSe ver
Ġvert ex
Don ald
ĠN ic
is ely
are st
Ġstr ings
Ġsc oring
Ġmark s
Ġg ang
if ting
Ġs essions
ĠHistor ic
ĠSt ream
Ġref used
ant e
Ġregard less
ĠF ive
ĠE c
F loat
ĠD uke
Direct ory
cept ions
Ġrep ly
ĠMor gan
ĠS elf
ĠSt ories
aly tics
hemat ics
C ast
h s
Ġsus pect
ow ed
Ġar c
Ġre aching
w hel
ĠOr iginal
Ġvulner able
ic ular
Ġhop ing
ĠG ab
ĠPolit ics
ĠAp pro
Ġt rib
ĠAm ong
Ġtr ick
Ġaccord ance
ze ch
Ġlabel s
^ ^
em ies
tab s
ĠVeg as
B ased
Ġc rypt
def inition
alax y
Ġam plit
Ġ ..
Ġcom ic
$ _
ra ig
tx t
ĠP ier
Ġmonth ly
h our
Ġbi as
ĠHel p
cont roller
Ġdecl ine
Ġnorm ally
Ġsh ots
ĠAr gent
S uccess
out ing
It ems
add r
al so
ĠB ible
Ġp ushed
ik es
Ġh am
clud es
ĠM obile
ĠD ick
op es
aur a
Ġnumer ical
ĠYou th
Ġpro hib
ap ing
ĠT ennessee
Ġb ike
ĠEp isode
Log ger
est yle
D ouble
ĠC ert
Ġparticip ation
an ing
Ġro ots
Ġcolumn s
t ri
Ġdeep ly
or ient
Ġf olk
ĠB h
Ġliter ally
Load er
irl ines
Ġcon crete
s u
Ġdo se
j an
$ /
min us
us al
O B
ĠCo oper
ur ities
() ));
eral d
Ġr ational
og a
i ate
Ġstret ch
ĠPr ivate
Ġt ensor
por ter
Ġpredict ed
< \
ĠMic hel
Ġsomew here
as ant
ul um
R ele
Pro xy
B rowser
nt ax
ail ure
Ġto ler
Ġgen es
: \
Ġf urn
Ġanc est
Ġ[ ];
Ġcom plicated
st able
Ġrepl acement
ur able
L Y
Ġmor al
Ġcl imb
Ass oci
Ġassum ption
GB T
14 0
Ġa ver
as ma
ĠEx p
F IG
g over
ĠMay or
am ps
Ġt ur
Con n
ĠJac ob
Ġne utral
Ġequ ally
im p
Ġmass es
C oll
Ġrail way
ĠS n
Ġing red
Ġout er
Ġn ations
Ġask s
Ġal gorithms
() {
Ġspirit ual
m atrix
S ummary
Ġeas tern
Ġpo etry
ĠM ilitary
Ġconvent ional
ĠĠĠĠĠĠĠĠĠĠĠĠĠĠĠĠ ĠĠĠĠĠĠ
\ }$
Ġsign als
witzer land
c ases
if iers
Ġe ating
b est
Ġb ars
ĠAnn ual
us cript
ĠB uck
Ġfol ks
Ġ\ |
r f
N E
ĠLin coln
. __
ĠTh ough
h adoop
ign ment
Ġch at
M atrix
Ġl ands
Ġloc ally
Ġam id
Ġre verse
Ġacqu isition
u um
ĠWh ich
ĠH ur
ar ia
Ġrequire ment
Ġlog ic
iff s
ack ed
com plete
Ġmor ph
d ays
ĠM aterial
ĠTh ird
Ġcon scious
Ġinterpret ation
J ames
s ince
Ġcent ers
Ġprefer red
Down load
Ġgen re
ĠCon fig
ad r
ĠL ane
m ont
Ph il
Ġcon cerning
ĠCons ult
Ġconstant ly
Ġad s
Ġout standing
Ġm apping
v o
Ġmaintain ed
Ġarr ival
ol itan
Î ¹
Ġleg acy
h ave
ort s
ĠE V
ĠS A
ap os
Ġhelp ful
Ġdo ctors
ĠO pt
Ġsim ulations
Ġtrack ing
cover y
Ġorgan ic
Ġtherm al
cd n
lah oma
mult icol
t ed
W R
al m
Ġshould n
Ġper turb
B ecause
T om
ĠR at
as hes
key word
Ġfant asy
FF FF
xy gen
Ġup load
Ġthrow n
ĠRele ase
ra pe
Ñ ĭ
Ġ& =&
Ġreput ation
Ġterm inal
Ġent ering
ĠSy ria
Ġtax es
IN FO
Ġrough ly
che stra
re nt
ĠK han
ĠP erson
l arge
IN S
sc ription
J ava
ch anged
h ot
itar ian
dep th
) |
ra h
IT H
Select or
Ġgover nor
ĠViet nam
N Y
ag ic
B B
in ction
Ġfeel ings
ĠCom ment
ĠL E
Ġcour ts
3 50
re nd
UT F
Ġcare fully
ĠMel bourne
Ġh ist
ĠRober ts
ta h
h ang
Ġb rown
av it
) {\
ur ches
Ġ io
ĠC ell
Fin ally
J une
asc ular
Ġcorrespond s
ĠV i
Ġob lig
Ġcer emony
Ã£ o
Ġdiscuss ions
@ "
ĠB an
Child ren
196 3
Ġint ention
Ġdecre ase
Ġst yles
multicol umn
ĠPhilipp ines
Not es
og ram
Ġanal og
× ª
ĠN ation
ĠM un
ĠT oy
ech o
Ġhy brid
Ġadministr ative
Ġsh arp
^{- \
Ġm ouse
ib l
Ð ´
ĠD allas
Ġele m
ĠSt ew
ĠM other
Char acter
in ions
Ġdis order
Ġemer ging
ĠMary land
1 12
M ac
Th ank
ent le
D uration
anc ell
Ġdepend ent
) ">
Ġorgan isation
ĠA SS
Ġfl ags
ust ed
form ed
Ġaim ed
Ġ% }
pl an
foot note
p ub
Ġv ocal
Ġdiagn osis
Ġwed ding
ĠF le
ĠHow ard
ĠB alt
ĠE T
Ġqual ified
ib li
B i
ounc ed
r ating
s witch
ri um
w hat
ĠSp irit
Ġ( âĢľ
Ġrecommend ations
Ġh ospitals
J uly
Ġp iano
ĠB uff
ĠUkr aine
ĠV irtual
Ġsc alar
Ġgener ic
ou ver
ĠE ag
ĠB ab
Ġstat istical
Pl ugin
N V
* )
Â ·
N G
Ġphil osophy
ĠJud ge
B el
ĠA C
ST AT
Ġfavour ite
Ġappreci ate
Ġf unc
Ġc razy
lim its
ĠD ub
Q U
-> _
Ġcon front
The ta
Ġk itchen
S en
Ġsing ing
Ġsubsequ ently
Ġrot ation
ĠD rug
s ingle
Pat tern
ĠPhil ip
Ġsubstant ial
Ġfranch ise
k t
Ġpr ay
ac o
Ġweap on
config uration
Ġinst ructions
ĠPer formance
th rows
Ġstru ck
ĠAnd re
h idden
g ood
B usiness
ubl in
Sh ort
S ingle
con c
ĠCl imate
ĠSim ilar
ook ie
Ġdeb ug
am ely
ĠL ess
ĠP a
z o
ĠMc G
Ġc ounsel
ra it
on ical
Ġco inc
P anel
ĠW AR
ĠSur vey
ĠM ust
ok er
gl as
Ġbe er
elf are
Ġt ips
ener gy
ĠSwed en
Ġreg ulation
Ġdem ands
ous es
not es
Apr il
p ur
Ġfl ights
Ġbrother s
ĠAn ne
UN D
U LE
at hered
ĠCh ap
anc hes
ĠMot or
Ġun expected
Ġcap tain
Ġcolle agues
Î ½
Ġin aug
Ġcons ervative
D est
ĠG all
rupt ed
Ġap plies
Ġowners hip
ĠIndian a
Ä ĩ
Ġmem ories
10 2
Ġas ide
ĠR ick
ge on
il ib
Ġann iversary
assert Equals
ĠIn v
rb an
Ġcomplex ity
ph y
Ġperiod s
ĠGree ce
Ñ Į
R ober
type of
Ġne uro
bar a
[ $
ĠM as
Ġap artment
ĠWith out
ĠM L
ĠL ater
Ġsp atial
par ser
L INE
Ð ¼
ort ed
ĠB uy
++ ;
ĠO K
v ideo
Ġelig ible
Ġb old
196 2
ĠAtl anta
ĠR ey
ĠP aper
Ù Ī
C ity
ut ies
ĠMar ia
Ad apter
m ay
ĠFor um
ĠP ublished
Ġass et
Ġcheck ed
cos ystem
ĠAlli ance
M s
ĠF ollowing
ĠI R
- $
C rit
F ix
NavBar Cell
ĠM essage
ï »
Ġsac r
ĠE uro
Ġobserv e
ac ht
F ore
Ġcollect ive
Ġmin ing
ĠM ars
Ġpublic ly
win ning
Ġunivers al
Ġmer ely
ĠBow l
p icker
book s
ĠPe ace
S QL
Ġconvert ed
Ġarr ive
ĠRes erved
ĠIsrael i
ĠL iverpool
in th
A U
G P
ph ant
Ġ ion
ĠG re
Ġord inary
Ġl attice
ush ing
Ġde cent
ĠR ace
Ġcompet e
ĠF ather
or able
Ġindust ries
S W
ic ients
Ġhost s
L in
', '
ĠH IV
Ġsing les
ĠRes ponse
Iter ator
Ġin equality
ĠB ird
d ates
E q
Ġp ic
L ear
Ġt issue
hes is
Ġarg ue
ĠC lear
un ior
Ġte a
Ġfore ver
Ġviol ent
pl atform
w en
Ġim plements
ĠAl an
ĠK y
Ġtarget ed
T ABLE
!! !!
Ġoff ensive
Ġunus ual
m ates
Ġv on
ĠMiss ouri
face book
& =
Ġin fer
A E
prot ected
Ġorgan isations
ang a
F amily
m aker
Ã© s
id ays
Ġperson ality
M OD
p in
ĠP os
ĠAr thur
Ġspect ral
ĠB Y
fl ags
ĠD est
Ġbul k
Ġsc an
os ity
ĠWh it
Ġdes per
ĠN ative
ĠB or
S IZE
ĠG un
ous ing
Ġb its
ĠN E
Ġoper ational
S Y
Ġc ensus
ĠTok yo
Ġrout es
. -
ig s
Ġunivers ities
Ġs oph
ĠWhe ther
ĠJ oh
Ġconcept s
Ġimprov ements
Con str
Ġexecut ed
Ġp ace
Ġ= ========
pro vider
Pro file
Ġdepend ence
Ġmechan isms
å ı
Ġm arg
Oct ober
am er
ï» ¿
st ud
Prot ocol
G reen
u h
,\ ,
Ġ" "
H ave
utr ition
Ġgu ilty
Ġindepend ence
om as
qu es
T T
Ġ( $\
ĠG ib
âĢ ħ
Ġattempt ed
Ġ' '
Ġapp lying
ĠP il
Ġin duced
ĠDe an
Ġsepar ated
ĠPar am
Ġt one
Ġ ^
ĉĉĉĉ ĉĉĉĉĉ
i ative
Ġc up
Ġn aturally
cond ition
ĠC op
ĠD ur
Ġapproxim ation
the less
t or
eli hood
ĠB reak
RE D
M er
Ġtalk ed
Ġun likely
Ġapp end
Ġsign ing
et ition
ĠC ou
ord inary
od a
Ġb oot
ĠC ow
m g
ĠC ole
nt il
contain s
ĠâĨ Ĵ
ĠK l
z ing
Ġread s
ĠEx change
Ġm es
p u
ĠAut o
Init ial
Ġpe er
Ġ} \
Ġdis ag
F ORM
Ġ$ |
ĠL am
Ġmagn itude
Ġmolec ular
id al
Ġf ails
Ġcan n
Ġhead ing
ys ical
ĠN ode
ĠAl abama
Ġign ored
ĠP ast
ĠInt eg
tr igger
! )
Ġleg it
ĠPl ant
on i
AN CE
Ġm oon
ĠCons ider
ĠDown load
ĠS ant
Ġl oud
ĠM ess
() ).
Ġinstall ation
ĠMc K
Ġgr ab
Ġfootball ers
Ġdemocr acy
Ġher itage
St and
Ġcur ves
AS H
Ġisol ated
coll apse
form er
Ġ{ '
em ed
ik ing
ĠChampionship s
iter ator
Will iam
less ly
st age
Ġm eta
Ġview ed
Ġhead ed
Ġdesign er
ĠW oman
Ġj et
ĠRequ est
is en
ĠH ills
ĠD J
\ }
Ġt ables
Ġw et
ĠHer itage
Aut o
Ġtom orrow
Ġpro xy
Ġchar ity
AD D
ank a
S N
Ġhigh lights
Ġguarant ee
ĠT rib
Ġpl ain
ĠM ission
H ar
á ĥ
Ġsc hem
Ġl oyal
Ġxml ns
Ġf n
Ġl ov
m b
ĠB ull
l ayer
Ġg uns
Ġscreen ing
196 1
ard o
el ve
Ġt ied
ĠT ree
Î µ
Ġevery where
ĠTem ple
Å į
ĠT el
ĠK am
ĠElect ric
ing ers
sc ill
Ġtheore tical
Ġp in
ĠMar ine
ber ry
work s
l ined
Ġst upid
Ke ys
Ġen ables
and ed
i ere
ĠF ROM
ĠWalk er
Ġin hab
10 4
W H
ĠH ero
h ide
ĠS audi
ĠA BC
ĠD ays
Ġinst itution
M apping
Ġacc um
claim ed
r ates
gener ated
ĠDel hi
u its
ĠR oute
ĠMat thew
em et
enn y
Ġpriv ile
ĠF O
Ġmed ian
ĠM oney
own er
Ġc ogn
Ġfrag ment
Ġaddress ed
ex ists
Ġrank ed
Ġident ification
S ervices
Ġt act
ĠCr ime
F E
ĠB eck
Ġm ile
AT ED
Ġn a
im ore
man ager
Ġrep air
)) );
Ġimm un
Ġg olf
Ġcoord inates
ĠAf ghan
em pl
Ġelse where
Des pite
log ger
col Last
Ġint ensity
ĠPh D
v s
ĠJon athan
Ġre ven
Ù Ĭ
Ġover l
ag g
ĠS M
Ġres ident
Ġp ump
Ġcl ar
Ġstudy ing
ĠAp pe
Ġregul atory
hand ler
ĠDet roit
_{ {\
Com par
im ated
H D
Ġencour aged
che n
ĠG iven
ĠW olf
Ġre ly
Ġpass enger
ac cept
Ġbreak s
he ll
Ġsome how
Ġcalc ulate
B et
Ġf ro
S an
ĠH um
ĠP ear
ĠN BA
S ave
Ġmin i
Ġport folio
d one
ĠH ell
Ġyield s
umm y
O ld
AR S
Ġconf ident
Ġwh ilst
tex tr
Ġinv ariant
Ġen vironments
Pr ivate
Ġentr ance
ĠW y
anc ouver
ĠT ODO
plement ation
av is
ann on
ĠK al
id ae
cc a
Ġcomput ed
Ġcr imes
Ã© e
St op
* {
serv ices
X ML
ĠBe aut
ĠChrist opher
Mem ory
pl ot
Ġpol ynom
ĠL eb
Ġt urb
Ġl unch
ev al
Ġpri ze
Ġvis its
)\ ,
Gr id
n an
AN G
ĠOrgan ization
ĠH E
x it
M aster
at on
Aug ust
ĠI E
Ġprodu ces
Ġrep orter
Ġnov els
Ġp overty
Ġlimit ations
t ools
ĠB us
'] )
Ġch ronic
or er
Ġcon cluded
secut ive
m ass
Ġover whel
M ut
OR Y
ĠChair man
Ġreject ed
ĠG er
ĠV iol
us ers
O k
col First
Ġj Query
Gener ic
Ġu i
le ton
Ġpubl ishing
Se lected
Ġtown s
Ġinstr uments
b old
_ (
app ly
Ġinn oc
L D
param eters
ĠVol ume
r as
ĠProv ince
ict ions
ri k
J S
Ġor th
ĠN ik
Ġth orough
erv ing
Ġimm une
pt ic
ĠAl bum
Ġmet adata
Ġob st
ĠAnd y
A lex
S ync
/ "
Ġcoll apse
ĠĠĠĠĠĠĠĠĠĠĠĠĠĠĠĠĠĠĠĠĠĠĠĠĠĠĠĠĠĠĠĠ ĠĠĠĠĠĠĠĠĠĠĠĠĠĠĠĠĠĠĠĠĠĠĠĠĠĠĠĠĠĠĠĠ
st an
textr m
? )
Ġground s
h al
Ġspe aker
.~ (\
m ac
ĠAr k
ic it
ĠB ureau
ĠJ ess
ĠC C
Ġt ill
Ġsett led
Ġg ear
ant ry
nav List
Ġins ights
Ġbound ed
Ġf est
ag ers
Ġinter vention
Ġdist urb
Ġin clusion
Ġdrink ing
Ġless ons
du cer
Ġg od
Ġch a
Ġpenal ty
M W
p refix
int eg
ar ma
Ġinsp iration
ĠCent ury
Ġrac ial
Ġas ync
Ġl ens
Ġthreat s
ĠB ah
Pro gram
k et
S ports
Ġident ical
Ġden ied
ĠM yst
Ġbe am
ĠH ans
Ġp seud
Ġl oves
ĠC hen
ĠI M
xi ety
Ġex ecute
E lements
Ġdef ensive
ĠD a
Ġsuper ior
w he
the me
Ġtr ou
Ġpart ition
em ia
Ġmil k
ĠW i
Ġprote ins
Ġple ased
S ymbol
Ġprepar ation
Ġret irement
ff ff
at ers
Ġconst itu
Ġw ider
T w
n n
Att ributes
× Ķ
Ġaccom pan
ol ph
ĠG ordon
fe ature
Ġmyst ery
Ġr ival
ĠCor ps
spir acy
ar o
Ġcontract s
ace ut
Ġport ray
De cember
Ġsp ark
Ġrec ru
ĠE R
Ġf ought
Ġsatisf y
H C
ĠDe ep
or ce
ch arge
ĠR ab
R oute
Ġm ad
Ġar med
Ġmov ements
f ather
Ġbirth day
D epend
ĠAr g
Ġpromot ion
Th ree
ĠPolit ical
Ġinst ant
11 1
Ġcalc ulation
Ġra ising
Ġpar liament
em en
d c
Ġresc ue
CO VID
Ġarg ued
Ġfocus es
requ ired
Ġtit led
Ġeval uated
Ġw ake
Ġbl ind
ĠM ind
Ġwith draw
Ġn an
Th us
Ġdire ctions
Ġf ishing
out heast
To String
Ġst uck
Ġrespond ed
Ġrg ba
Ġres idential
Ex pr
Ġcent uries
p air
ap olis
P Y
Ġsup plies
S ocket
Ġp ars
Ġb unch
Ġanal yst
~ $
Ġed ited
Ġwe ird
Ġ ).
Ġque ue
ĠF BI
u er
Im port
CH ECK
OW N
wrap per
h ill
Ġgl ad
per or
det ails
E urope
Ġc ref
Ġenh anced
or ia
ĠS witzerland
g ies
Ġav ailability
Ġel der
Ġexplicit ly
ĠI C
Ġb ull
Ġequip ped
Ġs alt
ĠGu id
/ .
Ġprodu cers
l u
Ġl ang
opl us
Ġfab ric
ĠBe at
is ons
Ġold est
Ġ ip
Ġb one
aps ed
Ġ" ,
Ġman ifest
osc ow
Ġinst ruction
ical s
Ġestablish ments
F ollowing
' \
S I
est one
ĠBr and
C lear
ac er
aj ax
Ġ$\ {
ot ive
Ġj azz
ail and
in ian
Ġnot able
Ġany more
r r
Ġt ip
ĠP L
Ġstruct ural
Ġcritic ism
ĠFed eration
Ġde com
Ġcl im
Ġton ight
p icture
Pres ident
ĠComput er
pl ier
Ġd il
ĠG alaxy
Ġcorrect ly
ĠL evel
Ġad equ
U C
ĠC ape
Ġsequ ences
Ġleg s
ĠÃ ¢
Nov ember
ĠStud io
Ġp ub
Inst all
Ġimm igration
F ailed
TE XT
r ices
ĠA st
Ġt weet
ĠM ort
ĠKent ucky
Cl oud
Ġtransl ate
Ġpred iction
ig a
b es
t mp
p aper
( __
ĠA thlet
emet ery
m c
Ġh int
ĠCl ick
Ġindic ating
ĠQueens land
S eg
Ġm ice
ĠR achel
Ġl ad
ĠS ri
Ġh ang
re ation
ĠB ased
Ġshe et
G over
Ġde eper
Ġint ellectual
s ch
ĠSing h
ĠH ug
ix els
Ġ\ (
ann ah
ĠS ac
Ġrepe at
v als
Ġcomput ing
ic ut
US E
ĠOk lahoma
Rem ove
Ġs id
Ġin ject
ĠInt elligence
Ġneigh b
Ġbi ological
Ġcheck s
ĠRead ing
Ġpost er
th row
Sim ple
Ä į
s ymbol
Ġman if
Ġp ointer
Ġsat ellite
Ġh ockey
ĠR ap
down load
B AR
ĠS umm
Not Null
el ing
ĠThom pson
c rit
form ing
Con struct
ĠI ron
y g
ĠInd eed
IN TER
ĠSer ver
by tes
Se ptember
ĠInd ependent
amaz on
Ġtype of
oc aml
V P
Ġn od
Sup er
ĠĠĠĠĠĠĠĠĠĠĠĠĠĠĠĠ ĠĠĠĠĠĠĠĠĠĠĠĠ
Ġlux ury
Ġlaw yers
ard ing
Ġd owntown
ed er
J ack
Ġcompl aint
Ġdifferent ial
Ġw arrant
is cal
i Ã³n
Ġengine er
Ġd ad
Ġthem es
ĠB ron
_{ -
h ou
Ġappoint ment
am ous
ĠB ond
Ġk in
Pol it
p ull
ick ed
clud ing
ol ars
Ġcl usters
_{ (
urre nce
Ġcalc ulations
init ial
iss ip
195 9
: #
i ated
âĢ¦ âĢ¦
Ġge ometry
Rel ated
Ġdream s
A gent
Ġshort ly
ĠGr ad
Ġdistribut ions
iv ia
b ers
t ags
Â »
In formation
Ġdis p
Ġvolunte ers
ĠK ings
Ġconven ient
Ġrul ing
Ġgreat ly
en abled
Ġd ir
Ġed it
, ...
ĠK a
ug ht
Ġs orry
Ġvacc ines
oc a
cont rib
ĠH ost
10 6
ĠN ap
W he
agon al
ĠN ichol
Ġag enda
Ġpromot ed
ag ent
Ġconstruct or
Ġrel ating
Ġw orship
ĠAn na
. <
L ayer
Ġc ock
Ġdecl are
get Name
Ġb io
Ġpre t
g roups
Ġsatisf ied
Ġt ale
ĠG ary
Ġ rows
ĠRuss ell
Ġemb od
s em
r andom
intend o
m ade
Ġtr ains
OR K
Ġh unt
Ġdialog ue
Ġchair man
Ġwhe never
ĠH it
Ġdis aster
Ġexpl oration
abet es
Re al
Ġm eth
const ruction
En um
M al
19 44
C ard
t ar
spe ed
ari os
Ġsn ap
quir y
w edge
pro ps
r uby
Ġlist ener
Ġco aches
Ġp ipeline
Ġun like
min ute
Ġcal endar
ĠWork s
Ġl uck
Ġinvolv ement
ate ful
roph y
th an
be at
Ġdram atic
w estern
he alth
Ġfem in
sh adow
Ġdesign ated
Ġl yrics
ĠĠĠĠĠĠĠĠĠĠĠĠĠĠĠĠĠĠĠĠĠĠĠĠĠĠĠĠĠĠĠĠ ĠĠĠĠĠĠĠĠĠĠĠ
ĠC ome
the y
ĠWork ing
Ġhousehold s
ol en
t age
Ġ[ âĢ¦]
Ġdevelop ments
ĠH ash
ĠA LL
M art
ĠT a
Ġgener ations
Ġequ ity
ĠB ishop
u is
Ġsuff er
12 7
P ower
Ġ= ======
Ġman ual
Ġo scill
ĠPh arm
ĠC over
Ġinvestig ated
d ale
Ġequ ality
ĠD al
ĠH ub
Ġaw esome
Ġl ake
Ġdisc ount
ĠM and
F inal
Ġcon clude
Con nect
ĠS W
ab ling
Ġco q
chi at
ĠJ ob
Ġmechan ical
Ġdistrict s
ĠÐ ¿
Ġc ul
o is
on ed
ĠG R
N ULL
f ixed
ĠAv ailable
Ø§ ÙĦ
ud a
Ġcount s
pl ates
Brit ish
f ish
Dat abase
ir ates
Ġc odes
ack er
Ġlif etime
ur ations
met adata
level and
Stat ement
fl ag
ĠE state
Ġfocus ing
Ġmax im
1 18
Ġbur ied
Ġcharacter istic
ar se
Ã º
ĠĠĠĠĠĠĠĠĠĠĠĠĠĠĠĠ Ċ
-------- ----
ĠM erc
Ġappear ances
Ġincred ibly
ĠL android
Ġid x
r ays
Ġprint ed
Ġdirect ors
print f
w eg
Ġout door
Ġcompat ible
hed ral
=" ${
Ġsh it
ĠB lood
Label s
n l
Ġhard er
Ġdi et
Sc ale
Ġamong st
ĠQu est
Ġl ung
ĠSt op
L ive
Ġv oices
Ġl ip
bl ank
Wh ite
Ġmunicip al
Ġoff ense
195 8
Ġpan els
ĠWrit ing
u j
re v
mult i
Sc roll
Ġs ke
En vironment
Ġw rest
am an
à ®
Ġpublic ations
Pl ayer
Ġreview ed
ĠGirl s
Ġfl uct
195 7
ex per
ĠSen ator
Ġattack ed
Ġh ip
ĠD ue
Ġposs ess
enc er
Ġcomp lement
iev al
j ango
ph ones
Ġrestrict ed
ĠSh are
Ġun w
Ġex ha
Ġsignific ance
t i
Ġ Å
ĠM C
ag h
ĠO il
Ġde pression
ene z
h ref
ri eve
all classes
Ġre q
Ġstat s
Ġpr on
vious ly
ĠNAS A
Ġpo et
Ġbound aries
M ill
Ġsc ales
Ġcl ip
ĠH oll
Ġsens or
Ġcon secutive
Ġep id
V M
Ġult imate
Ġde ck
Ġc ow
b n
Ġcoeff icients
W el
PRO C
× ¨
ĠN eg
j ob
ĠChrist ians
W omen
ol o
ĠP as
Ġnot ion
Ġad mit
Ġter rible
Ġint ense
Ġt ort
Ġrare ly
Ġâ Ĥ¬
ĠLead ership
ĠChe l
ĠR isk
Ġim aging
Ġdest ruction
ow ski
spring framework
Ã ¸
att ributes
Ġprof iles
Ð½ Ð¸
Ġcl othes
Ġscatter ing
Ġb ot
b c
b ird
ĠHigh way
sc ience
ĠC ry
Ġfund ed
ĠH ad
l ad
Ġt ub
S ER
Ġ( _
ĠChar lie
Ġsatisf ies
ĠR ain
........ ........
ur se
Ġman uscript
rop olitan
col lection
Ġprem ier
10 3
om ed
un ique
Ġbl ank
o ose
build er
d ialog
it udes
Const ants
qu is
ĠBl u
Rep ository
i per
an ne
r ang
ser ies
look ing
pre v
hip s
ĠF ight
Ġsm ile
Pl an
ill ance
Ġtow er
ĠU I
Ġan th
ĠSe pt
Ġp ref
Ġaf raid
ĠAl f
ĠRail way
Ġj u
ĠL eft
ĠD ouble
19 48
ĠT ry
ĠâĢ Ŀ
o il
Ġmist ake
Sh ould
ĠIns urance
ĠE C
D OM
Ġgalax y
ash ing
Ġcol lections
ĠEconom ics
comm un
ĠP red
Ġtrans c
iz ers
b id
Pass word
? >
Ġ? >
Ġo xygen
Ġneigh bour
Ġdo i
ĠMar vel
Ġrece ives
Ġremark able
z ym
ĠB ed
Ġ| \
Ġprec isely
Ġmod ules
Ġp ione
ĠImp act
ĠAN Y
ĠG ram
AT CH
ert o
Ġn amely
Ġparticip ated
19 39
in burgh
Ġcam eras
qu ality
Ġdevelop er
ĠMex ican
Ġc able
ĠAss istant
Ġsu gar
ĠR ic
iss a
ĠLead er
ĠShe l
Ġt we
Ġdom inant
fil ename
Ġbound s
Ġprem ium
Ġimpact s
ĠL GBT
ĠAd ams
ĠNor way
ĠPl ayer
ĠArch ives
o i
ident ifier
Tr ace
res et
Ġsix th
head ers
ĠN HS
Ġabandon ed
ond a
ry ption
Ġsup plied
ĠLear n
Ġper mit
195 6
ĠT ru
æ ľ
con nected
Ġp atch
g age
ater al
Ġquant ity
LE D
f old
b us
11 5
Ġrem oval
ĠCor onavirus
ĠAl bert
ĠSt ars
Ġsk ip
s ime
Ġse ar
Â Ń
ĠG T
Ġestablish ment
Ġmask s
S ep
ĠE lection
m aven
Ġop inions
P ointer
ellig ent
iv o
M icrosoft
ĠD ance
Ġh o
av ery
Ġstrugg ling
Ġe cosystem
con n
ĠConst itution
Ġin ches
Ġsh r
sime q
10 7
ĠPer haps
li est
OM E
ĠĠĠĠĠĠĠĠĠĠĠĠĠĠĠĠ ĠĠĠĠĠĠĠĠĠĠĠĠĠ
Ġspec ify
" `
Ġevery body
E duc
pon ential
Ġlicens ed
es ian
Ġmet ab
ch art
Ġsubsc ription
cle an
Ġliter ary
P ad
oen ix
ect s
m n
ilib rium
Ġrom antic
ĠStew art
Ġex clus
Ġjud ges
Ġcare ful
Cont in
ĠS ay
ĠR oc
math scr
Ġsh adow
Ġinv olve
m ate
Reg ion
ĠL ock
ing ing
Ġfle et
{ "
Ġen v
Par se
." );
Ġre vers
d ig
Ġqu ote
Ġeng aging
et al
10 8
S pecial
ch arg
Ġview ers
Ġrece iver
Ï ĥ
ter ed
itche ll
ĠC elebr
Ġst em
ĠC zech
ĠC le
Ġconsequ ence
Ġb atch
Ġliber al
S chool
te ch
ĠH old
Ġsusp ended
ĠL P
Ġp refix
Ġhad n
Ġas p
sc ar
et he
Th rough
Ġle af
Ġcor rel
ĠKenn edy
Ġhuman ity
uk i
Ġpush ing
Ġautom atic
ĠT ro
N ET
ĠSt atus
Ġcoord inate
Col lections
ĠW ind
ĠMur ray
s n
ĠF isher
l ass
< !
b ian
oth y
log in
Ġexam ine
Ġload ing
Ġg host
oid s
Ġmix ing
r ift
Ġfl av
err ors
verse as
Ġ{ "
us form
n il
CO MP
Ex per
det ail
numer usform
ĠMalays ia
c in
Ġb ind
oc hem
b g
Form er
Ġeng ines
Ġsynd rome
mut able
Ġinfe ctions
Ġenter prise
om er
BU G
issip pi
Ġathlet es
Ġre actions
ĠK ate
Ġut ility
Ġup grade
b ing
or ity
Ġsup pose
ĠBe ing
Ġvari ant
">< !--
Method s
ĠS el
ĠN AME
ĠD ublin
ver ter
ĠG raham
UT H
Ġprot ests
Ġsens itivity
Ġstay ed
C reat
Ġt ie
av al
Ġple asure
Ġsimult aneously
F M
Ġ$ [
ĠPubl ishing
br ane
Ġj uris
ĠBrook lyn
ĠS now
Ġc ir
ĠB io
Ġexpand ing
Ġg all
ur u
Ġang ular
Run time
it utes
Mult i
ĠDr agon
Ġrepresent atives
grad uate
hent ication
ĠD ak
writ ten
Ġpredict ions
ĠHT TP
P al
t ail
R ole
Ġm erc
as is
ĠTai wan
align ed
ĠPal ace
Ġlaws uit
Ġc urrency
ĠDou glas
ĠCreat ive
N odes
ra ke
Are a
Ġche st
ĠTr ad
F unc
Gener ator
ew idth
Ġst ellar
ut ers
ĠU tah
) }(
ect ive
Ġdifficult y
Ġelect rical
Ġb read
m ask
ĠSt even
plic ity
Ġh ier
ex ecute
!! !
et o
AC H
A ir
Ġa str
An n
Ġk ernel
ĠG as
Ġconstr aint
E st
Ġper mitted
Ġemot ion
ĠE nc
(' .
ass andra
B T
back s
s ample
Pro ps
b ie
ĠGu y
Ġcomp an
row se
Ġh orses
ĠProfess ional
ĠF em
re present
Ġart ificial
Ġconnect ing
f x
ĠW ard
ĠP oll
er ious
ĠStr ateg
Ġsumm ar
ĠL ang
ĠAg reement
s ys
Ġrob ot
mark s
Ġspeak s
Ġrul ed
inst ein
S em
\! \!
Ñģ ÑĤ
ĠG O
ĠSol utions
19 55
im ental
ĠW W
t body
Ch ina
Ġhol es
oust ic
ĠCol on
ul i
Ġg athered
Ġj ew
set minus
() </
Ġevery day
ĠP arent
Ġc ited
Ġdoll ar
Ġ" -
C ross
av ailable
Vari able
Ġflow ers
Ġim plications
ac ular
J apan
cl ine
f d
ĠClin ical
P I
Ġmanufact urers
o ft
st ory
Ġcampaign s
19 42
ash i
B ER
ĠA nc
ĠR s
ĠM E
ĠChall enge
Ġfrequ ent
Ġmaintain ing
Ġprec ision
Dom ain
ĠAl tern
ĠSp ot
ĠAdd itionally
- (
{ %
ĠAdd ress
ĠCamp aign
Ġinfin ite
Ġt rem
Ġinflu enced
Ġh ill
Ġb undle
u ates
ĠM agn
P refix
pat tern
B Y
Ġdeterm ination
ĠY an
ĠV ancouver
ĠMethod s
own ed
pro xy
Ġsu icide
Ġse ctors
x html
Ġdef ence
ĠR ules
f are
ĠN ash
S election
Ġven ue
D iv
is an
ox y
Ġgr avity
Q UE
Pro gress
Ad min
19 47
Ġphot ographer
Ġexpress ions
Ġsp oken
}} _{
Ġpromot ing
ĠN elson
Ġb orrow
le e
ĠPl aces
Ġr anging
Ġcert ificate
Ġreported ly
ĠHar vard
ter ior
ĠK ir
Ġsup plement
iz ard
w alk
sy chiat
ĠCor p
ĠU rban
Ġgrad uated
Ġd iam
âĢĿ )
ĠClass ic
AL SE
omorph ism
Ġsur faces
Ġicon ic
on ing
ĠPol ish
sw arm
ĠMag ic
ass embly
' }
he im
iv ities
Û Į
Ġr u
Ġatt itude
ĠCar ter
ĠB art
act eria
al ia
Ġv ibr
We ek
TR Y
j unit
ĠĠĠĠĠĠĠĠĠĠĠĠĠĠĠĠ ĠĠĠĠĠĠĠĠĠĠ
%% %%
Ġexpl oring
Rober t
Res ources
sv g
C ur
Ġsl ot
r ative
Ġ$ $
Trans port
Ġne utr
Ġcontr ad
ĠFe ature
Ġspe akers
ĠUn fortunately
ĠThe ory
sim ple
ĠEm ploy
Ġd ial
á »
Ġpat ent
Ġattract ive
g lyph
Ġadj acent
B egin
ĠS ony
ĠM oscow
Ã¡ n
Ġspect ra
ĠH unter
ĠK ids
l on
ĠP odcast
Ġagric ultural
Ġcl othing
Ġbl ame
ĠB ou
ĠH R
Not ification
Ġt x
CT YPE
l ive
Ġ+ \
Ġen emies
ymmet ric
ĠM ail
ĠSwed ish
W ar
v ia
Ġs aving
uc lear
th on
ĠSte el
ĠStr ategy
Ġcor ruption
Ġl ying
ĠIndones ia
Ġclass ified
Ex pl
Vert ex
pro gress
st orage
Ġcompens ation
Ġdesc ript
est ing
Ġconsist ing
ĠAnton io
on ce
ĠIn novation
ĠN at
or ious
Ġsubst ance
ĠMuslim s
S ocial
he ro
Aud io
ĠI an
Ġg ram
Ġex ports
plet ion
Ġcelebr ated
Ġr ally
ĠLaw rence
Ġrom ance
Ġadmin ister
test s
m outh
Ġh ired
Ġpet ition
' _
> ::
Ġbrief ly
ĠMet ro
p iece
le ans
) ->
19 18
B order
Ġassoci ate
ĠC os
pro f
wild fly
Ġ ],
Ġphotograph s
E ffect
Ġas ympt
L ight
ON G
ist ically
Ġrec ruit
Ġjournal ists
res ources
Ġinvest ments
ĠJust in
le ading
p read
other apy
ĠR T
ĠW right
comp iler
19 00
ĠRes erve
ĠCon tract
Ġsuggest ing
H ub
j amin
E lect
ĠKe ep
her s
user name
ĠLO G
Ġprec ise
pl ane
B ro
Ġsearch ing
Ġtem p
Ġrout ine
Ġcrit ics
Ġmanufact urer
ĠBr ig
ĠPl atform
ĠS ide
ĠMor ris
Ġpar ad
Ġpubl ish
Ġprov isions
Ġlog ger
Ġs ons
ĠS uccess
s elling
19 41
Ġemer ged
Ġmount ains
sh ared
Ġh al
Ġm ood
ĠT arget
ĠG ill
ĠK ind
Ġpack ages
ĠP atri
Ġafford able
pl er
Ġaccompan ied
Ġch rom
ĠM achine
Ġsepar ation
Ġvari ations
Ġmod ify
he art
st o
Ġfem ales
ĠD oc
C ert
et ics
Ġres erve
Or gan
Ġsecret ary
ĠG ov
Ġhydro gen
Ġm ic
re ach
Ġens uring
Ġbox es
pe ction
O UT
= #
Ġth ro
ac les
ĠV eter
ĠV ar
Ġsp ots
Ġlight ing
te am
Ġclaim ing
ĠRog er
ĠM os
t own
ĠC ould
ĠC row
Ġg onna
ĠS ett
apt ers
F oot
Ġ" <
B oth
U CT
Ġfl ows
Ġorient ation
f actory
Ġf iber
bor ough
. :
ĠV ari
Ġprocess ed
Ï ģ
Ġs ust
ĠN ep
b uck
ĠBr un
gener al
Ġent ities
Ġiniti atives
ĠV ent
Ġdescrib ing
×Ļ ×
ĠN i
ĠW ang
Ġm ath
or igin
index Of
text tt
ĠT ower
ĠT itle
Ġwarn ed
ĠStud ios
Ġl iv
ĠAl ber
=" $
Ġn ut
Ġgr ants
ĠT ogether
T ele
195 4
) [
Ġm art
Ġsh ops
en able
Ġg raphics
$ ^{-
Ġs ynchron
Ġpl ugin
ict ures
E V
ĠT am
Ġnob ody
Ġd uties
ĠJ en
Ġmus cle
Ġsc ream
s burgh
195 3
it ations
Ġc tx
ĠIO Exception
Ġdes cent
Ġpre val
Ġj ail
ĠI ce
it i
ĠT s
Ġph ones
Ġactiv ation
19 43
ĠW rite
Ġrh yth
subset eq
Ġmir ror
Ġveter an
bre aking
Ġm igration
Ġh az
col on
m ount
Ġdeliver ing
d iff
ĠR ub
ing e
ĠOper ations
h ist
igr ant
& =&
Ġb ug
ĠPort land
ĠC NN
ĠEm ail
Ġvert ices
Ġover come
ĠWal ter
19 46
we alth
ĠComm ons
ĠMar shall
b p
vis ible
ĠJun ior
Ġoper ates
Ġlog o
US A
z es
ĠB ody
ĠI de
Ġbr ut
Ġflex ible
ĠS L
Ġst unning
Ġor al
t ures
Ġsize of
Ġab road
uten ant
ĠPro position
Ġprepar ing
Ġle ts
Ġme al
ĠP ap
ĠL anc
Ġ[ "
Ġtour ism
G M
ĠB es
Ġmain stream
st ock
Ġship ping
at ile
195 2
D en
ĠC raig
tr ace
Sh are
ĠAgain st
"=> "
ĠC lient
RE SS
sign ature
ra ction
circ le
ation ally
ol t
Ġbreak fast
F ramework
ĠTele vision
Ġcelebr ation
Ġtem ple
Ġinter active
ci pl
ĠSt age
resp ons
j ack
; ">
), \
Ġl ucky
bul let
con duct
chn ology
th a
W ait
Ġdispl ays
r ass
ĠH im
ST ATE
Ġdom inated
Ġsub set
Ġexam ination
Text ure
t c
Ġas c
Ġpl asma
Ġshould er
k h
ĠW orth
Ġpart ially
ke e
ĠG ot
AM P
ĠPro duction
Ġper m
ĠB aker
Ġregard ed
ĠA le
pare ncy
ĠCh ron
Ġexhib it
Ġcas ual
ĠS pect
Ġphot ography
ir ts
ubl isher
Ġcou pled
Ġp ounds
Ġem power
w arning
Ġm ild
ĠSt re
ĠF iction
P ers
Ġcult ures
Ġ' <
Ġcharacter ized
ograph ical
om al
Ġintegr ity
Å Ĥ
ul u
Ġtrail er
tem p
i w
ĠMov ies
br and
il iation
sh a
Ġm ales
Ġaud iences
Ġhead ers
um ar
Ġposs ession
ĠHistor ical
ogene ous
Ġun em
T ake
ĠDise ase
Ġeth nic
Ġf old
ex tern
ĠTh ailand
ĠBase ball
Ġp uzz
PO ST
Ġdel iber
ab e
ĠL ot
Ġcommun icate
Be an
10 9
Ġun ve
Reg istry
Ġsurv iv
ĠTurk ish
ĠF reedom
Ġthreat ened
an im
Ġde put
Ġres et
hemat ical
if def
Ġsurround ed
prot ocol
Ġch ances
oper ative
am y
Ġmeaning ful
UR I
per p
ath on
ĠAd vert
Ġrad ical
op ter
ĠRob inson
Ġmar ine
Ġclos ure
Ġinters ection
Ġc rown
ĠBoy s
AN S
(' /
ides pread
ĠF ast
Ġt ags
ĠN othing
ĠB os
P erson
... </
Ġlif estyle
L aw
ĠH ttp
ĠInt eger
ä »
act ivity
Ad v
Ġsam pling
Com pat
Ġg ard
Ġmind s
PRO JECT
Ġh ung
Ġvalid ation
Ġsil ent
ĠLeg isl
At tr
ij ing
Ġvent ure
Ġlabor atory
Ġdes ert
ĠL ore
ĠB L
ĠVis it
FL AG
Ġi OS
ĠT otal
Ġcross ing
Ġrac ism
ĠL oad
Ġrequ iring
T ok
ĠA qu
M ath
Ġconsider able
ĠMor ning
ĠSpe ed
ĠOr th
l ibrary
Ġst ops
ĠArt ist
ri ent
b rief
ĠS oul
ook s
ound ing
Ġmet rics
ĠBet ween
ĠJim my
con str
w iki
se q
var iant
reg ular
y cle
Ġland ing
ĠIn n
19 49
ĠCon vention
ot ton
Ġact ively
qu er
ĠT ed
ul ates
id x
Ġembed ded
Ġextra ordinary
ĠWeek ly
A ST
Ġev ident
ĠIss ue
ĠS ud
ĠL uke
Ġhead quarters
Ġse cre
Ġsc roll
ĠF ollow
ĠConnect icut
Ġgener ating
Ġvol umes
ess ment
C F
as a
Int roduction
ro gen
Ġres olved
Ġcompos er
check box
cy cle
Ġk iss
weg ian
Ġprom ised
ĠS EC
sc ss
Ġgen us
m oz
Ġtal ented
Ġbare ly
Ġg entle
Ġlock ed
Ġbur st
Ġem ails
Ġbeg un
m ir
ĠF el
im mer
_ *
z i
Ġ[ ],
evel oper
Ġassum ptions
Ġl ady
Ġres idence
J o
â ĪĴ
ĠF er
our t
P resent
cal c
ĠF al
Ġmay or
ik h
Ġseek s
re ck
op les
ip es
ĠColl ins
ĠN ort
Ġpopular ity
Gener ated
Ġrec ycl
Ġlab our
Ġpro ps
Rele ase
ic ator
ĠB egin
Ġatt ending
l iter
writ ing
Ġenthus i
log o
ud ge
support ed
oll ary
com b
Ġsymbol s
ĠOr leans
Ġj unior
Ġtouch down
Ġsc aling
em ark
her ic
ib bean
Ġaff airs
Ġmet ers
Ġbon us
Ġconsist ently
Ġwild life
l at
24 0
Ġgo ogle
EE EE
2 20
ĠG ulf
im edia
tra ctions
th y
Str uct
qu al
S ongs
ĠRef orm
e u
r in
ĠR ot
ol ute
ĠP el
ĠB att
inc ial
ĠSw iss
Ġnews letter
L anguage
Ġval ign
Wrap per
end ix
11 4
Ġcomput ers
{ $\
ĠM ut
Sk ip
æ ĸ
Ġoccup ied
Ġn it
ĠPr incess
D M
ĠBelg ium
irm ingham
Ġan xiety
Ġor bit
ĠCamp bell
Ġc rop
Ident ifier
part s
ĠRep ly
Ġpurs ue
am ine
ĠWar ren
ĠA B
Ġfor um
ĠEd inburgh
Ġalleg ations
print ln
ĠLin ux
Ġjud gment
Ġhard ly
Ġchar set
Ġco operation
Ġanaly zed
ĠCustom er
Ġdev ast
Count ry
ĠConst ruction
Ġcorre ction
ĠUS D
Ġgot ten
Ġc ub
Ġen orm
Ġep ic
Ġcon fer
. ",
EN SE
Ġf er
ĠV ery
ĠPh oenix
ĠK night
m ma
Or igin
Point s
om es
Ġadapt ed
Ġpass age
ĠS ale
Wh ich
Ġsaf ely
ĠHawai i
W allet
Ġcontrovers ial
Ġrepl ied
Ø§ Ø
av an
å Ī
b one
ĠAb stract
Ġac ute
ĠArab ia
d og
ĠB loom
Ġl aser
Ġexam ined
ren a
Ġproport ion
S al
ĠFant asy
ĠAl ice
VAL UE
sh al
ĉ ĠĠĠĠĠĠĠ
Ġprogress ive
P eter
ah a
v c
f c
Ġrecover ed
ĠS amsung
ĠJ oy
ĠSt ev
un ate
Ġhypothes is
ĠC rown
ost ics
ĠPract ice
ĠF ab
Ġgener ator
ri el
Ñ ĩ
Ġnull ptr
t ok
ĠG olf
L en
nd ef
Feb ruary
Des ign
> \
M IN
Ġpres erve
Ġcomm ands
Ġse gments
re p
ric ulum
Ġart istic
r ator
Ġemploy er
ĠA my
Ġthe ater
Ġtum or
ĠD escription
ene ath
Ex ample
th ird
Ġbr anches
Fl ag
Ġanalys es
ĠSam uel
al ph
ĠO C
ourn als
Ã¼ r
ĠSim ple
upload s
Ġfunction ality
ĠWay ne
Ġl umin
Ġt ap
ĠLe ave
i pt
Ġdef ines
ĠIm port
Ġrid ic
lin ewidth
' ));
ĠO cc
Ġcred its
Ġne ur
Ġbas eline
'] ['
Ġstay ing
Ġvill ages
ĠS olar
se par
trans ition
ĠArray List
s quare
ĠCh amber
ĠSing le
ĠF R
Ġsu ck
ĠH aving
. ),
ud son
Ġvirt ually
Ġconv in
an alysis
opt ional
ab a
ĠMarg aret
Ġs wit
ĠM i
Ġstead y
Ġin ev
ink s
Ġinfl amm
195 1
ĠN ear
Ph ot
$ ).
ĠBalt imore
Ġm ilit
Ġprom ising
ĠM itchell
ĠP ope
ĠB R
Ġpro jection
as g
Ġ= \
IC K
ĠEv ans
ĠM uch
Ġoptim ization
ĠEN D
^{ +
Ser ies
Ġwor ried
z ip
ĠR O
Ġass emb
b d
sh ops
Ġang ry
ĠSus an
od ium
ĠS ustain
Ġsymmet ric
× ľ
Ġpo em
ew ay
Ġch urches
ĠMiss issippi
ĠB eng
Ġph rase
at omic
Ġr iding
Ġbelong s
Ġvac uum
A li
ĠN iger
Ġillust rated
ĠFor ces
Ġappe aring
Ġcheck ing
ĠCon c
Ġs urre
(' #
Ġsatisf ying
Ġinput s
Ġcook ie
Trans form
Ġfore ach
à¤ °
pe at
Ġagric ulture
er ion
Do es
Ġparticip ating
ĠH end
new command
Ġref lection
ĠP ant
Ġmult ip
Vol ume
ĠC leveland
A I
ig o
Ġdr ives
r idge
D elegate
ĠT ob
iv an
Ġfoot age
Ġredu ces
Head ers
ell ers
Com put
ĠBar bara
ĠG ate
Ġexclus ively
n ik
Ġeffect iveness
ĠG M
w er
Ġpark s
ri ors
Ġcho osing
Ġviol ation
am ents
B ind
4 50
Ġden otes
Ġsystem atic
ĠFri ends
cast le
ĠExper ience
friend ly
ĠL ost
Ġlo ans
P rior
Ġwire less
Ġv ectors
W in
r ank
re lease
ĠAud io
Ġburn ing
Ġcy ber
Ġen um
Ġanaly ze
ĠT ar
Prof ess
Ġst adium
ĠTe acher
Ġsc reens
ĠP ick
Ġsm oke
V C
Ġm i
Ġtravel ing
it ual
Ġprevent ion
Ġh unting
ĠW E
est abl
ĠO d
ops is
ĠEvery thing
ĠK rist
Ġm d
us p
P ersonal
ĠM ade
Ġres ort
) _
Ġsure ly
ĠSt orm
ĠOper ation
Ġp or
ev a
Ġpri est
ocol ate
Ġaccom p
ĠD R
ĠCl ar
Ġwant ing
ĠAust ria
Ġc ov
ĠAnt i
is ers
Return s
om ing
ĠW ant
ĠVal id
; }
St ats
Ð¾Ð ²
) _{
Ġhar ass
ul ative
Ġis lands
Ġal ien
Ġf ur
Ġhost ing
Ġingred ients
ac co
( @
T ech
ĠO P
u ity
ĠAut om
Ġd iver
ĠCh ampions
N EW
h uman
Ġst ere
ĠUp dated
ĠN AV
}$ -
ĠAfghan istan
Ġf its
Ġansw ered
Ġdo zen
W ord
ĠW ould
ex pr
Ġtim ing
vent ions
ĠFred er
ol s
n ecess
ag ination
G iven
DO CTYPE
Ġt ies
Ġamplit ude
Ġrest ore
Ġhand led
Ġexp enses
ĠB rew
AR CH
build ing
ĠDom in
Ġround s
Ch ris
ĠMe eting
Ġident ifying
C ategories
omorph ic
Ġphenomen on
L ondon
pl oad
ĠX box
c od
u ine
ib ration
Ġt ang
m other
Ġpro secut
Ġlov ely
Ġover view
Ġp ill
TR UE
ĠC her
ĠTechn ical
ig ue
EL D
ĠR av
Ġdelay ed
Ġre aches
S G
Ġim pe
get Value
ĠF ern
Ġmod erate
y outube
Ġhar vest
big g
ĠEmer gency
Ġo w
Ġspecial ist
z ens
as ets
Le ave
11 6
Care er
ĠP eters
ĠLouis iana
comp at
ĠS QL
h box
Ġul tr
Ġw idespread
Ġmat rices
Ġroll ing
Ġg allery
Ġhe ter
requ ency
Ġor b
ĠN intendo
ĠÎ ¼
ĠCol lect
ĠV ector
ĠASS ERT
ĠF alls
ĠOr ange
s at
Ġal arm
Res earch
ĠH unt
p rom
M AN
ĠC old
ĠJenn ifer
clip se
Ġfall en
d k
Ġan ger
test ing
Ġfasc inating
Ġt sd
Ġprotect ing
x is
ĠS quad
d ark
ĠEth iop
l ower
Ġte eth
Ġview ing
Ġstr ain
Ġassum ing
Vis ible
ĠL isa
Ã ł
ĠPark er
i em
Ġb rows
AR K
N D
ĠW or
ilt ers
Ġpar agraph
W arning
Sh ape
ap is
Ġsav ings
r h
Ġpregn ant
Ġb ills
ric ane
ĉ ĠĠ
or us
Ġseem ingly
rypt ed
Ġreflect s
Ġs occer
ĠC itiz
Ġt ons
" ],
rist ol
ĠM ix
List en
Ġf ed
ĠT un
LO CK
Ġemot ions
U ri
ĠCo al
Ġtreat ments
Ġhor izontal
Ġfit ness
ĠEnter prise
ĠSe an
ĠB irth
Ġcap ability
Ġn ose
Ġ} }
Ġnom inated
ex pl
ĠD ig
Ġres ign
ĠRefer ence
in valid
ĠJ u
con v
Ġcond em
lo pe
ĠC ars
Ġconvers ations
Ġch amber
Ġphys ically
Ġcon n
Ġgl obe
F UN
Ġd iamond
op ts
ĠM ach
ĠBroad way
Ġbank ing
ĠL yn
id ges
Ġdecre ased
Ġserv ers
Ġpoll ution
ĠE u
Ġp arser
Ġadapt ation
B ad
Ġminor ity
Ġvalid ate
Ġmusic ian
ĠInter view
M us
aught ers
ĠJ e
Ġpar ish
Ġmyst erious
ĠDemocr at
ĠProduct s
Ġdecl ined
ĠDen ver
; )
Up dated
usal em
m f
Ġbr on
r oute
ard ed
Ġschem es
rou s
Ġcompl aints
à¥ į
rop ic
j et
id ency
S un
ĠMe anwhile
y y
ĠC BS
ĠM aine
19 17
ĠB aby
Ġhom eless
ro sc
Ġre fr
Ġess ay
in formation
ir i
em a
ĠN ag
Ġcar rier
ĠBet ter
ĠKen ya
ĠJ azz
L iter
N ING
ĠK o
S erv
S creen
ĠL aura
Enc oded
Ġsp ell
Ġemphas is
bor ne
Ġentreprene ur
ver b
ĠInit ial
Ġtra ject
Ġc ust
Ġinf ected
Ġrepresent ations
ĠO bserv
Ġmet res
Ġemploy ers
sen al
Ġim pression
ĠIs a
ate ur
og ue
com put
Ġwalk s
Ġan chor
ĠMan ufact
Ġl ic
ic ode
Ġrepeated ly
ĠIn put
ĠTurn er
Ġn ick
fe ed
ĠN BC
Ġpres um
Ġst roke
T ax
Ġreal istic
Ġw is
RE G
VAL ID
Ġd ying
get Element
it r
Ġf atal
M ouse
if le
all ing
F ocus
S ample
Y Y
Ġh itting
re lation
Ġcomp eting
Ġ' \
Ġab ilities
ĠNot es
us ive
Ġrem oving
Ġsit uated
Ġg est
Ġad option
Ġtext s
Ġanim ated
ĠBrother s
Ġn ights
G old
L ead
Ex ecut
hat tan
Ġcomb ine
od ot
cl uster
Ġtack le
Ġdis h
Ġr anks
____ ____
cel ona
ens on
e ing
Ġg ig
Ġcon vention
Ġcon form
Sc ott
Ġut ter
comm ons
ĠR y
ĠE le
vol ume
Ġdam aged
Ġconst ants
ss on
Ġpropos als
lim ited
ĠArch ive
Ġc ous
Ġph osph
Ġsp ir
sh ore
ĠCom par
19 36
ow ing
Ġd ump
Ġsche ma
sp ot
Ġtransl ated
l icens
h ai
Ġinter mediate
Ġpower ed
u art
) ^{-
Ġre plic
ill ery
Ġengine ers
D ictionary
L I
y ll
ill o
qu ote
Ġfin ishing
ĠV oice
S ite
orne ys
Ġtime out
Ġgather ing
ĠG OP
M o
ab ad
pect ives
ĠBl ues
ID S
Ġf ert
HT TP
Ġsil ence
Ġdiscrim ination
Ġd ining
Ġqu ark
Ġinv ention
ĠQ uality
Ġp ending
ĠM illion
, $
id el
qu ant
as ures
Ind ia
U G
h alf
Ġst abil
S pr
ĠE dd
Ġpaint ings
C enter
e ast
P air
n odes
function s
py thon
H or
ed ly
dr iven
cont act
Ġcomp ound
C I
ĠAdv anced
13 5
Ġr anges
ĠMur phy
Ġtele phone
s un
Ġoccasion ally
Ġd rew
Ġdis pute
11 7
Ġactiv ists
pos al
check ed
ĠInvest ment
Ġper pet
ĠF M
ĠSever al
ĠR ank
Ġim ply
Ġco aching
Ġcar ries
Ġdis orders
Ġs ync
Ġt el
if ice
Ġt y
ĠGuard ian
ĠCam eron
Ġscen arios
Ġtransform ed
St ation
Serial izer
object s
F ire
Ġf rames
uck er
Ġgr ateful
EEEE FF
() ))
on z
Ġincorpor ated
P UT
Ġcon spiracy
Ġwe ights
ĠAb d
J ul
Vis it
ĠDep uty
ĠUnivers al
Ġarr anged
Ġt ape
Ġtw elve
ĠJ os
Ġall Classes
Ġcou ples
ĠS witch
ir ical
$ $\
ĠS urg
Ġsimilar ly
an on
Ġcon gress
f lex
Ġform ing
/ _
m aps
ĠC lean
Ġflo od
Ġc inema
Ġup set
Ġw elfare
ategor ized
bo ards
h bar
ĠL ex
Ġfail ing
ĠallClasses Link
L ove
fe ction
Ġl ibraries
ĠPr imary
ĠÐ ²
Ġco ins
Ġexception al
ĠFrank lin
Ġin cent
ĠTh ink
ĠM om
Ġclos est
Ġ$ -
ĠCharl otte
Ġc ursor
Ġk iller
Date Time
Ġag gressive
Ġed iting
sub figure
) ^{\
Ġnot ation
ĠR ule
T x
Com plete
Ġcre am
ass oci
Ġmat ched
pol y
F rench
G ER
C RE
is p
over y
Ġtun nel
C red
ĠA ve
Co ord
Ġb orders
}} (\
l arg
atri ate
stand ard
ĠMar ie
Ġrat ings
f ail
Ġn p
Ġsur f
F acebook
ĠDe al
st eps
$ ~
c ia
Ġj e
ah n
l ab
ĠA aron
Ġrefer ring
ĠBre xit
Ġ' ''
Ġhigh way
On line
Ġmix ture
Ġok ay
Over view
Ġ( [
g un
Ġcor por
side bar
Rich ard
pect or
enez uel
å ®
Ġcal m
rad io
ĠMult i
Ġcom ed
ĠM is
Ġmort ality
Ġph ases
ĠC ass
Ġsusp ension
Ġt ast
ĠP un
pol icy
ĠF ix
Bl ue
urch ase
Ġg ains
Ġalleged ly
ut ic
ĠM es
to o
Ġvolunte er
ĠGr ace
c ross
Cons umer
âĢ¦ âĢĿ
Ġh ub
as ync
F uture
M or
ĠE li
ĠR and
ĠRob in
ç Ķ
ĠD raw
ĠG host
Ge orge
t ake
Ġdep ict
od ox
ul in
Ġv e
Ġprom ises
Ġsh ame
ĠÃ ł
ĠH em
ĠAl aska
Ġgrad ient
19 38
Ġfacilit ate
Ġlett ing
U ES
66 66
D rop
Ġl obby
ĠPortug al
ĠB illy
ĠTechn ologies
ĠUn iverse
Ġstart up
count ry
j ud
Ġmer ge
Ġpsych ological
ac ial
ĠPhil osophy
Ġindepend ently
ou p
b ank
J im
Ġdro ve
Ġgover ning
Ġdelet ed
> :
å ħ
N R
ĠZ one
Ġt ennis
Ġb ab
ÃŃ a
Ġrac ist
ĠM ock
display style
ĠCar ibbean
Ġaffect s
c ity
ĠF ro
Ġel ite
Det ail
ĠId ent
Ġvary ing
e conom
ĠPitt sburgh
in ance
Ġstrict ly
M ETHOD
Ġstep ped
en z
ĠC ultural
l if
ĠThe ater
inal s
pm atrix
ĠG ray
Ġf oss
C ould
Ġres erv
pre ced
Ġn ic
ling ton
Ġref lected
Ï Ģ
ĠIndust rial
ĠF ame
ĠReg iment
C ALL
ps hire
I gn
ĠH erm
v ation
i ov
Ġb os
io x
indu ced
Ġfood s
Ġsurv ived
ĠC ris
ĠT it
ow ell
l av
add y
ob serv
Ġrepl acing
ĠOl iver
Ġne ural
ch anges
ĠF err
ĠLiter ature
ar ance
ĠG round
Ġend ors
n p
cre ated
ĠSc i
ĠRe ports
11 3
19 14
Ġun lock
ĠD iamond
Ã Ĺ
ĠU lt
Ġearth qu
F our
Ġglob ally
Ġdepend encies
iss ance
Ġcomput ation
Fr ank
is or
Ġcompar able
Ġch arts
sy nc
Ġtrans it
ĠCommission er
ĠStat istics
const ant
Ġst arring
Ġcr ack
Un known
Ġattempt ing
Ġ rip
Ġth irty
ĠS ets
I RE
Ġpost ing
Ġpos it
Ġcogn itive
end um
Ġunder ground
Ġfollow ers
ps y
Ġswim ming
Ġele g
int eger
Ġsole ly
ced es
Ġhand ed
sub ject
Ġaccept able
Ġbelief s
w oman
ĠS ug
ĠM oz
ext ension
The refore
sh are
Ġn erv
ĠE SP
ĠCE LL
ĠH ind
ĠAct ive
19 37
re act
US ER
ĠC er
ĠA the
Ġhot els
s pect
for all
ĠS ave
ĠPhys ics
Ġcour tesy
dr iver
Ġdefin itions
S u
Ġpro pose
ĠEx ample
SE LECT
ĠF ine
h op
pro gram
NavBar Font
Ġd ens
Ġpo ison
Ġincor rect
2 30
ĠTh or
pr ises
Fr agment
ä º
ĠHamilton ian
h h
ĠC u
Ã ¥
con sole
ĠAm endment
ĠM all
asg ow
Dep artment
Ġinhab it
ĠG ay
ĠE D
ane an
Ġlog ging
ĠCom edy
Ġvess el
Ġd upl
ĠS ad
Ġam pl
ĠCom merce
ĠC G
ĠC ut
Ġ" $
"" "
Ġagre ements
ĠArgent ina
ic acy
Ġg ross
b atch
Ġarrang ements
f und
ap l
Ġt ension
sequ ently
ues e
VI EW
[ (
r age
ĠU g
Ġhero es
ch t
c ost
Ġa uction
n est
ĠR acing
Ġex ponential
ĠBe ijing
Ġd ated
Ġcount ies
Ġcitiz en
Ġl on
Ġthere by
ig m
Ġpar a
F n
14 4
ens itive
amp a
ĠT X
ĠOper a
aud io
Ġop ponent
L ower
DE FAULT
Ġcomp aring
vert ical
ĠS ometimes
Ġpregn ancy
Fil ms
ed a
Ġcancell ed
am ination
ii i
ĠA F
Ġgold en
Wel come
ĠDen mark
Ġ\ "
Ġh ire
ĠPu erto
air y
Ġg ym
Ġj ury
ict ional
ig ion
Ġcos m
Ġf itting
Ġind ices
Ġodd s
Ġf ool
for ced
Ġsch olars
Ġsufficient ly
S il
Ġt ens
ĠDak ota
Ġim plied
CD ATA
Ġven ues
M ask
enn ial
Ġcook ing
Ġt ired
Ġsustain ability
ĠK ath
B re
Ġsu ite
og ical
Ġli ability
Inter val
ĠF ried
c ounter
ph ase
ex pect
Ġcomp ly
Ġs hed
Ġex ped
Ġconvin ced
per ature
ĠCr iminal
Ġmod al
Ġdom ains
Dr iver
w d
Us ers
Ġwork place
ĠL anka
Ġch ains
th ree
ĠP ad
An imation
à¥ ĩ
ĠStan ley
ĠS even
ĠJohn ny
Ed ge
az ines
ĠG raph
Ġfound ing
bas ic
Ġback ing
m ouse
ĠC I
un ion
v et
ĠYO U
st ates
ĠC arn
17 0
ot ypes
con vert
ĠS S
if iable
fl at
Ġcharg ing
Ġcoeff icient
Ġl os
int age
MOD ULE
ann es
or o
Ġcap s
Ac cept
ĠMov ement
ĠD M
ĠP erm
ĠAr n
res olve
ĠK id
ĠTh r
Ġdepart ure
ant on
ol utions
get s
P N
Ġre ign
ĠEd ge
ĠSu ite
Ġb acteria
Ġinvestig ations
Ġtext ure
IL D
Ġal pha
Ġde emed
ĠEx hib
Ġhe m
R a
he ld
Ġconf used
Ġassign ment
ĠM atch
ĠBar ry
ĠLiber al
f g
Ġhor izon
ĠT an
Fil m
olog ically
kw args
ĠCom ics
ro se
W ed
f ight
Ġclean ing
Ġt mp
ĠW onder
Ġpack ed
Ġ\ &
au er
Ġwe igh
7 50
Ġim per
12 2
ĠSpr ings
ĠCons umer
ĠB eyond
Ġcur ious
b uilt
Ġo verseas
am med
Ġim pr
Ġsp ac
Ġap pl
Ġgrow s
onom ous
Ġarrang ement
Ġvot er
å ¤
ĠL ad
Ġcomp ress
p ages
ra ising
in ery
ip h
Ġencour aging
** *
Di agn
sub subsection
und efined
Ġwork shop
ens ively
ri ber
P ub
Ġlog ical
f our
ah o
M ount
ĠE sc
Ġprocess or
hav ior
Bas ic
Ġgr avit
ĠB irmingham
C over
Ġscient ist
Ġsal ary
ogen ic
hab ilit
Ġdet er
Ġdifferent ly
Ġne arest
ĠJer usalem
time out
' ];
t f
ĠNot ice
\ /
Ġst yl
ile vel
w ave
ĠL l
Ġposs ibilities
Ġdiam eter
ody nam
Ġto ll
ey er
d iction
Ġfl ower
Ġf ate
ĠLink ed
Ġl ap
int o
Ġim posed
Ġcomm ut
Ġsus pected
ymmet ry
De ath
B al
M ov
ĠW ikipedia
Ġp our
SC R
Ġs ail
Ġcann abis
ĠN eb
Ġre ception
mark et
Ġquant ities
ï¼ Į
ĠT es
ĠP i
ĠJ oin
cover ed
ĠKe ith
ID TH
T F
ĠCamp us
Ġf iscal
m oment
Ġsh orter
Ġmiss ions
ĠL ux
Ġ ];
Ġt ropical
Y eah
å Ĳ
V O
Ġtr im
AV E
D b
ow der
Ġenjoy ing
l as
ad ows
Ġstri king
Ġt ar
Ġjournal ism
H on
S at
Requ ired
Ġsome body
ĠTr ack
Ġsoph istic
ĠK az
nap shot
ĠAr men
ĠT ig
Ġsmart phone
Ġegg s
t z
Ġen abling
l adesh
P red
Ġb eneath
B ill
Ġl iver
A bs
Ġformer ly
ĠA ld
ĠCom mercial
ĠN an
Ġcoast al
Ġforg otten
Ġsh ield
ĠTh an
Ġdeterm ining
A rm
ist le
ĠS ent
Ġaccept ance
ĠPh one
_ -
Ġcour age
all ed
ĠK ay
ĠM unicip
M ass
Ġor ange
Ġst olen
ĠCh ile
Ġa est
m ill
pro duction
m ov
Ġb anned
B ur
Ġbet a
Ġnot ification
ett ers
12 4
ĠV I
IS H
ĠPer ry
/ ">
uss ia
. ]
ĠNev ada
Ġjo ins
Ġtest im
PD F
Ġcert ified
Ð ¿
c ourse
ĠM aur
ĠR ole
Set ting
ac ies
ĠK irk
Ġmodel ing
Ġcomp ass
K ing
Ġident ifier
Ġst ating
Ġpro be
ĠY ang
arant ine
ĠR ange
Ġsh oes
Ġcoll ision
amil ies
met ic
ĠHill ary
3 20
Ġcontribut ing
sp ired
ĠH at
Ġbl ast
ĠNe uro
Ġd ense
R aw
Ġth rew
iv ic
V irtual
ĉ čĊ
plet ed
com fort
Ġsub str
ĠHealth care
" ].
c atch
ĠM I
ĠJ obs
Ġa ug
i ang
ĠIn fo
Ġpaint ed
M ajor
Ġvar ied
Ġgen uine
Ġpros pect
i u
Ġwind s
ir atory
comp ass
Ġj oke
Ġener gies
ĠRem ove
Ġappro x
S cal
ĠCirc uit
M AP
iss on
ĠB enn
ĠV A
Ġad mission
iat ric
ĠK ap
Ġop ponents
C ONT
S ever
ĠL arry
ind a
ac re
Ġpay load
ul ent
ĠUn c
sp in
Ġin herit
Ġdis crete
eth yl
Ġt ut
F act
ĠM asters
L android
Ġdepart ments
ob i
iss et
avel ength
ĠN urs
Ġrecept or
ĠD eg
ĠP le
Ġpick s
Ġ-- -
Ġat oms
Ġdev oted
Ġlegend ary
ĠAdvent ure
Ġsc rap
ĠB right
ĠAgric ulture
e or
ion ed
preced ented
iz za
qu est
Ġg rey
ĠLabor atory
ĠNe il
Ġrest ored
w ear
ĠK it
ĠSh ah
re view
Ġm ature
Ġaccount ing
Ġhum or
1 19
Ø ¯
in ces
ĠC F
Cl uster
G EN
ĠS end
L ibrary
ĠMan hattan
k l
grad ed
ĠNAV BAR
Ġ rib
umer able
Ġtox ic
act ed
bo ost
Ġstream s
Ġg rip
Ġread only
g iving
N amespace
Ġfl avor
ĠV ision
Te am
ID E
b rew
Ġgrad ually
AM ES
ĠBen jamin
om i
struct ure
H ot
ĠD ie
ĠX ML
Ġpre st
AT OR
Ġdef ining
Ġev olved
Ġmunicip ality
Ġcomment ary
Ġcorre ctions
Ġenorm ous
ĠSt yle
B eh
ĠJ erry
ĠCol omb
ĠN ad
}} ^
ĠChel sea
Ġeduc ated
Ġrock s
Ġdifficult ies
Ġconver gence
Ġbar rier
ĠTh read
Ġmark er
Ġgraph s
ĠH indu
Ġaccomp any
ue z
ĠCost a
ĠPol y
ĠD B
A fr
(" /
ex cept
LE S
Ġnurs ing
che m
Ġpoint ing
ĠA y
M ove
om ething
Ġthrow ing
g ie
Ġfor cing
ĠP ython
ĠInter est
Ġsucceed ed
Me anwhile
Cons ider
ĠM aj
Ġgraph ic
d ash
l ic
ĠT ab
Ġcross ed
ĠMaterial s
M el
t ouch
Ġexc it
Ġcool ing
Ġvol tage
ĠAn imal
Ġval ley
ĠBo olean
N ative
ĠH app
ĠWith in
Stand ard
h is
ĠDat abase
Ġpart ly
L and
hel per
ik o
Ġisol ation
Ġj s
Ġt une
Ġtri ps
ĠMad rid
ĠH ousing
Ġprint ing
ĠRepresent atives
ĠF riend
over view
ĠOption al
ut t
Direct or
Ġear liest
(" #
Ġp ixel
Ġvess els
ĠM ong
Ġm arch
' (
ĠP ictures
ov ak
ĠTre as
M ad
a uc
Ġwarm ing
LO C
Ġd ub
ĠR io
Ù ĩ
Ġ> >>
Ã ´
construct or
w ind
Ġking dom
Ġpro c
Mon th
Ġpr ide
Ġshel ter
ĠF ashion
o ons
Ġtw in
19 33
ĠChristian ity
Ġste am
ä ½
Ġdesc end
p ad
rem ark
Ġdead line
12 1
Ġpack et
Ġr amp
ĠT E
Ġim g
b oth
Ġen zym
AR B
P y
19 35
Id s
% "
Ġsec ured
ĠV el
ĠĠĠĠĠĠĠĠĠĠĠĠĠĠĠĠ ĠĠĠĠĠĠĠĠĠĠĠĠĠĠ
comp ile
ĠFac ulty
Ġback ed
ĠS ummary
R ay
ĠR ES
FF ER
Ġinv asion
dep recated
ĠS F
de ep
Ġs ne
Ġin fect
19 19
Ġap olog
Ġimportant ly
al ert
May be
ĠF ish
Th ose
Ġfil ters
Ġchem istry
ĠD rama
le in
d anger
ĠS creen
Ġobject ives
ĠD OM
ĠTransport ation
IN K
Ġactiv ist
T ON
el eration
om eter
Ġbel oved
Ġs its
O H
Ġr ated
ĠMet al
M ike
cl one
Ġt ours
ĠM ack
col lect
Ġless on
ĠBi ology
Ġb reat
Ġext ensions
)$ -
Ġacqu ire
Ġv iral
Ġy eah
Ġc md
Ġacknow ledge
ĠCol umn
F ar
G erman
Ġtri ple
ic ates
Valid ation
ĠL ower
ĠM ol
n ative
akes pe
ĠComp anies
Ġwrap ped
Ġpr ayer
Ġconf usion
Ġin sect
Ġmist akes
Ġachiev ement
C amp
it err
id o
Ġob l
Ġcomp ounds
Ġproceed ings
M aterial
C apt
ĠT ak
erm ont
ĠCl aim
Ã Ĥ
Ġmagn et
em ption
Ġl apt
Ġd imensional
R PC
ĠP E
it ime
Ġsurve illance
t k
21 3
Ġob sc
s ocket
Ġoper a
D IS
Ġdiscuss ing
ĠFin n
ub er
om o
Ġann oy
OL D
Ġrank ing
Ġbroad er
Pl atform
UM M
Ġrecord ings
ĠWel sh
J on
Ġc oc
MO DE
Ġprotocol s
P s
C G
Ġdel ivers
ĠAp ache
Ġla unches
top ic
Ġst er
Ġbut ter
19 34
ĠF an
Ġper ception
Ġann ually
}} ^{
ĠK u
ch ing
Ġfr act
Ġequ ilibrium
) }{\
aceut ical
Ġpolynom ial
Ġm amm
ĠB ristol
19 15
ĠDet ails
Ġint elligent
Ġconcent rations
ĠJ uan
Ġass ass
ver e
Ġbur den
ĠGl ass
mem ory
T or
Ġa uth
Ġkey board
Form s
ĠTown ship
Ġlo ose
Ġinnoc ent
ĠW ait
Ġcr icket
Ġam endment
ex it
Ġproject ed
Ġwood en
Ġmar ry
ĠGrow th
if ndef
ari ju
Ġdon ations
t v
Ġpe ers
ĠCommon wealth
m illion
Ġexist ed
f b
ĠRest aur
ĠFil ms
ĠMO RE
ĠD evelop
ĠA w
ex pression
Ġappro ached
Ġse eds
ĠBas ic
Ġc od
Ġdeploy ed
Ġsh ore
Con vert
var i
Ġearn ings
S ql
on line
Ġke en
Ġcirc ular
Ġguarant eed
ĠBen ef
ĠGover n
$ {\
Ġt ribute
Ġdis put
ĠH orn
ĠTo o
ĠCal c
ariju ana
H y
Ġf ingers
Construct or
b inding
ĠInd ians
ĠD esc
ĠC ategory
ĠCru z
Ġa qu
ĠWar ner
Ġsl ide
Ġstock s
Ġmolec ules
Ġbott le
om on
Ġb lo
Ġd ivers
Ġinc idents
ĠP ul
ip per
ĠUs ed
Ġgr ace
ĠF DA
ĠTreat ment
L ib
T M
ĠL ion
Ġpl ug
Ġwis dom
ĠS ure
ig ator
Ġforest s
pro b
ĠHon or
S ources
The me
Ġdead ly
H ello
ort ex
Ġn ort
St atic
ĉĉĉĉ ĉĉĉĉĉĉ
Ġd ancing
Ġbl ess
Ġimpress ed
M a
B IT
en ue
ĠLeg end
O ST
Ġmut ual
ĠLet ter
osp el
ĠO scar
ri en
ĠJ a
EN CE
ĠCo ach
Ġtrad itions
ĠEvery one
Ļ Ĥ
olec ular
ĠCon struct
ĠCour se
Ġwond ering
s ocial
Ġassess ed
Ġhighlight ed
ad v
Ġadequ ate
Ġf ut
Ġcomp elling
nav igation
s chool
ĠGa ussian
ĠS R
Ġadv ised
ĠS oph
valid ate
Fl ow
n ob
aged y
Ġind irect
Ġr ice
ĠG A
sl ice
mer ge
b rit
p id
ĠL icens
ĠTra ff
Ġ' ';
ĠGr an
ĠNY C
link ed
od o
Ġhel ic
ĠNor wegian
ĠT u
ĠS ize
": "
Ġste ep
Ġinf lation
gg reg
ĠR A
Ġvol can
Ġball ot
ĠE ld
Ġderiv ative
Ġim pl
ĠM ason
Ġf t
Ġimm igrants
S F
ke ley
cal endar
Ġsub tle
ĠB eth
Ġ Ñģ
Ġinflu ences
Ġpassion ate
ĠD ictionary
val uation
Ġflex ibility
Ġanticip ated
Ġcir cles
Ġh anging
Ġsup ers
ĠArchitect ure
) },
ĠVis ual
Ġbond s
akespe are
g row
ah oo
Ġworld s
iz ar
Ġro ster
up t
T y
Ġnav bar
as ia
ĠW u
AT O
sw er
Ġneighb ors
bar rass
ĠN A
ĠEm peror
: [
ose x
Ġabs ent
Ġexp ense
Ġtarget ing
Ġst om
ĠRet rieved
D ATA
ĠNew ton
ins ic
S elf
list ed
des ign
unt ed
ĠH il
ĠP icture
Ġaddress ing
Ġres il
Ġbo ards
Ġbatt les
ĠOr chestra
re ason
Ġf itted
Ġdes erve
Ġres emb
Ġhol idays
getElement ById
ĠBar celona
ĠWe ather
p ic
Ġarch ive
5 000
ĠSand ers
d uration
Ġcollect ing
Ġsevent h
Ġbe ating
Ġcan vas
ĠP ic
ĠEx cell
Ġtyp ed
Art icle
w ik
Book s
17 5
H am
l it
Ġs ends
end ors
Ġbre ach
Ġd ys
eg u
ĠBr anch
Am ount
Ġop acity
Ġintrodu cing
Ġattract ed
ĠCommun ication
Ġair line
Ġflo ating
Ġw ishes
Rem ote
umb ai
Ġdec ides
ĠPh ase
ep per
Ġac res
Ġperform s
NS String
ĠC SS
Ġw age
ĠWat son
load er
N ormal
Ġcan onical
Ġsol ving
ĠStat ement
Ġqu oted
o j
u rol
W alk
Ġmeas uring
ĠIl legal
AT TR
ain ian
Ġar ise
Ġsepar ately
Ġstraight forward
ĠIn cre
ĠR ud
CL ASS
ĠJ oint
R NA
=\ "
arch ive
con scious
T I
id ad
Ġdi abetes
Ġmag ical
ch at
Ġvol unt
Ġc yl
J ournal
ĠCor porate
ĠCro at
S ame
ĠFl ight
glyph icon
Ġs ake
Ġbar rel
ĠGreat er
Ġl ymph
Ġaffect ing
Ġr itual
Ġch ip
ĠClass es
Ġadv ers
C AR
ĠQ ual
Ġper ceived
Ġanaly tics
op ing
Ġsur ge
EN V
N AS
Ġgovern ance
ĠBern ard
Ġch icken
ĠMed al
m essages
ĠK E
Ġdro ps
b ach
ĠA CT
V ICE
Ġdr ums
um ble
Ġinj ection
ar ms
Ġexha ust
at iv
)\ \
Ġopt s
ĠPlan et
Ġaccommod ation
Ġliter al
comp are
G F
} )$.
Ġb ases
19 10
is Empty
k ar
DE BUG
ĠN am
ĠCo ord
Ġoverwhel ming
r ors
Ġrun ner
Ġnegoti ations
FN GL
ĠArt icles
ĠEm ily
Ġk it
Ġlong est
ĠN J
k ov
et ric
un ger
'] );
ĠN ancy
rom agnetic
c amp
ĠC M
ĠG ive
ĠL com
ĠU pon
Ã© t
Ġspect acular
ĠSh a
Ġsl ave
Ġsecre ts
... "
IO Exception
Ġtw ist
m obile
ĠL uther
Ġdis ability
ĠN ord
19 29
Ġadv erse
ĠS eg
Ġdist ancing
ĠM aking
Ġpre lim
ĠSt ein
J oe
U AL
E ast
in herit
Ġp ocket
M obile
ĠT ool
ĠPro file
Ġart ifact
() ),
L R
Ġp ole
Log in
h istory
refer red
Ġt ears
Ġf erm
Ġr ugby
R ate
s pl
Ġ Ø§ÙĦ
Ġpick ing
Ġm ere
ish a
Ġdon ation
ĠU til
Ġd aughters
ĠIran ian
if ference
Ġhe aling
20 2
... ]
ĠCont ext
ĠIss ues
ĠIn ternal
Ġprogram mes
ĠHarr ison
ĠAssoci ate
Ġfriend ship
Ġkne e
ĠR u
Ġconsult ation
\ {\
ĠW ire
Ġnerv ous
Ġpract ition
F eed
a que
Ġstop ping
Ġcru ise
ĠFa ith
dis able
necess ary
Ġexpect ation
sub mit
Ġelim inate
Ġcomment ed
Ġelder ly
en o
Ġcent res
Ġf ires
art z
iterr anean
Ġfast est
Ġnot ing
Ġd ip
\| _{
Ġch unk
Ġdis cret
cc cc
Ð ·
Ġh yd
Dan iel
ĠM B
Event Listener
Ġnation wide
ap ple
Ġdiv orce
epend ence
ĠS IZE
Ex ecution
ĠFl ash
r g
load ing
ĠPri or
ĠR ing
Ġheart s
ĠE ve
: `
Ġre pository
Ġt d
ĠU P
Ġbu f
Ġd ot
Ġadvant ages
L imit
h ole
Ġt ent
ĠDe cl
ĠQu ant
O F
Ġrecip ient
Ġexpect ing
dest roy
Ġatt ributed
dat abase
ĠT rip
Pro to
Ġcry stal
Ġp s
Ġap ilevel
_ );
Ö ¼
tr l
ĠCom plete
Ġabsor ption
ĠJ ake
Ġper missions
Ġv i
ĠBar on
Î »
Ġsh apes
ĠIm perial
Nav igation
ĠTr uth
ĠGl asgow
s ized
ĠW a
ĠResp ons
ine a
Th omas
ar ound
ĠT erry
Ġroll ed
ins ula
H i
Ġelement ary
ĠWrit er
ĠCond itions
, ,
ĠSumm it
j oint
ĠC arm
select or
M ary
pl iers
ne ed
Ġmin istry
Sim ilar
Ġcom ics
And roid
Ins ert
Ġgr ave
Ġhon our
m ag
ĠCons ervation
Ġprof its
Ġhabit at
Ġf o
ĠD ir
text sc
ĠAr c
Ġhe ating
Cond ition
method s
ĠRem ember
Tag ged
ĠN athan
P ing
arg uments
So ft
ier ra
ĠCy ber
ah l
i Äĩ
Ġent ert
Ġmechan ics
ex ec
20 23
Europe an
Ġblock ed
Ġdist ant
L uc
ĠAll ah
Ġr ape
con g
P ut
Ġt ube
an imation
link s
ĠS ym
10 16
ĠS aints
ir able
ĠY u
he astern
ĠC atherine
Ġpo ems
ĠĠĠĠĠĠĠĠ ĠĠĊ
ĠV eh
ĠMont real
ĠJ son
Th row
land o
= [
ĠA irlines
Ġh orm
ĠF ace
19 16
ash a
ĠNC AA
> "
Ġpers u
ĠE ff
Ġdo zens
ys ics
Ġphot on
ement ia
ern ess
Ġf ighter
em ics
Ġscholar ship
Ġdemand ing
ot he
Ġat om
Ġun precedented
direct ory
Ġconv icted
ĠO ptions
Ġre n
par allel
V R
g mail
Ġcast le
We ight
Ġrestr iction
ex tra
Ġ" ",
Ġexperi encing
C B
Ġun iqu
Ġimplement ing
Ġrad i
Ġremember ed
ster dam
< <
ĠF itz
ĠFin land
/ (
H ey
ext end
var iable
Ġform ally
ĠFe atures
ĠT on
ĠTre nd
Ġim plicit
A h
Ġcolon ial
H P
Ġinv erse
B ound
ĠOther wise
In f
Ġdig it
M ont
ĠQu arter
Ġcreat ures
Ġle an
Sm all
T ur
Ġde ployment
ĠSh ar
yn asty
high light
Â «
C ost
~ $\
H ard
Ġcons ensus
UN T
Ġin herent
ĠProgram s
Ġqu eries
12 6
Ġbar riers
ĠB arr
Pre v
Ġcolle ges
H aving
ĠK an
str ument
Ġfootball er
Ġens emble
Ġign or
Argument Exception
at able
ĠS ession
Ġcons olid
Ġtrust ed
B inary
14 5
Ġphys ician
Ġj ack
D EC
p b
PD ATE
Ġown s
Ġfear s
ĠB ear
Ġcreat ivity
att ed
Ġclass room
Ġrev ised
Ġinvestig ating
Ġspons ored
ĠCon cert
A X
0000 00
e enth
Ġmon ster
UB LIC
Ġmet all
to Be
Ġdeput y
b ia
cons ider
Ġrel ate
Ġreport ers
st ation
Ġir re
H ouse
ĠCh ampion
Ġoccas ions
neg ative
Ġat omic
Input Stream
Ġs s
ĠI F
Ġcloud s
Ġexpl ored
Ġmer ch
Ġaccompl ish
Ġextract ed
Ġmem orial
19 0
ĠE ST
path y
Lear n
Ġd oses
ĠArk ansas
ur red
add le
Ġle ase
19 32
amb ig
ĠProm ise
I ss
ty pen
Ġw ars
Ġsequ el
Ġto k
Ġcam ps
Ġinst itutional
Ġin clusive
Id entity
cer pt
Ġcon vey
ew ise
h arm
ĠF eed
ĠV ik
Can adian
Ġaltern ate
Ġabund ance
Ġwork force
ic ating
is co
Ġv ig
pan ic
ro d
ĠSc ript
run time
Ġtrem end
Ġall ies
Ġestabl ishing
Ġs isters
ORD ER
Ġvis itor
Ġcomp ilation
ĠBul gar
H istor
ak u
Ġg rap
ĠH az
l oss
Ġsens ors
2 10
ant ed
j d
Ġde ar
h ind
RA Y
Ġmand atory
Int eg
Ġnewsp apers
ĠSimilar ly
Ġh orn
Ġhe s
ĠI g
IC ATION
Ġinflu ential
ĠUp per
ĠMad ison
Ġdesign ers
B ottom
ĠF if
ĠL ives
comm it
fin ite
Ġspeed s
Ġem barrass
ĠMe et
f ar
Ġp ixels
19 28
sp acing
ĠSur v
Sc hedul
ĠTer rit
Î ·
ĠP ain
itt ers
ĠForm er
Ġinter ference
ke ep
Ġdraw s
atern al
ph rase
head ing
us hes
ĠU r
IM E
ĠA rena
ĠV enezuel
Ġterror ist
Educ ation
Ġmarg inal
f ers
Ġpre dom
Ġcompet itors
ĠHam pshire
Ġpresent ing
F ac
ĠL it
Con verter
amb ling
ĠN ar
ĠM IT
ment ed
n ia
ĠEgypt ian
Ġnom ine
Ġencounter ed
Ġadjust ed
Ġcontrovers y
Ġd ictionary
ĠL atest
um ing
Ġrun time
Ġprof ound
r ain
ĠCons ervative
× Ĳ
Ġr ivers
Ġcomp iled
Ġdiagn osed
Ġdecl aration
Ġh ack
Ġaccompl ished
Ġdis able
ĠCom pl
Ġme als
B inding
ĠG ene
Ġrend ered
Ġb ags
Ġlegit imate
Ġfe as
ay an
$ ;
Ġdocument ed
ari ans
emb ed
work ing
Ġannounc es
res ize
ff f
) }_{
ĠV acc
Ġsm oking
Ġhop ed
ĠH udson
******************************** ********************************
Ġ$ _
ab ul
Ġweak ness
ess a
decl are
ĠB apt
Ġ& #
In vest
Ġe ager
Av ailable
typen ame
ĠU TC
c ou
ab i
Pol ice
Ġf isher
ĠAb u
ix on
ĠVin cent
ĠMe chan
et ooth
19 2
ĠK ill
set up
cel and
arn ings
not ations
Ġcha os
ĠS ays
Ġ" ";
b ecause
Ġcy cles
grad ient
ĠR ivers
Ġhand ful
ĠCO L
ĠF ocus
res pect
Ġadvoc ate
55 5
Ġsh ifts
H ol
ĠK il
ĠW A
ĠSh aw
J P
he imer
Pl ace
Ġsold ier
Ġel if
Ġcommission ed
End point
Ġoccup ation
G T
ĠT ell
Ġdiagn ostic
ĠCl ay
AS K
Ġwh is
Ġarch ae
Ġcol span
SS L
Ġend point
ĠComp etition
P ack
ab c
ĠMar io
I r
ĠRich mond
ĠF u
Ġan ime
Ġcontact s
Ġprotect ive
assert True
Sec ret
Ġstake holders
ĠInit iative
Ġback up
ĠW ITH
Ġsuggest ions
ĠHig her
ĠS id
ol er
ĠCl ose
ĠAg ent
Ġlegisl ative
bet ween
S B
co ord
Ġp uls
Ġman ages
Ġsp here
h all
map sto
ĠChar acter
ĠStand ards
Ġqu otes
ĠJer emy
Ġcount ing
Ġbelong ing
urre nc
Ġbut tons
Is rael
Ġcontr ary
="../../../../../../ ../
Ġassoci ations
Ġselect or
ĠGh ana
m k
ĠElement ary
pl acement
Process or
ĠC ensus
ĠY eah
\ ;
f olk
un ts
ĠD oll
er ial
et on
ÑĢ Ðµ
Ġre nown
12 9
UR N
Ġcont rolling
EN TRY
Ġinvest ing
m iddle
} &
uff icient
Pl us
ĠD elta
Ġmed ic
UR CE
Ġconfig urations
h aw
br as
Ġquarter back
Ġmob ility
Ġcancell ation
Ġal ike
Ġsust ained
P od
oc ese
L ou
Ã ª
s afe
Ġs ocket
ĠEd wards
Ġbe ings
Qu ant
Ġbo ats
IT ION
ab stract
I ll
ĠCom b
ĠNichol as
Ġdist ances
Ġsw ord
ham mad
Ġcomplet ing
av ers
Ġsub mission
Ġco in
A z
Ġconven ience
G od
licens es
phot on
, .
Ġunc lear
Ġvis ibility
Ġfarm ing
s b
Ġsc andal
Object s
Ġy ard
ĠAl ong
Ġ' .
Ġauthor ized
d n
ol ine
Ġspread ing
C ounter
tr im
Ġcop per
f loor
ĠB achelor
Us age
ĠDub ai
M essages
ĠLuc as
Ind ian
und ers
ĠB udget
Ġdem ol
U pload
ĠBrazil ian
Ġar row
Ġeconom ics
Ġdeg ener
sequ ence
Ġ' ./
15 5
AP P
Ġhe aven
Ġprison ers
ĠP ent
Ġdat asets
is i
. ).
Î ¼
Ġbus es
as ive
ele m
P OS
k n
Ġt ong
Ġaccess ed
c reat
Ġexpl ores
IC S
Ġlog in
g ender
ĠE ye
Ġline up
Ġver b
F OR
Ġp ig
ov o
An alysis
ĠBr ain
Ġac oustic
Ġeth ical
Ġw ings
amb ers
R ock
Ġstri kes
Ġshift ed
Ġentert aining
ĠG rey
Ï Ĥ
HE AD
IN ST
ĠScient ific
Seg ment
N ever
S ort
ĠCo hen
Ġlik elihood
Ġalign ment
}\ ,\
27 0
Ġm arijuana
Ġretail ers
.. ...
ke eper
Ġle ather
Ġcons iders
IM PORT
Austral ian
Ġt ear
Ġcomm ander
Ap ple
Ġext ending
Ġneg lig
effect ive
ĠB ath
Ġsett le
ĠP in
Ġqu adr
Sub scribe
] }
us c
Ġre named
Ġany body
Ġland ed
ĠPlay ers
Valid ator
Ġt ends
ent o
Ġdel ta
Ġf ru
ge o
D ES
ĠPortug uese
ĠAn alytics
Ġeditor ial
Ġdu o
roll ers
Ġtechn ological
Ø ª
ĠPer iod
t p
char acter
19 25
Ġbad ly
Rad io
CR IPT
e cca
ym an
Ġarr ives
Ġf older
}( {\
Ġsk i
in yl
ĠEl li
Ġattend ance
Ġfrequ encies
}{ (
erm ark
ĠTr ain
Ġprem iere
ĠIn side
Ġexpect s
ĠC emetery
Ġt orn
ĠDE FAULT
Ġstreng the
og s
}^ *
Ġsol ved
Ġthe rape
ĠIn j
LE MENT
H uman
ir s
All oc
Ġ( #
Ġdemocr atic
r ules
Ġover flow
Ġel abor
Ġfun eral
ĠPhill ips
Ġur ged
ĠH erald
ĠÂ ±
is ure
aus es
appro pri
ĠT odd
Ġtr ivial
Associ ation
ĠP anel
ĠMem ory
Ġgu ided
ĠP ra
Ġw it
Ġscr atch
sc ala
Ġdistingu ish
og an
Ġcompet ed
Comp iler
ET A
Ġder ive
G rad
ull ivan
\ )
agon ist
ce iver
ĠF at
igh bor
F ort
Ġachiev ing
udd y
Ġinterpret ed
Const ant
Ġe ars
S ing
ĠDef ence
um ption
found er
fr astructure
R andom
Ġstrugg les
Ġcry st
Ġbel t
F older
ĠAdvis ory
ĠEm ma
Ġsc ar
Ġbuild s
j Query
CO MM
ĠZ e
Ġrem arks
ĠEn s
oot ing
cl ock
ĠCom plex
j ax
read er
f iction
Ġrem ind
og g
ĠF IG
Ġagre es
Ġcoal ition
ĠIN TO
Ġp ink
itut ed
Ġdon ated
Ġg am
f ive
Mon itor
ounc es
Ġsort s
Ġmer ged
Ġdress ed
19 22
ĠSy rian
Ġun t
Sp an
al ion
c assandra
Ġdrink s
ĠKar l
$ ),
Ġautom ated
13 6
ĠEar l
ĠMichel le
ne um
N or
C ong
st rip
ĠAdd itional
Off icial
Ġimag ination
~~~~ ~~~~
ĠA part
ass ign
Run ner
Ġch ampions
ĠCarl os
ul k
Ġpres erved
am ic
ĠB ra
oth s
CO M
Depend ency
Ġf illing
Ġtr ump
ĠBroad cast
Ġpr icing
Ġb ol
Ġreg ression
Å ¾
d istance
ĠLiber ty
Ġs our
Ġe uro
]] ></
Ġwhe els
/ {
au i
com ed
Ġc argo
ĠðŁ ĺ
Ġconscious ness
Ġf u
Ġun ity
d irection
The orem
ĠInt el
Ġm os
ĠB ud
ab ases
l b
ĠB ot
Ġcare ers
g om
ser ial
ĠPalest inian
Ġorig ins
ĠEconom y
ĠBang ladesh
Ġwhere in
13 7
Ġnav igate
Ġd irty
Can ada
Ð° Ð½
Ġtrans parency
op ening
ĠR aw
W ater
f act
Ġw ore
ĠProgram me
18 00
> )
Ġcab in
if i
Ex port
36 5
ĠBit coin
ĠL ate
ĠOver all
ĠP ackage
ĠQue bec
ĠW alt
Ġm akers
Ġart work
ĠM ak
pro position
Ġestim ation
Ġfl our
Ġprefer ences
Ġsophistic ated
ĠH ockey
ĠS cal
trans action
for Each
Ġgr ain
P rom
ĠCh oice
Ġde fer
Ġcreat or
ĠAL IGN
Ġhope fully
ĠWood s
Ġconsist ency
Ġex cluded
Writ ten
Ġcorrespond ence
Ġcompet itions
Ġdet ector
S ar
ĠD raft
ĠAlber ta
Ġveter ans
p al
Ġdam ages
Ġbr ick
Ġprelim inary
And rew
Ġintr ig
iz a
ĠN HL
Str ategy
Ġpull ing
Ġcon ce
Ġtyp ename
t elling
Ġmount ed
ĠW R
ĠResp ond
Ġp ension
ĠH alf
ah u
L at
Ġexpl aining
Ġf iring
Ġact ed
Ġche ese
R ot
if ully
Ġunem ployment
Ġs ql
Ġdark ness
Part icip
ĠK on
Ġcomput ational
O cc
k ed
Ġdist r
Ġst amp
sm art
Ġretain ed
Ġf usion
ĠA round
â Ķ
ĠL en
Ġcert ification
Ġin herited
Ġpl acement
Ġco at
Dep th
CE PT
ag ine
19 31
Ġg ray
h um
Ġburn ed
Ġcon clusions
er ie
Ġvari ants
Ġg ifts
Ġmed ieval
Ġp orn
ĠVal ent
op edia
ĠCirc le
ĠW es
ĠSong s
ok a
ĠNav al
ĠB MW
Ġelev ated
ĠCon n
Ġdef ending
Ġch ron
Ġrenew able
Ġh ug
Ġlaunch ing
Ġinvest ed
ens en
ĠM ans
ĠK el
Ġsup ern
ĠStr ong
ĠC ob
Ġout s
N a
Ch apter
Ġexecut ives
ĠOther s
cont ents
Ġproduct ivity
ĠC amb
ĠCont emporary
2 25
ĠUn like
w t
Ġra ises
Ġdismiss ed
ĠSh ang
ele ments
h ad
Ġv ir
Ġres ume
% ),
Ġgr an
Ġdr unk
ar us
Ġc inem
ĠOr igin
ĠGi ants
Ġto ile
Ġsc al
Ġmid field
Ġed itors
l icense
im ir
ĠS yn
C V
re str
ur ring
Ġn ons
Ġaff air
Ġtour ist
ĠConfig uration
ÂĢÂ Ļ
T ri
Ġbul let
Ġver ified
F lor
Ġmem brane
ĠB ass
Ġr ush
N UM
ĠT ips
Ġmetab ol
ĠESP N
ad vant
Ġdelight ed
id i
A mazon
ĠC ad
ĠB omb
ĠD W
Col lect
Ġdisappoint ed
[ -
T witter
19 27
ENT S
Ġwork shops
Ġmurder ed
) ?
Ġint im
ari ance
à ¬
ĠK aren
em or
19 23
ĠConst ant
enc ode
ĠPre vention
Ġdemonstr ates
Ġqu ot
Ġlisten ers
S und
: @"
ĠM R
ĠInt o
L atest
ia o
Ġoblig ations
Ġpe oples
Ġrad ar
je ctions
RE T
N P
Ġexcept ions
les h
Add itional
Ġobtain ing
Ġf are
Ġco h
ĠS oc
lib s
Gover nment
En v
b usiness
Ġcomb ining
ĠPark s
ia z
Ġfluct uations
ĠAnc ient
Ġfin ancing
ĠOut put
Ġorder ing
Ġrest oration
Ġsh aped
Ġw orn
Ġs b
T ry
ĠAb raham
ĠPro perties
is y
ĠSh akespeare
se en
g if
olog ic
ĠN g
Ġprov es
n m
| }
che str
Ġexplos ion
e ur
Ġs lope
Ġcollabor ative
ĠSo on
Th ough
st orm
ĠS alt
B ay
Ġa ux
B log
ĠA bs
Ġre vel
C ulture
Ġz ones
Ġball s
ĠCl are
T L
Ġtreat ing
Ġrefuge es
du ctions
Ġform ats
Ġtra uma
ĠðŁ ĻĤ
D ig
Ġens ures
vel ope
Ġdiscuss es
ĠBl ake
al gebra
3 000
ĠDi agn
Ġtruck s
A IN
Ġperiod ic
ĠSt ri
Ġfil ing
×ķ ×
16 5
Ġab ortion
AB C
Ġref use
Ġc ere
H en
in cre
Ġc ave
Ã ĥ
ĠC atal
Ġinstrument al
in x
Ġin cl
DE F
ĠDr ag
S EC
el astic
habilit ation
j ournal
Ġassert That
Ġh iding
OP T
cipl inary
ĠMed iterranean
Ġsw ing
N ER
St ill
ĠAl t
With out
ĠF resh
ĠHol iday
Ġjuris diction
Ġtour ists
Ġang les
}$ )
Ġcust ody
ĠZ ero
f actor
ĠM atter
ĠStr ucture
; |
ĠPro gress
ĠBuild er
ĠArt ists
ĠÐ ½
S V
th al
Ġchalleng ed
ĠNorm an
rupt cy
est on
Ġcompan ion
Ġmot ivated
Test Case
Miss ing
ĠWork ers
m embers
sh aped
gener ate
um ph
run ning
qu arter
az i
T ile
ĠBuff alo
Ġpath way
INS ERT
ĠToy ota
++ ++
uk a
Ġm a
com plex
ph an
ĠAssoci ated
Ġmod ification
F rames
H tml
m und
Ġtrav elling
m itting
Ġsh irt
et e
ĠPart ner
T AG
f mt
ĠS r
Ġtempor al
ibli ography
Ġint ens
Ġport al
STR ING
rypt o
Ġwound ed
OR S
par agraph
ĠC elt
St eve
au kee
Ġbenef icial
Ġcle ver
Ġmot ivation
ĠB asketball
Ġc um
il ateral
Ġtempor arily
W W
PAR AM
Ġc ig
oc om
D igital
ĠSt orage
Ġan onymous
ĠD IS
Ġrecogn ised
br ace
r isk
Ġpure ly
Ġpl aint
view port
ĠS ter
Ġimpr ison
LO W
Ġcontinu ously
Ġbal anced
Ġsc rew
Ġaccur ately
Part y
ĠLink s
Cal c
ĠJess ica
Ġmag azines
ĠS old
ĠG C
Ġ" >
Ġinter vals
Ġred irect
An notation
ĠD A
ĠApp endix
c ott
Ġin coming
ĠM ental
ĠPro b
pi res
Ġc rap
Ġne ut
uck s
Ġrecommend ation
Ġind igenous
Ġ Ä
el ia
ĠL ions
Ġdesper ate
Ġlift ed
15 00
L ow
ĠF E
ĠQuest ions
yl an
Ġnom ination
K it
5 12
Not Found
ĠR ico
Ġpeace ful
u ition
Ġvari ance
Ġob s
Ġintern ationally
itte es
th lete
G roups
le en
ĠE M
Ġres erves
Ġremain der
s ong
) +\
Ġprevent ing
99 9
# {
un ks
with out
Ġpl acing
Ġdeterm ines
Ġsynt hetic
brit ies
ĠCo q
Fr iday
um i
J eff
Ġd ash
ĠHel en
Ġfurn iture
ect ure
ou rier
iev e
Ġs ys
Ġcl one
r ise
ĠOp port
get Id
f ox
ĠD anny
Dr ag
ai ro
19 26
Ġiniti ated
per iod
ĠV R
ĠSh adow
ĠL ocation
* ,
ond e
Ġpat ri
Ġstreng then
19 12
Ġqual ify
Ġrenown ed
C at
Ġnot ably
ĠSt ay
ol ia
ĠM end
m usic
Ġhistor ian
Ġt anks
in us
im ension
ĠPr im
Ġvac ation
m art
Ġconnect ivity
B uff
V ict
ere k
ĠJ ar
Ġport s
ĠPhot os
Ġw ise
op ath
Ġnew est
orient ed
ĠUn less
ĠU nd
et ed
Res p
ĠInd igenous
Ġent ers
n os
Ġworth y
ĠL I
ĠWAR R
ĠW ing
ounc ill
Ġrad ial
w br
Ġinhabit ants
d ie
Ġpre view
Ġox id
19 24
Man agement
ĠL ith
19 21
big l
ĠS ER
ĠB orn
art icles
Ġconflict s
Ġl oving
Ġpro sec
Ġfeed ing
Oper ator
g oto
ĠHung ary
ĠZ hang
Ġnon linear
Ġout line
Ġb om
ch air
Ġpl ates
Ġsmall est
Ġequ als
Ġcor rupt
g ement
Ġreal m
m atic
( .
ĠL ED
Ġbron ze
Ġ ----------------------------------------------------------------
ĠH appy
Ġdisag ree
ib e
ĠSu z
sp irit
Ġs ew
Ch ain
Ġattack ing
Ġi Pad
ĠPart icip
NO DE
ĠP oss
Ġembr ace
Ġdiscipl ine
f etch
ĠPhys ical
Ġent ropy
Or iginal
Ġloc als
ĠHor se
ĠRog ers
L em
och astic
" },
Ġpack aging
Ġa ired
Ġbuy ers
ĠPri x
Ġkick ed
Ġgeneral ized
App end
Ġthe at
ĠTy ler
Ch art
Ġsurg ical
ut ton
Ġrespons ibilities
Ġproport ional
ĠL ov
Ġr ab
ĠHar vey
B orn
ynam ics
Ġbi ology
T imer
Ġ_ ,
} }$.
Ġsc iences
Ġcorpor ations
Sm ith
Ġprot otype
script ions
sur face
Ġgirl friend
s ig
ĠA id
ĠPe ak
ĠWild life
ĠBat man
ĠN om
ĠDis covery
ĠUS B
ĠSpe aker
D er
ĠAss essment
\ _
r aska
Ġnot ify
18 90
oc c
Ġr ings
pat cher
l ia
Ġdis contin
g z
ens is
Ġbed room
valid ation
F iled
10 24
man agement
alt Color
Ġacknowled ged
Ġlabel ed
ip age
ĠIt em
bit ious
ĠF ly
Ġconfig ured
ĠC ub
ĠPat ients
M ust
Ġaccommod ate
ob a
Ġcur v
erv atives
Austral ia
os i
ĠT i
N eed
ĠU V
STAT US
Ġal umin
power ed
D ynamic
E U
Ġw are
Ġarr iving
ele brities
Ġrandom ly
ĠMount ains
F un
ĠST ART
Ġafter wards
N amed
Ġtrans itions
j or
Ġsh ower
Ġmod est
Ġin duction
13 3
Ġw avelength
Ġsatisf action
can vas
ĠMP s
Ä ĥ
16 8
Ġconduct ing
M ur
Ġp unch
ĠPro test
Ġpred ecess
du ces
acter ial
w aukee
ĠT amil
ĠTre k
ut o
b idden
Ġdistingu ished
ĠGe V
Err ors
ĠB order
ock ets
allow ed
ĠM umbai
oot s
Ġapprox imate
ek s
Ġfoss il
Ġpen et
y our
Cont ents
ĠO z
ĠMed ic
Ġs urn
Ġdis closure
Ġcle ared
ben ch
Ġconj unction
it ic
Ġl in
Ġrele asing
ĠPar ad
ĠAcad emic
Ġde ce
ĠQu estion
Ġsurve ys
Ġexcit ement
ge bras
ever y
load ed
Ġover night
Ġtag ged
ĠAm sterdam
B ob
Ġtr ap
Ġfe ver
run ner
o T
ĠCh rome
ĠPet e
ĠYork shire
er gy
Ġgr at
ĠBer keley
L IST
ĠM ob
Ġ ig
Sc ore
19 11
W AR
ist r
gu ide
ãĢ Ĥ
vert ed
Ġb ay
Ġdam n
Ġsubstant ially
ic ia
ĠVi enna
Ġat tractions
gom ery
Ġclass Name
d ue
Ġp ose
ĠT OP
Z one
Ġcor n
ĠĠĠĠĠĠĠĠĠĠĠĠĠĠĠĠĠĠĠĠĠĠĠĠĠĠĠĠĠĠĠĠ Ġ
che ster
t l
ĠC ash
b ane
Ġinitial ize
ick y
L ittle
ĠGl en
Ġit eration
Ġind oor
} }$,
ic ht
big r
rt l
Ġstrugg led
Ġgard ens
Ġsl ice
Ġwel comed
p ublished
." ""
Ġplace holder
Ġeth ics
ĠSche dule
B atch
ĠFl ore
Ġoccur ring
C ursor
, {\
F ailure
s ym
Ex tra
Ġreson ance
ĠVictor ian
ĠQu ick
ert on
boy s
grad le
}{ |
Ġpi pe
mit ter
ĠNash ville
ĠPubl isher
amp ire
ĠTH IS
Ġorgan ised
ĠMil an
BP ACK
rib ers
40 4
IL ITY
Ġinvent ory
Ġnormal ized
Ġspecial ized
ĠMon itor
Ġr iders
ĠC V
Ġpoll s
Ġcl ause
inter est
rel ative
whe el
Ġuser name
è ¯
Ġ ug
ĠF act
ĠE L
> '
is ot
ĠSh ip
Ġf mt
se lection
Sy ntax
ĠP att
D eb
Ġaccept ing
il ia
ol ate
Ġf etch
}} )
ĠS or
Ġthread s
ĠM iles
ĠD ennis
ĠStan ford
ĠNaz i
ĠNep al
ĠPop ular
ĠR d
Ġh iring
anc ies
sh ine
Ð ¹
ĠHall ow
Look ing
Enc oding
Ac ad
Ġun e
Ġcro ps
Ġs el
Ġ" %
Ġrat ios
Ġdi agonal
AC C
Ġelect rons
Ġvalid ity
Ġsh ar
b ug
ĠGener ation
S K
Ġlim iting
Ġfl aw
Ġoffer ings
Rep ly
Ġpro pri
Ġwealth y
N F
O s
Ġre ass
ĠL arge
Ġadv ances
Ġconsist ed
ĠMont e
ĠRes ult
int ers
ĠC uba
ar ith
g reat
ĠA str
erm ined
Ġviol ations
Ġread ily
ĠCris is
f ake
Sub ject
aa aa
ĠA V
ag ma
Ġjump ed
> %
at io
b ast
Ġdist inction
Ġenc oded
she ll
m ms
ĠL abel
Ġinsp ire
Ġtrigger ed
T ra
ĠY am
ĠAlf red
sc apes
Ð° ÑĤ
Ġtr ails
ĠH P
Ġa ria
re ts
ĠGr id
ĠS UMM
Arg uments
Ġtrans cript
Ġres ist
v art
ĠS Y
Ġactiv ated
Ġins pection
ĠDan ish
Ġprefer ence
Null able
Ex press
Ġcelebr ating
Ġfulf ill
Ġ$ |\
Ġcelebr ity
L ab
N I
Qu estion
in fl
o ard
ach i
at ivity
id ity
ribut ions
Ġmer ger
qu estion
;| &
ĠW ol
Ġtable t
Ġadminister ed
enc il
i ological
Ġdim in
Ġ\ !
ĠI BM
ĠRe ed
ĠĠĠĠĠĠĠĠĠĠĠĠĠĠĠĠĠĠĠĠĠĠĠĠĠĠĠĠĠĠĠĠ ĠĠĠĠĠĠĠĠĠĠĠĠĠĠĠ
Ġauthent ication
out ed
Ġb ubble
Ġinv ite
ĠCar r
Ġall ocation
Ġret reat
ethe less
ĠM ul
14 3
ĠH ab
ĠAn al
Ġvacc ination
Ġ' ',
ĠV o
Ġret ro
Ġsm ell
ĠOak land
ĠR uth
at om
ĠCurrent ly
C reated
erm ine
ĠGr ade
ĠS K
Ġg orge
Ġspokes man
Ġ æ
ĠG onz
ential ly
ĠAm bass
p n
ĠJ ama
min ipage
P an
Ġse am
ok u
v ars
ĠCon vers
ĠGard ens
k now
"> (
Ġcreat ure
c ery
he w
idd ing
Ġrem inded
product s
re a
Ġjust ify
B er
ur st
: }
Pr imary
? âĢĻ
ac a
ale y
Ġch apters
ĠMat hematics
Ġv o
S uch
Ġleg ally
Ġhapp iness
2 15
P ac
Ġl ane
Ġ' %
Ġcompos ite
Î ²
Ġqu it
s r
ĠW rest
Ġep it
Ġdecom position
J ose
Ġconst itution
Ġb other
ĠY ellow
Ġin quiry
Ġref und
ĠR idge
Ġsup press
Ġattr action
Ġcous in
Lo op
Ġw ard
ĠJava Script
Ġconfirm ation
Ġdis rupt
ĠMet ropolitan
Ġsacr ifice
Ġcred entials
ĠMont ana
Ġpul se
Ġefficient ly
13 2
">< ![
Ver ify
Ġcur riculum
k ers
Ġaggreg ate
Ö ¸
Ġprior ities
ap or
ri x
Ġnon profit
Ġmin eral
o qu
ĠC ounsel
Column s
Ġtact ics
tr ain
You ng
Ġap par
ĠCh arg
Ġn urse
Ġg al
Ġpoor ly
Ġsumm it
iz ational
U A
op ol
B us
Ġqu asi
TER N
or ic
Ġis ot
ĠJam ie
Ġshe ep
ĠR NA
. (
be ans
ĠJ S
Ġprogress ion
Ġre vis
is ch
ef e
0000 0000
Ġalloc ated
Ġreli ability
Ġarchitect ural
Ġmat hematical
Ġpartnership s
Ġped est
Ġinter ventions
p kg
ĠForm ula
Ġsurviv ors
b an
ĠR osen
ĠC inema
Ġcol ours
Ġcell ular
Mark er
Ġtestim ony
T yp
pos itive
Ġdrop ping
? !
m are
Ġearthqu ake
FI ELD
BU FFER
ĠEag les
Ġo h
Pl ot
Ġdest ro
$ _{
om eters
Ġb ail
ĠC apt
ĠD aw
ĠGrad uate
os opher
] +
: '
cont rolled
Ġhar sh
O G
he rence
13 4
Ġclick ing
QUE ST
ĠÂ «
w right
at ics
N eg
ĠC ities
Ġ< -
ili ary
ĠS cre
ĠMu hammad
Ġsubst itute
et ta
Ġval ued
ol an
ĠE ug
Ġdisappe ared
rit is
ĠDis play
ĠChem ical
ad ers
Ġfre ely
t ensor
Ġf ram
ĠLind a
anc ers
Ġam bitious
ĠAp plied
Ġden y
Ġlit igation
ĠM az
DE X
19 13
Ġrem oves
à¤ ¿
Draw ing
er als
Ġcom plications
ours es
ĠHoll and
Ġpra ise
T urn
aw esome
LO AD
Ġmod er
ĠPsych ology
Ġtr agedy
be it
Ġo ught
ĠF actory
Ġmem orable
Sh ared
Ġadm its
R ussian
Ġ@ "
M ag
Com mit
Ġgener ates
ĠMer cedes
Ġund ers
bro ok
Con sole
IC T
ĠV ermont
Ġbench mark
Ġc ats
Ġintrodu ces
ĠCh and
umb led
Cal ifornia
ĠBeaut y
EN G
Ġmed i
sw ing
Ġpsych ology
Ġoutput s
ĠWell s
ĠRet ail
ĠC IA
Ġnow here
inc inn
Ġmax imal
Ġpreval ence
j b
Ġre construction
Ġdist ribute
Ġden oted
ĠHig gs
Ġatt ach
p end
ĠY e
b eck
h aus
en vironment
greg ation
ar an
Ġdistinct ive
Ġmanif old
ĠTest ing
Ġkn ife
C oin
Ġun fortunately
Ġthreat ening
Ġridic ulous
âĨ Ĳ
Ã «
Ġdecre ases
ĠArab ic
ĠI celand
CC ESS
Ġindic ation
l int
Ġsus cept
= $
uc le
ator ies
Ġinsp iring
ĠIm prov
Ðµ Ð½
ĠW HO
qu et
.* ;
13 8
ĠÐ ¸
Res olver
am ation
m un
Ġper ipher
ĠLaw s
Ġplan es
gover nor
Ġeff icacy
Ġcompass ion
cons istent
,\ ,\
Ġwitness es
Own er
F ood
ON D
^* $
ĠFreder ick
ĠCP U
Ġsing ers
Ġreason ably
ĠO w
Ġd x
ĠR ac
Ġcompr ises
] ))
Ġdeleg ate
} )$,
Ġre ck
Ġdr ain
et own
LE TE
Ġr ic
ĠR alph
Ġca ution
d ensity
Ġint imate
ĠCon vert
ĠTour ism
Ġcab inet
F ive
ĠS occer
U nd
v ance
Ġfar ms
ĠCre ates
ĠR andom
ph abet
Ġcomp iler
ast ro
B ank
Ġconst itutional
ĠStrateg ic
Ġqu arantine
00 5
Ġpl ots
ĠHor ror
Ġbl end
Ġadvent ures
me an
Ġport rait
ASS ERT
Sign ature
Ġauthent ic
p her
an Ã§
Ġdram atically
20 3
Ġaud it
Ġconsult ant
Ġresear cher
ĠB A
Ġwas h
ĠS ymph
ĠAlex and
Ñ Ĩ
ĠCh art
Map per
ĠComm ander
Ke ep
im als
sc al
ĠAp plications
50 1
ĠMin i
ot yp
P ublisher
B g
ent ric
ĠB our
Â £
Ġcomb inations
unk nown
Ġdesk top
d ynamic
Con tract
Ġdiv ide
ĠNS W
ĠBes ides
Task s
Ġinst antly
ĠBut ler
Render er
ĠCom ing
Ġplay off
re pository
B its
ĠDirect ors
are l
rem arks
ĠK yle
Z ero
ancell or
Ġdes erves
IS E
Ġgame play
3 30
Ġrest art
Ġc attle
Å «
Ġqual ifying
Ġdiv isions
ãģ ®
Ġachiev ements
Ġo ct
fr ag
er os
EE E
Ġresp iratory
ĠT yp
CON FIG
n ational
D ou
Ġtravel ed
Ġso vere
incinn ati
pr ising
ĠInt roduction
Ġh alt
ĠDou g
ĠUs ers
k top
yl um
H OME
ĠLe o
ĠD od
ĠOr lando
Ġ ^{
ĠChem istry
ic ans
UT C
Ġtr apped
g irl
ĠB rief
M achine
ĠO m
ĠSh ows
Ġrhyth m
SCR IPT
ING S
Ġneutr ino
ra ud
Ġassist ed
uls ion
Char les
tim estamp
m ix
Ġnetwork ing
Ġcompr ising
inter pret
Ġreg ards
ri ends
str ings
ĠUkr ainian
b age
Ġd t
Ġterror ism
M ail
h n
Ġinc idence
S witch
Ġbuck et
ĠS weet
ent e
min ster
Ap ply
Ġle ak
as se
am ount
trans port
gener ation
c ue
Ġan ten
Ġtou ched
ĠR ou
int ell
) )$
ĠD rop
Ġsk illed
Ġf ights
Ġre lying
per t
ĠHe at
Ġindic ator
pol it
} ~
Perm ission
S aturday
C redit
per cent
ĠSw ift
ĠCare er
av i
Ġp iv
Me et
ĠL amb
Ġbehavi ors
ĠC ox
$ :
Ġsleep ing
ĠRod rig
Ġsl avery
G a
ĠK umar
AR G
ĠSher iff
Ġtok ens
ĠD elete
t ility
ĠProt ocol
Ġ[ \
I l
ĠE asy
ĠAr senal
Run ning
n olds
ĠTh ought
Ġmake up
ĠT ib
Ġhonest ly
= %
ĠUp dates
Ġsurprising ly
av in
IC AL
Ġpro st
al one
W ire
Ġdel ays
P acket
Ġend e
Ġg aps
16 9
ĠW IDTH
ĠJeff erson
ĠMyst ery
ĠLook ing
ĠP ok
ĠS urre
Ġche er
ab we
Å Ł
Ġsynt hesis
ĠU C
Ġblock ing
ĠB ever
ĠHallow een
ĠS afe
ip art
) }}
ĠR ather
Un ivers
s ing
Ġsp y
Ġpun ishment
ĠH ob
ĠG az
Add r
ĠÃ Ĺ
D ue
Ġev ac
refer ences
ĠC raw
Ġprest igious
ific ant
fil m
R UN
Ġf ame
ur ious
te chn
C y
c z
Ġrent al
ĠSom ething
W ashington
Ġtrav els
Ġpers istent
ĠS ymbol
u uid
) -\
T en
en za
Christ ian
Ġf i
Ġcond ens
Ġs ink
( ['
Ġinteg rate
ron es
IM IT
ĠMin or
Ã© n
ĠC ool
us k
ut ed
13 9
ĠF oster
ĠHug hes
H om
oc o
Ġsim plicity
ig g
Ġharm ony
h p
Ġrespect ed
Ġmac ro
Dem ocr
Ġm igr
Ġgener ous
å Ĭ
Ġmother s
Ġam end
ul atory
ĠSt uart
ĠA K
ĠB B
> ;
ĠO t
Ġmon ument
Ġalter ed
Ġlaw makers
20 5
Ġrefer endum
ĠB ald
IS S
Ġ{ },
Ġbab ies
T ouch
c n
ta x
F und
stats models
Ï ħ
ĠPal m
ag ar
Ġdis hes
Ġg ut
Ġprotest ers
Ġtremend ous
Ġconv ince
any on
M il
Ġle mma
Ġbl ues
Ġb out
Ġyour s
Ġul tra
Ġinn ings
gr ades
Ġreven ues
T alk
ĠCh a
re po
Ġfin est
ĠBrook s
Cent ral
Ġswitch ing
ra f
p it
Ġprivile ge
Ġelect oral
Ġderiv atives
eb ook
ĠG B
ĠF ont
itt en
Al ert
rang ian
Ġemer ge
Ġcent ered
it ud
ĠC ant
Î º
ul er
Ġdel icious
Ġexc use
Ġresid ual
U ntil
act ers
Ġd ign
Ġtherape utic
im en
R ules
Ġto ss
al gorithm
Ġpers pectives
ĠSp ider
" |
ĠU ntil
Ġchemical s
by e
00 2
ĠCh i
car bon
imb abwe
Ġfest ivals
osp ace
Re act
Ġappreci ated
h art
ĠR ugby
ĠR ice
ĠO UT
Ġch ocolate
ĠJul ian
Br idge
E conom
ĠAp ply
T imes
Ġdev iation
A xis
ĠS TE
ew s
ĠNever theless
ĠEag le
Ġpl ural
Ġpra ised
ĠC atalog
ob ic
Option al
com pute
Ġ" .
Ġgr ades
gu ard
Ġpros per
Ġc her
atter y
t re
Ġg ods
oc co
ĠT D
| _{
is ible
W D
Ġdep icted
um ed
Ġfuck ing
ĠCoal ition
Ġout lets
ĠJul ia
ĠSc ar
ĠM ine
ĠP ub
Ġdist ress
Ġreform s
Ġche aper
Ġharass ment
ol ation
Ġb icy
Ġcontact ed
Ġadvert is
/* !
rele vant
uck land
column s
ĠQu ery
uss els
C ancel
Ġsac red
ing o
Pro of
ĠHand le
Ġuncertain ties
R en
Ġdynam ical
R ows
Ñ ħ
Am ong
33 3
ĠI gn
Ġoccas ional
ĠH O
avor ite
ĠLi u
ĠCat hedral
ĠM ann
Ġj ournals
Ġproceed s
w allet
Ġh ills
oc ate
Ġen force
45 6
ĠP D
Ġinvest or
Ġsan ctions
ĠPr adesh
Ġl azy
Ġg re
ĠS ens
ra ise
m el
ĠC B
Ġaltern atives
ĠDel aware
Ġgu ides
Ġhol y
p d
> ()
ĠPresident ial
â ĸ
;\ ;\
tr ivial
S te
Ġelim inated
14 6
f av
R ound
ĠHu gh
Ġwitness ed
Ġal i
ĠK os
in is
w arn
ĠDer by
ĠSte am
Ġh oney
Ġspec ification
ĠL an
oll o
... )
ĠWall ace
r ison
ad oc
Ġanaly tical
ĠInd ividual
unc an
r ink
> [
ĠĠĠĠĠĠĠĠĠĠĠĠĠĠĠĠĠĠĠĠĠĠĠĠĠĠĠĠĠĠĠĠ ĠĠĠĠ
Ġbes ides
qu o
ump y
OT T
Ġconnect s
Ġthr iller
B road
ous el
Ġconsider ably
Ġapproach ing
Ġclin ic
Ġgrand father
sc hem
Cont ains
Ġp ays
Ġcount ed
anch or
Ġfif ty
Ġwith d
ron ics
ĠLeb anon
Ġbe ars
ĠS outheast
Ġg aining
20 4
Fe atures
Ġnurs es
let ed
Ġpain ter
ĠEdd ie
ul o
ER Y
Ġver ification
ĠC urt
Array List
Ġm aj
l r
UT E
S ide
Ġp ond
ch anging
ific ates
log ging
Ġcomb ines
Ġdipl om
ar u
av ier
ĠP ink
Ġs oc
Ġend less
Ġfl ed
Ġt ick
ĠLeon ard
v d
ian ces
ĠRe ally
Ġbath room
ro b
bl ob
Ġgravit ational
ĠCol lections
Ob server
ast ics
Ġcomm od
ll a
ĠColl abor
Ġag gress
Ġn u
sub scribe
Ġconf idential
Dep recated
Ġret rieve
Fr ance
Ġdescript ions
vent ory
Ġch lor
Ġtrad ed
Ġtong ue
ĠMot ors
ne utral
sl ide
ĠRE AD
ĠBob by
v or
ĠP apers
Ġfro zen
Ġatt orneys
ne ys
ãĥ ¼
Ġfle w
26 0
Ġinterview ed
Ġreve aling
Ġexp end
Ġm eg
Ġconv ex
Ġlic ence
B uck
Ġshock ed
s am
it us
Ġdr um
Ġpresc ription
ok o
/ )
ĠOtt awa
Ġv iable
Ġshow case
28 0
Ġar ising
Ġf ond
i eg
t ik
us r
Ġmanufact ured
Ġear ning
urs ive
N BC
p ine
ĠMarc us
Ġal igned
Ġtrans mitted
Ġass ists
B uy
M att
um at
S n
ĠI SS
Ġsp ray
G erm
Ġsport ing
R oman
b ai
Ġcomp ression
ĠRele ases
p el
ĠHol mes
sc ore
Qu ick
ĠKnow ledge
Ġpolar ization
Ġproduct ive
ment ioned
Ġstom ach
ĠEthiop ia
Ġbe aring
Ġd in
M ot
Ġshut down
p es
× ©
Ġun necessary
RE NT
ep h
ĠNew castle
Ġexcell ence
Ġm aker
th ink
Ġint ensive
Ġd war
Ġhand les
Ġthick ness
Ġthorough ly
ĠR angers
her ical
ĠT ampa
acc ur
econom ic
Ġharm on
ĠEv il
ĠPot ter
Ġsp are
Ġthe sis
Ġste al
Res et
N ick
Ġsound track
u on
t iny
Ð¾Ð »
× ŀ
f ac
ip ment
intell ij
H older
ĠPhot ography
Ġb ones
d jango
ĠSud an
B ounds
Ġprec ious
ĠB og
ĠAdvert ising
en es
Ġbu zz
,\ \
ograph ics
Ġimpact ed
Ġ" '
Ġtrad emark
Ġref resh
Ġcru el
ĠSUMM ARY
Ġto b
n ick
Ġmod ifications
ĠM T
More over
Ġpeak s
hol m
oun ge
ĠTes la
Ġcor ners
Ġsup pliers
del ay
` :
Ġn s
Sc ience
Ġc ater
io let
Ġload s
Ġ_ .
aff e
ĠTh under
gener ator
Work s
ah an
Ġembod iment
Ġe ighth
ub ern
Do ctrine
ĠTher apy
Ġextr action
Ġj unction
S ound
et r
Ġobl igation
ĠHar per
lear ning
ĠSp encer
pr ice
ble ms
ĠAv iation
K im
( --
med ium
g on
ĠR M
e ctions
Ġdest inations
Ġboy friend
Ġperm its
ĠCon nection
em it
Serv let
ĠElect ronic
m ans
Ġadvoc acy
Ġtem pt
W C
M iddle
Ġvari eties
ĠEm ployment
Ġpropag anda
'' '
Americ a
Ġtim estamp
Ġsuccess or
ĠCh an
ic ers
Ġv endors
Ġprov incial
ĠNeb raska
we i
ĠOr d
Sep ar
g iven
andid ate
13 1
A ff
V AR
ĠH annah
create Element
Ġare na
et es
Ġst ones
ĠD ad
SP AN
G N
ĠL java
ĠS erv
oy s
Ġtrans plant
19 08
Ġarg ues
Ġgen ius
ĠTru ck
less sim
ĠI ter
Ġtim eline
Ġentreprene urs
red irect
Ġqual ities
ĠViol ence
Met rics
Ġsort ed
C irc
Ġb ell
add ed
ĠReg ulation
ĠK ash
long rightarrow
ĠT error
Ġdeal t
15 7
Ġimport ed
ĠProject s
Ġess ence
ĠPartners hip
B ool
ĠP T
Ġres igned
ĠG MT
it ate
ĠH ERE
ĠRepresent ative
ĠW ag
im eter
pro port
Ġpros pects
ĠCry stal
Ġcount less
ĠCol in
ĠR ural
âĨ ĳ
Ġrel atives
ici ary
im o
Ġp sychiat
Ġesc aped
Ġplay offs
trans l
Ġemp irical
Ġp ist
14 7
Ġet ern
Ġall iance
: -
á º
Ġst ays
Ġsp o
includ es
c ancel
ĠS ame
ph oto
Ġn utrition
Ġhon ored
The ir
Ġsent ences
m ys
um per
Ġbeat en
ount ers
ĠSer ge
get Instance
J ac
Ġf ictional
Comm unity
ish ops
Ġmed ication
Ġprior it
Ġin ch
ss l
ĠS leep
ĠE ight
W ild
i ota
ĠE DT
ĠKE Y
Get ty
ĠEx pression
ĠĠĠĠĠĠĠĠĠĠĠĠĠĠĠĠĠĠĠĠĠĠĠĠĠĠĠĠĠĠĠĠ ĠĠ
ĠN ine
Sund ay
GL enum
ĠĠĠĠĠĠĠĠĠĠĠĠĠĠĠĠ ĠĠĠĠĊ
+ (
Ġsec urities
Ġsubsid iary
n ut
ph al
Ġel astic
ĠLe eds
Ġmethod ology
ec urity
Ġb er
Ġvar ies
( ()
ĠOrth odox
ĠĠĠĠĠĠĠĠĠĠĠĠĠĠĠĠĠĠĠĠĠĠĠĠĠĠĠĠĠĠĠĠ ĠĠĠĠĠ
Ġrend ering
Ġsub t
ĠIS O
Ġle ver
jack son
ec a
ĠT ournament
ĠNov a
O FF
ro c
Ġform ulation
xim ity
up dated
Ġex terior
Ch anges
Ġacc us
f m
Ġtim ely
è ¿
Ġav iation
Ġsqu ee
Â ±
Ġcar riers
F ixed
cor respond
ig ating
Ġtra its
Ġfil med
ĠC opy
O O
os er
ĠO H
atin um
ĠPar ish
Ġwarn ings
tr action
^^ ^^
Ġ{ %
ĠAct ivity
ĠFl ag
ĠHe aven
r and
R R
ĠF REE
Ġfight ers
Ġp ale
Ġcor rid
ĠMc L
Ġob server
Ġbrut al
Ġqu ad
Sever al
Ag ain
Ġ å
SO URCE
un lock
ĠRel igion
Ġm eter
Ġf s
Ġsp otted
ĠBr andon
Ġbi om
ĠColomb ia
ĠRoman ia
ĠR ams
ĠCH ECK
it ely
Ġdepend ency
ĠBer g
l ies
Ġh ilar
_ )
b inary
he ta
re peat
Ġsh a
Ġprec ip
ĠS oci
Us es
ĠColumb us
000 1
K ar
ibl ings
Be en
und les
Ġw x
L i
h im
Ġb arg
Tim estamp
Ġcor related
ĠNetwork s
ĠHe avy
pre vious
deg ree
ĠPier re
b ial
20 8
part icle
Ġdepos it
ĠSch w
ĠU RI
Ġcor on
Ġillust rate
Ġa u
w ire
Ġtr ig
L icense
Ġunf air
Ġreg ulated
En able
n ell
ĠN ames
Ġtoler ance
Ġl ips
Ġsoci eties
ĠRom ance
F H
Ġcl arity
è ®
Ġadvoc ates
ĠS uff
ĠBro s
Ġlength s
Ġlack ing
Ġsent enced
Rec ent
K S
Ġhold er
st ead
Ġincor porate
Ġpost pon
in ject
Ġbes ide
ĠBapt ist
Ġw ages
ĠK er
Ġ× Ķ
ĠTig ers
Ġsub group
Ö °
ĠPer u
ĠL L
ĠN Z
cr im
Ġc ord
ĠCh ase
trans fer
ĠPr ison
ĠBenn ett
c ock
Ġst ir
rou ter
Ġpress ed
D irection
Ġpar as
M onday
re z
ĠCh anges
quir ies
Ġd ashed
aj a
ĠPlay Station
bor o
z el
Ping back
ĠP av
umb n
izar re
__ )
CL A
ung le
B reak
ind ependent
Ġrece ipt
Whe ther
ĠM ull
2 12
) ",
p ointer
ĠN ATO
G uid
St age
ĠL oss
Ġdemand ed
ic ism
ĠL akes
Ġmin isters
in ology
Ġm esh
ogen esis
Ġt ales
H a
ast ed
ear ly
Al t
Line ar
th s
^{ (\
Ġconfer ences
Ġb ust
ĠGu est
Ġque en
ident ity
Ġchar ter
h ook
ĠV lad
ĠTreas ury
ĠStr uct
ĠF est
ĠK in
... ,
Ġwhere ver
Ġaw ful
Ġphil osoph
ĠClar ke
t alk
TIM E
ĠMc Donald
k ward
he nd
ul p
Ġk ills
9 78
ĠF ramework
qu in
serv let
Ġmot iv
ĠRes ort
Ġsurv iving
Menu Item
Ġdemonstr ation
ĠGu inea
WE BPACK
ĠN uclear
Ġbre w
com merce
F ast
t ot
Ġcomp rom
Ġc ure
ug gest
Ġhe x
Ġmicro sc
Ġreven ge
Ġrail road
ĠCom ponent
Com b
Ġlad ies
fl uid
Ġc and
G G
Ġsuggest ion
osh i
Ġthe ft
Ġhaz ard
ĠT rial
Ġquiet ly
RO W
ĠS ierra
l iving
r pc
Ġl un
ĠM ove
Ġen compass
ign ore
In ner
I ts
Ġcart oon
ĠIsa ac
ĠW ine
ĠAd ult
ex isting
Ġexhib its
Ġmo ist
Aut hentication
ĠPal mer
exp and
14 8
P rem
Ġport ions
op ens
ett i
Ġhistor ically
S plit
Ġpain ful
Per haps
Mart in
âĶ Ģ
Ġo l
M ic
Ġdiagram s
charg ed
W il
Ġab ol
ĠNorth west
Ġocc urrence
b undle
IMPORT ED
ela ide
Ġdis advant
F s
Ġ( %
ĠRoc he
Ġd y
Ġcub ic
Ġlumin osity
do es
ĠW ays
ĠJo an
ov ich
Ġsp ite
2 24
duc ing
read s
R eb
ĠM atrix
mal ink
19 05
ĠMont gomery
m apping
ĠB ir
Ġz oom
Ġre conc
Ġp od
Ġpro to
appropri ate
Ġp owder
Ġ\ ]
eff icient
Ġt ribe
Ġge ometric
Ass embly
act ual
ogn ition
amazon aws
ĠUg anda
m ons
14 9
Ġes cal
Ġur i
ĠT ools
Ġconc erts
Liter al
ncy cl
ĠHe brew
40 1
Ġpil ots
Be ing
ĠAr ctic
ent i
Ġrel uct
ĠP om
Ġrecall ed
ĠE t
abul ary
Ġl ingu
Ġdis patch
Ġmaintain s
ĠCh ang
jav ax
ĠB ak
W at
th ritis
Loc ale
ĠBo eing
ĠEx amples
ĠW ords
ĠG aming
Ġbackground s
O l
Gr and
t oc
arm ing
Ġgu ards
ĠSt ef
Ġsubsc ribe
ĠM ills
Constr aint
Ġpurch asing
ĠS V
ex ecut
Ġun ions
Ġdon ors
ĠMot ion
Ġelectron ics
am as
Se ason
ĠCal endar
Ġplan ets
ĠJ O
list en
ĠRec ent
Ġless er
M ir
ibl ical
ĠBry an
Ġrecip ients
Ġquant itative
ĠInst all
Ġamb ass
ot er
ĠEv olution
ud s
cl i
Ġanth rop
ed e
Ġce iling
ĠPo etry
Ġcycl ing
6 50
Ġv ic
Test ing
G ui
iov ascular
g ary
Comp any
F actor
Ġkid n
qu ire
Ġhier archy
an ol
Sh ader
ĠLl oyd
ĠH ours
M ilitary
c as
ĠB ach
ĠSal v
l ists
Ġsever ity
Ġam big
Ġbe aches
do ors
ĠBrad ley
ĠSquad ron
ivid ually
O lymp
ĠĠĠĠ čĊ
B ACK
Ġfor ty
Ġenjoy s
ĠImm un
Ġconsult ing
Ġto y
Det ector
ĠJosh ua
c aster
ĠH arm
ust ering
Ġpup ils
Ġsear ches
Ġc b
Ġf oster
Ġcor poration
ĠMA X
Ġmuseum s
Â ½
Ġprevent ed
V ery
ĠInf antry
Ġoverl ap
ĠLeg acy
E s
Ġenc ryption
ic ion
Ġbreath ing
Ġlast ing
ich i
Ġscript s
r ame
ĠTe aching
ĠG ift
Ġn erve
ĠP rec
Pr inc
erg us
uis ine
M id
Ġrespond ing
ĠDirect ory
ĠTom my
ĠCO MP
Ã¨ re
ĠS ah
ĠC anyon
ĠR S
** /
em p
m ust
== =
Al tern
à¥ Ģ
Ġbet ray
Ġsl ip
################ ################
For ce
15 1
Ġmark ers
A ggreg
ĠG E
ĠEx erc
class Name
Ġatmosp heric
Ġspir its
Ġconsider ations
ĠVen ice
es cope
ĠAct or
Ġpros pective
ul se
Ġrel ies
Ġunder way
Ġunve iled
Ġbatter ies
ĠShang hai
ann abis
Q ual
Ġin duct
} ))
Ġb eds
Ġ[ ...]
>< !--
he ets
ĠH aven
ĠInd ependence
c ursor
Ġ il
ĠM AN
Ġen roll
ĠHar bor
am o
Ġyoung est
S afe
is o
Ġpublisher s
ĠStep han
T ools
ĠM ik
Cam era
M ix
Ġdis abilities
al ink
Ġre wards
Ġvibr ant
C lean
Ġc ad
Ġcontinu um
Ep isode
per m
P REF
H ence
ĠCre ated
se cret
ator ial
ĠB ent
Ġtradition ally
ĠLie utenant
Decl aration
Ġout lined
Ġo d
Ġdem o
r ant
19 07
Ġsil ly
Del ay
In cre
Ext ensions
ĠGro ve
Ġdies el
ĠA way
15 2
ĠTre nt
Ġembed ding
Ġd amp
Ġnob le
ĠAl pha
ĠT iger
Ġhab its
Ġinev itable
V EL
ry s
ĠTh row
Ġover head
Ġrel ates
ĠS tra
A H
ĠD ame
Ġag ing
Ġser um
ĠUnc ategorized
w at
ĠE aster
Ġgl ory
Ġg em
Ġcivil ian
Ġp ip
he res
ĠCh uck
Rem ember
}} .
Ign ore
ploy ed
ĠMod ule
Ġ" [
Ġthro at
z b
Ġacc eleration
ĠMar x
pl ain
æ ķ
Ġbe ef
Ġv inyl
L arge
et itive
l p
ĠD I
ot ics
ext ensions
Ġover look
d isk
aus ed
Ġunder go
ion ic
ĠRey nolds
ĠAn a
Ġadd iction
ĠG it
âĢ ³
Ġconj ug
up per
math op
Execut or
th rift
n ai
Ġtri angle
I ENT
Ġmiss ile
ĠAnn iversary
ĠT ABLE
Ġfail ures
ex amples
Ġweight ed
ĠFle et
ĠMus ical
Ġbeaut ifully
st ri
ĠL ud
ĠJ ourney
Ġlapt op
C ES
ag ain
ĠPre vious
Ġclimb ing
Ġtob acco
ĠSub ject
ĠD ifferent
Ġst ub
res olution
writ ers
itu ency
Ġstruct ured
Ġterrit ories
or por
ĠG oth
Ġident ities
ĠV illa
D TD
ft en
Ġcontin ent
Spe aking
Ġun cle
ĠB ag
Ġperform ers
Ġemp ire
G ate
x f
ish i
Ġarr ays
ĉĉĉĉĉĉĉĉ ĉĉĉ
Ġtr agic
18 80
ĠJo el
m any
act ing
dis patch
Ġavoid ed
Th ird
ĠâĢ º
Ð¾ ÑĢ
15 3
fore ach
Ġstat ue
(' <
Y et
Ġtraject ory
@ {
ov ic
ĠR ate
ĠGreg ory
14 2
à¤ ¨
k el
Ġgot o
ĠP ont
Al pha
H ER
Ġsystem ic
ĠCD C
D am
ĠP f
ĠF acts
Ġasympt otic
Ġlast ed
ĠÐ ´
sol r
ĠD ol
com par
Com plex
am pton
ark er
Ġorb ital
al ias
ĠR ah
: =
ĠBr is
Ġscr ut
Ġpurch ases
Ġre construct
Ġal ias
Name Link
ĠA ber
ĠDef inition
Ä «
Ġcast ing
ĠB anks
ĠVeter ans
s ame
Ġpurs uit
S ir
st ad
Ġpress ing
in ent
Ġb oring
Ġreason ing
f eld
AT URE
t frac
ĠEffect s
Ġurg ent
c op
Ġre vision
oy le
ĠPro blem
Ġprov ing
ĠEth ics
Ġperman ently
i otic
p ent
ed uc
ill es
Ġstrong est
14 1
19 06
" /
Gen re
ĠOC aml
ĠNiger ian
Ġgrand mother
Ġswit ched
Ġdesign ing
-------- --
Work ing
}) ^
Ġcritic ized
gover nment
Ġshall ow
}) }
zer bai
Ġf ier
(" %
Ġminim ize
Ġrec ipe
Ġaver aged
ĠSurg ery
S ix
Ġbreak down
ĠB S
Ġdevast ating
W ORK
Spe ed
Ġdecre asing
ĠArn old
d al
Ġa pt
Ġsw ift
Ðµ ÑĤ
ĠPar se
d evelop
ĠG em
ĠV ideos
R ail
Ġmat hematics
U V
is ive
Ġc otton
Ġrecruit ment
M ah
F W
Ġle verage
Ġeth n
an aly
Ġlimit ation
ĠL is
ĠFl oyd
t one
Ã ¦
× ĳ
pr agma
off icial
yl on
ĠAnn ounces
L ater
ĠL ik
Read y
t m
Ġcou p
le af
ĠSer bia
ĠMil waukee
Ġexcess ive
Ġveget ables
Th ursday
Ġrem ot
Load ing
Ass et
ĠGil bert
ĠSU V
ri o
ER IC
Ġon set
duc ible
ĠB urg
19 09
Ġch ap
pl ings
ĠEnt ry
Ġrock et
Ġed itions
ĠN ull
ativ istic
L ee
Ġl as
ĠT ol
ĠAthe ns
ĠD awn
Ġse al
B rian
b u
Ġk w
ĠSw an
Ġexp atriate
cor rect
ear chers
ĠVAL IGN
ĠCO MM
or p
E nergy
ĠP rest
ro e
ĠSymph ony
V ir
ĠR F
ĠCar lo
Ġcurv ature
V ill
out es
Ġtable ts
Ġt witter
âĢ ²
18 5
ĠNov el
Web site
Ġanalyst s
D iff
ĠAl ways
Ġext ensively
vert ex
ĠId aho
ĠThe me
}} _{\
Ġc ached
ev es
21 7
ĠLu is
ĠHop kins
re ational
æ Ī
ĠCommun ist
Ġprohib ited
} ",
ace y
ard i
ĠAthlet ic
Ġsign aling
F ALSE
Ġloyal ty
Ġr ifle
Ġsim ulated
osp here
Ġbit ter
ĠÐ º
Ġas h
De ep
ĠPut in
ĠD ow
ang led
Ġbow l
int s
ĠHe ath
W O
Ù ģ
Ġdesc riptor
Ad am
ag ne
ĠHit ler
en berg
Ex ists
Ġ( {\
Ġcomp romise
sl ash
Al bum
< >();
Ġcorrel ations
R oyal
Ġshould ers
Ġtri o
Ġple asant
ĠMan aging
Ġantib ody
bers ecurity
D ry
Ġmut ations
H I
h istor
g re
Ġpoly mer
get Type
Ġl overs
Ġen rolled
ĠReb ecca
es a
Ġhor rible
Ġopen ly
ĠA uckland
Ġfif teen
rem ote
ĠNurs ing
Ġa apt
not ification
Ġd os
Ġred shift
Ġjud icial
ĠC ord
Ġpars ed
Ø ¨
ĠD iet
Ġsl aves
ĠCent ers
ĠJul ie
Ġbr idges
Ġgorge ous
15 4
ĠTag ged
av ern
ĠM ode
Ġtop ological
ĠNEW S
1 200
Ġphys icians
Ġappar atus
X i
Ġp neum
M IT
! </
Ġtrib es
n ate
15 9
Ġmort gage
Ðµ ÑĢ
Output Stream
Ġspons or
Ġaffili ated
ĠMur der
ĠP UBLIC
tri angle
ac ion
L ite
ĠFour th
ĠP owell
Error f
Ġview er
16 6
ĠP ars
ĠRail road
ff ield
Ġ' "
ne apolis
Ġprim itive
por al
av o
role um
it ary
cond itions
bass y
op al
w al
ĠBar ack
Ġform ul
respons ive
Te chn
z h
ĠS aw
Ġtr act
Ġrob ots
ke es
w ent
ĠWar riors
ĠIn valid
TH ER
ĠO ri
Ġstim ulus
Ġg ates
Ġr ivals
Ġele ven
pred ict
Ġavoid ing
Ġ-- ></
c v
ĠT at
Ġab oard
19 04
ĠV ers
lin ux
Build ing
Ġp ad
ĠC AN
Ġdat abases
C art
Ġsh ifting
30 4
Ġsacr ific
/ #
ĠF olk
Japan ese
Ġf right
se ed
ĠVol unte
not ify
Ã¶ r
Ġequival ence
Ex ecute
ĠM aps
ĠRun time
K en
c iation
ĠWord Press
Ġev olving
ĠBeng al
Ġimpro ves
Ġparticip ant
Po jo
f un
Ġ ĉ
å Ń
Ġwond ered
os lav
Ġwood s
Ġphenomen a
Ġm asc
Ġdevelop s
ĠTh ai
15 6
lyn n
Ġdis pers
set ting
Ġdis par
Ġdiff usion
Ġguitar ist
ful ness
il ogy
ĠA verage
Ġl oses
Ġaut onomous
d in
ĠC incinnati
Ġass ured
av our
Ġantib odies
Ch ief
ant om
Ġconst itute
est y
Ġn aked
ĠEngine er
establ ished
inter val
Ġsp ont
Ġdens ities
Ġbro ker
Ġgen ome
d ings
ĠN R
Ġwh ites
Ġnew er
ĠRec overy
Ġc af
ĠL ynch
ĠAndrew s
ĠMult iple
w ig
ang les
Fore ign
man uel
Ġcompl ain
m ot
ĠFor ward
P romise
ĠBa iley
5 50
Ġd irt
ĠV ert
L ess
Ġsl ower
Mod els
ĠGet ty
p aid
y t
æ ĺ
ĠMark ets
> ${
Ġfar mer
Ġn ost
ĠE sp
ĠZ oom
per formance
cc i
Bet ween
STR UCT
Ġhead lines
') ->
Ġeleg ant
ĠS ax
Ġstrength s
Ġl over
ĠR C
ill ary
Ġpolit ically
Ġex empt
Ġappre ciation
ĠH onda
ĠCar bon
Ġs ender
Rep ublic
ht m
ĠK B
ij i
Ã ½
Î ³
ĠD ylan
11 11
Ġrem inds
Dec imal
Ex pected
ĠRe uters
Ġiter ator
N umer
phant om
ct uary
}) =
Ð ±
ig hed
ific ent
Ġtal ents
Ġsuper b
Ġf ung
ĠLa unch
Ġt ender
or f
Ap pe
C hat
ĠTrans fer
w ikipedia
Tem p
ell ion
l ord
Ġp unk
ĠLog ger
ley ball
Ġchar m
ĠĠĠĠĠĠĠĠĠĠĠĠĠĠĠĠĠĠĠĠĠĠĠĠĠĠĠĠĠĠĠĠ ĠĠĠĠĠĠ
ĠG roups
Ġquestion ed
Sm art
aint ed
ĠForm at
ĠP it
In side
cept or
ro v
press ive
Ġm im
Ġreg ener
mid t
ĠR ise
omb ie
ov an
ie ge
Part ition
ĠC raft
W ay
Ġgl uc
ĠT ex
ise cond
Ġsk etch
Ġg ly
Ã© r
Ġimp ose
= .
ĠS ET
ĠDev ice
Ġprompt ed
re ne
on aut
ĠG PS
ĠPro ductions
Sh op
Ġconcent rated
ĠCab inet
ĠPublic ations
def er
Ġcomm emor
à ´
M EM
X Y
ĠGet ting
Ġwa ited
Ġc ake
Ġsc ary
Ġd rought
Ġse aled
Ġblock chain
19 01
m ile
he x
un i
Ġtyped ef
4 20
ĠR ush
Ġdefend ant
ac iÃ³n
est ers
Ġident ifies
ĠW IT
Ġselect ing
Ġcar ing
Conn ell
ĠExcell ence
ĠK i
Ġtransform ations
bold math
ĠWARR ANT
Ġp ile
ĠAust rian
Compar ison
fe atures
Spr ing
ib ling
Ġsimilar ity
ancell ation
Ġimm ers
Support ed
ĠS ites
ag ged
ĠW WE
ĠEv idence
ys on
ok ia
ong o
Rep resent
15 8
ĠW inds
Ġcoll isions
Ġste ering
Ġref res
Re ceived
im an
ĠRestaur ant
ĠI van
Ch inese
Ġwrest ling
ĠS ullivan
V ote
Ġt ier
un n
RE L
Ġsynt ax
M Y
if fin
Ġsa fer
Ġarg uing
S ol
ĠJeff rey
) }_
ĠIn flu
Ġ' #
Ġfilm ing
og onal
Ġf lesh
oc on
Ġman ually
mar ine
Ġhor r
Vis ual
Ġwid get
C md
Ġ ì
pe er
ĠSustain able
W as
Ġlist ened
Ġrem inder
Control s
Ġt at
ĠFI FA
Ġbre eding
ĠBill board
Ġn m
ire ments
second ary
Ge ometry
Key words
ĠT aking
IS A
ian e
in ja
Ġcrit ically
I mp
/ ?
Tr avel
claim er
in ement
Ġapplic ants
ĠGo ing
Ġc ant
ĠCh ad
ĠCook ies
Ġc iting
rol ogy
pt o
Ġr ats
Ġenjoy able
ĠEnt reprene
U PDATE
] $.
per ed
ĠMor rison
S ex
Ġth y
Ġfl ip
T uesday
Ġcap ac
ĠPH P
Ġsc ared
Ġsu its
Car thy
ĠG uild
Ġco oper
Ġjump ing
ĠExt ension
% ).
ĠP ER
Ġvill ain
ĠTraff ic
Ġtop ology
Ġv m
google apis
G RO
ox ic
ĠAh med
script size
ĠS nap
s ent
Fr ont
Ġhe d
g raphics
Ġrot ate
b ishop
Ġten ure
col m
vart heta
IN VALID
Ġrep ublic
Ġ` ``
ĠWARRANT IES
get String
Off ice
Ġdef icit
ve e
pe g
Ġgener ators
Ġcond itional
19 03
ys et
Ġcompr ised
int ent
================================ ================================
display Name
ou bt
yst er
Ġlocal ized
ĠCong o
Ġfru its
Ġatt achment
ĠCr icket
ĠM ead
k u
ĠD S
Ġr het
Ġmem oir
ĠW ere
R h
ĠB AS
ĠRe id
Ġutil ized
ang ered
Ġpres idency
Ġharm ful
ric ia
ĠBe hind
N ECT
u ably
ort ium
ĠLaw yers
ĠL etters
Ġneighbour hood
Ġscatter ed
ĠId entity
tik z
op ard
Ġpath ways
aw i
r ance
ĠB ears
Bi ography
n om
f illed
Ġexhib ited
ĠEll is
Ġfinal s
ĠIndust ries
Ġhelic opter
ĠVenezuel a
ie u
) &
at ility
}[ \
or b
f aster
pre ter
Ġsupport ive
Ġimpe achment
f older
Ġfin anc
Ġig et
ĠN as
ĠCitiz ens
HO UT
ĠGar cia
ĠTe en
ĉĉĉĉ Ċ
I K
ĠBy te
\ }$.
Ġmet als
ĠC ONT
Ġsever ely
Ġcrow ds
ĠR af
ĠAl z
Ġpan ic
Ġdisp ersion
product ive
ĠG ender
ĠP am
Step hen
ĠR aid
Ġsynt hes
ĠSh ield
C s
ol esc
im on
çĶ ¨
Ġex empl
ĠCl aire
ect ing
Ġp ause
Ġs inc
Ġf reed
CT ION
ĠG ates
p agination
b uff
pat ient
N EXT
Ġc oding
local host
Ġpseud o
3 10
F D
ĠG ET
Ġcontribut es
Ġà¤ ķ
ĠĠ čĊ
37 5
r ases
Ġde pr
AN GE
Foot ball
tr on
Ġrevolution ary
ĠLib ya
ĠA ub
Ġs ulf
ew ard
ĠNews letter
Ġseason al
ĠT ouch
fin ity
Ġd ont
ĠGu itar
Mat cher
J O
ĠW iki
E val
ut down
im ag
Ġthere of
ced ure
Un iform
I AN
m os
Ø ³
Ġint ro
ĠJes se
ĠB uch
Ġor chestr
ĠSe bast
Ġacc idents
Ġpractition ers
ĠMod els
ew ater
Per iod
g ems
ter ms
ĠAdd ed
Ñ ĸ
alth ough
l atest
ru ce
Ġfrag ments
Ġout rage
30 1
us age
Ġrenew ed
Ġinv ented
ĠSh ore
Str ucture
Ġtr unc
ĠWrit ers
ĠT ests
ĠG D
Ġhel per
Ġrecycl ing
ĠBris bane
ĠAnt ar
Ġf el
ĠM Y
&= &\
Ġfunction ing
ĠFr ances
Ġche f
ĠWork shop
Ġd w
Ġpro position
ĠPer fect
ĠDec ision
Ġint ake
ĠBe havior
Ġassum es
Ġlect ure
Ġp ier
Ġ' @
A ctions
) *
Ġprem ises
le vard
Ġg i
ĠÎ ±
Ġvit amin
ĠDi pl
ber y
ĠLuc y
get Message
J ew
hel ial
Re ason
Ġundert aken
T l
ĠE S
Ġlink ing
process ing
ĠH ack
ĠFil ip
Ġphil osopher
19 02
ĠL if
Cert ificate
ĠSer ial
Ġcontain ers
pr us
Ġm s
ure ment
Ġacc red
Ġincre ment
ope z
} >
Trans ition
Ġneur ons
ĠUlt imate
ĠHom es
Ġnation ally
Ġperturb ation
Ġdr one
ĠLaure n
Ġde grad
ĠP ool
Ġcatalog ue
Wed nesday
ĠM IN
enc oding
LIC ENSE
s ources
ĠW on
le v
Ġind ividually
block s
Ġliv est
ĠAsh ley
ival ent
es ity
Ġbet ting
Ġshare holders
S ent
Ġaest hetic
tool tip
Ġadvis ory
q q
ĠT ours
in itions
in vest
ĠMun ich
Ġaccept s
T own
enc ia
Ġ elli
Ġcat ast
gl ob
] ).
ĠCert ificate
Ġaw kward
project s
." )
FFFF FF
Un fortunately
Ġdraw ings
Ġfinal e
9 11
ĠStev ens
ĠGener ated
ias m
Ġun comfort
Ġneg lect
ĠB U
C ome
Work er
n is
Ġ- =
Ġfoot print
Ġte ens
Ġcoh ort
k ernel
Ġc atal
cl er
Pe er
K n
Ġcelebr ates
ĠAngel a
ĠTrib une
ar as
Ġp el
ĠDr iver
Stud ents
Ġl ig
Ġev olve
Ġinsert ed
Ġinaug uration
c ence
Ġcred ited
Ġinter fer
Ġunder graduate
A wards
Ġ ib
Ge org
CRE ATE
Y S
et c
Ġback s
Ġhom etown
Ġex clude
Ġchar ming
ur as
ĉĉ ĠĠĠ
22 2
Ġm ate
Ġutil ize
ĠA x
Ġadvis or
Ġg el
Ġsu ited
the m
Ġeval uating
year s
gl ass
4 80
ĠS ak
Ġjew el
Ġaccompany ing
ond o
Ġrel ay
ĠW end
ĠF ut
ĠAc cept
Ġvolunt ary
ann ers
w i
ĠDis c
$ &
ĠA RE
Ġneighborhood s
Ġb ump
Ġpurs uing
Further more
St ub
ĠT all
Ġencour ages
Ġn est
ĠE instein
Ġcell spacing
Ġconsum ed
ĠSp ons
Ġop posing
Ġep och
Ġdiscret ion
ĠG ang
ĠGl enn
ĠDist ribution
Ġwrap per
ting ham
c ref
p ref
Ġdeterm in
Ġvers e
h pp
Ġl ob
ĠM M
Ñģ Ðº
p odcast
parent ly
Ġgover ned
D istance
Ġw reck
D ark
in ical
W ood
ev ille
Profess or
pos ium
ĠG and
ĠCon cept
Ġsu cc
Ġv endor
itud inal
ĠOcc up
ĠAmbass ador
ĠBrig ade
ĠEnt ity
T our
ĠLyn n
Ġsm iled
ĠAd m
ĠAm anda
T X
process or
ĠH our
roph ic
E ric
ios ity
CM D
ambig uation
work er
iod iversity
Ġtransc ription
G s
Ġcriminal s
Ġinter faces
Ġreserv oir
ĠFlore nce
Ġshe ets
Ġdis cre
Ġspokes person
Ġbook ing
ĠMod al
å ľ
}_{ -
Ġfig ured
ĠCelt ic
ĠCo ffee
.... ..
ĠSol id
ĠP ray
ĠÂ §
C odec
Ġug ly
ĠBr ady
Ġdon or
get Class
sd k
ĠT itan
ĠC ounter
Custom er
S eq
al ter
el ong
em e
ĠWH ERE
con current
fr ames
Ġlearn s
Ġt v
ĠMen u
ast ing
Ġtrans verse
Ġ Ã©
ĠV M
Ġart ic
reat ment
Ġrespond ents
Ġan omal
ĠS TR
ĠT ut
AN N
ĠDes ert
Ġpenal ties
comm end
Ġpract ically
ces ter
m ers
Ġcell padding
Ġsculpt ure
Ġatt itudes
Ġam ateur
EN S
ĠAssoci ates
Ġ$ ,
ĠV ic
ST ART
Ġcor p
Polit ical
L im
ĠB ound
ek ing
Top ic
20 6
Ġr ises
ĠQ atar
Ġintr insic
ĠK ur
ĠTr inity
Ġâ ĪĴ
Ġind ie
Ġun ited
ĠW ong
Ġcol ony
Ġcivil ization
A f
ĠW indow
met ric
Ġtrans fers
ĠT err
pos able
100 00
Ġded ication
2 11
G al
ï ¬
Ġw and
Sh adow
pay load
max cdn
ĠG DP
br anch
Ġcas ino
ar in
ĠPl ans
cf g
ĠHung arian
B ul
] </
ĠL il
N orm
a ed
ĠZ imbabwe
Ġ\ (\
od ic
Ġhom ogeneous
ĠP and
Ġautom ation
Diagn ostics
ĠTr av
v iol
g ather
il ine
ĠDemocr acy
c art
f p
ĠFl ow
art en
ĠD iana
or se
ĠRem ote
Ù İ
ĠN icol
ĠDev il
ke eping
Pro s
annot ations
sc reens
Ġins ult
Ġred und
ĠK re
Trans lation
s yn
pos itions
Comp are
h d
Ġl ighter
Col lege
ĠCrit ical
Cl ub
let te
n atural
Ġportray ed
Ġmut ation
en h
Ġgen res
ros so
f requency
âĢ¦ ..
Ġpat ron
list ener
od ia
Ġconv iction
ĠField s
ĠHe ights
Ġc ute
Ġret riev
ÃŃ n
math it
Ġinfect ious
in ist
Ġevolution ary
cam era
ĠRem arks
ĠIn frastructure
ĠVal ues
Ġbe ats
Ġpat rol
Group Name
ĠA sp
ĠB T
Ge V
Ġst iff
(" \
Ġdis closed
Ġbo om
Ġd ent
Ġvis a
D ead
ri ans
ĠD epend
../../ ../
A ge
Ġfirm ly
H H
Ġpot ato
it ated
Ġremot ely
Ġ um
ĠP andemic
ĠR B
ĠGib son
Ġsubstr ate
Ġis instance
ard on
opt im
no frame
ĠRen ew
Ġre ver
ĠE ncycl
ĠGr ass
ĠON E
us a
dec ode
Ġathlet ic
text ure
Ġmand ate
ap hor
get Attribute
F all
Ġwe aken
p ark
oy age
Ġment ions
Trans fer
Ġa thlete
ĠMe asure
ĠGab riel
Ġball ots
Ġuniqu ely
Ġaccording ly
Ġimm unity
Ġnort heast
Ġancest ors
Ġwithdraw al
' ].
Ġd ock
atter ing
ĠExhib ition
Ġdec iding
ceed ings
Ġ} {
ĠT as
ĠI MP
Ġte aches
Ġinv itation
Ġur ge
R o
n as
23 5
ĠTR UE
Ġmart ial
Ġelev ation
ĠBel ow
he tt
Ġ( ;
umb ent
ĠN ormal
At l
Ġcreat ors
Ġill um
~ {\
mod ern
Ġconcept ual
Ġ ,\
Ġalt ogether
our g
Ġ" ${
Ġflo oding
Ġb ugs
Ġun stable
ĠPen insula
ĠS olution
ĠAd elaide
Ġgrad uates
Pr im
Ġtouch ing
ĠHero es
ĠR AM
ON Y
Ġepid emic
T unes
Ġh i
Ġre un
Ap pro
T ip
Ġs q
inc ome
Ġcontinu ity
ĠIll ust
Ġr am
Ġout look
in antly
ĠML B
Ġexp ose
ĠL uck
ad os
ĠD uncan
Ġstation ary
Ġhead line
mat ches
ou x
ĠD ebug
Ġvari ability
P aper
Ġcapt ures
s il
Ġposition ed
ĠPalest ine
id y
Ġfund ament
Ġir r
Ġro ok
16 7
Ġdr ift
Ġmet ast
M ex
Ġnot ified
ĠEll en
in ars
ur ated
ĠD rew
Ġch ol
ĠRel ated
Ġs i
Ġenc ounters
nob r
Def ined
ĠCam era
own ers
ĠVAL UES
Ġsnap shot
ĠH av
Ġprint f
Ġinvestig ators
ad ic
20 7
Ġa irlines
Ġtour ing
ĠQ B
ade qu
Ġrub ber
con tract
ĠCy cl
end point
g p
ĠÃ ī
Ġv ine
u ant
ĠR ena
Ġco herent
Stud ent
)) \
ĠDav ies
Ġv intage
Ġc ens
ĠF ilter
hand ed
ĠA er
op am
Ã¡ s
Ġexerc ises
Ġsh ake
Ġsuper hero
associ ated
æ Ĺ
Ġtoile t
ĠN ak
Ġdou b
Ġsent iment
Ġpun ct
ĠPear l
S i
Ġd Ã©
he y
Ġqu arters
Cor onavirus
ĠK as
Ġsoc io
Ġto ys
Ġdiv ine
V IS
ant ics
Ġgar age
ĠFA Q
ĠH i
Ġ| =
ac ious
Ġk g
Ð ³
Ġmanufact ure
f ailed
Ġb ush
St ay
ĠWel come
G reg
ĠMunicip al
" ];
ĠCl iff
Ġterror ists
s an
Ġsubsc ribers
Ġo c
ĠM ask
gg ed
OTT OM
R ank
ĠFellow ship
ol and
ĠPrinc ipal
ĠC ed
ĠS ox
Ġl l
ĠReg istration
Ġ" )
ĠB lo
( /
at omy
Ġpresc ribed
ram ento
Ġj okes
stack rel
gr at
gener ic
ber ger
G IN
n ar
ĠF iles
[ [
Ġb ub
S orry
Ġimp air
Ġterr ain
schem as
Ġstory telling
ĠLegisl ative
M esh
bo at
Ġpri ests
ĠNor folk
Ġmid st
Ġanaly tic
ĠThanks giving
ĠRep orter
Ġexpress ing
ĠM ig
Ġfort une
Ġ======= =
ĠSc ore
ĠCan al
od el
eg an
Contin ue
ĠS z
Ġ" ;
AR RAY
Ġla ug
WA RE
Ø ©
pro c
me asure
v endor
~ (\
Ġbr ave
rel ations
est e
ĠK un
ĠTop ics
d it
Ġa z
Ġsup rem
RES ULT
ovak ia
Ġrelax ed
f uture
Ġenter prises
Ex pect
T uple
B rien
w y
ĠT ow
Ġspl itting
lect ric
W IN
CH AR
Ġtw isted
ĠÐ ¾
50 9
Us ed
Ġpharm ac
urre ction
an ese
ett es
post s
Ġcos mic
D ER
Ġf et
Ġl y
Ġri ot
ĠEm bassy
W all
BO OL
ĠAl ert
uff le
Ġdon ate
ĠArg ument
ĠAdvent ures
IT LE
Ġf ence
Ġ' -
tain ing
Ġp ian
] $,
B on
ĠB ec
Ġfund raising
Ġtransport ed
Ġo m
cent ral
ĠL ed
IT S
C AP
To o
equ ations
commun ications
h ig
ĠSec urities
script s
ĠBul let
ag le
s ed
Ġar ises
Ġtechn ically
ĠSup ply
p oll
Ġcompar isons
Ġde prec
ĠRev enue
() ">
ĠTrail er
ĠC ov
ri ages
Ġso ap
ĠS ara
Ġshe er
Ġsupposed ly
ĠY ale
t ically
Ġfr ank
Br anch
L iber
Ġcre ep
R oll
ourn aments
P ush
TE X
r ina
Ġac claimed
Ġc raw
st own
ĠSh ir
ĠIm pro
}} ^{\
N othing
Ġknock ed
ĠA A
ĠChap el
ĠM N
ĠD L
Ġham mer
orpor ated
Ġpass ive
Ġbre ed
Inst ead
ĠSy nd
Ġdefault s
Ġneighbor ing
in el
ĠNic ole
ĠH ydro
Ġconf irms
ĠL iv
m inded
ĠA ur
Ġam ended
ĠGL int
ĠPre view
ĠLicens ed
ubl ish
te le
s ix
S aint
Ġper f
I ran
E A
Ġl od
Ġp ound
Ġre nov
Ġprodu ctions
File Name
ĠT ags
at z
the ir
ĠPos ition
Ġthr illed
ĠAb original
Ġhon ors
p ie
ĠO wen
Ġlaug hed
ĠR anch
ĠIn come
Ġpal ace
Ġcancel ed
Ġpron ounced
Sh arp
Ġreg istry
T ex
mer c
Ġd ive
ĠK end
ĠAr r
ĠG ra
Ġrun ners
mark er
Icon Error
K now
V ec
Ġstre ak
Ġemb ark
W ould
add Class
Ġcr ude
99 99
Med ical
> `
Ġg reet
Ġpro ximity
Ġcoll apsed
L ines
Ġcrit erion
ĠImm igration
ĠRe ality
Ġn inet
Id x
à¤ Ĥ
and ez
ĠP ages
Ġoff shore
g old
ith metic
ĠL ac
Ġcontract ors
ĠS ed
ĠIn tern
Ġstud ios
ĠF ergus
Ġcr ick
Ġstr ains
Ġmark ing
Ġp ec
Ġr ushed
og o
ĠMan ual
Ġpur ple
Ġpl ed
Ġsur pass
Ġappe aling
Ġtweet ed
Ġg rief
Mod ern
Ġexp ans
ĠP eng
External Task
contin ue
Ġr ides
Ġc elebrities
Ġreg ret
="../ _
Mult iple
ĠAng els
] =
ĠCon duct
ĠN y
ĠG ross
ĠCon sole
dist ribution
Ġtend ency
Ġcivil ians
ĠEduc ational
ĠBarn es
V an
j k
ĠC ategories
ĠP orter
R ussia
ĠBeaut iful
ĠV it
ĠS ector
Ġpro long
we ak
is le
fr agment
16 2
Ġfac ial
& &\
3 40
o ct
Ġac ids
Ġrele vance
bel iev
ĠB in
N U
ĠSurre y
ĠT ickets
Ġst ance
Ġan notation
Ġinter ven
ik er
f re
Ġwhe at
ĠEl se
Jose ph
or ange
Ġst y
ĠSim pson
es pecially
Ġdis charge
Let ter
Ġ" #
ĠC ork
Ġtwe ets
op ened
sim ilar
Ġg a
Im ages
ĠOpt im
ĠR EC
Ġle ar
Ġaccount ability
Ġtim er
PH P
we ets
ogen ous
Ġlo ops
F K
Sen ior
ĠScholar ship
eng es
cl s
ExternalTask Pojo
D a
Ġlog istics
u u
ount ain
Olymp ic
ĠSc ene
Ġnecess ity
Stat istics
ĠF T
t imer
IconError Encoded
Ġin k
ĠJos Ã©
Ġreal ise
SH A
Sc an
ĠK oh
oc ide
Ġr outer
script style
Ġden om
l ings
com ments
ĠGr iff
Ġautom otive
Ġpuzz le
ĠW er
ĠAs k
ĠJ ets
Ġt issues
Ġh alo
Ġassert True
H ook
ĠFem ale
ell ites
sec ure
L es
ĠTrend s
h ydro
ver ify
Ġabs urd
Pac ific
dr ive
Ġimag ined
ĠAr med
Int ent
ĠH ip
Ġassemb led
Ġr ay
Pro duction
ĠAbb ey
Ġret ire
uch i
Ġnomine e
Ġland mark
Ġs ang
as ide
ĠT C
Ġelect romagnetic
Ġconv inc
ĠQ CD
Ġnorth west
Â ´
Ind ust
ĠW ake
Ġinteract ing
C annot
ĠAndre a
Ġnav al
Ġdr illing
Ġmon sters
Ġm ud
ĠY emen
D aily
ĠO g
Ġhe al
16 3
ĠV ac
ruct ive
odynam ic
ĠM ight
ĠF lo
Ġs iblings
esc ape
f w
Y P
amb ia
Ġt ire
Ġsurn ame
Ġref ere
ĠDev on
d td
Ġsoon er
Ġre he
Ġcompat ibility
Ġab normal
Ġcitizens hip
ĠSh in
Ġorig inated
Every thing
ĠF ALSE
te enth
Ġkin etic
Ġposit ively
parent s
Cal endar
Ġinflamm ation
Ġloc om
e er
Ġposter ior
Th ings
cp u
Ġrefer enced
ĠWest minster
Ġc ement
ĠGL enum
Ge ography
16 1
Ġdr agon
Ġteen age
/** */
sm ith
ĠExper t
focus ed
It alian
Ġindic ators
Ġinaug ural
ĠSett ings
ĠW ave
Ġcharacter ization
pl aces
Ġinst ability
ĠGl obe
Tr igger
%%%% %%%%
inst on
Ġlaugh ing
" ])
I p
Ġinter im
Ġhilar ious
Ġinf ant
fort unate
Sup pose
21 4
ĠTib et
ast ically
Ġhom osex
K evin
Ġdisc overs
Ġor chestra
ĠManufact uring
ĠR an
Ġ< ?
Ġpresent ations
ĠBudd hist
p ersonal
ĠLag rangian
ĠGuid elines
C op
d id
26 4
Fix ture
Prior ity
ĠV as
ob ia
Ġby pass
Ġpres ervation
ĠWat ers
FLAG S
ĠJ et
Ġwat ches
Ġpreced ing
Ġasp ir
ĠPl aza
met rics
Ġd airy
B ASE
om p
ga e
Ġgrad uation
om ics
pos er
String Builder
order ed
ĠL odge
Ġdig est
Rad ius
Ġacc ent
comp act
Ġcard iac
m itt
An aly
emph is
ĠLead ers
D isk
Ġplant ed
ĠB ee
we ather
Ġsup plier
Ġt ile
ĠPost s
Ġresil ience
E th
comm ended
ĠAn imation
pay ers
ĠH ood
Ġadjust ment
Ġtr ash
asc ade
ĠC and
Ch icago
ĠRat ings
Ġblog s
H o
Ġcontext s
ĠT ales
ĠEqu ity
enz ie
an ian
22 3
fl ush
Ġj am
Ġbi ography
Ġflo ors
Ġb izarre
care t
Ġdis ruption
mon ary
ĠUl tra
draw able
Ġadd r
Ġreflect ing
ĠT anz
â ĺ
re li
Ġcorrect ed
Ġcul min
8 50
Ġimag ery
Ã ¯
ĠColon el
Ġto oth
ĠD erek
ĠHis panic
\ }\
ĠPop ulation
âĢĻ :
18 70
Ġmid night
pi pe
e clipse
ĠSup erv
Ġdisput es
ĠAud i
ĠDis cussion
m icrosoft
en os
ĠPat ient
__ ,
Ġband width
f ood
empt yset
sub Nav
ĠBr ussels
ĠCh ain
Ġexplo it
ĠReg ulations
ject ure
ĠDom ain
ari us
Sc ene
18 8
Ġgrab bed
ĠChron icle
ĠChar ter
Ġuns uccess
oca ust
Ġpropag ation
play ing
le igh
Ġpro l
ell ular
00 3
Ġdis close
Bo ard
tem perature
Ġtun ed
w yn
Ġth ir
18 50
Ã ī
ĠA chiev
art et
ot on
ĠB und
faster xml
it ars
label s
ĠTe a
; %
p ared
ĠGen eva
L M
n z
ĠPer th
to Equal
in as
17 6
Ġmess aging
Ġkid ney
r ans
ĠD uty
Ġz ip
stat ement
Ġspec ulation
Ġspect rosc
ĠMu eller
author ized
LO B
Ġap ple
Ġtr aces
ĠTerrit ory
Un ique
Ġst ochastic
ĠMc Carthy
Ġdepos its
Ġpre jud
Ġlog s
Ġs ailing
app ings
D ear
Ġd s
Ġimport s
ĠLinked In
ĠEm irates
Ġsem ester
Ġvulner ability
Ġj ets
Ġpromot es
}} =
Ġcirc ulation
ĠC ertain
Ġsubst ances
Ġinter pol
Pr ivacy
Ġvirus es
it zer
Ġst raw
S in
on er
loc ale
Ġdou bles
Ġb ite
ĠV P
ĠLog an
ĠHur ricane
p k
Ġsell s
Ġconf using
ĠH BO
Ġreal ised
Mod ifier
! \
th ood
Ġdeliber ately
ĠP ref
ĠI v
Ġch iral
Reg istration
ap ps
=" {{
Ġeconom ies
ĠArm strong
Ġen code
ĠCroat ia
é Ģ
Ġenthus iasm
ain es
Ġ' _
Ġp ap
Ġpresum ably
ut ory
med skip
Ġsound ed
Ġsaf egu
ĠPr ide
d ifferent
Ġexped ition
ad vert
G it
Germ any
ĠF ear
ĠIS BN
crit ical
ĠSus sex
e ous
intend ent
ĠF amilies
Ġintim id
RE AM
uff ix
Ġstress ed
Ġflag ship
Ġsen iors
ĠClin ic
ĠHend erson
un al
se gment
att en
Ġcontribut or
T i
c mp
d frac
vent ional
Ġan x
ĠZ ion
um atic
Ġcl oth
Ġins isted
umbn ail
ĠMin neapolis
Ġswe at
Ġl ag
Ġbehavior al
Ġdef ender
Ġm apped
es ar
Ġshock ing
) })
Ġcon figure
Ġpop ulated
IN IT
av ia
Ġhospital ity
Ġstar red
Ġfre ight
k ill
Ġrecru iting
ĠAlz heimer
ĠG ren
18 60
ĠA CC
eg al
ĠAz ure
Ġ uk
LE T
Ġmem or
Ġassess ments
Ġbrows ers
ven ile
ĠCO M
Ind eed
Qu est
Ġint end
16 4
Ġphot ons
ne ath
ĠBre nd
constr aint
CO UNT
Ġbl essed
om ore
ace ae
W estern
h it
abb ing
ĠSt ack
ĠLGBT Q
Ġuncomfort able
ĠH M
Over all
ĠWalk ing
Ġspr int
ĠYan kees
r v
or um
Ġec ological
3 25
ĠS qu
Ġloc ate
anc o
27 5
or ian
Conf irm
ĉĉ Ġ
Com pletion
Per formance
C trl
AN K
ĠF ourier
ĠJ in
á Ģ
ict s
Com ments
F ill
ĠTh reat
Ġover r
Ġl akes
ĠTh ing
Ġret ros
Ġcol ored
For ward
ĠHer bert
Ġd umb
Sl ot
ĠH ear
Hash Map
ESS AGE
Ġemb ry
Ġrepro duce
Ñ Ī
A Z
ĠB row
ĠR us
Ġfavor ites
Afr ican
Ġsub div
ĠMon ica
Ġcatch ing
Ġim perial
EX PORT
C UR
Ġcoord inator
Ġins pect
ĠCont roller
ĠWell ington
IR ST
Ġsimpl er
En umerable
h orn
Ġalgebra ic
ĠCh at
Ġport able
ĠT ypes
ill on
ress es
row Color
depend encies
Ġguarant ees
ĠM t
E F
n ings
ĠContin ue
lett ers
L T
st ed
ĠTw enty
Z oom
Ġsouth west
Ġglass es
C SS
Ġtr illion
J ud
T exas
Ð¾Ð ´
V S
ur an
pr act
ĠCont est
Ġn inth
ĠShe ll
ce ans
ĠAnn ie
p f
Ġcoord ination
ĠM olecular
Ġch ase
ur bs
ee per
Ġh aul
ĠYO UR
Com ponents
ĠRay mond
cknow led
u itive
lo e
Ġbroadcast ing
B rown
Ġappro ve
ĠE PA
ä¸ Ń
ĠBulgar ia
Ġupd ating
ĠS B
Ġst arter
Ġacc ret
Ġreview ing
ĠWIT HOUT
Data Type
i q
17 7
ur ally
Ġsex ually
ard less
Ġinnov ations
P ipeline
aw t
ol in
ĠH S
Ġaccess ibility
ĠF erm
Sc ient
In jection
oy a
ER N
ch unk
Ġfre el
m aml
Ġfaith ful
ĠRequ ired
desc riptor
Ġg ambling
Ġess ays
Ġillust rations
} |\
18 2
sl ider
ĠAtt ack
" ?>
Ġs ung
S us
un ge
ist ani
the se
ins ky
Ġprot agonist
U nc
hed ules
? </
ĠBre tt
Ġm ines
18 7
compat ible
an mar
ĠK ick
ĠH unting
ĠConf ed
H u
Ġsocial ly
Ġcompl iment
Ġinc ub
Track er
ĠA ri
ĠSc ale
h aul
ch ief
Ġtravel ers
IF I
Ġlicens ing
Ġch ore
sh ots
na ire
ian i
ab ove
Ġfat igue
Ġin complete
ribut or
F red
Ġhe ated
ĠRon ald
k an
Ġinteg ers
Ġb ishop
ĠB uffer
hell o
ĠB ug
Get ting
Ġrandom ized
Ġbill ions
ĠH ass
. ',
p ipeline
ĠK arn
u ador
ĠIn nov
it les
s amples
20 9
Ġir rit
ĠAltern ative
p ending
Ġblo ody
us ions
ĠN W
T er
C ookie
ook ies
18 98
Mut able
au f
Ġcost ume
Ġs aves
ro ots
ĠN OW
ĠFund ing
Ġsid ew
Ġch ips
ĠPro ducer
ĠCru ise
ĠR up
is se
part ition
Ġtre asure
Form atter
Ġflow ing
B a
Ġpro jections
ĠInter face
ĠC red
ure auc
dat etime
ĠZ ach
Ġ! !
ĠC yr
Ġcontin ually
o op
20 30
File Path
Ġillust rates
Ġintent ions
ref resh
ic z
value Of
Ġdeal er
Hen ry
m x
=- =-
ĠA WS
Ġcomp ile
pr iv
Ġsusp icious
ĠO bs
Ġteen ager
Ġ{ $
AL E
TR A
ok i
ib les
L ev
ment ation
Tele vision
ĠWe ight
L os
K N
Ġan ch
H aw
re duce
Ġin ference
> ../
F ail
Link ed
Ġl anes
ers et
AC ING
Lem ma
]( #
ĠRun ning
ĠBor is
w ould
Ġelabor ate
Ġbott les
ĠC rist
ir ate
ĠH err
Ġen velope
ĠR ica
) --
Ġmarket place
ĠSche me
ĠG ir
ult an
pher d
ĠRead er
ĠLat ino
Java Script
p aces
Ġinst inct
Ġhere in
A sh
ir ie
d ocker
ul iar
ĠK erry
Ġcar cin
" }
Ġsign atures
Ġprosec ution
k al
m eg
con cat
Ġ× Ĳ
Ph ase
ĠCom ic
ĠE ither
M icro
ADD ING
b is
h ouses
ĠGe off
ĠS ue
ĠC BD
Ġbank ruptcy
ĠD j
Ġharm onic
el ian
Ġout let
Ġcontract or
Ġdecor ated
ĠV ern
Ġcer emon
ĠEs sex
Ġre build
os ion
Ġappe als
30 5
Ġaffili ate
ĠPat tern
Table Row
ĠMin ing
Ġdipl omatic
Ġc p
Ġc uisine
Ġex ec
Ġm ig
sc an
Ġmob il
ĠChe ster
Ġexhib itions
Ġtraff icking
ĠS ons
f ilters
ĠWeek end
Ġintrig uing
Ġm asters
ull ah
em i
P et
22 6
uin ely
Ġshort age
Ġobserv ing
Ġtrav elled
ĠAgric ultural
or ah
ĠE valuation
ĠBatt alion
P ending
R oad
Ġinv isible
br is
rib ing
ĠF ans
sol id
d an
Ġis omorphism
and i
K at
Ġ# {
Leg al
ĠHy per
Ä Ł
Ġacceler ate
Ġlicens es
ĠP CR
Ġmer chant
ĠKn ights
Ġpharm aceutical
ĠBou levard
Ġbom bs
res olved
h appy
en stein
ĠF ixed
up iter
Ġcustom s
18 95
aur us
l ove
b uy
r ac
Ġle isure
f ollow
Ġj acket
23 2
ĠR ender
ĠM oses
ĠT N
Ġcl s
ocy tes
ĠWrest ling
D one
ele g
Ġsec ular
Ġspot light
23 4
' _{
A verage
Ġh ood
plement ed
S a
Ġsw ap
Ġnom inations
tim eline
ĠL ip
worth y
DA Y
Ġnod ded
Ö ·
ĠL ars
24 5
Ġcontribut ors
Ġse ating
ĠSpec ifically
IN DEX
eal ous
d eb
Ġarg uably
shall er
ĠL or
Ġbusiness man
icon duct
ĠStart ing
iox ide
ĠD h
Ġsett lements
Ġvit ro
AT T
atern ity
G H
ac ements
est inal
ĠL opez
vel t
Ġlog ged
Ġaut umn
Ġmolec ule
Ġl ending
ust ing
Ġplace bo
Ġprev ents
Ar r
Ġobst acles
F ederal
Ġdis g
Ġuniform ly
rosso ver
Ġdys function
Ġcry ing
ĠW inn
ud ed
ast ore
Sar ah
ĠR um
Inter view
pop up
P F
Ġus eless
Ġsol ic
EC H
Ġsuperv ision
Ġinstruct or
__ ["
ĠInvest ig
Ġdisappe ar
Ġneut ron
17 2
Ġdestro ying
in variant
Ġgar bage
E LEMENT
ĠDeg ree
v id
Ġpo ets
Ġpre y
man ifest
ĠAb use
St ates
ĠBenef its
Ġpredecess or
TEXT URE
ge ometry
ug ged
Ġdes irable
ĠQu inn
Sp ot
3 80
ĠConsult ing
All ow
ĠDate Time
Ġdebut ed
Ġrem ed
iot ics
17 4
Ġunderstand s
ĠC ult
Ġmach inery
10 80
ĠBl air
18 9
Ġd ynasty
ĠâĢ ĭ
ĠK ol
RO OT
ĠCor ner
Ġun changed
Ġthr one
/ -
C a
aster y
set Text
proport ion
18 3
ĠT ue
Ġenc rypted
stream ing
f u
Ġstat istically
ĠShe ffield
ĠB oss
Ġsl ots
Ġdownload ed
ĠA zerbai
ĠG am
ĠPatri ots
ĠKat ie
Ġrelax ation
Ġen rich
Ġin duce
ĉĉ čĊ
ng th
Ġimag inary
Ġcounter parts
ĠP AR
ĠTh u
="@ +
inds ay
Ġorient ed
D ict
ĠAnd r
Ġpoll ing
J er
Ġf oo
ak y
Ġadministr ator
ĠH ait
ĠH off
gr avity
Mod ified
S ummer
d w
se p
read ing
Stud y
at ra
ĠHe in
Ġspecific ations
head ed
Ġvirt ue
Ġhung ry
Ġpredom inantly
ĠV a
ograph s
Ġo ste
Ġn ep
ĠMon ster
ĠPoint s
19 4
ĠS um
Ġret ention
Up per
m and
en i
ĠB orough
un ing
Ġv ec
Ġapplic ant
Ġne at
ubern etes
R oom
str ict
ĠAppe als
h ma
ch oice
ĠL ay
ĠSup erman
Ġarch ives
Ġn ested
ĠK urt
Ġenhance ment
G D
it ored
] ),
Ġg erm
Ġdeter ior
Ġir regular
ĠBO OST
RE QUEST
Qu ote
at em
Ġtri umph
bm atrix
Ġg lyph
Ġse ized
Ġ' ,
T s
ol ith
Ġco pe
ĠRes olution
M aking
Ġup graded
Ġfound ations
ĠB rowser
Ġt s
18 99
:: $
Ġstart ups
âĢĿ :
Ġcl ay
head s
Ġf ancy
Ġt uple
ĠB ert
Ch oice
Ġnorm s
à ¯
desc ribe
task s
Ġabsor bed
ĠU ber
Ġgu ilt
Ġaccount able
ĠBer ry
ot iation
âĤ¬ âĦ¢
% "><
Ġpar ade
Ġcr ashed
urs ion
ĠSol omon
at che
Ġparliament ary
Ġro d
Ġtou ches
ici encies
] ->
ul ators
ut a
em ale
Ġround ed
Sche dule
S ong
ĠEx tra
ĠAppe al
: &
Ġforg ot
Par cel
ĠE lections
Ġex otic
Set up
ĠList en
Ġinflamm atory
che ss
ĠN V
Ġdom inate
ĠChe v
Ex it
Ġfu els
gr pc
B F
Ġrel oc
Ġalumin um
Ġc ares
ĠC el
ih ad
Pay ment
Ġm ant
ck er
ĠFound er
Ġ\ ,\
Ġdem ographic
ĠVeh icle
Ġs outheast
os ome
ĠT rophy
ec hes
Dis cover
Ġperipher al
l ag
Ġc ategor
Ġ} ).
kins on
iv ier
ĠTreat y
Ġre normal
Ġoptim ize
fav icon
B razil
H F
O RE
Ġp ants
4 000
Ġsh ook
ĠC av
ine z
Pro c
ĠTe ams
mod ifier
Ġcop ied
Lin q
ĠH us
Ġhold ers
Ġun anim
re search
erse ys
G raphics
ins ki
Ġdef ended
mult iple
ĠSpe ech
Ġdef ects
ĠS it
P ot
Ġcon e
Ġaccident ally
ar ium
al is
Ġartifact s
P K
Ġin con
ĠA ws
pl aced
ĠH ir
ĠCas ino
Ġw itch
Ġd st
Ġtou g
f air
j ab
ann i
( `
ro ve
ott age
b oot
ol or
ors che
ĠEx pect
PP ORT
Ġfix ture
ĠAd rian
Oper ations
oles ale
Ġfeas ible
ĠNAS CAR
ĠBurn s
Ġb ats
ĠS ARS
Ġrank ings
ĠDel ivery
Ġprop he
ĠC ases
) !
the ory
Ġsus pects
em er
Ġcompos itions
un iform
res a
Ġem it
Ġg reed
ĠJ ak
Ġp H
sub st
ĠHold ings
Ġrec reational
16 00
Ġbeliev ing
Ġapart ments
b ons
if old
ĠV ote
ĠCa uc
al am
Ġy e
ĠW ik
19 3
oid al
Comm un
Ġext inction
Ġl ith
18 96
ĠAmeric as
ĠM W
ĠW ins
ext ype
ĠClass ical
best os
if a
ĠE ston
ct ree
ote chnology
N L
d ag
ab lo
tain ed
Ġr ushing
Constr aints
Ġspons ors
Ġprov inces
Not ice
ĠMor occo
ĠRel ief
ĠAthlet ics
Ġex tern
Ġcons ume
AB ILITY
Ġcross es
> .</
Ġper mut
Ġin box
}$ }
is cher
St ock
Ġce ase
sc ene
Ġsoul s
30 3
el o
Ġsp arse
ĠAl most
ĠA uthors
Ġint act
ans om
ale z
d st
Ġl ately
iss an
Ġaccess ories
ĠO THER
ĠBloom berg
Ġk icks
ĠT ik
30 8
final s
cred it
ĠS SL
end ant
ĠP ere
Ġsex y
ĠL G
dis ciplinary
ad ays
ĠU AE
17 8
S and
pt ical
mut ex
Ġpal m
Ġeigen values
miss ible
Add ed
Ġrecogn ise
imp se
cc entric
ĠLaw yer
ĠK itt
Ġgro cery
Ġnot ifications
ĠArch ae
Ġmagn ificent
. $$
ĠK or
ices ter
r ice
Ġeduc ate
âĶĢ âĶĢ
fig ures
t b
ĠM akes
Ġutter ly
D NA
_{ +
bur st
cl ide
Open Tl
Ġfilter ed
Ġp aired
Ġrig id
ĠT ang
ĠEld er
Ġhistor ians
ĠT ennis
Ġn aming
G ive
Car l
R end
ĠSup pose
path s
Ġstr anger
ĠPro s
Ġref uses
ĠD ES
Un ion
^{ *
ĠS ask
ĠA SC
Ġle v
ot ional
ĠB ORDER
Ġpos ed
ĠBi ography
ĠE du
Ġsa x
rele ased
Re ceive
D ao
se ctions
ĠG y
Q UI
] ['
ĠProp het
ĠPol ic
à¤ ¤
R on
Ġfound ers
ĠB UT
Ġqu as
ĠAg es
Ġa fore
unc her
Text View
ans on
Ġtrib al
Ġrecip es
Lear ning
az ar
(' ./
Ġstr at
IM P
re ction
Ġmon etary
Not able
l ore
18 6
Cl imate
ĠM oss
View Controller
O bserv
Start ing
- ,
A UTH
) >
{ |
Ġdetect ive
Ġhighlight ing
30 2
Ġgen uinely
Ġmotor cycle
S port
ĠL ar
ĠG reens
lin ing
c ro
ĠC ay
Ġsubject ed
Lou is
C Y
In ternet
s ens
pro pto
Ġperform er
ĠRena issance
Ġ _{\
Ġle agues
atter ed
Ġcon cludes
Ġam en
17 9
Ġcl ine
aid en
Ġillust ration
Ġide ology
cess ion
Record ed
S yn
if fe
Ġloc ale
à¤ ķ
ĠEqu ipment
ĠBut ton
c ookie
ĠD ialog
b ay
Ġ á
Ġlist ings
ĠRichard son
Ġtow ers
ĠĠĠĠĠĠĠĠĠĠĠĠĠĠĠĠĠĠĠĠĠĠĠĠĠĠĠĠĠĠĠĠ ĠĠĠĠĠĠĠĠ
Can vas
Me asure
pre pare
Ġ. =
âĢĿ ?
Ġexplos ive
pro blem
Ġment or
Ġfrust ration
Ġm ph
ĠD in
Ġdiss ip
Ġback wards
Ġmeant ime
arr ison
; ,
ex ecution
Ġle x
Ġd ental
ĠT oken
ĠCh in
Ġjust ified
ad just
Ġdis posal
Ġlack s
as per
Ġam ino
Ġlong time
ĠS eth
ĠK IND
ĠPost ed
Ġdemonstr ating
R GB
ĠN atal
ĠTH AT
m us
ĠF ul
Ġsear ched
ĠOver view
l ov
}} }\
Ġassert ion
ĠEs pecially
P ark
Ġc c
Ġh ind
ĠL ak
ochem ical
} "/>
um en
>( <
Ġair ports
An th
tr aining
ĠMax well
Ġexam ines
ĠT M
and ro
ec ycle
He art
ĠCond ition
Ġb acterial
ĠProcess ing
Ġla und
20 25
ĠG aza
Ġhuman itarian
Tw ig
Ġorgan isms
ĠCan on
h yd
Ġde er
?? ??
? (
ĠElli ott
-------------------------------- ----------------
Ġadapt ive
S af
ĠV K
EN ABLE
ĠW ool
st ars
iv ari
Ġorg ans
Ġwar fare
ĠBelg ian
im i
Ġconf ined
Ġgreen house
A ctor
ĠT ong
Ġ$ ('#
******** ****
Ġpress ures
h on
Ġt f
ĠInj ury
sh arp
ĠTr igger
Ġtort ure
Ġrum ors
Ġgl ance
Ġal beit
ĠFood s
Ġbox ing
Ġp sy
ĠCon sequently
---- -
Ġpostpon ed
ĠSouth west
s qu
ĠH od
oph one
Comput er
B es
L y
ĠD rake
atic an
ĠCase y
G irl
ent ries
ĠSand y
Ġhat red
Ġtrou bles
P ADDING
With in
Ġcompos ers
Ġmanip ulation
Ġkil ometers
Ġrec ount
Ġspecial ists
ĠCy prus
ag i
F IL
ĠD ust
ĠR ating
N ONE
end o
Ġch airs
Ġoptim istic
st airs
RE CT
> {
at en
: %
P aint
ry ing
Ġinter cept
Ġsup pressed
ĠH amb
cs v
Look up
ick r
IP S
g c
ĠI RS
Ġcapt ion
Ġinv oked
Ġrh s
r ab
ĠInvest igation
cred ited
T OP
23 3
ĠH ook
ĠP ine
Ã§ Ã£o
any a
ul ence
que z
ĠSug ar
g red
ĠK lein
Ġbreak through
Ġbuy er
Ġsl ides
iem ann
Ġdece ased
Ġ ../
Ġfor bidden
Ġun fortunate
tr ation
ug oslav
. (\
H it
. \\
umm ing
Ġlength y
EX P
22 7
u o
Ġprint s
A W
art a
ĠZ en
init ialize
le ad
ant o
k le
ĠN utrition
Ġ[ -
Ġsp ends
Ġcon grat
Every one
multi row
Ġaim ing
ĠFr aser
Class Name
ĠSaf ari
Ġm igrants
ÑĢ Ð°Ð
ĠAct ivities
ĠParent s
17 3
Ġactress es
ĠN I
(" .
Ġi Tunes
dis ambiguation
cl ub
Ġneed ing
Schedul er
W ORD
Ġn uts
Back up
ĠKenn eth
ĠT YPE
ĠUS E
oc he
J es
ĠSh im
ĠAR T
ĠDur ham
ra its
unt u
| }{
ĠâĢ ł
Ġcou plings
Sub mit
S on
ĠÎ ²
ĠIs le
Ġtum ors
F ake
H appy
oun s
ATION S
Ġwh istle
D ave
ole y
ĠNot tingham
Ġcalc ium
Ġten ant
nos cript
Sp anish
ĠAdv ance
ĠN ice
Ġju ice
D evelopment
act iv
Ġph on
idel ity
Inst ruction
Ġenzym e
bul ance
Is lam
j obs
ref lect
Ġland scapes
le ys
md i
Ġserv ant
\ }$,
sub string
ĠKash mir
ĠMedic are
ar is
ĠR ising
ĠHot els
ĠOr acle
Ġsup ermark
S ometimes
Ð¸ ÑĤ
l ane
B rad
ograp hed
è ¡
Ġb ikes
Ġs ums
Ġkil omet
W ant
quis ite
ĠD ale
ĠO bl
ĠUn known
ĠSpe aking
Ġhope ful
Ġd well
Ġv ivid
Ġbe ast
ĠTrans form
ĠCarol ine
Ġpl otted
Un ity
bal ance
Ġc ops
key words
Ġtem plates
ĠC ort
Ġoptim ized
an ium
Ġw ished
Ġquestion ing
Iss ue
Ġlook up
ĠS hen
Ġsp herical
Ġign oring
size i
Ġinsect s
Al gorithm
ĠFore cast
Ġsmart phones
ĠIllegal ArgumentException
à ¹
ĠBre nt
Ġsup porter
Ali as
od i
in ians
18 97
ĠH ern
D ar
Ġmod elling
Ġche ss
SU CCESS
F X
mont on
Ġh unger
Ġpe pt
lif eration
S ets
ĠB M
Ġoff line
Sur face
ĠR uby
Ġtim ber
mac ro
Ġpione er
* .
Ġtr acing
ĠHar old
Ġproblem atic
ĠEngine ers
R M
ĠP ush
cc c
ĠZ immer
B uf
B ibliography
hy per
Ġp ython
ĠA J
ĠIm mutable
ĠJen kins
Ġpit cher
sp aces
enti eth
d m
$ '
R IGHT
Ġorgan ize
over ride
Ġadv ise
e i
} /\
Ġdef ect
prec ision
ĠEn joy
ĠSub st
Ġarm or
K K
ĠTrans it
styles heets
) }.
Ġb arn
op athy
IT IONS
st ick
ĠRh ode
Ġdisturb ing
ĠC oul
Sup press
f red
Ex tract
ĠAp ollo
ĠAtl as
Ġ ub
Ġi i
Ġclos es
Ġre open
Ġred es
Ġchampionship s
H M
ĠĠĠĠĠ Ċ
Ġ* ,
' +
Ġmus cles
Ġadministr ators
gle w
ĠSur face
Ġf als
Ġ& $
the mes
ĠR PG
Ġw olf
Ġcar b
Ġfemin ist
Ġnons ense
B ern
ject ed
Ġappre nt
ĠFinn ish
- ">
Ġph y
Ġener get
3 70
Ġbroad band
18 4
not ag
L IB
Ġn as
Ġcl ue
Ġannounc ing
F IN
Ġsup pression
Ġauthor ization
! ]
ĠL LP
Ġg it
Ġmod ular
Ġobserv able
iber nate
dat aset
Ġpriv ately
Ġpray ers
set t
Ġmedal ists
Ġware house
ĠR oth
Ġm ol
Ġcontin uation
ĠRes cue
ce il
ĠRodrig uez
Ġemer gence
Ġdraft ed
ĠChief s
Ġtor que
26 5
="# "
Ġlater al
Aut om
ĠClaim s
Ġh ike
ĠBe ast
im ming
S napshot
Ġp izza
ĠB un
Ġsh y
ĠRev e
ĠGerm ans
Ġnic ely
K ernel
tr ad
ĠDis cover
Ġrele g
c orn
// !
Ġdr ill
ĠL INE
il ion
Ġnormal ization
17 1
Ġorgan izing
sw ick
Î ¯
ĠBut ter
ĠT ank
Ġa ston
Ġass ay
× ¢
Ġt ournaments
ud er
anth a
to ctree
Ġconstr ained
ĠK iss
Ġir relevant
ĠMar riage
ĠAc qu
Mov ie
az ing
Ġexam ining
Ø ¹
ĠWal sh
Ġc url
nt hesis
Ġdisc ourse
Ġconc urrent
ex tract
trans late
Ġanaly zing
d ead
ĠP od
aver age
ĠF irm
m icro
Ġappoint ments
Ġveg an
Ġviol ated
Ġcolor ful
Ġsn ake
+ "
Ġsymbol ic
in herited
å Ľ
Ġboard ing
O x
ĠPhilipp ine
op ting
Ġun to
ĠT rou
fore st
Ö ´
hash Code
? .
FORM AT
ch rome
Ġmet aphor
( -\
P ur
am ar
oss ip
ex press
ĠIndian apolis
ĠNe ither
Ġbas ement
ĠMe an
ur istic
Ġcall er
t bl
18 89
mon itor
Co V
og e
P ages
K O
tool bar
erm at
Ġappropri ately
Ġmunicipal ities
R yan
ag ra
ĠFr ame
Ġl uc
Ġins ane
Ġreal ization
gr and
ĠParam eters
Ġflu ores
am inated
ch ard
In c
Ġ" _
Ġsp ins
m ong
Ġc aut
ĠTr avis
pack et
Ġambass ador
Ġt a
Ġto gg
ĠN amed
18 1
Ġorgan izational
b ag
om aly
Rel ative
B all
st roke
id g
am on
omed ical
ĠSp ark
s ass
\! \
Ġcounter part
Ġcongress ional
Ġtreat y
Ġintegr ating
ver ts
\% $
ĠS ang
Ġthere after
ĠRead y
int ro
18 65
ĠTrans action
Ġdisappoint ing
pe ated
Dest ination
ureauc r
Ġt et
FO RE
Ġresign ation
ĠMar sh
ĠN T
ĠCh ip
OB JECT
t ile
isecond s
ph ysical
ĠE yes
Ġr ust
Ġcolle ague
U UID
nt hetic
St aff
id is
Ġwrit ings
c ategories
Ġend if
ffff ff
Ġpr ince
ĠChar ity
ier archy
dr ag
ĠH ua
Ġback ward
ĠB OTTOM
ij k
Ġstep ping
æĸ ĩ
it ably
Ġp ine
Ġexceed s
ĠA IDS
29 0
ĠI oT
ow itz
ĠW ald
Ch oose
Ġafore mentioned
ĠZ oo
ĠN u
Ġde bris
Ġgrad uating
d elegate
ĠPro of
ĠSac ramento
Ġble eding
urrenc ies
w ang
ĠD iversity
ĠAct ually
Ġaer ial
stan bul
× ł
al ong
pr im
Ġli able
b read
ĠRock y
B io
Ġdeb ates
ĠP iano
Ġdr ummer
ns ic
db c
Per cent
Ġserv ants
eral a
P ast
x l
Ġb is
Ġg odd
ĠCar roll
Ġexc av
ighbor hood
ĠM aced
Ġad apter
Ġaccess ing
Ġsp ine
b ard
it Ã©
Ġf art
Ġdegrad ation
ist ries
ĠPers ian
A nc
Ġd read
ĠLes lie
$ ^
Ġle ap
ĠHigh land
ĠB uzz
ĠR V
R N
S ig
act ly
f alls
Ġpromot ional
ĠJama ica
Ġre jection
23 8
P oll
Ġcost ly
mod ified
ely n
AG ES
Ġlegisl ature
Ġa ka
ĉĉĉĉĉĉĉĉ ĉĉĉĉ
ap a
ros is
Ġs odium
ex c
ĠF lying
Ġref ined
pack ages
Ġour s
' },
ĠR SS
Ġwe aker
Ġ/ ><
ĠCall ed
Ġpol ym
ĠB od
ĠU T
Ġp anc
Ġshow c
Ġout fit
Ġsp ike
ĠBur ke
Ġrepro duction
Own Property
Ġfavor able
Ġroll s
ĠDog s
Ġqual itative
Ġliber ty
le ges
ĠMal colm
ĠBre aking
Ġ icons
Ġpres erving
B IND
en ario
B iden
d h
ĠM it
ĠT win
ĠNob el
Su ite
J ason
Ġc ents
Ġtax i
ĠPeters burg
ĠHe ather
Âł Âł
IF T
bel ow
Ġconduct or
M rs
ç »
sh irt
ĠZ el
ĠAn imals
az ure
Ġbelong ed
ĠOff icers
Ġm anga
Ġd ioxide
Ġfinger print
ĠW inner
Ġjoint ly
Ġcatal yst
Ġsk ull
Ġrecru ited
t el
Ã Ł
Ġcl ips
18 91
Ġdiff ers
ass is
op p
Ġcont amination
Ġgram mar
ATTR IB
Access or
Any Ref
Ġcrypt oc
all a
ĠInter ior
Ġunder neath
H B
ĠU FC
Ġwel coming
Ġden ial
word press
Ġan onym
00 7
Ġvol atile
Ġspec ially
att ach
Ear th
ĠC ec
Ġsimpl ified
names e
^* \
Ġbright ness
Ġfrust rated
Ass ign
ib us
column width
rat io
` )
ï ¸
Ġgl impse
ĠEntreprene ur
Ġmil estone
ĠMar tha
Ġpersonal ities
ĠAp ps
Ġpri zes
Ġutil izing
Expl ore
L ang
ib a
Ġconcent rate
Ġrot ating
J ean
et ically
sk in
Has Been
in verse
Ġr ider
sk a
Ġr c
ĠS ources
J enn
ĠG or
18 88
App Compat
Ġconstitu ency
ĠEug ene
Ġm elt
Ġwell being
ĠDem on
Ġalt itude
m or
ĠCard iff
Ġwh olly
ĠFac ility
gi ene
Ġb ore
Ġcapt uring
Ġsem antic
C ut
ad ians
ĠNo ah
Que en
P ane
ĠB ened
oc ities
Ġex cerpt
Ġcrow ded
f ires
ig i
V ariant
ĠIP v
on ian
Ġterm ination
Ġaver aging
al tern
ĠT IM
Ñ İ
ac i
Ġfe at
An im
m v
ĠFergus on
Ġin adequ
ĠAny one
ĠParliament ary
ĠB il
ĠSecond ary
V T
Ġcrew s
Ġsimilar ities
$- $
ĠRel igious
x t
ĠA Z
ĠD CHECK
Ġdefin ite
Ġspecial ty
Link s
al ore
ĠLeg ends
Ġmed ications
separ ator
22 8
Ġcan al
ĠL ines
th ick
Dist ribution
cy cl
Tr ad
ĠGP U
ĠR ide
ĠBer k
light en
ĠChrist ine
Ġneg lected
Ġ( ),
Ġun ified
Particip ant
Ġspec ifies
Character Offset
oubt edly
ĠB P
Ġovers ight
Ġorth ogonal
ĠT EST
Ġal gebras
AA AA
Origin ally
he ng
ĠR ut
Ġfix ing
document ation
ĠPed ro
B and
ĠC W
Ġrevers ed
ĠCal gary
Ġr age
Ġtr icks
ĠM eyer
qual ified
ĠT S
g ot
24 7
Ġimm ense
ynchron ous
Ġdign ity
ĠV e
sp ons
Gu ard
z oom
Mark et
P ak
st en
ĠTal ent
ĠM emphis
ĠHe y
Ġdou bled
ĠFor bes
K W
ĠR he
ĠWy oming
clide an
om item
In clude
rib es
Ġbl own
Ġre habilitation
Ent ries
ĠMod i
omitem pty
Ex amples
ĠLeg ion
Ġal phabet
Beh av
Ġtr ait
Ġbl ade
Ġdifferent iation
Ġadv iser
Ġact ivate
ĠRich ards
iling ual
Ġmist aken
Ġdiscipl ines
ĠO dd
22 9
Ġsomet ime
7 20
s heet
F ROM
ĠStephan ie
Ġw orm
SP ACING
PREF IX
ST ER
Current ly
Ġlog arith
First Name
) ^\
Ġs or
ĠOp inion
ĠP ART
sub sec
ĠF loor
âĢĶ âĢĶ
ĠLo op
Ġshel f
ĠP FNGL
Ġatt ain
rest rial
Sw ift
ap on
Lower Case
g ray
go al
Ġanten na
J osh
jav u
Ġsub missions
ĠRo ose
Ġregul ators
Pop ulated
ĠLou ise
Ġfib ers
um ann
Ġunder went
ĠAct iv
rec ogn
Ġp c
ĠElect ronics
Ġpat ience
Ġnost alg
19 1
LE ASE
or ig
ed i
Ġprem ise
ĠCON D
Ġb anner
St ory
ĠSing er
ipp et
urt le
emb ourg
gr ass
à §
Ġbo asts
' "
ĠF ay
ĠLe af
ĠFeature d
ĠRe ce
ĠD y
ip ed
found ation
Ġcar pet
ĠSk ills
Sche me
F G
il ight
ly mouth
AL S
Ġpat ches
ĠB end
de javu
ĠView s
AT ES
ĠEd it
ĠJ ill
Ġa ster
c ourt
w ere
Ġsuff ix
Ġc urs
ĠY uk
Ġp erv
18 85
18 94
Ph ys
ĠMerc ury
n able
ig nt
Ġex pr
Ġse iz
Ġang el
Ġeduc ators
[...]
