{"[UNK]":0,"!":1,"\"":2,"#":3,"$":4,"%":5,"&":6,"'":7,"(":8,")":9,"*":10,"+":11,",":12,"-":13,".":14,"/":15,"0":16,"1":17,"2":18,"3":19,"4":20,"5":21,"6":22,"7":23,"8":24,"9":25,":":26,";":27,"<":28,"=":29,">":30,"?":31,"@":32,"A":33,"B":34,"C":35,"D":36,"E":37,"F":38,"G":39,"H":40,"I":41,"J":42,"K":43,"L":44,"M":45,"N":46,"O":47,"P":48,"Q":49,"R":50,"S":51,"T":52,"U":53,"V":54,"W":55,"X":56,"Y":57,"Z":58,"[":59,"\\":60,"]":61,"^":62,"_":63,"`":64,"a":65,"b":66,"c":67,"d":68,"e":69,"f":70,"g":71,"h":72,"i":73,"j":74,"k":75,"l":76,"m":77,"n":78,"o":79,"p":80,"q":81,"r":82,"s":83,"t":84,"u":85,"v":86,"w":87,"x":88,"y":89,"z":90,"{":91,"|":92,"}":93,"~":94,"¡":95,"¢":96,"£":97,"¤":98,"¥":99,"¦":100,"§":101,"¨":102,"©":103,"ª":104,"«":105,"¬":106,"®":107,"¯":108,"°":109,"±":110,"²":111,"³":112,"´":113,"µ":114,"¶":115,"·":116,"¸":117,"¹":118,"º":119,"»":120,"¼":121,"½":122,"¾":123,"¿":124,"Â":125,"Ã":126,"Ä":127,"Å":128,"Æ":129,"Ç":130,"È":131,"É":132,"Ê":133,"Ë":134,"Ì":135,"Í":136,"Î":137,"Ï":138,"Ð":139,"Ñ":140,"Ò":141,"Ó":142,"Ô":143,"Õ":144,"Ö":145,"×":146,"Ø":147,"Ù":148,"Ú":149,"Û":150,"Ü":151,"Ý":152,"Þ":153,"ß":154,"à":155,"á":156,"â":157,"ã":158,"ä":159,"å":160,"æ":161,"ç":162,"è":163,"é":164,"ê":165,"ë":166,"ì":167,"í":168,"î":169,"ï":170,"ð":171,"ñ":172,"ò":173,"ó":174,"ô":175,"Ā":176,"ā":177,"Ă":178,"ă":179,"Ą":180,"ą":181,"Ć":182,"ć":183,"Ĉ":184,"ĉ":185,"Ċ":186,"ċ":187,"Č":188,"č":189,"Ď":190,"ď":191,"Đ":192,"đ":193,"Ē":194,"ē":195,"Ĕ":196,"ĕ":197,"Ė":198,"ė":199,"Ę":200,"ę":201,"Ě":202,"ě":203,"Ĝ":204,"ĝ":205,"Ğ":206,"ğ":207,"Ġ":208,"ġ":209,"Ģ":210,"ģ":211,"Ĥ":212,"ĥ":213,"Ħ":214,"ħ":215,"Ĩ":216,"ĩ":217,"Ī":218,"ī":219,"Ĭ":220,"ĭ":221,"Į":222,"į":223,"İ":224,"ı":225,"Ĳ":226,"ĳ":227,"Ĵ":228,"ĵ":229,"Ķ":230,"ķ":231,"ĸ":232,"Ĺ":233,"ĺ":234,"Ļ":235,"ļ":236,"Ľ":237,"ľ":238,"Ŀ":239,"ŀ":240,"Ł":241,"ł":242,"Ń":243,"ĠĠ":244,"Ġt":245,"in":246,"Ġa":247,"he":248,"on":249,"er":250,"re":251,"ĠĠĠĠ":252,"at":253,"Ġthe":254,"en":255,"Ġs":256,"or":257,"an":258,"es":259,"it":260,"is":261,"Ġc":262,"Ġw":263,"al":264,"Ġo":265,"ar":266,"ed":267,"Ġf":268,"ing":269,"Ġp":270,"nd":271,"Ġb":272,"ion":273,"ou":274,"ic":275,"Ġin":276,"Ġof":277,"le":278,"as":279,"Ġm":280,"Ġto":281,"Ġand":282,"Ġd":283,"ro":284,"ent":285,"Ġh":286,"ct":287,"et":288,"el":289,"il":290,"st":291,"ĠĠĠ":292,"Ġth":293,"om":294,"ĠĠĠĠĠĠĠĠ":295,"âĢ":296,"Ġre":297,"Ġn":298,"ĠS":299,"am":300,"Ġl":301,"ĠT":302,"id":303,"ĠC":304,"ol":305,"ĠA":306,"Ġe":307,"ot":308,"ig":309,"ut":310,"ac":311,"ation":312,"im":313,"ur":314,"iv":315,"ad":316,"Ġg":317,"Ġ(":318,"ĠI":319,"Ġis":320,"us":321,"ay":322,"ĠM":323,"ow":324,"Ġfor":325,"ly":326,"Ġon":327,"ce":328,"Ġbe":329,"ers":330,"ul":331,"ĠP":332,"Ġst":333,"ch":334,"ĠB":335,"ir":336,"ag":337,"em":338,"un":339,"ith":340,"od":341,"if":342,"ter":343,"se":344,"Ġthat":345,"Ġv":346,"av":347,"20":348,"ĠĠĠĠĠĠĠ":349,"ĠD":350,"um":351,"ĠR":352,"Ġwith":353,"ab":354,"ĠH":355,"her":356,"Ġas":357,"âĢĻ":358,"ver":359,"est":360,"ĠF":361,"ate":362,"th":363,"Ġcon":364,"pe":365,"Ġy":366,"ist":367,"ĠW":368,"Ġan":369,"qu":370,"Ġal":371,"ĠL":372,"and":373,"ap":374,"Ġit":375,"ht":376,"Ġ=":377,"oc":378,"Ġ$":379,"ew":380,"ĠN":381,"ess":382,"Ġpro":383,"Ġwh":384,"op":385,"ri":386,"ĠThe":387,"res":388,"ĠG":389,"our":390,"ill":391,"ĠE":392,"</":393,"Ġ\\":394,"ĉĉ":395,"ain":396,"Ġr":397,"ort":398,"os":399,"=\"":400,"ity":401,"Ġhe":402,"Ġat":403,"end":404,"Ġwas":405,"rom":406,"Ġcom":407,"ore":408,"ction":409,"ke":410,"Ġde":411,"up":412,"Ġby":413,"Ġex":414,"ld":415,"Ġare":416,"art":417,");":418,"ass":419,"ub":420,"Ġor":421,"--":422,"ies":423,"ĠJ":424,"ment":425,"Ġse":426,"ĠâĢ":427,"Ġ{":428,"ant":429,"Ġ<":430,"ĠO":431,"ive":432,"nt":433,"ight":434,"ame":435,"pt":436,"ex":437,"all":438,"Ġfrom":439,"pl":440,"ine":441,"Ġthis":442,"age":443,"ure":444,"19":445,"ud":446,"ue":447,"//":448,"og":449,"ave":450,"ial":451,"Ġcl":452,"ĠĠĠĠĠĠĠĠĠĠĠ":453,"Ġwe":454,"ust":455,"ect":456,"ack":457,"Ġ\"":458,"čĊ":459,"tr":460,"..":461,"Ġtr":462,"Ġsh":463,"ard":464,"port":465,"Ġnot":466,"ge":467,"Ġch":468,"The":469,"ans":470,"ĠU":471,"ov":472,"out":473,"Ġyou":474,"Ġ*":475,"ell":476,"ber":477,"rou":478,"act":479,"iz":480,"00":481,"ff":482,"cl":483,"Ġus":484,"ast":485,"ost":486,"ak":487,"are":488,"Ġle":489,"per":490,"Ġhave":491,"ip":492,"ult":493,"ok":494,"'s":495,"ary":496,"orm":497,"ia":498,"ould":499,"ated":500,"Ġpl":501,"ich":502,"ĠK":503,"201":504,"ear":505,"Ġ}":506,"able":507,"\">":508,"ome":509,"ical":510,"ind":511,"con":512,"ath":513,"ire":514,"ide":515,"ice":516,"ong":517,"ord":518,"Ġab":519,"ork":520,"urn":521,"Ġhas":522,"ĠIn":523,"âĢĿ":524,"Ġj":525,"ep":526,"eg":527,"Ġcan":528,"{\\":529,"Ġ&":530,"ite":531,"ace":532,"ions":533,"Ġall":534,"ĠSt":535,"Ġ-":536,"ase":537,"Ġk":538,"ĠV":539,"int":540,"ime":541,"ef":542,"cc":543,"Ġres":544,"ign":545,"ĠĠĠĠĠĠĠĠĠĠĠĠĠĠĠĠ":546,"ence":547,"Ġcomp":548,"Ġwhe":549,"ther":550,"ext":551,"Ġhis":552,"Ġint":553,"Ġif":554,"ile":555,"ail":556,"ib":557,"ous":558,"Ġad":559,"Ġwill":560,"one":561,"ĠĠĠĠĠ":562,"ance":563,"ations":564,"ang":565,"ry":566,"erv":567,"ens":568,"Ġun":569,"Ġbut":570,"Ġcont":571,"com":572,"()":573,"gh":574,"und":575,"Ġim":576,"ere":577,"Ġdo":578,"Ġwhich":579,"ec":580,"ĠTh":581,"Ġclass":582,"form":583,"ev":584,"du":585,"Ġout":586,"ook":587,"Ġgo":588,"Ġnew":589,"so":590,"ra":591,"**":592,"ref":593,"ĠCh":594,"ition":595,"Ġtheir":596,"get":597,"ory":598,"ents":599,"Ġup":600,"Ġap":601,"pro":602,"Ġen":603,"ild":604,"li":605,"ob":606,"ubl":607,"In":608,"Ġme":609,"ount":610,"ĠĊ":611,"Ġar":612,"ĠâĢľ":613,"ress":614,"turn":615,"ype":616,"Ġthey":617,"sp":618,"_{":619,"Ġone":620,"Ġ'":621,"ach":622,"ally":623,"ll":624,"),":625,"ru":626,"own":627,"ian":628,"ark":629,").":630,"Ġwho":631,"ode":632,"Ġmore":633,"ata":634,"ph":635,"ake":636,"----":637,"ft":638,"ĠY":639,"ject":640,"Ġwere":641,"10":642,"ound":643,"ors":644,"row":645,"fer":646,"Ġdis":647,"==":648,"ree":649,"Ġsu":650,"Ġsc":651,"Ġper":652,"ink":653,"Ġev":654,"mer":655,"ish":656,"ely":657,"ick":658,"Ġman":659,"Ġso":660,"ose":661,"ont":662,"ne":663,"Ġpart":664,"ock":665,"ays":666,"irst":667,"Ġabout":668,"ert":669,"Ġalso":670,"ublic":671,"Ġsp":672,"Ġag":673,"Ġ$\\":674,"Ġher":675,"enc":676,"oll":677,"Ġother":678,"Ġli":679,"tern":680,"Ġqu":681,"Ġpr":682,"Ġsa":683,"ings":684,"200":685,"te":686,"ps":687,"ict":688,"iew":689,"Ġits":690,"Ġwork":691,"ss":692,"Ġbeen":693,"Ġhad":694,"Ġyear":695,"ĠĠĠĠĠĠĠĠĠĠĠĠĠĠĠ":696,"Ġ[":697,"ple":698,"rit":699,"Ġne":700,"hed":701,"elf":702,"old":703,"ates":704,"wo":705,"ĠIt":706,"Ġte":707,"ma":708,"Ġreturn":709,"clud":710,"rib":711,"Ġover":712,"ery":713,"Ġpre":714,"Ġget":715,"ck":716,"ool":717,"ĠâĢĵ":718,"we":719,"ull":720,"Ġtime":721,"reat":722,"Ġour":723,"alue":724,"fter":725,"ng":726,"Ġyour":727,"ug":728,"ource":729,"yst":730,"use":731,"ie":732,"sc":733,"lect":734,"fr":735,"over":736,"aw":737,"ĠHe":738,"ond":739,"anc":740,"ons":741,"eth":742,"str":743,"unction":744,"Ġwould":745,"Ġpe":746,"Ġany":747,"pect":748,"Ġ//":749,"ual":750,"Ġro":751,"Ġwhen":752,"iss":753,"math":754,"Ġthan":755,"ics":756,"ve":757,"ener":758,"pec":759,"erm":760,"oy":761,"St":762,"ople":763,"Ġ</":764,"iel":765,"Ġ|":766,"Ġthere":767,"Ġfirst":768,"ĠUn":769,"Ġoff":770,"Ġsome":771,"Ġinto":772,"Ġrec":773,"18":774,"ĉĉĉĉ":775,"ater":776,"oint":777,"::":778,"igh":779,"Ġkn":780,"Ġthem":781,"vel":782,"->":783,"pr":784,"les":785,"^{":786,"Ġacc":787,"}\\":788,"sh":789,"Ġsup":790,"Ġ/":791,"12":792,"Ġdes":793,"ade":794,"../":795,"ational":796,"Ġind":797,"Ġcomm":798,"Ġund":799,"Ġsaid":800,"ious":801,"the":802,"Ġinter":803,"tt":804,"ize":805,"ram":806,"ption":807,"ys":808,"Ġ+":809,"Ġass":810,"lo":811,"}$":812,"ield":813,"Ġshe":814,"io":815,"ystem":816,"Ġdef":817,"Ġtwo":818,"Ġset":819,"Ġlike":820,"round":821,"Ġno":822,"ix":823,"par":824,"olog":825,"inal":826,"\",":827,"ning":828,"Ġ@":829,"Ġbet":830,"rap":831,"ove":832,"Ġob":833,"Ġbec":834,"ific":835,"Ġonly":836,"cre":837,"ĠWe":838,"Ġpeople":839,"ied":840,"ĠCom":841,"ise":842,"equ":843,"ember":844,"ml":845,"ĠAr":846,"Ġfe":847,"Ġstr":848,"Ġplay":849,"Ġmy":850,"essage":851,"Ġwhat":852,"Ġpublic":853,"Ġadd":854,"ident":855,"Ġinclud":856,"Ġact":857,"ivers":858,"ities":859,"pos":860,"Ġmod":861,"orld":862,"Th":863,"ĠNew":864,"ement":865,"app":866,"Ġjust":867,"put":868,"ta":869,"ange":870,"ased":871,"Ġ.":872,"ER":873,"ating":874,"Ġop":875,"ĠThis":876,"ty":877,"ax":878,"Ġreg":879,"arch":880,"Ġam":881,"als":882,"ative":883,"11":884,"Ġname":885,"Ġunder":886,"ular":887,"rough":888,"Ġcons":889,"red":890,"ĠPro":891,"Ġafter":892,"Ġinv":893,"Ex":894,"Ġem":895,"set":896,"Ġhow":897,"Ġever":898,"land":899,"oth":900,"line":901,"ward":902,"Ġback":903,"Ġbl":904,"...":905,"Ġprov":906,"Ġcol":907,"ough":908,"ited":909,"ause":910,"Ġmay":911,"ek":912,"wn":913,"ient":914,"(\"":915,"15":916,"ues":917,"Ġwhere":918,"Ġsub":919,"arg":920,"right":921,"Ġtrans":922,"Ġvar":923,"Ġrel":924,"}}":925,"span":926,"ments":927,"ank":928,"://":929,"();":930,"Ġdif":931,"ower":932,"to":933,"Ġpos":934,"ood":935,"div":936,"atch":937,"Ġend":938,"Ġmost":939,"fig":940,"></":941,"ray":942,"roup":943,"Ġfunction":944,"amp":945,"umber":946,"ility":947,"ĠSe":948,"(\\":949,"itt":950,"ĠTr":951,"Ġbu":952,"ames":953,"Ġph":954,"ution":955,"16":956,"err":957,"Ġhim":958,"uring":959,"ures":960,"ash":961,"Ġthrough":962,"Ġstud":963,"Ġrem":964,"egin":965,"ices":966,"ollow":967,"abel":968,"ible":969,"nc":970,"',":971,"><":972,"ON":973,"its":974,"ts":975,"che":976,"--------":977,"ann":978,"Ġatt":979,"IN":980,"ily":981,"ox":982,"Ġdata":983,"ars":984,"text":985,"Ġpol":986,"Ġthese":987,"Ġserv":988,"âĢľ":989,"ton":990,"ale":991,"ms":992,"Ġshow":993,"any":994,"Ġthen":995,"21":996,"air":997,"Ġneed":998,"ator":999,"tring":1000,"begin":1001,"Ġ:":1002,"ĠAl":1003,"ife":1004,"urre":1005,"Ġprodu":1006,"Ġfl":1007,"Ġcould":1008,"Ġsuch":1009,"ead":1010,"hat":1011,"day":1012,"resent":1013,"eb":1014,"ĠSh":1015,"Pro":1016,"oid":1017,"eng":1018,"Ġyears":1019,".âĢĿ":1020,"irect":1021,"Ġent":1022,"ins":1023,"Ġbr":1024,"ner":1025,"imes":1026,"30":1027,"Ġ#":1028,"Ġwell":1029,"ww":1030,"Ġconst":1031,"Ġuse":1032,"ym":1033,"Ġke":1034,"ble":1035,"oot":1036,"der":1037,"cess":1038,"Ġac":1039,"Ġspec":1040,"Ġcall":1041,"uth":1042,"../../":1043,"ful":1044,"Ġco":1045,"Ġloc":1046,"read":1047,"Ġresult":1048,"ween":1049,"Ġrequ":1050,"meric":1051,"atic":1052,"ah":1053,"ince":1054,"ines":1055,"let":1056,"erson":1057,"uch":1058,"chool":1059,"Ġnow":1060,"Ġagain":1061,"Ġline":1062,"ren":1063,"_{\\":1064,"other":1065,"ĠAn":1066,"14":1067,"cond":1068,"html":1069,"ason":1070,"Ġfil":1071,"ute":1072,"Ġeff":1073,"pon":1074,"'t":1075,")$":1076,"17":1077,"ature":1078,"Ġknow":1079,"of":1080,"Ġ*/":1081,"Ġinst":1082,"ider":1083,"Ġfollow":1084,"hen":1085,"Ġevery":1086,"199":1087,"led":1088,"Ġgr":1089,"Ġdiffer":1090,"RE":1091,"ctions":1092,"Ġused":1093,"source":1094,"25":1095,"man":1096,"13":1097,"raph":1098,"ages":1099,"ĠCl":1100,"Ġhref":1101,"vent":1102,"Ġshould":1103,"Ġform":1104,"lation":1105,"ĠĠĠĠĠĠĠĠĠĠĠĠĠĠĠĠĠĠĠ":1106,"****":1107,"els":1108,"},":1109,"trans":1110,"Ġsm":1111,"Ġbetween":1112,"cal":1113,"aking":1114,"ists":1115,"alth":1116,"====":1117,"cent":1118,"Ġtype":1119,"Ġcor":1120,"gan":1121,"message":1122,"Ġel":1123,"ĠĠĠĠĠĠĠĠĠ":1124,"Ġstart":1125,"Ch":1126,"ting":1127,"oh":1128,"ĉĉĉ":1129,"formation":1130,"Ġdid":1131,"}{":1132,"Ġsystem":1133,"Ġmany":1134,"name":1135,"Ġbeing":1136,"Ġright":1137,"hip":1138,"('":1139,"dd":1140,"Ġi":1141,"AT":1142,"âĢĵ":1143,"Ġmake":1144,"ral":1145,"view":1146,"Ġdet":1147,"Ġsee":1148,"ience":1149,"Ġeven":1150,"ript":1151,"plic":1152,"ier":1153,"Ġdist":1154,"ives":1155,"urrent":1156,"ĠAnd":1157,"Ġvalue":1158,"Ġlook":1159,"2020":1160,"ished":1161,"ST":1162,"fore":1163,"Ġlong":1164,"Ġhel":1165,"oci":1166,"ethod":1167,"Ġsim":1168,"ined":1169,"this":1170,"frac":1171,"Ġsur":1172,"way":1173,"))":1174,"ele":1175,"ĠQ":1176,"Ġchar":1177,"Ġgener":1178,"Ġhigh":1179,"It":1180,"az":1181,"ets":1182,"att":1183,"Ġsign":1184,"000":1185,"htt":1186,"ID":1187,"Ġbecause":1188,"Ġgu":1189,"ision":1190,"ruct":1191,"ced":1192,"ouse":1193,"ences":1194,"ĠFor":1195,"Ġway":1196,"Ġcount":1197,"td":1198,"Ġart":1199,"min":1200,"ized":1201,"iness":1202,"son":1203,"Ġown":1204,"__":1205,"Ġvery":1206,"ĠAmeric":1207,"ants":1208,"tain":1209,"orn":1210,"Ġmon":1211,"Ġpoint":1212,"uss":1213,"iversity":1214,"ĠZ":1215,"ology":1216,"alse":1217,"ism":1218,"ric":1219,"col":1220,"ern":1221,"alk":1222,"Ġbefore":1223,"ever":1224,"fl":1225,"Com":1226,"Ġdoes":1227,"Name":1228,"press":1229,"ĠEx":1230,"Ġread":1231,"Ġexper":1232,"Ġmin":1233,"ather":1234,"ĠSc":1235,"Ġworld":1236,"ody":1237,"Ġcre":1238,"br":1239,"Con":1240,"eq":1241,"AR":1242,"Ġed":1243,"Ġself":1244,"ik":1245,"Ġsupport":1246,"uc":1247,"Ġmade":1248,"Ġwhile":1249,"We":1250,"chn":1251,"Ġtest":1252,"Ġdec":1253,"label":1254,"Ġbel":1255,"ey":1256,"Ġlead":1257,"Ġpar":1258,"âĢ¦":1259,"Ġfound":1260,"Ġdr":1261,"orth":1262,"Type":1263,"eta":1264,"Ġeach":1265,"Ġlast":1266,"Ġser":1267,"ten":1268,"ĠCon":1269,"/>":1270,"Ġmed":1271,"Ġnumber":1272,"ĠInd":1273,"Ġdown":1274,"gram":1275,"Ġfam":1276,"velop":1277,"gy":1278,"cept":1279,"Ġ=>":1280,"import":1281,"ote":1282,"50":1283,"OR":1284,"Ġear":1285,"Ġdevelop":1286,"Id":1287,"Ġthose":1288,"ĠYou":1289,"self":1290,"Ġsame":1291,",âĢĿ":1292,"ross":1293,"ired":1294,"ital":1295,"ache":1296,"usiness":1297,"Ġmuch":1298,"Ġcase":1299,"ask":1300,"ically":1301,"ee":1302,"Ġgood":1303,"param":1304,"Ġthink":1305,"Ġboth":1306,"emb":1307,"left":1308,"ument":1309,"iver":1310,"ĠâĢĺ":1311,"by":1312,"ared":1313,"au":1314,"ersion":1315,"Ġhelp":1316,"String":1317,"##":1318,"Cont":1319,"ole":1320,"rm":1321,"amb":1322,"Ġcent":1323,"Ġdon":1324,"Ġhere":1325,"24":1326,"org":1327,"aj":1328,"\"/>":1329,"ĠDe":1330,"Ġele":1331,"Ġfind":1332,"Ġhand":1333,"add":1334,"Ġteam":1335,"ces":1336,".,":1337,"Ġthree":1338,".\"":1339,"Ġwant":1340,"iven":1341,"ault":1342,"Ġdisc":1343,"ually":1344,"ĠIs":1345,"Ġdifferent":1346,"Cl":1347,"translation":1348,"EN":1349,"itle":1350,"ĠAs":1351,"Ġduring":1352,"rol":1353,"work":1354,"iving":1355,"Ġval":1356,"ream":1357,"Ġlist":1358,"def":1359,"Ġav":1360,"Ġsol":1361,"ness":1362,"Ġoper":1363,"ense":1364,"ĠPh":1365,"22":1366,"Ġrun":1367,"ĠFr":1368,"Ġcar":1369,"AL":1370,"Ġmov":1371,"ases":1372,"ivate":1373,"ĠCol":1374,"Ġfin":1375,"arm":1376,"cite":1377,"Ġappro":1378,"):":1379,"code":1380,"Ġstate":1381,"Ġgl":1382,"ĠWh":1383,"yp":1384,"ĠPl":1385,"Ġreport":1386,"yle":1387,"Ġche":1388,"pre":1389,"Ġcommun":1390,"ency":1391,"ccess":1392,"here":1393,"Ġinformation":1394,"akes":1395,"Ġsl":1396,"ĠBl":1397,"ott":1398,"back":1399,"return":1400,"Ġequ":1401,"Ġfact":1402,"co":1403,"ception":1404,"Ġreal":1405,"Res":1406,"Ġstill":1407,"ural":1408,"This":1409,"equation":1410,"ĠRes":1411,"Ġgreat":1412,"Ġsecond":1413,"Ġcontin":1414,"Ġmark":1415,"ght":1416,"Ġext":1417,"iev":1418,"Ġrep":1419,"eter":1420,"outh":1421,"Ġpartic":1422,"Ġusing":1423,"ization":1424,"bl":1425,",\\":1426,"ional":1427,"$.":1428,"})":1429,"for":1430,"ser":1431,"ots":1432,"mod":1433,"Ġtake":1434,"ron":1435,"class":1436,"yn":1437,"fo":1438,"umm":1439,"ĠBut":1440,"ĠRe":1441,"$,":1442,"Ar":1443,"bar":1444,"Ġperson":1445,"ample":1446,"Ġ||":1447,"AN":1448,"Tr":1449,"ina":1450,"Ġ>":1451,"usic":1452,"Ġweek":1453,"ĠMar":1454,"Ġ!":1455,"ĠIf":1456,"ĠâĢĶ":1457,"ĠUniversity":1458,"Ġcap":1459,"ane":1460,"me":1461,"Ġest":1462,"Ġaround":1463,"med":1464,"arent":1465,"ĠPr":1466,"ains":1467,"Ġgame":1468,"Ġsom":1469,"val":1470,"bs":1471,"ential":1472,"Ġlife":1473,"ified":1474,"Ġdirect":1475,"Ġperform":1476,"Ġprocess":1477,"Ġwrit":1478,"Ġpat":1479,"Ġ--":1480,"LE":1481,"Ġchild":1482,"part":1483,"198":1484,"Ġpass":1485,"Ġrele":1486,"Ġtrue":1487,"ety":1488,"ven":1489,"23":1490,"ister":1491,"loc":1492,"ĠShe":1493,"Ġimport":1494,"ĠAd":1495,"ission":1496,"ify":1497,"Ġvis":1498,"lear":1499,"List":1500,"ump":1501,"var":1502,"ĠOn":1503,"Ġincre":1504,"ĠComm":1505,"Ġday":1506,"AS":1507,"Ġ_":1508,"ury":1509,"type":1510,"ger":1511,"Ġsay":1512,"Ġeffect":1513,"idth":1514,"Ġcour":1515,"bf":1516,"Ġbook":1517,"Ġopen":1518,"Ġtop":1519,"reen":1520,"Ġagainst":1521,"esc":1522,"Ġcurrent":1523,"ohn":1524,"Ġbuild":1525,"rop":1526,"be":1527,"Ġincluding":1528,"ĠMay":1529,"Ġbest":1530,"Ġpost":1531,"uthor":1532,"ived":1533,"arget":1534,"ĠJan":1535,"Ġfr":1536,"ĠX":1537,"ober":1538,"Ġmain":1539,"Ġcr":1540,"less":1541,"}.":1542,"ule":1543,"Ġhead":1544,"Ġx":1545,"side":1546,"Ġapp":1547,"ley":1548,"da":1549,"40":1550,"Ġsing":1551,"ĠHow":1552,"arn":1553,"Ġprovid":1554,"une":1555,"100":1556,"play":1557,"ends":1558,"omen":1559,"To":1560,"que":1561,"pha":1562,"Ġcare":1563,"istory":1564,"Ġelse":1565,"Ġ==":1566,"2019":1567,"By":1568,"ternal":1569,"nment":1570,"til":1571,"ĠSp":1572,"sub":1573,"Ġbre":1574,"ounc":1575,"perty":1576,"enn":1577,"not":1578,"Ġdel":1579,"Ġstat":1580,"itions":1581,"Ġsince":1582,"Ġ`":1583,"ĠUS":1584,"urs":1585,"Ġnon":1586,"ords":1587,"rist":1588,"Ġnull":1589,"illion":1590,"Ġorder":1591,"Ġgover":1592,"ird":1593,"Ġfalse":1594,"Ġpres":1595,"Ġposs":1596,"Ġfield":1597,"Ġsmall":1598,"ength":1599,"Ġfinal":1600,"ior":1601,"mathcal":1602,"Ġschool":1603,"IT":1604,"Ġsays":1605,"Ġprogram":1606,"Ġallow":1607,"An":1608,"Ġpop":1609,"ality":1610,"Ġmust":1611,"aving":1612,"ĠAll":1613,"acy":1614,"Ġdesign":1615,"Ġterm":1616,"Ġvoid":1617,"Ġexpl":1618,"roll":1619,"ponse":1620,"ration":1621,"aining":1622,"ĠEng":1623,"uff":1624,"oss":1625,"Ġadv":1626,"ĠLe":1627,"Ġbo":1628,"lex":1629,"ĠOr":1630,"Ġexpect":1631,"Ġgroup":1632,"}(":1633,"Ġdesc":1634,"gg":1635,"vious":1636,"ush":1637,"Ġpower":1638,"uro":1639,"2018":1640,"27":1641,"26":1642,"Ġbusiness":1643,"uck":1644,"Ġtechn":1645,"key":1646,"ocial":1647,"ĠThey":1648,"ium":1649,"\"><":1650,"28":1651,"error":1652,"Ġnext":1653,"Ġstand":1654,"Ġappe":1655,"lection":1656,"ats":1657,"cont":1658,"ball":1659,"ploy":1660,"ised":1661,"Ġplace":1662,"new":1663,"oad":1664,"ively":1665,"ES":1666,"Ġhome":1667,"opt":1668,"Ã©":1669,"As":1670,"Ġconsider":1671,"Ġlevel":1672,"2017":1673,"uild":1674,"Ref":1675,"Ġmet":1676,"por":1677,"Ġprot":1678,"ope":1679,"atter":1680,"Ġiss":1681,"action":1682,"Ġann":1683,"Ġrece":1684,"ability":1685,"load":1686,"âĢĶ":1687,"Ġgoing":1688,"Ġlaw":1689,"ĠMan":1690,"alpha":1691,"Ġprof":1692,"ĠBr":1693,"Ġreally":1694,"ways":1695,"Ġ)":1696,"Ġfour":1697,"aff":1698,"ailable":1699,"For":1700,"face":1701,"ulation":1702,"etwork":1703,"serv":1704,"2016":1705,"ering":1706,"ler":1707,"Ġpresent":1708,"ĠCent":1709,"Ġref":1710,"af":1711,"ected":1712,"ĠAss":1713,"irc":1714,"ories":1715,"AC":1716,"comm":1717,"Ġfollowing":1718,"60":1719,"date":1720,"}^":1721,"arge":1722,"pi":1723,"Ġmethod":1724,"Ġcharact":1725,"string":1726,"197":1727,"ĠÂ":1728,"ĠAmerican":1729,"head":1730,"ĠĠĠĠĠĠĠĠĠĠĠĠĠ":1731,"Ġmonth":1732,"Ġopt":1733,"ĠNov":1734,"ĠĠĠĠĠĠĠĠĠĠĠĠĠĠĠĠĠĠĠĠĠĠĠ":1735,"Ġanother":1736,"ling":1737,"32":1738,"ribut":1739,"ately":1740,"Ġlocal":1741,"ording":1742,"IC":1743,"Ġgiven":1744,"Ġmodel":1745,"On":1746,"Ġinvest":1747,"Ġtoo":1748,"Ġinterest":1749,"}_":1750,"ustom":1751,"ped":1752,"ought":1753,"item":1754,"Un":1755,"Ġtri":1756,"ĠBe":1757,"ai":1758,"bb":1759,"Ġwithout":1760,"aces":1761,"reg":1762,"ava":1763,"Ġorgan":1764,"ĠAp":1765,"Ġdem":1766,"icle":1767,"ror":1768,"olv":1769,"----------------":1770,"Ġid":1771,"ĠTe":1772,"Ġproject":1773,"idd":1774,"uman":1775,"Ġold":1776,"gr":1777,"ene":1778,"elta":1779,"itor":1780,"ĠTo":1781,"Ġleft":1782,"////":1783,"vir":1784,"search":1785,"uly":1786,"Ġfew":1787,"Ġfamily":1788,"ĠJohn":1789,"Ġz":1790,"aster":1791,"Ġleg":1792,"Ġhapp":1793,"$\\":1794,"hes":1795,"29":1796,"raw":1797,"ination":1798,"Ġhealth":1799,"uary":1800,"~\\":1801,"ateg":1802,"ittle":1803,"Ġbeh":1804,"\")":1805,"www":1806,"Ġanal":1807,"2015":1808,"umn":1809,"rem":1810,"ĠGr":1811,"Ġsk":1812,"Col":1813,"tract":1814,"ambda":1815,"wit":1816,"Ġprivate":1817,"Ġspe":1818,"Ġhtt":1819,"ĠCar":1820,"ertain":1821,"Ġwin":1822,"ternational":1823,"embers":1824,"Ġorig":1825,"bject":1826,"Ġbro":1827,"field":1828,"Ġevent":1829,"ĠUnited":1830,"aim":1831,"ĠCan":1832,"order":1833,"Ġlink":1834,"requ":1835,"ially":1836,"data":1837,"33":1838,"Data":1839,"urch":1840,"Ġturn":1841,"stand":1842,"Sh":1843,"apt":1844,"Ġmanag":1845,"Ġview":1846,"umb":1847,"ients":1848,"oun":1849,"ograph":1850,"obal":1851,"itive":1852,"ape":1853,"ware":1854,"Ġelect":1855,"ently":1856,"opy":1857,"Ġtry":1858,"ĠMed":1859,"ĠĠĠĠĠĠ":1860,"Ġobject":1861,"Ġcompany":1862,"ney":1863,"Ġbig":1864,"ĠOct":1865,"ĠPol":1866,"abl":1867,"thing":1868,"Ġwithin":1869,"ports":1870,"amma":1871,"time":1872,"ĠCO":1873,"Value":1874,"vers":1875,"mu":1876,")\\":1877,"epend":1878,"Ġet":1879,"conom":1880,"Ġgrow":1881,"EC":1882,"ails":1883,"AM":1884,"Ġcond":1885,"ED":1886,"roid":1887,"Ġchang":1888,"eps":1889,"Ġproble":1890,"Ġaut":1891,"ajor":1892,"go":1893,"2014":1894,"Ġput":1895,"Ġstring":1896,"ocument":1897,"ideo":1898,"ights":1899,"Ġsever":1900,"Ġseason":1901,"Ġmult":1902,"Ġnever":1903,"ems":1904,"ries":1905,"Ġkey":1906,"inc":1907,"ivid":1908,"2021":1909,"ari":1910,"Ġcalled":1911,"********":1912,"icy":1913,"value":1914,"ĠAt":1915,"vert":1916,"ival":1917,"ething":1918,"Ġoffic":1919,"He":1920,"http":1921,"\");":1922,"Ġexp":1923,"itional":1924,"ogle":1925,"ho":1926,"ĠAug":1927,"ards":1928,"Al":1929,"px":1930,"ourn":1931,"ummary":1932,"Ġavailable":1933,"duct":1934,"Ġquest":1935,"Ġident":1936,"indow":1937,"location":1938,"CO":1939,"umer":1940,"box":1941,"Ġproduct":1942,"ended":1943,"iam":1944,"ĠCount":1945,"ĠThere":1946,"ground":1947,"ĠCo":1948,"log":1949,"ĠĠĠĠĠĠĠĠĠĠĠĠĠĠĠĠĠĠĠĠĠĠĠĠĠĠĠĠĠĠĠĠ":1950,"Ġvari":1951,"Ġlim":1952,"ained":1953,"ocus":1954,"Ġbased":1955,"Ġtem":1956,"Ġfull":1957,"ales":1958,"Ġbetter":1959,"Ġnear":1960,"Ġchange":1961,"Ġlet":1962,"Ġmusic":1963,"Ġins":1964,"https":1965,"aut":1966,"agn":1967,"ĠGu":1968,"ising":1969,"Ġeng":1970,"ours":1971,"ention":1972,"ET":1973,"array":1974,"ĠApr":1975,"Ġseries":1976,"ĠNo":1977,"Ġgot":1978,"Ġarg":1979,"ift":1980,"Ġfilm":1981,"angu":1982,"ison":1983,"ources":1984,"Ġla":1985,"Ġless":1986,"));":1987,"IS":1988,"urity":1989,"nb":1990,"mp":1991,"Ġinit":1992,"aps":1993,"ably":1994,"Ġcome":1995,"RO":1996,"my":1997,"Ġconf":1998,"wards":1999,"ĠAust":2000,"ony":2001,"osp":2002,"ĠJanuary":2003,"64":2004,"2013":2005,"Ġdep":2006,"Ġaccess":2007,"urther":2008,"ands":2009,"Ġresp":2010,"Set":2011,"iter":2012,"ians":2013,"ĠWorld":2014,"Ġmight":2015,"bo":2016,"viron":2017,"fe":2018,"Ġaff":2019,"Ġgovernment":2020,"isk":2021,"arr":2022,"_\\":2023,"ription":2024,"Ġknown":2025,"Ġstory":2026,"Ġask":2027,"Ġ/**":2028,"Ġrest":2029,"ivity":2030,"ait":2031,"Ġpolit":2032,"Ġocc":2033,"uture":2034,"=\\":2035,"Ġdev":2036,"Ġresults":2037,"Ġfree":2038,"ready":2039,"ilar":2040,"rite":2041,"ances":2042,"mber":2043,"Ġsuccess":2044,"ending":2045,"Ġplan":2046,"Ġlater":2047,"Ġalong":2048,"Get":2049,"Ġhard":2050,"script":2051,"ĠFl":2052,"Ġsomething":2053,"ĠNational":2054,"Ġeas":2055,"ured":2056,"oin":2057,"igma":2058,"Ġalways":2059,"Ġservice":2060,"ĠYork":2061,"ification":2062,"Ġcontent":2063,"Ind":2064,"ored":2065,"ĠSo":2066,"45":2067,"gin":2068,"Ġ\\\\":2069,"Ġthings":2070,"yl":2071,"Ġide":2072,"Ġuntil":2073,"aterial":2074,"ged":2075,"],":2076,"Im":2077,"Ġimportant":2078,"off":2079,"Ġstudy":2080,"Ph":2081,"Er":2082,"ĠMarch":2083,"($":2084,"ĠEd":2085,"ĠMin":2086,"ĠChrist":2087,"ĠSchool":2088,"2012":2089,"Ġstruct":2090,"========":2091,"Ġparam":2092,"alf":2093,"ica":2094,"')":2095,"Ġlarge":2096,"iod":2097,"ches":2098,"Ġ{\\":2099,"unc":2100,"nbsp":2101,"ume":2102,"Ġarea":2103,"ervice":2104,"Ġret":2105,"Ġmeas":2106,"35":2107,"];":2108,"ION":2109,"urope":2110,"oman":2111,",\"":2112,"Ġcountry":2113,"Ġ&&":2114,"Ġ,":2115,"eting":2116,"ung":2117,"Ġlittle":2118,"phi":2119,"AP":2120,"LL":2121,"Ġsit":2122,"ession":2123,"80":2124,"Ġdays":2125,"ĠDr":2126,"Ġprom":2127,"Ġinc":2128,"Ġfri":2129,"ike":2130,"Exception":2131,"sw":2132,"cember":2133,"ĠGe":2134,"aint":2135,"iles":2136,"imate":2137,"dis":2138,"Ġfac":2139,"cer":2140,"ators":2141,"ĠThat":2142,"const":2143,"Ġcontrol":2144,"ĠWith":2145,"test":2146,"ither":2147,"].":2148,"^{-":2149,"Ġmean":2150,"ptember":2151,"Ġfeel":2152,"Ġoffer":2153,"ply":2154,"Ġpay":2155,"Ġrepresent":2156,"Ġ///":2157,"Test":2158,"ered":2159,"Ġdi":2160,"uk":2161,"Ġtitle":2162,"ĠState":2163,"If":2164,"ĠFeb":2165,"Ġstatic":2166,"Ġshort":2167,"oney":2168,"aus":2169,"top":2170,"earch":2171,"Ġchildren":2172,"ones":2173,"^{\\":2174,"aper":2175,"book":2176,"And":2177,"ĠJune":2178,"ĠSup":2179,"de":2180,"cast":2181,"file":2182,"ves":2183,"olution":2184,"ĠStates":2185,"Ġrefer":2186,"ides":2187,"ĠCity":2188,"Ġclos":2189,"link":2190,"Ġ%":2191,"Ġrecord":2192,"}_{":2193,"Ġapplic":2194,"size":2195,"Ġwater":2196,"Ġmajor":2197,"pm":2198,"section":2199,"ĠSouth":2200,"ĠIm":2201,"atures":2202,"View":2203,"oice":2204,"Ġener":2205,"Ġcell":2206,"Ġfar":2207,"ĠEn":2208,"Ġfore":2209,"ĠJuly":2210,"vironment":2211,"Ġfile":2212,"Re":2213,"Ġsingle":2214,"31":2215,"Ġinclude":2216,"lement":2217,"Ġtarget":2218,"Ġlot":2219,"Ġsocial":2220,"ĠRep":2221,"ĠMc":2222,"Ġmembers":2223,"ĠInst":2224,"Mod":2225,"Ġant":2226,"Ġalready":2227,"Ġspace":2228,"Ġdue":2229,"Ġbas":2230,"Ġexample":2231,"Ġearly":2232,"Ġtot":2233,"Ġkeep":2234,"list":2235,"Ġcommunity":2236,"ique":2237,"util":2238,"Sc":2239,"Refer":2240,"Ġacross":2241,"Ġlove":2242,"ĠString":2243,"posed":2244,"Ġcost":2245,"Ġtimes":2246,"ules":2247,"wh":2248,"2011":2249,"ĠApril":2250,"ĠCal":2251,"rc":2252,"Ġpot":2253,"Ġwomen":2254,"Ġseveral":2255,"Se":2256,"Ġclear":2257,"Object":2258,"ued":2259,"ĠNews":2260,"ĠRev":2261,"lege":2262,"Ġland":2263,"Ġmillion":2264,"iction":2265,"irl":2266,"US":2267,"includ":2268,"2010":2269,"Ġcity":2270,"ĠOctober":2271,"With":2272,"uration":2273,"Ġimpro":2274,"Ġfund":2275,"\"></":2276,"function":2277,"lambda":2278,"Ġtext":2279,"Ġdescrib":2280,"ector":2281,"Ġaway":2282,"New":2283,"Ġleast":2284,"Ġcharacter":2285,"idence":2286,"DE":2287,"Ġtyp":2288,"ĠDecember":2289,"Ġsize":2290,"ĠNovember":2291,"ĠEurope":2292,"Ġbeliev":2293,"Ġside":2294,"ĠCont":2295,"ĠAugust":2296,"Ġstre":2297,"ibr":2298,"Ġ!=":2299,"Ġauthor":2300,"ĠPar":2301,"evel":2302,"Ġindust":2303,"align":2304,"angle":2305,"ilt":2306,"Ġdeath":2307,"ager":2308,"Ġlik":2309,"Ġprovide":2310,"Ġcheck":2311,"ties":2312,"ĠPart":2313,"rew":2314,"nav":2315,"ĠSeptember":2316,"js":2317,"Ġpossible":2318,"ĠWill":2319,"ples":2320,"width":2321,"().":2322,"public":2323,"Ġworking":2324,"Ġparticular":2325,"Ġcover":2326,"Ġfoot":2327,"Ġrequest":2328,"aring":2329,"empt":2330,"Ġpract":2331,"Class":2332,"ysis":2333,"What":2334,"Ġsec":2335,"Ġresearch":2336,"All":2337,"Ġrad":2338,"but":2339,"ague":2340,"Ġpast":2341,"ĠAb":2342,"Ġhistory":2343,"ĠWar":2344,"ĠPres":2345,"ĠĠĠĠĊ":2346,"raft":2347,"url":2348,"Ġmaking":2349,"Ġphot":2350,"uf":2351,"());":2352,"anguage":2353,"90":2354,"Ġlow":2355,"}^{":2356,"Ġimp":2357,"Ġlog":2358,"Ġhuman":2359,"aken":2360,"Ġable":2361,"Ġmen":2362,"Ġmass":2363,"ension":2364,"Ġexperience":2365,"Ġcrit":2366,"Ġhig":2367,"Ġvol":2368,"Par":2369,"ĠChe":2370,"Ġemploy":2371,"Ġtalk":2372,"ille":2373,"bum":2374,".</":2375,"Ġwhy":2376,"Ġspecial":2377,"Ġhold":2378,"lected":2379,"gress":2380,"ĠCor":2381,"ouble":2382,"index":2383,"rodu":2384,"Ġgive":2385,"UR":2386,"Ġrespect":2387,"ormal":2388,"now":2389,"-\\":2390,"Ġplayers":2391,"Ġyoung":2392,"ĠNorth":2393,"down":2394,"iol":2395,"Ġredu":2396,"Ġreview":2397,"Ġcamp":2398,"icro":2399,"ribute":2400,"Ġair":2401,"Ġmar":2402,"ham":2403,"ividual":2404,"mathbb":2405,"ĠOff":2406,"ners":2407,"Ġbreak":2408,"Ġcreate":2409,"ĠAm":2410,"Ġbecome":2411,"ĠCounty":2412,"ĠReg":2413,"ĠAustral":2414,"Ġstrong":2415,"ĠMe":2416,"AD":2417,"gether":2418,"Ġtogether":2419,"Ġversion":2420,"But":2421,"ING":2422,"Ġabove":2423,"Ġwon":2424,"à¤":2425,"Ġlight":2426,"Ġenergy":2427,"summary":2428,"Ġsong":2429,"Ġthought":2430,"How":2431,"sk":2432,"Ġaddress":2433,"Ġhaving":2434,"Ap":2435,"Error":2436,"Ġenc":2437,"ackage":2438,"Ġclaim":2439,"cher":2440,"Qu":2441,"avel":2442,"ĠHowever":2443,"Ġpath":2444,"eters":2445,"ilit":2446,"70":2447,"Ġdiscuss":2448,"rict":2449,"196":2450,"ĉĉĉĉĉ":2451,"Ġpubl":2452,"ĠAg":2453,"Ġlarg":2454,"Ġthrow":2455,"Ġcal":2456,"['":2457,"Ġpo":2458,"Ġstudents":2459,"ĠBrit":2460,"Ġcustom":2461,"Ġcult":2462,"36":2463,"\";":2464,"ada":2465,"Pl":2466,"Ġport":2467,"99":2468,"OT":2469,"=\"+":2470,"cd":2471,"VID":2472,"most":2473,"irt":2474,"atri":2475,"rel":2476,"Ġaction":2477,"bt":2478,"Wh":2479,"You":2480,"ruary":2481,"fin":2482,"34":2483,"ĠBy":2484,"ĠWhat":2485,"eral":2486,"Ġgeneral":2487,"abor":2488,"where":2489,"amed":2490,"Ġnetwork":2491,"ster":2492,"pression":2493,"Ġservices":2494,"Ġoften":2495,"sec":2496,"ental":2497,"Ġassoci":2498,"Ġprevious":2499,"lease":2500,"Ġmom":2501,"\":":2502,"Ġtrad":2503,"Ġfuture":2504,"Ġamong":2505,"Ġdevelopment":2506,"Ġorg":2507,"Key":2508,"atus":2509,"Ġnews":2510,"ĠGl":2511,"Int":2512,"Ġcomplet":2513,"Ġsite":2514,"ĠOne":2515,"Ġaccount":2516,"tra":2517,"Ġunderstand":2518,"Ġseen":2519,"ĠGo":2520,"beta":2521,"._":2522,"Ġexist":2523,"table":2524,"Ġtoday":2525,"Ġthough":2526,"Ġjob":2527,"ĠQu":2528,"ief":2529,"ilon":2530,"Ġ(\\":2531,"Ġexc":2532,"ibility":2533,"met":2534,"Ġtell":2535,"Ġtook":2536,"ailed":2537,"Ġcame":2538,"ills":2539,"icon":2540,"UT":2541,"Ġsignific":2542,"HE":2543,"unity":2544,"ags":2545,"Ġblock":2546,"ana":2547,"Ġobserv":2548,"Ġfocus":2549,"Ġdidn":2550,"path":2551,"\\\\":2552,"Ġmeans":2553,"37":2554,"Ġkind":2555,"ids":2556,"Ġprob":2557,"Ġconc":2558,"pace":2559,"sel":2560,"ping":2561,"Ġcomb":2562,"Ġenough":2563,"01":2564,"Is":2565,"Ġeconom":2566,"Ġperiod":2567,"Ġposition":2568,"uation":2569,"ips":2570,"ĠWhen":2571,"asc":2572,"no":2573,"Ġtreat":2574,"ender":2575,"plement":2576,"Ġmedia":2577,"Ġ/>":2578,"quot":2579,"clus":2580,"');":2581,"Ġep":2582,"!--":2583,"Ġsimilar":2584,"ino":2585,"hold":2586,"istor":2587,"55":2588,"resp":2589,"ĠArt":2590,"Ġrequire":2591,"Ġfive":2592,"oph":2593,"bol":2594,"Ġu":2595,"ĠEl":2596,"Ġben":2597,"ogn":2598,"ribution":2599,"inter":2600,"Ġcourse":2601,"Ġeduc":2602,"oud":2603,"Ġarr":2604,"Ġ?":2605,"ops":2606,"Ġuser":2607,"ournal":2608,"color":2609,"aul":2610,"Ġtrack":2611,"bsite":2612,"Not":2613,"arrow":2614,"istic":2615,"pen":2616,"38":2617,"Ġdone":2618,"Man":2619,"ilde":2620,"Ġfurther":2621,"acc":2622,"ux":2623,"ga":2624,"ĠAct":2625,"ruction":2626,"39":2627,"Ġrole":2628,"ĠDis":2629,"....":2630,"ero":2631,"Ġgames":2632,"ried":2633,"ĠNot":2634,"ĠMark":2635,"Ġhouse":2636,"oper":2637,"SS":2638,"iting":2639,"Ġsym":2640,"ĠWest":2641,"Ġothers":2642,"References":2643,"Ġtotal":2644,"body":2645,"Ġindividual":2646,"ĠEm":2647,"Ġestabl":2648,"Ġrange":2649,"Add":2650,"Ġwar":2651,"Ġcertain":2652,"ĠSystem":2653,"sum":2654,"Requ":2655,"2009":2656,"Or":2657,"emic":2658,"ĠDo":2659,"Ġthing":2660,"Ġdom":2661,"Ġdeterm":2662,"ĠDav":2663,"Ġtre":2664,"ĠFebruary":2665,"Ġsure":2666,"ocr":2667,"File":2668,"TR":2669,"Ġinvolv":2670,"eh":2671,"Ġonce":2672,"Ġgen":2673,"though":2674,"Ġvalues":2675,"gl":2676,"Bl":2677,"Ġpotential":2678,"ondon":2679,"ological":2680,"ze":2681,"ĠBo":2682,"lish":2683,"Ġformer":2684,"ecut":2685,"']":2686,"Ġvideo":2687,"Ġpri":2688,"odes":2689,"sigma":2690,"nder":2691,"IG":2692,"=\"../../":2693,"Ġlive":2694,"\".":2695,"(),":2696,"ĠPark":2697,"Ġmem":2698,"irm":2699,"gamma":2700,"era":2701,"Time":2702,"na":2703,"Ġmarket":2704,"IM":2705,"Ġcur":2706,"Ġbody":2707,"hern":2708,"Ġinteg":2709,"Ġmakes":2710,"Ġpoints":2711,"illed":2712,"44":2713,"ĠBar":2714,"ĠPer":2715,"roups":2716,"imal":2717,"lete":2718,"Ġnight":2719,"Ġsource":2720,"2008":2721,"En":2722,"Ġstyle":2723,"Ġcou":2724,"ĠHouse":2725,"ĠSer":2726,"ables":2727,"Ġra":2728,"itted":2729,"ks":2730,"ĠAfr":2731,"Ġshows":2732,"Ġproblem":2733,"group":2734,"Ġbase":2735,"aced":2736,"Ġrelations":2737,"Ġdoesn":2738,"sm":2739,"ĠSm":2740,"}{\\":2741,"Ġobtain":2742,"oon":2743,"Ġcompet":2744,"Ġthird":2745,"ĠMy":2746,"Ġsignificant":2747,"user":2748,"ĠRec":2749,"iff":2750,"ude":2751,"ĠThese":2752,"ington":2753,"unch":2754,"At":2755,"Ġphys":2756,"Ġbit":2757,"Ġes":2758,"ĠTrump":2759,"Ġcoll":2760,"ĠUK":2761,"iple":2762,"Ġoriginal":2763,"Ġwhether":2764,"75":2765,"Ġcases":2766,"Pr":2767,"with":2768,"48":2769,"ĠGerm":2770,"eff":2771,"nect":2772,"There":2773,"Ġmot":2774,"irus":2775,"atform":2776,"ened":2777,"ret":2778,"Ġsix":2779,"Ġsound":2780,"Ġcreat":2781,"Ġsw":2782,"ements":2783,"Ġpress":2784,"ĠHealth":2785,"Ġparent":2786,"Ġsuper":2787,"Ġresponse":2788,"Ġyet":2789,"dom":2790,"oke":2791,"Ġdeal":2792,"ctor":2793,"do":2794,"ilities":2795,"uments":2796,"Ġalbum":2797,"ĠDep":2798,"point":2799,"asing":2800,"ĠComp":2801,"ĠĠĊ":2802,"ĠPresident":2803,"Ġstop":2804,"Ġreason":2805,"Ġeither":2806,"Ġerror":2807,"perties":2808,"ayer":2809,"Ġage":2810,"yd":2811,"'re":2812,"see":2813,"pose":2814,"year":2815,"position":2816,"Ġperformance":2817,"UN":2818,"lim":2819,"Ġhost":2820,"Ġevents":2821,"Ġwent":2822,"md":2823,"Ġsat":2824,"05":2825,"ij":2826,"urg":2827,"Ġcommon":2828,"Ġstarted":2829,"AB":2830,"inary":2831,"ĠAfter":2832,"Ġrisk":2833,"Over":2834,"idge":2835,"Event":2836,"ises":2837,"anies":2838,"igation":2839,"Ġflo":2840,"':":2841,"Ġpage":2842,"ixed":2843,"aged":2844,"+\\":2845,"mathbf":2846,"Ġbecame":2847,"rest":2848,"ĠInt":2849,"Ġcomput":2850,"ĠStud":2851,"ring":2852,"ĠHis":2853,"Ġsugg":2854,"Ġonline":2855,"Ġabs":2856,"Ġsuggest":2857,"ama":2858,"Def":2859,"Ġmonths":2860,"artment":2861,"Ġmaterial":2862,"Ġtold":2863,"Ġattack":2864,"Ġnec":2865,"66":2866,"ĠKing":2867,"Ġmax":2868,"FF":2869,"irth":2870,"apan":2871,"nection":2872,"Ġchall":2873,"aur":2874,"ĠPe":2875,"Ġmoney":2876,"LO":2877,"State":2878,"ĠSch":2879,"ched":2880,"ites":2881,"eed":2882,"``":2883,"Text":2884,"Ġbuilding":2885,"from":2886,"dt":2887,"Ġhalf":2888,"Ġfood":2889,"Ġerr":2890,"ĠAmerica":2891,"Ġclose":2892,"utions":2893,"Ġsent":2894,"Ġcode":2895,"reed":2896,"hel":2897,"atory":2898,"CH":2899,"quad":2900,"ges":2901,"ĠCOVID":2902,"hib":2903,"sy":2904,"delta":2905,"Ġmiss":2906,"ĠII":2907,"ĠBro":2908,"inst":2909,"ĠLondon":2910,"big":2911,"iddle":2912,"Ġlearn":2913,"bit":2914,"ald":2915,"rho":2916,"Ġproperty":2917,"Info":2918,"Ġbegin":2919,"Ġblack":2920,"####":2921,"refer":2922,"ĠChar":2923,"Ġterms":2924,"Ġaud":2925,"From":2926,"Form":2927,"SE":2928,"theta":2929,"ĠHar":2930,"aves":2931,"init":2932,"Ġrequired":2933,"Ġ-->":2934,"verage":2935,"atural":2936,"tau":2937,"ams":2938,"ouncil":2939,"Ġnational":2940,"Ġred":2941,"ottom":2942,"Ġdest":2943,"^\\":2944,"Ad":2945,"ging":2946,"light":2947,"eqn":2948,"alt":2949,"Ġwebsite":2950,"rown":2951,"Ġtaken":2952,"Ġactually":2953,"lin":2954,"Ġens":2955,"Request":2956,"uct":2957,"augh":2958,"Ġactiv":2959,"ĠSec":2960,"nu":2961,"Ġindic":2962,"Ġbound":2963,"Ġindustry":2964,"urb":2965,"state":2966,"Ġquestion":2967,"Ġlinks":2968,"/**":2969,"Ġdocument":2970,"ael":2971,"Ġdiff":2972,"ĠGet":2973,")}":2974,"ached":2975,"imum":2976,"Ġtw":2977,"Ġago":2978,"ĠRuss":2979,"Path":2980,"respond":2981,"CT":2982,"unk":2983,"ament":2984,"AG":2985,"Ġinfl":2986,"Ġpatients":2987,"icles":2988,"figure":2989,"iet":2990,"annel":2991,"Ġcolor":2992,"Ġintrodu":2993,"Ġassert":2994,"ĠMr":2995,"Ġrepl":2996,"2007":2997,"Ġmove":2998,"Ġ);":2999,"Ġface":3000,"oken":3001,"ĠHigh":3002,"length":3003,"word":3004,"ĠGener":3005,"195":3006,"49":3007,"ponent":3008,"Ġmember":3009,"Ġenvironment":3010,"IP":3011,"aign":3012,"Ġbi":3013,"cle":3014,"ociety":3015,"Ġcomes":3016,"/*":3017,"Ġfav":3018,"based":3019,"Ġbelow":3020,"Ġpersonal":3021,"Ġfall":3022,"Ġpred":3023,"minist":3024,"atrix":3025,"Ġglobal":3026,"lt":3027,"Ġlooking":3028,"aging":3029,"Ġroom":3030,"ades":3031,"ĠMich":3032,"ĠAng":3033,"ependent":3034,"abled":3035,"ett":3036,"Ġvia":3037,"Ġrespons":3038,"ford":3039,"ius":3040,"Node":3041,"ĠLaw":3042,"Inst":3043,"reet":3044,"iation":3045,"api":3046,"ĠMore":3047,"ĠMon":3048,"())":3049,"olean":3050,"igital":3051,"};":3052,"Ġmatch":3053,"elling":3054,"anch":3055,"ĠĠĠĠĠĠĠĠĠĠĠĠĠĠĠĠĠĠĠĠĠĠĠĠĠĠĠ":3056,"Ġpur":3057,"utes":3058,"Ġfeatures":3059,"Ġexpected":3060,"Ġmor":3061,"nes":3062,"ference":3063,"ayout":3064,"No":3065,"Ġcontext":3066,"Ġaccording":3067,"Ġhttps":3068,"ening":3069,"Equ":3070,"Ġfeature":3071,"Ġcut":3072,"Ġopport":3073,"47":3074,"07":3075,"comp":3076,"space":3077,"joy":3078,"true":3079,"ride":3080,"ĠDon":3081,"Ġcontinue":3082,"iday":3083,"IL":3084,"Ġcorre":3085,"amespace":3086,"ĠTV":3087,"ui":3088,"Ġhttp":3089,"aker":3090,"Ġey":3091,"aid":3092,"Ġvisit":3093,"Ġdoing":3094,"Ġofficial":3095,"ris":3096,"Ġprovided":3097,"Ġtable":3098,"*}":3099,"Ġsystems":3100,"Ġhom":3101,"title":3102,"Ġheld":3103,"mit":3104,"medi":3105,"ires":3106,"Ġoptions":3107,"ĠAir":3108,"Ġreceived":3109,"anks":3110,"config":3111,"Ġtown":3112,"Of":3113,"Ġplayed":3114,"ĠCour":3115,"Ġreleased":3116,"08":3117,"Ġproduction":3118,"Ġsection":3119,"Ġbring":3120,"ided":3121,"Ġalmost":3122,"ENT":3123,"Index":3124,"mark":3125,"void":3126,"ĠÐ":3127,"igure":3128,"sequ":3129,"Ġbenef":3130,"ĠUp":3131,"Ġprim":3132,"ography":3133,"Ġvarious":3134,"sup":3135,"eturn":3136,"ĠInternational":3137,"atest":3138,"rup":3139,"Ġworks":3140,"agement":3141,"Ġrather":3142,"aug":3143,"igned":3144,"Ġdefault":3145,"ĠTrans":3146,"$-":3147,"xi":3148,"46":3149,"Ġannounc":3150,"////////":3151,"Field":3152,"rug":3153,"version":3154,"partial":3155,"Ġtechnology":3156,"Map":3157,"Ġchanges":3158,"ese":3159,"ĠCollege":3160,"Ġimpact":3161,"ĠEnglish":3162,"2006":3163,"Ġcirc":3164,"Ġreported":3165,"Ġpercent":3166,"ishing":3167,"CC":3168,"Ġseem":3169,"Ġentire":3170,"Context":3171,"ĠStr":3172,"block":3173,"ummer":3174,"ancial":3175,"Ġneeds":3176,"aly":3177,"uel":3178,"Ġtax":3179,"Ġneg":3180,"Ġfront":3181,"ection":3182,"Fr":3183,"Ġadded":3184,"Ġhowever":3185,"attle":3186,"Ġsubject":3187,"pecially":3188,"hing":3189,"Ġarray":3190,"Ġregion":3191,"bor":3192,"Ġcompanies":3193,"times":3194,"oe":3195,"mon":3196,".)":3197,"men":3198,"Ġimage":3199,"Ġcreated":3200,"ĠDem":3201,"Ġwhole":3202,"06":3203,"Ġhigher":3204,"chiev":3205,"Ġfun":3206,"Ġrate":3207,"09":3208,"selves":3209,"Ġtaking":3210,"ĠDes":3211,"fect":3212,"mathrm":3213,"gen":3214,"ĠCenter":3215,"Ġmind":3216,"ibrary":3217,"Ġdate":3218,"Ġcaus":3219,"Ġsoft":3220,"Config":3221,"Ġwalk":3222,"elt":3223,"Ġbackground":3224,"Ġwatch":3225,"map":3226,"Ġ(!":3227,"oved":3228,"Ġissues":3229,"ĠIN":3230,"fully":3231,"rec":3232,"BC":3233,"etic":3234,"ĠHer":3235,"Ġhours":3236,"Ġden":3237,"OS":3238,"Ġanalysis":3239,"ae":3240,"Ġground":3241,"sl":3242,"ores":3243,"Ġsuff":3244,"maz":3245,"Up":3246,"';":3247,"ĠBlack":3248,"++":3249,"Ġgetting":3250,"ĠJapan":3251,"unt":3252,"ounter":3253,"Ġviol":3254,"Ġshown":3255,"Service":3256,"duc":3257,"ication":3258,"Ġlo":3259,"sq":3260,"Ġbehind":3261,"coming":3262,"Ġpolitical":3263,"Ġmessage":3264,"Ġparticip":3265,"ved":3266,"Ġsex":3267,"plate":3268,"vision":3269,"refore":3270,"Ġinput":3271,"Ġmoment":3272,"ĠMod":3273,"oo":3274,"Ġ});":3275,"04":3276,"ynam":3277,"Ġcy":3278,"ceed":3279,"Ġstep":3280,"ĠFin":3281,"Ġamount":3282,"Loc":3283,"\\,":3284,"Ġapproach":3285,"Ġbad":3286,"Trans":3287,"When":3288,"input":3289,"SP":3290,"Ġlikely":3291,"ĠOf":3292,"Ġwords":3293,"02":3294,"}$,":3295,"content":3296,"IR":3297,"ĠIndia":3298,"Ġconfig":3299,"Ġrights":3300,"Ġstates":3301,"Ġaddition":3302,"Ġaccept":3303,"iforn":3304,"result":3305,"hem":3306,"}$.":3307,"omega":3308,"leq":3309,"]{":3310,"Âł":3311,"Ġ$(":3312,"Ġrecent":3313,"arning":3314,"Ġ},":3315,"ensive":3316,"Build":3317,"Ġshare":3318,"Ġheart":3319,"Ġengine":3320,"ĠVal":3321,"Ġband":3322,"object":3323,"icult":3324,"Ġimm":3325,"omet":3326,"Ġill":3327,"Ġincluded":3328,"Read":3329,"ĠFrom":3330,"rt":3331,"itute":3332,"Ġgroups":3333,"ĠBritish":3334,"acing":3335,"Ġspecific":3336,"OD":3337,"Ġarticle":3338,"Ġeffort":3339,"Ġfight":3340,"amples":3341,"ML":3342,"prot":3343,"ns":3344,"Ġbelieve":3345,"ican":3346,"tes":3347,"Ġfootball":3348,"ĠAc":3349,"TE":3350,"Ġpers":3351,"come":3352,"oto":3353,"Ġcontact":3354,"Ġbegan":3355,"eqnarray":3356,"nown":3357,"Ġareas":3358,"Ġdisplay":3359,"03":3360,"icient":3361,"Ġpublished":3362,"Ġbar":3363,"ĠRed":3364,"Ġcross":3365,"Ġelement":3366,"aries":3367,"Ġwritten":3368,"ying":3369,"Ġ...":3370,"ĠInter":3371,"Ġsearch":3372,"ĠJust":3373,"max":3374,"Att":3375,"erc":3376,"tilde":3377,"Ġlower":3378,"ospital":3379,"Ġlate":3380,"ifornia":3381,"ĠSen":3382,"ledge":3383,"}(\\":3384,"Ġenjoy":3385,"Element":3386,"Ġappear":3387,"info":3388,"Ġnecess":3389,"ĠPhil":3390,"Ġquick":3391,"sim":3392,"Ġcareer":3393,"itte":3394,"ĠSw":3395,"fort":3396,"Ġrelease":3397,"De":3398,"ĠBook":3399,"ĠDist":3400,"Ġrelationship":3401,"Ġroad":3402,"2000":3403,"Delta":3404,"Ġdeg":3405,"Ð°":3406,"ĠAcc":3407,"Ġcompon":3408,"nov":3409,"\"\"":3410,"OM":3411,"ĠMor":3412,"Ġ/*":3413,"atur":3414,"anel":3415,"style":3416,"Ġvot":3417,"izing":3418,"Array":3419,"iences":3420,"Ġparty":3421,"ĠGover":3422,"andom":3423,"Ġcomplex":3424,"Ġlanguage":3425,"ĠSan":3426,"Ġarch":3427,"65":3428,"rip":3429,"gt":3430,"Ġpick":3431,"Ġinstance":3432,"Ġsett":3433,"ĠList":3434,"Result":3435,"plit":3436,"ega":3437,"ulations":3438,"chan":3439,"ĠWilliam":3440,"Ġpolicy":3441,"net":3442,"Ġachiev":3443,"Ġprofess":3444,"Ġconditions":3445,"escription":3446,"ĠAssoci":3447,"Item":3448,"assert":3449,"ĠDay":3450,"apache":3451,"Ġloss":3452,"anced":3453,"ampions":3454,"Ġinitial":3455,"ara":3456,"ĠGod":3457,"Ġmodels":3458,"aven":3459,"Ġpresident":3460,"Ġmap":3461,"Ġbuilt":3462,"rench":3463,"Ġcho":3464,"Ġdecl":3465,"witter":3466,"Ġrecogn":3467,"ellow":3468,"ĠDavid":3469,"Ġtele":3470,"Ġindex":3471,"ĠGroup":3472,"Ġpaper":3473,"Ser":3474,"itting":3475,"Ġstaff":3476,"ees":3477,"Ġfire":3478,"Ġproducts":3479,"ilitary":3480,"ĠIr":3481,"ĠRepublic":3482,"ivil":3483,"Ġinj":3484,"Ġissue":3485,"node":3486,"ulated":3487,"Ġcannot":3488,"Ġder":3489,"Inter":3490,"hood":3491,"iber":3492,"Ġbirth":3493,"lang":3494,"Ġtraining":3495,"ĠLa":3496,"Ġdiv":3497,"Ġmat":3498,"ĠHol":3499,"Ġprote":3500,"Message":3501,"estern":3502,"ĠAdd":3503,"Ġwor":3504,"arter":3505,"Dis":3506,"Ġmatter":3507,"Code":3508,"42":3509,"uffer":3510,"using":3511,"='":3512,"evelop":3513,"2005":3514,"PE":3515,"Ġaverage":3516,"call":3517,"ĠSim":3518,"Ġsepar":3519,"lor":3520,"active":3521,"ining":3522,"Ġcoming":3523,"=\"../../../../":3524,"iment":3525,"Ġforward":3526,"istry":3527,"Ġwhite":3528,"ĠCons":3529,"fty":3530,"orge":3531,"aily":3532,"print":3533,"astic":3534,"Size":3535,"Ġsens":3536,"500":3537,"Ġpolice":3538,"avy":3539,"ĠChina":3540,"ĠAustralia":3541,"Ġstandard":3542,"Ġanything":3543,"Ġtool":3544,"Ġtakes":3545,"Ġcorrespond":3546,"Ġespecially":3547,"ĠStreet":3548,"very":3549,"ederal":3550,"ship":3551,"ilter":3552,"Ġpopulation":3553,"atal":3554,"Ġattempt":3555,"inition":3556,"Ġcampaign":3557,"Ġconsidered":3558,"Ab":3559,"ech":3560,"Ġmanagement":3561,"Val":3562,"Ð¾":3563,"Ġneeded":3564,"ĠDirect":3565,">&":3566,"mission":3567,"atives":3568,"Ġfriend":3569,"ĠFirst":3570,"Ġplayer":3571,"Ass":3572,"Out":3573,"Ġround":3574,"OP":3575,"IV":3576,"elebr":3577,"Ġimplement":3578,"Ġfamil":3579,"Ġincludes":3580,"Ġclub":3581,"Ġsecurity":3582,"wood":3583,"parent":3584,"Ġ__":3585,"Ġsus":3586,"Ġnothing":3587,"Ġinstall":3588,"****************":3589,"Ġinstead":3590,"comes":3591,"ategory":3592,"Ġannounced":3593,"plied":3594,"95":3595,"Ġsaf":3596,"Ġcalc":3597,"Ġsomeone":3598,"ĠClass":3599,"udd":3600,"Reg":3601,"Ġinternational":3602,"!!":3603,"Rec":3604,"create":3605,"ĠWork":3606,"Ġdefined":3607,"ouch":3608,"Ġhope":3609,"used":3610,"ĠPat":3611,"Ġleaders":3612,"Ġstructure":3613,"anger":3614,"[]":3615,"''":3616,"Ed":3617,"lying":3618,"So":3619,"default":3620,"Ġidea":3621,"Ġrelated":3622,"obile":3623,"tab":3624,"External":3625,"like":3626,"cial":3627,"Ġsrc":3628,"Ġhot":3629,"Ġassociated":3630,"ync":3631,"aching":3632,"Ġspect":3633,"vis":3634,"Ġcomment":3635,"Ġhor":3636,"lient":3637,"Ġlength":3638,"oring":3639,"ĠDepartment":3640,"Ġcontract":3641,"Ġgirl":3642,"infty":3643,"non":3644,"Ġdat":3645,"MP":3646,"ĠOur":3647,"lean":3648,"leg":3649,"Ġquite":3650,"Ġbehav":3651,"Ġhon":3652,"Ġquality":3653,"Ġprior":3654,"ii":3655,"Ġpopular":3656,"Ġregard":3657,"ĠEast":3658,"oul":3659,"Ġborder":3660,"Ġcomplete":3661,"ĠCalifornia":3662,"Ġlost":3663,"Hand":3664,"Ã¡":3665,"Ġtravel":3666,"ĠDef":3667,"Ġconcern":3668,"Ġnov":3669,"Ġoutside":3670,"Ġmeet":3671,"omb":3672,"Ġoffice":3673,"Ġasked":3674,"ĠAN":3675,"Ġgrad":3676,"ico":3677,"Ġstay":3678,"rupt":3679,"change":3680,"Ġupon":3681,"Ġitself":3682,"ĠResearch":3683,"One":3684,"Ġdifficult":3685,"Ġeducation":3686,"ĠSk":3687,"Ġeverything":3688,"Ġincrease":3689,"'m":3690,"Ġplatform":3691,"Ġseems":3692,"ĠReview":3693,"pite":3694,"base":3695,"ny":3696,"lood":3697,"CE":3698,"Ġmeasure":3699,"uge":3700,"orage":3701,"Ġcred":3702,"Ġansw":3703,"Ġjava":3704,"oms":3705,"google":3706,"ĠCap":3707,"acher":3708,"Ġbroad":3709,"false":3710,"43":3711,"airs":3712,"ĠNe":3713,"Ġnamed":3714,"Ġhimself":3715,"Ġdescribed":3716,"77":3717,"aches":3718,"roller":3719,"emy":3720,"ĠOut":3721,"ares":3722,"Ġinflu":3723,"wide":3724,"Count":3725,"pri":3726,"Ġvict":3727,"ĠEar":3728,"Ġprobably":3729,"icense":3730,"Ġsequ":3731,"Ġsense":3732,"Ġtrying":3733,"41":3734,"istics":3735,"Ġquant":3736,"Em":3737,"Ġprovides":3738,"useum":3739,"Ġisn":3740,"witch":3741,"Ġprint":3742,"Ġdise":3743,"Ġreve":3744,"2004":3745,"Ġcurrently":3746,"ube":3747,"System":3748,"css":3749,"MA":3750,"Ġrunning":3751,"Ġmag":3752,"ĠYour":3753,"xy":3754,"Ġexpress":3755,"|\\":3756,"$$":3757,"lands":3758,"tty":3759,"Ġrout":3760,"Ġ===":3761,"Ġliving":3762,"efore":3763,"Ġnormal":3764,"wise":3765,"Be":3766,"rad":3767,"Ġled":3768,"ha":3769,"Ġsoon":3770,"ĠTechn":3771,"Ġsimple":3772,"amily":3773,"Ġsaw":3774,"Sub":3775,"ensity":3776,"Ġpositive":3777,"Ġwriting":3778,"java":3779,"Ġhistor":3780,"iqu":3781,"Log":3782,"Ġadditional":3783,"Ġir":3784,"start":3785,"Ġshall":3786,"Ðµ":3787,"Ġnode":3788,"ida":3789,"reate":3790,"hand":3791,"Ġfail":3792,"Ġlimit":3793,"Ġleading":3794,"reak":3795,"Ġhit":3796,"--------------------------------":3797,"plication":3798,"Ġdam":3799,"ĠLeague":3800,"Ġeveryone":3801,"itution":3802,"Ġemer":3803,"ĠThen":3804,"Ġtreatment":3805,"ĠCr":3806,"ows":3807,"Ġdetails":3808,"cm":3809,"eqref":3810,"ittee":3811,"iers":3812,"Ġfather":3813,"Ġmer":3814,"Ġmultiple":3815,"eline":3816,"ĠInc":3817,"ĠUs":3818,"Sp":3819,"ework":3820,"rote":3821,"olar":3822,"Ġ($":3823,"Ġtour":3824,"mm":3825,"vey":3826,"ĠNow":3827,"ĠJames":3828,"Ġson":3829,"raz":3830,"Ġwanted":3831,"Ġlabel":3832,"andid":3833,"chi":3834,"ĠCourt":3835,"ĠEv":3836,"Ġload":3837,"ĠCouncil":3838,"gor":3839,"Ġdeep":3840,"'ve":3841,"Ġevidence":3842,"Ġwoman":3843,"uit":3844,"Ġdecision":3845,"Table":3846,"Ġtemper":3847,"build":3848,"ĠPort":3849,"OL":3850,"Ġoption":3851,"umbers":3852,"Ġconsist":3853,"User":3854,"ĠAnt":3855,"isode":3856,"Ent":3857,"Call":3858,"That":3859,"Ġliter":3860,"irection":3861,"ĠPaul":3862,"option":3863,"ming":3864,"Ġconduct":3865,"isf":3866,"ĠĠĠĠĠĠĠĠĠĠĠĠ":3867,"Ġbeaut":3868,"Post":3869,"Ġapplication":3870,";</":3871,"struct":3872,"MS":3873,"define":3874,"Ġess":3875,"lier":3876,"icip":3877,"ĠCanada":3878,"check":3879,"ashington":3880,"include":3881,"Color":3882,"context":3883,"Ġball":3884,"Ġplaying":3885,"ĠIndian":3886,"irtual":3887,"ULL":3888,"rong":3889,"Ġexact":3890,"ĠPost":3891,"Ġvill":3892,"bed":3893,"ufact":3894,"inated":3895,"Ġge":3896,"page":3897,"ota":3898,"apter":3899,"ĉĉĉĉĉĉ":3900,"ocol":3901,"Ġthemselves":3902,"Ġcountries":3903,"TD":3904,"yr":3905,"Ġfriends":3906,"Ġregular":3907,"After":3908,"Ġunique":3909,"ĠAP":3910,"Ġeffects":3911,"Ġscreen":3912,"78":3913,"ĠPal":3914,"Ġnatural":3915,"Ġvalid":3916,"Ġworked":3917,"ĠEuropean":3918,"ado":3919,"argin":3920,"illing":3921,"Ġcopy":3922,"ken":3923,"II":3924,"ervices":3925,"pty":3926,"Ġbox":3927,"Ġmother":3928,"Ġwrite":3929,"Ġwait":3930,"Ġ};":3931,"center":3932,"Ġtask":3933,"Ġdiscover":3934,"board":3935,"Ġwhose":3936,"actions":3937,"Ġsold":3938,"ville":3939,"web":3940,"asons":3941,"ifier":3942,"ĠÃ":3943,"Ġgrowth":3944,"Ġlocated":3945,"more":3946,"itect":3947,"onder":3948,"iant":3949,"=\"../":3950,"Param":3951,"resh":3952,"Ġrecently":3953,"ĠEngland":3954,"Ġfem":3955,"cell":3956,"acebook":3957,"rought":3958,"ests":3959,"ĠAre":3960,"Ġste":3961,"valid":3962,"ĠPublic":3963,"Ġveh":3964,"Ġang":3965,"ully":3966,"encies":3967,"cing":3968,"ĠMal":3969,"Ġjud":3970,"Ġfrequ":3971,"Ġ:=":3972,"android":3973,"ptions":3974,"acity":3975,"ĠDec":3976,"psi":3977,"Ġminutes":3978,"Ġcourt":3979,"ĠGreen":3980,"Manager":3981,"Ġmid":3982,"Bar":3983,"Ġoutput":3984,"Ġusers":3985,"Gener":3986,"Ġsolution":3987,"ĠBusiness":3988,"Ġlonger":3989,"raphics":3990,"zz":3991,"ternet":3992,"ĠPre":3993,"model":3994,"Ġstatus":3995,"Ġbooks":3996,"Ġlevels":3997,"ĠSome":3998,"xim":3999,"Comm":4000,"88":4001,"cret":4002,"count":4003,"Ġwindow":4004,"actory":4005,"ĠJack":4006,"ĠRead":4007,"Ġword":4008,"ĠRich":4009,"ya":4010,"ĠWhite":4011,"vest":4012,"enced":4013,"place":4014,"aled":4015,"ASS":4016,"Ġinvolved":4017,"Ġsil":4018,"Ġlives":4019,"Ġinf":4020,"ĠYear":4021,"package":4022,"Ġlatest":4023,"Ġstream":4024,"epsilon":4025,"ĠTHE":4026,"ĠGeneral":4027,"Ġproblems":4028,"ainer":4029,"Ġ()":4030,"ĠDi":4031,"GL":4032,"EX":4033,"ĠScience":4034,"ĠRober":4035,"oyal":4036,"Ġeasy":4037,"Property":4038,"Ġcompos":4039,"idents":4040,"rated":4041,"Model":4042,"doc":4043,"Ġdraw":4044,"Ġrock":4045,"Ġcompl":4046,"TH":4047,"Ġstar":4048,"EE":4049,"Fl":4050,"Image":4051,"Ġautom":4052,"ĠOF":4053,"Ġboard":4054,"Ġdeliver":4055,"Om":4056,"Ġlegal":4057,"ĠDan":4058,"Ġways":4059,"Ġweeks":4060,"ĠBer":4061,"Ġcenter":4062,"gorith":4063,"Ġlines":4064,"AA":4065,"ĠHam":4066,"Ġstage":4067,"Ġcollection":4068,"Ġelements":4069,"Ġcam":4070,"ago":4071,"Ġdeveloped":4072,"=\"#":4073,"ĠĠĠĠĠĠĠĠĠĠ":4074,"Ġstation":4075,"Query":4076,"Ġanim":4077,"Ġmovie":4078,"Ġassist":4079,"Ġquestions":4080,"Ġdistribution":4081,"rian":4082,"orem":4083,"Ð¸":4084,"Ġmagn":4085,"Ġstudies":4086,"df":4087,"Ġdead":4088,"Ġtheory":4089,"Ġsimply":4090,"Ġlearning":4091,"Ġdouble":4092,"Ġmodern":4093,"Ġrecomm":4094,"ĠMart":4095,"Ġthroughout":4096,"finished":4097,"ĠWhile":4098,"Ġmention":4099,"pecial":4100,"Ġspecies":4101,"ĠFrench":4102,"Ġdrop":4103,"rief":4104,"static":4105,"My":4106,"Pre":4107,"ithub":4108,"ymbol":4109,"Ġdemon":4110,"agon":4111,"Ġupd":4112,"Ġcook":4113,"Ġcentury":4114,"ĠAnn":4115,"cdot":4116,")$.":4117,"2003":4118,"Ġaccom":4119,"SC":4120,"ĠGoogle":4121,"Ġpark":4122,"ander":4123,"Ġfinancial":4124,"Ġwrote":4125,"Ġchalleng":4126,"roy":4127,"het":4128,"rows":4129,"Ġimmedi":4130,"ĠDemocr":4131,"imens":4132,";&":4133,"ĠThom":4134,"ula":4135,"Ġexecut":4136,"}}\\":4137,"namespace":4138,"ĠSub":4139,"See":4140,"Ġgoal":4141,"ulate":4142,"Ġrev":4143,"erved":4144,"Client":4145,"Ġcapt":4146,"dev":4147,"aught":4148,"irit":4149,"iece":4150,"FA":4151,"Ġlocation":4152,"Ġsche":4153,"<!--":4154,"Ġforce":4155,"Ġcharg":4156,"Ġver":4157,")</":4158,"ĠčĊ":4159,"56":4160,"Ġpain":4161,"eria":4162,"Ġpack":4163,"ĠSund":4164,"yles":4165,"Ġfollows":4166,"capt":4167,"ĠMusic":4168,"Ġcharacters":4169,"Ġreading":4170,"ĠData":4171,"Ġinterview":4172,"Ġprogress":4173,"Ġthreat":4174,"erve":4175,"ampionship":4176,"image":4177,"ĠMichael":4178,"Ġmethods":4179,"ategy":4180,"rowser":4181,"Ġrace":4182,"UL":4183,"arily":4184,"Ġwidth":4185,"Off":4186,"Ġestim":4187,"ĠFound":4188,"Ġcondition":4189,"59":4190,"Ġestablished":4191,"Ġaward":4192,"aling":4193,"foot":4194,"dr":4195,"ios":4196,"Acc":4197,"rael":4198,"'ll":4199,"dl":4200,"ĠArch":4201,"ĠWashington":4202,"Ġpict":4203,"Ġcontribut":4204,"php":4205,"known":4206,"Ġprevent":4207,"ĠService":4208,"run":4209,"ĠTest":4210,"ĠFil":4211,"Ġinside":4212,"ĠÂ£":4213,"Ġcelebr":4214,"Ġeval":4215,"Ġorigin":4216,"lem":4217,"Ġâ":4218,"Ġconstant":4219,"band":4220,"Ġstd":4221,"pat":4222,"?âĢĿ":4223,"Arg":4224,"uster":4225,"Ġprotect":4226,"Method":4227,"ĠInstitute":4228,"Ġsaying":4229,"enge":4230,"Ġtypes":4231,"ned":4232,"EL":4233,"berg":4234,"vant":4235,"58":4236,"contain":4237,"Ġelection":4238,"Ġten":4239,"abase":4240,"Ġandroid":4241,"Americ":4242,"avirus":4243,"ĠMag":4244,"Ġdrug":4245,"Ġprec":4246,"ĠLeg":4247,"Ġprice":4248,"aughter":4249,"ĠLet":4250,"ĠBen":4251,"Ġemail":4252,"host":4253,"Source":4254,"event":4255,"Ġgas":4256,"Part":4257,"method":4258,"Ġdesigned":4259,"Ġcontr":4260,"Ġmedical":4261,"================":4262,"ĠSet":4263,"itch":4264,"core":4265,"Ġborn":4266,"âĢĿ.":4267,"github":4268,"ros":4269,"Ġmis":4270,"ĠProgram":4271,"ĠGreat":4272,"Ġleave":4273,"Ġgave":4274,"Ġadminist":4275,"Ġinvestig":4276,"child":4277,"Ġmach":4278,"Group":4279,"quare":4280,"ĠRef":4281,"just":4282,"mitted":4283,"NS":4284,"uate":4285,"Ġdepend":4286,"cel":4287,"ĠHall":4288,"bon":4289,"Ġdied":4290,"Ġallowed":4291,"tem":4292,"pected":4293,"Ġpretty":4294,"andemic":4295,"ĠĠĠĠĠĠĠĠĠĠĠĠĠĠĠĠĠĠĠĠĠĠĠĠĠĠĠĠĠĠĠ":4296,"Ġsem":4297,"ĠRoad":4298,"db":4299,"izer":4300,"ci":4301,"68":4302,"Ġsurface":4303,"ONT":4304,"57":4305,"Ġperfect":4306,"rial":4307,"Ġtowards":4308,"sqrt":4309,"Ġculture":4310,"Ġdevice":4311,"Ġsort":4312,"Ġactive":4313,"EO":4314,"Let":4315,"Ġvers":4316,"Str":4317,"soft":4318,"level":4319,"isher":4320,"edia":4321,"Ġdepart":4322,"ĠPress":4323,"has":4324,"Ġpm":4325,"Ġbool":4326,"She":4327,"Big":4328,"2001":4329,"Ġcells":4330,"onavirus":4331,"Sup":4332,"Che":4333,"CL":4334,"NA":4335,"Ġconv":4336,"ECT":4337,"ĠCam":4338,"evelopment":4339,"ĠMet":4340,"First":4341,"jav":4342,"unfinished":4343,"ĠBel":4344,"67":4345,"Ġproperties":4346,"Ġoffers":4347,"izes":4348,"Ġpractice":4349,"Ġfavor":4350,"haps":4351,"Ġfilms":4352,"Ġdirector":4353,"FL":4354,"Dr":4355,"ĠAfrica":4356,"Ġgives":4357,"idden":4358,"Ġmechan":4359,"Ġcompared":4360,"Ġ${\\":4361,"Ġpurch":4362,"Ġsoftware":4363,"Ġcause":4364,"ATE":4365,"Do":4366,"Ġanyone":4367,"Date":4368,"btn":4369,"Ġsn":4370,"ĠSing":4371,"Ġspeed":4372,"}[":4373,"olic":4374,"Ġsubst":4375,"ĠQue":4376,"ĠAngel":4377,"Ġboy":4378,"Ġparts":4379,"Ġcontinu":4380,"Ġbuy":4381,"ĠBest":4382,"Override":4383,"alls":4384,"Ġstories":4385,"Gamma":4386,"win":4387,"Ġuses":4388,"ivacy":4389,"HT":4390,"embly":4391,"isions":4392,"Ġneigh":4393,"dir":4394,"Ġcandid":4395,"Ġweb":4396,"Ġteams":4397,"urt":4398,"Ġflow":4399,"Omega":4400,"ĠDistrict":4401,"Ġcollect":4402,"Ġsurv":4403,"ĠDel":4404,"osh":4405,"force":4406,"rs":4407,"current":4408,"Ġgets":4409,"Ġmeeting":4410,"Ġcast":4411,"Ġetc":4412,"Ġknowledge":4413,"Ġparameters":4414,"Ġfast":4415,"~~":4416,"}_{\\":4417,"Ġcatch":4418,"Builder":4419,"case":4420,"ston":4421,"Act":4422,"Ġdark":4423,"Ġfunctions":4424,"Ġrestr":4425,"](":4426,"Ġscale":4427,"Ġassum":4428,"ialog":4429,"Ġlack":4430,"Ġhum":4431,"Ġunit":4432,"Ġacqu":4433,"null":4434,"mercial":4435,"Ġinsp":4436,"ĠAssociation":4437,"End":4438,"Response":4439,"0000":4440,"eve":4441,"Ġpartners":4442,"Ġgoes":4443,"Ġwrong":4444,"ously":4445,"ĠFacebook":4446,"Ġdirectly":4447,"2002":4448,"miss":4449,"Ġhol":4450,"Ġmaintain":4451,"Ġinteresting":4452,"ĠHere":4453,"Ġcolumn":4454,"Ġworth":4455,"ĠTom":4456,"Ġensure":4457,"Ġseek":4458,"Ġnumbers":4459,"ĠSam":4460,"Ġpredict":4461,"Ġreli":4462,"Ġproduced":4463,"Ġaw":4464,"Ġsurpr":4465,"^*":4466,"Ġsatisf":4467,"Ġdemonstr":4468,"Last":4469,"inate":4470,"Ġphysical":4471,"Ġmilitary":4472,"Ġbus":4473,"Ġscient":4474,"ĠEduc":4475,"ĠChurch":4476,"}=":4477,"can":4478,"Ġtim":4479,"Ġupdate":4480,"akers":4481,"Ġnil":4482,"Ġplease":4483,"ĠProf":4484,"Us":4485,"Ġsafety":4486,"Ġresources":4487,"Ġserious":4488,"ĠGL":4489,"iding":4490,"inese":4491,"estival":4492,"Ġconstruct":4493,"Ġstru":4494,"])":4495,"ĠCong":4496,"ici":4497,"Ġagre":4498,"Ġeffective":4499,"PS":4500,"Ġmoved":4501,"Ġcorrect":4502,">(":4503,"ĠWed":4504,"ulture":4505,"cons":4506,"apping":4507,"options":4508,"ancy":4509,"ĠSl":4510,"ĠMac":4511,"Ġwasn":4512,"Ġjoin":4513,"Ġavoid":4514,"agram":4515,"Ġstatement":4516,"room":4517,"Ġnecessary":4518,"Ġmulti":4519,"Ġsy":4520,"caption":4521,"ein":4522,"Ġship":4523,"iller":4524,"gener":4525,"nor":4526,"ĠRem":4527,"Ġvacc":4528,"undle":4529,"Ġscience":4530,"itude":4531,"Ġbrought":4532,"Ġdistrict":4533,"Ġfa":4534,"Ġprotected":4535,"han":4536,"ona":4537,"Ġschools":4538,"Ġnature":4539,"Ġdigital":4540,"stream":4541,"98":4542,"ĠRiver":4543,"iring":4544,"sych":4545,"Ġdeb":4546,"Ġitem":4547,"ĠRel":4548,"ims":4549,"oz":4550,"Ġnote":4551,"Ġoccur":4552,"Ġdisease":4553,"ria":4554,"Ġrules":4555,"Ġresource":4556,"gest":4557,"Ġopportunity":4558,"onday":4559,"Ġearlier":4560,"ĠOver":4561,"Ġmus":4562,"Stream":4563,"Ġstore":4564,"Ġeconomic":4565,"Ġprinc":4566,"exas":4567,"Ġreceive":4568,"Ġrat":4569,"izations":4570,"Ġusually":4571,"âĢĺ":4572,"adding":4573,"ocal":4574,"Ġplans":4575,"CD":4576,"la":4577,"rangle":4578,"Ġclient":4579,"olf":4580,"ĠTime":4581,"Ġprep":4582,"ĠOther":4583,"ifying":4584,"VER":4585,"born":4586,"rey":4587,"well":4588,"ÑĤ":4589,"Ġnumer":4590,"ĠGeorge":4591,"ĠEr":4592,"Ġdifference":4593,"which":4594,"Ġlimited":4595,"Ġincreased":4596,"ĠGold":4597,"ĠOb":4598,")(":4599,"Ġprofessional":4600,"Ġtransfer":4601,"ĠVol":4602,"Ġmanufact":4603,"nected":4604,"ena":4605,"next":4606,"hest":4607,"member":4608,"ĠLife":4609,"eck":4610,"Pol":4611,"Ġweight":4612,"Ã³":4613,"Ġnames":4614,"Ġability":4615,"Ġrelig":4616,"button":4617,"Ġplant":4618,"ĠAlex":4619,"Ġreturned":4620,"OC":4621,"Ġcommand":4622,"UE":4623,"Ġconcept":4624,")$,":4625,"cit":4626,"ibly":4627,"Gr":4628,"Ġnovel":4629,"ÃŃ":4630,"Ġremember":4631,"Ġchanged":4632,"Ġhous":4633,"ĠFrance":4634,"Ġcard":4635,"Ġthus":4636,"Ġfans":4637,"ka":4638,"^{(":4639,"ĠRob":4640,"writ":4641,"ĠOpen":4642,"ename":4643,"mar":4644,"query":4645,"cover":4646,"Ġselect":4647,"ĠâĢ¦":4648,"97":4649,"ounds":4650,"Ġanaly":4651,"Ġallows":4652,"Ġincreasing":4653,"Ġcouple":4654,"Ġwife":4655,"itar":4656,"inding":4657,"Ġfair":4658,"ĠMedia":4659,"ĠCompany":4660,"ĠKe":4661,"Ġqual":4662,"atively":4663,"iful":4664,"aud":4665,"plies":4666,"ĠServices":4667,"oding":4668,"Ġserved":4669,"rightarrow":4670,"Ġstudent":4671,"Ġactivity":4672,"Ġclosed":4673,"Ġjo":4674,"Ġ<<":4675,"RA":4676,"ĠFriday":4677,"Head":4678,"ĠJul":4679,"Ġscen":4680,"Ġfinally":4681,"Ġindependent":4682,"Ġcapital":4683,"Ġturned":4684,"psilon":4685,"Ġheight":4686,"Ġactivities":4687,"client":4688,"Ġvert":4689,"Ġbrand":4690,"TY":4691,"ua":4692,"ronic":4693,"Ġextra":4694,"Ġdynam":4695,"oma":4696,"Util":4697,"ĠMus":4698,"Ġparents":4699,"Ġregister":4700,"Ġbank":4701,"Ġhands":4702,"Ġprop":4703,"aine":4704,"Ġpromot":4705,"isation":4706,"ala":4707,"server":4708,"Ġexcept":4709,"ĉĊ":4710,"EM":4711,"Point":4712,"och":4713,"args":4714,"Ġobtained":4715,"Ġcontains":4716,"Ġcentral":4717,"olve":4718,"Ġremain":4719,"ĠMat":4720,"abs":4721,"olds":4722,"Ġalthough":4723,"uid":4724,"wid":4725,"mas":4726,"lib":4727,"Ġ\\,":4728,"orthern":4729,"Ġfeed":4730,"Ġnorth":4731,"Ġaltern":4732,"){":4733,"cy":4734,"Ġstreng":4735,"Ġassess":4736,"anged":4737,"ĠSee":4738,"Ġinternal":4739,"Ð½":4740,"Ġfields":4741,"Ġtransport":4742,"oday":4743,"Ġparameter":4744,"lock":4745,"ĠParty":4746,"ĠSunday":4747,"height":4748,"ellig":4749,"ĠHistory":4750,"ĠGerman":4751,"ĠManagement":4752,"Ġsen":4753,"IF":4754,"Our":4755,"Ġstarting":4756,"ĠJew":4757,"grad":4758,"Ġattention":4759,"Ġsituation":4760,"Ġfelt":4761,"ĠFranc":4762,"ĠCL":4763,"aturday":4764,"post":4765,"({":4766,"Ġanti":4767,"Ġexpand":4768,"Status":4769,"Ġlock":4770,"Ġpattern":4771,"Block":4772,"51":4773,"Mar":4774,"ĠPM":4775,"ĠMary":4776,"Ġclin":4777,"ester":4778,"Ġfollowed":4779,"ĠIS":4780,"Ġpandemic":4781,"Ġple":4782,"ĠScott":4783,"py":4784,"Pe":4785,"open":4786,"Ġnation":4787,"Ġmicro":4788,")=":4789,"Ġslow":4790,"ĠJournal":4791,"Ġq":4792,"Ġbal":4793,"Ġsolid":4794,"Ġpull":4795,"outhern":4796,"Ġprojects":4797,"overs":4798,"Ġlargest":4799,"Ġprimary":4800,"ĠBay":4801,"Ġvs":4802,"Ġphase":4803,"Ġfit":4804,"ĠStar":4805,"ĠIsrael":4806,"Ġconnect":4807,"300":4808,"ocket":4809,"Ġrespond":4810,"ĠGovernment":4811,"Ġnearly":4812,"Ġchoice":4813,"iverse":4814,"first":4815,"Ġdemand":4816,"Ġheard":4817,"Ġconstruction":4818,"stract":4819,"ecause":4820,"UM":4821,"OW":4822,"Ġconnection":4823,"ĠID":4824,"Ġequip":4825,"ĠFlor":4826,"Ġclean":4827,"52":4828,"ĠProject":4829,"Ġlarger":4830,"Ġvoice":4831,"inner":4832,"ĠBig":4833,"term":4834,"Le":4835,"Ġtransform":4836,"ĠLou":4837,"ĠDiv":4838,"rypt":4839,"ĠSur":4840,"Ġeight":4841,"TS":4842,"Next":4843,"enty":4844,"Ġdistance":4845,"edy":4846,"More":4847,"ĠFore":4848,"Ġcompar":4849,"icial":4850,"Ġrandom":4851,"Component":4852,"App":4853,"uccess":4854,"si":4855,"ĠAtt":4856,"reme":4857,"lam":4858,"ani":4859,"((":4860,"Nav":4861,"ini":4862,"ĠHel":4863,"Input":4864,"Ġfamilies":4865,"54":4866,"ĠTop":4867,"bert":4868,"Ġsomet":4869,"Ġexam":4870,"header":4871,"under":4872,"Ġapproxim":4873,"96":4874,"Ġhy":4875,"Ġreports":4876,"Ġlooks":4877,"loat":4878,"Ġquickly":4879,"ĠCup":4880,"Ġbey":4881,"Ġord":4882,"Ġbur":4883,"itiz":4884,"ĠUSA":4885,"itation":4886,"Ġnone":4887,"vare":4888,"Ġoperation":4889,"Pos":4890,"ĠOffice":4891,"ĠMont":4892,"American":4893,"Ġworkers":4894,"Ġbasis":4895,"ancing":4896,"Ġmix":4897,"Ġtrade":4898,"Ġbeyond":4899,"Hel":4900,"ĠClub":4901,"azine":4902,"verse":4903,"Ġimages":4904,"Link":4905,"Ġpassed":4906,"house":4907,"inger":4908,"ĠĠĠĠĠĠĠĠĠĠĠĠĠĠĠĠĠ":4909,"iled":4910,"ĠMiss":4911,"ĠIsland":4912,"Ġdecided":4913,"Ġcustomers":4914,"ĠSmith":4915,"ebug":4916,"Ġdegree":4917,"Can":4918,"Ġ->":4919,"Ġnav":4920,"PC":4921,"Ġcontinued":4922,"Ġseven":4923,"subsection":4924,"ario":4925,"ĠHome":4926,"Ġsouth":4927,"ugin":4928,"alle":4929,"Ġmeaning":4930,"Ġbrother":4931,"cor":4932,"Ġimprove":4933,"ĠAM":4934,"weet":4935,"otype":4936,"Ġgraph":4937,"ÑĢ":4938,"uesday":4939,"ĠPlan":4940,"Ġsummer":4941,"Ġparticularly":4942,"Ġsuccessful":4943,"Base":4944,"1999":4945,"ĠNULL":4946,"Ġselected":4947,"ĠBre":4948,"rd":4949,"Ġhop":4950,"Ġpresented":4951,"Content":4952,"Instance":4953,"cos":4954,"ĠDirector":4955,"53":4956,"Ġjournal":4957,"eal":4958,"target":4959,"ĠPlay":4960,"Char":4961,"Ġeyes":4962,"Ġwide":4963,"Ġaccur":4964,"request":4965,"vider":4966,"Per":4967,"Ġspread":4968,"Ġperformed":4969,"porary":4970,"Ġmount":4971,"ĠTimes":4972,"ĠCommission":4973,"det":4974,"ĠAward":4975,"anned":4976,"Ġdirection":4977,"Ġshot":4978,"ĠST":4979,"ĠChristian":4980,"Ġones":4981,"Start":4982,"varphi":4983,"igger":4984,"ĠPeople":4985,"Ġplaces":4986,"Ġoperations":4987,"ĠBi":4988,"BA":4989,"icine":4990,"pack":4991,"antic":4992,"Ġboolean":4993,"ili":4994,"ĠGood":4995,"za":4996,"Ġign":4997,"ĠSince":4998,"pp":4999,"}^{\\":5000,"rl":5001,"venue":5002,"bottom":5003,"uns":5004,"DA":5005,"Ġsetting":5006,"ania":5007,"Ġcritical":5008,"Ġexpression":5009,"Ġremains":5010,"lections":5011,"nesday":5012,"[\"":5013,"Ġbillion":5014,"Ġhear":5015,"Ġdrive":5016,"Ġimprov":5017,"Ġbeginning":5018,"ĠTexas":5019,"ĠHill":5020,"ribe":5021,"adata":5022,"Ġfactor":5023,"ĠFe":5024,"gn":5025,"Ġsend":5026,"Ġvote":5027,"Ġblood":5028,"Ġimag":5029,"ĠChinese":5030,"append":5031,"BS":5032,"Ġreach":5033,"ĠWeb":5034,"long":5035,"ĠReturn":5036,"Ġmode":5037,"ĠCD":5038,"png":5039,"adian":5040,"aints":5041,"Ġentry":5042,"zer":5043,"Ġchance":5044,"opyright":5045,"display":5046,"Ġcivil":5047,"rate":5048,"Ġrecover":5049,"ĠMad":5050,"Me":5051,"Ġrap":5052,"ĠEducation":5053,"Ge":5054,"ĠRad":5055,"clusion":5056,"Ġmiddle":5057,"Ġdistribut":5058,"ĠMonday":5059,"Ġreference":5060,"ĠSeries":5061,"Ġmess":5062,"Ġgiving":5063,"Ġded":5064,"ĠSociety":5065,"navbar":5066,"ĠVir":5067,"Ġprograms":5068,"exp":5069,"Ġsolutions":5070,"Ġconsum":5071,"Ġproposed":5072,"Ġhighly":5073,"Ġinform":5074,"Ġhar":5075,"vention":5076,"Ġfully":5077,"ĠGermany":5078,"ĠSocial":5079,"Line":5080,"ATION":5081,"eger":5082,"bm":5083,"Ġblog":5084,"ĠNet":5085,"ĠĠĠĠĠĠĠĠĊ":5086,"Ġ\"\"\"":5087,"Ġdoc":5088,"Action":5089,"ba":5090,"Ġmur":5091,"Ġmorning":5092,"Ġprefer":5093,"Ġknew":5094,"ipp":5095,"Ġwild":5096,"ĠDevelopment":5097,"Ġcompletely":5098,"ĠTre":5099,"select":5100,"PRO":5101,"ĠBoard":5102,"itable":5103,"ĠAcad":5104,"TER":5105,"Ġroll":5106,"Ġmemory":5107,"ĉĉĉĉĉĉĉĉ":5108,"func":5109,"mult":5110,"varepsilon":5111,"Ġtouch":5112,"Ġformat":5113,"Co":5114,"ologies":5115,"icrosoft":5116,"Ã¼":5117,"flow":5118,"Ġtemperature":5119,"usion":5120,"ĠTwitter":5121,"Ġfarm":5122,"ĠCarol":5123,"ĠRobert":5124,"Ġrule":5125,"Back":5126,"ĠâĢ¢":5127,"Ġhospital":5128,"Ġphone":5129,"ĠSy":5130,"Ġencour":5131,"undred":5132,"Rep":5133,"icks":5134,"otal":5135,"Ġappoint":5136,"They":5137,"ĠSal":5138,"pol":5139,"Ġscene":5140,"Ġdou":5141,"Ġlaws":5142,"Ġexhib":5143,"Ġspent":5144,"Run":5145,"ĠSun":5146,"ĠEnd":5147,"ĠBill":5148,"Ġshoot":5149,"Ġsales":5150,"Ġprem":5151,"Ġtherefore":5152,"ĠPolicy":5153,"leep":5154,"osing":5155,"mbox":5156,"Ġcollabor":5157,"Ġsports":5158,"Ġsources":5159,"icate":5160,"strong":5161,"Ġwonder":5162,"draw":5163,"ĠRock":5164,"IA":5165,"ĠCamp":5166,"Ġdram":5167,"ĠAv":5168,"ĠĠĠĠĠĠĠĠĠĠĠĠĠĠ":5169,"ano":5170,"tx":5171,"Ġsecret":5172,"Ġcomments":5173,"gorithm":5174,"Ġessential":5175,"Ġenter":5176,"Ġinnov":5177,"ĠSuper":5178,"pc":5179,"Ġexisting":5180,"Ġsafe":5181,"Ġapply":5182,"ĠMost":5183,"Ġtelevision":5184,"ursday":5185,"ady":5186,"ĠUnion":5187,"reek":5188,"ĠForm":5189,"Ġtrust":5190,"small":5191,"elete":5192,"Label":5193,"Ġstri":5194,"Ġter":5195,"Ġpoor":5196,"Ġrespectively":5197,"icated":5198,"anda":5199,"ĠMex":5200,"76":5201,"Go":5202,"chers":5203,"Top":5204,"ĠRE":5205,"Ġuns":5206,"Ġtraditional":5207,"Ġepisode":5208,"Ġorganization":5209,"vec":5210,"ĠĠĠĠĠĠĠĠĠĠĠĠĊ":5211,"care":5212,"asy":5213,"Ġradio":5214,"CA":5215,"ĠNone":5216,"pass":5217,"Don":5218,"ustain":5219,"ĠShow":5220,"Ġcharge":5221,"ĠDet":5222,"ĠAut":5223,"Ġsometimes":5224,"cho":5225,"indows":5226,"Ġer":5227,"Token":5228,"Ġbecomes":5229,"urance":5230,"ĠBank":5231,"Ġgreen":5232,"unities":5233,"igen":5234,"IO":5235,"astr":5236,"PR":5237,"rum":5238,"AME":5239,"ãģ":5240,"Ġvirtual":5241,"ĠAfrican":5242,"ucture":5243,"Ġfirm":5244,"element":5245,"ypes":5246,"Options":5247,"oom":5248,"osis":5249,"REF":5250,"ounce":5251,"Ġthous":5252,"ĠFig":5253,"}).":5254,"Ġproper":5255,"Ġsongs":5256,"Ġshared":5257,"Equal":5258,"ĠMuseum":5259,"iance":5260,"Ġauto":5261,"Check":5262,"mat":5263,"ĠTor":5264,"ĠChild":5265,"Ġpreviously":5266,"Ġleader":5267,"ias":5268,"Ġfailed":5269,"xml":5270,"Ġlooked":5271,"ĠObject":5272,"Ġsal":5273,"onic":5274,"Ġopened":5275,"Ġready":5276,"ĠFlorida":5277,"Ġhuge":5278,"that":5279,"udget":5280,"Buffer":5281,"Ġtree":5282,"ramework":5283,"Ġbehavior":5284,"find":5285,"ributes":5286,"Ġgreater":5287,"close":5288,"ĠSaturday":5289,"Ġsupported":5290,"Ġfiles":5291,"uy":5292,"Oper":5293,"Ġmargin":5294,"Ġproviding":5295,"Ġshowed":5296,"Ġabsol":5297,"Web":5298,"erry":5299,"even":5300,"Ġarchitect":5301,"Ġdensity":5302,"inct":5303,"Now":5304,"Ġoverall":5305,"ĠMinister":5306,"Ġpressure":5307,"last":5308,"Ġobserved":5309,"Ġmoving":5310,"hi":5311,"Ġmodule":5312,"Ġcosts":5313,"ĠWil":5314,"Ġsets":5315,"ĠWeek":5316,"ĠWell":5317,"Ġ``":5318,"Ġgrand":5319,"ĠNor":5320,"aming":5321,"Ġactual":5322,"Ġteacher":5323,"iminal":5324,"iden":5325,"Ġchem":5326,"Home":5327,"Met":5328,"Ġgrowing":5329,"Ġrepe":5330,"ĠUnder":5331,"iny":5332,"den":5333,"char":5334,"Ġindividuals":5335,"Det":5336,"anta":5337,"Ġ+=":5338,"allet":5339,"Ġkilled":5340,"emph":5341,"Ġcancer":5342,"Ġalign":5343,"ĠFoundation":5344,"Ġdog":5345,"Ġgold":5346,"Ġagree":5347,"ĠTur":5348,"Ġoil":5349,"Ġgrant":5350,"Ġtesting":5351,"61":5352,"ĠMount":5353,"Ġ×":5354,"Lambda":5355,".~\\":5356,"Ġappropri":5357,"Ġelectric":5358,"arant":5359,"ĠAustralian":5360,"Ġeasily":5361,"json":5362,"arks":5363,"ĠPeter":5364,"module":5365,"85":5366,"road":5367,"Ñģ":5368,"Ġitems":5369,"Ġquarter":5370,"ications":5371,"Ġsave":5372,"eds":5373,"ĠMov":5374,"textbf":5375,"otic":5376,"CR":5377,"Ġmovement":5378,"ĠThomas":5379,"sole":5380,"Ġexperim":5381,"plicit":5382,"PA":5383,"ĠConst":5384,"Null":5385,"Ġcomputer":5386,"69":5387,"ĠNetwork":5388,"tings":5389,"proof":5390,"Ġanswer":5391,"Ġsociety":5392,"inn":5393,"ooth":5394,"âĢĿ,":5395,"ĠCommittee":5396,"atre":5397,"ette":5398,"Ġserver":5399,"Ġpurpose":5400,"dat":5401,"Ġcomponent":5402,"private":5403,"bour":5404,"Ġexactly":5405,"Ġpiece":5406,"SON":5407,"mazon":5408,"nel":5409,"Ġselection":5410,"Ġrank":5411,"Ġalone":5412,"Ġhappen":5413,"Child":5414,"Ġroot":5415,"Ġwants":5416,"Ġcompleted":5417,"ĠCentral":5418,"overline":5419,"Ġstra":5420,"Ġcarry":5421,"&\\":5422,"PD":5423,"ashion":5424,"Ġrestrict":5425,"nce":5426,"rier":5427,"Ġapplications":5428,"1998":5429,".\\":5430,"ĠTuesday":5431,"Br":5432,"ĠBuild":5433,"aby":5434,"Ġpair":5435,"itors":5436,"Ġlif":5437,"istan":5438,"Ġaffect":5439,"Ġcommunities":5440,"Ġwat":5441,"eration":5442,"dep":5443,"Ġimmediately":5444,"ulf":5445,"ifact":5446,"Load":5447,"ults":5448,"63":5449,"ĠMo":5450,"istance":5451,"ĠGen":5452,"EW":5453,"Ġpen":5454,"400":5455,"Ġshop":5456,"icket":5457,"SA":5458,"ĠCongress":5459,"Ġ]":5460,"ãĥ":5461,"ĠVict":5462,"ĠCare":5463,"Ġzero":5464,"Attribute":5465,"Ġlaunch":5466,"ĠLog":5467,"ncy":5468,"72":5469,"Ġbusinesses":5470,"ĠMel":5471,"Number":5472,"Ġkids":5473,"Version":5474,"Comp":5475,"Ġsigned":5476,"Ġvillage":5477,"pective":5478,"Ġhappened":5479,"Ġspeak":5480,"Ġstock":5481,"Handler":5482,"ĠHot":5483,"ĠÎ":5484,"Ġthr":5485,"Ġsites":5486,".}":5487,"Default":5488,"ĠLos":5489,"img":5490,"Ġwel":5491,"ĠWednesday":5492,"riend":5493,"ita":5494,"True":5495,"Ġpresence":5496,"lymp":5497,"PL":5498,"Ġequal":5499,"acter":5500,"property":5501,"Ġpoll":5502,"illa":5503,"Ġappears":5504,"ĠFrancis":5505,"Function":5506,"Ġmale":5507,"ky":5508,"icago":5509,"Ġotherwise":5510,"alax":5511,"ĠFrank":5512,")^":5513,"Ġintroduced":5514,"duction":5515,"Ġstars":5516,"Ġcommercial":5517,"ĠOper":5518,"ervation":5519,"write":5520,"Factory":5521,"uated":5522,"Ġ;":5523,"SU":5524,"pret":5525,"Ġstrugg":5526,"Ġfederal":5527,"Ġrob":5528,"1990":5529,"ĠPower":5530,"While":5531,"Ġmut":5532,"ĠTown":5533,"meta":5534,"Ġartist":5535,"Ġthrows":5536,"ĠPri":5537,"Ġwind":5538,"Ġnuc":5539,"main":5540,"ĠRoyal":5541,"ascript":5542,"orial":5543,"${":5544,"Ġproced":5545,"flict":5546,"gment":5547,"ydro":5548,"pers":5549,"src":5550,"Ġopening":5551,"orph":5552,"Ġestablish":5553,"irmed":5554,"Ġmatrix":5555,"ĠGrand":5556,"Ġvariety":5557,"ĠEvery":5558,"scale":5559,"Ġfigure":5560,"appa":5561,"TC":5562,"Ġunc":5563,"langle":5564,"status":5565,"ĠEarth":5566,"Ġcalls":5567,"icens":5568,"hedul":5569,"Eng":5570,"Ġwriter":5571,"iler":5572,"Ġefforts":5573,"Command":5574,"ĠInformation":5575,"break":5576,"Ġchurch":5577,"'d":5578,"Ġcop":5579,"âĢ¢":5580,"ĠWestern":5581,"entry":5582,"only":5583,"ĠEngine":5584,"Return":5585,"Ġclimate":5586,"Ġanc":5587,"Ġspecified":5588,"Ġrow":5589,"Ġchoose":5590,"reedom":5591,"push":5592,"Ġdaughter":5593,"Ġcru":5594,"Page":5595,"related":5596,"Ġunderstanding":5597,"Tag":5598,"Ġextends":5599,"Ġpaid":5600,"Ġstraight":5601,"Ġrates":5602,"Ġdoor":5603,"anish":5604,"Ġchannel":5605,"\"]":5606,"79":5607,"Ġcool":5608,"uthors":5609,"clos":5610,"Ġesc":5611,"Ġjoined":5612,"Ġdespite":5613,"Ġrecords":5614,"*/":5615,"Ġcoord":5616,"Ġemot":5617,"ĠSol":5618,"Ð¾Ð":5619,"Ġsample":5620,"Ġclaims":5621,"Ġtrain":5622,"amm":5623,"Ġcorresponding":5624,"Ġeth":5625,"Ġaware":5626,"local":5627,"Task":5628,"ĠWomen":5629,"ĠLong":5630,"Ġproduce":5631,"Ġmanager":5632,"inion":5633,"ĠEven":5634,"Ġreturns":5635,"Ġappeared":5636,"62":5637,"Ġstrateg":5638,"ansion":5639,"spec":5640,"Ġinterface":5641,"osen":5642,"Ġcounter":5643,"Ġhighest":5644,"\").":5645,"unched":5646,"});":5647,"Ġfemale":5648,"ĠTim":5649,"Ġbeg":5650,"ĠTechnology":5651,"alian":5652,"geq":5653,"ĠRichard":5654,"Ġbeautiful":5655,"Ġfear":5656,"ĠSil":5657,"TO":5658,"Ġdaily":5659,"Ġhundred":5660,"project":5661,"egraphics":5662,"yan":5663,"porate":5664,"includegraphics":5665,"[\\":5666,"Ġscore":5667,"Rem":5668,"Am":5669,"ĠChampionship":5670,"ĠKore":5671,"azz":5672,"ĠJun":5673,"Ġemployees":5674,"circ":5675,"eful":5676,"ĠTwo":5677,"sg":5678,"Ġfactors":5679,"Ġsurround":5680,"pects":5681,"reland":5682,"ĠFree":5683,"ABLE":5684,"ĠCommunity":5685,"ĠAlso":5686,"Ġfra":5687,"Ġobjects":5688,"Ġtal":5689,"hent":5690,"igr":5691,"Cell":5692,"Ġedge":5693,"aved":5694,"ptr":5695,"Ġpartner":5696,"Work":5697,"olk":5698,"Ġobvious":5699,"Ġcore":5700,"atin":5701,"Ġblue":5702,"TP":5703,"format":5704,"ĠEconom":5705,"ĠEp":5706,"ĠMur":5707,"bra":5708,"ĠStep":5709,"Ġtransition":5710,">>":5711,"bi":5712,"Ġforeign":5713,"ĠDev":5714,"Ġremove":5715,"Box":5716,"////////////////":5717,"ĠBrown":5718,"ĠIns":5719,"Resource":5720,"ĠThursday":5721,"ĠVirgin":5722,"century":5723,"}),":5724,"ĠMer":5725,"iform":5726,"Ġdream":5727,"Ġmission":5728,"ding":5729,"Ġsession":5730,"ĠÂ»":5731,"ĠSpe":5732,"Ġoperator":5733,"Ġahead":5734,"ĠAND":5735,"ĠBur":5736,"Ġstrategy":5737,"Ġhappy":5738,"Create":5739,"Ġcat":5740,"gency":5741,"Ġthinking":5742,"burg":5743,"Ġproof":5744,"Desc":5745,"adow":5746,"Ġeditor":5747,"Ġforms":5748,"erse":5749,"ĠLand":5750,"gu":5751,"ĠAngeles":5752,"Ġartists":5753,"Ġsusp":5754,"ĠReport":5755,"Ġcaused":5756,"owers":5757,"Ġfine":5758,"Ġrac":5759,"ðŁ":5760,"service":5761,"Ø§":5762,"Ġforces":5763,"ao":5764,"nergy":5765,"alysis":5766,"nonumber":5767,"ĠHen":5768,"Ġcoronavirus":5769,"ĠTeam":5770,"Ġcreating":5771,"ĠUN":5772,"Ġsell":5773,"ĠLead":5774,"Ġeconomy":5775,"Ġbasic":5776,"Ġreached":5777,"Ġactions":5778,"Ġfixed":5779,"Ġsun":5780,"Ġmaximum":5781,"Ġpages":5782,"Ġdebut":5783,"ĠProfess":5784,"GB":5785,"description":5786,"Ġiniti":5787,"Ġnom":5788,"arden":5789,"Ġwood":5790,"Ġreduce":5791,"Ġapplied":5792,"Ġaim":5793,"Ġslight":5794,"Ġsector":5795,"Ġextrem":5796,"Ġenh":5797,"Ġaf":5798,"ĠRussian":5799,"Ġsequence":5800,"Ġletter":5801,"Ġ{@":5802,"ella":5803,"Ġfilter":5804,"ĠArts":5805,"igration":5806,"ĠGame":5807,"Ġruns":5808,"Ġfig":5809,"ls":5810,"number":5811,"Ġrecorded":5812,"Ġlay":5813,"ivery":5814,"1997":5815,"ien":5816,"ĠGlobal":5817,"Ġsmaller":5818,"Ġdeaths":5819,"Rev":5820,"Ġpush":5821,"Vis":5822,"Ġagreement":5823,"FONT":5824,"clusive":5825,"inem":5826,"Sche":5827,"ĠSpr":5828,"Ġbill":5829,"Ġtit":5830,"Ġgenerally":5831,"Ġrelative":5832,"ourney":5833,"itness":5834,"Ġlinear":5835,"AV":5836,"Ã¶":5837,"gar":5838,"Ġcollege":5839,"Ġmill":5840,"onom":5841,"Ġmaterials":5842,"ĠRoman":5843,"Ġargument":5844,"process":5845,"inder":5846,"while":5847,"|-":5848,"Ġdetermined":5849,"abilities":5850,"Ġunits":5851,"Ġtruth":5852,"itz":5853,"ĠMass":5854,"Ext":5855,"Ġdescription":5856,"89":5857,"Ġcontain":5858,"riage":5859,"Phi":5860,"cap":5861,"Car":5862,"Ġresponsible":5863,"Ġrestaur":5864,"},\\":5865,"igan":5866,"layout":5867,"Ġpatient":5868,"Ġofficials":5869,"Ġwid":5870,"ĠJud":5871,"\"),":5872,"Gl":5873,"Ġcapacity":5874,"Ġannual":5875,"anging":5876,"Ġmaster":5877,"ĠArmy":5878,"Ġpolic":5879,"ĠVis":5880,"ĠJose":5881,"Ġtried":5882,"Ġheavy":5883,"poses":5884,"ĠLove":5885,"Ġexists":5886,"uke":5887,"show":5888,"atically":5889,"IB":5890,"ĠHead":5891,"Ġmobile":5892,"appro":5893,"Ġmajority":5894,"Min":5895,"eless":5896,"support":5897,"rolled":5898,"orter":5899,"pling":5900,"ĠType":5901,"menu":5902,"Aut":5903,"iced":5904,"Ġhelped":5905,"86":5906,"ilton":5907,"Ġspirit":5908,"ĠOh":5909,"Ġskills":5910,"Why":5911,"Ġadapt":5912,"Ġtransl":5913,"Ġnegative":5914,"Ġpi":5915,"ĉĠĠĠ":5916,"Ġrequires":5917,"ds":5918,"ĠElect":5919,"Ġowners":5920,"ĠJapanese":5921,"Ġreflect":5922,"ĠGeorg":5923,"Ġinvestment":5924,"Ġcontinues":5925,"ĠOp":5926,"Ġideas":5927,"ĠDuring":5928,"Ġdefine":5929,"ĠSection":5930,"Ġdecre":5931,"Ġmeasures":5932,"Ġvector":5933,"Ġmissing":5934,"Ġfix":5935,"mail":5936,"yth":5937,"free":5938,"Ġrelevant":5939,"Ġpowerful":5940,"Ġguid":5941,"ĠApple":5942,"Ġchallenge":5943,"ĠLouis":5944,"ils":5945,"ĠLake":5946,"font":5947,"1996":5948,"IST":5949,"Ġcompetition":5950,"ĠCentre":5951,"Ġque":5952,"ĠCall":5953,"bur":5954,"Ġequival":5955,"ĠWhy":5956,"DS":5957,"87":5958,"Ġadvant":5959,"Ġcitiz":5960,"Ġvolume":5961,"Spec":5962,"Ġ<!--":5963,"javascript":5964,"ategories":5965,"gle":5966,"FI":5967,"Ġframe":5968,"ĠWood":5969,"KE":5970,"Ġconcent":5971,"Ġexception":5972,"expected":5973,"anges":5974,"ĠJoe":5975,"asure":5976,"Ġsymbol":5977,"Ġreality":5978,"ĠJim":5979,"night":5980,"Ġbuff":5981,"ĠScot":5982,"Ġcert":5983,"Ġbattle":5984,"Ġharm":5985,"El":5986,"Here":5987,"ĠRun":5988,"olec":5989,"Ġperhaps":5990,"Ġsch":5991,"Ġrare":5992,"Ġmarried":5993,"apers":5994,"po":5995,"Open":5996,"std":5997,"Ġtools":5998,"look":5999,"Ġsmart":6000,"ĠChristmas":6001,"ĠCH":6002,"Tem":6003,"ĠSecret":6004,"Ġtests":6005,"Ġinterested":6006,"ĠApp":6007,"TV":6008,"Rel":6009,"Te":6010,"Ġrot":6011,"Ġfeet":6012,"ãĤ":6013,"Ġtraff":6014,"ĠEnter":6015,"Ġmys":6016,"ĠBack":6017,"usband":6018,"author":6019,"Ġdrink":6020,"Ġequation":6021,"ĠEX":6022,"Ġvan":6023,"cr":6024,"response":6025,"Des":6026,"Ġdim":6027,"Ġmaybe":6028,"ĠGames":6029,"ĠFund":6030,"Ġbottom":6031,"Ġoffered":6032,"ĠLee":6033,"aa":6034,"ldots":6035,"Ġillust":6036,"Sim":6037,"ttp":6038,"Ġtrial":6039,"iar":6040,"ools":6041,"Ġcomponents":6042,"Ġrail":6043,"Ġhour":6044,"Ġdevices":6045,"PO":6046,"Ġgeneration":6047,"Ġbul":6048,"CS":6049,"Ġmurder":6050,"Ġfont":6051,"Ġdetermine":6052,"ĠAtl":6053,"final":6054,"Â©":6055,"phone":6056,"going":6057,"liament":6058,"oded":6059,"ĠRussia":6060,"eft":6061,"Ġstuff":6062,"iginal":6063,"ĠPet":6064,"Ġreasons":6065,"Ġnet":6066,"Ġarrest":6067,"standing":6068,"ih":6069,"ĠAccording":6070,"Ġvirus":6071,"Ġbenefits":6072,"ĠBet":6073,"Ġtalking":6074,"kappa":6075,"Ġstrength":6076,"Ġnotice":6077,"Ġutil":6078,"Ġurl":6079,"Ġconnected":6080,"Ġclick":6081,"ĠMartin":6082,"endif":6083,"Ġparties":6084,"ĠHuman":6085,"Ġuseful":6086,"Ġhandle":6087,"Ġweak":6088,"Ġvehicle":6089,"BO":6090,"dule":6091,"hline":6092,"ĠFamily":6093,"Ġplanning":6094,"Address":6095,"front":6096,"Ġadvert":6097,"ĠHT":6098,"ĠAbout":6099,"heet":6100,"Ġoptim":6101,"IZ":6102,"Ġ~":6103,"container":6104,"Ġclearly":6105,"Ġspot":6106,"Ġkept":6107,"Ġcouldn":6108,"Ġlegis":6109,"Ġserve":6110,"ĠCath":6111,"Ġacad":6112,"ORT":6113,"Ġbrief":6114,"params":6115,"FO":6116,"Cons":6117,"Ġshape":6118,"ĠIreland":6119,"Ġmachine":6120,"pg":6121,"oration":6122,"71":6123,"Ġcris":6124,"Ġraise":6125,"ĠDesign":6126,"Ã¤":6127,"Ġrecommend":6128,"Ġbed":6129,"FC":6130,"elligence":6131,"Ġgenerated":6132,"Ġplaced":6133,"URL":6134,"car":6135,"bin":6136,"Ġclasses":6137,"Ġcertainly":6138,"Ġaudience":6139,"star":6140,"Ġswitch":6141,"Sec":6142,"ĠDen":6143,"Ġsupply":6144,"mt":6145,"rome":6146,"73":6147,"Mon":6148,"Ġdanger":6149,"ALL":6150,"asket":6151,"ĠChicago":6152,"ĠCanadian":6153,"skip":6154,"Ġinfr":6155,"oute":6156,"John":6157,"sear":6158,"apped":6159,"Ġcoach":6160,"acks":6161,"74":6162,"Ġidentified":6163,"}}$":6164,"erman":6165,"aml":6166,"Ġinstr":6167,"Ġraised":6168,"Ġconvers":6169,"ato":6170,"Ġdefe":6171,"Ġgone":6172,"ĠFoot":6173,"Mark":6174,"Ġappre":6175,"acement":6176,"Equals":6177,"annot":6178,"obj":6179,"Select":6180,"Ġspin":6181,"Ġcommit":6182,"1980":6183,"uty":6184,"Ġmentioned":6185,"ensor":6186,"ums":6187,"ĠNS":6188,"Fe":6189,"ĉĠ":6190,"Ġhyp":6191,"Ġfinished":6192,"Ġresidents":6193,"Column":6194,"ĠMot":6195,"à¥":6196,"Ġolder":6197,"ĠUse":6198,"ĠTour":6199,"ĠArab":6200,"UI":6201,"imb":6202,"olved":6203,"mazing":6204,"styles":6205,"update":6206,"ĠId":6207,"allery":6208,"nam":6209,"ĠOld":6210,"Ġcredit":6211,"ĠCheck":6212,"(&":6213,"Ġfan":6214,"Ġexcell":6215,"lie":6216,"Ġviews":6217,"########":6218,"Direct":6219,"asion":6220,"Ġminor":6221,"ĠView":6222,"About":6223,"dot":6224,"Ġdiagn":6225,"ublished":6226,"ĠTheir":6227,"west":6228,"Ġdefinition":6229,"refix":6230,"ĠOlymp":6231,"Writ":6232,"gent":6233,"Ġfunding":6234,"filter":6235,"ĠCEO":6236,"ĠOl":6237,"afe":6238,"Ġconstr":6239,"kins":6240,"Ġappropriate":6241,"ĠSecurity":6242,"Ġinfluence":6243,"abla":6244,"ponents":6245,"Ġbiggest":6246,"Ġstorage":6247,"Format":6248,"ĠFilm":6249,"Ġemb":6250,"Ġplays":6251,"Ġstated":6252,"AY":6253,"Ġcloud":6254,"MM":6255,"///":6256,"ĠPo":6257,"Ġtag":6258,"Ġarm":6259,"arp":6260,"Ġalle":6261,"arts":6262,"Ġidentity":6263,"Ġpeace":6264,"thlet":6265,"Ġdownload":6266,"cles":6267,"Art":6268,"Ġpicture":6269,"Ġopportunities":6270,"life":6271,"ented":6272,"HS":6273,"ecution":6274,"ERR":6275,")]":6276,"ĠChief":6277,"Ġyield":6278,"ĠVer":6279,"icians":6280,"power":6281,"1995":6282,"iques":6283,"Ġsteps":6284,"ĠLin":6285,"ĠDown":6286,"Ġmiles":6287,"ishes":6288,"Ġmyself":6289,"Men":6290,"Ġfresh":6291,"weight":6292,"Ġinfo":6293,"Listener":6294,"hab":6295,"Ġequipment":6296,"Ġtrend":6297,"ruit":6298,"Ġbenefit":6299,"otimes":6300,"pan":6301,"Ġconsult":6302,"Ġvisual":6303,"iciency":6304,"len":6305,"Ġexpert":6306,"Ġeventually":6307,"ĠSpecial":6308,"ician":6309,"Ġwall":6310,"Ġchief":6311,"ĠSu":6312,"84":6313,"Dev":6314,"ĠIll":6315,"odies":6316,"fa":6317,"Style":6318,"hor":6319,":</":6320,"Ġ((":6321,"ĠStand":6322,"real":6323,"Ġmeant":6324,"<?":6325,"Ġwhom":6326,"Ġwave":6327,"93":6328,"Ġoccup":6329,"Ġattract":6330,"ĠWho":6331,"column":6332,".;":6333,"These":6334,"Ġintr":6335,"ĠProv":6336,"Ġsea":6337,"plete":6338,"ĠZeal":6339,"Are":6340,"ĠVictor":6341,"Ġonto":6342,"iders":6343,"Bundle":6344,"ĠValley":6345,"/\\":6346,"AND":6347,"Ġlaunched":6348,"People":6349,"dec":6350,"Ġsenior":6351,"ĠMem":6352,"odcast":6353,"ca":6354,"Controller":6355,"ker":6356,"Ġprofile":6357,"Ġholds":6358,"Ġshift":6359,"Ġstress":6360,"Ġrequirements":6361,"SH":6362,"Ob":6363,"ĠAcademy":6364,"sf":6365,"94":6366,"Ġgoals":6367,"ideos":6368,"Ġtoward":6369,"Ġowner":6370,"Some":6371,"atever":6372,"1000":6373,"Ġearth":6374,"ART":6375,"ĠMax":6376,"fit":6377,"ĠRet":6378,"Ġincor":6379,"Ġcrow":6380,"arser":6381,"ĠParis":6382,"Ġchallenges":6383,"mes":6384,"82":6385,"ĠAmazon":6386,"rees":6387,"ocation":6388,"nabla":6389,"imensional":6390,"ĠMedical":6391,"cript":6392,"orrow":6393,"Ġresear":6394,"Ġpsych":6395,"ĠĠĠĠĠĠĠĠĠĠĠĠĠĠĠĠĠĠĠĠĠĠĠĠĠĠĠĠĠĠĠĠĠĠĠ":6396,"Ġorganizations":6397,"estic":6398,"ĠCast":6399,"ĠLibrary":6400,"ĠNY":6401,"gate":6402,"hr":6403,"ĠNOT":6404,"Ġdoll":6405,"ovid":6406,"frak":6407,"ĠFestival":6408,"mem":6409,"Ġregarding":6410,"else":6411,"ogen":6412,"Ġwish":6413,"Ġupper":6414,"_.":6415,"ĠJo":6416,"Ġbrain":6417,"astern":6418,"tag":6419,"older":6420,"ola":6421,"Ġreduced":6422,"inations":6423,"Ġnoted":6424,"Ġtrail":6425,"ĠZealand":6426,"Button":6427,"BU":6428,"drop":6429,"NO":6430,"Length":6431,"Ġshowing":6432,"ĠCommun":6433,"Ġpaint":6434,"itory":6435,"Ġcritic":6436,"ĠCharles":6437,"Ġincome":6438,"prop":6439,"Ġroute":6440,"May":6441,"%)":6442,"ĠOR":6443,"ĠIts":6444,"Ġbirths":6445,"Since":6446,"Ġut":6447,"ĠSecond":6448,"Ġcomfort":6449,"').":6450,"ĠAlthough":6451,"Url":6452,"Ġrise":6453,"itche":6454,"ki":6455,"Filter":6456,"Valid":6457,"Posted":6458,"Ġbeat":6459,"Ġfloor":6460,"Ġsumm":6461,"Ġexperi":6462,"Ġcars":6463,"Ġremoved":6464,"efined":6465,"ĠLicense":6466,"```":6467,"][":6468,"ĠDivision":6469,"Ġdomain":6470,"ĠCA":6471,"Ġseparate":6472,"Update":6473,"Ġjobs":6474,"Ġ(\"":6475,"ĠNote":6476,"Sl":6477,"Ġneighbor":6478,"ERT":6479,"Ġprocesses":6480,"Ġforced":6481,"Ġsexual":6482,"cs":6483,"ingu":6484,"Ġpanel":6485,"Ġyourself":6486,"Ġscript":6487,"Ġpackage":6488,"Ġmostly":6489,"Ġempty":6490,"bound":6491,"ĠWater":6492,"Ġguy":6493,"Ġleaving":6494,"ĠIran":6495,"ĠKingdom":6496,"Ġhusband":6497,"Ġattend":6498,"ĠBoy":6499,"ĠFort":6500,"Max":6501,"Ġshut":6502,"ircraft":6503,"PP":6504,"Ġrevealed":6505,"MO":6506,"Ġformed":6507,"unte":6508,"92":6509,"Ġeye":6510,"Ġadministration":6511,"ifically":6512,"scope":6513,"ĠJohnson":6514,"ĠRights":6515,"eces":6516,"Sigma":6517,"ĠWay":6518,"Ġended":6519,"Bo":6520,"Ġconsequ":6521,"Ġalt":6522,"ĠYoung":6523,"Ġdiscussion":6524,"ĠAny":6525,"ĠFile":6526,"ĠDE":6527,"ĠIslam":6528,"ura":6529,"Ġclinical":6530,"orney":6531,"ql":6532,"Ġpet":6533,"wrap":6534,"ĠMil":6535,"ĠAR":6536,"Ġwarm":6537,"Ġprison":6538,"Ġconference":6539,"Ġbelong":6540,"Ġkm":6541,"etime":6542,"91":6543,"gs":6544,"SD":6545,"ĠInvest":6546,"ded":6547,"Ġdestroy":6548,"HO":6549,"Ġsignificantly":6550,"ĠChris":6551,"ĠEU":6552,"osoph":6553,"Ġsignal":6554,"actor":6555,"150":6556,"isms":6557,"attr":6558,"Ġweap":6559,"ĠStat":6560,"command":6561,"ĠSand":6562,"ESS":6563,"ĠCLASS":6564,"cean":6565,"remove":6566,"Ġarticles":6567,"jection":6568,"1994":6569,"History":6570,"Cor":6571,"Ġfavorite":6572,"output":6573,"ĠJones":6574,"ĠDate":6575,"ĠCarolina":6576,"roph":6577,"Ġassume":6578,"ĠFire":6579,"Ġlisted":6580,"otes":6581,"ĠField":6582,"ĠMen":6583,"Ġleads":6584,"Ġnice":6585,"Ġseeing":6586,"DB":6587,"oves":6588,"Search":6589,"Ġminimum":6590,"apse":6591,"okes":6592,"rics":6593,"ĠHaw":6594,"ĠPenn":6595,"rick":6596,"ĠThus":6597,"kin":6598,"Ã¢":6599,"Ġconflict":6600,"iling":6601,"ultural":6602,"Ġdamage":6603,"Ġidentify":6604,"Layout":6605,"Ġbecoming":6606,"othing":6607,"elled":6608,"ĠMexico":6609,"Ġwinning":6610,"Ġmanaged":6611,"common":6612,"Ġbudget":6613,"aylor":6614,"Ġimpress":6615,"DF":6616,"Net":6617,"Ġgun":6618,"Const":6619,"Ġfourth":6620,"!âĢĿ":6621,"Ġdriver":6622,"Ġprove":6623,"CON":6624,"83":6625,"Ġmask":6626,"uries":6627,"scape":6628,"ĠSports":6629,"Ġsomew":6630,"Ġcities":6631,"ĠBas":6632,"ĠPolice":6633,"Ġfamous":6634,"Ġwww":6635,"ĠAuthor":6636,"Ġdescribe":6637,"astructure":6638,"desc":6639,"Ġconfirmed":6640,"Ġevolution":6641,"ĠGar":6642,"Ġ**":6643,"instance":6644,"Ġcamera":6645,"Port":6646,"Ġleadership":6647,"kind":6648,"ĠLast":6649,"ĠInternet":6650,"utr":6651,"normal":6652,"ora":6653,"Ġcrisis":6654,"Other":6655,"Ġhero":6656,"uls":6657,"initely":6658,"ĠTem":6659,"Ġaren":6660,"oses":6661,"ĠCy":6662,"Ġknows":6663,"Access":6664,"ynch":6665,"ifications":6666,"ĠAwards":6667,"ĠBob":6668,"aser":6669,"Ġlibrary":6670,"ACK":6671,"hens":6672,"Case":6673,"note":6674,"Ġwouldn":6675,"Ġcallback":6676,"ensus":6677,"claim":6678,"document":6679,"ĠLear":6680,"Ġunless":6681,"ĠMa":6682,"ĠWrit":6683,"TYPE":6684,"atters":6685,"Ġstreet":6686,"Ġax":6687,"ye":6688,"Ġleague":6689,"Ġult":6690,"ĠDom":6691,"greg":6692,"after":6693,"ĠTable":6694,"Ġchain":6695,"LC":6696,"Server":6697,"unit":6698,"Ġviolence":6699,"Ġpurs":6700,"mathfrak":6701,"Enc":6702,"Ġicon":6703,"ja":6704,"Ġoperating":6705,"ĠSenate":6706,"ĠLim":6707,"Provider":6708,"Init":6709,"COL":6710,"etch":6711,"mut":6712,"plications":6713,"resents":6714,"1970":6715,"edge":6716,"frame":6717,"ĠMany":6718,"endar":6719,"Book":6720,"Ġà¤":6721,"inds":6722,"ĠFood":6723,"Ġprotection":6724,"ployment":6725,"Ġfeeling":6726,"Ġphil":6727,"ĠColor":6728,"ups":6729,"Location":6730,"require":6731,"Ġfant":6732,"ĠSar":6733,"81":6734,"Ġcentre":6735,"sign":6736,"ĠLab":6737,"prime":6738,"Output":6739,"shire":6740,"ĠÂ©":6741,"Ġtrip":6742,"ancer":6743,"ĠMike":6744,"Ġcultural":6745,"Ġcategory":6746,"Ġdriving":6747,"Mode":6748,"num":6749,"Ġinfe":6750,"'.":6751,"Dec":6752,"INE":6753,"ointer":6754,"Ġofficer":6755,"ingly":6756,"oted":6757,"ĠAff":6758,"}}{":6759,"Ġmonitor":6760,"poss":6761,"ĠIndust":6762,"ean":6763,"elines":6764,"iable":6765,"ĠJon":6766,"Ġcommunication":6767,"Ġconvert":6768,"Ġsubsequ":6769,"ĠMiddle":6770,"Op":6771,"ĠAPI":6772,"Ġguide":6773,"Ġdetail":6774,"unicip":6775,"ĠEnergy":6776,"Ġrapid":6777,"API":6778,"imary":6779,"Ġcoast":6780,"ĠHor":6781,"ĠHREF":6782,"Ġpropos":6783,"ĠAsia":6784,"sd":6785,"ctors":6786,"omic":6787,"anche":6788,"ĠOrgan":6789,"Ġanimals":6790,"how":6791,"Ġcarried":6792,"ingle":6793,"Ġinterpret":6794,"Ġfif":6795,"However":6796,"=&":6797,"Ġcovered":6798,"Dep":6799,"Ġinvestigation":6800,"Ġdig":6801,"Ġsustain":6802,"clude":6803,"Ġenvironmental":6804,"crete":6805,"Ġbuildings":6806,"ecute":6807,"ĠPac":6808,"ĠAud":6809,"Ġnorm":6810,"ĠOnline":6811,"Any":6812,"Ġthank":6813,"Ġrelation":6814,"obs":6815,"Ġregions":6816,"lig":6817,"Ġkill":6818,"ĠVirginia":6819,"Ġextended":6820,"Ġmist":6821,"eler":6822,"Ġapparent":6823,"Ġoffset":6824,"war":6825,"Ġpeak":6826,"ĠSte":6827,"Ġ!==":6828,"Ġstarts":6829,"Ġfailure":6830,"Ġtraffic":6831,"RI":6832,"Ġcustomer":6833,"Ġplus":6834,"ersonal":6835,"Ġquery":6836,"kit":6837,"})$":6838,"ĠPage":6839,"Ġpros":6840,"Ġproceed":6841,"Ġflight":6842,"ĠLord":6843,"ensions":6844,"poration":6845,"ĠItalian":6846,"ĠTO":6847,"Ġcalling":6848,"=\"../../../../../":6849,"ĠLike":6850,"ometry":6851,"amin":6852,"Ġmarketing":6853,"Ġoffering":6854,"Ġstandards":6855,"ĠKey":6856,"Fin":6857,"etry":6858,"Ġjourney":6859,"ĠHospital":6860,"iger":6861,"bridge":6862,"Ġunivers":6863,"Ġplot":6864,"reference":6865,"ĠMap":6866,"Ġalgorithm":6867,"bolds":6868,"Ġseemed":6869,"Ġscope":6870,"uan":6871,"Ġdie":6872,"Ġur":6873,"Ġphoto":6874,"ĠItaly":6875,"rim":6876,"ĠBiden":6877,"++)":6878,"Ġarguments":6879,"Ġpolicies":6880,"then":6881,"WE":6882,"iki":6883,"ĠPolit":6884,"Ġtechnical":6885,"allel":6886,"1992":6887,"ĠName":6888,"2022":6889,"ĠAndrew":6890,"%;":6891,"iana":6892,"urban":6893,"eller":6894,"Cal":6895,"ĠTH":6896,"CM":6897,"Ġfacilities":6898,"ĠEach":6899,"Ġupdated":6900,"uing":6901,"ographic":6902,"Sign":6903,"Ġthanks":6904,"1993":6905,"Current":6906,"Ġthread":6907,"pool":6908,"Ġalternative":6909,"oles":6910,"boldsymbol":6911,"Ġapproximately":6912,"Ġrul":6913,"}-":6914,"Ke":6915,"uzz":6916,"ĠPop":6917,"Ġsurvey":6918,"yer":6919,"Ġflag":6920,"Ġsale":6921,"Ġadjust":6922,"classes":6923,"athan":6924,"ĠGuide":6925,"ĠCard":6926,"Ġdepartment":6927,"Ġmyst":6928,"Ġmetal":6929,"Ġcriminal":6930,"ali":6931,"Ġlisten":6932,"ĠMicrosoft":6933,"Frame":6934,"pop":6935,"pdf":6936,"Ġsettings":6937,"Ġtherap":6938,"Ġfinding":6939,"\\!":6940,"Ġdatabase":6941,"Ġmotion":6942,"atalog":6943,"ĠInit":6944,"ĠAL":6945,"Ġedition":6946,"Ġadopt":6947,"Ev":6948,"ĠAmericans":6949,"ĠReal":6950,"ucky":6951,"iser":6952,"........":6953,"?\"":6954,"Ġsymmet":6955,"ĠEqu":6956,"lines":6957,"Cache":6958,"UB":6959,"gypt":6960,"Ġvariable":6961,"Ġamazing":6962,"Width":6963,"razil":6964,"DD":6965,"Ġremaining":6966,"ĠSep":6967,"=\"-":6968,"Ġretail":6969,"should":6970,"agger":6971,"offset":6972,"Ġjoint":6973,"Ġhair":6974,"ĠLive":6975,"Sm":6976,"Ġexerc":6977,"PH":6978,"izont":6979,"ashed":6980,"Ġweather":6981,"Ġtrav":6982,"Ġconfiguration":6983,"ĠForce":6984,"Ġprocessing":6985,"PT":6986,"Ġnative":6987,"Pat":6988,"Ġweekend":6989,"Ġdu":6990,"ĠKar":6991,"oving":6992,"Ġposted":6993,"Ġthousands":6994,"Ġtruly":6995,"Ġdirected":6996,"Ġnor":6997,"Ġlearned":6998,"aste":6999,"depend":7000,"kr":7001,"zen":7002,"template":7003,"Ġscheme":7004,"Med":7005,"aka":7006,"ĠWall":7007,"Down":7008,"ĠSupport":7009,"ĠBow":7010,"uint":7011,"Ġcombination":7012,"aver":7013,"Ġrepresentation":7014,"Ġburn":7015,"Ġforest":7016,"Ġguess":7017,"Offset":7018,"Ġdeveloping":7019,"ĠBlue":7020,"Ġlayer":7021,"inet":7022,"Ġadvice":7023,"mid":7024,"Ġissued":7025,"Target":7026,"ĠEq":7027,"{{":7028,"Then":7029,"gebra":7030,"des":7031,"ĠNight":7032,"icker":7033,"ĠWal":7034,"Ġquantum":7035,"ĠJes":7036,"Ġfrag":7037,"Ġresulting":7038,"Ġrich":7039,"Ġclients":7040,"Ġlived":7041,"float":7042,"Ġwest":7043,"Ġguitar":7044,"Ġice":7045,"Ne":7046,"According":7047,"Ġshock":7048,"ULT":7049,"Ġcookies":7050,"ln":7051,"ighter":7052,"Ġmassive":7053,"ensure":7054,"Ġdepth":7055,"isters":7056,"\\[":7057,"Ġbird":7058,"Level":7059,"Ġgovern":7060,"Description":7061,"friend":7062,"Ġagreed":7063,"Ġcombined":7064,"control":7065,"Ġpolitics":7066,"Ġpil":7067,"INT":7068,"Ġadvantage":7069,"ader":7070,"Ġpan":7071,"Ġcrime":7072,"Ġfunds":7073,"Ġexchange":7074,"ading":7075,"Ġglass":7076,"sche":7077,"uations":7078,"Ġhistorical":7079,"ĠJeff":7080,"Ġcontaining":7081,"ĠWilliams":7082,"ested":7083,"tree":7084,"Ġfocused":7085,"Ġtend":7086,"found":7087,"Ġextension":7088,";\\":7089,"values":7090,"=>":7091,"Ġisol":7092,"RL":7093,"Ġheat":7094,"Ĥ¬":7095,"istration":7096,"ĠLink":7097,"Local":7098,"Ġreligious":7099,"Ġcandidate":7100,"Ġfuel":7101,"ĠKen":7102,"Ġratio":7103,"ĠObama":7104,"Ġstructures":7105,"Ġlabor":7106,"PM":7107,"Ġtells":7108,"Ġnine":7109,"Ġagent":7110,"emporary":7111,"Ġcrew":7112,"Ġjump":7113,"ifies":7114,"./":7115,"subset":7116,"Unit":7117,"Ġopinion":7118,"Ġexecutive":7119,"Ġvaccine":7120,"aws":7121,"ĠJustice":7122,"Will":7123,"Ġauthors":7124,"onym":7125,"dated":7126,"cknow":7127,"Ġfashion":7128,"Ġlab":7129,"jo":7130,"Just":7131,"{-":7132,"Red":7133,"andon":7134,"ĠPlease":7135,"Ġherself":7136,"oston":7137,"BI":7138,"utch":7139,"ĠColl":7140,"Ġsport":7141,"awa":7142,"Ġexamples":7143,"ĠPhys":7144,"roud":7145,"plet":7146,"\\|":7147,"ads":7148,"Ġfaith":7149,"ĠBase":7150,"OK":7151,"iral":7152,"Ġslightly":7153,"Ġwatching":7154,"ĠWild":7155,"ĠON":7156,"conf":7157,"Ġadding":7158,"unately":7159,"Ġannounce":7160,"esh":7161,"typ":7162,"di":7163,"ĠMethod":7164,"ushed":7165,"umin":7166,"ĠBecause":7167,"ĠSpanish":7168,"othes":7169,"Ġ[]":7170,"Types":7171,"Ġcontrast":7172,"prise":7173,"Ġdiscussed":7174,"Ġdiss":7175,"cat":7176,"Ġhappens":7177,"Ġtra":7178,"Module":7179,"Ġachieve":7180,"Ġcry":7181,"Ġextremely":7182,"ĠArray":7183,"Ġvision":7184,"bul":7185,"()->":7186,"Ġpartnership":7187,"asketball":7188,"ĠTele":7189,"igin":7190,"images":7191,"Ġfloat":7192,"Ġlett":7193,"Ġeast":7194,"Ġoriginally":7195,"dist":7196,"uts":7197,"Ġaircraft":7198,"border":7199,"ĠGeorgia":7200,"Script":7201,".âĢĻ":7202,"Ġrepresents":7203,"Ġguys":7204,"Ġdedicated":7205,"Ġdetect":7206,"ĠExper":7207,"card":7208,"Ġvac":7209,"ĠHistor":7210,"âĢī":7211,"Ġhelps":7212,"ylv":7213,"Ġcitizens":7214,"bool":7215,"riptor":7216,"Ġtun":7217,"udden":7218,"Ġspend":7219,"Ġdelivery":7220,"artifact":7221,"(-":7222,"pet":7223,"Ġgirls":7224,"news":7225,"lywood":7226,"Ġdecades":7227,"Ġexpansion":7228,"ollowing":7229,"Row":7230,"root":7231,"ĠPass":7232,"Ġconcerns":7233,"widet":7234,"ĠHarr":7235,"riev":7236,"Ġsquare":7237,"Ġvel":7238,"Ġsleep":7239,"graph":7240,"Ġbroadcast":7241,"ĠScotland":7242,"parse":7243,"Ġsubsc":7244,"rich":7245,"ĠLiber":7246,"uses":7247,"Ġreb":7248,"Ġhousehold":7249,"rect":7250,"Ġmental":7251,"Gu":7252,"ocity":7253,"iano":7254,"ĠMP":7255,"obe":7256,"Ġmusical":7257,"eries":7258,"Fig":7259,"Ġcold":7260,"wan":7261,"ĉĉĉĉĉĉĉ":7262,"Ġunknown":7263,"AGE":7264,"hetic":7265,"before":7266,"ĠFederal":7267,"ĠHand":7268,"Ġisland":7269,"Ġhelping":7270,"ĠLuc":7271,"equiv":7272,"}/":7273,"ĠOnly":7274,"itage":7275,"Ġnotes":7276,"ictionary":7277,"annels":7278,"Ġchanging":7279,"track":7280,"prototype":7281,"SL":7282,"Ġloved":7283,"Ġbalance":7284,"Parameter":7285,"Ġdivid":7286,"Ġdocuments":7287,"itutions":7288,"returns":7289,"Ġfle":7290,"ĠAdv":7291,"Ġadvent":7292,"'),":7293,"Ġpractices":7294,"ĠAction":7295,"entity":7296,"ĠLine":7297,"ipal":7298,"ĠBoth":7299,"Ġexperiences":7300,"Click":7301,"imer":7302,"120":7303,"orship":7304,"Ġincred":7305,"oder":7306,"ĠAdminist":7307,"ĠLi":7308,"Ġofficers":7309,"SO":7310,"Ġexternal":7311,"Ġyouth":7312,"1991":7313,"ĠCatholic":7314,"ĠMarket":7315,"acle":7316,"ĠPC":7317,"izontal":7318,"Ġinjury":7319,"citep":7320,"riz":7321,"enger":7322,"Ġleaves":7323,"ĠHy":7324,"Ġdelay":7325,"ĠRecords":7326,"dots":7327,"rid":7328,"]]":7329,"tml":7330,"ersey":7331,"NN":7332,"gers":7333,"ĠPrem":7334,"Ġframework":7335,"background":7336,"ĠÂ·":7337,"Ġimplementation":7338,"Ġaffected":7339,"Ġreviews":7340,"Ġbehavi":7341,"Tree":7342,"Process":7343,"Ġbutton":7344,"Ġexcellent":7345,"ĠWhe":7346,"textit":7347,"VAL":7348,"ture":7349,"mond":7350,"ĠMuslim":7351,")-":7352,"ĠConference":7353,"Ġskin":7354,"********************************":7355,"ĠRequ":7356,"Ġchosen":7357,"}+":7358,"Ġspeech":7359,"Ġmovies":7360,"Ġrain":7361,"&&":7362,"ĠCross":7363,"widetilde":7364,"Ġdoubt":7365,"Ġ{}":7366,"ĠHenry":7367,"ipe":7368,"elly":7369,".~":7370,"Ġhyper":7371,"(_":7372,"ĠWalk":7373,"ĠSciences":7374,"icted":7375,"ĠTerm":7376,"\\%":7377,"Ġequivalent":7378,"Ġstrict":7379,"ĠRo":7380,"Ġsamples":7381,"ĠToday":7382,"Ġchair":7383,"ati":7384,"Ġlatter":7385,"Ġhab":7386,"Ġdefense":7387,"ĠVan":7388,"Ġargs":7389,"files":7390,"high":7391,"Ġobj":7392,"Ġphen":7393,"Ġprepar":7394,"ĠDonald":7395,"IGN":7396,"Ġkid":7397,"Ġking":7398,"Ġterror":7399,"Ġagency":7400,"Ġran":7401,"ĠIT":7402,"ĠWat":7403,"Ġuncertain":7404,"??":7405,"ĠLem":7406,"ĠIP":7407,"posite":7408,"Ġhydro":7409,"Ġpurchase":7410,"ĠCreate":7411,"Right":7412,"Ġplants":7413,"Ġreplaced":7414,"Ġvehicles":7415,"Ġallowing":7416,"illy":7417,"ffect":7418,"appe":7419,"Ġdifferences":7420,"grade":7421,"ĠEnvironment":7422,"Utils":7423,"ĠDaniel":7424,"ĠRepublican":7425,"ĠðŁ":7426,"abeth":7427,"orders":7428,"ograp":7429,"ĠDaily":7430,"Ġsqu":7431,"Ġclassic":7432,"ĠEnt":7433,"ecutive":7434,"Ġimportance":7435,"ournament":7436,"Ġwaiting":7437,"Ġliterature":7438,"Ġnumerous":7439,"Ġrelatively":7440,"Ġuniversity":7441,"([":7442,"Ġ::":7443,"Ġcomparison":7444,"Ġtreated":7445,"Ġfeatured":7446,"rical":7447,"Ġconducted":7448,"ji":7449,"Record":7450,"ickets":7451,"Ġecho":7452,"ĠLo":7453,"Ġrom":7454,"Ġwrap":7455,"ĠCON":7456,"ĠBritain":7457,"Project":7458,"Ġfreedom":7459,"system":7460,"Ġcircum":7461,"Note":7462,"ĠWindows":7463,"abb":7464,"Ġodd":7465,"Entity":7466,"stra":7467,"ĠStudies":7468,"Ġnetworks":7469,"Ġdefinitely":7470,"stein":7471,"Header":7472,"adium":7473,"Ġintended":7474,"Ġvariables":7475,"erg":7476,"ĠGirl":7477,"Ġmotor":7478,"DO":7479,"Ġconver":7480,"QL":7481,"ĠCode":7482,"ERS":7483,"}\\,":7484,"ĠIrish":7485,"RC":7486,"Ġseat":7487,"Ġfrequency":7488,"Ġregistered":7489,"Ġstudied":7490,"ears":7491,"âĢĻ.":7492,"Ġfellow":7493,"Ġmarkets":7494,"Ġflat":7495,"ĠOrder":7496,"ĠReturns":7497,"Entry":7498,"models":7499,"?:":7500,"ko":7501,"Ġresolution":7502,"]);":7503,"Ġexplain":7504,"Ġfinite":7505,"Ġexpos":7506,"Ġerrors":7507,"Ġhomes":7508,"ĠPoint":7509,"ĠJewish":7510,"aped":7511,"inton":7512,"Ġefficient":7513,"Write":7514,"Ġappearance":7515,"URE":7516,"Ġcash":7517,"fs":7518,"Ġdetailed":7519,"apes":7520,"Ġdistinct":7521,"Ġprofession":7522,"Ġfre":7523,"ĠTherefore":7524,"Schema":7525,"ĠJac":7526,"Ġestimated":7527,"evin":7528,"stack":7529,"Ġgain":7530,"Control":7531,"Ġvictory":7532,"Ġexplained":7533,"ĠMain":7534,"ĠBeach":7535,"split":7536,"Interface":7537,"Ġfacility":7538,"modal":7539,"sen":7540,"ĠOk":7541,"Ġfounded":7542,"800":7543,"Vert":7544,"ether":7545,"Ġintegr":7546,"Ac":7547,"Ġnarr":7548,"Ġmixed":7549,"Ġevening":7550,"ulty":7551,"Jan":7552,"ĠSpace":7553,"ĠRam":7554,"ME":7555,"har":7556,"ĠMedicine":7557,"1960":7558,"second":7559,"ootstr":7560,"ĠEvent":7561,"gal":7562,"Ġactor":7563,"Ġcreative":7564,"ĠSign":7565,"Ġrepresented":7566,"Ġdiscovered":7567,"water":7568,"Ġbatter":7569,"255":7570,"Ġprices":7571,"Ġturns":7572,"Ġsympt":7573,"vas":7574,"Container":7575,"encing":7576,"ĠIII":7577,"ifest":7578,"Ġtransaction":7579,"material":7580,"cache":7581,"ĠLight":7582,"ä¸":7583,"ĠFrancisco":7584,"Ġpp":7585,"task":7586,"Ġul":7587,"Ġinteraction":7588,"Ġwarn":7589,"Ġwhatever":7590,"arian":7591,"Author":7592,"250":7593,"ĠTaylor":7594,"Ġprotein":7595,"ĠTrue":7596,"Ġpoly":7597,"ĠTrust":7598,"osc":7599,"ĠDigital":7600,"ĠFar":7601,"ĠAccess":7602,"ĠRail":7603,"Ġdistributed":7604,"Ġbuffer":7605,"ĠJoseph":7606,"Ġelected":7607,"ĠDemocratic":7608,"Ġcorner":7609,"Height":7610,"ĠFurther":7611,"600":7612,"idential":7613,"ĠMid":7614,"Ġentertain":7615,"Ġbrings":7616,"Ġwitness":7617,"ĠEgypt":7618,"utils":7619,"Ġphotos":7620,"Ġliber":7621,"token":7622,"Ġsum":7623,"Ġsupporting":7624,"Ġhaven":7625,"Ġsynt":7626,"Ġconsistent":7627,"ĠSaf":7628,"Ġdress":7629,"Ġdraft":7630,"ĠBooks":7631,"mosp":7632,"Mat":7633,"Ġguarant":7634,"Ġpurposes":7635,"ĠMA":7636,"Ġdecisions":7637,"coin":7638,"ĠFigure":7639,"Ġattacks":7640,"ansas":7641,"enter":7642,"Ġschedul":7643,"Ġsufficient":7644,"ira":7645,"ensuremath":7646,"Ġflex":7647,"Ġextract":7648,"Ġtypically":7649,"Ġkick":7650,"ĠNorthern":7651,"Ġlen":7652,"stylesheet":7653,"Ð»":7654,"aked":7655,"ĠFootball":7656,"Ġhighlight":7657,"Ġseconds":7658,"ĠProfessor":7659,"product":7660,"Ġsupposed":7661,"urer":7662,"zeta":7663,"Ġenable":7664,"ĠHon":7665,"ĠLook":7666,"focus":7667,"Ġanimal":7668,"ĠVideo":7669,"Ġring":7670,"Non":7671,"Ġsounds":7672,"bal":7673,"direct":7674,"Http":7675,"ugins":7676,"Ġexperiment":7677,"ĠĠĠĠĠĠĠĠĠĠĠĠĠĠĠĠĠĠĠĠĠ":7678,"Ġspaces":7679,"Ġpure":7680,"artifactId":7681,"site":7682,"Use":7683,"CP":7684,"Ġbond":7685,"ĠLittle":7686,"range":7687,"window":7688,"ĠColumb":7689,"iro":7690,"FT":7691,"ĠSeason":7692,"Pass":7693,"Ġinternet":7694,"Ġbegins":7695,"nections":7696,"va":7697,"rawn":7698,"1989":7699,"Ġhousing":7700,"None":7701,"Ġhotel":7702,"cluded":7703,"bre":7704,"bury":7705,"Ġpun":7706,"uality":7707,"imately":7708,"Prot":7709,"Ġcreation":7710,"Ġtheme":7711,"ATA":7712,"spe":7713,"ski":7714,"ĠKim":7715,"Ðº":7716,"aturing":7717,"irty":7718,"Ġpadding":7719,"Ġcoverage":7720,"Ġremote":7721,"ITY":7722,"Ġfish":7723,"fil":7724,"ĠMcC":7725,"Ġfinish":7726,"alo":7727,"Configuration":7728,"ursor":7729,"ĠModel":7730,"Ġcommitted":7731,"Ġjustice":7732,"Ġpieces":7733,"Ġboundary":7734,"oral":7735,"END":7736,"inating":7737,"ĠRadio":7738,"Ġgenerate":7739,"$)":7740,"ione":7741,"missions":7742,"ĠRele":7743,"ĠEN":7744,"odd":7745,"media":7746,"Ġuint":7747,"Ġsan":7748,"Ġremained":7749,"utely":7750,"Ġaudio":7751,"Ġfavour":7752,"faces":7753,"Ġmolec":7754,"Ġvent":7755,"\\{":7756,"secut":7757,"Ġgalax":7758,"ĠJackson":7759,"ĠMult":7760,"Ġnuclear":7761,"ova":7762,"ĠTw":7763,"\"))":7764,"ĠCoast":7765,"ĠMake":7766,"resource":7767,"rb":7768,"mo":7769,"ĠSteve":7770,"Stat":7771,"icity":7772,"empty":7773,"Ġpal":7774,"oster":7775,"Ġhearing":7776,"phas":7777,"Ġadvance":7778,"Ġlocations":7779,"Ġsister":7780,"DR":7781,"Ġplane":7782,"avor":7783,"Ġmarriage":7784,"example":7785,"ĠRh":7786,"icons":7787,"antly":7788,"Ġadvanced":7789,"ĠLtd":7790,"formance":7791,"Ġsolar":7792,"ĠSouthern":7793,"Ġvideos":7794,".$":7795,"ĠCovid":7796,"Ġpositions":7797,"buffer":7798,"Tags":7799,"Ġregional":7800,"Mult":7801,"Ġexperienced":7802,"IX":7803,"icol":7804,"imation":7805,"Ġmatches":7806,"=\"../../../../../../":7807,"Ġkeeping":7808,"ĠStory":7809,"ffee":7810,"Ġcolle":7811,"Ġspring":7812,"News":7813,"Gen":7814,"Phone":7815,"Ġfell":7816,"Ġsmooth":7817,"Ġprepared":7818,"ĠPrivacy":7819,"iveness":7820,"Ġsplit":7821,"ĠControl":7822,"ĠPak":7823,"Ġentered":7824,"âĢĻ,":7825,"world":7826,"Ġtechniques":7827,"Ġban":7828,"ĠPhot":7829,"rule":7830,"Ġancient":7831,"CODE":7832,"Ġimproved":7833,"home":7834,"Ġton":7835,"ĠPan":7836,"ima":7837,"ĠRom":7838,"ĠEth":7839,"ĠMaster":7840,"Ġexpressed":7841,"Tube":7842,"Ġinn":7843,"Ġchemical":7844,"inson":7845,".'":7846,"Ġmessages":7847,"\\]":7848,"Ġexplicit":7849,"mann":7850,"anguages":7851,"Ġcarbon":7852,"ĠWatch":7853,"ootstrap":7854,"Ġbright":7855,"MC":7856,"ello":7857,"Ġpool":7858,"Ġspectrum":7859,"erts":7860,"Ġemergency":7861,"vector":7862,"Ġtrees":7863,"Ġcommission":7864,"Window":7865,"ĠFed":7866,"urrency":7867,"Ġbranch":7868,"ĠAirport":7869,"ogy":7870,"iffer":7871,"Connection":7872,"ĠSummer":7873,"ĠMu":7874,"Ear":7875,"ĠSoft":7876,"match":7877,"Ġcounty":7878,"Long":7879,"Ġstudio":7880,"ĠQueen":7881,"Ġholding":7882,"sin":7883,"ĠMic":7884,"Ġarrived":7885,"Ġprotocol":7886,"Ġapart":7887,"rot":7888,"coll":7889,"¿½":7890,"ĠJer":7891,"anes":7892,"Ġpassion":7893,"ĠFair":7894,"Ġsecure":7895,"Ġplanet":7896,"Callback":7897,"Ġmeasured":7898,"Ġupdates":7899,"Ġnewsp":7900,"ĠPacific":7901,"ĠJr":7902,"Thread":7903,"Â°":7904,"Ġscientific":7905,"coh":7906,"ĠChildren":7907,"ĠAvenue":7908,"itan":7909,"ĠBrazil":7910,"Ġprobability":7911,"Ġcaught":7912,"Ġriver":7913,"possible":7914,"Ġcas":7915,"ĠSwed":7916,"Ġmanner":7917,"anner":7918,"Ġhidden":7919,"ivation":7920,"Ġexplore":7921,"Ġfigures":7922,"ĠDou":7923,"Change":7924,"Ġstations":7925,"Ġnoise":7926,"Ġtested":7927,"groupId":7928,"ĠMichigan":7929,"eah":7930,"Ġends":7931,"Fil":7932,"Ġowned":7933,"osa":7934,")=\\":7935,"ĠSus":7936,"omorph":7937,"ĠCustom":7938,"eper":7939,"tabular":7940,"tical":7941,"ï¿½":7942,"Ġpossibly":7943,"join":7944,"device":7945,"aset":7946,"icer":7947,"izabeth":7948,"ipeline":7949,"plex":7950,"prov":7951,"ulner":7952,"construct":7953,"Position":7954,"Ã§":7955,"Ġvolunte":7956,"ampion":7957,"Ġmanage":7958,"Ġcycle":7959,"Best":7960,"hemat":7961,"auge":7962,"shop":7963,"Ġdance":7964,"essions":7965,"Ġtracks":7966,"Ġtow":7967,">,":7968,"ĠDC":7969,"Ġeasier":7970,"cuss":7971,"hash":7972,"ĠBoston":7973,"ORM":7974,"Ġsurg":7975,"Ġcharges":7976,"oggle":7977,"NAME":7978,"Ġdefend":7979,"Ġregul":7980,"lyn":7981,"Ġcontribution":7982,"ĠGal":7983,"Ġtemplate":7984,"STR":7985,"Ġinfrastructure":7986,"access":7987,"ĠStart":7988,"Ġsuggested":7989,"pled":7990,"Ġfighting":7991,"reshold":7992,"Empty":7993,"ĠRest":7994,"operator":7995,"EXT":7996,"Ġeat":7997,"Ġindeed":7998,"ĠTri":7999,"={":8000,"ialize":8001,"avid":8002,"cope":8003,"Ġformation":8004,"Ġclaimed":8005,"Range":8006,"Ġrent":8007,"Que":8008,"ador":8009,"Ġven":8010,"ĠWin":8011,"duced":8012,"ĠComput":8013,"Track":8014,"Ġconfirm":8015,"Ġadvoc":8016,"Ġusual":8017,"Ġcouncil":8018,"ĠLocal":8019,"Document":8020,"Ġfinds":8021,"Ġinspired":8022,"Dom":8023,"dest":8024,"Ġapproved":8025,"}=\\":8026,"awn":8027,"onto":8028,"Hash":8029,"ĠEngineering":8030,"make":8031,"inates":8032,"yo":8033,"Ġequations":8034,"Ġlose":8035,"ĠBrook":8036,"ĠSpain":8037,"store":8038,"Title":8039,"Ġbrowser":8040,"ĠSecretary":8041,"Well":8042,"anna":8043,"Ġfeels":8044,"Ġ\"\\":8045,"ela":8046,"||":8047,"ĠTheatre":8048,"Ġentirely":8049,"oti":8050,"ĠTer":8051,"%,":8052,"Ġfort":8053,"LA":8054,"Two":8055,"Settings":8056,"Ġproud":8057,"Ġadministr":8058,"ifer":8059,"GE":8060,"ĠWales":8061,"ennis":8062,"avity":8063,"bro":8064,"ĠBlog":8065,"ATH":8066,"ĠEmp":8067,"Ġreform":8068,"ĠCivil":8069,"ceived":8070,"Ġorders":8071,"Ġattribute":8072,"ĠAssembly":8073,"Ġgather":8074,"allow":8075,"DC":8076,"ĠRen":8077,"ctx":8078,"Params":8079,"1988":8080,"Ġcos":8081,"Ġprotest":8082,"Ã¨":8083,"Ġcharged":8084,"Ġrough":8085,"Ġappointed":8086,"ĠNon":8087,"iration":8088,"Ġreserved":8089,"Ġelim":8090,"fast":8091,"Psi":8092,"opher":8093,"try":8094,"ran":8095,"Ġreaders":8096,"ĠFull":8097,"del":8098,"jpg":8099,"ĠSir":8100,"km":8101,"burgh":8102,"Ġrelationships":8103,"Ġsudden":8104,"ila":8105,"Ġacademic":8106,"Mr":8107,"ĉĉĊ":8108,"hover":8109,"ĠSaint":8110,"ĠUser":8111,"Menu":8112,"Ġplanned":8113,"present":8114,"Ġfill":8115,"Ġbringing":8116,"Ġreject":8117,"osophy":8118,"oes":8119,"ĠAndroid":8120,"Ġspecifically":8121,"ĠCook":8122,"ANT":8123,"Ġauthorities":8124,"icing":8125,"____":8126,"IZE":8127,"Ġexistence":8128,"():":8129,"Ġlicense":8130,"Ġdemocr":8131,"istent":8132,"Json":8133,"Ġmagnetic":8134,"COLOR":8135,"pton":8136,"%%":8137,"Ġlies":8138,"Ġunion":8139,"sey":8140,"cf":8141,"Ġdivision":8142,"stone":8143,"Ġretain":8144,"acts":8145,"Ġincident":8146,"ĠAgain":8147,"Ġcollected":8148,"Ġposts":8149,"ĠKnow":8150,"fol":8151,"uous":8152,"ĠSong":8153,"Ġsides":8154,"Ġresearchers":8155,"debug":8156,"Ġwriters":8157,"ez":8158,"ishop":8159,"vin":8160,"Ġworse":8161,"unting":8162,"ĠFred":8163,"click":8164,"Ġtherm":8165,"Ġaccepted":8166,"estion":8167,"!\"":8168,"icture":8169,"ĠPay":8170,"lik":8171,"Ġtro":8172,"DP":8173,"ws":8174,"Ġhonest":8175,"ĠDar":8176,"ervative":8177,"DL":8178,"ĠEXP":8179,"ĠRay":8180,"ĠArea":8181,"Show":8182,"ĠFox":8183,"ĠKn":8184,"white":8185,"FR":8186,"Ġperspective":8187,"Ġstopped":8188,"ĠFour":8189,"Option":8190,"Ġbelieved":8191,"Properties":8192,"Ġsinger":8193,"Ġauthority":8194,"law":8195,"isa":8196,"Ġcandidates":8197,"Ġaccident":8198,"words":8199,"Ġmedium":8200,"Ġexperts":8201,"internal":8202,"Ġacknow":8203,"Ġreferred":8204,"Ġadm":8205,"ĠCur":8206,"qquad":8207,"scious":8208,"---":8209,"ĠGuard":8210,"Yes":8211,"outs":8212,"Ġalleged":8213,"icious":8214,"Ġscored":8215,"Ġemphas":8216,"Ġshares":8217,"ĠSom":8218,"person":8219,"ĠSea":8220,"Ġwinner":8221,":\"":8222,"Ver":8223,"Ġassign":8224,"Ġtechnologies":8225,"Ġtruck":8226,"issions":8227,"email":8228,"Ġtwice":8229,"Ġtopic":8230,"Every":8231,"GR":8232,"ocks":8233,"Ġcluster":8234,"Ġsoul":8235,"Ġprivacy":8236,"Ġmagazine":8237,"Ġment":8238,"ĠBern":8239,"^+":8240,"aren":8241,"ACT":8242,"Ġafford":8243,"ORD":8244,"irms":8245,"Ġsand":8246,"Ġoperators":8247,"Ġreceiving":8248,"Ġestimate":8249,":(":8250,"redit":8251,"ĠProm":8252,"Ġcart":8253,"Ġfilled":8254,"ificate":8255,"ĠHa":8256,"Ġterrit":8257,"equal":8258,"Ġsuggests":8259,"ĠHard":8260,"itutional":8261,"indent":8262,"ĠChair":8263,"DT":8264,"Please":8265,"Ġmort":8266,"World":8267,"Ġtradition":8268,"ĠBul":8269,"Ġincreases":8270,"lers":8271,"Ġhealthy":8272,"orry":8273,"ĠBroad":8274,"Ġuniform":8275,"ipl":8276,"Sw":8277,"Ġawarded":8278,"Ġrh":8279,"=\"_":8280,"holder":8281,"Ġreaction":8282,"reens":8283,"Ġsubstant":8284,"ilation":8285,"Ġextr":8286,"Ġcauses":8287,"GA":8288,"ĠCre":8289,"\"));":8290,"Sk":8291,"Ġabuse":8292,"ĠMS":8293,"ĠStan":8294,"Ġmel":8295,"1987":8296,"Ġcer":8297,"La":8298,"ylvania":8299,"ĠMah":8300,"Ġrecording":8301,"ĠSher":8302,"interface":8303,"cp":8304,"Ġfamiliar":8305,"ĠSche":8306,"ĠThree":8307,"brid":8308,"connect":8309,"Ġasking":8310,"Ġille":8311,"Ġaspects":8312,"dimensional":8313,"$(":8314,"ĠAf":8315,"Ġsharing":8316,"lements":8317,"Find":8318,"Ġbroken":8319,"Ġconsidering":8320,"Ġteaching":8321,"Ġspons":8322,"ĠCarl":8323,"ĠNext":8324,"istant":8325,"160":8326,"Ġminute":8327,"itu":8328,"ĠPrime":8329,"Ġlit":8330,"ĠYes":8331,"esome":8332,"enum":8333,"Ġcontainer":8334,"amber":8335,"send":8336,"Ġera":8337,"101":8338,"isodes":8339,"forcement":8340,"Ġresponsibility":8341,"iples":8342,"GET":8343,"ariant":8344,"ĠSE":8345,"ĠOx":8346,"full":8347,"Ġconsists":8348,"Where":8349,"pay":8350,"(:":8351,"patch":8352,"docs":8353,"yes":8354,"ĠCirc":8355,"Ġoverride":8356,"Ġwinter":8357,"ockey":8358,"ĠKong":8359,"Ġparticipants":8360,"cut":8361,"Ġderived":8362,"Store":8363,"tics":8364,"ĠLu":8365,"Left":8366,"lix":8367,"fortunately":8368,"Ġappreci":8369,"env":8370,"ĠAsh":8371,"Ġgender":8372,"LS":8373,"Each":8374,"Ġdelivered":8375,"asters":8376,")^{":8377,"Ġsac":8378,"Ġvoc":8379,"Previous":8380,"Ġengineering":8381,"rovers":8382,"Ġstanding":8383,"Ġinterests":8384,"Ġfat":8385,"Ġconsumer":8386,"ĠVill":8387,")/":8388,"Ġserving":8389,"tn":8390,"Ġinstitutions":8391,"ĠKh":8392,"ĠMath":8393,"ĠExecutive":8394,"Ġgreatest":8395,"Ġearn":8396,"Ġing":8397,"apore":8398,"Ġwaves":8399,"adel":8400,"Ġinner":8401,"\">&":8402,"IVE":8403,"Ġexcited":8404,"Ġindepend":8405,"Ġliqu":8406,"disabled":8407,"Ġtypical":8408,"opl":8409,"Ġabsolute":8410,"effect":8411,"ĠTurn":8412,"Ġtor":8413,"ĠWhere":8414,")}\\":8415,"ĠFinal":8416,"ression":8417,"Ġacting":8418,"Ġreduction":8419,"}]":8420,"Ġswe":8421,"Ġnodes":8422,"Google":8423,"Ġindustrial":8424,"Ġvisible":8425,"Ġoccurred":8426,"Ġwilling":8427,"isted":8428,"uri":8429,"AF":8430,"Ġatmosp":8431,"ĠDeb":8432,"Ġestate":8433,"Font":8434,"Ġbaby":8435,"Ġcompre":8436,"Living":8437,"Ġtoken":8438,"Ġjav":8439,"Ġ>=":8440,"Integer":8441,"ailing":8442,"Ġfilename":8443,"ACE":8444,"ĠParliament":8445,"Impl":8446,"umes":8447,"ĠAT":8448,"mode":8449,"Session":8450,"session":8451,"Ġformal":8452,"oir":8453,"1984":8454,"Ġmir":8455,"Ġdebate":8456,"XX":8457,"Ġinstrument":8458,"ĠHamilton":8459,"Ġrecall":8460,"orough":8461,"enses":8462,"Ġsupports":8463,"contin":8464,"Ġthoughts":8465,"ĠBru":8466,"prene":8467,"cur":8468,"Ġ*)":8469,"nap":8470,"ĠSat":8471,"'>":8472,"engers":8473,"ĠNumber":8474,"Has":8475,"Ġforg":8476,"Host":8477,"Ġconcerned":8478,"1986":8479,"Ã³n":8480,"amental":8481,"king":8482,"Ġmoments":8483,"Ġped":8484,"Ġreplace":8485,"address":8486,"Ġwear":8487,"Ġprogramme":8488,"ĠOnce":8489,"Found":8490,"Ġsegment":8491,"Order":8492,"aks":8493,";->":8494,"ycl":8495,"ographer":8496,"Ġsimpl":8497,"ifts":8498,"ĠMO":8499,"ĠException":8500,"Ġarchitecture":8501,"ĠBG":8502,"Ġxml":8503,"Copyright":8504,"ĠSearch":8505,"acket":8506,"Ġputting":8507,"global":8508,"ĠKent":8509,"ĠCost":8510,"Ġconven":8511,"ĠKorea":8512,"ĠPR":8513,"Ġveg":8514,"During":8515,"Ġtrigger":8516,"ÙĦ":8517,"Helper":8518,"ymmet":8519,"inator":8520,"Ġsuccessfully":8521,"Ġhash":8522,"centering":8523,"Ġideal":8524,"raham":8525,"Ġmainly":8526,"ĠAssert":8527,"cup":8528,"Ġcompare":8529,"Ġcommittee":8530,"Ġdrama":8531,"footer":8532,"Ġboost":8533,"Ġwaste":8534,"Ġbow":8535,"ĠIss":8536,"Ġcloser":8537,"VD":8538,"ruption":8539,"BR":8540,"Ġcircumst":8541,"reprene":8542,"Ġtherapy":8543,"ulating":8544,",-":8545,"Ġwa":8546,"UP":8547,"ĠCat":8548,"utral":8549,"Ġinstalled":8550,"Ġdelete":8551,"Ġcompr":8552,"dict":8553,"rine":8554,"Step":8555,"Ġiter":8556,"Ġachieved":8557,"ĠSon":8558,"ĠBad":8559,"Ġwealth":8560,"Ġdepends":8561,"Ġsuc":8562,"Ġacid":8563,"raq":8564,"Ġbelief":8565,"ĠStaff":8566,"Ġgar":8567,"rie":8568,"ĠWis":8569,"Ġremark":8570,"Ġsigns":8571,"Ġamb":8572,"record":8573,"Ġgrew":8574,"ĠBBC":8575,"screen":8576,"exports":8577,"ĠText":8578,"Ġparams":8579,"Ġneighborhood":8580,"Ġurban":8581,"ĠHas":8582,"Ġguard":8583,"ĠSupreme":8584,"Ġworst":8585,"ĠCro":8586,"Ġpit":8587,"ĠLew":8588,"inois":8589,"Oh":8590,"erves":8591,"worth":8592,"ĠCase":8593,"Ġmil":8594,"Ġaccounts":8595,"ĠBu":8596,"Ġmaps":8597,"iamond":8598,"enth":8599,"xx":8600,"ĠPhoto":8601,"ĠAge":8602,"ĠTheorem":8603,"sylvania":8604,"merce":8605,"arters":8606,".[":8607,"Ġdro":8608,"NavBar":8609,"umni":8610,"ernel":8611,"cdots":8612,"eman":8613,"Before":8614,"Ġpriv":8615,"ĠJersey":8616,"language":8617,"export":8618,"Ġspending":8619,"ĠKenn":8620,"Ġstorm":8621,"MT":8622,"Your":8623,"lights":8624,"ownt":8625,"inity":8626,"Ġwelcome":8627,"Dat":8628,"organ":8629,"ĠAsian":8630,"Async":8631,"Ġcorporate":8632,"Ġelectron":8633,"ĠUpdate":8634,"Core":8635,"Ġrepeated":8636,"ĠOhio":8637,"Photo":8638,"Ġversions":8639,"Ġconfidence":8640,"stat":8641,"ĠLO":8642,"Ġnum":8643,"ĠMatt":8644,"Ġacts":8645,"Ġdangerous":8646,"alar":8647,"{(":8648,"Ġconversation":8649,"ĠClin":8650,"Ġhumans":8651,"uby":8652,"Ġreporting":8653,"panel":8654,"Collection":8655,"Xml":8656,"dy":8657,"Ġroles":8658,"Ġentity":8659,"sv":8660,"auth":8661,"virt":8662,"Ġclassical":8663,"pson":8664,"stop":8665,"shall":8666,"Ġcolon":8667,"step":8668,"Ġreader":8669,"Operation":8670,"Ġarbit":8671,"Ġelectronic":8672,"isc":8673,"Ġlicens":8674,"wa":8675,"lemma":8676,"Nov":8677,"otted":8678,"Ġdrugs":8679,"sid":8680,"ĠLabor":8681,"ĠSite":8682,"vol":8683,"Ġpayment":8684,"Ġzone":8685,"Pop":8686,"Ġdecade":8687,"Ġprovider":8688,"Ġintelligence":8689,"Ġelections":8690,"fields":8691,"Ġmatters":8692,"ĠCorporation":8693,"Ġ(+":8694,"Ġexport":8695,"heast":8696,"je":8697,"bind":8698,"ixel":8699,"ĠRog":8700,"ĠĠĠĠĠĠĠĠĠĠĠĠĠĠĠĠĠĠĠĠ":8701,"Ġperman":8702,"Ġyes":8703,"Ġrestaurant":8704,"ĠSP":8705,"Ġinsurance":8706,"Ġalbums":8707,"Ġ['":8708,"tenance":8709,"ĠMajor":8710,"mic":8711,"Ġunf":8712,"Dir":8713,"110":8714,"obuf":8715,"Ġarms":8716,"Ġproducer":8717,"Ġprocedure":8718,"lets":8719,"Ġconsole":8720,"Ġcoal":8721,"Ġcle":8722,"teen":8723,"Ġexperimental":8724,"ĠNav":8725,"boy":8726,"Ġvary":8727,"ĠYouTube":8728,"clear":8729,"roke":8730,"Ġvulner":8731,"Stud":8732,"ĠSystems":8733,"Ġsymptoms":8734,"aret":8735,"izz":8736,"Ġdirectory":8737,"=\"/":8738,"ĠAnth":8739,"hensive":8740,"oor":8741,"Ġdynamic":8742,"}_\\":8743,"1985":8744,"ĠCountry":8745,"ERROR":8746,"Ġjudge":8747,"UD":8748,"Ġcraft":8749,"Ġstores":8750,"Ġcontributions":8751,"ego":8752,"fire":8753,"Ġefficiency":8754,"Ġlargely":8755,"Ġhundreds":8756,"appoint":8757,"})\\":8758,"Ġsucceed":8759,"Mem":8760,"Ġpassing":8761,"Ġdry":8762,"ĠGi":8763,"ĠFOR":8764,"ĠTR":8765,"you":8766,"ĠHom":8767,"linear":8768,"component":8769,"Results":8770,"ternoon":8771,"Device":8772,"iner":8773,"ni":8774,"Ġrenew":8775,"imensions":8776,"ĠAS":8777,"ogether":8778,"Ġok":8779,"delete":8780,"Ġride":8781,"({\\":8782,"ĠSpring":8783,"Ġloop":8784,"Ġheav":8785,"esterday":8786,"arc":8787,"ipped":8788,"Ġindicate":8789,"ĠProduct":8790,"ĠExt":8791,"}|":8792,"Ġassociation":8793,"ĠSpec":8794,"ership":8795,"aph":8796,"achine":8797,"Ġec":8798,"High":8799,"ĠAdam":8800,"Ġdropped":8801,"ses":8802,"Ġongoing":8803,"Ġseeking":8804,"Ġsky":8805,"###":8806,"Ġspl":8807,"ells":8808,"short":8809,"Ġpowers":8810,"Ġtalent":8811,"letter":8812,"ĠRight":8813,"Ġtight":8814,"ĠGreek":8815,"ĠAnother":8816,"Ġexperiments":8817,"Ġworldwide":8818,"{}":8819,"Serial":8820,"Ġforget":8821,"Ġaid":8822,"ĠMir":8823,"ĠEst":8824,"Ġpromote":8825,"EST":8826,"Main":8827,"Ġdomestic":8828,"Ġblocks":8829,"Ġrevenue":8830,"Ġrecip":8831,"Play":8832,"Ġvisitors":8833,"fill":8834,"Ġembed":8835,"ĠInstagram":8836,"ĠTrail":8837,"Most":8838,"Ġcontained":8839,"Ġtom":8840,"ĠPrince":8841,"Ġgene":8842,"Ġdegrees":8843,"Ġschedule":8844,"achment":8845,"Reference":8846,"tim":8847,"Ġfly":8848,"issue":8849,"Ġinitially":8850,"Ġsad":8851,"andra":8852,"padding":8853,"een":8854,"ito":8855,"itals":8856,"Ġadults":8857,"ĠThrough":8858,"types":8859,"GO":8860,"{{\\":8861,"Ġordered":8862,"upload":8863,"double":8864,"Ġsnow":8865,"widget":8866,"ĠNick":8867,"Ġabsor":8868,"\\\"":8869,"DIR":8870,"Ġadult":8871,"gov":8872,"Ġstret":8873,"ĠCopyright":8874,"udes":8875,"Ġdecide":8876,"Ġmuseum":8877,"Figure":8878,"Ġplenty":8879,"ĠMagazine":8880,"ĠRegister":8881,"ĠPers":8882,"SION":8883,"ĠCa":8884,"Ñĥ":8885,"ordan":8886,"Ġrecovery":8887,"gence":8888,"Ġlinked":8889,"Ġtech":8890,"Ġsurrounding":8891,"UK":8892,"}^\\":8893,"Ġspeaking":8894,"uction":8895,"quir":8896,"Ġundefined":8897,"bel":8898,"Ġfeaturing":8899,"Ġcycl":8900,"Ġtalks":8901,"master":8902,"ĠDeath":8903,"Ġhistoric":8904,"123":8905,"Ġarmy":8906,"ĠHotel":8907,"ĠWilson":8908,"Only":8909,"rence":8910,"Ġstands":8911,"iy":8912,"Ġveter":8913,"Ġmand":8914,"ĠBol":8915,"Ġshooting":8916,"ĠRyan":8917,"Ġwalking":8918,"ĠBon":8919,"Ġtum":8920,"ĠRon":8921,"ynchron":8922,"à¸":8923,"1950":8924,"Ġthick":8925,"ĠRod":8926,"Ġpossibility":8927,"ĠProcess":8928,"Ġdoctor":8929,"Ġdimension":8930,"ĠExpl":8931,"Ġsouthern":8932,"ĠRos":8933,"ussian":8934,"ĠFord":8935,"andy":8936,"keys":8937,"================================":8938,"ĠPRO":8939,"sex":8940,"ydney":8941,"msg":8942,"Ġfiled":8943,"Ġnorthern":8944,"MENT":8945,"ounsel":8946,"ĠNO":8947,"Ġmarked":8948,"Ġexciting":8949,"Ġmouth":8950,"Ġagric":8951,"ĠPen":8952,"ĠDead":8953,"pa":8954,"ĠWel":8955,"handle":8956,"Ġcab":8957,"ĠUkr":8958,"Â®":8959,"Ġstatements":8960,"Ġwidely":8961,"Ġaccurate":8962,"Ġquiet":8963,"Ġassessment":8964,"Public":8965,"Ġdepending":8966,"anchester":8967,"Ġnarrow":8968,"Ġlie":8969,"Ġconsumers":8970,"Ġbought":8971,"Ġgap":8972,"pute":8973,"Ġmenu":8974,"Exp":8975,"ori":8976,"ĠElizabeth":8977,"ĠValue":8978,"ĠCreat":8979,"Av":8980,"Ġapproaches":8981,"Ġadj":8982,"Another":8983,"Ġchannels":8984,"Ġcollaboration":8985,"ĠCru":8986,"Ġexposure":8987,"Ġlots":8988,"Ġelev":8989,"'],":8990,"operation":8991,"plugin":8992,"ructions":8993,"uma":8994,"pare":8995,"Ġteen":8996,"ICE":8997,"ĠNC":8998,"Ġhouses":8999,"Look":9000,"kg":9001,"Ġ})":9002,"ĠDNA":9003,"Ġcontrolled":9004,"Ġwonderful":9005,"Ġhonor":9006,"Ġstable":9007,"Ġcoeff":9008,"Classes":9009,"shot":9010,"toString":9011,"ials":9012,"Ġspoke":9013,"transform":9014,"Ġteachers":9015,"Ġalongside":9016,"Î±":9017,"Ġvertical":9018,"Many":9019,"omy":9020,"hered":9021,"tainment":9022,"Ġexercise":9023,"thm":9024,"ĠManager":9025,"Draw":9026,"Ġattended":9027,"uable":9028,"ĠChange":9029,"Ġbridge":9030,"Ġtelling":9031,"SR":9032,"Ġnearby":9033,"she":9034,"Ġabsolutely":9035,"fly":9036,"Second":9037,"fony":9038,"ĠHong":9039,"abet":9040,"una":9041,"Ġlosing":9042,"iat":9043,"ĠCollection":9044,"fram":9045,"ologist":9046,"Ġstrongly":9047,"Ġpropag":9048,"roduction":9049,"admin":9050,"Ġsecondary":9051,"ĠChem":9052,"aya":9053,"Metadata":9054,"foo":9055,"cloud":9056,"}^{(":9057,"Ġheader":9058,"ĠBang":9059,"Ġportion":9060,"aration":9061,"Ġphenomen":9062,"Expression":9063,"ĠĠĠĠĠĠĠĠĠĠĠĠĠĠĠĠĠĠĠĠĠĠĠĠĠĠĠĠĠĠĠĠĠĠĠĠĠĠĠ":9064,"Ġfindings":9065,"Ġbodies":9066,"ĠCommon":9067,"oking":9068,"ĠEastern":9069,"Ġautomatically":9070,"emble":9071,"Ġexplan":9072,"National":9073,"ĠNFL":9074,"Ġextent":9075,"Ġseasons":9076,"bas":9077,"ymfony":9078,"ĠBrad":9079,"Ġmac":9080,"ĠMill":9081,"istical":9082,"nic":9083,"Aust":9084,"Ġcontinuous":9085,"ĠStephen":9086,"Ġlimits":9087,"Ġfaster":9088,"Stack":9089,"Ġalter":9090,"door":9091,"ARY":9092,"Ġsuit":9093,"plements":9094,"ĠAnalysis":9095,"ĠUsing":9096,"Ġvelocity":9097,"ĠBall":9098,"anth":9099,"ĠPennsylvania":9100,"aga":9101,"rat":9102,"ĠEll":9103,"ĠHTML":9104,"ĠDisney":9105,"%.":9106,"Ġscatter":9107,"Ġpictures":9108,"Pres":9109,"Ġtail":9110,"oured":9111,"called":9112,"Ġathlet":9113,"nesota":9114,"Ġsummary":9115,"ĠLatin":9116,"ĠAD":9117,"elli":9118,"custom":9119,"ango":9120,"âĢ¦.":9121,"Ġdetection":9122,"ĠFind":9123,"Rad":9124,"Custom":9125,"ami":9126,"Iter":9127,"Support":9128,"ods":9129,"ais":9130,"idget":9131,"Ġnob":9132,"ĠStation":9133,"Ġclosely":9134,"Ġinvestors":9135,"agues":9136,"Icon":9137,"itis":9138,"Ġunable":9139,"Vector":9140,"ĠWars":9141,"Ġresc":9142,"Ġnewly":9143,"Ġwire":9144,"Ġimplies":9145,"Ġpenal":9146,"Ġparticles":9147,"Ġsections":9148,"Ġenjoyed":9149,"1983":9150,"Ġescape":9151,"Ġmillions":9152,"Ġpatterns":9153,"Ġflu":9154,"Ġmunicip":9155,"Kind":9156,"Parent":9157,"Christ":9158,"Ġinsert":9159,"Spe":9160,"kes":9161,"Application":9162,"vard":9163,"ĠUnivers":9164,"Cap":9165,"ĠProte":9166,"Ġawards":9167,"ĠFinancial":9168,"EQ":9169,"Ġraw":9170,"ĠJSON":9171,"Ġagents":9172,"Ġcampus":9173,"Ġterr":9174,"hol":9175,"Ġintent":9176,"fall":9177,"Price":9178,"Ġcrowd":9179,"Ġstack":9180,"install":9181,"Ġrecognized":9182,"Ġangle":9183,"Ġfee":9184,"emon":9185,"HR":9186,"Ġscheduled":9187,"Ġobservations":9188,"ĠIraq":9189,"uset":9190,"estamp":9191,"ĠHig":9192,"Ġstick":9193,"oices":9194,"parameter":9195,"Ġauthent":9196,"ĠLow":9197,"Del":9198,"ĠBa":9199,"Ins":9200,"Who":9201,"LP":9202,"ĠJesus":9203,"Tim":9204,"low":9205,"ĠBox":9206,"ĠFre":9207,"Ġproport":9208,"Ġyounger":9209,"Ġcalculated":9210,"Ġcontemporary":9211,"Ġce":9212,"Ġstrategies":9213,"ĠDark":9214,"spring":9215,"ĠHollywood":9216,"Ġinvolving":9217,"Ġinfection":9218,"Template":9219,"Ġassets":9220,"ĠFuture":9221,"ĠAdministration":9222,"ĠEric":9223,"×ķ":9224,"Ġscholar":9225,"Ġfacts":9226,"IND":9227,"Media":9228,"Ġcurve":9229,"Ġprimarily":9230,"ĠBand":9231,"Ġcapture":9232,"Ġsignature":9233,"IE":9234,"ĠIllinois":9235,"Values":9236,"Ġcomedy":9237,"NC":9238,"ĠPA":9239,"yers":9240,"ĠDavis":9241,"Full":9242,"ĠPath":9243,"Ġagencies":9244,"Ġscientists":9245,"Definition":9246,"ĠGa":9247,"irk":9248,"\\'":9249,"Ġmodified":9250,"Ġwins":9251,"ĠAccount":9252,"Ġbeauty":9253,"Ġaccuracy":9254,"ĠCulture":9255,"cohol":9256,"Ġboys":9257,"Ġmagic":9258,"ĠDam":9259,"Ġminister":9260,"ĠMinistry":9261,"asts":9262,"equals":9263,"Ġoccurs":9264,"ĠCas":9265,"Ġselling":9266,"Names":9267,"Ġpublication":9268,"Ġadvertising":9269,"ving":9270,"WS":9271,"False":9272,"ĠNavy":9273,"Ġmechanism":9274,"Ġtournament":9275,"Ġarrested":9276,"ĠEmpire":9277,"enda":9278,"University":9279,"ĠFac":9280,"Ġrend":9281,"~~~~":9282,"bles":9283,"Ġactors":9284,"ĠIndex":9285,"ĠAk":9286,"ĠAI":9287,"Ġenhance":9288,"aron":9289,"ĠSoftware":9290,"128":9291,"folio":9292,"Also":9293,"×Ļ":9294,"rase":9295,"Ġplatforms":9296,"Ġconnections":9297,"Ġarts":9298,"Ġyards":9299,"Ġserves":9300,"Ġentertainment":9301,"creen":9302,"ĠGovernor":9303,"Ġoccasion":9304,"Ġvisited":9305,"Ġvictims":9306,"ĠSanta":9307,"ROM":9308,"Ġrequests":9309,"ĠSa":9310,"Ġaccommod":9311,"ĠDemocrats":9312,"Ġmoves":9313,"Ġdialog":9314,"ĠBC":9315,"ĠPot":9316,"Ġcommitment":9317,"Äģ":9318,"Ġcontrols":9319,"bad":9320,"ĠOnt":9321,"ĠToronto":9322,"success":9323,"Ġscenes":9324,"256":9325,"ĠTax":9326,"amil":9327,"Tests":9328,"Ġserial":9329,"\"=>":9330,"1982":9331,"MB":9332,"Ġcapable":9333,"Ġeffectively":9334,"vm":9335,"Ġopposite":9336,"Video":9337,"sol":9338,"Ġdiverse":9339,"urd":9340,"JECT":9341,"arry":9342,"ĠBrian":9343,"-->":9344,"Ġentr":9345,"ĠNAS":9346,"Ġsam":9347,"Ġintern":9348,"ĠBefore":9349,"ĠEs":9350,"deg":9351,"Ġcovers":9352,"Ġrestrictions":9353,"David":9354,"Ġformula":9355,"away":9356,"Ġfacing":9357,"Ġending":9358,"Ġepisodes":9359,"van":9360,"__(":9361,"iversary":9362,"Ġhorse":9363,"blog":9364,"Ġcontrovers":9365,"ĠĠĠĠĠĠĊ":9366,"Ġhole":9367,"plugins":9368,"ĠURL":9369,"itled":9370,"Ġgift":9371,"Ġultimately":9372,"abil":9373,"Ġkeys":9374,"riers":9375,"ĠIslands":9376,"iami":9377,"mal":9378,"Ġstim":9379,"ĠInstead":9380,"ouston":9381,"Ġcircumstances":9382,"PORT":9383,"Ġpregn":9384,"rations":9385,"Di":9386,"ĠVictoria":9387,"ĠDu":9388,"Ġsevere":9389,"Ġinteractions":9390,"ĠScottish":9391,"Ġweapons":9392,"ĠForest":9393,"game":9394,"Ġfunctional":9395,"indu":9396,"Ġencounter":9397,"Ġsurprise":9398,"Ġactress":9399,"Ġafternoon":9400,"ĠHarry":9401,"itivity":9402,"900":9403,"Ġemotional":9404,"Ġperforming":9405,"anz":9406,"Ġfol":9407,"ĠThanks":9408,"Ġstreets":9409,"Ġwarning":9410,"stood":9411,"Ġwestern":9412,"plicated":9413,"Ġholiday":9414,"agraph":9415,"Ġsitting":9416,"ĠEmer":9417,"vi":9418,"Ġattr":9419,"}:":9420,"Ġdispl":9421,"ĠSC":9422,"ĠPubl":9423,"Ġtransmission":9424,"regon":9425,"Ġemployee":9426,"Ġdollars":9427,"Ġproved":9428,"hspace":9429,"owa":9430,"yard":9431,"Ġgauge":9432,"Ġmock":9433,"VE":9434,"TA":9435,"wing":9436,"Ġimpossible":9437,"Ġfiction":9438,"Ptr":9439,"Ġvast":9440,"ETH":9441,"ellect":9442,"Year":9443,"Ġexpanded":9444,"ĠCR":9445,"writer":9446,"Ġtack":9447,"Parameters":9448,"Ġorient":9449,"Oct":9450,"usetts":9451,"Ġlanguages":9452,"category":9453,"dim":9454,"Ġinfin":9455,"ĠCond":9456,"framework":9457,"achusetts":9458,"Ġparse":9459,"tle":9460,"Mich":9461,"ĠBell":9462,"ĠCapital":9463,"Under":9464,"Ġ-\\":9465,"ĠBal":9466,"Ġcards":9467,"application":9468,"ĠAli":9469,"Ġreligion":9470,"Free":9471,"Ġmissed":9472,"Ġaccompl":9473,"Ġnamespace":9474,"ĠOfficer":9475,"points":9476,"ASE":9477,"ĠEdition":9478,"Ġresistance":9479,"edu":9480,"ĠSingapore":9481,"Ġstored":9482,"cred":9483,"Ġrender":9484,"Ġguest":9485,"ĠMarketing":9486,"Ġexplains":9487,"ĠJenn":9488,"ĠColorado":9489,"Ġcache":9490,"rible":9491,"ecess":9492,"fn":9493,"ĠPhilipp":9494,"Ġfeedback":9495,"render":9496,"Ġha":9497,"ĠKat":9498,"including":9499,"dx":9500,"Ġbasketball":9501,"ĠEditor":9502,"Ġextensive":9503,"ellar":9504,"ĠTravel":9505,"RES":9506,"Ġgoods":9507,"dependency":9508,"Ġalgebra":9509,"Ġsemi":9510,"Ġinvoke":9511,"iley":9512,"Although":9513,"Handle":9514,"Rule":9515,"Ġadopted":9516,"Ġrural":9517,"Ġrecognition":9518,"apy":9519,"rizona":9520,"Ġkilling":9521,">();":9522,"Ġchapter":9523,"register":9524,"Ġrecommended":9525,"ĠLev":9526,"ĠØ":9527,"ĠBGCOLOR":9528,"Ag":9529,"Vol":9530,"toggle":9531,"IES":9532,"Ġtitles":9533,"Ġfasc":9534,"ECK":9535,"Ġturning":9536,"Ġindicates":9537,"Ġtough":9538,"Ġdrivers":9539,"ĠEdward":9540,"Ġhell":9541,"Debug":9542,"lay":9543,"webkit":9544,"Ġsight":9545,"Ġfactory":9546,"Ġimplemented":9547,"ibilities":9548,"Ġpractical":9549,"Ġbomb":9550,"Ġearned":9551,"Ġfundamental":9552,"sur":9553,"Ġpotentially":9554,"atial":9555,"ĠEXPECT":9556,"Invalid":9557,"ĠSem":9558,"WA":9559,"FS":9560,"Ġchart":9561,"(*":9562,"lyph":9563,"ĠTy":9564,"Ġappeal":9565,"Ġchampionship":9566,"ERE":9567,"Ġtransformation":9568,"Ġassigned":9569,"ĠResources":9570,"arity":9571,"erate":9572,"Ġbigger":9573,"Ġdebt":9574,"aze":9575,"Ġassistance":9576,"oven":9577,"Ġvirt":9578,"Ġbehaviour":9579,"Ġwallet":9580,"1979":9581,"itol":9582,"Decl":9583,"anny":9584,"ĠDO":9585,"Ġstood":9586,"Ġantib":9587,"Global":9588,"ĠShort":9589,"Ġsweet":9590,"Ġdescribes":9591,"Ġstatistics":9592,"Ġtasks":9593,"sect":9594,"Parser":9595,"herit":9596,"Doc":9597,"ennes":9598,"ĠImm":9599,"Ġapps":9600,"ĠHo":9601,"Ġdynamics":9602,"olis":9603,"Ġpra":9604,"Ġ('":9605,"wall":9606,"----------------------------------------------------------------":9607,"aded":9608,"doi":9609,"Ġpersons":9610,"ĠBuilding":9611,"Ġpromin":9612,"Ġmob":9613,"Ġhabit":9614,"ĠAgency":9615,"Ġreturning":9616,"Ġextend":9617,"ĠMiller":9618,"ĠPakistan":9619,"ĠPract":9620,"Ġtotally":9621,"loom":9622,"Ġgiant":9623,";/":9624,"ĠSO":9625,"ĠNeed":9626,"General":9627,"His":9628,"Ġadmin":9629,"HL":9630,"flix":9631,"ĠTech":9632,"Ġmetric":9633,"Ġinhib":9634,"Ġvotes":9635,"cert":9636,"ĠNig":9637,"Ġexpensive":9638,"turb":9639,"Ġmomentum":9640,"Ġos":9641,"inf":9642,"Ġ\\{":9643,"Ð°Ð":9644,"ĠVen":9645,"Ġproperly":9646,"Body":9647,"Ġhence":9648,"annotation":9649,"Black":9650,"Ġindicated":9651,"adelph":9652,"Ġcharacteristics":9653,"oviet":9654,"IGHT":9655,"ĠBattle":9656,"alid":9657,"Ġconvent":9658,"Ġalloc":9659,"Ġfab":9660,"Ġprofessor":9661,"Ġwond":9662,"ĠHave":9663,"Ġmo":9664,"aki":9665,"ĠFall":9666,"election":9667,"elle":9668,"ĠModern":9669,"Ġlegend":9670,"aska":9671,"Ġbreath":9672,"Ġovers":9673,"Ġexceed":9674,"family":9675,"Ġnegoti":9676,"tool":9677,"}\\\\":9678,"rames":9679,"Ġdiagram":9680,"HA":9681,"ulus":9682,"iac":9683,"Ġfraud":9684,"Ġminim":9685,"hu":9686,"consin":9687,"ĠImage":9688,"month":9689,"Ġrid":9690,"Ġtopics":9691,"Ġbreaking":9692,"rog":9693,"copy":9694,"seud":9695,"&#":9696,"ï¼":9697,"atar":9698,"Ben":9699,"ĠMember":9700,"\\,\\":9701,"green":9702,"unter":9703,"ĠHay":9704,"Ġconstructed":9705,"Ġsav":9706,">.":9707,"insert":9708,"Ġfrequently":9709,"razy":9710,"ÂĢ":9711,"_;":9712,"ĠScholar":9713,"ĠViet":9714,"Ġhate":9715,"Ġacquired":9716,"Ġgranted":9717,"Ġfaces":9718,"never":9719,"ĠLy":9720,"Ġ(@":9721,"Ġupcoming":9722,"Ġlegislation":9723,"angers":9724,"Ġeducational":9725,"pressed":9726,"Ġhall":9727,"ĠPS":9728,"ĠAlb":9729,"onia":9730,"Ġincreasingly":9731,"ĠKevin":9732,"oked":9733,"Ġ[[":9734,"Ġprompt":9735,"etary":9736,"ĠLA":9737,"protobuf":9738,"Ġ_{":9739,"isition":9740,"endment":9741,"twitter":9742,"Ġtechnique":9743,"âĢĭ":9744,"Ġmountain":9745,"Today":9746,"holders":9747,"itchen":9748,"1981":9749,"ĠĠĠĠĠĠĠĠĠĠĠĠĠĠĠĠĠĠ":9750,"Dem":9751,"Ġmanufacturing":9752,"hire":9753,"ĠOxford":9754,"700":9755,"req":9756,"inant":9757,"Ġfestival":9758,"Ġvoters":9759,"Ġcro":9760,"Ġshel":9761,"ĠTake":9762,"Ġstone":9763,"adelphia":9764,"bootstrap":9765,"Ġcompact":9766,"Ġintegrated":9767,"Ġrelax":9768,"ĠConnect":9769,"icide":9770,"Ġrepresenting":9771,"Ġinnovation":9772,"ĠVeg":9773,"widehat":9774,"Ġtrained":9775,"ĠMarg":9776,"Ġdisappe":9777,"ĠConf":9778,"Ġpartial":9779,"Ġdrawn":9780,"Ġinters":9781,"Ġgrown":9782,"ÂĢÂ":9783,"Ġrig":9784,"Ġadds":9785,"Ġpermission":9786,"tic":9787,"Ġsomewhat":9788,"black":9789,"ulator":9790,"LOG":9791,"sort":9792,"iot":9793,"Ġrisks":9794,"Ġhealthcare":9795,"Ġparticle":9796,"inch":9797,"noindent":9798,"blockList":9799,"ivals":9800,"ĠLie":9801,"Ġevaluation":9802,"Ġsole":9803,"ĠCrit":9804,"ĠBat":9805,"virtual":9806,"omatic":9807,"RS":9808,"Ġrepro":9809,"ĠSydney":9810,"replace":9811,"Ã±":9812,"ĠColumbia":9813,"appy":9814,"essed":9815,"Ġbanks":9816,"|^":9817,"Ġdrag":9818,"ĠArm":9819,"ĠOs":9820,"Ġimagine":9821,"Ġhappening":9822,"Root":9823,"osed":9824,"Day":9825,"esis":9826,"Ġprime":9827,"article":9828,"watch":9829,"ĠRepresent":9830,"Ġcolour":9831,"Ġdefin":9832,"Ġwearing":9833,"Ret":9834,"comment":9835,"ymph":9836,"ĠThose":9837,"ython":9838,"Ġcm":9839,"ĠReb":9840,"130":9841,"obby":9842,"Ġlift":9843,"ĠPartners":9844,"Ġbrands":9845,"ĠTony":9846,"Ġevil":9847,"Ġattempts":9848,"Ġfifth":9849,";<":9850,"Ġintroduce":9851,"Ġlaugh":9852,"Ġintegration":9853,"ĠTransport":9854,"ubs":9855,"Ġprev":9856,"ĠCurrent":9857,"Ġcoffee":9858,"Ġmine":9859,"Ġcategories":9860,"Ġarbitr":9861,"Ġlandscape":9862,"Ġimmediate":9863,"Ġseed":9864,"ĠBO":9865,"CK":9866,"ĠAlli":9867,"ĠSky":9868,"ĠCE":9869,"Ġfacilit":9870,"bourne":9871,"ourse":9872,"Ġestimates":9873,"'$":9874,"Ġhits":9875,"ĠRa":9876,"Ġbag":9877,"hard":9878,"ulpt":9879,"Ġforth":9880,"ĠGallery":9881,"settings":9882,"Ġoutcome":9883,"ĠSound":9884,"ĠHu":9885,"wp":9886,"Channel":9887,"Ġtwenty":9888,"Ġ&\\":9889,"Ġ>>":9890,"umerate":9891,"Aud":9892,"oval":9893,"Ġreasonable":9894,"125":9895,"Ġletters":9896,"Ġperformances":9897,"achel":9898,"usters":9899,"hav":9900,"ĠDream":9901,"ĠLiter":9902,"ĠTal":9903,"Ġles":9904,"Ġsoldiers":9905,"Watch":9906,"ĠEntertainment":9907,"Ġdating":9908,"Ġdisappoint":9909,"Ġboat":9910,"Ġseats":9911,"Args":9912,"essages":9913,"irement":9914,"BM":9915,"edit":9916,"Ġneither":9917,"Ġgrid":9918,"Ġaccessible":9919,"dem":9920,"ĠVersion":9921,"Ġlistening":9922,"ĠGrant":9923,"anwhile":9924,"ulous":9925,"Ġaccord":9926,"ĠOS":9927,"Ġapplicable":9928,"uz":9929,"ĠStore":9930,"Ġwed":9931,"Ġcontribute":9932,"ĠFA":9933,"Ġdriven":9934,"ostic":9935,"Ġprogramming":9936,"ĠContin":9937,"Editor":9938,"ben":9939,"Ġintroduction":9940,"names":9941,"Ġwine":9942,"ynamic":9943,"Ġguidance":9944,"ĠTher":9945,"Ġsubjects":9946,"Ġiron":9947,"Ġbands":9948,"Ġbelieves":9949,"orne":9950,"anti":9951,"Ġpresentation":9952,"Display":9953,"elect":9954,"ĠHarris":9955,"Ġillegal":9956,"Writer":9957,"Ġbare":9958,"Ġ$(\\":9959,"Ġbatt":9960,"ĠBrother":9961,"textwidth":9962,"`.":9963,"Ġcancell":9964,"thur":9965,"}}(":9966,"mi":9967,"Vari":9968,"Ġregime":9969,"occer":9970,"ĠMinnesota":9971,"Ġwer":9972,"CN":9973,"Dialog":9974,"1975":9975,"Ġsees":9976,"izon":9977,"onna":9978,"Ġcriteria":9979,"eli":9980,"Ġbattery":9981,"Ġparallel":9982,"Ġoperate":9983,"Ġspan":9984,"Ġcombat":9985,"ĠWas":9986,"United":9987,"Reader":9988,"Ġbench":9989,"Ġpriority":9990,"ĠLady":9991,"Ġdesire":9992,"Ġunsigned":9993,"rior":9994,"ĠAlexander":9995,"spir":9996,"ĠQueens":9997,"aire":9998,"callback":9999,"approx":10000,"coq":10001,"Ġrooms":10002,"Copy":10003,"boolean":10004,"ĠHeart":10005,"Ġphotograph":10006,"Ġapparently":10007,"Var":10008,"inv":10009,"=-":10010,"onymous":10011,"Ġimprovement":10012,"Ġcontest":10013,"don":10014,"Render":10015,"connection":10016,"Ġproviders":10017,"ĠClinton":10018,"Ġlegisl":10019,"hus":10020,"dependent":10021,"Ġbg":10022,"Policy":10023,"Ġaccused":10024,"ĠMassachusetts":10025,"Ġtaught":10026,"BE":10027,"thew":10028,"ĠStudy":10029,"dropdown":10030,"ĠAz":10031,"Ġpilot":10032,"isting":10033,"Pi":10034,"stal":10035,"acking":10036,"ĠStock":10037,"Ġpromise":10038,"Good":10039,"ĠAh":10040,"Obj":10041,"Ġconcert":10042,"craft":10043,"equence":10044,"Ġbes":10045,"cam":10046,"ĠJean":10047,"Ġenabled":10048,"ĠLewis":10049,"ĠMrs":10050,"Ġcovering":10051,"Ġrelief":10052,"XT":10053,"cers":10054,"lan":10055,"Ġinnovative":10056,"ĠMountain":10057,"Ġdeclared":10058,"Ġarrang":10059,"ĠProp":10060,"Report":10061,"ĠManchester":10062,"Ġdestination":10063,"Ġcrash":10064,"Ġdeploy":10065,"Ġemployment":10066,"}\"":10067,"ĠJava":10068,"Ġrevolution":10069,"intend":10070,"NOT":10071,"ĠResp":10072,"Ġabandon":10073,"Ġproposal":10074,"profit":10075,"ĠDun":10076,"1976":10077,"ĠMD":10078,"ĠProt":10079,"tex":10080,"Ġchallenging":10081,"Ġtheore":10082,"Ġpolar":10083,"ĠChannel":10084,"scribe":10085,"Bytes":10086,"Ġwalls":10087,"Ġcommonly":10088,"ĠLemma":10089,")+":10090,"auto":10091,"Ġairport":10092,"Ġdivided":10093,"Ġresid":10094,"aneous":10095,"igate":10096,"Ġpulled":10097,"âĨ":10098,"Ġtargets":10099,"ĠCP":10100,"Ġfounder":10101,"ingham":10102,"Ġspr":10103,"gressive":10104,"Ġclubs":10105,"inema":10106,"Ġnavigation":10107,"itative":10108,"1978":10109,"Ġbon":10110,"Aug":10111,"Ġimpressive":10112,"Lock":10113,"ĠLes":10114,"KEY":10115,"}+\\":10116,"Ġsick":10117,"Email":10118,"Ġtab":10119,"ĠKr":10120,"ometric":10121,"Ġdiversity":10122,"Ġwrites":10123,"Argument":10124,"Ġusage":10125,"BP":10126,"urers":10127,"angular":10128,"Network":10129,"eping":10130,"Ġcomprehensive":10131,"Mock":10132,"akh":10133,"Ġ${":10134,"Ġbytes":10135,"ivated":10136,"Ġopposition":10137,"ĠDespite":10138,"zed":10139,"agen":10140,"Ġalive":10141,"Enabled":10142,"Ġwheel":10143,"Ġmeasurements":10144,"}}{\\":10145,"Ġdenote":10146,"Ġmal":10147,"English":10148,"duce":10149,"Ġstrike":10150,"ĠOntario":10151,"itionally":10152,"help":10153,"asi":10154,"ĠSuch":10155,"Ġourselves":10156,"role":10157,"jar":10158,"ĠChall":10159,"ĠGolden":10160,"ĠMaybe":10161,"Ġdistingu":10162,"hy":10163,"ika":10164,"Ġsyn":10165,"Ġwatched":10166,"ĠSource":10167,"Ġexposed":10168,"1972":10169,"Ġcompat":10170,"Ġvess":10171,"ĠJam":10172,"ĠEconomic":10173,"olver":10174,"Ġassumed":10175,"eness":10176,"Ġchoices":10177,"ONE":10178,"Ġvictim":10179,"ĠOlympics":10180,"wait":10181,"byte":10182,"Ġexplo":10183,"ĠSN":10184,"ĠCharl":10185,"ĠSarah":10186,"about":10187,"ships":10188,"Ġnecessarily":10189,"ancel":10190,"ĠTra":10191,"rolling":10192,"defined":10193,"ributed":10194,"Ġabstract":10195,"MD":10196,"Ġmedicine":10197,"Ġapproval":10198,"Ġgro":10199,"ĠVice":10200,"ĠRecord":10201,"South":10202,"ĠTok":10203,"ĠNever":10204,"ospitals":10205,"ĠImp":10206,"ĠLabour":10207,"Ġregulations":10208,"1977":10209,"otten":10210,"two":10211,"mediate":10212,"Ġunderlying":10213,"ĠâĢĻ":10214,"views":10215,"ĠPresent":10216,"ĠGreg":10217,"cpp":10218,"browser":10219,"ĠRose":10220,"Press":10221,"Ġstrip":10222,"ĠStandard":10223,"Ġsquad":10224,"ailability":10225,"ĠError":10226,"Ġjson":10227,"ĠFunction":10228,"Rect":10229,"bsites":10230,"inking":10231,"=\"../../../":10232,"Api":10233,"Ġinteger":10234,"plus":10235,"Ġparticipate":10236,"Ġprocedures":10237,"Ġsolve":10238,"âĤ¬":10239,"Ġsurgery":10240,"owntown":10241,"IAL":10242,"Ġexclusive":10243,"Ġguests":10244,"ĠGro":10245,"Ġpercentage":10246,"Ġbroke":10247,"PER":10248,"isl":10249,"Package":10250,"Ġsurprising":10251,"forms":10252,"Ġsaved":10253,"Arch":10254,"Ġbyte":10255,"ĠSav":10256,"agan":10257,"Ġexcess":10258,"Account":10259,"Ġnurs":10260,"Ġtrouble":10261,"Ġpoliticians":10262,"Ġcompens":10263,"Ġbass":10264,"Delete":10265,"Boolean":10266,"ĠDrive":10267,"Ġattributes":10268,"'))":10269,"1968":10270,"Ġpresidential":10271,"region":10272,"chain":10273,"profile":10274,"Ġinline":10275,"ĠSafety":10276,"entials":10277,"Once":10278,"Ġcontinuing":10279,"ĠIl":10280,"ĉĉĉĊ":10281,"ĠLind":10282,"Enter":10283,"bling":10284,"ĠPortug":10285,"atern":10286,"Ġpresents":10287,"Ġprepare":10288,"Ġshell":10289,"Ġyesterday":10290,"earing":10291,"itut":10292,"Ġadvis":10293,"Ġdates":10294,"named":10295,"Send":10296,"Ġ++":10297,"Ġ),":10298,"Ġsending":10299,"Ġprofessionals":10300,"Ġdisk":10301,"Ġuniverse":10302,"people":10303,"Ġelig":10304,"ju":10305,"Ġfees":10306,"yal":10307,"Ġnewspaper":10308,"Storage":10309,"ĠTreat":10310,"Ġorganized":10311,"Ant":10312,"iah":10313,"Ġpicked":10314,"numer":10315,"ikip":10316,"Ġsuitable":10317,"Ġsolo":10318,"ĠSenior":10319,"tsd":10320,"Ġpapers":10321,"Ġexit":10322,"Ġdict":10323,"]$":10324,"ribed":10325,"ĠMoon":10326,"tan":10327,"ĠEver":10328,"Ġmonitoring":10329,"Ġpersonnel":10330,"isations":10331,"ĠShould":10332,"imm":10333,"ificial":10334,"ĠDid":10335,"important":10336,"Ġresponses":10337,"sql":10338,"180":10339,"Ġmg":10340,"Assert":10341,"ĠRoss":10342,"]:":10343,"ipping":10344,"ĠFarm":10345,"ĠStill":10346,"FAULT":10347,"ĠiPhone":10348,"Ġsteel":10349,"Ġhasn":10350,"Ġparking":10351,"Review":10352,"Ġreput":10353,"^-":10354,"rell":10355,"forward":10356,"otion":10357,"ilst":10358,"Ġapi":10359,"herent":10360,"Ġheads":10361,"FP":10362,"Ġbott":10363,"Ġencourage":10364,"Even":10365,"Ġliquid":10366,"VI":10367,"Ġextreme":10368,"player":10369,"unning":10370,"Ġships":10371,"Like":10372,"Ġcreates":10373,"Ġbear":10374,"ĠBerlin":10375,"Ġvice":10376,"Ġworry":10377,"super":10378,"Ġincorpor":10379,"ĠPlace":10380,"ĠProperty":10381,"ĠMoreover":10382,"NT":10383,"HTML":10384,"ĠDoes":10385,"Ġplate":10386,"1973":10387,"Ġpitch":10388,"Ġsustainable":10389,"sters":10390,"emony":10391,"Ġmeasurement":10392,"1974":10393,"ĠDutch":10394,"Ġinformed":10395,"Ġobviously":10396,"eld":10397,"Ġsubsequent":10398,"Ġpointed":10399,"Ġ'/":10400,"YPE":10401,"aired":10402,"vy":10403,"ĠRome":10404,"Ġoutcomes":10405,"![":10406,"Ġsuperv":10407,"ĠArizona":10408,"ugs":10409,"ĠNations":10410,"Ġflux":10411,"Ġassault":10412,"Ġstake":10413,"GC":10414,"Ġfulf":10415,"outer":10416,"Num":10417,"neg":10418,"ĠCreek":10419,"asm":10420,"Ġsilver":10421,"Ġlat":10422,"Ġslowly":10423,"Ġversus":10424,"SET":10425,"Ġwhereas":10426,"Byte":10427,"izable":10428,"season":10429,"igrants":10430,"Ġprincipal":10431,"nie":10432,"bell":10433,"Ġble":10434,"ĠStone":10435,"ĠCancer":10436,"Ġmeetings":10437,"iest":10438,"olly":10439,"herlands":10440,"Ġfunny":10441,"illiant":10442,"Ġurg":10443,"ellite":10444,"Ġawait":10445,"ĠTen":10446,"Contact":10447,"Ġdestroyed":10448,"Ġloan":10449,"iology":10450,"ĠWisconsin":10451,"modules":10452,"Ġthreshold":10453,"ĠTraining":10454,"gorithms":10455,"Ġexecution":10456,"Ġsetup":10457,"ĠJosh":10458,"asty":10459,"Ġduration":10460,"Ġcompliance":10461,"ĠAdvent":10462,"Ġfraction":10463,")}{":10464,"actic":10465,"Ġunderstood":10466,"allas":10467,"margin":10468,"ĠSix":10469,"gments":10470,"ĠFri":10471,"ĠDoctor":10472,"Members":10473,".*":10474,"Ġseriously":10475,"Dist":10476,"Ġinvent":10477,"GS":10478,"Ġradius":10479,"Ġcompetitive":10480,"Tool":10481,"ĠLearning":10482,"Ġguidelines":10483,"tw":10484,"ĠGree":10485,"Apr":10486,"ĠCloud":10487,"Ġgarden":10488,"Ġaspect":10489,"Ġcopies":10490,"radius":10491,"assets":10492,"norm":10493,"odec":10494,"Term":10495,"Ġsuffered":10496,"Ġtou":10497,"Wrap":10498,"Ġmm":10499,"Ġinvestigate":10500,"ĠHouston":10501,"Ġcorrelation":10502,"plant":10503,"attice":10504,"Ġsurve":10505,"ĠMiami":10506,"Ġjavax":10507,"`,":10508,"Ġscr":10509,"ĠAffairs":10510,"ĠFalse":10511,"ĠTalk":10512,"Ġcommunications":10513,"ibraries":10514,"Ġanywhere":10515,"Ġvoting":10516,"ĠBridge":10517,"ĠBit":10518,"Ġscores":10519,"}-\\":10520,"arring":10521,"Descriptor":10522,"ĠCorn":10523,"ĠJordan":10524,"360":10525,"closed":10526,"ĠComments":10527,"Further":10528,"Ġgrade":10529,"will":10530,"Po":10531,"Ġmit":10532,"ĠPrinc":10533,"fix":10534,"ĠSquare":10535,"ikipedia":10536,"Ġaddresses":10537,"when":10538,"Ġrear":10539,"Ġcaptured":10540,"ĠDog":10541,"Ġmaintenance":10542,"Rest":10543,"Ġbehalf":10544,"password":10545,"shift":10546,"gi":10547,"Ġ\\;":10548,"Ġdiscrim":10549,"Cam":10550,"results":10551,"Ġduty":10552,"ĠOregon":10553,"ipher":10554,"Ġattached":10555,"scr":10556,"1969":10557,"ĠCab":10558,"ĠIO":10559,"Ġemission":10560,"Ġengaged":10561,"Ġanticip":10562,"iously":10563,"ĠPalest":10564,"umps":10565,"ĠThings":10566,"Changed":10567,"âĦ":10568,"ĠSmall":10569,"rett":10570,"Ġcopyright":10571,"Ġ<=":10572,"ĠContact":10573,"Ġmsg":10574,"BL":10575,"Ġundert":10576,"ĠSimon":10577,"ĠWord":10578,"ĠPsych":10579,"shape":10580,"ĠGil":10581,"eron":10582,"Ident":10583,"uple":10584,"ympt":10585,"Perm":10586,"ĠLanguage":10587,"Engine":10588,",'":10589,"Ġrepresentative":10590,"Ġresulted":10591,"xspace":10592,"editor":10593,"Ġflying":10594,"Ġoptional":10595,"Ġyellow":10596,"events":10597,"makers":10598,"aza":10599,"andal":10600,"Ġbath":10601,"wich":10602,"=\"\"":10603,"upl":10604,"ĠRoll":10605,"Hz":10606,"ĠSi":10607,"ĠPremier":10608,"Ġbeach":10609,"ĠFinally":10610,"ategor":10611,"READ":10612,"Ġhat":10613,"Ġstrange":10614,"Ñı":10615,"Active":10616,"Ġfib":10617,"Ġexhibition":10618,"sky":10619,"neq":10620,"Transaction":10621,"Ġfaced":10622,"ĠMarc":10623,"ĠTurkey":10624,"Ġdire":10625,"Ġdogs":10626,"Ġdemonstrated":10627,"Ġpurchased":10628,"ĠIndustry":10629,"rons":10630,"account":10631,"Ġcomposition":10632,"ĠCS":10633,"making":10634,"TEST":10635,"ĠPut":10636,"archy":10637,"Ġdismiss":10638,"ugby":10639,"Ġcourses":10640,"Ġegg":10641,"Î¿":10642,"Ġconsent":10643,"ĠOtt":10644,"ĠUl":10645,"olving":10646,"Ġrealize":10647,"Ġtrading":10648,"Security":10649,"Ġpup":10650,"eras":10651,"ĠBush":10652,"Prof":10653,"Ġdual":10654,"unct":10655,"Ġattorney":10656,"ĠRaj":10657,"Ġhosted":10658,"closure":10659,"RT":10660,"Ġwalked":10661,"Ġfranch":10662,"ordon":10663,"ĠYet":10664,"items":10665,"Ġpaying":10666,"thread":10667,"Music":10668,"Ġsle":10669,"eding":10670,"Ġoptical":10671,"ĠĠĠĠĠĠĠĠĠĠĠĠĠĠĠĠĠĠĠĠĠĠĠĠ":10672,"ĠReviews":10673,"Ġsoil":10674,"security":10675,"ĠSU":10676,"Ġcausing":10677,"Ġstages":10678,"=(":10679,"ĠPatrick":10680,"ĠTask":10681,"chor":10682,"Ang":10683,"ĠAnton":10684,"Ġaxis":10685,"Ġsought":10686,"Ġhook":10687,"through":10688,"Star":10689,"ĠPH":10690,"ĠCore":10691,"Err":10692,"endor":10693,"Ġbusy":10694,")}$":10695,"ĠDat":10696,"Ġdeals":10697,"aturally":10698,"Ġveget":10699,"Ġthin":10700,"Ġtranslation":10701,"ĠBE":10702,"Ġpodcast":10703,"Ġsentence":10704,"bec":10705,"Ġexplos":10706,"Ġ{};":10707,"such":10708,"ODO":10709,"Ġdeleg":10710,"blem":10711,"sea":10712,"ellectual":10713,"none":10714,"Ġproducing":10715,"Ġprinciple":10716,"Ġstruggle":10717,"Ġacceler":10718,"ĠĠĠĊ":10719,"Ġhtml":10720,"Ġdb":10721,"Ġplastic":10722,"ouri":10723,"1971":10724,"Ġatmosphere":10725,"Ġbtn":10726,"ĠContent":10727,"Ġrecept":10728,"typed":10729,"Sy":10730,"agment":10731,"Ġofficially":10732,"fi":10733,"ĠWH":10734,"PRE":10735,"Ġdisplayed":10736,"ĠEffect":10737,"Ġpassword":10738,"ĠBurn":10739,"mad":10740,"zero":10741,"{$":10742,"Ġknock":10743,"ĠLat":10744,"Ġinteract":10745,"Sch":10746,"Ġsin":10747,"ĠJews":10748,"ĠCambridge":10749,"Ġroof":10750,"erk":10751,"Ġri":10752,"ĠJane":10753,"Ġvaluable":10754,"children":10755,"Leg":10756,"ĠKelly":10757,"Ġdelight":10758,"Ġscenario":10759,"Ġexplanation":10760,"Ġcircle":10761,"Ġnarrative":10762,"ĠMovie":10763,"Ġlux":10764,"Common":10765,"loor":10766,"Ġracing":10767,"Ġteach":10768,"ropy":10769,"Ġdust":10770,"Ġfruit":10771,"report":10772,"Ġawareness":10773,"Ġconclusion":10774,"novation":10775,"]\\":10776,"Ġmatching":10777,"DI":10778,"audi":10779,"Ġstrategic":10780,"Ġoperated":10781,"Ġconj":10782,"Ġmail":10783,"Ġdetected":10784,"Ep":10785,"Ġprinciples":10786,"Ġrequested":10787,"Ġpharm":10788,"ĠIV":10789,"channel":10790,"1940":10791,"Tab":10792,"Ġobjective":10793,"Ġcatalog":10794,"Ġrestaurants":10795,")\"":10796,"Ġmyth":10797,"ĠForeign":10798,"opic":10799,"Ġgate":10800,"Ġcomfortable":10801,"Ġassembly":10802,"onal":10803,"Ġunus":10804,"asp":10805,"Care":10806,")).":10807,"Feature":10808,"ĠDiego":10809,"Own":10810,"International":10811,"Lo":10812,"Ġreferences":10813,"ĠOfficial":10814,"ĠWinter":10815,"engine":10816,"citet":10817,"Ġderiv":10818,"Ø±":10819,"ĠPhiladelphia":10820,"Health":10821,"Ġabsence":10822,"Ġretired":10823,"ĠFa":10824,"Ġincredible":10825,"MI":10826,"ĠSoviet":10827,"Ġchampion":10828,"Her":10829,"Ġdiseases":10830,"stats":10831,"attribute":10832,"coln":10833,"Ġlists":10834,"ĠLib":10835,"Ġrealized":10836,"Ġmodes":10837,"ĠSelect":10838,"igenous":10839,"Pay":10840,"cerning":10841,"Ġtempor":10842,"icking":10843,"bass":10844,"Ġenforcement":10845,"ishment":10846,"Ġminimal":10847,"Ġreward":10848,"ĠHD":10849,"bean":10850,"Ġkeeps":10851,"odge":10852,"Ġregularly":10853,"Ġsurprised":10854,"Ġraces":10855,"overty":10856,"party":10857,"West":10858,"uilt":10859,"Ġconsumption":10860,"ĠTai":10861,"Ġast":10862,"ĠScient":10863,"ĠBruce":10864,"Ġenemy":10865,"Ġreson":10866,"ometimes":10867,"Ġentries":10868,"incess":10869,"Ä±":10870,"tons":10871,"iverpool":10872,"Ġtrials":10873,"ĠGh":10874,"lg":10875,"ĠâĨ":10876,"clip":10877,"aux":10878,"Space":10879,"uv":10880,"Ġstead":10881,"Member":10882,"Ġcrucial":10883,"Game":10884,"Ġintegral":10885,"PAR":10886,"Ġconstraints":10887,"Ġoffices":10888,"ĠSab":10889,"Ġcancel":10890,"git":10891,"Ġjoy":10892,"Ġhandling":10893,"REE":10894,"ĠPack":10895,"Ġemployed":10896,"Files":10897,"ters":10898,"tery":10899,"ĠHart":10900,"icken":10901,"Fields":10902,"Ġconcentration":10903,"inline":10904,"ĠRegion":10905,"Ġknowing":10906,"Ġdevelopers":10907,"ĠWebsite":10908,"ĠBudd":10909,"Ġbaseball":10910,"Ġdelet":10911,"Ġprovince":10912,"Brit":10913,"recated":10914,"Ġrub":10915,"âĦ¢":10916,"ĠSport":10917,"Ġinterior":10918,"Ġvoted":10919,"Ġinjuries":10920,"ĠKorean":10921,"Ġtickets":10922,"1967":10923,"Ġconsequences":10924,"rig":10925,"Ġprofit":10926,"ĠJay":10927,"Ġtall":10928,"ĠPersonal":10929,"FILE":10930,"ogene":10931,"elson":10932,"Ġpermanent":10933,"ocker":10934,"iors":10935,"Ġemp":10936,"Trump":10937,"ĠEvents":10938,"Ġvit":10939,"lah":10940,"uten":10941,"ĠAnderson":10942,"UST":10943,"ĠSilver":10944,"THE":10945,"ĠAbb":10946,"ĠEss":10947,"Total":10948,";\"":10949,"ĠDocument":10950,"Ġentreprene":10951,"Michael":10952,"area":10953,"alg":10954,"mathsf":10955,"ĠĠĠĠĠĠĠĠĠĠĠĠĠĠĠĠĠĠĠĠĠĠĠĠĠ":10956,"Section":10957,"ĠTrade":10958,"Ġinvited":10959,"ĪĴ":10960,"################":10961,"ĠHoly":10962,"Ġnucle":10963,"Ġrising":10964,"Ġlikes":10965,"Ġbuying":10966,"Ġdepos":10967,"Ġsubmitted":10968,"Ġbid":10969,"ĠFront":10970,"Ġevaluate":10971,"Ġca":10972,"iche":10973,"enumerate":10974,"ĠPlus":10975,"Ġliked":10976,"oust":10977,"ĠJason":10978,"Events":10979,"ĠassertEquals":10980,"upid":10981,"uin":10982,"Ġalumni":10983,"Ġregistration":10984,"achelor":10985,"ĠDave":10986,"Cr":10987,"jquery":10988,"Graph":10989,"ĠYO":10990,"Mc":10991,"ĠRepublicans":10992,"Ġhur":10993,"ectors":10994,"elegate":10995,"ĠClark":10996,"Ġda":10997,"Ġignore":10998,"Ġ&=":10999,"grid":11000,"ĠAtlantic":11001,"Ġrating":11002,"Ġpairs":11003,"ĠMemorial":11004,"Ġalcohol":11005,"ĠDefault":11006,"unes":11007,"Ġtransparent":11008,"ĠLeon":11009,"ĠMoh":11010,"ITE":11011,"Ġsoci":11012,"onomy":11013,"Ġhopes":11014,"ĠGard":11015,"ĠLimited":11016,"ĠRoy":11017,"Ġlockdown":11018,"Ġlawyer":11019,"Ġrapidly":11020,"arrant":11021,"Ġblow":11022,"Ġaged":11023,"ĠIL":11024,"1930":11025,"Ġgay":11026,"ennessee":11027,"ĠCT":11028,"decl":11029,"rieved":11030,"primary":11031,"////////////////////////////////":11032,"Ġreveal":11033,"Symfony":11034,"ĠImages":11035,"UID":11036,"Ġcheap":11037,"Follow":11038,"Ġedges":11039,"Ġrum":11040,"Ġsymmetry":11041,"underline":11042,"Ġweekly":11043,"Ġreveals":11044,"adoop":11045,"inos":11046,"roit":11047,"Using":11048,"Ġshopping":11049,"issues":11050,"ĠRelations":11051,"Ġ\"/":11052,"Ġtemperatures":11053,"=\"@":11054,"ortion":11055,"Ġfarmers":11056,"Ġengage":11057,"ĠAnthony":11058,"components":11059,"Ġpublisher":11060,"ĠMonth":11061,"Ġcolors":11062,"Ġanswers":11063,"Ġpy":11064,"ea":11065,"Ġpul":11066,"ĠSH":11067,"Ġaggreg":11068,"Ġjoining":11069,"rele":11070,"blue":11071,"Ġacknowled":11072,"ĠEP":11073,"JSON":11074,"Match":11075,"}%":11076,"Ġassistant":11077,"Ġcomposed":11078,"Ġbgcolor":11079,"ĠBry":11080,"argo":11081,"agu":11082,"Print":11083,"1920":11084,"zone":11085,"equality":11086,"Ġgovernments":11087,"adesh":11088,"abis":11089,"Ġspokes":11090,"ĠBelg":11091,"=\"\">":11092,"Ġdies":11093,"Ġchose":11094,"ifferent":11095,"osph":11096,"Ġdiscovery":11097,"ĠCommand":11098,"exception":11099,"VERSION":11100,"Ġfairly":11101,"ĠGP":11102,"pres":11103,"Ġcoupling":11104,"Ġadventure":11105,"outube":11106,"Ġtox":11107,"ĠPDF":11108,"Ġessentially":11109,"Bit":11110,"Ġbinary":11111,"Queue":11112,"Ġfault":11113,"Ġsubsid":11114,"Ġticket":11115,"oen":11116,"ĠDor":11117,"Ġdiscipl":11118,"Ġhide":11119,"likely":11120,"ichol":11121,"total":11122,"001":11123,"======":11124,"Ġinterval":11125,"Å¡":11126,"cussion":11127,"Ġfaculty":11128,"ĠHop":11129,"theorem":11130,"MAX":11131,"Ġsupporters":11132,"ĠHung":11133,"Ġlayout":11134,"ĠCaptain":11135,"igious":11136,"Ġdataset":11137,"Ġanyway":11138,"iop":11139,"eland":11140,"Ġbirds":11141,"ĠOcean":11142,"ĠLLC":11143,"Ġgrass":11144,"schema":11145,"Ġskill":11146,"Ġsensitive":11147,"who":11148,"ĠPitt":11149,"ĠIslamic":11150,"Ġvocals":11151,"Ġpasses":11152,"original":11153,"vspace":11154,"Join":11155,"Ġenthus":11156,"Ġ(*":11157,"Ġaims":11158,"Job":11159,"Abstract":11160,"ĠSD":11161,"Ġbreast":11162,"}^{-":11163,"ĠDefense":11164,"Ġlect":11165,"Ġfriendly":11166,"ropical":11167,"Ġfoundation":11168,"Ġalleg":11169,"ĠCapitol":11170,"Ġvital":11171,"ById":11172,"Ġreleases":11173,"Paul":11174,"ĠOption":11175,"romise":11176,"ĠVAL":11177,"legal":11178,"Edit":11179,"ĠNetherlands":11180,"eties":11181,"clusions":11182,"North":11183,"Ġcuts":11184,"Ġillness":11185,"Ġclassification":11186,"Ġox":11187,"ĠNa":11188,"Ġgained":11189,"Ġsed":11190,"Ġwebsites":11191,"wild":11192,"wick":11193,"EP":11194,"Ġtroops":11195,"save":11196,",âĢĻ":11197,"cmd":11198,"para":11199,"Ġdecay":11200,"Ã£":11201,"Ġsituations":11202,"being":11203,"Ġmembership":11204,"Ġdemonstrate":11205,"orses":11206,"Ġcontroller":11207,"prod":11208,"Ġinjured":11209,"Category":11210,"Ġsuddenly":11211,"Ġengagement":11212,"operatorname":11213,"Ġboss":11214,"Ġswim":11215,"ĠKansas":11216,"ĠStudents":11217,"Ġfewer":11218,"Ġforecast":11219,"Ġdimensions":11220,"ĠHope":11221,"Ġbinding":11222,"azy":11223,"Ġmanip":11224,"tip":11225,"Background":11226,"[:":11227,"Widget":11228,"1945":11229,"Extension":11230,"Ġhorror":11231,"ĠMicro":11232,"acon":11233,"ĠBarn":11234,"Austral":11235,"Ġlaid":11236,"Ġradiation":11237,"}'":11238,"Ġstability":11239,"inar":11240,"Ġhurt":11241,"alloc":11242,"Meta":11243,"Ġcarrying":11244,"pred":11245,"special":11246,"ĠDer":11247,"Ġrein":11248,"Ġfalls":11249,"ĠMembers":11250,"Ġinitiative":11251,"notation":11252,"Bas":11253,"Ġfluid":11254,"cb":11255,"ĠBlock":11256,"Ġvisiting":11257,"ĠInf":11258,"acent":11259,"Help":11260,"1964":11261,"kw":11262,"reement":11263,"ĠLegal":11264,"ĠStadium":11265,"Ġadmitted":11266,"ĠProtection":11267,"ilty":11268,"Ġoutbreak":11269,"Flags":11270,"ige":11271,"quarters":11272,"flu":11273,"ĠNigeria":11274,"uris":11275,"ĠRow":11276,"Activity":11277,"Conf":11278,"Ġconversion":11279,"Ġtrends":11280,"Ġlayers":11281,"Ġfake":11282,"Ġdealing":11283,"ĠPrize":11284,"Ġdocumentary":11285,"Ġheavily":11286,"week":11287,"Ġpresc":11288,"Ġputs":11289,"ĠPrint":11290,"Ġrect":11291,"pot":11292,")),":11293,"ĠAdvis":11294,"Ġsynd":11295,"Ġstronger":11296,"(!":11297,"ĠYears":11298,"Ġgenetic":11299,"rooms":11300,"Ġsurvival":11301,"ĠArticle":11302,"oped":11303,"ETHOD":11304,"Ġalert":11305,"ĠUnit":11306,"Ġfalling":11307,"ongs":11308,"ÏĦ":11309,"Pool":11310,"cha":11311,"LECT":11312,"ctrine":11313,"Details":11314,"Ġopposed":11315,"bet":11316,"offs":11317,"Ġ$.":11318,"tesy":11319,"PG":11320,"ĠIowa":11321,"Fi":11322,"each":11323,"Ġeigen":11324,"ĠAllen":11325,"Thanks":11326,"ĠArchitect":11327,"adi":11328,"selected":11329,"Ġopens":11330,"ĠFinance":11331,"Ġfrust":11332,"uther":11333,"ĠHan":11334,"scroll":11335,"Early":11336,"iments":11337,"Ġclock":11338,"Ġhardware":11339,"inded":11340,"ARD":11341,"Ġcelebrate":11342,"Msg":11343,"ĠOak":11344,"Ġinvalid":11345,"1965":11346,"ĠEarly":11347,"Ġworker":11348,"Ġdefeat":11349,"Ġdecor":11350,"ynom":11351,"Ġbuck":11352,"Ġexpectations":11353,"late":11354,"ĠRound":11355,"Sur":11356,"ĠSex":11357,"ureau":11358,"xs":11359,"Ġthousand":11360,"external":11361,"impl":11362,"ĠResource":11363,"Internal":11364,"burn":11365,"ĠGrow":11366,"ĠElement":11367,"herited":11368,"Ġrose":11369,"ghan":11370,"buf":11371,"lett":11372,"ĠPu":11373,"Ġflash":11374,"Ġreducing":11375,"ĠIndones":11376,"bot":11377,"Ġanalys":11378,"Ġinstanceof":11379,"Ġcapabilities":11380,"Ġstreaming":11381,"Ġencoding":11382,"Ġmedal":11383,"Ġdrawing":11384,"Ġkinds":11385,"ĠCart":11386,"uating":11387,"orous":11388,"Ġwing":11389,"ĠTag":11390,"Ġabund":11391,"Inv":11392,"Ġinvolves":11393,"Ġthinks":11394,"Miss":11395,"pository":11396,"Ġpayments":11397,"Ġamounts":11398,"ĠNEW":11399,"ĠRevolution":11400,"ĠFI":11401,"Ġsimulation":11402,"ivial":11403,"axis":11404,"ĠPlanning":11405,"Ġembr":11406,"ĠCredit":11407,"ĠLas":11408,"à¦":11409,"ctic":11410,"ĠReact":11411,"Ġwinners":11412,"Ġnoticed":11413,"Ġcontents":11414,"Ġperfectly":11415,"Ġaffili":11416,"ĠFellow":11417,"ĠFurthermore":11418,"iture":11419,"Ġobservation":11420,"Ġterritory":11421,"assertEqual":11422,"Ġdisabled":11423,"ĠStudent":11424,"ĠSales":11425,"there":11426,"ãĢ":11427,"Ġresolve":11428,"argument":11429,"Ġsimult":11430,"January":11431,"Ġpersonally":11432,"Ġroads":11433,"3333":11434,"Ġprominent":11435,"Ġmanagers":11436,"ĠFL":11437,"OCK":11438,"ugg":11439,"_->":11440,"Ġmanaging":11441,"ĠAG":11442,"Ġphysics":11443,"specific":11444,"Comment":11445,"Ġfuck":11446,"Ġlowest":11447,"Ùħ":11448,"olves":11449,"Ġelectricity":11450,"Ġrefuge":11451,"Ġloaded":11452,"ĠPrice":11453,"Ġbasically":11454,"Ġtrace":11455,"was":11456,"aneously":11457,"ĠMoore":11458,"ĠNaz":11459,"ĠGets":11460,"Published":11461,"Ġmeat":11462,"Ġsizes":11463,"Cond":11464,"BD":11465,"Ġdoors":11466,"itemize":11467,"Ġbat":11468,"oting":11469,"Ġconservation":11470,"ĠPoland":11471,"ĠCastle":11472,"ĠDise":11473,"bled":11474,"reated":11475,"amsung":11476,"ĠPur":11477,"Ġproven":11478,"IPT":11479,"ĠFC":11480,"domain":11481,"ders":11482,"Ġdocumentation":11483,"$}":11484,"Ġdesired":11485,"Ġlib":11486,"Timeout":11487,"sa":11488,"ĠTerms":11489,")))":11490,"Ġgaming":11491,"ĠNatural":11492,"Ġtank":11493,"ĠAttorney":11494,"Ġcutting":11495,"Ġfirms":11496,"ista":11497,"ĠAuthority":11498,"Ġsettlement":11499,"Ġsuffering":11500,"Ġlosses":11501,"istence":11502,"Ġtransportation":11503,"yrics":11504,"dam":11505,"ĠOlympic":11506,"Ġwindows":11507,"Ġpolitician":11508,"oa":11509,"ĠChapter":11510,"Auth":11511,"TIM":11512,"perial":11513,"ĠPed":11514,"ĠSchools":11515,"Ġdesk":11516,"ÙĨ":11517,"ĠExpress":11518,"Ġng":11519,"ĠLiving":11520,"proto":11521,"Ġbrilliant":11522,"ando":11523,"unches":11524,"ĠNature":11525,"Cent":11526,"Feb":11527,"abama":11528,"ĠMalays":11529,"oly":11530,"ĠFant":11531,"ĠRefer":11532,"network":11533,"prec":11534,"enders":11535,"Ġlisting":11536,"Product":11537,"ĠFun":11538,"hl":11539,"sis":11540,"Ġmusicians":11541,"mock":11542,"properties":11543,"Prop":11544,"bserv":11545,"Ġuncertainty":11546,"Dan":11547,"Ġmeets":11548,"ĠNetflix":11549,"Ð²":11550,"ĠSmart":11551,"Ġsubmit":11552,"Ġclosing":11553,"ĠRegional":11554,"Ġhandler":11555,"Sequence":11556,"ĠApplication":11557,"Ġpassengers":11558,"otte":11559,"uce":11560,"olid":11561,"webpack":11562,"zy":11563,"âĢ¦]":11564,"Ġgalaxies":11565,"Ġreact":11566,"ĠEnvironmental":11567,"Ġcompute":11568,"phot":11569,"amaz":11570,"Ġtries":11571,"Ġroyal":11572,"Ġrespective":11573,"agnetic":11574,"Ġgraduate":11575,"vironments":11576,"ĠSin":11577,"Ġentitled":11578,"Ġtiny":11579,"ĠResults":11580,"Ġpopulations":11581,"olding":11582,"Ġweren":11583,"Ġtheorem":11584,"}}_":11585,"sets":11586,"ĠLag":11587,"PATH":11588,"Ġkil":11589,"ĠNob":11590,"utter":11591,"Ġages":11592,"1966":11593,"raid":11594,"Ġpreced":11595,"uba":11596,"bat":11597,"_,":11598,"ocy":11599,"horizontal":11600,"Ġfired":11601,"Ġinsight":11602,"Ġsurvive":11603,"ĠGarden":11604,"atherine":11605,"Ġprovision":11606,"Ġtransactions":11607,"Ġaer":11608,"Ġeq":11609,"Ġhypothes":11610,"Ġtemporary":11611,"oli":11612,"ĠHawai":11613,"Ġwound":11614,"Ġ(-":11615,"Ġcircuit":11616,"Ġbin":11617,"ubble":11618,"posing":11619,"ĠPO":11620,"ĠDVD":11621,"ĠNorm":11622,"Ġdefeated":11623,"ĠRoom":11624,"Ġtheories":11625,"oment":11626,"Ġconsideration":11627,"March":11628,"Ġdinner":11629,"bits":11630,"ĠSeattle":11631,"\",\"":11632,"ighth":11633,"BN":11634,"ĠOwn":11635,"Ġlights":11636,"Ġbuilder":11637,"à¤¾":11638,"Ġocean":11639,"ĠShop":11640,"ĠTurk":11641,"VA":11642,"Ġ{{":11643,"dagger":11644,"ologists":11645,"ĠLaure":11646,"bow":11647,"}</":11648,"some":11649,"Scope":11650,"move":11651,"MR":11652,"loop":11653,"Ġelectro":11654,"IONS":11655,"Ġannouncement":11656,"çļ":11657,"ĠPy":11658,"Ġchildhood":11659,"Register":11660,"Ġease":11661,"Life":11662,"Opt":11663,"ĠThank":11664,"Ġneck":11665,"Prov":11666,"Ġsculpt":11667,"Ġtaste":11668,"\")]":11669,"Ġdipl":11670,"ĠLoc":11671,"Ġanimation":11672,"Ġmachines":11673,"hom":11674,"enna":11675,"Ġvariation":11676,"Rob":11677,"Ġtheatre":11678,"}},":11679,"Ġreliable":11680,"Ġjournalist":11681,"ĠMs":11682,"Ġrobust":11683,"ĠVin":11684,"}}}":11685,"Rich":11686,"typedef":11687,"oyd":11688,"ository":11689,"ceive":11690,"dp":11691,"witzer":11692,"itter":11693,"Ġtransferred":11694,"Ġoptimal":11695,"ste":11696,"queue":11697,"Ljava":11698,"Ġrg":11699,"Ġdesigns":11700,"iva":11701,"eyond":11702,"Close":11703,"ĠPhill":11704,"Ġfinance":11705,"Ġexpertise":11706,"Make":11707,"Windows":11708,"Ġverify":11709,"Ġpainting":11710,"ĠAgric":11711,"Ġrefers":11712,"Ġkne":11713,"aware":11714,"Great":11715,"III":11716,"FN":11717,"Ġsevent":11718,"_+":11719,"ĠAustin":11720,"Ġoccas":11721,"Ġimproving":11722,"Ġarbitrary":11723,"Ġinstances":11724,"105":11725,"angel":11726,"rama":11727,"chant":11728,"Ġfantastic":11729,"Ġcompletion":11730,"Ġpaths":11731,"Did":11732,"Ġcontributed":11733,"Ġrecognize":11734,"Ġsingular":11735,"ILL":11736,"SM":11737,"Ġinstruct":11738,"Ġinterviews":11739,"ĠCommunications":11740,"utf":11741,"athy":11742,"Sam":11743,"LIC":11744,"iary":11745,"Ġwaters":11746,"ĠNev":11747,"Ġemissions":11748,"ĠMeg":11749,"AK":11750,"Ġfinger":11751,"ĠVillage":11752,"ĠHal":11753,"Ġglob":11754,"rock":11755,"limit":11756,"çļĦ":11757,"imit":11758,"ĉĠĠĠĠĠ":11759,"ĠHence":11760,"unsigned":11761,"ĠSever":11762,"Ġvertex":11763,"Donald":11764,"ĠNic":11765,"isely":11766,"arest":11767,"Ġstrings":11768,"Ġscoring":11769,"Ġmarks":11770,"Ġgang":11771,"ifting":11772,"Ġsessions":11773,"ĠHistoric":11774,"ĠStream":11775,"Ġrefused":11776,"ante":11777,"Ġregardless":11778,"ĠFive":11779,"ĠEc":11780,"Float":11781,"ĠDuke":11782,"Directory":11783,"ceptions":11784,"Ġreply":11785,"ĠMorgan":11786,"ĠSelf":11787,"ĠStories":11788,"alytics":11789,"hematics":11790,"Cast":11791,"hs":11792,"Ġsuspect":11793,"owed":11794,"Ġarc":11795,"Ġreaching":11796,"whel":11797,"ĠOriginal":11798,"Ġvulnerable":11799,"icular":11800,"Ġhoping":11801,"ĠGab":11802,"ĠPolitics":11803,"ĠAppro":11804,"Ġtrib":11805,"ĠAmong":11806,"Ġtrick":11807,"Ġaccordance":11808,"zech":11809,"Ġlabels":11810,"^^":11811,"emies":11812,"tabs":11813,"ĠVegas":11814,"Based":11815,"Ġcrypt":11816,"definition":11817,"alaxy":11818,"Ġamplit":11819,"Ġ..":11820,"Ġcomic":11821,"$_":11822,"raig":11823,"txt":11824,"ĠPier":11825,"Ġmonthly":11826,"hour":11827,"Ġbias":11828,"ĠHelp":11829,"controller":11830,"Ġdecline":11831,"Ġnormally":11832,"Ġshots":11833,"ĠArgent":11834,"Success":11835,"outing":11836,"Items":11837,"addr":11838,"also":11839,"ĠBible":11840,"Ġpushed":11841,"ikes":11842,"Ġham":11843,"cludes":11844,"ĠMobile":11845,"ĠDick":11846,"opes":11847,"aura":11848,"Ġnumerical":11849,"ĠYouth":11850,"Ġprohib":11851,"aping":11852,"ĠTennessee":11853,"Ġbike":11854,"ĠEpisode":11855,"Logger":11856,"estyle":11857,"Double":11858,"ĠCert":11859,"Ġparticipation":11860,"aning":11861,"Ġroots":11862,"Ġcolumns":11863,"tri":11864,"Ġdeeply":11865,"orient":11866,"Ġfolk":11867,"ĠBh":11868,"Ġliterally":11869,"Loader":11870,"irlines":11871,"Ġconcrete":11872,"su":11873,"Ġdose":11874,"jan":11875,"$/":11876,"minus":11877,"usal":11878,"OB":11879,"ĠCooper":11880,"urities":11881,"()));":11882,"erald":11883,"Ġrational":11884,"oga":11885,"iate":11886,"Ġstretch":11887,"ĠPrivate":11888,"Ġtensor":11889,"porter":11890,"Ġpredicted":11891,"<\\":11892,"ĠMichel":11893,"Ġsomewhere":11894,"asant":11895,"ulum":11896,"Rele":11897,"Proxy":11898,"Browser":11899,"ntax":11900,"ailure":11901,"Ġtoler":11902,"Ġgenes":11903,":\\":11904,"Ġfurn":11905,"Ġancest":11906,"Ġ[];":11907,"Ġcomplicated":11908,"stable":11909,"Ġreplacement":11910,"urable":11911,"LY":11912,"Ġmoral":11913,"Ġclimb":11914,"Associ":11915,"Ġassumption":11916,"GBT":11917,"140":11918,"Ġaver":11919,"asma":11920,"ĠExp":11921,"FIG":11922,"gover":11923,"ĠMayor":11924,"amps":11925,"Ġtur":11926,"Conn":11927,"ĠJacob":11928,"Ġneutral":11929,"Ġequally":11930,"imp":11931,"Ġmasses":11932,"Coll":11933,"Ġrailway":11934,"ĠSn":11935,"Ġingred":11936,"Ġouter":11937,"Ġnations":11938,"Ġasks":11939,"Ġalgorithms":11940,"(){":11941,"Ġspiritual":11942,"matrix":11943,"Summary":11944,"Ġeastern":11945,"Ġpoetry":11946,"ĠMilitary":11947,"Ġconventional":11948,"ĠĠĠĠĠĠĠĠĠĠĠĠĠĠĠĠĠĠĠĠĠĠ":11949,"\\}$":11950,"Ġsignals":11951,"witzerland":11952,"cases":11953,"ifiers":11954,"Ġeating":11955,"best":11956,"Ġbars":11957,"ĠAnnual":11958,"uscript":11959,"ĠBuck":11960,"Ġfolks":11961,"Ġ\\|":11962,"rf":11963,"NE":11964,"ĠLincoln":11965,".__":11966,"ĠThough":11967,"hadoop":11968,"ignment":11969,"Ġchat":11970,"Matrix":11971,"Ġlands":11972,"Ġlocally":11973,"Ġamid":11974,"Ġreverse":11975,"Ġacquisition":11976,"uum":11977,"ĠWhich":11978,"ĠHur":11979,"aria":11980,"Ġrequirement":11981,"Ġlogic":11982,"iffs":11983,"acked":11984,"complete":11985,"Ġmorph":11986,"days":11987,"ĠMaterial":11988,"ĠThird":11989,"Ġconscious":11990,"Ġinterpretation":11991,"James":11992,"since":11993,"Ġcenters":11994,"Ġpreferred":11995,"Download":11996,"Ġgenre":11997,"ĠConfig":11998,"adr":11999,"ĠLane":12000,"mont":12001,"Phil":12002,"Ġconcerning":12003,"ĠConsult":12004,"Ġconstantly":12005,"Ġads":12006,"Ġoutstanding":12007,"Ġmapping":12008,"vo":12009,"Ġmaintained":12010,"Ġarrival":12011,"olitan":12012,"Î¹":12013,"Ġlegacy":12014,"have":12015,"orts":12016,"ĠEV":12017,"ĠSA":12018,"apos":12019,"Ġhelpful":12020,"Ġdoctors":12021,"ĠOpt":12022,"Ġsimulations":12023,"Ġtracking":12024,"covery":12025,"Ġorganic":12026,"Ġthermal":12027,"cdn":12028,"lahoma":12029,"multicol":12030,"ted":12031,"WR":12032,"alm":12033,"Ġshouldn":12034,"Ġperturb":12035,"Because":12036,"Tom":12037,"ĠRat":12038,"ashes":12039,"keyword":12040,"Ġfantasy":12041,"FFFF":12042,"xygen":12043,"Ġupload":12044,"Ġthrown":12045,"ĠRelease":12046,"rape":12047,"Ñĭ":12048,"Ġ&=&":12049,"Ġreputation":12050,"Ġterminal":12051,"Ġentering":12052,"ĠSyria":12053,"Ġtaxes":12054,"INFO":12055,"Ġroughly":12056,"chestra":12057,"rent":12058,"ĠKhan":12059,"ĠPerson":12060,"large":12061,"INS":12062,"scription":12063,"Java":12064,"changed":12065,"hot":12066,"itarian":12067,"depth":12068,")|":12069,"rah":12070,"ITH":12071,"Selector":12072,"Ġgovernor":12073,"ĠVietnam":12074,"NY":12075,"agic":12076,"BB":12077,"inction":12078,"Ġfeelings":12079,"ĠComment":12080,"ĠLE":12081,"Ġcourts":12082,"350":12083,"rend":12084,"UTF":12085,"Ġcarefully":12086,"ĠMelbourne":12087,"Ġhist":12088,"ĠRoberts":12089,"tah":12090,"hang":12091,"Ġbrown":12092,"avit":12093,"){\\":12094,"urches":12095,"Ġio":12096,"ĠCell":12097,"Finally":12098,"June":12099,"ascular":12100,"Ġcorresponds":12101,"ĠVi":12102,"Ġoblig":12103,"Ġceremony":12104,"Ã£o":12105,"Ġdiscussions":12106,"@\"":12107,"ĠBan":12108,"Children":12109,"1963":12110,"Ġintention":12111,"Ġdecrease":12112,"Ġstyles":12113,"multicolumn":12114,"ĠPhilippines":12115,"Notes":12116,"ogram":12117,"Ġanalog":12118,"×ª":12119,"ĠNation":12120,"ĠMun":12121,"ĠToy":12122,"echo":12123,"Ġhybrid":12124,"Ġadministrative":12125,"Ġsharp":12126,"^{-\\":12127,"Ġmouse":12128,"ibl":12129,"Ð´":12130,"ĠDallas":12131,"Ġelem":12132,"ĠStew":12133,"ĠMother":12134,"Character":12135,"inions":12136,"Ġdisorder":12137,"Ġemerging":12138,"ĠMaryland":12139,"112":12140,"Mac":12141,"Thank":12142,"entle":12143,"Duration":12144,"ancell":12145,"Ġdependent":12146,")\">":12147,"Ġorganisation":12148,"ĠASS":12149,"Ġflags":12150,"usted":12151,"formed":12152,"Ġaimed":12153,"Ġ%}":12154,"plan":12155,"footnote":12156,"pub":12157,"Ġvocal":12158,"Ġdiagnosis":12159,"Ġwedding":12160,"ĠFle":12161,"ĠHoward":12162,"ĠBalt":12163,"ĠET":12164,"Ġqualified":12165,"ibli":12166,"Bi":12167,"ounced":12168,"rating":12169,"switch":12170,"rium":12171,"what":12172,"ĠSpirit":12173,"Ġ(âĢľ":12174,"Ġrecommendations":12175,"Ġhospitals":12176,"July":12177,"Ġpiano":12178,"ĠBuff":12179,"ĠUkraine":12180,"ĠVirtual":12181,"Ġscalar":12182,"Ġgeneric":12183,"ouver":12184,"ĠEag":12185,"ĠBab":12186,"Ġstatistical":12187,"Plugin":12188,"NV":12189,"*)":12190,"Â·":12191,"NG":12192,"Ġphilosophy":12193,"ĠJudge":12194,"Bel":12195,"ĠAC":12196,"STAT":12197,"Ġfavourite":12198,"Ġappreciate":12199,"Ġfunc":12200,"Ġcrazy":12201,"limits":12202,"ĠDub":12203,"QU":12204,"->_":12205,"Ġconfront":12206,"Theta":12207,"Ġkitchen":12208,"Sen":12209,"Ġsinging":12210,"Ġsubsequently":12211,"Ġrotation":12212,"ĠDrug":12213,"single":12214,"Pattern":12215,"ĠPhilip":12216,"Ġsubstantial":12217,"Ġfranchise":12218,"kt":12219,"Ġpray":12220,"aco":12221,"Ġweapon":12222,"configuration":12223,"Ġinstructions":12224,"ĠPerformance":12225,"throws":12226,"Ġstruck":12227,"ĠAndre":12228,"hidden":12229,"good":12230,"Business":12231,"ublin":12232,"Short":12233,"Single":12234,"conc":12235,"ĠClimate":12236,"ĠSimilar":12237,"ookie":12238,"Ġdebug":12239,"amely":12240,"ĠLess":12241,"ĠPa":12242,"zo":12243,"ĠMcG":12244,"Ġcounsel":12245,"rait":12246,"onical":12247,"Ġcoinc":12248,"Panel":12249,"ĠWAR":12250,"ĠSurvey":12251,"ĠMust":12252,"oker":12253,"glas":12254,"Ġbeer":12255,"elfare":12256,"Ġtips":12257,"energy":12258,"ĠSweden":12259,"Ġregulation":12260,"Ġdemands":12261,"ouses":12262,"notes":12263,"April":12264,"pur":12265,"Ġflights":12266,"Ġbrothers":12267,"ĠAnne":12268,"UND":12269,"ULE":12270,"athered":12271,"ĠChap":12272,"anches":12273,"ĠMotor":12274,"Ġunexpected":12275,"Ġcaptain":12276,"Ġcolleagues":12277,"Î½":12278,"Ġinaug":12279,"Ġconservative":12280,"Dest":12281,"ĠGall":12282,"rupted":12283,"Ġapplies":12284,"Ġownership":12285,"ĠIndiana":12286,"Äĩ":12287,"Ġmemories":12288,"102":12289,"Ġaside":12290,"ĠRick":12291,"geon":12292,"ilib":12293,"Ġanniversary":12294,"assertEquals":12295,"ĠInv":12296,"rban":12297,"Ġcomplexity":12298,"phy":12299,"Ġperiods":12300,"ĠGreece":12301,"ÑĮ":12302,"Rober":12303,"typeof":12304,"Ġneuro":12305,"bara":12306,"[$":12307,"ĠMas":12308,"Ġapartment":12309,"ĠWithout":12310,"ĠML":12311,"ĠLater":12312,"Ġspatial":12313,"parser":12314,"LINE":12315,"Ð¼":12316,"orted":12317,"ĠBuy":12318,"++;":12319,"ĠOK":12320,"video":12321,"Ġeligible":12322,"Ġbold":12323,"1962":12324,"ĠAtlanta":12325,"ĠRey":12326,"ĠPaper":12327,"ÙĪ":12328,"City":12329,"uties":12330,"ĠMaria":12331,"Adapter":12332,"may":12333,"ĠForum":12334,"ĠPublished":12335,"Ġasset":12336,"Ġchecked":12337,"cosystem":12338,"ĠAlliance":12339,"Ms":12340,"ĠFollowing":12341,"ĠIR":12342,"-$":12343,"Crit":12344,"Fix":12345,"NavBarCell":12346,"ĠMessage":12347,"ï»":12348,"Ġsacr":12349,"ĠEuro":12350,"Ġobserve":12351,"acht":12352,"Fore":12353,"Ġcollective":12354,"Ġmining":12355,"ĠMars":12356,"Ġpublicly":12357,"winning":12358,"Ġuniversal":12359,"Ġmerely":12360,"ĠBowl":12361,"picker":12362,"books":12363,"ĠPeace":12364,"SQL":12365,"Ġconverted":12366,"Ġarrive":12367,"ĠReserved":12368,"ĠIsraeli":12369,"ĠLiverpool":12370,"inth":12371,"AU":12372,"GP":12373,"phant":12374,"Ġion":12375,"ĠGre":12376,"Ġordinary":12377,"Ġlattice":12378,"ushing":12379,"Ġdecent":12380,"ĠRace":12381,"Ġcompete":12382,"ĠFather":12383,"orable":12384,"Ġindustries":12385,"SW":12386,"icients":12387,"Ġhosts":12388,"Lin":12389,"','":12390,"ĠHIV":12391,"Ġsingles":12392,"ĠResponse":12393,"Iterator":12394,"Ġinequality":12395,"ĠBird":12396,"dates":12397,"Eq":12398,"Ġpic":12399,"Lear":12400,"Ġtissue":12401,"hesis":12402,"Ġargue":12403,"ĠClear":12404,"unior":12405,"Ġtea":12406,"Ġforever":12407,"Ġviolent":12408,"platform":12409,"wen":12410,"Ġimplements":12411,"ĠAlan":12412,"ĠKy":12413,"Ġtargeted":12414,"TABLE":12415,"!!!!":12416,"Ġoffensive":12417,"Ġunusual":12418,"mates":12419,"Ġvon":12420,"ĠMissouri":12421,"facebook":12422,"&=":12423,"Ġinfer":12424,"AE":12425,"protected":12426,"Ġorganisations":12427,"anga":12428,"Family":12429,"maker":12430,"Ã©s":12431,"idays":12432,"Ġpersonality":12433,"MOD":12434,"pin":12435,"ĠPos":12436,"ĠArthur":12437,"Ġspectral":12438,"ĠBY":12439,"flags":12440,"ĠDest":12441,"Ġbulk":12442,"Ġscan":12443,"osity":12444,"ĠWhit":12445,"Ġdesper":12446,"ĠNative":12447,"ĠBor":12448,"SIZE":12449,"ĠGun":12450,"ousing":12451,"Ġbits":12452,"ĠNE":12453,"Ġoperational":12454,"SY":12455,"Ġcensus":12456,"ĠTokyo":12457,"Ġroutes":12458,".-":12459,"igs":12460,"Ġuniversities":12461,"Ġsoph":12462,"ĠWhether":12463,"ĠJoh":12464,"Ġconcepts":12465,"Ġimprovements":12466,"Constr":12467,"Ġexecuted":12468,"Ġpace":12469,"Ġ=========":12470,"provider":12471,"Profile":12472,"Ġdependence":12473,"Ġmechanisms":12474,"åı":12475,"Ġmarg":12476,"October":12477,"amer":12478,"ï»¿":12479,"stud":12480,"Protocol":12481,"Green":12482,"uh":12483,",\\,":12484,"Ġ\"\"":12485,"Have":12486,"utrition":12487,"Ġguilty":12488,"Ġindependence":12489,"omas":12490,"ques":12491,"TT":12492,"Ġ($\\":12493,"ĠGib":12494,"âĢħ":12495,"Ġattempted":12496,"Ġ''":12497,"Ġapplying":12498,"ĠPil":12499,"Ġinduced":12500,"ĠDean":12501,"Ġseparated":12502,"ĠParam":12503,"Ġtone":12504,"Ġ^":12505,"ĉĉĉĉĉĉĉĉĉ":12506,"iative":12507,"Ġcup":12508,"Ġnaturally":12509,"condition":12510,"ĠCop":12511,"ĠDur":12512,"Ġapproximation":12513,"theless":12514,"tor":12515,"elihood":12516,"ĠBreak":12517,"RED":12518,"Mer":12519,"Ġtalked":12520,"Ġunlikely":12521,"Ġappend":12522,"Ġsigning":12523,"etition":12524,"ĠCou":12525,"ordinary":12526,"oda":12527,"Ġboot":12528,"ĠCow":12529,"mg":12530,"ĠCole":12531,"ntil":12532,"contains":12533,"ĠâĨĴ":12534,"ĠKl":12535,"zing":12536,"Ġreads":12537,"ĠExchange":12538,"Ġmes":12539,"pu":12540,"ĠAuto":12541,"Initial":12542,"Ġpeer":12543,"Ġ}\\":12544,"Ġdisag":12545,"FORM":12546,"Ġ$|":12547,"ĠLam":12548,"Ġmagnitude":12549,"Ġmolecular":12550,"idal":12551,"Ġfails":12552,"Ġcann":12553,"Ġheading":12554,"ysical":12555,"ĠNode":12556,"ĠAlabama":12557,"Ġignored":12558,"ĠPast":12559,"ĠInteg":12560,"trigger":12561,"!)":12562,"Ġlegit":12563,"ĠPlant":12564,"oni":12565,"ANCE":12566,"Ġmoon":12567,"ĠConsider":12568,"ĠDownload":12569,"ĠSant":12570,"Ġloud":12571,"ĠMess":12572,"()).":12573,"Ġinstallation":12574,"ĠMcK":12575,"Ġgrab":12576,"Ġfootballers":12577,"Ġdemocracy":12578,"Ġheritage":12579,"Stand":12580,"Ġcurves":12581,"ASH":12582,"Ġisolated":12583,"collapse":12584,"former":12585,"Ġ{'":12586,"emed":12587,"iking":12588,"ĠChampionships":12589,"iterator":12590,"William":12591,"lessly":12592,"stage":12593,"Ġmeta":12594,"Ġviewed":12595,"Ġheaded":12596,"Ġdesigner":12597,"ĠWoman":12598,"Ġjet":12599,"ĠRequest":12600,"isen":12601,"ĠHills":12602,"ĠDJ":12603,"\\}":12604,"Ġtables":12605,"Ġwet":12606,"ĠHeritage":12607,"Auto":12608,"Ġtomorrow":12609,"Ġproxy":12610,"Ġcharity":12611,"ADD":12612,"anka":12613,"SN":12614,"Ġhighlights":12615,"Ġguarantee":12616,"ĠTrib":12617,"Ġplain":12618,"ĠMission":12619,"Har":12620,"áĥ":12621,"Ġschem":12622,"Ġloyal":12623,"Ġxmlns":12624,"Ġfn":12625,"Ġlov":12626,"mb":12627,"ĠBull":12628,"layer":12629,"Ġguns":12630,"Ġscreening":12631,"1961":12632,"ardo":12633,"elve":12634,"Ġtied":12635,"ĠTree":12636,"Îµ":12637,"Ġeverywhere":12638,"ĠTemple":12639,"Åį":12640,"ĠTel":12641,"ĠKam":12642,"ĠElectric":12643,"ingers":12644,"scill":12645,"Ġtheoretical":12646,"Ġpin":12647,"ĠMarine":12648,"berry":12649,"works":12650,"lined":12651,"Ġstupid":12652,"Keys":12653,"Ġenables":12654,"anded":12655,"iere":12656,"ĠFROM":12657,"ĠWalker":12658,"Ġinhab":12659,"104":12660,"WH":12661,"ĠHero":12662,"hide":12663,"ĠSaudi":12664,"ĠABC":12665,"ĠDays":12666,"Ġinstitution":12667,"Mapping":12668,"Ġaccum":12669,"claimed":12670,"rates":12671,"generated":12672,"ĠDelhi":12673,"uits":12674,"ĠRoute":12675,"ĠMatthew":12676,"emet":12677,"enny":12678,"Ġprivile":12679,"ĠFO":12680,"Ġmedian":12681,"ĠMoney":12682,"owner":12683,"Ġcogn":12684,"Ġfragment":12685,"Ġaddressed":12686,"exists":12687,"Ġranked":12688,"Ġidentification":12689,"Services":12690,"Ġtact":12691,"ĠCrime":12692,"FE":12693,"ĠBeck":12694,"Ġmile":12695,"ATED":12696,"Ġna":12697,"imore":12698,"manager":12699,"Ġrepair":12700,")));":12701,"Ġimmun":12702,"Ġgolf":12703,"Ġcoordinates":12704,"ĠAfghan":12705,"empl":12706,"Ġelsewhere":12707,"Despite":12708,"logger":12709,"colLast":12710,"Ġintensity":12711,"ĠPhD":12712,"vs":12713,"ĠJonathan":12714,"Ġreven":12715,"ÙĬ":12716,"Ġoverl":12717,"agg":12718,"ĠSM":12719,"Ġresident":12720,"Ġpump":12721,"Ġclar":12722,"Ġstudying":12723,"ĠAppe":12724,"Ġregulatory":12725,"handler":12726,"ĠDetroit":12727,"_{{\\":12728,"Compar":12729,"imated":12730,"HD":12731,"Ġencouraged":12732,"chen":12733,"ĠGiven":12734,"ĠWolf":12735,"Ġrely":12736,"Ġpassenger":12737,"accept":12738,"Ġbreaks":12739,"hell":12740,"Ġsomehow":12741,"Ġcalculate":12742,"Bet":12743,"Ġfro":12744,"San":12745,"ĠHum":12746,"ĠPear":12747,"ĠNBA":12748,"Save":12749,"Ġmini":12750,"Ġportfolio":12751,"done":12752,"ĠHell":12753,"Ġyields":12754,"ummy":12755,"Old":12756,"ARS":12757,"Ġconfident":12758,"Ġwhilst":12759,"textr":12760,"Ġinvariant":12761,"Ġenvironments":12762,"Private":12763,"Ġentrance":12764,"ĠWy":12765,"ancouver":12766,"ĠTODO":12767,"plementation":12768,"avis":12769,"annon":12770,"ĠKal":12771,"idae":12772,"cca":12773,"Ġcomputed":12774,"Ġcrimes":12775,"Ã©e":12776,"Stop":12777,"*{":12778,"services":12779,"XML":12780,"ĠBeaut":12781,"ĠChristopher":12782,"Memory":12783,"plot":12784,"Ġpolynom":12785,"ĠLeb":12786,"Ġturb":12787,"Ġlunch":12788,"eval":12789,"Ġprize":12790,"Ġvisits":12791,")\\,":12792,"Grid":12793,"nan":12794,"ANG":12795,"ĠOrganization":12796,"ĠHE":12797,"xit":12798,"Master":12799,"aton":12800,"August":12801,"ĠIE":12802,"Ġproduces":12803,"Ġreporter":12804,"Ġnovels":12805,"Ġpoverty":12806,"Ġlimitations":12807,"tools":12808,"ĠBus":12809,"'])":12810,"Ġchronic":12811,"orer":12812,"Ġconcluded":12813,"secutive":12814,"mass":12815,"Ġoverwhel":12816,"Mut":12817,"ORY":12818,"ĠChairman":12819,"Ġrejected":12820,"ĠGer":12821,"ĠViol":12822,"users":12823,"Ok":12824,"colFirst":12825,"ĠjQuery":12826,"Generic":12827,"Ġui":12828,"leton":12829,"Ġpublishing":12830,"Selected":12831,"Ġtowns":12832,"Ġinstruments":12833,"bold":12834,"_(":12835,"apply":12836,"Ġinnoc":12837,"LD":12838,"parameters":12839,"ĠVolume":12840,"ras":12841,"ĠProvince":12842,"ictions":12843,"rik":12844,"JS":12845,"Ġorth":12846,"ĠNik":12847,"Ġthorough":12848,"erving":12849,"Ġimmune":12850,"ptic":12851,"ĠAlbum":12852,"Ġmetadata":12853,"Ġobst":12854,"ĠAndy":12855,"Alex":12856,"Sync":12857,"/\"":12858,"Ġcollapse":12859,"ĠĠĠĠĠĠĠĠĠĠĠĠĠĠĠĠĠĠĠĠĠĠĠĠĠĠĠĠĠĠĠĠĠĠĠĠĠĠĠĠĠĠĠĠĠĠĠĠĠĠĠĠĠĠĠĠĠĠĠĠĠĠĠĠ":12860,"stan":12861,"textrm":12862,"?)":12863,"Ġgrounds":12864,"hal":12865,"Ġspeaker":12866,".~(\\":12867,"mac":12868,"ĠArk":12869,"icit":12870,"ĠBureau":12871,"ĠJess":12872,"ĠCC":12873,"Ġtill":12874,"Ġsettled":12875,"Ġgear":12876,"antry":12877,"navList":12878,"Ġinsights":12879,"Ġbounded":12880,"Ġfest":12881,"agers":12882,"Ġintervention":12883,"Ġdisturb":12884,"Ġinclusion":12885,"Ġdrinking":12886,"Ġlessons":12887,"ducer":12888,"Ġgod":12889,"Ġcha":12890,"Ġpenalty":12891,"MW":12892,"prefix":12893,"integ":12894,"arma":12895,"Ġinspiration":12896,"ĠCentury":12897,"Ġracial":12898,"Ġasync":12899,"Ġlens":12900,"Ġthreats":12901,"ĠBah":12902,"Program":12903,"ket":12904,"Sports":12905,"Ġidentical":12906,"Ġdenied":12907,"ĠMyst":12908,"Ġbeam":12909,"ĠHans":12910,"Ġpseud":12911,"Ġloves":12912,"ĠChen":12913,"ĠIM":12914,"xiety":12915,"Ġexecute":12916,"Elements":12917,"Ġdefensive":12918,"ĠDa":12919,"Ġsuperior":12920,"whe":12921,"theme":12922,"Ġtrou":12923,"Ġpartition":12924,"emia":12925,"Ġmilk":12926,"ĠWi":12927,"Ġproteins":12928,"Ġpleased":12929,"Symbol":12930,"Ġpreparation":12931,"Ġretirement":12932,"ffff":12933,"aters":12934,"Ġconstitu":12935,"Ġwider":12936,"Tw":12937,"nn":12938,"Attributes":12939,"×Ķ":12940,"Ġaccompan":12941,"olph":12942,"ĠGordon":12943,"feature":12944,"Ġmystery":12945,"Ġrival":12946,"ĠCorps":12947,"spiracy":12948,"aro":12949,"Ġcontracts":12950,"aceut":12951,"Ġportray":12952,"December":12953,"Ġspark":12954,"Ġrecru":12955,"ĠER":12956,"Ġfought":12957,"Ġsatisfy":12958,"HC":12959,"ĠDeep":12960,"orce":12961,"charge":12962,"ĠRab":12963,"Route":12964,"Ġmad":12965,"Ġarmed":12966,"Ġmovements":12967,"father":12968,"Ġbirthday":12969,"Depend":12970,"ĠArg":12971,"Ġpromotion":12972,"Three":12973,"ĠPolitical":12974,"Ġinstant":12975,"111":12976,"Ġcalculation":12977,"Ġraising":12978,"Ġparliament":12979,"emen":12980,"dc":12981,"Ġrescue":12982,"COVID":12983,"Ġargued":12984,"Ġfocuses":12985,"required":12986,"Ġtitled":12987,"Ġevaluated":12988,"Ġwake":12989,"Ġblind":12990,"ĠMind":12991,"Ġwithdraw":12992,"Ġnan":12993,"Thus":12994,"Ġdirections":12995,"Ġfishing":12996,"outheast":12997,"ToString":12998,"Ġstuck":12999,"Ġresponded":13000,"Ġrgba":13001,"Ġresidential":13002,"Expr":13003,"Ġcenturies":13004,"pair":13005,"apolis":13006,"PY":13007,"Ġsupplies":13008,"Socket":13009,"Ġpars":13010,"Ġbunch":13011,"Ġanalyst":13012,"~$":13013,"Ġedited":13014,"Ġweird":13015,"Ġ).":13016,"Ġqueue":13017,"ĠFBI":13018,"uer":13019,"Import":13020,"CHECK":13021,"OWN":13022,"wrapper":13023,"hill":13024,"Ġglad":13025,"peror":13026,"details":13027,"Europe":13028,"Ġcref":13029,"Ġenhanced":13030,"oria":13031,"ĠSwitzerland":13032,"gies":13033,"Ġavailability":13034,"Ġelder":13035,"Ġexplicitly":13036,"ĠIC":13037,"Ġbull":13038,"Ġequipped":13039,"Ġsalt":13040,"ĠGuid":13041,"/.":13042,"Ġproducers":13043,"lu":13044,"Ġlang":13045,"oplus":13046,"Ġfabric":13047,"ĠBeat":13048,"isons":13049,"Ġoldest":13050,"Ġip":13051,"Ġbone":13052,"apsed":13053,"Ġ\",":13054,"Ġmanifest":13055,"oscow":13056,"Ġinstruction":13057,"icals":13058,"Ġestablishments":13059,"Following":13060,"'\\":13061,"SI":13062,"estone":13063,"ĠBrand":13064,"Clear":13065,"acer":13066,"ajax":13067,"Ġ$\\{":13068,"otive":13069,"Ġjazz":13070,"ailand":13071,"inian":13072,"Ġnotable":13073,"Ġanymore":13074,"rr":13075,"Ġtip":13076,"ĠPL":13077,"Ġstructural":13078,"Ġcriticism":13079,"ĠFederation":13080,"Ġdecom":13081,"Ġclim":13082,"Ġtonight":13083,"picture":13084,"President":13085,"ĠComputer":13086,"plier":13087,"Ġdil":13088,"ĠGalaxy":13089,"Ġcorrectly":13090,"ĠLevel":13091,"Ġadequ":13092,"UC":13093,"ĠCape":13094,"Ġsequences":13095,"Ġlegs":13096,"ĠÃ¢":13097,"November":13098,"ĠStudio":13099,"Ġpub":13100,"Install":13101,"Ġimmigration":13102,"Failed":13103,"TEXT":13104,"rices":13105,"ĠAst":13106,"Ġtweet":13107,"ĠMort":13108,"ĠKentucky":13109,"Cloud":13110,"Ġtranslate":13111,"Ġprediction":13112,"iga":13113,"bes":13114,"tmp":13115,"paper":13116,"(__":13117,"ĠAthlet":13118,"emetery":13119,"mc":13120,"Ġhint":13121,"ĠClick":13122,"Ġindicating":13123,"ĠQueensland":13124,"Seg":13125,"Ġmice":13126,"ĠRachel":13127,"Ġlad":13128,"ĠSri":13129,"Ġhang":13130,"reation":13131,"ĠBased":13132,"Ġsheet":13133,"Gover":13134,"Ġdeeper":13135,"Ġintellectual":13136,"sch":13137,"ĠSingh":13138,"ĠHug":13139,"ixels":13140,"Ġ\\(":13141,"annah":13142,"ĠSac":13143,"Ġrepeat":13144,"vals":13145,"Ġcomputing":13146,"icut":13147,"USE":13148,"ĠOklahoma":13149,"Remove":13150,"Ġsid":13151,"Ġinject":13152,"ĠIntelligence":13153,"Ġneighb":13154,"Ġbiological":13155,"Ġchecks":13156,"ĠReading":13157,"Ġposter":13158,"throw":13159,"Simple":13160,"Äį":13161,"symbol":13162,"Ġmanif":13163,"Ġpointer":13164,"Ġsatellite":13165,"Ġhockey":13166,"ĠRap":13167,"download":13168,"BAR":13169,"ĠSumm":13170,"NotNull":13171,"eling":13172,"ĠThompson":13173,"crit":13174,"forming":13175,"Construct":13176,"ĠIron":13177,"yg":13178,"ĠIndeed":13179,"INTER":13180,"ĠServer":13181,"bytes":13182,"September":13183,"ĠIndependent":13184,"amazon":13185,"Ġtypeof":13186,"ocaml":13187,"VP":13188,"Ġnod":13189,"Super":13190,"ĠĠĠĠĠĠĠĠĠĠĠĠĠĠĠĠĠĠĠĠĠĠĠĠĠĠĠĠ":13191,"Ġluxury":13192,"Ġlawyers":13193,"arding":13194,"Ġdowntown":13195,"eder":13196,"Jack":13197,"Ġcomplaint":13198,"Ġdifferential":13199,"Ġwarrant":13200,"iscal":13201,"iÃ³n":13202,"Ġengineer":13203,"Ġdad":13204,"Ġthemes":13205,"ĠBron":13206,"_{-":13207,"hou":13208,"Ġappointment":13209,"amous":13210,"ĠBond":13211,"Ġkin":13212,"Polit":13213,"pull":13214,"icked":13215,"cluding":13216,"olars":13217,"Ġclusters":13218,"_{(":13219,"urrence":13220,"Ġcalculations":13221,"initial":13222,"issip":13223,"1959":13224,":#":13225,"iated":13226,"âĢ¦âĢ¦":13227,"Ġgeometry":13228,"Related":13229,"Ġdreams":13230,"Agent":13231,"Ġshortly":13232,"ĠGrad":13233,"Ġdistributions":13234,"ivia":13235,"bers":13236,"tags":13237,"Â»":13238,"Information":13239,"Ġdisp":13240,"Ġvolunteers":13241,"ĠKings":13242,"Ġconvenient":13243,"Ġruling":13244,"Ġgreatly":13245,"enabled":13246,"Ġdir":13247,"Ġedit":13248,",...":13249,"ĠKa":13250,"ught":13251,"Ġsorry":13252,"Ġvaccines":13253,"oca":13254,"contrib":13255,"ĠHost":13256,"106":13257,"ĠNap":13258,"Whe":13259,"agonal":13260,"ĠNichol":13261,"Ġagenda":13262,"Ġpromoted":13263,"agent":13264,"Ġconstructor":13265,"Ġrelating":13266,"Ġworship":13267,"ĠAnna":13268,".<":13269,"Layer":13270,"Ġcock":13271,"Ġdeclare":13272,"getName":13273,"Ġbio":13274,"Ġpret":13275,"groups":13276,"Ġsatisfied":13277,"Ġtale":13278,"ĠGary":13279,"Ġrows":13280,"ĠRussell":13281,"Ġembod":13282,"sem":13283,"random":13284,"intendo":13285,"made":13286,"Ġtrains":13287,"ORK":13288,"Ġhunt":13289,"Ġdialogue":13290,"Ġchairman":13291,"Ġwhenever":13292,"ĠHit":13293,"Ġdisaster":13294,"Ġexploration":13295,"abetes":13296,"Real":13297,"Ġmeth":13298,"construction":13299,"Enum":13300,"Mal":13301,"1944":13302,"Card":13303,"tar":13304,"speed":13305,"arios":13306,"Ġsnap":13307,"quiry":13308,"wedge":13309,"props":13310,"ruby":13311,"Ġlistener":13312,"Ġcoaches":13313,"Ġpipeline":13314,"Ġunlike":13315,"minute":13316,"Ġcalendar":13317,"ĠWorks":13318,"Ġluck":13319,"Ġinvolvement":13320,"ateful":13321,"rophy":13322,"than":13323,"beat":13324,"Ġdramatic":13325,"western":13326,"health":13327,"Ġfemin":13328,"shadow":13329,"Ġdesignated":13330,"Ġlyrics":13331,"ĠĠĠĠĠĠĠĠĠĠĠĠĠĠĠĠĠĠĠĠĠĠĠĠĠĠĠĠĠĠĠĠĠĠĠĠĠĠĠĠĠĠĠ":13332,"ĠCome":13333,"they":13334,"ĠWorking":13335,"Ġhouseholds":13336,"olen":13337,"tage":13338,"Ġ[âĢ¦]":13339,"Ġdevelopments":13340,"ĠHash":13341,"ĠALL":13342,"Mart":13343,"ĠTa":13344,"Ġgenerations":13345,"Ġequity":13346,"ĠBishop":13347,"uis":13348,"Ġsuffer":13349,"127":13350,"Power":13351,"Ġ=======":13352,"Ġmanual":13353,"Ġoscill":13354,"ĠPharm":13355,"ĠCover":13356,"Ġinvestigated":13357,"dale":13358,"Ġequality":13359,"ĠDal":13360,"ĠHub":13361,"Ġawesome":13362,"Ġlake":13363,"Ġdiscount":13364,"ĠMand":13365,"Final":13366,"Ġconclude":13367,"Connect":13368,"ĠSW":13369,"abling":13370,"Ġcoq":13371,"chiat":13372,"ĠJob":13373,"Ġmechanical":13374,"Ġdistricts":13375,"ĠÐ¿":13376,"Ġcul":13377,"ois":13378,"oned":13379,"ĠGR":13380,"NULL":13381,"fixed":13382,"ĠAvailable":13383,"Ø§ÙĦ":13384,"uda":13385,"Ġcounts":13386,"plates":13387,"British":13388,"fish":13389,"Database":13390,"irates":13391,"Ġcodes":13392,"acker":13393,"Ġlifetime":13394,"urations":13395,"metadata":13396,"leveland":13397,"Statement":13398,"flag":13399,"ĠEstate":13400,"Ġfocusing":13401,"Ġmaxim":13402,"118":13403,"Ġburied":13404,"Ġcharacteristic":13405,"arse":13406,"Ãº":13407,"ĠĠĠĠĠĠĠĠĠĠĠĠĠĠĠĠĊ":13408,"------------":13409,"ĠMerc":13410,"Ġappearances":13411,"Ġincredibly":13412,"ĠLandroid":13413,"Ġidx":13414,"rays":13415,"Ġprinted":13416,"Ġdirectors":13417,"printf":13418,"weg":13419,"Ġoutdoor":13420,"Ġcompatible":13421,"hedral":13422,"=\"${":13423,"Ġshit":13424,"ĠBlood":13425,"Labels":13426,"nl":13427,"Ġharder":13428,"Ġdiet":13429,"Scale":13430,"Ġamongst":13431,"ĠQuest":13432,"Ġlung":13433,"ĠStop":13434,"Live":13435,"Ġvoices":13436,"Ġlip":13437,"blank":13438,"White":13439,"Ġmunicipal":13440,"Ġoffense":13441,"1958":13442,"Ġpanels":13443,"ĠWriting":13444,"uj":13445,"rev":13446,"multi":13447,"Scroll":13448,"Ġske":13449,"Environment":13450,"Ġwrest":13451,"aman":13452,"à®":13453,"Ġpublications":13454,"Player":13455,"Ġreviewed":13456,"ĠGirls":13457,"Ġfluct":13458,"1957":13459,"exper":13460,"ĠSenator":13461,"Ġattacked":13462,"Ġhip":13463,"ĠDue":13464,"Ġpossess":13465,"encer":13466,"Ġcomplement":13467,"ieval":13468,"jango":13469,"phones":13470,"Ġrestricted":13471,"ĠShare":13472,"Ġunw":13473,"Ġexha":13474,"Ġsignificance":13475,"ti":13476,"ĠÅ":13477,"ĠMC":13478,"agh":13479,"ĠOil":13480,"Ġdepression":13481,"enez":13482,"href":13483,"rieve":13484,"allclasses":13485,"Ġreq":13486,"Ġstats":13487,"Ġpron":13488,"viously":13489,"ĠNASA":13490,"Ġpoet":13491,"Ġboundaries":13492,"Mill":13493,"Ġscales":13494,"Ġclip":13495,"ĠHoll":13496,"Ġsensor":13497,"Ġconsecutive":13498,"Ġepid":13499,"VM":13500,"Ġultimate":13501,"Ġdeck":13502,"Ġcow":13503,"bn":13504,"Ġcoefficients":13505,"Wel":13506,"PROC":13507,"×¨":13508,"ĠNeg":13509,"job":13510,"ĠChristians":13511,"Women":13512,"olo":13513,"ĠPas":13514,"Ġnotion":13515,"Ġadmit":13516,"Ġterrible":13517,"Ġintense":13518,"Ġtort":13519,"Ġrarely":13520,"ĠâĤ¬":13521,"ĠLeadership":13522,"ĠChel":13523,"ĠRisk":13524,"Ġimaging":13525,"Ġdestruction":13526,"owski":13527,"springframework":13528,"Ã¸":13529,"attributes":13530,"Ġprofiles":13531,"Ð½Ð¸":13532,"Ġclothes":13533,"Ġscattering":13534,"Ġbot":13535,"bc":13536,"bird":13537,"ĠHighway":13538,"science":13539,"ĠCry":13540,"Ġfunded":13541,"ĠHad":13542,"lad":13543,"Ġtub":13544,"SER":13545,"Ġ(_":13546,"ĠCharlie":13547,"Ġsatisfies":13548,"ĠRain":13549,"................":13550,"urse":13551,"Ġmanuscript":13552,"ropolitan":13553,"collection":13554,"Ġpremier":13555,"103":13556,"omed":13557,"unique":13558,"Ġblank":13559,"oose":13560,"builder":13561,"dialog":13562,"itudes":13563,"Constants":13564,"quis":13565,"ĠBlu":13566,"Repository":13567,"iper":13568,"anne":13569,"rang":13570,"series":13571,"looking":13572,"prev":13573,"hips":13574,"ĠFight":13575,"Ġsmile":13576,"Plan":13577,"illance":13578,"Ġtower":13579,"ĠUI":13580,"Ġanth":13581,"ĠSept":13582,"Ġpref":13583,"Ġafraid":13584,"ĠAlf":13585,"ĠRailway":13586,"Ġju":13587,"ĠLeft":13588,"ĠDouble":13589,"1948":13590,"ĠTry":13591,"ĠâĢĿ":13592,"oil":13593,"Ġmistake":13594,"Should":13595,"ĠInsurance":13596,"ĠEC":13597,"DOM":13598,"Ġgalaxy":13599,"ashing":13600,"Ġcollections":13601,"ĠEconomics":13602,"commun":13603,"ĠPred":13604,"Ġtransc":13605,"izers":13606,"bid":13607,"Password":13608,"?>":13609,"Ġ?>":13610,"Ġoxygen":13611,"Ġneighbour":13612,"Ġdoi":13613,"ĠMarvel":13614,"Ġreceives":13615,"Ġremarkable":13616,"zym":13617,"ĠBed":13618,"Ġ|\\":13619,"Ġprecisely":13620,"Ġmodules":13621,"Ġpione":13622,"ĠImpact":13623,"ĠANY":13624,"ĠGram":13625,"ATCH":13626,"erto":13627,"Ġnamely":13628,"Ġparticipated":13629,"1939":13630,"inburgh":13631,"Ġcameras":13632,"quality":13633,"Ġdeveloper":13634,"ĠMexican":13635,"Ġcable":13636,"ĠAssistant":13637,"Ġsugar":13638,"ĠRic":13639,"issa":13640,"ĠLeader":13641,"ĠShel":13642,"Ġtwe":13643,"Ġdominant":13644,"filename":13645,"Ġbounds":13646,"Ġpremium":13647,"Ġimpacts":13648,"ĠLGBT":13649,"ĠAdams":13650,"ĠNorway":13651,"ĠPlayer":13652,"ĠArchives":13653,"oi":13654,"identifier":13655,"Trace":13656,"reset":13657,"Ġsixth":13658,"headers":13659,"ĠNHS":13660,"Ġabandoned":13661,"onda":13662,"ryption":13663,"Ġsupplied":13664,"ĠLearn":13665,"Ġpermit":13666,"1956":13667,"ĠTru":13668,"æľ":13669,"connected":13670,"Ġpatch":13671,"gage":13672,"ateral":13673,"Ġquantity":13674,"LED":13675,"fold":13676,"bus":13677,"115":13678,"Ġremoval":13679,"ĠCoronavirus":13680,"ĠAlbert":13681,"ĠStars":13682,"Ġskip":13683,"sime":13684,"Ġsear":13685,"ÂŃ":13686,"ĠGT":13687,"Ġestablishment":13688,"Ġmasks":13689,"Sep":13690,"ĠElection":13691,"maven":13692,"Ġopinions":13693,"Pointer":13694,"elligent":13695,"ivo":13696,"Microsoft":13697,"ĠDance":13698,"Ġho":13699,"avery":13700,"Ġstruggling":13701,"Ġecosystem":13702,"conn":13703,"ĠConstitution":13704,"Ġinches":13705,"Ġshr":13706,"simeq":13707,"107":13708,"ĠPerhaps":13709,"liest":13710,"OME":13711,"ĠĠĠĠĠĠĠĠĠĠĠĠĠĠĠĠĠĠĠĠĠĠĠĠĠĠĠĠĠ":13712,"Ġspecify":13713,"\"`":13714,"Ġeverybody":13715,"Educ":13716,"ponential":13717,"Ġlicensed":13718,"esian":13719,"Ġmetab":13720,"chart":13721,"Ġsubscription":13722,"clean":13723,"Ġliterary":13724,"Pad":13725,"oenix":13726,"ects":13727,"mn":13728,"ilibrium":13729,"Ġromantic":13730,"ĠStewart":13731,"Ġexclus":13732,"Ġjudges":13733,"Ġcareful":13734,"Contin":13735,"ĠSay":13736,"ĠRoc":13737,"mathscr":13738,"Ġshadow":13739,"Ġinvolve":13740,"mate":13741,"Region":13742,"ĠLock":13743,"inging":13744,"Ġfleet":13745,"{\"":13746,"Ġenv":13747,"Parse":13748,".\");":13749,"Ġrevers":13750,"dig":13751,"Ġquote":13752,"Ġengaging":13753,"etal":13754,"108":13755,"Special":13756,"charg":13757,"Ġviewers":13758,"Ġreceiver":13759,"Ïĥ":13760,"tered":13761,"itchell":13762,"ĠCelebr":13763,"Ġstem":13764,"ĠCzech":13765,"ĠCle":13766,"Ġconsequence":13767,"Ġbatch":13768,"Ġliberal":13769,"School":13770,"tech":13771,"ĠHold":13772,"Ġsuspended":13773,"ĠLP":13774,"Ġprefix":13775,"Ġhadn":13776,"Ġasp":13777,"scar":13778,"ethe":13779,"Through":13780,"Ġleaf":13781,"Ġcorrel":13782,"ĠKennedy":13783,"Ġhumanity":13784,"uki":13785,"Ġpushing":13786,"Ġautomatic":13787,"ĠTro":13788,"NET":13789,"ĠStatus":13790,"Ġcoordinate":13791,"Collections":13792,"ĠWind":13793,"ĠMurray":13794,"sn":13795,"ĠFisher":13796,"lass":13797,"<!":13798,"bian":13799,"othy":13800,"login":13801,"Ġexamine":13802,"Ġloading":13803,"Ġghost":13804,"oids":13805,"Ġmixing":13806,"rift":13807,"Ġflav":13808,"errors":13809,"verseas":13810,"Ġ{\"":13811,"usform":13812,"nil":13813,"COMP":13814,"Exper":13815,"detail":13816,"numerusform":13817,"ĠMalaysia":13818,"cin":13819,"Ġbind":13820,"ochem":13821,"bg":13822,"Former":13823,"Ġengines":13824,"Ġsyndrome":13825,"mutable":13826,"Ġinfections":13827,"Ġenterprise":13828,"omer":13829,"BUG":13830,"issippi":13831,"Ġathletes":13832,"Ġreactions":13833,"ĠKate":13834,"Ġutility":13835,"Ġupgrade":13836,"bing":13837,"ority":13838,"Ġsuppose":13839,"ĠBeing":13840,"Ġvariant":13841,"\"><!--":13842,"Methods":13843,"ĠSel":13844,"ĠNAME":13845,"ĠDublin":13846,"verter":13847,"ĠGraham":13848,"UTH":13849,"Ġprotests":13850,"Ġsensitivity":13851,"Ġstayed":13852,"Creat":13853,"Ġtie":13854,"aval":13855,"Ġpleasure":13856,"Ġsimultaneously":13857,"FM":13858,"Ġ$[":13859,"ĠPublishing":13860,"brane":13861,"Ġjuris":13862,"ĠBrooklyn":13863,"ĠSnow":13864,"Ġcir":13865,"ĠBio":13866,"Ġexpanding":13867,"Ġgall":13868,"uru":13869,"Ġangular":13870,"Runtime":13871,"itutes":13872,"Multi":13873,"ĠDragon":13874,"Ġrepresentatives":13875,"graduate":13876,"hentication":13877,"ĠDak":13878,"written":13879,"Ġpredictions":13880,"ĠHTTP":13881,"Pal":13882,"tail":13883,"Role":13884,"Ġmerc":13885,"asis":13886,"ĠTaiwan":13887,"aligned":13888,"ĠPalace":13889,"Ġlawsuit":13890,"Ġcurrency":13891,"ĠDouglas":13892,"ĠCreative":13893,"Nodes":13894,"rake":13895,"Area":13896,"Ġchest":13897,"ĠTrad":13898,"Func":13899,"Generator":13900,"ewidth":13901,"Ġstellar":13902,"uters":13903,"ĠUtah":13904,")}(":13905,"ective":13906,"Ġdifficulty":13907,"Ġelectrical":13908,"Ġbread":13909,"mask":13910,"ĠSteven":13911,"plicity":13912,"Ġhier":13913,"execute":13914,"!!!":13915,"eto":13916,"ACH":13917,"Air":13918,"Ġastr":13919,"Ann":13920,"Ġkernel":13921,"ĠGas":13922,"Ġconstraint":13923,"Est":13924,"Ġpermitted":13925,"Ġemotion":13926,"ĠEnc":13927,"('.":13928,"assandra":13929,"BT":13930,"backs":13931,"sample":13932,"Props":13933,"bie":13934,"ĠGuy":13935,"Ġcompan":13936,"rowse":13937,"Ġhorses":13938,"ĠProfessional":13939,"ĠFem":13940,"represent":13941,"Ġartificial":13942,"Ġconnecting":13943,"fx":13944,"ĠWard":13945,"ĠPoll":13946,"erious":13947,"ĠStrateg":13948,"Ġsummar":13949,"ĠLang":13950,"ĠAgreement":13951,"sys":13952,"Ġrobot":13953,"marks":13954,"Ġspeaks":13955,"Ġruled":13956,"instein":13957,"Sem":13958,"\\!\\!":13959,"ÑģÑĤ":13960,"ĠGO":13961,"ĠSolutions":13962,"1955":13963,"imental":13964,"ĠWW":13965,"tbody":13966,"China":13967,"Ġholes":13968,"oustic":13969,"ĠColon":13970,"uli":13971,"Ġgathered":13972,"Ġjew":13973,"setminus":13974,"()</":13975,"Ġeveryday":13976,"ĠParent":13977,"Ġcited":13978,"Ġdollar":13979,"Ġ\"-":13980,"Cross":13981,"available":13982,"Variable":13983,"Ġflowers":13984,"Ġimplications":13985,"acular":13986,"Japan":13987,"cline":13988,"fd":13989,"ĠClinical":13990,"PI":13991,"Ġmanufacturers":13992,"oft":13993,"story":13994,"Ġcampaigns":13995,"1942":13996,"ashi":13997,"BER":13998,"ĠAnc":13999,"ĠRs":14000,"ĠME":14001,"ĠChallenge":14002,"Ġfrequent":14003,"Ġmaintaining":14004,"Ġprecision":14005,"Domain":14006,"ĠAltern":14007,"ĠSpot":14008,"ĠAdditionally":14009,"-(":14010,"{%":14011,"ĠAddress":14012,"ĠCampaign":14013,"Ġinfinite":14014,"Ġtrem":14015,"Ġinfluenced":14016,"Ġhill":14017,"Ġbundle":14018,"uates":14019,"ĠMagn":14020,"Prefix":14021,"pattern":14022,"BY":14023,"Ġdetermination":14024,"ĠYan":14025,"ĠVancouver":14026,"ĠMethods":14027,"owned":14028,"proxy":14029,"Ġsuicide":14030,"Ġsectors":14031,"xhtml":14032,"Ġdefence":14033,"ĠRules":14034,"fare":14035,"ĠNash":14036,"Selection":14037,"Ġvenue":14038,"Div":14039,"isan":14040,"oxy":14041,"Ġgravity":14042,"QUE":14043,"Progress":14044,"Admin":14045,"1947":14046,"Ġphotographer":14047,"Ġexpressions":14048,"Ġspoken":14049,"}}_{":14050,"Ġpromoting":14051,"ĠNelson":14052,"Ġborrow":14053,"lee":14054,"ĠPlaces":14055,"Ġranging":14056,"Ġcertificate":14057,"Ġreportedly":14058,"ĠHarvard":14059,"terior":14060,"ĠKir":14061,"Ġsupplement":14062,"izard":14063,"walk":14064,"sychiat":14065,"ĠCorp":14066,"ĠUrban":14067,"Ġgraduated":14068,"Ġdiam":14069,"âĢĿ)":14070,"ĠClassic":14071,"ALSE":14072,"omorphism":14073,"Ġsurfaces":14074,"Ġiconic":14075,"oning":14076,"ĠPolish":14077,"swarm":14078,"ĠMagic":14079,"assembly":14080,"'}":14081,"heim":14082,"ivities":14083,"ÛĮ":14084,"Ġru":14085,"Ġattitude":14086,"ĠCarter":14087,"ĠBart":14088,"acteria":14089,"alia":14090,"Ġvibr":14091,"Week":14092,"TRY":14093,"junit":14094,"ĠĠĠĠĠĠĠĠĠĠĠĠĠĠĠĠĠĠĠĠĠĠĠĠĠĠ":14095,"%%%%":14096,"Ġexploring":14097,"Robert":14098,"Resources":14099,"svg":14100,"Cur":14101,"Ġslot":14102,"rative":14103,"Ġ$$":14104,"Transport":14105,"Ġneutr":14106,"Ġcontrad":14107,"ĠFeature":14108,"Ġspeakers":14109,"ĠUnfortunately":14110,"ĠTheory":14111,"simple":14112,"ĠEmploy":14113,"Ġdial":14114,"á»":14115,"Ġpatent":14116,"Ġattractive":14117,"glyph":14118,"Ġadjacent":14119,"Begin":14120,"ĠSony":14121,"ĠMoscow":14122,"Ã¡n":14123,"Ġspectra":14124,"ĠHunter":14125,"ĠKids":14126,"lon":14127,"ĠPodcast":14128,"Ġagricultural":14129,"Ġclothing":14130,"Ġblame":14131,"ĠBou":14132,"ĠHR":14133,"Notification":14134,"Ġtx":14135,"CTYPE":14136,"live":14137,"Ġ+\\":14138,"Ġenemies":14139,"ymmetric":14140,"ĠMail":14141,"ĠSwedish":14142,"War":14143,"via":14144,"Ġsaving":14145,"uclear":14146,"thon":14147,"ĠSteel":14148,"ĠStrategy":14149,"Ġcorruption":14150,"Ġlying":14151,"ĠIndonesia":14152,"Ġclassified":14153,"Expl":14154,"Vertex":14155,"progress":14156,"storage":14157,"Ġcompensation":14158,"Ġdescript":14159,"esting":14160,"Ġconsisting":14161,"ĠAntonio":14162,"once":14163,"ĠInnovation":14164,"ĠNat":14165,"orious":14166,"Ġsubstance":14167,"ĠMuslims":14168,"Social":14169,"hero":14170,"Audio":14171,"ĠIan":14172,"Ġgram":14173,"Ġexports":14174,"pletion":14175,"Ġcelebrated":14176,"Ġrally":14177,"ĠLawrence":14178,"Ġromance":14179,"Ġadminister":14180,"tests":14181,"mouth":14182,"Ġhired":14183,"Ġpetition":14184,"'_":14185,">::":14186,"Ġbriefly":14187,"ĠMetro":14188,"piece":14189,"leans":14190,")->":14191,"1918":14192,"Border":14193,"Ġassociate":14194,"ĠCos":14195,"prof":14196,"wildfly":14197,"Ġ],":14198,"Ġphotographs":14199,"Effect":14200,"Ġasympt":14201,"Light":14202,"ONG":14203,"istically":14204,"Ġrecruit":14205,"Ġjournalists":14206,"resources":14207,"Ġinvestments":14208,"ĠJustin":14209,"leading":14210,"pread":14211,"otherapy":14212,"ĠRT":14213,"ĠWright":14214,"compiler":14215,"1900":14216,"ĠReserve":14217,"ĠContract":14218,"Ġsuggesting":14219,"Hub":14220,"jamin":14221,"Elect":14222,"ĠKeep":14223,"hers":14224,"username":14225,"ĠLOG":14226,"Ġprecise":14227,"plane":14228,"Bro":14229,"Ġsearching":14230,"Ġtemp":14231,"Ġroutine":14232,"Ġcritics":14233,"Ġmanufacturer":14234,"ĠBrig":14235,"ĠPlatform":14236,"ĠSide":14237,"ĠMorris":14238,"Ġparad":14239,"Ġpublish":14240,"Ġprovisions":14241,"Ġlogger":14242,"Ġsons":14243,"ĠSuccess":14244,"selling":14245,"1941":14246,"Ġemerged":14247,"Ġmountains":14248,"shared":14249,"Ġhal":14250,"Ġmood":14251,"ĠTarget":14252,"ĠGill":14253,"ĠKind":14254,"Ġpackages":14255,"ĠPatri":14256,"Ġaffordable":14257,"pler":14258,"Ġaccompanied":14259,"Ġchrom":14260,"ĠMachine":14261,"Ġseparation":14262,"Ġvariations":14263,"Ġmodify":14264,"heart":14265,"sto":14266,"Ġfemales":14267,"ĠDoc":14268,"Cert":14269,"etics":14270,"Ġreserve":14271,"Organ":14272,"Ġsecretary":14273,"ĠGov":14274,"Ġhydrogen":14275,"Ġmic":14276,"reach":14277,"Ġensuring":14278,"Ġboxes":14279,"pection":14280,"OUT":14281,"=#":14282,"Ġthro":14283,"acles":14284,"ĠVeter":14285,"ĠVar":14286,"Ġspots":14287,"Ġlighting":14288,"team":14289,"Ġclaiming":14290,"ĠRoger":14291,"ĠMos":14292,"town":14293,"ĠCould":14294,"ĠCrow":14295,"Ġgonna":14296,"ĠSett":14297,"apters":14298,"Foot":14299,"Ġ\"<":14300,"Both":14301,"UCT":14302,"Ġflows":14303,"Ġorientation":14304,"factory":14305,"Ġfiber":14306,"borough":14307,".:":14308,"ĠVari":14309,"Ġprocessed":14310,"Ïģ":14311,"Ġsust":14312,"ĠNep":14313,"buck":14314,"ĠBrun":14315,"general":14316,"Ġentities":14317,"Ġinitiatives":14318,"ĠVent":14319,"Ġdescribing":14320,"×Ļ×":14321,"ĠNi":14322,"ĠWang":14323,"Ġmath":14324,"origin":14325,"indexOf":14326,"texttt":14327,"ĠTower":14328,"ĠTitle":14329,"Ġwarned":14330,"ĠStudios":14331,"Ġliv":14332,"ĠAlber":14333,"=\"$":14334,"Ġnut":14335,"Ġgrants":14336,"ĠTogether":14337,"Tele":14338,"1954":14339,")[":14340,"Ġmart":14341,"Ġshops":14342,"enable":14343,"Ġgraphics":14344,"$^{-":14345,"Ġsynchron":14346,"Ġplugin":14347,"ictures":14348,"EV":14349,"ĠTam":14350,"Ġnobody":14351,"Ġduties":14352,"ĠJen":14353,"Ġmuscle":14354,"Ġscream":14355,"sburgh":14356,"1953":14357,"itations":14358,"Ġctx":14359,"ĠIOException":14360,"Ġdescent":14361,"Ġpreval":14362,"Ġjail":14363,"ĠIce":14364,"iti":14365,"ĠTs":14366,"Ġphones":14367,"Ġactivation":14368,"1943":14369,"ĠWrite":14370,"Ġrhyth":14371,"subseteq":14372,"Ġmirror":14373,"Ġveteran":14374,"breaking":14375,"Ġmigration":14376,"Ġhaz":14377,"colon":14378,"mount":14379,"Ġdelivering":14380,"diff":14381,"ĠRub":14382,"inge":14383,"ĠOperations":14384,"hist":14385,"igrant":14386,"&=&":14387,"Ġbug":14388,"ĠPortland":14389,"ĠCNN":14390,"ĠEmail":14391,"Ġvertices":14392,"Ġovercome":14393,"ĠWalter":14394,"1946":14395,"wealth":14396,"ĠCommons":14397,"ĠMarshall":14398,"bp":14399,"visible":14400,"ĠJunior":14401,"Ġoperates":14402,"Ġlogo":14403,"USA":14404,"zes":14405,"ĠBody":14406,"ĠIde":14407,"Ġbrut":14408,"Ġflexible":14409,"ĠSL":14410,"Ġstunning":14411,"Ġoral":14412,"tures":14413,"Ġsizeof":14414,"Ġabroad":14415,"utenant":14416,"ĠProposition":14417,"Ġpreparing":14418,"Ġlets":14419,"Ġmeal":14420,"ĠPap":14421,"ĠLanc":14422,"Ġ[\"":14423,"Ġtourism":14424,"GM":14425,"ĠBes":14426,"Ġmainstream":14427,"stock":14428,"Ġshipping":14429,"atile":14430,"1952":14431,"Den":14432,"ĠCraig":14433,"trace":14434,"Share":14435,"ĠAgainst":14436,"\"=>\"":14437,"ĠClient":14438,"RESS":14439,"signature":14440,"raction":14441,"circle":14442,"ationally":14443,"olt":14444,"Ġbreakfast":14445,"Framework":14446,"ĠTelevision":14447,"Ġcelebration":14448,"Ġtemple":14449,"Ġinteractive":14450,"cipl":14451,"ĠStage":14452,"respons":14453,"jack":14454,";\">":14455,"),\\":14456,"Ġlucky":14457,"bullet":14458,"conduct":14459,"chnology":14460,"tha":14461,"Wait":14462,"Ġdisplays":14463,"rass":14464,"ĠHim":14465,"STATE":14466,"Ġdominated":14467,"Ġsubset":14468,"Ġexamination":14469,"Texture":14470,"tc":14471,"Ġasc":14472,"Ġplasma":14473,"Ġshoulder":14474,"kh":14475,"ĠWorth":14476,"Ġpartially":14477,"kee":14478,"ĠGot":14479,"AMP":14480,"ĠProduction":14481,"Ġperm":14482,"ĠBaker":14483,"Ġregarded":14484,"ĠAle":14485,"parency":14486,"ĠChron":14487,"Ġexhibit":14488,"Ġcasual":14489,"ĠSpect":14490,"Ġphotography":14491,"irts":14492,"ublisher":14493,"Ġcoupled":14494,"Ġpounds":14495,"Ġempower":14496,"warning":14497,"Ġmild":14498,"ĠStre":14499,"ĠFiction":14500,"Pers":14501,"Ġcultures":14502,"Ġ'<":14503,"Ġcharacterized":14504,"ographical":14505,"omal":14506,"Ġintegrity":14507,"ÅĤ":14508,"ulu":14509,"Ġtrailer":14510,"temp":14511,"iw":14512,"ĠMovies":14513,"brand":14514,"iliation":14515,"sha":14516,"Ġmales":14517,"Ġaudiences":14518,"Ġheaders":14519,"umar":14520,"Ġpossession":14521,"ĠHistorical":14522,"ogeneous":14523,"Ġunem":14524,"Take":14525,"ĠDisease":14526,"Ġethnic":14527,"Ġfold":14528,"extern":14529,"ĠThailand":14530,"ĠBaseball":14531,"Ġpuzz":14532,"POST":14533,"Ġdeliber":14534,"abe":14535,"ĠLot":14536,"Ġcommunicate":14537,"Bean":14538,"109":14539,"Ġunve":14540,"Registry":14541,"Ġsurviv":14542,"ĠTurkish":14543,"ĠFreedom":14544,"Ġthreatened":14545,"anim":14546,"Ġdeput":14547,"Ġreset":14548,"hematical":14549,"ifdef":14550,"Ġsurrounded":14551,"protocol":14552,"Ġchances":14553,"operative":14554,"amy":14555,"Ġmeaningful":14556,"URI":14557,"perp":14558,"athon":14559,"ĠAdvert":14560,"Ġradical":14561,"opter":14562,"ĠRobinson":14563,"Ġmarine":14564,"Ġclosure":14565,"Ġintersection":14566,"Ġcrown":14567,"ĠBoys":14568,"ANS":14569,"('/":14570,"idespread":14571,"ĠFast":14572,"Ġtags":14573,"ĠNothing":14574,"ĠBos":14575,"Person":14576,"...</":14577,"Ġlifestyle":14578,"Law":14579,"ĠHttp":14580,
[...]
