#version: 0.2
Ġ Ġ
Ġ t
i n
Ġ a
h e
o n
e r
r e
a t
Ġt he
ĠĠ ĠĠ
e n
Ġ s
o r
i t
e s
a n
i s
Ġ o
a l
Ġ c
Ġ w
a r
e d
Ġ f
in g
Ġ p
n d
i on
Ġ b
Ġo f
Ġ in
i c
o u
l e
a s
Ġ m
Ġa nd
Ġt o
Ġ d
r o
en t
c t
Ġ h
e t
e l
Ġt h
i l
s t
o m
Ġ re
â Ģ
Ġ n
Ġ S
a m
ĠĠ Ġ
Ġ T
Ġ l
i d
Ġ e
ĠĠĠĠ ĠĠĠĠ
i g
o l
at ion
Ġ C
i m
Ġ A
o t
a c
u t
u r
v e
Ġ (
Ġ is
Ġ g
a d
Ġ I
s e
Ġf or
l y
o w
v er
a y
Ġ \
Ġ M
Ġ on
c e
Ġb e
Ġ $
u l
Ġs t
c h
Ġ P
u s
it h
i r
Ġth at
t er
Ġ B
u n
i f
a g
o d
e m
2 0
a b
u m
Ġw ith
Ġa s
Ġc on
r i
Ġ D
Ġ R
he r
Ġ H
q u
at e
a p
t h
Ġ F
es t
is t
Ġa n
âĢ Ļ
Ġa l
er s
Ġ v
Ġp ro
Ġ W
Ġ it
p e
an d
Ġ L
Ġw h
h t
ĠĠĠĠ ĠĠĠ
Ġ y
ĠT he
re s
Ġ N
o c
o p
e w
es s
Ġ =
a in
en d
Ġ G
il l
Ġ E
it y
ct ion
o s
Ġc om
Ġa t
Ġ r
Ġd e
i v
Ġb y
ou r
o re
Ġw as
ro m
Ġe x
Ġ he
or t
Ġa re
{ \
m ent
u p
a k
ar t
Ġ or
l d
u b
i es
e x
an t
ĉ ĉ
ig ht
Ġs e
Ġ âĢ
Ġ J
Ġf rom
u re
p l
Ġ O
i ve
al l
Ġ <
) ;
Ġw e
p t
in e
n t
as s
u d
1 9
i al
Ġth is
- -
č Ċ
at h
a ve
am e
r a
= "
u st
o g
Ġ {
e g
u e
g e
e ct
Ġn ot
Ġs h
T he
ag e
Ġc h
ac k
ar d
Ġ &
Ġc l
i z
Ġ "
/ /
Ġ U
el l
r ou
b er
_ {
p ort
an s
c l
f f
Ġ le
p er
ul t
< /
ou t
. .
0 0
Ġh ave
o st
Ġ k
a re
ic h
as t
Ġt r
ĠĠĠĠĠĠĠĠ ĠĠĠ
at ed
i p
Ġ *
or m
it e
ar y
ic al
Ġy ou
a v
20 1
o k
' s
Ġ$ \
ab le
ou ld
Ġp l
ĠS t
e ar
i a
Ġ K
ex t
or k
on g
i re
ĠI n
Ġc an
Ġh as
Ġa b
âĢ Ŀ
id e
c on
it ion
or d
ic e
in d
Ġre s
Ġ }
Ġcom p
e p
c om
ig n
ac e
en ce
Ġ Ċ
Ġal l
Ġ j
Ġw he
im e
m ath
Ġcon t
in t
t her
Ġ us
a ct
ation s
as e
Ġ -
re f
Ġin t
ur n
c c
e f
en s
Ġ V
Ġa d
ou s
Ġh is
i b
an g
Ġ u
Ġwh ich
an ce
p h
Ġ im
Ġ un
i k
Ġw ill
Ġ if
r y
p ro
) ,
ion s
d u
g h
) .
i le
Ġa p
ĠĠĠĠĠĠĠĠ ĠĠĠĠĠĠĠĠ
er e
om e
s o
f t
f orm
Ġb ut
ĠT h
m a
on e
} \
r u
Ġ en
il d
Ġthe ir
" >
Ġd o
a u
ĠâĢ ľ
} $
Ġg o
Ġo ut
Ġm e
ac h
er v
ĠC h
ent s
Ġa r
^ {
or y
I n
ĠĠĠĠ Ġ
Ġon e
ou nt
e c
* *
res s
Ġn ew
Ġ up
al ly
i an
o ok
o b
f er
r ing
o v
Ġs u
Ġthe y
ub l
g et
Ġwh o
i e
a il
Ġm ore
l l
ow n
Ġp er
ou nd
1 0
ar k
Ġd is
ver s
or s
Ġw ere
el y
f r
Ġp art
j ect
ro w
t urn
re e
at a
ak e
Ġs c
Ġe v
Ġ Y
Ġal so
od e
o se
S t
Ġcl ass
y pe
m er
ol l
ver y
s p
v el
e y
Ġs p
Ġm an
ir st
Ġo ther
is h
20 0
Ġ qu
} }
Ġs o
Ġ '
ic t
p s
en c
Ġin ter
Ġit s
at es
ol d
( \
Ġa g
Ġw ork
ay s
cl ud
Ġab out
on t
-- --
p le
Ġbe en
in k
oc k
w o
ic k
eg in
ri b
( )
Ġy ear
t e
r it
Ġs a
er t
Ġn e
Ġp re
ubl ic
Ġ her
= =
Ġo ver
b egin
Ġh ad
o ve
nd er
he d
s s
w e
ĠI t
ik e
pe ct
Ġt ime
Ġo ur
e qu
i ew
l i
Ġ [
ic s
Ġt e
ing s
un ction
en er
f ter
er m
t he
y st
u al
an c
re at
c al
et h
Ġan y
el f
o ol
t r
) $
a w
Ġwhe n
Ġf irst
le ct
n g
_ {\
on d
Ġth an
t ext
Ġp e
Ġthe re
ĠH e
on s
c k
Ġw ould
is s
Ġre turn
o ver
r ap
pe c
o int
Ġre c
n e
ĠâĢ ĵ
ul l
Ġg et
ĠU n
Ġ ro
Ġo b
1 8
al ue
r ight
op le
Ġin d
i el
ig h
ation al
Ġ +
Ġs ome
ab el
Ġint o
Ġ |
Ġs up
o y
Ġt wo
ĠĠĠĠĠĠĠĠ ĠĠĠĠĠĠĠ
Ġd es
Ġcom m
Ġm od
t a
} {
Ġs et
} ,
1 2
Ġas s
at er
Ġof f
Ġk n
Ġde f
ar i
iz e
l es
r am
f ig
ter n
yst em
Ġthe m
Ġb et
c re
e v
ad e
Ġa cc
Ġcon s
s h
iel d
if ic
ĠW e
Ġon ly
i ed
ul ar
i x
p os
Ġy our
Ġsa id
r m
l ine
ol og
Ġ //
fr ac
p ar
Ġn o
pt ion
t y
n ing
it ies
is e
Ġre g
our ce
in al
rou nd
s c
Ġs he
id ent
Ġin clud
Ġu nder
e q
ĠC om
Ġpe ople
c ite
l o
as ed
at ive
- >
Ġs ub
ĠTh is
ut ion
Ġd if
Ġl ike
Ġa ct
h at
y s
Ġad d
Ġwhe re
Ġ /
u g
Ġf e
ment s
ri v
at ing
a x
1 1
p ut
Ġpro v
or ld
m b
ot h
Ġre l
Ġf unction
Ġwh at
re d
an ge
" ,
rou gh
Ġ @
Ġtr ans
ĠN ew
ap p
al s
Ġo p
Ġa fter
oll ow
il ity
p r
: :
Ġp ublic
l abel
i ent
Ġin v
r ay
im es
um ber
Ġpl ay
s et
i o
w ard
Ġsu ch
ar ch
Ġat t
Ġp os
i ous
Ġm ay
u es
au se
it ed
t t
Ġj ust
ĠP ro
Ġh ow
1 5
math b
ĉĉ ĉĉ
Ġp h
t o
Ġ< /
Ġm y
ow er
ou gh
Ġm ost
Ġst ud
u res
Ġp ol
an k
Ġcon st
u nd
ĠS e
Ġa m
Ġthe se
ar g
Ġa c
w n
2 1
res ent
Ġc ol
l and
ic es
ib le
ur ing
Ġthe n
Ġsh ow
Ġb l
it s
Ġu se
T h
$ ,
Ġth rough
Ġfor m
rou p
E x
Ġre m
1 6
rap h
Ġres ult
Ġb ack
c ed
Ġp r
Ġbe c
, \
or n
Ġc o
$ .
o od
d er
it t
Ġd ata
Ġ end
we en
Ġb u
.. /
et a
i vers
e k
ra ct
il y
E R
ĠA r
le ft
Ġf ollow
re n
o f
er r
Ġ .
f ul
equ ation
as h
o x
le t
Ġf l
an n
in ce
Ġdif fer
Ġpro du
am p
ru ct
} )
a ir
am b
at ch
} .
ar s
. âĢĿ
Ġn ame
Ġyear s
math cal
em ent
Ġe ff
Ġh im
ire ct
he n
Ġw ell
an y
Ġne ed
c ent
.. .
Ġin st
Ġ ent
en g
Ġbet ween
Ġl oc
if e
mer ic
he s
: //
at or
3 0
am es
19 9
id er
c ess
âĢ ľ
Ġd ist
Ġre qu
Ġs pec
ou n
ut h
Ġc ould
ĠA l
Ġg ener
Ġs im
t s
( "
vel op
in es
con d
( );
Ġd et
Ġc all
is m
W e
ess age
Ġus ed
e ad
b le
m l
ch ool
Ġs ystem
at ure
Ġs erv
1 4
ction s
em ber
Ġ :
ist s
d ay
Ġf il
1 7
I N
Ġc ur
t on
re nt
in s
ot her
u ch
} (
Ġs m
ĠT r
ĠS h
' ,
o id
at ic
ers on
el s
ut e
1 3
Ġag ain
Ġn ow
O N
} ^
ĠA n
in ed
re ad
pl ic
m an
---- ----
ĠD e
form ation
Ġc or
o ot
al th
eth od
~ \
Ġe very
as on
} _
Ġex t
Ġkn ow
g an
w w
2 5
a h
oc i
P ro
Ġe m
Ġman y
l ed
r al
t ain
Ġs ur
n er
ag es
ĠF or
ak ing
iz ed
Ġsh ould
Ġg r
ph a
Ġ i
r ic
** **
e ver
v ent
Ġp oint
Ġe ach
m in
y n
Ġs ign
Ġst r
h ip
Ġr ight
p on
us s
Ġbe ing
o h
Ġp ar
m s
d iv
Ġl ine
Ġh igh
is ion
ĠA meric
20 20
er n
al e
d a
ĠC l
Ġch ar
t ing
Ġc ount
Ġ* /
Ġse e
i ence
âĢ ĵ
Ġ Q
Ġbec ause
Ġv alue
' t
Ġl ong
Ġev en
iv es
00 0
enc es
Ġs er
al pha
Ġd id
i er
Ġm ake
. ,
Ġ el
Ġn umber
ĠA nd
Ġex per
f l
Ġst art
f ore
Ġde c
Ġ #
R E
> </
st r
s ub
) )
Ġc ase
_ _
ant s
ot e
Ġhe l
sp an
is hed
g y
Ġar t
Ġ very
w ay
Ġ ed
ot s
Ġe qu
Ġm in
t en
v iew
Ġw ay
Ġs ame
olog y
Ġle ad
Ġm on
Ġ Z
Ġo wn
Ġap pro
in ess
ical ly
ivers ity
et s
p ress
Ġw orld
Ġdiffer ent
Ġdo es
ou se
c es
Ġb el
er y
el ta
C h
Ġb oth
ĠS c
a z
at her
Ġwh ile
Ġg u
e b
S T
I t
e le
Ġde velop
ĠA s
Ġt ype
, âĢĿ
Ġf ound
Ġbe fore
Ġm ade
Ġl ook
g ram
Ġf am
u c
ĠI nd
Ġth ose
) \
s on
A T
Ġdis c
d ef
Ġre ad
as k
== ==
iz ation
5 0
ĠĠĠĠĠĠĠĠ Ġ
ĠE x
Ġsup port
Ġc re
ch n
Ġs ol
al k
ĉĉ ĉ
I D
ro ss
Ġc ent
amb da
ĠĠĠĠĠĠĠĠ ĠĠĠĠĠĠĠĠĠĠĠ
as es
Ġv ari
p art
ĠA d
Ġm ed
s um
Ġre p
or th
Ġst ate
Ġe ar
> <
Ġo per
ter s
th is
e e
ire d
iv en
ce pt
Ġpart ic
Ġe le
id th
g ht
Ġt est
ri pt
Ġ\ \
y m
Ġth ree
h o
Ġ est
2 2
c ol
it al
m ber
Ġl ast
Ġv al
w ork
am ma
Ġf act
../ ../
am ple
us iness
( '
Ġus ing
are d
Ġf in
Ġm uch
A R
ĠC on
Ġd uring
at t
Ġf ind
a j
$ \
u ally
n ess
ht t
_ \
m u
f or
ur al
C on
od y
he re
ap t
en se
2 4
enc y
um ent
C om
ht ml
Ġhel p
Ġth ink
Ġs elf
= \
Ġgo od
Ġd own
Ġh and
al ity
r on
Ġcomm un
ĠI s
y p
Ġcont in
l ation
par am
Ġhe re
Ġin formation
b y
Ġper form
ig ma
ĠY ou
N ame
b ar
ent ial
Ġse cond
ion al
c o
Ġa v
et er
eg a
Ġw ant
Ġap p
. "
âĢ ¦
Ġb r
b ers
tr ans
ĠâĢ ĺ
Ġre port
Ġeff ect
ro l
Th is
Ġ x
b r
Ġmod el
O R
Ġin cre
Ġd on
} ^{
Ġc ar
n ame
Ġte am
C ont
Ġ| |
19 8
T ype
p i
Ġg l
Ġpro cess
s elf
mathb b
ain s
} _{
Ġm at
ĠF r
Ġd irect
o le
Ġn on
Ġl ist
ak es
al se
he ck
if ied
i ver
ĠâĢ Ķ
iss ion
b f
or g
com e
Ġor der
cc ess
ĠC ol
v al
Ġm em
v ed
Ġr un
Ġt erm
Ġg reat
m ed
s ource
E N
Ġs l
re am
Ġp erson
Ġh ref
b s
le ar
Ġw rit
Ġst ill
ĠI f
Ġt ake
Ġm ark
A L
ĠR es
# #
a ult
im port
St ring
y le
ĠP h
ou th
Ġim port
ĠB ut
ĠB l
se ction
ĠCom m
ĠP l
an e
et y
Ġch ild
Ġcons ider
- \
ition s
Ġinclud ing
I d
m e
2 3
C l
ĠR e
ĠUn iversity
Ġ X
it em
ce ption
in a
Ġre le
m essage
ar m
Ġl ife
ĠS p
iv ely
R es
Ġc our
Ġf ield
i qu
Ġs ince
ot t
Ġprov id
ph i
re turn
Ġm ain
us ic
v en
if y
b ack
ad d
Ġs ing
is ter
Ġa round
n ment
ab ility
ain ing
b l
uth or
ur y
Ġp at
Ġgo ver
ver t
Ġsm all
ĠO n
Ġcur rent
Ġb ook
ir c
Ġ {\
om en
^ {\
Ġst at
Ġm ethod
it le
Ġv is
ĠS he
Ġdes c
Ġre al
ĠH ow
) :
Ġp ass
Ġagain st
Ġp res
ro p
Ġop en
Ġs om
p or
oh n
20 19
Ġg iven
ill ion
Ġto p
al ign
c ur
r ation
4 0
ab l
d d
are nt
l ambda
Ġbu ild
riv ate
Ġfollow ing
A N
Ġpos s
l ess
n ot
v ar
t d
ord s
Ġ `
A S
ul ation
Ġc are
Ġin s
Ġs ay
Ġwe ek
ist ory
A r
Ġex pl
m od
Ġp op
Ġs chool
mathb f
ar n
Ġl aw
Ġ !
g er
ac y
c ode
Ġb est
Ġd ay
Ġg roup
Ġpro gram
i or
o ber
p re
s er
Ġpro per
ep s
ĠM ar
r is
ar get
v ious
um p
L E
Ġall ow
Ġp ost
ar ge
T o
Ġtr ue
pl oy
1 00
iv ing
Ġm ust
et work
ĠM ay
Ġp resent
ĠW h
b e
v es
cl ass
er ing
ĠA ll
g g
201 8
Ġt ra
Ġp ower
f o
ĠJ an
t ype
en n
A s
r ist
Ġap pe
end s
Ġst and
F or
eng th
le x
Ġ err
iv ed
Ġis s
un e
s y
t il
Ġm ov
ĠU S
Ġ= >
u ro
Ġdes ign
Ġte chn
Ġan al
Ġex pect
Ġ >
Ġ _
oc ial
Ġle vel
2 6
Ġg ame
Ġ --
u se
Ġm et
os s
ĠL e
rib ut
u le
Ġo pt
Ġhe ad
o ard
ir d
T r
Ġf r
19 7
es c
âĢ Ķ
/ >
le y
Ġb usiness
ĠE ng
2 7
Ġre f
ĠAmeric an
ac he
ĠO r
ĠThe y
il on
201 7
Ġcon d
Ġd el
Ġre ce
Ġb re
B y
Ġchar act
ord ing
our n
2 8
av ing
Ġloc al
Ġpro f
Ġ z
Ġf our
Ġinter est
Ġf inal
ct or
is ed
at ely
s igma
ang le
Ġpro ble
A n
Ġinv est
Ġpro t
c d
b eta
ra w
Ġ( \
Ġad v
re en
Ġpl ace
20 21
ri es
6 0
Ġd em
ild e
b all
pon se
Ġan n
ect ed
Ġn ext
r ad
um an
le ction
201 6
or ies
s erv
pl ay
ff ic
Ġor ig
Ġel se
ro ll
ĠUn ited
w ays
ert ain
Ġp ur
vers ion
Ġm ult
it ive
I T
ĠC ent
Ġor gan
Ġs ays
L ist
Ġle g
Ġwith out
n ew
Ġn ull
um n
in ation
ac es
" />
ar ray
Ġ )
us h
ail able
Ġk e
i um
Ġpro ject
ial ly
Ġfam ily
Ġc ap
Ġv ar
Ġ= =
Ġhe alth
} {\
a im
Ġh ome
Ġgo ing
Ġpar am
Ġan other
o pe
Ġde p
Ġresult s
\ \
^{ -
f ace
201 5
ent ly
con om
Ġe lect
ĠT o
p ond
Ġre se
Ġbe h
re g
2 9
w idth
ĠM an
Ġv oid
ir on
E S
Ġwith in
ĠJ ohn
Ġob ject
at s
Ġk ey
Ġl im
Ġs k
O n
l er
Ġle t
com m
Ġre ally
u ck
ain ed
Ġmon th
Ġex p
Ġ ident
A C
st and
ic le
ĠB e
ate g
iv id
Ġb ased
en e
Ġs pe
R ef
f e
in c
og raph
Ġf ew
Ġle ft
g amma
con t
op t
fig ure
ou ght
Ġt ri
u ff
Ġme as
Ġse ver
ĠA p
ur ther
um er
* }
+ \
math rm
re m
3 2
l oc
Ġev ent
Ã ©
p m
Ġb ro
ag n
u ly
u ary
trans lation
ition al
il ar
Ġv iew
Ġc r
ob al
a i
id d
ĠĠĠĠĠĠĠĠĠĠĠĠĠĠĠĠ ĠĠĠĠĠĠĠĠĠĠĠĠĠĠĠĠ
Ġo ld
u ild
ĠC an
aj or
Ġrep resent
Ġ Â
201 4
Ġst ruct
i ents
Ġcall ed
in clud
ep end
Ġinter n
Ġto o
Ġh app
re qu
Ġg row
Ġoff ic
as ter
Ġin it
ĠA ss
] {
Ġh tt
I C
Ġ ve
Ġch ang
lo ad
ap e
ĠT e
o ad
Ġf alse
it or
t ime
ĠC ar
Ġcomp any
^ \
Ġt urn
ic y
Ġqu est
Ġd i
ust om
Ġt em
ight s
Ġl ink
end ed
Ġgover nment
p ed
U n
ent ion
itt le
k ey
r or
) }
l ing
d elta
Ġl arge
st ring
Ġp rivate
ĠP ol
Ġar g
Ġkn own
Ġman ag
um e
ĠM ed
the ta
Ġ et
r ho
if t
un c
ww w
Ġo cc
ĠA t
he ad
3 3
Ġn ear
d ate
P h
se c
ĠThe re
Ġa ff
Ġen er
ol ution
Ġch ange
y ing
Ġw in
i od
Ġpol it
he m
**** ****
w are
ar row
Ġfil m
a ction
ĠO ct
Ġimport ant
Ġres pect
oc us
l og
t au
u k
Ġl ess
Ġprodu ct
E D
Ġav ailable
ĠN o
anc es
b ject
Ġen g
im ate
ĠĠĠĠ ĠĠ
our ces
Ġsp ace
Ġa ut
w it
Ġst ring
Ġp ut
ĠC ount
av a
Ġser ies
ĠY ork
Ġb ig
pos ed
Ġm usic
ific ation
Ġne ver
ĠC O
du ct
Ġf ull
201 3
S h
) );
A M
$ -
d ata
ang u
v iron
iv ity
le q
Ġde v
Ġbet ter
"> <
ward s
Ġcon f
i ans
Ġl ater
-------- --------
Ġsu ccess
Ġ ide
os p
ap s
Ġre fer
ĠSt ates
Ġex ample
it er
ut ure
th ing
Ġpl an
ord er
ĠA ug
op y
E C
Ġal ong
al es
ĠN ational
ab ly
ĠF l
s ide
ĠW orld
Ġacc ess
ĠP r
A l
at ors
eth ing
ri x
}$ ,
ĠC o
H e
w here
Ġse ason
em s
ide o
Ġme an
4 5
oc ument
end ing
and s
Ġcount ry
Ġb as
Ġdesc rib
is ing
Ġpartic ular
iv al
Ġm ight
g in
ĠA pr
a ut
our s
f ield
ap er
g round
ĠJan uary
}$ .
t imes
.. ..
I S
Ġcom e
uro pe
201 2
Ġre st
Ġst ory
tern al
R O
ĠCh rist
qu ad
g o
Ġare a
Ġf ac
Ġd ue
} (\
Ġm ass
b ig
Ġap plic
Ġal ways
Ġm ove
ĠSt ate
8 0
ict ion
Ġf ree
Ġim p
C ol
Ġre t
eq ref
a ff
Ġserv ice
ore d
D ata
Ġas k
ĠS o
Ġun til
Ġe as
6 4
ro du
is k
ĠG u
r ite
ĠM in
ur s
3 5
Ġcl os
port s
read y
Ġgener al
m p
le g
Ġob tain
Ġstud y
ĠA ust
Ġ ,
it her
ic a
ĠE n
Ġh ard
pl es
C O
Ġsing le
al f
Ġre du
mb ol
Ġs ize
ow s
Ġm ajor
, "
ure d
Ġr ad
Ġener gy
rib ution
ĠM arch
v alue
ĠS chool
Ġs it
Ġsever al
Ġs um
Ġpro m
ĠĠĠĠĠĠĠĠ ĠĠĠĠĠ
part ial
V alue
et ers
Ġto t
is on
Ġc ost
on y
o in
Ġp ot
ĠG r
sp ace
i am
Ġth ings
Ġcont rol
a us
" );
] ,
Ġchild ren
Ġm illion
Ġcharact er
ĠG e
d e
w h
Ġn etwork
it ing
E T
Ġs ocial
u ed
ens ion
m ary
Ġg ot
ain t
Ġinclud e
Ġw omen
ĠB r
st it
at ures
Ġp ay
c er
ie ve
Ġf und
Ġab ove
Ġim pro
Ġsh ort
Ġa uthor
Ġh old
Ġmem bers
n o
Ġsom ething
Ġh ig
ĠTh at
ĠW ith
201 1
Ġc al
t ies
Ġt yp
ys is
ĠE d
ce mber
ĠS up
iqu e
ri ption
a f
viron ment
I f
Ġdisc uss
ĠSe pt
Ġd ays
// //
Ġcommun ity
Ġch o
Ġposs ible
ĠHow ever
Ġt imes
ove mber
ĠĠĠĠĠĠĠĠĠĠĠĠĠĠĠĠ ĠĠĠĠĠĠĠ
Ġrec ord
id es
id ence
ard s
201 0
om an
et ing
Ġprov ide
Ġl arg
ail s
Ġ id
htt p
t ilde
Ġf ore
Ġc rit
Ġ& &
Ġc lear
Ġp ract
orm al
Ġear ly
Ġem ploy
Ġac ross
I nd
Ġl a
Ġrese arch
S et
ĠA b
ĠE urope
S c
Ġle ast
re t
Ġb ound
Ġsim ilar
m et
ĠC ity
ater ial
ĠS outh
ft y
ĠJ une
o ff
n u
Ġd om
A P
Ġt arget
ivid ual
Ġof fer
Ġc ity
Ġd r
ess ion
ĠC al
3 1
ro id
Ġf ri
Ġl ow
9 0
ĠW ar
ent al
Ġf ar
ĠF eb
em pt
Ġl ittle
s w
E r
ĠR ep
ĠC ont
il it
Ġpro b
un g
Ġstr ong
Ġh istory
p ly
Ġw ater
Ġl and
Ġh uman
om ega
I m
re l
Ġex ist
ĠP art
erv ice
le ge
d is
Ġph ot
Ġal ready
est s
Ġl ot
| \
ĠP res
in fty
htt ps
ul es
at ter
L L
ĠApr il
one y
Ġfe el
con st
Ġl ik
r ict
" )
on es
ĠJ uly
ir t
ĠP ar
Ġ/ **
Ġc over
Ġass oci
Ġw ar
i ol
Ġinv ol
Ġpre vious
il es
x i
ĠI m
le ment
Ġdet erm
Ġe conom
ak en
Ġval ues
Ġper iod
Ġv ol
R e
Ġab le
og le
Ġsign ific
Ġproble m
G et
ĠM c
Ġde ath
S e
Ġcl aim
Ġind ust
] ;
Ġwork ing
Ġ// /
' )
D elta
Ref er
Ġcom b
ĠOct ober
Ġob serv
ur ation
ĠW ill
ar ing
Ġex press
ear ch
Ġp ubl
ple ment
Ġspec ial
ib r
Ġt itle
==== ====
ĠSept ember
ĠDe cember
Ġan t
Ex ception
er al
I ON
ĠAug ust
Ġbe come
ru ction
Ġst atic
im al
Ġp ast
Ġs ide
ist ic
Ġ$ (
ĠN ovember
Ġ %
pos ition
s ize
ĠB y
Ġke ep
Ġa ction
19 6
angu age
se e
( $
Ġam ong
A nd
Ġstud ents
Ġc ell
ĠIn tern
Ġf ocus
Ġm aking
Ġint eg
eq n
er ed
er o
u ation
cl us
Ġb o
ĠR eg
Ġen c
res pond
t able
b um
] .
t op
Ġof ten
Ġf urther
Ġto get
ra ft
Ġtoget her
Ġyou ng
b ook
Ġcont ent
c hes
lect ed
Ġdevelop ment
7 0
Ġt ext
Ġs at
ib ility
Ġcomp let
Ġf uture
N ew
ĠA g
Ġg ive
Ġcomp ut
s q
Ġm en
Ġest abl
m y
c ast
Ġacc ount
m ost
re w
Ġc heck
n ow
Ġs ong
Ġexper ience
Ġind ividual
ĠCount y
Ġc ult
Ġre view
Ġshow s
O bject
Ġp ath
Ġm om
Ġa ir
Ġme ans
Ġl ove
ur ch
W ith
ut il
ĠN orth
ĠB rit
il t
s k
i ef
Ġpot ential
Ġh aving
ĠH ar
r t
h old
Ġl og
ab or
Ġa way
Ġunder stand
l im
cd ot
Ġf oot
M od
Ġc amp
am ed
Ġtot al
n b
re et
g ress
sc ript
p ose
3 4
Ġl ight
Ġpre d
olog ical
Ġm ar
Ġse en
ĠM e
Ġpoint s
3 6
D E
Ġed uc
he st
ĠC or
Ġb en
Ġ! =
Ġtr ad
Ġt alk
U S
ĠSt ring
og n
" :
Ġserv ices
Ġadd ress
k e
Ġrequ ire
ĠNew s
ĠĠ Ċ
l ist
p ons
f unction
p x
Ġc ases
ig ure
rib ute
0 1
s el
ens ure
ĠO ne
op er
ad a
ag ue
Ġp ort
Ġp o
Ġterm s
Ġwh y
Ġcre ate
g ed
th ough
Ġt reat
ĠA ct
ist or
em ic
ru ary
ag er
ic ro
A ll
Ġr ange
u f
7 5
Ġpos ition
ĠR ev
Ġsignific ant
Ġp ri
Ġrel ations
Ġ version
ma il
b ox
} [
f ile
ir l
ĠW hen
Ġk ind
Ġf ive
200 9
c m
if f
Ġc ertain
H ow
Ġro le
i j
Ġperform ance
Ġto ok
Ġw on
9 9
W hat
Ġth ought
Ġcon c
Ġth ough
Ġph ys
ab les
s m
Ġe p
y l
ore m
c her
ell ing
in o
O m
} }\
Ġplay ers
u x
Ġd en
\ ,
Ġc ame
Ġj ob
Ġex c
t est
ĠAust ral
Ġse ction
Ġde b
an a
Ġf ail
ver age
Ġwhe ther
E n
ĠThe se
)$ .
ĠD r
P ar
oun c
W h
ut ions
ip le
h am
od es
Ġto day
itt ed
text bf
( ).
ourn al
as ing
Ġerr or
" .
Ġorig inal
Ġbl ock
A D
Ġbre ak
Ġcour se
un ity
Ġf ile
a ul
s im
3 8
n ers
rou ps
ur b
l in
Ġm ot
le te
Ġc ustom
Q u
Ġfor mer
ri ed
Ġen ough
B ut
Ġc ou
ĠG l
4 8
ĠQ u
d own
ref ore
op h
Ġother s
ud e
ĠW est
ix ed
Ġm ax
ec ess
Ġor g
nb sp
g r
l ink
Ġth row
} ;
Ġtr ack
Ġint rodu
Ġs ource
Ġre ason
ĠD ep
loc ation
$ $
ĠW hat
3 9
Ġc oll
200 8
oc r
i ber
Ġb ring
5 5
V ID
ill s
ĠB ar
Ġin c
Ġin fl
K ey
bs ite
() );
Ġd one
Ġcor respond
A p
Ġcomm on
il ities
ĠA fr
Ġmed ia
b m
in ary
ag s
w ith
Cl ass
ĠAr t
her n
Om ega
Ġt re
p ing
g l
end er
I nt
raph ics
in ter
. _
3 7
Ġh ouse
Ġdif f
ou d
id s
Ġdid n
U R
Ġsup er
Ġe ver
yn am
m it
t ab
ĠS er
Ġe ither
ĠPres ident
ĠFeb ruary
Ġth ird
Ġsh own
V iew
ac ed
n ect
Ġnew s
ĠCom p
le m
ĠD av
Er ror
Ġs ite
Ġa ge
4 4
ĠS ec
r c
g or
Ġbec ame
im um
l ish
z e
ip s
Ġind ic
ill ed
ĠG erm
com p
} _{\
Ġde g
Ġdef in
ĠH ouse
Ġann oun
op s
Refer ences
col or
Ġon ce
Ġg en
O T
ĠD is
IN G
eps ilon
Ġst ates
P l
Ġm akes
at us
Ġmod els
ĠG o
Ġ es
ir m
à ¤
Ġal bum
ĠP er
p oint
se qu
Ġsu gg
ĠA m
p ath
Ġl ive
ps i
ind ex
ĠH is
Ġr isk
art ment
Ġd ou
Ġmark et
0 5
Ġs ix
apt ion
I s
T R
ĠM ark
Ġcor re
Ġproper ty
ec ut
Y ou
re ed
Ġrequ est
ac c
Ġr a
H E
Ġatt ack
ĠHe alth
I M
Ġev ents
per ty
b ased
Ġrequ ired
Ġch all
ĠP ark
ĠR ec
T est
Ġb ody
ond on
c y
Ġab s
le ase
Ġm aterial
S S
Ġp ress
he l
N ot
Ġappro ach
Ġn ational
Ġcomp et
um b
Ġp arent
Ġle arn
am a
^ *
ĠA fter
ĠN ot
Ġth ing
Ġres ponse
at ural
um ents
ag ed
Ġw ind
The re
sum mary
ĠAmeric a
Ġs ent
Ġr ate
Ġv ideo
e ed
A t
ĠĠĠĠ Ċ
Ġc irc
gor ith
v ing
Ġin f
y d
200 7
O r
M an
p en
au gh
U T
eqn array
Ġg ames
ĠE l
Ġde al
Ġact iv
ĠI I
Ġsystem s
ĠD o
i ation
Ġt aken
h ib
Ġs y
epend ent
Ġb ase
Ġquest ion
Ġreg ion
oci ety
y ear
n a
Ġgl obal
k s
Ġs ure
Ġcl ose
an ies
Ġb i
a it
as c
ĠS m
Ġdef ined
R equ
Ġus er
b it
Ġbuild ing
Ġacc ording
Ġn eg
Ġm ember
sq rt
al d
)$ ,
Ġexpect ed
ur g
ĠP e
om et
at ory
er a
' );
Ġbe gin
Ġprovid ed
Ġh ost
Ġb it
ĠS ystem
sub section
Ġanal ysis
Ġy et
Ġstart ed
ay er
I G
ounc il
Ġd ri
ĠS ch
Ġ ?
en ed
Ġen vironment
err or
[ '
p ublic
Ġc reat
min ist
ĠK ing
Ġs ound
' '
ĠM y
Ġbel ow
p ace
ĠC our
s l
ack age
ing ton
Ġres pons
ul ations
. </
Ġhig her
ok e
re st
ĠSt ud
Ġinvest ig
am ent
d om
Ġto ld
Ġdoes n
ĠR uss
Ġmonth s
am ples
ener al
Ġfe ature
A dd
Ġass ert
Ġh alf
Ġper cent
Ġw ent
Ġvari ous
Ġtr aining
c aption
ĠM ore
Ġim age
200 6
id ge
" ;
Ġre pl
Ġd est
and om
pl it
re c
ir us
fer ence
ĠL aw
ch i
Ġd er
Ġfe atures
o e
Ġst yle
ur l
c hed
Ġn ight
B l
Ġm oney
ps ilon
cur ity
Ġin put
Ġcomp lex
Ġcont ext
Ġhow ever
Ġgr ad
19 5
il le
ĠTr ump
ir th
ap an
Ġbl ack
p d
T ime
ar ning
ĠCh ar
g es
G amma
at form
Ġsub ject
Ġw ords
4 9
D ef
Ġqu ant
Ġon line
Ġrece ived
Ġp aper
et ic
ĠB ro
b ody
Ġpr im
Ġimp act
g roup
ac hed
d o
ĉĉĉĉ ĉ
Ġv ia
ne ction
Ġh om
Ġwork s
Ġst op
ann el
Ġv iol
Ġs w
Ġa ch
Ġpolit ical
^{ (
med i
Ġadd ition
Ġben ef
Ġ$ {\
Ġa ud
b old
Ġl ower
Ġcal c
un ch
Ġtr y
Ġhe ld
Ġs pect
0 8
a ur
is f
Ġindust ry
Ġoffic ial
i us
' re
Ġt ax
Ġcomp on
Ġact ually
( ),
ĠM r
ĠU K
0 7
F ile
anc ial
w ide
ĠL ondon
Ġcond itions
Ġt w
Ġm iss
A B
ĠI nt
row n
ens ity
Ġmeas ure
n on
ma x
i res
it es
idd le
b or
4 7
ce ed
n av
Ġn ecess
Ġe mb
O ver
v are
Ġinit ial
S E
4 6
Ġr ather
ĠM ich
Ġop port
ĠIntern ational
St ate
Ġal most
Ġd ocument
c le
Ġ ill
~ ~
ref er
Ġst ep
ic les
Ġstruct ure
Ġreport ed
s up
Ġc aus
ĠH igh
Ġre d
) (
ĠA ng
ag ing
Ġf lo
Ġpartic ip
Ġt ell
Ġm ap
Ġf ood
## ##
Ġm or
Ġperson al
j s
n ey
F F
Ġg round
C C
Ġf all
U N
Ġl oss
"> </
st ance
Ġd at
Ġchang es
id ed
Ġc ode
Ġrele ased
Ġhtt ps
Ġprodu ction
du c
Ġp age
Ġb and
ul ated
id a
g ing
Ġcom es
F rom
Ġrec ent
L O
Ġright s
ish ing
r up
Ġiss ues
ru g
ograph y
a el
ign ed
l ength
st ate
Ġent ire
. )
pec ially
eg raphics
C H
includ egraphics
Ġlink s
Ġexper im
Ġam ount
ĠCO VID
ĠThe n
Ġfollow s
E vent
Ġf av
} =
Ġa verage
is es
Ġm atch
ic ult
Ġpol icy
am s
vare psilon
Ġmom ent
Ġwrit ten
om s
i et
Ġpat ients
0 6
al t
f ord
Ġ );
Ġcontin ue
Ġg roups
n ode
Ġl o
0 9
Ġdist ribution
Ġs ym
right arrow
Ġ/ >
iz ing
Ġ čĊ
ĠTr ans
Ġsh all
an ch
s u
ag ement
ut es
ĠF in
led ge
' ]
Ġt aking
oun ter
Ġwe bsite
Ġconsider ed
em ph
Ġplay ed
E qu
Ġf ace
Ġse par
m ap
l ight
Ġspec ific
Ġto wn
Ġadd ed
Ġneed s
Ġc ut
i i
ĠG od
Ġim plement
Ġcre ated
m ark
Ġest im
Ġpubl ished
ĠEng lish
Ġag o
Ġdo ing
f rom
ig ital
en ing
ĠH er
ĠCent er
Ġcomp anies
e es
Ġinclud ed
sel ves
Ġstand ard
Ġar ch
ĠInd ia
Ġc ross
sy mbol
se mb
Ġse qu
it te
ar ies
Ġu nd
ĠR et
0 4
C T
D e
ilit ary
e ction
ic on
a ign
n es
ed eral
/ *
Ġwho le
In fo
ch an
Ġeff ort
' :
) =
Ġvis it
Ġs ex
Ġrec ogn
ak er
Ġ\ ,
ok en
ĠG et
}^ {\
Ġele ment
m m
Ġ/ *
A G
EN T
un k
Ġlik ely
ank s
al y
Ġcan not
ĠA ir
ly ing
L et
Ġbe gan
6 5
iv il
h ood
Ġimpro ve
Ġtechn ology
att le
Ġpop ulation
ult s
ĠCol lege
Ġac cept
ĠBrit ish
Ġrelations hip
r angle
Ġfr ont
Ġlook ing
ĠL et
Ġst ar
ibr ary
Ġt able
ful ly
Ġm er
A d
Ġbe com
Ġassoci ated
ĠD em
Ġrel ated
a id
F ield
T ext
W hen
ic ation
v ision
u el
x im
ĠD ist
Ġhtt p
Ġare as
es e
ĠBl ack
ĠO ff
Ġbeh av
ĠM on
N o
o res
I P
20 00
Ġcare er
0 2
Ġinst ance
Ġiss ue
if orn
j oy
F orm
Ġappe ar
Ġlim it
ĠD on
pl ied
Ġt ask
ens ive
Ġs ens
Ġc y
id ay
Ġdescrib ed
Ġv ot
Ġse em
w ise
Ġb ar
ott om
ic an
Ġm ind
Ġso ft
m on
Ġsol ution
B C
0 3
. }
ole an
Ġpri or
ĠIn ter
Ġim m
ĠCh ina
200 5
g en
ĠA c
9 5
Ġpos itive
=" ../../
P ath
Ġcour t
ĠG over
Ġn ode
ĠJ apan
Ġprof ess
/ **
Ġintern ational
over line
itt ing
n own
ov ed
Ġh ours
Requ est
ĠP at
ĠDep artment
Ġsh are
ĠM od
Ġst re
ĠAss oci
Ġl ength
S P
r ide
ĠPh il
Ġind ex
ĠWill iam
Ġl anguage
iforn ia
Ġpres ident
Ġreg ard
def ine
av es
ĠS en
N ode
at ives
Ġar ray
! --
Ġmat ter
Ġp ers
Ġart icle
ĠF rom
el t
Ġ( $
Ġcons ist
ĠE m
pro of
st yle
Ġbu ilt
Ġd ate
Ġle arning
n ov
Ġbel ieve
ĠS an
ĠD es
. ~\
ast ic
oc al
Ġincre ase
6 6
Ġcol or
Ġopt ions
B ig
i ences
irt ual
Ġset t
Ġback ground
ĠCour t
h ing
Ġf un
Ġdef ault
Ġcont act
Ġl ate
4 2
` `
ve c
ap i
Ġparam eters
Ġe y
ĠS w
Ġhe art
Ġeng ine
I L
p ri
ge q
Ġcont ract
anc ed
Ġsugg est
Ġsat isf
Ġdiff icult
m at
Ġbeh ind
Cont ext
M ap
Ġd iv
ĠT V
Â ł
ĠO f
o o
ĠM or
osp ital
Ġn um
Ġes pecially
Ġde cl
ĠV al
Ġinclud es
Ġ: =
Ġm essage
ĠA cc
o ice
m ult
ĠC ons
Ind ex
ac hes
ĠS im
Ġass um
v is
Ġse arch
Ġup on
Ġpart y
air s
v oid
Ġm agn
Ġfoot ball
Ġmethod s
gorith m
F r
Ġinfl u
var phi
ĠJ ust
Ġrele ase
Ġlead ers
Ġfam il
Ġt akes
Ġd im
o on
Ġprovid es
ren ch
Ġn ormal
Ġn ov
Ġf requ
ĠF irst
cent er
at est
Ġconst ant
Ġcount ries
pro t
Con fig
Ġin j
ĠR ed
O f
ĠA rm
Ġconc ern
ĠD irect
Ġthe ory
qu e
Ġw alk
Ġadd itional
ĠI N
Ġatt empt
Ġtra vel
m ission
sh ip
pon ent
an el
() )
Ġ} );
Ġeduc ation
Ġinst ead
Ġpop ular
et t
u i
Ġg e
ach ing
ĠG roup
ac ing
Ġide a
Ġfor ward
Ġget ting
Ġcomp lete
ist ry
ma z
es tern
ĠDav id
Ġb irth
A tt
ĠD ef
ĠRep ublic
Ġs ense
at ur
& \
bold symbol
Ġ Ð
or ge
Ġqu ick
Ġdec ision
fr ak
Ġst aff
Ġits elf
Ġcond ition
c ial
Ġw atch
f ort
Ġ ver
Ġpol ice
Ġcon fig
=" +
Ġfunction s
Ġneed ed
ab led
ot o
Ġsim ple
ĠH ol
a e
l ike
ĠI r
Ġreg ular
Ġbro ad
In ter
Ġro ad
ĠO ur
Ġtem per
O S
l or
p ite
} ).
Ġse curity
cal e
us er
tr ue
b ut
Ġb ad
Ġf ire
I R
Ġwho se
Ġh on
Ġ( !
5 00
Ġte le
em ents
E lement
Ġev al
pl ate
ar r
ĠIn stit
Tr ans
f in
Ġto ol
h line
Ġen joy
Ġan g
av y
b t
Ġl abel
ĠĠĠĠĠĠĠĠĠĠĠĠĠĠĠĠ ĠĠĠĠĠĠĠĠĠĠĠ
ĠCal ifornia
w ord
a res
4 3
itte e
Ġh or
at al
st er
ĠSt reet
ĠD ay
Ġw or
amp ions
ĠN e
Ġ __
Ġn atural
+ +
Ġsa f
Ġqu ality
c all
Ġh istor
Ġproduct s
ĠL a
7 7
Ġc red
Ġl ed
ar a
Ġex act
Ġev idence
or ing
f ect
ad es
us ed
200 4
Ġmult iple
in ated
S ervice
ist ics
ĠB ook
Ġoff ice
rup t
Ġn amed
M L
******** ********
ou l
Ġlead ing
Ġ} ,
M S
Ġl iter
Ġcom ing
m ore
and id
}, \
M P
ap ache
Ġme et
in put
S ystem
d en
Ġcl ub
Ġd ire
e ff
[ \
R ead
b re
T E
ĠW ork
Ġout side
ash ington
Ġmanag ement
ĠE ast
ele br
Ġwh ite
Ġ ...
Ġobtain ed
) ^
Ġpro te
r im
Ġde ep
ames pace
A b
Ġ ess
ch ange
wo od
Ġan sw
L e
Ġg raph
O ne
u ge
r ong
Ġcurrent ly
ew ork
Ġannoun ced
4 1
ac her
ve y
d raw
in ing
Ġe mer
w id
M A
Ġeffect s
Ġf ather
ĠEurope an
Ġqu ite
m ar
u nder
Ġs us
Ġcontin u
Ġl iving
Ġse ems
ra v
press ion
O D
it ect
S er
ell ow
Ġb oard
ĠC ouncil
B uild
un t
h a
ay out
em y
c he
Ġele ments
Ġout put
Ġf ul
D is
ar ter
Ġun ique
8 8
Ġl ines
d t
B e
om b
Ġr ound
R eg
Ġval id
O P
Ġcon duct
ob ject
ĠF ig
Ġcamp aign
Ġfri end
Ġapplic ation
Ġplay er
ĠAd d
Ġproble ms
Ġwrit ing
ri p
Ġw rite
b oard
L ambda
st ruct
I I
s f
O ut
S p
ĠRes earch
con fig
Ġh ope
Ġl ost
Ġp ick
Ġdet ails
ail y
Ġpred ict
Ar ray
ĠE ar
r ain
Ġhim self
Ġdep end
Ġwork ed
ĠL ist
ail ed
Ġj ud
Ġany thing
yn c
Ġv ict
Ġdis e
use um
bl ock
ass ert
qu ot
ic o
Ġtreat ment
Ġh ot
ĠInd ian
Ġgrow th
s ing
Ġask ed
R ec
pl ies
ĠAustral ia
m ing
Ġproper ties
Ġloc ated
t itle
a ctions
Ġstud ies
Ġre ve
Ġcont ribut
H and
ĠP aul
} }$
ust er
ffic ient
math frak
e ch
Ð °
Ġcomp os
Ġdis play
Ġcom ment
ateg ory
Ġnot hing
Ġs on
Ġdem on
ĠC ap
ĠH am
r ated
" "
Ġparam eter
E d
S ize
pr int
ro te
i ers
S o
C ode
Ġd am
Ġrec ently
c ing
Ġth us
f il
Ġs em
l t
Ġf em
ĠCan ada
Ġro om
Ġdevelop ed
text it
Ġocc ur
ul a
ĠO ut
ĠS k
ĠP al
Ġf ight
Ġpro posed
Ġc he
Ġpl atform
le an
n et
wit ter
Ġsome one
li er
ol ar
cont ent
ill ing
r ate
Ġthem selves
ol ic
Ġmult i
ĠA nt
8 5
m d
ver se
Ġleg al
Ġm other
ar ily
ĠJ ames
Ex ternal
[ ]
ang er
ĠRev iew
cre t
Ġst ay
A fter
s i
av en
ic ense
//// ////
ĠCl ass
Ġfin ancial
S ub
l angle
as ons
f oot
Ġcent ury
Ġsc he
Ġinvol ved
Ġg irl
Ð ¾
Ġeffect ive
Ġtr ying
he t
ou ch
V al
Ġevery thing
Ġwant ed
n s
C E
Ġs old
ĠV ol
' ;
ĠEng land
Ġappro xim
ld ots
Ġsur face
Ġestabl ished
Ġeff ic
Ġr out
enc ies
n y
I V
ic ip
Ġrun ning
ĠWh ile
Ġr andom
uff er
lo od
Ġlevel s
us ing
ĠIn c
ĠN ow
Ġd ynam
cre ate
ed d
h and
el ine
9 7
Ġlong er
Ġm ag
Ġw ord
ot a
Ġchall eng
ĠU p
in fo
Ġre str
ul ate
Ġbook s
T hat
Ġh it
Ġcomp ared
Ġso on
Ġrespect ively
in it
Ġmat rix
Ã ¡
Ġprob ably
enc ed
ĠP ort
F il
200 3
' m
ord in
Ġorig in
is ions
ĠG eneral
Ġconst ruct
Ġ q
u ate
land s
ub e
Ġl ives
ĠP ublic
Ġst age
ra el
Ġ` `
Ġass ist
ac ity
v ille
Ġpr inc
T able
Ġph ase
Ġsa w
Ġve h
Ġt our
Ġw ays
Ġcent er
Ġthrough out
c ell
v ant
ĠA P
ĠW ashington
oc ol
ĠA N
Ph i
ob ile
Ġstat us
\ %
l ang
iz es
Ġ vert
Ġfor ce
Ġb orn
rou ght
ri ef
Ġme chan
Ġag re
ap ter
Ġne igh
all s
erv ices
plic ation
6 7
t es
Ġsim ply
Ġw oman
Ġm ention
b o
ag on
Ġim medi
am ily
ĠLe ague
ĠS ub
Ġr at
ĠTe chn
k en
c irc
Ġg ives
Ġn umer
A ss
Ġfl ow
Ġst ation
Ġ= ==
Ġg as
id ents
app a
Ġis n
Ġep is
ber g
ag o
z z
ĠD i
ĠS ome
Ġaut om
x y
Ġm id
or age
esc ription
ra ction
ig ation
. \
if ier
ĠR ich
= '
} ),
Ġquest ions
Ġtyp es
P E
m itted
ĠSe ction
Ġpre c
ĠSc ience
Ġmod ern
Ġus ers
pt ions
Ġro ck
p arent
Ġre comm
ers ion
ec k
y r
Ġplay ing
al ed
Ġeconom ic
Ġm ilitary
o ch
T D
Ġknow ledge
Ġsc ale
cite p
Ġsu ff
ĠF il
Ġdemon str
Ġre v
ad o
Ġevery one
Ġpr int
' ve
pt y
ĠR ober
Ġdeg ree
ĠP ost
d im
qu are
ict ure
Ð µ
act ive
ĠG reen
Ġa ward
200 1
wh ich
Ġfri ends
M essage
Ġdirect ly
ĠF rench
Ġad minist
vent ion
m en
E E
ĠE v
Ġind ependent
Ġpract ice
ra z
Ġpre t
ĠAr ch
ĠF ound
Ġ-- >
abl a
Ġst e
Ġex ecut
pec ial
Ġnecess ary
ĠB usiness
ef ore
Ġmov ie
Ġc apt
li ent
Ġo ption
roll er
Ġcol lection
Ġc opy
Ġun it
er c
b and
wit ch
ot imes
L og
ĠSt e
Ġw rote
Ġd ensity
ro y
Ġnot e
Ġcont ain
oc ation
ĠY our
ĠĠĠĠĠĠĠĠ ĠĠĠĠ
mb ox
for ce
ĠR ef
Ġb ox
It em
oy al
200 2
n abla
Ġdirect or
U LL
ous ly
Ġacc ur
v est
n ed
Ġeas y
Ġp ain
Ġmed ical
k nown
Ġst ream
uf act
Ġbe aut
Ġch arg
Ġanal y
def ault
ĠDem ocr
ĠWh ite
Ġincre asing
ĠTh om
Ġdel iver
at ively
Ġinst all
Ġth reat
ĠInstit ute
C all
Ġj ava
c os
res ult
Ġdiffer ence
Ġv ill
ĠS ince
ari o
Ġc andid
y a
or ph
ur ity
Ġcom pl
A A
sm all
Ġd raw
Ġd rug
Ġcorrespond ing
al ing
O L
Ġprot ect
Ġinter view
ĠY ear
Ġphys ical
Ġpro gress
Ġrel ig
Ġto wards
c or
Ġpart s
U p
S C
Ġmain tain
Ġsc reen
C ount
and er
ĠT ra
5 7
ĠJ ack
Ġd ied
Ġstat ement
Ġloc ation
ĠT est
ri an
O M
Ġbas is
6 8
Ġc am
re ate
Ġlarg er
ĠC ong
Ġspec ies
includ e
S ee
ĠA re
ĠAfr ica
st art
le vel
ĠS ervice
Ġad j
Ġc ause
iz ations
Ġprodu ced
Ġd riv
Ġcharact ers
ĉ Ċ
er ve
j ava
ĠD an
Ġt en
Ġus es
ĠM al
Ġsc ient
} )$
Ġgo al
ĠG L
b uild
Ġan im
b on
Ġim ages
Mod el
ĠB er
pl ace
Ġele ction
p at
ĠCh urch
Ġnum bers
Ġweek s
n ected
Ġe mail
Ġs il
Ġn ature
st e
Ġ ensure
ĠM art
Ġcomp ar
ag ram
A meric
Ġdesign ed
P ost
Ġ row
Ġde part
E nt
g t
ĠDist rict
Ġinst it
Ġallow ed
ĠPro gram
ir it
Ġse ek
st on
i os
c heck
ĠMich ael
Ġwe ight
Ġc elebr
en ge
Ġcont ains
Ġcon v
Ġact ive
ĠS et
Par am
it ude
ex p
Ġcorre ct
ĠP ress
9 8
sub set
ĠM usic
\ |
Ġres ources
ĠAn n
Qu ery
Ġl ack
Ġd rop
ĠAssoci ation
c an
Ġcol lect
ĠP re
Ġcent ral
ĠR ead
b ase
Ġin sp
Ġtrans fer
Ġac qu
Ġline ar
ri al
it iz
m iss
Ġl oad
Ġthe refore
Ġ} ;
ĠH all
Ġpresent ed
G L
Ġdev ice
Ġfact or
Ġmin utes
k appa
ĠJ er
Ġsur v
ie ce
Ġb order
mod el
Ġfil ms
I F
Ġcult ure
er ia
Ġserv ed
Ġw idth
Ġdist ribut
Ġins ide
ig en
---------------- ----------------
ĠS ing
res h
and emic
augh ter
Ġconst ruction
Ġa im
S igma
Ġup d
Ġlim ited
Ġcol umn
Ġ â
Ġw ond
ĠE duc
Ġread ing
val id
Ġdou ble
ĠComp any
ĠR iver
Ġinterest ing
S up
ĠD ec
Ġpr ice
ĠĠĠĠĠĠĠĠ ĠĠ
Ġtrans form
r um
Ġdist rict
Ġde ad
Ġschool s
A cc
Ġun c
ie ved
Ġdist ance
Ġfield s
ĠPart y
Ġme eting
Ġav oid
ĠB en
Ġr ace
Ġspe ed
Ġh y
Ġr ules
Ġmov ed
non umber
ampions hip
Ġpro of
AS S
Ġallow s
Ġ Ã
Ġnov el
Ġg ave
Ġm ach
C D
Ġl atest
F l
Ġclos ed
ĠDe velop
ĠH ere
sy ch
ĠM at
ĠO F
Ġst ories
ĠAng el
ĠG reat
5 8
Ġh um
app ing
pect ed
Ġh ol
T H
Ġobserv ed
Ġset s
Ġcon cept
ensure math
Ġm is
ĠB el
Ġcap ital
Ð ¸
ines e
ace book
E L
ex as
Man ager
ĠL eg
Ġpur ch
âĢĿ .
ot ed
B ar
ed ia
cent ering
C L
erv ed
Ġsc ience
Ġatt ention
ĠFl or
ĠIs rael
Ġlarg est
w in
Ġst ru
Ġcho ice
Ġn il
clus ion
9 6
ab ase
Ġsc en
anc y
ro s
Ġear lier
i ance
ĠIn st
Ġsay ing
m ethod
h aps
ĠT HE
Ġal tern
E O
5 6
Ġs ort
Ġrefer ence
Ġus ually
ify ing
c el
it ation
Ġle ave
Ġincre ased
con text
r ang
ĠD ata
is ation
Ġstre ng
Ġf ram
Ġequ ation
it ar
Ġve ctor
mer cial
Ġqu al
\ [
Ġp ark
Ġpart ners
Ġper fect
Ġcrit ical
Ġb all
plic it
ĠD el
id ing
d ots
Ġfav or
Ġ( )
c ap
Ġv acc
F L
Ġsaf ety
Ġstud ent
and roid
Ġp ack
ĠM et
c ount
Ġser ious
/ \
ak ers
Ġsol utions
st atic
ir ing
h an
iver se
n ext
E X
s in
th m
Ġf ast
Ġb rought
b ra
Ġass ess
] (
est ival
Ġw orth
go ogle
Ġal though
P re
Ġn ation
ĠN ov
ct ors
="../../ ../../
so ft
se y
Ġsoft ware
ĠT ime
Ġopport unity
Ġse lect
N S
ens ions
P S
Ġab ility
ĠGe orge
Ġoper ation
Ġd ark
Ġar riv
Ġsit uation
re me
5 9
Ġrem ain
ĠÂ £
Ġdire ction
r un
\ !
if ul
M y
ĠB oard
Ġz ero
Ġ vers
ĠComm ission
idd en
con tain
ĠM ag
ĠB est
d et
Ġperform ed
Ġt im
) {
Ġgo es
l a
}} {
R et
Ġtrans port
ĠO ther
Ġc ast
Ġj oin
al ax
S he
ĠPro f
l am
o oth
Ġpl ans
Ġpat tern
ĠS ur
Ġdef ine
ĠR oad
Ġoff ers
Ġrem ains
st ream
Ġactiv ities
Ġcon nect
Ar g
opt ion
riv acy
Ġset ting
act ory
Ġex ists
ev ent
ist an
Ġprofess ional
ĠR el
Ġs rc
Ġf air
Ġrece ive
Ġapp ly
Ġreg ister
wid et
ĠO b
ant ic
Ġpro p
Ġoper ations
av irus
d ev
im age
w rit
E nd
Ġmean ing
Ġet c
Ġsur pr
ĠFr anc
t em
ĠS am
Ġf it
c ase
Ġget s
Ġfamil ies
Ġparent s
M ethod
U L
Ġex cept
ĠQ ue
arg in
Ġpre p
ĠE r
ec ause
Ġc ivil
Ġfollow ed
d oc
re y
O ur
ĠGover nment
semb ly
ĠGerm an
Ġreturn ed
ill er
Col or
Ġproject s
cur rent
{ -
Ġdise ase
ter m
Ġb ank
ĠSer ies
ron ic
Pro perty
Ġw rong
Ġprogram s
AT E
it ch
Ġf a
Ġparticular ly
Ġcon nection
ĠGo ogle
c ore
ur t
w ell
Ġal gorithm
ĠS und
Im age
it able
Ġtemper ature
Ġw ife
U E
Ġchang ed
? âĢĿ
Ġh ous
ab s
iz er
b orn
T S
od ing
Ġf ixed
Ġj o
Ġact ivity
ect or
Ġwork ers
Ġprim ary
.... ....
Ġm us
Ġcell s
h ost
p age
ĠJ ew
ĠFr ance
ĠT om
Ġd igital
Ġb oy
Ġequ al
st ant
ap pro
ĠA tt
Ġbu y
Ġsh ip
Ġteam s
======== ========
Ġany one
Ġpre vent
Ġres ource
pre t
Ġexp and
g rad
ĉĉĉĉ ĉĉ
on avirus
widet ilde
! !
Ġnear ly
is her
ell ig
Ġb illion
ri a
pd f
ĠB re
ĠO ver
us ion
Ġor d
tab ular
Ġb ool
Ġex am
out hern
Ġro b
k a
ĠSe e
Ġpret ty
G roup
Res ponse
Ġb us
Ġbe y
Ġcl ient
ĠC r
Ġfl u
Ġre li
Ġdisc over
Ġp air
3 00
p ackage
ort hern
Ġbecom es
g ment
on a
ĠD iv
ib ly
f unc
Ġbey ond
> &
ĠM us
Ġwas n
Ġn orth
Ġtr ade
ĠG old
Ġs n
com ing
Ġopt im
pl ing
' ll
ĠH istory
Ġcontin ued
a ud
ĠB ay
C lient
Ġc ook
ild ren
Ġs ources
Ġd ed
ĠR em
i ant
Ġn ames
ĠFlor ida
Ġon es
M ore
ĠM ac
h i
ed y
ĠJ ournal
Ġb al
ĠA ward
in ition
Ġful ly
Ġse c
ult ure
Ġs en
ĠS ervices
Ġn uc
( (
Ġfin ally
g est
7 8
Ġp andemic
pr ime
ro om
Ġup date
ĠT exas
S ource
Ġext ra
Ġstart ing
Ġpro ced
d ot
Ġr ule
Ġarch itect
ĠM ont
Ġex hib
Ġsuccess ful
A ct
ĠM o
k i
199 9
d b
} -
Ġoper ator
Ġa w
Ġequ ival
c ss
ĠOff ice
f alse
Ġbegin ning
Ġe ight
ĠL ife
Ġreport s
ĠM ary
ĠâĢ ¦
ith ub
Res ult
Ġres pond
Ġdem and
Ġr ank
Ġm ix
Ġant i
Ġprot ected
Ġexpress ion
Ã ³
Ġintern al
l ong
p ol
ound s
ĠS y
h as
Ġman ufact
Over ride
ĠMan agement
Ġs ample
Ġwe b
F irst
Ġc ard
Ġse lected
Ġess ential
R A
Ġsom et
ĠDirect or
N A
Ġb ur
al le
P r
Ġsequ ence
F A
m as
f lo
Ġbehav ior
n or
we b
au ght
ĠChrist ian
Ġsl ow
Ġcomm and
ĠS ociety
Ġcou ple
Ġappro pri
5 2
Ġrem ember
Com m
Ġfe ed
Ġhigh ly
Ġm icro
Ġexist ing
5 1
in i
B S
Ġcl in
ol f
ĠA lex
Ġrestr ict
ber t
Ġequ ip
Ġcons um
Ġf ederal
ĠEduc ation
anc ing
por ary
ĠCh inese
Ġse ven
s cale
D o
ĠR ob
; &
Ġj ournal
ĠM em
il i
ial og
P ol
v an
ĠO pen
=" ../
U ser
Ġintrodu ced
Ġpass ed
ur rent
ĠL ou
Americ an
ĠPe ople
if orm
ann ed
Ġach ieve
Ġre ach
Ġf elt
Ġapp oint
Ġc atch
\ ]
Ġ ir
) ]
Ġp le
Ġbro ther
Ġed ge
Ġcompon ent
O C
ens or
im ent
N ext
Ġst ore
Ġdec ided
Ġap plied
Ġ ult
ĠB ank
ĠE q
ĠF acebook
Ġhe ight
i as
=" #
ate gy
p g
ĠI S
ĠF ore
Ġs ociety
Ñ Ĥ
Ġpl ant
er ation
Ġf ans
g n
ad ian
ĠV ir
Ġim ag
p ng
Ġw ide
Ġcont r
5 4
en ame
Ġ& =
dis play
Ġ er
Ġp refer
Ġprevious ly
ĠCong ress
ĠR ock
5 3
Build er
g ithub
ot ype
B A
Ġorgan ization
Ġcost s
Ġsupport ed
g u
Ġmem ory
Ġm ode
ĠP M
ĠS um
ĠUn ion
P C
ond ay
00 00
} +
P art
H T
Ġturn ed
ĠM iss
Ġpl aces
Ġcoll abor
Ġst ri
Ġs outh
Ġquick ly
ĠSm ith
Ġsp read
Ġchar ge
Ġr ap
in ct
ur ance
St ream
Ġenc our
In put
ind ow
Ġst ars
Ġgreat er
Ġindividual s
Ġin form
ĠC up
EC T
7 6
ĠPro ject
P e
R un
il s
Ġh op
Ġit em
fl ow
Ġhand s
Ġg iving
Ġdefin ition
ĠS al
Ġhold s
Ġrad io
ĠF e
fl ict
ens ional
ar ant
Ġsol id
ĠAc ad
ic ine
Ġcomplet ely
z er
ip p
Ġmove ment
th at
G e
Ġover all
Ġ ri
ĠGerm any
P R
z eta
uth ors
u ated
r d
Ġgr ant
ud get
Ġp lease
ON T
ĠT imes
p c
ĠS l
Ġconst it
Ġcommun ities
D A
E M
ĠFr iday
Ġw a
ĠB ill
o very
ĠS ocial
Ð ½
M e
H ead
Ġh ar
8 6
ĠR ad
Ġtr ust
en a
cl os
ĠComm ittee
Ġaff ect
reed om
Ġpur pose
ent y
at rix
Ġtrad itional
Ġprovid ing
\ {
Ġl ock
Ġin nov
20 22
ind ing
pro p
ot ion
Ġestabl ish
Ġtr ain
Ġmax imum
Ex t
Ġhe ard
ĠRober t
Ġpre m
Ġsp ent
ĠIs land
ĠB ig
ĠAfr ican
ĠM ad
Ġother wise
ĠFound ation
ĠU nder
Ġpres ence
ĠUS A
Ġc hem
il er
Ġc lean
az ine
Ġch annel
Ġf igure
os en
ic ated
; </
Ġv ote
I A
ĠJ ul
Ġte acher
Ġdri ve
Ġpress ure
C A
Ġd oc
m ember
Ġ ]
le ctions
Ġapplic ations
Ġh ospital
em ma
ree k
Ġgener ated
Ġp ull
Ġsum mer
Ġtele vision
u it
Ġpo or
ĠM ex
Ġsh ared
Ġwind ow
> (
ed nes
ĠC he
ĠW il
Ġlead er
und red
U til
ĠMin ister
Ġsomet imes
ĠDevelop ment
ĠMed ia
Ġre pe
ĠSt ar
z a
ĠI D
un s
Ġm ount
p ost
h ouse
ĠSc ott
Ã Ń
Ġt er
l ock
Ġsc ene
199 0
Ġstr ategy
ĠCl ub
ĠS T
ĠSund ay
ĠF igure
ĠTh us
rib e
st ract
Ġm iddle
ĠPl an
Ġbr and
od ay
ot ic
u a
G r
atur day
om in
ri er
Ġv s
es ter
Ġass ume
Ġv oice
Ġelect ric
Ġtrans ition
in ner
Ġt ree
199 8
ĠĠĠĠĠĠĠĠĠĠĠĠĠĠĠĠ Ġ
n ull
ra ight
D ate
N ow
on ic
Ġagre ement
Ġdeterm ined
ust ain
Ġ ign
e al
ĠH el
Ġde cre
ry pt
ak s
app end
Ġal ign
M ar
m id
un ities
Ġsym met
ĠM ost
) =\
P er
ĠM er
Ġdat as
ĠRet urn
Ġexact ly
Ġr ates
b b
Ġshow ed
âĢ ĺ
Ġsmall er
Ġsong s
Ġst d
Ġent ry
ĠH ill
om a
Ġro t
Ġp en
cher s
rel ated
Ġeas ily
ic ol
ĠT op
y les
Ġobject s
} ]
ro ad
an o
Ġact ual
Ġth ous
Ġf irm
Ġcustom ers
Ġal leg
} =\
Ġc op
ans ion
ĠC L
cl ient
olog ies
Ġunderstand ing
Ġse cret
b our
ĠE nd
se arch
{ (
he ight
ĠĠĠĠĠĠĠĠĠĠĠĠĠĠĠĠ ĠĠĠĠĠĠĠĠĠĠĠĠĠĠĠ
n ote
Ġent er
Ġstr ateg
ĠG ood
ĠK e
O per
ĠN ULL
ĠCent ral
Ġfore ign
ĠM useum
sk ip
Ġfact ors
Ġhe ar
Ġcomplet ed
Ġeffort s
Ġc ounter
Ġhig hest
Ġm ur
Ġd ram
id en
ednes day
opt ions
Ġgrow ing
il ton
ĠB o
pect ive
in y
f irst
Ġill ust
Ġcl imate
und le
Ġcompon ents
orn ey
8 7
Wh ile
D F
Ġlook s
Ġappe ars
c are
Ġrec ords
ruct ure
Ġsh ot
ĠD et
Ġkn ew
Ġcho ose
ĠA M
Ġb lood
) }\
Ġabs ol
Ġfor ces
et her
Ġform s
Ġsp in
Ġw ild
n amespace
ĠThe orem
Ġmov ing
text width
Ġs al
op en
ĠPol icy
Ġg reen
ic ago
Ġs ales
Ġgr and
d s
ĠPl ay
C an
ph p
s pec
In stance
Ġarg ument
, -
A ction
St atus
n el
Ġprob ability
Ġfin ite
ĠFranc is
8 9
Ġv irtual
Ġk illed
Ġl if
ud d
ĠB i
and a
Ġm ess
ĠU s
ed ge
âĢĿ ,
Ġch urch
Ġcar ry
ĠF orm
T Y
Ġimmedi ately
U M
ĠCar ol
Ġneg ative
199 7
Ġpro ve
ĠĠĠĠĠĠĠĠ ĠĠĠĠĠĠ
N N
ues day
Ġsa fe
Ġch ance
Ġansw er
d ir
ĠA v
L ast
ed s
Ġo il
Ġgener ally
Ġrequ ires
] [
Ġvari ety
at re
Ġopen ed
Ġas pect
ĠR o
Ġro ll
V ER
urs day
ĠL os
ĠS un
] )
ven ue
Ġp m
Ġtest ing
st ar
ĠC amp
ig ration
ĠThom as
$ )
Ġdom ain
an i
Ġst ock
we et
l ib
; \
t arget
( {
6 9
Ġpol ic
Ġform at
ĠN or
Ġc itiz
Ñ Ģ
T oken
p p
Ġprodu ce
| -
ick s
Ġs ports
pos es
Ġepis ode
Ġs end
ĠC D
C o
Ġrel ative
Ġmeas ures
Ġc ore
ĠO per
le ep
The y
S ince
ĠSup er
ĠH ome
P os
Ġfail ed
Ġl ay
Ġrele vant
ĠN ote
Ġsh oot
k y
ris is
L abel
Ġstru gg
Ġredu ce
Ġt ouch
Ġg old
ab ilities
L ine
Ġcon nected
4 00
Ġcomput er
Ġspec ified
ly mp
Ġclaim s
ĠS u
Ġf arm
ri ve
ic ations
str ong
Ġdeterm ine
Ġad apt
Ġjo ined
. ~
Ġse ctor
Ġemploy ees
Ġwe ak
Ġc ru
ĠA ut
et te
ĠFr ank
Ġvol ume
Ã ¼
F ig
Ġcol lege
Ġand roid
ot es
ĠT or
Ġal one
yd ro
ant a
Ġrepresent ation
p y
por ate
Ġcom mercial
it a
Ġw ave
Ġsign ed
Ġ< <
) ^{
T op
Ġla unc
L S
Ġclass es
ark s
ist ance
7 2
Ġeconom y
Ġbas ic
ir med
row ser
os h
Ġbo olean
P A
199 6
Ġqu arter
erv ation
yp es
Ġph one
O W
Ġa ctions
Ġ eth
ĠâĢ ¢
ot al
ock et
E m
ĠT witter
Ġbusiness es
} |
Ġh uge
Ġop in
H el
Ġcom ments
qu ery
St art
Ġquant um
ĠSec ret
Ġcan cer
Ġey es
Ġa mb
Ġy ield
arg s
ĠW omen
Ġart ist
Equ al
ch ar
b ed
Ġleg is
Ġcon ver
row s
ĠN etwork
ste in
p ass
os ing
ĠC are
Ġbeaut iful
Ġreturn s
or ial
icro soft
D on
at in
ig ger
os is
ing er
Ġen h
}^ \
Ġdes pite
ĠM onday
) </
ing u
6 3
du ction
ĠAustral ian
ev en
R ep
AT ION
c up
Ġp iece
Ġsy mbol
N ull
ĠWe b
Ġinit i
ĠP eter
P RO
b ur
Ġfem ale
ĠAp p
Ġread y
C R
Ġco ordin
Ġmajor ity
9 3
Ġup per
Ġref lect
Ġsl ight
Ġw id
Ġappe ared
ic ate
ĠG en
Ġit ems
an ish
Bl ock
ĠO ffic
ge bra
ĠT own
Ġcap acity
Ġcaus ed
li ament
Ġwond er
B ase
ĠM ount
ind ent
Ġrespons ible
Ġwrit er
a o
Ġp aid
C S
Ġm ale
Ġst raight
Ġp oll
cd ots
Ġopen ing
ĠT wo
Ġsc ore
Ġa ware
Ġsign al
Ap p
ari ant
O ff
ĠR oyal
Ġac com
ig r
f ill
H S
Ġ Î
Ġm ut
Ġag ree
H ere
hed ul
Ġn av
Ġ esc
ĠAl so
i ency
ĠT ur
6 1
ĠU N
ĠW estern
Ġm ission
ĠT able
199 5
ĠVir gin
S im
it ors
om orph
Ġrecord ed
ĠR E
I O
Ġhapp en
B ack
it ness
per ties
ĠIn formation
Ġrel ation
Ġofficial s
ĠE conom
Ġdesc ription
Ġcall s
Ġbl og
requ est
ĠS ol
ind er
Ġtr uth
math sf
Ġcon sequ
Ġsh ape
Ġh yp
ch o
ĠRich ard
Ġst eps
ribut es
Ġre ached
Ġd aughter
in em
Ġsur round
in n
Ġob vious
Ġsit es
ĠE ven
}_ \
Ġh undred
it z
{ {\
Ġan c
al a
Ġbe g
r l
w rite
Ġmor ning
Ġcon cent
Ġart ists
Ġb ill
ĠD uring
ĠV ict
< !--
p ack
D S
Ġse lection
wide hat
Ġun its
L ink
g ener
Ġ- >
6 2
ick et
ĠAngel es
ourn ey
Ġinflu ence
opy right
Ġgener ation
Ġf ine
Ġw ants
Ġac ad
Ġn one
9 4
Ġbl ue
Ġev olution
Ġappropri ate
Ġuse ful
ĠAr ts
Ġann ual
. [
ig an
Ġhapp ened
Ġf ix
ou ble
q quad
ĠSt at
ĠK ore
re es
Ġident ified
Cont ent
Ġs ch
ĠH en
as y
Ġpart ner
b urg
or ation
Ġext rem
P si
ong s
P oint
ĠEar th
Ġident ity
b ound
Com p
ind ows
G ener
Ġmechan ism
ow ers
Ġcon clud
ĠS aturday
ad ata
cent ury
ĠĠĠĠĠĠĠĠ Ċ
Ñ ģ
eg er
ĠC ath
Ġfil ter
Ġ+ =
ĠB rown
Ġadv ant
P L
O ptions
ĠJ ose
ĠSt ep
Ġtri al
Ġ\ {
m ain
Ġpart ies
at ically
F unction
Att ribute
Ġw at
Ch ar
on om
t x
( -
ĠRuss ian
c ar
ĠH ot
Ġf ig
AM E
ĠB uild
if ically
n ce
roll ed
lem ma
b a
iqu es
T ER
ĠP o
Ġinvest ment
ap ers
Ġstreng th
Ġnot ice
ĠGr and
C heck
Ġ util
Ġser ve
Ġf ear
ĠL and
Ġide as
Ġlet ter
Ġd aily
Ġk ids
loc al
C ell
l ast
f ree
ĠM el
v ider
198 0
) -
Ġmaterial s
Ġtrans l
Ġredu ced
9 2
C ons
wh ile
ĠL ong
se lect
Ġhelp ed
Ġb rief
stand ing
Ġre asons
ĠW ednesday
ĠProf ess
Ġfr ame
Ġclear ly
Ġmod ule
* /
Ġneigh bor
ĠRuss ia
Ġsp irit
g ency
ole c
ateg ories
ĠO bject
ĠSh ow
}) \
RE F
Ġrun s
ĠArm y
Ġthrow s
ĠAcc ording
az z
Ġcreat ing
Ġs ave
el oc
ol ve
ĠE very
Ġl ayer
ĠEng ine
ele ment
Ġocc up
mod ule
ĠJ ud
Ġdeb ut
Ġreg ions
maz on
Ġla unch
Ġnot ed
9 1
alle l
Ġvill age
ĠM ass
Ġmin or
h ab
Ġprocess es
Ġmention ed
ri end
Ġs ell
Ġp anel
ĠCh ampionship
Ġown ers
fin ished
Hand ler
Ġst ated
Ġ" ""
ic ens
S ec
Ġex ception
Ġc ool
Ġchall enge
ĠWe ek
am ing
ri age
ĠS il
ĠCh icago
Ġm aster
ĠR oman
Ġmanag er
res ents
Ġcontin ues
il ed
ang ed
Ġfil es
7 3
G B
Ġbenef its
ĠH uman
Ġlead s
Ġser ver
Ġsh ift
Ġ ;
ĠThe refore
head er
S U
ar p
go ing
ĠB ur
Ġinter pret
ash ion
ĠW ell
ab y
equ iv
Ġm ill
Ġin come
Ġthink ing
7 1
ĠT im
d l
Ġinterest ed
Ġr ac
ĠO h
add ing
Ġfram ework
8 4
ner gy
Ġcomm it
Ġb ul
i ar
ĠS pe
ĠO p
H ome
ĠF und
ĠL og
Ġinst r
Ġg alax
Ġvis ual
Ġdiscuss ion
Ġc orn
ri ev
S A
V ert
N av
Ġw el
i ate
Ġne ut
ol ved
Ġpower ful
j av
Ġinc or
Ġh arm
on ly
ĠP et
Ġt it
Ġmin imum
es h
Ġvict im
C P
al ian
ĠL ead
re land
ug in
Ġdescrib e
8 2
We b
ĠIn s
Ġlook ed
Ġsignificant ly
re al
ĠComm unity
Ġst ress
Ġsh op
}\ ,
Ġn orm
f it
Ġrequire ments
l ig
Ġhe avy
Ġc ert
Ġpe ace
}} (
Ġpat ient
c it
ag ger
as hed
Ġbound ary
Ġcon flict
is hes
n ormal
Res ource
Ġrem ove
Ġorgan izations
Ġsus p
Ġrecomm end
Ġun s
al ysis
clus ive
y an
d at
Ġ ~
ĠTechn ology
Ġmot ion
ĠD en
Ġsex ual
ill a
Com ponent
8 3
B uffer
G o
Ġd og
Ġvari ables
Ġar rest
ĠT uesday
ĠLou is
b ottom
Ġmar ried
Ġpl aced
Ġcl oud
ĠTh ursday
ĠCan adian
ser ver
^ +
ĠJ oe
ad y
cre te
ĠGl obal
am m
Ġunc ertain
s g
i en
' d
Ġevent ually
ĠAl though
Ġed itor
Ġoffer ed
A ut
ut y
a a
Ġrat io
How ever
Ġext ends
ĠL ove
Ġsche me
Ġre ality
Ġa x
Ġfund ing
Ġadminist ration
Ġrese ar
R el
cl es
Ġinter face
Ġform ed
Ġd ream
Ġresult ing
ren ce
The se
Ġchalleng es
Ġad opt
he nt
h y
}^{ (
ĠM ur
Ġsk ills
Ġper haps
ĠRe port
Ġaut o
Ġr are
ĠP ower
ac ement
Ġthe rap
or ter
Ġbenef it
& =
8 1
Ġp ush
M et
199 4
ellig ence
Ġdeath s
Ġ ut
Ġplan ning
Ġgu id
ĠAt l
Ġt al
Ġident ify
Ġr ail
bre ak
Ġwh om
T e
T O
ĠJapan ese
Ġcon vers
Ġqu e
b i
S I
Ġveh icle
ĠT re
Ġa uthors
us band
#### ####
ĠD ev
E W
but ton
R em
Ġlaw s
ĠC am
Ġsu fficient
as ure
P age
Ġ$ (\
ĠN one
p o
7 4
t ings
ens us
c r
ĠB u
Ġpro ceed
Ġtest s
Ġtool s
Ã ¶
j ection
ĠO lymp
Ġv an
st atus
7 9
Ġbu ff
Ġvari able
Ġr ise
c ript
Ġsub sequ
pt r
Ġsup ply
Ġregard ing
Ġdiscuss ed
ĠCh ief
est ic
M M
d i
Ġmiss ing
Ġpr ison
Ġviol ence
Ġra ised
ĠE p
ĠSec urity
Ġcompet ition
Ġs ession
r ics
Ġc at
ĠHe ad
Ġ( (
The n
T P
ĠAr ab
ex pected
Ġext ended
Ġcred it
ĠI ll
Ġb ottom
N umber
U s
pro perty
} :
T ag
uk e
h space
ĠGe org
Ġto ward
Ġex ec
}\ \
T V
p ower
Ġk m
l en
Ġsepar ate
T ask
Ġa head
Ġ& \
Ġtre nd
ĠDiv ision
erm an
Ġold er
Ġtri ed
ĠSe cond
ĠP ri
Tr ue
Ġequival ent
ĠF ree
pro cess
j son
s plit
Ġj oint
Ġmach ine
Ġex amples
Ġnetwork s
Ð¾ Ð
Ġdev ices
Ġatt ract
op l
Ġp sych
ic ed
B ox
A V
AB LE
[ "
ĠMart in
ard en
Ġch ief
l ook
Ġres idents
D B
g reg
ĠV er
ang es
cre en
ol k
Ġhapp y
w est
Ġrest aur
as ion
ĠThe ir
col umn
Def ault
ig inal
Ġb attle
N et
Ġfrequ ency
Ġexper t
V is
g ent
Ġaud ience
F actory
ru le
ĠA uthor
Ġopport unities
b in
Ġcons ult
Ġp i
th let
um in
ĠV is
Ġpl ays
Ġhand le
fr ont
i very
Ġdi agn
Ġmur der
ĠL ake
Ġad vert
Ġro ot
ĠM ain
Ġequ ations
{ }
ask et
Ġke pt
ĠW ood
ĠL emma
hen s
Ġb udget
Ġdr ink
ĠJ un
ĠB et
g ar
ang ing
Ġrep resents
D r
x space
con s
Ġw ait
ĠIs lam
i h
ĠZ eal
W ork
Ġcr im
ack s
fr ast
ĠF amily
Ġcertain ly
omet ry
Ġprof ile
âĢ ¢
Ġno ise
Ġdo or
ĠTe am
Ġpolic ies
Ġw ood
ĠAcad emy
Ġun ivers
] $
Ġcult ural
hest er
D es
end if
Ġn et
Ġpro pos
in st
T C
Ġcor onavirus
Ġsen ior
irc raft
ĠE lect
S R
Ġ{ @
Ġestim ated
cl ose
ĠC EO
Ġview s
ĠChrist mas
Ġcrit ic
ain er
g ence
Ġra ise
ck now
Ġshow ing
E ng
Ġest imate
il ing
el ess
Ġstruct ures
ent ed
| ^
M in
Ġtalk ing
ĠL ee
M em
D esc
ic ians
serv ice
R ev
Ġgo als
Ġcontr ast
ov ing
197 0
ĠAmeric ans
act er
ĠJ im
ĠJohn son
ĠCent re
Ġv eloc
du le
Ġhy per
ĠW ho
Ġh our
id ers
ĠZeal and
Ġleaders hip
Ġco ach
ĠG ame
Ġdef e
J ohn
if act
Ġm obile
Ġfe et
a uthor
} /
$ {
Ġexc ell
Ġph il
Ġapproxim ately
Ġoffic er
ĠP enn
B O
ĠS pecial
Ġv irus
Ġmost ly
Ġprote ction
u ations
ĠI reland
Ġjob s
Ġsp ot
ĠF estival
r ange
V ersion
Ġd anger
F C
B r
Ġs amples
un finished
ĠG ames
w ar
ĠE qu
ul s
i pl
p ers
L oad
ĠIt s
Ġse a
app ed
1 000
Ġm iles
h r
Ġm ask
Ġexper i
no indent
yn ch
( {\
ĠE X
F e
l ife
cl aim
eb ug
Ġc ities
ĠR ights
ĠFil m
ĠIr an
ĠL ord
ĠM ax
Ġon to
ĠSt and
ĠO ld
x ml
n ight
Ġrelig ious
D et
k er
ef t
Ġlist ed
l n
ĠAN D
ir al
N ote
I ST
15 0
Ġc risis
ĠChar les
Ġdest roy
t ure
C ar
ĠComm un
Ġc ategory
. $
m eta
ce an
D irect
p rivate
Ġp icture
Ġp ages
Ġm argin
Ġt ag
Ġrem oved
p ir
dim ensional
ĠE U
ĠK ey
Equ als
Wh y
ele te
ĠPro v
Ġco e
ple te
od ies
k ins
Ġfam ous
Ġd oll
ĠC all
im g
ys elf
Ġbig gest
ic ian
ro ph
Ġfin ished
d ep
ell a
Ġcommun ication
et ime
pro ject
Ġw all
d ec
ĠT ype
Ġpl ot
S pec
Ġstud ied
umer ate
ĠPar is
" ).
Ġlaunc hed
Ġequip ment
Ġdep th
ĠL ibrary
F in
av ed
Ġenvironment al
all ery
are n
Ġimplement ation
Ġch ain
as tern
l ines
sh ire
Ġp et
199 2
em porary
n um
" ]
n umber
ob j
ĠN Y
ĠEn ter
Ġex plicit
leg al
Ġres olution
al let
Ġmay be
Ġcomb ination
s rc
Ġlearn ed
Ġch osen
Ġspect rum
Ġaltern ative
ĠE ach
199 3
ig g
p ush
ĠL im
out put
ĠAb out
os oph
Ġcompar ison
Ġs un
% )
I B
Ġs witch
ĠWh y
Ġl atter
Ġfa ith
C reate
Ġgover n
ĠKing dom
Ġfour th
Ġbr ain
Ã ¤
m t
~~ ~~
ad ow
Ġr ul
o z
ell ed
P O
Ġme ant
ph one
or a
ĠA ff
f ind
Ġsm art
m ut
ur ies
Ġcar ried
ĠM any
ok es
ĠAp ple
Ġh usband
frast ructure
Ġexp ansion
Ġcitiz ens
as er
Ġext ension
G u
Ġ ens
ĠVal ley
E l
a fe
Ġrem aining
Ġatt end
Ġg one
ĠMed ical
Ġdirect ed
Ġfail ure
Ġend ed
Ġcrim inal
ĠF urther
Ġfor ced
ĠIn vest
ĠG ar
Ġinter action
Ġarg uments
A m
t ical
ploy ment
d ist
Ġown er
at o
ult ural
Ġbecom ing
ĠC ast
pon ents
K E
comm and
y er
Ġconsist ent
or row
am in
ĠL in
por ation
c s
Ġsur vey
ĠB ack
Ġwe ap
Ġl iber
Ġdet ect
s he
S ome
Ġim plies
' $
form at
ĠYou ng
Ġmon itor
ent ry
Ġdet ail
Ġoper ating
} +\
ubl ished
Form at
ĠI d
ri e
Ġn om
ĠJ ones
we ight
Ġem pty
ĠVirgin ia
ĠT our
ĠMex ico
pos s
_ .
k in
ĠVict or
G l
Ret urn
ĠÂ »
Ġcomb ined
d escription
Ġsm ooth
ch ild
ate ver
Ġrap id
Pe ople
P P
ĠSen ate
ĠU se
W rit
F I
e an
el ines
ĠB iden
Ġden ote
un te
ĠF ort
res hold
Ġclin ical
Ġadj ust
ã ģ
Ġconfig uration
ĠV iew
S ON
r ick
Ġliter ature
ific ations
ĠW ay
if ies
Ġfind ing
Ġag ent
so le
ĠOb ama
er ry
un icip
ot hes
ĠL icense
os es
Ġcon ference
Ġst uff
Ġcould n
ne q
plic ations
M C
m em
" ),
} );
Ġbirth s
om ic
ing ly
}} {\
ĠAs ia
Ġtechn ical
Ġdam age
Ġinvestig ation
Ġear th
Ġdevelop ing
H O
Ġreve aled
ĉĉĉĉ ĉĉĉĉ
ĠM il
Ġart icles
Ar t
f inal
Ġex erc
ol a
cit et
Ġmagn etic
Ġdim ension
Ġf reedom
AR T
contain er
st ances
ru it
val ues
Ġfac ilities
g ate
l aw
ur a
OR T
ĠB oy
Ġun less
od er
ĠPol ice
Ġex change
Ġsy nt
Ġs ustain
Ġeffic ient
Ġrepresent ed
Ġar m
Ġhistor ical
Ġm yself
ĠJ o
rom e
Ġiss ued
stit ution
u an
S D
ec es
Ġfl ight
? ?
ollow ing
Ġle aving
P i
Ġhe at
Ġpro s
ograph ic
f s
& &
d r
Ġs quare
Ġf an
Ġbuild ings
at tr
Ġth r
ĠH aw
he ma
ĠI ss
Ġcandid ate
f ont
Ġc row
Ġfl at
sc ape
ĠJust ice
Ġstand ards
ĠW ater
Ġl i
Ġdiffer ences
Ġfund s
ĠF oot
er ies
art s
Post ed
Ġerr ors
Ġapp arent
Â ©
ov id
res ponse
Ġg un
el er
ĠFor ce
Ġsom ew
Ġdec ades
Ġj ourney
ĠS and
Out put
ov es
Ġnuc lear
l s
Ġt rou
} -\
Ġcont aining
Ġt end
Ab out
Ġdri ver
Ġpl ane
Ġcont ribution
O pen
Ġl abor
Ġf resh
the n
line ar
urb an
Ġc ars
ĠB as
Ġw ish
v space
Ġfocus ed
ĠCath olic
__ __
Ġ- \
ĠB ob
ĠOr gan
Acc ording
en umerate
ĠA mazon
sh ow
Ġp hen
Ġexecut ive
M ay
Ġimport ance
ĠO R
ĠIntern et
( &
N e
Ġcom fort
ER T
od cast
V AL
it ely
Ġcr ime
F T
Ġconf irmed
Ġrout e
Ġd ivid
oin ter
Ġf if
Ġrel atively
> >
al o
Ġl ibrary
AN D
ã ĥ
oth ing
Ġslight ly
ĠC A
Ġdriv ing
H istory
anc er
Ġcover ed
St yle
atal og
mult icol
Ġtra ffic
ĠJ es
Ġn or
ĠSp ring
ĠM a
Ġcent re
Ġst reet
Ġsp aces
ĠF ederal
ex ample
Ġmeas ured
Ġexperim ent
L C
ĠA wards
Ġinteg r
om ial
Ġman if
Ġm ental
Ġl ived
w p
nav bar
Ġpolit ics
t ag
Fil ter
Ġsee ing
Ġun iform
199 1
Ġthan k
Ġgu arant
c a
ĠE nergy
est ed
re ct
In it
un it
ĠH or
ĠEx t
edd ing
old er
ool s
ĠAP I
ĠSc ot
Ġcl ick
Ġst orage
j pg
Ġanim als
Ġsc ript
ac ific
Ġdist inct
fil ter
à ¥
Ġcam era
sc ope
Ġar bit
is ters
Ġmass ive
Ġar rang
flo at
Ġspe ak
Ġwin ning
it age
Ġprocess ing
multicol umn
ip al
ĠAn y
Ġspe ech
f ound
ĠB ecause
Ġdom in
ide os
Ġey e
au ge
Ġadvant age
Ġqu ery
C or
Ġcirc um
Ġre nder
Ġorigin ally
ĠM en
Ġthous ands
Ġex ternal
ĠPol it
Ġdepart ment
S y
ĠDes ign
}} _
O ther
ref ix
M ax
F ONT
og en
M O
Ġext ract
b ul
port ed
ict ed
Ġn odes
ĠR un
Ġdel ay
od ed
Ġfl ag
Ġmanag ed
ay lor
Ġgener ate
under line
ĠD own
ĠF ield
Ġstr ict
Ġexist ence
Ġw est
Add ress
maz ing
oper at
Ġb ed
Ġoper ators
Ġbehav i
//////// ////////
ĠC heck
Ġopin ion
raz il
pl ed
du ced
D P
U I
ri z
im b
ĠL ear
in v
the orem
Ġ url
Ġcl uster
// /
ry st
ĠS ar
Ġag reed
ult y
ĠAd minist
Ġadd ing
Ġincre ases
ĠCh ris
Ġhe ro
c hen
= >
ĠC y
het ic
Ġstart s
ĠW rit
ĠD E
Ġd ig
Ġgu itar
Ġsh ut
Ġdet ailed
n orm
g raph
ĠCarol ina
ES S
ĠJ on
Ġed ition
Ġd u
Ġim press
sec ut
Ġco ast
Se lect
% %
D ec
Ġoff set
Ġtri p
Ġin fe
L A
ik i
Ġflo or
ian a
ĠRec ords
Ġn ative
Ġconcern s
Ġhouse hold
item ize
Ġdistribut ed
ann els
ĠM iddle
ost on
1 20
Ġ( "
Ġw arm
operat orn
st ack
erson al
ĠMus lim
Ġr ich
Ġv ision
ĠH ospital
Ġt error
ĠW al
ĠA R
Ġexpress ed
Ġp an
Ġem ot
ĠInd ust
ĠIt aly
M on
ict ures
Ġt un
appro x
Ġcall back
com es
Ġare n
ain ts
Ġg ain
Ġconduct ed
ĠF ire
Ġsc ope
B U
Ġa ircraft
prot otype
Ġv ac
et ch
ĠD ate
up date
Ġaff ected
ak istan
] \
ern el
Ġfeel ing
ĠJ eff
Ġc os
Ġbe at
ic ity
Ġpur poses
ĠC oll
C ase
Ġclass ical
Ġknow s
Ġyou th
Ġtyp ically
up s
Comm and
Ġexperim ents
ĠSecret ary
operatorn ame
Ġtechn iques
uss ian
Ġnumer ous
th on
am ental
Ġfavor ite
a fter
S H
ĠOr der
ĠL o
Ġyour self
Ġexpl ain
ĠL ike
Ġoffic ers
Ġrepl aced
Ġcontinu ous
Ġpos itions
Ġdoc uments
Ġf ant
uck y
Ġre b
Ġn ine
Ġ ur
Ġdown load
) }{
Ġal t
ed u
ĠL ast
Ġm aps
au g
Ġbel ie
Ġexpl ained
z en
Ġproced ure
ell er
Ġis ol
ef ined
ig er
od d
Ġd ie
ĠL uc
and on
Ġaccur acy
ph as
Ġpract ices
ĠCol or
Ġf re
Ġsett ings
IN E
Ġg rav
ĠTr ust
ĠL iber
j a
ind s
Ġupd ated
ĠN OT
u int
Ġin equ
Ġl ab
P T
Ġelect ed
Ġpl us
d es
S O
ĠIt alian
ag raph
Ġfil ed
Ġ* *
ĠP op
ĠPh ys
h ow
Ġfound ed
Ġoffer ing
Ġp aint
N O
Ġdatas et
Ġphot o
Ġch air
Ġextrem ely
param s
Ġdec isions
bt n
ac le
ĠT H
sc r
y e
Ġcl ients
Ġattack s
Ġchang ing
Ġded icated
Ġag ency
Ġveloc ity
ist ration
AL L
Ġmus ical
Ġpe ak
Ġm ist
ĠWilliam s
un ately
B I
ap se
Ġmark eting
) }$
Ġw ww
Ġle ague
Ġform ation
S m
ĠHam ilton
Ġ il
h ar
Ġmin im
ad ing
p op
Ġp il
B ook
Ġo dd
ĠH T
Val id
c over
Ġp ure
Ġgu y
Ġw itness
Ġgu ide
ĠE ll
M ode
Ġcomm ission
ĠB oth
Ġtr uly
Ġthe rm
Ġth read
rou d
r ical
L ength
Ġe ast
Ġcall ing
ĠT em
ĠN S
ĠK ar
Ġregister ed
ym met
Ġwould n
$ }
it ory
Ġrec over
fr ame
ĠB ow
ĠH istor
ER R
gy pt
r ich
Ġder ived
ĠW all
t ask
Ġdef end
Ġnot es
ĠM ike
ĠHen ry
Ġsim pl
Ġun iversity
Ġadv ice
if fer
Ġdef ense
C ON
19 60
Up date
Ġexper iences
ĠSp anish
Ġit er
aw a
Ġcustom er
asc ript
Ġcons ists
Ġdat abase
ĠS ports
og rap
ĠC ard
T em
Ġ ice
Ġm yst
Ġthan ks
asket ball
el se
Ġallow ing
Ġn ice
Ġun known
Ġcre w
Ġcon vert
return s
ian o
Ġfore st
ĠF ood
in ity
A ccess
List ener
ĠRe al
ĠG a
Ġsh ock
Ġal gebra
Ġhapp ens
Ġjust ice
ĠC H
Ġin fo
Ġex pos
ĠSt r
ĠStud ies
t urb
iven ess
Ġp ackage
in et
Ġpartners hip
Cont roller
P at
| |
tt p
Ġs ale
ĠAnd rew
ann ot
ple t
Ġk ing
ans as
st d
ar ian
ob s
Ġbal ance
m es
Ġappro aches
p ool
Ġh ydro
m ond
Ġtell s
ol es
{ {
pos ite
ĠL i
g le
ro t
Ġm olec
ress ion
rem ove
f a
Ġ< !--
P D
ĠA D
Ġint ended
ĠĠĠĠĠĠĠĠ ĠĠĠĠĊ
at i
Ġpre par
198 9
ĠA ud
Ġmet ric
Ġman ner
F R
ĠN et
Ġchem ical
Ġpol y
ars er
h or
Ġ[ ]
ĠChar l
sh ould
m osp
Ġobserv ations
D ev
. ;
Ġse gment
Col umn
ab eth
ĠC ross
Ġf uel
Ġp p
Ġdiscover ed
Ġseem ed
Ġvacc ine
ĠJose ph
Ġhel ps
Ġass ign
r s
F igure
. âĢĻ
Ġlist en
Ġmet al
Ġcover age
ĠCol umb
Ġn arr
ors hip
R L
T arget
ĠĠĠ Ċ
ly wood
ĠOn line
im ately
al i
Ġcomm itted
m ann
UR L
Ġk ill
ĠL ine
ĠT O
P ort
ty p
Ġint r
ĠFrancis co
M ark
Ġrefer red
Ġcontribut ions
Ġpost ed
ecut ive
Ġs plit
Ġ à¤
Ġapp rec
ĠIn it
ĠBl ue
Ġadv oc
ĠEx per
ra wn
) +
Ġdep ends
Ġauthor ity
ĠCL ASS
A re
ĠJew ish
Ġexperim ental
os c
Ġsub stant
Ġhelp ing
Ĥ ¬
R ow
Ġs port
Ġm ixed
ĠC ode
C ache
Ġdet ection
Ġre form
Ġscient ific
F O
Ġder iv
ĠW ild
ĠII I
Ġsc hedul
C al
Ã ¢
v a
\ ,\
ĠRepublic an
Ġfac ility
ĠSp ace
force ment
Ġhigh light
S l
S L
r id
Ġloc ations
\ "
s ign
ĠF ile
ĠM ap
d esc
Ġhom es
ĠN ight
l ayout
ĠL ive
it an
ob e
us es
M en
tr ack
ord ers
Ġcur ve
! âĢĿ
et ry
Ġveh icles
$ (
or al
n am
Ġj ump
Ġb urn
gr ade
T ypes
Ġfeature d
Ġret ail
ĠV an
\ }$
In st
Ġpr ices
c oh
Ġacad emic
ĠM icrosoft
O p
ut ch
Ġrem ained
ĠM ethod
Ġsp ring
ĠM ot
Ġprof ession
comm on
ĠA ction
Ġs qu
ath an
ĠCon ference
Ġdynam ics
ĠM P
Ġe igen
Ġform al
se ct
W ill
Ġcar bon
ĠEn vironment
Ġannoun ce
ast e
Ġcre ation
ĠSc iences
ost er
ĠBrit ain
ĠL ab
M D
Ġmark ets
Ġinj ury
Ġhe nce
Ġis land
v ol
Ġtre ated
Ġcy cle
Ġ icon
Ġd raft
Ġsub sc
ĠH REF
Ġsub s
Ġredu ction
ad ium
Ġturn s
ĠR ail
ĠP age
ĠOn ly
ĠJ ac
Ġ! ==
ĠG ener
Ġle aves
ot ing
d eg
Q L
Ġgu ess
Ġgirl s
ul ating
Ġinsp ired
ĠĠĠĠĠĠĠĠĠĠĠĠĠĠĠĠ ĠĠĠĠĠĠĠĠĠĠĠĠĠĠĠĠĠĠĠ
Pro vider
men u
ĠP y
j ust
Ġconsider ing
**************** ****************
Ġsc al
u ing
Ġfr ag
Ġimpro ved
Ġach ieved
Ġem phas
ĠMod el
Ġprot ocol
ĠT oday
Ġsp end
Ġinstit utions
Ġarchitect ure
Ġhe aring
Ġsupport ing
} '
U rl
Ġdel ivery
Ġl oved
co pe
ð Ł
act or
ĠProfess or
enc ing
ĠW he
Ġadv ance
w ater
Ġind eed
ĠAd v
Ġs an
Ġ _{
Ġ$\ {
Ġdem ocr
M ENT
Ġf le
M T
i ated
ĠL ink
\ '
at ial
re nder
Ġob j
ell ar
iz ont
) /
ĠDemocr atic
Ġappear ance
C urrent
ĠM A
ap ed
ĠT ele
p et
um s
st one
Ġdis s
ĠMich igan
Ġa cknow
ap es
: </
25 0
ĠH y
ap pe
ident ial
Ġh ab
CO L
r idge
ak a
Ġact or
is er
Ġpol ar
text tt
o om
6 00
Ġ\ |
ra q
i ples
Ġhous ing
Ġmar riage
Ġf ashion
Ġinterest s
But ton
igh ter
ud den
in stance
Ch ild
M E
Ġs am
const ruct
ition ally
Ġrec all
ĠW alk
ĠMed icine
Ġs leep
ĠK en
Ġincre d
Ġreg ional
TY PE
R ight
f aces
}} }
Ġpartic les
h igh
in f
Ġb ond
U B
w an
198 8
us hed
Ġmot iv
M ed
on ym
ĠDan iel
Ġpurch ase
AP I
Ġgl ass
ĠS outhern
Ġr ing
Ġnew sp
Ġplan et
T ags
Ġher self
Ġexcell ent
Ġcalc ulated
c at
ĠPar liament
off set
L P
R I
ĠJack son
rodu ction
Ġbr anch
Ġcomp are
in ations
ĠH on
Ġsugg ests
f riend
con f
S ign
Ġcomp act
Ġdou bt
ĠGeorg ia
Ġin ner
c uss
UL T
ĠP oint
D ep
Ġappoint ed
a ver
ual ity
D own
requ ire
Ġord ers
Ġspec ifically
Ġclass ic
Ġreview s
ĠN orthern
u ous
ĠW at
ff ect
Ġre ject
ĠP C
ve ctor
ig in
Ġk id
- $
d el
Ġbel ieved
Ġconst rain
Ġpl ants
Ġc old
j o
S earch
Ġresear chers
Ġexpl ore
Ġmov ies
Ġpers pective
Ġco al
' ).
ir a
Ġsuggest ed
Ġbuff er
ĠB ase
bl ack
Ġte aching
ĠD C
k it
J ust
L ocation
Ġwe ather
j i
++ )
ĠA f
d rop
Ġr an
iction ary
Ġbeg ins
Ġbel ief
ĠC ivil
Ġen able
< ?
t ree
c ard
al g
c ut
end ar
Ġu int
el ly
eng er
Ġform ula
Ġv ary
load s
Ġweek end
ĠGu ide
ã Ĥ
Fr ame
iss ions
Ġa mazing
Cont ainer
Ġg ap
ĠP lease
Ġfig ures
Ġauthor ities
Ġab use
8 00
ix el
Ġr ough
Ġter rit
ĠM id
: "
Ġcount y
Ġcharg es
O K
Ġel im
Ġh air
angu ages
refer ence
Ġc ash
ĠP akistan
Ġth ick
L ocal
Ġin frastructure
Ġb right
Ġprep ared
Ġf ellow
rop y
ne ctions
Ġsc atter
ĠR am
Ġtask s
ird s
im er
ĠReturn s
ĠHar ris
Ġappro ved
hem at
ĠH and
Ġf lex
Ġbel ong
Ġse at
Ġown ed
Ġent ered
B o
. /
ĠB oston
Ġarbit r
iz abeth
Ġrelationship s
ren cy
Ġf ont
ĠDon ald
Ġexperi enced
Ent ry
Ġcandid ates
ĠF ar
ĠT erm
Ġbroad cast
s en
ad or
Ġmot or
Ġind epend
og y
ro ot
Ġun ion
Ġaward ed
ick ets
Ġdi agram
AC K
ew idth
Ġcl ust
tem plate
ript or
q l
ĠO k
Ġaspect s
ĠS ign
Ġwatch ing
il ly
ĠB razil
ĠCo ast
Ġclaim ed
Ġg ender
( [
Ġbring s
ĠM ult
Ġus ual
poss ible
J an
el i
198 7
Ġcreat ive
ĠP ass
ĠE gypt
Ġsup posed
Ġf ell
ĠBe ach
ĠS ep
~ $
Ġconst r
Ġadminist r
Ġadv anced
Ġcol lected
b an
b al
jav ascript
Ġinc ident
Ġre pro
ĠR equ
Ġelect ron
Ser ver
ĠE nt
ĠÂ ©
Ġtre es
Ġst ations
Ġemer gency
Ġcharg ed
Ġact s
Ġtyp ical
r an
ĠP rem
ĠJ r
An y
The ta
mat rix
new s
W idth
st ep
Ġst able
ĠD igital
L ayout
ĠE vent
Ġl ies
Ġent ertain
Ġstud io
Ġmat ches
miss ions
Ġdefin itely
Ġanc ient
ear s
Ġparticip ants
Or der
Ġad vent
p resent
E v
Ġneighbor hood
ur er
Ġmain ly
Ġinvol ve
w rap
min us
ourn ament
Ġp un
x x
se cond
Ġwh atever
Â °
ĠI P
Ġl en
ev in
ĉ ĠĠĠ
ĠL ight
Ġs ister
Ġfind s
Ġeffic iency
Ġdiv ision
van ia
Ġentire ly
Ġaccept ed
sh ot
Ġ rom
Ġ( -
ott ed
-- -
k o
Ġcont ained
ĠIr ish
ic ing
i able
Ġvict ory
= {
ist ent
Ġestim ates
Ġs ides
int on
Ġthem e
ly n
Ġide al
Ġend s
ĠP an
Ġwa iting
M ult
s pe
er g
Ġpass ion
ĠMc C
Ġrespons ibility
Ġt ro
b ury
Ġcaus es
Ġrem ark
Ġad m
Ġr ain
ĠMore over
ĠP acific
ĠM aster
Sc ript
ĠM ov
ĠF ed
1 10
ul ner
Pro cess
ĠFoot ball
Ġposs ibly
Ġpartic le
Ġsym pt
Param eter
Ġkeep ing
ut ely
ud es
X X
( _
Ġindic ate
ĠRad io
b el
Ġfe at
Ġhot el
ir ty
ĠSup reme
Ġw rap
yn omial
Ġh idden
d irect
Ġrec ording
Ġintrodu ce
cont in
Config uration
Ġtr ained
let s
Ġb an
ĠCh air
ĠBro ok
ad el
Ġap art
Ġvol unte
av or
ĠG al
u zz
Ġalleg ed
ĠC ur
D O
an es
Ġthe ore
im ages
E ar
b as
Ġsh ares
Ġhold ing
ins on
s d
ĠT er
ĠAg ain
Ġw arn
N on
A c
Inter face
ist ical
ad s
Ġpro port
Ġact ing
Ġcrow d
Ġsk in
ont o
os a
ĠG irl
ĠQue en
Ġv ent
Ġsol ar
ĠSte ve
Ġre tain
Ġan imal
ĠS af
M at
Ġstat ements
ant ly
Ġtrans formation
Ġsec ure
ĠThe atre
Ġmess ages
198 6
erv ative
text rm
Ġsur g
is c
ĠC ON
ish op
Ġat mosp
op her
ion e
ĠĠĠĠĠĠĠĠĠĠĠĠĠĠĠĠ ĠĠĠĠĠ
izont al
ĠBook s
d x
R C
Ġmed ium
ov a
âĢĻ ,
Ġwe alth
Ġmoment um
ĠA ge
`` `
Ġdynam ic
ĠN umber
ĠK im
riev ed
o ir
Ġgu ys
Ġconc ert
Ġang le
IN T
Ġwid ely
ĠCh ildren
Ġwrit ers
Ġins urance
Ġarriv ed
D uring
Ġpl anned
Ġphen omen
ĠC reate
math scr
lin ewidth
k rain
im a
sh ift
Ġcomm ittee
() ->
d ocument
Ġd ance
Ġserv ing
D I
if ts
Z E
Ġob ser
IG N
back ground
Ġcon ven
Ġconcern ed
Ġrem ote
Ġopt imal
Ġc ouncil
Ġprop ag
St at
}^{ -
pt on
Ġstrong ly
form ance
ĠI raq
res ource
Ġfl ux
Ø §
empt y
ĠL ook
ĠA ccess
Ġp riv
k m
ĠT w
Pro ject
Ġth reshold
se ud
Ġthe orem
ĠL ittle
$ _
ĠSe a
ĠSup port
Ġoccur red
Ġtem plate
ĠM u
ess ions
Ġ era
Ġexper ts
ĠO N
Ġread ers
ĠSp ain
ent ity
ĠCom put
ul f
Ġext ent
. '
ĠR ele
sy l
gorith ms
Ġm ent
_{ (
d epend
Ġfund amental
Ġri ver
Ġtrack s
ir ms
Ġpi eces
âĢĻ .
ĠI T
s cal
ĠCont rol
198 4
V D
M r
osoph y
foot note
Ġmeasure ments
Ġp ool
omet ric
ĠE mp
Ġor ient
Ġconf irm
im ation
ĠT aylor
ino is
ĠL ocal
Ġfav our
ĠN on
Ġflo at
Ġdeg rees
Ġf ra
Ġp rivacy
ĠJer sey
Ġinstr ument
Ġin n
Ġacc ident
AG E
Ġlarg ely
ak ed
Ġcorn er
Ġlim its
Ġconf idence
ĠOh io
w orld
ĠSt ory
ĠAr ray
ent h
r ant
att ice
Ġse ctions
il ation
Ġg auge
Ġcomp re
s ol
ce ived
pro d
if er
Ġdom estic
Ġsound s
Ġh aven
ĠSe ason
ĠPh ot
Ġfin ish
bur gh
Ġinter actions
pr ise
ĠD ou
Ġem ission
align ed
ĠF our
ĠÂ ·
Ġrece iving
W E
Ġpay ment
Ġm ort
ent er
b ool
Ġeas ier
co in
opl us
ĠR ay
ograp her
ĠEx ecutive
Ġk ick
Ġeval uation
m atch
T wo
ĠC ase
ĠW in
Ġintern et
L ong
Ġsing er
m ic
Ġabs or
{ $
P M
Ġl it
Ġg rew
Ġaff ord
ĠC irc
ĠD ar
Ġrepe ated
Ġcook ies
198 5
Ġtrans action
Ġorder ed
? "
he ast
D R
Ġphot os
ens es
in ate
Ġexc ited
Ġindust rial
ĠV ideo
ĠB ern
c f
mod els
subset eq
Ġsecond s
ĠSt an
c ases
Ġmag azine
Ġt or
Ġtest ed
Ġdep ending
ĠF red
< \
ĠG i
Ġfor t
Ġest ate
Ġdeb ate
Ġtw ice
ĠA L
omorph ism
Ġfight ing
Ġgreat est
Ġdec ade
Ġatt orney
ĠK h
or ough
Ġreg ime
ĠK n
as ters
Ġcor porate
Ġpar allel
Ġneg ot
eg o
ĠR est
ĠB rad
' .
Ġtop ic
ĠR om
oper ation
Ġro les
Ġarg s
Head er
Ġposs ibility
ĠH om
oun sel
ĠC amb
G E
}} ,
ab il
syl vania
Ġv oc
pre ne
Ġeven ing
ĠEngine ering
G A
Ġto w
O b
par se
Ġreg ul
Ġadopt ed
ct x
l ik
Ð »
ĠSo ft
Off set
Ġv ideos
v in
Ġabsol ute
Ġsh aring
ĉ Ġ
] );
Ġread er
ĠR en
b uffer
ĠPr ime
Ġl icense
ex ec
ra ham
Ġag ents
Ġtechn ologies
Ġrepl ace
Ġs pl
ro vers
Ġc er
ĠSw ed
Ġprov ed
New s
ĠW atch
n ap
A Y
Ġd ress
ĠL td
Le vel
ĠN ext
Ġre action
Ġsuccess fully
P H
Ġinit ially
ĠBro ad
wh ite
ĠAs sembly
A uthor
Ġg ather
Ġinstit ution
Ġman age
T ree
re prene
Ġindic ates
Ġto ken
S M
Th read
amp ion
ĠT ri
um es
ynch ron
ĠS us
Ġmom ents
ap ore
Ġsu c
= -
Cont rol
el a
Ġstrateg ies
ĠB ang
}} _{
ĠSum mer
Ġocc urs
Ġf ish
rupt ion
ĠC ovid
Ġmat ters
fort unately
Ġper man
Ġconstrain ts
ple x
k ind
Ġfe els
Ġwor se
Ġv en
erv es
Ġf raction
Ã³ n
ynam ic
Ġdeliver ed
ĠTr ue
cont rol
B undle
ĠB ul
= (
Ġp roud
ist ed
ĠMark et
ann er
Ġbring ing
red it
Ġfamil iar
ĠE th
D C
Ġs oul
U RE
19 50
ĠW is
Ġaccount s
call ed
ĠH a
ĠTh ree
all ow
Ġengine ering
L a
ĠO l
Ġm ir
ĠN ame
Ġb atter
sub figure
Ġint elligence
c ache
Ġblock s
ĠAss ert
G en
ĠW indows
br id
Ġ{ }
ĠS pec
Ġelect ronic
ĠM ah
D at
Ġp al
Ġwill ing
mer ce
ell i
Ġch annels
Ġf ill
Ġcapt ure
Ġpen al
Ġaccur ate
Ġlo op
_ +
ĠF ox
Ġsupport s
ĠKore a
Ġl ose
w s
Ġsymmet ry
ial ize
e z
ell o
il a
ĠU sing
ĠWil son
ĠF air
Mod ule
Ġc as
Ġclos er
ER S
) |
Ġatt ribute
E ach
Ġaud io
ĠL u
d est
ĠO x
b ro
i ary
p erson
V er
Ġa id
Ġconstruct ed
Util s
ĠC ustom
Ġcorre lation
Ġs ac
Ġupd ates
ĠF ull
it led
ĠK enn
s ystem
_ *
Ġ urban
: \
Ġsp ending
ann a
ĉĉ Ċ
e ah
Ġl iqu
Ġre new
Ġsp ons
ĠS ir
ic ial
IT Y
Ġf illed
ĠScot land
W rite
Ġp ray
ĠD aily
n eg
Ġs udden
Ġpattern s
am ber
B est
D escription
E very
Res ults
ĠAs ian
Ġimplement ed
Ġins ert
Ġcomp ute
Ġdrug s
av id
* {
enn is
Ġassess ment
ĠTh rough
ĠS om
Ġre nt
ar c
Ġsub set
it ivity
Ġcol on
con nect
ĠAn other
Ġjud ge
Ġac comp
hens ive
Ġsuc ceed
Call back
Ġbo ost
k ing
ĠK ent
l anguage
ad er
h av
O ption
ĠH ard
Ġ$ |
R ange
Ġrecogn ized
l ers
Ġ\ ;
Ġhum ans
Ġvers ions
W indow
Ġrad ius
ĠCar l
à ¸
ari able
Ġp owers
Ġhealth y
do i
Ġreport ing
G R
Ġwor st
,\ ,
N one
Ġassum ed
Ġtr igger
set minus
aw n
st yles
Ã ¨
Ġele ctions
ĠOn ce
Ġbro ken
ĠK ong
ĠGu ard
ĠH ence
def inition
Ġcirc le
w a
f ast
Ġcons umer
ac cess
Ġg ar
Ġprom ote
S u
Ġstand ing
ip eline
Ġconvers ation
ff ee
ĠS aint
Ġc aught
Ġprodu cer
Ġs and
Ġear n
ĠG reek
Par ams
Ġmark ed
Ġbut ton
Q ue
Ġinvol ving
Ġ( $\
p an
Ġpass ing
Ġm and
ĠA T
ĠReg ister
p a
ĠP rivacy
Ġclos ely
Ġexpl an
N AME
Ġvis ible
Ġgr id
Ġassum ption
ist ant
A F
Ġ ing
Ġrec overy
s es
ĠC re
ĠW ales
Ġc art
ĠEX P
Ð º
out e
t ic
Ġseek ing
Ġask ing
og ether
ĠH un
Ġhon or
Ġhe av
Cl ick
Ġdis pl
Ġfunction al
M B
10 1
ific ate
umn i
Ġalbum s
Ġrec ip
ĠP ay
f old
Ġeffect ively
Ġhon est
Ġn ut
ab et
B efore
Ġm useum
Ġext end
Ġprim arily
S um
T ube
Em pty
ĠL ew
ic ious
ain e
ĠC ook
Ġon going
Ġdist ingu
% ,
Ġvert ex
Ġclass ification
Ġstat istics
Ġre venue
ym pt
Ġwin ner
Ġrelig ion
G C
Ã §
Se ction
Ġsign s
J son
u id
Ġpol ynomial
Ġexerc ise
ĠL atin
ĠSt art
Ġfind ings
med ia
Ġv ulner
ord an
Ġdescrib es
m o
coh ol
Ġhundred s
' ),
in er
Ġt on
Ġsim ulation
ru ctions
Ġunder st
d agger
Un it
Ġworld wide
Ġmod ified
Ġed ges
\ }
Ġassoci ation
end ment
Ġsc ored
Pre vious
est ion
ĠL y
Ġatt ended
Ġrecogn ition
Ġsem i
Ġar my
param eter
Ġdo ctor
Ġcircum stances
An other
198 3
ĠM O
ĠE st
z ero
Ġdeb t
Ġz one
I X
Ġapproxim ation
Ġm el
ĠS her
Ġserv es
ps on
f ol
ten ance
Ġag encies
ĠS at
Ġteacher s
ĠIll inois
Ġsurround ing
Î ±
ĠAdminist ration
Ġres id
ĠEl izabeth
D D
Ġexpos ure
Al though
Ġport ion
Ġs outhern
ĠW here
L oc
ĠJes us
ĠR og
Ġprote in
Ġapplic able
Ch ange
ĠPenn sylvania
ro g
le ments
j e
Ġd iverse
riv ial
ow nt
gl obal
Ġprinc iple
Oper ation
ri ver
ĠN av
Rec ord
Ġl ie
ĠP rom
ĠE N
Ġtherap y
te en
Ġstand s
Ġsol ve
su ccess
Ġsecond ary
L iving
ock ey
Ent ity
v as
Ġ iron
Ġput ting
Ġperform ing
........ ........
198 2
ĠK now
r at
Ġinequ ality
i y
en ess
" ))
o es
ĠR ight
Ġpart ial
ĠAn th
ĠS E
class es
ĠFin ally
Ġad ults
Ġnumer ical
ĠM ajor
Ġinteg ral
Ġent ity
eng ers
Ġtechn ique
ĠL abor
D ocument
is a
u able
ure au
he rent
Ġstop ped
ĠComm on
Ġobject ive
Ġprogram me
ĠCor poration
Ġm unicip
su it
Ġprofess or
field s
Ġe cho
y ers
ĠA sh
W orld
OR D
Ġdec ay
B R
Ġv eter
Ġa thlet
art ifact
ur d
ĠU krain
Ġwin ter
v ard
Ġ* )
g a
ĠB ol
Ġlink ed
ĠS uch
Ġass ets
Ġdisc rim
as i
d f
Ġsim ulations
plic ated
Ġreason able
Ġcont rolled
Ġtrans mission
Ġassist ance
Ġar ms
el lect
sh all
Ġunder lying
w edge
ĠCl in
lim its
out s
g ers
ĠAir port
Ġcollabor ation
ST R
ĠC ost
Ġpers ons
w ing
Ġcont emporary
Ġn orthern
Pos ition
i pe
ov iet
m ode
Refer ence
Ġ ::
Ġh ole
Ġcamp us
Ġscient ists
Ġch apter
ach ine
Ġper turb
ĠE astern
AT A
Ġp airs
V ol
f iles
Ġpro min
="../../../../ ../
Ġgu ard
Ġspe aking
W here
Ġar ts
Ġn arrow
Ġb inary
point s
Ġsk y
Ġhous es
k et
Ġs we
Ġenh ance
od s
Ġbound ed
Ġdec ide
he red
^{ -\
Ġpract ical
ĠF inal
Ġlegis lation
Ġt ight
Ġsch olar
Ġcommit ment
w orth
ĠMin istry
Ġgalax ies
eff ect
Ġalong side
l ights
i ro
ĠN avy
Ġal gorithms
ĠL ie
p ay
Ġb odies
ffic ients
Ġappe al
Ġthought s
Ġd ual
ĠSt aff
Ġt ensor
Ġex ceed
P ass
c ert
_{ {\
Ġc ategories
St ep
Ġr ig
Ġmeasure ment
ĠCl ark
Ġear ned
ĠAd am
Ġdram a
F ound
Ġrestrict ions
ock s
Ġres erved
Ġsub t
He ight
> ,
Ġcomp ens
AC T
r ons
olog ist
Ġpublic ation
ar ters
Ġrepresent ing
Ġst orm
ĠS ite
Ġd ro
G ET
W ell
Ġmin ister
Ġag ric
ĠPr ince
Ġp ed
ack et
Ġcontain er
H ost
ĠS P
D T
Ġfact s
Ġ> =
Ġmod es
Ġex clud
D L
Set tings
U se
hold er
Ġm al
Ġaccom pl
big g
Ġdanger ous
n ic
Pro t
em on
Ġinteg er
Ġass igned
ĠV ill
ib ilities
Ġtr uck
Ġcou pling
Ġpost s
og ene
iss ue
Ġult imately
Ġop posite
ĠM att
Ġsche dule
Ġe at
=" -
ĠBl og
ĠInst ead
ĠB ell
Ġhistor ic
ĠN C
ĠS on
w indow
Ġbr idge
ĉĉĉĉ ĉĉĉ
Ġun able
c i
Ġcon vent
ĠM ake
or gan
Ġext ensive
Ġ$ [
Ġnear by
r ine
Ġparam s
j u
Ġa wards
Ġfor g
ĠM ic
Ġpr ime
197 9
Ġsympt oms
R S
Ġcorrespond s
s v
Ġv irt
St ud
om y
it als
aw s
adel ph
R ed
dev ice
ĠPh oto
CO DE
ĠS C
Ġlegis l
Ġnecess arily
Se cond
Ġgrant ed
Ġf aster
b u
Ġl icens
Ġdis k
Ġal ter
l ow
b efore
ers hip
12 8
Ġe c
Ġgood s
ĠEx ception
c oll
ĠM ath
ok ing
f ull
Ġw aves
Ġst ores
Ġf iction
id get
ĠAre a
Ġweap ons
Ġpotential ly
Ġacc ord
for all
Ġprov ider
typ es
Con nection
Ġnew ly
Ġvictim s
U nder
P op
Ġad ult
st op
adelph ia
ms g
ĠĠĠĠĠĠĠĠĠĠĠĠĠĠĠĠ ĠĠĠĠ
Ġlay ers
Ġinteg ration
act s
Ġindic ated
h ol
Ġact ors
ĠOffic er
Ser ial
ĠC at
s end
Ġbehavi our
Ġreg ulations
Ġf at
yd ney
M ost
ĠA S
c p
ĠH as
Ġeduc ational
se x
ĠR od
Ġcharacter istics
Ġmov es
Ġl anguages
Ġrel ax
ĠR on
Ġte en
ĠFin ancial
T A
Ġb ow
EN D
H ash
ĠH ong
ivers ary
st rap
Pro perties
Ġinter val
t oken
Ġover ride
Ġfac ilit
en um
ind u
198 1
ab b
it ative
ag ues
hold ers
Ġwhere as
ĠPal est
h s
Ġele v
ul us
ĠB on
Ġm il
Ġsp oke
ä ¸
), \
Ġdrop ped
or i
Ġmill ions
Ġp it
qu ir
Ġtalk s
equ al
ĠF ord
Ġst ack
Hel per
Ġincreasing ly
Ġvisit ors
Ġwel come
st ore
Ġac id
ĠColumb ia
U P
Ġfeed back
Ġfeat uring
On ly
t ml
se curity
M any
25 5
Ġinvest ors
ï ¿
he et
are t
Ġscen ario
Ġsever e
Ġb ands
sh op
includ ing
ĠC P
ĠTor onto
util s
ĠA venue
put e
Ä ģ
y o
" =>
ĠR h
ĠHot el
Ġexpl o
h ash
app oint
S ing
Ġim possible
Ġsp atial
Ġap i
12 3
Ġobser ve
ĠF OR
ĠCount ry
Ġax is
Ġrestaur ant
Ġinteg rated
e en
F urther
_{ -
H ttp
iz z
Ġsatisf ies
D ir
Ġuncertain ty
Ġc e
Ġco vers
Ġmin ute
b ind
ĠDis ney
G O
Ġw ire
ĠPhil ipp
m ake
Ġm ac
K ind
g ov
Ġscen es
Ġcont rovers
Ġimprove ment
ĠHol lywood
Ġt ail
enn es
Ġse asons
ĠF re
Ġcomp ris
Ġm ob
Ġr ural
Ġde com
Ġcap able
Ġ| \
Ġeval uate
Ġc le
ĠDe ath
} %
ay a
ĠAnd roid
e h
Ġv ast
ĠU r
Ġconsum ers
Ġshoot ing
g ments
ap ol
Ġcon nections
ach ment
}} (\
P ublic
Ġschedul ed
Ġb aby
j oin
op ic
n i
ĠP ubl
end ix
ĠY es
: (
Ġc ache
ĠT urn
Ġvert ical
COL OR
ĠL O
Ġimmedi ate
Ġorgan ized
Ġc raft
ĠC ru
' \
ĠT ext
Ġsu it
it o
% .
ĠStep hen
s ur
Ġcomput ed
E q
st at
ĠV iet
Ph one
16 0
Ġrequ ests
b order
ĠF ac
Ġsup erv
P res
; ->
P lease
ro c
ĠSing apore
Ġautom atically
Ġarrest ed
Ġdi am
Ch rist
ĠW el
Ġprinc ipal
Ġh un
Ġd ialog
er ate
ou red
ĠM ember
Ġrisk s
Tr ack
s ession
Ġyoung er
ĠC orn
Ġfor th
Ġn ob
mult i
Ġb anks
Ġt elling
Ġinvestig ate
ĠPro te
Ġexpl ains
nes ota
Ġs ad
Ġall oc
ĠM ir
Ġres on
ĠPro position
and y
Ġintrodu ction
Ġabsol utely
ĠB a
Ġdoll ars
L eft
Ġcont ribute
o or
k es
Ġqu ad
Ġemploy ment
Hand le
Ġam plit
O h
Ġwe ar
Ġmin imal
ĠEmp ire
Sh ow
ï¿ ½
gh an
old s
Ġf ly
bl ue
Ġfrequ ently
Col lection
oot strap
Ġcy cl
im ary
ĠA I
ĠCol lection
in ating
St ore
am l
s or
ĠP ers
Ġcl ar
S N
Ġcom edy
h om
ĠN FL
H z
Ġaccom mod
Ġb asketball
cl ick
ĠM ill
IC E
Ġpre gn
Ph oto
ult ane
H igh
t ra
ĠU ser
Ġdivid ed
AC E
ĠN ick
() :
ir ation
ĠC R
f ire
Def inition
ĠAg ency
Ġemploy ee
D i
Ġwas te
writ er
igr ants
Ġint ent
ur i
Ġd iversity
Ġrob ust
Ġaut hent
S w
âĢ ī
Ġfac ing
Ġhas h
ar ation
fo o
ĠB ru
Ġsum mary
Ġ$ {
C ap
ĠSt ation
Ġacqu ired
Ġst ret
il ib
def ined
Ġd rawn
ip ped
Ġt ack
con sin
In tern
let ter
Ġout come
ĠD ark
Ġhealth care
Al so
ĠB efore
ĠDemocr ats
Ġsubsequ ent
Ġemot ional
Ġchalleng ing
As ync
Ġdistribut ions
Ġso le
t wo
Ġ\ (
oll ary
in ternal
Ġg ift
ĠO bs
r as
ester day
ĠT R
Ġenc ounter
Y es
AN T
ĠH ou
Ġinnov ation
ic ide
pro fit
ĠB BC
^ -
Ġb rowser
Ġf asc
ann y
Ġch art
S ession
c lear
Ġd ry
Ġs now
f all
Ġspect ral
ĠFurther more
r ices
b les
Ġde lete
N ational
sub subsection
ri um
F S
ĠCh ild
ach us
res ults
Ġst ability
text sc
Ġcontrol s
H ar
press ed
Ġocc asion
Ġp ictures
ĠO nt
Ġtal ent
am i
Ġl osing
ĠRep resent
un a
Ġben ch
Ġesc ape
Ġfil ename
let on
ĠD ead
ĠEx pl
Ġphot ograph
ĠW ars
ĠS anta
Ġlet ters
Ġnuc le
f n
Ġst im
et ts
for ward
S k
ag a
ĠCh ange
Ġproper ly
medi ate
Ġo k
ĠGover nor
tain ment
ĠDav is
Ġcon ve
M ain
Ġpres ents
artifact Id
ĠUn ivers
ip age
d ebug
Ġw estern
end a
Ġpropos al
T itle
Ġsu itable
Ġk it
Ġex cess
Ġarbitr ary
Ġvert ices
Ġl attice
Ġpred iction
1 30
Ġ ×
re ll
Ġsing ular
Ġ} \
ĠN ations
ĠB ad
Ġcoe fficients
d ict
ĠA k
Ġp apers
Ġt aught
Ġcommon ly
is ition
ĠB G
W ho
Ġext reme
Ġb g
ug ins
ĠCon f
Ġfor get
trans form
F ont
ĠB all
ip edia
ĠColor ado
Ġtem por
Ġt um
Ġres c
ĠV ice
iz on
et ary
Ġcons c
add ress
ĠEd ward
ĠB and
Ġsomew hat
ang ular
Ġend ing
Ġenjoy ed
Ġs elling
s uch
ĠF uture
197 8
Ġ riv
ail ing
ĠP ot
ĠE ric
Ġcon j
Ġepis odes
ĠYou Tube
Ġexc iting
B E
doc s
h u
k g
ĠMag azine
Ġse ats
min ipage
it is
re ement
per p
ĠPro cess
um a
Ġincor por
ad ed
H is
ĠN AS
Ġb ought
ĠD O
an th
por ters
Ġl at
" ));
Ġdecl ared
Ġopt ical
ap y
Ġc ab
li x
Ġrev olution
Ġunderst ood
Ġobserv ation
ĠPro duct
pro duct
ĠMan ager
=" _
Ġleg end
A ust
r ations
ĠBuild ing
ĠR os
h ard
ĠC ond
Ġr aw
Ġd ust
Ġrecomm ended
Ġinstall ed
] ]
em ail
st o
Ġne ither
ĠCap ital
ĠAcc ount
T ra
ribut ed
cl oud
Ġemploy ed
Ġg ene
Ġfe e
) }(
Ġplatform s
ĠV alue
ĠIm m
Ñ ĥ
Ġdet ected
o ices
Ġwonder ful
w ords
re q
Ġcrit eria
ĠC as
ick er
Ġcho ices
Ġadvert ising
t an
197 6
Ġhyp othes
Ġbre aking
f ocus
Ġsubject s
Î ¿
m i
Ġcomp at
ĠP en
ier arch
Ġexp ensive
clus ions
Ġexpand ed
ask a
ĠB attle
Ġoper ate
ĠG P
Ġrepresent ative
ĠSystem s
ĠB at
rib ed
iam i
F OR
Ġres istance
Ġsp an
a is
ort ion
Ġcover ing
ĠC ro
D om
ĠUp date
\! \!
Ġsc ores
ĠOx ford
in ite
ĠE mer
25 6
18 0
Ġtop ics
ar on
over ty
f i
ĠTh ose
R ad
do or
O ct
% ;
Ġpl enty
on al
ĠC hem
du ce
Ġboy s
t ics
Ġdriv en
A g
Ġst ored
Ġcon clusion
197 2
Ġappro val
AS E
ĠT y
ĠM iller
C opyright
Im pl
Ġcompos ition
Ġil legal
="../../../../ ../../
G eneral
197 5
Ġattempt s
Ġor b
m al
em an
ĠFore st
12 5
C ore
B en
Ġperform ances
Ġcan cell
H R
Ġshe l
ĠL ow
ik ipedia
Ġentertain ment
A v
ĠGr ant
y ard
Ġop position
Ġp ra
D avid
ater n
) {\
Ġab andon
Ġrad iation
Ġp adding
ĠS earch
Ġprom pt
Ġt ournament
Ġy es
achus etts
ĠCon nect
Ġcomplex ity
ĠD NA
Ġproced ures
ĠC reat
Ġund efined
Ġde ploy
N C
W S
Ġinfe ction
Ġm outh
am ely
Ġwalk ing
Ġad min
Ġstre ets
Ġbeaut y
reg on
y ou
Ġscal ar
Ġtit les
E Q
Ġl ots
================ ================
Ġf ol
RE S
sup port
Ġbelie ves
Ġte ch
ĠMod ern
Ġf aces
Ġtarget s
ĠP RO
Ġvot es
ul ator
Ġcur ves
i at
ĠL A
Ġk illing
ple ments
ERR OR
ĠT ax
Ġsur ve
Ġcop ies
anc hester
ĠV en
ov en
ĠP R
Ġr ide
ĠS oviet
Ġprogram ming
Ġact ress
is l
ĠInst agram
L ook
Ġwrit es
Ġsold iers
Ex pression
ĠB C
ĠR yan
Ġvot ers
b en
Ġtrans lation
ire ction
V E
Ġsign ature
ir k
IV E
ĠB rian
Ġcol le
ĠSoft ware
ok ed
197 7
T im
I ter
ĠP ath
ĠS i
ĠN O
Th us
D el
ĠE s
Ġprinc iples
an while
Ġqu iet
ĠC E
ĠI V
ire ment
! "
En c
EX T
Ġdes ire
y cl
col on
Int eger
d elete
or ry
ism s
Ġdim ensions
S ch
ell ite
Ġs yn
Ġt err
ĠSh ort
mon th
Ġover l
Ġtrad ition
put ation
Ġreli ef
Ġcompre hensive
ĠP ract
ĠTrans port
Ġb omb
ess ed
Ġmonitor ing
P tr
U sing
group Id
Ġcoordin ates
Ġel ig
Ġb in
cer ning
Con st
' _
ĠS ydney
ĠAuthor ity
ĠB al
ĠRes ources
ĠD am
ast s
Ġprom ise
Ġanaly z
Ġcru cial
Ġ+ \
Ġphys ics
ĠT al
p atch
Ġreturn ing
am il
Ġturn ing
Ġen forcement
U D
hand le
197 3
Ġdis appe
Fin ally
act ic
Ġdemonstr ate
ĠD un
ĠAff airs
Ġdepend ence
Ġgrow n
Ġc m
Ġsurpr ise
7 00
Ġout comes
B M
g reen
AT H
Ġpercent age
In s
ost ic
lo om
Ġdemonstr ated
197 4
pm atrix
Ġmiss ed
Ġkey s
Ġmor ph
c raft
Ġfac ulty
Ġper mission
ĠB O
Ġb ass
Ġsent ence
Ġparticip ate
ĠC opyright
Ġbig ger
Ġhol iday
P arent
Ġun iverse
Ġabs ence
Ġfif th
ĠPhil adelphia
M ich
F ind
b oy
ĠN ever
fr am
Ġset up
y es
Ġd uty
ĠC ulture
Ġacc eler
Ġyield s
ĠR ose
ĠPro t
Ġprior ity
AR Y
Ġacc used
el d
ĠAtt orney
Ġbi as
Ġs itting
ĠIm age
Ġ ðŁ
atur ally
it ol
bul let
Y our
ris on
ĠA li
ĠF ind
Ġ( '
is ode
Ġpredict ed
Ġdes ired
Ġexec ution
ĠB ush
riz ona
ellect ual
o vers
196 8
ĠN ig
ĠEd itor
ri ers
' ],
M R
Ġmeet ings
ĠDes pite
no on
b ell
Ġvers us
agon al
Ġprot est
Ġv ice
Ġsatisf y
Ġrefer ences
Ġcapt ured
Ġm it
un ct
ĠHar ry
Ġtw enty
Ġf estival
ak i
a uth
ro ke
eng ine
Â ®
l an
ĠVictor ia
( *
eli hood
pd ated
Ġhab it
Ġmatch ing
Ġse es
ĠAn alysis
ĠD om
es ides
ik a
V I
et ies
Ġass ault
Ġfound er
ub s
Ġadd s
Ġt ough
ĠSt ock
Ġpresent ation
Ġadv is
Ġhapp ening
i ot
e lect
Ġs ight
ang o
aw ay
ĠL ag
cl ip
Ġch ampionship
Ġh all
Ġag greg
U K
s ite
ern ame
ĠT ony
Ġtheore tical
fol io
V ideo
is ely
Ġnewsp aper
ĠT ake
m aking
âĢ ĭ
our se
Ġv ess
ĠL ady
Ġessential ly
Ġguid ance
Ġconsequ ences
ul pt
)\ ,
ĠJ ean
th ur
Ġse ed
ĠB ox
r ase
ĠD ream
C RE
F ull
Ġsurpr ising
Ġour selves
ar ia
ryst al
Ġrespons es
ĠJ enn
ick ing
Ġw ins
Ġg ate
Ġperson nel
Param eters
ow a
F alse
ov al
Ġvis ited
Ġir re
pl us
ĠOlymp ics
In valid
ĠH ay
ur is
gress ive
ĠR eb
H L
d ouble
i ations
Ġpre v
Ġland scape
og gle
Ġlabel s
ĠCon stitution
Ġt ab
and ra
Ġup coming
ĠEd ition
ĠMin nesota
ĠS em
ĠEconom ic
ĠSen ior
ĠS O
Ġapp lying
ad min
ag an
up loads
ĠCont in
ĠN eed
.~ (\
Nav Bar
Ġre ct
ch ain
", "
Ġuns igned
ym ph
ĠL iter
ĠF all
ĠSk y
ĠWis consin
Ġimag ine
Ġn amespace
Ġshe ll
pon ential
Ġ$ .
form s
Ġhor se
Ï Ħ
ĠĠĠĠĠĠĠĠĠĠĠĠĠĠĠĠĠĠĠĠĠĠĠĠĠĠĠĠĠĠĠĠ ĠĠĠĠĠĠĠ
Ġs ought
ins ert
ĠLew is
ĠPr inc
Ġc ards
ĠIs lands
Ġmanufact uring
Ġy ards
ĠEXP ECT
ilar ly
ateg or
ĠC rit
â Ĩ
Ġgu est
Ġst one
a ire
ile y
ĠFore ign
H as
Ġ{ };
Ġmount ain
RO M
N ames
Ġsol o
Ġsim ultane
{ $\
Ġresult ed
Ġre ward
Ġâ Ĩ
ist ing
com ponent
Ġ[ '
ĠInd ex
ĠC urrent
196 9
Ap plication
up le
Ġoptim ization
B ody
Men u
Ã ±
Ġconcent ration
Ġcompos ed
Ġb att
Ġl es
Ġtot ally
Ġbeh alf
mod al
ĠAlex ander
Ġacknow led
Ġhead er
Ġser ial
Go ogle
m c
ĠM arg
inem a
Ġd uration
ĠOnt ario
Ġmen u
Ġencour age
ĠT her
) ^{\
ĠJ am
styles heet
V ector
Ġexhib ition
Dev ice
Ġwar ning
t n
P ORT
âĢ¦ .
ĠR ome
Ġm apping
ct ic
clos ed
s ch
rib le
t ri
ĠT reat
Ġsus pect
Pl ay
ĠG reg
to String
Ġl ift
sh ort
Ġg iant
Ġanal og
ĠJ ordan
Ġatt ributes
Ġsuff ered
u v
Ġcontinu ing
Ġden otes
Ġmagn itude
Ġbre ath
197 1
F ree
ap h
r ays
Ġconsum ption
Ġa ver
al id
ĠU RL
rop ol
Ġfe es
clos ure
Ġconclud e
) _{
Ġprovid ers
Ġent r
ĠTe ch
Ġpoint ed
Ġeng aged
Ġsurg ery
Ġdis miss
ĠAf ghan
Ġinter act
N um
Ġinnov ative
Ġdisc overy
Ġstrugg le
ele ction
av el
ig ate
Ġdri vers
p ot
rate gy
Ġfra ud
ag en
ĠG allery
G P
Ġgovern ments
ific ial
Ġair port
ĠP ut
os ed
ĠY et
Ġliqu id
Ġtherm al
Ġst ood
Ġstat istical
ĠK at
Ġinv oke
Ġr ational
}^ *
Ġab und
sc ill
oc cer
Ġsustain able
ĠM D
ĠS N
A ug
t im
Ġcol our
h ang
Ġpl ate
c ers
Ġoper ated
ĠTh anks
p icture
ĠMass achusetts
ĠH o
Ġr id
ĠB udd
est yle
P o
Ġsign als
Ġinform ed
ĠH u
Ġab stract
Ġref uge
ĠTra vel
ĠPart ners
Ġdest ination
ĠMark eting
b ot
Ġw alls
equ als
Ġh its
Ġaccess ible
Ġx ml
Un iversity
h us
ub ble
Ġus age
Er r
er k
Ġcomb at
Ġdestroy ed
est amp
ĠT ask
Ġex posed
Ġund ert
ic ons
E ven
en v
Ġvot ing
d em
Ġen abled
m aster
D em
u ction
ĠStud y
Ġent ries
ĠH ave
Ġant icip
Ġstrateg ic
ĠCl inton
Ġ" \
ak h
ĠAnt on
sk y
t w
Ġmass es
ĠHe art
sh ips
i ac
Ġapparent ly
Ġinterpret ation
es ome
Ġal cohol
Ġb ott
Ġp y
Ġmed icine
n ames
C K
igen ous
u ating
Ġcompl iance
M edia
Ġtro ops
ĠS H
( :
M I
Ġlo an
Ġa st
Ġcons ent
h ome
Ġcommun ications
Ġach ie
om atic
the w
ĠA z
Ġprep are
ownt own
Ġs oci
ĠP sych
Ġprov ision
F P
Ġt urb
by te
osp itals
Ġent itled
or iginal
Ġm ine
s creen
) ^{-
_ ;
iffer ent
Ġm m
ĠK evin
ri or
fram ework
Ġin duced
ub y
Ġvari ation
ry ing
Ġpresident ial
all as
Ġh ate
Bl ack
Ġpre ced
ĠEnter tainment
196 7
ĠJew s
key s
) _
Ġclub s
Val ues
ĠSc he
Ġpres c
Ġst rip
) "
Ġp seud
gr id
Ġprofession als
em ony
s ime
Ġde leg
ail ability
^{ +
ĠArt icle
Ġsens itive
ble m
Ġlist ening
` .
Ġfact ory
ĠR a
v m
Ġsh ips
az e
Ġs weet
Ġb are
inter face
? :
Ġpil ot
B L
ĠC reek
sime q
De cl
ĠCh annel
Ġst ages
Ġre in
ial s
Ġ urg
ax is
Ġs av
Ġte ach
Ġdis appoint
pre c
N T
Ġpolit icians
Ġcre ates
ĠP A
S end
ink ing
Ġexpl os
Ġbg color
Ġpart ition
Ġsubs id
sp ring
Ġrot ation
Ġd ates
$ ).
ĠE P
Ġinter ior
Ġaim s
c ustom
reg ister
ĠS D
ĠL ind
Ġk ernel
Ġre n
ĠHou ston
Ġflu id
Ġc atalog
ĠO s
le e
Ġ$ -
}$ -
ĠG ree
ĠBer lin
ĠBro ther
roll ing
bour ne
Ġgalax y
Ġbe ar
ur ers
Ġde pos
Ed itor
ac ent
ĠĠĠĠĠĠĠĠĠĠĠĠĠĠĠĠ ĠĠ
}} ^
Ġst ead
is ations
Ġprodu cing
S pe
ache lor
Ġcompet itive
ennes see
b ad
Ġstri ke
wid get
et al
Ġperman ent
Ġcopy right
bl og
im ents
Ġconstit ution
Sc hema
Ġthe ories
Ġpur s
ĠK ansas
ĠW as
Ð ²
ĠS ong
cuss ion
F ix
St ar
Ġem issions
Ġval uable
Ġro oms
Ġph arm
Ġtri als
C ustom
ĠG re
19 40
ilib rium
Ġtemper atures
Arg ument
Ġ&= &
Ġst ake
W A
Ġinvol ves
B P
Ġconsider ation
Ġst ellar
ĠTur key
c us
ĠT ok
Ġcour ses
Ġreal ized
Ġregular ly
p res
Ġele m
Ġemb edd
Ġinv ariant
Ġen emy
ĠMr s
raz y
ious ly
Ġfr anch
Tem plate
\ _
p red
um ps
ang ers
const ruction
ĠStand ard
f amily
Ġcont est
C I
ener gy
Ġent reprene
Ġinv ent
ish ment
Ġsub mitted
i est
Ġsit uations
S outh
in os
Ġm ock
Ġamount s
` ,
on ia
ĠL ev
aud i
Ġf ab
Ġlow est
ER E
Ġatmosp here
ob by
Ġstrong er
ĠC ancer
Ġtra v
Un ited
az a
Ġcirc uit
an z
ul ous
ĠO cean
ĠGold en
Ġfound ation
Ġp ul
Ġmax im
com ment
semb le
Ġmain tenance
Ġs ick
Ġnarr ative
Ġloc ally
Ġbound s
ĠV ersion
Ġmat rices
Ġd iver
y al
Ġcomput ation
Ġfac ed
Ġgrad ient
ĠIslam ic
Ġobvious ly
ĠRet rieved
Ġex clusive
00 1
ĠDi ego
ĠS quare
Ġ âĢĻ
ĠDef ense
VAL UE
ep ing
ĠB it
Ġatt ached
Ġclust ers
E ST
Ġaware ness
ĠLear ning
ĠInd eed
Ġexplan ation
ĠS ound
ĠB S
ĠV eg
Gl obal
Ġconstr aint
ĠE ver
Ġ ),
g ame
re place
Ġwe aring
Ġbro ke
os ity
sp ir
ra it
Ġreal ize
ĠBr idge
A pr
Ġhead s
Pol icy
Ġrequire ment
Field s
) ).
B re
w all
ol ly
Ġs in
Ġpath s
ell s
r r
Arg s
Ġpromin ent
ĠF A
ear ing
aw are
ĠR oss
w hen
Ġ+ +
Ġanal ys
Ġop posed
D ist
c hest
iz able
Ġin her
Ġdirect ory
Ġd ict
Ġp odcast
Ġcaus ing
Ġaccord ance
v irtual
ĠA mb
Ġpro hib
Ġpar se
i ology
ĠM iami
Ġdisc ipl
spec ific
Ġle ct
ĠS av
ĠS ource
Ġinst ances
Ġev il
> .
ĠPort ug
Ġs ending
S ION
Ġsum mar
ord on
& #
ĠA G
Ex p
Ġmag ic
cre d
ĠG ro
Ġth in
Ġcomput ing
ĠMem orial
Î ½
app y
19 30
es is
Ġpurch ased
Ġrapid ly
w atch
ver b
Ġimpress ive
Ġequ ality
lo at
Ġsw im
as m
ing ham
ĠMount ain
Ġrespect ive
ĠSm all
ĠA h
d y
th rough
Ġal ert
Ġal ive
ĠBG COLOR
Ġrequest ed
Ġreg istration
ĠR oll
Ġoff ices
ĠSaf ety
Ġl ists
Ġgrad uate
S ongs
Ġap ps
Ġ$ $
ĠF unction
Ġve ctors
Ġj av
Ġguid elines
Ġoffic ially
ĠCh all
Ġconver gence
Sec urity
ĠI l
ob uf
ĠTr aining
Ġdise ases
Ġin fer
Ġg ained
ĠS U
rem ark
ĠO regon
Ġ( @
Ġtrad ing
Ġredu cing
ol ver
w ho
Writ er
Ġw ine
D raw
Ġsett lement
Ġ= \
' }
Ġeng age
au x
Ġunivers al
I ES
ĠSt one
sh ape
D oc
ĠO tt
ĠM oh
s pecial
######## ########
ĠB arn
Ġl augh
c opy
ip ping
ĠA rizona
ĠTr ade
Ġmy th
b et
ĠSt ill
Ġco inc
W rap
ĠS ant
ot ten
ĠS ix
bs ites
ĠC ab
t ik
Ġtra il
Ġo scill
Ġserious ly
ĠRev olution
Ġdocument ary
v s
ĠSch olar
Ġh a
Ġr ising
Ġsil ver
ether lands
ro le
F N
rec ord
ĠH al
on ical
bo olean
Ġch ose
## #
Ġf ault
Ġ( +
ĠP S
ari ance
St ack
Ġn urs
ĠI O
Ġcr ash
ĠR aj
in ch
Ġco ffee
Ġret ired
Ġassist ant
Ġexplicit ly
Ġterrit ory
Ġs izes
ĠCom ments
er en
ut her
er ior
Ġang ular
B B
Ġkind s
Ġdecre ase
Read er
ig ious
Ġun us
Ġste el
ex ception
con nection
ex port
ĠT alk
not es
ib li
Ġcon cerning
ag g
ĠN az
W idget
ug by
m akers
Ġcon sole
Ġpubl isher
in line
ĠDo es
-------------------------------- --------------------------------
f ly
Rev iew
Ġpop ulations
Ar ch
Ġhe ll
Ġslow ly
onym ous
Ġpay ing
Ġcalc ulation
ĠM S
ĠH op
w ill
Ġspect ra
Ġn ations
il ty
ĠAnd erson
Ġafter noon
ĠG iven
in ction
Ġin hib
Ġhas n
R T
Ġbo at
Ġver ify
' >
Ġde als
Ġcalc ulate
Ġtr ace
anc el
IN D
A nt
E P
Ġprof it
Ġcalc ulations
ĠD utch
ĠSar ah
M eta
LO G
ĠM oon
> ();
Ġs aved
ibr aries
Ġf ib
Ġs quad
Eng lish
Ġhost ed
ĠSim on
19 20
ĠAtl antic
K e
ĠCon st
lo op
l ay
ĠPro perty
m ass
Ġo s
Ġb on
Ġmor al
Ġbe am
ph ant
="../../ ../
Ġref ers
Ġjoin ing
ĠM anchester
fl u
Ġbr ands
Ġro ots
ĠSh ould
On ce
agn etic
ĠL es
at ar
ĠHol y
Ġill ness
the re
} )$.
ch ildren
bl ing
RE E
ĠÂ §
ou ri
ĠP ersonal
C N
ĠAll en
Ġdepend ent
Ġnot ion
Ġex tr
Ġa f
onom y
Ġheav ily
ĠEr ror
Ġcont rad
ĠP itt
int end
Ġne ural
HT ML
art icle
ET H
Ġbe er
\| _{
Desc riptor
od ot
Ġn amely
t ool
Ġint ensity
ĠT en
Ġprov ince
v y
ĠRec ord
19 64
Ġloss es
flo or
R ule
Ġm o
W atch
Ġansw ers
Ġ( âĢľ
u z
â Ĥ¬
Ġdeal ing
Ġlaw yer
Ch anged
Ġtrou ble
C M
nov ation
pl ant
Ġsc hem
Ġtra ject
b uf
ĠReg ion
Ġpick ed
ĠD at
Ġde let
ĠD id
$ $\
al ities
de velop
ĠE ffect
Ġm arg
display style
Ġob lig
Ġgu ests
Ġrough ly
Ġdiscuss ions
ar se
D ay
L ike
ĠScott ish
L ock
ĠPl ace
Ġsymmet ric
er on
Ġ} )
se ason
l arge
Ġeng agement
Ġdifferent ial
Ġpull ed
ari ous
Ġsc ales
els on
Ġap plies
Ġprov en
ĠSc ient
ast y
the less
19 45
Ġcan cel
ip her
pro file
ĠW ord
Ġgr ade
Ġparticip ation
f lix
Ġv ital
Con f
Ġas ympt
Ġby tes
Ġsc r
Bo olean
Ġc ro
ĠW inter
ĠCl oud
ack ing
Ġfair ly
pro v
ĠGa ussian
r ig
Ġsubstant ial
pe ople
Ġ( *
Ġcol ors
Ġim per
Ġd ating
Ġdisplay ed
Ġinv ited
ĠLim ited
Ġt ou
Î ¹
Ġcom plicated
m ad
Ġge ometry
ab out
Ġcons ervation
ĠCamb ridge
or ous
)$ -
ĠBel g
J ob
) }{\
Int roduction
196 5
Ġman ip
and al
omet imes
el le
Ġcontribut ed
on na
ĠFin ance
Ġn g
n etwork
ĠJ ava
EC K
Ġcomplet ion
un ning
ĠProte ction
Ġreve al
Ġvoc als
Met adata
Ġb ath
ĠRepublic ans
Ġiniti ative
c ategory
pos ing
Ġmat hemat
h over
Ġgener ic
ul um
sup er
call back
par ison
, ...
us al
$ ^{-
Ġy esterday
Ġp up
Ġinj uries
ĠF ri
ĠH art
ĠL LC
Ġcarry ing
M c
Ġimpro ving
iff s
pl ugin
Ġtransport ation
Ġdr ag
Ġwhe el
Ġsuff ering
col n
Ġmembers hip
Ġby te
Ġsp okes
Ġal umni
Ġcour ts
Id ent
ĠP resent
ol id
ĠUn it
ĠAd vent
Ġcolumn s
ĠPat rick
Run time
od ge
ON E
Ġsequ ences
ĠL at
ill iant
ĠB urn
omorph ic
sc ribe
Ġstr ange
Ġsatisf ied
Ġh ook
ĠS M
Ġcont roller
Ġreve als
Ġperiod s
ĠL anguage
Ġch ampion
Ġelectric ity
S cope
Ġrecogn ize
Ġc ounsel
A ng
ĠD u
O bs
R est
ut ed
Ġpark ing
ĠPri ze
Ġout er
Ġdatas ets
P aul
qu arters
ch ant
ex ports
ential s
s ort
Ġbatter y
Ġcoordin ate
er as
} &
ĠMay be
ĠOlymp ic
Ī Ĵ
ed ing
ĠHT ML
u um
Ġmed al
Ġ" /
Ġfin ance
ĠI mp
Ġf lying
Ġp overty
ĠM ove
ĠIndust ry
Ġre ar
Ġmed ian
ĠK elly
ro it
com plete
Ġm g
Mem bers
il st
ĠS a
Ġcharacter istic
ch annel
Ġknow ing
ist ence
D IR
Ġany where
Ġad mitted
}} ^{
Pro p
ĠSil ver
) },
d on
Ġex it
ĠT ennessee
Ġk il
oun ce
Ġg ay
Ġhop es
Ġconvent ional
ari os
)\ \
ĠFr ont
reg ion
St r
H er
ĠReview s
m ma
Ex ec
ĠRes ults
Ġoption al
itar ian
X T
ĠIndian a
Ġcent ers
Ġeval uated
v o
aut o
lik ely
R ender
B N
Ġtrend s
W est
Y ear
ĠAm ong
Class es
el and
Ġpay ments
Ġtransfer red
in ian
ĠJ ane
pt ic
Ġaddress es
Ġdi pl
Ġowners hip
l ate
ap plication
Ġincred ible
d ependent
z one
Ġb inding
Ġscatter ing
ĠP u
ĠD og
m ont
v als
viron ments
ed it
Ġcut s
L eg
Ġas sembly
Ġregard less
D elete
By tes
Ġ ^
Ġcl ock
Ġexpect ations
erv ing
Dis play
Ġweek ly
ĠSchool s
ĠH ung
ĠRel ations
Ġv it
196 6
Ġhor ror
Ġre aching
3 60
R R
Ass ert
Ġflu ct
Ġhand ling
St orage
tik z
Ġla id
C are
ĠRes ource
Ġbase ball
Ġconsequ ence
Ġcollect ive
ty ped
ĠPrem ier
M s
T IM
Ġg arden
Ġsurv ival
Ġvot ed
ĠJ ay
F i
Ġmaintain ed
ĠĠĠĠĠĠĠĠĠĠĠĠĠĠĠĠ ĠĠĠĠĠĠĠĠĠ
Ġpros pect
ĠAnth ony
ĠG rad
olog ists
Ġse vent
Ġex port
rom ise
ĠIsrael i
I E
ĠJ osh
ĠNig eria
Ġso il
~ $\
Ġarg ue
Ġwat ched
th read
Ġar c
Ġmusic ians
Ġfall s
Ġj oy
ĠF L
Ġinst ant
Ġrestaur ants
arg o
Ġp itch
i ative
Ġdecl ine
Ġag ed
ar ry
foot er
Ġor th
p anel
Ġhard ware
c am
ĠJac ob
M ember
10 5
ĠKore an
Ġy ellow
og ram
ic ular
Ġprec isely
Ġmechanism s
S ur
ess ages
at on
Ġwork er
V ar
Ġve get
ĠS ex
ĠD ocument
C ond
Ġvis iting
ĠMo ore
ĠViet nam
Ġreli able
u in
S ET
He alth
t witter
Ġf irms
ĠP DF
ĠLe on
al so
ĠPro p
) ),
not ation
ĠS port
ĠM ilitary
R oot
t ed
Ġdraw ing
Ġtem porary
Ġaff ili
ĠF ollowing
ĠP H
Ġphil osophy
T oday
Ġtrans actions
us cript
ĠL ib
st ers
Acc ount
Ġf ruit
Ġinf inite
igh th
t ry
Ġsatisf ying
ol ving
ĠS ab
Ġins ight
ĠComm and
B rit
Ġr aces
Ġsam pling
be ing
are st
__ (
Ġin line
ch or
g ies
n one
ĠR oy
Ch annel
ock er
ĠCons ider
Ġto x
, âĢĻ
Ñ ı
Ġin clusion
Ġfun ny
II I
Ġnot ation
Ġgen etic
P ER
n ie
ĠHamilton ian
is en
m ove
G ood
ad i
Ġke eps
ĠN ob
Ġbl ow
Ġst ick
se a
Ġthe atre
Ġbus y
-- >
ia h
ĠMem bers
Ġpredict ions
set tings
Ġspirit ual
Ġfew er
Ġassum ptions
ĠCh ap
Ġwe ights
Ġcap abilities
ĠB ry
map sto
Ġro of
Ġsubsequ ently
g ly
elf are
ĠG ard
Ġinj ured
ĠAd vis
ĠD ise
Ġbul k
Ġemb r
ĠQue ens
Â Ģ
up l
Ġdec or
ĠA st
e ach
1 12
Ġref used
Act ive
Ġt all
as p
ab ama
ĠD ick
ĠE ss
$ ;
T T
ĠF arm
nt ax
w ait
ĠIn f
ĠT ai
A E
Ġdo se
Ġto m
Ġ ion
Ġsub mit
Ġc ov
Ġtax es
ĠN a
anc ell
ĠN etherlands
Ġhy brid
B as
Ġb id
Ġfr ust
ind ed
ĠYear s
Ġterm inal
Ġn aturally
Ġlog ic
Ear ly
end ers
Ġneut ral
ang el
ĠStud ents
Ġcon crete
ĠIm ages
ut en
P ublished
Ġcons ervative
if ting
b c
Ġdis order
ĠBl ock
ĠC a
be an
ĠM s
Ġchild hood
ĠEar ly
The orem
ĠB ra
plic ity
En abled
N etwork
Ġident ical
A pi
op es
param eters
Ġpl astic
Ġt ickets
ĠM L
ĠEnvironment al
m n
Ġgraph s
igg s
ĠSt ore
ĠO S
Ġcon version
Ġprov isions
Ġd ies
ey ond
web kit
u er
B D
L o
Ġm ail
Ġv on
In v
Ġequ ally
Ġr ating
P RE
P ress
Ġm sg
Ġcomfort able
ĠSt adium
Ġlik ed
i ors
ĠJ SON
Ġant ib
ĠC redit
T HE
Ġj Query
The refore
D ebug
ogene ous
ÂĢ Â
ich ol
d ers
ĠD ave
Ġdeep ly
Ġclos ing
Ġre ly
Ġarg ued
Ġdefe at
By te
it ure
a ired
j an
Ġdel ight
Ġpass es
ado op
Ġent hus
Ġperfect ly
' (
C opy
Ġt rib
Ġcoe fficient
ĠJ ason
ĠReg ional
Ġthous and
s a
oy d
Ġpur su
Ġh at
hel p
ĠG il
ĠTh ings
Ġres olve
T erm
Ġord inary
st able
Ġe gg
Ġenc oding
Ġsurv ive
em et
hes is
sq l
re tt
Ð ¼
Ġmanag ing
Ġsepar ated
Ġb le
ĠB E
Ġe q
B it
} "
Ġrel ating
Ġl yr
Ġput s
Ġdire ctions
Ġb ug
w as
Ġag es
ĠCap tain
cm d
op ol
X ml
ĠL ater
Ġun f
Ġcelebr ate
ĠAg reement
Ġr um
pro position
g i
Ġadministr ative
ĠD or
Ġsup porters
c ref
u y
m ers
ĠPol and
Ġdevelop ers
Ġwat ers
Ġident ification
ĠTh ird
ond er
Ġguarant ee
if iers
ĠG h
ou st
Ġign ore
ĠAp pro
Ġ< =
ĠD er
Ġpain ting
c ong
d am
as ma
M AC
w ich
Jan uary
j ar
Ġop ens
Ġpro pose
Ġexpert ise
k ee
Ġint ention
l ah
Ġstud ying
Ġsurpr ised
Ġrele ases
w hel
Ġassert Equals
ĠAr gent
Ġlimit ations
Ġview ed
N G
ĠC T
Ġmet rics
ĠWe bsite
N orth
ur ches
ĠT el
Ġin ject
ï ¼
Ġout standing
s ince
ĠM it
ĠĠĠĠĠĠĠĠĠĠĠĠĠĠĠĠĠĠĠĠĠĠĠĠĠĠĠĠĠĠĠĠ ĠĠĠĠĠĠĠĠĠĠĠĠĠĠĠĠĠĠĠĠĠĠĠĠĠĠĠĠĠĠĠĠ
Ġcor rel
Ġvulner able
14 0
ĠCap itol
ĠSe ver
N OT
om ent
equ ate
m argin
are a
ĠE lement
ter y
Ġrecommend ations
ĠP rivate
ĠUkrain e
Ġsc ulpt
iss ues
Ġpro jection
Ġprodu ces
Ġh ur
=" /
ĠN orm
Ġroad s
; "
depend ency
Ġ' /
ĠC hen
view s
Ġro yal
Ġ[ [
ĠStud ent
ĠC ub
Ġw ound
ow ed
KE Y
FA ULT
ĠPr ice
Î µ
' ))
Ġjournal ist
ap ing
we ek
s ome
Ġdesign s
Ġf ake
ĠD uke
Ġre putation
B ecause
Ġelig ible
h ire
M arch
dep th
Ġlock down
2 20
Ð ´
or ient
Ġconcept s
ĠC NN
Ġbe ach
ut ies
Ġpublic ly
Ġdef ic
Mich ael
ĠLab our
Ġbu ying
item s
Ġfall ing
Ġcom ic
J oin
ĠLeg al
ĠO ak
Intern ational
Ġfarm ers
Ġrestrict ed
T ab
Ġacqu isition
Ġche ap
Ġmer ely
P G
Ġemer ging
B ased
GB T
Ġre cept
ĠF C
Ġpolit ician
ĠW H
form er
Ġpriv ile
Ġaddress ed
ĠR ow
att ribute
Ġmark s
Ġacc um
P erm
ac on
\ {\
ĠTur k
ĠPe ace
Ġsub stit
Ġleg acy
Ġnav igation
ĠC ore
F eb
Ġgl ob
Ġprefer red
R ect
ĠS ri
F E
Ġann iversary
Ġj son
ĠMon th
Pr int
l ie
ĠArch itect
ĠSy ria
ĠMov ie
Ġbas ically
Ġsy nd
Ġsk ill
Ġl ux
ĠCh apter
ĠI owa
Ġ> >
Ġfore cast
b urn
ĠĠĠĠĠĠ Ċ
ro ck
Ġcut ting
Ġocc as
Ġo cean
Ġex ponential
off s
Ġsh arp
arg ument
Ġinterview s
Ġdemocr acy
all oc
O pt
Ġc ensus
Ġimm igration
Ù Ħ
_ ,
ĠD rive
rad ius
anc hes
r ates
Ġinv alid
Ġc rypt
Ġent ering
ur ations
ot te
Ġeas tern
dis abled
Ġbu ck
ymmet ric
Ġqual ified
w ick
Ġcomp lement
Ġgen re
Ġbrother s
ĠC lear
Ġcr imes
inst all
Ġto ler
Ġstruct ural
ĠB ible
Sy mbol
V P
N E
S pace
Ġt ries
ĠCont ent
ĠN ature
ĠL as
Ġl ayout
Ġb ars
f ix
Ġint ellectual
Ġimprove ments
pl ugins
f ony
Ġdo ors
Ġgover nor
prot obuf
Ã £
ank a
A U
Ġinst ruct
part y
RE AD
ĠRef er
b ec
Ext ension
ĠC art
Ġcont ents
Ġch ap
Ġnot iced
Ġrepresent ations
196 3
Ġw allet
Ġconclud ed
Ġob st
Ġbound aries
ĠPolit ics
ĠPhilipp ines
Ġj uris
Ġneigh b
Ġj et
Ġlik es
Ġaim ed
C ent
dom ain
Ġexpl oration
Ġcolle agues
B i
oc y
sc he
ĠD rug
Ġshop ping
3 50
wit zer
ĠSe attle
[ (
in cess
import ant
Ġin aug
ows ki
OD O
Aust ral
t otal
Ġl ands
Cont act
rop ical
M atch
ro oms
un es
Ġamplit ude
Ġcon front
Ġsufficient ly
ĠG ib
ta h
Ġreject ed
Ġhelp ful
iver pool
Ġpass engers
ane ous
ant e
}( {\
Ġrepl acement
op ed
Ġarriv al
9 00
ce ive
l u
Ġmanag ers
ĠG ets
H C
10 2
riv ing
Ġleg it
T otal
Ġwe bsites
Ġrail way
ĠH ope
Ġsudden ly
Ġreg ulation
Ġfocus es
Ġkn ock
enn a
ĠH ur
Ġdefe ated
n n
pl ane
b led
ĠO wn
ĠF ellow
ĠB or
ĠCo oper
Ġannounce ment
n umer
Ġsc aling
ĠV AL
z y
ĠDe ep
P arser
act iv
Ġa er
Ġread s
ĠN ation
Ġask s
ĠN atural
ol ves
AR D
ĠB ureau
ĠL eb
Ġro se
Ġd a
ĠH an
Ġhand ler
ĠF ive
Ġmove ments
Ġl ens
ym fony
D an
it udes
C F
Ġstream ing
at hered
Ġdis crete
form ing
Ġwin ners
E mail
le v
| _{
Ġviol ent
os ph
Ġs essions
ĠP ur
%% %%
ix els
T ool
ĠYou th
ĠU lt
Ġregul atory
Ġme ets
Ġdem ands
) +\
ĠF ather
ib l
end or
Ġsup plement
Ġsup pose
Back ground
G iven
r ank
G S
ors es
Ġtrack ing
Ġrac ial
ĠF a
ĠTh ough
"> &
ache l
Ġb at
ĠF alse
I AL
Ġmin ing
p adding
Ġgr ass
add r
od ec
Ġthink s
ĠSe lect
TE ST
ou ter
ev al
Ġt icket
Ġpenal ty
Ġf urn
Ġfriend ly
ĠMary land
Ġr acing
Ev ents
Ġre verse
Ġcer emony
em pl
ĠCast le
Ġb irds
ĠI L
int eg
Label s
par agraph
Ġcare fully
sk i
Ġcontract s
witzer land
Ġn ic
sc ription
rim inal
Ġnorm ally
Ġw ing
Se pt
ram a
ys ical
ĠAnn ual
ĠHaw ai
â Ħ
ang a
Ġmach ines
ĠMor gan
ĠP ier
em ed
ug g
A ud
over nment
Ġwind ows
Ġdirect ors
d iff
ĠB ab
Ġindepend ence
form ed
Ġisol ated
Ġindust ries
chest ra
. *
Ġb ag
ĠEv ents
es ian
ĠInd ones
am ps
) --
ĠHistor ic
ĠAust in
ĠPl us
D M
R ele
Ġstring s
emet ery
ĠN ev
ĠPlan ning
Ed it
Ġadvent ure
Ġh ist
ĠCont act
Ġdis ag
ĠWith out
Ġconvert ed
Ġfranch ise
Ġdis abled
ĠSur vey
block List
Ġdis p
196 2
cond ition
O wn
Ġf ired
ĠG row
() {
alax y
Re port
ĠR ound
ut t
cc cc
Des pite
h ave
Ġinst ruction
ĠâĨ Ĵ
Ġp ushed
: }
it ations
Ġp ump
ida e
Ġfem in
F IG
Ġbuild er
Ġexpress ions
Ġunivers ities
Ġdomin ant
Ġconstant ly
L im
Ġdes k
Don ald
m ates
Ġdo ctors
Ġw eren
MA X
Ġc ref
com ponents
Ġcent uries
Ġv ocal
ĠCl imate
D ialog
im s
ĠEx change
p air
ION S
Ġsens or
ĠB uck
abet es
e per
ag ment
leg es
C ast
pro perties
t or
Ġen vironments
c pp
h our
Ġinvestig ated
Ġperson ally
} }$,
ra id
Ġmolec ular
N Y
ĠP ed
ig e
Ġattempt ed
ather ine
_ -
} )$,
ĠH old
ĠAg ric
Ġf ails
ĠDef ault
co very
Ġinter vention
ele gate
ĠD VD
; <
r ating
ĠCommun ications
Ġindic ating
, $
ut ter
Ġelse where
Ġrow s
Ġo x
Ġport ray
ĠS ales
ĠV i
Ġb undle
ĠLin coln
ĠD allas
11 1
ĠM icro
ur able
. -
Ġmonth ly
F ollowing
ĠE c
ĠAr g
Ġsignific ance
Ġrank ed
gl as
Pro duct
secut ive
win ning
ĠMay or
W indows
Ġestim ation
Ġfl ights
ud a
ater al
ĠCor ps
ĠM un
Ġc odes
ĠM other
10 4
ch a
Ġgrav ity
ĠF un
Fe ature
" `
Ġh urt
Ġinst ructions
em ies
ord inary
Ġcompens ation
Ġm es
ick en
Ġrul ing
}{ |
h l
ĠK r
uns igned
ĠGree ce
Ġnov els
Ġor bit
Ġany way
Ġsimultane ously
ĠS audi
i em
Ġprec ision
Ġg ang
Ġbr illiant
ev ents
Ġoper ational
F ollow
new command
} }$.
ĠAp pe
Ġres ident
pl ot
Ġtarget ed
s pect
Ġelect ro
ze ch
Ġwith draw
ĠTerm s
om as
ĠAll iance
Ġsens itivity
or se
P ay
Ġwhen ever
ĠG arden
ex ists
xy gen
Apr il
Con nect
ĠLa ure
) [
in th
ĠMar ine
T ests
R ich
Ġsepar ation
Ġpo etry
s is
Ġre vers
ct rine
i op
ĠDo ctor
ĠAfghan istan
Ġs oph
ĠN ative
z o
ĠDe an
h bar
in ar
ath y
Ġf olk
ĠA C
aur a
Ġfeel ings
Ġquant ity
che ll
\ )
ĠB an
Ġ ..
u ct
Ġass et
Ġsat ellite
Ġi Phone
Ġgener ating
ĠI R
por ter
Ġdocument ation
mod ules
ĠEx press
w en
Pro f
Ġbas eline
ĠG un
Ġinstance of
Ġhypothes is
Ġpan els
ol ars
Ġen ables
ph y
ĠHow ard
Ġgu ilty
Ġrad ical
Ġenh anced
id al
ĠK han
Ġo vers
p aren
n ell
ch arge
Ġequ ity
cos ystem
Ab stract
ĠHer itage
Ġt issue
E p
Ġden ied
Ġencour aged
ĠE T
l ined
Ġcoll apse
A K
ag ic
ant ry
Ġground s
t oggle
J une
out heast
ĠJud ge
pl an
ĠH D
ail ure
ag u
Ġneut r
iv a
Ġc a
Tr ump
ĠC ert
B el
d ays
U ST
Ġar rive
ĠL iving
Ġdef ect
h box
Ġh ospitals
G raph
Ġfant asy
Ġvot er
L ear
oun ced
ol ph
assert Equals
Ġb oss
Ġdist urb
Ġt ables
Ġpar agraph
in stein
Time out
C ur
ch anged
Ġl umin
ĠY O
Ġ$ |\
Ġut ility
ĠAl abama
Ġstru ck
im p
ĠOrgan ization
L ife
Ġlist ing
ĠB alt
ĠChair man
] :
ĠB h
ĠC C
Ġcou pled
Ġsuper ior
____ ____
ol i
Ġt aste
$ ),
Ġorgan isation
ok er
M usic
Que ue
Ġ{ {
Ġf inger
ĠF ant
Ġunus ual
Will iam
) }}
Ġliter ally
play er
Ġmix ing
Ġdog s
ĠLe vel
ĠPar am
Ġhost s
P AR
Ass oci
ĠK it
es y
Ġp iano
Ġfl ows
Ġt iny
ĠP a
Ġprof iles
S QL
M ock
)) )
Ph il
ĠRober ts
Ġh ide
typed ef
196 1
Ob j
J ECT
J uly
ĠĠĠĠĠĠĠĠĠĠĠĠĠĠĠĠ ĠĠĠĠĠĠ
as hes
ĠRele ase
ĠO ption
ha ust
och astic
Ġdesign ated
IG HT
Ġdiagn osis
Ġas ide
$ ~
g ood
Ġcap tain
reg ular
rupt ed
g eneral
Ġin hab
ram ework
Ġconstit u
h ot
ist a
ack ed
Ġw ider
Ġsc oring
Ġ[ \
M sg
Ġher itage
Ġconsist ing
ĠVeg as
Ġshe et
claim ed
ĠD ue
ĠChampionship s
ĠV in
Ġmem ories
up id
Act ivity
âĦ ¢
annot ation
Ġcorrect ly
Ġpar liament
Ġcheck ed
ĠS in
Ġar med
ĠPhil ip
ĠAdd itionally
Ġpass word
ĠM eg
Ġexecut ed
ĠK al
d ale
ĠBow l
Ġadj acent
ã Ģ
ĠR ick
V M
ĠB ased
FI LE
ĠVill age
R ober
Ġnot able
ĠJ oh
ĠĠĠĠĠĠĠĠĠĠĠĠĠĠĠĠ ĠĠĠĠĠĠĠĠ
ĠSp irit
pass word
Ġb its
Ġmult ip
osc ow
t ags
ĠN BA
Ġc ogn
lah oma
ĠDel hi
Ġjud gment
ĠTra il
J ames
ĠN ode
out ube
Ġinput s
ar ity
11 5
Ġconsc ious
Ġhousehold s
En ter
ĠN E
Ġsac r
M er
ict ions
O ST
Ġd il
S am
Ġing red
ĠM aterial
ra ig
Ġconve x
ĠAr thur
âĢ¦ ]
riv en
ĠG all
o a
ĠMar ia
ĠMal ays
Ġover se
ph ot
W R
Ġinter section
Ġgener ations
Ġvalid ation
ĠAp plication
Ġdialog ue
ort ed
ort s
_ ->
and o
an ied
con c
ĠR ey
Ġtr ick
ĠC op
St e
Ġliber al
Ġst yles
Ġun likely
ĠP os
h adoop
Ġwalk ed
v ia
Ġs s
ĠG ab
Ġsing les
19 44
Ġun expected
Ġfl ash
ĠT ag
Ġevery where
ĠOffic ial
Q U
ĠMiss ouri
ST ATE
M ac
ĠRo om
ut s
[ $
al gorithm
Ġprepar ation
et he
Ġres idential
acc ount
Ġassum ing
ĠT rib
ĠAtl anta
ĠM ission
Ġsett led
Ġsing ing
Ġe ase
apol is
ĠM C
iss ip
ĠEx p
Ġret irement
ĠH um
ĠL oc
Ġequ ilibrium
() ).
l ayer
ou rier
Ġcompet e
Ġover whel
LE CT
Ġtalk ed
Ġm eta
Ä ±
og a
is cal
Ġl ights
Ġchair man
Ã£ o
ĠE uro
ĠP erson
Ġredu ces
id el
Ï ĥ
Ġde cent
ĠJ ess
âĢ¦ âĢ¦
ri k
Ġcharacter ized
com b
P anel
Ġfl ags
Ġel der
Ġn eck
im pl
Ġequip ped
: =
Ġjav ax
Ġestablish ment
ign ment
i Ã³n
Ġthreat s
re present
Ġinstr uments
Ġrob ot
Ġper mit
ĠAl an
ii i
IT E
ĠAr k
st ud
Ġconven ient
Reg ister
Ġanc est
Ġn an
ĠSwed en
rop ic
R ob
ĠB uff
Ġposs ess
Ġco operation
con nected
) }_{
ra ctions
Ġpubl ishing
el ve
ĠPolit ical
ĠBe at
r andom
Ġorgan isations
Not Null
) -\
ĠWhe ther
Ġapprec iate
Ġfol ks
Ġb old
Ġwor ry
Ex per
ĠPr int
Ġhop ing
Ġimpact s
Ġscen arios
t ons
ĠSt ories
m aker
Res earch
t ip
h ou
Ġk ne
Ġfocus ing
S ervices
Ġd ense
Ġoff ensive
ĠV iol
Ġgreat ly
bar a
S en
st ats
Ġfant astic
Ġshould n
Ġcy ber
ĠAn ne
oc a
Ġanim ation
ĠRes ponse
om al
Ġold est
] }
ĠPh D
F ore
Ġ{ $
Ġcorre ction
ous es
Ġent ropy
Ġt ied
cept ions
ĠTok yo
ace ut
@ "
P ackage
iz ers
Ġinvolve ment
Ġtit led
b ootstrap
an ing
Ġpl ain
F loat
g roups
Ġcount s
ĠD a
C ategory
Ġ[ ];
ĠTem ple
st age
1 18
st an
G ame
Ġh tml
ĠWh it
) )$
im ated
ĠPh ill
iam ond
Ġstret ch
Th anks
ĠH it
Ġdistrict s
ĠCons ult
ĠDet roit
ĠD ub
Ġproport ion
ĠTh ank
c rit
Ġgrad uated
TR Y
Ġexam ine
Ġad vers
Ġperson ality
10 3
Ġh ierarch
Re al
p ur
ĠPer formance
ig her
Ġdevelop ments
10 6
Ġne uro
Ġden oted
cy cl
Ġcon secutive
eral d
ĠChrist opher
Ġam id
Ġdescrib ing
Sup port
Ġent ities
ĠM ust
Ġin verse
hed ral
que ue
Ġg uns
}$ )
Ġre act
ac o
ĠB Y
Ġtown s
Ġsuff er
Ġhigh lights
th rows
or ia
Ġth orough
ĠFor um
Ġd inner
roph y
Ġdr um
app ly
ĠCom ment
Ġsur faces
ĠMc K
Oct ober
ĠMat thew
Ġsh ots
Ġl ib
s at
Ġp ointer
L IC
Ġdom inated
nt il
s ave
Ġs ynchron
qu es
ou ver
Cons ider
m ay
hav ior
ĠE mb
L java
M iss
Ġre ven
Ġcompl aint
Ġun like
m aterial
it ter
&= &
Ġspe aker
( !
Ġim aging
br ace
Ġprec ise
at ers
Ġb atch
Ġman uscript
-> _
ĠBru ce
Ġvis its
Ġvari ant
Ġlif etime
Ġsystem atic
H A
ĠApp endix
Ġmanif est
p in
, '
Ġcomput ational
Ġdef ines
Ġorient ation
S W
it ational
Ġweap on
= #
ed er
ĠM ess
Y PE
re ens
Ñ ĭ
ĠL eft
Ġliter ary
ĠProv ince
Ġsomew here
ĠMel bourne
ex per
Not es
ĠL ess
am er
se lected
Ġch a
Ġt ank
ant um
19 18
asc ular
Ġcritic ism
b ow
Ġappro x
h al
ĠN HS
Ġsup plies
re ated
Ġregard ed
ĠNAS A
ard o
ĉĉĉ Ċ
Ġins ights
ab is
T om
ik es
Ġp ione
ĠHar vard
Ġr ub
et ition
ĠD omin
G reat
Ġpublic ations
Ġp in
Ġshort ly
. ]
Ġfore ver
J S
Ġsn ap
Ġdest ruction
ĠInt eg
Ġb rown
Ġra ising
Ġrep orter
ĠNet flix
ĠRail way
Ġrece ives
ĠH IV
ĠSh op
c b
writ ten
Ġm ouse
f ather
à¤ ¾
ropol itan
Ġwar rant
ĠG ordon
Ġvari ations
Ġf old
Ġme at
Ġtrans parent
Ġpet ition
Eng ine
Ġconst ants
az y
ĠR ic
Ġpe er
ol t
ĠC ow
Ġcos m
Ġch ronic
ĠP ast
ĠW y
Ġappear ances
ident ifier
w he
Ġrep air
ĠSm art
level and
Ġexhib it
ous ing
ĠAl ber
G reen
ĠH ug
ĠH ills
Ġexec ute
Ġillust rated
Ġim plements
IT H
T ABLE
Ġap artment
lim it
Ġsc an
Ġb ird
Ġdrink ing
book s
Ġf uck
Ġprodu cers
S Y
Ġthrow n
Ġf ought
is ons
L INE
Ġhead ed
ĠMot or
195 8
Ġde pression
Ġremark able
Th rough
ĠSt ew
âĢĿ )
Ġbur ied
ĠCr ime
Ġless ons
Ġinsp iration
tx t
Ï ģ
ĠG R
Rel ated
assert Equal
Sh ort
Ġbrief ly
Ġinflu enced
Select or
i ere
Ġbi ological
ĠKent ucky
Ġb one
D est
Ġ\ (\
ib ration
j oint
init ial
ĠP ack
Ġt ang
grad uate
im m
chi at
Ġfund ed
Ġsimilar ly
Ġc ir
igh ters
Ġbre ast
ĠWalk er
er ver
ĠSt ream
Ġign ored
Ġassoci ate
im ore
Com ment
rec ated
//////////////// ////////////////
Pat tern
ĠK am
Ġde eper
Ġf unc
__ _
Ġh am
Ġmem or
ĠS elf
ess ment
ĠS witzerland
Ġdeterm in
Ġappoint ment
S an
ĠMc G
abl ing
Ġl aser
w hat
Ġbreak s
Ġrout es
Ġmin i
> \
en ix
Ġd b
s ample
Ġep id
im ental
Ġt act
N ovember
Ġpart ially
ĠP ear
P al
ĠE V
ĠCom b
Ġp ipeline
ĠPh arm
Ġcomm ut
Ġderiv ative
ĠCon fig
Ġthem es
face book
Ġat tr
Ġconf ident
Ġj un
I con
ar o
aceut ical
sequ ently
Ġfrag ment
ĠO pt
M F
Ġav ailability
Ġque ue
)) );
C lear
pro b
Ġs ed
C r
ĠCent ury
J SON
Ġclass ified
Ġag enda
ĠFed eration
E urope
Ġpo et
Ġdifficult y
ĠD ur
Ġph ases
Ġquant ities
ĠL E
Ġd ens
ge on
P ool
Ġout break
os itory
Ġse ctors
od a
195 9
Ġsign ing
clud e
ĠC ape
Ġt ort
id ays
ĠM as
De cember
Ġphotograph s
Ġw ake
as ant
Com mon
ĠW i
Ġprom oted
L in
v ature
Ġk in
b est
ĠN eg
f red
ĠB eck
Ġtr ains
Ġpri ze
Th ree
Ñ Į
ĠWh ich
Ġim plications
Ġan th
Ġw et
Ġind ices
pos itory
Ġdes per
ĠMic hel
Ġparticip ated
Aug ust
Cl ose
Ġschem es
Ġdes cent
Ġstrict ly
xi ety
ĠSing h
Ġphot ography
Ġcompat ible
ĠHel p
dis c
Ġcon figure
ĠDe b
}{ (
Ġorgan ic
Ġl oyal
ĠM ind
ĠThom pson
ĠE ag
per or
St and
Ġsome how
[ :
Â ·
Ġphot ographer
Ġrec ru
ĠEconom ics
Ġmodel ing
Ġrepresent atives
ĠN ash
ĠCon vention
vious ly
Ġport folio
ĠIn v
Ġhead ing
ĠH ans
[ -
on i
Ġc up
Ġgen es
type of
Ġmod ules
Ġdiv or
ush ing
ĠH ell
_ (
um ption
Å ¡
th an
Ġlyr ics
ĠM ars
ate ful
Ġt one
Ä ĩ
Ġe ating
ig s
cl ine
I LL
Direct ory
Ġengine er
; /
Ġj azz
ĠT ree
ĠS ac
O B
Ġabandon ed
Ġdeterm ination
mark s
Ġreview ed
$ :
Ġchar ity
Ġpr on
AT ED
ac les
ĠRuss ell
Ġneigh bour
ĠAnd re
Ġmechan ical
) })
ĠJon athan
ĠW oman
Ġdram atic
Ġinstall ation
Ġlaw yers
m ock
ag h
| }
19 42
=" "
G M
ĠG ram
pl er
Ã© s
Ġscreen ing
Ġ ip
Ġpar ad
Ġdesign er
Ġentr ance
Ġt ub
195 6
ĠC ole
ubl in
less ly
Ġestablish ments
Ġanaly ze
ĠL GBT
ĠH oll
ĠL ock
ĠS n
Ġsymbol s
Ġf iber
li ver
Ġprint ed
Ġg aming
am y
Ġp ace
K S
Pres ident
d p
Log ger
U C
w estern
Ġch at
ĠS A
ac ht
ĠP aper
PRO C
ĠR ap
circ le
19 48
Ġrem oval
Ġviol ation
Ġple ased
ĠNor way
ari ju
P y
D ouble
Ġexpand ing
ĠMar vel
Ġf est
anc ouver
Ġdis aster
ï »
Ġrespond ed
quir y
o is
Ġkit chen
10 8
ĠLead ership
r ition
work s
Ġrepe at
ariju ana
Ġ% }
Ġhe ter
Ġcol lections
Ġanal yst
ĠL iverpool
") ]
ĠB ishop
Ġclos ure
Ġun n
Ġrese mb
Ġdesc ript
ĠB ron
Aut o
br ane
Ġfootball ers
ĠMex ican
^* $
ĠN ichol
Gr id
ann on
Ġc ited
Ġfrequ ent
ĠD est
ene z
Ġd owntown
p u
ic ut
Ġed ited
Ġmaintain ing
L Y
ĠI C
m ask
rou s
Ġover come
Ġhor izontal
Ġsu icide
u ity
ĠAl bum
ĠG raham
Ġf itting
Ġcl im
Ġfavour ite
O O
ĠAut o
b p
Ġw edding
ĠM and
Ġg ro
ag ers
Init ial
ĠM oscow
Ġprom otion
Ġcl imb
Ġhol es
Ġle af
M art
vol ume
Ġg olf
t mp
drop down
ĠD al
Ġdecom position
Ġp ars
Ġcan n
Dat abase
Con str
M atrix
Ġeffect iveness
B et
Ġdef ensive
ï» ¿
Ġse ar
k l
tt ing
Ġrul ed
he alth
ĠD im
H D
Ġg ent
Ġattack ed
Ġener gies
Ġsk e
ĠD J
Ġprot ests
igr ant
ĠL am
\ ;
10 7
Ġgener ator
O ld
k w
ĠN ic
Fl ags
U ID
ĠB ah
Ġ" "
Ġvary ing
D id
ĠPl ant
S em
Ġt ip
Ġcheck s
Iter ator
pe ction
Ġt ale
ber ry
od ox
Ġiniti atives
man ager
Ġquad r
her ic
195 7
ric ulum
issip pi
Ġrequ iring
ĠBrook lyn
hy thm
Ġcon form
Mem ory
Ġconsider able
ĠW olf
Ġbl ind
cy cle
. :
ĠH ash
Ġw orship
ĠInd ependent
Ġmanif old
Ġpass enger
ist ically
sc roll
Ġder ive
Ġg od
enn y
ĠT oy
19 39
li est
ĠIns urance
SI ZE
Ġresc ue
ĠK l
cc a
Ġart ificial
ĠC ell
w eg
ul i
ill ance
bm atrix
o i
le ans
Ġspec ify
Ġbel ongs
Å į
N R
Ġconnect ing
ĠAb b
ĠAd ams
Ġd uties
Det ails
Ġref lection
Ġprom oting
Ġdefin itions
ĠR ace
Ġinter mediate
script size
Ġhard er
Ġl ake
Ġmet ab
u ates
n an
ĠM obile
Ġemb edding
i ota
Ġbirth day
ĠP il
ĠElect ric
Ġp sy
br idge
Ġint ense
M aster
ĠCor p
Ġcelebr ated
ie val
( __
ĠM essage
Ġembedd ed
ĠWork ing
sc ar
ĠA BC
Ġathlet es
19 41
ĠOr iginal
, {\
Ġmagn et
12 7
comm un
ĠF ROM
fl ags
w ave
ĠWork s
() ));
Ġit eration
Ġt ur
Ġopin ions
ot ive
Ġev ident
am ous
Ġr anging
is an
Ġkey board
as et
Ġvolunte ers
ac er
b es
or er
Ġadapt ed
Sept ember
ser ies
Ġmyst ery
Ġsix th
Ġman ual
Ġinvest ments
US A
Ã¡ n
/ .
It ems
o il
ar ma
look ing
AR S
pl ier
ĠO il
Ġgr ants
AS H
CH ECK
Ġc razy
ve e
ĠA thlet
ĠChrist ians
Ġaw ait
Ġcho osing
Ġ Ø
IN S
Ġphenomen on
ĠF BI
F iles
In ternal
avel ength
Ġa ug
S eg
ĠPri or
Pro xy
ĠVol ume
Ġex clus
us ers
Ġtow er
Ġprem ier
B usiness
ĠPol ish
Ġun w
get s
par ser
Ġhuman ity
V A
Sum mary
Ġsp ark
. __
Ġlaw suit
ĠEp isode
Ġens uring
Ġf ishing
cont roller
P rivate
,\ \
Ġp ixel
ĠBe aut
ĠP as
d ash
ĠR ab
Ġf n
Ġh ip
Ġult imate
iss a
ig a
Ġp atch
Ġinn oc
Ġn a
ĠKenn edy
Ġriv al
ĠP L
le ading
ĠU tah
ĠF O
u h
Ġpro xy
Ġsol ving
ĠE u
p read
ij ing
ĠN ik
Trans action
ĠS I
ĠD ance
pro ve
ĠComput er
Ġem pir
ĠOk lahoma
l ad
ĠAl ice
ĠInt elligence
et ric
ynam ics
ĠAl bert
cl uster
Ġad mit
ĠHigh way
and ed
ĠV irtual
m its
B oth
19 55
ograph ical
ĠM ort
Ġ{ '
Ġc ul
ĠArch ives
Ġconsist ently
}} _{\
ĠB ull
Ġoccup ied
~~~~ ~~~~
C ard
ĠD ays
Ġsecret ary
he im
ams ung
ĠC S
qu ality
=" @
Ġne ur
ĠL P
P rim
mut able
j et
AR N
Ġex haust
ĠLaw rence
ĠĠĠĠĠĠĠĠĠĠĠĠĠĠĠĠĠĠĠĠĠĠĠĠĠĠĠĠĠĠĠĠ ĠĠĠĠĠĠĠĠĠĠĠ
C ity
C am
ĠOper ations
ĠG ary
Ġâ Ĥ¬
con str
fl at
Ġvari ance
Ġvacc ines
A lex
Ġrare ly
Ġper mitted
ac cept
CO VID
Ġm igration
\ }$.
m ate
Ġsub stance
Ġdis cret
Ġh ockey
t iny
Ġamong st
d frac
Ġm ile
ĠAnd y
Ġoper ates
Ġmask s
P ower
fig ures
ail and
re ation
pr imary
Ġe cosystem
ĠJ ob
ĠCharl ie
Ġo xygen
Ġsp oken
uc lear
Ġres idence
* )
ĠN EW
ĠMuslim s
ĠH ero
19 43
h idden
}} )
ĠK a
Ġcross ing
sc hema
in her
M al
ĠS W
Ġaff airs
Ġload ed
! \
ĠP ho
Ġcur rency
ro sc
l ades
ĠBer k
Pol it
Ġaccomp anied
Ġcrit ics
Ġnon linear
config uration
Ġdo i
Ġevery body
Ġpurs ue
Ġs ons
Vert ex
/ (
re lation
Ġl oves
own ed
Ch ina
min ute
Ġstr ain
Hel p
Ġemb od
Ġh int
Ġmet adata
- (
Ġb io
il iation
ĠH ub
v i
Ġanalys es
Ġco ord
w iki
h ill
Down load
Ġmain stream
ĠK y
B T
N V
"=> "
Ġl oud
Ġmeaning ful
Ġany more
Ġlik elihood
Th ank
ĠL ore
Ġcare ful
Ġb orrow
Ġv oices
S ports
ter ed
Ġab road
con duct
Ġpass age
r ink
11 3
Ġpres erve
em en
ĠRes erve
y g
ourn als
Ġvac uum
Ġ io
ĠRead ing
am an
ETH OD
Ġdiscrim ination
Ġemer ged
Ġtrans c
Ġfab ric
Ġcor ruption
ag ent
Ġgl ad
Ġsuggest ing
ĠG ra
Ġcl ip
s quare
Ġf its
Ġ( _
Ġeng aging
ĠS ud
the y
ymmet ry
ĠB us
ĠG alaxy
Ġ ).
Load er
Ġ} }
F amily
Reg ion
Ġem otion
lo pe
Ġst uck
Ġc ub
In formation
! )
Ġspe aks
spir acy
em ia
b us
Ch ildren
Ġappe aring
Ġb ike
Ġwh ilst
ffic ial
c ross
ĠF ix
M W
j ud
ir ates
ĠT a
11 4
E lements
ĠSen ator
Ġa str
r ative
Ġas c
ĠW W
det ail
ĠI ron
Ġrep ly
Ġeng ines
Ġstrugg ling
Ġelect rical
ĠAss istant
t age
Ġp ic
Ġre aches
ed itor
b ing
ĠO K
nd ef
av al
B ound
ĠF reedom
Ġpro secut
L i
10 9
Ġprom ot
ides pread
ĠD ak
M ake
Ġs alt
t c
Stat ement
b n
ĠDou glas
contain s
ro se
Ġ' '
FOR M
struct or
om ed
m ade
Ġsh adow
Ġm ilit
Ġd ial
ys et
r in
ass ador
Ġl ad
Ã© e
Ġg athered
ik ing
Ex pr
ĠAnton io
Brit ish
Ġt ips
iss on
du ctor
ĠL ane
ĠN at
Ġemploy er
Ġle mma
ĠM yst
Ġm eth
om er
Ġcal endar
Ġcam eras
++ ;
Ġres olved
ĠM os
v ideo
ack er
Ġfle et
ĠE state
Ġcon vention
g it
Ġcounter part
Ġadapt ation
Gener ic
S cale
is or
b rief
Ġco aches
ĠH ad
s burgh
Ġre actions
AN G
Ġl ic
less sim
f d
ur se
ĠK ings
N ULL
19 17
ĠR isk
Ġun em
. ),
ard ing
AN CE
Ġ( [
ĠUn fortunately
Ġcompar able
Cl oud
C rit
ĠGirl s
ert o
Ġd ad
Ġwe ird
Ġb unch
Ġprem ium
j amin
Ġagric ultural
C oll
ĠRequ est
k t
19 00
Ġadmin ister
Ġanalyz ed
Ġdisc ount
==== ==
Mult i
Ġcomp an
ook ie
Ġdream s
Ġb os
ĠP ope
ĠAl tern
Ġattract ive
Ġt rivial
print f
Ġg ram
oper ative
ĠAm endment
Ġact ively
Ġmir ror
}[ \
nap shot
Wh ite
ul ates
Ġs ust
19 47
ellig ent
aps ed
ĠP i
Ġp refix
hand ler
Ġindepend ently
Ġposs ession
ig m
du cer
Ġl ung
Ġflex ible
pro to
Ġm ad
s r
Ġ\ &
Ġincred ibly
W omen
pl atform
Ġexpl oring
Ġrece iver
ĠS el
in burgh
Pro of
Ġmil k
ĠPubl ishing
Se lected
Pro gram
Ġautom atic
ĠRes erved
Ġreflect s
spe ed
24 0
Ġt ill
Sim ple
Ġh ired
av ailable
Ġjournal ists
x it
pect or
Ġre q
Ġc able
est one
inc ial
Ġst em
am az
Ġtrans it
ĠSim ilarly
enc er
! [
d iction
ĠC zech
Ġst abil
ĠInter est
Ġse gments
is p
Ser ies
iter ator
| }{
Ġb oot
Ġprom ising
Ġob l
Ġ$ ,
Ġp ref
Ġup load
Ġreal istic
ver e
ĠD M
ĠL android
Ġdi agonal
f und
prot ected
k h
ĠT ODO
Ġmod ify
Ġeth nic
f ish
ĠBr and
Ġqu ark
Ġatt itude
Ġseek s
Ġident ifying
function s
t ensor
ĠHistor ical
E duc
Ġimm un
H ave
195 4
Ġh ang
St op
L D
en z
Ġagre ements
ĠH E
ĠOr th
Ġgr ab
det ails
Ġcomp aring
Ġbr anches
um my
ement ia
Prot ocol
hip s
ĠB ond
ĠA qu
sing le
Ġup grad
] $.
195 3
ins ic
Ġart istic
Ġm art
Ġimm une
Ġple asure
ĠP red
multi row
By Id
Ġb tn
Ġte a
Ġstead y
Ġem power
19 46
ex ternal
Ġg all
ry ption
Ġpl asma
Ġthe ater
ond a
ĠClin ical
F unc
VER SION
Ġg ear
En um
Ġh az
ĠLeg isl
ç ļ
se m
Ġreg ression
A uth
Ġc ock
ph ones
M ill
m outh
L aw
Ġsp ac
Ġdefin ing
ick ed
M ut
Pl ugin
Ġdom ains
ap l
Ġres erv
s witch
ĠBl u
Ġh al
Ġstay ed
ul ative
Ġjud ges
ĠIO Exception
ĠCol on
rie ve
ĠR ule
$ _{
W he
Ġparticip ating
requ ency
em ark
ĠH il
ĠG ulf
back s
Ġtransl ate
$ };
he ro
e a
ĠĠĠĠĠĠĠĠĠĠĠĠĠĠĠĠ ĠĠĠĠĠĠĠĠĠĠ
Ġsurv iv
ex tern
ĠBe ing
ĠB lood
ĠRef orm
ĠL anka
ĠF em
re v
ter ior
Ġt ens
Ġqu ote
ĠWal ter
el ing
Ġcan onical
Sc roll
ĠE C
ĠTr ad
Ġenter prise
Pro file
oid s
Ġgeneral ized
l ower
Ñģ ÑĤ
E st
op les
Ġmax imal
res et
ĠĠĠĠĠĠĠĠĠĠĠĠĠĠĠĠ ĠĠĠĠĠĠĠĠĠĠĠĠĠ
Ġm ice
ĠW right
Ġ[ ],
bo ost
W H
Ġim posed
ee per
,\ ,\
ĠM oney
ort heast
ĠJ azz
re ach
Ġdes ert
l g
Ġin cent
ĠP arent
] $,
o ft
}) }
bre aking
Ġpush ing
math op
Ġaud iences
Ġconstruct or
D en
ĠFor ces
Ġexam ination
ĠWrit ing
) ">
Ġbelief s
Ġaf raid
Ġf erm
Sing le
h ist
Ġassign ment
Ġprocess ed
Vol ume
l arg
OR Y
Ġrout ine
r ise
s un
M icrosoft
Ġhead quarters
Ġmist ake
Ġcorre ctions
ĠPort land
ĠAn na
usal em
id x
ĠShe l
Ġout door
ac co
F inal
ĠF le
Cont in
J ava
b its
writ ing
ĠDise ase
Ġat oms
pl ates
cal c
Ġcert ificate
ĠUn iverse
çļ Ħ
an ia
Ġmarg inal
UN D
O k
Ġvol umes
u is
ĠOr leans
Ġrecover ed
}} .
Ad apter
st ory
ĠGu id
Ġdel iber
Ġthreat ened
Ġbeg un
ĠâĢ Ŀ
ĠIn novation
ĠBr un
we alth
Ġoff ense
Ġter rible
? )
IP T
Ġevery day
an ne
Ġw rest
U LE
Ġgen us
Su ccess
Ġexp enses
Ġstraight forward
B Y
h uman
Ġb ull
t ools
Ġinfl ation
ĠCont ract
ĠBet ween
'] )
ĠR oute
or ious
{ "
get Name
Ġtype of
Ġj ail
S pecial
Ġpre val
Ġis omorphism
Ġbox es
ĠC os
ĠB art
ĠF al
ĠBre ak
Ġtransform ed
Ġapprox imate
Ġinfe ctions
j query
Ġprogress ive
Ġactiv ation
Ġlab our
Ġfram es
ĠStud io
Ġcampaign s
ĠPer haps
ĠN elson
Ġdeterm ining
Ġpubl ish
d ig
Ġli ability
Ġfe as
Ġn it
t f
oth y
ST AT
et o
Ġ[ âĢ¦]
Ġthere by
AD D
Ġfem ales
ĠR at
ren a
aly tics
ĠAgain st
Ġ-- -
Ġj u
ĠW ang
Ġre construction
Ex ample
19 49
er ion
fe ature
column width
ĠSt rategy
ex pect
Ġexpect ation
Ġextra ordinary
Ġview ers
Ġr anges
t frac
Att ributes
at ile
Ġt ies
be at
Ġlux ury
oust ic
Ġrepl acing
Rober t
Ġprepar ing
Rem ove
l ibrary
ĠG er
ĠL ang
Ġg host
ĠC leveland
paren cy
F M
ĠB eng
w ild
Ġdoll ar
ĠÃ ¢
Ġexam ined
he ll
Ġcur vature
Ġperiod ic
ĠEm ploy
Ġveter an
Ġv ibr
neg ative
s ys
de ep
Ġpopular ity
ech o
Ġres erve
S G
Ġas ync
195 2
st ock
ol en
Ġd ip
ext ension
Ġdim ensional
j ango
Ġleg s
g rav
ĠSt re
re ction
plement ation
Ġhor izon
par a
Ġspe akers
Ġl unch
11 6
Ġp arser
th row
Ġsup plied
ĠAv ailable
d riven
Ġincorpor ated
c ia
Ġb es
Ġcoll ision
ĠThe ory
ĠT ro
Ġf ro
Ġpre vention
I LE
Ġw idespread
Ġch urches
Ġicon ic
Form er
ĠC ome
ex pl
ic op
other apy
an im
Ġland ing
Ġmar ine
ĠRob inson
Ġfl av
ĠT ogether
S equ
Ġ Å
ĠStr ateg
plet ion
ĠTurk ish
$ {\
Ġproceed ings
Ġm oon
s elling
ing ers
J apan
ĠR ules
web pack
ĠB ed
Ġcon fer
ĠSt even
)) \
h ide
UT F
ĠS now
sl ash
ĠA le
Ġen orm
ĠUr ban
i ating
NavBar Cell
Ġsize of
ĠStud ios
ĠT ower
ĠE lection
f ixed
Ġdeb ug
S ep
X i
ĠM achine
tikz picture
ict s
f c
ĠSing le
Im port
Ġphot on
oun ters
ĠR ain
Ġover view
w alk
c in
Ġb read
Const ants
Ġtempor al
t ail
ann ah
Ġlist ener
ik h
ĠDis c
Ġtom orrow
g s
Ġreported ly
R oute
Ġw elfare
ĠP ublished
ĠW ard
Ġcas ual
Ġdevelop er
Ġafford able
ĠArab ia
gener ated
Ġform ing
ĠSt op
ens on
J ack
Ðµ Ð½
ie v
Ġven ue
Ġmet ers
Ġcelebr ation
ĠH ost
Ġpro be
ĠB io
ĠPal ace
Ġsusp ended
res p
Ġdev ast
V ariable
Ġmay or
Ã º
ĠB os
Ġad s
Ġvirt ually
f are
t z
ĠO d
Ġrad ial
Ġsubsc ription
st ates
ĠPy thon
CO MP
ĠLouis iana
Ġclaim ing
Ġminor ity
ĠTai wan
Ġref lected
f act
Ġpropos als
ĠF u
C he
Ã ¸
th a
Ġdet ector
Ġdi et
ĠV eter
ug ht
ĠMiss issippi
Ġen emies
Ġcomput ers
Ġrestr iction
by tes
Ġbr ut
ĠCol omb
ĠD ir
ud son
ĠPat ri
ĠW orth
ost ics
Ġmix ture
Ġex ports
Ġor al
act eria
Ġentreprene ur
Ġl iv
he art
ph ase
apt ure
u ce
Ġcontrovers ial
) ->
ĠT arget
ĠG ov
Ġj ury
D epend
ib bean
m ac
ĠSt ev
Ġdef ence
id ency
195 1
Ġb ind
con v
ĠCamp bell
Ġg rap
Ġgover ning
met adata
ĠS EC
ĠS ay
ol o
ĠW ind
qu is
ĠP ap
Ġs le
Ġlicens ed
ĠConnect icut
Ġfacilit ate
ĠM E
{ %
Ġcommun icate
B ro
To String
Ġpat ent
Ġemphas is
Ġt ie
Tr ace
she et
Ġcor por
Ġis ot
ĠP oll
Ġmod erate
Ġg ross
Ġcomp ound
Ġun iqu
ĠTre as
Trans port
Ġcomb ine
Ġcompos er
Ġsurround ed
Ġsl ot
Pl an
ĠProfess ional
c ounter
ĠMur ray
Ġt weet
Ġfound ing
ho le
ĠLead er
Ġvent ure
Ġin ev
ĠG T
13 5
En vironment
ol utions
ĠV ancouver
Ġintegr ity
Ġaffect s
Ġch ains
Ġextract ed
Ġsub group
g b
cur s
ĠJ u
M apping
ĠI an
Ġcred its
ut f
ĠGu y
ĠN ap
ĠO cc
ĠCar ter
est abl
L ive
Ġm ales
Ġl ying
ass ment
Ġqu asi
qu er
Ġrem oving
Ġactiv ists
set s
vent ions
Ġt ension
W ar
Ġsk ip
sl ant
D iv
ĠS ide
ĠN othing
Ġtour ism
Ġtext s
Ġdispl ays
ĠF ast
Ġinf ected
oc hem
Ġtim ing
d ing
Ġalleg ations
build ing
More over
ĠRog er
Ġim plicit
17 0
Ġmount ains
Ġdelay ed
Ġmanufact urers
Ġo w
= .
S ocket
ĠMain e
build er
Ġconfig urations
ĠStew art
m ir
ĠPl ayer
Ġdecl ined
Ġhydro gen
Ġtransl ated
P ointer
Ġt we
Ġad option
Ġ\ ]
anc he
Ġsole ly
et ics
it i
ĠC ass
ĠQu est
empt yset
Ġphys ically
Ġflow ers
t ar
Ġst upid
Ġat omic
Ġglob ally
Ġpos it
prot ocol
onom ous
ĠAN Y
p ages
Ġneg lig
â ĪĴ
Ġr u
Ġrom antic
al ia
Ġmind s
Ġlo ans
v ari
Ġrec ruit
Ġatt ending
Ġnom inated
Ġrom ance
Res ources
Ġst adium
br as
ĠS F
our t
ri el
Ġsearch ing
Ġph rase
ort ex
Ï Ģ
Ġrandom ly
ĠF R
ĠK az
ĠAct iv
}) =
Ġcar rier
d one
er ious
ĠTele vision
ĠEx ample
serv ices
ac ular
Ġexclus ively
lades h
T ele
An n
Ġst ops
Ġr anks
Ġg ains
}\ ,\
ĠSw iss
Ġprote ins
all ing
e u
Sup er
Ġwarn ed
ĠMor ris
Key s
Ġs aving
M ass
an alysis
Ġneighb ors
FF FF
X ML
Ġar ise
Ġqu ot
ĠC elebr
t own
el eration
Ġprom ised
Pro v
Ġlabor atory
: #
Ġhard ly
Ġc ust
Ġresid ual
Ġcons ensus
Ġf er
Ġan xiety
Ġb ot
ĠG as
weg ian
Ġadvert is
Ġcult ures
Ġexception al
ĠB loom
Ġtem ple
fin ite
Ġde emed
im ony
ĠSh are
Ġsepar ately
Ġaccount ing
f x
Ġemploy ers
Ġm ild
AM P
Ġbl ank
RE D
b d
Ġcitiz en
Ġ{ "
ĠD ublin
ID S
r ator
uk i
ĠCor onavirus
P ad
Ġp ub
Ġnormal ized
com put
Ġc um
Ġfrequ encies
ĠD ouble
ĠI E
s n
ĠAn imal
re p
Ġbur st
tr igger
ĠChall enge
up t
ĠC over
Ġdeliver ing
Ġround s
ĠAdd ress
Ġsm ile
ĠObs erv
as is
id ity
pro ps
sec ution
Ġh ill
Ġhad n
v art
}^ +
11 7
ĠSt ars
um ar
if def
Ġmus cle
Ġconvers ations
AL SE
Ġpoll ution
res ources
Ġbl ame
Ġsynd rome
ĠI ce
ĠB att
ĠH aving
Ġper pet
stand ard
augh ters
Ġd ir
ĠF iction
F ailed
Ġform ulation
ĠDen ver
ĠB egin
Ġp ending
)-- (
EN TRY
ĠA SS
vert ed
\ }$,
ath on
ĠMar shall
exec ute
Ġde put
L en
ĠJust in
ĠPalest inian
ash ing
Ġpsych ological
ĠBoy s
ĠN iger
Ġcond em
ĠS ett
par allel
ĠSp ot
ele y
ac ies
Ġsch olars
own er
b ian
as a
ĠK o
=" ${
ĠComm ons
Ġtrans itions
ĠSt atus
p refix
ĠF er
ĠCamp aign
ĠH im
Ġmat ched
ĠBe ijing
ĠHun ter
TE XT
w t
l at
ĠCo al
ch arg
ĠAust ria
ĠReg iment
": "
Ġwire less
L I
}_{ -
Ø ±
Ġabsor ption
ĠCh amber
i eg
ĠCl ick
r age
Ġcomp eting
p iece
Ġst ochastic
ĠSwed ish
Ġen v
Ġdistingu ish
Ġperform s
Ġep ic
ĠAn c
E ffect
ĠThe ater
v ance
Ġr ally
T ok
ĠCreat ive
ĠIndones ia
A ir
hat tan
n ik
Ġsu gar
Ġs orry
Ġt el
}} }\
iss ance
Ident ifier
L ayer
Ġsp ots
ĠMe anwhile
n est
ĠSever al
1 19
Ġp or
ĠAnt i
ĠJer usalem
Ġrepeated ly
US E
ation ally
Ġobject ives
F oot
Ġbank ing
T ake
Ġh orses
Ġl uck
pect ives
Ġs id
Ġmanufact urer
ĠB ody
ĠW rite
Ġtravel ing
ut ers
ĠR ub
Head ers
uten ant
R ole
Ġinter active
S al
M OD
ĠPl aces
E lect
ĠĠĠĠĠĠĠĠĠĠĠĠĠĠĠĠ ĠĠĠĠĠĠĠĠĠĠĠĠ
Ġtack le
Ġed it
ĠCom merce
Cl uster
W el
Ġb orders
her s
Ġcl othing
Par se
CT ION
ĠM agn
u ine
At tr
Ġas semb
ĠP ant
n il
St ruct
Ġin ches
Ġrac ism
Ġsure ly
Ġjun ior
ĠC ou
Ġg ard
ĠJun ior
Ġtreat ments
ĠCommission er
Ġres et
osp el
ĠE dd
Ġm ic
ĠEd inburgh
Ġarrang ements
Ġl ip
Ġaccept ance
ĠJ en
Ġl ucky
ĠD R
ens ively
S election
Ġut ter
sim ple
Ġsit uated
ĠFe ature
ĠBar ry
Ġrank ing
Ġm ath
H om
ĠIn n
z ym
Ġcult iv
A gent
ĠP el
ĠBelg ium
r ift
Ġj ew
ĠEv ans
key word
ĠWay ne
ĠL anc
in formation
Ġlif estyle
Ġcl othes
ĠK ir
Ġdecre ased
ĠOr ange
ĠSte el
Ġfasc inating
) }_
ĠT ob
Ġsurv ived
C ross
Ġd x
ĠC itiz
Ġproject ed
C reat
P rior
ĠC BS
ĠLear n
Ġdev oted
D uration
j ob
ĠH end
struct ure
ĠG ill
en able
iv an
sh ops
ash i
ĠColl ins
ro b
l m
ĠNot ice
om ing
se par
E V
Ġsm oke
ÑĢ Ð°
ĠI de
ĠInvest ment
col lection
Ġsol ved
Ġup grade
Feb ruary
ĠCl aim
st orage
ĠMethod s
ĠN ear
ĠAl b
Ġconv in
Ġimm igrants
Ġam pl
4 50
Ġf iscal
b rowser
oper ator
Ġpaint ings
ed a
re le
ĠPro duction
ĠT itle
ev a
ur u
am ents
Ġm ood
Ġprotect ing
ĠImp act
ĠT ru
i pt
Sc he
Ġc rown
log ger
P ATH
ĠHon or
N ET
Ġind irect
ĠP odcast
Ġfluct uations
ĠC row
ĠT IM
it ual
olog ically
}} ^{\
ĠJohn ny
al ph
Ġagric ulture
in ator
ĠV ent
Ġt ags
ant ed
ĠN ag
Ġsem antic
sp in
l if
Ġhand led
ĠN ep
Ġsub section
is ot
Ġc tx
Ġdam aged
ĠS quad
iv als
Ġsup ers
e conom
ĠPl atform
de cl
Ġuncertain ties
S chool
b one
b uck
ĠCom ics
Ġess ay
Ġapp end
clip se
\ }\
ab a
Ġc ow
id ges
ĠB aker
Ġmet res
ĠM uch
lim ited
ĠBalt imore
ĠPract ice
op ts
Ġch rom
re port
ate ur
qu al
fil ename
ul ent
Col lections
ĠD oc
Ġdev iation
od ium
A I
à ®
Ġcorrespond ence
ĠT am
ĠTh or
Ġcar ries
ĠClass ic
P s
o ose
ĠR ot
ĠC rown
Ġdifficult ies
Ġship ping
Ġpolar ization
l ive
w er
Ġf ed
Ġsaf ely
Ġtop ological
he ta
Ġload ing
ĠS oul
P I
}) ^
Ġdeg ener
Ġ[ "
if ndef
Ġtal ented
big l
lear ning
on z
ĠT otal
C ert
ĠBroad way
h ook
Ġcheck ing
ĠC raig
ĠK night
ul u
Ġ ^{
ĠF ame
t i
Rele ase
B rowser
ĠT un
bor ough
ĠSus an
ĠF ollow
Ġrest ore
Ġstar ring
T I
ell ers
B egin
ĠSam uel
Ġde ck
OR K
Â »
un ique
Ġclos est
P Y
pro gram
ĠB ou
Ġc hest
us ive
th al
FN GL
Ġnot ing
bl ank
ric ane
}{ *
Ġfunction ality
Ġdist ances
M ove
Ġaw esome
Ġtun nel
chn ology
ĠU I
co q
ĠJim my
Ġst ere
Ġcontr ary
out ing
AN S
ĠPitt sburgh
ur ities
Ġp ixels
Ġgr ateful
Ġg ly
ĠMalays ia
ron es
S ER
ĠC old
Ġl ov
ĠAb d
ĠBar bara
ĠH R
Ġvill ages
Ġph ones
Ġc rop
H ol
Ġsp here
S ymfony
F UN
Ġb ills
m itting
Ġsh ops
ĠH erm
Ġen semble
Ġmolec ules
ĠTh ailand
ĠFrank lin
c ost
Ġwild life
Ġarrang ement
ĠF ried
ĠWar ren
im edia
Ġse cre
ĠSu ccess
ĠÐ ¿
test ing
L ight
ĠSpe ed
Ġcon gress
Ġto k
enez uel
ex pr
Ġmusic ian
per iod
ĠS R
Ġemot ions
H ence
if ice
ĠMov ies
Ġf ract
ah n
ĠFred er
Ġcomp ress
ĠMe eting
ĠT ar
S ocial
p aper
Ġhead ers
Ġbroad er
Ġg allery
ĠMor ning
Ġcomm ands
head ers
h ind
ĠCustom er
å ı
ĠR C
Ġpo em
Ġs wit
19 16
Ġdis pute
Ġs occer
ĠOper ation
h alf
Ġw avelength
ĠC le
ey er
it ious
ĠSer ver
Ġen um
z ens
im mer
sub sec
big r
Ġp uzz
Ġal ien
;\ ;\
Ġg raphics
Ġd ated
ĠK ids
d og
ĠE li
ĠVal id
ĠHT TP
on ce
ĠW ikipedia
ĠR O
ĠJ oy
Ġgl obe
f illed
ĠSol utions
m g
Ġaug ment
Ġintrodu cing
n c
ordin ate
Ġbur den
ĠS S
Ġflo od
M ath
Ġsh it
ĠConst ruction
L R
> :
Ġpregn ancy
ĠS QL
Sh are
Ġgovern ance
ge bras
m other
h um
at iv
ĠC ars
ens itive
Ġst roke
Ġcap ability
ĠC hel
ab ad
sh ore
Ġlight ing
Ġenthus i
W in
Ġre plic
Ġpl aint
Ġsh orter
Rep ository
en abled
per ial
OC K
ĠKen ya
B ER
ĠInt eger
Ġdo zen
duct ive
Ġel ite
ĠK ate
y y
Ġch arts
Ġdiam eter
Ġsil ent
Ġton ight
Ġmort ality
ar ith
Ġne arest
j unit
Ġdecre ases
Ġnob ody
Ġgrad ually
" ],
Ġgrow s
N ov
on line
Ġinterpret ed
ecess ary
as ive
ĠC riminal
Ġd ashed
ĠG ot
De velop
Ġcirc ular
BU G
\% $
ĠS ustain
Ġcount ies
S ave
ĠC ould
ĠA LL
h ref
Ġth irty
ĠSt age
v c
intend o
Ġf oss
pre v
ow ell
ps line
19 36
Ġad equate
Com pat
ĠMit chell
if est
pat tern
Ġcool ing
irm ingham
ĠDep uty
Ġgot ten
Ù ħ
Ġt rem
ĠF lo
Ð ·
un ate
ab e
ĠM i
Ġqu eries
re ck
ĠAl aska
Ġwalk s
Ġlog o
Ġcontribut ing
ĠLeb an
ĠA my
Ġch ances
Ġim pression
Ġseem ingly
n m
Ð ¿
Ġdis orders
sup ported
Ġch amber
Ġarrang ed
Ġpre lim
N D
Ġun ve
Ġt ract
am ine
Ġinvestig ations
ass oci
ut ory
-------- ----
Ġaccept able
pro f
\ |\
Ġcir cles
H ub
Ġw is
l on
Ġun ity
Ġfail ing
ps hire
ĠBrother s
Ġrefer ring
ĠS ony
ĠA ch
Ġjuris diction
× Ļ
ĠN BC
Ġmut ual
ĠP O
Ġestabl ishing
cle an
IN TER
2 10
Ġtele phone
ard ed
ĠT X
te ch
Ġelement ary
re pe
Ġst unning
} |\
ps y
r int
indu ced
Ġtw elve
Ġtri ple
Ġun con
ob i
Ġbare ly
Ġf itted
Le ave
ĠC ultural
Ġexpl ored
ĠA the
Ġdifferent ly
Prof ess
c as
ion ed
Ġis lands
pre ced
ug s
ĠNew ton
Ġform ally
Ġhighlight ed
Ġim plied
Ġlock ed
ĠJenn ifer
Ġwor ried
Ġdriv es
ĠUnivers al
ĠIss ue
Ġam endment
d ialog
Ġg est
ĠFri ends
b oth
ĠC lient
Ġacknow ledge
ĠInter view
Ġabund ance
Ġunder ground
Ġge ometric
l ia
re lease
2 30
Ġtraject ory
am ination
ĠV ery
Char acter
Ġp ill
ĠCh ile
Dom ain
Ġag gressive
h op
Ġlabel ed
ĠL uke
Ġprom ises
Ġdeploy ed
We ek
Ġb ron
or ters
Ġan ger
Ġvolunte er
ĠP eters
19 38
Ġsal ary
! ]
ch anges
Ġres ign
19 14
err ors
Ġc inema
ĠMag ic
M or
sh al
ĠEmer gency
Ġinter vals
ri ent
Ġth ro
ict ional
Ġvari ed
g age
Ġ ],
ĠSt orm
L anguage
Ġguarant eed
ic ator
ĠDr agon
12 1
ĠR oc
ĠCirc uit
ĠR and
sp ot
Ġdepart ments
Ġorder ing
ant i
pos al
us p
ĠCar ibbean
Ġrat ios
L emma
Ġposs ibilities
AR B
ĠC arn
Ġanim ated
ĠE mail
CRE MENT
ĠLin ux
Ġext ensions
Ġpri est
." );
ĠS pect
ĠCh ron
Ġxml ns
att ributes
ĠG ate
Ġfit ness
M o
e or
ĠU l
h ai
P ersonal
Ġac ute
ĠL yn
Ġ" <
Ġre ign
Ġa est
Ġwork place
ĠKe ep
ri ber
b g
Ġp ounds
Ġres ort
Ġdi abetes
Ġab ortion
ĠJ e
ĠMult i
i ov
ĠP un
Ġpark s
Ġ" -
ĠD raw
Ã¼ r
Ġc yl
Ġdynam ical
Ġcancell ation
Å Ĥ
}$ }
ĠCharl otte
Ġcon clusions
Trans form
or us
em ption
Ġgather ing
Ġb om
Ġtouch down
ĠMar c
iter al
3 000
hent ication
Ġburn ing
Ñ ĩ
ir ts
Ġw age
Ġann ually
igin ally
. ",
Ġin herent
ĠHawai i
ĠL uther
Ġsim ulated
Ä į
Ġeconom ics
Ġdis put
Ġprison ers
Ġdiff usion
Ġnews letter
Ġcou ples
Ġim pe
tem p
Ġcons iders
Ġincor rect
EL D
r ac
for ced
ĠW a
Ġking dom
Ġ} {
ac re
ĠB rew
ĠTechn ical
=" ">
ĠDown load
Ġattempt ing
ĠS olar
at ri
Ġlog ical
ĠF ight
ĠK ind
Ġsav ings
Ġrat ings
Ġfil ters
U pdated
t ake
A li
Ġrepl ied
Ġ( {\
l oss
ĠIm port
ane an
Ġpregn ant
c hem
Ex pl
Ġbon us
ĠA ve
ĠBr ig
Ġasympt otic
he rence
Ġev olved
ĠM atch
row se
p are
AR R
m ill
ĠPhys ics
Wrap per
Ġinv ention
ÃŃ a
Ġlegisl ative
Sh ould
Ġpack ages
x is
cel ona
ĠDemocr at
Ġang ry
ĠG A
Ġinhab it
Ġd ump
Ġscient ist
ĠSe an
ĠGe V
ĠJ os
og ical
irl ines
Ġwant ing
ĠF ab
U ri
her ical
7 50
}} =
Ġsynt hetic
ĠPark er
Ġat om
se q
Ġpart ly
fe ction
Ġoverse as
um ing
ĠIndust rial
Ġgrav itational
P eter
IN CREMENT
Ġin ference
ĠRepresent atives
ig ion
Ġshould er
Ġpack et
S ync
Ġan not
Ġalleged ly
^{ (\
S un
MAC RO
text color
Ġformer ly
Fil m
Ġcogn itive
P N
Ġdepart ure
Ġp ose
Ġsustain ability
V C
ĠMet ro
og ue
Ġauthor ized
ĠG olf
th ree
Ġh ub
Ġsusp ension
ĠR s
Ġhigh way
J o
} ~
tr ace
ĠPho enix
hor izontal
m f
Ġproport ional
Ġmet all
Ġspecial ist
ot ton
Ġd ying
Ġf ur
g iving
Ġactiv ist
Ġsoph istic
ĠDak ota
UT H
ĠG round
ss on
count ry
Ġfor um
Ġn ick
requ ired
Care er
comp at
æ ľ
Ġf ert
ĠN eb
ĠChristian ity
ers et
ĠLO G
H am
UR I
ro gen
Ġpar ish
ĠArgent ina
ĠR y
t ures
d c
Ġfall en
Ġsucceed ed
ĠMar ie
G old
ar ial
Ġbar rier
D im
bor ne
Ġle tting
bu ilt
Ġprocess or
Ġstay ing
on ing
Ġaddress ing
ĠCom edy
ĠBen jamin
ĠMarg aret
Ġst ating
Ġcom ed
friend ly
D elegate
Ġ= ========
ĠFl ash
down load
foot notes
ill ery
Ġp uls
ĠB R
] {\
Ġvess el
tri angle
ĠQueens land
ĠD eg
Ġcy cles
Ġview ing
FL AG
Ġcomp ly
f our
Ġsche ma
Ġfor cing
ĠCh ampions
Ġc rystal
ĠN urs
ĠCol lect
Ġoccasion ally
Ġconv olution
ĠAlber ta
ĠS ale
Ġl ibraries
Ġin duction
ili ary
ĠIs a
ob serv
ĠM aj
ĠD B
M us
ĠWith in
e enth
ĠTe acher
Ġoutput s
l icens
Ġtrans mit
Pro gress
ĠBet ter
Ġinter ference
Ġstream s
ap os
inal s
ĠAd vert
Ph ot
ĠM es
ĠF alls
Ġt ons
Or gan
ĠF ro
z i
ĠLiter ature
ĠH orn
y ll
ĠNev ada
ĠCon cert
19 37
Ġsmall est
ĠMan hattan
@ {
19 33
J ul
Ġsh apes
Ġrel ate
Ġintr ig
& =\
Ġeduc ated
ĠM ade
Ġelect rons
Ġvalid ate
Ġm arijuana
Ġcompl aints
rang ian
On line
× ķ
12 4
ĠDe al
ol ute
amp a
pr ison
as g
Ġoblig ations
tr im
Ġear liest
Ind ia
ĠExper ience
ĠBang ladesh
al gebra
St ats
Ġh ung
ĠA B
Di agn
ĠBase ball
ul in
re view
Ġcol leges
Ġgr ace
const ant
Ġdemocr atic
OW N
il ateral
it ime
n odes
Ġfoot age
vart heta
LO CK
Ġred shift
og onal
Ġd rew
ĠMor oc
AT CH
ĠBl ues
Ġsc roll
12 2
Ġprov es
ĠTransport ation
ĠC her
Ġrefuge es
Ġstri king
Ġmunicip ality
ĠFant asy
Ġser vers
Ġtra iler
ed ly
Text ure
ĠO P
Ġsh ifts
ass ets
Ġmin istry
z es
: =\
sh are
ele m
Ġconf usion
ve ct
ĠStat ement
ĠF M
Ġcap s
14 4
Ġimp ly
Reg istry
}\ |
^* (
Î »
ĠL isa
f ar
Ġper ception
Ġs hed
Ġengine ers
Sc ott
ĠAdv anced
du ces
19 19
Ġg onna
U G
ĠG ay
ut ing
io x
Ï Ĥ
Ġvess els
ĠC emetery
l ab
u ition
p rom
index Of
enn ial
F our
^{ *
Ġinv asion
pr ises
b rew
Ġtem p
Ġreson ance
e ast
P resent
vis ible
ill o
th y
rom agnetic
hab ilit
Ġto ll
ĠU pdated
ĠN AME
unt ed
sh ared
M ask
uck er
Ġnegot iations
Ġstat s
ĠL ower
Ġcomb ining
Ġsimilar ity
Ġsevent h
Ġderiv atives
Ġinflu ential
Ġisol ation
ĠS ad
Ġf atal
Ġdeterm ines
ON G
Ġtrad itions
Ġsurve illance
Ġdam ages
ĠS L
Ġhost ing
M IN
N amespace
ol s
Ġdemonstr ates
Ġc md
ĠDen mark
ĠSc i
Ġan chor
Ġpoint ing
Ġansw ered
Ġval ley
Ġrecord ings
ĠN i
Ġlog ger
Ġme al
ĠRefer ence
Ð¾Ð ²
G a
ĠFac ulty
phant om
Ġexp ed
ĠC M
ĠMed al
footnotes ize
ĠZ one
ĠCh i
ĠC lean
ĠL aura
Ġob sc
Ġtr im
if i
Gener ated
list ed
Ġmeas uring
ĠG ray
Ġ' <
Ġempir ical
w oman
Ġprotocol s
> ::
ĠD esc
ĠDef inition
ĠStan ley
Ġequival ence
Ġn omin
Ġatt ributed
Ġenorm ous
', '
preced ented
ri ors
Ġroll ing
Ġrid ic
ip art
Ġhom eless
Ġperturb ation
Ġl obby
T ax
ĠH iggs
RE SS
Ġweight ed
P refix
ĠL ost
ĠMove ment
re str
iv o
Ġ\ !
ĠH em
Ġgen uine
Ġinflu ences
on ed
S cal
duc ible
Ed ge
Ġelim inate
coll apse
G T
ĠB eyond
C ategories
Ġimplement ing
p ull
Ġ" ,
19 35
G F
Do es
Ġcolon ial
ĠCom pl
ĠB L
L ibrary
Gener ator
Ġt ap
Ġacqu ire
Ġa qu
gg reg
P erson
Ġsc reens
Sh ape
ĠNot es
Ġpray er
ĠPr incess
ĠC er
ir able
Ġt ends
Ġcert ified
Ġpre st
med skip
pro vider
Ġeigen values
^* \
Ġconvin ced
val uation
ĠS ometimes
Ġang les
ĠF isher
Ġb ases
ĠF ern
ĠUp per
g un
k n
sh a
ĠTown ship
Sup pose
Ġl ady
ĠBo olean
cur ities
Ġadvant ages
L ower
Ġexist ed
Ġchem istry
Ù Ĩ
Ġimportant ly
P od
ĠInd ians
q q
ĠL ad
ĠAut om
3 20
ra ising
Ġmer ge
ass y
Ġencour aging
long rightarrow
ĠE D
ĠEvery thing
Ġk iss
at omic
ĠBS LS
Ġobtain ing
ĠGr ace
Ġmyst erious
N odes
ĠG O
ĠMur phy
az ines
ĠO liver
des ign
Ġadvoc ate
j Query
Ġsp ir
Ġinfl amm
F rench
Method s
!! !
Ġcond itional
EN SE
ategor ized
ut ic
ĠB apt
ĠPu erto
Ġcloud s
Ġext ending
Ġmotiv ated
Ġconsist ency
ip es
ĠHealth care
pt o
Ġalign ment
ig o
ĠO scar
ow ing
Ġaccomp any
AC H
Ġterror ist
$ /
L ove
Ġen abling
Ġsim plicity
ĠPh ase
Ġelder ly
sp ired
Ġmathemat ical
Ġgener ates
d ated
Ge orge
fl ag
Ġab ilities
Ġ ];
ĠM ut
Ġaffect ing
ĠVis it
Ġc od
Ġhun ting
T w
av an
pol y
re ason
Ġens ures
Ġpl ots
Are a
ĠIn put
ĠV I
L ead
ĠM is
Ġco aching
Ġre construct
ene ath
ĠGover n
Ġinstitution al
if ference
ix on
Ġbelong ing
P DF
es ters
Ġingred ients
ĠP ick
ink s
t ok
S il
ĠK rist
Ġok ay
Ġcom ics
Ġhum or
Ġele g
Ġfin ishing
Â Ń
ĠMin or
Ġlegend ary
Ġdesc end
Ġb anned
Ġvol can
Ġed iting
Ġwork shop
ĠMad rid
k ar
Ġexclud ed
Ġselect or
Ġrest ored
Ġh yd
ĠAr n
ĠM ail
Ġle ts
Ġassert That
Ġsome body
ĠA F
Ġh itting
ĠR ank
ĠL ot
Ġvol unt
ĠP erm
ĠNav al
ĠY ang
au er
Ġsub str
ĠB illy
() </
RE G
ĠRob in
F act
op ing
ra ise
ĠEth iop
C y
33 33
w ind
Ġqu oted
ĉ čĊ
Ġrec ycl
Ġemail s
he ld
ĠLe ave
C V
Ġbench mark
N EW
P ubl
um m
ĠUS D
um ed
ĠR T
L ondon
Ġcons olid
as sembly
ĠS eg
ĠR ES
Wh ich
ĠArm en
spring framework
O UT
b atch
Ġc ous
ĠP rad
Ġconstitution al
Ch ris
Ġs ends
if iable
Ġcon spiracy
Ġep och
Ġneutr ino
Ġoccup ation
ĠQ uality
Ġt ennis
Rich ard
Ġven ues
ĠPortug al
m ount
Ġvari ants
: `
plet ed
Ġfollow ers
ĠArch ive
om i
Ġc ry
ĠN ut
Ġachieve ment
qu ote
in ery
as ia
ĠB aby
ari ans
ue z
Ġf ate
Ġdelet ed
Pl ayer
Des ign
Ġs lope
Ġcour age
Ġm arch
Ġhe ating
Ġtyp ed
19 34
amaz on
Ġpure ly
ust ed
r h
Ġk iller
k ov
Ġcoast al
Ġpl ugin
Ġachie ving
l ass
ic he
Ġper ceived
Ġre ception
Ġf usion
Î ·
Ġlong est
Ġtext ure
it err
ĠF ine
V irtual
. ).
Ġstreng the
Ġr iding
ĠR achel
u art
Ġflex ibility
art z
ĠM aur
Ġlumin osity
res ize
iz ard
Ġattract ed
Ġte eth
R a
19 29
ues e
Ġexp ense
v et
Ġodd s
Ġabs ent
G ER
Ġgraph ic
Ġn ose
Ġback ing
H P
ĠJer ry
f g
Ġefficient ly
ew ise
Ġaccur ately
ĠE R
ĠU pon
ĠMad ison
ĠG host
Ð ¹
Ġexc it
Pass word
Ġbond s
Ġph osph
AR CH
met ic
om on
Ġcam ps
ĠL l
ĠJ oint
Ġsc ream
H on
Me anwhile
Ġcr ack
ĠB ird
HT TP
Ġboard s
Ġadv ised
$ &
un ion
ĠL arry
Ġinf ect
MACRO INCREMENT
ĠIran ian
ling ton
Ġa ux
F ocus
Ġs ake
MACROINCREMENT ED
12 6
ĠD ie
ah o
Ġcomment ary
; }
in valid
C amp
Oper ator
p ub
Ġmechan ics
ver ter
Ġt y
ir i
Q UE
ĠX ML
sub ject
D IS
ĠQu arter
ĠM ach
Ġde ployment
Ġanticip ated
ĠRe ports
d ag
Ġconj ug
res pect
int o
Ġt mp
Ġsens ors
ĠR io
ĠAct ive
us ername
ĠPr imary
Fr ank
B AR
ĠM ack
Ġpract ition
Ġconv icted
pro gress
Ġfl avor
Ġtop ology
Ġpost erior
EE E
ud ge
f ers
ĠH P
Ġcoal ition
eg u
Ġinc idents
in ces
Ġmer ger
Ġp ole
+ (
ĠSim ple
ĠJ a
Fil ms
Ġpo ison
Ġdistingu ished
Bas ic
sv g
Ġ$\ {\
Ġmod ification
Ġpaint ed
Ġaccompl ish
m ag
** *
Ġterm in
Ġhar vest
Ġm ere
Ġcomp elling
Ġsec ured
ĠT ol
; ">
Ġnull ptr
or b
G rad
Bl ue
pan ic
Ġass ass
5 12
ann es
S ever
ose x
St ation
OM E
ĠP ictures
Ġtime out
ĠM ason
Ġcomp ounds
m aven
20 2
. \\
ĠCommon wealth
Ġ\ ,\
ĠOr chestra
Ġcook ie
Ġtum or
ic ates
à¤ °
ĠF ourier
f ail
Ġn ights
Ġwarm ing
Ġrem arks
Ġagre es
ĠM unicip
trans ition
ĠM illion
os l
Ġc oc
Ġsp ell
i w
Ġvol tage
Ġadjust ed
Ġdead line
ot ypes
d k
; )
v ation
el astic
ĠF err
Ġ ,\
ĠP ad
res pons
Ġinj ection
Ġt ube
Ġn erv
ond s
ĠMed ic
iat ric
Ġcur riculum
ĠP ent
ĠD elta
Ġd ivers
Ġdist inction
Ġop ponents
p ic
ĠGr iff
Ġprelim inary
Ġh ire
s pl
script style
á »
ĠG M
Ġrock s
A rm
ĠSup pose
ĠK ay
Ġoverwhel ming
Ġrecip ient
ra h
Ġpseud o
ĠA aron
ĠM all
Ġhand ed
Ġdiscuss ing
sh adow
it r
Ġadm its
Ġillust rate
ĠM om
ĠWar ner
P ers
Th ose
bet ween
she ll
A z
ĠAp ache
Ġshift ed
ot he
Ġassess ed
m oment
Ġg rey
Ġsu ck
ĠF riend
Ġsubstant ially
all ed
act ivity
B ur
P air
ĠT ab
Ġlegit imate
' ));
itte es
Ġart ifact
B ind
Ġswim ming
ĠFl ight
Ġcourt esy
equ ations
ĠProduct s
B ad
not ag
Ġpassion ate
ĠWeek ly
Ġdis h
ier ra
Ã ł
Ġbar riers
Ġcorrel ations
Ġt ribute
ĠW ould
Ġwis dom
un ting
Ġcal m
Ph ys
Ġsil ence
Ġd ys
Ġres il
ĠK ap
em a
Ġpower ed
} </
com fort
en ue
Ġg ra
ĠCE LL
se p
Ġdis ability
cons ider
Ġcomp ass
Ġjournal ism
Ġsh ame
Ġquadr atic
as ures
b ie
Ġprof its
st ation
ri en
O H
Ad v
g ather
aged y
ĠOper a
grad ient
ĠH ousing
Ġsum m
19 10
est ing
add le
Ġad mission
][ ]{
id i
ĠSpring s
deg ree
Ġanaly tical
le tt
ow der
Ġl iver
Ġd ub
Ġas h
ĠNe il
Ġnewsp apers
Ġ ul
I Z
Ġconflict s
ĠA irlines
iv ic
me an
, .
Ġpl ug
Ġnot ification
ĠFin n
em ics
Ġs ail
Ġal pha
M ad
P red
ĠG OP
Ġall ocation
g row
oc ese
om eter
ĠA ld
Ġforest s
< !
Ġearth qu
tab s
b ank
">< !--
akes pe
Ġfore ach
ĠK ath
ĠDe cl
Ġrev ised
ĠW onder
init ely
ĠTer rit
ĠU V
Ġl os
ĠLiber al
Ġsurve ys
S elf
z ing
19 15
N ormal
Ġsh ield
ĠB irmingham
Ġexperi encing
wrap per
ĠLabor atory
Ġcross ed
ĠSh ah
ĠC F
( -\
le in
Ġsus pected
y outube
ar ms
Ġsu ite
r b
Ġpr ide
ĠMont e
v ariable
tr aining
Ġrecommend ation
h istory
Ġste ep
T ech
sc ience
ĠC ensus
sequ ence
ĠA y
Ġall ies
Ġaccompl ished
= [
amil ies
b ecause
pol icy
I RE
ip h
Ġpres erved
Vis ible
ĠId ent
Ġl on
per ature
Ġcontinu um
Ġconsult ation
Ġdens ities
Ġdig it
Ġt ape
Ġint elligent
Ġt ropical
ĠAssoci ate
ĠS even
Ġel abor
Ġch ip
ĠV enezuel
Ġbre ach
Ġr ated
Ġsl ave
ĠV ision
Ġtox ic
Ġd ining
Ġscholar ship
Ġuniform ly
iterr anean
ĠLuc as
ĠB enn
Date Time
det erm
Ġhe aven
Ġconcent rations
S ample
Ġin cl
Ġh o
ĠEx cell
Ġconven ience
ĠPer ry
ĠĠĠĠĠĠĠĠĠĠĠĠĠĠĠĠ ĠĠĠĠĠĠĠĠĠĠĠĠĠĠ
D EC
u on
Ġfl ower
s it
ĠC au
G erman
Ġphys ician
Ġless on
Ġlim iting
ĠD escription
TR UE
Ġdefend ant
Ġtok ens
d ensity
s am
Ġsw ing
je ctions
m illion
s chool
Ġinvestig ating
ĠAb stract
ĠR ange
ĠStat istics
ĠS end
Ġal arm
20 23
12 9
Ġpul se
Ġp our
Ġc ryst
ĠArk ansas
T F
as ync
umer able
ĠAgric ulture
se ctions
ĠTreat ment
Ġad verse
ĠComp anies
us c
Ġcon vey
Ġinstrument al
Ġmob ility
to o
rist ol
M AN
Ġdec ides
ocol ate
comp are
atern al
Ġvis ibility
ĠS ets
ĠOther wise
pd ates
Ġbl ess
Ġorb ital
Ġpar a
ad ic
ĠPro file
ĠNor wegian
Ġb acteria
ul er
Ġsc rap
Ġpred omin
l as
ĠS ug
Ġprof ound
ast ing
Ġpers u
ff ff
m art
ĠJ uan
F uture
Ġstop ping
ĠTr uth
Ġup set
ĠC ant
if le
Ġcollect ing
Ġop ponent
Ġconf used
ced es
ĠMont real
Ġdep icted
. <
re nd
pir atory
qu est
*} [
vel ope
19 0
B al
w x
Ġpe ers
Inter val
Ġrun time
Ġd upl
VAL ID
Fix ture
N ative
C enter
ĠKe ith
19 32
ĠJ oin
Ġu i
Ġa uction
A fr
Ġtri ps
Ġjo ins
Ġor ange
Ġforg otten
A ST
In f
Ġd ot
Ġsubt le
Ġr amp
Ġtw in
rypt ed
Ġdeg rad
ĠEnter prise
P ut
m oz
á ĥ
Ġcancell ed
Ġmem orial
Ġmiss ions
Ġrest oration
id o
ĠArt ist
Ġcommission ed
ĠS creen
Ġdiagram s
Ġun precedented
Ġap pl
ĠTh ink
comp ass
Ġcl ause
cons istent
ĠL if
ar ance
ts d
Ġcharg ing
ĠTh an
Ġdiv ide
H ot
Ġw ars
ĠF DA
ĠIn ternal
h is
Ġbatt les
ĠF ish
ject ure
ĉĉĉĉ ĉĉĉĉĉ
EE EE
Ġste am
ĠH ind
Ġsust ained
ĠS amsung
ĠR ud
akespe are
ĠG raph
ĠTr ack
Ġtw ist
or o
ĠTechn ologies
am med
back slash
Ġr itual
Ġwe igh
Ġaccess ed
Ġi OS
ab i
Ġw ishes
Ġdist ant
Ġencounter ed
se en
ĠEd ge
Th omas
ĠC u
ĠPre vention
T M
au kee
27 0
Ġd aughters
ĠK irk
Ġbreak fast
Ġdro ve
H y
Ù Ī
Ġcent ered
b rit
Ġremain der
Ġappro ached
Ġbe ings
Ġinter pol
/ _
eth yl
Ġtrem end
(' .
ĠDirect ors
ĠGuard ian
Ġal ias
Ġse eds
17 5
Ġfood s
Ġver b
ĠAud io
ĠE ST
ĠK u
ĠDat abase
r ors
s al
ĠNever theless
Ġfriend ship
Ġsequ el
ential ly
ounc ing
construct or
Ġhon our
Ġunc lear
effect ive
ĠCam eron
t body
ster dam
j or
ĠB irth
Ġviol ations
opt ional
sen al
Ġs its
ĠAl gorithm
Stand ard
Ġhot els
Ġnation wide
Ġ= ======
) (\
ĠH udson
K ing
ĠT an
iz ar
Ġtechn ological
at ivity
uss ia
Ġmotiv ation
Ġin clusive
ĠE ld
Ġac res
Ġbenef icial
Ġg amb
Ġem p
ĠÐ ²
con n
ĠCal c
Ġc av
Further more
Ġclass room
Ġdon ations
ĠV oice
Ġown s
al ion
Ġdecl aration
ĠC arm
rol ogy
et on
h h
An alysis
sect s
ĠCy ber
ĠHam pshire
Ġnurs ing
log in
ĠSc ript
Ġdecl are
Ġ( #
Ġwork force
Ġremember ed
19 28
ĠMe chan
ĠX box
sc ss
Ġdr ums
c op
Ġt ar
ĠBre xit
Ġcount ing
Ġnot ably
ĠB achelor
Ġsent ences
Ġb ab
ĠC ut
With out
Ġconnect ivity
hib ition
Ġdead ly
DE FAULT
\| _
(' /
ĠEm ma
Ġdis contin
Ġeth ical
Ġdivor ce
in cre
ĠF if
ĠCons umer
Ġm ature
ĠCru z
Ġbal anced
ĠTurn er
em b
ĠH ttp
ĠF el
ĠLiber ty
14 5
Ġtyp ename
ĠNC AA
time out
ĠT ig
ĠCon c
Ġar ising
Ġunem ployment
I gn
Ġsub mission
Ġend point
ĠS urg
ch art
set up
ol ine
Ġwind s
Ġdecre asing
ĠS ent
Ġearn ings
ĠCost a
Ġstep ped
d in
ĠB eth
ĠD rama
arant ine
u its
ĠT s
ĠDet ails
Ġen zym
Ġ rip
Ġf ut
N P
Ġoper a
Ġt une
pro xy
List en
ĠLet ter
un ing
asg ow
ĠM IT
Ġpost ing
t k
Ġse curities
Com b
mark et
ĠMaterial s
S F
er gy
Ġform ul
ĠUn like
Ġe uro
ĠP E
pl iers
Ġso vere
ĠM aking
Ġdro ps
ĠBar on
M a
Ġt orn
ĠNe uro
Ġtest imony
ract ed
side bar
Ġoverl ap
A bs
Ġrec urs
Ġlov ely
Ġcontinu ously
3 30
Ġt ours
Ġfil ing
ah a
ad ows
ĠT es
f lex
Ġback ed
L and
Ġnom ination
Ġcomp ilation
aj ax
M el
Ġcook ing
at ics
mem ory
string s
Ġsur ge
Ġle ase
Ġbar rel
Ġequ als
col lect
Ġstock s
n ut
Vis it
Man agement
Ġaltern ate
ĠIss ues
ĠV ector
$. }
G od
yn asty
Ġcontrovers y
ĠS oc
ĠCom mercial
Ġexpl ores
Ġcent res
Ġheart s
Ġg ym
R ay
Ġcomm ander
à¥ į
sl ice
ĠBen ef
. $$
Ġtarget ing
h n
Id s
ĠBar celona
Ġdo zens
Ġsm oking
Ġren amed
Ġres p
Ġd oses
ĠL oad
com plex
ĠP ic
ID TH
.. ...
E U
om o
Ġrespons ibilities
B IT
Ġcur ious
ĠT it
S uch
ĠMO RE
Ġgold en
w aukee
Ġrep orters
ĠEN D
Ġam end
bas ic
Ġbre w
\! \
................ ................
ethe less
Ġh alo
ĠRep ly
Ġbu f
comp iler
ĠS ave
ĠP ul
J im
Ġcann abis
) ^\
ern ess
Ġt ut
s ized
cor ollary
ĠC IA
Ġpresent ing
ĠSand ers
bold math
ĠB right
nav List
ĠR av
d ynamic
ĠP icture
Over view
br and
m k
mat htt
cast le
B ill
Ġsup ern
ĠLink ed
epend ence
S ite
Ġcor poration
^ ^
om ething
ĠW E
ut o
I ll
g oto
or igin
ig ator
Î ¼
Ġarch ae
Com plete
ĠJess ica
Ġst olen
Ġre nown
De ath
ik o
Ġcomplet ing
ĠW or
amb ig
Ġcontact s
Ġcomb inations
Ġstake holders
ĠRem ove
Ġreason ably
ĠT ry
Ġcorpor ations
G LE
? >
PO ST
ment ioned
ĠBrazil ian
ĠEn c
Ġpro c
ĠCor porate
c ity
Ġassoci ations
Ġwrap ped
m ix
Ġcomp iled
Ġdemand ing
Ġf ool
Ġcond ens
Ġprint ing
Ġcont rolling
ĠCons ervative
Ġd ancing
Ġrenew able
ĠArchitect ure
B u
part icle
T or
Ġv ig
ĠPol y
Ġt x
ĠScient ific
ĠCons ervation
ĠSum mit
D ictionary
ro v
Ġdismiss ed
ĠRich mond
( @
Ġhero es
Ġveter ans
ĠGreat er
SE LECT
Ġ\ "
ĠBas ic
om es
Ġread only
Ġtransform ations
Ġprogram mes
Ġpay load
Ġrun ner
orient ed
F ire
Direct or
Ġind igenous
ar ound
ĠHor se
Ġexplos ion
) >
appro pri
py thon
s ocial
Ġorig ins
AM ES
ĠP anel
AV E
Sy ntax
g ba
em or
ĠL ux
Ġvacc ination
ion ic
ĠNY C
Ġl ang
Ġident ifier
ist le
Ġdraw s
Ġlit igation
Ġegg s
ay an
ĠProgram s
Ġdou b
Ġr hythm
c atch
Europe an
ĠArray List
(' #
ad vant
Ġim prison
ab ul
ĠO t
small matrix
C G
F acebook
ĠK id
ĠEar l
Ġdel ivers
2 25
Ġmist akes
Ġc ave
ĠEm ily
ĠSh a
Ġg ray
Ġretain ed
$ ^
19 22
Ġs isters
VI EW
S creen
Ġhabit at
land o
Ġobl igation
F ac
ĠQue bec
Ġpack ed
Ġdeput y
b ach
15 5
Ġdiscuss es
Ġanaly tic
Ġhe m
Ġke en
cknow led
ĠV ari
Ġstreng then
Ġr ape
P UT
ĠV A
Ġstrugg les
ĠM erc
Ġpe oples
Ġg rip
ov ie
Ġwood en
ĠT ed
ĠÎ ¼
Y eah
Ġint ens
ĠC G
Ġmer ged
m ouse
ĠM asters
Ġfin ancing
fe ed
Ġde fer
Ġcr icket
ĠCour se
Ġbel oved
ĠAb u
ecut or
comp ile
Ġ elli
19 25
Un known
ĠGrow th
ibli ography
: [
n p
all classes
ĠBat man
Ã© t
top ic
Lim it
up per
Ġco ins
19 27
ĠCommun ication
Ġconduct ing
d istance
Ġpro ps
ĠInit iative
Ġclean ing
ĠS oph
rupt cy
ĠCont ext
ĠIl legal
ĠN am
ul ly
Ġr ugby
ĠEm peror
ĠD iamond
ast ed
Con stant
Ġsophistic ated
Ġult ra
Ã ¥
ed ed
Ġstart up
Ġoccur ring
Ġj e
ĠAssoci ated
Ġiniti ated
Ġread ily
ĠStand ards
Sequ ence
ens en
Ġintern ationally
he astern
Ġacknowled ged
ĠH igher
Ġair line
ĠWel sh
ĠN intendo
path y
Ġspons ored
Ġb reat
' _{
ĠT erry
Ġst er
Ġhistor ian
ĠLeg end
ĠElement ary
ind a
Ġbet a
h fill
ID E
Pro ps
ĠSh aw
Ġhop ed
Ġfor b
Ġf illing
log o
ĠNaz i
ĠIn cre
cer pt
Ġmand atory
ĠBit coin
Ġreason ing
Return s
ĠT odd
cur sor
Ġnom ine
Ġpro position
Ġoccas ions
Ġv ir
Ġm amm
19 26
p ad
ĠD oll
Ġprefer ences
Dan iel
=\ "
Sm all
the me
Ġper mut
Ġdiagn osed
Ġrec ur
ĠIm perial
ĠC I
10 16
Ġpr icing
Ġcomment ed
g ender
ĠPhil osophy
Ġflo ating
Ġn p
W ait
)} (\
Ġlog ging
Ġcon ce
Ġext raction
OL D
Ġm os
up arrow
rou te
Ġmunicip al
Ġins pection
Ġv iral
ĠSur v
ogen ic
ĠW u
Ġinvest ing
Ġt ired
Ad min
ĠHarris on
Ġz ones
Requ ired
ĠFa ith
ĠAdvent ure
r and
ĠE ve
ipl inary
Ġarch ive
op edia
s ym
Ġun lock
ĠK el
i ological
UR N
ĠRes pons
ar us
19 2
ĠV erm
AT TR
ĠUn c
Ġtrans parency
Ġj s
ac cur
Ġimpress ed
ĠVis ual
18 00
An imation
,... ,
Ġaver aged
B order
} >
Ġri vers
C B
Ġsc iences
Ġhel icop
Ġsold ier
Ġfear s
air y
ĠCon stant
cl one
aus es
S at
Cond ition
Ġtrust ed
ĠH MS
) }.
Ġpe aks
down arrow
Ġd t
ĠSu ite
ĠInd igenous
ĠArt icles
âĢ¦ âĢĿ
comm ons
Ġac oustic
IN FO
Ġa uth
ĠCo hen
l ic
ĠH app
H aving
Ġdis closure
dest roy
ound ing
ĠM I
Ġpl acement
IC K
t ests
Ġlo ose
Ġfast est
Ġch ron
w d
ĠL it
ro d
select or
e ctions
r uby
Ġwork shops
ĠRest aur
Ġf o
found er
Ġs ne
ine a
Ġen force
st ra
Fl ag
add y
object s
d ark
N AS
a very
Ġsuggest ions
H istor
ĠD ig
Can adian
Ġconscious ness
ĠAl ong
ĠR ing
"" "
print ln
Ġprefer ence
Wel come
Ġbus es
Ġaccommod ation
Ġhe aling
int age
ĠSy rian
ĉ ĠĠĠĠĠ
tr l
Ġgr ave
ox y
ĠSpec ifically
M ETHOD
ĠM ental
ĠS ize
M ajor
ĠR ole
ĠÃ ł
Ġsh oes
Ġmon ot
Ġrac ist
ĠF an
Ġexcept ions
N ever
ĠA rena
ex pression
Ġdocument ed
es cope
ĠOrth odox
Ġspecial ized
Ġeditor ial
F n
Tag ged
Ġt ent
ĠB udget
Ġin coming
Ġmem brane
Ġland ed
' ];
th ick
ces ter
h ad
h arm
Ġmethod ology
ĠB oe
ĠAg ent
mid rule
ou p
Ġarg ues
M ont
Ġl oving
ĠWork ers
Ġvar ies
19 21
greg ation
Ġ_ .
Ġdem ol
L android
Art icle
Ġdisp ersion
Fl ow
ph icon
Dep artment
ĠE SP
Ġalloc ated
ĠP in
Ġbut ter
Ġap olog
Ġbehavi ors
he imer
ext end
Ġtr unc
ob a
/ "
Ġconfigure d
ĠB ud
Ġnerv ous
Ġbott le
Ġdepend encies
Ġport rait
Ġball ot
Ġact ed
Ġsynt hesis
B orn
à¥ ĩ
ch ing
Ġsh aped
M ouse
pg f
Ġinnoc ent
ĠA w
pl oad
ĠBuff alo
Ġiter ations
Ġf u
ĠF act
ĠStan ford
id ad
cre ated
ĠCl ay
M AP
Ġsh ore
End point
ĠM ong
J on
Ġ? >
ĠD anny
f ive
Ġpick s
bel ow
T ON
19 31
Ġcollabor ative
Ġinvest ed
Ġaggreg ate
Ġ rib
ĠK an
r f
ĠK E
Ġtreat ing
x s
Ġb eneath
ĠN ord
Ġp ension
Ġan onymous
Ġintrodu ces
Id entity
ĠL em
J oe
Ġs ync
ĠZ e
inv ariant
Ġattend ance
Ġexp end
19 24
ĠGi ants
Ġcreat ivity
om eters
() ))
ĠĠĠĠĠĠĠĠĠĠĠĠĠĠĠĠ Ċ
im ir
ov ak
ex cept
Ġtrans verse
cl ock
Sk ip
OR M
os opher
Ġrender ed
ĠN ancy
Ġen act
ĠTo o
N amed
T y
ĠBu y
$ '
ĠS ure
ert s
ele ments
Is rael
ĠW es
Ġsmart phone
R ock
ab ove
Ġd elta
ah l
ĠY eah
ins ula
Ġmag ical
char acter
ĠQ ual
ash a
ĠFin land
Ġliter al
Ġun t
U ES
Ġhom ogeneous
x html
ĠAdd itional
Ġwound ed
F ort
it ud
Ġsum mit
ic ating
Ġgr ain
ĠF at
ĠR ac
ĠN um
ĠF itz
Ġexpect s
left arrow
ĠK il
Ġconj unction
ĠBr anch
c amp
ĠB orn
ĠMed iterranean
oth s
Ġcust ody
/ {
Ġra ises
Ø§ ÙĦ
o j
ĠD ictionary
Ġe ager
Ġclust ering
ĠVin cent
Fr iday
Ġminim ize
Com parison
col Last
ĠBi ology
ĠT E
ĠMan ufact
oun ces
Ġqual ify
p b
ĠM ock
Ġchalleng ed
ham mad
C ould
æ ĸ
Ġm i
Educ ation
a que
ĠM B
19 12
ĠY u
check box
ĠH at
ĠCo ach
Ġrecogn ised
ĠFil ms
Ġver ified
ĠPlan et
_ );
ĠG ene
Ġenjoy ing
ĠM ak
Ġblock ed
b inding
T ur
ĠAdvis ory
A W
Ġterror ism
Ġth rew
Ġcor related
Ġf t
Com par
Ġal ike
{ (\
ĠR acing
Ġspread ing
Ġdim in
Ġprevent ing
ĠCond itions
ĠS witch
Ġ" ",
ĠN J
Ġweak ness
Ġsort s
ĠWat son
er os
ĠW ire
r ish
w arning
ĠN an
i Äĩ
el ian
s ync
Ġhol idays
ĠMet al
EN CE
Ġpeace ful
ĠT i
Ġal igned
Ù Ĭ
up load
he res
ra red
Ġnon profit
Ġdiscipl ine
Ġvalid ity
Ġworld s
ĠĠ čĊ
ĠJ ama
Ġmer ch
Ġgener ators
UM M
igh bor
in ion
Ã ´
ĠCamp us
t v
ĠN ad
Ġf mt
ull ivan
E ast
ĠYO U
ĠN HL
Ġman ages
5 000
ub er
hy per
| $
ĠA verage
Ġco herent
ĠI F
anc ies
Th ough
Te am
f iction
Ġexpl aining
Ġo ct
ĠPark s
ĠT rip
Ġsl ip
ä »
ĠA V
ah u
Ġcert ification
Ġtri angle
ĠBern ard
Ġst om
Ġdes erve
ĠOther s
und efined
Ġcre am
l it
Ġin ad
L arge
Ind ian
Ġdu o
get Element
ĠG C
ĠL ives
ĠL icens
Ġrel ies
13 2
Ġbuild s
Ġwitness es
T x
Ġstri kes
ĠPsych ology
F ar
AT O
Ġhand ful
Ġthe at
Ġrad ar
Ġf ingers
ĠP ain
ĠE instein
Ġsl ice
| ^{
Ġdr illing
Ġplan es
col First
Ġign or
13 6
F older
ĠV eh
A X
d irection
M ary
f ac
ĠSt yle
... ]
Ġcha os
ep per
Ġsan ctions
o ons
erv atives
IL D
Ġgr an
Ġautom ated
Ġform ats
ĠWood s
Be an
Ġdist ancing
ĠUs ed
S ources
'] ['
Ġper missions
Ġsus cept
L T
us hes
ile vel
Ġpat ri
Y P
Ġtour ists
Ġh anging
Ġshel ter
Ġsett le
IN K
Ġmed ieval
ĠForm er
Ġg aps
Ġcomp ression
Ġan omal
te am
f mt
Ġchar set
ĠCom plex
ab ases
~ (\
uc le
ĠR ivers
Ġtrans mitted
Ġres erves
ĠPer iod
d river
ect ive
j ournal
Ġkne e
Ġreserv oir
res olve
Ġdiagn ostic
h d
ine ar
Ġre vel
qu arter
AR K
e fficient
Ġrem ind
Ġspect acular
Ġbi ology
amb ers
ribut ions
umb ai
ĠE le
Ġan ten
$- $
ul atory
Ġres ist
}^{ +
inter pret
Sp an
ĠWrit er
******************************** ********************************
ĠAv iation
16 5
ĠT ak
ch at
Ġcare ers
Ġsecre ts
ĠDef ence
ap id
f actor
iv ia
ĠA round
Ġent ert
ĠSh akespeare
Ġre vis
ĠC V
Ġaccommod ate
comm it
ĠEgypt ian
ex it
Ġprivile ge
EEEE FF
Ġproduct ivity
rad io
Not ification
R ate
19 23
Ġdon ation
Ġthrow ing
at able
Ġtra uma
olec ular
licens es
H uman
Ġintr insic
Ġwealth y
ar an
Ġgu ided
ĠEvery one
D rop
Ġfun eral
Ġv i
Ġd ictionary
s afe
ĠAl t
ĠU P
Ġ' \
cel and
Ġa ired
Ġann oy
Ġdon ated
Ġstation ary
ĠCro at
ind ependent
ĠH alf
ĠGl ass
Ġch unk
ĠCom plete
Ġpro pri
Ġsegment ation
in ement
ĠComm ander
ĠKar l
n ol
May be
Ġadv ances
Ġj oke
Ġpl acing
ĠProgram me
se lection
ĠCirc le
Ġ Ñģ
Ġinter ventions
habilit ation
og an
H ouse
Ġc inem
Th row
sh aped
ĠJeff erson
ĠJam ie
ĠU g
Ġfre ely
et ta
L uc
S V
end ors
cont rib
Ġg ig
ce il
Ġconsist ed
Ġprem iere
ĠL ion
pro pto
ĠAss essment
Ġgent le
B bb
Ġrenown ed
ĠPart icip
M ount
ĠP le
ĠEconom y
sc apes
Ġfl our
ĠAb raham
Ġg ifts
ĠK ill
Ġcompris es
Ġent ers
Ġ\ |\
ĠSum mary
o qu
Ġ" $
with out
ab stract
Ġsl ide
Ġacc eleration
Ġcompos ite
Ġcast le
Ġh orn
FF ER
Ġcompet itions
inher it
ĠIn side
s ong
Ġimag ination
ĠB ear
ĠDel aware
D ATA
... </
Ġmetab ol
Ġeth ics
ĠPortug uese
ĠR N
Ġbron ze
ops is
C ONT
Ġful fill
ĠT on
C red
Ġm esh
ĠMount ains
ĠSec urities
ĠL en
ancell or
Ġexecut ives
ĠR u
Ġbe ating
Ge V
work ing
ĠR ather
ent ric
Ġr ings
is y
ĠCon vers
Ġimp ose
Ġsc andal
Ġarriv es
Cons umer
ah oo
f actory
Ġr iders
ch t
ab we
ĠS id
run time
Ġs ocket
Ġr h
13 4
Ġpo ems
Ġcompan ion
Ġart work
Ġorth ogonal
Ġinher ited
å Ī
R aw
Ġur ged
ĠL ate
}. }
ĠT ib
S EC
ĠHill ary
Ġw ages
Ġtherap e
pos itive
L ou
Ġwhere in
Ġf ires
Ġinhabit ants
arn ings
Ġcompet ed
valid ate
Ġev ac
ne ver
Ġb ol
com ed
ĠWe ather
t ot
Ġopt s
het or
ĠS ongs
Ch apter
g al
M ike
CO M
13 7
Ġ$ ^{
US ER
dat abase
Ġpred ecess
ĠInt el
Argument Exception
13 3
j ack
0000 00
Ġalgebra ic
ĠTh read
Ġfoss il
Ġwond ering
ĠNichol as
ic ode
ĠB esides
ĠMo z
over view
ĠWell s
t elling
Ġspeed s
ĠMem ory
Fr agment
So ft
Ġmod est
ĠC ounsel
og g
Ġcur sor
p al
Ġy eah
ĠC atherine
Ġc ig
ty pen
ĠB ristol
ĠReg ulation
Ġpsych ology
Ġc argo
ĠN athan
Ġl ap
Ġquarter back
ĠIn j
get Value
vert ex
Ġreg ards
Ġdesign ers
ĠJ S
ĠH indu
Aud io
Ġchar ter
c v
s b
ĠL ex
Ġfootball er
Ġpen et
ĠSh ang
ĠRog ers
Ġlic ence
ĠV acc
str ument
ĠW ant
ian ces
ĠHall ow
Ġtravel ed
Ġpros per
Ġint im
Ġconstit ute
Associ ation
Ġmed ic
_{ +
ne ut
Ġme als
Ġproceed s
Ġinher it
Ã «
Ġchap ters
ĠR ico
ĠTr ain
Ġam ended
Ġf ier
ĠMet ropolitan
ĠCl ose
Ġpolynomial s
Ġin quiry
ĠJ obs
oot ing
CT YPE
S ame
Ġdiv isions
iem ann
imb abwe
Ġco h
ĠH az
{ |
ĠRe act
Ġtempor arily
ort on
ris k
Ġimpro ves
ĠK aren
roll ers
ĠLag rangian
Ġl apt
ĠEd wards
s ig
19 11
Ġpropag ation
D ays
F lor
Ġre pository
Ġelect oral
Vis ual
Ġ" %
Ġelev ated
ĠSI ZE
Ġm d
ĠGl asgow
10 24
ORD ER
H en
36 5
Sec ret
ĠFe atures
ĠI M
us form
ĠG ive
g ie
Ġsur f
ĠBul gar
ĠC risis
Ġan ime
SS L
Ġsp arse
âĨ ĳ
Ġl ymph
Ġd war
Ġanaly tics
ĠM ix
Ġo ught
Ġv ic
numer usform
amp ed
ict ing
iz ational
Ġphenomen a
am ic
ol y
ĠD raft
ĠI gn
ĠC atal
Ġval ued
Ġreform s
B ay
Ġquant itative
cd n
ĠH unt
Ġmag azines
(" /
ic iary
Ġdef ending
Am ong
. (
is ible
Ġsurviv ors
Ã ª
sw er
NavBar Font
Ġcontinu ity
Ġtrav elling
Ġlocal ized
Ġmark er
Ġcompet itors
Ġenc oded
Ġmount ed
Writ ten
ĠO DI
Ġthick ness
int ro
ĠBr ain
ĠA bs
h aw
ĠT ool
ring e
Û Į
Ġun stable
IO Exception
Ġped est
int ell
Ġf ru
ĠS ession
iz a
Ġexhib its
F IN
ĠM R
ĠSpe aker
Ġpoor ly
ĠSh ar
Ġcru ise
C ref
ĠM atter
ĠAl fred
ĠMat hemat
du ctions
Ġsoci eties
Ġt ong
Ġb ubble
Object s
Ġindic ator
S K
f olk
Ġdescript ions
Inst all
Ġtour ist
Ġcrit erion
ĠM ans
Ġfarm ing
Not Found
ĠB A
ĠG rey
av ia
ĠCP U
ĠSo on
LO C
Ġdipl om
yl um
stack rel
Ġg al
Ġro ster
Ġsup press
ĠFl ore
Valid ation
D ue
ĠCont emporary
Ġinteg rate
19 13
Com put
end um
> )
Ġachieve ments
V ICE
Ġspl itting
Run ner
G s
Ġprob abilities
ĠPro gress
Ġrot ate
ĠTre nd
ĠS aints
con sum
Ġsc ar
typen ame
Ï ħ
Ġref use
ĠF erm
Ġout per
ĠH ab
IF A
Ġle ver
ĠAcad emic
t ically
Ġch ampions
Ġresear cher
S B
ai ro
erm ark
d uration
C ost
ĠN A
us k
Exec ution
ĠD ementia
Ġi i
Ġprotect ive
S ar
Ġle ak
Ġpick ing
Ġre op
Â «
p end
Ġdepend ency
w right
ĠChar acter
Ġun fold
par atus
15 00
Ġany body
Ġmod ifications
ĠT ell
D iff
Ġconsider ations
ĠOption al
Book s
ap or
Ġarriv ing
text sf
Ġroll ed
Ġpi pe
ia o
val ued
AS K
Ġob s
Ġleg ally
Ġentert aining
Ġinter pre
Ġf iring
ef e
Ġaccept ing
Ġbo ats
ĠMe et
ĠPubl isher
Ġver ification
Ġlaunc hes
ĠS old
ĠN ar
Ac cept
ak u
ĠComp etition
cont act
ĠCurrent ly
n ia
ĠM ario
e cca
Ġsl avery
Ġreven ues
F s
U V
C ong
ĠInit ial
H ard
And rew
ĠTreas ury
check ed
Ġt ears
Ġpers pectives
Map per
W alk
ĠW ol
Ġ ĉ
Pro to
Ġdr ain
sup erv
j d
Ġtr ap
aut ore
cl ide
f b
g om
ĠNorm an
Ġadminister ed
um ph
Ġthere of
Ap ply
Ġthe sis
Ġs ew
Ġemb arr
er ial
ĠS ymph
ĠBapt ist
im als
ĠDub ai
Ġtrans cript
Ġpl ural
Austral ian
Ġres ume
ĠF ocus
pl ings
sign ature
Ġfeas ible
Ġb lo
ĠF E
m und
Ġembr ace
p el
Ġloc als
ĠCar lo
Sp ring
) &
In vest
13 1
i ator
ĠCub a
ĠB ass
ĠChem ical
olog ic
ĠVi enna
F ramework
c n
I ss
Ġport s
Ġreli ability
s ocket
Ġfeed ing
Ġconsider ably
G D
Ġcontrad iction
Ġhierarch y
ĠPe ak
W allet
role um
andid ate
V ari
W arning
â Ķ
ET A
Ġamb itious
R andom
Ġemer ge
Ġun ions
Serial ization
Ġarchitect ural
% ),
Ġpun ishment
h all
J ournal
ĠCommun ist
Ġcreat ures
N a
e very
DO CTYPE
B inding
ag ine
ĠE ye
n ob
=\ {
Ġmurder ed
Ch art
Ġprior ities
Ġg ates
ir s
en berg
ĠN AV
Pl atform
og s
be it
ĠCh ampion
Ġprov ing
r aska
Ġsub div
Ġcab in
Ġun e
ĠR andom
Ġout s
ĠPhot os
ĠMichel le
ĠPhill ips
t b
Ġjust ify
Ġswitch ing
Ġharm on
Ġw it
Ġ _{\
ĠChel sea
13 8
Ã Ĥ
Ġindic ation
L ow
ĠBerk eley
ad v
Ġf ighter
ĠOver all
ĠA part
Ġr ic
Lear n
ĠL atest
Ġdel ays
Ġamb ig
ĠOp port
d n
Ġprot otype
N or
m aps
Ġincor porate
Ġsh r
Ġcomm od
Ġc ere
ang les
Ġprov incial
refer red
Ġnav igate
Ġcom plications
ĠAnc ient
Ġp ocket
con sole
Seg ment
p icker
g ement
MO DE
Ġmin eral
Ġadvoc acy
Ġvis itor
ĠRem ember
Can ada
g ray
pr ising
ĠN icol
l p
U CT
Ġbad ly
Ġjud icial
Ġdram atically
$ ^{
intell ij
Ġed itors
H ey
P rom
ĠM ick
ĠWild life
IS H
ĠGh ana
Ġspokes man
ĠHung ary
ĠHoll and
au nd
Ġexpect ing
n ational
Ð° Ð½
Ġline up
Ġend e
d ue
econom ic
Ġj ournals
Ġlength s
ĠS ays
Ġle ather
Ġcan vas
Ġburn ed
ĠTy ler
Ġdisappoint ed
ĠE M
18 90
les h
Ġ@ "
Act iv
Ġident ities
Ġret reat
Ġlaunch ing
ur ious
unc hes
Ġhapp iness
m iddle
ust ers
Ġh iring
im its
Ġco in
ĠNash ville
K it
ĠF ly
ff icking
Ġguarant ees
ĠEqu ation
pi res
iz za
B s
et ooth
Ġrespect ed
Ġim pl
Ġ\ [
ul o
D river
agon ist
* ,
ĠB ath
ov o
Ġgr at
ect ure
ĠTh r
ĠCol umn
leq slant
bin om
ĠS r
ĠH ockey
ĠC ox
il ia
Ġinc idence
ĠAm sterdam
Ġcreat or
c ou
ent ine
pro blem
Ġbel t
?? ??
Ġel astic
method s
z ip
Fil ed
Ġ\ {\
ĠPro perties
Ġrail road
Ġsubstit ute
W ord
Ġde ce
p us
ĠIm prove
Sm ith
Ġincre ment
Rad io
Ġp iv
Ġtr agedy
Ġcompris ing
script ions
Ġworth y
P an
ĠAr c
Ġsh ar
Ġav iation
IT ION
oc ate
Ġr ice
Ġf oster
ĠR idge
Ġacc ret
ĠP ub
Ġsatisf action
J ac
Ġb ureau
21 3
Ġm akers
Ġn urse
Ġext ensively
Ġconsult ant
ĠÂ ±
ĠCl are
Ġpath way
is ure
m un
ĠW ITH
Ġund ers
z ed
Ġpursu ant
ĠHallow een
Ġmac ro
he nd
H or
R NA
Ġy ard
Ġout lined
Ġscr atch
D er
ĠBroad cast
mer ge
CL ASS
ent i
Ġ' ',
Ġbuy ers
Ġj unction
}) ^{
Pl us
ĠG onz
ï¼ Į
am ation
ĠPh one
Ġto b
in yl
clud ed
Ġdr unk
ä º
Ġhope fully
ĠU til
Ġprim itive
Ġdrink s
Ġwith d
ĠS K
Ġcomb ines
ĠPhys ical
ĠD ennis
97 8
arg uments
ĠMar x
Ġlimit ation
pol it
ĠI o
Ġlisten ers
LE S
Ġpra ise
ĠC ob
ĠF ace
ĠProt ocol
Ġtrigger ed
Ins ert
ĠQ CD
Event Listener
C ulture
us r
Ġde ar
St rategy
B F
Pol ice
m atic
re ts
ĠF ashion
ĠT u
2 12
Ġmother s
we ak
Ġaud it
p ublished
is o
ap is
ĠOut put
text normal
Ġsurg ical
ĠL L
ĠL arge
!! !!
Ġpartnership s
Ġdress ed
res olution
M aterial
J eff
ĠAr ctic
brit ies
F eed
ch air
W ashington
ĠEdd ie
20 5
Ġannoun ces
j b
ĠHar vey
ĠAn al
Ġsubsid iary
er ie
ĠYork shire
ĠHel en
ĠConfig uration
ĠL ocation
Ġinvest or
Ġafter wards
Ġcop per
ess a
AT OR
Ġdistinct ive
D b
m iral
ĠPro b
ch anging
ĠASS ERT
t m
ĠM ob
Ġeval uating
Ġdis able
c ourse
hel per
small skip
v d
ĠH ob
ov ich
Ġplan ets
C ounter
M obile
Ġper ipher
rel ative
ĠCarl os
Ġal umin
ul k
Ġpain ter
}{* }{
is Empty
pl acement
ĠAL IGN
Ġaltern atives
H ello
ffic iency
Ġsent enced
2 15
att ed
p kg
xim ity
ĠC ategory
Ġhol y
Ġhar assment
Ġmathemat ics
Ġden y
is i
Ġlift ed
Ġab ol
ĠC SS
W ater
b ia
ĠB order
26 0
ĠArab ic
Ġaff air
Ġas pir
." ""
ĠV ik
Y Y
Ġd ign
ib e
Ġmon ster
'] );
at om
Ġtremend ous
ĠAp ply
En v
ĠJul ia
Ġen roll
Ġstrugg led
Ġar ises
} /\
Ġ ig
Ġsp herical
& &\
qu et
Ġt ear
at io
osoph ical
p ubl
R en
Ġmaintain s
ash board
Ġstruct ured
Us age
g mail
ang led
ĠPro test
ific ant
ĠSt rong
ĠPlay ers
14 3
mult line
Ġp orn
ĠAll ah
Ġcoll isions
stit u
C md
Ġp od
ĠR uth
az i
Ġunc over
ĠBill board
: @"
Ġc attle
Ġp ink
uk a
Ġutil ized
he w
Ġg ast
ce iver
rypt o
Input Stream
ĠF resh
NS String
Ġrele asing
Ġcub ic
ĠCO L
Ġn ons
$\ \
De ep
ĠC inema
Ġs oc
40 4
ĠR aw
) _{\
IC S
sw arm
Ġutil ize
qu ant
Ġdeal t
St ill
th lete
ĠY ellow
å ®
ĠB asketball
Ġbr ick
Ġbackground s
n amed
Ġsacr ifice
ĠĠĠĠĠĠĠĠĠĠĠĠĠĠĠĠĠĠĠĠĠĠĠĠĠĠĠĠĠĠĠĠ Ġ
Ġrelax ation
ĠM ol
ub a
Ġend orse
Mon th
g overnment
ĠMon itor
ĠCat hedral
Ġatt raction
Ġadvoc ates
Ġwel comed
und les
Pl ace
Ġhistor ically
% "
f requency
Ġper mits
ĠHol iday
Ġen compass
Ġrel ates
link s
Ġch icken
Ġexp atri
Ġcos mic
Ġh ack
S und
ĠS alt
ond e
UN T
Ġinterview ed
arch y
Ġelim inated
st orm
ĠY ank
ĠSim ilar
Ġwitness ed
Ġneut ron
}[ !
Ġreal m
Ġear ning
ĠMil waukee
ĠUn less
ĠB ald
clide an
Ġw ings
ĠGr an
anc ers
ativ istic
ĠCh oice
A ggreg
å ħ
Ġinsp iring
Ġmicro sc
ent o
Ġpull ing
Ġh alt
ĠP FNGL
Ġcl one
ser ial
ĠQu estion
Ġdis rupt
20 3
ĠVictor ian
ex amples
k ed
ĠLeban on
m el
Ġf ame
Ġh ug
Ġhold er
w ikipedia
Ġcell ular
SC R
Ġgeneral ization
16 8
cont rolled
Ġinsp ire
Ġ\ }$
Ġdisag ree
aa aa
est on
ĠO ptions
M ur
M ag
V R
def n
tr ain
ĠK on
Ġmon ument
Ġvari ability
Ġbul let
Ġretail ers
Ġgo ogle
Ġdis par
ĠB ot
ĠW ing
Ġind oor
ĠU C
Q t
ĠM T
uls ion
Ġprest igious
J ose
Rem ote
ok a
im eter
Ġqu as
Ġconstr ained
Ġcivil ian
um ble
ĠIn fo
ele brities
high light
Add itional
Or iginal
ag ination
ĠF IG
Ġint ra
ĠFreder ick
ab c
The me
ĠHit ler
ari ate
ĠGener ation
Ġn od
Ġen rolled
Ġlog arith
" },
Ġqu otes
Ġfl ed
Ġtim ely
Ġpsy chiat
Ġdest ro
ĠMu hammad
Ġb alls
Ġcro ps
sh arp
Ġint imate
ĠPrad esh
Ġ{ },
Ġs our
\ },
ĠParliament ary
O F
Ġpost er
ced ure
Ġalter ed
ĠSud an
ĠZ hang
un iform
Ġ_ ,
Ġinteg ers
Ġclar ity
c ass
w ear
Ġsynt hes
Ġphot ons
ĠDi agn
Ġsurprising ly
P et
ator ies
Ġsk i
ĠSch w
Ġinst ability
ĠL ith
\ }.
Ġw orn
We ight
m ine
Ġunder graduate
Î º
AC C
Ġirre ducible
cor respond
Ġrecept or
ĠHug hes
Ġp ig
LE D
Ġs el
Ġle verage
13 9
Ġaut onomous
C ALL
Int eg
Ġvari eties
Ġprot esters
ish a
ĠGard ens
duc ing
Ġhon ored
Ġexcell ence
ĠC urt
Ġle an
OP T
ĠSw ift
run ning
Ġ ~\
Ġatmosp heric
ĠRon ald
LO W
ext ra
Ġkin etic
ig ating
ov ic
ĠR ou
ĠL abel
ĠDis covery
Ġ> >>
phot on
ĠGrad uate
g reat
H i
Ġtr apped
Ġne u
Ġparticip ant
Christ ian
Ġe ars
ĠGet ty
Ġdelight ed
14 6
Ġgover ned
trans action
Ġspec ification
ĉ ĠĠĠĠĠĠĠ
sc ious
ass ign
ĠS outheast
ĠMont ana
G roups
Ġsur render
= $
Ġpresc ribed
ĠHe brew
Av ailable
ĠInt o
v ars
Ġbe ars
UR CE
Ġall iance
t rivial
Ġdis abilities
ra its
d ie
ĠF eed
pos itions
ĠE ug
C at
Ġgard ens
ĠEx amples
Ġr ush
ne um
Ġfaith ful
ĠD IS
Ġcelebr ating
14 7
th ird
car bon
Ġid x
hem atic
Ġprec ip
Ġport al
Ġnormal ization
ĠS ter
Set ting
Ġre fr
valid ation
c ott
Ġar row
Ġsam pled
R ows
Ġag gress
Ġtruck s
Ġca ution
Ġw ise
k ers
Ġattorney s
n ative
i ang
ĠB omb
Ġconnect s
G EN
ĠChem istry
ĠDr ag
anch or
B atch
ĠW ARR
Ġdr ift
Ġhar sh
S n
b x
ĠRe ed
ĠA id
Ġn m
ĠK os
e ur
oid al
Ġeffic acy
ol ia
Ġorgan ised
Ġtag ged
c orn
Ġsac red
Group Name
Ġterrit ories
b ird
Ġimpact ed
ur st
Ġgener ous
ĠG amb
ĠOr lando
Ġsuccess or
Ġmid field
ĠS cal
Ġf are
C AR
Ġcle ver
ĠL com
Ġorient ed
28 0
Serial izer
an aly
ach i
Ġuniqu ely
ĠP D
le en
an imation
ĠT D
Ġop acity
ĠLe o
G N
uss els
ĠRE AD
Ġb ags
30 1
ĠPr im
Ġfail ures
g iven
ew s
arch ive
ĠGl en
G overnment
ĠW R
Ġpl ates
g ary
gu ide
M achine
Big g
00 5
ĠT error
Ġthread s
F ailure
ĠS or
ĠP rest
Ġcompass ion
S i
n olds
}} ,\
ĠR osen
{ .
Ġoccur rence
s z
ĠW A
Ġnot ify
ĠBut ler
15 2
Ġassist ed
Ġsub space
iss et
process ing
Ġtrad emark
Ġdesper ate
v p
ĠD A
Char les
Point s
Com mit
P ing
ĠA str
inc inn
gener ation
Ġattack ing
Null able
m obile
ĠSer ge
is ol
uck s
Ġspec im
å ¤
Ġfurn iture
aud io
ĠSte in
Ġauthent ic
Ġout line
}{ }
\ /
Ġch lor
# {
t ex
Ġg aining
ĠM end
ĠProm ise
IC T
u j
cc c
yl an
Ġtob acco
ph an
Ġb ail
um ably
Sever al
Cont ract
st rip
ĠR ugby
Ġlat ent
ĠHil bert
it ary
ocr atic
Ġover head
Ġrem inded
ew ay
k ernel
ĠSh ip
Americ a
Ġ" ";
2 11
c x
Ġd irty
ĠG W
Ġpreval ence
ĠRes ult
Ġsw ord
pat cher
19 05
Ġconv iction
ç Ķ
ĠS ak
assert True
B ob
oot s
d or
in ject
ĠP rison
Ġg ods
Ġchemical s
ed in
ĠT ampa
ĠD W
th ood
Ġdist ress
b ai
Ġfar ms
Look ing
Ġpl otted
Comp iler
tr ained
c reat
Ġvac ation
%%%% %%%%
text up
16 9
Ġillust rates
l b
met ric
ĠInt roduction
Z one
MOD ULE
ĠLook ing
Ġassum es
ĠH erald
ĠL I
Ġtact ics
Ġbl end
Ġw ore
v able
Ġauthent ication
ĠSt ay
Ġneighbor ing
er als
ch y
Ġv iable
Ġpers istent
Austral ia
Ġpoll s
ag ar
ĠCor ollary
ĠT rial
ĠRepresent ative
sub mit
Ġep it
&= &\
D igital
19 08
E s
L ittle
ĠG az
j ax
Ġdis cre
wild fly
ĠY am
Ġinv ite
f ake
ĠUkrain ian
ĠRod rig
You ng
ĠCoal ition
Ġco at
50 1
RE T
ĠB rief
Ġestim ator
Ġmemor able
ĠS ierra
Ġsear ches
st eps
ĠC ash
Ġdark ness
Ġconcent rated
Ġdis advant
Ġcosm ological
whe el
Ġback up
Ġeigen value
ĠMP s
Ġtr ump
Ġsing ers
t le
ĠS Y
ram es
ĠK ash
Ġneg lect
ĠCh and
B uff
Z ero
ĠB MW
Ġtraject ories
Ġco oper
Ġmer c
mem bers
Ġphys icians
Ap ple
ĠC ities
if old
Ġwhe els
f un
ĠJer emy
ĠS yn
Ġdeleg ate
ivid ually
Ġcle ared
ĠR A
Ġm aj
) *
Ġconfirm ation
Ġdist ribute
Ġstrength s
ator ial
Ġproduct ive
ek s
Ġcharacter ization
dis able
Ġs emic
Ġres piratory
Ġess ence
ĠPet e
Ġfl aw
B ottom
v t
Ġcontin ent
we i
Ġsurv iving
in fl
ASS ERT
Ġqual ities
Ġbuck et
ĠL amb
Ġret ro
ĠPart ner
Ġprogress ion
Ġbi om
V ict
Ġcon e
AN N
Ġun fortunately
bre v
ĠTre k
incinn ati
Ġch iral
ĠCr icket
ĠImm igration
ett i
T witter
Ġoffer ings
inter est
uff le
ep h
ĠQuest ions
ĠInd ividual
Ġtou ched
gom ery
R ussian
var rho
ĠLi u
m ans
du al
ĠSt ri
Ġsk etch
hol m
Ġlast ing
) ?
ĠPresident ial
power ed
ĠS equ
Ġprior it
ĠCon sequently
ĠNS W
anc k
ĠM ann
om aly
port ion
te chn
v iol
}) =\
}$ \
ĠP rix
ĠF oster
it ic
it us
Ġsk illed
Ġint ensive
) }$.
N eed
m ust
ĠM iles
Ġrender ing
ĠTour ism
Ġh iding
Ġf ictional
kw args
St atic
ĠPat ients
PAR AM
p her
ĠL akes
ĠG DP
urs or
Ġfest ivals
ĠStrateg ic
ĠZ ero
bound ed
Ġnow here
ll i
ĠU ntil
Ġmod er
Ġmin isters
miss ible
Ġoccas ional
Ġg re
ĠSt orage
ke ep
A h
Ġentreprene urs
Ġprohib ited
am o
14 9
Ġal gebras
od ic
Ġgirl friend
urch ase
Ġinvent ory
Ġcru el
å Ĳ
Ġcor rupt
Ġqu it
Ġpresc ription
ĠDan ish
ook s
Sub scribe
Ġob server
×Ļ ×
Ġdrop ping
ĠG MT
ĠY e
Ġhaz ard
oc o
clud ing
in is
ĠPut in
is ers
ol er
Ġrel atives
] ^
Ġnob le
20 8
Ġcount ed
ĠSal v
Ġcab inet
Ġpra ised
ub ern
al one
Ġneur ons
h aus
Ä ĥ
ĠUs ers
B inary
RA Y
FI ELD
ĠTher apy
g irl
ph abet
ĠLind a
Ġrele vance
ish ops
b ane
Ġl ingu
ĠA CT
00 2
Ġout lets
es ity
Ġw are
ĠColomb ia
V s
) ",
B ank
k now
Ġth y
ĠT amil
UB LIC
Ġox id
ĠL ions
E conom
Ġrece ipt
ĠHar per
H a
Ġatt ach
ĠR ice
ĠI g
Ġcelebr ity
Ġv o
ys ics
Ġqual ifying
ĠArt ists
Ġst yl
ĠD OM
23 2
Ġ' ';
read er
r ules
30 8
Ġident ifies
Ġunf air
14 8
ĠM ul
ĠC ad
ĠSc ar
t p
gle w
ĠJ ar
ĠCre ates
Ġre conc
D ES
clud es
Ġactiv ated
b inary
Ġtem pt
em e
S plit
ĠP oss
Ġmort gage
> "
as se
Ġmuseum s
Test Case
Ġsound track
ĠPro blem
Ġyoung est
ĠĠĠĠĠĠĠĠĠĠĠĠĠĠĠĠĠĠĠĠĠĠĠĠĠĠĠĠĠĠĠĠ ĠĠĠĠĠĠĠĠĠĠĠĠĠĠĠ
Ġex empt
W il
ĠM ull
Ag ain
Ġcontribut es
Ġs b
F un
ĠD ol
ĠClass es
Ġprevent ed
ĠN uclear
dep recated
Ġl ane
ĠCh ase
Ġunn ecessary
Ġ Ä
pro duction
Ġselect ing
ĠPal m
Ġgrand father
Ġfe ver
ĠM umbai
ĠJ ourney
ĠHe aven
Pre v
Ġdisappe ared
B H
m os
Ġorb its
Ġanth rop
Ġphil osopher
ĠH arm
ĠI celand
D ou
] =
20 4
art icles
Ġprem ises
ud s
F und
Ġadapt ive
ĠMoroc co
L ib
ĠS cre
Ġrob ots
ant on
ĠAlex and
Ġan isot
in come
IN ST
hedul er
ere k
ĠB our
Ġkid ney
ĠT yp
ĠM otion
Ġh orm
AP P
Ġbl ues
Ġapproach ing
S ql
L atest
Ind eed
Ġfif ty
ĠSu z
ĠSp encer
ia z
ĠFle et
Ġcous in
Ġc ris
Pro position
ĠB ert
_{ [
Sim ilarly
Ġlack ing
ĠBrook s
ĠS oci
i per
Ġshall ow
ĠF est
Ġnew est
Ġdiss ip
enc il
Ġcomm emor
ograph ics
ĠSquad ron
c ook
Ġbe aring
15 4
15 7
Ġemp ire
Ġtrad ed
Ġten ure
Ġex terior
Ġover night
cont ents
Ġb esides
Ġcritic ized
99 9
Ġtoler ance
Ġpublisher s
ĠBeng al
Ġse am
Ġsynt ax
< <
Ġto ile
Ġtr aces
ĠV lad
itud inal
M ot
Ġlaw makers
Ġinter fer
000 1
Ġrecall ed
ĠCh an
Ġcorn ers
Cal c
Ġfil med
ĠBl ake
Ġmar ry
Ġd y
Ġs urn
ard i
Ġconf idential
Ġpreced ing
ĠReg ulations
STR ING
in ent
Ġk g
Ġass ists
Ġsp ont
Ġover flow
ĠBar ack
\ }_{
Ġre ck
Ġdes erves
ĠForm ula
G AN
pro c
Ġsol ic
ĠF actory
Ġr ab
Count ry
Ġin cur
found ation
ig ue
Ġtr agic
ĠZ imbabwe
Ġblock ing
âĨ Ĳ
ĠV el
et es
14 1
Ġmand ate
rib ers
dist ribution
math it
ĠMil an
b ast
Ġavoid ed
Ġsport ing
Ġdemonstr ation
ĠOak land
Ġexcit ement
Q ual
U AL
m apping
Ste ve
F ive
Con structor
T ri
ĠI ter
the ory
ĠIN TO
ĠInstit ution
B uck
Ġsp ite
Form s
ĠPar ad
Ġsc rew
DE BUG
Ġs ink
Ġunder go
Fr ance
Ġm im
Ġunit ary
Ġdiscret ion
Ġb ones
on ian
ĠS weet
Ġap ilevel
ÑĢ Ðµ
Ø ¯
Me et
Ġco q
X Y
Ġcred entials
Ġar r
ĠNurs ing
ĠCh arg
ĠPo isson
sur face
ĠS ym
Ġathlet ic
oc aml
Ã Ĺ
ĠRel igion
Ġconfer ences
Ġfin est
ĠD ifferent
ĠDou g
Ġclin ic
Dep th
por al
As sembly
by e
Ġr gba
Ġph on
Ġj ack
ĠQu ick
ĠMus ical
ific ates
pr im
Ġreve aling
) }$,
m icro
ĠP ra
Ġatt ractions
Ġet ern
Ġrent al
appropri ate
HE AD
Ġpharm aceutical
t alk
Ġw ard
Ġgrad es
s ed
ut ton
ens is
Ġthreat ening
Ġon set
w al
h im
ĠU t
P ub
me asure
ĠBob by
M onday
ĠS ER
Option al
ĠNep al
ĠCol lections
ic ia
L ab
Ġres igned
ounc ill
Ġcov ariance
G ate
Ġimag inary
re a
Ġc oding
ĠÐ ½
Ġbreath ing
l icense
ĠColl abor
ĠMc Donald
ĠRes pond
en vironment
IS E
l ies
Ġconcert s
Ġtherape utic
c ue
ĠEn cycl
Ġfro zen
ĠT aking
c od
load ing
Ch ain
Ġstrong est
ĠTes la
A mazon
sw ing
ibl ings
Ġag ing
le ad
ta x
K im
Ġ á
Ġre vision
Ġcapt ures
ĠJ ake
ros so
Ġhe x
Ġf older
= &
Ġdepos it
T uesday
Ġcar riers
ĠJ in
ĠGr ade
ĠW IDTH
M essages
Ġmed ication
ĠO w
Ġe ighth
cur rency
Ġconv ince
18 80
ĠInf antry
5 50
v dots
ĠHop kins
big cup
Ġenjoy s
ĠHar bor
Ġanalog ous
ĠEx pression
ot yp
ĠR alph
Ġlearn s
ĠNeb raska
B log
Ġtrad itionally
ĠSymph ony
ĠL ik
PRO JECT
nol imits
^* _
Ġthorough ly
Ġret rieve
N F
idd ing
ival ent
IL ITY
ĠEx ec
C redit
Ġc ats
ĠTh ought
Ð ±
Ac ad
Ã ĥ
ĠPartners hip
Ġev olve
Ġpolit ically
D eb
p it
ĠBro s
st reet
15 6
y our
Ġless er
Ġinn ings
ĠOtt awa
sub equations
Ġi Pad
IC ATION
ĠR F
ĠTh under
S ort
ĠCare er
re act
os hi
Ġthr iller
iov ascular
R edu
Ġl in
load er
Ġwh is
ĠSt uart
ĠAthe ns
Ġharm onic
Th ursday
ob ic
U ntil
ĠMer cedes
ĠD od
Ġqu arantine
Ġnorm s
ĠLl oyd
L M
Ġes cal
ĠBuild er
I l
18 5
mid t
PD ATE
ĠSh adow
ĠH O
del ay
ĠEq s
boy s
Ġaux iliary
c ies
ĠH appy
Ġche ese
m are
an Ã§
ock ets
Ġmorph ism
ĠK umar
ring ton
or p
ĠH AL
Ġgl uc
ĠAn alytics
Ġmanufact ured
ĠR angers
Ġadd iction
Ġcontact ed
f ox
f etch
19 4
() ),
×ķ ×
6 50
it on
Ġadjust ment
Ġz oom
z b
op ath
Ġrecip ients
Ġj ets
ĠKnow ledge
r Ã©
ĠP om
for Each
n as
ĠGreg ory
Ġnurs es
N umer
t bl
re z
new line
K ar
T ouch
W O
ĠCom ing
ĠCl aire
Ġhand les
p ointer
en za
Ġscr ut
opt im
R ules
Ex pected
" ].
Ġmark ers
IG H
ĠS occer
Ġsl aves
im on
p riv
\ [\
bour g
Ġnetwork ing
or por
Line ar
Ġshock ed
Ġcount less
Ġdesk top
Ġtravel s
bro ok
V O
ĠLe eds
Ex port
ĠC ases
ĠRec ent
Ġmod ular
Ġreg ret
Ġre ass
Ġeth n
ĠCD C
B us
ct uary
St ub
$\ ,
Ġcol ours
Sh ared
ĠMod els
PH P
Ġpur suit
Ġpros pective
Ġconsult ing
J P
is ch
T AG
M id
h art
Ġtra its
Ġsuggest ion
ĠRail road
ic ans
ĠPop ular
Ġr hetor
ĠEm ployment
Ġoptim ized
The ir
ich i
create Element
en es
oc ur
ear ly
Ġsnap shot
Ġb ay
}{ {\
Ġn u
Ġrel uct
ancell ation
################ ################
s ame
ĠR ural
ĠK yle
ĠâĢ º
unc an
Ġrepro duce
udd y
oca ust
D OM
ĠNetwork s
n l
Ġrevolution ary
Ġtyped ef
Ġneighborhood s
ĠCent ers
sc ore
Ġearthqu ake
Ġsh ower
Ġs ys
Ġev olving
Ġbreak down
ĠO FF
el ia
Ġdesign ing
Ġport ions
ĠSt ef
Ġplay off
ĠÂ «
Ġrenew ed
Ġp ays
Ġlocal ization
ĠBeaut y
Ġt ick
ĠRet ail
ĠProject s
n ick
ĠB ris
ĠE sc
ĠP T
ĠL ED
Ġc ater
ĠS afe
load ed
\, {\
ĠP sy
Ġinitial ize
av our
s ure
os i
... ,
ĠVenezuel a
Run ning
w ang
ĠW ag
v or
Ġh unt
S ex
Ġgu ides
N I
ru gg
Un ivers
R ot
superv ised
Ġcompris ed
Ġst ays
... "
ĠClark e
Ġart ic
b usiness
th rift
Ġsort ed
ĠDer by
Ġex empl
15 1
ĠS TE
is ive
19 06
ĠD aw
def er
ag ain
A ff
Ġcompar isons
ul se
c z
t ouch
A cknowled
f p
B road
stit ute
19 09
get Id
ar as
Ġesc aped
Error f
| _
Ġbut tons
ve x
Ġreg ulated
Ġrespond ents
ĠB anks
Ġcontext s
erg us
? âĢĻ
ĠT rophy
Ġsh irt
ING S
ĠHor ror
gener ate
ĠPot ter
Lo op
getElement ById
ĠAnt ar
T alk
U pload
ploy ed
ĠLeon ard
ĠSher iff
ĠTest ing
ĠWall ace
Ġval ign
Ġdemand ed
âĢ ²
Mart in
Ġaw a
Ġcitizens hip
18 8
Ġshow case
Ġenc ryption
ul ence
Ġlast ed
Cal ifornia
m usic
ĠO m
ij i
W D
=" $
ĠTe aching
Ġb other
Ġspect rosc
40 1
ĠMar cus
Ġguitar ist
19 01
sim ilar
Ġt anks
ST M
Ġm s
Ġfund ament
writ ers
Ġaccording ly
ap ple
Ġinev itable
Ġ ----------------------------------------------------------------
Ġc her
head ing
Ġtong ue
Ġpurch asing
Ġprospect s
Qu estion
Col lect
at en
Ġ$ _
ĠViol ence
... )
b ishop
z el
Ġkid n
Ġurg ent
Ġgl ory
ĠMark ov
CO MM
Ġbed room
ĠVerm ont
Ġtend ency
Ġpropag anda
ĠJul ian
Ġkick ed
Ġcomp romise
4 80
ibl ical
Ġdest inations
ĠP rec
ne apolis
ph rase
vert ical
Ġche er
oy s
ĠEag les
G erm
z h
Ġdevelop s
] +
Ġpre view
ĠDe lete
rem arks
Not ice
Ġcrit ically
ĠF ramework
Ġel if
ĠP ink
Ġdevast ating
ĠBenn ett
establ ished
Ġrespond ing
Ġm ig
IM IT
ĠGro ve
ĠPier re
ĠV o
T en
Ġavoid ing
Ġdispl acement
Cent ral
ĠR ams
Ġsimpl er
W C
ic i
Ġportray ed
Ø ª
Ġcart oon
Ġpro ximity
Ġscatter ed
INS ERT
et ed
15 8
Ġstat ue
Ġare na
Å «
ĠTH IS
aj a
: -
ib ling
Ġsup pliers
Ġinsert ed
Ġcomp rom
S aturday
ĠMc L
Ġjoint ly
Ġall Classes
ĠK ur
Ġjump ed
ĠS aw
ĠL oss
^+ $
An notation
OR S
Ġtable t
;\ ;
pri or
ah an
Ġc ens
LE MENT
int eger
Ġlo ops
Ġc ategor
ble ms
Ġins pect
Mon itor
F D
15 9
M ust
Ġloc om
ĠS UMM
Ġche aper
Ġint ake
ĠÃ Ĺ
display Name
19 07
Ġacc us
Ġ\ }
20 7
ĠK in
Ġcomp iler
tain ing
Ġf ighters
ĠI BM
ĠP apers
ENT S
Process or
Ġwithdraw al
Ġpil ots
14 2
Ġsh ifting
15 3
allow ed
Depend ency
Ġarg uing
Ġapprec iated
Cont ains
ĠTib et
Ġind ividually
R PC
ĠallClasses Link
ĠMan aging
Ġperman ently
add ed
ĠKE Y
Ġamplit udes
/ ">
l ord
Ġb arg
M att
ot ics
N UM
ac a
ep age
Ġcav ity
ut er
ĠCh a
trans fer
ant ics
Ġre lying
y cle
H tml
ill ary
UT C
Ġsent iment
_{ -\
T imer
ĠS yl
gu ard
Ġre normal
ĠSche dule
Ġre nd
al ias
atter y
Ġacc red
sh ine
33 3
ãĢ Ĥ
Ġaest hetic
Ġsl ower
Ġst ones
ĠColumb us
oll o
itt en
Ġpost pon
ĠT ips
Ġpres idency
th ink
Ġen code
l ag
d jango
L ee
Draw ing
aff e
Ġm apped
Ġcred ited
Err ors
Ġbrut al
} &\
Ġcal ibration
Ġ& $
rit is
Res olver
ĠCh art
ON D
Ġridic ulous
Ġover look
Ġt et
ĠW ords
Sign ature
ĠE ight
L at
ear chers
Constr aint
i u
ĠP ret
Ġpain ful
ĠPhot ography
Ġundert aken
ĠAnn ounces
ĠNorth west
or ne
ĠHol mes
Met rics
Y et
Ġf etch
G G
[ ]{
com merce
cond itions
no ise
ĠS leep
b undle
}} )$
Ġdam n
ĠToy ota
ĠSub ject
Ġinteract ing
al ert
ĠIS BN
L IST
ordin ator
ĠĠĠĠĠĠĠĠ ĠĠĊ
__ )
Ġexplo it
Ġcou plings
We bsite
IC AL
ĠRey nolds
R oman
Ġst ub
Ġpenal ties
Ġ{ $\
rem ote
cf g
zer bai
ĠB og
ĠIsa ac
Rec ent
ĠQu ery
Ġste al
Ġinter cept
Pl ot
ĠY ale
App end
ĠP owell
ĠE t
Ġtra ils
Ġsever ely
Ġj er
/ ?
19 04
Ġprec ious
Ġillust ration
Ġexcess ive
Ġsleep ing
Ã ¦
amp ire
Ġpro jections
Ġtable ts
Ġopen ly
j k
m essages
ĠL an
flu ence
ĠG B
Ġepid emic
t l
ĠSh ows
com pute
let ed
Ġm asc
ĠU E
direct ory
Ġn erve
ast ics
is he
Cont ents
ĠGu inea
Ġbr idges
ĠFil ip
Ġp ec
ĠD rop
ĠUS B
Add r
Ġis omorphic
ĠR S
ĠAnn iversary
Ġen velope
ĠCom par
Î ³
Get ty
H I
Ġsec ular
ĠSom ething
Ġconcept ual
ĠC raw
T yp
Ġg orge
ĠA ctor
Ġmem oir
" /
Ġconclud es
repe at
Ġvolunt ary
Ġfle e
ro e
Ġweak ly
Right arrow
C ancel
ĠC elt
ot er
is co
Ġshare holders
ĠN R
S napshot
Ġobserv ing
Whe ther
Ġap paratus
Sc ience
16 6
ent e
Ke ep
ĠB ir
oun ge
ok o
pe g
? ,
ĠA way
IS S
do es
ĠRele ases
Ġharm ony
ĠPalest ine
Ġoptim ize
ĠNAV BAR
umb led
ĠFour th
on aut
Ġins u
un al
Ġin duces
m any
âĶ Ģ
ĠFl ag
ed uc
Ġun cle
Ġexclud e
ben ch
ĠShang hai
O lymp
i q
ĠW ait
Ġwh ites
igg ers
p f
Ġt uple
ĠCar r
d ifferent
Ġp unch
Ġquestion ed
op ard
Ġfor ty
ber ger
Ġgen ius
_ )
ian e
ĠMin i
Ġexc use
Ġmob il
Ġv endors
ĠFellow ship
Ġpursu ing
is se
Ġshe ep
c aster
Ġwarn ings
B ounds
Ġf reed
am as
Ġrep ublic
Ġpractition ers
Ġcat ast
Ġt ales
um i
act ers
Ġstr at
Ġpat rol
ĠG and
ĠMyst ery
ĠR ate
ĠArch ived
ä ½
w y
ĠS ox
Ġparam et
Ġsoc io
Ġal i
ĠAn a
Ġsuperv ision
Ġcoord ination
\ -
Ġwas h
av in
min ster
Ġevolution ary
Ġsimpl ified
ĠExcell ence
Ġenc oder
Ġconver ges
ĠL java
O cc
um ann
Ġlect ure
D ig
ĠVeter ans
N orm
Ġsystem ic
Ġachie ves
Ġde formation
Bet ween
ra ud
Ġblock chain
ĠNiger ian
Ġque en
Ġaccret ion
Ġsp o
w ire
Ġband width
ĠOcc up
Ġsign aling
O fficial
Ġred irect
column s
Ġadvis ory
Ġatt itudes
n ai
ĠTr inity
20 6
Ġwe aken
21 6
Ġend less
ur ated
ĠDemocr acy
w ik
ĠU pdates
ĠInd ependence
ours es
ĠLie utenant
ĠW HO
Ġte aches
rat io
Ġ< -
ĠExt ension
Ġsp y
Ġc iting
ex isting
ass ed
Ġa fore
ang ered
Ġnecess ity
Ġapprec iation
ra f
ĠR iemann
Ġimper ial
Am ount
Ġdis charge
ĠE L
ron ics
ĠLu is
Ġm a
ĠN ak
ft en
P ack
Ġver se
Ġret riev
ĠSp ider
ĠS ens
se min
T ile
in as
w arn
Ġhuman itarian
r n
Th ird
Render er
Ġh ills
Ġpath ways
Ġneighbour hood
ell ion
Ġexhib ited
Ġvit amin
ÂĢÂ Ļ
l iving
mar ine
crit ical
ip per
Ġinequ alities
ĠI van
Â ±
B uf
m ons
F ood
Ġn ortheast
ĠDir ac
Ġsup rem
ĠM az
Ġrel ay
un ks
ÑĤ Ðµ
n it
ring ing
ph oto
ĠÐ ¸
ĠGL int
ĠS qu
N ick
Ġfin anc
] ))
Ġinst antly
Ġpup ils
Ġpass ive
Ġdiv ine
press ive
C irc
Ġb icy
m itt
Ġd s
ĠRoman ia
ĠF acts
Ġeconom ies
Ġmer chant
ĠP ont
ĠM ik
Own er
st ead
ĠM M
' $.
ĠLuc y
Ġbab ies
Ġge omet
Un iform
en o
ĠO C
21 7
ĠRe uters
Ġt ribe
Rec all
Ġar rays
Ġlog in
ĠM N
Ġnation ally
rid or
fl uid
ĠEag le
unk nown
idel ity
eg al
Ġcivil ians
ĠB ach
Con vert
Ġprompt ed
Ġshut down
ĠGP U
T urn
append Child
abul ary
Ġharm ful
Ġhab its
ĠT OP
ort ium
Ġfif teen
T ex
io let
Ġperform ers
per formance
Ġsp are
Dis c
gly phicon
g if
ĠJul ie
izar re
16 7
r ar
Ġele ven
C over
ĠS ah
Sub ject
oy le
Ġtrib es
à¤ ¿
Ġce iling
ise cond
ĠTra ffic
Ġdefic it
Ġaffili ated
T X
Array List
Ġpre jud
Valid ator
Ġdec ays
Ġpars ed
act ual
Ġfunction ing
Ġapplic ants
ĠBer g
Z Z
M il
p aid
ĠHand le
an ol
pat ient
BU FFER
Ġ' .
Ġapplic ant
Ġadvent ures
K K
acter ial
Ġmod elling
Ġstim ulus
Ġpack aging
Ġperturb ations
TIM E
in x
Res et
osp ace
Ġsqu ee
ĠElect ronic
ĠC AN
h ydro
ari us
Ġtrans fers
}) )
ĠAp plications
Ñ Ĩ
Ġcap ac
ĠEv olution
m ot
Ġun ited
ĠM ine
Ġconsum ed
sp aces
rel ations
00 3
ĠG ender
ĠJo el
ĠE b
ĠV R
In ner
Ġcomplet es
Fe atures
ĠD I
Ġste ering
Ġencour ages
Ġpoly mer
Ġlink ing
ĠCitiz ens
Ġpract ically
ĠRec overy
angle ment
L iteral
ic ion
ĠP ray
Ġexp ans
qu estion
ena issance
Ġhonest ly
cor rect
ĠC ool
ĠAdvert ising
} ~\
app ings
ĠPer u
G al
Con verter
ĠHis panic
d al
f m
ĠArn old
ĠB ak
Ġman ually
CL A
DE X
Gr and
b age
22 4
Ġsubsc ribe
en h
Ġmiss ile
el ong
Ġgu ards
Ġsupport ive
ĠConf ed
Ġ' %
ert on
Ġsubstr ate
Ġbet ray
Ch inese
Ġp ale
ĠCh rome
Ġdat abases
Ġshe ar
Ġunder way
(" #
sub scribe
Ġhon ors
Publ isher
ĠCh uck
22 2
L u
M ilitary
ou x
Ġ" '
ĠNov a
Ġsummar ized
A xis
ĠO UT
Ġcorrect ed
ĠCon nection
re ational
ĠG D
S ir
Ġl ag
th s
av ier
Ġgrand mother
ful ness
ident ity
ĠN GC
ĠCh anges
Ġstom ach
ĠT ournament
ĠESP N
T L
Ã© n
ĠChar ter
mult ip
Ġimport ed
Ext ra
any on
Ġg ut
Ġmake up
Ġc ure
Ġinv ented
, [
Ġinf inity
ĠMat rix
ish i
ĠE sp
ĠDet erm
bur st
F ixed
ac iÃ³n
math ds
Ġfle w
d ashed
not in
Log in
Ġterm ination
Ġsubset s
ĠR M
ĠEv idence
Det ail
ump y
ĠAmb assador
ĠEthiop ia
ĠT rou
CR IPT
ĠW alt
Ġdo ctrine
Sund ay
% ).
ĠAd ult
ĠIS O
Ġp ad
Ġpres ervation
ĠBrig ade
ĠB ound
Ġadvis or
Ġ| =
Ġpurch ases
Top ic
Ġjew el
Ġload s
Ġstat istically
ĠBr andon
Ġclass ifier
Ġs inc
w ent
alth ough
Ap J
ĠCol in
L ater
ĠW rest
âĢĿ :
man uel
( ['
Ļ Ĥ
Ġin complete
ĠCl iff
Ġsm ell
oc om
S ol
Ġvirt ue
ur rection
ex act
ĠMun ich
ĠHy per
N eg
ĠDist ribution
r ically
Ġbeat en
' ',
ĠA CC
W at
ĠVen ice
Ġaccompany ing
Ġdies el
sp acing
ĠB lo
Pr ice
avor ite
ĠM ig
ĠL ud
sol id
Ġfun ctor
Us ers
Ch anges
Ġpro to
Ġab st
CON FIG
UT E
Ġn inet
ast ically
s il
Ġl od
w at
Ġment ions
h p
Ġge odes
Ġm aker
ĠT ex
fil m
Ġa z
ĠAl pha
M ah
ĠD ad
fr ag
E nergy
ĠLink s
Ġsqu ares
Ġpron ounced
Ġac claimed
19 03
W ednesday
ing o
Ġ um
Ġ' ./
ĠH ours
Ġle ar
Ch ief
ĠTrans fer
Ġsu ited
Work ing
Ġp unk
ĠR ah
con vert
Ġassert ion
ĠĠĠĠĠĠĠĠĠĠĠĠĠĠĠĠĠĠĠĠĠĠĠĠĠĠĠĠĠĠĠĠ ĠĠ
18 70
ĠJ O
ĠRe ally
em it
Ġad op
im ag
Ġplay offs
ou bt
te le
Ġrest art
comm end
Ġacc idents
comp act
bor o
lyn n
ĠPro ductions
Ġinfect ious
R eb
EX PORT
} <
ĠG ang
Ġf ights
Ġconform al
autore f
ĠBoe ing
B er
SP AN
ĠC oul
Ġredu nd
Be ing
ent in
ĠA K
Ġpri ests
ĠF ont
Ġcivil ization
ĠS ullivan
Un fortunately
Obs erver
Ġtim estamp
ĠHung arian
ĠG oth
ĠFerm i
Ġsw ift
est imate
Ġthe ft
ĠN ormal
à ¦
ĠN Z
J un
ĠV ic
G RO
S erv
p es
ok ia
Ġgrad uates
Ġre wards
Ġwhere ver
ĠBy te
Ġswit ched
Ġb eds
Ġpro ton
Ġland mark
Ġreflect ing
ur ally
Ġsum s
Ġbu zz
k top
CD ATA
Ġref und
Ġrock et
Ġv inyl
ew ater
Ġtri o
ĠN ine
Ġinter ven
at ility
Ġf el
Ġil leg
C ursor
fore ach
ĠS V
Ġcounterpart s
I ts
b ib
M iddle
ĠAthlet ic
Ġinvestig ators
h istor
C reated
Ġnut rition
ĠC B
s qu
âĢ ħ
Ġback ward
Ġbro ker
Ġtw isted
Ġcompl ain
ĠB H
ĠB ag
enc ia
ĠAust rian
oc ide
ĠEv il
cc i
class Name
Ġfac ial
Ġr ay
Ġob ey
ĠJava Script
ĠC incinnati
ĠC N
ĠFl oyd
ĠG ates
Nav igation
Lear ning
c ially
ĠBrad ley
Ġpress ed
ĠA ur
ĠMont gomery
ĠEffect s
LO AD
Inst ead
Ġafore mentioned
Ġp owder
c ancel
Ġrad i
S ide
ĠId aho
on er
cover ed
Ġanalyst s
ĠY emen
ĠM ead
Ġcaus al
Ġd ive
Ġdon ors
ĠPublic ations
W W
ĠO ri
An im
ĠDE FAULT
Ex pect
Ġded ication
ĠAp plied
ĠLa unch
ren ew
ogn ition
ĠStev ens
Ġs ql
Ġfl ip
Ġ" .
V ir
ark er
ic ism
Ġt ender
Ġc and
ĠL INE
Enc oding
ĠN ATO
ĠGl enn
ĠSt ructure
ĠPar ish
ĠPre vious
ĠR ise
Ġenhance ment
ĠLaw yers
ĠTig ers
se cret
ĠK er
ĠGr id
Ġfrag ments
ĠJosh ua
Ġinter faces
Ap pro
ĠCrit ical
23 5
pl ain
Ġspac etime
Ġsc aled
Ġrecruit ment
Arg uments
Ġdefect s
p ine
ĠĠĠĠĠĠĠĠĠĠĠĠĠĠĠĠĠĠĠĠĠĠĠĠĠĠĠĠĠĠĠĠ ĠĠĠĠ
20 30
ĠField s
n om
Ġimag ery
Ġrig id
V an
a qu
per turb
Ġterror ists
Ġvibr ant
16 3
16 1
ĠRe id
Ġgame play
Ġtreat y
he y
art et
quir ies
ĠC atalog
Ġdes irable
Ġfoot print
Comm unity
Ġrot ating
ĠStep han
U nd
Ġa u
Ġd amp
Ġdis hes
STAT US
ari um
d ed
op al
ĠS ame
Ġindic ators
Ġcol ored
= -\
k ward
E mb
Ġimm ers
Ġelectron ics
Ġs au
Ġprodu ctions
ĠR ush
Ġaver aging
ĠT at
Ġnorth west
ĠG ross
Stud ents
Ġdec iding
roph ic
19 02
Ġex ponent
appro xim
ĠB ears
}} =\
Ġtim eline
Ġcatalog ue
Ġtal ents
Perm ission
Ġb ary
ĠC ounter
ĠM ills
Ġpotential s
ĠPear l
Ġembod iment
ĠV ers
Ġfilm ing
âĢ ³
ĠH ait
H H
16 4
Ġsacr ific
pr us
Ġpharm ac
Ġsever ity
to Be
? !
ĠPrinc ipal
am pton
ĠM idd
Ġse aled
pred ict
Ġch ore
ĠK i
ĠEth ics
ĠEnt reprene
Ġrem oves
Con nell
17 8
Ġimp air
V AR
it zer
ĠF IFA
ĠG aza
Pro s
Ġinaug uration
Ġkn ife
Ġconf irms
Ġch ocolate
Ġrem inds
Ġp ip
**** **
Ġpres erving
Ġbi ography
Ġab oard
Ġop posing
Al tern
ĠTom my
D ynamic
Ġm igrants
Ġdis closed
te enth
ĠCab inet
roc ery
ed ges
ĠMod ule
Ġc ord
Ġcast ing
Tim estamp
ordin ates
Ġvan ishes
ff ield
fe atures
ie u
ĠB ever
ĠW end
ĠGl obe
Spe aking
ĠSche me
. }\
B g
Ġbit ter
od o
Ġdon or
r pc
Ġb ell
ĠDeg ree
P romise
Ġdefin ite
ĠAct ivity
Ġsaf egu
Ġout look
ul iar
est y
Ġjust ified
Part ition
Ġcar ing
Re ason
ent on
ĠPo etry
trans port
g ements
ĠPlay Station
Ġd in
ĠR d
H AL
| _{\
Ġst ir
Column s
ĠHe at
ĠMA X
ĠS uff
Ġmod al
sub float
Ġspons or
ĠH aven
ĠPro of
ĠV ert
ĠBry an
T OP
| =
> $
et erm
n os
Ġdr one
R ound
al ter
ias m
ĠArm ed
ins ky
Ġto ss
ĠIt em
il ogy
ĠChap el
ĠRes olution
Ġdisput es
Ġst y
p id
ĠL is
Ġass ured
ĠAppe als
Ġsculpt ure
st ad
/* !
ĠP eng
Ġre ver
Ġl as
ma jor
ract or
Ð ³
Ġshe ets
17 4
ĠA x
Ġpro secution
r ans
at z
ECT ION
ĠBatt alion
Ġp ian
ĠT iger
Trans ition
Ġgrad uation
Prim ary
orph ism
Ġemb ark
Ä «
Ġorig inated
Ġ{ {\
Function s
Ġanalyz ing
Ġinaug ural
ĠAG N
Ġ ÏĦ
comp et
Ġn ested
Ġir r
ĠEqu ity
Ġo h
run ner
Ġb ust
E ll
f ri
ĠM ask
Ġclick ing
Å Ł
aint ed
year s
Ġf lesh
u ably
ag ma
For ce
M icro
ĠJ ung
Ġcoh ort
17 6
ĠFlore nce
orpor ated
pt ical
ĠPop ulation
}\ ;
ĠGen eva
part s
ĠAss ume
17 2
ĠSup erman
Ġcriminal s
ĠH ERE
Ġreal ization
Per haps
ill es
ĠUg anda
Ġfemin ist
ĠU T
ip ment
omet own
ĠMot ors
ic ht
Ġmo ist
[ [
ĠBe havior
F ast
W ild
can vas
overs et
Ġexerc ises
ĠSt ruct
k k
Ġsup pressed
ih ad
Ġexc itation
Ġviol in
ĠLegisl ative
Ġstress ed
ĠAh med
O s
ĠSUMM ARY
m eter
Ġviol ated
at ra
ol esc
.* ;
Ġmodel ed
Ġref resh
id y
ĠU TC
}_{ {\
Ġview er
in itions
ĠEduc ational
Ġsign atures
Ã¨ re
ĠReb ecca
Ġvis a
Qu ick
Ġhyper b
Ġbath room
Ġsur pass
H older
Ġiter ator
ĠFem ale
Ġl oses
R o
Ġqual itative
pr ice
Ġem it
C art
ĠC rystal
ith metic
30 4
Ġcrow ds
ĠO z
Ġext inction
ĠRev enue
50 9
Bi ography
Ġ{ %
Ġan notation
Ġreg istry
es a
Ġcontin uation
out ed
Ġfirm ly
Ġelev ation
Ġb iod
Ġr ises
ĠBO OST
Ġn s
11 11
ĠPar se
text ure
Ġst ance
includ es
55 5
associ ated
EN S
ĠB uch
ĠD uc
osp here
ven ile
Ġ' ''
LE TE
Ġcirc ulation
inter val
Ġlad ies
Ġwe aker
17 1
Ġm eter
Ġmolec ule
iv ariate
enc oding
r floor
Ġclass Name
Ġintegr ating
T ry
Ġto y
Ġb out
ĠS ax
ĠT ests
ĠJo an
E val
ĠL ov
Ġso ap
Ġmulti plication
intend ent
ĠIn frastructure
Ġus ername
ĠAd miral
l iter
Ġcol span
Ġfound ations
hand ed
Ġobst acles
atter ing
m ile
Ġposition ed
Ġveloc ities
ĠNew castle
arm ing
Ġhor r
Ġun changed
fin ity
3 10
in ians
Ġen rich
sub stack
med ium
Ġdiff ers
pos able
ĠIll ust
ĠN H
ĠK re
And roid
Ġir regular
ĠCom ponent
ĠMax well
Miss ing
ant om
reat ment
Per iod
Ġunve iled
S witch
Ġsp otted
V ill
Ġin ch
ĠA A
á º
E ric
(" \
develop ment
ĠRe ve
im an
QUE ST
he x
g on
Ġst iff
Ġun comfort
ĠAng els
ĠB T
ann ers
ĠD ame
Ġtr illion
ĠLyn n
ĠL ak
ib an
Ġnew er
enti eth
Ġsex ually
Ġreven ge
Ġexpress ing
i otic
22 3
Build ing
Ġret ire
Ġspokes person
k ern
ick y
ĠGab riel
h in
Ġyour s
ett es
L icense
ag le
Ġbe aches
ĠD epend
Ġse al
ec a
Ġstr ains
Te chn
ĠVAL UES
ĠMult iple
Ġdel icious
unc hed
ond o
Ġmaxim ize
opt imal
Ex ists
ĠB P
Ġatt achment
ĠEnt ry
ĠP av
lect ric
Ġsub stances
Ġcontribut or
Ð¾Ð »
Ġobserv able
Ġscript s
= %
Â ½
Ġappe als
Work s
ĠĠĠĠĠĠĠĠĠĠĠĠĠĠĠĠĠĠĠĠĠĠĠĠĠĠĠĠĠĠĠĠ ĠĠĠĠĠ
mont on
Profess or
Ġg am
w i
us age
do ors
u uid
Ġalt ogether
Ġdiam ond
L ess
Ġchar m
S ix
Ġsp ray
Ġcontract ors
Ġc ad
ĠHe avy
21 4
refer ences
ĠO wen
ht m
sh ots
u itive
Ġseason al
riv ed
ĠCh ang
Ext ensions
Ġwid get
Ġin duce
ĠH ey
ĠPro ceed
16 2
ĠId entity
ĠAr senal
ĠRem ark
ĠW ine
the m
ĠG ent
Ġexpatri ate
$ }}
ĠCh ad
own ers
Ġhere in
ĠJeff rey
cho ose
Ġtort ure
Ġed itions
Ġdial ect
ĠA ber
ĠL uck
Ġnav al
Ġeleg ant
> '
charg ed
Ġin duct
Ġcard iac
Ġconf ined
Del ay
Ġc af
Ġwrit ings
\, ,
Ġrelax ed
res olved
F ALSE
24 5
l r
ĠF ergus
Ġtherm od
ĠCO MP
pay ers
ĠN as
ĠSp ons
Ġdecor ated
Ġbes ide
Ġmon etary
z heimer
ĠĠĠĠ ĠĊ
ĠWrit ers
Ġbl ast
ĠPal mer
Ġplaint iff
b uff
im o
ĠL il
ew ard
per cent
Im ages
Ġformul as
Ġpress ing
uck land
bl ob
Ġdraw ings
ĠIm mutable
ĠH ydro
Ġlo vers
ĠN y
Ġaw ful
ĠSol id
SO URCE
Ġdipl omatic
ov an
ĠV ar
Ġfuck ing
Ġre he
label s
J er
Ġcontract or
Ġtour ing
Ġrem inder
Ġcontain ers
Ġcompat ibility
Ġrem ot
Ġpan ic
Ġc b
ĠGo ing
od el
Ġk ills
B ool
Ġaccept s
Ġbank ruptcy
ĠEu clidean
Ġlist ened
ĠAc cept
T imes
ĠAl ways
U A
: '
Ġneglig ible
B G
ĠMedic are
Ġs outheast
Ġgen res
IM PORT
ĠWat ers
c ock
grad le
gener ator
Ġdepos its
order ed
Ġrandom ized
Inst ruction
V EL
Ġre un
umb ent
$ _{\
Ġbo om
ĠW IT
m inded
s an
s ix
Ġaccount ability
t oc
ĠÎ ±
Ġoff shore
ĠD h
18 60
ĠE asy
Ġmid st
Big l
="../../../../../../ ../
B on
sol r
in vest
Ġpat ron
ific ent
d st
Ġl ips
/ )
Ġsocial ly
ĉĉ ĠĠĠ
ĠLGBT Q
the ir
ĠLaw s
Ġg reed
ĠB urg
ĠW ed
In cre
ek ing
Ġrect angle
Ġcul min
20 9
Ġd ock
success ful
Î ¯
G ui
Ġc aption
ĠU nd
ber y
pre vious
Over all
Ġn ost
XX XX
ss l
vel t
ĠFr ances
ĠIraq i
ĠDirect ory
ĠM aps
) !
C a
ĠP ac
ĠR ever
mod ern
ĠC opy
the se
Ġartifact s
> ()
== =
RES ULT
, (
em p
ĠT itan
ĠAl ban
Ġhead lines
Ġspir its
get Instance
Ġsa fer
cal endar
Ġh il
Ġk inem
IN VALID
ĠDef ine
' $,
r ame
Ġs iblings
ic z
ĠI SS
Ġer upt
AR G
ĠEl se
le ys
Ġpar as
C NN
Ġf isher
Ġdem ographic
ĠBe hind
yst er
ĠZ oom
word press
Ġh oney
IS A
Ġbe ef
Î ²
osex ual
ĠClin ic
18 7
Ġmet als
atin um
ar u
Ġd rought
Ġb ub
Ġtra fficking
Ph ase
ĠLet ters
w ig
ĠB AS
Ġfinal s
Ġcapital ism
ĠJ et
\| ^
ĠIN TER
Ġam ateur
Al t
Ġpat ches
elling ton
Ġneg lected
Ġf right
Ġpro long
fl ush
cite alt
Ġp el
ĠFor ward
Ġcancel ed
ĠSustain able
Ġimpe achment
, ,
Ġd os
v skip
rib ing
am ount
Ġrec ipe
Ġfinger print
ak y
atern ity
ĠLicens ed
Ġhe d
Ad am
ĠT ickets
tr ation
ĠSh ield
Ġriv als
ĠQ atar
Ġbehavior al
ab olic
ĠB in
ĠRes ort
r ina
)= (
3 25
Ġdis joint
Ġstar red
Ġur i
ĠPH P
ĠLeg acy
" |
R ank
scal a
ĠMin neapolis
. (\
Ġ} {\
sc hem
qu o
ans on
ĠCar bon
f eld
Rep ublic
and ez
al in
' )$
Ġb oring
ĠVol unte
ĠG uild
ure ment
Ġappro ve
Ġo mitted
ĠB orough
Ġreg ener
Ġa thlete
Ġmanufact ure
nav igation
Ġcon jecture
ĠN om
oun s
Ġhold ers
ri ans
Ġbeautiful ly
re li
Ġess ays
tem perature
ĠTreat y
up iter
Ġfar mer
Task s
Ġinter im
Ġgreen house
Fore ign
Ġb il
27 5
ĠAssoci ates
ĠInd ies
c ence
Ġbl ur
Ġdiscre p
ĠH BO
est e
ĠBar r
ur istic
ys on
Ġfund raising
Ġdet erior
Ġelabor ate
9 11
L os
cons ist
pi pe
TH ER
New ton
ĠR NA
P OS
Ġp c
Ġappe aling
ri o
us a
bal ance
ĠCert ificate
ĠSw an
Ġpredict ive
R oll
Ġ- =
Ġdiver gence
ĠUnc ategorized
Polit ical
cess ion
os ion
Ġdem o
riv es
A wards
M ex
Ġs q
ol an
âĢĿ ).
HO UT
ĠBul let
Diagn ostics
stitu ency
Ġsu cc
Ġide ology
S afe
Ġstory telling
Ġun anim
Ġri ot
3 40
ĠAc qu
ĠE DT
ĠGr ass
Ġig et
e ous
p oll
Ġded uce
Ġt issues
Ġenter prises
' }\
Ġt ier
ĠT ags
Ġde prec
Ġhelicop ter
it ored
d z
Ġre nov
oc ated
ĠWARR ANT
(" %
AB C
Ġhistor ians
Stud ent
Ġdis pers
Ġterr ain
Ġpredomin antly
Ġf s
aw i
~ (
um per
ian i
ĠI RS
um atic
ĠR enaissance
Japan ese
Ġd otted
Ġtrans plant
Ge org
Ġsymbol ic
Ġliber ty
Ġemphas ize
M ic
Ġsp iral
ĠRestaur ant
ĠMe an
Ġliv est
con ver
man agement
ĠRel ated
Ġ[ -
ER Y
ĠCon vert
Ġinf ant
Ġupd ating
Ñ ħ
ĠE PA
ĠR an
A ctions
17 7
Ġte ens
ug gest
r v
ud er
ĠDec ision
30 3
I mp
ĠDes ert
Ġenc ounters
ĠG it
LIC ENSE
ĠOper ating
ĠP f
ĠFl ow
Ġp ist
ĠThe me
Mod els
ios ity
R ail
Ġdis ruption
18 3
Ġsp rint
Ġdesc riptor
ĠSup erv
Read y
Ġbright ness
Ġt ile
ĠD ylan
19 3
Ġdomin ate
ĠAbb ey
k an
Ġf et
Ġpop ulated
Br idge
ĠSh in
sm ith
RE L
C lean
Ch icago
b at
ĠL apl
à¥ Ģ
Ġfilter ing
}. \
ĠNov el
ĠO H
Ġtun ed
ĠM ode
Pr inc
Ġbatter ies
h yp
Ġsuper hero
Ġemer gence
d ocker
ĠTerrit ory
Ġref ined
Ġacceler ate
NO DE
Ġur ge
P ixel
ĠA ub
ĠSh ore
Ġcreat ure
Ġquiet ly
c ov
es pecially
Ġmut ation
ĠN ames
ĠK un
Ġderiv ation
J ew
Ġpro l
Ġins isted
l floor
annot ations
g as
Ġcelebr ates
oph one
Ġint ro
Se ason
Rem ember
Ġdefend ants
M ir
U psilon
ĠReg istration
Ġlegisl ature
T own
17 3
Ġcustom s
ÑĢ Ð¸
g re
ĠV P
od ia
Ġun ified
Ġb er
emph is
Ġth umb
ĠE aster
, ~
Ġprom otes
commun ications
Ġout rage
Ġelect romagnetic
h pp
Output Stream
; |
ĠTh ai
ĠLat ino
st own
compat ible
ĠCom ic
1 200
ĠM IN
nt z
ull ah
Ġlinear ly
ĠGib son
ff f
a ft
ĠGerm ans
or um
ĠH ip
Ġnomin ations
ĠWARRANT IES
è ¯
Ġl over
ĠA er
Ġcer emon
ĠScholar ship
Ġthro at
ass ing
ph ony
Ġ[ ...]
Ġexp ose
Ġple asant
Ġcoordin ator
Ġcompos itions
EN G
ĠHar old
Ġassemb led
ĠB row
ĠMark ets
P rem
oc on
) <
ĠT ow
ĠBudd hist
or ro
ĠK arn
Ġener get
ĠH us
Ġph r
Ġaff irm
Ġaccess ibility
R oyal
ĠB B
are l
ĠGar cia
Ġhe sit
ĠT ouch
ĠE RR
Ġtransport ed
ĠAdvent ures
iox ide
}_ +
B ACK
Ġinnov ations
H u
C Y
ĠS ites
Ġimm unity
Be en
Ġadvers arial
ĠSy nd
Ġloyal ty
ĠThanks giving
log ging
Jose ph
Ġpress ures
Ġb ishop
Ġconv inc
Al bum
Ġm ines
ĠC anyon
ĠSe bast
Ġparliament ary
Ġnot ified
let te
ac ious
ec hes
enc ode
n z
form al
3 75
v v
________ ________
uis ine
ge o
ting ham
ĠTag ged
Ġle v
Ġrem ed
26 4
Ġb ra
ĠCan al
W ood
view port
ĠM BA
ĠMor rison
ÃŃ n
M ix
Ġcr ick
ic it
ĠL odge
18 9
Â £
ĠW ays
ĠN ull
Ġexped ition
l ists
Ġrefuge e
Ġsp ins
17 9
Ġgot o
Ġwond ered
E G
Ġqu arters
ĠH onda
Ġnon zero
b ug
Ġex otic
Ġdisc ourse
Ġspecific ations
Ġposit ively
Ġboy friend
ins ki
su its
Ġdefault s
ĠP ackage
ĠEll is
18 50
Ġprev ents
Ġrefer endum
Ġresil ience
Ġcapt uring
Ġs ulf
Ġfilter ed
Ġclimb ing
ĠLith uan
Ġint end
Control s
N L
r ab
Dep recated
es ar
Mult iple
Ġthere in
st roke
Ġabsor bed
ĠV it
Ġatt ain
up dated
c mp
cc entric
ĉĉĉĉ Ċ
SH A
ĠC ertain
Ġsouth west
O FF
ĠF olk
ĠH off
Ġcum ulative
ĠR af
Ġbre eding
ok u
ĠEll en
ĠForm at
Ġres iding
Ġdest ruct
Ġno isy
ck er
Ġcas ino
Ġinsu fficient
St age
Act ual
Ġsuperv ised
pl aces
Ex ecutor
Ġâ ĪĴ
Ġdetermin istic
ĠST ART
ĠSc ore
k ill
Big r
ĠVal ues
ela ide
ĠBa iley
ant o
pos ium
Ex amples
Ġg amma
ĠDis cussion
Ġst amp
ĠThrough out
ap hor
in ical
ĠH i
R ussia
ĠH our
set ting
is le
At l
Ping back
Ġth ir
Ġassess ments
Ġbuy er
ig nt
aus ed
Ġexhib itions
Off ice
ac ements
ĠBeaut iful
ĠEngine er
ĠD uncan
Ġflo oding
] ).
p ract
cent ral
ĠIndust ries
Ġcol ony
66 66
ha o
Ġautom ation
Å ¾
Sc ore
Ù ĩ
Ġkil ometers
× Ķ
E F
H F
P acific
ĠNor folk
ĠAtt ack
Ġfru its
Ġc ement
Ġsup pression
Ġl akes
C AP
art en
ĠLib ya
ĠBris bane
Ġcou p
Comp any
Ġse ized
Ġm ant
Ġloc ate
Ġstat utory
Ġdeb ates
En able
Ġse p
Sep ar
S ets
Ġ$ <
gener ic
Ġle x
Ġdis close
Ġproject ive
Ġgrad uating
Ġnucle us
) }^
ĠLead ers
Aut hentication
at em
ĠD awn
Ass ume
ĠDi pl
ant ine
ell ites
Ġwrest ling
ope z
ij k
rosso ver
Ġpos ed
ĠV as
( ()
s outh
ro gate
ĠVAL IGN
Ġd w
Ġappropri ately
B a
h orn
p ayer
ĠB und
Ġsil ly
Ġteen age
Ġb ump
ĠS erv
os er
uff ix
Ver ify
Ġmanip ulation
) |\
Ġ$\ |
Ġmut ations
ĠHur ricane
o fficial
ĠT err
Ġfu els
Ġcomm ittees
ign ore
), (
ĠBr ussels
Ġan omaly
ph al
um en
ĠR oth
an mar
ĠJes se
est im
18 98
Ġpun ct
fr ames
ĠBay esian
ĠRom ance
K L
Ġb ipart
Rep resent
ĠN GO
D irection
Ġplace holder
Ġthr one
ARN ING
T uple
ĠD S
Ġsu its
V T
Ġp ap
un ar
Ġpal ace
ĠS it
Ġnomine e
ĠN g
Ġclos es
ĠMur der
u u
ĠZ ion
Ġcalc ulating
C s
omb ie
ĠSurg ery
ĠDev il
Id x
spec ies
Sup ported
Ġsc ared
ĠRay mond
Ġgar age
================================ ================================
J O
Ġd ots
fig s
Ġpos es
ĠC ann
Ġ" [
get Type
ĠG PS
ĠGu est
tim estamp
String Builder
* \
ro ots
ĠGL enum
Ġtr acing
ĠHe ights
] ^{
Ġreview ing
disc iplinary
ĠW ere
18 95
ĠDev ice
asc ade
Ġor chestra
Ġcon n
RO W
ĠHom es
Ġthr illed
E A
ĠRec all
ĠB ened
ĠAm anda
ĠAppe al
Ġhor rible
Ġan ch
r ace
ĠN W
Ġprov inces
R UN
Ġcoll apsed
ad just
Ġstud ios
ĠG ospel
18 2
Ġtouch ing
Fig ures
Ġparad igm
ĠP and
Ġro ok
g p
ĠE valuation
sm ooth
Ġaw kward
Ġch ol
Ġinv itation
Ġfig ured
ĠT N
end ant
ĠF REE
= (\
Ġm ins
Ġtransform s
Ġret ros
ĠP orter
Ġlog istics
Con sole
Ġexam ining
ĠHu gh
ĠTrib une
Ġsubject ed
us ions
ĠColon el
K G
ĠMe asure
ĠHol ocaust
Ġcycl ing
ĠSac ram
3 80
ry s
pot ential
Ġt ire
Ġw reck
exp and
Ġembedd ings
Ġg i
}| ^
ev es
m r
Ġimag ined
ĠLaw yer
ĠD ow
CE PT
Ñģ Ðº
ĠShe ll
Ġkil omet
ĠPatri ots
ĠCh ain
Ġbreak through
d v
IT LE
Ġsuper b
ices ter
ĠPl aza
Tele vision
ard less
Ġlicens es
ter ms
18 1
play ing
ĠBarn es
Ġl y
K n
Ġover r
Ġind ie
Sm art
Ġc ake
Ġn inth
ĠWar riors
ogen esis
Ġtechn ically
ĠK end
Ġnumer ically
d eb
tain ed
Ġacceler ated
T aking
'' '
Ġend ors
D a
L y
Ġdemonstr ating
Ġ( ;
Ġfinal e
ĠH annah
k el
ur as
Ġbe ats
Ġbill ions
ĠML B
ĠW inds
vent ional
Ġr am
ĠS B
Ġaffili ate
ĠL ynch
ĠN I
col m
Ġquot ient
8 50
ĠL ed
mar shall
Ġc rap
Ġro oted
Ġcon current
ĠBer ry
Ġlicens ing
Ġc ached
ĠP it
Ġce ase
Ġt d
ĠHero es
Ġpre y
ĠBel ow
Ġpur ple
p ref
}) _{
) |^
and ering
Ġarch ives
in ars
d isk
Ġp ause
ĠA zerbai
eg an
Ġinv ari
ur bs
em er
Ġdisc overs
al ink
Met ric
F red
Ġexceed s
V ery
ĠTest ament
ĠÃ ī
se ed
ĠDe ut
R M
Ġd ynasty
ĠJama ica
Ġs i
)( -
Ġsupposed ly
ars ity
ambig uation
Ġutil izing
Ġconstit utes
Foot ball
ĠTrans it
g ue
ĠH av
rol ogical
Bre ak
ĠI MP
atic an
@ {}
d an
Ġc elebrities
Ġn aked
Ġintrig uing
Ġa pt
ĠP ok
ĠRec ently
ĠAz ure
C hat
ĠS ector
00 7
pos er
board s
ĠBloom berg
Ġsett lements
Ġconsequ ently
Ġteen ager
Ġlapt op
Ġwood s
n atural
oc ity
Ġsw ap
Ġs ubl
Ġdown stream
Ġveget ables
Ġenthus iasm
ĠP am
ĠG ift
ĠPen insula
Ġmart ial
Olymp ic
Ġaff ine
Ġliter acy
B oard
Ġthere after
B rian
g z
ĠK as
Ġpres umably
s amples
ac ion
est inal
Ġproblem atic
h m
ĠT ABLE
et c
if a
Ġpredecess or
Al gorithm
Ġt sd
Ġ( %
con cat
Ġimport s
Ġair lines
ocr acy
ĠT EST
ĠCal gary
ĠM oses
ica id
j ab
Col lege
ul ators
re po
Ġf ond
Ġsk ew
Ġvill ain
ĠCal endar
parent ly
se gment
Ġ æ
me as
Ġref res
ĠAl leg
Ġgener ality
ĠSy mbol
ĠSer bia
B rien
ĠAg es
Ġbos on
le af
Ġmark ing
D ead
Ġabs urd
Ġg rief
H ER
ĠS z
Ġv endor
Ġec ological
Ġflo ors
o op
hed ules
ĠPhilipp ine
Ġh i
Ġcr ude
Ġcalc ium
Ġtwe ets
Ġlect ures
(' <
Ġcross es
f uture
Ġpresent ations
ĠRun time
Ġhospital ity
Ġobserv ational
Ġl ob
im od
le vant
edd ed
ĠInvest ig
r ance
ĠSim pson
che str
30 2
AT URE
N ER
av i
if fe
u o
Ġref ere
EN V
ri ages
ĠAl ert
Ġtim er
Ġ ions
ĠP si
ĠPat ient
Hen ry
ĠIn valid
ĠWork shop
Ġvan ishing
Ġperipher al
ĠR um
ĠSer ial
f v
ourn aments
r gb
l c
D ark
Ġment or
G reg
ĠD iet
str ict
b ard
th ritis
ĠW iki
ĠK ol
ric ia
Ġadministr ator
Ġche f
Ġformal ism
Ġp neum
Ġab normal
ĠWe iss
ĠW ald
Ġtravel ers
Ġunderstand s
Ġdeliber ately
author ized
h aul
ĠMunicip al
Ġr ats
Ġuncomfort able
Ġenjoy able
I ran
rodu ced
ĠImm un
}) -
Ġhe ated
ĠBelg ian
mathbb m
Ġhighlight ing
ĠKash mir
ask at
ch itz
Gen re
Ge ography
aster y
ĠGet ting
Ġbr ave
Ġcont ing
C trl
n ings
he tt
ĠAmeric as
Ġrevers ed
ĠN P
ib les
ĠWord Press
âĢĿ ),
D istance
Ġbusiness man
Ġsimpl est
M N
ey l
Ġwa ited
Ġpec uliar
ace y
u ador
ĠV a
M EM
set Attribute
Ġpair ing
Ġg em
ĠHe ath
ĠK or
Ġassert True
Ġcomplement ary
en os
parent s
ĠP ars
ul p
Ġcomp ile
ĠJohn s
Ġastr onom
Ġsimilar ities
ĠD rew
Ġrig orous
Ġintent ions
ĠTra iler
ĠA WS
ĠM W
ict ured
ĠCO MM
Ġdef ended
ĠCong o
API ENTRY
ĠT ools
ĠC ategories
V IS
Ġal beit
ĠRem ote
jav ax
}) (
Ġdef ender
C oin
ĠNob el
T our
An aly
ad oc
Ġgorge ous
ĠV ideos
Ġirre levant
Ġl ending
ject ive
Ġn ep
un lock
ĠF I
uch i
in ja
ĠU RI
Ġorgan ize
Ġrefer enced
ubern etes
Ġs ang
Ġper f
3 70
ĠWel come
Ġcongress ional
C ES
Ġorgan izing
Ġex clusion
ar in
Ġnav bar
per ed
Ġreg imes
Ġbook ing
With in
Ġby pass
Dr ag
ĠB un
Y S
ĠP andemic
Ġdisappe ar
Ġincent ives
Ġn est
ĠS ey
ĠðŁ ĻĤ
a verage
Ġgen ome
prot ect
ĠHold ings
18 99
Ġbow l
' +
Ġfort une
Ġinter sect
tr on
Mod ified
Rec ently
ch ief
Ġinv oked
ĠEncycl opedia
B rown
Ġphil osophical
S ound
Ġjump ing
f inder
st ellar
Ġl ighter
ĠTh row
Ġbureau cr
Ġpar ity
Ap pe
Fr ont
18 4
Ġincorpor ating
Ġintim id
L iber
ig hed
Ġfr ank
Ġrem em
Ġac ids
link ed
ĠC raft
Ġd ent
cl s
Ġc otton
Reg istration
( /
Ġ$ $\
Sh ader
center line
ĠKit chen
h it
h ma
p ark
ad ays
Ġl ith
ĠR us
Ġlong itudinal
Cor onavirus
ĠAndrew s
& -
18 97
Ġtri umph
ograph s
Ġcharacter ize
Up per
ĠðŁ ĺ
m or
p k
ĠF iles
18 96
-------- --
Ġdet ention
ĠDis play
or ate
ĠH ack
ĉĉĉĉ ĉĉĉĉĉĉ
Ġ\ #
ĠD river
Ġgl ac
com pl
Ġvic inity
t u
Ġfix ing
ĠMathemat ics
Ġdirect ive
Ġremot ely
c ology
ĠCon n
se ver
Ġas ylum
focus ed
ĠDav ies
Ġvulner ability
Ġt f
Ġsc ary
Ġà¤ ķ
g ae
Ġa ster
Ġcurrent s
Ġflag ship
ĠC ov
ĠP iano
ĠBor is
w ould
con figure
Pro duction
ĠC ord
ĠPl ans
ĠIn come
EN ABLE
Ġobserv ables
Ġl azy
im i
Ġgamb ling
ĠAngel a
ĠPers ian
Ġlong time
Ġour s
ver ify
Cl ub
} ",
ĉ ĠĠ
Ġbroad ly
Loc ale
ĠAl zheimer
Ġconver ge
K now
enz ie
CRE ATE
Ġ-- ></
Ġauthor ization
Ġ Ø§ÙĦ
Ġser um
ĠSte am
Ġspan ning
ĠInst all
Ġm ism
Ġd st
ĠG roups
Ġcontin ually
Ġj okes
ĠTw enty
ĠPer fect
Ġfavor ites
Ġillust rations
t imer
W as
ĠD iana
Ġdou bles
ĠBi ography
ĠAb use
inv oke
ĠOr acle
Ġshort age
ĠS TR
ĠA ri
Al pha
Ġtrav elled
Ġco pe
t re
br anch
at omy
0000 0000
s yn
ĠCon cept
Us es
ĠBrad y
M ail
Ġancest ors
od ore
}} }$
di ag
w yn
ire ments
ĠEm irates
ĠF ul
e er
ĠTrans form
Ġ ib
in tern
ĠA IDS
Ġamb ient
Re pe
Ġcontribut ors
Ġa ria
18 6
Ġbroad band
f u
00 4
op a
Ġsup plier
Ġlack s
Ġrank ings
ĠUlt imate
Ġre build
Ġdis posal
ĠMin ing
Ġbom bs
Ġaccount ed
ingu ished
sc an
âĶĢ âĶĢ
Ġstat ute
ĠInter ior
ĠRen ew
A H
ĠIndian apolis
b ay
Â §
Ġ å
Ġ( ),
b is
Ġoptim istic
**************************************************************** ********
it ably
Ġwh olly
N U
ĠS SL
ĠArm strong
ĠTop ics
Ġc atal
ov y
ĠEx pect
ĠSup ply
Ġimm igrant
Ign ore
p ixel
th in
Ġelli ptic
J ud
Ġ$ [\
ĠIn nov
ynchron ous
M IT
fort unate
ĠD iversity
Ġcons ume
Ġconstruct ing
ĠV illa
Ġmunicip alities
ĠH ass
Ġdon ate
ĠGu itar
. },
n ar
Germ any
ĠĠĠĠĠĠĠĠĠĠĠĠĠĠĠĠ ĠĠĠĠĊ
Ġwat ches
Ġdestro ying
Ġwar fare
Comm un
;| &
Ġf ung
ĠExper t
Ġfrust ration
ĠAb original
ĠBre nd
ĠPos ition
T ensor
Ġcreat ors
ĠCy prus
. ',
part ition
ãĥ ¼
second ary
Ġnucle i
met rics
re duce
Ġrec reational
}_{ (
Ġplant ed
10 80
Ġer g
Ġdetect ors
Ġli able
ĠLaure n
ad os
eng es
Ġinform al
Med ical
oc cup
ng th
le igh
ĠGil bert
Ġorgan izational
k al
ad ians
Ġin con
ĠN PR
ĠL or
ĠP ER
}} }{
Trans fer
T unes
ips chitz
Ġshould ers
gl s
B iden
ĠH S
A ge
Ġback s
Ġanten na
le vard
ik er
Ġpuzz le
e clipse
s id
Ġsubsc ribers
Ġb izarre
ĠA uckland
à¤ ¨
è ¿
ley ball
ĠMe V
Ġproof s
grav ity
Ġ& #
Ġoscill ations
Ġb achelor
f air
100 00
ĠT all
Ġreal ised
Style ID
Ġ' "
ĠHer bert
Ġbroadcast ing
ĠD uration
Ġregular ization
Ġmach inery
angel ical
ĠCam era
per m
ĠH amb
Con clusion
K en
Ġrecru iting
sp irit
Ġ' #
Ġtun ing
ĠContin ue
ĠRo ose
L ines
s ent
Ġim plant
ĠProp het
ut down
Ġint act
ĠTru ck
> ;
Ġdwar f
sp i
Ġtransc ription
Contin ue
Ġdrum mer
o ct
iss an
ĠStart ing
n orth
Ġhead line
File Name
Ġspot light
Ġt at
ĠR AM
al ong
ere z
Ġamb assador
ext ensions
bo at
Pe er
Ġd ioxide
> %
ol ics
Ġfavor able
lin ux
Ġpl aus
Mod ern
Ġbomb ing
ult an
h skip
Ġprot agonist
ce ans
Every thing
ignt y
project s
Ġtang ent
ĠFif th
ĠZ end
Ġd irt
Ġchar ming
Ġcost ly
' },
S us
Ġt ast
ĠPrinc eton
Ġrub ber
Ġarg uably
ĠAsh ley
ĠW inn
set t
Ġmer it
IT IONS
k u
Ġcont amination
ĠM AN
em i
Ġmarket place
Ġdign ity
Ġshe er
Ġsem ester
Ġb ins
ĠTh ing
Ġlog s
F ederal
Ġinv isible
sec ure
ĠFergus on
Ï ī
Ġm eg
Ġd ental
ĠP ool
Ġsimpl ify
ovak ia
ĠC ed
Track er
Ġto mb
Ġbl essed
ĠZ ach
30 5
th umb
ĠNews letter
Ġsuff ices
F rames
Ġs ender
ĠEn forcement
ĠL ars
claim er
Ġm asters
ĠEnt ity
ĠK lein
ĠT ah
ĠC ONT
ĠW ave
get Message
not ify
Ġexam ines
ER N
Through out
ĠS nap
ĠCh at
get String
RE AM
It alian
ĠRep orter
ĠEx hibition
Ġassign ments
ĠEvent ually
Ġdraft ed
Ġdip ole
4 20
In side
V ec
" ];
Car thy
Ġfound ers
Ġintegr als
ĠK iss
Ġob esity
ak ov
Ġflow ing
ĠOpt im
contin ue
Ġlif ting
d m
ĠGal actic
Ġoff line
Ġcop ied
ĠAltern ative
ĠD uty
sd k
he ne
ĠH ear
Ġspec ifies
re pository
Ġd well
Ġg reet
Ġr ays
p olar
ĠC BD
gr and
ĠST AT
ĠFund ing
Ep isode
for cing
Ġar rows
ĠCond ition
Ġpermut ation
r x
ĠD olph
Ġent anglement
Ġaccount able
Ġcre ep
ĠGe off
à¤ Ĥ
B ASE
ĠJ son
l ift
ĠSing er
Ġtrans ient
ĠF irm
ĠTe en
Ġnever theless
Ġpo ets
ĠW WE
der r
)} _{\
Ġdegrad ation
nt hesis
Ġamend ments
Ġab ort
Ġtrib al
Ġdr ill
ĠV ern
Or igin
ole y
Ġreg ist
ĠArg ument
cp u
en ario
Ġbelie ving
Ġm igr
ens ation
Ġre per
int s
Ġtem plates
Ġconf using
ĠWH ERE
ĠRequ ired
C ome
head ed
st ri
path s
ow itz
ĠW on
ĠPl aint
Ġpriv ately
Ġo c
Ġc ant
ĠCon struct
A IN
ĠA ce
ex c
Ġsen iors
Ge ometry
Ġ( .
Link ed
Az ure
ĠS ed
ĠCon duct
yl on
Ġm anga
iment ary
Ġre jection
Ġspecial ists
gr at
Ġdebut ed
Load ing
con current
kins on
r ag
4 000
Ġp aired
ĠW ik
ong o
Ġbeh ave
ĠA U
Ġschedul ing
dat aset
Ġ" >
ĠÐ º
W ORK
Ġd uality
ĠCroat ia
Ġro d
26 5
ĠTrend s
ĠC hester
ĠK urt
ĠW ellington
ĠV M
be ans
Ġpoll ing
Ġpol es
Ġlength y
an ium
Ġcar b
ĠShe ffield
Ġmot ions
ĠF ALSE
Sim ilar
ĠLinked In
Ġaccess ing
ograp hed
' "
L U
ĠM t
Ġacknowled ges
ĠL ay
Ġdis patch
Ġpray ers
ĠPr ide
aur us
po i
ĠT ang
Ġrecogn ise
ĠÐ ¾
Ġmit igate
it as
Ġover d
Ġfre el
ĠBeat les
29 0
Ġpredict s
Ġord in
Ġexponential ly
K ernel
S eq
ĠCo ffee
Ġpione er
Ġdesign ation
Ġve c
Ġdiscipl ines
g ap
it ars
Ġmet eor
W ould
ĠS ara
24 7
ĠC el
oy age
ĠZ immer
}= (
qu antum
Ġshock ing
gi ene
av is
sl ashed
Ġgr ains
Ġpar ade
ox ic
t ick
Sc ient
Ġforth coming
Ġex changes
press ions
23 4
Ġp anc
Per formance
task s
ĠSh ir
Ġrun ners
ĠAn imation
ĠG ET
ĠRef uge
Ã¶ r
stitution al
erc ise
ĠWeek end
Ġbott les
ĠClaim s
ĠF ixed
ĠWe ight
Tra vel
re ne
ĠP AR
pro portion
es p
AN GE
Ġnit rogen
Ġal phabet
ĠF lying
work er
Ġprem ise
ĠL LP
ass er
Ġbet ting
ag ne
Ġstre ak
elect ric
ann i
S a
Ġeduc ate
Ġexc av
Ġt ensions
get Class
ĠE ston
ĠQu inn
ĠR egin
ĠCurt is
ĠU AE
ĠG aming
F ri
0 10
Car l
ĠClear ly
i encies
}$ &
Ġs ung
Ġins ult
Sh ift
Ġtre asure
Ġten ant
b ounds
it ated
OT T
Ġsl ots
ĠR aid
ĠWIT HOUT
Ġb rows
Ġphil anth
Ġconstitu ency
Ġh ind
). }
Ġinf rared
i ott
Ġp ound
Ġcard inal
ĠMan ual
Not able
og o
}, {\
LE T
Ġrum ors
Ġperform er
Re ceived
! ,
M ESS
ro ve
erm at
Ġinst inct
ĠTe a
F W
Ġ Ã©
ĠGuid elines
Ġgluc ose
Ġim g
lin ing
Ġgate way
ĠVlad imir
Ġbre ed
Oper ations
19 1
F G
ĠÐ ´
it atively
Ġlater al
hedul ed
Ġorg ans
ĠPre view
ĠBurn s
ĠSex ual
ĠF amilies
Ġann ih
ĠG y
Ġsurn ame
script scriptstyle
gl ass
ad ers
f ollow
Ġinflamm ation
ir ie
ĠAndre a
Ġgr asp
ĠRel igious
uin ely
Ġaut umn
Att rib
au i
fr agment
Ġch ips
CC ESS
Ġsusp icious
Ġv intage
pe x
n ate
pr agma
Qu ant
ĠHend erson
" }
Ġtransl ations
ĠInj ury
Ġexplo itation
Ġgram mar
D ER
P B
Ġinf ring
W estern
Sen ior
ar med
ĠN atal
ĠRel ief
head s
mon ary
F actor
Ġspec ulation
Ġeduc ators
d anger
T exas
Ġafter math
v on
cl er
ĠFound er
G over
Ġdet er
ĠKn ights
is ors
Ðµ ÑĤ
ĠS cale
ĠD y
Ġovers ight
r ice
Ġsim ulate
Ġhe al
Ġu gly
Ġo l
op ens
Ġdece ased
Ġb is
In c
ĠRead er
ĠLog ger
ĠMen u
y en
Ġn aming
Ġj am
ĠC ult
Ġcont empl
IR ST
Ġquestion ing
Afr ican
Ġinj ust
b ral
ĠSand y
ĠFor bes
ĠSol omon
á ½
ĠAd elaide
ap est
Rep ly
Ġmon itored
)} =
Sh op
z oom
< >();
Ġadv ise
E th
ĠC W
pro ved
Que en
Ġre write
Ġign oring
oubt edly
ĠF ear
Ġsingular ity
ĠRoose velt
Ġ` ``
Ġsell s
Ġcyl ind
' ].
ĠA RE
Ġm aternal
ĠH M
ĠE S
Ġreconstruct ed
Ġm ate
ĠCar roll
Ġmid night
Ġclar ify
Ġp ile
Ġrecycl ing
ĠPer th
Ġapart ments
ĠAthlet ics
22 8
rele ased
Ġsear ched
ĠAss istance
Ġinter rupt
ĠCy cl
ĠAgric ultural
23 3
ch oice
M ED
Ġqu arks
ns ic
sign al
ĠH ood
in z
um at
Ġland scapes
Ġdeal er
N othing
G IN
v id
Sub scription
/ #
ĠRichard son
H aw
}} +
ract ing
st ed
process or
R P
Ġbelong ed
worth y
ĠMed icaid
ĠS ans
Ġout let
Ġreli ed
Ġ! !
h yd
ĠL ac
ew alk
Ġche ss
isecond s
wp engine
Ġacc ent
ĠMar riage
Ġr ides
B ern
oy a
18 91
p aces
ĠZ oo
ĠWalk ing
end point
ight y
ĠA uthors
"> (
A verage
ĠT ours
Ġh ometown
ĠNic ole
g c
lib s
br is
ĠAn imals
ĠAdd ed
ĠG em
ishe ries
}( -
IF I
vers al
vis ual
Part y
ing e
Ġwell s
f older
Sc an
ĠLegisl ature
P aper
list ener
p ared
ĠSpe ech
ĠSecond ary
Ã ī
ĠG ust
Ġv ine
ack ets
ge ometry
ĠFl at
TE X
Ġball ots
Ġan onym
ĠW I
ob ia
Ġre habilitation
enn ium
ĠTim othy
ocy tes
Ġc emetery
ĠG E
Ġpredict ing
ĠK erry
Spe ed
ĠC ir
Th ings
ĠSup plement
L es
l ated
Ġt witter
Ġsh ake
Ġle isure
r ust
al am
ĠFA Q
Ġspons ors
vent ory
ĠCre ated
s cre
K W
AM A
Ġimm ense
K evin
al og
23 8
ĠLe af
Ġsp ike
ĠTh reat
Ġden ial
ĠOtt oman
ret ch
ol and
ĠJos Ã©
3 45
ĠDep ression
Ġcrypt ocur
omed ical
top rule
Ġaddition ally
Ġarchitect ures
size i
Ġvol atile
Ġenroll ment
Ġto ys
Ġat he
apt ive
h appy
F all
Ġover t
ig hest
list en
Ġin ability
H AND
Ġst raw
ph ysical
Leg al
Ġsuper conduct
cos ity
Ġhous ed
Ġcommit ments
f illing
Ġv m
Ġinitial ized
Ġcollect ively
stan bul
18 65
ĠExt ra
Ġconvent ions
Ġ ub
22 6
Ġrain fall
Ġexplos ive
Is lam
^{ [
Ġcard iovascular
od i
++ ++
f ailed
St ay
ĠBl air
IM E
}^{ (\
G W
ĠD erek
d id
am inated
ren cies
ĠAs k
âĢ ¯
ĠT as
P ot
Ġincent ive
or ian
ab br
å Ĭ
Ġa maz
Ġh aul
ĠT ypes
war z
D aily
Ġsoon er
Ġinstit ute
P a
c ached
ĠH ir
aval ry
T er
b oot
Ġex cerpt
Ġret ention
Ġdou bled
ĠP UBLIC
B razil
we ets
_ [
Ġp ier
Ġl ig
ĠY uk
Ġprint f
Ġdys function
Ġwrap per
set length
Start ing
final s
i our
Part icip
T ools
ĠP ref
Comp are
exec ution
ĠR L
Ġwh oles
ierarch y
Ġad equ
lif eration
Ġe ccentric
Ġfib ers
L ite
r us
Ġmed als
ĠH ern
T ip
Ġr ifle
Cl imate
W ay
ĠT anz
Ġg rocery
18 93
:: $
sm art
Ġdis semin
ĠD j
ol in
ĠĠĠĠĠĠĠĠĠĠĠĠĠĠĠĠĠĠĠĠĠĠĠĠĠĠĠĠĠĠĠĠ ĠĠĠĠĠĠ
Ġpurs ued
ĠEd monton
Ġinitial ization
Ġsuspect s
let ters
M aking
ag i
Ġupgrad ed
Ġresign ation
Ġrec ount
D am
ĠS ue
Ġcirc uits
ĠMod i
Ġin k
ĠW ins
Ġcar cin
A sh
Ġc ute
( .
ĠWest minster
an ic
St ory
Ġmotor cycle
Ġ ell
ĠN N
18 92
Ġfire f
is cher
ogram s
ĠPoint s
n ear
ball o
ST ART
F B
mat ches
Set up
Ġcompos ers
Ġglass es
Ġcyl inder
Ġdec oder
Ind ust
M Y
Ġhel per
Ġemploy s
ĠDom ain
ĠKenn eth
h ouses
pl aced
ĠK oh
B its
à ¹
Ġexplan ations
ĠAl most
Ġcontract ed
script s
Ġhom omorphism
or ange
Com ments
Ġtrou bles
R on
ĠM Y
Ġden omin
Ġcompet ent
Ġblog s
AT T
iling ual
Ġide als
Ġfraction al
Ġas p
bur se
ĠW er
ĠL iv
Step hen
Ġd Ã©
Ġaim ing
M u
l ap
Ġpot ato
Ġcl ay
ĠPeters burg
ĠRe agan
Ġform ulated
Ġvirus es
- )
ĠF T
Ġins ulin
Ġtor que
Ġlist ings
Ġver dict
{ [
Test ing
Ġinform ative
Ġhost ile
Ġmedal ists
ĠCase y
Ġhil arious
Exec ute
ĠBenef its
Ġc ops
Ġhom ot
ount ain
i ates
w ere
Ġreal ise
Ġin accur
Ġsynchron ized
Ġadv ancing
Ġret rieved
ĠLog an
ĠCas ino
ĠN amed
aug hed
ĠT oken
Ġpremier ed
Ġr ushed
ru ce
ĠTR UE
ĠFil ter
16 00
Decl aration
item pty
Ġsexual ity
ĠRh ode
ĠR ica
Ġv ortex
Ġim ped
Ð° ÑĤ
å Ń
' =
ĠCru ise
Ġl anes
act ing
c ourt
ĠT ong
ĠChrist ine
En umerable
B ibliography
pe er
S aint
om itempty
ĠL ip
Ġj umps
Ġvacc inated
Ġdig est
c atalog
Ġin ert
á ¹
ĠRes cue
Ġconcent rate
Su ite
Sche dule
Pro c
H o
Ġmeant ime
ĠArch ae
Ġmess aging
l st
Ġf ence
18 85
To o
Mut able
Ġreg ulate
= }
ĠSh aron
ĠBu ilt
Sche me
Ġcolle ague
Ġm ud
ĠR ust
Ġgen uinely
ĠCarol ine
Ġemploy ing
b ial
en stein
ud ed
up ta
Ġprison er
ĠT S
t uple
add Class
ĠUlt ra
Ġb ore
ab lo
Ġinstruct or
H OME
ograph ies
r il
Ġang el
Ġsens ing
Ġalt itude
P en
Ġcomplex es
An th
K A
ĠP eg
Ġrecogn izes
Ġ" ${
J ones
âĢĻ :
Ġun to
ĠCh ancellor
Ġspace craft
f re
om ore
fl ows
ru ck
(' ./
y t
Ġknock ed
Ġcom merce
) )$.
ĠWy oming
at uring
ill on
ĠParam eters
× ¨
ĠT ales
Ġv anish
ĠR out
Ġnot ices
Ġdetect ive
Ġdisturb ing
Ġd umb
ul ed
ir ate
IC A
Ġveget ation
ĠC it
R GB
b ons
Ġto oth
ĠM emphis
V S
Ġad ap
ĠMal ta
I ENT
Ġ# {
Ġdirect ing
ĠHun ting
Ġabund ant
ĠB ug
ĠPalest inians
D ar
ass o
read ing
au f
RE NT
ĠS hen
Ġadop ting
Gr ant
Ġrhetor ic
ĠB end
Ġrem n
ĠN L
Ġc raw
ĠV II
Ġorgan isms
K N
ĠAng lo
g raphics
Ġ} $
Ġsa x
23 9
Ġann ouncing
ãģ ®
Ġf als
Ġair ports
Ġproceed ing
ĠAtl as
Ġchampionship s
ĠIo T
ĠB il
Ġround ed
ĠObserv atory
Ġout going
An not
p ending
)\ ,\
I p
ĠQu antum
p ent
rel ax
Ġsp ends
esc ape
Ġcho oses
S ometimes
eal ous
R F
Ġtweet ed
B uy
Ġadv iser
Ġout reach
Ġfilm maker
ĠCongress ional
m agn
ĠE uler
ell ular
St ructure
Ġinject ed
cass andra
ĠD ale
$ --
Ġsoul s
P ark
ote chnology
Ġmon sters
J es
mult iple
Ġcomp ares
om p
Ġnot ions
Ġsec uring
Dec imal
Ġs odium
18 89
Ġsound ed
ĠNe u
Ñ ĸ
Ġ ../
ol ith
ap a
respect ively
Ġ' _
sl ide
Ġful filled
Current ly
al ore
abb ing
ĠFac ility
Ġcon gest
Co ord
Ġserv ants
ter min
ĠON E
Ġgu ilt
Ġassess ing
Prior ity
l ings
ch unk
Ġred es
S ong
Ġfinanc ially
in ely
ĠEngine ers
Ġrepro duction
W all
18 88
( |
c art
Ġ\\ [
Ġdiscrim in
() [
om ics
ĠComm unities
land er
ĠRe ality
23 7
ĠCh in
Ġprint s
He art
k le
ĠC yr
Ġne at
Ġcoinc ide
K O
l ov
ne ath
Ġsuccess ive
Ġcycl ic
el o
Table Row
Ġpro poses
Ġco operative
P ane
ĠN u
Pro b
BO OL
ĠI Q
Ġcomm ence
Ġunder went
ribut or
O x
Ġch ase
Ġop pose
Ġmed ications
Ġautom otive
ochem ical
Ġmus cles
E u
b ibli
IT S
}\ }$
ĠAdv ance
Ġappoint ments
car ballo
ym e
Ġin consistent
ĠP P
." )
bre aks
ĠDur ham
ĠYank ees
Ġaer ial
e i
ĠPol ic
Ġbas ement
Ġbug s
ĠD ES
Ġun fortunate
na ire
á Ģ
Ġsup porter
ĠAt omic
st rom
Ġ' -
24 6
Ġlaugh ing
Ġsymmet ries
sw ick
Ġtow ers
Ġc aut
it ives
ug osl
Ġco res
contain ers
ĠEntreprene ur
ĠEr nest
s ens
Ġtr ash
Ġboard ing
ĠVeh icle
Ġp ond
Ġg erm
ĠW indow
Ġserv ant
AC ING
Ġregul ators
ĠC rew
Ġco hom
Ġtheat rical
Ġrecru ited
ĠF ay
ĠMan it
Ġpersonal ities
Ġsuff ix
ĠR anch
ĠEug ene
Sar ah
ĠPrest on
^ -$
ine z
Ġge ographic
Ø§ Ø
Ġutter ly
Ġl aughed
Ġpostpon ed
ys ql
' }$
T B
Ġdes ires
ĠRodrig uez
GL enum
ace ae
Ġfin itely
Ġpun ish
Ã Ł
see ing
% "><
18 61
der iv
Ass ign
pat hetic
Ġaccum ulation
yg on
Ġevent ual
R N
l atest
24 9
Ġemphas ized
p ure
ĠT M
ular ity
Ġterm inated
ĠIllegal ArgumentException
P oll
Ġn ont
ĠM aced
ĠP ush
pr inc
Con v
n x
orth y
ĠNe ither
Ġadjust ments
Ġenc rypted
ard on
ple ctic
Ġref uses
found ed
ĠSalv ador
ĠChief s
BP ACK
Ġhun ger
Ġmet aphor
ĠSouth west
Ġs aves
b eck
n is
Ġb row
Ġrout ing
> `
Ġre open
fore st
Ġtoile t
un i
Ġtou ches
ĠG ren
ĠT ut
ĠK IND
loc ale
Ġdev iations
D isk
Ġtum ors
SCR IPT
Ġch airs
D ear
con j
pher d
23 1
ĠChron icle
ĠĠĠĠĠĠĠ Ċ
ĠO bl
Ġfact ories
Ġvis ually
Ġmet ast
Ġrespond s
Lou is
C annot
b ag
er ialize
PP ORT
qu ire
ĠL enn
Ġcost ume
andid ates
Ġthr ust
Ġm ol
Ġar ithmetic
W IN
ĠS ang
AL E
ĠVer ify
i ab
EX P
com parison
Ġdr agon
Ġreb ounds
C op
Ġf oo
any a
list ing
ĠStr at
Ġ ----
or able
C SS
Ġim posing
to Equal
Ġpol ym
ĠL ines
Ġacad emics
Ġcoord inated
ĠRun ning
icult ural
m q
18 94
P REF
ĠLo an
Ġthe aters
ĠH ook
ĠO g
Ġinc ub
ĠCON D
ogene ity
Ġscrut iny
Ġam en
ĠT C
Ġg ases
ĠR B
Ġmin us
dis ambiguation
af ety
ors che
Ġrele g
sup p
ĠDeb ug
ĠR ut
iv ier
Ġb ite
__ ,
ĠPost s
ĠP G
rot ate
ĠGre ens
at im
20 25
ĠK ick
plement ed
Ġenzym e
Ġhope ful
Ġir rit
af ka
Inter view
Ġwel coming
ĠRoll ing
ighbor hood
ĠF ut
Ġrem inis
di agram
Ġfin ishes
P ush
\, .
L atin
' )\
Ġp a
ĠS askat
ĠIn g
Ġspec ially
Ġarbit ration
Po etry
[...]
