{
  "version": "1.0",
  "truncation": null,
  "padding": null,
  "added_tokens": [
    {
      "id": 0,
      "content": "[UNK]",
      "single_word": false,
      "lstrip": false,
      "rstrip": false,
      "normalized": false,
      "special": true
    }
  ],
  "normalizer": null,
  "pre_tokenizer": {
    "type": "Sequence",
    "pretokenizers": [
      {
        "type": "Digits",
        "individual_digits": false
      },
      {
        "type": "ByteLevel",
        "add_prefix_space": false,
        "trim_offsets": true,
        "use_regex": true
      }
    ]
  },
  "post_processor": null,
  "decoder": null,
  "model": {
    "type": "BPE",
    "dropout": null,
    "unk_token": "[UNK]",
    "continuing_subword_prefix": null,
    "end_of_word_suffix": null,
    "fuse_unk": false,
    "byte_fallback": false,
    "vocab": {
      "[UNK]": 0,
      "!": 1,
      "\"": 2,
      "#": 3,
      "$": 4,
      "%": 5,
      "&": 6,
      "'": 7,
      "(": 8,
      ")": 9,
      "*": 10,
      "+": 11,
      ",": 12,
      "-": 13,
      ".": 14,
      "/": 15,
      "0": 16,
      "1": 17,
      "2": 18,
      "3": 19,
      "4": 20,
      "5": 21,
      "6": 22,
      "7": 23,
      "8": 24,
      "9": 25,
      ":": 26,
      ";": 27,
      "<": 28,
      "=": 29,
      ">": 30,
      "?": 31,
      "@": 32,
      "A": 33,
      "B": 34,
      "C": 35,
      "D": 36,
      "E": 37,
      "F": 38,
      "G": 39,
      "H": 40,
      "I": 41,
      "J": 42,
      "K": 43,
      "L": 44,
      "M": 45,
      "N": 46,
      "O": 47,
      "P": 48,
      "Q": 49,
      "R": 50,
      "S": 51,
      "T": 52,
      "U": 53,
      "V": 54,
      "W": 55,
      "X": 56,
      "Y": 57,
      "Z": 58,
      "[": 59,
      "\\": 60,
      "]": 61,
      "^": 62,
      "_": 63,
      "`": 64,
      "a": 65,
      "b": 66,
      "c": 67,
      "d": 68,
      "e": 69,
      "f": 70,
      "g": 71,
      "h": 72,
      "i": 73,
      "j": 74,
      "k": 75,
      "l": 76,
      "m": 77,
      "n": 78,
      "o": 79,
      "p": 80,
      "q": 81,
      "r": 82,
      "s": 83,
      "t": 84,
      "u": 85,
      "v": 86,
      "w": 87,
      "x": 88,
      "y": 89,
      "z": 90,
      "{": 91,
      "|": 92,
      "}": 93,
      "~": 94,
      "¡": 95,
      "¢": 96,
      "£": 97,
      "¤": 98,
      "¥": 99,
      "¦": 100,
      "§": 101,
      "¨": 102,
      "©": 103,
      "ª": 104,
      "«": 105,
      "¬": 106,
      "®": 107,
      "¯": 108,
      "°": 109,
      "±": 110,
      "²": 111,
      "³": 112,
      "´": 113,
      "µ": 114,
      "¶": 115,
      "·": 116,
      "¸": 117,
      "¹": 118,
      "º": 119,
      "»": 120,
      "¼": 121,
      "½": 122,
      "¾": 123,
      "¿": 124,
      "Â": 125,
      "Ã": 126,
      "Ä": 127,
      "Å": 128,
      "Æ": 129,
      "Ç": 130,
      "È": 131,
      "É": 132,
      "Ê": 133,
      "Ë": 134,
      "Ì": 135,
      "Í": 136,
      "Î": 137,
      "Ï": 138,
      "Ð": 139,
      "Ñ": 140,
      "Ò": 141,
      "Ó": 142,
      "Ô": 143,
      "Õ": 144,
      "Ö": 145,
      "×": 146,
      "Ø": 147,
      "Ù": 148,
      "Ú": 149,
      "Û": 150,
      "Ü": 151,
      "Ý": 152,
      "Þ": 153,
      "ß": 154,
      "à": 155,
      "á": 156,
      "â": 157,
      "ã": 158,
      "ä": 159,
      "å": 160,
      "æ": 161,
      "ç": 162,
      "è": 163,
      "é": 164,
      "ê": 165,
      "ë": 166,
      "ì": 167,
      "í": 168,
      "î": 169,
      "ï": 170,
      "ð": 171,
      "ó": 172,
      "ô": 173,
      "Ā": 174,
      "ā": 175,
      "Ă": 176,
      "ă": 177,
      "Ą": 178,
      "ą": 179,
      "Ć": 180,
      "ć": 181,
      "Ĉ": 182,
      "ĉ": 183,
      "Ċ": 184,
      "ċ": 185,
      "Č": 186,
      "č": 187,
      "Ď": 188,
      "ď": 189,
      "Đ": 190,
      "đ": 191,
      "Ē": 192,
      "ē": 193,
      "Ĕ": 194,
      "ĕ": 195,
      "Ė": 196,
      "ė": 197,
      "Ę": 198,
      "ę": 199,
      "Ě": 200,
      "ě": 201,
      "Ĝ": 202,
      "ĝ": 203,
      "Ğ": 204,
      "ğ": 205,
      "Ġ": 206,
      "ġ": 207,
      "Ģ": 208,
      "ģ": 209,
      "Ĥ": 210,
      "ĥ": 211,
      "Ħ": 212,
      "ħ": 213,
      "Ĩ": 214,
      "ĩ": 215,
      "Ī": 216,
      "ī": 217,
      "Ĭ": 218,
      "ĭ": 219,
      "Į": 220,
      "į": 221,
      "İ": 222,
      "ı": 223,
      "Ĳ": 224,
      "ĳ": 225,
      "Ĵ": 226,
      "ĵ": 227,
      "Ķ": 228,
      "ķ": 229,
      "ĸ": 230,
      "Ĺ": 231,
      "ĺ": 232,
      "Ļ": 233,
      "ļ": 234,
      "Ľ": 235,
      "ľ": 236,
      "Ŀ": 237,
      "ŀ": 238,
      "Ł": 239,
      "ł": 240,
      "Ń": 241,
      "ĠĠ": 242,
      "Ġt": 243,
      "in": 244,
      "Ġa": 245,
      "he": 246,
      "on": 247,
      "er": 248,
      "re": 249,
      "at": 250,
      "Ġthe": 251,
      "ĠĠĠĠ": 252,
      "en": 253,
      "Ġs": 254,
      "or": 255,
      "it": 256,
      "es": 257,
      "an": 258,
      "is": 259,
      "Ġo": 260,
      "al": 261,
      "Ġc": 262,
      "Ġw": 263,
      "ar": 264,
      "ed": 265,
      "Ġf": 266,
      "ing": 267,
      "Ġp": 268,
      "nd": 269,
      "ion": 270,
      "Ġb": 271,
      "Ġof": 272,
      "Ġin": 273,
      "ic": 274,
      "ou": 275,
      "le": 276,
      "as": 277,
      "Ġm": 278,
      "Ġand": 279,
      "Ġto": 280,
      "Ġd": 281,
      "ro": 282,
      "ent": 283,
      "ct": 284,
      "Ġh": 285,
      "et": 286,
      "el": 287,
      "Ġth": 288,
      "il": 289,
      "st": 290,
      "om": 291,
      "Ġre": 292,
      "âĢ": 293,
      "Ġn": 294,
      "ĠS": 295,
      "am": 296,
      "ĠĠĠ": 297,
      "ĠT": 298,
      "Ġl": 299,
      "id": 300,
      "Ġe": 301,
      "ĠĠĠĠĠĠĠĠ": 302,
      "ig": 303,
      "ol": 304,
      "ation": 305,
      "ĠC": 306,
      "im": 307,
      "ĠA": 308,
      "ot": 309,
      "ac": 310,
      "ut": 311,
      "ur": 312,
      "ve": 313,
      "Ġ(": 314,
      "Ġis": 315,
      "Ġg": 316,
      "ad": 317,
      "ĠI": 318,
      "se": 319,
      "Ġfor": 320,
      "ly": 321,
      "ow": 322,
      "ver": 323,
      "ay": 324,
      "Ġ\\": 325,
      "ĠM": 326,
      "Ġon": 327,
      "ce": 328,
      "Ġbe": 329,
      "Ġ$": 330,
      "ul": 331,
      "Ġst": 332,
      "ch": 333,
      "ĠP": 334,
      "us": 335,
      "ith": 336,
      "ir": 337,
      "Ġthat": 338,
      "ter": 339,
      "ĠB": 340,
      "un": 341,
      "if": 342,
      "ag": 343,
      "od": 344,
      "em": 345,
      "20": 346,
      "ab": 347,
      "um": 348,
      "Ġwith": 349,
      "Ġas": 350,
      "Ġcon": 351,
      "ri": 352,
      "ĠD": 353,
      "ĠR": 354,
      "her": 355,
      "ĠH": 356,
      "qu": 357,
      "ate": 358,
      "ap": 359,
      "th": 360,
      "ĠF": 361,
      "est": 362,
      "ist": 363,
      "Ġan": 364,
      "âĢĻ": 365,
      "Ġal": 366,
      "ers": 367,
      "Ġv": 368,
      "Ġpro": 369,
      "ĠW": 370,
      "Ġit": 371,
      "pe": 372,
      "and": 373,
      "ĠL": 374,
      "Ġwh": 375,
      "ht": 376,
      "ĠĠĠĠĠĠĠ": 377,
      "Ġy": 378,
      "ĠThe": 379,
      "res": 380,
      "ĠN": 381,
      "oc": 382,
      "op": 383,
      "ew": 384,
      "ess": 385,
      "Ġ=": 386,
      "ain": 387,
      "end": 388,
      "ĠG": 389,
      "ill": 390,
      "ĠE": 391,
      "ity": 392,
      "ction": 393,
      "os": 394,
      "Ġcom": 395,
      "Ġat": 396,
      "Ġr": 397,
      "Ġde": 398,
      "iv": 399,
      "Ġby": 400,
      "our": 401,
      "ore": 402,
      "Ġwas": 403,
      "rom": 404,
      "Ġex": 405,
      "Ġhe": 406,
      "ort": 407,
      "Ġare": 408,
      "{\\": 409,
      "ment": 410,
      "up": 411,
      "ak": 412,
      "art": 413,
      "Ġor": 414,
      "ld": 415,
      "ub": 416,
      "ies": 417,
      "ex": 418,
      "ant": 419,
      "ĉĉ": 420,
      "ight": 421,
      "Ġse": 422,
      "ĠâĢ": 423,
      "ĠJ": 424,
      "Ġfrom": 425,
      "ure": 426,
      "pl": 427,
      "ĠO": 428,
      "ive": 429,
      "all": 430,
      "Ġ<": 431,
      ");": 432,
      "Ġwe": 433,
      "pt": 434,
      "ine": 435,
      "nt": 436,
      "ass": 437,
      "ud": 438,
      "19": 439,
      "ial": 440,
      "Ġthis": 441,
      "--": 442,
      "čĊ": 443,
      "ath": 444,
      "ave": 445,
      "ame": 446,
      "ra": 447,
      "=\"": 448,
      "ust": 449,
      "og": 450,
      "Ġ{": 451,
      "eg": 452,
      "ue": 453,
      "ge": 454,
      "ect": 455,
      "Ġnot": 456,
      "Ġsh": 457,
      "The": 458,
      "age": 459,
      "Ġch": 460,
      "ack": 461,
      "ard": 462,
      "Ġ&": 463,
      "Ġcl": 464,
      "iz": 465,
      "Ġ\"": 466,
      "//": 467,
      "ĠU": 468,
      "ell": 469,
      "rou": 470,
      "ber": 471,
      "_{": 472,
      "port": 473,
      "ans": 474,
      "cl": 475,
      "ff": 476,
      "Ġle": 477,
      "per": 478,
      "ult": 479,
      "</": 480,
      "out": 481,
      "..": 482,
      "00": 483,
      "Ġhave": 484,
      "ost": 485,
      "Ġk": 486,
      "are": 487,
      "ich": 488,
      "ast": 489,
      "Ġtr": 490,
      "ĠĠĠĠĠĠĠĠĠĠĠ": 491,
      "ated": 492,
      "ip": 493,
      "Ġ*": 494,
      "orm": 495,
      "ite": 496,
      "ary": 497,
      "ical": 498,
      "Ġyou": 499,
      "av": 500,
      "201": 501,
      "ok": 502,
      "'s": 503,
      "Ġ$\\": 504,
      "able": 505,
      "ould": 506,
      "Ġpl": 507,
      "ĠSt": 508,
      "ear": 509,
      "ia": 510,
      "ĠK": 511,
      "ext": 512,
      "ork": 513,
      "ong": 514,
      "ire": 515,
      "ĠIn": 516,
      "Ġcan": 517,
      "Ġhas": 518,
      "Ġab": 519,
      "âĢĿ": 520,
      "ide": 521,
      "con": 522,
      "ition": 523,
      "ord": 524,
      "ice": 525,
      "ind": 526,
      "Ġres": 527,
      "Ġ}": 528,
      "Ġcomp": 529,
      "ep": 530,
      "com": 531,
      "ign": 532,
      "ace": 533,
      "ence": 534,
      "ĠĊ": 535,
      "Ġall": 536,
      "Ġj": 537,
      "Ġwhe": 538,
      "ime": 539,
      "math": 540,
      "Ġcont": 541,
      "int": 542,
      "ther": 543,
      "Ġus": 544,
      "act": 545,
      "ations": 546,
      "ase": 547,
      "Ġ-": 548,
      "ref": 549,
      "Ġint": 550,
      "urn": 551,
      "cc": 552,
      "ef": 553,
      "ens": 554,
      "ĠV": 555,
      "Ġad": 556,
      "ous": 557,
      "Ġhis": 558,
      "ib": 559,
      "ang": 560,
      "Ġu": 561,
      "Ġwhich": 562,
      "ance": 563,
      "ph": 564,
      "Ġim": 565,
      "Ġun": 566,
      "ik": 567,
      "Ġwill": 568,
      "Ġif": 569,
      "ry": 570,
      "pro": 571,
      "),": 572,
      "ions": 573,
      "du": 574,
      "gh": 575,
      ").": 576,
      "ile": 577,
      "Ġap": 578,
      "ĠĠĠĠĠĠĠĠĠĠĠĠĠĠĠĠ": 579,
      "ere": 580,
      "ome": 581,
      "so": 582,
      "ft": 583,
      "form": 584,
      "Ġbut": 585,
      "ĠTh": 586,
      "ma": 587,
      "one": 588,
      "}\\": 589,
      "ru": 590,
      "Ġen": 591,
      "ild": 592,
      "Ġtheir": 593,
      "\">": 594,
      "Ġdo": 595,
      "au": 596,
      "ĠâĢľ": 597,
      "}$": 598,
      "Ġgo": 599,
      "Ġout": 600,
      "Ġme": 601,
      "ach": 602,
      "erv": 603,
      "ĠCh": 604,
      "ents": 605,
      "Ġar": 606,
      "^{": 607,
      "ory": 608,
      "In": 609,
      "ĠĠĠĠĠ": 610,
      "Ġone": 611,
      "ount": 612,
      "ec": 613,
      "**": 614,
      "ress": 615,
      "Ġnew": 616,
      "Ġup": 617,
      "ally": 618,
      "ian": 619,
      "ook": 620,
      "ob": 621,
      "fer": 622,
      "ring": 623,
      "ov": 624,
      "Ġsu": 625,
      "Ġthey": 626,
      "ubl": 627,
      "get": 628,
      "Ġwho": 629,
      "ie": 630,
      "ail": 631,
      "Ġmore": 632,
      "ll": 633,
      "own": 634,
      "Ġper": 635,
      "ound": 636,
      "10": 637,
      "ark": 638,
      "Ġdis": 639,
      "vers": 640,
      "ors": 641,
      "Ġwere": 642,
      "ely": 643,
      "fr": 644,
      "Ġpart": 645,
      "ject": 646,
      "row": 647,
      "turn": 648,
      "ree": 649,
      "ata": 650,
      "ake": 651,
      "Ġsc": 652,
      "Ġev": 653,
      "ĠY": 654,
      "Ġalso": 655,
      "ode": 656,
      "ose": 657,
      "St": 658,
      "Ġclass": 659,
      "ype": 660,
      "mer": 661,
      "oll": 662,
      "very": 663,
      "sp": 664,
      "vel": 665,
      "ey": 666,
      "Ġsp": 667,
      "Ġman": 668,
      "irst": 669,
      "Ġother": 670,
      "ish": 671,
      "200": 672,
      "Ġqu": 673,
      "}}": 674,
      "Ġso": 675,
      "Ġ'": 676,
      "ict": 677,
      "ps": 678,
      "enc": 679,
      "Ġinter": 680,
      "Ġits": 681,
      "ates": 682,
      "old": 683,
      "(\\": 684,
      "Ġag": 685,
      "Ġwork": 686,
      "ays": 687,
      "clud": 688,
      "Ġabout": 689,
      "ont": 690,
      "----": 691,
      "ple": 692,
      "Ġbeen": 693,
      "ink": 694,
      "ock": 695,
      "wo": 696,
      "ick": 697,
      "egin": 698,
      "rib": 699,
      "()": 700,
      "Ġyear": 701,
      "te": 702,
      "rit": 703,
      "Ġsa": 704,
      "ert": 705,
      "Ġne": 706,
      "Ġpre": 707,
      "ublic": 708,
      "Ġher": 709,
      "==": 710,
      "Ġover": 711,
      "begin": 712,
      "Ġhad": 713,
      "ove": 714,
      "nder": 715,
      "hed": 716,
      "ss": 717,
      "we": 718,
      "ĠIt": 719,
      "ike": 720,
      "pect": 721,
      "Ġtime": 722,
      "Ġour": 723,
      "equ": 724,
      "iew": 725,
      "li": 726,
      "Ġ[": 727,
      "ics": 728,
      "Ġte": 729,
      "ings": 730,
      "unction": 731,
      "ener": 732,
      "fter": 733,
      "erm": 734,
      "the": 735,
      "yst": 736,
      "ual": 737,
      "anc": 738,
      "reat": 739,
      "cal": 740,
      "eth": 741,
      "Ġany": 742,
      "elf": 743,
      "ool": 744,
      "tr": 745,
      ")$": 746,
      "aw": 747,
      "Ġwhen": 748,
      "Ġfirst": 749,
      "lect": 750,
      "ng": 751,
      "_{\\": 752,
      "ond": 753,
      "Ġthan": 754,
      "text": 755,
      "Ġpe": 756,
      "Ġthere": 757,
      "ĠHe": 758,
      "ons": 759,
      "ck": 760,
      "Ġwould": 761,
      "iss": 762,
      "Ġreturn": 763,
      "over": 764,
      "rap": 765,
      "pec": 766,
      "oint": 767,
      "Ġrec": 768,
      "ne": 769,
      "ĠâĢĵ": 770,
      "ull": 771,
      "Ġget": 772,
      "ĠUn": 773,
      "Ġro": 774,
      "Ġob": 775,
      "18": 776,
      "alue": 777,
      "right": 778,
      "ople": 779,
      "Ġind": 780,
      "iel": 781,
      "igh": 782,
      "ational": 783,
      "Ġ+": 784,
      "Ġsome": 785,
      "abel": 786,
      "Ġinto": 787,
      "Ġ|": 788,
      "Ġsup": 789,
      "oy": 790,
      "Ġtwo": 791,
      "ĠĠĠĠĠĠĠĠĠĠĠĠĠĠĠ": 792,
      "Ġdes": 793,
      "Ġcomm": 794,
      "Ġmod": 795,
      "ta": 796,
      "}{": 797,
      "Ġset": 798,
      "},": 799,
      "12": 800,
      "Ġass": 801,
      "ater": 802,
      "Ġoff": 803,
      "Ġkn": 804,
      "Ġdef": 805,
      "ari": 806,
      "ize": 807,
      "les": 808,
      "ram": 809,
      "fig": 810,
      "tern": 811,
      "ystem": 812,
      "Ġthem": 813,
      "Ġbet": 814,
      "cre": 815,
      "ev": 816,
      "ade": 817,
      "Ġacc": 818,
      "Ġcons": 819,
      "sh": 820,
      "ield": 821,
      "ific": 822,
      "ĠWe": 823,
      "Ġonly": 824,
      "ied": 825,
      "ular": 826,
      "ix": 827,
      "pos": 828,
      "Ġyour": 829,
      "Ġsaid": 830,
      "rm": 831,
      "line": 832,
      "olog": 833,
      "Ġ//": 834,
      "frac": 835,
      "par": 836,
      "Ġno": 837,
      "ption": 838,
      "ty": 839,
      "ning": 840,
      "ities": 841,
      "ise": 842,
      "Ġreg": 843,
      "ource": 844,
      "inal": 845,
      "round": 846,
      "sc": 847,
      "Ġshe": 848,
      "ident": 849,
      "Ġinclud": 850,
      "Ġunder": 851,
      "eq": 852,
      "ĠCom": 853,
      "Ġpeople": 854,
      "cite": 855,
      "lo": 856,
      "ased": 857,
      "ative": 858,
      "->": 859,
      "Ġsub": 860,
      "ĠThis": 861,
      "ution": 862,
      "Ġdif": 863,
      "Ġlike": 864,
      "Ġact": 865,
      "hat": 866,
      "ys": 867,
      "Ġadd": 868,
      "Ġwhere": 869,
      "Ġ/": 870,
      "ug": 871,
      "Ġfe": 872,
      "ments": 873,
      "riv": 874,
      "ating": 875,
      "ax": 876,
      "11": 877,
      "put": 878,
      "Ġprov": 879,
      "orld": 880,
      "mb": 881,
      "oth": 882,
      "Ġrel": 883,
      "Ġfunction": 884,
      "Ġwhat": 885,
      "red": 886,
      "ange": 887,
      "\",": 888,
      "rough": 889,
      "Ġ@": 890,
      "Ġtrans": 891,
      "ĠNew": 892,
      "app": 893,
      "als": 894,
      "Ġop": 895,
      "Ġafter": 896,
      "ollow": 897,
      "ility": 898,
      "pr": 899,
      "::": 900,
      "Ġpublic": 901,
      "label": 902,
      "ient": 903,
      "Ġinv": 904,
      "ray": 905,
      "imes": 906,
      "umber": 907,
      "Ġplay": 908,
      "set": 909,
      "io": 910,
      "ward": 911,
      "Ġsuch": 912,
      "arch": 913,
      "Ġatt": 914,
      "Ġpos": 915,
      "ious": 916,
      "Ġmay": 917,
      "ues": 918,
      "ause": 919,
      "ited": 920,
      "tt": 921,
      "Ġjust": 922,
      "ĠPro": 923,
      "Ġhow": 924,
      "15": 925,
      "mathb": 926,
      "ĉĉĉĉ": 927,
      "Ġph": 928,
      "to": 929,
      "Ġ</": 930,
      "Ġmy": 931,
      "ower": 932,
      "ough": 933,
      "Ġmost": 934,
      "Ġstud": 935,
      "ures": 936,
      "Ġpol": 937,
      "ank": 938,
      "Ġconst": 939,
      "und": 940,
      "ĠSe": 941,
      "Ġam": 942,
      "Ġthese": 943,
      "arg": 944,
      "Ġac": 945,
      "wn": 946,
      "21": 947,
      "resent": 948,
      "Ġcol": 949,
      "land": 950,
      "ices": 951,
      "ible": 952,
      "uring": 953,
      "Ġthen": 954,
      "Ġshow": 955,
      "Ġbl": 956,
      "its": 957,
      "Ġuse": 958,
      "Th": 959,
      "$,": 960,
      "Ġthrough": 961,
      "Ġform": 962,
      "roup": 963,
      "Ex": 964,
      "Ġrem": 965,
      "16": 966,
      "raph": 967,
      "Ġresult": 968,
      "Ġback": 969,
      "ced": 970,
      "Ġpr": 971,
      "Ġbec": 972,
      ",\\": 973,
      "orn": 974,
      "Ġco": 975,
      "$.": 976,
      "ood": 977,
      "der": 978,
      "itt": 979,
      "Ġdata": 980,
      "Ġend": 981,
      "ween": 982,
      "Ġbu": 983,
      "../": 984,
      "eta": 985,
      "ivers": 986,
      "ek": 987,
      "ract": 988,
      "ily": 989,
      "ER": 990,
      "ĠAr": 991,
      "left": 992,
      "Ġfollow": 993,
      "ren": 994,
      "of": 995,
      "err": 996,
      "Ġ.": 997,
      "ful": 998,
      "equation": 999,
      "ash": 1000,
      "ox": 1001,
      "let": 1002,
      "Ġfl": 1003,
      "ann": 1004,
      "ince": 1005,
      "Ġdiffer": 1006,
      "Ġprodu": 1007,
      "amp": 1008,
      "ruct": 1009,
      "})": 1010,
      "air": 1011,
      "amb": 1012,
      "atch": 1013,
      "}.": 1014,
      "ars": 1015,
      ".âĢĿ": 1016,
      "Ġname": 1017,
      "Ġyears": 1018,
      "mathcal": 1019,
      "ement": 1020,
      "Ġeff": 1021,
      "Ġhim": 1022,
      "irect": 1023,
      "hen": 1024,
      "Ġwell": 1025,
      "any": 1026,
      "Ġneed": 1027,
      "cent": 1028,
      "...": 1029,
      "Ġinst": 1030,
      "Ġent": 1031,
      "eng": 1032,
      "Ġbetween": 1033,
      "Ġloc": 1034,
      "ife": 1035,
      "meric": 1036,
      "hes": 1037,
      "://": 1038,
      "ator": 1039,
      "30": 1040,
      "ames": 1041,
      "199": 1042,
      "ider": 1043,
      "cess": 1044,
      "âĢľ": 1045,
      "Ġdist": 1046,
      "Ġrequ": 1047,
      "Ġspec": 1048,
      "oun": 1049,
      "uth": 1050,
      "Ġcould": 1051,
      "ĠAl": 1052,
      "Ġgener": 1053,
      "Ġsim": 1054,
      "ts": 1055,
      "(\"": 1056,
      "velop": 1057,
      "ines": 1058,
      "cond": 1059,
      "();": 1060,
      "Ġdet": 1061,
      "Ġcall": 1062,
      "ism": 1063,
      "We": 1064,
      "essage": 1065,
      "Ġused": 1066,
      "ead": 1067,
      "ble": 1068,
      "ml": 1069,
      "chool": 1070,
      "Ġsystem": 1071,
      "ature": 1072,
      "Ġserv": 1073,
      "14": 1074,
      "ctions": 1075,
      "ember": 1076,
      "Ġ:": 1077,
      "ists": 1078,
      "day": 1079,
      "Ġfil": 1080,
      "17": 1081,
      "IN": 1082,
      "Ġcur": 1083,
      "ton": 1084,
      "rent": 1085,
      "ins": 1086,
      "other": 1087,
      "uch": 1088,
      "}(": 1089,
      "Ġsm": 1090,
      "ĠTr": 1091,
      "ĠSh": 1092,
      "',": 1093,
      "oid": 1094,
      "atic": 1095,
      "erson": 1096,
      "els": 1097,
      "ute": 1098,
      "13": 1099,
      "Ġagain": 1100,
      "Ġnow": 1101,
      "ON": 1102,
      "}^": 1103,
      "ĠAn": 1104,
      "ined": 1105,
      "read": 1106,
      "plic": 1107,
      "man": 1108,
      "--------": 1109,
      "ĠDe": 1110,
      "formation": 1111,
      "Ġcor": 1112,
      "oot": 1113,
      "alth": 1114,
      "ethod": 1115,
      "~\\": 1116,
      "Ġevery": 1117,
      "ason": 1118,
      "}_": 1119,
      "Ġext": 1120,
      "Ġknow": 1121,
      "gan": 1122,
      "ww": 1123,
      "25": 1124,
      "ah": 1125,
      "oci": 1126,
      "Pro": 1127,
      "Ġem": 1128,
      "Ġmany": 1129,
      "led": 1130,
      "ral": 1131,
      "tain": 1132,
      "Ġsur": 1133,
      "ner": 1134,
      "ages": 1135,
      "ĠFor": 1136,
      "aking": 1137,
      "ized": 1138,
      "Ġshould": 1139,
      "Ġgr": 1140,
      "pha": 1141,
      "Ġi": 1142,
      "ric": 1143,
      "****": 1144,
      "ever": 1145,
      "vent": 1146,
      "Ġpoint": 1147,
      "Ġeach": 1148,
      "min": 1149,
      "yn": 1150,
      "Ġsign": 1151,
      "Ġstr": 1152,
      "hip": 1153,
      "Ġright": 1154,
      "pon": 1155,
      "uss": 1156,
      "Ġbeing": 1157,
      "oh": 1158,
      "Ġpar": 1159,
      "ms": 1160,
      "div": 1161,
      "Ġline": 1162,
      "Ġhigh": 1163,
      "ision": 1164,
      "ĠAmeric": 1165,
      "2020": 1166,
      "ern": 1167,
      "ale": 1168,
      "da": 1169,
      "ĠCl": 1170,
      "Ġchar": 1171,
      "ting": 1172,
      "Ġcount": 1173,
      "Ġ*/": 1174,
      "Ġsee": 1175,
      "ience": 1176,
      "âĢĵ": 1177,
      "ĠQ": 1178,
      "Ġbecause": 1179,
      "Ġvalue": 1180,
      "'t": 1181,
      "Ġlong": 1182,
      "Ġeven": 1183,
      "ives": 1184,
      "000": 1185,
      "ences": 1186,
      "Ġser": 1187,
      "alpha": 1188,
      "Ġdid": 1189,
      "ier": 1190,
      "Ġmake": 1191,
      ".,": 1192,
      "Ġel": 1193,
      "Ġnumber": 1194,
      "ĠAnd": 1195,
      "Ġexper": 1196,
      "fl": 1197,
      "Ġstart": 1198,
      "fore": 1199,
      "Ġdec": 1200,
      "Ġ#": 1201,
      "RE": 1202,
      "></": 1203,
      "str": 1204,
      "sub": 1205,
      "))": 1206,
      "Ġcase": 1207,
      "__": 1208,
      "ants": 1209,
      "ote": 1210,
      "Ġhel": 1211,
      "span": 1212,
      "ished": 1213,
      "gy": 1214,
      "Ġart": 1215,
      "Ġvery": 1216,
      "way": 1217,
      "Ġed": 1218,
      "ots": 1219,
      "Ġequ": 1220,
      "Ġmin": 1221,
      "ten": 1222,
      "view": 1223,
      "Ġway": 1224,
      "Ġsame": 1225,
      "ology": 1226,
      "Ġlead": 1227,
      "Ġmon": 1228,
      "ĠZ": 1229,
      "Ġown": 1230,
      "Ġappro": 1231,
      "iness": 1232,
      "ically": 1233,
      "iversity": 1234,
      "ets": 1235,
      "press": 1236,
      "Ġworld": 1237,
      "Ġdifferent": 1238,
      "Ġdoes": 1239,
      "ouse": 1240,
      "ces": 1241,
      "Ġbel": 1242,
      "ery": 1243,
      "elta": 1244,
      "Ch": 1245,
      "Ġboth": 1246,
      "ĠSc": 1247,
      "az": 1248,
      "ather": 1249,
      "Ġwhile": 1250,
      "Ġgu": 1251,
      "eb": 1252,
      "ST": 1253,
      "It": 1254,
      "ele": 1255,
      "Ġdevelop": 1256,
      "ĠAs": 1257,
      "Ġtype": 1258,
      ",âĢĿ": 1259,
      "Ġfound": 1260,
      "Ġbefore": 1261,
      "Ġmade": 1262,
      "Ġlook": 1263,
      "gram": 1264,
      "Ġfam": 1265,
      "uc": 1266,
      "ĠInd": 1267,
      "Ġthose": 1268,
      ")\\": 1269,
      "son": 1270,
      "AT": 1271,
      "Ġdisc": 1272,
      "def": 1273,
      "Ġread": 1274,
      "ask": 1275,
      "====": 1276,
      "ization": 1277,
      "50": 1278,
      "ĠĠĠĠĠĠĠĠĠ": 1279,
      "ĠEx": 1280,
      "Ġsupport": 1281,
      "Ġcre": 1282,
      "chn": 1283,
      "Ġsol": 1284,
      "alk": 1285,
      "ĉĉĉ": 1286,
      "ID": 1287,
      "ross": 1288,
      "Ġcent": 1289,
      "ambda": 1290,
      "ĠĠĠĠĠĠĠĠĠĠĠĠĠĠĠĠĠĠĠ": 1291,
      "ases": 1292,
      "Ġvari": 1293,
      "part": 1294,
      "ĠAd": 1295,
      "Ġmed": 1296,
      "sum": 1297,
      "Ġrep": 1298,
      "orth": 1299,
      "Ġstate": 1300,
      "Ġear": 1301,
      "><": 1302,
      "Ġoper": 1303,
      "ters": 1304,
      "this": 1305,
      "ee": 1306,
      "ired": 1307,
      "iven": 1308,
      "cept": 1309,
      "Ġpartic": 1310,
      "Ġele": 1311,
      "idth": 1312,
      "ght": 1313,
      "Ġtest": 1314,
      "ript": 1315,
      "Ġ\\\\": 1316,
      "ym": 1317,
      "Ġthree": 1318,
      "ho": 1319,
      "Ġest": 1320,
      "22": 1321,
      "col": 1322,
      "ital": 1323,
      "mber": 1324,
      "Ġlast": 1325,
      "Ġval": 1326,
      "work": 1327,
      "amma": 1328,
      "Ġfact": 1329,
      "../../": 1330,
      "ample": 1331,
      "usiness": 1332,
      "('": 1333,
      "Ġusing": 1334,
      "ared": 1335,
      "Ġfin": 1336,
      "Ġmuch": 1337,
      "AR": 1338,
      "ĠCon": 1339,
      "Ġduring": 1340,
      "att": 1341,
      "Ġfind": 1342,
      "aj": 1343,
      "$\\": 1344,
      "ually": 1345,
      "ness": 1346,
      "htt": 1347,
      "_\\": 1348,
      "mu": 1349,
      "for": 1350,
      "ural": 1351,
      "Con": 1352,
      "ody": 1353,
      "here": 1354,
      "apt": 1355,
      "ense": 1356,
      "24": 1357,
      "ency": 1358,
      "ument": 1359,
      "Com": 1360,
      "html": 1361,
      "Ġhelp": 1362,
      "Ġthink": 1363,
      "Ġself": 1364,
      "=\\": 1365,
      "Ġgood": 1366,
      "Ġdown": 1367,
      "Ġhand": 1368,
      "ality": 1369,
      "ron": 1370,
      "Ġcommun": 1371,
      "ĠIs": 1372,
      "yp": 1373,
      "Ġcontin": 1374,
      "lation": 1375,
      "param": 1376,
      "Ġhere": 1377,
      "Ġinformation": 1378,
      "by": 1379,
      "Ġperform": 1380,
      "igma": 1381,
      "ĠYou": 1382,
      "Name": 1383,
      "bar": 1384,
      "ential": 1385,
      "Ġsecond": 1386,
      "ional": 1387,
      "co": 1388,
      "Ġav": 1389,
      "eter": 1390,
      "ega": 1391,
      "Ġwant": 1392,
      "Ġapp": 1393,
      ".\"": 1394,
      "âĢ¦": 1395,
      "Ġbr": 1396,
      "bers": 1397,
      "trans": 1398,
      "ĠâĢĺ": 1399,
      "Ġreport": 1400,
      "Ġeffect": 1401,
      "rol": 1402,
      "This": 1403,
      "Ġx": 1404,
      "br": 1405,
      "Ġmodel": 1406,
      "OR": 1407,
      "Ġincre": 1408,
      "Ġdon": 1409,
      "}^{": 1410,
      "Ġcar": 1411,
      "name": 1412,
      "Ġteam": 1413,
      "Cont": 1414,
      "Ġ||": 1415,
      "198": 1416,
      "Type": 1417,
      "pi": 1418,
      "Ġgl": 1419,
      "Ġprocess": 1420,
      "self": 1421,
      "mathbb": 1422,
      "ains": 1423,
      "}_{": 1424,
      "Ġmat": 1425,
      "ĠFr": 1426,
      "Ġdirect": 1427,
      "ole": 1428,
      "Ġnon": 1429,
      "Ġlist": 1430,
      "akes": 1431,
      "alse": 1432,
      "heck": 1433,
      "ified": 1434,
      "iver": 1435,
      "ĠâĢĶ": 1436,
      "ission": 1437,
      "bf": 1438,
      "org": 1439,
      "come": 1440,
      "Ġorder": 1441,
      "ccess": 1442,
      "ĠCol": 1443,
      "val": 1444,
      "Ġmem": 1445,
      "ved": 1446,
      "Ġrun": 1447,
      "Ġterm": 1448,
      "Ġgreat": 1449,
      "med": 1450,
      "source": 1451,
      "EN": 1452,
      "Ġsl": 1453,
      "ream": 1454,
      "Ġperson": 1455,
      "Ġhref": 1456,
      "bs": 1457,
      "lear": 1458,
      "Ġwrit": 1459,
      "Ġstill": 1460,
      "ĠIf": 1461,
      "Ġtake": 1462,
      "Ġmark": 1463,
      "AL": 1464,
      "ĠRes": 1465,
      "##": 1466,
      "ault": 1467,
      "import": 1468,
      "String": 1469,
      "yle": 1470,
      "ĠPh": 1471,
      "outh": 1472,
      "Ġimport": 1473,
      "ĠBut": 1474,
      "ĠBl": 1475,
      "section": 1476,
      "ĠComm": 1477,
      "ĠPl": 1478,
      "ane": 1479,
      "ety": 1480,
      "Ġchild": 1481,
      "Ġconsider": 1482,
      "-\\": 1483,
      "itions": 1484,
      "Ġincluding": 1485,
      "Id": 1486,
      "me": 1487,
      "23": 1488,
      "Cl": 1489,
      "ĠRe": 1490,
      "ĠUniversity": 1491,
      "ĠX": 1492,
      "item": 1493,
      "ception": 1494,
      "ina": 1495,
      "Ġrele": 1496,
      "message": 1497,
      "arm": 1498,
      "Ġlife": 1499,
      "ĠSp": 1500,
      "ively": 1501,
      "Res": 1502,
      "Ġcour": 1503,
      "Ġfield": 1504,
      "iqu": 1505,
      "Ġsince": 1506,
      "ott": 1507,
      "Ġprovid": 1508,
      "phi": 1509,
      "return": 1510,
      "Ġmain": 1511,
      "usic": 1512,
      "ven": 1513,
      "ify": 1514,
      "back": 1515,
      "add": 1516,
      "Ġsing": 1517,
      "ister": 1518,
      "Ġaround": 1519,
      "nment": 1520,
      "ability": 1521,
      "aining": 1522,
      "bl": 1523,
      "uthor": 1524,
      "ury": 1525,
      "Ġpat": 1526,
      "Ġgover": 1527,
      "vert": 1528,
      "Ġsmall": 1529,
      "ĠOn": 1530,
      "Ġcurrent": 1531,
      "Ġbook": 1532,
      "irc": 1533,
      "Ġ{\\": 1534,
      "omen": 1535,
      "^{\\": 1536,
      "Ġstat": 1537,
      "Ġmethod": 1538,
      "itle": 1539,
      "Ġvis": 1540,
      "ĠShe": 1541,
      "Ġdesc": 1542,
      "Ġreal": 1543,
      "ĠHow": 1544,
      "):": 1545,
      "Ġpass": 1546,
      "Ġagainst": 1547,
      "Ġpres": 1548,
      "rop": 1549,
      "Ġopen": 1550,
      "Ġsom": 1551,
      "por": 1552,
      "ohn": 1553,
      "2019": 1554,
      "Ġgiven": 1555,
      "illion": 1556,
      "Ġtop": 1557,
      "align": 1558,
      "cur": 1559,
      "ration": 1560,
      "40": 1561,
      "abl": 1562,
      "dd": 1563,
      "arent": 1564,
      "lambda": 1565,
      "Ġbuild": 1566,
      "rivate": 1567,
      "Ġfollowing": 1568,
      "AN": 1569,
      "Ġposs": 1570,
      "less": 1571,
      "not": 1572,
      "var": 1573,
      "td": 1574,
      "ords": 1575,
      "Ġ`": 1576,
      "AS": 1577,
      "ulation": 1578,
      "Ġcare": 1579,
      "Ġins": 1580,
      "Ġsay": 1581,
      "Ġweek": 1582,
      "istory": 1583,
      "Ar": 1584,
      "Ġexpl": 1585,
      "mod": 1586,
      "Ġpop": 1587,
      "Ġschool": 1588,
      "mathbf": 1589,
      "arn": 1590,
      "Ġlaw": 1591,
      "Ġ!": 1592,
      "ger": 1593,
      "acy": 1594,
      "code": 1595,
      "Ġbest": 1596,
      "Ġday": 1597,
      "Ġgroup": 1598,
      "Ġprogram": 1599,
      "ior": 1600,
      "ober": 1601,
      "pre": 1602,
      "ser": 1603,
      "Ġproper": 1604,
      "eps": 1605,
      "ĠMar": 1606,
      "ris": 1607,
      "arget": 1608,
      "vious": 1609,
      "ump": 1610,
      "LE": 1611,
      "Ġallow": 1612,
      "Ġpost": 1613,
      "arge": 1614,
      "To": 1615,
      "Ġtrue": 1616,
      "ploy": 1617,
      "100": 1618,
      "iving": 1619,
      "Ġmust": 1620,
      "etwork": 1621,
      "ĠMay": 1622,
      "Ġpresent": 1623,
      "ĠWh": 1624,
      "be": 1625,
      "ves": 1626,
      "class": 1627,
      "ering": 1628,
      "ĠAll": 1629,
      "gg": 1630,
      "2018": 1631,
      "Ġtra": 1632,
      "Ġpower": 1633,
      "fo": 1634,
      "ĠJan": 1635,
      "type": 1636,
      "enn": 1637,
      "As": 1638,
      "rist": 1639,
      "Ġappe": 1640,
      "ends": 1641,
      "Ġstand": 1642,
      "For": 1643,
      "ength": 1644,
      "lex": 1645,
      "Ġerr": 1646,
      "ived": 1647,
      "Ġiss": 1648,
      "une": 1649,
      "sy": 1650,
      "til": 1651,
      "Ġmov": 1652,
      "ĠUS": 1653,
      "Ġ=>": 1654,
      "uro": 1655,
      "Ġdesign": 1656,
      "Ġtechn": 1657,
      "Ġanal": 1658,
      "Ġexpect": 1659,
      "Ġ>": 1660,
      "Ġ_": 1661,
      "ocial": 1662,
      "Ġlevel": 1663,
      "26": 1664,
      "Ġgame": 1665,
      "Ġ--": 1666,
      "use": 1667,
      "Ġmet": 1668,
      "oss": 1669,
      "ĠLe": 1670,
      "ribut": 1671,
      "ule": 1672,
      "Ġopt": 1673,
      "Ġhead": 1674,
      "oard": 1675,
      "ird": 1676,
      "Tr": 1677,
      "Ġfr": 1678,
      "197": 1679,
      "esc": 1680,
      "âĢĶ": 1681,
      "/>": 1682,
      "ley": 1683,
      "Ġbusiness": 1684,
      "ĠEng": 1685,
      "27": 1686,
      "Ġref": 1687,
      "ĠAmerican": 1688,
      "ache": 1689,
      "ĠOr": 1690,
      "ĠThey": 1691,
      "ilon": 1692,
      "2017": 1693,
      "Ġcond": 1694,
      "Ġdel": 1695,
      "Ġrece": 1696,
      "Ġbre": 1697,
      "By": 1698,
      "Ġcharact": 1699,
      "ording": 1700,
      "ourn": 1701,
      "28": 1702,
      "aving": 1703,
      "Ġlocal": 1704,
      "Ġprof": 1705,
      "Ġz": 1706,
      "Ġfour": 1707,
      "Ġinterest": 1708,
      "Ġfinal": 1709,
      "ctor": 1710,
      "ised": 1711,
      "ately": 1712,
      "sigma": 1713,
      "angle": 1714,
      "Ġproble": 1715,
      "An": 1716,
      "Ġinvest": 1717,
      "Ġprot": 1718,
      "cd": 1719,
      "beta": 1720,
      "raw": 1721,
      "Ġ(\\": 1722,
      "Ġadv": 1723,
      "reen": 1724,
      "Ġplace": 1725,
      "2021": 1726,
      "ries": 1727,
      "60": 1728,
      "Ġdem": 1729,
      "ilde": 1730,
      "ball": 1731,
      "ponse": 1732,
      "Ġann": 1733,
      "ected": 1734,
      "Ġnext": 1735,
      "rad": 1736,
      "uman": 1737,
      "lection": 1738,
      "2016": 1739,
      "ories": 1740,
      "serv": 1741,
      "play": 1742,
      "ffic": 1743,
      "Ġorig": 1744,
      "Ġelse": 1745,
      "roll": 1746,
      "ĠUnited": 1747,
      "ways": 1748,
      "ertain": 1749,
      "Ġpur": 1750,
      "version": 1751,
      "Ġmult": 1752,
      "itive": 1753,
      "IT": 1754,
      "ĠCent": 1755,
      "Ġorgan": 1756,
      "Ġsays": 1757,
      "List": 1758,
      "Ġleg": 1759,
      "Ġwithout": 1760,
      "new": 1761,
      "Ġnull": 1762,
      "umn": 1763,
      "ination": 1764,
      "aces": 1765,
      "\"/>": 1766,
      "array": 1767,
      "Ġ)": 1768,
      "ush": 1769,
      "ailable": 1770,
      "Ġke": 1771,
      "ium": 1772,
      "Ġproject": 1773,
      "ially": 1774,
      "Ġfamily": 1775,
      "Ġcap": 1776,
      "Ġvar": 1777,
      "Ġ==": 1778,
      "Ġhealth": 1779,
      "}{\\": 1780,
      "aim": 1781,
      "Ġhome": 1782,
      "Ġgoing": 1783,
      "Ġparam": 1784,
      "Ġanother": 1785,
      "ope": 1786,
      "Ġdep": 1787,
      "Ġresults": 1788,
      "\\\\": 1789,
      "^{-": 1790,
      "face": 1791,
      "2015": 1792,
      "ently": 1793,
      "conom": 1794,
      "Ġelect": 1795,
      "ĠTo": 1796,
      "pond": 1797,
      "Ġrese": 1798,
      "Ġbeh": 1799,
      "reg": 1800,
      "29": 1801,
      "width": 1802,
      "ĠMan": 1803,
      "Ġvoid": 1804,
      "iron": 1805,
      "ES": 1806,
      "Ġwithin": 1807,
      "ĠJohn": 1808,
      "Ġobject": 1809,
      "ats": 1810,
      "Ġkey": 1811,
      "Ġlim": 1812,
      "Ġsk": 1813,
      "On": 1814,
      "ler": 1815,
      "Ġlet": 1816,
      "comm": 1817,
      "Ġreally": 1818,
      "uck": 1819,
      "ained": 1820,
      "Ġmonth": 1821,
      "Ġexp": 1822,
      "Ġident": 1823,
      "AC": 1824,
      "stand": 1825,
      "icle": 1826,
      "ĠBe": 1827,
      "ateg": 1828,
      "ivid": 1829,
      "Ġbased": 1830,
      "ene": 1831,
      "Ġspe": 1832,
      "Ref": 1833,
      "fe": 1834,
      "inc": 1835,
      "ograph": 1836,
      "Ġfew": 1837,
      "Ġleft": 1838,
      "gamma": 1839,
      "cont": 1840,
      "opt": 1841,
      "figure": 1842,
      "ought": 1843,
      "Ġtri": 1844,
      "uff": 1845,
      "Ġmeas": 1846,
      "Ġsever": 1847,
      "ĠAp": 1848,
      "urther": 1849,
      "umer": 1850,
      "*}": 1851,
      "+\\": 1852,
      "mathrm": 1853,
      "rem": 1854,
      "32": 1855,
      "loc": 1856,
      "Ġevent": 1857,
      "Ã©": 1858,
      "pm": 1859,
      "Ġbro": 1860,
      "agn": 1861,
      "uly": 1862,
      "uary": 1863,
      "translation": 1864,
      "itional": 1865,
      "ilar": 1866,
      "Ġview": 1867,
      "Ġcr": 1868,
      "obal": 1869,
      "ai": 1870,
      "idd": 1871,
      "ĠĠĠĠĠĠĠĠĠĠĠĠĠĠĠĠĠĠĠĠĠĠĠĠĠĠĠĠĠĠĠĠ": 1872,
      "Ġold": 1873,
      "uild": 1874,
      "ĠCan": 1875,
      "ajor": 1876,
      "Ġrepresent": 1877,
      "ĠÂ": 1878,
      "2014": 1879,
      "Ġstruct": 1880,
      "ients": 1881,
      "Ġcalled": 1882,
      "includ": 1883,
      "epend": 1884,
      "Ġintern": 1885,
      "Ġtoo": 1886,
      "Ġhapp": 1887,
      "requ": 1888,
      "Ġgrow": 1889,
      "Ġoffic": 1890,
      "aster": 1891,
      "Ġinit": 1892,
      "ĠAss": 1893,
      "]{": 1894,
      "Ġhtt": 1895,
      "IC": 1896,
      "Ġve": 1897,
      "Ġchang": 1898,
      "load": 1899,
      "ape": 1900,
      "ĠTe": 1901,
      "oad": 1902,
      "Ġfalse": 1903,
      "itor": 1904,
      "time": 1905,
      "ĠCar": 1906,
      "Ġcompany": 1907,
      "^\\": 1908,
      "Ġturn": 1909,
      "icy": 1910,
      "Ġquest": 1911,
      "Ġdi": 1912,
      "ustom": 1913,
      "Ġtem": 1914,
      "ights": 1915,
      "Ġlink": 1916,
      "ended": 1917,
      "Ġgovernment": 1918,
      "ped": 1919,
      "Un": 1920,
      "ention": 1921,
      "ittle": 1922,
      "key": 1923,
      "ror": 1924,
      ")}": 1925,
      "ling": 1926,
      "delta": 1927,
      "Ġlarge": 1928,
      "string": 1929,
      "Ġprivate": 1930,
      "ĠPol": 1931,
      "Ġarg": 1932,
      "Ġknown": 1933,
      "Ġmanag": 1934,
      "ume": 1935,
      "ĠMed": 1936,
      "theta": 1937,
      "Ġet": 1938,
      "rho": 1939,
      "ift": 1940,
      "unc": 1941,
      "www": 1942,
      "Ġocc": 1943,
      "ĠAt": 1944,
      "head": 1945,
      "33": 1946,
      "Ġnear": 1947,
      "date": 1948,
      "Ph": 1949,
      "sec": 1950,
      "ĠThere": 1951,
      "Ġaff": 1952,
      "Ġener": 1953,
      "olution": 1954,
      "Ġchange": 1955,
      "ying": 1956,
      "Ġwin": 1957,
      "iod": 1958,
      "Ġpolit": 1959,
      "hem": 1960,
      "********": 1961,
      "ware": 1962,
      "arrow": 1963,
      "Ġfilm": 1964,
      "action": 1965,
      "ĠOct": 1966,
      "Ġimportant": 1967,
      "Ġrespect": 1968,
      "ocus": 1969,
      "log": 1970,
      "tau": 1971,
      "uk": 1972,
      "Ġless": 1973,
      "Ġproduct": 1974,
      "ED": 1975,
      "Ġavailable": 1976,
      "ĠNo": 1977,
      "ances": 1978,
      "bject": 1979,
      "Ġeng": 1980,
      "imate": 1981,
      "ĠĠĠĠĠĠ": 1982,
      "ources": 1983,
      "Ġspace": 1984,
      "Ġaut": 1985,
      "wit": 1986,
      "Ġstring": 1987,
      "Ġput": 1988,
      "ĠCount": 1989,
      "ava": 1990,
      "Ġseries": 1991,
      "ĠYork": 1992,
      "Ġbig": 1993,
      "posed": 1994,
      "Ġmusic": 1995,
      "ification": 1996,
      "Ġnever": 1997,
      "ĠCO": 1998,
      "duct": 1999,
      "Ġfull": 2000,
      "2013": 2001,
      "Sh": 2002,
      "));": 2003,
      "AM": 2004,
      "$-": 2005,
      "data": 2006,
      "angu": 2007,
      "viron": 2008,
      "ivity": 2009,
      "leq": 2010,
      "Ġdev": 2011,
      "Ġbetter": 2012,
      "\"><": 2013,
      "wards": 2014,
      "Ġconf": 2015,
      "ians": 2016,
      "Ġlater": 2017,
      "----------------": 2018,
      "Ġsuccess": 2019,
      "Ġide": 2020,
      "osp": 2021,
      "aps": 2022,
      "Ġrefer": 2023,
      "ĠStates": 2024,
      "Ġexample": 2025,
      "iter": 2026,
      "uture": 2027,
      "thing": 2028,
      "Ġplan": 2029,
      "order": 2030,
      "ĠAug": 2031,
      "opy": 2032,
      "EC": 2033,
      "Ġalong": 2034,
      "ales": 2035,
      "ĠNational": 2036,
      "ably": 2037,
      "ĠFl": 2038,
      "side": 2039,
      "ĠWorld": 2040,
      "Ġaccess": 2041,
      "ĠPr": 2042,
      "Al": 2043,
      "ators": 2044,
      "ething": 2045,
      "rix": 2046,
      "}$,": 2047,
      "ĠCo": 2048,
      "He": 2049,
      "where": 2050,
      "Ġseason": 2051,
      "ems": 2052,
      "ideo": 2053,
      "Ġmean": 2054,
      "45": 2055,
      "ocument": 2056,
      "ending": 2057,
      "ands": 2058,
      "Ġcountry": 2059,
      "Ġbas": 2060,
      "Ġdescrib": 2061,
      "ising": 2062,
      "Ġparticular": 2063,
      "ival": 2064,
      "Ġmight": 2065,
      "gin": 2066,
      "ĠApr": 2067,
      "aut": 2068,
      "ours": 2069,
      "field": 2070,
      "aper": 2071,
      "ground": 2072,
      "ĠJanuary": 2073,
      "}$.": 2074,
      "times": 2075,
      "....": 2076,
      "IS": 2077,
      "Ġcome": 2078,
      "urope": 2079,
      "2012": 2080,
      "Ġrest": 2081,
      "Ġstory": 2082,
      "ternal": 2083,
      "RO": 2084,
      "ĠChrist": 2085,
      "quad": 2086,
      "go": 2087,
      "Ġarea": 2088,
      "Ġfac": 2089,
      "Ġdue": 2090,
      "}(\\": 2091,
      "Ġmass": 2092,
      "big": 2093,
      "Ġapplic": 2094,
      "Ġalways": 2095,
      "Ġmove": 2096,
      "ĠState": 2097,
      "80": 2098,
      "iction": 2099,
      "Ġfree": 2100,
      "Ġimp": 2101,
      "Col": 2102,
      "Ġret": 2103,
      "eqref": 2104,
      "aff": 2105,
      "Ġservice": 2106,
      "ored": 2107,
      "Data": 2108,
      "Ġask": 2109,
      "ĠSo": 2110,
      "Ġuntil": 2111,
      "Ġeas": 2112,
      "64": 2113,
      "rodu": 2114,
      "isk": 2115,
      "ĠGu": 2116,
      "rite": 2117,
      "ĠMin": 2118,
      "urs": 2119,
      "35": 2120,
      "Ġclos": 2121,
      "ports": 2122,
      "ready": 2123,
      "Ġgeneral": 2124,
      "mp": 2125,
      "leg": 2126,
      "Ġobtain": 2127,
      "Ġstudy": 2128,
      "ĠAust": 2129,
      "Ġ,": 2130,
      "ither": 2131,
      "ica": 2132,
      "ĠEn": 2133,
      "Ġhard": 2134,
      "ples": 2135,
      "CO": 2136,
      "Ġsingle": 2137,
      "alf": 2138,
      "Ġredu": 2139,
      "mbol": 2140,
      "Ġsize": 2141,
      "ows": 2142,
      "Ġmajor": 2143,
      ",\"": 2144,
      "ured": 2145,
      "Ġrad": 2146,
      "Ġenergy": 2147,
      "ribution": 2148,
      "ĠMarch": 2149,
      "value": 2150,
      "ĠSchool": 2151,
      "Ġsit": 2152,
      "Ġseveral": 2153,
      "Ġsum": 2154,
      "Ġprom": 2155,
      "ĠĠĠĠĠĠĠĠĠĠĠĠĠ": 2156,
      "partial": 2157,
      "Value": 2158,
      "eters": 2159,
      "Ġtot": 2160,
      "ison": 2161,
      "Ġcost": 2162,
      "ony": 2163,
      "oin": 2164,
      "Ġpot": 2165,
      "ĠGr": 2166,
      "space": 2167,
      "iam": 2168,
      "Ġthings": 2169,
      "Ġcontrol": 2170,
      "aus": 2171,
      "\");": 2172,
      "],": 2173,
      "Ġchildren": 2174,
      "Ġmillion": 2175,
      "Ġcharacter": 2176,
      "ĠGe": 2177,
      "de": 2178,
      "wh": 2179,
      "Ġnetwork": 2180,
      "iting": 2181,
      "ET": 2182,
      "Ġsocial": 2183,
      "ued": 2184,
      "ension": 2185,
      "mary": 2186,
      "Ġgot": 2187,
      "aint": 2188,
      "Ġinclude": 2189,
      "Ġwomen": 2190,
      "ĠBr": 2191,
      "stit": 2192,
      "atures": 2193,
      "Ġpay": 2194,
      "cer": 2195,
      "ieve": 2196,
      "Ġfund": 2197,
      "Ġabove": 2198,
      "Ġimpro": 2199,
      "Ġshort": 2200,
      "Ġauthor": 2201,
      "Ġhold": 2202,
      "Ġmembers": 2203,
      "no": 2204,
      "Ġsomething": 2205,
      "Ġhig": 2206,
      "ĠThat": 2207,
      "ĠWith": 2208,
      "2011": 2209,
      "Ġcal": 2210,
      "ties": 2211,
      "Ġtyp": 2212,
      "ysis": 2213,
      "ĠEd": 2214,
      "cember": 2215,
      "ĠSup": 2216,
      "ique": 2217,
      "ription": 2218,
      "af": 2219,
      "vironment": 2220,
      "If": 2221,
      "Ġdiscuss": 2222,
      "ĠSept": 2223,
      "Ġdays": 2224,
      "////": 2225,
      "Ġcommunity": 2226,
      "Ġcho": 2227,
      "Ġpossible": 2228,
      "ĠHowever": 2229,
      "Ġtimes": 2230,
      "ovember": 2231,
      "ĠĠĠĠĠĠĠĠĠĠĠĠĠĠĠĠĠĠĠĠĠĠĠ": 2232,
      "Ġrecord": 2233,
      "ides": 2234,
      "idence": 2235,
      "ards": 2236,
      "2010": 2237,
      "oman": 2238,
      "eting": 2239,
      "Ġprovide": 2240,
      "Ġlarg": 2241,
      "ails": 2242,
      "Ġid": 2243,
      "http": 2244,
      "tilde": 2245,
      "Ġfore": 2246,
      "Ġcrit": 2247,
      "Ġ&&": 2248,
      "Ġclear": 2249,
      "Ġpract": 2250,
      "ormal": 2251,
      "Ġearly": 2252,
      "Ġemploy": 2253,
      "Ġacross": 2254,
      "Ind": 2255,
      "Ġla": 2256,
      "Ġresearch": 2257,
      "Set": 2258,
      "ĠAb": 2259,
      "ĠEurope": 2260,
      "Sc": 2261,
      "Ġleast": 2262,
      "ret": 2263,
      "Ġbound": 2264,
      "Ġsimilar": 2265,
      "met": 2266,
      "ĠCity": 2267,
      "aterial": 2268,
      "ĠSouth": 2269,
      "fty": 2270,
      "ĠJune": 2271,
      "off": 2272,
      "nu": 2273,
      "Ġdom": 2274,
      "AP": 2275,
      "Ġtarget": 2276,
      "ividual": 2277,
      "Ġoffer": 2278,
      "Ġcity": 2279,
      "Ġdr": 2280,
      "ession": 2281,
      "ĠCal": 2282,
      "31": 2283,
      "roid": 2284,
      "Ġfri": 2285,
      "Ġlow": 2286,
      "90": 2287,
      "ĠWar": 2288,
      "ental": 2289,
      "Ġfar": 2290,
      "ĠFeb": 2291,
      "empt": 2292,
      "Ġlittle": 2293,
      "sw": 2294,
      "Er": 2295,
      "ĠRep": 2296,
      "ĠCont": 2297,
      "ilit": 2298,
      "Ġprob": 2299,
      "ung": 2300,
      "Ġstrong": 2301,
      "Ġhistory": 2302,
      "ply": 2303,
      "Ġwater": 2304,
      "Ġland": 2305,
      "Ġhuman": 2306,
      "omega": 2307,
      "Im": 2308,
      "rel": 2309,
      "Ġexist": 2310,
      "ĠPart": 2311,
      "ervice": 2312,
      "lege": 2313,
      "dis": 2314,
      "Ġphot": 2315,
      "Ġalready": 2316,
      "ests": 2317,
      "Ġlot": 2318,
      "|\\": 2319,
      "ĠPres": 2320,
      "infty": 2321,
      "https": 2322,
      "ules": 2323,
      "atter": 2324,
      "LL": 2325,
      "ĠApril": 2326,
      "oney": 2327,
      "Ġfeel": 2328,
      "const": 2329,
      "Ġlik": 2330,
      "rict": 2331,
      "\")": 2332,
      "ones": 2333,
      "ĠJuly": 2334,
      "irt": 2335,
      "ĠPar": 2336,
      "Ġ/**": 2337,
      "Ġcover": 2338,
      "Ġassoci": 2339,
      "Ġwar": 2340,
      "iol": 2341,
      "Ġinvol": 2342,
      "Ġprevious": 2343,
      "iles": 2344,
      "xi": 2345,
      "ĠIm": 2346,
      "lement": 2347,
      "Ġdeterm": 2348,
      "Ġeconom": 2349,
      "aken": 2350,
      "Ġvalues": 2351,
      "Ġperiod": 2352,
      "Ġvol": 2353,
      "Re": 2354,
      "Ġable": 2355,
      "ogle": 2356,
      "Ġsignific": 2357,
      "Ġproblem": 2358,
      "Get": 2359,
      "ĠMc": 2360,
      "Ġdeath": 2361,
      "Se": 2362,
      "Ġclaim": 2363,
      "Ġindust": 2364,
      "];": 2365,
      "Ġworking": 2366,
      "Ġ///": 2367,
      "')": 2368,
      "Delta": 2369,
      "Refer": 2370,
      "Ġcomb": 2371,
      "ĠOctober": 2372,
      "Ġobserv": 2373,
      "uration": 2374,
      "ĠWill": 2375,
      "aring": 2376,
      "Ġexpress": 2377,
      "earch": 2378,
      "Ġpubl": 2379,
      "plement": 2380,
      "Ġspecial": 2381,
      "ibr": 2382,
      "Ġtitle": 2383,
      "========": 2384,
      "ĠSeptember": 2385,
      "ĠDecember": 2386,
      "Ġant": 2387,
      "Exception": 2388,
      "eral": 2389,
      "ION": 2390,
      "ĠAugust": 2391,
      "Ġbecome": 2392,
      "ruction": 2393,
      "Ġstatic": 2394,
      "imal": 2395,
      "Ġpast": 2396,
      "Ġside": 2397,
      "istic": 2398,
      "Ġ$(": 2399,
      "ĠNovember": 2400,
      "Ġ%": 2401,
      "position": 2402,
      "size": 2403,
      "ĠBy": 2404,
      "Ġkeep": 2405,
      "Ġaction": 2406,
      "196": 2407,
      "anguage": 2408,
      "see": 2409,
      "($": 2410,
      "Ġamong": 2411,
      "And": 2412,
      "Ġstudents": 2413,
      "Ġcell": 2414,
      "ĠIntern": 2415,
      "Ġfocus": 2416,
      "Ġmaking": 2417,
      "Ġinteg": 2418,
      "eqn": 2419,
      "ered": 2420,
      "ero": 2421,
      "uation": 2422,
      "clus": 2423,
      "Ġbo": 2424,
      "ĠReg": 2425,
      "Ġenc": 2426,
      "respond": 2427,
      "table": 2428,
      "bum": 2429,
      "].": 2430,
      "top": 2431,
      "Ġoften": 2432,
      "Ġfurther": 2433,
      "Ġtoget": 2434,
      "raft": 2435,
      "Ġtogether": 2436,
      "Ġyoung": 2437,
      "book": 2438,
      "Ġcontent": 2439,
      "ches": 2440,
      "lected": 2441,
      "Ġdevelopment": 2442,
      "70": 2443,
      "Ġtext": 2444,
      "Ġsat": 2445,
      "ibility": 2446,
      "Ġcomplet": 2447,
      "Ġfuture": 2448,
      "New": 2449,
      "ĠAg": 2450,
      "Ġgive": 2451,
      "Ġcomput": 2452,
      "sq": 2453,
      "Ġmen": 2454,
      "Ġestabl": 2455,
      "my": 2456,
      "cast": 2457,
      "Ġaccount": 2458,
      "most": 2459,
      "rew": 2460,
      "Ġcheck": 2461,
      "now": 2462,
      "Ġsong": 2463,
      "Ġexperience": 2464,
      "Ġindividual": 2465,
      "ĠCounty": 2466,
      "Ġcult": 2467,
      "Ġreview": 2468,
      "Ġshows": 2469,
      "Object": 2470,
      "Ġpath": 2471,
      "Ġmom": 2472,
      "Ġair": 2473,
      "Ġmeans": 2474,
      "Ġlove": 2475,
      "urch": 2476,
      "With": 2477,
      "util": 2478,
      "ĠNorth": 2479,
      "ĠBrit": 2480,
      "ilt": 2481,
      "sk": 2482,
      "ief": 2483,
      "Ġpotential": 2484,
      "Ġhaving": 2485,
      "ĠHar": 2486,
      "rt": 2487,
      "hold": 2488,
      "Ġlog": 2489,
      "abor": 2490,
      "Ġaway": 2491,
      "Ġunderstand": 2492,
      "lim": 2493,
      "cdot": 2494,
      "Ġfoot": 2495,
      "Mod": 2496,
      "Ġcamp": 2497,
      "amed": 2498,
      "Ġtotal": 2499,
      "nb": 2500,
      "reet": 2501,
      "gress": 2502,
      "script": 2503,
      "pose": 2504,
      "34": 2505,
      "Ġlight": 2506,
      "Ġpred": 2507,
      "ological": 2508,
      "Ġmar": 2509,
      "Ġseen": 2510,
      "ĠMe": 2511,
      "Ġpoints": 2512,
      "36": 2513,
      "DE": 2514,
      "Ġeduc": 2515,
      "hest": 2516,
      "ĠCor": 2517,
      "Ġben": 2518,
      "Ġ!=": 2519,
      "Ġtrad": 2520,
      "Ġtalk": 2521,
      "US": 2522,
      "ĠString": 2523,
      "ogn": 2524,
      "\":": 2525,
      "Ġservices": 2526,
      "Ġaddress": 2527,
      "ke": 2528,
      "Ġrequire": 2529,
      "ĠNews": 2530,
      "ĠĠĊ": 2531,
      "list": 2532,
      "pons": 2533,
      "function": 2534,
      "px": 2535,
      "Ġcases": 2536,
      "igure": 2537,
      "ribute": 2538,
      "01": 2539,
      "sel": 2540,
      "ensure": 2541,
      "ĠOne": 2542,
      "oper": 2543,
      "ada": 2544,
      "ague": 2545,
      "Ġport": 2546,
      "Ġpo": 2547,
      "Ġterms": 2548,
      "Ġwhy": 2549,
      "Ġcreate": 2550,
      "ged": 2551,
      "though": 2552,
      "Ġtreat": 2553,
      "ĠAct": 2554,
      "istor": 2555,
      "emic": 2556,
      "ruary": 2557,
      "ager": 2558,
      "icro": 2559,
      "All": 2560,
      "Ġrange": 2561,
      "uf": 2562,
      "75": 2563,
      "Ġposition": 2564,
      "ĠRev": 2565,
      "Ġsignificant": 2566,
      "Ġpri": 2567,
      "Ġrelations": 2568,
      "Ġversion": 2569,
      "mail": 2570,
      "box": 2571,
      "}[": 2572,
      "file": 2573,
      "irl": 2574,
      "ĠWhen": 2575,
      "Ġkind": 2576,
      "Ġfive": 2577,
      "2009": 2578,
      "cm": 2579,
      "iff": 2580,
      "Ġcertain": 2581,
      "How": 2582,
      "Ġrole": 2583,
      "ij": 2584,
      "Ġperformance": 2585,
      "Ġtook": 2586,
      "Ġwon": 2587,
      "99": 2588,
      "What": 2589,
      "Ġthought": 2590,
      "Ġconc": 2591,
      "Ġthough": 2592,
      "Ġphys": 2593,
      "ables": 2594,
      "sm": 2595,
      "Ġep": 2596,
      "yl": 2597,
      "orem": 2598,
      "cher": 2599,
      "elling": 2600,
      "ino": 2601,
      "Om": 2602,
      "}}\\": 2603,
      "Ġplayers": 2604,
      "ux": 2605,
      "Ġden": 2606,
      "\\,": 2607,
      "Ġcame": 2608,
      "Ġjob": 2609,
      "Ġexc": 2610,
      "test": 2611,
      "ĠAustral": 2612,
      "Ġsection": 2613,
      "Ġdeb": 2614,
      "ana": 2615,
      "Ġfail": 2616,
      "verage": 2617,
      "Ġwhether": 2618,
      "En": 2619,
      "ĠThese": 2620,
      ")$.": 2621,
      "ĠDr": 2622,
      "Par": 2623,
      "ounc": 2624,
      "Wh": 2625,
      "utions": 2626,
      "iple": 2627,
      "ham": 2628,
      "odes": 2629,
      "Ġtoday": 2630,
      "itted": 2631,
      "textbf": 2632,
      "().": 2633,
      "ournal": 2634,
      "asing": 2635,
      "Ġerror": 2636,
      "\".": 2637,
      "Ġoriginal": 2638,
      "Ġblock": 2639,
      "AD": 2640,
      "Ġbreak": 2641,
      "Ġcourse": 2642,
      "unity": 2643,
      "Ġfile": 2644,
      "aul": 2645,
      "sim": 2646,
      "38": 2647,
      "ners": 2648,
      "roups": 2649,
      "urb": 2650,
      "lin": 2651,
      "Ġmot": 2652,
      "lete": 2653,
      "Ġcustom": 2654,
      "Qu": 2655,
      "Ġformer": 2656,
      "ried": 2657,
      "Ġenough": 2658,
      "But": 2659,
      "Ġcou": 2660,
      "ĠGl": 2661,
      "48": 2662,
      "ĠQu": 2663,
      "down": 2664,
      "refore": 2665,
      "oph": 2666,
      "Ġothers": 2667,
      "ude": 2668,
      "ĠWest": 2669,
      "ixed": 2670,
      "Ġmax": 2671,
      "ecess": 2672,
      "Ġorg": 2673,
      "nbsp": 2674,
      "gr": 2675,
      "link": 2676,
      "Ġthrow": 2677,
      "};": 2678,
      "Ġtrack": 2679,
      "Ġintrodu": 2680,
      "Ġsource": 2681,
      "Ġreason": 2682,
      "ĠDep": 2683,
      "location": 2684,
      "$$": 2685,
      "ĠWhat": 2686,
      "39": 2687,
      "Ġcoll": 2688,
      "2008": 2689,
      "ocr": 2690,
      "iber": 2691,
      "Ġbring": 2692,
      "55": 2693,
      "VID": 2694,
      "ills": 2695,
      "ĠBar": 2696,
      "Ġinc": 2697,
      "Ġinfl": 2698,
      "Key": 2699,
      "bsite": 2700,
      "());": 2701,
      "Ġdone": 2702,
      "Ġcorrespond": 2703,
      "Ap": 2704,
      "Ġcommon": 2705,
      "ilities": 2706,
      "ĠAfr": 2707,
      "Ġmedia": 2708,
      "bm": 2709,
      "inary": 2710,
      "ags": 2711,
      "with": 2712,
      "Class": 2713,
      "ĠArt": 2714,
      "hern": 2715,
      "Omega": 2716,
      "Ġtre": 2717,
      "ping": 2718,
      "gl": 2719,
      "ender": 2720,
      "Int": 2721,
      "raphics": 2722,
      "inter": 2723,
      "._": 2724,
      "37": 2725,
      "Ġhouse": 2726,
      "Ġdiff": 2727,
      "oud": 2728,
      "ids": 2729,
      "Ġdidn": 2730,
      "UR": 2731,
      "Ġsuper": 2732,
      "Ġever": 2733,
      "ynam": 2734,
      "mit": 2735,
      "tab": 2736,
      "ĠSer": 2737,
      "Ġeither": 2738,
      "ĠPresident": 2739,
      "ĠFebruary": 2740,
      "Ġthird": 2741,
      "Ġshown": 2742,
      "View": 2743,
      "aced": 2744,
      "nect": 2745,
      "Ġnews": 2746,
      "ĠComp": 2747,
      "lem": 2748,
      "ĠDav": 2749,
      "Error": 2750,
      "Ġsite": 2751,
      "Ġage": 2752,
      "44": 2753,
      "ĠSec": 2754,
      "rc": 2755,
      "gor": 2756,
      "Ġbecame": 2757,
      "imum": 2758,
      "lish": 2759,
      "ze": 2760,
      "ips": 2761,
      "Ġindic": 2762,
      "illed": 2763,
      "ĠGerm": 2764,
      "comp": 2765,
      "}_{\\": 2766,
      "Ġdeg": 2767,
      "Ġdefin": 2768,
      "ĠHouse": 2769,
      "Ġannoun": 2770,
      "ops": 2771,
      "References": 2772,
      "color": 2773,
      "Ġonce": 2774,
      "Ġgen": 2775,
      "OT": 2776,
      "ĠDis": 2777,
      "ING": 2778,
      "epsilon": 2779,
      "Ġstates": 2780,
      "Pl": 2781,
      "Ġmakes": 2782,
      "atus": 2783,
      "Ġmodels": 2784,
      "ĠGo": 2785,
      "Ġes": 2786,
      "irm": 2787,
      "à¤": 2788,
      "Ġalbum": 2789,
      "ĠPer": 2790,
      "point": 2791,
      "sequ": 2792,
      "Ġsugg": 2793,
      "ĠAm": 2794,
      "path": 2795,
      "Ġlive": 2796,
      "psi": 2797,
      "index": 2798,
      "ĠHis": 2799,
      "Ġrisk": 2800,
      "artment": 2801,
      "Ġdou": 2802,
      "Ġmarket": 2803,
      "05": 2804,
      "Ġsix": 2805,
      "aption": 2806,
      "Is": 2807,
      "TR": 2808,
      "ĠMark": 2809,
      "Ġcorre": 2810,
      "Ġproperty": 2811,
      "ecut": 2812,
      "You": 2813,
      "reed": 2814,
      "Ġrequest": 2815,
      "acc": 2816,
      "Ġra": 2817,
      "HE": 2818,
      "Ġattack": 2819,
      "ĠHealth": 2820,
      "IM": 2821,
      "Ġevents": 2822,
      "perty": 2823,
      "based": 2824,
      "Ġrequired": 2825,
      "Ġchall": 2826,
      "ĠPark": 2827,
      "ĠRec": 2828,
      "Test": 2829,
      "Ġbody": 2830,
      "ondon": 2831,
      "cy": 2832,
      "Ġabs": 2833,
      "lease": 2834,
      "Ġmaterial": 2835,
      "SS": 2836,
      "Ġpress": 2837,
      "hel": 2838,
      "Not": 2839,
      "Ġapproach": 2840,
      "Ġnational": 2841,
      "Ġcompet": 2842,
      "umb": 2843,
      "Ġparent": 2844,
      "Ġlearn": 2845,
      "ama": 2846,
      "^*": 2847,
      "ĠAfter": 2848,
      "ĠNot": 2849,
      "Ġthing": 2850,
      "Ġresponse": 2851,
      "atural": 2852,
      "uments": 2853,
      "aged": 2854,
      "Ġwind": 2855,
      "There": 2856,
      "summary": 2857,
      "ĠAmerica": 2858,
      "Ġsent": 2859,
      "Ġrate": 2860,
      "Ġvideo": 2861,
      "eed": 2862,
      "At": 2863,
      "ĠĠĠĠĊ": 2864,
      "Ġcirc": 2865,
      "gorith": 2866,
      "ving": 2867,
      "Ġinf": 2868,
      "yd": 2869,
      "2007": 2870,
      "Or": 2871,
      "Man": 2872,
      "pen": 2873,
      "augh": 2874,
      "UT": 2875,
      "eqnarray": 2876,
      "Ġgames": 2877,
      "ĠEl": 2878,
      "Ġdeal": 2879,
      "Ġactiv": 2880,
      "ĠII": 2881,
      "Ġsystems": 2882,
      "ĠDo": 2883,
      "iation": 2884,
      "Ġtaken": 2885,
      "hib": 2886,
      "Ġsy": 2887,
      "ependent": 2888,
      "Ġbase": 2889,
      "Ġquestion": 2890,
      "Ġregion": 2891,
      "ociety": 2892,
      "year": 2893,
      "na": 2894,
      "Ġglobal": 2895,
      "ks": 2896,
      "Ġsure": 2897,
      "Ġclose": 2898,
      "anies": 2899,
      "Ġbi": 2900,
      "ait": 2901,
      "asc": 2902,
      "ĠSm": 2903,
      "Ġdefined": 2904,
      "Requ": 2905,
      "Ġuser": 2906,
      "bit": 2907,
      "Ġbuilding": 2908,
      "Ġaccording": 2909,
      "Ġneg": 2910,
      "Ġmember": 2911,
      "sqrt": 2912,
      "ald": 2913,
      ")$,": 2914,
      "Ġexpected": 2915,
      "urg": 2916,
      "ĠPe": 2917,
      "omet": 2918,
      "atory": 2919,
      "era": 2920,
      "');": 2921,
      "Ġbegin": 2922,
      "Ġprovided": 2923,
      "Ġhost": 2924,
      "Ġbit": 2925,
      "ĠSystem": 2926,
      "subsection": 2927,
      "Ġanalysis": 2928,
      "Ġyet": 2929,
      "Ġstarted": 2930,
      "ayer": 2931,
      "IG": 2932,
      "ouncil": 2933,
      "Ġdri": 2934,
      "ĠSch": 2935,
      "Ġ?": 2936,
      "ened": 2937,
      "Ġenvironment": 2938,
      "error": 2939,
      "['": 2940,
      "public": 2941,
      "Ġcreat": 2942,
      "minist": 2943,
      "ĠKing": 2944,
      "Ġsound": 2945,
      "''": 2946,
      "ĠMy": 2947,
      "Ġbelow": 2948,
      "pace": 2949,
      "ĠCour": 2950,
      "sl": 2951,
      "ackage": 2952,
      "ington": 2953,
      "Ġrespons": 2954,
      "ulations": 2955,
      ".</": 2956,
      "Ġhigher": 2957,
      "oke": 2958,
      "rest": 2959,
      "ĠStud": 2960,
      "Ġinvestig": 2961,
      "ament": 2962,
      "dom": 2963,
      "Ġtold": 2964,
      "Ġdoesn": 2965,
      "ĠRuss": 2966,
      "Ġmonths": 2967,
      "amples": 2968,
      "eneral": 2969,
      "Ġfeature": 2970,
      "Add": 2971,
      "Ġassert": 2972,
      "Ġhalf": 2973,
      "Ġpercent": 2974,
      "Ġwent": 2975,
      "Ġvarious": 2976,
      "Ġtraining": 2977,
      "caption": 2978,
      "ĠMore": 2979,
      "Ġimage": 2980,
      "2006": 2981,
      "idge": 2982,
      "\";": 2983,
      "Ġrepl": 2984,
      "Ġdest": 2985,
      "andom": 2986,
      "plit": 2987,
      "rec": 2988,
      "irus": 2989,
      "ference": 2990,
      "ĠLaw": 2991,
      "chi": 2992,
      "Ġder": 2993,
      "Ġfeatures": 2994,
      "oe": 2995,
      "Ġstyle": 2996,
      "url": 2997,
      "ched": 2998,
      "Ġnight": 2999,
      "Bl": 3000,
      "Ġmoney": 3001,
      "psilon": 3002,
      "curity": 3003,
      "Ġinput": 3004,
      "Ġcomplex": 3005,
      "Ġcontext": 3006,
      "Ġhowever": 3007,
      "Ġgrad": 3008,
      "195": 3009,
      "ille": 3010,
      "ĠTrump": 3011,
      "irth": 3012,
      "apan": 3013,
      "Ġblack": 3014,
      "pd": 3015,
      "Time": 3016,
      "arning": 3017,
      "ĠChar": 3018,
      "ges": 3019,
      "Gamma": 3020,
      "atform": 3021,
      "Ġsubject": 3022,
      "Ġwords": 3023,
      "49": 3024,
      "Def": 3025,
      "Ġquant": 3026,
      "Ġonline": 3027,
      "Ġreceived": 3028,
      "Ġpaper": 3029,
      "etic": 3030,
      "ĠBro": 3031,
      "body": 3032,
      "Ġprim": 3033,
      "Ġimpact": 3034,
      "group": 3035,
      "ached": 3036,
      "do": 3037,
      "ĉĉĉĉĉ": 3038,
      "Ġvia": 3039,
      "nection": 3040,
      "Ġhom": 3041,
      "Ġworks": 3042,
      "Ġstop": 3043,
      "annel": 3044,
      "Ġviol": 3045,
      "Ġsw": 3046,
      "Ġach": 3047,
      "Ġpolitical": 3048,
      "^{(": 3049,
      "medi": 3050,
      "Ġaddition": 3051,
      "Ġbenef": 3052,
      "Ġ${\\": 3053,
      "Ġaud": 3054,
      "bold": 3055,
      "Ġlower": 3056,
      "Ġcalc": 3057,
      "unch": 3058,
      "Ġtry": 3059,
      "Ġheld": 3060,
      "Ġspect": 3061,
      "08": 3062,
      "aur": 3063,
      "isf": 3064,
      "Ġindustry": 3065,
      "Ġofficial": 3066,
      "ius": 3067,
      "'re": 3068,
      "Ġtax": 3069,
      "Ġcompon": 3070,
      "Ġactually": 3071,
      "(),": 3072,
      "ĠMr": 3073,
      "ĠUK": 3074,
      "07": 3075,
      "File": 3076,
      "ancial": 3077,
      "wide": 3078,
      "ĠLondon": 3079,
      "Ġconditions": 3080,
      "Ġtw": 3081,
      "Ġmiss": 3082,
      "AB": 3083,
      "ĠInt": 3084,
      "rown": 3085,
      "ensity": 3086,
      "Ġmeasure": 3087,
      "non": 3088,
      "max": 3089,
      "ires": 3090,
      "ites": 3091,
      "iddle": 3092,
      "bor": 3093,
      "47": 3094,
      "ceed": 3095,
      "nav": 3096,
      "Ġnecess": 3097,
      "Ġemb": 3098,
      "Over": 3099,
      "vare": 3100,
      "Ġinitial": 3101,
      "SE": 3102,
      "46": 3103,
      "Ġrather": 3104,
      "ĠMich": 3105,
      "Ġopport": 3106,
      "ĠInternational": 3107,
      "State": 3108,
      "Ġalmost": 3109,
      "Ġdocument": 3110,
      "cle": 3111,
      "Ġill": 3112,
      "~~": 3113,
      "refer": 3114,
      "Ġstep": 3115,
      "icles": 3116,
      "Ġstructure": 3117,
      "Ġreported": 3118,
      "sup": 3119,
      "Ġcaus": 3120,
      "ĠHigh": 3121,
      "Ġred": 3122,
      ")(": 3123,
      "ĠAng": 3124,
      "aging": 3125,
      "Ġflo": 3126,
      "Ġparticip": 3127,
      "Ġtell": 3128,
      "Ġmap": 3129,
      "Ġfood": 3130,
      "####": 3131,
      "Ġmor": 3132,
      "Ġpersonal": 3133,
      "js": 3134,
      "ney": 3135,
      "FF": 3136,
      "Ġground": 3137,
      "CC": 3138,
      "Ġfall": 3139,
      "UN": 3140,
      "Ġloss": 3141,
      "\"></": 3142,
      "stance": 3143,
      "Ġdat": 3144,
      "Ġchanges": 3145,
      "ided": 3146,
      "Ġcode": 3147,
      "Ġreleased": 3148,
      "Ġhttps": 3149,
      "Ġproduction": 3150,
      "duc": 3151,
      "Ġpage": 3152,
      "Ġband": 3153,
      "ulated": 3154,
      "ida": 3155,
      "ging": 3156,
      "Ġcomes": 3157,
      "From": 3158,
      "Ġrecent": 3159,
      "LO": 3160,
      "Ġrights": 3161,
      "ishing": 3162,
      "rup": 3163,
      "Ġissues": 3164,
      "rug": 3165,
      "ography": 3166,
      "ael": 3167,
      "igned": 3168,
      "length": 3169,
      "state": 3170,
      "Ġentire": 3171,
      ".)": 3172,
      "pecially": 3173,
      "egraphics": 3174,
      "CH": 3175,
      "includegraphics": 3176,
      "Ġlinks": 3177,
      "Ġexperim": 3178,
      "Ġamount": 3179,
      "ĠCOVID": 3180,
      "ĠThen": 3181,
      "Ġfollows": 3182,
      "Event": 3183,
      "Ġfav": 3184,
      "}=": 3185,
      "Ġaverage": 3186,
      "ises": 3187,
      "Ġmatch": 3188,
      "icult": 3189,
      "Ġpolicy": 3190,
      "ams": 3191,
      "varepsilon": 3192,
      "Ġmoment": 3193,
      "Ġwritten": 3194,
      "oms": 3195,
      "iet": 3196,
      "Ġpatients": 3197,
      "06": 3198,
      "alt": 3199,
      "ford": 3200,
      "Ġ);": 3201,
      "Ġcontinue": 3202,
      "Ġgroups": 3203,
      "node": 3204,
      "Ġlo": 3205,
      "09": 3206,
      "Ġdistribution": 3207,
      "Ġsym": 3208,
      "rightarrow": 3209,
      "Ġ/>": 3210,
      "izing": 3211,
      "ĠčĊ": 3212,
      "ĠTrans": 3213,
      "Ġshall": 3214,
      "anch": 3215,
      "su": 3216,
      "agement": 3217,
      "utes": 3218,
      "ĠFin": 3219,
      "ledge": 3220,
      "']": 3221,
      "Ġtaking": 3222,
      "ounter": 3223,
      "Ġwebsite": 3224,
      "Ġconsidered": 3225,
      "emph": 3226,
      "Ġplayed": 3227,
      "Equ": 3228,
      "Ġface": 3229,
      "Ġsepar": 3230,
      "map": 3231,
      "light": 3232,
      "Ġspecific": 3233,
      "Ġtown": 3234,
      "Ġadded": 3235,
      "Ġneeds": 3236,
      "Ġcut": 3237,
      "ii": 3238,
      "ĠGod": 3239,
      "Ġimplement": 3240,
      "Ġcreated": 3241,
      "mark": 3242,
      "Ġestim": 3243,
      "Ġpublished": 3244,
      "ĠEnglish": 3245,
      "Ġago": 3246,
      "Ġdoing": 3247,
      "from": 3248,
      "igital": 3249,
      "ening": 3250,
      "ĠHer": 3251,
      "ĠCenter": 3252,
      "Ġcompanies": 3253,
      "ees": 3254,
      "Ġincluded": 3255,
      "selves": 3256,
      "Ġstandard": 3257,
      "Ġarch": 3258,
      "ĠIndia": 3259,
      "Ġcross": 3260,
      "symbol": 3261,
      "semb": 3262,
      "Ġsequ": 3263,
      "itte": 3264,
      "aries": 3265,
      "Ġund": 3266,
      "ĠRet": 3267,
      "04": 3268,
      "CT": 3269,
      "De": 3270,
      "ilitary": 3271,
      "ection": 3272,
      "icon": 3273,
      "aign": 3274,
      "nes": 3275,
      "ederal": 3276,
      "/*": 3277,
      "Ġwhole": 3278,
      "Info": 3279,
      "chan": 3280,
      "Ġeffort": 3281,
      "':": 3282,
      ")=": 3283,
      "Ġvisit": 3284,
      "Ġsex": 3285,
      "Ġrecogn": 3286,
      "aker": 3287,
      "Ġ\\,": 3288,
      "oken": 3289,
      "ĠGet": 3290,
      "}^{\\": 3291,
      "Ġelement": 3292,
      "mm": 3293,
      "Ġ/*": 3294,
      "AG": 3295,
      "ENT": 3296,
      "unk": 3297,
      "Ġlikely": 3298,
      "anks": 3299,
      "aly": 3300,
      "Ġcannot": 3301,
      "ĠAir": 3302,
      "lying": 3303,
      "Let": 3304,
      "Ġbegan": 3305,
      "65": 3306,
      "ivil": 3307,
      "hood": 3308,
      "Ġimprove": 3309,
      "Ġtechnology": 3310,
      "attle": 3311,
      "Ġpopulation": 3312,
      "ults": 3313,
      "ĠCollege": 3314,
      "Ġaccept": 3315,
      "ĠBritish": 3316,
      "Ġrelationship": 3317,
      "rangle": 3318,
      "Ġfront": 3319,
      "Ġlooking": 3320,
      "ĠLet": 3321,
      "Ġstar": 3322,
      "ibrary": 3323,
      "Ġtable": 3324,
      "fully": 3325,
      "Ġmer": 3326,
      "Ad": 3327,
      "Ġbecom": 3328,
      "Ġassociated": 3329,
      "ĠDem": 3330,
      "Ġrelated": 3331,
      "aid": 3332,
      "Field": 3333,
      "Text": 3334,
      "When": 3335,
      "ication": 3336,
      "vision": 3337,
      "uel": 3338,
      "xim": 3339,
      "ĠDist": 3340,
      "Ġhttp": 3341,
      "Ġareas": 3342,
      "ese": 3343,
      "ĠBlack": 3344,
      "ĠOff": 3345,
      "Ġbehav": 3346,
      "ĠMon": 3347,
      "No": 3348,
      "ores": 3349,
      "IP": 3350,
      "2000": 3351,
      "Ġcareer": 3352,
      "02": 3353,
      "Ġinstance": 3354,
      "Ġissue": 3355,
      "iforn": 3356,
      "joy": 3357,
      "Form": 3358,
      "Ġappear": 3359,
      "Ġlimit": 3360,
      "ĠDon": 3361,
      "plied": 3362,
      "Ġtask": 3363,
      "ensive": 3364,
      "Ġsens": 3365,
      "Ġcy": 3366,
      "iday": 3367,
      "Ġdescribed": 3368,
      "Ġvot": 3369,
      "Ġseem": 3370,
      "wise": 3371,
      "Ġbar": 3372,
      "ottom": 3373,
      "ican": 3374,
      "Ġmind": 3375,
      "Ġsoft": 3376,
      "mon": 3377,
      "Ġsolution": 3378,
      "BC": 3379,
      "03": 3380,
      ".}": 3381,
      "olean": 3382,
      "Ġprior": 3383,
      "ĠInter": 3384,
      "Ġimm": 3385,
      "ĠChina": 3386,
      "2005": 3387,
      "gen": 3388,
      "ĠAc": 3389,
      "95": 3390,
      "Ġpositive": 3391,
      "=\"../../": 3392,
      "Path": 3393,
      "Ġcourt": 3394,
      "ĠGover": 3395,
      "Ġnode": 3396,
      "ĠJapan": 3397,
      "Ġprofess": 3398,
      "/**": 3399,
      "Ġinternational": 3400,
      "overline": 3401,
      "itting": 3402,
      "nown": 3403,
      "oved": 3404,
      "Ġhours": 3405,
      "Request": 3406,
      "ĠPat": 3407,
      "ĠDepartment": 3408,
      "Ġshare": 3409,
      "ĠMod": 3410,
      "Ġstre": 3411,
      "ĠAssoci": 3412,
      "Ġlength": 3413,
      "SP": 3414,
      "ride": 3415,
      "ĠPhil": 3416,
      "Ġindex": 3417,
      "ĠWilliam": 3418,
      "Ġlanguage": 3419,
      "ifornia": 3420,
      "Ġpresident": 3421,
      "Ġregard": 3422,
      "define": 3423,
      "aves": 3424,
      "ĠSen": 3425,
      "Node": 3426,
      "atives": 3427,
      "Ġarray": 3428,
      "!--": 3429,
      "Ġmatter": 3430,
      "Ġpers": 3431,
      "Ġarticle": 3432,
      "ĠFrom": 3433,
      "elt": 3434,
      "Ġ($": 3435,
      "Ġconsist": 3436,
      "ĠEm": 3437,
      "proof": 3438,
      "style": 3439,
      "Ġbuilt": 3440,
      "Ġdate": 3441,
      "Ġlearning": 3442,
      "nov": 3443,
      "Ġbelieve": 3444,
      "ĠSan": 3445,
      "ĠDes": 3446,
      ".~\\": 3447,
      "astic": 3448,
      "ocal": 3449,
      "Ġincrease": 3450,
      "66": 3451,
      "Ġcolor": 3452,
      "Ġoptions": 3453,
      "Big": 3454,
      "iences": 3455,
      "irtual": 3456,
      "Ġsett": 3457,
      "Ġbackground": 3458,
      "ĠCourt": 3459,
      "hing": 3460,
      "Ġfun": 3461,
      "Ġdefault": 3462,
      "Ġcontact": 3463,
      "Ġlate": 3464,
      "42": 3465,
      "``": 3466,
      "vec": 3467,
      "api": 3468,
      "Ġparameters": 3469,
      "Ġey": 3470,
      "ĠSw": 3471,
      "Ġheart": 3472,
      "Ġengine": 3473,
      "IL": 3474,
      "pri": 3475,
      "geq": 3476,
      "Ġcontract": 3477,
      "anced": 3478,
      "Ġsuggest": 3479,
      "Ġsatisf": 3480,
      "Ġdifficult": 3481,
      "mat": 3482,
      "Ġbehind": 3483,
      "Context": 3484,
      "Map": 3485,
      "Ġdiv": 3486,
      "ĠTV": 3487,
      "Âł": 3488,
      "ĠOf": 3489,
      "oo": 3490,
      "ĠMor": 3491,
      "ospital": 3492,
      "Ġnum": 3493,
      "Ġespecially": 3494,
      "Ġdecl": 3495,
      "ĠVal": 3496,
      "Ġincludes": 3497,
      "Ġ:=": 3498,
      "Ġmessage": 3499,
      "ĠAcc": 3500,
      "oice": 3501,
      "mult": 3502,
      "ĠCons": 3503,
      "Index": 3504,
      "aches": 3505,
      "ĠSim": 3506,
      "Ġassum": 3507,
      "vis": 3508,
      "Ġsearch": 3509,
      "Ġupon": 3510,
      "Ġparty": 3511,
      "airs": 3512,
      "void": 3513,
      "Ġmagn": 3514,
      "Ġfootball": 3515,
      "Ġmethods": 3516,
      "gorithm": 3517,
      "Fr": 3518,
      "Ġinflu": 3519,
      "varphi": 3520,
      "ĠJust": 3521,
      "Ġrelease": 3522,
      "Ġleaders": 3523,
      "Ġfamil": 3524,
      "Ġtakes": 3525,
      "Ġdim": 3526,
      "oon": 3527,
      "Ġprovides": 3528,
      "rench": 3529,
      "Ġnormal": 3530,
      "Ġnov": 3531,
      "Ġfrequ": 3532,
      "ĠFirst": 3533,
      "center": 3534,
      "atest": 3535,
      "Ġconstant": 3536,
      "Ġcountries": 3537,
      "prot": 3538,
      "Config": 3539,
      "Ġinj": 3540,
      "ĠRed": 3541,
      "Of": 3542,
      "ĠArm": 3543,
      "Ġconcern": 3544,
      "ĠDirect": 3545,
      "Ġtheory": 3546,
      "que": 3547,
      "Ġwalk": 3548,
      "Ġadditional": 3549,
      "ĠIN": 3550,
      "Ġattempt": 3551,
      "Ġtravel": 3552,
      "mission": 3553,
      "ship": 3554,
      "ponent": 3555,
      "anel": 3556,
      "())": 3557,
      "Ġ});": 3558,
      "Ġeducation": 3559,
      "Ġinstead": 3560,
      "Ġpopular": 3561,
      "ett": 3562,
      "ui": 3563,
      "Ġge": 3564,
      "aching": 3565,
      "ĠGroup": 3566,
      "acing": 3567,
      "Ġidea": 3568,
      "Ġforward": 3569,
      "Ġgetting": 3570,
      "Ġcomplete": 3571,
      "istry": 3572,
      "maz": 3573,
      "estern": 3574,
      "ĠDavid": 3575,
      "Ġbirth": 3576,
      "Att": 3577,
      "ĠDef": 3578,
      "ĠRepublic": 3579,
      "Ġsense": 3580,
      "atur": 3581,
      "&\\": 3582,
      "boldsymbol": 3583,
      "ĠÐ": 3584,
      "orge": 3585,
      "Ġquick": 3586,
      "Ġdecision": 3587,
      "frak": 3588,
      "Ġstaff": 3589,
      "Ġitself": 3590,
      "Ġcondition": 3591,
      "cial": 3592,
      "Ġwatch": 3593,
      "fort": 3594,
      "Ġver": 3595,
      "Ġpolice": 3596,
      "Ġconfig": 3597,
      "=\"+": 3598,
      "Ġfunctions": 3599,
      "Ġneeded": 3600,
      "abled": 3601,
      "oto": 3602,
      "Ġsimple": 3603,
      "ĠHol": 3604,
      "ae": 3605,
      "like": 3606,
      "ĠIr": 3607,
      "Ġregular": 3608,
      "Ġbroad": 3609,
      "Inter": 3610,
      "Ġroad": 3611,
      "ĠOur": 3612,
      "Ġtemper": 3613,
      "OS": 3614,
      "lor": 3615,
      "pite": 3616,
      "}).": 3617,
      "Ġsecurity": 3618,
      "cale": 3619,
      "user": 3620,
      "true": 3621,
      "but": 3622,
      "Ġbad": 3623,
      "Ġfire": 3624,
      "IR": 3625,
      "Ġwhose": 3626,
      "Ġhon": 3627,
      "Ġ(!": 3628,
      "500": 3629,
      "Ġtele": 3630,
      "ements": 3631,
      "Element": 3632,
      "Ġeval": 3633,
      "plate": 3634,
      "arr": 3635,
      "ĠInstit": 3636,
      "Trans": 3637,
      "fin": 3638,
      "Ġtool": 3639,
      "hline": 3640,
      "Ġenjoy": 3641,
      "Ġang": 3642,
      "avy": 3643,
      "bt": 3644,
      "Ġlabel": 3645,
      "ĠĠĠĠĠĠĠĠĠĠĠĠĠĠĠĠĠĠĠĠĠĠĠĠĠĠĠ": 3646,
      "ĠCalifornia": 3647,
      "word": 3648,
      "ares": 3649,
      "43": 3650,
      "ittee": 3651,
      "Ġhor": 3652,
      "atal": 3653,
      "ster": 3654,
      "ĠStreet": 3655,
      "ĠDay": 3656,
      "Ġwor": 3657,
      "ampions": 3658,
      "ĠNe": 3659,
      "Ġ__": 3660,
      "Ġnatural": 3661,
      "++": 3662,
      "Ġsaf": 3663,
      "Ġquality": 3664,
      "call": 3665,
      "Ġhistor": 3666,
      "Ġproducts": 3667,
      "ĠLa": 3668,
      "77": 3669,
      "Ġcred": 3670,
      "Ġled": 3671,
      "ara": 3672,
      "Ġexact": 3673,
      "Ġevidence": 3674,
      "oring": 3675,
      "fect": 3676,
      "ades": 3677,
      "used": 3678,
      "2004": 3679,
      "Ġmultiple": 3680,
      "inated": 3681,
      "Service": 3682,
      "istics": 3683,
      "ĠBook": 3684,
      "Ġoffice": 3685,
      "rupt": 3686,
      "Ġnamed": 3687,
      "ML": 3688,
      "****************": 3689,
      "oul": 3690,
      "Ġleading": 3691,
      "Ġ},": 3692,
      "MS": 3693,
      "Ġliter": 3694,
      "Ġcoming": 3695,
      "more": 3696,
      "andid": 3697,
      "},\\": 3698,
      "MP": 3699,
      "apache": 3700,
      "Ġmeet": 3701,
      "input": 3702,
      "System": 3703,
      "den": 3704,
      "Ġclub": 3705,
      "Ġdire": 3706,
      "eff": 3707,
      "[\\": 3708,
      "Read": 3709,
      "bre": 3710,
      "TE": 3711,
      "ĠWork": 3712,
      "Ġoutside": 3713,
      "ashington": 3714,
      "Ġmanagement": 3715,
      "ĠEast": 3716,
      "elebr": 3717,
      "Ġwhite": 3718,
      "Ġ...": 3719,
      "Ġobtained": 3720,
      ")^": 3721,
      "Ġprote": 3722,
      "rim": 3723,
      "Ġdeep": 3724,
      "amespace": 3725,
      "Ab": 3726,
      "Ġess": 3727,
      "change": 3728,
      "wood": 3729,
      "Ġansw": 3730,
      "Le": 3731,
      "Ġgraph": 3732,
      "One": 3733,
      "uge": 3734,
      "rong": 3735,
      "Ġcurrently": 3736,
      "ework": 3737,
      "Ġannounced": 3738,
      "41": 3739,
      "acher": 3740,
      "vey": 3741,
      "draw": 3742,
      "ining": 3743,
      "Ġemer": 3744,
      "wid": 3745,
      "MA": 3746,
      "Ġeffects": 3747,
      "Ġfather": 3748,
      "ĠEuropean": 3749,
      "Ġquite": 3750,
      "mar": 3751,
      "under": 3752,
      "Ġsus": 3753,
      "Ġcontinu": 3754,
      "Ġliving": 3755,
      "Ġseems": 3756,
      "rav": 3757,
      "pression": 3758,
      "OD": 3759,
      "itect": 3760,
      "Ser": 3761,
      "ellow": 3762,
      "Ġboard": 3763,
      "ĠCouncil": 3764,
      "Build": 3765,
      "unt": 3766,
      "ha": 3767,
      "ayout": 3768,
      "emy": 3769,
      "che": 3770,
      "Ġelements": 3771,
      "Ġoutput": 3772,
      "Ġful": 3773,
      "Dis": 3774,
      "arter": 3775,
      "Ġunique": 3776,
      "88": 3777,
      "Ġlines": 3778,
      "dt": 3779,
      "Be": 3780,
      "omb": 3781,
      "Ġround": 3782,
      "Reg": 3783,
      "Ġvalid": 3784,
      "OP": 3785,
      "Ġconduct": 3786,
      "object": 3787,
      "ĠFig": 3788,
      "Ġcampaign": 3789,
      "Ġfriend": 3790,
      "Ġapplication": 3791,
      "Ġplayer": 3792,
      "ĠAdd": 3793,
      "Ġproblems": 3794,
      "Ġwriting": 3795,
      "rip": 3796,
      "Ġwrite": 3797,
      "board": 3798,
      "Lambda": 3799,
      "struct": 3800,
      "II": 3801,
      "sf": 3802,
      "Out": 3803,
      "Sp": 3804,
      "ĠResearch": 3805,
      "config": 3806,
      "Ġhope": 3807,
      "Ġlost": 3808,
      "Ġpick": 3809,
      "Ġdetails": 3810,
      "aily": 3811,
      "Ġpredict": 3812,
      "Array": 3813,
      "ĠEar": 3814,
      "rain": 3815,
      "Ġhimself": 3816,
      "Ġdepend": 3817,
      "Ġworked": 3818,
      "ĠList": 3819,
      "ailed": 3820,
      "Ġjud": 3821,
      "Ġanything": 3822,
      "ync": 3823,
      "Ġvict": 3824,
      "Ġdise": 3825,
      "useum": 3826,
      "block": 3827,
      "assert": 3828,
      "quot": 3829,
      "ico": 3830,
      "Ġtreatment": 3831,
      "Ġhot": 3832,
      "ĠIndian": 3833,
      "Ġgrowth": 3834,
      "sing": 3835,
      "Ġasked": 3836,
      "Rec": 3837,
      "plies": 3838,
      "ĠAustralia": 3839,
      "ming": 3840,
      "Ġproperties": 3841,
      "Ġlocated": 3842,
      "title": 3843,
      "actions": 3844,
      "Ġstudies": 3845,
      "Ġreve": 3846,
      "Ġcontribut": 3847,
      "Hand": 3848,
      "ĠPaul": 3849,
      "}}$": 3850,
      "uster": 3851,
      "fficient": 3852,
      "mathfrak": 3853,
      "ech": 3854,
      "Ð°": 3855,
      "Ġcompos": 3856,
      "Ġdisplay": 3857,
      "Ġcomment": 3858,
      "ategory": 3859,
      "Ġnothing": 3860,
      "Ġson": 3861,
      "Ġdemon": 3862,
      "ĠCap": 3863,
      "ĠHam": 3864,
      "rated": 3865,
      "\"\"": 3866,
      "Ġparameter": 3867,
      "Ed": 3868,
      "Size": 3869,
      "print": 3870,
      "rote": 3871,
      "iers": 3872,
      "So": 3873,
      "Code": 3874,
      "Ġdam": 3875,
      "Ġrecently": 3876,
      "cing": 3877,
      "Ġthus": 3878,
      "fil": 3879,
      "Ġsem": 3880,
      "lt": 3881,
      "Ġfem": 3882,
      "ĠCanada": 3883,
      "Ġroom": 3884,
      "Ġdeveloped": 3885,
      "textit": 3886,
      "Ġoccur": 3887,
      "ula": 3888,
      "ĠOut": 3889,
      "ĠSk": 3890,
      "ĠPal": 3891,
      "Ġfight": 3892,
      "Ġproposed": 3893,
      "Ġche": 3894,
      "Ġplatform": 3895,
      "lean": 3896,
      "net": 3897,
      "witter": 3898,
      "Ġsomeone": 3899,
      "lier": 3900,
      "olar": 3901,
      "content": 3902,
      "illing": 3903,
      "rate": 3904,
      "Ġthemselves": 3905,
      "olic": 3906,
      "Ġmulti": 3907,
      "ĠAnt": 3908,
      "85": 3909,
      "md": 3910,
      "verse": 3911,
      "Ġlegal": 3912,
      "Ġmother": 3913,
      "arily": 3914,
      "ĠJames": 3915,
      "External": 3916,
      "[]": 3917,
      "anger": 3918,
      "ĠReview": 3919,
      "cret": 3920,
      "Ġstay": 3921,
      "After": 3922,
      "si": 3923,
      "aven": 3924,
      "icense": 3925,
      "////////": 3926,
      "ĠClass": 3927,
      "Ġfinancial": 3928,
      "Sub": 3929,
      "langle": 3930,
      "asons": 3931,
      "foot": 3932,
      "Ġcentury": 3933,
      "Ġsche": 3934,
      "Ġinvolved": 3935,
      "Ġgirl": 3936,
      "Ð¾": 3937,
      "Ġeffective": 3938,
      "Ġtrying": 3939,
      "het": 3940,
      "ouch": 3941,
      "Val": 3942,
      "Ġeverything": 3943,
      "Ġwanted": 3944,
      "ns": 3945,
      "CE": 3946,
      "Ġsold": 3947,
      "ĠVol": 3948,
      "';": 3949,
      "ĠEngland": 3950,
      "Ġapproxim": 3951,
      "ldots": 3952,
      "Ġsurface": 3953,
      "Ġestablished": 3954,
      "Ġeffic": 3955,
      "Ġrout": 3956,
      "encies": 3957,
      "ny": 3958,
      "IV": 3959,
      "icip": 3960,
      "Ġrunning": 3961,
      "ĠWhile": 3962,
      "Ġrandom": 3963,
      "uffer": 3964,
      "lood": 3965,
      "Ġlevels": 3966,
      "using": 3967,
      "ĠInc": 3968,
      "ĠNow": 3969,
      "Ġdynam": 3970,
      "create": 3971,
      "edd": 3972,
      "hand": 3973,
      "eline": 3974,
      "97": 3975,
      "Ġlonger": 3976,
      "Ġmag": 3977,
      "Ġword": 3978,
      "ota": 3979,
      "Ġchalleng": 3980,
      "ĠUp": 3981,
      "info": 3982,
      "Ġrestr": 3983,
      "ulate": 3984,
      "Ġbooks": 3985,
      "That": 3986,
      "Ġhit": 3987,
      "Ġcompared": 3988,
      "Ġsoon": 3989,
      "Ġrespectively": 3990,
      "init": 3991,
      "Ġmatrix": 3992,
      "Ã¡": 3993,
      "Ġprobably": 3994,
      "enced": 3995,
      "ĠPort": 3996,
      "Fil": 3997,
      "2003": 3998,
      "'m": 3999,
      "ordin": 4000,
      "Ġorigin": 4001,
      "isions": 4002,
      "ĠGeneral": 4003,
      "Ġconstruct": 4004,
      "Ġq": 4005,
      "uate": 4006,
      "lands": 4007,
      "ube": 4008,
      "Ġlives": 4009,
      "ĠPublic": 4010,
      "Ġstage": 4011,
      "rael": 4012,
      "Ġ``": 4013,
      "Ġassist": 4014,
      "acity": 4015,
      "ville": 4016,
      "Ġprinc": 4017,
      "Table": 4018,
      "Ġphase": 4019,
      "Ġsaw": 4020,
      "Ġveh": 4021,
      "Ġtour": 4022,
      "Ġways": 4023,
      "Ġcenter": 4024,
      "Ġthroughout": 4025,
      "cell": 4026,
      "vant": 4027,
      "ĠAP": 4028,
      "ĠWashington": 4029,
      "ocol": 4030,
      "ĠAN": 4031,
      "Phi": 4032,
      "obile": 4033,
      "Ġstatus": 4034,
      "\\%": 4035,
      "lang": 4036,
      "izes": 4037,
      "Ġvert": 4038,
      "Ġforce": 4039,
      "Ġborn": 4040,
      "rought": 4041,
      "rief": 4042,
      "Ġmechan": 4043,
      "Ġagre": 4044,
      "apter": 4045,
      "Ġneigh": 4046,
      "alls": 4047,
      "ervices": 4048,
      "plication": 4049,
      "67": 4050,
      "tes": 4051,
      "Ġsimply": 4052,
      "Ġwoman": 4053,
      "Ġmention": 4054,
      "bo": 4055,
      "agon": 4056,
      "Ġimmedi": 4057,
      "amily": 4058,
      "ĠLeague": 4059,
      "ĠSub": 4060,
      "Ġrat": 4061,
      "ĠTechn": 4062,
      "ken": 4063,
      "circ": 4064,
      "Ġgives": 4065,
      "Ġnumer": 4066,
      "Ass": 4067,
      "Ġflow": 4068,
      "Ġstation": 4069,
      "Ġ===": 4070,
      "Ġgas": 4071,
      "idents": 4072,
      "appa": 4073,
      "Ġisn": 4074,
      "Ġepis": 4075,
      "berg": 4076,
      "ago": 4077,
      "zz": 4078,
      "ĠDi": 4079,
      "ĠSome": 4080,
      "Ġautom": 4081,
      "xy": 4082,
      "Ġmid": 4083,
      "orage": 4084,
      "escription": 4085,
      "raction": 4086,
      "igation": 4087,
      ".\\": 4088,
      "ifier": 4089,
      "ĠRich": 4090,
      "='": 4091,
      "}),": 4092,
      "Ġquestions": 4093,
      "Ġtypes": 4094,
      "PE": 4095,
      "mitted": 4096,
      "ĠSection": 4097,
      "Ġprec": 4098,
      "ĠScience": 4099,
      "Ġmodern": 4100,
      "Ġusers": 4101,
      "ptions": 4102,
      "Ġrock": 4103,
      "parent": 4104,
      "Ġrecomm": 4105,
      "ersion": 4106,
      "eck": 4107,
      "yr": 4108,
      "Ġplaying": 4109,
      "aled": 4110,
      "Ġeconomic": 4111,
      "Ġmilitary": 4112,
      "och": 4113,
      "TD": 4114,
      "Ġknowledge": 4115,
      "Ġscale": 4116,
      "citep": 4117,
      "Ġsuff": 4118,
      "ĠFil": 4119,
      "Ġdemonstr": 4120,
      "Ġrev": 4121,
      "ado": 4122,
      "Ġeveryone": 4123,
      "Ġprint": 4124,
      "'ve": 4125,
      "pty": 4126,
      "ĠRober": 4127,
      "Ġdegree": 4128,
      "ĠPost": 4129,
      "dim": 4130,
      "quare": 4131,
      "icture": 4132,
      "Ðµ": 4133,
      "active": 4134,
      "ĠGreen": 4135,
      "Ġaward": 4136,
      "2001": 4137,
      "which": 4138,
      "Ġfriends": 4139,
      "Message": 4140,
      "Ġdirectly": 4141,
      "ĠFrench": 4142,
      "Ġadminist": 4143,
      "vention": 4144,
      "men": 4145,
      "EE": 4146,
      "ĠEv": 4147,
      "Ġindependent": 4148,
      "Ġpractice": 4149,
      "raz": 4150,
      "Ġpret": 4151,
      "ĠArch": 4152,
      "ĠFound": 4153,
      "Ġ-->": 4154,
      "abla": 4155,
      "Ġste": 4156,
      "Ġexecut": 4157,
      "pecial": 4158,
      "Ġnecessary": 4159,
      "ĠBusiness": 4160,
      "efore": 4161,
      "Ġmovie": 4162,
      "Ġcapt": 4163,
      "lient": 4164,
      "Ġoption": 4165,
      "roller": 4166,
      "Ġcollection": 4167,
      "Ġcopy": 4168,
      "Ġunit": 4169,
      "erc": 4170,
      "band": 4171,
      "witch": 4172,
      "otimes": 4173,
      "Log": 4174,
      "ĠSte": 4175,
      "Ġwrote": 4176,
      "Ġdensity": 4177,
      "roy": 4178,
      "Ġnote": 4179,
      "Ġcontain": 4180,
      "ocation": 4181,
      "ĠYour": 4182,
      "ĠĠĠĠĠĠĠĠĠĠĠĠ": 4183,
      "mbox": 4184,
      "force": 4185,
      "ĠRef": 4186,
      "Ġbox": 4187,
      "Item": 4188,
      "oyal": 4189,
      "2002": 4190,
      "nabla": 4191,
      "Ġdirector": 4192,
      "ULL": 4193,
      "ously": 4194,
      "Ġaccur": 4195,
      "vest": 4196,
      "ned": 4197,
      "Ġeasy": 4198,
      "Ġpain": 4199,
      "Ġmedical": 4200,
      "known": 4201,
      "Ġstream": 4202,
      "ufact": 4203,
      "Ġbeaut": 4204,
      "Ġcharg": 4205,
      "Ġanaly": 4206,
      "default": 4207,
      "ĠDemocr": 4208,
      "ĠWhite": 4209,
      "Ġincreasing": 4210,
      "ĠThom": 4211,
      "Ġdeliver": 4212,
      "atively": 4213,
      "Ġinstall": 4214,
      "Ġthreat": 4215,
      "ĠInstitute": 4216,
      "Call": 4217,
      "Ġjava": 4218,
      "cos": 4219,
      "result": 4220,
      "Ġdifference": 4221,
      "Ġvill": 4222,
      "ĠSince": 4223,
      "ario": 4224,
      "Ġcandid": 4225,
      "ya": 4226,
      "orph": 4227,
      "urity": 4228,
      "Ġcompl": 4229,
      "AA": 4230,
      "small": 4231,
      "Ġdraw": 4232,
      "Ġdrug": 4233,
      "Ġcorresponding": 4234,
      "aling": 4235,
      "OL": 4236,
      "Ġprotect": 4237,
      "Ġinterview": 4238,
      "ĠYear": 4239,
      "Ġphysical": 4240,
      "Ġprogress": 4241,
      "Ġrelig": 4242,
      "Ġtowards": 4243,
      "cor": 4244,
      "Ġparts": 4245,
      "Up": 4246,
      "SC": 4247,
      "Ġmaintain": 4248,
      "Ġscreen": 4249,
      "Count": 4250,
      "ander": 4251,
      "ĠTra": 4252,
      "57": 4253,
      "ĠJack": 4254,
      "Ġdied": 4255,
      "Ġstatement": 4256,
      "Ġlocation": 4257,
      "ĠTest": 4258,
      "rian": 4259,
      "OM": 4260,
      "Ġbasis": 4261,
      "68": 4262,
      "Ġcam": 4263,
      "reate": 4264,
      "Ġlarger": 4265,
      "ĠCong": 4266,
      "Ġspecies": 4267,
      "include": 4268,
      "See": 4269,
      "ĠAre": 4270,
      "ĠAfrica": 4271,
      "start": 4272,
      "level": 4273,
      "ĠService": 4274,
      "Ġadj": 4275,
      "Ġcause": 4276,
      "izations": 4277,
      "Ġproduced": 4278,
      "Ġdriv": 4279,
      "Ġcharacters": 4280,
      "ĉĊ": 4281,
      "erve": 4282,
      "java": 4283,
      "ĠDan": 4284,
      "Ġten": 4285,
      "Ġuses": 4286,
      "ĠMal": 4287,
      "Ġscient": 4288,
      "})$": 4289,
      "Ġgoal": 4290,
      "ĠGL": 4291,
      "build": 4292,
      "Ġanim": 4293,
      "bon": 4294,
      "Ġimages": 4295,
      "Model": 4296,
      "ĠBer": 4297,
      "place": 4298,
      "Ġelection": 4299,
      "pat": 4300,
      "ĠChurch": 4301,
      "Ġnumbers": 4302,
      "Ġweeks": 4303,
      "nected": 4304,
      "Ġemail": 4305,
      "Ġsil": 4306,
      "Ġnature": 4307,
      "ste": 4308,
      "Ġensure": 4309,
      "ĠMart": 4310,
      "Ġcompar": 4311,
      "agram": 4312,
      "Americ": 4313,
      "Ġdesigned": 4314,
      "Post": 4315,
      "Ġrow": 4316,
      "Ġdepart": 4317,
      "Ent": 4318,
      "gt": 4319,
      "ĠDistrict": 4320,
      "Ġinstit": 4321,
      "Ġallowed": 4322,
      "ĠProgram": 4323,
      "irit": 4324,
      "Ġseek": 4325,
      "ston": 4326,
      "ios": 4327,
      "check": 4328,
      "ĠMichael": 4329,
      "Ġweight": 4330,
      "Ġcelebr": 4331,
      "enge": 4332,
      "Ġcontains": 4333,
      "Ġconv": 4334,
      "Ġactive": 4335,
      "ĠSet": 4336,
      "Param": 4337,
      "itude": 4338,
      "exp": 4339,
      "Ġcorrect": 4340,
      "ĠPress": 4341,
      "98": 4342,
      "subset": 4343,
      "ĠMusic": 4344,
      "\\|": 4345,
      "Ġresources": 4346,
      "ĠAnn": 4347,
      "Query": 4348,
      "Ġlack": 4349,
      "Ġdrop": 4350,
      "ĠAssociation": 4351,
      "can": 4352,
      "Ġcollect": 4353,
      "ĠPre": 4354,
      "Ġcentral": 4355,
      "ĠRead": 4356,
      "base": 4357,
      "Ġinsp": 4358,
      "Ġtransfer": 4359,
      "Ġacqu": 4360,
      "Ġlinear": 4361,
      "rial": 4362,
      "itiz": 4363,
      "miss": 4364,
      "Ġload": 4365,
      "Ġtherefore": 4366,
      "Ġ};": 4367,
      "ĠHall": 4368,
      "Ġpresented": 4369,
      "GL": 4370,
      "Ġdevice": 4371,
      "Ġfactor": 4372,
      "Ġminutes": 4373,
      "kappa": 4374,
      "ĠJer": 4375,
      "Ġsurv": 4376,
      "iece": 4377,
      "Ġborder": 4378,
      "model": 4379,
      "Ġfilms": 4380,
      "IF": 4381,
      "Ġculture": 4382,
      "eria": 4383,
      "Ġserved": 4384,
      "Ġwidth": 4385,
      "Ġdistribut": 4386,
      "Ġinside": 4387,
      "igen": 4388,
      "--------------------------------": 4389,
      "ĠSing": 4390,
      "resh": 4391,
      "andemic": 4392,
      "aughter": 4393,
      "Ġconstruction": 4394,
      "Ġaim": 4395,
      "Sigma": 4396,
      "Ġupd": 4397,
      "Ġlimited": 4398,
      "Ġcolumn": 4399,
      "Ġâ": 4400,
      "Ġwond": 4401,
      "ĠEduc": 4402,
      "Ġreading": 4403,
      "valid": 4404,
      "Ġdouble": 4405,
      "ĠCompany": 4406,
      "ĠRiver": 4407,
      "Ġinteresting": 4408,
      "Sup": 4409,
      "ĠDec": 4410,
      "Ġprice": 4411,
      "ĠĠĠĠĠĠĠĠĠĠ": 4412,
      "Ġtransform": 4413,
      "rum": 4414,
      "Ġdistrict": 4415,
      "Ġdead": 4416,
      "Ġschools": 4417,
      "Acc": 4418,
      "Ġunc": 4419,
      "ieved": 4420,
      "Ġdistance": 4421,
      "Ġfields": 4422,
      "ĠParty": 4423,
      "Ġmeeting": 4424,
      "Ġavoid": 4425,
      "ĠBen": 4426,
      "Ġrace": 4427,
      "Ġspeed": 4428,
      "Ġhy": 4429,
      "Ġrules": 4430,
      "Ġmoved": 4431,
      "nonumber": 4432,
      "ampionship": 4433,
      "Ġproof": 4434,
      "ASS": 4435,
      "Ġallows": 4436,
      "ĠÃ": 4437,
      "Ġnovel": 4438,
      "Ġgave": 4439,
      "Ġmach": 4440,
      "CD": 4441,
      "Ġlatest": 4442,
      "Fl": 4443,
      "Ġclosed": 4444,
      "ĠDevelop": 4445,
      "ĠHere": 4446,
      "sych": 4447,
      "ĠMat": 4448,
      "ĠOF": 4449,
      "Ġstories": 4450,
      "ĠAngel": 4451,
      "ĠGreat": 4452,
      "58": 4453,
      "Ġhum": 4454,
      "apping": 4455,
      "pected": 4456,
      "Ġhol": 4457,
      "TH": 4458,
      "Ġobserved": 4459,
      "Ġsets": 4460,
      "Ġconcept": 4461,
      "ensuremath": 4462,
      "Ġmis": 4463,
      "ĠBel": 4464,
      "Ġcapital": 4465,
      "Ð¸": 4466,
      "inese": 4467,
      "acebook": 4468,
      "EL": 4469,
      "exas": 4470,
      "Manager": 4471,
      "ĠLeg": 4472,
      "Ġpurch": 4473,
      "âĢĿ.": 4474,
      "oted": 4475,
      "Bar": 4476,
      "edia": 4477,
      "centering": 4478,
      "CL": 4479,
      "erved": 4480,
      "Ġscience": 4481,
      "Ġattention": 4482,
      "ĠFlor": 4483,
      "ĠIsrael": 4484,
      "Ġlargest": 4485,
      "win": 4486,
      "Ġstru": 4487,
      "Ġchoice": 4488,
      "Ġnil": 4489,
      "clusion": 4490,
      "96": 4491,
      "abase": 4492,
      "Ġscen": 4493,
      "ancy": 4494,
      "ros": 4495,
      "Ġearlier": 4496,
      "iance": 4497,
      "ĠInst": 4498,
      "Ġsaying": 4499,
      "method": 4500,
      "haps": 4501,
      "ĠTHE": 4502,
      "Ġaltern": 4503,
      "EO": 4504,
      "56": 4505,
      "Ġsort": 4506,
      "Ġreference": 4507,
      "Ġusually": 4508,
      "ifying": 4509,
      "cel": 4510,
      "itation": 4511,
      "Ġleave": 4512,
      "Ġincreased": 4513,
      "context": 4514,
      "rang": 4515,
      "ĠData": 4516,
      "isation": 4517,
      "Ġstreng": 4518,
      "Ġfram": 4519,
      "Ġequation": 4520,
      "itar": 4521,
      "Ġvector": 4522,
      "mercial": 4523,
      "Ġqual": 4524,
      "\\[": 4525,
      "Ġpark": 4526,
      "Ġpartners": 4527,
      "Ġperfect": 4528,
      "Ġcritical": 4529,
      "Ġball": 4530,
      "plicit": 4531,
      "ĠDel": 4532,
      "iding": 4533,
      "dots": 4534,
      "Ġfavor": 4535,
      "Ġ()": 4536,
      "cap": 4537,
      "Ġvacc": 4538,
      "FL": 4539,
      "Ġsafety": 4540,
      "Ġstudent": 4541,
      "android": 4542,
      "Ġpack": 4543,
      "ĠMet": 4544,
      "count": 4545,
      "Ġserious": 4546,
      "/\\": 4547,
      "akers": 4548,
      "Ġsolutions": 4549,
      "static": 4550,
      "iring": 4551,
      "han": 4552,
      "iverse": 4553,
      "next": 4554,
      "EX": 4555,
      "sin": 4556,
      "thm": 4557,
      "Ġfast": 4558,
      "Ġbrought": 4559,
      "bra": 4560,
      "Ġassess": 4561,
      "](": 4562,
      "estival": 4563,
      "Ġworth": 4564,
      "google": 4565,
      "Ġalthough": 4566,
      "Pre": 4567,
      "Ġnation": 4568,
      "ĠNov": 4569,
      "ctors": 4570,
      "=\"../../../../": 4571,
      "soft": 4572,
      "sey": 4573,
      "Ġsoftware": 4574,
      "ĠTime": 4575,
      "Ġopportunity": 4576,
      "Ġselect": 4577,
      "NS": 4578,
      "ensions": 4579,
      "PS": 4580,
      "Ġability": 4581,
      "ĠGeorge": 4582,
      "Ġoperation": 4583,
      "Ġdark": 4584,
      "Ġarriv": 4585,
      "Ġsituation": 4586,
      "reme": 4587,
      "59": 4588,
      "Ġremain": 4589,
      "ĠÂ£": 4590,
      "Ġdirection": 4591,
      "run": 4592,
      "\\!": 4593,
      "iful": 4594,
      "My": 4595,
      "ĠBoard": 4596,
      "Ġzero": 4597,
      "Ġvers": 4598,
      "ĠCommission": 4599,
      "idden": 4600,
      "contain": 4601,
      "ĠMag": 4602,
      "ĠBest": 4603,
      "det": 4604,
      "Ġperformed": 4605,
      "Ġtim": 4606,
      "){": 4607,
      "Ġgoes": 4608,
      "la": 4609,
      "}}{": 4610,
      "Ret": 4611,
      "Ġtransport": 4612,
      "ĠOther": 4613,
      "Ġcast": 4614,
      "Ġjoin": 4615,
      "alax": 4616,
      "She": 4617,
      "ĠProf": 4618,
      "lam": 4619,
      "ooth": 4620,
      "Ġplans": 4621,
      "Ġpattern": 4622,
      "ĠSur": 4623,
      "Ġdefine": 4624,
      "ĠRoad": 4625,
      "Ġoffers": 4626,
      "Ġremains": 4627,
      "stream": 4628,
      "Ġactivities": 4629,
      "Ġconnect": 4630,
      "Arg": 4631,
      "option": 4632,
      "rivacy": 4633,
      "Ġsetting": 4634,
      "actory": 4635,
      "Ġexists": 4636,
      "event": 4637,
      "istan": 4638,
      "Ġprofessional": 4639,
      "ĠRel": 4640,
      "Ġsrc": 4641,
      "Ġfair": 4642,
      "Ġreceive": 4643,
      "Ġapply": 4644,
      "Ġregister": 4645,
      "widet": 4646,
      "ĠOb": 4647,
      "antic": 4648,
      "Ġprop": 4649,
      "Ġoperations": 4650,
      "avirus": 4651,
      "dev": 4652,
      "image": 4653,
      "writ": 4654,
      "End": 4655,
      "Ġmeaning": 4656,
      "Ġetc": 4657,
      "Ġsurpr": 4658,
      "ĠFranc": 4659,
      "tem": 4660,
      "ĠSam": 4661,
      "Ġfit": 4662,
      "case": 4663,
      "Ġgets": 4664,
      "Ġfamilies": 4665,
      "Ġparents": 4666,
      "Method": 4667,
      "UL": 4668,
      "Ġexcept": 4669,
      "ĠQue": 4670,
      "argin": 4671,
      "Ġprep": 4672,
      "ĠEr": 4673,
      "ecause": 4674,
      "Ġcivil": 4675,
      "Ġfollowed": 4676,
      "doc": 4677,
      "rey": 4678,
      "Our": 4679,
      "ĠGovernment": 4680,
      "sembly": 4681,
      "ĠGerman": 4682,
      "Ġreturned": 4683,
      "iller": 4684,
      "Color": 4685,
      "Ġprojects": 4686,
      "current": 4687,
      "{-": 4688,
      "Ġdisease": 4689,
      "term": 4690,
      "Ġbank": 4691,
      "ĠSeries": 4692,
      "ronic": 4693,
      "Property": 4694,
      "Ġwrong": 4695,
      "Ġprograms": 4696,
      "ATE": 4697,
      "itch": 4698,
      "Ġfa": 4699,
      "Ġparticularly": 4700,
      "Ġconnection": 4701,
      "ĠGoogle": 4702,
      "core": 4703,
      "urt": 4704,
      "well": 4705,
      "Ġalgorithm": 4706,
      "ĠSund": 4707,
      "Image": 4708,
      "itable": 4709,
      "Ġtemperature": 4710,
      "Ġwife": 4711,
      "UE": 4712,
      "Ġchanged": 4713,
      "?âĢĿ": 4714,
      "Ġhous": 4715,
      "abs": 4716,
      "izer": 4717,
      "born": 4718,
      "TS": 4719,
      "oding": 4720,
      "Ġfixed": 4721,
      "Ġjo": 4722,
      "Ġactivity": 4723,
      "ector": 4724,
      "Ġworkers": 4725,
      "Ġprimary": 4726,
      "........": 4727,
      "Ġmus": 4728,
      "Ġcells": 4729,
      "host": 4730,
      "page": 4731,
      "ĠJew": 4732,
      "ĠFrance": 4733,
      "ĠTom": 4734,
      "Ġdigital": 4735,
      "Ġboy": 4736,
      "Ġequal": 4737,
      "stant": 4738,
      "appro": 4739,
      "ĠAtt": 4740,
      "Ġbuy": 4741,
      "Ġship": 4742,
      "Ġteams": 4743,
      "================": 4744,
      "Ġanyone": 4745,
      "Ġprevent": 4746,
      "Ġresource": 4747,
      "pret": 4748,
      "Ġexpand": 4749,
      "grad": 4750,
      "ĉĉĉĉĉĉ": 4751,
      "onavirus": 4752,
      "widetilde": 4753,
      "!!": 4754,
      "Ġnearly": 4755,
      "isher": 4756,
      "ellig": 4757,
      "Ġbillion": 4758,
      "ria": 4759,
      "pdf": 4760,
      "ĠBre": 4761,
      "ĠOver": 4762,
      "usion": 4763,
      "Ġord": 4764,
      "tabular": 4765,
      "Ġbool": 4766,
      "Ġexam": 4767,
      "outhern": 4768,
      "Ġrob": 4769,
      "ka": 4770,
      "ĠSee": 4771,
      "Ġpretty": 4772,
      "Group": 4773,
      "Response": 4774,
      "Ġbus": 4775,
      "Ġbey": 4776,
      "Ġclient": 4777,
      "ĠCr": 4778,
      "Ġflu": 4779,
      "Ġreli": 4780,
      "Ġdiscover": 4781,
      "Ġpair": 4782,
      "300": 4783,
      "package": 4784,
      "orthern": 4785,
      "Ġbecomes": 4786,
      "gment": 4787,
      "ona": 4788,
      "ĠDiv": 4789,
      "ibly": 4790,
      "func": 4791,
      "Ġbeyond": 4792,
      ">&": 4793,
      "ĠMus": 4794,
      "Ġwasn": 4795,
      "Ġnorth": 4796,
      "Ġtrade": 4797,
      "ĠGold": 4798,
      "Ġsn": 4799,
      "coming": 4800,
      "Ġoptim": 4801,
      "pling": 4802,
      "'ll": 4803,
      "ĠHistory": 4804,
      "Ġcontinued": 4805,
      "aud": 4806,
      "ĠBay": 4807,
      "Client": 4808,
      "Ġcook": 4809,
      "ildren": 4810,
      "Ġsources": 4811,
      "Ġded": 4812,
      "ĠRem": 4813,
      "iant": 4814,
      "Ġnames": 4815,
      "ĠFlorida": 4816,
      "Ġones": 4817,
      "More": 4818,
      "ĠMac": 4819,
      "hi": 4820,
      "edy": 4821,
      "ĠJournal": 4822,
      "Ġbal": 4823,
      "ĠAward": 4824,
      "inition": 4825,
      "Ġfully": 4826,
      "Ġsec": 4827,
      "ulture": 4828,
      "Ġsen": 4829,
      "ĠServices": 4830,
      "Ġnuc": 4831,
      "((": 4832,
      "Ġfinally": 4833,
      "gest": 4834,
      "78": 4835,
      "Ġpandemic": 4836,
      "prime": 4837,
      "room": 4838,
      "Ġupdate": 4839,
      "ĠTexas": 4840,
      "Source": 4841,
      "Ġextra": 4842,
      "Ġstarting": 4843,
      "Ġproced": 4844,
      "dot": 4845,
      "Ġrule": 4846,
      "Ġarchitect": 4847,
      "ĠMont": 4848,
      "Ġexhib": 4849,
      "Ġsuccessful": 4850,
      "Act": 4851,
      "ĠMo": 4852,
      "ki": 4853,
      "1999": 4854,
      "db": 4855,
      "}-": 4856,
      "Ġoperator": 4857,
      "Ġaw": 4858,
      "Ġequival": 4859,
      "css": 4860,
      "ĠOffice": 4861,
      "false": 4862,
      "Ġbeginning": 4863,
      "Ġeight": 4864,
      "ĠLife": 4865,
      "Ġreports": 4866,
      "ĠMary": 4867,
      "ĠâĢ¦": 4868,
      "ithub": 4869,
      "Result": 4870,
      "Ġrespond": 4871,
      "Ġdemand": 4872,
      "Ġrank": 4873,
      "Ġmix": 4874,
      "Ġanti": 4875,
      "Ġprotected": 4876,
      "Ġexpression": 4877,
      "Ã³": 4878,
      "Ġinternal": 4879,
      "long": 4880,
      "pol": 4881,
      "ounds": 4882,
      "ĠSy": 4883,
      "has": 4884,
      "Ġmanufact": 4885,
      "Override": 4886,
      "ĠManagement": 4887,
      "Ġsample": 4888,
      "Ġweb": 4889,
      "First": 4890,
      "Ġcard": 4891,
      "Ġselected": 4892,
      "Ġessential": 4893,
      "RA": 4894,
      "Ġsomet": 4895,
      "ĠDirector": 4896,
      "NA": 4897,
      "Ġbur": 4898,
      "alle": 4899,
      "Pr": 4900,
      "Ġsequence": 4901,
      "FA": 4902,
      "mas": 4903,
      "flo": 4904,
      "Ġbehavior": 4905,
      "nor": 4906,
      "web": 4907,
      "aught": 4908,
      "ĠChristian": 4909,
      "Ġslow": 4910,
      "Ġcommand": 4911,
      "ĠSociety": 4912,
      "Ġcouple": 4913,
      "Ġappropri": 4914,
      "52": 4915,
      "Ġremember": 4916,
      "Comm": 4917,
      "Ġfeed": 4918,
      "Ġhighly": 4919,
      "Ġmicro": 4920,
      "Ġexisting": 4921,
      "51": 4922,
      "ini": 4923,
      "BS": 4924,
      "Ġclin": 4925,
      "olf": 4926,
      "ĠAlex": 4927,
      "Ġrestrict": 4928,
      "bert": 4929,
      "Ġequip": 4930,
      "Ġconsum": 4931,
      "Ġfederal": 4932,
      "ĠEducation": 4933,
      "ancing": 4934,
      "porary": 4935,
      "ĠChinese": 4936,
      "Ġseven": 4937,
      "scale": 4938,
      "Do": 4939,
      "ĠRob": 4940,
      ";&": 4941,
      "Ġjournal": 4942,
      "ĠMem": 4943,
      "ili": 4944,
      "ialog": 4945,
      "Pol": 4946,
      "van": 4947,
      "ĠOpen": 4948,
      "=\"../": 4949,
      "User": 4950,
      "Ġintroduced": 4951,
      "Ġpassed": 4952,
      "urrent": 4953,
      "ĠLou": 4954,
      "American": 4955,
      "ĠPeople": 4956,
      "iform": 4957,
      "anned": 4958,
      "Ġachieve": 4959,
      "Ġreach": 4960,
      "Ġfelt": 4961,
      "Ġappoint": 4962,
      "Ġcatch": 4963,
      "\\]": 4964,
      "Ġir": 4965,
      ")]": 4966,
      "Ġple": 4967,
      "Ġbrother": 4968,
      "Ġedge": 4969,
      "Ġcomponent": 4970,
      "OC": 4971,
      "ensor": 4972,
      "iment": 4973,
      "Next": 4974,
      "Ġstore": 4975,
      "Ġdecided": 4976,
      "Ġapplied": 4977,
      "Ġult": 4978,
      "ĠBank": 4979,
      "ĠEq": 4980,
      "ĠFacebook": 4981,
      "Ġheight": 4982,
      "ias": 4983,
      "=\"#": 4984,
      "ategy": 4985,
      "pg": 4986,
      "ĠIS": 4987,
      "ĠFore": 4988,
      "Ġsociety": 4989,
      "ÑĤ": 4990,
      "Ġplant": 4991,
      "eration": 4992,
      "Ġfans": 4993,
      "gn": 4994,
      "adian": 4995,
      "ĠVir": 4996,
      "Ġimag": 4997,
      "png": 4998,
      "Ġwide": 4999,
      "Ġcontr": 5000,
      "54": 5001,
      "ename": 5002,
      "Ġ&=": 5003,
      "display": 5004,
      "Ġer": 5005,
      "Ġprefer": 5006,
      "Ġpreviously": 5007,
      "ĠCongress": 5008,
      "ĠRock": 5009,
      "53": 5010,
      "Builder": 5011,
      "github": 5012,
      "otype": 5013,
      "BA": 5014,
      "Ġorganization": 5015,
      "Ġcosts": 5016,
      "Ġsupported": 5017,
      "gu": 5018,
      "Ġmemory": 5019,
      "Ġmode": 5020,
      "ĠPM": 5021,
      "ĠSum": 5022,
      "ĠUnion": 5023,
      "PC": 5024,
      "onday": 5025,
      "0000": 5026,
      "}+": 5027,
      "Part": 5028,
      "HT": 5029,
      "Ġturned": 5030,
      "ĠMiss": 5031,
      "Ġplaces": 5032,
      "Ġcollabor": 5033,
      "Ġstri": 5034,
      "Ġsouth": 5035,
      "Ġquickly": 5036,
      "ĠSmith": 5037,
      "Ġspread": 5038,
      "Ġcharge": 5039,
      "Ġrap": 5040,
      "inct": 5041,
      "urance": 5042,
      "Stream": 5043,
      "Ġencour": 5044,
      "Input": 5045,
      "indow": 5046,
      "Ġstars": 5047,
      "Ġgreater": 5048,
      "Ġindividuals": 5049,
      "Ġinform": 5050,
      "ĠCup": 5051,
      "ECT": 5052,
      "76": 5053,
      "ĠProject": 5054,
      "Pe": 5055,
      "Run": 5056,
      "ils": 5057,
      "Ġhop": 5058,
      "Ġitem": 5059,
      "flow": 5060,
      "Ġhands": 5061,
      "Ġgiving": 5062,
      "Ġdefinition": 5063,
      "ĠSal": 5064,
      "Ġholds": 5065,
      "Ġradio": 5066,
      "ĠFe": 5067,
      "flict": 5068,
      "ensional": 5069,
      "arant": 5070,
      "Ġsolid": 5071,
      "ĠAcad": 5072,
      "icine": 5073,
      "Ġcompletely": 5074,
      "zer": 5075,
      "ipp": 5076,
      "Ġmovement": 5077,
      "that": 5078,
      "Ge": 5079,
      "Ġoverall": 5080,
      "Ġri": 5081,
      "ĠGermany": 5082,
      "PR": 5083,
      "zeta": 5084,
      "uthors": 5085,
      "uated": 5086,
      "rd": 5087,
      "Ġgrant": 5088,
      "udget": 5089,
      "Ġplease": 5090,
      "ONT": 5091,
      "ĠTimes": 5092,
      "pc": 5093,
      "ĠSl": 5094,
      "Ġconstit": 5095,
      "Ġcommunities": 5096,
      "DA": 5097,
      "EM": 5098,
      "ĠFriday": 5099,
      "Ġwa": 5100,
      "ĠBill": 5101,
      "overy": 5102,
      "ĠSocial": 5103,
      "Ð½": 5104,
      "Me": 5105,
      "Head": 5106,
      "Ġhar": 5107,
      "86": 5108,
      "ĠRad": 5109,
      "Ġtrust": 5110,
      "ena": 5111,
      "clos": 5112,
      "ĠCommittee": 5113,
      "Ġaffect": 5114,
      "reedom": 5115,
      "Ġpurpose": 5116,
      "enty": 5117,
      "atrix": 5118,
      "Ġtraditional": 5119,
      "Ġproviding": 5120,
      "\\{": 5121,
      "Ġlock": 5122,
      "Ġinnov": 5123,
      "2022": 5124,
      "inding": 5125,
      "prop": 5126,
      "otion": 5127,
      "Ġestablish": 5128,
      "Ġtrain": 5129,
      "Ġmaximum": 5130,
      "Ext": 5131,
      "Ġheard": 5132,
      "ĠRobert": 5133,
      "Ġprem": 5134,
      "Ġspent": 5135,
      "ĠIsland": 5136,
      "ĠBig": 5137,
      "ĠAfrican": 5138,
      "ĠMad": 5139,
      "Ġotherwise": 5140,
      "ĠFoundation": 5141,
      "ĠUnder": 5142,
      "Ġpresence": 5143,
      "ĠUSA": 5144,
      "Ġchem": 5145,
      "iler": 5146,
      "Ġclean": 5147,
      "azine": 5148,
      "Ġchannel": 5149,
      "Ġfigure": 5150,
      "osen": 5151,
      "icated": 5152,
      ";</": 5153,
      "Ġvote": 5154,
      "IA": 5155,
      "ĠJul": 5156,
      "Ġteacher": 5157,
      "Ġdrive": 5158,
      "Ġpressure": 5159,
      "CA": 5160,
      "Ġdoc": 5161,
      "member": 5162,
      "Ġ]": 5163,
      "lections": 5164,
      "Ġapplications": 5165,
      "Ġhospital": 5166,
      "emma": 5167,
      "reek": 5168,
      "Ġgenerated": 5169,
      "Ġpull": 5170,
      "Ġsummer": 5171,
      "Ġtelevision": 5172,
      "uit": 5173,
      "Ġpoor": 5174,
      "ĠMex": 5175,
      "Ġshared": 5176,
      "Ġwindow": 5177,
      ">(": 5178,
      "ednes": 5179,
      "ĠChe": 5180,
      "ĠWil": 5181,
      "Ġleader": 5182,
      "undred": 5183,
      "Util": 5184,
      "ĠMinister": 5185,
      "Ġsometimes": 5186,
      "ĠDevelopment": 5187,
      "ĠMedia": 5188,
      "Ġrepe": 5189,
      "ĠStar": 5190,
      "za": 5191,
      "ĠID": 5192,
      "uns": 5193,
      "Ġmount": 5194,
      "post": 5195,
      "house": 5196,
      "ĠScott": 5197,
      "ÃŃ": 5198,
      "Ġter": 5199,
      "lock": 5200,
      "Ġscene": 5201,
      "1990": 5202,
      "Ġstrategy": 5203,
      "ĠClub": 5204,
      "ĠST": 5205,
      "ĠSunday": 5206,
      "ĠFigure": 5207,
      "ĠThus": 5208,
      "ribe": 5209,
      "stract": 5210,
      "Ġmiddle": 5211,
      "ĠPlan": 5212,
      "Ġbrand": 5213,
      "oday": 5214,
      "otic": 5215,
      "ua": 5216,
      "Gr": 5217,
      "aturday": 5218,
      "omin": 5219,
      "rier": 5220,
      "Ġvs": 5221,
      "ester": 5222,
      "Ġassume": 5223,
      "Ġvoice": 5224,
      "Ġelectric": 5225,
      "Ġtransition": 5226,
      "inner": 5227,
      "Ġtree": 5228,
      "1998": 5229,
      "ĠĠĠĠĠĠĠĠĠĠĠĠĠĠĠĠĠ": 5230,
      "null": 5231,
      "raight": 5232,
      "Date": 5233,
      "Now": 5234,
      "onic": 5235,
      "Ġagreement": 5236,
      "Ġdetermined": 5237,
      "ustain": 5238,
      "Ġign": 5239,
      "eal": 5240,
      "ĠHel": 5241,
      "Ġdecre": 5242,
      "rypt": 5243,
      "aks": 5244,
      "append": 5245,
      "Ġalign": 5246,
      "Mar": 5247,
      "mid": 5248,
      "unities": 5249,
      "Ġsymmet": 5250,
      "ĠMost": 5251,
      ")=\\": 5252,
      "Per": 5253,
      "ĠMer": 5254,
      "Ġdatas": 5255,
      "ĠReturn": 5256,
      "Ġexactly": 5257,
      "Ġrates": 5258,
      "bb": 5259,
      "Ġshowed": 5260,
      "âĢĺ": 5261,
      "Ġsmaller": 5262,
      "Ġsongs": 5263,
      "Ġstd": 5264,
      "Ġentry": 5265,
      "ĠHill": 5266,
      "oma": 5267,
      "Ġrot": 5268,
      "Ġpen": 5269,
      "chers": 5270,
      "related": 5271,
      "Ġeasily": 5272,
      "icol": 5273,
      "ĠTop": 5274,
      "yles": 5275,
      "Ġobjects": 5276,
      "}]": 5277,
      "road": 5278,
      "ano": 5279,
      "Ġactual": 5280,
      "Ġthous": 5281,
      "Ġfirm": 5282,
      "Ġcustomers": 5283,
      "Ġalleg": 5284,
      "}=\\": 5285,
      "Ġcop": 5286,
      "ansion": 5287,
      "ĠCL": 5288,
      "client": 5289,
      "ologies": 5290,
      "Ġunderstanding": 5291,
      "Ġsecret": 5292,
      "bour": 5293,
      "ĠEnd": 5294,
      "search": 5295,
      "{(": 5296,
      "height": 5297,
      "ĠĠĠĠĠĠĠĠĠĠĠĠĠĠĠĠĠĠĠĠĠĠĠĠĠĠĠĠĠĠĠ": 5298,
      "note": 5299,
      "Ġenter": 5300,
      "Ġstrateg": 5301,
      "ĠGood": 5302,
      "ĠKe": 5303,
      "Oper": 5304,
      "ĠNULL": 5305,
      "ĠCentral": 5306,
      "Ġforeign": 5307,
      "ĠMuseum": 5308,
      "skip": 5309,
      "Ġfactors": 5310,
      "Ġhear": 5311,
      "Ġcompleted": 5312,
      "Ġefforts": 5313,
      "Ġcounter": 5314,
      "Ġhighest": 5315,
      "Ġmur": 5316,
      "Ġdram": 5317,
      "iden": 5318,
      "ednesday": 5319,
      "options": 5320,
      "Ġgrowing": 5321,
      "ilton": 5322,
      "ĠBo": 5323,
      "pective": 5324,
      "iny": 5325,
      "first": 5326,
      "Ġillust": 5327,
      "Ġclimate": 5328,
      "undle": 5329,
      "Ġcomponents": 5330,
      "orney": 5331,
      "87": 5332,
      "While": 5333,
      "DF": 5334,
      "Ġlooks": 5335,
      "Ġappears": 5336,
      "care": 5337,
      "Ġrecords": 5338,
      "ructure": 5339,
      "Ġshot": 5340,
      "ĠDet": 5341,
      "Ġknew": 5342,
      "Ġchoose": 5343,
      "ĠAM": 5344,
      "Ġblood": 5345,
      ")}\\": 5346,
      "Ġabsol": 5347,
      "Ġforces": 5348,
      "ether": 5349,
      "Ġforms": 5350,
      "Ġspin": 5351,
      "Ġwild": 5352,
      "namespace": 5353,
      "ĠTheorem": 5354,
      "Ġmoving": 5355,
      "textwidth": 5356,
      "Ġsal": 5357,
      "open": 5358,
      "ĠPolicy": 5359,
      "Ġgreen": 5360,
      "icago": 5361,
      "Ġsales": 5362,
      "Ġgrand": 5363,
      "ds": 5364,
      "ĠPlay": 5365,
      "Can": 5366,
      "php": 5367,
      "spec": 5368,
      "Instance": 5369,
      "Ġargument": 5370,
      ",-": 5371,
      "Action": 5372,
      "Status": 5373,
      "nel": 5374,
      "Ġprobability": 5375,
      "Ġfinite": 5376,
      "ĠFrancis": 5377,
      "89": 5378,
      "Ġvirtual": 5379,
      "Ġkilled": 5380,
      "Ġlif": 5381,
      "udd": 5382,
      "ĠBi": 5383,
      "anda": 5384,
      "Ġmess": 5385,
      "ĠUs": 5386,
      "edge": 5387,
      "âĢĿ,": 5388,
      "Ġchurch": 5389,
      "Ġcarry": 5390,
      "ĠForm": 5391,
      "TY": 5392,
      "Ġimmediately": 5393,
      "UM": 5394,
      "ĠCarol": 5395,
      "Ġnegative": 5396,
      "1997": 5397,
      "Ġprove": 5398,
      "ĠĠĠĠĠĠĠĠĠĠĠĠĠĠ": 5399,
      "NN": 5400,
      "uesday": 5401,
      "Ġsafe": 5402,
      "Ġchance": 5403,
      "Ġanswer": 5404,
      "dir": 5405,
      "ĠAv": 5406,
      "Last": 5407,
      "eds": 5408,
      "Ġoil": 5409,
      "Ġgenerally": 5410,
      "Ġrequires": 5411,
      "][": 5412,
      "Ġvariety": 5413,
      "atre": 5414,
      "Ġopened": 5415,
      "Ġaspect": 5416,
      "ĠRo": 5417,
      "Ġroll": 5418,
      "VER": 5419,
      "ursday": 5420,
      "ĠLos": 5421,
      "ĠSun": 5422,
      "])": 5423,
      "venue": 5424,
      "Ġpm": 5425,
      "Ġtesting": 5426,
      "star": 5427,
      "ĠCamp": 5428,
      "igration": 5429,
      "ĠThomas": 5430,
      "$)": 5431,
      "Ġdomain": 5432,
      "ani": 5433,
      "Ġstock": 5434,
      "weet": 5435,
      "lib": 5436,
      ";\\": 5437,
      "target": 5438,
      "({": 5439,
      "69": 5440,
      "Ġpolic": 5441,
      "Ġformat": 5442,
      "ĠNor": 5443,
      "Ġcitiz": 5444,
      "ÑĢ": 5445,
      "Token": 5446,
      "pp": 5447,
      "Ġproduce": 5448,
      "|-": 5449,
      "icks": 5450,
      "Ġsports": 5451,
      "poses": 5452,
      "Ġepisode": 5453,
      "Ġsend": 5454,
      "ĠCD": 5455,
      "Co": 5456,
      "Ġrelative": 5457,
      "Ġmeasures": 5458,
      "Ġcore": 5459,
      "ĠOper": 5460,
      "leep": 5461,
      "They": 5462,
      "Since": 5463,
      "ĠSuper": 5464,
      "ĠHome": 5465,
      "Pos": 5466,
      "Ġfailed": 5467,
      "Ġlay": 5468,
      "Ġrelevant": 5469,
      "ĠNote": 5470,
      "Ġshoot": 5471,
      "ky": 5472,
      "risis": 5473,
      "Label": 5474,
      "Ġstrugg": 5475,
      "Ġreduce": 5476,
      "Ġtouch": 5477,
      "Ġgold": 5478,
      "abilities": 5479,
      "Line": 5480,
      "Ġconnected": 5481,
      "400": 5482,
      "Ġcomputer": 5483,
      "Ġspecified": 5484,
      "lymp": 5485,
      "Ġclaims": 5486,
      "ĠSu": 5487,
      "Ġfarm": 5488,
      "rive": 5489,
      "ications": 5490,
      "strong": 5491,
      "Ġdetermine": 5492,
      "Ġadapt": 5493,
      "Ġjoined": 5494,
      ".~": 5495,
      "Ġsector": 5496,
      "Ġemployees": 5497,
      "Ġweak": 5498,
      "Ġcru": 5499,
      "ĠAut": 5500,
      "ette": 5501,
      "ĠFrank": 5502,
      "Ġvolume": 5503,
      "Ã¼": 5504,
      "Fig": 5505,
      "Ġcollege": 5506,
      "Ġandroid": 5507,
      "otes": 5508,
      "ĠTor": 5509,
      "Ġalone": 5510,
      "ydro": 5511,
      "anta": 5512,
      "Ġrepresentation": 5513,
      "py": 5514,
      "porate": 5515,
      "Ġcommercial": 5516,
      "ita": 5517,
      "Ġwave": 5518,
      "Ġsigned": 5519,
      "Ġ<<": 5520,
      ")^{": 5521,
      "Top": 5522,
      "Ġlaunc": 5523,
      "LS": 5524,
      "Ġclasses": 5525,
      "arks": 5526,
      "istance": 5527,
      "72": 5528,
      "Ġeconomy": 5529,
      "Ġbasic": 5530,
      "irmed": 5531,
      "rowser": 5532,
      "osh": 5533,
      "Ġboolean": 5534,
      "PA": 5535,
      "1996": 5536,
      "Ġquarter": 5537,
      "ervation": 5538,
      "ypes": 5539,
      "Ġphone": 5540,
      "OW": 5541,
      "Ġactions": 5542,
      "Ġeth": 5543,
      "ĠâĢ¢": 5544,
      "otal": 5545,
      "ocket": 5546,
      "Em": 5547,
      "ĠTwitter": 5548,
      "Ġbusinesses": 5549,
      "}|": 5550,
      "Ġhuge": 5551,
      "Ġopin": 5552,
      "Hel": 5553,
      "Ġcomments": 5554,
      "query": 5555,
      "Start": 5556,
      "Ġquantum": 5557,
      "ĠSecret": 5558,
      "Ġcancer": 5559,
      "Ġeyes": 5560,
      "Ġamb": 5561,
      "Ġyield": 5562,
      "args": 5563,
      "ĠWomen": 5564,
      "Ġartist": 5565,
      "Equal": 5566,
      "char": 5567,
      "bed": 5568,
      "Ġlegis": 5569,
      "Ġconver": 5570,
      "rows": 5571,
      "ĠNetwork": 5572,
      "stein": 5573,
      "pass": 5574,
      "osing": 5575,
      "ĠCare": 5576,
      "Ġbeautiful": 5577,
      "Ġreturns": 5578,
      "orial": 5579,
      "icrosoft": 5580,
      "Don": 5581,
      "atin": 5582,
      "igger": 5583,
      "osis": 5584,
      "inger": 5585,
      "Ġenh": 5586,
      "}^\\": 5587,
      "Ġdespite": 5588,
      "ĠMonday": 5589,
      ")</": 5590,
      "ingu": 5591,
      "63": 5592,
      "duction": 5593,
      "ĠAustralian": 5594,
      "even": 5595,
      "Rep": 5596,
      "ATION": 5597,
      "cup": 5598,
      "Ġpiece": 5599,
      "Ġsymbol": 5600,
      "Null": 5601,
      "ĠWeb": 5602,
      "Ġiniti": 5603,
      "ĠPeter": 5604,
      "PRO": 5605,
      "bur": 5606,
      "Ġfemale": 5607,
      "ĠApp": 5608,
      "Ġready": 5609,
      "CR": 5610,
      "Ġcoordin": 5611,
      "Ġmajority": 5612,
      "93": 5613,
      "Ġupper": 5614,
      "Ġreflect": 5615,
      "Ġslight": 5616,
      "Ġwid": 5617,
      "Ġappeared": 5618,
      "icate": 5619,
      "ĠGen": 5620,
      "Ġitems": 5621,
      "anish": 5622,
      "Block": 5623,
      "ĠOffic": 5624,
      "gebra": 5625,
      "ĠTown": 5626,
      "Ġcapacity": 5627,
      "Ġcaused": 5628,
      "liament": 5629,
      "Ġwonder": 5630,
      "Base": 5631,
      "ĠMount": 5632,
      "indent": 5633,
      "Ġresponsible": 5634,
      "Ġwriter": 5635,
      "ao": 5636,
      "Ġpaid": 5637,
      "CS": 5638,
      "Ġmale": 5639,
      "Ġstraight": 5640,
      "Ġpoll": 5641,
      "cdots": 5642,
      "Ġopening": 5643,
      "ĠTwo": 5644,
      "Ġscore": 5645,
      "Ġaware": 5646,
      "Ġsignal": 5647,
      "App": 5648,
      "ariant": 5649,
      "Off": 5650,
      "ĠRoyal": 5651,
      "Ġaccom": 5652,
      "igr": 5653,
      "fill": 5654,
      "HS": 5655,
      "ĠÎ": 5656,
      "Ġmut": 5657,
      "Ġagree": 5658,
      "Here": 5659,
      "hedul": 5660,
      "Ġnav": 5661,
      "Ġesc": 5662,
      "ĠAlso": 5663,
      "iency": 5664,
      "ĠTur": 5665,
      "61": 5666,
      "ĠUN": 5667,
      "ĠWestern": 5668,
      "Ġmission": 5669,
      "ĠTable": 5670,
      "1995": 5671,
      "ĠVirgin": 5672,
      "Sim": 5673,
      "itors": 5674,
      "omorph": 5675,
      "Ġrecorded": 5676,
      "ĠRE": 5677,
      "IO": 5678,
      "Ġhappen": 5679,
      "Back": 5680,
      "itness": 5681,
      "perties": 5682,
      "ĠInformation": 5683,
      "Ġrelation": 5684,
      "Ġofficials": 5685,
      "ĠEconom": 5686,
      "Ġdescription": 5687,
      "Ġcalls": 5688,
      "Ġblog": 5689,
      "request": 5690,
      "ĠSol": 5691,
      "inder": 5692,
      "Ġtruth": 5693,
      "mathsf": 5694,
      "Ġconsequ": 5695,
      "Ġshape": 5696,
      "Ġhyp": 5697,
      "cho": 5698,
      "ĠRichard": 5699,
      "Ġsteps": 5700,
      "ributes": 5701,
      "Ġreached": 5702,
      "Ġdaughter": 5703,
      "inem": 5704,
      "Ġsurround": 5705,
      "inn": 5706,
      "Ġobvious": 5707,
      "Ġsites": 5708,
      "ĠEven": 5709,
      "}_\\": 5710,
      "Ġhundred": 5711,
      "itz": 5712,
      "{{\\": 5713,
      "Ġanc": 5714,
      "ala": 5715,
      "Ġbeg": 5716,
      "rl": 5717,
      "write": 5718,
      "Ġmorning": 5719,
      "Ġconcent": 5720,
      "Ġartists": 5721,
      "Ġbill": 5722,
      "ĠDuring": 5723,
      "ĠVict": 5724,
      "<!--": 5725,
      "pack": 5726,
      "DS": 5727,
      "Ġselection": 5728,
      "widehat": 5729,
      "Ġunits": 5730,
      "Link": 5731,
      "gener": 5732,
      "Ġ->": 5733,
      "62": 5734,
      "icket": 5735,
      "ĠAngeles": 5736,
      "ourney": 5737,
      "Ġinfluence": 5738,
      "opyright": 5739,
      "Ġgeneration": 5740,
      "Ġfine": 5741,
      "Ġwants": 5742,
      "Ġacad": 5743,
      "Ġnone": 5744,
      "94": 5745,
      "Ġblue": 5746,
      "Ġevolution": 5747,
      "Ġappropriate": 5748,
      "Ġuseful": 5749,
      "ĠArts": 5750,
      "Ġannual": 5751,
      ".[": 5752,
      "igan": 5753,
      "Ġhappened": 5754,
      "Ġfix": 5755,
      "ouble": 5756,
      "qquad": 5757,
      "ĠStat": 5758,
      "ĠKore": 5759,
      "rees": 5760,
      "Ġidentified": 5761,
      "Content": 5762,
      "Ġsch": 5763,
      "ĠHen": 5764,
      "asy": 5765,
      "Ġpartner": 5766,
      "burg": 5767,
      "oration": 5768,
      "Ġextrem": 5769,
      "Psi": 5770,
      "ongs": 5771,
      "Point": 5772,
      "ĠEarth": 5773,
      "Ġidentity": 5774,
      "bound": 5775,
      "Comp": 5776,
      "indows": 5777,
      "Gener": 5778,
      "Ġmechanism": 5779,
      "owers": 5780,
      "Ġconclud": 5781,
      "ĠSaturday": 5782,
      "adata": 5783,
      "century": 5784,
      "ĠĠĠĠĠĠĠĠĊ": 5785,
      "Ñģ": 5786,
      "eger": 5787,
      "ĠCath": 5788,
      "Ġfilter": 5789,
      "Ġ+=": 5790,
      "ĠBrown": 5791,
      "Ġadvant": 5792,
      "PL": 5793,
      "Options": 5794,
      "ĠJose": 5795,
      "ĠStep": 5796,
      "Ġtrial": 5797,
      "Ġ\\{": 5798,
      "main": 5799,
      "Ġparties": 5800,
      "atically": 5801,
      "Function": 5802,
      "Attribute": 5803,
      "Ġwat": 5804,
      "Char": 5805,
      "onom": 5806,
      "tx": 5807,
      "(-": 5808,
      "ĠRussian": 5809,
      "car": 5810,
      "ĠHot": 5811,
      "Ġfig": 5812,
      "AME": 5813,
      "ĠBuild": 5814,
      "ifically": 5815,
      "nce": 5816,
      "rolled": 5817,
      "lemma": 5818,
      "ba": 5819,
      "iques": 5820,
      "TER": 5821,
      "ĠPo": 5822,
      "Ġinvestment": 5823,
      "apers": 5824,
      "Ġstrength": 5825,
      "Ġnotice": 5826,
      "ĠGrand": 5827,
      "Check": 5828,
      "Ġutil": 5829,
      "Ġserve": 5830,
      "Ġfear": 5831,
      "ĠLand": 5832,
      "Ġideas": 5833,
      "Ġletter": 5834,
      "Ġdaily": 5835,
      "Ġkids": 5836,
      "local": 5837,
      "Cell": 5838,
      "last": 5839,
      "free": 5840,
      "ĠMel": 5841,
      "vider": 5842,
      "1980": 5843,
      ")-": 5844,
      "Ġmaterials": 5845,
      "Ġtransl": 5846,
      "Ġreduced": 5847,
      "92": 5848,
      "Cons": 5849,
      "while": 5850,
      "ĠLong": 5851,
      "select": 5852,
      "Ġhelped": 5853,
      "Ġbrief": 5854,
      "standing": 5855,
      "Ġreasons": 5856,
      "ĠWednesday": 5857,
      "ĠProfess": 5858,
      "Ġframe": 5859,
      "Ġclearly": 5860,
      "Ġmodule": 5861,
      "*/": 5862,
      "Ġneighbor": 5863,
      "ĠRussia": 5864,
      "Ġspirit": 5865,
      "gency": 5866,
      "olec": 5867,
      "ategories": 5868,
      "ĠObject": 5869,
      "ĠShow": 5870,
      "})\\": 5871,
      "REF": 5872,
      "Ġruns": 5873,
      "ĠArmy": 5874,
      "Ġthrows": 5875,
      "ĠAccording": 5876,
      "azz": 5877,
      "Ġcreating": 5878,
      "Ġsave": 5879,
      "eloc": 5880,
      "olve": 5881,
      "ĠEvery": 5882,
      "Ġlayer": 5883,
      "ĠEngine": 5884,
      "element": 5885,
      "Ġoccup": 5886,
      "module": 5887,
      "ĠJud": 5888,
      "Ġdebut": 5889,
      "Ġregions": 5890,
      "mazon": 5891,
      "Ġlaunch": 5892,
      "Ġnoted": 5893,
      "91": 5894,
      "allel": 5895,
      "Ġvillage": 5896,
      "ĠMass": 5897,
      "Ġminor": 5898,
      "hab": 5899,
      "Ġprocesses": 5900,
      "Ġmentioned": 5901,
      "riend": 5902,
      "Ġsell": 5903,
      "Ġpanel": 5904,
      "ĠChampionship": 5905,
      "Ġowners": 5906,
      "finished": 5907,
      "Handler": 5908,
      "Ġstated": 5909,
      "Ġ\"\"\"": 5910,
      "icens": 5911,
      "Sec": 5912,
      "Ġexception": 5913,
      "Ġcool": 5914,
      "Ġchallenge": 5915,
      "ĠWeek": 5916,
      "aming": 5917,
      "riage": 5918,
      "ĠSil": 5919,
      "ĠChicago": 5920,
      "Ġmaster": 5921,
      "ĠRoman": 5922,
      "Ġmanager": 5923,
      "resents": 5924,
      "Ġcontinues": 5925,
      "iled": 5926,
      "anged": 5927,
      "Ġfiles": 5928,
      "73": 5929,
      "GB": 5930,
      "Ġbenefits": 5931,
      "ĠHuman": 5932,
      "Ġleads": 5933,
      "Ġserver": 5934,
      "Ġshift": 5935,
      "Ġ;": 5936,
      "ĠTherefore": 5937,
      "header": 5938,
      "SU": 5939,
      "arp": 5940,
      "going": 5941,
      "ĠBur": 5942,
      "Ġinterpret": 5943,
      "ashion": 5944,
      "ĠWell": 5945,
      "aby": 5946,
      "equiv": 5947,
      "Ġmill": 5948,
      "Ġincome": 5949,
      "Ġthinking": 5950,
      "71": 5951,
      "ĠTim": 5952,
      "dl": 5953,
      "Ġinterested": 5954,
      "Ġrac": 5955,
      "ĠOh": 5956,
      "adding": 5957,
      "Ġframework": 5958,
      "84": 5959,
      "nergy": 5960,
      "Ġcommit": 5961,
      "Ġbul": 5962,
      "iar": 5963,
      "ĠSpe": 5964,
      "ĠOp": 5965,
      "Home": 5966,
      "ĠFund": 5967,
      "ĠLog": 5968,
      "Ġinstr": 5969,
      "Ġgalax": 5970,
      "Ġvisual": 5971,
      "Ġdiscussion": 5972,
      "Ġcorn": 5973,
      "riev": 5974,
      "SA": 5975,
      "Vert": 5976,
      "Nav": 5977,
      "Ġwel": 5978,
      "iate": 5979,
      "Ġneut": 5980,
      "olved": 5981,
      "Ġpowerful": 5982,
      "jav": 5983,
      "Ġincor": 5984,
      "Ġharm": 5985,
      "only": 5986,
      "ĠPet": 5987,
      "Ġtit": 5988,
      "Ġminimum": 5989,
      "esh": 5990,
      "Ġvictim": 5991,
      "CP": 5992,
      "alian": 5993,
      "ĠLead": 5994,
      "reland": 5995,
      "ugin": 5996,
      "Ġdescribe": 5997,
      "82": 5998,
      "Web": 5999,
      "ĠIns": 6000,
      "Ġlooked": 6001,
      "Ġsignificantly": 6002,
      "real": 6003,
      "ĠCommunity": 6004,
      "Ġstress": 6005,
      "Ġshop": 6006,
      "}\\,": 6007,
      "Ġnorm": 6008,
      "fit": 6009,
      "Ġrequirements": 6010,
      "lig": 6011,
      "Ġheavy": 6012,
      "Ġcert": 6013,
      "Ġpeace": 6014,
      "}}(": 6015,
      "Ġpatient": 6016,
      "cit": 6017,
      "agger": 6018,
      "ashed": 6019,
      "Ġboundary": 6020,
      "Ġconflict": 6021,
      "ishes": 6022,
      "normal": 6023,
      "Resource": 6024,
      "Ġremove": 6025,
      "Ġorganizations": 6026,
      "Ġsusp": 6027,
      "Ġrecommend": 6028,
      "Ġuns": 6029,
      "alysis": 6030,
      "clusive": 6031,
      "yan": 6032,
      "dat": 6033,
      "Ġ~": 6034,
      "ĠTechnology": 6035,
      "Ġmotion": 6036,
      "ĠDen": 6037,
      "Ġsexual": 6038,
      "illa": 6039,
      "Component": 6040,
      "83": 6041,
      "Buffer": 6042,
      "Go": 6043,
      "Ġdog": 6044,
      "Ġvariables": 6045,
      "Ġarrest": 6046,
      "ĠTuesday": 6047,
      "ĠLouis": 6048,
      "bottom": 6049,
      "Ġmarried": 6050,
      "Ġplaced": 6051,
      "Ġcloud": 6052,
      "ĠThursday": 6053,
      "ĠCanadian": 6054,
      "server": 6055,
      "^+": 6056,
      "ĠJoe": 6057,
      "ady": 6058,
      "crete": 6059,
      "ĠGlobal": 6060,
      "amm": 6061,
      "Ġuncertain": 6062,
      "sg": 6063,
      "ien": 6064,
      "'d": 6065,
      "Ġeventually": 6066,
      "ĠAlthough": 6067,
      "Ġeditor": 6068,
      "Ġoffered": 6069,
      "Aut": 6070,
      "uty": 6071,
      "aa": 6072,
      "Ġratio": 6073,
      "However": 6074,
      "Ġextends": 6075,
      "ĠLove": 6076,
      "Ġscheme": 6077,
      "Ġreality": 6078,
      "Ġax": 6079,
      "Ġfunding": 6080,
      "Ġadministration": 6081,
      "Ġresear": 6082,
      "Rel": 6083,
      "cles": 6084,
      "Ġinterface": 6085,
      "Ġformed": 6086,
      "Ġdream": 6087,
      "Ġresulting": 6088,
      "rence": 6089,
      "These": 6090,
      "Ġchallenges": 6091,
      "Ġadopt": 6092,
      "hent": 6093,
      "hy": 6094,
      "}^{(": 6095,
      "ĠMur": 6096,
      "Ġskills": 6097,
      "Ġperhaps": 6098,
      "ĠReport": 6099,
      "Ġauto": 6100,
      "Ġrare": 6101,
      "ĠPower": 6102,
      "acement": 6103,
      "Ġtherap": 6104,
      "orter": 6105,
      "Ġbenefit": 6106,
      "&=": 6107,
      "81": 6108,
      "Ġpush": 6109,
      "Met": 6110,
      "1994": 6111,
      "elligence": 6112,
      "Ġdeaths": 6113,
      "Ġut": 6114,
      "Ġplanning": 6115,
      "Ġguid": 6116,
      "ĠAtl": 6117,
      "Ġtal": 6118,
      "Ġidentify": 6119,
      "Ġrail": 6120,
      "break": 6121,
      "Ġwhom": 6122,
      "Te": 6123,
      "TO": 6124,
      "ĠJapanese": 6125,
      "Ġconvers": 6126,
      "Ġque": 6127,
      "bi": 6128,
      "SI": 6129,
      "Ġvehicle": 6130,
      "ĠTre": 6131,
      "Ġauthors": 6132,
      "usband": 6133,
      "########": 6134,
      "ĠDev": 6135,
      "EW": 6136,
      "button": 6137,
      "Rem": 6138,
      "Ġlaws": 6139,
      "ĠCam": 6140,
      "Ġsufficient": 6141,
      "asure": 6142,
      "Page": 6143,
      "Ġ$(\\": 6144,
      "ĠNone": 6145,
      "po": 6146,
      "74": 6147,
      "tings": 6148,
      "ensus": 6149,
      "cr": 6150,
      "ĠBu": 6151,
      "Ġproceed": 6152,
      "Ġtests": 6153,
      "Ġtools": 6154,
      "Ã¶": 6155,
      "jection": 6156,
      "ĠOlymp": 6157,
      "Ġvan": 6158,
      "status": 6159,
      "79": 6160,
      "Ġbuff": 6161,
      "Ġvariable": 6162,
      "Ġrise": 6163,
      "cript": 6164,
      "Ġsubsequ": 6165,
      "ptr": 6166,
      "Ġsupply": 6167,
      "Ġregarding": 6168,
      "Ġdiscussed": 6169,
      "ĠChief": 6170,
      "estic": 6171,
      "MM": 6172,
      "di": 6173,
      "Ġmissing": 6174,
      "Ġprison": 6175,
      "Ġviolence": 6176,
      "Ġraised": 6177,
      "ĠEp": 6178,
      "ĠSecurity": 6179,
      "Ġcompetition": 6180,
      "Ġsession": 6181,
      "rics": 6182,
      "Ġcat": 6183,
      "ĠHead": 6184,
      "Ġ((": 6185,
      "Then": 6186,
      "TP": 6187,
      "ĠArab": 6188,
      "expected": 6189,
      "Ġextended": 6190,
      "Ġcredit": 6191,
      "ĠIll": 6192,
      "Ġbottom": 6193,
      "Number": 6194,
      "Us": 6195,
      "property": 6196,
      "}:": 6197,
      "Tag": 6198,
      "uke": 6199,
      "hspace": 6200,
      "ĠGeorg": 6201,
      "Ġtoward": 6202,
      "Ġexec": 6203,
      "}\\\\": 6204,
      "TV": 6205,
      "power": 6206,
      "Ġkm": 6207,
      "len": 6208,
      "Ġseparate": 6209,
      "Task": 6210,
      "Ġahead": 6211,
      "Ġ&\\": 6212,
      "Ġtrend": 6213,
      "ĠDivision": 6214,
      "erman": 6215,
      "Ġolder": 6216,
      "Ġtried": 6217,
      "ĠSecond": 6218,
      "ĠPri": 6219,
      "True": 6220,
      "Ġequivalent": 6221,
      "ĠFree": 6222,
      "process": 6223,
      "json": 6224,
      "split": 6225,
      "Ġjoint": 6226,
      "Ġmachine": 6227,
      "Ġexamples": 6228,
      "Ġnetworks": 6229,
      "Ð¾Ð": 6230,
      "Ġdevices": 6231,
      "Ġattract": 6232,
      "opl": 6233,
      "Ġpsych": 6234,
      "iced": 6235,
      "Box": 6236,
      "AV": 6237,
      "ABLE": 6238,
      "[\"": 6239,
      "ĠMartin": 6240,
      "arden": 6241,
      "Ġchief": 6242,
      "look": 6243,
      "Ġresidents": 6244,
      "DB": 6245,
      "greg": 6246,
      "ĠVer": 6247,
      "anges": 6248,
      "creen": 6249,
      "olk": 6250,
      "Ġhappy": 6251,
      "west": 6252,
      "Ġrestaur": 6253,
      "asion": 6254,
      "ĠTheir": 6255,
      "column": 6256,
      "Default": 6257,
      "iginal": 6258,
      "Ġbattle": 6259,
      "Net": 6260,
      "Ġfrequency": 6261,
      "Ġexpert": 6262,
      "Vis": 6263,
      "gent": 6264,
      "Ġaudience": 6265,
      "Factory": 6266,
      "rule": 6267,
      "ĠAuthor": 6268,
      "Ġopportunities": 6269,
      "bin": 6270,
      "Ġconsult": 6271,
      "Ġpi": 6272,
      "thlet": 6273,
      "umin": 6274,
      "ĠVis": 6275,
      "Ġplays": 6276,
      "Ġhandle": 6277,
      "front": 6278,
      "ivery": 6279,
      "Ġdiagn": 6280,
      "Ġmurder": 6281,
      "ĠLake": 6282,
      "Ġadvert": 6283,
      "Ġroot": 6284,
      "ĠMain": 6285,
      "Ġequations": 6286,
      "{}": 6287,
      "asket": 6288,
      "Ġkept": 6289,
      "ĠWood": 6290,
      "ĠLemma": 6291,
      "hens": 6292,
      "Ġbudget": 6293,
      "Ġdrink": 6294,
      "ĠJun": 6295,
      "ĠBet": 6296,
      "gar": 6297,
      "anging": 6298,
      "Ġrepresents": 6299,
      "Dr": 6300,
      "xspace": 6301,
      "cons": 6302,
      "Ġwait": 6303,
      "ĠIslam": 6304,
      "ih": 6305,
      "ĠZeal": 6306,
      "Work": 6307,
      "Ġcrim": 6308,
      "acks": 6309,
      "frast": 6310,
      "ĠFamily": 6311,
      "Ġcertainly": 6312,
      "ometry": 6313,
      "Ġprofile": 6314,
      "âĢ¢": 6315,
      "Ġnoise": 6316,
      "Ġdoor": 6317,
      "ĠTeam": 6318,
      "Ġpolicies": 6319,
      "Ġwood": 6320,
      "ĠAcademy": 6321,
      "Ġunivers": 6322,
      "]$": 6323,
      "Ġcultural": 6324,
      "hester": 6325,
      "Des": 6326,
      "endif": 6327,
      "Ġnet": 6328,
      "Ġpropos": 6329,
      "inst": 6330,
      "TC": 6331,
      "Ġcoronavirus": 6332,
      "Ġsenior": 6333,
      "ircraft": 6334,
      "ĠElect": 6335,
      "SR": 6336,
      "Ġ{@": 6337,
      "Ġestimated": 6338,
      "close": 6339,
      "ĠCEO": 6340,
      "Ġviews": 6341,
      "ĠChristmas": 6342,
      "Ġcritic": 6343,
      "ainer": 6344,
      "gence": 6345,
      "Ġraise": 6346,
      "cknow": 6347,
      "Ġshowing": 6348,
      "Eng": 6349,
      "Ġestimate": 6350,
      "iling": 6351,
      "eless": 6352,
      "Ġstructures": 6353,
      "ented": 6354,
      "|^": 6355,
      "Min": 6356,
      "Ġtalking": 6357,
      "ĠLee": 6358,
      "Mem": 6359,
      "Desc": 6360,
      "icians": 6361,
      "service": 6362,
      "Rev": 6363,
      "Ġgoals": 6364,
      "Ġcontrast": 6365,
      "oving": 6366,
      "1970": 6367,
      "ĠAmericans": 6368,
      "acter": 6369,
      "ĠJim": 6370,
      "ĠJohnson": 6371,
      "ĠCentre": 6372,
      "Ġveloc": 6373,
      "dule": 6374,
      "Ġhyper": 6375,
      "ĠWho": 6376,
      "Ġhour": 6377,
      "iders": 6378,
      "ĠZealand": 6379,
      "Ġleadership": 6380,
      "Ġcoach": 6381,
      "ĠGame": 6382,
      "Ġdefe": 6383,
      "John": 6384,
      "ifact": 6385,
      "Ġmobile": 6386,
      "Ġfeet": 6387,
      "author": 6388,
      "}/": 6389,
      "${": 6390,
      "Ġexcell": 6391,
      "Ġphil": 6392,
      "Ġapproximately": 6393,
      "Ġofficer": 6394,
      "ĠPenn": 6395,
      "BO": 6396,
      "ĠSpecial": 6397,
      "Ġvirus": 6398,
      "Ġmostly": 6399,
      "Ġprotection": 6400,
      "uations": 6401,
      "ĠIreland": 6402,
      "Ġjobs": 6403,
      "Ġspot": 6404,
      "ĠFestival": 6405,
      "range": 6406,
      "Version": 6407,
      "Ġdanger": 6408,
      "FC": 6409,
      "Br": 6410,
      "Ġsamples": 6411,
      "unfinished": 6412,
      "ĠGames": 6413,
      "war": 6414,
      "ĠEqu": 6415,
      "uls": 6416,
      "ipl": 6417,
      "pers": 6418,
      "Load": 6419,
      "ĠIts": 6420,
      "Ġsea": 6421,
      "apped": 6422,
      "1000": 6423,
      "Ġmiles": 6424,
      "hr": 6425,
      "Ġmask": 6426,
      "Ġexperi": 6427,
      "noindent": 6428,
      "ynch": 6429,
      "({\\": 6430,
      "ĠEX": 6431,
      "Fe": 6432,
      "life": 6433,
      "claim": 6434,
      "ebug": 6435,
      "Ġcities": 6436,
      "ĠRights": 6437,
      "ĠFilm": 6438,
      "ĠIran": 6439,
      "ĠLord": 6440,
      "ĠMax": 6441,
      "Ġonto": 6442,
      "ĠStand": 6443,
      "ĠOld": 6444,
      "xml": 6445,
      "night": 6446,
      "Ġreligious": 6447,
      "Det": 6448,
      "ker": 6449,
      "eft": 6450,
      "Ġlisted": 6451,
      "ln": 6452,
      "ĠAND": 6453,
      "iral": 6454,
      "Note": 6455,
      "IST": 6456,
      "150": 6457,
      "Ġcrisis": 6458,
      "ĠCharles": 6459,
      "Ġdestroy": 6460,
      "ture": 6461,
      "Car": 6462,
      "ĠCommun": 6463,
      "Ġcategory": 6464,
      ".$": 6465,
      "meta": 6466,
      "cean": 6467,
      "Direct": 6468,
      "private": 6469,
      "Ġpicture": 6470,
      "Ġpages": 6471,
      "Ġmargin": 6472,
      "Ġtag": 6473,
      "Ġremoved": 6474,
      "pir": 6475,
      "dimensional": 6476,
      "ĠEU": 6477,
      "ĠKey": 6478,
      "Equals": 6479,
      "Why": 6480,
      "elete": 6481,
      "ĠProv": 6482,
      "Ġcoe": 6483,
      "plete": 6484,
      "odies": 6485,
      "kins": 6486,
      "Ġfamous": 6487,
      "Ġdoll": 6488,
      "ĠCall": 6489,
      "img": 6490,
      "yself": 6491,
      "Ġbiggest": 6492,
      "ician": 6493,
      "roph": 6494,
      "Ġfinished": 6495,
      "dep": 6496,
      "ella": 6497,
      "Ġcommunication": 6498,
      "etime": 6499,
      "project": 6500,
      "Ġwall": 6501,
      "dec": 6502,
      "ĠType": 6503,
      "Ġplot": 6504,
      "Spec": 6505,
      "Ġstudied": 6506,
      "umerate": 6507,
      "ĠParis": 6508,
      "\").": 6509,
      "Ġlaunched": 6510,
      "Ġequipment": 6511,
      "Ġdepth": 6512,
      "ĠLibrary": 6513,
      "Fin": 6514,
      "aved": 6515,
      "Ġenvironmental": 6516,
      "allery": 6517,
      "aren": 6518,
      "Ġimplementation": 6519,
      "Ġchain": 6520,
      "astern": 6521,
      "lines": 6522,
      "shire": 6523,
      "Ġpet": 6524,
      "1992": 6525,
      "emporary": 6526,
      "num": 6527,
      "\"]": 6528,
      "number": 6529,
      "obj": 6530,
      "ĠNY": 6531,
      "ĠEnter": 6532,
      "Ġexplicit": 6533,
      "legal": 6534,
      "Ġresolution": 6535,
      "allet": 6536,
      "Ġmaybe": 6537,
      "Ġcombination": 6538,
      "src": 6539,
      "Ġlearned": 6540,
      "Ġchosen": 6541,
      "Ġspectrum": 6542,
      "Ġalternative": 6543,
      "ĠEach": 6544,
      "1993": 6545,
      "igg": 6546,
      "push": 6547,
      "ĠLim": 6548,
      "output": 6549,
      "ĠAbout": 6550,
      "osoph": 6551,
      "Ġcomparison": 6552,
      "Ġsun": 6553,
      "%)": 6554,
      "IB": 6555,
      "Ġswitch": 6556,
      "ĠWhy": 6557,
      "Ġlatter": 6558,
      "Ġfaith": 6559,
      "Create": 6560,
      "Ġgovern": 6561,
      "ĠKingdom": 6562,
      "Ġfourth": 6563,
      "Ġbrain": 6564,
      "Ã¤": 6565,
      "mt": 6566,
      "~~~~": 6567,
      "adow": 6568,
      "Ġrul": 6569,
      "oz": 6570,
      "elled": 6571,
      "PO": 6572,
      "Ġmeant": 6573,
      "phone": 6574,
      "ora": 6575,
      "ĠAff": 6576,
      "find": 6577,
      "Ġsmart": 6578,
      "mut": 6579,
      "uries": 6580,
      "Ġcarried": 6581,
      "ĠMany": 6582,
      "okes": 6583,
      "ĠApple": 6584,
      "Ġhusband": 6585,
      "frastructure": 6586,
      "Ġexpansion": 6587,
      "Ġcitizens": 6588,
      "aser": 6589,
      "Ġextension": 6590,
      "Gu": 6591,
      "Ġens": 6592,
      "ĠValley": 6593,
      "El": 6594,
      "afe": 6595,
      "Ġremaining": 6596,
      "Ġattend": 6597,
      "Ġgone": 6598,
      "ĠMedical": 6599,
      "Ġdirected": 6600,
      "Ġfailure": 6601,
      "Ġended": 6602,
      "Ġcriminal": 6603,
      "ĠFurther": 6604,
      "Ġforced": 6605,
      "ĠInvest": 6606,
      "ĠGar": 6607,
      "Ġinteraction": 6608,
      "Ġarguments": 6609,
      "Am": 6610,
      "tical": 6611,
      "ployment": 6612,
      "dist": 6613,
      "Ġowner": 6614,
      "ato": 6615,
      "ultural": 6616,
      "Ġbecoming": 6617,
      "ĠCast": 6618,
      "ponents": 6619,
      "KE": 6620,
      "command": 6621,
      "yer": 6622,
      "Ġconsistent": 6623,
      "orrow": 6624,
      "amin": 6625,
      "ĠLin": 6626,
      "poration": 6627,
      "cs": 6628,
      "Ġsurvey": 6629,
      "ĠBack": 6630,
      "Ġweap": 6631,
      "Ġliber": 6632,
      "Ġdetect": 6633,
      "she": 6634,
      "Some": 6635,
      "Ġimplies": 6636,
      "'$": 6637,
      "format": 6638,
      "ĠYoung": 6639,
      "Ġmonitor": 6640,
      "entry": 6641,
      "Ġdetail": 6642,
      "Ġoperating": 6643,
      "}+\\": 6644,
      "ublished": 6645,
      "Format": 6646,
      "ĠId": 6647,
      "rie": 6648,
      "Ġnom": 6649,
      "ĠJones": 6650,
      "weight": 6651,
      "Ġempty": 6652,
      "ĠVirginia": 6653,
      "ĠTour": 6654,
      "ĠMexico": 6655,
      "poss": 6656,
      "_.": 6657,
      "kin": 6658,
      "ĠVictor": 6659,
      "Gl": 6660,
      "Return": 6661,
      "ĠÂ»": 6662,
      "Ġcombined": 6663,
      "description": 6664,
      "Ġsmooth": 6665,
      "child": 6666,
      "atever": 6667,
      "Ġrapid": 6668,
      "People": 6669,
      "PP": 6670,
      "ĠSenate": 6671,
      "ĠUse": 6672,
      "Writ": 6673,
      "FI": 6674,
      "ean": 6675,
      "elines": 6676,
      "ĠBiden": 6677,
      "Ġdenote": 6678,
      "unte": 6679,
      "ĠFort": 6680,
      "reshold": 6681,
      "Ġclinical": 6682,
      "Ġadjust": 6683,
      "ãģ": 6684,
      "Ġconfiguration": 6685,
      "ĠView": 6686,
      "SON": 6687,
      "rick": 6688,
      "Ġliterature": 6689,
      "ifications": 6690,
      "ĠWay": 6691,
      "ifies": 6692,
      "Ġfinding": 6693,
      "Ġagent": 6694,
      "sole": 6695,
      "ĠObama": 6696,
      "erry": 6697,
      "unicip": 6698,
      "othes": 6699,
      "ĠLicense": 6700,
      "oses": 6701,
      "Ġconference": 6702,
      "Ġstuff": 6703,
      "Ġcouldn": 6704,
      "neq": 6705,
      "plications": 6706,
      "MC": 6707,
      "mem": 6708,
      "\"),": 6709,
      "});": 6710,
      "Ġbirths": 6711,
      "omic": 6712,
      "ingly": 6713,
      "}}{\\": 6714,
      "ĠAsia": 6715,
      "Ġtechnical": 6716,
      "Ġdamage": 6717,
      "Ġinvestigation": 6718,
      "Ġearth": 6719,
      "Ġdeveloping": 6720,
      "HO": 6721,
      "Ġrevealed": 6722,
      "ĉĉĉĉĉĉĉĉ": 6723,
      "ĠMil": 6724,
      "Ġarticles": 6725,
      "Art": 6726,
      "final": 6727,
      "Ġexerc": 6728,
      "ola": 6729,
      "citet": 6730,
      "Ġmagnetic": 6731,
      "Ġdimension": 6732,
      "Ġfreedom": 6733,
      "ART": 6734,
      "container": 6735,
      "stances": 6736,
      "ruit": 6737,
      "values": 6738,
      "Ġfacilities": 6739,
      "gate": 6740,
      "law": 6741,
      "ura": 6742,
      "ORT": 6743,
      "ĠBoy": 6744,
      "Ġunless": 6745,
      "oder": 6746,
      "ĠPolice": 6747,
      "Ġexchange": 6748,
      "Ġsynt": 6749,
      "Ġsustain": 6750,
      "Ġefficient": 6751,
      "Ġrepresented": 6752,
      "Ġarm": 6753,
      "Ġhistorical": 6754,
      "Ġmyself": 6755,
      "ĠJo": 6756,
      "rome": 6757,
      "Ġissued": 6758,
      "stitution": 6759,
      "uan": 6760,
      "SD": 6761,
      "eces": 6762,
      "Ġflight": 6763,
      "??": 6764,
      "ollowing": 6765,
      "Ġleaving": 6766,
      "Pi": 6767,
      "Ġheat": 6768,
      "Ġpros": 6769,
      "ographic": 6770,
      "fs": 6771,
      "&&": 6772,
      "dr": 6773,
      "Ġsquare": 6774,
      "Ġfan": 6775,
      "Ġbuildings": 6776,
      "attr": 6777,
      "Ġthr": 6778,
      "ĠHaw": 6779,
      "hema": 6780,
      "ĠIss": 6781,
      "Ġcandidate": 6782,
      "font": 6783,
      "Ġcrow": 6784,
      "Ġflat": 6785,
      "scape": 6786,
      "ĠJustice": 6787,
      "Ġstandards": 6788,
      "ĠWater": 6789,
      "Ġli": 6790,
      "Ġdifferences": 6791,
      "Ġfunds": 6792,
      "ĠFoot": 6793,
      "eries": 6794,
      "arts": 6795,
      "Posted": 6796,
      "Ġerrors": 6797,
      "Ġapparent": 6798,
      "Â©": 6799,
      "ovid": 6800,
      "response": 6801,
      "Ġgun": 6802,
      "eler": 6803,
      "ĠForce": 6804,
      "Ġsomew": 6805,
      "Ġdecades": 6806,
      "Ġjourney": 6807,
      "ĠSand": 6808,
      "Output": 6809,
      "oves": 6810,
      "Ġnuclear": 6811,
      "ls": 6812,
      "Ġtrou": 6813,
      "}-\\": 6814,
      "Ġcontaining": 6815,
      "Ġtend": 6816,
      "About": 6817,
      "Ġdriver": 6818,
      "Ġplane": 6819,
      "Ġcontribution": 6820,
      "Open": 6821,
      "Ġlabor": 6822,
      "Ġfresh": 6823,
      "then": 6824,
      "linear": 6825,
      "urban": 6826,
      "Ġcars": 6827,
      "ĠBas": 6828,
      "Ġwish": 6829,
      "vspace": 6830,
      "Ġfocused": 6831,
      "ĠCatholic": 6832,
      "____": 6833,
      "Ġ-\\": 6834,
      "ĠBob": 6835,
      "ĠOrgan": 6836,
      "According": 6837,
      "enumerate": 6838,
      "ĠAmazon": 6839,
      "show": 6840,
      "Ġphen": 6841,
      "Ġexecutive": 6842,
      "May": 6843,
      "Ġimportance": 6844,
      "ĠOR": 6845,
      "ĠInternet": 6846,
      "(&": 6847,
      "Ne": 6848,
      "Ġcomfort": 6849,
      "ERT": 6850,
      "odcast": 6851,
      "VAL": 6852,
      "itely": 6853,
      "Ġcrime": 6854,
      "FT": 6855,
      "Ġconfirmed": 6856,
      "Ġroute": 6857,
      "Ġdivid": 6858,
      "ointer": 6859,
      "Ġfif": 6860,
      "Ġrelatively": 6861,
      ">>": 6862,
      "alo": 6863,
      "Ġlibrary": 6864,
      "AND": 6865,
      "ãĥ": 6866,
      "othing": 6867,
      "Ġslightly": 6868,
      "ĠCA": 6869,
      "Ġdriving": 6870,
      "History": 6871,
      "ancer": 6872,
      "Ġcovered": 6873,
      "Style": 6874,
      "atalog": 6875,
      "multicol": 6876,
      "Ġtraffic": 6877,
      "ĠJes": 6878,
      "Ġnor": 6879,
      "ĠSpring": 6880,
      "ĠMa": 6881,
      "Ġcentre": 6882,
      "Ġstreet": 6883,
      "Ġspaces": 6884,
      "ĠFederal": 6885,
      "example": 6886,
      "Ġmeasured": 6887,
      "Ġexperiment": 6888,
      "LC": 6889,
      "ĠAwards": 6890,
      "Ġintegr": 6891,
      "omial": 6892,
      "Ġmanif": 6893,
      "Ġmental": 6894,
      "Ġlived": 6895,
      "wp": 6896,
      "navbar": 6897,
      "Ġpolitics": 6898,
      "tag": 6899,
      "Filter": 6900,
      "Ġseeing": 6901,
      "Ġuniform": 6902,
      "1991": 6903,
      "Ġthank": 6904,
      "Ġguarant": 6905,
      "ca": 6906,
      "ĠEnergy": 6907,
      "ested": 6908,
      "rect": 6909,
      "Init": 6910,
      "unit": 6911,
      "ĠHor": 6912,
      "ĠExt": 6913,
      "edding": 6914,
      "older": 6915,
      "ools": 6916,
      "ĠAPI": 6917,
      "ĠScot": 6918,
      "Ġclick": 6919,
      "Ġstorage": 6920,
      "jpg": 6921,
      "Ġanimals": 6922,
      "Ġscript": 6923,
      "acific": 6924,
      "Ġdistinct": 6925,
      "filter": 6926,
      "à¥": 6927,
      "Ġcamera": 6928,
      "scope": 6929,
      "Ġarbit": 6930,
      "isters": 6931,
      "Ġmassive": 6932,
      "Ġarrang": 6933,
      "float": 6934,
      "Ġspeak": 6935,
      "Ġwinning": 6936,
      "itage": 6937,
      "Ġprocessing": 6938,
      "multicolumn": 6939,
      "ipal": 6940,
      "ĠAny": 6941,
      "Ġspeech": 6942,
      "found": 6943,
      "ĠBecause": 6944,
      "Ġdomin": 6945,
      "ideos": 6946,
      "Ġeye": 6947,
      "auge": 6948,
      "Ġadvantage": 6949,
      "Ġquery": 6950,
      "Cor": 6951,
      "Ġcircum": 6952,
      "Ġrender": 6953,
      "Ġoriginally": 6954,
      "ĠMen": 6955,
      "Ġthousands": 6956,
      "Ġexternal": 6957,
      "ĠPolit": 6958,
      "Ġdepartment": 6959,
      "Sy": 6960,
      "ĠDesign": 6961,
      "}}_": 6962,
      "Other": 6963,
      "refix": 6964,
      "Max": 6965,
      "FONT": 6966,
      "ogen": 6967,
      "MO": 6968,
      "Ġextract": 6969,
      "bul": 6970,
      "ported": 6971,
      "icted": 6972,
      "Ġnodes": 6973,
      "ĠRun": 6974,
      "Ġdelay": 6975,
      "oded": 6976,
      "Ġflag": 6977,
      "Ġmanaged": 6978,
      "aylor": 6979,
      "Ġgenerate": 6980,
      "underline": 6981,
      "ĠDown": 6982,
      "ĠField": 6983,
      "Ġstrict": 6984,
      "Ġexistence": 6985,
      "Ġwest": 6986,
      "Address": 6987,
      "mazing": 6988,
      "operat": 6989,
      "Ġbed": 6990,
      "Ġoperators": 6991,
      "Ġbehavi": 6992,
      "////////////////": 6993,
      "ĠCheck": 6994,
      "Ġopinion": 6995,
      "razil": 6996,
      "pled": 6997,
      "duced": 6998,
      "DP": 6999,
      "UI": 7000,
      "riz": 7001,
      "imb": 7002,
      "ĠLear": 7003,
      "inv": 7004,
      "theorem": 7005,
      "Ġurl": 7006,
      "Ġcluster": 7007,
      "///": 7008,
      "ryst": 7009,
      "ĠSar": 7010,
      "Ġagreed": 7011,
      "ulty": 7012,
      "ĠAdminist": 7013,
      "Ġadding": 7014,
      "Ġincreases": 7015,
      "ĠChris": 7016,
      "Ġhero": 7017,
      "chen": 7018,
      "=>": 7019,
      "ĠCy": 7020,
      "hetic": 7021,
      "Ġstarts": 7022,
      "ĠWrit": 7023,
      "ĠDE": 7024,
      "Ġdig": 7025,
      "Ġguitar": 7026,
      "Ġshut": 7027,
      "Ġdetailed": 7028,
      "norm": 7029,
      "graph": 7030,
      "ĠCarolina": 7031,
      "ESS": 7032,
      "ĠJon": 7033,
      "Ġedition": 7034,
      "Ġdu": 7035,
      "Ġimpress": 7036,
      "secut": 7037,
      "Ġcoast": 7038,
      "Select": 7039,
      "%%": 7040,
      "Dec": 7041,
      "Ġoffset": 7042,
      "Ġtrip": 7043,
      "Ġinfe": 7044,
      "LA": 7045,
      "iki": 7046,
      "Ġfloor": 7047,
      "iana": 7048,
      "ĠRecords": 7049,
      "Ġnative": 7050,
      "Ġconcerns": 7051,
      "Ġhousehold": 7052,
      "itemize": 7053,
      "Ġdistributed": 7054,
      "annels": 7055,
      "ĠMiddle": 7056,
      "oston": 7057,
      "120": 7058,
      "Ġ(\"": 7059,
      "Ġwarm": 7060,
      "operatorn": 7061,
      "stack": 7062,
      "ersonal": 7063,
      "ĠMuslim": 7064,
      "Ġrich": 7065,
      "Ġvision": 7066,
      "ĠHospital": 7067,
      "Ġterror": 7068,
      "ĠWal": 7069,
      "ĠAR": 7070,
      "Ġexpressed": 7071,
      "Ġpan": 7072,
      "Ġemot": 7073,
      "ĠIndust": 7074,
      "ĠItaly": 7075,
      "Mon": 7076,
      "ictures": 7077,
      "Ġtun": 7078,
      "approx": 7079,
      "Ġcallback": 7080,
      "comes": 7081,
      "Ġaren": 7082,
      "aints": 7083,
      "Ġgain": 7084,
      "Ġconducted": 7085,
      "ĠFire": 7086,
      "Ġscope": 7087,
      "BU": 7088,
      "Ġaircraft": 7089,
      "prototype": 7090,
      "Ġvac": 7091,
      "etch": 7092,
      "ĠDate": 7093,
      "update": 7094,
      "Ġaffected": 7095,
      "akistan": 7096,
      "]\\": 7097,
      "ernel": 7098,
      "Ġfeeling": 7099,
      "ĠJeff": 7100,
      "Ġcos": 7101,
      "Ġbeat": 7102,
      "icity": 7103,
      "Ġpurposes": 7104,
      "ĠColl": 7105,
      "Case": 7106,
      "Ġclassical": 7107,
      "Ġknows": 7108,
      "Ġyouth": 7109,
      "Ġtypically": 7110,
      "ups": 7111,
      "Command": 7112,
      "Ġexperiments": 7113,
      "ĠSecretary": 7114,
      "operatorname": 7115,
      "Ġtechniques": 7116,
      "ussian": 7117,
      "Ġnumerous": 7118,
      "thon": 7119,
      "amental": 7120,
      "Ġfavorite": 7121,
      "after": 7122,
      "SH": 7123,
      "ĠOrder": 7124,
      "ĠLo": 7125,
      "Ġyourself": 7126,
      "Ġexplain": 7127,
      "ĠLike": 7128,
      "Ġofficers": 7129,
      "Ġreplaced": 7130,
      "Ġcontinuous": 7131,
      "Ġpositions": 7132,
      "Ġdocuments": 7133,
      "Ġfant": 7134,
      "ucky": 7135,
      "Ġreb": 7136,
      "Ġnine": 7137,
      "Ġur": 7138,
      "Ġdownload": 7139,
      ")}{": 7140,
      "Ġalt": 7141,
      "edu": 7142,
      "ĠLast": 7143,
      "Ġmaps": 7144,
      "aug": 7145,
      "Ġbelie": 7146,
      "Ġexplained": 7147,
      "zen": 7148,
      "Ġprocedure": 7149,
      "eller": 7150,
      "Ġisol": 7151,
      "efined": 7152,
      "iger": 7153,
      "odd": 7154,
      "Ġdie": 7155,
      "ĠLuc": 7156,
      "andon": 7157,
      "Ġaccuracy": 7158,
      "phas": 7159,
      "Ġpractices": 7160,
      "ĠColor": 7161,
      "Ġfre": 7162,
      "Ġsettings": 7163,
      "INE": 7164,
      "Ġgrav": 7165,
      "ĠTrust": 7166,
      "ĠLiber": 7167,
      "ja": 7168,
      "inds": 7169,
      "Ġupdated": 7170,
      "ĠNOT": 7171,
      "uint": 7172,
      "Ġinequ": 7173,
      "Ġlab": 7174,
      "PT": 7175,
      "Ġelected": 7176,
      "Ġplus": 7177,
      "des": 7178,
      "SO": 7179,
      "ĠItalian": 7180,
      "agraph": 7181,
      "Ġfiled": 7182,
      "Ġ**": 7183,
      "ĠPop": 7184,
      "ĠPhys": 7185,
      "how": 7186,
      "Ġfounded": 7187,
      "Ġoffering": 7188,
      "Ġpaint": 7189,
      "NO": 7190,
      "Ġdataset": 7191,
      "Ġphoto": 7192,
      "Ġchair": 7193,
      "Ġextremely": 7194,
      "params": 7195,
      "Ġdecisions": 7196,
      "btn": 7197,
      "acle": 7198,
      "ĠTH": 7199,
      "scr": 7200,
      "ye": 7201,
      "Ġclients": 7202,
      "Ġattacks": 7203,
      "Ġchanging": 7204,
      "Ġdedicated": 7205,
      "Ġagency": 7206,
      "Ġvelocity": 7207,
      "istration": 7208,
      "ALL": 7209,
      "Ġmusical": 7210,
      "Ġpeak": 7211,
      "Ġmist": 7212,
      "ĠWilliams": 7213,
      "unately": 7214,
      "BI": 7215,
      "apse": 7216,
      "Ġmarketing": 7217,
      ")}$": 7218,
      "Ġwww": 7219,
      "Ġleague": 7220,
      "Ġformation": 7221,
      "Sm": 7222,
      "ĠHamilton": 7223,
      "Ġil": 7224,
      "har": 7225,
      "Ġminim": 7226,
      "ading": 7227,
      "pop": 7228,
      "Ġpil": 7229,
      "Book": 7230,
      "Ġodd": 7231,
      "ĠHT": 7232,
      "Valid": 7233,
      "cover": 7234,
      "Ġpure": 7235,
      "Ġguy": 7236,
      "Ġwitness": 7237,
      "Ġguide": 7238,
      "ĠEll": 7239,
      "Mode": 7240,
      "Ġcommission": 7241,
      "ĠBoth": 7242,
      "Ġtruly": 7243,
      "Ġtherm": 7244,
      "Ġthread": 7245,
      "roud": 7246,
      "rical": 7247,
      "Length": 7248,
      "Ġeast": 7249,
      "Ġcalling": 7250,
      "ĠTem": 7251,
      "ĠNS": 7252,
      "ĠKar": 7253,
      "Ġregistered": 7254,
      "ymmet": 7255,
      "Ġwouldn": 7256,
      "$}": 7257,
      "itory": 7258,
      "Ġrecover": 7259,
      "frame": 7260,
      "ĠBow": 7261,
      "ĠHistor": 7262,
      "ERR": 7263,
      "gypt": 7264,
      "rich": 7265,
      "Ġderived": 7266,
      "ĠWall": 7267,
      "task": 7268,
      "Ġdefend": 7269,
      "Ġnotes": 7270,
      "ĠMike": 7271,
      "ĠHenry": 7272,
      "Ġsimpl": 7273,
      "Ġuniversity": 7274,
      "Ġadvice": 7275,
      "iffer": 7276,
      "Ġdefense": 7277,
      "CON": 7278,
      "1960": 7279,
      "Update": 7280,
      "Ġexperiences": 7281,
      "ĠSpanish": 7282,
      "Ġiter": 7283,
      "awa": 7284,
      "Ġcustomer": 7285,
      "ascript": 7286,
      "Ġconsists": 7287,
      "Ġdatabase": 7288,
      "ĠSports": 7289,
      "ograp": 7290,
      "ĠCard": 7291,
      "Tem": 7292,
      "Ġice": 7293,
      "Ġmyst": 7294,
      "Ġthanks": 7295,
      "asketball": 7296,
      "else": 7297,
      "Ġallowing": 7298,
      "Ġnice": 7299,
      "Ġunknown": 7300,
      "Ġcrew": 7301,
      "Ġconvert": 7302,
      "returns": 7303,
      "iano": 7304,
      "Ġforest": 7305,
      "ĠFood": 7306,
      "inity": 7307,
      "Access": 7308,
      "Listener": 7309,
      "ĠReal": 7310,
      "ĠGa": 7311,
      "Ġshock": 7312,
      "Ġalgebra": 7313,
      "Ġhappens": 7314,
      "Ġjustice": 7315,
      "ĠCH": 7316,
      "Ġinfo": 7317,
      "Ġexpos": 7318,
      "ĠStr": 7319,
      "ĠStudies": 7320,
      "turb": 7321,
      "iveness": 7322,
      "Ġpackage": 7323,
      "inet": 7324,
      "Ġpartnership": 7325,
      "Controller": 7326,
      "Pat": 7327,
      "||": 7328,
      "ttp": 7329,
      "Ġsale": 7330,
      "ĠAndrew": 7331,
      "annot": 7332,
      "plet": 7333,
      "Ġking": 7334,
      "ansas": 7335,
      "std": 7336,
      "arian": 7337,
      "obs": 7338,
      "Ġbalance": 7339,
      "mes": 7340,
      "Ġapproaches": 7341,
      "pool": 7342,
      "Ġhydro": 7343,
      "mond": 7344,
      "Ġtells": 7345,
      "oles": 7346,
      "{{": 7347,
      "posite": 7348,
      "ĠLi": 7349,
      "gle": 7350,
      "rot": 7351,
      "Ġmolec": 7352,
      "ression": 7353,
      "remove": 7354,
      "fa": 7355,
      "Ġ<!--": 7356,
      "PD": 7357,
      "ĠAD": 7358,
      "Ġintended": 7359,
      "ĠĠĠĠĠĠĠĠĠĠĠĠĊ": 7360,
      "ati": 7361,
      "Ġprepar": 7362,
      "1989": 7363,
      "ĠAud": 7364,
      "Ġmetric": 7365,
      "Ġmanner": 7366,
      "FR": 7367,
      "ĠNet": 7368,
      "Ġchemical": 7369,
      "Ġpoly": 7370,
      "arser": 7371,
      "hor": 7372,
      "Ġ[]": 7373,
      "ĠCharl": 7374,
      "should": 7375,
      "mosp": 7376,
      "Ġobservations": 7377,
      "Dev": 7378,
      ".;": 7379,
      "Ġsegment": 7380,
      "Column": 7381,
      "abeth": 7382,
      "ĠCross": 7383,
      "Ġfuel": 7384,
      "Ġpp": 7385,
      "Ġdiscovered": 7386,
      "Ġseemed": 7387,
      "Ġvaccine": 7388,
      "ĠJoseph": 7389,
      "Ġhelps": 7390,
      "Ġassign": 7391,
      "rs": 7392,
      "Figure": 7393,
      ".âĢĻ": 7394,
      "Ġlisten": 7395,
      "Ġmetal": 7396,
      "Ġcoverage": 7397,
      "ĠColumb": 7398,
      "Ġnarr": 7399,
      "orship": 7400,
      "RL": 7401,
      "Target": 7402,
      "ĠĠĠĊ": 7403,
      "lywood": 7404,
      "ĠOnline": 7405,
      "imately": 7406,
      "ali": 7407,
      "Ġcommitted": 7408,
      "mann": 7409,
      "URL": 7410,
      "Ġkill": 7411,
      "ĠLine": 7412,
      "ĠTO": 7413,
      "Port": 7414,
      "typ": 7415,
      "Ġintr": 7416,
      "ĠFrancisco": 7417,
      "Mark": 7418,
      "Ġreferred": 7419,
      "Ġcontributions": 7420,
      "Ġposted": 7421,
      "ecutive": 7422,
      "Ġsplit": 7423,
      "Ġà¤": 7424,
      "Ġapprec": 7425,
      "ĠInit": 7426,
      "ĠBlue": 7427,
      "Ġadvoc": 7428,
      "ĠExper": 7429,
      "rawn": 7430,
      ")+": 7431,
      "Ġdepends": 7432,
      "Ġauthority": 7433,
      "ĠCLASS": 7434,
      "Are": 7435,
      "ĠJewish": 7436,
      "Ġexperimental": 7437,
      "osc": 7438,
      "Ġsubstant": 7439,
      "Ġhelping": 7440,
      "Ĥ¬": 7441,
      "Row": 7442,
      "Ġsport": 7443,
      "Ġmixed": 7444,
      "ĠCode": 7445,
      "Cache": 7446,
      "Ġdetection": 7447,
      "Ġreform": 7448,
      "Ġscientific": 7449,
      "FO": 7450,
      "Ġderiv": 7451,
      "ĠWild": 7452,
      "ĠIII": 7453,
      "Ġschedul": 7454,
      "Cal": 7455,
      "Ã¢": 7456,
      "va": 7457,
      "\\,\\": 7458,
      "ĠRepublican": 7459,
      "Ġfacility": 7460,
      "ĠSpace": 7461,
      "forcement": 7462,
      "Ġhighlight": 7463,
      "Sl": 7464,
      "SL": 7465,
      "rid": 7466,
      "Ġlocations": 7467,
      "\\\"": 7468,
      "sign": 7469,
      "ĠFile": 7470,
      "ĠMap": 7471,
      "desc": 7472,
      "Ġhomes": 7473,
      "ĠNight": 7474,
      "layout": 7475,
      "ĠLive": 7476,
      "itan": 7477,
      "obe": 7478,
      "uses": 7479,
      "Men": 7480,
      "track": 7481,
      "orders": 7482,
      "Ġcurve": 7483,
      "!âĢĿ": 7484,
      "etry": 7485,
      "Ġvehicles": 7486,
      "$(": 7487,
      "oral": 7488,
      "nam": 7489,
      "Ġjump": 7490,
      "Ġburn": 7491,
      "grade": 7492,
      "Types": 7493,
      "Ġfeatured": 7494,
      "Ġretail": 7495,
      "ĠVan": 7496,
      "\\}$": 7497,
      "Inst": 7498,
      "Ġprices": 7499,
      "coh": 7500,
      "Ġacademic": 7501,
      "ĠMicrosoft": 7502,
      "Op": 7503,
      "utch": 7504,
      "Ġremained": 7505,
      "ĠMethod": 7506,
      "Ġspring": 7507,
      "ĠMot": 7508,
      "Ġprofession": 7509,
      "common": 7510,
      "ĠAction": 7511,
      "Ġsqu": 7512,
      "athan": 7513,
      "ĠConference": 7514,
      "Ġdynamics": 7515,
      "ĠMP": 7516,
      "Ġeigen": 7517,
      "Ġformal": 7518,
      "sect": 7519,
      "Will": 7520,
      "Ġcarbon": 7521,
      "ĠEnvironment": 7522,
      "Ġannounce": 7523,
      "aste": 7524,
      "Ġcreation": 7525,
      "ĠSciences": 7526,
      "oster": 7527,
      "ĠBritain": 7528,
      "ĠLab": 7529,
      "MD": 7530,
      "Ġmarkets": 7531,
      "Ġinjury": 7532,
      "Ġhence": 7533,
      "Ġisland": 7534,
      "vol": 7535,
      "Ġtreated": 7536,
      "Ġcycle": 7537,
      "Ġicon": 7538,
      "Ġdraft": 7539,
      "Ġsubsc": 7540,
      "ĠHREF": 7541,
      "Ġsubs": 7542,
      "Ġreduction": 7543,
      "adium": 7544,
      "Ġturns": 7545,
      "ĠRail": 7546,
      "ĠPage": 7547,
      "ĠOnly": 7548,
      "ĠJac": 7549,
      "Ġ!==": 7550,
      "ĠGener": 7551,
      "Ġleaves": 7552,
      "oting": 7553,
      "deg": 7554,
      "QL": 7555,
      "Ġguess": 7556,
      "Ġgirls": 7557,
      "ulating": 7558,
      "Ġinspired": 7559,
      "ĠĠĠĠĠĠĠĠĠĠĠĠĠĠĠĠĠĠĠĠĠĠĠĠĠĠĠĠĠĠĠĠĠĠĠ": 7560,
      "Provider": 7561,
      "menu": 7562,
      "ĠPy": 7563,
      "just": 7564,
      "Ġconsidering": 7565,
      "********************************": 7566,
      "Ġscal": 7567,
      "uing": 7568,
      "Ġfrag": 7569,
      "Ġimproved": 7570,
      "Ġachieved": 7571,
      "Ġemphas": 7572,
      "ĠModel": 7573,
      "Ġprotocol": 7574,
      "ĠToday": 7575,
      "Ġspend": 7576,
      "Ġinstitutions": 7577,
      "Ġarchitecture": 7578,
      "Ġhearing": 7579,
      "Ġsupporting": 7580,
      "}'": 7581,
      "Url": 7582,
      "Ġdelivery": 7583,
      "Ġloved": 7584,
      "cope": 7585,
      "ðŁ": 7586,
      "actor": 7587,
      "ĠProfessor": 7588,
      "encing": 7589,
      "ĠWhe": 7590,
      "Ġadvance": 7591,
      "water": 7592,
      "Ġindeed": 7593,
      "ĠAdv": 7594,
      "Ġsan": 7595,
      "Ġ_{": 7596,
      "Ġ$\\{": 7597,
      "Ġdemocr": 7598,
      "MENT": 7599,
      "Ġfle": 7600,
      "MT": 7601,
      "iated": 7602,
      "ĠLink": 7603,
      "\\'": 7604,
      "atial": 7605,
      "render": 7606,
      "Ġobj": 7607,
      "ellar": 7608,
      "izont": 7609,
      ")/": 7610,
      "ĠDemocratic": 7611,
      "Ġappearance": 7612,
      "Current": 7613,
      "ĠMA": 7614,
      "aped": 7615,
      "ĠTele": 7616,
      "pet": 7617,
      "ums": 7618,
      "stone": 7619,
      "Ġdiss": 7620,
      "ĠMichigan": 7621,
      "Ġacknow": 7622,
      "apes": 7623,
      ":</": 7624,
      "250": 7625,
      "ĠHy": 7626,
      "appe": 7627,
      "idential": 7628,
      "Ġhab": 7629,
      "COL": 7630,
      "ridge": 7631,
      "aka": 7632,
      "Ġactor": 7633,
      "iser": 7634,
      "Ġpolar": 7635,
      "texttt": 7636,
      "oom": 7637,
      "600": 7638,
      "Ġ\\|": 7639,
      "raq": 7640,
      "iples": 7641,
      "Ġhousing": 7642,
      "Ġmarriage": 7643,
      "Ġfashion": 7644,
      "Ġinterests": 7645,
      "Button": 7646,
      "ighter": 7647,
      "udden": 7648,
      "instance": 7649,
      "Child": 7650,
      "ME": 7651,
      "Ġsam": 7652,
      "construct": 7653,
      "itionally": 7654,
      "Ġrecall": 7655,
      "ĠWalk": 7656,
      "ĠMedicine": 7657,
      "Ġsleep": 7658,
      "ĠKen": 7659,
      "Ġincred": 7660,
      "Ġregional": 7661,
      "TYPE": 7662,
      "Right": 7663,
      "faces": 7664,
      "}}}": 7665,
      "Ġparticles": 7666,
      "high": 7667,
      "inf": 7668,
      "Ġbond": 7669,
      "UB": 7670,
      "wan": 7671,
      "1988": 7672,
      "ushed": 7673,
      "Ġmotiv": 7674,
      "Med": 7675,
      "onym": 7676,
      "ĠDaniel": 7677,
      "Ġpurchase": 7678,
      "API": 7679,
      "Ġglass": 7680,
      "ĠSouthern": 7681,
      "Ġring": 7682,
      "Ġnewsp": 7683,
      "Ġplanet": 7684,
      "Tags": 7685,
      "Ġherself": 7686,
      "Ġexcellent": 7687,
      "Ġcalculated": 7688,
      "cat": 7689,
      "ĠParliament": 7690,
      "offset": 7691,
      "LP": 7692,
      "RI": 7693,
      "ĠJackson": 7694,
      "roduction": 7695,
      "Ġbranch": 7696,
      "Ġcompare": 7697,
      "inations": 7698,
      "ĠHon": 7699,
      "Ġsuggests": 7700,
      "friend": 7701,
      "conf": 7702,
      "Sign": 7703,
      "Ġcompact": 7704,
      "Ġdoubt": 7705,
      "ĠGeorgia": 7706,
      "Ġinner": 7707,
      "cuss": 7708,
      "ULT": 7709,
      "ĠPoint": 7710,
      "Dep": 7711,
      "Ġappointed": 7712,
      "aver": 7713,
      "uality": 7714,
      "Down": 7715,
      "require": 7716,
      "Ġorders": 7717,
      "Ġspecifically": 7718,
      "Ġclassic": 7719,
      "Ġreviews": 7720,
      "ĠNorthern": 7721,
      "uous": 7722,
      "ĠWat": 7723,
      "ffect": 7724,
      "Ġreject": 7725,
      "ĠPC": 7726,
      "vector": 7727,
      "igin": 7728,
      "Ġkid": 7729,
      "-$": 7730,
      "del": 7731,
      "Ġbelieved": 7732,
      "Ġconstrain": 7733,
      "Ġplants": 7734,
      "Ġcold": 7735,
      "jo": 7736,
      "Search": 7737,
      "Ġresearchers": 7738,
      "Ġexplore": 7739,
      "Ġmovies": 7740,
      "Ġperspective": 7741,
      "Ġcoal": 7742,
      "').": 7743,
      "ira": 7744,
      "Ġsuggested": 7745,
      "Ġbuffer": 7746,
      "ĠBase": 7747,
      "black": 7748,
      "Ġteaching": 7749,
      "ĠDC": 7750,
      "kit": 7751,
      "Just": 7752,
      "Location": 7753,
      "Ġweather": 7754,
      "ji": 7755,
      "++)": 7756,
      "ĠAf": 7757,
      "drop": 7758,
      "Ġran": 7759,
      "ictionary": 7760,
      "Ġbegins": 7761,
      "Ġbelief": 7762,
      "ĠCivil": 7763,
      "Ġenable": 7764,
      "<?": 7765,
      "tree": 7766,
      "card": 7767,
      "alg": 7768,
      "cut": 7769,
      "endar": 7770,
      "Ġuint": 7771,
      "elly": 7772,
      "enger": 7773,
      "Ġformula": 7774,
      "Ġvary": 7775,
      "loads": 7776,
      "Ġweekend": 7777,
      "ĠGuide": 7778,
      "ãĤ": 7779,
      "Frame": 7780,
      "issions": 7781,
      "Ġamazing": 7782,
      "Container": 7783,
      "Ġgap": 7784,
      "ĠPlease": 7785,
      "Ġfigures": 7786,
      "Ġauthorities": 7787,
      "Ġabuse": 7788,
      "800": 7789,
      "ixel": 7790,
      "Ġrough": 7791,
      "Ġterrit": 7792,
      "ĠMid": 7793,
      ":\"": 7794,
      "Ġcounty": 7795,
      "Ġcharges": 7796,
      "OK": 7797,
      "Ġelim": 7798,
      "Ġhair": 7799,
      "anguages": 7800,
      "reference": 7801,
      "Ġcash": 7802,
      "ĠPakistan": 7803,
      "Ġthick": 7804,
      "Local": 7805,
      "Ġinfrastructure": 7806,
      "Ġbright": 7807,
      "Ġprepared": 7808,
      "Ġfellow": 7809,
      "ropy": 7810,
      "nections": 7811,
      "Ġscatter": 7812,
      "ĠRam": 7813,
      "Ġtasks": 7814,
      "irds": 7815,
      "imer": 7816,
      "ĠReturns": 7817,
      "ĠHarris": 7818,
      "Ġapproved": 7819,
      "hemat": 7820,
      "ĠHand": 7821,
      "Ġflex": 7822,
      "Ġbelong": 7823,
      "Ġseat": 7824,
      "Ġowned": 7825,
      "Ġentered": 7826,
      "Bo": 7827,
      "./": 7828,
      "ĠBoston": 7829,
      "Ġarbitr": 7830,
      "izabeth": 7831,
      "Ġrelationships": 7832,
      "rency": 7833,
      "Ġfont": 7834,
      "ĠDonald": 7835,
      "Ġexperienced": 7836,
      "Entry": 7837,
      "Ġcandidates": 7838,
      "ĠFar": 7839,
      "ĠTerm": 7840,
      "Ġbroadcast": 7841,
      "sen": 7842,
      "ador": 7843,
      "Ġmotor": 7844,
      "Ġindepend": 7845,
      "ogy": 7846,
      "root": 7847,
      "Ġunion": 7848,
      "Ġawarded": 7849,
      "ickets": 7850,
      "Ġdiagram": 7851,
      "ACK": 7852,
      "ewidth": 7853,
      "Ġclust": 7854,
      "template": 7855,
      "riptor": 7856,
      "ql": 7857,
      "ĠOk": 7858,
      "Ġaspects": 7859,
      "ĠSign": 7860,
      "Ġwatching": 7861,
      "illy": 7862,
      "ĠBrazil": 7863,
      "ĠCoast": 7864,
      "Ġclaimed": 7865,
      "Ġgender": 7866,
      "([": 7867,
      "Ġbrings": 7868,
      "ĠMult": 7869,
      "Ġusual": 7870,
      "possible": 7871,
      "Jan": 7872,
      "eli": 7873,
      "1987": 7874,
      "Ġcreative": 7875,
      "ĠPass": 7876,
      "ĠEgypt": 7877,
      "Ġsupposed": 7878,
      "Ġfell": 7879,
      "ĠBeach": 7880,
      "ĠSep": 7881,
      "~$": 7882,
      "Ġconstr": 7883,
      "Ġadministr": 7884,
      "Ġadvanced": 7885,
      "Ġcollected": 7886,
      "ban": 7887,
      "bal": 7888,
      "javascript": 7889,
      "Ġincident": 7890,
      "Ġrepro": 7891,
      "ĠRequ": 7892,
      "Ġelectron": 7893,
      "Server": 7894,
      "ĠEnt": 7895,
      "ĠÂ©": 7896,
      "Ġtrees": 7897,
      "Ġstations": 7898,
      "Ġemergency": 7899,
      "Ġcharged": 7900,
      "Ġacts": 7901,
      "Ġtypical": 7902,
      "ran": 7903,
      "ĠPrem": 7904,
      "ĠJr": 7905,
      "Any": 7906,
      "Theta": 7907,
      "matrix": 7908,
      "news": 7909,
      "Width": 7910,
      "step": 7911,
      "Ġstable": 7912,
      "ĠDigital": 7913,
      "Layout": 7914,
      "ĠEvent": 7915,
      "Ġlies": 7916,
      "Ġentertain": 7917,
      "Ġstudio": 7918,
      "Ġmatches": 7919,
      "missions": 7920,
      "Ġdefinitely": 7921,
      "Ġancient": 7922,
      "ears": 7923,
      "Ġparticipants": 7924,
      "Order": 7925,
      "Ġadvent": 7926,
      "present": 7927,
      "Ev": 7928,
      "Ġneighborhood": 7929,
      "urer": 7930,
      "Ġmainly": 7931,
      "Ġinvolve": 7932,
      "wrap": 7933,
      "minus": 7934,
      "ournament": 7935,
      "Ġpun": 7936,
      "xx": 7937,
      "second": 7938,
      "Ġwhatever": 7939,
      "Â°": 7940,
      "ĠIP": 7941,
      "Ġlen": 7942,
      "evin": 7943,
      "ĉĠĠĠ": 7944,
      "ĠLight": 7945,
      "Ġsister": 7946,
      "Ġfinds": 7947,
      "Ġefficiency": 7948,
      "Ġdivision": 7949,
      "vania": 7950,
      "Ġentirely": 7951,
      "Ġaccepted": 7952,
      "shot": 7953,
      "Ġrom": 7954,
      "Ġ(-": 7955,
      "otted": 7956,
      "---": 7957,
      "ko": 7958,
      "Ġcontained": 7959,
      "ĠIrish": 7960,
      "icing": 7961,
      "iable": 7962,
      "Ġvictory": 7963,
      "={": 7964,
      "istent": 7965,
      "Ġestimates": 7966,
      "Ġsides": 7967,
      "inton": 7968,
      "Ġtheme": 7969,
      "lyn": 7970,
      "Ġideal": 7971,
      "Ġends": 7972,
      "ĠPan": 7973,
      "Ġwaiting": 7974,
      "Mult": 7975,
      "spe": 7976,
      "erg": 7977,
      "Ġpassion": 7978,
      "ĠMcC": 7979,
      "Ġresponsibility": 7980,
      "Ġtro": 7981,
      "bury": 7982,
      "Ġcauses": 7983,
      "Ġremark": 7984,
      "Ġadm": 7985,
      "Ġrain": 7986,
      "ĠMoreover": 7987,
      "ĠPacific": 7988,
      "ĠMaster": 7989,
      "Script": 7990,
      "ĠMov": 7991,
      "ĠFed": 7992,
      "110": 7993,
      "ulner": 7994,
      "Process": 7995,
      "ĠFootball": 7996,
      "Ġpossibly": 7997,
      "Ġparticle": 7998,
      "Ġsympt": 7999,
      "Parameter": 8000,
      "Ġkeeping": 8001,
      "utely": 8002,
      "udes": 8003,
      "XX": 8004,
      "(_": 8005,
      "Ġindicate": 8006,
      "ĠRadio": 8007,
      "bel": 8008,
      "Ġfeat": 8009,
      "Ġhotel": 8010,
      "irty": 8011,
      "ĠSupreme": 8012,
      "Ġwrap": 8013,
      "ynomial": 8014,
      "Ġhidden": 8015,
      "direct": 8016,
      "Ġrecording": 8017,
      "Ġintroduce": 8018,
      "contin": 8019,
      "Configuration": 8020,
      "Ġtrained": 8021,
      "lets": 8022,
      "Ġban": 8023,
      "ĠChair": 8024,
      "ĠBrook": 8025,
      "adel": 8026,
      "Ġapart": 8027,
      "Ġvolunte": 8028,
      "avor": 8029,
      "ĠGal": 8030,
      "uzz": 8031,
      "Ġalleged": 8032,
      "ĠCur": 8033,
      "DO": 8034,
      "anes": 8035,
      "Ġtheore": 8036,
      "images": 8037,
      "Ear": 8038,
      "bas": 8039,
      "Ġshares": 8040,
      "Ġholding": 8041,
      "inson": 8042,
      "sd": 8043,
      "ĠTer": 8044,
      "ĠAgain": 8045,
      "Ġwarn": 8046,
      "Non": 8047,
      "Ac": 8048,
      "Interface": 8049,
      "istical": 8050,
      "ads": 8051,
      "Ġproport": 8052,
      "Ġacting": 8053,
      "Ġcrowd": 8054,
      "Ġskin": 8055,
      "onto": 8056,
      "osa": 8057,
      "ĠGirl": 8058,
      "ĠQueen": 8059,
      "Ġvent": 8060,
      "Ġsolar": 8061,
      "ĠSteve": 8062,
      "Ġretain": 8063,
      "Ġanimal": 8064,
      "ĠSaf": 8065,
      "Mat": 8066,
      "Ġstatements": 8067,
      "antly": 8068,
      "Ġtransformation": 8069,
      "Ġsecure": 8070,
      "ĠTheatre": 8071,
      "Ġmessages": 8072,
      "1986": 8073,
      "ervative": 8074,
      "textrm": 8075,
      "Ġsurg": 8076,
      "isc": 8077,
      "ĠCON": 8078,
      "ishop": 8079,
      "Ġatmosp": 8080,
      "opher": 8081,
      "ione": 8082,
      "ĠĠĠĠĠĠĠĠĠĠĠĠĠĠĠĠĠĠĠĠĠ": 8083,
      "izontal": 8084,
      "ĠBooks": 8085,
      "dx": 8086,
      "RC": 8087,
      "Ġmedium": 8088,
      "ova": 8089,
      "âĢĻ,": 8090,
      "Ġwealth": 8091,
      "Ġmomentum": 8092,
      "ĠAge": 8093,
      "```": 8094,
      "Ġdynamic": 8095,
      "ĠNumber": 8096,
      "ĠKim": 8097,
      "rieved": 8098,
      "oir": 8099,
      "Ġguys": 8100,
      "Ġconcert": 8101,
      "Ġangle": 8102,
      "INT": 8103,
      "Ġwidely": 8104,
      "ĠChildren": 8105,
      "Ġwriters": 8106,
      "Ġinsurance": 8107,
      "Ġarrived": 8108,
      "During": 8109,
      "Ġplanned": 8110,
      "Ġphenomen": 8111,
      "ĠCreate": 8112,
      "mathscr": 8113,
      "linewidth": 8114,
      "krain": 8115,
      "ima": 8116,
      "shift": 8117,
      "Ġcommittee": 8118,
      "()->": 8119,
      "document": 8120,
      "Ġdance": 8121,
      "Ġserving": 8122,
      "DI": 8123,
      "ifts": 8124,
      "ZE": 8125,
      "Ġobser": 8126,
      "IGN": 8127,
      "background": 8128,
      "Ġconven": 8129,
      "Ġconcerned": 8130,
      "Ġremote": 8131,
      "Ġoptimal": 8132,
      "Ġcouncil": 8133,
      "Ġpropag": 8134,
      "Stat": 8135,
      "}^{-": 8136,
      "pton": 8137,
      "Ġstrongly": 8138,
      "formance": 8139,
      "ĠIraq": 8140,
      "resource": 8141,
      "Ġflux": 8142,
      "Ø§": 8143,
      "empty": 8144,
      "ĠLook": 8145,
      "ĠAccess": 8146,
      "Ġpriv": 8147,
      "km": 8148,
      "ĠTw": 8149,
      "Project": 8150,
      "Ġthreshold": 8151,
      "seud": 8152,
      "Ġtheorem": 8153,
      "ĠLittle": 8154,
      "$_": 8155,
      "ĠSea": 8156,
      "ĠSupport": 8157,
      "Ġoccurred": 8158,
      "Ġtemplate": 8159,
      "ĠMu": 8160,
      "essions": 8161,
      "Ġera": 8162,
      "Ġexperts": 8163,
      "ĠON": 8164,
      "Ġreaders": 8165,
      "ĠSpain": 8166,
      "entity": 8167,
      "ĠComput": 8168,
      "ulf": 8169,
      "Ġextent": 8170,
      ".'": 8171,
      "ĠRele": 8172,
      "syl": 8173,
      "gorithms": 8174,
      "Ġment": 8175,
      "_{(": 8176,
      "depend": 8177,
      "Ġfundamental": 8178,
      "Ġriver": 8179,
      "Ġtracks": 8180,
      "irms": 8181,
      "Ġpieces": 8182,
      "âĢĻ.": 8183,
      "ĠIT": 8184,
      "scal": 8185,
      "ĠControl": 8186,
      "1984": 8187,
      "VD": 8188,
      "Mr": 8189,
      "osophy": 8190,
      "footnote": 8191,
      "Ġmeasurements": 8192,
      "Ġpool": 8193,
      "ometric": 8194,
      "ĠEmp": 8195,
      "Ġorient": 8196,
      "Ġconfirm": 8197,
      "imation": 8198,
      "ĠTaylor": 8199,
      "inois": 8200,
      "ĠLocal": 8201,
      "Ġfavour": 8202,
      "ĠNon": 8203,
      "Ġfloat": 8204,
      "Ġdegrees": 8205,
      "Ġfra": 8206,
      "Ġprivacy": 8207,
      "ĠJersey": 8208,
      "Ġinstrument": 8209,
      "Ġinn": 8210,
      "Ġaccident": 8211,
      "AGE": 8212,
      "Ġlargely": 8213,
      "aked": 8214,
      "Ġcorner": 8215,
      "Ġlimits": 8216,
      "Ġconfidence": 8217,
      "ĠOhio": 8218,
      "world": 8219,
      "ĠStory": 8220,
      "ĠArray": 8221,
      "enth": 8222,
      "rant": 8223,
      "attice": 8224,
      "Ġsections": 8225,
      "ilation": 8226,
      "Ġgauge": 8227,
      "Ġcompre": 8228,
      "sol": 8229,
      "ceived": 8230,
      "prod": 8231,
      "ifer": 8232,
      "Ġdomestic": 8233,
      "Ġsounds": 8234,
      "Ġhaven": 8235,
      "ĠSeason": 8236,
      "ĠPhot": 8237,
      "Ġfinish": 8238,
      "burgh": 8239,
      "Ġinteractions": 8240,
      "prise": 8241,
      "ĠDou": 8242,
      "Ġemission": 8243,
      "aligned": 8244,
      "ĠFour": 8245,
      "ĠÂ·": 8246,
      "Ġreceiving": 8247,
      "WE": 8248,
      "Ġpayment": 8249,
      "Ġmort": 8250,
      "enter": 8251,
      "bool": 8252,
      "Ġeasier": 8253,
      "coin": 8254,
      "oplus": 8255,
      "ĠRay": 8256,
      "ographer": 8257,
      "ĠExecutive": 8258,
      "Ġkick": 8259,
      "Ġevaluation": 8260,
      "match": 8261,
      "Two": 8262,
      "ĠCase": 8263,
      "ĠWin": 8264,
      "Ġinternet": 8265,
      "Long": 8266,
      "Ġsinger": 8267,
      "mic": 8268,
      "Ġabsor": 8269,
      "{$": 8270,
      "PM": 8271,
      "Ġlit": 8272,
      "Ġgrew": 8273,
      "Ġafford": 8274,
      "ĠCirc": 8275,
      "ĠDar": 8276,
      "Ġrepeated": 8277,
      "Ġcookies": 8278,
      "1985": 8279,
      "Ġtransaction": 8280,
      "Ġordered": 8281,
      "?\"": 8282,
      "heast": 8283,
      "DR": 8284,
      "Ġphotos": 8285,
      "enses": 8286,
      "inate": 8287,
      "Ġexcited": 8288,
      "Ġindustrial": 8289,
      "ĠVideo": 8290,
      "ĠBern": 8291,
      "cf": 8292,
      "models": 8293,
      "subseteq": 8294,
      "Ġseconds": 8295,
      "ĠStan": 8296,
      "cases": 8297,
      "Ġmagazine": 8298,
      "Ġtor": 8299,
      "Ġtested": 8300,
      "Ġdepending": 8301,
      "ĠFred": 8302,
      "<\\": 8303,
      "ĠGi": 8304,
      "Ġfort": 8305,
      "Ġestate": 8306,
      "Ġdebate": 8307,
      "Ġtwice": 8308,
      "ĠAL": 8309,
      "omorphism": 8310,
      "Ġfighting": 8311,
      "Ġgreatest": 8312,
      "Ġdecade": 8313,
      "Ġattorney": 8314,
      "ĠKh": 8315,
      "orough": 8316,
      "Ġregime": 8317,
      "ĠKn": 8318,
      "asters": 8319,
      "Ġcorporate": 8320,
      "Ġparallel": 8321,
      "Ġnegot": 8322,
      "ego": 8323,
      "ĠRest": 8324,
      "ĠBrad": 8325,
      "'.": 8326,
      "Ġtopic": 8327,
      "ĠRom": 8328,
      "operation": 8329,
      "Ġroles": 8330,
      "Ġargs": 8331,
      "Header": 8332,
      "Ġpossibility": 8333,
      "ĠHom": 8334,
      "ounsel": 8335,
      "ĠCamb": 8336,
      "GE": 8337,
      "}},": 8338,
      "abil": 8339,
      "sylvania": 8340,
      "Ġvoc": 8341,
      "prene": 8342,
      "Ġevening": 8343,
      "ĠEngineering": 8344,
      "GA": 8345,
      "Ġtow": 8346,
      "Ob": 8347,
      "parse": 8348,
      "Ġregul": 8349,
      "Ġadopted": 8350,
      "ctx": 8351,
      "lik": 8352,
      "Ð»": 8353,
      "ĠSoft": 8354,
      "Offset": 8355,
      "Ġvideos": 8356,
      "vin": 8357,
      "Ġabsolute": 8358,
      "Ġsharing": 8359,
      "ĉĠ": 8360,
      "]);": 8361,
      "Ġreader": 8362,
      "ĠRen": 8363,
      "buffer": 8364,
      "ĠPrime": 8365,
      "Ġlicense": 8366,
      "exec": 8367,
      "raham": 8368,
      "Ġagents": 8369,
      "Ġtechnologies": 8370,
      "Ġreplace": 8371,
      "Ġspl": 8372,
      "rovers": 8373,
      "Ġcer": 8374,
      "ĠSwed": 8375,
      "Ġproved": 8376,
      "News": 8377,
      "ĠWatch": 8378,
      "nap": 8379,
      "AY": 8380,
      "Ġdress": 8381,
      "ĠLtd": 8382,
      "Level": 8383,
      "ĠNext": 8384,
      "Ġreaction": 8385,
      "Ġsuccessfully": 8386,
      "PH": 8387,
      "Ġinitially": 8388,
      "ĠBroad": 8389,
      "white": 8390,
      "ĠAssembly": 8391,
      "Author": 8392,
      "Ġgather": 8393,
      "Ġinstitution": 8394,
      "Ġmanage": 8395,
      "Tree": 8396,
      "reprene": 8397,
      "Ġindicates": 8398,
      "Ġtoken": 8399,
      "SM": 8400,
      "Thread": 8401,
      "ampion": 8402,
      "ĠTri": 8403,
      "umes": 8404,
      "ynchron": 8405,
      "ĠSus": 8406,
      "Ġmoments": 8407,
      "apore": 8408,
      "Ġsuc": 8409,
      "=-": 8410,
      "Control": 8411,
      "ela": 8412,
      "Ġstrategies": 8413,
      "ĠBang": 8414,
      "}}_{": 8415,
      "ĠSummer": 8416,
      "Ġoccurs": 8417,
      "Ġfish": 8418,
      "ruption": 8419,
      "ĠCovid": 8420,
      "Ġmatters": 8421,
      "fortunately": 8422,
      "Ġperman": 8423,
      "Ġconstraints": 8424,
      "plex": 8425,
      "kind": 8426,
      "Ġfeels": 8427,
      "Ġworse": 8428,
      "Ġven": 8429,
      "erves": 8430,
      "Ġfraction": 8431,
      "Ã³n": 8432,
      "ynamic": 8433,
      "Ġdelivered": 8434,
      "ĠTrue": 8435,
      "control": 8436,
      "Bundle": 8437,
      "ĠBul": 8438,
      "=(": 8439,
      "Ġproud": 8440,
      "isted": 8441,
      "ĠMarket": 8442,
      "anner": 8443,
      "Ġbringing": 8444,
      "redit": 8445,
      "Ġfamiliar": 8446,
      "ĠEth": 8447,
      "DC": 8448,
      "Ġsoul": 8449,
      "URE": 8450,
      "1950": 8451,
      "ĠWis": 8452,
      "Ġaccounts": 8453,
      "called": 8454,
      "ĠHa": 8455,
      "ĠThree": 8456,
      "allow": 8457,
      "Ġengineering": 8458,
      "La": 8459,
      "ĠOl": 8460,
      "Ġmir": 8461,
      "ĠName": 8462,
      "Ġbatter": 8463,
      "subfigure": 8464,
      "Ġintelligence": 8465,
      "cache": 8466,
      "Ġblocks": 8467,
      "ĠAssert": 8468,
      "Gen": 8469,
      "ĠWindows": 8470,
      "brid": 8471,
      "Ġ{}": 8472,
      "ĠSpec": 8473,
      "Ġelectronic": 8474,
      "ĠMah": 8475,
      "Dat": 8476,
      "Ġpal": 8477,
      "Ġwilling": 8478,
      "merce": 8479,
      "elli": 8480,
      "Ġchannels": 8481,
      "Ġfill": 8482,
      "Ġcapture": 8483,
      "Ġpenal": 8484,
      "Ġaccurate": 8485,
      "Ġloop": 8486,
      "_+": 8487,
      "ĠFox": 8488,
      "Ġsupports": 8489,
      "ĠKorea": 8490,
      "Ġlose": 8491,
      "ws": 8492,
      "Ġsymmetry": 8493,
      "ialize": 8494,
      "ez": 8495,
      "ello": 8496,
      "ila": 8497,
      "ĠUsing": 8498,
      "ĠWilson": 8499,
      "ĠFair": 8500,
      "Module": 8501,
      "Ġcas": 8502,
      "Ġcloser": 8503,
      "ERS": 8504,
      ")|": 8505,
      "Ġattribute": 8506,
      "Each": 8507,
      "Ġaudio": 8508,
      "ĠLu": 8509,
      "dest": 8510,
      "ĠOx": 8511,
      "bro": 8512,
      "iary": 8513,
      "person": 8514,
      "Ver": 8515,
      "Ġaid": 8516,
      "Ġconstructed": 8517,
      "Utils": 8518,
      "ĠCustom": 8519,
      "Ġcorrelation": 8520,
      "Ġsac": 8521,
      "Ġupdates": 8522,
      "ĠFull": 8523,
      "itled": 8524,
      "ĠKenn": 8525,
      "system": 8526,
      "_*": 8527,
      "Ġurban": 8528,
      ":\\": 8529,
      "Ġspending": 8530,
      "anna": 8531,
      "ĉĉĊ": 8532,
      "eah": 8533,
      "Ġliqu": 8534,
      "Ġrenew": 8535,
      "Ġspons": 8536,
      "ĠSir": 8537,
      "icial": 8538,
      "ITY": 8539,
      "Ġfilled": 8540,
      "ĠScotland": 8541,
      "Write": 8542,
      "Ġpray": 8543,
      "ĠDaily": 8544,
      "neg": 8545,
      "Ġsudden": 8546,
      "Ġpatterns": 8547,
      "amber": 8548,
      "Best": 8549,
      "Description": 8550,
      "Every": 8551,
      "Results": 8552,
      "ĠAsian": 8553,
      "Ġimplemented": 8554,
      "Ġinsert": 8555,
      "Ġcompute": 8556,
      "Ġdrugs": 8557,
      "avid": 8558,
      "*{": 8559,
      "ennis": 8560,
      "Ġassessment": 8561,
      "ĠThrough": 8562,
      "ĠSom": 8563,
      "Ġrent": 8564,
      "arc": 8565,
      "Ġsubset": 8566,
      "itivity": 8567,
      "Ġcolon": 8568,
      "connect": 8569,
      "ĠAnother": 8570,
      "Ġjudge": 8571,
      "Ġaccomp": 8572,
      "hensive": 8573,
      "Ġsucceed": 8574,
      "Callback": 8575,
      "Ġboost": 8576,
      "king": 8577,
      "ĠKent": 8578,
      "language": 8579,
      "ader": 8580,
      "hav": 8581,
      "Option": 8582,
      "ĠHard": 8583,
      "Ġ$|": 8584,
      "Range": 8585,
      "Ġrecognized": 8586,
      "lers": 8587,
      "Ġ\\;": 8588,
      "Ġhumans": 8589,
      "Ġversions": 8590,
      "Window": 8591,
      "Ġradius": 8592,
      "ĠCarl": 8593,
      "à¸": 8594,
      "ariable": 8595,
      "Ġpowers": 8596,
      "Ġhealthy": 8597,
      "doi": 8598,
      "Ġreporting": 8599,
      "GR": 8600,
      "Ġworst": 8601,
      ",\\,": 8602,
      "None": 8603,
      "Ġassumed": 8604,
      "Ġtrigger": 8605,
      "setminus": 8606,
      "awn": 8607,
      "styles": 8608,
      "Ã¨": 8609,
      "Ġelections": 8610,
      "ĠOnce": 8611,
      "Ġbroken": 8612,
      "ĠKong": 8613,
      "ĠGuard": 8614,
      "ĠHence": 8615,
      "definition": 8616,
      "Ġcircle": 8617,
      "wa": 8618,
      "fast": 8619,
      "Ġconsumer": 8620,
      "access": 8621,
      "Ġgar": 8622,
      "Ġpromote": 8623,
      "Su": 8624,
      "Ġstanding": 8625,
      "ipeline": 8626,
      "Ġconversation": 8627,
      "ffee": 8628,
      "ĠSaint": 8629,
      "Ġcaught": 8630,
      "Ġproducer": 8631,
      "Ġsand": 8632,
      "Ġearn": 8633,
      "ĠGreek": 8634,
      "Params": 8635,
      "Ġmarked": 8636,
      "Ġbutton": 8637,
      "Que": 8638,
      "Ġinvolving": 8639,
      "Ġ($\\": 8640,
      "pan": 8641,
      "Ġpassing": 8642,
      "Ġmand": 8643,
      "ĠAT": 8644,
      "ĠRegister": 8645,
      "pa": 8646,
      "ĠPrivacy": 8647,
      "Ġclosely": 8648,
      "Ġexplan": 8649,
      "NAME": 8650,
      "Ġvisible": 8651,
      "Ġgrid": 8652,
      "Ġassumption": 8653,
      "istant": 8654,
      "AF": 8655,
      "Ġing": 8656,
      "Ġrecovery": 8657,
      "ses": 8658,
      "ĠCre": 8659,
      "ĠWales": 8660,
      "Ġcart": 8661,
      "ĠEXP": 8662,
      "Ðº": 8663,
      "oute": 8664,
      "tic": 8665,
      "Ġseeking": 8666,
      "Ġasking": 8667,
      "ogether": 8668,
      "ĠHun": 8669,
      "Ġhonor": 8670,
      "Ġheav": 8671,
      "Click": 8672,
      "Ġdispl": 8673,
      "Ġfunctional": 8674,
      "MB": 8675,
      "101": 8676,
      "ificate": 8677,
      "umni": 8678,
      "Ġalbums": 8679,
      "Ġrecip": 8680,
      "ĠPay": 8681,
      "fold": 8682,
      "Ġeffectively": 8683,
      "Ġhonest": 8684,
      "Ġnut": 8685,
      "abet": 8686,
      "Before": 8687,
      "Ġmuseum": 8688,
      "Ġextend": 8689,
      "Ġprimarily": 8690,
      "Sum": 8691,
      "Tube": 8692,
      "Empty": 8693,
      "ĠLew": 8694,
      "icious": 8695,
      "aine": 8696,
      "ĠCook": 8697,
      "Ġongoing": 8698,
      "Ġdistingu": 8699,
      "%,": 8700,
      "Ġvertex": 8701,
      "Ġclassification": 8702,
      "Ġstatistics": 8703,
      "Ġrevenue": 8704,
      "ympt": 8705,
      "Ġwinner": 8706,
      "Ġreligion": 8707,
      "GC": 8708,
      "Ã§": 8709,
      "Section": 8710,
      "Ġsigns": 8711,
      "Json": 8712,
      "uid": 8713,
      "Ġpolynomial": 8714,
      "Ġexercise": 8715,
      "ĠLatin": 8716,
      "ĠStart": 8717,
      "Ġfindings": 8718,
      "media": 8719,
      "Ġvulner": 8720,
      "ordan": 8721,
      "Ġdescribes": 8722,
      "mo": 8723,
      "cohol": 8724,
      "Ġhundreds": 8725,
      "'),": 8726,
      "iner": 8727,
      "Ġton": 8728,
      "Ġsimulation": 8729,
      "ructions": 8730,
      "Ġunderst": 8731,
      "dagger": 8732,
      "Unit": 8733,
      "Ġworldwide": 8734,
      "Ġmodified": 8735,
      "Ġedges": 8736,
      "\\}": 8737,
      "Ġassociation": 8738,
      "endment": 8739,
      "Ġscored": 8740,
      "Previous": 8741,
      "estion": 8742,
      "ĠLy": 8743,
      "Ġattended": 8744,
      "Ġrecognition": 8745,
      "Ġsemi": 8746,
      "Ġarmy": 8747,
      "parameter": 8748,
      "Ġdoctor": 8749,
      "Ġcircumstances": 8750,
      "Another": 8751,
      "1983": 8752,
      "ĠMO": 8753,
      "ĠEst": 8754,
      "zero": 8755,
      "Ġdebt": 8756,
      "Ġzone": 8757,
      "IX": 8758,
      "Ġapproximation": 8759,
      "Ġmel": 8760,
      "ĠSher": 8761,
      "Ġserves": 8762,
      "pson": 8763,
      "fol": 8764,
      "tenance": 8765,
      "Ġagencies": 8766,
      "ĠSat": 8767,
      "Ġteachers": 8768,
      "ĠIllinois": 8769,
      "Ġsurrounding": 8770,
      "Î±": 8771,
      "ĠAdministration": 8772,
      "Ġresid": 8773,
      "ĠElizabeth": 8774,
      "DD": 8775,
      "Ġexposure": 8776,
      "Although": 8777,
      "Ġportion": 8778,
      "Ġsouthern": 8779,
      "ĠWhere": 8780,
      "Loc": 8781,
      "ĠJesus": 8782,
      "ĠRog": 8783,
      "Ġprotein": 8784,
      "Ġapplicable": 8785,
      "Change": 8786,
      "ĠPennsylvania": 8787,
      "rog": 8788,
      "lements": 8789,
      "je": 8790,
      "Ġdiverse": 8791,
      "rivial": 8792,
      "ownt": 8793,
      "global": 8794,
      "Ġprinciple": 8795,
      "Operation": 8796,
      "river": 8797,
      "ĠNav": 8798,
      "Record": 8799,
      "Ġlie": 8800,
      "ĠProm": 8801,
      "ĠEN": 8802,
      "Ġtherapy": 8803,
      "teen": 8804,
      "Ġstands": 8805,
      "Ġsolve": 8806,
      "success": 8807,
      "Ġsecondary": 8808,
      "Living": 8809,
      "ockey": 8810,
      "Entity": 8811,
      "vas": 8812,
      "Ġiron": 8813,
      "Ġputting": 8814,
      "Ġperforming": 8815,
      "................": 8816,
      "1982": 8817,
      "ĠKnow": 8818,
      "rat": 8819,
      "Ġinequality": 8820,
      "iy": 8821,
      "eness": 8822,
      "\"))": 8823,
      "oes": 8824,
      "ĠRight": 8825,
      "Ġpartial": 8826,
      "ĠAnth": 8827,
      "ĠSE": 8828,
      "classes": 8829,
      "ĠFinally": 8830,
      "Ġadults": 8831,
      "Ġnumerical": 8832,
      "ĠMajor": 8833,
      "Ġintegral": 8834,
      "Ġentity": 8835,
      "engers": 8836,
      "Ġtechnique": 8837,
      "ĠLabor": 8838,
      "Document": 8839,
      "isa": 8840,
      "uable": 8841,
      "ureau": 8842,
      "herent": 8843,
      "Ġstopped": 8844,
      "ĠCommon": 8845,
      "Ġobjective": 8846,
      "Ġprogramme": 8847,
      "ĠCorporation": 8848,
      "Ġmunicip": 8849,
      "suit": 8850,
      "Ġprofessor": 8851,
      "fields": 8852,
      "Ġecho": 8853,
      "yers": 8854,
      "ĠAsh": 8855,
      "World": 8856,
      "ORD": 8857,
      "Ġdecay": 8858,
      "BR": 8859,
      "Ġveter": 8860,
      "Ġathlet": 8861,
      "artifact": 8862,
      "urd": 8863,
      "ĠUkrain": 8864,
      "Ġwinter": 8865,
      "vard": 8866,
      "Ġ*)": 8867,
      "ga": 8868,
      "ĠBol": 8869,
      "Ġlinked": 8870,
      "ĠSuch": 8871,
      "Ġassets": 8872,
      "Ġdiscrim": 8873,
      "asi": 8874,
      "df": 8875,
      "Ġsimulations": 8876,
      "plicated": 8877,
      "Ġreasonable": 8878,
      "Ġcontrolled": 8879,
      "Ġtransmission": 8880,
      "Ġassistance": 8881,
      "Ġarms": 8882,
      "ellect": 8883,
      "shall": 8884,
      "Ġunderlying": 8885,
      "wedge": 8886,
      "ĠClin": 8887,
      "limits": 8888,
      "outs": 8889,
      "gers": 8890,
      "ĠAirport": 8891,
      "Ġcollaboration": 8892,
      "STR": 8893,
      "ĠCost": 8894,
      "Ġpersons": 8895,
      "wing": 8896,
      "Ġcontemporary": 8897,
      "Ġnorthern": 8898,
      "Position": 8899,
      "ipe": 8900,
      "oviet": 8901,
      "mode": 8902,
      "Reference": 8903,
      "Ġ::": 8904,
      "Ġhole": 8905,
      "Ġcampus": 8906,
      "Ġscientists": 8907,
      "Ġchapter": 8908,
      "achine": 8909,
      "Ġperturb": 8910,
      "ĠEastern": 8911,
      "ATA": 8912,
      "Ġpairs": 8913,
      "Vol": 8914,
      "files": 8915,
      "Ġpromin": 8916,
      "=\"../../../../../": 8917,
      "Ġguard": 8918,
      "Ġspeaking": 8919,
      "Where": 8920,
      "Ġarts": 8921,
      "Ġnarrow": 8922,
      "Ġbinary": 8923,
      "points": 8924,
      "Ġsky": 8925,
      "Ġhouses": 8926,
      "ket": 8927,
      "Ġswe": 8928,
      "Ġenhance": 8929,
      "ods": 8930,
      "Ġbounded": 8931,
      "Ġdecide": 8932,
      "hered": 8933,
      "^{-\\": 8934,
      "Ġpractical": 8935,
      "ĠFinal": 8936,
      "Ġlegislation": 8937,
      "Ġtight": 8938,
      "Ġscholar": 8939,
      "Ġcommitment": 8940,
      "worth": 8941,
      "ĠMinistry": 8942,
      "Ġgalaxies": 8943,
      "effect": 8944,
      "Ġalongside": 8945,
      "lights": 8946,
      "iro": 8947,
      "ĠNavy": 8948,
      "Ġalgorithms": 8949,
      "ĠLie": 8950,
      "pay": 8951,
      "Ġbodies": 8952,
      "fficients": 8953,
      "Ġappeal": 8954,
      "Ġthoughts": 8955,
      "Ġdual": 8956,
      "ĠStaff": 8957,
      "Ġtensor": 8958,
      "Ġexceed": 8959,
      "Pass": 8960,
      "cert": 8961,
      "_{{\\": 8962,
      "Ġcategories": 8963,
      "Step": 8964,
      "Ġrig": 8965,
      "Ġmeasurement": 8966,
      "ĠClark": 8967,
      "Ġearned": 8968,
      "ĠAdam": 8969,
      "Ġdrama": 8970,
      "Found": 8971,
      "Ġrestrictions": 8972,
      "ocks": 8973,
      "Ġreserved": 8974,
      "Ġsubt": 8975,
      "Height": 8976,
      ">,": 8977,
      "Ġcompens": 8978,
      "ACT": 8979,
      "rons": 8980,
      "ologist": 8981,
      "Ġpublication": 8982,
      "arters": 8983,
      "Ġrepresenting": 8984,
      "Ġstorm": 8985,
      "ĠSite": 8986,
      "Ġdro": 8987,
      "GET": 8988,
      "Well": 8989,
      "Ġminister": 8990,
      "Ġagric": 8991,
      "ĠPrince": 8992,
      "Ġped": 8993,
      "acket": 8994,
      "Ġcontainer": 8995,
      "Host": 8996,
      "ĠSP": 8997,
      "DT": 8998,
      "Ġfacts": 8999,
      "Ġ>=": 9000,
      "Ġmodes": 9001,
      "Ġexclud": 9002,
      "DL": 9003,
      "Settings": 9004,
      "Use": 9005,
      "holder": 9006,
      "Ġmal": 9007,
      "Ġaccompl": 9008,
      "bigg": 9009,
      "Ġdangerous": 9010,
      "nic": 9011,
      "Prot": 9012,
      "emon": 9013,
      "Ġinteger": 9014,
      "Ġassigned": 9015,
      "ĠVill": 9016,
      "ibilities": 9017,
      "Ġtruck": 9018,
      "Ġcoupling": 9019,
      "Ġposts": 9020,
      "ogene": 9021,
      "issue": 9022,
      "Ġultimately": 9023,
      "Ġopposite": 9024,
      "ĠMatt": 9025,
      "Ġschedule": 9026,
      "Ġeat": 9027,
      "=\"-": 9028,
      "ĠBlog": 9029,
      "ĠInstead": 9030,
      "ĠBell": 9031,
      "Ġhistoric": 9032,
      "ĠNC": 9033,
      "ĠSon": 9034,
      "window": 9035,
      "Ġbridge": 9036,
      "ĉĉĉĉĉĉĉ": 9037,
      "Ġunable": 9038,
      "ci": 9039,
      "Ġconvent": 9040,
      "ĠMake": 9041,
      "organ": 9042,
      "Ġextensive": 9043,
      "Ġ$[": 9044,
      "Ġnearby": 9045,
      "rine": 9046,
      "Ġparams": 9047,
      "ju": 9048,
      "Ġawards": 9049,
      "Ġforg": 9050,
      "ĠMic": 9051,
      "Ġprime": 9052,
      "1979": 9053,
      "Ġsymptoms": 9054,
      "RS": 9055,
      "Ġcorresponds": 9056,
      "sv": 9057,
      "Ġvirt": 9058,
      "Stud": 9059,
      "omy": 9060,
      "itals": 9061,
      "aws": 9062,
      "adelph": 9063,
      "Red": 9064,
      "device": 9065,
      "ĠPhoto": 9066,
      "CODE": 9067,
      "ĠSC": 9068,
      "Ġlegisl": 9069,
      "Ġnecessarily": 9070,
      "Second": 9071,
      "Ġgranted": 9072,
      "Ġfaster": 9073,
      "bu": 9074,
      "Ġlicens": 9075,
      "Ġdisk": 9076,
      "Ġalter": 9077,
      "low": 9078,
      "before": 9079,
      "ership": 9080,
      "128": 9081,
      "Ġec": 9082,
      "Ġgoods": 9083,
      "ĠException": 9084,
      "coll": 9085,
      "ĠMath": 9086,
      "oking": 9087,
      "full": 9088,
      "Ġwaves": 9089,
      "Ġstores": 9090,
      "Ġfiction": 9091,
      "idget": 9092,
      "ĠArea": 9093,
      "Ġweapons": 9094,
      "Ġpotentially": 9095,
      "Ġaccord": 9096,
      "forall": 9097,
      "Ġprovider": 9098,
      "types": 9099,
      "Connection": 9100,
      "Ġnewly": 9101,
      "Ġvictims": 9102,
      "Under": 9103,
      "Pop": 9104,
      "Ġadult": 9105,
      "stop": 9106,
      "adelphia": 9107,
      "msg": 9108,
      "ĠĠĠĠĠĠĠĠĠĠĠĠĠĠĠĠĠĠĠĠ": 9109,
      "Ġlayers": 9110,
      "Ġintegration": 9111,
      "acts": 9112,
      "Ġindicated": 9113,
      "hol": 9114,
      "Ġactors": 9115,
      "ĠOfficer": 9116,
      "Serial": 9117,
      "ĠCat": 9118,
      "send": 9119,
      "Ġbehaviour": 9120,
      "Ġregulations": 9121,
      "Ġfat": 9122,
      "ydney": 9123,
      "Most": 9124,
      "ĠAS": 9125,
      "cp": 9126,
      "ĠHas": 9127,
      "Ġeducational": 9128,
      "sex": 9129,
      "ĠRod": 9130,
      "Ġcharacteristics": 9131,
      "Ġmoves": 9132,
      "Ġlanguages": 9133,
      "Ġrelax": 9134,
      "ĠRon": 9135,
      "Ġteen": 9136,
      "ĠFinancial": 9137,
      "TA": 9138,
      "Ġbow": 9139,
      "END": 9140,
      "Hash": 9141,
      "ĠHong": 9142,
      "iversary": 9143,
      "strap": 9144,
      "Properties": 9145,
      "Ġinterval": 9146,
      "token": 9147,
      "Ġoverride": 9148,
      "Ġfacilit": 9149,
      "enum": 9150,
      "indu": 9151,
      "1981": 9152,
      "abb": 9153,
      "itative": 9154,
      "agues": 9155,
      "holders": 9156,
      "Ġwhereas": 9157,
      "ĠPalest": 9158,
      "hs": 9159,
      "Ġelev": 9160,
      "ulus": 9161,
      "ĠBon": 9162,
      "Ġmil": 9163,
      "Ġspoke": 9164,
      "ä¸": 9165,
      "),\\": 9166,
      "Ġdropped": 9167,
      "ori": 9168,
      "Ġmillions": 9169,
      "Ġpit": 9170,
      "quir": 9171,
      "Ġtalks": 9172,
      "equal": 9173,
      "ĠFord": 9174,
      "Ġstack": 9175,
      "Helper": 9176,
      "Ġincreasingly": 9177,
      "Ġvisitors": 9178,
      "Ġwelcome": 9179,
      "store": 9180,
      "Ġacid": 9181,
      "ĠColumbia": 9182,
      "UP": 9183,
      "Ġfeedback": 9184,
      "Ġfeaturing": 9185,
      "Only": 9186,
      "tml": 9187,
      "security": 9188,
      "Many": 9189,
      "255": 9190,
      "Ġinvestors": 9191,
      "ï¿": 9192,
      "heet": 9193,
      "aret": 9194,
      "Ġscenario": 9195,
      "Ġsevere": 9196,
      "Ġbands": 9197,
      "shop": 9198,
      "including": 9199,
      "ĠCP": 9200,
      "ĠToronto": 9201,
      "utils": 9202,
      "ĠAvenue": 9203,
      "pute": 9204,
      "Äģ": 9205,
      "yo": 9206,
      "\"=>": 9207,
      "ĠRh": 9208,
      "ĠHotel": 9209,
      "Ġexplo": 9210,
      "hash": 9211,
      "appoint": 9212,
      "Sing": 9213,
      "Ġimpossible": 9214,
      "Ġspatial": 9215,
      "Ġapi": 9216,
      "123": 9217,
      "Ġobserve": 9218,
      "ĠFOR": 9219,
      "ĠCountry": 9220,
      "Ġaxis": 9221,
      "Ġrestaurant": 9222,
      "Ġintegrated": 9223,
      "een": 9224,
      "Further": 9225,
      "_{-": 9226,
      "Http": 9227,
      "izz": 9228,
      "Ġsatisfies": 9229,
      "Dir": 9230,
      "Ġuncertainty": 9231,
      "Ġce": 9232,
      "Ġcovers": 9233,
      "Ġminute": 9234,
      "bind": 9235,
      "ĠDisney": 9236,
      "GO": 9237,
      "Ġwire": 9238,
      "ĠPhilipp": 9239,
      "make": 9240,
      "Ġmac": 9241,
      "Kind": 9242,
      "gov": 9243,
      "Ġscenes": 9244,
      "Ġcontrovers": 9245,
      "Ġimprovement": 9246,
      "ĠHollywood": 9247,
      "Ġtail": 9248,
      "ennes": 9249,
      "Ġseasons": 9250,
      "ĠFre": 9251,
      "Ġcompris": 9252,
      "Ġmob": 9253,
      "Ġrural": 9254,
      "Ġdecom": 9255,
      "Ġcapable": 9256,
      "Ġ|\\": 9257,
      "Ġevaluate": 9258,
      "Ġcle": 9259,
      "ĠDeath": 9260,
      "}%": 9261,
      "aya": 9262,
      "ĠAndroid": 9263,
      "eh": 9264,
      "Ġvast": 9265,
      "ĠUr": 9266,
      "Ġconsumers": 9267,
      "Ġshooting": 9268,
      "gments": 9269,
      "apol": 9270,
      "Ġconnections": 9271,
      "achment": 9272,
      "}}(\\": 9273,
      "Public": 9274,
      "Ġscheduled": 9275,
      "Ġbaby": 9276,
      "join": 9277,
      "opic": 9278,
      "ni": 9279,
      "ĠPubl": 9280,
      "endix": 9281,
      "ĠYes": 9282,
      ":(": 9283,
      "Ġcache": 9284,
      "ĠTurn": 9285,
      "Ġvertical": 9286,
      "COLOR": 9287,
      "ĠLO": 9288,
      "Ġimmediate": 9289,
      "Ġorganized": 9290,
      "Ġcraft": 9291,
      "ĠCru": 9292,
      "'\\": 9293,
      "ĠText": 9294,
      "Ġsuit": 9295,
      "ito": 9296,
      "%.": 9297,
      "ĠStephen": 9298,
      "sur": 9299,
      "Ġcomputed": 9300,
      "Eq": 9301,
      "stat": 9302,
      "ĠViet": 9303,
      "Phone": 9304,
      "160": 9305,
      "Ġrequests": 9306,
      "border": 9307,
      "ĠFac": 9308,
      "Ġsuperv": 9309,
      "Pres": 9310,
      ";->": 9311,
      "Please": 9312,
      "roc": 9313,
      "ĠSingapore": 9314,
      "Ġautomatically": 9315,
      "Ġarrested": 9316,
      "Ġdiam": 9317,
      "Christ": 9318,
      "ĠWel": 9319,
      "Ġprincipal": 9320,
      "Ġhun": 9321,
      "Ġdialog": 9322,
      "erate": 9323,
      "oured": 9324,
      "ĠMember": 9325,
      "Ġrisks": 9326,
      "Track": 9327,
      "session": 9328,
      "Ġyounger": 9329,
      "ĠCorn": 9330,
      "Ġforth": 9331,
      "Ġnob": 9332,
      "multi": 9333,
      "Ġbanks": 9334,
      "Ġtelling": 9335,
      "Ġinvestigate": 9336,
      "ĠProte": 9337,
      "Ġexplains": 9338,
      "nesota": 9339,
      "Ġsad": 9340,
      "Ġalloc": 9341,
      "ĠMir": 9342,
      "Ġreson": 9343,
      "ĠProposition": 9344,
      "andy": 9345,
      "Ġintroduction": 9346,
      "Ġabsolutely": 9347,
      "ĠBa": 9348,
      "Ġdollars": 9349,
      "Left": 9350,
      "Ġcontribute": 9351,
      "oor": 9352,
      "kes": 9353,
      "Ġquad": 9354,
      "Ġemployment": 9355,
      "Handle": 9356,
      "Ġamplit": 9357,
      "Oh": 9358,
      "Ġwear": 9359,
      "Ġminimal": 9360,
      "ĠEmpire": 9361,
      "Show": 9362,
      "ï¿½": 9363,
      "ghan": 9364,
      "olds": 9365,
      "Ġfly": 9366,
      "blue": 9367,
      "Ġfrequently": 9368,
      "Collection": 9369,
      "ootstrap": 9370,
      "Ġcycl": 9371,
      "imary": 9372,
      "ĠAI": 9373,
      "ĠCollection": 9374,
      "inating": 9375,
      "Store": 9376,
      "aml": 9377,
      "sor": 9378,
      "ĠPers": 9379,
      "Ġclar": 9380,
      "SN": 9381,
      "Ġcomedy": 9382,
      "hom": 9383,
      "ĠNFL": 9384,
      "Hz": 9385,
      "Ġaccommod": 9386,
      "Ġbasketball": 9387,
      "click": 9388,
      "ĠMill": 9389,
      "ICE": 9390,
      "Ġpregn": 9391,
      "Photo": 9392,
      "ultane": 9393,
      "High": 9394,
      "tra": 9395,
      "ĠUser": 9396,
      "Ġdivided": 9397,
      "ACE": 9398,
      "ĠNick": 9399,
      "():": 9400,
      "iration": 9401,
      "ĠCR": 9402,
      "fire": 9403,
      "Definition": 9404,
      "ĠAgency": 9405,
      "Ġemployee": 9406,
      "Di": 9407,
      "Ġwaste": 9408,
      "writer": 9409,
      "igrants": 9410,
      "Ġintent": 9411,
      "uri": 9412,
      "Ġdiversity": 9413,
      "Ġrobust": 9414,
      "Ġauthent": 9415,
      "Sw": 9416,
      "âĢī": 9417,
      "Ġfacing": 9418,
      "Ġhash": 9419,
      "aration": 9420,
      "foo": 9421,
      "ĠBru": 9422,
      "Ġsummary": 9423,
      "Ġ${": 9424,
      "Cap": 9425,
      "ĠStation": 9426,
      "Ġacquired": 9427,
      "Ġstret": 9428,
      "ilib": 9429,
      "defined": 9430,
      "Ġdrawn": 9431,
      "ipped": 9432,
      "Ġtack": 9433,
      "consin": 9434,
      "Intern": 9435,
      "letter": 9436,
      "Ġoutcome": 9437,
      "ĠDark": 9438,
      "Ġhealthcare": 9439,
      "Also": 9440,
      "ĠBefore": 9441,
      "ĠDemocrats": 9442,
      "Ġsubsequent": 9443,
      "Ġemotional": 9444,
      "Ġchallenging": 9445,
      "Async": 9446,
      "Ġdistributions": 9447,
      "Ġsole": 9448,
      "two": 9449,
      "Ġ\\(": 9450,
      "ollary": 9451,
      "internal": 9452,
      "Ġgift": 9453,
      "ĠObs": 9454,
      "ras": 9455,
      "esterday": 9456,
      "ĠTR": 9457,
      "Ġencounter": 9458,
      "Yes": 9459,
      "ANT": 9460,
      "ĠHou": 9461,
      "Ġinnovation": 9462,
      "icide": 9463,
      "profit": 9464,
      "ĠBBC": 9465,
      "^-": 9466,
      "Ġbrowser": 9467,
[...]
