#version: 0.2
Ġ Ġ
Ġ t
i n
ĠĠ ĠĠ
h e
Ġ a
o n
e r
r e
a t
Ġt he
e n
o r
s t
a l
a n
i t
a r
Ġ c
Ġ o
e d
i on
Ġ s
e s
i s
Ġ w
Ġ f
l e
Ġ p
Ġ in
i c
n d
Ġo f
in g
ĠĠ Ġ
r o
Ġ b
ĠĠĠĠ ĠĠĠĠ
a s
Ġ d
c t
e t
Ġa nd
Ġ m
en t
o u
e l
Ġt o
a m
i l
Ġ \
o m
Ġ re
i g
Ġ h
Ġ $
Ġ n
at ion
o l
Ġ S
Ġt h
a c
Ġ (
i d
i m
Ġ e
Ġ T
o t
Ġ l
Ġ C
u r
Ġ A
i v
u t
a d
s e
ĠĠĠĠ ĠĠĠ
Ġ is
u l
c e
Ġ =
Ġf or
o d
Ġ g
Ġ M
a g
e m
o w
i f
ĉ ĉ
c h
u n
a y
a b
u m
Ġ I
u s
l y
< /
Ġ st
Ġ on
v er
q u
i st
i r
Ġb e
Ġ P
a p
{ \
Ġ B
it h
= "
č Ċ
t h
at e
t er
2 0
Ġc on
) ;
Ġ v
p e
Ġa s
er s
â Ģ
o c
Ġ H
ct ion
- -
e x
Ġth at
r i
en d
h t
Ġ R
Ġ {
Ġ <
an d
1 9
Ġ F
Ġw ith
Ġ D
a v
Ġ L
as s
re s
Ġa l
ĠT he
o p
he r
u b
Ġp ro
ĠĠĠĠĠĠĠĠ ĠĠĠ
at h
a in
e st
Ġ N
Ġa n
u p
Ġw as
e w
es s
o s
Ġb y
e g
Ġ W
Ġ G
t r
am e
_ {
e f
Ġ "
it y
/ /
ro m
p t
Ġ E
Ġ *
or t
Ġw h
ar t
Ġ Ċ
u e
Ġc om
Ġe x
Ġa t
p l
ou r
Ġ r
in e
o re
Ġc l
Ġ$ \
al l
Ġ }
Ġ it
Ġ &
ag e
ig ht
e ct
e c
u re
i es
m ent
" >
Ġ or
Ġf rom
n t
i al
il l
re f
Ġa re
m ath
Ġ J
i z
a k
u d
Ġ O
ex t
g e
an t
o g
iv e
ĠĠĠĠĠĠĠĠ ĠĠĠĠĠĠĠĠ
e p
Ġ he
c l
ul t
an s
ac k
b er
Ġth is
l d
p er
ĠĠĠĠ Ġ
Ġw e
ur n
Ġt r
( )
Ġ U
0 0
p ort
or m
at ed
} \
it e
s p
ar y
a st
' s
T he
. .
p h
i p
} $
ar d
* *
u nd
ic h
Ġc h
^ {
a ct
in t
st r
o v
Ġcl ass
ab le
Ġ y
ig n
el l
a re
f f
it ion
c on
Ġ K
Ġs e
Ġs h
m a
or d
) ,
20 1
ic al
l i
Ġn ot
ac e
Ġ -
I n
i a
t urn
i re
y pe
f t
Ġ if
an g
Ġ le
od e
p ro
av e
u g
ĠI n
as e
on g
= =
Ġ k
e v
Ġp l
-- --
g et
o st
Ġcom p
in d
t o
Ġ '
} }
f r
i an
im e
t ext
en s
ou t
i le
) .
c om
( \
or k
âĢ ĵ
t a
ation s
Ġ V
u st
il d
Ġwh ich
id e
at a
c al
c c
ic e
ion s
eg in
ub l
Ġre s
en ce
er v
b egin
s o
e y
ĠS t
en c
Ġ us
d u
Ġ |
ĠĠĠĠĠĠĠĠ ĠĠĠĠĠĠĠ
Ġw he
Ġ un
j ect
o k
e ar
20 0
e qu
Ġc an
r a
i b
t her
Ġh is
f orm
) $
or y
Ġh ave
l ow
_ {\
an ce
Ġa r
Ġ j
un ction
Ġh as
Ġa p
Ġa d
en er
ac h
Ġre turn
Ġ +
âĢ Ļ
Ġ im
er e
ro w
al ue
Ġcon t
ou s
ĠC h
o ver
} {
ab el
ĉĉ ĉĉ
is h
ubl ic
Ġ //
} ,
o b
ou ld
Ġ [
u se
f ig
1 8
res s
c ri
on d
Ġ </
m er
Ġa b
Ġn ew
oc k
- >
r ight
ent s
ir st
our ce
e q
ow n
Ġal so
ĠT h
: :
.. /
f er
ar am
ou nd
ou nt
s et
a il
fr ac
re e
er t
ic t
cl ud
C on
er m
1 0
t he
Ġw ere
ol d
p le
" ,
i el
r m
at es
iz e
or s
Ġp art
l l
S t
Ġst r
r it
ter n
Ġal l
c he
u al
Ġs u
o se
Ġon e
el f
ul l
p s
ar k
Ġd e
w o
iel d
d iv
E x
l abel
Ġd ef
in al
t e
in k
Ġd is
Ġ @
on e
r y
om e
s s
w e
r ap
b ut
m l
pt ion
math b
Ġo b
Ġs p
Ġ| |
el y
od el
Ġs et
Ġp r
Ġf unction
ic s
Ġ ro
( "
c ite
ĠU n
p ut
ess age
Ġb ut
Ġ /
o int
le ct
pe ct
Ġin t
s h
Ġf irst
n g
( );
r ay
Ġe v
Ġ qu
Ġo ut
sp an
et h
i k
$ ,
le ft
o ol
y st
Ġthe ir
$ .
> </
Ġ Y
, \
s um
l ine
i ew
Ġ .
Ġit s
et a
ĠH e
i x
ĠI t
ar i
Ġp er
ation al
ro up
Ġm e
equ ation
' ,
f ter
} )
p r
l es
Ġo ther
Ġ up
ic k
c k
} .
math cal
Ġp re
pe c
ing s
> <
he d
at er
Ġt wo
Ġw ill
19 9
l o
yst em
a w
Ġd o
m b
Ġp ublic
tr ing
---- ----
um ber
Ġn ame
Ġh ad
Ġo ver
n e
en g
Ġpl ay
c ent
Ġ âĢ
Ġd es
is s
i ed
1 2
am b
Ġm an
Ġc ol
ak e
a x
Ġa g
ri but
er r
Ġw ork
../ ../
Ġ :
Ġwh o
at or
Ġin ter
ul ar
} (
Ġt ime
Ġt e
ĉĉ ĉ
Ġ âĢĵ
t y
** **
p os
c ol
c re
o ot
i o
} ^
ig h
rap h
Ġbe en
} _
u ct
~ \
ar g
o f
o ok
ph a
Ġ* /
) )
im es
Ġ ver
on s
o id
Ġm ore
at ive
== ==
ol low
ht ml
n ame
P ro
enc es
r am
m s
d a
Ġh ref
Ġ und
i e
Ġcom m
Ġs ub
Ġthe y
l ation
if ic
Ġres ult
Ġy ou
as ed
Ġy ear
ĠĠĠĠĠĠĠĠ ĠĠĠĠĠĠĠĠĠĠĠ
em ber
al pha
o x
ĠĠĠĠĠĠĠĠ Ġ
1 6
on t
an c
ap p
ro und
Ġre g
Ġg et
l and
t t
Ġtr ans
op le
( '
s ub
it ed
an n
Ġwhe n
eth od
le ment
s ource
Ġl ine
Ġn e
am es
Ġs up
tr ans
Ġin clud
i ent
m essage
Ġon ly
or n
Ġs o
th is
Ġwhe re
Ġb et
ad e
at ic
E R
Ġ her
res ent
ov e
Ġd ata
an ge
al s
ĠTh is
Ġp e
1 5
y s
Ġf il
Ġf ollow
ar ch
ic an
ug h
t ain
ou n
Ġcon s
Ġin to
Ġfor m
le t
) \
id th
el ta
Ġs c
N ame
Ġad d
Ġt ype
re d
w ard
u ild
am p
h o
cri pt
Ġd if
R ef
amb da
er n
t d
Ġv alue
Ġsu ch
Ġthe re
Ġ en
iv ers
Ġp os
d ef
e b
Ġl oc
u es
y n
ĠC om
d er
at ing
ou g
1 7
Ġ _
id ent
Ġas s
$ \
in ce
Ġ #
Ġ end
im port
T ype
ar s
Ġund er
O N
Ġre l
Ġ= >
it ies
Ġd ist
t on
Ġan y
Ġth an
h at
Ġa ct
is e
19 8
Ġ i
Ġpro v
Ġa cc
Ġthe n
Ġre c
am ma
Ġg ener
p aram
Ġc o
ĠA r
c ed
Ġm odel
Ġof f
we en
I d
m in
I N
ol og
Ġcon st
ur ing
Ġd ec
al se
ur re
d d
Ġp ol
_ \
âĢ Ŀ
ire ct
Ġin d
e e
in ed
ab l
at ch
b ar
1 1
Ġa fter
id er
S tring
m u
ĠN ew
o y
it s
C om
Ġ\ \
Ġg o
is hed
ay s
l ock
ist s
il ity
u res
ot h
Ġk n
= \
Ġab out
2 1
Ġs ome
er y
Ġw ould
ig ma
d ot
s on
at ure
} _{
Ġus ed
mathb b
/ >
ĠA l
Ġbet ween
Ġin v
Ġs ec
re turn
Ġre qu
c ess
t s
as h
Ġn o
Ġs im
ib le
Ġat t
ut ion
Ġp h
ĠP ro
Ġ use
Ġsh ow
em ent
} ^{
c ode
an k
Ġs pec
s c
it em
Ref er
or ld
p i
cl ass
is ion
Ġo p
eg a
tern al
al ign
Ġ el
1 4
- \
C h
T h
1 3
Ġ x
" />
Ġre m
p on
Ġn umber
il y
Ġs elf
re n
le ction
Ġs erv
ĠA mer
Ġbe c
ad d
as k
se ction
w n
pl ic
Ġo ur
R es
Ġdif fer
Ġc all
Ġpe ople
n ot
Ġst ud
ac he
Ġpro du
trans lation
Ġc ase
y m
: //
it le
b le
r ic
Ġe qu
Ġs he
19 7
v ar
al ly
ph i
S T
b f
ch ool
2 5
ep end
ĠW e
urre nt
iz ed
ar n
ro ugh
Ġc or
R E
y le
a ir
# #
a ult
i er
Ġe st
Ġ !
Ġ {\
^ {\
Ġin st
L ist
l ambda
Ġd et
v e
Ġ ent
Ġf e
e ad
ut h
v ent
Refer ences
an y
in es
ow er
Ġs ystem
Ġ `
in s
Ġg iv
Ġm ay
t ype
i ous
Ġd ev
Ġe ach
ag es
re ad
um ent
l oc
e ver
Ġg r
oc i
Ġv al
Ġ Q
r u
C l
ce ption
Ġthe se
at t
Ġc re
ĠâĢ ľ
Ġm ost
Ġa c
ap t
A T
Ġch ar
g an
h ip
m an
b all
as on
Ġ Z
Ġp oint
2 2
f or
mathb f
ĠS e
us s
a ction
v al
3 0
_ _
a use
ĠF or
p art
ic es
Ġo per
ivers ity
o h
am ple
f o
Ġ= =
A r
ht t
oug h
Ġb ack
m all
Ġe ff
Ġ ed
iz ation
Ġn ull
b ack
Ġv ar
s er
Ġ )
iv ate
Ġth rough
et er
o le
eng th
a z
il on
ment s
Ġs ign
19 6
Ġc ent
Ġv oid
Ġst ate
Ġre p
it t
a id
l og
Ġthe m
Ġf ound
b r
Ġa m
Ġ >
s igma
um n
Ġv ari
Ġg roup
Ġf ield
ĠS h
A R
ar ray
s erv
ang le
ĠC on
ik e
v el
ut e
"> <
Ġs er
Ġw ell
Ġf inal
Ġs ol
y p
) :
is m
T r
Ġ err
he n
s elf
ĠA s
Ġs ame
} {\
or g
iv er
a h
ire d
c es
Ġyear s
00 0
Ġex p
b eta
I D
w idth
ild e
I t
ur y
Ġt est
he re
if e
Ġm in
O R
n er
^{ -
Ġ( \
Ġ --
Ġag ain
g y
Ġf alse
ĠC ol
Ġtr ue
ĠĠĠĠĠĠĠĠĠĠĠĠĠĠĠĠ ĠĠĠĠĠĠĠĠĠĠĠĠĠĠĠĠ
ot t
\ \
Ġm od
or th
Ġap pro
5 0
el op
ĠC l
Ġe m
a j
Ġex t
ot e
u c
p re
Ġm ethod
ou th
Ġf l
" )
ou se
math rm
v iew
w ork
W e
L E
over n
Ġn on
ĠI nd
s ion
od y
Ġdiffer ent
Ġus ing
per ty
ĠĠĠĠĠĠĠĠ ĠĠĠĠĠ
al e
ep s
ĠT r
Ġs ing
T o
Ġ X
b y
Ġth ree
" );
ion al
Ġh im
Ġl ink
u le
Ġsec ond
Ġb oth
b e
r r
f l
ical ly
Ġpart ic
g amma
w ay
ĠAmer ican
r on
ĠA n
Ġm on
et s
Ġfollow ing
Ġwh ile
S S
Ġp aram
ĠĠĠĠ ĠĠ
op t
C ol
Ġm at
con t
re at
ar get
+ \
Ġst art
* }
ow ever
Ġd irect
ce pt
cc ess
ers on
Ġor der
Ġh igh
**** ****
str ing
Ã ©
-------- --------
Ġgiv en
f ore
^ \
Ġt erm
Ġd uring
Ġs ur
] {
2 4
in clud
d ata
are d
the ta
b ject
c o
m e
av a
ĠUn iversity
fig ure
Ġl ist
n ew
t en
r ho
e le
Ġ id
Ġle ad
ir c
Ġl ong
3 2
t il
V alue
) }
ar ly
E N
Ġper form
Ġf am
d elta
b ers
g er
if ied
iv ed
Ġbe ing
Ġel se
pl ay
ant s
u ch
enc y
D ata
ro p
ĠUn ited
ĠĠĠĠĠĠĠĠĠĠĠĠĠĠĠĠ ĠĠĠĠĠĠĠ
k ey
ta u
Ġar t
u ff
19 4
. ,
k e
as es
r al
Ġb r
at her
Ġe ver
n b
ur al
c dot
Ġman y
ot her
ĠE x
ition s
v alue
Ġre le
f ul
Ġ z
A L
le q
s y
ro ss
$ -
str uct
if y
Ġm ade
form ation
se c
ar row
Ġf act
f ace
ul ation
' )
ra w
Ġcons ider
b ig
ĠF r
re am
Ġstr ing
are nt
ect or
ro ll
F or
Ġne ed
ist er
Ġdis c
Ġte am
Ġr ight
ain s
Ġbe fore
. "
ist ory
Ġw rit
s cript
Ġm ed
p x
Ġdes cri
g ram
tr y
Ġsh ould
ĠL e
Ġr un
p m
ro l
re qu
ent ial
}$ .
Ġm ain
Ġob ject
}$ ,
d ate
l er
al ity
w w
2 3
Ġo pt
ord er
ĠS c
nb sp
eq ref
S et
U n
iv ely
Ġ& &
} (\
t imes
ĠD e
m ed
Ġb el
in a
at us
l ed
ar ge
f ile
] ;
iss ion
re g
loc ation
Ġse e
// //
O n
an e
p ar
Â ł
ot s
==== ====
Ġp op
us ic
1 00
olog y
Ġdev elop
qu ad
Ġsup port
cent er
sp ace
ro id
en se
E n
ain ing
t est
) );
a f
Ġ/ **
Ġf in
Ġn ow
Ġc urrent
Ġl ike
a u
ĠE ng
m p
ĠI s
part ial
et work
Ġcont in
oh n
ak ing
Ġm em
m od
Ġpr ivate
( $
qu e
d is
in ter
Ġb uild
A s
Ġd r
Ġs aid
Ġpro cess
it ial
ch i
s ize
o ber
in n
Ġap p
Ġj ust
o ad
col or
ri x
oot ball
Ġc ould
g round
f ield
n u
iv es
E rr
Ġstr uct
Ġor ig
Ġs mall
l ob
] ,
et ers
Ġm ov
Ġs ince
t ing
ect ed
ual ly
Ġk ey
m ary
Ex ception
ĠO n
Ġst atic
ic a
Ġrec ord
o od
Ġim port
he ck
iv ing
ab ility
Ġbec ause
le x
Ġo wn
S E
Ġlink s
he ad
en n
om en
re m
Ġeff ect
u str
B y
Ġh and
ĠCom m
Ġkn own
Ġap pe
ft y
t ilde
D E
om ega
Ġ u
ist r
in fty
t ime
19 5
ction s
p p
ĠS he
Ġinclud ing
Con t
Ġloc al
C T
ĠSt ates
Ġre sp
Ġwh at
i or
Ġre ad
Ġ %
ĠĠ Ċ
Ġresult s
T est
Ġrep resent
Ġf our
Ġt itle
| \
mb ol
Ġex per
ac es
com m
I nd
ĠĠĠĠ Ċ
" .
Ġ// /
Ġb ro
I T
O bject
el s
Ex ternal
Ġever y
Ġl ater
A N
r c
Ġ$ (
Ġcon d
ĠS tring
l ack
() .
og raph
ch n
t op
.. .
Ġar g
t able
D elta
Ġfil m
res p
eq n
4 0
g r
Ġp ass
Ġ ,
Ġe lement
p or
ver t
un e
Ġdo es
ar ri
P h
ag er
p ace
Ġplay ers
Ġg u
Ġ! =
ĉĉĉĉ ĉ
um er
Ġp resent
s k
2 6
oc ument
ĠP h
l ay
l ink
b um
f unction
Ġm et
3 3
lect ed
uth or
Ġl ast
lo ad
Ġs chool
Th is
Ġex pect
ĠI f
le y
r ite
G et
os s
2 7
ĠP r
() );
s q
Ġto p
it al
Ġf ind
Ġop en
g or
v ious
x i
ter s
Ġt em
j s
i ence
l p
Ġev ent
Ġp res
Ġs ize
ind ow
m et
M E
Ġm ult
Ġb o
Ġagain st
Ġob tain
Ġm ake
w here
Ġch ild
Ġa v
ag n
2 8
Ġin cre
p ublic
Ġg overn
ar m
A n
K ey
I m
ind ex
c it
act er
Ġb ased
Err or
A l
ain ed
Ġver y
ur l
ang u
r t
us h
ut il
Ġb ound
b ed
C O
Ġan al
l ist
Ġal low
n av
id ed
S h
V iew
ĠM ar
a i
Ġre ce
ore m
th s
u ro
Ġc oun
al th
ount y
tern ational
ĠJ ohn
Ġcall ed
Ġser ies
iv al
. _
"> </
Cl ass
\ ,
} [
ĠA nd
Ġse ason
ag ue
in c
} ;
t ab
ir d
port s
Ġpos s
ĠB r
' t
re ak
Ġle ft
Ġdist ribut
at s
Ġev en
Ġre fer
ĠM ay
Ġth ose
Ġcomm un
id es
Ġp ar
Ġl arge
t ies
Ġf r
ĠR es
g o
l ess
ĠO r
e k
" ;
n ess
Ġor g
id d
Ġest abl
an u
Ġre f
6 4
Ġl im
cal e
[ '
erv ice
ad i
v en
Ġd id
le m
it ive
ur ch
Ġdes ign
)$ .
it er
Ġse ver
Ġme as
ĠN ational
ur ation
our n
Ġob serv
htt p
Ġhe ad
ĠW orld
ol ution
. </
Ġpro ble
ur s
o ff
Ġd ep
2 9
Ġh ow
ific ation
b o
g roup
} }\
Ġfam ily
re t
se arch
s im
ap e
$ $
Ġf ile
pos ition
ĠS p
c m
Ġbe com
et y
tr act
Ġgener al
201 6
resp ond
is ed
s ide
orm al
ur ther
Ġle t
Ġpro gram
Ġ čĊ
en e
i am
Ġw orld
Ġval ues
Ġm y
] .
Ġres pect
b s
! --
d ay
201 7
ens ion
Ġw ay
ĠA d
ol v
Ġal bum
p ath
Ġm ass
Ġin formation
in ess
201 5
Ġle vel
Ġv is
A C
201 8
Ġy our
Ġc are
ĠC an
Ġa ut
od es
ĠY ork
ribut e
Ġsp ace
' );
in ation
op y
20 20
am ed
f in
Ġ ident
=" +
ition al
it or
Ġf ootball
ress ion
sum mary
end ed
ĠA ss
R equ
is on
O m
ener gy
ro du
if t
Ġbec ame
ps i
qu ot
n o
aj or
Ġst and
o pe
Ġt ri
eps ilon
le ar
am pl
Ġsing le
=" ../../
al k
Ġre al
ĠG r
Ġl aw
Ġo cc
201 0
ak es
Ġm ust
201 4
che d
w h
b ox
Ġerr or
ack age
S e
() ,
} _{\
L L
ĠA t
Ġun til
H e
Ġl ife
con st
at ely
6 0
20 19
I nt
F ile
' ]
c apt
Ġex pl
f il
ĠJ ul
i od
Ġwith in
ĠC ar
r ist
Ġpol it
v ir
un c
ĠC ent
ĠB rit
at ors
ĠS chool
end s
ĠâĢ Ķ
se e
Ġm ark
Ġor gan
Ġan n
Om ega
Ġp ower
Ġd ue
ward s
raph ics
us er
Ġorig inal
ord s
ord ing
eqn array
ĠW ar
cri ption
text bf
ast er
om et
Ġt yp
^ *
ĠN ov
Ġkn ow
Ġc ap
ain t
G amma
N ot
ĠF ig
che s
T ext
ict ion
T ime
w ith
Ġb ir
i ans
er o
pon se
" :
our ces
Ġc r
l im
Ġ\ ,
D ef
Ġex ample
201 1
201 3
Ġd own
anc es
f ess
201 2
Ġm ap
anu ary
Ġsever al
ac y
lob al
ĠG e
d es
Ġb u
uff er
Ġa round
Ġare a
Ġp erson
)$ ,
l ing
m at
il ar
du ct
n ode
angu age
Ġas sum
Ġpro ject
I C
ĠW est
Ġn ear
Ġt ext
8 0
Ġal ong
R O
Ġg ame
ĠH owever
ore d
Ġb ook
Ġpl ace
s l
Ġde ath
i j
Ġn ext
com p
d t
sq rt
ustr al
us iness
ĠC ounty
20 21
I ON
M an
Ġs um
ĠP l
str u
ĠS outh
Ġ ?
m ap
ĠW h
Ġoff ic
Ġcor respond
av ing
Ġt arget
am ent
pl oy
Ġint eg
per ties
3 5
em pt
Ġs ong
capt ion
Q u
Ġc our
ĠA ug
ps ilon
Ġc al
on y
E vent
Ġm usic
Ġin itial
ĠP ol
Ġsu ccess
Ġrequ est
T E
plic ation
ri es
L A
sub section
ap er
Ġst yle
ma x
Ġpro t
Ġm uch
P E
Ġst ill
Ġ );
Ġm ax
l ength
Ġto t
Ġs l
pos ed
ĠG erm
ĠThe y
Ġ/ >
pt ember
m odel
St ate
Ġn etwork
N ode
` `
^{ (
A dd
Ġl og
In fo
E lement
W ith
ĠA ll
Ġab ove
epend ent
Ġd i
ix ed
Ġv iew
ist or
ĠO ct
Ġver sion
Ġest im
Ġp ost
ĠJ anuary
s w
It em
Ġhe lp
he s
Ġ energy
Ġass ert
Ġp ath
re l
ill ion
le ge
il t
D es
ĠR e
u ed
Ġc ount
Ġe lect
m ber
a it
ĠR ep
Ġth row
b old
iv ity
200 8
ĠM arch
F ield
Ġ$ {\
om an
Ġl arg
op er
3 4
i um
Ġd em
a im
pr il
u ck
s up
at ures
O r
u k
200 9
og le
/ **
p ed
ames pace
ĠP ar
| -
n on
P aram
ĠSt ate
im al
nd er
Ġis s
F orm
v are
oc us
9 0
ef f
Ġchar acter
P ath
gor ith
Requ est
l in
T R
htt ps
Ġp at
ole an
Ġre port
Ġpartic ular
Ġbe h
ĠR eg
m y
p oint
at ter
ug g
pl it
ic on
Ġb as
Ġo ld
Ġd en
ĠAug ust
Ġt ake
M ap
res ult
ert ain
Ind ex
ĠC al
ul es
A P
Ġp ubl
ĠM an
Ġpre vious
l ish
() )
uro pe
R e
Ġch ang
/ *
ĠSe ptember
ĠĠĠĠĠĠĠĠĠĠĠĠĠĠĠĠ ĠĠĠĠĠĠĠĠĠĠĠ
' :
vare psilon
le g
a us
Ġd om
Ġwith out
}^ {\
Ġhe re
Ġst at
Ġinclud e
ail s
Ġ-- >
ac ed
f rom
r angle
oc ial
Con text
Ġn ode
a e
Ġex ist
Ġte chn
il it
Ġcont ent
con fig
her n
Ġdef ined
Ġse ction
in ition
st ance
ĠJ une
200 7
} =
ce mber
Ġle g
E qu
Ġgovern ment
ĠOct ober
Ġmeas ure
includ eg
Ġcomp ut
includeg raphics
Ġinter est
amp ions
st yle
a ut
3 1
O ver
ĠG u
Ġfor mer
right arrow
st it
Ġe arly
ail able
ust om
Ġass oci
Ġs at
Ġb lock
Ġpos ition
ens ure
Ġbe st
sy mbol
Ġtot al
v oid
ur g
le v
im ent
ĠJul y
i que
' '
Ġad v
b ody
pon ent
ar r
Ġ eng
ĠA ustral
ĠA pril
yn am
ĠU S
un g
. âĢĿ
) =
Ġsh ort
Con fig
Ġb and
Ġb ase
r ide
ver s
3 9
em ph
ic y
ĠY ou
ic le
ĠI I
3 6
F il
d om
3 7
4 5
Ġmem bers
Ġsim ilar
ap i
h old
ĠB e
Ġin put
al es
ib r
200 6
Ġc ity
ial ly
Ġw on
Ġc rit
' ;
ĠN orth
Ġan other
Ġar ray
tr ue
u x
um an
ab les
ide o
c or
in put
ĠC o
Ġ( !
Ġd el
Res ult
ple ment
stru ction
d e
Ġre t
ĠC ity
ĠE n
S ervice
Ġle arn
b m
Ġper iod
Ġd epend
b lock
ĠS ec
Ġrele ased
err or
Ġpoint s
F F
Ġh ig
= '
Ġm ajor
ĠT e
c ast
A S
Ġdet erm
Ġs k
z e
Ġplay ed
Ġus er
ĠNov ember
st ate
Ġh old
ĠS ystem
Ġd iv
en u
ate g
ob ject
se mb
Ġ} );
ref ore
Ar ray
ou ble
Ġcomp let
ff ic
p ose
9 9
p en
ap ache
Ġa ff
m m
Ġd er
Ġh ome
Ġc ur
ver sion
Ġl and
Ġw omen
w are
t itle
Ġgo od
u i
tt p
Ġc heck
ist ic
ĠDe cember
ĠE urope
ent ion
Ġd ay
A ll
v ec
b it
ĠB y
ĠE d
Ġserv ice
it her
Ġre du
3 8
x im
se qu
Ġg re
U R
ign ed
im um
ens ity
Ġint rodu
Ġdef ault
Ġcl os
d own
vir on
ĠM in
Ġmodel s
ott om
w ord
w ays
A tt
Ġ enc
n ing
Ġ/ *
ge q
ys is
) (
u f
b orn
Ġsh own
Ġqu ant
Ġl ow
B ig
ad a
Ġl a
ur ity
Ġs pe
Ġproble m
S ee
ĠW ill
Ġcon text
. ~\
pl ate
7 5
ĠS up
Ġc ode
ĠT o
ess ion
var phi
Ġp o
S ize
Ġ et
ne ction
Ġpro b
Ġa ction
******** ********
end er
Ġc ar
ĠN o
ra ft
Ġstud y
pro of
ĠBrit ish
ard s
Ġw ant
Ġterm s
Com m
m ult
um e
I s
Ġch ange
20 00
Ġl ook
ater ial
Ġs ource
. }
et urn
Ġin s
Ġc over
eb ru
A D
Tr ans
+ +
Ġinv est
Ġ} ,
h am
" "
and om
ebru ary
Ġcre ate
m d
& \
Ġfollow s
19 0
## ##
B uild
ĠCh rist
P l
Ġm ember
Ġf ull
[ \
re c
ail ed
L O
c er
C ode
[ ]
Ġr ange
ag s
ograph y
in o
ap an
Ġpro m
b l
al f
pro v
o in
Ġcomp any
Ġcomp on
over line
l or
Ġcon fig
w it
c ul
id ual
Ġimport ant
ĠP art
ĠThe re
ann el
Ġd at
F rom
w id
Ġd eg
Ġcomp et
Ġ: =
Ġind ex
Ġshow s
H and
abl ed
ĠK ing
Ġcom b
th ough
U T
lo at
er ing
Ã ¡
Ġh istory
Ġv ol
Ġposs ible
ag ed
Ġreg ion
="../../ ../../
Ġdescri bed
Ġstruct ure
) ^
ol l
Ġme an
or ph
c all
Ġ es
Ġ( $
} ).
n ext
Ġinst ance
yn c
7 0
Ġst ates
I S
}, \
Ġpro perty
os p
Ġro le
Ġch o
Ġcont rol
cre ate
Ġs ide
bold symbol
Ġdisc uss
Ġt imes
con om
Ġre st
.. ..
Ġa uthor
M P
M essage
Ġs pect
ĠA b
Ġ( )
h line
Ġcare er
Ġim p
ĠM ed
ym met
Ġpre d
t n
c her
O f
d f
an a
ĠLe ague
Ġtr y
st and
if f
k en
R ec
ud e
Ġp ot
ight s
in ary
um p
Ġchild ren
V al
Ġb l
ip le
ed er
Ġstr ong
st er
ad em
ww w
Ġt urn
Ġb reak
fr ak
ampl es
ener al
Ġrequ ire
d ev
200 5
Ġbe g
u ation
Ġf ew
L oc
ĠA fter
Ġcor re
E D
Ġb usiness
A t
ampions hip
L et
I G
6 6
Ġm atch
N ew
l ang
um ents
ĠF ebruary
> &
Ġs rc
5 5
is f
ĠR ec
Ġa ver
âĢ Ķ
Ġf ore
P r
Ġparam eters
Ġprodu ct
M L
or ies
Ġback ground
Ġpop ulation
//// ////
e ction
l t
g t
gorith m
l angle
Ġn amed
Ġim age
Ġav ailable
A mer
M odel
def ault
ass ert
ĠM c
ĉĉĉĉ ĉĉ
ev e
g es
Ġj ava
k s
Ġre pl
ĠB ut
ear ch
ren ch
read y
ep ar
ex p
cent ury
Ġacc ess
Ġsup er
id ge
ĠA rm
Ġfil ms
Ġdistribut ion
Ġto wn
S er
s i
ec ut
Ġe p
in fo
Ġl ess
cont ent
Ġbir ths
ent ly
ĠC or
Ġbe gan
viron ment
cl us
A B
ĠH is
er ed
end ing
Ġs it
le te
b ase
Ġrece ived
ĠL ist
Ġit em
includ e
} }$
Ġk e
ut ure
Ġto ok
Ġhe ld
Ġcol or
Ġwe ek
n ow
ur b
art ment
c ap
C H
tr a
d raw
es e
L ambda
Ġn ational
Ġ ide
Ġcon f
Ġed uc
; &
Ġfe ature
IN G
oug ht
t ings
Ġf urther
ref er
an ch
Ġ= ==
roll er
g ress
Ġcon c
olog ical
ad io
F r
ri or
ĉ Ċ
Ġsign ific
Ġl ength
ing ton
ond on
our s
Ġg row
ld ots
Ġd on
L og
âĢ ľ
0 1
O ut
Ph i
E T
mb ox
on se
ĠA ct
Ġ q
che ck
ĠEng lish
I f
ĠB o
op s
Ġadd ress
4 8
U p
Ġestabl ished
s f
is ing
D is
Ġph ys
Ġf ree
200 4
Ġcomm on
Ġs ay
c il
Ġappe ar
Ġa ge
cit ep
c ss
Ġal ign
ib ility
Ġlim it
and roid
In ter
m ethod
n ect
st art
im ens
i i
um b
y d
Man ager
ak en
on es
Ġresp onse
ĠA fr
Ġd ocument
Ġh ouse
A d
a ul
Ġind ic
Ġf ive
Ġl abel
ĠD r
Ġse qu
Ġcont ribut
Ġloc ated
Ġfunction s
Ġw idth
ĠE l
Ġof ten
ac hed
Ġth ird
Ġar ch
app a
Ġc ou
Ġ_ _
Ġappro xim
Ġperform ance
w ide
Ġph ot
Ġspec ial
. \
U ser
=" #
li ent
al t
Col or
Ġcoun try
Ġpro fess
con d
Ġam ong
Ġgr ad
Ġs y
ĠThe se
Ġparam eter
Ġf ac
---------------- ----------------
math frak
ĠG et
Ġcomm and
ĠJ apan
ĠĠĠĠĠĠĠĠ ĠĠĠĠ
Ġbu ilt
Ġs ix
Ġl ay
Ġtr ack
Amer ican
Ġ} ;
Ġpubl ished
il le
Ġinclud ed
j ava
ab ly
ĠM e
ĠR uss
, âĢĿ
Ġle ast
con text
Ġrequ ired
e ople
=" ../
tain er
C C
et ic
Ġc ell
T able
pro t
k n
G roup
Ġ Ð
ĠB ar
Ġm ot
v es
re st
al d
ĠS er
Ġrel ations
if ier
m ark
Ġcl ub
Ġg ames
T D
ilit ary
Ġcomp lex
i ents
n a
ĠP res
S c
Ġpot ential
A nd
ĠĠĠĠĠĠĠĠ ĠĠ
c irc
ĠCol lege
ĠThe n
p ackage
i ber
og n
R eg
4 4
U LL
Ġinv olv
Ġthe ory
text it
ers ion
an el
Ġev ents
M A
ot imes
~ ~
} ),
i ef
t es
ĠL ondon
Ġmat rix
val id
e ed
Ġin div
ĠB l
; </
f oot
ĠC oun
r ing
Ġsat isf
Ġg raph
c ount
Ġver t
ou d
re ate
us ing
op h
20 22
pr int
Ġs m
S ystem
ĠCom p
D O
Ġth ink
Ġm agn
ag ement
def ine
ĠE ast
Ġ` `
E S
as ing
Ġconsider ed
Ġar r
Ġdif f
a ff
arri ed
er a
id ence
n amespace
Ġst ation
f ord
Ġexpect ed
Ġs epar
st atic
Ġh ost
ir t
Ġbecom e
Ġvari ous
i et
c y
Ġcre ated
ab or
Ġre search
ĠCh ar
\ %
Ġout put
ĠQ u
Ġp arent
Ġm illion
Ġtr aining
Ġb order
Ġl ate
Ġre cent
U N
Ġwrit ten
av es
l s
Ġpr im
Ġc amp
h and
re et
Ġe ither
ut ions
Ġacc ount
Ġp aper
k appa
Ġbuild ing
Ġre d
sub set
Ġv ill
arg in
c le
c ell
) {
inn ing
Ġw ater
Ġcl aim
we b
ĠW hen
ew ork
C all
0 5
Ġpr act
6 5
ĠAr t
Ġt able
istr ict
Ġqu est
i ol
Ġcent ury
Ġl ight
l ight
Ġcomp os
Ġin du
ĠO ne
pt ions
Ġatt ack
Ġcol l
200 3
Ġc ases
ith ub
Ġsignific ant
ĠM on
ĠD av
ĠS o
Ġt ask
Ġf und
Ġc irc
Ġobtain ed
I P
re ed
} )$
] (
Ġl ower
Ġindiv idual
Ġmethod s
Ġp ort
======== ========
Ar g
ĠH igh
Qu ery
d oc
Ġs ent
ĠA m
itt le
Ġprov ide
d b
Ġc ross
pt y
Ġf ocus
Ġan t
Ġopt ions
ĠI m
ĠS ch
ĠD ep
U S
ĠH ouse
9 5
Ġr ate
M od
Ġal ready
ĠA g
Ġc ost
M ethod
\ |
p arent
T H
Ġserv ed
cre en
ĠA p
ĠWill iam
ip s
abl a
Pro perty
ĠP ark
Ã ³
ateg ory
un ic
Ġh aving
ĠL et
b uild
Ġcommun ity
Ġd est
Ġm essage
non umber
Ġappro ach
Ð °
i qu
S igma
ok en
ensure math
go ogle
al y
Ġa ir
< !--
Ġdevelop ment
Ġcl ose
Ġsol ution
Ġsystem s
Ġm en
fl u
Ġaver age
Ġconst ant
itt ed
Ġplay er
ĠĠĠĠĠĠĠĠĠĠĠĠĠĠĠĠ ĠĠĠĠĠĠĠĠĠĠĠĠĠĠĠ
, "
ly ing
ĠP er
m ost
n abla
Ġtr ad
ure d
Ġe lection
200 1
at ural
ĠS et
f alse
> (
Ġand roid
Ġn eg
ec ess
re en
Ġcon struct
b or
Ġme ans
Ġab s
B ar
r ation
om ent
c ore
Ġh owever
Ġb ool
Ġd ensity
em ents
Ġann oun
\ !
Ġb orn
EN T
ĠA ng
g ithub
Res ponse
und le
ĠA ir
A ss
Ġf low
ĠB ro
200 2
Ġp ut
Ġwork s
r ict
Ġst d
Ġw ar
s mall
n s
ĠH er
Ġfe atures
Ġcons ist
ev ent
ĠF rench
ourn al
ust er
Ġc ult
ug ht
Ġs ocial
en ame
w ise
Ġs cal
Ġp air
act ory
Ġanal ysis
E d
I L
Ġstand ard
ugg est
Ġadd ition
Ġn il
Ġgroup s
Ġval id
oci ety
ĠD es
Ġs em
Ġem ploy
pl ied
Ġp erm
C ount
E nd
ire ction
n et
get her
fer ence
C lient
Ġto gether
I R
Ġpl an
Ġs ite
re w
ig ation
Ġg e
idd le
Ġg reat
) </
ĠL a
Over ride
Ġm er
Ġcond itions
Ġprov ided
he ight
ap s
ĠS w
iv en
Ð ¾
ord in
ĠIn ternational
Ġse en
00 00
ul a
O T
t em
Ġhig her
S P
m it
Ġspec ies
Ġcorrespond ing
Ġassoci ated
B ut
Ġpro perties
n ull
ĠH ar
Ġn ormal
if orn
ce ed
\ [
Ġb ody
Ġelement s
Ġte lev
Ġbel ow
Ġyou ng
Ġim plement
b ased
S ub
att le
E E
F A
ĠW ith
kn own
ic ro
m ar
Ġc y
Ġal ways
Ġrespect ively
ch o
( (
b ra
D ate
g ed
Ġn um
d ir
it ect
B e
p ol
Ġb i
Ġcond ition
Ġv ia
Ġh om
med i
av y
Ġac ross
Ġhe alth
Ġdist rict
Ġne ver
ead er
r un
Ġe as
I I
Ġw in
ac ing
iforn ia
oc r
Ġt w
Ġs che
Ġbet ter
x y
opt ion
/ \
Ġb lack
p ly
ĠPh il
min istr
}} {
Ġcal cul
Ġl oss
ef ore
N o
Ġh uman
ĠĠĠĠĠĠĠĠĠĠĠĠĠĠĠĠ Ġ
S p
r s
ill ed
il ities
Ġstud ents
18 8
ĠGerm an
ph p
C E
Ġcon v
action s
row n
dot s
Com p
center ing
dis play
qu ery
ic ense
ĠEng land
in it
Ġst ory
Ġv ector
4 9
oci ation
Ġtelev ision
wid et
Ġab le
4 7
A p
g en
Ġequ ation
{ -
N S
Ġcol umn
Ġd ied
d l
ĠH am
ĠD istrict
Ġg l
N A
opt ions
ĠC ont
Ġe conom
Ġl o
Ã Ń
Ġp ay
Build er
ok e
6 7
d o
ĠD ef
ad o
fin ished
ĠCh ampionship
] )
ar ies
du c
p age
act ive
ir m
ish ing
Ġg en
h ib
Ġn umer
Ġl anguage
c urrent
ly mp
ĠV al
Ġind ependent
im age
Ġin ternational
Ġc ame
Ġstart ed
iv il
ot ed
ĠM ich
ĠI r
Ġ row
ĠS an
Ð µ
Ġf ar
U til
m on
Ġwhe ther
Ġa chi
widet ilde
Ġprodu ction
Ġf requ
Ġf ri
Ġd ays
P os
Ġn ov
s ing
Ġh istor
am a
M S
Ġm iss
Ġr andom
ĠC O
B C
Ġwork ing
Ġtem per
ĠCal ifornia
ic o
Ġl ed
Ġh ard
R ep
Ġl ik
ĠA dd
Ġe ar
Ġr a
Ġp age
Ġro und
Ġc aus
ver se
Ġg lobal
com e
or ge
A ct
Ġs om
ĠA c
Ġs uggest
av el
ch an
ĠC our
j av
pl ies
Ġh alf
Ġt aken
d ec
Ġserv ices
Ġth us
at form
Ġv ideo
i res
Ġre view
Ġsur v
Ġph ase
semb ly
arg s
p ng
( {
use um
Ġgo ing
e lement
li b
ĠĠĠĠĠĠĠĠ Ċ
Ġt re
O S
} -
Ġto o
cl ient
ĠR ev
Ġl ines
Ġs on
pro p
Ġm ight
b ook
ĠInd ian
ar a
id ing
Ġpolit ical
Ġpos itive
b urg
Ġeng ine
Ġreg ular
y ear
requ est
el ine
Ġm aking
iz ing
le vel
im ate
ĠTr ans
ĠC up
add ing
al le
tab ular
ĠI nt
he m
199 9
In put
Ġan g
Im age
P I
Ġh app
h a
oy al
ut es
Ġg round
Ġn orth
und er
Ġline ar
St ream
ĠS im
Ġcont ains
Ġg ive
Ġreturn ed
Ġd ynam
ill s
Ġfield s
ser ver
un finished
Ġprodu ced
F ig
ĠPres ident
Ġ- >
Ġsim ple
Ex p
Ġdis play
t x
wh ich
ho od
P ol
h as
Ġf uture
Ġpro of
d et
b b
y les
St atus
Ġact iv
ot a
Ġst ep
o on
A fter
ĠAmer ica
ress ed
cc ording
ens or
oc ol
ch ange
but ton
199 0
Ġbeh av
ist ry
ev ed
ro y
sh ip
S ec
B lock
0 8
ĠN ULL
ibr ary
rit er
ars er
g l
Ġd one
ad es
at al
Ġcon str
s pec
9 7
Ġbo olean
Ġun it
Ġ< <
ell ow
ĠĠĠĠĠĠĠĠ ĠĠĠĠĠĠ
and s
A pp
) ]
ch ild
Ġcontin u
Ġc ertain
is es
Ġrel ated
S tr
G r
9 8
ĠSe ction
ab ase
ĠS ince
th m
ĠD iv
s u
Ã ¼
Ġpro posed
f low
Ġspec ific
Ġm aterial
6 8
Ġs cale
d r
app end
Ġw ent
Ġ ill
ĠCl ass
N av
ĠL em
L ine
D ec
i ers
B ase
ĠR iver
ĠT est
sk ip
f unc
Ġdef ine
H istory
o ch
Ġoffic ial
Ġmult i
ON T
t arget
\ ]
in st
c ase
Ġbro ad
\ {
ache s
ĠF irst
e h
Ġinst ead
b ottom
p c
Ġe mb
Ġf ather
it te
Ġadd itional
Ġbel i
0 2
Ġhe ight
Ġc lear
L ay
Ġd a
ĠRep ublic
ĠAustral ia
Ġm ove
Ġon ce
s in
ĠE q
z eta
Ġatt empt
7 7
pr ime
ist ics
Ġl iter
Ġcont ain
Ġb en
ig en
or age
Ġmov ed
land s
om orph
A ction
} +
Ġst ar
ĠD is
ial og
c os
plic it
Ġr ank
r up
om b
Ġ& =
ul ations
Com ponent
ĠR ed
Ġw rite
iz er
In stance
Att ribute
Ġsub ject
ak er
Ġme et
Ġcol lection
C A
Ġf ig
ĠG overn
eb ug
s cale
Ġs old
Ġre ason
S up
Ġs outh
Ġinst all
Ġl oad
at ives
ĠInd ia
Ġr adi
in ated
Ġex ists
Ġacc ording
Ġother s
Ġpartic ip
Ġal gorithm
Ġoper ator
| |
ĠâĢ ĺ
ma il
Ġh ttp
head er
app ing
Ġs ymmet
Ġp ur
ele te
id s
} ]
a el
v is
ag ing
f irst
Ġz ero
ĠSt ud
Ġadd ed
ar ing
ol ic
O P
y l
loc al
4 6
Ġcent er
Ġev al
Ġn ecess
Ġof fer
enc ies
b tn
199 8
un k
S ource
Ġreport ed
il i
ĠB er
ar ian
it es
{ (
and id
he l
s m
od ing
p ing
Ġvill age
Ġcon tr
Ġmult iple
4 2
Ġdeg ree
ĠPart y
Ġres ource
u el
Ġ+ =
li ke
Ġse arch
ĠD ev
A G
h an
) =\
N ull
Ġpr int
op en
Hand ler
h ost
Ġd ate
m ain
Ġm oment
ers hip
c an
Ð ¸
T oken
ari ant
Ġmed ia
ĠThe orem
Ġwh ose
ic les
ĠN ot
pro perty
ad ian
ug in
r l
] [
Ġfin ite
E X
0 7
P eople
0 9
Ġchang es
Ġp ast
Ġen vironment
ĠCh urch
Ġth ough
mod ule
ap ter
Ġcan not
ĠG o
ĠM ore
Y PE
ac ity
ĠH ol
bo ard
Ġw est
Ġsuccess ful
ĠCoun cil
Ġannoun ced
Ġst atus
eg er
Ġam ount
ul ated
ac c
stit ute
ĠG eneral
Ġse em
an ish
d at
Ġb ig
AT E
; \
il es
ĠS m
ĠA ward
y r
Ġd ouble
an ies
ĠEurope an
nav bar
g ing
Ġtrans form
Ġpop ular
ast ic
imens ional
Ġrec ogn
Ġp ress
Cont ent
Ġa way
Ġin flu
Ġf em
se lect
Ġa ward
ĠS tr
Ġm ilitary
ĠIn ter
} =\
ot o
Ġ" ""
qu are
) }\
Ġp rior
ad ata
L ink
G ener
Ġsur face
p ost
ĠD o
p df
0 6
Ġc le
E C
che ma
Ġv iol
L iving
O ff
Ġac cept
ĠCan ada
at ory
RE F
pl ace
D e
F irst
0 4
str ong
5 8
l a
G e
) ^{
Equ al
us ed
Ġin f
Ġlearn ing
ge bra
9 6
Ġlarg er
Ġep is
or iz
Ġcompon ent
ĠB el
j son
}_ \
Ġdist ance
ĠF rom
The re
ĠM ark
O per
Ġwork ed
0 3
ĠP ort
Ġin ternal
st ream
Ġw indow
wide hat
Ġf ixed
Ġs w
x ml
l ong
Ġresp ons
Ġc apt
ĠCh ina
O ptions
ĠĠĠĠĠĠĠĠ ĠĠĠĠĊ
5 00
$ )
ag o
ft ware
Ġmark et
ĠTh at
ip al
P oint
if orm
m ore
Ġr ather
Ġcom e
B uffer
r is
ĠE m
Ġrele ase
s g
ĠD em
P si
idd en
Ġare as
Ġ Â
Ġestabl ish
text width
ro te
ribut es
Ġequ ival
Ġpres ident
Ġpred ict
n ected
U E
à ¤
ari o
ag on
Ġj o
S pec
ch ar
ĠArm y
ĠP al
ĠJ ames
Ġj ob
ĠP aul
199 6
Ġcon struction
Ġdevelop ed
row ser
R un
P art
al ax
ĠFr ance
Ġfact or
$ {
Ġim prov
Ġtyp es
iz es
Res ource
ort hern
am ily
Def ault
Ġent ire
Ġh on
Ġprot ected
Ġex act
ber g
}^ \
5 7
Ġr at
ell ing
lem ma
ĠO lymp
198 0
Ġcomp lete
Ġsequ ence
Ġeduc ation
ic ient
ĠTh om
F unction
Ġright s
ĠL aw
f ind
Ch ar
a ign
ic ult
oper ator
Ġm ale
Ġe ast
Ġke ep
Ġc ustom
H T
r um
Ġlead ing
. ~
y a
Ġn atural
ĠS en
p tr
Ġt reat
ĠCent er
ic ation
n ey
ĠR ober
ĠR ef
199 7
St art
W h
ain ts
ic ol
S C
Ġcou pl
ot ype
im g
Ġrem ov
Ġdeath s
Ġl ive
w rite
b ound
Ġen ough
Ġexper iment
m eta
k a
F l
Comm and
not e
Ġne igh
ĠA nt
Ġf ail
th ing
ĠM y
f ont
ĠP at
O ne
F actory
ĠSt reet
R A
O D
Ġact ive
B ox
des cription
Ġ Ã
ens ive
m ing
L T
, -
Ġobserv ed
ĠF il
Ġinclud es
Ġwe bs
ĠQ ue
ĠM al
Ġ ]
irt ual
Ġperform ed
Ġre ally
[ "
ach ing
L abel
cdot s
ĠG roup
ĠDav id
Ġunder stand
b and
Ġf all
itte e
Ġcon duct
Ġb g
oot h
8 8
itt ing
Ġapp oint
W indow
col umn
pr ivate
id a
ĠM or
ot es
s rc
N umber
cl ose
ash ington
Ġpol icy
k y
eth ing
ĠB lack
Ġcon tract
v an
ĉĉĉĉ ĉĉĉĉ
Ġarch itect
it ude
H el
ab s
ĠCour t
Ġc ut
M em
P re
ĠR oman
Ġ\ {
st atus
n ce
eder al
199 5
o o
in ing
S U
Ġequ al
Ġb ox
ĠGe orge
Ġex ecut
ĠN one
c ing
Ġs ample
Ġal most
Ġpr inc
w est
Ġset s
l en
ĠO bject
n um
Ġclos ed
ram ework
Ġprob ability
equ iv
Ġpre c
Ġloc ation
Ġcent ral
ĠS um
as ons
E nt
ber t
c up
v ille
Ġk ind
ĠN e
Ex t
ĠDep artment
Ġcl ient
ri ate
Ġl ittle
B ack
p ush
un ity
} |
ar ily
led ge
Ġ ir
Pro v
if act
Ġpart y
Ġtr a
q quad
ri a
Ġas k
e in
V ersion
Ġext ends
Ġpro p
S I
i ation
LA SS
ĠR ich
. )
Ã ¶
R eturn
Ġap plication
} );
{ {\
* /
ob j
st d
o z
ct or
g ener
anc ed
om s
F I
m id
pect ed
plic ations
comm and
ĠAss ociation
arn ing
Ġst op
^ +
out hern
ang ed
h space
lay out
Ñ Ĥ
5 6
f inal
Ġt ax
Ġdat as
Ġquant um
4 3
ĠI N
Ġl ost
a ur
Ġm id
un n
Ġwe ight
Ġintrodu ced
as cript
Ġfor ce
Ġrefer ence
Ġo ption
G L
math sf
Ġre v
it ch
ĠFig ure
al let
Ġoper ation
T O
s plit
L oad
ind ent
at rix
ra z
4 1
ĠR eturn
Ġse lected
s igned
Ġw rote
Ġreg ard
Ġdirect or
Ġquest ion
T ask
u a
Ġc opy
b a
d ist
V ert
t ed
ĠUn ion
Ġa ud
p ack
p y
ict ure
P age
Ġdef inition
pro cess
Ġthe refore
ri an
ed d
ĠU p
yp es
he st
Ġm argin
}) \
Ġgener ated
st ar
Ġm ag
Ġst age
im ension
Tr ue
Ġbg color
i us
en ed
Ġgiv es
}^{ (
}} (
Ġcomp ar
ree k
Ġcour se
199 4
Ġp ers
ent ry
Ġdec l
st on
ĠD on
Ð ½
and er
Ġprov ides
Ġro ad
" ),
pro ject
C heck
O L
ul ly
y per
he et
Ġde but
Ġd irection
" ).
p ite
Ġeffect s
& =
Ġacc ur
ĠF l
ĠH all
197 0
Ġt aking
o res
f e
ĠR oyal
7 8
ail way
Ġin c
D et
Ġtrans fer
at ively
Ġre str
Ġse lect
Ġin it
Ġed ge
str act
Ġits elf
u ate
ou ch
p o
Ġjo ined
Ġpresent ed
it ing
Ġrelations hip
c el
ap pro
l ast
Ġm arried
wo od
Ġfr ont
P er
Ġassum e
Ġch all
Ġgo al
Ġme chan
Ġbas is
i os
}\ ,
Ġup date
ed ge
C ell
Ġc andid
x space
Ġtemper ature
199 2
Ġcurrent ly
ock et
M M
Ġmon ths
} /
Ġpolit ic
Ġocc ur
V ER
Ġs ays
on ic
empt y
Ġcomp anies
Ġm akes
Ġm ode
Ġ$ (\
r d
c ial
Ġconc ern
f ill
Ġ{ @
Ġincre ase
Ġobject s
m em
ĠL ou
Ġqu al
is k
an i
Ġsu ff
inal ly
Ġpart s
act ers
ĠD i
g in
Ġdisc over
Cont roller
Ġup on
st ant
z er
Ġthrow s
B undle
Ġco ordin
o e
ĠDiv ision
ol s
ĠW ashington
C D
Ġla un
Ġoff ice
Ġde al
wit ch
Ġdiff icult
ri ef
ĠC r
Ġcontin ue
R ow
Ġdirect ly
m ember
Ġcomplet ed
p ass
Ġanal y
form at
ĠGerm any
q l
Ġper cent
ol ve
Ġform at
Ġun ique
Ġt en
I M
H E
el oc
str y
al ian
e al
ru le
Ġ( (
Ġex cept
ĠM art
E ng
ag ram
Ġwebs ite
ĠComp any
ĠAr ch
Ġsh all
in i
l n
Ġiss ue
ann ot
Ġhold s
A b
Ġim ages
enc ed
Ġit er
M et
Ġwh ite
Ġmod ule
5 9
av en
Ġ& \
Ġ< !--
Ġch urch
Ġal though
end if
Ġth ings
Ġad ministr
Ġde b
Ġn av
Ġv ict
}\ \
ig ger
ĠM ary
n ormal
Ġprofess ional
ugh ter
" ]
E m
Ġd raw
( -
ĠJ er
jav ascript
Ġs ound
Ġnov el
Ġcontin ued
A A
Ġs af
Ġeffect ive
ach ine
ĠTh us
res ponse
// /
param s
ĠIn stitute
199 3
Ġnot e
Ġdet ails
Col umn
ĠU K
} :
il ton
Ġcomp ared
F ONT
ĠC ons
Ġallow ed
Ġproble ms
d en
ines e
ĠP e
Ġrepresent ation
u z
Ġus es
Ġcount ries
ĠM ount
C reate
ĠAustral ian
D ev
Ġsupport ed
Ġdef e
ĠS ub
n umber
S ON
Ġcorre ct
Ġst ream
Ġmax imum
u ated
O b
W hen
Ġsp in
Ġspec ified
Ġimp act
Ġopen ed
Ġst re
Ch ild
erv e
et t
Ġaut o
row s
Ġcon ver
T em
( {\
Ġan im
Ġf a
Ñ Ģ
ec k
ĠV ol
Ġsign ed
Ġset ting
Ġset t
el se
Ġinteg r
t ic
con tainer
ĠD uring
ĠLem ma
pec ially
Ġbound ary
Ġch annel
Ġc atch
Ġlarg est
ate gy
Ġg ot
Ġstud ies
IN T
R ead
Ġt ree
Ġoper ations
Ġpat tern
A ut
sh ow
Ġt akes
up date
Ġsom ething
Ġg alax
R em
Ġun c
Ġro t
fil ter
ac her
Ġad j
ĠR em
Ġiss ues
Ġn ames
5 1
on str
L ast
Ġear li
so le
& &
) -
Ġrel ative
ĠP ress
Ġw ords
St yle
Ġb it
P C
Ġn one
on ly
Ġac qu
i as
ĠB ay
N O
Ġass ist
Ġteam s
Ġag re
Ġf av
] $
am s
ou l
Ġ url
clus ion
Ġcour t
List ener
Ġf ont
refer ence
ĠWh ile
Ġr adio
Ġc ast
ĠAc adem
ĠM et
ĠFr anc
Ġcon nection
h i
il er
e es
anc ial
b in
as c
{ }
S ince
. $
Ġinter face
c r
AB LE
ĠS ing
Ġeff ort
st ack
ri p
sc r
Form at
W eb
d s
A g
ĠT V
ĠM ex
ĠD irect
Ġro ck
ĠM usic
Ġrun ning
ro s
back ground
Ġm other
Ġinvolv ed
serv ice
ĠV ir
el es
ĠS ociety
Ġsong s
ĠPro v
it ar
ref ix
Ġj ud
Ġbro ther
5 4
Ġup per
Ġequ ations
Ã ¤
199 1
ark s
Ġnum bers
Ġmat ter
Ġf ire
Ġopt im
iz ations
Ġmod ern
S im
Ġtrans ition
ĠRober t
C o
7 6
( &
Ġin j
m t
Ġneed ed
cit et
un t
Ġh tt
ra el
en a
gr ad
b our
ĠC ong
O pen
th at
Ġw ife
ous ly
Ġth ought
Ġw ord
m enu
Ġv oc
Ġrecord ed
T P
on om
âĢ ¦
Ġst ars
Ġl iving
Ġl ot
Ġde ep
u id
t ag
Ġphys ical
ĠR oad
Ġout side
9 4
Ġg as
: </
ens us
Ġsol id
D B
ĠG reen
X X
ask et
U I
ĠA pp
ry pt
Ġcompon ents
{ {
Ġdom ain
Ġhim self
M ode
But ton
umer ate
Ġr ule
lay er
os en
Ġfil ter
is ions
i ences
li ament
Ġy et
ĠS ome
Ġt our
at tr
5 2
rem ove
osp ital
Ġhtt ps
Fil ter
Ġfollow ed
Ġap plied
Ġqu ery
ĠĠĠĠĠĠĠĠĠĠĠĠĠĠĠĠ ĠĠĠĠĠĠĠĠĠĠĠĠĠĠĠĠĠĠĠ
Ġf lo
ĠC ap
ĠG l
Ġform ed
Ġt im
Equ als
Ġthrough out
ĠJ ack
c s
ub e
< ?
c d
Ġ( "
Ġschool s
st yles
N N
ĠN or
B U
Ġdiffer ence
Val id
Ġs eg
Ġp ain
ed ia
Ġcamp aign
Ġwrit ing
val ues
Ġdesign ed
L ength
ar ter
d epend
A M
`` `
ant ic
ĠS ervice
Ġver s
ig r
g s
Ġser ver
Ġus ually
Ġden ote
ĠT ex
omet ry
n eq
Ġlik ely
res h
ĠM at
Ġincre asing
or ing
b uf
c a
Ġdirect ed
Ġes pecially
Ġdec ision
il ies
in ner
ans ion
fil es
Ġc red
ed y
Ġvari ables
Ġdescri ption
umn i
is ation
d ep
Ġ ...
ag ger
ĠO ff
Ġexper ience
UR L
Ġconst it
B r
Ġt ro
w rap
I V
U s
ĠH en
9 3
Ġdem onstr
Ġchar acters
Ġtrans l
sc ope
Ġallow s
ĠAfr ican
Ġexp ression
Ġ ess
Ġk m
Ġr ace
} +\
Ġm ention
Ġy ield
ER T
Ġsmall er
B A
' $
| ^
ĠW eb
se y
Ġrel ig
y ing
Ġb ank
Ġbecom es
Ġvari able
od er
> >
le ase
k m
ĠIs land
Ġsc en
Ġinst it
od ed
ĠN ote
9 2
Ġv eloc
ef ined
Ġb ar
ot al
Ġinvest ig
Ġs ens
Ġ ;
Ġwho le
Ġsh ip
an o
im ents
ĠAfr ica
//////// ////////
on a
Col lection
196 0
ĠJ ew
Ġent ry
est ival
u it
Ġd ig
Ġt alk
ĠC LASS
P RO
Ġappe ared
ĠS am
Ġprim ary
Ġaut om
a ud
operator name
Ġre lation
ĠCan adian
Ġun its
ex ample
}} {\
F T
ob ile
ĠM iss
ĠG od
m ission
Ġh ous
Ġim medi
ain e
5 3
Ġplay ing
Ġsol utions
Ġs ources
Ġsign al
ind ing
Ġto day
p at
c i
' ).
Add ress
N ext
Ġ- \
a o
a res
Ġ ~
N et
_ .
g reg
o ice
ev el
ĠW ork
ĠT ype
Lay out
ĠC ath
s d
class es
ĠO ut
ĠS pec
L e
Ġben ef
Ġchang ed
Ġn uc
ĠT ur
ĠA lex
Ġclass es
Ġro ot
al a
E L
Ġfil es
C ache
Ġapp ly
] \
Ġe ight
ĠE ar
ĠJ ust
the orem
P ar
un it
198 9
Ġse lection
ĠC he
ĠI D
} -\
ĠF ound
T op
ro ad
Ġsub sequ
Up date
Ġmon th
ĠM useum
ĠL eg
Ġindu stry
Ġbehav ior
Se lect
off set
ĠD ata
ver y
Ġact ually
k it
ĠKing dom
in ct
ang er
N D
Ġfor ces
9 1
ĠW il
ing u
Ġim m
Ġm ar
ect ors
re a
Ġex hib
au ge
Ġneed s
el ves
ĠH REF
ify ing
ĠT able
ER R
ĠM ac
all s
Ġco eff
en umerate
W ork
Ð¾ Ð
Ġpol ice
air s
no indent
S O
Ñ ģ
M ax
P O
ĠThom as
Ġperson al
Ġal tern
Ġprov e
ĠDem ocr
Ġa x
Ġor d
Fr ame
om ial
Ġbook s
ĠP ublic
Des cription
M in
S D
Ġfr ame
ĠM er
ri al
ĠWh ite
item ize
Ġtrans port
d imensional
ĠO b
ĠCent ral
Ġnecess ary
Ġlong er
P i
we ight
Ġn om
$ (
ĠY ear
am l
P R
Ġim plies
Ġexp and
ict ed
mat rix
in stance
us ion
t ex
t ree
the n
Ġexp ress
ĠRuss ian
Ġ! ==
Ġarg ument
7 2
ĠCl ub
Ġspe ed
Ġcrit ical
ĠO ther
Ġn odes
ĠO pen
ad ow
id ents
Ġprevious ly
Ġcon cept
= {
ĠSc ience
ĠG old
Ġmon ey
duc ation
198 8
d i
ĠT own
ĠD ay
C ON
f g
Ġev idence
clud e
Ġd am
Ġre ve
ĠB est
C L
ĠA ccording
Ġg ave
ĠChrist ian
line ar
is her
ĠM ag
Ġd rop
Ġs ense
T ree
ef t
ĠCh inese
out put
Ġs ex
ĠB ook
) }{
}} }
Ġrem ains
ip p
ĠMin ister
Out put
Ġf ace
Ġto wards
Ġf ailed
w ell
Ġfe el
Ġpass ed
C ase
( [
Ġl ove
uss ian
ar p
ĠH T
N ote
Ġs us
Ġfri end
m es
Ġfound ed
ĠMich ael
b reak
re me
ĠG ames
ur a
mult icol
D r
sup port
Ġs il
Ġbir th
V is
Ġc ivil
Ġad apt
Ġs creen
. /
ann ing
8 6
Ġe lected
set s
U rl
Ġconfig uration
Ser ver
ĠJapan ese
ĠTex as
ĠO F
for ce
++ )
Ġav oid
a a
Ġfor ward
so ft
ĠM od
ĠWest ern
8 5
Ġj ournal
ĠS y
P P
Ġide a
s ign
I O
comm on
f loat
C an
CO L
Ġev olution
Ġsy mbol
requ ire
**************** ****************
Prov ider
Ġmem ory
ir it
alle l
) }$
multicol umn
ĠS ee
Ġcall back
util s
Ġ[ ]
ĠSc ott
W idth
ict or
3 00
="../../../../ ../
v space
Ġe mer
j ection
asket ball
ĠE X
Ġal gebra
Ġpro ced
ĠAcadem y
Ġstud ied
Ġon line
omet imes
Ġm ix
Ġreturn s
ess ages
ol ar
Ġbo ard
Ġbeh ind
math scr
Ġalbum s
Ġcho ice
Ġpe ak
Ġelect ron
Ġn ight
Ġmain tain
Ġappoint ed
T ypes
Ġwrit er
= #
A ccess
.... ....
Ġcon nected
it ory
tr ack
ic i
en ing
old er
g ence
Ġsim ply
ĠVir gin
Ġrepl aced
ĠThe refore
ched ul
ate gor
g n
b es
Ġstruct ures
a uthor
ĠM ad
ĠH istor
art ifact
Ġpl aces
fr ame
ro ot
ĠGr and
ĠH ow
ĠAr ray
ĉĉĉĉ ĉĉĉ
Ġrem ove
l ic
re land
ĠM ont
ĠB ill
ĠFranc is
rup t
ĠRes earch
ĠLou is
Ġcon nect
v ed
Ġ er
ĠS k
\ ,\
l anguage
oriz ont
f it
Ġcap ital
ou b
Ġsec urity
En try
Ġch arg
ĠS al
Ġnew s
Ġcon sum
Ġreg ions
Ent ity
6 3
Ġlim ited
ĠS l
Ġse ven
ĠK ore
198 7
ĠIs rael
ec ution
ĠT om
Ġdec re
n ov
p ress
ĠL og
tem plate
er rit
com ple
Ġvis it
th on
d ocument
Ġd ram
e an
is l
ĠH istory
Ġwe ak
az ine
Ġm us
in v
ĠG reat
Ġst aff
Ġm ount
Ġart icle
Ġmagn etic
Ġpro te
Ġda ughter
ĠF orm
con f
Ġequival ent
Ġf ight
vent ion
ĠCar ol
Ġdeterm ined
ot ion
ã ģ
por ary
4 00
ĠRec ords
prot otype
A V
F e
Ġr ules
op l
Ġexist ing
ĠN S
Ġp ack
ult ure
Ġrepresent ed
ĠChar les
Ġj oin
g u
ill a
T arget
$ }
Ġv irtual
th let
Ġpract ice
Ġlay er
el t
B o
Ġd ed
% %
model s
Ġmiss ing
art s
n orm
Ġinter pre
Ġle ague
ang es
198 6
T ag
d ated
w indow
Ġ* *
ĠĠĠ Ċ
z a
Ġin side
Ġstart ing
ĠComm ission
NA ME
ĠFr ank
}} _
Ġsc ient
ĠSm ith
g le
Ġro b
Ġw id
Ġs ports
Ġsh are
par se
ĠHe alth
6 2
Ġestim ate
ĠP o
m iss
Ġman agement
} '
Ġf it
cre te
ĠT or
=" -
Ġbel ong
Ġt ell
R el
Ġs ure
Un it
or se
pon ents
Ġex plicit
Ġwh y
Ġf ood
Ġchar ge
ĠT ime
Ġf ra
T e
it a
ĠD ec
Ġs aw
et ch
ĠL icense
P S
F L
ĠF ore
O p
ĠA PI
Ġk illed
ist an
Ġreg ister
Util s
u an
ot ic
Ġst ated
v ant
8 7
Off set
Ġresult ing
ill ing
Ġearli er
h r
ĠM us
Ġgener ally
Ġf loat
^ -
at ur
pro to
ĠJ ose
ĠO per
Param eter
ĠIt alian
Ġcom es
Ġa uth
ourn ament
\ "
Ġorig in
\ }$
b on
ĠSup er
198 4
in y
or ial
ern el
ĠB en
Ġso ftware
6 1
Ġknow ledge
Ġd oc
Ġd imension
ĠL at
oot str
' ),
Ġbeg inning
( _
Ġill ustr
he nt
ĠNew s
Ġrem ain
erm an
ollow ing
Ġepis ode
Ġs en
ec ute
M on
The n
orizont al
Ġbuild ings
f a
ĠG L
Ġpl atform
Ġqu e
ty p
Y ou
T YPE
s cal
ĠD el
ĠSec ond
res ource
ĠD an
oun ter
Ġstre ng
Ġh it
Ġcol lect
ĠM em
Ġclass ical
I F
u ge
Ġfin ished
ĠZ eal
Ġspect rum
y e
) +
Ġrec over
Ġcom ment
Ġlevel s
Ġrat io
Ġne ut
Ġob j
g ate
Ġevent ually
ct x
ĉĉ Ċ
mer cial
w ait
Ġgu itar
cript or
i h
it z
() ->
Ġarg s
198 5
g raph
ĠF lor
Ġre ached
irc raft
Ġsh ape
Ġfor ms
mod al
R L
f ree
ri z
ĠGovern ment
et ime
="../../../../ ../../
En c
Ġveloc ity
ĠZeal and
appro x
Ġtr ain
a fter
ĠP re
Ġcoun ter
Z E
Ġdescri be
Ġv eh
at re
s ystem
H eader
t ask
Cont rol
Config uration
D F
ic ago
Ġe igen
Ġco ach
Ġl atter
Ġn ature
Ġread ing
ĠG a
7 9
Con tainer
Ġcont act
ul ate
ĠTe chn
k i
Ġop port
Ġdev ice
S y
ec ause
erv ed
Ġneg ative
Ġlist ed
) /
Ġext ended
Ġfam ilies
ĠE v
Ġst e
yn ch
b ool
Ġgr ant
7 4
Ġad opt
' re
v ector
Ġhig hest
ĉ ĠĠĠ
ig inal
ri b
Ġst ore
om a
ã ĥ
Ġre nder
Ġpro gress
im ages
ffic ient
Ġocc up
#### ####
Ġrun s
6 9
artifact Id
n ap
F C
sh ire
ĠC E
Ġother wise
Ġgrow th
Ġc ause
ĠR ob
m as
Ġtr avel
Ġstat ement
ootstr ap
al ed
Ġsc ope
rel ated
ir l
Ġ\ |
7 3
Ġcult ure
he ast
AT ION
ick et
Ġmean ing
et her
Ġsc ore
it able
sh ould
Ġtechn ology
return s
ĠP eter
U M
Ġfig ure
Ġdoes n
Ġqu ality
out e
Ġarg uments
Ġappe ars
k r
Ġproduct s
Ġart ists
Ġl ack
ex pected
C urrent
b ul
Ġvol ume
c ard
d rop
Ġsc ience
ĠSum mer
Ġqu ick
T hat
] );
text tt
ian ce
ter m
Ġre con
Ġb all
ĠOlymp ics
Ġc am
w rit
Ġfem ale
ĠCath olic
l am
t im
res ents
Ġext ension
w s
Ġover all
w in
Ġhand le
N ow
S H
7 1
Ġstud ent
Ġb ur
Ġincre ased
b efore
Ġem pty
Ġal umni
F O
Ġoriginal ly
Ġt it
se cond
ĠL os
cont rol
c at
ĠPar is
ĠM ass
ĠRich ard
ent al
Ġs ort
Tr ack
re al
fl ict
Ġc op
198 3
ele br
ann ed
Ġfootball ers
Ġp ick
ĠS ur
Ġto ld
ĠO ffic
Ġpres ence
Ġeconom ic
Ġc a
r ics
Ġfin ancial
P o
M D
Ġdest roy
Pos ition
b as
iver se
ev al
olv ed
Ġsu fficient
Ġpro per
Ġfrequ ency
Ġorgan ization
ig an
p op
S chema
ym pt
Ġa im
Ġcol lege
Loc ation
to ken
Ġb uffer
res hold
f s
ĠI reland
Ġmov ement
Ġbr ing
ĠH ill
; "
ĠComm ittee
Ġrecent ly
ag ment
Inter face
1 000
Ġunc ertain
re y
em ic
re es
Ġg old
> ,
m atch
Ġcl uster
ĠĠĠĠĠĠĠĠĠĠĠĠĠĠĠĠ ĠĠĠĠĠ
Ġleg al
He ight
under line
19 50
Ġmin imum
: "
M ar
Ġdatas et
Ġf ramework
_{ {\
group Id
Ġres ources
ant a
Ġthe orem
C K
ĠD et
Ġw alk
ol ute
bit r
t ical
anc y
Ġun iform
k ind
Ġw ave
P ost
ĠF ootball
c ache
Ġatt ention
Ġant i
ĠHam ilton
S A
ĠCong ress
t ml
The ta
Ġfinal ly
P op
ĠF ile
b uffer
Ġagre ement
Ġtr ade
Ġst ri
ĠO ur
ĠAs sembly
Ġre pe
Ġso on
el er
Call back
Ġf ully
ut y
~ $
elop ment
Ġin cor
p resent
ie ce
Ġed itor
D D
Ġpl ant
u int
S l
ill er
Ġman ager
ĠGe org
F ont
K E
Ġerr ors
Ġg auge
Ġapproxim ately
Ġparticular ly
c ur
Ġl en
ol t
Ġb re
om ic
Ġoper ators
az z
Ġbro ught
Ġmet ric
C P
Ġact ual
ms elves
Ġoff set
W rite
Q L
k er
Ġpl aced
ĠH el
Ġr ap
en ge
R ight
Ġst ations
Ġm unic
Ġsche me
ret ary
Pro cess
ĠP enn
im ary
styles heet
ĠA tt
equ al
198 2
Ġ ensure
ĠV er
Ġcons ists
w ar
Ġrequ ires
ĠB uild
Loc al
Ġrem aining
ĠB ase
ĠO ver
Ġh ours
subset eq
{ $
param eter
R ange
erv ices
Em pty
ĠFor ce
ĠW omen
S earch
H ttp
Ġ{ }
Ġdec ided
: (
ol f
Ġc it
8 2
Ġh yper
8 9
ĠOr der
Ġthe mselves
Ġder iv
ĠF in
Ġh ot
Ġder ived
E M
Ġfour th
Ġ ign
ir ing
ac ement
Ġus ers
ĠH ere
Ġart ist
ĠAr g
Ġredu ced
A cc
Result s
Ġv an
ĠP ost
ĠM o
raz il
Ã³ n
Ġm iddle
197 9
L evel
ov iet
Ġn orm
m itted
et te
Ġestim ated
Ġlead er
Ġu int
Ġmed ical
Ġp or
ĠReturn s
8 4
ur t
ol id
Ġd ark
Ġw ide
Ġan sw
yn omial
c over
ĠR ock
Ġch osen
Ġf ix
Ġre li
p g
CO DE
k in
Ġs low
oc ation
ĠV ictor
ĠS T
is ms
P ort
' >
Ġcont aining
ĠM el
Mod ule
Ġpro file
ĠF ield
Ġnot ed
as hed
St at
i pl
min us
Ġp urch
Ġpre m
ĠSp anish
Ġpre vent
L S
-- -
Ġs ch
Ġ* )
pro d
Ġp adding
Ġdeterm ine
Th read
D irect
ic ated
Ġex ception
re ct
ĠN ow
Ġp en
uf act
Ġneigh bor
ol es
id ers
") );
um in
AR T
Ġal t
co pe
Ġprogram s
r ange
ĠI ll
M enu
A m
n el
j o
S o
b lack
V AL
Ġex tra
ur i
ĠVirgin ia
b order
D o
Ġp anel
Ġrem ained
Ġident ity
ap se
Ġc ategory
Ġc ore
S cript
ĠA ust
Ġ\ ;
ent ity
ĠB ank
tr m
Ġw oman
os ing
Ġinter action
ĠBo ard
or ation
Ġs amples
Ġno ise
Ġwe b
Param s
? :
Ġdo ing
Ġin fin
ĠHen ry
\ '
con s
ens ions
m ode
Ġr isk
P T
Ġ ::
if old
foot note
Ġ( -
ĠD u
ĠL ong
B S
V ID
ĠCh icago
ĠL ake
iction ary
lo od
Ġsp ent
act or
tex trm
ell a
ĠE nd
Ġtrad itional
ĠW hat
ĠC amp
Ġcaus ed
ĠAl though
< \
Ġr ad
ev en
ou ri
Ġexp ansion
Ġb ad
Ġsm ooth
ST R
Ġbas ic
dev ice
E v
Ġe arn
() :
IG N
tain s
IN E
urs or
J son
Ġmat ches
Ġx ml
Ġs witch
S he
Ġmot ion
E l
Ġprodu ce
ĠFound ation
iqu es
}^{ -
G B
se ct
" ))
v ision
ish op
sh ift
Ġs ession
ock ey
% ;
= -
Ġdis e
not her
H ash
Ġatt ribute
Ġgr and
cl es
Ġdiscuss ed
Ġcon sequ
ĠT wo
N one
ĠAt l
Ġactiv ities
198 1
Ġtem plate
Ġchall eng
}} ,
Ġcrit ic
Ġ$\ {
Ġdid n
Ġs end
C R
Ġcompet ition
ro t
s v
ug ins
Ġsub s
Ġth reat
_ +
ing er
est ed
d est
Ġrep resents
Con nection
ĠF e
ĠU nder
a uth
ĠA ut
Ġmin or
Ã ¨
D ir
Ġt ag
d irect
Ġgr av
ĠIt s
Ġp ert
Set tings
Ġbroad cast
Ġcon vert
Ġdistribut ed
C S
Ġcontinu ous
ĠAng eles
Ġappro p
Ġmed al
Ġ _{
ol k
erv ation
f ect
) {\
att ice
Ġin str
pe ople
Ġaward ed
t ure
Ġs ometimes
im ation
ĠRuss ia
ĠFlor ida
O ther
ĠAr ts
COL OR
D at
ĠAn n
M ult
ud d
ĠMex ico
Rec ord
ĠD en
ab it
g lobal
in em
Ġhe nce
B O
Ch ange
ut ch
ĠL and
Ġn ative
ĠAss ert
Ġequ ip
* {
Ã §
il s
Ġbl ue
Ġsit uation
Im pl
Ġn et
Ġ> =
ĠC D
Ġro ute
reed om
yd ro
Ġman ufact
ew idth
; ->
all ery
Ġro om
Ä ģ
Ġitem s
omorph ism
form s
en v
ĠM r
Ġvari ety
ir al
Ġ$ {
x x
e ch
ĠIn c
Ġpress ure
Ġex amples
ĠT O
) |
Ġre comm
pro ve
ĠR el
Ġvert ex
ã Ĥ
Ġac adem
$ _
j a
Ġc hem
Ġfeature d
Ġinter view
Ġsymmet ry
Ġm ut
p are
Ġh yp
su ccess
uct ure
ĠFil m
Ġremov ed
ab ilities
Ġmap s
ail y
du ction
Ġhouse hold
Ġlead s
Ġuse ful
st ep
Pro ject
Ġfe ed
Ġnetwork s
197 2
Ġet c
197 6
ĠC ast
Ġgre ater
R ev
ĠC reate
H O
s ur
Ġb ottom
Pro t
d im
f ound
Ġbr anch
d el
d agger
def inition
Ġmov ie
197 8
D ocument
Ġun known
ari able
C opy
ĠK e
a ver
Ġbeg in
or al
Ġinteg er
Ġon es
Or der
Ġf ast
^{ -\
Ġre ach
Ġm ur
end ar
L eft
s ort
Ġgener ate
ad y
P A
Ġobserv ations
Ġliter ature
d x
Ġ$ |
Ġa ircraft
al o
Ġcomp act
= (
Ġqu ite
Ġdi agram
=" /
Ġplay s
at o
Ġpartic le
ig er
i en
stit ution
col on
Ġparam s
ĠE mp
PE CT
ĠL ife
Ġstr ict
ff ff
Ġap plications
Ġs cript
Ġar bitr
T V
ib ly
sub figure
r ad
h ing
Ġcontribut ion
h ash
atal og
is hes
ĠSt ep
O ption
ĠSc ot
ĠK n
197 4
Ġtreat ment
ĠE ducation
rop y
AP I
}} _{
Ser ial
Ġmajor ity
v ey
Ġd u
T I
b al
Ġcoll abor
m ake
Ġth ing
f ort
Ġg un
s pect
ick er
d ebug
Ġ( $\
Ġl ibrary
Ġact ivity
Ġun ion
oc al
y es
ĠB ig
ĠSw ed
Pro perties
Ġsh ift
197 5
Ġrecord s
Ġfl ux
M ore
M O
Ġin sp
ell ed
Ġemb edd
ific ations
L ong
AN D
Ġc os
doc s
adi us
Ġimplement ation
Ġcho ose
o om
align ed
ĠPro fess
big g
og gle
s ite
In st
Ġst ay
Ġr ul
Ġch ain
N on
w edge
Ġstr ategy
P L
ĠT imes
ĠAl so
Ġprocess es
Ġsepar ate
Ġsc atter
Ġfil ename
8 3
E Q
j i
Ġf if
b i
Ġeas ily
ĠM odel
Ġun ivers
Ġf ederal
Ġnear ly
Ġfact ors
P at
d eg
Ġcompar ison
Ġhigh ly
Ġess ential
ound s
Ġex am
Ġc elebr
197 7
ĠIt aly
P erson
j oin
ĠSt ar
\ }
lin ewidth
h ouse
il arly
Ġag ent
Ġprob ably
Ġs quare
Ġeas y
M y
Ġf un
Ġelect ric
196 8
Ġover ride
: \
Ġinflu ence
ic ate
Ġcom ing
b ind
Ġj oint
8 1
av ed
er c
Ġsing er
ĠO f
ĠM ost
T im
Ġinterest ing
wh ite
s end
r or
Ġte acher
d elete
ee k
opl us
ä ¸
Ġcur ve
typ es
Ġa ctions
Ġe cho
ĠD E
Ġpartic les
Ġsur round
Ġw ait
Ġpr ison
ĠS un
Ġb al
Ġto ken
ole c
ol a
M C
Ġwant ed
ap ers
Ġpl ane
Ġact or
Ġsl ight
ĠA v
ven ue
ĠF urther
Ġl ives
Ġfore ign
Ġ$ [
Ġm is
ĠG ener
id ae
B l
C ore
and a
S ign
h igh
Ġmention ed
Ġsy nt
Ġthe rm
re nder
ĠM ax
Ġimmedi ately
Q ue
struct or
Int eger
c p
Ġc ard
ĉ Ġ
ĠReg ister
Ġexper iments
Ġb rief
roll ed
Ġcom mercial
trans form
ĠO h
wh ile
Ġle ave
Not es
Nav Bar
ar ant
ĠC re
p ers
ell ar
Ġproject s
P ass
ĠĠĠĠĠĠĠĠĠĠĠĠĠĠĠĠ ĠĠĠĠ
se ud
ĠO R
L I
ĠT im
or a
Ġdynam ics
ĠDirect or
Ġpur pose
il ed
Ġask ed
C al
Ġsh ot
z ero
tern et
at ically
Ġparent s
Ġhas h
& #
Ġbound ed
ma z
sk i
ĠM ap
Ġ$ -
S ym
Ġab ility
Ġmin utes
ĠB G
in ternal
icro soft
Ġpol ynomial
M at
set minus
sy ch
197 3
Ġcontr ast
Ġseem s
al ysis
ĠN avy
E CT
Ġw ays
f aces
S u
D own
Ġh um
Ġsh ared
im a
arri age
P H
W hat
D ep
ĠPro ject
' \
Ġgo als
Ġdat abase
Ġradi us
N e
ri ze
ir med
Ġform ation
k o
inter face
Ġs plit
m ut
pos es
Ġconstr aints
Ġbeli eve
es h
f n
al i
add ress
Ġpolitic ian
af e
Ġb ul
um s
ĠIr an
ĠS ocial
Ġrele vant
ĠR un
n y
ĠB rown
os h
Ġlo op
Ġsurv ey
Ġph il
Ġident ified
iv ial
ribut ion
Ġex tract
ĠPro gram
Ġmeet ing
ed s
Ġp ark
Ġc he
c opy
D raw
AC K
Ġhe avy
S L
rom e
A c
Ġindividual s
app ed
E arly
at ial
ect s
ĠMart in
ĠT em
Ġs ociety
ot ing
Ġcomp ute
I con
ĠS aint
Ġwh om
col l
as ion
im in
Ġrece ive
Ġdepend s
197 1
l ines
Ġform ula
Ġtest s
foot er
if est
Ġconstruct ed
if ically
Ġa mb
Ġ util
ĠEng ine
OR T
Ġsum mer
ĠL ine
U LT
ian a
Ġcap acity
ad er
Ġgener ation
or ter
ĠF estival
cl os
196 9
ag raph
m ann
ĠP y
D om
Ġdiv ision
cher s
f ony
Ġass ign
Ġsc ored
b ing
ĠO ld
ĠPar liament
Ġapproxim ation
~~ ~~
ĠAr ab
Ġst eps
Ġset tings
if ies
ĠCarol ina
J ohn
================ ================
H owever
ell ig
Ġcomplet ely
ind er
Ġra ise
Ġex ternal
Ġexact ly
Ġst ra
M e
ĠC am
ms g
), \
Ġcommun ities
ĠM ur
Ġexist ence
G o
Ġproced ure
i ro
Ä ĩ
F urther
Ġbe y
ĠSer ies
R I
ĠB as
r ong
ann els
ĠJ ournal
St ore
lim its
ist ers
ĠP et
ĠB ur
Ġend ed
Ġdist inct
ug by
Ġrespons ible
ĠK ar
Ġcandid ate
H ead
k l
Ġconsist ent
H ere
Ġsp aces
U P
he mat
Ġgalax ies
omet ric
Ġestablish ments
Ġb asketball
( :
ond s
van ia
Exp ression
Ġredu ce
Ġbey ond
ac ific
Ġim prove
T ool
oll ary
U se
25 5
' .
S ession
Ġt ournament
equ ality
T itle
Ġm ission
Ġwrit ers
ĠE r
ar c
Com ple
Ġgre en
c ient
ĠEx ception
P tr
Ġl ock
ĠK ey
cont in
ĠK h
Ġres olution
n am
ĠB razil
Ġopt imal
Ġhe art
Hel per
wid get
Ġin fo
Ġaccur acy
Ġopen ing
ĠG en
com ponent
m en
ategor ies
g a
Ġp ackage
ĠYou ng
ĠS oviet
194 0
ac cess
cl ick
ĠS il
pl ugin
w a
Ġmoment um
C are
Ġpl ot
Ġcom pl
ĠM il
EN D
V er
M ark
u ations
\! \!
leg al
Ġm icro
result s
ĠI S
Ġas pect
ĠCh ief
Ġsp read
Ġf oot
Ġin ner
Ġat tr
ĠOff ice
Y ear
Ġr ates
Ġweek s
as ure
ian o
ĠC heck
Ġd ual
ex port
As ync
in ations
Oper ation
Ġm aster
Ġc arried
sh ort
ĠJ ud
Ġw inning
Tem plate
Ġcomput er
Ġcoupl ing
R ender
f ull
med ia
ĠJose ph
at i
ĠW ales
196 7
ynam ic
re q
D uring
Ġfl ag
ĠL ie
n es
T ER
Param eters
equ als
field s
Ġm achine
Ġarchitect ure
194 5
Ġm ind
fr am
Ġcar ry
AL L
Ġmov ing
Ġlet ter
Ġde ad
ĠTr ue
ĠT op
sy l
ak a
Ġlaun ched
Ġ" \
Ġdr ug
er ies
Ġmost ly
S w
Ġpo or
ĠF ort
ĠN ame
' ],
to String
ĠChampionship s
sh ot
## #
Ġmeasure d
angu ages
if fer
ick s
ĠA wards
S ing
Ġin come
v as
ĠE rr
Ġdec om
l ig
ĠC all
Ġact ress
Ġvis ual
Ġ â
ad r
ic ients
web kit
Ġexperiment al
' _
Ġund efined
ĠM os
gorith ms
ĠN etwork
Ġw ind
Ġrefer red
Hand le
Dev ice
Ġtrans action
v est
ĠP lay
Ġk ing
ĠM a
Ġpos itions
R ect
Ġref lect
Ar t
Ġd oub
ult ural
Ġb inary
k et
Ġb us
v a
R ed
c lear
ĠN orthern
ĠSh ow
Ġ} )
Ġnumer ical
it an
s pe
du le
Refer ence
y an
Ġoffic er
Ġj av
b ootstrap
p ool
Ġco ast
: #
ig ration
Ġcl ust
Ġcon cent
ĠP an
ov a
E q
Ġst ories
Ġseg ment
annot ation
Ġch ief
p anel
Ġcomb ined
ip ality
ĠIr ish
D A
p adding
ĠL iber
Ġem ission
Ġstra ight
h over
ist ance
ĠP eople
ĠE qu
ynch ron
19 30
Ġpol ar
Ġsatisf ies
ĠT our
Ġ| \
Mem bers
ĠIn st
ĠH on
Ġprodu cer
H ost
ĠM ath
ĠII I
as er
Ġauth ors
) }(
O ur
Ġfri ends
Ġt ensor
c ut
Ġsc ene
h om
Ġform al
i pe
ĠCol umb
hand le
ĠS pr
per p
Ð »
Ġr iver
ĠL u
Ġmus ical
s ession
ow ers
em s
Ġtyp ically
Ġc ache
block List
Ġcontain er
Ġed ition
Ġcontribut ions
ans as
ERR OR
M ain
syl vania
Ġdom in
rodu ction
S k
Ġstud io
Ġappear ance
r ich
Ġold er
ak ers
Ġb attle
imens ions
196 4
Ġlook ing
Ġent ered
ĠT re
Ġvert ices
Ġdet ection
Ġwork ers
N um
Ġnot hing
ĠH ence
Ġgo es
15 0
ĠD ate
in et
S um
Ġrelig ious
ĠH aw
Ġl ived
Ġserv e
Ġam plit
=" _
f ocus
OR D
Ġcle an
Ġcent re
depend ency
mult i
l ers
Ġinitial ly
n eg
ric es
Ġthe ore
hes is
ip eline
Ġcorrespond s
Ġsignificant ly
Ø §
ic ons
Eng lish
Ġc ert
W E
Ġf air
vir t
I ter
Val ues
ĠE ach
Ġnew sp
Ġt errit
Ġm ixed
set tings
w an
ĠPro position
Ġcon flict
us band
B R
Ġin line
Test s
ĠEX PECT
Ġcit iz
Ġann ual
ĠM ethod
in f
ro om
it ation
aw s
N ames
Ġsay ing
_{ (
ĠB re
ix el
Ġed ges
b u
Ġclass ification
P arser
ĠO l
ĠB ob
p ay
ĠBG COLOR
Ġatt ended
Ġ$ .
196 5
Ġmeas ures
Se ction
ĠL ee
Ġse asons
ir a
-- >
ate st
ĠC ON
16 0
Ġtest ing
Ġdep artment
all ow
Ġcomm ission
Ap plication
D IR
Ġqu arter
Ġth read
text sc
Ġl i
Ġprov iding
H as
un ch
Ġmin im
Ġshow ed
Ġh arm
Ġpro ceed
ĠD om
ust rial
Wh ile
iss ions
Ġis land
Ġpl ans
ĠS ir
Ġst ack
Ġhe l
Ġinteg ral
Ġsim ulations
ĠGo ogle
_ *
n amed
ĠR ead
Ġnumer ous
E ach
il ation
Ġprop ag
V ector
Ġfav or
Ġget ting
D i
pos ite
Ġvoc als
und red
Ġc ru
it ors
Def inition
fram ework
Class es
r b
Ġapprop riate
com ing
Dec l
Ġpar se
Ġpr iv
Ġbecom ing
ĠU N
Ġdis k
Ġdec ay
ĠEar th
un ct
Ġ eth
st at
orn er
Ġgiv ing
Ġsen ior
Ġ[ '
ck now
c ustom
c ases
ĠVal ley
ic ans
Ġpol y
Ġra ised
}$ -
ĠL ibrary
ĠBrit ain
c ar
Ġ" /
Ġassum ption
ost on
che n
Ġcomp are
Ġcalcul ated
G E
Ġfor ced
Ġdem and
Ġs outhern
Ġang le
ĠMore over
Ġrel atively
Ġcell s
Ġn orthern
Ġl attice
as y
al g
> .
put e
Ġin equality
St ack
V ar
ĠCol or
est amp
}} (\
ĠTe am
ĠF ri
ĠEmp ire
S R
Ġcomb ination
st one
Ġpart ial
Ġp aint
por ation
Å į
ĠO p
ult y
196 6
Ġdis s
ĠJ im
ĠL ove
19 20
ĠG reek
Ġsit es
Ġv s
f ly
Ġquest ions
v m
ĠG i
st ein
ĠĠĠĠĠĠĠĠĠĠĠĠĠĠĠĠĠĠĠĠĠĠĠĠĠĠĠĠĠĠĠĠ ĠĠĠĠĠĠĠ
ament al
ad s
)\ ,
for all
co q
Ġse a
ĠW ood
ĠL ord
ent y
Ġde lete
="../../ ../
ĠH ot
F alse
Ġspect ral
up le
Ġturn ed
fo o
Ġscal ar
Ġent er
ens es
ĠC ross
cri be
Ġun iversity
Ġassum ed
adi um
Ġv ote
he ll
Ġpart n
el a
t ri
Ġown ed
Ġtry ing
C ar
im inal
ad or
c f
Ġdes pite
' }
{ $\
ĠCh ild
f amily
Ġf arm
_ ;
he lp
> ();
dis abled
Ġun signed
urre n
pt on
st ore
Ġ{ };
Ġpair s
ĠC ivil
Ġmain ly
ĠG al
f lo
ĠProv ince
Ġt or
Ġhistor ical
c ategory
B L
A ccording
sub subsection
et ween
Ġch ampionship
Ġdet ail
on ym
Ġs ampl
Ġag o
Ass ert
Ġm ask
T C
Ġs ector
pro duct
Ġn ation
ĠPenn sylvania
Ġfra ction
ĠB i
ĠW al
h s
Ġadv ant
} "
L a
ne ctions
1 20
Ġhelp ed
Ġpart ies
as i
p atch
") ]
ir ls
Ġar rest
ĠB attle
air man
ĉĉĉ Ċ
ic ine
amp ion
os oph
ĠJ o
Ġn amespace
ĠN av
D ebug
ĠL in
id get
Ġcorre lation
wit ter
Ġorgan izations
k ing
in line
ĠT ri
Met adata
Ġsem i
ĠĠĠĠĠĠ Ċ
er ry
Ġ Î
Ġdel iver
P arent
sec ut
_{ -
The se
er g
Ġquick ly
ib li
ĠSp ain
ĠAs ia
point s
aut o
ĠL i
Ġown er
D on
Ġtask s
Ġc at
Ġappro aches
Ġcall s
R eader
G u
ĠJ an
,\ ,
Ġarbitr ary
Ġ\ (
att ribute
K ind
ud get
ĠDev elopment
ĠL O
Ġdep th
( *
Ġ ut
Ġprot ect
Ġar m
ĠC amb
Ġdiscuss ion
Ġtechn iques
Ġpert urb
ĠH and
Ġinit i
Ġc ensus
Ġor ient
Ġcont ained
ĠR h
G ET
w er
r ical
j oy
str a
Ġeffort s
aw a
virt ual
ĠJ ac
agon al
C or
Ġw aves
Ġmeasure ments
ic ies
Ġhead er
Ġmur der
Ġincre ases
Ġw ood
et ry
d ouble
ent h
\ _
ĠThe ir
olog ies
k ins
Arg s
Ġcoeff icients
og ene
ell i
ĠHistor ic
Ġmag azine
Ġcre ating
Ġr an
Ġ+ \
stand ing
ici ency
Ġj son
Ġh usband
SE T
ĠP ubl
le ep
ex ports
G S
Å ¡
Ġc ounty
L P
ĠMich igan
m ond
Ġv ac
el i
) ^{\
Ġcal c
ĠO x
Ġ ),
g g
ent er
Ġexp ressed
M B
S ION
AT H
com ment
pl ugins
Ġinv oke
st o
t oggle
Ġen h
bl ue
ar ia
Ġcomput ed
un ior
ĠU s
Ġr ing
u er
sq l
gy pt
and ra
p icture
` .
Ġlead ers
Ġp urs
Ġorder ed
li e
Ġfail ure
Ð º
Ġro ut
at ers
ĠV is
-------------------------------- --------------------------------
Ġsh oot
at riate
ĠJew ish
Ġal leg
Ġsim ulation
ce an
Ġ( '
Ġf irm
In valid
Ġmod es
Ġinv ariant
Ġt ouch
agn ost
Ġax is
m i
Ġby te
Ġfl at
ino is
Ġintrodu ce
ĠR E
Ġr ailway
Ġblock s
Care er
Ġex change
Ġachi ev
Ġcre ation
AT A
) _{
Ġp p
ĠOh io
in itial
Ġth reshold
Ġon to
ĠĠĠĠĠĠĠĠĠĠĠĠĠĠĠĠ ĠĠ
Ġtr ust
b ury
ĠF red
j e
Ġs ave
Ġrestr ict
By tes
r ick
en um
M ed
T ab
ĠE vent
Ġat tract
ĠCO VID
Ġabs olute
Ġo s
Ġinter val
ay lor
A pi
Ġfam ous
Ġac com
ĠS outhern
def ined
inst all
ĠJohn son
Ġch art
Ġh ar
new command
end ix
B ody
Ġc ities
ĠJ SON
w riter
Ġp ull
r ate
Ġser ious
ĠI O
Ġdefe ated
ack et
Ġin form
Ġreg ime
inn ers
ion e
cl aim
196 3
hold er
Field s
ĠR adio
Ġslight ly
I A
Ġincor por
cl oud
reg ister
re place
Ġachi eved
arg ument
od ay
OR M
r idge
196 2
Arg ument
Ġn ine
Ġm ill
rec ated
Ġstreng th
Ġcover ed
Ġpr ice
Ġar my
D elete
U RE
W riter
T S
ud io
Ġgr id
ĠS pe
ang ing
Ġ} \
Ġocc urs
ĠG ame
ang ular
ad min
Ġal gorithms
ĠV alue
Ġcl oud
O K
Ġw orth
Ġprov ed
m ic
Cl ick
Ġdirect ory
Ġnuc lear
Ġp refer
anc ing
Ġunderstand ing
y er
it o
m aterial
Ġdistribut ions
Ġent ity
Ġh idden
D ialog
ĠM P
ĠRep resent
Ġw atch
clud ed
Ġ+ +
Ġfore st
ograph ic
Ġle aving
Ġass igned
ĠP acific
Ġext rem
urb an
Ġes c
Ġget s
ĠDemocr atic
B efore
Ġden otes
en ant
Ġd raft
fr ont
Ġenc our
Ġh ospital
Ġcou ple
En abled
Ġh op
ĠJ ones
ĠS und
by te
Ġdise ase
r ine
' m
Fil ms
Ġs al
mod ules
Ġm olec
W rap
Ġstr ateg
Ġins ert
ĠM ov
ĠH ig
sh all
A F
Ġident ify
ap plication
Ġdram a
ĠIs lam
con nect
ĠP ak
) ).
ĠÂ £
ĠR equ
Ġclaim ed
Ġoffic ers
; <
b its
Ġtr ained
ul s
Ġrap id
v ol
and ard
m argin
R oot
ard en
Ġprot ocol
Ġs n
P ackage
Ġw rap
Ġaltern ative
ram es
ition ally
Pol icy
Ġeff icient
ĠB oth
rec ord
ins ert
r ub
Ġto ol
Ġany thing
et ts
reg ion
il a
ĠI d
ĠB ow
sk y
r adius
Ġb illion
ud es
' ))
Ġindic ates
igh ter
Ġsim pl
Ġbehav i
ist ical
cm d
d ict
.~ (\
ann er
Ġst able
Ġtrans formation
) ^{-
ĠCent re
ĠT ele
ad el
Ġp ure
Ġdig ital
Ġin fr
item s
ĠM any
ĠSec retary
ĠE lect
N G
Ġcoordin ates
F ound
bul let
TE ST
Ġelection s
D L
co in
__ (
ĠCon ference
n ames
FA ULT
ach us
ig in
burg h
b ot
Ġo il
are t
Ġoffer ed
Ġr ail
Ġstat istics
im s
Ġdet ailed
Ġass ess
s che
Ġst orage
at ible
Ġvert ical
Ġsu c
25 6
ple ments
C re
$ ).
em ail
Back ground
m ock
f ri
Ġr ise
orn ing
l as
Ġanal og
ĠQue en
ĠM ajor
Ġth r
Ġby tes
p ower
Ġestim ates
ĠR am
h ar
p an
Sh ow
ĠB ul
call back
Ġman aged
ic ity
ĠU ser
h aps
D C
ĠB usiness
Ġdel ay
i ant
M ock
ĠS ong
ell er
Ġmaterial s
Ġpart ition
ĠG ood
Ġall oc
ĠU kr
Ġvis ible
ĠHT ML
ĠScot land
Ġcl imate
ĠCar l
ĠJer sey
enn is
Ġcirc le
Ġre ports
Ġbeli eved
pm atrix
Ġex c
ist ent
By te
n umer
Ġcult ural
ts d
194 4
Ġsuc ceed
rom ise
Ġshow ing
ĠGeorg ia
Ġse ctions
ĠAs ian
N E
Ġinterpre t
Ġ ice
Ġtri al
ĠH uman
ĠFrancis co
ir us
Ġser ial
Ġcompos ed
Ġserv ing
ĠP oint
) _
Ġadministr ation
Ġp il
}^ *
s ime
ĠE conom
Ã £
ĠF C
bo olean
Ġe q
n n
ĠM iddle
m aster
Ġp y
Ġv ary
ol ver
r ons
t wo
Ġgen us
il ib
ĠP op
Ġsing les
for ward
Ġpro test
) ),
Ġre asons
Ġcol on
Ġl ies
os a
ph one
sime q
ĠL ab
Ġpar allel
ĠĠĠĠĠĠĠĠĠĠĠĠĠĠĠĠ ĠĠĠĠĠĠĠĠĠ
Ġsome one
od ec
Ġnot ice
ab eth
Ġs qu
Ġconstr aint
Ġag reed
) "
Dis play
ĠSpec ial
ĠR et
em porary
og rap
m c
Ġachi eve
Ġpro min
Ġvict ory
H z
Ġre ject
h av
Ġmod ified
Ġinter actions
let on
ĠS ar
ul f
Ġiss ued
Ġdiffer ences
AG E
Ġgu arant
Ġ icon
ĠB oston
Ġth ous
Ġcur ves
196 1
Ġsus p
Ġdes c
rem ark
à ¸
Ġl if
Ġ&= &
ac le
Ġs chedul
go ing
Ġr ac
Ġ< =
Ġadopt ed
S ome
se ar
Fig ure
Ġdiscover ed
ĠU se
Ġh ope
Ġsing ular
ploy ment
Des criptor
medi ate
Ġn am
b el
ud a
ĠIll inois
achus etts
sh ape
ĠS U
ab il
B i
Ġb att
Ġgrow ing
Ġper fect
Ġmat rices
I X
} %
B E
ra wn
Ġrec all
key s
ĠEd ward
g est
P lay
D em
W ill
Ġresp ond
Ġp an
}} ^
her it
Ġrecord ing
Ġim ag
Ġsp atial
Ġap plic
ĠWilliam s
Ġact ors
Ġpat ients
orn ey
ĠT ra
Ġstrong ly
ic ed
Ext ension
D oc
ĠW ay
b re
ĠJ es
ri um
Ġconduct ed
C I
Ġcle arly
Ġoff ers
ur ies
Ġv oice
Ġevery thing
sup er
ob s
Ġf ine
Ġtrack s
ĠEn ter
ĠMed ia
Bo olean
on ical
gr id
m o
W orld
Ġcommun ication
pos s
Ġprocess ing
ĠSen ate
ph y
ĠTr ump
Ġp ool
ĠM ain
Ġf reedom
CT ION
Ġsub set
Ġdist ingu
c uss
ov ed
Ġdepend ence
Ġrepl ace
Ġh ydro
Ġ' /
call ed
Ġr are
it age
Ġpro pos
ĠK ong
Ġcy cle
ado op
r id
ĠSt an
Ġvers ions
Ġh undred
An y
Sym fony
SS ERT
epend ence
Ġp iece
O M
p a
Ġen joy
ang o
t ik
Que ue
pass word
ĠV iew
N etwork
u ous
ĠC ode
Ġex tr
Ġlaw s
Ġindic ate
lo op
Ġsymmet ric
ĠM en
Ġmeasure ment
Ġatt ributes
ĠE gypt
ĠB ern
n one
st op
194 2
Ġin tr
ĠK ent
ĠComm on
ĠS u
hen omen
Ġset up
ĠP rem
Th us
Ġsh ips
ult s
Ġsett lement
d iff
Ġprofess or
Ġm useum
ĠA cc
Ġun less
ier arch
lo ok
ank s
Ġtyp ical
un signed
Ġreg ional
S M
Act ive
g ers
Ġopport unity
Ġal one
In itial
e z
Ġexecut ive
Ġw allet
ren ce
ĠHe ad
ĠH ome
ĠU RL
Ġdef in
ph as
ens ed
i ate
Ġf le
Ch anged
Ġ Å
ĠPl an
ellig ence
ĠR ay
) }{\
Ġaccept ed
Ġm arriage
tain ed
ĠT HE
Ġoper ating
ĠRev iew
$ $\
194 8
_ -
C ustom
Ġoper ated
Ġ( *
$ ^{-
ro ke
Ġcoun cil
Ġ ^
o ir
ock er
Id ent
Ġattack s
k g
Ġs ister
Ġsaf ety
P U
ĠA ff
s el
ĠBl ue
Ġart icles
Ġoccur red
St orage
l aw
195 6
ĠOx ford
Ġmechan ism
Trans action
flo or
` ,
Ġl anguages
Ġaff ect
Ġ ul
195 8
G eneral
ond er
ing ham
ĠL uc
) },
X ml
ĠErr or
Ġpro port
ĠT ro
import ant
od d
param eters
oper ation
est s
Ġb ass
195 9
pect ive
omorph ic
P ublic
H S
Ġwest ern
C ast
ĠC ard
Ġint ended
Ġf elt
D P
ĠLat in
sp ring
ĠĠĠĠĠĠĠĠĠĠĠĠĠĠĠĠ ĠĠĠĠĠĠĠĠ
ĠA R
Ġse at
not es
ul y
Ġm ock
ast r
em y
ĠC y
ay a
Ġm sg
Ġj ourn
ĠPol and
ĠH a
W S
HT ML
N ational
N R
Ġmark ed
Ġinterest ed
ĠW ell
t or
Ġe mail
Ġact ing
F ix
Ob j
ĠG re
Ġneighbor hood
A ME
am m
ĠMass achusetts
ĠGa ussian
ĠCo ast
ĠW all
)\ \
Ġimport ance
Ã ±
Ġrepresent ing
ĠL im
ribut ed
Ġacadem ic
} )$.
ĠĠĠĠĠĠĠĠĠĠĠĠĠĠĠĠĠĠĠĠĠĠĠĠĠĠĠĠĠĠĠĠ ĠĠĠĠĠĠĠĠĠĠĠĠĠĠĠĠĠĠĠĠĠĠĠĠĠĠĠĠĠĠĠĠ
ĠTechn ology
Ġk ernel
il ly
Ġv ectors
ĠC a
. *
Pro p
Ġbound s
ĠT ext
pro du
Ġansw er
St ep
Ġadd ing
Ġw all
Ġcomm it
Ġres idents
J SON
Ġg ap
Ġ$ $
Ġacqu ired
ĠC ro
Ġret ired
ĠJ r
u v
Ġclaim s
Ġlay ers
=" @
19 39
istr ation
Ñ ĥ
Ġearn ed
ĠGovern or
ic ial
eng er
Ġre ct
ĠJust ice
Ġdeg rees
i y
Ġre sear
oth ing
ĠF ederal
th read
j ust
12 8
ar ation
st able
ac ro
ĠM ah
ry st
el d
dom ain
Ġ= \
' ve
Ġobserv e
Ġjav ax
Ġabs or
ĠS ol
\| _{
Ġfe at
Ġsec ret
ik i
M eta
ĠEast ern
IT Y
ĠN OT
6 00
gr ade
ĠV an
ĠSt at
it ness
On ly
c pp
Ġcrit er
Ġsubsequ ently
ĠComm and
Ġdep art
Ġact s
u ing
Acc ount
R ule
Ġdiv ided
Ġwid ely
195 7
con nection
)$ -
Ġl ic
Ġp aid
194 1
Ġm orph
25 0
@ "
M ember
Ġl abor
Ġcon sole
Ġcy cl
od ies
Ġs ales
on to
Ġcom edy
Ġ ens
Ä ±
Ġallow ing
ĠI P
S end
Ġcost s
ott ed
ĠPr ince
r an
ar se
pro perties
t w
ĠThe atre
Ġbr idge
Ġpart ner
Act ivity
AC E
S cope
Ġap i
M R
Con st
im pl
ĠD utch
Ã£ o
ĠPort ug
i Äĩ
^{ +
F R
Ġreve aled
ar ters
ĠHamilton ian
s en
Ġth ick
Ġmet al
Ġyield s
pon ential
Ġsp irit
Ġstr ugg
Ġconf irmed
e ach
ce ived
Ġhyp ot
S ch
Ġredu ction
Ev ents
Ġpolitic ians
j ar
G C
Ġbe aut
ĠL y
Ġlead ership
not ation
j query
h y
ch annel
sc ape
Ġdr iver
ele gate
ook s
ĠProfess or
D S
ĠE p
] :
P ool
Ġst ock
Ġdes cent
Ġwe ap
ific ate
Ġprim arily
ĠM id
Ġst ellar
Ġfund amental
M edia
d ependent
Ġsuccessful ly
194 3
Ġprinc ipal
clus ive
v in
f i
sec urity
ast e
Ġmass ive
Ġh tml
and on
Ġw rong
ax is
eff ect
} &
a is
pro position
Ġup dated
Ġp ush
Ġded icated
ĠSup reme
M sg
The orem
on al
Ġpor tr
ec es
Ġb tn
od ot
ĠR o
al id
Ġide al
KE Y
Ġcitiz ens
Ġis ol
w ild
. '
Ġsur pr
M atch
Ġsuggest ed
Ġconver gence
in ity
ĠC H
__ __
Con s
h adoop
194 6
==== ==
lim it
arri er
sc roll
ird s
EC K
Ġs quad
Ġle aves
ĠSe a
g reen
Gr id
k w
H ow
ĠCol lection
B rit
ra q
Ġsatisf y
195 5
ĠUS A
Ġassert Equals
tik z
Ġinstall ed
"> &
s ch
Ġofficial s
Ġfootball er
s uch
ĠKore a
Ġdet ect
ĠPhil ipp
m ove
Ġke pt
ĠH arr
Ġrequire ments
k es
b ell
te en
ash ion
Ġro ugh
ĠP ower
ab y
nap shot
Ġtra ffic
Ġd imensions
b ad
Des c
hent ication
% )
ly ph
n ic
B it
ĠBro ad
Ġf ellow
Ġkey s
P RE
ĠColumb ia
( !
$ ;
Ġview s
cknow led
Ġinstance of
Ġman ifold
ĠP ass
inal s
Ġex cit
Ġ ult
Ġas ympt
ĠB ecause
ex ception
Ġregard ing
Ġd b
ĠOr gan
est ic
Ġyou th
Ġcan cer
A v
he tic
ĠPh ys
TE D
U ID
Ġnear by
Ġlaun ch
ver b
z h
Ġsum mary
ĠJack son
, $
Ġg ain
cre t
ĠH ospital
Ġcon ference
Ġw ild
Ġob vious
M ay
~ $\
Ġmatch ing
Ġfind ing
ĠPol ice
W idget
s ince
ic ip
_ ->
ĠA L
ad ing
195 2
n etwork
Å Ĥ
Ġfor t
Ġch annels
Ġp and
Ġloc ations
r ase
a ug
Ġinstr ument
Ġo dd
iz abeth
ĠAnd rew
Ġperson nel
map sto
Ġconc ert
Ġc ov
ĠSec urity
t ty
FI LE
h box
ta il
Ġro ll
L ock
j pg
p ot
s creen
Ġclub s
n i
Ġf re
display style
Ġ ..
or ough
Ġdepend ing
ag ers
par ison
Ġang ular
Ġfocus ed
form ance
Ġdifferent ial
ap pe
ĠOn ly
Ġinstit utions
drop down
Ġext end
Ġlim its
By Id
Ġthem e
ĠB ack
ĠI l
op her
ex ists
Ġcolumn s
W A
() ).
d ates
pl ot
anc el
Window s
Ġenc oding
ur er
Ġp henomen
ĠN O
G en
Ġto ols
Ġmin imal
des c
ĠIn formation
is c
ilib rium
' (
Ġnot ation
Ġro les
Ġs pl
Ġhe at
ĠB u
Time out
uck y
ĠF our
Ġp seud
Ġw or
C ap
z en
194 7
Ġpower ful
Ġso ft
Ġsecond ary
c b
Ä į
Ġsex ual
ĠĠĠĠĠĠĠĠĠĠĠĠĠĠĠĠ ĠĠĠĠĠĠ
Ġl at
Ġimplement ed
ĠF inally
ĠMan agement
add r
P erm
U sing
ner gy
ĠS and
urren cy
Ġcontin ues
Ġcandid ates
ul pt
Ġdev ices
195 4
ĠWil son
In v
1 10
tx t
Ġapp arent
we et
t otal
Ġchem ical
Ġtechn ical
Ġv on
Ġe lem
Ġhous es
Ġsub stant
ors hip
st ats
pr imary
Ġpol icies
Ġspect ra
ĠRepublic an
ĠW ild
$ &
un a
Ġorgan ized
Ġ\ !
Ġadvant age
Ġgrad ient
Ġpur poses
Ġmagn itude
ĠE st
Ġ il
os itory
Un ited
Ġeconom y
or gan
let s
Ġstart s
an es
ĠK en
ĠH ong
Ġ% }
al ing
ĠF alse
S ports
Ġa wards
eder ation
ĠN ight
Ġm apping
Ad apter
it ical
ĠW is
}} ^{
ĠM u
Ġm essages
th ur
ĠS O
Ġide as
que ue
| }
Ġobserv ation
Ġexpand ed
Ġdescri bes
ĠC at
am ber
ĠScott ish
Ġge ometry
ass ets
Ġem phas
ĠS ervices
] ]
Ġcapt ure
; /
ĠB ell
D R
b en
ĠMus lim
se lected
Ġl ab
Ġpred iction
Ġfac ilities
R est
Ġd ir
Ġfunction al
Ġsecond s
Ġb ill
Ġord ers
ook ie
ĠComm unity
LO G
Char acter
Ġscatter ing
ĠJ oe
D el
Ġcommon ly
() {
out heast
VER SION
ĠG lobal
Ġf ill
ĠAlex ander
Ġs port
rop ol
oc cer
i able
Ġp et
Ġp sych
Ġc er
S pace
Ġp i
v s
194 9
Ġag greg
Ġtro ops
Ch annel
ĠCor ps
ĠR ailway
ĠAmer icans
Ġlabel s
Ġatt end
Ġent ries
ĠBro ok
ograp her
ful ly
ĠW ater
ĠT aylor
D I
ĠC opy
Ġassoci ation
ĠM ot
on ia
Ar ch
V ol
h ard
id ay
Ġepis odes
)) )
con g
Ġb lood
Ġdr ive
ĠT w
Ġp le
: }
Ġexpl ained
Ġcl in
M I
ĠH ung
ĠU sing
Sup port
Ġfig ures
ç ļ
are a
Ġres on
195 3
f ix
J ECT
ĠStud ies
Ġphys ics
l ate
Ġconsider ing
M T
Ġbr and
Ġread er
Ġlarg ely
ĠSc iences
ch or
che ster
Ġlist ing
ĠJ eff
os is
ph ia
Ġrot ation
s ave
proto buf
b ro
Ġgalax y
ĠK enn
Ġdynam ic
Ġn g
ĠW indow
En um
Ġoptim ization
ĠMin istry
ĠA N
Ġpre p
ĠY our
Ġan cient
Ġp icture
X T
Item s
Ġ era
] }
Ġc ool
semb le
G raph
Ġs ides
Ġmass es
sc ill
Ġret ri
Ġt a
Ed it
Con str
_ (
Ġpr ime
[ :
Ġhon or
Ġaff ected
l g
Ġl iber
l arge
ĠFurther more
iz able
Fl ags
Ġbut ton
ig a
\ {\
circ le
ĠB BC
Ġhand ler
ke ep
MA X
Ġopt ical
m ass
Ġimprov ed
ap es
t an
Ġp ri
çļ Ħ
F loat
Ġp ages
Ġdef end
Ġprogram ming
Ġtr igger
al so
Ġprote ction
Ġt end
ĠL o
Ġdis pl
ĠIn itial
Ġarr ived
Ġnuc le
$ ~
ĠDan iel
d p
Ġ[ ];
Ġtrans lation
us es
c ref
Ġcoordin ate
h bar
h orizontal
ĠM A
ĠT ask
Ġs ust
Ġequip ment
ĠMed ical
ĠJ on
id el
Ġg irl
ĠL ater
ell o
D ist
Ġadj ust
Ġunder lying
pro file
195 1
ĠE ven
y o
ĠS om
ĠV iet
adel phia
C F
ĠB a
In ternal
Se lected
Ġtre es
im ately
Ed itor
- $
Ġtri ed
| _{
Ð° Ð
inn es
In it
Ġen able
Ġcapt ured
est er
w orld
Ġcon j
) }}
Ġcall ing
Sy mbol
p res
AR Y
ex ternal
=" ">
ire ment
s ol
[ (
Ġto ward
Ġplan et
il ing
Ġmed ian
Comm on
Ġfif th
Ġlearn ed
ĠS i
Ġop in
an try
Log ger
Ġb in
Ġad m
olog ist
ĠRep ort
Ġwin ner
ed it
Ġveh icle
M ENT
ĠC ub
ĠJ ean
Ġtheore tical
SI ZE
Ġh ockey
cont roller
erv ative
ogene ous
or i
() ));
en ess
ip age
ĠP aram
ĠN ations
L em
ĠDef ault
ĠOlymp ic
Ġgre w
ĠPol ish
th rows
Ġtechn ique
Ġn arrow
w all
ĠV ersion
ĠVictor ia
P anel
am i
ĠGu ard
Ġnot es
Ġsubsequ ent
Ġcon clude
b rowser
up s
Ġauthor ity
child ren
ĠB ang
ĠF ar
it led
un ities
Ġtw ice
key word
Ġdam age
am in
Ġhous ing
Ġpath s
Ġinfin ite
Ġbase ball
ĠK r
com ponents
Ġeval uation
ĠA uthor
v c
d y
Ġperform ing
cc cc
here nt
=" "
Ġen abled
ĠEx t
Ġcomplex ity
ĠL ight
er ial
T ABLE
Ġchall enge
um es
g it
Ġfact ory
Ġsaf e
im it
ĠD ar
Ġrem ark
Ġex ecution
V ideo
h ome
Ex pr
innes ota
B rowser
ĠAl b
Ġcalcul ate
ymmet ric
ĠBer lin
Ġpolit ics
Ġst ress
s chema
O wn
ĠC reek
p erson
ev ents
ĠS ta
Ġamplit ude
Ġinvest igation
ĠA nother
ĠL ittle
Ġtransfer red
Ġcr ime
w hen
ĠOffic ial
ou red
sum er
Ġprinc iple
min ipage
w ater
Ġf unc
ĠPr ime
d em
R R
Ġtr uth
Sec urity
ut f
est ion
8 00
Ġmed ium
Sec ond
Ġis n
Ġsold iers
act ic
Fil es
Ġscient ific
ĠAd ministr
Ġst reet
ĠF I
Ġalong side
v ing
ĠI raq
m ma
Pr int
Ġbe am
Ġl ie
her ited
ath an
Ġwhere as
ord ers
Ġuncertain ty
Ġem p
h u
ĠSt ation
man ager
Ġshe ll
) -\
> \
Ġeast ern
Brit ish
Ġdecl ared
l ife
Ġpo inter
C ond
Ġhand s
T wo
Ġf ans
Ġl ib
Ġme ant
Ġinvolv ing
J ob
ĠL ocal
pre c
Ġinteg ration
cre d
ent ed
ĠL ag
Ġserv es
ĠO ption
', '
ĠF ree
19 36
ĠM ember
eng ine
I E
Ġac comp
Ġflo or
ĠM ult
m osp
Ġv acc
ac ent
Ġtherm al
Ġde leg
un te
) --
H igh
EX T
Ġnewsp aper
yd ney
ĠE lement
Ġsuggest s
Ġcompos ition
Ġpand emic
Ġacc eler
ĠCor poration
Int roduction
ist ed
av or
Ġf ru
Mem ory
Ġemploy ed
Ġpen al
eg o
T A
Ã ¸
Ġb udget
Ġmunic ipality
p red
ele ase
Ġeff iciency
an th
} }$.
Ġo scill
astr ucture
to ol
Ġsign ature
comple te
ĠS ports
Ġexpl ain
Ġcr iminal
Pro xy
ĠBel g
z z
Ġ[ \
Ġcharg ed
)) );
Ġex port
Ġscal es
Ġver ify
ak i
Ġpl anning
B as
) +\
Ġs yn
Ġrecogn ized
p et
onom y
Su ccess
}{ |
Ġcalc ulation
Ġcon ven
Ġcon nections
}( {\
Ġab stract
ĠB C
Ġgraph s
Ġinter section
_ ,
Ġindu ced
P AR
arian ce
Ġn or
Pat tern
nt ario
ï ¼
M usic
Ġperm an
ĠB oy
Ġcomput ation
Ġa ware
l an
b ec
f old
ĠP en
V D
ble m
ĠSund ay
ĠArg ent
Ġinc ident
ĠN umber
eg r
ut enant
Ġa thlet
Ġdoc uments
Ġsup ply
A uth
Ġband s
Ġpl anned
Ġrec ip
Ġcan cell
Ġsol ve
) ">
se x
Ġenvironment al
Ġfin ish
ential s
tr igger
Ġengine ering
} )$,
Ġscen ario
I B
ĠA k
Ġ{ $
Ġus ual
ps on
Ġtem por
ĠA ction
ĠEl izabeth
ĠReg ion
Ġprov ince
Ġrepe ated
Ġrefer ences
V M
) )$
Ġsum mar
fl ags
Ġemploy ees
ĠF unction
Ġt ab
Ġexplicit ly
Ġspe ech
Ġsol ar
Ġexpl an
ĠR og
enn es
++ ;
P ATH
Po inter
ĠP rize
nt ax
19 18
ĠF ollowing
hand ler
Ġsom ew
Ġz one
ĠSt e
Ġear th
Ġfund ing
Ġmin ister
Ġnew ly
ĠPl aces
Ġim plements
F ull
Ġh ole
F S
Â °
Ġco al
Ġviol ence
ron ic
ac count
Ġman ner
Ġevery one
maz on
ĠF amily
", "
F inally
ag a
ĠJ ava
Ġmot or
} }$,
Ġappear ances
ap ol
Ġcalcul ations
Ġinv alid
Ġ ener
ĠR ail
Load er
Ġ{ {
stru ctions
Ġend s
Ġtr ace
Ġ[ [
Ġd iam
sw arm
Ġclust ers
ĠTh ree
pos itory
Ġgrant ed
W est
ev es
av ity
Ġhigh light
Ġf lex
ĠS pace
L java
aw n
$ ),
r andom
Ġrecogn ition
Ġrequest s
RO M
form er
Ã¡ n
iv ation
Ġhe ard
Ġcol lected
all oc
el ess
Ġfeat uring
Ġtre nd
Ġconv ex
Ġm iles
in son
Ġloc ally
Ġdec ades
it ivity
ĠM aster
Ġl icense
wild fly
L o
}{ (
Ġv en
per iment
O pt
R oute
Ġcop ies
Ġdestroy ed
Ġassist ant
ct rine
Ġpromin ent
10 1
U L
Ġ$ |\
Ġte aching
Ġp owers
B P
M atrix
Un iversity
12 5
ĠC ount
[ $
by tes
Ġdevelop ing
NavBar Cell
config uration
ĠD own
. [
y g
ĠV ill
ĠStep hen
ĠRev olution
h l
Ġdes ired
Ġbeg ins
Ġinvest ment
Ġprom oted
Ġspec ifically
Ġsub group
if ts
Not Null
t iny
Ġlate st
C M
Ġrob ust
osoph y
ze ch
ĠR ome
ĠM ir
ĠEx ecut
cond ition
Ġauthor ities
'] )
ĠF ace
19 38
H R
Ġrepresent ative
Ġp ra
Ġscal ing
ĠInd ex
R et
) }_{
%% %%
h ire
ĠM ike
A rea
Ġmat hemat
w ords
Ġa wait
' ll
ĠA li
Ġp al
Ġd aily
}$ )
Ġb oy
per or
get Element
Ġc ref
p arser
if iers
ĠR os
Cl ose
Ġpre par
=" ${
per ial
&= &
Ġpattern s
ost er
ĠKore an
ict ures
Ġconstit u
i Ã³n
ĠB al
at io
Ġcons ult
f act
og en
c ert
ĠF und
Ġregister ed
P ay
ĠL ew
type of
Ġcom ments
rop ical
ĠG ar
Ġcomput ational
Ġin h
Ġ" "
18 0
Ġbuild er
art icle
ĠO s
Ġgrad uated
UT F
Ġrem ember
Ġcre w
ĠC irc
log ger
Ġdis crete
ĠTO DO
Ġsurround ing
Ġind ustrial
Select or
Direct ory
Ġread y
an z
es ian
Ġind eed
con tains
Ġcont ro
. __
S m
iv ery
le an
ĠW he
Ġreview s
Ġchang ing
Ġdown load
J ava
19 37
Ġad vert
Ġag ric
oun try
Ġc ars
ot on
Ġfl ight
Ġposs ibly
ð Ł
ĠCamb ridge
Ġpass ing
math op
ph ys
Lay er
if ul
Prot ocol
Ġhapp en
to ols
The refore
Ġinsp ired
h idden
Ġ ion
n il
ĠAn y
ĠB ad
Ġcirc um
Al though
os ity
To String
Ġex erc
Ġpro jection
Ġb right
ĠB on
ult ane
S cale
Ġcharg es
Run time
Ġest ate
ĠĠĠĠĠĠĠĠĠĠĠĠĠĠĠĠ ĠĠĠĠĠĠĠĠĠĠĠĠĠ
A ustral
ĠCl ark
Ġadministr ative
c am
ur ations
li k
ĠIn f
Ġop posite
ĠW alk
T erm
Ġeval uate
Ġch ance
h ol
t mp
Ġcam era
-> _
Ġadv ance
ap ore
} </
Ġobject ive
ĠIs lands
g eneral
Ġturn s
con sin
op ic
Ġin nov
H is
app ly
Ġr ural
ĠCon fig
Ġ= ========
Ġre ality
Ġsc ulpt
Ġinst ances
Ñ ı
ĠS em
Ġf n
ak s
ĠCh ris
ĠUn ivers
Ġwe ights
ĠDes ign
B B
Pro file
Ġbe at
Ġfa ith
//////////////// ////////////////
assert Equal
ĠT am
Ġpe ace
col lection
Sc roll
Att ributes
Ġcomm ittee
al gorithm
ab ric
Ġdatas ets
B ound
Ġcompet ed
Ġr aw
rit ical
D T
prot ected
ĠS ant
[ -
In ternational
agn etic
Ġtell s
clus ions
Ġ urban
ĠR ights
âĢĿ .
I ST
res et
Ġadv oc
Ġadv anced
ĠA ND
Ġveh icles
Eng ine
" |
Ġcover age
In s
con v
ĠB and
ĠF ire
Ġout er
e cho
Ġ io
Ġbal ance
uz z
ed itor
ul i
ĠR od
ON E
ĠPhil adelphia
Ġtra ject
Ġst ability
Ġaff ili
à ¥
IN FO
arr ing
ul ator
ch mark
og ram
web pack
c u
Ġrepresent ations
ĠPak istan
ist ence
Ġcont roller
U LE
* )
Ġsh op
anc er
Ġres ident
ind s
Ġcharacter istic
Ġs ym
sh adow
Rep ository
Ġp it
Ġqu adr
D est
Ġcor por
ĠM innesota
ak h
ĠA venue
Ġfind s
S eg
ip se
Ġpre v
R S
ater n
ĠO ntario
Det ails
Ġsup erv
Ġcoeff icient
Ġag ents
Ġvari ation
FF FF
atur day
ĠS uch
Ġaud ience
ĠS ym
ĠIm age
Ġnav igation
Ġc ategories
Ġex ponential
ĠS ydney
Ġhe av
Ġfl uct
Ġnam ely
Ġir re
y al
Ġcomp r
Ġsupport s
Ġfund s
Ġaud io
Ġrece iving
Ġstat istical
ort heast
Ġden oted
ĠR en
he im
Ġt al
ig ital
sw itch
ĠS us
he t
S che
ĠN ether
qu arters
Ġd ie
ĠTor onto
ĠDes pite
or iginal
Key s
if er
low er
at ar
ĠS a
Ġcaus es
Ġbehavi our
ĠMc C
ĠP ers
Ġfac ulty
il bert
up load
g ies
ro le
Ã© e
$ :
f ixed
Ġautom atically
ĠS her
au x
ĠR oute
Ġport ion
Ġhistor ic
isl ative
Ġpl ants
........ ........
Ġlay out
at on
pl us
ap ed
Ġposs ibility
ĠM arg
let ed
g ment
get Name
ĠF re
Ġe lev
ĠA sh
Pl ugin
II I
ph ant
Ġbenef it
Ġstr ings
Ġcon vent
nav List
ow a
Ġsu itable
Ġsh ock
Ġpl us
BU G
v o
id i
Ġtyp ename
19 35
Ġrecomm end
em on
ĠA rea
Ġoption al
Ġsp ac
Ġc orner
ĠIn ternet
" `
ĠN ode
ut able
Ġd ro
s at
Ġmon itor
F IG
y ard
ĠT ok
pro ps
Ġsil ver
Ġre form
F unc
b g
od s
G lobal
D uration
ĠO t
\ )
ĠAn th
g ame
is is
Ġtit les
hed ral
Ġapp lying
head ers
R AN
X ML
ĠH un
gener ated
Ġsol o
Ġfac ility
Ġmusic ians
ĠR om
ĠF air
tab s
ĠW eek
Ġgener ic
op es
Ġbel ief
Aut o
Ġconst ants
ach ment
Ġv otes
ĠUp date
Person al
B I
Ġjob s
im b
ĠCol l
M apping
IC E
par agraph
Ġne ural
ĠReg iment
S ER
Ġt ail
Ġthe ories
Ġb undle
19 19
Ġaccur ate
D ouble
Ġover l
v i
Ġex it
ask a
Ġcont rolled
ĠP ath
Ġor bit
Ġc e
Ġque ue
Ġent ropy
is er
int on
Rem ove
ĠR aj
ĠP age
Ab stract
Ġoffic ially
ord an
Ġco inc
function s
s ys
cuss ion
Ġfe et
) [
}[ \
j oint
Ġper haps
IP T
Ġaspect s
u um
ĠSt art
Par se
N ov
ron ze
w ing
Fe ature
Ġ ip
Ġclos ely
Ġ{ '
Ġinst ant
Ġestim ation
19 14
19 33
Ġst ored
bour ne
Ġresult ed
v ard
Ġrem ote
Ġdet ected
Ġpublic ation
Con f
Ġtr av
print f
Ġnot able
Ġsp an
Ġperform ances
A uthor
The y
Ġdef ense
Ġconsequ ence
$ /
g ency
ĠS anta
ĠW at
H L
ST ATE
19 00
ad ed
che stra
Ġcamp us
less sim
un es
ĠRe al
f ire
Ġextrem ely
Ġent r
19 34
Ġsupport ing
met adata
Ġs ell
br id
Ġconvert ed
ĠL ast
ĠD at
C G
b p
Ġd ance
Ġor th
assert Equals
f ail
Ġd og
ct ic
Ġd ire
Ġbenef its
em et
Ġreturn ing
ch a
$ };
ĠSup port
m ask
r ang
Ġconsist ing
ĠĠĠĠĠĠĠĠĠĠĠĠĠĠĠĠ ĠĠĠĠĠĠĠĠĠĠ
Ġex ceed
ind u
ĠQue ens
ĠV en
Ġexper i
A ng
r ank
ĠAnt on
coll apse
ro ut
e lect
Ġte le
å ı
v ee
S pe
Con n
ĠS I
B est
ĠĠĠĠĠĠĠĠĠĠĠĠĠĠĠĠĠĠĠĠĠĠĠĠĠĠĠĠĠĠĠĠ ĠĠĠĠĠĠĠĠĠĠĠ
Ġpredict ed
est abl
Ġas ync
G O
< !
Ass ociation
w eg
f x
S outh
19 17
ĠAir port
S QL
Sum mary
Ġg ained
ĠTr ust
U nder
ast ers
Ġb os
Ġterm in
ack s
f all
iv ated
N ULL
Ġre q
Ġrow s
Ġattempt s
Ġmunic ipal
pl atform
erv es
Trans port
Ġintrodu ction
ear s
Ġesc ape
Ġd ict
Ġle mma
d frac
ĠD ir
ĠK im
ĠD er
C ategory
ĠDu ke
Ġs izes
poss ible
riz ona
Ġd ialog
con str
Ġag ree
S Y
Ġs an
ĠEngine ering
wrap per
ĠI V
Ġm orning
w orth
Ġp refix
per t
ĠD ist
Iter ator
^* $
$ _{
ĠWis consin
Ġf erm
Rep ort
S ocket
ĠChrist mas
ĠG ro
Ġl umin
p icker
Ġelectron ic
Ġexpl o
Ġmount ain
Ġin verse
Ġrest aur
iven ess
Ġc row
Ġar ts
H ome
ur ance
h ide
pro gress
Ġr aces
Gener ic
Ġr ain
Ġconf irm
Ã º
Ġat mosp
Ġsp ring
Ġ( _
12 3
R C
ĠN on
F ail
ĠH om
d ialog
Ġ\ ]
Ġinterest s
Ġsatisf ying
Ġext ent
ST AT
is ely
Ġch ampion
Ġconstruct or
sim ple
ĠSh ort
Ġtre ated
Ġterrit ory
| }{
19 29
Ġh abit
it ative
ĠNether lands
ur ches
in er
Ġm obile
Ġh our
ix els
igr ants
Ġext ensive
Ġcon vers
ann a
Ġd uration
cri bed
el ly
ĠDav is
em an
Ġbusiness es
ĠBr ig
Ġsh ut
ĠL ady
ĠA z
unn el
are st
Ġdisc r
Ġun able
al ion
Ġbro ken
eli hood
as et
ĠC are
Ġre action
Ġr ich
Ġsp ot
ab out
emet ery
Ġchalleng es
Ġ" <
######## ########
rior ity
ap h
ĠL es
ĠW inter
Ġentire ly
\ }$.
Ġw inners
id x
ĠC ur
G ame
iter ator
fil ename
] $.
19 28
plic ity
ĠE ll
Ġsampl ing
S ync
iffer ent
D M
Ġn arr
L eg
ouri er
ĠEn vironment
li ance
oc aml
og y
ĠW ars
Ġhost ed
u ating
Ġsepar ated
Ġf ell
á ĥ
m n
ne ver
ĠB att
ign ment
Ġref ers
j an
ĠV AL
ch ain
Ġlet ters
Ġdr iving
Ġexper t
c ow
Ġjud ge
Ġxml ns
Hel p
Ġd rawn
ĠF ox
it ational
Ġd iver
t body
clos ed
ĠRes ource
Ġsp ons
ĠOb serv
Ġacc ident
ing ly
Ġsufficient ly
t ion
rel ations
Ġindic ated
Ġbi as
Ġf iction
Ġr ational
ipl es
Ġ" ,
ty ped
Ġexp atriate
ĠPrem ier
Ġpi eces
Ġk ill
ibli ography
Ġfrequ ently
igh th
Ġhousehold s
all classes
% ,
Ġdem ocr
prot ocol
Ġinstit ution
Î ±
,\ \
Ġb rowser
ĠL android
ri e
Dat abase
T ele
Ġw itness
ĠRe act
ĠC orn
ĠG ree
Ġ= ======
Ġsch olar
or ient
Ġus age
ra ham
Ġappro ved
{ %
Ġinvestig ate
G A
F ailed
is a
ĠH o
ĠE very
Ġ ri
L C
D epend
Ġpass word
ĠCon f
Ġh uge
Gener ator
Ġhapp ened
Ġe le
Ġd ust
ĠB ru
-------- ----
ĠSpr ing
ĠR on
ĠIO Exception
f c
D av
Ġradi ation
Ġparticip ated
ĠL ev
Ġwas n
Ġstand ards
ast y
ed u
att ributes
N T
ades h
ap l
19 32
Ġw ing
ĠS ab
Ġcont emporary
and o
sing le
play er
ĠL abor
Ġsatisf ied
Ġpurch ased
ĠB ol
aj ax
Ġbr ain
ĠD oug
urs day
ĠK ir
Ġf ashion
Ġtype of
U D
Ġneg ot
Ġanim als
Ġfound er
Ġ? >
ĠB O
ef e
r ift
ever al
pl om
ĠCom put
ĠColor ado
f ol
p refix
ĠT al
ĠSt adium
ĠW ho
Se lection
Ġm and
ĠN az
Ġdo ctor
er ior
Ġb omb
ist ant
Ġsuff ered
ĠBr idge
ĠSur vey
ĠT ai
F ollowing
Ġd imensional
s ample
Ġre named
Ġsk ills
Ġag ency
be an
reg on
ĠSt eve
includ ing
Pro duct
ĠH ard
i em
m aven
ly wood
ĠBe ach
Ġtrans mission
Ġtr ail
Ġta ught
ĠH ay
33 33
Ġ ).
s a
Ġsim ultane
con n
ĠGold en
ĠL ike
ĠN a
Ġhe ro
v ari
er al
Ġv ess
ĠFore ign
Ġgu ard
ĠR a
p ur
r g
H C
ap os
ĠL ive
hen s
ist ing
ĠSwed ish
ess ions
uck et
ĠCont rol
ĠA thlet
Ġident ical
( __
ĉĉĉĉ ĉĉĉĉĉ
bu ilt
) })
Ġmix ing
Ġyoung er
O C
M any
Ġ rom
ĠInd eed
W rit
19 10
ĠS on
Ġp ars
ĠA re
ĠD am
s afe
Ġar ms
z one
Ġm om
Ġdecom position
; }
Ġinj ury
Ġcomm ut
ĠĠĠĠĠĠĠĠĠĠĠĠĠĠĠĠ ĠĠĠĠĠĠĠĠĠĠĠĠ
tain ment
Ġdi agonal
G R
ĠH ash
t i
ide os
t k
br ace
RE AD
T ra
ĠW el
art he
Ġequ ilibrium
ĠCh annel
force ment
ĠCon stitution
] $,
Ġeffect ively
Ġbul k
Ġdefe at
Ġapplic able
en able
dep th
ĠE nergy
ĠI E
Ġcover s
secut ive
sl ash
ĠN Y
ag g
ik a
Ġfl ags
âĢĿ ,
ĠApp endix
Ġco q
19 24
ir ation
et ing
um a
: =
ĠFore st
ĠD or
ov es
ĠA S
ag en
Ġcr isis
Sh ort
k ens
tem p
ĠE nt
Ġwe alth
Ġb urn
Î ¿
Ġderiv ative
Ġt error
Ġd anger
Ġh ol
ĠJew s
}} _{\
Ġconcern s
ĠMed al
pre v
ĠSt ock
Ġab andon
Ġl iqu
CH ECK
se ason
ĠT y
Ġsize of
E V
F in
Ġcomm itted
pl an
Ġpar ish
al gebra
it ter
and y
col Last
ĠI mm
ub ble
Ġcan onical
o or
Sim ple
spec ial
ar ity
ic ian
) }_
Tr ace
Ġpartn ership
ĠS M
t ags
F ramework
ĠG ets
og ether
Ġassum ptions
ĠSing apore
ĠG er
ord on
Ġf ish
ĠIndian a
ĠS ign
, {\
19 31
st ances
ĠK ansas
Ġdec or
Ġcomplet ion
M OD
ĠF inal
P y
}\ ,\
os l
e en
pol y
Ġcompos er
our se
Ġschedul ed
Ġmet adata
Ġin n
Ag ent
ĠM ill
b matrix
Ġcomput ing
S ources
ĠM icrosoft
7 00
Ġc atalog
Ġw inter
Ġany one
pl ane
ĠM ilitary
">< !--
Ġc tx
Ġtop ic
v als
ropol itan
Ġar c
O UT
Ġfight ing
Ġequ ality
Ġult imately
Ġdocument ary
Ġin fer
ay er
Ġse ed
enn a
ang a
atter y
Ġv ice
Ġrank ed
Ġkn ew
Ġdrop ped
Ġsequ ences
Stat ement
' d
Pass word
() </
j ango
v ature
ĠCoun try
I MP
ĠB lock
19 22
ĠSwed en
Ġ ],
Ġab und
ĠAtl antic
li br
plic ated
end or
Ġpro xy
ur is
ĠPol icy
G iven
] {\
Ġlow est
H ER
Ġf resh
Ġcontr ad
b c
Mult i
Ġpar liament
Ġcred it
Ġa head
= >
un ing
Ġhold ing
P layer
19 27
Ġnov els
ut her
ou ter
Ġsign als
Ġg lob
IT E
empty set
t ar
Ġinter ior
TE XT
ĠN et
ident ifier
d ash
am ing
t c
n c
% .
W R
op ed
f d
j d
ĠM ic
\ ;
ex pr
H P
AD D
Ġpredict ions
S em
qu ant
Ġdom estic
us ers
col First
Ġstat ements
Ðµ Ð
ĠB udd
Ġinter act
enc ing
ĠB ishop
Ġu i
ĠG iven
c are
s es
amb ig
Ident ifier
Ġb ow
C am
h ref
Ġst one
an ia
ennes see
ĠInt eger
Ġj Query
ĠB all
ĠT R
T T
At tr
d one
S equ
sub s
ag an
Ġp apers
Ġf uel
J S
Ġl ists
ĠAff airs
Ġend ing
/ (
Ġr ugby
Ġsw im
an im
k h
b d
Reg ion
Ġtemper atures
Ġm enu
ĠK al
ĠV i
Ġtown s
G N
Ġintegr ated
Ġtransl ate
N odes
G erman
ĠCon nect
Ġop position
Ġunivers al
ĠC as
ĠMem orial
Ġmax im
ibr ation
Pro gress
Ġas sembly
Ġd ependent
se par
B AR
se q
rub y
T otal
ĠN orm
ĠN iger
Ġh or
Ġd oll
M iss
N OT
Wrap per
ĠWindow s
Cl uster
ĠS D
se m
B M
och astic
math it
Reg ister
V ariable
Ġbu y
ĠN ext
fg han
? >
Ġvis ited
A nt
pro b
anc ell
comp iler
Sing le
Ġjust ice
ĠS at
ĠG reg
ĠM ond
ĠAd v
Ġlink ed
P e
reg ular
us hed
Ġexpress ions
Ä ĥ
ĠSer b
sv g
ĠM essage
Ġt urb
ĠF ellow
ĠAb out
p ression
Ġl osing
Ġex cell
ĠMiss ouri
script style
Ġdis abled
}} .
Ġarrest ed
ch anged
19 21
bas ic
Ġvalid ation
f ast
ĠC ase
ex ecute
err ors
weg ian
Ġtit led
ĠR est
Com ment
S ong
ly n
St ats
iter al
Ġs un
t frac
Ġid x
Ġop posed
P ORT
ĠBook s
ĠH art
}} )
Ġengine er
n odes
Ã ¢
ĉ čĊ
Ġcon clusion
Ġadj acent
Ġnecess arily
Ġ" -
^{ *
log in
Ġpre ced
Ġm ir
et ies
Ġflow s
build er
Ġj ump
Ġthan k
Ñ ĭ
Ġm arg
ur r
Ġhom es
us r
cl uster
Ġm ach
> ::
Ġin ject
IN D
ĠG allery
Ġind ices
Ġstand s
Ġtw enty
p air
ymmet ry
ar ry
19 25
ic ing
Ġanim ation
. ");
un ique
sequ ently
ĠA rizona
> :
Ġneut r
Ġgl ass
- (
Ġw arn
Ġde ploy
Ġpo et
ĠE th
M er
Ġa id
ĠPr inc
out s
ĠTur key
Pro of
ex tern
19 26
is or
ĠBar on
k ish
prov ider
ĠS aturday
ĠL ink
Ġpers ons
Ġd x
tr ivial
Ġcol our
Inst all
ĠĠĠĠĠĠĠĠĠĠĠĠĠĠĠĠ Ċ
Ġbrief ly
ĠT er
long rightarrow
Ġr g
mon th
Ġdistrict s
Ġcont est
j unit
Ġpain ting
F rench
Ġg ender
Ġcharacter istics
Ġse vent
Ġn ob
Ġ[ ],
ip her
Ġm eta
Ġr ig
ĠBro ther
19 12
Ġocc asion
TI ME
Ġcl ock
Ġg irls
Ġgrav ity
ag ent
ut ies
AL SE
Ġtr ivial
cd n
ĠP it
ĠExecut ive
x s
}) }
00 1
Ġrel ax
m ers
Ã ¥
igen ous
ĠCE O
B egin
Ġthous ands
W N
id en
F ree
oriz on
er os
)) \
ĠM ari
Ġb odies
Ġprec ision
Ġv ision
cle an
Ġs urn
sh ared
det ails
the less
Ġw ants
at iv
mer ce
Ġabs ence
w ill
Ġpol l
Ġexecut ed
Ġ' <
in ction
Ġhapp ens
Ġwe ather
ĠA D
ĠCopy right
H er
ĠAr thur
C red
O F
el le
Ph ys
(' .
ul se
Ġatt ached
ĠJes us
S ervices
st ood
ĠAnd erson
ce st
19 23
Ġpers pective
ĠChild ren
ĠAss oci
b rief
Ġarr ang
ĠCap tain
ĠH ou
ok ed
ĠA ccess
CO MP
user name
ĠL eb
en ers
ĠIn vest
LE CT
ur st
ĠMary land
ĠCast le
s n
Ġalleg ed
ay ed
ĠC art
AR N
Ñ Į
fri end
x html
br as
west ern
ĠS quad
qu es
ĠO cean
ext ension
ĠA M
= .
multi row
Ã© s
w p
own er
Ġc as
Ġt x
Ġfl uid
ĠM un
re port
ĠA mazon
Ġrelig ion
Ġmet rics
Ġ Ø
Ġprec isely
ĠC zech
U SE
om ot
Ġs ynchron
re ll
Ġquant ity
Ġcover ing
A nother
ĠInd ones
Ġder ive
ĠM ake
Ġessential ly
Gener ated
ari os
av al
s quare
Ġp un
Ġcon secutive
Pro ps
m ad
ĠTh rough
Ġcomp atible
w ig
ĠB et
Const ants
Ġqu ark
Ġint ensity
ĠN ative
ĠB efore
Ġlog ger
Ġopin ion
m al
Ġsent ence
Ġconstit ution
Ġrough ly
') );
det ail
Ġc art
s ig
or row
is lation
S ur
big l
iss ue
L in
ĠO regon
ret ch
Ġsk ip
Ġjournal ist
b x
t ons
ĠR ow
Ġembedd ing
ev in
P refix
Ġpro pose
ĠMar ia
Collection s
Ġse ats
Ġgovern or
Ġresear chers
Ex ample
pat tern
Ġlo an
ĠLew is
ill ery
Ġd ense
ĠCol on
Ġ[ "
ĠCom ple
Bi ography
Ġc ab
Ġpre tty
ĠD a
Ġc m
F E
Ġbig gest
Ġopport unities
Ġlook s
Ġdec isions
Ġind ependence
ĠTown ship
W omen
ĠR ose
ĠW in
N amespace
az y
Ġconf idence
T x
h ave
19 15
ĠT H
we alth
F inal
ĠMex ican
Ġinterpret ation
ex cept
pl ates
trans ition
ĠAg ain
p ubl
ĠA SSERT
us form
ĠFace book
at in
Ġres c
o is
th row
numer usform
re lation
big r
( --
Ġtop ological
19 16
n ight
Ġfr agment
Ġrequest ed
Ġcos m
Ġv ent
iv als
rop ic
form al
ell ite
T ax
off s
const ant
i ota
iss on
Ġprom ote
Ġp od
Ġinput s
if def
ul ating
Ġfem ales
Ġ\ ,\
ĠT urn
fl at
ĠPal est
f lex
Ġal ter
Ġgener ator
ĠM oh
Ġres olve
ĠJ oh
ĠPe ak
Ġp iano
par a
Ġg ate
ĠD C
am az
D iv
d am
ĠS ource
ol i
Ġbo ost
an ches
serv ices
A re
ĠH y
ĠAl f
Ġmult ip
Ġdr ink
ĠD ocument
Sk ip
in valid
Ġcar bon
Ġy ards
Lem ma
e ast
in ant
R ole
ĠSt andard
ser ial
ic ular
Ġ ^{
Ġex cess
Ġtrad ition
ĠMount ain
P res
ĠTh ursday
v ideo
Ġspec ify
Ġquant ities
C B
ĠBr ad
c ross
Ġeduc ational
ĠOffic er
tr ace
ĠUn it
et al
Ġad min
C ert
P ER
Ġdec ade
ĠF ederation
}} }\
Ġrad ial
ĠC A
Ġor b
Ġdesign ated
Ġso le
Ġphot o
ĠOn ce
Dom ain
ag ues
Ġph one
ort ed
Ġmax imal
Ġpract ical
ĠRepresent atives
Vis ible
ĠAd am
A CT
C RE
ache lor
Cons ider
Ġh all
ĠA P
c oh
Trans form
M ath
Ġrelationship s
$ {\
ĠM iller
ĠPro cess
u ce
Ġre new
ĠMos cow
ivers ary
Ġro yal
res ources
Ġc old
st an
the me
Ġst orm
Ġm ist
ok es
Im port
Ġsee k
Enc oded
Ġinfr astructure
Ex ecut
Ġmod ules
ĠS E
Ġm ental
ĠT ennessee
ĠA mb
Ġhe ar
des ign
l ass
s ym
Ġexplan ation
M ost
Ġdef ines
ĠLab our
n ers
Ch rist
Ġsc oring
are n
ĠLe on
ĠH an
Ġfr ag
ĠViet nam
Ġw ins
Ġener gies
ff ect
Ġprofess ion
ĠE P
pos ing
Ġaccount s
ĠInst ead
ierarch y
Ġo k
ĠGr ant
ro g
Ġtem p
r as
eng ers
Ġnot ion
fe ature
20 23
ĠTrans port
Ġle ct
Ġdo or
Ġpubl isher
avel ength
... </
ĠL ow
F low
as sembly
sh ips
O lymp
Ġd ens
ĠFr ont
Ġcl ick
ĠHT TP
C ho
B lack
ĠG h
Ġs ac
ĠRet ri
u y
im ination
Res ources
F LA
h ow
Ġf illed
Ġm yst
ge bras
Ġgre atest
Inter val
Ġp arser
ã Ģ
in os
Ġchar set
CA A
ĠJac ob
Ġqual ified
pl es
Ġbre aking
N C
IV E
ĠR oss
Text ure
Ġprep ared
UR I
Ġe ye
tikz picture
ĠFr iday
Ġparticip ants
put ation
; ">
R T
ĠH al
Head ers
Ġm el
Ġm ent
Ġ( [
iss ip
h d
Ġch apter
ure au
L anguage
Ġhead ers
ĠSta ff
Ġdep os
ĠL td
Ġcol span
Ġvar iance
ĠW rit
r f
E mail
ah oma
D ay
ex pect
}$ }
stit ut
ĠR ad
spring framework
t ensor
p u
p ull
Ġy ellow
! !
! [
ĠHol y
Ġign ore
EE EE
ak ed
Ġ} }
Ġnon linear
XX XX
Ġprov ider
ĠRec ord
it i
Ġs ale
Ġdemonstr ate
yr ics
com b
Ġent itled
Ġ$ ,
ĠD ue
Ġprodu cing
Ġgu est
struct ure
ĠS av
up lic
B el
Ġweap ons
Ġw arm
con nected
Ġvers us
w t
Ġexpl ore
Ġarg ued
ĠA h
Ġfore ach
ĠF ord
Ġiter ation
Ġcan cel
ĠH ttp
Ġinter mediate
Ġbur ied
iss ues
DE FAULT
Ġ( {\
ĠB arn
Ġsomew hat
ĠN AME
Ġl ang
Ġattempt ed
+ (
ĠE u
un ately
t le
ĠT oday
O B
Ġm es
Ġdocument ation
M ask
A E
Ġdef orm
st orage
HT TP
Ġhypot hesis
CT YPE
» ¿
ir th
ĠUkr aine
um my
Ġb atch
PO ST
( @
}_{ -
m oz
Ġch airman
ser ies
B en
c ounter
}) ^
Ġgeneral ized
Ġv ot
Ġprogram me
Ġsch ol
Ġrec ru
Ġtarget s
Ġpract ices
Ġint elligence
e a
i ations
ĠAdministr ation
ch ant
][ ]{
ĠH as
Will iam
Ġfeed back
Ġrestr icted
ur d
col n
Ġan om
me an
Ġw rest
Ġimmedi ate
S F
ĠGu ide
ĠPhilipp ines
Ġrespons ibility
ir ical
Ġdisplay ed
ĠHar ry
typed ef
Ġdest ination
text color
Ġf an
fl ag
St ar
ĠA ge
Ġf aster
Ġf estival
Ġnull ptr
Date Time
Ġt sd
ï »¿
column width
F ore
Ġpass es
ĠMed icine
ĠA fghan
Go ogle
ĠC ab
ĠPhil ip
(' #
Ġdis p
requ ired
Ġint ent
Ġregard ed
Ġperman ent
ĠSt ory
o a
as ync
Ġcollabor ation
Ġphot on
ĠNor way
Ġ ];
ĠP ier
Ġcontribut ed
Ġ\ &
Ġthe atre
ro it
Ġdecre ase
st ates
Ġs aved
ph ony
A x
}} ^{\
Ġapproxim ate
fig ures
Ġs and
Ġold est
Ġb its
Ġ ×
/ "
O ST
Ġst ages
19 13
Ġ\ (\
g overn
sign ature
Ġsc ores
Ġenc ounter
Pl ot
Ġfav our
Ġimprov ement
index Of
Ġcirc uit
/ .
Ġsec ure
Ġan imal
Ġprom pt
ĠU I
Ġvari ant
Ġrev olution
ĠN ever
K e
Ġinvolv es
)-- (
B ook
Ġconcern ed
ĠHig gs
ĠB an
ens is
Ġcont ents
Ġscen es
ot ional
d on
u j
wit zer
Ġtest ed
Ġw alls
Ġworld wide
F amily
Ġcont ribute
Ġb ought
ĠL com
Ġpat ient
A wards
ĠL ind
Ġ-- -
Ġcustom ers
}) =
Ġca ref
ĠF ac
Ġc md
Ġp ref
. <
M F
script size
en abled
Ġoccup ied
Ġapp end
F ind
DO CTYPE
ĠMod ern
aps ed
Can adian
L en
Ġd yn
Ġher self
pr ise
ĠT a
E p
alle st
Ġis omorphism
re present
Ġs ought
Ġasympt otic
Ġh orizontal
re v
ÃŃ a
Ġh orse
tr im
Ġp ed
check box
Ġdi plom
Ġw ish
Ġp lease
ow nt
s ome
ĠC ost
Ġperm ission
ur able
ĠAm ong
m k
Ġap pre
Ġst ores
ul us
H ence
Ġcomp lement
exp and
Reg istry
} ~
U ri
Ġb log
ĠB at
m oment
Ġexper iences
P D
Ġnom inated
J apan
Ġdire ctions
ar ith
c ers
Child ren
test s
ap el
å Ī
(' /
Ġproper ly
op ts
ĠHigh way
ĠAp ple
h ist
ĠK han
ii i
ĠBuild ing
Ġen v
p ag
Olymp ic
ob serv
, '
w ick
nd ef
z o
om er
Ġsucceed ed
Ġcur vature
arthe ta
Ġneut ral
Ġun iverse
Ġreject ed
Ġcl ients
L ife
s un
S N
Ġir on
ĠS af
ĠE U
bl ank
y cl
ĠComm un
Pro gram
Ġext reme
v artheta
ĠP ot
os es
ĠJ ordan
ĠU l
j ob
Ġoper ate
ant e
Ġd ates
Ġh y
Ġcommun ic
witzer land
ut s
! \
Ġaddress es
' ];
Ġex ecute
ĠSo ftware
Ġst arring
ĠC urrent
neg ative
ass andra
l iving
Ġstrateg ies
Ġcomb at
ab et
Ġprodu ces
) ->
Ġcriter ia
ĠArray List
E st
TR UE
Method s
py thon
ĠC ustom
pt ic
R elease
.. .,
atur ally
ph ase
Ġap art
ĠE s
Ġmedal ists
Ġ' '
Ġdomin ant
Sh ape
Ġdep ict
ĠLO G
ues e
} |\
Ġc ryst
Ġf ee
ĠM it
ict ional
Ġpercent age
ile y
w as
ĠL ore
ou st
" ],
Ġassum ing
ĠV o
Ġgener ating
ĠB or
\ }$,
Ġcons ervation
Ġeval uated
ver age
Ġref used
\ }\
z y
Ġtrans parent
Ġassert That
Ġdemonstr ated
Ġ} {
H ub
ac cept
check ed
clud es
ab ama
Ġvoc al
ĠB alt
ĠGree ce
ĠComm unic
Ġcol ors
Ġanaly z
in ator
Ġrespect ive
Ġleg islation
L i
ant asy
AN G
Ġreason able
ĠG ib
res ize
Ġw el
13 0
Re al
ĠSim on
ĠB it
writ ten
Ġbelong s
VAL UE
Ġin struction
Ġf aced
Over view
Ġto wer
Ġa st
Ġindic ating
Ġnormal ized
Ġjourn ey
aw are
Ġd t
ĠM unic
the re
Ġpil ot
Ġenh ance
Ġsche dule
Ġgu ide
ov en
ĠBase ball
Ġro ots
ĠJ ane
Ġsepar ation
Ġred shift
Ġd ream
Ġcon version
n ative
Vert ex
19 11
ĠS che
ĠPro perty
Ġ{ "
Ġcontrol s
ic ians
Ġcorre ction
rupt ion
Return s
ĠI owa
ĠV ice
ĠN E
act s
S cal
kl ahoma
ĠZ h
plement ation
ĠH op
print ln
ĠB h
ĠS ky
olt ip
Ġre aching
ĠMag azine
P Y
inc ial
Ġcaus ing
Ġorient ation
ĠR ight
ĠAl bert
ĠN FL
ĠEnter tainment
ist a
Ġclos er
Ġs oci
is en
Ġt mp
Ġhel ps
Ġcrit ics
M ake
Ġpurch ase
B ind
ĠN AS
Ġen um
Ġcr ick
Ġhum ans
Ġexperi enced
;\ ;\
ĠN ick
En ter
Ġdynam ical
Ġtime out
Ġspe ak
ĠBo olean
Ġdefin itions
ĠS ix
Ġcomp ens
ĠSen ior
par allel
over view
Ġthink ing
Ġsh ares
Ġprem ier
Ġhot el
us al
D elegate
Ġexhib ition
ĠS ound
Ġdepend encies
Ġj et
ĠAr k
as m
n p
Ġeduc ated
Ġneigh bour
Ġqu asi
Ġperiod s
Ġst ochastic
d c
Ġadapt ed
ĠFred er
L android
Ġjoin ing
Ġsup posed
Ġdeb ug
em ony
ten ance
ĠRequ est
tri angle
ic ut
Ġall Classes
l ab
ĠJ unior
cont rib
Ġbrother s
Ġc odes
EEEE FF
Ġman agers
ott en
ta h
Ġmer ged
IG HT
Ġcharacter ized
ĠallClasses Link
H on
ow ski
Ġmed i
Ġtri ple
. ",
Ġmagn et
Ġmov es
Ġc arri
re du
() ))
in cess
M ouse
Ġth ir
id al
Element s
l ad
sub sec
ig ate
ĠF A
Ġvol unte
cl ine
ound ed
osp it
l u
ĠDi ego
opt ional
Ġunder stood
onym ous
Ġthe rap
ene z
"" "
Q ual
}} =
æ ľ
ĠL ear
es ides
Ġres et
tr l
hel per
Str uct
br and
Ġpropos al
p ub
qu ote
N orth
m ouse
inem a
Ġdom inated
12 7
Ġc ook
ou pl
ME TH
ĠMel bourne
Ġcl ip
Ġgood s
F M
Ġsix th
Form s
Ġprom otion
g ar
inst ein
Ġch ose
Ġr acing
olog ists
Ġcertain ly
Ġas sets
LO CK
Ġsc roll
at omic
ĠL anguage
ĠG ram
Ġleg end
agnost ic
M ill
Ġd ashed
y y
ĠRef er
R PC
ĠS QL
Ġb inding
re pe
Ġf ails
Ġsk y
Ġmom ents
ĠI R
ĠD ark
Ġconfig urations
Ġscient ists
ous es
Ġh un
Ġvill ages
Ġe yes
^{ (\
Ġbro ke
ov ing
ĠB os
Ġsust ain
Ġpresident ial
Ġposs ess
Ġcap able
Ï Ħ
Ġgrav itational
Ġb an
ĠIslam ic
& =\
iam i
Ã¼ r
d ag
or igin
end ment
ĠT ony
ĠMal ays
An imation
at ivity
Fil m
b urn
j et
S V
ĠN AV
Ġmod al
X i
ĠĠ čĊ
dec l
190 8
Ġv ideos
De ath
Ġap plies
n old
Ġrequire ment
Ed ge
B ibliography
A ug
\% $
Ø ±
p b
Ġn a
ic ide
w ich
ĠM as
ĠCons ider
group s
Ġf ear
Ġcap tain
con struct
Ġv o
Ġ( ;
Ġb ronze
ĠP M
ĠE ric
ĠB ab
ĠKent ucky
f ef
ĠB rian
M c
lo pe
Ġres erved
Ġfound ation
Ġheav ily
RE Q
ib ilities
Ġaccom pl
G a
ĠP RO
h ab
el ve
in th
ĠS C
ĠOr iginal
Ġvari ations
I gn
Ġk illing
T ags
ty pen
En vironment
Ġv irt
Ġsens itive
fol io
ĠR oy
ĠFor ces
Ġcho ices
E P
St op
Ġsett led
\ |\
Ġph ases
de ep
L INE
Ġpay ment
ĠE ND
Ġbound aries
Ġpl ugin
Ġl es
Ġstudy ing
Ġdiscover y
P M
rup ted
Ġhead quarters
Ġthan ks
ĠCE LL
'] ['
Ge ography
Ġ@ "
Ġp ixel
Ġen emy
Pr ivate
sp in
Ġmaintain ed
oc or
C r
Ġdr iven
test ing
um ps
Ġs ql
down load
: =\
Ġatt orney
ID TH
itect ure
Ġprior ity
METH OD
ĠGe V
r ated
com es
Ad min
ate ur
Ġdirect ors
NavBar Font
O ct
ang el
Ġs ending
Ðµ Ð½
Ġn p
Ġformer ly
ĠHou ston
S creen
H om
Ġch arts
time out
Ġrepl acing
Ġkeep ing
Ġk ick
Ġtr ains
! ]
fin ite
Ġread s
ĠC R
Ġad vent
a ired
Ġconsum er
re lease
Ġst ead
ang ers
Ġstop ped
Ġcorre ctions
b at
ĠDo ctor
ĠP erson
U K
y cle
Ġoff ices
,\ ,\
own ed
ĠF ame
ĠB urn
Pop ulated
Ġconcent ration
ce ive
Ġv align
: [
Ġsche ma
ĠS quare
}{ *
Ġtri p
p aper
Pl an
Draw ing
Sports people
Ġcomp re
Ġsymbol s
Ġk il
l ot
L ight
spec ific
IT ION
ĠHow ard
ĠĠĠĠĠĠĠĠĠĠĠĠĠĠĠĠ ĠĠĠĠĠĠĠĠĠĠĠĠĠĠ
Ġco aches
D b
olv ing
Ġproport ional
Ġequival ence
Ġdeliver ed
Ġm d
Sup pose
Ġm ales
Ġclass ic
vis ible
l at
ar on
he red
Ġad ult
ĠS to
us cript
ĠM L
Ġassist ance
Ġpl ate
. \\
Cl oud
ĠD ick
ĠT en
Fr agment
w arning
k ov
Û Į
ĠJ os
typen ame
W allet
m ont
k t
ibr aries
ä »
Ġw at
Ġstand ing
Ġgrad uate
Be an
Ġcommand er
Ġloss es
ĠIsrael i
Ġg ene
es ome
und efined
ordin ate
Ġcoupl ed
Ġst yles
Ġload ed
Ġv ul
amaz on
Ġres istance
ubl in
el son
ro ute
back slash
Ġpop ulations
ort ion
az a
Ġag encies
ĠSt one
comp ile
ĠMan chester
ĠL iter
an aly
Ġref uge
C ent
Ġg one
Ġdescri bing
D en
More over
\ /
Ġshort ly
Ġcoll apse
S ample
ĠD un
sh al
cre ated
Ġappear ing
1 15
Ġlog ic
; )
object s
Ġne ither
ĠP R
dat abase
ĠLin coln
ĠC ru
Ġredu ces
L ower
med skip
Ġsubject s
og onal
ĠW ed
Ġpro files
Ġret irement
Ġcon cluded
enn y
Ġm al
ĠH or
ĠCh ile
it ely
Ġmer ge
dev elop
ĠA ud
support ed
V E
Ġis ot
Ġprom ise
it udes
Ġhelp ing
Ġs ud
Ġsub section
Ġpart ially
EN SE
Ġmark ets
ĠJ am
cre ens
T y
pol icy
Ġcru cial
T F
Ġs ons
ĠMar ine
ĠAg ency
Ġmod ify
Fl ag
ĠIn put
! "
ym n
Ġopt s
viron ments
ĠAust ria
Ġrepl acement
issip pi
ĠCh ange
INT ER
M ove
Ġro utes
ĠM att
Ġsp r
ĠP ut
vol ume
is ition
Col l
Ġt ight
is ot
id ges
ĠTok yo
@ {
ain ian
Ġtem porary
g ov
< <
ĠS witzerland
Ġh air
ĠK at
Ġin clusion
Ġmov ies
Ġag ed
Ġlaw yer
Ġpotential ly
11 1
p end
Ġdis appe
ĠDon ald
Ġv eter
Det ail
Ġsim ilarly
Requ ired
Ġview ed
Ġ> >
ĠL ead
0000 00
equ ations
ĠI ss
Å «
view s
Ġmolec ular
v ect
od a
Ġm ys
Ġteacher s
ĠV ector
Ġvac uum
ĠAnd roid
get Value
Ġv irus
}\ |
Ġc ub
b us
ĠEx ample
Ġre verse
Ġfil ed
Ġb ind
es c
Ġt ang
n ob
ĠTh ird
pro xy
method s
ĠHol lywood
agnost ics
Ġillustr ated
ĠM oon
Ġstri ke
w ave
L ook
ard o
w ho
ĠR ub
Ġ Ä
Ab out
Ġlist ener
sequ ence
z i
ĠQueens land
ĠB ah
ambig uation
Ġf ought
Ġm o
Ġeigen values
ac ew
run time
ĠF a
th rift
ĠS earch
ĠC ape
ĠReg ional
ĠAnth ony
^* \
Ġcross ing
ĠS in
ex it
Austral ian
V ari
Ġrecover y
Ġfac ilit
Ġsee ing
Ġop acity
u able
ĠAl abama
Ġeng aged
bound s
Ġs b
fef efe
Ð ²
âĢ ħ
libr ary
Ġmay or
Ġread only
ers et
Ġliqu id
ĠT witter
S W
sl ice
Ġmembers hip
ĠH ans
Ġrecomm ended
Ġt ack
Ġth in
Ġmusic ian
Ġsit uated
Ġvalid ate
ĠAdd itionally
Ġl ift
res olve
Ġfr anch
re p
Ġdr ums
Ġdis miss
="../../../../../../ ../
Ġcent uries
Ġdeb ate
hav ior
Ġacc used
End point
ac o
ĠC P
Ġh its
d ig
Ġro of
hens ive
ant on
Ġincreasing ly
Ġm ort
ĠN ev
Ġvict ims
ĠS ri
Ġdr um
ile vel
pt o
con sole
th rough
Ġ$\ {\
P air
comple x
on ce
Ġdet ector
ĠTem ple
ag u
re act
Dav id
Ġinflu enced
18 90
Ġl yrics
Ġs ail
Ġup dates
Ġpain ter
ate ver
an alysis
Ġsimultane ously
ĠC ulture
ĠAll en
E SS
æ ĸ
Ġf olk
ĠPat rick
se p
Ġbeaut iful
phant om
ĠD ream
ĠD eb
10 2
Ġsubstant ial
ĠDef ense
set up
cor ollary
iv a
at om
Ġmod er
ĠC le
dist ance
t ics
A li
Ġprov ision
Ġoffer ing
duc ible
Ġb ed
n ie
Ġsur g
Ġrg ba
/ {
Ġacc ord
side bar
C ard
ĠB ra
Ġparticip ate
SC R
over ty
ĠNAV BAR
Ġ' \
Not ification
pos ure
ĠPro t
arg o
Ġre ward
r ig
in ian
L R
ĠWal ter
Ġlumin osity
Ġincorpor ated
ĠHarr is
ac on
Ġd uty
ĠB ureau
Ġj azz
Ġpres ents
Ġeas ier
v ariable
ĠG all
do or
ĠEm peror
Ġf rames
Ġ à¤
Ġent ertain
AN CE
$\ \
Ġ ,\
vert ical
å ®
Ġclass ified
Ġk id
g i
Ġw a
ĠC ore
sl ant
anch or
Ġim plicit
Ġp m
Ġpro ps
Ġanim ated
ins ic
ĠA st
erv ing
Ġf old
VAL ID
ĠEar l
Ġab use
Ġpublic ations
Ġsever e
EL D
pro fit
Ġperiod ic
ĠOper ation
requ ency
10 5
Ġa cknowled
con duct
ĠC op
******************************** ********************************
z ip
ĠT erm
Ġre venue
Ġfound ing
N ormal
Ġwindow s
f eed
ĠC ond
L imit
oc ese
Ġm art
Ġpoint ed
ane ous
w x
Ġaccom mod
ĠK y
od ox
ĠâĢ ¦
stand ard
ĠB uck
b log
Ġtrans actions
cl one
Ġdr ag
Ġestablish ment
ex ec
comp are
Ġw arning
Î ¹
ĠB eng
ograph ical
od ge
Ġtem ple
el lect
% "
S ave
Ġparam et
act ivity
On ce
st age
rang ian
Ġsup pose
Ġmin ute
\! \
ĠVal id
ĠO klahoma
kw args
Ġlimit ations
Ġs leep
Ġmat ters
Bas ic
Ġcre ates
Ġg ather
ĠN ich
Ġrapid ly
190 5
Ġhistor ian
Ġspe aking
ann y
ĠR ey
in ch
miss ions
s is
D rop
Ġ" $
ry ption
ĠHe art
ĠMo ore
ĠSI ZE
Ġw ire
Ġattack ed
Sequ ence
on i
Al low
el and
ĠC G
Ġown ers
ri k
g lyph
ĠT ag
Id s
um ption
Ġp ipeline
STR ING
ynam ics
ĠSquad ron
F ocus
d k
N UM
Ġfluct uations
Ġdi agn
Ġd ry
Ġtransl ated
Ġair port
Ġscen arios
sh op
Ġrecon struction
Ġinv ited
dest roy
Ġm it
ĠĠĠĠĠĠĠĠ ĠĠĊ
ĠAn ne
Ġcircum stances
Ġad vers
d uration
SS L
Ġpan els
c od
Ġb low
ĠCh all
Ġliter ary
U C
el astic
) ^\
ĠB ox
t p
os ed
ĠCommon wealth
á »
ir ms
Ã© t
ĠHar vard
Ġs s
eb ox
Ġsup ers
Ġtalk ing
ĠO tt
Ġsm art
select or
con vert
M en
Ġpenal ty
Ġl ake
ĠR eb
Ġconvent ional
ĠÐ ¿
ĠAN Y
uer to
Ġr anges
Ġperturb ation
Ġcour ts
ĠMond ay
re ement
part s
Comp iler
er on
r adio
v ia
sp acing
ĠMar c
Ġvary ing
i ors
Ph il
ĠOption al
av ailable
= [
Ġcon figure
Ġge ometric
l oss
Ġstrict ly
M s
ĠP i
ail ability
, .
Ġprec ise
DE BUG
is ations
Ġexpl os
ĠF le
Ġsur faces
Ġform ally
al ia
ĠM and
Ġdr ivers
Ġcour ses
Ġca ught
ĠF er
Ġc ursor
1 12
form ing
ĠSim ilarly
Ġprote in
Ġm ob
arn er
es is
Ġcorrect ly
F P
^* (
Ġhe aring
Ġat oms
bold math
Ġrestr iction
per iod
her ical
ĠMat the
Ġdeg ener
ĠNav al
P red
d irection
Ġsign s
is set
(" /
ĠT reat
Ġgun s
W ord
Ġwork er
ext end
Ġa ug
Ġ ĉ
ĠF all
Ġappe al
Ġs i
T ube
ig ious
Ġj uris
Ġlook ed
pl ier
Con sumer
Ġan chor
F ORM
ik h
Ġwait ing
Ġcon crete
ĠJ ay
Ġcheck ed
N ative
Ġident ification
190 6
Ġexpect ation
getElement ById
cal endar
US ER
? "
s b
Sub s
M ajor
Ġemer gency
Ġtop ology
ĠNor wegian
ĠD igital
Ġphot ograph
ĠMe an
Ġclin ical
Ġre in
lo yd
ĠL oad
W arning
Ġuncertain ties
ĠB ry
f actory
Ġqu ot
ĠK itt
Ġcoll ision
ul er
Ġselect or
t f
ĠDis ney
ĠP layer
ject ure
Ġphil osophy
ĠInf antry
14 0
Con ver
Argument Exception
=" $
M IN
Ġfrequ encies
Ġim possible
urre nce
n m
ĠB ush
OR Y
Ġp ione
leg es
sc opic
level and
load er
O W
" ].
Ġd iverse
ific ial
br idge
ĠB lo
sub ject
ug u
Ġcrow d
Ġch urches
Ġle af
Ġfact s
J ust
Ġes cap
Ġ( ),
ĠN CAA
Ġn ortheast
Ġmarket ing
or er
Ġw avelength
Ġpe er
IC ENSE
Ġt ags
ust ries
å ħ
Ġcollection s
M ich
con structor
Ġdiff usion
ĠV ideo
Ġb ond
( .
bum s
O ffic
w d
R ob
Ġconj ug
over s
Ġbring ing
Ġunivers ities
arch ive
o i
ĠP ay
lection s
)} (\
Ġl it
cy cl
Ġsol ving
ĠS ud
190 7
Ġm igr
Ġa str
ĠP a
P UT
Q U
Ġl aid
Ġstrong er
Ð ´
Ġrul ed
ĠBill board
com put
ĠTur kish
Ġclos ure
ĠG ab
Ġv oted
Ġwor st
# {
Ġsystem atic
ĠO ak
In formation
am ps
Ġdiscuss ions
Ġal ert
ĠD M
S ql
ĠK az
Ġmin ing
ĠY outh
NS String
Ġmodel ing
che ll
190 9
Ġassoci ate
ĠP ope
ĠM S
h ook
Or gan
ĠP as
D ictionary
ar o
s ocket
Ġprinc iples
in ces
it ics
s ync
Ġn aturally
190 4
dis ambiguation
ĠG ard
Ġacc um
$. }
ili ar
w br
ç Ķ
Con stant
Ġsche mes
mer ge
ish ment
ĠF uture
Oper ator
ĠDet roit
g oto
Ġcommission ed
Ġinh abit
Ġman ifest
l arg
Ġform ulation
ĠHot el
Ġdev iation
Ġs we
Ġuniform ly
mat htt
Ġd elta
AR G
Ġmet all
G overn
Ġman age
ub er
> )
b atch
ĠF ood
Ġbu f
ĠA T
ownt own
face book
m ay
P ers
E val
Ġadapt ation
Ġ( ,
Ġsup por
Ġsh aring
Ġexerc ise
ap is
not ag
Ñģ ÑĤ
y ers
1 17
Ġf itting
s r
3 60
ol ished
Å ¾
ol o
( -\
Ġpaint ings
Ġr ating
ov ak
ĠHer itage
Ġre produ
an imation
ĠF ROM
iz ers
ĠR ab
Ġch air
ĠG ordon
ĠF ourier
all as
Ġcomp ilation
ĠWh it
ĠN ob
cl ip
Ġinv ent
W ORD
Ġord inary
is p
ĠF ull
ib l
Ġdesign s
d ers
ĠTele vision
Ġcorpor ate
ĠConnect icut
Ġgr ade
ĠO S
Ġte en
ĠW rite
foot notes
inv ariant
ĠW y
Ġinj ured
Ġshoot ing
Ġoper a
C apt
Ġbr anches
Î ½
: @"
Ġa ired
) }.
OP T
Ġquadr atic
Tele vision
W ait
is Empty
Ġcer emony
ĠMiss issippi
ĠE ag
Ġm ile
nt il
Ġmed icine
ĠSup pose
Ġcommand s
nes day
Event Listener
_ );
3 50
Ġfall s
ĠS ite
w en
ĠĠĠĠĠĠĠĠĠĠĠĠĠĠĠĠĠĠĠĠĠĠĠĠĠĠĠĠĠĠĠĠ Ġ
Ġp ixels
Ġemploy ment
Ġplatform s
j Query
Ġnav bar
Ġ{ $\
f ather
Ġwrit es
Ġseg ments
Ġhundred s
ĠM rs
Ġaccomp an
M ac
Ġcarry ing
R ober
Ġisol ated
Ġcon n
G P
ili ary
ĠArgent ina
Ġc ash
Ġar med
GB T
{ |
Pl ace
a ire
Ġamount s
y ll
Ġep och
v et
E urope
Ġap ilevel
ĠBr un
Ġt ables
Ġf ly
ong o
Ġ" ",
Ġre tain
ĠS N
Î µ
if ndef
g ather
Ġpartn ers
Ġbas eline
Ġdel ivery
D ATA
ĠIl legal
el ian
ĠD ead
} >
fort unately
Ġman ip
Ġconcern ing
dr iver
~ (\
Ġtyp ed
clud ing
at en
Ġste el
Ġinter pol
ĠSc ient
ĠOb ama
ĠTai wan
ul p
ol ut
Ġrestrict ions
ĠX ML
ĠBer k
ĠRes ponse
{ "
ĠS port
ut ation
ig e
ĠMon te
St ud
im ore
im its
Ġl ob
Ġdis order
exp ression
. $$
te ction
m ag
Ñ ĩ
ĠK am
Ġreal ized
ĠSil ver
B orn
Ġ' ';
Ġs ys
M AP
u ction
et he
Ġown ership
B Y
ĠPro du
Ġhand ling
Ġins urance
Con nect
et ary
Ġcent ers
Ġinvestig ated
ĠN ik
Ġcom plicated
ĠE arly
Ġconv olution
as p
Ġsc r
Ġk in
text normal
ts burgh
h al
Ġassign ment
Ġat omic
ĠPh ill
Ġmay be
Ġstruct ural
Ġcl im
Ġannoun ce
Ġstraight forward
Ġbu ck
Ġqu eries
Ġpolar ization
Ġequip ped
le arning
ĠS el
Un known
*} [
is ons
st ud
Ġr is
Ġass ault
ĠR ol
Ð ¼
ug s
RE G
Ġadv ice
ĠD O
ĠM iami
Ġelect rons
ĠBatt alion
ĠE uro
| $
re pre
Vol ume
ĠN ap
ĠV in
ĠPl ace
ĠBow l
ĠEconom ic
ĠBul g
ĠL ank
Ġderiv atives
{ .
Ġre vers
Ġtri es
ĠAp ache
log o
SE LECT
M icrosoft
sp irit
ĠR yan
M al
c raft
ĠK now
Ġsing ers
ĠDes cription
E ducation
n ol
Ġsurn ame
Ġm ouse
Ġregular ly
ĠM C
Ġground s
ren a
Ġfind ings
ĠSt atus
F n
ug ar
pl oad
p ressed
u on
Ġs in
Ġb rown
Ġsignific ance
Ġaccess ible
Ġout come
bo ost
Ġcould n
in burgh
nav igation
ash i
Y Y
Ġcre ative
C lear
ĠS H
Ġs occer
Ġent ities
Ã ´
P ubl
repre ne
Ġtempor al
Valid ator
G ER
Ġconsist ed
Ġchalleng ing
Ã ł
ic ator
vert ex
Object s
Ġpo etry
Ġres idual
footnotes ize
S an
d ynamic
ĠL am
ĠTr aining
load ing
Ġpro hib
pro duction
Ġgovern ing
d ensity
Ġun us
AN T
Ġsp here
load ed
Ġload ing
Ob serv
Ġ" ";
th ick
Pl atform
Dr iver
Ġfl u
Ġk ids
Valid ation
Ġland scape
c atch
Ð¾Ð ²
Ġin fl
ĠC ook
Ġres erve
10 4
ĠAL IGN
ro ck
B ottom
ĠEx press
ĠC ov
valid ate
urr ican
ph oton
ĠT errit
ĠC emetery
olv es
All oc
ĠDom in
Ġdom ains
Ġext ensions
M ount
Test Case
s hell
Ġre nt
ir cles
ĠCont in
Ġst rip
Ġdec ide
Ġneigh b
Ä «
Ġeng ines
Ġh alo
Ġembedd ed
Ġredu cing
ir y
ens itive
iss ance
trans action
Ph one
Ġalgebra ic
not ations
190 1
Ġtop ics
t ures
h ot
ĠSw iss
ĠLouis iana
: `
mem ory
ĠV ari
Ġcy l
ct ors
ĠHon or
in herit
Ġdist ances
ĠP A
Ġim pr
Ġhapp y
ĠDe ath
cover y
Ġabandon ed
ĠP ur
int end
Input Stream
~~~~ ~~~~
$ ^
N ET
Comp at
Ġv ast
Not able
Ġh am
ĠC lient
Ġ ðŁ
Ġprefer red
ĠDoug las
pro gram
Ġexhib it
Ġpubl ishing
Ex ecution
ĠHaw ai
to Be
Ins ert
h fill
g ood
Ð° Ð½
Ġign ored
acew atch
Ġcon vention
ĠPortug uese
) (\
Ġentr ance
al ert
Ġon going
Ġsp end
Comple te
å Ĳ
ĠRem ove
ĠS ets
ĠNew ton
Ġent ang
cy cle
PH P
ĠC NN
Ġdef ining
ĠBelg ium
ĠD ave
Ġrun time
element s
H am
Ġw onder
ens ing
Ġun iqu
ĠF inn
Ġtechn ologies
> "
ev a
part icle
Ġcompet e
V ill
ele m
ĠOr th
Ġpriv acy
' _{
C enter
ĠM ock
c uda
Ġextract ed
Ġpr ices
er k
Ġcompet itions
Ġsp ending
Ġweight ed
MOD ULE
Ġhom ogeneous
spe ed
ĠD aily
Ġp ub
enez uel
Ġa ux
Ġtrans itions
M r
PRO JECT
Ġr ival
âĢ ¢
IO Exception
unn y
f etch
J oin
ĠAl an
Ġin aug
arg uments
190 3
Ġf ired
Ġs elling
Ġsit uations
ĠN atural
mult line
ro b
Ġ ig
Ġarr ival
Ġconnect ing
Ù Ĩ
Pre vious
Ġexcell ent
Ind ian
Ġst uff
high light
Ġpre pare
ĠLaw rence
Ġreg ulations
c fg
Ġst ating
Ġsu it
Ġrul ing
Ġn ations
\| _
re tt
ĠRes erve
Ġs outheast
az e
Ġfle et
sh a
Ġl ose
ĠK evin
ce il
ul um
W here
b ey
ues day
ĠAtl anta
Ġt ennis
Ġinstr uments
dis able
ĠVill age
R aw
}{ {\
Ġwhe never
Ù Ħ
18 80
ĠA le
s ong
n est
Ġocc as
Ġpost ed
col lect
ĠSp acewatch
ĠF ind
p in
ram a
ĠN ag
Ġman uscript
t ip
Ġen semble
P al
ri ed
n ik
Ġre ar
Ġmet res
Ġb old
O ld
d ark
ĠN am
t re
ĠH u
av ia
Ġben chmark
Ġlik elihood
Ġanal ys
aud i
part y
) >
En umer
Ġsup plied
ĠSam uel
ĠM aur
ub b
Ġhost s
ĠD al
C ur
B atch
ĠTr ade
ĠP os
$ '
ĠL ib
ĠCol omb
E ast
h ill
Ġident ifier
ect ure
Ġel imin
ĠR ound
il st
RE D
H ar
Ġann iversary
Depend ency
B al
Ġbank s
Ġpack et
Ġd iversity
Ġsens itivity
Ġcustom er
Ġexp ensive
ĠArm en
Ġel if
Sp an
ĠQue bec
B order
Ġ urg
Ġsk in
am ents
b one
Ġdis establ
Ġcopy right
/ ">
Ġstre ets
R ich
v ars
op ol
Ġdecre ases
ĠU tah
ĠF OR
Ġelement ary
m outh
ĠSt ew
Ġvol umes
ĠAnton io
Cond ition
iam ond
ĠC ow
Ġin duct
ec l
ps hire
Ġconsider ation
Ġhy brid
M arch
190 2
OR TED
$\ ,
Ġcom ic
id o
Ġv oting
Ġt er
Ġre ign
Ġequ als
iv idual
I AL
th ree
ï¼ Į
sub mit
oth s
Ġmechan isms
ir i
int eg
ac ht
int eger
t b
Ġ\ "
oc a
ab ad
ĠH erm
Ġeth nic
Ġpri est
Ġb irds
Ġsee king
Ġanaly tic
se lection
ĠC SS
down arrow
ops is
Ġbo at
Ġappro val
P resent
ac er
Al so
valid ation
ĠLa ure
ĠWalk er
j u
ro c
Ġrece iver
Ġindependent ly
Ġdraw ing
() ),
Ġres olved
Ġreg ression
Ġremain der
ĠU r
ĠPortug al
Ġexc ited
Ġhard ware
Nav igation
w atch
Ġinv asion
Map per
li a
eg et
ub le
Ġhigh way
ather ine
ĠD ak
ĠOrgan ization
ĠT ree
66 66
ss on
ick ets
g ments
Ġback ing
Ġmanufact uring
Ġj s
Ġcons ervative
ch art
get s
V P
as ma
ĠP rix
Ġf ib
form ed
ORD ER
ĠCh airman
Set ting
Ġorb ital
M ilitary
P aul
ĠLiber al
Å Ł
l on
Ġn ick
ĠLem mon
Ġf aces
ĠK er
cont ents
= $
ĠCon stant
ĠB us
rel ative
M us
Ġbo ys
Ġdrug s
Ġm ilit
ĠH ockey
Id entity
Sh ould
B inding
Com parison
pro pto
ĠK a
bin om
Ġne arest
e ctions
Ġm acro
edd ing
rom agnetic
Ġa f
Ġse es
Ġut ility
Ġs ed
Ġen vironments
R ate
Serial izer
ĠJ un
Ġend point
ĠAl gorithm
ah n
Ġoutput s
Con structor
Ġex ports
up arrow
Ġ' ./
g ray
R oman
Ġd ial
ĠL INE
Ġcompet itive
| ^{
ors es
por ated
ĠSystem s
Ġdens ities
Ġpresent ation
Ġreport ing
dep recated
ĠCh ampions
Sup er
op ter
T l
Ġacc ret
m iddle
ĠK o
Ġdesc end
Ġshe l
Ġvul ner
F ootball
text sf
ym p
Ġre tail
H istor
Ġgovern ments
Ġst ats
Ġac id
ass ador
Th rough
comm ons
C md
ell s
ĠInd ependent
Ġad mitted
IN S
comm it
Ser ies
ĠCro at
l ined
ĠF ix
Ġst abil
Ġreg istration
Ġw aters
LO C
A udio
H D
ĠP C
ĠStud ios
struct ed
Ġanaly ze
Ġconcept s
B ased
J ames
ĠCap ital
ia h
Ġproced ures
Ġis lands
ĠW AR
s pl
inc or
ĠP ed
is ode
ĠD B
ĠE mer
ĠL oc
M o
Ġcr icket
bar a
Th row
ellect ual
ay an
ĠEd inburgh
Ġres idence
Ġsec retary
direct ory
C ref
Ġcount s
Ġd ip
om as
Ġh ired
Ġp up
hold ers
Ġsy nd
iem ann
Ġdiagram s
w i
Ġsat ellite
Null able
Ġent ering
Ġdistingu ish
Seg ment
st e
Ġt ropical
ĠD VD
ĠLie utenant
Us ers
m f
Ġpublic ly
Ġtransform ations
Log in
Ġsud den
ĠAb d
oun ced
MO DE
Str ategy
S pr
her ic
Ġcontro vers
Ġabsor ption
Ġform ing
ex amples
ĠBrazil ian
H tml
Ġm ine
ĠAl ber
ex tra
ĠG irl
refer red
=\ {
p d
pl ain
te am
Am ount
L ike
] ^
ĠAp plication
Ġj unior
Ġroad s
Pro to
ĠAuthor ity
pr iv
Pr im
am an
ĠDen mark
Ġt err
Ġcompl iance
Ġc od
^{ [
ĠIn s
Ġcont roll
Ġleg isl
Ġp overty
hip s
f b
Ġtr uck
Ġsp arse
ĠIm perial
}. }
Ġed ited
." ""
Ġthrow n
P ack
Ġs now
ĠBrig ade
ĠJ uan
i ated
C he
F uture
Form er
D iff
ĠPr int
qu al
ic he
ĠIn v
ĠD ur
ĠMay or
Ġp atch
10 3
Ġil legal
ĠC ensus
ĠD ublin
C ursor
Ġpass enger
ĠAl ice
Ġhead s
In ner
li bs
left arrow
int ro
Ġc ro
out ing
ĠH um
m essages
Ġ elli
ĠAcc ount
Ġsports people
HER E
] ))
Ġschol ars
ĠAfghan istan
Ġex posed
ch arge
u h
Ġan th
E very
IN ST
=\ "
ĠP uerto
Ġexper ts
) ",
We ight
Ġoper ates
Ġb id
Ġm ail
h our
ĠW IT
ĠL as
cl ide
ĠDef inition
Ġconsider able
ĠH ills
for Each
Ġtouch down
ĠV irtual
Ġsol ved
A X
DE F
ä º
ĠMc K
head ing
Ġdiam eter
r ink
et ition
Ġland s
b ow
ĠD ouble
Ġcol le
Ġre aches
G M
oc he
B ad
G ui
Ġrandom ly
Ġagric ultural
el ines
ĠK elly
ĠMar shall
Ġa w
Ã «
rypt ed
Ġconsum ption
Ġdisc ipl
ĠPy thon
& &\
ru ction
ual ity
ĠWork s
Ġcond itional
] =
St andard
ĠS P
ĠPe ace
F older
ĠRes p
Ġinterpre ted
1 16
ĠSim ple
ĠC hem
ĠSe ason
oust ic
Ġrespons es
ĠE ver
Ġcast le
ĠCl oud
ass ign
n ed
App end
Ġcompar able
Ġdisp ersion
G reen
Ġloc omot
Ġpseud o
ĠDe an
Ġpay load
9 00
run ner
Group s
Ġal ias
sect s
ĠR ap
hell o
Ġaccompan ied
Ġeven ing
il k
h alf
Ġparticip ation
Cl ub
we ek
Aug ust
ĠP ap
Ġsimilar ity
Ġfil ters
Ġf itted
ĠL ock
Ġearli est
Ġs ight
ĠW here
ph rase
ĠL ic
ER S
Ġd ies
Ġ\ [
grad ient
ĠF M
ĠOr chestra
Ġcr ash
Ġoccup ation
Ġad ults
ĠC hen
ĠO C
Ġed it
aw ay
Res olver
Ġ" >
&= &\
? ?
Ġsub mitted
end a
An notation
ĠM anu
ho en
ail and
Ġrac ial
ĉ ĠĠĠĠĠ
Ġfranch ise
um ul
'] );
CH AR
Add r
Ġlog ging
Ġelect ro
Rem ote
P ower
Ġro oms
ff f
Ġcomp aring
ĠDep uty
new s
ack son
C ONT
cast ing
ĠS mall
Ġorth ogonal
ol ph
g z
A I
å ¤
ĠM es
ĠG arden
c ountry
b etween
Ġform ul
b oth
Ġpr on
f am
Ġenc oded
Ġe ase
o es
M aster
Ġr u
Ġcirc ular
Ġp ole
Ġ$ ^{
; |
Ġmov ements
}$ \
I Z
En v
text up
Ġaug ment
Ġ ~\
Ġinteg ers
ĠAb stract
ĠB uff
ob i
B ounds
Ġsh adow
li ed
erm i
Ġ' .
m ix
Ġgreat ly
d ays
se a
Ġtw elve
pare n
Ġguarant ee
{ (\
Ġs lope
Ġrob ot
Ġ" .
}} }}
to oltip
Ã ª
ĠIndones ia
Ac adem
ĠDe ep
h us
is o
Ġcontinu ing
Ġc orn
eg as
}^ +
ĠKenn edy
Ġres id
Ġpro to
Ġh orizon
Ġf lying
Ġst ood
ab c
ĉ ĠĠĠĠĠĠĠ
ĠCon vention
Ġcontinu um
map s
Ġdeb t
Ġfeel ing
ut r
Ġrecord ings
ĠP ack
Ġim plied
Tim er
Ġperform s
Ġsub space
ĠS everal
Ġreli ef
ĠAut o
Ġfin ishing
pre vious
Work s
apol is
Ġsm allest
ĠU V
Ġel ig
. :
Group Name
Ġs ympt
ĠA C
ĠC leveland
ĠPr im
Ġpres erved
ĠCor ollary
l icense
Ġc ards
Ġtraject ory
mid rule
ĠSt ream
sur face
m illion
Err ors
Ġc ited
m aking
Ġferm ion
ĠB ou
Ġsing ing
ĠPro p
ut t
ok ing
Pre v
Ġch ampions
File Name
Us age
18 98
ĠC ole
Ġrecover ed
Ġnorm ally
Ġemploy ee
ĠYear s
Ġinhabit ants
ĠO N
B ecause
Ġterm inal
ĠY e
S erv
st ory
enc ode
ĠN ash
Ġperm issions
ĠS ac
Ġin herited
Ge V
d in
Ġtransport ation
clide an
] +
Line ar
F act
as a
init ely
10 7
bel ow
l b
bor ough
K n
t witter
ol utions
f mt
div ision
B bb
Ġtrans verse
ĠSe attle
EE E
Ġour s
Ġcollect ive
ugh ters
E ST
n an
Ġp itch
Ġcom fort
Ġatmosp here
f our
ĠHistor ical
cept or
Ġneutr ino
Ġval ley
il ine
Ġrank ing
met ic
Ġknow s
SCR IPT
ĠCo oper
Ġconsequ ences
Ġat om
t ouch
k top
} /\
ĠD anish
18 70
Ġdesign er
Ġsp oke
AT TR
ĠL ook
ĠRetri eved
ĠM ission
Ġ_ ,
ĠDE FAULT
ĠN ep
CON FIG
Ġgu id
al ph
Ġsepar ately
Ġv ic
F UN
Ġb om
ol as
L ibrary
Ġsl ot
Ġco ins
Ġexpl ains
Ġturb ul
d iction
p ad
Ġprodu cers
B inary
Ġadd s
Ġpres erve
ĠK ings
Ġpost erior
Ġpro fit
Ġlabel ed
Ġex posure
ĠCo q
Ġfac ing
b est
read er
az ines
ex ecut
sc ore
ĠJud ge
gener ate
Ġ' ',
gress ive
Ġsurv ived
up per
Ġdep icted
ĉĉĉĉ ĉĉĉĉĉĉ
re nt
ativ istic
ĠH ug
Ï ĥ
Ġh oles
we ak
l int
/ _
Ġdec line
ĠRuss ell
in cre
Ġrest ored
Ġgrow n
;" |
Fail ure
ĠF arm
Ġmy th
Ġt ank
J une
A bs
Ġsim plicity
char acter
w he
Ġinter vals
Ġseem ed
g re
ĠTh ough
Ġaim s
Ï ģ
ĠAd vent
Ġint ention
R a
5 12
AC CE
Render er
Ġirre ducible
aud io
Ġpar agraph
ĠFri ed
p f
Ġsim ulated
Ġf mt
$- $
om m
d ied
Ġkn ock
ĠMem bers
ĠCommun ist
periment al
sh arp
Ġtr unc
ĠVol ume
Ġh ide
Ġturn ing
ĠPh ot
Ġsign ing
lim inary
ĠMor gan
ĠPubl ishing
Ġ æ
Ġ _{\
y ou
Ġdes cript
work s
Ġf ake
Ġexp ed
Ġarch ae
, ...,
ĠF ather
ĠI ron
Ġd uties
script scriptstyle
Ġin herit
ik ip
cept ions
ĠRes ult
ĠComm ander
ĠW ard
ĠI F
re le
Ġfor th
DO M
m ount
l ights
Ġ" %
AT ED
Ġto kens
Ġb ars
inter pre
mut able
ĠL anc
ĠSt and
stack rel
ĠW IDTH
$& $
A pril
ĠOn line
ĠEqu ation
Ġc raft
Ġg iant
ĠPr ivate
Ġresident ial
li er
C ounter
Ġfe as
Ġdifficult y
ĠP eters
Sh ared
ĠRefer ence
AC H
ĠF ern
Ġorgan isation
Ġcompre hensive
Ġh olid
int o
ĠArk ansas
u ary
Constr aint
an ion
Ġb ot
18 99
V ec
d n
ĠP ear
ĠR ick
ĠL P
The me
Ġhe ter
var rho
ĠThom pson
0000 0000
Ù ħ
ro se
An im
ĠLag rangian
ĠWed nesday
Ġre ly
Ġvisit ors
str ict
CO MM
Ġcor relations
ĠG R
clos ure
p us
FI ELD
Ġmain tenance
Ġliter al
Ġbelong ing
Ġin ference
ĠAg ric
grad uate
Dep th
Ġactress es
Ġmechan ical
Ġcommunic ations
Ġoper ational
get Id
F OR
AR D
c op
Ex port
Process or
ri ent
bo ards
Ġpolynomial s
ĠBru ce
Ġden ied
Ġb reed
ol ly
tr ain
Ġorder ing
assert True
ĠSec ret
r ame
resp ons
10 24
Ġh ospit
im p
Ġfocus es
urs ive
ig inally
2 20
Ġw x
Ġst im
or b
Ġste am
ĠD NA
Con sole
b lob
uk i
d ale
ĠMan ager
Ġen forcement
Ġrestaur ant
ĠGr ad
Ġ' %
h yper
ce iver
ĠL ang
m apping
âĢ ĺ
Ġdeterm in
ĠP ref
Ī Ĵ
ĠAust in
UN D
c ost
Ġtrack ing
Rober t
Ġclos ing
Ġwhe el
Ġconven ient
Ġcor on
F lor
Ġbr ings
Ġmer ger
Ġdeal ing
view port
w arn
Ġrece ives
ant i
or us
od o
Ġpar a
or ce
ĠPal ace
em bed
Ġpopular ity
Ġf ault
Don ald
Row s
1 18
Ġmathemat ical
W eek
Dis c
Sign ature
Ġdeleg ate
ge o
? âĢĿ
Ġpre gn
ann on
at ibility
ĠB ible
c assandra
Ġalign ment
Ġinf lation
ĠP lease
ĠC it
ab e
Ġbeh alf
T ex
Ġp uls
Ġf its
ach i
St ation
Ġres igned
l r
Ġh al
Ġ< -
ĠA I
ast s
ĠPit tsburgh
Ġreve als
ĠFreder ick
Ġgener ators
j ax
U ST
rypt o
Ġt ied
Ġvot ers
Ġal coh
ĠA BC
ad v
riter ia
M essages
Ġpass engers
ĠH it
ĠAl liance
new line
ĠLINE AR
Ġrun ner
Lo op
i at
Ġleg acy
Ġin ternet
Ġimp ly
Ġ\ |\
St atic
r ules
final s
ab ul
_{ +
Cont act
Ġaff ord
ĠS R
C LASS
F rames
ab a
Ġinitial ize
ist ol
per ature
ä ½
ĠEd itor
c ill
ĠKn ight
Not Found
Ġassess ment
ĠĠĠĠĠĠĠĠĠĠĠĠĠĠĠĠĠĠĠĠĠĠĠĠĠĠĠĠĠĠĠĠ ĠĠĠĠĠĠĠĠĠĠĠĠĠĠĠ
Ġchild hood
ĠAng el
d ing
b v
ĠYou Tube
Ġ$ _
usal em
10 6
M aterial
Ġathlet es
Ġdyn asty
ĠT el
ikip edia
li x
ĠArt icle
R andom
Ġregard less
list ed
Ġ\ {\
Ġte ach
Ġfavor ite
ĠB etween
Ġ> >>
i ac
Ġaver aged
Ġemp irical
Ġp rize
ĠCh amber
po inter
un iform
b inding
Ġwill ing
ial s
ĠÃ ī
C ulture
ĠN elson
$ ^{
T Y
s he
Ġs ync
Ġs ocket
ort on
Ġund ert
ĠT ar
uff ers
A rm
Ġm outh
Ġimprov ements
vel ope
ĠAtt orney
Ġt ip
it arian
ocor ro
ĠWAR RAN
M ag
j or
ĠS n
cont act
Ġnot ably
mit ter
Ġtransform ed
C ity
est im
on na
Ġcritic ism
em en
or ous
ĠC S
ĠâĢ ł
ap ters
ĠQu ery
J uly
V ICE
em pl
Re ception
Ġh a
Ġarg ue
c n
S ort
al con
C V
Ġa ria
as g
Ø ¯
m ate
Ġr aid
Dep recated
;| &
Ġdistingu ished
Ġf iber
18 97
ĠM D
i est
com pute
Ax is
Oct ober
ĠS ocorro
id ad
Ġmeet ings
ur ers
Z one
ĠR ic
ĠO k
(" #
ĠBe at
Ġdeterm ination
Sy ntax
10 8
Ġdis cret
p ages
Ġare n
can vas
Ġmach ines
ĠMark et
ĠB ull
il ty
f actor
ĠWh y
ĠMalays ia
Ġf ul
h istory
K it
ĠM O
ĠCon text
ĠSing h
er as
iver pool
Ġarr anged
ĠCamp bell
ish ops
le ans
ĠRef orm
iz z
if ting
en z
u ity
18 95
ver sy
Ġclass Name
}) ^{
Ġme ets
ĠUkr ainian
op les
Ġcr imes
oun ce
18 96
ĠChrist opher
re po
Ġ{ },
Ġwith draw
Ġbe ar
Ġiter ations
ĠAd ams
Ġrepresent atives
ĠD og
ĠW right
Ġgu ess
ĠMarg aret
Ġmarg inal
}[ !
Ġre n
Ġtrad ing
mult ip
.* ;
Ġreson ance
ĠTh ose
Ġre putation
Ġweek end
ind ependent
ĠU rb
N a
om ing
c v
Ġdef ensive
R adio
m ms
ir ates
Point s
AS K
Ġang les
ĠV enezuel
ĠWel sh
10 9
AT OR
ĠF ive
11 4
Ġmat ched
ĠPubl ished
Ġm m
Pro position
Ġentertain ment
Ġprov en
ustr y
Ġmorph ism
let ter
Ġwh atever
Ġw orse
Ġre pository
h ai
Ġin structions
Ġe c
Ġcut s
big cup
Ġmid field
Ġfew er
ĉ ĠĠ
B IT
ick ing
ĠAn na
m ill
Ġoff ensive
ĠBalt imore
rout er
Ġgr ass
ĠRog er
Ġg ang
ĠSh ah
Ġstrateg ic
RE E
Com par
Ġover flow
Ġround s
class Name
b ug
Ġre tained
ĠCent ury
C oin
ĠSer ver
Ġcommit ment
ĠCh art
Sc ott
Ġtr uly
Ġdis contin
Ġqu as
In f
Ġstrugg le
ĠD allas
ele y
al ias
ĠC rown
> '
R UN
Ġcomp iler
Copy right
ĠT ab
ĠOper a
ĠC F
L ib
ĠAn alysis
ur ities
j k
er red
Ġcorrespond ence
eg e
Ġsurg ery
int ell
Ġtext ure
Ġapparent ly
Ġher itage
Ġfam iliar
ĠSchool s
ar ance
" /
i op
ĠLeb an
ab ove
Ġinv olve
Ġimp ress
ĠMont real
Ġpra ised
MM ARY
ĠLeg islative
erv oir
ĠN ic
qu est
Ġappoint ment
ĠH ilbert
Ġunit ary
Ġimpr ison
Ġre b
\ },
Ġread ers
= %
ĠStew art
Ġatt ributed
t l
ens ively
ĠG P
ĠConfig uration
J anuary
m aker
omorph isms
ĠĠĠĠ ĠĊ
ĠĠĠĠĠĠĠĠĠĠĠĠĠĠĠĠĠĠĠĠĠĠĠĠĠĠĠĠĠĠĠĠ ĠĠĠĠĠ
Ġm eters
Ġre normal
Ġsevent h
Ġindu ction
ĠG ulf
LE D
ĠEx pl
m atic
) _{\
Ġphenomen on
create Element
e lection
Wh ite
Ġtri als
ep er
Ġcon front
Ġpass ion
\ }.
ĠD ance
r at
g iven
Song s
D IS
ĠRes ults
Ġdiv isions
Ġlocal ized
Ġkind s
Ġcert ificate
Ġgrow s
n os
ĠR ugby
ĠSar ah
inter val
Ext ensions
ĠOut put
ight arrow
Ġweek ly
= &
l ive
ĠN i
S epar
ig o
j amin
p kg
ist ogram
Ġlic ensed
) }$.
aut ore
BU IL
A UT
Enc oding
Ġcolon ial
ĠStan ley
Ġb ases
Do ctrine
V AR
if i
Ġadvert ising
ĠJ son
irm ingham
ĠH ell
EN V
ĠN eg
A ir
back s
Ġt unnel
app oint
ag h
TR Y
M art
ĠFrank lin
Ġover se
Exp atriate
Ġ_ .
Ġneg lig
De cember
ĠTh ailand
Further more
ĠHung ary
\ }_{
ĠSe lect
And roid
ĠI mp
im inated
ĠFin ancial
Man agement
ĠBo ys
Ġ\ }
" },
Ġthe ater
lic enses
ÃŃ n
A fr
Ġlif etime
Ġjud ges
ch anges
Ġb on
ĠF el
Ġjournal ists
Ġpro spect
Ġrat ios
um ed
Cont ents
ith uan
ĠBang l
ĠB art
ĠT ig
ater al
ĠG il
ĠCar ter
Ġpost s
du al
Ġro se
ĠRob inson
ĠT uesday
ag ma
ang les
ĠHam pshire
ĠD est
top ic
ribut ions
glyph icon
Ġaddress ed
intell ij
ins ula
ograph ics
ĠL java
pos al
T or
ĠÐ ²
Des ign
Ġart ifact
BL IC
s z
f p
Des pite
Ġput ting
ffff ffff
S ite
ĠI T
re pository
ĠCont ent
claim ed
onom ous
Ġig et
Pro duction
Ġl aser
U pload
Ġdeterm ines
ĠAp pe
Ġincor rect
ĠN ation
ĠPat ri
L Y
Ġc ircles
Ġg ar
ĠSen ator
ĠMet ropolitan
Ġrail road
Miss ing
B uf
Te am
____ ____
ĠRail road
F N
Ġplace holder
pp ed
Ġp ending
ut ed
ĠR io
Ġjourn als
ĠY ang
Ġmys elf
Ġhor ror
Fix ture
Us es
14 4
Ġwe ar
B N
ine a
ĠMov ement
Ġaff airs
Ġco operation
Ġre ception
rem arks
Ġprison ers
E ffect
ĠTr ack
Ġdes ire
Ġestim ator
ĠMor ris
con ver
Japan ese
u is
Ġval uable
av irus
Ġacqu isition
) &
ĠN um
Ġtri angle
ĠMc G
Open Tl
ad oc
Column s
ĠE V
Ġstead y
Ġ{ %
c ov
Arg uments
Ġar ise
ĠP ad
nob r
Ġaccret ion
olut ely
Ġsh arp
sp ir
Ġdoll ars
Ġill ness
pan ic
Ġf at
and al
U V
Ġrel ating
Ġhe lic
Pro fess
ĠAlf red
Ġim posed
ĠL ower
RA Y
pro blem
em it
le e
ĠM aine
Res et
ter ior
elf are
Ġf urn
ĠOr leans
ul atory
sub equations
Ġdoub t
Ġtr im
ĠMatthe w
Ġrequ iring
b ach
Ġmark s
v y
b ai
Ġst adium
Ġrepe at
ĠPo isson
an Ã§
Ġstr uck
he rence
ĠP rom
è ¯
lik ely
ĠCar lo
Ġlog arith
scal a
in ate
Ġdecre asing
Ġmiss ed
Ġcoupl ings
Ġcelebr ated
eb r
ĠG ray
Ġmar ine
Ġdise ases
ane an
ĠIn ternal
ID E
ĠE ss
Ġvict im
Build ings
ĠFin land
Ġcheck s
Ġcho osing
Ġhead ed
ĠOrth odox
Ġr ising
> %
m obile
ust ed
Ã³ w
Ġprocess ed
Ġb ishop
ĠM agn
ĉĉ ĠĠĠ
Ġa apt
incor porated
() ">
Ġal pha
Ġdanger ous
Ġfru it
cor respond
str ument
_{ [
ĠG irls
column s
Ġw av
Ch ain
Spec ial
Ġf est
n l
D er
Ġto ler
It alian
Ġslow ly
Ġf asc
STAT US
Ġd im
Id x
br ane
ĠBrook lyn
ĠUp per
Ġal gebras
cal cul
ĠCons ervative
G EN
tr ightarrow
ch at
24 0
link s
ex pl
appro xim
ĠMP s
Ġsound s
ro d
ab i
A z
Offic ial
Ġthous and
Big g
Ġpropag ation
ampl ing
small skip
apt ist
alt Color
ĠBrother s
B F
Ġgeneral ization
k ar
ĠS W
ĠC arn
Ġpl ots
Ġspect ro
Ġfem in
g un
det erm
Ġbeli eves
it ime
NO DE
ĠM ust
B ool
Se ptember
Ġremov ing
tim eline
Array List
ho le
val ued
R ussian
Ġs urre
ĠDemocr ats
Ġs wit
Ġfund ed
\ [\
Ġt all
Ġ` ``
ov o
Ġen ables
ij ing
Ġenjoy ed
Ġref lection
Ġconsist ency
ĠMari e
Ġdam aged
e enth
Ġreli able
S chool
H older
im ir
( ()
C trl
m ac
d jango
Ġstation ary
i ere
T L
18 60
Ĩ Ĵ
Ġse ar
ss l
ĠL eft
p read
E lect
^* _
ĠĠĠĠĠĠĠĠĠĠĠĠĠĠĠĠĠĠĠĠĠĠĠĠĠĠĠĠĠĠĠĠ ĠĠ
Ġs essions
Ġres ign
Ġd ictionary
Ġautom atic
rem ote
Ġsum m
process ing
ĠW ord
Ġprint ed
ĠO pt
m ir
Ġgener ates
hoen ix
: '
U B
ĠS r
Ġsu icide
Ġin g
ĠAust rian
Ġso il
HE AD
ĠMount ains
r pc
ĠB ed
Di agnostics
Ch art
ud son
An alysis
Ġd il
get Instance
ĠV ik
Ġd ating
S elf
Ġobtain ing
Ġ å
ĠST ART
ĠNiger ia
L ive
S ame
LI ST
> ()
i per
b undle
ch arg
m ates
ter y
ON G
Ġcompet ing
ĠD ictionary
p id
Ġpl ain
ĠR y
Ġsuccess or
ĠT ol
ar ial
Ac cept
ĠPol itical
B its
Ġ" '
th a
ĠR ain
/* !
Ġb ath
ĠC C
ĠJer usalem
_ )
ĠW ol
ĠĠĠĠ čĊ
[ ]{
second ary
ĠT ax
ĠLear ning
am ount
ĠĠĠĠĠĠĠĠĠĠĠĠĠĠĠĠ ĠĠĠĠĊ
i ang
En able
c ancel
Ġinter ference
A lex
_{ -\
sp aces
Ġart istic
Decl aration
Ġas set
Ġw ww
AT CH
p rom
ĠL ane
ĠPr incess
ĠG un
Ġsuper ior
f av
R ot
greg ation
18 93
Dr ag
Ġn ice
ĠÃ ł
label s
188 9
def n
Ġne uro
ĉĉĉĉ Ċ
T yp
Ġaim ed
Ġloc ality
Ġsurpr ising
ur se
ĠH old
Ġun like
um ing
tra its
Ġdep uty
it err
Ġoverl ap
Ġgen re
h in
ĠAss istant
f are
Ġdis able
ĠSy ria
ĠS V
Ġcomp iled
ĠU pon
ĠC os
F ac
Ġcal endar
ĠRoman ia
Ġmonitor ing
ĠK it
ĠK on
ĠKar l
B D
B T
Ġask ing
E Y
FF ER
Ex ists
ĠCl inton
Ġim g
st rip
ĠPl ant
Ġh ill
ock s
Ġcons c
ĠJ ason
Ġspirit ual
ĠAdd ress
, (
phys ical
Ġpro position
opt im
Ġcov ariance
Ġconvers ation
or o
} ~\
g ent
Ġresc ue
Ġpeak s
Ġw ider
sl ide
ĠE mb
Ã© r
ĠTh read
ĠG C
Ġcent ered
Tim estamp
Ġhydro gen
un known
Ġrele ases
Nov ember
D TD
T ok
Ġimprov ing
Ġprepar ation
et o
Ġcancell ation
ey er
ĠClass es
Ġdiscr imin
ill o
Ġw ides
Ġb are
Ġproject ed
ĠHung arian
cc c
Right arrow
ĠW oman
N umer
Ġreal istic
Ġex clusive
Ġd ress
S plit
ĠD ub
Ã© n
M ass
ĠB aker
ev ens
Ġmix ture
ecl ipse
D ATE
Ġmod ification
Ġcl ar
;\ ;
ĠSU MMARY
$ _{\
Ġviol ation
Ġwith d
ment ion
Ð ¿
19 2
ĠK ur
P ut
Ġd s
ed ed
ĠB ased
Ġelse where
18 92
> ;
Option al
ĠPro duct
Ġtal ent
( ['
ĠUn iverse
Ã ¦
S ide
r uct
Ġinvolv ement
le f
**** **
Ġsp herical
T ri
ge on
D irection
Ġmin i
Ob server
ĠCub a
^ ^
igh ters
Ġenh anced
S i
Ġeigen value
Ġc b
Ġthem es
T ouch
pat cher
ace ae
188 5
I r
uch y
Ġarr ive
Ġgrad ually
uplic ate
A SE
Ġn urs
fr ag
}) )
Ġch iral
sh aped
Ġcosm ological
Ġactiv ist
Ġinstall ation
build ing
g if
og a
Ġamplit udes
chedul er
Ġd y
Ġinj uries
Ġequ ally
Mich ael
(' <
Ġvis iting
k ern
He alth
ĠVi enna
Ġre nov
12 34
ed a
ĠP un
ĠU E
Ġcan vas
%%%% %%%%
Ġprob abilities
ĠEv ans
ĠL GBT
Ġover view
app y
S G
res pect
ĠI C
Ġfrequ ent
) }$,
om y
Ġfall ing
Ġpass age
ĠMur ray
Ġpremier ed
ĠEq s
ĠH end
È Ļ
ĠM other
ĠOther wise
Ġremov al
B ur
ĠH ind
me asure
Ġfair ly
ou ver
ĠM ars
ĠJoh ann
ĠSt age
Rec all
ĠBern ard
St ub
Ġpick ed
ĠOtt oman
ĠN BA
Ġunus ual
Be en
L ater
Ġdecl are
ob a
Ġtyped ef
Ġcomb ine
enc er
13 5
ĠD elete
ug osl
ĠLim ited
k ee
Ġne ur
Ġnewsp apers
Con tains
Ġe g
A ST
' ',
is y
Cont in
Ġcap abilities
N P
Ġf i
Col lect
ast ery
c ity
ĠCar ib
}} ,\
fore ach
ĠP DF
D an
P lease
em ed
18 94
Ġprov isions
Ġv eget
ok er
è ¿
ĠB eck
b inary
met ric
Ġs ensor
Ġphot os
A SSERT
ĠG ill
Part ition
Ġconstitu ency
ĠSt ore
Ġre plic
}^{ +
Ġsuff ering
S witch
ĠBy te
ut ter
iv an
ĠM IT
ar us
Ġdest ruction
M a
b n
Ġde leted
Ex pected
sc ss
Ġaggreg ate
ul o
L M
\, ,
m iral
at hered
ĠDat abase
55 5
ĠDak ota
L and
ĠCh apter
>< !--
log ging
sol r
Ġn an
Ġlong est
ĠAd vis
b t
gener ator
ĠP rior
Ġs ep
as hes
Ġstay ed
n ia
ĠR ud
eles cope
ĠWeb site
Ġrest ore
nol imits
Ġr anging
Ġaccord ance
ch t
"> (
ap ple
oid s
Ġh ook
Ġthere by
ĠStud io
xy gen
Ġg ift
Z ero
Ġtim estamp
ĠT ool
ĠT s
ĠC er
Ġcl one
B ro
au i
at ile
ĠK l
Ġlist en
Loc ale
urrican e
comp act
an ian
Ġg arden
Ġf oss
F eed
Ġst roke
ĠM ess
ĠB E
Ġiniti ative
Ġintrodu cing
ĠL iverpool
ĠC atal
us p
Vill ages
cons istent
Ġl oved
ĠM aj
ĠPer formance
Ġsusp ended
Ġl ibraries
Ġsurround ed
M achine
w inning
Ġg ay
Ge orge
u its
on ian
Ġtext s
LO W
pl er
ĠStud y
hat tan
Ġdev oted
ĠQ CD
Ġpro f
__ )
oc om
Ġdeploy ed
W in
\, {\
Ġspl itting
ĠTam il
Ġpl asma
Ġphot ons
Ġrank s
Ġhand led
Ġp ictures
b olic
Ġpaint ed
t v
cite alt
Ġ ----------------------------------------------------------------
Ġcom ed
S al
repe at
k ernel
ic ious
Ġfun ctor
Med al
Control s
Ġsympt oms
R ound
18 91
Ġev ident
ĠG ary
Mon th
ĠA rena
ĠB Y
Ġadm its
Ġun ity
Ġsynt hetic
Qu ant
clus ively
Ġr ivers
' ].
Ġg ram
ĠM achine
end ers
Ġis omorphic
Ġcol leges
Ġf s
cast le
T AG
ĠD ie
Ġinflu ential
Ġnormal ization
ĠR ange
Ġrel oc
Mill is
ĠMark ov
Ġ Ñģ
flu id
ĠG raham
ĠT an
pos itions
ĠJ u
sup erv
Ġt ens
Ĥ ¬
ĠJim my
Ġm igration
Ġlist ening
k an
ant ed
b oy
ĠVAL IGN
Ign ore
Ver ify
}) =\
Ġsound track
Perm ission
4 50
ĠA the
en berg
. (\
ĠS end
ĠE dd
C ALL
ĠIran ian
Ġbreak s
Ġcriter ion
Ġ" [
ĠWith out
al og
ĠDir ac
Down load
writ ing
ort ex
w right
Ġf etch
ish ments
. ),
os opher
ĠG raph
ĠT ak
S am
un lock
Ġent reprene
Ġexpand ing
ow s
Ġven ues
a que
int s
Ġreve al
Ġpack ages
ra ig
comm unic
c ord
K S
ĠSh ould
Ġrad ical
Ġw ounded
Ġref lected
iterr anean
ĠS eg
str ings
t own
ĠJos Ã©
Ġco herent
Com put
Ġsup plement
Ã¨ re
Ġp ip
Ap J
Ġjuris diction
æ ķ
Ġint ellectual
ot ts
ear ing
f ish
ĠO d
equ ate
grad le
Ġencour aged
att ed
en o
h arm
Ġall ocation
ĠĠĠĠĠĠĠĠĠĠĠĠĠĠĠĠĠĠĠĠĠĠĠĠĠĠĠĠĠĠĠĠ ĠĠĠĠ
the ory
p ref
qu er
ĠCh ampion
ĠCom ics
Ġs ke
c z
ĠM eg
Ġexam ine
u uid
Ġperm itted
zer bai
Ġnav al
Ġdepend ency
L iteral
ĠP sych
bound ed
Ġh ip
Ġsp oken
Ġcontrad iction
R ailway
ĠBroad way
B usiness
im m
ĠN ature
re ck
Ġnorth west
Ġrom antic
on z
Å Ħ
Ġp sy
Ġo cean
Ġout standing
P an
Ġconver ges
ro v
ber ry
ĠS audi
au er
s qu
Ġc rown
ĠR iemann
Aut hentication
Ġclust ering
et ric
Ġout comes
Ġart ificial
Ġelectric ity
Ġappre ci
P riority
ĠL uther
188 8
G old
pl acement
W I
Ġem otional
b rew
iz ard
Ġin vert
ĠI ter
Ġwides pread
Ġsub mit
U psilon
d anger
Ġman ual
Ġg oto
Name Link
Ġpl otted
E ven
Ġclose st
em p
om atic
ĠH ad
u ates
Ġf older
Ġkin etic
in us
ugg ing
uc lear
Ġperson ality
Ġc ous
v dots
Ġob lig
ĠB irmingham
12 4
w ind
Ġmem orial
B oth
ĠCre ates
ĠNever theless
LA Y
und les
Ġemer ged
11 3
Pol itical
Ġex ponent
ĠJ azz
ĠCat hedral
f ar
ĠW ind
W arn
5 000
ĠMet ro
del ay
Dist ribution
C irc
lot te
Ġch rom
O h
fe atures
Ġris ks
Ġph on
Label s
not in
ĠMad rid
Ġco oper
Ġrecip ient
ĉĉ čĊ
display Name
Ġrecogn ize
po i
con cat
Ġvari ants
Ġdeterm ining
m und
21 3
Ġaff ine
ĠW ang
ĠRes ources
DE X
C ancel
ĠDel hi
Ġcompos ers
Ġf ishing
Ġvess els
Ġvol t
iv ia
ri el
trans port
ok a
ĠDef ence
Ġcoupl es
deg ree
ard ed
Ġnot ing
ĠCO L
Ġneut ron
Ġcon formal
Ġm ess
Ġabund ance
ĠS hip
Ġland ing
Ġdecl ined
Ġd owntown
}{* }{
duc ational
f ac
if le
sw ing
Ġsh orter
Ġcon e
um ar
enc oding
c ursor
Ġel iminated
ĠD OM
Ġv m
maz ing
(" \
ĠCommission er
Com b
fl ush
Th ree
ĠCom ponent
^+ $
} &\
18 50
(" %
P romise
Ġcomb ining
40 4
V I
Ġdec ays
Ġan cest
Ġpo em
Ġman aging
Ġexpl oration
et on
Ġt uple
Ġcancell ed
ĠG T
Ġob server
ival ent
As set
Ġt ort
Ġt elling
op edia
le ading
ĠC ultural
Ġj unction
An aly
ig ator
ĠO bl
Rev iew
act ical
Ġd ated
ĠNaz i
Rel ated
ĠBr anch
ĠEx change
Ġm ac
Ġc up
Ġactiv ation
ĠF ermi
Ġinform ed
Ġcoast al
BP ACK
W H
l ua
Ġdef ence
Ġdevelop ers
Ġsem antic
C odec
uff icient
188 7
ĠComput er
N V
L IN
Ġs oul
Ġcool ing
Ġh at
tim estamp
l floor
G IN
Rec ip
Ġs ink
ĠP romise
st ers
Ġag es
X Y
ĠC ass
ĠGu y
con tain
min ute
Ġcritic ized
ĠMot or
qu et
18 65
prov ed
ĠWay ne
ĠM ak
Ġo x
ĠK u
ĠInd ians
ĠZ one
ĠColon el
it ure
ac ef
tr aining
S napshot
ĠEd ition
Ġanalog ous
Ġintr insic
Ġhabit at
Ġm oral
Ġch a
Ġb at
em or
Ġout break
å Ĭ
oid al
ĠCh air
ĠPro tection
Ġel der
ĠÂ §
' $.
T ile
Ġan isot
ist ically
================================ ================================
ĠM i
ect ive
Ġyour self
a ac
Ġass ass
UE ST
Ġexist ed
Ġcon fer
Ġpar ad
Ġanaly tical
Ġelect rical
Ġdispl ays
b ishop
. -
Ġmiss ions
ĠSp irit
\| ^
Ġb ary
qu ality
ard ing
ĠSh ar
get Type
) *
w alk
CC ESS
Ġda ughters
Ġd ot
! </
H ol
e u
ĠL ay
Ġm esh
ĠT rib
d ashed
Ġmer ely
Own er
| _{\
or f
cl s
ox y
Ġgu ilty
p ars
Ġreg iment
Met rics
Ġ{ {\
ĠSer ial
ol ia
inn ed
Ġstar red
Ġfriend ly
Ġsub mar
Error f
F ixed
× ķ
Ġt d
Ġas semb
Ġant icip
ĠB illy
Ġpubl ish
ĠR ot
17 0
P od
Ġfocus ing
em ale
F ace
Ġw ine
ĠCommunic ations
Ġmill ions
ĠLog ger
ĠB ey
asg ow
ĠHand le
ign ore
E r
188 6
sd k
Ġas c
t z
Ġshift ed
RA ME
Ġ- =
Ġprotest s
Ġg ray
Ġforest s
Ġre semb
ur ring
ĠK an
dom inant
Menu Item
ĠT ower
ĠN eed
Ġf usion
Ġind igenous
d z
Ðµ ÑĢ
Ġinstrument al
Ġb aby
ĠD A
C ountry
LE TE
* ,
am er
Ġaut hent
act ual
Vis ual
Ġactiv ists
ĠâĢ ¢
ĠMat hemat
run ning
pi pe
Ġs av
ĠJon athan
ult an
Ġconv icted
s heet
anc ouver
Ġestabl ishing
Ġpro be
Se ason
Ġphot ographer
op am
Ġbig ger
g h
N amed
o j
Ġproport ion
> [
Ġliber al
Task s
f older
Ġcy cles
ĠRel ations
ĠS S
w allet
ĠGl asgow
ĠF ro
ĠB enn
Spe ed
ĠJ osh
Ġfin ance
ĠPar se
Ġsurv ive
| =
D id
ĠR and
Ġt ends
Ġking dom
T om
ĠPro file
Ph oto
Serv let
Ġw aste
l st
Ġcomb inations
Ġch unk
Ġnarr ative
ĠElement ary
Ġtot ally
Ġcount ies
Ġt on
Ġal ive
Ġge odes
Ġ< ?
ul u
end point
Ġb ird
Ġmut ual
th ird
Output Stream
ident ity
includ es
at ics
ĠA qu
ir k
Ġthreat ened
iv ities
he ro
ĠThe ater
G T
Ġconstr ained
ĠPort land
math ds
Ex pect
ĠB ud
ĠMit chell
Ġst ake
abl ing
jav ax
Ġt ie
Ġshe et
Ġext ending
Ġneighb ors
I ll
Ġ ur
ĠLank a
)} _{\
t ically
L D
st roke
Ġcred ited
& $
P rom
Ġdiss ip
Sh ader
Ġarrang ement
Ġwatch ing
Ġsc an
man ifold
f iction
ent ric
Ġgen etic
it ud
Ġuser name
g lob
Ġexpl ored
Ġtalk s
oth y
ĠThe ory
ĠT ob
Ġsl ice
Ã ĳ
Ġsubs idi
D ynamic
L icense
ĠPh D
ĠB row
Ġmount ains
Ġcub ic
ĠTe ch
j b
t ol
ĠNorm an
Ġex pr
d m
Ġor bits
pr agma
sc ar
l ag
ex ecution
ĠFin ance
ĠFle et
ĠH D
Ġbi ological
Ġch ains
in ject
Ġch amber
LE MENT
Ġ& #
lin ux
ĠS F
Ġmolec ules
ĠComm ons
| _
ass y
ĠEgypt ian
ĠStud ent
Ġenc ode
Ġguitar ist
ĠI ce
Europe an
Ġwalk ing
Ġ| =
at able
IC ATION
Ġg rap
ĠL iving
for ced
l m
Ġver b
Ġ' "
P OS
link ed
h aus
Ġcomp ression
Ġpart ly
Ġprov incial
Ġqu ad
ĠR ico
s yn
) |\
ĠM obile
} ",
ĠB achelor
Ġim pl
' +
ĠF reedom
g p
Ġfor g
Wh y
Ġpurs ue
. ',
ley ball
ĠK EY
ĠOC aml
Ġflow ers
Ġvacc ine
Ġwh ilst
In struction
Ġco ff
e or
w hat
ĠPark er
. ;
u art
res olution
leq slant
ĠK ath
Ġaux iliary
ĠH ero
nt z
ĠBe ijing
TO M
R ules
h op
17 5
ĠB asketball
dist ribution
ĠElect ric
IM IT
Ġs ender
ic ode
18 61
ĠAl aska
Ġrot ate
man agement
Ġab road
< >();
D ue
ĠMult i
ĠP red
writ ers
Ġharm onic
d ocker
G l
ip art
ĠD raw
script ions
Ġguid ance
Ġ-- ></
ĠChall enge
ĠMin or
st ation
ver ify
Ġ' #
Ġ& $
Ġ( %
ra f
Ġpars ed
ARN ING
Ġd war
Ġcontrovers ial
ĠBangl adesh
Ġann ually
RE CT
Model s
A cknowled
ĠSer ge
an ne
Ġdemocr acy
Ġsuppor ters
ĠV I
Ġdis joint
Ġanalyz ed
Ġleg it
if ference
Ġcons iders
Ġfra ud
get String
Ġprim itive
( /
ĠF isher
RE SS
ĠChrist ians
Ġgre y
}\ ;
i ot
Ġst retch
Ġlo ops
B us
ĠIt em
ĠConf eder
Ġcrick eters
stats models
re view
ĠBuild er
t ot
}{ }
Post ed
Ï Ģ
ĠMethod s
ĠYork shire
Ġpriv ile
UN T
ct ree
av is
Ġvar ies
ith metic
cl ock
âĢĻ ,
ĠAss ume
Or igin
ĠBas ic
Ġtraject ories
TR AN
ser vers
un ed
ĠM ong
IL ITY
ĠJohn ny
ik o
Ġpure ly
ot ions
Ġoccasion ally
su it
Ex tra
Ġpain ters
aval ry
cond itions
ĠCarib bean
Ġweap on
refer ences
ĠT ournament
Ġgener a
}) _{
L ICENSE
Ġbr ig
ĠI gn
Ġb attery
Ġminor ity
Ġmon ot
M ean
Ġalloc ated
SO UR
amazon aws
St age
A SS
Ġun success
3 20
Run ner
ĠSt ars
T own
MP L
G G
ĠN ord
Ġaware ness
L ow
Ġsup plies
Ġlaw yers
w iki
U CT
Ġplan ets
Ġnom ination
ĠC red
Ġem issions
ĠP ictures
Ġtax es
Ġs oph
v skip
Serial ization
Ġcell padding
Ge ometry
Ġsub sets
ĠChar lie
k u
A ctions
Ġattract ed
ott nt
188 4
ĠT i
Ġm or
ĠW atch
Ġencour age
re ason
ĠR ural
ent i
cell color
ĠCarl os
Cre ated
ĠP or
ĠA GN
tr action
Av ailable
idel ines
Ġagric ulture
Ġh ierarchy
ĠT ake
Ġul tr
Ġg host
Ġtrans it
Ġac oustic
mark s
Ġred irect
annot ations
Ġr ub
L at
Ġge omet
Ġind ustries
Ġlog ical
Ġb ott
h n
ĠMan hattan
Det ector
Ġre act
Ġillustr ate
ĠJ e
Ġcoun sel
w ang
ĠWar ren
Ġmedi eval
ĠR ule
Ġdebut ed
> $
Ġviol ent
ĠP ri
I ME
ĠD J
ĠAnd y
Res p
Ġcompos ite
Ġs a
ue z
ĠBar ry
Ġdem ands
Ù Ī
Ġdifficult ies
Ġop ens
ĠM ack
Ġp ulse
is i
with out
W IN
Ġalcoh ol
Ġqual ifying
ĠCol umn
t oc
ĠBar bara
Ġvess el
TI ES
18 64
* \
ĠC arm
O k
os ph
her s
uff ix
ĠWhe ther
ĠW rest
Ġbr ick
le in
ow ed
Ġprot otype
Execut or
Ġb acter
= -\
ĠPol y
path s
ĠT itle
ac re
V C
ĠPr imary
r atio
av i
ate way
Ġpred ecess
Ġb orders
get Class
Trans ition
Ġpos it
not ify
Ġelect oral
ĠI an
ĠAl tern
Ġcontribut ing
bour g
J ew
Ġcred its
Ġk it
ĠEu clidean
Al t
ĠMic hel
Br idge
ĠH ope
Ġamong st
Ð ·
Ġout line
Ġf er
Ġrep air
Ġelig ible
ĠE instein
Ġperturb ations
Ġsouth west
Sc ore
Ġretri eve
ĠNev ada
$ }}
ad ic
C at
it is
un ion
Ġcell spacing
ĠW as
Ġdes criptor
ac l
ĠBl ues
Ġdecl aration
pr im
Ġproject ive
Ġenc oder
b ib
ĠT OP
Ġf ictional
Ġdialog ue
Ġw et
Ġorgan isations
ĠB ag
Ġs itting
Ġun stable
188 1
Ġbox es
ĠInd ustry
Ġcontro versy
OL D
Con vert
rt l
3 000
ĠF ALSE
F ebruary
Ġw orship
Ġb ug
Ġanom al
h um
com parison
ĠFI FA
ac les
Ġbeaut y
ĠA y
Ġmon ument
Ġde ployment
s ame
ĠSpe ed
& -
umb ent
Ġsegment ation
un i
Ġdis ag
Pr imary
keep er
u et
ast ro
18 00
sh are
-------- --
tim er
ĠB uffer
ĠS yn
ĠAthlet ic
ĠF ight
ov iÄĩ
pot ential
ĠH orn
Ġincre d
z ant
' )$
ĠF ine
Ġ uri
med ium
Sche dule
B ul
ĠU RI
> ${
BU FFER
ĠWARRAN TIES
ĠV erm
Ġg olf
Ã¶ r
Ġspac etime
mem bers
P G
æ ĺ
ĠL ud
Ġex clusively
alax y
ĠW olf
>( <
on ed
ĠU til
Ġvan ishes
ĠJ enn
Ġr id
Bit map
Ġcon gress
Ġeffect iveness
ant ics
Dec imal
Ġ' @
Ġwould n
st eps
ĠK os
Ch anges
Re ason
W he
ak u
ul ates
Ġt um
ĠHawai i
add ed
Ġt ur
Con tract
Ġcons ent
add Class
ĠJ S
Ġl oyal
' }\
12 1
Or iginal
Ġs alt
Ġmag azines
Ġto w
Ġc ached
Ġpay ments
. }\
list ener
sub stack
ĠS ide
27 0
al am
Ġp ushed
ic ates
ĠM ans
Ġsus pect
Ġremov es
ĠBen jamin
Ġc oc
ĠStud ents
} <
our t
}} =\
ĠB urg
Ġcor related
Ġb arrier
ab stract
Ġsent enced
Re pe
ĠS pect
T ur
Ġterrit ories
ĠAg reement
Icon Error
Ġident ifying
V irtual
qu estion
Ġthir ty
" ];
ro oms
ry ing
Ġweak ly
dat aset
Ġinnov ation
T uple
ĠS outheast
G ood
Ġcl ause
ĠM oz
String Builder
h pp
Ġmeas uring
Ġph rase
om eter
I l
Ġens ures
188 2
Ġcontract s
Ġquot ient
be ans
Ġst em
Ġphot ography
ĠArg ument
Ġext ensively
Ex ecute
Th omas
ĠPhys ics
Data Type
je ctions
ĠT ABLE
ĠTh or
ĠL evel
iss a
r floor
ĠSt ill
ĠSte el
og ue
ĠInst all
p al
ĠP ic
Ġk inem
ĠSal v
HO ME
ig s
Ġinvest ors
Ġg allery
! (
ĠR u
book s
aw esome
mathbb m
à¤ ¾
ĠS A
ari ate
ĠMov ie
Ġfinal s
part ition
Ġbos on
th an
Î ·
ev ing
H A
Big l
=" {{
Ġcon clusions
Ġl os
ĠSh ang
ĠCr ime
re z
Cal endar
ĠFac ulty
] </
å Ń
12 2
Ġbeg un
cor rect
BO OL
J o
ĠV a
local host
Ġex cluded
Ġbusiness man
IconError Encoded
WE BPACK
Ġinst ability
fr agment
Ġ$ <
Ġr hy
Ġlat ent
Al gorithm
ĠA ld
Ġspe aker
Ġreg ulation
Ġfl ash
ĠMuslim s
ĠL ad
ĠEnvironment al
govern or
ĠW a
Ġbatt les
Str ucture
ĠV ar
Ġim aging
ĠPr ice
Ġrest oration
Ġg ross
Ġind irect
Ġfe els
}} )$
add le
ĠP U
Ass ume
cent ral
Ġgener ations
H en
I mp
Ġdevelop ments
With out
ĠProfess ional
con current
Ġsampl ed
Ġp ian
Ġabs olutely
ĠFl ore
ĠS ax
ĠF oot
View Controller
Ð° ÑĤ
ĠR ank
app ings
get Message
ĠP HP
Ġmechan ics
Mod ifier
ĠAct ive
Ġs ectors
Ġf is
ick y
Conver ter
C art
ĠU g
ĠU SS
33 3
Bl ue
ĠSt orm
ier ra
P ane
00 5
ĠColl ins
s olid
18 63
us c
Ġsh apes
Ġrele g
set ting
Ġbe ach
Ġobserv able
B reak
ass oci
s ent
Load ing
no frame
hib ition
ĠAthlet ics
Ġpeak ed
Ġex ha
ĠN ad
ĠN GC
Test ing
ĠUn like
ot ton
Ġcap s
ĠS even
uk a
Run ning
C LA
ĠT u
Re act
v endor
Ġre ven
Ġwe aring
s ure
% "><
ĠV egas
ĠOper ations
Ġtherm od
Ġ$ $\
ĠOr ange
}) (
st ri
Ġrender ed
ĠRun time
Y our
BA SE
ĠIllegal ArgumentException
Ġs ends
ĠB S
Ġtherap y
Ġlog in
f requency
Ġc arrier
Ġhealth y
sm ooth
ĠSing le
~ (
Ø ª
ĠCon vert
G it
Ġpat ent
SP AN
Sp anish
Ġperm it
az ure
IMP ORTED
h base
Ġearth qu
Ġp ump
Ġrep orter
Ġinf ection
Ġmag ic
m usic
Ġd ub
F oot
Ġpet ition
Fe atures
\' {
g raphics
ĠSpec ifically
ĠCom b
ĠRober ts
×ķ ×
C amp
as is
Ġdelay ed
ĠW ing
Ġm ath
olog ically
ST M
Ġsurv iving
çĶ ¨
Ġsequ el
Ġcheck ing
ĠMA X
ID S
le af
Ġprov es
": "
text ure
d al
p n
Ġaltern ate
Table Row
ĠSerb ia
om es
LO AD
ĠEconom ics
Ġobvious ly
Ġre actions
ag ar
ne e
ĠL ithuan
S uch
á º
Ġob st
eff icient
ĠY es
ĠV ic
Ġin coming
ãĢ Ĥ
S il
Ï Ĥ
B road
M ust
Ġev olved
' },
18 62
ĠGu inea
superv ised
ĠTra il
Ġphotograph s
in formation
ster dam
Ġlength s
Ġhon our
Ġexcept ions
Ġhealth care
Ġdist inction
ent e
Ġhom ot
Ġreal ize
ĠEn c
or ia
bor ne
Ġc ogn
Ġh orses
] ).
Ġk w
ĠP ant
b ie
ĠPro test
P s
grad ed
st ad
Ġcarri es
Ġfarm ers
U nd
Ġj ury
Ġ$\ |
Ġden om
ĠRich mond
l ater
ĠZ e
ĠF err
ĠR ace
ĠN icol
Tem p
Ġcos mic
ĠD ebug
Ġhe x
Ġbur st
ĠCirc uit
b ecause
ĠF alls
get Attribute
Ġsub stitute
ĠGre ater
ĠAlex and
Ġcon jecture
ĠUrb an
ĠB ron
Ġmir ror
B H
Ġprov iders
ol en
Ġhelp ful
ĠSch olar
Ġlab our
google apis
ĠM ix
Ġemer ging
00 2
. âĢĻ
Ġd rew
Ġcontinu ity
CRE ATE
order ed
ĠWith in
Ġinfin ity
ĠI van
Sim ilarly
S eq
enc il
over e
O cc
inc inn
N eg
t uple
ina e
Ã Ł
Ġout per
Ġt y
Ġmaintain ing
Ġhistor ians
Ġmathemat ics
Int ent
it on
Ġsl ave
ĠP il
hol m
ĠB og
ĠSt ein
ocr atic
Ġsynt ax
Ġfor cing
Ġremark able
ĠK i
ĠBelg ian
ĠN ar
ĠNov a
pag ination
ĠNAS A
ĠM all
H AND
max cdn
Work er
Ġt icket
ĠP ast
ĠCh ron
+ $
ĠUnivers al
ĠF am
H ave
ĠL yn
Big r
Ãĳ Ãĳ
ebr aska
Ġan notation
Ġ' -
Ġdepart ure
ov ich
RE SU
ĠÐ ½
S ig
Ġc ategor
it ol
ĠĠĠĠĠĠĠĠĠĠĠĠĠĠĠĠĠĠĠĠĠĠĠĠĠĠĠĠĠĠĠĠ ĠĠĠĠĠĠ
Ġacceler ation
te chn
Ġstream s
s outh
ĠM aterial
im od
d st
Ġsuggest ing
ĠHun ter
ĠC lear
om on
Le ague
ham mad
c as
ĠColomb ia
ra is
as ant
ĠC BS
ĠR angers
ex act
Ġrare ly
Ġtarget ed
Ġlimit ing
ĠA x
Ġun expected
() ]
Ġclaim ing
Ġap artment
ur u
acc ur
Ġcoal ition
Ġded uce
f und
Ġsil ent
B u
et r
æ Ī
Ġen umer
ĠMod ule
let ion
Cam era
ĠMed iterranean
Dem ographics
Ġmunicipal ities
OT TOM
Ġdefe ating
Ġas ks
f un
OR K
Ġact ed
ĠA zerbai
se gment
Ġconsist ently
is an
Ġswim ming
vious ly
Ġmon arch
ĠC her
Ġsurv iv
Ġeng age
ge ometry
incinn ati
igh bor
us k
ĠShe l
ĠĠĠĠĠĠĠ Ċ
Ġover come
ep age
ous el
ow ell
/ )
Ġcompens ation
L ines
Ġentang lement
Ġphys ically
Ġres ort
ĠS elf
Track er
aj a
Ġfil med
Gr ad
Ġleg islative
}. \
ĠAl bum
B etween
ref resh
Ġinc idents
spect or
fr ames
ĠH indu
V A
ĠS cal
ĠCon sequently
ic ht
Ġtown ship
or ange
Ġpro ud
Ġportr ayed
Ġmulti plication
Ġfor get
Ġb io
ĠR oll
Al pha
ter ed
Ġdef initely
\ -
Ġf irms
Ġgu y
Ġ* ,
I ss
Ġcoll isions
Ġp ose
. (
et ta
to ctree
Ġf antasy
Ġinterview s
Ġa z
ĠA ws
Ġsole ly
Ġra ising
ĠDer by
ĠMar vel
Per iod
ĠP hoenix
Ġsurpr ise
Î »
Ġh aven
iv o
ush ing
D ry
S en
ĠInt elligence
ĠR acing
m ov
pe ction
F ALSE
Ġnon zero
ĠSong s
Ġrespond ed
( |
ĠF itz
Ġin comp
AV E
Ġco hom
he res
ĠC el
188 3
\!\! \!\!
Ġincre ment
f ake
Ġmount ed
ĠD ays
ĠE li
Ġins ight
Ġansw ers
Ġexhib its
d v
' $,
ĠO wn
Ġsl a
orient ed
o ys
dr iven
C ross
enn ial
Ġvis its
redu ce
ub ern
ĠMunic ipality
Â ½
Ġarchitect ural
in verse
OPT ION
prec ision
r v
ĠG ot
ĠÂ ©
Ġcloud s
hes es
on line
S n
b ucket
Ġg od
Ġqu iet
Ġwrap per
B ER
Ġsubs cription
Ġr ide
om p
ĠN ull
tr ained
ĠSt re
G allery
ĠN BC
eg u
up dated
di ag
') ->
m any
ĠC ert
el o
iff s
Ġc able
N AL
ir s
Sec ret
Ġg all
ĠTreat y
Ġsac r
dec ode
Ġunder ground
Ġmark er
99 99
Ġcomm une
Ġreported ly
ĠMod al
Ġscient ist
] ->
d ifferent
ĠArab ic
Stat istics
ĠTurn er
ĠB aptist
tern oon
ĠPr iv
id ency
Ġprint f
ĠTig ers
ag i
ĠClass ic
Ġdiscr imination
Ġatt ending
por al
h ig
h p
Ġclass ifier
ĠCon struction
ĠY ugosl
ĠO P
ĠB iden
Ġre cre
ĠEn cycl
18 76
Ġphil osopher
Ġi i
ĠS occer
F ar
U A
Ġcolle agues
Ġlabor atory
r and
ĠSt even
Ġiniti ated
Ġin cl
red irect
Ġposs ession
18 75
me as
process or
L aw
7 50
ĠMean while
ur bed
sim ilar
Ġ======= =
Ġguarant eed
t ile
Ġput s
Ġbuck et
Text View
sec ution
Ġmin isters
ĠBr and
Ġleg s
Ġindu ces
LE S
Ġfe es
d elegate
ĠM ol
Hash Map
h skip
ĠV ancouver
ĠPref ecture
St rip
Ġ# {
ĠFe ature
Ġph arm
Ġiter ator
Ġassert True
T M
mat ches
Ġadmin ister
ĠTro phy
i u
Ġhon est
Ġstream ing
Ġcampaign s
ĠHarr ison
ĠSh a
16 5
c ourse
Ġveloc ities
Un iform
ĠÂ »
Met ric
Ġcas ual
Ġsh ifts
Ġdes ert
Ġbl ind
loc ale
Ġsurv ival
Y es
Ġm apped
ĠBerk eley
k k
m akers
100 00
Ġserious ly
z ym
Ġaff ects
Ð¾Ð »
ident ial
et c
Ġours elves
Ġchar ity
Ġ' _
Un ivers
Ġ$ [\
ĠS now
ip ped
re ach
em a
="@ +
Support ed
Ġ' ''
ĠCh o
ĠF low
rit ic
Ġsort ed
ĠF ly
inc ipal
s ocial
Ġaccomp any
do i
. },
des cribe
J ac
gr avity
ĠPh oto
Ġt ies
if iable
m ust
ĠPr adesh
Ġintegr als
Ġconsum ers
= (\
Ġviol in
Ġdis put
ĠN an
ent o
Ġsold ier
Ġprom oting
ĠC PU
ĠC old
ord inary
ĠPer u
Ġmoder ate
Ġarch ive
st ock
== =
2 30
P acket
t one
K ing
Ġdeep ly
not ification
M utable
ĠNS String
ou p
Ġpo ems
18 78
T oday
ond a
Ġparliament ary
ĠVictor ian
ĠNot ice
R ay
ep he
ĠMil an
ĠL ess
Ġc urrency
ĠJ ama
Ġline arly
Rep resent
Ġhospit als
Ġconsc ious
M ix
ac a
Al umni
sub Nav
Ġver ified
Ġimm igrants
Ġexpect ations
Ġelev ation
Ġven ue
ĠGener ated
2 11
Ù ĩ
ĠLiter ature
Ġar ises
Ġde als
Ġâ ĨĴ
ĠR andom
display math
gener ic
ĠH ost
ĠL eader
ĠOl iver
Ġtang ent
Ġc inema
Ġcomplet ing
Im ages
ĠIm port
in itions
Ġthe at
ĠF lo
Ġun likely
Ġtrend s
Ġt s
C annot
at z
ĠAnd re
N or
Ġl ingu
ĠSy mbol
ADD ING
ĠE ug
be ing
C a
ut down
Ġparticip ating
he ets
ĠPier re
ĠBuff alo
ancell or
Ġfeas ible
ĠIn n
br anch
Ġev il
Ġgrad uating
P eter
Ġconstitution al
N orm
Ġinter vention
no ise
greg ate
(' ./
m v
Dis k
Ġdoub les
N I
u cc
ĠF ab
se cret
Ġcross ed
Ġrelax ation
ĠChar lotte
ari ans
Ġspec ification
Ġsuff ices
g c
Ġ} {\
ĠGi ants
j ackson
iv ic
ĠImm utable
Al bums
ĠRem arks
ĠL abel
Ñ Ĩ
ĠTR UE
ĠCo al
ĠD R
Ġal ph
ĠPar ish
ar ound
N L
ĠTre as
RESU LT
u ke
Ġattempt ing
mention ed
Ġafter wards
Ġeng agement
is ch
Ġth orough
ĠB omb
Ġnot ification
Ġcontr ary
Ġchampionship s
ĠSt op
Ġinflu ences
gu ide
ain er
ĠCr icket
Ġim plications
rot ate
pe g
Ġfin itely
the ad
M ov
met rics
ĠE ston
otts ym
K L
è ®
Ġco in
ator ial
50 9
)= (
AR RAY
ĠS aints
az el
Ġformal ism
Ġn ested
ĠIn valid
ne ut
Ġw arr
Ġorig ins
Ġab elian
set Text
Ġview ers
HO UT
Ġrout ine
s per
Ġing red
ma jor
Ġpo ets
ĉĉĉĉĉĉ Ċ
ĠAlber ta
Ġg ard
Ġt ill
}_{ {\
id ity
Ġav ailability
="../ _
IN VALID
ĠÐ ¸
D istance
Ġde emed
rg b
Ġrect angle
che str
ext ensions
Ġreflect s
script s
trans late
ĠY et
Ġcomm emor
b ian
As sembly
et es
ĠT arget
\ }}
}_{ (
ĠB ody
ĠB egin
Ġsurre nder
ĠCon n
ta x
equal ities
Ġadd r
dat etime
ĠW arner
ĠT ib
Up per
cel ona
b oot
al is
d td
Ġjud gment
Ġwood en
Ġderiv ation
pi res
18 71
O s
Ġup coming
Ġsk ill
re ts
op ing
ath on
__ ,
Ġexped ition
Ġvolt age
trans l
Ġpull ed
] ),
Mark er
per iments
ĠT ogether
SS ION
separ ator
> .</
Ġan ten
og s
Ġpre liminary
SP AC
P REF
Set up
Ġfl av
Ġanalys es
T ip
Ġe ighth
Sc ene
Ġo xygen
Ġphys ician
he x
comp ass
h is
Ġdon ated
Ġprofession als
en vironment
over set
ĠV as
ĠV lad
ick en
ic it
ĠDef ine
Ġoccas ions
al ymp
chi at
S ol
) )$.
am o
ĠM ind
S B
Ġemphas is
Ġadv is
Ä Ł
pre pare
Char les
ĠI da
Ġcl s
Ġf abric
ter ms
Ġ" #
ĠLeg end
18 79
Ġover s
Ġdiver gence
Ġal igned
FFFF FF
ant ly
Ġhyper bolic
Person nel
ĠNich olas
ĠP od
Ġmed als
constr aint
aus es
Ġt ile
Ġin qu
ele g
ĠR aw
Ġdis pute
ĠOver all
it us
ĠArch ives
trans fer
umb n
(" .
Ġnumer ically
Pro du
dis k
F i
L ou
Ġefficient ly
13 6
Ġcount ing
d ating
Ġconven ience
Ġcor ruption
ĠObl ast
ra h
ĠT ry
Ġel astic
re str
Ġvari ed
18 67
New s
is b
Ġpl astic
oupl ing
x rightarrow
cl i
Constr aints
Ġsuper conduct
fl ux
ĠCan al
Ġcard inal
te enth
Al ert
$ (\
L ie
ĠF i
T wig
Look up
ix on
Ġcous in
Ġm ic
L com
Ġele ven
ĠAd miral
Ġphenomen a
ĠFinn ish
Ġd st
ew ise
sat isf
Ġbelief s
Rich ard
ĠH udson
Ġor ange
Ġyoung est
ĠBO OST
Up dated
ric ulum
Ġst ops
Ġl l
ĠB ath
ĠR ender
Ġlast ed
Ġextr action
qu arter
Ġrepeated ly
Ġgener ality
Ġtravel ed
2 10
Ġs napshot
Fr ank
Ġgr ants
=- =-
ĠInd ustrial
ĠEx p
ĠGr an
Ġamb ig
ĠC hel
osp el
Ġconflict s
Mod ified
N ON
Trans lation
ĠV iol
ĠArab ia
Ġsustain able
le tt
ĠD oc
ĠSh adow
miss ible
Ġl ens
c art
tr ait
depend encies
Ġstat ue
Ġop ponents
ĠRoman ian
ĠVin cent
ĠTerrit ory
- ">
opt imal
amp a
Ġins pect
Ġcons ensus
Ġco aching
Ġmot ivated
Ġis instance
row th
Ġshe ar
ĠSym phony
iline ar
Ġcomp ound
in ery
ĠR ing
Ġspecial ized
ĠArch ive
ĠM ach
O FF
ub a
ĠM yst
Ġ\, ,
Ġart illery
ĠFr ances
Ġinsp iration
Ġcal ibration
ich i
Ġten ure
Ġimag inary
ĠG round
Ġprom ising
ri en
ia o
" ?>
ĠB lood
PRO P
= {\
18 68
Ġsequ ential
EN ABLE
ĠB arr
Ġneighbor ing
cred ited
Ġcond em
item pty
TH ER
F actor
Ġp in
ĠCl ay
arg v
Ġfl avor
om itempty
Del ay
ĠM B
h ang
Ġrep ly
Ġasympt ot
cs v
Ġscholar ship
B ob
Ġdis appoint
F B
In jection
Ġhel per
Ġdetermin istic
p iece
12 6
Ġrefer ring
autore f
Ġauthor ized
ĠRem ark
l atest
Ġdo ors
P ADDING
q a
iber n
18 77
Ġimm igration
S K
Ġwind s
Ðµ ÑĤ
Ġcaref ully
om o
p k
tem perature
Ġs ick
dis patch
N eed
ump y
ĠDr ive
c mp
AP P
Ġcivil ian
ierarch ical
allow ed
Ad v
ĠTechn ical
E ar
ĠS z
Ġam ateur
Ġencounter ed
Ġent hus
p ipeline
Ġam pl
ĠAm sterdam
ĠB ORDER
il o
Ġkey board
Ġbl ank
15 00
Ġreview ed
Ex amples
Ġdis aster
Ġ\ #
ĠF un
pack ages
Ġn s
Ġpotential s
) |^
ĠR oom
vel oc
r h
P ush
P ress
int egr
t m
C ritical
F ire
s ources
pos itive
B er
Ap pe
ĠP AR
Ġgovern ed
ett i
ĠG lob
**************************************************************** ********
Govern ment
Ġflo ating
ack ets
est ure
S mall
> ../
17 6
ĠPro perties
Ġcontinu ously
prot ect
Ġent ers
Ġshop ping
ME M
Ġc avity
Form atter
Ġdeform ation
Ġf ro
Ġo ct
Ġcut ting
Ġ$- $
' }$
s amples
um ann
amp ed
def er
Ġassum es
it ro
Ġel abor
ĠC row
se en
An n
ust ers
ĠJer ry
serv let
task s
Ġf ighter
Ch unk
Ġt ension
Has Been
Ġregular ization
Ġtim er
ars ity
\| _{\
os hi
ĠF if
ĉĉĉĉĉĉĉĉ ĉĉĉ
S ent
n ear
Ġs ax
ĠC atalog
Ġpe oples
Ġp arks
Ġdep ression
Ġcap ability
ĠKir k
ai ro
ĠM icro
av an
ens en
W alk
Ġholid ay
V O
ĠD elta
ĠJ ess
ĠB orn
RA M
f ailed
g om
und erset
` )
ĠParam eters
ĠGr id
Ġpay ing
] ^{
Ġn eck
Ġagre es
pr ice
) !
akes pe
Top ic
Separ ator
Ġpro secut
. ).
EV ENT
ĠS ession
18 72
Fore ign
12 9
Ġv ir
ĠCl are
Ġsent ences
C ost
Ġdram atic
ĠJeff erson
Mat cher
Ġmod ifications
Ġcryst al
}} }$
b ank
Ġcomment ed
ĠT YPE
Ġdo ctors
ĠDate Time
aw t
ĠM asters
Add itional
Ġ ell
ĠS id
interpre t
ĠStan ford
ĠM atrix
H H
Ġc rypt
Ġsp okes
ĠBr istol
Ġmer chant
en ario
Sh adow
ĠSerb ian
ĠB reak
CR IPT
Ġ" ;
U ntil
um ped
: &
res olved
K ernel
pt s
Ġeconom ics
ĠD raft
ast rop
ple ctic
SU CCESS
ĠJ a
18 74
h ad
Ġdis patch
ST ART
m other
ĠJ ob
n ecess
ta wa
ĠLore ntz
ĠVenezuel a
\, .
ĉĉ Ġ
ĠF u
Ġg ro
at ra
}\ !
Ġm s
ri er
Ġstreng then
Ġben ch
Ġlog o
Pr ice
Ġthreat s
Ġnegot iations
effect ive
UR N
ĠT un
; %
18 73
ĠS ex
ĠAnn ual
Ġdefault s
B ucket
ĠF ast
Ġw edding
Ġqual ify
Ġrel ies
th y
Ġstr ain
m os
Ġvalid ity
A K
Ġrestaur ants
ĠFri ends
Ġannounce ment
ĠTr inity
Ġchem istry
contin ue
Ġformul as
ĠL L
). }
ep h
Ġsymmet ries
Ġarrang ements
M ut
g ap
Ġvulner able
ĠJ oint
it ual
ĠP ra
ordin ates
ĠRec all
c ritical
ield s
hem atic
l it
}| ^
R oyal
ib ling
g em
Ġpropos als
w hel
ent ine
Ġar ising
Ġpre dominant
ĠL loyd
pay load
M or
ĠL ate
18 66
Ġf inger
Ġengine ers
ĠN ebraska
Ġcaref ul
Z Z
ĠL I
ĠR O
ail ing
ĠMag ic
ex clude
it ary
ĠB rew
ĠArt ist
ĠWrest ling
D ict
Ġre lying
ĠS eb
ĠCamp aign
elastic search
h yp
Ġport s
man ifest
Ġmonth ly
cel and
ĠEnt ity
Ġact ively
Ġflo od
Ġar ithmetic
Rel ative
Ä Ļ
m g
Ġinitial ized
ark ed
Ġfl ed
Ġhead ing
Ġaccount ing
B s
AT URE
Ġtrad itions
Part icip
publ ished
ij k
Ġminim ize
ĠS ah
ch itz
Ġ' ,
Ġend emic
ĠMu hammad
ĠCh ap
ĠH ann
ject ive
ym an
A MP
Ġ$ ('#
Comm it
Ġgr an
Ġr ings
ĠRepresent ative
Ġhe ating
Ġsh ore
A U
sl ider
ĠB our
f air
ed ges
Cert ificate
13 2
ĠC hern
ĠK ap
âĢĻ .
Ġcontrad ict
ĠM ason
te le
ĠFor um
Ġscal ed
R G
Ġor chestra
= }
ch rome
fil ters
Ġl ad
P aint
spec ies
Ġinv ariance
Ġportr ait
over y
Ġaut hentication
Ġnom inations
F our
ĠUs ed
Ġaccess ed
ĠM ut
ĠE RR
L ear
et ics
ĠP S
W ell
16 8
ft en
ak ov
ĠCh and
ors ion
ĠChristian ity
Ġev ac
FLA G
Ġsqu ares
{ [
Ġin equalities
ĠY u
Ġvari ability
Ġembedd ings
Ġacqu ire
Ġwid get
Ġm as
ĠS EC
AR GET
ache l
Ġmanufact urer
ĠF light
ĠB orough
il ateral
ĠN at
om eters
act ed
15 5
Ġrest art
Ġthread s
Ġres ervoir
ĠAnd r
Ġ um
il ia
ĠKen ya
Ġg al
Ġ" );
db c
^- $
Pay ment
Ġcons olid
ig ion
ĠT erry
akespe are
Ġfunction ality
................ ................
ur bs
ab b
ĠE C
Tool s
c ached
Ġb es
Ġaccur ately
Ġsub str
Ġsuff ix
ĠAthe ns
H a
Ġglob ally
ĠScient ific
Ġdig it
ir able
ĠSim ilar
_ [
i ology
18 40
ĠBeng al
m ys
Ġfail ing
ĠRob in
ĠB und
Ġnob le
art z
, ~
Ġsup pressed
ĠGh ana
ĠCon nection
ĠForm ula
ren ew
o il
Ġagre ements
ĠDen ver
uss ia
Ġdec ides
am ination
Ġfest ivals
d ed
Ã© d
Ġtro uble
Un ique
Reg ular
ela ide
Ġup load
ab olic
Ġst ub
the y
ĠP in
W F
ME SS
ĠC ad
ĠL arry
Ġver ification
ĠEth iop
D ig
ĠF actory
con j
f olk
Ġref resh
sup p
HasBeen Set
arri ors
Ġm os
Ġlocal ization
Ref resh
Ġv ital
ĠBy zant
Ġar row
ĠO il
center line
Medal ists
M ont
ĠG arc
Ġattract ive
Ã ī
adi ents
ĠRepublic ans
S ocial
olt z
O G
Ġcom ics
Ġgrand father
Ġrecommend ations
dr ag
2 25
Ġneglig ible
M iddle
C UR
l c
ĠO K
ĠA B
ĠE le
ĠB ass
ancell ation
ĠO cc
ĠKe ith
Ġg it
Ġcab inet
Ġtw in
G RO
Ġarray s
ci pl
Mon itor
ac iÃ³n
Ġdiv ide
ĠAct or
Academ ic
Ġcam ps
fav icon
1 19
ĠC atherine
ĠCl in
m ade
Ġbr idges
Ġtri be
oc c
Ġcl othing
Ġke eps
ĠB ot
ĠG it
ĠS ay
ol ate
ĠInitial ize
Ġvan ishing
ĠW es
Ġexam ination
m x
â Ķ
Ġ" ${
}) -
Ġspe akers
ĠL ost
ĠN HL
iz a
ĠG rey
ips chitz
Us ed
Ġt ons
S ir
RE T
Ġindic ator
Sup press
Ġm anga
em ies
ĠW u
K ar
ĠJ en
ĠT otal
ĠStr ucture
Ġhon ors
ĠH IV
c odec
ĠMont ana
Ġobserv ables
Ġapprop ri
ull ivan
atern al
ĠT alk
m r
ĠM atch
R adius
Ġfraction al
ĠQu ant
pro c
ey l
S ound
ĠB AS
Ġcomput ers
Ġhapp ening
ĠD id
Ġp ipe
ĠB ir
Ġend if
oc o
ĠL apl
fr action
stream ing
Ġt ub
Ġmuseum s
Ġreason ing
ovak ia
ĠCost a
op al
Ġabs ent
Ġdepart ments
Ġrefuge es
Ġwel come
Ġr um
ĠF ont
Ġsec ured
Ġw ings
en os
mar shall
ĠMun ich
ĠN othing
ack ed
ĠAnt i
D ITION
Ñ ħ
ĠHash Map
Ġste ep
ĠC T
ĠAnt ar
Ġsurvey s
DE D
}= (
Ġdismiss ed
Flor a
Ġcomp anion
Ġmem or
W ar
SPAC ING
att ing
ur red
Ġsuff er
ĠL ions
ĠY am
Re ceived
Ġport folio
ĠFri end
Ġsimpl ified
Ġpre st
ĠEd wards
ĠW HERE
Ġqu oted
ĠHig her
Ġs v
block s
Ġsubstant ially
eq q
+ "
Ġg athered
ĠArch itecture
Ġdevelop er
Not ice
ĠT on
Ġle x
WA RE
te ch
Ġguarant ees
Ġoccur ring
Ġbroadcast ing
ĠC raig
og ical
Ġproof s
ĠSum mary
Ġneighbour hood
@ {}
Ġplay offs
I ES
oph one
ĠGerm ans
Dest roy
T imes
cre p
ĠMem ory
ĠSt evens
Ġfacilit ate
ph ot
ĠHol land
ĠP erm
P ipeline
ĠS ad
Ġint ense
Ġpe ers
ins ky
ĠCar r
ĠK il
Ġb orrow
pos er
tr on
Po jo
' )\
Ġd otted
}} }{
sub float
) <
ĠP L
Ġwrap ped
ph an
cho ose
ĠP le
ad apt
^ +\
Ġcred entials
Ġt orn
itud inal
Ġimpress ive
ĠP aper
Ġback up
Path s
Ali as
U UID
Ġhighlight ed
vari ables
um i
Trans fer
M ail
M obile
Ġbr ands
stat ement
ĠE uler
ĠC u
Ġhop es
s an
Ġc c
Ġem it
Comple tion
op acity
plement ed
Ġexam ined
× Ļ
ĠDr ag
ah l
TableRow Color
t bl
ĠM aced
AS H
Ġin tern
Ġim perial
om ed
Ġin herent
Ġt ube
ex tract
og g
G raphics
++ ++
oth ic
hand ed
ĠMur phy
ĠS cript
ĠMer c
ĠDel aware
Sche me
m ak
ur as
ĠL A
h all
é Ģ
ĠF al
chedul ed
Ġcitiz en
ĠWIT HOUT
CO M
ĠSocial ist
Ġorient ed
Ġ" _
Ex it
C lean
Ġful fill
pop up
RE S
ĠS ize
ĠA str
ĠB ond
18 69
Ġuniqu ely
Ġup grade
ĠEx pression
Ġportr ay
14 5
Ġknow ing
Sh arp
Ġ// !
Ġany where
Ġv ec
qu ark
Ġmin istry
Ġsynt hesis
Ġspons ored
' =
end um
Exp ress
SOUR CE
ist ani
por ter
c urrency
B ACK
ĠAl ong
Ġgu ests
h ou
ĠCons erv
ĠDec l
sp ot
ĠC ob
un ning
ĠV el
nos cript
P ixel
he art
Ġb anned
ĠN ear
ĠBar celona
ĠDev elop
Ġtim ing
Ph ase
Class Name
r ac
Ġdr ift
sc an
Ġbirth day
Java Script
ĠHe brew
Ġdispl acement
Ġinnov ative
ĠPalest inian
ov an
pro j
ĠT yp
Ġpreced ing
do es
ĠL iga
Ġsup press
chi ev
D one
Ġwav ef
Ġorgan ised
M G
ĠU P
}\ }$
ĠIn nov
Ġperm utation
FA IL
ĠS ave
Ġelli ptic
ĠY ank
Ġg ates
37 5
Ġir r
æ Ĺ
Ġess ay
Ġ" )
Ġoverse as
ĠW orth
Ġdem olished
SP ACE
Ġprote ins
co ordinate
Ġdocument ed
uc le
Ã± a
font s
Ġband width
S yn
Ġbo ats
f ers
Ġexcit ation
Ġprem iere
IT LE
Hon ours
ĠP O
l ies
Ġvis ibility
Ġferm ions
Ġpro ton
col ogy
Ġdef ending
Ġmart ial
Ġaf ternoon
cp u
ĠPU BLIC
off icial
Ġrender ing
ĠT oy
Ġrel ay
13 4
Ġep id
ĠC incinnati
ch unk
Ġrout er
Tr igger
Ġaver aging
Ġp s
lef trightarrow
ĠArt illery
ĠCELL PADDING
)\ ,\
Ġ} ).
U AL
indu ced
. ]
ĠY ale
ĠAssoci ate
Ġcoron avirus
Ġsl ide
Ġun cle
ĠCELL SPACING
* >(
parent Node
: %
look up
Ġcol ony
Ġtravel ing
Ġaffili ated
Pe er
b urst
Ġc ul
Ġb oot
S ets
Ġfor b
ĠN C
Recip ients
in x
oun ters
rel ax
ĠGuard ian
ĠH ob
att ach
ord ination
Ġto x
he v
H ung
Ġsu ite
ate ful
n orth
Ġg raphics
ĠB H
Ġm ild
Ġform ats
Rec ords
Afr ican
Ġmanufact urers
Ġst y
war z
Ġprogress ive
Lin q
g ression
Ġf atal
Jew ish
Ġ Ø§
Ġinter sect
Ġvent ure
H ook
h uman
ĠEx amples
Ġc p
ĠLabor atory
ĠAdv anced
am pton
Ġescap ed
un ks
M ot
Ġsummar ized
æķ °
Ġl ap
ĠS or
ĠC L
Ġmod ular
Sl ot
ĠEag les
Tax a
ingu ished
it zer
ĠJ oy
Ġ! !
m el
it ations
ĠPol itics
ec raft
ĠE SP
ĠSaf ety
umul ative
r ace
Ġtri bes
t ake
Ġ( #
Ġdemonstr ates
us ive
respons ive
ĠVis ual
Ġmain stream
he ld
ĠCom merce
Scal ar
? (
Ã ½
Ã¡ s
att en
] ['
tt ing
ĠQ ual
raz y
L uc
ĠW ait
Ġevery where
Ġconj unction
Ġsingular ity
REQ UEST
N ONE
ĠH orse
ĠL en
Is rael
project s
ced ure
com ments
ĠMe V
tool bar
( `
iv odes
Ġcond ens
ar as
Ġintrodu ces
M oths
Ġpoint ing
lim ited
ĠHel en
ar an
ex tr
Ġop ponent
P rior
Ġtr aces
16 9
Ġinvestig ations
... )
Ġconstant ly
ol ition
M el
m ime
)} =
I EEE
H ello
g on
er en
ĠH at
Ġe arning
Ġorgan ic
lin ing
ore l
f uture
Ï ħ
Ġmodel ed
e lected
Ġs ad
poly mer
ĠB OTTOM
Disc ography
ĠPro duction
Ġdeep er
to Equal
Per cent
Ġcomplet es
ĠLin ux
ic z
EN TRY
ash a
000 1
in herited
Ġlist eners
Oper ations
Ġmurder ed
at ype
18 30
per cent
Ġinn ings
scal ar
' -
C op
ri bs
Ġpers u
ĠM idd
Part y
Ġcomp ile
Ġdel iber
Ġh ub
ex isting
Ġr ay
Block s
Ġconcert s
ĠDr agon
per m
h aw
Ġl ying
}$ ).
}^{ (\
Ġrev ised
go al
set length
z ier
Ġc url
ĠH E
Ġlocomot ives
Ġpy thon
Ġw ake
Ġl iv
ĠLic ensed
P DF
ĠB uch
Ġfru str
Ġb ag
18 48
Al tern
Ġsettlement s
ĠO ptions
Ġinitial ization
/** */
N ECT
c ategories
ĠLu is
Ġy es
arri ers
Ġpat rol
Ġveter an
ĠString Builder
Can vas
Ġdist urb
ĠSh aw
Ch inese
Ġassoci ations
f aster
ener ate
Ġf ol
ĠK IND
Ġthick ness
Ġreprodu ce
ref lect
E conom
j ud
ĠG as
Ġident ities
ĠAp pro
H F
p ic
J ose
iffer ential
Ġc rop
ĠK ol
ĠId ent
oc co
ĠSpr ings
ars on
ious ly
Ġlie utenant
od ic
ĠPer ry
ĠFil ip
File Path
Ġadapt ive
ik es
ĠS ox
ĠCre ated
ĠP ackage
Ġt one
rele ased
Ġ. =
H ard
over flow
min a
Ġpro c
Ent ries
K K
op ens
Ġ} ),
Ġnot ify
ĠO ri
ĠB right
Ġsp ots
dem o
V R
ec onds
Ġconfigure d
Ġfeel ings
Ġrhy thm
Ġimpact s
Ġper cussion
ĠS olar
Ġe at
$ --
c ookie
p ixel
ĠG ay
d ue
ul sion
an che
? </
De ep
ĠS ultan
Com ponents
attr s
ew ay
RO OT
start s
ig m
ĠCl iff
ac co
s creens
å ľ
esc ape
C N
m acro
ĠF eb
ber ger
__ ["
Ġinteract ing
c x
Ġmeaning ful
d eb
ĠComple x
ĠSu ccess
Ġan not
13 3
Ġperfect ly
B G
Ġstr ange
r ically
et ter
Ñ ĸ
Ġachiev es
S everal
st ub
Ġmetall icity
L arge
Check ed
ĠBe aut
18 59
onom ic
Ġc argo
ĠSus an
z oom
Ġper ceived
uck er
Ġelimin ate
Ġw elfare
ah an
He ap
Ġcor rel
ĠC urt
Ġim per
}}\ \
g ements
th lete
ivodes hip
Lower Case
Ġcert ified
ĠĠĠĠĠĠĠĠĠĠĠĠĠĠĠĠĠĠĠĠĠĠĠĠĠĠĠĠĠĠĠĠ ĠĠĠĠĠĠĠĠ
om i
Ġann ih
ĠF L
Ġjoint ly
f w
Ġconnect s
au kee
à ¦
Ġconsider ably
Ġequ ity
ĠCl ose
pack et
Ġp reference
Ġconf usion
Ġinterpol ation
Ġtrad ed
Ġdecor ated
Ġgo ogle
ĠVerm ont
Ġst ere
Ġtax pay
Enumer able
set Attribute
ĠDemocr at
Ġ\ }$
io let
ĠLeban on
vers ely
Ġb eta
OR S
Ġt ribute
at ri
ĠM s
Ġaccept ance
U ES
f ive
ĠMad ison
ĠH em
Mod al
Ġt f
Ġtor us
F D
ever y
Ġb oss
Ġvari eties
Te chn
ĠBer g
Ġachiev ing
respect ively
ĠCom ment
Ġdemocr atic
M ir
Ġinj ection
veloc ity
+ |
Ġfore cast
Ġinv oked
Read y
l ican
ent ries
ij i
ä¸ Ń
Ġmanifold s
first row
o ard
Ġpl acing
erial ize
Ġch ron
Ġcohom ology
hel m
Ġdu o
p ine
ĠS ep
Ġgu ys
Ġ// -->
ĠH ugh
ĠCont emporary
itte es
h istor
andid ate
ĠD I
J s
}] $
Ġser vers
* {-
ut ton
list ing
Ġthe sis
F ill
Ġc ust
Ġproceed ings
im eter
im o
im ony
Ġg ains
ĠK un
mult iple
ari ants
Ġsearch ing
ĠInd ependence
or acle
ĠCl imate
Ġvol can
ĠNep al
Ġa mazing
ĠPers ian
| }{\
Ġassert ion
draw able
ĠQu arter
gu ard
D ao
T our
ĠL ux
sub string
ĠCon st
Ġg enu
ĠM ann
Ġob sc
Ġprocess or
Ġplan es
W el
Ġthought s
Ġdiff ers
P icker
################ ################
Mus ical
sign al
p q
Ġport ions
ĠEl li
Ġelect romagnetic
ĠSy rian
W atch
Ġsc iences
Ġcelebr ate
ĠS ent
ĠT oken
Ġadvent ure
p ending
uch i
ĠUE FA
Ġan ime
et e
Ġ( {
ĠA uth
Ġcl er
r ant
Ġt iny
ĠL ion
pert urb
Sh are
r n
con figure
ĠGr ace
Ġnot iced
ĠB ird
c aster
ĠWat son
Ġtempor arily
ov al
b ibli
Ġscreen ing
Ġun ions
Array s
row Color
Con v
ĠRog ers
em in
ling ton
ĠPen insula
ĠN AT
-------------------------------- ----------------
G re
Vis itor
Ġinternational ly
Pop up
FORM AT
Ġl in
Ġl ots
Ġobserv ational
b ird
p aces
ĠAb u
ĠFil ter
Ġfl ights
big gl
cknow ledge
ĠG len
Ġhom omorphism
Are Equal
. ")
Ġperson ally
ac ies
ĠVo ivodeship
ĠA round
os er
Valid ate
Christ ian
W at
Ġcross es
Ġfast est
Ġ ib
ad itional
ĠF is
ĠD yn
Ex cel
ĠM uch
B ooks
Ġread ily
ĠHer bert
ĠN A
Ġover whel
Ġpark ing
n od
leg end
ĠL is
Sur face
Ġm ines
ĠSch w
power ed
t ility
Ġlook up
L ists
az i
LA B
Ġâ Ĥ¬
C AR
dir name
ĠAm endment
Ġimplement ing
> `
Ind eed
uck land
Ġsynd rome
Ġbright ness
> {
ĠG onz
ĠAv iation
Ġpower ed
ĠPhilipp ine
initial ize
R ank
ĠInter est
Ġo c
M IT
An chor
ĠC oul
Ġint u
Ġloc ale
Ġto mb
Ġun em
ĠHis panic
value Of
18 57
Ġsubsidi ary
ĠUn less
ĠLu ke
ĠP ent
z ing
Ġ )$
Ġb one
ĠS creen
'' '
Ġentreprene ur
ro at
Ġdual ity
ĠM end
ad ers
Ġattr s
ĠBroad casting
ĠY uk
ing e
ĠC ache
Ġtreat y
Ġbi ography
p riority
ĠAd elaide
os c
Ġappro ached
Ġsynchron ized
ĠH unt
Def unct
W ho
ĠF O
ĠAng lo
Ġexhib ited
Ġsquad ron
Pay load
ĠCh i
aa aa
is se
() [
fig s
ab ases
Ð¾ ÑĢ
ĠH ave
dis c
Ġobject ives
ourn aments
over lay
ĠAr c
Ġ ^{\
4 80
iv ariate
Ġstri king
Ġa qu
vent ory
Ġpop ulated
S at
ĠB R
ĠK rist
Ã§ Ã£o
v v
ĠC M
ind a
Ġdisestabl ished
w aukee
20 8
IN IT
Ġhol omorphic
ok u
Ġassist ed
Ġnom ine
' =>
B razil
_{ {
Ġ[ -
ĠS witch
T ensor
ur ated
leg iate
Ġorig inated
ct rl
Ġrecon structed
ve ill
nold s
I p
ĠC ox
ep ing
Ġto String
d w
ĠSh akespeare
ĠHer z
ann i
Mult iple
ap ps
Ġed itions
) '
osoph ical
T ry
Ġrow span
Ġwealth y
ĠT ru
Ġdecre ased
ri ble
ĠCons ervation
cons ider
E mb
}} +
: -
Pres ident
è ¡
ĠH amb
des criptor
ĠM ort
Ġens uring
ous ing
Ġpat ron
ryst al
Ġman ually
15 2
Ġsculpt ure
Ġrel ate
Ġcou p
append Child
abric ator
gom ery
Ġse eds
subs cription
C ould
v r
Stack Trace
stit u
Ġliter ally
Data Source
Ġcomput ations
Ġim pose
top rule
member NameLink
Sw ed
Ġal liance
sh ots
ask at
ĠDo es
sche me
Ġp our
Ġbas ically
ap est
Ġanom aly
ĠNe il
Ġb le
Âł Âł
ĠMunic ipal
am ar
f m
k ip
s ymmetric
T w
ĠR AF
Z oom
se ed
99 9
W il
ĠT ang
bre aking
ĠThe od
Conf irm
ĠH aving
EX PORT
vers al
Ġrem arks
ĠPr act
Ġs isters
Ġtrigger ed
Ġac res
Back up
E LEMENT
ev ille
pred ict
For ce
ĠC ant
Ġrecall ed
Ġcoff ee
Ġdec oder
Ġprint ing
Ġrecogn ised
e ing
B a
be at
L ondon
Ġsk i
V ariant
{ },
) }^
Ġun w
A ud
asc ade
H ot
ĠCh rome
'] ))
Ġt ou
Ġs le
ç »
ĠSud an
Ġprov inces
ĠL an
13 8
Ġwrest ling
M W
m ot
p referred
pre view
Comp are
Ġstop ping
id y
yg on
Ġgr ave
Ġparamet riz
Ġcurrent s
Ġswitch ing
C s
å Ľ
ĠGal actic
Ġgu idelines
Load ed
Ġer ected
Ch arts
P adding
Ġo mitted
lev ant
scal ebox
Sm ith
ĠResp ond
ĠT as
Ġas ide
Ġt anks
Ġf oo
ĠR ivers
- {\
Ġconcent rated
S in
ĠP si
ĠR ena
Profess ional
Ġsusp ension
Ġm arch
ben ch
.. ."
ac ion
Ġ" +
f lix
ĠGr ade
Sw ift
ĠP ont
g ls
ĠAb bey
ĠMe chan
conv ex
Enc oder
Ġcult ures
C SS
n om
ĠCru z
A thlet
ap ing
External Task
Ġv anish
cos ystem
Me asure
ĠS ET
enc ia
' "
ĠR idge
}_ +
Ġinsert ed
Ġadvant ages
ĠO scar
big gr
Ġcompos itions
ĠD ig
Ġobserv ing
Ġexplos ion
he alth
Ġastr onom
cri ber
Ġ( ).
ert on
Ġint ens
ĠD epend
ĠC ell
Sub ject
T X
ir ts
Ġen compass
size of
cons ist
Ġ/ ><
q q
ot he
Ġass ists
T LS
g al
ish a
ĠWork ers
Ġbroad er
Ġtour ism
Ġsc rap
veill ance
ig roup
) ~\
S afe
Ġ ì
ob e
Ġflex ible
ht bp
or ne
ĠEd ge
eng u
im en
Ġme at
colon eqq
ĠN ormal
In ject
Own Property
] _{
Ġatt ach
umbn ail
ical s
ĠAl t
Ġprotocol s
g ender
ethe less
Ġkw args
ra ise
P ending
Ġt ar
f eld
Ġch apel
ĠÐ ´
S aint
ĠK ay
Ġexcit ing
sp ark
Ġinf antry
// ----------------------------------------------------------------
Ã Ĺ
Ref lection
ĠUn fortunately
ĠAzerbai jan
C MD
ĠM E
ĠD CHECK
Ġ" ./
o ons
ĠS K
Ġsynt hes
form ula
sp i
Ġgr ain
30 4
cho ice
m art
ĠG W
IN DEX
ĉ ĠĠĠĠ
H ig
St ates
Ġreg ulatory
MESS AGE
Ġfun eral
Ġhold er
Comple x
ynchron ous
Ġqu arks
mut ex
isher s
Ġsimpl er
Ġal ien
ĠA ber
ĠU lt
ogn ition
M esh
ĠS ony
Pr iv
styles heets
! =
Ġcent res
Qu estion
à¥ į
V S
Def ine
ĠW i
xim ity
B ill
Ġsh ots
ou x
ĠÐ º
Ġfr act
ĠW onder
Ġqu ote
AR CH
section s
Ġsoci eties
umin ate
ey n
ad apter
Ġ{ })
Ġr itual
Ġpsych ological
20 2
ĠD ennis
Ġconver ge
Ġadvers arial
vis it
Ġap ps
Play ers
ĠL ot
14 7
M ale
Ġposs ibilities
Ġinaug ural
ĠĠĠĠĠĠĠĠĠĠĠĠĠĠĠĠĠĠĠĠĠĠĠĠĠĠĠĠĠĠĠĠ ĠĠĠĠĠĠĠĠĠ
ose x
Ġt ough
ĠS oph
Ġrel ativistic
' (\
tab les
Ġall ies
}] \
ĠD ol
af ka
i q
ĠI celand
Ġsk etch
ĠCh apel
ĠBob by
ĠSh im
ĠMon th
Ġsens ors
spir acy
Ġhigh lights
ind ices
F ort
Ġprov ing
Ġsup ern
ĠAdd itional
="# "
Ġbon us
f ollow
ĠStat istics
moment um
Ex tract
ĠCon struct
Re place
ĠCol lect
Ġt ut
Ġcycl ic
ĠB A
Mer ge
ĠS ierra
ĠAtt ribute
M ary
s ized
Ġre built
K O
Ġn est
ĠB ald
CL I
Ch ina
FLA GS
J an
amp ing
ĠHar old
" ])
Ġw ars
Access or
ĠU TC
G s
ĠS alt
ĠIn stance
ĠZh ang
---- -
Ġdrink ing
18 55
ExternalTask Pojo
r us
Ġ\ :
MA GE
Ġlock ed
Ġexc av
ĠS uz
L ab
Ġgraph ic
18 54
render er
} "/>
Ġconv ey
ĠM orning
ĠAl low
M ur
ĠD im
Ġt ours
C over
ĠP ick
ĠS L
Ġsum s
Ġen zym
Ġfilter ed
Ġmake up
Cent ral
Ġconcent r
Sec onds
ĠBay esian
STR UCT
Ġprepar ing
ĠE sp
App Compat
x l
ot er
ĠSt uart
Ġstructure d
ĠJava Script
act ing
gener ation
26 0
Ġgrad ed
Ġh istogram
"> &#
30 1
Ar r
\\ [
cur ve
Ġmanufact ured
ad os
SD K
big oplus
Ġneg lect
H I
in ating
C AL
Ġf ur
ĠL ex
Ġm k
ess ment
int f
Ġab ilities
For ward
arr ison
Ġquant itative
Ġaccept able
ĠShang hai
ĠM ul
F s
st own
Ġcompet itors
B LOCK
aa a
Ġen velope
Ġext inction
Ang le
Ġs aving
Ġv e
cam era
Ġvolunte ers
Ġexpert ise
Ġ} .
Ġvirt ually
ĠG host
Ġoptim ized
Ġcam eras
Ġsudden ly
R M
Ġtrans mitted
Ġscript s
Ġb is
N U
) ~
m icro
ĠV ert
Ġex clude
Ġvo ices
hab ilit
ĠHe avy
Ġunder graduate
Ġtrad itionally
Ġbre ast
ĠEncycl opedia
Ġdog s
ĠP P
ĠJ ar
Ġanal yst
Ġpal ace
Ġv ibr
Ġatt itude
Ġcont ested
develop er
Ġscatter ed
ĠS ak
): =\
Ġcy ber
amb ers
ĠSe an
ĠSing les
w ik
Ġrat ings
mid t
M X
j ab
Ġback ward
Ġunc lear
Ġfrag ments
up les
Ġ[ {
Fig ures
un s
in z
18 58
Ġattend ance
â ĪĴ
ĠSt ories
Ġbank rupt
SH A
Ġdis crep
ãģ ®
'' .
Ġcommut ative
Amer ica
Ġbut ter
Ġhun ting
Ġartifact s
Reg istration
est yle
) /\
ĠDi ocese
Ġa cknowledge
fil er
hash Code
g ems
ĠG ra
ĠAl ger
av ier
ĠNot es
Ġcommand ed
former ly
at um
ack ing
ĠOt tawa
13 1
Ġreloc ated
D ot
Ġj u
M ad
ens on
Ġship ping
d or
ĠD od
in ced
Ġad mit
mod ified
C tx
T i
Ġintegr ity
ĠR oche
correspond ing
Ġas p
s olution
Ġinter faces
Ġs weet
Ġ"- //
Ġ\\ [
Ġtr ick
post s
Back end
h ind
r x
r ides
Ġref ere
w al
Su ite
ur istic
Ġan onymous
ĠT ed
Ġm oth
Ġconsider ations
Ass ign
ri o
Ġlaw suit
el en
Ġout door
Gr and
XXXX XXXX
Ġwat ched
ĠIm ages
------------ -
ĠArgent ine
c aret
Ġob ey
Ġspec ifies
Ġarg ues
Ġn inth
ĠLeg al
Ġadvoc ate
am ation
[ [
Ġb ay
ĠCo hen
Function s
Ġrecommend ation
v ectors
R outer
n pm
Ġharm on
Ġpl acement
PRO C
Ġoscill ations
Ġtack le
App ly
Ġs overe
ĠS equ
ĠPl atform
Ġdat etime
Rep ublic
stitut ing
ĠM ick
Ġbound ing
Mar shall
Ġover head
ic us
, }
å ¯
ĠP and
cu ador
Ġthr one
Ġshall ow
b an
Ġex terior
Ġsum mit
all ing
Î ¼
ĠM is
="# ">
Ġfoss il
Ġalleg ations
Ġmethod ology
ĠMar x
M AN
J ul
Ġcharacter ization
to LowerCase
lock ed
Ġhomot opy
Con clusion
agon ist
13 7
Ġachiev ement
14 3
ĠFlore nce
work er
] }\
âĢ¦ âĢ¦
Ġfix ture
ĠNash ville
P ref
Res earch
Ġinvest ments
Ġsuperv ised
Ġcomp atibility
Scott ish
m agn
Ð ±
ĠH av
Ġswit ched
Ä ħ
bal ance
Ġdiplom atic
G D
Ġ( );
ch annels
ĠSm art
Ġsus cept
ĠM ig
}$ ;
Ġlearn s
ĠAn cient
Ġbe ating
Warn ings
Ġre write
play ing
Dec oder
Dest ination
}} +\
Ġpredecess or
ĠDe ut
14 6
Def ined
gr av
Rep ly
Part ial
ĠCurrent ly
N ested
Exp and
Debug ger
ĠAr nold
D a
R eq
16 6
ĠNor folk
Ġatmosp heric
Ġj ail
ĠCit iz
ĠCam eron
ĠBudd hist
ĠCollection s
R en
Ġper pet
var pi
g tr
Ġin hib
Ġarr iving
v or
ĠR alph
ĠRead ing
Ġa ster
Ġmem ories
en h
Con tain
St yles
ĠCroat ia
), (
Ġgeodes ic
INST ANCE
ip per
ĠB esides
re verse
Ġland ed
Ġaccommod ate
ĠI o
ĠLat ino
Ġdrum mer
SER VER
ĠV eter
ĠCong o
ĠForm at
Ġdifferent ly
Conn ector
Ġbelong ed
Ġj ets
ph on
Ġed iting
ĠBlo om
look ing
Ġcompr ises
CO UNT
Ġdist ant
uff le
ĠCh a
> ()</
Ġconduct ing
Ġf ert
Ġ Ã©
ĠĠĠĠĠĠĠĠĠĠĠĠĠĠĠĠĠĠĠĠĠĠĠĠĠĠĠĠĠĠĠĠ ĠĠĠĠĠĠĠĠĠĠĠĠĠĠĠĠĠĠĠ
Ġbehavi ors
mark er
ĠVen ice
az ar
ãĥ ¼
ĠS Y
IE W
z ig
c amp
und a
Ġp t
ĠV oice
ĠLe eds
e i
ĠN g
abul ary
Ġsp ell
ĠIm Gui
ph oto
==== =
ĠPeters burg
Ġsimple st
Ġsh a
St d
}} ^{(
Ġchar ter
Ġmar ry
ĠProt ocol
L ittle
r ag
AB ILITY
Ġen emies
i ating
ĠL ov
Al ign
ĠV ent
Ġt issue
ĠC ris
Ġr ated
Ġmaintain s
ĠMax well
sk a
Ġcelebr ation
ĠA aron
c ott
Sc an
Ġs id
NG TH
/ $
ar ms
ace ut
Ġpsych ology
act iv
J im
Q t
Ġs cre
Ġprodu ctions
mark et
Ġro ster
vers ions
G AN
Ġradi i
Th ird
Ġemploy er
Ġdeg rad
Ġb onds
ĠAl lied
Ġimag ine
al ink
Ġpar ity
ĠS oul
ond o
ĠCH ECK
ĠCirc le
/ '
P K
Ġlegisl ature
Ġcounter part
ĠVer ify
ĠT it
ĠK el
}( -
Ġprom ised
\ ":
acef ul
Ġm amm
ĠR PC
Ġhand les
]( #
FT WARE
ĠF ish
Ġlimit ation
; -
ĠB aby
Ġg amma
Sl ice
Ġsust ained
Ġt ape
mod ifier
ĠTransport ation
ĠTh under
decl are
cc entric
ĠĠĠĠĠĠĠĠ čĊ
Fr ance
ĠPalest ine
Vari ables
b org
A mb
Ġgold en
ĠColumb us
d yn
Ġgr adients
ĠSt yle
}, {\
Ġiniti atives
BUIL D
R ock
ĠBut ler
Ġsong writer
Ġd ivers
Ġimprov es
Ġc ad
if rame
TO DO
ĠCon sole
M ex
Ġpo ison
to o
Ġcollect ing
ĠParam eter
PT ION
Ġcoinc ide
quant um
Ġc s
Ġsl aves
ĠPhill ips
e ur
WR ITE
ass o
Ġdegener ate
RE NT
make box
Ġcomp ounds
Ġc f
d imension
ĠMon ey
Ġ/ ></
ĠTrans itional
[ {\
St udio
x sd
Ġg a
di agram
Ġm eth
Ġbl ues
Ġrock s
ibern ate
we ather
vis ual
Ġdescript ions
Vis ibility
ro tt
] _
Un ion
Ġocc urrence
Ġbus y
Ġnucle i
Ġcomp ress
ĠBulg aria
W ater
is ible
Ġrot ating
im er
Status Code
ĠS Ã£o
ĠAgric ulture
Ġkey boards
ĠSo on
M N
Ġt ribut
Ġdraft ed
Ġem peror
as se
G al
ĠL LC
Ġsp iral
ĠA f
az ard
ĠRe ed
ĠDev ice
yst yle
Ġattr actions
Ġw ard
Ġaccompl ished
R o
pay ment
Ġconc urrent
Ġaud iences
faster xml
ĠA uckland
ĠN ak
Ġrev ision
st ellar
ill es
; ]
v p
Ġr iding
renew command
Ġs ugar
th al
sc ene
Ġa xi
Ġinter fer
T ake
p mb
ĠPhil osophy
sche mas
Ġconv inced
ĠG olf
r k
Ġb read
}}\ ,
Ġcyl inder
im plementation
Ġir regular
Ġbo ards
Ġadjust ed
C AC
Ġn inet
NR AS
non atomic
Ġthere after
Ġre forms
Ġcontext s
Ġjud icial
Ġvic inity
text style
ĠK id
13 9
R GB
Ġsub urb
Ġp ill
min ster
ĠA udio
et erm
Ġearthqu ake
Ġhuman ity
ĠP resent
am y
Ġ\ '
intend o
/ #
G F
\\ \
R atio
ĠE val
Ġad option
represent ation
he ne
INS ERT
Ġc ow
Ġexception al
l ap
ifest yle
est imate
Found ation
15 7
ĠB ear
ust ain
ĠDet erm
Austral ia
R F
ĠLe o
Ġexha ust
Leg acy
Ġfor wards
end region
N ER
place holder
ort s
Am ong
Prot otype
c ern
C le
F ri
å ¼
Ġg ent
Ġpract ition
per formance
Ġz ones
S rc
dec oration
> /
Ġrad ar
ĠForm er
Ġre fr
20 4
F RAME
Ġdef ect
Ġform ations
J ud
min imum
sl f
ibl ings
h m
s ender
Ġ( .
en burg
Ġmot ivation
der iv
it ious
15 8
orient ation
ellig ent
ĠK ill
18 56
ĠD ise
Ġl ights
lect ric
ĠArm ed
isb ane
Ġhistor ically
Ġpod cast
Ġincorpor ate
ĠR osen
bal ena
Ġprogram mes
Ġf iring
Ġevolution ary
s elling
Ġoptim ize
Ġinter active
ĠLa ura
bottom rule
' ):
F ast
Ġgen es
window s
ĠWell s
ĠS SL
text area
Ġsub stance
it atively
Ġr hs
Ġalph abet
ĠR us
ĠAdd ed
s il
Ġch ronic
ie u
Å Ļ
Ġsh ops
15 1
Ġbal anced
ĠY a
__ .
Ġval ued
unt ary
th in
V EL
idel ity
Ġdefend ers
ĠL E
Ġob l
ĠC ategory
ut a
is che
C hat
ĠE ld
Ġdistinct ive
ĠBr isbane
Subs cription
or bit
default s
~~ ~
w b
ut o
ĠLi u
ĠArch bishop
Ġsett lers
N OS
ĠÅ ł
ide a
Ġreg istry
ĠTr avel
w at
ros so
ĠG ilbert
P ars
; ,
ĠN y
vel t
Ġexponential ly
Ġcon fess
per mission
OB JECT
Ġdial ect
[] )
Ġcop per
help ers
ĠG ene
ĠAb raham
Ġconjug ate
ec ca
Ġ/ .
as ide
ĠM I
Ġplay off
bibli ograph
ĠÐ ¾
r in
cor relation
22 4
ĠHar vey
Ġtele phone
S un
Ġpres erving
Arch ive
Ġconstruct ing
Ġtour ing
Ġutil ized
Ð ¹
ĠCap itol
al one
Ġc ave
ĠR elease
Ġen rolled
Ġs ake
Ġb ra
ĠB eth
Ġin cent
as ia
Ġtr ap
r age
W ORK
ic as
r ain
Ġ$ -\
ĠRon ald
w oman
Ġcoinc ides
pr us
Ġless ons
ĠInd igenous
at em
sc opy
am ic
Ġsimpl ify
T ables
th reshold
' })
Ġpass phrase
ĠJust in
Ġadvert is
Ġc emetery
Ġwebs ites
mem Item
ĠEr nest
Ġsub t
short cut
ĠTib et
N ever
MS G
s leep
S a
Ġproceed s
ĠRay mond
Ġab bre
Ġce ased
Ġs hed
ĠCal cul
18 52
s al
Ġfre ely
Ġaut onomous
Ġfis cal
Ġsub tract
Film ography
Ġv it
bibliograph ystyle
um m
Ø ³
col ors
Ġenc ryption
Ġdec k
h orn
open ed
Ġfif teen
ĠHug hes
US A
ĠWork ing
al tern
at im
Ġer g
act ics
Ġinter cept
gr pc
Co ins
the se
Ġpart itions
Ġb ull
Ġmod uli
d h
Å Ľ
Ġcyl ind
osp here
Cred entials
Ġsk ew
Ġ( âĢľ
A ust
Ġnucle us
Re ceive
Ġreal ization
40 1
Ġf ram
Ġres erves
Ġ( <
Ġc attle
ĠPl anning
Ġg ymn
ov sky
pr ises
B lob
ĠG ust
ĠCard inals
d an
ĠN N
ĠM ills
Ġind ent
H idden
A ff
On line
ĠHar bor
Ġeval uating
m un
Ġblock ed
Ġdefin ite
Ġcontroll ing
Ġqu bit
d ump
}} -
. ');
ack er
Ġtour ist
AUT H
}$ $
sw ick
Ġb ins
paren cy
Ġconstit ute
ĠSt ef
ĠF ixed
remove Class
abil istic
Ġst ick
ĠCr iminal
Ġfilter ing
Ġrout ing
Ġunsuccess ful
28 0
em b
Ġt ournaments
Ġconf used
H uman
g ui
ĠS oci
over ride
In line
Art icle
ĠS ans
Ġhand ed
Ġrecip ients
Ġhash Code
' ,\
ĠTh ings
Al ignment
Ġcommun icate
or um
loc als
U TE
ĠN ames
:: $
UT C
L F
Ġwrit ings
ĠAt omic
Ġselect ing
Ġle agues
im an
Ġburn ed
ĠN athan
ĠV ict
Pro c
" }
ĠP el
Ġ# #
, </
ĠArch itect
L ang
ĠIda ho
Ġ )\
Ġconduct or
Ġwalk s
b is
ĠG amb
ĠPar alymp
Ġcontin uation
Ġdev ast
ĠProdu ctions
ĠV AR
Ġfoot age
F ROM
ĠHit ler
ĠHen ri
Ġhe m
^* (\
ĠTe acher
Ġf illing
Pol y
Football ers
conf irm
ring tone
zh ou
ĠR T
Ġharm ony
ĠM ail
Ġmyst ery
Ġen abling
Ġins ights
ic ia
Ġd w
Ġintegr ate
Ġast ro
em e
ĠE D
Ġd Ã©
Ġpro jections
ĠSl oven
Ã¼ n
Ġsym plectic
ĠD iamond
Ġdis pers
Ġman ages
Ġem igrants
im edia
D imension
el ing
W C
Ġdet ectors
P N
flu ence
Ġf ighters
pe er
Ġdis band
Ga ussian
Ġr m
ot hes
}, \\
ĠTh ir
necess ary
? )
Ġmoment a
E MP
reg istry
Ġarr ives
Ð¸ ÑĤ
pro port
l iteral
ĠS ic
ĠS askat
14 9
bound ary
ĠFl ag
20 5
Capt ure
Ġillustr ates
Ġmod elling
url ing
Ġobtain s
ess a
ĠEv ents
ĠConfeder ate
Dat aset
Ġpro l
Ġdip ole
Ġcaus al
ad just
Ġl ux
ul ous
Ġsp ont
Ġpres erves
ht b
ĠR uth
Ġ( `
Per formance
Ġdescend ants
ator ies
comm ut
eg en
Ġrig id
Ġb ishops
Ġtw ist
w y
Ġz oom
ĠArmen ian
ĠFil ms
Ġeg gs
B ag
] \\
ĠAn im
Ġas ymmetry
Ġj e
Ġen orm
Un able
ĠB rowser
Ġimport ed
ĠGro ve
ĠEdd ie
itt est
Ġbranch ing
ĠS TR
å į
Ġpre val
Dependency Injection
B ot
Ġtransform s
Ġref in
uet ooth
Ġ ions
g ue
n ell
Ġcorrect ed
ĠRh ode
che m
ĠArt ists
ĠL arge
Ġsee ks
Ġmask s
Ġacknowled ged
miss ing
20 3
Ġel ite
TEXT URE
ff ield
ĠTest s
ĠLiber ty
^ *}
ĠGreg ory
M id
ĠG az
ĠWall ace
ig ue
ĠG O
Ġown s
Ġepoch s
Ġcor poration
Ġm oon
Ġcan n
Ġre bell
ĠP av
br acket
ĠL amb
Ġr c
cal c
Ġun changed
b ay
Ġre un
ĠG ang
ĠQ String
ĠVal ues
bo ys
At l
t ec
Ġav iation
second s
names e
st ead
ĠCub an
Ġdwar f
14 8
f red
ĠNew castle
Ġfarm ing
Ġpredominant ly
ath y
ĠW H
Ġplay wright
Off ice
whe el
Ġad equate
Ġer up
Ġe ccentric
Ġrun ners
ĠByzant ine
ĠMont gomery
R outing
Ġen force
Ġhar ass
Th m
r ust
ĠProtest ant
unc an
ĠB ound
T urn
Ġt oured
S CH
J ack
std err
Ġutil ize
ĠRey nolds
Ġcol ours
Ġcut off
pol ar
Ġ\, .
i ast
Ġex ec
Ġ' ')
Ġrobust ness
Ġrecru it
)$ }
Ġch apters
Ġdesign ation
Equal To
Death s
sh iv
ress es
capt ure
ĠAng lican
L ove
Ġdro ve
g ie
Ġed itors
R ivers
Ã¶ n
Ġsaf ely
Ġg ear
TH E
ĠDis c
` :
Ġhe ll
Oper and
Ġintegr ating
ĠFellow ship
S heet
Ġimm igr
Ġcoll apsed
18 47
]{ ./
ĠC apt
big skip
inter action
ĠA w
ill iant
? }
Ġarchitect ures
Ġhard er
system s
Ġtr ig
ĠSh op
us age
Ġel dest
Fr ont
Ġalleged ly
s burg
ĠS part
Col lege
_{ (\
be k
& +
log ical
Ġ' $
ĠRena issance
Ġen roll
open h
Gener ate
ĠR at
List eners
ĠFour th
| {\
11 11
for ge
ĠR ever
dat as
Ġdiagn osis
Ġm a
Ġ} $
Ġb achelor
ĠObserv atory
ĠWrit ing
Ġcont our
bad ge
18 51
c py
Ġ âĢĻ
ad j
aver age
organ ization
resize box
c ence
ĠIn iti
l uc
Ġc oding
out line
ĠPer iod
15 4
L ee
Ġp ale
Rec ent
Ġinn oc
C ookie
b ur
n io
harm onic
ose velt
aur us
R IGHT
ist le
=" //
lig a
Ġb orough
in ite
CH AN
EN CE
or ate
Ġcl an
ĠB ert
ern els
fil m
Ġattr action
Ġwire less
to kens
Ġcur riculum
ĠClark e
Ġpair ing
vis ibility
Ġ' ../
Ġsh aped
ffff ff
ĠCo ach
Ġexp enses
ad vant
ites pace
ĠA ST
s id
ĠAgain st
Ġunder go
R ad
iv ot
Ġback end
ĠCON FIG
Ġburn ing
Ġpublisher s
St e
H ide
ĠM ik
Ġexpl oring
Ġexhib itions
Ġthr iller
Ġ[ (
Ġopin ions
ĠG alaxy
Ġc inem
back end
}{ -
Rev ision
g b
h art
Ġt et
Ġsear ches
S ender
3 30
Ġwe aker
Ġmat hematic
enc oder
** *
ed e
Ġco res
\ @
Ġdis ks
Get String
ĠWars aw
Ġal i
w ent
Ġhous ed
Ġterror ist
ĠS ey
ĠK ash
att ices
Th reshold
ĠU SE
ipp et
B ay
ĠĠĠĠĠĠĠĠĠĠĠĠĠĠĠĠĠĠĠĠĠĠĠĠĠĠĠĠĠĠĠĠ ĠĠĠĠĠĠĠĠĠĠ
Part s
x t
ĠC ut
Ġhas n
Ġor chestr
subs cribe
ĠR ou
Ġfl ip
ass et
Ġpat ches
Ġcalcul ating
al ter
im i
(" <
ĠP ain
Ġsub graph
c odes
ĠM ade
Ġpat ri
Ġpron ounced
Ġconsequ ently
y t
ĠF BI
ĠLuc as
Ġmiss ile
Ġrefer enced
ĠL oss
Ġaff air
hom ogeneous
x ref
Ġdefend ant
">( </
if ice
Ġtr act
R etry
Ġdr ives
Requ ire
ĠAl pha
Ġem otion
G ateway
Spr ing
Ph abricator
ĠG uild
User name
s By
Ġin ert
Ġinter change
---- ---
ov y
ha o
Sim ilar
Ġsim ulate
ĠPro of
Hen ry
ĠW ald
ĠG ate
ĠPro blem
Ġjo ins
Ġp c
Ġh orn
ple te
ĠCom par
Ġtem plates
Ġf ed
F ake
P ad
Ġapproxim ations
I ts
ĠT odd
pect ives
Ġpoor ly
Ġpr ay
ĠF ighter
E MA
Ġlob by
ĠE N
Ġr ab
Ġrep ublic
H int
Ġcol ored
15 6
ĠE sc
Ġcrick eter
ĠBenn ett
ĠIraq i
input s
ĠSh ir
^{ *}
Ġad s
Allow ed
y u
ĠB ach
ĠM iles
ĠR ules
ĠN u
Ġc ss
ĠB ak
by ter
Ġins pection
Cal cul
Ġexplo it
ĠÃ ģ
An notations
Ġbank ing
Ġcer emon
W D
Ġbi ology
Ġmer ch
] >
Ġsem if
h or
ubern etes
15 3
Ġ(! (
ĠN L
sh ore
ĠAmb assador
ro e
gtr sim
Ġe cosystem
bro ok
Ġc fg
nap shots
col head
Ġtransl ations
H ex
O rient
Ġin complete
LIN K
or ig
s ix
ĠT D
Ġlong itudinal
Ir ish
Ġprevent ed
Ġtrav elled
Ġrul er
ĠC ancer
L ev
Ġsingular ities
ĠSt orage
CC CC
Ġa fore
ĠP ars
Ġachiev ements
ari e
ind ed
Ġ. /
m ixed
om ething
ĠB order
ĠTr ain
ur sion
ĠCh ang
ĠLeon ard
}$ :
get Text
con tr
S to
sh ops
Ġso ap
umb ai
conf irmed
g auge
P rec
Ġqu art
D utch
Ġchalleng ed
5 67
Ġab ortion
ĠCON DITION
Ġsp ins
ĠH im
Ġper ception
Ġoff ense
ĠPh ase
Ġhost ing
Ġscr atch
row se
Ġb undles
sm art
Ġinf ected
Ġb alls
ĠY ellow
design ated
v iol
ac ional
Ġno isy
Ġretri eved
const ants
rais ebox
b ol
Ass ignment
Ġto ll
ho o
be it
Ġbus es
Ġlogarith mic
x e
Ġm ature
reg ex
15 9
Ġh yd
ĠJ in
Act or
Ġto m
pend icular
> ');
ĠR ole
Ġinfer red
ĠP arent
}} ;
( @"
b usiness
Ġcon form
}) }\
D istrict
ĠD rama
uss els
Ġfilm ing
ÑĢ Ð°Ð
Ġb atter
M NRAS
Ġcharacter ize
Ġbr acket
al in
Ġl ung
Ġ ../
18 49
Ġwe aken
Ġreal m
M AC
ĠD h
Ġcivil ians
algorithm ic
Ġcre ator
Ġresear cher
Ġf ires
}} }{\
U int
L ite
Ġre nd
00 3
Com pute
âĢ ī
Ġcompar isons
Ġisol ation
re nd
Ġsign atures
Ñ Ī
ĠIn stitution
Ġaffect ing
pre vent
Ġpars ing
ĠR av
eg ration
ast ed
}} _\
Ġgl uon
Ġflux es
Ġtro ubl
v dash
ĠW ag
C U
class ical
Ġemp ire
Ġs ang
Ġb ubble
Ġmon astery
Ġst olen
ĠK ate
Event Args
ĠWeek ly
ĠG ET
ĠBel arus
Ġm im
Ġinfr ared
Ġor n
ĠSet tings
Ġsuccess ive
~ {\
Ġdro ps
ĠP rest
Comple ted
- $\
Ġe ating
un its
ĠS chema
ull ah
Ġfollow ers
DE P
Tag Name
ĠFa ith
æ ī
Ġred und
em ption
riter ion
Ġwonder ful
Ġdiv orce
ĠIP v
t u
Ġstand ings
Comp anies
ĠH ub
Br anch
}{ $
Sign al
over ed
ĠKaz akh
Ġx si
s chool
ĠS old
Ġhonor ary
itt en
Ġg aps
Dis abled
Ġactiv ated
ĠSO FTWARE
inv oke
Ġmet ropolitan
F oo
ĠG PU
al ong
Ġquarter back
ĠBAS IS
Ġdef ended
vent ions
ĠSp ider
ĠPed ro
Ex ec
Ġalter ed
ĠA V
el ia
ĠTh row
im on
Ġm ilk
Ġh itting
ĠS yl
Ġview ing
ĠE state
0 10
ry s
es ar
ark er
Ġsus pected
; (
Ġsp ir
}) :
Ġsoph istic
f ee
uzz le
sp ired
Ġfall en
ĠPlay ers
st orm
thread s
Ġaggreg ation
Ġtrans mit
ht m
le igh
In c
sur ance
Ġnon trivial
ph al
21 30
ĠN ancy
ext ype
be am
Ġart work
Ġsever ely
m ans
w yn
DB LP
Ġfit ness
m achine
Ġin clusive
TR A
ĠModel s
Ġh ang
ĠScot ia
ĠRevolution ary
B and
}$ ),
ĠGener ation
c g
ĠBit coin
ĠJ ung
ĠF oster
ĠKn ights
Ġwithd rew
oca ust
h it
Ġvol leyball
seud o
ĠManu el
Ġre try
elect ron
] ^{\
Ġt ale
ĠB av
erm ark
á ¹
Ġd ots
F K
f urt
Ġsuperv ision
mod ern
Ġsqu ared
Ġpol es
ĠP icture
sw ap
Ġelev ated
ab we
Ġpers istent
ĠRequ ired
Ġdev iations
Start ing
ĠJo an
ĠCl aim
<? >
G Hz
it ian
18 5
16 7
Sh ift
ĠK as
Co ord
Comm unes
fe at
Ġa thlete
HAND LE
t abl
Ġdistribut e
ĠI de
> -
18 53
Ġconc aten
Be havior
)$ $
Ġbre ath
Ġco at
ĠDiv is
on ing
Ġp ace
ĠD rop
ĠNob el
ĠIs aac
ĠEx cell
AB C
F un
Ġd f
Ġabsor bed
W ild
b os
T reat
ot ypes
Ġult imate
gr and
Ġdis orders
ĠM az
CL U
Ġpoll ution
U r
Ġadministr ator
( ",
ĠC raw
Ġg lyph
Ġsub mission
song writer
Ġh ull
Ð¾Ð ´
dest ination
jav ase
Ġequival ently
um per
Ġapproxim ated
T s
ĠBrun swick
ĠPlan et
L u
ĠÃ Ĺ
Ġident ifies
Ġan ce
ok o
P ub
Ġco arse
Ġpred icate
ĠAir lines
ĠG ent
Ġcontribut es
Ġform ulated
Ġisot ropic
Ġeditor ial
Ġafore mentioned
ĠI L
ĠPro gress
ĠWell ington
ĠStr ateg
Ġl ag
Ġax es
ol ine
Ġbel t
ĠSw ift
ĠHel p
e eq
es a
Ġdraw s
ĠN om
eg al
ĠLeg isl
E u
i ya
il ian
18 46
EN C
ĠIN TO
pot ent
å °
ĠField s
ĠNap ole
m eter
ĠCONDITION S
l ov
sc atter
enti eth
ĠO UT
ack now
Ġvari ational
Represent ation
Ind ia
HO ST
] -->
Ġor al
ĠPaul o
Ġb less
ap a
up iter
Cl ip
Rel ation
Ġbos ons
ex ist
ĠF loat
Perm issions
ĠC lean
i pt
14 1
ps y
tab End
sw er
ĠHop kins
F etch
av atar
ac ements
LE NGTH
found er
Ã ¯
ow der
l ift
." ;
@ {\
ĠAg ent
Ġwarr ant
Ġrot ational
Ġst reak
est one
Ġt uning
Ġquant ization
Ġspecial ist
Ġdi agnostic
ĠMil waukee
ĠH ait
ĠTh ai
ĠCart esian
im iter
d g
sl ot
Ġimplement ations
ĠInter face
a uc
Ġpro ximity
ĠSp encer
n atural
Fil ters
or ters
s it
ĠTr igger
Ġnovel ist
Jose ph
D eb
re ply
ĠAr gs
4 000
ĠM ario
ĠD IS
Ġun e
Ind icator
" </
}} ^\
sh ifts
Ġaddress ing
E nergy
Ġmass less
ond e
S PE
ĠWild life
n h
n othing
ern ess
M ah
Ġremember ed
L ead
Ġpl ates
Ġsubmar ine
ĠUg anda
Ġaccompany ing
Ġo w
us a
el in
ĠIn it
Ġanth rop
ĉ ĠĠĠĠĠĠĠĠĠĠĠ
PA SS
> ("
le ave
control s
Ġsla very
it ars
get Key
F LO
ov ina
ĠM otion
che wan
por ate
hl js
PREF IX
ĠC rit
Ġgard ens
dev elopment
. &
Ñ İ
ĠE ight
Ġillustr ation
w ire
ĠJul ian
à¤ °
Ġsp acing
Ġqual itative
el n
Ġinc umbent
Ġbe et
con tract
let es
}; \
> ';
v t
Ġlik ed
h on
ene ath
P ages
l ived
en ue
H ouse
g as
Ġcon cludes
Ġif f
ĠAn aly
Ġenter prise
cont rolled
ĠPrinc ipal
ĠCred it
C atalog
ĠE M
anc ers
Prim itive
ĠPal mer
Ġn ephe
ĠPhys ical
che l
Meta Data
ĠPr ison
imb abwe
Ġregular ity
Ġturbul ent
ĠB ened
er ie
ĠB io
end o
sin h
Ġresign ation
and ro
Ġcirc ulation
Ġalt itude
p ip
Ġjournal ism
v b
Ġsur f
Ġd imin
ag ation
ĠG em
Ġbas in
ä¸ Ģ
h im
× ª
ch ing
umber land
s ens
ĠV illa
Ġgrad uation
Ġviol ations
Ġd jango
ia z
LE VEL
re b
ĠR ah
ourn ey
Ġphys ic
ĠOak land
ĠD aw
Ġpione er
[ <
Ġfif ty
ĠQu est
CA SE
ac ular
Ġpre t
Ġsup pression
ĠSeb ast
ble ms
Ġattack ing
Ġneg lected
Ġtalk ed
ĠFr anÃ§
Ġped est
ĠEx per
ĠChe ster
Ġsurviv ors
ĠM eta
Ġdirect ive
Ġemphas ize
neut ral
ĠComp etition
14 2
ĠS ig
ĠL ak
c ock
Ġphil anth
Ġrevolution ary
Ġenhance ment
eg an
Ġmem oir
Ġtr ump
Ġ' {
Ġsec ular
ĠPlay Station
ik ing
ĠEn try
ĠEngine ers
ĠCab inet
}{ $\
equ ivalent
Ġdiv isor
Ġturbul ence
ern er
S ens
st mt
Ġadv ances
Ġexceed s
Ġz eros
Ġl ambda
pro per
Ġperturb ative
ĠHol mes
âĶ Ģ
in as
Ġradi ative
ĠPerson al
ĠMathemat ics
Author ization
BY TE
ĠS ang
In clude
Ġcorn ers
In cre
Pro b
Ġcomment ary
Ġlight ing
] }$
Ġsp anning
ĠS ho
ĠA UT
Ġare na
M ASK
Ġpit cher
Ġfail ures
ĠL isa
Ġsomew here
Ġmulti plic
Ġadj oint
Mart in
ĠE cuador
Ġpresent ing
Ġh o
ool s
land o
b eq
}{ !
Ġte a
ĠDis play
ĠR ams
Ġout lined
ott ingham
Ġsem antics
sen al
ĠBe ing
ĠNorth west
b read
oy age
D J
Ġc ookie
ĠTom my
å º
MS earch
Ġconfer ences
im ize
t cp
). $$
ĠCamp us
Ġvolunte er
oxy gen
é ĩ
add y
Ġadd itive
ĠK re
anc o
ĠF ed
Ġapp endix
Ġbatt alion
ĠExt ension
ĠL if
ĠSc ar
Ġcontact s
ĠRo osevelt
Ġpun ishment
Character Offset
(" -
//////////////////////////////// ////////////////////////////////
* .
ĠDec ision
Ġinvestig ating
ĠCon v
h h
ink ing
Check er
Ġfriend ship
Ġdiscuss ing
ber y
ne z
Ġgather ing
ff ects
ari um
lay ers
M il
DE LETE
Ġmed ic
Ag da
pos able
2 12
Ġd ying
Ġpregn ant
ĠC V
Ġadminister ed
C ities
ĠB log
Ġlik es
Ġnick name
FUN CTION
q ed
Ġper pendicular
ÐµÐ½ Ð¸
Ġrem n
) },\
pl ays
Ġfl our
ĠSt ri
Ġar rows
}^{ *
ĠThrough out
ĠAss umption
p od
ĠM ET
Mat ches
Ġver se
j p
alth ough
Ge org
Ġas h
Ġperman ently
ĠR ac
Ġon click
y ellow
æ ł
Ġrep o
LO B
Ġch ip
ĠTas man
$ =
ol ics
Publ ished
S port
ĠS qu
Ġ' </
Ġmand atory
er ious
ar ations
Ġdr ain
ĠMar qu
n r
Ġc hest
File System
Ġround ed
Ġtim ber
Ġhop ed
Ġ utils
Ġst eal
Ġvis itor
dim en
Ġneur ons
Ġcogn itive
in ar
ĠR oot
ĠDev on
Ġf reed
exp ress
Ġbackground s
le arn
ish i
Ġexp ense
b ars
l brace
H o
Ġconnect ivity
ĠEp isode
S oviet
ĠOut standing
I FI
IP S
ĠV II
ĠA LL
m ess
New ton
Ġa uction
nt on
Ġun ve
ĠD ocker
ĠGener ic
Ġp tr
22 2
ĠPrinc eton
L y
C li
Ġdec ent
ĠE ve
Sing les
ser if
govern ment
$ }\
Ġexecut ives
Ġlegit imate
br ack
Dev elopment
N Y
comm ands
atin um
Ġbr ut
G erm
ĠCont ainer
TE GER
cam el
ĠL HC
Ġcan al
Ġc iting
eg ree
og an
erg i
Ġh ills
Ġpri ests
Ġthere in
R P
ĠEag le
1 200
ĠOr iginally
ĠO THER
Ġb ol
Ġpro sper
Ġt ickets
Str ings
ĠVlad imir
ce q
ĠAdvis ory
ism atch
- .
Ġpres cribed
a qu
ĠSecond ary
Ġsal ary
Ġinstitution al
Ġdepict s
iff e
Can ada
ant om
Ġt une
av ian
ell ers
ĠNot able
Ġspe aks
s napshot
Ġb er
Az ure
ĠC inema
Ġbuild s
CON ST
G reat
West ern
Spec ies
Ġinv ariants
ĠM ode
ĠD anny
Ġlog s
Ġfor ty
// !
Dan iel
y aml
abs olute
add EventListener
Ġstart up
M argin
Ġs ailed
ap y
Ġcall er
Ġgrad es
found ed
car bon
Ġp ag
oy le
ĠM ove
pr ising
Ġtri angular
Ġrenormal ization
ĠM ine
serial ize
Ġreg imes
di agonal
Ġsh rink
B g
SU B
ĠK ra
Ġtr apped
ĠPro f
Ġw orn
Ġasymptot ically
Ġj ew
Ġarg v
Ġhom ology
Ġathlet ic
p ure
ĠT EST
Ġflex ibility
T oggle
ere k
Ġaccept s
Ġmob ility
Ġtrav els
Ġab oard
Ġpres ervation
ass er
Ġjust ify
H orizontal
itor ies
( $\
a ude
ific ates
ĠCy prus
ra ction
Ġload er
ibl ical
ĠO m
Ġsc andal
Ġdo zen
Ġspeed s
ent ropy
Th an
Ap is
Ġsubgroup s
ĠR an
ĠL or
ĠUS B
ĠBulg arian
ĠT ong
cos ity
Ġparticip ant
Ġcart oon
ĠS ter
ev t
bor o
Ġbomb ing
26 4
ĠMus ical
ĠTri ple
Ġk ernels
fin ity
ĠStr ong
Ġdisc ount
ĠBey ond
re ports
Ġb ell
sub str
Ġa u
ĠW ikipedia
ĠGab riel
ĠF ul
arch ar
Ġann ex
Ġke V
ĠB ent
fr astructure
ester day
F ictional
oc hem
Ġmus cle
ĠE T
ĠPar ad
Ġsummar ize
ll a
M LE
Ġextra ordinary
ĠR F
' }(
car ousel
Ġloc als
ĠAh med
y ang
oot ing
Ġll vm
ĠĠĠĠ ĉ
Ġl akes
=" <?
ĠDocument ation
r ice
St mt
ell ites
ĠKer ala
g ro
ĠMay be
Ġsymbol ic
ĠRh odes
P TED
ĠSym fony
Ġse q
: /
i ov
p ent
RO W
ĠF iction
emph is
yl um
Ġt elescope
ĠC ec
Ġphot ometric
Ġarbitr arily
cover ed
ancellation Token
we bs
Py thon
Ver b
ec ycle
Ph ot
reate st
Ġth rew
Ġpr ayer
Ġres ist
16 2
ĠTrans action
Ġch at
Ġgovern ance
ib a
ams ung
G uid
Ã µ
Ġbe er
ĠIN T
ĠNAT O
NE W
Ġcounter parts
Ġcompr ising
Ġ(! $
bas is
Ġcomplex es
st ed
N il
Ġb lo
50 1
ph ib
b age
Ġind oor
ĠDes ert
intend ent
Through out
Ġmod est
-> ]
ĠJul ia
except ions
und ers
Ġnorm s
Ġcro ps
ĠFried rich
@{ }}
r ans
ĠW inn
ĠTh ank
custom er
"> Â
Con struction
ing o
adem ark
Ñģ Ðº
u u
Re ceiver
Ġsp y
ĠLink ed
ch arts
ĠCom edy
ular ity
Ġnumber ed
Ġad apter
man uel
AR K
AME TER
B on
m otion
ĠC IA
Ġle ase
Ġrenew ed
Ġl t
but tons
Ġsurpr ised
f v
ĠA ires
ĠRev ival
ant astic
Ġf ame
Ġcapt ion
; =
18 45
Ġ\| _{
Ġin set
Ġrel ates
Ġl y
Ġthink s
ul ators
Ġcompl aint
chi ef
ĠWood s
}} )\
out ube
Ġcons erved
ĠComple te
ĠGrad uate
j obs
Ġany more
Ġprotect ing
C ss
Ex pl
PAR AM
ĠCommunic ation
Ġl as
k le
on er
ĠD ame
ĠVol unte
ĠW E
ĠBro s
S hip
p her
17 7
ĠPr ague
l is
im mer
Ġgr pc
ĠE lection
Ġmem brane
ol in
Ġindex ed
b uck
Ġcollabor ated
re ction
ĠEs sex
Ġmeas urable
}$ &
20 6
ĠBat man
ang ered
yl an
Ġd ump
un al
^{ {\
Ġd ash
ĠC ork
() `
Transport ation
Ġam endment
Ġimp ression
sec ure
M Hz
G reek
Ġmot iv
Ġr ice
ab ol
Ð° Ð»
ath a
ĠW eyl
Head ing
bit coin
Ġund ers
roll ers
ĠN R
ij a
ĠPlan ck
Ġnam ing
ĠBrook s
Ġh int
NOS CRIPT
Ġprefer ences
Ġconvolution al
ĠM old
Ġag enda
Ġextr apol
charg ed
T ARGET
Ġf ulf
Ġr s
re ject
Ġdef erred
Ham ilton
Ġr ally
ĠM T
ĠPer th
Writ ers
ĠR af
Ġb arriers
ĠWe ather
Ġbut tons
> =
ĠR ice
ĠDist inguished
ĠI SO
Cl ause
wall paper
ĠT all
I reland
cos h
Ġan notations
J ournal
K EN
ĠF ramework
av g
ĠInt el
fam ilies
ĠHar per
en i
æĸ ĩ
0 100
ra ils
spec ified
M u
r ceil
): =
ĠAct ress
ĠA my
Ġa est
Ġsh ield
ĠJama ica
Ġb ills
Ġun s
}. $$
E lem
abet es
ĠA G
Ġin ev
Requ irement
ĠR aid
DO CK
p ick
Ġg aining
ING S
Ġpil ots
ĠCov id
ĠGram my
Ġp b
Dis patcher
produ ced
Ġstud ios
z ens
ĠRod rig
Ġprevent ing
H op
ĠSe pt
Ġide als
am med
row ing
Call ed
Ġren owned
e V
ĠO A
ĠPan ama
F W
n x
Request s
Mod ern
v ance
c atalog
Im plementation
Ġdem o
Ġcle ared
Ġinduct ed
ĠLeg ion
Ġcompr ised
Man aged
Ġminim izing
Ġinh ab
] *
ĠO wen
ah u
d ie
erg us
ĠA WS
ov ic
Ġun ified
ĠAng els
ats u
Cre ation
È Ľ
Ġ= &
ess el
I o
ĠS ob
under brace
ĠH ir
Ġlo ans
' }),
MA KE
ĠU ntil
Ġfle w
ĠW inds
Ġv in
c ially
l if
NO TE
Ġsw ap
Ġqual ification
r ise
Ġrem ix
IT H
Ġvol atile
dec ay
Ġany way
ĠTe V
Ġdef ects
Ġdec ode
d istrict
he nd
ĠW alt
ff bb
}) ^{-
Ġback ed
Event Handler
Ġbu ying
MA G
ĠĠĠĠĠĠĠĠĠĠĠĠĠĠĠĠĠĠĠĠĠĠĠĠĠĠĠĠĠĠĠĠ ĠĠĠĠĠĠĠĠĠĠĠĠ
ĠJ ak
play back
Ġcon spiracy
ĠS urre
ĠOt to
i ab
Cho ice
ĠCh an
Ġag gressive
ĠHer ald
Ġneutr inos
ocom plete
ĠTun is
Ġshould n
ĠPet e
Ġathlet ics
H it
ed o
Typ ed
Browser Detector
cur r
r ab
ĠSw an
ĠD j
18 12
L ONG
Default s
al go
Ġtrans ient
ĠBaron et
li um
an imate
ĠD ATA
^* ,
}. $
openh agen
n ai
}\ )
ard i
comp iled
ĠPark s
ĠB ears
% ),
ĠĠĠĠĠĠĠĠĠĠĠĠĠĠ Ċ
5 50
ĠH ur
ĠGener ate
ct l
ĠPear l
ĠS ER
Ġaffili ate
Ġin ad
MA IN
[ ];
on aut
acknow led
00 4
Log ging
s ass
ploy ee
Trans l
ok ia
Code Attribute
Ġprest igious
Tax onomy
Ġt orsion
ĠTrans form
st retch
Ġcomm enced
Col umb
U Int
t lement
24 5
Ġad missible
utr ition
ext ended
em bourg
19 3
Ġamb assador
e igen
Ġres umed
Ġh ierarchical
int rodu
ch air
Ġpl enty
18 37
sc apes
Ġsport ing
Ù Ĭ
Ġstr at
date picker
r brace
17 2
ĠMig uel
Ġfactor ization
ĠS ou
Ġhyp ers
C AP
C odes
ĠO w
with in
S ys
Ġreason ably
F red
ag le
W ashington
Ġpian ist
g art
icy cle
Ġterror ism
T ick
Ġnation wide
C y
Ġd ock
Ġrac ism
ink s
ĠZ ero
Ġindu ce
ç ½
ion ic
ĠM umbai
Ġst ret
à ¹
ter min
> )</
)$ )
ĠGrand e
u ator
Ġsett le
f u
ĠCon tract
ĠMethod ist
heim er
Ġlink ing
Equ ation
Ġ" ")
Ġfaith ful
Ġdiscipl ine
Ġl un
Ġexpl aining
AP PL
k now
E t
Comp any
Pol it
Ġdepart ed
Ġrefer endum
mes h
Ġrespons ibilities
Collect or
n ick
Ġqu bits
g ement
Ġsure ly
v ation
Ġt ent
Add ed
Ġaccording ly
Ġdemand ed
ĠR L
ĠSh in
pre tty
Ġcop ied
ĠF R
Â »
ĠK err
Ġball ot
S on
Ġb lob
ĠE ffect
Ġdi et
ĠArm strong
NotFound Exception
ĠL akes
Î º
Ġcap ac
ĠEnter prise
Ġz ip
S cheduler
Ġd inner
Ġprec ip
ĠS ullivan
Pro blem
Ġslow er
ĠInvest ment
ĠK or
Ġup dating
ĠEvent ually
Ġdef ender
d id
ib us
Ġret reat
\" {
l ists
W W
Ġph osph
Ġt il
qu ick
Ġnom inal
z c
ĠM ull
us b
Ġsh ar
Ġm i
Ġr ape
Ġ- &
Ġwarn ings
Ġp unct
---- --
Ġdemonstr ation
ĠG and
Ġneighborhood s
ĠSac ram
Ġpl aint
Ġgr ateful
($ _
Ġmolec ule
Ġtri angles
id ually
min or
Im mutable
Ag ain
f ollowing
Ġwar fare
Ġnational ly
Input s
K A
Ġh alt
rot ation
Ġant ib
if s
ĠL ac
Ġby pass
tr ation
Ġun anim
ĠWil helm
ĠMer it
ĠF lying
Ġdeterm inant
ĠC MB
) )$,
ill on
prot oc
Lou is
Ä Ľ
ĠCre ative
all a
Ġimm une
="../../../../../../ ../../
oupl ed
Ġcount ed
H aving
n ut
Ġle ak
g gle
ĠP om
Ġle ver
16 3
dec om
=" ./
Ġveter ans
Ġt ier
oc ene
ĉĉĉĉĉĉĉĉ ĉĉĉĉ
ĠHe ights
Ġcatalog ue
ĠHamb urg
ĠQu estion
reg ation
lev ard
Ġavoid ed
ĠD uncan
get Property
n as
ĠJac ques
ers hire
ric ia
Ġid s
er i
ĠR ut
Ġwe igh
ast ics
ĠLet ter
l ane
ĠD ialog
Ġen larg
Ġam id
phys ics
Ã© g
Ġkid n
Ñ Ħ
Ġpack ets
Red irect
ĠAp ost
weight ed
Ġp ounds
ĠL ok
l os
ĠB irth
u ant
ĠA bs
ad ier
Ġconf ined
Ġc ant
tem plates
B in
O O
pre ced
Appe arance
_{ |
ĠSy ntax
M icro
iz ar
ath i
Any Ref
V ir
m and
R D
V V
ĠBi ography
Ġtoler ance
ĠN umer
k el
og o
P et
he ng
ĠCon cert
Un its
Ġmill is
18 20
ĠDis covery
Ġque en
ist on
ĠV ern
ific ant
Vert ical
xi ety
se ek
With in
18 44
n at
ĠArch ae
Ġcon ce
Ġdo ctrine
Ġspread ing
mod es
Ġkil ometers
integ ration
Ġch ore
ĠWest minster
Ġb rew
ĠP anel
arri or
ĠI BM
Ġexperiment ally
ĠGl ass
elect ric
Ġgu ards
the ore
}\, ,
ĠBos nia
Ġh i
Ġdisestabl ishments
ĠS weet
Ġmot ions
P ACK
anc ies
US Y
ol y
V IEW
21 4
ĠCl uster
Ġair line
Con figure
LE N
Ġconsult ant
r ison
Ġc umulative
{ |\
ĠInnov ation
Ġs ock
ĠChar acter
ĠH alf
ĠP ub
ĠX X
ĠFig s
Ġmulti plicity
L U
16 4
Ġcho ir
- }
Produ cer
ĠVis it
0 200
ĠA ges
ve ction
i ago
o ct
Ġinstit ute
N s
ĠM enu
Ġ" (
ĠInitial ly
Ġhon ored
Ġ$\ |\
)} =\
cor r
m itting
ĠT at
Ġdown stream
COMM AND
R ugby
Ġdel ays
× Ķ
ce ased
ĠK umar
ACCE PTED
Ġarchae ological
å Į
ĠShe ffield
Ġcomplet eness
ĠTem plate
Ġfavour ite
el ong
ĠB ec
Ġacc red
Ġrec ursive
Ġcomb ines
Ġschedul ing
se ver
Ġtw isted
Ġcl othes
20 9
get Time
Ġenorm ous
D ER
to k
__ _
ĠJenn ifer
LA S
ĠS NR
Ġsur veillance
ĠGr iff
Ġcal ibr
Ġlegend ary
d ynamics
ĠH ass
n ational
ĠL iv
ĠN intendo
Ġla ugh
Ġrel atives
Ġcitizens hip
g mail
Ġrev ival
ref ox
By Name
Ġ.. .,
qu o
le ad
ÅĤ aw
Pl us
Ġcapt ures
23 5
IS O
c ia
L es
m itt
pl ots
Write Line
ĠO ber
ah a
ĠEn able
ĠRichard son
b ower
Ġrele asing
ow ards
ev o
16 1
ri ans
ĠBut ton
Ġut ter
k al
Ġadv isor
ĠKe ep
R eb
ĠN ine
im ag
ĠTest ament
OD Y
ĠIn surance
Ġte ch
}) ^{\
Ġcorpor ations
ĠDur ham
Ġautom ated
c url
Ġf ate
ĠStr uct
ĠPat tern
fail ure
G H
ĠBu enos
Ġstrugg ling
Ġland mark
Ġcomb inator
æ Ŀ
ĠK in
You ng
ĠCon structor
Ġcov ariant
ĠDet ails
Ġthermod ynamic
! ,
ĠCom pute
Ġhop ing
log ue
Ext ended
Ġep ic
E ducational
ĠG or
ĠMot ors
are l
ĠEll is
op r
Ġarchitect s
? ,
be havior
Ġpr ince
ĠGe off
ck er
log ic
W P
ne apolis
ĠSpe aker
ĠD ifferent
Ġimprison ed
Ġtr aff
ĠSet ting
> ";
ĠSalv ador
Error Code
Ġd ancing
Ġam end
I CT
Ġj oy
Ġdebut s
ĠViet namese
Ġev olve
Ġte eth
Public ations
ĠMarc us
Ġrevers ed
g ary
L ag
Ġco herence
Ġs el
Ġe u
Organ ization
Over lay
ĠV e
ĠV il
Ġin version
it ic
Ġem itted
Ġflow er
Ġh ate
Ch ief
Phys ical
df s
F ollow
Ġment ions
+ }
ac ian
Ġserial ized
Ġpair wise
Ġc ele
Ġy ard
Ġant is
ĠRe id
ĠP owell
rows ers
nav Bar
tes y
ĠEm ma
le ys
ore n
{ #
Ch apter
) _\
c ue
Ġdis ability
flow s
Ġseem ingly
] ];
Ġkey word
ple t
Ar c
H OL
de ploy
Ġwalk ed
ĠA F
x ym
ĠDirect ors
DI RECT
ĠPol l
Ġcomfort able
)\ |_{
sm ith
rid or
ĠAcadem ic
ĠCh oice
Ġdiff e
ĠS ql
ĠNO TE
Ġqu it
Ġp ec
un credited
Ġhand lers
track s
ĠKr ish
ĠTrans it
F at
andid ates
Ġwarn ed
ĠD y
ĠCond ition
Ġfound ers
Ġeth n
om ar
17 8
Ġv ault
IT ER
Ġgu ided
Ġcapt uring
ĠR out
ID ENT
She ll
Ġcul min
A ge
K h
Ġs iblings
ec a
18 41
i ary
} ],
ĠS ample
work ing
ĠSom erset
ĠLead ership
m ile
ĠCroat ian
O l
ĠSaskat chewan
is Array
ret val
UM ENT
F IN
Cap acity
oss ible
getElement sBy
Ġsent iment
Ġpsy chiat
FO RE
ĠW R
Ġs ig
ĠBer ry
um ably
v ariant
an mar
ĠD in
ĠPos ition
D ark
T ITLE
Ġreleg ated
Â ·
olec ular
ĠCard inal
hook rightarrow
Ġli ability
Ġcollect or
copy right
Ġp ad
Art ifact
ĠL ocation
Ġan ch
Ġun con
analy tics
AA AA
S IGN
ig i
Ġv ortex
urch ase
Ġexp ans
ĠMal ay
A W
t ick
ol lo
ĠS of
ĠMed ic
Ġgr ab
Cl osed
Ġmidfield er
j j
B ank
18 7
ĠZ end
Ø ¨
pers istence
Ġbe ars
add on
rest ore
habilit ation
Ġlist ings
Ġblock ing
int ent
Ġtest imony
Des cript
Ġcur ved
ĠS uff
Inst ances
string ify
Ġdiss olved
Ġfavor able
Ġimprison ment
Ġsophistic ated
Rel ations
ji ang
Ġ ))
= </
ĠStock holm
Ġestim ating
Ġt u
Ġcor rupt
p ared
ampl er
Man ifest
aw i
can onical
Ġsol ver
ĠTy ler
screens aver
J ean
Ġw ond
D ash
Ġad mission
En code
ĠS ect
ent ities
ĠC B
f itting
mys ql
Ġp ap
Link s
spe aking
Ġw ishes
Ġsi ege
byter ian
Ġtermin ology
ed uc
ĠL it
20 7
ĠV M
ans wer
Reg ex
sat z
Ġrain fall
Ġab ort
ENT ER
ĠD NS
Ġsl opes
inner HTML
Ġconf ident
ĠFI LE
ap prop
ĠGen eva
Ġcust ody
oc y
enn ium
ĠIndones ian
z el
D U
ĠDav ies
ib an
al gebras
Ġlift ed
Ġh urt
Ġbar rel
ĠG y
che z
Ġout going
ĠSus sex
ĠLegisl ature
en es
ĠP ul
op p
ĉĉĉĉĉ Ċ
h ub
sh i
Ġshel ter
ĠCont roller
ĠNet flix
ĠV ers
Swed ish
cipl inary
m pi
Ġdesign ers
ol ith
ĠF P
}} /
ĠS erv
Ġmist ake
Ġdam ages
ĠF olk
Ġsp at
Ġret ro
F all
ch rom
R oad
}) }{
ĠDE BUG
Byte Array
art a
18 39
Ġneighbour ing
ĠTreas ury
m orph
or ious
Thread ing
LI B
r p
so lete
ĠAz ure
C NN
Ġsub tle
s ock
mon itor
Ġt idal
UN K
ĠN urs
ĠU nd
ĠCr us
ĠGard ens
****** /
stan bul
Ġanomal ous
) ?
Ġle tting
add itional
Ġpick s
ĠVAL UES
Ġrecon struct
Ġstrong est
Ġacadem y
J on
Ġs or
I BU
Ġbe aring
ĠN as
P en
ĠCamb od
pl ant
ĠPh arm
Y S
Ġun lock
^* _{
P acific
Te X
Ġwitness es
c C
Ġeng aging
Dis cussion
æ İ
ĠCoul omb
6 50
ĠG ren
ĠHe aven
Ġpol ling
Ġmod ulation
Z ip
Ġto ggle
Ġon set
ĠF lem
ĠThe ore
ï ¿
Ġinv ented
Ġevent ual
Ġche ss
ĠKenn eth
q t
Ġp index
Att empt
ĠPo etry
Q A
oper ating
PO INT
Ġr he
ĠAb original
Î ³
Ġk nee
ari us
kin son
ĠCour se
ĠI MP
des cr
z ed
inter est
Ġde alt
Ġcirc uits
Ġancest or
aff e
Stud ent
Ġs its
ĠFr anz
Ġmark ing
max imum
Custom er
ĠH ousing
Ġuniqu eness
Ġt rem
17 3
Ġs creens
aw k
18 38
h ydro
am as
Initial ize
G UI
Ġtreat ments
ĠYugosl avia
navBar Cell
Is Null
ĠMc Donald
ĠAssoci ated
). $
any on
Sp in
R out
ĠL ar
sup ers
Ġsuggest ions
Ġre written
}= -
Ġvocal ist
K B
Ġs ung
Ġgl ac
ĠF at
). \
rosso ver
ĠMan it
ĠPun jab
c A
Ġres iding
Not ify
Mod ules
Ġtermin us
Th ough
ĠS tra
T ON
then Return
ĠN P
Ġterm inated
MPL ATE
Ġstri kes
Ġgram mar
Cl one
H ouses
m icrosoft
Ġ= ================================================================
Ġtrav elling
! âĢĿ
y arn
Ġdemand ing
all ed
18 2
C lock
ĠC ann
ĠH arm
ĠP rec
Ġatt achment
Rem ark
pars ed
Ġsimilar ities
dd ot
other wise
Ap pro
G W
ĠL ipschitz
18 42
verb atim
' ^
)) =
Ġw ore
ĠM ob
le man
Ġcomp ressed
Ġcasual ties
ĠH us
ĠK arn
ĠSt ack
â Ĩ
Ġf o
ĠCon sumer
Ġcor ps
ĠĠĠĠĠĠĠĠĠĠĠĠĠĠĠĠĠĠĠĠĠĠĠĠĠĠĠĠĠĠĠĠ ĠĠĠĠĠĠĠĠĠĠĠĠĠĠĠĠĠĠĠĠĠĠĠ
co eff
parent s
} --
Î ¯
( []
ne ed
Ġw eren
equ ilibrium
ĠESP N
P a
the ir
23 4
root Scope
Ġcontain ers
SU PP
Ġfar ms
+ {\
Ġun incorporated
ĠSl av
ĠProgram me
ĠD oll
ĠG ol
Alloc ator
Ġtri ps
Ġwild life
Ġdisappe ared
ĠIndian apolis
U kr
Fil ename
plic ial
cell s
Ġaddition ally
Ġrecru ited
ash ire
View s
ĠEm ily
$ ^{\
T OP
ID s
Ġ} ));
A verage
Ġenc rypted
e o
Ġr ays
ep per
anc a
ĠAbd ul
Ġpush ing
B attle
ĠA ub
ĠCol in
Serial izable
ĠCall ed
ipher al
ĠC openhagen
UP DATE
list en
Ġadv ised
Ġdat abases
Link ed
ing ing
ici ary
ĠS IL
ĠCa uchy
Ġbreed ing
Ġin ches
}}{ (
{ }{
pl aced
} `
has OwnProperty
ĠRol ling
Ġtor ped
Ġconstitu encies
ĠMaur ice
I LED
ĠC yr
ĠR GB
Suppress Warnings
im ization
ĠEd mund
Inv oke
L iber
ĠT ampa
Pr incipal
un ivers
)) ^
17 4
Comm ands
Ġpredict ive
Ġn ut
Ġt enth
product s
Ġdes irable
W ay
cl ipse
Q R
Ġl ifestyle
St an
eg ovina
L V
Ġpl ugins
ĠSim pson
Ġfix ing
Ġem otions
Ġ è
Ġa fr
Ġbrig ade
associ ated
00 7
cap acity
Ġp ension
ĠTh anks
Max imum
ĠV ision
integ ral
×Ļ ×
N atural
Ġins ufficient
ĠFranc o
W ARNING
[ _
ĠR ather
ĠMor occo
Ġbenef icial
Con clusions
ĠD ob
ĠLay out
N EL
le z
ĠGlob e
ĠD S
PROP ERT
Ġb ootstrap
math rel
Ġinter ven
Ġkit chen
ĠA pi
ĠClass ical
Ġvict ories
18 32
B ern
t ier
numer ic
port folio
Ġport al
Ġtrunc ated
ĠIniti ative
ĠPl ate
pe st
ĠN ortheast
l v
Ġevery body
Ġdram atically
ĠInst agram
ĠA part
ĠH ale
omet own
Ġincorpor ating
ĠStart ing
GEN ER
ĠCOL SPAN
Ġ" --
j ournal
ĠDirect ory
Ġstreng ths
Ġpurs ued
ĠDomin ican
W ire
K im
al bum
xym atrix
prob ability
ĠTh an
ĠAppe als
Ġa pt
Ġcomp ly
-> {
Ġse aled
18 36
Ġwid ow
S and
Ġext inct
field set
SE C
ĠSet up
Ġemploy ers
inter faces
Ġconcept ual
ast ore
sy ntax
F ee
al an
k ill
ict ions
Ġsuccess ion
}$ ~
n or
L ess
j in
Ġt aste
ob ar
38 4
CD ATA
p ark
æ ³
un ting
ĠCatalog ue
Ġfore ver
ab is
ĠAn a
36 5
Ġp ic
( <
ĠImp act
2 15
us hes
ĠB ug
ĠE S
Con struct
ĠL ik
Ġdec oding
Ġingred ients
), \\
Ġbr illiant
Ġgu itars
DO WN
ĠMet al
ich let
Ġ} (
Ġcommun ist
ĠLine ar
Ġpropag ator
ĠP orter
Ġpre vention
Ġcongress ional
Ġb ipart
Ġinter rupt
ĠR achel
ass umption
Ġan ger
ĠO g
ĠHol ocaust
Ġbacter ia
ĠB od
) ";
ĠIn spector
ĠSch r
Ġinf ect
Ġr h
< >(
eff ects
ĠPop ulation
ĠP ir
ct uary
ĠCle arly
2 32
char set
rec v
in ely
ĠCons ult
Ġtow ers
p oll
ar u
oc cup
=\ ,
Iss ue
Ġcap ita
Ġencour aging
) ',
print StackTrace
Ġprof its
Ġlo ose
W ords
h w
Ġplan ar
Ġrob ots
Ġprison er
it he
/ %
Ġbur den
So ft
x f
ag ic
ell ation
sup set
Ġinject ive
ĠN uclear
S amples
aj i
ext ends
: **
nt hetic
Ġdiagn osed
ĠBr ussels
ĠH i
Ġob s
ĠS FR
Ġdoll ar
Ġcons erv
18 35
} ',
m ud
Ġt ick
ĠP ink
ĠRe ich
Ġfor um
Ġdiv or
d ummy
sh ake
Ind ividual
Ġdig its
} '$
16 00
Ġbr ackets
ĠFif th
Ġr ifle
Ġe V
ĠK ids
Ġr ic
Ġassign ments
Ġtrail er
m ne
ĠShort ly
al ways
ag ain
Ġdissip ation
W ang
le ston
ĠGu ards
ĠInd ies
Ġshould er
ĠR ele
ap or
Ġp unk
ĠRes et
IC K
period ic
St and
Ġvo iced
as ive
Linear Layout
y led
T a
Sub mit
Ġcomed ian
aged y
ĠT aking
Ġl oves
ĠMal ta
in ia
Ġl azy
! \!
r ases
ĠCh ase
Ad ministr
Ġbox ing
19 1
ĠN ottingham
Ġex empl
class v
Ġmain land
Ġjust ified
s uggest
ĠIn cre
Ġs sl
be hav
x c
{ }\
Ġclass room
ĠOther s
Ú ©
Ġn od
Ġdes per
Ġaut obi
Ġindic ation
Ġtaxpay er
Perm alink
es p
Ġmaxim ize
Fr ag
ĠS ul
Me V
ae us
Ġreli ability
ĠC rist
ĠBry an
V an
ĠZ imbabwe
atern ity
feed back
Ġsp ite
Ġrom ance
IBU TE
un ate
ĠHe at
Ġimportant ly
ĠPsych ology
á ¸
var iance
)- (
Ġpregn ancy
L iter
al most
Icon Success
u pe
ig g
ĠC ome
ĠĠĠĠĠĠĠĠĠĠĠĠĠĠĠĠĠĠĠĠĠĠĠĠĠĠĠĠĠĠĠĠ ĠĠĠĠĠĠĠĠĠĠĠĠĠ
er als
ism iss
Key word
Ġcare ers
XML Schema
pp ing
Ġs ubl
ĠE c
prov ided
ups ilon
n st
Un incorporated
S ar
Play ing
V T
Ġam ended
Ġhom eless
Ġf unny
ĠM R
Pop ulation
Ġgenu ine
ĠAndrew s
ĠEmer gency
ĠMan ila
iling ual
m ine
ĠH yper
Sup plier
append ix
fl ash
Ġtechn ological
Ġb eneath
Ġwork shop
Ġdevelop s
{- }
Ġpass ive
S us
um ble
ĠB elf
Ġrock et
BE GIN
con sum
Ġab olished
ĠIs le
b eck
Ġw age
we ets
ĠGib son
, [
Ġc ube
ĠCorn ell
ĠG B
Ġtransport ed
Ġmetall ic
ors ed
or p
ch apter
Ġpurs uit
am oto
amb a
Ġcolon ies
ex c
Ar thur
Dem ocratic
Ġle pt
b road
Ġd ish
man aged
ĠR M
Ġperform ers
Ġpl ural
B rien
Ġdisband ed
G od
Or d
ĠInt roduction
ĠEngine er
E mitter
on so
un til
Ġinvert ible
P rem
oper ations
Ġmer ging
Ġsculpt ures
ĠIss ue
in el
set Value
Ġend points
Ġvis cosity
am ous
Ġ\\ \
Ġspec ifying
av o
Ġprom ises
ĠP E
ĠV ery
i ator
ĠNiger ian
get Current
Ġoblig ations
ĠCor p
in tr
Ġsome how
ight ed
Trans former
Ġbul let
ĠT iger
Ġc avalry
ter bury
auth ors
Com posite
Ġhum or
ov i
ours es
Ġmur ders
ï¿ ½
Ġfl ank
ap plications
ĠLou ise
Ġsub stitution
u ced
el ist
Ġless er
ĠF ut
Ġanalyz ing
}} </
Ġdomin ate
Ġbeat en
ĠR ush
Ġaccept ing
Read Only
ad h
Ðµ Ð»
)$ ;
Ġmagn itudes
at ta
Ġauthor ization
ĠG ir
air y
es se
ĠM ead
ĠInd ividual
Ġv ig
Ġse ized
ĠRec on
ab ar
co res
APPL ICATION
="../ ..
Ġroll ing
ĠR ect
Ġis set
Ġnew er
Ġnephe w
s and
ordin ator
Ġtheat rical
ĠT err
ch anging
Ġcan on
ribut or
Ġsem igroup
ĠH urricane
sp ons
Ġrele vance
Ġpoly mer
ĠWy oming
Abs olute
aus ed
ĠCath olics
ĠPak istani
Ġgeneral ize
] <
ĠS ales
print s
CON NECT
IconSuccess Encoded
18 43
Ġconv iction
Ð½ Ñĭ
c rop
Ġspl its
ĠF eder
ys on
std lib
H K
ĠTr uth
| ,
Ġevery day
ĠC elebr
ĠLe ic
w ald
Ġlect ures
ĠA ur
Ġmin us
ĠPl us
std out
Ġrect angular
ĠEx ped
contin uous
ĠH aven
Ġel imination
sl ug
Ġviol ated
Ġhar vest
ĠLithuan ia
U INT
r ors
ĠGi ov
PAR AMETER
ç ±
Ġst er
log y
Ġdimension less
ĠLuther an
Ġprem ises
mont on
ĠYank ees
ĠM W
IF Y
Ġm p
Ġsp ans
ĠCont act
ĠEx hibition
rest rial
unc her
act ivate
ur face
Ġcontr action
Ġhard ly
ĠPublic ations
m h
Ġpra ise
ĠHind i
-- ;
bo at
17 1
40 3
Ġcon qu
ĠTw enty
ĠS ons
Loc ator
Ġb ats
ur ious
ĠSher iff
ĠCy cl
ĠS ometimes
TR ACE
Ġnormal ize
ĠCa uc
ĠR C
Ġprompt ed
Ġcomplement ary
Ġassemb led
Ġconvers ations
Ġincred ible
ä ¿
Ġst uck
ĠJer emy
ĠP T
Ġpres idency
M arg
l iter
ĠW end
: @
ud o
Ġmod ulo
Ġpit ched
lo ose
dot ted
load s
R oom
e ah
Int o
ĠLes lie
Il legal
Image View
ĠUr ugu
ST AR
Ġrenew able
nd ez
ew ard
User Agent
- )
18 9
Ġw are
Ġdesign ing
ĠP sy
Ġstat istic
ĠCel tic
Ġn ic
ram id
Ġiter ative
Draw able
Ġunem ployment
. }}
N orthern
Ġmin eral
Ġtre as
Ġemer ge
"> #
IT S
enz ie
ĠA ch
ĠP ac
ĠQ t
ĠLore n
get Default
ĠRiemann ian
Ġleg ally
constr aints
S printf
sp arse
Ġdest ruct
I ce
æ į
communic ations
st en
ĠDev il
ĠM emphis
Ð¾Ð ¼
Ġanticip ated
i w
Ġprohib ited
ing ers
Ġtra its
Ġinvest ed
V oid
c ool
Ch ris
Ġop am
ĠAs ync
Ġdraw ings
Ġbe ings
ĠAb b
ĠK lein
Ġk iller
J O
ĠJohann es
Ar row
AC C
Pol ish
Ġbur ial
CLI ENT
th us
ĠD ale
28 8
comp atible
" +
* (
ĠInt egr
s ensitive
ĠF ergus
ĠDemocr acy
Ġemer gence
Ġ iv
30 3
Ġshut down
Ġdrop ping
chiev ement
ĠH R
Map s
ĠC lement
spect rum
if fin
ĠK urt
ĠSaf ari
c ats
ĠCoal ition
un used
d ens
Rect angle
ĠDivis iÃ³n
Ġsac red
Ġbroadcast s
ĠCorn wall
ĠBudd h
Ġp ink
ash ing
Ġemploy ing
Ġpredict s
å ĩ
Ġelabor ate
As ian
n ership
ĠForm ation
Ġre bounds
ys ide
H y
Ġn m
Ġreg ret
L os
A IN
Ġg fx
ĠAn imation
Ġmet aph
Ġdis advant
Ġindiv idually
Ġlab elled
Ġspac ecraft
Ġl ig
ĠHerz egovina
l ceil
ĠSant iago
Ġk pc
request s
ĠW arriors
Ġk ills
che ss
Ġtend ency
Ġsur pass
Par cel
ĠM Ã©
ĠI v
ĠD as
ĠK ind
block quote
Ġprop ri
Ġwithdraw al
* >
D u
ins ki
Ġf Ã¼r
asc ular
ĠStat ement
C riteria
FE ATURE
v ary
Ġdet erior
Ġfl ush
depend ence
ĠRub y
Ġv ow
B re
Con serv
æĺ ¯
ĠBl ake
ĠGL enum
ĠPop ular
ĠT anz
Ġtre ating
Ġstrugg led
Ġin struct
Ġh ind
N ear
17 9
Ġtouchdown s
A CTION
col m
Ass oci
ĠValue Error
ON LY
Ġprev ents
less ly
F ellow
ro us
am ine
Ġr ises
Ġtem ples
Ġflo oding
3 25
ĠJ unction
Type Name
Ġsat ellites
Art icles
Ġterr ain
unt u
v d
zh ang
Ġt iles
Ġd ocker
ĠS hen
ĠAr ctic
Ã¤ r
Pred icate
ĠB orel
Ġat tain
Ġnovel ists
ĠChel sea
an ions
Ġinfin itely
Ġretri eval
Ġcon fin
The ir
30 2
Ġcarri ers
S ink
Ġn ose
B rown
L if
\% ,
18 4
r adi
Ġb out
verb ose
for um
Ġw ound
ĠDr ug
A WS
ĠHe ath
sup ports
ĠG Ã¶
Ġk ings
Ġfe ud
re li
ĠM BA
ĠR ES
os ure
(" ")]
ĠMont en
Ġd ign
ĠT ypes
ĠBrad ley
co ins
ĠMar shal
ex istence
ron es
call s
valid ator
Ġd ancer
âĢĿ )
3 40
s ided
n ucle
h int
Ġmorph isms
et ed
ĠT E
Ġstep ped
. ][]{
V ictor
ĠDom ain
ĠHe in
for th
ĠOr lando
ĠArmen ia
im uth
ST RE
ĠMin neapolis
Orient ation
ĠBou levard
ĠK aren
Ġsp ark
Ġiter ate
+ -
ĠH off
document ation
Ġl on
Ġret iring
7 68
Ġh ab
au f
4 20
ab ic
am on
let ing
Ġsculpt or
Cre ator
Ġr amp
AS C
TER N
p it
ĠE g
let te
Ġm oll
ĠH ey
en za
Ġoutper forms
re ng
Ġ$ ^
Ġdec imal
Ġmyth ology
E ll
Ġoverwhel ming
P ak
c in
ĠR as
Ġprob abilistic
Ġd ose
So ftware
... ]
Ġper f
Ġmyst erious
pl iance
ĠRuntime Exception
eg el
Ġimp ressed
Ġliter acy
Ġgrand son
Polit icians
}{ .
Ġ ÑĤ
ĠG othic
arn ess
part icles
ĠBr as
ĠT ir
ential ly
vert ed
PRO TO
ro gate
Ġro ok
ĠStr ategy
ud er
Un lock
os ion
Ġwork shops
amm ad
ĠAn imal
const it
ray s
Ġ! (
ĠC ord
ĠP ool
ĠIn side
plic a
Ġaut omorphism
Ġreflect ing
ĠT ell
ĠF iles
Ġavoid ing
comp any
Aut om
{ })
struct ures
ĠLind a
Ġb esides
}\ |_{
ong s
L im
Ġ$ ("#
Cor ollary
Ġinter im
Ġexcit ations
Ġc arn
Ġstay ing
Ġinqu iry
et ches
ĠC I
ĠL odge
Ġsuggest ion
ĠProv incial
FLO AT
V s
c out
param ref
ĠBa iley
U pon
ĠS olid
ĠP H
ge om
Ġundert aken
Ġcollabor ative
Ġo l
Ġcell ular
Ġs ew
Ġv iable
Ind ices
k ers
NUM BER
st ones
ĠW I
DOCK ED
_{\ {
sche dule
Ġconvent ions
8 75
im plies
ĠHend erson
ĠS event
Ġg amb
Ġv i
S uffix
Ġm u
Ġr idge
Ġsyn onym
il io
Ġb apt
class path
expand ed
Ġnumer ic
Ġle pton
ist o
ĠAl bums
Ġa er
es ch
Ġ" :
get Logger
sc ience
Ã© m
ĠSD K
, âĢĻ
Ġref ined
Circ le
ĠFl ash
ĠBurn s
ap ur
Ġnot ations
ĠSe lection
27 5
Ġmand ate
ĠBan ach
Bu ilt
p v
en stein
ĠH O
Ġe leg
ĠLet ters
Ġline up
friend ly
ĠP irates
ĠV III
ĠSum mit
Ġl oud
Ã¨ s
Ġinterview ed
Ġmes on
dis crete
ĠFig ures
Ġmut ation
ĠE RA
Ġfound ations
ĠW o
Pol itics
ĠF IX
Ġdream s
Ġtens ors
ag ne
I ZE
P icture
Ġ" </
back up
iz ational
ĠEthiop ia
fold ing
uis ine
Ġnomine e
oy a
ĠB P
get Context
Ġc ock
ĠLanc ashire
Ġnurs ing
Ġrap per
ul in
ĠH H
Base ball
Ġi OS
Ġdepos its
j ac
Ġm eter
eh icle
ĠAll an
\ ).
DE VICE
V ers
Ġd ummy
ĠM TV
Ġunder went
Json Property
Ġanalog y
}{* }{\
E s
Ġ ].
ĠH ess
ĠCh ad
class ification
ev olution
cl osing
}, $
Ġ* _
ç± »
read able
{- .
iv ially
pt ical
ho ff
ĠNew port
ĠGu ang
------------ --
ĠH ip
b lo
os i
C ut
Build ing
re ne
Ġdis par
Ġlat ency
ĠF inals
B ODY
ĠC ay
ĠBank s
ar is
y i
ĠW ool
is le
D G
ĠM ask
Ġcancel ed
ĠNetwork s
Ġun safe
prevent Default
P ier
Ġd ressed
n is
Ġcert ification
Ġcat hedral
ĠEv angel
depend s
Ġserv ant
ĠKing ston
ĠEm my
Pre view
Ġsav ings
Ġconscious ness
scal ing
Ġbad ly
V IS
Ġst ones
ott ing
Ġres ume
Ġpre view
Component Model
pl oys
l ore
the m
Ġreg isters
ĠMar in
ĠR S
ĠIn g
Des cribe
ĠDe al
ĠÃ ĸ
Ġcompl aints
ĠAdvent ures
Ġtour ists
o que
Ġs q
ne um
Att achment
ut z
RO P
ĠCO M
3 80
ĠH od
tele phony
ĠG A
n ested
function al
t om
ĠPal m
ĠT F
ild a
Ġdep recated
Ġl od
AT T
com par
m ong
Ġs ans
iv ier
ĠReg ulations
Ġ{ (
Ġamb ient
Eval uation
Ġgroup ed
ĠI X
Att rib
ĠMor rison
] ));
j sp
J oe
Ġe ject
ĠLy on
ĠR ib
., ][]{
g io
à¥ ĩ
Ġt weet
geq slant
inst on
ĠGl enn
ĠS aw
ĠP ush
Ġdist ortion
Res olution
ĠSol omon
s ound
U i
}} -\
Ġn u
D im
ĠCoun sel
][ "
se min
enc oded
ĠCont est
Tra its
il ion
E F
B log
io x
m q
Ð ³
)} }\
8 50
stit utes
ĠF antasy
ĠU z
ĠL ip
Ġco ached
uk u
ar ag
Ġfar mer
Ġwitness ed
Ġa erial
ĠJohn s
ĠAut om
And rew
I J
Ġcontribut or
Ġbankrupt cy
LE FT
Ġstrugg les
mu x
Ġ) {
det ect
Ġup graded
min imal
Ä ĵ
.\ ]
P in
g uid
Ġcoun cill
Ġcook ies
read only
ug a
Ġindex es
ĠD uck
vert ices
ograph ies
Ġmidfield ers
yst er
Ġreg ards
F IL
Ġl ip
ĠW ak
E th
Ġnow rap
Ġsm oke
ĠS ed
ab lo
Ġnot ions
Ġanalog ue
ACCE SS
Ġv el
oc on
Ġcont ours
ĠV ER
c orner
ĠCoun ter
ĠSh ared
Ġdon ations
26 3
N F
ĠExcell ence
no align
ĠTre k
i ph
Ġt actics
att i
Ġinit With
j as
Ġb arr
ĠU C
m us
con e
Ġanisot ropy
m ology
Ġop posing
K M
it les
Ġle verage
ÑĢ Ð¸
ĠD ow
et ype
Ġhe ir
Cal ifornia
Ġoscill ation
Ġcha os
st ars
oc io
00 6
( (\
ĠE ye
col ogical
Ġdiscrep ancy
ĠR i
sp here
CK ET
ĠBur ton
Ġn urse
Ġarg uing
su ite
Ġw reck
Ġdiscuss es
El se
ĠA way
ĠInter ior
Ġdead line
Ġdub bed
all i
p w
ĠC anyon
Col on
ĠD ylan
Ġsocial ist
Ġdies el
Ġrel uct
18 6
Im g
if a
Ġup set
Rep o
ian e
Do es
ĠB inary
s low
_+ $
ĠManit oba
c ook
ĠEd it
C LO
ĠRail ways
G ed
Dec ode
Ġhypot heses
ĠĠ ĉ
? .
pl iers
ĠAmer icas
Operation Exception
FN GL
B AD
Ġm ere
Ġn ights
ĠGer ald
Ġaccess key
W ood
in aries
ho e
0000 000
Ġhom osex
cl ub
ĠGr ass
Ġintegr able
G er
ĠInter view
ĠSo ft
Ġinf ections
Ġelder ly
ĠO z
App endix
Ġanten na
C ong
v ac
isc opal
b id
ĠPresident ial
Ġaugment ed
ĠIll ustr
Ġenc ounters
Ġten ant
author ized
R ever
Ġ< ![
(" [
Ġvirt ue
ex plicit
Ġfr iction
Sm art
$ ~\
is co
C itations
R pc
Ġ[ #
-------- -
Ġreson ant
og on
Ġkil omet
Ġan xiety
Ġdeb ugging
Instance Of
}\, .
m ons
Q UE
Ġf ung
| }\
Ġapproach ing
s aved
equ e
Ġcallback s
R h
ĠB ever
ocol ate
C hen
ar v
Ð Ł
æľ ī
b h
go als
ogene ity
18 3
Rot ation
f its
n P
Res ize
00 8
et z
se g
ĠGl ou
establ ished
Ġex clusion
Ġnull able
Ġrender er
Ġimplicit ly
I MAGE
Ġcoordin ator
Ġaltern atives
ĠLux embourg
(' ../
ĠFrank furt
orm s
luc ene
aid en
Res olve
Ġlast ing
18 34
is ive
f illed
ĠCon ver
Ġred shifts
' ')
Ġr am
[...]
