{"[UNK]":0,"!":1,"\"":2,"#":3,"$":4,"%":5,"&":6,"'":7,"(":8,")":9,"*":10,"+":11,",":12,"-":13,".":14,"/":15,"0":16,"1":17,"2":18,"3":19,"4":20,"5":21,"6":22,"7":23,"8":24,"9":25,":":26,";":27,"<":28,"=":29,">":30,"?":31,"@":32,"A":33,"B":34,"C":35,"D":36,"E":37,"F":38,"G":39,"H":40,"I":41,"J":42,"K":43,"L":44,"M":45,"N":46,"O":47,"P":48,"Q":49,"R":50,"S":51,"T":52,"U":53,"V":54,"W":55,"X":56,"Y":57,"Z":58,"[":59,"\\":60,"]":61,"^":62,"_":63,"`":64,"a":65,"b":66,"c":67,"d":68,"e":69,"f":70,"g":71,"h":72,"i":73,"j":74,"k":75,"l":76,"m":77,"n":78,"o":79,"p":80,"q":81,"r":82,"s":83,"t":84,"u":85,"v":86,"w":87,"x":88,"y":89,"z":90,"{":91,"|":92,"}":93,"~":94,"¡":95,"¢":96,"£":97,"¤":98,"¥":99,"¦":100,"§":101,"¨":102,"©":103,"ª":104,"«":105,"¬":106,"®":107,"¯":108,"°":109,"±":110,"²":111,"³":112,"´":113,"µ":114,"¶":115,"·":116,"¸":117,"¹":118,"º":119,"»":120,"¼":121,"½":122,"¾":123,"¿":124,"Â":125,"Ã":126,"Ä":127,"Å":128,"Æ":129,"Ç":130,"È":131,"É":132,"Ê":133,"Ë":134,"Ì":135,"Í":136,"Î":137,"Ï":138,"Ð":139,"Ñ":140,"Ò":141,"Ó":142,"Ô":143,"Õ":144,"Ö":145,"×":146,"Ø":147,"Ù":148,"Ú":149,"Û":150,"Ü":151,"Ý":152,"Þ":153,"ß":154,"à":155,"á":156,"â":157,"ã":158,"ä":159,"å":160,"æ":161,"ç":162,"è":163,"é":164,"ê":165,"ë":166,"ì":167,"í":168,"î":169,"ï":170,"ð":171,"ñ":172,"ó":173,"ô":174,"Ā":175,"ā":176,"Ă":177,"ă":178,"Ą":179,"ą":180,"Ć":181,"ć":182,"Ĉ":183,"ĉ":184,"Ċ":185,"ċ":186,"Č":187,"č":188,"Ď":189,"ď":190,"Đ":191,"đ":192,"Ē":193,"ē":194,"Ĕ":195,"ĕ":196,"Ė":197,"ė":198,"Ę":199,"ę":200,"Ě":201,"ě":202,"Ĝ":203,"ĝ":204,"Ğ":205,"ğ":206,"Ġ":207,"ġ":208,"Ģ":209,"ģ":210,"Ĥ":211,"ĥ":212,"Ħ":213,"ħ":214,"Ĩ":215,"ĩ":216,"Ī":217,"ī":218,"Ĭ":219,"ĭ":220,"Į":221,"į":222,"İ":223,"ı":224,"Ĳ":225,"ĳ":226,"Ĵ":227,"ĵ":228,"Ķ":229,"ķ":230,"ĸ":231,"Ĺ":232,"ĺ":233,"Ļ":234,"ļ":235,"Ľ":236,"ľ":237,"Ŀ":238,"ŀ":239,"Ł":240,"ł":241,"Ń":242,"ĠĠ":243,"Ġt":244,"in":245,"ĠĠĠĠ":246,"he":247,"Ġa":248,"on":249,"er":250,"re":251,"at":252,"Ġthe":253,"en":254,"or":255,"st":256,"al":257,"an":258,"it":259,"ar":260,"Ġc":261,"Ġo":262,"ed":263,"ion":264,"Ġs":265,"es":266,"is":267,"Ġw":268,"Ġf":269,"le":270,"Ġp":271,"Ġin":272,"ic":273,"nd":274,"Ġof":275,"ing":276,"ĠĠĠ":277,"ro":278,"Ġb":279,"ĠĠĠĠĠĠĠĠ":280,"as":281,"Ġd":282,"ct":283,"et":284,"Ġand":285,"Ġm":286,"ent":287,"ou":288,"el":289,"Ġto":290,"am":291,"il":292,"Ġ\\":293,"om":294,"Ġre":295,"ig":296,"Ġh":297,"Ġ$":298,"Ġn":299,"ation":300,"ol":301,"ĠS":302,"Ġth":303,"ac":304,"Ġ(":305,"id":306,"im":307,"Ġe":308,"ĠT":309,"ot":310,"Ġl":311,"ĠC":312,"ur":313,"ĠA":314,"iv":315,"ut":316,"ad":317,"se":318,"ĠĠĠĠĠĠĠ":319,"Ġis":320,"ul":321,"ce":322,"Ġ=":323,"Ġfor":324,"od":325,"Ġg":326,"ĠM":327,"ag":328,"em":329,"ow":330,"if":331,"ĉĉ":332,"ch":333,"un":334,"ay":335,"ab":336,"um":337,"ĠI":338,"us":339,"ly":340,"</":341,"Ġst":342,"Ġon":343,"ver":344,"qu":345,"ist":346,"ir":347,"Ġbe":348,"ĠP":349,"ap":350,"{\\":351,"ĠB":352,"ith":353,"=\"":354,"čĊ":355,"th":356,"ate":357,"ter":358,"20":359,"Ġcon":360,");":361,"Ġv":362,"pe":363,"Ġas":364,"ers":365,"âĢ":366,"oc":367,"ĠH":368,"ction":369,"--":370,"ex":371,"Ġthat":372,"ri":373,"end":374,"ht":375,"ĠR":376,"Ġ{":377,"Ġ<":378,"and":379,"19":380,"ĠF":381,"Ġwith":382,"ĠD":383,"av":384,"ĠL":385,"ass":386,"res":387,"Ġal":388,"ĠThe":389,"op":390,"her":391,"ub":392,"Ġpro":393,"ĠĠĠĠĠĠĠĠĠĠĠ":394,"ath":395,"ain":396,"est":397,"ĠN":398,"Ġan":399,"up":400,"Ġwas":401,"ew":402,"ess":403,"os":404,"Ġby":405,"eg":406,"ĠW":407,"ĠG":408,"tr":409,"ame":410,"_{":411,"ef":412,"Ġ\"":413,"ity":414,"//":415,"rom":416,"pt":417,"ĠE":418,"Ġ*":419,"ort":420,"Ġwh":421,"art":422,"ĠĊ":423,"ue":424,"Ġcom":425,"Ġex":426,"Ġat":427,"pl":428,"our":429,"Ġr":430,"ine":431,"ore":432,"Ġcl":433,"Ġ$\\":434,"all":435,"Ġ}":436,"Ġit":437,"Ġ&":438,"age":439,"ight":440,"ect":441,"ec":442,"ure":443,"ies":444,"ment":445,"\">":446,"Ġor":447,"Ġfrom":448,"nt":449,"ial":450,"ill":451,"ref":452,"Ġare":453,"math":454,"ĠJ":455,"iz":456,"ak":457,"ud":458,"ĠO":459,"ext":460,"ge":461,"ant":462,"og":463,"ive":464,"ĠĠĠĠĠĠĠĠĠĠĠĠĠĠĠĠ":465,"ep":466,"Ġhe":467,"cl":468,"ult":469,"ans":470,"ack":471,"ber":472,"Ġthis":473,"ld":474,"per":475,"ĠĠĠĠĠ":476,"Ġwe":477,"urn":478,"Ġtr":479,"()":480,"ĠU":481,"00":482,"port":483,"orm":484,"ated":485,"}\\":486,"ite":487,"sp":488,"ary":489,"ast":490,"'s":491,"The":492,"..":493,"ph":494,"ip":495,"}$":496,"ard":497,"**":498,"und":499,"ich":500,"Ġch":501,"^{":502,"act":503,"int":504,"str":505,"ov":506,"Ġclass":507,"able":508,"Ġy":509,"ign":510,"ell":511,"are":512,"ff":513,"ition":514,"con":515,"ĠK":516,"Ġse":517,"Ġsh":518,"ma":519,"ord":520,"),":521,"201":522,"ical":523,"li":524,"Ġnot":525,"ace":526,"Ġ-":527,"In":528,"ia":529,"turn":530,"ire":531,"ype":532,"ft":533,"Ġif":534,"ang":535,"Ġle":536,"ode":537,"pro":538,"ave":539,"ug":540,"ĠIn":541,"ase":542,"ong":543,"==":544,"Ġk":545,"ev":546,"Ġpl":547,"----":548,"get":549,"ost":550,"Ġcomp":551,"ind":552,"to":553,"Ġ'":554,"}}":555,"fr":556,"ian":557,"ime":558,"text":559,"ens":560,"out":561,"ile":562,").":563,"com":564,"(\\":565,"ork":566,"âĢĵ":567,"ta":568,"ations":569,"ĠV":570,"ust":571,"ild":572,"Ġwhich":573,"ide":574,"ata":575,"cal":576,"cc":577,"ice":578,"ions":579,"egin":580,"ubl":581,"Ġres":582,"ence":583,"erv":584,"begin":585,"so":586,"ey":587,"ĠSt":588,"enc":589,"Ġus":590,"du":591,"Ġ|":592,"ĠĠĠĠĠĠĠĠĠĠĠĠĠĠĠ":593,"Ġwhe":594,"Ġun":595,"ject":596,"ok":597,"ear":598,"200":599,"equ":600,"Ġcan":601,"ra":602,"ib":603,"ther":604,"Ġhis":605,"form":606,")$":607,"ory":608,"Ġhave":609,"low":610,"_{\\":611,"ance":612,"Ġar":613,"Ġj":614,"unction":615,"Ġhas":616,"Ġap":617,"Ġad":618,"ener":619,"ach":620,"Ġreturn":621,"Ġ+":622,"âĢĻ":623,"Ġim":624,"ere":625,"row":626,"alue":627,"Ġcont":628,"ous":629,"ĠCh":630,"over":631,"}{":632,"abel":633,"ĉĉĉĉ":634,"ish":635,"ublic":636,"Ġ//":637,"},":638,"ob":639,"ould":640,"Ġ[":641,"use":642,"fig":643,"18":644,"ress":645,"cri":646,"ond":647,"Ġ</":648,"mer":649,"Ġab":650,"Ġnew":651,"ock":652,"->":653,"right":654,"ents":655,"irst":656,"ource":657,"eq":658,"own":659,"Ġalso":660,"ĠTh":661,"::":662,"../":663,"fer":664,"aram":665,"ound":666,"ount":667,"set":668,"ail":669,"frac":670,"ree":671,"ert":672,"ict":673,"clud":674,"Con":675,"erm":676,"10":677,"the":678,"Ġwere":679,"old":680,"ple":681,"\",":682,"iel":683,"rm":684,"ates":685,"ize":686,"ors":687,"Ġpart":688,"ll":689,"St":690,"Ġstr":691,"rit":692,"tern":693,"Ġall":694,"che":695,"ual":696,"Ġsu":697,"ose":698,"Ġone":699,"elf":700,"ull":701,"ps":702,"ark":703,"Ġde":704,"wo":705,"ield":706,"div":707,"Ex":708,"label":709,"Ġdef":710,"inal":711,"te":712,"ink":713,"Ġdis":714,"Ġ@":715,"one":716,"ry":717,"ome":718,"ss":719,"we":720,"rap":721,"but":722,"ml":723,"ption":724,"mathb":725,"Ġob":726,"Ġsp":727,"Ġ||":728,"ely":729,"odel":730,"Ġset":731,"Ġpr":732,"Ġfunction":733,"ics":734,"Ġro":735,"(\"":736,"cite":737,"ĠUn":738,"put":739,"essage":740,"Ġbut":741,"Ġ/":742,"oint":743,"lect":744,"pect":745,"Ġint":746,"sh":747,"Ġfirst":748,"ng":749,"();":750,"ray":751,"Ġev":752,"Ġqu":753,"Ġout":754,"span":755,"eth":756,"ik":757,"$,":758,"left":759,"ool":760,"yst":761,"Ġtheir":762,"$.":763,"></":764,"ĠY":765,",\\":766,"sum":767,"line":768,"iew":769,"Ġ.":770,"Ġits":771,"eta":772,"ĠHe":773,"ix":774,"ĠIt":775,"ari":776,"Ġper":777,"ational":778,"roup":779,"Ġme":780,"equation":781,"',":782,"fter":783,"})":784,"pr":785,"les":786,"Ġother":787,"Ġup":788,"ick":789,"ck":790,"}.":791,"mathcal":792,"Ġpre":793,"pec":794,"ings":795,"><":796,"hed":797,"ater":798,"Ġtwo":799,"Ġwill":800,"199":801,"lo":802,"ystem":803,"aw":804,"Ġdo":805,"mb":806,"Ġpublic":807,"tring":808,"--------":809,"umber":810,"Ġname":811,"Ġhad":812,"Ġover":813,"ne":814,"eng":815,"Ġplay":816,"cent":817,"ĠâĢ":818,"Ġdes":819,"iss":820,"ied":821,"12":822,"amb":823,"Ġman":824,"Ġcol":825,"ake":826,"ax":827,"Ġag":828,"ribut":829,"err":830,"Ġwork":831,"../../":832,"Ġ:":833,"Ġwho":834,"ator":835,"Ġinter":836,"ular":837,"}(":838,"Ġtime":839,"Ġte":840,"ĉĉĉ":841,"ĠâĢĵ":842,"ty":843,"****":844,"pos":845,"col":846,"cre":847,"oot":848,"io":849,"}^":850,"igh":851,"raph":852,"Ġbeen":853,"}_":854,"uct":855,"~\\":856,"arg":857,"of":858,"ook":859,"pha":860,"Ġ*/":861,"))":862,"imes":863,"Ġver":864,"ons":865,"oid":866,"Ġmore":867,"ative":868,"====":869,"ollow":870,"html":871,"name":872,"Pro":873,"ences":874,"ram":875,"ms":876,"da":877,"Ġhref":878,"Ġund":879,"ie":880,"Ġcomm":881,"Ġsub":882,"Ġthey":883,"lation":884,"ific":885,"Ġresult":886,"Ġyou":887,"ased":888,"Ġyear":889,"ĠĠĠĠĠĠĠĠĠĠĠĠĠĠĠĠĠĠĠ":890,"ember":891,"alpha":892,"ox":893,"ĠĠĠĠĠĠĠĠĠ":894,"16":895,"ont":896,"anc":897,"app":898,"round":899,"Ġreg":900,"Ġget":901,"land":902,"tt":903,"Ġtrans":904,"ople":905,"('":906,"sub":907,"ited":908,"ann":909,"Ġwhen":910,"ethod":911,"lement":912,"source":913,"Ġline":914,"Ġne":915,"ames":916,"Ġsup":917,"trans":918,"Ġinclud":919,"ient":920,"message":921,"Ġonly":922,"orn":923,"Ġso":924,"this":925,"Ġwhere":926,"Ġbet":927,"ade":928,"atic":929,"ER":930,"Ġher":931,"resent":932,"ove":933,"Ġdata":934,"ange":935,"als":936,"ĠThis":937,"Ġpe":938,"15":939,"ys":940,"Ġfil":941,"Ġfollow":942,"arch":943,"ican":944,"ugh":945,"tain":946,"oun":947,"Ġcons":948,"Ġinto":949,"Ġform":950,"let":951,")\\":952,"idth":953,"elta":954,"Ġsc":955,"Name":956,"Ġadd":957,"Ġtype":958,"red":959,"ward":960,"uild":961,"amp":962,"ho":963,"cript":964,"Ġdif":965,"Ref":966,"ambda":967,"ern":968,"td":969,"Ġvalue":970,"Ġsuch":971,"Ġthere":972,"Ġen":973,"ivers":974,"Ġpos":975,"def":976,"eb":977,"Ġloc":978,"ues":979,"yn":980,"ĠCom":981,"der":982,"ating":983,"oug":984,"17":985,"Ġ_":986,"ident":987,"Ġass":988,"$\\":989,"ince":990,"Ġ#":991,"Ġend":992,"import":993,"Type":994,"ars":995,"Ġunder":996,"ON":997,"Ġrel":998,"Ġ=>":999,"ities":1000,"Ġdist":1001,"ton":1002,"Ġany":1003,"Ġthan":1004,"hat":1005,"Ġact":1006,"ise":1007,"198":1008,"Ġi":1009,"Ġprov":1010,"Ġacc":1011,"Ġthen":1012,"Ġrec":1013,"amma":1014,"Ġgener":1015,"param":1016,"Ġco":1017,"ĠAr":1018,"ced":1019,"Ġmodel":1020,"Ġoff":1021,"ween":1022,"Id":1023,"min":1024,"IN":1025,"olog":1026,"Ġconst":1027,"uring":1028,"Ġdec":1029,"alse":1030,"urre":1031,"dd":1032,"Ġpol":1033,"_\\":1034,"âĢĿ":1035,"irect":1036,"Ġind":1037,"ee":1038,"ined":1039,"abl":1040,"atch":1041,"bar":1042,"11":1043,"Ġafter":1044,"ider":1045,"String":1046,"mu":1047,"ĠNew":1048,"oy":1049,"its":1050,"Com":1051,"Ġ\\\\":1052,"Ġgo":1053,"ished":1054,"ays":1055,"lock":1056,"ists":1057,"ility":1058,"ures":1059,"oth":1060,"Ġkn":1061,"=\\":1062,"Ġabout":1063,"21":1064,"Ġsome":1065,"ery":1066,"Ġwould":1067,"igma":1068,"dot":1069,"son":1070,"ature":1071,"}_{":1072,"Ġused":1073,"mathbb":1074,"/>":1075,"ĠAl":1076,"Ġbetween":1077,"Ġinv":1078,"Ġsec":1079,"return":1080,"Ġrequ":1081,"cess":1082,"ts":1083,"ash":1084,"Ġno":1085,"Ġsim":1086,"ible":1087,"Ġatt":1088,"ution":1089,"Ġph":1090,"ĠPro":1091,"Ġuse":1092,"Ġshow":1093,"ement":1094,"}^{":1095,"code":1096,"ank":1097,"Ġspec":1098,"sc":1099,"item":1100,"Refer":1101,"orld":1102,"pi":1103,"class":1104,"ision":1105,"Ġop":1106,"ega":1107,"ternal":1108,"align":1109,"Ġel":1110,"14":1111,"-\\":1112,"Ch":1113,"Th":1114,"13":1115,"Ġx":1116,"\"/>":1117,"Ġrem":1118,"pon":1119,"Ġnumber":1120,"ily":1121,"Ġself":1122,"ren":1123,"lection":1124,"Ġserv":1125,"ĠAmer":1126,"Ġbec":1127,"add":1128,"ask":1129,"section":1130,"wn":1131,"plic":1132,"Ġour":1133,"Res":1134,"Ġdiffer":1135,"Ġcall":1136,"Ġpeople":1137,"not":1138,"Ġstud":1139,"ache":1140,"Ġprodu":1141,"translation":1142,"Ġcase":1143,"ym":1144,"://":1145,"itle":1146,"ble":1147,"ric":1148,"Ġequ":1149,"Ġshe":1150,"197":1151,"var":1152,"ally":1153,"phi":1154,"ST":1155,"bf":1156,"chool":1157,"25":1158,"epend":1159,"ĠWe":1160,"urrent":1161,"ized":1162,"arn":1163,"rough":1164,"Ġcor":1165,"RE":1166,"yle":1167,"air":1168,"##":1169,"ault":1170,"ier":1171,"Ġest":1172,"Ġ!":1173,"Ġ{\\":1174,"^{\\":1175,"Ġinst":1176,"List":1177,"lambda":1178,"Ġdet":1179,"ve":1180,"Ġent":1181,"Ġfe":1182,"ead":1183,"uth":1184,"vent":1185,"References":1186,"any":1187,"ines":1188,"ower":1189,"Ġsystem":1190,"Ġ`":1191,"ins":1192,"Ġgiv":1193,"Ġmay":1194,"type":1195,"ious":1196,"Ġdev":1197,"Ġeach":1198,"ages":1199,"read":1200,"ument":1201,"loc":1202,"ever":1203,"Ġgr":1204,"oci":1205,"Ġval":1206,"ĠQ":1207,"ru":1208,"Cl":1209,"ception":1210,"Ġthese":1211,"att":1212,"Ġcre":1213,"ĠâĢľ":1214,"Ġmost":1215,"Ġac":1216,"apt":1217,"AT":1218,"Ġchar":1219,"gan":1220,"hip":1221,"man":1222,"ball":1223,"ason":1224,"ĠZ":1225,"Ġpoint":1226,"22":1227,"for":1228,"mathbf":1229,"ĠSe":1230,"uss":1231,"action":1232,"val":1233,"30":1234,"__":1235,"ause":1236,"ĠFor":1237,"part":1238,"ices":1239,"Ġoper":1240,"iversity":1241,"oh":1242,"ample":1243,"fo":1244,"Ġ==":1245,"Ar":1246,"htt":1247,"ough":1248,"Ġback":1249,"mall":1250,"Ġeff":1251,"Ġed":1252,"ization":1253,"Ġnull":1254,"back":1255,"Ġvar":1256,"ser":1257,"Ġ)":1258,"ivate":1259,"Ġthrough":1260,"eter":1261,"ole":1262,"ength":1263,"az":1264,"ilon":1265,"ments":1266,"Ġsign":1267,"196":1268,"Ġcent":1269,"Ġvoid":1270,"Ġstate":1271,"Ġrep":1272,"itt":1273,"aid":1274,"log":1275,"Ġthem":1276,"Ġfound":1277,"br":1278,"Ġam":1279,"Ġ>":1280,"sigma":1281,"umn":1282,"Ġvari":1283,"Ġgroup":1284,"Ġfield":1285,"ĠSh":1286,"AR":1287,"array":1288,"serv":1289,"angle":1290,"ĠCon":1291,"ike":1292,"vel":1293,"ute":1294,"\"><":1295,"Ġser":1296,"Ġwell":1297,"Ġfinal":1298,"Ġsol":1299,"yp":1300,"):":1301,"ism":1302,"Tr":1303,"Ġerr":1304,"hen":1305,"self":1306,"ĠAs":1307,"Ġsame":1308,"}{\\":1309,"org":1310,"iver":1311,"ah":1312,"ired":1313,"ces":1314,"Ġyears":1315,"000":1316,"Ġexp":1317,"beta":1318,"ID":1319,"width":1320,"ilde":1321,"It":1322,"ury":1323,"Ġtest":1324,"here":1325,"ife":1326,"Ġmin":1327,"OR":1328,"ner":1329,"^{-":1330,"Ġ(\\":1331,"Ġ--":1332,"Ġagain":1333,"gy":1334,"Ġfalse":1335,"ĠCol":1336,"Ġtrue":1337,"ĠĠĠĠĠĠĠĠĠĠĠĠĠĠĠĠĠĠĠĠĠĠĠĠĠĠĠĠĠĠĠĠ":1338,"ott":1339,"\\\\":1340,"Ġmod":1341,"orth":1342,"Ġappro":1343,"50":1344,"elop":1345,"ĠCl":1346,"Ġem":1347,"aj":1348,"Ġext":1349,"ote":1350,"uc":1351,"pre":1352,"Ġmethod":1353,"outh":1354,"Ġfl":1355,"\")":1356,"ouse":1357,"mathrm":1358,"view":1359,"work":1360,"We":1361,"LE":1362,"overn":1363,"Ġnon":1364,"ĠInd":1365,"sion":1366,"ody":1367,"Ġdifferent":1368,"Ġusing":1369,"perty":1370,"ĠĠĠĠĠĠĠĠĠĠĠĠĠ":1371,"ale":1372,"eps":1373,"ĠTr":1374,"Ġsing":1375,"To":1376,"ĠX":1377,"by":1378,"Ġthree":1379,"\");":1380,"ional":1381,"Ġhim":1382,"Ġlink":1383,"ule":1384,"Ġsecond":1385,"Ġboth":1386,"be":1387,"rr":1388,"fl":1389,"ically":1390,"Ġpartic":1391,"gamma":1392,"way":1393,"ĠAmerican":1394,"ron":1395,"ĠAn":1396,"Ġmon":1397,"ets":1398,"Ġfollowing":1399,"Ġwhile":1400,"SS":1401,"Ġparam":1402,"ĠĠĠĠĠĠ":1403,"opt":1404,"Col":1405,"Ġmat":1406,"cont":1407,"reat":1408,"arget":1409,"+\\":1410,"Ġstart":1411,"*}":1412,"owever":1413,"Ġdirect":1414,"cept":1415,"ccess":1416,"erson":1417,"Ġorder":1418,"Ġhigh":1419,"********":1420,"string":1421,"Ã©":1422,"----------------":1423,"Ġgiven":1424,"fore":1425,"^\\":1426,"Ġterm":1427,"Ġduring":1428,"Ġsur":1429,"]{":1430,"24":1431,"includ":1432,"data":1433,"ared":1434,"theta":1435,"bject":1436,"co":1437,"me":1438,"ava":1439,"ĠUniversity":1440,"figure":1441,"Ġlist":1442,"new":1443,"ten":1444,"rho":1445,"ele":1446,"Ġid":1447,"Ġlead":1448,"irc":1449,"Ġlong":1450,"32":1451,"til":1452,"Value":1453,")}":1454,"arly":1455,"EN":1456,"Ġperform":1457,"Ġfam":1458,"delta":1459,"bers":1460,"ger":1461,"ified":1462,"ived":1463,"Ġbeing":1464,"Ġelse":1465,"play":1466,"ants":1467,"uch":1468,"ency":1469,"Data":1470,"rop":1471,"ĠUnited":1472,"ĠĠĠĠĠĠĠĠĠĠĠĠĠĠĠĠĠĠĠĠĠĠĠ":1473,"key":1474,"tau":1475,"Ġart":1476,"uff":1477,"194":1478,".,":1479,"ke":1480,"ases":1481,"ral":1482,"Ġbr":1483,"ather":1484,"Ġever":1485,"nb":1486,"ural":1487,"cdot":1488,"Ġmany":1489,"other":1490,"ĠEx":1491,"itions":1492,"value":1493,"Ġrele":1494,"ful":1495,"Ġz":1496,"AL":1497,"leq":1498,"sy":1499,"ross":1500,"$-":1501,"struct":1502,"ify":1503,"Ġmade":1504,"formation":1505,"sec":1506,"arrow":1507,"Ġfact":1508,"face":1509,"ulation":1510,"')":1511,"raw":1512,"Ġconsider":1513,"big":1514,"ĠFr":1515,"ream":1516,"Ġstring":1517,"arent":1518,"ector":1519,"roll":1520,"For":1521,"Ġneed":1522,"ister":1523,"Ġdisc":1524,"Ġteam":1525,"Ġright":1526,"ains":1527,"Ġbefore":1528,".\"":1529,"istory":1530,"Ġwrit":1531,"script":1532,"Ġmed":1533,"px":1534,"Ġdescri":1535,"gram":1536,"try":1537,"Ġshould":1538,"ĠLe":1539,"Ġrun":1540,"pm":1541,"rol":1542,"requ":1543,"ential":1544,"}$.":1545,"Ġmain":1546,"Ġobject":1547,"}$,":1548,"date":1549,"ler":1550,"ality":1551,"ww":1552,"23":1553,"Ġopt":1554,"order":1555,"ĠSc":1556,"nbsp":1557,"eqref":1558,"Set":1559,"Un":1560,"ively":1561,"Ġ&&":1562,"}(\\":1563,"times":1564,"ĠDe":1565,"med":1566,"Ġbel":1567,"ina":1568,"atus":1569,"led":1570,"arge":1571,"file":1572,"];":1573,"ission":1574,"reg":1575,"location":1576,"Ġsee":1577,"////":1578,"On":1579,"ane":1580,"par":1581,"Âł":1582,"ots":1583,"========":1584,"Ġpop":1585,"usic":1586,"100":1587,"ology":1588,"Ġdevelop":1589,"quad":1590,"Ġsupport":1591,"center":1592,"space":1593,"roid":1594,"ense":1595,"En":1596,"aining":1597,"test":1598,"));":1599,"af":1600,"Ġ/**":1601,"Ġfin":1602,"Ġnow":1603,"Ġcurrent":1604,"Ġlike":1605,"au":1606,"ĠEng":1607,"mp":1608,"ĠIs":1609,"partial":1610,"etwork":1611,"Ġcontin":1612,"ohn":1613,"aking":1614,"Ġmem":1615,"mod":1616,"Ġprivate":1617,"($":1618,"que":1619,"dis":1620,"inter":1621,"Ġbuild":1622,"As":1623,"Ġdr":1624,"Ġsaid":1625,"Ġprocess":1626,"itial":1627,"chi":1628,"size":1629,"ober":1630,"inn":1631,"Ġapp":1632,"Ġjust":1633,"oad":1634,"color":1635,"rix":1636,"ootball":1637,"Ġcould":1638,"ground":1639,"field":1640,"nu":1641,"ives":1642,"Err":1643,"Ġstruct":1644,"Ġorig":1645,"Ġsmall":1646,"lob":1647,"],":1648,"eters":1649,"Ġmov":1650,"Ġsince":1651,"ting":1652,"ected":1653,"ually":1654,"Ġkey":1655,"mary":1656,"Exception":1657,"ĠOn":1658,"Ġstatic":1659,"ica":1660,"Ġrecord":1661,"ood":1662,"Ġimport":1663,"heck":1664,"iving":1665,"ability":1666,"Ġbecause":1667,"lex":1668,"Ġown":1669,"SE":1670,"Ġlinks":1671,"head":1672,"enn":1673,"omen":1674,"rem":1675,"Ġeffect":1676,"ustr":1677,"By":1678,"Ġhand":1679,"ĠComm":1680,"Ġknown":1681,"Ġappe":1682,"fty":1683,"tilde":1684,"DE":1685,"omega":1686,"Ġu":1687,"istr":1688,"infty":1689,"time":1690,"195":1691,"ctions":1692,"pp":1693,"ĠShe":1694,"Ġincluding":1695,"Cont":1696,"Ġlocal":1697,"CT":1698,"ĠStates":1699,"Ġresp":1700,"Ġwhat":1701,"ior":1702,"Ġread":1703,"Ġ%":1704,"ĠĠĊ":1705,"Ġresults":1706,"Test":1707,"Ġrepresent":1708,"Ġfour":1709,"Ġtitle":1710,"|\\":1711,"mbol":1712,"Ġexper":1713,"aces":1714,"comm":1715,"Ind":1716,"ĠĠĠĠĊ":1717,"\".":1718,"Ġ///":1719,"Ġbro":1720,"IT":1721,"Object":1722,"els":1723,"External":1724,"Ġevery":1725,"Ġlater":1726,"AN":1727,"rc":1728,"Ġ$(":1729,"Ġcond":1730,"ĠString":1731,"lack":1732,"().":1733,"ograph":1734,"chn":1735,"top":1736,"...":1737,"Ġarg":1738,"table":1739,"Delta":1740,"Ġfilm":1741,"resp":1742,"eqn":1743,"40":1744,"gr":1745,"Ġpass":1746,"Ġ,":1747,"Ġelement":1748,"por":1749,"vert":1750,"une":1751,"Ġdoes":1752,"arri":1753,"Ph":1754,"ager":1755,"pace":1756,"Ġplayers":1757,"Ġgu":1758,"Ġ!=":1759,"ĉĉĉĉĉ":1760,"umer":1761,"Ġpresent":1762,"sk":1763,"26":1764,"ocument":1765,"ĠPh":1766,"lay":1767,"link":1768,"bum":1769,"function":1770,"Ġmet":1771,"33":1772,"lected":1773,"uthor":1774,"Ġlast":1775,"load":1776,"Ġschool":1777,"This":1778,"Ġexpect":1779,"ĠIf":1780,"ley":1781,"rite":1782,"Get":1783,"oss":1784,"27":1785,"ĠPr":1786,"());":1787,"sq":1788,"Ġtop":1789,"ital":1790,"Ġfind":1791,"Ġopen":1792,"gor":1793,"vious":1794,"xi":1795,"ters":1796,"Ġtem":1797,"js":1798,"ience":1799,"lp":1800,"Ġevent":1801,"Ġpres":1802,"Ġsize":1803,"indow":1804,"met":1805,"ME":1806,"Ġmult":1807,"Ġbo":1808,"Ġagainst":1809,"Ġobtain":1810,"Ġmake":1811,"where":1812,"Ġchild":1813,"Ġav":1814,"agn":1815,"28":1816,"Ġincre":1817,"public":1818,"Ġgovern":1819,"arm":1820,"An":1821,"Key":1822,"Im":1823,"index":1824,"cit":1825,"acter":1826,"Ġbased":1827,"Error":1828,"Al":1829,"ained":1830,"Ġvery":1831,"url":1832,"angu":1833,"rt":1834,"ush":1835,"util":1836,"Ġbound":1837,"bed":1838,"CO":1839,"Ġanal":1840,"list":1841,"Ġallow":1842,"nav":1843,"ided":1844,"Sh":1845,"View":1846,"ĠMar":1847,"ai":1848,"Ġrece":1849,"orem":1850,"ths":1851,"uro":1852,"Ġcoun":1853,"alth":1854,"ounty":1855,"ternational":1856,"ĠJohn":1857,"Ġcalled":1858,"Ġseries":1859,"ival":1860,"._":1861,"\"></":1862,"Class":1863,"\\,":1864,"}[":1865,"ĠAnd":1866,"Ġseason":1867,"ague":1868,"inc":1869,"};":1870,"tab":1871,"ird":1872,"ports":1873,"Ġposs":1874,"ĠBr":1875,"'t":1876,"reak":1877,"Ġleft":1878,"Ġdistribut":1879,"ats":1880,"Ġeven":1881,"Ġrefer":1882,"ĠMay":1883,"Ġthose":1884,"Ġcommun":1885,"ides":1886,"Ġpar":1887,"Ġlarge":1888,"ties":1889,"Ġfr":1890,"ĠRes":1891,"go":1892,"less":1893,"ĠOr":1894,"ek":1895,"\";":1896,"ness":1897,"Ġorg":1898,"idd":1899,"Ġestabl":1900,"anu":1901,"Ġref":1902,"64":1903,"Ġlim":1904,"cale":1905,"['":1906,"ervice":1907,"adi":1908,"ven":1909,"Ġdid":1910,"lem":1911,"itive":1912,"urch":1913,"Ġdesign":1914,")$.":1915,"iter":1916,"Ġsever":1917,"Ġmeas":1918,"ĠNational":1919,"uration":1920,"ourn":1921,"Ġobserv":1922,"http":1923,"Ġhead":1924,"ĠWorld":1925,"olution":1926,".</":1927,"Ġproble":1928,"urs":1929,"off":1930,"Ġdep":1931,"29":1932,"Ġhow":1933,"ification":1934,"bo":1935,"group":1936,"}}\\":1937,"Ġfamily":1938,"ret":1939,"search":1940,"sim":1941,"ape":1942,"$$":1943,"Ġfile":1944,"position":1945,"ĠSp":1946,"cm":1947,"Ġbecom":1948,"ety":1949,"tract":1950,"Ġgeneral":1951,"2016":1952,"respond":1953,"ised":1954,"side":1955,"ormal":1956,"urther":1957,"Ġlet":1958,"Ġprogram":1959,"ĠčĊ":1960,"ene":1961,"iam":1962,"Ġworld":1963,"Ġvalues":1964,"Ġmy":1965,"].":1966,"Ġrespect":1967,"bs":1968,"!--":1969,"day":1970,"2017":1971,"ension":1972,"Ġway":1973,"ĠAd":1974,"olv":1975,"Ġalbum":1976,"path":1977,"Ġmass":1978,"Ġinformation":1979,"iness":1980,"2015":1981,"Ġlevel":1982,"Ġvis":1983,"AC":1984,"2018":1985,"Ġyour":1986,"Ġcare":1987,"ĠCan":1988,"Ġaut":1989,"odes":1990,"ĠYork":1991,"ribute":1992,"Ġspace":1993,"');":1994,"ination":1995,"opy":1996,"2020":1997,"amed":1998,"fin":1999,"Ġident":2000,"=\"+":2001,"itional":2002,"itor":2003,"Ġfootball":2004,"ression":2005,"summary":2006,"ended":2007,"ĠAss":2008,"Requ":2009,"ison":2010,"Om":2011,"energy":2012,"rodu":2013,"ift":2014,"Ġbecame":2015,"psi":2016,"quot":2017,"no":2018,"ajor":2019,"Ġstand":2020,"ope":2021,"Ġtri":2022,"epsilon":2023,"lear":2024,"ampl":2025,"Ġsingle":2026,"=\"../../":2027,"alk":2028,"Ġreal":2029,"ĠGr":2030,"Ġlaw":2031,"Ġocc":2032,"2010":2033,"akes":2034,"Ġmust":2035,"2014":2036,"ched":2037,"wh":2038,"box":2039,"Ġerror":2040,"ackage":2041,"Se":2042,"(),":2043,"}_{\\":2044,"LL":2045,"ĠAt":2046,"Ġuntil":2047,"He":2048,"Ġlife":2049,"const":2050,"ately":2051,"60":2052,"2019":2053,"Int":2054,"File":2055,"']":2056,"capt":2057,"Ġexpl":2058,"fil":2059,"ĠJul":2060,"iod":2061,"Ġwithin":2062,"ĠCar":2063,"rist":2064,"Ġpolit":2065,"vir":2066,"unc":2067,"ĠCent":2068,"ĠBrit":2069,"ators":2070,"ĠSchool":2071,"ends":2072,"ĠâĢĶ":2073,"see":2074,"Ġmark":2075,"Ġorgan":2076,"Ġann":2077,"Omega":2078,"Ġpower":2079,"Ġdue":2080,"wards":2081,"raphics":2082,"user":2083,"Ġoriginal":2084,"ords":2085,"ording":2086,"eqnarray":2087,"ĠWar":2088,"cription":2089,"textbf":2090,"aster":2091,"omet":2092,"Ġtyp":2093,"^*":2094,"ĠNov":2095,"Ġknow":2096,"Ġcap":2097,"aint":2098,"Gamma":2099,"Not":2100,"ĠFig":2101,"ches":2102,"Text":2103,"iction":2104,"Time":2105,"with":2106,"Ġbir":2107,"ians":2108,"ero":2109,"ponse":2110,"\":":2111,"ources":2112,"Ġcr":2113,"lim":2114,"Ġ\\,":2115,"Def":2116,"Ġexample":2117,"2011":2118,"2013":2119,"Ġdown":2120,"ances":2121,"fess":2122,"2012":2123,"Ġmap":2124,"anuary":2125,"Ġseveral":2126,"acy":2127,"lobal":2128,"ĠGe":2129,"des":2130,"Ġbu":2131,"uffer":2132,"Ġaround":2133,"Ġarea":2134,"Ġperson":2135,")$,":2136,"ling":2137,"mat":2138,"ilar":2139,"duct":2140,"node":2141,"anguage":2142,"Ġassum":2143,"Ġproject":2144,"IC":2145,"ĠWest":2146,"Ġnear":2147,"Ġtext":2148,"80":2149,"Ġalong":2150,"RO":2151,"Ġgame":2152,"ĠHowever":2153,"ored":2154,"Ġbook":2155,"Ġplace":2156,"sl":2157,"Ġdeath":2158,"ij":2159,"Ġnext":2160,"comp":2161,"dt":2162,"sqrt":2163,"ustral":2164,"usiness":2165,"ĠCounty":2166,"2021":2167,"ION":2168,"Man":2169,"Ġsum":2170,"ĠPl":2171,"stru":2172,"ĠSouth":2173,"Ġ?":2174,"map":2175,"ĠWh":2176,"Ġoffic":2177,"Ġcorrespond":2178,"aving":2179,"Ġtarget":2180,"ament":2181,"ploy":2182,"Ġinteg":2183,"perties":2184,"35":2185,"empt":2186,"Ġsong":2187,"caption":2188,"Qu":2189,"Ġcour":2190,"ĠAug":2191,"psilon":2192,"Ġcal":2193,"ony":2194,"Event":2195,"Ġmusic":2196,"Ġinitial":2197,"ĠPol":2198,"Ġsuccess":2199,"Ġrequest":2200,"TE":2201,"plication":2202,"ries":2203,"LA":2204,"subsection":2205,"aper":2206,"Ġstyle":2207,"max":2208,"Ġprot":2209,"Ġmuch":2210,"PE":2211,"Ġstill":2212,"Ġ);":2213,"Ġmax":2214,"length":2215,"Ġtot":2216,"Ġsl":2217,"posed":2218,"ĠGerm":2219,"ĠThey":2220,"Ġ/>":2221,"ptember":2222,"model":2223,"State":2224,"Ġnetwork":2225,"Node":2226,"``":2227,"^{(":2228,"Add":2229,"Ġlog":2230,"Info":2231,"Element":2232,"With":2233,"ĠAll":2234,"Ġabove":2235,"ependent":2236,"Ġdi":2237,"ixed":2238,"Ġview":2239,"istor":2240,"ĠOct":2241,"Ġversion":2242,"Ġestim":2243,"Ġpost":2244,"ĠJanuary":2245,"sw":2246,"Item":2247,"Ġhelp":2248,"hes":2249,"Ġenergy":2250,"Ġassert":2251,"Ġpath":2252,"rel":2253,"illion":2254,"lege":2255,"ilt":2256,"Des":2257,"ĠRe":2258,"ued":2259,"Ġcount":2260,"Ġelect":2261,"mber":2262,"ait":2263,"ĠRep":2264,"Ġthrow":2265,"bold":2266,"ivity":2267,"2008":2268,"ĠMarch":2269,"Field":2270,"Ġ${\\":2271,"oman":2272,"Ġlarg":2273,"oper":2274,"34":2275,"ium":2276,"Ġdem":2277,"aim":2278,"pril":2279,"uck":2280,"sup":2281,"atures":2282,"Or":2283,"uk":2284,"2009":2285,"ogle":2286,"/**":2287,"ped":2288,"amespace":2289,"ĠPar":2290,"|-":2291,"non":2292,"Param":2293,"ĠState":2294,"imal":2295,"nder":2296,"Ġiss":2297,"Form":2298,"vare":2299,"ocus":2300,"90":2301,"eff":2302,"Ġcharacter":2303,"Path":2304,"gorith":2305,"Request":2306,"lin":2307,"TR":2308,"https":2309,"Ġpat":2310,"olean":2311,"Ġreport":2312,"Ġparticular":2313,"Ġbeh":2314,"ĠReg":2315,"my":2316,"point":2317,"atter":2318,"ugg":2319,"plit":2320,"icon":2321,"Ġbas":2322,"Ġold":2323,"Ġden":2324,"ĠAugust":2325,"Ġtake":2326,"Map":2327,"result":2328,"ertain":2329,"Index":2330,"ĠCal":2331,"ules":2332,"AP":2333,"Ġpubl":2334,"ĠMan":2335,"Ġprevious":2336,"lish":2337,"())":2338,"urope":2339,"Re":2340,"Ġchang":2341,"/*":2342,"ĠSeptember":2343,"ĠĠĠĠĠĠĠĠĠĠĠĠĠĠĠĠĠĠĠĠĠĠĠĠĠĠĠ":2344,"':":2345,"varepsilon":2346,"leg":2347,"aus":2348,"Ġdom":2349,"Ġwithout":2350,"}^{\\":2351,"Ġhere":2352,"Ġstat":2353,"Ġinclude":2354,"ails":2355,"Ġ-->":2356,"aced":2357,"from":2358,"rangle":2359,"ocial":2360,"Context":2361,"Ġnode":2362,"ae":2363,"Ġexist":2364,"Ġtechn":2365,"ilit":2366,"Ġcontent":2367,"config":2368,"hern":2369,"Ġdefined":2370,"Ġsection":2371,"inition":2372,"stance":2373,"ĠJune":2374,"2007":2375,"}=":2376,"cember":2377,"Ġleg":2378,"Equ":2379,"Ġgovernment":2380,"ĠOctober":2381,"Ġmeasure":2382,"includeg":2383,"Ġcomput":2384,"includegraphics":2385,"Ġinterest":2386,"ampions":2387,"style":2388,"aut":2389,"31":2390,"Over":2391,"ĠGu":2392,"Ġformer":2393,"rightarrow":2394,"stit":2395,"Ġearly":2396,"ailable":2397,"ustom":2398,"Ġassoci":2399,"Ġsat":2400,"Ġblock":2401,"Ġposition":2402,"ensure":2403,"Ġbest":2404,"symbol":2405,"Ġtotal":2406,"void":2407,"urg":2408,"lev":2409,"iment":2410,"ĠJuly":2411,"ique":2412,"''":2413,"Ġadv":2414,"body":2415,"ponent":2416,"arr":2417,"Ġeng":2418,"ĠAustral":2419,"ĠApril":2420,"ynam":2421,"ĠUS":2422,"ung":2423,".âĢĿ":2424,")=":2425,"Ġshort":2426,"Config":2427,"Ġband":2428,"Ġbase":2429,"ride":2430,"vers":2431,"39":2432,"emph":2433,"icy":2434,"ĠYou":2435,"icle":2436,"ĠII":2437,"36":2438,"Fil":2439,"dom":2440,"37":2441,"45":2442,"Ġmembers":2443,"Ġsimilar":2444,"api":2445,"hold":2446,"ĠBe":2447,"Ġinput":2448,"ales":2449,"ibr":2450,"2006":2451,"Ġcity":2452,"ially":2453,"Ġwon":2454,"Ġcrit":2455,"';":2456,"ĠNorth":2457,"Ġanother":2458,"Ġarray":2459,"true":2460,"ux":2461,"uman":2462,"ables":2463,"ideo":2464,"cor":2465,"input":2466,"ĠCo":2467,"Ġ(!":2468,"Ġdel":2469,"Result":2470,"plement":2471,"struction":2472,"de":2473,"Ġret":2474,"ĠCity":2475,"ĠEn":2476,"Service":2477,"Ġlearn":2478,"bm":2479,"Ġperiod":2480,"Ġdepend":2481,"block":2482,"ĠSec":2483,"Ġreleased":2484,"error":2485,"Ġpoints":2486,"FF":2487,"Ġhig":2488,"='":2489,"Ġmajor":2490,"ĠTe":2491,"cast":2492,"AS":2493,"Ġdeterm":2494,"Ġsk":2495,"ze":2496,"Ġplayed":2497,"Ġuser":2498,"ĠNovember":2499,"state":2500,"Ġhold":2501,"ĠSystem":2502,"Ġdiv":2503,"enu":2504,"ateg":2505,"object":2506,"semb":2507,"Ġ});":2508,"refore":2509,"Array":2510,"ouble":2511,"Ġcomplet":2512,"ffic":2513,"pose":2514,"99":2515,"pen":2516,"apache":2517,"Ġaff":2518,"mm":2519,"Ġder":2520,"Ġhome":2521,"Ġcur":2522,"version":2523,"Ġland":2524,"Ġwomen":2525,"ware":2526,"title":2527,"Ġgood":2528,"ui":2529,"ttp":2530,"Ġcheck":2531,"istic":2532,"ĠDecember":2533,"ĠEurope":2534,"ention":2535,"Ġday":2536,"All":2537,"vec":2538,"bit":2539,"ĠBy":2540,"ĠEd":2541,"Ġservice":2542,"ither":2543,"Ġredu":2544,"38":2545,"xim":2546,"sequ":2547,"Ġgre":2548,"UR":2549,"igned":2550,"imum":2551,"ensity":2552,"Ġintrodu":2553,"Ġdefault":2554,"Ġclos":2555,"down":2556,"viron":2557,"ĠMin":2558,"Ġmodels":2559,"ottom":2560,"word":2561,"ways":2562,"Att":2563,"Ġenc":2564,"ning":2565,"Ġ/*":2566,"geq":2567,"ysis":2568,")(":2569,"uf":2570,"born":2571,"Ġshown":2572,"Ġquant":2573,"Ġlow":2574,"Big":2575,"ada":2576,"Ġla":2577,"urity":2578,"Ġspe":2579,"Ġproblem":2580,"See":2581,"ĠWill":2582,"Ġcontext":2583,".~\\":2584,"plate":2585,"75":2586,"ĠSup":2587,"Ġcode":2588,"ĠTo":2589,"ession":2590,"varphi":2591,"Ġpo":2592,"Size":2593,"Ġet":2594,"nection":2595,"Ġprob":2596,"Ġaction":2597,"****************":2598,"ender":2599,"Ġcar":2600,"ĠNo":2601,"raft":2602,"Ġstudy":2603,"proof":2604,"ĠBritish":2605,"ards":2606,"Ġwant":2607,"Ġterms":2608,"Comm":2609,"mult":2610,"ume":2611,"Is":2612,"Ġchange":2613,"2000":2614,"Ġlook":2615,"aterial":2616,"Ġsource":2617,".}":2618,"eturn":2619,"Ġins":2620,"Ġcover":2621,"ebru":2622,"AD":2623,"Trans":2624,"++":2625,"Ġinvest":2626,"Ġ},":2627,"ham":2628,"\"\"":2629,"andom":2630,"ebruary":2631,"Ġcreate":2632,"md":2633,"&\\":2634,"Ġfollows":2635,"190":2636,"####":2637,"Build":2638,"ĠChrist":2639,"Pl":2640,"Ġmember":2641,"Ġfull":2642,"[\\":2643,"rec":2644,"ailed":2645,"LO":2646,"cer":2647,"Code":2648,"[]":2649,"Ġrange":2650,"ags":2651,"ography":2652,"ino":2653,"apan":2654,"Ġprom":2655,"bl":2656,"alf":2657,"prov":2658,"oin":2659,"Ġcompany":2660,"Ġcompon":2661,"overline":2662,"lor":2663,"Ġconfig":2664,"wit":2665,"cul":2666,"idual":2667,"Ġimportant":2668,"ĠPart":2669,"ĠThere":2670,"annel":2671,"Ġdat":2672,"From":2673,"wid":2674,"Ġdeg":2675,"Ġcompet":2676,"Ġ:=":2677,"Ġindex":2678,"Ġshows":2679,"Hand":2680,"abled":2681,"ĠKing":2682,"Ġcomb":2683,"though":2684,"UT":2685,"loat":2686,"ering":2687,"Ã¡":2688,"Ġhistory":2689,"Ġvol":2690,"Ġpossible":2691,"aged":2692,"Ġregion":2693,"=\"../../../../":2694,"Ġdescribed":2695,"Ġstructure":2696,")^":2697,"oll":2698,"Ġmean":2699,"orph":2700,"call":2701,"Ġes":2702,"Ġ($":2703,"}).":2704,"next":2705,"Ġinstance":2706,"ync":2707,"70":2708,"Ġstates":2709,"IS":2710,"},\\":2711,"Ġproperty":2712,"osp":2713,"Ġrole":2714,"Ġcho":2715,"Ġcontrol":2716,"create":2717,"Ġside":2718,"boldsymbol":2719,"Ġdiscuss":2720,"Ġtimes":2721,"conom":2722,"Ġrest":2723,"....":2724,"Ġauthor":2725,"MP":2726,"Message":2727,"Ġspect":2728,"ĠAb":2729,"Ġ()":2730,"hline":2731,"Ġcareer":2732,"Ġimp":2733,"ĠMed":2734,"ymmet":2735,"Ġpred":2736,"tn":2737,"cher":2738,"Of":2739,"df":2740,"ana":2741,"ĠLeague":2742,"Ġtry":2743,"stand":2744,"iff":2745,"ken":2746,"Rec":2747,"ude":2748,"Ġpot":2749,"ights":2750,"inary":2751,"ump":2752,"Ġchildren":2753,"Val":2754,"Ġbl":2755,"iple":2756,"eder":2757,"Ġstrong":2758,"ster":2759,"adem":2760,"www":2761,"Ġturn":2762,"Ġbreak":2763,"frak":2764,"amples":2765,"eneral":2766,"Ġrequire":2767,"dev":2768,"2005":2769,"Ġbeg":2770,"uation":2771,"Ġfew":2772,"Loc":2773,"ĠAfter":2774,"Ġcorre":2775,"ED":2776,"Ġbusiness":2777,"At":2778,"ampionship":2779,"Let":2780,"IG":2781,"66":2782,"Ġmatch":2783,"New":2784,"lang":2785,"uments":2786,"ĠFebruary":2787,">&":2788,"Ġsrc":2789,"55":2790,"isf":2791,"ĠRec":2792,"Ġaver":2793,"âĢĶ":2794,"Ġfore":2795,"Pr":2796,"Ġparameters":2797,"Ġproduct":2798,"ML":2799,"ories":2800,"Ġbackground":2801,"Ġpopulation":2802,"////////":2803,"ection":2804,"lt":2805,"gt":2806,"gorithm":2807,"langle":2808,"Ġnamed":2809,"Ġimage":2810,"Ġavailable":2811,"Amer":2812,"Model":2813,"default":2814,"assert":2815,"ĠMc":2816,"ĉĉĉĉĉĉ":2817,"eve":2818,"ges":2819,"Ġjava":2820,"ks":2821,"Ġrepl":2822,"ĠBut":2823,"earch":2824,"rench":2825,"ready":2826,"epar":2827,"exp":2828,"century":2829,"Ġaccess":2830,"Ġsuper":2831,"idge":2832,"ĠArm":2833,"Ġfilms":2834,"Ġdistribution":2835,"Ġtown":2836,"Ser":2837,"si":2838,"ecut":2839,"Ġep":2840,"info":2841,"Ġless":2842,"content":2843,"Ġbirths":2844,"ently":2845,"ĠCor":2846,"Ġbegan":2847,"vironment":2848,"clus":2849,"AB":2850,"ĠHis":2851,"ered":2852,"ending":2853,"Ġsit":2854,"lete":2855,"base":2856,"Ġreceived":2857,"ĠList":2858,"Ġitem":2859,"include":2860,"}}$":2861,"Ġke":2862,"uture":2863,"Ġtook":2864,"Ġheld":2865,"Ġcolor":2866,"Ġweek":2867,"now":2868,"urb":2869,"artment":2870,"cap":2871,"CH":2872,"tra":2873,"draw":2874,"ese":2875,"Lambda":2876,"Ġnational":2877,"Ġide":2878,"Ġconf":2879,"Ġeduc":2880,";&":2881,"Ġfeature":2882,"ING":2883,"ought":2884,"tings":2885,"Ġfurther":2886,"refer":2887,"anch":2888,"Ġ===":2889,"roller":2890,"gress":2891,"Ġconc":2892,"ological":2893,"adio":2894,"Fr":2895,"rior":2896,"ĉĊ":2897,"Ġsignific":2898,"Ġlength":2899,"ington":2900,"ondon":2901,"ours":2902,"Ġgrow":2903,"ldots":2904,"Ġdon":2905,"Log":2906,"âĢľ":2907,"01":2908,"Out":2909,"Phi":2910,"ET":2911,"mbox":2912,"onse":2913,"ĠAct":2914,"Ġq":2915,"check":2916,"ĠEnglish":2917,"If":2918,"ĠBo":2919,"ops":2920,"Ġaddress":2921,"48":2922,"Up":2923,"Ġestablished":2924,"sf":2925,"ising":2926,"Dis":2927,"Ġphys":2928,"Ġfree":2929,"2004":2930,"Ġcommon":2931,"Ġsay":2932,"cil":2933,"Ġappear":2934,"Ġage":2935,"citep":2936,"css":2937,"Ġalign":2938,"ibility":2939,"Ġlimit":2940,"android":2941,"Inter":2942,"method":2943,"nect":2944,"start":2945,"imens":2946,"ii":2947,"umb":2948,"yd":2949,"Manager":2950,"aken":2951,"ones":2952,"Ġresponse":2953,"ĠAfr":2954,"Ġdocument":2955,"Ġhouse":2956,"Ad":2957,"aul":2958,"Ġindic":2959,"Ġfive":2960,"Ġlabel":2961,"ĠDr":2962,"Ġsequ":2963,"Ġcontribut":2964,"Ġlocated":2965,"Ġfunctions":2966,"Ġwidth":2967,"ĠEl":2968,"Ġoften":2969,"ached":2970,"Ġthird":2971,"Ġarch":2972,"appa":2973,"Ġcou":2974,"Ġ__":2975,"Ġapproxim":2976,"Ġperformance":2977,"wide":2978,"Ġphot":2979,"Ġspecial":2980,".\\":2981,"User":2982,"=\"#":2983,"lient":2984,"alt":2985,"Color":2986,"Ġcountry":2987,"Ġprofess":2988,"cond":2989,"Ġamong":2990,"Ġgrad":2991,"Ġsy":2992,"ĠThese":2993,"Ġparameter":2994,"Ġfac":2995,"--------------------------------":2996,"mathfrak":2997,"ĠGet":2998,"Ġcommand":2999,"ĠJapan":3000,"ĠĠĠĠĠĠĠĠĠĠĠĠ":3001,"Ġbuilt":3002,"Ġsix":3003,"Ġlay":3004,"Ġtrack":3005,"American":3006,"Ġ};":3007,"Ġpublished":3008,"ille":3009,"Ġincluded":3010,"java":3011,"ably":3012,"ĠMe":3013,"ĠRuss":3014,",âĢĿ":3015,"Ġleast":3016,"context":3017,"Ġrequired":3018,"eople":3019,"=\"../":3020,"tainer":3021,"CC":3022,"etic":3023,"Ġcell":3024,"Table":3025,"prot":3026,"kn":3027,"Group":3028,"ĠÐ":3029,"ĠBar":3030,"Ġmot":3031,"ves":3032,"rest":3033,"ald":3034,"ĠSer":3035,"Ġrelations":3036,"ifier":3037,"mark":3038,"Ġclub":3039,"Ġgames":3040,"TD":3041,"ilitary":3042,"Ġcomplex":3043,"ients":3044,"na":3045,"ĠPres":3046,"Sc":3047,"Ġpotential":3048,"And":3049,"ĠĠĠĠĠĠĠĠĠĠ":3050,"circ":3051,"ĠCollege":3052,"ĠThen":3053,"package":3054,"iber":3055,"ogn":3056,"Reg":3057,"44":3058,"ULL":3059,"Ġinvolv":3060,"Ġtheory":3061,"textit":3062,"ersion":3063,"anel":3064,"Ġevents":3065,"MA":3066,"otimes":3067,"~~":3068,"}),":3069,"ief":3070,"tes":3071,"ĠLondon":3072,"Ġmatrix":3073,"valid":3074,"eed":3075,"Ġindiv":3076,"ĠBl":3077,";</":3078,"foot":3079,"ĠCoun":3080,"ring":3081,"Ġsatisf":3082,"Ġgraph":3083,"count":3084,"Ġvert":3085,"oud":3086,"reate":3087,"using":3088,"oph":3089,"2022":3090,"print":3091,"Ġsm":3092,"System":3093,"ĠComp":3094,"DO":3095,"Ġthink":3096,"Ġmagn":3097,"agement":3098,"define":3099,"ĠEast":3100,"Ġ``":3101,"ES":3102,"asing":3103,"Ġconsidered":3104,"Ġarr":3105,"Ġdiff":3106,"aff":3107,"arried":3108,"era":3109,"idence":3110,"namespace":3111,"Ġstation":3112,"ford":3113,"Ġexpected":3114,"Ġsepar":3115,"static":3116,"Ġhost":3117,"irt":3118,"Ġbecome":3119,"Ġvarious":3120,"iet":3121,"cy":3122,"Ġcreated":3123,"abor":3124,"Ġresearch":3125,"ĠChar":3126,"\\%":3127,"Ġoutput":3128,"ĠQu":3129,"Ġparent":3130,"Ġmillion":3131,"Ġtraining":3132,"Ġborder":3133,"Ġlate":3134,"Ġrecent":3135,"UN":3136,"Ġwritten":3137,"aves":3138,"ls":3139,"Ġprim":3140,"Ġcamp":3141,"hand":3142,"reet":3143,"Ġeither":3144,"utions":3145,"Ġaccount":3146,"Ġpaper":3147,"kappa":3148,"Ġbuilding":3149,"Ġred":3150,"subset":3151,"Ġvill":3152,"argin":3153,"cle":3154,"cell":3155,"){":3156,"inning":3157,"Ġwater":3158,"Ġclaim":3159,"web":3160,"ĠWhen":3161,"ework":3162,"Call":3163,"05":3164,"Ġpract":3165,"65":3166,"ĠArt":3167,"Ġtable":3168,"istrict":3169,"Ġquest":3170,"iol":3171,"Ġcentury":3172,"Ġlight":3173,"light":3174,"Ġcompos":3175,"Ġindu":3176,"ĠOne":3177,"ptions":3178,"Ġattack":3179,"Ġcoll":3180,"2003":3181,"Ġcases":3182,"ithub":3183,"Ġsignificant":3184,"ĠMon":3185,"ĠDav":3186,"ĠSo":3187,"Ġtask":3188,"Ġfund":3189,"Ġcirc":3190,"Ġobtained":3191,"IP":3192,"reed":3193,"})$":3194,"](":3195,"Ġlower":3196,"Ġindividual":3197,"Ġmethods":3198,"Ġport":3199,"================":3200,"Arg":3201,"ĠHigh":3202,"Query":3203,"doc":3204,"Ġsent":3205,"ĠAm":3206,"ittle":3207,"Ġprovide":3208,"db":3209,"Ġcross":3210,"pty":3211,"Ġfocus":3212,"Ġant":3213,"Ġoptions":3214,"ĠIm":3215,"ĠSch":3216,"ĠDep":3217,"US":3218,"ĠHouse":3219,"95":3220,"Ġrate":3221,"Mod":3222,"Ġalready":3223,"ĠAg":3224,"Ġcost":3225,"Method":3226,"\\|":3227,"parent":3228,"TH":3229,"Ġserved":3230,"creen":3231,"ĠAp":3232,"ĠWilliam":3233,"ips":3234,"abla":3235,"Property":3236,"ĠPark":3237,"Ã³":3238,"ategory":3239,"unic":3240,"Ġhaving":3241,"ĠLet":3242,"build":3243,"Ġcommunity":3244,"Ġdest":3245,"Ġmessage":3246,"nonumber":3247,"Ġapproach":3248,"Ð°":3249,"iqu":3250,"Sigma":3251,"oken":3252,"ensuremath":3253,"google":3254,"aly":3255,"Ġair":3256,"<!--":3257,"Ġdevelopment":3258,"Ġclose":3259,"Ġsolution":3260,"Ġsystems":3261,"Ġmen":3262,"flu":3263,"Ġaverage":3264,"Ġconstant":3265,"itted":3266,"Ġplayer":3267,"ĠĠĠĠĠĠĠĠĠĠĠĠĠĠĠĠĠĠĠĠĠĠĠĠĠĠĠĠĠĠĠ":3268,",\"":3269,"lying":3270,"ĠPer":3271,"most":3272,"nabla":3273,"Ġtrad":3274,"ured":3275,"Ġelection":3276,"2001":3277,"atural":3278,"ĠSet":3279,"false":3280,">(":3281,"Ġandroid":3282,"Ġneg":3283,"ecess":3284,"reen":3285,"Ġconstruct":3286,"bor":3287,"Ġmeans":3288,"Ġabs":3289,"Bar":3290,"ration":3291,"oment":3292,"core":3293,"Ġhowever":3294,"Ġbool":3295,"Ġdensity":3296,"ements":3297,"Ġannoun":3298,"\\!":3299,"Ġborn":3300,"ENT":3301,"ĠAng":3302,"github":3303,"Response":3304,"undle":3305,"ĠAir":3306,"Ass":3307,"Ġflow":3308,"ĠBro":3309,"2002":3310,"Ġput":3311,"Ġworks":3312,"rict":3313,"Ġstd":3314,"Ġwar":3315,"small":3316,"ns":3317,"ĠHer":3318,"Ġfeatures":3319,"Ġconsist":3320,"event":3321,"ĠFrench":3322,"ournal":3323,"uster":3324,"Ġcult":3325,"ught":3326,"Ġsocial":3327,"ename":3328,"wise":3329,"Ġscal":3330,"Ġpair":3331,"actory":3332,"Ġanalysis":3333,"Ed":3334,"IL":3335,"Ġstandard":3336,"uggest":3337,"Ġaddition":3338,"Ġnil":3339,"Ġgroups":3340,"Ġvalid":3341,"ociety":3342,"ĠDes":3343,"Ġsem":3344,"Ġemploy":3345,"plied":3346,"Ġperm":3347,"Count":3348,"End":3349,"irection":3350,"net":3351,"gether":3352,"ference":3353,"Client":3354,"Ġtogether":3355,"IR":3356,"Ġplan":3357,"Ġsite":3358,"rew":3359,"igation":3360,"Ġge":3361,"iddle":3362,"Ġgreat":3363,")</":3364,"ĠLa":3365,"Override":3366,"Ġmer":3367,"Ġconditions":3368,"Ġprovided":3369,"height":3370,"aps":3371,"ĠSw":3372,"iven":3373,"Ð¾":3374,"ordin":3375,"ĠInternational":3376,"Ġseen":3377,"0000":3378,"ula":3379,"OT":3380,"tem":3381,"Ġhigher":3382,"SP":3383,"mit":3384,"Ġspecies":3385,"Ġcorresponding":3386,"Ġassociated":3387,"But":3388,"Ġproperties":3389,"null":3390,"ĠHar":3391,"Ġnormal":3392,"iforn":3393,"ceed":3394,"\\[":3395,"Ġbody":3396,"Ġelements":3397,"Ġtelev":3398,"Ġbelow":3399,"Ġyoung":3400,"Ġimplement":3401,"based":3402,"Sub":3403,"attle":3404,"EE":3405,"FA":3406,"ĠWith":3407,"known":3408,"icro":3409,"mar":3410,"Ġcy":3411,"Ġalways":3412,"Ġrespectively":3413,"cho":3414,"((":3415,"bra":3416,"Date":3417,"ged":3418,"Ġnum":3419,"dir":3420,"itect":3421,"Be":3422,"pol":3423,"Ġbi":3424,"Ġcondition":3425,"Ġvia":3426,"Ġhom":3427,"medi":3428,"avy":3429,"Ġacross":3430,"Ġhealth":3431,"Ġdistrict":3432,"Ġnever":3433,"eader":3434,"run":3435,"Ġeas":3436,"II":3437,"Ġwin":3438,"acing":3439,"ifornia":3440,"ocr":3441,"Ġtw":3442,"Ġsche":3443,"Ġbetter":3444,"xy":3445,"option":3446,"/\\":3447,"Ġblack":3448,"ply":3449,"ĠPhil":3450,"ministr":3451,"}}{":3452,"Ġcalcul":3453,"Ġloss":3454,"efore":3455,"No":3456,"Ġhuman":3457,"ĠĠĠĠĠĠĠĠĠĠĠĠĠĠĠĠĠ":3458,"Sp":3459,"rs":3460,"illed":3461,"ilities":3462,"Ġstudents":3463,"188":3464,"ĠGerman":3465,"php":3466,"CE":3467,"Ġconv":3468,"actions":3469,"rown":3470,"dots":3471,"Comp":3472,"centering":3473,"display":3474,"query":3475,"icense":3476,"ĠEngland":3477,"init":3478,"Ġstory":3479,"Ġvector":3480,"49":3481,"ociation":3482,"Ġtelevision":3483,"widet":3484,"Ġable":3485,"47":3486,"Ap":3487,"gen":3488,"Ġequation":3489,"{-":3490,"NS":3491,"Ġcolumn":3492,"Ġdied":3493,"dl":3494,"ĠHam":3495,"ĠDistrict":3496,"Ġgl":3497,"NA":3498,"options":3499,"ĠCont":3500,"Ġeconom":3501,"Ġlo":3502,"ÃŃ":3503,"Ġpay":3504,"Builder":3505,"oke":3506,"67":3507,"do":3508,"ĠDef":3509,"ado":3510,"finished":3511,"ĠChampionship":3512,"])":3513,"aries":3514,"duc":3515,"page":3516,"active":3517,"irm":3518,"ishing":3519,"Ġgen":3520,"hib":3521,"Ġnumer":3522,"Ġlanguage":3523,"current":3524,"lymp":3525,"ĠVal":3526,"Ġindependent":3527,"image":3528,"Ġinternational":3529,"Ġcame":3530,"Ġstarted":3531,"ivil":3532,"oted":3533,"ĠMich":3534,"ĠIr":3535,"Ġrow":3536,"ĠSan":3537,"Ðµ":3538,"Ġfar":3539,"Util":3540,"mon":3541,"Ġwhether":3542,"Ġachi":3543,"widetilde":3544,"Ġproduction":3545,"Ġfrequ":3546,"Ġfri":3547,"Ġdays":3548,"Pos":3549,"Ġnov":3550,"sing":3551,"Ġhistor":3552,"ama":3553,"MS":3554,"Ġmiss":3555,"Ġrandom":3556,"ĠCO":3557,"BC":3558,"Ġworking":3559,"Ġtemper":3560,"ĠCalifornia":3561,"ico":3562,"Ġled":3563,"Ġhard":3564,"Rep":3565,"Ġlik":3566,"ĠAdd":3567,"Ġear":3568,"Ġra":3569,"Ġpage":3570,"Ġround":3571,"Ġcaus":3572,"verse":3573,"Ġglobal":3574,"come":3575,"orge":3576,"Act":3577,"Ġsom":3578,"ĠAc":3579,"Ġsuggest":3580,"avel":3581,"chan":3582,"ĠCour":3583,"jav":3584,"plies":3585,"Ġhalf":3586,"Ġtaken":3587,"dec":3588,"Ġservices":3589,"Ġthus":3590,"atform":3591,"Ġvideo":3592,"ires":3593,"Ġreview":3594,"Ġsurv":3595,"Ġphase":3596,"sembly":3597,"args":3598,"png":3599,"({":3600,"useum":3601,"Ġgoing":3602,"element":3603,"lib":3604,"ĠĠĠĠĠĠĠĠĊ":3605,"Ġtre":3606,"OS":3607,"}-":3608,"Ġtoo":3609,"client":3610,"ĠRev":3611,"Ġlines":3612,"Ġson":3613,"prop":3614,"Ġmight":3615,"book":3616,"ĠIndian":3617,"ara":3618,"iding":3619,"Ġpolitical":3620,"Ġpositive":3621,"burg":3622,"Ġengine":3623,"Ġregular":3624,"year":3625,"request":3626,"eline":3627,"Ġmaking":3628,"izing":3629,"level":3630,"imate":3631,"ĠTrans":3632,"ĠCup":3633,"adding":3634,"alle":3635,"tabular":3636,"ĠInt":3637,"hem":3638,"1999":3639,"Input":3640,"Ġang":3641,"Image":3642,"PI":3643,"Ġhapp":3644,"ha":3645,"oyal":3646,"utes":3647,"Ġground":3648,"Ġnorth":3649,"under":3650,"Ġlinear":3651,"Stream":3652,"ĠSim":3653,"Ġcontains":3654,"Ġgive":3655,"Ġreturned":3656,"Ġdynam":3657,"ills":3658,"Ġfields":3659,"server":3660,"unfinished":3661,"Ġproduced":3662,"Fig":3663,"ĠPresident":3664,"Ġ->":3665,"Ġsimple":3666,"Exp":3667,"Ġdisplay":3668,"tx":3669,"which":3670,"hood":3671,"Pol":3672,"has":3673,"Ġfuture":3674,"Ġproof":3675,"det":3676,"bb":3677,"yles":3678,"Status":3679,"Ġactiv":3680,"ota":3681,"Ġstep":3682,"oon":3683,"After":3684,"ĠAmerica":3685,"ressed":3686,"ccording":3687,"ensor":3688,"ocol":3689,"change":3690,"button":3691,"1990":3692,"Ġbehav":3693,"istry":3694,"eved":3695,"roy":3696,"ship":3697,"Sec":3698,"Block":3699,"08":3700,"ĠNULL":3701,"ibrary":3702,"riter":3703,"arser":3704,"gl":3705,"Ġdone":3706,"ades":3707,"atal":3708,"Ġconstr":3709,"spec":3710,"97":3711,"Ġboolean":3712,"Ġunit":3713,"Ġ<<":3714,"ellow":3715,"ĠĠĠĠĠĠĠĠĠĠĠĠĠĠ":3716,"ands":3717,"App":3718,")]":3719,"child":3720,"Ġcontinu":3721,"Ġcertain":3722,"ises":3723,"Ġrelated":3724,"Str":3725,"Gr":3726,"98":3727,"ĠSection":3728,"abase":3729,"ĠSince":3730,"thm":3731,"ĠDiv":3732,"su":3733,"Ã¼":3734,"Ġproposed":3735,"flow":3736,"Ġspecific":3737,"Ġmaterial":3738,"68":3739,"Ġscale":3740,"dr":3741,"append":3742,"Ġwent":3743,"Ġill":3744,"ĠClass":3745,"Nav":3746,"ĠLem":3747,"Line":3748,"Dec":3749,"iers":3750,"Base":3751,"ĠRiver":3752,"ĠTest":3753,"skip":3754,"func":3755,"Ġdefine":3756,"History":3757,"och":3758,"Ġofficial":3759,"Ġmulti":3760,"ONT":3761,"target":3762,"\\]":3763,"inst":3764,"case":3765,"Ġbroad":3766,"\\{":3767,"aches":3768,"ĠFirst":3769,"eh":3770,"Ġinstead":3771,"bottom":3772,"pc":3773,"Ġemb":3774,"Ġfather":3775,"itte":3776,"Ġadditional":3777,"Ġbeli":3778,"02":3779,"Ġheight":3780,"Ġclear":3781,"Lay":3782,"Ġda":3783,"ĠRepublic":3784,"ĠAustralia":3785,"Ġmove":3786,"Ġonce":3787,"sin":3788,"ĠEq":3789,"zeta":3790,"Ġattempt":3791,"77":3792,"prime":3793,"istics":3794,"Ġliter":3795,"Ġcontain":3796,"Ġben":3797,"igen":3798,"orage":3799,"Ġmoved":3800,"lands":3801,"omorph":3802,"Action":3803,"}+":3804,"Ġstar":3805,"ĠDis":3806,"ialog":3807,"cos":3808,"plicit":3809,"Ġrank":3810,"rup":3811,"omb":3812,"Ġ&=":3813,"ulations":3814,"Component":3815,"ĠRed":3816,"Ġwrite":3817,"izer":3818,"Instance":3819,"Attribute":3820,"Ġsubject":3821,"aker":3822,"Ġmeet":3823,"Ġcollection":3824,"CA":3825,"Ġfig":3826,"ĠGovern":3827,"ebug":3828,"scale":3829,"Ġsold":3830,"Ġreason":3831,"Sup":3832,"Ġsouth":3833,"Ġinstall":3834,"Ġload":3835,"atives":3836,"ĠIndia":3837,"Ġradi":3838,"inated":3839,"Ġexists":3840,"Ġaccording":3841,"Ġothers":3842,"Ġparticip":3843,"Ġalgorithm":3844,"Ġoperator":3845,"||":3846,"ĠâĢĺ":3847,"mail":3848,"Ġhttp":3849,"header":3850,"apping":3851,"Ġsymmet":3852,"Ġpur":3853,"elete":3854,"ids":3855,"}]":3856,"ael":3857,"vis":3858,"aging":3859,"first":3860,"Ġzero":3861,"ĠStud":3862,"Ġadded":3863,"aring":3864,"olic":3865,"OP":3866,"yl":3867,"local":3868,"46":3869,"Ġcenter":3870,"Ġeval":3871,"Ġnecess":3872,"Ġoffer":3873,"encies":3874,"btn":3875,"1998":3876,"unk":3877,"Source":3878,"Ġreported":3879,"ili":3880,"ĠBer":3881,"arian":3882,"ites":3883,"{(":3884,"andid":3885,"hel":3886,"sm":3887,"oding":3888,"ping":3889,"Ġvillage":3890,"Ġcontr":3891,"Ġmultiple":3892,"42":3893,"Ġdegree":3894,"ĠParty":3895,"Ġresource":3896,"uel":3897,"Ġ+=":3898,"like":3899,"Ġsearch":3900,"ĠDev":3901,"AG":3902,"han":3903,")=\\":3904,"Null":3905,"Ġprint":3906,"open":3907,"Handler":3908,"host":3909,"Ġdate":3910,"main":3911,"Ġmoment":3912,"ership":3913,"can":3914,"Ð¸":3915,"Token":3916,"ariant":3917,"Ġmedia":3918,"ĠTheorem":3919,"Ġwhose":3920,"icles":3921,"ĠNot":3922,"property":3923,"adian":3924,"ugin":3925,"rl":3926,"][":3927,"Ġfinite":3928,"EX":3929,"07":3930,"People":3931,"09":3932,"Ġchanges":3933,"Ġpast":3934,"Ġenvironment":3935,"ĠChurch":3936,"Ġthough":3937,"module":3938,"apter":3939,"Ġcannot":3940,"ĠGo":3941,"ĠMore":3942,"YPE":3943,"acity":3944,"ĠHol":3945,"board":3946,"Ġwest":3947,"Ġsuccessful":3948,"ĠCouncil":3949,"Ġannounced":3950,"Ġstatus":3951,"eger":3952,"Ġamount":3953,"ulated":3954,"acc":3955,"stitute":3956,"ĠGeneral":3957,"Ġseem":3958,"anish":3959,"dat":3960,"Ġbig":3961,"ATE":3962,";\\":3963,"iles":3964,"ĠSm":3965,"ĠAward":3966,"yr":3967,"Ġdouble":3968,"anies":3969,"ĠEuropean":3970,"navbar":3971,"ging":3972,"Ġtransform":3973,"Ġpopular":3974,"astic":3975,"imensional":3976,"Ġrecogn":3977,"Ġpress":3978,"Content":3979,"Ġaway":3980,"Ġinflu":3981,"Ġfem":3982,"select":3983,"Ġaward":3984,"ĠStr":3985,"Ġmilitary":3986,"ĠInter":3987,"}=\\":3988,"oto":3989,"Ġ\"\"\"":3990,"quare":3991,")}\\":3992,"Ġprior":3993,"adata":3994,"Link":3995,"Gener":3996,"Ġsurface":3997,"post":3998,"ĠDo":3999,"pdf":4000,"06":4001,"Ġcle":4002,"EC":4003,"chema":4004,"Ġviol":4005,"Living":4006,"Off":4007,"Ġaccept":4008,"ĠCanada":4009,"atory":4010,"REF":4011,"place":4012,"De":4013,"First":4014,"04":4015,"strong":4016,"58":4017,"la":4018,"Ge":4019,")^{":4020,"Equal":4021,"used":4022,"Ġinf":4023,"Ġlearning":4024,"gebra":4025,"96":4026,"Ġlarger":4027,"Ġepis":4028,"oriz":4029,"Ġcomponent":4030,"ĠBel":4031,"json":4032,"}_\\":4033,"Ġdistance":4034,"ĠFrom":4035,"There":4036,"ĠMark":4037,"Oper":4038,"Ġworked":4039,"03":4040,"ĠPort":4041,"Ġinternal":4042,"stream":4043,"Ġwindow":4044,"widehat":4045,"Ġfixed":4046,"Ġsw":4047,"xml":4048,"long":4049,"Ġrespons":4050,"Ġcapt":4051,"ĠChina":4052,"Options":4053,"ĠĠĠĠĠĠĠĠĠĠĠĠĊ":4054,"500":4055,"$)":4056,"ago":4057,"ftware":4058,"Ġmarket":4059,"ĠThat":4060,"ipal":4061,"Point":4062,"iform":4063,"more":4064,"Ġrather":4065,"Ġcome":4066,"Buffer":4067,"ris":4068,"ĠEm":4069,"Ġrelease":4070,"sg":4071,"ĠDem":4072,"Psi":4073,"idden":4074,"Ġareas":4075,"ĠÂ":4076,"Ġestablish":4077,"textwidth":4078,"rote":4079,"ributes":4080,"Ġequival":4081,"Ġpresident":4082,"Ġpredict":4083,"nected":4084,"UE":4085,"à¤":4086,"ario":4087,"agon":4088,"Ġjo":4089,"Spec":4090,"char":4091,"ĠArmy":4092,"ĠPal":4093,"ĠJames":4094,"Ġjob":4095,"ĠPaul":4096,"1996":4097,"Ġconstruction":4098,"Ġdeveloped":4099,"rowser":4100,"Run":4101,"Part":4102,"alax":4103,"ĠFrance":4104,"Ġfactor":4105,"${":4106,"Ġimprov":4107,"Ġtypes":4108,"izes":4109,"Resource":4110,"orthern":4111,"amily":4112,"Default":4113,"Ġentire":4114,"Ġhon":4115,"Ġprotected":4116,"Ġexact":4117,"berg":4118,"}^\\":4119,"57":4120,"Ġrat":4121,"elling":4122,"lemma":4123,"ĠOlymp":4124,"1980":4125,"Ġcomplete":4126,"Ġsequence":4127,"Ġeducation":4128,"icient":4129,"ĠThom":4130,"Function":4131,"Ġrights":4132,"ĠLaw":4133,"find":4134,"Char":4135,"aign":4136,"icult":4137,"operator":4138,"Ġmale":4139,"Ġeast":4140,"Ġkeep":4141,"Ġcustom":4142,"HT":4143,"rum":4144,"Ġleading":4145,".~":4146,"ya":4147,"Ġnatural":4148,"ĠSen":4149,"ptr":4150,"Ġtreat":4151,"ĠCenter":4152,"ication":4153,"ney":4154,"ĠRober":4155,"ĠRef":4156,"1997":4157,"Start":4158,"Wh":4159,"aints":4160,"icol":4161,"SC":4162,"Ġcoupl":4163,"otype":4164,"img":4165,"Ġremov":4166,"Ġdeaths":4167,"Ġlive":4168,"write":4169,"bound":4170,"Ġenough":4171,"Ġexperiment":4172,"meta":4173,"ka":4174,"Fl":4175,"Command":4176,"note":4177,"Ġneigh":4178,"ĠAnt":4179,"Ġfail":4180,"thing":4181,"ĠMy":4182,"font":4183,"ĠPat":4184,"One":4185,"Factory":4186,"ĠStreet":4187,"RA":4188,"OD":4189,"Ġactive":4190,"Box":4191,"description":4192,"ĠÃ":4193,"ensive":4194,"ming":4195,"LT":4196,",-":4197,"Ġobserved":4198,"ĠFil":4199,"Ġincludes":4200,"Ġwebs":4201,"ĠQue":4202,"ĠMal":4203,"Ġ]":4204,"irtual":4205,"Ġperformed":4206,"Ġreally":4207,"[\"":4208,"aching":4209,"Label":4210,"cdots":4211,"ĠGroup":4212,"ĠDavid":4213,"Ġunderstand":4214,"band":4215,"Ġfall":4216,"ittee":4217,"Ġconduct":4218,"Ġbg":4219,"ooth":4220,"88":4221,"itting":4222,"Ġappoint":4223,"Window":4224,"column":4225,"private":4226,"ida":4227,"ĠMor":4228,"otes":4229,"src":4230,"Number":4231,"close":4232,"ashington":4233,"Ġpolicy":4234,"ky":4235,"ething":4236,"ĠBlack":4237,"Ġcontract":4238,"van":4239,"ĉĉĉĉĉĉĉĉ":4240,"Ġarchitect":4241,"itude":4242,"Hel":4243,"abs":4244,"ĠCourt":4245,"Ġcut":4246,"Mem":4247,"Pre":4248,"ĠRoman":4249,"Ġ\\{":4250,"status":4251,"nce":4252,"ederal":4253,"1995":4254,"oo":4255,"ining":4256,"SU":4257,"Ġequal":4258,"Ġbox":4259,"ĠGeorge":4260,"Ġexecut":4261,"ĠNone":4262,"cing":4263,"Ġsample":4264,"Ġalmost":4265,"Ġprinc":4266,"west":4267,"Ġsets":4268,"len":4269,"ĠObject":4270,"num":4271,"Ġclosed":4272,"ramework":4273,"Ġprobability":4274,"equiv":4275,"Ġprec":4276,"Ġlocation":4277,"Ġcentral":4278,"ĠSum":4279,"asons":4280,"Ent":4281,"bert":4282,"cup":4283,"ville":4284,"Ġkind":4285,"ĠNe":4286,"Ext":4287,"ĠDepartment":4288,"Ġclient":4289,"riate":4290,"Ġlittle":4291,"Back":4292,"push":4293,"unity":4294,"}|":4295,"arily":4296,"ledge":4297,"Ġir":4298,"Prov":4299,"ifact":4300,"Ġparty":4301,"Ġtra":4302,"qquad":4303,"ria":4304,"Ġask":4305,"ein":4306,"Version":4307,"Ġextends":4308,"Ġprop":4309,"SI":4310,"iation":4311,"LASS":4312,"ĠRich":4313,".)":4314,"Ã¶":4315,"Return":4316,"Ġapplication":4317,"});":4318,"{{\\":4319,"*/":4320,"obj":4321,"std":4322,"oz":4323,"ctor":4324,"gener":4325,"anced":4326,"oms":4327,"FI":4328,"mid":4329,"pected":4330,"plications":4331,"command":4332,"ĠAssociation":4333,"arning":4334,"Ġstop":4335,"^+":4336,"outhern":4337,"anged":4338,"hspace":4339,"layout":4340,"ÑĤ":4341,"56":4342,"final":4343,"Ġtax":4344,"Ġdatas":4345,"Ġquantum":4346,"43":4347,"ĠIN":4348,"Ġlost":4349,"aur":4350,"Ġmid":4351,"unn":4352,"Ġweight":4353,"Ġintroduced":4354,"ascript":4355,"Ġforce":4356,"Ġreference":4357,"Ġoption":4358,"GL":4359,"mathsf":4360,"Ġrev":4361,"itch":4362,"ĠFigure":4363,"allet":4364,"Ġoperation":4365,"TO":4366,"split":4367,"Load":4368,"indent":4369,"atrix":4370,"raz":4371,"41":4372,"ĠReturn":4373,"Ġselected":4374,"signed":4375,"Ġwrote":4376,"Ġregard":4377,"Ġdirector":4378,"Ġquestion":4379,"Task":4380,"ua":4381,"Ġcopy":4382,"ba":4383,"dist":4384,"Vert":4385,"ted":4386,"ĠUnion":4387,"Ġaud":4388,"pack":4389,"py":4390,"icture":4391,"Page":4392,"Ġdefinition":4393,"process":4394,"Ġtherefore":4395,"rian":4396,"edd":4397,"ĠUp":4398,"ypes":4399,"hest":4400,"Ġmargin":4401,"})\\":4402,"Ġgenerated":4403,"star":4404,"Ġmag":4405,"Ġstage":4406,"imension":4407,"True":4408,"Ġbgcolor":4409,"ius":4410,"ened":4411,"Ġgives":4412,"}^{(":4413,"}}(":4414,"Ġcompar":4415,"reek":4416,"Ġcourse":4417,"1994":4418,"Ġpers":4419,"entry":4420,"Ġdecl":4421,"ston":4422,"ĠDon":4423,"Ð½":4424,"ander":4425,"Ġprovides":4426,"Ġroad":4427,"\"),":4428,"project":4429,"Check":4430,"OL":4431,"ully":4432,"yper":4433,"heet":4434,"Ġdebut":4435,"Ġdirection":4436,"\").":4437,"pite":4438,"Ġeffects":4439,"&=":4440,"Ġaccur":4441,"ĠFl":4442,"ĠHall":4443,"1970":4444,"Ġtaking":4445,"ores":4446,"fe":4447,"ĠRoyal":4448,"78":4449,"ailway":4450,"Ġinc":4451,"Det":4452,"Ġtransfer":4453,"atively":4454,"Ġrestr":4455,"Ġselect":4456,"Ġinit":4457,"Ġedge":4458,"stract":4459,"Ġitself":4460,"uate":4461,"ouch":4462,"po":4463,"Ġjoined":4464,"Ġpresented":4465,"iting":4466,"Ġrelationship":4467,"cel":4468,"appro":4469,"last":4470,"Ġmarried":4471,"wood":4472,"Ġfront":4473,"Per":4474,"Ġassume":4475,"Ġchall":4476,"Ġgoal":4477,"Ġmechan":4478,"Ġbasis":4479,"ios":4480,"}\\,":4481,"Ġupdate":4482,"edge":4483,"Cell":4484,"Ġcandid":4485,"xspace":4486,"Ġtemperature":4487,"1992":4488,"Ġcurrently":4489,"ocket":4490,"MM":4491,"Ġmonths":4492,"}/":4493,"Ġpolitic":4494,"Ġoccur":4495,"VER":4496,"Ġsays":4497,"onic":4498,"empty":4499,"Ġcompanies":4500,"Ġmakes":4501,"Ġmode":4502,"Ġ$(\\":4503,"rd":4504,"cial":4505,"Ġconcern":4506,"fill":4507,"Ġ{@":4508,"Ġincrease":4509,"Ġobjects":4510,"mem":4511,"ĠLou":4512,"Ġqual":4513,"isk":4514,"ani":4515,"Ġsuff":4516,"inally":4517,"Ġparts":4518,"acters":4519,"ĠDi":4520,"gin":4521,"Ġdiscover":4522,"Controller":4523,"Ġupon":4524,"stant":4525,"zer":4526,"Ġthrows":4527,"Bundle":4528,"Ġcoordin":4529,"oe":4530,"ĠDivision":4531,"ols":4532,"ĠWashington":4533,"CD":4534,"Ġlaun":4535,"Ġoffice":4536,"Ġdeal":4537,"witch":4538,"Ġdifficult":4539,"rief":4540,"ĠCr":4541,"Ġcontinue":4542,"Row":4543,"Ġdirectly":4544,"member":4545,"Ġcompleted":4546,"pass":4547,"Ġanaly":4548,"format":4549,"ĠGermany":4550,"ql":4551,"Ġpercent":4552,"olve":4553,"Ġformat":4554,"Ġunique":4555,"Ġten":4556,"IM":4557,"HE":4558,"eloc":4559,"stry":4560,"alian":4561,"eal":4562,"rule":4563,"Ġ((":4564,"Ġexcept":4565,"ĠMart":4566,"Eng":4567,"agram":4568,"Ġwebsite":4569,"ĠCompany":4570,"ĠArch":4571,"Ġshall":4572,"ini":4573,"ln":4574,"Ġissue":4575,"annot":4576,"Ġholds":4577,"Ab":4578,"Ġimages":4579,"enced":4580,"Ġiter":4581,"Met":4582,"Ġwhite":4583,"Ġmodule":4584,"59":4585,"aven":4586,"Ġ&\\":4587,"Ġ<!--":4588,"Ġchurch":4589,"Ġalthough":4590,"endif":4591,"Ġthings":4592,"Ġadministr":4593,"Ġdeb":4594,"Ġnav":4595,"Ġvict":4596,"}\\\\":4597,"igger":4598,"ĠMary":4599,"normal":4600,"Ġprofessional":4601,"ughter":4602,"\"]":4603,"Em":4604,"Ġdraw":4605,"(-":4606,"ĠJer":4607,"javascript":4608,"Ġsound":4609,"Ġnovel":4610,"Ġcontinued":4611,"AA":4612,"Ġsaf":4613,"Ġeffective":4614,"achine":4615,"ĠThus":4616,"response":4617,"///":4618,"params":4619,"ĠInstitute":4620,"1993":4621,"Ġnote":4622,"Ġdetails":4623,"Column":4624,"ĠUK":4625,"}:":4626,"ilton":4627,"Ġcompared":4628,"FONT":4629,"ĠCons":4630,"Ġallowed":4631,"Ġproblems":4632,"den":4633,"inese":4634,"ĠPe":4635,"Ġrepresentation":4636,"uz":4637,"Ġuses":4638,"Ġcountries":4639,"ĠMount":4640,"Create":4641,"ĠAustralian":4642,"Dev":4643,"Ġsupported":4644,"Ġdefe":4645,"ĠSub":4646,"number":4647,"SON":4648,"Ġcorrect":4649,"Ġstream":4650,"Ġmaximum":4651,"uated":4652,"Ob":4653,"When":4654,"Ġspin":4655,"Ġspecified":4656,"Ġimpact":4657,"Ġopened":4658,"Ġstre":4659,"Child":4660,"erve":4661,"ett":4662,"Ġauto":4663,"rows":4664,"Ġconver":4665,"Tem":4666,"({\\":4667,"Ġanim":4668,"Ġfa":4669,"ÑĢ":4670,"eck":4671,"ĠVol":4672,"Ġsigned":4673,"Ġsetting":4674,"Ġsett":4675,"else":4676,"Ġintegr":4677,"tic":4678,"container":4679,"ĠDuring":4680,"ĠLemma":4681,"pecially":4682,"Ġboundary":4683,"Ġchannel":4684,"Ġcatch":4685,"Ġlargest":4686,"ategy":4687,"Ġgot":4688,"Ġstudies":4689,"INT":4690,"Read":4691,"Ġtree":4692,"Ġoperations":4693,"Ġpattern":4694,"Aut":4695,"show":4696,"Ġtakes":4697,"update":4698,"Ġsomething":4699,"Ġgalax":4700,"Rem":4701,"Ġunc":4702,"Ġrot":4703,"filter":4704,"acher":4705,"Ġadj":4706,"ĠRem":4707,"Ġissues":4708,"Ġnames":4709,"51":4710,"onstr":4711,"Last":4712,"Ġearli":4713,"sole":4714,"&&":4715,")-":4716,"Ġrelative":4717,"ĠPress":4718,"Ġwords":4719,"Style":4720,"Ġbit":4721,"PC":4722,"Ġnone":4723,"only":4724,"Ġacqu":4725,"ias":4726,"ĠBay":4727,"NO":4728,"Ġassist":4729,"Ġteams":4730,"Ġagre":4731,"Ġfav":4732,"]$":4733,"ams":4734,"oul":4735,"Ġurl":4736,"clusion":4737,"Ġcourt":4738,"Listener":4739,"Ġfont":4740,"reference":4741,"ĠWhile":4742,"Ġradio":4743,"Ġcast":4744,"ĠAcadem":4745,"ĠMet":4746,"ĠFranc":4747,"Ġconnection":4748,"hi":4749,"iler":4750,"ees":4751,"ancial":4752,"bin":4753,"asc":4754,"{}":4755,"Since":4756,".$":4757,"Ġinterface":4758,"cr":4759,"ABLE":4760,"ĠSing":4761,"Ġeffort":4762,"stack":4763,"rip":4764,"scr":4765,"Format":4766,"Web":4767,"ds":4768,"Ag":4769,"ĠTV":4770,"ĠMex":4771,"ĠDirect":4772,"Ġrock":4773,"ĠMusic":4774,"Ġrunning":4775,"ros":4776,"background":4777,"Ġmother":4778,"Ġinvolved":4779,"service":4780,"ĠVir":4781,"eles":4782,"ĠSociety":4783,"Ġsongs":4784,"ĠProv":4785,"itar":4786,"refix":4787,"Ġjud":4788,"Ġbrother":4789,"54":4790,"Ġupper":4791,"Ġequations":4792,"Ã¤":4793,"1991":4794,"arks":4795,"Ġnumbers":4796,"Ġmatter":4797,"Ġfire":4798,"Ġoptim":4799,"izations":4800,"Ġmodern":4801,"Sim":4802,"Ġtransition":4803,"ĠRobert":4804,"Co":4805,"76":4806,"(&":4807,"Ġinj":4808,"mt":4809,"Ġneeded":4810,"citet":4811,"unt":4812,"Ġhtt":4813,"rael":4814,"ena":4815,"grad":4816,"bour":4817,"ĠCong":4818,"Open":4819,"that":4820,"Ġwife":4821,"ously":4822,"Ġthought":4823,"Ġword":4824,"menu":4825,"Ġvoc":4826,"Ġrecorded":4827,"TP":4828,"onom":4829,"âĢ¦":4830,"Ġstars":4831,"Ġliving":4832,"Ġlot":4833,"Ġdeep":4834,"uid":4835,"tag":4836,"Ġphysical":4837,"ĠRoad":4838,"Ġoutside":4839,"94":4840,"Ġgas":4841,":</":4842,"ensus":4843,"Ġsolid":4844,"DB":4845,"ĠGreen":4846,"XX":4847,"asket":4848,"UI":4849,"ĠApp":4850,"rypt":4851,"Ġcomponents":4852,"{{":4853,"Ġdomain":4854,"Ġhimself":4855,"Mode":4856,"Button":4857,"umerate":4858,"Ġrule":4859,"layer":4860,"osen":4861,"Ġfilter":4862,"isions":4863,"iences":4864,"liament":4865,"Ġyet":4866,"ĠSome":4867,"Ġtour":4868,"attr":4869,"52":4870,"remove":4871,"ospital":4872,"Ġhttps":4873,"Filter":4874,"Ġfollowed":4875,"Ġapplied":4876,"Ġquery":4877,"ĠĠĠĠĠĠĠĠĠĠĠĠĠĠĠĠĠĠĠĠĠĠĠĠĠĠĠĠĠĠĠĠĠĠĠ":4878,"Ġflo":4879,"ĠCap":4880,"ĠGl":4881,"Ġformed":4882,"Ġtim":4883,"Equals":4884,"Ġthroughout":4885,"ĠJack":4886,"cs":4887,"ube":4888,"<?":4889,"cd":4890,"Ġ(\"":4891,"Ġschools":4892,"styles":4893,"NN":4894,"ĠNor":4895,"BU":4896,"Ġdifference":4897,"Valid":4898,"Ġseg":4899,"Ġpain":4900,"edia":4901,"Ġcampaign":4902,"Ġwriting":4903,"values":4904,"Ġdesigned":4905,"Length":4906,"arter":4907,"depend":4908,"AM":4909,"```":4910,"antic":4911,"ĠService":4912,"Ġvers":4913,"igr":4914,"gs":4915,"Ġserver":4916,"Ġusually":4917,"Ġdenote":4918,"ĠTex":4919,"ometry":4920,"neq":4921,"Ġlikely":4922,"resh":4923,"ĠMat":4924,"Ġincreasing":4925,"oring":4926,"buf":4927,"ca":4928,"Ġdirected":4929,"Ġespecially":4930,"Ġdecision":4931,"ilies":4932,"inner":4933,"ansion":4934,"files":4935,"Ġcred":4936,"edy":4937,"Ġvariables":4938,"Ġdescription":4939,"umni":4940,"isation":4941,"dep":4942,"Ġ...":4943,"agger":4944,"ĠOff":4945,"Ġexperience":4946,"URL":4947,"Ġconstit":4948,"Br":4949,"Ġtro":4950,"wrap":4951,"IV":4952,"Us":4953,"ĠHen":4954,"93":4955,"Ġdemonstr":4956,"Ġcharacters":4957,"Ġtransl":4958,"scope":4959,"Ġallows":4960,"ĠAfrican":4961,"Ġexpression":4962,"Ġess":4963,"Ġkm":4964,"Ġrace":4965,"}+\\":4966,"Ġmention":4967,"Ġyield":4968,"ERT":4969,"Ġsmaller":4970,"BA":4971,"'$":4972,"|^":4973,"ĠWeb":4974,"sey":4975,"Ġrelig":4976,"ying":4977,"Ġbank":4978,"Ġbecomes":4979,"Ġvariable":4980,"oder":4981,">>":4982,"lease":4983,"km":4984,"ĠIsland":4985,"Ġscen":4986,"Ġinstit":4987,"oded":4988,"ĠNote":4989,"92":4990,"Ġveloc":4991,"efined":4992,"Ġbar":4993,"otal":4994,"Ġinvestig":4995,"Ġsens":4996,"Ġ;":4997,"Ġwhole":4998,"Ġship":4999,"ano":5000,"iments":5001,"ĠAfrica":5002,"////////////////":5003,"ona":5004,"Collection":5005,"1960":5006,"ĠJew":5007,"Ġentry":5008,"estival":5009,"uit":5010,"Ġdig":5011,"Ġtalk":5012,"ĠCLASS":5013,"PRO":5014,"Ġappeared":5015,"ĠSam":5016,"Ġprimary":5017,"Ġautom":5018,"aud":5019,"operatorname":5020,"Ġrelation":5021,"ĠCanadian":5022,"Ġunits":5023,"example":5024,"}}{\\":5025,"FT":5026,"obile":5027,"ĠMiss":5028,"ĠGod":5029,"mission":5030,"Ġhous":5031,"Ġimmedi":5032,"aine":5033,"53":5034,"Ġplaying":5035,"Ġsolutions":5036,"Ġsources":5037,"Ġsignal":5038,"inding":5039,"Ġtoday":5040,"pat":5041,"ci":5042,"').":5043,"Address":5044,"Next":5045,"Ġ-\\":5046,"ao":5047,"ares":5048,"Ġ~":5049,"Net":5050,"_.":5051,"greg":5052,"oice":5053,"evel":5054,"ĠWork":5055,"ĠType":5056,"Layout":5057,"ĠCath":5058,"sd":5059,"classes":5060,"ĠOut":5061,"ĠSpec":5062,"Le":5063,"Ġbenef":5064,"Ġchanged":5065,"Ġnuc":5066,"ĠTur":5067,"ĠAlex":5068,"Ġclasses":5069,"Ġroot":5070,"ala":5071,"EL":5072,"Ġfiles":5073,"Cache":5074,"Ġapply":5075,"]\\":5076,"Ġeight":5077,"ĠEar":5078,"ĠJust":5079,"theorem":5080,"Par":5081,"unit":5082,"1989":5083,"Ġselection":5084,"ĠChe":5085,"ĠID":5086,"}-\\":5087,"ĠFound":5088,"Top":5089,"road":5090,"Ġsubsequ":5091,"Update":5092,"Ġmonth":5093,"ĠMuseum":5094,"ĠLeg":5095,"Ġindustry":5096,"Ġbehavior":5097,"Select":5098,"offset":5099,"ĠData":5100,"very":5101,"Ġactually":5102,"kit":5103,"ĠKingdom":5104,"inct":5105,"anger":5106,"ND":5107,"Ġforces":5108,"91":5109,"ĠWil":5110,"ingu":5111,"Ġimm":5112,"Ġmar":5113,"ectors":5114,"rea":5115,"Ġexhib":5116,"auge":5117,"Ġneeds":5118,"elves":5119,"ĠHREF":5120,"ifying":5121,"ĠTable":5122,"ERR":5123,"ĠMac":5124,"alls":5125,"Ġcoeff":5126,"enumerate":5127,"Work":5128,"Ð¾Ð":5129,"Ġpolice":5130,"airs":5131,"noindent":5132,"SO":5133,"Ñģ":5134,"Max":5135,"PO":5136,"ĠThomas":5137,"Ġpersonal":5138,"Ġaltern":5139,"Ġprove":5140,"ĠDemocr":5141,"Ġax":5142,"Ġord":5143,"Frame":5144,"omial":5145,"Ġbooks":5146,"ĠPublic":5147,"Description":5148,"Min":5149,"SD":5150,"Ġframe":5151,"ĠMer":5152,"rial":5153,"ĠWhite":5154,"itemize":5155,"Ġtransport":5156,"dimensional":5157,"ĠOb":5158,"ĠCentral":5159,"Ġnecessary":5160,"Ġlonger":5161,"Pi":5162,"weight":5163,"Ġnom":5164,"$(":5165,"ĠYear":5166,"aml":5167,"PR":5168,"Ġimplies":5169,"Ġexpand":5170,"icted":5171,"matrix":5172,"instance":5173,"usion":5174,"tex":5175,"tree":5176,"then":5177,"Ġexpress":5178,"ĠRussian":5179,"Ġ!==":5180,"Ġargument":5181,"72":5182,"ĠClub":5183,"Ġspeed":5184,"Ġcritical":5185,"ĠOther":5186,"Ġnodes":5187,"ĠOpen":5188,"adow":5189,"idents":5190,"Ġpreviously":5191,"Ġconcept":5192,"={":5193,"ĠScience":5194,"ĠGold":5195,"Ġmoney":5196,"ducation":5197,"1988":5198,"di":5199,"ĠTown":5200,"ĠDay":5201,"CON":5202,"fg":5203,"Ġevidence":5204,"clude":5205,"Ġdam":5206,"Ġreve":5207,"ĠBest":5208,"CL":5209,"ĠAccording":5210,"Ġgave":5211,"ĠChristian":5212,"linear":5213,"isher":5214,"ĠMag":5215,"Ġdrop":5216,"Ġsense":5217,"Tree":5218,"eft":5219,"ĠChinese":5220,"output":5221,"Ġsex":5222,"ĠBook":5223,")}{":5224,"}}}":5225,"Ġremains":5226,"ipp":5227,"ĠMinister":5228,"Output":5229,"Ġface":5230,"Ġtowards":5231,"Ġfailed":5232,"well":5233,"Ġfeel":5234,"Ġpassed":5235,"Case":5236,"([":5237,"Ġlove":5238,"ussian":5239,"arp":5240,"ĠHT":5241,"Note":5242,"Ġsus":5243,"Ġfriend":5244,"mes":5245,"Ġfounded":5246,"ĠMichael":5247,"break":5248,"reme":5249,"ĠGames":5250,"ura":5251,"multicol":5252,"Dr":5253,"support":5254,"Ġsil":5255,"Ġbirth":5256,"Vis":5257,"Ġcivil":5258,"Ġadapt":5259,"Ġscreen":5260,"./":5261,"anning":5262,"86":5263,"Ġelected":5264,"sets":5265,"Url":5266,"Ġconfiguration":5267,"Server":5268,"ĠJapanese":5269,"ĠTexas":5270,"ĠOF":5271,"force":5272,"++)":5273,"Ġavoid":5274,"aa":5275,"Ġforward":5276,"soft":5277,"ĠMod":5278,"ĠWestern":5279,"85":5280,"Ġjournal":5281,"ĠSy":5282,"PP":5283,"Ġidea":5284,"sign":5285,"IO":5286,"common":5287,"float":5288,"Can":5289,"COL":5290,"Ġevolution":5291,"Ġsymbol":5292,"require":5293,"********************************":5294,"Provider":5295,"Ġmemory":5296,"irit":5297,"allel":5298,")}$":5299,"multicolumn":5300,"ĠSee":5301,"Ġcallback":5302,"utils":5303,"Ġ[]":5304,"ĠScott":5305,"Width":5306,"ictor":5307,"300":5308,"=\"../../../../../":5309,"vspace":5310,"Ġemer":5311,"jection":5312,"asketball":5313,"ĠEX":5314,"Ġalgebra":5315,"Ġproced":5316,"ĠAcademy":5317,"Ġstudied":5318,"Ġonline":5319,"ometimes":5320,"Ġmix":5321,"Ġreturns":5322,"essages":5323,"olar":5324,"Ġboard":5325,"Ġbehind":5326,"mathscr":5327,"Ġalbums":5328,"Ġchoice":5329,"Ġpeak":5330,"Ġelectron":5331,"Ġnight":5332,"Ġmaintain":5333,"Ġappointed":5334,"Types":5335,"Ġwriter":5336,"=#":5337,"Access":5338,"........":5339,"Ġconnected":5340,"itory":5341,"track":5342,"ici":5343,"ening":5344,"older":5345,"gence":5346,"Ġsimply":5347,"ĠVirgin":5348,"Ġreplaced":5349,"ĠTherefore":5350,"chedul":5351,"ategor":5352,"gn":5353,"bes":5354,"Ġstructures":5355,"author":5356,"ĠMad":5357,"ĠHistor":5358,"artifact":5359,"Ġplaces":5360,"frame":5361,"root":5362,"ĠGrand":5363,"ĠHow":5364,"ĠArray":5365,"ĉĉĉĉĉĉĉ":5366,"Ġremove":5367,"lic":5368,"reland":5369,"ĠMont":5370,"ĠBill":5371,"ĠFrancis":5372,"rupt":5373,"ĠResearch":5374,"ĠLouis":5375,"Ġconnect":5376,"ved":5377,"Ġer":5378,"ĠSk":5379,"\\,\\":5380,"language":5381,"orizont":5382,"fit":5383,"Ġcapital":5384,"oub":5385,"Ġsecurity":5386,"Entry":5387,"Ġcharg":5388,"ĠSal":5389,"Ġnews":5390,"Ġconsum":5391,"Ġregions":5392,"Entity":5393,"63":5394,"Ġlimited":5395,"ĠSl":5396,"Ġseven":5397,"ĠKore":5398,"1987":5399,"ĠIsrael":5400,"ecution":5401,"ĠTom":5402,"Ġdecre":5403,"nov":5404,"press":5405,"ĠLog":5406,"template":5407,"errit":5408,"comple":5409,"Ġvisit":5410,"thon":5411,"document":5412,"Ġdram":5413,"ean":5414,"isl":5415,"ĠHistory":5416,"Ġweak":5417,"azine":5418,"Ġmus":5419,"inv":5420,"ĠGreat":5421,"Ġstaff":5422,"Ġmount":5423,"Ġarticle":5424,"Ġmagnetic":5425,"Ġprote":5426,"Ġdaughter":5427,"ĠForm":5428,"conf":5429,"Ġequivalent":5430,"Ġfight":5431,"vention":5432,"ĠCarol":5433,"Ġdetermined":5434,"otion":5435,"ãģ":5436,"porary":5437,"400":5438,"ĠRecords":5439,"prototype":5440,"AV":5441,"Fe":5442,"Ġrules":5443,"opl":5444,"Ġexisting":5445,"ĠNS":5446,"Ġpack":5447,"ulture":5448,"Ġrepresented":5449,"ĠCharles":5450,"Ġjoin":5451,"gu":5452,"illa":5453,"Target":5454,"$}":5455,"Ġvirtual":5456,"thlet":5457,"Ġpractice":5458,"Ġlayer":5459,"elt":5460,"Bo":5461,"Ġded":5462,"%%":5463,"models":5464,"Ġmissing":5465,"arts":5466,"norm":5467,"Ġinterpre":5468,"Ġleague":5469,"anges":5470,"1986":5471,"Tag":5472,"dated":5473,"window":5474,"Ġ**":5475,"ĠĠĠĊ":5476,"za":5477,"Ġinside":5478,"Ġstarting":5479,"ĠCommission":5480,"NAME":5481,"ĠFrank":5482,"}}_":5483,"Ġscient":5484,"ĠSmith":5485,"gle":5486,"Ġrob":5487,"Ġwid":5488,"Ġsports":5489,"Ġshare":5490,"parse":5491,"ĠHealth":5492,"62":5493,"Ġestimate":5494,"ĠPo":5495,"miss":5496,"Ġmanagement":5497,"}'":5498,"Ġfit":5499,"crete":5500,"ĠTor":5501,"=\"-":5502,"Ġbelong":5503,"Ġtell":5504,"Rel":5505,"Ġsure":5506,"Unit":5507,"orse":5508,"ponents":5509,"Ġexplicit":5510,"Ġwhy":5511,"Ġfood":5512,"Ġcharge":5513,"ĠTime":5514,"Ġfra":5515,"Te":5516,"ita":5517,"ĠDec":5518,"Ġsaw":5519,"etch":5520,"ĠLicense":5521,"PS":5522,"FL":5523,"ĠFore":5524,"Op":5525,"ĠAPI":5526,"Ġkilled":5527,"istan":5528,"Ġregister":5529,"Utils":5530,"uan":5531,"otic":5532,"Ġstated":5533,"vant":5534,"87":5535,"Offset":5536,"Ġresulting":5537,"illing":5538,"Ġearlier":5539,"hr":5540,"ĠMus":5541,"Ġgenerally":5542,"Ġfloat":5543,"^-":5544,"atur":5545,"proto":5546,"ĠJose":5547,"ĠOper":5548,"Parameter":5549,"ĠItalian":5550,"Ġcomes":5551,"Ġauth":5552,"ournament":5553,"\\\"":5554,"Ġorigin":5555,"\\}$":5556,"bon":5557,"ĠSuper":5558,"1984":5559,"iny":5560,"orial":5561,"ernel":5562,"ĠBen":5563,"Ġsoftware":5564,"61":5565,"Ġknowledge":5566,"Ġdoc":5567,"Ġdimension":5568,"ĠLat":5569,"ootstr":5570,"'),":5571,"Ġbeginning":5572,"(_":5573,"Ġillustr":5574,"hent":5575,"ĠNews":5576,"Ġremain":5577,"erman":5578,"ollowing":5579,"Ġepisode":5580,"Ġsen":5581,"ecute":5582,"Mon":5583,"Then":5584,"orizontal":5585,"Ġbuildings":5586,"fa":5587,"ĠGL":5588,"Ġplatform":5589,"Ġque":5590,"typ":5591,"You":5592,"TYPE":5593,"scal":5594,"ĠDel":5595,"ĠSecond":5596,"resource":5597,"ĠDan":5598,"ounter":5599,"Ġstreng":5600,"Ġhit":5601,"Ġcollect":5602,"ĠMem":5603,"Ġclassical":5604,"IF":5605,"uge":5606,"Ġfinished":5607,"ĠZeal":5608,"Ġspectrum":5609,"ye":5610,")+":5611,"Ġrecover":5612,"Ġcomment":5613,"Ġlevels":5614,"Ġratio":5615,"Ġneut":5616,"Ġobj":5617,"gate":5618,"Ġeventually":5619,"ctx":5620,"ĉĉĊ":5621,"mercial":5622,"wait":5623,"Ġguitar":5624,"criptor":5625,"ih":5626,"itz":5627,"()->":5628,"Ġargs":5629,"1985":5630,"graph":5631,"ĠFlor":5632,"Ġreached":5633,"ircraft":5634,"Ġshape":5635,"Ġforms":5636,"modal":5637,"RL":5638,"free":5639,"riz":5640,"ĠGovernment":5641,"etime":5642,"=\"../../../../../../":5643,"Enc":5644,"Ġvelocity":5645,"ĠZealand":5646,"approx":5647,"Ġtrain":5648,"after":5649,"ĠPre":5650,"Ġcounter":5651,"ZE":5652,"Ġdescribe":5653,"Ġveh":5654,"atre":5655,"system":5656,"Header":5657,"task":5658,"Control":5659,"Configuration":5660,"DF":5661,"icago":5662,"Ġeigen":5663,"Ġcoach":5664,"Ġlatter":5665,"Ġnature":5666,"Ġreading":5667,"ĠGa":5668,"79":5669,"Container":5670,"Ġcontact":5671,"ulate":5672,"ĠTechn":5673,"ki":5674,"Ġopport":5675,"Ġdevice":5676,"Sy":5677,"ecause":5678,"erved":5679,"Ġnegative":5680,"Ġlisted":5681,")/":5682,"Ġextended":5683,"Ġfamilies":5684,"ĠEv":5685,"Ġste":5686,"ynch":5687,"bool":5688,"Ġgrant":5689,"74":5690,"Ġadopt":5691,"'re":5692,"vector":5693,"Ġhighest":5694,"ĉĠĠĠ":5695,"iginal":5696,"rib":5697,"Ġstore":5698,"oma":5699,"ãĥ":5700,"Ġrender":5701,"Ġprogress":5702,"images":5703,"fficient":5704,"Ġoccup":5705,"########":5706,"Ġruns":5707,"69":5708,"artifactId":5709,"nap":5710,"FC":5711,"shire":5712,"ĠCE":5713,"Ġotherwise":5714,"Ġgrowth":5715,"Ġcause":5716,"ĠRob":5717,"mas":5718,"Ġtravel":5719,"Ġstatement":5720,"ootstrap":5721,"aled":5722,"Ġscope":5723,"related":5724,"irl":5725,"Ġ\\|":5726,"73":5727,"Ġculture":5728,"heast":5729,"ATION":5730,"icket":5731,"Ġmeaning":5732,"ether":5733,"Ġscore":5734,"itable":5735,"should":5736,"Ġtechnology":5737,"returns":5738,"ĠPeter":5739,"UM":5740,"Ġfigure":5741,"Ġdoesn":5742,"Ġquality":5743,"oute":5744,"Ġarguments":5745,"Ġappears":5746,"kr":5747,"Ġproducts":5748,"Ġartists":5749,"Ġlack":5750,"expected":5751,"Current":5752,"bul":5753,"Ġvolume":5754,"card":5755,"drop":5756,"Ġscience":5757,"ĠSummer":5758,"Ġquick":5759,"That":5760,"]);":5761,"texttt":5762,"iance":5763,"term":5764,"Ġrecon":5765,"Ġball":5766,"ĠOlympics":5767,"Ġcam":5768,"writ":5769,"Ġfemale":5770,"ĠCatholic":5771,"lam":5772,"tim":5773,"resents":5774,"Ġextension":5775,"ws":5776,"Ġoverall":5777,"win":5778,"Ġhandle":5779,"Now":5780,"SH":5781,"71":5782,"Ġstudent":5783,"Ġbur":5784,"Ġincreased":5785,"before":5786,"Ġempty":5787,"Ġalumni":5788,"FO":5789,"Ġoriginally":5790,"Ġtit":5791,"second":5792,"ĠLos":5793,"control":5794,"cat":5795,"ĠParis":5796,"ĠMass":5797,"ĠRichard":5798,"ental":5799,"Ġsort":5800,"Track":5801,"real":5802,"flict":5803,"Ġcop":5804,"1983":5805,"elebr":5806,"anned":5807,"Ġfootballers":5808,"Ġpick":5809,"ĠSur":5810,"Ġtold":5811,"ĠOffic":5812,"Ġpresence":5813,"Ġeconomic":5814,"Ġca":5815,"rics":5816,"Ġfinancial":5817,"Po":5818,"MD":5819,"Ġdestroy":5820,"Position":5821,"bas":5822,"iverse":5823,"eval":5824,"olved":5825,"Ġsufficient":5826,"Ġproper":5827,"Ġfrequency":5828,"Ġorganization":5829,"igan":5830,"pop":5831,"Schema":5832,"ympt":5833,"Ġaim":5834,"Ġcollege":5835,"Location":5836,"token":5837,"Ġbuffer":5838,"reshold":5839,"fs":5840,"ĠIreland":5841,"Ġmovement":5842,"Ġbring":5843,"ĠHill":5844,";\"":5845,"ĠCommittee":5846,"Ġrecently":5847,"agment":5848,"Interface":5849,"1000":5850,"Ġuncertain":5851,"rey":5852,"emic":5853,"rees":5854,"Ġgold":5855,">,":5856,"match":5857,"Ġcluster":5858,"ĠĠĠĠĠĠĠĠĠĠĠĠĠĠĠĠĠĠĠĠĠ":5859,"Ġlegal":5860,"Height":5861,"underline":5862,"1950":5863,"Ġminimum":5864,":\"":5865,"Mar":5866,"Ġdataset":5867,"Ġframework":5868,"_{{\\":5869,"groupId":5870,"Ġresources":5871,"anta":5872,"Ġtheorem":5873,"CK":5874,"ĠDet":5875,"Ġwalk":5876,"olute":5877,"bitr":5878,"tical":5879,"ancy":5880,"Ġuniform":5881,"kind":5882,"Ġwave":5883,"Post":5884,"ĠFootball":5885,"cache":5886,"Ġattention":5887,"Ġanti":5888,"ĠHamilton":5889,"SA":5890,"ĠCongress":5891,"tml":5892,"Theta":5893,"Ġfinally":5894,"Pop":5895,"ĠFile":5896,"buffer":5897,"Ġagreement":5898,"Ġtrade":5899,"Ġstri":5900,"ĠOur":5901,"ĠAssembly":5902,"Ġrepe":5903,"Ġsoon":5904,"eler":5905,"Callback":5906,"Ġfully":5907,"uty":5908,"~$":5909,"elopment":5910,"Ġincor":5911,"present":5912,"iece":5913,"Ġeditor":5914,"DD":5915,"Ġplant":5916,"uint":5917,"Sl":5918,"iller":5919,"Ġmanager":5920,"ĠGeorg":5921,"Font":5922,"KE":5923,"Ġerrors":5924,"Ġgauge":5925,"Ġapproximately":5926,"Ġparticularly":5927,"cur":5928,"Ġlen":5929,"olt":5930,"Ġbre":5931,"omic":5932,"Ġoperators":5933,"azz":5934,"Ġbrought":5935,"Ġmetric":5936,"CP":5937,"Ġactual":5938,"mselves":5939,"Ġoffset":5940,"Write":5941,"QL":5942,"ker":5943,"Ġplaced":5944,"ĠHel":5945,"Ġrap":5946,"enge":5947,"Right":5948,"Ġstations":5949,"Ġmunic":5950,"Ġscheme":5951,"retary":5952,"Process":5953,"ĠPenn":5954,"imary":5955,"stylesheet":5956,"ĠAtt":5957,"equal":5958,"1982":5959,"Ġensure":5960,"ĠVer":5961,"Ġconsists":5962,"war":5963,"Ġrequires":5964,"ĠBuild":5965,"Local":5966,"Ġremaining":5967,"ĠBase":5968,"ĠOver":5969,"Ġhours":5970,"subseteq":5971,"{$":5972,"parameter":5973,"Range":5974,"ervices":5975,"Empty":5976,"ĠForce":5977,"ĠWomen":5978,"Search":5979,"Http":5980,"Ġ{}":5981,"Ġdecided":5982,":(":5983,"olf":5984,"Ġcit":5985,"82":5986,"Ġhyper":5987,"89":5988,"ĠOrder":5989,"Ġthemselves":5990,"Ġderiv":5991,"ĠFin":5992,"Ġhot":5993,"Ġderived":5994,"EM":5995,"Ġfourth":5996,"Ġign":5997,"iring":5998,"acement":5999,"Ġusers":6000,"ĠHere":6001,"Ġartist":6002,"ĠArg":6003,"Ġreduced":6004,"Acc":6005,"Results":6006,"Ġvan":6007,"ĠPost":6008,"ĠMo":6009,"razil":6010,"Ã³n":6011,"Ġmiddle":6012,"1979":6013,"Level":6014,"oviet":6015,"Ġnorm":6016,"mitted":6017,"ette":6018,"Ġestimated":6019,"Ġleader":6020,"Ġuint":6021,"Ġmedical":6022,"Ġpor":6023,"ĠReturns":6024,"84":6025,"urt":6026,"olid":6027,"Ġdark":6028,"Ġwide":6029,"Ġansw":6030,"ynomial":6031,"cover":6032,"ĠRock":6033,"Ġchosen":6034,"Ġfix":6035,"Ġreli":6036,"pg":6037,"CODE":6038,"kin":6039,"Ġslow":6040,"ocation":6041,"ĠVictor":6042,"ĠST":6043,"isms":6044,"Port":6045,"'>":6046,"Ġcontaining":6047,"ĠMel":6048,"Module":6049,"Ġprofile":6050,"ĠField":6051,"Ġnoted":6052,"ashed":6053,"Stat":6054,"ipl":6055,"minus":6056,"Ġpurch":6057,"Ġprem":6058,"ĠSpanish":6059,"Ġprevent":6060,"LS":6061,"---":6062,"Ġsch":6063,"Ġ*)":6064,"prod":6065,"Ġpadding":6066,"Ġdetermine":6067,"Thread":6068,"Direct":6069,"icated":6070,"Ġexception":6071,"rect":6072,"ĠNow":6073,"Ġpen":6074,"ufact":6075,"Ġneighbor":6076,"oles":6077,"iders":6078,"\"));":6079,"umin":6080,"ART":6081,"Ġalt":6082,"cope":6083,"Ġprograms":6084,"range":6085,"ĠIll":6086,"Menu":6087,"Am":6088,"nel":6089,"jo":6090,"So":6091,"black":6092,"VAL":6093,"Ġextra":6094,"uri":6095,"ĠVirginia":6096,"border":6097,"Do":6098,"Ġpanel":6099,"Ġremained":6100,"Ġidentity":6101,"apse":6102,"Ġcategory":6103,"Ġcore":6104,"Script":6105,"ĠAust":6106,"Ġ\\;":6107,"entity":6108,"ĠBank":6109,"trm":6110,"Ġwoman":6111,"osing":6112,"Ġinteraction":6113,"ĠBoard":6114,"oration":6115,"Ġsamples":6116,"Ġnoise":6117,"Ġweb":6118,"Params":6119,"?:":6120,"Ġdoing":6121,"Ġinfin":6122,"ĠHenry":6123,"\\'":6124,"cons":6125,"ensions":6126,"mode":6127,"Ġrisk":6128,"PT":6129,"Ġ::":6130,"ifold":6131,"footnote":6132,"Ġ(-":6133,"ĠDu":6134,"ĠLong":6135,"BS":6136,"VID":6137,"ĠChicago":6138,"ĠLake":6139,"ictionary":6140,"lood":6141,"Ġspent":6142,"actor":6143,"textrm":6144,"ella":6145,"ĠEnd":6146,"Ġtraditional":6147,"ĠWhat":6148,"ĠCamp":6149,"Ġcaused":6150,"ĠAlthough":6151,"<\\":6152,"Ġrad":6153,"even":6154,"ouri":6155,"Ġexpansion":6156,"Ġbad":6157,"Ġsmooth":6158,"STR":6159,"Ġbasic":6160,"device":6161,"Ev":6162,"Ġearn":6163,"():":6164,"IGN":6165,"tains":6166,"INE":6167,"ursor":6168,"Json":6169,"Ġmatches":6170,"Ġxml":6171,"Ġswitch":6172,"She":6173,"Ġmotion":6174,"El":6175,"Ġproduce":6176,"ĠFoundation":6177,"iques":6178,"}^{-":6179,"GB":6180,"sect":6181,"\"))":6182,"vision":6183,"ishop":6184,"shift":6185,"Ġsession":6186,"ockey":6187,"%;":6188,"=-":6189,"Ġdise":6190,"nother":6191,"Hash":6192,"Ġattribute":6193,"Ġgrand":6194,"cles":6195,"Ġdiscussed":6196,"Ġconsequ":6197,"ĠTwo":6198,"None":6199,"ĠAtl":6200,"Ġactivities":6201,"1981":6202,"Ġtemplate":6203,"Ġchalleng":6204,"}},":6205,"Ġcritic":6206,"Ġ$\\{":6207,"Ġdidn":6208,"Ġsend":6209,"CR":6210,"Ġcompetition":6211,"rot":6212,"sv":6213,"ugins":6214,"Ġsubs":6215,"Ġthreat":6216,"_+":6217,"inger":6218,"ested":6219,"dest":6220,"Ġrepresents":6221,"Connection":6222,"ĠFe":6223,"ĠUnder":6224,"auth":6225,"ĠAut":6226,"Ġminor":6227,"Ã¨":6228,"Dir":6229,"Ġtag":6230,"direct":6231,"Ġgrav":6232,"ĠIts":6233,"Ġpert":6234,"Settings":6235,"Ġbroadcast":6236,"Ġconvert":6237,"Ġdistributed":6238,"CS":6239,"Ġcontinuous":6240,"ĠAngeles":6241,"Ġapprop":6242,"Ġmedal":6243,"Ġ_{":6244,"olk":6245,"ervation":6246,"fect":6247,"){\\":6248,"attice":6249,"Ġinstr":6250,"people":6251,"Ġawarded":6252,"ture":6253,"Ġsometimes":6254,"imation":6255,"ĠRussia":6256,"ĠFlorida":6257,"Other":6258,"ĠArts":6259,"COLOR":6260,"Dat":6261,"ĠAnn":6262,"Mult":6263,"udd":6264,"ĠMexico":6265,"Record":6266,"ĠDen":6267,"abit":6268,"global":6269,"inem":6270,"Ġhence":6271,"BO":6272,"Change":6273,"utch":6274,"ĠLand":6275,"Ġnative":6276,"ĠAssert":6277,"Ġequip":6278,"*{":6279,"Ã§":6280,"ils":6281,"Ġblue":6282,"Ġsituation":6283,"Impl":6284,"Ġnet":6285,"Ġ>=":6286,"ĠCD":6287,"Ġroute":6288,"reedom":6289,"ydro":6290,"Ġmanufact":6291,"ewidth":6292,";->":6293,"allery":6294,"Ġroom":6295,"Äģ":6296,"Ġitems":6297,"omorphism":6298,"forms":6299,"env":6300,"ĠMr":6301,"Ġvariety":6302,"iral":6303,"Ġ${":6304,"xx":6305,"ech":6306,"ĠInc":6307,"Ġpressure":6308,"Ġexamples":6309,"ĠTO":6310,")|":6311,"Ġrecomm":6312,"prove":6313,"ĠRel":6314,"Ġvertex":6315,"ãĤ":6316,"Ġacadem":6317,"$_":6318,"ja":6319,"Ġchem":6320,"Ġfeatured":6321,"Ġinterview":6322,"Ġsymmetry":6323,"Ġmut":6324,"pare":6325,"Ġhyp":6326,"success":6327,"ucture":6328,"ĠFilm":6329,"Ġremoved":6330,"abilities":6331,"Ġmaps":6332,"aily":6333,"duction":6334,"Ġhousehold":6335,"Ġleads":6336,"Ġuseful":6337,"step":6338,"Project":6339,"Ġfeed":6340,"Ġnetworks":6341,"1972":6342,"Ġetc":6343,"1976":6344,"ĠCast":6345,"Ġgreater":6346,"Rev":6347,"ĠCreate":6348,"HO":6349,"sur":6350,"Ġbottom":6351,"Prot":6352,"dim":6353,"found":6354,"Ġbranch":6355,"del":6356,"dagger":6357,"definition":6358,"Ġmovie":6359,"1978":6360,"Document":6361,"Ġunknown":6362,"ariable":6363,"Copy":6364,"ĠKe":6365,"aver":6366,"Ġbegin":6367,"oral":6368,"Ġinteger":6369,"Ġones":6370,"Order":6371,"Ġfast":6372,"^{-\\":6373,"Ġreach":6374,"Ġmur":6375,"endar":6376,"Left":6377,"sort":6378,"Ġgenerate":6379,"ady":6380,"PA":6381,"Ġobservations":6382,"Ġliterature":6383,"dx":6384,"Ġ$|":6385,"Ġaircraft":6386,"alo":6387,"Ġcompact":6388,"=(":6389,"Ġquite":6390,"Ġdiagram":6391,"=\"/":6392,"Ġplays":6393,"ato":6394,"Ġparticle":6395,"iger":6396,"ien":6397,"stitution":6398,"colon":6399,"Ġparams":6400,"ĠEmp":6401,"PECT":6402,"ĠLife":6403,"Ġstrict":6404,"ffff":6405,"Ġapplications":6406,"Ġscript":6407,"Ġarbitr":6408,"TV":6409,"ibly":6410,"subfigure":6411,"rad":6412,"hing":6413,"Ġcontribution":6414,"hash":6415,"atalog":6416,"ishes":6417,"ĠStep":6418,"Option":6419,"ĠScot":6420,"ĠKn":6421,"1974":6422,"Ġtreatment":6423,"ĠEducation":6424,"ropy":6425,"API":6426,"}}_{":6427,"Serial":6428,"Ġmajority":6429,"vey":6430,"Ġdu":6431,"TI":6432,"bal":6433,"Ġcollabor":6434,"make":6435,"Ġthing":6436,"fort":6437,"Ġgun":6438,"spect":6439,"icker":6440,"debug":6441,"Ġ($\\":6442,"Ġlibrary":6443,"Ġactivity":6444,"Ġunion":6445,"ocal":6446,"yes":6447,"ĠBig":6448,"ĠSwed":6449,"Properties":6450,"Ġshift":6451,"1975":6452,"Ġrecords":6453,"Ġflux":6454,"More":6455,"MO":6456,"Ġinsp":6457,"elled":6458,"Ġembedd":6459,"ifications":6460,"Long":6461,"AND":6462,"Ġcos":6463,"docs":6464,"adius":6465,"Ġimplementation":6466,"Ġchoose":6467,"oom":6468,"aligned":6469,"ĠProfess":6470,"bigg":6471,"oggle":6472,"site":6473,"Inst":6474,"Ġstay":6475,"Ġrul":6476,"Ġchain":6477,"Non":6478,"wedge":6479,"Ġstrategy":6480,"PL":6481,"ĠTimes":6482,"ĠAlso":6483,"Ġprocesses":6484,"Ġseparate":6485,"Ġscatter":6486,"Ġfilename":6487,"83":6488,"EQ":6489,"ji":6490,"Ġfif":6491,"bi":6492,"Ġeasily":6493,"ĠModel":6494,"Ġunivers":6495,"Ġfederal":6496,"Ġnearly":6497,"Ġfactors":6498,"Pat":6499,"deg":6500,"Ġcomparison":6501,"Ġhighly":6502,"Ġessential":6503,"ounds":6504,"Ġexam":6505,"Ġcelebr":6506,"1977":6507,"ĠItaly":6508,"Person":6509,"join":6510,"ĠStar":6511,"\\}":6512,"linewidth":6513,"house":6514,"ilarly":6515,"Ġagent":6516,"Ġprobably":6517,"Ġsquare":6518,"Ġeasy":6519,"My":6520,"Ġfun":6521,"Ġelectric":6522,"1968":6523,"Ġoverride":6524,":\\":6525,"Ġinfluence":6526,"icate":6527,"Ġcoming":6528,"bind":6529,"Ġjoint":6530,"81":6531,"aved":6532,"erc":6533,"Ġsinger":6534,"ĠOf":6535,"ĠMost":6536,"Tim":6537,"Ġinteresting":6538,"white":6539,"send":6540,"ror":6541,"Ġteacher":6542,"delete":6543,"eek":6544,"oplus":6545,"ä¸":6546,"Ġcurve":6547,"types":6548,"Ġactions":6549,"Ġecho":6550,"ĠDE":6551,"Ġparticles":6552,"Ġsurround":6553,"Ġwait":6554,"Ġprison":6555,"ĠSun":6556,"Ġbal":6557,"Ġtoken":6558,"olec":6559,"ola":6560,"MC":6561,"Ġwanted":6562,"apers":6563,"Ġplane":6564,"Ġactor":6565,"Ġslight":6566,"ĠAv":6567,"venue":6568,"ĠFurther":6569,"Ġlives":6570,"Ġforeign":6571,"Ġ$[":6572,"Ġmis":6573,"ĠGener":6574,"idae":6575,"Bl":6576,"Core":6577,"anda":6578,"Sign":6579,"high":6580,"Ġmentioned":6581,"Ġsynt":6582,"Ġtherm":6583,"render":6584,"ĠMax":6585,"Ġimmediately":6586,"Que":6587,"structor":6588,"Integer":6589,"cp":6590,"Ġcard":6591,"ĉĠ":6592,"ĠRegister":6593,"Ġexperiments":6594,"Ġbrief":6595,"rolled":6596,"Ġcommercial":6597,"transform":6598,"ĠOh":6599,"while":6600,"Ġleave":6601,"Notes":6602,"NavBar":6603,"arant":6604,"ĠCre":6605,"pers":6606,"ellar":6607,"Ġprojects":6608,"Pass":6609,"ĠĠĠĠĠĠĠĠĠĠĠĠĠĠĠĠĠĠĠĠ":6610,"seud":6611,"ĠOR":6612,"LI":6613,"ĠTim":6614,"ora":6615,"Ġdynamics":6616,"ĠDirector":6617,"Ġpurpose":6618,"iled":6619,"Ġasked":6620,"Cal":6621,"Ġshot":6622,"zero":6623,"ternet":6624,"atically":6625,"Ġparents":6626,"Ġhash":6627,"&#":6628,"Ġbounded":6629,"maz":6630,"ski":6631,"ĠMap":6632,"Ġ$-":6633,"Sym":6634,"Ġability":6635,"Ġminutes":6636,"ĠBG":6637,"internal":6638,"icrosoft":6639,"Ġpolynomial":6640,"Mat":6641,"setminus":6642,"sych":6643,"1973":6644,"Ġcontrast":6645,"Ġseems":6646,"alysis":6647,"ĠNavy":6648,"ECT":6649,"Ġways":6650,"faces":6651,"Su":6652,"Down":6653,"Ġhum":6654,"Ġshared":6655,"ima":6656,"arriage":6657,"PH":6658,"What":6659,"Dep":6660,"ĠProject":6661,"'\\":6662,"Ġgoals":6663,"Ġdatabase":6664,"Ġradius":6665,"Ne":6666,"rize":6667,"irmed":6668,"Ġformation":6669,"ko":6670,"interface":6671,"Ġsplit":6672,"mut":6673,"poses":6674,"Ġconstraints":6675,"Ġbelieve":6676,"esh":6677,"fn":6678,"ali":6679,"address":6680,"Ġpolitician":6681,"afe":6682,"Ġbul":6683,"ums":6684,"ĠIran":6685,"ĠSocial":6686,"Ġrelevant":6687,"ĠRun":6688,"ny":6689,"ĠBrown":6690,"osh":6691,"Ġloop":6692,"Ġsurvey":6693,"Ġphil":6694,"Ġidentified":6695,"ivial":6696,"ribution":6697,"Ġextract":6698,"ĠProgram":6699,"Ġmeeting":6700,"eds":6701,"Ġpark":6702,"Ġche":6703,"copy":6704,"Draw":6705,"ACK":6706,"Ġheavy":6707,"SL":6708,"rome":6709,"Ac":6710,"Ġindividuals":6711,"apped":6712,"Early":6713,"atial":6714,"ects":6715,"ĠMartin":6716,"ĠTem":6717,"Ġsociety":6718,"oting":6719,"Ġcompute":6720,"Icon":6721,"ĠSaint":6722,"Ġwhom":6723,"coll":6724,"asion":6725,"imin":6726,"Ġreceive":6727,"Ġdepends":6728,"1971":6729,"lines":6730,"Ġformula":6731,"Ġtests":6732,"footer":6733,"ifest":6734,"Ġconstructed":6735,"ifically":6736,"Ġamb":6737,"Ġutil":6738,"ĠEngine":6739,"ORT":6740,"Ġsummer":6741,"ĠLine":6742,"ULT":6743,"iana":6744,"Ġcapacity":6745,"ader":6746,"Ġgeneration":6747,"orter":6748,"ĠFestival":6749,"clos":6750,"1969":6751,"agraph":6752,"mann":6753,"ĠPy":6754,"Dom":6755,"Ġdivision":6756,"chers":6757,"fony":6758,"Ġassign":6759,"Ġscored":6760,"bing":6761,"ĠOld":6762,"ĠParliament":6763,"Ġapproximation":6764,"~~~~":6765,"ĠArab":6766,"Ġsteps":6767,"Ġsettings":6768,"ifies":6769,"ĠCarolina":6770,"John":6771,"================================":6772,"However":6773,"ellig":6774,"Ġcompletely":6775,"inder":6776,"Ġraise":6777,"Ġexternal":6778,"Ġexactly":6779,"Ġstra":6780,"Me":6781,"ĠCam":6782,"msg":6783,"),\\":6784,"Ġcommunities":6785,"ĠMur":6786,"Ġexistence":6787,"Go":6788,"Ġprocedure":6789,"iro":6790,"Äĩ":6791,"Further":6792,"Ġbey":6793,"ĠSeries":6794,"RI":6795,"ĠBas":6796,"rong":6797,"annels":6798,"ĠJournal":6799,"Store":6800,"limits":6801,"isters":6802,"ĠPet":6803,"ĠBur":6804,"Ġended":6805,"Ġdistinct":6806,"ugby":6807,"Ġresponsible":6808,"ĠKar":6809,"Ġcandidate":6810,"Head":6811,"kl":6812,"Ġconsistent":6813,"Here":6814,"Ġspaces":6815,"UP":6816,"hemat":6817,"Ġgalaxies":6818,"ometric":6819,"Ġestablishments":6820,"Ġbasketball":6821,"(:":6822,"onds":6823,"vania":6824,"Expression":6825,"Ġreduce":6826,"Ġbeyond":6827,"acific":6828,"Ġimprove":6829,"Tool":6830,"ollary":6831,"Use":6832,"255":6833,"'.":6834,"Session":6835,"Ġtournament":6836,"equality":6837,"Title":6838,"Ġmission":6839,"Ġwriters":6840,"ĠEr":6841,"arc":6842,"Comple":6843,"Ġgreen":6844,"cient":6845,"ĠException":6846,"Ptr":6847,"Ġlock":6848,"ĠKey":6849,"contin":6850,"ĠKh":6851,"Ġresolution":6852,"nam":6853,"ĠBrazil":6854,"Ġoptimal":6855,"Ġheart":6856,"Helper":6857,"widget":6858,"Ġinfo":6859,"Ġaccuracy":6860,"Ġopening":6861,"ĠGen":6862,"component":6863,"men":6864,"ategories":6865,"ga":6866,"Ġpackage":6867,"ĠYoung":6868,"ĠSoviet":6869,"1940":6870,"access":6871,"click":6872,"ĠSil":6873,"plugin":6874,"wa":6875,"Ġmomentum":6876,"Care":6877,"Ġplot":6878,"Ġcompl":6879,"ĠMil":6880,"END":6881,"Ver":6882,"Mark":6883,"uations":6884,"\\!\\!":6885,"legal":6886,"Ġmicro":6887,"results":6888,"ĠIS":6889,"Ġaspect":6890,"ĠChief":6891,"Ġspread":6892,"Ġfoot":6893,"Ġinner":6894,"Ġattr":6895,"ĠOffice":6896,"Year":6897,"Ġrates":6898,"Ġweeks":6899,"asure":6900,"iano":6901,"ĠCheck":6902,"Ġdual":6903,"export":6904,"Async":6905,"inations":6906,"Operation":6907,"Ġmaster":6908,"Ġcarried":6909,"short":6910,"ĠJud":6911,"Ġwinning":6912,"Template":6913,"Ġcomputer":6914,"Ġcoupling":6915,"Render":6916,"full":6917,"media":6918,"ĠJoseph":6919,"ati":6920,"ĠWales":6921,"1967":6922,"ynamic":6923,"req":6924,"During":6925,"Ġflag":6926,"ĠLie":6927,"nes":6928,"TER":6929,"Parameters":6930,"equals":6931,"fields":6932,"Ġmachine":6933,"Ġarchitecture":6934,"1945":6935,"Ġmind":6936,"fram":6937,"Ġcarry":6938,"ALL":6939,"Ġmoving":6940,"Ġletter":6941,"Ġdead":6942,"ĠTrue":6943,"ĠTop":6944,"syl":6945,"aka":6946,"Ġlaunched":6947,"Ġ\"\\":6948,"Ġdrug":6949,"eries":6950,"Ġmostly":6951,"Sw":6952,"Ġpoor":6953,"ĠFort":6954,"ĠName":6955,"'],":6956,"toString":6957,"ĠChampionships":6958,"shot":6959,"###":6960,"Ġmeasured":6961,"anguages":6962,"iffer":6963,"icks":6964,"ĠAwards":6965,"Sing":6966,"Ġincome":6967,"vas":6968,"ĠErr":6969,"Ġdecom":6970,"lig":6971,"ĠCall":6972,"Ġactress":6973,"Ġvisual":6974,"Ġâ":6975,"adr":6976,"icients":6977,"webkit":6978,"Ġexperimental":6979,"'_":6980,"Ġundefined":6981,"ĠMos":6982,"gorithms":6983,"ĠNetwork":6984,"Ġwind":6985,"Ġreferred":6986,"Handle":6987,"Device":6988,"Ġtransaction":6989,"vest":6990,"ĠPlay":6991,"Ġking":6992,"ĠMa":6993,"Ġpositions":6994,"Rect":6995,"Ġreflect":6996,"Art":6997,"Ġdoub":6998,"ultural":6999,"Ġbinary":7000,"ket":7001,"Ġbus":7002,"va":7003,"Red":7004,"clear":7005,"ĠNorthern":7006,"ĠShow":7007,"Ġ})":7008,"Ġnumerical":7009,"itan":7010,"spe":7011,"dule":7012,"Reference":7013,"yan":7014,"Ġofficer":7015,"Ġjav":7016,"bootstrap":7017,"pool":7018,"Ġcoast":7019,":#":7020,"igration":7021,"Ġclust":7022,"Ġconcent":7023,"ĠPan":7024,"ova":7025,"Eq":7026,"Ġstories":7027,"Ġsegment":7028,"annotation":7029,"Ġchief":7030,"panel":7031,"Ġcombined":7032,"ipality":7033,"ĠIrish":7034,"DA":7035,"padding":7036,"ĠLiber":7037,"Ġemission":7038,"Ġstraight":7039,"hover":7040,"istance":7041,"ĠPeople":7042,"ĠEqu":7043,"ynchron":7044,"1930":7045,"Ġpolar":7046,"Ġsatisfies":7047,"ĠTour":7048,"Ġ|\\":7049,"Members":7050,"ĠInst":7051,"ĠHon":7052,"Ġproducer":7053,"Host":7054,"ĠMath":7055,"ĠIII":7056,"aser":7057,"Ġauthors":7058,")}(":7059,"Our":7060,"Ġfriends":7061,"Ġtensor":7062,"cut":7063,"Ġscene":7064,"hom":7065,"Ġformal":7066,"ipe":7067,"ĠColumb":7068,"handle":7069,"ĠSpr":7070,"perp":7071,"Ð»":7072,"Ġriver":7073,"ĠLu":7074,"Ġmusical":7075,"session":7076,"owers":7077,"ems":7078,"Ġtypically":7079,"Ġcache":7080,"blockList":7081,"Ġcontainer":7082,"Ġedition":7083,"Ġcontributions":7084,"ansas":7085,"ERROR":7086,"Main":7087,"sylvania":7088,"Ġdomin":7089,"roduction":7090,"Sk":7091,"Ġstudio":7092,"Ġappearance":7093,"rich":7094,"Ġolder":7095,"akers":7096,"Ġbattle":7097,"imensions":7098,"1964":7099,"Ġlooking":7100,"Ġentered":7101,"ĠTre":7102,"Ġvertices":7103,"Ġdetection":7104,"Ġworkers":7105,"Num":7106,"Ġnothing":7107,"ĠHence":7108,"Ġgoes":7109,"150":7110,"ĠDate":7111,"inet":7112,"Sum":7113,"Ġreligious":7114,"ĠHaw":7115,"Ġlived":7116,"Ġserve":7117,"Ġamplit":7118,"=\"_":7119,"focus":7120,"ORD":7121,"Ġclean":7122,"Ġcentre":7123,"dependency":7124,"multi":7125,"lers":7126,"Ġinitially":7127,"neg":7128,"rices":7129,"Ġtheore":7130,"hesis":7131,"ipeline":7132,"Ġcorresponds":7133,"Ġsignificantly":7134,"Ø§":7135,"icons":7136,"English":7137,"Ġcert":7138,"WE":7139,"Ġfair":7140,"virt":7141,"Iter":7142,"Values":7143,"ĠEach":7144,"Ġnewsp":7145,"Ġterrit":7146,"Ġmixed":7147,"settings":7148,"wan":7149,"ĠProposition":7150,"Ġconflict":7151,"usband":7152,"BR":7153,"Ġinline":7154,"Tests":7155,"ĠEXPECT":7156,"Ġcitiz":7157,"Ġannual":7158,"ĠMethod":7159,"inf":7160,"room":7161,"itation":7162,"aws":7163,"Names":7164,"Ġsaying":7165,"_{(":7166,"ĠBre":7167,"ixel":7168,"Ġedges":7169,"bu":7170,"Ġclassification":7171,"Parser":7172,"ĠOl":7173,"ĠBob":7174,"pay":7175,"ĠBGCOLOR":7176,"Ġattended":7177,"Ġ$.":7178,"1965":7179,"Ġmeasures":7180,"Section":7181,"ĠLee":7182,"Ġseasons":7183,"ira":7184,"-->":7185,"atest":7186,"ĠCON":7187,"160":7188,"Ġtesting":7189,"Ġdepartment":7190,"allow":7191,"Ġcommission":7192,"Application":7193,"DIR":7194,"Ġquarter":7195,"Ġthread":7196,"textsc":7197,"Ġli":7198,"Ġproviding":7199,"Has":7200,"unch":7201,"Ġminim":7202,"Ġshowed":7203,"Ġharm":7204,"Ġproceed":7205,"ĠDom":7206,"ustrial":7207,"While":7208,"issions":7209,"Ġisland":7210,"Ġplans":7211,"ĠSir":7212,"Ġstack":7213,"Ġhel":7214,"Ġintegral":7215,"Ġsimulations":7216,"ĠGoogle":7217,"_*":7218,"named":7219,"ĠRead":7220,"Ġnumerous":7221,"Each":7222,"ilation":7223,"Ġpropag":7224,"Vector":7225,"Ġfavor":7226,"Ġgetting":7227,"Di":7228,"posite":7229,"Ġvocals":7230,"undred":7231,"Ġcru":7232,"itors":7233,"Definition":7234,"framework":7235,"Classes":7236,"rb":7237,"Ġappropriate":7238,"coming":7239,"Decl":7240,"Ġparse":7241,"Ġpriv":7242,"Ġbecoming":7243,"ĠUN":7244,"Ġdisk":7245,"Ġdecay":7246,"ĠEarth":7247,"unct":7248,"Ġeth":7249,"stat":7250,"orner":7251,"Ġgiving":7252,"Ġsenior":7253,"Ġ['":7254,"cknow":7255,"custom":7256,"cases":7257,"ĠValley":7258,"icans":7259,"Ġpoly":7260,"Ġraised":7261,"}$-":7262,"ĠLibrary":7263,"ĠBritain":7264,"car":7265,"Ġ\"/":7266,"Ġassumption":7267,"oston":7268,"chen":7269,"Ġcompare":7270,"Ġcalculated":7271,"GE":7272,"Ġforced":7273,"Ġdemand":7274,"Ġsouthern":7275,"Ġangle":7276,"ĠMoreover":7277,"Ġrelatively":7278,"Ġcells":7279,"Ġnorthern":7280,"Ġlattice":7281,"asy":7282,"alg":7283,">.":7284,"pute":7285,"Ġinequality":7286,"Stack":7287,"Var":7288,"ĠColor":7289,"estamp":7290,"}}(\\":7291,"ĠTeam":7292,"ĠFri":7293,"ĠEmpire":7294,"SR":7295,"Ġcombination":7296,"stone":7297,"Ġpartial":7298,"Ġpaint":7299,"poration":7300,"Åį":7301,"ĠOp":7302,"ulty":7303,"1966":7304,"Ġdiss":7305,"ĠJim":7306,"ĠLove":7307,"1920":7308,"ĠGreek":7309,"Ġsites":7310,"Ġvs":7311,"fly":7312,"Ġquestions":7313,"vm":7314,"ĠGi":7315,"stein":7316,"ĠĠĠĠĠĠĠĠĠĠĠĠĠĠĠĠĠĠĠĠĠĠĠĠĠĠĠĠĠĠĠĠĠĠĠĠĠĠĠ":7317,"amental":7318,"ads":7319,")\\,":7320,"forall":7321,"coq":7322,"Ġsea":7323,"ĠWood":7324,"ĠLord":7325,"enty":7326,"Ġdelete":7327,"=\"../../../":7328,"ĠHot":7329,"False":7330,"Ġspectral":7331,"uple":7332,"Ġturned":7333,"foo":7334,"Ġscalar":7335,"Ġenter":7336,"enses":7337,"ĠCross":7338,"cribe":7339,"Ġuniversity":7340,"Ġassumed":7341,"adium":7342,"Ġvote":7343,"hell":7344,"Ġpartn":7345,"ela":7346,"tri":7347,"Ġowned":7348,"Ġtrying":7349,"Car":7350,"iminal":7351,"ador":7352,"cf":7353,"Ġdespite":7354,"'}":7355,"{$\\":7356,"ĠChild":7357,"family":7358,"Ġfarm":7359,"_;":7360,"help":7361,">();":7362,"disabled":7363,"Ġunsigned":7364,"urren":7365,"pton":7366,"store":7367,"Ġ{};":7368,"Ġpairs":7369,"ĠCivil":7370,"Ġmainly":7371,"ĠGal":7372,"flo":7373,"ĠProvince":7374,"Ġtor":7375,"Ġhistorical":7376,"category":7377,"BL":7378,"According":7379,"subsubsection":7380,"etween":7381,"Ġchampionship":7382,"Ġdetail":7383,"onym":7384,"Ġsampl":7385,"Ġago":7386,"Assert":7387,"Ġmask":7388,"TC":7389,"Ġsector":7390,"product":7391,"Ġnation":7392,"ĠPennsylvania":7393,"Ġfraction":7394,"ĠBi":7395,"ĠWal":7396,"hs":7397,"Ġadvant":7398,"}\"":7399,"La":7400,"nections":7401,"120":7402,"Ġhelped":7403,"Ġparties":7404,"asi":7405,"patch":7406,"\")]":7407,"irls":7408,"Ġarrest":7409,"ĠBattle":7410,"airman":7411,"ĉĉĉĊ":7412,"icine":7413,"ampion":7414,"osoph":7415,"ĠJo":7416,"Ġnamespace":7417,"ĠNav":7418,"Debug":7419,"ĠLin":7420,"idget":7421,"Ġcorrelation":7422,"witter":7423,"Ġorganizations":7424,"king":7425,"inline":7426,"ĠTri":7427,"Metadata":7428,"Ġsemi":7429,"ĠĠĠĠĠĠĊ":7430,"erry":7431,"ĠÎ":7432,"Ġdeliver":7433,"Parent":7434,"secut":7435,"_{-":7436,"These":7437,"erg":7438,"Ġquickly":7439,"ibli":7440,"ĠSpain":7441,"ĠAsia":7442,"points":7443,"auto":7444,"ĠLi":7445,"Ġowner":7446,"Don":7447,"Ġtasks":7448,"Ġcat":7449,"Ġapproaches":7450,"Ġcalls":7451,"Reader":7452,"Gu":7453,"ĠJan":7454,",\\,":7455,"Ġarbitrary":7456,"Ġ\\(":7457,"attribute":7458,"Kind":7459,"udget":7460,"ĠDevelopment":7461,"ĠLO":7462,"Ġdepth":7463,"(*":7464,"Ġut":7465,"Ġprotect":7466,"Ġarm":7467,"ĠCamb":7468,"Ġdiscussion":7469,"Ġtechniques":7470,"Ġperturb":7471,"ĠHand":7472,"Ġiniti":7473,"Ġcensus":7474,"Ġorient":7475,"Ġcontained":7476,"ĠRh":7477,"GET":7478,"wer":7479,"rical":7480,"joy":7481,"stra":7482,"Ġefforts":7483,"awa":7484,"virtual":7485,"ĠJac":7486,"agonal":7487,"Cor":7488,"Ġwaves":7489,"Ġmeasurements":7490,"icies":7491,"Ġheader":7492,"Ġmurder":7493,"Ġincreases":7494,"Ġwood":7495,"etry":7496,"double":7497,"enth":7498,"\\_":7499,"ĠTheir":7500,"ologies":7501,"kins":7502,"Args":7503,"Ġcoefficients":7504,"ogene":7505,"elli":7506,"ĠHistoric":7507,"Ġmagazine":7508,"Ġcreating":7509,"Ġran":7510,"Ġ+\\":7511,"standing":7512,"iciency":7513,"Ġjson":7514,"Ġhusband":7515,"SET":7516,"ĠPubl":7517,"leep":7518,"exports":7519,"GS":7520,"Å¡":7521,"Ġcounty":7522,"LP":7523,"ĠMichigan":7524,"mond":7525,"Ġvac":7526,"eli":7527,")^{\\":7528,"Ġcalc":7529,"ĠOx":7530,"Ġ),":7531,"gg":7532,"enter":7533,"Ġexpressed":7534,"MB":7535,"SION":7536,"ATH":7537,"comment":7538,"plugins":7539,"Ġinvoke":7540,"sto":7541,"toggle":7542,"Ġenh":7543,"blue":7544,"aria":7545,"Ġcomputed":7546,"unior":7547,"ĠUs":7548,"Ġring":7549,"uer":7550,"sql":7551,"gypt":7552,"andra":7553,"picture":7554,"`.":7555,"Ġleaders":7556,"Ġpurs":7557,"Ġordered":7558,"lie":7559,"Ġfailure":7560,"Ðº":7561,"Ġrout":7562,"aters":7563,"ĠVis":7564,"----------------------------------------------------------------":7565,"Ġshoot":7566,"atriate":7567,"ĠJewish":7568,"Ġalleg":7569,"Ġsimulation":7570,"cean":7571,"Ġ('":7572,"Ġfirm":7573,"Invalid":7574,"Ġmodes":7575,"Ġinvariant":7576,"Ġtouch":7577,"agnost":7578,"Ġaxis":7579,"mi":7580,"Ġbyte":7581,"Ġflat":7582,"inois":7583,"Ġintroduce":7584,"ĠRE":7585,"Ġrailway":7586,"Ġblocks":7587,"Career":7588,"Ġexchange":7589,"Ġachiev":7590,"Ġcreation":7591,"ATA":7592,")_{":7593,"Ġpp":7594,"ĠOhio":7595,"initial":7596,"Ġthreshold":7597,"Ġonto":7598,"ĠĠĠĠĠĠĠĠĠĠĠĠĠĠĠĠĠĠ":7599,"Ġtrust":7600,"bury":7601,"ĠFred":7602,"je":7603,"Ġsave":7604,"Ġrestrict":7605,"Bytes":7606,"rick":7607,"enum":7608,"Med":7609,"Tab":7610,"ĠEvent":7611,"Ġattract":7612,"ĠCOVID":7613,"Ġabsolute":7614,"Ġos":7615,"Ġinterval":7616,"aylor":7617,"Api":7618,"Ġfamous":7619,"Ġaccom":7620,"ĠSouthern":7621,"defined":7622,"install":7623,"ĠJohnson":7624,"Ġchart":7625,"Ġhar":7626,"newcommand":7627,"endix":7628,"Body":7629,"Ġcities":7630,"ĠJSON":7631,"writer":7632,"Ġpull":7633,"rate":7634,"Ġserious":7635,"ĠIO":7636,"Ġdefeated":7637,"acket":7638,"Ġinform":7639,"Ġregime":7640,"inners":7641,"ione":7642,"claim":7643,"1963":7644,"holder":7645,"Fields":7646,"ĠRadio":7647,"Ġslightly":7648,"IA":7649,"Ġincorpor":7650,"cloud":7651,"register":7652,"replace":7653,"Ġachieved":7654,"argument":7655,"oday":7656,"ORM":7657,"ridge":7658,"1962":7659,"Argument":7660,"Ġnine":7661,"Ġmill":7662,"recated":7663,"Ġstrength":7664,"Ġcovered":7665,"Ġprice":7666,"Ġarmy":7667,"Delete":7668,"URE":7669,"Writer":7670,"TS":7671,"udio":7672,"Ġgrid":7673,"ĠSpe":7674,"anging":7675,"Ġ}\\":7676,"Ġoccurs":7677,"ĠGame":7678,"angular":7679,"admin":7680,"Ġalgorithms":7681,"ĠValue":7682,"Ġcloud":7683,"OK":7684,"Ġworth":7685,"Ġproved":7686,"mic":7687,"Click":7688,"Ġdirectory":7689,"Ġnuclear":7690,"Ġprefer":7691,"ancing":7692,"Ġunderstanding":7693,"yer":7694,"ito":7695,"material":7696,"Ġdistributions":7697,"Ġentity":7698,"Ġhidden":7699,"Dialog":7700,"ĠMP":7701,"ĠRepresent":7702,"Ġwatch":7703,"cluded":7704,"Ġ++":7705,"Ġforest":7706,"ographic":7707,"Ġleaving":7708,"Ġassigned":7709,"ĠPacific":7710,"Ġextrem":7711,"urban":7712,"Ġesc":7713,"Ġgets":7714,"ĠDemocratic":7715,"Before":7716,"Ġdenotes":7717,"enant":7718,"Ġdraft":7719,"front":7720,"Ġencour":7721,"Ġhospital":7722,"Ġcouple":7723,"Enabled":7724,"Ġhop":7725,"ĠJones":7726,"ĠSund":7727,"byte":7728,"Ġdisease":7729,"rine":7730,"'m":7731,"Films":7732,"Ġsal":7733,"modules":7734,"Ġmolec":7735,"Wrap":7736,"Ġstrateg":7737,"Ġinsert":7738,"ĠMov":7739,"ĠHig":7740,"shall":7741,"AF":7742,"Ġidentify":7743,"application":7744,"Ġdrama":7745,"ĠIslam":7746,"connect":7747,"ĠPak":7748,")).":7749,"ĠÂ£":7750,"ĠRequ":7751,"Ġclaimed":7752,"Ġofficers":7753,";<":7754,"bits":7755,"Ġtrained":7756,"uls":7757,"Ġrapid":7758,"vol":7759,"andard":7760,"margin":7761,"Root":7762,"arden":7763,"Ġprotocol":7764,"Ġsn":7765,"Package":7766,"Ġwrap":7767,"Ġalternative":7768,"rames":7769,"itionally":7770,"Policy":7771,"Ġefficient":7772,"ĠBoth":7773,"record":7774,"insert":7775,"rub":7776,"Ġtool":7777,"Ġanything":7778,"etts":7779,"region":7780,"ila":7781,"ĠId":7782,"ĠBow":7783,"sky":7784,"radius":7785,"Ġbillion":7786,"udes":7787,"'))":7788,"Ġindicates":7789,"ighter":7790,"Ġsimpl":7791,"Ġbehavi":7792,"istical":7793,"cmd":7794,"dict":7795,".~(\\":7796,"anner":7797,"Ġstable":7798,"Ġtransformation":7799,")^{-":7800,"ĠCentre":7801,"ĠTele":7802,"adel":7803,"Ġpure":7804,"Ġdigital":7805,"Ġinfr":7806,"items":7807,"ĠMany":7808,"ĠSecretary":7809,"ĠElect":7810,"NG":7811,"Ġcoordinates":7812,"Found":7813,"bullet":7814,"TEST":7815,"Ġelections":7816,"DL":7817,"coin":7818,"__(":7819,"ĠConference":7820,"names":7821,"FAULT":7822,"achus":7823,"igin":7824,"burgh":7825,"bot":7826,"Ġoil":7827,"aret":7828,"Ġoffered":7829,"Ġrail":7830,"Ġstatistics":7831,"ims":7832,"Ġdetailed":7833,"Ġassess":7834,"sche":7835,"Ġstorage":7836,"atible":7837,"Ġvertical":7838,"Ġsuc":7839,"256":7840,"plements":7841,"Cre":7842,"$).":7843,"email":7844,"Background":7845,"mock":7846,"fri":7847,"Ġrise":7848,"orning":7849,"las":7850,"Ġanalog":7851,"ĠQueen":7852,"ĠMajor":7853,"Ġthr":7854,"Ġbytes":7855,"power":7856,"Ġestimates":7857,"ĠRam":7858,"har":7859,"pan":7860,"Show":7861,"ĠBul":7862,"callback":7863,"Ġmanaged":7864,"icity":7865,"ĠUser":7866,"haps":7867,"DC":7868,"ĠBusiness":7869,"Ġdelay":7870,"iant":7871,"Mock":7872,"ĠSong":7873,"eller":7874,"Ġmaterials":7875,"Ġpartition":7876,"ĠGood":7877,"Ġalloc":7878,"ĠUkr":7879,"Ġvisible":7880,"ĠHTML":7881,"ĠScotland":7882,"Ġclimate":7883,"ĠCarl":7884,"ĠJersey":7885,"ennis":7886,"Ġcircle":7887,"Ġreports":7888,"Ġbelieved":7889,"pmatrix":7890,"Ġexc":7891,"istent":7892,"Byte":7893,"numer":7894,"Ġcultural":7895,"tsd":7896,"1944":7897,"Ġsucceed":7898,"romise":7899,"Ġshowing":7900,"ĠGeorgia":7901,"Ġsections":7902,"ĠAsian":7903,"NE":7904,"Ġinterpret":7905,"Ġice":7906,"Ġtrial":7907,"ĠHuman":7908,"ĠFrancisco":7909,"irus":7910,"Ġserial":7911,"Ġcomposed":7912,"Ġserving":7913,"ĠPoint":7914,")_":7915,"Ġadministration":7916,"Ġpil":7917,"}^*":7918,"sime":7919,"ĠEconom":7920,"Ã£":7921,"ĠFC":7922,"boolean":7923,"Ġeq":7924,"nn":7925,"ĠMiddle":7926,"master":7927,"Ġpy":7928,"Ġvary":7929,"olver":7930,"rons":7931,"two":7932,"Ġgenus":7933,"ilib":7934,"ĠPop":7935,"Ġsingles":7936,"forward":7937,"Ġprotest":7938,")),":7939,"Ġreasons":7940,"Ġcolon":7941,"Ġlies":7942,"osa":7943,"phone":7944,"simeq":7945,"ĠLab":7946,"Ġparallel":7947,"ĠĠĠĠĠĠĠĠĠĠĠĠĠĠĠĠĠĠĠĠĠĠĠĠĠ":7948,"Ġsomeone":7949,"odec":7950,"Ġnotice":7951,"abeth":7952,"Ġsqu":7953,"Ġconstraint":7954,"Ġagreed":7955,")\"":7956,"Display":7957,"ĠSpecial":7958,"ĠRet":7959,"emporary":7960,"ograp":7961,"mc":7962,"Ġachieve":7963,"Ġpromin":7964,"Ġvictory":7965,"Hz":7966,"Ġreject":7967,"hav":7968,"Ġmodified":7969,"Ġinteractions":7970,"leton":7971,"ĠSar":7972,"ulf":7973,"Ġissued":7974,"Ġdifferences":7975,"AGE":7976,"Ġguarant":7977,"Ġicon":7978,"ĠBoston":7979,"Ġthous":7980,"Ġcurves":7981,"1961":7982,"Ġsusp":7983,"Ġdesc":7984,"remark":7985,"à¸":7986,"Ġlif":7987,"Ġ&=&":7988,"acle":7989,"Ġschedul":7990,"going":7991,"Ġrac":7992,"Ġ<=":7993,"Ġadopted":7994,"Some":7995,"sear":7996,"Figure":7997,"Ġdiscovered":7998,"ĠUse":7999,"Ġhope":8000,"Ġsingular":8001,"ployment":8002,"Descriptor":8003,"mediate":8004,"Ġnam":8005,"bel":8006,"uda":8007,"ĠIllinois":8008,"achusetts":8009,"shape":8010,"ĠSU":8011,"abil":8012,"Bi":8013,"Ġbatt":8014,"Ġgrowing":8015,"Ġperfect":8016,"Ġmatrices":8017,"IX":8018,"}%":8019,"BE":8020,"rawn":8021,"Ġrecall":8022,"keys":8023,"ĠEdward":8024,"gest":8025,"Play":8026,"Dem":8027,"Will":8028,"Ġrespond":8029,"Ġpan":8030,"}}^":8031,"herit":8032,"Ġrecording":8033,"Ġimag":8034,"Ġspatial":8035,"Ġapplic":8036,"ĠWilliams":8037,"Ġactors":8038,"Ġpatients":8039,"orney":8040,"ĠTra":8041,"Ġstrongly":8042,"iced":8043,"Extension":8044,"Doc":8045,"ĠWay":8046,"bre":8047,"ĠJes":8048,"rium":8049,"Ġconducted":8050,"CI":8051,"Ġclearly":8052,"Ġoffers":8053,"uries":8054,"Ġvoice":8055,"Ġeverything":8056,"super":8057,"obs":8058,"Ġfine":8059,"Ġtracks":8060,"ĠEnter":8061,"ĠMedia":8062,"Boolean":8063,"onical":8064,"grid":8065,"mo":8066,"World":8067,"Ġcommunication":8068,"poss":8069,"Ġprocessing":8070,"ĠSenate":8071,"phy":8072,"ĠTrump":8073,"Ġpool":8074,"ĠMain":8075,"Ġfreedom":8076,"CTION":8077,"Ġsubset":8078,"Ġdistingu":8079,"cuss":8080,"oved":8081,"Ġdependence":8082,"Ġreplace":8083,"Ġhydro":8084,"Ġ'/":8085,"called":8086,"Ġrare":8087,"itage":8088,"Ġpropos":8089,"ĠKong":8090,"Ġcycle":8091,"adoop":8092,"rid":8093,"ĠStan":8094,"Ġversions":8095,"Ġhundred":8096,"Any":8097,"Symfony":8098,"SSERT":8099,"ependence":8100,"Ġpiece":8101,"OM":8102,"pa":8103,"Ġenjoy":8104,"ango":8105,"tik":8106,"Queue":8107,"password":8108,"ĠView":8109,"Network":8110,"uous":8111,"ĠCode":8112,"Ġextr":8113,"Ġlaws":8114,"Ġindicate":8115,"loop":8116,"Ġsymmetric":8117,"ĠMen":8118,"Ġmeasurement":8119,"Ġattributes":8120,"ĠEgypt":8121,"ĠBern":8122,"none":8123,"stop":8124,"1942":8125,"Ġintr":8126,"ĠKent":8127,"ĠCommon":8128,"ĠSu":8129,"henomen":8130,"Ġsetup":8131,"ĠPrem":8132,"Thus":8133,"Ġships":8134,"ults":8135,"Ġsettlement":8136,"diff":8137,"Ġprofessor":8138,"Ġmuseum":8139,"ĠAcc":8140,"Ġunless":8141,"ierarch":8142,"look":8143,"anks":8144,"Ġtypical":8145,"unsigned":8146,"Ġregional":8147,"SM":8148,"Active":8149,"gers":8150,"Ġopportunity":8151,"Ġalone":8152,"Initial":8153,"ez":8154,"Ġexecutive":8155,"Ġwallet":8156,"rence":8157,"ĠHead":8158,"ĠHome":8159,"ĠURL":8160,"Ġdefin":8161,"phas":8162,"ensed":8163,"iate":8164,"Ġfle":8165,"Changed":8166,"ĠÅ":8167,"ĠPlan":8168,"elligence":8169,"ĠRay":8170,")}{\\":8171,"Ġaccepted":8172,"Ġmarriage":8173,"tained":8174,"ĠTHE":8175,"Ġoperating":8176,"ĠReview":8177,"$$\\":8178,"1948":8179,"_-":8180,"Custom":8181,"Ġoperated":8182,"Ġ(*":8183,"$^{-":8184,"roke":8185,"Ġcouncil":8186,"Ġ^":8187,"oir":8188,"ocker":8189,"Ident":8190,"Ġattacks":8191,"kg":8192,"Ġsister":8193,"Ġsafety":8194,"PU":8195,"ĠAff":8196,"sel":8197,"ĠBlue":8198,"Ġarticles":8199,"Ġoccurred":8200,"Storage":8201,"law":8202,"1956":8203,"ĠOxford":8204,"Ġmechanism":8205,"Transaction":8206,"floor":8207,"`,":8208,"Ġlanguages":8209,"Ġaffect":8210,"Ġul":8211,"1958":8212,"General":8213,"onder":8214,"ingham":8215,"ĠLuc":8216,")},":8217,"Xml":8218,"ĠError":8219,"Ġproport":8220,"ĠTro":8221,"important":8222,"odd":8223,"parameters":8224,"operation":8225,"ests":8226,"Ġbass":8227,"1959":8228,"pective":8229,"omorphic":8230,"Public":8231,"HS":8232,"Ġwestern":8233,"Cast":8234,"ĠCard":8235,"Ġintended":8236,"Ġfelt":8237,"DP":8238,"ĠLatin":8239,"spring":8240,"ĠĠĠĠĠĠĠĠĠĠĠĠĠĠĠĠĠĠĠĠĠĠĠĠ":8241,"ĠAR":8242,"Ġseat":8243,"notes":8244,"uly":8245,"Ġmock":8246,"astr":8247,"emy":8248,"ĠCy":8249,"aya":8250,"Ġmsg":8251,"Ġjourn":8252,"ĠPoland":8253,"ĠHa":8254,"WS":8255,"HTML":8256,"National":8257,"NR":8258,"Ġmarked":8259,"Ġinterested":8260,"ĠWell":8261,"tor":8262,"Ġemail":8263,"Ġacting":8264,"Fix":8265,"Obj":8266,"ĠGre":8267,"Ġneighborhood":8268,"AME":8269,"amm":8270,"ĠMassachusetts":8271,"ĠGaussian":8272,"ĠCoast":8273,"ĠWall":8274,")\\\\":8275,"Ġimportance":8276,"Ã±":8277,"Ġrepresenting":8278,"ĠLim":8279,"ributed":8280,"Ġacademic":8281,"})$.":8282,"ĠĠĠĠĠĠĠĠĠĠĠĠĠĠĠĠĠĠĠĠĠĠĠĠĠĠĠĠĠĠĠĠĠĠĠĠĠĠĠĠĠĠĠĠĠĠĠĠĠĠĠĠĠĠĠĠĠĠĠĠĠĠĠĠ":8283,"ĠTechnology":8284,"Ġkernel":8285,"illy":8286,"Ġvectors":8287,"ĠCa":8288,".*":8289,"Prop":8290,"Ġbounds":8291,"ĠText":8292,"produ":8293,"Ġanswer":8294,"Step":8295,"Ġadding":8296,"Ġwall":8297,"Ġcommit":8298,"Ġresidents":8299,"JSON":8300,"Ġgap":8301,"Ġ$$":8302,"Ġacquired":8303,"ĠCro":8304,"Ġretired":8305,"ĠJr":8306,"uv":8307,"Ġclaims":8308,"Ġlayers":8309,"=\"@":8310,"1939":8311,"istration":8312,"Ñĥ":8313,"Ġearned":8314,"ĠGovernor":8315,"icial":8316,"enger":8317,"Ġrect":8318,"ĠJustice":8319,"Ġdegrees":8320,"iy":8321,"Ġresear":8322,"othing":8323,"ĠFederal":8324,"thread":8325,"just":8326,"128":8327,"aration":8328,"stable":8329,"acro":8330,"ĠMah":8331,"ryst":8332,"eld":8333,"domain":8334,"Ġ=\\":8335,"'ve":8336,"Ġobserve":8337,"Ġjavax":8338,"Ġabsor":8339,"ĠSol":8340,"\\|_{":8341,"Ġfeat":8342,"Ġsecret":8343,"iki":8344,"Meta":8345,"ĠEastern":8346,"ITY":8347,"ĠNOT":8348,"600":8349,"grade":8350,"ĠVan":8351,"ĠStat":8352,"itness":8353,"Only":8354,"cpp":8355,"Ġcriter":8356,"Ġsubsequently":8357,"ĠCommand":8358,"Ġdepart":8359,"Ġacts":8360,"uing":8361,"Account":8362,"Rule":8363,"Ġdivided":8364,"Ġwidely":8365,"1957":8366,"connection":8367,")$-":8368,"Ġlic":8369,"Ġpaid":8370,"1941":8371,"Ġmorph":8372,"250":8373,"@\"":8374,"Member":8375,"Ġlabor":8376,"Ġconsole":8377,"Ġcycl":8378,"odies":8379,"Ġsales":8380,"onto":8381,"Ġcomedy":8382,"Ġens":8383,"Ä±":8384,"Ġallowing":8385,"ĠIP":8386,"Send":8387,"Ġcosts":8388,"otted":8389,"ĠPrince":8390,"ran":8391,"arse":8392,"properties":8393,"tw":8394,"ĠTheatre":8395,"Ġbridge":8396,"Ġpartner":8397,"Activity":8398,"ACE":8399,"Scope":8400,"Ġapi":8401,"MR":8402,"Const":8403,"impl":8404,"ĠDutch":8405,"Ã£o":8406,"ĠPortug":8407,"iÄĩ":8408,"^{+":8409,"FR":8410,"Ġrevealed":8411,"arters":8412,"ĠHamiltonian":8413,"sen":8414,"Ġthick":8415,"Ġmetal":8416,"Ġyields":8417,"ponential":8418,"Ġspirit":8419,"Ġstrugg":8420,"Ġconfirmed":8421,"each":8422,"ceived":8423,"Ġhypot":8424,"Sch":8425,"Ġreduction":8426,"Events":8427,"Ġpoliticians":8428,"jar":8429,"GC":8430,"Ġbeaut":8431,"ĠLy":8432,"Ġleadership":8433,"notation":8434,"jquery":8435,"hy":8436,"channel":8437,"scape":8438,"Ġdriver":8439,"elegate":8440,"ooks":8441,"ĠProfessor":8442,"DS":8443,"ĠEp":8444,"]:":8445,"Pool":8446,"Ġstock":8447,"Ġdescent":8448,"Ġweap":8449,"ificate":8450,"Ġprimarily":8451,"ĠMid":8452,"Ġstellar":8453,"Ġfundamental":8454,"Media":8455,"dependent":8456,"Ġsuccessfully":8457,"1943":8458,"Ġprincipal":8459,"clusive":8460,"vin":8461,"fi":8462,"security":8463,"aste":8464,"Ġmassive":8465,"Ġhtml":8466,"andon":8467,"Ġwrong":8468,"axis":8469,"effect":8470,"}&":8471,"ais":8472,"proposition":8473,"Ġupdated":8474,"Ġpush":8475,"Ġdedicated":8476,"ĠSupreme":8477,"Msg":8478,"Theorem":8479,"onal":8480,"Ġportr":8481,"eces":8482,"Ġbtn":8483,"odot":8484,"ĠRo":8485,"alid":8486,"Ġideal":8487,"KEY":8488,"Ġcitizens":8489,"Ġisol":8490,"wild":8491,".'":8492,"Ġsurpr":8493,"Match":8494,"Ġsuggested":8495,"Ġconvergence":8496,"inity":8497,"ĠCH":8498,"____":8499,"Cons":8500,"hadoop":8501,"1946":8502,"======":8503,"limit":8504,"arrier":8505,"scroll":8506,"irds":8507,"ECK":8508,"Ġsquad":8509,"Ġleaves":8510,"ĠSea":8511,"green":8512,"Grid":8513,"kw":8514,"How":8515,"ĠCollection":8516,"Brit":8517,"raq":8518,"Ġsatisfy":8519,"1955":8520,"ĠUSA":8521,"ĠassertEquals":8522,"tikz":8523,"Ġinstalled":8524,"\">&":8525,"sch":8526,"Ġofficials":8527,"Ġfootballer":8528,"such":8529,"ĠKorea":8530,"Ġdetect":8531,"ĠPhilipp":8532,"move":8533,"Ġkept":8534,"ĠHarr":8535,"Ġrequirements":8536,"kes":8537,"bell":8538,"teen":8539,"ashion":8540,"Ġrough":8541,"ĠPower":8542,"aby":8543,"napshot":8544,"Ġtraffic":8545,"Ġdimensions":8546,"bad":8547,"Desc":8548,"hentication":8549,"%)":8550,"lyph":8551,"nic":8552,"Bit":8553,"ĠBroad":8554,"Ġfellow":8555,"Ġkeys":8556,"PRE":8557,"ĠColumbia":8558,"(!":8559,"$;":8560,"Ġviews":8561,"cknowled":8562,"Ġinstanceof":8563,"Ġmanifold":8564,"ĠPass":8565,"inals":8566,"Ġexcit":8567,"Ġult":8568,"Ġasympt":8569,"ĠBecause":8570,"exception":8571,"Ġregarding":8572,"Ġdb":8573,"ĠOrgan":8574,"estic":8575,"Ġyouth":8576,"Ġcancer":8577,"Av":8578,"hetic":8579,"ĠPhys":8580,"TED":8581,"UID":8582,"Ġnearby":8583,"Ġlaunch":8584,"verb":8585,"zh":8586,"Ġsummary":8587,"ĠJackson":8588,",$":8589,"Ġgain":8590,"cret":8591,"ĠHospital":8592,"Ġconference":8593,"Ġwild":8594,"Ġobvious":8595,"May":8596,"~$\\":8597,"Ġmatching":8598,"Ġfinding":8599,"ĠPolice":8600,"Widget":8601,"since":8602,"icip":8603,"_->":8604,"ĠAL":8605,"ading":8606,"1952":8607,"network":8608,"ÅĤ":8609,"Ġfort":8610,"Ġchannels":8611,"Ġpand":8612,"Ġlocations":8613,"rase":8614,"aug":8615,"Ġinstrument":8616,"Ġodd":8617,"izabeth":8618,"ĠAndrew":8619,"Ġpersonnel":8620,"mapsto":8621,"Ġconcert":8622,"Ġcov":8623,"ĠSecurity":8624,"tty":8625,"FILE":8626,"hbox":8627,"tail":8628,"Ġroll":8629,"Lock":8630,"jpg":8631,"pot":8632,"screen":8633,"Ġclubs":8634,"ni":8635,"Ġfre":8636,"displaystyle":8637,"Ġ..":8638,"orough":8639,"Ġdepending":8640,"agers":8641,"parison":8642,"Ġangular":8643,"Ġfocused":8644,"formance":8645,"Ġdifferential":8646,"appe":8647,"ĠOnly":8648,"Ġinstitutions":8649,"dropdown":8650,"Ġextend":8651,"Ġlimits":8652,"ById":8653,"Ġtheme":8654,"ĠBack":8655,"ĠIl":8656,"opher":8657,"exists":8658,"Ġcolumns":8659,"WA":8660,"()).":8661,"dates":8662,"plot":8663,"ancel":8664,"Windows":8665,"Ġencoding":8666,"urer":8667,"Ġphenomen":8668,"ĠNO":8669,"Gen":8670,"Ġtools":8671,"Ġminimal":8672,"desc":8673,"ĠInformation":8674,"isc":8675,"ilibrium":8676,"'(":8677,"Ġnotation":8678,"Ġroles":8679,"Ġspl":8680,"Ġheat":8681,"ĠBu":8682,"Timeout":8683,"ucky":8684,"ĠFour":8685,"Ġpseud":8686,"Ġwor":8687,"Cap":8688,"zen":8689,"1947":8690,"Ġpowerful":8691,"Ġsoft":8692,"Ġsecondary":8693,"cb":8694,"Äį":8695,"Ġsexual":8696,"ĠĠĠĠĠĠĠĠĠĠĠĠĠĠĠĠĠĠĠĠĠĠ":8697,"Ġlat":8698,"Ġimplemented":8699,"ĠFinally":8700,"ĠManagement":8701,"addr":8702,"Perm":8703,"Using":8704,"nergy":8705,"ĠSand":8706,"urrency":8707,"Ġcontinues":8708,"Ġcandidates":8709,"ulpt":8710,"Ġdevices":8711,"1954":8712,"ĠWilson":8713,"Inv":8714,"110":8715,"txt":8716,"Ġapparent":8717,"weet":8718,"total":8719,"Ġchemical":8720,"Ġtechnical":8721,"Ġvon":8722,"Ġelem":8723,"Ġhouses":8724,"Ġsubstant":8725,"orship":8726,"stats":8727,"primary":8728,"Ġpolicies":8729,"Ġspectra":8730,"ĠRepublican":8731,"ĠWild":8732,"$&":8733,"una":8734,"Ġorganized":8735,"Ġ\\!":8736,"Ġadvantage":8737,"Ġgradient":8738,"Ġpurposes":8739,"Ġmagnitude":8740,"ĠEst":8741,"Ġil":8742,"ository":8743,"United":8744,"Ġeconomy":8745,"organ":8746,"lets":8747,"Ġstarts":8748,"anes":8749,"ĠKen":8750,"ĠHong":8751,"Ġ%}":8752,"aling":8753,"ĠFalse":8754,"Sports":8755,"Ġawards":8756,"ederation":8757,"ĠNight":8758,"Ġmapping":8759,"Adapter":8760,"itical":8761,"ĠWis":8762,"}}^{":8763,"ĠMu":8764,"Ġmessages":8765,"thur":8766,"ĠSO":8767,"Ġideas":8768,"queue":8769,"|}":8770,"Ġobservation":8771,"Ġexpanded":8772,"Ġdescribes":8773,"ĠCat":8774,"amber":8775,"ĠScottish":8776,"Ġgeometry":8777,"assets":8778,"Ġemphas":8779,"ĠServices":8780,"]]":8781,"Ġcapture":8782,";/":8783,"ĠBell":8784,"DR":8785,"ben":8786,"ĠMuslim":8787,"selected":8788,"Ġlab":8789,"Ġprediction":8790,"Ġfacilities":8791,"Rest":8792,"Ġdir":8793,"Ġfunctional":8794,"Ġseconds":8795,"Ġbill":8796,"Ġorders":8797,"ookie":8798,"ĠCommunity":8799,"LOG":8800,"Character":8801,"Ġscattering":8802,"ĠJoe":8803,"Del":8804,"Ġcommonly":8805,"(){":8806,"outheast":8807,"VERSION":8808,"ĠGlobal":8809,"Ġfill":8810,"ĠAlexander":8811,"Ġsport":8812,"ropol":8813,"occer":8814,"iable":8815,"Ġpet":8816,"Ġpsych":8817,"Ġcer":8818,"Space":8819,"Ġpi":8820,"vs":8821,"1949":8822,"Ġaggreg":8823,"Ġtroops":8824,"Channel":8825,"ĠCorps":8826,"ĠRailway":8827,"ĠAmericans":8828,"Ġlabels":8829,"Ġattend":8830,"Ġentries":8831,"ĠBrook":8832,"ographer":8833,"fully":8834,"ĠWater":8835,"ĠTaylor":8836,"DI":8837,"ĠCopy":8838,"Ġassociation":8839,"ĠMot":8840,"onia":8841,"Arch":8842,"Vol":8843,"hard":8844,"iday":8845,"Ġepisodes":8846,")))":8847,"cong":8848,"Ġblood":8849,"Ġdrive":8850,"ĠTw":8851,"Ġple":8852,":}":8853,"Ġexplained":8854,"Ġclin":8855,"MI":8856,"ĠHung":8857,"ĠUsing":8858,"Support":8859,"Ġfigures":8860,"çļ":8861,"area":8862,"Ġreson":8863,"1953":8864,"fix":8865,"JECT":8866,"ĠStudies":8867,"Ġphysics":8868,"late":8869,"Ġconsidering":8870,"MT":8871,"Ġbrand":8872,"Ġreader":8873,"Ġlargely":8874,"ĠSciences":8875,"chor":8876,"chester":8877,"Ġlisting":8878,"ĠJeff":8879,"osis":8880,"phia":8881,"Ġrotation":8882,"save":8883,"protobuf":8884,"bro":8885,"Ġgalaxy":8886,"ĠKenn":8887,"Ġdynamic":8888,"Ġng":8889,"ĠWindow":8890,"Enum":8891,"Ġoptimization":8892,"ĠMinistry":8893,"ĠAN":8894,"Ġprep":8895,"ĠYour":8896,"Ġancient":8897,"Ġpicture":8898,"XT":8899,"Items":8900,"Ġera":8901,"]}":8902,"Ġcool":8903,"semble":8904,"Graph":8905,"Ġsides":8906,"Ġmasses":8907,"scill":8908,"Ġretri":8909,"Ġta":8910,"Edit":8911,"Constr":8912,"_(":8913,"Ġprime":8914,"[:":8915,"Ġhonor":8916,"Ġaffected":8917,"lg":8918,"Ġliber":8919,"large":8920,"ĠFurthermore":8921,"izable":8922,"Flags":8923,"Ġbutton":8924,"iga":8925,"\\{\\":8926,"circle":8927,"ĠBBC":8928,"Ġhandler":8929,"keep":8930,"MAX":8931,"Ġoptical":8932,"mass":8933,"Ġimproved":8934,"apes":8935,"tan":8936,"Ġpri":8937,"çļĦ":8938,"Float":8939,"Ġpages":8940,"Ġdefend":8941,"Ġprogramming":8942,"Ġtrigger":8943,"also":8944,"Ġprotection":8945,"Ġtend":8946,"ĠLo":8947,"Ġdispl":8948,"ĠInitial":8949,"Ġarrived":8950,"Ġnucle":8951,"$~":8952,"ĠDaniel":8953,"dp":8954,"Ġ[];":8955,"Ġtranslation":8956,"uses":8957,"cref":8958,"Ġcoordinate":8959,"hbar":8960,"horizontal":8961,"ĠMA":8962,"ĠTask":8963,"Ġsust":8964,"Ġequipment":8965,"ĠMedical":8966,"ĠJon":8967,"idel":8968,"Ġgirl":8969,"ĠLater":8970,"ello":8971,"Dist":8972,"Ġadjust":8973,"Ġunderlying":8974,"profile":8975,"1951":8976,"ĠEven":8977,"yo":8978,"ĠSom":8979,"ĠViet":8980,"adelphia":8981,"CF":8982,"ĠBa":8983,"Internal":8984,"Selected":8985,"Ġtrees":8986,"imately":8987,"Editor":8988,"-$":8989,"Ġtried":8990,"|_{":8991,"Ð°Ð":8992,"innes":8993,"Init":8994,"Ġenable":8995,"Ġcaptured":8996,"ester":8997,"world":8998,"Ġconj":8999,")}}":9000,"Ġcalling":9001,"Symbol":9002,"pres":9003,"ARY":9004,"external":9005,"=\"\">":9006,"irement":9007,"sol":9008,"[(":9009,"Ġtoward":9010,"Ġplanet":9011,"iling":9012,"Ġmedian":9013,"Common":9014,"Ġfifth":9015,"Ġlearned":9016,"ĠSi":9017,"Ġopin":9018,"antry":9019,"Logger":9020,"Ġbin":9021,"Ġadm":9022,"ologist":9023,"ĠReport":9024,"Ġwinner":9025,"edit":9026,"Ġvehicle":9027,"MENT":9028,"ĠCub":9029,"ĠJean":9030,"Ġtheoretical":9031,"SIZE":9032,"Ġhockey":9033,"controller":9034,"ervative":9035,"ogeneous":9036,"ori":9037,"()));":9038,"eness":9039,"ipage":9040,"ĠParam":9041,"ĠNations":9042,"Lem":9043,"ĠDefault":9044,"ĠOlympic":9045,"Ġgrew":9046,"ĠPolish":9047,"throws":9048,"Ġtechnique":9049,"Ġnarrow":9050,"wall":9051,"ĠVersion":9052,"ĠVictoria":9053,"Panel":9054,"ami":9055,"ĠGuard":9056,"Ġnotes":9057,"Ġsubsequent":9058,"Ġconclude":9059,"browser":9060,"ups":9061,"Ġauthority":9062,"children":9063,"ĠBang":9064,"ĠFar":9065,"itled":9066,"unities":9067,"Ġtwice":9068,"keyword":9069,"Ġdamage":9070,"amin":9071,"Ġhousing":9072,"Ġpaths":9073,"Ġinfinite":9074,"Ġbaseball":9075,"ĠKr":9076,"components":9077,"Ġevaluation":9078,"ĠAuthor":9079,"vc":9080,"dy":9081,"Ġperforming":9082,"cccc":9083,"herent":9084,"=\"\"":9085,"Ġenabled":9086,"ĠExt":9087,"Ġcomplexity":9088,"ĠLight":9089,"erial":9090,"TABLE":9091,"Ġchallenge":9092,"umes":9093,"git":9094,"Ġfactory":9095,"Ġsafe":9096,"imit":9097,"ĠDar":9098,"Ġremark":9099,"Ġexecution":9100,"Video":9101,"home":9102,"Expr":9103,"innesota":9104,"Browser":9105,"ĠAlb":9106,"Ġcalculate":9107,"ymmetric":9108,"ĠBerlin":9109,"Ġpolitics":9110,"Ġstress":9111,"schema":9112,"Own":9113,"ĠCreek":9114,"person":9115,"events":9116,"ĠSta":9117,"Ġamplitude":9118,"Ġinvestigation":9119,"ĠAnother":9120,"ĠLittle":9121,"Ġtransferred":9122,"Ġcrime":9123,"when":9124,"ĠOfficial":9125,"oured":9126,"sumer":9127,"Ġprinciple":9128,"minipage":9129,"water":9130,"Ġfunc":9131,"ĠPrime":9132,"dem":9133,"RR":9134,"Ġtruth":9135,"Security":9136,"utf":9137,"estion":9138,"800":9139,"Ġmedium":9140,"Second":9141,"Ġisn":9142,"Ġsoldiers":9143,"actic":9144,"Files":9145,"Ġscientific":9146,"ĠAdministr":9147,"Ġstreet":9148,"ĠFI":9149,"Ġalongside":9150,"ving":9151,"ĠIraq":9152,"mma":9153,"Print":9154,"Ġbeam":9155,"Ġlie":9156,"herited":9157,"athan":9158,"Ġwhereas":9159,"orders":9160,"Ġuncertainty":9161,"Ġemp":9162,"hu":9163,"ĠStation":9164,"manager":9165,"Ġshell":9166,")-\\":9167,">\\":9168,"Ġeastern":9169,"British":9170,"Ġdeclared":9171,"life":9172,"Ġpointer":9173,"Cond":9174,"Ġhands":9175,"Two":9176,"Ġfans":9177,"Ġlib":9178,"Ġmeant":9179,"Ġinvolving":9180,"Job":9181,"ĠLocal":9182,"prec":9183,"Ġintegration":9184,"cred":9185,"ented":9186,"ĠLag":9187,"Ġserves":9188,"ĠOption":9189,"','":9190,"ĠFree":9191,"1936":9192,"ĠMember":9193,"engine":9194,"IE":9195,"Ġaccomp":9196,"Ġfloor":9197,"ĠMult":9198,"mosp":9199,"Ġvacc":9200,"acent":9201,"Ġthermal":9202,"Ġdeleg":9203,"unte":9204,")--":9205,"High":9206,"EXT":9207,"Ġnewspaper":9208,"ydney":9209,"ĠElement":9210,"Ġsuggests":9211,"Ġcomposition":9212,"Ġpandemic":9213,"Ġacceler":9214,"ĠCorporation":9215,"Introduction":9216,"isted":9217,"avor":9218,"Ġfru":9219,"Memory":9220,"Ġemployed":9221,"Ġpenal":9222,"ego":9223,"TA":9224,"Ã¸":9225,"Ġbudget":9226,"Ġmunicipality":9227,"pred":9228,"elease":9229,"Ġefficiency":9230,"anth":9231,"}}$.":9232,"Ġoscill":9233,"astructure":9234,"tool":9235,"Ġsignature":9236,"complete":9237,"ĠSports":9238,"Ġexplain":9239,"Ġcriminal":9240,"Proxy":9241,"ĠBelg":9242,"zz":9243,"Ġ[\\":9244,"Ġcharged":9245,")));":9246,"Ġexport":9247,"Ġscales":9248,"Ġverify":9249,"aki":9250,"Ġplanning":9251,"Bas":9252,")+\\":9253,"Ġsyn":9254,"Ġrecognized":9255,"pet":9256,"onomy":9257,"Success":9258,"}{|":9259,"Ġcalculation":9260,"Ġconven":9261,"Ġconnections":9262,"}({\\":9263,"Ġabstract":9264,"ĠBC":9265,"Ġgraphs":9266,"Ġintersection":9267,"_,":9268,"Ġinduced":9269,"PAR":9270,"ariance":9271,"Ġnor":9272,"Pattern":9273,"ntario":9274,"ï¼":9275,"Music":9276,"Ġperman":9277,"ĠBoy":9278,"Ġcomputation":9279,"Ġaware":9280,"lan":9281,"bec":9282,"fold":9283,"ĠPen":9284,"VD":9285,"blem":9286,"ĠSunday":9287,"ĠArgent":9288,"Ġincident":9289,"ĠNumber":9290,"egr":9291,"utenant":9292,"Ġathlet":9293,"Ġdocuments":9294,"Ġsupply":9295,"Auth":9296,"Ġbands":9297,"Ġplanned":9298,"Ġrecip":9299,"Ġcancell":9300,"Ġsolve":9301,")\">":9302,"sex":9303,"Ġenvironmental":9304,"Ġfinish":9305,"entials":9306,"trigger":9307,"Ġengineering":9308,"})$,":9309,"Ġscenario":9310,"IB":9311,"ĠAk":9312,"Ġ{$":9313,"Ġusual":9314,"pson":9315,"Ġtempor":9316,"ĠAction":9317,"ĠElizabeth":9318,"ĠRegion":9319,"Ġprovince":9320,"Ġrepeated":9321,"Ġreferences":9322,"VM":9323,"))$":9324,"Ġsummar":9325,"flags":9326,"Ġemployees":9327,"ĠFunction":9328,"Ġtab":9329,"Ġexplicitly":9330,"Ġspeech":9331,"Ġsolar":9332,"Ġexplan":9333,"ĠRog":9334,"ennes":9335,"++;":9336,"PATH":9337,"Pointer":9338,"ĠPrize":9339,"ntax":9340,"1918":9341,"ĠFollowing":9342,"handler":9343,"Ġsomew":9344,"Ġzone":9345,"ĠSte":9346,"Ġearth":9347,"Ġfunding":9348,"Ġminister":9349,"Ġnewly":9350,"ĠPlaces":9351,"Ġimplements":9352,"Full":9353,"Ġhole":9354,"FS":9355,"Â°":9356,"Ġcoal":9357,"Ġviolence":9358,"ronic":9359,"account":9360,"Ġmanner":9361,"Ġeveryone":9362,"mazon":9363,"ĠFamily":9364,"\",\"":9365,"Finally":9366,"aga":9367,"ĠJava":9368,"Ġmotor":9369,"}}$,":9370,"Ġappearances":9371,"apol":9372,"Ġcalculations":9373,"Ġinvalid":9374,"Ġener":9375,"ĠRail":9376,"Loader":9377,"Ġ{{":9378,"structions":9379,"Ġends":9380,"Ġtrace":9381,"Ġ[[":9382,"Ġdiam":9383,"swarm":9384,"Ġclusters":9385,"ĠThree":9386,"pository":9387,"Ġgranted":9388,"West":9389,"eves":9390,"avity":9391,"Ġhighlight":9392,"Ġflex":9393,"ĠSpace":9394,"Ljava":9395,"awn":9396,"$),":9397,"random":9398,"Ġrecognition":9399,"Ġrequests":9400,"ROM":9401,"former":9402,"Ã¡n":9403,"ivation":9404,"Ġheard":9405,"Ġcollected":9406,"alloc":9407,"eless":9408,"Ġfeaturing":9409,"Ġtrend":9410,"Ġconvex":9411,"Ġmiles":9412,"inson":9413,"Ġlocally":9414,"Ġdecades":9415,"itivity":9416,"ĠMaster":9417,"Ġlicense":9418,"wildfly":9419,"Lo":9420,"}{(":9421,"Ġven":9422,"periment":9423,"Opt":9424,"Route":9425,"Ġcopies":9426,"Ġdestroyed":9427,"Ġassistant":9428,"ctrine":9429,"Ġprominent":9430,"101":9431,"UL":9432,"Ġ$|\\":9433,"Ġteaching":9434,"Ġpowers":9435,"BP":9436,"Matrix":9437,"University":9438,"125":9439,"ĠCount":9440,"[$":9441,"bytes":9442,"Ġdeveloping":9443,"NavBarCell":9444,"configuration":9445,"ĠDown":9446,".[":9447,"yg":9448,"ĠVill":9449,"ĠStephen":9450,"ĠRevolution":9451,"hl":9452,"Ġdesired":9453,"Ġbegins":9454,"Ġinvestment":9455,"Ġpromoted":9456,"Ġspecifically":9457,"Ġsubgroup":9458,"ifts":9459,"NotNull":9460,"tiny":9461,"Ġlatest":9462,"CM":9463,"Ġrobust":9464,"osophy":9465,"zech":9466,"ĠRome":9467,"ĠMir":9468,"ĠExecut":9469,"condition":9470,"Ġauthorities":9471,"'])":9472,"ĠFace":9473,"1938":9474,"HR":9475,"Ġrepresentative":9476,"Ġpra":9477,"Ġscaling":9478,"ĠIndex":9479,"Ret":9480,")}_{":9481,"%%%%":9482,"hire":9483,"ĠMike":9484,"Area":9485,"Ġmathemat":9486,"words":9487,"Ġawait":9488,"'ll":9489,"ĠAli":9490,"Ġpal":9491,"Ġdaily":9492,"}$)":9493,"Ġboy":9494,"peror":9495,"getElement":9496,"Ġcref":9497,"parser":9498,"ifiers":9499,"ĠRos":9500,"Close":9501,"Ġprepar":9502,"=\"${":9503,"perial":9504,"&=&":9505,"Ġpatterns":9506,"oster":9507,"ĠKorean":9508,"ictures":9509,"Ġconstitu":9510,"iÃ³n":9511,"ĠBal":9512,"atio":9513,"Ġconsult":9514,"fact":9515,"ogen":9516,"cert":9517,"ĠFund":9518,"Ġregistered":9519,"Pay":9520,"ĠLew":9521,"typeof":9522,"Ġcomments":9523,"ropical":9524,"ĠGar":9525,"Ġcomputational":9526,"Ġinh":9527,"Ġ\"\"":9528,"180":9529,"Ġbuilder":9530,"article":9531,"ĠOs":9532,"Ġgraduated":9533,"UTF":9534,"Ġremember":9535,"Ġcrew":9536,"ĠCirc":9537,"logger":9538,"Ġdiscrete":9539,"ĠTODO":9540,"Ġsurrounding":9541,"Ġindustrial":9542,"Selector":9543,"Directory":9544,"Ġready":9545,"anz":9546,"esian":9547,"Ġindeed":9548,"contains":9549,"Ġcontro":9550,".__":9551,"Sm":9552,"ivery":9553,"lean":9554,"ĠWhe":9555,"Ġreviews":9556,"Ġchanging":9557,"Ġdownload":9558,"Java":9559,"1937":9560,"Ġadvert":9561,"Ġagric":9562,"ountry":9563,"Ġcars":9564,"oton":9565,"Ġflight":9566,"Ġpossibly":9567,"ðŁ":9568,"ĠCambridge":9569,"Ġpassing":9570,"mathop":9571,"phys":9572,"Layer":9573,"iful":9574,"Protocol":9575,"Ġhappen":9576,"tools":9577,"Therefore":9578,"Ġinspired":9579,"hidden":9580,"Ġion":9581,"nil":9582,"ĠAny":9583,"ĠBad":9584,"Ġcircum":9585,"Although":9586,"osity":9587,"ToString":9588,"Ġexerc":9589,"Ġprojection":9590,"Ġbright":9591,"ĠBon":9592,"ultane":9593,"Scale":9594,"Ġcharges":9595,"Runtime":9596,"Ġestate":9597,"ĠĠĠĠĠĠĠĠĠĠĠĠĠĠĠĠĠĠĠĠĠĠĠĠĠĠĠĠĠ":9598,"Austral":9599,"ĠClark":9600,"Ġadministrative":9601,"cam":9602,"urations":9603,"lik":9604,"ĠInf":9605,"Ġopposite":9606,"ĠWalk":9607,"Term":9608,"Ġevaluate":9609,"Ġchance":9610,"hol":9611,"tmp":9612,"Ġcamera":9613,"->_":9614,"Ġadvance":9615,"apore":9616,"}</":9617,"Ġobjective":9618,"ĠIslands":9619,"general":9620,"Ġturns":9621,"consin":9622,"opic":9623,"Ġinnov":9624,"His":9625,"apply":9626,"Ġrural":9627,"ĠConfig":9628,"Ġ=========":9629,"Ġreality":9630,"Ġsculpt":9631,"Ġinstances":9632,"Ñı":9633,"ĠSem":9634,"Ġfn":9635,"aks":9636,"ĠChris":9637,"ĠUnivers":9638,"Ġweights":9639,"ĠDesign":9640,"BB":9641,"Profile":9642,"Ġbeat":9643,"Ġfaith":9644,"////////////////////////////////":9645,"assertEqual":9646,"ĠTam":9647,"Ġpeace":9648,"collection":9649,"Scroll":9650,"Attributes":9651,"Ġcommittee":9652,"algorithm":9653,"abric":9654,"Ġdatasets":9655,"Bound":9656,"Ġcompeted":9657,"Ġraw":9658,"ritical":9659,"DT":9660,"protected":9661,"ĠSant":9662,"[-":9663,"International":9664,"agnetic":9665,"Ġtells":9666,"clusions":9667,"Ġurban":9668,"ĠRights":9669,"âĢĿ.":9670,"IST":9671,"reset":9672,"Ġadvoc":9673,"Ġadvanced":9674,"ĠAND":9675,"Ġvehicles":9676,"Engine":9677,"\"|":9678,"Ġcoverage":9679,"Ins":9680,"conv":9681,"ĠBand":9682,"ĠFire":9683,"Ġouter":9684,"echo":9685,"Ġio":9686,"Ġbalance":9687,"uzz":9688,"editor":9689,"uli":9690,"ĠRod":9691,"ONE":9692,"ĠPhiladelphia":9693,"Ġtraject":9694,"Ġstability":9695,"Ġaffili":9696,"à¥":9697,"INFO":9698,"arring":9699,"ulator":9700,"chmark":9701,"ogram":9702,"webpack":9703,"cu":9704,"Ġrepresentations":9705,"ĠPakistan":9706,"istence":9707,"Ġcontroller":9708,"ULE":9709,"*)":9710,"Ġshop":9711,"ancer":9712,"Ġresident":9713,"inds":9714,"Ġcharacteristic":9715,"Ġsym":9716,"shadow":9717,"Repository":9718,"Ġpit":9719,"Ġquadr":9720,"Dest":9721,"Ġcorpor":9722,"ĠMinnesota":9723,"akh":9724,"ĠAvenue":9725,"Ġfinds":9726,"Seg":9727,"ipse":9728,"Ġprev":9729,"RS":9730,"atern":9731,"ĠOntario":9732,"Details":9733,"Ġsuperv":9734,"Ġcoefficient":9735,"Ġagents":9736,"Ġvariation":9737,"FFFF":9738,"aturday":9739,"ĠSuch":9740,"Ġaudience":9741,"ĠSym":9742,"ĠImage":9743,"Ġnavigation":9744,"Ġcategories":9745,"Ġexponential":9746,"ĠSydney":9747,"Ġheav":9748,"Ġfluct":9749,"Ġnamely":9750,"Ġirre":9751,"yal":9752,"Ġcompr":9753,"Ġsupports":9754,"Ġfunds":9755,"Ġaudio":9756,"Ġreceiving":9757,"Ġstatistical":9758,"ortheast":9759,"Ġdenoted":9760,"ĠRen":9761,"heim":9762,"Ġtal":9763,"igital":9764,"switch":9765,"ĠSus":9766,"het":9767,"Sche":9768,"ĠNether":9769,"quarters":9770,"Ġdie":9771,"ĠToronto":9772,"ĠDespite":9773,"original":9774,"Keys":9775,"ifer":9776,"lower":9777,"atar":9778,"ĠSa":9779,"Ġcauses":9780,"Ġbehaviour":9781,"ĠMcC":9782,"ĠPers":9783,"Ġfaculty":9784,"ilbert":9785,"upload":9786,"gies":9787,"role":9788,"Ã©e":9789,"$:":9790,"fixed":9791,"Ġautomatically":9792,"ĠSher":9793,"aux":9794,"ĠRoute":9795,"Ġportion":9796,"Ġhistoric":9797,"islative":9798,"Ġplants":9799,"................":9800,"Ġlayout":9801,"aton":9802,"plus":9803,"aped":9804,"Ġpossibility":9805,"ĠMarg":9806,"leted":9807,"gment":9808,"getName":9809,"ĠFre":9810,"Ġelev":9811,"ĠAsh":9812,"Plugin":9813,"III":9814,"phant":9815,"Ġbenefit":9816,"Ġstrings":9817,"Ġconvent":9818,"navList":9819,"owa":9820,"Ġsuitable":9821,"Ġshock":9822,"Ġplus":9823,"BUG":9824,"vo":9825,"idi":9826,"Ġtypename":9827,"1935":9828,"Ġrecommend":9829,"emon":9830,"ĠArea":9831,"Ġoptional":9832,"Ġspac":9833,"Ġcorner":9834,"ĠInternet":9835,"\"`":9836,"ĠNode":9837,"utable":9838,"Ġdro":9839,"sat":9840,"Ġmonitor":9841,"FIG":9842,"yard":9843,"ĠTok":9844,"props":9845,"Ġsilver":9846,"Ġreform":9847,"Func":9848,"bg":9849,"ods":9850,"Global":9851,"Duration":9852,"ĠOt":9853,"\\)":9854,"ĠAnth":9855,"game":9856,"isis":9857,"Ġtitles":9858,"hedral":9859,"Ġapplying":9860,"headers":9861,"RAN":9862,"XML":9863,"ĠHun":9864,"generated":9865,"Ġsolo":9866,"Ġfacility":9867,"Ġmusicians":9868,"ĠRom":9869,"ĠFair":9870,"tabs":9871,"ĠWeek":9872,"Ġgeneric":9873,"opes":9874,"Ġbelief":9875,"Auto":9876,"Ġconstants":9877,"achment":9878,"Ġvotes":9879,"ĠUpdate":9880,"Personal":9881,"BI":9882,"Ġjobs":9883,"imb":9884,"ĠColl":9885,"Mapping":9886,"ICE":9887,"paragraph":9888,"Ġneural":9889,"ĠRegiment":9890,"SER":9891,"Ġtail":9892,"Ġtheories":9893,"Ġbundle":9894,"1919":9895,"Ġaccurate":9896,"Double":9897,"Ġoverl":9898,"vi":9899,"Ġexit":9900,"aska":9901,"Ġcontrolled":9902,"ĠPath":9903,"Ġorbit":9904,"Ġce":9905,"Ġqueue":9906,"Ġentropy":9907,"iser":9908,"inton":9909,"Remove":9910,"ĠRaj":9911,"ĠPage":9912,"Abstract":9913,"Ġofficially":9914,"ordan":9915,"Ġcoinc":9916,"functions":9917,"sys":9918,"cussion":9919,"Ġfeet":9920,")[":9921,"}[\\":9922,"joint":9923,"Ġperhaps":9924,"IPT":9925,"Ġaspects":9926,"uum":9927,"ĠStart":9928,"Parse":9929,"Nov":9930,"ronze":9931,"wing":9932,"Feature":9933,"Ġip":9934,"Ġclosely":9935,"Ġ{'":9936,"Ġinstant":9937,"Ġestimation":9938,"1914":9939,"1933":9940,"Ġstored":9941,"bourne":9942,"Ġresulted":9943,"vard":9944,"Ġremote":9945,"Ġdetected":9946,"Ġpublication":9947,"Conf":9948,"Ġtrav":9949,"printf":9950,"Ġnotable":9951,"Ġspan":9952,"Ġperformances":9953,"Author":9954,"They":9955,"Ġdefense":9956,"Ġconsequence":9957,"$/":9958,"gency":9959,"ĠSanta":9960,"ĠWat":9961,"HL":9962,"STATE":9963,"1900":9964,"aded":9965,"chestra":9966,"Ġcampus":9967,"lesssim":9968,"unes":9969,"ĠReal":9970,"fire":9971,"Ġextremely":9972,"Ġentr":9973,"1934":9974,"Ġsupporting":9975,"metadata":9976,"Ġsell":9977,"brid":9978,"Ġconverted":9979,"ĠLast":9980,"ĠDat":9981,"CG":9982,"bp":9983,"Ġdance":9984,"Ġorth":9985,"assertEquals":9986,"fail":9987,"Ġdog":9988,"ctic":9989,"Ġdire":9990,"Ġbenefits":9991,"emet":9992,"Ġreturning":9993,"cha":9994,"$};":9995,"ĠSupport":9996,"mask":9997,"rang":9998,"Ġconsisting":9999,"ĠĠĠĠĠĠĠĠĠĠĠĠĠĠĠĠĠĠĠĠĠĠĠĠĠĠ":10000,"Ġexceed":10001,"indu":10002,"ĠQueens":10003,"ĠVen":10004,"Ġexperi":10005,"Ang":10006,"rank":10007,"ĠAnton":10008,"collapse":10009,"rout":10010,"elect":10011,"Ġtele":10012,"åı":10013,"vee":10014,"Spe":10015,"Conn":10016,"ĠSI":10017,"Best":10018,"ĠĠĠĠĠĠĠĠĠĠĠĠĠĠĠĠĠĠĠĠĠĠĠĠĠĠĠĠĠĠĠĠĠĠĠĠĠĠĠĠĠĠĠ":10019,"Ġpredicted":10020,"establ":10021,"Ġasync":10022,"GO":10023,"<!":10024,"Association":10025,"weg":10026,"fx":10027,"South":10028,"1917":10029,"ĠAirport":10030,"SQL":10031,"Summary":10032,"Ġgained":10033,"ĠTrust":10034,"Under":10035,"asters":10036,"Ġbos":10037,"Ġtermin":10038,"acks":10039,"fall":10040,"ivated":10041,"NULL":10042,"Ġreq":10043,"Ġrows":10044,"Ġattempts":10045,"Ġmunicipal":10046,"platform":10047,"erves":10048,"Transport":10049,"Ġintroduction":10050,"ears":10051,"Ġescape":10052,"Ġdict":10053,"Ġlemma":10054,"dfrac":10055,"ĠDir":10056,"ĠKim":10057,"ĠDer":10058,"Category":10059,"ĠDuke":10060,"Ġsizes":10061,"possible":10062,"rizona":10063,"Ġdialog":10064,"constr":10065,"Ġagree":10066,"SY":10067,"Ġsan":10068,"ĠEngineering":10069,"wrapper":10070,"ĠIV":10071,"Ġmorning":10072,"worth":10073,"Ġprefix":10074,"pert":10075,"ĠDist":10076,"Iterator":10077,"^*$":10078,"$_{":10079,"ĠWisconsin":10080,"Ġferm":10081,"Report":10082,"Socket":10083,"ĠChristmas":10084,"ĠGro":10085,"Ġlumin":10086,"picker":10087,"Ġelectronic":10088,"Ġexplo":10089,"Ġmountain":10090,"Ġinverse":10091,"Ġrestaur":10092,"iveness":10093,"Ġcrow":10094,"Ġarts":10095,"Home":10096,"urance":10097,"hide":10098,"progress":10099,"Ġraces":10100,"Generic":10101,"Ġrain":10102,"Ġconfirm":10103,"Ãº":10104,"Ġatmosp":10105,"Ġspring":10106,"Ġ(_":10107,"123":10108,"RC":10109,"ĠNon":10110,"Fail":10111,"ĠHom":10112,"dialog":10113,"Ġ\\]":10114,"Ġinterests":10115,"Ġsatisfying":10116,"Ġextent":10117,"STAT":10118,"isely":10119,"Ġchampion":10120,"Ġconstructor":10121,"simple":10122,"ĠShort":10123,"Ġtreated":10124,"Ġterritory":10125,"|}{":10126,"1929":10127,"Ġhabit":10128,"itative":10129,"ĠNetherlands":10130,"urches":10131,"iner":10132,"Ġmobile":10133,"Ġhour":10134,"ixels":10135,"igrants":10136,"Ġextensive":10137,"Ġconvers":10138,"anna":10139,"Ġduration":10140,"cribed":10141,"elly":10142,"ĠDavis":10143,"eman":10144,"Ġbusinesses":10145,"ĠBrig":10146,"Ġshut":10147,"ĠLady":10148,"ĠAz":10149,"unnel":10150,"arest":10151,"Ġdiscr":10152,"Ġunable":10153,"alion":10154,"Ġbroken":10155,"elihood":10156,"aset":10157,"ĠCare":10158,"Ġreaction":10159,"Ġrich":10160,"Ġspot":10161,"about":10162,"emetery":10163,"Ġchallenges":10164,"Ġ\"<":10165,"################":10166,"riority":10167,"aph":10168,"ĠLes":10169,"ĠWinter":10170,"Ġentirely":10171,"\\}$.":10172,"Ġwinners":10173,"idx":10174,"ĠCur":10175,"Game":10176,"iterator":10177,"filename":10178,"]$.":10179,"1928":10180,"plicity":10181,"ĠEll":10182,"Ġsampling":10183,"Sync":10184,"ifferent":10185,"DM":10186,"Ġnarr":10187,"Leg":10188,"ourier":10189,"ĠEnvironment":10190,"liance":10191,"ocaml":10192,"ogy":10193,"ĠWars":10194,"Ġhosted":10195,"uating":10196,"Ġseparated":10197,"Ġfell":10198,"áĥ":10199,"mn":10200,"never":10201,"ĠBatt":10202,"ignment":10203,"Ġrefers":10204,"jan":10205,"ĠVAL":10206,"chain":10207,"Ġletters":10208,"Ġdriving":10209,"Ġexpert":10210,"cow":10211,"Ġjudge":10212,"Ġxmlns":10213,"Help":10214,"Ġdrawn":10215,"ĠFox":10216,"itational":10217,"Ġdiver":10218,"tbody":10219,"closed":10220,"ĠResource":10221,"Ġspons":10222,"ĠObserv":10223,"Ġaccident":10224,"ingly":10225,"Ġsufficiently":10226,"tion":10227,"relations":10228,"Ġindicated":10229,"Ġbias":10230,"Ġfiction":10231,"Ġrational":10232,"iples":10233,"Ġ\",":10234,"typed":10235,"Ġexpatriate":10236,"ĠPremier":10237,"Ġpieces":10238,"Ġkill":10239,"ibliography":10240,"Ġfrequently":10241,"ighth":10242,"Ġhouseholds":10243,"allclasses":10244,"%,":10245,"Ġdemocr":10246,"protocol":10247,"Ġinstitution":10248,"Î±":10249,",\\\\":10250,"Ġbrowser":10251,"ĠLandroid":10252,"rie":10253,"Database":10254,"Tele":10255,"Ġwitness":10256,"ĠReact":10257,"ĠCorn":10258,"ĠGree":10259,"Ġ=======":10260,"Ġscholar":10261,"orient":10262,"Ġusage":10263,"raham":10264,"Ġapproved":10265,"{%":10266,"Ġinvestigate":10267,"GA":10268,"Failed":10269,"isa":10270,"ĠHo":10271,"ĠEvery":10272,"Ġri":10273,"LC":10274,"Depend":10275,"Ġpassword":10276,"ĠConf":10277,"Ġhuge":10278,"Generator":10279,"Ġhappened":10280,"Ġele":10281,"Ġdust":10282,"ĠBru":10283,"------------":10284,"ĠSpring":10285,"ĠRon":10286,"ĠIOException":10287,"fc":10288,"Dav":10289,"Ġradiation":10290,"Ġparticipated":10291,"ĠLev":10292,"Ġwasn":10293,"Ġstandards":10294,"asty":10295,"edu":10296,"attributes":10297,"NT":10298,"adesh":10299,"apl":10300,"1932":10301,"Ġwing":10302,"ĠSab":10303,"Ġcontemporary":10304,"ando":10305,"single":10306,"player":10307,"ĠLabor":10308,"Ġsatisfied":10309,"Ġpurchased":10310,"ĠBol":10311,"ajax":10312,"Ġbrain":10313,"ĠDoug":10314,"ursday":10315,"ĠKir":10316,"Ġfashion":10317,"Ġtypeof":10318,"UD":10319,"Ġnegot":10320,"Ġanimals":10321,"Ġfounder":10322,"Ġ?>":10323,"ĠBO":10324,"efe":10325,"rift":10326,"everal":10327,"plom":10328,"ĠComput":10329,"ĠColorado":10330,"fol":10331,"prefix":10332,"ĠTal":10333,"ĠStadium":10334,"ĠWho":10335,"Selection":10336,"Ġmand":10337,"ĠNaz":10338,"Ġdoctor":10339,"erior":10340,"Ġbomb":10341,"istant":10342,"Ġsuffered":10343,"ĠBridge":10344,"ĠSurvey":10345,"ĠTai":10346,"Following":10347,"Ġdimensional":10348,"sample":10349,"Ġrenamed":10350,"Ġskills":10351,"Ġagency":10352,"bean":10353,"regon":10354,"ĠSteve":10355,"including":10356,"Product":10357,"ĠHard":10358,"iem":10359,"maven":10360,"lywood":10361,"ĠBeach":10362,"Ġtransmission":10363,"Ġtrail":10364,"Ġtaught":10365,"ĠHay":10366,"3333":10367,"Ġ).":10368,"sa":10369,"Ġsimultane":10370,"conn":10371,"ĠGolden":10372,"ĠLike":10373,"ĠNa":10374,"Ġhero":10375,"vari":10376,"eral":10377,"Ġvess":10378,"ĠForeign":10379,"Ġguard":10380,"ĠRa":10381,"pur":10382,"rg":10383,"HC":10384,"apos":10385,"ĠLive":10386,"hens":10387,"isting":10388,"ĠSwedish":10389,"essions":10390,"ucket":10391,"ĠControl":10392,"ĠAthlet":10393,"Ġidentical":10394,"(__":10395,"ĉĉĉĉĉĉĉĉĉ":10396,"built":10397,")})":10398,"Ġmixing":10399,"Ġyounger":10400,"OC":10401,"Many":10402,"Ġrom":10403,"ĠIndeed":10404,"Writ":10405,"1910":10406,"ĠSon":10407,"Ġpars":10408,"ĠAre":10409,"ĠDam":10410,"safe":10411,"Ġarms":10412,"zone":10413,"Ġmom":10414,"Ġdecomposition":10415,";}":10416,"Ġinjury":10417,"Ġcommut":10418,"ĠĠĠĠĠĠĠĠĠĠĠĠĠĠĠĠĠĠĠĠĠĠĠĠĠĠĠĠ":10419,"tainment":10420,"Ġdiagonal":10421,"GR":10422,"ĠHash":10423,"ti":10424,"ideos":10425,"tk":10426,"brace":10427,"READ":10428,"Tra":10429,"ĠWel":10430,"arthe":10431,"Ġequilibrium":10432,"ĠChannel":10433,"forcement":10434,"ĠConstitution":10435,"]$,":10436,"Ġeffectively":10437,"Ġbulk":10438,"Ġdefeat":10439,"Ġapplicable":10440,"enable":10441,"depth":10442,"ĠEnergy":10443,"ĠIE":10444,"Ġcovers":10445,"secutive":10446,"slash":10447,"ĠNY":10448,"agg":10449,"ika":10450,"Ġflags":10451,"âĢĿ,":10452,"ĠAppendix":10453,"Ġcoq":10454,"1924":10455,"iration":10456,"eting":10457,"uma":10458,":=":10459,"ĠForest":10460,"ĠDor":10461,"oves":10462,"ĠAS":10463,"agen":10464,"Ġcrisis":10465,"Short":10466,"kens":10467,"temp":10468,"ĠEnt":10469,"Ġwealth":10470,"Ġburn":10471,"Î¿":10472,"Ġderivative":10473,"Ġterror":10474,"Ġdanger":10475,"Ġhol":10476,"ĠJews":10477,"}}_{\\":10478,"Ġconcerns":10479,"ĠMedal":10480,"prev":10481,"ĠStock":10482,"Ġabandon":10483,"Ġliqu":10484,"CHECK":10485,"season":10486,"ĠTy":10487,"Ġsizeof":10488,"EV":10489,"Fin":10490,"Ġcommitted":10491,"plan":10492,"Ġparish":10493,"algebra":10494,"itter":10495,"andy":10496,"colLast":10497,"ĠImm":10498,"ubble":10499,"Ġcanonical":10500,"oor":10501,"Simple":10502,"special":10503,"arity":10504,"ician":10505,")}_":10506,"Trace":10507,"Ġpartnership":10508,"ĠSM":10509,"tags":10510,"Framework":10511,"ĠGets":10512,"ogether":10513,"Ġassumptions":10514,"ĠSingapore":10515,"ĠGer":10516,"ordon":10517,"Ġfish":10518,"ĠIndiana":10519,"ĠSign":10520,",{\\":10521,"1931":10522,"stances":10523,"ĠKansas":10524,"Ġdecor":10525,"Ġcompletion":10526,"MOD":10527,"ĠFinal":10528,"Py":10529,"}\\,\\":10530,"osl":10531,"een":10532,"poly":10533,"Ġcomposer":10534,"ourse":10535,"Ġscheduled":10536,"Ġmetadata":10537,"Ġinn":10538,"Agent":10539,"ĠMill":10540,"bmatrix":10541,"Ġcomputing":10542,"Sources":10543,"ĠMicrosoft":10544,"700":10545,"Ġcatalog":10546,"Ġwinter":10547,"Ġanyone":10548,"plane":10549,"ĠMilitary":10550,"\"><!--":10551,"Ġctx":10552,"Ġtopic":10553,"vals":10554,"ropolitan":10555,"Ġarc":10556,"OUT":10557,"Ġfighting":10558,"Ġequality":10559,"Ġultimately":10560,"Ġdocumentary":10561,"Ġinfer":10562,"ayer":10563,"Ġseed":10564,"enna":10565,"anga":10566,"attery":10567,"Ġvice":10568,"Ġranked":10569,"Ġknew":10570,"Ġdropped":10571,"Ġsequences":10572,"Statement":10573,"'d":10574,"Password":10575,"()</":10576,"jango":10577,"vature":10578,"ĠCountry":10579,"IMP":10580,"ĠBlock":10581,"1922":10582,"ĠSweden":10583,"Ġ],":10584,"Ġabund":10585,"ĠAtlantic":10586,"libr":10587,"plicated":10588,"endor":10589,"Ġproxy":10590,"uris":10591,"ĠPolicy":10592,"Given":10593,"]{\\":10594,"Ġlowest":10595,"HER":10596,"Ġfresh":10597,"Ġcontrad":10598,"bc":10599,"Multi":10600,"Ġparliament":10601,"Ġcredit":10602,"Ġahead":10603,"=>":10604,"uning":10605,"Ġholding":10606,"Player":10607,"1927":10608,"Ġnovels":10609,"uther":10610,"outer":10611,"Ġsignals":10612,"Ġglob":10613,"ITE":10614,"emptyset":10615,"tar":10616,"Ġinterior":10617,"TEXT":10618,"ĠNet":10619,"identifier":10620,"dash":10621,"aming":10622,"tc":10623,"nc":10624,"%.":10625,"WR":10626,"oped":10627,"fd":10628,"jd":10629,"ĠMic":10630,"\\;":10631,"expr":10632,"HP":10633,"ADD":10634,"Ġpredictions":10635,"Sem":10636,"quant":10637,"Ġdomestic":10638,"users":10639,"colFirst":10640,"Ġstatements":10641,"ÐµÐ":10642,"ĠBudd":10643,"Ġinteract":10644,"encing":10645,"ĠBishop":10646,"Ġui":10647,"ĠGiven":10648,"care":10649,"ses":10650,"ambig":10651,"Identifier":10652,"Ġbow":10653,"Cam":10654,"href":10655,"Ġstone":10656,"ania":10657,"ennessee":10658,"ĠInteger":10659,"ĠjQuery":10660,"ĠBall":10661,"ĠTR":10662,"TT":10663,"Attr":10664,"done":10665,"Sequ":10666,"subs":10667,"agan":10668,"Ġpapers":10669,"Ġfuel":10670,"JS":10671,"Ġlists":10672,"ĠAffairs":10673,"Ġending":10674,"/(":10675,"Ġrugby":10676,"Ġswim":10677,"anim":10678,"kh":10679,"bd":10680,"Region":10681,"Ġtemperatures":10682,"Ġmenu":10683,"ĠKal":10684,"ĠVi":10685,"Ġtowns":10686,"GN":10687,"Ġintegrated":10688,"Ġtranslate":10689,"Nodes":10690,"German":10691,"ĠConnect":10692,"Ġopposition":10693,"Ġuniversal":10694,"ĠCas":10695,"ĠMemorial":10696,"Ġmaxim":10697,"ibration":10698,"Progress":10699,"Ġassembly":10700,"Ġdependent":10701,"separ":10702,"BAR":10703,"seq":10704,"ruby":10705,"Total":10706,"ĠNorm":10707,"ĠNiger":10708,"Ġhor":10709,"Ġdoll":10710,"Miss":10711,"NOT":10712,"Wrapper":10713,"ĠWindows":10714,"Cluster":10715,"ĠSD":10716,"sem":10717,"BM":10718,"ochastic":10719,"mathit":10720,"Register":10721,"Variable":10722,"Ġbuy":10723,"ĠNext":10724,"fghan":10725,"?>":10726,"Ġvisited":10727,"Ant":10728,"prob":10729,"ancell":10730,"compiler":10731,"Single":10732,"Ġjustice":10733,"ĠSat":10734,"ĠGreg":10735,"ĠMond":10736,"ĠAdv":10737,"Ġlinked":10738,"Pe":10739,"regular":10740,"ushed":10741,"Ġexpressions":10742,"Äĥ":10743,"ĠSerb":10744,"svg":10745,"ĠMessage":10746,"Ġturb":10747,"ĠFellow":10748,"ĠAbout":10749,"pression":10750,"Ġlosing":10751,"Ġexcell":10752,"ĠMissouri":10753,"scriptstyle":10754,"Ġdisabled":10755,"}}.":10756,"Ġarrested":10757,"changed":10758,"1921":10759,"basic":10760,"Ġvalidation":10761,"fast":10762,"ĠCase":10763,"execute":10764,"errors":10765,"wegian":10766,"Ġtitled":10767,"ĠRest":10768,"Comment":10769,"Song":10770,"lyn":10771,"Stats":10772,"iteral":10773,"Ġsun":10774,"tfrac":10775,"Ġidx":10776,"Ġopposed":10777,"PORT":10778,"ĠBooks":10779,"ĠHart":10780,"}})":10781,"Ġengineer":10782,"nodes":10783,"Ã¢":10784,"ĉčĊ":10785,"Ġconclusion":10786,"Ġadjacent":10787,"Ġnecessarily":10788,"Ġ\"-":10789,"^{*":10790,"login":10791,"Ġpreced":10792,"Ġmir":10793,"eties":10794,"Ġflows":10795,"builder":10796,"Ġjump":10797,"Ġthank":10798,"Ñĭ":10799,"Ġmarg":10800,"urr":10801,"Ġhomes":10802,"usr":10803,"cluster":10804,"Ġmach":10805,">::":10806,"Ġinject":10807,"IND":10808,"ĠGallery":10809,"Ġindices":10810,"Ġstands":10811,"Ġtwenty":10812,"pair":10813,"ymmetry":10814,"arry":10815,"1925":10816,"icing":10817,"Ġanimation":10818,".\");":10819,"unique":10820,"sequently":10821,"ĠArizona":10822,">:":10823,"Ġneutr":10824,"Ġglass":10825,"-(":10826,"Ġwarn":10827,"Ġdeploy":10828,"Ġpoet":10829,"ĠEth":10830,"Mer":10831,"Ġaid":10832,"ĠPrinc":10833,"outs":10834,"ĠTurkey":10835,"Proof":10836,"extern":10837,"1926":10838,"isor":10839,"ĠBaron":10840,"kish":10841,"provider":10842,"ĠSaturday":10843,"ĠLink":10844,"Ġpersons":10845,"Ġdx":10846,"trivial":10847,"Ġcolour":10848,"Install":10849,"ĠĠĠĠĠĠĠĠĠĠĠĠĠĠĠĠĊ":10850,"Ġbriefly":10851,"ĠTer":10852,"longrightarrow":10853,"Ġrg":10854,"month":10855,"Ġdistricts":10856,"Ġcontest":10857,"junit":10858,"Ġpainting":10859,"French":10860,"Ġgender":10861,"Ġcharacteristics":10862,"Ġsevent":10863,"Ġnob":10864,"Ġ[],":10865,"ipher":10866,"Ġmeta":10867,"Ġrig":10868,"ĠBrother":10869,"1912":10870,"Ġoccasion":10871,"TIME":10872,"Ġclock":10873,"Ġgirls":10874,"Ġgravity":10875,"agent":10876,"uties":10877,"ALSE":10878,"Ġtrivial":10879,"cdn":10880,"ĠPit":10881,"ĠExecutive":10882,"xs":10883,"})}":10884,"001":10885,"Ġrelax":10886,"mers":10887,"Ã¥":10888,"igenous":10889,"ĠCEO":10890,"Begin":10891,"Ġthousands":10892,"WN":10893,"iden":10894,"Free":10895,"orizon":10896,"eros":10897,"))\\":10898,"ĠMari":10899,"Ġbodies":10900,"Ġprecision":10901,"Ġvision":10902,"clean":10903,"Ġsurn":10904,"shared":10905,"details":10906,"theless":10907,"Ġwants":10908,"ativ":10909,"merce":10910,"Ġabsence":10911,"will":10912,"Ġpoll":10913,"Ġexecuted":10914,"Ġ'<":10915,"inction":10916,"Ġhappens":10917,"Ġweather":10918,"ĠAD":10919,"ĠCopyright":10920,"Her":10921,"ĠArthur":10922,"Cred":10923,"OF":10924,"elle":10925,"Phys":10926,"('.":10927,"ulse":10928,"Ġattached":10929,"ĠJesus":10930,"Services":10931,"stood":10932,"ĠAnderson":10933,"cest":10934,"1923":10935,"Ġperspective":10936,"ĠChildren":10937,"ĠAssoci":10938,"brief":10939,"Ġarrang":10940,"ĠCaptain":10941,"ĠHou":10942,"oked":10943,"ĠAccess":10944,"COMP":10945,"username":10946,"ĠLeb":10947,"eners":10948,"ĠInvest":10949,"LECT":10950,"urst":10951,"ĠMaryland":10952,"ĠCastle":10953,"sn":10954,"Ġalleged":10955,"ayed":10956,"ĠCart":10957,"ARN":10958,"ÑĮ":10959,"friend":10960,"xhtml":10961,"bras":10962,"western":10963,"ĠSquad":10964,"ques":10965,"ĠOcean":10966,"extension":10967,"ĠAM":10968,"=.":10969,"multirow":10970,"Ã©s":10971,"wp":10972,"owner":10973,"Ġcas":10974,"Ġtx":10975,"Ġfluid":10976,"ĠMun":10977,"report":10978,"ĠAmazon":10979,"Ġreligion":10980,"Ġmetrics":10981,"ĠØ":10982,"Ġprecisely":10983,"ĠCzech":10984,"USE":10985,"omot":10986,"Ġsynchron":10987,"rell":10988,"Ġquantity":10989,"Ġcovering":10990,"Another":10991,"ĠIndones":10992,"Ġderive":10993,"ĠMake":10994,"Ġessentially":10995,"Generated":10996,"arios":10997,"aval":10998,"square":10999,"Ġpun":11000,"Ġconsecutive":11001,"Props":11002,"mad":11003,"ĠThrough":11004,"Ġcompatible":11005,"wig":11006,"ĠBet":11007,"Constants":11008,"Ġquark":11009,"Ġintensity":11010,"ĠNative":11011,"ĠBefore":11012,"Ġlogger":11013,"Ġopinion":11014,"mal":11015,"Ġsentence":11016,"Ġconstitution":11017,"Ġroughly":11018,"'));":11019,"detail":11020,"Ġcart":11021,"sig":11022,"orrow":11023,"islation":11024,"Sur":11025,"bigl":11026,"issue":11027,"Lin":11028,"ĠOregon":11029,"retch":11030,"Ġskip":11031,"Ġjournalist":11032,"bx":11033,"tons":11034,"ĠRow":11035,"Ġembedding":11036,"evin":11037,"Prefix":11038,"Ġpropose":11039,"ĠMaria":11040,"Collections":11041,"Ġseats":11042,"Ġgovernor":11043,"Ġresearchers":11044,"Example":11045,"pattern":11046,"Ġloan":11047,"ĠLewis":11048,"illery":11049,"Ġdense":11050,"ĠColon":11051,"Ġ[\"":11052,"ĠComple":11053,"Biography":11054,"Ġcab":11055,"Ġpretty":11056,"ĠDa":11057,"Ġcm":11058,"FE":11059,"Ġbiggest":11060,"Ġopportunities":11061,"Ġlooks":11062,"Ġdecisions":11063,"Ġindependence":11064,"ĠTownship":11065,"Women":11066,"ĠRose":11067,"ĠWin":11068,"Namespace":11069,"azy":11070,"Ġconfidence":11071,"Tx":11072,"have":11073,"1915":11074,"ĠTH":11075,"wealth":11076,"Final":11077,"ĠMexican":11078,"Ġinterpretation":11079,"except":11080,"plates":11081,"transition":11082,"ĠAgain":11083,"publ":11084,"ĠASSERT":11085,"usform":11086,"ĠFacebook":11087,"atin":11088,"Ġresc":11089,"ois":11090,"throw":11091,"numerusform":11092,"relation":11093,"bigr":11094,"(--":11095,"Ġtopological":11096,"1916":11097,"night":11098,"Ġfragment":11099,"Ġrequested":11100,"Ġcosm":11101,"Ġvent":11102,"ivals":11103,"ropic":11104,"formal":11105,"ellite":11106,"Tax":11107,"offs":11108,"constant":11109,"iota":11110,"isson":11111,"Ġpromote":11112,"Ġpod":11113,"Ġinputs":11114,"ifdef":11115,"ulating":11116,"Ġfemales":11117,"Ġ\\,\\":11118,"ĠTurn":11119,"flat":11120,"ĠPalest":11121,"flex":11122,"Ġalter":11123,"Ġgenerator":11124,"ĠMoh":11125,"Ġresolve":11126,"ĠJoh":11127,"ĠPeak":11128,"Ġpiano":11129,"para":11130,"Ġgate":11131,"ĠDC":11132,"amaz":11133,"Div":11134,"dam":11135,"ĠSource":11136,"oli":11137,"Ġboost":11138,"anches":11139,"services":11140,"Are":11141,"ĠHy":11142,"ĠAlf":11143,"Ġmultip":11144,"Ġdrink":11145,"ĠDocument":11146,"Skip":11147,"invalid":11148,"Ġcarbon":11149,"Ġyards":11150,"Lemma":11151,"east":11152,"inant":11153,"Role":11154,"ĠStandard":11155,"serial":11156,"icular":11157,"Ġ^{":11158,"Ġexcess":11159,"Ġtradition":11160,"ĠMountain":11161,"Pres":11162,"ĠThursday":11163,"video":11164,"Ġspecify":11165,"Ġquantities":11166,"CB":11167,"ĠBrad":11168,"cross":11169,"Ġeducational":11170,"ĠOfficer":11171,"trace":11172,"ĠUnit":11173,"etal":11174,"Ġadmin":11175,"Cert":11176,"PER":11177,"Ġdecade":11178,"ĠFederation":11179,"}}}\\":11180,"Ġradial":11181,"ĠCA":11182,"Ġorb":11183,"Ġdesignated":11184,"Ġsole":11185,"Ġphoto":11186,"ĠOnce":11187,"Domain":11188,"agues":11189,"Ġphone":11190,"orted":11191,"Ġmaximal":11192,"Ġpractical":11193,"ĠRepresentatives":11194,"Visible":11195,"ĠAdam":11196,"ACT":11197,"CRE":11198,"achelor":11199,"Consider":11200,"Ġhall":11201,"ĠAP":11202,"coh":11203,"Transform":11204,"Math":11205,"Ġrelationships":11206,"${\\":11207,"ĠMiller":11208,"ĠProcess":11209,"uce":11210,"Ġrenew":11211,"ĠMoscow":11212,"iversary":11213,"Ġroyal":11214,"resources":11215,"Ġcold":11216,"stan":11217,"theme":11218,"Ġstorm":11219,"Ġmist":11220,"okes":11221,"Import":11222,"Ġseek":11223,"Encoded":11224,"Ġinfrastructure":11225,"Execut":11226,"Ġmodules":11227,"ĠSE":11228,"Ġmental":11229,"ĠTennessee":11230,"ĠAmb":11231,"Ġhear":11232,"design":11233,"lass":11234,"sym":11235,"Ġexplanation":11236,"Most":11237,"Ġdefines":11238,"ĠLabour":11239,"ners":11240,"Christ":11241,"Ġscoring":11242,"aren":11243,"ĠLeon":11244,"ĠHan":11245,"Ġfrag":11246,"ĠVietnam":11247,"Ġwins":11248,"Ġenergies":11249,"ffect":11250,"Ġprofession":11251,"ĠEP":11252,"posing":11253,"Ġaccounts":11254,"ĠInstead":11255,"ierarchy":11256,"Ġok":11257,"ĠGrant":11258,"rog":11259,"Ġtemp":11260,"ras":11261,"engers":11262,"Ġnotion":11263,"feature":11264,"2023":11265,"ĠTransport":11266,"Ġlect":11267,"Ġdoor":11268,"Ġpublisher":11269,"avelength":11270,"...</":11271,"ĠLow":11272,"Flow":11273,"assembly":11274,"ships":11275,"Olymp":11276,"Ġdens":11277,"ĠFront":11278,"Ġclick":11279,"ĠHTTP":11280,"Cho":11281,"Black":11282,"ĠGh":11283,"Ġsac":11284,"ĠRetri":11285,"uy":11286,"imination":11287,"Resources":11288,"FLA":11289,"how":11290,"Ġfilled":11291,"Ġmyst":11292,"gebras":11293,"Ġgreatest":11294,"Interval":11295,"Ġparser":11296,"ãĢ":11297,"inos":11298,"Ġcharset":11299,"CAA":11300,"ĠJacob":11301,"Ġqualified":11302,"ples":11303,"Ġbreaking":11304,"NC":11305,"IVE":11306,"ĠRoss":11307,"Texture":11308,"Ġprepared":11309,"URI":11310,"Ġeye":11311,"tikzpicture":11312,"ĠFriday":11313,"Ġparticipants":11314,"putation":11315,";\">":11316,"RT":11317,"ĠHal":11318,"Headers":11319,"Ġmel":11320,"Ġment":11321,"Ġ([":11322,"issip":11323,"hd":11324,"Ġchapter":11325,"ureau":11326,"Language":11327,"Ġheaders":11328,"ĠStaff":11329,"Ġdepos":11330,"ĠLtd":11331,"Ġcolspan":11332,"Ġvariance":11333,"ĠWrit":11334,"rf":11335,"Email":11336,"ahoma":11337,"Day":11338,"expect":11339,"}$}":11340,"stitut":11341,"ĠRad":11342,"springframework":11343,"tensor":11344,"pu":11345,"pull":11346,"Ġyellow":11347,"!!":11348,"![":11349,"ĠHoly":11350,"Ġignore":11351,"EEEE":11352,"aked":11353,"Ġ}}":11354,"Ġnonlinear":11355,"XXXX":11356,"Ġprovider":11357,"ĠRecord":11358,"iti":11359,"Ġsale":11360,"Ġdemonstrate":11361,"yrics":11362,"comb":11363,"Ġentitled":11364,"Ġ$,":11365,"ĠDue":11366,"Ġproducing":11367,"Ġguest":11368,"structure":11369,"ĠSav":11370,"uplic":11371,"Bel":11372,"Ġweapons":11373,"Ġwarm":11374,"connected":11375,"Ġversus":11376,"wt":11377,"Ġexplore":11378,"Ġargued":11379,"ĠAh":11380,"Ġforeach":11381,"ĠFord":11382,"Ġiteration":11383,"Ġcancel":11384,"ĠHttp":11385,"Ġintermediate":11386,"Ġburied":11387,"issues":11388,"DEFAULT":11389,"Ġ({\\":11390,"ĠBarn":11391,"Ġsomewhat":11392,"ĠNAME":11393,"Ġlang":11394,"Ġattempted":11395,"+(":11396,"ĠEu":11397,"unately":11398,"tle":11399,"ĠToday":11400,"OB":11401,"Ġmes":11402,"Ġdocumentation":11403,"Mask":11404,"AE":11405,"Ġdeform":11406,"storage":11407,"HTTP":11408,"Ġhypothesis":11409,"CTYPE":11410,"»¿":11411,"irth":11412,"ĠUkraine":11413,"ummy":11414,"Ġbatch":11415,"POST":11416,"(@":11417,"}_{-":11418,"moz":11419,"Ġchairman":11420,"series":11421,"Ben":11422,"counter":11423,"})^":11424,"Ġgeneralized":11425,"Ġvot":11426,"Ġprogramme":11427,"Ġschol":11428,"Ġrecru":11429,"Ġtargets":11430,"Ġpractices":11431,"Ġintelligence":11432,"ea":11433,"iations":11434,"ĠAdministration":11435,"chant":11436,"][]{":11437,"ĠHas":11438,"William":11439,"Ġfeedback":11440,"Ġrestricted":11441,"urd":11442,"coln":11443,"Ġanom":11444,"mean":11445,"Ġwrest":11446,"Ġimmediate":11447,"SF":11448,"ĠGuide":11449,"ĠPhilippines":11450,"Ġresponsibility":11451,"irical":11452,"Ġdisplayed":11453,"ĠHarry":11454,"typedef":11455,"Ġdestination":11456,"textcolor":11457,"Ġfan":11458,"flag":11459,"Star":11460,"ĠAge":11461,"Ġfaster":11462,"Ġfestival":11463,"Ġnullptr":11464,"DateTime":11465,"Ġtsd":11466,"ï»¿":11467,"columnwidth":11468,"Fore":11469,"Ġpasses":11470,"ĠMedicine":11471,"ĠAfghan":11472,"Google":11473,"ĠCab":11474,"ĠPhilip":11475,"('#":11476,"Ġdisp":11477,"required":11478,"Ġintent":11479,"Ġregarded":11480,"Ġpermanent":11481,"ĠStory":11482,"oa":11483,"async":11484,"Ġcollaboration":11485,"Ġphoton":11486,"ĠNorway":11487,"Ġ];":11488,"ĠPier":11489,"Ġcontributed":11490,"Ġ\\&":11491,"Ġtheatre":11492,"roit":11493,"Ġdecrease":11494,"states":11495,"Ġsaved":11496,"phony":11497,"Ax":11498,"}}^{\\":11499,"Ġapproximate":11500,"figures":11501,"Ġsand":11502,"Ġoldest":11503,"Ġbits":11504,"Ġ×":11505,"/\"":11506,"OST":11507,"Ġstages":11508,"1913":11509,"Ġ\\(\\":11510,"govern":11511,"signature":11512,"Ġscores":11513,"Ġencounter":11514,"Plot":11515,"Ġfavour":11516,"Ġimprovement":11517,"indexOf":11518,"Ġcircuit":11519,"/.":11520,"Ġsecure":11521,"Ġanimal":11522,"Ġprompt":11523,"ĠUI":11524,"Ġvariant":11525,"Ġrevolution":11526,"ĠNever":11527,"Ke":11528,"Ġinvolves":11529,")--(":11530,"Book":11531,"Ġconcerned":11532,"ĠHiggs":11533,"ĠBan":11534,"ensis":11535,"Ġcontents":11536,"Ġscenes":11537,"otional":11538,"don":11539,"uj":11540,"witzer":11541,"Ġtested":11542,"Ġwalls":11543,"Ġworldwide":11544,"Family":11545,"Ġcontribute":11546,"Ġbought":11547,"ĠLcom":11548,"Ġpatient":11549,"Awards":11550,"ĠLind":11551,"Ġ---":11552,"Ġcustomers":11553,"})=":11554,"Ġcaref":11555,"ĠFac":11556,"Ġcmd":11557,"Ġpref":11558,".<":11559,"MF":11560,"scriptsize":11561,"enabled":11562,"Ġoccupied":11563,"Ġappend":11564,"Find":11565,"DOCTYPE":11566,"ĠModern":11567,"apsed":11568,"Canadian":11569,"Len":11570,"Ġdyn":11571,"Ġherself":11572,"prise":11573,"ĠTa":11574,"Ep":11575,"allest":11576,"Ġisomorphism":11577,"represent":11578,"Ġsought":11579,"Ġasymptotic":11580,"Ġhorizontal":11581,"rev":11582,"ÃŃa":11583,"Ġhorse":11584,"trim":11585,"Ġped":11586,"checkbox":11587,"Ġdiplom":11588,"Ġwish":11589,"Ġplease":11590,"ownt":11591,"some":11592,"ĠCost":11593,"Ġpermission":11594,"urable":11595,"ĠAmong":11596,"mk":11597,"Ġappre":11598,"Ġstores":11599,"ulus":11600,"Hence":11601,"Ġcomplement":11602,"expand":11603,"Registry":11604,"}~":11605,"Uri":11606,"Ġblog":11607,"ĠBat":11608,"moment":11609,"Ġexperiences":11610,"PD":11611,"Ġnominated":11612,"Japan":11613,"Ġdirections":11614,"arith":11615,"cers":11616,"Children":11617,"tests":11618,"apel":11619,"åĪ":11620,"('/":11621,"Ġproperly":11622,"opts":11623,"ĠHighway":11624,"ĠApple":11625,"hist":11626,"ĠKhan":11627,"iii":11628,"ĠBuilding":11629,"Ġenv":11630,"pag":11631,"Olympic":11632,"observ":11633,",'":11634,"wick":11635,"ndef":11636,"zo":11637,"omer":11638,"Ġsucceeded":11639,"Ġcurvature":11640,"artheta":11641,"Ġneutral":11642,"Ġuniverse":11643,"Ġrejected":11644,"Ġclients":11645,"Life":11646,"sun":11647,"SN":11648,"Ġiron":11649,"ĠSaf":11650,"ĠEU":11651,"blank":11652,"ycl":11653,"ĠCommun":11654,"Program":11655,"Ġextreme":11656,"vartheta":11657,"ĠPot":11658,"oses":11659,"ĠJordan":11660,"ĠUl":11661,"job":11662,"Ġoperate":11663,"ante":11664,"Ġdates":11665,"Ġhy":11666,"Ġcommunic":11667,"witzerland":11668,"uts":11669,"!\\":11670,"Ġaddresses":11671,"'];":11672,"Ġexecute":11673,"ĠSoftware":11674,"Ġstarring":11675,"ĠCurrent":11676,"negative":11677,"assandra":11678,"living":11679,"Ġstrategies":11680,"Ġcombat":11681,"abet":11682,"Ġproduces":11683,")->":11684,"Ġcriteria":11685,"ĠArrayList":11686,"Est":11687,"TRUE":11688,"Methods":11689,"python":11690,"ĠCustom":11691,"ptic":11692,"Release":11693,"...,":11694,"aturally":11695,"phase":11696,"Ġapart":11697,"ĠEs":11698,"Ġmedalists":11699,"Ġ''":11700,"Ġdominant":11701,"Shape":11702,"Ġdepict":11703,"ĠLOG":11704,"uese":11705,"}|\\":11706,"Ġcryst":11707,"Ġfee":11708,"ĠMit":11709,"ictional":11710,"Ġpercentage":11711,"iley":11712,"was":11713,"ĠLore":11714,"oust":11715,"\"],":11716,"Ġassuming":11717,"ĠVo":11718,"Ġgenerating":11719,"ĠBor":11720,"\\}$,":11721,"Ġconservation":11722,"Ġevaluated":11723,"verage":11724,"Ġrefused":11725,"\\}\\":11726,"zy":11727,"Ġtransparent":11728,"ĠassertThat":11729,"Ġdemonstrated":11730,"Ġ}{":11731,"Hub":11732,"accept":11733,"checked":11734,"cludes":11735,"abama":11736,"Ġvocal":11737,"ĠBalt":11738,"ĠGreece":11739,"ĠCommunic":11740,"Ġcolors":11741,"Ġanalyz":11742,"inator":11743,"Ġrespective":11744,"Ġlegislation":11745,"Li":11746,"antasy":11747,"ANG":11748,"Ġreasonable":11749,"ĠGib":11750,"resize":11751,"Ġwel":11752,"130":11753,"Real":11754,"ĠSimon":11755,"ĠBit":11756,"written":11757,"Ġbelongs":11758,"VALUE":11759,"Ġinstruction":11760,"Ġfaced":11761,"Overview":11762,"Ġtower":11763,"Ġast":11764,"Ġindicating":11765,"Ġnormalized":11766,"Ġjourney":11767,"aware":11768,"Ġdt":11769,"ĠMunic":11770,"there":11771,"Ġpilot":11772,"Ġenhance":11773,"Ġschedule":11774,"Ġguide":11775,"oven":11776,"ĠBaseball":11777,"Ġroots":11778,"ĠJane":11779,"Ġseparation":11780,"Ġredshift":11781,"Ġdream":11782,"Ġconversion":11783,"native":11784,"Vertex":11785,"1911":11786,"ĠSche":11787,"ĠProperty":11788,"Ġ{\"":11789,"Ġcontrols":11790,"icians":11791,"Ġcorrection":11792,"ruption":11793,"Returns":11794,"ĠIowa":11795,"ĠVice":11796,"ĠNE":11797,"acts":11798,"Scal":11799,"klahoma":11800,"ĠZh":11801,"plementation":11802,"ĠHop":11803,"println":11804,"ĠBh":11805,"ĠSky":11806,"oltip":11807,"Ġreaching":11808,"ĠMagazine":11809,"PY":11810,"incial":11811,"Ġcausing":11812,"Ġorientation":11813,"ĠRight":11814,"ĠAlbert":11815,"ĠNFL":11816,"ĠEntertainment":11817,"ista":11818,"Ġcloser":11819,"Ġsoci":11820,"isen":11821,"Ġtmp":11822,"Ġhelps":11823,"Ġcritics":11824,"Make":11825,"Ġpurchase":11826,"Bind":11827,"ĠNAS":11828,"Ġenum":11829,"Ġcrick":11830,"Ġhumans":11831,"Ġexperienced":11832,";\\;\\":11833,"ĠNick":11834,"Enter":11835,"Ġdynamical":11836,"Ġtimeout":11837,"Ġspeak":11838,"ĠBoolean":11839,"Ġdefinitions":11840,"ĠSix":11841,"Ġcompens":11842,"ĠSenior":11843,"parallel":11844,"overview":11845,"Ġthinking":11846,"Ġshares":11847,"Ġpremier":11848,"Ġhotel":11849,"usal":11850,"Delegate":11851,"Ġexhibition":11852,"ĠSound":11853,"Ġdependencies":11854,"Ġjet":11855,"ĠArk":11856,"asm":11857,"np":11858,"Ġeducated":11859,"Ġneighbour":11860,"Ġquasi":11861,"Ġperiods":11862,"Ġstochastic":11863,"dc":11864,"Ġadapted":11865,"ĠFreder":11866,"Landroid":11867,"Ġjoining":11868,"Ġsupposed":11869,"Ġdebug":11870,"emony":11871,"tenance":11872,"ĠRequest":11873,"triangle":11874,"icut":11875,"ĠallClasses":11876,"lab":11877,"ĠJunior":11878,"contrib":11879,"Ġbrothers":11880,"Ġcodes":11881,"EEEEFF":11882,"Ġmanagers":11883,"otten":11884,"tah":11885,"Ġmerged":11886,"IGHT":11887,"Ġcharacterized":11888,"ĠallClassesLink":11889,"Hon":11890,"owski":11891,"Ġmedi":11892,"Ġtriple":11893,".\",":11894,"Ġmagnet":11895,"Ġmoves":11896,"Ġcarri":11897,"redu":11898,"()))":11899,"incess":11900,"Mouse":11901,"Ġthir":11902,"idal":11903,"Elements":11904,"lad":11905,"subsec":11906,"igate":11907,"ĠFA":11908,"Ġvolunte":11909,"cline":11910,"ounded":11911,"ospit":11912,"lu":11913,"ĠDiego":11914,"optional":11915,"Ġunderstood":11916,"onymous":11917,"Ġtherap":11918,"enez":11919,"\"\"\"":11920,"Qual":11921,"}}=":11922,"æľ":11923,"ĠLear":11924,"esides":11925,"Ġreset":11926,"trl":11927,"helper":11928,"Struct":11929,"brand":11930,"Ġproposal":11931,"pub":11932,"quote":11933,"North":11934,"mouse":11935,"inema":11936,"Ġdominated":11937,"127":11938,"Ġcook":11939,"oupl":11940,"METH":11941,"ĠMelbourne":11942,"Ġclip":11943,"Ġgoods":11944,"FM":11945,"Ġsixth":11946,"Forms":11947,"Ġpromotion":11948,"gar":11949,"instein":11950,"Ġchose":11951,"Ġracing":11952,"ologists":11953,"Ġcertainly":11954,"Ġassets":11955,"LOCK":11956,"Ġscroll":11957,"atomic":11958,"ĠLanguage":11959,"ĠGram":11960,"Ġlegend":11961,"agnostic":11962,"Mill":11963,"Ġdashed":11964,"yy":11965,"ĠRefer":11966,"RPC":11967,"ĠSQL":11968,"Ġbinding":11969,"repe":11970,"Ġfails":11971,"Ġsky":11972,"Ġmoments":11973,"ĠIR":11974,"ĠDark":11975,"Ġconfigurations":11976,"Ġscientists":11977,"ouses":11978,"Ġhun":11979,"Ġvillages":11980,"Ġeyes":11981,"^{(\\":11982,"Ġbroke":11983,"oving":11984,"ĠBos":11985,"Ġsustain":11986,"Ġpresidential":11987,"Ġpossess":11988,"Ġcapable":11989,"ÏĦ":11990,"Ġgravitational":11991,"Ġban":11992,"ĠIslamic":11993,"&=\\":11994,"iami":11995,"Ã¼r":11996,"dag":11997,"origin":11998,"endment":11999,"ĠTony":12000,"ĠMalays":12001,"Animation":12002,"ativity":12003,"Film":12004,"burn":12005,"jet":12006,"SV":12007,"ĠNAV":12008,"Ġmodal":12009,"Xi":12010,"ĠĠčĊ":12011,"decl":12012,"1908":12013,"Ġvideos":12014,"Death":12015,"Ġapplies":12016,"nold":12017,"Ġrequirement":12018,"Edge":12019,"Bibliography":12020,"Aug":12021,"\\%$":12022,"Ø±":12023,"pb":12024,"Ġna":12025,"icide":12026,"wich":12027,"ĠMas":12028,"ĠConsider":12029,"groups":12030,"Ġfear":12031,"Ġcaptain":12032,"construct":12033,"Ġvo":12034,"Ġ(;":12035,"Ġbronze":12036,"ĠPM":12037,"ĠEric":12038,"ĠBab":12039,"ĠKentucky":12040,"fef":12041,"ĠBrian":12042,"Mc":12043,"lope":12044,"Ġreserved":12045,"Ġfoundation":12046,"Ġheavily":12047,"REQ":12048,"ibilities":12049,"Ġaccompl":12050,"Ga":12051,"ĠPRO":12052,"hab":12053,"elve":12054,"inth":12055,"ĠSC":12056,"ĠOriginal":12057,"Ġvariations":12058,"Ign":12059,"Ġkilling":12060,"Tags":12061,"typen":12062,"Environment":12063,"Ġvirt":12064,"Ġsensitive":12065,"folio":12066,"ĠRoy":12067,"ĠForces":12068,"Ġchoices":12069,"EP":12070,"Stop":12071,"Ġsettled":12072,"\\|\\":12073,"Ġphases":12074,"deep":12075,"LINE":12076,"Ġpayment":12077,"ĠEND":12078,"Ġboundaries":12079,"Ġplugin":12080,"Ġles":12081,"Ġstudying":12082,"Ġdiscovery":12083,"PM":12084,"rupted":12085,"Ġheadquarters":12086,"Ġthanks":12087,"ĠCELL":12088,"']['":12089,"Geography":12090,"Ġ@\"":12091,"Ġpixel":12092,"Ġenemy":12093,"Private":12094,"spin":12095,"Ġmaintained":12096,"ocor":12097,"Cr":12098,"Ġdriven":12099,"testing":12100,"umps":12101,"Ġsql":12102,"download":12103,":=\\":12104,"Ġattorney":12105,"IDTH":12106,"itecture":12107,"Ġpriority":12108,"METHOD":12109,"ĠGeV":12110,"rated":12111,"comes":12112,"Admin":12113,"ateur":12114,"Ġdirectors":12115,"NavBarFont":12116,"Oct":12117,"angel":12118,"Ġsending":12119,"ÐµÐ½":12120,"Ġnp":12121,"Ġformerly":12122,"ĠHouston":12123,"Screen":12124,"Hom":12125,"Ġcharts":12126,"timeout":12127,"Ġreplacing":12128,"Ġkeeping":12129,"Ġkick":12130,"Ġtrains":12131,"!]":12132,"finite":12133,"Ġreads":12134,"ĠCR":12135,"Ġadvent":12136,"aired":12137,"Ġconsumer":12138,"release":12139,"Ġstead":12140,"angers":12141,"Ġstopped":12142,"Ġcorrections":12143,"bat":12144,"ĠDoctor":12145,"ĠPerson":12146,"UK":12147,"ycle":12148,"Ġoffices":12149,",\\,\\":12150,"owned":12151,"ĠFame":12152,"ĠBurn":12153,"Populated":12154,"Ġconcentration":12155,"ceive":12156,"Ġvalign":12157,":[":12158,"Ġschema":12159,"ĠSquare":12160,"}{*":12161,"Ġtrip":12162,"paper":12163,"Plan":12164,"Drawing":12165,"Sportspeople":12166,"Ġcompre":12167,"Ġsymbols":12168,"Ġkil":12169,"lot":12170,"Light":12171,"specific":12172,"ITION":12173,"ĠHoward":12174,"ĠĠĠĠĠĠĠĠĠĠĠĠĠĠĠĠĠĠĠĠĠĠĠĠĠĠĠĠĠĠ":12175,"Ġcoaches":12176,"Db":12177,"olving":12178,"Ġproportional":12179,"Ġequivalence":12180,"Ġdelivered":12181,"Ġmd":12182,"Suppose":12183,"Ġmales":12184,"Ġclassic":12185,"visible":12186,"lat":12187,"aron":12188,"hered":12189,"Ġadult":12190,"ĠSto":12191,"uscript":12192,"ĠML":12193,"Ġassistance":12194,"Ġplate":12195,".\\\\":12196,"Cloud":12197,"ĠDick":12198,"ĠTen":12199,"Fragment":12200,"warning":12201,"kov":12202,"ÛĮ":12203,"ĠJos":12204,"typename":12205,"Wallet":12206,"mont":12207,"kt":12208,"ibraries":12209,"ä»":12210,"Ġwat":12211,"Ġstanding":12212,"Ġgraduate":12213,"Bean":12214,"Ġcommander":12215,"Ġlosses":12216,"ĠIsraeli":12217,"Ġgene":12218,"esome":12219,"undefined":12220,"ordinate":12221,"Ġcoupled":12222,"Ġstyles":12223,"Ġloaded":12224,"Ġvul":12225,"amazon":12226,"Ġresistance":12227,"ublin":12228,"elson":12229,"route":12230,"backslash":12231,"Ġpopulations":12232,"ortion":12233,"aza":12234,"Ġagencies":12235,"ĠStone":12236,"compile":12237,"ĠManchester":12238,"ĠLiter":12239,"analy":12240,"Ġrefuge":12241,"Cent":12242,"Ġgone":12243,"Ġdescribing":12244,"Den":12245,"Moreover":12246,"\\/":12247,"Ġshortly":12248,"Ġcollapse":12249,"Sample":12250,"ĠDun":12251,"shal":12252,"created":12253,"Ġappearing":12254,"115":12255,"Ġlogic":12256,";)":12257,"objects":12258,"Ġneither":12259,"ĠPR":12260,"database":12261,"ĠLincoln":12262,"ĠCru":12263,"Ġreduces":12264,"Lower":12265,"medskip":12266,"Ġsubjects":12267,"ogonal":12268,"ĠWed":12269,"Ġprofiles":12270,"Ġretirement":12271,"Ġconcluded":12272,"enny":12273,"Ġmal":12274,"ĠHor":12275,"ĠChile":12276,"itely":12277,"Ġmerge":12278,"develop":12279,"ĠAud":12280,"supported":12281,"VE":12282,"Ġisot":12283,"Ġpromise":12284,"itudes":12285,"Ġhelping":12286,"Ġsud":12287,"Ġsubsection":12288,"Ġpartially":12289,"ENSE":12290,"Ġmarkets":12291,"ĠJam":12292,"creens":12293,"Ty":12294,"policy":12295,"Ġcrucial":12296,"TF":12297,"Ġsons":12298,"ĠMarine":12299,"ĠAgency":12300,"Ġmodify":12301,"Flag":12302,"ĠInput":12303,"!\"":12304,"ymn":12305,"Ġopts":12306,"vironments":12307,"ĠAustria":12308,"Ġreplacement":12309,"issippi":12310,"ĠChange":12311,"INTER":12312,"Move":12313,"Ġroutes":12314,"ĠMatt":12315,"Ġspr":12316,"ĠPut":12317,"volume":12318,"isition":12319,"Coll":12320,"Ġtight":12321,"isot":12322,"idges":12323,"ĠTokyo":12324,"@{":12325,"ainian":12326,"Ġtemporary":12327,"gov":12328,"<<":12329,"ĠSwitzerland":12330,"Ġhair":12331,"ĠKat":12332,"Ġinclusion":12333,"Ġmovies":12334,"Ġaged":12335,"Ġlawyer":12336,"Ġpotentially":12337,"111":12338,"pend":12339,"Ġdisappe":12340,"ĠDonald":12341,"Ġveter":12342,"Detail":12343,"Ġsimilarly":12344,"Required":12345,"Ġviewed":12346,"Ġ>>":12347,"ĠLead":12348,"000000":12349,"equations":12350,"ĠIss":12351,"Å«":12352,"views":12353,"Ġmolecular":12354,"vect":12355,"oda":12356,"Ġmys":12357,"Ġteachers":12358,"ĠVector":12359,"Ġvacuum":12360,"ĠAndroid":12361,"getValue":12362,"Ġvirus":12363,"}\\|":12364,"Ġcub":12365,"bus":12366,"ĠExample":12367,"Ġreverse":12368,"Ġfiled":12369,"Ġbind":12370,"esc":12371,"Ġtang":12372,"nob":12373,"ĠThird":12374,"proxy":12375,"methods":12376,"ĠHollywood":12377,"agnostics":12378,"Ġillustrated":12379,"ĠMoon":12380,"Ġstrike":12381,"wave":12382,"Look":12383,"ardo":12384,"who":12385,"ĠRub":12386,"ĠÄ":12387,"About":12388,"Ġlistener":12389,"sequence":12390,"zi":12391,"ĠQueensland":12392,"ĠBah":12393,"ambiguation":12394,"Ġfought":12395,"Ġmo":12396,"Ġeigenvalues":12397,"acew":12398,"runtime":12399,"ĠFa":12400,"thrift":12401,"ĠSearch":12402,"ĠCape":12403,"ĠRegional":12404,"ĠAnthony":12405,"^*\\":12406,"Ġcrossing":12407,"ĠSin":12408,"exit":12409,"Australian":12410,"Vari":12411,"Ġrecovery":12412,"Ġfacilit":12413,"Ġseeing":12414,"Ġopacity":12415,"uable":12416,"ĠAlabama":12417,"Ġengaged":12418,"bounds":12419,"Ġsb":12420,"fefefe":12421,"Ð²":12422,"âĢħ":12423,"library":12424,"Ġmayor":12425,"Ġreadonly":12426,"erset":12427,"Ġliquid":12428,"ĠTwitter":12429,"SW":12430,"slice":12431,"Ġmembership":12432,"ĠHans":12433,"Ġrecommended":12434,"Ġtack":12435,"Ġthin":12436,"Ġmusician":12437,"Ġsituated":12438,"Ġvalidate":12439,"ĠAdditionally":12440,"Ġlift":12441,"resolve":12442,"Ġfranch":12443,"rep":12444,"Ġdrums":12445,"Ġdismiss":12446,"=\"../../../../../../../":12447,"Ġcenturies":12448,"Ġdebate":12449,"havior":12450,"Ġaccused":12451,"Endpoint":12452,"aco":12453,"ĠCP":12454,"Ġhits":12455,"dig":12456,"Ġroof":12457,"hensive":12458,"anton":12459,"Ġincreasingly":12460,"Ġmort":12461,"ĠNev":12462,"Ġvictims":12463,"ĠSri":12464,"Ġdrum":12465,"ilevel":12466,"pto":12467,"console":12468,"through":12469,"Ġ$\\{\\":12470,"Pair":12471,"complex":12472,"once":12473,"Ġdetector":12474,"ĠTemple":12475,"agu":12476,"react":12477,"David":12478,"Ġinfluenced":12479,"1890":12480,"Ġlyrics":12481,"Ġsail":12482,"Ġupdates":12483,"Ġpainter":12484,"atever":12485,"analysis":12486,"Ġsimultaneously":12487,"ĠCulture":12488,"ĠAllen":12489,"ESS":12490,"æĸ":12491,"Ġfolk":12492,"ĠPatrick":12493,"sep":12494,"Ġbeautiful":12495,"phantom":12496,"ĠDream":12497,"ĠDeb":12498,"102":12499,"Ġsubstantial":12500,"ĠDefense":12501,"setup":12502,"corollary":12503,"iva":12504,"atom":12505,"Ġmoder":12506,"ĠCle":12507,"distance":12508,"tics":12509,"Ali":12510,"Ġprovision":12511,"Ġoffering":12512,"ducible":12513,"Ġbed":12514,"nie":12515,"Ġsurg":12516,"Ġrgba":12517,"/{":12518,"Ġaccord":12519,"sidebar":12520,"Card":12521,"ĠBra":12522,"Ġparticipate":12523,"SCR":12524,"overty":12525,"ĠNAVBAR":12526,"Ġ'\\":12527,"Notification":12528,"posure":12529,"ĠProt":12530,"argo":12531,"Ġreward":12532,"rig":12533,"inian":12534,"LR":12535,"ĠWalter":12536,"Ġluminosity":12537,"Ġincorporated":12538,"ĠHarris":12539,"acon":12540,"Ġduty":12541,"ĠBureau":12542,"Ġjazz":12543,"Ġpresents":12544,"Ġeasier":12545,"variable":12546,"ĠGall":12547,"door":12548,"ĠEmperor":12549,"Ġframes":12550,"Ġà¤":12551,"Ġentertain":12552,"ANCE":12553,"$\\\\":12554,"Ġ,\\":12555,"vertical":12556,"å®":12557,"Ġclassified":12558,"Ġkid":12559,"gi":12560,"Ġwa":12561,"ĠCore":12562,"slant":12563,"anchor":12564,"Ġimplicit":12565,"Ġpm":12566,"Ġprops":12567,"Ġanimated":12568,"insic":12569,"ĠAst":12570,"erving":12571,"Ġfold":12572,"VALID":12573,"ĠEarl":12574,"Ġabuse":12575,"Ġpublications":12576,"Ġsevere":12577,"ELD":12578,"profit":12579,"Ġperiodic":12580,"ĠOperation":12581,"requency":12582,"105":12583,"Ġacknowled":12584,"conduct":12585,"ĠCop":12586,"****************************************************************":12587,"zip":12588,"ĠTerm":12589,"Ġrevenue":12590,"Ġfounding":12591,"Normal":12592,"Ġwindows":12593,"feed":12594,"ĠCond":12595,"Limit":12596,"ocese":12597,"Ġmart":12598,"Ġpointed":12599,"aneous":12600,"wx":12601,"Ġaccommod":12602,"ĠKy":12603,"odox":12604,"ĠâĢ¦":12605,"standard":12606,"ĠBuck":12607,"blog":12608,"Ġtransactions":12609,"clone":12610,"Ġdrag":12611,"Ġestablishment":12612,"exec":12613,"compare":12614,"Ġwarning":12615,"Î¹":12616,"ĠBeng":12617,"ographical":12618,"odge":12619,"Ġtemple":12620,"ellect":12621,"%\"":12622,"Save":12623,"Ġparamet":12624,"activity":12625,"Once":12626,"stage":12627,"rangian":12628,"Ġsuppose":12629,"Ġminute":12630,"\\!\\":12631,"ĠValid":12632,"ĠOklahoma":12633,"kwargs":12634,"Ġlimitations":12635,"Ġsleep":12636,"Ġmatters":12637,"Basic":12638,"Ġcreates":12639,"Ġgather":12640,"ĠNich":12641,"Ġrapidly":12642,"1905":12643,"Ġhistorian":12644,"Ġspeaking":12645,"anny":12646,"ĠRey":12647,"inch":12648,"missions":12649,"sis":12650,"Drop":12651,"Ġ\"$":12652,"ryption":12653,"ĠHeart":12654,"ĠMoore":12655,"ĠSIZE":12656,"Ġwire":12657,"Ġattacked":12658,"Sequence":12659,"oni":12660,"Allow":12661,"eland":12662,"ĠCG":12663,"Ġowners":12664,"rik":12665,"glyph":12666,"ĠTag":12667,"Ids":12668,"umption":12669,"Ġpipeline":12670,"STRING":12671,"ynamics":12672,"ĠSquadron":12673,"Focus":12674,"dk":12675,"NUM":12676,"Ġfluctuations":12677,"Ġdiagn":12678,"Ġdry":12679,"Ġtranslated":12680,"Ġairport":12681,"Ġscenarios":12682,"shop":12683,"Ġreconstruction":12684,"Ġinvited":12685,"destroy":12686,"Ġmit":12687,"ĠĠĠĠĠĠĠĠĠĠĊ":12688,"ĠAnne":12689,"Ġcircumstances":12690,"Ġadvers":12691,"duration":12692,"SSL":12693,"Ġpanels":12694,"cod":12695,"Ġblow":12696,"ĠChall":12697,"Ġliterary":12698,"UC":12699,"elastic":12700,")^\\":12701,"ĠBox":12702,"tp":12703,"osed":12704,"ĠCommonwealth":12705,"á»":12706,"irms":12707,"Ã©t":12708,"ĠHarvard":12709,"Ġss":12710,"ebox":12711,"Ġsupers":12712,"Ġtalking":12713,"ĠOtt":12714,"Ġsmart":12715,"selector":12716,"convert":12717,"Men":12718,"Ġpenalty":12719,"Ġlake":12720,"ĠReb":12721,"Ġconventional":12722,"ĠÐ¿":12723,"ĠANY":12724,"uerto":12725,"Ġranges":12726,"Ġperturbation":12727,"Ġcourts":12728,"ĠMonday":12729,"reement":12730,"parts":12731,"Compiler":12732,"eron":12733,"radio":12734,"via":12735,"spacing":12736,"ĠMarc":12737,"Ġvarying":12738,"iors":12739,"Phil":12740,"ĠOptional":12741,"available":12742,"=[":12743,"Ġconfigure":12744,"Ġgeometric":12745,"loss":12746,"Ġstrictly":12747,"Ms":12748,"ĠPi":12749,"ailability":12750,",.":12751,"Ġprecise":12752,"DEBUG":12753,"isations":12754,"Ġexplos":12755,"ĠFle":12756,"Ġsurfaces":12757,"Ġformally":12758,"alia":12759,"ĠMand":12760,"Ġdrivers":12761,"Ġcourses":12762,"Ġcaught":12763,"ĠFer":12764,"Ġcursor":12765,"112":12766,"forming":12767,"ĠSimilarly":12768,"Ġprotein":12769,"Ġmob":12770,"arner":12771,"esis":12772,"Ġcorrectly":12773,"FP":12774,"^*(":12775,"Ġhearing":12776,"Ġatoms":12777,"boldmath":12778,"Ġrestriction":12779,"period":12780,"herical":12781,"ĠMatthe":12782,"Ġdegener":12783,"ĠNaval":12784,"Pred":12785,"direction":12786,"Ġsigns":12787,"isset":12788,"(\"/":12789,"ĠTreat":12790,"Ġguns":12791,"Word":12792,"Ġworker":12793,"extend":12794,"Ġaug":12795,"Ġĉ":12796,"ĠFall":12797,"Ġappeal":12798,"Ġsi":12799,"Tube":12800,"igious":12801,"Ġjuris":12802,"Ġlooked":12803,"plier":12804,"Consumer":12805,"Ġanchor":12806,"FORM":12807,"ikh":12808,"Ġwaiting":12809,"Ġconcrete":12810,"ĠJay":12811,"Ġchecked":12812,"Native":12813,"Ġidentification":12814,"1906":12815,"Ġexpectation":12816,"getElementById":12817,"calendar":12818,"USER":12819,"?\"":12820,"sb":12821,"Subs":12822,"Major":12823,"Ġemergency":12824,"Ġtopology":12825,"ĠNorwegian":12826,"ĠDigital":12827,"Ġphotograph":12828,"ĠMean":12829,"Ġclinical":12830,"Ġrein":12831,"loyd":12832,"ĠLoad":12833,"Warning":12834,"Ġuncertainties":12835,"ĠBry":12836,"factory":12837,"Ġquot":12838,"ĠKitt":12839,"Ġcollision":12840,"uler":12841,"Ġselector":12842,"tf":12843,"ĠDisney":12844,"ĠPlayer":12845,"jecture":12846,"Ġphilosophy":12847,"ĠInfantry":12848,"140":12849,"Conver":12850,"ArgumentException":12851,"=\"$":12852,"MIN":12853,"Ġfrequencies":12854,"Ġimpossible":12855,"urrence":12856,"nm":12857,"ĠBush":12858,"ORY":12859,"Ġpione":12860,"leges":12861,"scopic":12862,"leveland":12863,"loader":12864,"OW":12865,"\"].":12866,"Ġdiverse":12867,"ificial":12868,"bridge":12869,"ĠBlo":12870,"subject":12871,"ugu":12872,"Ġcrowd":12873,"Ġchurches":12874,"Ġleaf":12875,"Ġfacts":12876,"Just":12877,"Ġescap":12878,"Ġ(),":12879,"ĠNCAA":12880,"Ġnortheast":12881,"Ġmarketing":12882,"orer":12883,"Ġwavelength":12884,"Ġpeer":12885,"ICENSE":12886,"Ġtags":12887,"ustries":12888,"åħ":12889,"Ġcollections":12890,"Mich":12891,"constructor":12892,"Ġdiffusion":12893,"ĠVideo":12894,"Ġbond":12895,"(.":12896,"bums":12897,"Offic":12898,"wd":12899,"Rob":12900,"Ġconjug":12901,"overs":12902,"Ġbringing":12903,"Ġuniversities":12904,"archive":12905,"oi":12906,"ĠPay":12907,"lections":12908,")}(\\":12909,"Ġlit":12910,"cycl":12911,"Ġsolving":12912,"ĠSud":12913,"1907":12914,"Ġmigr":12915,"Ġastr":12916,"ĠPa":12917,"PUT":12918,"QU":12919,"Ġlaid":12920,"Ġstronger":12921,"Ð´":12922,"Ġruled":12923,"ĠBillboard":12924,"comput":12925,"ĠTurkish":12926,"Ġclosure":12927,"ĠGab":12928,"Ġvoted":12929,"Ġworst":12930,"#{":12931,"Ġsystematic":12932,"ĠOak":12933,"Information":12934,"amps":12935,"Ġdiscussions":12936,"Ġalert":12937,"ĠDM":12938,"Sql":12939,"ĠKaz":12940,"Ġmining":12941,"ĠYouth":12942,"NSString":12943,"Ġmodeling":12944,"chell":12945,"1909":12946,"Ġassociate":12947,"ĠPope":12948,"ĠMS":12949,"hook":12950,"Organ":12951,"ĠPas":12952,"Dictionary":12953,"aro":12954,"socket":12955,"Ġprinciples":12956,"inces":12957,"itics":12958,"sync":12959,"Ġnaturally":12960,"1904":12961,"disambiguation":12962,"ĠGard":12963,"Ġaccum":12964,"$.}":12965,"iliar":12966,"wbr":12967,"çĶ":12968,"Constant":12969,"Ġschemes":12970,"merge":12971,"ishment":12972,"ĠFuture":12973,"Operator":12974,"ĠDetroit":12975,"goto":12976,"Ġcommissioned":12977,"Ġinhabit":12978,"Ġmanifest":12979,"larg":12980,"Ġformulation":12981,"ĠHotel":12982,"Ġdeviation":12983,"Ġswe":12984,"Ġuniformly":12985,"mathtt":12986,"Ġdelta":12987,"ARG":12988,"Ġmetall":12989,"Govern":12990,"Ġmanage":12991,"uber":12992,">)":12993,"batch":12994,"ĠFood":12995,"Ġbuf":12996,"ĠAT":12997,"owntown":12998,"facebook":12999,"may":13000,"Pers":13001,"Eval":13002,"Ġadaptation":13003,"Ġ(,":13004,"Ġsuppor":13005,"Ġsharing":13006,"Ġexercise":13007,"apis":13008,"notag":13009,"ÑģÑĤ":13010,"yers":13011,"117":13012,"Ġfitting":13013,"sr":13014,"360":13015,"olished":13016,"Å¾":13017,"olo":13018,"(-\\":13019,"Ġpaintings":13020,"Ġrating":13021,"ovak":13022,"ĠHeritage":13023,"Ġreprodu":13024,"animation":13025,"ĠFROM":13026,"izers":13027,"ĠRab":13028,"Ġchair":13029,"ĠGordon":13030,"ĠFourier":13031,"allas":13032,"Ġcompilation":13033,"ĠWhit":13034,"ĠNob":13035,"clip":13036,"Ġinvent":13037,"WORD":13038,"Ġordinary":13039,"isp":13040,"ĠFull":13041,"ibl":13042,"Ġdesigns":13043,"ders":13044,"ĠTelevision":13045,"Ġcorporate":13046,"ĠConnecticut":13047,"Ġgrade":13048,"ĠOS":13049,"Ġteen":13050,"ĠWrite":13051,"footnotes":13052,"invariant":13053,"ĠWy":13054,"Ġinjured":13055,"Ġshooting":13056,"Ġopera":13057,"Capt":13058,"Ġbranches":13059,"Î½":13060,":@\"":13061,"Ġaired":13062,")}.":13063,"OPT":13064,"Ġquadratic":13065,"Television":13066,"Wait":13067,"isEmpty":13068,"Ġceremony":13069,"ĠMississippi":13070,"ĠEag":13071,"Ġmile":13072,"ntil":13073,"Ġmedicine":13074,"ĠSuppose":13075,"Ġcommands":13076,"nesday":13077,"EventListener":13078,"_);":13079,"350":13080,"Ġfalls":13081,"ĠSite":13082,"wen":13083,"ĠĠĠĠĠĠĠĠĠĠĠĠĠĠĠĠĠĠĠĠĠĠĠĠĠĠĠĠĠĠĠĠĠ":13084,"Ġpixels":13085,"Ġemployment":13086,"Ġplatforms":13087,"jQuery":13088,"Ġnavbar":13089,"Ġ{$\\":13090,"father":13091,"Ġwrites":13092,"Ġsegments":13093,"Ġhundreds":13094,"ĠMrs":13095,"Ġaccompan":13096,"Mac":13097,"Ġcarrying":13098,"Rober":13099,"Ġisolated":13100,"Ġconn":13101,"GP":13102,"iliary":13103,"ĠArgentina":13104,"Ġcash":13105,"Ġarmed":13106,"GBT":13107,"{|":13108,"Place":13109,"aire":13110,"Ġamounts":13111,"yll":13112,"Ġepoch":13113,"vet":13114,"Europe":13115,"Ġapilevel":13116,"ĠBrun":13117,"Ġtables":13118,"Ġfly":13119,"ongo":13120,"Ġ\"\",":13121,"Ġretain":13122,"ĠSN":13123,"Îµ":13124,"ifndef":13125,"gather":13126,"Ġpartners":13127,"Ġbaseline":13128,"Ġdelivery":13129,"DATA":13130,"ĠIllegal":13131,"elian":13132,"ĠDead":13133,"}>":13134,"fortunately":13135,"Ġmanip":13136,"Ġconcerning":13137,"driver":13138,"~(\\":13139,"Ġtyped":13140,"cluding":13141,"aten":13142,"Ġsteel":13143,"Ġinterpol":13144,"ĠScient":13145,"ĠObama":13146,"ĠTaiwan":13147,"ulp":13148,"olut":13149,"Ġrestrictions":13150,"ĠXML":13151,"ĠBerk":13152,"ĠResponse":13153,"{\"":13154,"ĠSport":13155,"utation":13156,"ige":13157,"ĠMonte":13158,"Stud":13159,"imore":13160,"imits":13161,"Ġlob":13162,"Ġdisorder":13163,"expression":13164,".$$":13165,"tection":13166,"mag":13167,"Ñĩ":13168,"ĠKam":13169,"Ġrealized":13170,"ĠSilver":13171,"Born":13172,"Ġ'';":13173,"Ġsys":13174,"MAP":13175,"uction":13176,"ethe":13177,"Ġownership":13178,"BY":13179,"ĠProdu":13180,"Ġhandling":13181,"Ġinsurance":13182,"Connect":13183,"etary":13184,"Ġcenters":13185,"Ġinvestigated":13186,"ĠNik":13187,"Ġcomplicated":13188,"ĠEarly":13189,"Ġconvolution":13190,"asp":13191,"Ġscr":13192,"Ġkin":13193,"textnormal":13194,"tsburgh":13195,"hal":13196,"Ġassignment":13197,"Ġatomic":13198,"ĠPhill":13199,"Ġmaybe":13200,"Ġstructural":13201,"Ġclim":13202,"Ġannounce":13203,"Ġstraightforward":13204,"Ġbuck":13205,"Ġqueries":13206,"Ġpolarization":13207,"Ġequipped":13208,"learning":13209,"ĠSel":13210,"Unknown":13211,"*}[":13212,"isons":13213,"stud":13214,"Ġris":13215,"Ġassault":13216,"ĠRol":13217,"Ð¼":13218,"ugs":13219,"REG":13220,"Ġadvice":13221,"ĠDO":13222,"ĠMiami":13223,"Ġelectrons":13224,"ĠBattalion":13225,"ĠEuro":13226,"|$":13227,"repre":13228,"Volume":13229,"ĠNap":13230,"ĠVin":13231,"ĠPlace":13232,"ĠBowl":13233,"ĠEconomic":13234,"ĠBulg":13235,"ĠLank":13236,"Ġderivatives":13237,"{.":13238,"Ġrevers":13239,"Ġtries":13240,"ĠApache":13241,"logo":13242,"SELECT":13243,"Microsoft":13244,"spirit":13245,"ĠRyan":13246,"Mal":13247,"craft":13248,"ĠKnow":13249,"Ġsingers":13250,"ĠDescription":13251,"Education":13252,"nol":13253,"Ġsurname":13254,"Ġmouse":13255,"Ġregularly":13256,"ĠMC":13257,"Ġgrounds":13258,"rena":13259,"Ġfindings":13260,"ĠStatus":13261,"Fn":13262,"ugar":13263,"pload":13264,"pressed":13265,"uon":13266,"Ġsin":13267,"Ġbrown":13268,"Ġsignificance":13269,"Ġaccessible":13270,"Ġoutcome":13271,"boost":13272,"Ġcouldn":13273,"inburgh":13274,"navigation":13275,"ashi":13276,"YY":13277,"Ġcreative":13278,"Clear":13279,"ĠSH":13280,"Ġsoccer":13281,"Ġentities":13282,"Ã´":13283,"Publ":13284,"reprene":13285,"Ġtemporal":13286,"Validator":13287,"GER":13288,"Ġconsisted":13289,"Ġchallenging":13290,"Ãł":13291,"icator":13292,"vertex":13293,"Objects":13294,"Ġpoetry":13295,"Ġresidual":13296,"footnotesize":13297,"San":13298,"dynamic":13299,"ĠLam":13300,"ĠTraining":13301,"loading":13302,"Ġprohib":13303,"production":13304,"Ġgoverning":13305,"density":13306,"Ġunus":13307,"ANT":13308,"Ġsphere":13309,"loaded":13310,"Ġloading":13311,"Observ":13312,"Ġ\"\";":13313,"thick":13314,"Platform":13315,"Driver":13316,"Ġflu":13317,"Ġkids":13318,"Validation":13319,"Ġlandscape":13320,"catch":13321,"Ð¾Ð²":13322,"Ġinfl":13323,"ĠCook":13324,"Ġreserve":13325,"104":13326,"ĠALIGN":13327,"rock":13328,"Bottom":13329,"ĠExpress":13330,"ĠCov":13331,"validate":13332,"urrican":13333,"photon":13334,"ĠTerrit":13335,"ĠCemetery":13336,"olves":13337,"Alloc":13338,"ĠDomin":13339,"Ġdomains":13340,"Ġextensions":13341,"Mount":13342,"TestCase":13343,"shell":13344,"Ġrent":13345,"ircles":13346,"ĠContin":13347,"Ġstrip":13348,"Ġdecide":13349,"Ġneighb":13350,"Ä«":13351,"Ġengines":13352,"Ġhalo":13353,"Ġembedded":13354,"Ġreducing":13355,"iry":13356,"ensitive":13357,"issance":13358,"transaction":13359,"Phone":13360,"Ġalgebraic":13361,"notations":13362,"1901":13363,"Ġtopics":13364,"tures":13365,"hot":13366,"ĠSwiss":13367,"ĠLouisiana":13368,":`":13369,"memory":13370,"ĠVari":13371,"Ġcyl":13372,"ctors":13373,"ĠHonor":13374,"inherit":13375,"Ġdistances":13376,"ĠPA":13377,"Ġimpr":13378,"Ġhappy":13379,"ĠDeath":13380,"covery":13381,"Ġabandoned":13382,"ĠPur":13383,"intend":13384,"InputStream":13385,"~~~~~~~~":13386,"$^":13387,"NET":13388,"Compat":13389,"Ġvast":13390,"Notable":13391,"Ġham":13392,"ĠClient":13393,"ĠðŁ":13394,"Ġpreferred":13395,"ĠDouglas":13396,"program":13397,"Ġexhibit":13398,"Ġpublishing":13399,"Execution":13400,"ĠHawai":13401,"toBe":13402,"Insert":13403,"hfill":13404,"good":13405,"Ð°Ð½":13406,"Ġignored":13407,"acewatch":13408,"Ġconvention":13409,"ĠPortuguese":13410,")(\\":13411,"Ġentrance":13412,"alert":13413,"Ġongoing":13414,"Ġspend":13415,"Complete":13416,"åĲ":13417,"ĠRemove":13418,"ĠSets":13419,"ĠNewton":13420,"Ġentang":13421,"cycle":13422,"PHP":13423,"ĠCNN":13424,"Ġdefining":13425,"ĠBelgium":13426,"ĠDave":13427,"Ġruntime":13428,"elements":13429,"Ham":13430,"Ġwonder":13431,"ensing":13432,"Ġuniqu":13433,"ĠFinn":13434,"Ġtechnologies":13435,">\"":13436,"eva":13437,"particle":13438,"Ġcompete":13439,"Vill":13440,"elem":13441,"ĠOrth":13442,"Ġprivacy":13443,"'_{":13444,"Center":13445,"ĠMock":13446,"cuda":13447,"Ġextracted":13448,"Ġprices":13449,"erk":13450,"Ġcompetitions":13451,"Ġspending":13452,"Ġweighted":13453,"MODULE":13454,"Ġhomogeneous":13455,"speed":13456,"ĠDaily":13457,"Ġpub":13458,"enezuel":13459,"Ġaux":13460,"Ġtransitions":13461,"Mr":13462,"PROJECT":13463,"Ġrival":13464,"âĢ¢":13465,"IOException":13466,"unny":13467,"fetch":13468,"Join":13469,"ĠAlan":13470,"Ġinaug":13471,"arguments":13472,"1903":13473,"Ġfired":13474,"Ġselling":13475,"Ġsituations":13476,"ĠNatural":13477,"multline":13478,"rob":13479,"Ġig":13480,"Ġarrival":13481,"Ġconnecting":13482,"ÙĨ":13483,"Previous":13484,"Ġexcellent":13485,"Indian":13486,"Ġstuff":13487,"highlight":13488,"Ġprepare":13489,"ĠLawrence":13490,"Ġregulations":13491,"cfg":13492,"Ġstating":13493,"Ġsuit":13494,"Ġruling":13495,"Ġnations":13496,"\\|_":13497,"rett":13498,"ĠReserve":13499,"Ġsoutheast":13500,"aze":13501,"Ġfleet":13502,"sha":13503,"Ġlose":13504,"ĠKevin":13505,"ceil":13506,"ulum":13507,"Where":13508,"bey":13509,"uesday":13510,"ĠAtlanta":13511,"Ġtennis":13512,"Ġinstruments":13513,"disable":13514,"ĠVillage":13515,"Raw":13516,"}{{\\":13517,"Ġwhenever":13518,"ÙĦ":13519,"1880":13520,"ĠAle":13521,"song":13522,"nest":13523,"Ġoccas":13524,"Ġposted":13525,"collect":13526,"ĠSpacewatch":13527,"ĠFind":13528,"pin":13529,"rama":13530,"ĠNag":13531,"Ġmanuscript":13532,"tip":13533,"Ġensemble":13534,"Pal":13535,"ried":13536,"nik":13537,"Ġrear":13538,"Ġmetres":13539,"Ġbold":13540,"Old":13541,"dark":13542,"ĠNam":13543,"tre":13544,"ĠHu":13545,"avia":13546,"Ġbenchmark":13547,"Ġlikelihood":13548,"Ġanalys":13549,"audi":13550,"party":13551,")>":13552,"Enumer":13553,"Ġsupplied":13554,"ĠSamuel":13555,"ĠMaur":13556,"ubb":13557,"Ġhosts":13558,"ĠDal":13559,"Cur":13560,"Batch":13561,"ĠTrade":13562,"ĠPos":13563,"$'":13564,"ĠLib":13565,"ĠColomb":13566,"East":13567,"hill":13568,"Ġidentifier":13569,"ecture":13570,"Ġelimin":13571,"ĠRound":13572,"ilst":13573,"RED":13574,"Har":13575,"Ġanniversary":13576,"Dependency":13577,"Bal":13578,"Ġbanks":13579,"Ġpacket":13580,"Ġdiversity":13581,"Ġsensitivity":13582,"Ġcustomer":13583,"Ġexpensive":13584,"ĠArmen":13585,"Ġelif":13586,"Span":13587,"ĠQuebec":13588,"Border":13589,"Ġurg":13590,"Ġskin":13591,"aments":13592,"bone":13593,"Ġdisestabl":13594,"Ġcopyright":13595,"/\">":13596,"Ġstreets":13597,"Rich":13598,"vars":13599,"opol":13600,"Ġdecreases":13601,"ĠUtah":13602,"ĠFOR":13603,"Ġelementary":13604,"mouth":13605,"ĠStew":13606,"Ġvolumes":13607,"ĠAntonio":13608,"Condition":13609,"iamond":13610,"ĠCow":13611,"Ġinduct":13612,"ecl":13613,"pshire":13614,"Ġconsideration":13615,"Ġhybrid":13616,"March":13617,"1902":13618,"ORTED":13619,"$\\,":13620,"Ġcomic":13621,"ido":13622,"Ġvoting":13623,"Ġter":13624,"Ġreign":13625,"Ġequals":13626,"ividual":13627,"IAL":13628,"three":13629,"ï¼Į":13630,"submit":13631,"oths":13632,"Ġmechanisms":13633,"iri":13634,"integ":13635,"acht":13636,"integer":13637,"tb":13638,"Ġ\\\"":13639,"oca":13640,"abad":13641,"ĠHerm":13642,"Ġethnic":13643,"Ġpriest":13644,"Ġbirds":13645,"Ġseeking":13646,"Ġanalytic":13647,"selection":13648,"ĠCSS":13649,"downarrow":13650,"opsis":13651,"Ġboat":13652,"Ġapproval":13653,"Present":13654,"acer":13655,"Also":13656,"validation":13657,"ĠLaure":13658,"ĠWalker":13659,"ju":13660,"roc":13661,"Ġreceiver":13662,"Ġindependently":13663,"Ġdrawing":13664,"()),":13665,"Ġresolved":13666,"Ġregression":13667,"Ġremainder":13668,"ĠUr":13669,"ĠPortugal":13670,"Ġexcited":13671,"Ġhardware":13672,"Navigation":13673,"watch":13674,"Ġinvasion":13675,"Mapper":13676,"lia":13677,"eget":13678,"uble":13679,"Ġhighway":13680,"atherine":13681,"ĠDak":13682,"ĠOrganization":13683,"ĠTree":13684,"6666":13685,"sson":13686,"ickets":13687,"gments":13688,"Ġbacking":13689,"Ġmanufacturing":13690,"Ġjs":13691,"Ġconservative":13692,"chart":13693,"gets":13694,"VP":13695,"asma":13696,"ĠPrix":13697,"Ġfib":13698,"formed":13699,"ORDER":13700,"ĠChairman":13701,"Setting":13702,"Ġorbital":13703,"Military":13704,"Paul":13705,"ĠLiberal":13706,"ÅŁ":13707,"lon":13708,"Ġnick":13709,"ĠLemmon":13710,"Ġfaces":13711,"ĠKer":13712,"contents":13713,"=$":13714,"ĠConstant":13715,"ĠBus":13716,"relative":13717,"Mus":13718,"Ġboys":13719,"Ġdrugs":13720,"Ġmilit":13721,"ĠHockey":13722,"Identity":13723,"Should":13724,"Binding":13725,"Comparison":13726,"propto":13727,"ĠKa":13728,"binom":13729,"Ġnearest":13730,"ections":13731,"Ġmacro":13732,"edding":13733,"romagnetic":13734,"Ġaf":13735,"Ġsees":13736,"Ġutility":13737,"Ġsed":13738,"Ġenvironments":13739,"Rate":13740,"Serializer":13741,"ĠJun":13742,"Ġendpoint":13743,"ĠAlgorithm":13744,"ahn":13745,"Ġoutputs":13746,"Constructor":13747,"Ġexports":13748,"uparrow":13749,"Ġ'./":13750,"gray":13751,"Roman":13752,"Ġdial":13753,"ĠLINE":13754,"Ġcompetitive":13755,"|^{":13756,"orses":13757,"porated":13758,"ĠSystems":13759,"Ġdensities":13760,"Ġpresentation":13761,"Ġreporting":13762,"deprecated":13763,"ĠChampions":13764,"Super":13765,"opter":13766,"Tl":13767,"Ġaccret":13768,"middle":13769,"ĠKo":13770,"Ġdescend":13771,"Ġshel":13772,"Ġvulner":13773,"Football":13774,"textsf":13775,"ymp":13776,"Ġretail":13777,"Histor":13778,"Ġgovernments":13779,"Ġstats":13780,"Ġacid":13781,"assador":13782,"Through":13783,"commons":13784,"Cmd":13785,"ells":13786,"ĠIndependent":13787,"Ġadmitted":13788,"INS":13789,"commit":13790,"Series":13791,"ĠCroat":13792,"lined":13793,"ĠFix":13794,"Ġstabil":13795,"Ġregistration":13796,"Ġwaters":13797,"LOC":13798,"Audio":13799,"HD":13800,"ĠPC":13801,"ĠStudios":13802,"structed":13803,"Ġanalyze":13804,"Ġconcepts":13805,"Based":13806,"James":13807,"ĠCapital":13808,"iah":13809,"Ġprocedures":13810,"Ġislands":13811,"ĠWAR":13812,"spl":13813,"incor":13814,"ĠPed":13815,"isode":13816,"ĠDB":13817,"ĠEmer":13818,"ĠLoc":13819,"Mo":13820,"Ġcricket":13821,"bara":13822,"Throw":13823,"ellectual":13824,"ayan":13825,"ĠEdinburgh":13826,"Ġresidence":13827,"Ġsecretary":13828,"directory":13829,"Cref":13830,"Ġcounts":13831,"Ġdip":13832,"omas":13833,"Ġhired":13834,"Ġpup":13835,"holders":13836,"Ġsynd":13837,"iemann":13838,"Ġdiagrams":13839,"wi":13840,"Ġsatellite":13841,"Nullable":13842,"Ġentering":13843,"Ġdistinguish":13844,"Segment":13845,"ste":13846,"Ġtropical":13847,"ĠDVD":13848,"ĠLieutenant":13849,"Users":13850,"mf":13851,"Ġpublicly":13852,"Ġtransformations":13853,"Login":13854,"Ġsudden":13855,"ĠAbd":13856,"ounced":13857,"MODE":13858,"Strategy":13859,"Spr":13860,"heric":13861,"Ġcontrovers":13862,"Ġabsorption":13863,"Ġforming":13864,"examples":13865,"ĠBrazilian":13866,"Html":13867,"Ġmine":13868,"ĠAlber":13869,"extra":13870,"ĠGirl":13871,"referred":13872,"=\\{":13873,"pd":13874,"plain":13875,"team":13876,"Amount":13877,"Like":13878,"]^":13879,"ĠApplication":13880,"Ġjunior":13881,"Ġroads":13882,"Proto":13883,"ĠAuthority":13884,"priv":13885,"Prim":13886,"aman":13887,"ĠDenmark":13888,"Ġterr":13889,"Ġcompliance":13890,"Ġcod":13891,"^{[":13892,"ĠIns":13893,"Ġcontroll":13894,"Ġlegisl":13895,"Ġpoverty":13896,"hips":13897,"fb":13898,"Ġtruck":13899,"Ġsparse":13900,"ĠImperial":13901,"}.}":13902,"Ġedited":13903,".\"\"\"":13904,"Ġthrown":13905,"Pack":13906,"Ġsnow":13907,"ĠBrigade":13908,"ĠJuan":13909,"iated":13910,"Che":13911,"Future":13912,"Former":13913,"Diff":13914,"ĠPrint":13915,"qual":13916,"iche":13917,"ĠInv":13918,"ĠDur":13919,"ĠMayor":13920,"Ġpatch":13921,"103":13922,"Ġillegal":13923,"ĠCensus":13924,"ĠDublin":13925,"Cursor":13926,"Ġpassenger":13927,"ĠAlice":13928,"Ġheads":13929,"Inner":13930,"libs":13931,"leftarrow":13932,"intro":13933,"Ġcro":13934,"outing":13935,"ĠHum":13936,"messages":13937,"Ġelli":13938,"ĠAccount":13939,"Ġsportspeople":13940,"HERE":13941,"]))":13942,"Ġscholars":13943,"ĠAfghanistan":13944,"Ġexposed":13945,"charge":13946,"uh":13947,"Ġanth":13948,"Every":13949,"INST":13950,"=\\\"":13951,"ĠPuerto":13952,"Ġexperts":13953,")\",":13954,"Weight":13955,"Ġoperates":13956,"Ġbid":13957,"Ġmail":13958,"hour":13959,"ĠWIT":13960,"ĠLas":13961,"clide":13962,"ĠDefinition":13963,"Ġconsiderable":13964,"ĠHills":13965,"forEach":13966,"Ġtouchdown":13967,"ĠVirtual":13968,"Ġsolved":13969,"AX":13970,"DEF":13971,"äº":13972,"ĠMcK":13973,"heading":13974,"Ġdiameter":13975,"rink":13976,"etition":13977,"Ġlands":13978,"bow":13979,"ĠDouble":13980,"Ġcolle":13981,"Ġreaches":13982,"GM":13983,"oche":13984,"Bad":13985,"Gui":13986,"Ġrandomly":13987,"Ġagricultural":13988,"elines":13989,"ĠKelly":13990,"ĠMarshall":13991,"Ġaw":13992,"Ã«":13993,"rypted":13994,"Ġconsumption":13995,"Ġdiscipl":13996,"ĠPython":13997,"&&\\":13998,"ruction":13999,"uality":14000,"ĠWorks":14001,"Ġconditional":14002,"]=":14003,"Standard":14004,"ĠSP":14005,"ĠPeace":14006,"Folder":14007,"ĠResp":14008,"Ġinterpreted":14009,"116":14010,"ĠSimple":14011,"ĠChem":14012,"ĠSeason":14013,"oustic":14014,"Ġresponses":14015,"ĠEver":14016,"Ġcastle":14017,"ĠCloud":14018,"assign":14019,"ned":14020,"Append":14021,"Ġcomparable":14022,"Ġdispersion":14023,"Green":14024,"Ġlocomot":14025,"Ġpseudo":14026,"ĠDean":14027,"Ġpayload":14028,"900":14029,"runner":14030,"Groups":14031,"Ġalias":14032,"sects":14033,"ĠRap":14034,"hello":14035,"Ġaccompanied":14036,"Ġevening":14037,"ilk":14038,"half":14039,"Ġparticipation":14040,"Club":14041,"week":14042,"August":14043,"ĠPap":14044,"Ġsimilarity":14045,"Ġfilters":14046,"Ġfitted":14047,"ĠLock":14048,"Ġearliest":14049,"Ġsight":14050,"ĠWhere":14051,"phrase":14052,"ĠLic":14053,"ERS":14054,"Ġdies":14055,"Ġ\\[":14056,"gradient":14057,"ĠFM":14058,"ĠOrchestra":14059,"Ġcrash":14060,"Ġoccupation":14061,"Ġadults":14062,"ĠChen":14063,"ĠOC":14064,"Ġedit":14065,"away":14066,"Resolver":14067,"Ġ\">":14068,"&=&\\":14069,"??":14070,"Ġsubmitted":14071,"enda":14072,"Annotation":14073,"ĠManu":14074,"hoen":14075,"ailand":14076,"Ġracial":14077,"ĉĠĠĠĠĠ":14078,"Ġfranchise":14079,"umul":14080,"']);":14081,"CHAR":14082,"Addr":14083,"Ġlogging":14084,"Ġelectro":14085,"Remote":14086,"Power":14087,"Ġrooms":14088,"fff":14089,"Ġcomparing":14090,"ĠDeputy":14091,"news":14092,"ackson":14093,"CONT":14094,"casting":14095,"ĠSmall":14096,"Ġorthogonal":14097,"olph":14098,"gz":14099,"AI":14100,"å¤":14101,"ĠMes":14102,"ĠGarden":14103,"country":14104,"between":14105,"Ġformul":14106,"both":14107,"Ġpron":14108,"fam":14109,"Ġencoded":14110,"Ġease":14111,"oes":14112,"Master":14113,"Ġru":14114,"Ġcircular":14115,"Ġpole":14116,"Ġ$^{":14117,";|":14118,"Ġmovements":14119,"}$\\":14120,"IZ":14121,"Env":14122,"textup":14123,"Ġaugment":14124,"Ġ~\\":14125,"Ġintegers":14126,"ĠAbstract":14127,"ĠBuff":14128,"obi":14129,"Bounds":14130,"Ġshadow":14131,"lied":14132,"ermi":14133,"Ġ'.":14134,"mix":14135,"Ġgreatly":14136,"days":14137,"sea":14138,"Ġtwelve":14139,"paren":14140,"Ġguarantee":14141,"{(\\":14142,"Ġslope":14143,"Ġrobot":14144,"Ġ\".":14145,"}}}}":14146,"tooltip":14147,"Ãª":14148,"ĠIndonesia":14149,"Academ":14150,"ĠDeep":14151,"hus":14152,"iso":14153,"Ġcontinuing":14154,"Ġcorn":14155,"egas":14156,"}^+":14157,"ĠKennedy":14158,"Ġresid":14159,"Ġproto":14160,"Ġhorizon":14161,"Ġflying":14162,"Ġstood":14163,"abc":14164,"ĉĠĠĠĠĠĠĠ":14165,"ĠConvention":14166,"Ġcontinuum":14167,"maps":14168,"Ġdebt":14169,"Ġfeeling":14170,"utr":14171,"Ġrecordings":14172,"ĠPack":14173,"Ġimplied":14174,"Timer":14175,"Ġperforms":14176,"Ġsubspace":14177,"ĠSeveral":14178,"Ġrelief":14179,"ĠAuto":14180,"Ġfinishing":14181,"previous":14182,"Works":14183,"apolis":14184,"Ġsmallest":14185,"ĠUV":14186,"Ġelig":14187,".:":14188,"GroupName":14189,"Ġsympt":14190,"ĠAC":14191,"ĠCleveland":14192,"ĠPrim":14193,"Ġpreserved":14194,"ĠCorollary":14195,"license":14196,"Ġcards":14197,"Ġtrajectory":14198,"midrule":14199,"ĠStream":14200,"surface":14201,"million":14202,"Errors":14203,"Ġcited":14204,"making":14205,"Ġfermion":14206,"ĠBou":14207,"Ġsinging":14208,"ĠProp":14209,"utt":14210,"oking":14211,"Prev":14212,"Ġchampions":14213,"FileName":14214,"Usage":14215,"1898":14216,"ĠCole":14217,"Ġrecovered":14218,"Ġnormally":14219,"Ġemployee":14220,"ĠYears":14221,"Ġinhabitants":14222,"ĠON":14223,"Because":14224,"Ġterminal":14225,"ĠYe":14226,"Serv":14227,"story":14228,"encode":14229,"ĠNash":14230,"Ġpermissions":14231,"ĠSac":14232,"Ġinherited":14233,"GeV":14234,"din":14235,"Ġtransportation":14236,"clidean":14237,"]+":14238,"Linear":14239,"Fact":14240,"asa":14241,"initely":14242,"107":14243,"below":14244,"lb":14245,"borough":14246,"Kn":14247,"twitter":14248,"olutions":14249,"fmt":14250,"division":14251,"Bbb":14252,"Ġtransverse":14253,"ĠSeattle":14254,"EEE":14255,"Ġours":14256,"Ġcollective":14257,"ughters":14258,"EST":14259,"nan":14260,"Ġpitch":14261,"Ġcomfort":14262,"Ġatmosphere":14263,"four":14264,"ĠHistorical":14265,"ceptor":14266,"Ġneutrino":14267,"Ġvalley":14268,"iline":14269,"Ġranking":14270,"metic":14271,"Ġknows":14272,"SCRIPT":14273,"ĠCooper":14274,"Ġconsequences":14275,"Ġatom":14276,"touch":14277,"ktop":14278,"}/\\":14279,"ĠDanish":14280,"1870":14281,"Ġdesigner":14282,"Ġspoke":14283,"ATTR":14284,"ĠLook":14285,"ĠRetrieved":14286,"ĠMission":14287,"Ġ_,":14288,"ĠDEFAULT":14289,"ĠNep":14290,"CONFIG":14291,"Ġguid":14292,"alph":14293,"Ġseparately":14294,"Ġvic":14295,"FUN":14296,"Ġbom":14297,"olas":14298,"Library":14299,"Ġslot":14300,"Ġcoins":14301,"Ġexplains":14302,"Ġturbul":14303,"diction":14304,"pad":14305,"Ġproducers":14306,"Binary":14307,"Ġadds":14308,"Ġpreserve":14309,"ĠKings":14310,"Ġposterior":14311,"Ġprofit":14312,"Ġlabeled":14313,"Ġexposure":14314,"ĠCoq":14315,"Ġfacing":14316,"best":14317,"reader":14318,"azines":14319,"execut":14320,"score":14321,"ĠJudge":14322,"generate":14323,"Ġ'',":14324,"gressive":14325,"Ġsurvived":14326,"upper":14327,"Ġdepicted":14328,"ĉĉĉĉĉĉĉĉĉĉ":14329,"rent":14330,"ativistic":14331,"ĠHug":14332,"Ïĥ":14333,"Ġholes":14334,"weak":14335,"lint":14336,"/_":14337,"Ġdecline":14338,"ĠRussell":14339,"incre":14340,"Ġrestored":14341,"Ġgrown":14342,";\"|":14343,"Failure":14344,"ĠFarm":14345,"Ġmyth":14346,"Ġtank":14347,"June":14348,"Abs":14349,"Ġsimplicity":14350,"character":14351,"whe":14352,"Ġintervals":14353,"Ġseemed":14354,"gre":14355,"ĠThough":14356,"Ġaims":14357,"Ïģ":14358,"ĠAdvent":14359,"Ġintention":14360,"Ra":14361,"512":14362,"ACCE":14363,"Renderer":14364,"Ġirreducible":14365,"audio":14366,"Ġparagraph":14367,"ĠFried":14368,"pf":14369,"Ġsimulated":14370,"Ġfmt":14371,"$-$":14372,"omm":14373,"died":14374,"Ġknock":14375,"ĠMembers":14376,"ĠCommunist":14377,"perimental":14378,"sharp":14379,"Ġtrunc":14380,"ĠVolume":14381,"Ġhide":14382,"Ġturning":14383,"ĠPhot":14384,"Ġsigning":14385,"liminary":14386,"ĠMorgan":14387,"ĠPublishing":14388,"Ġæ":14389,"Ġ_{\\":14390,"you":14391,"Ġdescript":14392,"works":14393,"Ġfake":14394,"Ġexped":14395,"Ġarchae":14396,",...,":14397,"ĠFather":14398,"ĠIron":14399,"Ġduties":14400,"scriptscriptstyle":14401,"Ġinherit":14402,"ikip":14403,"ceptions":14404,"ĠResult":14405,"ĠCommander":14406,"ĠWard":14407,"ĠIF":14408,"rele":14409,"Ġforth":14410,"DOM":14411,"mount":14412,"lights":14413,"Ġ\"%":14414,"ATED":14415,"Ġtokens":14416,"Ġbars":14417,"interpre":14418,"mutable":14419,"ĠLanc":14420,"ĠStand":14421,"stackrel":14422,"ĠWIDTH":14423,"$&$":14424,"April":14425,"ĠOnline":14426,"ĠEquation":14427,"Ġcraft":14428,"Ġgiant":14429,"ĠPrivate":14430,"Ġresidential":14431,"lier":14432,"Counter":14433,"Ġfeas":14434,"Ġdifficulty":14435,"ĠPeters":14436,"Shared":14437,"ĠReference":14438,"ACH":14439,"ĠFern":14440,"Ġorganisation":14441,"Ġcomprehensive":14442,"Ġholid":14443,"into":14444,"ĠArkansas":14445,"uary":14446,"Constraint":14447,"anion":14448,"Ġbot":14449,"1899":14450,"Vec":14451,"dn":14452,"ĠPear":14453,"ĠRick":14454,"ĠLP":14455,"Theme":14456,"Ġheter":14457,"varrho":14458,"ĠThompson":14459,"00000000":14460,"Ùħ":14461,"rose":14462,"Anim":14463,"ĠLagrangian":14464,"ĠWednesday":14465,"Ġrely":14466,"Ġvisitors":14467,"strict":14468,"COMM":14469,"Ġcorrelations":14470,"ĠGR":14471,"closure":14472,"pus":14473,"FIELD":14474,"Ġmaintenance":14475,"Ġliteral":14476,"Ġbelonging":14477,"Ġinference":14478,"ĠAgric":14479,"graduate":14480,"Depth":14481,"Ġactresses":14482,"Ġmechanical":14483,"Ġcommunications":14484,"Ġoperational":14485,"getId":14486,"FOR":14487,"ARD":14488,"cop":14489,"Export":14490,"Processor":14491,"rient":14492,"boards":14493,"Ġpolynomials":14494,"ĠBruce":14495,"Ġdenied":14496,"Ġbreed":14497,"olly":14498,"train":14499,"Ġordering":14500,"assertTrue":14501,"ĠSecret":14502,"rame":14503,"respons":14504,"1024":14505,"Ġhospit":14506,"imp":14507,"Ġfocuses":14508,"ursive":14509,"iginally":14510,"220":14511,"Ġwx":14512,"Ġstim":14513,"orb":14514,"Ġsteam":14515,"ĠDNA":14516,"Console":14517,"blob":14518,"uki":14519,"dale":14520,"ĠManager":14521,"Ġenforcement":14522,"Ġrestaurant":14523,"ĠGrad":14524,"Ġ'%":14525,"hyper":14526,"ceiver":14527,"ĠLang":14528,"mapping":14529,"âĢĺ":14530,"Ġdetermin":14531,"ĠPref":14532,"ĪĴ":14533,"ĠAustin":14534,"UND":14535,"cost":14536,"Ġtracking":14537,"Robert":14538,"Ġclosing":14539,"Ġwheel":14540,"Ġconvenient":14541,"Ġcoron":14542,"Flor":14543,"Ġbrings":14544,"Ġmerger":14545,"Ġdealing":14546,"viewport":14547,"warn":14548,"Ġreceives":14549,"anti":14550,"orus":14551,"odo":14552,"Ġpara":14553,"orce":14554,"ĠPalace":14555,"embed":14556,"Ġpopularity":14557,"Ġfault":14558,"Donald":14559,"Rows":14560,"118":14561,"Ġmathematical":14562,"Week":14563,"Disc":14564,"Signature":14565,"Ġdelegate":14566,"geo":14567,"?âĢĿ":14568,"Ġpregn":14569,"annon":14570,"atibility":14571,"ĠBible":14572,"cassandra":14573,"Ġalignment":14574,"Ġinflation":14575,"ĠPlease":14576,"ĠCit":14577,"abe":14578,"Ġbehalf":14579,"Tex":14580,"Ġpuls":14581,"Ġfits":14582,"achi":14583,"Station":14584,"Ġresigned":14585,"lr":14586,"Ġhal":14587,"Ġ<-":14588,"ĠAI":14589,"asts":14590,"ĠPittsburgh":14591,"Ġreveals":14592,"ĠFrederick":14593,"Ġgenerators":14594,"jax":14595,"UST":14596,"rypto":14597,"Ġtied":14598,"Ġvoters":14599,"Ġalcoh":14600,"ĠABC":14601,"adv":14602,"riteria":14603,"Messages":14604,
[...]
