#version: 0.2
Ġ Ġ
ĠĠ ĠĠ
i n
e r
o n
Ġ t
ĠĠ Ġ
a t
r e
ĠĠĠĠ ĠĠĠĠ
a n
e n
s t
o r
h e
a l
l e
i on
a r
Ġ c
i t
s e
Ġt he
d e
Ġ a
m e
i s
c t
Ġ f
ĠĠĠĠ ĠĠĠ
r o
in g
Ġ p
i c
Ġ o
Ġ s
s s
Ġ =
Ġ w
g e
en t
Ġ b
u r
ĉ ĉ
c e
< /
Ġ in
l a
e d
= "
) ;
u t
Ġ n
an d
u n
Ġ re
Ġ {
Ġ <
- -
l o
Ġo f
Ġ (
e s
at ion
Ġ m
Ġt o
i l
Ġt h
i d
i g
r a
ĠĠĠĠĠĠĠĠ ĠĠĠ
m p
u l
e x
č Ċ
i f
Ġ $
/ /
e l
Ġ d
o l
Ġ h
Ġ *
t h
Ġ and
i v
Ġ \
p e
o t
a me
t r
at e
Ġ v
u e
Ġ }
e t
c h
a d
c o
" >
Ġ S
l i
Ġ T
c k
a s
ct ion
p t
Ġ is
Ġ st
t er
a ge
u m
ĠĠĠĠĠĠĠĠ ĠĠĠĠĠĠĠĠ
Ġ C
h t
la ss
u s
ĠĠĠĠ Ġ
( )
a b
Ġ A
Ġ "
u b
s p
* *
Ġf or
I n
r i
Ġc on
ge t
ur n
en d
q u
v er
Ġ e
e w
ex t
Ġ de
a m
Ġc o
Ġ se
a v
= =
a p
l y
u p
y pe
or t
it h
e ct
Ġ g
-- --
t urn
Ġb e
o w
e m
Ġc lass
. .
o d
Ġ '
i st
in e
Ġ on
o ur
m ent
i r
c on
Ġ if
t a
at h
i m
o de
Ġ M
t o
er s
ĠĠĠĠĠĠĠĠ ĠĠĠĠĠĠĠ
Ġ P
â Ģ
Ġ l
i z
re f
l ic
al l
_ {
R e
Ġ I
Ġth is
ul t
a se
ab le
Ġ &
Ġth at
0 0
i le
in t
Ġp ro
pt ion
u re
- >
ar t
Ġ D
p er
Ġ //
at a
k e
e st
Ġw h
Ġ B
Ġ </
an s
Ġw ith
ig ht
Ġ F
our ce
Ġre turn
ĉĉ ĉĉ
al ue
it y
: :
Ġ an
.. /
m a
Ġ N
i mp
a y
Ġ L
d er
Ġ it
Ġ or
ro m
a ck
o m
Ġ ex
or m
Ġ E
j ect
i me
C on
Ġ @
un ction
i al
s c
o re
p h
se t
Ġ -
Ġ [
st r
Ġa s
Ġ H
ss age
{ \
f f
t ext
p ro
iv e
u se
Ġ y
Ġ G
o c
( "
m l
Ġ me
ub lic
( );
2 0
er e
Ġ W
" ,
it e
Ġ /
Ġ +
Ġ R
a c
o s
d iv
Ġ r
t e
o ut
o o
re s
ĠT he
> </
Ġb y
Ġ$ \
v e
f a
an t
un d
Ġ O
g in
sp an
i b
Ġw e
' ,
Ġa re
tr ing
i es
in d
l f
s er
> <
t y
p ar
Ġt r
re n
---- ----
n ame
Ġn ew
m ath
o p
iz e
il l
Ġ al
ar y
Ġ at
) .
ig n
an ce
ul l
i re
../ ../
s ource
Ġ* /
Ġ Ċ
l u
** **
a g
Ġn ame
it ion
d d
Ġ lo
== ==
) ,
Ġn ot
b er
b e
Ġf rom
E x
b ject
Ġc h
ĉĉ ĉ
f ig
p ut
o u
imp ort
ic e
ro w
i p
N ame
q ue
a ct
ĠĠĠĠĠĠĠĠ ĠĠĠĠĠĠĠĠĠĠĠ
c al
f orm
Ġ :
i de
at ed
( '
Ġf unction
ht ml
ĠĠĠĠĠĠĠĠ Ġ
r or
co m
Ġs h
en ce
S t
me ssage
Ġ un
f t
Ġ .
Ġh ref
th is
p s
Ġp ublic
} }
er t
) )
co de
Ġ j
Ġ U
v ent
av e
la b
la y
âĢ Ļ
Ġ le
ra y
l ation
P ro
p ort
o id
on e
s h
tr ans
i el
E R
i ew
lo w
Ġst r
Ġ _
p p
or y
^ {
an g
le ment
Ġ In
iel d
T ype
o st
l l
en s
t d
or d
un t
Ġ #
or k
en er
O N
u st
Ġ= >
o me
Ġt ype
} \
ren t
d i
S tring
I d
Ġ he
de x
c ol
Ġ ar
al se
m b
ce ss
Ġv ar
Ġm a
Ġ li
ar d
} $
Ġco mp
th er
in k
Ġc an
re turn
sc ri
/ >
Ġ get
re ss
at or
a re
on g
I N
D e
que st
Ġre s
Ġ J
f in
ke y
Ġd o
Ġv alue
u ct
a ce
an ge
a mp
T he
Ġse t
f ra
ode l
# #
" />
par am
1 0
ul d
Ġ V
Ġ |
ic al
b o
il d
t ype
trans lation
ta in
C o
ĠT h
} ,
Ġ !
lo ck
f o
R E
l ine
u g
el l
ic h
y st
ro up
( \
r iv
Ġin t
a st
i o
th od
Ġ use
at ic
E n
Ġh ave
Ġ us
v ice
T o
t ent
le ct
c he
f er
ap p
a k
u le
m o
s o
20 1
a ss
at ch
Ġse lf
ation s
n e
R es
lo c
Ġcon st
_ _
Ġw as
L ist
Ġ= =
lab el
be gin
Ġ k
ow n
v al
yst em
: //
Ġl ine
i x
v ar
Ġd ata
Ġ i
c re
pe ct
ad d
S T
Ġh as
er y
c lu
Ġco m
r ight
fa ult
Ġn ull
en g
ter n
ce ption
lo g
um ent
Ġw ill
S e
Ġy ou
ac he
re e
u al
a ch
o int
"> <
Ġ id
o uld
A T
o g
Ġ `
y n
c lass
Ġ all
Ġv oid
Ġ el
ht t
ut e
it le
pe c
in al
de d
w e
Ġ Re
_{ \
um ber
s um
Ġ âĢ
str ing
av a
Ġo ut
) );
id th
) $
ĠĠĠĠĠĠĠĠ ĠĠĠĠĠ
O R
e qu
Ġf alse
Ġb o
ĠĠĠĠĠĠĠĠĠĠĠĠĠĠĠĠ ĠĠĠĠĠĠĠ
Ġ er
Ġ >
Ġn e
C h
Ġwh ich
**** ****
L E
r y
" );
t he
} {
A r
c ur
Ġp ar
I D
g s
T h
se s
-------- --------
ir st
Ġ K
ad er
m in
Ġ up
se d
ion s
t ro
d ata
g er
Ġ en
se lf
Ġa ss
Ġtr ue
ar ch
1 2
le ft
) :
' s
le s
V alue
tr ib
m it
D ata
ar k
m s
riv ate
// //
i a
o f
Ġc ol
ption s
n b
Ġa b
o b
e q
A R
de f
st ance
fra c
Ġres ult
Ġd is
M e
u d
1 9
Ġa c
Ġel se
m ary
ing s
Ġt ime
i e
le t
li ent
j s
E N
eng th
b ack
f ile
Ġ --
p re
ĠĠĠĠ ĠĠ
loc ation
==== ====
Ġ )
nb sp
n ot
et a
S er
b ar
e mp
Ġ/ **
Ġs o
e y
at es
clu de
Ġ end
A L
p x
on t
if i
ame ter
v alue
co mp
per ty
ĠĠĠĠĠĠĠĠĠĠĠĠĠĠĠĠ ĠĠĠĠĠĠĠĠĠĠĠĠĠĠĠĠ
d ate
C ol
t t
Ġstr ing
c ite
re ad
d u
e c
S et
s ub
Ġv al
c ri
sp ace
g ra
u ff
] ;
as k
r ror
it em
t on
Ġ& &
ar get
le d
Ġs p
Ġb ut
Ġon e
Ġ ro
Ġa dd
sp on
Ġc ase
S S
" )
Ġ x
or g
scri pt
Ex ception
ic s
t ime
( $
d a
u es
Ġp er
A n
math b
ut h
qu ire
Ġp re
o ver
Ġt est
at ure
O bject
ro id
o und
u ch
r it
Ġst atic
P ar
if ic
' )
T est
w ork
1 6
f or
n ew
Ġf ile
} )
Ġ! =
Co mp
$ .
v el
D E
t il
l d
ĠS tring
Ġ %
Ġ// /
on ent
$ ,
r m
Ġ qu
t est
Ġp art
p r
ol d
a in
Ġde f
E rror
C T
Ġor g
r c
os ition
() .
c a
s ize
. _
g le
' ]
Ġs er
Ġin ter
v iew
Ġo ver
Ġ la
e p
} .
fa ce
im age
Ġwh en
() );
l ink
Ġan y
ic k
G et
math cal
at ive
b r
p i
o k
Ġn o
od ule
i se
, \
ĠTh is
re am
. </
K ey
at us
le ction
p ublic
1 1
Ġs up
Ġc ur
I t
ĠĠĠĠ Ċ
3 2
U n
re ate
is s
he ck
Ġm ore
li st
S E
ire ct
w w
ut ion
Ġa pp
p lay
f ore
Ġex p
a ction
ĉĉĉĉ ĉ
al s
I T
od y
n av
V iew
le an
2 00
Ġf inal
Ġp rivate
a rent
Ġo b
to p
c y
" ;
T r
in dex
or s
ĠC on
âĢ Ŀ
[ '
"> </
f unction
id er
F ile
n o
Ġtr ans
m and
he d
ig h
M E
Ġs ub
e ar
ack age
ut il
equ ation
' );
l er
w o
T ime
Ġ imp
ĠS t
p end
Ġo ther
c ent
il ter
oo k
A t
A N
Ġm o
n er
y le
y s
ind ow
p o
ph a
con d
Ġ Y
C O
E vent
ul ar
la ce
um n
str uct
Ġo bject
amp le
sum mary
ib le
Ġfor m
Ġs ome
m on
u c
or der
qu ot
B y
Ġ key
} (
ĠW e
htt p
Ġt ra
ers ion
Ġ ext
Ġ/ >
ver s
! --
tern al
() ,
=" ../../
=" +
oc ument
lo ad
p en
b u
N ode
tr y
Ġon ly
n ing
U L
re d
} _
res ent
Ġm an
t able
Ġ| |
l ang
ur l
w h
W e
at er
l ate
ro und
Ġme thod
uff er
el y
cri pt
Ġch ar
k en
f ter
2 5
ĠC h
d is
ĠA n
con st
1 5
w idth
Ġs pec
Ġthe ir
} ^
~ \
Ġli st
Ġw ork
co unt
r ite
if y
a x
Ġa d
Ġal so
] ,
as h
c ord
Ġth ere
Ġer ror
in ter
ol low
at ing
al pha
/ *
p ath
1 00
Ġo ur
Ġb ack
g roup
ic es
t ra
le te
Ġthe y
Ġm odel
Q u
C lass
ic on
us er
Ġre g
ur ation
un c
v ed
ra p
T ext
ma in
E lement
ag er
t s
Ġn umber
St ate
] .
il ity
m d
p y
Ġf irst
ri de
I ON
In fo
Re quest
Ġuse d
a il
Ġa p
is h
" :
' :
d ing
Ġy our
v oid
Ġa g
Ġ ?
ĠS e
in clude
ut ton
ĠP ro
ra w
Ġ );
R O
Ġg o
Ġd if
u i
P ath
S h
ĠD e
/ **
1 4
ment s
f ield
ĠC o
iz ed
n ode
In dex
l an
Ġre p
Ġg ener
ar ray
` `
se ction
fer ence
con fig
P E
oo lean
It em
ra me
Ġbe en
Ġth an
g ument
i an
Con fig
ĠE x
M an
T E
u il
Ġt itle
l ength
() )
c l
H e
Ġf ield
oo gle
F or
tro l
o ck
1 3
Ġth en
ay s
it s
Ġin to
lo b
Ġf ollow
h o
m an
.. .
Ġass ert
) \
A C
Ġ-- >
Ġc all
C om
Ġit s
trib ute
is hed
T R
Ġt wo
" "
F ield
Ġsh ould
Ġwh ere
la s
y p
1 8
m ap
Ġb ase
M ap
} ;
fin ed
ect or
s ign
A dd
s on
ĠâĢ ľ
d t
re ak
Ar ray
ĠĠĠĠĠĠĠĠĠĠĠĠĠĠĠĠ ĠĠĠĠĠĠĠĠĠĠĠ
P I
Con text
Ġth row
htt ps
Ġst ate
Ġ( !
Ġj ava
Ġab out
= \
b ase
C ode
Ġ ent
## ##
ot e
Ġc or
Ġh is
Ġa ct
a ke
L A
tain er
Ġwh o
Ġb et
E qu
Ġe vent
Ġ/ *
i ent
b lock
ap i
g round
ĠI f
g a
6 4
it ial
' ;
Ġst art
io us
Ġar ray
Ġ} );
w ord
Ġus ing
A s
le m
Ġof f
t itle
Ġm ay
Ġ} ,
ifi ed
iz ation
ĠI t
m u
Ġpro v
col or
Ġ u
tr ue
am ma
re g
l t
ĠU n
ss ion
m odel
O ver
Ġn ode
n et
f e
a w
n el
p art
******** ********
Ġs ize
Ġre quest
Ġcur rent
ut o
//// ////
Ġre l
spon se
b y
Ġde fault
er ror
Ser vice
Ġg iv
m er
Me ssage
Ġsh ow
Ġex pect
d ot
ect ed
us h
Ġd ist
$ \
Ġw ere
F orm
in put
v en
h at
_ \
Ġun der
ap ache
al ign
res ult
st er
Ġ ra
mathb b
ate g
en se
t ing
[ ]
Ġcon tent
p on
Ġ\ \
Ġf e
S ize
n g
U R
ug h
form ation
W ith
lo se
it ies
m ber
Ġp o
ce pt
} _{
d o
en u
yn c
Ġo per
Ġre quire
Ġp h
val id
= '
I C
} ^{
in ce
m all
Ġe lement
3 0
Ġe ach
ig ma
con tent
Ġ X
g t
o bject
ra ph
ĠA r
ass ert
Ġs uch
' t
se arch
tt p
; &
="../../ ../../
cre ate
Ġcon s
et urn
ens ion
per t
+ +
\ \
and ler
Res ult
Ġe qu
u me
D es
Ġ z
ne ction
ver y
O n
en cy
- \
to m
de fault
mb da
bo x
uil der
g r
j ava
al ly
a i
able d
Ġ= ==
L e
Ġer r
ĠG et
f rom
Ġp oint
lic ation
O f
Ġ: =
b ody
mo ve
n ext
vers ion
> &
3 3
lo at
o us
co re
5 0
Ġus er
Ġt e
Ġs rc
scri ption
ph i
O r
le ar
Ġs ystem
ust om
ver t
ch o
Ġpar ameter
in fo
Ġw ould
b f
F F
Ġc al
st art
U p
la mbda
Ġcon fig
Ġco de
p ackage
L O
o x
we en
Ġs ol
Ġt arget
a ir
U T
lab le
A D
Ġ_ _
1 7
l at
Ġs a
lu gin
V al
ra ct
Ġm y
Ġre ad
Ġ import
Ġin st
t in
^ {\
tro ll
ff ect
Ġ} ;
def ine
c ss
st ate
Ġin stance
I m
te mp
t n
N ot
Ġm in
IN G
b ug
it or
n ow
ou g
Ġs c
Ġthe se
Ġt ext
I G
u ild
ĉĉĉĉ ĉĉ
A pp
ĠĠĠĠĠĠĠĠ ĠĠ
le ase
ress ion
pert ies
ma x
2 4
am s
m iss
d uct
and le
---------------- ----------------
Ġin v
M L
ĠF or
e vent
co pe
Ġp e
M odel
Ġch ange
Ġc heck
o ption
y mb
las ses
Man ager
ist er
ff set
mathb f
pon se
t ings
p oint
Ġli ke
du ce
Qu ery
L oc
B e
Ġne ed
Ġl ong
ri b
Ġa fter
A l
T D
Ġp r
con text
o v
T able
and roid
we b
ymb ol
Ġgiv en
ub le
le x
Ġy ear
Ġin put
Ġ Q
UL L
Ġthe m
Ġcor re
O ut
fer ent
Ġs ign
U ser
Ġh er
d ition
Ġ{ \
======== ========
Col or
Ġse e
de l
Ġr ight
A c
um er
i able
ro ugh
in s
o se
Ġdo es
Ġr un
Ġp ath
l p
ĠĠĠĠĠĠĠĠ ĠĠĠĠ
f alse
=" ../
S ystem
ist s
Ġn on
lob al
E D
en e
ĠS ystem
w it
b eta
Ġg roup
Ġstr uct
Ġbet ween
Ġpro b
Ġn il
troll er
ir t
il y
C H
Ġh igh
E T
m od
Pro perty
th ing
Ġp ol
Ġme ssage
t ab
Ġs ame
I s
w ard
t ot
Ġlo g
ut es
; </
al e
2 2
p os
C lient
ith ub
s up
he ad
G roup
me thod
00 0
f ul
Ġval ues
g oogle
il on
Ġin dex
che ck
at ri
d oc
port s
ĠT r
M A
Ð °
name space
Ġs ource
In ter
M P
ot tom
Ġcon text
Ġh ow
c all
Ġc reate
end s
it er
Th is
uc cess
ar gin
=" #
D I
) </
Ġj ust
d b
ps ilon
Ġh ad
ww w
d own
Ġor der
uth or
ĠS et
se lect
ra g
D O
ser v
Ġb lock
li b
L og
Over ride
Res ource
A B
et work
s k
g ithub
Res ponse
ĠĠ Ċ
Ġma ke
p ri
atri x
us ing
s igma
EN T
ow er
ve lo
Ġo ptions
y m
> (
Ġbo ol
ation al
Ġ ed
Ġwh ile
ro p
Tr ans
at s
in es
id ent
Ġand roid
U N
Ġlo cal
2 1
< !--
ifi er
are d
Ġma x
Ġt emp
m odule
Ġit em
st atic
Ð ¾
r on
Ġdif ferent
Ġprov ide
ta il
ĠE n
Ġst d
F rom
st yle
Ġb reak
is ion
an nel
lic k
Co unt
Me thod
Ġ( \
* }
] (
T H
a it
che d
p age
) }
4 0
ific ation
ar ge
ical ly
orm al
ction s
mp ty
Ġn ow
yp es
t ected
B uilder
Ġm ust
til de
ref er
or ld
f unc
Ġ$ (
ant s
u mp
C all
cur rent
Ġv ersion
Ġf ind
Ġla st
Ġwh at
ile d
b utton
ĠS h
id d
ĠH e
d ir
] )
ure s
o ptions
as on
le ss
if t
fin ished
Ġt er
D is
i k
C E
qu ery
In put
t es
Im age
ĠĠĠĠĠĠĠĠĠĠĠĠĠĠĠĠ ĠĠĠĠĠĠĠĠĠĠĠĠĠĠĠ
^{ -
Ġth rough
irt ual
Ġd irect
Ġtr y
Ġle t
In stance
St ream
U til
l it
D ate
Ġ image
9 9
Ġm ap
Ġst yle
de pend
Ġm ost
L o
c or
Ġfollow ing
fin ition
Ġ< <
ent ial
O T
t en
Re g
+ \
n ull
an k
c lient
b ig
ĠN ew
ĠâĢ ĵ
ĠA s
end er
A ME
time s
un finished
F act
Ġcon tain
g amma
Ġ Ð
math rm
In t
gra ph
del ta
u age
in f
c c
l ight
h as
Ġsup port
Ġin formation
l ing
ir c
ph p
B ase
m ark
Comp onent
me d
op le
B ar
e k
A ll
oc i
re quest
Ġ Z
I L
j o
la st
Ġbe fore
Ġap pro
Ġf act
ing le
a pe
pr int
ĠĠĠĠĠĠĠĠĠĠĠĠĠĠĠĠ Ġ
w ith
Ġs he
Ð µ
Con tent
o ther
w ar
me mber
^ \
Ġf ound
per i
s q
Re f
cent er
w n
Ġp lay
Ġpro cess
a z
Ġc re
fra me
I P
St atus
Ġw ell
d l
m y
ar s
ca use
Ġresult s
an el
Ġcol or
To ken
p m
} {\
ON T
N ew
ers on
( (
r id
Ġre source
S ub
T ra
te ger
Ex p
ĠN ULL
Ġw idth
the ta
S C
Ġco uld
er r
Ġsa id
00 00
le q
Ġb oolean
Y PE
Ġe very
B lock
n own
at ab
d ay
oug h
di a
Ġ( )
en ame
ar row
se e
[ "
Ġback ground
Ġt able
rit er
ĠA l
add ing
Ġn ext
he ight
o ot
Ġm od
Ġd ocument
e lement
di o
P h
ĠR es
6 6
ro ll
Ġal low
le g
ur ing
s ide
2 3
lay out
w are
Par ameter
Ġle ft
An d
ic y
Ġ čĊ
fig ure
Ġ ->
Ġh ere
L ay
iv ity
( {
Ġre sponse
I mp
c ase
he ader
8 0
En d
U S
C ell
Ġrep resent
h er
t x
a u
Ġ" ""
id get
Ġp age
Ġd i
] {
i er
t arget
F rame
r ho
c er
e ver
G ener
I S
Ġv iew
N av
Ġbe cause
D el
b tn
E S
A ction
Ġbo th
ĉ Ċ
im g
ta u
Ġto p
gra m
d ic
Ġb order
ĠM e
r t
v ious
ĠĠĠĠĠĠĠĠ Ċ
app end
Ġc a
6 0
Ġout put
Ġm ult
S ource
v es
RE F
ab el
an y
L ine
ix ed
lo cal
Ġv is
ser ver
Ġpart ic
und le
ĠĠĠĠĠĠĠĠ ĠĠĠĠĊ
H andler
Ġs ur
$ -
S ty
in it
Ġsp ace
Ġp osition
Ch ange
de fined
x ml
c dot
um b
se c
pro to
S p
Ġpro perty
p lace
c i
B uffer
Ġ( $
Equ al
at ter
atab ase
imp le
Ġse cond
Ġ+ =
eq ref
m un
O ptions
nav bar
it ed
Ġse lect
ĠW h
p arent
ang le
x y
N S
j av
ro ss
Ġ ,
n s
S tr
Ġf il
) {
he et
at tern
E X
js on
A S
qu ence
Ġle vel
v ai
p osition
velo p
Ġs im
At tribute
co me
ar g
E d
ĠL ist
act er
Ġre f
ab ility
Ġin itial
em ber
ol der
Ġst ud
Ġpe ople
ĠĠĠĠĠĠĠĠ ĠĠĠĠĠĠ
E L
Ġe st
De fault
sign ed
r l
N o
} (\
ss ert
p tr
act ive
part ial
Ð ¸
Com mand
r ing
s rc
P er
Ġcon tin
Ġf a
ex p
pro perty
Ġlo ok
wh ere
* /
me ta
A ct
ck et
v ider
n ect
Ġbe ing
r u
ad ata
al ity
cur ity
ch ild
S P
Ġde c
ĠT o
op en
re quire
or age
Se lect
wit ch
c ast
O per
C K
b it
2 7
bu ild
Ġlo w
re at
er o
ic ense
Ġk now
Ġc lient
n u
D o
is m
ath er
L ink
ut ed
g y
T ask
Ġp ri
O P
and om
ĠCo mp
V ersion
Ġp ass
ig inal
Ġo pt
LA SS
iv ers
log y
Ġdist rib
. ,
Ġm on
g o
ĠO bject
P age
F unction
l in
Ġval id
Ġe ven
Ġag ain
$ {
Ġe ffect
} );
Ġcons ider
Ñ Ĥ
W indow
b ottom
s ol
Ġc ent
Ġs cal
f ilter
ial og
ater ial
p ush
H el
Ġma in
St art
AT E
iv ely
d s
Fact ory
ĠC om
ĠS er
| \
Ġw ay
g ener
Ġimp lement
Ġh ttp
Ġw ant
P oint
inf ty
}$ ,
Ġd own
Ġsup er
Del ta
ch ar
che s
row ser
E E
O L
Sty le
ir on
tot ype
row s
la gs
p rivate
Ġch ild
an sp
i que
U E
w ay
read y
Ġo p
st atus
t ed
Ġar gument
Ġr ange
w rite
dis play
5 5
}$ .
refer ence
y les
" ]
A G
Ġid ent
op y
ome ga
miss ion
ma il
vai lable
Ġman y
trib utes
v ices
ateg ory
P o
Ġb uild
Ġin clude
3 4
F ilter
s pec
r un
ar n
2 8
im ation
Ġ{ @
p ost
f low
e e
v ol
Tr ue
f irst
ĠC ol
p lugin
iz er
lo y
H T
d f
re en
Ġp arent
Ġm atch
ce s
ĠO n
Ġli mit
20 20
I f
as cript
Ġan al
Ġpro ject
Ġcon dition
ce iv
l s
Ġo pen
ot s
ch ange
N umber
N ull
ĉĉĉĉ ĉĉĉĉ
old s
Ġde pend
ĠR eturn
Ġadd ress
p ng
Ġv ery
C heck
Ġm ark
B utton
lay er
T O
m enu
V ER
A P
C reate
ent ry
R ow
eq n
ar gs
s g
en c
qu ad
as ure
r ic
ff ic
f ont
C ur
W h
0 1
de scription
t al
) (
Ġob tain
l and
L abel
lo t
Ð ½
Ġthrow s
im um
Ġex ample
it ive
F ONT
P re
v is
ĠT est
ol s
Ġm argin
N O
Ġde fined
ide o
am ily
oc us
se mb
ĠN one
end if
ĉ ĠĠĠ
c lose
pro ject
Ġa ction
Ġp lace
Ġ url
. "
F I
al th
Ġdis play
lo ud
in stance
ang uage
Con st
Ġs mall
Ġfe ature
Ġm odule
Ġp resent
g ress
// /
la ck
R eturn
M O
and ard
Ġh and
Equ als
str ong
v iron
f ind
( &
S ON
Ġlo c
~ ~
Ġd on
Ġpro tected
$ $
ual ly
o pt
m t
on y
2 6
g n
ĠAn d
yn am
Ġ( (
form at
ob j
T ag
if e
g or
Ġl ink
ad ing
ge st
bu f
//////// ////////
r an
tr ic
s i
Ġre al
Ġcomp onent
n on
Ġco unt
P art
Ġp ost
ne ss
Ġin clu
o per
ĠI N
Form at
9 0
m m
Con troller
ator s
l en
Ġper form
7 5
param s
con tainer
c ul
ta ck
Ġexpect ed
c an
âĢ ľ
Ġn etwork
List ener
il er
ĠL e
Ġl arge
Ġ< !--
o ve
jav ascript
fo ot
at tr
F A
Ġs ince
Ġhe lp
im al
if act
Ġ label
Ġpo ss
AB LE
h ost
so le
Ġa uto
up date
ĠY ou
ore m
o use
x i
p c
al k
che ma
res ource
Ġ q
b ook
C ache
P RO
al let
ic le
Ġex peri
M ode
str u
\ ,
g ing
Ġbo und
amp les
Ġf in
Out put
U I
ic ro
: </
i or
Ġd id
Ã ©
st yles
ca ption
Ġext ends
de v
la g
p ack
ent s
2 9
Ġwith out
Ġparameter s
ser t
Ġex ist
Ġl ength
Ġin cre
Ġth ose
Ġac cess
Ġt ak
res h
re move
. âĢĿ
Ġg ra
a pt
Ġhe ight
ub l
gor ith
Ñ Ģ
< ?
p ol
3 5
Ġcom mand
re sponse
H E
ĠH REF
ri ct
ex pect
ig ation
st ream
com mon
st d
ge s
ĠA dd
ĠI s
Ġrequire d
Ġ ]
Val id
unt ime
Col umn
pro totype
ĠC LASS
ref ix
Ġup date
s mall
lat form
b s
Ġex ec
ser vice
L ast
Ch ild
Re ad
Ġser vice
Ġcol umn
ig ger
' '
w ays
ra int
UR L
in ing
Ġ art
V ar
i ct
struct or
ta g
ot o
} [
at t
ib ility
iv es
L ength
w ide
or ies
ĠA pp
q l
Ġf rame
ur al
" ).
S up
ge d
S pec
c ache
IN T
Lay out
B ox
`` `
G L
B undle
Ġp os
ut ions
st ract
T YPE
Ġyear s
Ġth ree
il ar
Ġg ame
ĠĠĠĠĠĠĠĠĠĠĠĠĠĠĠĠ ĠĠĠĠĠĠĠĠĠĠĠĠĠĠĠĠĠĠĠ
Col lection
B U
Ġm ode
Ġo wn
un ter
Ġre st
du ction
Ġa m
Ġde scri
Ġcal led
Ġh im
U rl
Ġa vailable
o od
s or
er n
Ġt ask
n umber
set s
s ing
a f
comp onent
ps i
_ .
sh ow
ce d
ys is
4 5
We b
bo ve
un k
it u
r ation
Ġo ption
Ġ! ==
in ed
++ )
Ġ[ ]
b l
3 9
t ity
Ġw indow
m ult
idd en
ER R
out put
Ġc ell
ens ure
Ġpr int
an e
par se
D B
Ġcall back
' ).
O b
Ġgo od
un it
in st
CO L
col umn
ta ct
ith er
O ffset
o ffset
Ġc atch
c m
Ġf ont
U M
I M
Ð¾ Ð
Ġcon trol
O S
" ),
A M
}} \
ist ory
> >
viron ment
Ġspec ified
ip le
T emp
Ġvar iable
b ra
F irst
graph ics
util s
a h
Ġa bove
Ġbase d
ad ers
ens or
A d
k it
ver age
Up date
#### ####
Ġinter face
w indow
ut ure
Ġm uch
)$ .
Ġw rit
Ġp ort
s im
an not
I Z
Ġde velop
Ġcorre spon
Ġs um
ry pt
Ġt ake
rap per
ĠA PI
Ġ et
el se
cri ption
ĠAr ray
n um
C ON
CO DE
in ation
h av
( _
Ġst ill
P ol
im ension
eqn array
} _{\
**************** ****************
mo unt
Ser ver
styles heet
he ther
val u
end ing
Ġal ready
ener gy
c s
Ġf ilter
C C
Ġt ag
A b
Ġcon f
Ġres pect
b ed
tail s
c ap
use d
Ġs ingle
Ġ im
F e
Ġw orld
pro cess
R un
Ġs k
="../../../../ ../
Ex t
ER T
=" -
ĠH T
Ġu int
par ameter
d raw
ed ia
r al
ĠH ow
ex ec
W idth
Ġre ference
ap er
Ġt ri
Add ress
am b
N AME
ĠF ig
Ġco py
Ġadd ition
T P
ul ation
g ment
Ch ar
sh ip
Ġform at
st rap
v ing
da pt
Ġser ver
Ġqu ery
it al
. $
Ġn one
201 6
e psilon
me ga
Ġwith in
ĉĉĉĉ ĉĉĉ
so ft
0 5
Ñ ģ
le vel
Pro vider
Ġma de
ĠI D
. /
Ġd uring
Ġma k
in ary
b m
sup port
r s
lu ster
] );
app ing
ance l
Ġar gs
201 5
bo ot
ass word
Ġob j
text bf
on s
tra ct
B ack
I O
co ding
li p
la p
u id
Ġs uccess
201 7
T arget
Ġst atus
Ġdis c
Inter face
am l
sq rt
C ase
ĠP ar
: "
ar ning
Ġf ull
s m
N D
o ke
Ġin ternal
Ġc ar
ine ss
return s
ĠE X
temp late
Ġd ate
Ġp lan
Se arch
Ġ ke
Ġar g
T ypes
ac y
3 6
u int
Ġ` `
e ad
s w
3 7
ĠL icense
() ->
iv er
M odule
on ly
En try
Ġass oci
art ifact
P osition
sub section
O mega
Ġcon nection
w ise
^ *
d ocument
oo p
Ġl en
Ġ* *
di ct
B ig
Ġre n
V is
4 4
UL T
s cope
ĠS o
g en
semb ly
f s
cord ing
over n
st ore
ĠF ile
R ange
A PI
in c
3 8
c lasses
s d
Ġc lear
me di
G amma
v are
T ree
Config uration
ule s
Ġs ide
M ax
Con trol
ĠJ o
R em
Ġc ustom
Ġfile s
L I
stru ction
Ac cess
Ġf ail
bo ol
u k
ire d
ĠN ame
En tity
m atch
po se
me s
( [
)$ ,
Ġo ld
Ġse arch
ĠD o
ĉ Ġ
P C
age ment
Ġpre vious
as ic
t ree
0 8
ĠTh ere
Ġf loat
Le vel
ĠG L
j e
S to
vare psilon
bo ard
ty p
Ġdo uble
b ind
ver se
Ġst ore
ĠT ype
AT ION
Util s
Ġw rite
ivers ity
Ġp op
Ġbe st
âĢ ¦
gorith m
Ġv ert
l ong
Ġmethod s
Ġre port
ĠO F
er m
sc ale
e ps
Ġde ter
g l
i ant
P r
ire ction
N ext
ĠB e
re t
4 8
Ġposs ible
Con tainer
pre c
ĠA d
it ory
O pen
Ġprob lem
Ġp erson
ro ot
Ġme asure
or iz
ĠA ll
o le
Ġse ction
Ġp ower
b uffer
re l
duce d
con trol
f loat
Ġmodel s
' ),
com mand
ĠP h
Ġto tal
p a
riv er
He ader
ve c
Ġar ound
to ken
% ;
sh ould
] [
He ight
^{ (
l us
Ġb uffer
Un it
Par ams
Ġs at
li ed
ra m
et s
ĠN o
a uth
t ask
sk ip
emp ty
on d
t ml
K E
Ġ es
Ġpro perties
at ely
201 8
e f
Ġgener al
ĠReturn s
ã ģ
ag n
Ġg raph
ĠA t
Ġn av
Ġelement s
ens ions
U P
or th
w s
o un
Ġpro duct
d irect
0 7
Ġg lobal
ĠO r
Ġth ink
Ġcom mun
H O
S c
Ġte ch
Ġ{ }
IG N
0 4
W rite
ur ther
} =
="../../../../ ../../
Call back
ft ware
Ġan other
de bug
Con nection
Ġ energy
M in
ĠA c
ct x
Ġv ol
ĠB y
t le
artifact Id
" ))
J son
Ġma ss
b order
Ġre lation
li mit
201 9
P O
Ġa ut
ac ity
te gr
ST R
include graphics
lic it
}^ {\
cl us
3 1
D i
Ġis s
Ġv irtual
a j
Ġd en
a ded
Ġv er
Ex ec
% %
Ġg u
Ġ* )
iv al
c ing
at al
que ue
Ġc lo
i um
p th
M od
0 2
AC K
T op
M em
c d
fin al
E CT
Ġf ree
fa ct
{ {
E mpty
u dio
Ġreturn s
ĠD ata
Ġfunction s
al t
ut able
i od
de vice
ce ll
H ash
H ttp
o ice
inter face
M S
Ġap pe
Pro cess
) =
Ġac count
Ġchar acter
us iness
COL OR
mod al
eta il
r ange
d rop
Ġme m
o ff
c irc
19 9
g gle
Ġc ache
Loc ation
Ġfil ename
Ġh ost
tt ps
d ist
6 7
p atch
ĠC O
group Id
to col
m at
ĠâĢ ĺ
de s
im ate
con f
se cond
u x
A V
Q L
be fore
Ġx ml
, âĢĿ
a uthor
Ġ$ {\
ĠU p
Ġw ord
() :
D ocument
s f
} /
var phi
b a
IZ E
is on
r angle
ad s
doc s
V AL
at ase
ĠC reate
Ġc lose
ĠĠĠĠĠĠĠĠĠĠĠĠĠĠĠĠ ĠĠĠĠĠ
me t
Ġe ither
ĠC lass
Set tings
if f
Ġst ream
mer ic
Ġ\ ,
Ġal ways
DI R
Ġ row
Ġoff set
Re ference
action s
me m
Ġh ttps
, "
Ġp adding
val ues
S cript
201 4
ĠN ot
ord in
Ġre cord
en v
file s
Ġ ge
Ġb ody
) ]
Ġb ro
Ġ> =
w ait
Ġor iginal
Ġover ride
Ġinst all
Ġpoint s
em ent
expect ed
Ġj o
: (
Ar gument
Ġfield s
Ġn ormal
C opy
image s
ĠM an
i i
in ner
Ġinclu ding
Ġw hether
model s
ist ry
Ġin dic
Ġro ot
Ġd one
Ġmo ve
Ġsh own
ime s
Ġre move
Ġb u
Th read
0 9
Ġin it
Ġpar ams
th on
Ġpartic ular
N one
boot strap
8 8
Ġm at
depend ent
Ġre t
ta x
A g
Ġsim ilar
" ));
Ġme an
> ,
D irect
u ary
en ded
emp h
it es
ge q
Id ent
sc he
T ER
di us
Ġp ut
Ġs ay
ut er
Ġf ore
Ġto o
h ash
ĠG ener
Ġat tribute
ĠD es
Ġit er
Ġ ::
av ing
Ġd ay
Ġcal cul
cre en
Ġm atrix
Ġinter est
et ch
O ption
ex ample
Ġh ome
} ).
ĠA ssert
Ġqu ant
ĠB ut
Pro perties
v i
ic ation
m ar
T I
co py
sp lit
ĠT e
tain s
Se ssion
Ġstruct ure
=" _
right arrow
ens ity
Ġoper ation
un try
m ode
Ġro le
ig in
S chema
pro of
Q ue
M enu
Ġp ay
Ġe ar
Ġb el
Ġ" \
O p
In teger
ren der
Ġc ap
Re cord
M et
Ġ ...
F O
. ~\
s l
oc ial
[ \
S D
As ync
b in
ĠU R
c p
Ġapp lication
i as
================ ================
S H
Ġb it
ĠD is
b reak
st ack
Ġres ol
0 6
Exp ression
st amp
Ġp res
Par ser
k ind
Pro ject
de st
Ġs pe
over line
Ġprovide d
ist ic
ir d
lic e
. }
P tr
ix el
ma ke
op s
r ont
Ġwe ek
Ġde st
eng ine
li es
ta ch
Des cription
Ġe as
Loc al
A uth
Ġent ry
ĠRe g
Ġd er
C L
ch i
a uto
ar gument
" .
Ġre ceiv
Ġd ue
F ont
ot ential
re qu
Ġsh ort
M atch
d ated
Ġde l
cho ol
s ystem
de lete
Ġh app
n ap
Ġe lect
ĠB G
Ġren der
Ġpro gram
Ġn um
A A
cre t
& #
Cur rent
Ġreg ion
Ġs yn
P os
Ser ial
or ph
ã ĥ
in ternal
R ender
or n
Ġre ason
Ġter ms
0 3
Ġ quest
ĠN S
Ġun defined
Ġre lease
L et
Ġt ypes
Nav Bar
Imp l
Ġspec ific
Ġe mp
ĠEx ception
Ġevent s
ms g
enc ies
i j
Ġagain st
ser ved
oriz ont
Ġco ur
fra k
. \
U B
ĠT ra
let ed
W ork
ir m
7 7
ro y
ansp ort
& \
ĉĉ Ċ
am er
Ġtemp late
D ir
Ġp ur
201 3
} ),
Ġp ackage
pro p
Ġb ook
up le
k nown
Oper ation
( :
Ġse quence
Ġo c
Ġl anguage
Ġfollow s
h over
B O
AR T
}, \
Ġr andom
ĠD E
PE CT
Ġre main
ĠF e
Ġhas h
Ġj ob
Ġco mb
Ġle ast
Ġd iv
Ġe mpty
Ġ[ '
Ġm ight
S ign
Ġle ss
AL L
E Q
re p
Ġin fo
P ort
w idget
Ġargument s
h line
he s
Ġch annel
M M
ar m
Ġ ~
is f
C P
Hel per
et y
Ġtra ck
web kit
Sto re
amb da
Ġbe come
ad ow
Ġf ew
Ġcre ated
à ¤
v m
R out
Ġt urn
c ard
Ġassoci ated
out h
e ded
orizont al
im er
Ġc la
br ary
z e
f oo
ly ing
Ġh andle
foot er
O ne
c lick
C ore
typ es
Ġs pect
Ġconfig uration
jo in
c at
re q
ĠS p
OR T
back ground
ĠM ar
icon s
sc al
Le ft
Ġdef ine
s end
b olds
se ssion
to String
= {
l n
ure d
Ġcontain s
i res
he l
Ġv ector
ERR OR
f il
s v
bolds ymbol
ĠTh en
k s
ex ports
re m
Ġdistrib ution
ĠBG COLOR
W E
Parameter s
Ġf our
Ġv ia
Ġstud y
Ġme t
ĠT O
Ġbet ter
set tings
U s
Ġst andard
Ġg r
or ity
Temp late
ie ve
c le
Ð° Ð
' >
ynam ic
Ġbe gin
Ġvar i
) ^
'] ,
? :
to ol
Ġoper ator
p ed
trans form
=" /
st and
## #
Ġscal e
a a
4 7
Ġincre ase
um an
Ġ ;
Ġl ight
ĠL og
Ġbe low
L ambda
icro soft
equ als
De vice
u ss
h n
ent er
ĠU S
c lear
ĠA meric
ĠĠĠĠĠĠĠĠĠĠĠĠĠĠĠĠ ĠĠĠĠ
Ġin f
p anel
I V
C al
pen ame
pos itory
math frak
Ġloc ation
ĠUn iversity
Ġpar se
Ġs cope
ĠC heck
Ġname space
De finition
r r
D own
20 21
Ġto ken
Ġperform ance
Ġv e
U se
Ġshow s
ick er
ã Ĥ
` .
D etail
T itle
ction ary
ter s
4 9
201 2
Ġme ans
R ect
ym me
V ector
; ->
Ġc l
I ter
In st
ign ore
S cal
6 5
V ert
I F
Ġcontin ue
25 5
k er
H ost
Ġcomp lex
S O
ĠO R
Ġex ception
dis abled
Ġde vice
Ġ Â
ĠHow ever
D D
co der
om ic
le v
re st
="../../ ../
In valid
id s
by te
b b
ex port
ĠSe e
ial ly
AN D
Ġp air
R ight
Ġde scription
$ (
ĠWh en
imp l
Ġtime s
ä ¸
Ġd r
id ual
me dia
al y
re place
co ver
P ackage
Ġimport ant
Ġobject s
Ġinv est
Ġconst ant
ĠJ an
Ġ} )
Ġter m
ĠĠĠĠĠĠĠĠĠĠĠĠĠĠĠĠ ĠĠĠĠĠĠĠĠĠĠĠĠĠĠĠĠĠĠĠĠĠĠĠ
ĠR em
Ġcol lection
s a
Ġsol ution
H andle
Ġad ded
ut or
Ġal ign
l or
A pi
co in
Ġmon th
Or der
al le
ĠC an
Ġinst ead
h andle
ĠâĢ Ķ
( *
ab ly
mb ers
ĠEX PECT
K ind
c ustom
Ġs ure
idd le
ld ots
Ġin tegr
o om
ĠS up
n ab
lang le
Ġcan not
Ġgo ing
al f
}} $
ĠTr ans
F alse
u ck
leg ate
Ġre ally
I R
De bug
block List
ĠI m
Ġre mo
Ġimp ro
de sc
-- -
ar ing
p op
4 2
av en
Ġe cho
} "
ri es
un der
Ġ ide
Ġsol id
Ġlo ad
Ġde finition
Ġstr ong
Ġke ep
in a
G ET
iz es
I con
equ al
ĠĠĠĠĠĠ Ċ
ĠS T
v id
ug gest
Ġde lete
ac cess
> ();
add ress
Ġp otential
Ġal ong
Ġtrans form
A ssert
iz ing
Ġcase s
g lobal
Ġse ver
Val ues
f ill
Ġre spon
Ġl ife
and s
ĠJ SON
Ph i
Ġs imple
n a
Ġex ists
{ }
Name s
Ġselect ed
ature s
il li
ist ent
-- >
OR D
v ector
Ġdoes n
__ (
p adding
Ġst ep
res sed
S tack
ĠM ap
Ġde tails
Ġs m
Ġa uth
Ġwe ight
Ġass ume
Ġchange s
u ro
ast er
\ |
us ic
Ġsat isf
ĠIn st
M ult
frame work
ĠW ith
Ġcent er
D raw
ĠM ay
& &
S k
r ary
P arent
ot ion
TE D
app a
ur i
a de
ag ing
Ġme dia
Ġline ar
C lasses
OR M
ĠThe y
Ġcorrespon ding
Ġr ate
atase t
SE T
> .
ĠC al
t ect
Th at
la sh
_ ;
7 0
av es
Des cript
Ġne ver
Ġs witch
T ab
( -
Ġun it
Ġs end
we ight
Ġo s
po sed
201 1
ĠC ON
-------------------------------- --------------------------------
Ġoc cur
Ġlow er
plugin s
Ġp a
P R
Ġs ays
depend ency
P L
Ġby te
Ġint ro
M on
Ġact ive
8 5
Met adata
Ġp at
g reg
Ġph ase
4 6
cite p
Ġcorre ct
Test s
prec ated
Ġcon tainer
pp ed
f ony
Ġz ero
Ġa uthor
a ut
P ri
ateg y
v as
to ggle
ym fony
je ction
Re ader
ra ft
Ġbo x
ome try
con nect
Ġhe ader
Ġdif f
Ġre cent
ĠD ate
ĠTr ue
Ġanal ysis
Ġte am
Ġfeature s
code d
Ġk nown
f n
un e
Ġm er
Pol icy
App lication
M eta
C D
p g
AT H
om en
k appa
Ġp as
b oolean
Ġbe hav
Ġse par
Ġst op
ub e
\ "
P ost
9 5
un ch
ffic ient
Ġun til
Ġsup p
n d
co q
S ION
Ġmult iple
Re p
li m
m aterial
; <
ill ion
Ġspec ial
Ġa mount
for med
By tes
bo und
ar i
it tle
Ġun signed
ct or
Ġm ag
Tra ck
m i
Ġse ssion
Y ou
c f
Ar gs
c la
er tain
Ġp l
ĠR E
B oolean
Ġgener ated
Ġrep lace
H P
ri st
Ġreg ister
he lp
Ġin line
Ġse lection
; /
C lick
ar r
Ġt ree
Ġcondition s
ge ther
th en
n one
dapt er
Ġcom mon
IN E
sol ute
re ct
L ong
H as
ex ception
Ġorg an
By te
U RE
D ialog
ĠS ub
ot imes
B ody
En abled
R oot
Ġreturn ed
reg ister
Ġs ample
Par am
ix t
Ġde sign
l ue
ĠL et
Ġst ates
Ġd atabase
Ġtrans action
\ %
ĠP ol
c it
z z
8 7
Ġcontin u
X X
og raph
Ġle g
Ġper iod
ĠHT ML
A ss
De lete
Ġset s
ĠM on
call back
Ġ' /
Ġj son
Ġg ot
Ġh o
age d
d r
Ġs ite
Ġby tes
j ust
our s
` ,
A SS
} )$
com m
sh ot
f ocus
c ategory
FA ULT
nab la
Ġon ce
Ġob serv
Ġex cept
Ġdirect ory
ĠR o
P T
Ġf ace
J ECT
ĠA b
Ġf amily
R ule
Ġnode s
8 6
Ġne ar
d om
D F
s uccess
app lication
Ġ( '
sub set
n ected
AT A
text it
se l
res ol
am il
Ġ< =
do uble
W idget
I I
W riter
ensure math
ip el
Ġg reat
amer a
Ġc irc
Ġchild ren
âĢ Ķ
Ġin s
n ormal
Ġf uture
miss ions
Lo ad
Ġl ines
Ġ+ +
ĠN OT
ĠSt ate
ĠE vent
A p
x is
G e
g u
ward s
Ġbut ton
Ġs s
J o
ĠP er
Ġser ies
annot ation
i ke
Ġth read
V er
Ed it
E M
ind ing
D U
c pp
a fter
rag ment
ĠN e
as ing
ĠE rror
Ġg ive
Ġf urther
ĠA L
Ġsome thing
ĠI O
ch ron
Ġco st
Ġrel ative
m argin
mb ox
Ġdeter min
ĠWe b
N et
Ġg row
ĠIn ter
ĠThe se
100 0
ad min
' ))
log ical
N on
u str
end ar
w rap
h ip
c loud
ce ive
em ail
tr ics
oo se
Ġp aper
A re
is ing
di ent
re cord
Ġset tings
Ġequ al
Ġexp ression
St orage
Ġac cept
M ark
aw s
Ġsign ific
Ġb ig
oug ht
S igma
M ember
key word
il ities
R el
item s
Ġs ort
"" "
G raph
ĠC ar
gr id
To ol
ch an
Ġcon trib
C re
oo st
ubl ish
Ġdist ance
not e
Ġtrans ition
sq l
x x
in sert
field s
en um
c r
ĠN ote
AG E
vol ution
N e
overn ment
p loy
CT ION
s ort
Ġh ard
M ock
div idual
Ġfa iled
ĠG e
N um
st ep
com ment
Ġc y
O K
Th ere
Ġhe ad
5 7
f it
m ost
J ob
Ġappro ach
base d
Ġhe alth
Ġe valu
C ustom
h r
umb ers
con nection
Ġph ys
Ġa pi
D L
Ġaut om
Ġexperi ence
Ġaddition al
ch or
Ġh y
Ġc are
Ch annel
ĠB o
lap se
20 10
S L
ĠE ng
ĠA ct
mit ted
p assword
v irtual
Ġla w
ut ing
d at
proto buf
/ \
Ġitem s
âĢ ĵ
ĠS he
ĠU ser
mo ck
Ð »
8 9
sc roll
tr ies
Change d
Ġapp lic
Descript or
Ex ternal
ĠĠĠĠĠĠĠĠĠĠĠĠĠĠĠĠ ĠĠ
Ġs u
Ġare a
ubl ished
ri ef
Ġassert Equals
Ø §
h ad
at io
Ġw allet
Ġwe b
i ed
Ġset ting
F ig
Ġobtain ed
Ġk ind
Ġmem ory
Ġab le
rom ise
Ġs ent
Ġw ait
ĠT ime
Ġre d
ed it
Ġen vironment
S te
t ic
inst all
at ist
oper ator
n ed
f ree
Ġb r
f ull
ĠM ath
g ative
KE Y
le y
G E
, -
Ġal t
Ġf ixed
Ġin d
\ [
B uild
at tribute
B ound
ĠV alue
R A
Ġli k
iter al
P attern
ru pt
Ġre search
ĉĉĉ Ċ
Ob j
c md
Ġf lu
Ġinv oke
ĠL O
Ġerror s
} -
bu il
iss ing
h igh
Ġpro of
Que ue
Field s
a ff
ĠUR L
sh ort
X ml
Ġsystem s
TE ST
Ġdo main
non umber
Ġpro p
Ġ" /
Ġco me
") ]
Ġh tml
ma z
wh ite
{ -
t ip
web pack
key s
EN D
dot s
ub y
Ġ( *
in itial
=" @
Ġcomp lete
Ñ ĥ
Time out
Ġs w
J SON
P RE
S o
on es
H ow
li ke
i sed
Ġal gorithm
m id
Ġd raw
re ed
Ac count
Ġy et
D oc
Ġf ar
Ġun ique
Sh ow
Ġm sg
d im
r ule
Ġjava x
' re
h s
Ġact ual
AC E
Ġin teger
reg ion
Ġen ough
lan k
Ġp attern
De f
ĠA ss
Dis play
ar ies
drop down
[ :
ri end
al low
Ġd b
Ġname s
Ġrun ning
n umer
Ġne cess
iv ed
add r
ol l
Ġra ise
HT ML
ipel ine
module s
th ers
ĠI S
Ġdif ference
Ġl ater
yn tax
m ut
equ iv
5 00
Ġac ross
la in
if orm
Ġw on
Ġt y
Ġhigh er
un signed
li de
h ome
Ġass ign
use s
as sets
ser ial
ge bra
ĠC or
Ġth ings
Ġse en
p df
ock et
Ġappro x
Ext ension
Ġmo ment
c rypt
her it
ra dius
Ġ{ };
Ġsever al
ent ity
Ġf low
un ded
c ar
age s
u la
Ġ( "
5 6
s ite
l ines
F ound
ĠB ase
. *
IT Y
Ġpos itive
m ic
sum er
sup er
ĠU se
ri p
Ġne eded
co gn
ab s
center ing
li er
wh ich
Ġad v
in line
}} {
S end
type of
T e
re spon
==== ==
Ġsur face
ur b
Ġex act
Ġs cript
Ġb tn
FI LE
Ġs imp
Ġn umer
De cl
wide tilde
ro me
Trans action
ĠM y
Ġc luster
ac ing
d x
E ach
g re
Ġd oc
sh ape
C an
c lo
g an
agn ost
ult ure
Ġtra ining
ist ration
Result s
in o
5 9
S A
ĠDe fault
Ġext ra
Ġn et
Ġsignific ant
Ġa verage
Act ive
Ġso ftware
Ġcomp let
quire d
Ġneed s
c ial
Ġinstance of
M D
Ġ& =
F a
en ch
cond ition
B o
ĠĠĠĠĠĠĠĠĠĠĠĠĠĠĠĠ ĠĠĠĠĠĠĠĠĠ
Ġapp ly
j query
Ġsupport ed
Ġthe ory
Ã ¡
st ats
L ock
ĠL o
I X
Item s
Ġro t
wit ter
y es
Ġto gether
ut f
lang uage
Ġcon sole
ar ison
M sg
Ġmax imum
Ar g
Ġe mb
\ !
ĠV al
co s
F lags
e v
Ġrel ated
Ġl ate
R ed
Ġv ideo
)) )
pri mary
S ymbol
v ision
() {
Ġg l
raint s
Ġ% }
te ction
. __
tern ational
Ġc r
P lugin
Ġed ge
C A
s ave
p ing
Ġ[ ];
ts d
Ġr ule
Ġsub ject
F loat
" `
Ġ$ {
y ear
is k
et ing
Ġd ensity
By Id
F T
ĠC re
t mp
V ID
Ġh andler
ĠP re
ĠS tr
S cope
Ġnot e
do main
ch annel
D atabase
Ġfe el
VER SION
con trib
Ġch ain
) /
( !
ed ge
P S
ump t
ĠT able
Ġanal y
"> &
C R
7 6
N etwork
Act ivity
A fter
Ġc ross
Ġrespect ively
sc reen
ĠG oogle
An y
Var iable
one y
~~ ~~
@ "
Ġf it
itu de
g it
var iant
ĠM in
Ġcomp any
al es
Ġd ays
In itial
', '
y mp
Ġequ ation
EX T
ob ile
event s
w ner
ĠE d
; \
con troller
=" ">
ĠF alse
sp ring
ĠO pen
Ġpo inter
ur y
h older
Ġh istory
n t
W S
Ġb ar
Ġp y
ĠTh at
Ġst ack
ĠP y
C S
pri me
O M
n i
Wh en
Ġother wise
Direct ory
ĠI mp
] :
4 3
th read
B R
B it
Ġinv ol
pro duct
A uto
AD D
On ly
ĠJ ul
view s
ched ule
ĠM ore
M y
Ġb usiness
//////////////// ////////////////
l g
Ġmak es
Ġc ertain
Ġwork ing
Ġmo v
ge x
Res ol
\ ]
ĠSe ction
Ġl ittle
l ish
ter m
} ]
ent ication
Ġin dividual
pro perties
on al
Log ger
Ġb lack
had oop
Ġpol icy
Ġus ers
Ġs uggest
Ġest im
_ ,
le ms
Ġas k
m ore
import ant
9 6
Ġat tr
Ġse em
P AR
SC R
ĠS te
al led
k a
P a
Ġme mbers
re al
ly ph
Ġpas sed
pro file
ar p
point s
f lags
t i
ĠN ov
25 6
ĠM ark
In it
o logy
Sup port
w er
Ex pr
ĠO ne
v a
last ic
ĠG u
Ġvariable s
Ġpro m
Ġsuccess ful
Ġ ),
Ġma j
led ge
M edia
4 1
=" "
act ers
ed s
LO G
ac count
CH E
200 9
T ABLE
un g
tab ular
Ġtest s
nap shot
U ID
B u
Ġf requ
ĠP r
++ ;
Ġf unc
* )
as is
Ã ¤
P anel
Ġexist ing
M ENT
ĠP art
I MP
In ternal
AR Y
assert Equals
9 7
if est
Ġunder stand
and id
Ð º
c b
O D
al ysis
$ /
ĠT HE
tx t
ĠC opy
al ance
Ġrepresent ation
S IZE
Ġp ract
P si
Window s
ĠK ey
j ob
ide s
)) );
A dapter
Ġvis it
ind ent
select ed
Ġs ymbol
N E
p ress
an a
' .
} +
Ġlo ck
ĠN ode
Ġme mber
Ġkey s
Ġm aterial
Ġmo ck
ĠS c
leg al
Ġ layer
result s
() ));
not ation
.. ..
at ural
il la
Ġc he
Ġe mail
ĉ ĠĠĠĠĠĠĠ
u di
Ġst rict
em ma
sche ma
Lo ader
int e
ĠN O
Select or
ĠO ut
M ain
L ib
m ine
ang o
th at
Ġt yp
S ymfony
ĉ ĠĠĠĠĠ
Se curity
tab s
Ġvol ume
al loc
ert ific
che me
Event s
Ġn g
ST AT
B A
Ġquest ion
######## ########
Ġuse s
_ ->
8 2
\ {
_ (
ang er
P ATH
ra in
e ach
() ).
8 4
ĠE q
line ar
Ġh aving
st op
T S
Po ol
qu are
Ġ ignore
TE X
h orizontal
st ar
=" ${
Ġac cording
S um
Ġa ff
Ġf und
p or
igh b
] ]
Ġgroup s
Ġph ot
log ger
Ġimage s
n ers
Ġmak ing
Ġprovide s
I E
Element s
Ġg en
Ġcon struct
Ġtemp er
Des c
Ġfact or
ide d
am ent
ĠĠĠĠĠĠĠĠĠĠĠĠĠĠĠĠ ĠĠĠĠĠĠĠĠ
Ġd imension
Ġp ast
-> _
lem ma
Ġwrit ten
Ġc ref
h ib
p k
ĠThe orem
Trans form
ĠL oc
Ġof fer
ĠIn t
16 0
Ġcomponent s
Ġopt im
atal og
Gener ic
RO M
} =\
} </
h a
Ġcon nect
all en
Not Null
ç ļ
Ġ Qu
tra ck
ĠO ct
Ġp ack
p ay
Ġconsider ed
ap pro
G rid
s ure
çļ Ħ
Ġlo t
Iter ator
Ġallow s
assert Equal
C lose
Ġ{ '
ĠĠĠĠĠĠĠĠĠĠĠĠĠĠĠĠĠĠĠĠĠĠĠĠĠĠĠĠĠĠĠĠ ĠĠĠĠĠĠĠĠĠĠĠ
ent ion
B P
ĠJan uary
Str uct
ph er
qu ires
Ġcurrent ly
Ġser vices
ĠEn d
G S
Ġa way
Ġc lasses
man ager
Ġext ension
no logy
At tributes
D uration
ĠĠĠĠĠĠĠĠĠĠĠĠĠĠĠĠ ĠĠĠĠĠĠ
ĠS k
ex ternal
Ġle arning
app ly
Pro xy
m as
N ow
z eta
Ġdirect ly
Fe ature
= >
Ġwh y
Ġst ory
se curity
W hat
Ġ icon
Ġat tributes
Ġwork s
Ġe lem
ĠT ext
co very
w in
Ġco ordin
200 8
Ġto ol
get Name
Ġimplement ation
h andler
ĠA ug
NavBar Cell
N ote
Ġp anel
N G
b rowser
Ġact iv
ĠA ND
B rowser
) }\
th m
Ġar ch
'] )
Ġco ver
Ġs creen
th rows
Ġallow ed
MA X
ĠRes ource
Ġequ ival
Ġser ial
ran ch
ĠD i
Ġemp loy
En um
Ġgener ate
r ate
p l
Ġdescri be
Ġli brary
w rapper
to ols
pro ps
SCR IP
X ML
ĠV AL
h idden
Ġa ch
f ly
fa il
Po inter
ï ¼
) ">
Hel p
om in
fer red
D ist
ard s
Ed itor
E l
Ġf n
er ing
scri be
ĠCon fig
To String
d ialog
e cho
ro s
ĠSer vice
d ates
Ġm atter
3 00
ren cy
L java
ĠO ption
g ree
J ava
Pro p
Ġhapp en
tr igger
Ġ" "
) ),
Ġdistrib uted
f l
id ing
able s
Ġd irection
Ġact ually
Ġs uff
Ġ= ========
ir it
Ġre m
Ġh uman
Ġlink s
S Y
Key s
ĠM odel
S QL
) =\
ĠI P
gra d
BU G
ĠTO DO
ve y
print f
s witch
M atrix
Ġcon vert
ul ly
Ġco untry
L IC
in v
ĠMe thod
ma ster
33 33
I B
th ough
Ġof ten
Ġfor ce
config uration
5 1
Ġ io
In v
component s
p icker
Ġcom ment
Ġfin ite
er nel
res ses
Reg ister
4 00
f amily
Ġth ough
Ġth us
Ġs ocial
ixt ure
Pr int
ĠM o
) "
war m
ad a
for ce
DU LE
P ORT
h ide
net work
Ġreceiv ed
ase s
ĠMe ssage
if ies
ot al
Ġw ater
V ol
iter ator
Ġ" <
[ $
ar io
ĠF unction
ĠJo hn
Ġdevelop ment
red ential
Ġh old
. )
Ġoff ic
R untime
Detail s
col lection
ĠA N
Ġw in
Ã ³
Mem ory
D et
ĠS pec
j ar
Ġcontain ing
pe at
Con f
ĠF orm
UT F
Ġin valid
Par se
Ġexp ress
}_ \
Ġs ymme
text width
Ġcour se
Ġg re
g ba
urn al
ĠUp date
ĠO b
im s
Ġvar ious
Ġ[ [
ĠS ome
Sc roll
Ġal loc
Ġcon ver
Ġ ensure
tot al
Ġtak en
5 8
Ġde bug
ĠS ince
Ġ( _
) ).
Ġ util
Fa iled
Ġre q
the me
loc ity
c up
se ss
Ġ Ã
S ER
fil ename
a o
ĠC ode
ĠD ep
Ġdescri bed
Ġdi ag
T C
ĠV ersion
by tes
con tains
Ġsh ape
ansp arent
resh old
Ġd ir
Ġreg ular
i ol
par ser
Ġp lugin
se quence
ig en
al ax
Ġinclu ded
Ġimplement s
sh ift
Ġt ell
Ġh ar
Ġty pename
ar ger
ul ate
con s
Ġcommun ity
Ġb uilder
at ically
Ġam ong
Do uble
Ġde s
D est
est ed
Ġc rit
} |
av ed
) ^{
M apping
} :
form s
n es
are a
Ġr ather
war gs
ĠV iew
d p
Lay er
Ġas ync
Ġle arn
F R
i ence
Ġse ason
Ġac cur
r ong
b all
$ )
SCRIP T
File s
}^ \
oun g
clus ion
ul lable
Ġde fin
Ġp latform
Ġy ield
nav List
N ULL
Ġpat ient
ON E
Ġcol lect
Ġexperi ment
Ġin dependent
Ñ ı
Ġa wait
Ġ ans
> :
sh adow
L S
Ġc lean
A RE
h and
ĠA pr
met adata
com ing
Ġresource s
w ild
Ident ifier
ĠA p
Ġb ottom
ĠW hat
Ġpar am
c ut
5 4
=" $
e fficient
D A
Ġclo sed
ĠIO Exception
Ġexp licit
Ġtype of
F ail
Ġpre c
b ers
Ġen coding
Ġword s
ap s
ĠRe ad
ĠNew s
or ter
F unc
ul er
Ab stract
r um
Ġ\ {
ug ht
Ġright s
Ġxml ns
) -
Pro tocol
lo or
ident ifier
Ġin side
Ġlo ss
s ymbol
Ġexp lo
ill s
Ġear ly
s ive
Ġ$ .
c v
Re pository
Ġen abled
At tr
w rit
ĠP o
Ġf ig
Ġf ocus
CHE CK
id x
ĠG roup
at ory
__ __
Ġtak es
apt er
Ġcon tact
b ad
ul ations
re set
bs ite
b on
F IG
ot es
Ġs ave
Be fore
ac c
S ync
Ġbehav ior
lo ader
Ġob served
ue st
Ġchange d
Ġwrit ing
5 3
cdot s
= (
ed itor
< !
Ġstart ed
Ġlo ve
Ġiss ue
ent ly
Ġst ar
sc r
7 2
W rapper
d imension
Ġent ity
De pend
ot a
ce l
Ġent ire
Ġoption al
Ġit self
ĠGet s
ĠFig ure
Rem ove
D S
Ġwh ite
Ġb ad
Ġpro posed
comp iler
t body
Pro file
5 2
z one
Ġh alf
", "
Ġat temp
Ġc tx
ar ation
ĠW orld
Ã Ń
ame s
ĠM od
bl ue
Ġt ab
p lan
n y
ĠW ork
Ġth ird
Ġ" ,
serv ices
Name space
LE CT
p refix
}) \
State ment
s ur
R AN
uro pe
Ġf lag
P ay
Ġwho se
k ens
ta gs
ight s
F ull
col lapse
Ġn umbers
co ur
co unter
wide hat
o ber
ition al
Ġa void
S U
pi ct
maz on
h am
Ġf un
pro vider
Con dition
ĠRe act
ĠR ed
Ġ= ======
Ġappe ar
">< !--
G lobal
}} (
ĠIn itial
Node s
Ġg overnment
en umer
%% %%
ĠĠĠĠĠĠĠĠĠĠĠĠĠĠĠĠ ĠĠĠĠĠĠĠĠĠĠ
Ġpass word
head ers
S ocket
IN FO
A uthor
Ġt w
om an
ance d
q quad
Ġth ing
Ġe v
math sf
n il
Ġprob ability
Ġchar acters
Ġnecess ary
ff ff
L im
Ġhow ever
Ġinclude s
exec ute
Ġt alk
= -
RE AD
{ (
MO DULE
pro tected
ph one
all classes
Pro ps
! !
no un
Ġoper ations
Ġlist en
net ic
J S
Ġ[ ],
Ġcon structor
j d
Ġsign al
Ġb rowser
z y
t ex
h y
a e
Ġm usic
at tributes
proto col
Ġsize of
200 7
En g
Ġt re
ð Ł
col Last
G B
( __
Ġco up
N OT
ĠF rom
Ġab solute
t ty
Se cond
L P
Gener ator
Ġapp lied
H R
Ġgiv es
Ġl arger
ook s
Scal e
d y
Ag ent
ĠCh rist
ĠN AME
ĠT ask
S uccess
Ġo thers
ch ine
Ġre view
Ġat tack
con n
p ass
ci ence
O O
sv g
Imp ort
e ffect
b ot
ĠEx p
uil t
at ible
ic o
Ġp ress
ang ular
m ing
9 8
aj ax
}^{ (
var iable
O pt
ĠIn teger
ex ists
P i
Ġco q
(' .
Ġh idden
Ġnew s
Tra ce
() </
k ing
Ġwho le
ho od
vent ion
Ġdid n
child ren
Ġc amp
ag ger
Ġs chool
ĉĉĉĉ ĉĉĉĉĉ
200 0
w ik
P refix
Rout e
col First
j ango
Ġlo op
Ġf all
ify ing
Ġt reat
Sp ace
de tails
OR TED
iv en
L anguage
j unit
b le
Ġon line
Ġst orage
str y
Ġbe h
Ġl ive
-------- ----
lo gin
Ġpro file
O UT
Ġpro ces
pre v
P assword
an ded
Ġ engine
du c
j pg
Ġset up
am az
Ġ? >
7 8
F in
ĠCh ar
C or
p latform
ĠA R
Ġ' <
Ġc ancel
Ġ" -
B C
name s
ers ist
parameter s
N T
Ġr ules
IT E
å ı
pro gress
Ġca pt
mark s
ic ult
s warm
Ġet c
ens ive
Ġt x
Ġup per
Ġpar ser
wild fly
Ġstate ment
Pro duct
: \
ĠĠĠĠĠĠĠĠĠĠĠĠĠĠĠĠ ĠĠĠĠĠĠĠĠĠĠĠĠĠ
par a
se qu
st orage
Ġfor ward
iv ing
Ġth ought
Ġde al
Ġv ers
O B
Ġto day
Ex pect
CE SS
E rr
ĠO per
FF FF
AR N
Reg istry
ertific ate
ul ated
type def
re et
ĠH el
Ġup dated
ĠR un
Ġw atch
Ġf ix
Ġent er
RE S
Ġhe l
r f
Ġ ill
Ġs ing
ip s
Const ants
I ST
} '
m aven
Ġval ign
u ed
Ġm illion
ne y
script or
z er
ĠRe quest
m ask
buil der
v o
Ġmessage s
s in
sc ss
& =
Pro to
. '
Ġmult i
ic les
Ġco re
ak er
r uby
M B
i ans
Ġw aves
comp lete
Com mon
Ġse curity
Ġcom mit
Ġpart s
M ore
test s
require d
AL SE
alle l
Ġac c
ass ign
. ~
act iv
el li
}\ \
Ġre quires
Ġex ternal
ance s
ĠJ ava
Ġsp lit
C I
? >
Ġa ir
> ::
ra se
7 9
Se lection
Ġapp end
Ġper cent
b rief
ĠAmeric an
6 8
ĠN ational
i os
! [
ch art
spec ial
C luster
Ġcomp ut
it ect
Ġpro gress
F LA
et er
en abled
A CT
Ġd ig
Ġquant um
ĠI E
A X
error s
Ġ$ (\
Ġeffect s
Ste p
atist ics
Ġme chan
ateg ories
Reg ion
Ġc ut
in valid
T x
re lease
inc ip
z ero
Ġ ],
sh ared
F S
M o
Ġpro tocol
Ġj Query
ĠF irst
Ġe ver
amaz on
ĠF ield
mo z
TI ME
umpt ion
Ġc lick
Ġe p
. ");
Ġno thing
ĠA g
Ġex port
d one
Ġid x
iz able
index Of
M ar
HT TP
Ġcall s
s y
user name
Ġf ra
Se ction
Ġal most
node s
de tail
H ER
Collection s
s pect
UR I
u a
b lack
gener ated
Ġeffect ive
Ġl ang
ĠL emma
le ep
ĠB uild
Ġ queue
ĠC all
ĠC l
ce mber
v c
ĠĠĠĠĠĠĠĠĠĠĠĠĠĠĠĠ Ċ
Ġcon tra
Ġf ac
Ġsp in
TEX T
B AR
Ġnav igation
U SE
Ġp refix
sa fe
so cket
cd n
ĠUn ited
ĠM arch
ed er
ĠH ash
de finition
ex tern
Ġs ens
os ite
un ique
Resource s
en a
Ġsol utions
ĠD r
riter ia
Ġbound ary
Ġc ame
Ġpro per
Ġ{ {
p are
/ _
er ies
IN D
Select ed
{ %
ĠW est
Re port
Do main
Ġtemper ature
}\ ,
Ġprob lems
us form
if def
numer usform
Ġpri mary
O ff
wh ile
Date Time
ĠĠĠĠĠĠĠĠĠĠĠĠĠĠĠĠĠĠĠĠĠĠĠĠĠĠĠĠĠĠĠĠ ĠĠĠĠĠĠĠĠĠĠĠĠĠĠĠĠĠĠĠĠĠĠĠĠĠĠĠĠĠĠĠĠ
IV E
Ġun less
Ġpol it
Char acter
ĠW indow
l ers
) ->
Ġd ynam
C RE
^ +
Eng ine
m al
N N
Ġad min
Ġm ar
ĠD ec
P op
gra de
ang ing
Ġlog ger
Ġm ask
v ideo
.. .</
ax is
ĠP ublic
S imple
mo use
v s
r andom
P y
Ġex it
Ġremo ved
medi ate
d ers
ĠS ch
ock er
Ġro om
Ġcomp ared
P ack
lu g
ĠP e
ur ch
le ge
r b
Ġl and
Ġm enu
Ġlik ely
om ial
He aders
Ġlong er
6 9
th row
ĠL android
Ġan g
Ġco mes
Se quence
' ));
St ats
D C
x s
o sed
Ġmark et
end or
ĠCopy right
Ġc ity
Ġhe aders
Ġt mp
P e
Sk ip
Ġsh ared
cit et
ĠC ur
Gener ated
lab or
ser ve
IC E
W ord
Ġimp act
Ġf ive
Ġ ui
spring framework
Ġpre dict
G ra
ĠU I
Ġg round
Ġr gba
ile s
Ġf lags
Ġh olds
ĠM ed
ĠHT TP
Ġco unter
oc aml
Com ment
Ġmult ip
ĠM c
Ġ& \
] $
Ġtak ing
Vis ible
a ign
S R
it ch
; }
Ġ[ "
Ġplay er
PRO JECT
cre te
Th en
Ðµ Ð
p ub
ĠH ttp
P lan
ma c
Ġext ract
Ġmet adata
Ġvis ible
Ġb and
po ol
F ORM
ĠC ity
Ġco ok
ĠN ow
ĠY ork
x html
Ġiss ues
g ers
E C
DE FAULT
Ġ{ "
p attern
Ġreport ed
An imation
C ategory
Ġthere fore
Ġsh are
Ġsimp ly
12 8
p u
resource s
en ses
Ġsp an
let ion
U ri
Ġp ixel
s pe
print ln
ĠIn dex
Frame work
pt ember
Ġre duce
ĠPro ject
ĠT R
ĠI d
Vol ume
CT YPE
c ame
Text ure
m atrix
Ġf ront
ĠĠĠ Ċ
Ġest ab
ific ations
at ur
Ġb ene
Ñ Į
ĠĠĠĠĠĠĠĠĠĠĠĠĠĠĠĠ ĠĠĠĠĠĠĠĠĠĠĠĠ
Ġde ep
G oogle
Ġp ick
Ġtest ing
Ġ ×
Ġf oot
Ġuse ful
L INE
fe ature
om orph
Ġmin imum
ĠAr t
De c
8 3
Ġrequest s
Ġb inary
l ates
Pro gress
P air
Ġfinal ly
Ġframe work
f lag
di an
o ss
en able
f d
g ments
s ys
h ref
ache s
rid ge
Ġpro duction
; ">
c lean
Ġdo ing
du stry
un ty
e le
S ince
check box
} +\
Ġlook ing
var i
ab ilities
ĠH ere
ap os
Ġfore ach
ex pr
Ġs itu
W N
Ġg rid
Ġal gebra
Ġen able
C ap
P ER
R ad
Ġstud ents
ĠO ur
ch ain
Ġf av
Ġso und
Ġed itor
ma g
ot ed
Ġpro ve
il it
velo per
ĠE urope
Ġd rop
ri ed
E V
LO CK
ĠN umber
up load
oo th
r and
6 3
ĠS O
Ġd ataset
g reen
ĠB ar
Ġinter val
(' /
Ġblock s
ĠD irect
f ixed
TR UE
Inst all
ak ing
) +
ĠArray List
ic ient
con struct
PO ST
tent ion
ĠA fter
" ].
200 6
ce ed
Ġg alax
Ġsh all
Ġchar set
appro x
R ole
Ġstart ing
(' #
ĠJ une
lay ers
y ing
Ġsc en
Ġeas y
Ġc ategory
Ġn atural
ĠTh us
Ġw alk
Ġmaj or
Ġvert ex
her ited
sh all
f x
n ob
Ġbuild ing
Ġs ense
. <
Ġe con
b um
ct r
EE EE
Ġtime out
Ġout side
at ives
B ind
ID TH
l legal
Ġne ighb
Ġh ouse
Ġrelation ship
r is
Inter val
us ers
Ġtr igger
Ġde sc
n def
Ġs co
Ġb us
ist or
se ct
ie ved
US ER
ur s
ot t
Ser vices
D T
Ġe ff
ext ension
6 2
art icle
con tin
R PC
ĠP ost
Di ctionary
Ġemb ed
u it
( @
Id s
at ively
side bar
] \
i et
Ġwe ak
Ġch oice
" /
Ġ" $
Ġab stract
ustr al
Ġm is
ĠJul y
Ġ Î
r d
DO CTYPE
Ġle ad
ĠM ake
Ġcon troller
h space
ber t
l arge
s ample
{ $
ĠA f
ne q
ĠA SS
or ing
p resent
| ^
Ġca use
ĠO ver
and ra
Ġa ge
ach ing
as sembly
ĠS cience
ill ing
r ank
as ync
pp ing
V M
ro om
Ġb asis
Ġelect ron
ĠApr il
g ame
Ġp lease
Return s
Ġli b
ap is
Ġw omen
De legate
port un
get Element
} -\
w p
Ġre ceive
Ġs amples
L en
t or
er man
Ġre tr
Ġphys ical
Ġ raw
ĠC EL
Ġcomp ute
lev ant
Ġn ative
Ġs ix
ate way
Ġnull ptr
Ġpri or
}} {\
ad o
Ġ( [
com mit
struct ure
ĠHe alth
W R
h ere
Ġfil m
S w
Ġpro xy
ic a
VAL UE
Â ł
T otal
: `
de pth
Ġen um
ĠSt art
Ġdeter mine
{ {\
pe t
u ge
Ġc md
c ip
Ġsh ift
he ll
time out
Ġin ner
P layer
8 1
ĠS ource
Ġany thing
W allet
Ġag o
Ġpro duce
row n
lo ok
Ġis n
Ġle ading
F low
b ul
Ġde mon
re port
IG HT
hel per
Ġart icle
g i
test ing
Ġm ot
Ġw ide
Ġget ting
Ġsource s
Ġo pp
s ince
r ift
if ndef
check ed
Ġequ ations
ĠLO G
() ))
mo b
ĠG o
Ġver ify
Ad min
ĠS to
Ġd im
7 4
ĠP a
DE BUG
ir us
ĠDe cember
Ġcon nected
refer red
item ize
Ġe q
Ġb asic
the orem
b lank
End point
g lyph
re w
f ix
ĠS outh
ous ly
M ake
t k
Ġden ote
p ull
ot on
Ġvert ical
' ];
EEEE FF
ig ration
Ġlevel s
ĠNov ember
a ur
O F
Ðµ Ð½
Ġw or
F ind
Ġm ut
di ction
Ġ ir
ca pe
pro d
sign ature
Ġmatch ing
Ñ ĭ
Ġro und
Ġne gative
ĠP ath
ĠV er
s b
Ġman agement
ĠV ector
con sole
clu ster
ie ce
G en
fin ite
ou ch
RE Q
Ġqu ick
Ġpre vent
Ġp ush
Ġed it
comp ile
Ġo k
Ġcomp are
il ation
ĠRe f
u ite
gener ate
P P
ĠO ther
à ¸
Ġre ader
Sh ape
M C
par ator
S top
h an
ST ATE
EN SE
f ect
te e
Ġde gree
Ġm d
it ute
i us
Ġ layout
mult i
ĠP res
{ "
Ġstr ings
s yn
ro le
Ġspe ed
py thon
Ġor igin
Ġread only
C la
$ _
av id
Ġman ager
Ġsmall er
group s
Re quired
ro ad
Ġ' \
ã Ģ
us ion
pro xy
Ġn p
Ġall Classes
Ġ ];
f lex
un defined
Ġde tail
ĠÐ ¿
war ning
lo op
ĠallClasses Link
am a
7 3
y l
ĠE ND
Ġqu ality
ag raph
Ġse gment
st ers
Ġdepend s
" ],
Ġpart ition
Ġa xis
Ġdis k
ed back
n p
x space
ene ss
EL D
Ġdiff icult
Ġappro pri
g ence
om y
RE G
S ingle
Ġ- \
Ġrepresent s
Ġr ank
Ġun known
trans ition
Ġcon cer
Ġd riv
M ath
wh en
mit ive
ifi ers
Ġsign ature
Û Į
Ġimp lies
BP ACK
Ġ Ø
ĠAug ust
ĠB it
6 1
ore d
l int
Ġwe bsite
M ask
=\ "
Ġco efficient
is ation
Ġsk ip
Ġre comm
Sum mary
ĠOct ober
M at
Back ground
Ġequival ent
ĠCol lection
lo ts
ĠTe ch
t c
ca de
F ragment
Be an
ce ler
ĠVal id
Ġ ).
ceiv ed
F inal
H ome
Ġpart ial
enumer ate
ĠAL IGN
li ance
S ort
e ch
NavBar Font
ĠIm age
ĠEx ec
Ġn ight
Re st
'] ['
Ġproduct s
ĠS IZE
M ouse
Ġsc roll
ĠIn c
vid ence
B ut
Ġ> >
Ġto ok
grad le
S yntax
IT ION
Ġm issing
G ER
ĠASS ERT
Ġtrans late
E mail
Ġal tern
vol ume
a use
g g
el low
h i
}} ,
ext ra
ĠSe ptember
Ġh it
u ssion
ro ute
fo und
let on
Ġbu f
Ġtr ansparent
ï »
ag ent
Ġa ctions
li ct
t w
Ġme ta
Ġc andid
Ġ ..
um in
ĠN AV
Ġide a
En umer
ren g
Ġme tric
Event Listener
ic ate
Ġar bit
ï» ¿
ĠT H
dimension al
(" /
r untime
ile vel
a res
Ġ\ |
common s
ro t
resol ve
Ġcolumn s
Ġpartic ip
pol y
Ġs chema
VAL ID
Ġassert That
Ġen v
SE LECT
å Ī
ist ing
Us ers
s lice
d en
ĠH igh
Ġre cogn
Ġde lay
; )
ä »
Ġ ip
Ġpro ps
s ome
ier arch
mer ge
ĠCO VID
de p
Ġg as
Ġinst alled
Ġv iol
ĠRes ult
Tag s
200 5
sel ves
b g
Ġprob ably
f c
ĠP ri
ĠG ra
Ġr isk
L in
Ġch oose
il ing
Ġb uilt
Ġlist ener
Ã §
ctr ine
j a
Not ification
s ync
I gn
re me
ĠL ong
Ar t
um my
Ġf ully
M T
Ġe ss
ĠC ent
ĠIn put
Ð ²
in herit
Ġf ast
ĠF ound
it o
ME TH
Ġest imate
y e
Al ign
B E
Ġm en
Ġst age
s ingle
Mult i
ĠCon st
Ġmonth s
Ġname d
ĠA S
lo od
b al
u el
ic ol
( {\
con structor
F lag
STR ING
Al low
get Value
S ample
at omic
app ed
Ġw riter
L L
Ġr atio
' ll
min us
Ġh ours
Ġ ðŁ
option al
up lic
Ġp an
Child ren
H and
) }{
Ġd a
v space
ĠS QL
ud o
an cial
Ġpresent ed
Ġre fer
el f
Re v
Ġget s
Ġde pth
200 1
Ġgame s
P H
Ġpro ced
Ġt ensor
Ġan noun
/ "
no indent
M icrosoft
# {
an imation
fact ory
7 1
W arning
ĠThere fore
Ġt sd
ĠA ction
Ġap ilevel
Vert ex
Ġf ire
Ġrem ote
******************************** ********************************
os en
ict ure
select or
lo aded
er ve
Ġ( -
de ed
Ġfail ure
Ġch allen
ĠSt ates
WE BPACK
Ġdemon str
Ġs cheme
ans ion
ĠJ ust
Ġm oney
Are a
Ġcomp an
Ġf riend
s n
ĠD ocument
Ġup on
ĠAN Y
P UT
z ure
ĠF ROM
Ġre set
pec ially
Ġ@ "
ĠS im
Ġ\ "
Ġs b
Ġf ood
Test Case
vis ible
Ġbecome s
Ġde ath
Ġ â
Ġlate st
Ġdisc uss
Ġexec ute
Ð° Ð½
opt s
Ġ ri
AN G
Ġreg ard
iss ues
li brary
Comp at
ick et
I LE
r ant
' $
k wargs
Ġperson al
Ġt ax
st at
ĠL ib
S K
ĠS chool
Ġdis abled
Comp iler
Ġapplic ations
riv acy
A ut
st e
Method s
G R
Ġcur sor
CO MP
ĠNAV BAR
gin ation
br id
Con structor
ĠA mazon
ĠU K
redential s
C F
ĠN orth
Ġde cre
P lay
Ġse m
ĠA ustral
IMP ORTED
Ġevery thing
circ le
9 4
Ġtr ansport
iz ations
Ġfrequ ency
object s
Name d
C ancel
M er
p air
il i
br uary
Ġsum mary
MO DE
down load
Ġst eps
ĠAl so
D ATA
support ed
H igh
. ",
Ġexact ly
S creen
tra ce
g oto
ĠS w
d atabase
Ġ ^
pict ure
Ġop portun
Valid ation
Form s
Ġm ention
Ġw ave
ri ends
Ġper formed
S ol
ĠM icrosoft
Ġans wer
z ip
low er
INT ER
ĠTr ump
ty pename
d uration
Ġ rows
Lim it
G ame
f g
Ġqu ite
ĠP age
App end
$ }
NS String
ĠAn y
operator name
Ġa mp
Ġde cl
N ative
En ter
Ġent ries
Ġinter pre
M IN
ant ic
ĠB oolean
b and
Ġre ct
de c
s imple
st able
under line
Ġdec la
æ ľ
f ol
f ort
Ġtech n
c are
d river
Ġseem s
d ro
math scr
Ġact ivity
P A
valid ate
Ġpo ol
c ert
Ġopt s
' }
Ġ_ ,
H ere
in ct
ĠP RO
Ġto ld
ĠC lient
f lat
re act
Ġcomp et
Ġtask s
Ġ' ';
Ġbro ad
ack son
Ġinvest ig
set up
y y
Be gin
f i
M ove
ur g
ace book
em on
tach ment
over view
an n
S im
ong s
' ve
b c
dest roy
Ġspec ify
Ġs us
b oost
word s
Ġident ity
P ass
str ument
is Empty
9 1
IO Exception
R R
Se e
9 2
Ġautom atically
f ire
ta int
b atch
t ics
Ġdocument ation
Ġde v
Ġan imation
METH OD
b d
Ass ign
C lear
ĠAs sembly
Ġmat ches
}} _
al ert
en sed
Sh ould
Ġfact ory
M I
Sh ort
at ial
Ġin sert
play er
ar an
) }$
Ġe m
Ġ" ",
Ġpatient s
ge o
ĠS an
Ġh om
Ġin dustry
V ideo
Ġ que
U D
O wn
Ġme as
) |
\ ,\
ĠĠĠĠĠĠĠĠĠĠĠĠĠĠĠĠ ĠĠĠĠĠĠĠĠĠĠĠĠĠĠ
Ġm iddle
art ment
ĠM em
SS L
Input Stream
Ġy oung
ĠO ff
W ORD
S pe
D b
ext end
rel ated
P U
P Y
Ġf mt
Ġw ent
ing er
< \
C G
Ġro ute
Ġra dius
="../../../../../../ ../
P ublic
fe ssion
T ile
Ġbeh ind
Ġed uc
S ave
Ġsub st
Ġstr ategy
ĠCh ange
Ġsecond s
text tt
\ '
Ġincre asing
Ġst ars
Ġb ring
f lu
sc hed
co p
yn omial
Ġh ot
t f
ic ip
Ġm ind
DO M
ĠRe search
~ $
ploy ment
Ġcon v
P od
ver ter
ĠOption al
la v
d iff
as y
b ut
im ated
E ST
Ġd ark
Render er
ava i
Ġex amples
medi ately
re lation
S ql
Ġ' '
Ġtry ing
dis able
' m
Ġno ise
Ġstore d
Ġon es
es ome
nav igation
tern et
\ }$
n orm
Ġcre ating
ex it
Ġlo aded
ĠSo ftware
mon th
w all
Ġcomp arison
Ġinterest ing
Object s
A udio
Ġo cc
Con nect
Ġcrit ical
getElement ById
ĠH er
Ġl at
Ġn orm
nob r
F UN
Ġf ill
Ġd river
cri be
9 3
message s
Ġoper ators
Ġf lex
qu es
ĠAnd roid
Ġb lue
L android
Ġb ind
Ġst and
ĠPro perty
m k
Ġe volution
Oper ator
Ġdetermin ed
ĠC our
Ġcons istent
Ġ} }
66 66
it ution
st o
il le
ache d
Ġconst raints
B atch
red it
}} }
Ġrespon s
D river
f r
Ġdi ct
Ġjo in
t ar
Ġ" %
own er
Ġve locity
ry ption
cre d
Q U
Sp an
Ġne ut
Ġnav bar
Ġj s
Ġre sp
an cy
en n
or igin
sub mit
O ur
G ui
ĠH ouse
AN CE
or ary
F E
Ġmag netic
i ra
Ġma chine
oo g
Const ant
Ġ ul
Ġl icense
for Each
ect ors
second s
Ġes pecially
ro ke
Un known
high light
Ġo wner
du cer
LO C
ĠO f
Ġa udio
ORD ER
C lo
N A
> \
ĠY our
Nav igation
ie f
Ġqu al
cl one
Ġag re
Y ear
Ġtech nology
W ait
Con s
Ġvalid ate
tr l
Ø ±
v ity
pol icy
ass andra
N ET
: [
Ġ" ";
Ġgre ater
p lot
S ome
Ġw rong
sp acing
Ð ¼
ĠP ark
mp t
Re lease
Ġgo al
ir med
L ower
Ġprov ider
Ġs ql
ĉ ĠĠ
Ġ' ',
200 4
Con tact
ĠL ink
Ġ\ (
Serial izer
Ñģ ÑĤ
au ss
Ġeff ort
velop ment
Ġsa fe
Ġread ing
T A
Ġdepend encies
limit s
d ash
L ook
ĠAf ric
Ġinf lu
ĠH ar
ri m
Ġstud ies
> )
lement ation
ĠC enter
Ġspect rum
k o
( --
ĠN etwork
Ġ _{
Ġappropri ate
z a
w d
in er
Ġcon cept
ĠD ist
an o
ASS ERT
C l
Ġto uch
N ormal
is ode
CH AR
ĠD B
e ff
att le
ick s
Ġmap s
Ġo l
C ar
Argument Exception
pro b
ac cept
Ġpage s
Ġel if
Valid ator
Ġbel ieve
ĠE l
Ġrecent ly
Ġexec ution
ĠĠĠĠĠĠĠĠĠĠ Ċ
Ġnot ice
Ġresult ing
ĠC ustom
ant i
Ġknow ledge
Ġresol ve
mult icol
Di agnost
Ġf rag
ach ine
ĠT V
ĠSh ow
ĠM edia
'] );
b its
Us age
ĠSet s
ĠW ar
Se gment
Ġw ar
() ),
Ġp od
Ġ' ./
N UM
Ġc ra
cal endar
w orld
Ġre levant
multicol umn
' \
ĠL com
on ce
Ġref lect
la x
T erm
v let
ĠV is
il s
n n
IN S
ĠReg ister
- $
Ġform er
Ġselect or
F n
H tml
Ġd uration
Ġinstance s
D rop
Ġf lat
ĠW rite
Ġsa f
d c
: @"
log o
arn ings
or iginal
Ġb l
The me
OR Y
quot e
Ġprocess ing
r pc
In d
STAT US
ç Ķ
ic ode
ĠA re
ra dio
Ġcon n
lip se
b log
P latform
IL D
k t
æ ĸ
% ,
/* !
1 20
Ġho pe
ĠU N
Ġk ernel
L a
ĠL a
ank s
ĠW IDTH
Ġcon tract
D ATE
En v
id ence
C LASS
Pro gram
, '
Ġv an
ĠT emp
Ñ ĩ
Ġcorre lation
F older
ĠS m
Exec ution
Ġcon duct
trans action
he st
Ch ain
con vert
R aw
Ġcent ral
Ġgrow th
Ġcon struction
is set
Ġchar ge
H ub
ĉ ĠĠĠĠĠĠĠĠĠĠĠ
Ġl iter
de precated
) [
Ġtrans fer
ĠSe arch
F C
load ing
_ );
AN T
ĠGener al
cre ated
w atch
ĠS D
no v
for ward
% "
Con sumer
se q
Ġra di
FI ELD
Ġeas ily
vert ical
ĠD O
G o
B B
ul k
Ġrelease d
Con n
12 3
Ġag ent
argument s
Ġtag s
Ġcla im
Ġcontent s
Ġmod ified
G EN
Ġst e
Ġpr ice
Ġreg ions
Ġquest ions
ĠOn ly
co ok
Ġdec ision
Lo gin
ĠX ML
ri al
Ġ' .
ond on
iv ery
ase d
method s
ĠCol or
act ivity
TR Y
gra dient
Ġpop ulation
Ġcell s
ĠFe bruary
or al
ĠM ult
Ġre served
H istory
ul ator
ĠM ax
i ses
incip al
Ġcom ing
clus ive
on ical
> "
ĠPres ident
ĠPro cess
Ġ ">
Ġed ges
B ook
ï¼ Į
P HP
ĠP ort
UM M
ĠPar ameter
ck s
Ġmin utes
b i
Ġp ull
ĠLoc al
pe ar
ĠDes cription
pk g
B inary
Ġp ublished
ĠU s
Not Found
Ġus ually
En vironment
ast e
Draw ing
2 13
ve al
u de
Ġpre v
| |
Ġhe art
ers istent
Ġun iform
Ġch unk
T T
Ġm apping
reng th
m utable
b es
AT CH
15 0
Ġare as
reference s
Ġco un
assert True
Ġp lot
ĠB rit
Ġde tect
Ġ$\ {
A ST
An notation
R ate
Ġma ster
Ġspace s
to uch
Ġb ranch
D R
A li
/ .
Ġb alance
U sing
Ġso cket
i pe
S M
ir th
con tact
f etch
Rem ote
mem ory
Mem bers
mun ity
ĠS um
Map per
Ġme d
Ġder iv
at ar
Co unter
Ġcall ing
Ġinter action
ĠĠĠĠĠĠĠĠĠĠĠĠĠĠĠĠĠĠĠĠĠĠĠĠĠĠĠĠĠĠĠĠ ĠĠĠĠĠĠĠĠĠĠĠĠĠĠĠ
Ġarbit rary
B asic
a fe
ĠS ol
cor rect
ib ly
display Name
er ved
ist r
Ġpro to
Ġ> >>
C loud
C ALL
ĠS E
Ġs low
ĠE qu
Y Y
is ions
(" #
bo se
ĠW AR
/ {
DE F
string s
ĠRem ove
ĠR el
. """
Th row
Comp lete
Ġmin im
Ã ¼
ĠD on
Add r
comp are
re pository
gorith ms
ĠAmeric a
Ġread y
}^{ -
St atic
Ġw ays
rt l
C ONT
< <
c atch
he el
lic ense
Ġhy per
cal led
av y
ss l
Ġdisc us
ĠRes ponse
Ġm icro
Ġf oc
Ġb atch
Î ¿
face book
Cur sor
rib ution
Ġ img
t wo
id a
direct ory
ĠB lock
oper ation
ĠB ig
Ġn uc
Ġ" .
tr m
Ġlimit ed
Ġun its
Ident ity
Po jo
Ġs core
ĠB ack
foot note
up s
elli j
Ġder ived
oci ation
ĠAc cording
war n
not es
Ġim mediately
Jo in
Ġs ys
ĠWh ile
En coded
S ur
Ġcomp uted
A mount
Ġop acity
S I
Resol ver
Ġm iss
a el
Ġf amil
Ed ge
ir ing
D iv
Ġde tection
au ge
ail y
Ġhigh light
Ġc loud
ĠO p
Ġscal ar
ĠSt atus
Error s
u uid
ON G
Ġsuff icient
Ġc ast
Ġa dapt
> ;
int ellij
es h
ub er
/ ">
tex trm
; |
Ġsyn chron
ĠD em
Ġe vidence
ograph y
NO DE
f mt
Ġcur ve
" },
Ġ_ .
Ġ\ ;
j Query
0000 00
em it
ing ton
sp irit
content s
Ex port
ĠI llegal
sh al
ĉ čĊ
re ader
amil ton
tr im
scal a
Ġvalid ation
ta iled
e lem
Style ID
ĠB lack
Ġfig ure
re sp
itect ure
Ġgr ant
jo y
HER E
ut ive
Content s
ut down
Ġimpro ve
Ġin c
Ġlabel s
Ġper missions
ĠWindow s
Ġfor ms
log ies
Ex ample
B inding
c ancel
Ġplay ers
Ġd ynamic
Group s
F L
ĠAp ache
pe ated
HE AD
^ ^
Ġtra ce
å Ĳ
Ġrecord s
P rivate
ta ched
, $
oc ation
du cing
Ġle ave
ĠM et
å ®
**** **
V E
Pre v
Ġform ula
Ġtra vel
Ġdevelop ed
ĠSt ud
] ))
am ing
ĠCon tent
O ther
Ġgo es
Ġst ra
A xis
ff f
b asic
ĠCo unty
F ree
col lect
Ġ' %
inte ger
cor ded
Ġan gle
Ġmer ge
au dio
Ġcom ments
UN D
Ġbound s
Ġm ix
The ta
Ġpartic le
he m
ag ue
( .
Ġg ain
subset eq
time stamp
S V
w br
ph rase
Ġresol ution
Ġre ject
N ullable
Ġat t
ĠF ind
ber g
ĠT op
Ġus age
Ġoffic ial
Ġr untime
form ance
Ġproces ses
d k
Ġs ync
Ġ{ },
Ġpath s
Const raint
Ã ¶
Ġb i
Ġs amp
t witter
all ery
Process or
Ġvert ices
Ġf i
ĠW IT
ab out
p erson
: '
l ush
Ġm otion
fa st
Ġun cer
LO W
ĠSe lect
m apping
ĠDE FAULT
C aml
Ġthe orem
Ġident ifier
Ġclass Name
Ġcompan ies
ĠE lement
Ġrep os
avai lable
IN ST
Ġp ul
Ð ´
G u
ew idth
w t
D rag
get Id
Ġpres ence
B order
ĠB ra
lib s
Bo ol
Ġadd resses
Ġs n
p ower
Set ting
ĠP R
Ġto ols
Ġconnection s
Ġnetwork s
ĠV ar
not ations
b p
ĠEx t
Ġtime stamp
Ġmod al
en ers
RES ULT
Ġc ard
Ġf ragment
ĠO N
Depend ency
ic ies
Ġm agn
p lus
Ġsc an
ĠWAR RAN
ĠA ir
Ġm id
Ġ und
ir ror
Ð¾Ð ²
Ġsup ports
ĠF in
ark s
C B
il led
F ocus
Ġb ra
Ġplan e
E q
Ġgener ation
In formation
n ative
Str ategy
iver se
Ġb in
Ġg oogle
Ġtreat ment
u fact
am o
ar ily
UR CE
Ġso on
Ġv s
Ġintro duced
sub ject
ic ensed
b old
stru ctions
serv able
Bound s
ra pped
Ġtra dition
Ġprevious ly
C M
Ġconst raint
view port
cf g
glyph icon
s ig
k et
A UT
ĠIn ternational
align ed
C enter
Ġcomp act
os er
Ġpre tty
ĠAb stract
Frame s
lation Token
Ġb its
change d
Ġpair s
t ical
FF ER
c mp
Ġpol ynomial
Row s
Ġvis ual
Î ±
;| &
Ġa ffect
Ġex ports
CON FIG
ĠE ach
HO ME
ĠĠĠĠĠĠĠĠĠĠĠĠĠĠĠĠĠĠĠĠĠĠĠĠĠĠĠĠĠĠĠĠ Ġ
p aper
em ents
Al loc
S N
Ġse c
en code
Ġs chedule
ĠConfig uration
ĠPro gram
Ġre ach
Ġlo st
Copy right
Ac cept
.* ;
ĠCo q
200 3
Ġe igen
th rift
AT ED
Ġar r
ĠDe lete
res ize
ag ram
Ġt d
: #
C md
lo ating
Z one
re po
Ġs il
En coding
valid ation
oci ety
overn or
ĠD ay
External Task
Ġh ence
A SE
i lo
t ensor
Ġflu x
ĠM ich
T imer
gra ms
Ġsome one
H older
Ġto wards
Ġper fect
s ass
in i
UMM ARY
g z
ient ation
ish ing
T Y
im ately
Ġimplement ed
ĠF OR
Ġde ad
å ħ
Ġpart y
ĠF inal
Ġde vices
Ġme et
Ġtype def
set minus
Sh ared
Ġthe me
Ġmod ify
Array List
ĠApp lication
code c
r ices
E ffect
g ot
ĠFound ation
ExternalTask Pojo
Ġext ended
fa ke
ĠCol lege
ot ing
= [
ĠF rame
Error f
> '
Ġst ay
Ph one
Ġremain ing
g b
Ġsc ene
m ms
ĠP lan
Ġmean ing
const ant
Ġill ustr
Column s
ĉĉĉĉ ĉĉĉĉĉĉ
B ottom
ĠL aw
ĠCom mand
ĠS ign
Con sole
yn chron
Task s
(" %
W atch
Time stamp
y ond
Sign ature
can vas
ĠH o
Ġcontinu ous
greg ate
ĠM er
v an
is ms
log ging
Ġexp la
ap es
po inter
function s
AT TR
clu ded
Ġad just
Message s
ful ly
- (
im ing
Ob server
Ab out
L ight
we et
Ġadd ing
}} _{
Ġobserv ations
D ay
map s
Ġpol y
C ard
= %
Ġd ro
ĠIt em
Lib rary
V ICE
Ġdest ination
Ġst ats
Ġ Query
e g
comp ute
gu ide
Ġinitial ize
Re al
op lus
Ġhe ld
Ġan t
Ġ$ _
Ġcomplet ely
Ġdest roy
Ġt en
org an
ĠDe f
ĠM ock
Per mission
p b
ak es
Ġapplic able
Ġpur pose
f old
Ġdown load
_ *
Ġaccur acy
ĠC SS
Ġd omin
rel ative
; "
Ġ$ |
case s
u ous
ĠG lobal
Re set
__ )
ar a
ĠC H
Fail ure
y cle
id ers
L oop
00 1
Part ition
ĠM at
AC H
ĠL ine
Ġlet ter
b lob
Ġexp and
mob ile
Ġremain s
Ġat tention
Table Row
Ġpay load
_ )
á ĥ
We ight
w ell
Ġse x
C apt
Ġsatisf ies
ĠC G
I AL
element s
LI ST
T wo
S can
lo ur
ĠH is
Group Name
f its
i ency
Ġess ential
P romise
ĠOut put
es ian
sc ape
Ġcol l
Ġ$ $
Ġ< -
create Element
ĠP oint
= $
w a
B Y
^{ -\
Ġm ac
Ġve h
S ta
Ġch o
ĠH ome
ĠD OM
f ord
peri ment
Ġcomp leted
rag ma
head ing
Ġmo use
l ished
ri er
e lastic
el come
ched uler
de cor
rem ote
EN V
OP T
ĠĠĠĠĠĠĠĠĠĠĠĠĠĠĠĠ ĠĠĠĠĊ
ge ms
Ġindic ates
"> (
to Be
P lace
Ġ| =
lin ewidth
Over view
Ġdiscus sed
Ġ ----------------------------------------------------------------
tr i
B IT
p at
19 99
ĠF acebook
lap sed
g if
Ġang ular
Ġinput s
V AR
TER N
Ġde signed
Ġn ational
cur sor
ĉ ĠĠĠĠ
Ġto po
Ġcalcul ated
( ['
( ()
M aterial
m c
ĠEng lish
Ġl att
IC ATION
Ex tra
ĠM O
Ġcoordin ates
el t
ĠK ing
Ġ} \
Ġd ie
Ġ{ %
v ement
ri ction
se lection
d jango
Ġch osen
T F
Ġd ise
ĠSer ver
W A
ĠE ast
As set
auss ian
iv ial
Ð ¿
ĠS UMMARY
Ġrequest ed
pro gram
p an
ĠCon s
e a
Ġcamp aign
Ġab ility
Ġf s
DE X
Ġintro duce
uff ers
' d
re peat
de g
l ated
om b
Ġn ature
De precated
ri a
R UN
ĠAr gument
Ġal ert
Ġst aff
unc il
p id
Ġsitu ation
al o
sub figure
Ġd ialog
( /
> %
ĠJ son
Ġgu ide
Ġlo ading
Ġc amera
ĠB OO
Ġ( $\
6 00
Ġask ed
class Name
ys ical
Ġend point
De pth
F ore
T AG
ĉĉ ĠĠĠ
le c
m n
Ġfra ction
sc an
L Y
Ġwant ed
Ġthem selves
hav ior
k i
H S
Ġ eng
ent ic
as c
ĠP lease
M R
Decl aration
cre ment
ĠÐ ²
y a
And roid
In ner
exp ression
column s
ro py
Ġr ates
Ġlog ging
Ġproject s
oc r
ĠL ondon
Ġg reen
Ġp ert
alt Color
Ex ists
fol io
Ġrun s
lic enses
B S
Ġmain tain
al ias
ierarch y
Ġbo ard
Bu cket
Ġpract ice
ig hest
Ġdis able
ord s
ell ar
} %
Ġsuccessful ly
V irtual
link ed
Ġre duced
ĠCre ates
Sp lit
N V
w edge
Ù Ĩ
Ġear lier
ok en
T er
Ar ch
è ¯
Argument s
Ġfact ors
Ġex c
h old
h l
ĠI I
Point s
ĠG ame
(' <
Run ner
f av
Ġpop ular
M aster
Ġdel iver
__ ["
! <
Ġme di
r ules
Se c
Ġbe yond
j ax
U ST
Control s
Ġm ixed
Ġch art
od ay
Ġbegin ning
Ġon to
ĠG erman
w allet
Ġtop ic
Ġ$ [
In sert
Ġcon t
ĠB uilder
The se
em bed
Ġplace holder
Ġsymme try
ĠVAL IGN
12 7
ĠC R
Ġup dates
page s
ver ify
R et
ual ity
Ġb oost
c assandra
ĠST ART
Ġsm ooth
' _
ro uter
dis patch
Ġde mand
ence s
m ime
S ite
Ġg auge
> ()
Ġcorrespon ds
Ġ uri
d agger
P ixel
Ġconf irm
ad oc
Ġopt imal
Ġpro duced
18 0
ĠComp onent
Ġinvol ved
b t
ol ate
equ ality
ĠRe ference
z en
Ġpar sed
Ġevery one
ĠS ur
ec ause
================================ ================================
E O
Ġf ine
Ġa v
CO MM
gener ator
ä ½
Ġ' "
Ġpartic les
cur s
Ġde scriptor
25 0
er ial
\ }
Ġar ia
et te
amazon aws
ãĢ Ĥ
ARN ING
f p
Ġd rag
Ġproced ure
Ġview s
re v
ar ter
Re act
ph oton
RA Y
Con tains
an chor
Ġexperi ments
ab c
Ġsign ed
ĠIn v
un lock
Ġs light
ĠM r
get Instance
Ġe mer
* {
se m
wo od
à ¥
Co in
_ +
ac le
Ġexp onent
Ġe mission
12 5
ĠG od
ĠS imple
Ġd am
P resent
Ġcap acity
Ġpe ak
en ing
Ġext end
T L
ĠAc cess
o ch
Tr ansport
et ic
Ġmeasure d
AT OR
Ġuncer taint
Ġp ublish
ud get
Ġtra in
\ /
Ġc b
p ace
v endor
ersist ence
cover ed
Ġvers ions
st rip
Ġin variant
ĠI mm
Ġle ads
Ġstruct ures
ĠP ackage
ĠC OL
serial ize
S witch
Ġbo unded
Ġident ify
m ix
Ġ-- ></
Ġattemp t
_{ (
S W
× ķ
SP AN
LE TE
j et
aly tics
ed u
MA P
ĠAr ch
Ġgu aran
ĠE ar
ER S
w riter
F uture
ceiv er
S ame
UN T
, .
Ġtrans actions
ĠTh read
Ġcommand s
ĠM ain
Ġassert True
ele br
ome tric
ĠEx ample
Ġprom ise
In tro
Ġreplace d
ck now
] +
Ġrest rict
ĠIn dia
ĠCon text
Ġhar mon
Ġfollow ed
R andom
port ion
Expect ed
at o
Output Stream
ĠO S
ĠSup port
all s
a ver
Ġal ias
us r
BU FFER
i qu
Ġtra de
it able
ĠB usiness
Ġcorrespon d
ĠOr iginal
Ġgener ic
ĠH ol
ĠMan agement
Ġs aved
Ġpolit ical
Ġsc atter
ur ations
d anger
ĠM ag
D irection
% "><
lic ations
t l
Ġf etch
Ġcre ation
ĠM ac
En able
ĠSt ream
d ark
M ed
ĠDep artment
Ġ' ''
ĠIn formation
ĠSer vices
Ġfav or
if ferent
G O
0000 0000
P erson
D om
ĠV irtual
lin ux
k y
Ext ensions
Line ar
Ġpress ure
wh at
de lay
ĠA m
Ġapprox imation
s r
as hed
Ġe mit
con v
Ġcomp iler
Ġcomp uter
re marks
uplic ate
ĠA uth
Fig ure
Option al
Ġv m
ĠD avid
E Y
Name Link
How ever
Me trics
Ġover all
Ġ- =
Auth entication
ĠCon trol
f b
Ġlarge st
Ġf air
200 2
Ġw arning
lim ate
sh are
Ġb ug
UE ST
Ñ ĸ
D r
par k
W IN
Wh ile
Ġappe ars
Re ason
to o
Ġth reshold
Ġex am
Data Type
I A
date time
Ġh yp
M ac
AR D
bul let
Ġthrough out
Ã £
Ġcalcul ate
Ġ Ñģ
ĠC ore
N C
ist og
Ï Ħ
ser ies
ĠÐ ½
) ",
~~~~ ~~~~
exp and
Ġtri p
Ġin struction
Ġh on
table block
Ġrot ation
Ġprop ag
comp lex
Ġh or
Ġde tailed
Con verter
int s
ĠL java
ĠK e
W orld
google apis
ĠBy te
St andard
Ġsepar ate
Ġmodule s
Ġse ll
De lay
sw ing
Ġro b
serv ation
ĠU til
\ _
ĠCh ina
Ġgalax ies
ĠL ife
ph an
S m
en coding
gre es
Ġdynam ics
ĠI ter
Ġ( %
oll ary
ĠB ook
LE MENT
Id x
ĠLo ad
Ġcomp atible
Mon th
f ront
Ġcontrib ution
j i
Ġw idget
Ġ" '
M s
Ġstra ight
if orn
ĠU sing
sol r
Ġf riends
Ver ify
ĠBOO ST
Ġregister ed
link s
U AL
Ġexp lan
th umb
W rit
du mp
ch a
G IN
ĠC la
Ġe fficient
Ġw orth
ĠStr uct
Ġbe aut
g on
Ġrepos itory
Ġs aw
. ',
Ġtrans lation
sd k
ĠĠĠĠĠĠĠĠĠĠĠĠĠĠĠĠĠĠĠĠĠĠĠĠĠĠĠĠĠĠĠĠ ĠĠĠĠĠ
Ġde comp
Ġshow ing
20 22
) },
" ];
Ġmoment um
Ġpro fession
8 00
mu x
on ic
Ġra dio
Ġ| \
Ġloc ated
b at
ä º
Ġ` ``
u lo
Ġover flow
ex amples
ĠD an
T ouch
ĠUR I
Ġunder lying
Ign ore
d irection
Man y
Ġst rength
RE E
der r
R o
Ġan im
Ġat om
Ġmon itor
h aps
Ġlook s
atase ts
ĠPy thon
e ss
(" \
ĠF ree
de cl
Ġnumer ical
M issing
Ġle aders
Ġra d
tool tip
Ġrepresent ing
^ -
Ġd at
go ing
L icense
Ġtrans formation
Ġb undle
Ġse cret
Ġexp ansion
Ġpro tect
10 1
Exec utor
Ġs it
UB LIC
æ ķ
Ġre li
con tain
Ġexperiment al
Î µ
TableRow Color
eder al
Trans ition
Ġg ir
Ġan n
Be en
Ser vlet
Ġla unch
c li
Ġas pect
ĠG reen
Ġn or
get String
L at
ker nel
99 99
dic ate
Ġpol ice
B L
stats models
ĠGu ide
B its
ĠP O
Ġf older
ĠP romise
Ġcol span
st one
Col lect
Ġhigh ly
LIC ENSE
as ses
Re place
A ctions
St ub
ĠI R
ĠC ont
LA Y
Ġf ake
Dec imal
) _{
Re quire
ĠR out
ĠP at
k in
Ġplay ing
sp ital
Ġdes ired
SO URCE
12 34
ten ded
Ġter min
Ä ±
ces sed
el s
Ġs izes
ag o
d ig
inter val
st ra
Lo ading
Dis patch
Ġw x
IL ITY
10 24
} ",
ĠF urther
Ġtr ust
ĠĠĠĠĠĠĠĠĠĠĠĠĠĠĠĠĠĠĠĠĠĠĠĠĠĠĠĠĠĠĠĠ ĠĠ
>< !--
Ð ·
Ġph one
Ġst at
Ġre member
c ryption
Ġco p
ĠR uss
ĠH ence
fra gment
Ð° ÑĤ
å Ĭ
F OR
Ġstart s
let ter
R ules
< >();
K it
be an
h ave
Pack et
br and
Ġm obile
) _
Ġmeasure ments
st andard
mo us
Ø ¯
ol ic
label s
include s
ĠC lasses
not ify
O wner
SS ION
Ġs al
Ġident ified
Ġen joy
P OS
S chedule
on av
pre vious
ig r
cip ient
ĠH amilton
s amp
big g
ĠD el
L iteral
Ġf ight
s lide
ter min
Ġcomp ar
), \
new s
Ġst ri
Ġmo ving
TI ES
Ġin ject
get Type
Ġlatt ice
Ġpri ority
ĠA uto
Ġal bum
Ġcheck ed
in der
arch ive
S napshot
BU ILD
RE CT
Ġprint f
F ALSE
Ġen umer
t p
iforn ia
b an
Ġab s
ar c
Ġiter ator
Ġcomb ination
Ðµ ÑĢ
Ġpol ar
LO AD
Ġd st
/** */
U ses
run ner
Ġno vel
Do ctrine
ch unk
s heet
Ġext reme
ĠE V
Ge ometry
ys ql
ro l
è ¿
ref s
the s
An alysis
if ically
ho use
Exec ute
ĠPol icy
C ook
Ġfin ished
l ider
P lease
Î ¹
s un
Ġde sp
stylesheet s
Ġdel ta
Pro v
ĠS en
Ġal though
Loc ale
p ragma
Ġleg al
R ot
[] {
cache d
Ġex change
Ġind ices
Ġdim ensions
om ite
Con vert
Ġcache d
respon d
de cla
Ġal gorithms
Ġsignificant ly
mal ink
bu cket
Ġincrease d
lic ity
get Message
h pp
Ġdisc ussion
Ġ& #
}} (\
__ ,
Ġan ti
d rag
Ġpres ident
r ance
(' ./
k es
S G
Ġle d
C ast
ĠWARRAN TIES
ĠV ol
lab ility
Ġa apt
Ġag reed
Ġmode s
ĠJ ap
ĠQ ue
[ -
å ¤
Ġ' _
Ġuser name
Ser ies
Ġa x
ex clude
ĠRe public
el i
Ġmov ie
ok ed
omite mpty
add Class
Ġchannel s
Ã£ o
C CESS
act ual
ĠO Caml
ĠSup er
ur able
Ġprov iding
h ar
Ġfin ancial
Ġspect ral
Ġsim ulation
de code
IM IT
Up load
Ġsp ent
b ing
onav irus
ĠK EY
ĠPar se
Ġre ports
Ġindic ate
ĠB uffer
Ġprec ise
it ing
Ġcoun tries
mo ment
D TD
ĠC ap
-------- --
ĠPro position
F ixed
lo ss
ens itive
Ġl if
] </
Ġas sembly
ers pect
go od
Ġper mission
j ackson
TO M
__ _
Ġoff ers
AV E
Ġspec ies
Ġst udi
iv il
ing u
Ġt or
A F
Ġcirc le
ĠRe cord
for all
Ġoff ice
Diagnost ics
top ic
Com mit
ĠĠĠĠĠĠĠĠĠĠĠĠĠĠĠĠĠĠĠĠĠĠĠĠĠĠĠĠĠĠĠĠ ĠĠĠĠ
Down load
ĠJ S
ĠInst itute
Ġ' #
Ġbehav i
get Class
G C
g ov
de mic
ĉĉĉĉ Ċ
Ġp ure
ĠRe port
Ġre veal
Ġl ives
Ġpack et
ĠB er
On ce
d st
Mark er
ĠR untime
[ (
Ã³ n
! </
Ġcl one
ĠH andle
Ġcontra st
java x
Ġs quare
Ġs pre
ĠL ay
omorph ism
er c
ill is
Ġplay ed
cur rency
Ġmeas ures
×ķ ×
Ġp m
ĠLog ger
ony mous
A vailable
la m
Ġclass ical
IN VALID
T uple
EV ENT
Ġbu y
) }(
me mbers
y al
Ġreference s
pri se
et ween
CRE ATE
ri an
Ġweek s
Ġm or
ĠÂ ©
e val
ong o
M ut
Ġge ometry
e es
T w
Ġcoup ling
sub subsection
de ep
Ġc li
fra g
ĠL L
is hes
Ġcontain ed
ĠA ws
EN ABLE
Ġb ench
Ġgener ally
st ates
Ġl iteral
Sh ader
Ġauth ors
p ad
ell ig
Ġ ult
Ġass umption
Ġbu cket
Ġcons ists
PRO P
%%%% %%%%
ĠT er
Ġsc ience
> `
Ġoccur s
Ġme trics
_{ {\
File Name
Per iod
Ġagre ement
Ġh istor
>( <
Ġfe e
f older
ĠT ag
U A
Hash Map
Man agement
ĠM odule
Ġrequire ments
Ġin equality
Ġdig ital
Ġob vious
Ġfail s
Ġthe ore
Ġin sp
ail s
al an
or ge
Ġt ro
Ch art
Support ed
> ${
Ġestim ated
M ust
": "
b us
pro v
Ġst able
spec ific
ĠA uthor
Ġsim ulations
late st
Ġz one
FLA G
Ġs ending
BA SE
ĠSt reet
ĠB ro
Ġquick ly
OR K
ĠLe g
Ġe ffic
list ener
agnost ic
Sh arp
rypt o
Z ero
Ġorgan ization
Ġc lu
rid ay
D P
ur a
local e
an ch
con cat
Ġen h
in y
Ġcoefficient s
SP ACE
Ġintegr al
D ynamic
b ench
Ġcy cle
== =
ren ch
j oint
Ġad opt
st eps
Ġconst ants
land s
con current
Ġg ap
clu ding
il ib
R T
Ġj ud
Ġin herit
b inary
C annot
ĠDo uble
FORM AT
Det ector
ist ics
ct ree
ĠSer ial
no frame
ĠN et
ĠC loud
Ġsub set
be ans
a ui
Ġdec ay
serv let
ph ase
ra d
() ">
d ynamic
ren ce
ĠM or
ĠMore over
ref resh
ivers al
ĠP M
Con tract
çĶ ¨
Ġshow ed
am i
p od
D id
Ġcomput ation
Ġlo gin
cl s
ph y
C amera
ĠB E
Ġh ighest
po ses
Ġwon der
Ġf ib
Ġ# {
Ġe lection
L IN
Ġin ternational
Ġmod ern
m f
vent ory
ĠS H
\ )
Ġcoordin ate
BO OL
Ġj oint
Code c
ut s
Ġexplicit ly
Ġmat rices
ĠRe view
cho ols
1 10
ĠF ix
reed om
re c
_{ -
Ġw oman
Ġl iving
Wh ere
Ġ layers
it ation
b undle
ĠAdd ress
Ġi get
m iddle
is c
Ġpar allel
greg ation
vi sed
D em
h istory
Ġp iece
os ing
gener al
Ġdo ub
annot ations
Ġcell padding
Ġmay be
Ù ħ
Ġt f
ĠS end
Ġgener ator
Ġde tected
ĠW illi
M ay
Ġqu eries
Ġv ict
ĠCom mon
Ġdist inct
amo unt
æ ĺ
Ġadv ant
Ġrelation s
ĠL in
par agraph
Ġcell spacing
Ġ" ${
con nected
pro c
ĠÐ ¸
fl ush
re gex
Ġmeasure ment
RE D
Ġdr ive
STR U
Ġex hib
Bit map
Ġ+ \
Ġsaf ety
Ġincrease s
M achine
Ġamp lit
S em
a co
de t
=" {{
Ġadd r
Ġ' -
ĠP lay
ĠAustral ia
Ġb inding
V O
i ar
Ġla ck
ni ques
N R
ĠSe curity
Ġb re
In tent
Ġw rapper
Ġbe came
Ġp ipeline
Ġst ation
TR AN
Or igin
inte gr
C UR
Ġpert urb
ate st
time line
s core
m en
ol ar
D iff
wik i
Ġr ing
Ġany one
al g
Ġro ad
se udo
op am
M utable
ĠImm utable
pa gination
Ġannoun ced
P M
Ġv ectors
sp in
Ġwas n
ĠT witter
max cdn
in ject
Ġdis patch
pend ing
Ġmo ved
Ġqu ad
EN TRY
Ġs uc
um ing
Ġclear ly
: -
ordin ate
c raft
Fe atures
G it
Ġposition s
U ES
Ġmechan ism
Ġd ot
e b
Ġl atter
tr ansport
e ven
Ġar riv
Ġte ach
S pr
per cent
sp here
ist ers
Ġmention ed
M ov
Ġan chor
rupt ed
55 5
Ġevalu ate
Ġto kens
Un der
Ġsp atial
Ġdocument s
Ġhim self
Ġ à¤
Ġparticular ly
local host
vert ex
Cre ated
ADD ING
me an
w ill
und ay
ĠD et
Ġme tal
Menu Item
ĠC A
HO UT
up dated
md c
Ġ======= =
h ow
Re ceived
Ġcommun ication
As sembly
al gorithm
UR N
) ^{\
ĠC he
Ġdepend ing
Ġor bit
Ġstudi ed
Ġgiv ing
ct u
Ġinflu ence
T l
Ġdistrib utions
ĠF ALSE
v ille
Ġth er
t imer
âĢĿ .
ell ing
Ġrepresent ed
de fer
red irect
i pher
OT TOM
Ġsur vey
Form atter
ven ue
fore ach
Ġc lock
= &
no logies
k g
Ġwork ed
Ġ il
ĠW ed
ĠD own
Ġa mb
ĠM al
trans late
Ðµ ÑĤ
ĠAn ge
mat ches
Ġv ary
Pri ority
li k
Ġo dd
F ace
g oog
p ixel
aa aa
SP AC
B est
Ġre direct
]( #
text ure
Ġre c
Ġj ump
e th
in x
part s
Ġdr ug
uff ix
ĠN ext
ir ation
Work er
fa iled
ĠIn valid
fe atures
ec lipse
pop up
ĠS cal
Ġstud ent
Ġg oto
Ġparent s
unk nown
\! \!
Ġis instance
] }
Ġsh ip
ĠY ear
ĠEng ine
ent al
? ?
P REF
ie ves
ilit ary
OL D
iss ue
bind ing
ĠWh ite
**************************************************************** ********
ud it
ĠB u
Ġe ase
Ġp ub
Ġb io
second ary
ra b
h om
################ ################
ul p
Ġeduc ation
Look up
" ])
Match er
V ec
ĠPro p
Ġ/* !<
E mit
Ġ rap
Own Property
Ġexplan ation
Ġbook s
Ġde leted
ill er
Ġaltern ative
String Builder
Ġappro aches
as i
ma ss
re ason
s quare
F il
or a
Comp ar
P ush
Ġturn ed
Ġignore d
qu ant
Ġunderstand ing
Ġcandid ate
Ġexist ence
ĠG raph
! "
Ġcomb ined
è ®
Ġcapt ure
"/ ></
app le
Ġgra dient
process or
Tr igger
}$ -
Ġc m
ad v
sub Nav
ĠT OP
ĠS y
Ġstr ateg
aw esome
m ma
P ane
ĠE RR
ĠEurope an
ir al
Que st
Ġelect ric
id en
ĠP al
Ġcomp liance
te am
] ->
Ġag ree
end point
Ġf oo
Ġto wn
â Ķ
ĠH as
Run ning
contin ue
over ride
r int
× Ļ
Ġde legate
Ġco uple
attr s
Bu f
Ġopportun ity
d ocker
} &
Ġv acc
ĠPa ul
p ublish
Change s
Ġpixel s
cook ie
ĠB ORDER
St at
Ġso ft
) ^{-
C ulture
per p
Ġequ ip
ust ain
Ġcorrect ly
pre pare
int ro
Rel ation
Ġs ong
ĠGener ated
c ross
Ġc ulture
ĠCur rent
Ġsay ing
not ification
pay load
mer cial
Ġsur v
Ġph oto
ĠCon vert
Ġpur ch
istog ram
Î ½
cp u
ĠB Y
ĠL ab
Ġp lus
AR G
ixt ures
tool bar
medi um
Ġt un
ig ate
Ġsc ient
sess ment
ĠP ublished
Ġass ist
Ġestim ates
Ġ' @
Ġb log
Ġnear ly
Ġassume d
Ġassign ed
Ġreason s
Pre vious
Ġp ending
Ð¾Ð »
> {
M obile
,\ ,
Ġoccur red
re duce
Ġproper ly
at ibility
ĠT ABLE
ID E
ĠR ob
De v
ĠCh ild
Ġvari ety
h ook
Ġen code
PAR AM
sur face
Ġf an
os h
C SS
ue ss
E st
Ġ$ -
s hell
Ġpa int
ĠCal ifornia
Text View
____ ____
c lip
Sup press
var s
od o
Ġch ance
Ġshe ll
net es
Ġtext ure
Dis k
\| _{
ub ble
> [
Ġra ce
ro te
Ġcon ven
tom ic
Mod ifier
æ Ī
uber netes
fa ster
Ġhand ling
ab stract
Ġs ites
}^ *
F ixture
project s
set Text
man ifest
Ġst yles
ext ensions
Ġhel per
Ġw ind
View Controller
if old
Ï ĥ
ĠJ ob
W ill
Ġca used
og ene
Ġh ide
Pri mary
ĠCon sole
im ize
Model s
` )
EN CE
fe ss
D M
Ġden otes
S elf
G RO
Ù Ħ
Ġcon sequence
Ġst uff
Component s
Ġoptim ization
decla re
ash ington
to ctree
Ġtr uth
ĠB ay
Vis ual
] ['
) {\
ĠN E
Ġmed ical
Ġimp lied
Ġh our
ST ART
Sup er
Ġinter actions
ĠP erson
T yp
'] .
ĠP HP
="@ +
" ?>
ĠDe bug
Ġ&= &
Ġ} ).
ĠRes pon
it ivity
Ġimp licit
Ġse ctions
Ġinit i
Ġ' ,
Ġlog ic
AP P
AR RAY
RE SS
Ġestab lished
it a
c n
al i
ĠCan ada
Base d
Ch unk
Ġbe gan
ĠSt andard
Ġmo lec
Ġhapp ens
ĠCol umn
Ġinterest ed
Ġout er
(" .
Ġsm art
} "/>
value Of
D Y
col on
SPAC ING
B ridge
Ġc ult
on a
Ġform al
Ġdecla re
ĠSh ould
F P
ĠR ich
ĠT YPE
requ ency
ymp tot
Ġdise ase
ĠM art
ament al
="../ _
qu is
Ġcre ates
an alysis
Ġweight s
Ġlimit ations
$ $\
p in
ig er
/ )
0000 000
B ACK
In jection
frame s
Ġep isode
Al ert
__ .
SS AGE
Mod ified
ĠCour t
` :
ĠÐ º
D ict
aw n
om as
p res
di ctions
ĠĠ čĊ
Ġspe ak
C trl
k m
App Compat
Ġro ll
Ġal pha
DI S
Ġslight ly
Ġc ls
H z
get Attribute
Lin q
Ġpro grams
ĠDes ign
ĠL ast
Ġin te
p ared
art esian
s z
? âĢĿ
and er
ov a
P ipeline
m x
ĠM AX
sc ill
Cal endar
DE D
pi pe
u ce
c line
Ġp icture
N ONE
c x
ĠCEL L
ĠF ilter
IT LE
ĠDate Time
ĠS un
Ġob serve
a int
Ġs ender
ul y
Ġme eting
exec ution
Ġpart ners
B reak
Ġpre diction
vari ance
ĠG aussian
B l
ĠSer ies
$ ).
') ->
Ġthrow n
Ġevalu ation
F etch
AR CH
ĠĠĠĠĠĠĠĠĠĠĠĠĠĠĠĠĠĠĠĠĠĠĠĠĠĠĠĠĠĠĠĠ ĠĠĠĠĠĠ
}} ^
Ġc elebr
ck er
ĠOr der
Ġtyp ically
B ER
ĠO P
Ġlimit s
Ġser ious
{ $\
Ġto ur
depend encies
Ġ< ?
Ġwork ers
ad apter
Label s
Pol y
mult ip
P ower
ĠMod al
Ġp en
Fact or
Pr ice
se y
ĠL anguage
ĠApp end
Ġcustom er
ar ma
Ġclient s
ĠAd min
db c
ouse l
Ġmaterial s
Ġfind ing
Ali as
P ress
ĠCo uncil
Pop up
Ġcur ves
Ġfunction al
Ġclass ification
Ġout come
N ON
âĢ ĺ
if ul
Act iv
Ġin j
ca pt
Ġc lip
t ile
ime d
use um
P red
al gebra
Me tric
Ġin finite
Ġg it
)\ \
ĠĠĠĠĠĠĠĠĠĠĠĠĠĠĠĠĠĠĠĠĠĠĠĠĠĠĠĠĠĠĠĠ ĠĠĠĠĠĠĠĠĠĠĠĠĠĠĠĠĠĠĠ
g p
.~ (\
d td
O FF
ĠR ad
Ġscen ario
Ġd u
Ġform ation
Ġach ieve
Ġfin ish
~ $\
ĠA M
re mark
Ġac comp
ĠM ost
v in
Ġactiv ities
; %
Ġsome times
CE PT
cur sive
ĠÐ ´
p riv
Ġtech niques
Ġst ories
H ave
h ard
S he
ph ere
Ġnot ation
ĠHash Map
> ../
dis k
Ġse ctor
In dic
draw able
AR GET
cul ate
und red
Ġmin imal
)} {\
ĠNS String
ĠC lear
Trans lation
Ġsatisf y
v it
lement ed
P ut
Ġcap ital
B ad
Ġw ish
Ġpackage s
po i
Ġsing ular
ĠâĢ ¦
MP L
pear ance
Ġb ank
b or
N ECT
g lob
script s
S core
Ġpar a
ĠG en
Le g
ĠH istory
st on
Ġch anging
Ġdefault s
LP ADDING
package s
ĠF ore
Ġcon cent
Ġcon clude
sl ider
W rap
ĠJ ames
( `
Ġdifference s
Ġn s
clo sed
Ġmo unt
Sup p
Dist ance
icip ant
ide os
ab it
ĠM ov
STRU CT
S UB
Ġh um
Con tain
R C
Ġco ol
Ġintegr ation
ĠCEL LPADDING
ĠR ender
ĠCELL SPACING
INS ERT
t ik
s ime
faster xml
* >(
cc cc
ĠT ree
ĠCom mit
Y our
de mo
Enumer able
ce eded
ĠWIT HOUT
Ġ= \
Ġw ild
ĠUn der
7 00
REQ UEST
Gener al
r ink
ĠW hether
Ġre ached
Ġde part
ĠU P
vers ation
Ġg ave
troll ers
Ġconf lict
ĠMich ael
ĠÂ £
ĠE duc
se gment
ition s
sub string
text sc
st ub
Ġplace s
ĠB en
fact or
Ġcould n
de sign
h d
Ġdi ctionary
ĠApp le
Oper and
source s
Ġnot ification
ĠDe velopment
u zz
ĠIllegal ArgumentException
Ġpl ans
Ġs on
man agement
Ġ ut
Ġup load
tin y
ĠPr int
n c
Ġche m
Ġcheck s
ĠB O
Ġcar ry
ĠEn tity
> .</
Ġm s
Open Tl
st mt
ident ity
)\ ,
Ġanal og
Ġprec ision
Th us
Ġjob s
de scriptor
ord ers
Ġw ants
sime q
ĠN on
IN IT
40 4
i en
OB JECT
Ġman aged
look up
set ting
I p
er v
ab ric
back s
Ġyield s
br aries
Ġ ens
Scal ar
Ġdisplay ed
Qu ant
Ġ$ ('#
Ġrespons ible
ch at
ĠG r
ĠC ase
Ġcustom ers
Ġcour t
ĠTR UE
I ME
ĠĠĠĠ čĊ
D ry
Const raints
50 9
t v
Ġ" )
ĠT wo
W ARE
G A
B lue
ĉĉĉĉĉĉĉĉ ĉĉĉ
Ġ" ;
Ġcost s
i per
ĠP ower
Ġfilter s
Ġestab lish
Se cret
de scribe
part y
filter s
the ad
SU CCESS
task s
mut ex
Ġs ymp
F ollow
es cape
vi ation
Ġwait ing
cy c
Mon itor
ĠN or
IE W
ĠUn it
Check ed
Ġ" #
RE T
Sc ene
bound s
scri ptions
An im
Vis itor
Ġext ensions
Ġneighb or
Ġbr and
h ol
Ġfe ed
} )$.
... )
Ġpan demic
it ely
' },
igh ter
n ail
æķ °
D ITION
Ġan notation
: &
ĠâĢ ¢
a ult
ĠW HERE
arg v
ĠB est
ĠD im
- ">
../../ ../
D at
File Path
ĠP ress
AA AA
Set up
ĠMethod s
Ġh uge
elastic search
Ġa w
Ġrot ate
Ġind ent
peri od
Ġcare er
Ġpattern s
Ġown ers
FA IL
at tach
ĠC HE
. ;
Ġd t
Ġ-- -
x sd
F amily
P ending
Ġcan vas
Ġen crypt
Ġsymme tric
Ù Ī
Z oom
M esh
Ù ĩ
Ġcon version
Track er
The y
Ġexec uted
An chor
ĠN av
Ġv oice
ĠK IND
ident s
sche mas
Struct ure
! (
Ġst ock
Ġ" _
Ġ. =
Ġcontrol s
Ġ} ),
new command
Class Name
Ġhe avy
Ġdiag ram
E P
Ġend if
Ġj av
resent ation
D one
EX PORT
te ch
Ġcomplex ity
aw t
ĠM usic
act or
l r
se parator
Ġor d
vers ions
sk i
w est
ik i
Ġt uple
Ġrecomm end
In struction
' (
ĠF riday
F ix
p n
te le
st ri
Has Been
E LEMENT
to c
ĠAr g
Ġt ren
ĠAct ive
ĠT oken
pro duction
g overnor
Ġsupp lied
F N
F atal
ĠBrit ish
po ch
inter pre
ĠW il
in ity
Ġex cit
ĠAfric a
y er
}} ^{
me trics
Data Source
s With
road cast
Se parator
TH ER
Ġfamil ies
ĠJo urnal
illi seconds
Ġp atch
man n
Ġre verse
Ġ{ $
y an
temp t
ss ue
ash ion
$ ^{-
Ġiter ation
ĠG ood
M ix
ĠS pr
Ġopen ing
Ġmark ed
al d
map sto
pm atrix
aj or
Lo aded
Ġcol labor
Array s
ret ch
ĠW ill
s uch
Ġjo urnal
ĠS ec
Ġst ellar
Ġexpress ions
ĠSt ar
Graph ics
ĠOff ice
Ġv ote
Al pha
G N
Ġtradition al
Ġb an
er ed
S ide
Ġn a
Ġt s
ĠS yn
* ,
X Y
Ġre duction
ĠR O
Ġconver gence
S rc
l ant
b ro
v g
ra ise
} ))
de legate
Ġg over
WR ITE
erm al
pos al
air s
Ġcon sumer
de veloper
Ġlist ed
Ġsyn tax
CO UNT
ĠP UBLIC
Lower Case
ĠE very
Å ¡
Access or
op acity
Ġcomplet ion
ab il
erspect ive
Ġes cape
O k
Ġst atistics
Ġcopy right
Ġman ufact
came l
ri ent
Ġcontrib utions
pr ice
Valid ate
CO M
up per
az ure
dist ance
$ ;
Ġpri me
Ġh op
st rict
Ġpro jection
atist ical
ĠS SL
le e
ĠInitial ize
P adding
y r
Ġte ams
clus ions
no script
Ġecon omic
Ġ å
Dest roy
: =
Des cribe
o logical
p ic
respon sive
ĠP op
Se q
Ġdepend ence
Ġf em
Ġen cour
Ġsub sequ
os ity
Ġw rote
z oom
Ġpo or
T ensor
Ġc lin
Ex it
Ñ Ĩ
od ot
ĠFinal ly
Read y
av el
-------------------------------- ----------------
' =>
ol f
fav icon
Ġchallen ge
over flow
MA GE
Ġco s
Ġex pr
g ate
and o
T ry
Ġattr s
co untry
ops is
ent y
Ġmass ive
RO OT
Ġp la
LA B
sh a
sh op
im a
Ġliter ature
ĠE mp
Ġac celer
initial ize
s amples
ĠRem arks
ĠA lex
Ø ª
T X
Part y
Ġcalcul ation
lement s
Ġt ick
ĠD CHECK
ĠS ty
Ġspect ra
Second s
ern ate
in em
h base
T ip
Ġp in
ent ries
! =
HasBeen Set
Ġs qu
an i
ap ers
ĠS V
5 12
shall er
e lect
Ġw rap
Ġwork er
z h
199 8
Ġin strument
)$ -
U UID
FLA GS
Un ique
row Color
L ike
Ġe c
ĠM ember
æ Ĺ
Ġa udi
Ġide al
ĠE ven
Ġph en
SER VER
LE S
Block s
ub ic
Ġf ans
Ġde grees
C ertificate
Ġsub mit
Ġ" );
Ġloc ations
Pay load
ab y
ĠS ocial
ur er
Test ing
Can vas
ĠDe vice
Ġse ed
Comp arison
Ï ģ
met ic
let s
ME M
ist ency
Ġretr ieve
ys ics
Set s
ĠH y
ĠB OTTOM
ĠT arget
W I
parent Node
Ġtable s
}} $,
ĠCHE CK
Ġc ri
: %
Ġsp ot
st ic
ĠA ut
Ġbro ught
Ġv ac
atur day
Ġdefin es
n it
" }
x l
scri ber
ĠUS A
ĠString Builder
i ation
Ġg lob
ĠB el
ĠCh annel
Java Script
Ġremo ves
A zure
ĠAc count
T y
The orem
ĠT ry
L ines
Des ign
t one
Ġplace d
dir name
ĠF ran
Ġobserv ation
por ate
Ġcl ub
Ġtarget s
Ġindic ating
ĠS unday
Ġb rief
Ġsp irit
sub scribe
Ġmo ther
Rad ius
u er
Ġconsider ing
Q t
ig ator
cs v
and box
reg istry
A MP
ues day
AS H
vis it
Ġsol ve
C ity
IN DEX
render er
set Attribute
rib uted
u v
K e
Ġde cor
ĠB r
Ġtyp ical
Rout er
too th
Ġlist ing
ĠAt tribute
ri um
Ġopt ical
mod ifier
Ġstate ments
ĠIn it
atic s
TE GER
out er
Ġcode s
ĠExp ression
et c
Ġf ather
âĶ Ģ
st age
amp ion
Serial ization
fra structure
() [
ĠL icensed
To ols
append Child
D en
app ings
M ail
ĠS ize
Ġstrong ly
Ġexp ressed
ĠIN TO
Str ip
Ġdepend ency
S UP
Ġconstruct ed
ine se
G ateway
s ent
ugh ter
lic a
ĠT ex
E valu
Ġequ als
first row
Ġrel atively
B us
ç »
Ġsort ed
=- =-
pro position
Ġf irm
ME SSAGE
] ).
Ġen coded
M argin
Ġon click
j ac
St ud
Ġ// -->
Up dated
me tric
" </
ĠL I
Ġs lice
Ġdirect or
Ġde t
Ġscal ing
Status Code
Per cent
at ile
Stack Trace
Ġal one
N I
K ernel
Ġn ation
Ġinterpre t
}} $.
Ġpro te
Ġbroad cast
over lay
rit ory
b urg
p ipeline
'] ))
ĠS af
Pri mitive
ĠOther wise
member NameLink
ĠRe al
cour se
W in
stand ing
ĠF il
riter ion
l ive
Capt ure
cri min
Ġindividual s
Ġp p
Ġs impl
la ve
Ġcol ors
the tic
to Equal
e valu
Ġaccept ed
In f
hel lo
Ġgover ning
S afe
en ed
ĠPro duct
D ao
ĠA T
Ġregard ing
Rel ative
Ġfe edback
Ġ* ,
Ġm us
en vironment
L ite
Ġfore ign
n able
He ad
FFFF FF
Top ic
ĠG iven
ound s
ĠT om
Final ly
ĠHamilton ian
S yn
Ġro uter
He alth
Con tin
it z
oun ded
pre view
back end
B lob
Ġhyp ot
fe ed
é Ģ
Ġco verage
ĠC ache
ĠM A
config ure
Ġpay ment
ut ors
Ġpur poses
ĠIn ternal
di ag
care t
ec ycle
Ġarch itecture
ĠO ptions
rit ical
ate ver
? </
urn ey
Ġto String
AB ILITY
Ġth ick
char acter
Ġs lot
N umer
N a
Ġlook up
Ġe yes
NG TH
An notations
C a
Ġb ias
ĠSe cond
Ġs napshot
Ġser ve
ur st
se cret
Ġd om
U int
Ġm orph
ĠTe am
Ġla ws
Over lay
Ġ ĉ
ĠIm Gui
n ight
ĠRe lease
Ġ' $
ĠP si
Comp are
tik z
g ui
e per
Ġb right
ne ut
s ender
S lot
âĢ ¢
[ <
e h
ymme tric
ist ed
the mes
f uture
ĠSto re
f iler
Ġdefinition s
S cheme
Ġpe er
Ġtra ffic
if ference
ĠCon nection
S PE
ĠReg ion
Ġhe at
condition s
Back up
Ġ/ ><
Ġus ual
Cook ie
B LOCK
ĠM P
ress ions
Ġd x
Or iginal
hash Code
H AND
] ),
r ich
Ġre call
ex cept
Ġhe ar
s ocial
Conf irm
non atomic
gener ic
Ġle ader
Ġd ire
ĠD I
d n
List eners
al a
ĠCON FIG
Ġd raft
Align ment
ĠJava Script
ĠS pe
d ataset
ge ometry
ĠEn ter
Ġopen ed
Ġp ain
M illis
Ġclu sters
Ġgraph s
Ġc ategories
ĠEng land
ĠT or
iz ers
En tries
ĠI L
( []
D imension
Ġ" +
==== =
Ġdifferent ial
Path s
ĠT imes
Ġe ight
Ġide as
onal d
com b
ĠComp any
Ġb all
is er
Sur face
Sub scription
Error Code
s at
Ġconfig ure
la w
ĠSpec ial
ĠA rm
Ġ[ \
path s
nes day
Ġeffic iency
in herited
100 00
Ġhe ard
A I
Oper ations
ĠG rid
ĠMon day
ĉĉĉĉĉĉ Ċ
FUN CTION
Ġ ../
V C
Ġexp lain
Ġd atasets
if rame
\ {\
Ġr hs
pack et
flu id
S uite
Co uld
ol id
ar ia
ĠB ecause
ow ers
Ġa st
; ]
Ġ" ./
In ject
Ġin nov
Ġun ion
ff ee
Ġf elt
Hel lo
Ġar m
semb le
to LowerCase
J ust
re ci
:: $
Co untry
se ll
Ġmov ement
****** /
Ref lection
Ġb old
At trib
Ġin verse
mark er
> ()</
ĠF our
ĠC amp
me asure
Ex tract
ĠS M
Ġconfig ured
ump y
Dest ination
Ġlocal e
ext ype
ilib rium
Ref resh
Ġbo ot
Ġenter ed
stream ing
Ġaccur ate
Ġs ales
Pay ment
Ġr m
D im
quest ion
Ġauth entication
Ġde b
est ival
Pe er
C N
s u
we ak
Back end
ĉĉ čĊ
ĠW ashington
spe ed
Ġh undred
Re gex
ref lect
log ic
ĠLib rary
ĠBo ard
vid ers
Ġsatisf ied
Ġw all
In clude
Ġd ual
="# "
Ġri se
$ ~
ser vers
Ġallow ing
Ġhand s
ites pace
as set
Ġhappen ed
Ġgrow ing
ĠM a
ĠJ er
n l
ra ms
) *
W arnings
ĠO ffic
F ill
Ġin tr
Q ual
Ġ' ')
Ġs en
Ġtest ed
Ñ ħ
ext ract
T ex
Ġrap id
at om
Intro duction
urs day
Ġpy thon
Ġrob ust
Ar r
Ġpol icies
^{ +
Ġtre ated
Ġexp anded
/ (
Ġthan k
Pro b
B ro
Ġcover ed
ĠA WS
Ġp riv
Ġs un
ĠD atabase
Ġke pt
3 60
ast ic
ĠIn d
Ġdec ided
default s
Ġcook ie
C redentials
Ġpass ing
dest ination
Ġ/ ></
Ġpl ant
_ [
Ġlook ed
Ġadvant age
sched ule
) +\
Ġc redit
ct rl
ra c
ie ces
ĠS ta
Ġm ath
sp ark
Block ly
ĠP ay
per mission
pt o
ĠTech nology
ĠEn vironment
Vis ibility
In tegr
Ġth ous
ateg or
R L
re y
ines ses
state ment
ind ices
Ġin deed
A U
W ORK
Ġturn s
ĠSum mary
Ġen counter
Ġf reedom
se p
Ġeas ier
Sty les
ĠĠĠĠĠĠĠĠĠĠĠĠĠĠĠĠĠĠĠĠĠĠĠĠĠĠĠĠĠĠĠĠ ĠĠĠĠĠĠĠĠĠ
ĠVer ify
process ing
Ġr c
Ġyour self
Write Line
Ġb illion
Ġmat ched
A lt
M F
ĠRo ad
ĠParameter s
Mer ge
Ġresol ved
Ġop in
com ments
/ '
Ð¾Ð ´
Ġcy c
us age
n pm
Ġadd s
Ġas ymptot
OR S
Ġcalcul ations
Ġaff ected
Ġor ders
st ud
I ES
FR AME
Ġo scill
Spe ed
Un iform
Ġd s
Ġ"- //
Ġt imer
Ġoutput s
Ġse ven
cept or
t re
Ġde ploy
b el
ud a
at ype
brid ge
Ġh ole
P G
PL ICATION
lo s
Ġsh ot
he x
ad ded
vai lability
Ð¸ ÑĤ
atter y
ari os
ĠL ear
ĠI F
? (
Ġs leep
C irc
ĠB lue
ĠĠĠĠĠĠĠĠĠĠĠĠĠĠĠĠĠĠĠĠĠĠĠĠĠĠĠĠĠĠĠĠ ĠĠĠĠĠĠĠĠ
S ig
Ġdate time
Ġframe s
R ob
f ollow
st or
Ġn ested
S heet
S F
Mod al
J s
Ġbene fit
Ġe th
ar ded
Ġc riteria
ap ps
De fined
Ġlist s
Ġreceiv ing
Conn ector
display style
Ġra ised
Ġ[ {
Ġc ss
FT WARE
Ġ ion
Ġmagn itude
S ent
umpt ions
M ag
R IGHT
Sh adow
hes is
Ġtra ined
Ġpass phrase
Ġb as
ĠC a
b as
i la
is o
Ġsamp ling
mb ed
Ġhy dro
} )$,
mac ro
Ġ. /
Ġk new
Ġne g
H y
ĠW ell
ĠD etail
CD ATA
ĠĠĠĠĠĠĠĠ čĊ
Ġmark er
f un
li des
. ")
ĠG overnment
code s
MA SK
ĠĠĠĠĠ Ċ
' ):
xy gen
ĠVAL UES
ch er
Ġreg ime
ĠR ow
re ens
ĠAl though
Ï Ģ
19 2
Ġref resh
Dis abled
gan ization
pro t
) }}
ph en
LI ENT
c ref
ĠEduc ation
H C
i ro
g able
) -\
! \
Ġh orizontal
Ð¾ ÑĢ
Ġas set
Ġat tached
Ġcop ies
Ġf aster
block s
d m
Ġcon vention
Ġin ser
l ings
ĠW rit
; ,
p le
l b
Ġres on
Ġab sor
ĠU sed
r x
ĠD A
å ľ
row se
ith metic
Ġre peated
Ġare n
De coder
r v
{ },
end region
tra in
CH AN
fess or
ĠB AS
ĠDem ocr
] <
Ġf ol
ip age
DO CK
ens us
TO OL
Ġproces sed
Ġ( `
Ġ æ
Ġm asses
] *
ĠM iss
Sub ject
.... ....
ip edia
/ #
Ġocc up
å Ń
U Int
Key word
c py
: }
Function s
00 2
mer ce
Ġcomp osition
Ġ(! (
âĢĿ ,
Ġmedi um
Ġim m
) }_{
run ning
text area
ĠPh il
ĠR ights
less sim
Ġpro ved
br anch
Ġapp lying
Ġnormal ized
Ġquad r
D ump
Re try
| _{
Ġsu itable
od d
Ġint ent
remove Class
F IL
place ment
Meta Data
on ed
p ur
Ġhel ps
F oo
Ġcon j
Ġman ifest
ĠInter face
it iz
ĠAd ded
Ġgalax y
XX XX
min ipage
Ġcomp ile
ĠS W
An aly
10 2
// ----------------------------------------------------------------
ĠM IT
we ek
Ġinitial ized
ĠG old
ĉĉ Ġ
Ġfund amental
P ASS
l ator
Ġ ing
M IT
Ġpower ful
ut ine
if ts
C MD
File System
ĠL ook
Gener ate
Ġin duced
Al gorithm
Ġs che
ane ous
Ġth reat
ĠG it
ĠUn less
Ġde precated
short cut
//////////////////////////////// ////////////////////////////////
Pro of
Ph oto
S lice
ss aging
ĠF act
ul ing
. ');
or row
Ġc as
erc ise
z ed
ĠT EST
Ġrel ig
; -
Ġc at
P ub
Ġsh op
Ġint ended
eli hood
Ġpre pare
ĠDirect or
ss ible
ĠZ e
F ake
ĠH ot
ip pet
ĠSm ith
Ġspre ad
Ġc ertificate
Ġuncertaint y
T ick
Ġr s
Ge o
P icker
@ {
Ġat tract
help ers
U V
Ġbel ong
Ġbehavi our
Ġf light
size of
co st
11 1
order ed
ĠPro perties
in ations
Ġsub scription
="# ">
V ote
Ġre v
Ġorder ed
He ap
C lean
cr umb
ig ital
In line
Comp letion
Ġs chools
Ġs in
h bar
Ġf o
AUT H
G iven
Ġn ice
Ġfor ces
Ġmaj ority
> )</
ĠCre ated
Ġad vert
l iteral
Ġcla ims
\ ":
place holder
ĠB ank
pri ority
control s
hav i
ch rome
ĠCh rome
è ¡
ce eds
sp i
lav or
ĠAss ociation
Ġc ert
ĠRe quired
ogene ous
li e
S n
Equal To
Ġ( );
M AN
est er
Ġd aily
Ġach ieved
00 5
Ġrep ly
co ped
as m
or ange
St mt
Ġsequence s
t bl
: /
---- ---
With out
re h
s ame
Ġlink ed
Ġfil led
ĠM atrix
ellig ence
Ġb la
add EventListener
Ġla un
l ar
Ġcent ury
Ġreceiv er
B I
Ġmor ning
+ (
Ġfoc used
ĠS ing
App ly
Ġoper ating
Ġsum mar
c is
writ ten
Ġsecond ary
% )
Re ceive
Ġnot ify
Ġca ref
Pro totype
ĠR PC
Trans fer
Ġposs ibly
ĠD en
ma y
Ġtri ed
vis ibility
? "
ĠS ET
SD K
Ġconvert ed
Ġre try
post s
ĠRe present
b re
Ġre tain
has OwnProperty
Ġm ilitary
con t
Ġb lood
ĠF rench
sub scription
DE C
valid ator
Y es
Up per
ĠM ET
bal ena
> /
Request s
Ġto ward
Ġsh oot
ĠDis play
En coder
o on
os is
ĠA D
x e
ĠM atch
Ġl l
ĠEar th
Ġsh ock
Ġbe am
decor ation
Ġs an
fin ity
Ġapprox imately
ffff ff
$ ),
inc iple
ne gative
Ġb g
PRO C
sc ene
Ġr at
+ "
en ance
<? >
Ġdo or
allow ed
Ġmost ly
Ġrecomm ended
Ġ" [
et ime
Ġa head
Ġacc um
c amera
ĠF uture
x ref
ĠCon struct
Ġpro ceed
ke ep
Ġre po
Ġco ins
ret val
ilar ly
Ġcan onical
U sed
Ġcook ies
th ere
Ġscatter ing
work er
Ġc fg
p d
m icrosoft
t uple
mo v
Any Ref
h u
me ter
T ITLE
St age
Allow ed
ĠZ end
"> &#
od ies
Ġdesp ite
Ġ' </
Re q
ĠImp ort
iv eness
ĠSe ssion
ct ors
Ġre gex
comp iled
Ġlearn ed
F ROM
Ġcommun ities
MS G
Ġper haps
Author ization
ĠG ET
Ap is
gr pc
Ġk wargs
ĠB asic
cy cle
ex ist
Ġcor onavirus
Ġe ye
ĠS P
Ġobject ive
ĠWe ek
h w
Ġeffort s
LE NGTH
V IEW
ru it
Ġol der
Table s
button s
Ġcor ner
Ġexpla ined
ur t
oot strap
or acle
B T
Ġst ub
prec ision
LE V
Ġlocal ly
ĠPe ople
F rag
Ġp i
name d
al ing
L R
enc ing
Ġ ener
> ');
est ing
ch arge
×Ļ ×
13 0
ĠS ymfony
ĠL at
Ġ utils
Ġimpro ved
input s
N ested
L com
Ġw ire
Ġth ermal
User name
ĠCON DITION
Ġra re
Ġf loor
Ġnuc le
ĠP ass
ma j
m ust
Ġdescri bes
af ka
lic ated
Ġquant ity
Ġcho ices
O ld
------------ -
D ataset
Part icipant
There fore
ĠL abel
Ġinter view
l ife
Ġdecomp osition
qu o
ro b
D er
v art
Ġx si
Me asure
Ġnot ed
Ġtra ject
Ġend s
ĠEd itor
Ġse mi
Res pon
ĠF ull
ĠWh y
Ġv ec
ĠRe p
ĠI T
Ġsynchron ized
D on
GRO UP
ĠD iv
ĠK en
n an
}( {\
st derr
Ġde m
Y S
Ġr ich
ĠCh urch
Ġc redentials
Ġis ol
To ggle
Ġb ulk
">( </
ĠS am
Ġveh icle
ĠV ideo
}{ |
Ġtechn ique
Ġc limate
th rough
Indic ator
Rep ly
Var iant
ĠAl low
ĠCon structor
w ater
In s
Draw able
P at
] =
Ġharmon y
Are Equal
sh iv
Ġc atalog
Ġsymbol s
, </
ĠH all
Sh are
Ġpart ner
d ays
rint f
ĠP et
f riend
Ġamplit ude
Ġprofession al
&= &
PREF IX
c lock
Ġt ile
Ġst ated
ĠS aturday
B D
OPT ION
Ġwh om
Ġtri al
Ġlisten ing
has er
bad ge
Ġsum mer
Ġsupp ly
S ch
ib ling
so ck
ĠT uesday
Ġb lo
: **
Fil ename
v n
Ġre peat
Ġpro portion
Pro c
ater n
ĠU SE
Ġexp lor
Quest ion
an im
Ġg old
Ġt ail
Ġchallen ges
y ou
ĠS al
Te am
... ,
Ġtheore tical
Ġk ids
ĠL os
sol id
it ar
re verse
INST ANCE
Ġh ook
R atio
Ġb irth
Ġsec ure
Ġ" ")
ar se
GEN ER
poly mer
Ġtechn ical
ĠBAS IS
}$ )
vis or
Jo hn
g ies
R GB
w i
ĠM us
1 12
Un able
const raint
inv oke
Wh y
Ġhapp y
B g
un ately
ring tone
s ym
big l
L D
ap y
Ġrespon ses
Ġg overn
> ';
g ency
Ġman age
AC CE
ri e
[ _
} >
Ġde p
Ġgr and
B r
Ġnot es
Ġphen omen
LIN K
Ġbene fits
conf irm
ĠJ un
Spec ial
Ñ Ī
Ġapp lies
d ating
od b
ĠE con
viron ments
Part s
W ARNING
Ġinter act
ĠC ong
ĠAn n
Ġconv ex
A ff
Ġma il
ĠL ie
velo pe
ĠFurther more
Ġsh adow
Ġsatisf ying
ĠCONDITION S
Icon Error
) >
b ib
B ra
ĠN ull
Ġw it
k w
ĠIN T
ic ity
V T
ic ations
Reg istration
b one
h box
Ġcan cer
G P
Ġs uffer
LI B
ĠAb out
ĠF oot
ĠForm at
ĠSO FTWARE
HO ST
pre vent
ĠL i
Ġbus inesses
ion e
Ġto t
Ġw at
chart s
utor ial
Ġg uest
Ġp sy
Ġg ather
ane se
ss ions
Ġconf irmed
Com b
NotFound Exception
custom er
Ġc e
Ġevalu ated
External Project
Ġk m
sm art
Ġreturn ing
az y
C ss
>: ]<
ĠÂ »
sp h
Ġre con
AME TER
Ġa cknow
y arn
ĠF lor
Ġcheck ing
Ġst ress
) &
u f
Ġmot iv
ĠIn ternet
H ook
ĠBo th
ĠR ight
Act or
big r
ĠEn able
Ġ$ |\
ĠIn dian
Ġf arm
14 0
k ins
ĠPro v
Ġmin or
Ġscal es
1 16
UP DATE
We ek
H ide
ct l
di ents
Ġimport ance
Ġrest ore
Re c
Ġqu arter
Ġcandid ates
C ross
A dapt
Ġat tach
AP PLICATION
IconError Encoded
MA IN
G UI
LO B
Ġplan et
Ġplan ning
Ġf resh
Ġd ense
Ġvis ibility
m ong
Ġd jango
He ading
Ġpre dictions
g ray
Ġequ ality
Ġsubst ant
Ġbeaut iful
Ġthread s
ent a
o log
' +
qu al
are st
ĠUn ion
ic ing
on to
Mult iple
Time s
ri ctions
ra ined
ĠDi ctionary
ĠP DF
and a
ĠSp ace
ist an
(" -
ĠIn stance
reg ular
ĠTrans itional
Ġg un
ĠQ String
ĠR ock
p referred
Ġre corded
Event Args
ĠP rivate
10 5
Ġin correct
AT URE
Ġ/ .
Ġhash Code
s izing
sh ots
Ġcertain ly
H ex
ĠB io
=" //
is is
Thread ing
ste in
sc reens
ĠCh inese
Mo unt
ĠRespon d
window s
H idden
al ed
Ġsol ar
sk top
DE P
; =
_ -
++ ++
Ġt al
MA KE
Ġm m
Ġarray s
in verse
Ġpa id
PROP ERT
Ġs ustain
Ġre start
part ition
an cing
Ġm k
ot ic
Ġle mma
Ġphys ics
Ġp rivacy
() `
ĠO K
ĠOper ation
let es
Module s
L ow
A CTION
ĠHel p
E r
Ġe vol
] -->
Ä į
BY TE
ĠB rowser
ĠC are
ĠV k
de termin
E lem
em y
Ġab ort
F ire
ĠT ur
read crumb
---- -
Ġcontin ues
Named Cell
Î ·
Ġguaran te
plan e
ĠS yntax
p f
miss ing
String s
ic ed
Ġthink ing
her n
v et
Ġdepend ent
Ġtre es
Å ¾
. &
Ġre mark
Ġp index
Ġme ant
ĠE ner
Ġ lab
Ġre lax
get Text
ĠA UT
ĠWed nesday
variable s
se ed
A K
Over flow
C V
ĠSh ort
Tw ig
ãģ ®
** *
it ors
P ACK
Ġsepar ated
ĠIs ra
Ġrespon d
par sed
ĠF rance
Ġr ational
en o
Image s
p ref
t ick
Ġb udget
ĠW ho
}} )
á »
Ġdis crete
r ather
Ġembed ded
Ġvari ation
Ã ¨
Ġman ner
Ġw est
Ġca uses
mod ified
Des erial
M AC
ĠCom munity
ograph ic
ĠValid ate
ĠP ut
at able
Ġin structions
r ust
Found ation
ot or
Ġme sh
ĠTo ol
Ġthan ks
am ous
ick y
Ġex clude
ind ic
ĠI gn
section s
ĠDe finition
dim en
c ategories
Ġte le
For ward
Cal led
Ġemploy ees
ĠCon tainer
ĠAre a
Ġpredict ed
ĉĉĉĉĉĉĉĉ ĉĉĉĉ
ĠS ymbol
14 4
i Ã³n
if er
Ġevent ually
P ublish
d frac
}{ (
LE D
eng er
bra ce
Ñ İ
ĠF ire
Ġcar ried
ok es
Ġs ensor
ap h
C tx
Ġro ugh
get Key
Ð¾ ÑĤ
Ġcom m
u um
Ġst ability
Ġwhere as
Ġcomp uting
Ġap ps
H orizontal
De cor
ĠSt orage
Fe ed
Ġassign ment
get Property
Comp leted
ĠA li
P l
Ġ' ../
Ġd ust
to kens
el m
tab End
Ġlo s
ĠG al
con g
ĠL im
IT H
New s
Â ©
å ¯
En t
Ġdist ingu
Ġpost s
ĠV K
) })
Ġcontinu ed
Ġart ist
Ġcollect ed
Filter Database
channel s
g c
Ġre cover
$ :
ĠInst all
ĠTex as
F i
Check er
ĠRe tr
Ġflu ctu
> ";
Ġne ural
und les
bit coin
Ġcon ference
Ġ# #
Ġbro ken
ume d
DI RECT
Ġapp arent
date picker
Ap pearance
T ube
ĠEx pect
Ġor ientation
By Name
font s
Ġel im
lo tt
Ġz ip
s lot
Ø§ Ø
Ġre pro
In spect
sh arp
TEXT URE
ĠGener ate
command s
NAME SPACE
ĠE lect
TO DO
Th reshold
Ġpol l
å ¼
Ġre ality
Be havior
ĠF ixed
ĠCon dition
Ġex cell
S IGN
Ġw ife
Ġc p
Ġcontrol led
Ġlisten ers
ĉĉĉĉĉ Ċ
ĠCo unt
. ";
Ġd ump
ĠE m
Ġtrans mission
ib ration
s lf
d atab
ĠS chema
Co ins
Ġconf idence
ĠAn alysis
Ġconfig urations
is Array
sub str
ta ke
AR K
Ġdi ed
ĠW ord
G uid
Ġst atistical
form al
ĠSet tings
Ġw arn
thread s
unit Pattern
ĉ ĠĠĠĠĠĠĠĠĠĠĠĠĠĠĠ
un iform
p al
Ġlo ader
. $$
list s
Ġvar iant
ĠS il
Ġexplo re
DOCK ED
s en
Ġgener ating
au x
Ġir re
ĠN um
Ġrepresent ations
Ġg uess
ĠF und
Ġ' {
Ġest imation
v p
Ġm ur
rep ly
ĠNO TE
out hern
Ġident ical
car ousel
d on
å Ľ
Ġ) {
scri bed
NE W
Ġb lank
Ġdis p
Ġcom mercial
$ &
b io
Ġembed ding
ĠAnge les
th ree
Ġz oom
ĠB ound
LO AT
ãĥ ¼
C ost
Ġden oted
B lack
Ch oice
mult iple
Assign ment
oriz on
Un mar
s leep
An gle
numer ic
Ġbase line
Ġs ociety
Ex cel
ĠA C
AR B
Ġdel ivery
Ġder ive
P TED
S printf
Ġreg istry
as ion
ĠD ATA
] >
t b
imp lementation
local s
em s
z ier
Ġsk ills
G T
y aml
temp lates
ĠCom mission
ĠH ill
O rient
Ġg one
ist ant
Ġinter pol
cred ential
ĠStruct ure
sign al
ĠO UT
Ġreg istration
S cheduler
ĠTh ursday
= .
Instance s
ĠP osition
Ġs l
Ġent ropy
Im mutable
ĠDe v
ÑĢ Ð°Ð
access or
ĠC F
Ġappear ance
DE LETE
First Name
=" <?
For ce
Ġsc r
LEV EL
am in
ĠJ ew
f loor
Ġ ^{
ar ity
Ġ\ (\
ig gs
ĠL and
ĠH E
ins ic
sup p
Ġpro tection
Ġneut r
Ð ¹
Ġk ill
ĠCom mun
Ġcall er
Ġnuc lear
N EL
desc r
Ġde code
ĠOn ce
andid ate
RE NT
R S
ĠL ou
Dispatch er
Ġchem ical
Ġla mbda
199 7
Th an
ĠC D
Ġtr ansp
ĠGe orge
($ _
linked ExternalProject
Ġc c
Ġex pert
ĠB ox
Ġb ot
ä¸ Ń
I BU
K EN
Ġal le
t an
Art ifact
HP P
Ġ um
w x
Input s
ILE D
ĠD raw
Ñ Ħ
Ġh align
Ġro ck
s ap
ĠM ary
empty set
w alk
ĠS ave
St d
Ġf ear
Ġse gments
linkedExternalProject Path
Ġdriv ing
Ġm al
Tag Name
,\ \
Ġstr ug
s id
h ls
li min
Custom er
lu x
S mall
b alance
w ave
or ient
ĠTh row
Ġread s
5 000
Wh ite
field set
Ġcol lapse
ĠA P
Ã ¢
re view
s napshot
E very
L ONG
M LE
ĠS ite
it t
Link ed
NO SCRIPT
rim inal
Ġle aves
(" <
D ot
T ARGET
Ġc row
Ġel li
ĠO THER
Ġmiss ion
Ġb ed
in et
=" ./
ĠS uch
Ġag ents
ĠIs land
mem Item
L C
S ound
table s
] $.
Ch at
\ }$.
sw er
Ġd ream
Last Name
job s
Ġnew ly
Un its
Ġd anger
Ġstore s
Ġattack s
D a
Ã ¥
ron ic
R oom
ell er
================================================================ ========
Ġb al
Te ch
Ġt end
ĠChrist ian
MP TY
Red irect
col ors
ĠTr igger
Ġextreme ly
ĠIP v
Ġpr incipal
Re ceiver
Ġc ivil
c ity
)) $
0 100
C our
ĠTest s
u an
ĠS TR
Ġmy self
ode s
Ġl t
ĠÃ ł
ĠĠĠĠĠĠĠĠĠĠĠĠĠĠĠĠĠĠĠĠĠĠĠĠĠĠĠĠĠĠĠĠ ĠĠĠĠĠĠĠĠĠĠ
Pa int
ir gin
ordin ates
ĠLe vel
w ind
ĠC C
t cp
ENT ER
f all
Ġde dic
Ġb orn
}[ \
ĠR andom
Ġsign als
Ġexception s
ĠF ILE
ĠTh omas
c as
ut ter
ĠH AL
ĠMult i
b est
ĠCl ub
ĠSc ott
ext ends
ĠI ll
Ġhand led
---- --
port folio
df s
A meric
sk y
Ġ" --
Ġplay s
}} _{\
Variable s
co ut
ĠB ad
Ġknow s
ĠMan ager
Ġcons ult
ĠH ost
re ports
Con struct
Ġfor med
T V
W H
la d
Sub mit
Ġass umptions
l on
ĠThe ir
ab et
enc rypt
Ġo il
Ġv oc
Ġinv oked
Ġ(! $
Ġaccount s
u ke
Ġfor ced
Ġl umin
ĠEner gy
m ysql
Re vision
* .
ĠĠĠĠĠĠĠĠĠĠĠĠĠĠĠĠĠĠĠĠĠĠĠĠĠĠĠĠĠĠĠĠ ĠĠĠĠĠĠĠĠĠĠĠĠĠĠĠĠĠĠĠĠĠĠĠ
ĠH uman
ce an
ig ible
ĠS witch
c am
Ġval u
ID ENT
or ientation
() ]
bo ss
ĠTemp late
Ġman ip
ĠF loat
> $
lin ed
C lip
t z
Ġor ig
ĠW in
Ġa dapter
æ ī
reate st
CL U
L ive
periment al
âĶĢ âĶĢ
ra s
Get String
Ġad ult
it ative
Ġecon omy
Pred icate
RO W
v ect
o ma
ant ics
Ġin cor
Ġtalk ing
ĠLe ague
Ph ase
Prov ince
Ġsuggest ed
car bon
Ġf lush
A E
DO WN
class path
ĠDef ine
ĠQ uest
S ink
c ussion
pe er
Ġb ill
Ġinitial ization
ir y
ĠD est
Ġp referred
ai ses
ĠTrans action
Ġelect ro
S ing
ÐµÐ½ Ð¸
Ġs ch
do or
por ation
Aut om
Ġ[ #
An other
f la
t frac
Ġact s
og en
] ];
ĠE N
type param
Ġext ent
FO RE
Ġin herited
Ġ$ ("#
AC HE
us hed
Filter s
g mail
Ġwe ather
play back
Ġar range
Ġsuggest s
C atalog
Ġse qu
ĠX ml
O c
ther n
Ġinvest ment
P in
Ġcirc um
Ġopportun ities
EX TERN
ĠDes cribe
Ġp erspective
g h
Json Property
ĠI ts
ĠCOL SPAN
Ġ} ));
ĠV AR
/ ******/
Ġ( <
IBU TE
Ġderiv ative
Ġincre ment
so und
Ġbel ongs
Serial izable
screens aver
G r
sche me
Sh ift
act ic
Ġdecl aration
c atalog
ge om
M r
list ing
Ġs ig
Cre ation
ĠD ocker
ĠG reat
ST RE
Ġtemp orary
Ġsent ence
Ġad mit
Ġsp end
Type Name
R M
ĠM ust
\ ;
ul s
Ġho spital
Ġpre par
Dependency Injection
dist ribution
interpre t
ship s
] $,
Per missions
Ġposs ibility
) ?
Ġcharacter istic
Ġnecess arily
Ġtri m
w ers
wall paper
Ġ ÑĤ
d ag
ĠGerman y
ĠRo bert
}\ ,\
re store
Ġp le
av atar
> -
x ff
(" [
× Ķ
un ct
Ġjo ined
Ġrest aur
ĠF a
Ġpr inciple
Ġg lyph
exception s
Un lock
Ġspec ifies
Ġpar sing
ĠB ill
ul ating
Vert ical
. [
ĠH and
La unch
y ml
Ġb on
De ep
^* $
an imate
( @"
10 4
Page s
ĠInst ead
(" ,
ĠQ t
ĠCon nect
Part ial
iz ard
Ġtrack ing
Ġstrateg ies
Ġtr ivial
Ġs ports
tr ivial
ab solute
az ine
go al
ar ith
Ġle aving
ĠAd v
h al
get Elements
Ġback end
ING S
ĠF amily
Ġk illed
Comp lex
activ ate
Log ging
Ad ded
ĠVar iable
Ġh a
ĠN a
v irt
ĠNo thing
PI O
Ġre covery
Ġper mit
"> {
Ġhe x
) '
la unch
her ent
k ers
li a
ĠL ock
Ġrender ed
ĠO k
Ġw ww
la ps
Rel ated
Ġre lying
Ġp al
Ġw arm
er ry
for ge
ĠP en
199 6
ay lor
Ġfunction ality
ĠERR OR
s ch
DI F
× ª
ens ors
az el
illa ge
pay ment
Ġro bot
ĠW atch
Ġle s
Inv oke
{ })
Ġsubsequ ent
Cap acity
ĠAppend ix
get Data
UN K
Ġart icles
Ġspec ifically
Ġen cryption
B M
maz ing
p romise
h alf
-- ;
Ġmo ments
Ġro les
Ġtrack s
Ġ} .
ĠC ast
ver bose
Command s
w as
Ġf ederal
get Current
^^ ^^
ĠE rr
Ġgra vity
Ġse a
Post ed
Ġalign ment
is a
Ġadv ance
ist ance
Character Offset
ĠST AT
C ert
ard en
Ġcur l
ĠFe b
Ġ- &
ĠA zure
ç ½
Ġli es
Ġ ur
lear ning
Ġperform ing
Suppress Warnings
ĠS C
B ag
man y
ĠSe cret
Ú ©
Ġb os
ĠM obile
nav Bar
inner HTML
ĠB utton
Ġb rain
ĠB rown
Ġc s
L arge
ver b
get Default
Ġfe et
ĠP eter
ĠValue Error
ynchron ous
f w
ac ion
11 4
ĠP lace
ĠF i
Ġtw ice
Ġmin ute
Ġwh atever
Ġid s
Ġout line
U i
Ġd ip
Ġfund s
comp ress
space s
Ġob server
Collect or
Ġn orth
bm atrix
fe e
Ġpro files
he ta
iv ot
Ġdiag onal
ACCE PTED
ĠC P
Ġname ly
string ify
At tachment
a gin
H int
ce il
M Search
m g
man aged
work s
Ġradi ation
Process ing
get Time
me l
ä¸ Ģ
jav ase
B ranch
Is Null
ĠR ange
ro tt
Ġsk y
fail ure
/ %
ĠWh ere
Browser Detector
v ements
Ġe val
Î »
iner gi
Ġsee ing
Event Handler
uc ial
p ersistence
comp act
Ġdr ink
Ġadv anced
F ront
St atistics
inter action
Ġf loating
Ġp ref
Ġl ic
Ġb ran
Ġas sets
ĠS cript
[] )
Ġv o
c g
ic ago
Ġlanguage s
Ġdam age
Ġoffer ed
æĸ ĩ
pe g
with out
ĠGener ic
Ġpre pared
ĠT ab
Ġlocal ized
Ġaudi ence
ust ed
an aly
A v
ĠW H
V IS
Ġw rapped
Ġ ì
Ġflu id
ĠOn line
} `
A SC
Ġint ensity
Ġinvestig ate
Ġsufficient ly
ĠCons ider
Man ifest
ĠFlor ida
ĠFor ce
Ġpotential ly
Ġinter rupt
å º
Ġent ities
H AL
Ġlog ical
h p
ces ses
T IM
i ota
de ploy
ĠO pt
Ġe poch
Ġspe ech
ĠP an
ĠL ike
ĠPart y
Cla use
")) );
S ender
Ġa im
Ġmo ves
ĠP C
Ġside s
par allel
ph ony
Ġf la
oci ated
Th rows
change s
std out
Ġv ideos
Ġrest riction
ĠSte p
ĠCar ol
ĠĠ ĉ
ĠS top
ĠS ociety
Co ord
Ġdecla red
Ġinte gers
ĠAs ync
DE VICE
ne g
Ġopp osite
D ER
l ision
T i
}} .
ĠF ood
re ject
ĠA pi
Ġde ployment
ĠM enu
Ġindic ated
F H
ree k
Ġ{ })
er a
ĠP AR
at i
[ ];
ĠÐ ·
sequ ently
A IN
Ġfavor ite
Ġbig gest
Ġkeep ing
ĠC WE
ĠĠĠĠĠĠĠĠĠĠĠĠĠĠĠĠĠĠĠĠĠĠĠĠĠĠĠĠĠĠĠĠ ĠĠĠĠĠĠĠĠĠĠĠĠ
Ġsens itive
ad or
Cons ider
ĠDist rict
Ġ/** <
Ġfund ing
Ġ! !
}) }
Sign al
sub title
le af
Ġspec ification
Ġsur round
ul ner
Ġj et
out ube
w so
Ġt body
Ġsco res
define Property
ĠE C
ĠM E
qu ick
uil tin
Ġequ ilibrium
PAR AMETER
Key board
CC CC
Ind ices
Ġor th
Ġal ter
L emma
opt im
% .
Ð¾Ð ¼
N il
un te
> ("
ĠIn deed
ĠCent ral
æĺ ¯
Ġa f
Ġchar ged
ĠC lose
I MAGE
P ersistent
Ġstop ped
Ġhard ware
o ol
ĠId ent
Ġp tr
Ġar c
ant ly
er al
ĠLay out
k ubernetes
ĠCent re
ĠM any
Ġvari ance
Ġsk in
vers al
"> Â
ĠChrist mas
Ġf ashion
(' ../
ve e
Rout ing
ĠA cade
ĠCon tact
Default s
al so
v ature
sw ap
ma chine
ex isting
ĠC ancel
y c
er ature
iz z
Ġind ust
Ġp seudo
ar b
be led
Ġlow est
Ġfour th
Ġp refer
ow l
ĠĠĠĠĠĠĠĠĠĠĠĠĠĠ Ċ
ĠM ad
pi ed
h ot
ĠCommit tee
ĠRe set
24 0
pi res
Read Only
å Į
USE D
Ġd f
cal c
h our
lu a
script size
Comp ute
Ġco inc
leg end
M ost
Ġb lob
N P
Linear Layout
Instance Of
capt ure
ĠRe st
ĠR iver
Ġplugin s
navBar Cell
ph oto
Ġto ggle
ĠP lugin
. (
Fore ign
ĠF R
ĠJap an
const ants
s lug
Ġneighbor hood
Im g
e in
ict or
High light
) ',
St ar
Ġsuff ix
Cl one
ĠMart in
10 7
ĠK ore
Ġemp has
Ġact or
ath an
oc used
Ġarg v
ĠAfric an
En code
Ġhand lers
ĠGL int
C AP
PO INT
ĠM ex
ĠA ff
Ġrender er
11 5
ig gers
co up
Ġv ot
B tn
NO TE
LE FT
Exp and
trans fer
Ġrange s
h int
Ġs lide
Reference s
Debug ger
Ġpart ies
mut ation
ĠMem ory
W ell
Ġin fe
L F
Ġr ig
t own
Mult ip
Ġserial ized
n io
ĠE U
ĠA udio
oss ible
Ġmain ly
}} }\
Block Index
Ġtell s
char set
Not ify
Ġ[ ])
Un til
ĠU TC
Ġenh ance
Ġwhen ever
Ġb rows
Ġdevelop ers
j sp
ĠFe ature
qu id
ĠL ive
ĠI MP
ĠW ay
Ġprecise ly
s aved
Ġreason able
Ġcom fort
co ins
$ _{
Ġpost ed
New ton
per form
ĠW al
Ġup grade
ch ant
w b
we ather
IF T
F it
Tra its
ĠAr gs
Ġsim ult
ph ysical
Ġass uming
Ġs parse
it an
Al so
Ġinvest igation
ĠĠĠĠ ĉ
Ġb ul
AS K
yst al
Ġgu y
P K
Ġs i
serv ative
Ġat mo
Com bo
Ġma ch
le et
on omy
d ummy
u ction
resol ved
[ ],
F IN
Ġhelp ed
avel ength
ĠP ack
Ġwindow s
O RE
scal ar
Ġc red
ĠJ ose
ĠM useum
fig ures
ĠDo es
copy right
Ġc ubic
Ð¾Ð ±
o ved
Ġfind s
Ġ! (
ub b
Ġp et
un its
ĠPro b
ul us
Un expected
Emit ter
Ġart ifact
V oid
ĠL ight
an alytics
, {\
ĠC EO
U C
Ġin form
' }),
Ġf d
Ġg uid
c id
Tool bar
ĠOb servable
tra ining
\ }$,
ĠM ur
OP EN
Ġcon sum
ĠB re
C LIENT
d ensity
/ $
gu ard
\ |\
prob lem
int ent
Operation Exception
ĠB ob
backs lash
Ġm apped
Http Request
Typ ed
] {\
Ġgra vit
Ġhand les
t ol
In to
he mat
ĠL IC
LE N
Ab solute
f lash
F D
-> {
Ġann ual
Ġw ood
ev t
Ġ{ ?
) }_
NUM BER
De code
Ġmax imal
d ater
33 3
interface s
)) \
add on
Ġnon linear
d v
Ġh aven
ash board
Ġsee k
Ġv ision
Ġe ast
Ġcol d
sup ports
Ġ\ ]
Ġf ixture
Ġdist rict
set Value
Ġb urn
ĠB ur
Ġf erm
sp ot
Ġle af
de m
conf irmed
neut ral
Ġach ie
Orient ation
m icro
Ġaspect s
Ġgener ates
Ġmac ro
Ġcallback s
UM ENT
Ġ" :
: @
XML Schema
in to
Ġ labor
multi row
F urther
Py thon
Resol ve
n r
C ent
Ġeffect ively
Ġsco ped
Ġset Up
S hell
Ġs outh
foot notes
Ġse q
me sh
sl ant
Ex change
Initial ized
ĠF A
10 3
ĠL ag
ĠY es
Ġreplace ment
Ġrelationship s
"> '
Ġbutton s
Ġtr unc
duce s
ĠC S
Ġdevelop ing
BO O
De ployment
M iddle
print StackTrace
ĠEvent s
Ġf ul
Ġpro pose
hib ernate
list en
}_{ -
x r
Ġpercent age
Ġofficial s
Ġtopo logy
Ġ Ã©
Record s
ĠLink ed
ĠAn g
r ans
Th umb
ĠC ard
Re view
Ġm p
Ġro utes
J an
Ġjo urney
[ [
ĠMed ical
Ġsu ite
Initial ize
}} </
Mat ches
Ġ( @
Sw ift
Ġen ded
Ġre action
Ġcal c
Ġwould n
um s
Ġsh aring
Ġaccess ible
A WS
en ario
SD L
ur ance
ĠS em
sec ure
St ates
Re corded
block quote
D AT
* >
ĠDocument ation
in cluding
cur r
vart heta
or se
ĠS equ
iv o
NO WN
am ond
li x
Per malink
hy per
he alth
ĠSD K
Con version
est ure
Ġser ved
Ġentire ly
Ġat omic
Sm art
ĠW ait
F ee
ĠV an
STAT IC
ro unded
Ex ist
ĠM S
map per
ĠM ass
st roke
Ġme dic
Ġab und
in formation
mon itor
= }
get Logger
ri age
ĠVal ues
ak a
CK ET
Ġbreak ing
ca des
Ġgo als
Ġorder ing
> #
5 67
Man aged
ĠT w
getElements By
out line
RET URN
Ġs lo
he ap
N ER
ĠY oung
G ood
ĠF rank
fin ish
Ġthe ories
enc il
ĠC atalog
h ill
00 000
ad apt
Ġlaun ched
uff le
fort unately
Image View
lock ed
Loc ator
199 5
pt s
Ġintegr ated
q q
Ġclin ical
Ġinter mediate
P res
Ġequip ment
prevent Default
t m
u z
é ĩ
MA G
ĠM C
æ İ
> ',
Ġ} {
ĠO h
Ġop am
=" {
ĠH RESULT
Ġinitial ly
Ð Ł
Ġappe ared
Ġleg acy
Ġreveal ed
Ġy es
Ġapp oint
ang les
Ġimpro vement
Ġdet ector
Ġdefin ing
User Agent
99 9
CO PY
r atio
ĠW ater
Ġp ot
ĠT erm
Re cogn
ĠÐ¿ ÑĢ
ĠLoc ation
Ġf ish
div ider
Ġd y
Ġfoot ball
column width
Ġscript s
thes is
CON NECT
Z end
U TE
document ation
"> "
Link s
Ġ" ");
an c
Ġs pher
cat Desc
Ġd ashed
Ġst rip
co res
Ġcompet ition
Ð°Ð »
x t
( <
gra vity
ID s
ug ment
Ġclo ser
ac l
ĠL ove
Alloc ator
ap ed
ĠB et
al tern
iss on
p ick
ĠF I
ĠR ule
Ġoffer ing
Ġinc ident
Ġcent re
ĠMin ister
CON ST
Ġc itiz
assert False
at re
n ic
Q UE
text color
ĠV M
ĠG R
lo red
< >(
19 90
Ġparticip ants
Ġinter section
ĠTrans form
script style
Ġcount s
Ġplatform s
Ġparse Int
if ecycle
Ġhold ing
Ġd oll
Ġim mediate
Ġopin ion
ĠC lo
Dis able
re cv
Ġassoci ation
alle y
Ġdraw n
Ġschedule d
ĠO ld
| }{
Ġutil ity
Ġtr uly
z ing
ĠC PU
G G
ĠN Y
Ġd iver
ren a
Ġcomp ilation
Ġexc ited
Re cent
F ast
Ġis set
ĠM el
ĠRes erved
SY S
Ġar row
Ġal location
ĠMed ic
Ġs we
Ac cording
') ).
ST EM
lev ision
Ġpre dicate
æ į
ĠW omen
m is
itu ency
L i
n am
ut ation
Ġdis crimin
x f
P ad
Ġp ieces
Comp osite
un stable
Ġrender ing
Get ter
ĠLin ux
t un
Ġcomput ational
ĠP A
A mazon
"> @
u ing
Ġv irus
E mp
Ġt ight
Ġ< ![
L ang
Ad v
rot ate
ĠN ative
Ġextract ed
Ġb id
Ġ* _
ĠLIC ENSE
Ġin coming
not ag
per ts
Ġcorre ction
ĠJo e
maj or
Cache d
R G
æ ł
Ġref lection
ĠCollection s
ymme try
S uch
Ġwrit es
Ġm ist
ä» ¶
ĠJ ack
AC CESS
Ġt ip
Ġexcell ent
Ġn arrow
C lock
N U
= </
At tach
Ġinst anti
Ġun able
Ġen ables
PRO TO
ĠWilli am
' ><
Ġback up
Ġconcer ns
ag ation
Ġsupport ing
Ġf uel
t age
Ġcancel lationToken
Ġb attle
) ";
ane ously
HEAD ER
Ġgrant ed
P references
b id
(( (
View s
ĠD uring
Ġd type
ĠInv est
En crypt
Ar n
Proto s
P al
ĠP latform
du ate
Ġscen arios
Ġorgan izations
d riv
g ulp
omorph ic
entic ated
ore st
ĠF IX
Ġgeneral ized
Ġgir l
alan cer
(" ")]
Ġpe ace
Ġman ifold
ĉ ĠĠĠĠĠĠĠĠĠ
;\ ;\
Res ize
temp orary
Ġf re
j boss
ĠH a
Ġinit With
ĠR T
Ġre cipient
Ġac ade
Ġreject ed
cap s
Ġin come
ĠC ell
Ġcon cat
Ġdemonstr ate
Ġad res
Ġd ra
' </
g ap
View ById
Ġstart up
Ġput s
Ï ħ
orph ic
;& #
ĠAustral ian
Ġre ferred
ĠC L
Ġs ongs
" +
Get Type
Ġcar bon
ADD R
Ġinstall ation
Ex tended
EQ UAL
Throw able
ĠRE AD
Ġannoun ce
Ġli e
k top
ĠÐ ±
2 20
Ġapprox imate
R pc
Ġp or
Ġco lour
jac ent
ĠE p
TR ACE
request s
Ġset t
}) ^
Ġ" </
p lain
st ood
}) =
Ġb ands
ĠS ort
ĠL ee
comp atible
** :
To kens
=' #
H D
or ig
la h
Ġcon tribute
f m
Ġpre m
}} ^{\
][ <
Ġelim in
o auth
ab br
ON LY
ĠK o
og onal
)) {
" =>
w ire
ion ic
med skip
TH E
dash board
Ġphot on
do es
ĠBO OL
] ));
Byte Array
i em
widget s
Ġalloc ated
Ġaccess key
SCRIPT ION
ä¸ ª
d type
Ġear th
Ob servable
Ã§ Ã£o
ers ions
Imp lementation
Ġbegin s
Ġin ternet
ous ing
Ġcharacter istics
back up
k l
Ġenvironment al
Ġdedic ated
( %
o ph
$ };
Ġexp osed
F ac
n m
Ġpract ical
Ġsup posed
="../ ..
A W
ag ers
ĠM aster
I ssue
UT C
v able
ens ities
b x
pt ic
ask et
ĠMark et
} |\
-------- ---
} ~
ĠR ect
(' \
Ġp t
depend ence
d ings
ĠBit coin
ĠF ollow
CON F
Ġc le
g allery
ifi able
cho ice
Ġda ughter
se par
ap on
) }.
g iven
B in
Th rough
ĠR a
Ġad vice
ĠResource s
,\ ,\
ĠRich ard
9 00
ÐµÐ ´
Ġl in
s yntax
P atch
S ys
Ġstandard s
ĠS at
Direct ive
Ġdire ctions
Ġdif fer
Ġdirect ive
Ġterm inal
e ction
Ġener gies
Ġst roke
is l
Ġkey word
Ġessential ly
ĠW allet
ĠB log
Ġser vers
i q
tikz picture
alle st
ä ¿
Ġ" {
Ġr id
Ġ ice
r ick
ĠCong ress
T ON
v y
ORM AL
F W
th ird
Ġsup pose
C riteria
as ide
la cing
Ch o
ĠC ook
IT ER
ent ities
s an
Ġa ware
Ġcon d
bo unded
Pa ired
sp her
Ġfem ale
------------ --
FA ILED
Ġrequire ment
ĠS ql
Ġreport ing
Ġdec ide
12 4
sw ift
16 9
ĠAr ts
Ġp c
Ġher o
ĠComp ute
Fin der
ĠC ategory
Doc s
// !
Supp lier
ĠFran cis
bo un
long rightarrow
be at
footnotes ize
Ġthous ands
ma ker
IL L
force ment
id o
3 000
P reference
Ġb ag
Ġover view
PROPERT Y
Hand lers
Ġcr isis
p es
ut ely
IN LINE
Ġr is
ĠRuntime Exception
\ }\
ĠS U
ĠAdd s
O C
b ash
IN PUT
Ġf lash
part icle
mag netic
Ġm iles
un used
Ġtemp lates
ser if
get Context
co verage
l ating
D roid
] ",
Ġ( {
Ġbe at
tr ansparent
Ġdis covered
P haser
V e
v t
'' '
Ġmot or
igr ations
open api
Spr ite
Ġst reet
ĠM aterial
Ġ// !
Ar row
m atic
Ġrad ial
ĠUS B
d w
Ġsub group
p ite
Ġll vm
ĠCon f
Start ed
s uite
Ġm it
g ather
ĠI r
Ġdirect ed
CP U
resol ution
ref ox
F oot
ĠB i
Ne gative
DIS ABLE
ĠL IMIT
Ġpost er
it utions
11 11
spec ified
å® ļ
"> ,</
url s
Ġproduce s
ĠS a
om ics
Ġelectron ic
ĠÐ ¼
query Selector
Vis it
allen ge
å °
P ref
cop ic
ĠRout e
ĠT ri
ĠSp an
Opt s
book s
SH A
Ġdoc s
ĠA V
Ġlo se
c art
Ġre views
il ly
Ġm and
ĠH O
ĠJ on
Ġpr ices
atur ally
Or g
ĠRes ol
ĠD oc
D X
ĠL E
ĠGL enum
^{ *
Ġdis cover
ĠC OP
lo ose
Ġli braries
Ġact ing
Ġf if
Ġm ill
writ el
Ġmark eting
N ay
Ġoper and
Sta mp
% );
is Valid
k n
ĠS ep
ĠIter ator
ĠHe ader
en coded
Ġdro pped
Ġa mazing
col s
duc ible
n oc
tensor flow
Rot ation
ĠResult s
il bert
pr ising
Ġtransition s
Ġexp os
() "
Ġclass ic
ĠDe ep
ig an
ter ritory
Click Listener
Ġdimension al
Ġdec isions
inherit Doc
TR A
T ri
Ġattemp ts
L ear
Ġhypot hesis
Ġman ual
u is
std lib
H ence
Ġnot ion
O ps
Ġencrypt ed
R ank
Ġin frastructure
v r
Ġ$ ('.
read only
Ġv en
RE L
ict ures
Ġa ward
> ",
Ġm irror
Pre view
Ġprogram ming
c ient
ĠC y
SE SSION
ĠH aw
Ġbo y
F un
ĠHe ad
Ġvacc ine
us al
10 6
ride s
Y P
Ġ" (
Ġim ag
S amp
Ġport ion
h dr
all eng
ter ms
Ġchar ges
ilo so
H ar
Ġu uid
resource GroupName
un def
Attr s
d ac
ore s
At tempt
Ġcoll ision
| }
Ġw elcome
Ġshe et
ĠMay be
Ġcre ative
th ick
d ifferent
Ġso ck
ĠDE BUG
M X
g un
Ġcol lege
Ġfig ures
F lush
Ġ ray
L ab
Max imum
ç ±
or i
Ġar rest
ĠCal led
F LOAT
B alance
Ġre sc
Ġc ars
s ymp
A bs
r gb
Ġc ities
Ġpro totype
sk in
ĠA ward
IC K
ĠC r
Ġth in
Clo sed
be low
Ġ( ((
Ġh air
\ .
Ġfeel ing
! ");
in crement
Ġinvol ving
ke leton
to ms
Ġmod ification
ĠD C
Ġcom mitted
pre tty
ent ed
Ġset Timeout
Ġfil ms
Ġ ly
ĠCO M
Ġb ridge
ĠA I
ynam ics
ER Y
Ġca ught
' "
Ġreg ression
="../../../../../../ ../../
^{ (\
ĠCon troller
Ġmag net
Ġh abit
Ġfa ith
Ġins pect
Y ea
di e
ĠTH IS
in os
as List
q a
Ġcomp la
S lider
or ters
r ating
Ġl ift
fa de
Schedule d
d yn
emp loy
ir l
oper ations
b ian
Ġw heel
dd en
load s
umin ate
Ġremo ving
ĠJ im
Ġclo sure
Ġman ually
Ġwor st
ENABLE D
Cal lable
Ġmag ic
Ã ł
cc c
ĠIsra el
S lide
Ġan not
Ġp lain
Inv ocation
ĠM D
ru ption
STRE AM
W rong
d h
normal ize
Ġar ithmetic
Ġfact s
r ical
Imp lemented
ĠR oman
Ġapp reci
Ġiss ued
å ĩ
ĠT im
BO DY
Dem o
Ġs ale
EE E
Ġasymptot ic
ĠKe ep
end a
ĠCh ris
Ġdecre ase
ak ed
ĠA no
Ġ] );
Fin ished
Ġwor se
Ġprocess or
Ġan ce
Ġdec imal
Ġdefin itely
ĠA rab
sub sec
n P
ĠS ER
W ho
HAND LE
O IN
Const ituency
ii i
file Name
Ġem otion
Ġvary ing
O ct
H o
Word s
as p
ĠS ingle
Ġs old
C LO
il ine
Ġgra d
product s
Ġprov iders
re ach
-------- -
Cre ator
Ġh us
amp aign
Ġe le
ĉ ĠĠĠĠĠĠĠĠ
SC A
ĠM i
Ġt a
12 1
al one
Ġwatch ing
Ġfilter ed
Ġs cre
th an
Ġactiv ation
) ];
ï ¿
ad just
10 9
ĠV irgin
å į
B ot
Ġun iqu
Ġst och
Ġjav adoc
Ġleg end
bar s
oper ating
min imum
n ested
Recorded Vote
le ave
Ġde viation
Ġrestrict ed
Ġre tail
Ġs ink
Ġqu asi
ĠW alk
val s
Ġc line
Ġdebug ging
Ġart ists
ĠT itle
Ġsh ut
y o
ç± »
ot os
Ġrespect ive
ĠC ross
R I
3 20
de velop
Ġarch ive
rom ium
Ġver ification
Ġrest rictions
Ġsee med
ĠSet up
Ġ\ !
Ġiter ations
rop ic
contrib s
V D
Callback s
ĠType Error
Ġa ws
ad ian
Ġcap abilities
TIME OUT
Ġ( #
19 0
b readcrumb
Ġphot os
H er
phan tom
S amples
Ã ½
ĠS mall
Ġquant ities
F B
g ro
Ġcondition al
Ġfac ilities
Ġpurch ase
TH READ
ĠSet ting
16 8
ob server
ĠEV ENT
Ġmur der
ATTR IBUTE
Ġred shift
f requency
OP ER
ĠS tack
ĠC luster
ul i
datab ind
Ġpar ame
re mo
record s
Ġent ertain
dic ates
ĠS Y
ĠD igital
Ġdis covery
b ower
ĠScience s
Ġp ad
Ġfor get
de tect
Ġch at
P icture
ĠS ports
ĠAl gorithm
border ed
se g
x c
MLE lement
P B
tr on
Ġres idents
size i
re try
erv ation
Project s
Compar ator
Ġb igger
Ġ ,\
ge l
on ym
Ġpresent ation
Ġ$ ,
ĠRuss ia
tele phony
I FI
h en
Ġequival ence
Ġne ither
Ġro ots
alleng ing
ĠWest ern
Ä ĥ
l v
ĠAno ther
es lint
Ġmov ies
D ig
equ ations
AT T
ren e
199 4
Ï Ĥ
Ġadopt ed
Ġguaran tee
: =\
now ledge
sol utely
lu c
11 7
DE V
Ġexponent ial
Ġexpect ation
Ġis omorphism
Ġpro be
; ;
Ġcur vature
get User
Ġdef ense
TR ACT
Call ing
Text Field
) --
UM N
An swer
ãĤ Ĵ
ans wer
Ġn om
ĠL y
Ġconduct ed
Ġp s
P D
> @
=" '
æľ ī
F ACE
Ġcomp reh
cond uct
on om
ic ular
* \
Non Null
s il
b etween
Ġp id
F ra
I llegal
h h
Re po
Ġsens itivity
Ġin ference
ï¿ ½
bo th
Ġe arn
Ġqu ote
r at
Cal cul
tri angle
! âĢĿ
ĠM il
Ġ* */
ĠT en
Ġf old
Î ¼
Sup pose
RO P
am ar
end ant
f ic
math op
Ġreduce s
Rad io
ĠĠĠĠĠĠĠĠĠĠĠĠĠĠĠĠĠĠĠĠĠĠĠĠĠĠĠĠĠĠĠĠ ĠĠĠĠĠĠĠĠĠĠĠĠĠ
ĠEn sure
ĠC ONT
Ã ±
r ang
Ġ$\ {\
Ġlo gs
Ġ ):
Ġcomp iled
current Time
pol l
Ġtopo logical
ab ling
Rep resentation
ĠM iddle
ĠF ort
aw ait
Ġbe coming
Ġn ic
urb an
Ġde ferred
ĠC irc
Å Ł
f ixture
PT S
1 32
:// $
Ġdomain s
mk dir
ç Ľ
IC AL
a con
ĠAg ain
B AD
re es
ĠA tt
buil t
Ġen coder
Ġface s
Ġcomp atibility
A ws
war ded
P OL
LE AN
Ġhistor ical
Ġregard less
Ġlet ters
EX CEPT
Ġcheck sum
ig rate
ĠPro file
ĠIn fo
Component Model
crypt o
lik ely
instance s
D J
se ek
UL K
aw a
f our
ĠPro tocol
re main
Ġg fx
nap shots
Ġviol ence
g uid
m r
Ġ[ -
Ġa ux
v ia
ĠBe fore
Ġun iversal
host name
direct ive
Ġclo sing
Ġs mo
Ġh alo
Ġdescri bing
Ġexperience s
er os
mat htt
Ter min
Ġadmin istration
ĠD NS
ost ream
Help ers
Ġa sc
Å Ĥ
auth entication
c nt
Ġinterface s
Ġ ign
cur l
DI O
H it
fe edback
Comp any
ĠJohn son
Config ure
Ġread ers
t odo
Source s
Button s
Pos itive
Ġfac ility
Ġbr ings
al and
hand lers
ĠVis it
ĠC ulture
ĠB ody
ib ilities
Ġde cades
Qu ick
es is
Ġi i
p us
Ð ±
Ġth r
On Search
ĠEn try
Ġpro c
Ø ³
Ġre ward
LOC AL
u j
ĠM ove
Mix in
Ġanaly ze
let ing
ĠI C
Ġdefault Value
Ġj e
ir ical
Ġpri mitive
ni h
Ġcur r
ĠY ES
Ġc ash
ap k
ĠH en
Ġshould n
Ġperiod ic
ir ms
Ġ' )
FIL TER
æ ³
Ġtop ics
Ġfit ting
Depend encies
z o
Ġex cess
re land
ADD RESS
wik ipedia
Ð» Ñı
ams ung
ĠE st
ĠLe ft
12 2
Ġdynam ical
form atter
j k
Na N
ĠD er
More over
ĠP rivacy
tt ify
}$ }
ĠCh icago
Ġtemper atures
Con nected
ĠSystem s
Z ip
Git Hub
b n
Ġpanel s
SE CON
Ġ\ ,\
DI SP
) _{\
Ġen vironments
Ġtool tip
ĠExt ension
ĠS DL
Ġvers us
M igration
clo sure
Ġpe ers
| $
hold ers
ĠF low
6666 66
Ġweek end
ĠP arent
stance s
loc ations
Ġres idual
cret ion
aut om
s is
class v
Ġqu ark
ism atch
3 50
r er
ĠA tomic
al ty
ĠM en
Numer ic
Ġdiv ision
UL AR
se x
Ġmax im
l c
Up dates
T ax
Z Z
ĠW ood
en coder
Ġ* **
Ġde mo
ĠI II
ĠE ffect
Ġclose ly
Code s
Ġg lu
ĠOb ama
fil led
Ġarch itect
Ġk ick
Red uce
Ġp un
Ġstoch astic
ĠT our
T M
Ġleaders hip
) ");
30 4
10 8
ĠF ast
Ġsh ares
lo ut
Ġpract ices
ci pe
Ġas sess
call s
un ix
19 70
ss on
ĠSpr ing
ĠRuss ian
P an
at ivity
Al though
cla im
credential s
F X
ĠCom ment
Ġm yst
Ġg ender
ĠHel per
LOC ATION
000 1
. \\
^* \
Ġwide ly
}} =
Ġap art
Ġver bose
Ġw arnings
Ġoriginal ly
Qu ote
"> :
Ĥ ¬
() }
Ġt ear
D to
Ġeigen values
char At
limit ed
Ġn ullable
Null Exception
Ġgu ys
work space
Ġcra sh
. âĢĻ
th reshold
read able
Ġ' [
j q
ME DI
ĠM eta
d g
ro les
ĠW ARNING
G reen
W ITH
ĠV ert
as er
Ġr an
qu ality
Ġcr ucial
Ad just
Ġinterpret ation
Ġf amous
ĠJ ud
Ġstrict ly
Ġclean up
({ },
Ġb low
Ġfoot er
Ġes cap
Gra dient
"> #
Ġvol atile
H W
sh ader
Ġev t
BE GIN
er g
Ġconven ient
Ġatom s
ĠCont in
U K
T LS
la c
Ġcon clusion
Ġphase s
Com ments
SER VICE
Ġun expected
Ġexec utor
Re tr
ition ally
red is
C redential
unt u
hemat ical
Render ing
add itional
Ġfa ult
c us
ĠD M
Def ine
C od
Ðº Ð°
EN S
Ġfore st
Ġpro ducer
\% $
ell ite
ĠS elf
her its
Ġsurface s
P AGE
Ġrandom ly
}\ |
Ġprote in
Ġin clusion
Ġan om
Ġref ers
li z
ĠJap anese
er ate
ĠT ake
Ġch allenging
Ġsche mes
Ġfamil iar
Symbol s
V ars
Ġc d
Ġdo g
ac ific
Ġ ].
ĠConst ant
getElementsBy TagName
Ġh ack
ĠL ake
Ġtrigger ed
ĠSty le
exp anded
ĠM ike
and y
C r
% ">
h it
Ġf its
Resol ution
ĠM ode
d id
Ġv ulner
Util ity
IP S
Ġl it
ĠDi agnostic
Ġpro g
Ġcollection s
Ġcoup led
Ke ep
ĠT aylor
cess ary
Ġt il
ĠP L
IF Y
Ġanim als
Ġimp ossible
H EL
pen ded
log ue
Ġvari ations
ĠSV G
to k
ak s
ĠT own
W alk
Ġm ale
! ]
æ ŀ
Ġsp ring
Ch rome
U INT
IG H
ĠS eq
at tachment
re ceive
C rypto
Ġunder stood
ug ar
Content Type
Ġcon versation
199 3
has Next
com mun
Util ities
s uffix
ĠCOP Y
Ġnumer us
Ġmark ets
Ġ ))
Ġautom atic
list eners
user Id
ertific ates
ĠG rand
Art icle
ad y
Ġfile Name
ĠT urn
O VER
Ġ{ !
ĠH iggs
RE C
sh ire
ok ia
Ġdetermin es
ame d
Ġpresent s
W M
'] [
comm ended
Ġincre d
Ġbench mark
? )
Ġ( +
ĠJ ones
ĉĉĉ ĠĠĠ
V R
ĠS i
' ></
sp lice
vis ual
ĠS uccess
ur ies
get Parent
Ġk id
Ġsen ior
Sh ip
Ġinser ted
S an
Ġ ));
e asy
fin es
Ġarg c
cal cul
in variant
>{ @
Ġcomp ression
ĠCO MM
Ġrecogn ition
tain ed
ãģ Ļ
DEF IN
Ġcal endar
Ġt ang
"> )</
R aises
Log ical
ä¸ į
Ġmix ing
Ġp owers
Ġch urch
ĠP attern
Ġla zy
CONT RO
un ion
c u
à¤ ¾
ĠGe org
ĠSk ip
inherit doc
Ġf ired
Ġl on
Ġcons istency
Ġh olid
Ġg a
Ġun iverse
Ġli ber
13 6
Ġs phere
math comp
ĠD aily
keyword s
Type Def
Mar shal
ĠA ST
ex e
Ġauthor ity
CL UD
es ides
Âł Âł
um ul
j dbc
Ġspec ifying
Ġnormal ize
GL enum
ĠFrame work
Ġr u
pa ren
ĠSh ared
CLUD ING
ĠV alley
Ġhelp ing
) <
Transform er
Ġre ly
ĠCo vid
/ ************************************************************************
Ġp las
Ġp itch
COMM AND
Ġexp ensive
é ¡
") ).
log s
f v
ced ure
Ġbrows ers
Ð½ Ð¾
p ot
N ORMAL
a verage
Le ave
================ ========
Ġdemonstr ated
Ġto ler
V A
is ot
get s
it el
up les
ĠE mail
on line
Ġamount s
B usiness
O s
Ġcirc uit
s us
Ġ$ ^{
Ġd ates
Ñ ī
as ci
NE SS
ĠPol it
ch en
ï¼ ļ
ĠP od
In ternational
INTER N
et al
Do es
Ġst ands
Ġw a
ĠM ajor
Id le
AT IVE
q r
h ab
Ġun set
Ġweight ed
c ms
Ġc riminal
Ġg ene
I o
writel n
vent ions
Min imum
ident ial
Ġveh icles
ent icate
1 19
ne ed
ĠP ART
ĠDirect ory
Ð» Ð¸
" <
ĠM achine
( -\
ment ion
Ġqu ot
Ġpar k
P lus
ĠP H
Ð ³
re ater
Ġwin ning
{ |
Ġperson s
Arch ive
Ġinsp ired
Ġun lock
ĠG ames
Ġn an
ĠĠĠĠĠĠĠĠĠĠĠĠĠĠĠĠĠĠĠĠĠĠĠĠĠĠĠĠĠĠĠĠ ĠĠĠĠĠĠĠĠĠĠĠĠĠĠ
SE ARCH
Byte String
Ġsound s
h ub
Ġhe ap
ĠT F
Ġscient ific
S B
ul se
Ġlock ed
Ġdraw ing
ra ce
Ġtemp oral
Ð¾Ð º
$ }}
] []{
man ent
de ps
Ġm igration
Ð½ Ñĭ
Ġresearch ers
Ġfind ings
We ak
} ")
Ġcomb ine
? .
ss h
ĠSaf ari
Number Of
OFF SET
ens ing
ĠB an
Out come
root Scope
E mbed
Ġ& $
Ġcos mo
ĠP layer
Ġcorre ctions
ut y
Ġim agin
H ard
Ġsign s
de leted
ĠG T
Ġvis itor
æĹ ¶
ĠR ES
Ġmolec ular
19 80
sp it
Ġdepart ment
. ')
ĠM B
Ġperform s
è ¦
e an
res pect
Print f
k h
ĠÂ ·
Ġm illiseconds
r te
Ġpas ses
Mut ex
ĠC lick
Ġrun ner
Ġpro mpt
Ex amples
b usiness
ĠH ard
TO KEN
ĠF un
Ġ[] *
ĠPh oto
ĠAL L
Ġw avelength
CONT ENT
å ½
) `
ĠC lean
Ġcon volution
Ġcapt ured
II I
Ġabs ence
g res
Ġocc asion
Ġsol ving
Or Empty
Ġimp l
Ġag ency
pro j
writ ing
cor ollary
ĠG C
State Exception
ver ts
Ġsome what
%%%%%%%% %%%%%%%%
åľ ¨
Ġrect angle
ĠT yp
Ġ' --
ĠM I
Ġor ient
ULK AN
$ {\
Ġt ar
mid i
Ġan notations
ĠAs ia
Ġn ine
ĠT ypes
scal ing
Ġse ar
Ġend l
d up
as sed
SQL ite
contain ers
G esture
âĢĻ ,
Ġge ometric
Ġd ummy
So ftware
Ġtech nologies
R F
Ġinter ior
Ġcri me
s qu
in dependent
Ġh ierarchy
ĠF re
ve locity
Ġlo ved
os a
L T
Comp atible
> =
Ġcomp aring
inst ein
}) (
Ġintro duction
ver ity
Table Name
A Y
Ġnorm ally
G M
Ac c
Ġsw ap
B IN
ĠCheck s
LOB AL
real m
$. }
Ġiter ate
^ (
Ġw er
ĠE v
Ġfore cast
Ġx hr
C ACHE
i ate
( ',
R ound
REQ UI
z illa
Comp ile
Ġk in
start ed
Ġm ental
Ġch rome
Ġth umb
3333 3333
ut ch
Ġbra cket
Ġmonitor ing
Ġc ru
ĠM ont
o e
q view
ĠL td
Re store
Ġcomp licated
c xx
A ge
> {{
Ġend ing
ro zen
X i
ab ort
itor ies
p ane
Ġd w
Newton soft
as ource
Clo sure
æ Ķ
). </
Ġconcer ned
ĠPO ST
ĠRem ote
Ġsus pect
Ġst ead
Ġdoub t
Ġco pied
Ġident ification
ĠF ont
ĠExec ute
new line
DE SC
Ð½ Ð¸
å Ĩ
Ġkey board
lo mb
al ian
Ġde coder
Ġm u
Ġp b
Ġsex ual
× ¨
åı ĸ
ĠS N
IS H
lo om
pro x
Ġgr pc
ĠLear ning
Document s
Ġch apter
Ġdiv ided
FAIL URE
ok er
Exp ressions
sub menu
List s
ĠN ever
ĠEn um
Ġrespons ibility
For Key
Ġstraight forward
Ġs port
rupted Exception
P lot
per malink
Ġpres erve
Ð°Ð º
PRE SS
Col ors
Ġcur rency
Ġ\ &
lic es
SH OT
Ġcrit ic
W P
ĠA ust
ĠC am
t pl
Add itional
Ġcult ural
n ol
un a
Ġde pict
lement ary
Ġassert False
Ġlumin osity
ĠFact ory
Ġvac uum
b ell
EX P
Ġcover ing
Ġas sessment
Ġreference d
IT S
ĠR ay
Ġmer ged
Ġt urb
s uggest
ex c
ĠZe aland
limit er
ĠCor poration
View Model
Inter op
ĠSe ason
ĠIN TEGER
Ġat trib
Ġown ed
Analy zer
Ġst y
syn opsis
el ly
Ġp ng
Ġperturb ation
Ġm i
lo re
Ġbound aries
Ġform ats
Get Value
Ġmodel ing
E ven
ĠRo yal
ĠH AVE
mix ins
S uffix
ing ly
ct ype
ĠB inary
l ig
fold ing
Ġinvol ves
ĠE mpty
ip p
Ġhost s
ĠMET HO
Ġqual ified
- "
Ġfrequ encies
= _
re vision
ç½ ®
ĠUs age
D MA
PO SE
Ġco vers
Tool tip
Ġdo cker
Ġstrong er
math it
C XX
inger print
Ġfluctu ations
Ġhus band
ĠD ie
Ġsh arp
ab ove
ĠS us
Ġsh a
Mod ify
Ġr pc
host s
K nown
ra di
or ry
ĠIn tent
Request ed
Ġdistance s
c riteria
Lin ux
app y
Opt im
s uc
S inergi
then Return
R a
vet ica
Ġun safe
ĠI ran
Ġ iron
Ġitem Members
w m
Ġsepar ation
Heading Color
27 0
g ol
Ġm ob
o i
Serial ize
V S
SN AP
assert Raises
auth ors
ĠAR M
Ġpoint ed
Ġe at
E MPTY
od a
Ġi OS
ĠB UT
ib r
ĠBe gin
K HR
end o
ind u
MPL ATE
quis ition
ĠC as
ĠRad io
Ġdriv en
p rom
f ork
ĠValid ation
ĠD rop
Ġw el
qu iring
Action Bar
CLU DE
sql ite
Char Field
Ġdeliver ed
Â °
go als
end l
Ġuncertaint ies
ĠC apt
De cla
Package s
Ġhas n
ĠJ eff
de coder
m q
ĠT ensor
uc lide
Ġsubstant ial
oo per
âĢĻ .
Pro ducer
Connection s
Ġsub mitted
CO RE
Ġad vers
di gest
Ġsh utdown
L ER
Ġpri mar
ĠAmeric ans
Ġnumer ic
ĠF ar
cre ation
tra ction
D NS
ĠA v
Ġ<!-- [
Ġput ting
ĠU INT
match er
FO UND
Ġse d
al og
Buffer ed
Ġc er
C Y
ĠH H
Ã ª
at on
iss ion
ĠD rag
z il
Ġhe av
LE ASE
G LE
node Type
R ew
buil tin
V P
ĠPh one
Ġformat ted
11 8
e ah
f ac
\| _
ĠM id
Serial ized
my Item
T OP
am ber
ĠJ aco
AL LOW
ĠT y
MO VE
ost on
ĠHash Set
j vm
Ġp apers
ĠPol ice
Ġr v
* }{
Ä ģ
Ġtransform ations
Pub Key
Thread s
ĠT i
] /
Y ES
ĠU TF
Ġemploy ed
User Id
Ġ rom
p ip
mit em
C ategories
D ays
j as
OUT PUT
)) :
Ġvis ited
y our
0 10
Ġover lap
Ġad vent
Ġnumer ous
) (\
C WE
Ġcommon ly
DE CL
gre y
!! !!
Ġens ures
Ġbro ther
Ġexpos ure
âĢ ī
ĠSm art
pe ction
cre ts
C op
ch ars
Ġcla use
199 2
Ġinterval s
Ġany where
Ġneut ron
Ġ" __
"> .</
U G
do i
Ġqu iet
Or ganization
Par cel
] ):
Ġpartners hip
ĠS A
initial ized
× ľ
ĠC up
cop es
Å ¿
g al
Ã© s
w an
) ^\
ĠSup pose
ĠM IN
pre dict
Ġlog ged
az z
pa int
ĠD av
S at
GL uint
Ġretr ieved
Ġb ars
T CP
pe ople
G ed
ĠB iden
View port
Ġtren d
Ġex ercise
com mod
14 7
ĠDefault s
i ot
rot ation
ro utes
ĠAl loc
ĠPar ser
13 5
cord ion
U X
irc raft
Ġex clusive
proto c
t ap
ver sed
. {
depend s
scal atest
Ġpro posal
D avid
Ġn umpy
Ġl hs
havi ors
ĠL ow
C AL
Ġcap able
à ¹
port let
me mitem
Ġin vert
Ent ities
ex act
Ġh its
' _{
n f
Ġask ing
ĠD IS
s ites
graph ic
Ġtri angle
r w
Rect angle
ĠSpec ifies
- %
Ġphot ograph
Ġfav our
Ġconnect ing
b ank
ĠGe V
pre dicate
Ġo ps
Ġg lass
æį ®
ĠTra ck
~ (\
" ):
Ġb ur
ab b
man ual
mm ar
Ġtot ally
Trans actions
M ULT
ĠChild ren
Ġpr incip
th y
Ġsitu ations
Ġquadr atic
down arrow
ĠI reland
CUR RENT
type Name
ĠU int
d og
Ġuniform ly
bl ur
Comp ilation
ĠR am
Ġpro mi
Ġsm allest
L M
i ment
ĠCon ference
C he
S dk
re load
& =\
P TR
Ġprom ote
B G
Ġbreak s
Job s
Ġg ate
Reg ular
al ways
Circ le
ord an
ĠDetail s
pa use
Install ation
de sktop
' })
ĠO l
ĠLou is
t ls
Ġexperience d
Ġgu ard
et ary
ĠAct ivity
Ġn aturally
sched uler
H H
Ġs ched
20 2
B log
fa re
s he
ĠDown load
ly wood
Ġpolar ization
Ġ\ |\
Ġinst ant
Ġadmin istr
Dist ribution
M EN
Me an
Ġon Click
U uid
Ġw ra
Ġderiv atives
SE D
ĠA DD
lo m
Ġfac ilit
y outube
ĠH on
ĠH am
Ġhon est
requ ires
Ġt on
cons istent
Q R
Ã º
ed ges
> *
ĠSc ot
Data Set
Ġin set
h c
**************** ********
Ġver ified
Ġtrans mit
Ġle x
Ġ"\ "
ut r
Writ able
Ġl n
Ġreceiv es
T en
Ġstream s
Ġsubject s
ĠFil m
\ -
Ġpr ison
luc ene
str ategy
Ġb odies
ĠTr ansport
co v
$/ .
++ ]
Sort ed
Pr incipal
Ð°Ð ´
E ar
ĠObject s
+ -
ar ations
List View
Ġlik elihood
ĠU ri
F lat
ĠĠĠĠĠĠĠĠ ĠĊ
ly n
per missions
Ġ[ `
Match ers
ĠF estival
link col
B N
ĠU V
thumb nail
Ġconsum ers
"> {{
Ġsub str
A ds
Ġre curs
w ant
ĠP lant
Ġch ief
Ġ/// <
Ġe co
Ġres ize
ĠV ictor
ĠĠĠĠĠĠĠĠĠĠĠĠĠĠĠĠ ĠĠĠĠĠĠĠĠĊ
Ġcomp osed
j b
AUT O
ĠN ight
ĠT oday
Ġbox es
ject ure
ach er
ĠApp ly
Ġd ol
moz illa
is p
li ers
urn ament
ĠRE G
ĠB reak
---------------------------------------------------------------- ----------
At Index
parse Int
azel cast
Ð¸ Ñģ
Ġab solutely
Ġex perts
ĠS ample
is ons
ĠDan iel
ĠOffic ial
group ed
com merce
Ð¾Ð ³
ĠStud ies
Ġhy brid
Ġse ssions
in n
ME TA
ĠGL uint
N EXT
l st
TH ON
int enance
Ġb uffers
: ",
US B
R X
r ig
Ġon going
| ^{
Ġ@ {
ĠG uid
Ð°Ð½ Ð¸
De leted
Ġpar agraph
ir k
Ġreli able
Ġp ip
Ġ@ @
form ula
Ġp kg
ov es
ĠA F
ance led
Ag gregate
ĠPar is
uclide an
ĠWIT H
Ġspe aking
V ersions
Ignore Case
pp le
) ](
Ġed ition
lor er
ĠMedic ine
Ġp lott
stack rel
Ġowners hip
Ã© e
Ġdef ect
Ġassert ion
ir ds
ĠArray s
ind s
ome stic
Ðµ Ñģ
') [
Ġ[ &
Ġacc ident
Th ree
ĠEngine ering
no ck
Ġemer gency
C at
Ġp late
Ġro utine
user Agent
Ġc v
ĠA wards
FN GL
q s
C ENTER
Ġindic ator
, (
i pt
INTERN AL
P DF
Ġs ends
set Name
ĠPo inter
Ġconj ug
assert That
Ġ _{\
Ġf at
ĠB a
Sh ard
Ġmechan isms
f ish
Ġs cheduler
Map s
Ġgravit ational
la zy
Ġelse if
V K
source forge
El se
ĠTh ree
integr ation
d ra
Ġh orizon
ĠSt atic
Ġoper ate
Ġhealth y
gener ation
RE SOURCE
H ot
N d
B alancer
Ġult ra
ĠSen ate
ress ive
WIN DO
de velopment
ĠC NN
Ġan imal
Ġrepresent ative
ĠTr ust
co ordinate
Ġfa de
u ity
ĠC ost
^* (
un icode
ĠL uc
$ "
ban ner
< '
ĠT E
Ġconcer n
Ġsim ulated
76 8
Ġsem antic
Ġg oog
P riv
OB J
text sf
organ ization
reg istration
ival ent
s ensitive
Ġ' ');
"> =</
VAR I
child node
ÐµÐ ¼
Ġ= =====
ĠSt ory
get Node
ĠFour ier
Ġsimult aneously
w ing
r ss
s ip
è §
Ġ( {\
ĠThe me
Ġ* =
m ad
se en
E OF
mark down
Ġ Ñĥ
ĠE D
Ġoffic er
ĠDep end
Ġpolit ics
UNK NOWN
up arrow
Ġt error
Ġany way
ant asy
Ġsystem atic
ĠSup p
Code Attribute
lect ric
le ading
ĠF ake
Ġdiv is
Ġteach er
Ġsurround ing
Ġd uplicate
ital ic
sec utive
ĠT IM
ĠB SD
ACT IVE
ĠC artesian
Ġpass ion
Ġprov ision
ra sh
Ġher self
Spec ify
Ġproced ures
ĠVis ual
er gy
ĠJ es
Ġ'/ '
ĠD ialog
Ġtrans formed
Ġpop up
g ent
ĠCo untry
Target s
Out Of
ĠB la
T oday
C redit
p enta
ĠAcade my
Ġmo un
k u
As String
* (
Ġpay ments
g ateway
tw ig
cur rence
agnost ics
Ged mo
node Name
ĠØ ¨
re ction
Ġcon crete
ĠSE LECT
Ġt abs
Cur ve
Ġstream ing
Ġconven ience
Ġdestroy ed
comp any
ĠMem bers
ĠF ederal
ĠName s
the less
ĠMex ico
he t
/* .
Ch ars
Ġa pt
Ġâ Ĩ
Fatal f
je ctions
ĠS ar
count s
ä¸ º
r p
B an
ĠIn clude
Descript ors
Ġag gregate
Ġregion al
Ġp ipe
ĠB ern
ĠC ath
B IND
Ġcons isting
urch ase
\! \
Ġsign ing
Ġvar char
ĠT otal
or ough
to Array
ĠI con
Work space
M ime
Ġli quid
ĠD onald
Ġlo ts
pos itive
S uggest
Pro jection
W T
D uring
Ġsu dden
2 64
Ġco ach
omin ator
ar ian
ĠNot es
level s
F ixtures
ĠW E
Diagnost ic
ĠReg Exp
$ '
Ex tent
start s
ĠY O
ult y
Ġappro ved
Non null
11 3
O h
=\ {
mon d
Un ion
æ Ŀ
ĠIn sert
Ġup dating
ĠI M
Ġjud ge
ra it
d ns
no va
S us
h ang
atern ion
Con current
S el
SE C
Ġgir ls
*} [
Ġobserv able
ĠIn tegr
Ġm ent
con c
sp y
end ers
B F
ad os
ime dia
bra ins
ox y
Ġst ages
ĠĠĠĠĠĠĠĠĠĠĠĠĠĠĠĠĠĠĠĠĠĠĠĠĠĠĠĠĠĠĠĠ ĠĠĠĠĠĠĠĠĠĠĠĠĠĠĠĠ
ĠÐ½ Ð°
:: ~
SY STEM
Spr ing
ĠEx amples
Ġf printf
Ġre new
Dis pose
get C
ar ound
Ġsimilar ly
Ġper mitted
are t
L ex
Ġdiff usion
be zier
b az
dist rib
}/ \
ĠP ush
ĠF oo
Ġ` --
+ '
penta ho
Ġ} }</
Ġin comp
home page
FUN C
Ġorth ogonal
ro uting
f lix
B uffers
v k
lear n
de vices
peri ence
sing leton
Ġperiod s
Imp licit
199 1
Ġinvestig ated
S ensor
set Property
hl js
Plugin s
ĠT re
ĠN ormal
Ġdi agnostic
sh ake
~~~~~~~~ ~~~~~~~~
A tomic
get Path
ĠB ug
arg o
$\ \
SNAP SHOT
r n
indic ator
ĠW idget
sol ution
evalu ate
Ġd ram
Ġl icensed
uck y
f ar
Ġscr atch
ĠYou Tube
LI ED
cap acity
Con v
ov y
Ġfeel s
Ġt ur
AR GS
ĠU UID
] "
Ġrough ly
L IMIT
Initial izer
bound ary
ĠProp Types
/ :
ul um
17 0
ĠTh rough
Ġneut ral
Ġeven ing
80 80
par s
Ðº Ð¸
W IDTH
Ġs ans
Ġn ur
u ation
l its
ver al
add All
ĠJust ice
E scape
x FF
st ory
comp letion
SET T
lic as
ĠAc cept
ĠF LA
Ġcla zz
Ġans wers
Ġpart ially
dim s
Ð° ÑĢ
Ġhelp ful
max imum
00 3
As pect
sh utdown
&= &\
Ġge o
param ref
Ġb are
Sh utdown
> ")
Ġdiscuss ions
ordin ator
r idden
Ġ' ;
M otion
Ġcirc ular
Ġrecogn ized
Instance State
Fin ish
ĠUtil s
Ù ģ
Ĺ ãģ
In herited
Ġinter sect
CA SE
ic ians
Ġg ray
he ast
in vert
SH ORT
ĠP rem
ĠðŁ ĳ
sort ed
Ġover lay
Ġpolynomial s
Ġf ly
m ne
ĠM L
l m
ĠI Enumerable
Ġc ro
serial ized
Ġc f
art s
H AS
el d
Ġan tic
iv ar
HO W
Ġtraject ory
ĠWilli ams
ĠGL sizei
Ġis ot
Ġex tern
Ed m
Ver b
n v
Ġg reatest
Op code
Ġre act
ĠCall back
Ġv ent
Ġ lay
Ġdis ap
n x
oci ate
ÑĨ Ð¸
Ġcomp ens
N ov
pop over
Ġre venue
Ġcons umption
Cur rency
]] ></
/ ?
Ġp ump
Ġform ulation
Ġwork flow
Range s
uff icient
4 000
40 1
ĠSim ilarly
ch oose
ĠRe place
Ġsol ved
Ġpre view
Ġtri es
Ġcaref ul
ĠHo spital
B inder
12 9
x a
Prop agation
cal culate
macro def
Ġsearch Box
Ġhot el
Ġ{ *}
Ġre cording
Ġlarge ly
' ",
Ġk o
P ull
d z
Str ict
Ġin fer
Ġso le
ĠW at
re ceived
IT EM
ĠAss ume
Ġ ------------------------------------------------
Ġad jacent
Ġexec utive
Ġc raft
W ire
Ro les
Ġent ang
Un defined
ge m
C s
Ġb eta
ĠSTAT US
y ellow
ĠC over
Ġa id
Ġatt end
Ġes lint
mux er
Ġ' :
ĠMe an
con sumer
Ġhum ans
M gr
ĉ ĠĊ
aw ay
Ġke eps
M ON
Ġhe aring
r hs
t ow
ig uous
ke eper
d al
is EqualTo
ĠK ar
ob s
work flow
ĠC T
ĠP ublish
publish er
l ater
Ġhome s
") ),
ik a
ĠJ ackson
F old
pos able
A H
ĠW ild
Ġalign ed
Ġco ast
}. }
uto ff
Ġdi gest
Ġre vision
Trans late
le f
Tree Node
re ceiver
Lay ers
weight s
k le
ĠT ax
ph abet
Ġra il
Rem oved
ĠAct iv
que e
Ġd ry
ĠS TD
{ (\
ag a
Out er
r gba
o ct
Ġt id
ar ial
Ph ysical
B ecause
Ġim mun
ĠS IL
Ġprimar ily
l ng
Ġd iverse
track er
2 30
Ġneutr ino
ir q
Ġcla imed
ili ary
Ġour selves
Ġreal ized
left arrow
Ġv it
BU F
Ġc ards
Ġ" *
S PI
a ac
Ġgener ators
Ġsyn thetic
ãĥ ³
Ġfall back
syn chron
20 4
Ġab use
C AT
Ġ ath
mock ito
N orm
ra cy
part ment
ial ect
ins pect
CP P
P ORTED
Ġsur g
Ġref id
art icles
V I
x hr
} ">
Ġext ensive
Ch oose
Ġorgan ized
ĠCarol ina
m isc
H over
Ġco in
Ġcomp osite
e very
o la
ĠPol y
Ġmatch er
Ġcol on
Ġt icket
Channel s
Ġwork space
callback s
ĠInitial ized
key board
ific ial
Ġproportion al
Ġpro ud
ĠAl ert
get Int
min or
ester day
A tt
D TO
Ġne ur
ĠV ULKAN
====== =
Ġcyc les
In crement
P referred
id ity
Ġa ugment
AN Y
Ġdomin ant
K ER
Ġla beled
im ator
re pos
jet brains
Ġclose st
Ġdecre ases
Dis covery
Spec ification
Ġkind s
Ġdrop down
> }
Ġl ived
ĠW IN
Ġserial ize
ĠInitial izes
[ ^
up edia
Cla im
cur acy
ĠD ark
um a
ĠR oom
Ġde veloper
be havior
Ġinterest s
ap ons
Ġmatter s
ĠR et
Ġab c
Ġ"/ "
aaaa aaaa
mat ched
Ġat tachment
Ġh al
Ġobtain ing
M icro
ĠB U
US H
4 50
ĠG rant
Ġsepar ately
Q Name
script ors
Ġsimilar ity
b en
ome ter
alloc ate
ĠC ome
Ġelectron s
Ġser ves
ĠD ynamic
Q T
Ġf ellow
ul ates
=" .
... "
con tract
Hash Set
Ġlif etime
ĠP ur
set State
ĠD al
Le ss
R ich
check er
ee ded
J NI
L azy
Ġg ateway
16 5
Ð¾ Ð½
UB LE
Ġflow s
H om
h fill
ĠH D
release s
List en
Ġk ing
Ġget Name
Ø§ ÛĮ
d am
Ġser ving
Index Of
CK S
, ...,
ĠVirgin ia
ri ers
Ġv ast
ĠEd ge
av g
ĠUn supported
Al tern
Ġalloc ate
Ġrecon struction
Assert ion
st ock
Ġp our
S ens
Ġh ls
Ġsp rintf
ĠO ffset
Ġconvention al
Ġstrug g
Ġme mo
Ġaccept s
Ġdriv ers
start sWith
hem atics
or ial
Ġhe ading
Ġb at
exec utor
Ġexpla ins
cast le
ĠK im
bootstrap cdn
ĠBase d
ĠPar am
Ġ ----------------
b ow
Ġestim ator
ĠChar acter
ular ity
é Ĺ
ASS IGN
k k
ain ing
rep resent
ex clusion
R ay
A cknow
Ġconcent ration
Inf os
Track ing
ĠVAL UE
Ø§ ÙĦ
View er
valu ed
mark et
IC S
On line
To Array
L int
Ä ħ
Ġme dian
ĠO PT
Value Type
erm i
B UT
clean up
Ġme ss
Ġen semble
ĠRE ST
Ġre ducing
Ġar ms
mult line
Ġcon servation
Exception s
Ġu id
Dir ty
alax y
\ ",
de ployment
ĠInst agram
ĠThrow able
Ġn arr
Ġsur prising
Ġbe an
d ual
W D
2 11
E val
ĠLab or
Ġjust ice
de gree
Ġ( &
Ġwill ing
Ġa vailability
2 24
Ġne arest
Per formance
2 32
ĠL ord
ĠChar les
ab eth
ĠS K
typ ed
> ?
30 1
; "><
Ġpro x
WE B
up grade
Ġsee king
Act ual
ĠB on
dom in
p edia
Ġend points
ãĤ ¹
q t
work ing
¼ </
Re peat
Ġpl ants
Ġag greg
Ġe lev
Ġauthor ization
min ute
Pe ople
J av
"> $
Ġfe at
Ġconcept s
O G
Ġra c
CT RL
Ġw aste
Ġinj ury
ir s
oid s
system s
L uc
U tf
Des ktop
DA O
ma king
che ster
ĠðŁĳ ¼</
ĠM ER
20 3
Ġisol ated
collection s
Foreign Key
filter ed
[ @
Ġstruct ural
lo v
Ġvol unte
Ġrelig ious
ĠAd am
Ġengine ering
Inspect or
li ms
Ġ{ :
pro portion
cre ase
Ġsu it
Ġbring ing
b j
ly mp
ile ge
mit ives
ĠCh ief
at iv
B roadcast
)} (\
Work flow
ĠDis able
Ġorbit al
å Ģ
Ġ{} ",
Hash Code
p ow
ĠSte ve
ĠG ar
tr ight
Qu ota
w heel
Ġdistrib ute
Con cept
Ġcontain ers
}{ {\
ĠP anel
get All
Ġalgebra ic
fin der
Ġwalk ing
ĠM ic
UR POSE
ER O
draw er
Ġcollabor ation
Ġsimp licity
GR AM
Ġhom ogeneous
YY YY
Ġse g
b idden
Bo ard
ĠB ooks
="# !"
h ooks
ĠP S
ĠE valu
Ġconsider ation
Î ¯
Spec ific
Ag gregation
ĠMark eting
Ġsh apes
Ġh older
Sub scriber
ctx t
ĠAut om
u des
ĠPro fessor
Ġmach ines
pro mpt
Mac ro
ĠExec ution
Ġpro fit
Co verage
t iming
Ġs z
Ġget ter
LE T
Ġanaly tic
S ibling
Ġs ac
Ġdanger ous
dec imal
ĠSequ ence
L ANG
Ġc pu
Ġsw iper
Ġg ro
R ST
T ake
ĠD id
Ġp ersistent
Y LE
i y
CCCC FF
ĠP rep
Ġview port
æ Ń
ĠN iger
CA ST
Ø ¨
un safe
ol y
+ $
ĠF L
Loc ations
oo thing
Ä ĩ
type col
Ġdeal ing
Î º
Ġer a
IS O
cur ve
p ublished
w g
ro bot
Mar shaller
{ .
mid rule
ur is
ĠĠĠĠĠĠĠĠĠĠĠĠĠĠĠĠĠĠĠĠĠĠĠĠĠĠĠĠĠĠĠĠ ĠĠĠĠĠĠĠĠĠĠĠĠĠĠĠĠĠĠĠĠĠĠĠĠĠĠĠ
æ Į
output s
ĠE ric
min i
i ator
2 60
So ft
\, ,
ĠĠĠĠĠĠĠ Ċ
Ġoutcome s
Ġthe ad
Ġ' *
ĠIt aly
Ġindex es
h us
Ġm ort
________ ________
Ġex ceed
>< ![
ian o
Ge V
ĠS ide
Ġwe ar
Ġst im
el rte
Ġguarante ed
ĠCor ollary
Prob lem
Ġincor por
Position s
ot er
ian a
Tab s
no ise
ĠP l
fra ction
Text Box
Ġt iny
ĠF unc
T rim
Ġla ser
Ġarriv ed
> ]
ĠIm ages
Ġ\ [
resol ver
Ġstand ing
Ġfrequ ently
ĠL ittle
Ġang les
Gu ide
ĉĉĉ Ġ
LA ST
Ġpres er
Definition s
F our
"> [
ighb or
Ġh arm
Ġcompar able
âĢ ĭ
Ġtr uck
bold math
Sec ure
CON TEXT
ĠNot ice
ab e
Ġobvious ly
it ize
te en
serial izer
Ġpro position
Set ter
em a
Rep lication
Ġaff ord
class List
Ġplan ned
x si
P ublished
Ġpropag ation
Poly gon
Ġnear by
Ġcontinu um
Ġs ight
Ġh ooks
er ase
Ġhundred s
encrypt ed
ĠCan adian
Stud ent
sh im
M Q
> ");
ĠSh ape
Ġc trl
:: _
len ium
Ġpul se
Ġf ru
ĠI V
Ġy outh
g ms
Key Value
render ing
ĠVol ume
Ġpublic ation
get Item
Ã ¸
Ġresc ue
f h
per m
Ġte levision
ĠBe ach
st y
Ġstr ange
id ad
ĠF ac
Ġal i
Bo th
MA IL
cor ner
$ ^
M a
Event Type
ĠMETHO D
] ^
Ġauthor ities
ĠD a
An g
bin om
ĠGeorg ia
Enumer ator
ĠNe ed
Add resses
Ġbound ing
Ġ ~\
Ġimp ly
Ġillustr ated
213 07
pres erve
H I
be c
IB LE
oun der
Ġsur ve
ĠEmp loy
Ġcol le
En cryption
Not es
IT NESS
gy pt
comp ressed
rang ian
Http Servlet
Ġclip board
ĠB C
ĠH ave
Ġtra il
ĠDe veloper
itution al
gra ded
} ',
}$ \
Ġemploy ee
Ġ' ../../
ext ended
ĠP resent
Ġcheck point
Ġinterpre ted
Ð Ĵ
Rep orter
> ".
Ġcancel lation
Ġin duction
Interface s
c ritical
15 2
17 5
May be
Ġph iloso
F all
L ng
PHP Excel
Ġr ating
o y
ER ENCE
IN X
Ġq ub
ap ore
S izes
ĠC lin
A IL
Ġthought s
{ }{
á º
at trib
>> >
ev in
Ġabsor ption
ist a
Ġ[ (
Ġdisplay s
Ġneighb ors
n ullable
S i
Ġs q
è¦ ģ
pro viders
fore ign
Ġadv oc
ä ¹
ĠLIMIT ED
Ġcorrelation s
z i
\ },
é Ļ
4 80
Conf lict
k b
Ac celer
B etween
Ġse p
Display Name
Integr ation
T ASK
wh o
ĠEx pr
Ġse l
Ex act
Ġst abil
Ġstr len
ĠCO MP
ĠQuest ion
in ction
Ter ms
p index
Al ready
Co ordinate
Cor rect
m alloc
RO WS
Ġch a
ĠNew ton
ĠID s
ä ¼
Ġc riterion
G lob
Ġord inary
tright arrow
Ag greg
is y
ĠG NU
A verage
Ġt ack
cite alt
="@ {
F s
g pu
m otion
Al location
Ġform atter
Sw ap
/ </
Ġun iversity
for um
6 55
Ġs now
ex emp
Ġs ad
ĠConst ants
jav ac
ic ian
xy z
O Auth
Ġview ed
>: <
Ġ" @
arb age
Ġgra de
Ġdistingu ish
ĠFIX ME
Ġc art
Pr inter
14 3
å ¾
Ġd iversity
ĠOpen SSL
ro g
j p
}[ !
pp ers
Ġtrans verse
SV G
M irror
Ġimplement ations
12 6
ve als
ĠG O
var rho
Ġrep lacing
ren ess
" &
Ġs sl
Get s
Ġfib er
ED IT
M al
Ġg iant
ĠUs ers
Ġacade mic
W ater
p la
ic an
DE SCRIPTION
ĠWil son
ĠTra ining
scal ed
W est
Ġindependent ly
ĠDo main
ious ly
h olds
Ð ¶
IN TEGER
ĠPro gress
Ġsp ending
Ġfew er
H ierarchy
u pt
ib er
W W
Ġl p
å Ŀ
ĠCatalog ue
Plan e
ame l
ĠT S
ult ural
i h
Ġoffic ers
Full Name
Ġbuild ings
Ap ache
ra ises
Object Meta
PRO CESS
v b
M AT
}^{ +
account s
raw ler
st ation
Ġd ensities
ĠCh ampion
ten ant
Ġdomin ated
que t
Ġnormal ization
re cogn
pro pto
el la
li ament
B LE
ost er
Ġcircum stances
(' -
ST D
Ġsub space
Ġturn ing
Ġs f
ĠSur vey
Ass ociation
el if
C art
P ART
Ġimpro vements
ĠBrit ain
IM ARY
Ġf atal
AL IGN
Ġlog o
ok ing
ĠL P
}{ *}{
Ġdeb ate
U IT
Ġ' __
Ġresource GroupName
ĠB ol
Ġv a
Ġst re
PE G
ĠS PI
ST M
Ġfrag ments
æĪ Ĳ
H L
\ ">
Ġw inter
Ġh int
ĠRepublic an
symp ad
av or
Ġan onymous
it age
Ð ¡
Ġh ousing
Ġch ampion
Ind ent
A tom
Ġsh o
Ġenh anced
PR INT
Ġboot strap
au di
asci i
Contin ue
/ @
over set
] ],
Ġsplit ting
ĠC M
ENT S
Ġvolume s
C AN
\ +
g ar
spec s
app oint
Ġv el
s ink
ĠLine ar
| _
ĠF ail
comp uter
16 6
D K
ĠAl tern
PO M
__ );
ĠE S
const raints
Del im
Ġal ive
Ġb aby
ĠAnd rew
ĠSh im
INST ALL
y ield
(" ./
RA W
photon ui
Ġpro spect
Ġ" ../
orange hill
B i
D N
T W
ç ī
orangehill dev
Ġ( __
ĠĠĠĠĠĠĠĠĠĠĠĠĠĠĠĠĠĠĠĠĠĠĠĠĠĠĠĠĠĠĠĠ ĠĠĠĠĠĠĠĠĠĠĠĠĠĠĠĠĠ
temp erature
Off ice
æ ģ
ĠS ync
is olate
get Field
ĠP NG
leq slant
Pre c
key frames
ST AMP
Ġrelease s
Ġmembers hip
ĠEd it
Ġil legal
ĠM ail
Start Time
C li
Or d
ĠA SC
Ġde cade
M ARK
Ġs la
æ Ģ
Op acity
St roke
Ġon mouse
14 6
Part icle
itu des
p ure
Ġ\ {\
con trollers
Ġan cient
Ġdirect ories
R IDE
MO D
Ġcor porate
l ighter
Ġy oun
D uplicate
ĠS on
u las
k ube
der iv
#### #
conn ector
per formance
Pro position
ĠS R
G LOBAL
Ġ= ========================================================================
Ġcompreh ensive
Ġmis sed
1234 567
L ife
e u
ĠF ish
â Ĩ
In ventory
}) ^{
Ġfun ctor
IR T
i at
et t
pro logue
Ġres istance
=-=- =-=-
W elcome
status Code
form ing
ĠD WORD
Bro ker
Ġf er
$- $
m ixed
Ġ[ _
Ġsearch ing
Ġ? ?
Ġscen es
jav adoc
D an
Ġo x
Ġre ce
Ġplas ma
Ġcom mut
Ġcho osing
Ġrat ios
Pi pe
Bind ings
Ch rist
LA RE
Ġdef e
big cup
Ġmar ried
Ġexcit ing
Ġne got
jo urnal
Lock ed
CH ANT
soft ware
2 10
subNav List
bit map
Ġo mitted
Bound ing
Ġcut s
ĠField s
Ġbuild s
æķ° æį®
ĠJose ph
Ġland scape
it i
P ARE
files ystem
Ġho les
M ajor
Un supported
Ġd ance
rest rict
li braries
Ġb s
Ġtranslate Y
cent ral
Ġse es
Import s
Ġpsy cho
M ATCH
ãĤ ĭ
omb re
T or
Ġ$ ('
Ġst ick
ĠIn tro
B ank
Ġacknow led
rep rene
Sp acing
Ġac commod
Account s
Ġb attery
Ġwh itespace
Ġport s
Ġe g
Ġst retch
sp arse
Ġe lastic
Ġa ims
Ġch air
Ġ` $
Ġdiag rams
ĠR ole
Ġis land
ri z
Ġadvert ising
å ¸
fla re
ĠL ore
d ashed
ĠD ir
Ġsql ite
Ġfe as
Ġax es
Ġassoci ate
Ġfor th
de comp
d ll
Ġf lavor
Up grade
ĠLo gin
Ġdeath s
Ġslow ly
E p
Ġequal To
xx x
Ġprov en
3 75
search Box
Condition al
expect s
ĠQu ant
le w
Ġpro ducing
ĠF all
script scriptstyle
Ġmark s
ĠAss ign
b rowse
model Version
ĠM icro
text up
SP H
ract ice
Ġrapid ly
form er
ĠAUT H
S al
Ġro uting
Ġf ell
FE ATURE
vari ants
ab a
ĠO B
15 5
DA Y
T rip
Ġirre ducible
co ord
end ment
Ġgraph ics
ĠS can
ĠSk y
DI V
ĠFrancis co
be cause
Î ³
Y M
Ġexam ine
åĬ ł
do xygen
M ass
ĠPackage s
13 3
C ref
ĠR ET
Tool Strip
Ġbus y
f link
M c
ĠD ue
Ġstd out
ĠSpan ish
Ġhost name
P N
con ver
BO X
/ ',
\ [\
Ġs park
ĠDe ad
Ġinv ocation
AR M
Ġre serv
Ġgra b
a ug
D ocker
lab s
19 89
B ug
Ġvalid ator
Big l
Ġto ugh
Ġre interpret
Ġac id
. ">
ĠP URPOSE
ho le
re start
ĠGe o
ulo us
ĠEx tract
Ġpl enty
Ġhappen ing
B en
ap ro
ar on
F lash
ĠH arr
sc ience
Ġ? ></
14 5
o mp
Le af
COL UMN
ĠBuild ing
Ġac cessed
Q String
Ġ_ ("
Ġindust rial
ĠD at
Ġint ention
Ġident ifying
ĠGit Hub
Call er
Ġt iming
un i
Ġsp ell
sp read
util ity
P rom
l hs
B and
\ }.
ĠCal cul
Ġmin i
ĠFile s
ĠR aw
Ġindex ed
Ġwe alth
)-- (
Ġc av
ul f
Ar c
Ġimport ed
A m
un checked
Ġoptim ized
ĠF air
è¡ Į
G rant
Con str
-- ">
ĠTh anks
åĲ į
ĠS G
ì Ŀ
Ġcomplet es
y ers
valid ators
K S
Ġvisit ors
Ġra in
Ġins ight
Ġmk dir
her ence
D ark
ol er
Ġed u
ĠB oston
Ġd Ã©
Ġ urban
in son
list item
Ġq view
Americ an
Ġp ictures
Ġre construct
Ġp ushed
ĠR EQ
TE MPLATE
Ġun e
w orth
Ġatmo sphere
Ġfriend ly
ĠFin ancial
Ġs aving
Ġun icode
Ġexpect ations
Ġretr ie
Ġmap per
ĠV ER
ĠFunction s
Ġex cluded
(" {
FORE ACH
2 25
com munity
Ġglyph icon
Icon Success
Ġh over
Ðµ Ðº
S LO
Ġnot ifications
Ġbel ieved
op eng
Ġcluster ing
ĠArm y
Ġscal ed
pre d
err no
Ġins urance
prov ided
Ġtemp or
ĠImp ro
Adapt ers
Ġdisp ersion
ĠP sy
Gener ation
C Sharp
Match ing
SR C
tain ment
iem ann
Quant ity
ĠCustom er
Ġse at
DO C
activ ation
ĠCol lect
l bl
Ġmill ions
Un install
Ġ% (
Ġcharacter ized
gol ang
ĠE dition
Ġwor ry
ĠG PIO
Ġan imated
Ġ ride
send coins
Ġposter ior
Ġpro ton
author ization
Ġy ellow
Ġassume s
s andbox
Ġing re
Ġremo val
Ġ' \\
Ġh r
ĠD ar
ĠC UR
Ġp d
at z
ot ype
arr ant
F ULL
da o
Ġnew Value
Ġfight ing
Ġtra iling
ãĢ ģ
Ġm g
he art
has Class
ä½ ¿
ĠTH REE
Ġca using
Ġuser Id
Blue tooth
ĠK ind
E AR
Ġemp irical
out s
c z
Â ®
ĠT X
P s
me ssaging
ĠS and
gest ure
Ġpro test
skip Nav
Reg Exp
P ick
L atest
w rapped
ich ael
Ġint elligence
def n
Ġpop ulations
ĠPy Object
al ter
Ġmod ifications
Ġphot ons
sub st
un set
ĠNot ification
M id
ĠMet adata
Ġfall s
Ã µ
Ġfilter ing
Inter pol
ĠSta ff
wit ches
T urn
Ġs av
Ġsymp toms
Ġd il
ĠQue ue
ft p
Config s
QU ERY
W ER
ol ation
ĠF UN
Ġcon secutive
14 9
Tra de
Ġtell ing
Index es
P IN
ĠCol umb
f an
o h
ar ator
Ġp lots
contains Key
ĠDr ive
Ġv i
tra its
Property Name
Ġp g
Scal ing
Å Ļ
Ġprob abilities
bs ites
å ·
ĠWith out
Ġstead y
ut ers
ĠSch olar
ĠTe le
PI X
inter op
Ġprotocol s
EN UM
f ocused
Re call
AD ER
ĠB atch
Ġanaly zed
ĠH or
build ing
Ġalgebra s
Ġw inner
ĠExpect ed
ĠState ment
EN SION
e ast
Ġneg lect
p iece
Ġf acing
ra ils
unt ing
ck o
Ġun used
Ġbg color
Un icode
de ad
ĠEx ternal
Ġclass ifier
unit test
ĠA ge
Start ing
Te le
cred it
pro filer
cyc ler
_ "
Ġb ond
ĠTh ose
ierarch ical
(' _
R D
ĠP assword
'] :
S ING
Ġas ynchronous
Ġdec rypt
as a
Ġconst expr
ĉĉĉĉĉĉĉĉ ĉĉĉĉĉ
be haviors
op p
ber ry
clo sing
æģ ¯
Ġst mt
Ġtitle s
ĠEqu ation
& &\
ĠExec utive
Iter able
âĢĵ âĢĵ
Mov ie
map reduce
IC ULAR
Ġt ill
Par allel
Ġ ic
Ġwonder ful
ĠT CP
ĠStud y
è¡ ¨
Ġun a
ĠS n
ĠIt alian
ĠCont ract
IP v
R x
found ation
SUP PORTED
a rency
b uffers
u ches
UN IT
ne ar
Ġcitiz ens
Q uality
Ġenumer able
ĠS outhern
Ġport folio
Ġc rypt
ĠAPI s
ĠResource Manager
IFI ER
ch romium
T oo
Â ·
Ġ" #{
ĠPri me
C OR
Object Type
Ġdig its
ĠG ro
an imated
? (:
d ue
Ġsepar ator
Ġpick ed
ĠS afe
J oint
Ġdrug s
dd y
Ġmus ical
S IG
ĠJ r
N an
W ay
Ġv illage
} ],
: ]
ĠC I
Ġtalk s
Ġtun nel
Ġintr insic
ĠSQL Exception
Ġ{? }
Ġex emp
IconSuccess Encoded
ĠâĨ Ĵ
ac er
dis miss
PR I
IST ER
Ġb b
ĠEx press
liz abeth
f loating
ĠR oot
CT L
Ġprogram me
Ġv ice
Access ibility
Ġvis bl
w y
lat t
Ġedit ing
CHAN NEL
k r
Ġnav igate
ĠLL C
__( /*!
ST ORE
`` .
^* _
ĠW all
: !
Ġ< >
prec ation
Ġre cursive
An alytics
vert ices
ĠDe ath
ĠMon te
Ġcrow d
p otential
Nd Ex
ll vm
Dim ensions
author ized
in el
Exp licit
k ra
\ }_{
ĠG PU
Ġther apy
ffic ial
serial ization
ne cessary
im ers
Ġr b
Ġlog arith
Ġco variance
can onical
ĠIllegal StateException
t id
Ġs y
term inal
x sl
an es
Ġguid ance
Ġassert NotNull
ul atory
ex change
ĠCal endar
Se ek
ĠS creen
imp licit
Ġpre ce
uil la
ĠKing dom
table View
ort s
W ild
CHANT ABILITY
user content
test ng
Big r
m v
ĠCH AR
ĠD MA
FA CT
ĠS ocket
åħ ¥
ĠB ootstrap
Ġvar s
Ġi Phone
') ),
mar shall
orient ed
P lain
Ġ" ]
gin es
æİ ¥
ps is
ren ame
Ġbit map
di ctionary
AB C
Ġrestaur ant
) }$.
ĠFe atures
E m
t g
æĸ °
f name
Ġse aled
} <
Fe edback
not in
D ifference
ĠC at
Combo Box
null ptr
Not ice
get Resource
Ġcap ability
ĠS ound
Ġtra ding
(" ");
ĠTra vel
Ġconcent r
im o
un ge
ic ast
ll ing
MAG ES
Ġte aching
Di gest
Ġbas ically
erm ine
Service Client
Ġoff sets
ĠAdmin istration
ow ski
" })
æ³ ķ
ĠCon figure
Cap abilities
in ria
13 1
k ern
me th
S parse
spec ies
Ġfair ly
Ġconsequence s
Ġrep orter
666666 67
ĠF ox
ĠAdd itional
D ummy
spon sor
ĠH ad
du ctions
Ġtal ent
Ġslo pe
exclude s
Ð½ Ð°
et ched
se ud
Ġlo ops
Command Line
Ðµ Ð»
n ical
V ED
duc ers
S coped
Ġup coming
Ġsaf ely
DEF INE
+ =
Ġviol ation
P en
Ġo ct
Index ed
Ġapprox im
R ing
ĠC hem
ĠA B
Ġlimit ation
>? [<
Ġ utf
-- )
Ġ\ }
Ġinfe ction
ĠB rand
Ġa ircraft
ĠRe v
sp rite
sh rink
ĠCom ments
Ġif rame
we ets
IAL IZ
C ut
Ġre in
Further more
y ll
ĠTh ank
F acebook
ĠD R
ĠDis patch
ĠS chedule
Un iversity
Ġv on
Ġreson ance
ST OP
ik es
00 4
Ġplace ment
Ġtro uble
Ġeigen value
w char
H ASH
fin itely
ench mark
ĠMod ern
Ġany more
ĠOr gan
ĠLay er
Ġfor k
Ġac quired
Ġsever e
Ġten ant
ĠN C
cell s
j it
he at
LAB LE
_{ +
//////// ////
st atistics
13 7
int on
ĠSe a
Ġarg ue
k ill
g row
ĠD NA
Ġcoll isions
Ġturb ul
A wait
Ġt c
Fa ult
ĠB ind
ĠCon trib
Ġdig it
ĠO VER
S py
Ġtranslate X
è ¾
Ġequ ally
Ġle ague
ĠN UM
Ġv endor
; :
Ġincreasing ly
s imp
ĠW R
Ġexplor ation
ile y
im its
P ressed
inst alled
ĠM att
Element Type
Extract or
A ug
ĠAdd itionally
Ġdecre asing
ĠQue en
ĠT ok
Ġle ts
lu ent
/ ${
agn osis
w ml
Ġperfect ly
Ġp ersist
lo on
Ġencounter ed
ãĢĤ </
Ġinvest ors
Ġimag ine
http Request
Byte Buffer
Ġn b
Ġreg isters
default Value
Ġ' &
tern oon
e se
v v
OPTION S
à¥ ĩ
th ink
Cap ability
ot ions
Ġlength s
ãĥ Ī
n th
ĠTra de
sim ilar
ĠSt an
Ð°Ð ·
text normal
Sub st
$ ^{
ard ing
ho ma
22 2
Ġreal ize
oun tain
ra cle
tag Name
Ġappe aring
Ġconver ges
Is Valid
il inx
Ġtr ick
Ġpur s
cl ing
assert Same
Ġlat ent
ĠM ouse
str cmp
(" _
ĠComp are
ĠA sh
Foot er
ĠR om
Ġma intenance
Ġdetermin istic
Ġm utable
ĠModel s
ĠI o
Ġp ray
j u
Ġp reference
Ġin tern
Key words
WA IT
/ ,
F lex
Ġ{ &
Ġi put
Log s
Ġvol tage
f req
Ġcount ing
exec utions
Ġlos ses
type NameLink
Ġimplement ing
Ġprint ed
Ġcode c
Ġchain s
ĠC ra
oc racy
g wt
Ġb ath
Ve locity
Ġp ic
comp at
Ġcirc les
sub equations
Decla red
& )
TYPE S
Ġult imately
String Utils
30 6
Stream s
Ġexhib it
Ġre ar
Ġa met
Ġ* (
b ol
Ġat tor
Ġph p
room s
W arn
s ensor
Ġs ister
19 88
wa reness
ĠI l
is abs
:: __
g host
ĠEx change
st ro
Â Ģ
ĠCo unter
Ġw alls
'=> '
Ġre load
eng ers
15 7
ĠR yan
stream s
] ])
ĠK ong
Rout es
ath on
ĠCo ast
++ ){
ma de
Comp act
ĠLag rangian
Ġm il
p ager
ĠP acific
cent ric
activ em
Ä Ļ
ĠH ilbert
FH IR
target s
Ġme s
As sets
Ġg od
8 75
Or Builder
8 000
Ġm outh
Ġside Weight
= ${
b la
w l
is lation
ipher al
et ies
sw agger
ra ble
L and
Ġt um
Xml Element
A pr
00 7
Ġcommit ment
fo od
Ġvalu able
Ġt v
åĪ °
de crypt
ĉĉĉ čĊ
Result Set
Start up
Ġexit ing
rott le
ĠMER CHANTABILITY
Ap ps
Ġguide lines
ION S
the ory
j an
Ġtable Name
l ift
insert ion
Ġpack ets
Ġpoint ing
al bum
ma kers
Ġdot ted
end ants
ĠCh air
Ġinter active
Ġman aging
Qu ad
" \
pro tect
ĠPr ince
lo de
Big g
V L
col One
Ġcomb inations
æĸ ¹
Call s
ĠHot el
tr unc
ĠAg ent
G ap
Ġinst itutions
Ġarr ive
ĠT uple
åı ¯
Ġstation ary
Ab ort
ĠText ure
Sub scribe
u ario
Ġworld wide
Ġband width
D WORD
"] ["
Ġe u
text Color
Ġcom mission
el ian
Ġm ysql
Ġco ding
ĠF ront
ĠA CTION
SPH INX
Â »
if ting
7 20
or bit
ad ium
ans as
å ī
ĠArt icle
ht m
SH IFT
t icket
(" ",
is ations
Ġop ens
her o
Ð¾Ð» ÑĮ
ar x
Exp ress
rf loor
Ġcre w
ĠL ooks
In strument
ĠT EXT
Ġg ran
ĠURL s
able View
dir ty
Ġg ift
St udio
comp arison
H i
Ġalle ged
N s
und ant
CT X
IST S
Ġoptim ize
F requency
i am
Ġes c
Ġpo se
Ġtri als
: .
ide a
up al
ĠG reg
ĠV e
nes ses
Ġres ume
Ġsur prise
Ġback ward
Ġh ate
I CT
ĠAuth entication
ĠR od
so ap
MEM ORY
L ifecycle
EM ENT
Scan ner
key Code
Ġcons ume
eh icle
connection s
ĠF ermi
x d
Ġe state
Ġmar riage
>& #
ĠS u
ĠComp uter
ĠNot Implemented
U AGE
def s
è ¨
Ġc ros
Ġmultip lication
Ġspher ical
hard ware
âĢ¦ .
med y
Temp lates
s entry
ak i
13 4
ps z
Ġac cretion
ĠSw ift
ĠB ul
Ġinf lation
Ġm ine
Ġt rib
38 4
assign ment
Ch an
Ġre aches
Res ume
PRE C
ĠIMP LIED
Ġcoup lings
Publish er
stud ent
ĠA vailable
N AM
Ġca ption
be am
40 3
Ġde but
ĠEq s
Ġcomp ri
lf loor
ĠM ah
Ġre min
is en
Web Kit
API ENTRY
R U
ag en
Ġpartition s
Ġcr ystal
umul ative
ĠH op
ĠRe vision
19 3
Ġvict ory
ĠC MD
R oll
Ġbar rier
Ġs alt
id le
full comment
Bound ary
Ġbre ath
ĠDemocr atic
ĠPer formance
ĠMark ov
Ġ{ $\
(' :
parent s
d ip
Ġ/ ^
Pro viders
col l
ÑĢ Ñĥ
ãģ Ĺãģ
is i
Ġco ffee
pro be
n ie
Ġin jection
({ '
Re search
- }
se to
RE SP
Ġsegment ation
( |
get Content
Ġintegr ity
Ġfall ing
Ġm ile
× ©
ĠS UB
Version UID
Ġvari ants
B lank
Ġimpro ving
Ġfeature d
( _.
Ġbe ar
Ass ume
full screen
Pointer Exception
sc ious
b orn
End points
å¯ ¹
Ġbran ches
ĠPART ICULAR
m or
Ġs weet
Ġside bar
dr ive
ĠP ak
Ġhe ter
P ing
Ġf urn
Return Value
Ð°ÑĤ ÑĮ
) }$,
is Function
om s
Ġex ceeds
BUILD DIR
X Path
Ġ$ <
Ġnon zero
Ġmark up
Tr ust
ÏĦ Î¿
Ġunit ary
Contain ers
ĠF E
Ġsup ers
C ycle
Ġde vi
UR ATION
En dian
T G
Ġdetermin ing
ĠMov ie
Ġproject ed
Ġcor rupt
R B
Ġtab index
Ġsem antics
ĠS PE
Ð°Ð ²
F M
ĠI SO
n ick
13 9
w ifi
uc le
Ġconcat en
Ġris ks
the y
Web API
>: ][<
P AT
Ġho spit
W ar
ab ul
ĠTra ce
ĠC ro
}} ,\
Ġf p
class Frame
bul k
Work ing
è ½
BUT TON
comp uted
net ty
Ġsit ting
ĠB al
lo be
ok u
ĠG P
cloud flare
ĠMon th
B ootstrap
Ġne uro
"] :
Ġ(* .
Ġplott ed
Ġholid ay
n umbers
J MS
M usic
=" __
v l
Ġchar s
Ø§ Ø±
Ġn od
ĠJ OIN
~ &
g m
ĠPRO VID
ĠKore a
Ġdol or
( /\
ĠR en
Level s
Ġquot ient
co ck
(' %
Ġgeneral ization
Ġserial izer
if olds
Ġch iral
Ġn ob
ĠA GN
ĠF ra
ĠUp dates
T un
urn e
Ġcomb ining
activem q
ep och
Ġqu as
Ġglob ally
Ġw ins
Register ed
Ġcommit tee
ĠD river
symbol s
ç ¤
altern ate
Ġdiver gence
n ik
es sel
ĠLe ss
us b
ren d
Ġac cord
Ġshoot ing
ä½¿ çĶ¨
Re cv
ĠOper and
, ~
ĠSe lection
Ġmon o
Follow ing
ra q
20 8
Ġx s
re cent
ĠO lymp
j om
Ġcompet itive
N eeded
j peg
ÂĢ Â
Ġ ])
Ġsh ader
Par sed
15 1
ch ip
Int Ptr
b mp
ĠT ro
k v
Ġs and
Ġbel ie
x path
ort ex
ĠX XX
co cos
co ords
ĠT LS
EN ER
ä¸ ĭ
Ġconst rained
ĠWe bsite
agent o
on ing
ck e
iv ari
In variant
fin ement
t oday
Ġcons ent
NS Mutable
uilla ume
ĠW ik
rib le
å ¹
view er
Ġpul led
19 4
az e
Ġcancel led
Ġantic ip
ig o
$\ ,
ä¸ Ĭ
ĠF S
IN F
sph inx
un wrap
Code Dom
\, .
N orth
CHAN GE
est imate
Ġnumber Of
T mp
pre ter
Ġw s
ex perimental
add le
V k
Ġb link
cdn js
al ib
Ġar ise
Ġinnov ation
Con trib
graph y
60 1
MEDI A
ĠM u
Ð¾ Ñģ
Ġsuc ceed
Ġrecogn ize
Ġ" &
Ġprincip les
ĠEx port
ac cordion
Ġgood s
a que
Ġcal ibration
Ġevery where
S ocial
Ġret val
d ma
Ġtren ds
r h
Ġf l
ĠH tml
Ġneighb our
M vc
ĠD eter
M appings
[ ![
bas ename
Ġ*/ ;
Ġcent ers
Ġwat ched
h uman
C y
= */
Ñ į
De ad
ĠImmutable List
Ġp references
Ġdis connect
ĠH an
H ooks
Un grouped
sp ro
ĠH istor
Ġreal istic
he ses
Ġre write
19 87
itch en
I OS
ĠJew ish
ĠP i
github usercontent
Ġim aging
TRAN S
Ġtrans ient
ĠBro ok
>. <
be ing
Middle ware
tr ip
List Item
FILE S
}) =\
Ġfi ction
ĠE th
Ġacceler ation
ĠD ub
Col lision
effect ive
ĠB l
Ġresource Culture
Mon o
Ġinterpol ation
Ġre veals
the size
Ġacknow ledge
Ġser v
bra cket
De vices
In side
ĠHen ry
Ġteach ers
es ium
del ivery
Ġwit ness
il io
ĠI ssue
! )
st retch
Ġco unty
ĠBy tes
spher ic
Ġadult s
ran e
è® ¾
co hol
ag on
Ġsamp led
Ġrepro duce
Ġde fer
ĠNav igation
SECON DS
Ġscient ists
m ation
cor relation
Ġ× Ķ
se lenium
ĠĠĠĠĠĠĠĠĠĠĠĠĠĠĠĠĠĠĠĠĠĠĠĠĠĠĠĠĠĠĠĠ ĠĠĠĠĠĠĠĠĠĠĠĠĠĠĠĠĠĠ
Ġfile d
ĠR ound
O W
ĠR uby
j ump
Ġsome where
à¥ į
T witter
memItem Left
ĠCON TRACT
Ġin hib
Ġbeaut y
Ġ# ##
, %
pre ttify
ta stic
Ġcenter ed
ĠDiv ision
Access Token
R TC
| _{\
** /
j ena
Con t
B el
Ġn d
Return Type
ĠSh are
ĠW i
Ġinvol ve
min ent
ĠAn t
A ir
Ġd omestic
Ġch ose
burg h
Ġp x
P t
reg ression
memItem Right
Ġd p
re pr
Ġdifficult y
: {
g md
Ġdi ameter
}} /
dist ributed
dev tools
SO CKET
A ware
google ads
en kins
Ġexec utable
} ~\
Î ®
Ġtyp ed
Ġd yn
V m
}} =\
Ġuint ptr
A cl
w c
ASC II
Check Box
ãģ «
if fs
exemp lar
tra ined
Ġent ering
cons ider
ĠFa iled
AC L
ĠPh ot
Ġjust ify
ĠL ap
so lete
Ġis omorphic
scroll Top
Aut ow
Ġfe es
2 80
b uff
Ġ" ).
Date Format
ĠBra zil
ST YLE
Mark up
Ġde coding
Ġresol ver
r df
Ġg amma
temp ts
A sc
// -->
ĠNew Page
ĠCal culate
Ġ========= ==
OnSearch Select
ĠB and
Ġ âĢĻ
ĠAt tributes
Ġflat ten
f re
co vers
Code Analysis
v est
Ġr t
ĠF O
ĠR ot
Ð ŀ
ĠCom Visible
d ifference
sm ooth
Ġant ib
p v
insert Before
Inter ceptor
Ġb urst
PRE V
Ġv oting
ide l
ĠNor thern
im ap
Ġroom s
Sol ution
h ist
Ġor ange
ĠAg ency
of ill
Sing leton
Ġcorrespond ence
15 3
ĠCap ital
ĠCh apter
ch r
v dots
Ġco al
ĠE mit
Inter action
en ix
Ġst ations
Ġpa use
Ġlo sing
Ref s
LA S
h or
oper and
LE X
Ġvalid ity
ĠB us
Writ ten
Ġw ake
Ġst orm
ah oo
le ad
ĠM UST
E F
se ason
AL LOC
¦ Ĥ
Ø ´
ib us
w esome
Ġstudy ing
b ias
n or
mt p
COM PI
Ġdist ort
ĠDeter min
C atch
L G
Ġfra ud
IV ATE
Ġn pm
^+ $
Ġaffect s
ver aging
Ġle ct
pos it
i ary
col group
Cour se
ĠUn ity
m irror
Ġcontra diction
LAB EL
Ġb ubble
Ġtx t
ĠPro vider
effect s
Ġenjoy ed
. }\
ĠPer mission
Ġhe ads
Ġdir ty
qu er
ĠId entity
H istogram
Ġne gl
DEFIN ED
R V
k an
small skip
ĠE asy
iter ation
= $(
ĠD S
ĠOr ganization
ĠRe ader
dim ensions
h ive
ĠH andler
comm end
: _
man age
EX EC
ĠMon o
Ġst ops
ĠM ask
7 50
m ers
ĠPr ice
ss ues
Ġtrip le
Im mediate
FI X
13 8
Ġflex ible
Ġopp osed
us ive
ĠK a
AT FORM
RE EN
Ġcontext s
ĠBo ol
on load
Ġaff ine
× Ĳ
_{ -\
Ġreal m
Ġinter ference
C LE
m os
Ex isting
respon ding
ç §
trans lated
ĠLO CK
Ġlocal s
Ġencour age
ĠF lag
us ual
Col s
Ġde leg
e en
ĠP FNGL
De ploy
ĠOper ator
Ġde als
Ġ} ];
ĠD b
Ġsh orter
Ġt p
"/ ><
Watch er
on der
ay a
Evalu ation
Ġadd ressed
ĠB as
ĠTer ms
Ġre quiring
r aries
E s
ĠAn imation
or able
Ġpack ed
nit method
it is
pan ic
ĠE gypt
up pet
ĠTo ols
Ġco lo
ĠW as
PE D
get State
S ynchron
Bit coin
Ġapparent ly
Ġremain der
N umbers
Ġund o
Th anks
ĠP aper
Ġdo ctor
Ġco ord
con cept
se a
ĠSecret ary
Ġappe al
Ġmat hematical
Dump er
o j
ĠMich igan
ĠS park
Ġabund ance
S ym
n at
pro files
ĠG UI
ĠSt udio
ĠJo in
H A
Ġtensor flow
ĠC ivil
ĠIn s
ĠTest ing
E v
Ġpos it
ure n
ĠPerson al
Ġm ime
Http Client
m igration
ag g
doc utils
W heel
| =
ĠIN DEX
edit able
Ġb a
custom ize
W ave
ç Ĳ
ul der
ad ic
Ġsp oke
Dr ive
" '
Ġin direct
14 2
q p
ĠY et
friend ly
ĠThe atre
ĠChange s
ro utine
Block ing
init With
Adv anced
. %
ĠE mber
Ġappro val
sub stack
ĠGo String
respon ds
Ġe mitted
S leep
Ġadjust ed
la pping
Ġcontinu ing
E lastic
En gl
comp leted
Ġbr ands
Ġ ist
Ġtool bar
ad vert
Ġcommun ications
Click ed
ä» ¥
strict Equal
Emp loy
ĠRun nable
il st
Ġassist ance
currentTime Millis
Ġun stable
Ġdoll ars
Ġh at
Ġkin etic
Ġsk ill
Ġgu itar
Ġparticip ate
} ";
Tra it
develop ers
Leg acy
ĠCl one
h on
Ġcomp ress
Ġag gregation
Ġserial ization
Ġpay ing
Te X
may be
$ _{\
P ersistence
Type Id
Ġbrief ly
c make
w r
mp eg
ĠC V
Ġgre w
00 6
pe ts
17 6
C nt
ĠF ITNESS
Wh ich
ĠMag azine
Ġsell ing
Function al
( **
i est
dis crete
ĉĉ ĠĠ
Ġconcer ning
Ġc i
ci pher
st an
ĠS ales
Ġsp acing
ĠComp lex
inal ity
Ġf lav
P ur
ĠF ace
). __
Ġre use
el lect
lic ate
peri ments
Pro be
Check point
ĠRepresent s
14 8
ph ia
main tainer
ĠWh ich
ĠG URL
ĠL A
Ġsyn thesis
Code d
× ŀ
Ġde coded
BOO ST
Ġb ought
ĠBE GIN
Fra ction
Ġs lots
ĠDo ctrine
driv en
, &
ł ģ
s nap
amer as
Autow ired
g as
re peated
Ġknow ing
und ers
ĠVAR CHAR
ĠScot land
t ario
pro cessed
CL K
ä ¾
et ics
HEL P
/ ><
Ġv otes
T s
DB C
Vert ices
ĠC redit
Ġmargin al
cre asing
\| ^
tro vers
Ġgrow n
19 86
Ġemotion al
rol led
) ")
pack aging
dis p
semb ler
Ġcaref ully
Sh op
par ame
ĠY ii
Re fer
Ġfail ures
Ġ iv
to s
Al ways
table Name
ath y
Ġun ivers
Ġa de
r st
Ġv tk
pro fit
Ġsub section
Ġv eter
ag ues
p ix
inter pol
member Of
H ours
Ġprov es
ri pple
Ġshort cut
Track s
p mb
U id
f ixtures
Ġres id
C MAKE
math ds
Ġdis joint
ĠAuth ors
Http Response
stri pe
f k
Ġnew sp
own ed
client s
Ġc ab
Ġ$\ |
for ced
Ġminim ize
can not
Ġselect ing
Ġsol di
Ġfix es
Ġsequ ential
Ġ( .
t ion
RE LEASE
n atural
ĠCom b
ĠPo isson
ç¤ º
enn is
ign ite
LA PI
Order ed
lo ver
Ġre lay
ĠO x
' ',
Del ivery
ĠF ormal
b olic
Ġparame tr
Hand ling
Rot ate
ĠC amera
Ġag encies
Ġte en
T IP
M Y
ak en
Ġsur pri
Ġdatabase s
Ġmask s
Ġb t
ĠStud ent
Ġso ul
S y
Ġfraction al
con j
ĠSing apore
p ersist
ĠRecord s
PASS WORD
Ġ ^{\
DO UBLE
Check s
ĠSerial izable
SPE C
ĠInput Stream
Ġhor se
ĠD ET
nol imits
@ @
Ġenumer ate
C andidate
Ð°Ð ¹
WI SE
EXTERN AL
19 84
card s
initial izer
Ġcosmo logical
G reater
T a
Engl ish
Ġremain ed
Ġtr iggers
Ġhealth care
ĠR og
bib li
ĠL u
Runtime Exception
ĠB ru
ĠPro xy
' $.
Condition s
Ġp lug
pattern s
Ġefficient ly
ĠRO W
Ġexpect s
Ġblock ing
Ġis o
key down
Ġre dis
Se gments
Ġper mutation
CI AL
Ð¸ Ð¼
\, {\
PAR ATOR
fession al
Se ed
ĠB undle
ĠU SD
Ġbro ker
Ġanaly ses
ĠA venue
eder ation
>> >>
Ð Ŀ
ĠG er
}} )$
aur a
Ġharmon ic
Product s
ĠFore ign
ĠF ord
IS ING
Ġf asc
ĠIn dicates
ĠSc ient
contain ing
Ġst ake
Ġev il
A udit
loc ities
ust ic
sequ ential
ĠQ CD
36 5
ĠO Auth
Ġro l
ron s
n okia
ĠName d
R uby
y ii
. },
Ġr iver
Ġapp ended
Ġad vis
Ġuniqu ely
çĲ Ĩ
g ender
ĠL ength
RE ST
Ġc t
interop Require
Build ing
ĠB inding
register ed
Ġex ha
Ste ps
Ġre pe
Ġbefore Each
Ġ' );
N F
Ġmaintain ed
Pro filer
~~ ~
66 6
lin der
Ġit emp
< >
Ġcon e
------------ ---
on na
Ġch ip
log out
ĠSt ill
match ing
ab i
GENER IC
ĠSource s
ĠCurrent ly
Ġs lave
ator ial
C as
field Name
No thing
Ġs oc
Ġ* );
with in
ĠSp ain
spe ction
exp ress
;-> <
ĠTh er
ĠS IGN
dir s
I ll
Ġth orough
fra red
A ML
Ġmanufact uring
S uc
re lax
R W
res ume
noun ce
ĠH ong
Ġco sm
Comp uted
Ġ[ :
ĠA mb
ptr c
Ġ ĉĉ
Second ary
Ġtra cing
s lides
Ġcol s
Ġconfirm ations
ĠIr ish
ne e
Ġt ap
remain ing
H is
p q
Ġclass ified
ĠP E
Ġun likely
[] []
': '
END ING
) !
A lex
Ġperturb ations
Ġsub sets
Min utes
Ġh ist
Ġanaly tical
ĠSto ck
flat ten
face s
remo ved
G PU
14 1
get Column
ĠP P
yl van
ren ew
Ġ{ });
à¤ °
ĠST ATE
Ġsat ellite
mem name
UI Color
} ");
b ur
Drop down
` );
Ġcross ing
Ġh ub
Ġimp ressive
Ġde bt
& ,
find ViewById
Ġren ormal
Ġpat ent
Non User
al ic
Ġst udio
Ġaf ternoon
new Builder
Ġsub mission
G F
and as
n od
ĠL ew
bind ings
ter ior
20 5
ĠCath olic
Web Contents
ĠF etch
ha us
Sol r
ĠB rian
ivari ate
mine craft
Ġ ----------
Ġu k
Ġun like
I EEE
Ġwe bsites
Ġlo ads
has is
h op
Ġsh ard
Ġdata Type
header link
Ġcomp ressed
Ġconfig urable
Ex ports
ï ¸
ĠB M
Ne ed
n of
Ġin formed
ĠGL float
ĠL ists
ts a
Ġamplit udes
v tk
ĠG allery
Ġtarget ed
CharacterOffset End
CharacterOffset Begin
. #
s lick
Ġalong side
Log ic
t ically
Ġ( []
Ġillustr ate
' ^
¶ </
ĠMer ge
ĠC ri
ĠLat in
AL TER
ENT IAL
re tr
AS A
")) )
Right arrow
st ors
Ġlock down
ĠNE W
Ġn m
ra ck
Ġsignific ance
Ġperformance s
)= (
top Nav
Ġins ights
eq z
CONTRO L
19 85
}_{ {\
net beans
Ġmeaning ful
Ġqu otes
Ġwrit ers
o z
get Parameter
W as
Unmar shaller
**** *
B id
c en
Ġla ugh
Ġis olate
Top ology
S un
to gether
dis pose
ĠL oop
Ġtraject ories
ĠPre vious
u dd
Form ats
Ġhost ed
Change Listener
) |\
Ġextension Registry
Ġt weet
Ġb anks
ĠB B
il t
Comp uter
number Of
acc um
ĠS L
`. `
Ġitemp rop
++++ ++++
Ġmand atory
tr insic
ON SE
Ġf init
), (
h azelcast
On ClickListener
Ġaff ili
\| _{\
Ġbeh alf
get Last
IN CLUDE
Ġz eros
Document ation
Ġmechan ical
is Null
ĠRe cent
ĠUp dated
tri ang
Ġcal lable
Ġvot ers
h ind
Ġpen alty
Place holder
iline ar
h ort
s af
Ġwe aring
Ã¡ n
u its
exemplar City
a des
Ġmorph ism
Ġ= &
der eq
Trans formation
ĠFi refox
ĠFR AME
Cell s
H s
Ġ è
ĠPart ners
G UID
Ġsp y
ĠÎ ¼
bit Field
ĠP os
Ġsens ors
m uted
ĠB S
bottom Nav
Ġb ow
Ġcon tr
Ġfull Comment
Ġpop ulated
(' [
Ġpar ad
ĠA DC
Pat ient
Ġ' +
26 3
Res erved
super vised
Ġexpand ing
DO MAIN
ĠGener ator
Ġw p
er ci
ĠT IME
Ġto m
ĠC ould
amar in
est s
N ever
ip art
ĠLeg al
ĠSpec ifically
he tic
Error Message
C fg
` ;
io logy
ĠI ce
Ġ*/ ,
clo ver
Ġcamp us
Ġge odes
Ġbind ings
Ġs nap
sk b
et o
Anim ator
Ġtick ets
Stream ing
ÑĢ Ð°
R P
Ġgra du
pos ing
ĠLOG GER
v skip
ĠB ell
pixel s
k ed
form ats
Ġp sz
ol i
ac iÃ³n
CH O
in ja
Ġr and
und o
& $
å ±
Ġre lies
Ġinnov ative
ers hip
45 6
M aker
one percent
sw iper
not ice
ĠMax imum
ĠZ one
ĠJ av
? ,
t u
Group Id
Ġintro ducing
Ġmac ros
Ġvict ims
ĠTh ings
RE SET
asket ball
Ġdes ire
i ri
Ġin finity
ic ht
pack ed
Ġre covered
({ "
Ġexec uting
30 2
S outh
S CHE
gin x
Ġbuffer ed
Can onical
Ġweak ly
les cope
l w
En ergy
Ap pro
ur istic
Ġ` <
EN O
ĠHol lywood
ĠD u
User Name
str ation
control cap
Ġnot iced
D ie
IC ES
cip es
STR A
Ġfit ted
% =
Ġgen es
A sp
C ED
v oc
ĠV ec
Ġco herent
Ph ys
Ġcollect ive
Res p
Ġdis order
Qu eries
r g
Debugger NonUser
Ġan imate
SY NC
0 12
am d
Ġg ar
Sp ot
Ġcon servative
Assert ions
Ġcorre lated
Ġsub tract
name of
ĠV en
ĠB ang
Local ized
r us
box es
Ġw arrant
Ġequip ped
itel ist
ĠT AG
us cript
namespace s
Ġaccept able
up id
ĠM s
ĠPh ys
T icks
ĠSH ALL
Ġentertain ment
2 33
Ġstart Time
Ġy esterday
ĠPro tection
Ġge ome
ĠLI ABILITY
e try
de tach
ĠP lus
ĠBuffer ed
ĠDi rac
St ation
Ġnow rap
alloc ator
= -\
ĠAn th
Ġformat ting
pt on
Place ment
Ä Ľ
ĠG reek
ĥ ½
pro g
andid ates
ĠDis ney
Hy per
b et
Ġsub class
Ġb unch
Ġf r
file path
qu ar
t utorial
qu ark
Ġg allery
Ġcons ensus
S il
sp rintf
Ġadapt ed
; ",
Term inal
Ġ$ $\
Ġ========= =
Ġcon formal
sub scriptions
Ġextra ction
Bl end
Ġc mp
ĠL arge
Ġscal a
Ï Į
jd k
ĠAng ular
2 12
ãĤ ¯
Ġdetermin ation
a head
Ġcool ing
gr ant
ĠUP nP
col lapsed
We ather
g uest
ĠN atural
tra vis
b roadcast
Ph ysics
B bb
ĠQu ick
indu ced
g age
Play list
K B
ĠN ick
Ġwe apons
Field Name
Ġpop ulate
ĠRect angle
Ġbel ieves
yy yy
Ġpure ly
H our
Ġelse where
Ap J
P iece
Class Loader
P NG
ĠColor ado
Im Gui
is cal
ĠM M
Ġ` .
reat ment
Unmar shal
F riend
Ġde duce
Ġanalog ous
B ulk
web site
ĠSh op
D ue
ï¸ ı
ĠR iemann
Ġmin ing
Ġ\ #
em an
Ġcontrib uted
Ġre aching
ee per
an te
contin uous
}{ }
Ġaccomp any
@ {}
ĠDemocr ats
Ġre tro
De ferred
ĠFollow ing
. -
Ġeffect iveness
U psilon
Generated Message
Ġspect ros
ĠA CE
Time line
Ġge m
ĠJ ordan
Ġc ipher
Ġm ixture
d ney
Ġdisc ip
Ġbo ys
' }\
port al
Ġpres sed
as pect
ĠI de
Ġtest Get
Grid View
b rew
_{ [
Ġj int
MB OL
Ġsustain able
Ġlimit ing
Ġserial VersionUID
Ġg c
, ,
Ġover write
align ment
ĠD ra
ino is
"> ()</
Ġtrans lated
Di agram
open ssl
pos als
T iming
R ating
ĠP ra
Ġk ube
normal ized
Ġincomp atibility
Ġm ong
Ġresult ed
Ġl ens
Ġyoun ger
18 7
pat ient
Ġk illing
vers ations
From String
Ġguarante es
IF ICATION
Ġda emon
åĽ ŀ
d ap
entic ator
WR AP
H IGH
cre st
get File
T om
Ġqu ota
Ġt ex
Ġag ric
A x
ag gregate
Ġk inem
B rows
abul ary
ĠRe quire
las hes
T K
Url s
Ġlik es
Ġb ash
ĠRe views
Ġf abric
Ġw ine
art z
Sim ilarly
Ġhelp ers
NS Dictionary
Ġcom ma
data Type
me try
}) -
ylvan ia
dis connect
Table Model
nov ation
Count s
ĠMin istry
Upper Case
Ġchunk s
Require ment
Ġs ick
no thing
Ġper manent
tra it
Comp ound
ch t
pr inter
Ġjo ining
">Â ¶</
ou ston
Ġsh allow
Ġheav ily
h ana
Run nable
Red is
Dat um
v codec
Ġh istogram
Ġ Ú©
Token izer
Offset s
get Child
oo f
de serialize
ch apter
. :
h m
â Ħ
Ġc rypto
Ġf t
ĠComp iler
ĠJes us
Ġshe l
Ġb ary
ãĥ ĥ
Co ver
ĠT alk
get Bytes
Ġful fill
ĠS quare
Un ary
exp licit
} ):
ĉĉĉĉĉĉĉĉ ĉĉĉĉĉĉ
c ube
Ġdesign s
Ġdelay ed
it ud
ĠSc roll
Ġb le
An not
lect ic
ĠVert ex
ĠCOPY RIGHT
åŃ Ĺ
Ġfif th
ĠArgument NullException
Ġstre ets
( ["
Ġaut orest
tt ing
Ġoff line
rep resentation
ial s
ĠW ars
mod ify
ĠIN CLUDING
f und
py test
Ġnon atomic
S aved
light s
H alf
Ġd war
Ġp lastic
h ours
Ġi e
Ġdiv ide
C pp
M en
ĠC Tx
Ġid le
XXXX XXXX
Ġf lood
C artesian
UST OM
' )$
B s
PACK AGE
b ury
Ġget Type
Ph p
Å Ľ
Jo urnal
Short cut
ĠDA MAGES
| .
Ġe missions
) ])
Q A
bat im
Ġvict im
nav igator
Buffer Size
fil ing
ses sed
ĠBig Decimal
vis ited
. (\
ĠSyn opsis
Ġphenomen on
ĠInst alled
Ġhistor ic
Ġpublic ly
cook ies
ĠD am
Ġan isot
Z ERO
iv a
Ġcon current
Ġe ig
Bl ur
the w
Ġip sum
Comp ression
Ġactiv ate
ST ACK
è ´
ache l
it ol
ĠP ipeline
Ġb ins
Ġcon cert
time zone
ĠCancel lationToken
sv c
F ar
Ġimport s
ĠC op
ug o
INTER FACE
D ROP
N L
ĠDav is
"/> .
Ġpeak s
Ġget Default
ĠHttp Response
ĠPROVID ED
un ning
Mark et
g d
Ġelement ary
ek yll
Rec order
Decor ator
Ġor bits
Ġemploy ment
Ġ$ [\
Ġch rom
ĠUS ER
Ġcl ar
Ġdoc utils
om er
Ġlinear ly
Ā Ā
ĠN FL
ors ion
23 4
unt il
Ġro of
B er
Ġf lip
pe m
ĠG row
Ġ" ."
K V
co ordinates
Ġover come
OR ITY
NS Array
ĠComp lete
N ational
ĠB P
ield s
ĠLe aders
é ¢
con version
ĠUnsupported OperationException
Ġ` ${
: $
TE MP
Ġvan ishes
Ġopp onent
set Enabled
Ġplay list
Ġcontrib utors
ins ide
Ġmolec ules
f lip
l iter
Ġ ../../
ĠM ongo
ĠIs lands
Ġcyc lic
Ġst derr
ĠAl ways
EXT ENSION
s al
ss f
Ġp ow
tic les
s udo
ĠC E
US Y
ON Y
Ġac quisition
di agram
vi ction
Ġlat ency
z s
or ation
D ifferent
G U
Ġblock ed
18 8
Ġguest s
up dates
ow a
ĠZ ero
mathbb m
Port s
@ ",
Ġsub net
ĠHar ry
ĠB BC
cre ator
ud p
ĠG uillaume
AV A
l ite
ĠE lizabeth
Ġadmit s
SA MP
Ġbe er
Ġbase s
ç łģ
CO UN
Not ifications
div ision
($ (
Deserial izer
........ ........
Ġeduc ational
flu x
Prototype Of
Ġarriv al
Ġun ity
SE Q
Compiler Services
2 15
Ġfun ny
d or
Re verse
r ics
Ġcon temporary
T ap
Pre pare
Der ived
. (*
ĠIn di
Ġtrans it
Ġact ors
if etime
control led
Ġproto buf
in struction
at is
S che
}_{ (
Vertex Attrib
ĠDes pite
ĠEcon omic
start Time
Ġspe aker
Cre ating
Ġde eper
ĠG a
play ers
Par sing
Mock ito
ĠAnd re
Ġcour ses
ĠSaf ety
Log o
28 8
sc or
Ġout standing
20 6
po ssible
ĠDec l
ur ers
ĠK evin
ud son
b v
Ġ ë
SA FE
ĠScal a
F OS
STRA INT
Ġph rase
s ens
ĠSup reme
Ġsh ifts
No Error
vis ions
Ġproof s
ĠD ifferent
19 8
ivers ary
Ġh ur
Ġdis sip
ĠIgn ore
Ġrelig ion
19 5
Ġaltern ate
Ġ ../../../
Ï ī
Ġa udit
Ġfore ver
Ġleg islation
Ġstop ping
Se par
50 1
Ġsurv ival
ĠSh er
ĠRem oves
Pixel s
OP TS
Ð¾Ð ¿
Ġinternal ly
x b
ĠD uration
sc all
ĠR TC
ater al
Table HeadingColor
x it
from Now
file Path
()) {
Ġdesign er
hand led
ne eds
ĠThe ory
df p
Ġ\\ \
assert Is
sat isf
ig s
g old
ĉĉĉĉ Ġ
Ġswitch ing
15 00
Ġreg ulations
Ġeng age
/ ",
if s
Ġtrack er
Ġprepar ation
% {
N ear
p reference
Ġprov ince
; .
z es
Co ordinates
comp ilation
ĠK now
al ous
Ġs me
Ġm appings
ĠR ose
"] );
ĠL ar
V B
ĠI DE
pe ek
Ġf usion
R ename
ĠM ix
Or Default
hom ology
Ł ¥
Ġget attr
ĠUn icode
Spec ified
Ġ\\ [
lex er
Ð°Ð ¼
B ay
scri bers
ĠĠĠĠĠĠĠĠĠĠĠĠĠĠĠĠĠĠĠĠĠĠĠĠĠĠĠĠĠĠĠĠ ĠĠĠĠĠĠĠĠĠĠĠĠĠĠĠĠĠĠĠĠ
Ġsol ver
Ġend block
ĠDET AIL
Ġre volution
db pedia
12 00
Ġaverage d
ĠSw ed
ent e
ĠC ru
arg c
Qual ified
Spe aker
åĩ º
}$ $
Ġsear ches
subscription Id
G AN
m art
SE QU
Ġepisode s
Ġd uplic
ub es
v oice
Ġbl ur
ĠProb lem
Ġt ips
VER TEX
Y ARN
Con vention
fall back
Ġtoler ance
Ġhydro gen
> ().
umb le
ag le
ÑĤ Ð¸
ĠÐ´ Ð»Ñı
ĠC K
Ġmer ely
Pa use
ET HER
= &#
Ġ( ;
Dist ributed
limin ary
Ġpa ssage
Ġd ress
MODE L
ĠI raq
qu eries
am an
Ġset ter
Ġsuper ior
V IRT
ĠE mer
schema Location
ph ones
()); </
= (\
el le
Re ject
Ġdec ays
Ġpointer s
Ġreg arded
l antic
é Ŀ
`` ,
Ġsim ulate
A jax
amp ing
N Unit
orph ism
ok emon
ä¿ ¡
ĠSim ilar
Ġel s
ick en
For Testing
ol is
leg acy
ĠE lastic
m apped
Ġsch olar
Ġ} {\
s izes
Ġconn ector
ĠName space
wallet Main
am lf
To k
Tra cing
Relation ship
Ġ Ñĩ
sv n
ĠHe art
Ġlight s
ĠR os
Ġst ood
mong odb
ap id
ĠIn dustry
comp ose
dot net
position s
ĠM iller
miss ible
Ð¾Ð ¹
b illing
Print ln
ut ures
PI PE
tr ust
b urn
M N
for rest
graph s
PH A
or o
ĠU rl
mode s
oid al
i ated
if ace
ĠRe member
( ...
ĠRe pository
g dx
Ġa u
Ġpre gn
P AC
x C
Ġf ruit
APIENTRY P
Ġconver ter
im ode
ph ra
;\ ;
OLD ER
ĉ ĠĠĠĠĠĠĠĠĠĠĠĠĠĠĠĠĠĠĠ
Ġcomp lement
= ['
Ġre name
ĠDet ermine
ĠC ooper
Clean up
Ġd d
J O
Port al
FI RST
In fl
auto ref
TIME STAMP
ĠRout er
] ^{
ĠW riter
Ġmod ifier
Se g
Ġs ap
ĠIter able
Ġde letion
RE PL
Ġdis appoint
iz ar
ĠÎ ±
ĠRetr ieve
starts with
inherit ance
not ifications
Ġto x
al go
Ġr ising
ĠK ent
E B
Ġw ider
Ġde formation
Draw er
Interop Services
M ichael
ĠF T
Ġsurg ery
- &
ĠA lice
Cho oser
Ġance stor
4 32
ĠAir port
b asis
Ġsuff ices
u ched
19 60
N Y
ĠSt ation
Ġa ges
Ġcomp ound
or ous
S IL
Ġp df
ĠB ridge
ST ER
Ġla s
Ġfeat uring
em o
ĠUn known
Ġserious ly
M IL
p refs
an ies
ĠE uclidean
åŃ ĺ
ĠE ss
P ager
P ID
k ar
r vm
cached L
Ð°Ð ¿
upedia Data
cachedL upediaData
Ġkey words
Ġre form
JSON Object
ĠJ s
class name
2 16
' $,
ĠAp pro
Ġc ategor
ĠPer form
k ov
20 9
Line No
)} _{\
Ġprofession als
ĠCla ret
d uplicate
ĠA cc
ĠAs ian
Ġweek ly
Layout Params
omorph isms
">Â «
Ġsimpl ify
Ġb one
M oney
S CO
15 6
Ġen abling
ns ylvania
me mp
ĠM T
ib ernate
c ategor
In c
it ter
Ġattemp ted
Ġab and
Ġlocal ization
res izable
class ification
Ġshift ed
ĠCon sumer
ĠH al
gress ive
upload s
Ġin ventory
15 8
Ġident ifies
Ġc rop
DIRECT ORY
w ich
ĠMult iple
Ġp k
p md
Ġac quire
Ed ges
ĠJer sey
Ġaccord ance
Ġen velope
pen se
} &\
Ġget Value
ĠArgument s
Ġcon test
im ity
Ġgreat ly
Ġconsistent ly
ĠEl se
ĠN ON
15 9
con struction
ĠG B
Ġt ends
get Status
Ġad s
Ver ification
ĠS ame
amlf ind
ro bo
ĠR h
Sign ed
Ġt i
ĠProv ides
condition al
Ġreli ef
Ġm v
Type Info
Tra ining
Ret ention
Ġle verage
Ġpar king
Ġa ud
la mic
tr ation
ĠSp lit
ĠR GB
Ġin clusive
In verse
nt z
LO T
+- +-
Ġimp lications
ĠR M
åī į
p ersistent
ĠE instein
Ġr gb
Ġfiles ystem
× §
Ġcommun icate
Ġmet av
ĠO wn
an onymous
tr an
ĠS S
SE PARATOR
Ġcon clusions
per f
Ġstri ke
Ġo mit
mod ern
è¯ ·
file set
mp s
fa ir
Ġtang ent
$ ('#
Ġanim ations
r q
Ġf lo
Ġw ed
up iter
c ro
Ġtw enty
Ġs lider
64 0
Ġlo an
Ġtime line
ĠCONT ENT
~ (
Ġev ident
m illi
G D
get Request
Ġdifferent ly
Ġfound ation
ĠT an
adv anced
READ ME
o ses
]( /
interopRequire Default
20 7
åı ĳ
Ġcarry ing
Ġdocument ed
D EN
I VER
open source
Ġord inal
Aff inity
)) ))
Ġrecommend ations
DF S
WINDO W
De leg
ĠPlan ning
Ġ{ {\
Ġco ords
ĠRe call
Web View
$& $
dd d
Ġqu ar
Ġh i
top ics
ĠQ R
Ġsuggest ing
ĠOffic er
ag s
IsNull OrEmpty
, ...
check s
ĠP rom
ĠN an
RO LL
less ly
17 7
Ġdynam ically
b w
DebuggerNonUser CodeAttribute
W hether
ident ify
Ġ Ä
Ġover head
Text Appearance
Com mun
Ġattemp ting
Ġescap ed
check ered
Ġaccess or
process ors
Ġst ride
ĠF C
ri o
w en
ĠE M
I Enumerable
Al ive
Ġamp l
0000000 1
sub net
ufact urer
ĠT imer
âĦ ¢
Ġmeas uring
ĠRel ation
render ed
ĠS aint
con tra
Ġd uty
}} "
ĠK er
Det ection
Ġt m
ĠAR ISING
={ '
}) _{
Ġtransform s
in ery
}} ^{(
J ar
un s
Ġan no
Ġun changed
cho ices
com bo
ĠD ise
ĠOper ations
Ġform ulas
Ġconfirm ation
G ate
se gments
opt imal
ĠT x
Ġqu it
A vailability
17 2
Ġspace time
Ġsupp ress
tr ansp
ĠM ut
ĠSte phen
ĠCh ain
ord on
cur red
embed ded
Message Box
FR AG
Tab Index
quant ity
Samp ler
Ġin duces
COMP ON
Ġdescri ptions
track ing
ul la
ere f
first Child
ĠAdv anced
S HOW
ĠW is
CF G
App le
Ġsimpl ified
} ));
T ail
Edit able
Ġm igrations
AB ASE
RO ID
en viron
(); ");
Ġoverride s
DEC LARE
D ock
con verter
ĠS pect
Recogn izer
15 4
l is
v ron
mem Separator
D am
Ġport ions
SH IP
Ġc aching
Ġf ounded
in ode
get Object
dis c
00 8
ĠPh ysics
Un ity
Tag ged
get Source
Ġj ar
' -
c wd
Ġle ak
Pro vision
Qual ifier
x p
Ġg al
Ð¾Ð ¶
Ġa wareness
ĠLI ABLE
cord ova
f ers
oc al
ĠIn struction
ĠCar lo
Ġdemonstr ates
Re ports
ru id
u y
.. "><
Ġ[ $
wait For
+ |
Ġthe mes
Ġreflect ed
ub a
is Set
Ġle ar
="../../../../ .."><
Ġemail s
ĠFore st
Jan uary
Ġp ed
new Instance
AD MIN
havi our
le ans
Ġ= ================================================================
format ted
Ġstrateg ic
start ing
ĠU A
Ġa po
Ġpro hib
dispatch er
f ab
Ġre put
Ġsp rite
ĠM SG
17 8
Cancel lationToken
ang ers
D H
G uest
ĠS F
Ġmem cpy
Ġd c
Ġentang lement
F LOW
ĠLim ited
em ale
Ġhe ll
Un do
Ġcut ting
Tra ffic
Framework Bundle
regex p
æŀ ľ
M art
O US
Ġaux iliary
Ġal arm
Ġcloud s
_ '
ĠImp lementation
Ġa z
PI C
Ġcomfort able
D ll
inter est
ĠD og
Co ords
O Caml
n orth
mark up
Ġmag azine
ĠOh io
Ġin ferred
Prop Types
typeName Label
Ù Ĭ
che m
off s
Ġrelax ation
Ġr x
equal ities
Ġsimp ler
ĠDep loy
Ġens uring
ĠS EC
top ology
Ab a
Ġimagin ary
Ġm ic
ID S
Ġso ph
s low
ST OR
ĠCan cer
ss a
Ġse ctors
Th ing
ĠSc ene
VARI ABLE
igh th
22 6
ĠCON NECT
Contact s
ub untu
Ġskip ped
ĠEp isode
}. \
Ġ# =>
co uld
Ġj q
Ġget Class
amil ies
ud ge
b undles
P LAY
}} ;
Ġint ra
N aming
ç Ĥ
By Key
Ġt t
ND ER
assert NotNull
Per formed
ĠA CT
ĠE ither
Ġ\, ,
IMP LE
] _
(' ');
ĠM rs
Ġtra its
Pod s
IN K
Ġen emy
base line
{ [
19 6
ĠB L
Ġsco red
ĠMap s
="../.. ">
De veloper
g han
xx xx
zer os
function al
Ġtrans ferred
ĠUn fortunately
ĠR ails
}} }$
PY THON
L ittle
ip v
child Nodes
in herits
un icip
"> /
M ongo
ced ence
Ġhouse s
× ĳ
pro jection
y ard
ç ¼
Ġh all
Ġwalk ed
Ġen forcement
16 7
ĠMar shall
T icket
J ul
Pol icies
ĠCG Rect
Ġme mb
lan e
Ġdisplay Name
Ġsw im
property Name
ĠArch ive
prov ide
Ġve locities
n z
d ense
åĪ Ĩ
troll ing
Ġext ending
An onymous
' /
ach u
Ġadvers arial
Ġ= ================================
reng then
Ġtra p
Ġrep lication
Ġpo le
Ġsuggest ions
progress ive
Ġactiv ated
FRAME S
Ġembed dings
m gr
To List
Ġincred ible
m aml
ĠL es
İ ·
Test er
Ag ain
success ful
c rop
c ertificate
Ġpi lot
as ures
Ġqu oted
Ġsc oring
tal k
Ġmeet ings
elect ron
Field Type
AA A
W all
Ġfoc using
Ġa jax
RE SH
Next Token
ToolStrip MenuItem
LE CTION
ĠPh ase
qu ate
Ġpromi ses
de e
4 20
â ĸ
Ġy ards
d an
ĠC limate
19 1
Ġm useum
Ġg enu
ĠScal e
Ġobserv ables
D G
VID EO
3333 33
Ġbre ast
Ġb ump
Ġshop ping
return Value
ä¸Ģ ä¸ª
re gs
Ġbo at
pro ducer
Ġcontact s
R ol
) ((
ĠSp ot
n om
Ġback wards
23 5
Ġpres erved
Ġinject ed
ĠRed ist
:: -
Ġarrest ed
H a
Î Ń
ĠD ream
spe ech
G lyph
big array
ĠEX PRESS
RAN GE
z u
ĠAUT O
L atch
c rit
Ġagre ements
ĠAlex ander
in ch
re search
st ride
Ġle an
Se qu
stri ped
ĠP ot
find utils
ĠO FF
Default Value
end ors
ĠR S
Ca ption
Field Value
Ġcosm ic
Ġd ating
Ġel it
ĠCon tains
Ġinteract ing
ĠI B
Ġen jo
on o
Ġr anging
Ġfind utils
Ġgen etic
Ġfeas ible
Real m
ĠM os
Ġover ridden
Pol l
Ġhighlight s
ĠIll uminate
UT ION
D st
18 2
Ï Ĩ
j ack
p ressed
ĠB R
Ġclick ed
Activ ation
Ġremark able
I SS
ĠF lash
Ġpod cast
sp er
NET WORK
') \
Ġpr inter
) |^
Ġs vg
SETT INGS
Sim ilar
() )));
ĠG i
Ġelli ptic
S en
m ate
Property Changed
Present er
Node Id
ĠBit map
_ %
ent h
li ber
ĠSan ta
] ',
Ġfoc uses
æĸĩ ä»¶
report ing
Is olate
Ġvisit ing
uzz y
= <
Ġb rown
With in
Or gan
re cursive
18 5
Ġoper ational
Ġmoun tain
Char acters
Ġdo gs
mail er
make box
Tool Tip
Ġhor ror
Ġre actions
Ġg rows
F K
Th ank
AL OG
åĬ ¨
A ck
Ġcon trovers
lat ex
ĠC art
}} }{
Ġa wards
Ġas ide
ĠLe ave
sp atial
Ġbel ief
ipel ines
at tack
Ġcav ity
TR ACK
Ġdra ma
ĠS ong
mag ic
ĠCons ult
fin ing
oo led
). }
Ġexp ose
sp inner
Sk in
Media Type
Ġelection s
Ġl ux
bu ck
EX PECT
30 3
ĠRE F
OO GLE
od ge
Ġme ets
ĠTh ird
Ġst rain
E urope
test case
Ġmut ual
Ġhighlight ed
P UBLIC
Ġno except
c ies
Ġnew er
Ġdo se
Ġlik ed
Comb ine
ic ide
ĠC RE
Icon s
Read able
Ġprom ising
ĠC riteria
ĠE ver
en h
Ø§ ÙĨ
ĠPat ient
b ay
IDENT IFIER
N p
h istogram
ĠJSON Object
="../.. ">Â«
C rypt
se ls
t el
in fin
http Response
Trans lator
Ġtermin ate
o pher
Ġpol ling
CL R
TRAN SL
n umpy
th a
Ġint u
Ġco uncil
Ġsort ing
Ġecon om
Ġdeploy ed
Cal c
); </
sub float
SE L
Ġcomb at
las k
Wait For
A f
Ġget All
m usic
ĠFUN CTION
ĠPre Arg
C ampaign
ĠP air
Ch apter
Ġcontinu ity
Spe ech
li est
å¼ ı
Ġg ulp
Ġde light
Up dater
li me
ph ys
samp ling
"> :</
Ã¼ r
Ġcor ners
uint ptr
REG ISTER
ĠDE LETE
Ġexplo red
AU DIO
ĠL yn
list Of
ĠSt age
Ġvulner able
ãģ Ħ
. ]
p w
17 3
}; \
Ġclo ses
ter y
Ġgener ality
Ã «
param type
ee e
TA IL
Ġthick ness
: <
ĠT a
RESP ONSE
B uilt
tr unk
ĠDe velop
Ġver b
Ġbl k
ex periment
Pro x
Ġgre y
Ġfor got
ĠWork s
bo urne
ock ey
Ġdise ases
æľ ¬
24 5
Ġinter cept
Ġg ithub
ar dian
Frame buffer
Of Type
Ġst amp
ĠEqu als
E sc
um bo
Ġrep air
Load Balancer
Ġsome how
Sub net
mar shal
' }$
Med ium
Ġbehavi ors
ant ine
oper ators
Ġk lass
Ġregular ization
× ¢
mail to
ĠR ules
ĠQ ual
Ġregular ly
ellect ual
ĠP ick
Ġfile path
Ġsign atures
ak ers
BIT S
Ġread able
\ }}
Ġmark ers
Ġbu ying
r ub
Ġb undles
ÑĢ Ð°Ð½
Ġo prot
IC Y
Ġthink s
ĠFrame s
ĠN umer
Ġsh rink
Sem antic
z end
it ness
Ġorgan isation
Ver bose
hed ral
READ Y
? '
Check box
follow ing
ion es
Lat ency
S chool
Ġpre d
Ġeng agement
Ġm b
Type Error
Ð¸ÑĤ ÑĮ
Glob als
Ġart s
V iol
Å ¼
Ġproject ive
}\ }$
Ġevalu ating
Ġemer ging
Ġlic enses
ph inx
reach able
Ġst one
Gu ard
ĠM oney
th in
stud y
tes y
Ġab sl
m ul
end points
Ù ¾
â Ī
LA IM
Ġbright ness
g w
ht able
19 83
pri mitive
Ġas ks
G aussian
ish op
Ġden ied
ĠC BlockIndex
Fall back
P et
Ġpy test
Ġsurv ive
ĠA th
ur bed
ĠV ari
Var i
| --------------------------------------------------------------------------
sc i
88 88
get X
ip ment
16 4
ĠPro to
Des cri
equals IgnoreCase
sess ions
ĠD ays
ĠBo y
Ġcle ared
Ġa xi
ĠC AN
g ene
Ġp ace
Ġimp er
Ġimpro ves
B oot
at ched
ĠR EL
Ġcomput ations
ect l
ĠE r
^{ [
close st
on i
Ġdis ag
ate ch
ĠG alaxy
ĠC e
Ġaw esome
lat in
ĠN orm
ĠV A
N ING
c amp
Ġscreen ing
p ig
Ġt aste
ĠS ent
AAAA AAAA
Ġrestaur ants
Prec ision
ĠC os
class method
it ure
ĠRo ss
ĠFin ance
un install
get ter
Ġdeep ly
power ed
ast y
map red
de z
Ġ" \\
to UpperCase
Access ible
Ġoccur rence
c andidate
ĠM AC
ĠStr ategy
ĠA k
Ġgr ate
Ġpublish er
BYTE S
ĠDO C
Ġve get
Ġdecl arations
S pect
ĠAPI ENTRY
Ã¶ r
ĠÐ½ Ðµ
!! !
Ġ([ #
ATION S
M is
ĠP K
Ġout break
/ &
vis itor
Ġbr illi
Ġob st
Ġmonth ly
ĠE L
ĠĠĠĠĠĠĠĠĠĠĠĠ čĊ
H uman
ĠC U
Ġdi agnostics
>< ?
Ġjo y
C riterion
ãĤ ¤
ĠðŁ ı
ink s
Ġt ied
ĠR C
è®¾ ç½®
Ġcon jecture
Re cipient
= /
ĠK nown
Ġwer en
M arch
ĠE lection
Ġk not
del phia
Ġoption ally
t te
oc amlfind
get First
Ġst em
Con d
Ġo cean
Ġlif ecycle
P aste
ĠP red
Ġth re
}} -
ass ociated
ĠM otor
Ġhom ot
ĠEast ern
Ġ= ================
Ġst uck
ĠPri mary
V s
Ġnumer ically
glob als
Re peated
Min or
compare To
Ġdemand s
ç ´
ub ectl
Ġa sp
ĠT C
Ġconnect ivity
material ize
Ġf uck
ĠAn ton
ĠN A
be y
H F
ĠH ay
De partment
Pro mpt
Ġerr no
Ġair port
^^^^ ^^^^
k afka
ĠD AG
Ġsqu ares
get Num
Method Name
Mouse Event
ĠB road
Ġfor um
Ġdis cret
UB E
v iz
Ġed ited
Ġh urt
Ġhon or
Ġre build
Ġre serve
ĠWARRAN TY
Ġhas attr
ĠMin or
ĠF riend
ĠInt el
ĠComp ile
b link
Ã ¦
== '
Ġl ua
3 30
ĠInter ruptedException
Evalu ator
am ination
ĠUn iverse
- '
co ffee
ĠL ang
Ñģ Ñı
ĠPo ssible
ĠM ot
ĠEnvironment al
J ump
Ġlo ose
EL L
Lim its
17 1
Ġmedic ine
ĠAuthor ity
23 7
ĠĠĠĠĠĠĠĠĠĠĠĠĠĠĠĠĠĠĠĠĠĠĠĠĠĠĠĠĠĠĠĠ ĠĠĠĠĠĠĠĠĠĠĠĠĠĠĠĠĠĠĠĠĠĠĠĠĠĠĠĠĠĠĠ
Ġin cl
o ols
is an
ĠActive Record
ĠTor onto
ĠJ am
16 1
Ġb es
Ġco gn
ĠF ill
x en
to Have
ĠByte Buffer
riz ona
b irth
ref lection
ifest yle
ST AR
Th ird
definition s
ĠBe an
Ġround s
Com ma
ey ond
al p
ld ap
Dis connect
ĉĉĉĉ ĠĠĠ
imp ro
Ġtrust ed
x ilinx
)) ]
R DF
Ġ ib
track s
ĠSpe ed
Î ¬
Ġf estival
40 5
ĠItem s
out e
Ġb acter
res erve
æĪ ·
Re covery
Ġt act
Ġ\ '
Ġ\ }$
Wh itespace
il ers
ĠA PP
LI BR
ĠTag s
t ier
Ġin dependence
v ik
set ter
ĠP ER
ĠB ow
Ġch mod
Ġinst ability
in ventory
pro vision
ÑģÑĤ Ð²
Ġc utoff
}, {\
ĠRem ark
ĠPR IMARY
Ġformal ism
sc atter
Ġr ub
source LineNo
Ġmin ister
mix in
Ġexpert ise
"=> "
Ġf illing
ĠL iter
Ġderiv ation
: ',
Ġexplo s
writ able
] '
B uiltin
Ġrel ating
some thing
bro ker
Ġsuper conduct
Ġexcit ation
Ġstring With
Com munity
Ġdr ift
Ġdis put
j l
)) $.
b urst
ĠColumb ia
VIRT UAL
E lect
Ġsk ew
Infl ater
Ñ Ĭ
ĠMe asure
ç Ń
s ms
ile ges
Equal ity
Ġp it
ĠM PI
ĠCon verts
00000000 00000000
' });
li ps
ĠB attle
aw are
respon ses
Ġsn ippet
/ -
or ce
Ġmin us
ĠAm ong
Ġif f
Con trollers
urn als
ia h
ĠWork ing
ind a
emp hasis
ĠN ET
ens ively
ĠAtt or
ĠMo zilla
Pl umb
ĠB lu
Ġc n
Ġmut ation
d raft
Ġâ Ķ
ĠĠĠĠ ĉĉ
ĠEn t
syn thesize
Ġs ym
Cre ative
">( <
an cer
ĠC Wallet
Ġt foot
VER T
remove Child
Sc enario
G a
XX X
STRUCT OR
Resource Manager
linked in
, âĢĻ
Ġpul s
ĠWH ETHER
est im
pol ar
Ġdecor ated
}% &
"> \
erci ses
Ġdis ks
Ġen force
Ġde si
d os
C b
b ird
; //
ĠE s
S END
ĠM it
ĠB order
Ġthere by
Ġmon oton
ĠByte Array
ig a
EXCEPT ION
quot ed
el led
imp lements
ĠEnter tainment
al ready
Ġhyper bolic
ĠO cean
Ġart ificial
st orm
Ġreflect s
BIN ARY
W HERE
Ð ļ
igen ous
G pu
ç ¨
Edit ing
Ġsurpri sed
min imal
Ġche ap
ĠSe gment
Ġanaly tics
fra gments
c ular
v d
ur u
qu iry
onent ial
}= (
Ġsat is
' =
ĠF ragment
ĠTime Unit
Ġ} $
Ġdi agnosis
åĮ ħ
Un ited
Ġent reprene
Ord inal
Ġd l
Tr ump
ĠD om
S af
ch itz
ĠC LI
) ],
ĠP ATH
Unit Test
Ġconv ince
contact s
w ang
ĠMar shal
Ġvari ability
Present ation
e i
Ġs ought
first Name
ĠDef ense
B a
ser ted
Ġelect ed
Pa ul
gin ator
An ce
ĠOR DER
ch k
At A
Ġaccur ately
( ::
b h
Ġta ught
G LAPI
quest ions
roll ment
Ġexception al
Ġc ry
>( </
Ġ} }"
key Set
print Line
Ġgra dients
Ġco res
Pattern s
4 16
list ed
ĠFor um
$ (\
param name
Un signed
51 20
í ķ
us able
Ġdis count
ĠRET URN
ĠB or
Ġleg it
g fx
bl k
ol en
RO LE
}^ +
Ġbro ke
ĠT ORT
ĠG ib
ĠOTHER WISE
SY MBOL
Ġwe ird
ren ces
reg on
Ġsub scribe
Ġtyp ing
ma gn
Ġm ature
Ġsudden ly
S ock
ĠStud ents
################################ ################################
ķ ãĤ
Ġy aml
append To
ÑĢ Ð¾Ð²
> ());
ĠCl inton
E ast
Ġde scriptors
ĠIll inois
RG BA
8 90
}| ^
lom orphic
dat atype
ME MB
Ġso lo
19 82
sh apes
Ġav g
Ġimp osed
Ġstrug gle
ĠE P
Ġste el
open ing
TOOL TIP
Ġb orrow
typ ography
PL ATFORM
S phere
Ġ|| =
ANG O
ĠO MIT
Ġcre ator
ĠH art
Object Id
Image Path
PO INTER
Ġfail ing
g ames
ĠT ell
Ġde ps
Inter preter
å Ļ
â Ĥ¬
Ð¸ Ð½
set Timeout
Ġund ers
ĠN i
Ġpotential s
Gra d
Ġin str
ab ar
Ġstructure d
26 5
Ġpro minent
background Color
ĠX HTML
ĉĉ ĠĠĠĠĠĠĠ
Ġy ii
Ġar ises
w al
div id
Ġvalid ated
26 2
sur vey
quant um
table t
al lax
ri k
ĠTest Case
ĠL iteral
Ġhar der
Ġdro ps
QUE UE
ĠR ate
Ġsing er
Ġfinit ely
X html
Ġhop es
ent ropy
ĠAn notation
">< ![
Ġattract ive
] ["
assign ed
Ġt ort
od i
Script s
BOO LEAN
Ġo m
ĠPen nsylvania
Ġther mod
Al arm
ĠAd vent
Ġintegr ate
Ġgain s
Sn ippet
Ġj a
ĠDec imal
Ġs outhern
Ġblock chain
Ġannounce ment
ĠSar ah
ap ing
element Name
Ġach ieves
Ġmaintain ing
H old
entry Set
under set
åĻ ¨
Ġf irms
Ġ* >
ĠS IG
ĠH it
Ġsuc ceeded
= {\
lev ance
Ġ{ (
VO ID
S sl
ĠAn aly
[] >
ĠData Type
in str
ĠA gre
Ġal leg
$ ("#
Ġin equalities
AT ER
Mod ifiers
Inst anti
\\ \
cell color
Ġde sktop
weight ed
d ists
Ġpro fessor
ĠT ARGET
}\ ;
ad j
ro gate
un pack
rans late
è Ģ
F loating
Ġmo on
Ġdisc lo
bo b
ĠArt ist
inv ocation
In deed
str len
re commended
! ",
ĠG ran
Ġfrequ ent
rf c
Ġ --------------------------------
Ġg lad
b abel
(" ../
iz za
Ġpr on
Ġr ings
Ġrest ored
Ġhe ating
Ġcom mod
unknown Fields
ĠAT TR
Ġtransport ation
w hel
struct ures
d rome
Ġv ital
Ġdown loaded
mention ed
ĠEar ly
Ġnarr ative
D ns
Ġadapt ation
Ġar rows
pre pend
onom ous
ĠW el
ĠMe V
new Value
next Token
I l
ĠA rc
ĠFoot notes
Author ity
Ġ' .'
Ġdead line
Sto ck
">< ?
Ġsent ences
ĠP in
Ġintegr als
C am
ax es
St ory
py mel
ĠLab our
ĠN GC
ĠPer iod
enc ia
Ġcap s
Ñģ Ð¿
co d
Ġbelong ing
B RE
config s
Ġk n
Ġcommun ic
To Int
Ġk nock
Ġchain ed
sect et
Ä Ł
ut c
Ġeng aged
3 80
Ġa warded
M illiseconds
Comp osition
nab is
ĠWrit ing
N M
open ed
ĠSt one
AI LABLE
in strument
Ã¤ r
ĠPay ment
Ġthous and
Ġattor ney
}{ %
0 22
ĠTrans fer
up port
ĠOper a
Ġcra zy
é Ķ
3 64
lo dy
ĠIdent ifier
Ġr ural
Ġcon trollers
the se
Ġnor thern
Ġ icons
th ur
ĠEx cel
other wise
ĠL ower
Ġcons ist
PAT TERN
ĠSy dney
ĠHarr is
ĠPak istan
ph ysics
Ġrel ativ
Ġse ats
Get Instance
Re start
ĠHo pe
bitcoin strings
ĠMo on
P ix
ĠPh arma
ME T
qual ified
SUP PORT
P ic
te in
Ġartifact s
iv ation
Ġv irt
int ext
ĠE uler
ĠUn ique
Sol ver
Ġro ut
Ġconstant ly
ĠDI RECT
ĠSt atistics
b ill
30 5
Ġprom otion
Ġsure ly
Ġgen re
Ġbene fic
Ġprevent s
B SD
x z
Â Ń
Ġh ang
Ġbe ach
gs on
Big Integer
ĠTh ough
Logger Factory
add resses
Ġview ing
it uting
Token Type
W ARN
M apped
Ġit k
Ġlo b
ĉ ĠĠĠĠĠĠ
Ġf lying
ber ta
=' "
auto complete
co w
Ġtra it
ĠAn alytics
Check sum
18 6
B rand
Ġt ensors
OR IZ
AS N
d to
Ġ Ùħ
Ġrep lica
File Info
clear fix
Leg end
ÏĢ Î¿
Ġ\ )
middle ware
Ġauthor ized
ĠVar iant
Ġship ping
Ġelectric ity
ĠB all
Ġaccompany ing
oler ance
Ġst oring
ĠF arm
pair s
C ube
Ġent hus
alloc ated
Ġb ike
'] ),
vol ve
Http Kernel
Ġaccording ly
Ġcontract s
ĠE T
Ġpoly gon
Ġgovern ed
Mode s
Se verity
Ġdepict ed
ĠF lat
Wait ing
Ġo u
Ġintroduce s
Ġphys ically
ĠAs set
IMP ORT
De crypt
ĠJ osh
Man age
ĠTra its
/ [
ag an
To ast
Ġalloc ator
R en
Ġport al
DEP TH
Ġwith draw
ĠG ene
hav ing
pre sto
ĠPat rick
C ause
Ġd ots
ĠA G
Ġout going
Ġcra ck
(' --
Un def
q i
Ġorient ed
19 7
block ing
ĠT ony
Get ting
Ġappreci ate
D s
Ã ´
Ġclick ing
ĠED IT
Ġs d
ĠS cope
ĠCall ing
Ġal cohol
UI View
è ĩ
ĠD one
(" :
lick r
Ġadapt ive
Initial ization
ĠP atch
Ġnot ing
Ġvis its
Ġreason ing
ail ing
X R
har mon
D ashboard
Ġget Id
Ġ Ø§Ø
ĠD oug
ĠA gr
Ġface d
ĠH old
Ġel igible
Service Provider
F G
ĠH ouston
× ł
Ġparticip ation
Ġman uscript
Ġposs ibilities
Ġmechan ics
Mut ation
th s
Ġex pires
ĠOb j
ĠSum mer
S lug
S u
ĠS ie
ĠCG Float
ĠSim on
ĠInd ust
Ġpro sec
ĠAff airs
ili ation
= {{
E t
ĠNS Mutable
id ge
ĠB ot
Ġs ake
AG ES
Ġt cp
Ġin complete
Configure Await
qu it
b k
Ġar my
ĠFRAME S
M iss
w izard
P ivot
ĠS oc
17 9
V o
ĠSil ver
set Up
quot a
Ġfin ance
Ġsp okes
AIN ER
li ant
ro ck
ĠF ellow
nes ota
bad logic
ĠMag ic
ĠĠ ĉĉ
ĠP la
Ġform ing
network s
Ġmount ed
il lo
Ġv ch
ĠLore ntz
ĠĠĠĠĠĠĠĠĠĠĠĠĠĠĠĠĠĠĠĠĠĠĠĠĠĠĠĠĠĠĠĠ ĠĠĠĠĠĠĠĠĠĠĠĠĠĠĠĠĠĠĠĠĠ
over ty
g nu
Ġne ck
Ġcorrect ed
sp awn
ĠAd vert
C ipher
Ġass ault
ĠRed is
Ġfol ks
set length
Ġre cipe
ag ain
Ġexam ined
pur ple
e z
Ġconf ident
ĠIN VALID
Ġ; ;
Ġconflict s
display math
Ġreview ed
X HR
ĠK r
An t
T B
Ġvan ishing
Ġfan tastic
Ġpar ity
AX B
Ġcompar isons
ROWS ER
Ð¾Ð ·
ĠE E
NS Integer
Ġstats models
stra ction
Ġt ension
set ts
T ur
ĠEx tra
Ġplan ets
b ab
d ar
off ice
Se p
Ġno va
17 4
break ing
ĠMon itor
inem a
Ġint ense
ĠLew is
tr uth
Ġsched uling
Ġimpact s
Stop Point
che my
ĠFI ELD
Ex periment
Ġon Changed
ĠH R
collect or
jet ty
ĠC OR
C aps
ĠEx it
man ifold
}/ {
ĠMo unt
8 64
I J
ĠB at
raw l
Fact ories
Sp in
D TS
clus ively
dig it
ing ers
Ġ/ \
U Integer
Ġ\ :
present ation
Br ush
A mb
B ul
I de
Ġbalance d
}/ ${
ad i
it on
Ġin variance
Ġperson ally
ĠDr ug
ĠG re
uzz le
respect ively
T AB
es Module
Ġtra ces
achu setts
Ġis Equal
mo ther
B IG
user model
open cv
Re ferent
Ġdirect ives
mov ie
ĠW ales
Le ader
ĠCap itol
Ġn it
ĠN ature
sp lash
ĠM is
ĠIs lam
âĢ¦ ]
EN C
Class ification
he ld
ast ers
cy castle
de identifier
Ġ" ../../
get Max
Ġg aps
ĠD ave
semb les
ĠNiger ia
ĠW ind
ĠJ ason
æ ı
Ð¾Ð³ Ð¾
ĠSh adow
ĠRepublic ans
Pro tection
Effect s
Ġre written
Ġg aming
Ġup loaded
AL PHA
Ġsymme tries
16 2
Ġc ameras
Ġco medy
ĠVictor ia
Ã§ a
gl Get
Da emon
Ġearn ed
}) ();
( ?
Ġcons umed
Des pite
text Content
Ġnot ified
Ġhere by
Ġarg ued
Ġtw ist
he mer
pre ad
ĠCon sequently
uc lear
Ġdec line
Format ting
ĠNot ify
åľ °
cycler View
ç ¬
lan ta
Ġo xygen
ĠG MT
u ver
ĠHe aders
apt ers
Sta ke
7 67
}$ ).
Ġsupp ressed
app lications
Ġbos on
Ġf ounder
Ġbio logical
Stud y
Ġcontinu ation
ĠS el
lef trightarrow
re tt
ĠE SP
Ġcons iders
Ġident ities
] ="
Ġu v
range s
_ :
Ġpat ches
Ġurl s
ĠFoot ball
Ġfor t
Ġ// $
ĠP Y
Rep lica
Face t
ĠR ace
Ser vers
ĠGraph ics
Ġepoch s
n ano
Ġaccess ing
en queue
Ġdo ors
ey l
Reg ions
^ +\
Ġar ising
ĠG ree
Ġt issue
al ph
25 4
ĠMO DULE
coup ling
ips chitz
Ġacc used
Ġut ter
ĠH ER
Exp anded
ol ly
Ġvar ies
Ġ= "
sh oot
V endor
NAM IC
Ġwrit able
descr div
)} =
Ġbl ind
ho enix
z A
B on
ĠR FC
Ġimplicit ly
Ġopp osition
boun cycastle
Ġc up
ĠK al
tx fee
lo dash
string u
30 8
ĠH W
Ġiniti ative
Ġt uples
ci Ã³n
Ġgovern ments
^ -$
ard o
ĠV in
wik imedia
ic he
Ġa imed
ĠEn umer
g ls
PARE NT
co lour
'' .
h skip
un bind
HttpServlet Request
G old
Ġprint ing
Ġsil ent
}( -
Ġabs ent
ĠL ANG
Ġnegl igible
r type
ĠOVER RIDE
ĠSTR ING
i ors
SIGN ED
L IGHT
get Application
K L
Co lour
ÑĢ ÐµÑģ
st ellar
CG Rect
mo jom
="# "><
ĠUP DATE
ĠS port
post gres
Un ix
Ġpod s
ĠSol ar
ins pection
Relative Layout
ĠPro duction
Dec ision
VIS IBLE
Ġpair ing
SING LE
ĠT I
Ġab elian
E IN
laps ible
ĠS ex
ĉ ĠĠĠĠĠĠĠĠĠĠĠĠ
18 3
ĠAnd erson
Ġinsert ion
s chool
an other
Re quires
ĠO s
Lear ning
Ġ($ (
è ĥ½
s ymmetric
ĠDes cript
ham crest
it utes
cor r
ĠC ertificate
Key Event
ĠBe aut
uch y
re ement
reed y
ĠCre ative
ri x
do jo
4 28
Ġnot ranslate
($ \
class ifier
Ġtw isted
Fin ite
Ġshe ar
0 200
ĠMan chester
Ġcon sectet
Ġra ises
Ġgr ants
ĠCor responds
blue tooth
rol lable
): =\
u art
â ķ
ro ots
ard own
ne ver
Ġsole ly
Ġde e
inter rupt
18 1
Context Menu
Ġliter ally
M agento
p rivacy
Ġman agers
l ins
ĠC annot
ew ise
ranch ise
Ġinstrument s
Ãµ es
Ġext rem
Ġradi i
Ġdef ic
Ġautom ated
J ames
ĠN ation
An n
Ġtext area
Namespace s
ain ter
eg as
ĠSen ior
] }\
h f
de cess
ĠS av
Ġy y
Ġloc ate
la mm
Red uc
Attribute Value
dat asource
P F
sur ance
<!-- [
Ġun usual
ord inary
ĠDe fines
5 37
~ /
bar a
HE IGHT
Y r
p om
AM D
ĠT ouch
request ed
å ĳ
ĠNet flix
Launch er
ile ged
ĠSt at
Ġtag ged
scr atch
is pan
ĠE ll
ĠV ice
db us
ĠØ ¯
D lg
[ +
qu iet
ĠW inter
ĠV iet
g ue
ĠS ix
âĢ ħ
PRO GRAM
DE S
event Name
er ce
Lo ss
Lat Lng
ĠImp lements
ĠCommun ications
ar o
Off line
ĠB H
Page Token
Ġfit ness
dis covery
Ġinv ited
ĠMus lim
ĠOpt im
19 81
Ġtrans ak
VAR CHAR
Ġ( âĢľ
Ġd as
Ġcol lapsed
Ġm ismatch
ĠR ank
S park
Ġst rengthen
ĠM otion
}} \,
ĠFor ward
h dfs
ox el
ĠCommon s
ĠEX ISTS
Ġon Create
Ġcontinu ously
ðŁ ĵ
| ,
ç º
io let
M G
Ġconstruct ors
ellig ent
Ġfarm ers
De ps
omp son
Ġform ally
å ¿
add Action
Ġc sv
ĠM ountain
st ars
ref ptr
Ġfor cing
User Data
Ġb ott
search box
ĠDepend ency
åĿ Ģ
Or Update
Cre ates
ĠD ummy
ĠS in
Ġla id
ht bp
spe aker
h is
ĠNe uro
u o
ĠTh ink
Ġtrunc ated
)\ ,\
Sp inner
F ly
Ġp ane
Ġ$ -$
Ġcy ber
izz le
Ġsw ift
ĠIgn ite
Ġper ception
Ä ĵ
de sh
r isk
Ġpublish ing
> ):
Ġb uff
St encil
: ;"
Ġcelebr ate
ache lor
rect angle
Calcul ator
Ġdo i
Ġseason s
Public Key
Ġwe apon
ĠT al
sh ard
bo y
End Point
ĠM atter
ĠSyntax Kind
ĠB ush
ĠL as
Ġpro mp
CH ANG
27 5
Ġc ube
Ġ` /
Ġs udo
a udit
s lots
Ġinter views
Ġprov ing
gr p
Im m
ATT ACH
V OL
IN C
Ġfacilit ate
ĠK B
ĠOx ford
Ġg host
rib utions
Ġadvent ure
ĠH ide
ib lings
ĠPa int
Ġg arden
AD C
Ġwest ern
Ġali ases
ĠRe ading
J une
ap im
18 9
Ġcopy ing
v nd
un ing
He art
download s
N ick
Ġpush ing
p lots
Ġsil ver
Value Error
S a
q w
=" "/>
IB ILITY
> -->
x rightarrow
Ġd ans
19 79
', \
Ġj ets
Ġparse Float
cons in
ÐµÐ½Ð¸ Ñı
çĤ ¹
or b
ãĥ¼ ãĥ
boun ce
ĠA h
R ober
e ur
Ġch an
At tached
CO D
B H
Add ing
Compar er
Con ver
S ans
j on
] ()
ct ic
ome s
ÐµÐ½Ð¸ Ðµ
Ġm as
Rem aining
Ġelimin ate
Ġf ires
s lash
Ġto urnament
ws dl
Ġsubsequ ently
s am
w elcome
inv oice
Ġper ipheral
Asp Net
conv ex
Ġfor Key
ĠNull PointerException
Inv oice
A st
D onald
ENT ITY
me tal
ds l
}} }}
Embed ded
v ote
y t
do ja
ĠK at
ip y
Ġmem ories
ĠS amsung
30 7
24 7
ãģ §
Ġgain ed
Ġbug s
++ ,
Require ments
Ġsuffer ing
Apr il
S ENT
23 1
Rob ot
H ouse
Ġ} ]
ĠR ail
date Format
\\ [
ä½ į
id i
Ġdisap pe
Ġde struction
ĠPro of
Ġcomb in
AL I
mit ian
{\ "
Ġso il
Off er
Ġadvant ages
am on
de ferred
wit ched
Ġreg ener
s ures
ĠR ol
comp oser
ĠPRO P
ĠMc C
s lave
Ġisol ation
Ġ lying
un expected
Ġle tting
ĠA sk
CLO SE
B ob
Ġin de
Ġsh ots
Ġcalcul ating
L aw
Î ¸
Ġsurve ys
Ġ ÑĦ
ĠDetermin es
=" %
Pal ette
aint enance
ĠG overnor
3 10
remove EventListener
Ġin vent
... ");
ĠSO CKS
Pro cessed
55 55
ber ts
F und
ĠĠĠĠĠĠĠĠĠĠĠĠĠĠĠĠ ĠĠĠĠĠĠĠĠĠĠĠĠĊ
Ġorgan ic
Ġpresident ial
ĠK n
min utes
cp lus
Play ing
PROTO COL
mon o
w av
ĠR on
Ġcheck out
decl aration
Get Object
c in
un register
ç «
moment um
Ġcli mb
Ġcheck box
Ġsus pended
lu sters
Activ ate
itle d
Check ing
}] \
Scal a
S ched
Ġtranslation s
****** *
TR IB
B io
ĠD un
final ize
ĠROW SPAN
u h
to pr
V tbl
p late
( ../
Ġconver ge
ä½ ľ
iss a
Mag ic
ĠDie go
is Object
ĠIn f
AN K
bug s
loc ator
inf lux
Absolute Path
f abric
computer output
cur ities
Oc curs
Ġm oral
Ġra ising
Ġ" :"
K en
im als
Time Zone
ĠP AGE
] _{
Ġlink ing
E U
Ġp up
ĠM ach
Ġv ib
ĠInt Ptr
dec ay
ĠEnd point
Ġde leting
Ġrare ly
Acknow ledge
ot ent
"> //
SS ING
Sur vey
j er
index es
Ġge ar
}} }{\
In str
Ġr um
ĠHe ap
Ġdialog ue
ON S
DI ST
ĠD imension
AP H
i op
ĠSt ories
acion es
In Progress
CO VID
center line
wn d
ĠH ub
16 3
ĠShe ll
Ġin ches
ĠC rypto
Tr unc
re cipient
ATE G
eq l
Temp lating
88 59
Ġoc aml
call er
Per form
aw k
Sto red
Ġexport ed
Ġeig env
İ· åıĸ
Ġe ating
}^{ (\
activ ated
ĠG ENER
Ġj ack
Ġinter vention
ĠS imp
face t
Ġgroup ed
Ġauth entic
Ġinitial izer
J B
ĠG UID
Out line
Ġdiff ers
Ġcar rier
22 22
Ġrepeated ly
ĠGold en
n k
s coped
Ġd inner
ĠR UN
Ġ= ~
ĠMessage s
] -
key up
ĠC MS
S quare
get Response
ag greg
i NdEx
Ġcon form
STRUCT URE
mem cpy
Enumer ation
ĠS uite
base dir
language s
Ġh am
cur ring
order ing
ĠMo ore
Ġdiag no
aph ore
Ġn u
Ġb ubb
Ġas semb
Ġmov ements
Ġparticip ant
Ð Ķ
ĠL ex
Ġsummar ized
ĠJSON RPC
' (\
Ġm om
Ġmotiv ated
Ġc tor
J uly
c ers
Ġat tended
Ġgra duate
ĠPal est
u u
Data Provider
ç ®
ĠY ang
Ġ(! _
Ġtom orrow
invalid Params
Re ach
Ġgener ations
Ġtermin ated
ĠM ill
Ġinter fer
ĠSol utions
Ġfind ViewById
ĠTR I
ĠPrep are
ng doc
Ġw et
mo ving
Ġret ire
p ension
Ġr uby
Ġro unded
do ctype
Ġobserv ational
front end
es cap
as io
NON YM
test er
ĠLa unch
Fore ground
ĠB urn
ĠRe store
off line
Ġscroll ing
åĢ ¼
m ot
Play back
Ġminim izing
ĠSIGN AL
Ġc redential
ul ators
ĠC ab
Resource Name
ĠL ady
hand les
Pass phrase
id ot
22 7
ĠTime out
ĠAust in
em ens
Un safe
ĠĠĠĠĠĠĠĠĠĠĠĠĠĠĠĠĠĠĠĠĠĠĠĠĠĠĠĠĠĠĠĠ Ċ
inter sect
ĠImp act
E MAIL
part icles
access ibility
f ive
ia o
ĠCh art
program listing
ĠOb serv
itud inal
put y
ĠPh ysical
Mag ick
d ynamics
ir ls
Ġf rozen
ing ham
ĠR F
Thumb nail
ĠNever theless
array s
ĠSign al
ĠAssert ion
ĠB T
}} +\
samp ler
me ters
ĠP tr
Ġtun ing
M or
Ã Ĺ
Tr ansp
ĠAll en
ĠJon athan
ĠCon current
Ġferm ions
ĠJ ean
ĠFile System
Ġ__ (
Ġhop ing
S qu
D ash
v out
pr incipal
ĠLeg end
Ġmod er
Ali ases
multip ly
Ġinj uries
Q P
pk t
Py Object
xml ns
oo keeper
O gre
Ġoff ices
. ';
topr ule
Ġaccount ing
Ġd up
ther lands
77 7
Ġbad ge
ĠSub ject
ĠE mb
Percent age
ĠTur key
J P
Ġarchitect ures
Ġs lides
Test Utils
Ġ Ïĥ
RE NDER
Ġp block
ĠMin i
ĠBay esian
Ġpro jections
ĠInter rupt
p ers
Ġg t
T OT
Ġro se
ĠSh apes
Ġjav ascript
` ](
Ġdis placement
net t
under tow
ĠPer haps
Ġ ug
}} +
m ont
ĠCl ark
Respon der
Ġs lug
Ġtable t
25 7
Fig ures
ĠConst raint
N LS
o ft
ip pets
st a
}, {"
Ġexp ired
ĠCh at
on ta
Ġme son
Ġsupp orters
Ġconver ts
= ="
ĠĠĠĠĠĠĠĠĠĠĠĠĠĠĠĠĠĠĠĠĠĠĠĠĠĠĠĠĠĠĠĠ ĠĠĠĠĠĠĠĠĠĠĠĠĠĠĠĠĠĠĠĠĠĠĠĠ
Ġlat itude
d rip
k ie
ver e
NS URL
Ġpan ic
FOR CE
mg mt
Ġcompan ion
Ġprepar ing
t ur
on ia
Ġe lapsed
Pro files
Ġ# [
domain s
Acc um
ĠMi ami
ĠDo ctor
C MS
App lications
X amarin
al ive
am big
Ex clude
Ġaccept ance
ĠRep ly
ym orphic
Ġcharacter ization
dump s
Dig it
æ Ľ
Ġbl end
ĠUtil ity
Illegal ArgumentException
P rivacy
Americ a
es a
conf lict
(" --
Ġ× ľ
Ġflex ibility
un ce
dd dd
Ġcollect or
g id
Ġconstruct ing
2 90
Ġc x
ITER AL
ĠL en
sh own
add Child
and al
Ġan ten
led gments
S AT
) }^
PREC ATED
ific ant
ĠE R
OPER ATION
v ue
38 6
Ġpre g
rt c
Ġrad ical
d if
Ġview er
Ġproperty Name
Ġdevelop ments
Ġn oop
pp y
') {
ĠOver ride
Ġsimple st
Primary Key
l x
ust er
Ġk itchen
ch tml
si emens
Ġtra v
Pair s
OLD ERS
Ġp ing
get Size
lin eno
Ġsever ity
ast s
Ġmod ular
REQUI RED
recogn ized
Con clusion
separ ated
C mp
robo lectric
Ġult imate
W rapped
Ch arge
We bsite
OP S
CRE T
v ens
Ġv oted
Pro tected
em b
ir ty
s ay
ĠV egas
ĠWh it
27 1
Re cursive
18 4
' <
Ġrobust ness
ĠTra il
Ġfavour ite
G ot
an ia
Ġpre t
work ers
f lavor
PA Y
G al
Ġsub sid
ĠI NS
orth and
View Group
Time Stamp
Ne g
ing roup
stub s
ĠBer lin
Ġt one
ĠH ero
last Name
enn ifer
synchron ized
co logy
ast ro
As sessment
EX IT
B la
C pu
c ampaign
Er rs
cplus plus
Ġ Ð¾ÑĤ
U ART
ĠA rial
Ġdis cre
äº Ĩ
Ġb uiltin
Ġm ad
]{ ./
() (
Ġnucle i
b ag
Output s
Sp atial
k al
ere o
19 78
Ð¾ ÑģÑĤ
Let ter
ĠM R
). \
ĠPo ol
ur ator
Ġtri angles
ĠJ ay
SY NONYM
Scroll View
Ģ </
ĠA BC
Ġsingular ity
S am
22 1
address book
åĽ ¾
ĠCam bridge
B et
TH IS
2 14
An imated
D igital
Ġb omb
Ġme at
ĠString Utils
SH ARE
à¤ ¿
ĠðŁ ļ
ee ee
Ġb ib
do ctrine
ĠImp lement
Drop Down
Ġencour aged
ĠSTD METHOD
f ew
Ġt ie
co ustic
star ter
* </
ed a
ac cent
clu sters
contrib uted
log ged
end um
renew command
or ian
ject ive
Ġoper ated
ĠLoc ale
ĠR us
ĠRe gex
CS V
Lear n
CO VER
ĠTime stamp
' }}
33 7
Ġarbit r
æī Ģ
P ersist
ĠSpec ify
Ġol dest
Ġt witter
b right
ĠÎ µ
Ġs sh
un shift
ĠS ans
Ġcomp oser
ĠLook up
ĠG M
translation s
ĠIs lamic
sr v
c rc
s ized
ar ms
Exp iration
44 3
cor responding
Ġop code
and atory
ynchron ously
Ġsubst itution
get Connection
Ġdisc la
comp osite
ĠL ED
ĠUn like
Ġre late
ĠD L
Dis posable
st h
ĠW iki
At tack
5 50
K er
ĠC ou
glyph icons
Ġb p
Ġmut ex
unders core
ĠF lags
resh olds
g tr
ĉĉ ĠĠĠĠ
Ġreg ulation
VO KE
STOR AGE
ĠU C
J OB
ĠL D
Ġexhib ition
//////////////////////////////////////////////////////////////// ////////////////
myItem Type
myItem Id
ĠF r
RE MO
Ġexplor ing
}\ )
Ten ant
Token Identifier
Ġcontra dict
is Debug
Ġupper case
BIND ING
Ġp thread
ne eded
ĠUn ivers
ic ious
el ve
tern als
o fficial
Ġsqu ared
N or
ms gs
Ġpa gination
Ġmod erate
cer pt
22 3
document Element
Reduce Action
du x
23 6
Run With
Ġwalk s
Ġwh ilst
ĠW arning
ĠW I
Ġplan es
ĠðŁ Ĳ
) ~
ĠK elly
" }}
22 9
Ġa ui
\\ \\
S ales
Ġconsider able
Ġhospit als
ome d
ik ing
Ġp lt
ĠT rip
Ġcon c
æł ĩ
B ubble
Ġh ip
ĠS ho
ĠSign ature
iter ate
ï¸ı </
Web Socket
ul u
Ġde serialize
Ġgeodes ic
lat itude
Transform ations
Ġ" ,"
CP TR
ĠPolit ics
=' /
Ġutil ize
latt ice
ĠG W
ĠBlock ly
h ssf
log ist
Ġpurch ased
Ġconsectet ur
sc enario
ĉĉĉ ĠĠ
check point
Ġm ne
get Result
Ġag g
Ġg ay
Ġcommut ative
Ġun necessary
ĠN ations
20 48
NO OP
ah a
ĠPri ority
} ')
Ð ĺ
. ),
lic able
De cember
uck s
Ġreg ulatory
SCHE MA
EN G
Al bum
Thread Pool
ĠLear n
S andbox
ĠA rizona
Http Foundation
ĠW ol
Ill uminate
s ix
(' ../../
Ġpre mi
Ġcheck er
j n
aff ected
co sh
ĠW A
åĲ İ
PRI ORITY
c rawler
s ors
ep a
Ġdivis or
P refs
ĠĠĠĠĠĠĠĠ ĉ
ig roup
Ġquant itative
Ġj long
Se ctions
Ġgra ce
Ġingre dients
Ġb ird
ĠR ED
ĠIf c
sk a
b pm
ĠA RE
Ġtext s
ĠD ataset
ĠC B
h yp
it k
Ġle ase
Ġflight s
D plugins
Ġread ily
Object Name
/@ %
ĠNO DE
Ġun translated
oxy gen
* -
å »
Ġs om
sp ath
lin ing
B photon
Bphoton ImagePath
_ <
un confirmed
ict ed
/ ).
Test Method
C red
Ġn ick
Ġd os
Ġ' (
ack s
ĠConstruct s
text Size
out heast
ĠEd ward
vel y
Ġobserv ing
ĠYear s
J Unit
ĠP I
âĶĢâĶĢ âĶĢâĶĢ
Ġse ss
Error Reason
d ynam
Ġto do
ĠF AST
Ġmanip ulation
Depend ent
s outh
æ ¬
yst yle
ĠPh ila
Ġhost ing
Ġfore ground
StopPoint Ref
F REE
ĠA U
k p
q us
ss ibly
Table t
Direct or
PR IVATE
kra ine
Ġt ank
index Path
ov ing
ĠðŁ §
look ing
F ood
Ġlon gest
P lug
co ders
reg ions
VER IFY
w f
Ġde limiter
In herit
scor lib
Ġg p
}\ !
og a
A ES
de mux
get Width
ĠJ ane
Ġfield Name
"> %
Di ag
Ġg ent
Ġinput Stream
G s
T alk
ss ian
get Mock
ĠB loom
read Int
ME lement
Ġconf usion
Resol ved
Ġenter prise
¹ </
Ġ -------
Or ders
22 8
AM S
ro ach
document s
Ġs lash
d in
Ġunit test
ph ot
ĠR ic
Q C
et ra
start up
Ġinf ect
Ġrank ing
j j
ĠD T
im en
ĠF ive
ĠFe ed
ĠKore an
Ġ[ %
ĠR ome
44 4
Ġam id
ECT OR
Ġf iring
Ġ$ (".
r k
res erved
Ġgoogle api
big gr
hy dro
B ill
utr ition
I am
# [
Ġad mitted
Man ip
ather ine
un tries
sc ar
}) }\
uil ty
Partition s
ĠDist ributed
Ġbirth day
ĠstringWith Format
Ġmode led
ass ociation
Ġsum s
C ritical
q n
read s
ta h
c ass
IM G
z c
Th m
big skip
Ġsuffer ed
Ġf unded
te or
ĠIN ST
Ġno isy
Ġwire less
COMPON ENT
$ --
ðŁĵ ħ
ur ious
big gl
× Ĺ
Ġexplo de
ctu ation
Ġphenomen a
Ġp ers
ĠP AT
set Data
Ġte a
\' {
ĠSol ution
v ard
ĠAl bum
Hel vetica
Ġph arma
Ġm igr
Ġtax es
Ġm x
L V
Ġt ray
ur ity
ĠT rib
Not Supported
Hand les
em ony
Not ifier
Ġcontr ary
Ġcapt ures
ĠS NR
get Root
Par agraph
Ġla d
ĠCon n
ĠDe code
Ġp f
Ġre cv
Cor ner
T rees
Z E
mut ations
pal ette
c gi
lock s
DE ST
âĢ¦ âĢ¦
Aug ust
Ġh ass
Ġsp on
[' _
24 8
uman n
Pro cedure
ĠðŁı ľ
ĠðŁĲ £
> ðŁĵħ
m ile
çĶ Ł
ĠðŁļ Ģ</
ĠðŁ§ ¹</
ĠðŁıľ ï¸ı</
ĠĠĠĠĠĠĠĠĠĠĠĠĠĠĠĠĠĠĠĠĠĠĠĠĠĠĠĠĠĠĠĠ ĠĠĠĠĠĠĠĠĠĠĠĠĠĠĠĠĠĠĠĠĠĠĠĠĠĠĠĠĠĠĠĠĠĠĠ
Ġ\, .
clip board
Sens io
Ġra cing
G PIO
en es
Ġprece ding
Ġen gines
Background Color
Ġconj unction
ĠN ob
A O
Ġg arbage
scale box
cla zz
Ġz ones
ĠDist ribution
ĠG ab
ĠRun ning
Ġillustr ates
AMP LE
Ġd ash
ol k
ĠB lob
Ġrefer ring
f atal
Ġprem ium
Ġsus cept
Ġopin ions
Ġsub title
Ġ\| _{
Ġre marks
Ġ* >(
C ERT
e volution
debug ger
Ġsupp lies
Ġlaw yer
Ġdist urb
char Code
Ġco homology
Cod er
ĠÐ¸ Ð·
REL ATION
Ġover whel
ĠCh allenge
ĠLib er
M ixed
Ġtrans mitted
ord inal
Ĵ Į
ment um
ume s
an na
e ase
æ µ
Ġsac r
in structions
ĠA dapt
Ġ?> "
Ġoscill ations
m ates
ss enger
34 5
CODE GEN
MSearch Results
c ue
ss o
db g
Ġme ters
Ġpass ive
ĠE NV
az ard
Ġelect rical
Ļ Ĥ
Ġfix ing
cancel lationToken
ĠAgre ement
ĠA do
ĠĠĠĠĠĠĠĠĠĠĠĠĠĠĠĠĠĠĠĠĠĠĠĠĠĠĠĠĠĠĠĠ ĠĠĠĠĠĠĠĠĠĠĠĠĠĠĠĠĠĠĠĠĠĠ
ex pires
Ġrespon ds
S l
ĠP ast
K ube
}} \\
ĠS ab
UN USED
g am
," ./
col n
for ma
ĠAl ign
Ġag enda
Ġprote ins
lic ative
Ġpost ing
is ible
rs quo
ĠCor onavirus
istr ator
ĠL iving
comp ression
atech nologies
use Summary
Ref lect
instance type
K eeper
da emon
tx n
SU FF
ĠU l
l ify
ĠP ixel
Per f
Ġinte gra
cer n
ĠASC II
Ġs igma
sh int
ĠC el
De p
100 000
qu i
ĠNa N
high charts
N i
card atechnologies
Ġtor us
ĠGal actic
os itor
Ġneur ons
Ġd ont
ĠM Y
Ġlabor atory
Ġmod uli
select ors
ARG UMENT
Con cat
Ġ_ )
oper ative
Ġnav igator
You Tube
ira cy
ĠPack et
M u
ore l
Ġgrate ful
Co ordinator
Group Layout
If c
in ating
le in
ĠGe ometry
ĠBra d
Ġl iv
Ġcolle agues
ver batim
iv als
ĠCamp aign
bench mark
}$ ;
Request Id
Ġgra ss
Ġindust ries
Ġf ract
Ġb ol
Ġcon cluded
Ġp node
ä¸Ń çļĦ
Override s
verse ly
Ġcond ens
Ġen c
Iter ation
N B
Ġc anceled
comb ined
IC ON
ic ial
comp osition
Tx n
Ġdetect ors
Ïĥ Î·
IT CH
As k
check sum
im on
add Listener
s ense
d atasets
be it
ass oc
user id
p assed
TR IG
De fs
"] [
Ġt ape
ĠAssembly Version
ĠEcon omics
h pl
éĻ ¤
ä¿¡ æģ¯
re ll
Ġrig id
Ġan nih
Ġcontrib utor
ë ĭ
Ġn k
Equ ation
Ġcon sp
mark ed
LE G
ey e
Ġreput ation
Ġsing leton
Ġvan ish
Ġsoldi ers
ĠS core
NO RE
Ġleg isl
) ~\
Oct ober
infin ispan
w ick
:" -
up loader
Ġ! $
ff e
Ġthrow ing
Ġinsp iration
sh aped
Ġ... )
CT Assert
H istor
der ived
File system
äº İ
r in
Ġanal yst
TRANSL ATE
de scribed
lu ck
ĠVER SION
find One
PH ONY
ĠPhila delphia
ĠD omin
UI Image
ĠResol ve
E A
Ġb att
Ġto wer
ĠF IR
2 17
tr ical
33 6
Mar shall
bibli ograph
R aster
is In
ãģ ¯
diag onal
gro ovy
23 8
Ġs orry
Ġsp lits
ĠMy SQL
Ġpower ed
FUN CPTR
ĠChampion ship
ĠAttor ney
uk i
M i
Ġle gs
& -
Ġassert ions
Property Value
ĠPhil ipp
ĠHaw ai
19 77
content Type
3 40
dis cussion
Est imate
Ġmethod ology
Ġexhib its
ĠF B
ff i
Ġrecurs ively
Ġc u
ĠK on
ĠB ible
B ROWSER
per l
ĠF P
H AVE
f u
Ġexha ust
) /\
ĠF lo
em ies
ath ers
ĠB ry
sing ular
Ġmist ake
gr unt
sk ill
exp ansion
Ġdesc ent
B oost
Ġt iles
ĠC u
enc ryption
in cess
Ġ uc
Ð° Ñģ
Rep resent
it ations
C U
ĠR ab
id ade
col lision
cess ion
ĠRed irect
ig ious
Ġoper ates
ACT ER
v im
Ġm alloc
opt imize
Ġphiloso phy
bibliograph ystyle
G I
W illi
MEMB ER
Ġcar ries
adv ance
B ed
fa ction
Ġ) \
state ments
rb an
ot one
Ġmicro s
Ġagre es
ĠSerial ize
E duc
ĠP ier
z k
Sp ell
00 9
trans actions
MI SSION
] \\
Ġ )$
PARAM S
get Date
Key Down
Ġperson ality
Ġtransform er
ĠCh o
Ġswe ep
et ition
Style able
ĠSy ria
Ġb orders
ĠEx tended
cla imed
DI SC
vious ly
get Entity
Ġas h
warn ings
& );
Ġvari ed
ĠAnth ony
Ġf leet
serv ing
SE CTION
Ġgo v
check out
Config urations
Ġgr unt
plan et
ĠRegion al
Re lay
Ġpy lint
Ġrelativ istic
lo id
ĠB run
DB G
ĠPort ug
AC C
Ġmetal licity
Ġm ild
res se
W ed
ĠL HC
Ġown s
re veal
oc olate
Ġfile Path
( #
ĠP it
ÛĮ Ø¯
Ï ĩ
Ġp seud
Ġoff ense
: ^(
B as
Ġcon trolling
AT AL
ere al
ĠEvent Args
Ġtalk ed
Ġt b
web app
US A
remove All
æĸ¹ æ³ķ
ĠP OS
Pre par
Ġadd itive
ĠQ uality
Ġok ay
Ġexpect ing
Re member
/ ~
Ġl d
sh ifts
SS H
W O
Or Create
Ġelectro magnetic
Â £
Ġj u
G H
e o
put s
ĠQ U
Contain ing
Ġf ed
ac les
ĠPar liament
k bd
fra id
Dis cover
IL T
Ġal phabet
& +
g lass
Ġb irds
ĠDal las
h abit
Ġroll ing
jo hn
Ġoffic ially
Ġn l
# __
ĠO t
ship ping
Ġmer ging
Ġpro posals
Ġro ads
Ġact ively
Ġsyn thes
Ġ* ************************************************************************
sc m
ij u
19 75
() -
Ġis Valid
ĠSp irit
ĠBet ter
Ġ$ -\
Ġtra verse
Ġassist ant
ig m
word press
Ġsuper Class
Ġsp ins
ĠEn coding
æĹ ¥
Ġdo ctors
ĠDoc s
Ġre de
ĠE FI
ass o
Ġplay back
M sk
Ġc umulative
ĠG ray
Ġident ifiers
Ġjo ins
32 5
Ġdefin ite
Ġhead line
h ass
Ġoccup ied
TH ROW
Ġgraph ic
Ġdoll ar
m so
b ac
abil istic
ber os
Inter rupt
Ġinst itution
ĠDis k
ĠREQ UI
TRIB UT
n h
ĠS td
Table View
ĠS ir
eta iled
ateg ies
Does Not
ĠB ear
Ġ` '
ĠP as
Ġl unch
que ued
ga uge
Ġca usal
P ts
stop Propagation
Ġbeh ave
data Source
big oplus
ad get
Ġ% %
L U
n Height
Ġ} (
ĠF F
") [
Ġsuggest ion
get Height
ĠWork er
sendcoins dialog
] []
s ong
Re ading
; (
v ac
ĠC SV
IM AL
è¿ Ķ
é Ĵ
ĠDE F
19 76
tr iple
Arch itecture
éĹ ´
k el
COMM ENT
DY NAMIC
Ġin duct
ra ge
Ġ` [
store d
G allery
src dir
Column Name
(* )
ĠMass achusetts
breadcrumb s
ĠW ire
ĠMin nesota
C e
S Q
uct or
person al
G reg
Ġnamespace s
ĠD ot
19 50
s impl
u w
cos ity
} '.
is co
cur se
Aggreg ator
Ġs andbox
Ġconsider ations
oll ar
Ġconjug ate
O ID
ĠReg istry
amilton ian
ĠLeaders hip
K K
f ed
å ¦Ĥ
tre es
TOOL SET
op ens
zz le
Ġexponent ially
) "><
ĠM apping
Av atar
L B
ĠArch ives
R CC
as ant
Com m
UIT ableView
3 15
ĠH OLDERS
ag u
Sub view
ĠPrem ier
! /
ac celer
Ġflux es
Se ptember
Ġman ifolds
win ning
Ġin struct
ĠOP EN
ĠU ART
Ġdip ole
k lass
Ġf antasy
ĠC ert
bit co
ĠTech nologies
ĠE uro
Test Suite
ĠAt lantic
H op
var pi
LE TED
Some thing
v ch
iver pool
Ġless ons
onto logy
S UM
Ġs lower
ĠS now
Client s
au er
scal er
ĠElement s
, [
Ġnewsp aper
Ġdriv es
SQL Exception
ĠMet al
| }{\
port ions
Ġdis connected
Ġro cks
B old
u pe
ĠV ery
Ġus b
}] $
Deserial ize
imp lemented
Host name
pur pose
B oun
Ġres ort
Ġfac ulty
che vron
Ġcompens ation
Ġ/ =
XY Z
ĠS LOT
Ġnews letter
Ġref uge
ĠDel hi
[...]
