{"[UNK]":0,"!":1,"\"":2,"#":3,"$":4,"%":5,"&":6,"'":7,"(":8,")":9,"*":10,"+":11,",":12,"-":13,".":14,"/":15,"0":16,"1":17,"2":18,"3":19,"4":20,"5":21,"6":22,"7":23,"8":24,"9":25,":":26,";":27,"<":28,"=":29,">":30,"?":31,"@":32,"A":33,"B":34,"C":35,"D":36,"E":37,"F":38,"G":39,"H":40,"I":41,"J":42,"K":43,"L":44,"M":45,"N":46,"O":47,"P":48,"Q":49,"R":50,"S":51,"T":52,"U":53,"V":54,"W":55,"X":56,"Y":57,"Z":58,"[":59,"\\":60,"]":61,"^":62,"_":63,"`":64,"a":65,"b":66,"c":67,"d":68,"e":69,"f":70,"g":71,"h":72,"i":73,"j":74,"k":75,"l":76,"m":77,"n":78,"o":79,"p":80,"q":81,"r":82,"s":83,"t":84,"u":85,"v":86,"w":87,"x":88,"y":89,"z":90,"{":91,"|":92,"}":93,"~":94,"¡":95,"¢":96,"£":97,"¤":98,"¥":99,"¦":100,"§":101,"¨":102,"©":103,"ª":104,"«":105,"¬":106,"®":107,"¯":108,"°":109,"±":110,"²":111,"³":112,"´":113,"µ":114,"¶":115,"·":116,"¸":117,"¹":118,"º":119,"»":120,"¼":121,"½":122,"¾":123,"¿":124,"Â":125,"Ã":126,"Ä":127,"Å":128,"Æ":129,"Ç":130,"È":131,"É":132,"Ê":133,"Ë":134,"Ì":135,"Í":136,"Î":137,"Ï":138,"Ð":139,"Ñ":140,"Ò":141,"Ó":142,"Ô":143,"Õ":144,"Ö":145,"×":146,"Ø":147,"Ù":148,"Ú":149,"Û":150,"Ü":151,"Ý":152,"Þ":153,"ß":154,"à":155,"á":156,"â":157,"ã":158,"ä":159,"å":160,"æ":161,"ç":162,"è":163,"é":164,"ê":165,"ë":166,"ì":167,"í":168,"î":169,"ï":170,"ð":171,"ñ":172,"ò":173,"ó":174,"ô":175,"Ā":176,"ā":177,"Ă":178,"ă":179,"Ą":180,"ą":181,"Ć":182,"ć":183,"Ĉ":184,"ĉ":185,"Ċ":186,"ċ":187,"Č":188,"č":189,"Ď":190,"ď":191,"Đ":192,"đ":193,"Ē":194,"ē":195,"Ĕ":196,"ĕ":197,"Ė":198,"ė":199,"Ę":200,"ę":201,"Ě":202,"ě":203,"Ĝ":204,"ĝ":205,"Ğ":206,"ğ":207,"Ġ":208,"ġ":209,"Ģ":210,"ģ":211,"Ĥ":212,"ĥ":213,"Ħ":214,"ħ":215,"Ĩ":216,"ĩ":217,"Ī":218,"ī":219,"Ĭ":220,"ĭ":221,"Į":222,"į":223,"İ":224,"ı":225,"Ĳ":226,"ĳ":227,"Ĵ":228,"ĵ":229,"Ķ":230,"ķ":231,"ĸ":232,"Ĺ":233,"ĺ":234,"Ļ":235,"ļ":236,"Ľ":237,"ľ":238,"Ŀ":239,"ŀ":240,"Ł":241,"ł":242,"Ń":243,"ĠĠ":244,"ĠĠĠĠ":245,"in":246,"er":247,"on":248,"Ġt":249,"ĠĠĠ":250,"at":251,"re":252,"ĠĠĠĠĠĠĠĠ":253,"an":254,"en":255,"st":256,"or":257,"he":258,"al":259,"le":260,"ion":261,"ar":262,"Ġc":263,"it":264,"se":265,"Ġthe":266,"de":267,"Ġa":268,"me":269,"is":270,"ct":271,"Ġf":272,"ĠĠĠĠĠĠĠ":273,"ro":274,"ing":275,"Ġp":276,"ic":277,"Ġo":278,"Ġs":279,"ss":280,"Ġ=":281,"Ġw":282,"ge":283,"ent":284,"Ġb":285,"ur":286,"ĉĉ":287,"ce":288,"</":289,"Ġin":290,"la":291,"ed":292,"=\"":293,");":294,"ut":295,"Ġn":296,"and":297,"un":298,"Ġre":299,"Ġ{":300,"Ġ<":301,"--":302,"lo":303,"Ġof":304,"Ġ(":305,"es":306,"ation":307,"Ġm":308,"Ġto":309,"il":310,"Ġth":311,"id":312,"ig":313,"ra":314,"ĠĠĠĠĠĠĠĠĠĠĠ":315,"mp":316,"ul":317,"ex":318,"čĊ":319,"if":320,"Ġ$":321,"//":322,"el":323,"Ġd":324,"ol":325,"Ġh":326,"Ġ*":327,"th":328,"Ġand":329,"iv":330,"Ġ\\":331,"pe":332,"ot":333,"ame":334,"tr":335,"ate":336,"Ġv":337,"ue":338,"Ġ}":339,"et":340,"ch":341,"ad":342,"co":343,"\">":344,"ĠS":345,"li":346,"ĠT":347,"ck":348,"as":349,"ction":350,"pt":351,"Ġis":352,"Ġst":353,"ter":354,"age":355,"um":356,"ĠĠĠĠĠĠĠĠĠĠĠĠĠĠĠĠ":357,"ĠC":358,"ht":359,"lass":360,"us":361,"ĠĠĠĠĠ":362,"()":363,"ab":364,"ĠA":365,"Ġ\"":366,"ub":367,"sp":368,"**":369,"Ġfor":370,"In":371,"ri":372,"Ġcon":373,"get":374,"urn":375,"end":376,"qu":377,"ver":378,"Ġe":379,"ew":380,"ext":381,"Ġde":382,"am":383,"Ġco":384,"Ġse":385,"av":386,"==":387,"ap":388,"ly":389,"up":390,"ype":391,"ort":392,"ith":393,"ect":394,"Ġg":395,"----":396,"turn":397,"Ġbe":398,"ow":399,"em":400,"Ġclass":401,"..":402,"od":403,"Ġ'":404,"ist":405,"ine":406,"Ġon":407,"our":408,"ment":409,"ir":410,"con":411,"Ġif":412,"ta":413,"ath":414,"im":415,"ode":416,"ĠM":417,"to":418,"ers":419,"ĠĠĠĠĠĠĠĠĠĠĠĠĠĠĠ":420,"ĠP":421,"âĢ":422,"Ġl":423,"iz":424,"ref":425,"lic":426,"all":427,"_{":428,"Re":429,"ĠI":430,"Ġthis":431,"ult":432,"ase":433,"able":434,"Ġ&":435,"Ġthat":436,"00":437,"ile":438,"int":439,"Ġpro":440,"ption":441,"ure":442,"->":443,"art":444,"ĠD":445,"per":446,"Ġ//":447,"ata":448,"ke":449,"est":450,"Ġwh":451,"ĠB":452,"Ġ</":453,"ans":454,"Ġwith":455,"ight":456,"ĠF":457,"ource":458,"Ġreturn":459,"ĉĉĉĉ":460,"alue":461,"ity":462,"::":463,"Ġan":464,"../":465,"ma":466,"ĠN":467,"imp":468,"ay":469,"ĠL":470,"der":471,"Ġit":472,"Ġor":473,"rom":474,"ack":475,"om":476,"Ġex":477,"orm":478,"ĠE":479,"ject":480,"ime":481,"Con":482,"Ġ@":483,"unction":484,"ial":485,"sc":486,"ore":487,"ph":488,"set":489,"Ġ-":490,"Ġ[":491,"str":492,"Ġas":493,"ĠH":494,"ssage":495,"{\\":496,"ff":497,"text":498,"pro":499,"ive":500,"use":501,"Ġy":502,"ĠG":503,"oc":504,"(\"":505,"ml":506,"Ġme":507,"ublic":508,"();":509,"20":510,"ere":511,"ĠW":512,"\",":513,"ite":514,"Ġ/":515,"Ġ+":516,"ĠR":517,"ac":518,"os":519,"div":520,"Ġr":521,"te":522,"out":523,"oo":524,"res":525,"ĠThe":526,"></":527,"Ġby":528,"Ġ$\\":529,"ve":530,"fa":531,"ant":532,"und":533,"ĠO":534,"gin":535,"span":536,"ib":537,"Ġwe":538,"',":539,"Ġare":540,"tring":541,"ies":542,"ind":543,"lf":544,"ser":545,"><":546,"ty":547,"par":548,"Ġtr":549,"ren":550,"--------":551,"name":552,"Ġnew":553,"math":554,"op":555,"ize":556,"ill":557,"Ġal":558,"ary":559,"Ġat":560,").":561,"ign":562,"ance":563,"ull":564,"ire":565,"../../":566,"source":567,"Ġ*/":568,"ĠĊ":569,"lu":570,"****":571,"ag":572,"Ġname":573,"ition":574,"dd":575,"Ġlo":576,"====":577,"),":578,"Ġnot":579,"ber":580,"be":581,"Ġfrom":582,"Ex":583,"bject":584,"Ġch":585,"ĉĉĉ":586,"fig":587,"put":588,"ou":589,"import":590,"ice":591,"row":592,"ip":593,"Name":594,"que":595,"act":596,"ĠĠĠĠĠĠĠĠĠĠĠĠĠĠĠĠĠĠĠ":597,"cal":598,"form":599,"Ġ:":600,"ide":601,"ated":602,"('":603,"Ġfunction":604,"html":605,"ĠĠĠĠĠĠĠĠĠ":606,"ror":607,"com":608,"Ġsh":609,"ence":610,"St":611,"message":612,"Ġun":613,"ft":614,"Ġ.":615,"Ġhref":616,"this":617,"ps":618,"Ġpublic":619,"}}":620,"ert":621,"))":622,"code":623,"Ġj":624,"ĠU":625,"vent":626,"ave":627,"lab":628,"lay":629,"âĢĻ":630,"Ġle":631,"ray":632,"lation":633,"Pro":634,"port":635,"oid":636,"one":637,"sh":638,"trans":639,"iel":640,"ER":641,"iew":642,"low":643,"Ġstr":644,"Ġ_":645,"pp":646,"ory":647,"^{":648,"ang":649,"lement":650,"ĠIn":651,"ield":652,"Type":653,"ost":654,"ll":655,"ens":656,"td":657,"ord":658,"unt":659,"Ġ#":660,"ork":661,"ener":662,"ON":663,"ust":664,"Ġ=>":665,"ome":666,"Ġtype":667,"}\\":668,"rent":669,"di":670,"String":671,"Id":672,"Ġhe":673,"dex":674,"col":675,"Ġar":676,"alse":677,"mb":678,"cess":679,"Ġvar":680,"Ġma":681,"Ġli":682,"ard":683,"}$":684,"Ġcomp":685,"ther":686,"ink":687,"Ġcan":688,"return":689,"scri":690,"/>":691,"Ġget":692,"ress":693,"ator":694,"are":695,"ong":696,"IN":697,"De":698,"quest":699,"Ġres":700,"ĠJ":701,"fin":702,"key":703,"Ġdo":704,"Ġvalue":705,"uct":706,"ace":707,"ange":708,"amp":709,"The":710,"Ġset":711,"fra":712,"odel":713,"##":714,"\"/>":715,"param":716,"10":717,"uld":718,"ĠV":719,"Ġ|":720,"ical":721,"bo":722,"ild":723,"type":724,"translation":725,"tain":726,"Co":727,"ĠTh":728,"},":729,"Ġ!":730,"lock":731,"fo":732,"RE":733,"line":734,"ug":735,"ell":736,"ich":737,"yst":738,"roup":739,"(\\":740,"riv":741,"Ġint":742,"ast":743,"io":744,"thod":745,"Ġuse":746,"atic":747,"En":748,"Ġhave":749,"Ġus":750,"vice":751,"To":752,"tent":753,"lect":754,"che":755,"fer":756,"app":757,"ak":758,"ule":759,"mo":760,"so":761,"201":762,"ass":763,"atch":764,"Ġself":765,"ations":766,"ne":767,"Res":768,"loc":769,"Ġconst":770,"__":771,"Ġwas":772,"List":773,"Ġ==":774,"label":775,"begin":776,"Ġk":777,"own":778,"val":779,"ystem":780,"://":781,"Ġline":782,"ix":783,"var":784,"Ġdata":785,"Ġi":786,"cre":787,"pect":788,"add":789,"ST":790,"Ġhas":791,"ery":792,"clu":793,"Ġcom":794,"right":795,"fault":796,"Ġnull":797,"eng":798,"tern":799,"ception":800,"log":801,"ument":802,"Ġwill":803,"Se":804,"Ġyou":805,"ache":806,"ree":807,"ual":808,"ach":809,"oint":810,"\"><":811,"Ġid":812,"ould":813,"AT":814,"og":815,"Ġ`":816,"yn":817,"class":818,"Ġall":819,"Ġvoid":820,"Ġel":821,"htt":822,"ute":823,"itle":824,"pec":825,"inal":826,"ded":827,"we":828,"ĠRe":829,"_{\\":830,"umber":831,"sum":832,"ĠâĢ":833,"string":834,"ava":835,"Ġout":836,"));":837,"idth":838,")$":839,"ĠĠĠĠĠĠĠĠĠĠĠĠĠ":840,"OR":841,"equ":842,"Ġfalse":843,"Ġbo":844,"ĠĠĠĠĠĠĠĠĠĠĠĠĠĠĠĠĠĠĠĠĠĠĠ":845,"Ġer":846,"Ġ>":847,"Ġne":848,"Ch":849,"Ġwhich":850,"********":851,"LE":852,"ry":853,"\");":854,"the":855,"}{":856,"Ar":857,"cur":858,"Ġpar":859,"ID":860,"gs":861,"Th":862,"ses":863,"----------------":864,"irst":865,"ĠK":866,"ader":867,"min":868,"Ġup":869,"sed":870,"ions":871,"tro":872,"data":873,"ger":874,"Ġen":875,"self":876,"Ġass":877,"Ġtrue":878,"arch":879,"12":880,"left":881,"):":882,"'s":883,"les":884,"Value":885,"trib":886,"mit":887,"Data":888,"ark":889,"ms":890,"rivate":891,"////":892,"ia":893,"of":894,"Ġcol":895,"ptions":896,"nb":897,"Ġab":898,"ob":899,"eq":900,"AR":901,"def":902,"stance":903,"frac":904,"Ġresult":905,"Ġdis":906,"Me":907,"ud":908,"19":909,"Ġac":910,"Ġelse":911,"mary":912,"ings":913,"Ġtime":914,"ie":915,"let":916,"lient":917,"js":918,"EN":919,"ength":920,"back":921,"file":922,"Ġ--":923,"pre":924,"ĠĠĠĠĠĠ":925,"location":926,"========":927,"Ġ)":928,"nbsp":929,"not":930,"eta":931,"Ser":932,"bar":933,"emp":934,"Ġ/**":935,"Ġso":936,"ey":937,"ates":938,"clude":939,"Ġend":940,"AL":941,"px":942,"ont":943,"ifi":944,"ameter":945,"value":946,"comp":947,"perty":948,"ĠĠĠĠĠĠĠĠĠĠĠĠĠĠĠĠĠĠĠĠĠĠĠĠĠĠĠĠĠĠĠĠ":949,"date":950,"Col":951,"tt":952,"Ġstring":953,"cite":954,"read":955,"du":956,"ec":957,"Set":958,"sub":959,"Ġval":960,"cri":961,"space":962,"gra":963,"uff":964,"];":965,"ask":966,"rror":967,"item":968,"ton":969,"Ġ&&":970,"arget":971,"led":972,"Ġsp":973,"Ġbut":974,"Ġone":975,"Ġro":976,"Ġadd":977,"spon":978,"Ġcase":979,"SS":980,"\")":981,"Ġx":982,"org":983,"script":984,"Exception":985,"ics":986,"time":987,"($":988,"da":989,"ues":990,"Ġper":991,"An":992,"mathb":993,"uth":994,"quire":995,"Ġpre":996,"over":997,"Ġtest":998,"ature":999,"Object":1000,"roid":1001,"ound":1002,"uch":1003,"rit":1004,"Ġstatic":1005,"Par":1006,"ific":1007,"')":1008,"Test":1009,"work":1010,"16":1011,"for":1012,"new":1013,"Ġfile":1014,"})":1015,"Ġ!=":1016,"Comp":1017,"$.":1018,"vel":1019,"DE":1020,"til":1021,"ld":1022,"ĠString":1023,"Ġ%":1024,"Ġ///":1025,"onent":1026,"$,":1027,"rm":1028,"Ġqu":1029,"test":1030,"Ġpart":1031,"pr":1032,"old":1033,"ain":1034,"Ġdef":1035,"Error":1036,"CT":1037,"Ġorg":1038,"rc":1039,"osition":1040,"().":1041,"ca":1042,"size":1043,"._":1044,"gle":1045,"']":1046,"Ġser":1047,"Ġinter":1048,"view":1049,"Ġover":1050,"Ġla":1051,"ep":1052,"}.":1053,"face":1054,"image":1055,"Ġwhen":1056,"());":1057,"link":1058,"Ġany":1059,"ick":1060,"Get":1061,"mathcal":1062,"ative":1063,"br":1064,"pi":1065,"ok":1066,"Ġno":1067,"odule":1068,"ise":1069,",\\":1070,"ĠThis":1071,"ream":1072,".</":1073,"Key":1074,"atus":1075,"lection":1076,"public":1077,"11":1078,"Ġsup":1079,"Ġcur":1080,"It":1081,"ĠĠĠĠĊ":1082,"32":1083,"Un":1084,"reate":1085,"iss":1086,"heck":1087,"Ġmore":1088,"list":1089,"SE":1090,"irect":1091,"ww":1092,"ution":1093,"Ġapp":1094,"play":1095,"fore":1096,"Ġexp":1097,"action":1098,"ĉĉĉĉĉ":1099,"als":1100,"IT":1101,"ody":1102,"nav":1103,"View":1104,"lean":1105,"200":1106,"Ġfinal":1107,"Ġprivate":1108,"arent":1109,"Ġob":1110,"top":1111,"cy":1112,"\";":1113,"Tr":1114,"index":1115,"ors":1116,"ĠCon":1117,"âĢĿ":1118,"['":1119,"\"></":1120,"function":1121,"ider":1122,"File":1123,"no":1124,"Ġtrans":1125,"mand":1126,"hed":1127,"igh":1128,"ME":1129,"Ġsub":1130,"ear":1131,"ackage":1132,"util":1133,"equation":1134,"');":1135,"ler":1136,"wo":1137,"Time":1138,"Ġimp":1139,"ĠSt":1140,"pend":1141,"Ġother":1142,"cent":1143,"ilter":1144,"ook":1145,"At":1146,"AN":1147,"Ġmo":1148,"ner":1149,"yle":1150,"ys":1151,"indow":1152,"po":1153,"pha":1154,"cond":1155,"ĠY":1156,"CO":1157,"Event":1158,"ular":1159,"lace":1160,"umn":1161,"struct":1162,"Ġobject":1163,"ample":1164,"summary":1165,"ible":1166,"Ġform":1167,"Ġsome":1168,"mon":1169,"uc":1170,"order":1171,"quot":1172,"By":1173,"Ġkey":1174,"}(":1175,"ĠWe":1176,"http":1177,"Ġtra":1178,"ersion":1179,"Ġext":1180,"Ġ/>":1181,"vers":1182,"!--":1183,"ternal":1184,"(),":1185,"=\"../../":1186,"=\"+":1187,"ocument":1188,"load":1189,"pen":1190,"bu":1191,"Node":1192,"try":1193,"Ġonly":1194,"ning":1195,"UL":1196,"red":1197,"}_":1198,"resent":1199,"Ġman":1200,"table":1201,"Ġ||":1202,"lang":1203,"url":1204,"wh":1205,"We":1206,"ater":1207,"late":1208,"round":1209,"Ġmethod":1210,"uffer":1211,"ely":1212,"cript":1213,"Ġchar":1214,"ken":1215,"fter":1216,"25":1217,"ĠCh":1218,"dis":1219,"ĠAn":1220,"const":1221,"15":1222,"width":1223,"Ġspec":1224,"Ġtheir":1225,"}^":1226,"~\\":1227,"Ġlist":1228,"Ġwork":1229,"count":1230,"rite":1231,"ify":1232,"ax":1233,"Ġad":1234,"Ġalso":1235,"],":1236,"ash":1237,"cord":1238,"Ġthere":1239,"Ġerror":1240,"inter":1241,"ollow":1242,"ating":1243,"alpha":1244,"/*":1245,"path":1246,"100":1247,"Ġour":1248,"Ġback":1249,"group":1250,"ices":1251,"tra":1252,"lete":1253,"Ġthey":1254,"Ġmodel":1255,"Qu":1256,"Class":1257,"icon":1258,"user":1259,"Ġreg":1260,"uration":1261,"unc":1262,"ved":1263,"rap":1264,"Text":1265,"main":1266,"Element":1267,"ager":1268,"ts":1269,"Ġnumber":1270,"State":1271,"].":1272,"ility":1273,"md":1274,"py":1275,"Ġfirst":1276,"ride":1277,"ION":1278,"Info":1279,"Request":1280,"Ġused":1281,"ail":1282,"Ġap":1283,"ish":1284,"\":":1285,"':":1286,"ding":1287,"Ġyour":1288,"void":1289,"Ġag":1290,"Ġ?":1291,"ĠSe":1292,"include":1293,"utton":1294,"ĠPro":1295,"raw":1296,"Ġ);":1297,"RO":1298,"Ġgo":1299,"Ġdif":1300,"ui":1301,"Path":1302,"Sh":1303,"ĠDe":1304,"/**":1305,"14":1306,"ments":1307,"field":1308,"ĠCo":1309,"ized":1310,"node":1311,"Index":1312,"lan":1313,"Ġrep":1314,"Ġgener":1315,"array":1316,"``":1317,"section":1318,"ference":1319,"config":1320,"PE":1321,"oolean":1322,"Item":1323,"rame":1324,"Ġbeen":1325,"Ġthan":1326,"gument":1327,"ian":1328,"Config":1329,"ĠEx":1330,"Man":1331,"TE":1332,"uil":1333,"Ġtitle":1334,"length":1335,"())":1336,"cl":1337,"He":1338,"Ġfield":1339,"oogle":1340,"For":1341,"trol":1342,"ock":1343,"13":1344,"Ġthen":1345,"ays":1346,"its":1347,"Ġinto":1348,"lob":1349,"Ġfollow":1350,"ho":1351,"man":1352,"...":1353,"Ġassert":1354,")\\":1355,"AC":1356,"Ġ-->":1357,"Ġcall":1358,"Com":1359,"Ġits":1360,"tribute":1361,"ished":1362,"TR":1363,"Ġtwo":1364,"\"\"":1365,"Field":1366,"Ġshould":1367,"Ġwhere":1368,"las":1369,"yp":1370,"18":1371,"map":1372,"Ġbase":1373,"Map":1374,"};":1375,"fined":1376,"ector":1377,"sign":1378,"Add":1379,"son":1380,"ĠâĢľ":1381,"dt":1382,"reak":1383,"Array":1384,"ĠĠĠĠĠĠĠĠĠĠĠĠĠĠĠĠĠĠĠĠĠĠĠĠĠĠĠ":1385,"PI":1386,"Context":1387,"Ġthrow":1388,"https":1389,"Ġstate":1390,"Ġ(!":1391,"Ġjava":1392,"Ġabout":1393,"=\\":1394,"base":1395,"Code":1396,"Ġent":1397,"####":1398,"ote":1399,"Ġcor":1400,"Ġhis":1401,"Ġact":1402,"ake":1403,"LA":1404,"tainer":1405,"Ġwho":1406,"Ġbet":1407,"Equ":1408,"Ġevent":1409,"Ġ/*":1410,"ient":1411,"block":1412,"api":1413,"ground":1414,"ĠIf":1415,"ga":1416,"64":1417,"itial":1418,"';":1419,"Ġstart":1420,"ious":1421,"Ġarray":1422,"Ġ});":1423,"word":1424,"Ġusing":1425,"As":1426,"lem":1427,"Ġoff":1428,"title":1429,"Ġmay":1430,"Ġ},":1431,"ified":1432,"ization":1433,"ĠIt":1434,"mu":1435,"Ġprov":1436,"color":1437,"Ġu":1438,"true":1439,"amma":1440,"reg":1441,"lt":1442,"ĠUn":1443,"ssion":1444,"model":1445,"Over":1446,"Ġnode":1447,"net":1448,"fe":1449,"aw":1450,"nel":1451,"part":1452,"****************":1453,"Ġsize":1454,"Ġrequest":1455,"Ġcurrent":1456,"uto":1457,"////////":1458,"Ġrel":1459,"sponse":1460,"by":1461,"Ġdefault":1462,"error":1463,"Service":1464,"Ġgiv":1465,"mer":1466,"Message":1467,"Ġshow":1468,"Ġexpect":1469,"dot":1470,"ected":1471,"ush":1472,"Ġdist":1473,"$\\":1474,"Ġwere":1475,"Form":1476,"input":1477,"ven":1478,"hat":1479,"_\\":1480,"Ġunder":1481,"apache":1482,"align":1483,"result":1484,"ster":1485,"Ġra":1486,"mathbb":1487,"ateg":1488,"ense":1489,"ting":1490,"[]":1491,"Ġcontent":1492,"pon":1493,"Ġ\\\\":1494,"Ġfe":1495,"Size":1496,"ng":1497,"UR":1498,"ugh":1499,"formation":1500,"With":1501,"lose":1502,"ities":1503,"mber":1504,"Ġpo":1505,"cept":1506,"}_{":1507,"do":1508,"enu":1509,"ync":1510,"Ġoper":1511,"Ġrequire":1512,"Ġph":1513,"valid":1514,"='":1515,"IC":1516,"}^{":1517,"ince":1518,"mall":1519,"Ġelement":1520,"30":1521,"Ġeach":1522,"igma":1523,"content":1524,"ĠX":1525,"gt":1526,"object":1527,"raph":1528,"ĠAr":1529,"assert":1530,"Ġsuch":1531,"'t":1532,"search":1533,"ttp":1534,";&":1535,"=\"../../../../":1536,"create":1537,"Ġcons":1538,"eturn":1539,"ension":1540,"pert":1541,"++":1542,"\\\\":1543,"andler":1544,"Result":1545,"Ġequ":1546,"ume":1547,"Des":1548,"Ġz":1549,"nection":1550,"very":1551,"On":1552,"ency":1553,"-\\":1554,"tom":1555,"default":1556,"mbda":1557,"box":1558,"uilder":1559,"gr":1560,"java":1561,"ally":1562,"ai":1563,"abled":1564,"Ġ===":1565,"Le":1566,"Ġerr":1567,"ĠGet":1568,"from":1569,"Ġpoint":1570,"lication":1571,"Of":1572,"Ġ:=":1573,"body":1574,"move":1575,"next":1576,"version":1577,">&":1578,"33":1579,"loat":1580,"ous":1581,"core":1582,"50":1583,"Ġuser":1584,"Ġte":1585,"Ġsrc":1586,"scription":1587,"phi":1588,"Or":1589,"lear":1590,"Ġsystem":1591,"ustom":1592,"vert":1593,"cho":1594,"Ġparameter":1595,"info":1596,"Ġwould":1597,"bf":1598,"FF":1599,"Ġcal":1600,"start":1601,"Up":1602,"lambda":1603,"Ġconfig":1604,"Ġcode":1605,"package":1606,"LO":1607,"ox":1608,"ween":1609,"Ġsol":1610,"Ġtarget":1611,"air":1612,"UT":1613,"lable":1614,"AD":1615,"Ġ__":1616,"17":1617,"lat":1618,"Ġsa":1619,"lugin":1620,"Val":1621,"ract":1622,"Ġmy":1623,"Ġread":1624,"Ġimport":1625,"Ġinst":1626,"tin":1627,"^{\\":1628,"troll":1629,"ffect":1630,"Ġ};":1631,"define":1632,"css":1633,"state":1634,"Ġinstance":1635,"Im":1636,"temp":1637,"tn":1638,"Not":1639,"Ġmin":1640,"ING":1641,"bug":1642,"itor":1643,"now":1644,"oug":1645,"Ġsc":1646,"Ġthese":1647,"Ġtext":1648,"IG":1649,"uild":1650,"ĉĉĉĉĉĉ":1651,"App":1652,"ĠĠĠĠĠĠĠĠĠĠ":1653,"lease":1654,"ression":1655,"perties":1656,"max":1657,"24":1658,"ams":1659,"miss":1660,"duct":1661,"andle":1662,"--------------------------------":1663,"Ġinv":1664,"ML":1665,"ĠFor":1666,"event":1667,"cope":1668,"Ġpe":1669,"Model":1670,"Ġchange":1671,"Ġcheck":1672,"option":1673,"ymb":1674,"lasses":1675,"Manager":1676,"ister":1677,"ffset":1678,"mathbf":1679,"ponse":1680,"tings":1681,"point":1682,"Ġlike":1683,"duce":1684,"Query":1685,"Loc":1686,"Be":1687,"Ġneed":1688,"Ġlong":1689,"rib":1690,"Ġafter":1691,"Al":1692,"TD":1693,"Ġpr":1694,"context":1695,"ov":1696,"Table":1697,"android":1698,"web":1699,"ymbol":1700,"Ġgiven":1701,"uble":1702,"lex":1703,"Ġyear":1704,"Ġinput":1705,"ĠQ":1706,"ULL":1707,"Ġthem":1708,"Ġcorre":1709,"Out":1710,"ferent":1711,"Ġsign":1712,"User":1713,"Ġher":1714,"dition":1715,"Ġ{\\":1716,"================":1717,"Color":1718,"Ġsee":1719,"del":1720,"Ġright":1721,"Ac":1722,"umer":1723,"iable":1724,"rough":1725,"ins":1726,"ose":1727,"Ġdoes":1728,"Ġrun":1729,"Ġpath":1730,"lp":1731,"ĠĠĠĠĠĠĠĠĠĠĠĠ":1732,"false":1733,"=\"../":1734,"System":1735,"ists":1736,"Ġnon":1737,"lobal":1738,"ED":1739,"ene":1740,"ĠSystem":1741,"wit":1742,"beta":1743,"Ġgroup":1744,"Ġstruct":1745,"Ġbetween":1746,"Ġprob":1747,"Ġnil":1748,"troller":1749,"irt":1750,"ily":1751,"CH":1752,"Ġhigh":1753,"ET":1754,"mod":1755,"Property":1756,"thing":1757,"Ġpol":1758,"Ġmessage":1759,"tab":1760,"Ġsame":1761,"Is":1762,"ward":1763,"tot":1764,"Ġlog":1765,"utes":1766,";</":1767,"ale":1768,"22":1769,"pos":1770,"Client":1771,"ithub":1772,"sup":1773,"head":1774,"Group":1775,"method":1776,"000":1777,"ful":1778,"Ġvalues":1779,"google":1780,"ilon":1781,"Ġindex":1782,"check":1783,"atri":1784,"doc":1785,"ports":1786,"ĠTr":1787,"MA":1788,"Ð°":1789,"namespace":1790,"Ġsource":1791,"Inter":1792,"MP":1793,"ottom":1794,"Ġcontext":1795,"Ġhow":1796,"call":1797,"Ġcreate":1798,"ends":1799,"iter":1800,"This":1801,"uccess":1802,"argin":1803,"=\"#":1804,"DI":1805,")</":1806,"Ġjust":1807,"db":1808,"psilon":1809,"Ġhad":1810,"www":1811,"down":1812,"Ġorder":1813,"uthor":1814,"ĠSet":1815,"select":1816,"rag":1817,"DO":1818,"serv":1819,"Ġblock":1820,"lib":1821,"Log":1822,"Override":1823,"Resource":1824,"AB":1825,"etwork":1826,"sk":1827,"github":1828,"Response":1829,"ĠĠĊ":1830,"Ġmake":1831,"pri":1832,"atrix":1833,"using":1834,"sigma":1835,"ENT":1836,"ower":1837,"velo":1838,"Ġoptions":1839,"ym":1840,">(":1841,"Ġbool":1842,"ational":1843,"Ġed":1844,"Ġwhile":1845,"rop":1846,"Trans":1847,"ats":1848,"ines":1849,"ident":1850,"Ġandroid":1851,"UN":1852,"Ġlocal":1853,"21":1854,"<!--":1855,"ifier":1856,"ared":1857,"Ġmax":1858,"Ġtemp":1859,"module":1860,"Ġitem":1861,"static":1862,"Ð¾":1863,"ron":1864,"Ġdifferent":1865,"Ġprovide":1866,"tail":1867,"ĠEn":1868,"Ġstd":1869,"From":1870,"style":1871,"Ġbreak":1872,"ision":1873,"annel":1874,"lick":1875,"Count":1876,"Method":1877,"Ġ(\\":1878,"*}":1879,"](":1880,"TH":1881,"ait":1882,"ched":1883,"page":1884,")}":1885,"40":1886,"ification":1887,"arge":1888,"ically":1889,"ormal":1890,"ctions":1891,"mpty":1892,"Ġnow":1893,"ypes":1894,"tected":1895,"Builder":1896,"Ġmust":1897,"tilde":1898,"refer":1899,"orld":1900,"func":1901,"Ġ$(":1902,"ants":1903,"ump":1904,"Call":1905,"current":1906,"Ġversion":1907,"Ġfind":1908,"Ġlast":1909,"Ġwhat":1910,"iled":1911,"button":1912,"ĠSh":1913,"idd":1914,"ĠHe":1915,"dir":1916,"])":1917,"ures":1918,"options":1919,"ason":1920,"less":1921,"ift":1922,"finished":1923,"Ġter":1924,"Dis":1925,"ik":1926,"CE":1927,"query":1928,"Input":1929,"tes":1930,"Image":1931,"ĠĠĠĠĠĠĠĠĠĠĠĠĠĠĠĠĠĠĠĠĠĠĠĠĠĠĠĠĠĠĠ":1932,"^{-":1933,"Ġthrough":1934,"irtual":1935,"Ġdirect":1936,"Ġtry":1937,"Ġlet":1938,"Instance":1939,"Stream":1940,"Util":1941,"lit":1942,"Date":1943,"Ġimage":1944,"99":1945,"Ġmap":1946,"Ġstyle":1947,"depend":1948,"Ġmost":1949,"Lo":1950,"cor":1951,"Ġfollowing":1952,"finition":1953,"Ġ<<":1954,"ential":1955,"OT":1956,"ten":1957,"Reg":1958,"+\\":1959,"null":1960,"ank":1961,"client":1962,"big":1963,"ĠNew":1964,"ĠâĢĵ":1965,"ĠAs":1966,"ender":1967,"AME":1968,"times":1969,"unfinished":1970,"Fact":1971,"Ġcontain":1972,"gamma":1973,"ĠÐ":1974,"mathrm":1975,"Int":1976,"graph":1977,"delta":1978,"uage":1979,"inf":1980,"cc":1981,"light":1982,"has":1983,"Ġsupport":1984,"Ġinformation":1985,"ling":1986,"irc":1987,"php":1988,"Base":1989,"mark":1990,"Component":1991,"med":1992,"ople":1993,"Bar":1994,"ek":1995,"All":1996,"oci":1997,"request":1998,"ĠZ":1999,"IL":2000,"jo":2001,"last":2002,"Ġbefore":2003,"Ġappro":2004,"Ġfact":2005,"ingle":2006,"ape":2007,"print":2008,"ĠĠĠĠĠĠĠĠĠĠĠĠĠĠĠĠĠ":2009,"with":2010,"Ġshe":2011,"Ðµ":2012,"Content":2013,"other":2014,"war":2015,"member":2016,"^\\":2017,"Ġfound":2018,"peri":2019,"sq":2020,"Ref":2021,"center":2022,"wn":2023,"Ġplay":2024,"Ġprocess":2025,"az":2026,"Ġcre":2027,"frame":2028,"IP":2029,"Status":2030,"Ġwell":2031,"dl":2032,"my":2033,"ars":2034,"cause":2035,"Ġresults":2036,"anel":2037,"Ġcolor":2038,"Token":2039,"pm":2040,"}{\\":2041,"ONT":2042,"New":2043,"erson":2044,"((":2045,"rid":2046,"Ġresource":2047,"Sub":2048,"Tra":2049,"teger":2050,"Exp":2051,"ĠNULL":2052,"Ġwidth":2053,"theta":2054,"SC":2055,"Ġcould":2056,"err":2057,"Ġsaid":2058,"0000":2059,"leq":2060,"Ġboolean":2061,"YPE":2062,"Ġevery":2063,"Block":2064,"nown":2065,"atab":2066,"day":2067,"ough":2068,"dia":2069,"Ġ()":2070,"ename":2071,"arrow":2072,"see":2073,"[\"":2074,"Ġbackground":2075,"Ġtable":2076,"riter":2077,"ĠAl":2078,"adding":2079,"Ġnext":2080,"height":2081,"oot":2082,"Ġmod":2083,"Ġdocument":2084,"element":2085,"dio":2086,"Ph":2087,"ĠRes":2088,"66":2089,"roll":2090,"Ġallow":2091,"leg":2092,"uring":2093,"side":2094,"23":2095,"layout":2096,"ware":2097,"Parameter":2098,"Ġleft":2099,"And":2100,"icy":2101,"ĠčĊ":2102,"figure":2103,"Ġ->":2104,"Ġhere":2105,"Lay":2106,"ivity":2107,"({":2108,"Ġresponse":2109,"Imp":2110,"case":2111,"header":2112,"80":2113,"End":2114,"US":2115,"Cell":2116,"Ġrepresent":2117,"her":2118,"tx":2119,"au":2120,"Ġ\"\"\"":2121,"idget":2122,"Ġpage":2123,"Ġdi":2124,"]{":2125,"ier":2126,"target":2127,"Frame":2128,"rho":2129,"cer":2130,"ever":2131,"Gener":2132,"IS":2133,"Ġview":2134,"Nav":2135,"Ġbecause":2136,"Del":2137,"btn":2138,"ES":2139,"Action":2140,"Ġboth":2141,"ĉĊ":2142,"img":2143,"tau":2144,"Ġtop":2145,"gram":2146,"dic":2147,"Ġborder":2148,"ĠMe":2149,"rt":2150,"vious":2151,"ĠĠĠĠĠĠĠĠĊ":2152,"append":2153,"Ġca":2154,"60":2155,"Ġoutput":2156,"Ġmult":2157,"Source":2158,"ves":2159,"REF":2160,"abel":2161,"any":2162,"Line":2163,"ixed":2164,"local":2165,"Ġvis":2166,"server":2167,"Ġpartic":2168,"undle":2169,"ĠĠĠĠĠĠĠĠĠĠĠĠĊ":2170,"Handler":2171,"Ġsur":2172,"$-":2173,"Sty":2174,"init":2175,"Ġspace":2176,"Ġposition":2177,"Change":2178,"defined":2179,"xml":2180,"cdot":2181,"umb":2182,"sec":2183,"proto":2184,"Sp":2185,"Ġproperty":2186,"place":2187,"ci":2188,"Buffer":2189,"Ġ($":2190,"Equal":2191,"atter":2192,"atabase":2193,"imple":2194,"Ġsecond":2195,"Ġ+=":2196,"eqref":2197,"mun":2198,"Options":2199,"navbar":2200,"ited":2201,"Ġselect":2202,"ĠWh":2203,"parent":2204,"angle":2205,"xy":2206,"NS":2207,"jav":2208,"ross":2209,"Ġ,":2210,"ns":2211,"Str":2212,"Ġfil":2213,"){":2214,"heet":2215,"attern":2216,"EX":2217,"json":2218,"AS":2219,"quence":2220,"Ġlevel":2221,"vai":2222,"position":2223,"velop":2224,"Ġsim":2225,"Attribute":2226,"come":2227,"arg":2228,"Ed":2229,"ĠList":2230,"acter":2231,"Ġref":2232,"ability":2233,"Ġinitial":2234,"ember":2235,"older":2236,"Ġstud":2237,"Ġpeople":2238,"ĠĠĠĠĠĠĠĠĠĠĠĠĠĠ":2239,"EL":2240,"Ġest":2241,"Default":2242,"signed":2243,"rl":2244,"No":2245,"}(\\":2246,"ssert":2247,"ptr":2248,"active":2249,"partial":2250,"Ð¸":2251,"Command":2252,"ring":2253,"src":2254,"Per":2255,"Ġcontin":2256,"Ġfa":2257,"exp":2258,"property":2259,"Ġlook":2260,"where":2261,"*/":2262,"meta":2263,"Act":2264,"cket":2265,"vider":2266,"nect":2267,"Ġbeing":2268,"ru":2269,"adata":2270,"ality":2271,"curity":2272,"child":2273,"SP":2274,"Ġdec":2275,"ĠTo":2276,"open":2277,"require":2278,"orage":2279,"Select":2280,"witch":2281,"cast":2282,"Oper":2283,"CK":2284,"bit":2285,"27":2286,"build":2287,"Ġlow":2288,"reat":2289,"ero":2290,"icense":2291,"Ġknow":2292,"Ġclient":2293,"nu":2294,"Do":2295,"ism":2296,"ather":2297,"Link":2298,"uted":2299,"gy":2300,"Task":2301,"Ġpri":2302,"OP":2303,"andom":2304,"ĠComp":2305,"Version":2306,"Ġpass":2307,"iginal":2308,"Ġopt":2309,"LASS":2310,"ivers":2311,"logy":2312,"Ġdistrib":2313,".,":2314,"Ġmon":2315,"go":2316,"ĠObject":2317,"Page":2318,"Function":2319,"lin":2320,"Ġvalid":2321,"Ġeven":2322,"Ġagain":2323,"${":2324,"Ġeffect":2325,"});":2326,"Ġconsider":2327,"ÑĤ":2328,"Window":2329,"bottom":2330,"sol":2331,"Ġcent":2332,"Ġscal":2333,"filter":2334,"ialog":2335,"aterial":2336,"push":2337,"Hel":2338,"Ġmain":2339,"Start":2340,"ATE":2341,"ively":2342,"ds":2343,"Factory":2344,"ĠCom":2345,"ĠSer":2346,"|\\":2347,"Ġway":2348,"gener":2349,"Ġimplement":2350,"Ġhttp":2351,"Ġwant":2352,"Point":2353,"infty":2354,"}$,":2355,"Ġdown":2356,"Ġsuper":2357,"Delta":2358,"char":2359,"ches":2360,"rowser":2361,"EE":2362,"OL":2363,"Style":2364,"iron":2365,"totype":2366,"rows":2367,"lags":2368,"private":2369,"Ġchild":2370,"ansp":2371,"ique":2372,"UE":2373,"way":2374,"ready":2375,"Ġop":2376,"status":2377,"ted":2378,"Ġargument":2379,"Ġrange":2380,"write":2381,"display":2382,"55":2383,"}$.":2384,"reference":2385,"yles":2386,"\"]":2387,"AG":2388,"Ġident":2389,"opy":2390,"omega":2391,"mission":2392,"mail":2393,"vailable":2394,"Ġmany":2395,"tributes":2396,"vices":2397,"ategory":2398,"Po":2399,"Ġbuild":2400,"Ġinclude":2401,"34":2402,"Filter":2403,"spec":2404,"run":2405,"arn":2406,"28":2407,"imation":2408,"Ġ{@":2409,"post":2410,"flow":2411,"ee":2412,"vol":2413,"True":2414,"first":2415,"ĠCol":2416,"plugin":2417,"izer":2418,"loy":2419,"HT":2420,"df":2421,"reen":2422,"Ġparent":2423,"Ġmatch":2424,"ces":2425,"ĠOn":2426,"Ġlimit":2427,"2020":2428,"If":2429,"ascript":2430,"Ġanal":2431,"Ġproject":2432,"Ġcondition":2433,"ceiv":2434,"ls":2435,"Ġopen":2436,"ots":2437,"change":2438,"Number":2439,"Null":2440,"ĉĉĉĉĉĉĉĉ":2441,"olds":2442,"Ġdepend":2443,"ĠReturn":2444,"Ġaddress":2445,"png":2446,"Ġvery":2447,"Check":2448,"Ġmark":2449,"Button":2450,"layer":2451,"TO":2452,"menu":2453,"VER":2454,"AP":2455,"Create":2456,"entry":2457,"Row":2458,"eqn":2459,"args":2460,"sg":2461,"enc":2462,"quad":2463,"asure":2464,"ric":2465,"ffic":2466,"font":2467,"Cur":2468,"Wh":2469,"01":2470,"description":2471,"tal":2472,")(":2473,"Ġobtain":2474,"land":2475,"Label":2476,"lot":2477,"Ð½":2478,"Ġthrows":2479,"imum":2480,"Ġexample":2481,"itive":2482,"FONT":2483,"Pre":2484,"vis":2485,"ĠTest":2486,"ols":2487,"Ġmargin":2488,"NO":2489,"Ġdefined":2490,"ideo":2491,"amily":2492,"ocus":2493,"semb":2494,"ĠNone":2495,"endif":2496,"ĉĠĠĠ":2497,"close":2498,"project":2499,"Ġaction":2500,"Ġplace":2501,"Ġurl":2502,".\"":2503,"FI":2504,"alth":2505,"Ġdisplay":2506,"loud":2507,"instance":2508,"anguage":2509,"Const":2510,"Ġsmall":2511,"Ġfeature":2512,"Ġmodule":2513,"Ġpresent":2514,"gress":2515,"///":2516,"lack":2517,"Return":2518,"MO":2519,"andard":2520,"Ġhand":2521,"Equals":2522,"strong":2523,"viron":2524,"find":2525,"(&":2526,"SON":2527,"Ġloc":2528,"~~":2529,"Ġdon":2530,"Ġprotected":2531,"$$":2532,"ually":2533,"opt":2534,"mt":2535,"ony":2536,"26":2537,"gn":2538,"ĠAnd":2539,"ynam":2540,"Ġ((":2541,"format":2542,"obj":2543,"Tag":2544,"ife":2545,"gor":2546,"Ġlink":2547,"ading":2548,"gest":2549,"buf":2550,"////////////////":2551,"ran":2552,"tric":2553,"si":2554,"Ġreal":2555,"Ġcomponent":2556,"non":2557,"Ġcount":2558,"Part":2559,"Ġpost":2560,"ness":2561,"Ġinclu":2562,"oper":2563,"ĠIN":2564,"Format":2565,"90":2566,"mm":2567,"Controller":2568,"ators":2569,"len":2570,"Ġperform":2571,"75":2572,"params":2573,"container":2574,"cul":2575,"tack":2576,"Ġexpected":2577,"can":2578,"âĢľ":2579,"Ġnetwork":2580,"Listener":2581,"iler":2582,"ĠLe":2583,"Ġlarge":2584,"Ġ<!--":2585,"ove":2586,"javascript":2587,"foot":2588,"attr":2589,"FA":2590,"Ġsince":2591,"Ġhelp":2592,"imal":2593,"ifact":2594,"Ġlabel":2595,"Ġposs":2596,"ABLE":2597,"host":2598,"sole":2599,"Ġauto":2600,"update":2601,"ĠYou":2602,"orem":2603,"ouse":2604,"xi":2605,"pc":2606,"alk":2607,"chema":2608,"resource":2609,"Ġq":2610,"book":2611,"Cache":2612,"PRO":2613,"allet":2614,"icle":2615,"Ġexperi":2616,"Mode":2617,"stru":2618,"\\,":2619,"ging":2620,"Ġbound":2621,"amples":2622,"Ġfin":2623,"Output":2624,"UI":2625,"icro":2626,":</":2627,"ior":2628,"Ġdid":2629,"Ã©":2630,"styles":2631,"caption":2632,"Ġextends":2633,"dev":2634,"lag":2635,"pack":2636,"ents":2637,"29":2638,"Ġwithout":2639,"Ġparameters":2640,"sert":2641,"Ġexist":2642,"Ġlength":2643,"Ġincre":2644,"Ġthose":2645,"Ġaccess":2646,"Ġtak":2647,"resh":2648,"remove":2649,".âĢĿ":2650,"Ġgra":2651,"apt":2652,"Ġheight":2653,"ubl":2654,"gorith":2655,"ÑĢ":2656,"<?":2657,"pol":2658,"35":2659,"Ġcommand":2660,"response":2661,"HE":2662,"ĠHREF":2663,"rict":2664,"expect":2665,"igation":2666,"stream":2667,"common":2668,"std":2669,"ges":2670,"ĠAdd":2671,"ĠIs":2672,"Ġrequired":2673,"Ġ]":2674,"Valid":2675,"untime":2676,"Column":2677,"prototype":2678,"ĠCLASS":2679,"refix":2680,"Ġupdate":2681,"small":2682,"latform":2683,"bs":2684,"Ġexec":2685,"service":2686,"Last":2687,"Child":2688,"Read":2689,"Ġservice":2690,"Ġcolumn":2691,"igger":2692,"''":2693,"ways":2694,"raint":2695,"URL":2696,"ining":2697,"Ġart":2698,"Var":2699,"ict":2700,"structor":2701,"tag":2702,"oto":2703,"}[":2704,"att":2705,"ibility":2706,"ives":2707,"Length":2708,"wide":2709,"ories":2710,"ĠApp":2711,"ql":2712,"Ġframe":2713,"ural":2714,"\").":2715,"Sup":2716,"ged":2717,"Spec":2718,"cache":2719,"INT":2720,"Layout":2721,"Box":2722,"```":2723,"GL":2724,"Bundle":2725,"Ġpos":2726,"utions":2727,"stract":2728,"TYPE":2729,"Ġyears":2730,"Ġthree":2731,"ilar":2732,"Ġgame":2733,"ĠĠĠĠĠĠĠĠĠĠĠĠĠĠĠĠĠĠĠĠĠĠĠĠĠĠĠĠĠĠĠĠĠĠĠ":2734,"Collection":2735,"BU":2736,"Ġmode":2737,"Ġown":2738,"unter":2739,"Ġrest":2740,"duction":2741,"Ġam":2742,"Ġdescri":2743,"Ġcalled":2744,"Ġhim":2745,"Url":2746,"Ġavailable":2747,"ood":2748,"sor":2749,"ern":2750,"Ġtask":2751,"number":2752,"sets":2753,"sing":2754,"af":2755,"component":2756,"psi":2757,"_.":2758,"show":2759,"ced":2760,"ysis":2761,"45":2762,"Web":2763,"bove":2764,"unk":2765,"itu":2766,"ration":2767,"Ġoption":2768,"Ġ!==":2769,"ined":2770,"++)":2771,"Ġ[]":2772,"bl":2773,"39":2774,"tity":2775,"Ġwindow":2776,"mult":2777,"idden":2778,"ERR":2779,"output":2780,"Ġcell":2781,"ensure":2782,"Ġprint":2783,"ane":2784,"parse":2785,"DB":2786,"Ġcallback":2787,"').":2788,"Ob":2789,"Ġgood":2790,"unit":2791,"inst":2792,"COL":2793,"column":2794,"tact":2795,"ither":2796,"Offset":2797,"offset":2798,"Ġcatch":2799,"cm":2800,"Ġfont":2801,"UM":2802,"IM":2803,"Ð¾Ð":2804,"Ġcontrol":2805,"OS":2806,"\"),":2807,"AM":2808,"}}\\":2809,"istory":2810,">>":2811,"vironment":2812,"Ġspecified":2813,"iple":2814,"Temp":2815,"Ġvariable":2816,"bra":2817,"First":2818,"graphics":2819,"utils":2820,"ah":2821,"Ġabove":2822,"Ġbased":2823,"aders":2824,"ensor":2825,"Ad":2826,"kit":2827,"verage":2828,"Update":2829,"########":2830,"Ġinterface":2831,"window":2832,"uture":2833,"Ġmuch":2834,")$.":2835,"Ġwrit":2836,"Ġport":2837,"sim":2838,"annot":2839,"IZ":2840,"Ġdevelop":2841,"Ġcorrespon":2842,"Ġsum":2843,"rypt":2844,"Ġtake":2845,"rapper":2846,"ĠAPI":2847,"Ġet":2848,"else":2849,"cription":2850,"ĠArray":2851,"num":2852,"CON":2853,"CODE":2854,"ination":2855,"hav":2856,"(_":2857,"Ġstill":2858,"Pol":2859,"imension":2860,"eqnarray":2861,"}_{\\":2862,"********************************":2863,"mount":2864,"Server":2865,"stylesheet":2866,"hether":2867,"valu":2868,"ending":2869,"Ġalready":2870,"energy":2871,"cs":2872,"Ġfilter":2873,"CC":2874,"Ġtag":2875,"Ab":2876,"Ġconf":2877,"Ġrespect":2878,"bed":2879,"tails":2880,"cap":2881,"used":2882,"Ġsingle":2883,"Ġim":2884,"Fe":2885,"Ġworld":2886,"process":2887,"Run":2888,"Ġsk":2889,"=\"../../../../../":2890,"Ext":2891,"ERT":2892,"=\"-":2893,"ĠHT":2894,"Ġuint":2895,"parameter":2896,"draw":2897,"edia":2898,"ral":2899,"ĠHow":2900,"exec":2901,"Width":2902,"Ġreference":2903,"aper":2904,"Ġtri":2905,"Address":2906,"amb":2907,"NAME":2908,"ĠFig":2909,"Ġcopy":2910,"Ġaddition":2911,"TP":2912,"ulation":2913,"gment":2914,"Char":2915,"ship":2916,"Ġformat":2917,"strap":2918,"ving":2919,"dapt":2920,"Ġserver":2921,"Ġquery":2922,"ital":2923,".$":2924,"Ġnone":2925,"2016":2926,"epsilon":2927,"mega":2928,"Ġwithin":2929,"ĉĉĉĉĉĉĉ":2930,"soft":2931,"05":2932,"Ñģ":2933,"level":2934,"Provider":2935,"Ġmade":2936,"ĠID":2937,"./":2938,"Ġduring":2939,"Ġmak":2940,"inary":2941,"bm":2942,"support":2943,"rs":2944,"luster":2945,"]);":2946,"apping":2947,"ancel":2948,"Ġargs":2949,"2015":2950,"boot":2951,"assword":2952,"Ġobj":2953,"textbf":2954,"ons":2955,"tract":2956,"Back":2957,"IO":2958,"coding":2959,"lip":2960,"lap":2961,"uid":2962,"Ġsuccess":2963,"2017":2964,"Target":2965,"Ġstatus":2966,"Ġdisc":2967,"Interface":2968,"aml":2969,"sqrt":2970,"Case":2971,"ĠPar":2972,":\"":2973,"arning":2974,"Ġfull":2975,"sm":2976,"ND":2977,"oke":2978,"Ġinternal":2979,"Ġcar":2980,"iness":2981,"returns":2982,"ĠEX":2983,"template":2984,"Ġdate":2985,"Ġplan":2986,"Search":2987,"Ġke":2988,"Ġarg":2989,"Types":2990,"acy":2991,"36":2992,"uint":2993,"Ġ``":2994,"ead":2995,"sw":2996,"37":2997,"ĠLicense":2998,"()->":2999,"iver":3000,"Module":3001,"only":3002,"Entry":3003,"Ġassoci":3004,"artifact":3005,"Position":3006,"subsection":3007,"Omega":3008,"Ġconnection":3009,"wise":3010,"^*":3011,"document":3012,"oop":3013,"Ġlen":3014,"Ġ**":3015,"dict":3016,"Big":3017,"Ġren":3018,"Vis":3019,"44":3020,"ULT":3021,"scope":3022,"ĠSo":3023,"gen":3024,"sembly":3025,"fs":3026,"cording":3027,"overn":3028,"store":3029,"ĠFile":3030,"Range":3031,"API":3032,"inc":3033,"38":3034,"classes":3035,"sd":3036,"Ġclear":3037,"medi":3038,"Gamma":3039,"vare":3040,"Tree":3041,"Configuration":3042,"ules":3043,"Ġside":3044,"Max":3045,"Control":3046,"ĠJo":3047,"Rem":3048,"Ġcustom":3049,"Ġfiles":3050,"LI":3051,"struction":3052,"Access":3053,"Ġfail":3054,"bool":3055,"uk":3056,"ired":3057,"ĠName":3058,"Entity":3059,"match":3060,"pose":3061,"mes":3062,"([":3063,")$,":3064,"Ġold":3065,"Ġsearch":3066,"ĠDo":3067,"ĉĠ":3068,"PC":3069,"agement":3070,"Ġprevious":3071,"asic":3072,"tree":3073,"08":3074,"ĠThere":3075,"Ġfloat":3076,"Level":3077,"ĠGL":3078,"je":3079,"Sto":3080,"varepsilon":3081,"board":3082,"typ":3083,"Ġdouble":3084,"bind":3085,"verse":3086,"Ġstore":3087,"ĠType":3088,"ATION":3089,"Utils":3090,"Ġwrite":3091,"iversity":3092,"Ġpop":3093,"Ġbest":3094,"âĢ¦":3095,"gorithm":3096,"Ġvert":3097,"long":3098,"Ġmethods":3099,"Ġreport":3100,"ĠOF":3101,"erm":3102,"scale":3103,"eps":3104,"Ġdeter":3105,"gl":3106,"iant":3107,"Pr":3108,"irection":3109,"Next":3110,"ĠBe":3111,"ret":3112,"48":3113,"Ġpossible":3114,"Container":3115,"prec":3116,"ĠAd":3117,"itory":3118,"Open":3119,"Ġproblem":3120,"Ġperson":3121,"root":3122,"Ġmeasure":3123,"oriz":3124,"ĠAll":3125,"ole":3126,"Ġsection":3127,"Ġpower":3128,"buffer":3129,"rel":3130,"duced":3131,"control":3132,"float":3133,"Ġmodels":3134,"'),":3135,"command":3136,"ĠPh":3137,"Ġtotal":3138,"pa":3139,"river":3140,"Header":3141,"vec":3142,"Ġaround":3143,"token":3144,"%;":3145,"should":3146,"][":3147,"Height":3148,"^{(":3149,"lus":3150,"Ġbuffer":3151,"Unit":3152,"Params":3153,"Ġsat":3154,"lied":3155,"ram":3156,"ets":3157,"ĠNo":3158,"auth":3159,"task":3160,"skip":3161,"empty":3162,"ond":3163,"tml":3164,"KE":3165,"Ġes":3166,"Ġproperties":3167,"ately":3168,"2018":3169,"ef":3170,"Ġgeneral":3171,"ĠReturns":3172,"ãģ":3173,"agn":3174,"Ġgraph":3175,"ĠAt":3176,"Ġnav":3177,"Ġelements":3178,"ensions":3179,"UP":3180,"orth":3181,"ws":3182,"oun":3183,"Ġproduct":3184,"direct":3185,"07":3186,"Ġglobal":3187,"ĠOr":3188,"Ġthink":3189,"Ġcommun":3190,"HO":3191,"Sc":3192,"Ġtech":3193,"Ġ{}":3194,"IGN":3195,"04":3196,"Write":3197,"urther":3198,"}=":3199,"=\"../../../../../../":3200,"Callback":3201,"ftware":3202,"Ġanother":3203,"debug":3204,"Connection":3205,"Ġenergy":3206,"Min":3207,"ĠAc":3208,"ctx":3209,"Ġvol":3210,"ĠBy":3211,"tle":3212,"artifactId":3213,"\"))":3214,"Json":3215,"Ġmass":3216,"border":3217,"Ġrelation":3218,"limit":3219,"2019":3220,"PO":3221,"Ġaut":3222,"acity":3223,"tegr":3224,"STR":3225,"includegraphics":3226,"licit":3227,"}^{\\":3228,"clus":3229,"31":3230,"Di":3231,"Ġiss":3232,"Ġvirtual":3233,"aj":3234,"Ġden":3235,"aded":3236,"Ġver":3237,"Exec":3238,"%%":3239,"Ġgu":3240,"Ġ*)":3241,"ival":3242,"cing":3243,"atal":3244,"queue":3245,"Ġclo":3246,"ium":3247,"pth":3248,"Mod":3249,"02":3250,"ACK":3251,"Top":3252,"Mem":3253,"cd":3254,"final":3255,"ECT":3256,"Ġfree":3257,"fact":3258,"{{":3259,"Empty":3260,"udio":3261,"Ġreturns":3262,"ĠData":3263,"Ġfunctions":3264,"alt":3265,"utable":3266,"iod":3267,"device":3268,"cell":3269,"Hash":3270,"Http":3271,"oice":3272,"interface":3273,"MS":3274,"Ġappe":3275,"Process":3276,")=":3277,"Ġaccount":3278,"Ġcharacter":3279,"usiness":3280,"COLOR":3281,"modal":3282,"etail":3283,"range":3284,"drop":3285,"Ġmem":3286,"off":3287,"circ":3288,"199":3289,"ggle":3290,"Ġcache":3291,"Location":3292,"Ġfilename":3293,"Ġhost":3294,"ttps":3295,"dist":3296,"67":3297,"patch":3298,"ĠCO":3299,"groupId":3300,"tocol":3301,"mat":3302,"ĠâĢĺ":3303,"des":3304,"imate":3305,"conf":3306,"second":3307,"ux":3308,"AV":3309,"QL":3310,"before":3311,"Ġxml":3312,",âĢĿ":3313,"author":3314,"Ġ${\\":3315,"ĠUp":3316,"Ġword":3317,"():":3318,"Document":3319,"sf":3320,"}/":3321,"varphi":3322,"ba":3323,"IZE":3324,"ison":3325,"rangle":3326,"ads":3327,"docs":3328,"VAL":3329,"atase":3330,"ĠCreate":3331,"Ġclose":3332,"ĠĠĠĠĠĠĠĠĠĠĠĠĠĠĠĠĠĠĠĠĠ":3333,"met":3334,"Ġeither":3335,"ĠClass":3336,"Settings":3337,"iff":3338,"Ġstream":3339,"meric":3340,"Ġ\\,":3341,"Ġalways":3342,"DIR":3343,"Ġrow":3344,"Ġoffset":3345,"Reference":3346,"actions":3347,"mem":3348,"Ġhttps":3349,",\"":3350,"Ġpadding":3351,"values":3352,"Script":3353,"2014":3354,"ĠNot":3355,"ordin":3356,"Ġrecord":3357,"env":3358,"files":3359,"Ġge":3360,"Ġbody":3361,")]":3362,"Ġbro":3363,"Ġ>=":3364,"wait":3365,"Ġoriginal":3366,"Ġoverride":3367,"Ġinstall":3368,"Ġpoints":3369,"ement":3370,"expected":3371,"Ġjo":3372,":(":3373,"Argument":3374,"Ġfields":3375,"Ġnormal":3376,"Copy":3377,"images":3378,"ĠMan":3379,"ii":3380,"inner":3381,"Ġincluding":3382,"Ġwhether":3383,"models":3384,"istry":3385,"Ġindic":3386,"Ġroot":3387,"Ġdone":3388,"Ġmove":3389,"Ġshown":3390,"imes":3391,"Ġremove":3392,"Ġbu":3393,"Thread":3394,"09":3395,"Ġinit":3396,"Ġparams":3397,"thon":3398,"Ġparticular":3399,"None":3400,"bootstrap":3401,"88":3402,"Ġmat":3403,"dependent":3404,"Ġret":3405,"tax":3406,"Ag":3407,"Ġsimilar":3408,"\"));":3409,"Ġmean":3410,">,":3411,"Direct":3412,"uary":3413,"ended":3414,"emph":3415,"ites":3416,"geq":3417,"Ident":3418,"sche":3419,"TER":3420,"dius":3421,"Ġput":3422,"Ġsay":3423,"uter":3424,"Ġfore":3425,"Ġtoo":3426,"hash":3427,"ĠGener":3428,"Ġattribute":3429,"ĠDes":3430,"Ġiter":3431,"Ġ::":3432,"aving":3433,"Ġday":3434,"Ġcalcul":3435,"creen":3436,"Ġmatrix":3437,"Ġinterest":3438,"etch":3439,"Option":3440,"example":3441,"Ġhome":3442,"}).":3443,"ĠAssert":3444,"Ġquant":3445,"ĠBut":3446,"Properties":3447,"vi":3448,"ication":3449,"mar":3450,"TI":3451,"copy":3452,"split":3453,"ĠTe":3454,"tains":3455,"Session":3456,"Ġstructure":3457,"=\"_":3458,"rightarrow":3459,"ensity":3460,"Ġoperation":3461,"untry":3462,"mode":3463,"Ġrole":3464,"igin":3465,"Schema":3466,"proof":3467,"Que":3468,"Menu":3469,"Ġpay":3470,"Ġear":3471,"Ġbel":3472,"Ġ\"\\":3473,"Op":3474,"Integer":3475,"render":3476,"Ġcap":3477,"Record":3478,"Met":3479,"Ġ...":3480,"FO":3481,".~\\":3482,"sl":3483,"ocial":3484,"[\\":3485,"SD":3486,"Async":3487,"bin":3488,"ĠUR":3489,"cp":3490,"Ġapplication":3491,"ias":3492,"================================":3493,"SH":3494,"Ġbit":3495,"ĠDis":3496,"break":3497,"stack":3498,"Ġresol":3499,"06":3500,"Expression":3501,"stamp":3502,"Ġpres":3503,"Parser":3504,"kind":3505,"Project":3506,"dest":3507,"Ġspe":3508,"overline":3509,"Ġprovided":3510,"istic":3511,"ird":3512,"lice":3513,".}":3514,"Ptr":3515,"ixel":3516,"make":3517,"ops":3518,"ront":3519,"Ġweek":3520,"Ġdest":3521,"engine":3522,"lies":3523,"tach":3524,"Description":3525,"Ġeas":3526,"Local":3527,"Auth":3528,"Ġentry":3529,"ĠReg":3530,"Ġder":3531,"CL":3532,"chi":3533,"auto":3534,"argument":3535,"\".":3536,"Ġreceiv":3537,"Ġdue":3538,"Font":3539,"otential":3540,"requ":3541,"Ġshort":3542,"Match":3543,"dated":3544,"Ġdel":3545,"chool":3546,"system":3547,"delete":3548,"Ġhapp":3549,"nap":3550,"Ġelect":3551,"ĠBG":3552,"Ġrender":3553,"Ġprogram":3554,"Ġnum":3555,"AA":3556,"cret":3557,"&#":3558,"Current":3559,"Ġregion":3560,"Ġsyn":3561,"Pos":3562,"Serial":3563,"orph":3564,"ãĥ":3565,"internal":3566,"Render":3567,"orn":3568,"Ġreason":3569,"Ġterms":3570,"03":3571,"Ġquest":3572,"ĠNS":3573,"Ġundefined":3574,"Ġrelease":3575,"Let":3576,"Ġtypes":3577,"NavBar":3578,"Impl":3579,"Ġspecific":3580,"Ġemp":3581,"ĠException":3582,"Ġevents":3583,"msg":3584,"encies":3585,"ij":3586,"Ġagainst":3587,"served":3588,"orizont":3589,"Ġcour":3590,"frak":3591,".\\":3592,"UB":3593,"ĠTra":3594,"leted":3595,"Work":3596,"irm":3597,"77":3598,"roy":3599,"ansport":3600,"&\\":3601,"ĉĉĊ":3602,"amer":3603,"Ġtemplate":3604,"Dir":3605,"Ġpur":3606,"2013":3607,"}),":3608,"Ġpackage":3609,"prop":3610,"Ġbook":3611,"uple":3612,"known":3613,"Operation":3614,"(:":3615,"Ġsequence":3616,"Ġoc":3617,"Ġlanguage":3618,"Ġfollows":3619,"hover":3620,"BO":3621,"ART":3622,"},\\":3623,"Ġrandom":3624,"ĠDE":3625,"PECT":3626,"Ġremain":3627,"ĠFe":3628,"Ġhash":3629,"Ġjob":3630,"Ġcomb":3631,"Ġleast":3632,"Ġdiv":3633,"Ġempty":3634,"Ġ['":3635,"Ġmight":3636,"Sign":3637,"Ġless":3638,"ALL":3639,"EQ":3640,"rep":3641,"Ġinfo":3642,"Port":3643,"widget":3644,"Ġarguments":3645,"hline":3646,"hes":3647,"Ġchannel":3648,"MM":3649,"arm":3650,"Ġ~":3651,"isf":3652,"CP":3653,"Helper":3654,"ety":3655,"Ġtrack":3656,"webkit":3657,"Store":3658,"ambda":3659,"Ġbecome":3660,"adow":3661,"Ġfew":3662,"Ġcreated":3663,"à¤":3664,"vm":3665,"Rout":3666,"Ġturn":3667,"card":3668,"Ġassociated":3669,"outh":3670,"eded":3671,"orizontal":3672,"imer":3673,"Ġcla":3674,"brary":3675,"ze":3676,"foo":3677,"lying":3678,"Ġhandle":3679,"footer":3680,"One":3681,"click":3682,"Core":3683,"types":3684,"Ġspect":3685,"Ġconfiguration":3686,"join":3687,"cat":3688,"req":3689,"ĠSp":3690,"ORT":3691,"background":3692,"ĠMar":3693,"icons":3694,"scal":3695,"Left":3696,"Ġdefine":3697,"send":3698,"bolds":3699,"session":3700,"toString":3701,"={":3702,"ln":3703,"ured":3704,"Ġcontains":3705,"ires":3706,"hel":3707,"Ġvector":3708,"ERROR":3709,"fil":3710,"sv":3711,"boldsymbol":3712,"ĠThen":3713,"ks":3714,"exports":3715,"rem":3716,"Ġdistribution":3717,"ĠBGCOLOR":3718,"WE":3719,"Parameters":3720,"Ġfour":3721,"Ġvia":3722,"Ġstudy":3723,"Ġmet":3724,"ĠTO":3725,"Ġbetter":3726,"settings":3727,"Us":3728,"Ġstandard":3729,"Ġgr":3730,"ority":3731,"Template":3732,"ieve":3733,"cle":3734,"Ð°Ð":3735,"'>":3736,"ynamic":3737,"Ġbegin":3738,"Ġvari":3739,")^":3740,"'],":3741,"?:":3742,"tool":3743,"Ġoperator":3744,"ped":3745,"transform":3746,"=\"/":3747,"stand":3748,"###":3749,"Ġscale":3750,"aa":3751,"47":3752,"Ġincrease":3753,"uman":3754,"Ġ;":3755,"Ġlight":3756,"ĠLog":3757,"Ġbelow":3758,"Lambda":3759,"icrosoft":3760,"equals":3761,"Device":3762,"uss":3763,"hn":3764,"enter":3765,"ĠUS":3766,"clear":3767,"ĠAmeric":3768,"ĠĠĠĠĠĠĠĠĠĠĠĠĠĠĠĠĠĠĠĠ":3769,"Ġinf":3770,"panel":3771,"IV":3772,"Cal":3773,"pename":3774,"pository":3775,"mathfrak":3776,"Ġlocation":3777,"ĠUniversity":3778,"Ġparse":3779,"Ġscope":3780,"ĠCheck":3781,"Ġnamespace":3782,"Definition":3783,"rr":3784,"Down":3785,"2021":3786,"Ġtoken":3787,"Ġperformance":3788,"Ġve":3789,"Use":3790,"Ġshows":3791,"icker":3792,"ãĤ":3793,"`.":3794,"Detail":3795,"Title":3796,"ctionary":3797,"ters":3798,"49":3799,"2012":3800,"Ġmeans":3801,"Rect":3802,"ymme":3803,"Vector":3804,";->":3805,"Ġcl":3806,"Iter":3807,"Inst":3808,"ignore":3809,"Scal":3810,"65":3811,"Vert":3812,"IF":3813,"Ġcontinue":3814,"255":3815,"ker":3816,"Host":3817,"Ġcomplex":3818,"SO":3819,"ĠOR":3820,"Ġexception":3821,"disabled":3822,"Ġdevice":3823,"ĠÂ":3824,"ĠHowever":3825,"DD":3826,"coder":3827,"omic":3828,"lev":3829,"rest":3830,"=\"../../../":3831,"Invalid":3832,"ids":3833,"byte":3834,"bb":3835,"export":3836,"ĠSee":3837,"ially":3838,"AND":3839,"Ġpair":3840,"Right":3841,"Ġdescription":3842,"$(":3843,"ĠWhen":3844,"impl":3845,"Ġtimes":3846,"ä¸":3847,"Ġdr":3848,"idual":3849,"media":3850,"aly":3851,"replace":3852,"cover":3853,"Package":3854,"Ġimportant":3855,"Ġobjects":3856,"Ġinvest":3857,"Ġconstant":3858,"ĠJan":3859,"Ġ})":3860,"Ġterm":3861,"ĠĠĠĠĠĠĠĠĠĠĠĠĠĠĠĠĠĠĠĠĠĠĠĠĠĠĠĠĠĠĠĠĠĠĠĠĠĠĠ":3862,"ĠRem":3863,"Ġcollection":3864,"sa":3865,"Ġsolution":3866,"Handle":3867,"Ġadded":3868,"utor":3869,"Ġalign":3870,"lor":3871,"Api":3872,"coin":3873,"Ġmonth":3874,"Order":3875,"alle":3876,"ĠCan":3877,"Ġinstead":3878,"handle":3879,"ĠâĢĶ":3880,"(*":3881,"ably":3882,"mbers":3883,"ĠEXPECT":3884,"Kind":3885,"custom":3886,"Ġsure":3887,"iddle":3888,"ldots":3889,"Ġintegr":3890,"oom":3891,"ĠSup":3892,"nab":3893,"langle":3894,"Ġcannot":3895,"Ġgoing":3896,"alf":3897,"}}$":3898,"ĠTrans":3899,"False":3900,"uck":3901,"legate":3902,"Ġreally":3903,"IR":3904,"Debug":3905,"blockList":3906,"ĠIm":3907,"Ġremo":3908,"Ġimpro":3909,"desc":3910,"---":3911,"aring":3912,"pop":3913,"42":3914,"aven":3915,"Ġecho":3916,"}\"":3917,"ries":3918,"under":3919,"Ġide":3920,"Ġsolid":3921,"Ġload":3922,"Ġdefinition":3923,"Ġstrong":3924,"Ġkeep":3925,"ina":3926,"GET":3927,"izes":3928,"Icon":3929,"equal":3930,"ĠĠĠĠĠĠĊ":3931,"ĠST":3932,"vid":3933,"uggest":3934,"Ġdelete":3935,"access":3936,">();":3937,"address":3938,"Ġpotential":3939,"Ġalong":3940,"Ġtransform":3941,"Assert":3942,"izing":3943,"Ġcases":3944,"global":3945,"Ġsever":3946,"Values":3947,"fill":3948,"Ġrespon":3949,"Ġlife":3950,"ands":3951,"ĠJSON":3952,"Phi":3953,"Ġsimple":3954,"na":3955,"Ġexists":3956,"{}":3957,"Names":3958,"Ġselected":3959,"atures":3960,"illi":3961,"istent":3962,"-->":3963,"ORD":3964,"vector":3965,"Ġdoesn":3966,"__(":3967,"padding":3968,"Ġstep":3969,"ressed":3970,"Stack":3971,"ĠMap":3972,"Ġdetails":3973,"Ġsm":3974,"Ġauth":3975,"Ġweight":3976,"Ġassume":3977,"Ġchanges":3978,"uro":3979,"aster":3980,"\\|":3981,"usic":3982,"Ġsatisf":3983,"ĠInst":3984,"Mult":3985,"framework":3986,"ĠWith":3987,"Ġcenter":3988,"Draw":3989,"ĠMay":3990,"&&":3991,"Sk":3992,"rary":3993,"Parent":3994,"otion":3995,"TED":3996,"appa":3997,"uri":3998,"ade":3999,"aging":4000,"Ġmedia":4001,"Ġlinear":4002,"Classes":4003,"ORM":4004,"ĠThey":4005,"Ġcorresponding":4006,"Ġrate":4007,"ataset":4008,"SET":4009,">.":4010,"ĠCal":4011,"tect":4012,"That":4013,"lash":4014,"_;":4015,"70":4016,"aves":4017,"Descript":4018,"Ġnever":4019,"Ġswitch":4020,"Tab":4021,"(-":4022,"Ġunit":4023,"Ġsend":4024,"weight":4025,"Ġos":4026,"posed":4027,"2011":4028,"ĠCON":4029,"----------------------------------------------------------------":4030,"Ġoccur":4031,"Ġlower":4032,"plugins":4033,"Ġpa":4034,"PR":4035,"Ġsays":4036,"dependency":4037,"PL":4038,"Ġbyte":4039,"Ġintro":4040,"Mon":4041,"Ġactive":4042,"85":4043,"Metadata":4044,"Ġpat":4045,"greg":4046,"Ġphase":4047,"46":4048,"citep":4049,"Ġcorrect":4050,"Tests":4051,"precated":4052,"Ġcontainer":4053,"pped":4054,"fony":4055,"Ġzero":4056,"Ġauthor":4057,"aut":4058,"Pri":4059,"ategy":4060,"vas":4061,"toggle":4062,"ymfony":4063,"jection":4064,"Reader":4065,"raft":4066,"Ġbox":4067,"ometry":4068,"connect":4069,"Ġheader":4070,"Ġdiff":4071,"Ġrecent":4072,"ĠDate":4073,"ĠTrue":4074,"Ġanalysis":4075,"Ġteam":4076,"Ġfeatures":4077,"coded":4078,"Ġknown":4079,"fn":4080,"une":4081,"Ġmer":4082,"Policy":4083,"Application":4084,"Meta":4085,"CD":4086,"pg":4087,"ATH":4088,"omen":4089,"kappa":4090,"Ġpas":4091,"boolean":4092,"Ġbehav":4093,"Ġsepar":4094,"Ġstop":4095,"ube":4096,"\\\"":4097,"Post":4098,"95":4099,"unch":4100,"fficient":4101,"Ġuntil":4102,"Ġsupp":4103,"nd":4104,"coq":4105,"SION":4106,"Ġmultiple":4107,"Rep":4108,"lim":4109,"material":4110,";<":4111,"illion":4112,"Ġspecial":4113,"Ġamount":4114,"formed":4115,"Bytes":4116,"bound":4117,"ari":4118,"ittle":4119,"Ġunsigned":4120,"ctor":4121,"Ġmag":4122,"Track":4123,"mi":4124,"Ġsession":4125,"You":4126,"cf":4127,"Args":4128,"cla":4129,"ertain":4130,"Ġpl":4131,"ĠRE":4132,"Boolean":4133,"Ġgenerated":4134,"Ġreplace":4135,"HP":4136,"rist":4137,"Ġregister":4138,"help":4139,"Ġinline":4140,"Ġselection":4141,";/":4142,"Click":4143,"arr":4144,"Ġtree":4145,"Ġconditions":4146,"gether":4147,"then":4148,"none":4149,"dapter":4150,"Ġcommon":4151,"INE":4152,"solute":4153,"rect":4154,"Long":4155,"Has":4156,"exception":4157,"Ġorgan":4158,"Byte":4159,"URE":4160,"Dialog":4161,"ĠSub":4162,"otimes":4163,"Body":4164,"Enabled":4165,"Root":4166,"Ġreturned":4167,"register":4168,"Ġsample":4169,"Param":4170,"ixt":4171,"Ġdesign":4172,"lue":4173,"ĠLet":4174,"Ġstates":4175,"Ġdatabase":4176,"Ġtransaction":4177,"\\%":4178,"ĠPol":4179,"cit":4180,"zz":4181,"87":4182,"Ġcontinu":4183,"XX":4184,"ograph":4185,"Ġleg":4186,"Ġperiod":4187,"ĠHTML":4188,"Ass":4189,"Delete":4190,"Ġsets":4191,"ĠMon":4192,"callback":4193,"Ġ'/":4194,"Ġjson":4195,"Ġgot":4196,"Ġho":4197,"aged":4198,"dr":4199,"Ġsite":4200,"Ġbytes":4201,"just":4202,"ours":4203,"`,":4204,"ASS":4205,"})$":4206,"comm":4207,"shot":4208,"focus":4209,"category":4210,"FAULT":4211,"nabla":4212,"Ġonce":4213,"Ġobserv":4214,"Ġexcept":4215,"Ġdirectory":4216,"ĠRo":4217,"PT":4218,"Ġface":4219,"JECT":4220,"ĠAb":4221,"Ġfamily":4222,"Rule":4223,"Ġnodes":4224,"86":4225,"Ġnear":4226,"dom":4227,"DF":4228,"success":4229,"application":4230,"Ġ('":4231,"subset":4232,"nected":4233,"ATA":4234,"textit":4235,"sel":4236,"resol":4237,"amil":4238,"Ġ<=":4239,"double":4240,"Widget":4241,"II":4242,"Writer":4243,"ensuremath":4244,"ipel":4245,"Ġgreat":4246,"amera":4247,"Ġcirc":4248,"Ġchildren":4249,"âĢĶ":4250,"Ġins":4251,"normal":4252,"Ġfuture":4253,"missions":4254,"Load":4255,"Ġlines":4256,"Ġ++":4257,"ĠNOT":4258,"ĠState":4259,"ĠEvent":4260,"Ap":4261,"xis":4262,"Ge":4263,"gu":4264,"wards":4265,"Ġbutton":4266,"Ġss":4267,"Jo":4268,"ĠPer":4269,"Ġseries":4270,"annotation":4271,"ike":4272,"Ġthread":4273,"Ver":4274,"Edit":4275,"EM":4276,"inding":4277,"DU":4278,"cpp":4279,"after":4280,"ragment":4281,"ĠNe":4282,"asing":4283,"ĠError":4284,"Ġgive":4285,"Ġfurther":4286,"ĠAL":4287,"Ġsomething":4288,"ĠIO":4289,"chron":4290,"Ġcost":4291,"Ġrelative":4292,"margin":4293,"mbox":4294,"Ġdetermin":4295,"ĠWeb":4296,"Net":4297,"Ġgrow":4298,"ĠInter":4299,"ĠThese":4300,"1000":4301,"admin":4302,"'))":4303,"logical":4304,"Non":4305,"ustr":4306,"endar":4307,"wrap":4308,"hip":4309,"cloud":4310,"ceive":4311,"email":4312,"trics":4313,"oose":4314,"Ġpaper":4315,"Are":4316,"ising":4317,"dient":4318,"record":4319,"Ġsettings":4320,"Ġequal":4321,"Ġexpression":4322,"Storage":4323,"Ġaccept":4324,"Mark":4325,"aws":4326,"Ġsignific":4327,"Ġbig":4328,"ought":4329,"Sigma":4330,"Member":4331,"keyword":4332,"ilities":4333,"Rel":4334,"items":4335,"Ġsort":4336,"\"\"\"":4337,"Graph":4338,"ĠCar":4339,"grid":4340,"Tool":4341,"chan":4342,"Ġcontrib":4343,"Cre":4344,"oost":4345,"ublish":4346,"Ġdistance":4347,"note":4348,"Ġtransition":4349,"sql":4350,"xx":4351,"insert":4352,"fields":4353,"enum":4354,"cr":4355,"ĠNote":4356,"AGE":4357,"volution":4358,"Ne":4359,"overnment":4360,"ploy":4361,"CTION":4362,"sort":4363,"Ġhard":4364,"Mock":4365,"dividual":4366,"Ġfailed":4367,"ĠGe":4368,"Num":4369,"step":4370,"comment":4371,"Ġcy":4372,"OK":4373,"There":4374,"Ġhead":4375,"57":4376,"fit":4377,"most":4378,"Job":4379,"Ġapproach":4380,"based":4381,"Ġhealth":4382,"Ġevalu":4383,"Custom":4384,"hr":4385,"umbers":4386,"connection":4387,"Ġphys":4388,"Ġapi":4389,"DL":4390,"Ġautom":4391,"Ġexperience":4392,"Ġadditional":4393,"chor":4394,"Ġhy":4395,"Ġcare":4396,"Channel":4397,"ĠBo":4398,"lapse":4399,"2010":4400,"SL":4401,"ĠEng":4402,"ĠAct":4403,"mitted":4404,"password":4405,"virtual":4406,"Ġlaw":4407,"uting":4408,"dat":4409,"protobuf":4410,"/\\":4411,"Ġitems":4412,"âĢĵ":4413,"ĠShe":4414,"ĠUser":4415,"mock":4416,"Ð»":4417,"89":4418,"scroll":4419,"tries":4420,"Changed":4421,"Ġapplic":4422,"Descriptor":4423,"External":4424,"ĠĠĠĠĠĠĠĠĠĠĠĠĠĠĠĠĠĠ":4425,"Ġsu":4426,"Ġarea":4427,"ublished":4428,"rief":4429,"ĠassertEquals":4430,"Ø§":4431,"had":4432,"atio":4433,"Ġwallet":4434,"Ġweb":4435,"ied":4436,"Ġsetting":4437,"Fig":4438,"Ġobtained":4439,"Ġkind":4440,"Ġmemory":4441,"Ġable":4442,"romise":4443,"Ġsent":4444,"Ġwait":4445,"ĠTime":4446,"Ġred":4447,"edit":4448,"Ġenvironment":4449,"Ste":4450,"tic":4451,"install":4452,"atist":4453,"operator":4454,"ned":4455,"free":4456,"Ġbr":4457,"full":4458,"ĠMath":4459,"gative":4460,"KEY":4461,"ley":4462,"GE":4463,",-":4464,"Ġalt":4465,"Ġfixed":4466,"Ġind":4467,"\\[":4468,"Build":4469,"attribute":4470,"Bound":4471,"ĠValue":4472,"RA":4473,"Ġlik":4474,"iteral":4475,"Pattern":4476,"rupt":4477,"Ġresearch":4478,"ĉĉĉĊ":4479,"Obj":4480,"cmd":4481,"Ġflu":4482,"Ġinvoke":4483,"ĠLO":4484,"Ġerrors":4485,"}-":4486,"buil":4487,"issing":4488,"high":4489,"Ġproof":4490,"Queue":4491,"Fields":4492,"aff":4493,"ĠURL":4494,"short":4495,"Xml":4496,"Ġsystems":4497,"TEST":4498,"Ġdomain":4499,"nonumber":4500,"Ġprop":4501,"Ġ\"/":4502,"Ġcome":4503,"\")]":4504,"Ġhtml":4505,"maz":4506,"white":4507,"{-":4508,"tip":4509,"webpack":4510,"keys":4511,"END":4512,"dots":4513,"uby":4514,"Ġ(*":4515,"initial":4516,"=\"@":4517,"Ġcomplete":4518,"Ñĥ":4519,"Timeout":4520,"Ġsw":4521,"JSON":4522,"PRE":4523,"So":4524,"ones":4525,"How":4526,"like":4527,"ised":4528,"Ġalgorithm":4529,"mid":4530,"Ġdraw":4531,"reed":4532,"Account":4533,"Ġyet":4534,"Doc":4535,"Ġfar":4536,"Ġunique":4537,"Show":4538,"Ġmsg":4539,"dim":4540,"rule":4541,"Ġjavax":4542,"'re":4543,"hs":4544,"Ġactual":4545,"ACE":4546,"Ġinteger":4547,"region":4548,"Ġenough":4549,"lank":4550,"Ġpattern":4551,"Def":4552,"ĠAss":4553,"Display":4554,"aries":4555,"dropdown":4556,"[:":4557,"riend":4558,"allow":4559,"Ġdb":4560,"Ġnames":4561,"Ġrunning":4562,"numer":4563,"Ġnecess":4564,"ived":4565,"addr":4566,"oll":4567,"Ġraise":4568,"HTML":4569,"ipeline":4570,"modules":4571,"thers":4572,"ĠIS":4573,"Ġdifference":4574,"Ġlater":4575,"yntax":4576,"mut":4577,"equiv":4578,"500":4579,"Ġacross":4580,"lain":4581,"iform":4582,"Ġwon":4583,"Ġty":4584,"Ġhigher":4585,"unsigned":4586,"lide":4587,"home":4588,"Ġassign":4589,"uses":4590,"assets":4591,"serial":4592,"gebra":4593,"ĠCor":4594,"Ġthings":4595,"Ġseen":4596,"pdf":4597,"ocket":4598,"Ġapprox":4599,"Extension":4600,"Ġmoment":4601,"crypt":4602,"herit":4603,"radius":4604,"Ġ{};":4605,"Ġseveral":4606,"entity":4607,"Ġflow":4608,"unded":4609,"car":4610,"ages":4611,"ula":4612,"Ġ(\"":4613,"56":4614,"site":4615,"lines":4616,"Found":4617,"ĠBase":4618,".*":4619,"ITY":4620,"Ġpositive":4621,"mic":4622,"sumer":4623,"super":4624,"ĠUse":4625,"rip":4626,"Ġneeded":4627,"cogn":4628,"abs":4629,"centering":4630,"lier":4631,"which":4632,"Ġadv":4633,"inline":4634,"}}{":4635,"Send":4636,"typeof":4637,"Te":4638,"respon":4639,"======":4640,"Ġsurface":4641,"urb":4642,"Ġexact":4643,"Ġscript":4644,"Ġbtn":4645,"FILE":4646,"Ġsimp":4647,"Ġnumer":4648,"Decl":4649,"widetilde":4650,"rome":4651,"Transaction":4652,"ĠMy":4653,"Ġcluster":4654,"acing":4655,"dx":4656,"Each":4657,"gre":4658,"Ġdoc":4659,"shape":4660,"Can":4661,"clo":4662,"gan":4663,"agnost":4664,"ulture":4665,"Ġtraining":4666,"istration":4667,"Results":4668,"ino":4669,"59":4670,"SA":4671,"ĠDefault":4672,"Ġextra":4673,"Ġnet":4674,"Ġsignificant":4675,"Ġaverage":4676,"Active":4677,"Ġsoftware":4678,"Ġcomplet":4679,"quired":4680,"Ġneeds":4681,"cial":4682,"Ġinstanceof":4683,"MD":4684,"Ġ&=":4685,"Fa":4686,"ench":4687,"condition":4688,"Bo":4689,"ĠĠĠĠĠĠĠĠĠĠĠĠĠĠĠĠĠĠĠĠĠĠĠĠĠ":4690,"Ġapply":4691,"jquery":4692,"Ġsupported":4693,"Ġtheory":4694,"Ã¡":4695,"stats":4696,"Lock":4697,"ĠLo":4698,"IX":4699,"Items":4700,"Ġrot":4701,"witter":4702,"yes":4703,"Ġtogether":4704,"utf":4705,"language":4706,"Ġconsole":4707,"arison":4708,"Msg":4709,"Ġmaximum":4710,"Arg":4711,"Ġemb":4712,"\\!":4713,"ĠVal":4714,"cos":4715,"Flags":4716,"ev":4717,"Ġrelated":4718,"Ġlate":4719,"Red":4720,"Ġvideo":4721,")))":4722,"primary":4723,"Symbol":4724,"vision":4725,"(){":4726,"Ġgl":4727,"raints":4728,"Ġ%}":4729,"tection":4730,".__":4731,"ternational":4732,"Ġcr":4733,"Plugin":4734,"Ġedge":4735,"CA":4736,"save":4737,"ping":4738,"Ġ[];":4739,"tsd":4740,"Ġrule":4741,"Ġsubject":4742,"Float":4743,"\"`":4744,"Ġ${":4745,"year":4746,"isk":4747,"eting":4748,"Ġdensity":4749,"ById":4750,"FT":4751,"ĠCre":4752,"tmp":4753,"VID":4754,"Ġhandler":4755,"ĠPre":4756,"ĠStr":4757,"Scope":4758,"Ġnote":4759,"domain":4760,"channel":4761,"Database":4762,"Ġfeel":4763,"VERSION":4764,"contrib":4765,"Ġchain":4766,")/":4767,"(!":4768,"edge":4769,"PS":4770,"umpt":4771,"ĠTable":4772,"Ġanaly":4773,"\">&":4774,"CR":4775,"76":4776,"Network":4777,"Activity":4778,"After":4779,"Ġcross":4780,"Ġrespectively":4781,"screen":4782,"ĠGoogle":4783,"Any":4784,"Variable":4785,"oney":4786,"~~~~":4787,"@\"":4788,"Ġfit":4789,"itude":4790,"git":4791,"variant":4792,"ĠMin":4793,"Ġcompany":4794,"ales":4795,"Ġdays":4796,"Initial":4797,"','":4798,"ymp":4799,"Ġequation":4800,"EXT":4801,"obile":4802,"events":4803,"wner":4804,"ĠEd":4805,";\\":4806,"controller":4807,"=\"\">":4808,"ĠFalse":4809,"spring":4810,"ĠOpen":4811,"Ġpointer":4812,"ury":4813,"holder":4814,"Ġhistory":4815,"nt":4816,"WS":4817,"Ġbar":4818,"Ġpy":4819,"ĠThat":4820,"Ġstack":4821,"ĠPy":4822,"CS":4823,"prime":4824,"OM":4825,"ni":4826,"When":4827,"Ġotherwise":4828,"Directory":4829,"ĠImp":4830,"]:":4831,"43":4832,"thread":4833,"BR":4834,"Bit":4835,"Ġinvol":4836,"product":4837,"Auto":4838,"ADD":4839,"Only":4840,"ĠJul":4841,"views":4842,"chedule":4843,"ĠMore":4844,"My":4845,"Ġbusiness":4846,"////////////////////////////////":4847,"lg":4848,"Ġmakes":4849,"Ġcertain":4850,"Ġworking":4851,"Ġmov":4852,"gex":4853,"Resol":4854,"\\]":4855,"ĠSection":4856,"Ġlittle":4857,"lish":4858,"term":4859,"}]":4860,"entication":4861,"Ġindividual":4862,"properties":4863,"onal":4864,"Logger":4865,"Ġblack":4866,"hadoop":4867,"Ġpolicy":4868,"Ġusers":4869,"Ġsuggest":4870,"Ġestim":4871,"_,":4872,"lems":4873,"Ġask":4874,"more":4875,"important":4876,"96":4877,"Ġattr":4878,"Ġseem":4879,"PAR":4880,"SCR":4881,"ĠSte":4882,"alled":4883,"ka":4884,"Pa":4885,"Ġmembers":4886,"real":4887,"lyph":4888,"Ġpassed":4889,"profile":4890,"arp":4891,"points":4892,"flags":4893,"ti":4894,"ĠNov":4895,"256":4896,"ĠMark":4897,"Init":4898,"ology":4899,"Support":4900,"wer":4901,"Expr":4902,"ĠOne":4903,"va":4904,"lastic":4905,"ĠGu":4906,"Ġvariables":4907,"Ġprom":4908,"Ġsuccessful":4909,"Ġ),":4910,"Ġmaj":4911,"ledge":4912,"Media":4913,"41":4914,"=\"\"":4915,"acters":4916,"eds":4917,"LOG":4918,"account":4919,"CHE":4920,"2009":4921,"TABLE":4922,"ung":4923,"tabular":4924,"Ġtests":4925,"napshot":4926,"UID":4927,"Bu":4928,"Ġfrequ":4929,"ĠPr":4930,"++;":4931,"Ġfunc":4932,"*)":4933,"asis":4934,"Ã¤":4935,"Panel":4936,"Ġexisting":4937,"MENT":4938,"ĠPart":4939,"IMP":4940,"Internal":4941,"ARY":4942,"assertEquals":4943,"97":4944,"ifest":4945,"Ġunderstand":4946,"andid":4947,"Ðº":4948,"cb":4949,"OD":4950,"alysis":4951,"$/":4952,"ĠTHE":4953,"txt":4954,"ĠCopy":4955,"alance":4956,"Ġrepresentation":4957,"SIZE":4958,"Ġpract":4959,"Psi":4960,"Windows":4961,"ĠKey":4962,"job":4963,"ides":4964,")));":4965,"Adapter":4966,"Ġvisit":4967,"indent":4968,"selected":4969,"Ġsymbol":4970,"NE":4971,"press":4972,"ana":4973,"'.":4974,"}+":4975,"Ġlock":4976,"ĠNode":4977,"Ġmember":4978,"Ġkeys":4979,"Ġmaterial":4980,"Ġmock":4981,"ĠSc":4982,"legal":4983,"Ġlayer":4984,"results":4985,"()));":4986,"notation":4987,"....":4988,"atural":4989,"illa":4990,"Ġche":4991,"Ġemail":4992,"ĉĠĠĠĠĠĠĠ":4993,"udi":4994,"Ġstrict":4995,"emma":4996,"schema":4997,"Loader":4998,"inte":4999,"ĠNO":5000,"Selector":5001,"ĠOut":5002,"Main":5003,"Lib":5004,"mine":5005,"ango":5006,"that":5007,"Ġtyp":5008,"Symfony":5009,"ĉĠĠĠĠĠ":5010,"Security":5011,"tabs":5012,"Ġvolume":5013,"alloc":5014,"ertific":5015,"cheme":5016,"Events":5017,"Ġng":5018,"STAT":5019,"BA":5020,"Ġquestion":5021,"################":5022,"Ġuses":5023,"_->":5024,"82":5025,"\\{":5026,"_(":5027,"anger":5028,"PATH":5029,"rain":5030,"each":5031,"()).":5032,"84":5033,"ĠEq":5034,"linear":5035,"Ġhaving":5036,"stop":5037,"TS":5038,"Pool":5039,"quare":5040,"Ġignore":5041,"TEX":5042,"horizontal":5043,"star":5044,"=\"${":5045,"Ġaccording":5046,"Sum":5047,"Ġaff":5048,"Ġfund":5049,"por":5050,"ighb":5051,"]]":5052,"Ġgroups":5053,"Ġphot":5054,"logger":5055,"Ġimages":5056,"ners":5057,"Ġmaking":5058,"Ġprovides":5059,"IE":5060,"Elements":5061,"Ġgen":5062,"Ġconstruct":5063,"Ġtemper":5064,"Desc":5065,"Ġfactor":5066,"ided":5067,"ament":5068,"ĠĠĠĠĠĠĠĠĠĠĠĠĠĠĠĠĠĠĠĠĠĠĠĠ":5069,"Ġdimension":5070,"Ġpast":5071,"->_":5072,"lemma":5073,"Ġwritten":5074,"Ġcref":5075,"hib":5076,"pk":5077,"ĠTheorem":5078,"Transform":5079,"ĠLoc":5080,"Ġoffer":5081,"ĠInt":5082,"160":5083,"Ġcomponents":5084,"Ġoptim":5085,"atalog":5086,"Generic":5087,"ROM":5088,"}=\\":5089,"}</":5090,"ha":5091,"Ġconnect":5092,"allen":5093,"NotNull":5094,"çļ":5095,"ĠQu":5096,"track":5097,"ĠOct":5098,"Ġpack":5099,"pay":5100,"Ġconsidered":5101,"appro":5102,"Grid":5103,"sure":5104,"çļĦ":5105,"Ġlot":5106,"Iterator":5107,"Ġallows":5108,"assertEqual":5109,"Close":5110,"Ġ{'":5111,"ĠĠĠĠĠĠĠĠĠĠĠĠĠĠĠĠĠĠĠĠĠĠĠĠĠĠĠĠĠĠĠĠĠĠĠĠĠĠĠĠĠĠĠ":5112,"ention":5113,"BP":5114,"ĠJanuary":5115,"Struct":5116,"pher":5117,"quires":5118,"Ġcurrently":5119,"Ġservices":5120,"ĠEnd":5121,"GS":5122,"Ġaway":5123,"Ġclasses":5124,"manager":5125,"Ġextension":5126,"nology":5127,"Attributes":5128,"Duration":5129,"ĠĠĠĠĠĠĠĠĠĠĠĠĠĠĠĠĠĠĠĠĠĠ":5130,"ĠSk":5131,"external":5132,"Ġlearning":5133,"apply":5134,"Proxy":5135,"mas":5136,"Now":5137,"zeta":5138,"Ġdirectly":5139,"Feature":5140,"=>":5141,"Ġwhy":5142,"Ġstory":5143,"security":5144,"What":5145,"Ġicon":5146,"Ġattributes":5147,"Ġworks":5148,"Ġelem":5149,"ĠText":5150,"covery":5151,"win":5152,"Ġcoordin":5153,"2008":5154,"Ġtool":5155,"getName":5156,"Ġimplementation":5157,"handler":5158,"ĠAug":5159,"NavBarCell":5160,"Note":5161,"Ġpanel":5162,"NG":5163,"browser":5164,"Ġactiv":5165,"ĠAND":5166,"Browser":5167,")}\\":5168,"thm":5169,"Ġarch":5170,"'])":5171,"Ġcover":5172,"Ġscreen":5173,"throws":5174,"Ġallowed":5175,"MAX":5176,"ĠResource":5177,"Ġequival":5178,"Ġserial":5179,"ranch":5180,"ĠDi":5181,"Ġemploy":5182,"Enum":5183,"Ġgenerate":5184,"rate":5185,"pl":5186,"Ġdescribe":5187,"Ġlibrary":5188,"wrapper":5189,"tools":5190,"props":5191,"SCRIP":5192,"XML":5193,"ĠVAL":5194,"hidden":5195,"Ġach":5196,"fly":5197,"fail":5198,"Pointer":5199,"ï¼":5200,")\">":5201,"Help":5202,"omin":5203,"ferred":5204,"Dist":5205,"ards":5206,"Editor":5207,"El":5208,"Ġfn":5209,"ering":5210,"scribe":5211,"ĠConfig":5212,"ToString":5213,"dialog":5214,"echo":5215,"ros":5216,"ĠService":5217,"dates":5218,"Ġmatter":5219,"300":5220,"rency":5221,"Ljava":5222,"ĠOption":5223,"gree":5224,"Java":5225,"Prop":5226,"Ġhappen":5227,"trigger":5228,"Ġ\"\"":5229,")),":5230,"Ġdistributed":5231,"fl":5232,"iding":5233,"ables":5234,"Ġdirection":5235,"Ġactually":5236,"Ġsuff":5237,"Ġ=========":5238,"irit":5239,"Ġrem":5240,"Ġhuman":5241,"Ġlinks":5242,"SY":5243,"Keys":5244,"ĠModel":5245,"SQL":5246,")=\\":5247,"ĠIP":5248,"grad":5249,"BUG":5250,"ĠTODO":5251,"vey":5252,"printf":5253,"switch":5254,"Matrix":5255,"Ġconvert":5256,"ully":5257,"Ġcountry":5258,"LIC":5259,"inv":5260,"ĠMethod":5261,"master":5262,"3333":5263,"IB":5264,"though":5265,"Ġoften":5266,"Ġforce":5267,"configuration":5268,"51":5269,"Ġio":5270,"Inv":5271,"components":5272,"picker":5273,"Ġcomment":5274,"Ġfinite":5275,"ernel":5276,"resses":5277,"Register":5278,"400":5279,"family":5280,"Ġthough":5281,"Ġthus":5282,"Ġsocial":5283,"ixture":5284,"Print":5285,"ĠMo":5286,")\"":5287,"warm":5288,"ada":5289,"force":5290,"DULE":5291,"PORT":5292,"hide":5293,"network":5294,"Ġreceived":5295,"ases":5296,"ĠMessage":5297,"ifies":5298,"otal":5299,"Ġwater":5300,"Vol":5301,"iterator":5302,"Ġ\"<":5303,"[$":5304,"ario":5305,"ĠFunction":5306,"ĠJohn":5307,"Ġdevelopment":5308,"redential":5309,"Ġhold":5310,".)":5311,"Ġoffic":5312,"Runtime":5313,"Details":5314,"collection":5315,"ĠAN":5316,"Ġwin":5317,"Ã³":5318,"Memory":5319,"Det":5320,"ĠSpec":5321,"jar":5322,"Ġcontaining":5323,"peat":5324,"Conf":5325,"ĠForm":5326,"UTF":5327,"Ġinvalid":5328,"Parse":5329,"Ġexpress":5330,"}_\\":5331,"Ġsymme":5332,"textwidth":5333,"Ġcourse":5334,"Ġgre":5335,"gba":5336,"urnal":5337,"ĠUpdate":5338,"ĠOb":5339,"ims":5340,"Ġvarious":5341,"Ġ[[":5342,"ĠSome":5343,"Scroll":5344,"Ġalloc":5345,"Ġconver":5346,"Ġensure":5347,"total":5348,"Ġtaken":5349,"58":5350,"Ġdebug":5351,"ĠSince":5352,"Ġ(_":5353,")).":5354,"Ġutil":5355,"Failed":5356,"Ġreq":5357,"theme":5358,"locity":5359,"cup":5360,"sess":5361,"ĠÃ":5362,"SER":5363,"filename":5364,"ao":5365,"ĠCode":5366,"ĠDep":5367,"Ġdescribed":5368,"Ġdiag":5369,"TC":5370,"ĠVersion":5371,"bytes":5372,"contains":5373,"Ġshape":5374,"ansparent":5375,"reshold":5376,"Ġdir":5377,"Ġregular":5378,"iol":5379,"parser":5380,"Ġplugin":5381,"sequence":5382,"igen":5383,"alax":5384,"Ġincluded":5385,"Ġimplements":5386,"shift":5387,"Ġtell":5388,"Ġhar":5389,"Ġtypename":5390,"arger":5391,"ulate":5392,"cons":5393,"Ġcommunity":5394,"Ġbuilder":5395,"atically":5396,"Ġamong":5397,"Double":5398,"Ġdes":5399,"Dest":5400,"ested":5401,"Ġcrit":5402,"}|":5403,"aved":5404,")^{":5405,"Mapping":5406,"}:":5407,"forms":5408,"nes":5409,"area":5410,"Ġrather":5411,"wargs":5412,"ĠView":5413,"dp":5414,"Layer":5415,"Ġasync":5416,"Ġlearn":5417,"FR":5418,"ience":5419,"Ġseason":5420,"Ġaccur":5421,"rong":5422,"ball":5423,"$)":5424,"SCRIPT":5425,"Files":5426,"}^\\":5427,"oung":5428,"clusion":5429,"ullable":5430,"Ġdefin":5431,"Ġplatform":5432,"Ġyield":5433,"navList":5434,"NULL":5435,"Ġpatient":5436,"ONE":5437,"Ġcollect":5438,"Ġexperiment":5439,"Ġindependent":5440,"Ñı":5441,"Ġawait":5442,"Ġans":5443,">:":5444,"shadow":5445,"LS":5446,"Ġclean":5447,"ARE":5448,"hand":5449,"ĠApr":5450,"metadata":5451,"coming":5452,"Ġresources":5453,"wild":5454,"Identifier":5455,"ĠAp":5456,"Ġbottom":5457,"ĠWhat":5458,"Ġparam":5459,"cut":5460,"54":5461,"=\"$":5462,"efficient":5463,"DA":5464,"Ġclosed":5465,"ĠIOException":5466,"Ġexplicit":5467,"Ġtypeof":5468,"Fail":5469,"Ġprec":5470,"bers":5471,"Ġencoding":5472,"Ġwords":5473,"aps":5474,"ĠRead":5475,"ĠNews":5476,"orter":5477,"Func":5478,"uler":5479,"Abstract":5480,"rum":5481,"Ġ\\{":5482,"ught":5483,"Ġrights":5484,"Ġxmlns":5485,")-":5486,"Protocol":5487,"loor":5488,"identifier":5489,"Ġinside":5490,"Ġloss":5491,"symbol":5492,"Ġexplo":5493,"ills":5494,"Ġearly":5495,"sive":5496,"Ġ$.":5497,"cv":5498,"Repository":5499,"Ġenabled":5500,"Attr":5501,"writ":5502,"ĠPo":5503,"Ġfig":5504,"Ġfocus":5505,"CHECK":5506,"idx":5507,"ĠGroup":5508,"atory":5509,"____":5510,"Ġtakes":5511,"apter":5512,"Ġcontact":5513,"bad":5514,"ulations":5515,"reset":5516,"bsite":5517,"bon":5518,"FIG":5519,"otes":5520,"Ġsave":5521,"Before":5522,"acc":5523,"Sync":5524,"Ġbehavior":5525,"loader":5526,"Ġobserved":5527,"uest":5528,"Ġchanged":5529,"Ġwriting":5530,"53":5531,"cdots":5532,"=(":5533,"editor":5534,"<!":5535,"Ġstarted":5536,"Ġlove":5537,"Ġissue":5538,"ently":5539,"Ġstar":5540,"scr":5541,"72":5542,"Wrapper":5543,"dimension":5544,"Ġentity":5545,"Depend":5546,"ota":5547,"cel":5548,"Ġentire":5549,"Ġoptional":5550,"Ġitself":5551,"ĠGets":5552,"ĠFigure":5553,"Remove":5554,"DS":5555,"Ġwhite":5556,"Ġbad":5557,"Ġproposed":5558,"compiler":5559,"tbody":5560,"Profile":5561,"52":5562,"zone":5563,"Ġhalf":5564,"\",\"":5565,"Ġattemp":5566,"Ġctx":5567,"aration":5568,"ĠWorld":5569,"ÃŃ":5570,"ames":5571,"ĠMod":5572,"blue":5573,"Ġtab":5574,"plan":5575,"ny":5576,"ĠWork":5577,"Ġthird":5578,"Ġ\",":5579,"services":5580,"Namespace":5581,"LECT":5582,"prefix":5583,"})\\":5584,"Statement":5585,"sur":5586,"RAN":5587,"urope":5588,"Ġflag":5589,"Pay":5590,"Ġwhose":5591,"kens":5592,"tags":5593,"ights":5594,"Full":5595,"collapse":5596,"Ġnumbers":5597,"cour":5598,"counter":5599,"widehat":5600,"ober":5601,"itional":5602,"Ġavoid":5603,"SU":5604,"pict":5605,"mazon":5606,"ham":5607,"Ġfun":5608,"provider":5609,"Condition":5610,"ĠReact":5611,"ĠRed":5612,"Ġ=======":5613,"Ġappear":5614,"\"><!--":5615,"Global":5616,"}}(":5617,"ĠInitial":5618,"Nodes":5619,"Ġgovernment":5620,"enumer":5621,"%%%%":5622,"ĠĠĠĠĠĠĠĠĠĠĠĠĠĠĠĠĠĠĠĠĠĠĠĠĠĠ":5623,"Ġpassword":5624,"headers":5625,"Socket":5626,"INFO":5627,"Author":5628,"Ġtw":5629,"oman":5630,"anced":5631,"qquad":5632,"Ġthing":5633,"Ġev":5634,"mathsf":5635,"nil":5636,"Ġprobability":5637,"Ġcharacters":5638,"Ġnecessary":5639,"ffff":5640,"Lim":5641,"Ġhowever":5642,"Ġincludes":5643,"execute":5644,"Ġtalk":5645,"=-":5646,"READ":5647,"{(":5648,"MODULE":5649,"protected":5650,"phone":5651,"allclasses":5652,"Props":5653,"!!":5654,"noun":5655,"Ġoperations":5656,"Ġlisten":5657,"netic":5658,"JS":5659,"Ġ[],":5660,"Ġconstructor":5661,"jd":5662,"Ġsignal":5663,"Ġbrowser":5664,"zy":5665,"tex":5666,"hy":5667,"ae":5668,"Ġmusic":5669,"attributes":5670,"protocol":5671,"Ġsizeof":5672,"2007":5673,"Eng":5674,"Ġtre":5675,"ðŁ":5676,"colLast":5677,"GB":5678,"(__":5679,"Ġcoup":5680,"NOT":5681,"ĠFrom":5682,"Ġabsolute":5683,"tty":5684,"Second":5685,"LP":5686,"Generator":5687,"Ġapplied":5688,"HR":5689,"Ġgives":5690,"Ġlarger":5691,"ooks":5692,"Scale":5693,"dy":5694,"Agent":5695,"ĠChrist":5696,"ĠNAME":5697,"ĠTask":5698,"Success":5699,"Ġothers":5700,"chine":5701,"Ġreview":5702,"Ġattack":5703,"conn":5704,"pass":5705,"cience":5706,"OO":5707,"svg":5708,"Import":5709,"effect":5710,"bot":5711,"ĠExp":5712,"uilt":5713,"atible":5714,"ico":5715,"Ġpress":5716,"angular":5717,"ming":5718,"98":5719,"ajax":5720,"}^{(":5721,"variable":5722,"Opt":5723,"ĠInteger":5724,"exists":5725,"Pi":5726,"Ġcoq":5727,"('.":5728,"Ġhidden":5729,"Ġnews":5730,"Trace":5731,"()</":5732,"king":5733,"Ġwhole":5734,"hood":5735,"vention":5736,"Ġdidn":5737,"children":5738,"Ġcamp":5739,"agger":5740,"Ġschool":5741,"ĉĉĉĉĉĉĉĉĉ":5742,"2000":5743,"wik":5744,"Prefix":5745,"Route":5746,"colFirst":5747,"jango":5748,"Ġloop":5749,"Ġfall":5750,"ifying":5751,"Ġtreat":5752,"Space":5753,"details":5754,"ORTED":5755,"iven":5756,"Language":5757,"junit":5758,"ble":5759,"Ġonline":5760,"Ġstorage":5761,"stry":5762,"Ġbeh":5763,"Ġlive":5764,"------------":5765,"login":5766,"Ġprofile":5767,"OUT":5768,"Ġproces":5769,"prev":5770,"Password":5771,"anded":5772,"Ġengine":5773,"duc":5774,"jpg":5775,"Ġsetup":5776,"amaz":5777,"Ġ?>":5778,"78":5779,"Fin":5780,"ĠChar":5781,"Cor":5782,"platform":5783,"ĠAR":5784,"Ġ'<":5785,"Ġcancel":5786,"Ġ\"-":5787,"BC":5788,"names":5789,"ersist":5790,"parameters":5791,"NT":5792,"Ġrules":5793,"ITE":5794,"åı":5795,"progress":5796,"Ġcapt":5797,"marks":5798,"icult":5799,"swarm":5800,"Ġetc":5801,"ensive":5802,"Ġtx":5803,"Ġupper":5804,"Ġparser":5805,"wildfly":5806,"Ġstatement":5807,"Product":5808,":\\":5809,"ĠĠĠĠĠĠĠĠĠĠĠĠĠĠĠĠĠĠĠĠĠĠĠĠĠĠĠĠĠ":5810,"para":5811,"sequ":5812,"storage":5813,"Ġforward":5814,"iving":5815,"Ġthought":5816,"Ġdeal":5817,"Ġvers":5818,"OB":5819,"Ġtoday":5820,"Expect":5821,"CESS":5822,"Err":5823,"ĠOper":5824,"FFFF":5825,"ARN":5826,"Registry":5827,"ertificate":5828,"ulated":5829,"typedef":5830,"reet":5831,"ĠHel":5832,"Ġupdated":5833,"ĠRun":5834,"Ġwatch":5835,"Ġfix":5836,"Ġenter":5837,"RES":5838,"Ġhel":5839,"rf":5840,"Ġill":5841,"Ġsing":5842,"ips":5843,"Constants":5844,"IST":5845,"}'":5846,"maven":5847,"Ġvalign":5848,"ued":5849,"Ġmillion":5850,"ney":5851,"scriptor":5852,"zer":5853,"ĠRequest":5854,"mask":5855,"builder":5856,"vo":5857,"Ġmessages":5858,"sin":5859,"scss":5860,"&=":5861,"Proto":5862,".'":5863,"Ġmulti":5864,"icles":5865,"Ġcore":5866,"aker":5867,"ruby":5868,"MB":5869,"ians":5870,"Ġwaves":5871,"complete":5872,"Common":5873,"Ġsecurity":5874,"Ġcommit":5875,"Ġparts":5876,"More":5877,"tests":5878,"required":5879,"ALSE":5880,"allel":5881,"Ġacc":5882,"assign":5883,".~":5884,"activ":5885,"elli":5886,"}\\\\":5887,"Ġrequires":5888,"Ġexternal":5889,"ances":5890,"ĠJava":5891,"Ġsplit":5892,"CI":5893,"?>":5894,"Ġair":5895,">::":5896,"rase":5897,"79":5898,"Selection":5899,"Ġappend":5900,"Ġpercent":5901,"brief":5902,"ĠAmerican":5903,"68":5904,"ĠNational":5905,"ios":5906,"![":5907,"chart":5908,"special":5909,"Cluster":5910,"Ġcomput":5911,"itect":5912,"Ġprogress":5913,"FLA":5914,"eter":5915,"enabled":5916,"ACT":5917,"Ġdig":5918,"Ġquantum":5919,"ĠIE":5920,"AX":5921,"errors":5922,"Ġ$(\\":5923,"Ġeffects":5924,"Step":5925,"atistics":5926,"Ġmechan":5927,"ategories":5928,"Region":5929,"Ġcut":5930,"invalid":5931,"Tx":5932,"release":5933,"incip":5934,"zero":5935,"Ġ],":5936,"shared":5937,"FS":5938,"Mo":5939,"Ġprotocol":5940,"ĠjQuery":5941,"ĠFirst":5942,"Ġever":5943,"amazon":5944,"ĠField":5945,"moz":5946,"TIME":5947,"umption":5948,"Ġclick":5949,"Ġep":5950,".\");":5951,"Ġnothing":5952,"ĠAg":5953,"Ġexport":5954,"done":5955,"Ġidx":5956,"izable":5957,"indexOf":5958,"Mar":5959,"HTTP":5960,"Ġcalls":5961,"sy":5962,"username":5963,"Ġfra":5964,"Section":5965,"Ġalmost":5966,"nodes":5967,"detail":5968,"HER":5969,"Collections":5970,"spect":5971,"URI":5972,"ua":5973,"black":5974,"generated":5975,"Ġeffective":5976,"Ġlang":5977,"ĠLemma":5978,"leep":5979,"ĠBuild":5980,"Ġqueue":5981,"ĠCall":5982,"ĠCl":5983,"cember":5984,"vc":5985,"ĠĠĠĠĠĠĠĠĠĠĠĠĠĠĠĠĊ":5986,"Ġcontra":5987,"Ġfac":5988,"Ġspin":5989,"TEXT":5990,"BAR":5991,"Ġnavigation":5992,"USE":5993,"Ġprefix":5994,"safe":5995,"socket":5996,"cdn":5997,"ĠUnited":5998,"ĠMarch":5999,"eder":6000,"ĠHash":6001,"definition":6002,"extern":6003,"Ġsens":6004,"osite":6005,"unique":6006,"Resources":6007,"ena":6008,"Ġsolutions":6009,"ĠDr":6010,"riteria":6011,"Ġboundary":6012,"Ġcame":6013,"Ġproper":6014,"Ġ{{":6015,"pare":6016,"/_":6017,"eries":6018,"IND":6019,"Selected":6020,"{%":6021,"ĠWest":6022,"Report":6023,"Domain":6024,"Ġtemperature":6025,"}\\,":6026,"Ġproblems":6027,"usform":6028,"ifdef":6029,"numerusform":6030,"Ġprimary":6031,"Off":6032,"while":6033,"DateTime":6034,"ĠĠĠĠĠĠĠĠĠĠĠĠĠĠĠĠĠĠĠĠĠĠĠĠĠĠĠĠĠĠĠĠĠĠĠĠĠĠĠĠĠĠĠĠĠĠĠĠĠĠĠĠĠĠĠĠĠĠĠĠĠĠĠĠ":6035,"IVE":6036,"Ġunless":6037,"Ġpolit":6038,"Character":6039,"ĠWindow":6040,"lers":6041,")->":6042,"Ġdynam":6043,"CRE":6044,"^+":6045,"Engine":6046,"mal":6047,"NN":6048,"Ġadmin":6049,"Ġmar":6050,"ĠDec":6051,"Pop":6052,"grade":6053,"anging":6054,"Ġlogger":6055,"Ġmask":6056,"video":6057,"...</":6058,"axis":6059,"ĠPublic":6060,"Simple":6061,"mouse":6062,"vs":6063,"random":6064,"Py":6065,"Ġexit":6066,"Ġremoved":6067,"mediate":6068,"ders":6069,"ĠSch":6070,"ocker":6071,"Ġroom":6072,"Ġcompared":6073,"Pack":6074,"lug":6075,"ĠPe":6076,"urch":6077,"lege":6078,"rb":6079,"Ġland":6080,"Ġmenu":6081,"Ġlikely":6082,"omial":6083,"Headers":6084,"Ġlonger":6085,"69":6086,"throw":6087,"ĠLandroid":6088,"Ġang":6089,"Ġcomes":6090,"Sequence":6091,"'));":6092,"Stats":6093,"DC":6094,"xs":6095,"osed":6096,"Ġmarket":6097,"endor":6098,"ĠCopyright":6099,"Ġcity":6100,"Ġheaders":6101,"Ġtmp":6102,"Pe":6103,"Skip":6104,"Ġshared":6105,"citet":6106,"ĠCur":6107,"Generated":6108,"labor":6109,"serve":6110,"ICE":6111,"Word":6112,"Ġimpact":6113,"Ġfive":6114,"Ġui":6115,"springframework":6116,"Ġpredict":6117,"Gra":6118,"ĠUI":6119,"Ġground":6120,"Ġrgba":6121,"iles":6122,"Ġflags":6123,"Ġholds":6124,"ĠMed":6125,"ĠHTTP":6126,"Ġcounter":6127,"ocaml":6128,"Comment":6129,"Ġmultip":6130,"ĠMc":6131,"Ġ&\\":6132,"]$":6133,"Ġtaking":6134,"Visible":6135,"aign":6136,"SR":6137,"itch":6138,";}":6139,"Ġ[\"":6140,"Ġplayer":6141,"PROJECT":6142,"crete":6143,"Then":6144,"ÐµÐ":6145,"pub":6146,"ĠHttp":6147,"Plan":6148,"mac":6149,"Ġextract":6150,"Ġmetadata":6151,"Ġvisible":6152,"Ġband":6153,"pool":6154,"FORM":6155,"ĠCity":6156,"Ġcook":6157,"ĠNow":6158,"ĠYork":6159,"xhtml":6160,"Ġissues":6161,"gers":6162,"EC":6163,"DEFAULT":6164,"Ġ{\"":6165,"pattern":6166,"Ġreported":6167,"Animation":6168,"Category":6169,"Ġtherefore":6170,"Ġshare":6171,"Ġsimply":6172,"128":6173,"pu":6174,"resources":6175,"enses":6176,"Ġspan":6177,"letion":6178,"Uri":6179,"Ġpixel":6180,"spe":6181,"println":6182,"ĠIndex":6183,"Framework":6184,"ptember":6185,"Ġreduce":6186,"ĠProject":6187,"ĠTR":6188,"ĠId":6189,"Volume":6190,"CTYPE":6191,"came":6192,"Texture":6193,"matrix":6194,"Ġfront":6195,"ĠĠĠĊ":6196,"Ġestab":6197,"ifications":6198,"atur":6199,"Ġbene":6200,"ÑĮ":6201,"ĠĠĠĠĠĠĠĠĠĠĠĠĠĠĠĠĠĠĠĠĠĠĠĠĠĠĠĠ":6202,"Ġdeep":6203,"Google":6204,"Ġpick":6205,"Ġtesting":6206,"Ġ×":6207,"Ġfoot":6208,"Ġuseful":6209,"LINE":6210,"feature":6211,"omorph":6212,"Ġminimum":6213,"ĠArt":6214,"Dec":6215,"83":6216,"Ġrequests":6217,"Ġbinary":6218,"lates":6219,"Progress":6220,"Pair":6221,"Ġfinally":6222,"Ġframework":6223,"flag":6224,"dian":6225,"oss":6226,"enable":6227,"fd":6228,"gments":6229,"sys":6230,"href":6231,"aches":6232,"ridge":6233,"Ġproduction":6234,";\">":6235,"clean":6236,"Ġdoing":6237,"dustry":6238,"unty":6239,"ele":6240,"Since":6241,"checkbox":6242,"}+\\":6243,"Ġlooking":6244,"vari":6245,"abilities":6246,"ĠHere":6247,"apos":6248,"Ġforeach":6249,"expr":6250,"Ġsitu":6251,"WN":6252,"Ġgrid":6253,"Ġalgebra":6254,"Ġenable":6255,"Cap":6256,"PER":6257,"Rad":6258,"Ġstudents":6259,"ĠOur":6260,"chain":6261,"Ġfav":6262,"Ġsound":6263,"Ġeditor":6264,"mag":6265,"oted":6266,"Ġprove":6267,"ilit":6268,"veloper":6269,"ĠEurope":6270,"Ġdrop":6271,"ried":6272,"EV":6273,"LOCK":6274,"ĠNumber":6275,"upload":6276,"ooth":6277,"rand":6278,"63":6279,"ĠSO":6280,"Ġdataset":6281,"green":6282,"ĠBar":6283,"Ġinterval":6284,"('/":6285,"Ġblocks":6286,"ĠDirect":6287,"fixed":6288,"TRUE":6289,"Install":6290,"aking":6291,")+":6292,"ĠArrayList":6293,"icient":6294,"construct":6295,"POST":6296,"tention":6297,"ĠAfter":6298,"\"].":6299,"2006":6300,"ceed":6301,"Ġgalax":6302,"Ġshall":6303,"Ġcharset":6304,"approx":6305,"Role":6306,"Ġstarting":6307,"('#":6308,"ĠJune":6309,"layers":6310,"ying":6311,"Ġscen":6312,"Ġeasy":6313,"Ġcategory":6314,"Ġnatural":6315,"ĠThus":6316,"Ġwalk":6317,"Ġmajor":6318,"Ġvertex":6319,"herited":6320,"shall":6321,"fx":6322,"nob":6323,"Ġbuilding":6324,"Ġsense":6325,".<":6326,"Ġecon":6327,"bum":6328,"ctr":6329,"EEEE":6330,"Ġtimeout":6331,"Ġoutside":6332,"atives":6333,"Bind":6334,"IDTH":6335,"llegal":6336,"Ġneighb":6337,"Ġhouse":6338,"Ġrelationship":6339,"ris":6340,"Interval":6341,"users":6342,"Ġtrigger":6343,"Ġdesc":6344,"ndef":6345,"Ġsco":6346,"Ġbus":6347,"istor":6348,"sect":6349,"ieved":6350,"USER":6351,"urs":6352,"ott":6353,"Services":6354,"DT":6355,"Ġeff":6356,"extension":6357,"62":6358,"article":6359,"contin":6360,"RPC":6361,"ĠPost":6362,"Dictionary":6363,"Ġembed":6364,"uit":6365,"(@":6366,"Ids":6367,"atively":6368,"sidebar":6369,"]\\":6370,"iet":6371,"Ġweak":6372,"Ġchoice":6373,"\"/":6374,"Ġ\"$":6375,"Ġabstract":6376,"ustral":6377,"Ġmis":6378,"ĠJuly":6379,"ĠÎ":6380,"rd":6381,"DOCTYPE":6382,"Ġlead":6383,"ĠMake":6384,"Ġcontroller":6385,"hspace":6386,"bert":6387,"large":6388,"sample":6389,"{$":6390,"ĠAf":6391,"neq":6392,"ĠASS":6393,"oring":6394,"present":6395,"|^":6396,"Ġcause":6397,"ĠOver":6398,"andra":6399,"Ġage":6400,"aching":6401,"assembly":6402,"ĠScience":6403,"illing":6404,"rank":6405,"async":6406,"pping":6407,"VM":6408,"room":6409,"Ġbasis":6410,"Ġelectron":6411,"ĠApril":6412,"game":6413,"Ġplease":6414,"Returns":6415,"Ġlib":6416,"apis":6417,"Ġwomen":6418,"Delegate":6419,"portun":6420,"getElement":6421,"}-\\":6422,"wp":6423,"Ġreceive":6424,"Ġsamples":6425,"Len":6426,"tor":6427,"erman":6428,"Ġretr":6429,"Ġphysical":6430,"Ġraw":6431,"ĠCEL":6432,"Ġcompute":6433,"levant":6434,"Ġnative":6435,"Ġsix":6436,"ateway":6437,"Ġnullptr":6438,"Ġprior":6439,"}}{\\":6440,"ado":6441,"Ġ([":6442,"commit":6443,"structure":6444,"ĠHealth":6445,"WR":6446,"here":6447,"Ġfilm":6448,"Sw":6449,"Ġproxy":6450,"ica":6451,"VALUE":6452,"Âł":6453,"Total":6454,":`":6455,"depth":6456,"Ġenum":6457,"ĠStart":6458,"Ġdetermine":6459,"{{\\":6460,"pet":6461,"uge":6462,"Ġcmd":6463,"cip":6464,"Ġshift":6465,"hell":6466,"timeout":6467,"Ġinner":6468,"Player":6469,"81":6470,"ĠSource":6471,"Ġanything":6472,"Wallet":6473,"Ġago":6474,"Ġproduce":6475,"rown":6476,"look":6477,"Ġisn":6478,"Ġleading":6479,"Flow":6480,"bul":6481,"Ġdemon":6482,"report":6483,"IGHT":6484,"helper":6485,"Ġarticle":6486,"gi":6487,"testing":6488,"Ġmot":6489,"Ġwide":6490,"Ġgetting":6491,"Ġsources":6492,"Ġopp":6493,"since":6494,"rift":6495,"ifndef":6496,"checked":6497,"Ġequations":6498,"ĠLOG":6499,"()))":6500,"mob":6501,"ĠGo":6502,"Ġverify":6503,"Admin":6504,"ĠSto":6505,"Ġdim":6506,"74":6507,"ĠPa":6508,"DEBUG":6509,"irus":6510,"ĠDecember":6511,"Ġconnected":6512,"referred":6513,"itemize":6514,"Ġeq":6515,"Ġbasic":6516,"theorem":6517,"blank":6518,"Endpoint":6519,"glyph":6520,"rew":6521,"fix":6522,"ĠSouth":6523,"ously":6524,"Make":6525,"tk":6526,"Ġdenote":6527,"pull":6528,"oton":6529,"Ġvertical":6530,"'];":6531,"EEEEFF":6532,"igration":6533,"Ġlevels":6534,"ĠNovember":6535,"aur":6536,"OF":6537,"ÐµÐ½":6538,"Ġwor":6539,"Find":6540,"Ġmut":6541,"diction":6542,"Ġir":6543,"cape":6544,"prod":6545,"signature":6546,"Ġmatching":6547,"Ñĭ":6548,"Ġround":6549,"Ġnegative":6550,"ĠPath":6551,"ĠVer":6552,"sb":6553,"Ġmanagement":6554,"ĠVector":6555,"console":6556,"cluster":6557,"iece":6558,"Gen":6559,"finite":6560,"ouch":6561,"REQ":6562,"Ġquick":6563,"Ġprevent":6564,"Ġpush":6565,"Ġedit":6566,"compile":6567,"Ġok":6568,"Ġcompare":6569,"ilation":6570,"ĠRef":6571,"uite":6572,"generate":6573,"PP":6574,"ĠOther":6575,"à¸":6576,"Ġreader":6577,"Shape":6578,"MC":6579,"parator":6580,"Stop":6581,"han":6582,"STATE":6583,"ENSE":6584,"fect":6585,"tee":6586,"Ġdegree":6587,"Ġmd":6588,"itute":6589,"ius":6590,"Ġlayout":6591,"multi":6592,"ĠPres":6593,"{\"":6594,"Ġstrings":6595,"syn":6596,"role":6597,"Ġspeed":6598,"python":6599,"Ġorigin":6600,"Ġreadonly":6601,"Cla":6602,"$_":6603,"avid":6604,"Ġmanager":6605,"Ġsmaller":6606,"groups":6607,"Required":6608,"road":6609,"Ġ'\\":6610,"ãĢ":6611,"usion":6612,"proxy":6613,"Ġnp":6614,"ĠallClasses":6615,"Ġ];":6616,"flex":6617,"undefined":6618,"Ġdetail":6619,"ĠÐ¿":6620,"warning":6621,"loop":6622,"ĠallClassesLink":6623,"ama":6624,"73":6625,"yl":6626,"ĠEND":6627,"Ġquality":6628,"agraph":6629,"Ġsegment":6630,"sters":6631,"Ġdepends":6632,"\"],":6633,"Ġpartition":6634,"Ġaxis":6635,"Ġdisk":6636,"edback":6637,"np":6638,"xspace":6639,"eness":6640,"ELD":6641,"Ġdifficult":6642,"Ġappropri":6643,"gence":6644,"omy":6645,"REG":6646,"Single":6647,"Ġ-\\":6648,"Ġrepresents":6649,"Ġrank":6650,"Ġunknown":6651,"transition":6652,"Ġconcer":6653,"Ġdriv":6654,"Math":6655,"when":6656,"mitive":6657,"ifiers":6658,"Ġsignature":6659,"ÛĮ":6660,"Ġimplies":6661,"BPACK":6662,"ĠØ":6663,"ĠAugust":6664,"ĠBit":6665,"61":6666,"ored":6667,"lint":6668,"Ġwebsite":6669,"Mask":6670,"=\\\"":6671,"Ġcoefficient":6672,"isation":6673,"Ġskip":6674,"Ġrecomm":6675,"Summary":6676,"ĠOctober":6677,"Mat":6678,"Background":6679,"Ġequivalent":6680,"ĠCollection":6681,"lots":6682,"ĠTech":6683,"tc":6684,"cade":6685,"Fragment":6686,"Bean":6687,"celer":6688,"ĠValid":6689,"Ġ).":6690,"ceived":6691,"Final":6692,"Home":6693,"Ġpartial":6694,"enumerate":6695,"ĠALIGN":6696,"liance":6697,"Sort":6698,"ech":6699,"NavBarFont":6700,"ĠImage":6701,"ĠExec":6702,"Ġnight":6703,"Rest":6704,"']['":6705,"Ġproducts":6706,"ĠSIZE":6707,"Mouse":6708,"Ġscroll":6709,"ĠInc":6710,"vidence":6711,"But":6712,"Ġ>>":6713,"Ġtook":6714,"gradle":6715,"Syntax":6716,"ITION":6717,"Ġmissing":6718,"GER":6719,"ĠASSERT":6720,"Ġtranslate":6721,"Email":6722,"Ġaltern":6723,"volume":6724,"ause":6725,"gg":6726,"ellow":6727,"hi":6728,"}},":6729,"extra":6730,"ĠSeptember":6731,"Ġhit":6732,"ussion":6733,"route":6734,"found":6735,"leton":6736,"Ġbuf":6737,"Ġtransparent":6738,"ï»":6739,"agent":6740,"Ġactions":6741,"lict":6742,"tw":6743,"Ġmeta":6744,"Ġcandid":6745,"Ġ..":6746,"umin":6747,"ĠNAV":6748,"Ġidea":6749,"Enumer":6750,"reng":6751,"Ġmetric":6752,"EventListener":6753,"icate":6754,"Ġarbit":6755,"ï»¿":6756,"ĠTH":6757,"dimensional":6758,"(\"/":6759,"runtime":6760,"ilevel":6761,"ares":6762,"Ġ\\|":6763,"commons":6764,"rot":6765,"resolve":6766,"Ġcolumns":6767,"Ġparticip":6768,"poly":6769,"Ġschema":6770,"VALID":6771,"ĠassertThat":6772,"Ġenv":6773,"SELECT":6774,"åĪ":6775,"isting":6776,"Users":6777,"slice":6778,"den":6779,"ĠHigh":6780,"Ġrecogn":6781,"Ġdelay":6782,";)":6783,"ä»":6784,"Ġip":6785,"Ġprops":6786,"some":6787,"ierarch":6788,"merge":6789,"ĠCOVID":6790,"dep":6791,"Ġgas":6792,"Ġinstalled":6793,"Ġviol":6794,"ĠResult":6795,"Tags":6796,"2005":6797,"selves":6798,"bg":6799,"Ġprobably":6800,"fc":6801,"ĠPri":6802,"ĠGra":6803,"Ġrisk":6804,"Lin":6805,"Ġchoose":6806,"iling":6807,"Ġbuilt":6808,"Ġlistener":6809,"Ã§":6810,"ctrine":6811,"ja":6812,"Notification":6813,"sync":6814,"Ign":6815,"reme":6816,"ĠLong":6817,"Art":6818,"ummy":6819,"Ġfully":6820,"MT":6821,"Ġess":6822,"ĠCent":6823,"ĠInput":6824,"Ð²":6825,"inherit":6826,"Ġfast":6827,"ĠFound":6828,"ito":6829,"METH":6830,"Ġestimate":6831,"ye":6832,"Align":6833,"BE":6834,"Ġmen":6835,"Ġstage":6836,"single":6837,"Multi":6838,"ĠConst":6839,"Ġmonths":6840,"Ġnamed":6841,"ĠAS":6842,"lood":6843,"bal":6844,"uel":6845,"icol":6846,"({\\":6847,"constructor":6848,"Flag":6849,"STRING":6850,"Allow":6851,"getValue":6852,"Sample":6853,"atomic":6854,"apped":6855,"Ġwriter":6856,"LL":6857,"Ġratio":6858,"'ll":6859,"minus":6860,"Ġhours":6861,"ĠðŁ":6862,"optional":6863,"uplic":6864,"Ġpan":6865,"Children":6866,"Hand":6867,")}{":6868,"Ġda":6869,"vspace":6870,"ĠSQL":6871,"udo":6872,"ancial":6873,"Ġpresented":6874,"Ġrefer":6875,"elf":6876,"Rev":6877,"Ġgets":6878,"Ġdepth":6879,"2001":6880,"Ġgames":6881,"PH":6882,"Ġproced":6883,"Ġtensor":6884,"Ġannoun":6885,"/\"":6886,"noindent":6887,"Microsoft":6888,"#{":6889,"animation":6890,"factory":6891,"71":6892,"Warning":6893,"ĠTherefore":6894,"Ġtsd":6895,"ĠAction":6896,"Ġapilevel":6897,"Vertex":6898,"Ġfire":6899,"Ġremote":6900,"****************************************************************":6901,"osen":6902,"icture":6903,"selector":6904,"loaded":6905,"erve":6906,"Ġ(-":6907,"deed":6908,"Ġfailure":6909,"Ġchallen":6910,"ĠStates":6911,"WEBPACK":6912,"Ġdemonstr":6913,"Ġscheme":6914,"ansion":6915,"ĠJust":6916,"Ġmoney":6917,"Area":6918,"Ġcompan":6919,"Ġfriend":6920,"sn":6921,"ĠDocument":6922,"Ġupon":6923,"ĠANY":6924,"PUT":6925,"zure":6926,"ĠFROM":6927,"Ġreset":6928,"pecially":6929,"Ġ@\"":6930,"ĠSim":6931,"Ġ\\\"":6932,"Ġsb":6933,"Ġfood":6934,"TestCase":6935,"visible":6936,"Ġbecomes":6937,"Ġdeath":6938,"Ġâ":6939,"Ġlatest":6940,"Ġdiscuss":6941,"Ġexecute":6942,"Ð°Ð½":6943,"opts":6944,"Ġri":6945,"ANG":6946,"Ġregard":6947,"issues":6948,"library":6949,"Compat":6950,"icket":6951,"ILE":6952,"rant":6953,"'$":6954,"kwargs":6955,"Ġpersonal":6956,"Ġtax":6957,"stat":6958,"ĠLib":6959,"SK":6960,"ĠSchool":6961,"Ġdisabled":6962,"Compiler":6963,"Ġapplications":6964,"rivacy":6965,"Aut":6966,"ste":6967,"Methods":6968,"GR":6969,"Ġcursor":6970,"COMP":6971,"ĠNAVBAR":6972,"gination":6973,"brid":6974,"Constructor":6975,"ĠAmazon":6976,"ĠUK":6977,"redentials":6978,"CF":6979,"ĠNorth":6980,"Ġdecre":6981,"Play":6982,"Ġsem":6983,"ĠAustral":6984,"IMPORTED":6985,"Ġeverything":6986,"circle":6987,"94":6988,"Ġtransport":6989,"izations":6990,"Ġfrequency":6991,"objects":6992,"Named":6993,"Cancel":6994,"Mer":6995,"pair":6996,"ili":6997,"bruary":6998,"Ġsummary":6999,"MODE":7000,"download":7001,"Ġsteps":7002,"ĠAlso":7003,"DATA":7004,"supported":7005,"High":7006,".\",":7007,"Ġexactly":7008,"Screen":7009,"trace":7010,"goto":7011,"ĠSw":7012,"database":7013,"Ġ^":7014,"picture":7015,"Ġopportun":7016,"Validation":7017,"Forms":7018,"Ġmention":7019,"Ġwave":7020,"riends":7021,"Ġperformed":7022,"Sol":7023,"ĠMicrosoft":7024,"Ġanswer":7025,"zip":7026,"lower":7027,"INTER":7028,"ĠTrump":7029,"typename":7030,"duration":7031,"Ġrows":7032,"Limit":7033,"Game":7034,"fg":7035,"Ġquite":7036,"ĠPage":7037,"Append":7038,"$}":7039,"NSString":7040,"ĠAny":7041,"operatorname":7042,"Ġamp":7043,"Ġdecl":7044,"Native":7045,"Enter":7046,"Ġentries":7047,"Ġinterpre":7048,"MIN":7049,"antic":7050,"ĠBoolean":7051,"band":7052,"Ġrect":7053,"dec":7054,"simple":7055,"stable":7056,"underline":7057,"Ġdecla":7058,"æľ":7059,"fol":7060,"fort":7061,"Ġtechn":7062,"care":7063,"driver":7064,"Ġseems":7065,"dro":7066,"mathscr":7067,"Ġactivity":7068,"PA":7069,"validate":7070,"Ġpool":7071,"cert":7072,"Ġopts":7073,"'}":7074,"Ġ_,":7075,"Here":7076,"inct":7077,"ĠPRO":7078,"Ġtold":7079,"ĠClient":7080,"flat":7081,"react":7082,"Ġcompet":7083,"Ġtasks":7084,"Ġ'';":7085,"Ġbroad":7086,"ackson":7087,"Ġinvestig":7088,"setup":7089,"yy":7090,"Begin":7091,"fi":7092,"Move":7093,"urg":7094,"acebook":7095,"emon":7096,"tachment":7097,"overview":7098,"ann":7099,"Sim":7100,"ongs":7101,"'ve":7102,"bc":7103,"destroy":7104,"Ġspecify":7105,"Ġsus":7106,"boost":7107,"words":7108,"Ġidentity":7109,"Pass":7110,"strument":7111,"isEmpty":7112,"91":7113,"IOException":7114,"RR":7115,"See":7116,"92":7117,"Ġautomatically":7118,"fire":7119,"taint":7120,"batch":7121,"tics":7122,"Ġdocumentation":7123,"Ġdev":7124,"Ġanimation":7125,"METHOD":7126,"bd":7127,"Assign":7128,"Clear":7129,"ĠAssembly":7130,"Ġmatches":7131,"}}_":7132,"alert":7133,"ensed":7134,"Should":7135,"Ġfactory":7136,"MI":7137,"Short":7138,"atial":7139,"Ġinsert":7140,"player":7141,"aran":7142,")}$":7143,"Ġem":7144,"Ġ\"\",":7145,"Ġpatients":7146,"geo":7147,"ĠSan":7148,"Ġhom":7149,"Ġindustry":7150,"Video":7151,"Ġque":7152,"UD":7153,"Own":7154,"Ġmeas":7155,")|":7156,"\\,\\":7157,"ĠĠĠĠĠĠĠĠĠĠĠĠĠĠĠĠĠĠĠĠĠĠĠĠĠĠĠĠĠĠ":7158,"Ġmiddle":7159,"artment":7160,"ĠMem":7161,"SSL":7162,"InputStream":7163,"Ġyoung":7164,"ĠOff":7165,"WORD":7166,"Spe":7167,"Db":7168,"extend":7169,"related":7170,"PU":7171,"PY":7172,"Ġfmt":7173,"Ġwent":7174,"inger":7175,"<\\":7176,"CG":7177,"Ġroute":7178,"Ġradius":7179,"=\"../../../../../../../":7180,"Public":7181,"fession":7182,"Tile":7183,"Ġbehind":7184,"Ġeduc":7185,"Save":7186,"Ġsubst":7187,"Ġstrategy":7188,"ĠChange":7189,"Ġseconds":7190,"texttt":7191,"\\'":7192,"Ġincreasing":7193,"Ġstars":7194,"Ġbring":7195,"flu":7196,"sched":7197,"cop":7198,"ynomial":7199,"Ġhot":7200,"tf":7201,"icip":7202,"Ġmind":7203,"DOM":7204,"ĠResearch":7205,"~$":7206,"ployment":7207,"Ġconv":7208,"Pod":7209,"verter":7210,"ĠOptional":7211,"lav":7212,"diff":7213,"asy":7214,"but":7215,"imated":7216,"EST":7217,"Ġdark":7218,"Renderer":7219,"avai":7220,"Ġexamples":7221,"mediately":7222,"relation":7223,"Sql":7224,"Ġ''":7225,"Ġtrying":7226,"disable":7227,"'m":7228,"Ġnoise":7229,"Ġstored":7230,"Ġones":7231,"esome":7232,"navigation":7233,"ternet":7234,"\\}$":7235,"norm":7236,"Ġcreating":7237,"exit":7238,"Ġloaded":7239,"ĠSoftware":7240,"month":7241,"wall":7242,"Ġcomparison":7243,"Ġinteresting":7244,"Objects":7245,"Audio":7246,"Ġocc":7247,"Connect":7248,"Ġcritical":7249,"getElementById":7250,"ĠHer":7251,"Ġlat":7252,"Ġnorm":7253,"nobr":7254,"FUN":7255,"Ġfill":7256,"Ġdriver":7257,"cribe":7258,"93":7259,"messages":7260,"Ġoperators":7261,"Ġflex":7262,"ques":7263,"ĠAndroid":7264,"Ġblue":7265,"Landroid":7266,"Ġbind":7267,"Ġstand":7268,"ĠProperty":7269,"mk":7270,"Ġevolution":7271,"Operator":7272,"Ġdetermined":7273,"ĠCour":7274,"Ġconsistent":7275,"Ġ}}":7276,"6666":7277,"itution":7278,"sto":7279,"ille":7280,"ached":7281,"Ġconstraints":7282,"Batch":7283,"redit":7284,"}}}":7285,"Ġrespons":7286,"Driver":7287,"fr":7288,"Ġdict":7289,"Ġjoin":7290,"tar":7291,"Ġ\"%":7292,"owner":7293,"Ġvelocity":7294,"ryption":7295,"cred":7296,"QU":7297,"Span":7298,"Ġneut":7299,"Ġnavbar":7300,"Ġjs":7301,"Ġresp":7302,"ancy":7303,"enn":7304,"origin":7305,"submit":7306,"Our":7307,"Gui":7308,"ĠHouse":7309,"ANCE":7310,"orary":7311,"FE":7312,"Ġmagnetic":7313,"ira":7314,"Ġmachine":7315,"oog":7316,"Constant":7317,"Ġul":7318,"Ġlicense":7319,"forEach":7320,"ectors":7321,"seconds":7322,"Ġespecially":7323,"roke":7324,"Unknown":7325,"highlight":7326,"Ġowner":7327,"ducer":7328,"LOC":7329,"ĠOf":7330,"Ġaudio":7331,"ORDER":7332,"Clo":7333,"NA":7334,">\\":7335,"ĠYour":7336,"Navigation":7337,"ief":7338,"Ġqual":7339,"clone":7340,"Ġagre":7341,"Year":7342,"Ġtechnology":7343,"Wait":7344,"Cons":7345,"Ġvalidate":7346,"trl":7347,"Ø±":7348,"vity":7349,"policy":7350,"assandra":7351,"NET":7352,":[":7353,"Ġ\"\";":7354,"Ġgreater":7355,"plot":7356,"Some":7357,"Ġwrong":7358,"spacing":7359,"Ð¼":7360,"ĠPark":7361,"mpt":7362,"Release":7363,"Ġgoal":7364,"irmed":7365,"Lower":7366,"Ġprovider":7367,"Ġsql":7368,"ĉĠĠ":7369,"Ġ'',":7370,"2004":7371,"Contact":7372,"ĠLink":7373,"Ġ\\(":7374,"Serializer":7375,"ÑģÑĤ":7376,"auss":7377,"Ġeffort":7378,"velopment":7379,"Ġsafe":7380,"Ġreading":7381,"TA":7382,"Ġdependencies":7383,"limits":7384,"dash":7385,"Look":7386,"ĠAfric":7387,"Ġinflu":7388,"ĠHar":7389,"rim":7390,"Ġstudies":7391,">)":7392,"lementation":7393,"ĠCenter":7394,"Ġspectrum":7395,"ko":7396,"(--":7397,"ĠNetwork":7398,"Ġ_{":7399,"Ġappropriate":7400,"za":7401,"wd":7402,"iner":7403,"Ġconcept":7404,"ĠDist":7405,"ano":7406,"ASSERT":7407,"Cl":7408,"Ġtouch":7409,"Normal":7410,"isode":7411,"CHAR":7412,"ĠDB":7413,"eff":7414,"attle":7415,"icks":7416,"Ġmaps":7417,"Ġol":7418,"Car":7419,"ArgumentException":7420,"prob":7421,"accept":7422,"Ġpages":7423,"Ġelif":7424,"Validator":7425,"Ġbelieve":7426,"ĠEl":7427,"Ġrecently":7428,"Ġexecution":7429,"ĠĠĠĠĠĠĠĠĠĠĊ":7430,"Ġnotice":7431,"Ġresulting":7432,"ĠCustom":7433,"anti":7434,"Ġknowledge":7435,"Ġresolve":7436,"multicol":7437,"Diagnost":7438,"Ġfrag":7439,"achine":7440,"ĠTV":7441,"ĠShow":7442,"ĠMedia":7443,"']);":7444,"bits":7445,"Usage":7446,"ĠSets":7447,"ĠWar":7448,"Segment":7449,"Ġwar":7450,"()),":7451,"Ġpod":7452,"Ġ'./":7453,"NUM":7454,"Ġcra":7455,"calendar":7456,"world":7457,"Ġrelevant":7458,"multicolumn":7459,"'\\":7460,"ĠLcom":7461,"once":7462,"Ġreflect":7463,"lax":7464,"Term":7465,"vlet":7466,"ĠVis":7467,"ils":7468,"nn":7469,"INS":7470,"ĠRegister":7471,"-$":7472,"Ġformer":7473,"Ġselector":7474,"Fn":7475,"Html":7476,"Ġduration":7477,"Ġinstances":7478,"Drop":7479,"Ġflat":7480,"ĠWrite":7481,"Ġsaf":7482,"dc":7483,":@\"":7484,"logo":7485,"arnings":7486,"original":7487,"Ġbl":7488,"Theme":7489,"ORY":7490,"quote":7491,"Ġprocessing":7492,"rpc":7493,"Ind":7494,"STATUS":7495,"çĶ":7496,"icode":7497,"ĠAre":7498,"radio":7499,"Ġconn":7500,"lipse":7501,"blog":7502,"Platform":7503,"ILD":7504,"kt":7505,"æĸ":7506,"%,":7507,"/*!":7508,"120":7509,"Ġhope":7510,"ĠUN":7511,"Ġkernel":7512,"La":7513,"ĠLa":7514,"anks":7515,"ĠWIDTH":7516,"Ġcontract":7517,"DATE":7518,"Env":7519,"idence":7520,"CLASS":7521,"Program":7522,",'":7523,"Ġvan":7524,"ĠTemp":7525,"Ñĩ":7526,"Ġcorrelation":7527,"Folder":7528,"ĠSm":7529,"Execution":7530,"Ġconduct":7531,"transaction":7532,"hest":7533,"Chain":7534,"convert":7535,"Raw":7536,"Ġcentral":7537,"Ġgrowth":7538,"Ġconstruction":7539,"isset":7540,"Ġcharge":7541,"Hub":7542,"ĉĠĠĠĠĠĠĠĠĠĠĠ":7543,"Ġliter":7544,"deprecated":7545,")[":7546,"Ġtransfer":7547,"ĠSearch":7548,"FC":7549,"loading":7550,"_);":7551,"ANT":7552,"ĠGeneral":7553,"created":7554,"watch":7555,"ĠSD":7556,"nov":7557,"forward":7558,"%\"":7559,"Consumer":7560,"seq":7561,"Ġradi":7562,"FIELD":7563,"Ġeasily":7564,"vertical":7565,"ĠDO":7566,"Go":7567,"BB":7568,"ulk":7569,"Ġreleased":7570,"Conn":7571,"123":7572,"Ġagent":7573,"arguments":7574,"Ġtags":7575,"Ġclaim":7576,"Ġcontents":7577,"Ġmodified":7578,"GEN":7579,"Ġste":7580,"Ġprice":7581,"Ġregions":7582,"Ġquestions":7583,"ĠOnly":7584,"cook":7585,"Ġdecision":7586,"Login":7587,"ĠXML":7588,"rial":7589,"Ġ'.":7590,"ondon":7591,"ivery":7592,"ased":7593,"methods":7594,"ĠColor":7595,"activity":7596,"TRY":7597,"gradient":7598,"Ġpopulation":7599,"Ġcells":7600,"ĠFebruary":7601,"oral":7602,"ĠMult":7603,"Ġreserved":7604,"History":7605,"ulator":7606,"ĠMax":7607,"ises":7608,"incipal":7609,"Ġcoming":7610,"clusive":7611,"onical":7612,">\"":7613,"ĠPresident":7614,"ĠProcess":7615,"Ġ\">":7616,"Ġedges":7617,"Book":7618,"ï¼Į":7619,"PHP":7620,"ĠPort":7621,"UMM":7622,"ĠParameter":7623,"cks":7624,"Ġminutes":7625,"bi":7626,"Ġpull":7627,"ĠLocal":7628,"pear":7629,"ĠDescription":7630,"pkg":7631,"Binary":7632,"Ġpublished":7633,"ĠUs":7634,"NotFound":7635,"Ġusually":7636,"Environment":7637,"aste":7638,"Drawing":7639,"213":7640,"veal":7641,"ude":7642,"Ġprev":7643,"||":7644,"Ġheart":7645,"ersistent":7646,"Ġuniform":7647,"Ġchunk":7648,"TT":7649,"Ġmapping":7650,"rength":7651,"mutable":7652,"bes":7653,"ATCH":7654,"150":7655,"Ġareas":7656,"references":7657,"Ġcoun":7658,"assertTrue":7659,"Ġplot":7660,"ĠBrit":7661,"Ġdetect":7662,"Ġ$\\{":7663,"AST":7664,"Annotation":7665,"Rate":7666,"Ġmaster":7667,"Ġspaces":7668,"touch":7669,"Ġbranch":7670,"DR":7671,"Ali":7672,"/.":7673,"Ġbalance":7674,"Using":7675,"Ġsocket":7676,"ipe":7677,"SM":7678,"irth":7679,"contact":7680,"fetch":7681,"Remote":7682,"memory":7683,"Members":7684,"munity":7685,"ĠSum":7686,"Mapper":7687,"Ġmed":7688,"Ġderiv":7689,"atar":7690,"Counter":7691,"Ġcalling":7692,"Ġinteraction":7693,"ĠĠĠĠĠĠĠĠĠĠĠĠĠĠĠĠĠĠĠĠĠĠĠĠĠĠĠĠĠĠĠĠĠĠĠĠĠĠĠĠĠĠĠĠĠĠĠ":7694,"Ġarbitrary":7695,"Basic":7696,"afe":7697,"ĠSol":7698,"correct":7699,"ibly":7700,"displayName":7701,"erved":7702,"istr":7703,"Ġproto":7704,"Ġ>>>":7705,"Cloud":7706,"CALL":7707,"ĠSE":7708,"Ġslow":7709,"ĠEqu":7710,"YY":7711,"isions":7712,"(\"#":7713,"bose":7714,"ĠWAR":7715,"/{":7716,"DEF":7717,"strings":7718,"ĠRemove":7719,"ĠRel":7720,".\"\"\"":7721,"Throw":7722,"Complete":7723,"Ġminim":7724,"Ã¼":7725,"ĠDon":7726,"Addr":7727,"compare":7728,"repository":7729,"gorithms":7730,"ĠAmerica":7731,"Ġready":7732,"}^{-":7733,"Static":7734,"Ġways":7735,"rtl":7736,"CONT":7737,"<<":7738,"catch":7739,"heel":7740,"license":7741,"Ġhyper":7742,"called":7743,"avy":7744,"ssl":7745,"Ġdiscus":7746,"ĠResponse":7747,"Ġmicro":7748,"Ġfoc":7749,"Ġbatch":7750,"Î¿":7751,"facebook":7752,"Cursor":7753,"ribution":7754,"Ġimg":7755,"two":7756,"ida":7757,"directory":7758,"ĠBlock":7759,"operation":7760,"ĠBig":7761,"Ġnuc":7762,"Ġ\".":7763,"trm":7764,"Ġlimited":7765,"Ġunits":7766,"Identity":7767,"Pojo":7768,"Ġscore":7769,"ĠBack":7770,"footnote":7771,"ups":7772,"ellij":7773,"Ġderived":7774,"ociation":7775,"ĠAccording":7776,"warn":7777,"notes":7778,"Ġimmediately":7779,"Join":7780,"Ġsys":7781,"ĠWhile":7782,"Encoded":7783,"Sur":7784,"Ġcomputed":7785,"Amount":7786,"Ġopacity":7787,"SI":7788,"Resolver":7789,"Ġmiss":7790,"ael":7791,"Ġfamil":7792,"Edge":7793,"iring":7794,"Div":7795,"Ġdetection":7796,"auge":7797,"aily":7798,"Ġhighlight":7799,"Ġcloud":7800,"ĠOp":7801,"Ġscalar":7802,"ĠStatus":7803,"Errors":7804,"uuid":7805,"ONG":7806,"Ġsufficient":7807,"Ġcast":7808,"Ġadapt":7809,">;":7810,"intellij":7811,"esh":7812,"uber":7813,"/\">":7814,"textrm":7815,";|":7816,"Ġsynchron":7817,"ĠDem":7818,"Ġevidence":7819,"ography":7820,"NODE":7821,"fmt":7822,"Ġcurve":7823,"\"},":7824,"Ġ_.":7825,"Ġ\\;":7826,"jQuery":7827,"000000":7828,"emit":7829,"ington":7830,"spirit":7831,"contents":7832,"Export":7833,"ĠIllegal":7834,"shal":7835,"ĉčĊ":7836,"reader":7837,"amilton":7838,"trim":7839,"scala":7840,"Ġvalidation":7841,"tailed":7842,"elem":7843,"StyleID":7844,"ĠBlack":7845,"Ġfigure":7846,"resp":7847,"itecture":7848,"Ġgrant":7849,"joy":7850,"HERE":7851,"utive":7852,"Contents":7853,"utdown":7854,"Ġimprove":7855,"Ġinc":7856,"Ġlabels":7857,"Ġpermissions":7858,"ĠWindows":7859,"Ġforms":7860,"logies":7861,"Example":7862,"Binding":7863,"cancel":7864,"Ġplayers":7865,"Ġdynamic":7866,"Groups":7867,"FL":7868,"ĠApache":7869,"peated":7870,"HEAD":7871,"^^":7872,"Ġtrace":7873,"åĲ":7874,"Ġrecords":7875,"Private":7876,"tached":7877,",$":7878,"ocation":7879,"ducing":7880,"Ġleave":7881,"ĠMet":7882,"å®":7883,"******":7884,"VE":7885,"Prev":7886,"Ġformula":7887,"Ġtravel":7888,"Ġdeveloped":7889,"ĠStud":7890,"]))":7891,"aming":7892,"ĠContent":7893,"Other":7894,"Ġgoes":7895,"Ġstra":7896,"Axis":7897,"fff":7898,"basic":7899,"ĠCounty":7900,"Free":7901,"collect":7902,"Ġ'%":7903,"integer":7904,"corded":7905,"Ġangle":7906,"Ġmerge":7907,"audio":7908,"Ġcomments":7909,"UND":7910,"Ġbounds":7911,"Ġmix":7912,"Theta":7913,"Ġparticle":7914,"hem":7915,"ague":7916,"(.":7917,"Ġgain":7918,"subseteq":7919,"timestamp":7920,"SV":7921,"wbr":7922,"phrase":7923,"Ġresolution":7924,"Ġreject":7925,"Nullable":7926,"Ġatt":7927,"ĠFind":7928,"berg":7929,"ĠTop":7930,"Ġusage":7931,"Ġofficial":7932,"Ġruntime":7933,"formance":7934,"Ġprocesses":7935,"dk":7936,"Ġsync":7937,"Ġ{},":7938,"Ġpaths":7939,"Constraint":7940,"Ã¶":7941,"Ġbi":7942,"Ġsamp":7943,"twitter":7944,"allery":7945,"Processor":7946,"Ġvertices":7947,"Ġfi":7948,"ĠWIT":7949,"about":7950,"person":7951,":'":7952,"lush":7953,"Ġmotion":7954,"fast":7955,"Ġuncer":7956,"LOW":7957,"ĠSelect":7958,"mapping":7959,"ĠDEFAULT":7960,"Caml":7961,"Ġtheorem":7962,"Ġidentifier":7963,"ĠclassName":7964,"Ġcompanies":7965,"ĠElement":7966,"Ġrepos":7967,"available":7968,"INST":7969,"Ġpul":7970,"Ð´":7971,"Gu":7972,"ewidth":7973,"wt":7974,"Drag":7975,"getId":7976,"Ġpresence":7977,"Border":7978,"ĠBra":7979,"libs":7980,"Bool":7981,"Ġaddresses":7982,"Ġsn":7983,"power":7984,"Setting":7985,"ĠPR":7986,"Ġtools":7987,"Ġconnections":7988,"Ġnetworks":7989,"ĠVar":7990,"notations":7991,"bp":7992,"ĠExt":7993,"Ġtimestamp":7994,"Ġmodal":7995,"eners":7996,"RESULT":7997,"Ġcard":7998,"Ġfragment":7999,"ĠON":8000,"Dependency":8001,"icies":8002,"Ġmagn":8003,"plus":8004,"Ġscan":8005,"ĠWARRAN":8006,"ĠAir":8007,"Ġmid":8008,"Ġund":8009,"irror":8010,"Ð¾Ð²":8011,"Ġsupports":8012,"ĠFin":8013,"arks":8014,"CB":8015,"illed":8016,"Focus":8017,"Ġbra":8018,"Ġplane":8019,"Eq":8020,"Ġgeneration":8021,"Information":8022,"native":8023,"Strategy":8024,"iverse":8025,"Ġbin":8026,"Ġgoogle":8027,"Ġtreatment":8028,"ufact":8029,"amo":8030,"arily":8031,"URCE":8032,"Ġsoon":8033,"Ġvs":8034,"Ġintroduced":8035,"subject":8036,"icensed":8037,"bold":8038,"structions":8039,"servable":8040,"Bounds":8041,"rapped":8042,"Ġtradition":8043,"Ġpreviously":8044,"CM":8045,"Ġconstraint":8046,"viewport":8047,"cfg":8048,"glyphicon":8049,"sig":8050,"ket":8051,"AUT":8052,"ĠInternational":8053,"aligned":8054,"Center":8055,"Ġcompact":8056,"oser":8057,"Ġpretty":8058,"ĠAbstract":8059,"Frames":8060,"lationToken":8061,"Ġbits":8062,"changed":8063,"Ġpairs":8064,"tical":8065,"FFER":8066,"cmp":8067,"Ġpolynomial":8068,"Rows":8069,"Ġvisual":8070,"Î±":8071,";|&":8072,"Ġaffect":8073,"Ġexports":8074,"CONFIG":8075,"ĠEach":8076,"HOME":8077,"ĠĠĠĠĠĠĠĠĠĠĠĠĠĠĠĠĠĠĠĠĠĠĠĠĠĠĠĠĠĠĠĠĠ":8078,"paper":8079,"ements":8080,"Alloc":8081,"SN":8082,"Ġsec":8083,"encode":8084,"Ġschedule":8085,"ĠConfiguration":8086,"ĠProgram":8087,"Ġreach":8088,"Ġlost":8089,"Copyright":8090,"Accept":8091,".*;":8092,"ĠCoq":8093,"2003":8094,"Ġeigen":8095,"thrift":8096,"ATED":8097,"Ġarr":8098,"ĠDelete":8099,"resize":8100,"agram":8101,"Ġtd":8102,":#":8103,"Cmd":8104,"loating":8105,"Zone":8106,"repo":8107,"Ġsil":8108,"Encoding":8109,"validation":8110,"ociety":8111,"overnor":8112,"ĠDay":8113,"ExternalTask":8114,"Ġhence":8115,"ASE":8116,"ilo":8117,"tensor":8118,"Ġflux":8119,"ĠMich":8120,"Timer":8121,"grams":8122,"Ġsomeone":8123,"Holder":8124,"Ġtowards":8125,"Ġperfect":8126,"sass":8127,"ini":8128,"UMMARY":8129,"gz":8130,"ientation":8131,"ishing":8132,"TY":8133,"imately":8134,"Ġimplemented":8135,"ĠFOR":8136,"Ġdead":8137,"åħ":8138,"Ġparty":8139,"ĠFinal":8140,"Ġdevices":8141,"Ġmeet":8142,"Ġtypedef":8143,"setminus":8144,"Shared":8145,"Ġtheme":8146,"Ġmodify":8147,"ArrayList":8148,"ĠApplication":8149,"codec":8150,"rices":8151,"Effect":8152,"got":8153,"ĠFoundation":8154,"ExternalTaskPojo":8155,"Ġextended":8156,"fake":8157,"ĠCollege":8158,"oting":8159,"=[":8160,"ĠFrame":8161,"Errorf":8162,">'":8163,"Ġstay":8164,"Phone":8165,"Ġremaining":8166,"gb":8167,"Ġscene":8168,"mms":8169,"ĠPlan":8170,"Ġmeaning":8171,"constant":8172,"Ġillustr":8173,"Columns":8174,"ĉĉĉĉĉĉĉĉĉĉ":8175,"Bottom":8176,"ĠLaw":8177,"ĠCommand":8178,"ĠSign":8179,"Console":8180,"ynchron":8181,"Tasks":8182,"(\"%":8183,"Watch":8184,"Timestamp":8185,"yond":8186,"Signature":8187,"canvas":8188,"ĠHo":8189,"Ġcontinuous":8190,"gregate":8191,"ĠMer":8192,"van":8193,"isms":8194,"logging":8195,"Ġexpla":8196,"apes":8197,"pointer":8198,"functions":8199,"ATTR":8200,"cluded":8201,"Ġadjust":8202,"Messages":8203,"fully":8204,"-(":8205,"iming":8206,"Observer":8207,"About":8208,"Light":8209,"weet":8210,"Ġadding":8211,"}}_{":8212,"Ġobservations":8213,"Day":8214,"maps":8215,"Ġpoly":8216,"Card":8217,"=%":8218,"Ġdro":8219,"ĠItem":8220,"Library":8221,"VICE":8222,"Ġdestination":8223,"Ġstats":8224,"ĠQuery":8225,"eg":8226,"compute":8227,"guide":8228,"Ġinitialize":8229,"Real":8230,"oplus":8231,"Ġheld":8232,"Ġant":8233,"Ġ$_":8234,"Ġcompletely":8235,"Ġdestroy":8236,"Ġten":8237,"organ":8238,"ĠDef":8239,"ĠMock":8240,"Permission":8241,"pb":8242,"akes":8243,"Ġapplicable":8244,"Ġpurpose":8245,"fold":8246,"Ġdownload":8247,"_*":8248,"Ġaccuracy":8249,"ĠCSS":8250,"Ġdomin":8251,"relative":8252,";\"":8253,"Ġ$|":8254,"cases":8255,"uous":8256,"ĠGlobal":8257,"Reset":8258,"__)":8259,"ara":8260,"ĠCH":8261,"Failure":8262,"ycle":8263,"iders":8264,"Loop":8265,"001":8266,"Partition":8267,"ĠMat":8268,"ACH":8269,"ĠLine":8270,"Ġletter":8271,"blob":8272,"Ġexpand":8273,"mobile":8274,"Ġremains":8275,"Ġattention":8276,"TableRow":8277,"Ġpayload":8278,"_)":8279,"áĥ":8280,"Weight":8281,"well":8282,"Ġsex":8283,"Capt":8284,"Ġsatisfies":8285,"ĠCG":8286,"IAL":8287,"elements":8288,"LIST":8289,"Two":8290,"Scan":8291,"lour":8292,"ĠHis":8293,"GroupName":8294,"fits":8295,"iency":8296,"Ġessential":8297,"Promise":8298,"ĠOutput":8299,"esian":8300,"scape":8301,"Ġcoll":8302,"Ġ$$":8303,"Ġ<-":8304,"createElement":8305,"ĠPoint":8306,"=$":8307,"wa":8308,"BY":8309,"^{-\\":8310,"Ġmac":8311,"Ġveh":8312,"Sta":8313,"Ġcho":8314,"ĠHome":8315,"ĠDOM":8316,"ford":8317,"periment":8318,"Ġcompleted":8319,"ragma":8320,"heading":8321,"Ġmouse":8322,"lished":8323,"rier":8324,"elastic":8325,"elcome":8326,"cheduler":8327,"decor":8328,"remote":8329,"ENV":8330,"OPT":8331,"ĠĠĠĠĠĠĠĠĠĠĠĠĠĠĠĠĠĠĠĠĊ":8332,"gems":8333,"Ġindicates":8334,"\">(":8335,"toBe":8336,"Place":8337,"Ġ|=":8338,"linewidth":8339,"Overview":8340,"Ġdiscussed":8341,"Ġ----------------------------------------------------------------":8342,"tri":8343,"BIT":8344,"pat":8345,"1999":8346,"ĠFacebook":8347,"lapsed":8348,"gif":8349,"Ġangular":8350,"Ġinputs":8351,"VAR":8352,"TERN":8353,"Ġdesigned":8354,"Ġnational":8355,"cursor":8356,"ĉĠĠĠĠ":8357,"Ġtopo":8358,"Ġcalculated":8359,"(['":8360,"(()":8361,"Material":8362,"mc":8363,"ĠEnglish":8364,"Ġlatt":8365,"ICATION":8366,"Extra":8367,"ĠMO":8368,"Ġcoordinates":8369,"elt":8370,"ĠKing":8371,"Ġ}\\":8372,"Ġdie":8373,"Ġ{%":8374,"vement":8375,"riction":8376,"selection":8377,"django":8378,"Ġchosen":8379,"TF":8380,"Ġdise":8381,"ĠServer":8382,"WA":8383,"ĠEast":8384,"Asset":8385,"aussian":8386,"ivial":8387,"Ð¿":8388,"ĠSUMMARY":8389,"Ġrequested":8390,"program":8391,"pan":8392,"ĠCons":8393,"ea":8394,"Ġcampaign":8395,"Ġability":8396,"Ġfs":8397,"DEX":8398,"Ġintroduce":8399,"uffers":8400,"'d":8401,"repeat":8402,"deg":8403,"lated":8404,"omb":8405,"Ġnature":8406,"Deprecated":8407,"ria":8408,"RUN":8409,"ĠArgument":8410,"Ġalert":8411,"Ġstaff":8412,"uncil":8413,"pid":8414,"Ġsituation":8415,"alo":8416,"subfigure":8417,"Ġdialog":8418,"(/":8419,">%":8420,"ĠJson":8421,"Ġguide":8422,"Ġloading":8423,"Ġcamera":8424,"ĠBOO":8425,"Ġ($\\":8426,"600":8427,"Ġasked":8428,"className":8429,"ysical":8430,"Ġendpoint":8431,"Depth":8432,"Fore":8433,"TAG":8434,"ĉĉĠĠĠ":8435,"lec":8436,"mn":8437,"Ġfraction":8438,"scan":8439,"LY":8440,"Ġwanted":8441,"Ġthemselves":8442,"havior":8443,"ki":8444,"HS":8445,"Ġeng":8446,"entic":8447,"asc":8448,"ĠPlease":8449,"MR":8450,"Declaration":8451,"crement":8452,"ĠÐ²":8453,"ya":8454,"Android":8455,"Inner":8456,"expression":8457,"columns":8458,"ropy":8459,"Ġrates":8460,"Ġlogging":8461,"Ġprojects":8462,"ocr":8463,"ĠLondon":8464,"Ġgreen":8465,"Ġpert":8466,"altColor":8467,"Exists":8468,"folio":8469,"Ġruns":8470,"licenses":8471,"BS":8472,"Ġmaintain":8473,"alias":8474,"ierarchy":8475,"Ġboard":8476,"Bucket":8477,"Ġpractice":8478,"ighest":8479,"Ġdisable":8480,"ords":8481,"ellar":8482,"}%":8483,"Ġsuccessfully":8484,"Virtual":8485,"linked":8486,"Ġreduced":8487,"ĠCreates":8488,"Split":8489,"NV":8490,"wedge":8491,"ÙĨ":8492,"Ġearlier":8493,"oken":8494,"Ter":8495,"Arch":8496,"è¯":8497,"Arguments":8498,"Ġfactors":8499,"Ġexc":8500,"hold":8501,"hl":8502,"ĠII":8503,"Points":8504,"ĠGame":8505,"('<":8506,"Runner":8507,"fav":8508,"Ġpopular":8509,"Master":8510,"Ġdeliver":8511,"__[\"":8512,"!<":8513,"Ġmedi":8514,"rules":8515,"Sec":8516,"Ġbeyond":8517,"jax":8518,"UST":8519,"Controls":8520,"Ġmixed":8521,"Ġchart":8522,"oday":8523,"Ġbeginning":8524,"Ġonto":8525,"ĠGerman":8526,"wallet":8527,"Ġtopic":8528,"Ġ$[":8529,"Insert":8530,"Ġcont":8531,"ĠBuilder":8532,"These":8533,"embed":8534,"Ġplaceholder":8535,"Ġsymmetry":8536,"ĠVALIGN":8537,"127":8538,"ĠCR":8539,"Ġupdates":8540,"pages":8541,"verify":8542,"Ret":8543,"uality":8544,"Ġboost":8545,"cassandra":8546,"ĠSTART":8547,"Ġsmooth":8548,"'_":8549,"router":8550,"dispatch":8551,"Ġdemand":8552,"ences":8553,"mime":8554,"Site":8555,"Ġgauge":8556,">()":8557,"Ġcorresponds":8558,"Ġuri":8559,"dagger":8560,"Pixel":8561,"Ġconfirm":8562,"adoc":8563,"Ġoptimal":8564,"Ġproduced":8565,"180":8566,"ĠComponent":8567,"Ġinvolved":8568,"bt":8569,"olate":8570,"equality":8571,"ĠReference":8572,"zen":8573,"Ġparsed":8574,"Ġeveryone":8575,"ĠSur":8576,"ecause":8577,"================================================================":8578,"EO":8579,"Ġfine":8580,"Ġav":8581,"COMM":8582,"generator":8583,"ä½":8584,"Ġ'\"":8585,"Ġparticles":8586,"curs":8587,"Ġdescriptor":8588,"250":8589,"erial":8590,"\\}":8591,"Ġaria":8592,"ette":8593,"amazonaws":8594,"ãĢĤ":8595,"ARNING":8596,"fp":8597,"Ġdrag":8598,"Ġprocedure":8599,"Ġviews":8600,"rev":8601,"arter":8602,"React":8603,"photon":8604,"RAY":8605,"Contains":8606,"anchor":8607,"Ġexperiments":8608,"abc":8609,"Ġsigned":8610,"ĠInv":8611,"unlock":8612,"Ġslight":8613,"ĠMr":8614,"getInstance":8615,"Ġemer":8616,"*{":8617,"sem":8618,"wood":8619,"à¥":8620,"Coin":8621,"_+":8622,"acle":8623,"Ġexponent":8624,"Ġemission":8625,"125":8626,"ĠGod":8627,"ĠSimple":8628,"Ġdam":8629,"Present":8630,"Ġcapacity":8631,"Ġpeak":8632,"ening":8633,"Ġextend":8634,"TL":8635,"ĠAccess":8636,"och":8637,"Transport":8638,"etic":8639,"Ġmeasured":8640,"ATOR":8641,"Ġuncertaint":8642,"Ġpublish":8643,"udget":8644,"Ġtrain":8645,"\\/":8646,"Ġcb":8647,"pace":8648,"vendor":8649,"ersistence":8650,"covered":8651,"Ġversions":8652,"strip":8653,"Ġinvariant":8654,"ĠImm":8655,"Ġleads":8656,"Ġstructures":8657,"ĠPackage":8658,"ĠCOL":8659,"serialize":8660,"Switch":8661,"Ġbounded":8662,"Ġidentify":8663,"mix":8664,"Ġ--></":8665,"Ġattempt":8666,"_{(":8667,"SW":8668,"×ķ":8669,"SPAN":8670,"LETE":8671,"jet":8672,"alytics":8673,"edu":8674,"MAP":8675,"ĠArch":8676,"Ġguaran":8677,"ĠEar":8678,"ERS":8679,"writer":8680,"Future":8681,"ceiver":8682,"Same":8683,"UNT":8684,",.":8685,"Ġtransactions":8686,"ĠThread":8687,"Ġcommands":8688,"ĠMain":8689,"ĠassertTrue":8690,"elebr":8691,"ometric":8692,"ĠExample":8693,"Ġpromise":8694,"Intro":8695,"Ġreplaced":8696,"cknow":8697,"]+":8698,"Ġrestrict":8699,"ĠIndia":8700,"ĠContext":8701,"Ġharmon":8702,"Ġfollowed":8703,"Random":8704,"portion":8705,"Expected":8706,"ato":8707,"OutputStream":8708,"ĠOS":8709,"ĠSupport":8710,"alls":8711,"aver":8712,"Ġalias":8713,"usr":8714,"BUFFER":8715,"iqu":8716,"Ġtrade":8717,"itable":8718,"ĠBusiness":8719,"Ġcorrespond":8720,"ĠOriginal":8721,"Ġgeneric":8722,"ĠHol":8723,"ĠManagement":8724,"Ġsaved":8725,"Ġpolitical":8726,"Ġscatter":8727,"urations":8728,"danger":8729,"ĠMag":8730,"Direction":8731,"%\"><":8732,"lications":8733,"tl":8734,"Ġfetch":8735,"Ġcreation":8736,"ĠMac":8737,"Enable":8738,"ĠStream":8739,"dark":8740,"Med":8741,"ĠDepartment":8742,"Ġ'''":8743,"ĠInformation":8744,"ĠServices":8745,"Ġfavor":8746,"ifferent":8747,"GO":8748,"00000000":8749,"Person":8750,"Dom":8751,"ĠVirtual":8752,"linux":8753,"ky":8754,"Extensions":8755,"Linear":8756,"Ġpressure":8757,"what":8758,"delay":8759,"ĠAm":8760,"Ġapproximation":8761,"sr":8762,"ashed":8763,"Ġemit":8764,"conv":8765,"Ġcompiler":8766,"Ġcomputer":8767,"remarks":8768,"uplicate":8769,"ĠAuth":8770,"Figure":8771,"Optional":8772,"Ġvm":8773,"ĠDavid":8774,"EY":8775,"NameLink":8776,"However":8777,"Metrics":8778,"Ġoverall":8779,"Ġ-=":8780,"Authentication":8781,"ĠControl":8782,"fb":8783,"Ġlargest":8784,"Ġfair":8785,"2002":8786,"Ġwarning":8787,"limate":8788,"share":8789,"Ġbug":8790,"UEST":8791,"Ñĸ":8792,"Dr":8793,"park":8794,"WIN":8795,"While":8796,"Ġappears":8797,"Reason":8798,"too":8799,"Ġthreshold":8800,"Ġexam":8801,"DataType":8802,"IA":8803,"datetime":8804,"Ġhyp":8805,"Mac":8806,"ARD":8807,"bullet":8808,"Ġthroughout":8809,"Ã£":8810,"Ġcalculate":8811,"ĠÑģ":8812,"ĠCore":8813,"NC":8814,"istog":8815,"ÏĦ":8816,"series":8817,"ĠÐ½":8818,")\",":8819,"~~~~~~~~":8820,"expand":8821,"Ġtrip":8822,"Ġinstruction":8823,"Ġhon":8824,"tableblock":8825,"Ġrotation":8826,"Ġpropag":8827,"complex":8828,"Ġhor":8829,"Ġdetailed":8830,"Converter":8831,"ints":8832,"ĠLjava":8833,"ĠKe":8834,"World":8835,"googleapis":8836,"ĠByte":8837,"Standard":8838,"Ġseparate":8839,"Ġmodules":8840,"Ġsell":8841,"Delay":8842,"swing":8843,"Ġrob":8844,"servation":8845,"ĠUtil":8846,"\\_":8847,"ĠChina":8848,"Ġgalaxies":8849,"ĠLife":8850,"phan":8851,"Sm":8852,"encoding":8853,"grees":8854,"Ġdynamics":8855,"ĠIter":8856,"Ġ(%":8857,"ollary":8858,"ĠBook":8859,"LEMENT":8860,"Idx":8861,"ĠLoad":8862,"Ġcompatible":8863,"Month":8864,"front":8865,"Ġcontribution":8866,"ji":8867,"Ġwidget":8868,"Ġ\"'":8869,"Ms":8870,"Ġstraight":8871,"iforn":8872,"ĠUsing":8873,"solr":8874,"Ġfriends":8875,"Verify":8876,"ĠBOOST":8877,"Ġregistered":8878,"links":8879,"UAL":8880,"Ġexplan":8881,"thumb":8882,"Writ":8883,"dump":8884,"cha":8885,"GIN":8886,"ĠCla":8887,"Ġefficient":8888,"Ġworth":8889,"ĠStruct":8890,"Ġbeaut":8891,"gon":8892,"Ġrepository":8893,"Ġsaw":8894,".',":8895,"Ġtranslation":8896,"sdk":8897,"ĠĠĠĠĠĠĠĠĠĠĠĠĠĠĠĠĠĠĠĠĠĠĠĠĠĠĠĠĠĠĠĠĠĠĠĠĠ":8898,"Ġdecomp":8899,"Ġshowing":8900,"2022":8901,")},":8902,"\"];":8903,"Ġmomentum":8904,"Ġprofession":8905,"800":8906,"mux":8907,"onic":8908,"Ġradio":8909,"Ġ|\\":8910,"Ġlocated":8911,"bat":8912,"äº":8913,"Ġ```":8914,"ulo":8915,"Ġoverflow":8916,"examples":8917,"ĠDan":8918,"Touch":8919,"ĠURI":8920,"Ġunderlying":8921,"Ignore":8922,"direction":8923,"Many":8924,"Ġstrength":8925,"REE":8926,"derr":8927,"Ro":8928,"Ġanim":8929,"Ġatom":8930,"Ġmonitor":8931,"haps":8932,"Ġlooks":8933,"atasets":8934,"ĠPython":8935,"ess":8936,"(\"\\":8937,"ĠFree":8938,"decl":8939,"Ġnumerical":8940,"Missing":8941,"Ġleaders":8942,"Ġrad":8943,"tooltip":8944,"Ġrepresenting":8945,"^-":8946,"Ġdat":8947,"going":8948,"License":8949,"Ġtransformation":8950,"Ġbundle":8951,"Ġsecret":8952,"Ġexpansion":8953,"Ġprotect":8954,"101":8955,"Executor":8956,"Ġsit":8957,"UBLIC":8958,"æķ":8959,"Ġreli":8960,"contain":8961,"Ġexperimental":8962,"Îµ":8963,"TableRowColor":8964,"ederal":8965,"Transition":8966,"Ġgir":8967,"Ġann":8968,"Been":8969,"Servlet":8970,"Ġlaunch":8971,"cli":8972,"Ġaspect":8973,"ĠGreen":8974,"Ġnor":8975,"getString":8976,"Lat":8977,"kernel":8978,"9999":8979,"dicate":8980,"Ġpolice":8981,"BL":8982,"statsmodels":8983,"ĠGuide":8984,"Bits":8985,"ĠPO":8986,"Ġfolder":8987,"ĠPromise":8988,"Ġcolspan":8989,"stone":8990,"Collect":8991,"Ġhighly":8992,"LICENSE":8993,"asses":8994,"Replace":8995,"Actions":8996,"Stub":8997,"ĠIR":8998,"ĠCont":8999,"LAY":9000,"Ġfake":9001,"Decimal":9002,")_{":9003,"Require":9004,"ĠRout":9005,"ĠPat":9006,"kin":9007,"Ġplaying":9008,"spital":9009,"Ġdesired":9010,"SOURCE":9011,"1234":9012,"tended":9013,"Ġtermin":9014,"Ä±":9015,"cessed":9016,"els":9017,"Ġsizes":9018,"ago":9019,"dig":9020,"interval":9021,"stra":9022,"Loading":9023,"Dispatch":9024,"Ġwx":9025,"ILITY":9026,"1024":9027,"}\",":9028,"ĠFurther":9029,"Ġtrust":9030,"ĠĠĠĠĠĠĠĠĠĠĠĠĠĠĠĠĠĠĠĠĠĠĠĠĠĠĠĠĠĠĠĠĠĠ":9031,"><!--":9032,"Ð·":9033,"Ġphone":9034,"Ġstat":9035,"Ġremember":9036,"cryption":9037,"Ġcop":9038,"ĠRuss":9039,"ĠHence":9040,"fragment":9041,"Ð°ÑĤ":9042,"åĬ":9043,"FOR":9044,"Ġstarts":9045,"letter":9046,"Rules":9047,"<>();":9048,"Kit":9049,"bean":9050,"have":9051,"Packet":9052,"brand":9053,"Ġmobile":9054,")_":9055,"Ġmeasurements":9056,"standard":9057,"mous":9058,"Ø¯":9059,"olic":9060,"labels":9061,"includes":9062,"ĠClasses":9063,"notify":9064,"Owner":9065,"SSION":9066,"Ġsal":9067,"Ġidentified":9068,"Ġenjoy":9069,"POS":9070,"Schedule":9071,"onav":9072,"previous":9073,"igr":9074,"cipient":9075,"ĠHamilton":9076,"samp":9077,"bigg":9078,"ĠDel":9079,"Literal":9080,"Ġfight":9081,"slide":9082,"termin":9083,"Ġcompar":9084,"),\\":9085,"news":9086,"Ġstri":9087,"Ġmoving":9088,"TIES":9089,"Ġinject":9090,"getType":9091,"Ġlattice":9092,"Ġpriority":9093,"ĠAuto":9094,"Ġalbum":9095,"Ġchecked":9096,"inder":9097,"archive":9098,"Snapshot":9099,"BUILD":9100,"RECT":9101,"Ġprintf":9102,"FALSE":9103,"Ġenumer":9104,"tp":9105,"ifornia":9106,"ban":9107,"Ġabs":9108,"arc":9109,"Ġiterator":9110,"Ġcombination":9111,"ÐµÑĢ":9112,"Ġpolar":9113,"LOAD":9114,"Ġdst":9115,"/***/":9116,"Uses":9117,"runner":9118,"Ġnovel":9119,"Doctrine":9120,"chunk":9121,"sheet":9122,"Ġextreme":9123,"ĠEV":9124,"Geometry":9125,"ysql":9126,"rol":9127,"è¿":9128,"refs":9129,"thes":9130,"Analysis":9131,"ifically":9132,"house":9133,"Execute":9134,"ĠPolicy":9135,"Cook":9136,"Ġfinished":9137,"lider":9138,"Please":9139,"Î¹":9140,"sun":9141,"Ġdesp":9142,"stylesheets":9143,"Ġdelta":9144,"Prov":9145,"ĠSen":9146,"Ġalthough":9147,"Locale":9148,"pragma":9149,"Ġlegal":9150,"Rot":9151,"[]{":9152,"cached":9153,"Ġexchange":9154,"Ġindices":9155,"Ġdimensions":9156,"omite":9157,"Convert":9158,"Ġcached":9159,"respond":9160,"decla":9161,"Ġalgorithms":9162,"Ġsignificantly":9163,"malink":9164,"bucket":9165,"Ġincreased":9166,"licity":9167,"getMessage":9168,"hpp":9169,"Ġdiscussion":9170,"Ġ&#":9171,"}}(\\":9172,"__,":9173,"Ġanti":9174,"drag":9175,"Ġpresident":9176,"rance":9177,"('./":9178,"kes":9179,"SG":9180,"Ġled":9181,"Cast":9182,"ĠWARRANTIES":9183,"ĠVol":9184,"lability":9185,"Ġaapt":9186,"Ġagreed":9187,"Ġmodes":9188,"ĠJap":9189,"ĠQue":9190,"[-":9191,"å¤":9192,"Ġ'_":9193,"Ġusername":9194,"Series":9195,"Ġax":9196,"exclude":9197,"ĠRepublic":9198,"eli":9199,"Ġmovie":9200,"oked":9201,"omitempty":9202,"addClass":9203,"Ġchannels":9204,"Ã£o":9205,"CCESS":9206,"actual":9207,"ĠOCaml":9208,"ĠSuper":9209,"urable":9210,"Ġproviding":9211,"har":9212,"Ġfinancial":9213,"Ġspectral":9214,"Ġsimulation":9215,"decode":9216,"IMIT":9217,"Upload":9218,"Ġspent":9219,"bing":9220,"onavirus":9221,"ĠKEY":9222,"ĠParse":9223,"Ġreports":9224,"Ġindicate":9225,"ĠBuffer":9226,"Ġprecise":9227,"iting":9228,"Ġcountries":9229,"moment":9230,"DTD":9231,"ĠCap":9232,"----------":9233,"ĠProposition":9234,"Fixed":9235,"loss":9236,"ensitive":9237,"Ġlif":9238,"]</":9239,"Ġassembly":9240,"erspect":9241,"good":9242,"Ġpermission":9243,"jackson":9244,"TOM":9245,"___":9246,"Ġoffers":9247,"AVE":9248,"Ġspecies":9249,"Ġstudi":9250,"ivil":9251,"ingu":9252,"Ġtor":9253,"AF":9254,"Ġcircle":9255,"ĠRecord":9256,"forall":9257,"Ġoffice":9258,"Diagnostics":9259,"topic":9260,"Commit":9261,"ĠĠĠĠĠĠĠĠĠĠĠĠĠĠĠĠĠĠĠĠĠĠĠĠĠĠĠĠĠĠĠĠĠĠĠĠ":9262,"Download":9263,"ĠJS":9264,"ĠInstitute":9265,"Ġ'#":9266,"Ġbehavi":9267,"getClass":9268,"GC":9269,"gov":9270,"demic":9271,"ĉĉĉĉĊ":9272,"Ġpure":9273,"ĠReport":9274,"Ġreveal":9275,"Ġlives":9276,"Ġpacket":9277,"ĠBer":9278,"Once":9279,"dst":9280,"Marker":9281,"ĠRuntime":9282,"[(":9283,"Ã³n":9284,"!</":9285,"Ġclone":9286,"ĠHandle":9287,"Ġcontrast":9288,"javax":9289,"Ġsquare":9290,"Ġspre":9291,"ĠLay":9292,"omorphism":9293,"erc":9294,"illis":9295,"Ġplayed":9296,"currency":9297,"Ġmeasures":9298,"×ķ×":9299,"Ġpm":9300,"ĠLogger":9301,"onymous":9302,"Available":9303,"lam":9304,"Ġclassical":9305,"INVALID":9306,"Tuple":9307,"EVENT":9308,"Ġbuy":9309,")}(":9310,"members":9311,"yal":9312,"Ġreferences":9313,"prise":9314,"etween":9315,"CREATE":9316,"rian":9317,"Ġweeks":9318,"Ġmor":9319,"ĠÂ©":9320,"eval":9321,"ongo":9322,"Mut":9323,"Ġgeometry":9324,"ees":9325,"Tw":9326,"Ġcoupling":9327,"subsubsection":9328,"deep":9329,"Ġcli":9330,"frag":9331,"ĠLL":9332,"ishes":9333,"Ġcontained":9334,"ĠAws":9335,"ENABLE":9336,"Ġbench":9337,"Ġgenerally":9338,"states":9339,"Ġliteral":9340,"Shader":9341,"Ġauthors":9342,"pad":9343,"ellig":9344,"Ġult":9345,"Ġassumption":9346,"Ġbucket":9347,"Ġconsists":9348,"PROP":9349,"%%%%%%%%":9350,"ĠTer":9351,"Ġscience":9352,">`":9353,"Ġoccurs":9354,"Ġmetrics":9355,"_{{\\":9356,"FileName":9357,"Period":9358,"Ġagreement":9359,"Ġhistor":9360,">(<":9361,"Ġfee":9362,"folder":9363,"ĠTag":9364,"UA":9365,"HashMap":9366,"Management":9367,"ĠModule":9368,"Ġrequirements":9369,"Ġinequality":9370,"Ġdigital":9371,"Ġobvious":9372,"Ġfails":9373,"Ġtheore":9374,"Ġinsp":9375,"ails":9376,"alan":9377,"orge":9378,"Ġtro":9379,"Chart":9380,"Supported":9381,">${":9382,"Ġestimated":9383,"Must":9384,"\":\"":9385,"bus":9386,"prov":9387,"Ġstable":9388,"specific":9389,"ĠAuthor":9390,"Ġsimulations":9391,"latest":9392,"Ġzone":9393,"FLAG":9394,"Ġsending":9395,"BASE":9396,"ĠStreet":9397,"ĠBro":9398,"Ġquickly":9399,"ORK":9400,"ĠLeg":9401,"Ġeffic":9402,"listener":9403,"agnostic":9404,"Sharp":9405,"rypto":9406,"Zero":9407,"Ġorganization":9408,"Ġclu":9409,"riday":9410,"DP":9411,"ura":9412,"locale":9413,"anch":9414,"concat":9415,"Ġenh":9416,"iny":9417,"Ġcoefficients":9418,"SPACE":9419,"Ġintegral":9420,"Dynamic":9421,"bench":9422,"Ġcycle":9423,"===":9424,"rench":9425,"joint":9426,"Ġadopt":9427,"steps":9428,"Ġconstants":9429,"lands":9430,"concurrent":9431,"Ġgap":9432,"cluding":9433,"ilib":9434,"RT":9435,"Ġjud":9436,"Ġinherit":9437,"binary":9438,"Cannot":9439,"ĠDouble":9440,"FORMAT":9441,"Detector":9442,"istics":9443,"ctree":9444,"ĠSerial":9445,"noframe":9446,"ĠNet":9447,"ĠCloud":9448,"Ġsubset":9449,"beans":9450,"aui":9451,"Ġdecay":9452,"servlet":9453,"phase":9454,"rad":9455,"()\">":9456,"dynamic":9457,"rence":9458,"ĠMor":9459,"ĠMoreover":9460,"refresh":9461,"iversal":9462,"ĠPM":9463,"Contract":9464,"çĶ¨":9465,"Ġshowed":9466,"ami":9467,"pod":9468,"Did":9469,"Ġcomputation":9470,"Ġlogin":9471,"cls":9472,"phy":9473,"Camera":9474,"ĠBE":9475,"Ġhighest":9476,"poses":9477,"Ġwonder":9478,"Ġfib":9479,"Ġ#{":9480,"Ġelection":9481,"LIN":9482,"Ġinternational":9483,"Ġmodern":9484,"mf":9485,"ventory":9486,"ĠSH":9487,"\\)":9488,"Ġcoordinate":9489,"BOOL":9490,"Ġjoint":9491,"Codec":9492,"uts":9493,"Ġexplicitly":9494,"Ġmatrices":9495,"ĠReview":9496,"chools":9497,"110":9498,"ĠFix":9499,"reedom":9500,"rec":9501,"_{-":9502,"Ġwoman":9503,"Ġliving":9504,"Where":9505,"Ġlayers":9506,"itation":9507,"bundle":9508,"ĠAddress":9509,"Ġiget":9510,"middle":9511,"isc":9512,"Ġparallel":9513,"gregation":9514,"vised":9515,"Dem":9516,"history":9517,"Ġpiece":9518,"osing":9519,"general":9520,"Ġdoub":9521,"annotations":9522,"Ġcellpadding":9523,"Ġmaybe":9524,"Ùħ":9525,"Ġtf":9526,"ĠSend":9527,"Ġgenerator":9528,"Ġdetected":9529,"ĠWilli":9530,"May":9531,"Ġqueries":9532,"Ġvict":9533,"ĠCommon":9534,"Ġdistinct":9535,"amount":9536,"æĺ":9537,"Ġadvant":9538,"Ġrelations":9539,"ĠLin":9540,"paragraph":9541,"Ġcellspacing":9542,"Ġ\"${":9543,"connected":9544,"proc":9545,"ĠÐ¸":9546,"flush":9547,"regex":9548,"Ġmeasurement":9549,"RED":9550,"Ġdrive":9551,"STRU":9552,"Ġexhib":9553,"Bitmap":9554,"Ġ+\\":9555,"Ġsafety":9556,"Ġincreases":9557,"Machine":9558,"Ġamplit":9559,"Sem":9560,"aco":9561,"det":9562,"=\"{{":9563,"Ġaddr":9564,"Ġ'-":9565,"ĠPlay":9566,"ĠAustralia":9567,"Ġbinding":9568,"VO":9569,"iar":9570,"Ġlack":9571,"niques":9572,"NR":9573,"ĠSecurity":9574,"Ġbre":9575,"Intent":9576,"Ġwrapper":9577,"Ġbecame":9578,"Ġpipeline":9579,"Ġstation":9580,"TRAN":9581,"Origin":9582,"integr":9583,"CUR":9584,"Ġperturb":9585,"atest":9586,"timeline":9587,"score":9588,"men":9589,"olar":9590,"Diff":9591,"wiki":9592,"Ġring":9593,"Ġanyone":9594,"alg":9595,"Ġroad":9596,"seudo":9597,"opam":9598,"Mutable":9599,"ĠImmutable":9600,"pagination":9601,"Ġannounced":9602,"PM":9603,"Ġvectors":9604,"spin":9605,"Ġwasn":9606,"ĠTwitter":9607,"maxcdn":9608,"inject":9609,"Ġdispatch":9610,"pending":9611,"Ġmoved":9612,"Ġquad":9613,"ENTRY":9614,"Ġsuc":9615,"uming":9616,"Ġclearly":9617,":-":9618,"ordinate":9619,"craft":9620,"Features":9621,"Git":9622,"Ġpositions":9623,"UES":9624,"Ġmechanism":9625,"Ġdot":9626,"eb":9627,"Ġlatter":9628,"transport":9629,"even":9630,"Ġarriv":9631,"Ġteach":9632,"Spr":9633,"percent":9634,"sphere":9635,"isters":9636,"Ġmentioned":9637,"Mov":9638,"Ġanchor":9639,"rupted":9640,"555":9641,"Ġevaluate":9642,"Ġtokens":9643,"Under":9644,"Ġspatial":9645,"Ġdocuments":9646,"Ġhimself":9647,"Ġà¤":9648,"Ġparticularly":9649,"localhost":9650,"vertex":9651,"Created":9652,"ADDING":9653,"mean":9654,"will":9655,"unday":9656,"ĠDet":9657,"Ġmetal":9658,"MenuItem":9659,"ĠCA":9660,"HOUT":9661,"updated":9662,"mdc":9663,"Ġ========":9664,"how":9665,"Received":9666,"Ġcommunication":9667,"Assembly":9668,"algorithm":9669,"URN":9670,")^{\\":9671,"ĠChe":9672,"Ġdepending":9673,"Ġorbit":9674,"Ġstudied":9675,"Ġgiving":9676,"ctu":9677,"Ġinfluence":9678,"Tl":9679,"Ġdistributions":9680,"ĠFALSE":9681,"ville":9682,"Ġther":9683,"timer":9684,"âĢĿ.":9685,"elling":9686,"Ġrepresented":9687,"defer":9688,"redirect":9689,"ipher":9690,"OTTOM":9691,"Ġsurvey":9692,"Formatter":9693,"venue":9694,"foreach":9695,"Ġclock":9696,"=&":9697,"nologies":9698,"kg":9699,"Ġworked":9700,"Ġil":9701,"ĠWed":9702,"ĠDown":9703,"Ġamb":9704,"ĠMal":9705,"translate":9706,"ÐµÑĤ":9707,"ĠAnge":9708,"matches":9709,"Ġvary":9710,"Priority":9711,"lik":9712,"Ġodd":9713,"Face":9714,"goog":9715,"pixel":9716,"aaaa":9717,"SPAC":9718,"Best":9719,"Ġredirect":9720,"](#":9721,"texture":9722,"Ġrec":9723,"Ġjump":9724,"eth":9725,"inx":9726,"parts":9727,"Ġdrug":9728,"uffix":9729,"ĠNext":9730,"iration":9731,"Worker":9732,"failed":9733,"ĠInvalid":9734,"features":9735,"eclipse":9736,"popup":9737,"ĠScal":9738,"Ġstudent":9739,"Ġgoto":9740,"Ġparents":9741,"unknown":9742,"\\!\\!":9743,"Ġisinstance":9744,"]}":9745,"Ġship":9746,"ĠYear":9747,"ĠEngine":9748,"ental":9749,"??":9750,"PREF":9751,"ieves":9752,"ilitary":9753,"OLD":9754,"issue":9755,"binding":9756,"ĠWhite":9757,"************************************************************************":9758,"udit":9759,"ĠBu":9760,"Ġease":9761,"Ġpub":9762,"Ġbio":9763,"secondary":9764,"rab":9765,"hom":9766,"################################":9767,"ulp":9768,"Ġeducation":9769,"Lookup":9770,"\"])":9771,"Matcher":9772,"Vec":9773,"ĠProp":9774,"Ġ/*!<":9775,"Emit":9776,"Ġrap":9777,"OwnProperty":9778,"Ġexplanation":9779,"Ġbooks":9780,"Ġdeleted":9781,"iller":9782,"Ġalternative":9783,"StringBuilder":9784,"Ġapproaches":9785,"asi":9786,"mass":9787,"reason":9788,"square":9789,"Fil":9790,"ora":9791,"Compar":9792,"Push":9793,"Ġturned":9794,"Ġignored":9795,"quant":9796,"Ġunderstanding":9797,"Ġcandidate":9798,"Ġexistence":9799,"ĠGraph":9800,"!\"":9801,"Ġcombined":9802,"è®":9803,"Ġcapture":9804,"\"/></":9805,"apple":9806,"Ġgradient":9807,"processor":9808,"Trigger":9809,"}$-":9810,"Ġcm":9811,"adv":9812,"subNav":9813,"ĠTOP":9814,"ĠSy":9815,"Ġstrateg":9816,"awesome":9817,"mma":9818,"Pane":9819,"ĠERR":9820,"ĠEuropean":9821,"iral":9822,"Quest":9823,"Ġelectric":9824,"iden":9825,"ĠPal":9826,"Ġcompliance":9827,"team":9828,"]->":9829,"Ġagree":9830,"endpoint":9831,"Ġfoo":9832,"Ġtown":9833,"âĶ":9834,"ĠHas":9835,"Running":9836,"continue":9837,"override":9838,"rint":9839,"×Ļ":9840,"Ġdelegate":9841,"Ġcouple":9842,"attrs":9843,"Buf":9844,"Ġopportunity":9845,"docker":9846,"}&":9847,"Ġvacc":9848,"ĠPaul":9849,"publish":9850,"Changes":9851,"Ġpixels":9852,"cookie":9853,"ĠBORDER":9854,"Stat":9855,"Ġsoft":9856,")^{-":9857,"Culture":9858,"perp":9859,"Ġequip":9860,"ustain":9861,"Ġcorrectly":9862,"prepare":9863,"intro":9864,"Relation":9865,"Ġsong":9866,"ĠGenerated":9867,"cross":9868,"Ġculture":9869,"ĠCurrent":9870,"Ġsaying":9871,"notification":9872,"payload":9873,"mercial":9874,"Ġsurv":9875,"Ġphoto":9876,"ĠConvert":9877,"Ġpurch":9878,"istogram":9879,"Î½":9880,"cpu":9881,"ĠBY":9882,"ĠLab":9883,"Ġplus":9884,"ARG":9885,"ixtures":9886,"toolbar":9887,"medium":9888,"Ġtun":9889,"igate":9890,"Ġscient":9891,"sessment":9892,"ĠPublished":9893,"Ġassist":9894,"Ġestimates":9895,"Ġ'@":9896,"Ġblog":9897,"Ġnearly":9898,"Ġassumed":9899,"Ġassigned":9900,"Ġreasons":9901,"Previous":9902,"Ġpending":9903,"Ð¾Ð»":9904,">{":9905,"Mobile":9906,",\\,":9907,"Ġoccurred":9908,"reduce":9909,"Ġproperly":9910,"atibility":9911,"ĠTABLE":9912,"IDE":9913,"ĠRob":9914,"Dev":9915,"ĠChild":9916,"Ġvariety":9917,"hook":9918,"Ġencode":9919,"PARAM":9920,"surface":9921,"Ġfan":9922,"osh":9923,"CSS":9924,"uess":9925,"Est":9926,"Ġ$-":9927,"shell":9928,"Ġpaint":9929,"ĠCalifornia":9930,"TextView":9931,"________":9932,"clip":9933,"Suppress":9934,"vars":9935,"odo":9936,"Ġchance":9937,"Ġshell":9938,"netes":9939,"Ġtexture":9940,"Disk":9941,"\\|_{":9942,"ubble":9943,">[":9944,"Ġrace":9945,"rote":9946,"Ġconven":9947,"tomic":9948,"Modifier":9949,"æĪ":9950,"ubernetes":9951,"faster":9952,"Ġhandling":9953,"abstract":9954,"Ġsites":9955,"}^*":9956,"Fixture":9957,"projects":9958,"setText":9959,"manifest":9960,"Ġstyles":9961,"extensions":9962,"Ġhelper":9963,"Ġwind":9964,"ViewController":9965,"ifold":9966,"Ïĥ":9967,"ĠJob":9968,"Will":9969,"Ġcaused":9970,"ogene":9971,"Ġhide":9972,"Primary":9973,"ĠConsole":9974,"imize":9975,"Models":9976,"`)":9977,"ENCE":9978,"fess":9979,"DM":9980,"Ġdenotes":9981,"Self":9982,"GRO":9983,"ÙĦ":9984,"Ġconsequence":9985,"Ġstuff":9986,"Components":9987,"Ġoptimization":9988,"declare":9989,"ashington":9990,"toctree":9991,"Ġtruth":9992,"ĠBay":9993,"Visual":9994,"]['":9995,"){\\":9996,"ĠNE":9997,"Ġmedical":9998,"Ġimplied":9999,"Ġhour":10000,"START":10001,"Super":10002,"Ġinteractions":10003,"ĠPerson":10004,"Typ":10005,"'].":10006,"ĠPHP":10007,"=\"@+":10008,"\"?>":10009,"ĠDebug":10010,"Ġ&=&":10011,"Ġ}).":10012,"ĠRespon":10013,"itivity":10014,"Ġimplicit":10015,"Ġsections":10016,"Ġiniti":10017,"Ġ',":10018,"Ġlogic":10019,"APP":10020,"ARRAY":10021,"RESS":10022,"Ġestablished":10023,"ita":10024,"cn":10025,"ali":10026,"ĠCanada":10027,"Based":10028,"Chunk":10029,"Ġbegan":10030,"ĠStandard":10031,"Ġmolec":10032,"Ġhappens":10033,"ĠColumn":10034,"Ġinterested":10035,"Ġouter":10036,"(\".":10037,"Ġsmart":10038,"}\"/>":10039,"valueOf":10040,"DY":10041,"colon":10042,"SPACING":10043,"Bridge":10044,"Ġcult":10045,"ona":10046,"Ġformal":10047,"Ġdeclare":10048,"ĠShould":10049,"FP":10050,"ĠRich":10051,"ĠTYPE":10052,"requency":10053,"ymptot":10054,"Ġdisease":10055,"ĠMart":10056,"amental":10057,"=\"../_":10058,"quis":10059,"Ġcreates":10060,"analysis":10061,"Ġweights":10062,"Ġlimitations":10063,"$$\\":10064,"pin":10065,"iger":10066,"/)":10067,"0000000":10068,"BACK":10069,"Injection":10070,"frames":10071,"Ġepisode":10072,"Alert":10073,"__.":10074,"SSAGE":10075,"Modified":10076,"ĠCourt":10077,"`:":10078,"ĠÐº":10079,"Dict":10080,"awn":10081,"omas":10082,"pres":10083,"dictions":10084,"ĠĠčĊ":10085,"Ġspeak":10086,"Ctrl":10087,"km":10088,"AppCompat":10089,"Ġroll":10090,"Ġalpha":10091,"DIS":10092,"Ġslightly":10093,"Ġcls":10094,"Hz":10095,"getAttribute":10096,"Linq":10097,"Ġprograms":10098,"ĠDesign":10099,"ĠLast":10100,"Ġinte":10101,"pared":10102,"artesian":10103,"sz":10104,"?âĢĿ":10105,"ander":10106,"ova":10107,"Pipeline":10108,"mx":10109,"ĠMAX":10110,"scill":10111,"Calendar":10112,"DED":10113,"pipe":10114,"uce":10115,"cline":10116,"Ġpicture":10117,"NONE":10118,"cx":10119,"ĠCELL":10120,"ĠFilter":10121,"ITLE":10122,"ĠDateTime":10123,"ĠSun":10124,"Ġobserve":10125,"aint":10126,"Ġsender":10127,"uly":10128,"Ġmeeting":10129,"execution":10130,"Ġpartners":10131,"Break":10132,"Ġprediction":10133,"variance":10134,"ĠGaussian":10135,"Bl":10136,"ĠSeries":10137,"$).":10138,"')->":10139,"Ġthrown":10140,"Ġevaluation":10141,"Fetch":10142,"ARCH":10143,"ĠĠĠĠĠĠĠĠĠĠĠĠĠĠĠĠĠĠĠĠĠĠĠĠĠĠĠĠĠĠĠĠĠĠĠĠĠĠ":10144,"}}^":10145,"Ġcelebr":10146,"cker":10147,"ĠOrder":10148,"Ġtypically":10149,"BER":10150,"ĠOP":10151,"Ġlimits":10152,"Ġserious":10153,"{$\\":10154,"Ġtour":10155,"dependencies":10156,"Ġ<?":10157,"Ġworkers":10158,"adapter":10159,"Labels":10160,"Poly":10161,"multip":10162,"Power":10163,"ĠModal":10164,"Ġpen":10165,"Factor":10166,"Price":10167,"sey":10168,"ĠLanguage":10169,"ĠAppend":10170,"Ġcustomer":10171,"arma":10172,"Ġclients":10173,"ĠAdmin":10174,"dbc":10175,"ousel":10176,"Ġmaterials":10177,"Ġfinding":10178,"Alias":10179,"Press":10180,"ĠCouncil":10181,"Popup":10182,"Ġcurves":10183,"Ġfunctional":10184,"Ġclassification":10185,"Ġoutcome":10186,"NON":10187,"âĢĺ":10188,"iful":10189,"Activ":10190,"Ġinj":10191,"capt":10192,"Ġclip":10193,"tile":10194,"imed":10195,"useum":10196,"Pred":10197,"algebra":10198,"Metric":10199,"Ġinfinite":10200,"Ġgit":10201,")\\\\":10202,"ĠĠĠĠĠĠĠĠĠĠĠĠĠĠĠĠĠĠĠĠĠĠĠĠĠĠĠĠĠĠĠĠĠĠĠĠĠĠĠĠĠĠĠĠĠĠĠĠĠĠĠ":10203,"gp":10204,".~(\\":10205,"dtd":10206,"OFF":10207,"ĠRad":10208,"Ġscenario":10209,"Ġdu":10210,"Ġformation":10211,"Ġachieve":10212,"Ġfinish":10213,"~$\\":10214,"ĠAM":10215,"remark":10216,"Ġaccomp":10217,"ĠMost":10218,"vin":10219,"Ġactivities":10220,";%":10221,"Ġsometimes":10222,"CEPT":10223,"cursive":10224,"ĠÐ´":10225,"priv":10226,"Ġtechniques":10227,"Ġstories":10228,"Have":10229,"hard":10230,"She":10231,"phere":10232,"Ġnotation":10233,"ĠHashMap":10234,">../":10235,"disk":10236,"Ġsector":10237,"Indic":10238,"drawable":10239,"ARGET":10240,"culate":10241,"undred":10242,"Ġminimal":10243,")}{\\":10244,"ĠNSString":10245,"ĠClear":10246,"Translation":10247,"Ġsatisfy":10248,"vit":10249,"lemented":10250,"Put":10251,"Ġcapital":10252,"Bad":10253,"Ġwish":10254,"Ġpackages":10255,"poi":10256,"Ġsingular":10257,"ĠâĢ¦":10258,"MPL":10259,"pearance":10260,"Ġbank":10261,"bor":10262,"NECT":10263,"glob":10264,"scripts":10265,"Score":10266,"Ġpara":10267,"ĠGen":10268,"Leg":10269,"ĠHistory":10270,"ston":10271,"Ġchanging":10272,"Ġdefaults":10273,"LPADDING":10274,"packages":10275,"ĠFore":10276,"Ġconcent":10277,"Ġconclude":10278,"slider":10279,"Wrap":10280,"ĠJames":10281,"(`":10282,"Ġdifferences":10283,"Ġns":10284,"closed":10285,"Ġmount":10286,"Supp":10287,"Distance":10288,"icipant":10289,"ideos":10290,"abit":10291,"ĠMov":10292,"STRUCT":10293,"SUB":10294,"Ġhum":10295,"Contain":10296,"RC":10297,"Ġcool":10298,"Ġintegration":10299,"ĠCELLPADDING":10300,"ĠRender":10301,"ĠCELLSPACING":10302,"INSERT":10303,"tik":10304,"sime":10305,"fasterxml":10306,"*>(":10307,"cccc":10308,"ĠTree":10309,"ĠCommit":10310,"Your":10311,"demo":10312,"Enumerable":10313,"ceeded":10314,"ĠWITHOUT":10315,"Ġ=\\":10316,"Ġwild":10317,"ĠUnder":10318,"700":10319,"REQUEST":10320,"General":10321,"rink":10322,"ĠWhether":10323,"Ġreached":10324,"Ġdepart":10325,"ĠUP":10326,"versation":10327,"Ġgave":10328,"trollers":10329,"Ġconflict":10330,"ĠMichael":10331,"ĠÂ£":10332,"ĠEduc":10333,"segment":10334,"itions":10335,"substring":10336,"textsc":10337,"stub":10338,"Ġplaces":10339,"ĠBen":10340,"factor":10341,"Ġcouldn":10342,"design":10343,"hd":10344,"Ġdictionary":10345,"ĠApple":10346,"Operand":10347,"sources":10348,"Ġnotification":10349,"ĠDevelopment":10350,"uzz":10351,"ĠIllegalArgumentException":10352,"Ġplans":10353,"Ġson":10354,"management":10355,"Ġut":10356,"Ġupload":10357,"tiny":10358,"ĠPrint":10359,"nc":10360,"Ġchem":10361,"Ġchecks":10362,"ĠBO":10363,"Ġcarry":10364,"ĠEntity":10365,">.</":10366,"Ġms":10367,"OpenTl":10368,"stmt":10369,"identity":10370,")\\,":10371,"Ġanalog":10372,"Ġprecision":10373,"Thus":10374,"Ġjobs":10375,"descriptor":10376,"orders":10377,"Ġwants":10378,"simeq":10379,"ĠNon":10380,"INIT":10381,"404":10382,"ien":10383,"OBJECT":10384,"Ġmanaged":10385,"lookup":10386,"setting":10387,"Ip":10388,"erv":10389,"abric":10390,"backs":10391,"Ġyields":10392,"braries":10393,"Ġens":10394,"Scalar":10395,"Ġdisplayed":10396,"Quant":10397,"Ġ$('#":10398,"Ġresponsible":10399,"chat":10400,"ĠGr":10401,"ĠCase":10402,"Ġcustomers":10403,"Ġcourt":10404,"ĠTRUE":10405,"IME":10406,"ĠĠĠĠčĊ":10407,"Dry":10408,"Constraints":10409,"509":10410,"tv":10411,"Ġ\")":10412,"ĠTwo":10413,"WARE":10414,"GA":10415,"Blue":10416,"ĉĉĉĉĉĉĉĉĉĉĉ":10417,"Ġ\";":10418,"Ġcosts":10419,"iper":10420,"ĠPower":10421,"Ġfilters":10422,"Ġestablish":10423,"Secret":10424,"describe":10425,"party":10426,"filters":10427,"thead":10428,"SUCCESS":10429,"tasks":10430,"mutex":10431,"Ġsymp":10432,"Follow":10433,"escape":10434,"viation":10435,"Ġwaiting":10436,"cyc":10437,"Monitor":10438,"ĠNor":10439,"IEW":10440,"ĠUnit":10441,"Checked":10442,"Ġ\"#":10443,"RET":10444,"Scene":10445,"bounds":10446,"scriptions":10447,"Anim":10448,"Visitor":10449,"Ġextensions":10450,"Ġneighbor":10451,"Ġbrand":10452,"hol":10453,"Ġfeed":10454,"})$.":10455,"...)":10456,"Ġpandemic":10457,"itely":10458,"'},":10459,"ighter":10460,"nail":10461,"æķ°":10462,"DITION":10463,"Ġannotation":10464,":&":10465,"ĠâĢ¢":10466,"ault":10467,"ĠWHERE":10468,"argv":10469,"ĠBest":10470,"ĠDim":10471,"-\">":10472,"../../../":10473,"Dat":10474,"FilePath":10475,"ĠPress":10476,"AAAA":10477,"Setup":10478,"ĠMethods":10479,"Ġhuge":10480,"elasticsearch":10481,"Ġaw":10482,"Ġrotate":10483,"Ġindent":10484,"period":10485,"Ġcareer":10486,"Ġpatterns":10487,"Ġowners":10488,"FAIL":10489,"attach":10490,"ĠCHE":10491,".;":10492,"Ġdt":10493,"Ġ---":10494,"xsd":10495,"Family":10496,"Pending":10497,"Ġcanvas":10498,"Ġencrypt":10499,"Ġsymmetric":10500,"ÙĪ":10501,"Zoom":10502,"Mesh":10503,"Ùĩ":10504,"Ġconversion":10505,"Tracker":10506,"They":10507,"Ġexecuted":10508,"Anchor":10509,"ĠNav":10510,"Ġvoice":10511,"ĠKIND":10512,"idents":10513,"schemas":10514,"Structure":10515,"!(":10516,"Ġstock":10517,"Ġ\"_":10518,"Ġ.=":10519,"Ġcontrols":10520,"Ġ}),":10521,"newcommand":10522,"ClassName":10523,"Ġheavy":10524,"Ġdiagram":10525,"EP":10526,"Ġendif":10527,"Ġjav":10528,"resentation":10529,"Done":10530,"EXPORT":10531,"tech":10532,"Ġcomplexity":10533,"awt":10534,"ĠMusic":10535,"actor":10536,"lr":10537,"separator":10538,"Ġord":10539,"versions":10540,"ski":10541,"west":10542,"iki":10543,"Ġtuple":10544,"Ġrecommend":10545,"Instruction":10546,"'(":10547,"ĠFriday":10548,"Fix":10549,"pn":10550,"tele":10551,"stri":10552,"HasBeen":10553,"ELEMENT":10554,"toc":10555,"ĠArg":10556,"Ġtren":10557,"ĠActive":10558,"ĠToken":10559,"production":10560,"governor":10561,"Ġsupplied":10562,"FN":10563,"Fatal":10564,"ĠBritish":10565,"poch":10566,"interpre":10567,"ĠWil":10568,"inity":10569,"Ġexcit":10570,"ĠAfrica":10571,"yer":10572,"}}^{":10573,"metrics":10574,"DataSource":10575,"sWith":10576,"roadcast":10577,"Separator":10578,"THER":10579,"Ġfamilies":10580,"ĠJournal":10581,"illiseconds":10582,"Ġpatch":10583,"mann":10584,"Ġreverse":10585,"Ġ{$":10586,"yan":10587,"tempt":10588,"ssue":10589,"ashion":10590,"$^{-":10591,"Ġiteration":10592,"ĠGood":10593,"Mix":10594,"ĠSpr":10595,"Ġopening":10596,"Ġmarked":10597,"ald":10598,"mapsto":10599,"pmatrix":10600,"ajor":10601,"Loaded":10602,"Ġcollabor":10603,"Arrays":10604,"retch":10605,"ĠWill":10606,"such":10607,"Ġjournal":10608,"ĠSec":10609,"Ġstellar":10610,"Ġexpressions":10611,"ĠStar":10612,"Graphics":10613,"ĠOffice":10614,"Ġvote":10615,"Alpha":10616,"GN":10617,"Ġtraditional":10618,"Ġban":10619,"ered":10620,"Side":10621,"Ġna":10622,"Ġts":10623,"ĠSyn":10624,"*,":10625,"XY":10626,"Ġreduction":10627,"ĠRO":10628,"Ġconvergence":10629,"Src":10630,"lant":10631,"bro":10632,"vg":10633,"raise":10634,"}))":10635,"delegate":10636,"Ġgover":10637,"WRITE":10638,"ermal":10639,"posal":10640,"airs":10641,"Ġconsumer":10642,"developer":10643,"Ġlisted":10644,"Ġsyntax":10645,"COUNT":10646,"ĠPUBLIC":10647,"LowerCase":10648,"ĠEvery":10649,"Å¡":10650,"Accessor":10651,"opacity":10652,"Ġcompletion":10653,"abil":10654,"erspective":10655,"Ġescape":10656,"Ok":10657,"Ġstatistics":10658,"Ġcopyright":10659,"Ġmanufact":10660,"camel":10661,"rient":10662,"Ġcontributions":10663,"price":10664,"Validate":10665,"COM":10666,"upper":10667,"azure":10668,"distance":10669,"$;":10670,"Ġprime":10671,"Ġhop":10672,"strict":10673,"Ġprojection":10674,"atistical":10675,"ĠSSL":10676,"lee":10677,"ĠInitialize":10678,"Padding":10679,"yr":10680,"Ġteams":10681,"clusions":10682,"noscript":10683,"Ġeconomic":10684,"Ġå":10685,"Destroy":10686,":=":10687,"Describe":10688,"ological":10689,"pic":10690,"responsive":10691,"ĠPop":10692,"Seq":10693,"Ġdependence":10694,"Ġfem":10695,"Ġencour":10696,"Ġsubsequ":10697,"osity":10698,"Ġwrote":10699,"zoom":10700,"Ġpoor":10701,"Tensor":10702,"Ġclin":10703,"Exit":10704,"ÑĨ":10705,"odot":10706,"ĠFinally":10707,"Ready":10708,"avel":10709,"------------------------------------------------":10710,"'=>":10711,"olf":10712,"favicon":10713,"Ġchallenge":10714,"overflow":10715,"MAGE":10716,"Ġcos":10717,"Ġexpr":10718,"gate":10719,"ando":10720,"Try":10721,"Ġattrs":10722,"country":10723,"opsis":10724,"enty":10725,"Ġmassive":10726,"ROOT":10727,"Ġpla":10728,"LAB":10729,"sha":10730,"shop":10731,"ima":10732,"Ġliterature":10733,"ĠEmp":10734,"Ġacceler":10735,"initialize":10736,"samples":10737,"ĠRemarks":10738,"ĠAlex":10739,"Øª":10740,"TX":10741,"Party":10742,"Ġcalculation":10743,"lements":10744,"Ġtick":10745,"ĠDCHECK":10746,"ĠSty":10747,"Ġspectra":10748,"Seconds":10749,"ernate":10750,"inem":10751,"hbase":10752,"Tip":10753,"Ġpin":10754,"entries":10755,"!=":10756,"HasBeenSet":10757,"Ġsqu":10758,"ani":10759,"apers":10760,"ĠSV":10761,"512":10762,"shaller":10763,"elect":10764,"Ġwrap":10765,"Ġworker":10766,"zh":10767,"1998":10768,"Ġinstrument":10769,")$-":10770,"UUID":10771,"FLAGS":10772,"Unique":10773,"rowColor":10774,"Like":10775,"Ġec":10776,"ĠMember":10777,"æĹ":10778,"Ġaudi":10779,"Ġideal":10780,"ĠEven":10781,"Ġphen":10782,"SERVER":10783,"LES":10784,"Blocks":10785,"ubic":10786,"Ġfans":10787,"Ġdegrees":10788,"Certificate":10789,"Ġsubmit":10790,"Ġ\");":10791,"Ġlocations":10792,"Payload":10793,"aby":10794,"ĠSocial":10795,"urer":10796,"Testing":10797,"Canvas":10798,"ĠDevice":10799,"Ġseed":10800,"Comparison":10801,"Ïģ":10802,"metic":10803,"lets":10804,"MEM":10805,"istency":10806,"Ġretrieve":10807,"ysics":10808,"Sets":10809,"ĠHy":10810,"ĠBOTTOM":10811,"ĠTarget":10812,"WI":10813,"parentNode":10814,"Ġtables":10815,"}}$,":10816,"ĠCHECK":10817,"Ġcri":10818,":%":10819,"Ġspot":10820,"stic":10821,"ĠAut":10822,"Ġbrought":10823,"Ġvac":10824,"aturday":10825,"Ġdefines":10826,"nit":10827,"\"}":10828,"xl":10829,"scriber":10830,"ĠUSA":10831,"ĠStringBuilder":10832,"iation":10833,"Ġglob":10834,"ĠBel":10835,"ĠChannel":10836,"JavaScript":10837,"Ġremoves":10838,"Azure":10839,"ĠAccount":10840,"Ty":10841,"Theorem":10842,"ĠTry":10843,"Lines":10844,"Design":10845,"tone":10846,"Ġplaced":10847,"dirname":10848,"ĠFran":10849,"Ġobservation":10850,"porate":10851,"Ġclub":10852,"Ġtargets":10853,"Ġindicating":10854,"ĠSunday":10855,"Ġbrief":10856,"Ġspirit":10857,"subscribe":10858,"Ġmother":10859,"Radius":10860,"uer":10861,"Ġconsidering":10862,"Qt":10863,"igator":10864,"csv":10865,"andbox":10866,"registry":10867,"AMP":10868,"uesday":10869,"ASH":10870,"visit":10871,"Ġsolve":10872,"City":10873,"INDEX":10874,"renderer":10875,"setAttribute":10876,"ributed":10877,"uv":10878,"Ke":10879,"Ġdecor":10880,"ĠBr":10881,"Ġtypical":10882,"Router":10883,"tooth":10884,"Ġlisting":10885,"ĠAttribute":10886,"rium":10887,"Ġoptical":10888,"modifier":10889,"Ġstatements":10890,"ĠInit":10891,"atics":10892,"TEGER":10893,"outer":10894,"Ġcodes":10895,"ĠExpression":10896,"etc":10897,"Ġfather":10898,"âĶĢ":10899,"stage":10900,"ampion":10901,"Serialization":10902,"frastructure":10903,"()[":10904,"ĠLicensed":10905,"Tools":10906,"appendChild":10907,"Den":10908,"appings":10909,"Mail":10910,"ĠSize":10911,"Ġstrongly":10912,"Ġexpressed":10913,"ĠINTO":10914,"Strip":10915,"Ġdependency":10916,"SUP":10917,"Ġconstructed":10918,"inese":10919,"Gateway":10920,"sent":10921,"ughter":10922,"lica":10923,"ĠTex":10924,"Evalu":10925,"Ġequals":10926,"firstrow":10927,"Ġrelatively":10928,"Bus":10929,"ç»":10930,"Ġsorted":10931,"=-=-":10932,"proposition":10933,"Ġfirm":10934,"MESSAGE":10935,"]).":10936,"Ġencoded":10937,"Margin":10938,"Ġonclick":10939,"jac":10940,"Stud":10941,"Ġ//-->":10942,"Updated":10943,"metric":10944,"\"</":10945,"ĠLI":10946,"Ġslice":10947,"Ġdirector":10948,"Ġdet":10949,"Ġscaling":10950,"StatusCode":10951,"Percent":10952,"atile":10953,"StackTrace":10954,"Ġalone":10955,"NI":10956,"Kernel":10957,"Ġnation":10958,"Ġinterpret":10959,"}}$.":10960,"Ġprote":10961,"Ġbroadcast":10962,"overlay":10963,"ritory":10964,"burg":10965,"pipeline":10966,"']))":10967,"ĠSaf":10968,"Primitive":10969,"ĠOtherwise":10970,"memberNameLink":10971,"ĠReal":10972,"course":10973,"Win":10974,"standing":10975,"ĠFil":10976,"riterion":10977,"live":10978,"Capture":10979,"crimin":10980,"Ġindividuals":10981,"Ġpp":10982,"Ġsimpl":10983,"lave":10984,"Ġcolors":10985,"thetic":10986,"toEqual":10987,"evalu":10988,"Ġaccepted":10989,"Inf":10990,"hello":10991,"Ġgoverning":10992,"Safe":10993,"ened":10994,"ĠProduct":10995,"Dao":10996,"ĠAT":10997,"Ġregarding":10998,"Relative":10999,"Ġfeedback":11000,"Ġ*,":11001,"Ġmus":11002,"environment":11003,"Lite":11004,"Ġforeign":11005,"nable":11006,"Head":11007,"FFFFFF":11008,"Topic":11009,"ĠGiven":11010,"ounds":11011,"ĠTom":11012,"Finally":11013,"ĠHamiltonian":11014,"Syn":11015,"Ġrouter":11016,"Health":11017,"Contin":11018,"itz":11019,"ounded":11020,"preview":11021,"backend":11022,"Blob":11023,"Ġhypot":11024,"feed":11025,"éĢ":11026,"Ġcoverage":11027,"ĠCache":11028,"ĠMA":11029,"configure":11030,"Ġpayment":11031,"utors":11032,"Ġpurposes":11033,"ĠInternal":11034,"diag":11035,"caret":11036,"ecycle":11037,"Ġarchitecture":11038,"ĠOptions":11039,"ritical":11040,"atever":11041,"?</":11042,"urney":11043,"ĠtoString":11044,"ABILITY":11045,"Ġthick":11046,"character":11047,"Ġslot":11048,"Numer":11049,"Na":11050,"Ġlookup":11051,"Ġeyes":11052,"NGTH":11053,"Annotations":11054,"Ca":11055,"Ġbias":11056,"ĠSecond":11057,"Ġsnapshot":11058,"Ġserve":11059,"urst":11060,"secret":11061,"Ġdom":11062,"Uint":11063,"Ġmorph":11064,"ĠTeam":11065,"Ġlaws":11066,"Overlay":11067,"Ġĉ":11068,"ĠImGui":11069,"night":11070,"ĠRelease":11071,"Ġ'$":11072,"ĠPsi":11073,"Compare":11074,"tikz":11075,"gui":11076,"eper":11077,"Ġbright":11078,"neut":11079,"sender":11080,"Slot":11081,"âĢ¢":11082,"[<":11083,"eh":11084,"ymmetric":11085,"isted":11086,"themes":11087,"future":11088,"ĠStore":11089,"filer":11090,"Ġdefinitions":11091,"Scheme":11092,"Ġpeer":11093,"Ġtraffic":11094,"ifference":11095,"ĠConnection":11096,"SPE":11097,"ĠRegion":11098,"Ġheat":11099,"conditions":11100,"Backup":11101,"Ġ/><":11102,"Ġusual":11103,"Cookie":11104,"BLOCK":11105,"ĠMP":11106,"ressions":11107,"Ġdx":11108,"Original":11109,"hashCode":11110,"HAND":11111,"]),":11112,"rich":11113,"Ġrecall":11114,"except":11115,"Ġhear":11116,"social":11117,"Confirm":11118,"nonatomic":11119,"generic":11120,"Ġleader":11121,"Ġdire":11122,"ĠDI":11123,"dn":11124,"Listeners":11125,"ala":11126,"ĠCONFIG":11127,"Ġdraft":11128,"Alignment":11129,"ĠJavaScript":11130,"ĠSpe":11131,"dataset":11132,"geometry":11133,"ĠEnter":11134,"Ġopened":11135,"Ġpain":11136,"Millis":11137,"Ġclusters":11138,"Ġgraphs":11139,"Ġcategories":11140,"ĠEngland":11141,"ĠTor":11142,"izers":11143,"Entries":11144,"ĠIL":11145,"([]":11146,"Dimension":11147,"Ġ\"+":11148,"=====":11149,"Ġdifferential":11150,"Paths":11151,"ĠTimes":11152,"Ġeight":11153,"Ġideas":11154,"onald":11155,"comb":11156,"ĠCompany":11157,"Ġball":11158,"iser":11159,"Surface":11160,"Subscription":11161,"ErrorCode":11162,"sat":11163,"Ġconfigure":11164,"law":11165,"ĠSpecial":11166,"ĠArm":11167,"Ġ[\\":11168,"paths":11169,"nesday":11170,"Ġefficiency":11171,"inherited":11172,"10000":11173,"Ġheard":11174,"AI":11175,"Operations":11176,"ĠGrid":11177,"ĠMonday":11178,"ĉĉĉĉĉĉĊ":11179,"FUNCTION":11180,"Ġ../":11181,"VC":11182,"Ġexplain":11183,"Ġdatasets":11184,"iframe":11185,"\\{\\":11186,"Ġrhs":11187,"packet":11188,"fluid":11189,"Suite":11190,"Could":11191,"olid":11192,"aria":11193,"ĠBecause":11194,"owers":11195,"Ġast":11196,";]":11197,"Ġ\"./":11198,"Inject":11199,"Ġinnov":11200,"Ġunion":11201,"ffee":11202,"Ġfelt":11203,"Hello":11204,"Ġarm":11205,"semble":11206,"toLowerCase":11207,"Just":11208,"reci":11209,"::$":11210,"Country":11211,"sell":11212,"Ġmovement":11213,"******/":11214,"Reflection":11215,"Ġbold":11216,"Attrib":11217,"Ġinverse":11218,"marker":11219,">()</":11220,"ĠFour":11221,"ĠCamp":11222,"measure":11223,"Extract":11224,"ĠSM":11225,"Ġconfigured":11226,"umpy":11227,"Destination":11228,"Ġlocale":11229,"extype":11230,"ilibrium":11231,"Refresh":11232,"Ġboot":11233,"Ġentered":11234,"streaming":11235,"Ġaccurate":11236,"Ġsales":11237,"Payment":11238,"Ġrm":11239,"Dim":11240,"question":11241,"Ġauthentication":11242,"Ġdeb":11243,"estival":11244,"Peer":11245,"CN":11246,"su":11247,"weak":11248,"Backend":11249,"ĉĉčĊ":11250,"ĠWashington":11251,"speed":11252,"Ġhundred":11253,"Regex":11254,"reflect":11255,"logic":11256,"ĠLibrary":11257,"ĠBoard":11258,"viders":11259,"Ġsatisfied":11260,"Ġwall":11261,"Include":11262,"Ġdual":11263,"=\"#\"":11264,"Ġrise":11265,"$~":11266,"servers":11267,"Ġallowing":11268,"Ġhands":11269,"itespace":11270,"asset":11271,"Ġhappened":11272,"Ġgrowing":11273,"ĠMa":11274,"ĠJer":11275,"nl":11276,"rams":11277,")*":11278,"Warnings":11279,"ĠOffic":11280,"Fill":11281,"Ġintr":11282,"Qual":11283,"Ġ'')":11284,"Ġsen":11285,"Ġtested":11286,"Ñħ":11287,"extract":11288,"Tex":11289,"Ġrapid":11290,"atom":11291,"Introduction":11292,"ursday":11293,"Ġpython":11294,"Ġrobust":11295,"Arr":11296,"Ġpolicies":11297,"^{+":11298,"Ġtreated":11299,"Ġexpanded":11300,"/(":11301,"Ġthank":11302,"Prob":11303,"Bro":11304,"Ġcovered":11305,"ĠAWS":11306,"Ġpriv":11307,"Ġsun":11308,"ĠDatabase":11309,"Ġkept":11310,"360":11311,"astic":11312,"ĠInd":11313,"Ġdecided":11314,"defaults":11315,"Ġcookie":11316,"Credentials":11317,"Ġpassing":11318,"destination":11319,"Ġ/></":11320,"Ġplant":11321,"_[":11322,"Ġlooked":11323,"Ġadvantage":11324,"schedule":11325,")+\\":11326,"Ġcredit":11327,"ctrl":11328,"rac":11329,"ieces":11330,"ĠSta":11331,"Ġmath":11332,"spark":11333,"Blockly":11334,"ĠPay":11335,"permission":11336,"pto":11337,"ĠTechnology":11338,"ĠEnvironment":11339,"Visibility":11340,"Integr":11341,"Ġthous":11342,"ategor":11343,"RL":11344,"rey":11345,"inesses":11346,"statement":11347,"indices":11348,"Ġindeed":11349,"AU":11350,"WORK":11351,"Ġturns":11352,"ĠSummary":11353,"Ġencounter":11354,"Ġfreedom":11355,"sep":11356,"Ġeasier":11357,"Styles":11358,"ĠĠĠĠĠĠĠĠĠĠĠĠĠĠĠĠĠĠĠĠĠĠĠĠĠĠĠĠĠĠĠĠĠĠĠĠĠĠĠĠĠ":11359,"ĠVerify":11360,"processing":11361,"Ġrc":11362,"Ġyourself":11363,"WriteLine":11364,"Ġbillion":11365,"Ġmatched":11366,"Alt":11367,"MF":11368,"ĠRoad":11369,"ĠParameters":11370,"Merge":11371,"Ġresolved":11372,"Ġopin":11373,"comments":11374,"/'":11375,"Ð¾Ð´":11376,"Ġcyc":11377,"usage":11378,"npm":11379,"Ġadds":11380,"Ġasymptot":11381,"ORS":11382,"Ġcalculations":11383,"Ġaffected":11384,"Ġorders":11385,"stud":11386,"IES":11387,"FRAME":11388,"Ġoscill":11389,"Speed":11390,"Uniform":11391,"Ġds":11392,"Ġ\"-//":11393,"Ġtimer":11394,"Ġoutputs":11395,"Ġseven":11396,"ceptor":11397,"tre":11398,"Ġdeploy":11399,"bel":11400,"uda":11401,"atype":11402,"bridge":11403,"Ġhole":11404,"PG":11405,"PLICATION":11406,"los":11407,"Ġshot":11408,"hex":11409,"added":11410,"vailability":11411,"Ð¸ÑĤ":11412,"attery":11413,"arios":11414,"ĠLear":11415,"ĠIF":11416,"?(":11417,"Ġsleep":11418,"Circ":11419,"ĠBlue":11420,"ĠĠĠĠĠĠĠĠĠĠĠĠĠĠĠĠĠĠĠĠĠĠĠĠĠĠĠĠĠĠĠĠĠĠĠĠĠĠĠĠ":11421,"Sig":11422,"Ġdatetime":11423,"Ġframes":11424,"Rob":11425,"follow":11426,"stor":11427,"Ġnested":11428,"Sheet":11429,"SF":11430,"Modal":11431,"Js":11432,"Ġbenefit":11433,"Ġeth":11434,"arded":11435,"Ġcriteria":11436,"apps":11437,"Defined":11438,"Ġlists":11439,"Ġreceiving":11440,"Connector":11441,"displaystyle":11442,"Ġraised":11443,"Ġ[{":11444,"Ġcss":11445,"FTWARE":11446,"Ġion":11447,"Ġmagnitude":11448,"Sent":11449,"umptions":11450,"Mag":11451,"RIGHT":11452,"Shadow":11453,"hesis":11454,"Ġtrained":11455,"Ġpassphrase":11456,"Ġbas":11457,"ĠCa":11458,"bas":11459,"ila":11460,"iso":11461,"Ġsampling":11462,"mbed":11463,"Ġhydro":11464,"})$,":11465,"macro":11466,"Ġ./":11467,"Ġknew":11468,"Ġneg":11469,"Hy":11470,"ĠWell":11471,"ĠDetail":11472,"CDATA":11473,"ĠĠĠĠĠĠĠĠčĊ":11474,"Ġmarker":11475,"fun":11476,"lides":11477,".\")":11478,"ĠGovernment":11479,"codes":11480,"MASK":11481,"ĠĠĠĠĠĊ":11482,"'):":11483,"xygen":11484,"ĠVALUES":11485,"cher":11486,"Ġregime":11487,"ĠRow":11488,"reens":11489,"ĠAlthough":11490,"ÏĢ":11491,"192":11492,"Ġrefresh":11493,"Disabled":11494,"ganization":11495,"prot":11496,")}}":11497,"phen":11498,"LIENT":11499,"cref":11500,"ĠEducation":11501,"HC":11502,"iro":11503,"gable":11504,")-\\":11505,"!\\":11506,"Ġhorizontal":11507,"Ð¾ÑĢ":11508,"Ġasset":11509,"Ġattached":11510,"Ġcopies":11511,"Ġfaster":11512,"blocks":11513,"dm":11514,"Ġconvention":11515,"Ġinser":11516,"lings":11517,"ĠWrit":11518,";,":11519,"ple":11520,"lb":11521,"Ġreson":11522,"Ġabsor":11523,"ĠUsed":11524,"rx":11525,"ĠDA":11526,"åľ":11527,"rowse":11528,"ithmetic":11529,"Ġrepeated":11530,"Ġaren":11531,"Decoder":11532,"rv":11533,"{},":11534,"endregion":11535,"train":11536,"CHAN":11537,"fessor":11538,"ĠBAS":11539,"ĠDemocr":11540,"]<":11541,"Ġfol":11542,"ipage":11543,"DOCK":11544,"ensus":11545,"TOOL":11546,"Ġprocessed":11547,"Ġ(`":11548,"Ġæ":11549,"Ġmasses":11550,"]*":11551,"ĠMiss":11552,"Subject":11553,"........":11554,"ipedia":11555,"/#":11556,"Ġoccup":11557,"åŃ":11558,"UInt":11559,"Keyword":11560,"cpy":11561,":}":11562,"Functions":11563,"002":11564,"merce":11565,"Ġcomposition":11566,"Ġ(!(":11567,"âĢĿ,":11568,"Ġmedium":11569,"Ġimm":11570,")}_{":11571,"running":11572,"textarea":11573,"ĠPhil":11574,"ĠRights":11575,"lesssim":11576,"Ġproved":11577,"branch":11578,"Ġapplying":11579,"Ġnormalized":11580,"Ġquadr":11581,"Dump":11582,"Retry":11583,"|_{":11584,"Ġsuitable":11585,"odd":11586,"Ġintent":11587,"removeClass":11588,"FIL":11589,"placement":11590,"MetaData":11591,"oned":11592,"pur":11593,"Ġhelps":11594,"Foo":11595,"Ġconj":11596,"Ġmanifest":11597,"ĠInterface":11598,"itiz":11599,"ĠAdded":11600,"Ġgalaxy":11601,"XXXX":11602,"minipage":11603,"Ġcompile":11604,"ĠSW":11605,"Analy":11606,"102":11607,"//----------------------------------------------------------------":11608,"ĠMIT":11609,"week":11610,"Ġinitialized":11611,"ĠGold":11612,"ĉĉĠ":11613,"Ġfundamental":11614,"PASS":11615,"lator":11616,"Ġing":11617,"MIT":11618,"Ġpowerful":11619,"utine":11620,"ifts":11621,"CMD":11622,"FileSystem":11623,"ĠLook":11624,"Generate":11625,"Ġinduced":11626,"Algorithm":11627,"Ġsche":11628,"aneous":11629,"Ġthreat":11630,"ĠGit":11631,"ĠUnless":11632,"Ġdeprecated":11633,"shortcut":11634,"////////////////////////////////////////////////////////////////":11635,"Proof":11636,"Photo":11637,"Slice":11638,"ssaging":11639,"ĠFact":11640,"uling":11641,".');":11642,"orrow":11643,"Ġcas":11644,"ercise":11645,"zed":11646,"ĠTEST":11647,"Ġrelig":11648,";-":11649,"Ġcat":11650,"Pub":11651,"Ġshop":11652,"Ġintended":11653,"elihood":11654,"Ġprepare":11655,"ĠDirector":11656,"ssible":11657,"ĠZe":11658,"Fake":11659,"ĠHot":11660,"ippet":11661,"ĠSmith":11662,"Ġspread":11663,"Ġcertificate":11664,"Ġuncertainty":11665,"Tick":11666,"Ġrs":11667,"Geo":11668,"Picker":11669,"@{":11670,"Ġattract":11671,"helpers":11672,"UV":11673,"Ġbelong":11674,"Ġbehaviour":11675,"Ġflight":11676,"sizeof":11677,"cost":11678,"111":11679,"ordered":11680,"ĠProperties":11681,"inations":11682,"Ġsubscription":11683,"=\"#\">":11684,"Vote":11685,"Ġrev":11686,"Ġordered":11687,"Heap":11688,"Clean":11689,"crumb":11690,"igital":11691,"Inline":11692,"Completion":11693,"Ġschools":11694,"Ġsin":11695,"hbar":11696,"Ġfo":11697,"AUTH":11698,"Given":11699,"Ġnice":11700,"Ġforces":11701,"Ġmajority":11702,">)</":11703,"ĠCreated":11704,"Ġadvert":11705,"literal":11706,"Ġclaims":11707,"\\\":":11708,"placeholder":11709,"ĠBank":11710,"priority":11711,"controls":11712,"havi":11713,"chrome":11714,"ĠChrome":11715,"è¡":11716,"ceeds":11717,"spi":11718,"lavor":11719,"ĠAssociation":11720,"Ġcert":11721,"ĠRequired":11722,"ogeneous":11723,"lie":11724,"Sn":11725,"EqualTo":11726,"Ġ();":11727,"MAN":11728,"ester":11729,"Ġdaily":11730,"Ġachieved":11731,"005":11732,"Ġreply":11733,"coped":11734,"asm":11735,"orange":11736,"Stmt":11737,"Ġsequences":11738,"tbl":11739,":/":11740,"-------":11741,"Without":11742,"reh":11743,"same":11744,"Ġlinked":11745,"Ġfilled":11746,"ĠMatrix":11747,"elligence":11748,"Ġbla":11749,"addEventListener":11750,"Ġlaun":11751,"lar":11752,"Ġcentury":11753,"Ġreceiver":11754,"BI":11755,"Ġmorning":11756,"+(":11757,"Ġfocused":11758,"ĠSing":11759,"Apply":11760,"Ġoperating":11761,"Ġsummar":11762,"cis":11763,"written":11764,"Ġsecondary":11765,"%)":11766,"Receive":11767,"Ġnotify":11768,"Ġcaref":11769,"Prototype":11770,"ĠRPC":11771,"Transfer":11772,"Ġpossibly":11773,"ĠDen":11774,"may":11775,"Ġtried":11776,"visibility":11777,"?\"":11778,"ĠSET":11779,"SDK":11780,"Ġconverted":11781,"Ġretry":11782,"posts":11783,"ĠRepresent":11784,"bre":11785,"Ġretain":11786,"hasOwnProperty":11787,"Ġmilitary":11788,"cont":11789,"Ġblood":11790,"ĠFrench":11791,"subscription":11792,"DEC":11793,"validator":11794,"Yes":11795,"Upper":11796,"ĠMET":11797,"balena":11798,">/":11799,"Requests":11800,"Ġtoward":11801,"Ġshoot":11802,"ĠDisplay":11803,"Encoder":11804,"oon":11805,"osis":11806,"ĠAD":11807,"xe":11808,"ĠMatch":11809,"Ġll":11810,"ĠEarth":11811,"Ġshock":11812,"Ġbeam":11813,"decoration":11814,"Ġsan":11815,"finity":11816,"Ġapproximately":11817,"ffffff":11818,"$),":11819,"inciple":11820,"negative":11821,"Ġbg":11822,"PROC":11823,"scene":11824,"Ġrat":11825,"+\"":11826,"enance":11827,"<?>":11828,"Ġdoor":11829,"allowed":11830,"Ġmostly":11831,"Ġrecommended":11832,"Ġ\"[":11833,"etime":11834,"Ġahead":11835,"Ġaccum":11836,"camera":11837,"ĠFuture":11838,"xref":11839,"ĠConstruct":11840,"Ġproceed":11841,"keep":11842,"Ġrepo":11843,"Ġcoins":11844,"retval":11845,"ilarly":11846,"Ġcanonical":11847,"Used":11848,"Ġcookies":11849,"there":11850,"Ġscattering":11851,"worker":11852,"Ġcfg":11853,"pd":11854,"microsoft":11855,"tuple":11856,"mov":11857,"AnyRef":11858,"hu":11859,"meter":11860,"TITLE":11861,"Stage":11862,"Allowed":11863,"ĠZend":11864,"\">&#":11865,"odies":11866,"Ġdespite":11867,"Ġ'</":11868,"Req":11869,"ĠImport":11870,"iveness":11871,"ĠSession":11872,"ctors":11873,"Ġregex":11874,"compiled":11875,"Ġlearned":11876,"FROM":11877,"Ġcommunities":11878,"MSG":11879,"Ġperhaps":11880,"Authorization":11881,"ĠGET":11882,"Apis":11883,"grpc":11884,"Ġkwargs":11885,"ĠBasic":11886,"cycle":11887,"exist":11888,"Ġcoronavirus":11889,"Ġeye":11890,"ĠSP":11891,"Ġobjective":11892,"ĠWeek":11893,"hw":11894,"Ġefforts":11895,"LENGTH":11896,"VIEW":11897,"ruit":11898,"Ġolder":11899,"Tables":11900,"buttons":11901,"Ġcorner":11902,"Ġexplained":11903,"urt":11904,"ootstrap":11905,"oracle":11906,"BT":11907,"Ġstub":11908,"precision":11909,"LEV":11910,"Ġlocally":11911,"ĠPeople":11912,"Frag":11913,"Ġpi":11914,"named":11915,"aling":11916,"LR":11917,"encing":11918,"Ġener":11919,">');":11920,"esting":11921,"charge":11922,"×Ļ×":11923,"130":11924,"ĠSymfony":11925,"ĠLat":11926,"Ġutils":11927,"Ġimproved":11928,"inputs":11929,"Nested":11930,"Lcom":11931,"Ġwire":11932,"Ġthermal":11933,"Username":11934,"ĠCONDITION":11935,"Ġrare":11936,"Ġfloor":11937,"Ġnucle":11938,"ĠPass":11939,"maj":11940,"must":11941,"Ġdescribes":11942,"afka":11943,"licated":11944,"Ġquantity":11945,"Ġchoices":11946,"Old":11947,"-------------":11948,"Dataset":11949,"Participant":11950,"Therefore":11951,"ĠLabel":11952,"Ġinterview":11953,"life":11954,"Ġdecomposition":11955,"quo":11956,"rob":11957,"Der":11958,"vart":11959,"Ġxsi":11960,"Measure":11961,"Ġnoted":11962,"Ġtraject":11963,"Ġends":11964,"ĠEditor":11965,"Ġsemi":11966,"Respon":11967,"ĠFull":11968,"ĠWhy":11969,"Ġvec":11970,"ĠRep":11971,"ĠIT":11972,"Ġsynchronized":11973,"Don":11974,"GROUP":11975,"ĠDiv":11976,"ĠKen":11977,"nan":11978,"}({\\":11979,"stderr":11980,"Ġdem":11981,"YS":11982,"Ġrich":11983,"ĠChurch":11984,"Ġcredentials":11985,"Ġisol":11986,"Toggle":11987,"Ġbulk":11988,"\">(</":11989,"ĠSam":11990,"Ġvehicle":11991,"ĠVideo":11992,"}{|":11993,"Ġtechnique":11994,"Ġclimate":11995,"through":11996,"Indicator":11997,"Reply":11998,"Variant":11999,"ĠAllow":12000,"ĠConstructor":12001,"water":12002,"Ins":12003,"Drawable":12004,"Pat":12005,"]=":12006,"Ġharmony":12007,"AreEqual":12008,"shiv":12009,"Ġcatalog":12010,"Ġsymbols":12011,",</":12012,"ĠHall":12013,"Share":12014,"Ġpartner":12015,"days":12016,"rintf":12017,"ĠPet":12018,"friend":12019,"Ġamplitude":12020,"Ġprofessional":12021,"&=&":12022,"PREFIX":12023,"clock":12024,"Ġtile":12025,"Ġstated":12026,"ĠSaturday":12027,"BD":12028,"OPTION":12029,"Ġwhom":12030,"Ġtrial":12031,"Ġlistening":12032,"haser":12033,"badge":12034,"Ġsummer":12035,"Ġsupply":12036,"Sch":12037,"ibling":12038,"sock":12039,"ĠTuesday":12040,"Ġblo":12041,":**":12042,"Filename":12043,"vn":12044,"Ġrepeat":12045,"Ġproportion":12046,"Proc":12047,"atern":12048,"ĠUSE":12049,"Ġexplor":12050,"Question":12051,"anim":12052,"Ġgold":12053,"Ġtail":12054,"Ġchallenges":12055,"you":12056,"ĠSal":12057,"Team":12058,"...,":12059,"Ġtheoretical":12060,"Ġkids":12061,"ĠLos":12062,"solid":12063,"itar":12064,"reverse":12065,"INSTANCE":12066,"Ġhook":12067,"Ratio":12068,"Ġbirth":12069,"Ġsecure":12070,"Ġ\"\")":12071,"arse":12072,"GENER":12073,"polymer":12074,"Ġtechnical":12075,"ĠBASIS":12076,"}$)":12077,"visor":12078,"John":12079,"gies":12080,"RGB":12081,"wi":12082,"ĠMus":12083,"112":12084,"Unable":12085,"constraint":12086,"invoke":12087,"Why":12088,"Ġhappy":12089,"Bg":12090,"unately":12091,"ringtone":12092,"sym":12093,"bigl":12094,"LD":12095,"apy":12096,"Ġresponses":12097,"Ġgovern":12098,">';":12099,"gency":12100,"Ġmanage":12101,"ACCE":12102,"rie":12103,"[_":12104,"}>":12105,"Ġdep":12106,"Ġgrand":12107,"Br":12108,"Ġnotes":12109,"Ġphenomen":12110,"LINK":12111,"Ġbenefits":12112,"confirm":12113,"ĠJun":12114,"Special":12115,"ÑĪ":12116,"Ġapplies":12117,"dating":12118,"odb":12119,"ĠEcon":12120,"vironments":12121,"Parts":12122,"WARNING":12123,"Ġinteract":12124,"ĠCong":12125,"ĠAnn":12126,"Ġconvex":12127,"Aff":12128,"Ġmail":12129,"ĠLie":12130,"velope":12131,"ĠFurthermore":12132,"Ġshadow":12133,"Ġsatisfying":12134,"ĠCONDITIONS":12135,"IconError":12136,")>":12137,"bib":12138,"Bra":12139,"ĠNull":12140,"Ġwit":12141,"kw":12142,"ĠINT":12143,"icity":12144,"VT":12145,"ications":12146,"Registration":12147,"bone":12148,"hbox":12149,"Ġcancer":12150,"GP":12151,"Ġsuffer":12152,"LIB":12153,"ĠAbout":12154,"ĠFoot":12155,"ĠFormat":12156,"ĠSOFTWARE":12157,"HOST":12158,"prevent":12159,"ĠLi":12160,"Ġbusinesses":12161,"ione":12162,"Ġtot":12163,"Ġwat":12164,"charts":12165,"utorial":12166,"Ġguest":12167,"Ġpsy":12168,"Ġgather":12169,"anese":12170,"ssions":12171,"Ġconfirmed":12172,"Comb":12173,"NotFoundException":12174,"customer":12175,"Ġce":12176,"Ġevaluated":12177,"ExternalProject":12178,"Ġkm":12179,"smart":12180,"Ġreturning":12181,"azy":12182,"Css":12183,">:]<":12184,"ĠÂ»":12185,"sph":12186,"Ġrecon":12187,"AMETER":12188,"Ġacknow":12189,"yarn":12190,"ĠFlor":12191,"Ġchecking":12192,"Ġstress":12193,")&":12194,"uf":12195,"Ġmotiv":12196,"ĠInternet":12197,"Hook":12198,"ĠBoth":12199,"ĠRight":12200,"Actor":12201,"bigr":12202,"ĠEnable":12203,"Ġ$|\\":12204,"ĠIndian":12205,"Ġfarm":12206,"140":12207,"kins":12208,"ĠProv":12209,"Ġminor":12210,"Ġscales":12211,"116":12212,"UPDATE":12213,"Week":12214,"Hide":12215,"ctl":12216,"dients":12217,"Ġimportance":12218,"Ġrestore":12219,"Rec":12220,"Ġquarter":12221,"Ġcandidates":12222,"Cross":12223,"Adapt":12224,"Ġattach":12225,"APPLICATION":12226,"IconErrorEncoded":12227,"MAIN":12228,"GUI":12229,"LOB":12230,"Ġplanet":12231,"Ġplanning":12232,"Ġfresh":12233,"Ġdense":12234,"Ġvisibility":12235,"mong":12236,"Ġdjango":12237,"Heading":12238,"Ġpredictions":12239,"gray":12240,"Ġequality":12241,"Ġsubstant":12242,"Ġbeautiful":12243,"Ġthreads":12244,"enta":12245,"olog":12246,"'+":12247,"qual":12248,"arest":12249,"ĠUnion":12250,"icing":12251,"onto":12252,"Multiple":12253,"Times":12254,"rictions":12255,"rained":12256,"ĠDictionary":12257,"ĠPDF":12258,"anda":12259,"ĠSpace":12260,"istan":12261,"(\"-":12262,"ĠInstance":12263,"regular":12264,"ĠTransitional":12265,"Ġgun":12266,"ĠQString":12267,"ĠRock":12268,"preferred":12269,"Ġrecorded":12270,"EventArgs":12271,"ĠPrivate":12272,"105":12273,"Ġincorrect":12274,"ATURE":12275,"Ġ/.":12276,"ĠhashCode":12277,"sizing":12278,"shots":12279,"Ġcertainly":12280,"Hex":12281,"ĠBio":12282,"=\"//":12283,"isis":12284,"Threading":12285,"stein":12286,"screens":12287,"ĠChinese":12288,"Mount":12289,"ĠRespond":12290,"windows":12291,"Hidden":12292,"aled":12293,"Ġsolar":12294,"sktop":12295,"DEP":12296,";=":12297,"_-":12298,"++++":12299,"Ġtal":12300,"MAKE":12301,"Ġmm":12302,"Ġarrays":12303,"inverse":12304,"Ġpaid":12305,"PROPERT":12306,"Ġsustain":12307,"Ġrestart":12308,"partition":12309,"ancing":12310,"Ġmk":12311,"otic":12312,"Ġlemma":12313,"Ġphysics":12314,"Ġprivacy":12315,"()`":12316,"ĠOK":12317,"ĠOperation":12318,"letes":12319,"Modules":12320,"Low":12321,"ACTION":12322,"ĠHelp":12323,"Er":12324,"Ġevol":12325,"]-->":12326,"Äį":12327,"BYTE":12328,"ĠBrowser":12329,"ĠCare":12330,"ĠVk":12331,"determin":12332,"Elem":12333,"emy":12334,"Ġabort":12335,"Fire":12336,"ĠTur":12337,"readcrumb":12338,"-----":12339,"Ġcontinues":12340,"NamedCell":12341,"Î·":12342,"Ġguarante":12343,"plane":12344,"ĠSyntax":12345,"pf":12346,"missing":12347,"Strings":12348,"iced":12349,"Ġthinking":12350,"hern":12351,"vet":12352,"Ġdependent":12353,"Ġtrees":12354,"Å¾":12355,".&":12356,"Ġremark":12357,"Ġpindex":12358,"Ġmeant":12359,"ĠEner":12360,"Ġlab":12361,"Ġrelax":12362,"getText":12363,"ĠAUT":12364,"ĠWednesday":12365,"variables":12366,"seed":12367,"AK":12368,"Overflow":12369,"CV":12370,"ĠShort":12371,"Twig":12372,"ãģ®":12373,"***":12374,"itors":12375,"PACK":12376,"Ġseparated":12377,"ĠIsra":12378,"Ġrespond":12379,"parsed":12380,"ĠFrance":12381,"Ġrational":12382,"eno":12383,"Images":12384,"pref":12385,"tick":12386,"Ġbudget":12387,"ĠWho":12388,"}})":12389,"á»":12390,"Ġdiscrete":12391,"rather":12392,"Ġembedded":12393,"Ġvariation":12394,"Ã¨":12395,"Ġmanner":12396,"Ġwest":12397,"Ġcauses":12398,"modified":12399,"Deserial":12400,"MAC":12401,"ĠCommunity":12402,"ographic":12403,"ĠValidate":12404,"ĠPut":12405,"atable":12406,"Ġinstructions":12407,"rust":12408,"Foundation":12409,"otor":12410,"Ġmesh":12411,"ĠTool":12412,"Ġthanks":12413,"amous":12414,"icky":12415,"Ġexclude":12416,"indic":12417,"ĠIgn":12418,"sections":12419,"ĠDefinition":12420,"dimen":12421,"categories":12422,"Ġtele":12423,"Forward":12424,"Called":12425,"Ġemployees":12426,"ĠContainer":12427,"ĠArea":12428,"Ġpredicted":12429,"ĉĉĉĉĉĉĉĉĉĉĉĉ":12430,"ĠSymbol":12431,"144":12432,"iÃ³n":12433,"ifer":12434,"Ġeventually":12435,"Publish":12436,"dfrac":12437,"}{(":12438,"LED":12439,"enger":12440,"brace":12441,"Ñİ":12442,"ĠFire":12443,"Ġcarried":12444,"okes":12445,"Ġsensor":12446,"aph":12447,"Ctx":12448,"Ġrough":12449,"getKey":12450,"Ð¾ÑĤ":12451,"Ġcomm":12452,"uum":12453,"Ġstability":12454,"Ġwhereas":12455,"Ġcomputing":12456,"Ġapps":12457,"Horizontal":12458,"Decor":12459,"ĠStorage":12460,"Feed":12461,"Ġassignment":12462,"getProperty":12463,"Completed":12464,"ĠAli":12465,"Pl":12466,"Ġ'../":12467,"Ġdust":12468,"tokens":12469,"elm":12470,"tabEnd":12471,"Ġlos":12472,"ĠGal":12473,"cong":12474,"ĠLim":12475,"ITH":12476,"News":12477,"Â©":12478,"å¯":12479,"Ent":12480,"Ġdistingu":12481,"Ġposts":12482,"ĠVK":12483,")})":12484,"Ġcontinued":12485,"Ġartist":12486,"Ġcollected":12487,"FilterDatabase":12488,"channels":12489,"gc":12490,"Ġrecover":12491,"$:":12492,"ĠInstall":12493,"ĠTexas":12494,"Fi":12495,"Checker":12496,"ĠRetr":12497,"Ġfluctu":12498,">\";":12499,"Ġneural":12500,"undles":12501,"bitcoin":12502,"Ġconference":12503,"Ġ##":12504,"Ġbroken":12505,"umed":12506,"DIRECT":12507,"Ġapparent":12508,"datepicker":12509,"Appearance":12510,"Tube":12511,"ĠExpect":12512,"Ġorientation":12513,"ByName":12514,"fonts":12515,"Ġelim":12516,"lott":12517,"Ġzip":12518,"slot":12519,"Ø§Ø":12520,"Ġrepro":12521,"Inspect":12522,"sharp":12523,"TEXTURE":12524,"ĠGenerate":12525,"commands":12526,"NAMESPACE":12527,"ĠElect":12528,"TODO":12529,"Threshold":12530,"Ġpoll":12531,"å¼":12532,"Ġreality":12533,"Behavior":12534,"ĠFixed":12535,"ĠCondition":12536,"Ġexcell":12537,"SIGN":12538,"Ġwife":12539,"Ġcp":12540,"Ġcontrolled":12541,"Ġlisteners":12542,"ĉĉĉĉĉĊ":12543,"ĠCount":12544,".\";":12545,"Ġdump":12546,"ĠEm":12547,"Ġtransmission":12548,"ibration":12549,"slf":12550,"datab":12551,"ĠSchema":12552,"Coins":12553,"Ġconfidence":12554,"ĠAnalysis":12555,"Ġconfigurations":12556,"isArray":12557,"substr":12558,"take":12559,"ARK":12560,"Ġdied":12561,"ĠWord":12562,"Guid":12563,"Ġstatistical":12564,"formal":12565,"ĠSettings":12566,"Ġwarn":12567,"threads":12568,"unitPattern":12569,"ĉĠĠĠĠĠĠĠĠĠĠĠĠĠĠĠ":12570,"uniform":12571,"pal":12572,"Ġloader":12573,".$$":12574,"lists":12575,"Ġvariant":12576,"ĠSil":12577,"Ġexplore":12578,"DOCKED":12579,"sen":12580,"Ġgenerating":12581,"aux":12582,"Ġirre":12583,"ĠNum":12584,"Ġrepresentations":12585,"Ġguess":12586,"ĠFund":12587,"Ġ'{":12588,"Ġestimation":12589,"vp":12590,"Ġmur":12591,"reply":12592,"ĠNOTE":12593,"outhern":12594,"Ġidentical":12595,"carousel":12596,"don":12597,"åĽ":12598,"Ġ){":12599,"scribed":12600,"NEW":12601,"Ġblank":12602,"Ġdisp":12603,"Ġcommercial":12604,"$&":12605,"bio":12606,"Ġembedding":12607,"ĠAngeles":12608,"three":12609,"Ġzoom":12610,"ĠBound":12611,"LOAT":12612,"ãĥ¼":12613,"Cost":12614,"Ġdenoted":12615,"Black":12616,"Choice":12617,"multiple":12618,"Assignment":12619,"orizon":12620,"Unmar":12621,"sleep":12622,"Angle":12623,"numeric":12624,"Ġbaseline":12625,"Ġsociety":12626,"Excel":12627,"ĠAC":12628,"ARB":12629,"Ġdelivery":12630,"Ġderive":12631,"PTED":12632,"Sprintf":12633,"Ġregistry":12634,"asion":12635,"ĠDATA":12636,"]>":12637,"tb":12638,"implementation":12639,"locals":12640,"ems":12641,"zier":12642,"Ġskills":12643,"GT":12644,"yaml":12645,"templates":12646,"ĠCommission":12647,"ĠHill":12648,"Orient":12649,"Ġgone":12650,"istant":12651,"Ġinterpol":12652,"credential":12653,"ĠStructure":12654,"signal":12655,"ĠOUT":12656,"Ġregistration":12657,"Scheduler":12658,"ĠThursday":12659,"=.":12660,"Instances":12661,"ĠPosition":12662,"Ġsl":12663,"Ġentropy":12664,"Immutable":12665,"ĠDev":12666,"ÑĢÐ°Ð":12667,"accessor":12668,"ĠCF":12669,"Ġappearance":12670,"DELETE":12671,"FirstName":12672,"=\"<?":12673,"Force":12674,"Ġscr":12675,"LEVEL":12676,"amin":12677,"ĠJew":12678,"floor":12679,"Ġ^{":12680,"arity":12681,"Ġ\\(\\":12682,"iggs":12683,"ĠLand":12684,"ĠHE":12685,"insic":12686,"supp":12687,"Ġprotection":12688,"Ġneutr":12689,"Ð¹":12690,"Ġkill":12691,"ĠCommun":12692,"Ġcaller":12693,"Ġnuclear":12694,"NEL":12695,"descr":12696,"Ġdecode":12697,"ĠOnce":12698,"andidate":12699,"RENT":12700,"RS":12701,"ĠLou":12702,"Dispatcher":12703,"Ġchemical":12704,"Ġlambda":12705,"1997":12706,"Than":12707,"ĠCD":12708,"Ġtransp":12709,"ĠGeorge":12710,"($_":12711,"linkedExternalProject":12712,"Ġcc":12713,"Ġexpert":12714,"ĠBox":12715,"Ġbot":12716,"ä¸Ń":12717,"IBU":12718,"KEN":12719,"Ġalle":12720,"tan":12721,"Artifact":12722,"HPP":12723,"Ġum":12724,"wx":12725,"Inputs":12726,"ILED":12727,"ĠDraw":12728,"ÑĦ":12729,"Ġhalign":12730,"Ġrock":12731,"sap":12732,"ĠMary":12733,"emptyset":12734,"walk":12735,"ĠSave":12736,"Std":12737,"Ġfear":12738,"Ġsegments":12739,"linkedExternalProjectPath":12740,"Ġdriving":12741,"Ġmal":12742,"TagName":12743,",\\\\":12744,"Ġstrug":12745,"sid":12746,"hls":12747,"limin":12748,"Customer":12749,"lux":12750,"Small":12751,"balance":12752,"wave":12753,"orient":12754,"ĠThrow":12755,"Ġreads":12756,"5000":12757,"White":12758,"fieldset":12759,"Ġcollapse":12760,"ĠAP":12761,"Ã¢":12762,"review":12763,"snapshot":12764,"Every":12765,"LONG":12766,"MLE":12767,"ĠSite":12768,"itt":12769,"Linked":12770,"NOSCRIPT":12771,"riminal":12772,"Ġleaves":12773,"(\"<":12774,"Dot":12775,"TARGET":12776,"Ġcrow":12777,"Ġelli":12778,"ĠOTHER":12779,"Ġmission":12780,"Ġbed":12781,"inet":12782,"=\"./":12783,"ĠSuch":12784,"Ġagents":12785,"ĠIsland":12786,"memItem":12787,"LC":12788,"Sound":12789,"tables":12790,"]$.":12791,"Chat":12792,"\\}$.":12793,"swer":12794,"Ġdream":12795,"LastName":12796,"jobs":12797,"Ġnewly":12798,"Units":12799,"Ġdanger":12800,"Ġstores":12801,"Ġattacks":12802,"Da":12803,"Ã¥":12804,"ronic":12805,"Room":12806,"eller":12807,"========================================================================":12808,"Ġbal":12809,"Tech":12810,"Ġtend":12811,"ĠChristian":12812,"MPTY":12813,"Redirect":12814,"colors":12815,"ĠTrigger":12816,"Ġextremely":12817,"ĠIPv":12818,"Ġprincipal":12819,"Receiver":12820,"Ġcivil":12821,"city":12822,"))$":12823,"0100":12824,"Cour":12825,"ĠTests":12826,"uan":12827,"ĠSTR":12828,"Ġmyself":12829,"odes":12830,"Ġlt":12831,"ĠÃł":12832,"ĠĠĠĠĠĠĠĠĠĠĠĠĠĠĠĠĠĠĠĠĠĠĠĠĠĠĠĠĠĠĠĠĠĠĠĠĠĠĠĠĠĠ":12833,"Paint":12834,"irgin":12835,"ordinates":12836,"ĠLevel":12837,"wind":12838,"ĠCC":12839,"tcp":12840,"ENTER":12841,"fall":12842,"Ġdedic":12843,"Ġborn":12844,"}[\\":12845,"ĠRandom":12846,"Ġsignals":12847,"Ġexceptions":12848,"ĠFILE":12849,"ĠThomas":12850,"cas":12851,"utter":12852,"ĠHAL":12853,"ĠMulti":12854,"best":12855,"ĠClub":12856,"ĠScott":12857,"extends":12858,"ĠIll":12859,"Ġhandled":12860,"------":12861,"portfolio":12862,"dfs":12863,"Americ":12864,"sky":12865,"Ġ\"--":12866,"Ġplays":12867,"}}_{\\":12868,"Variables":12869,"cout":12870,"ĠBad":12871,"Ġknows":12872,"ĠManager":12873,"Ġconsult":12874,"ĠHost":12875,"reports":12876,"Construct":12877,"Ġformed":12878,"TV":12879,"WH":12880,"lad":12881,"Submit":12882,"Ġassumptions":12883,"lon":12884,"ĠTheir":12885,"abet":12886,"encrypt":12887,"Ġoil":12888,"Ġvoc":12889,"Ġinvoked":12890,"Ġ(!$":12891,"Ġaccounts":12892,"uke":12893,"Ġforced":12894,"Ġlumin":12895,"ĠEnergy":12896,"mysql":12897,"Revision":12898,"*.":12899,"ĠĠĠĠĠĠĠĠĠĠĠĠĠĠĠĠĠĠĠĠĠĠĠĠĠĠĠĠĠĠĠĠĠĠĠĠĠĠĠĠĠĠĠĠĠĠĠĠĠĠĠĠĠĠĠ":12900,"ĠHuman":12901,"cean":12902,"igible":12903,"ĠSwitch":12904,"cam":12905,"Ġvalu":12906,"IDENT":12907,"orientation":12908,"()]":12909,"boss":12910,"ĠTemplate":12911,"Ġmanip":12912,"ĠFloat":12913,">$":12914,"lined":12915,"Clip":12916,"tz":12917,"Ġorig":12918,"ĠWin":12919,"Ġadapter":12920,"æī":12921,"reatest":12922,"CLU":12923,"Live":12924,"perimental":12925,"âĶĢâĶĢ":12926,"ras":12927,"GetString":12928,"Ġadult":12929,"itative":12930,"Ġeconomy":12931,"Predicate":12932,"ROW":12933,"vect":12934,"oma":12935,"antics":12936,"Ġincor":12937,"Ġtalking":12938,"ĠLeague":12939,"Phase":12940,"Province":12941,"Ġsuggested":12942,"carbon":12943,"Ġflush":12944,"AE":12945,"DOWN":12946,"classpath":12947,"ĠDefine":12948,"ĠQuest":12949,"Sink":12950,"cussion":12951,"peer":12952,"Ġbill":12953,"Ġinitialization":12954,"iry":12955,"ĠDest":12956,"Ġpreferred":12957,"aises":12958,"ĠTransaction":12959,"Ġelectro":12960,"Sing":12961,"ÐµÐ½Ð¸":12962,"Ġsch":12963,"door":12964,"poration":12965,"Autom":12966,"Ġ[#":12967,"Another":12968,"fla":12969,"tfrac":12970,"Ġacts":12971,"ogen":12972,"]];":12973,"ĠEN":12974,"typeparam":12975,"Ġextent":12976,"FORE":12977,"Ġinherited":12978,"Ġ$(\"#":12979,"ACHE":12980,"ushed":12981,"Filters":12982,"gmail":12983,"Ġweather":12984,"playback":12985,"Ġarrange":12986,"Ġsuggests":12987,"Catalog":12988,"Ġsequ":12989,"ĠXml":12990,"Oc":12991,"thern":12992,"Ġinvestment":12993,"Pin":12994,"Ġcircum":12995,"Ġopportunities":12996,"EXTERN":12997,"ĠDescribe":12998,"Ġperspective":12999,"gh":13000,"JsonProperty":13001,"ĠIts":13002,"ĠCOLSPAN":13003,"Ġ}));":13004,"ĠVAR":13005,"/******/":13006,"Ġ(<":13007,"IBUTE":13008,"Ġderivative":13009,"Ġincrement":13010,"sound":13011,"Ġbelongs":13012,"Serializable":13013,"screensaver":13014,"Gr":13015,"scheme":13016,"Shift":13017,"actic":13018,"Ġdeclaration":13019,"catalog":13020,"geom":13021,"Mr":13022,"listing":13023,"Ġsig":13024,"Creation":13025,"ĠDocker":13026,"ĠGreat":13027,"STRE":13028,"Ġtemporary":13029,"Ġsentence":13030,"Ġadmit":13031,"Ġspend":13032,"TypeName":13033,"RM":13034,"ĠMust":13035,"\\;":13036,"uls":13037,"Ġhospital":13038,"Ġprepar":13039,"DependencyInjection":13040,"distribution":13041,"interpret":13042,"ships":13043,"]$,":13044,"Permissions":13045,"Ġpossibility":13046,")?":13047,"Ġcharacteristic":13048,"Ġnecessarily":13049,"Ġtrim":13050,"wers":13051,"wallpaper":13052,"ĠÑĤ":13053,"dag":13054,"ĠGermany":13055,"ĠRobert":13056,"}\\,\\":13057,"restore":13058,"Ġple":13059,"avatar":13060,">-":13061,"xff":13062,"(\"[":13063,"×Ķ":13064,"unct":13065,"Ġjoined":13066,"Ġrestaur":13067,"ĠFa":13068,"Ġprinciple":13069,"Ġglyph":13070,"exceptions":13071,"Unlock":13072,"Ġspecifies":13073,"Ġparsing":13074,"ĠBill":13075,"ulating":13076,"Vertical":13077,".[":13078,"ĠHand":13079,"Launch":13080,"yml":13081,"Ġbon":13082,"Deep":13083,"^*$":13084,"animate":13085,"(@\"":13086,"104":13087,"Pages":13088,"ĠInstead":13089,"(\",":13090,"ĠQt":13091,"ĠConnect":13092,"Partial":13093,"izard":13094,"Ġtracking":13095,"Ġstrategies":13096,"Ġtrivial":13097,"Ġsports":13098,"trivial":13099,"absolute":13100,"azine":13101,"goal":13102,"arith":13103,"Ġleaving":13104,"ĠAdv":13105,"hal":13106,"getElements":13107,"Ġbackend":13108,"INGS":13109,"ĠFamily":13110,"Ġkilled":13111,"Complex":13112,"activate":13113,"Logging":13114,"Added":13115,"ĠVariable":13116,"Ġha":13117,"ĠNa":13118,"virt":13119,"ĠNothing":13120,"PIO":13121,"Ġrecovery":13122,"Ġpermit":13123,"\">{":13124,"Ġhex":13125,")'":13126,"launch":13127,"herent":13128,"kers":13129,"lia":13130,"ĠLock":13131,"Ġrendered":13132,"ĠOk":13133,"Ġwww":13134,"laps":13135,"Related":13136,"Ġrelying":13137,"Ġpal":13138,"Ġwarm":13139,"erry":13140,"forge":13141,"ĠPen":13142,"1996":13143,"aylor":13144,"Ġfunctionality":13145,"ĠERROR":13146,"sch":13147,"DIF":13148,"×ª":13149,"ensors":13150,"azel":13151,"illage":13152,"payment":13153,"Ġrobot":13154,"ĠWatch":13155,"Ġles":13156,"Invoke":13157,"{})":13158,"Ġsubsequent":13159,"Capacity":13160,"ĠAppendix":13161,"getData":13162,"UNK":13163,"Ġarticles":13164,"Ġspecifically":13165,"Ġencryption":13166,"BM":13167,"mazing":13168,"promise":13169,"half":13170,"--;":13171,"Ġmoments":13172,"Ġroles":13173,"Ġtracks":13174,"Ġ}.":13175,"ĠCast":13176,"verbose":13177,"Commands":13178,"was":13179,"Ġfederal":13180,"getCurrent":13181,"^^^^":13182,"ĠErr":13183,"Ġgravity":13184,"Ġsea":13185,"Posted":13186,"Ġalignment":13187,"isa":13188,"Ġadvance":13189,"istance":13190,"CharacterOffset":13191,"ĠSTAT":13192,"Cert":13193,"arden":13194,"Ġcurl":13195,"ĠFeb":13196,"Ġ-&":13197,"ĠAzure":13198,"ç½":13199,"Ġlies":13200,"Ġur":13201,"learning":13202,"Ġperforming":13203,"SuppressWarnings":13204,"ĠSC":13205,"Bag":13206,"many":13207,"ĠSecret":13208,"Ú©":13209,"Ġbos":13210,"ĠMobile":13211,"navBar":13212,"innerHTML":13213,"ĠButton":13214,"Ġbrain":13215,"ĠBrown":13216,"Ġcs":13217,"Large":13218,"verb":13219,"getDefault":13220,"Ġfeet":13221,"ĠPeter":13222,"ĠValueError":13223,"ynchronous":13224,"fw":13225,"acion":13226,"114":13227,"ĠPlace":13228,"ĠFi":13229,"Ġtwice":13230,"Ġminute":13231,"Ġwhatever":13232,"Ġids":13233,"Ġoutline":13234,"Ui":13235,"Ġdip":13236,"Ġfunds":13237,"compress":13238,"spaces":13239,"Ġobserver":13240,"Collector":13241,"Ġnorth":13242,"bmatrix":13243,"fee":13244,"Ġprofiles":13245,"heta":13246,"ivot":13247,"Ġdiagonal":13248,"ACCEPTED":13249,"ĠCP":13250,"Ġnamely":13251,"stringify":13252,"Attachment":13253,"agin":13254,"Hint":13255,"ceil":13256,"MSearch":13257,"mg":13258,"managed":13259,"works":13260,"Ġradiation":13261,"Processing":13262,"getTime":13263,"mel":13264,"ä¸Ģ":13265,"javase":13266,"Branch":13267,"IsNull":13268,"ĠRange":13269,"rott":13270,"Ġsky":13271,"failure":13272,"/%":13273,"ĠWhere":13274,"BrowserDetector":13275,"vements":13276,"Ġeval":13277,"Î»":13278,"inergi":13279,"Ġseeing":13280,"EventHandler":13281,"ucial":13282,"persistence":13283,"compact":13284,"Ġdrink":13285,"Ġadvanced":13286,"Front":13287,"Statistics":13288,"interaction":13289,"Ġfloating":13290,"Ġpref":13291,"Ġlic":13292,"Ġbran":13293,"Ġassets":13294,"ĠScript":13295,"[])":13296,"Ġvo":13297,"cg":13298,"icago":13299,"Ġlanguages":13300,"Ġdamage":13301,"Ġoffered":13302,"æĸĩ":13303,"peg":13304,"without":13305,"ĠGeneric":13306,"Ġprepared":13307,"ĠTab":13308,"Ġlocalized":13309,"Ġaudience":13310,"usted":13311,"analy":13312,"Av":13313,"ĠWH":13314,"VIS":13315,"Ġwrapped":13316,"Ġì":13317,"Ġfluid":13318,"ĠOnline":13319,"}`":13320,"ASC":13321,"Ġintensity":13322,"Ġinvestigate":13323,"Ġsufficiently":13324,"ĠConsider":13325,"Manifest":13326,"ĠFlorida":13327,"ĠForce":13328,"Ġpotentially":13329,"Ġinterrupt":13330,"åº":13331,"Ġentities":13332,"HAL":13333,"Ġlogical":13334,"hp":13335,"cesses":13336,"TIM":13337,"iota":13338,"deploy":13339,"ĠOpt":13340,"Ġepoch":13341,"Ġspeech":13342,"ĠPan":13343,"ĠLike":13344,"ĠParty":13345,"Clause":13346,"\")));":13347,"Sender":13348,"Ġaim":13349,"Ġmoves":13350,"ĠPC":13351,"Ġsides":13352,"parallel":13353,"phony":13354,"Ġfla":13355,"ociated":13356,"Throws":13357,"changes":13358,"stdout":13359,"Ġvideos":13360,"Ġrestriction":13361,"ĠStep":13362,"ĠCarol":13363,"ĠĠĉ":13364,"ĠStop":13365,"ĠSociety":13366,"Coord":13367,"Ġdeclared":13368,"Ġintegers":13369,"ĠAsync":13370,"DEVICE":13371,"neg":13372,"Ġopposite":13373,"DER":13374,"lision":13375,"Ti":13376,"}}.":13377,"ĠFood":13378,"reject":13379,"ĠApi":13380,"Ġdeployment":13381,"ĠMenu":13382,"Ġindicated":13383,"FH":13384,"reek":13385,"Ġ{})":13386,"era":13387,"ĠPAR":13388,"ati":13389,"[];":13390,"ĠÐ·":13391,"sequently":13392,"AIN":13393,"Ġfavorite":13394,"Ġbiggest":13395,"Ġkeeping":13396,"ĠCWE":13397,"ĠĠĠĠĠĠĠĠĠĠĠĠĠĠĠĠĠĠĠĠĠĠĠĠĠĠĠĠĠĠĠĠĠĠĠĠĠĠĠĠĠĠĠĠ":13398,"Ġsensitive":13399,"ador":13400,"Consider":13401,"ĠDistrict":13402,"Ġ/**<":13403,"Ġfunding":13404,"Ġ!!":13405,"})}":13406,"Signal":13407,"subtitle":13408,"leaf":13409,"Ġspecification":13410,"Ġsurround":13411,"ulner":13412,"Ġjet":13413,"outube":13414,"wso":13415,"Ġtbody":13416,"Ġscores":13417,"defineProperty":13418,"ĠEC":13419,"ĠME":13420,"quick":13421,"uiltin":13422,"Ġequilibrium":13423,"PARAMETER":13424,"Keyboard":13425,"CCCC":13426,"Indices":13427,"Ġorth":13428,"Ġalter":13429,"Lemma":13430,"optim":13431,"%.":13432,"Ð¾Ð¼":13433,"Nil":13434,"unte":13435,">(\"":13436,"ĠIndeed":13437,"ĠCentral":13438,"æĺ¯":13439,"Ġaf":13440,"Ġcharged":13441,"ĠClose":13442,"IMAGE":13443,"Persistent":13444,"Ġstopped":13445,"Ġhardware":13446,"ool":13447,"ĠIdent":13448,"Ġptr":13449,"Ġarc":13450,"antly":13451,"eral":13452,"ĠLayout":13453,"kubernetes":13454,"ĠCentre":13455,"ĠMany":13456,"Ġvariance":13457,"Ġskin":13458,"versal":13459,"\">Â":13460,"ĠChristmas":13461,"Ġfashion":13462,"('../":13463,"vee":13464,"Routing":13465,"ĠAcade":13466,"ĠContact":13467,"Defaults":13468,"also":13469,"vature":13470,"swap":13471,"machine":13472,"existing":13473,"ĠCancel":13474,"yc":13475,"erature":13476,"izz":13477,"Ġindust":13478,"Ġpseudo":13479,"arb":13480,"beled":13481,"Ġlowest":13482,"Ġfourth":13483,"Ġprefer":13484,"owl":13485,"ĠĠĠĠĠĠĠĠĠĠĠĠĠĠĊ":13486,"ĠMad":13487,"pied":13488,"hot":13489,"ĠCommittee":13490,"ĠReset":13491,"240":13492,"pires":13493,"ReadOnly":13494,"åĮ":13495,"USED":13496,"Ġdf":13497,"calc":13498,"hour":13499,"lua":13500,"scriptsize":13501,"Compute":13502,"Ġcoinc":13503,"legend":13504,"Most":13505,"Ġblob":13506,"NP":13507,"LinearLayout":13508,"InstanceOf":13509,"capture":13510,"ĠRest":13511,"ĠRiver":13512,"Ġplugins":13513,"navBarCell":13514,"photo":13515,"Ġtoggle":13516,"ĠPlugin":13517,".(":13518,"Foreign":13519,"ĠFR":13520,"ĠJapan":13521,"constants":13522,"slug":13523,"Ġneighborhood":13524,"Img":13525,"ein":13526,"ictor":13527,"Highlight":13528,")',":13529,"Star":13530,"Ġsuffix":13531,"Clone":13532,"ĠMartin":13533,"107":13534,"ĠKore":13535,"Ġemphas":13536,"Ġactor":13537,"athan":13538,"ocused":13539,"Ġargv":13540,"ĠAfrican":13541,"Encode":13542,"Ġhandlers":13543,"ĠGLint":13544,"CAP":13545,"POINT":13546,"ĠMex":13547,"ĠAff":13548,"Ġrenderer":13549,"115":13550,"iggers":13551,"coup":13552,"Ġvot":13553,"Btn":13554,"NOTE":13555,"LEFT":13556,"Expand":13557,"transfer":13558,"Ġranges":13559,"hint":13560,"Ġslide":13561,"References":13562,"Debugger":13563,"Ġparties":13564,"mutation":13565,"ĠMemory":13566,"Well":13567,"Ġinfe":13568,"LF":13569,"Ġrig":13570,"town":13571,"Multip":13572,"Ġserialized":13573,"nio":13574,"ĠEU":13575,"ĠAudio":13576,"ossible":13577,"Ġmainly":13578,"}}}\\":13579,"BlockIndex":13580,"Ġtells":13581,"charset":13582,"Notify":13583,"Ġ[])":13584,"Until":13585,"ĠUTC":13586,"Ġenhance":13587,"Ġwhenever":13588,"Ġbrows":13589,"Ġdevelopers":13590,"jsp":13591,"ĠFeature":13592,"quid":13593,"ĠLive":13594,"ĠIMP":13595,"ĠWay":13596,"Ġprecisely":13597,"saved":13598,"Ġreasonable":13599,"Ġcomfort":13600,"coins":13601,"$_{":13602,"Ġposted":13603,"Newton":13604,"perform":13605,"ĠWal":13606,"Ġupgrade":13607,"chant":13608,"wb":13609,"weather":13610,"IFT":13611,"Fit":13612,"Traits":13613,"ĠArgs":13614,"Ġsimult":13615,"physical":13616,"Ġassuming":13617,"Ġsparse":13618,"itan":13619,"Also":13620,"Ġinvestigation":13621,"ĠĠĠĠĉ":13622,"Ġbul":13623,"ASK":13624,"ystal":13625,"Ġguy":13626,"PK":13627,"Ġsi":13628,"servative":13629,"Ġatmo":13630,"Combo":13631,"Ġmach":13632,"leet":13633,"onomy":13634,"dummy":13635,"uction":13636,"resolved":13637,"[],":13638,"FIN":13639,"Ġhelped":13640,"avelength":13641,"ĠPack":13642,"Ġwindows":13643,"ORE":13644,"scalar":13645,"Ġcred":13646,"ĠJose":13647,"ĠMuseum":13648,"figures":13649,"ĠDoes":13650,"copyright":13651,"Ġcubic":13652,"Ð¾Ð±":13653,"oved":13654,"Ġfinds":13655,"Ġ!(":13656,"ubb":13657,"Ġpet":13658,"units":13659,"ĠProb":13660,"ulus":13661,"Unexpected":13662,"Emitter":13663,"Ġartifact":13664,"Void":13665,"ĠLight":13666,"analytics":13667,",{\\":13668,"ĠCEO":13669,"UC":13670,"Ġinform":13671,"'}),":13672,"Ġfd":13673,"Ġguid":13674,"cid":13675,"Toolbar":13676,"ĠObservable":13677,"training":13678,"\\}$,":13679,"ĠMur":13680,"OPEN":13681,"Ġconsum":13682,"ĠBre":13683,"CLIENT":13684,"density":13685,"/$":13686,"guard":13687,"\\|\\":13688,"problem":13689,"intent":13690,"OperationException":13691,"ĠBob":13692,"backslash":13693,"Ġmapped":13694,"HttpRequest":13695,"Typed":13696,"]{\\":13697,"Ġgravit":13698,"Ġhandles":13699,"tol":13700,"Into":13701,"hemat":13702,"ĠLIC":13703,"LEN":13704,"Absolute":13705,"flash":13706,"FD":13707,"->{":13708,"Ġannual":13709,"Ġwood":13710,"evt":13711,"Ġ{?":13712,")}_":13713,"NUMBER":13714,"Decode":13715,"Ġmaximal":13716,"dater":13717,"333":13718,"interfaces":13719,"))\\":13720,"addon":13721,"Ġnonlinear":13722,"dv":13723,"Ġhaven":13724,"ashboard":13725,"Ġseek":13726,"Ġvision":13727,"Ġeast":13728,"Ġcold":13729,"supports":13730,"Ġ\\]":13731,"Ġfixture":13732,"Ġdistrict":13733,"setValue":13734,"Ġburn":13735,"ĠBur":13736,"Ġferm":13737,"spot":13738,"Ġleaf":13739,"dem":13740,"confirmed":13741,"neutral":13742,"Ġachie":13743,"Orientation":13744,"micro":13745,"Ġaspects":13746,"Ġgenerates":13747,"Ġmacro":13748,"Ġcallbacks":13749,"UMENT":13750,"Ġ\":":13751,":@":13752,"XMLSchema":13753,"into":13754,"Ġlabor":13755,"multirow":13756,"Further":13757,"Python":13758,"Resolve":13759,"nr":13760,"Cent":13761,"Ġeffectively":13762,"Ġscoped":13763,"ĠsetUp":13764,"Shell":13765,"Ġsouth":13766,"footnotes":13767,"Ġseq":13768,"mesh":13769,"slant":13770,"Exchange":13771,"Initialized":13772,"ĠFA":13773,"103":13774,"ĠLag":13775,"ĠYes":13776,"Ġreplacement":13777,"Ġrelationships":13778,"\">'":13779,"Ġbuttons":13780,"Ġtrunc":13781,"duces":13782,"ĠCS":13783,"Ġdeveloping":13784,"BOO":13785,"Deployment":13786,"Middle":13787,"printStackTrace":13788,"ĠEvents":13789,"Ġful":13790,"Ġpropose":13791,"hibernate":13792,"listen":13793,"}_{-":13794,"xr":13795,"Ġpercentage":13796,"Ġofficials":13797,"Ġtopology":13798,"ĠÃ©":13799,"Records":13800,"ĠLinked":13801,"ĠAng":13802,"rans":13803,"Thumb":13804,"ĠCard":13805,"Review":13806,"Ġmp":13807,"Ġroutes":13808,"Jan":13809,"Ġjourney":13810,"[[":13811,"ĠMedical":13812,"Ġsuite":13813,"Initialize":13814,"}}</":13815,"Matches":13816,"Ġ(@":13817,"Swift":13818,"Ġended":13819,"Ġreaction":13820,"Ġcalc":13821,"Ġwouldn":13822,"ums":13823,"Ġsharing":13824,"Ġaccessible":13825,"AWS":13826,"enario":13827,"SDL":13828,"urance":13829,"ĠSem":13830,"secure":13831,"States":13832,"Recorded":13833,"blockquote":13834,"DAT":13835,"*>":13836,"ĠDocumentation":13837,"including":13838,"curr":13839,"vartheta":13840,"orse":13841,"ĠSequ":13842,"ivo":13843,"NOWN":13844,"amond":13845,"lix":13846,"Permalink":13847,"hyper":13848,"health":13849,"ĠSDK":13850,"Conversion":13851,"esture":13852,"Ġserved":13853,"Ġentirely":13854,"Ġatomic":13855,"Smart":13856,"ĠWait":13857,"Fee":13858,"ĠVan":13859,"STATIC":13860,"rounded":13861,"Exist":13862,"ĠMS":13863,"mapper":13864,"ĠMass":13865,"stroke":13866,"Ġmedic":13867,"Ġabund":13868,"information":13869,"monitor":13870,"=}":13871,"getLogger":13872,"riage":13873,"ĠValues":13874,"aka":13875,"CKET":13876,"Ġbreaking":13877,"cades":13878,"Ġgoals":13879,"Ġordering":13880,">#":13881,"567":13882,"Managed":13883,"ĠTw":13884,"getElementsBy":13885,"outline":13886,"RETURN":13887,"Ġslo":13888,"heap":13889,"NER":13890,"ĠYoung":13891,"Good":13892,"ĠFrank":13893,"finish":13894,"Ġtheories":13895,"encil":13896,"ĠCatalog":13897,"hill":13898,"00000":13899,"adapt":13900,"Ġlaunched":13901,"uffle":13902,"fortunately":13903,"ImageView":13904,"locked":13905,"Locator":13906,"1995":13907,"pts":13908,"Ġintegrated":13909,"qq":13910,"Ġclinical":13911,"Ġintermediate":13912,"Pres":13913,"Ġequipment":13914,"preventDefault":13915,"tm":13916,"uz":13917,"éĩ":13918,"MAG":13919,"ĠMC":13920,"æİ":13921,">',":13922,"Ġ}{":13923,"ĠOh":13924,"Ġopam":13925,"=\"{":13926,"ĠHRESULT":13927,"Ġinitially":13928,"ÐŁ":13929,"Ġappeared":13930,"Ġlegacy":13931,"Ġrevealed":13932,"Ġyes":13933,"Ġappoint":13934,"angles":13935,"Ġimprovement":13936,"Ġdetector":13937,"Ġdefining":13938,"UserAgent":13939,"999":13940,"COPY":13941,"ratio":13942,"ĠWater":13943,"Ġpot":13944,"ĠTerm":13945,"Recogn":13946,"ĠÐ¿ÑĢ":13947,"ĠLocation":13948,"Ġfish":13949,"divider":13950,"Ġdy":13951,"Ġfootball":13952,"columnwidth":13953,"Ġscripts":13954,"thesis":13955,"CONNECT":13956,"Zend":13957,"UTE":13958,"documentation":13959,"\">\"":13960,"Links":13961,"Ġ\"\");":13962,"anc":13963,"Ġspher":13964,"catDesc":13965,"Ġdashed":13966,"Ġstrip":13967,"cores":13968,"Ġcompetition":13969,"Ð°Ð»":13970,"xt":13971,"(<":13972,"gravity":13973,"IDs":13974,"ugment":13975,"Ġcloser":13976,"acl":13977,"ĠLove":13978,"Allocator":13979,"aped":13980,"ĠBet":13981,"altern":13982,"isson":13983,"pick":13984,"ĠFI":13985,"ĠRule":13986,"Ġoffering":13987,"Ġincident":13988,"Ġcentre":13989,"ĠMinister":13990,"CONST":13991,"Ġcitiz":13992,"assertFalse":13993,"atre":13994,"nic":13995,"QUE":13996,"textcolor":13997,"ĠVM":13998,"ĠGR":13999,"lored":14000,"<>(":14001,"1990":14002,"Ġparticipants":14003,"Ġintersection":14004,"ĠTransform":14005,"scriptstyle":14006,"Ġcounts":14007,"Ġplatforms":14008,"ĠparseInt":14009,"ifecycle":14010,"Ġholding":14011,"Ġdoll":14012,"Ġimmediate":14013,"Ġopinion":14014,"ĠClo":14015,"Disable":14016,"recv":14017,"Ġassociation":14018,"alley":14019,"Ġdrawn":14020,"Ġscheduled":14021,"ĠOld":14022,"|}{":14023,"Ġutility":14024,"Ġtruly":14025,"zing":14026,"ĠCPU":14027,"GG":14028,"ĠNY":14029,"Ġdiver":14030,"rena":14031,"Ġcompilation":14032,"Ġexcited":14033,"Recent":14034,"Fast":14035,"Ġisset":14036,"ĠMel":14037,"ĠReserved":14038,"SYS":14039,"Ġarrow":14040,"Ġallocation":14041,"ĠMedic":14042,"Ġswe":14043,"According":14044,"')).":14045,"STEM":14046,"levision":14047,"Ġpredicate":14048,"æį":14049,"ĠWomen":14050,"mis":14051,"ituency":14052,"Li":14053,"nam":14054,"utation":14055,"Ġdiscrimin":14056,"xf":14057,"Pad":14058,"Ġpieces":14059,"Composite":14060,"unstable":14061,"Ġrendering":14062,"Getter":14063,"ĠLinux":14064,"tun":14065,"Ġcomputational":14066,"ĠPA":14067,"Amazon":14068,"\">@":14069,"uing":14070,"Ġvirus":14071,"Emp":14072,"Ġtight":14073,"Ġ<![":14074,"Lang":14075,"Adv":14076,"rotate":14077,"ĠNative":14078,"Ġextracted":14079,"Ġbid":14080,"Ġ*_":14081,"ĠLICENSE":14082,"Ġincoming":14083,"notag":14084,"perts":14085,"Ġcorrection":14086,"ĠJoe":14087,"major":14088,"Cached":14089,"RG":14090,"æł":14091,"Ġreflection":14092,"ĠCollections":14093,"ymmetry":14094,"Such":14095,"Ġwrites":14096,"Ġmist":14097,"ä»¶":14098,"ĠJack":14099,"ACCESS":14100,"Ġtip":14101,"Ġexcellent":14102,"Ġnarrow":14103,"Clock":14104,"NU":14105,"=</":14106,"Attach":14107,"Ġinstanti":14108,"Ġunable":14109,"Ġenables":14110,"PROTO":14111,"ĠWilliam":14112,"'><":14113,"Ġbackup":14114,"Ġconcerns":14115,"agation":14116,"Ġsupporting":14117,"Ġfuel":14118,"tage":14119,"ĠcancellationToken":14120,"Ġbattle":14121,")\";":14122,"aneously":14123,"HEADER":14124,"Ġgranted":14125,"Preferences":14126,"bid":14127,"(((":14128,"Views":14129,"ĠDuring":14130,"Ġdtype":14131,"ĠInvest":14132,"Encrypt":14133,"Arn":14134,"Protos":14135,"Pal":14136,"ĠPlatform":14137,"duate":14138,"Ġscenarios":14139,"Ġorganizations":14140,"driv":14141,"gulp":14142,"omorphic":14143,"enticated":14144,"orest":14145,"ĠFIX":14146,"Ġgeneralized":14147,"Ġgirl":14148,"alancer":14149,"(\"\")]":14150,"Ġpeace":14151,"Ġmanifold":14152,"ĉĠĠĠĠĠĠĠĠĠ":14153,";\\;\\":14154,"Resize":14155,"temporary":14156,"Ġfre":14157,"jboss":14158,"ĠHa":14159,"ĠinitWith":14160,"ĠRT":14161,"Ġrecipient":14162,"Ġacade":14163,"Ġrejected":14164,"caps":14165,"Ġincome":14166,"ĠCell":14167,"Ġconcat":14168,"Ġdemonstrate":14169,"Ġadres":14170,"Ġdra":14171,"'</":14172,"gap":14173,"ViewById":14174,"Ġstartup":14175,"Ġputs":14176,"Ïħ":14177,"orphic":14178,";&#":14179,"ĠAustralian":14180,"Ġreferred":14181,"ĠCL":14182,"Ġsongs":14183,"\"+":14184,"GetType":14185,"Ġcarbon":14186,"ADDR":14187,"Ġinstallation":14188,"Extended":14189,"EQUAL":14190,"Throwable":14191,"ĠREAD":14192,"Ġannounce":14193,"Ġlie":14194,"ktop":14195,"ĠÐ±":14196,"220":14197,"Ġapproximate":14198,"Rpc":14199,"Ġpor":14200,"Ġcolour":14201,"jacent":14202,"ĠEp":14203,"TRACE":14204,"requests":14205,"Ġsett":14206,"})^":14207,"Ġ\"</":14208,"plain":14209,"stood":14210,"})=":14211,"Ġbands":14212,"ĠSort":14213,"ĠLee":14214,"compatible":14215,"**:":14216,"Tokens":14217,"='#":14218,"HD":14219,"orig":14220,"lah":14221,"Ġcontribute":14222,"fm":14223,"Ġprem":14224,"}}^{\\":14225,"][<":14226,"Ġelimin":14227,"oauth":14228,"abbr":14229,"ONLY":14230,"ĠKo":14231,"ogonal":14232,")){":14233,"\"=>":14234,"wire":14235,"ionic":14236,"medskip":14237,"THE":14238,"dashboard":14239,"Ġphoton":14240,"does":14241,"ĠBOOL":14242,"]));":14243,"ByteArray":14244,"iem":14245,"widgets":14246,"Ġallocated":14247,"Ġaccesskey":14248,"SCRIPTION":14249,"ä¸ª":14250,"dtype":14251,"Ġearth":14252,"Observable":14253,"Ã§Ã£o":14254,"ersions":14255,"Implementation":14256,"Ġbegins":14257,"Ġinternet":14258,"ousing":14259,"Ġcharacteristics":14260,"backup":14261,"kl":14262,"Ġenvironmental":14263,"Ġdedicated":14264,"(%":14265,"oph":14266,"$};":14267,"Ġexposed":14268,"Fac":14269,"nm":14270,"Ġpractical":14271,"Ġsupposed":14272,"=\"../..":14273,"AW":14274,"agers":14275,"ĠMaster":14276,"Issue":14277,"UTC":14278,"vable":14279,"ensities":14280,"bx":14281,"ptic":14282,"asket":14283,"ĠMarket":14284,"}|\\":14285,"-----------":14286,"}~":14287,"ĠRect":14288,"('\\":14289,"Ġpt":14290,"dependence":14291,"dings":14292,"ĠBitcoin":14293,"ĠFollow":14294,"CONF":14295,"Ġcle":14296,"gallery":14297,"ifiable":14298,"choice":14299,"Ġdaughter":14300,"separ":14301,"apon":14302,")}.":14303,"given":14304,"Bin":14305,"Through":14306,"ĠRa":14307,"Ġadvice":14308,"ĠResources":14309,",\\,\\":14310,"ĠRichard":14311,"900":14312,"ÐµÐ´":14313,"Ġlin":14314,"syntax":14315,"Patch":14316,"Sys":14317,"Ġstandards":14318,"ĠSat":14319,"Directive":14320,"Ġdirections":14321,"Ġdiffer":14322,"Ġdirective":14323,"Ġterminal":14324,"ection":14325,"Ġenergies":14326,"Ġstroke":14327,"isl":14328,"Ġkeyword":14329,"Ġessentially":14330,"ĠWallet":14331,"ĠBlog":14332,"Ġservers":14333,"iq":14334,"tikzpicture":14335,"allest":14336,"ä¿":14337,"Ġ\"{":14338,"Ġrid":14339,"Ġice":14340,"rick":14341,"ĠCongress":14342,"TON":14343,"vy":14344,"ORMAL":14345,"FW":14346,"third":14347,"Ġsuppose":14348,"Criteria":14349,"aside":14350,"lacing":14351,"Cho":14352,"ĠCook":14353,"ITER":14354,"entities":14355,"san":14356,"Ġaware":14357,"Ġcond":14358,"bounded":14359,"Paired":14360,"spher":14361,"Ġfemale":14362,"--------------":14363,"FAILED":14364,"Ġrequirement":14365,"ĠSql":14366,"Ġreporting":14367,"Ġdecide":14368,"124":14369,"swift":14370,"169":14371,"ĠArts":14372,"Ġpc":14373,"Ġhero":14374,"ĠCompute":14375,"Finder":14376,"ĠCategory":14377,"Docs":14378,"//!":14379,"Supplier":14380,"ĠFrancis":14381,"boun":14382,"longrightarrow":14383,"beat":14384,"footnotesize":14385,"Ġthousands":14386,"maker":14387,"ILL":14388,"forcement":14389,"ido":14390,"3000":14391,"Preference":14392,"Ġbag":14393,"Ġoverview":14394,"PROPERTY":14395,"Handlers":14396,"Ġcrisis":14397,"pes":14398,"utely":14399,"INLINE":14400,"Ġris":14401,"ĠRuntimeException":14402,"\\}\\":14403,"ĠSU":14404,"ĠAdds":14405,"OC":14406,"bash":14407,"INPUT":14408,"Ġflash":14409,"particle":14410,"magnetic":14411,"Ġmiles":14412,"unused":14413,"Ġtemplates":14414,"serif":14415,"getContext":14416,"coverage":14417,"lating":14418,"Droid":14419,"]\",":14420,"Ġ({":14421,"Ġbeat":14422,"transparent":14423,"Ġdiscovered":14424,"Phaser":14425,"Ve":14426,"vt":14427,"'''":14428,"Ġmotor":14429,"igrations":14430,"openapi":14431,"Sprite":14432,"Ġstreet":14433,"ĠMaterial":14434,"Ġ//!":14435,"Arrow":14436,"matic":14437,"Ġradial":14438,"ĠUSB":14439,"dw":14440,"Ġsubgroup":14441,"pite":14442,"Ġllvm":14443,"ĠConf":14444,"Started":14445,"suite":14446,"Ġmit":14447,"gather":14448,"ĠIr":14449,"Ġdirected":14450,"CPU":14451,"resolution":14452,"refox":14453,"Foot":14454,"ĠBi":14455,"Negative":14456,"DISABLE":14457,"ĠLIMIT":14458,"Ġposter":14459,"itutions":14460,"1111":14461,"specified":14462,"å®ļ":14463,"\">,</":14464,"urls":14465,"Ġproduces":14466,"ĠSa":14467,"omics":14468,"Ġelectronic":14469,"ĠÐ¼":14470,"querySelector":14471,"Visit":14472,"allenge":14473,"å°":14474,"Pref":14475,"copic":14476,"ĠRoute":14477,"ĠTri":14478,"ĠSpan":14479,"Opts":14480,"books":14481,"SHA":14482,"Ġdocs":14483,"ĠAV":14484,"Ġlose":14485,"cart":14486,"Ġreviews":14487,"illy":14488,"Ġmand":14489,"ĠHO":14490,"ĠJon":14491,"Ġprices":14492,"aturally":14493,"Org":14494,"ĠResol":14495,"ĠDoc":14496,"DX":14497,"ĠLE":14498,"ĠGLenum":14499,"^{*":14500,"Ġdiscover":14501,"ĠCOP":14502,"loose":14503,"Ġlibraries":14504,"Ġacting":14505,"Ġfif":14506,"Ġmill":14507,"writel":14508,"Ġmarketing":14509,"Nay":14510,"Ġoperand":14511,"Stamp":14512,"%);":14513,"isValid":14514,"kn":14515,"ĠSep":14516,"ĠIterator":14517,"ĠHeader":14518,"encoded":14519,"Ġdropped":14520,"Ġamazing":14521,"cols":14522,"ducible":14523,"noc":14524,"tensorflow":14525,"Rotation":14526,"ĠResults":14527,"ilbert":14528,"prising":14529,"Ġtransitions":14530,"Ġexpos":14531,"()\"":14532,"Ġclassic":14533,"ĠDeep":14534,"igan":14535,"territory":14536,"ClickListener":14537,"Ġdimensional":14538,"Ġdecisions":14539,"inheritDoc":14540,"TRA":14541,"Tri":14542,"Ġattempts":14543,"Lear":14544,"Ġhypothesis":14545,"Ġmanual":14546,"uis":14547,"stdlib":14548,"Hence":14549,"Ġnotion":14550,"Ops":14551,"Ġencrypted":14552,"Rank":14553,"Ġinfrastructure":14554,"vr":14555,"Ġ$('.":14556,"readonly":14557,"Ġven":14558,"REL":14559,"ictures":14560,"Ġaward":14561,">\",":14562,"Ġmirror":14563,"Preview":14564,"Ġprogramming":14565,"cient":14566,"ĠCy":14567,"SESSION":14568,"ĠHaw":14569,"Ġboy":14570,"Fun":14571,"ĠHead":14572,"Ġvaccine":14573,"usal":14574,"106":14575,"rides":14576,"YP":14577,"Ġ\"(":14578,"Ġimag":14579,"Samp":14580,"Ġportion":14581,"hdr":14582,"alleng":14583,"terms":14584,"Ġcharges":14585,"iloso":14586,"Har":14587,"Ġuuid":14588,"resourceGroupName":14589,"undef":14590,"Attrs":14591,"dac":14592,"ores":14593,"Attempt":14594,"Ġcollision":14595,"|}":14596,"Ġwelcome":14597,"Ġsheet":14598,"ĠMaybe":14599,"Ġcreative":14600,"thick":14601,"different":14602,"Ġsock":14603,"ĠDEBUG":14604,"MX":14605,"gun":14606,"Ġcollege":14607,"Ġfigures":14608,"Flush":14609,"Ġray":14610,"Lab":14611,"Maximum":14612,"ç±":14613,"ori":14614,"Ġarrest":14615,"ĠCalled":14616,"FLOAT":14617,"Balance":14618,"Ġresc":14619,"Ġcars":14620,"symp":14621,"Abs":14622,"rgb":14623,"Ġcities":14624,"Ġprototype":14625,"skin":14626,"ĠAward":14627,"ICK":14628,"ĠCr":14629,"Ġthin":14630,"Closed":14631,"below":14632,"Ġ(((":14633,"Ġhair":14634,"\\.":14635,"Ġfeeling":14636,"!\");":14637,"increment":14638,"Ġinvolving":14639,"keleton":14640,"toms":14641,"Ġmodification":14642,"ĠDC":14643,"Ġcommitted":14644,"pretty":14645,"ented":14646,"ĠsetTimeout":14647,"Ġfilms":14648,"Ġly":14649,"ĠCOM":14650,"Ġbridge":14651,"ĠAI":14652,"ynamics":14653,"ERY":14654,"Ġcaught":14655,"'\"":14656,"Ġregression":14657,"=\"../../../../../../../../":14658,"^{(\\":14659,"ĠController":14660,"Ġmagnet":14661,"Ġhabit":14662,"Ġfaith":14663,"Ġinspect":14664,"Yea":14665,"die":14666,"ĠTHIS":14667,"inos":14668,"asList":14669,"qa":14670,"Ġcompla":14671,"Slider":14672,"orters":14673,"rating":14674,"Ġlift":14675,"fade":14676,"Scheduled":14677,"dyn":14678,"employ":14679,"irl":14680,"operations":14681,"bian":14682,"Ġwheel":14683,"dden":14684,"loads":14685,"uminate":14686,"Ġremoving":14687,"ĠJim":14688,"Ġclosure":14689,"Ġmanually":14690,"Ġworst":14691,"ENABLED":14692,"Callable":14693,"Ġmagic":14694,"Ãł":14695,"ccc":14696,
[...]
