#version: 0.2
Ġ Ġ
ĠĠ ĠĠ
i n
Ġ t
e r
o n
a t
r e
h e
a n
ĠĠ Ġ
e n
ĠĠĠĠ ĠĠĠĠ
o r
a l
s t
Ġt he
a r
i on
l e
i t
Ġ c
s e
Ġ a
i s
d e
Ġ f
Ġ o
r o
i c
m e
Ġ p
in g
c t
Ġ s
Ġ w
Ġ in
ĠĠĠĠ ĠĠĠ
e d
Ġ b
e s
a s
en t
an d
Ġo f
u r
Ġ =
e t
ĉ ĉ
< /
Ġ \
u n
Ġ $
Ġ n
Ġ re
u t
i g
= "
c e
at ion
i l
Ġ (
r a
Ġ m
Ġt o
Ġ and
l o
) ;
m p
o l
e l
Ġ {
u l
Ġ d
Ġ <
i d
Ġt h
e x
- -
o t
Ġ h
i v
i f
a g
Ġ S
č Ċ
ĠĠĠĠĠĠĠĠ ĠĠĠ
Ġ T
c h
t h
p e
/ /
a b
Ġ v
a me
q u
Ġ *
a d
Ġ C
at e
Ġ is
t r
Ġ A
c o
as s
u m
t er
Ġ l
s s
Ġ }
ct ion
c k
Ġ st
" >
u s
Ġf or
Ġ g
a m
p t
h t
i st
Ġc on
Ġ e
{ \
u b
I n
i m
Ġ de
en d
Ġ "
l ass
v er
ĠĠĠĠĠĠĠĠ ĠĠĠĠĠĠĠĠ
l y
u e
Ġc o
it h
s p
ĠĠĠĠ Ġ
r i
ag e
Ġ se
Ġ M
a p
ex t
( )
at h
i r
Ġb e
Ġ on
a v
e w
e m
a y
u p
l i
Ġ P
e st
* *
o w
ur n
er s
or t
e ct
t a
in e
Ġ B
2 0
o d
_ {
Ġ &
Ġc lass
y pe
Ġ R
re f
o m
al l
c on
= =
Ġ F
Ġth at
-- --
Ġ D
t urn
Ġp ro
Ġw ith
o de
i z
u re
o ur
Ġ L
ar t
. .
Ġ Ċ
a se
m ent
Ġ H
ab le
Ġ '
Ġ N
ul t
g et
Ġ$ \
it y
Ġ an
in t
ig ht
Ġa s
Ġ if
l ic
p h
t o
Ġ I
ro m
ĠĠĠĠĠĠĠĠ ĠĠĠĠĠĠĠ
ĠT he
p er
i le
Ġth is
Ġb y
Ġ G
e g
Ġ E
m a
an s
an g
m ath
1 9
Ġw h
pt ion
i al
un d
Ġ W
er e
at a
Ġ ex
c es
Ġ or
i me
k e
- >
Ġ //
it e
0 0
a ck
Ġ </
c al
or m
i mp
Ġ al
o re
ĉĉ ĉĉ
al ue
Ġre turn
Ġ it
u se
.. /
o s
iv e
t ext
: :
Ġ at
st r
} \
i es
f f
Ġ -
p ro
a c
Ġ me
our ce
Ġ O
Ġ r
re s
an t
} $
Ġw as
j ect
Ġf rom
Ġa re
i b
^ {
se t
un ction
o p
Ġw e
C on
ar y
s c
f t
ig n
d er
) ,
a ce
v e
b er
l u
R e
Ġ +
Ġ [
it ion
o c
o ut
a re
at ed
Ġ @
i p
ub lic
) .
m l
" ,
i re
lo w
â Ģ
d iv
( "
Ġc h
( );
il l
s er
Ġt r
} }
g e
a ct
a st
> </
Ġ U
Ġ In
Ġ J
i de
Ġ /
in d
f ig
sp an
iz e
p ar
Ġn ot
( \
n ame
l f
t e
Ġn ame
n t
Ġs h
f ra
tr ing
' ,
Ġ le
ul l
ro w
p s
u g
d d
> <
T he
Ġn ew
eg in
o o
---- ----
an ce
ic e
E x
en s
t y
ic h
../ ../
Ġre s
b egin
Ġco mp
ar d
f orm
ss age
ic al
Ġ he
Ġ y
Ġ lo
ab el
l ay
Ġ |
i o
on g
en er
or d
f er
p ut
Ġf unction
b ject
Ġ .
imp ort
i el
Ġ* /
** **
} ,
or y
_ {\
av e
' s
en ce
er t
d u
ra y
or k
) $
== ==
ation s
co m
o me
ĉĉ ĉ
Ġst r
ht ml
S t
a mp
ĠĠĠĠĠĠĠĠ ĠĠĠĠĠĠĠĠĠĠĠ
iel d
Ġ V
Ġh ref
v ent
un t
Ġ :
o st
p p
l l
s ource
a k
r or
N ame
e qu
20 1
ĠĠĠĠĠĠĠĠ Ġ
Ġ j
( '
me ssage
s h
i a
Ġp ublic
ar g
Ġ K
p ort
} {
s o
b o
r ight
a in
) )
c ol
ode l
th is
Ġc an
Ġde f
o id
P ro
co de
tr ans
le ment
on e
at or
el l
i ew
ces s
l ation
de f
Ġin t
ta in
sc ri
l ine
Ġ un
u st
Ġse t
in k
e q
Ġwh ich
le s
re ss
Ġv ar
fra c
T ype
1 0
E R
Ġt ype
ĠT h
a ch
Ġ _
l abel
t d
Ġ use
Ġ= >
t he
ow n
c lu
Ġ k
/ >
Ġ #
in al
il d
S tring
c he
I d
u d
c ite
de d
Ġco m
y st
al se
de x
O N
o g
ter n
ro up
Ġv alue
le ct
e c
th er
re e
" />
pe ct
i an
I N
20 0
# #
es s
lo g
r m
i x
ir st
le ft
ke y
w e
C o
re turn
ul d
at ic
Ġl ine
o int
trans lation
m o
Ġg et
Ġh as
Ġ us
yst em
Ġcon st
f o
Ġh ave
ap p
lo ck
math b
qu est
par am
r iv
lo c
en g
um ber
v ar
v al
c re
ion s
u al
v ice
et a
âĢ ĵ
o und
t ype
he n
e f
Ġd ata
$ .
T o
s um
ic t
$ ,
Ġd o
Ġ !
Ġcon t
ent s
at es
Ġ ar
a x
se d
id th
, \
} )
pe c
L ist
Ġse lf
R E
at ch
y n
u ct
e ar
Ġ i
} .
er y
m b
ar k
equ ation
Ġ all
ad d
a ult
ut e
R es
le d
1 8
Ġ| |
m s
math cal
o f
n e
h er
m in
Ġa ss
Ġ= =
ac he
Ġd is
ce ption
Ġ id
r y
r it
S T
Ġs u
1 2
s ub
ol d
e p
ic s
se s
Ġs p
E n
Ġn ull
d a
Ġp ar
ĠS t
it le
o ver
o uld
: //
Ġ el
is h
Ġ ro
Ġres ult
Ġp art
Ġc ol
"> <
c lass
Ġt ime
Ġ `
Ġv oid
Ġal so
ang e
} (
Ġa c
le t
_ _
b ar
ur re
A T
Ġo ut
i e
w o
Ġon e
Ġ qu
ĠC h
o v
Ġ en
C h
on t
e mp
n ot
ing s
g ra
am b
clu de
t p
Ġp er
} ^
o u
ĠĠĠĠĠĠĠĠ ĠĠĠĠĠ
l d
ph a
~ \
} _
m er
Ġ er
th od
ĠĠĠĠĠĠĠĠĠĠĠĠĠĠĠĠ ĠĠĠĠĠĠĠ
it em
tr ib
Ġ >
at ure
a il
ad er
) );
o b
str ing
Ġf alse
T h
Ġh is
Ġ up
Ġw ill
Ġs er
Ġp re
ame ter
" );
1 6
o ol
ut ion
t ime
t on
al pha
se lf
p l
Ġa b
O R
A r
Ġc ase
ug h
L E
co mp
if ic
-------- --------
Ġin ter
c ent
um ent
sp ace
Ġo b
riv ate
) :
p r
if i
c a
e y
ul ar
d ata
Ġ x
sp on
eng th
Ġ )
**** ****
urre nt
as k
Ġtr ue
Ġf irst
f ile
f or
is s
u le
Ġ end
at ive
b ack
Ġv al
V alue
D ata
I D
ar ch
Ġb ut
Ġw ere
amb da
j s
Ġ --
av a
ĠĠĠĠ ĠĠ
// //
Ġo ver
Ġa p
A R
loc ation
at er
ption s
he d
u es
os ition
re ad
Ġs ub
p x
v alue
in ed
Ġn e
Ġa dd
) \
$ \
l a
S er
ic k
ol low
f ter
ĠTh is
Ġt wo
c ri
C ol
ĠU n
p re
E N
t il
Ġt ra
per ty
Ġ Y
n b
S et
li ent
ĠĠĠĠĠĠĠĠĠĠĠĠĠĠĠĠ ĠĠĠĠĠĠĠĠĠĠĠĠĠĠĠĠ
Ġm odel
Ġel se
or s
w ork
or g
Ġstr ing
Ġtr ans
Ġs o
m an
el y
scri pt
h o
1 1
tern al
Ġ/ **
Ġs up
en c
a ke
" )
id er
i se
ar get
n ew
Ġin st
con d
S S
A L
Ġw hen
g a
m u
==== ====
p i
ire ct
Ġfor m
ig h
me d
am ma
Ġo ther
_ \
le ction
( $
y s
= \
ro id
qu ire
Ex ception
nb sp
] ;
r ror
c l
Ġ& &
ĠC o
Ġre g
d ate
m on
as h
ĠI t
Ġon ly
Ġa pp
Ġp l
Ġ// /
Ġf ollow
v el
Co mp
res ent
Ġor g
Ġ ra
Ġt est
1 5
b u
d ot
al s
' )
Ġ\ \
con t
ig ma
Ġst atic
se ction
Ġ imp
n g
Ġex p
B u
s ize
m and
Ġf ile
P ar
und er
it s
Ġit s
p end
Ġb u
o k
Ġg ener
an n
a w
Ġa d
v ed
b r
Ġ ext
m ary
ag es
um n
} _{
a ction
y le
} ^{
19 9
Ġd if
mathb b
O bject
Ġf inal
amp le
c c
ĠS tring
T est
3 2
ib le
t est
ĠW e
p lay
ro und
ĠĠĠĠ Ċ
o se
Ġwh ere
w idth
d ing
r c
re d
D E
Ġ %
Ġw ork
Ġthe ir
ase d
in s
' ]
Ġd ist
A n
v iew
2 5
Ġuse d
() .
ut h
I t
Ġ! =
U n
al ign
Ġre l
w h
or re
Ġan y
- \
ation al
Ġn umber
is hed
Ġm an
Ġs pec
l ang
at us
. </
at ing
S e
p art
Ġa g
E rror
Ġthe n
l er
l ink
ar ray
Ġth ere
g le
() );
C T
Ġb et
W e
Ġme thod
ph i
^ {\
il ity
o ck
re am
Ġm ore
Ġp lay
f ace
ĠH e
l ambda
Ġ{ \
G et
m od
c ed
T r
od y
n av
Con t
iz ed
1 4
ot h
b f
ĠC on
"> </
b e
Ġp rivate
1 3
en ces
p ublic
Ġch ar
y p
str uct
oo k
to p
ĉĉĉĉ ĉ
or der
" ;
V iew
Ġf il
K ey
bo x
g er
Ġn o
in ce
re ate
Ġsu ch
S E
A t
qu ot
. _
f unction
tr y
Ġbe en
n ing
Ġcon s
d is
[ '
le an
Ġs ome
ver s
are nt
he ck
Ġf ield
n er
n o
ers ion
Ġin to
t s
re n
F ile
1 7
in dex
Ġo bject
Ġt e
we en
Ġe qu
ro ll
in clude
le m
l ist
ĠP ro
D e
on ent
=" +
ic es
M E
t able
Ġl ist
Ġa ct
ĠS e
I T
Ġst ate
1 00
s on
cri pt
ff er
mathb f
ur l
sum mary
Ġg iv
i ent
ut il
! --
ĠR e
Ġsh ow
de l
E vent
p en
Ġ Q
' );
ra ct
f ore
T ime
ra ph
iz ation
ind ow
h at
it ies
Ġ under
if y
Ġ âĢĵ
it ed
ĠA n
in ter
=" ../../
co unt
io us
B y
il on
Ġth an
er n
\ \
Ġ key
r ite
Ġ ent
s ign
Ġh ad
C O
s igma
Ġp h
Ġb ack
m all
Ġe ach
Ġy ou
c ord
Ġdif fer
ps ilon
lo ad
ht tp
() ,
Ġ im
k en
con st
Ġer ror
le te
w w
Ġbet ween
un c
u c
b eta
g roup
Ġus ing
Ġ( \
f ield
Ġs ystem
ĠA r
o us
Ġ/ >
ect or
b ut
Ġre p
ro l
F or
ot e
Ġo per
col or
fig ure
ra w
A N
Ġp r
U L
t ps
} {\
oc ument
N ode
] ,
ic on
ag er
Ġ u
ack age
Ġ X
m d
i k
Ġp oint
Ġc al
l ate
Ġt itle
Ġof f
p y
ist s
H e
p ath
us er
Ġe vent
^{ -
re g
w ard
Ġm od
m it
C lass
g round
ur ation
l and
b y
it ial
St ate
2 2
v oid
Ġ z
ra me
Ġpro v
m ber
Ġc orre
Ġ arg
T ext
is ion
ifi ed
ff ect
Ġthe y
Ġm ay
Ġa fter
Re fer
Ġwh o
6 4
3 0
til de
Ġo ur
n et
ĠE x
ot t
" :
Ġf e
ri de
a ir
ens ion
S h
} ;
] .
w ay
d t
In fo
Ġs ol
` `
Ġ ?
an k
C om
R O
o ot
' :
M an
ra p
+ \
P ath
lo b
Re quest
ment s
Ġ-- >
g amma
A s
* }
math rm
E lement
ĠF or
It em
M et
ur ing
5 0
Ġ );
f in
v en
cal e
ĠĠ Ċ
Ġs ize
/ *
] {
Ġp ol
il y
Ġn on
Ġe st
n ode
In t
() )
trib ute
del ta
/ **
19 8
^ \
oo lean
I ON
Ġs ign
Ġgiv en
P E
Ġst art
Ġm in
er m
F ield
at ri
Ġpar ameter
time s
Ġp o
r ho
p o
r on
l ength
re ak
Ġc urrent
âĢ Ļ
Ġpro du
) }
T E
enc y
ver t
m ap
Ġass ert
## ##
Ġthe se
Ġs c
ĠĠĠĠĠĠĠĠĠĠĠĠĠĠĠĠ ĠĠĠĠĠĠĠĠĠĠĠ
Ġp e
ĠD e
g y
d ition
Ġg roup
O n
A dd
ic an
a de
ĠA l
Ġc all
Ġe lement
as on
L A
ce pt
con fig
m odel
" "
In dex
2 1
w ord
Ġh er
in es
Ġ Z
t ing
M ap
se c
Ġs ame
Ġy ear
Con text
C ode
Ġex pect
D ef
st er
Ġn ode
Ġth row
s y
Ġ ed
ect ed
Ġpro b
2 4
tain er
Ġsh ould
ir c
o x
le q
as ses
Ġor der
ess age
3 3
qu e
E qu
ent ial
the ta
T R
b lock
op le
il der
oo gle
b ig
n own
lo se
per t
ĠN ew
st ance
Ġin v
d i
D el
' ;
ar row
Ġ( !
g in
ta u
e ver
tr ue
ap i
ro ugh
Con fig
Ġfollow ing
oc i
res ult
A l
u i
$ -
c dot
Ġre quire
en se
L o
Ar ray
us h
t itle
ĠI f
iv ers
spon se
n ext
mb ol
P I
Ġ} );
um er
se arch
in put
u me
Ġ$ (
Q u
r id
Ġg o
ar s
F orm
A C
ut o
ht tps
Ser vice
Ġar ray
cent er
form ation
O ver
p on
u ch
gra ph
Ġstr uct
or n
}$ ,
er ror
le x
il ter
Ġst ud
an e
Ġw ould
}$ .
atri x
n u
al ly
ser v
Ġvar i
Ġap pro
le ar
t ab
t en
te mp
p m
} (\
ap ache
t n
ical ly
part ial
o bject
Ġdef ault
//// ////
Ġre quest
Ġ/ *
Ġ} ,
are d
Ġde scri
ne ction
s k
.. .
W ith
im it
f rom
Ġl ong
="../../ ../../
Ġab out
Ġd irect
s q
or ld
ist er
l ag
lic ation
******** ********
ma x
S ize
eq ref
Ġwh ile
am s
a z
I C
val id
D es
Ġ import
Ġh and
ĠA s
Ġlo cal
+ +
Ġl ink
N ot
M essage
ĠS h
Ġc ent
co re
Ġs ing
Ġr un
yn c
Ġh t
19 7
Ġs im
l t
Ġdiffer ent
ome ga
[ ]
it or
= '
Ġt ext
4 0
pert ies
y m
en u
Ġse cond
def ault
Res ult
Ġpart ic
Ġf ound
ro p
U R
cre ate
Ġm ost
ve lo
lo at
a f
Ġval ues
> &
Refer ences
ff ic
Ġt arget
Ġs rc
g t
ow er
ass ert
vers ion
de pend
O r
ang le
et urn
b ody
Ġcont ent
i er
00 0
qu ad
Del ta
h od
Ġco de
Ġb oth
able d
Ġt emp
ver y
r t
Ġj ava
in fo
Ġus er
Ġc l
c ur
a u
em ber
H and
Ġresult s
mo ve
c cess
F F
P h
| \
r an
Ġth rough
m iss
r al
ress ion
L O
ĠG et
st ate
b ase
ft y
at t
p oint
orm al
2 3
O f
ant s
w n
in fty
ar ge
l it
A pp
ĠL e
s w
L e
Ġw ell
and roid
et work
Ã ©
I m
c ss
mer ican
Ġf act
co pe
lect ed
o ugh
cont ent
Ġ âĢ
ure s
a j
j ava
Ġs he
ub le
g or
Ġin put
M odel
s up
6 0
Ġlo g
U p
st art
ific ation
U T
ow ever
V al
l ing
Ġcon tain
eq n
port s
o ve
ĉĉĉĉ ĉĉ
t t
Ġ= ==
p os
Ġp ath
Ġm ax
b ug
if t
A D
Ġ_ _
Ġre ad
Ġ ,
st yle
Ġcons ider
Ġ: =
t ra
Ġh igh
b all
se e
Ġb ase
Th is
o use
ra g
ch ool
iv ely
Ġl i
con text
ott om
M L
Ġprov ide
ul ation
Ġer r
ust om
is m
Ġr ight
o ption
wh ere
\ ,
Man ager
f ul
ab ility
at s
ĠS ystem
Ġs ur
he ad
L og
ot her
r u
Ġ} ;
t ings
Ġin clu
in ition
e vent
Col or
U ser
o un
---------------- ----------------
p ackage
ann el
Ġthe m
m ark
pon se
Ġcon fig
trib ut
ĠC ol
uth or
in ing
UL L
w ith
; </
d own
Ġb lock
; &
lob al
Ġc heck
Ġm ap
it er
T able
ff set
Ġm ain
' t
IN G
c all
$ $
I G
Ġ low
b l
Ġth ree
f alse
def ine
m y
=" ../
we b
roll er
Ġob tain
d o
Ġin dex
an y
I s
x i
end s
Ġc a
r ic
at ter
Ġbe fore
n ow
Ġle t
v ir
Ġdist ri
M A
Ġdo es
O ut
che ck
id d
Ġse e
Ġv ersion
Ġcon text
ers on
Ġst yle
Ġm ult
Ġinst ance
t ot
ĠĠĠĠĠĠĠĠ ĠĠĠĠ
ile d
E D
our ces
Ġag ain
ith ub
Ġc re
ro ss
ig inal
Ġs mall
} [
id ent
=" #
Ġe ffect
} }\
us ing
le g
act er
st atic
ore m
l p
In ter
ction s
ĠĠĠĠĠĠĠĠ ĠĠ
ĠC om
iv er
Ġf ind
)$ .
g oogle
Ġrep resent
Pro perty
E T
< !--
name space
d oc
ar i
o h
C lient
le ss
l ish
) </
G roup
2 7
Ġle ft
D O
F rom
out h
me thod
Ġsup port
Ġw rit
velo p
iv ed
yp es
t ected
======== ========
Ġpro cess
al ity
m un
T D
ta il
ix ed
Ġlo c
Ġal low
A B
v ious
Qu ery
Ġcont in
g ithub
M P
Ġne ed
C H
ot s
d ic
arg in
a h
l ight
or th
Ġc reate
Over ride
ar n
Ġb reak
Ġan al
v ol
ivers ity
S ystem
en ame
6 6
Ġf in
Res ponse
Ġre fer
ĠS et
ps i
Ġand roid
ifi er
b it
Ġre le
Ġn ow
eg er
Ġd i
Tr ans
Ġit em
d b
2 8
Met hod
D is
a pe
Ġin itial
Ġb ool
Ġp osition
s ide
ĠT r
ĠO n
Ġm ust
Ġpe ople
U N
9 9
er o
ath er
Ġcon dition
Ġl ast
b s
Ġy our
al e
Ġd uring
] (
am ily
> (
e psilon
c or
p ri
w ide
as ure
m m
u age
Ġw idth
ca ption
ur al
D I
an el
ref er
co me
s im
d ir
Ġbe ing
Ġst d
Co unt
me ga
" .
Ġfe ature
} _{\
Ġ čĊ
Ġcol or
R eg
ĠĠĠĠĠĠĠĠĠĠĠĠĠĠĠĠ ĠĠĠĠĠĠĠĠĠĠĠĠĠĠĠ
C all
a it
p osition
n on
Ar g
il ar
Ġ( )
v es
Ġo pt
Bu ilder
M od
Ġ( $
EN T
n ull
t es
4 5
ict ion
b tn
fin ished
ist ory
end er
Ġp resent
eqn array
C E
c urrent
iv ity
Ġs ource
log y
ur y
Ġn il
Ġbu ild
Ġback ground
ĠĠĠĠĠĠĠĠĠĠĠĠĠĠĠĠ Ġ
it ch
Ġt er
ĠE n
8 0
Ġre f
O mega
en e
Ġb ound
mp ty
if e
Ġsp ace
c m
i or
u mp
Ġs ince
du ct
ex p
pl ace
Ġo ptions
Ġin clude
O T
sq rt
im age
ĠF ig
t ual
B ar
h as
^ *
Ġto p
o ptions
Â ł
d l
Ġm ake
but ton
c er
l ished
un finished
s ing
A ll
scri ption
Ġper form
qu ery
lic k
he ight
Ġm on
Ġp op
pr int
act ory
Ex ternal
. ,
Ġo pen
U til
Ġg ame
Ġid ent
um b
Ð °
Ġde pend
ĉ Ċ
Ġc ur
imp le
] )
b m
2 6
fra me
Ġ art
ener gy
c lient
St ream
c y
Ġle vel
ww w
Ġg ra
D ate
u ary
Ġv is
t al
ay s
Ġdef ined
G amma
l at
r ation
)$ ,
T ra
er r
ss ion
Ġb ased
( (
p age
ph p
b ed
che s
d s
Ġman y
arg s
Ġn ext
. "
Ġb order
sub section
ca use
Ġcorre spon
Ġin formation
S C
and om
Ġv iew
tr ic
c i
Ġlink s
re quest
c ase
Ġme ssage
ĠCo mp
ate g
graph ics
5 5
Ġ Ð
om ain
ĠA ss
e k
j av
u les
Ġt able
Ġ< <
add ing
I L
ĠN ULL
ĠL ist
l in
r ing
Ġ$ {\
Ġl arge
ĠA merican
ĠS er
Ġd at
St atus
et s
sy mbol
on y
T H
und le
Re f
2 9
) {
gor ith
Im age
Ġex ample
b old
li b
A ME
Ġcal led
ĠĠĠĠĠĠĠĠ Ċ
Ġres pect
' '
on s
che d
Ġbe cause
it ive
In put
yn am
ĠR es
text bf
ator s
c ast
B lock
w are
o per
^{ (
ĠĠĠĠĠĠĠĠ ĠĠĠĠĊ
Ġtr y
Ġout put
N ew
G ener
im al
um ents
A d
00 00
str u
he ader
d f
e lement
v are
B e
im um
Ġyear s
En d
re at
Ġre sponse
Ġle ad
Ġsup er
} =
ch o
over n
sign ed
Ġp ass
ma in
j o
I P
ON T
Ġb oolean
ĠI s
ual ly
Comp onent
and ard
~ ~
in ation
ail able
Ġ ->
Ġap pe
Ġsing le
Y PE
Ġ et
Ġch ild
se mb
var i
L ay
ater ial
In stance
Ġin cre
Ġco uld
Ġim age
vare psilon
B ase
Ġm ade
F rame
re en
S ub
Ġde c
Ġk nown
Par ameter
e e
( {
im ation
Ġdis c
bo ve
im ension
Ġe very
ĠR o
A ction
ol ic
it u
s i
}^ {\
Ġh im
lo t
sh ip
Ġpo ss
Ġgener al
ser ver
N av
Ġb l
S P
3 5
Ġpro perty
Ð ¾
g ener
app end
I mp
a i
Ġa v
f unc
Ġre ce
miss ion
Ex p
Ġn etwork
Ġ" ""
To ken
Ġparameter s
ter s
m ult
n s
Ġm ass
r angle
h and
me mber
ĠUn iversity
S tr
3 9
ĠP ar
t x
i que
Ġa bove
id get
Ġli ke
U E
O ptions
nav bar
Ġm atch
Ġf a
n ect
on d
) =
def ined
iv es
in c
Ġpro ject
ta ck
x y
lo cal
t arget
Bu ffer
ol der
ĠUn ited
include graphics
L ine
b ra
Ġd ocument
lu gin
in it
dis play
7 5
ens ure
o od
Ġs um
Ġm ag
0 1
t ag
gra m
Ġex per
[ "
E X
Ġde velop
E d
r s
b ution
Ġt ak
b ottom
ap er
ĠA t
an sp
3 4
Ġ\ ,
ur ther
rit er
Ġex ist
ĠĠĠĠĠĠĠĠ ĠĠĠĠĠĠ
p arent
ide o
n ess
Ġ+ =
ro du
r l
ab ase
iv al
f a
Ġf our
pro to
Ġr ange
Ġimp lement
amp les
Ġ energy
N S
i j
c ul
ad ata
Ð µ
S ource
ve c
o pt
Ġj ust
A S
ĉĉĉĉ ĉĉĉĉ
fo ot
act ive
An d
right arrow
at tern
Ġval id
in a
able s
Ġl ength
I S
x ml
Ġa ction
Hand ler
ch i
l im
Ġadd ition
ens ity
pro perty
Cont ent
Res ource
lo y
me ta
Ġco un
o le
se lect
Ġp os
i od
RE F
201 7
N ull
Ġ q
) (
S p
Equ al
Ġre al
Ġl ater
Ġme asure
ar ning
Ġc lo
U S
ch ild
B ut
Ġp res
v ider
r un
Def ault
us ic
t ed
Ġmodel s
Com mand
. ~\
bu ild
js on
ang ed
Ġl abel
Ġme d
p tr
Ġm ov
var phi
ateg ory
At tribute
ire d
row s
Ġd en
A ct
Ġo cc
[ \
AT E
re t
B ig
Ġwith in
Ġb ro
ial og
s ol
f e
Ġcomp ut
ime s
w rite
ess ion
emp h
ĠE ng
ĠT o
Ġinclu ding
ĠO r
9 0
fra k
g n
oot ball
on ents
201 5
Ġl ang
Ġe ar
19 6
L ink
E E
d at
P oint
is on
Ġd ue
} ).
T O
Ġh ere
H el
St art
iz er
im g
f low
le y
mod ule
T ask
ys is
an ces
Ġm ark
S ty
ge q
Ġs at
ĠM ar
p ng
A ss
Ġsim ilar
v ices
c irc
Ġass oci
s mall
v is
Ġor iginal
re quire
em ent
c ap
a id
F actory
Ġser ies
f irst
Ġm ode
ef ore
Ġv ery
s rc
vir on
N o
C K
i um
4 8
F A
s g
oh n
p ost
ver age
Ġs w
ch ar
Ġto tal
3 6
Ġse ction
s l
st atus
Ġt ri
i ed
y les
read y
or age
Ġqu ant
ĠP h
Ġdis play
V ersion
Ġre cord
over line
. }
Ġpre vious
p rivate
G L
$ {
Ġe ven
ar m
Ġse ason
Ġplay ers
oc us
F unction
Ġf rame
stru ction
" ]
W indow
pro of
Ġres ource
as cript
Ġ` `
Ġcom mand
p ush
b um
lag s
ip le
Ġexpect ed
Ġsu ccess
* /
Ġsh own
ĠN one
ang es
de scription
f ilter
I f
201 6
Ġs pect
ic ense
h av
Ġde ter
d ict
LA SS
ra int
gorith m
lay out
r ary
Ġwith out
Ġcon f
p c
Ġchar acter
E L
ĠO bject
Ġd er
4 4
Ġv ert
Ġp ost
row ser
d raw
tribut es
math frak
} );
Ġp ort
Ġm y
3 7
O L
O per
C ell
0 5
in ary
op en
A P
g ress
Ġ{ @
}, \
Ġd own
in st
Ġse ver
ar ri
ĠTh ere
f ont
ic le
ĠB u
L ambda
3 8
Ġcont rol
& \
h ip
Ġa ut
qu ence
Ġp arent
Ġhe ight
Ġs ide
Tr ue
bold symbol
Ġser vice
ĠH owever
l en
Ġg u
Ġest im
Ġex ec
A G
N umber
H T
But ton
val u
or ph
201 4
Ġadd ress
s pec
depend ent
ith er
e ps
Ġp age
f ind
at ely
l ast
Ġh ow
Ġreg ion
P r
op y
Ġl imit
Ġo wn
pro ject
str ong
Ġcol umn
h ost
201 8
ĠS p
P age
19 5
âĢ Ŀ
) ^
re l
ĠT est
Ġt ask
ck et
p ack
Ġrequire d
use d
O P
Ð ¸
Ġht tp
v ision
c lose
Ġfollow s
res h
Ġch ange
unt il
iv ing
s f
ra m
s or
L abel
il t
ib ility
R eturn
im ent
if act
h line
u ss
om en
Ex t
he et
Ġthrow s
Ġw ay
ĠSt ates
c an
Ġm argin
Ġprob lem
e ad
Ġe lect
E S
Ġhe ad
og raph
ĠC an
3 1
Ġstruct ure
Ġpl ace
Ġagain st
Ġpro tected
L et
Ġg raph
F I
Ġpoint s
Ġp ower
C heck
Ġ< !--
che ma
F ONT
al let
con tainer
Ġint eg
jav ascript
th s
Ġj o
ĠA d
Ġc lient
Ġth ose
ir d
Ġco unt
} }$
V ER
l s
S ON
C reate
com mand
le ase
end if
Ġest ab
it al
il er
F ilter
. \
ĠS he
un e
Ġl ay
g en
} ),
P art
ser vice
m box
Ġfil m
P re
ent ry
Con st
Ġpartic ular
Ġext ends
Ġ url
Ġfunction s
Ġa m
L oc
Sty le
0 7
m enu
param s
ver se
20 19
im ary
ĠR eturn
ir tual
Cont roller
c lo
ist ic
st ream
is f
il li
com mon
Ġf re
N O
Ġ until
ĠB y
P RO
B U
r ict
201 3
t tp
B ox
b b
Ġm at
//////// ////////
S up
List ener
Ġc ell
Ġl arg
ĠCo un
ast er
he s
ob j
lang le
201 1
Ġal ong
bu f
M S
Ġte am
Ġa uto
lu g
set s
er man
Ġdistri bution
st d
ser t
S pec
ĠA dd
cite p
g o
Ġwh at
Equ als
R ow
ĠR eg
B undle
Ġre du
cri ption
Ġ( (
Ġter ms
201 0
O S
M ode
form at
Ġposs ible
not ation
Ġs k
z e
ig ation
up date
Ġm atrix
ĠM ay
lu ster
ur ity
tot ype
ĠG L
Ñ Ĥ
ens or
Ġf ull
re sponse
v i
ear ch
ld ots
< ?
( &
ĠF e
Ġmethod s
AB LE
20 20
uc cess
Ġ ]
Ġcom mun
l ap
: </
c ame
ag ue
Col umn
201 2
viron ment
ĠA ll
st yles
p ose
a e
Ġav ailable
port ed
so le
Ġsh ort
ur ch
ĠG e
sk ip
a int
Ġac cess
li ed
F irst
" ),
Ġt erm
ot o
par ameter
Form at
C ache
u ro
ĠC ar
aj or
Ch ild
u k
ic ro
ug ht
en n
Ġp ub
v ing
ig ger
Ġcontin u
w ise
ĠA pp
app a
ac y
0 8
ĠI N
Ġpro perties
g ing
Ġsever al
// /
IN T
de v
ma il
un k
mo unt
end ing
Ġare a
Ġn ear
col umn
T ag
Ġh ig
ĠT e
ex pect
Ġs y
Ph i
s m
way s
m ut
Ġd iv
ward s
" ).
li es
b ook
q l
at tr
Ġp ri
ĠIn d
O D
`` `
Ġf ont
n umber
4 7
al k
Ġv ol
) ]
Lay out
E nt
Ġs chool
ym me
ref ix
D ep
Ġal ign
d ay
ĠW orld
ire ction
le vel
Ġf amily
to ol
sh ow
Ġcon struct
ot ential
app ing
semb ly
Ġre t
L ast
D ec
j e
g es
ud io
m t
U rl
cl us
Ġin ternal
re move
C C
} /
al t
Re ad
Ġl ib
Ġin dic
Ġpr int
Val id
U I
i i
ser ved
am ent
L ength
ĠM an
Ġhe lp
Ġb ir
Ġst ill
Ġcomp let
UR L
al th
0 2
Ã ¡
en ded
g est
Ġro le
Ġshow s
ĠJ an
Ġo p
F e
ch ange
Ch ar
in stance
C l
s cale
text it
k appa
refer ence
Ġup date
Ġar ound
ot imes
Ð ½
ĠĠĠĠĠĠĠĠĠĠĠĠĠĠĠĠ ĠĠĠĠĠĠĠĠĠĠĠĠĠĠĠĠĠĠĠ
_ .
Ġelement s
ffic ient
if f
Ġbe come
ord s
' ).
ase s
tern ational
I I
#### ####
Ġv e
et y
ER R
bo ard
Ġal bum
Ġw indow
Ġf ootball
Ġmod ule
n ab
par se
ĠAn d
ĠJ ohn
\ %
Ġd id
Ġme t
ĠN ational
pro cess
Ġn ormal
ã ģ
el se
o ff
ĠW h
o ke
Ġv ector
Ġre d
O b
idd en
ic a
sub set
ens ions
Ġl a
ĠH REF
ĠC LASS
ĠC al
Col lection
st ract
c s
o ffset
n um
Ġint rodu
p ol
U M
} )$
Ġs cal
m at
Ġh old
] [
unt ime
ĠC l
li p
me s
D o
T YPE
tail s
T emp
Ġspec ified
ĠG ener
4 9
c ache
200 8
Ġdo uble
Ġcom b
Ġsat isf
Ġt yp
Ġc lose
ER T
Ser ver
="../../../../ ../
Ġst ates
Ġb as
Ġc ap
S c
ĠIn t
av ing
or iz
Ġ es
Out put
ĠB e
B ack
Ġre n
ut ure
Ġo ption
Ġc atch
ial ly
Ġ! ==
Ġh ost
ĠThe n
0 6
Ġd ensity
S igma
non umber
Ġde p
out put
nab la
ensure math
ord in
mb ers
Add ress
Ġb and
Ġte ch
\ |
Ġv er
Ġob serv
g an
Ġm ak
ĠW ar
Ġfield s
4 6
Ġcon nection
ĠD ef
Ġt ake
ap ter
Ġser ver
I Z
Ġbe came
Ġin f
Ġw rite
200 9
k it
un it
Ġst atus
sc he
W idth
Ġn one
Ġal ready
di us
++ )
lic it
Ġe mp
Ġper iod
f inal
d ist
Se lect
Ġp air
Ġc lear
Ġme an
he ther
0 9
r and
w indow
ĠG u
ore d
s cope
Ġan other
> >
ta ct
Ġstud y
ĉ ĠĠĠ
ame s
ag ed
el s
Ġconst ant
vol ution
T P
co ding
r ist
CO L
ex ec
Ġcall back
O ffset
util s
L I
eng ine
Ġr andom
Ġline ar
200 7
Ġcorrespon ding
Pro vider
Ġinter face
200 6
ac ed
ig in
o ice
Ġappro x
Ġcomp onent
w rap
Ġw ant
ĠD o
Ñ Ģ
A M
Ġf ail
in o
g l
Ġse arch
Ġcal cul
ĠCoun ty
ass word
de s
Ġre ma
Ġf ree
Ġm uch
0 4
H E
Up date
Ġbe st
Ġc r
Ġstr ong
We b
D B
P er
=" -
Ġe ither
Ġst andard
Ġprodu ct
Ġorg an
ĠN o
A c
am il
Ġsol ution
ĠH T
s d
al y
ĠAr ray
ra ft
M em
pro p
olic y
c it
T arget
Ġk now
ĠS chool
on ly
Ġobtain ed
art ifact
sp lit
20 00
r um
u x
C ON
Ġl aw
al f
Ġassoci ated
ad o
Ġform at
Ġqu ery
ĠS o
6 7
R un
**************** ****************
s u
Ġp erson
Ġb el
Ġtra ck
| -
. $
ĠS up
\ !
Ġ[ ]
Ġf ore
cl asses
R em
8 8
ĠâĢ ľ
o ber
op s
Ġc are
ĠSt ate
om ic
ra d
action s
str al
temp late
ĠJ ul
Ġarg s
l ong
overn ment
Ġcre ated
Ġ ke
Ġlo ok
ĠA PI
ry pt
er ature
Ġ* *
ĠI D
emp ty
Ġcomp lex
log ical
ĠB rit
ent ion
}} {
ĠY ork
om in
p es
ĠN ov
Ġde sign
om ent
Ġt ag
Ġse par
me m
Ġco py
Ġdescri bed
Ġp otential
ĠS c
Ġn av
b a
ĠC ent
th ing
l an
ist or
Ġac count
0 3
ĠR ep
Ġevent s
a ded
c ing
T ree
Ġdef ine
Ġcontain s
ad a
f loat
pro totype
id ual
ĉĉĉĉ ĉĉĉ
am l
dot s
ce ll
Ġlow er
% %
Ġo ld
Ġh ome
st ro
Ġg e
6 5
pri me
() ->
N AME
Ġs cale
Se e
T ypes
( _
Un it
k nown
Ġb ook
Ġlo ad
ac ity
Ġthe ory
p ed
ĠM in
Ġoper ator
ĠM et
r ont
4 2
ĠF ile
po sed
ã ĥ
it es
ĠT ype
Ġinter est
u int
Ġme m
in ner
fer ence
Ġr ate
g ed
t ree
. /
ĠL et
ly ing
Ent ity
Ġf lu
C ase
ur b
Ġs ong
b ind
ft ware
c d
M ax
i ans
Ġs pe
Ġtime s
ut ions
Ġp aper
Ġf loat
Ġw orld
20 21
Ġfile s
S to
d ocument
Ġ row
un g
Ġch annel
u stral
CO DE
ĠP r
Ġfil ter
ĠA ug
' ),
V is
ĠW est
UL T
n a
P osition
} -
i as
P C
Util s
for med
c at
val ues
ĠS outh
Ġequ ation
I O
me t
] );
Ġwe ight
bo ol
Ġde ath
\ [
; \
Ġbe low
ĠE X
ĠThe y
{ -
re m
ĠC lass
He ader
Ġb ody
Ġre st
i ence
ro ot
Ġcom mon
Ġw on
Ġb o
Ġl ight
Le vel
Ġv ia
I M
st rap
lay er
pt ember
or ies
Ġm ove
Ġres ol
Ġanal ysis
9 5
t ask
cont rol
Ġu int
to col
O pen
amp ion
tain s
in ess
( [
% ;
Ġex ists
F ig
ĠD es
it t
= {
M in
wide tilde
N D
Ġs imp
Ġperform ance
ĠâĢ Ķ
En try
bu ffer
Ġse lect
return s
ĠO ct
al es
ansp ort
ĠY ou
ĠJan uary
Ġc irc
center ing
Ġl ines
m atch
Ġl en
A ccess
/ \
Ġl ife
Ġg lobal
artifact Id
ĠĠĠĠĠĠĠĠĠĠĠĠĠĠĠĠ ĠĠĠĠĠ
="../../../../ ../../
Ġdef inition
st ack
Ġs che
Ġph ase
a ut
om an
it ory
Ġprovide d
Ġd ate
Inter face
Ġrespect ively
Ġf urther
st it
co ver
V ert
Ġme mber
c le
m i
sh ould
ot ion
Ġob j
Ġs aid
Ġph ys
Ġm usic
Con tainer
riv er
ĠL icense
age ment
ist ry
oper ator
bo ot
Ð¾ Ð
ĠL o
n d
ĠThe se
Ġimport ant
P o
S ec
Ġin du
Ġro ot
Ġpol it
Cont rol
Ġco up
enc ies
Ġun it
A PI
Ġdi ag
Ġdeter min
200 5
re st
med i
Ġcent er
Con nection
Ġear ly
ĠG erman
Ġx ml
Ġfeature s
v an
7 7
al le
b in
Ġsign ific
Ġ& =
idd le
Ġit er
Ġrele ased
g r
d rop
av es
Ġt urn
file s
Ñ ģ
ol l
Ġd ynam
Ġm er
Ġle ss
styles heet
Ex ec
Config uration
} ]
( -
Ġle ast
H ttp
con f
Ġcondition s
Mod ule
F O
ex ample
Ġt ypes
to ken
He ight
de vice
p or
Ġz ero
ul a
N ext
Ġlang uage
th ough
Ġex pl
oc ial
ent ly
Ġoff ic
Ġdif f
as ing
Call back
er a
al ax
se cond
group Id
ĠE q
er al
th on
il s
he l
m ar
A A
Ġme mbers
W rite
Ġn umer
ĠM arch
V AL
Ġs imple
i res
Ġgo od
z eta
T op
Ġbu ffer
ST R
et ch
Ġspec ific
Des cription
back ground
l n
P O
Ġc ar
pr il
model s
mod al
Ġfor mer
ug gest
Ġrefer ence
ĠU S
Ġinst all
Ġpro of
Ġsystem s
U P
Ġbe hav
Ġcase s
res ource
a uthor
le ge
ĠM e
Ġ{ }
p atch
res sed
ĠW hen
Ġde l
K E
ĠSe ptember
tab ular
ĠAug ust
Ġse quence
Ġappro ach
co s
e ded
S chema
A V
Ġappe ar
Ġapp lication
C D
Ġn eg
{ {
Ġf low
Ġv irtual
ir m
ic ation
E CT
de bug
Ġdistri but
wh ich
b efore
ĠT ra
Ã ³
J son
ĠN S
ĠU p
m ode
ã Ĥ
Ġp adding
" ))
not e
Ġst ream
Ġimp ro
Loc ation
b order
S earch
cre en
Ġreturn ed
im ages
DI R
ĠO F
E mpty
Ġcons ist
i sed
Ġm ajor
ĠD ata
Set tings
Ġc ustom
AT ION
\ {
Ġal gorithm
Ġra d
A b
Ġ* )
Ġco ur
w ait
Ġs ample
} +
ĠQ u
Ġpro gram
ĉĉ Ċ
ĠS w
Par ams
Pro cess
Ġw hether
ct x
f l
Ġf ew
Ġinst ead
ĠOct ober
200 4
& &
Ġh y
oriz ont
$ (
ĠReturn s
Ġc y
Ġar ch
Ġc la
en v
IZ E
ed ia
so ft
Ġconsider ed
at ist
Ġde g
Ġle g
Ġtrans ition
Ġa uthor
ct or
Ġspec ial
ch an
Re cord
N one
Ġhig her
uro pe
Ġoper ation
iz ing
at io
ĠP ol
R ange
: (
ur s
Ġobject s
ce mber
Ġin it
Th read
ĠP art
Ġat t
à ¤
lug ins
im er
d om
Ġd one
\ ]
H ash
Ġloc ation
ĠN ot
t ion
on es
ĠE d
Ġd on
8 5
Ch ange
Ġre ason
k s
Ġre move
ure d
ĠJ une
Ġname d
ĠAss ert
iz es
equ iv
ĠF r
ĠR ec
7 0
ase t
Ġplay ed
() :
G e
4 3
IG N
Ġd ay
; ->
a ces
Ġoff set
S cript
20 22
Ġ ~
de p
n ected
Ġpop ulation
im ate
Ġ ::
ĠN orth
Ġc ache
um an
Ġfil ename
ĠN ame
Ġh ouse
se qu
oun ded
ĠA ustral
M enu
ĠC reate
h am
b ased
expect ed
Ġme ans
l or
Ġg r
Ã Ń
Ġgener ated
Ġc rit
f s
b orn
Ġc ity
Ġe v
Ġ" \
orizont al
Ġinclu ded
Ġrece ived
Ġe as
f ill
Ġc ross
: "
Ġfre qu
) =\
ar r
Ġtra ining
A g
Ġst ar
Ġtemp erature
9 6
a uto
? :
m id
a pt
Q ue
Ġa verage
ĠA fter
div idual
ent ity
Ġse lected
th m
Lo cal
ĠA pril
Ġis s
Ġpar ams
Pro perties
ĠJul y
$ )
} =\
S H
Ġre mo
Ġ> =
W ork
> ,
Ġf ixed
ĠL og
u id
Ġover ride
Ġchild ren
COL OR
Ġcol lection
M M
Ġinv ol
X X
" ));
at form
he nt
ab s
Ġ ide
Ġb us
Ġcomp ar
ĠC ity
Ġat tribute
9 7
b or
Ġtrans form
em ma
irect ory
Ġm iss
il it
Lo ad
get her
, -
Ġs ymme
) }\
Ġsignific ant
co py
Ġwrit ten
ĠThe orem
Ġconfig uration
ro s
In st
Pro ject
Ġc or
Ġst ep
ĠS te
ap pro
Ġreturn s
s v
e v
ma ke
ber t
Ġinv est
4 1
k ind
Ġent ry
g ment
Ġw in
doc s
ĠD E
ad ow
Ġpos itive
h a
if orm
ot a
R ight
ar ies
O ne
Ġren der
b reak
Ser ial
Q L
Ġfin ite
ac ing
) ^{
Ġsol id
C urrent
ĠV al
ĠB o
Ġs ite
P e
an a
s ystem
ide d
in ternal
O ption
O p
ĠSe ction
ĠNov ember
p df
lic e
Ġmult iple
o logy
D ocument
at al
ĠU R
Ġrel ative
Ġcan not
ab ly
Ġth us
lem ma
D ir
st amp
Ġh istory
Ġe valu
Int eger
g gle
Ġs ent
ren der
r r
Ġact ive
Ġbe gin
P si
9 8
af e
on al
ta ch
i ents
n ap
Ġbu ilt
ut es
ĉ Ġ
v ant
}^ \
Imp l
I R
t ic
a uth
Ġ ...
ĠDe cember
de lete
h ash
C an
P ort
ms g
w idget
inter face
ur g
Ġd omain
en um
m ost
we ight
ge bra
Ġass ume
200 1
Ġvar ious
Ġrel ations
li ke
ĠTr ans
ind ent
Ġdescri ption
F ont
s in
Ġ ;
S O
. ~
ĠD is
ta x
w s
Ġb ox
Ġaddition al
ĠBrit ish
=" /
S ession
v ector
Ġad ded
ĠĠĠĠĠĠĠĠĠĠĠĠĠĠĠĠ ĠĠĠĠ
Ġequ al
& #
D at
Ġal ways
ick er
( :
Ġcomp et
Ġf it
C L
Ġdist ance
je ction
C P
ome try
}_ \
Ġse lection
trans form
F T
Ġvari able
R out
ĠC ont
f il
ĠM o
cdot s
As ync
R ender
Nav Bar
ĠR em
Ġo pp
, "
Ġob served
} |
co der
Ġanal y
Ġc luster
t ect
p anel
=" _
C opy
h over
Ġro t
n i
ĠLe ague
g lobal
net ic
Ġhas h
br uary
Ġset s
foot er
P os
Ġe mpty
Ġs yn
W h
sc r
Ġgroup s
Ġfact or
ch ie
Ġg alax
M O
vari ant
Ġplay er
ĠK ing
bo und
Par ser
Ġloc ated
wide hat
Ġ[ '
imension al
cent ury
Ġcorre ct
Th ere
Ġch anges
at ural
Ġn um
Ġth ird
A fter
ĠA ct
ĠD ist
ĠM on
D L
Ġl and
AR T
Ġin dependent
200 3
ĠS ince
ĠEx ception
6 8
ĠE urope
i et
ren ch
ampion ship
re p
f r
D eta
Ġd raw
{ }
r ange
ri es
un ter
ill ion
ag ing
I con
ĠP er
================ ================
f oo
Ġht tps
Ġph ot
il ities
c p
De vice
ĠB l
c lear
To ol
Hel per
Le ft
{ (
}\ ,
C ore
jo in
U B
Sto re
Ġp ay
s end
Ġass ign
'] ,
Ġbl ack
Ġtemp late
Ġj av
Ġbir ths
struct or
25 5
Ġun defined
se l
d ated
Ġrel ated
loc ity
N et
ĠN ote
Ġarg uments
M atch
Ġhand le
Ġt ree
ty pes
ĠW ith
g reg
ĠC or
oo se
c ard
w ar
Refer ence
n ormal
ern el
h ib
st and
}) \
Ġequ ival
dis abled
equ al
V ari
Ġp ut
ĠB ar
is ing
5 7
Ġst ation
ĠI I
id ence
code d
Ġsup p
p lugin
ĠCh ar
ERR OR
to String
Ġre spon
web kit
## #
c up
text width
r ule
Ġde tails
-- -
ĠB G
ĠC O
p ag
ict ure
ed ge
m aterial
Ġsur face
our s
Ġestab lished
Ġpre dict
Ġreg ular
S ign
R ect
se ssion
Ġ quest
\ "
c f
Ġ( "
ĠO ne
Ġpro f
Ġa mount
' >
c lick
ĠI m
umb ers
Ġwork s
Ġs cope
ĠN e
om orph
ance l
Ġto wn
le vision
T I
f ony
Ġa ge
Ġpl an
Ġre cent
Ġed ge
PE CT
block List
boot strap
Ġc er
z z
E Q
Ġof ten
Ġto ol
p op
q quad
Ġto ken
OR T
st ar
sup port
Ġex ception
^ +
qu are
Ġconst raint
v m
an notation
AC K
Ġt w
Ġst ore
Ġh owever
re c
Ġs uggest
M on
Ġse en
Ġpro m
p is
Ġin fo
s cal
Tra ck
Ġre search
Ġarg ument
En g
comp onent
p adding
I V
ä ¸
ur i
P R
Ġg overnment
re et
ran ch
the n
a a
equ als
x is
Ġd oc
ĠIn ter
ĠA b
re w
Ġmax imum
Parameter s
ate gy
iction ary
U s
c r
{ {\
T itle
P tr
ĠFe bruary
Ġfil ms
Ġm oment
Ġde cl
leg ate
itu de
}^{ (
tr ies
ig en
AL L
iv en
x space
set tings
ĠFig ure
200 2
Ġcomp any
icon s
p g
Ġin dividual
Ġex act
D D
M ult
Ġpol ic
ex port
Ġde vice
Ġqu e
Ġlarg er
V er
Ġent er
Ġ\ {
s uccess
Ġexp ression
he m
math sf
end ar
ĠCh rist
Ġprob ability
Ġpro posed
id s
m ore
it ect
pp ed
U se
ut er
V ector
h an
Oper ation
T ER
Or der
Ġco st
| |
av en
add ress
D raw
li er
med ia
Ġcomp lete
Ġam ong
Met adata
t ex
H ost
ĠS an
} :
& =
Ġat tack
il le
Ġ} )
row n
Temp late
ic ol
Ġset ting
5 8
Ġp ur
th at
Ġg en
co gn
k a
Ġexper iment
th ers
Ġcare er
ide s
ul ations
v as
ĠEng lish
AT A
Ġl ate
a use
T e
ĠT O
as ic
Ġnode s
D own
Ġe mb
re es
t i
I ter
ĠĠĠĠĠĠĠĠĠĠĠĠĠĠĠĠ ĠĠĠĠĠĠĠĠĠĠĠĠĠĠĠĠĠĠĠĠĠĠĠ
ult ure
Ġf l
A merican
H O
gra d
Def inition
Ġs ix
c ustom
Ġe cho
Ġquant um
to ggle
Cl asses
Val ues
co q
IN E
Ġp attern
f act
Exp ression
( {\
ĠM ap
_ ;
u ck
ĠM c
G ET
ex ports
Ġco ver
ĠBG COLOR
and id
) /
Ġsp in
F alse
Ġm ight
Ġcomp onents
hand le
Ġpub lished
Ġgame s
Ġf ive
Ġco ordin
ĠJ SON
R el
Ġex cept
H istory
Ġhe ld
De bug
Ġw omen
depend ency
S k
Ġsupport ed
Ġnot e
Ã ¼
Ġv ideo
a fter
Ġac cord
Ġbet ter
5 00
Ġac cept
Ġvari ables
-- >
d im
ym fony
Ġin line
ab or
st ore
Ġa chie
cit et
co in
st ep
Ġ$ (\
ĠA rm
Ġsw itch
re q
ar io
Ġbe gan
ra ction
App lication
g u
ĠJ ap
ĠĠĠĠĠĠ Ċ
H as
ition s
Ġwe ek
ca de
ĠS ch
Ġon ce
pre c
ac cess
Ġto gether
res ol
ĠS ec
Ġl iter
urre n
In valid
Ġg l
Ġpar se
ĠH igh
Ġca pt
ord ing
re place
rid ge
> ();
al led
Ġne cess
Ġd r
ard s
Ġl im
AT H
Ġp ack
Bu ild
Ġb it
Ġcontin ue
ĠO R
Hand le
X ml
S tack
et er
as sed
frame work
te ction
str ict
N on
8 6
m ic
ul ated
Ġname space
8 7
re cord
ĠC heck
A re
A pi
p lugins
ĠB ut
pos itory
ĠJ o
="../../ ../
ĠT able
Ġpri or
Ġto ok
5 6
ip el
et ime
i ag
Ġh aving
S w
ed s
ub e
ri ef
use s
P l
Ġclo sed
em s
line ar
Ġmed ia
ĠM ore
Ġg ive
Ġrepresent ation
ĠH is
s ort
ers ist
Ġw ater
a o
ĠTr ue
mit ted
Ð° Ð
Ġde lete
umer ate
Ġh o
Ġcl ub
Ġun ique
Ã ¤
Ġsuccess ful
D F
L ong
Ġdat abase
g s
ss ages
appro x
Ġen vironment
ix t
i ke
Ġlo ss
I F
con nect
Ġfa iled
Ġj ob
Ġim ages
C S
) -
Ġcon tainer
B O
c ategory
}\ \
D ialog
ast ic
stro y
Ġf ac
100 0
Ġcon ver
__ (
ĠD ep
Ġun signed
ĠSe e
Dec l
ond on
rag ment
OR D
` .
Ġspec ies
d r
} '
} "
at tribute
field s
arg ument
Ġp ract
arri ed
ot ed
Ġapp lic
f ocus
ĠD ate
c ial
y ear
P T
ad min
S ION
ĠEX PECT
con nection
ĉĉĉ Ċ
ex ception
Ġd irection
] $
ĠT ime
ĠS tr
ĠP o
Ġ& \
W E
Ġv ill
199 9
Ġerror s
Ġbuild ing
SE T
Ġ engine
by te
Ġmem ory
operator name
ĠS T
Des cript
Ġhe ader
Ġto o
b le
ic o
ve y
Ġby te
FA ULT
Ġc amp
N ote
He ad
ĠC ON
y al
Ġinv oke
Test s
Arg ument
K ind
c md
}} (
i os
Ġbound ary
ch ron
Ġs end
P arent
j ust
Ġj son
Ġopt im
Ġse ssion
P S
Ġname s
-------------------------------- --------------------------------
~~ ~~
Ġin d
Ġdirect ory
( *
he lp
lap se
P i
ĠS ub
ann er
ic ip
Ġab le
cc ording
OR M
h r
ĠL emma
id ing
ĠM od
Ġst op
Ġac cur
Ġm aterial
ra in
ĠP e
Ġtak en
t ip
k er
Ġo s
Ġf ig
f n
Ġby tes
Name s
ach ine
Ass ert
Ġr ank
Ġtrans action
c orre
V ar
Ġle arning
Ġch ain
En abled
li de
sh ift
Ġ il
Re ader
Ġat temp
Ġac ross
R oot
Ġwh ose
Ġcol l
b oolean
Ġsub ject
o sed
ĠL a
ĠS y
B C
ĠĠĠĠĠĠĠĠĠĠĠĠĠĠĠĠ ĠĠ
> .
app lication
att le
Arg s
l ines
R A
up le
; <
A ut
S te
Ġy ield
Ġrele ase
Ġal t
Ġact iv
S y
f ull
Ġ Ã
x x
Ġvol ume
B oolean
f ree
ĠF irst
Ġ" /
a ff
Ġp anel
ot es
' ))
Ġf uture
Par am
ri end
Ġaut om
Ġprodu ction
Ġuse s
av y
do uble
C M
f ord
Ġl ik
Ġre pl
5 9
am era
clo ud
b ers
ind ing
C lick
Ġdevelop ment
c pp
d x
B ody
ne y
Ġ( '
C A
Ġup per
Ġset tings
Ġr ule
de st
oun g
al low
r ate
By tes
ho od
qu ires
sq l
Ġelect ron
un ch
ag ger
oci ation
ed it
ĠCol lege
Ed it
icro soft
it ter
EN D
G raph
ch or
vir tual
en ch
} +\
in line
M ock
L IC
S D
Ġp ackage
J ECT
ĠE ast
call back
Ġh alf
W riter
Ġ+ +
Result s
act ers
Ġrun ning
Ġreg ister
reg ister
ĠW illi
E M
Ġs ay
ing ton
mo ck
ature s
Ġwe ak
Ġdirect ly
8 9
M e
m ine
By te
Ġre lation
ist ration
Ġin s
ĠA ir
Ġ$ {
sup er
ĠTh us
Ġn ational
Ġapp ly
Field s
itt le
ĠHT ML
p ub
Ġg round
Ġsy mbol
ar p
h space
Ġcl asses
Ġn ov
Ġth read
Ġfor ce
mo oth
AN D
Ġre view
U RE
Ġaccord ing
ra dius
}} {\
a ul
Ġa ir
h y
SS ERT
De lete
i ol
ĠWe b
lang uage
em ail
P H
~ $
Ġro und
Ġlay er
ĠE rror
P olicy
ĠM y
") ]
t w
Ġequ ations
P ackage
} -\
Ġgiv es
Ġst ars
Ġp at
ut able
ograph y
N um
m argin
âĢ Ķ
n ost
ĠF rench
ru pt
Ġprodu ced
item s
key word
Ġde s
\ '
ip p
ĠL ondon
5 1
ro ad
R ule
Ġcent ury
Ġden ote
ĠAr t
ĠA g
Ġco e
inst all
u ff
Ġpre c
Ġf ar
urn al
Ġg row
n eq
; /
ache s
Ġthere fore
resh old
om ial
TE ST
Ġ' /
ĠH er
Ġw allet
5 4
ri p
Ġke ep
Ġd imension
ĠP ark
Ġm sg
Ġre port
R ed
Ġallow ed
sh ort
Ġdeg ree
z er
] \
com ment
ipel ine
Ġper formed
p assword
nap sh
i us
ĠB ase
Ġstart ed
P ost
Ġ ir
an ish
Ġh ard
Ġ ign
in sert
ĠĠĠ Ċ
Ġallow s
S L
Dis play
Ġser ved
ĠR ed
ump tion
ĠH ar
Ø §
reg ion
Ġprovide s
Ġag re
Ġed uc
ĠL O
Ġme chan
tra ck
T ab
Ġext ension
clus ion
h s
Ġdescri be
S ince
b ul
"" "
i ef
ĠS k
7 6
Ġ< =
Ġ- \
4 00
Ġact ual
h igh
drop down
Ġint eger
oo st
el low
Ġeffect s
ĠI O
Ġ{ };
imp l
en umerate
ĠO pen
Ġhold s
Ġan no
du c
mod ules
Ġs cript
wh ite
` ,
Ġd a
ĠĠĠĠĠĠĠĠĠĠĠĠĠĠĠĠ ĠĠĠĠĠĠĠĠĠ
A p
F R
Ch anged
D oc
h ome
r d
Ġjav ax
M ark
ĠQ ue
Ġne ver
"> &
ro me
ĠR equ
Ġwe b
Ġapp lied
de sc
Ġitem s
i ra
EX T
form s
Ġne eded
a iled
$ }
ĠN OT
n umer
ut or
h older
ĠE vent
) }{
Th at
o ph
am a
c ar
HT ML
Ch annel
proto buf
Descript or
in n
Re p
ch annel
res ses
ĠA mer
St orage
=" "
let ed
Ġexp licit
le ms
Ġbut ton
in itial
M eta
b al
ate gor
no indent
Ġne igh
Ġsign al
ĠF rom
ir it
Ġcon vert
Ob j
ĠH ouse
ilit ary
re al
N N
Ġf und
Ġde st
Ġht ml
at ively
ĠM ark
ĠD av
ĠM ath
Ġbehav ior
B A
result s
199 8
Ġe lection
Ġr ather
Ext ension
ock et
u a
ĠU ser
Ġm en
G E
W idget
alle l
Ġcer tain
Ġb tn
ser ial
KE Y
ĠL ib
unc il
8 2
7 2
Ġexp lo
r is
n one
ĠI mp
Ġw ide
Ġemp loy
com m
ub y
Ġen ough
sol ute
o unt
d imensional
er ing
Ġcent ral
| ^
item ize
Ġh app
ĠV alue
ad s
Ġcon tribut
o om
O K
5 2
C re
}} }
=" @
Ġother wise
the orem
as sets
C al
Ġimp lies
Ġbro ad
ip s
Ġcon nect
ly mp
C ustom
b and
ĠA L
Ġb orn
Ġb ar
S A
Ã ¶
Ġcurrent ly
Ġso ftware
) +
ĠP y
Ġassert Equals
Ġdist rict
Ġn et
Ġeffect ive
inc ip
new command
w ner
I X
J SON
u el
ĠCh ampionship
' $
à ¸
Ġinclude s
TE D
E ach
Ġs co
8 4
ĠG roup
Que ue
ĠP res
d omain
sum er
AG E
her it
pro duct
=" ">
3 00
Ġsp lit
Ġap i
Ġp ress
ĠP ort
( !
Ġte levision
mult icol
Ġg as
Ac count
Ġm atter
) }$
Ġmult ip
cre t
= (
Ġser vices
sc roll
ut f
ĠR uss
ĠUR L
Ġcomp ared
Sh ow
B ound
led ge
ĠDist rict
ĠR E
Ġra ise
J ob
Ġmag netic
Ġcoun try
Ġad min
Ġtrans fer
S um
S ymfony
Ġn atural
Ġp assed
}} _
Ġn orth
Ġve locity
Ġcon struction
Ġpart s
ĠN or
] ]
Ġexist ing
M sg
key s
* )
ill s
j query
multicol umn
Ġan g
ic les
at ives
Ġd b
ynam ic
g rid
Ġp y
ts d
W hen
un signed
ado op
==== ==
Ġpolic y
Ġs ort
Ġdiffer ence
Ġpresent ed
ar ing
CT ION
ĠS ome
Ġb g
rap per
re mark
C lo
Ġs ources
Ġgener ate
L ock
Ġn umbers
Act ive
Ġst ack
Ġ$ .
ĠĠĠĠĠĠĠĠĠĠĠĠĠĠĠĠ ĠĠĠĠĠĠĠĠ
ul ly
Trans action
Ġent ire
Ġre ported
rom ise
N e
Ġsmall er
an ded
add r
\ ,\
sh ape
th read
s ite
sp ring
com ing
ĠC re
ut ed
[ :
ix el
Ġoper ations
ion al
Id ent
Ġ ),
def inition
N ow
Ġsh ape
Ġstr ict
cre te
B l
D ist
ĠC up
Ġpro ve
Ġmak ing
ser ve
ĠM ed
F ound
st ats
FI LE
f ly
que ue
199 0
um in
l us
ang er
The n
ĠF orm
F lags
ly ph
d en
un n
= -
atist ics
Ġcontain ing
min us
Ġor igin
Ġexp ress
Ġd ays
S U
pro du
s ive
Ġac c
Ġw ord
Ġwh ite
Ġestab lish
ans ion
con s
pis ode
v space
aw s
Ġv ers
P RE
7 8
ĠS pec
w in
ert ific
{ $
Ġlead ing
if orn
ĠR ef
ĠPh il
5 3
at ory
ĠS um
fa ces
Ġal gebra
Ġle d
ĠIn ternational
Ġr atio
Ġcon v
Ġa mp
9 4
co very
F loat
ick et
In itial
ĠSer vice
ter m
Ġintrodu ced
comp onents
Ġpro file
Re quire
Ġdistribut ed
Ġcommun ity
By Id
in f
Ġh uman
Ġm ock
@ "
16 0
P ATH
VER SION
ĠO ut
Time out
O M
ul ate
Ġbas is
Ġanno un
Ġw ave
M ain
en a
ar ily
L S
. )
ĠI S
Ġit self
Ġde sc
Ġspect rum
Ġh om
Ġa uth
ĠGener al
import ant
Ġcon sole
Ġs on
da pt
res ents
Ġpro ces
pr imary
iforn ia
) ),
Ġsol utions
math scr
N etwork
Ġwork ing
Ġh istor
Ġinstance of
Ġcon c
' .
Ġm ot
Ġmov ed
S o
Ġch anged
ar a
om s
Ġk ind
25 6
point s
Ġw ar
Ġ% }
9 1
b urg
ce l
lo or
ĠDef ault
ĠB er
Ġvert ex
S end
land s
E l
ile s
ĠF alse
h orizontal
IT Y
ĠM odel
b ot
Ġme tric
est ed
tx t
Ġs outh
Ġcon nected
pre t
Ġpr imary
leg al
Ġsc en
inal ly
9 3
Ġbus iness
ill a
ĠD iv
ĠP ri
hent ication
ĠS ci
pro d
Ġlib rary
text tt
. *
B R
Ġdi ed
P op
9 2
s ave
o ss
one y
trib ution
L ib
im s
Ġe volution
Ġinf lu
Ġchar acters
\ }$
Ġinter val
Ġdat aset
Ġdevelop ed
l g
la ces
Log ger
Ġestim ate
S ing
Act ivity
h adoop
f amily
Ġimplement ation
oci ety
im ents
G S
se lected
In d
c b
v a
ĠThere fore
] :
)) )
Ġth ough
ber g
or ge
us ion
199 6
P erm
ĠM ich
Ġ\ ;
Ġf all
() {
An y
pro perties
ĠR iver
Ð »
ul er
ic ult
Item s
m as
P A
Ġrad io
Ġa ff
os en
Ġmult i
Ġne ut
Ġc ame
Ġy et
C R
Ġs itu
av or
Ġequival ent
: \
bs ite
######## ########
ify ing
X T
Ġc andid
Ġus ers
() ).
Ġarch itect
Pe ople
ĠH o
P ool
Ġser ial
- $
sche ma
LO G
Ġst age
Ġtak es
p ress
Ġs ure
ac count
C ur
199 7
B it
l imit
yn tax
if est
ang uage
Ġpo inter
IN FO
ĠInd ian
Ġs creen
//////////////// ////////////////
se ct
y es
P ol
) ).
re ater
qu es
w rit
ĠMet hod
ĠE l
_ ->
ang o
ĠU se
Ġre place
cont roller
Ġapprox im
$ /
h i
Ġg reat
Ġtest s
Lo ader
G B
Ġext ra
al ysis
Ġre m
ĠK ey
use um
++ ;
T ABLE
Ġ[ ];
n orm
Ġhand ler
th rows
Ġmak es
ent er
P anel
at ically
ĠĠĠĠĠĠĠĠĠĠĠĠĠĠĠĠ ĠĠĠĠĠĠ
Res ol
ĠP l
Ġb ottom
A uth
cor ded
Ġ( *
g ence
y a
Ġs ocial
al loc
S cope
Ġvill age
AD D
() ));
U ID
ĠF ield
st op
Ġse m
CH E
ition al
ĠF ran
Ġprob lems
G rid
co ur
On ly
Ġn g
Ġb r
napsh ot
Ġphys ical
Ġexpl ain
Ġde cre
a ign
ache d
}} ,
Ġw est
ĠS im
Ġin side
Ġincre ase
ak er
6 3
ma ster
p ay
Ġbecome s
T S
ĠCal ifornia
Ñ ĥ
$ _
RO M
Ġmin imum
ĠEng land
En um
Ġ\ |
Des c
< \
Ġquest ion
type of
_ ,
Str uct
t mp
. __
il i
b on
st ers
for ce
Ġw ords
Ġneed s
ex ternal
net work
os ite
event s
! [
lu str
Ġpartic ip
ĠG r
L java
Ġlo op
M edia
in v
he st
bl ack
Ġh ar
pro file
Ġfrequ ency
under line
Ġde mon
Ġm illion
Ġpro gra
P ack
S IZE
au ge
p are
f lags
M y
ous ly
L P
Ġra dius
Ad apter
web pack
Ġal most
se quence
ed itor
stit ute
In ternal
AR Y
n es
Ġright s
s ur
c rypt
Ġf ocus
Ġc ut
w ild
Ġqu al
if ies
in y
Ġsatisf y
amil ton
medi ate
ane se
Ġemb ed
sec urity
Ġgo al
Ġw ait
ach ing
D irectory
Ġa ffect
Ed itor
Event s
Ġs ens
tr igger
n ce
Ġar bit
ï ¼
M ar
Ġpe ak
In it
in i
N G
Ġc ref
} </
tr m
e ach
ç ļ
Sec urity
sc reen
)) );
Ġnecess ary
Pro tocol
d ers
Ġkey s
re me
ĠW ork
Ġo thers
art s
Ġn uc
man ager
F il
M ember
Ġun its
Ġcomp ute
Ġa void
ĠO b
Ġlo ck
Ġb al
Ġco re
M ENT
MA X
Ġe lem
Ġcon duct
W S
Ġd im
z ero
R et
Con f
ĠC our
çļ Ħ
Ġre quires
Ġt reat
att ice
ĠO per
L iving
tex trm
av ed
Ġat tr
her n
p id
ĠT ext
Ġdoes n
s ure
Ġreg ions
6 2
em ents
ers hip
tab s
g it
p icker
au ss
SC R
ight s
Ġre cogn
ook s
Ġgalax ies
Ġv o
k w
and s
Ġ{ '
e cho
Ġa way
Ġat tributes
enc ed
Ġcomplet ed
Ġent ity
ĠA m
j ob
miss ions
yn omial
Ġneg ative
iv il
Hel p
art ment
Pro xy
Ġex ternal
Ġframe work
b es
ĠM ag
c u
om y
tot al
c ut
assert Equal
ession al
Ġ icon
199 5
on ic
ĠA p
and ra
in ct
Ġe ast
no logy
J o
ens ive
h old
Ġb inary
Ġre c
Ġed itor
Ġm id
Ġtr ansport
Window s
8 1
ĠEn d
ĠH el
Re ce
hand ler
33 33
a el
Ġpop ular
ob ile
B rowser
Ġflu x
Ġdis k
ad ian
8 3
-> _
a ur
Ġc red
by tes
equ ence
un ded
st e
m atrix
ĠO ption
Ġ _{
assert Equals
ixt ure
Ġdetermin ed
Ġf em
'] )
Ġle arn
Ġs amples
The ta
Ġof fer
Ġoper ators
Ġf ront
Ġiss ue
}^{ -
NavBar Cell
w est
Ġ Â
j ar
Ġext ract
log ger
r f
p k
z on
7 9
Ġcont ra
.. ..
b rowser
S R
k ing
ĠAustral ia
%% %%
sw itch
Ġpartic le
Ġpro per
is ation
Gener ic
it ing
Ġ= ========
h idden
at ible
ĠRep ublic
iss ion
File s
e ffect
Ġbg color
Ġch oice
_ (
bl ue
get Name
Ġder ived
Ġ io
Ġstud ies
A uto
u de
Ġwrit ing
Ġf lag
[ $
Ġs l
7 3
Select or
Ġd ig
config uration
Ġresult ing
Ġd ir
Ġal loc
}} _{
ĠB ra
v o
iz ations
ot al
is k
the me
198 0
M atrix
P P
Ġst ory
I E
Ġcomp act
I B
subset eq
foot note
ta int
Ġmiss ing
Ġcrit ical
are a
or ity
Ġal tern
ĠC opy
ĠPart y
Ġtak ing
Not Null
ell ar
id a
Ð º
f it
N E
Ġsign ed
Ġf unc
Ġm ale
=" ${
Ġstud ents
C lose
ĠM al
UT F
Ġst re
BU G
parameter s
cont in
Iter ator
Ġunder stand
Ġdemon str
ang ular
P attern
Ġar r
Ġpl atform
or ary
Ġab solute
Key s
Ġremo ved
P lugin
ĠTO DO
j a
ĠA f
ĠB r
P AR
D uration
Ġthe orem
T C
ĠB el
ST AT
Ġspe ed
B efore
Ġin fin
Dat abase
Ġin ner
o ch
', '
or al
Ġsche me
v ille
ential s
u med
F C
7 4
ĠIn itial
Ġf n
ant ic
Ġc ast
Ġoffic ial
Lay er
Ġder iv
Ġ ×
ĠV AL
_ +
Ġw aves
Ex pr
act or
de ed
In v
d irect
Ġobserv ations
ĠV er
Ġcoun ter
Ġen coding
s pe
Ġh idden
Ġinter action
ĠL android
d p
k m
ĠAr g
Ġe mission
Ġe pisode
sp h
Ġ$\ {
o ught
Ġs old
e le
r ift
Sc roll
sw arm
ĠI P
Ġstruct ures
D et
Ġun iform
p ing
Ġin ternational
Ġstart ing
overn or
Ġincre asing
V ol
Com mon
F ailed
Ġwrit er
col lection
6 9
J ava
f ail
Ġr ules
Ġp ast
To String
con tains
ĠĠĠĠĠĠĠĠĠĠĠĠĠĠĠĠĠĠĠĠĠĠĠĠĠĠĠĠĠĠĠĠ ĠĠĠĠĠĠĠĠĠĠĠ
Ġimplement s
ĠAs sembly
wild fly
Ġcur ve
R est
ph er
ew idth
Ġ( -
b ad
pro ps
ĠN ode
ap s
ther n
Sy mbol
Ġf ather
Ġdiff icult
y r
X ML
ut ing
ĠRe act
lim its
Se ction
ex ists
Ġ( $\
pe at
Ġcom ment
Ġw ent
Po inter
6 1
199 4
Ġv iol
d ro
z a
ĠCan ada
ĠIn st
Ġde bug
de g
Ã §
C RE
Deta ils
M apping
", "
Ġrep resents
tool s
Ġe igen
Ġtra dition
ĠInd ia
wrap per
Ġc ategory
ĠO ther
Ġdeter mine
get Element
col Last
ĠO lymp
nav List
ĠFr ance
se ss
Ġuse ful
Ġinvest ig
l ers
r atic
Y ou
; "
lo ader
h om
ĠG ra
Ġcont ract
d ialog
ĠN O
Ġl ive
Ġlong er
t ical
ĠCon fig
Ġcomp are
k et
Ġe q
Ġrelations hip
h ide
ĠA ward
AC E
ĠA ccording
Ġtr ansp
Ġus ually
Mem ory
ar ation
Ġg auge
Ġal though
Ġvert ical
Ġa xis
) ">
P ORT
Ġtech n
Ġs mooth
ĠP al
Ġpro ced
ĉĉĉĉ ĉĉĉĉĉ
Ġdeath s
met adata
ĠA c
At tributes
Ġgra v
Fe ature
Ġannoun ced
D est
S uccess
Ġno ise
ĠAmer ica
M B
sh adow
as hed
Ġ" "
Ġout side
fo und
proto col
Ġo l
comp lete
Se cond
d agger
if old
ĠR oman
app ly
S cale
Eng ine
col First
tr ie
Ġun known
ĠS to
ax is
Ġare as
ĠCh urch
) |
Ġres ources
SCR IP
Ġf ix
Ġ" <
el li
Ġa wait
D S
Ġbel ong
ific ations
Ġ ensure
Ġdepend s
print f
F ail
Ġcomp an
Ġbu ilder
Ġg rid
Ġsimp ly
Ġmat ches
Trans form
iter ator
r ated
D A
v c
ĠEurope an
b its
Ġt en
du le
circ le
ro py
Ġbe h
se ud
Ġhe alth
k ens
col lapse
Ġin valid
Ġchar ge
ance ll
ĠV ersion
ĠS m
ĠWilli am
ĠC all
p ass
Ġ$ |
Ġas ync
Ġme et
Ġset up
Ġxml ns
par a
S ync
Ġclass ical
Ġd omin
Do uble
Re pository
Ġdisc us
wh ile
Ġ ri
ĠArm y
Ġ Î
Ġrepl aced
om as
Ġre q
pro vider
Rout e
ang ing
atal og
g ba
Ġlo st
al o
7 1
) "
align ed
} %
Par se
r b
in et
Ġe ff
ist r
Ġb ranch
co unter
Ġco me
lo op
not ations
ing u
Ġdisc uss
Ġsu fficient
S im
ro t
ĠĠĠĠĠĠĠĠĠĠĠĠĠĠĠĠ ĠĠĠĠĠĠĠĠĠĠĠĠĠ
ect ors
Ġcompar ison
P L
an o
Ġco q
R ad
Ġhe nce
ĠH ere
en ing
Pr int
ĠP re
Ġb ig
fil ename
ĠD em
con struct
u it
Ġup on
Ġre strict
199 2
E q
Char acter
y mp
ĠSt reet
Ġvis ible
at ial
ĠBu ild
' \
ĠE ar
ĠV iew
ag o
Ġa dapt
ab ilities
Ġman ager
Rem ove
Ġstud ied
ag raph
Ġpartic les
S ER
ĠCo uncil
Pro file
ce ed
f ixed
Ġt ensor
ertific ate
Ġra di
par ser
Ġ( _
Ġd riv
set minus
Ġun cer
pro tected
u ed
Ġn ative
de cl
Dep end
å ı
g reen
Ġm ention
197 0
Ġmap s
Ġbel ie
Ġf ire
Ġsh ift
LE CT
N ULL
Ġpart ial
p refix
. '
Ġk m
F ull
et h
id ers
199 3
Ġsymme try
d y
Ġblock s
Ġext ended
l is
Back ground
ĠA nt
ĠUp date
ĠC ode
ur a
Ġbas ic
Ġto po
Ġpre vent
j pg
Ġmark et
g i
il ation
Ġhy per
Ġf lat
Ġfinal ly
Ġ= ======
P ay
Ġpro gress
r ine
Ġcontinu ous
ĠT ask
ra se
d ates
I MP
Ġ" ,
con trib
D iag
Ġ[ [
ĠG oogle
aj ax
F IG
Ġprevious ly
sh all
M ore
P Y
Ġgo ing
ategor ies
scri be
Ġpolit ical
ĠS ing
12 8
head ers
Mem bers
Y ear
V M
re set
RE AD
S che
ĠĠĠĠĠĠĠĠĠĠĠĠĠĠĠĠ ĠĠĠĠĠĠĠĠĠĠ
e ff
C I
re spon
Ġex amples
Ġe con
bul let
ro te
ĠF unction
U LE
VAL UE
re y
A v
( __
ĠP ublic
child ren
all classes
it ar
op lus
lin ewidth
Ġlarg est
H ER
Ġlik ely
ut ive
con n
ON E
ĠRe ad
mit te
ce ler
Ġde al
Ġet c
ri a
Ġse gment
st able
Ġopen ed
Ġconstraint s
omorph ism
Ġg ain
; }
v s
Ġcour se
Ġ ess
t ml
Ġsize of
Ġfollow ed
ĠWh ile
a res
12 3
ĠIO Exception
ill ing
Ġc lean
l as
Ġch all
p ool
^ -
tr ics
F unc
or ing
type def
w edge
S Y
Ġcon cept
P assword
out hern
ĠM or
exec ute
ri al
Ġse qu
Ġil lustr
CHE CK
p icture
Ġbl ue
Ġpol ynomial
ĠA R
S QL
ri an
Sp ace
p ic
ĠH amilton
Ġnov el
ree k
Ġpass word
\ }
un icip
Ġde ep
Ġ? >
Ġconstruct or
O pt
n il
require d
Ġen abled
Ġs ave
str y
ĠJ ames
k o
ff ff
ĠCent er
M D
ens us
g g
y e
ffic ients
^{ -\
ĠR ich
gener ated
er ies
Con dition
Ġwho le
w ell
Ġstate ment
Ġ util
iz able
Ġm otion
Ġfor med
Ġb ounded
Ġro ute
S ocket
x s
Ġp ert
ri e
an i
Ġp lot
Ġ$ [
> :
f lu
t body
s pect
Ġtype of
W A
at tributes
ĠI d
ĠI E
wo od
sv g
-------- ----
* {
Ġsc atter
ĠBl ack
R untime
Ġn orm
Ġpro p
Ġs core
Ġwork ed
Ġrepresent ed
ĠH and
Ġwe bsite
A X
v ideo
Ġvert ices
ĠA N
' re
Ġfor ms
Ġtyp ename
ĠUn ion
Ġapp oint
Ġse cur
ĠĠĠĠĠĠĠĠĠĠĠĠĠĠĠĠ Ċ
Const ants
Ġst e
riter ia
ĠB ro
ĠH ol
Ġsh ared
FF FF
S eg
Ġarbit rary
Ġoption al
? >
Pro ps
Se lected
Ġl ittle
ĠDav id
~ $\
Ġme as
Ġt ab
ĠD r
Ġcon tact
Ġm ut
ĠM at
Ġpro tocol
F in
m ag
m aven
log in
comp iler
F L
ĠE mp
=" $
Ġch oose
al ian
ime d
N OT
j d
Ġf ully
act iv
State ment
ĠL ong
Ste p
Gener ator
st o
ĠS en
Ġst orage
Ġth ink
ĠZ e
_{ -
P lay
CE SS
_{ (
Ġu i
ĠF ound
ĠGe orge
Ġl atter
ĠM er
Ġjo ined
b i
">< !--
ĠĠĠĠĠĠĠĠĠĠĠĠĠĠĠĠĠĠĠĠĠĠĠĠĠĠĠĠĠĠĠĠ ĠĠĠĠĠĠĠĠĠĠĠĠĠĠĠĠĠĠĠĠĠĠĠĠĠĠĠĠĠĠĠĠ
Ġmin im
SCRIP T
Ġapp end
Ġlevel s
name s
P refix
Ġde but
Ġin c
Ġpres ence
mult i
F LA
Reg ister
ĠSt ud
tag s
_{ {\
Ġd ark
G R
Ġident ity
Pro duct
j ango
ĠGet s
Ġrema ining
Ġdiscus sed
incip al
Ġn or
(' .
ĠA ND
G lobal
k i
ĠB ay
Ġapprox imation
Ġde signed
< !
ec ause
l ates
pro gress
sequ ently
ĠAss ociation
ĠĠĠĠĠĠĠĠĠĠĠĠĠĠĠĠ ĠĠĠĠĠĠĠĠĠĠĠĠ
Ġan n
Ġfig ure
H R
lo od
Ab stract
() </
ĠPro ject
Ġs ound
S equence
Ġch osen
ĠPro v
Ġact ually
Ġpolit ic
ro le
serv ices
Ġca use
ap os
Ġform ula
Ġpre d
let ion
Ġpar ser
ĠP aul
' _
n eg
' }
Const raint
if fer
ass ign
r andom
ph one
Ġ" -
Ġpart y
= >
Ġexp ansion
app ed
ock er
ĠDiv ision
Ġque ue
bu ilder
Ġ ip
auss ian
Ġcon tribution
Ġg ot
I ST
Ġsatisf ies
. ");
el f
cd n
m ask
pl atform
ĠH all
o log
k y
Ġd rop
199 1
Ident ifier
_ *
J S
om b
Ġnumer ical
Ġcol lect
j unit
Ġrema ins
or ter
> ::
e ch
ĠAr ch
d one
numer us
Ġ ^
numerus form
Se lection
Ġp ul
il led
TE XT
Ġcons ists
Ġme ssages
Ġpl ane
iv ial
F S
clu ster
let on
Node s
Ġimp act
r uby
so cket
Ġredu ced
{ %
sub figure
O ther
Ġm ask
IN D
ollow ing
ĠM ac
P erson
Ġtask s
Ġm ilitary
Vari able
Ġde tail
prec ated
ĠI l
ĠD uring
user name
Ġmag n
ra b
ĠS O
gorith ms
ĠO ver
Ġmatch ing
Ġappro pri
struct ure
Ġ} \
Ġnav igation
" `
Ġcoup ling
pro b
ash ington
ĠA ng
Ġper cent
Ag ent
gra de
Ġgra du
z y
Ġra il
li br
ĠG o
sw er
Ġf ace
Imp ort
Ġexper iments
Ġed ges
Pro p
Pro to
spring framework
ĠW il
ĠTh at
ĠRo yal
Ġvis it
ĠCh ina
ĠPres ident
oc aml
ed er
H ere
Ġpair s
D omain
ident ifier
Ġ[ ],
Ġmeasure d
cre d
ack son
Ġdynam ics
ĠAl so
Ġsecur ity
Ġe m
Ġm iddle
Ġre corded
is ms
Ġfin ished
Ġapplic ations
Ġa ctions
Ġs ense
Ġhe l
cover ed
gener ate
Ġag ent
view s
low er
mo z
he ll
D C
pec ially
Ġc tx
Are a
and er
( --
id x
her ited
ĠF il
Ġcorrespon ds
Ġh yp
ĠM em
w hen
Ġm arried
Ġw rote
tain ed
Ġrun s
.. .</
Ġlog ger
Ġspect ral
Ġad opt
At tr
Ġpart ition
s ince
Ġj Query
PRO JECT
Ġdef e
Ġor bit
de tails
big g
Ġfor ward
Ġscal ar
E C
pre v
B AR
ort un
ann ing
Ġcorrespon d
Ġnull ptr
Ġup dated
cond ition
Ex pect
Ġs m
test s
Ġlim ited
Tra ce
Ġex hib
Ġsim ulations
AR N
h ref
Ġt x
R ole
Ġ| \
Ġcal c
r ong
ð Ł
b g
ĠGerman y
ĠRequ est
Ġan gle
ĠInt eger
ul k
ier arch
Ñ ı
ST ATE
Ġappe ars
f x
urren cy
error s
ĠM art
\! \!
Ġf raction
AL SE
are t
Ġiss ues
text sc
Ġl attice
Ġmet adata
Ġmon th
S imple
Ġst eps
R AN
Ã³ n
ĠN AME
ak ing
ĠRes ource
ark s
Ġdirect ed
ĠD el
ine se
ie ce
u an
oll ary
mitte e
) {\
ĠReg ister
Ġstre ng
air s
s ample
CT YPE
res ources
ĠG reen
p u
ĠM essage
Ġde stroy
ĠV ir
not es
Ġde tection
Ġconsist ent
Ġe mail
ĠCom mand
Ġform ation
Ġcomput ed
Ġver ify
ĠH ash
B P
Ġcall s
Ġtr igger
Ġb rowser
Ġcalcul ated
ca pe
Ġre ct
l arge
Ġ' <
Ġamp lit
ĠHT TP
Ġs il
ch ain
Ġproces ses
Ġte ams
ma c
Ġtest ing
O UT
Gener ated
Ġid x
en ed
M OD
ĠV ol
sh ared
Ġde lay
h ing
en able
Ġmoment um
Ġresol ution
Ġ ],
sy m
is ions
cal led
mo use
Ġre trie
lo ts
Ġto wards
ole c
check box
Ġ{ {
Ad min
ĠA SSERT
ĠPro position
Ġs s
Pro gress
mo b
M at
Ġin variant
ĠJap an
ric a
UR I
all s
oc ation
w ik
Ġpar am
er ve
for ward
ask et
ick s
Collection s
ĠAustral ian
Comp ar
A uthor
Ġfe ed
Ġh it
Ġuncer taint
index Of
f lag
refer red
it able
ĠM ax
1 20
el i
de c
), \
fr ican
on ical
ĠL ou
Frame work
Ġre ve
Ġgr ant
x html
Sum mary
d iff
ĠTe ch
ĠJ ava
Ġdep th
; ">
Ġlead s
le ep
Ġcolumn s
un ique
f d
Ġde tect
ĠO ur
Ġset t
: #
end or
Ġgener ally
Ġsp aces
sc ss
P y
Ġaccur acy
E rr
C ategory
ĠR un
p an
U SE
ĠT HE
st orage
ĠP ub
de tail
Ġcontinu ed
g ments
N A
if def
' ));
l ated
script or
Ġrespon s
Ġs us
Ġm is
) }(
ĠW indow
Ġopt imal
Ġf riend
Reg ion
lat form
ct rine
Ġinst alled
it a
O B
ĠD on
re lease
Ġsign ature
ome tric
Ġtra in
Vis ible
it o
Ġf amil
Ġs amp
art icle
ig ration
Ġfore ach
ar ter
se y
Ġhead ers
ten ded
ĠEx t
ph ot
Ġde part
Res ources
$ ^{-
l am
f lat
ĠD ec
Ġp refix
Ġre main
sub subsection
medi ately
(' /
HT TP
r ices
vent ion
Ġab stract
Ġestim ated
M C
Vert ex
en abled
ĠArray List
ing er
Ġchar set
Ġdirect or
p a
ĠComp any
ĠL ine
sing le
b rief
Reg istry
Ġf lags
Ġeas ily
N T
Ġm ar
Ġexperiment al
Ġnetwork s
ir med
) ->
print ln
ĠR ail
ĠDep artment
ta iled
case s
)\ ,
Ġc lu
Text ure
Ar t
Ġf ast
Ġ[ "
U ri
et te
ĠLO G
Ġread ing
Ġact ivity
st ant
Ġreg ard
as ync
ex pr
pol y
s ys
ĠJ er
Ġstr ategy
im in
R R
Ġm ix
h ar
t wo
ĠIn stitute
ugh ter
c lean
Ġh on
man n
Ġt ell
ĠN ow
umn i
198 9
in valid
TI ME
ak es
ĠL eg
Ġprof essional
ĠIn dex
Ġinvol ved
Ġun less
Inst all
z one
Head ers
s ome
L INE
ĠR ad
Ġon line
Ġdec ay
. âĢĿ
ĠH ence
li ance
m c
Ġra ce
Ġthrough out
Ġs quare
ifi ers
P layer
L a
ĠCom mun
ir al
f ix
Ġpro xy
}} (\
us ers
St ats
Com ment
it z
group s
ex tern
L android
j i
ĠT V
Ġ\ (
at ur
Ġth reshold
Ġrele vant
ov a
Ġprodu ce
ĠL aw
Ġmon ths
DE FAULT
ĠH ttp
at o
ĠA cade
Ġpol ar
âĢ ľ
Ġch arg
fe ature
ĠSe cond
ã Ģ
Ġcoordin ates
c is
Ġeduc ation
,\ ,
ĠP ost
sign ature
Ġsong s
Ġy oung
Inter val
T x
Ġover all
Ġde v
Ġr gba
Ġlist ed
ĠT emp
Ġsum mary
IT E
ĠU I
Ġde comp
.~ (\
as sembly
ĠN umber
DO CTYPE
equ ality
Ġmod ern
Ġcoe fficients
Ġb en
iver se
Ġmeasure ments
Ġknow ledge
P U
f g
W rapper
Ġqu ality
il ib
Ġch urch
Ġmod ified
os er
Ġcorre lation
Ġlay out
Ä ±
. <
Ġg reater
Ġrequest s
ĠB O
D T
C ap
Ġstr ings
u ation
Ġk ernel
Ġsome thing
ĠOr der
ĠF urther
hes is
Ġes pecially
ac c
Ġthe ore
Ġb ad
Ġ+ \
198 8
cor por
A CT
Ġ eng
Ġocc ur
Ġt mp
Ġm achine
Ġexact ly
g lyph
str ument
un ct
ĠM usic
EE EE
Ġeas y
= #
p lot
ue st
C red
en ers
G en
i qu
Ġinteg ral
s afe
cal endar
a co
ĠH en
ĠSci ence
all ery
ult ural
C luster
Ġst ra
ĠJ ust
en ses
mp t
Ġman agement
s ider
rodu ction
Ġme ta
sh ire
pro xy
ĠP ath
Ġm enu
Ġre ader
Ġass ist
th row
Ġval ign
B S
Ġen able
ĠSup er
ri bution
Sk ip
Ġp ool
fer red
Ġf ill
G ame
o logical
Ġpert urb
Ġon es
Ġpro pag
check ed
PO ST
(' #
Ġan im
Ġp aint
ancell ation
ĠP ress
Ġproced ure
Ġ$ $
for all
Ser vices
Ġsim ulation
al ed
u ge
p attern
Ġrece ive
s ime
Ġass umption
Ġ{ "
ĠW ashington
Ġen um
P ublic
loy ment
p ull
B ind
O ST
br id
Ġexp onent
Ġent ries
ĠCour t
ĠIm age
ĠS ociety
sp irit
Ġcontra st
V ID
n ers
g ame
19 60
ud a
sime q
w arning
Ġm ixed
Ġ und
Ġcont roller
ĠM ary
Ġv ict
ĠRo ad
V ideo
Ġhig hest
W allet
'] ['
le v
Ġpress ure
Ġappe ared
Ġang ular
Ġfor ces
Ġtrans late
O ff
Ġneigh bor
Ġc ard
Ġcamp aign
function s
å Ī
( @
Ġbegin ning
Method s
2 13
Ġpol y
) _{
Ġide a
G u
; )
ĠM ex
U sing
col on
par ator
P ri
Ġfail ure
node s
Ġmode s
Ġar riv
W N
py thon
Ġbroad cast
, $
ĠM iss
F ragment
Be an
T otal
Ġm d
Ġ â
or se
u fact
ext ension
a ver
Ġas k
) _
() ))
ĠT R
) ^{\
B E
De legate
Ġc md
s n
ĠA lex
Ġm icro
W R
M ouse
ed eral
Ġra w
as y
ĠCol or
un try
est ival
Ġtime out
word s
Sing le
Ġmean ing
t k
Ġsh are
ĠE qu
Re v
Ġm apping
Ġs light
as er
\ _
trans ition
pe ated
Ġbound s
g b
org an
TR UE
IC E
Ġre ached
Ġvis ual
Ġall Classes
15 0
Ġsh all
P ER
Ġro ck
Date Time
ĠEx ec
ĠCopy right
ĠallClasses Link
ĠIs land
Ġd ual
Ġd u
ol ar
Comp at
ĠRe search
ank s
di ag
Ġt ro
Ġcompan ies
Ġindic ates
ĠCan adian
Ġear lier
L L
en ge
il ing
Name space
ar ant
Id s
RE S
h l
ĠC EL
Ġro ad
ass andra
SE LECT
Ġv an
Ġst ellar
ĠKing dom
Element s
Ġt re
Ġp lugin
al i
ĠB est
Ġcla im
ĉ ĠĠĠĠĠ
M T
imit ive
> \
EEEE FF
Ġqu ick
time out
R PC
se q
hel per
F UN
Ġ&= &
Not ification
er ial
f lex
in er
$ ).
Ġplay ing
ĠF re
) ^{-
ME TH
st at
Ġst ri
RE Q
Ġoff ice
side bar
van ced
198 7
IV E
Ġdistribut ions
Ġsepar ate
H owever
Ġve h
bl ank
O F
at omic
Mult i
vol ume
option al
Î ¿
con sole
Return s
ĠG old
DE BUG
Ġeff ort
ĠTh omas
Ġappropri ate
}$ -
per p
G oogle
p resent
up load
Ġl at
ffic ial
Ġe ight
ĠU K
ĠCol lection
li ament
ab it
Ġgener ation
lo ur
ĠT own
ĠRec ords
ile vel
E V
C G
ĠL com
od ot
Ġapproxim ately
ĠP at
Ġdec ision
ĠM a
Ġcur ves
Ġredu ce
ĠT ur
Ġd ise
Ġ ..
Ġor ient
Vol ume
Ġ rows
Ġh ot
C ar
Ġart icle
ĠMore over
' ];
f ol
F lag
Ġ ).
Fig ure
Ġo wner
i ses
og ene
am az
LO CK
Ġclo ud
ID TH
Ġfact ors
Ġst and
al a
Ġim mediately
pl an
D ictionary
$ $\
D irect
velop ment
Ġb in
Ġgra d
F ORM
ann ed
dep th
D P
am i
Ġ$ -
Ġqu ad
T A
Ġn p
n n
Re port
Ġev idence
as i
ĠT ex
Ġ' \
ĠC he
Sh ape
rel ated
ĠRes ult
ĠE ach
ĠS ur
L in
Ġ ];
ĠT er
ĠG ames
Ñ Į
Ġex it
E mail
Ġconstruct ed
velo per
ĠB en
w all
lo aded
198 6
Ġsub set
v ement
Ġsecond s
ar c
iss ues
n ob
Ġn ature
US ER
Ġb io
Ġd am
Ġad v
ĠIn c
Ġexec ution
Ġfact ory
Ġclass ification
test ing
f i
ĠJap anese
ĠCl ub
L anguage
ex ist
Ġden otes
Ã £
b us
ict or
dat abase
Ġass umed
}} ^
ĠK e
Ġw ife
th rift
STR ING
ĠN AV
NavBar Font
Ġsp an
in em
Ġw alk
ä »
ĠH ow
M ask
}^ *
Ġan ti
Ñ ĭ
{ $\
H igh
Ġgrow th
Ġtra ce
" ].
Ġp laces
G r
ĠD ay
pro v
Ġexist ence
ĠD irect
ĠSt art
M ath
En coded
Ġco mes
an imation
Ð ¼
ĠA S
End point
ign ment
Ġre comm
ĠY ear
L en
Ġbeh ind
B egin
clu ded
Ġm aster
Ġm olec
Ġproduct s
Å ¡
re act
s imple
or igin
Ġst ated
D R
Ġalbum s
VAL ID
tra ce
Ġpract ice
An imation
ok ie
Ġident ified
w p
Ġc lick
un defined
st ra
^ ^
» ¿
Ġf oc
comp ile
Ġrot ation
yn chron
ĠR out
urre d
Ġp ick
f c
M er
Ġt sd
ĠA ction
Ġdist inct
ĠCent ral
ymp tot
æ ľ
ï »¿
n p
f ect
display style
Ġ Ø
ĠB ig
S ort
Ġhim self
Ġlabel s
ir ing
/ "
I gn
ĠA frican
f ire
ĠH istor
pl us
f old
Ġal gorithms
F low
ĠFound ation
ix els
ĠA re
Ġs b
ĠWh ite
Ġt ax
ro y
G C
ib ly
Ġ" $
M ess
Ġre ach
Ġspect ra
Ġin equality
Ð ´
ĠF ROM
Ġtransp arent
Ġs low
pp ing
Ġprec ise
tr i
ff ers
ĠT or
u ages
Ġopt s
ĠE ND
Ġocc urs
d c
not her
Ġread only
ĠEx p
ag ent
ess or
Ġap ilevel
Require d
ig r
Ġl iving
lo ok
Ġch o
name d
198 4
Ġcur sor
Ġe mer
Ġagre ement
Ġse c
ase ts
ĠRo bert
ĠB oolean
ĠC ath
Ġinterest ing
ver ter
ro ute
Ġdim ensions
d ash
resol ve
ĠAf rica
} &
re du
Ġf ounded
C F
H z
Ġevent ually
w atch
Ġbu f
ĠN etwork
O ur
ĠC ong
F ind
ic ate
ge o
Ġ( [
AP P
Ġliter ature
Ġbo ard
Form s
ĠOn ly
s a
ĠE lement
A udio
ject ed
ĠJ ew
ĠSh ow
Ġocc up
kw args
Ġsc roll
S ample
Ġe lected
METH OD
Ġrem ote
Ã ¨
Ġbir th
up lic
en sed
et ween
) },
re sp
) [
IG HT
Ġrecord s
ni ques
Ġd ro
198 5
Sh ort
ant i
. ",
Ġpl aced
S ol
z ip
EN SE
spec ial
ĠF ore
w er
ĠL at
urn ament
Ġpro ps
Ġgalax y
S M
Ġ ut
al and
Ġautom atically
now led
Ġattemp t
ĠD an
Ġo k
D b
w orld
pm atrix
ĠT w
Ġex port
Ġsh ip
n y
ĠM useum
Ġin sert
Ġsignificant ly
Ġassert That
P UT
Ġschool s
Ġm other
ĠS am
Ġsur v
play er
j oint
ĠNAV BAR
Ġd ict
de t
E ar
ĠP et
Re c
r ish
S ome
ĠT op
load ing
re port
Ġ ul
asket ball
b ing
ap is
^{ +
Ġign ore
ul ator
es h
Ġst able
Ġvo cal
Ġg ave
L imit
Ġcell s
l ations
w riter
vi sed
ĠR el
Ġexec ute
Ġsing ular
Ġre set
n def
Ġpath s
S K
ĠF our
Ġa udio
R o
W arning
Sup port
[ (
Ġincre ased
ĠV is
m ing
over view
amaz on
pe ar
Û Į
Us ers
ĠIn put
App end
Ġth ought
sel ves
S I
serv ation
t ar
M ake
Child ren
quot e
Ġincre ases
Ġch art
Ġdepend ence
sp ital
al g
Ġspec ify
Ġp ush
us r
P air
Ġcontain ed
i ency
tr l
Ġatt ention
Ġro b
Serial izer
Î ±
Ġtrans formation
Ġon to
INT ER
ish ing
set up
Ġform al
(" /
Ġun ion
ĠS IZE
an cy
Ġintrodu ce
is set
ĠAcade my
Ġmat rices
ĠV ector
Ġp en
get Value
C lear
) }{\
ĠCh inese
Ġm us
ab e
Ġsp atial
Ġj ud
Ġ\ "
MOD ULE
pe ople
Ġcandid ate
t c
r ich
Ġess ential
S creen
ĠP oint
Ġlist ener
Ġv s
sk i
D ATA
Ġro om
Ġc hem
ĠS al
ĠT ok
Ġcalcul ate
Ġposition s
nost ics
Ġj oint
Ġdis abled
Ġnav bar
ĠRuss ian
Ġdepend encies
Ġle ague
ta ched
Ġs chema
Ġres id
at ar
N R
ĠSc ott
an cial
az ine
cl one
Ġl ack
Ġr ates
Ġcre ating
M R
P ub
IT ION
Ġcontribut ions
Ġb ur
Ar ch
Deta il
st on
um my
Ġjo urnal
rad io
Ġco p
ys ical
******************************** ********************************
NS String
ĠIt alian
Ġre ally
me tric
Ġassign ed
Ġpar allel
ĠN et
Ġsymme tric
u ous
Ġr ing
or iginal
=\ "
Ġprocess ing
Ġth ings
Ġappoint ed
Ġinst ances
P ass
duc ation
Ġmeasure ment
Ġrecent ly
Con n
sup ported
em on
ĠĠĠĠĠĠĠĠĠĠĠĠĠĠĠĠ ĠĠĠĠĠĠĠĠĠĠĠĠĠĠ
Ġben ef
Ġp ure
Ġcomb ination
z ure
ate way
Ġan imation
H ub
if ically
ĠMich ael
Ġb ra
ri but
ĠG aussian
S pe
arn ings
Ġst ored
d uration
irc raft
Ġca used
if ndef
Ġf ib
Ġoriginal ly
ĠCar ol
vert ical
Ġg reen
Ġlo aded
The se
Ġcomplet ely
ĠC r
} )$.
Ġjo in
Ã£ o
Ġv ectors
Ġme di
Ġtra vel
object s
Ġdiag ram
form ance
valid ate
t ik
down load
Ġen v
Ġvari ety
al ert
RE G
um ing
\| _{
Ġt or
ĠVir gin
graph y
Ġref lect
z h
Ġd river
Ġ@ "
, '
corre ct
Ġ= \
ĠM ake
Ġtra de
im a
ĠD u
ĠC lo
ivers al
Ġvers ions
IN S
ç Ķ
S ave
="../../../../../../ ../
ĠR ob
ĠH istory
de stroy
Argument Exception
re land
s b
r untime
/ {
own er
Ġd uration
ĠO ff
ill er
Ġappro aches
Ġtyp ically
B B
ĠĠĠĠĠĠĠĠ ĠĠĊ
F urther
CO MP
# {
Ġc li
En ter
ĠAl though
in herit
Ġinter actions
ĠCom mon
Al low
ĉ čĊ
Ġm orph
k t
ĠWest ern
d ig
Ġe ver
ist ers
war ded
Event Listener
ĠF I
)\ \
Ġb ind
Ð ²
Ġ} }
m ma
select or
b d
r ank
ĠK ore
vis ible
Th us
ad ing
M ed
AN G
Ġmention ed
tach ment
s ync
MO DE
198 3
he ast
ĠM ont
Not es
W orld
ri um
Ġpro to
re ce
Ġcirc le
lip se
ĠDem oc
DO M
IO Exception
Con sumer
ĠAL IGN
ĠD at
re ct
: [
Ġ' ';
ĠS QL
is Empty
" ],
t ics
ĠOption al
S ql
M ove
y y
st one
Ġse ven
ĠVal id
Ġsk ip
LO C
Ġf oot
ĠChrist ian
M iss
æ ĸ
s lice
Ġ> >
Un known
Ġdocument ation
per iment
ĠChar les
ex it
66 66
Ġop acity
ĠDE FAULT
Ġl icense
Ġbehav i
Ġm ac
Ġj s
F n
method s
Ġcomb ined
- (
ĠM ult
ir ror
Ġtri p
Ġimpro ve
Ġopt ical
Re lease
Ġstra ight
p olicy
() ),
nt he
ĠLou is
ĠC amp
Ġindic ate
m en
ap es
ĠU N
lo s
Input Stream
e es
t f
A F
k es
OR TED
Ġf lex
Ġcre ation
Ġto uch
Ġgu itar
libr ary
n os
Ġde tailed
Ġpur pose
198 2
getElement ById
/ _
Ġge ometry
Ġal umni
{ "
m n
w a
Ġe fficient
f actory
Ġcoordin ate
ĠFran cis
map sto
nav igation
ĉ ĠĠĠĠĠĠĠ
Ġcon figure
o on
Ġanal og
Ġyield s
ĠT wo
EL D
ĠP an
ament al
ĠFor ce
Con structor
ĠI R
Ġh ours
ĠLo cal
ro om
Ġg ap
ty pen
Ġimplement ed
}} ^{
vari ance
cre ated
Ġn ight
b c
Ġt it
ĠS un
Ġauth ors
_ );
B order
Ġconnection s
res ize
Ġvalid ate
Ex ample
T V
Ġpres ident
common s
Tr ansport
ĠL ie
Ġda ughter
Ġbook s
Ġfootball ers
Ġmechan ism
Ġab sor
N V
)$ -
con structor
Ġsitu ation
Ġs ql
p ower
c la
os ity
ĠSum mer
ĠF in
ext ra
Ġtech niques
ot ing
Ġexper ience
ĠG reat
const ant
f etch
con vert
Ġto ur
Ġhigh ly
ĠHamilton ian
$ ;
ri ends
Ġclu sters
D river
Ġext end
com mit
cc cc
me ssages
l int
ĠAN Y
% "
Ä ģ
ĠM ad
ĠZe aland
Ġcoun tries
Ġnot ed
m al
Ġbuild ings
% ,
v let
Ġcy cle
Ġhe avy
opt s
ĠS aint
ĠD i
Test Case
Ġsyn chron
Ġconc ern
Ġnot ice
Ġgrad ient
Ġnew s
Ġfour th
ĠTex as
c li
mut able
S cal
tr im
g oto
con v
Ġse cret
Ġ" ";
ac cept
Y Y
å ®
Ġsp ent
typen ame
i pe
Ġab s
t or
sub mit
Ġst ations
L iter
Ġcomput er
Ed ge
ĠD ocument
ur ations
ĠP RO
M IN
ĠS ource
on ce
Exec ution
Ġcon clude
ĠÐ ¿
Ġcap acity
g ers
se m
Ġperson al
Ġob serve
ĠT om
Ġthe me
ab out
Ġunder lying
__ __
C ast
h bar
En vironment
E ST
Ġarchitect ure
ĠSm ith
ma zon
re v
Ġv ary
d river
Ġvalid ation
En umer
Ġs ports
act ivity
stru ctions
lement ation
N ative
Ġst at
Ġth erm
ĠU sing
Valid ator
ch anged
Ġelect ric
ed om
clu ding
ser ies
ĠG ame
Set ting
Ġestim ates
Ġex am
: `
b asic
$ ~
L ower
> "
Ġrepresent ing
Ġmin utes
T T
Ðµ Ð½
Valid ation
ĠB lock
Ġqu ite
Ġinst it
Ġsuccessful ly
N UM
S pl
Ġb i
Ġf rag
'] );
ĠC H
ĠJ ose
ĠL in
Ġnot hing
Ġprob ably
ho use
Ġde tected
G EN
ĠN av
Ġcon cent
grad le
seud o
u ssion
ĠA ut
Ġdynam ic
de precated
ĠIt s
ch a
å Ĳ
sp aces
Ġlay ers
Ø ±
pro position
Ġl P
ench mark
ORD ER
N ormal
ext end
or ient
SS L
mm ing
ĠF ootball
G o
Ġident ify
Ġb undle
Ġget s
\ {\
St atic
b p
b oost
ilib rium
ĠPar ameter
ĠM ain
int eg
high light
p aper
ĠIl legal
av el
Ġconst ants
ĠC lient
] }
mer ge
Ġwh y
ĠD en
sp acing
D iv
Q U
ab il
b our
Ġnot ation
ĠM us
m k
Ġ' '
Ġf ragment
Ġso on
ac le
Comp iler
Clo ud
Ġg old
er ved
Ġman ifold
197 9
M I
Ġadd ing
Ġco ach
ĠMin ister
R ate
Ġf un
: @"
ic ity
ï¼ Į
ic ode
Ġb atch
' (
Ġse mi
Ġresol ve
Ġle ave
The orem
A mount
ist an
ĠL ife
Ġtreat ment
p erson
Object s
Ġm unicip
Ġus age
he el
mer cial
r ics
}( {\
Ġpl ant
Ġs aw
AT TR
ĠOlymp ics
Ġ" ",
clus ive
re newcommand
Con nect
in x
ry ption
Ġd ie
i ro
es ian
18 0
× ķ
Ġag greg
Ġfem ale
ol a
Ġparticular ly
ĠP age
D em
Ġrel atively
log o
Ġas pect
ĠP lay
Ġreg ime
nost ic
j ac
ĠC ast
Ġchannel s
ch er
/ ">
Ġorgan ization
d k
n c
R aw
Ġ ðŁ
Ġse ctions
w t
W ORD
or a
Ġst atistics
Ġdisc ussion
P lan
dis able
Cur sor
gener al
Ġdes ired
h box
Ġk illed
li e
Point s
ĠâĢ ĺ
Ġel if
Ġa x
Ġan swer
19 50
is l
qu ant
mem ory
Ġinteg r
Ġo sc
y l
m ass
Ġ' ./
/ .
k in
ol f
es ome
The me
Ġb rief
Ġgener ic
Ġsu c
n el
oun tain
D rop
Ġex change
Ġtradition al
Ġmagn itude
Ġfamil ies
vari able
Ġ_ ,
tik z
Ġs en
p b
= [
Ġslight ly
Ġcap ital
ĠB it
lic ations
Const ant
F older
ĠSo ftware
An notation
tern et
( .
198 1
ĠM ass
AN T
Ġcont ents
s uch
Ġto day
Ġcon n
ĠUn der
p air
> )
Draw ing
S V
ĠPro perty
comp are
Ġsome times
HER E
Ġcalc ulation
Ġhigh light
H P
6 00
Ġter min
ĠP eter
s ig
second s
Ġrel ig
Ġse x
O wn
b atch
ĠG rand
z il
Ġequ ip
for Each
Ġsc ene
Ġs izes
ĠSet s
Pro v
Ġconver gence
Ġoptim ization
ĠEng ine
ĠF lor
Ġmin imal
ĠPar is
Ġ ">
grad ient
scal a
Ġm asses
atist ical
ic ago
Ġpre v
z en
ffic iency
ven ue
ut ch
Ġext reme
Oper ator
an aly
F E
Ġpred iction
to Be
Ġexp and
ĠT H
lo ss
an c
Ġas ymptot
Ġinflu ence
C or
or ation
as c
Ġ" %
Process or
Ġsc ient
vi ation
B inding
S ur
G ER
B asic
ĠM il
1 10
Ġgu arant
Al loc
up s
d irectory
Ġan t
ĠSp anish
ss l
Ġr isk
Ġscal ing
Ġ ion
trans action
oper ation
Ġpr im
T ile
b log
IL D
C aml
Nav igation
Ġ[ \
mob ile
ĉĉĉĉ ĉĉĉĉĉĉ
Ï Ħ
Seg ment
ĠA ust
Depend ency
c ert
at re
int eger
ist ics
ter min
Ġbe y
ĠG al
Ġp ages
s at
Ġl umin
Sh ould
Ġcomp osition
Ġte ach
Ġp ull
ic ensed
k ins
Ġinfin ite
n ative
Ġ' .
me ter
Ġtool s
rec ated
AN CE
Ġres on
Ġenter ed
Rem ote
ĠD et
T w
Ġmod al
en ess
ap ers
ĠFr ank
con tact
ĠOr iginal
os h
Over view
Ġtag s
se ll
Ġc he
ra ma
Ġact or
D rag
w d
ĠAn y
W ait
En v
f ast
Ġde t
Ġexplicit ly
Log in
Ġst aff
Ġc ancel
W ord
C ard
ph rase
ĠCath olic
Pro gram
ĠDes cription
H ome
Ġa ud
c atch
ĠB ack
Ġbey ond
j Query
Ä ĩ
Ġtyp ical
Ġw ind
Ġed it
Ġgraph s
Ġs n
Ġre sp
al d
Ġinput s
12 5
Ġdiffer ential
ĠRem ove
G N
P rivate
d ark
Ð° Ð½
ce eded
Ġpol ice
á ĥ
Ġstreng th
is hes
os ing
t ensor
b at
phot on
Ġmov ing
ĠH ig
g p
Ġweight s
Sp an
ĠRich ard
Us age
an ch
Ġcom mit
L ight
ĠP R
glyph icon
Ġsu ff
H tml
T wo
Ġsc ience
Ġmov ement
Ġs ays
Ġv ac
Ġ' %
Ġ' ',
ĠCo q
D ay
Ġmer ge
arg uments
ut down
Ġco s
ierarch y
Ġde vices
Ġf ood
Th row
[ -
< <
ĠL ake
Ġstrong ly
Ġac comp
Ġpro ved
Ġb ank
Ġhyp ot
get Id
197 8
Ġin j
T imer
Ġamplit ude
) }_{
Ġindu stry
os itory
i ers
Ġplay s
ur t
D ATE
Ġcomput ation
B us
Gener al
ĠI reland
ĠAnd roid
ock ey
Ġrema ined
Ġscatter ing
C la
ĠM ost
; |
EN V
Row s
) }}
sp in
CH AR
C LASS
å ħ
C ALL
ĠL os
Ġf mt
) +\
Ġcol span
ĠV ictor
sk y
Ġp hen
Ġexp ressed
Ġmed al
let s
ĠĠĠĠĠĠĠĠĠĠĠĠĠĠĠĠĠĠĠĠĠĠĠĠĠĠĠĠĠĠĠĠ Ġ
Ġa mb
Ġexpl an
par agraph
Ġab ility
25 0
Ġshow ing
Ġp riv
ĠSer ies
re qu
197 6
mon th
ĠM icrosoft
Ġlo ve
Ġle ader
sub ject
ck s
a udio
Ġprov ider
ĠPro cess
Ġnuc le
Ġcomp atible
Int roduction
Ġart ists
st ates
Ġbe am
Ġobserv ation
N C
}{ (
F l
PH P
ĠJ son
ĠB ill
Ġdis p
ar ian
Ġselect or
ig an
Ġs af
ĠX ML
Ġosc ill
Ġb its
C enter
y cle
ĠW rite
Ġcalcul ations
Ġrefer ences
bo se
ip age
Ġdepend ing
to uch
TR Y
0000 00
av ailable
ĠR ock
Not Found
Ġs ch
b lob
Ġc ivil
i en
Ġ ig
resent ation
197 2
ar ia
Ġstud ent
C ONT
B atch
Render er
ra ms
A li
à ¥
Ġcall ing
ĠSt atus
u uid
Ġhar mon
w x
e lem
Ġshow ed
f mt
Ġredu ction
ĠI ll
Ġshe ll
atic s
Ġchall eng
} }$,
ĠL and
Ġfunction al
Re al
Mess ages
m oment
Ġp urch
ĠH ill
In formation
Ġm oney
at i
script size
ĠG od
ĠGe org
$ ),
Î µ
wh at
Ġad vant
Wh ile
Ġsup ports
S yntax
Pre v
ĠB us
Ġcour t
Ġinitial ly
ĠM el
Ġse ems
l ig
B ottom
Null able
Ġcapt ure
de cor
B ook
Tag s
T erm
~~~~ ~~~~
Lo op
Ġad just
igh ter
sc ape
Add r
" /
Ġ$ _
| _{
it ivity
m f
} }$.
ogene ous
OR Y
lect or
×ķ ×
Ġident ifier
lic ity
197 4
ĠApp end
Ġproject s
ff f
Ġpro jection
assert True
Ġs ys
al gorithm
Ġtrans lation
. """
ĠPro f
ab c
Ġgo es
view port
ĠNew s
}{ |
UM M
Ġscen ario
ĠSte p
h ave
Ġdiffer ences
fe ed
Ġlist ing
Ġcompet ition
}$ )
L ook
Ġsur vey
valid ation
FF ER
time stamp
AR G
ĠWindow s
be an
Ġlim its
Ch ain
Ġa apt
197 7
ish op
comp ute
Comp lete
ĠS pr
Ġd ialog
B its
Ġb all
ĠC G
Ġtech nology
ĠM ock
ib li
Map per
Ġaltern ative
NO DE
face book
} )$,
Ġevalu ate
Ġf ight
(" #
refer ences
me an
Ġinter pret
Str ategy
am ing
ak a
Ġ ult
un ched
ersist ent
Ġadd resses
G ui
ĠM P
im ing
U D
Pl ace
ĠP enn
) -\
N ET
! !
Ġopen ing
c assandra
Ġprogra ms
197 5
Ġbro ther
Error s
Ġfeature d
Ġmod ules
V E
con g
" },
pos al
ĠF inally
ĠH ome
Ġ Å
min ipage
Ġhy dro
ĠB ook
v in
y ing
Ġ" .
Ġmain ly
al og
Ġc arried
LO W
Ġind ices
h ol
Ġart ist
en code
ĠS E
Ġa ircraft
ĠĠĠĠĠĠĠĠĠĠĠĠĠĠĠĠĠĠĠĠĠĠĠĠĠĠĠĠĠĠĠĠ ĠĠĠĠĠĠĠĠĠĠĠĠĠĠĠ
ch art
Ġmeas ures
&= &
Ġorder ed
Ġmark ed
s ion
F ocus
cont ents
Ġre mark
du led
lic ense
ĠW IDTH
A SSERT
Ġpro port
et o
alt Color
ĠVirgin ia
ode s
re pository
I AL
S top
e a
sh al
Ġth ick
ĠAn ge
Ġre served
ĠL u
, âĢĿ
B inary
ĠC ap
Ġscal es
Ġinteg ration
Ġsp read
Ġmost ly
it ation
ĠEx ample
Ġevalu ation
Ġmod ify
ĠM edia
Ġc ulture
Ġdec ided
stit ution
ste in
ov iet
Ear ly
;| &
s r
ĠCom mission
Ġde sp
ĠS ol
ĠL ink
B o
Ġindu ced
Ġor d
nob r
Ġin verse
M ac
Ä į
remark s
Ġso ft
h ard
00 1
E ffect
ĠO p
che n
C B
Ġout er
top ic
Ġr untime
ä ½
Ġs ites
Ġo dd
ĠSp ace
En coding
Ġcrit ic
F ree
Ġlo t
ĠRes ponse
c raft
Ġdiv ision
Ġflu ct
Ġde m
ched uler
el astic
P latform
A ST
li bs
Ġachie ved
Ġl if
Ġtheore tical
Ġappear ance
HE AD
Resol ver
Ġconf irm
Group s
F ore
t ions
Î ¹
g if
Frame s
Ġocc urred
Ġtime stamp
Array List
tain ing
DE F
Ġt d
ĠE nt
M icrosoft
MA P
Ġinitial ize
) )$
Po jo
Ġtra ined
Ġ$ |\
196 8
C md
g z
Ġac quire
H S
ĠSt ar
Ġw atch
Ġtherm al
Time stamp
10 1
Ġexp anded
S ch
: }
Ġmin or
ĠD O
ig er
Con tact
Liter al
c ref
in ity
Ext ensions
Ġclass Name
_ -
sequ ent
Ġthem selves
Ġdist ingu
Ġ ener
se lection
Ġrefer red
ĠAb stract
ĠHen ry
Ġdeg rees
ĠH y
Q ual
As set
Ñģ ÑĤ
b ro
bra ce
ph ere
Ġ> >>
ĠAp ache
Fail ure
ĠW AR
ĠI II
J ohn
Ġf if
element s
Ġtop ic
Ġcomplex ity
head ing
hav ior
STAT US
B al
Ġin corpor
ĠLib rary
Ġac celer
A ng
197 3
y an
re po
Ġide al
Ġg ir
] ))
A xis
g ies
re ader
ĠP op
pk g
ĠC ustom
A UT
Ġre cur
u v
ĠC a
Ġt alk
ĠK ar
lo m
ĠC SS
ist og
Ġcoe fficient
Ġ\ &
Ġsimp l
Jo in
ar ded
A bs
ĠR et
Ġmajor ity
Ġcoll abor
w br
p ages
Dep th
Ġplace holder
ab ric
St andard
Ġde ad
ck er
ud get
u er
rt l
RA Y
Ġ< -
iv ery
r pc
ok ed
Ġis ol
ĠD B
"> (
ent al
id ae
can vas
Ġc m
.* ;
ra pped
Co in
G O
W rit
h n
Ñ ĩ
Id entity
D uring
b t
Ġrespons ible
> %
CON FIG
ĠConfig uration
tool tip
j et
FI ELD
clus ions
Ġfe el
ĠS D
= $
Ġnear ly
Ġp ain
Ġagre ed
ĠSer ver
Ġpolitic ian
Ġso cket
Ġw ays
c line
ograph ic
Ġdest ination
12 7
Con sole
rit ory
sph ere
po ses
UR CE
Ġphys ics
Ġas sembly
mo us
/ (
cur sor
Ġz one
B ool
an chor
Eng lish
vert ex
Ġdat asets
Ġa warded
Ġch unk
F inally
Ġman ufact
Co unter
ĠS il
la w
Ġpay load
in der
ro uter
è ¯
ĠCh icago
Ġar ia
Ġcol lege
b el
ub ble
Ġpr ice
Ġend point
Ġra pid
Ġ{ },
Ġst ats
inc iple
ĠC R
: '
Ġde mand
os oph
UN D
We ight
d irection
ĠIt aly
ĠO f
> '
Bound s
Ġc amera
Ġdo ub
ow ers
dis patch
c lip
Ġestablish ments
aw a
Ġlet ter
Ġs qu
ĠHe alth
lic t
Ġstart s
t frac
y er
Ġper missions
Ex port
g on
T F
j ax
âĢ ¦
( ['
s quare
Ġ{ $
ail y
Ġr at
Ġprov iding
ck nowled
ĠT ri
Ġbro ught
Name d
ĠOut put
197 1
ur able
Ġload ing
RE D
Ġprodu cer
ĠSw ed
ĠT ag
Sh ader
mult ip
Ġm ouse
Ġ{ %
D om
ĠWAR RAN
column s
de lay
| }
Ġol der
Con verter
Ġg un
Ġlog ging
cf g
ĠE m
or ial
Ġp od
ĠTe am
T L
Ġpri me
ĠL i
Ġex c
s ch
s amp
Ġre con
go ing
d jango
ĠFurther more
S em
UMM ARY
rel ative
sd k
time line
Ġtra ject
Ġrequest ed
semb le
Ù Ĩ
Ġg rand
rag ma
Ġconv ex
There fore
Ġapplic able
elli j
196 9
R UN
Ġd rag
8 00
**** **
ĠFil m
Ac cept
Decl aration
U ST
m apping
Ġme trics
Ġre li
\ ;
ĠS earch
Ġm o
OP T
Dep recated
}\ ,\
ersist ence
T er
] +
Ġachie ve
Ph one
Ġb ring
create Element
ĠW omen
ĠW hat
bu ilt
ĠJ e
Ġim g
h u
Ġdis crete
Ġcent re
s un
F act
ĠAr ts
Ġclear ly
ĠO ld
0000 0000
rit ical
ph ase
it an
Ġgener ator
f b
IN ST
int ellij
ĠCom mittee
| }{
ĠC D
Ġin sp
Ġfund amental
ancellation Token
Ġal ias
And roid
Ġh ole
F inal
ĠMex ico
V ICE
Ġs aved
Ġd ip
ĠApp lication
Ġcommand s
ĠIn v
Cont ents
Ġent ropy
a ud
ilar ly
V AR
al so
ĠS imple
Ġactiv ities
ian a
ĠFlor ida
ele br
S u
lis her
Pack et
ĠD OM
ĠS ign
Sign ature
ex amples
) ",
M ov
ĠAnge les
Ġcar ry
depend ence
u lo
Ġsco red
t an
AC H
AT OR
Ġdecomp osition
ãĢ Ĥ
S l
ĉ ĠĠ
ĠSc ot
Ġview s
In ner
l ings
: =
ĠC OL
) --
ĠF ind
ĠĠĠĠĠĠĠĠĠĠĠĠĠĠĠĠĠĠĠĠĠĠĠĠĠĠĠĠĠĠĠĠ ĠĠĠĠĠ
Ġ ----------------------------------------------------------------
F uture
BU FFER
! \
c les
Ġl ies
Sh ared
Ġp ers
Ġp ark
Ġcomput ational
I A
Ġb right
BP ACK
Ġsecond ary
Ġs ync
Name Link
Ġcon ven
li k
Sw itch
Z one
Group Name
M IT
S N
Ġman aged
ä º
Ġf ine
are er
W hat
Ġinter section
Ġt ail
S he
ĠV ari
f ront
Ġaccept ed
lo ating
ĠĠĠĠĠĠĠĠĠĠĠĠĠĠĠĠ ĠĠĠĠĊ
Ob server
Ġig et
H older
LI ST
Ġm ur
ĠQu ery
AT ED
= %
on to
To uch
Ġdo ing
B L
Ġhouse hold
Ġwh om
ĠDe lete
on a
Ġbal ance
Re act
(" %
XX XX
P od
iffer ent
tw itter
b re
con nected
Ġcover ed
ump tions
Ġgiv ing
Ġcommun ication
n ov
Ð¾Ð ²
Re set
ĠG overnment
ĠB oth
Ġsing er
Ġphen omen
const raint
Arg uments
ĠF rame
log ging
S ite
ĠW IT
de ep
Ġdel ta
ĠL java
ĠO S
t l
ag r
ĠB ur
inter val
C apt
ĠU til
Ġlocal ly
al gebra
$ :
M aterial
G ra
æ ķ
get Instance
ĠST ART
Line ar
En able
L eg
lect ric
w allet
Column s
Lib rary
External Task
ver ify
ĠV an
Pro du
Ġb os
Man y
Perm ission
ĠL ay
Ġb oost
Ġbe g
un lock
Ġst ay
sp ort
m ms
mit ter
Ġsol ve
> ()
par k
ĠSec ret
Ġcon j
Ġle mma
Å į
m is
LE D
Ġtechn ique
M ay
( ()
Un der
Miss ing
Ġs al
p res
Ġpo or
s hell
ExternalTask Pojo
rem ote
)) \
de sign
^* $
Ġj ump
HO ME
Ġuncertaint y
ĠCarol ina
ĠIs ra
str iction
Ġpack et
Do ctrine
Ġd ense
Task s
ĠB rown
pro t
Ġor ders
Ġal ert
Î ½
t le
> ;
Ġquest ions
Ġse ctor
om a
ĠG en
Ġs afe
d anger
ĠCont rol
unn el
196 7
Ġcomp osed
R andom
as ion
ĠN avy
}} )
ĠTh read
str ings
Ġc e
ad or
ĠS UMMARY
Ġp an
class Name
Ġtype def
19 40
P red
n ight
ĠU s
gu ide
po inter
an im
ys ql
Ġwrit ers
* \
ces sed
sw ing
Ġtrack s
pect ive
ra ise
Ex ists
serv able
Ġmass ive
el t
ell ig
ug by
Ġloc ations
Diag nostics
ian o
Ġto urnament
Ġwin ning
ion e
, {\
$ _{
sl ash
and a
ant om
ON G
Ġgo als
Ġrob ust
C ancel
ĠA v
Ġar m
B IT
act ic
ĠBo ard
Ġtrans actions
arri er
U AL
99 99
Ġcharacter istic
sy l
br and
A SE
Ġover flow
UB LIC
Ġser ve
r int
Ġd t
%%%% %%%%
od ay
Ġden oted
_ )
å ¤
d frac
e b
Ġpub lish
ĠI mm
Ġconsider ing
road cast
l ab
ul i
Ġcheck ed
Ġre call
az z
Ġcom ing
we et
ĠB attle
Be en
Ġf erm
i ation
st andard
Ġsh ot
exp ression
Con tains
code c
Ġgen us
M o
ur er
Ġleg al
Ġdescri bes
Ġwhere as
m iddle
19 45
re peat
F N
ĠF ree
big l
w arn
Ġf avor
Ġ& #
ĠE r
Ġmed ical
Control s
Con vert
ĠF estival
Ġd ust
DE X
B est
ign ore
In sert
Ġd x
Ġnuc lear
T Y
Ġb ias
Ġse ll
ĠO h
pre vious
ĠStr uct
link s
tr ansport
Ġcan onical
Ġper fect
__ )
lo v
ast e
ony mous
ĠCon text
ĠL y
Ġrepresent ations
Ġ_ .
v endor
Ġquick ly
ru les
Ġp ixel
k ernel
qu is
am ount
Ġth er
am er
ĠPy thon
Ġstud io
] $.
Ġinter pre
' ll
gener ator
ĠRuss ia
m its
Ġsequ ences
T AG
s lide
Ġfail s
Ġred shift
ĠPro gram
Ġen ded
Ġfin ancial
Ġread y
ys ics
ill is
\ )
Ġco med
ĠW al
van ia
sol r
ĠUR I
Ġw oman
u um
20 23
p ace
az y
serial ize
nthe tic
Ġexpress ions
clo sed
D ig
ad y
Ġla unch
ĠChampionship s
Ġcom mercial
ĠSt andard
ĠM ur
Ġf etch
Ġ uri
log ies
c ross
c ancel
è ¿
ful ly
>< !--
link ed
19 64
am ous
ac ific
oot strap
h ook
Ġpr incipal
aw n
Ġregister ed
B Y
big r
M s
Ġb re
cour se
Ign ore
Aut hentication
form al
Ġpattern s
Ġlook ing
S G
ĠO N
e ven
ĠT imes
ad oc
Ġd raft
Option al
cre ment
Ġf s
riter ion
Ġb ulk
Ġv m
Ġe fficiency
ro ke
An im
CO MM
ĠH on
}[ \
Ġlang uages
Ġ| =
h d
Ġsum mar
Ġro ugh
math op
ĠF OR
Ġb asketball
Ġgrav it
ĠMart in
Ser vlet
Ġneut r
Ġla unched
Ġvari ation
å Ĭ
Ġmedi um
E Y
m ix
ĠB ob
Ġra ised
po ch
Menu Item
t iny
Ġcomp iler
hel lo
Ġexplan ation
lic enses
ck ets
ĠC ross
Ġhe at
ĠEar th
> [
LE TE
LE MENT
gra v
p et
Ġs lo
Ġex cit
ĠVAL UE
Output Stream
,\ \
K it
U ses
ĠĠĠĠĠĠĠĠĠĠĠĠĠĠĠĠĠĠĠĠĠĠĠĠĠĠĠĠĠĠĠĠ ĠĠ
Ġdown load
v art
d ynamic
Exec utor
Ġallow ing
\ }$.
(' <
Ġsatisfy ing
Ġown ed
b as
ĠCre ates
w ill
ay lor
Ġfore ign
ad ium
Ġindividual s
bm atrix
Ġf ol
if ts
are n
Ġcom mut
ens ities
ĠS u
L Y
Ù Ħ
, .
C CESS
ĠPar liament
Ġw rong
Ġ ens
ĠM ajor
s co
ĠVAL IGN
ĠO Caml
au x
Ġd ire
en ant
196 5
comp lex
ĠY oung
ĉĉ ĠĠĠ
/* !
pl ane
ĠCh ild
al ias
ĠR est
Ġis land
p riv
ĠCl asses
$ {\
Ġfor ced
Ð ¿
Ġdis able
Ġ( %
Ġb ug
lect ron
Ġac ade
Ġany thing
Ġfin ish
Dis patch
Ġf air
per iod
ĠI ter
ĠH aw
Ġsamp ling
E st
Ġ" '
UE ST
fol io
ĠP lan
Ġa ver
ĠBu ilder
Ġan chor
Ver ify
and o
Ġk ing
H C
ĠÐ ²
Ġpredict ed
Ġequ ilibrium
AT CH
ĠEn ter
em bed
Ġopp ortun
Å Ĥ
Ġed ition
Ġbehavi our
ĠV irtual
19 30
Ġadopt ed
P OS
+ (
i ota
Ġe c
ne ut
}} }\
Ġh um
= &
Ġex ports
W IN
Ġr iver
ĠSt ream
tr ins
Ġvocal s
(" \
S ame
Ġab und
ĠS ta
run ner
10 24
! </
ĠBy te
ĠC ore
te am
Ġmiss ion
he ets
text ure
com b
b an
Ġw arning
Ġus ual
Ġsh ock
WE BPACK
Ġb attle
Ġprec ision
Ġw all
ĠS oviet
spec ific
A ccording
k g
Run ner
ĠĠĠĠĠĠĠĠĠĠĠĠĠĠĠĠĠĠĠĠĠĠĠĠĠĠĠĠĠĠĠĠ ĠĠĠĠ
Ġc b
================================ ================================
rupt ed
iss ue
get String
Ġcom ments
ph y
Ġdef ines
hent ic
Ã ¥
er c
ĠMo unt
ed u
R ot
Ex tra
e per
Ġmaterial s
ĠS ocial
get Type
Ġr an
LA Y
ARN ING
Ġunderstand ing
it iz
] $,
Ġsuggest ed
ĠCong ress
c mp
Ġapp lying
Ġin herit
Ï ĥ
Ġsu itable
Ġadmin istr
end point
produ ction
f p
Ġmon itor
G iven
,\ ,\
Ġr ational
Ġsu ffer
cons ist
uplic ate
long rightarrow
}} _{\
s en
an alysis
ĠAn n
Ġfind ing
lin ux
Lo cale
ĠP romise
Ġis su
f older
st rip
ĠL ove
M ag
dat etime
ĠProv ince
19 20
i per
Ġc as
BU ILD
reg ular
dic ate
ĠH a
Ġr u
u ations
Ġin struction
ĠBra zil
Ġstr ateg
An aly
not ify
Ġri se
ari os
stand ing
Ġexec uted
Ġc ri
S W
Ġturn ed
Ġp p
Ġqu eries
L C
Ġget ting
Ġiter ation
Ġatt ract
) })
Ġpr inciple
Ġcop ies
il bert
Ġconvert ed
Pro of
S F
Expect ed
p ragma
d rag
f av
pri se
Ġph il
aw esome
Error f
IMP ORTED
ĉĉĉĉ Ċ
Ġdep ict
) &
er v
Ġparent s
Ġf older
× Ļ
Ġnor thern
f ake
ĠJose ph
ĠM ov
Ġassert True
li z
19 66
u zz
bind ing
CRE ATE
S ta
ĠSup port
Ġes cape
fore ach
ĠS M
ĠHe ad
Ġs outhern
s id
Ã ±
Ġco ast
os a
Ġrep ository
Ġw or
D irection
v ature
ĠLe e
St at
Id x
Ġsatisf ied
UN T
ĠC ard
ĠLo ad
D ER
ĠS i
s ent
Ġrail way
ans as
O wner
Ġquant ity
ane ous
omorph ic
Ġ' "
jac ent
U CT
und red
Ġpr ison
Up load
ĠT our
less sim
unk nown
h al
er ed
Ġseason s
ĠE ducation
Code c
Ġsepar ated
pl ain
ĠW ales
Ø ¯
Man agement
D TD
col lect
B ad
Ġchem ical
Copy right
sur face
Ġc ensus
ĠRad io
P romise
Ġel li
Part ition
ĠIn formation
are st
Ġp icture
em it
Ġir re
Ġmed ian
p at
Ġw x
place ment
Ġsub sequent
E O
On ce
ot ic
ca pt
Ġact s
ĠG iven
empty set
Ġst atistical
Ġuser name
syl vania
en coding
Ġimp licit
Ġdiag onal
') ->
c ient
stats models
ĠC la
Ġcon version
Ġe p
Ġtr ust
Ġest imation
ĠB ank
de code
ĠLog ger
ĠM en
çĶ ¨
Ġp iece
st age
D iff
Ġaccur ate
Ġp ixels
Ag greg
med ium
Ġ- =
arch ive
Ġlate st
ĠG raph
CD ATA
ig a
Ù ħ
Ġname ly
7 00
on ed
ct ree
ĠJ un
! (
ĠH ot
Ġb inding
w an
Ġpl us
Met rics
Ġp ipeline
map s
Ġfre edom
Ġsufficient ly
neg ative
ĠThe ir
B ra
th ere
get Message
De v
Ġc ategories
Ġme tal
Ġ\ ]
Ġc at
Del ay
on omy
Ġtra ffic
sh are
Ġhe art
ĠCol umb
Ġfe e
ĠA wards
ĠBl ue
ĠK EY
att ed
Ġband s
t ts
ĠF C
Ġ' #
Ġ-- ></
Ġco ol
< >();
ĠI rish
ĠNor thern
Ġfore st
Ġplan et
r at
p in
ĠIn valid
Ġg oto
S m
avel ength
p ite
Ġreason s
H ow
ri ed
C ulture
c ryption
jav ax
ordin ate
. ',
Ġle aves
RE CT
Ġh orizontal
s ass
Ġm ount
am in
Ġpredict ions
l ace
du mp
Ġdoc uments
get Class
RES ULT
Ġn om
Ġint ended
ĠHistor ic
Ġ` ``
ord ers
ĠG lobal
google apis
ex clude
lement s
Ġch ampionship
a ug
Mon th
Ġign ored
iv ation
j ackson
Ġdisplay ed
Ġder ive
File Name
ĠSer ial
F ixed
p al
ĠSpec ial
ce an
local host
Ġnormal ized
part y
vent ory
M ut
ĠF ix
Ġsum mer
A I
}} .
Ġconst it
me asure
Ġcomplet ion
Ġpass ing
ĠAre a
æ ĺ
ĠP ack
;\ ;\
Ġcon sequence
be ans
Ġde legate
ĠM i
Ġask ed
Ġe arn
atri ate
Ġper mission
ĠCon st
Ġpo et
il a
list ener
script style
Spl it
SO URCE
Ġrad ial
onal d
Ġc lock
Ġpar sed
Ġne ural
-------- --
Ġse a
ĠAd min
F OR
ĠA ccess
}_{ -
ĠP ass
ong s
dist ance
ĠEmp ire
D r
ĠG ood
Ġneighbor hood
b undle
he ta
an notations
Ġmax imal
Ã ¸
amazon aws
$ &
mon d
Ġcomput ing
ost on
Ġinit i
Ġup dates
S core
Ġnumer ous
Ġexper i
Ġimpro ved
} ",
Ġ ill
op am
ĠN on
C areer
d n
ĠD own
Ġtry ing
Ġqu arter
ĠB ecause
Ġin strument
eng er
Ġ-- -
Ġmov ie
u f
Ġre ports
Ġderiv ative
p ur
Load ing
Ġim ag
Ġvari ance
Det ector
Ġs ending
Ġle aving
ĠW ood
ĠO k
requ ency
Ġ$ ,
Ġmus ical
math it
ge br
der r
Ġat tended
pag ination
M aster
ĠPar se
fl ush
AR D
App Compat
i Ã³n
ĠT ABLE
L at
g ood
( /
ĠY our
Compar ison
F amily
} ))
ra ined
max cdn
ĠBu ffer
at ibility
ĠA uthor
Ġdis covered
Ġdiv ided
ĠA mazon
b ian
ĠJ S
C trl
Ġde cor
Ġpro te
me mbers
ĠS pe
}} ^{\
Ġweek s
con cat
" ];
ar ith
s core
ĠCont ent
Av ailable
tr ivial
Ġt rees
St ub
Ch art
Ġre peated
Ġcoun ty
Re ason
Exec ute
() ">
Ġadvant age
Ġdesp ite
Ġembed ding
Ġw idget
Ġ ĉ
Ġprogra mming
Ġmeet ing
Ġc elebr
Ġg overn
ĠF l
tain ment
F ALSE
Ġ ice
Ð ·
Ï ģ
Ġcorrect ly
Ġob vious
SP AN
Ġco inc
S ources
Ġdis patch
IL ITY
do or
ve e
MP L
h istory
ĠCh annel
ĠAppend ix
se p
Ġn arrow
Ġst ability
Ġext ensions
S napshot
pt o
Ġident ical
ĠG reek
Model s
ĠSec urity
ĠHand le
M achine
Ġradi ation
G IN
cu ssion
ĠDe v
Ġdefinition s
Ġgu ide
Ġecon omic
act ual
a ui
Ġth ing
][ ]{
w ave
Ġc atalog
ell ing
ro b
Ser ies
Ġlog ic
Ġliter al
process or
}) }
D M
s heet
Ġst yles
Ġs it
ong o
Ġs pher
TO M
Ġlumin osity
ĠO l
V irtual
N ON
Ġb ridge
Ġprior ity
Ġbe coming
L icense
Ġsub stant
^{ (\
p ref
Ġf light
Ġwant ed
RE E
Ġconf irmed
Ġ Ñģ
com mun
figure s
Ġto kens
r ick
U A
Ġener gies
Ġre v
Ġcl one
IN VALID
ĠC urrent
ĠN ext
c n
ĠSp ain
no frame
Ġsur round
Ġim m
Ġtr ivial
Ġcol ors
d ocker
ĠCo unt
Ġprom ise
Ġco verage
Ġe vol
Ġimport ance
ĠJ im
part s
Ġ' ''
h ot
ĠR untime
LIC ENSE
^{ *
Ġrequire ments
ĠComp onent
ĠP ower
ret ch
ie ces
Ġtopo logical
' m
serv ative
ĠRe ference
Sup er
ĠĠ čĊ
up per
Pri ority
ĠOff ice
C ook
Ġass umptions
T l
ĠA uto
Ġor th
ent y
fin ite
cri be
Ġa ward
Ġdel iver
not ification
var s
Fil ms
Ġ\ (\
st ud
ĠA rab
Ġindic ating
include s
Cre ated
################ ################
b inary
Ġse ed
Ġhapp en
Ġcom mission
Ġdecl are
e val
ĠCon vert
n am
ĠCh ief
Ġcandid ates
Ġturn s
> ${
Ġoper ating
add Class
Ġinterest ed
Fe ed
al ing
il ly
ĠPenn sylvania
display Name
Ġde scriptor
Ġj et
Ġiter ator
eli hood
Ġdepend ent
Ġdepart ment
istog ram
ixt ures
tool bar
% "><
Ġperform ing
ĠRout e
Ġin deed
st ion
serv let
Ġwork ers
exp and
arri age
let es
196 3
Ġ' @
on om
ext ensions
Ġpro tect
Ġassoci ation
ĠS H
A ctions
sh a
ĠDo uble
us band
Ġp lease
ymme tric
Ġk w
h pp
ĠReg ion
fe atures
Ġ( {\
ĠVal ley
Ġgrav ity
Bu f
Ġf le
}$ }
fra gment
im ize
D ynamic
æ Ī
W atch
Ġsuggest s
Z ero
Ġend s
ĠC ur
ĠJ ack
Ġph oto
och astic
ĠF ort
TI ES
Ġattack s
ater n
Ġdig ital
Ġg lob
Ġnew sp
ĠDe bug
Ge ometry
Ġnew ly
Ġw ood
Ġout come
Ġc lip
Ġ ^{
Ġen code
Ġcell padding
Ġis n
od o
Al ert
rop ic
n ail
196 2
Ġcell spacing
ĠUn it
th umb
AR RAY
ĉĉĉĉĉĉĉĉ ĉĉĉ
a is
s yn
t imer
ĠDe velopment
] </
Ġd iver
Ġn a
red irect
con current
Sup ported
ino is
) *
ell a
Ġch anging
temp orary
BA SE
ĠCh ange
Ġaffect ed
re ens
Ġd ashed
Ġwide ly
in ations
S eq
Ġ' -
BO OL
Ġm ind
ĠH as
Ġproper ly
` :
Ġcommun ities
Ġpro min
Ġequ als
Ġfil ters
Ġv on
'] .
Ġoper ated
Trans ition
Ġrecord ing
Ġhistor ical
Ġcommon ly
Ġdid n
Ġexplain ed
) }_
Ġposs ibly
ĠWARRAN TIES
M ust
cy cle
A E
it ors
55 5
è ®
Ġin ject
Ġen coded
s z
Ġre verse
flu id
Ġ======= =
Ġcla imed
Ġin come
=" {{
ĠS uch
Ġdesc ent
INS ERT
L IN
y o
n l
Ġis instance
Ġro les
AV E
Ġch ief
R T
Ã¡ n
gebr as
ĠJo urnal
@ {
t z
ch unk
Table Row
to ctree
' d
bound s
O W
ens itive
Ġp sy
ĠB ad
Ġobject ive
S pr
ĠV o
pear ance
D en
Ġto ld
Qu ant
ir ation
Ġlo gin
Ġoff ers
ĠW ay
ĠR am
Ġdefe ated
ĠGener ated
it ative
we ak
Dec imal
Ġqu ark
Data Type
dic ated
app le
Down load
Ġ' _
ref resh
Ġpur poses
Ġcontrol s
he mat
K e
Å ¾
Ġt ren
LO AD
Ġnon linear
et es
L emma
ident ity
decl are
Ġinter act
}) =
ĠO fficial
PRO P
' ve
Ġf ake
TER N
ib ration
ĠDirect or
Ġb rand
od d
Ġs ender
Ġres ist
ir t
C amera
Ġequ ality
Ġnear by
ĠM ember
d ag
ĠIllegal ArgumentException
ul p
Ġ} {
ĠĠĠĠĠ Ċ
ay a
un ing
ĠS end
ĠJ ones
Mon itor
G LE
(' ./
Ġd st
R ules
w ater
f ac
Hash Map
ĠU k
abe led
Ġf arm
inal s
ĠS ir
} ~
Ġdynam ical
Ġcol on
TR AN
OR K
ĠC art
ĠL ord
Ġm obile
Ġmag net
io graphy
comp ar
Ġthe ories
Bit map
u ce
Ġadd r
Ġpar a
multi row
ĠPub lished
por ation
iss on
F actor
ĠGu ide
Can not
dis k
Ġlist s
g ov
String Builder
ĠC ase
in ject
st ri
ĠIt em
__ ,
her ent
Ġc ub
Ġflu id
Ġgeneral ized
PY G
ound s
Ġl ived
ĠImm utable
OT TOM
r aries
Text View
Ġdr ug
ĠL anguage
Ġ# {
RE SS
ĠW HERE
Ġra re
lap sed
oo g
m x
Ġp atch
ace book
l ator
ĠClo ud
\ |\
k l
Ġf av
ĠAdd ress
Ġcol lected
Ġframe s
G A
Fe atures
F P
ail ability
o e
te ch
Ġsign als
Ġsing les
Ġmag azine
Ġprint f
Ġlo s
ĠPe ople
An alysis
Ġcache d
sub Nav
ĠC ivil
p ad
P REF
cal cul
ig ate
! "
] =
} >
im its
>( <
M utable
ĠM any
P ane
Ġp al
ard en
column width
G P
Ġal pha
Int ent
ĠM iddle
sub sec
EN ABLE
ĠT ro
T uple
Ġ\ !
ĉĉ čĊ
ic ed
C UR
or i
de mic
Ġact ing
EN TRY
d st
Ġp ref
Ġopp osite
G it
d on
ĠA ws
Ġw orth
V ec
ore s
Ġcontrol led
Ġann ual
Ġred irect
sp her
h ere
Pr imary
lu a
P resent
\ }\
Ġinter mediate
h ance
Ġrel ax
ĠIn deed
mat ches
E P
Sup p
Ġe ase
Work er
cl s
Ġag ents
L R
pro c
b ell
B ased
par allel
Dis k
$ };
Ġe mit
ĠE V
Ġreturn ing
Ġtw ice
Ðµ ÑĢ
Ġphot on
Ġrece iving
Ġconduct ed
co up
Ġimp lied
ĠE v
Ġsub sequently
ĠCon ference
tikz picture
ĠF ALSE
196 1
Ġlimit ations
ag ers
ĠT ree
ĠK en
Ġn s
ĠC amb
exec ution
ĠO x
pay load
Ġmix ing
\ }$,
set Text
un a
r ical
or ough
Ġtarget s
Ġinvestig ate
Ġ" ${
Ġevalu ated
Ġdecl ared
Mod ifier
up dated
Ġasymptot ic
i em
\ /
st rial
": "
}) ^
Ġd rum
ĉ ĠĠĠĠ
Ġapp arent
second ary
Ġp il
fact or
ĠS oc
19 44
Ġde leted
M F
ĠDes ign
Ġcapt ured
Ġquant ities
r as
Ġvari ant
q q
A SS
z ing
X Y
lear ning
Ġat tached
lo cale
Ġside s
label s
Cal endar
Ġcor ner
Ġconfig urations
../../ ../
" ])
Ġt uple
ĠS outhern
get Attribute
Ġv ote
Ġtext ure
; %
Ġevery thing
em y
Ġd rama
ĠĠĠĠĠĠĠĠĠĠĠĠĠĠĠĠĠĠĠĠĠĠĠĠĠĠĠĠĠĠĠĠ ĠĠĠĠĠĠ
se x
Cont ract
ik i
f an
g re
F etch
et c
Ġn ine
Ġar my
ĠCon f
Ġass uming
de termin
ĠM r
ĠP acific
Form atter
cre tion
ĠDate Time
Ġte le
Ġpro files
ĠT OP
Ġlow est
Ġ< ?
Ġsupp lied
Ġf riends
ĠS ar
Ġrot ate
Ġsol ar
ADD ING
Ab out
Ġl ie
Or igin
Ġcode s
ĠB al
' },
> `
ĠT ool
Match er
im ately
ĠW in
vart heta
- ">
Ġint ensity
enn is
Ġh op
Ġro ll
= .
ut s
a ired
C orre
ell er
ch at
Ġel imin
w as
Ġb ran
lement ed
D ry
Ġoffic er
Ġacquire d
respon d
Ġtemperature s
writ ten
ĠP ak
Con sider
B ridge
Ġf ederal
Ġsim ult
N umer
}} =
Ex ist
ĠBrit ain
pop up
SU CCESS
} |\
Ġgener ating
Ġin fra
Ġregard ing
ĠN ull
ex cept
FLA GS
Ġdep loy
ec lipse
="@ +
Ġpl ans
air man
ĠB ol
ĠSh ort
Ġnot es
S elf
H ence
project s
II I
C a
P ower
oriz on
ab y
Ġoutput s
ĠL ast
f aster
Ġ" ;
pre pare
Tool s
View Controller
Ġapprox imate
trins ic
Ġal one
Ġf irm
de scribe
g ems
ops is
ĠPr int
p ared
Ġh abit
Ġposs ibility
Ġprim arily
Ġsymbol s
" ?>
cp u
Ġh alo
Ġpro ceed
] {\
Ġd imensional
ĠC y
R C
Run ning
c v
ip ient
pend ing
ult y
CM D
Ġcur vature
g lob
Vis ual
× ª
pi pe
Ï Ģ
Ġser ving
ĠJer sey
Ġprecise ly
% )
Pol y
ĠR ay
ID E
ouse l
Ġf r
w i
script s
p ipeline
] ->
Has Been
Ass ociation
Ġact ors
late st
ĠÐ ½
$- $
Ġemp has
t b
D id
SP AC
T y
b ute
Ġmur der
Class Name
^* \
sup p
195 8
burg h
se gment
Ġsen ior
11 1
ri ent
Ġtechn ical
Ġhel per
ĠD er
ĠB re
d ensity
r ink
Ġh usband
Ġdr ive
Ġbelie ve
. $$
Ã º
Ġp seudo
Lin q
de scriptor
Ġan notation
As sembly
EV ENT
Block s
depend encies
Ġke pt
Ġindic ated
ĠC lear
ĠP HP
cond itions
Ġcorre ction
Ġ" )
fra g
Ġorient ation
is ot
Ġcon vent
S ide
Ass ign
sl ider
N ational
pack ages
char acter
ĠMich igan
trans late
Ġ' ,
me l
ĠH am
Ġsp irit
ĠS V
ĠM AX
ĠBO OST
me trics
re ason
F ixture
urren ce
h aps
filter s
/ )
In ternational
Co untry
met ic
Ġfoc used
m ay
T ex
Ġemploy ed
ĠR ender
ĠL ight
Str ip
at ers
over ning
ĠPort ug
PRO C
ĠIN TO
Ġfeed back
spe ed
== =
et al
ĠWil son
iz ers
fa iled
Ġsub group
Ġtable s
Ġcan vas
Ġ å
pro gram
man ifest
ĠMod al
e in
ĠDemoc ratic
ind u
M usic
[ ]{
Ġorgan ized
ĠB ORDER
Ð° ÑĤ
ĠIll inois
ĠB ern
Ġgravit ational
row Color
Ġdise ase
ĠT YPE
> ../
lic ated
Ġv oice
ĠM u
ĠB a
Ġca uses
shall er
Ġhypot hesis
bu cket
ĠL uc
Ġtri al
atter y
Ġhand ling
N a
Ch unk
Ġsh ips
g ray
g overnor
n od
man agement
ĠRe al
pt ic
ĠCol umn
d td
Set up
SP ACE
Ġse em
Tr igger
ĠOper ation
ĠSer vices
ĠT ran
195 9
Sec ret
Ġcharg ed
195 6
F ix
Ġcoup le
draw able
no logies
Ġpat ients
st ic
Ġcos mo
Ġd ictionary
task s
ent h
am ber
Ġun iversity
Un iform
P ush
ar se
ĠDef inition
part icle
In struction
Ġcre ates
urb an
ce eds
Ġconsist ing
ĠCent re
Ã© e
er g
Ġinvol ving
ĠJew ish
contin ue
ach use
d m
ĠI ran
19 42
co okie
ash ion
og onal
195 7
ur st
ĠB E
Ġsh oot
mu x
Ġbelong s
ĠG R
C ertificate
="../ _
te le
C SS
aw t
Ġcl s
Ġpro pose
g ather
ĠRes pon
ĠAs ia
æķ °
dat aset
B I
ST ART
Ġse at
Ġpe er
ĠPol and
5 12
ic ular
e h
form er
ĠO P
ĠOh io
W I
Ù Ī
FLA G
achuse tts
ĠN ative
B r
19 48
b ury
s amples
Ġg oogle
Ch anges
Ġl ives
lo mb
el come
ĠRem arks
Des ign
Ġreve aled
ĠJohn son
HasBeen Set
19 39
frame s
equ ations
æ Ĺ
B rit
gan ization
L i
con figure
ade s
Ġt end
L ines
Ġag o
Ġfluct uations
ĠI F
Ġ" #
ĠAs ian
M ail
Track er
Ġoffer ed
Ġart icles
. \\
Ġre striction
Ġis omorphism
Test ing
z ed
us al
E valu
ar ity
Ġtopo logy
In jection
> {
Ġas sess
Ġro uter
Struct ure
ĠG i
l r
ribut ed
Ġthrow n
Ġst ock
irc le
ĠA nother
**************************************************************** ********
Ġwest ern
ĠN a
Ġh ide
Ġh undred
Ġ} ).
Ġlocal ized
Array s
(" .
Sc ene
ĠP rem
ĠArg ument
over set
wik i
P M
ĠB oston
Ġbelie ved
ĠC ro
Ġhelp ed
s ources
Ġw rapper
ĠEd ward
Ġremo ves
H D
HO UT
styles heets
now ledge
Rece ived
P ipeline
Mark er
od ies
Ġre produ
REQ UEST
UR N
z o
r v
Ġf loor
Ġ ath
Ġb ass
Sup pose
Ġinter pol
ro g
process ing
W rap
__ ["
n ol
Ġqu asi
B reak
ĠFrancis co
Un ited
Al pha
amp ions
ane ously
T yp
Ġf amous
ed y
order ed
ul ing
value Of
ĠQue en
00 5
roll ers
ĠB ow
ĠNS String
ol ate
Sche me
ke ep
ĠA li
ist ed
quad ron
et ic
ph antom
ĠK h
( -\
Ġdet ector
, ...
ak i
ĠG ir
se parator
: =\
Ġbro ken
Al ign
quest ion
Ġvict ory
ox y
Look up
Ġregion al
v ements
EN CE
mut ex
Ġpack ages
Ġth reat
T ax
t ile
A nt
Ġar rest
Mod ified
Rad ius
ĠHig gs
Ġc ities
Ġm anner
over ride
ĠK ent
Ġtrans mission
A m
B ACK
E LEMENT
ĠĠĠĠ čĊ
Icon Error
: &
Ġst ories
ĠEnt ity
Ġh our
fav icon
CO M
Comp onents
w ho
ĠB Y
Ġveh icle
Ġp ending
Ġ. =
ĠF ilter
agr ang
c aret
or er
ĠScot land
ĠTech nology
EX PORT
ĠWilli ams
ĠLat in
N eg
T ip
Ġat mo
yst al
ĠM ah
n m
Ġcorre ctions
Ġorgan izations
to c
Ġat omic
ĠC apt
med skip
st ub
de fer
Ġ* ,
13 0
m ime
Ġtre ated
Ġsay ing
Ġmat ched
19 46
3 60
U C
RE NT
File Path
Ġst ress
P D
/** */
Ġlink ed
c uda
de legate
> .</
ĠD utch
viron ments
out er
R ob
Ġl abor
Ġpre t
Ġwork er
Wh ere
Ġph ases
Ġe poch
Ġvis ited
ĠM id
RE T
IconError Encoded
lic a
Dist ance
Ali as
Ġrelig ious
10 2
V O
qu id
set ting
S ports
Ġf ra
ĠM O
vers ions
ĠHash Map
19 55
Ġ\ ,\
ĠF ire
Ġat om
om ents
faster xml
az ure
) }.
=- =-
Ġf aster
Ġpre m
member NameLink
SPAC ING
br anch
an ced
cs v
ust ain
ĠCEL L
Ġread s
é Ģ
19 41
ĠRail way
Ġpart ies
Per iod
( `
I ME
r gb
Se parator
N ECT
ĠR h
Ġgrant ed
ĠGeorg ia
ĠT im
He ap
mer ce
ĠC as
Ġm or
Ġc riteria
}\ |
1 12
S lot
Ġ" [
lo tt
ver al
or ange
ĠSt an
Ġcheck s
Ġassign ment
O FF
st eps
ĠW ill
ĠM os
Ġv ec
Ġpar ame
Ġf iction
ĠA D
Ġs ociety
b ec
sol id
Ġelection s
IN IT
Ġb old
Ġresol ved
I p
en o
ĠOther wise
uc ial
ĠMan agement
Ġen cour
velo pe
Ġde dicated
sche mas
Ġ ,\
40 4
v p
back slash
gy pt
Ġar c
ĠPro du
H y
co untry
Ġg overning
Comp letion
Com mun
}{ *
ĠMod ule
arg v
SS ION
Ġst ochastic
t ract
Ġdefault s
195 2
ĠF ollowing
Ġfootball er
19 43
db c
Ġs oc
Ġs lot
M esh
Ġcol lapse
ĠTR UE
* ,
D ao
} "/>
ĠB ul
m ad
et ing
Ø ª
O cc
ic ations
Ġad jacent
Ġre cover
ĠE RR
) >
ap ed
In dic
Ġf oo
Ġmolec ular
á »
text color
\% $
ĠR ow
Com mit
Constraint s
ĠM ot
DE D
Ġup load
Al though
: %
P lot
Ġdestroy ed
D ict
Ġcon sec
P lease
et t
Ġdepend ency
Ġequival ence
Sup press
Ġen crypt
Ġtransfer red
â Ķ
! =
ĠN E
not ag
Ġacc um
\! \
? </
path s
ĠG ar
ĠF ar
X i
Ġco ins
ĠS che
Ġexponent ial
Ġfe at
per cent
ĉĉ Ġ
ĠA T
te en
K ernel
ĠT aylor
Ġeffort s
sl ant
] ['
id ential
TableRow Color
Ġ} ),
H L
? (
P ending
Ġcoll ision
Ġg uest
WA RE
Ġissu ed
Open Tl
SS AGE
sub string
Ġeigen values
ing ham
LP ADDING
FORM AT
Ġan om
Ġg it
ĠInitial ize
N ONE
ĠJ ud
append Child
W in
D one
st or
sc an
Ġinc ident
nos cript
) ^\
ĠMethod s
B ER
Ġ$ ('#
b one
Ġretrie ve
Ġfind s
ĠAct ive
is o
Ġm ail
alle st
urn e
Ġtest ed
ab stract
sh op
ĠCEL LPADDING
Ġdraw n
redu ce
ide os
th ree
ĠP lease
ĠJ aco
c lic
Ġpl as
ĠRep resent
ellig ence
inet ic
I l
ĠCELL SPACING
Ġref ers
if er
Ġat oms
Ġr ig
ap h
Ġt a
e valu
tain ers
ĠL ab
More over
int s
Dest roy
t one
$ ^
Ġinteg rated
Ġto ward
ĠW ater
ĠMass achusetts
og en
Ġw ild
ĠCo ast
Are Equal
om ite
Ġide as
co st
Ġw avelength
Ġsc an
Ġ à¤
ig ator
ub ern
ĠP UBLIC
F ac
in verse
ĠB C
Enumer able
at tach
pack et
ver b
Int eg
Ġspec ifically
duc ible
Ġt urb
ĠGe V
op acity
Ġabsor ption
Al t
om er
Ġdecre ase
Ġlearn ed
ĠPhil ipp
E r
k h
Ġc itiz
Ġoffic ers
1 16
ĠBus iness
Ġin ser
Ġperiod ic
Ġ" );
and y
Can vas
ĠG overnor
in variant
l b
ir ical
pr ice
Ġsaf ety
respon sive
iven ess
ĠPr ince
Ġm arg
tra in
e ction
+ "
t v
Ġtransition s
Ġs ister
gener ic
å Ń
elastic search
)-- (
G RO
Ġv en
ĠRec ord
initial ize
Ġembed ded
Trans lation
Pr ice
omite mpty
Top ic
Sh adow
ma ch
Ġsyn tax
th ick
! ]
omin ated
Ġre action
Ġchall enge
com ments
Ä ĥ
mod ifier
jo y
ĠB as
ent ries
ul ating
Ġsepar ation
rom ag
* >(
x t
sp i
ĠS C
Pay ment
ĠSe lect
ss ible
ãģ ®
Pro b
C r
ĠS em
block s
MA GE
Ġattemp ts
Right arrow
attr s
We ek
qu al
ĠT re
' +
:: $
ĠB OTTOM
ĠE st
Ġgrow ing
ĠCon nect
Ġpower ful
nt ario
Ġdire ctions
Ġy oun
Or iginal
it zer
cache d
in cluding
Ġtr uth
Ġphil osoph
Java Script
FA IL
Conf irm
Col l
Ref resh
Access or
ĠS und
ĠSe a
AR GET
Pe er
rop ical
tribut ed
19 47
ĠRe port
V R
ul us
Ġrepresent ative
W est
comp act
195 4
ĠSh ould
Ġbase line
Ġperturb ation
Ġret ired
B g
IT LE
Ġcomed y
C ref
è ¡
S rc
Ġdam age
Ġfig ures
ous ing
s ame
14 0
Al gorithm
Ġth r
Ġt s
Ġm useum
Ðµ ÑĤ
RO OT
ĠOx ford
Ġcon d
Ġc art
Ġlarg ely
Ġscen arios
ition ally
un iform
out heast
STR UCT
P ut
ĠS af
Cont in
ĠĠĠĠĠĠĠĠĠĠĠĠĠĠĠĠĠĠĠĠĠĠĠĠĠĠĠĠĠĠĠĠ ĠĠĠĠĠĠĠĠĠĠĠĠĠĠĠĠĠĠĠ
Met ric
Ġt imer
Ġinter ior
Spe ed
Ġelectron ic
ĠD eta
Ġhapp ens
int ro
on ia
scri ptions
eder ation
l av
P adding
Ġle af
r ance
FFFF FF
es cape
ĠK ong
Ġd ensities
ĠB on
Ġ$\ {\
Ġinter view
run ning
ĠIn ternal
M illis
t ol
Data Source
i y
ate st
ĠL ater
ad apter
ĠSt ation
Ġo il
Ġad vanced
foot notes
L com
is er
ii i
Ġc ert
con duct
agrang ian
Ġt f
ĠEast ern
it ely
× Ķ
Ġinterpret ation
19 2
Ġman ifest
Ġf o
Ġv anish
Ġse gments
Ġr anges
Ġend if
non atomic
ĠO ptions
Ġn ation
ipp ing
ĠColumb ia
rypt o
the ad
Ġex pr
Ġc p
St age
Ġextract ed
C LI
cept or
nt il
Ġsupp ly
Ġcharacter istics
M ix
first row
ch rome
ll a
Ġmer ged
look up
Ġind ent
ab eth
Serial ization
and box
Pre vious
Ġext ent
h alf
Ġport ion
el d
sc reens
ĠH ung
ext ype
ĠTh ree
j an
Ġro ut
Brit ish
ar ters
Bu cket
aa aa
Ġspe ak
195 3
U V
Exp ress
'] ))
Own Property
i ph
periment al
Ġmot or
og gle
S UB
de mo
Ġnot ification
~ (\
ĠD I
hemat ical
Ñ ĸ
prob lem
Ġ ing
Ġun iversal
ĠD ig
Ġbeg ins
dir name
Ġde viation
ge ometry
="# "
ĠG rid
Ġ// -->
-------------------------------- ----------------
ul y
i ar
v et
Ġapp lies
P ixel
c urrency
Ġcoup led
ĠTok en
alk er
++ ++
Ù ĩ
ĠE con
ĠEn vironment
hash Code
AC CE
$ '
Path s
Ġcirc uit
x f
Ġrestrict ed
Ġprof essor
Ġorbit al
Ġr ich
ç »
Lower Case
Ġd s
Ex it
O k
Ġ ../
ĠL es
over flow
| $
down arrow
er ry
Ġcho ices
ext ract
ĠP ackage
Î ·
Person al
ĠIn it
D ITION
ĠPro p
b ench
ĠUS A
ĠWIT HOUT
^* (
ĠJ ackson
ar ma
sh arp
ĠCon sider
ur ies
co ut
Re place
in os
Ġprodu ces
ĠDat abase
Ġa ux
mac ro
ãĥ ¼
est ing
Ġpolitic ians
oth ing
Ġnecess arily
U UID
ĠA th
Ġcomp liance
IN DEX
ĠE ven
ĉĉĉĉĉĉĉĉ ĉĉĉĉ
Graph ics
ĠS N
Ġrecogn ition
Ð¾Ð »
Ġstate ments
ĠW hether
Ġcontinu um
Ġs napshot
Ġvari ations
]] ></
Ġepisode s
Ġre ject
ĠJ es
en vironment
Ġ æ
ĠH uman
H ook
th ur
ĠCor poration
ce il
Ġun able
ser vers
Ġ" _
S PE
Ġa im
] ),
Pro c
. ")
Ġx si
` )
v ect
itu ency
.... ....
Ġfor t
SER VER
Ġsens itive
I ss
In f
W ill
0000 000
Q t
Bl ack
part ition
Ġessential ly
Ġfif th
Label s
] ).
_ [
ĠD CHECK
ject ure
Ġsurround ing
ĠString Builder
St ar
ĠSen ate
å ľ
en ance
Ġh or
bold math
it age
]( #
ĠAlex ander
Ġinteg ers
Ġeffect ively
Ġho spital
Ġclub s
ĠIsra el
Un ique
Rel ative
b x
195 1
ht t
Ġattr s
19 49
ĠJ r
Ġpy thon
Ġco lour
ĠFour ier
ot i
Ġdiff usion
V D
ĠB ell
Check ed
Ġrough ly
ph ysical
Ġph one
new s
Ġthan k
G erman
temp t
s is
Ġho pe
OB JECT
ĠCon sole
ations hip
Ġdisc r
O ld
x sd
B M
Pop up
ĠS ty
Vis itor
Ġl l
ath an
Ġor ig
Ġrece iver
Ġent ang
l ife
T ry
ĠCon nection
ĠP erson
cor ollary
ĠPol ish
Ġbreak ing
Part y
h base
Ġreview s
ĠP en
che ster
Ġr hs
100 00
ell ite
Ġflow s
Ġper mut
Ġco lo
ĠM aster
J s
Ã ¢
ĠT ru
rop ol
Ġcla ims
itect ure
ĠĠĠĠĠĠĠĠĠĠĠĠĠĠĠĠĠĠĠĠĠĠĠĠĠĠĠĠĠĠĠĠ ĠĠĠĠĠĠĠĠ
ĠM IT
}/ \
Read y
Ġ[ {
an cer
Ġc ertificate
ĠN ight
Ġdat etime
Ġen umer
ict ures
D im
am ond
Ġuniform ly
Ġfrequ encies
s ender
Ġth ous
col l
ins on
at om
Ġpre par
ph ia
Ġnot ion
Ġsche dule
| ^{
ĠT ry
le e
Ġcopy right
D on
ME M
ra it
mark er
Z oom
Ġ// !
$. }
Ġsco res
footnotes ize
app ings
Ġbu cket
Ġb on
Ġdemonstr ate
ra ble
Ġg lu
Ġintrodu ction
F M
H er
Ġcon sumer
we ek
Ġfil led
Ġperson nel
ĠK IND
form ing
ĠL ittle
Ġcost s
Cred entials
Ġal leg
se cret
ant ly
Ġover lap
Ġro utes
ĠW all
in ction
Ġtr unc
pri ority
Ġaut hentication
Ġhe av
in herited
En tries
Ġsk y
pro pto
Ġn ested
ĠScott ish
Ġs parse
ĠPol ice
d imension
Ġto String
ern ate
Ġneut ral
Ġre jected
Vis ibility
um a
Ġvac uum
ĠI V
Ġconf idence
Ġvers us
AR B
Vari ant
Ġpart ner
ynam ics
Ġmunicip ality
Ġadv ance
Ġpromin ent
Stack Trace
ĠD ar
L ike
i h
\ ":
ad ded
Ġclose ly
Rout er
ĠCO VID
o y
at ile
ĠSci ences
Pro f
Ġc ultural
A MP
gr pc
Ġin correct
t uple
C ity
ĠP laces
Ġser ves
ĠA ff
ĠU P
f all
Ġredu ces
F ill
Ġser ious
Mod al
th rough
H ave
A cc
="# ">
ĉĉĉĉĉĉ Ċ
Ġneut ron
ĠC reek
CO UNT
ĠB asic
Ġin herited
hav i
ĠThe atre
id o
Ġint ent
ĠA ri
ru it
Ġb enchmark
' =>
ĠR PC
S can
ĠAc count
S ent
10 5
Ġa ug
ma j
ott ed
Ġpolic ies
Ġsort ed
ĠL I
S an
D er
; ,
sche me
F ollowing
the less
ĠParameter s
vis ibility
end o
ĠSup pose
19 36
" </
Ġp owers
Ġcon volution
Com b
ĠH an
}^{ +
Ġabs ence
stream ing
" |
ĠD ictionary
Ġeast ern
Ġsup pose
Ġto t
size of
ĠJ on
ĠJe an
Ġdriv ing
ĠJ ob
Ġproces sed
amb ig
W ORK
if rame
over lay
Ġrecomm ended
Ġaspect s
50 9
Valid ate
at on
R S
to Equal
ĠB ang
ith metic
id ents
Ġ ray
ĠAt tribute
Ġreg ression
Ġh ockey
Pay load
c as
Trans fer
Ġis ot
ĠSpr ing
() [
allow ed
or acle
: -
parent Node
dist ribution
oun tains
Ġref lection
Un iversity
L ang
est er
Ġhouse s
Set s
Ġde du
Ġelectron s
tri angle
P icker
B ro
Ġd om
ĠÐ ¸
re hen
Ġfit ting
up arrow
ang les
he x
ĠW ell
pre view
Ġr c
ro vers
Up dated
Lo aded
ĠKore a
tr ansp
han ced
Ġro bot
% .
Ġs lice
Ġcontin ues
Te am
Ġneutr ino
Ġsur faces
c ity
us age
Ġw ire
Ġw inner
ĠD M
Ġpay ment
Ġal ter
Ġmov es
Sh arp
Ġm s
C ross
Back up
Ġvary ing
ĠÂ £
Ġuncertaint ies
id ge
Ġs i
Ġquad ratic
ĠJ eff
S ig
Ġrecomm end
$ ^{
Ġproport ional
LA B
Ġsh adow
W arnings
Ġs in
Ġpass phrase
Ġanaly tic
Ġlead ers
Ġ"- //
v ance
P at
ĠC HE
Ġtri ed
ira c
Ñ Ĩ
illi seconds
ĠC P
Ġappear ances
Ġex cess
Ġinvest igation
Ġs phere
new line
; ]
ĠD A
Ã© s
Ġt ile
D imension
Ġs an
Mer ge
u z
Ġprov ince
Ġd ot
A nother
f ort
Ġfac ilities
Ġhom ogeneous
Ġextreme ly
w ind
Ġge ometric
Ġspe ech
Ġlook up
is her
Ġkw args
Per cent
Ġdist ances
Ġdescri bing
Second s
po i
Ġp itch
Ġe lev
ĠT EST
An chor
h ow
^^ ^^
li des
LIC ATION
d v
Ġveh icles
hy per
Ġjob s
Ġtell s
Ġpro tection
poly mer
En coder
g h
ĠC A
stack rel
R GB
Ġcomp ilation
ymme try
Ġdef ining
D av
b etween
ĠOn ce
Ass ignment
set Attribute
vers ation
Status Code
ĠL icensed
Ġlet ters
==== =
Ġen counter
Ġearn ed
at ype
14 4
Ġme sh
Spec ial
ĠG it
p f
ĠG ro
Ġcred entials
l on
Ext ract
g ui
B lob
Ġper man
be low
) (\
ĠE gypt
Ġcon clusion
Ġconj ug
Me asure
Oper ations
de veloper
ch ant
ubern etes
ĠExp ression
back end
{ |
u des
ĠDan iel
p le
ĠT arget
er or
ĠP ra
h ang
ĠS ET
Ġf ellow
Sur face
00 2
Ġ/ ><
__ .
Ġp asses
V C
Ġe le
Ġy outh
und les
Ġsche mes
Ġconc ert
Ġconf lict
C art
Ġlo cale
ĠS at
ind ices
Ġsy mp
it ical
; -
M ost
ĠIs lam
ĠCON FIG
Comp lex
SD K
Part icip
r atio
OR S
P res
NG TH
Ġ" +
Hel lo
ĠN C
Function s
Ġb lood
Ġdisp ersion
ro unded
is a
Ġpanel s
g iven
ĠD iag
)} (\
mat htt
neut ral
ph an
ĠW is
c lock
Ġreplace ment
ick y
w ing
ĠInst ead
end region
et ition
ĠIs lands
> ()</
Ġstrict ly
Ġre named
est im
ĠW rit
e ast
ol id
l ad
Ġer a
Ġth in
Ġ/ ></
hl js
ze ch
Ġw it
nes ota
DO CK
19 38
atur ally
Ġdomin ant
Any Ref
Ġwindow s
ĠBro ok
Ġpost er
prec ision
Up per
ĠB BC
ĠÐ º
Ġbrief ly
ĠH ong
Ġlaw s
Ġres idual
ĠĠĠĠĠĠĠĠĠĠĠĠĠĠĠĠĠĠĠĠĠĠĠĠĠĠĠĠĠĠĠĠ ĠĠĠĠĠĠĠĠĠ
Ġexpect ation
ĠJo e
×Ļ ×
d ays
ĠCommun ity
ĠSum mary
help ers
Ġqu ot
T ensor
short cut
ĠVer ify
b est
Ġen hance
Ġad ult
$\ ,
Ġstraight forward
left arrow
Ġf i
att al
' _{
ap l
In clude
C lean
ĠL em
ĠC e
h ill
erm i
Ġcom m
ĠS ize
ĠSecret ary
c amera
lu eto
Ġpolar ization
ĠS yntax
is c
Ġst reet
ren ce
Ġentire ly
l ined
Con s
an cing
ffff ff
Ġr m
Ġcl in
Ġtemp orary
Ġcondition al
... )
Ġinitial ized
valid ator
& =\
*} [
De coder
ag a
Ġsp ac
Ġs ales
ĠSur vey
Ġdro pped
Ġs port
Ġalong side
Ġmain tain
Ġresid ents
Ġbase ball
Ġd ut
10 4
Ġdomain s
W H
L ite
ĠArg ent
Ġwe ap
bal ena
5 000
ĠL ore
ĠB et
Ġ\ [
uck y
Ġalign ment
ss on
Ġstrateg ies
Ġequip ment
sign al
reate st
Ġbound aries
ĠCor ps
to LowerCase
Ð ¹
Ġp referred
Ġweight ed
it led
WR ITE
, </
Sty les
Ġent ities
ant e
i able
FR AME
orph ic
S co
f w
{ (\
19 37
MS G
Ġcount s
ĠS us
Ġcon ference
lueto oth
vari ables
Ref lection
Ġengine ering
Sub scription
Sub ject
Î »
Ġb ul
ĠP ay
co pic
sub scription
ul f
ces ses
"> &#
Ġsp ot
iv ated
Ġun iqu
h fill
Ġre peat
Ġclo sure
decor ation
Ġad vert
at iv
// !
render er
ear ning
ĠBer lin
With out
19 18
us hed
Ġexplo re
bad ge
AUT H
Conn ector
ĠRe view
Ġman ip
Ġcan cer
work er
cc c
Ġca ref
Ġarriv ed
Ġconfigure d
19 19
se par
ĠM atch
as p
Ġrecogn ized
ER S
Ġre sc
H ar
A ustral
Ġacade mic
B T
d ney
Ġcharg es
S afe
on ym
Ġcli ents
ĠQ String
FT WARE
ĠF acebook
//////////////////////////////// ////////////////////////////////
ĠVictor ia
ĠCre ated
=" //
Ġ. /
ĠWe ek
Def ined
ĠBel g
S cheduler
S yn
ĠL ive
{ .
Å Ł
brid ge
place holder
Ġmodel ing
as set
Dest ination
st ood
Ġag ree
Ġdomin ated
r ating
ct rl
Cook ie
ĠIn ternet
l ive
Ġp ieces
sp ark
Ġm ach
la de
ord an
oci ated
Ġteach er
al ty
Ġsol ving
Ġrespon ses
ĠP olicy
U K
Ġp apers
ĠVALUE S
Ġan cient
Ġwait ing
sh iv
inst ein
Ġadmin istration
Ġc av
" }
enn es
ĠK o
ĠÐ ´
Rep ly
">( </
List eners
Ġimpro vement
Ġthread s
Ġsens itivity
Ġme ant
er os
mult iple
M ount
ĠA k
OPT ION
ĠC at
eg o
ant ics
z i
GEN ER
state ment
ĠJust ice
Ġact ress
ĠHo spital
code s
S outh
ĠF inal
B ranch
Ġmax im
Ġdecre ases
. ');
Ġtrans verse
N ested
ĠCHE CK
iz ard
ch anges
Ġc ars
enc ing
ĠD ue
Ġw rap
Ġprom oted
Ġderiv atives
AB ILITY
ĠMin istry
Vari ables
Ġrandom ly
Ġinsp ired
ites pace
Ġrespect ive
\| _
Ġdiag rams
TEXT URE
Ġtemp oral
Ġob server
ĠC ache
N ov
opt im
r ane
TO OL
Ġa wards
S n
Ġsimilar ly
ĠP layer
Ġex clude
dis c
Ġm arriage
Ġde b
le af
Ġim mediate
B LOCK
reg istry
Ġb udget
ĠĠĠĠĠĠĠĠ čĊ
Ġsome one
ĠT ab
Ġinterval s
Ġro ots
Ġaccount s
Ġv es
L T
Ġan ce
ĠD raw
Ġstore s
Ġco vers
ĠGL int
z oom
ra ine
Ġac cretion
Ġab ort
Ġ( ;
SH A
Ġrepl acing
ĠS yn
Co ord
ĠS SL
f our
ĠRepublic an
' ):
f un
He alth
Ġk n
ĠCol l
Ġ\ |\
Ġalgebra ic
ĠL abel
Back end
ĠProf essor
ĠO ntario
Ġon click
ref lect
ME SSAGE
ĠAt l
AS H
Co uld
vers al
Scal ar
Res pon
s ocial
Ġ' ')
ort heast
ĠD ub
Ġarray s
AND LE
S UP
Ġpl anned
Ġsent ence
iss ions
text area
Equal To
ĠJava Script
}$ \
sub scribe
\, {\
å Ľ
Ġ(! (
Ġart ifact
ĠPri me
Ġform ulation
P aint
g c
Ġw ish
est ure
Comp are
ĠS U
ĠB and
Ġkey board
A zure
her lands
Ġp in
ĠB an
Ġre start
v able
Ġco uncil
Ġg ate
Ġanaly ze
ra ck
Error Code
default s
reg ex
ĠA GN
R L
<? >
> $
Ġcomp ile
Ġbe aut
Ġ& $
text up
l arg
j k
S ound
ĠS on
grav ity
Ġhard ware
Ġorder ing
b oth
p n
[] )
il ine
Ġmet all
ĠV ideo
Over lay
Ġcirc um
St atistics
v n
11 4
ĠV M
ir k
Ġfrequ ently
}. }
Event Args
ĠAl gorithm
Ġ _{\
ĠR og
Ġc ult
ĠA venue
p d
Ġtit les
ens ors
liz abeth
m g
comp iled
ĠS ports
Ġm and
ĠF ederal
User name
&= &\
lott ed
P al
P ress
ĠB AS
ib ling
ik a
ĠS ymfony
ĠKore an
Ġg ather
Ġnot able
ĠGu ard
Ġm al
p od
ĠF R
ĠP ut
ĠJ oh
m ust
Ġcon tribute
ĠPro perties
Ġtro ops
Ġsche duled
Ġcharacter ized
ĠIn du
h ab
Ġcr icket
ĠU sed
Ġin structions
b ors
Ġb urn
erv ation
inter pret
d ings
Ġpart ially
se ason
Ġrat ios
Ġdemonstr ated
ĠS a
at able
Rad io
vis it
FUN CTION
ĠImp ort
Ġorth ogonal
Ġsec ure
Ġad vers
ĠC F
rep ly
p referred
H is
eg a
Ġsub scription
DE C
Ġp aid
ĠPri ze
f uture
ĠL ock
Ġhost ed
Ġexec utive
DE P
ist ant
let ter
Ġmark er
Ġtr im
Ġresult ed
Ġst ub
Ġst ages
enn a
Ġpract ical
ĠE ner
Key word
Par cel
A U
Ġres ign
Ġlook s
Ġk ill
Ġqu as
Ġscient ific
[ <
In line
Ġun iverse
Rece ive
Ġassist ant
Ġcorre lations
MA SK
c art
z ier
rint f
x ref
19 00
window s
Un able
Ġf its
Ġdis covery
ĠO s
n an
ĠC orre
Ge V
pe g
Ġsim ulated
Reg istration
c py
ĠTh row
per mission
Author ization
ibli ography
C ent
ĠH arr
Ġslo pe
ĠStruct ure
ĠM ike
Ġ( `
LO B
ly n
Ġrequire ment
24 0
Al ignment
CH AN
ĠM atrix
(" -
Ġpl ants
ir th
ud o
urn ey
ut enant
v ia
ca des
ĠÃ ł
FN GL
ĠR od
Y our
ĠH ard
F ROM
R atio
$\ \
] -->
Ġsh op
PREF IX
un te
ĠAir port
ĠU V
sc ene
scri ber
_{ +
Ġcustom er
Ġcompet ed
Ġ' $
vis or
Ġpl anning
C V
G T
Ġd yn
local s
lit eral
thread s
ub b
R IGHT
ĠM ic
uc lide
C tx
Ġillustr ated
Ġconsec utive
Ġ/ .
Ġh ook
hed ral
mm ar
c ategories
Ġm m
AT URE
Ġtransform ations
LIN K
ĠDes pite
ag greg
tr on
Ġadministr ative
Capt ure
S lice
Ġc c
stro ke
ĠApp le
Ġpre pare
Ġd aily
put y
C s
Ġdis s
por ter
Ġin ference
enc il
g ar
âĶ Ģ
U int
G rad
Ġin str
li a
ĠB efore
Ġsil ver
Ġf elt
Ġpercent age
Ġch ance
Ġ/* !
? ?
] ^
=\ {
---- -
remove Class
Ġt ang
bo urne
Ġc ss
s By
/ '
Ġop in
ĠL agrangian
In ject
Oper and
Ġfeat uring
lu x
Ġeas ier
Ġf old
LI B
Ġd ome
Im ages
trans fer
Ġra ces
19 35
10 7
as m
d ating
ĠCon struct
---- ---
Ġsystem atic
Comp leted
L ive
post s
Ġhe x
TO DO
GL enum
Ġcover ing
w eg
}{ }
ĠD rag
ty p
ili ary
re view
Ġnewsp aper
me ss
imp lementation
ab ove
sc hed
Ġin comp
Ġ' ../
inter action
d am
g able
Co ins
Ġin clusion
L D
å ¯
Ġpol l
mb ed
at ched
C y
t bl
all enge
U sed
Ġinvol ves
Ġg ene
St ud
Get String
ĠOlymp ic
Ġl t
ĠSim ilarly
qu o
Ġpolynomial s
ĠW ild
PA SS
r x
ĠM A
sm art
ĠMus lim
Ġext ensive
ĠR ight
p ixel
col ors
Ġcheck ing
Ġform ul
19 33
Draw able
l m
ĠSup reme
ĠV en
ion ic
Debug ger
F oo
ge om
Ġcre w
Ġref resh
channel s
in dependent
ĠP rivate
Ġse ss
ĠN um
Ġsupport ing
Ġwhen ever
ĠRe volution
che stra
ow a
Dis abled
ĠTrans itional
// ----------------------------------------------------------------
ta ke
Ġch apter
Ġaff ili
mod ified
Ġat tach
Ġsome what
=" {
f loor
Ġnot ify
af ka
t age
(" <
Ġadd s
Ġsp ring
Ġ" ./
}) ^{
Ġsynchron ized
Ġpers pective
ĠGL enum
del phia
ic ans
Ġcl imate
Ġle s
/ #
ĠS ession
ĠMon te
****** /
E mp
F IL
Ġirre ducible
if ference
Ġincre ment
v y
P K
ĠStud ies
int o
ain s
Ġend ing
ut ter
oc ab
Ġan not
k n
Ġp la
co p
ĠR ome
Ġhash Code
) _{\
Ġcub ic
Mult iple
Re vision
ÑĢ Ðµ
Part ial
le ased
19 34
er ate
ul pt
I ES
f requency
ĠE very
Th reshold
with out
ĠN ever
F ake
inv oke
tra ining
ĠF uture
iem ann
row se
conf irm
ĠH or
se ed
ual ity
ring tone
Ġqual ified
App ly
uclide an
Ġso lo
le f
ĠTor onto
Ġadapt ed
ĠV iet
St mt
ĠTran sport
ĠSto re
Ġf ashion
Ġgener ates
C ost
Ġc fg
Ġm ath
}{ {\
"> Â
ĠB ox
MA KE
iv ari
ĠRespon d
Ch oice
resol ution
IE W
L ow
text normal
ĠCon stant
small skip
mem Item
Ã ł
Ġtraject ory
ĠV ar
con sin
ust ed
Ġw arn
Ġbe at
Ġm apped
Ġexception s
t ick
Ġ{ })
DI S
Ġl ift
az el
ĠF ull
ipp et
ĠDe vice
C N
F ire
Ġs un
re verse
Table s
ĠDis play
() ]
H ide
corre spon
ron ze
19 14
Ġd y
ĠB io
ĠPro duct
Ġcomp lement
Ġsup ers
u j
an th
romag netic
Ġmon ot
Ġiter ations
ĠEngine ering
n pm
b en
11 5
b io
ĠF air
Ġh al
Ġterm inal
Ġcomp oser
ĠM arg
Ġhousehold s
var rho
2 20
M obile
Ġsimult aneously
ĠA lf
1 32
Ap pearance
Ġfac ility
ĠC S
ap ps
Be havior
Ġinter sect
k ov
car ousel
field set
Ġ Ø§
ame d
Ġcompar ing
Ġdiv is
erc ise
Ï ħ
ĠS ong
Ġm it
Ġut ility
Ġt ick
Ġpublic ation
Ġrender ed
{ },
our i
Ġsold iers
APP LICATION
\ },
custom er
ĠV ill
o i
ial ect
t re
bo unded
font s
Ġsc r
G UI
Gener ate
V EL
ĠIm Gui
Ġinvestig ated
> ');
S heet
ch arts
Ge o
Ġpotential ly
ĠCh rome
ĠL ew
Ġre member
Ġas set
Ġcollection s
Ġsol ved
Ġb id
ĠV AR
work s
r ig
1 18
For ce
------------ -
> /
Ġm oments
miss ing
c am
so ck
ĠI gn
Ġco ok
Ġ( );
MA IN
Meta Data
L ife
G M
; =
s mooth
ol ute
pe er
m icrosoft
Indic ator
Ġy ellow
Ġreason able
ret val
Sche dule
Ġa ware
Ġcross ing
Tw ig
es ides
Ġw ing
sub str
ĠMin nesota
Ġhold ing
LO AT
button s
tab End
al ink
ĠDef ine
Ġne arest
ĠA M
igh th
he t
bin om
Ġhand led
Ġf ul
ĠForm at
F rench
H ex
Ġ$ ^{
T X
String s
M argin
Ġrep o
m ysql
ĠInst all
T oggle
ĠR ange
re ci
Ġperform ances
B D
Ġg i
l c
P ref
ĠO pt
] >
def n
ter ms
Allow ed
un stable
+ $
Ġst ands
à ¹
K EN
=" <?
Ġrecon struction
Ġs ensor
Ġsub space
Th rough
Ġhel ps
] <
ĠÂ ©
AR CH
Ġwe ather
Ġs leep
ĠC WE
LE NGTH
D a
ob s
Ġ(! $
Ġcirc ular
g ap
ĠG ET
get s
Ġb lo
Ġcar bon
h our
Ġst ead
tr ight
ĠSO FTWARE
came l
Ġinitial ization
Ġtri angle
Ph ase
Ġcompar able
Wh ite
bo ss
ĠCamb ridge
et ies
Ġc url
ad i
ĠV K
Ġmorph ism
C ss
å ¼
ĠL L
Ġin vert
ĠL iter
Ġc s
ĠD est
Ġsub mit
Ret ry
table s
Ġb ot
R ail
Ġwin ners
æ ī
ang a
Ġperiod s
Ġexp atriate
">< ![
ĠK im
M ajor
Art ifact
Ġd war
Ġar ms
Ġ\ {\
oo per
hem atics
add EventListener
Ġgain ed
HO ST
id al
Request s
Ġinv oked
Ġrest ore
mid rule
ĠStep hen
Ġinstit utions
Ġestim ator
R oom
Ġm k
B ag
Ġsc ulpt
ĠH ilbert
Ġl ens
ent a
ĠR a
Dispatch er
co w
ĠSy dney
is en
M iddle
ĠF A
ĠH al
ub er
Ġc ros
ĠB ridge
19 29
) '
ag en
el ly
At trib
19 17
om ics
Ġoffic ially
ĠA sh
ä¸ Ń
man y
ĠT y
NotFound Exception
( ",
An notations
date picker
Ġv otes
qu arters
DOCK ED
st mt
U Int
o mp
ĠA C
Ġd ates
The y
Ġd jango
Ġen vironments
pre vent
st derr
Ġd og
: /
ĠE P
ĠA UT
Ð¸ ÑĤ
Ġre lying
Ġen semble
Ġm irror
Ġ} .
ĠR aj
ĠS cal
input s
Ġconcent ration
E MP
H idden
Ġdecl aration
pect ed
Ġes cap
s lot
Ġre try
Ġout line
av atar
ĠCor ollary
Ġphot ograph
Ġin fer
Ġsm allest
d h
ut ation
get Text
Ġphot ons
Event Handler
AR K
t cp
ĠM S
Thread ing
10 3
Ġm u
ĠL ook
Write Line
Dependency Injection
Ġk inetic
Ġappear ing
9 00
Ġ' </
Ġp ot
Â °
ĠS her
Ġsy nt
Ġreson ance
ug g
ir y
Ġcluster ing
Ñ ħ
Ġcon servation
19 28
itu des
Re cent
ĠM ust
J an
Ġp or
ĠUn less
im inal
ĠMult i
reg on
H o
Ġpr imitive
ĠB or
R M
Rel ated
> ';
Bl ue
Ġsuc ceeded
Ġopportun ity
mult line
f v
ĠAl low
ord on
ĠCh ris
ĠDu ke
ĠRet rie
ĠR ights
P TED
ĠC ub
O rient
s ar
Ġt ight
ĠS P
ĠL ow
Ġag ric
d riv
temp erature
x l
ĠRequ ired
to kens
0 100
Ġen coder
Ġident ification
Su ite
Ġco okie
div ision
> )</
[ _
ordin ates
Ġsuff ix
tr as
ĠRe v
s leep
ip ients
s lf
ĠS chema
ask a
const ants
Ġli quid
Ġh ousing
Ġme dic
ĠU SE
Ġmunicip al
Ġsimp licity
DE LETE
> ("
temp lates
H om
od a
Ġc old
aint enance
un ters
ĠK n
TE X
tright arrow
Ġcr ucial
Ġb illion
y arn
ĠAnt on
> -
Ġdi ameter
ĠSto ck
ĠW ars
Ġp t
ĠA tt
ann a
Ġmusic ians
27 0
G ateway
=" ./
Ġclo ser
S mall
Ġdevelop ing
cal c
Ġauthor ity
Ġgu ard
section s
ĠEner gy
leg end
ĠPak istan
19 32
ĠĠĠĠĠĠĠĠĠĠĠĠĠĠĠĠĠĠĠĠĠĠĠĠĠĠĠĠĠĠĠĠ ĠĠĠĠĠĠĠĠĠĠ
en ario
T M
c x
Style ID
as a
R G
Ġg rew
ĠR andom
Ġplas ma
mon itor
Ġgradu ated
: **
l ater
Ġd ram
Big g
MS earch
ĠNet herlands
Ġpret ty
Âł Âł
orient ation
Re q
Ġunder stood
Ġp tr
Pro position
job s
Part s
, (
ĠS ite
10 8
jav ase
Ġpl ate
Ġad apter
Ġr ural
sw ap
ĠSan ta
go al
ĠAb out
ra q
Ġdetermin es
}[ !
A K
Ġenvironment al
ĠW inter
Y S
ĠAd ded
ĠLe vel
Ġ) {
I BU
de scr
Ġl ab
ĠIN T
Ġfund s
ho le
Ġst abil
\ }.
ĠGr ant
123 45
Ġinterpre ted
Ġcomp iled
[ [
S IGN
im b
big cup
Ġg lyph
mark s
command s
Ġ- &
Ġindu strial
Ġrep ly
Ġf an
ist a
Col lector
For ward
sk top
ĠK al
ĠCON DITION
w b
Que stion
Ġin coming
ol i
Ġcont rovers
S uch
Ġbenef it
Des erial
r ans
ic ing
D ot
MPL ATE
ĠF amily
min imum
ĠP ur
if ul
el ian
cent ral
ĠP DF
Ġl ic
PROP ERT
3 000
ĠE lizabeth
Im mutable
Ġn aturally
get Key
19 10
AME TER
nol imits
Ġlo ader
Ġ( <
ĠB rowser
ĠW el
y ard
Ġactiv ation
Ġneigh bour
Ġrest aur
umin ate
capt ure
pay ment
ĠSet tings
st an
ĠBr ig
th ird
( []
b ower
f riend
re ports
ĠT urn
Ġs ustain
um ul
meter y
Rece iver
dest ination
Ġd ance
F rag
l ar
es is
CC CC
T ick
ĠN GC
Ġgener ators
ĠL abor
Ġsimilar ity
T ITLE
Ġmod ification
Ġdef ect
Ġhand s
Ġp index
rot ate
Ġst rip
Ġdistingu ish
ĠCoun try
}} ,\
ĠS and
ĠSwed ish
Ġcomp ression
Ï Ĥ
ĠM L
s an
Sh ift
Ġpres er
2 11
Ġi i
Ġconnect ing
ĠH art
TE S
C amp
Ġdriv en
get Property
P ACK
M AN
19 24
ĠMed ical
ant on
St d
($ _
utor ial
19 27
Ġreg arded
Ġatt end
Ar r
Input s
Ġleg end
Ġen joy
TH ER
Ġ Ä
for ge
ef e
Ġch iral
ĠD a
. ";
Ġh orizon
th an
Record s
INST ANCE
Ġmin ister
im ited
Ġco al
Pro totype
Fore ign
Ġor bits
mo v
DI RECT
st ab
Ġsch olar
Ġm iles
Ġconsist ency
Ġturb ul
ĠR om
Ġreg istration
ynchron ous
Ġre serv
ĠBAS IS
ĠF und
Ñ Ī
Head ing
Ġlead ership
ĠSt adium
ĠDo ug
Ġlik elihood
Th an
Ġl ambda
Ø ³
ĠN ations
ĠT ai
ast y
Ġpe ace
du al
isl ative
Ġhistor ic
ĠD ATA
ext ends
c amp
Ġsc oring
ĠIP v
) }$.
| _{\
Ġ* _
Ġclass ified
sub equations
Mod ules
Ġcitiz ens
G uid
Ġcall er
Ġcont est
ĠFore st
ow ski
Ġperform s
ĠReg iment
PT ION
v g
Ġv ir
oss ible
Ch at
Ġ ~\
Ġrank ed
ar ial
n r
pro f
ĠEq s
ĠL ike
Ġv ort
Ġman age
Ġrun ner
aw are
ĠD ocker
Character Offset
at ivity
s With
ve locity
Ġan isot
andid ate
w orth
Ġpro ton
Ġl in
ĠQue ens
zon a
File System
12 2
Ġg ar
Ġpro be
g ent
Ġm ountain
res pect
Ġtrack ing
Ġremo ving
ĠSy mbol
re lation
Ð¾ ÑĢ
Ġeigen value
Ġear th
script scriptstyle
me try
Ġf resh
Ġ" ")
Ġne ither
l ating
LE VEL
exception s
ic ian
Ġisol ated
Ġlog ical
Ġacc ident
Ġpar sing
Ġopp osed
ĠResult s
Ġsett lement
Ġv ice
Ang le
Ġsm art
CL U
ĠS ab
Ġmac ro
ĠS TR
Ġal gebras
G G
in ator
Ġd ump
Ġre construct
Ġquad r
ortun ately
ĠPe ak
Tag Name
resol ved
int ent
compar ison
exist ing
pro j
dat ab
ĠWis consin
p us
Ġhost s
un s
ĠF ront
0 200
List View
LE S
ĠCONDITION S
Fil ename
lock ed
loc ities
u pt
( @"
Dat aset
ĠAg ain
ic ht
F D
Ġc row
Ġimp ly
Check er
* .
F oot
Ġcon cat
sol ution
i pher
Ġf ish
Ã ª
Ġs a
/ $
wall paper
_{ -\
G reen
s qu
Ġ# #
Ġprodu cing
Ġ urban
Ġconven ient
out line
& &\
ĠA uth
ĠD C
ĠCon dition
Ġper haps
Ġindependent ly
Ġcoup lings
Ġ utils
m r
Ġfem ales
NO SCRIPT
Ġpres ents
Ġ{ $\
ind ic
ĠA zure
Ġmechan isms
L arge
}) (
ir s
urn ame
ib er
Ġaug ment
Py thon
Perm issions
Ġid s
ĠEqu ation
C alled
Ġbran ches
? "
ĠCon structor
P G
19 22
scri bed
ĠF ermi
GRO UP
Custom er
Ġ' {
ide l
iv ot
ĠF ixed
ĠP A
Ġelect ro
Ġsh arp
Ġpre ced
Ð ±
Ġpop ulations
ĠPub lish
Serial izable
ĠTw itter
Ġren ormal
Ġar ithmetic
Ġen ables
oxy gen
m atic
ĠC atalog
ak ed
ab i
ĠD oc
ni h
Ġ! !
ĠTown ship
ĠTr igger
O C
qu iring
Ġbo y
Ġsubstant ial
ct ors
imit er
ç ½
Red irect
Ġs ig
Ġar row
Ġ ur
^+ $
C our
External Project
Ġpul se
N il
Ġexp os
ĠTrans action
____ ____
Con figure
12 4
list en
Al so
un i
Ġcosmo logical
ĠBu dd
Ġb ill
ĠH ost
Ġch ampion
Ã¼ r
å º
int on
Ġlist eners
ä¸ Ģ
Ġfib er
Ã ½
Ġindu ction
Ġpr incip
sph inx
Ġpar ish
n io
Rout ing
19 31
ak h
ĠSw itch
Ġpro position
\ -
ĠMed al
m ne
an es
Ġpurch ased
ĠPrem ier
Ġre covery
ĠF oot
igh bor
ĠAdd itionally
s napshot
ACCE PTED
play back
Ġmin ute
Ġcri me
ph ony
Pr imitive
Ġf ans
ĠF loat
U ntil
Z Z
on line
Perm alink
has OwnProperty
Ġsepar ately
Ġprom otion
ĠG ree
Ġre ward
port folio
Ġlog arith
ĠCast le
Ġspec ifies
Sh are
cho ice
p ot
19 21
Ġm ill
IM IT
D ump
W IT
Ġlib raries
in formation
Ġs lide
Ġab and
get Time
. &
Ġvis ibility
c g
S ink
the mes
cite alt
ĠC C
Un its
d w
ch arge
Ġal location
Ġp refer
Ġ\ }
ĠGold en
ĠC PU
Ġp ra
Ġstop ped
J ap
Ġb odies
i ate
ĠInter face
ur ches
Ġview ed
Ġsy nthetic
ĠBut ton
un its
ec ycle
ĠAn th
M al
d ashed
N orth
U i
TR A
Ġparticip ants
M X
E v
E lem
ĠÐ ¾
ĠR en
Ġplatform s
vent h
ab solute
Ġofficial s
de velop
Ġcomp licated
cat alog
ust ic
consist ent
Ġspec ification
ĉĉĉĉĉ Ċ
ĠD or
3 50
de m
Ġsee k
10 6
Ġprote in
ap ters
Ġparticip ated
ĠM obile
$ _{\
Aut om
ma ker
ĠQ CD
Ġexhib it
ph ab
i Äĩ
Ġconvent ional
uff ix
ig e
ip edia
numer ic
is ons
c ers
k k
u ing
10 9
Ġ( {
RO W
Ġover view
19 25
Ġe ye
PAR AM
St ates
Ġas sets
ĠPhil a
dep loy
nav Bar
W ARNING
ĠH ay
ĠG a
ros copic
ival ent
ff ee
cat Desc
Ġang les
P ages
Ġabund ance
ĠA WS
ĠP si
p otential
last ic
ĠAd am
ĠSt orage
}) =\
ĠTr ust
pre dict
car bon
ac ion
} `
Î ¼
Ġin form
19 23
Ġd f
analy tics
ĠL ady
EE E
m icro
b n
Ġsplit ting
ĠO THER
Ñ İ
de comp
Ġhy brid
u ity
ov ed
Ġfunction ality
Sign al
Ġv ideos
ĠW at
ÑĢ Ð°Ð
] *
DO WN
Ġb ow
ĠNew ton
Ġstrong er
ĠO t
ĠS ave
log ic
Ġsp l
Ġst one
ĠW ord
é ĩ
dim en
b read
end ers
ĠSte ve
ĠPl ace
Ġsw im
Ap J
L ONG
^* _
valu ed
ĠS R
L F
conf irmed
Mult ip
ĠGener ate
ph oto
Ġfit ted
ĠR os
l v
By Name
CLI ENT
,... ,
Ġinstall ation
Ġcon crete
Ġ$ <
sp l
T ARGET
attal ion
ĠG reg
Ad ded
Ġr s
do es
Ġoper ate
Ġaud ience
\, ,
Ġso le
ĠAnd rew
ĠB la
å į
ĠF ox
ĠCon tainer
ĉ ĠĠĠĠĠĠĠĠĠĠĠ
Ġ Ã©
bit coin
AA AA
Ex change
ĠMan ager
Ġspher ical
O lymp
Ġt ip
] ];
Ġb log
ĠPro file
ĠPhila delphia
J ust
ĠSund ay
Dist ribution
& $
Ġh ierarchy
19 26
sequ ences
Ġw alls
Ex amples
ok es
H orizontal
Ġremain der
æĺ ¯
size i
ĠFore ign
bu ffers
B iography
weg ian
\ }_{
Cal cul
B s
ĠD am
Ġpolit ics
13 5
u y
Ġpropag ation
s lug
Ġcon vention
Ġpre pared
\ [\
Exp and
d z
Ġp lots
ĠLay out
T i
ĠTest s
v ard
y aml
Ġanim ated
table block
n ership
U psilon
Found ation
par sed
ul ner
Ġt body
Ġc riterion
pen ded
Ġstation ary
Ġest ate
je ctions
Ġp lotted
Ġt al
con c
Ġrelationship s
rad iction
Man aged
ent ities
ĠAss ume
ĠTh rough
Ġprob abilities
el a
Ġreg istry
19 12
Ġc le
T ube
å Į
ĠMark ov
N I
control s
ĠDav is
ai ses
* >
ke leton
ro tt
B F
me sh
N ER
Ġcoll isions
ĠB ru
Ġter ritory
screens aver
m ont
11 3
Ġin trinsic
Ġsp ons
uto ff
iner gi
Ġca using
Log ging
Ġoccup ied
ĠAth let
N P
i ary
get Default
Ġf loating
Ġdecre asing
. (
la unch
off s
) }$,
TE GER
Browser Detector
---- --
T ri
ear s
oid s
Ġen cryption
ship s
ĠEn able
Ġhad ron
access or
Ġin dependence
ib ilities
f ollow
ap ore
Ġir on
ĠP O
Man ifest
Ġmay be
ĠĠĠĠĠĠĠĠĠĠĠĠĠĠ Ċ
ost er
B ot
A SC
Ġis omorphic
Ġobserv able
ers ions
FO RE
pt on
Ġback end
Ġ$ ("#
ĠĠĠĠ ĉ
maj or
found ation
AC HE
Ġcons ult
west ern
ĠĠĠĠĠĠĠĠĠĠĠĠĠĠĠĠĠĠĠĠĠĠĠĠĠĠĠĠĠĠĠĠ ĠĠĠĠĠĠĠĠĠĠĠĠ
Ġse q
Ġc ab
C lip
Ġm ales
ĠT a
Ġconver ges
Filter s
x e
Ġgeneral ization
string ify
ĠS cript
Ġst roke
Ġll vm
is Array
Ġlist ening
ĠL ang
Ġdef ense
19 15
ropol itan
ST RE
tra ction
Ġemp irical
Ġocc asion
ĠV i
ĠFI LE
is is
ĠO regon
Te ch
b id
S printf
Ġman ual
ic ial
Block ly
Ġunit ary
>: ]<
ĠB ishop
pi ed
Ġalloc ated
linked ExternalProject
M c
Ġpat ient
Ġ rom
Ġengine er
Ġfund ing
R ound
sub title
Ġaccess ible
Ġcred it
Ġdis cover
æĸ ĩ
H int
ct l
Ġposter ior
Ġpar agraph
' }),
qu ality
Ġchalleng es
Ġ" --
Ġnormal ization
Ġattemp ted
Ġdefe at
f m
ĠEd itor
S ender
ue se
not in
inner HTML
Ġkeep ing
Ġa u
Ġl abeled
Ġarr ang
99 9
Ġge odes
Ġrender ing
Ġz ip
p ersistence
Ġf ell
: @
ĠSwed en
Ġlo sing
df s
Suppress Warnings
g ency
Ġse ar
al con
linkedExternalProject Path
F ront
H ANDLE
B el
ool s
C atalog
h skip
Ġho les
navBar Cell
Ġw ants
force ment
Ġsem antic
ser if
Ġtrans lated
ĠD ark
I MAGE
Ġpoint ed
Ġw a
pr ising
ip es
text sf
ac er
(" [
M en
get Current
ib r
ĠMem ory
B IND
Ġk inem
ĠBo y
Ġcamp us
ĠĠĠĠĠĠĠĠĠĠĠĠĠĠĠĠĠĠĠĠĠĠĠĠĠĠĠĠĠĠĠĠ ĠĠĠĠĠĠĠĠĠĠĠĠĠĠĠĠĠĠĠĠĠĠĠ
Ġfound er
Ġr ugby
3 20
Ġfa ith
Ġamplit udes
XML Schema
De ath
ĠCal cul
ÃŃ a
ENT ER
} <
am an
Ġcap able
Linear Layout
Ġco variance
ĠC lose
Act or
Ent ities
Å «
Re call
Ġop am
ĠN orm
v dots
Ġre ality
Cl one
Ġde cades
DI F
Ġap art
ĠM ET
Con struct
s he
ĠS ound
sim ilar
Ġfe et
et ype
ru ption
h ist
De code
Ġrapid ly
Ġpresent ation
f ee
ĠC orn
ĠBe ach
F H
h p
Ġdiscuss ions
spher ic
Un mar
Comp osite
O ct
g ate
Vert ical
Ġse p
Ġdep loyment
Ġa head
ãĤ Ĵ
Ġb ary
S amp
/ %
arg o
List s
Cre ation
w ich
W illi
ĠS W
ĠC ulture
ĠValue Error
Ã ´
;\ ;
Ġecon omy
ĠAn alysis
Json Property
. }\
id ad
Ġnov els
omorph isms
ĠPo isson
w alk
d ifferent
ot er
ĠG ib
ĠGener ic
Ġthan ks
Ġp le
ĠD irac
e ed
Ġback up
ĠCOL SPAN
Ġtit led
ash board
Ġb ars
ĠC hen
ĠG er
ĠHigh way
ĠI ce
s aved
Ġwrit es
N orm
ĠP a
the ory
or bit
Ġf ired
t m
q a
Mat ches
ĠB i
Ġle ct
ifi able
spec ified
Ġun ivers
or row
j u
k ish
Ġw arm
T K
ĠC ra
Link ed
UP DATE
e lectron
="../ ..
Ġamount s
se ls
Ġb low
Ġse d
ĠIndian a
h abit
F ee
Further more
Ġw inter
' $.
ĠA pi
Ġcal endar
} ~\
16 8
an imate
cent ric
val s
c z
Ġ[ #
Ġbel ief
PO INT
NE W
ke eper
Ġyoun ger
A CTION
les cope
Ġexp osed
char set
Ġ( #
C riteria
P riv
cer ning
Act iv
+ -
Ġw rapped
C he
co v
ĠB lo
_{ [
Ġautom atic
b ib
enc rypt
Ġpro posal
n ic
ev t
Ġre aching
ĠH op
Ġcon formal
Ġcom mittee
Ġs we
Ġult imately
ĠL ind
ING S
F ace
Im g
Ġver ification
Supp lier
Ġto ggle
pare n
w ire
V ote
Ġanim als
D i
ĠO ffic
Ġex cell
Particip ant
30 4
pro x
Ã§ Ã£o
N U
ĠTemp late
Ġsu ite
ĠK ansas
Ġcon temporary
Ġstruct ural
atur day
f ar
M AC
ĠRo ss
ĠĠĠĠĠĠĠ Ċ
copy right
S i
Ġform ally
Sub mit
ĠC zech
Alloc ator
Ġtown s
ĠD im
Time s
Ġfilter ed
R ank
ĠCol on
Ver b
ĠG allery
ou ch
scal ar
PRO TO
ĠN az
V A
| _
V e
for um
C ert
sche dule
Ġhand les
Over flow
Ġc arri
}_{ {\
Ġpres erve
ĠMar ia
m ers
19 16
ĠMed ic
ĠMiss ouri
ug ar
ĠR ose
ĠE C
ach er
B H
v r
Command s
d al
A ud
Ġrect angle
MA G
ĠA bb
Ġpsy cho
mach ine
ĠF ellow
-> {
Ġcontribut ed
M a
Read Only
ĠW ait
ĠAr gs
el n
ĠF ac
å® ļ
Ġm igration
UN K
ĠJew s
Ġbl ank
book s
Ġb lob
Ġguarant ee
Ġz oom
ennes see
Default s
A cknowled
Ġdraw ing
Ġconcern s
cur r
Ġscript s
ĠM ess
= </
leq slant
() `
g em
xy gen
V P
Ġw ins
ĠS av
activ ate
ĠAnd re
ĠSk y
A ff
OD Y
Ġaggreg ate
Is Null
Ġs mo
op ens
' })
å °
igr ations
Ġ} ));
"/ ></
ĠO UT
Ar row
Ġcomp ri
ĠAr thur
iss ip
qu ick
ĠO K
ĠT an
add on
Ġauthor ities
"> "
Ġown ership
Operation Exception
M LE
}} =\
fail ure
ĠR iemann
Ġelement ary
}{* }{
Ex cel
inn ed
ĠM ountain
Ġy ards
ĠVal ues
F B
Ġv ent
En code
Can adian
h int
Ġt unnel
ĠO cean
read only
Ġo c
Ġp ag
sh ader
Ġpeak s
ĠPol y
ä» ¶
Ġarg ued
Ġp iano
ĠVol ume
| =
Ġ ì
Ġp s
Rel ation
S uffix
Ġde vi
Image View
ex act
ĠA P
cur ve
Ġlos ses
fil led
Ġperson s
keyword s
Ġdo or
c ritical
Ġc ru
iz z
Ġte aching
Inv oke
à¤ ¾
D J
Ġde precated
ĠQ t
std out
ĠIn stance
= }
ĠH E
Ġol dest
In s
set Value
> ";
Ġdriv ers
ĠW ol
su ff
A ug
ĠM enu
Ġle x
ĠL td
Ex tended
Ġtri es
Cap acity
Ġcy cles
æ İ
Ġdesign ated
× ľ
Ġc line
ĠP ier
IN PUT
am ar
Ġcont radiction
Ġh its
ĠB ooks
j boss
ĠM un
ĠId ent
Ġret ire
ĠLe ft
Ġfl ush
Ġmor ning
Ġf uel
L M
Ġch arts
get Data
ĠU TC
ĠAnd erson
N EL
ĠA udio
ig gers
Ġstudy ing
Ġadv oc
ĠC ost
Ġinj ury
ĠL INE
DE VICE
ĠCont in
ĠBuild ing
Ġobtain ing
Ġcomb ine
ĠColor ado
Dav id
ĠSing le
Ġp c
Ġg overnor
n ie
' "
ada pt
ĠNO TE
Ġg ray
Ch rist
Ġsuffer ed
ĠI raq
High light
ĠCO MM
s izing
Ġinst anti
Ġco sm
ĠGL uint
ly wood
Link s
ĠBar on
C AP
Ġa cknowled
Al bum
Ġtren d
Ġmain tained
Ġad res
) ";
\| ^
ä ¿
as ide
{ [
ĠAtl antic
Ġlo ops
ĠM it
nt z
Ġassoci ate
y ou
ĠM ilitary
Ġp lugins
ver bose
h h
Ġis set
ĠL IC
request s
ĠT al
Ġbu y
Ġup grade
Arch ive
pre d
Ġdistrict s
ĠH D
th reshold
Ġve locities
ON LY
block quote
R ich
W omen
Ġto wer
ens is
Ġfac ulty
Ġarg v
Ġtrans formed
Ġleg acy
Ġb rain
Ġb omb
ĠT i
od b
Ġprom ote
N or
hib ernate
con ver
E mitter
Ġd anger
Ġserial ized
par s
Ġre aches
STAT IC
Ġpro totype
ĠInd ones
S amples
Ġs ink
Ġ= ================================================================
a que
her ence
Ġ$ -$
' ',
Ġaver aged
}} )$
Ġsex ual
[ ];
ĠC irc
Ġinter faces
u is
Ġex pert
Ġnorm ally
em an
LE N
Ġcomp osite
ĠPro b
A wards
pre ter
æ ł
Ġcon e
Ġgir l
ĠEn um
ĠCapt ain
ĠS top
ap y
** *
Th rows
ĠS mall
Ġtemp lates
ĠD un
Ġtop ics
ĠA ud
Inst ances
a con
j sp
al tern
d or
Ġport ray
Ġpro g
b urn
ĠC L
HEAD ER
b olic
on i
Ġequip ped
rest ling
Olymp ic
ile y
Ġde code
Ġ" :
qu et
Ġl icensed
P in
(" ")]
NUM BER
Ġmat hematical
V S
ĠDocument ation
ID s
Ġcirc les
ĠX ml
Ġdiscr imin
æ į
Comp ute
Ass ume
ĠCollection s
ĠR us
get Logger
Instance Of
Å ¿
Block Index
Ġre tain
Ġresist ance
Ġdis joint
ĠRo ber
a ac
h yp
no ise
V IEW
Ġa id
Ð¾Ð ´
cred entials
ich ol
To kens
urch ase
get Context
B en
Ġvolume s
pub lish
. },
Ġtw enty
Ġman ually
33 3
it ched
Ġstandard s
Ã ¦
-- ;
First Name
ul se
inter faces
Ġaff ine
Ġdevelop ers
Ġmedal ists
orre nt
ĠE rr
Ġse ats
Initial ized
ĠMe an
Ġdis ap
F IN
Ġn an
Ge ography
Ġl aser
' }\
Ġitem Members
sp read
Ġappro ved
eng ers
Ġtra ins
loc ations
Ä «
Ġg lass
ut her
Ġrespon d
Ġcapt ain
Type Name
Not ify
ore st
ĠH amp
un ion
19 13
ul um
Ġconst rained
Ġemploy ees
ĠD ir
lom orphic
ĠG re
ak s
ag on
ĠEx press
Ġfe as
k u
Ġ( ),
Ġpaint ing
w ick
Ġr ating
Ġparame tr
Ġb an
co ins
K S
id en
list s
' )$
ĠK enn
pret ty
Ġcollabor ation
bal ance
ol y
ĠZ end
l iving
)= (
Sw ift
t ically
mp h
16 9
proto c
print StackTrace
Abs olute
ĠM oh
ĠChrist mas
Ind ices
) ?
O RE
Ġsitu ations
Ġch ose
F LOAT
ĠDe ep
ĠB os
B bb
fin ement
Ġge ome
ĠG P
lig ible
hentic ated
ĠF low
ĠP osition
Ġcenter ed
U INT
ĠE N
V oid
Ġher o
ĠAs ync
) ',
Ġsubject s
un used
Ġsign ing
:// $
ĠRes ol
ĠMod ern
Cache d
= -\
Ġin duct
el ist
assert False
O s
p ick
AC CESS
) <
< >(
ĠM aterial
re mo
Component Model
class path
At tachment
Ð ³
PAR AMETER
Def ine
Å Ļ
Ú ©
ĠPl ant
ĠLin ux
ific ial
vis ual
Ġhand lers
Ġsur ve
De ep
ust on
C li
Ġfun ctor
Initial ize
TE MPLATE
g mail
com mod
Inv ocation
getElement sBy
Ġpo le
e fficient
Ġh all
Ġpri est
ĠRuntime Exception
p mb
Ġman agers
ĠFe ature
Ġsub sets
pol l
p ers
Ġn ob
Ġbenef its
Ġst uff
Ġ< ![
Pop ulated
19 08
ad just
ĠS tack
ĠP it
d yn
T LS
Ġdec ays
ĠL ar
In to
ĠM unicip
11 11
ĠUk raine
Ġjud ge
> =
Ġform ing
ver sed
ĠL P
lu es
Ġdel ivery
View s
Ġd otted
ĠF i
12 1
ĠRe set
Ġh uge
Ġart s
pi res
Ġg ender
Ġ" (
Ġ! (
or ney
document ation
Ġlength s
he im
al one
Ã «
æ ³
ĠLe on
Ġdocument ary
B ecause
im ination
ORM AL
Ġh orse
end ant
Ġmembers hip
ĠCh art
Ġcool ing
Ġheav ily
D roid
ate ur
pos itive
Ġin nov
Ġsh aring
Ġtraject ories
11 7
Ġm ist
ÐµÐ½ Ð¸
ĠChild ren
c are
D X
rep resent
CA SE
lo re
Ġrece ives
ĠTur key
li est
Ġinter rupt
Ġp b
ra st
rows ers
ĠP M
Orient ation
ĠAm ong
Ġord inary
ĠP C
ç Ľ
New ton
oc used
call s
Fil m
or ig
Ġcallback s
B ibliography
Ġnon zero
f ef
w en
ha us
ĠMem orial
ĠC NN
Ġs cre
Opt s
Reg ex
Ġlif etime
Ġta ught
Ġcould n
il lo
Ġvan ishes
co verage
ĠAri zona
Ġacceler ation
Ġrender er
ĠTru mp
Ġfac ilit
sub stack
Ġkey word
( <
La unch
fl ash
et ary
iv a
UM ENT
sat isf
col n
Ġsk ills
n P
R pc
Ġconcept s
h w
ab a
B tn
ĠDE BUG
Ph oto
ĠLIC ENSE
Ġsat ellite
Ġtrip le
us cript
aut om
ĠC luster
ĠHe ader
li x
lic es
Ġstream s
Ġinit With
we alth
k ers
Ġcr ash
Last Name
Ġf er
ĠCon s
g ulp
ast ers
Ch o
Ġv ision
Ġharmon y
A rm
gu ard
ambig uation
Ġperman ent
Q UE
Ġdo ctor
Ġver ified
> #
Ġarch ive
pt s
Get ter
c us
de tect
ĠLew is
ĠPhilipp ines
ĠM iller
Ġt il
ĠAt omic
ar o
Ġpre dicate
Ġp ump
Ġredu cing
] ));
ĠC er
ĠMary land
ĠV ert
Ġfav our
æľ ī
ĠK on
d ater
Ġc f
spect or
Ġpl ain
Ġcomp rehen
Ġhe ter
F W
Ġens ures
hom a
Ġf ault
ãģ Ļ
Ġscen es
Ġcomp atibility
ĠF ord
rec v
Ġfall s
lay ers
ĠMex ican
Ġre ly
ans wer
contrib s
ĠC ook
Ġcomp ens
Ġharmon ic
Ġre in
ĠW ho
ĠG h
Ġg od
ĠN Y
Ġstead y
se en
ĠBase ball
Ġpriv acy
igr ants
Ġpar liament
product s
Ġlo an
fin ish
Ġproject ive
× ¨
__ _
Ġm ob
ĠI ss
red is
UM N
ĠPhil ip
Ġun stable
Ġt y
Ġregard less
C op
napsh ots
ĠG ran
in ite
l if
io ce
re ma
ren a
$ }}
mathbb m
CON NECT
so und
Ġdiss ip
sp ot
ĠR ect
}\ ;
Ġclo sing
) |\
ĠB all
feed back
we ather
ard o
(' ../
man aged
Ġs quad
Ġperturb ations
Render ing
ĠF actory
ĠRepresent atives
R I
View ById
ĠM achine
ĠK han
n oc
)} _{\
Y es
Ġpro x
Ġcustom ers
fra ction
vari ants
ĠTra ck
P an
V IS
Ġc orn
ĠLib er
sup ports
iv o
ĠM as
w so
ĠM E
ur is
ĠF ont
is Valid
RET URN
Ġk ick
p romise
Y M
Ġsignific ance
Tool bar
im o
19 11
Throw able
ĠSet ting
Key board
} &\
Ġshe et
User Agent
. ;
d ummy
N L
sy mp
ID ENT
Ġoper and
ĠCal led
P ersistent
Ġ[ -
i ri
Ġanalog ous
quis ition
ĠTh ird
Re po
ĠW allet
CK ET
Ġexc ited
Ġsegment ation
un ior
ant asy
ĠE ric
ĠAmer icans
ap el
widget s
G H
H ard
Ġd type
ĠN othing
h ig
div ider
ĠR ule
Ġtool tip
(' \
ro les
inc ial
Ġentang lement
Ġprocess or
Ġet hn
Ġde coder
-------- ---
Max imum
" +
Pred icate
Un lock
le ave
Prov ince
Ġj e
prevent Default
Ġanaly tical
ĠJ ordan
st ory
Sta mp
ĠT ennessee
n x
B ODY
Ġp seud
be at
Ġcomb inations
Ġopp osition
yr ics
Ġcom mitted
Ġimp ossible
() "
Res ize
ra ce
ĠF er
Cla use
E very
LE FT
ĠA mb
ĠM C
re strict
13 6
dash board
Ġhe ard
Ġsub str
Ġlist en
ĠRe lease
el ve
ol is
man ifold
Ġpen alty
). </
Reg ular
Red uce
ĠBO OL
Ġar ise
hom ology
ĠComp ar
Ġproject ed
Ġparse Int
Ġh a
sec ure
Ġcho osing
as hes
ĠW ed
Ġrestrict ions
W rong
å ĩ
Ġopin ion
deg ree
v skip
Ġvari ants
Ġbur ied
x ff
z illa
Ġp et
ad ic
f ortunately
Ġretrie ved
Ġ ))
ur ance
Byte Array
Ġa st
"> #
'' '
lo ose
F ast
le ading
Ġen hanced
ort ed
b ash
------------ --
file Name
/ ******/
ĠA ST
Loc ator
ä¸ ª
Ġst orm
rid ay
to s
Ġfa ces
Clo sed
ĠEnter tainment
Ġser vers
ĠJun ior
ĠP ers
Ġs ends
ĠF ederation
ĠC E
Ġspac etime
B in
display math
Rot ation
ĠS quadron
17 0
H it
Hand lers
> ',
ĠA h
rest ore
exp ress
Ġro yal
ĠMos cow
V I
gra ded
b ow
ĠCar lo
Ġb oot
re cur
u ver
per form
ĠS eg
Ġhon or
}} }$
ĠI MP
H on
ĠB ased
Ġbreak s
oper ating
H istor
R F
Ġsup posed
ĠM ill
ĠTe le
Ġin set
Ġhydro gen
(( (
f ish
lect ic
') ).
F i
n ik
as List
Ġra cing
="../../../../../../ ../../
Ġto ler
Ġcor por
. (\
N EXT
Ġ$ [\
up les
18 90
Ġ" </
ĠE ll
ĠC op
define Property
Ġdr ink
M ass
C at
t odo
ĠValid ate
Ġpurch ase
mal ink
ra di
ĠW H
Ġchalleng ing
Ġp m
Ġpro c
OP EN
Ġsco ped
d in
Click Listener
pan ic
Ġpil ot
NO WN
Ġcr ystal
;& #
pe ction
Ġst y
uch y
Ġcorrespond ence
g ro
Ġf ixture
cast le
ĠPro tocol
NO TE
ST EM
tp l
Ġtrigger ed
FA I
log ue
Ġjournal ist
oid al
Sports people
ĠF M
itzer land
O O
de z
ant ed
am ents
Ġper mit
Http Request
= (\
Ġco herent
ac l
S lide
Ġreg ex
un ix
ĠD NS
Ġ" ");
uff le
ag u
Ġinf lation
o auth
ĠSt ory
Add itional
Ġhum ans
ĠF IX
Ġf usion
On Search
Ġ ÑĤ
b ank
Ġg fx
g uid
Ġb rown
alax y
Pre view
Con v
, ~
ĠM eta
oper ations
"> @
ĠN iger
ĠS el
Ġarrest ed
C lock
ag ram
Ġclose st
host name
ãĥ ³
Ġarriv al
Ġt ack
Con nected
ig o
load s
Ð¾Ð ¼
ri er
Fin ished
ed ges
Des cribe
Ġfind ings
ĠNor way
ĠMel bourne
P references
P reference
Ġreal ized
d type
S hell
ome ter
ab ama
Con version
St ation
Ġvill ages
cap s
Ġdesign s
du ate
d ue
Ġhapp ened
UT C
ĠCar l
ATTR IBU
le et
tele phony
Ġcomp os
ĠFre der
c url
rel ax
Ġinser ted
Ġadapt ation
M igration
000 1
Ġintegr als
SC A
Ġcomb at
Ġsix th
r p
Ġaccess key
ĠL IMIT
uss ian
Ġjav adoc
av g
%%%%%%%% %%%%%%%%
thumb nail
exp anded
ash i
Ġro of
n ical
lo on
ĠM B
or ro
S ys
Ġquot ient
( |
Ġfight ing
Ġcent ers
Ġencrypt ed
A W
Ġf estival
ç ±
Ġresearch ers
it ud
ĠA ge
aw ay
Ġ$ $\
Ñ Ħ
ref ox
Ar n
L and
j as
ĠOb servable
ĠC OP
Ġdis contin
Ġincorpor ated
Ġel astic
q s
ure au
Ġc ro
ĠĠĠĠĠĠĠĠĠĠĠĠĠĠĠĠĠĠĠĠĠĠĠĠĠĠĠĠĠĠĠĠ ĠĠĠĠĠĠĠĠĠĠĠĠĠ
Ġpres erved
Ġcap abilities
Al tern
ĠT yp
Non Null
CON ST
Ġreal istic
di ents
Ġdebug ging
B G
ĠS S
Imp lementation
RO P
B and
ĠS l
ĠCO M
ĠSing apore
TO KEN
Ġk il
Ġprogram me
su fficient
Ġm ent
Ġpost s
Ġsuper conduct
Fin der
Or g
Dis able
Bus iness
ok en
ism atch
fold ing
cons ider
4 50
Ġe val
g oog
Ġinst ability
ĠCont roller
Ġpro mpt
Per formance
Ġ{ {\
ill ery
Ġs ail
Ġre covered
} ',
G ood
Ġgr pc
pub lished
roll ing
Ġchain s
ĠC am
ced ure
Ġclass ifier
Ġwe alth
Ġbos on
ol k
Ġs ight
in crement
min ute
LOC AL
Ġcal ibration
Help ers
s ong
lik ely
Ġdisplay s
get User
ap k
is y
Ġdirect ive
ev in
b ecause
pro port
aut hentication
Ġdepict ed
d ac
ch oose
Big r
Neg ative
ĠL ocation
' $,
Resol ution
organ ization
ag ues
Ġsign s
Ġclass ic
S al
B AD
ĠA cc
[ ],
Ġevery one
Ġprem ier
ĠDig ital
Ph ys
Ġsh ut
ĠComp ute
ac cur
) !
Ġsk in
ĠT erm
d ns
ĠF all
Ġca ught
at ches
Q R
Ġb ronze
PROPERT Y
type param
Ġa w
Re cogn
ĠEx amples
ĠB run
-------- -
ĠY ES
yp os
Ġshort ly
Ġmer ger
form ula
EQ UAL
F lat
19 0
Ġpe ers
Ã¶ r
Ġ" {
ic ut
Ġf d
Ġth ir
ĠVis ual
Ġch airman
ĠGree ce
ĠUtil s
s ible
v v
Ġs and
ĠSim on
Ġweak ly
q r
Ġinfra structure
}^{ (\
åı ĸ
D Y
Ġn ominated
pro tect
n ested
ĠExt ension
ĠB H
ĠAl bert
TH READ
ĠAff airs
æĹ ¶
Ġconsider ation
h it
Ġd ry
ĠA lice
eter min
j p
Ġfl ash
ab ling
Proto s
GL uint
crypt o
ĠR ic
Ġpotential s
ig rate
~ (
Ġbutton s
ĠAr k
Ġmarg inal
Pos itive
center line
tw ig
Ġjo ining
w m
Ġlat ent
fef efe
Ġre form
] ",
end l
Ġsamp led
L uc
Ġformer ly
Ġfl avor
ĠC ab
Ġexp ensive
Ġanaly zed
Ġimpro vements
Ġmolec ules
o z
ines ses
lin der
vet ica
O IN
Ġpan demic
ok er
Ġbur st
"> ,</
Ġdifficult y
Ġb ed
Ġeduc ated
Ġinvest ment
A pis
cess ary
ĠGL sizei
Ġ ));
è ¦
Ġstar ring
ĠIter ator
ate ver
vent ure
Ġap ps
âĶĢ âĶĢ
D AT
ĠPro gress
la homa
dic ates
ĠC ome
Ġalign ed
á º
Code Attribute
Ġco aches
ĠJ os
Ġlinear ly
! ");
Ġsh apes
re ach
Ġn ick
Ġscal ed
Me an
Ġin fe
ĠP lugin
k ern
r ison
ta h
)) {
ĠP AR
Ġmechan ical
Ġther mod
rece ive
Imp lemented
lim ited
Ġcur r
A IN
ah n
rot ation
Ġn arr
P atch
Ġarg c
ĠWh ere
BE GIN
Ġre serve
ĠJ ane
Typ ed
bar s
( %
Text Field
url s
depend s
sub float
Ġbox es
DE V
ra c
ĠA z
Ġan imal
Not ice
b urst
Ġset Up
Ġde ferred
ĠP as
}{ $
Big l
map per
ç± »
ĠR ol
o ul
Il legal
")) );
Ġinflu enced
en kins
ĠH H
Ġdeliver ed
al actic
Ġmin ing
Ġdec imal
st ellar
Re view
s yntax
ri k
Ġwor st
E ducation
bound ary
}) _{
n ear
Ġg a
E ast
ĠL yn
Ġgir ls
A ir
å Ĩ
ĠM ode
Ġ$\ |
Ð°Ð »
Process ing
Ġback ing
Ġme son
}} </
Ġext raction
ĠP red
Ġdedu ce
ment ion
it ches
g ot
Start ed
Ġb ench
ra v
) ];
igen ous
Ġs ac
Ġdome stic
lim inary
spec ies
y ellow
n it
19 07
Ġnumer ically
B etween
pl orer
as is
Ġa f
Ġexpos ure
ĠH u
), (
su ite
Ġne ur
Austral ian
lu c
ur r
213 07
re ject
ĠA V
mk dir
æ ŀ
() }
Ġins pect
$ --
Ġj unction
en coded
inst ances
log ist
ĠS quare
Ġre new
Ġm art
ĠG l
miss ible
ĠE uclidean
Ġplan ets
suff ix
19 05
ĠP latform
t own
IF Y
F our
Ġform ats
Direct ive
Ġf ly
Ġreli able
Ġcosm ic
Ġes c
W W
border ed
F it
ĠS ql
en coder
Ġc ancellationToken
Ġmultip lication
ĠP ot
R ay
current Time
Ġpain ter
ĠB road
ĠMag azine
ĠG C
Off ice
ĠY ang
cy cl
ride s
Ġcorre lated
ĠF ast
Ġg reatest
> ",
d og
Ġ um
ar ound
s imp
H H
Ġpur su
Ġdefault Value
Ġch rom
V ill
Ġimp l
ent ed
Ġaccomp an
ĠS ER
ĠT en
Ġsitu ated
2 30
Ġdo cker
Ġprov ision
Ġbelong ing
Ġsett led
ĠERR OR
Ġdec ide
ain ed
back up
Ġdrum s
Ġim aging
x pos
in th
ĠM ove
20 4
Ð Ł
}. \
A ws
Ġinfin ity
Resol ve
14 7
Ġcheck sum
then Return
ĠAust ria
st ances
Ġcon cluded
re ement
el son
Ġh air
ul ates
SE CON
ä¸ į
At tach
s il
As pect
f re
ch t
ĠEar l
ĠÐ ±
CO PY
Ġsh orter
Ġrelax ation
ĠB inary
Ġ$ ('.
Ġcomb ining
Ä Ł
Com bo
super vised
ĠHar ry
Ġmod ifications
Ġpos it
ĠS co
j q
ĠHol y
Ġgra de
ce ived
Un ion
FAI LED
ĠS pl
ĠI owa
æ Ķ
ĠT itle
Ġstart up
? .
Ġcons umption
Ġillustr ate
Ä ħ
is i
ĠSt one
se g
Ġassume s
P DF
ĠS ide
Ġaux iliary
under set
ĠSta ff
ĠMal ays
f ade
al ous
ro it
Ġad mits
Ġconven ience
C ircle
ï¼ ļ
\| _{\
ĠT ony
B er
Ġlog s
math comp
ĠInv est
m otion
Ĺ ãģ
ard ing
Ġelli ptic
h ad
iv als
Ġm yst
Ġbo ught
ĠB urn
ĠP erm
I o
Ġm ile
Ġinstit ution
m ong
str ategy
Iss ue
Ġinst ant
li ers
ĠKent ucky
W ords
Ĩ Ĵ
ĠP attern
Ġbase s
Ġg rows
dis ambiguation
Ġ\ :
}^ +
L if
dd en
Ġex ceed
qu ark
Ġdec isions
ĠLink ed
t ls
ĠB rian
V T
ĠM D
Ġan notations
Ġdoc s
phab et
I ll
ene z
Ġ( ,
Ġpure ly
U TE
] ^{
ĠNot ice
Bu ilt
Spr ite
ym n
sw ift
r er
Ġsw ap
Ġ} {\
auth ors
Ġneigh bors
E urope
per iments
clo sure
D ue
ĠK y
Numer ic
ter ior
CON F
class v
CO RE
ĠW ind
ĠWh it
com ot
d ra
Ä Ľ
An swer
Ġa str
el led
}, {\
M gr
Ġexam ine
Ġvol tage
b j
Ġenter ing
e en
T or
ug u
Dec or
Cre ator
ro zen
back s
ĠB rand
Re corded
m ot
log s
En crypt
ĠSD K
Ġo ct
ac cord
uc le
Ġnumer us
Ġconcern ed
Ġspec ifying
B oth
Ġrec ipient
Ġcla use
C XX
Ġrel ativ
Ġpre mi
ĠSystem s
Co verage
Ġviol ence
12 9
k top
he at
View Model
d g
vir t
{ })
ent e
ĠL ower
V ars
Ġtemp or
ĠA B
N ORMAL
Produ ction
Git Hub
Ġ/*! <
ĠF ame
Fl ush
ĠN FL
read able
re try
ab b
' )\
2 10
Ġb ond
Ġfact s
Ġac commod
C LO
ER Y
inger print
Ġd il
ĠR aw
Ġex cluded
ĠR O
Th ree
Ġput s
ĠS ix
Ġindic ator
Ġnumer ic
Ġresc ue
} ")
per malink
ĠE th
7 68
Ġc v
Ġhot el
tra ined
æ Ŀ
in cess
Ġthe atre
lic ts
Ø ¨
Ġset Timeout
H ot
Ġw arnings
er gy
my Item
i ences
Ġsh ares
query Selector
cla im
Ġp a
Ġsub section
Ġsever e
Ġmach ines
Ġp id
Ġindu ces
ĠSt atic
4 80
Ġcon jecture
ĠÐ ·
' -
Te levision
ch arg
Sim ilarly
ch rom
USE D
Ġ] );
NAME SPACE
v b
st ock
Ġeng ines
ĠF a
RE C
Ġme mo
Transform er
bo y
Ġax es
Bal ance
Ġun expected
OL DER
}= (
AS K
aw ait
lov ak
ĠIn fan
Ġan sw
ĠMar ine
ĠInt eg
ĠMan chester
Ġderiv ation
ĠLin coln
ĠC ape
ĠPh ot
record s
g res
ect ure
XXXX XXXX
Ġcrit ics
é ¡
Ġ[ `
ĠG lo
Dep loyment
Ġref used
respect ively
ĠB alt
ex c
Ġco in
ĠD al
P ad
Ġband width
ĠTok yo
ip art
cont ract
ĠSil ver
\, .
Opt im
ĠHe art
ĠDi ego
ĠAll en
ss h
ĠSet up
Ġv i
)} =
0 10
ĠTra ining
å ½
ĠB at
c nt
ĠC red
ĠBit coin
* (
M ich
Ġe g
ĠViet nam
> @
Ġpart nership
Ã ĳ
n or
ĠMo on
}} }{
ĠCl ark
Install ation
ĠB eng
Sl ider
Ġso ck
Ġs ale
Ġdetermin istic
ĠS K
Ġde leg
Button s
comp ress
Content Type
l st
- }
Depend encies
Ġnormal ize
ĠN ormal
ADD R
ĠB ody
Ġc ards
ĠN ik
ĠK at
ST M
% );
PI O
Ġfol k
mid i
Ġcancel led
Ġdis put
Ġrank ing
=" '
h ls
Ġphenomen on
Ġbro ke
ĠH ans
19 09
Var id
ivers ary
Re cur
am o
Ġu uid
Ġfoot er
old s
Ġinter ference
Ġ\, ,
h ub
ĠP ref
Ġatmo sphere
t g
add itional
olic ies
"> )</
am m
19 06
transp arent
Not able
Ġmin i
Î ¯
FIL TER
][ <
Ġcon g
Ġspe aking
he ses
Pro pag
Ġexcell ent
s uggest
åľ ¨
17 5
ĠSh im
Ġrest ored
16 5
) )$.
Ġsw iper
Ġviol ation
let ing
Ġexcit ation
Ġsuff ices
ĠI C
Ġformal ism
F s
Callback s
Require ment
ĠN eg
Ġfin itely
ĠPortug uese
inem a
he alth
ne ed
Ġdetermin ing
ic ians
Ġcommand er
"> '
Produ cer
ĠD omin
' }$
OP ER
C od
list ed
Ġen emy
Ġ@ @
ĠRo y
Ġt ropical
Ġf lood
ribut ions
ex e
im od
Z ip
abric ator
Ter min
writ eln
S ens
uk i
host s
ĠAl abama
in cre
Ġe yes
ĠW ARNING
G ed
unt u
F atal
ĠSw itzerland
re vision
Ġp our
ol ars
Ġun set
Ġgi ant
Icon Success
j b
Action Bar
k ar
ĠMET H
un es
Ġher self
ĠS elf
. ')
Ġp ipe
Cl ub
SE SSION
orient ed
Ġrout ine
ĠSup p
~~~~~~~~ ~~~~~~~~
L U
S B
Ġm ixture
LE AN
ĠĠĠĠĠĠĠĠĠĠĠĠĠĠĠĠĠĠĠĠĠĠĠĠĠĠĠĠĠĠĠĠ ĠĠĠĠĠĠĠĠĠĠĠĠĠĠ
mem item
Ġde cade
st ation
Ġhead quarters
Ġneg oti
Ġdis order
Ġso ught
ĠEn sure
con j
ĠL an
ĠReg ional
Ġl ake
2 60
CLU DE
Ġ ^{\
ĠS uccess
). }
q t
A WS
ĠAl bum
un ed
2 64
Ph ysical
Number Of
ey l
Ġreprodu ce
ĠR ound
Ġco pied
TH ON
Ä Ļ
Ġsub mitted
d id
14 5
State Exception
Ġcomplet es
6666 66
p ane
ĠB rad
Ġcount ing
ĠEn try
resource GroupName
Ġw heel
"> :
azel cast
Ġshift ed
b et
de ps
IT ER
ĠEmp eror
sh ake
Ġa ck
in ces
Ġt ar
Ġv acc
Ġn ortheast
ott en
Ġintrodu cing
Ġu id
Ġac id
writ ing
Ġch ron
h dr
O ps
Ġl n
AT T
Comp any
as ci
ĠFor ces
Ġpro test
Ġthous ands
A MS
}) -
al ways
Ġbright ness
$ (\
od ge
Comp atible
Ġmay or
Ġair port
Ġun a
ertific ates
be havi
Ġt im
ĠDo ctor
ĠOper a
at tachment
ĠE D
19 04
Dem o
or o
le vant
ĠMar shall
tri ang
ĠMe V
ĠSe veral
ĠHow ard
ĠN atural
sp it
ĠTe levision
F at
G D
UL AR
Map s
Ġremo val
ĠCh ile
re load
app y
issip pi
ĠF lo
x c
ĠB ound
Ġinterpol ation
Ġsequ ential
ĠA I
% ">
Ġcut s
max imum
ĠSpec ifically
Ġassert ion
STRE AM
it i
) ");
Na N
hent icate
TR ACT
ular ity
s us
ioce se
ĠD ream
rain ian
ag le
d an
Ġent itled
Code s
Ġrespons ibility
ĠS lo
Ġfile Name
ĠNav al
At tempt
out s
Ġconsist ed
Ġsub stit
Ġs ons
Ġwith draw
de leted
Ġreport ing
ĠEV ENT
ĠQueens land
Null Exception
Ġa stro
Ġman uscript
ud son
AS A
ç½ ®
M r
Ġclean up
r te
r ust
Ġn ur
ĠG PU
}( -
urn als
e asy
ĠCon stitution
Ġsess ions
Ġ* **
g allery
ĠG T
Ġfound ation
he ap
tr ip
ĠS aturday
v ens
EX P
inherit doc
ĠLore ntz
h op
lf loor
12 6
IconSuccess Encoded
Ġed ited
T ON
Ġfle et
S il
Ġsu it
i ot
el le
Pl us
Ġbus inesses
Up dates
ĠAdmin istration
Ġun ity
loy d
Ġinvol ve
lef trightarrow
m usic
ra cy
** :
Ġint ention
Ġbro thers
ann y
Ġfrag ments
Ġ[ (
Pr incipal
le ans
ad ers
ain ing
Ġre quiring
Ġmonitor ing
Ġlocal ization
open api
s ap
iline ar
umb nail
ever y
Ġc d
) |^
ad os
Ġinstr uments
~~ ~
ache lor
ĠE instein
direct ive
ang ers
ĠWork s
- %
Ġpermut ation
Ã© n
Ġrefer enced
ĠSaf ari
ĠT ypes
Ġvar ies
ĠC EO
b ol
ĠS ample
TIME OUT
ag g
t om
ĠUn iverse
Ġ( ((
ĠInfan try
Ġbound ing
ĠWal ter
k ip
t u
Ġport s
Ġoptim ized
P ag
Ġexperi enced
ĠL E
CONT RO
Ġs urname
Cred ential
el lo
Ġdwar f
ĠC her
ĠP ART
go als
Ġcon cerning
Attr s
Project s
ĠSen ior
inherit Doc
S chool
ict ed
15 2
Thread s
ide a
Ġsp end
Ġb rowsers
Ġstand ing
"> .</
Ġin vent
Ġgener ality
ĠR y
ĠS DL
Or ganization
à¥ į
Î º
ĠNor wegian
ĠSt udio
se a
Ġg ran
ierarch ical
Ġ<!-- [
b rew
Ġv ulner
ĠW y
pol ar
ĠMo ore
Ġv ic
ĠSty le
rid ges
Ch rome
et her
nod enum
ay an
Ġoper a
Ġarr ive
R ober
ĠBill board
EX CE
ĠD rop
Byte String
Work s
Ġre lay
ĠT oday
rf loor
Ġstri ke
Ġalleg ed
] /
Ġs ans
ĠResource Manager
Ġb ins
loy ee
v t
ADD RESS
j dbc
Ġneg ligible
oph er
is ations
ĠAn ne
ir ms
Ġworld wide
d up
form atter
Ġp ad
c id
us ual
Ġev t
b idden
t icket
ĠRes ources
ow nt
For Key
Ġcon servative
itor ies
Ġb eta
R oman
ĠC ell
Ġst im
Ġbig gest
+ '
H ouse
CP U
Ġgreat ly
Ġem otion
Ġper mitted
w ang
Ī Ĵ
Ġany one
Ġdiag nostic
Ġag ency
B IN
sym metric
Ġformul as
ig uous
ĠRem ark
co ustic
ik h
k an
Ġimplement ations
il st
ĠOb serv
Ġru led
e lection
co ok
ĠD ur
Ġexperi ences
L ater
Ġobserv ables
start ed
k ubernetes
Ġvalid ity
Ġobserv ational
b az
ot ers
comp atible
Ġlimit ing
col s
Ġend points
Ġinterest s
av al
W ar
am on
u able
ĠOffic er
Ġat tributed
ĠM es
ĠS ri
Ġlo se
getElementsBy TagName
F un
Ġ' [
Ġin habit
resol ver
Ġb arrier
ĠU INT
Tra its
reg istration
19 03
Doc s
ENABLE D
ĠA le
ĠArm en
ĠC ooper
Ġsur g
13 4
Serial ize
Î ³
n at
id i
M us
ĠS eq
con tainers
ug o
Ġeduc ational
ag s
add le
Writ able
K nown
be havior
Ġfl av
dis crete
oun ce
flu x
n able
ĠU r
al p
ĠMem bers
g ol
ĠB egin
un ce
Ġf aced
ĠĠĠĠĠĠĠĠĠĠĠĠĠĠĠĠ ĠĠĠĠĠĠĠĠĊ
Ġon Click
m ation
man ual
integ ration
re nt
Ġmark s
ie val
}} +
) ](
Ġl yrics
ĠCOP Y
IN LINE
") ).
ĠQu ant
ext ended
Ġ ic
ĠĠĠĠĠĠĠĠ ĠĊ
per missions
Ġpr on
S at
Ġshe ar
P OL
datab ind
ĠF LA
Ġfew er
normal ize
CONT ENT
hold ers
ĠL earning
; (
eg e
IT S
Ġpract ices
. {
ĠPat rick
for ced
Ġprint ed
Ġproced ures
Ġk not
Ġfilter ing
Ġincreasing ly
Ġexpl oration
source forge
ĠExec utive
ll ing
Ġde formation
ol ished
ĠE uler
omin ator
Ġmusic ian
un def
Ġweap ons
Ġgun s
ur bed
ĠK r
ĠC M
k le
Ġre ar
Ġd amp
ch ars
Ġb are
n f
Ġint elligence
ĠB ull
ched uling
co ordinate
ÑĢ Ð¸
Ġtang ent
}} /
Id le
BU FR
Ġs sl
Min imum
R a
Ġhistor ian
Ġ* */
ĠE uro
Col lect
Ġa ired
em a
Ġend l
ere f
Ġver bose
ort ion
ĠNot es
ield s
ĠK az
Ġhom ot
COMM AND
ĠT otal
Sort ed
ump y
Non null
ĠG ordon
end ants
ol ation
AT IVE
Ġc rypt
Ġun lock
SER VICE
type Name
r ub
Ġre act
Serial ized
Ġex tern
ivari ate
work ing
ĠSw iss
ĠD ialog
B N
_{ {
Ġfraction al
y ll
Ġ? ?
ĠAdd s
ĠInitial ized
Ġattack ed
B orn
G F
cr umb
Ġexec utor
work space
IF IC
ĠCart esian
Ġ ].
= {\
Ġvol unte
N AL
de cess
Ġwas n
Trans actions
Ġproof s
build ing
Ġpublic ations
Ġrig id
F ACE
ĠBul g
m q
ĠOk lahoma
19 02
ĠAl tern
================ ========
sql ite
Ġconst itu
Ġd ol
ĠS ho
system s
sh ot
Rep resentation
Ġradi i
M ot
omp son
Col ors
3 75
Ġag ed
) }^
p ause
Ġdis ks
Ġdistingu ished
Ġr id
ĠR on
Ġsh a
Ġrele ases
Ged mo
Prob lem
': '
({ },
Ke ep
ĠC ONT
Ġpres idential
ĠB ah
Ġro uting
Ġp un
ĠK itt
1 19
Ġste el
Ġg amma
o ct
ĉ ĠĊ
to k
Ġrelig ion
ãĤ ¹
Ġreve als
Ob servable
\ .
ĠZ one
Ġsing ers
ĠDec l
ia o
ĠN ames
Ġde pos
Ġst retch
comp any
ĠRE AD
DE SC
Ġear liest
p rom
C AT
Rect angle
Ġconstit ution
Ġp ng
ĠLINE AR
Ã µ
Ġc urrency
Ġdise stab
ar on
Ġwork flow
W M
ro bot
im ir
con tribut
E val
get Parent
ĠSc ient
Ġconsider able
CL UD
ĠCe metery
in fin
di ed
h ou
Ch oose
ĠHel p
20 2
iffer ential
ch itz
CLUD ING
SH OT
tt ify
E mbed
ĠHash Set
ial s
R aises
C Y
In ventory
OL D
ĠNever theless
ĠR ot
H a
W P
Ad just
ance led
S inergi
i u
Ġa pt
Ġis o
14 3
ĠP S
Bu ffers
Ġse es
Call able
ĠOr ganization
R ew
Ġimag inary
Ġslow ly
Ġs outheast
}$ ).
Ġext ens
ĠÐ ¼
Ġvol atile
Ġre vision
Ġpr ices
Ġt ends
Ġcy clic
a verage
uer to
Ġre write
Ġm i
Ġd ummy
Work space
ĠV e
sh ifts
Ġs now
ĠSoc orro
12 34
Mix in
ĠR T
Ġlock ed
Ġd oll
success ful
opt imal
So ftware
00 3
Compar ator
Ġsymme tries
B ur
ĠC ou
Ġguarant eed
}| ^
Ġme ss
Ġo mitted
é Ĺ
Ġarg ue
Ġin jection
ffect ed
Ġinteract ing
') [
Ðº Ð°
2 25
K HR
ĠT F
effect ive
ĠRec all
r in
ĠS in
' =
Ġproport ion
}} }}
Ġdis cret
Ġk illing
Analy zer
^ (
æį ®
ĠT reat
Ind ian
ul ary
ag an
ĠLine ar
Ġ' )
Ġ ):
Ġin variance
Z end
Ġd iverse
Ġsh utdown
SN AP
Art icle
ĠMot or
}\ }$
ĠKe ep
S us
re quires
& -
Ġab c
A ge
F ootball
corre lation
ĠJes us
m ixed
19 01
Ġoff ices
min or
A cade
Ġ\\ [
Ġar ises
Ġsimpl ified
n ok
> *
Ġan tic
Ġretire ment
B roadcast
Ġhyper bolic
iss ance
Ġreve al
ĠDep end
g ements
or ous
EX TERN
Ġm p
TO P
Ġown ers
Ġprof ession
}}\ ,
ĠJ am
'] [
Ġ"\ "
Ġcon tr
Ġres ize
ĠEar ly
AR GS
Tool tip
Util ities
ĠDe ad
real m
ĠS port
ĠExec ute
Ġ ----------------
C ACHE
ĠD NA
ĠS n
ĠT ake
Ġliter ary
ĠArgent ina
ĠMETH OD
ĠB ureau
Ġdesign er
Ġre ci
ĠM aur
Ġcollect ive
ĠCatalog ue
ber ta
Willi am
Ġg ro
Ġcomp ress
correspon ding
ĠV R
get C
Ġident ifying
ĠUn ivers
Ġcon clusions
Ġcarry ing
it on
Ġcommission ed
ĠK ra
ĠT el
be am
P AGE
Ġpart itions
has Next
ĠThrow able
Ġdiver gence
m ate
ĠO tt
Ġland scape
rupted Exception
P aired
Util ity
Pack ages
ber ry
com merce
en ix
D K
r ss
bar a
User Id
View port
an not
umul ative
Ġn ice
Un expected
Ġferm ions
F ixtures
ob server
ptr c
Tool Strip
Ġprov es
/ :
æ Ń
Ã³ w
em ony
LOB AL
Qu ick
Ġ` --
Ġext ending
Ġf ought
"> =</
ĠAnth ony
ĠD irectory
an ia
ame l
ĠHel per
P a
Ġl azy
ĠP OST
On line
Ġst ating
Ġserial izer
Ġhelp ful
Ph aser
Ġgood s
40 1
Lin ux
S IG
Ġm ort
Ġoper ates
ĠL ooks
ĠPr imary
lor a
Ġc ategor
E m
Ġp ione
P icture
ĠOr gan
; :
NE SS
Ġcr iminal
spe aker
ĠFrame work
Ġm a
Ġregular ization
ĠC ow
ĠK a
Form er
ĠB SD
P s
par ame
Ù ģ
ĠT ar
Ġparticip ate
um ann
co vers
p iece
can onical
Pro jection
Ġclin ical
Ġ\ '
... "
Ġcompet itions
Ġre tained
Ġex clusive
Ġcr isis
Ġround s
Ġsh allow
Ġmag ic
F old
T rip
que e
std lib
graph s
ĠâĢ ł
ov es
per m
Ġcent uries
ĠH AVE
quant um
S DL
ĠH ockey
Ġl ua
Ġfound ing
LOC ATION
y ml
Ġ è
Ġch at
Ġresource Culture
raise box
ĠRem ote
math ds
DEF IN
ĠM att
st y
r g
Ġk id
Get Value
Or Empty
Ġmeas uring
OFF SET
ĠInt ent
Sh utdown
Ġlog o
Ġl aid
Ġkind s
Ġbe an
Op code
OUT PUT
Spec ify
= _
u ches
Ġ )$
Ġm illiseconds
}\ ;\
Quant ity
Ġe ig
Ġvanish ing
" <
I FT
node Type
unt ing
ĠJ ay
Ġaltern ate
ĠD ick
ĠTur kish
tensor flow
Ġhigh way
ĠW atch
L ex
cre ation
ch tml
ĠC ategory
u u
ĠMark et
Ð½ Ñĭ
ĠTemp le
Ġre volution
Ġrelativ istic
> ");
ĠH AL
P ull
}] \
WIT H
é Ļ
18 80
Target s
Ġlook ed
F ar
Ġexplo red
Ġg rey
W ater
Ġf ade
Ġch a
Ġref lected
m v
Ġoffer ing
ĠP sy
ĠUS B
3333 3333
B i
M art
SP H
Ġcloud s
Ġtor us
est imate
com mut
ĉĉĉ Ġ
t ap
ĠC lean
Ġsearch Box
I FI
] _{
MLE lement
G old
Ġd uplicate
ĠD ie
Ġmod uli
T s
Ġiter ate
ĠDoug las
Ġgeodes ic
Ġadvers arial
>{ @
Ġover rid
Ġre ception
G a
ir ds
13 3
PT S
ĠQue bec
ä ¼
ĠCall back
Ġuniqu ely
o ir
Ġqu ote
}_{ (
ĠCommon wealth
ME TA
ĠB h
ĠSt age
ed ition
bat im
ors ion
rol led
ĠValid ation
g d
sk in
< '
Ġa ims
ĠD R
enc er
rece iver
ĠH it
Ġcontinu ity
N ay
c riteria
---------------------------------------------------------------- ----------
user Id
ĠV ice
ĠSh ared
D TO
der iv
ĠCon sequently
ĠR ab
ĠPortug al
ĠE ffect
ĠG ab
o a
Ġun e
cor ner
ĠN ap
weight s
ar ations
ct ype
ĠCro at
ro utes
ĠK it
P LA
Ġun like
Ġent rance
Ġconcat en
ĠS IL
Ġexhib ition
U X
Ġembed dings
Ġprincip les
unn y
SY S
f ork
ĠM ond
MO VE
Ġnull able
Ġjo urney
Ġo x
Ġl it
Print f
Ġ{ !
pl aced
M ilitary
( ',
ĠC are
ĠCh ampions
prov ided
E B
De leted
Ġm ine
Ġch urches
Ġ' --
Out Of
ĠChar acter
Ġcon sum
parse Int
Ġefficient ly
ĳ ¼
)) :
sing leton
F ran
n est
Ignore Case
ĠO ak
end a
Ġprov en
Mut ex
^ -$
os lav
Ġph on
ct ic
Ġlo comot
Ro les
Grad ient
Ġ[ &
ĉĉĉĉĉĉĉĉ ĉĉĉĉĉ
scal atest
ĠAn aly
Ġis lands
Mac ro
con struction
io let
O VER
ĠS ant
de sktop
param ref
Ġresource GroupName
- "
Ġhe ap
Ġup dating
Ġsee ing
b ibli
ĠN ichol
Ġt icket
loc ated
Ġvari ability
bra ins
ĠHo uston
th y
Ġre ign
16 6
gra mming
char At
ĠCheck s
ĠIn dependent
ĠField s
Ġ/** <
up pet
ĠP od
Ġb ootstrap
Or gan
gener ation
Ġtemp le
ĠV in
15 5
ik o
ĠR ES
sc atter
ĠAg ency
i q
Ġform atted
V ersions
14 6
st atistics
ĠS Y
ver ity
Ġp ose
ĠVari able
Ġho lomorphic
link col
Ġ= =====
Ġscr atch
Ġgu ess
Ġ} $
ĠAct ivity
Com ments
ĠC ru
Spr ing
ĠS F
Fig ures
Ġelse if
Ġhome s
Ġ} }</
ĠK ur
Ġdeploy ed
Ġdeal ing
corpor ated
all as
Ġinv ited
Ġlocal ity
per formance
EN SION
Ġsl ave
coup ling
ĠLem mon
conv ex
onom ous
Pub Key
Ġlaw yer
Connection s
Ġsports people
Ġpost ed
D ays
S ym
Ġa z
ma king
h or
Ġj azz
ĉĉĉ ĠĠĠ
ĠNC AA
b ach
A mazon
r hs
M ULT
Ġra in
Ġvis itor
ãĥ Ī
lan ta
Ġ× Ķ
00 000
oth s
Ġsub tract
Ġopportun ities
Ġsoc cer
Ġ\ #
ĠConnect icut
INTER NAL
Code Dom
P ART
] }\
ĠComp uter
REQ UI
ver ts
bl ur
Spec ific
Ġind irect
20 3
VAR I
$& $
ĠG il
b anner
hand lers
ĠType Error
ĠD om
' ><
ĠLa ure
ĠSk ip
Ġan ten
Ġbu ffers
Ġaband oned
Ġmark ets
Ġbo at
ĠTra de
G allery
Log ical
IS O
St roke
Ġg one
ĠEx pr
Ġencounter ed
}$ ;
inal ity
\!\! \!\!
Ġv ast
ĠOn line
p ow
ĠV ER
ĠI Enumerable
moment um
Ġr pc
ctx t
Match ers
Ġas semb
ĠMiss issippi
Ġfin ishing
å Ģ
13 1
YY YY
ĠB reak
Ch ars
Ġh older
ts burgh
Ġdirect ors
(" ./
atern ion
ĠDeta ils
ĠI M
w y
ĠW ard
Ġout flow
sw ith
Ġ( &
ĠI ron
ĠCom b
Ġcaref ul
Ġmetall icity
k r
Ĥ ¬
L ess
ĠGal actic
Ġ'/ '
Ġco homology
Ġin ferred
Ġcour ses
4 000
man ded
f h
al bum
w heel
col head
Mar shal
io logy
p ure
ĠN ick
pert urb
sh aped
match er
Mar shaller
pro logue
con cept
serial ized
re comm
ĠThe me
ips chitz
ĠUp per
ĠModel s
ĠE mpty
Ġestablish ment
Ġoccup ation
Ãĳ Ãĳ
ograph ics
Ġgu id
ĠSim ilar
ĠG ard
list eners
Ġd w
ĠPh illi
im ore
home page
New s
}\ !
/* .
Ġminim ize
the se
Ġcl im
Ġsupp ressed
ĠB ou
A ds
Ġm aintenance
ic he
Ġcy cl
ĠPri x
Ġs alt
Ġv oted
ĠB U
å ¾
out ube
Ġre tail
ĠU ri
Red is
Ġsqu ares
M AT
get Path
") ),
Dis covery
ra ils
la zy
ĠMat the
J ames
^ +\
pp ers
with in
Ġcav ity
ĠIn fo
equal ities
ĠSe ason
A lex
Ġpublic ly
Ġw ra
ĠY an
Ġre lies
count s
Ġon going
oc he
add All
ĠLay er
S ensor
Ġde veloper
Inter op
ĠPar ser
Ġan onymous
ĠBu ck
ĠTrans form
Work flow
g row
ject ive
ĠHarr is
bootstrap cdn
i ang
13 7
ĠMedic ine
B log
x r
C AL
Comp ile
CK S
Ġdr ift
tol ua
Ġrecord ings
ĠP ad
A verage
re cogn
un set
Ġmanifold s
en umer
ĠJ uan
ĠLab our
Ġp ersist
Ġr ival
Get Type
Ġoptim ize
ĠHaw ai
Ġex ercise
ĠF ood
lear n
FAIL URE
Ġco res
Table Name
TR ACE
× ©
las g
Ġnot ing
ĠST AT
m illion
ĠF un
ĠLib eral
D u
20 8
Ġscient ists
p ix
ĠY outh
\ `
Ð½ Ð¸
ap sed
Ġadd ressed
rece ived
har mon
) ~
Const ituency
m outh
level and
ĠTH IS
assert Raises
Ġhead s
ĠPer formance
Ġexpand ing
T W
in burgh
Ġr anging
cap acity
H I
Ġin cl
Fin ish
le in
ĠN ash
Start ing
Ġprov iders
Ġac cessed
Sm art
ĠB attalion
Ġsuc ceed
leg es
G esture
D ark
P N
ter y
ĠB UT
ĠD ak
ro ut
b os
W IDTH
Aggreg ate
ĠRober ts
Ġsh ifts
Ġd Ã©
fig s
ĠP FNGL
Ġindex ed
Display Name
ck e
Ġdetermin ation
dig est
Ġ= &
Ġturn ing
- {\
IM ARY
al ia
Ġregular ly
* {-
Str ict
sh utdown
Ġoscill ations
ĠDiag nostic
C ritical
P aul
au er
ĠLouis iana
M arch
i pt
DA O
Ġrecur sive
ĠĠĠĠĠĠĠĠĠĠĠĠĠĠĠĠĠĠĠĠĠĠĠĠĠĠĠĠĠĠĠĠ ĠĠĠĠĠĠĠĠĠĠĠĠĠĠĠĠ
Ġter rit
serial izer
l ind
Ġj ets
level s
ĠDefault s
ĠCon tact
Ġob st
ĠF inn
ĠEvent s
Ġtouch down
FO UND
ĠG ene
> {{
Ġb ubble
ed ing
Ġav ailability
El se
itud inal
Ġthere by
Un defined
Ġt ennis
] _
be zier
effect s
driv en
ĠB ranch
Ġcomput ations
Ġdrop down
$ "
', \
Ġcl ar
ĠS pect
E mit
l apping
Ġhe ating
Ġtrans mit
IC AL
IR T
EMP TY
SE D
ĠAl an
ĠP ear
ATTRIBU TE
z es
ĠE s
ĠF riday
ĠWith out
Ã§ o
Ġc utoff
Request ed
conn ector
bul k
ĠðŁ ĳ¼
ĠDis ney
to Array
Tr im
Ġferm ion
ĠðŁĳ¼ </
con sumer
ĠPh ysics
18 98
Ġb ath
S dk
EN S
Cal c
jet brains
ic ide
Ġph p
ĠPo pe
Heading Color
M N
sp y
We ak
Ġsp acing
Ġet h
ĠG W
ol s
}} +\
Ġro oms
Ġaccompan ied
ĠV k
ĠBrazil ian
ĠP ed
ro uting
oc ratic
ank a
So ft
**************** ********
Ġanaly ses
Ġtrans it
draw er
luc ene
Ġex ceeds
Ġorient ed
Ġex emp
ĠObject s
Ġd iversity
ÏĦ Î¿
ĠU TF
ann on
Ġdelay ed
FE ATURE
pend icular
built in
h is
Ġc ancellation
_{ (\
al ter
ĠR u
Ġtranslate Y
h us
Ġdistri bute
Ġmet res
Y ea
ĠT ak
yn e
Trans late
ail s
Ġlong est
th in
Ġmut ual
T ake
is lation
Ġ\ }$
G s
oci ate
b age
ĠI o
LI MIT
è ¨
Ġover lay
Ġlog ged
ãĤ ĭ
Y P
Ġeng aged
cre pan
Ġare n
ft p
Ġdut y
Ph il
ownt own
Ġgra dients
Ñ ī
de vices
ĠB roadcast
ĠD VD
2 32
Ġqu bit
Ġpop ulated
[ ^
Ġev ident
ĠHer itage
Ġphilosoph y
Ð½ Ð¾
Ġpoet ry
n orth
ĠVill age
imed ia
At Index
Event Type
' </
s ens
ĠR yan
15 00
ĠBelg ium
Ġv el
auto ref
Ġl hs
Ġsp ell
Y ES
O fficial
ĠW alker
pr ule
d ie
Ġf urn
SNAP SHOT
ing ly
IN X
sp lice
AL LOW
"> {{
unit test
ĠP ush
Ġvar s
Ġs cheduler
net t
Ġbir ds
initial ized
Ġcertain ly
sp arse
un icode
ĠC hem
ä¸ º
' ></
ex clusion
Jap anese
root Scope
+ }
ME DI
ĠA BC
f ollowing
it les
ĠA DD
Ġcon current
Ġfeas ible
E ven
n ia
GR AM
H EL
ĠN ev
ĠE dd
da o
Recorded Vote
ĠF ern
Ġcast le
Hash Code
Ġcompan ion
Leg acy
ur istic
ul s
Ġpro mi
ĠÃ ī
ĠE dition
Ġsem antics
Ġinv ocation
is EqualTo
r w
l bl
ams ung
Ġsingular ity
ĠRes erve
Ġpass enger
ĠD anish
ity Engine
el rte
ĠThe ory
bl ast
Ð°Ð º
ĠL oc
Corre ct
de coder
Ġre interpret
Ġpar ad
=' #
cell color
@ {}
ail and
st retch
ab ad
ranch ise
re ng
st ries
um ar
Ġback ward
g rey
ä ¹
GB T
p ip
> }
WIN DO
ĠN an
Ġexhib its
o es
ĠSt ew
Ġarr anged
è¡ ¨
x hr
Ġtech nologies
semb les
CA ST
Buffer ed
7 20
assert That
15 1
co ck
Ġthick ness
sh im
Ġser v
30 1
BY TE
calcul ate
T urn
ĠAnton io
tr unc
enn y
l attice
to prule
Al location
Ġcompet itive
Pl ane
Q String
SE C
Ġpub lisher
Ġon mouse
pro posal
Ġgraph ics
Ð¾Ð º
Ġdig it
ĠSpace watch
Ġst adium
RE SOURCE
G lob
Call ing
ĠC os
ĠBow l
ĠT S
ĠStud ios
ĠArray s
ĠF ried
ĠDe ath
}] $
pro mpt
US Y
ĠDo es
Ġstream ing
-- ">
indu ced
Ġme ets
Ðµ Ð»
eral d
Data Set
ist ing
Rem oved
Ġpack ets
Ġ* =
Ġwork space
Ġ" __
ĠL as
Ġadapt ive
\ ",
in ch
Ġal le
Ġsh ader
filter ed
Initial izer
Instance State
Char Field
amil ies
Mod ify
=" .
Ġpaint ings
C OR
IL L
Ġpoint ing
Aug ust
F all
d ale
j vm
ĠC V
lement ary
Ġqu arks
ĠG len
PRE SS
Ġphenomen a
Ġimp osed
22 2
ĠI SO
Ġcontain ers
^{ [
Ġassist ance
As String
Ġx hr
ĠBu ff
ĉĉĉĉĉĉĉĉ ĉĉĉĉĉĉ
ĠEd it
node Name
Type Def
Ġcompet e
Ġcond ens
ĠMc C
ĠI r
ĠP anel
" ):
g m
ĠWe bsite
ov y
Ġoper ational
Ġch ampions
alloc ate
Ġ{ ?
in el
Match ing
: ",
:: ~
Re peat
PO SE
}} ^{(
Or d
sp er
ĠPh ys
ĠYou Tube
Ġfore cast
oun ced
pre dicate
å ·
az e
Re ception
Ġocc as
ĠM rs
Ġfriend ly
80 80
18 99
Ġstr len
c ub
M Q
S ocial
Ġpublish ing
al ph
Ġaffect s
so ap
on der
urr ican
ĠD ol
ĠN ag
gra ms
b ias
Ġsimpl ify
/ @
ĠU UID
ĠIn sert
14 9
Inter faces
fl are
/ ************************************************************************
ĠLaw rence
G aussian
Ġsql ite
' ",
f ixture
ç ī
Ġb igger
d ip
Ġsuper ior
ĠHot el
ĠK evin
Ġsurve ys
D to
Ġachie ves
ri o
ĠTh ough
g tr
m iral
Ġr is
Ġed iting
sort ed
uc lear
Sc anner
to gether
her its
Ġ/// <
Ġc up
ĠBrig ade
ot ype
class Frame
Ġsuggest ing
b la
) ~\
] "
ok u
Ġsearch ing
Ġab elian
pub lisher
set Name
T CP
n v
In crement
Ġannoun ce
Ġro ads
ĠCH AR
Ġsuccess or
P TR
ĠUs age
Ġequ ally
Ġconver ge
r Ã©
ĠP arent
text style
ĠDub lin
Ġtext s
x FF
et ched
SET T
ĠMay be
Ġfrequ ent
Ġ( .
Ġme s
LO T
Ġexplain s
ac iÃ³n
Ġc raft
constraint s
æ Į
de velopment
Ġaccept s
UB LE
è¦ ģ
ĠG on
Ġn umpy
ĠDen mark
Ġed u
Ġbe ar
, }
ĠT ensor
): =\
Ġassert False
FUN C
H F
'' .
y our
G LA
S ongs
ĠEd ge
M icro
Ġf ru
ital ic
Ġ' ;
Ap ache
H ig
g un
Non User
ath y
b ia
Ġsp rintf
MA IL
\ ">
nes ses
u its
ĠR oot
}$ $
)\ ,\
Ġt iming
l brace
Ġan th
Ġc ler
Ġinhabit ants
Ġpro hib
ĠW right
C ENTER
Ġdisc ip
\ }}
k b
Ġk new
Ġcontext s
2 15
h um
ĠP ho
f ather
n om
ĠC ensus
Ġor ange
Ġvar char
p q
æ ģ
Ġ" *
Mov ie
Ġprepar ation
ĠAl b
ĠB ry
g as
ĠIslam ic
ĠB ab
ĠIn clude
Ġval ley
L azy
Ù Ĭ
Ġland s
ĠHol lywood
Ġt ur
=" __
thod ox
ĠC el
Ġmount ed
Ġt ied
Ġil legal
ĠPal est
Ġme ters
ĠAdd itional
Ġflux es
Ġt ill
mit ian
Sp in
Ġact resses
åĲ į
ĠAR M
Ġlimit ation
Ġnot ably
class ification
Result Set
ÃŃ n
Ġcer emony
s outh
Ġfall ing
v est
Ġin aug
Ġsur prising
re start
co lo
f req
ĠD omain
K B
ĠGu id
ather ine
Loc ations
6 55
In herited
ĠM I
ĠF red
20 5
mock ito
Ġch rome
Ġim mun
Ġinv asion
Ġsummar ized
work flow
Ġre actions
ma de
Ġget Name
âĢĿ .
Ġnucle i
ĠP ap
V m
L ab
R X
ĠN ob
=-=- =-=-
Å Ħ
ĠA SC
ĠAl loc
Xml Element
ĠC over
dis p
Ġal i
raw ler
md i
pg f
Ġsub sid
s ay
Ġpos sess
ĠSh ape
ĠD onald
>> >
Ġimport ed
Ġt iny
Ġread ers
Ġthe ad
ĠImp erial
g han
l ift
it atively
ir q
v k
Value Type
Ph abricator
Ġcomprehen sive
){ $
Ġtw elve
Ġcap ability
rep resentation
Ġp reference
Ã¨ re
\' {
R ST
Ġphot ometric
ĠEx change
Ġeffect iveness
Ġ$ -\
re lat
Ġm as
Ġd ream
LI ED
ĠAut om
13 9
{ }\
h c
resize box
ĠMi ami
B ug
ĠB etween
pop over
Ġo xygen
Ġde mo
Ġsup ern
ĠE valu
Pre c
Ġa coustic
F X
P B
Resource Manager
ĠDet roit
ib us
~ {\
}} }{\
Ex act
ocab ulary
Ġtrans ient
set length
h m
æĸ °
x si
Ġt ank
ĠD ave
Ġas c
Ġoutcome s
Ġp ersistent
ĠGit Hub
Ġsu dden
00 4
Ġab use
Exception s
Coll ision
ĠB ot
Ġtr uck
}; \
Ġindex es
Ġdip ole
ne e
ĠS om
Comp ilation
render ing
enez uel
valid ators
+ |
bor ough
Ġre pe
Ġh am
ãģ Ĺãģ
Dis pose
"> [
}) :
Ġme mb
] ):
an ies
W D
start sWith
clean up
n ick
Un icode
\\ \
22 4
Ġsimp ler
Ġat tachment
ob e
material ize
ĠLie utenant
ĠU E
Ġin equalities
vert ices
P et
Op acity
ĠCom ment
Ġtri als
ĠJ u
set State
Out come
Ġk o
comp letion
' (\
Ġhe ar
photon ui
ĠOr chestra
Http Servlet
Ġst ops
Ġcom ic
prop ag
sc ious
ack nowled
Ġauthor ization
h ai
AD ER
Ġground s
FH IR
ĠSam uel
Ġo prot
ex change
ĠSV G
Ġz eros
Ġplace ment
[ @
r gba
orange hill
l ane
Ġget ter
orangehill dev
SCRIPT ION
Î ®
Ġch air
IC K
ĠK an
Ġmatch er
eg as
C as
Q T
h ooks
ĠG arden
Cur ve
Ġinj ured
Ġtra p
Qu ota
Dir ty
T om
SR C
18 97
ĠRE ST
tr ical
S equ
Ġext inction
ig ious
Ġmechan ics
ĠF lag
mention ed
ĠF arm
ĠØ ¨
Build ings
Ġclip board
Ġtra ding
ĠBern ard
Inf os
+- +-
r ations
Ġ' ');
ĠCo lomb
Ġst em
Con clusion
Ġsub stitute
Ġcon sequences
ĠC MD
æĪ Ĳ
Ġalloc ate
Ġex ha
ĠM ir
Ġca ption
Ġart ificial
n ings
ĠW idget
cor r
C urrency
[ {\
it ics
) /\
ore l
mp s
em ale
ij k
B inder
W T
WA IT
Ġkn ock
Ġ' *
ĠHistor ical
38 4
$ }\
Ġint el
x rightarrow
"> {
Ġtot ally
so lete
Ġassess ment
r us
Ġconjug ate
Ġguarant ees
Ġf ruit
get Item
v ik
Ġt error
ĠSE LECT
Ġtra il
BIND ING
ĠU lt
ĠS L
ĠH ills
Ġfoc uses
Ġbeaut iful
Ġr v
& +
ĠM ach
und o
Ġ ib
Ġ ../../../
ex perimental
SY STEM
ĉĉĉ čĊ
Ġdiff ers
ro ck
ĠPet ers
e se
um s
el if
ĠG O
14 2
ENT S
Ġhelp ing
i ac
t iming
IT EM
M or
Ġ{ :
ĠHar vard
A RE
ĠT ig
Ġr ings
Ġl p
art z
ĠĠĠĠĠĠĠĠĠĠĠĠĠĠĠĠĠĠĠĠĠĠĠĠĠĠĠĠĠĠĠĠ ĠĠĠĠĠĠĠĠĠĠĠĠĠĠĠĠĠ
M otion
Ġapp reci
Ġdual ity
un wrap
ĠM ER
Ġelse where
Debugger NonUser
Ġm ic
ee per
) `
Ġf lo
cred it
d oxygen
ĠB arn
y ers
{ }{
ĠM ol
LA S
final s
}}\ \
Ġâ ĨĴ
min is
Ġfair ly
} ],
Ġf atal
Ġp d
Ġmode led
Ġf at
L int
che ll
ey ond
Ġepoch s
dim ensions
Ġing red
J av
e i
Ġh ack
× ŀ
Ġe u
ĠAl ert
="# !"
St udio
ĠMet adata
Ġdyn asty
Ġsupp ress
g ateway
Ġtra ces
Ġfamil iar
eq z
Ġe mitted
p v
Ġf lying
ge on
It alian
set Property
the y
List Item
Ġdiv ide
r n
Ġre put
åĬ ł
CUR RENT
ĠD S
status Code
C irc
SPH INX
K L
il de
Ġ" ../
18 70
Ġaccomp any
Ġgradu ally
Ġ ------------------------------------------------
ĠC LI
Assert ion
re ll
sub menu
ĠQue ue
Ġ ions
le man
Ġnow rap
A pril
ĠYear s
op ter
}{ $\
ĠDes cribe
ĠInitial izes
13 8
Ġpass age
ĠV ec
own ed
Ġif f
Al ready
Ġcommut ative
Ġselect ing
Temp lates
G l
comp ressed
Ġ` $
sess ment
ĠL en
ĠGir l
Ġ' :
Ġ$ ('
At om
ĠMay or
ĠEd inburgh
Ġip ut
ĠProp Types
è §
Ġi OS
ĠUn like
UNK NOWN
ĠM and
clus ively
18 96
Ġb ott
ĠDef ense
u w
get Int
Ġt ie
Out er
18 95
sched uler
Ġco ding
ĠW ang
BU F
Ġtransform s
ĠM ission
Ġw ider
M ON
Te le
Ġb undles
PR INT
Ġgovern ed
Ġcomp ressed
Ġes lint
S el
Ġer g
ĠG NU
Tree Node
Clo sure
LA RE
Hash Set
hy thm
J une
T IM
ĠĠĠĠĠĠĠĠĠĠĠĠĠĠĠĠĠĠĠĠĠĠĠĠĠĠĠĠĠĠĠĠ ĠĠĠĠĠĠĠĠĠĠĠĠĠĠĠĠĠĠĠĠĠĠĠĠĠĠĠ
Ġweek ly
Ġrestaur ant
u art
Pi pe
Ġh ired
g ms
fer ences
Ġval uable
R anges
Ð ¶
w l
14 8
re tt
cred ited
ne ur
Ġisot ropic
ĠGL float
Ġdis placement
Ind ent
Est im
ĠR ace
Ġjust ice
E scape
Ġ' ../../
B ul
Ġmov ements
ĠP rep
}) }\
r brace
Ġp ip
dec ay
Ġmis sed
Ġyour self
Ġ' __
Ġident ities
Ġteach ers
Ġflat ten
E F
ĠRail road
F ollow
ut r
Exp atriate
ĠT rip
\\ [
Ġwon der
Ġstr ugg
Evalu ation
ĠAg ent
so ftware
D an
Ġgradu ate
Ġpre view
ur u
Ġescap ed
Ġbring ing
dim s
U uid
ĠS ort
ph ysics
illa ume
re pos
Ġm ental
Ġ? ></
R P
Ġun safe
ith uan
Se ason
Ġk pc
19 3
in vert
Ġamp l
lo de
ĠP os
ĠH ell
ĠB ind
B a
e z
Ġh ooks
und ant
search Box
Bo ard
w ifi
ĠArt icle
è¡ Į
Ġen velope
author ization
ĠMin or
Ġthe mes
Ġh int
ov o
up iter
Ġshoot ing
Ġsim ulate
2 17
At omic
Ġoff sets
ĠF oo
Ġpat ent
f ers
Ġw orse
U ng
ĠSing h
r k
Ġcons iders
ĠFile s
Ġglyph icon
>& #
ĠP L
Ġcap s
ĠS equence
}{ .
View er
ten ant
ig ible
M irror
ĠD aily
ĠKenn edy
pre ttify
P lugins
æ Ģ
ĠK am
t ro
Ġv eter
Ġexponent ially
ĠPublish ing
ĠSpe ed
$ =
lic as
moz illa
PO M
Ġb attery
Ġacc used
mess aging
Ġf ear
:: _
ãģ «
user Agent
Ġaccur ately
ĠIndones ia
x a
Ġdetect ors
Ġh istogram
Ġfall back
Ġserial ize
U tf
Ġste am
script ors
diag onal
ĠE lect
yst yle
Ġrot ating
omb re
ator ial
ern els
r h
28 0
activ ation
Ġc ited
Ġp kg
Ġ[ ])
Foreign Key
min i
Ġhom omorphism
ĠR ap
Comp uted
Ġsimple st
it ations
Ġover head
lade sh
s andbox
ig roup
pro fit
Ar c
Ġshe l
Dig est
er ance
at in
az ines
Ð¸ Ñģ
release s
ĠExec ution
ĠArk ansas
Ġc pu
Co ordinate
å Ŀ
DE CL
Ġarch ae
D eg
Ġtranslate X
Track ing
ut ility
Ġf printf
Ġin ternet
Ġ_ ("
Ġdec line
war z
ĠOpen SSL
> ]
Ġpart ners
account s
Sw ap
qu er
Ġdirect ories
Ġcorrect ed
evalu ate
Channel s
P rom
dat as
g ue
get All
Sc ott
ĠU tah
Ġdig its
× Ĳ
l hs
15 3
Ġreg isters
ht bp
Sim ilar
Ġagric ultural
ĠM ut
Ġph rase
samp ling
, &
ĠM icro
In deed
B LE
ee ded
ne cessary
Bound ing
NR AS
ĠB art
G AN
P ur
ĠN elson
or med
he art
Con str
Ġcontra dict
or ce
dec imal
====== =
ĠO B
Ġc arrier
ĠAust in
Inter action
ĠSm art
ĠM organ
am ination
ĠI T
ĠG ray
Ã¡ s
ĠFreder ick
key board
ĠC T
Ġj unior
Ġun changed
E OF
ĠD og
Equ ation
ãĥ ĥ
Ġemer gency
Ġhundred s
' /
idel ity
Ġden ied
Ġtra iling
ĠReg Exp
7 50
Ġpro pos
Ġqu bits
Ġm outh
ĠApp ly
Ġw aters
AUT O
Ġw id
Ġp as
ĠR unn
b w
ĠCommand er
Propag ation
' ^
S uggest
Ġglob ally
A IL
i am
mark down
Ġmarket ing
Ġelimin ated
Ġprotocol s
big skip
Ġpay ments
Ġke V
L u
re peated
ĠAd ams
Fat alf
Ġb om
Ġmark up
ĠAf ghan
ĠPro of
Ġpick ed
Ġg allery
ĠE ver
ml abel
ap olis
Ġan nih
(' -
Get s
i at
ĠM IN
ĠK ings
Ġ{} ",
ER O
Ġsell ing
o lo
Ġs z
et he
ĠAb d
R D
y u
Ġde generate
Ġmedic ine
00 7
Ġimpro ving
Position s
le c
ACT IVE
ĠPal ace
Ġsp ins
æķ° æį®
type col
iver pool
er ase
Ġpopular ity
ĠPack ages
ab atic
Ġelect romagnetic
Ġb anks
mix ins
Ġcontinu ously
O Auth
ĠAust rian
d ll
60 1
ĠK u
callback s
ĠN ation
^* (\
it ize
ĉĉ ĠĠ
Ġm ysql
ĠComp lex
weight ed
syn opsis
Ġdev oted
ĠN ic
Ġo ps
Ġcompet ing
Ġport ions
Ġop ens
Ġsear ches
m os
åĪ °
behavi ors
d ense
ok ing
Dim ensions
author ized
bottom rule
Ġ< >
ĠLeg islative
ĠFin land
"/ ><
En cryption
ĠJ av
ĠIsra eli
LE ASE
Ġprodu cers
ht b
key frames
comp ilation
Ġhead ing
o j
å ¸
Tra de
Ġswitch ing
Ġv it
æģ ¯
N an
k ill
Ġknow s
ĠB ag
subNav List
big gl
ĠPh one
ĠM ix
Ġv oting
ĠC ri
ast s
R ing
s ively
il io
track s
r df
list ing
ON Y
Ve locity
Ġcre ative
commun ity
Ġphot os
Ġcommun ications
Ġwh atever
i op
z u
Ġrot ational
spect rum
im ap
normal ized
comp uted
xx x
D ocker
output s
Ġf ract
ci ence
ĠPo inter
r ats
Ġun used
ume s
ĠU pon
Ġsqu ared
ĠB ootstrap
ĠF ail
Ġint u
Ġbo ys
encrypt ed
ĠL ane
che m
Ð°Ð ´
GENER IC
}$ ),
Ø ´
Ġcomp ound
model Version
over ty
init ely
Foot er
s ensor
in struction
ang el
Ġke eps
ĠB ug
ĠP H
DIS ABLE
ig s
Ð¾Ð ±
Ġsch olars
P IN
^{ *}
S ibling
Vill ages
W ay
Ġ" #{
g pu
. :
ped ia
Ġpreced ing
Ġappro val
k ed
or ne
ĠStud y
H ierarchy
iter ation
CON TEXT
C WE
ĠConst ants
J uly
S CHE
ĠL ag
ĠHung ary
ì Ŀ
Ġpar ity
LA ST
ĠP uerto
ort on
18 60
åħ ¥
c rit
le ad
~ &
S ING
( $\
se to
Ext ent
12345 67
Ġa de
ĠK elly
Ġad mit
F re
re z
W ild
gtr sim
de ll
Ġfor cing
Ġb at
}} )\
ĠH ad
ĠRep lace
P referred
] ^{\
Definition s
Ġrobust ness
Ġover come
Do es
ĠUn supported
Ġtr ick
Ġ% (
Ġse venth
Ġdemonstr ates
Ġsecret ary
^{ {\
15 7
Ġsol ver
Ġso il
Jan uary
V L
Poly gon
Ġt abs
tr an
pos able
ater al
Ġeig env
O ffer
ĠTh ompson
Ġbra cket
Ġa met
Un install
Index Of
++ ]
B on
in ian
de la
En ergy
IP S
expect s
or us
ĠN N
c ms
Ġh over
us b
ĠRus sell
b ai
Service Client
app lications
Ġdiv isions
| }{\
ter ritory
Ġpop up
Ġfile d
ĠAc cept
Ġar med
mar shall
j ump
Ġview port
Ġin ert
ps is
ent ropy
Ġca usal
Part icle
à¤ °
ç ¤
UR POSE
H W
big gr
M ARK
Ġf est
Ġac quisition
å ¹
ins ide
Ġcalcul ating
') ),
Ġobtain s
stream s
Ġins ight
bibli ograph
ĠF isher
Ġobserv ing
Ðº Ð¸
ĠB ush
Ã Ł
Ġresign ed
ĠS ud
Rel ationship
Ġar ising
track er
CCCC FF
Ġag es
. ">
Ġmod ular
Vertex Attrib
Object Type
verse ly
Ġrow span
Job s
iv an
Ġre venue
ĠRo le
o ses
ph ys
Ġport rait
IST S
QU ERY
ĠR GB
part icles
nos is
ĠE ss
st ars
mod ern
VER TEX
PE G
prov iders
pe z
ĠTh ailand
Ġte en
Ġdef ensive
ov ing
}_ +
ĠID s
ãĢ ģ
Ġunivers ities
art icles
Rep lication
. %
as pect
Ġex iting
ST Y
Ġsus pended
: {
bibliograph ystyle
> ")
Default Value
d ynamics
ĠD ra
Ġsk ew
Q Name
Ġelect rical
ck o
cy clo
Ġd ots
ĠJ ac
ĠC K
P ick
Ġleg islation
os c
Ġsingular ities
null ptr
Ġfix es
m alloc
ĠT E
Ġ\, .
ins pect
T ur
ak ers
Ġmoment a
ĠMalays ia
Ġpass engers
Ġge o
âĢĿ ,
H ASH
ĠAt lanta
Ġun icode
dist ributed
Ph ot
Ġg ates
$ ^{\
in ria
il o
Ġd ialect
spon sor
È Ļ
Ġcont our
LE T
Ġten ant
Enumer ator
ĠD WORD
ĠEx ternal
l ighter
cell s
Start Time
ĠF unc
period ic
Ġorgan isation
Ġmanufact uring
Sec ure
ĠWel sh
ĠR and
ine a
Ġinter cept
ĠSh adow
s ink
Ġquant ization
ĠC I
ĠCal endar
: !
G LOBAL
}} -
}{ !
Ġcontinu ing
th a
re cent
Byte Buffer
is Set
Mark up
Ġse aled
exec utor
col one
BO X
op eng
(' _
Ġmot iv
us ive
mode s
ak u
DI SP
æ³ ķ
Ġvict ims
n umbers
ĠC atal
Sol ution
H over
: ]
ĠP NG
ref s
ĠA ctor
Ġad mitted
connection s
assign ment
Ġref uge
Ġrep orter
Ġcons ensus
ĠMP s
ĠH ind
g host
S pect
Ġcurrent s
]{ ./
Ġsur rounded
Ġ Ñĥ
Ġethn ic
8 75
Ġr t
N ever
Ġpriv ile
ĠAl liance
sing ular
CRE X
W ell
me th
Ġreal m
j amin
ĠK er
comp uter
Ġreason ing
symp ad
ĠD ynamic
r q
ĠMar ie
ĠBu ilt
Ġfoc using
Ġlogarith mic
cos ity
16 7
ĠE U
Ġecon om
Ġcircum stances
C ycle
ur ers
18 93
Ġg rown
Par allel
Call s
ugh ters
Ġdeb ate
ĠBru ce
Ġextens ively
ke ley
00 6
Vis it
I EEE
Ġvari ational
ul u
H A
ĠAPI s
Ġapproxim ations
ĠEcon omic
ĠHung arian
M id
U IT
RE SP
Se ptember
Ġconsist ently
Ġp x
Ġres idence
Th m
ĠSQL Exception
im ity
Descript ors
ĠRE G
ĠDe an
un ty
Ġmot ivated
ĠImmutable List
ot he
ĠF ive
Ill uminate
ĠE mail
Ġec centric
ĠM OD
vious ly
Ġsepar ator
Ġbr ick
ĠU int
Ġintrodu ces
contin uous
Pri or
co unters
Ġc trl
Ġar rows
p index
s al
Ġdis crepan
Ġcoinc ides
Ġp ushed
ĠN am
Ġsynt hesis
Ġ( __
? )
I OS
table View
INST ALL
Ġst rain
× §
Ġp i
Ġs av
In side
big oplus
Ġapparent ly
> ".
J e
ĠD y
Ġl ap
#### #
Ġarbit r
++++ ++++
m ol
var pi
ab olic
Ġimplement ing
mat ched
FORE ACH
Ġ* (
ĠCon figure
ĠMov ie
K K
pro jection
ob serv
(" ");
Ġcorn ers
ĠM ail
ĠE S
ĠAg ric
ĠCommun ist
ĠCh allenge
libr aries
, %
)$ $
Add resses
insert ion
Des pite
Ġ{ &
ĠCamp bell
ĠP in
diag ram
To Array
Comp osition
Ġde coding
roup ed
18 92
W all
skip Nav
files ystem
ĠSpec ifies
Ġmov ies
ut ely
Ġphys ically
DebuggerNonUser CodeAttribute
ĠS TD
ĠPe ace
Comp act
Ġartifact s
V V
Ġp lug
und ers
Ġpri ze
BUILD DIR
ĠN ep
target s
Ġdivis or
ĠR ET
Ġ ../../
emp has
Tr ansp
ĠCurrent ly
Ġs f
Ġpair ing
? ,
Ġt ension
' }(
18 85
ĠProb lem
Ġa ster
ĠE li
ĠI L
b ird
ĠW eyl
Ġwe ar
ĠCou lomb
ĠAn na
ĠP aper
Ġ"/ "
collection s
h uman
ad vert
ĠK ir
Ġmk dir
exp licit
åı ¯
in corporated
ear n
ĠFIX ME
ĠCh apter
tra its
Det ection
Ġred shifts
ĠPit tsburgh
Ġp ed
ĠS creen
US B
macro def
DI O
Gener ation
Comp uter
Bound ary
ĠL imited
md c
Ġoccasion ally
pro files
ĠR ub
Ġv a
PRO CESS
AN Y
ä ¾
can not
Ð» Ð¸
ĠP un
ĠR ugby
Ġmap per
Pub lish
18 89
¶ </
14 1
ĠIllegal StateException
Ġext rem
asci i
ĠSh ah
ĠMet ro
Ġf ranchise
ĠT CP
Ġve get
D N
Mich ael
Un supported
Ġath let
15 9
Ġvis bl
Ġansw ers
Qu ad
amp ton
String Utils
ĠChrist opher
ĠExt ract
A mer
OB J
V K
s ynchron
Ï Į
Ġt um
ĠN ar
Ġstre ets
Ġdam aged
ĠCap ital
WE B
p aint
Med al
;" |
err no
ĠBo ys
ĠMc K
p md
Bind ings
Ġm il
us c
Ġsymp lectic
TH E
] \\
ĠSw ift
j it
Ġbuild s
vis ory
Ġpra ised
co sh
Ġanom aly
}, \\
ĠM UST
gle w
F K
IN TEGER
scal ing
has Class
n atural
/ ?
Ġfor th
prob ability
struct ures
t ier
Ġcontinu ation
COL UMN
ĠF ake
Ġthink ing
Rail way
ĠM ars
Ġent ers
ĠPar am
(" _
Oct ober
ĠQue stion
is abs
æĸ ¹
exec utions
me as
Ġdig est
) _\
under brace
Ġquant itative
ra ises
ll vm
ĠD ance
oc c
Ġeven ing
å ī
Ï ī
su it
see k
Ġgen etic
Ġadjust ed
co hol
F OS
r ising
ug oslav
iv ar
bit map
Ġdynam ically
Cred it
ish ops
h on
18 7
bus iness
s P
Ġst mt
18 00
R ussian
Ġforest s
Ġd ans
Ġde gener
ĠF S
Ġsing ing
Ġmatter s
f und
Ġn m
ĠM ountains
Ġpro mp
Ġre nt
Ġqu oted
Ġsus cept
Ġoff ensive
il og
ĠG all
Ġag rees
M NRAS
o fficial
b ay
ĠT LS
ĠIn di
18 88
Is Valid
ew ise
C ategories
Ġ ist
Ġmod erate
Te X
W F
ĠP E
w right
mark et
clo sing
omin ations
e V
ÑĨ Ð¸
Ġg em
activ em
Ġarrang ement
ĠS ac
D onald
pro cessed
Ġreconstruct ed
ic ast
Cent ral
t oday
dep loyment
I J
g old
Ġwit ness
g ender
Ð°Ð½ Ð¸
ak ov
Ġout per
Ġvalid ator
able View
45 6
ĠUk rainian
ĠS A
Ġ" @
ä½ ¿
Ġaggreg ation
- $\
class ical
ass ociated
Doc uments
ĠAlf red
Set ter
As sets
ht m
De vices
B ootstrap
ab ort
Time line
irm ingham
Le af
Ġco ord
ĠSe lection
Ġprom ising
M ime
Ġg re
an ne
Ġimpro ves
}. $
att ices
= ${
Ġad vice
ĠWith in
hen g
ĠP atri
}} ;
contains Key
ess ions
Ġs quadron
fin ity
">Â ¶</
ĠLIMIT ED
" \
p ager
Å Ľ
Ġtri angles
sect s
Ð¾ ÑĤ
ĠBay esian
Sh ard
ĠAn imation
Lock ed
colone qq
2 12
Ġgra ded
ĠLog in
ĠTai wan
Ġre dis
R IDE
Ġm ilit
b rowse
Ġdescri ptions
] ],
40 3
Ġsee king
ĠAd vanced
Ġadvert ising
). $$
ĠCh amber
olog ist
W ire
Ġag encies
Rober t
". /
Ġsequ el
Ġult ra
Ġh ill
* }\
J MS
ĠC leveland
g al
Ġse l
ob a
Ġbit map
Con cept
Full Name
Ġneighbor ing
Ġnucle us
Ã ī
in ated
ass ador
IS H
por ters
Fl ash
Ġper pendicular
ĠMet ropolitan
) },\
open ed
Ġs aving
Ġtrans lations
match ing
List en
Ġdif fe
Exp licit
and as
Ġk it
ĠMont real
:: __
ble ms
ĠArch ive
Ġf abric
ga uge
ä¸ ĭ
o ft
Ġpre liminary
ĠCommon s
N AM
Ġattemp ting
T abs
Ġc ash
e u
Ġre load
co graphy
00 8
ĠMarg aret
ĠN umer
Ð¾Ð ³
sin h
Ġas ynchronous
parent s
Ġcoinc ide
Ġsy mpt
/ </
S am
ĠSe attle
ĠAL L
il inx
de e
ĠH ero
P NG
ast ery
ãĤ ¯
Ġinstrument al
CH ANT
ĠR ank
Ġtable Name
AR M
Ġcoup les
ins ula
Ġse g
bra cket
Ġ( @
ĠO ffset
ich let
Ġnon trivial
rb an
Feed back
h ire
Pl ain
Ġsurv ived
P ORTED
ĠS NR
18 94
RO WS
Ġa xi
ĠVAR CHAR
ER ENCE
et ra
ĠAuthor ity
Inter pol
ĠY e
end ment
Ġstd out
IRT UAL
ĠJ ason
er als
ep och
ĠRoman ia
Ġbranch ing
Ġbehavi ors
f u
Ġ@ {
Ġob ey
ĠRes erved
A Y
in ja
Con ver
Ġsign atures
uzz y
/ ',
en z
ĠP URPOSE
Th ird
Ref s
ĠDown load
de ad
Ġch amber
hen e
Play ers
memItem Left
ĠG TEST
ĠRob inson
ĠDe puty
ĠR EQ
Ġcontribut ing
30 2
ĠMon o
ĠE mer
Ġhe lic
Http Response
min imal
Ġvort ex
B ulk
ĠC rown
ĠY es
w ml
Ġfavor ite
sh rink
ĠRo om
Ġconstruct ing
ĠGir ls
Ret rie
Ġg ateway
ĠR uby
Ġaver aging
ĠMond ay
B ob
F requency
ĠMc G
de sh
ĠL ap
isl ature
M vc
æİ ¥
Ġbr ings
Place holder
In strument
Ġ" ]
co ord
Extract or
Ġf acing
ĠS ans
Ġy es
imp licit
b is
ĠA CE
cloud flare
ĠAUT H
memItem Right
ĠU rl
Ġcharacter ization
n th
Ġbio logical
ĠS imp
Ġstructure d
Ġsaf ely
ro v
PAR ATOR
B UT
ĠR F
ĠK night
Ġevol ved
Ġarchitect ures
Ġt c
Ġabund ances
ĠStew art
et ics
ĠM is
d if
ch apter
} ">
G Hz
ath on
po ssible
Ġas ymmetry
term inal
M ont
ace ae
control led
C U
I CT
IT NESS
Ġ(* .
G PU
port let
Ġcomb inator
ĠRog er
it ness
De ad
Ġann iversary
Ung rouped
Ġplan es
send coins
" })
ĠJoh ann
m or
Ġwind s
1 200
Ġform atter
align ment
inter pol
Ph p
abil istic
ĠFunction s
Ġenhance ment
m irror
IP v
Ġresid ential
Config s
US H
D uplicate
Ġwh itespace
equ ivalent
Ġcheck point
Ġneutr inos
}. $$
EX PECT
Start up
f are
ED IT
"] ["
18 91
T own
proport ion
ĠWIT H
Ġmultip lic
aud i
ĠFoot notes
ĠJ OIN
Ġspe aker
15 8
R V
po ss
ĠCom ics
ĠM ouse
ĠP riv
Ġequival ently
S IL
Ġt ort
enc ia
dis miss
over s
Out line
Ġo mit
Key Value
Bal ancer
w r
}$ :
Des ktop
ĠMor ris
Ġgen re
ĠW R
15 6
Act ual
algorithm ic
Ġblock ed
full comment
Ġe at
Refer ent
Ġst amp
Ġconst ituency
Ġstop ping
hom ogeneous
64 0
Ġ ĉĉ
ug gle
Ġst ood
get Node
cord ova
Sp acing
ir ates
Ġs park
Ġun usual
Sco ped
L G
Ġo d
Ġ# ##
A ware
S ong
y ield
Re porter
Ġpre decess
null able
| {\
header link
Le ave
ordin ator
Ġabs ent
ĠBalt imore
H en
id ity
A x
@ @
Ġh ip
inn ers
Ġal ive
Ġra cial
Ġd p
Ġplan ar
G al
ĠĠĠĠĠĠĠĠĠĠĠĠĠĠĠĠĠĠĠĠĠĠĠĠĠĠĠĠĠĠĠĠ ĠĠĠĠĠĠĠĠĠĠĠĠĠĠĠĠĠĠ
Ġro unded
Ġlat ency
ĠPri or
Ġb b
el m
Ġman aging
Tr ust
Ġside Weight
Ġrail road
P ressed
ĠE asy
ĠOper ations
iph eral
Ġocc urrence
Ġver b
ĠHamp shire
OnSearch Select
> ?
Ġ} (
imp ro
Draw er
ĠW a
Ġcode c
Ġsens ors
ĠB S
Type Id
Ġland ing
Ġh olid
Ġturbul ence
------------ ---
Ġvari ed
D ummy
Ġgener a
AB C
IG H
check er
3 30
eg u
Ġrepresent atives
ĠS ent
Ġb orders
Gu ide
Ġ[ _
ĠCh ampion
H AL
50 1
Ġm utable
ĠCO MP
Ġif rame
Ġass ault
m ir
ĠSchool s
Ġd ating
ĠDak ota
Ġhapp y
oper and
SV G
COM PI
Ġqu iet
re name
ses sed
] &
Ch arts
Ġsummar ize
ml ink
Ġiniti ated
Ġmar ine
Ġcarri es
up grade
Ġevalu ating
Integ ration
H AS
F ault
ĠTh ose
serial ization
ĠC u
ĠS park
ĠÎ ±
Ġcounter part
ĠF P
fore ign
ĠMag ic
A dapt
w al
Ġflex ible
Ġvari eties
Ã¤ r
b ur
Ġappe al
Ġk ernels
Ġrank s
Ġance stor
ĠOr leans
w rapped
26 3
register ed
ar us
dot ted
| .
Ġfail ures
Que st
ĠP rom
Ġ' &
Ġpaint ed
Ġful fill
b ast
Ġa imed
ĠS ources
ĠS ocket
Ġmy th
ut a
/ ,
ay er
18 65
jav ac
}) ^{\
str cmp
)} =\
un checked
ĠVis it
Ġb ishop
] ])
ul sion
Ġlocal s
RA W
Ġco oper
MAG ES
Ðµ Ð¼
Ġex clusively
at um
s ites
at z
ĠÐ½ Ð°
Ġhomot opy
ĠPr incess
( _.
M u
O G
alloc ator
cont rollers
Ġcritic ism
id le
With in
Ġtransport ation
ĠCar ter
Ġpart ly
Ġactiv ated
w ig
): =
ĠVi enna
on o
up al
Diag nostic
Message Box
en berg
es lint
R oll
Ġv irt
ĠL iverpool
prov ide
rott le
ĠF ab
Ġwh ilst
ĠV I
Co lour
Ġcla zz
ac ian
ID S
Ġt all
ĠA F
Ġx s
ĠN A
ĠCh airman
Class ification
Ġexper ts
>: <
ĠNav igation
P ersistence
Ġpremier ed
d ynam
ik es
sp rite
IC ULAR
Symbol s
Ġblock ing
get State
$ ~\
M W
Ġin tr
Ġrep air
IAL IZ
T a
Diag ram
19 1
(" {
Ġext rap
ah oo
Rem ark
J oint
Ġreal ization
Ġin variants
\" {
Ġdatabase s
16 3
ub a
Ġsp ending
ĠURL s
ĠH unt
ĠH tml
ĠPr ice
Ġelev ation
) ],
}} _\
ĠJos Ã©
CHANT ABILITY
Ġprov ing
Ï Ĩ
Ġb s
Ġput ting
Ġinfra red
Middle ware
ĠM ong
ĠF L
c ube
Ġro se
: $
Ġdocument ed
Ġsent ences
Â ½
ĠW ik
gra duate
Ġh r
Ġh align
Ġcommun e
rane an
C rypto
Ġn od
Ġcon versation
PR I
ĠT amil
Ġsurg ery
activem q
Ġproto buf
cri bed
Ġh arm
Ġent re
Ġf unded
lim ate
IB LE
: .
Ġread ily
cdn js
st ors
Ġassert NotNull
ĠJud ge
Key words
Lay ers
ĠH end
greg ation
e volution
17 4
Europe an
EN UM
ke e
Ġuser Id
st ead
VALUE S
g wt
q ed
w char
co uver
3333 33
Ġste ep
CHAN GE
Ġun likely
Second ary
Ġexec uting
Pointer Exception
S ynchron
type NameLink
++ ){
Bl ank
he tic
Ġemploy ee
Ġapproxim ated
Ġcolon ial
17 6
Ġcompar isons
ĠT ax
Ġs oci
ost ream
ĠT uple
CP P
Ġt uning
}= -
A mb
ĠF ormal
def s
Prov iders
Ġvisit ors
Ġne uro
WI SE
ad v
li um
Ġdec rypt
Ġdevi ations
ia h
IC S
28 8
Ġt ensors
Ġde struction
et on
prof iler
sp ro
W il
ST ORE
ĠLeg end
Ġjud ges
Ġ[] *
ĠAl ban
[ ![
j om
ĠI con
'] :
let t
vis ited
re pr
Pol itical
s low
Ġgr ass
Ġtrunc ated
}) ^{-
Ġrecogn ize
Ġintegr ity
n h
mp eg
Ġparticip ation
lis hes
ĠMa ine
i est
not hing
att les
Ġnorth west
Hy per
cond itional
De cember
ok a
em o
18 5
tag on
ĠMov ement
og a
S un
D U
erm ine
ĠNot ification
K G
ĠR ain
Ġtarget ed
Ġj uris
Ġany where
Text Box
acc um
Ġth orough
UR ATION
position s
Analy tics
N umbers
Rest ore
quant ity
mux er
^ *}
Ġg ang
ĠD allas
ST AR
R x
Ġhost name
r ates
ĠR io
Ġpred omin
ĠK ind
andid ates
2 33
Ġadd itive
Ġcom fort
23 5
Ġse ctors
get Field
ĠV enezuel
R DF
ym atrix
other wise
Return Value
Decl ared
Ġcrow d
sw iper
Ġvis iting
Ġexam ined
ĠBe at
ĠNov a
15 4
Ġimp lications
Ġbos ons
Ġpreser ves
l ene
24 5
e vol
). \
Ġ` <
FA CT
ĠY uk
Ġident ifies
EX EC
Ġdifficult ies
app oint
j peg
Ġgra in
ret ty
Ġco arse
ãĤ ¤
un safe
ĠO wn
)$ }
AT FORM
ĠWh y
Ð» Ñı
Ġsubstant ially
v iz
+ =
ĠFig s
Ġb acter
cli ents
ç¤ º
Ġc rown
ĠGener ator
Ġsole ly
in ery
K ER
f name
ĠS PI
Ġpat ches
exp onent
nu mp
Ġcompos ers
ĠH om
Ġre use
ĠA the
SH ORT
Ġappoint ment
{ |\
Ġ" ).
Ġlong itudinal
f ocused
Ġregular ity
å ±
Ġpro sec
Ġlo ose
ĠGe o
ant ine
ow ed
ac les
cycl er
ĠP assword
ĠSt ra
Ġho spit
co e
De velopment
Ġh i
ap ro
Ġso ph
bas is
× ¢
Ġhelp ers
ĠInt el
ĠR ud
zh ou
ĠE M
Ġ[ $
Ġsil ent
Cap abilities
è® ¾
ĠMar shal
sp atial
Ġoccur ring
s ensitive
ĠS ync
ĠAut hentication
ra cle
S en
urs day
ĠCom Visible
^^^^ ^^^^
18 87
`` .
Ġren ov
v d
produ cer
AC L
Ġthous and
it ime
ĠB atch
Date Format
ĠA rena
ĠStan ley
L ie
ens ing
ĠElement ary
NS Mutable
field Name
Block ing
Ġneighbour hood
f lip
ĠU l
D ock
A sc
ob served
Stream s
d rome
Ð¾ Ð½
f iction
im en
ç §
im i
che v
Mon o
Ġpeak ed
ĠW oman
18 50
M g
class List
//////// ////
ĠJim my
Ġint ra
Tra it
amer as
L ANG
18 61
ĠGu illaume
Ġmolec ule
Ġpair wise
Ġout standing
Imp licit
ĠS ax
ĠE SP
Ġradi ative
ĠA qu
ĠE lectron
è ½
K ing
Log ic
mid t
x d
b mp
Ġestablish ing
Ġf illing
N ear
Ġw ine
Build ing
k al
und a
anim ated
Ġre written
P en
ĠL am
Se ek
ne ighbor
Access Token
Ġneg lect
ĠF UN
ĠNew Page
Ġintegr ating
ST AMP
Ġsp y
J ew
Ġcour ts
ĠW alk
Ġbal anced
Ġves sels
G ap
ĠRe vision
Ġ ])
Spec ification
Ġconj unction
gol ang
ĠN ASA
Ġmer ging
Ġreflect s
Ġb one
Ġad joint
Ġp ictures
ri x
Express ions
u in
Ġexist ed
arc sec
b ishop
w ers
)) =
Ġ) \
hat tan
ab br
ph on
celer ation
text Color
Ġimp ress
({ '
Dis cussion
wik ipedia
main tainer
ĠHon or
Ġhabit at
im an
Ġsp iral
H am
Ġminim izing
Ġperturb ative
Ġc ube
Ġin hib
Ġin complete
ĠG reater
23 4
\, $
Iter able
p lots
imit ives
In c
at ra
Ġdis connect
in ode
he ld
ĠTe V
col One
ĠV ik
edit able
Hand ling
( **
"> $
Ġmagn itudes
Ġmer chant
Ġfactor ization
W arn
ĠW i
GLA PI
ToolStrip MenuItem
Ġn b
Ġath letes
Ġbeh alf
v oice
the ore
Re peated
Up grade
Dem ographics
T oday
n ucle
Ġt ube
bread crumb
Ġmeas urable
ĠFrank lin
Ġe co
hy dro
M ATCH
Ap pro
e eq
ĠColon el
Ġfor get
jav adoc
h azelcast
si rable
Ġdrug s
Ġw ed
x p
ĠP i
Ġno except
N s
ed a
Ġe V
qu ate
exp ansion
Ġenter tainment
fe at
lo ut
Ġno isy
ST D
In variant
ĠAr n
Ġdef ic
Ġven ues
i ator
ĠOtt oman
}\ )
OPTION S
stud y
Cla im
80 211
Ġhe aded
Ġspecial ized
comp leted
reg ions
>. <
ĠBang ladesh
Ġves sel
ç Ĳ
Ġ{ (
ce q
ĠP ic
sh own
doc utils
S py
ĠG ulf
Sp anish
d iction
Ġr b
Version UID
å¯ ¹
UN IT
ĠCG Rect
Ø ²
W ave
Ġg arden
17 2
UI Color
Ġweek end
Ġconsider ably
man age
aj a
Ġbin aries
ĠR ing
P ic
Ġ$\ |\
Ġperson ality
ĠForm ula
Ġdisap pe
to o
- .
nes day
Exist ing
ne eds
Ġcontr ary
os hi
Ġhighlight ed
Ġs lots
Ġpro jections
ĠMER CHANTABILITY
N d
ĠEx pected
at tack
ĠL HC
Ġmultip licity
ome s
che str
map reduce
gl Get
}} ^\
Ġr ivers
Ġarbitr arily
Ġs q
ĠCon servative
v id
Aggreg ation
w g
y ang
Ġd ub
Im mediate
C LE
ĠG ot
Ġt ear
inst alled
Ġsound s
stri pe
R en
ĠText ure
lu ent
F lex
Ġb ag
Ġside bar
ĠJon athan
Ġdut ies
x ymatrix
Ġo cean
min a
Th ing
net s
Ġmer ely
am d
ĠP il
Ge orge
Re search
Ġcor rupt
ĠBro thers
hol m
¦ Ĥ
ĠImp ro
Ġprison ers
P AT
v ity
Qual ified
ĠW ing
duc ational
ch r
18 8
ĠId entity
eh icle
Ð Ĵ
Ġnav al
SECON DS
and i
arg c
user content
ect ive
vis ions
ĠSyntax Kind
Ġsum s
Ġconf licts
Ġab sol
Ġconnect s
Unmar shaller
ib lings
Ġinter fer
ĠAng el
d ictionary
18 86
Ġmode lling
ĠC UR
ĠCh ron
Ġdisplay Name
Ġcharacter ize
Ġantic ip
ĠDis able
ĠMur ray
ĠJaco b
d ifference
Ġnot ifications
Ġcol le
Ġmat hematics
ĠSen ator
C ut
D NS
Check Box
Gu ard
18 6
Ġcol lapsed
ĠGra ham
ĠT ob
Ex ports
apt ist
k v
Ġab bre
co cos
Ġher itage
p ersist
ĠSt orm
M il
Ġlabor atory
\ +
ĠF el
ĠO cc
an try
Ġconvolution al
Ġincomp atibility
Ġ utf
ĠN i
Ġsh rink
G I
à¥ ĩ
O LEAN
ĠH old
ĠQ ual
Ġsuper vised
ĠBar ry
Ġn pm
ĠCon vention
Ġmain taining
Ð° ÑĢ
Z END
ĉ ĠĠĠĠĠĠĠĠĠ
Prof iler
lect ual
Ġnew Value
IST ER
Ġcritic ized
rel ationship
Ġtren ds
ĠDeta il
}} %
Ġaccept able
PHP Excel
Ġafter wards
). __
Ġinter active
Ġshould n
ĠMax imum
V IRTUAL
if s
Ġde e
Web Kit
H M
Ġw rest
j ack
is Function
flat ten
al ic
ĠSar ah
web site
o val
Ġw et
Named Cell
d ma
Ġr ising
t id
ĠF E
Ġqu ota
indic ator
P UBLIC
Con struction
G lyph
G uest
Ġw ww
sw agger
ĥ ½
16 4
rum bs
ĠSt at
Ġh ub
ĠX XX
ne z
Sh op
Ġattract ed
test ng
ĠS ect
ĠCent ury
Ġinteg rate
mis c
// -->
Ġg rap
H ol
In spector
im on
zer bai
ĠS FR
}$ ~
ps z
writ ers
ĠMic hel
66 6
Ġtoler ance
full screen
bour g
Ġtown ship
Ġtool bar
Or Builder
. ),
S izes
Ġimp rison
Ġrec ru
Error Message
map red
Nov ember
Ġstar red
ĠRe ce
20 9
Ġweak er
Ġasymptot ically
co d
ro gen
bo k
Ġreli ef
ĠK il
Ġexpect ations
res ume
G reater
fra structure
Ġdown stream
Index ed
ĠNe ed
Ġtw isted
ĠHand ler
Ġthermod ynamic
qu it
17 8
ĠProdu ction
-- )
M i
IN CLUDE
subscription Id
ip ment
c rop
ĠN ord
Ġd c
ep he
AC C
Ġsk ill
ĠCar ib
v ation
e enth
O h
log ists
Ġatmo spheric
Contin ue
G overnment
em en
ĠST ATE
ĠPRO VID
up loader
Ġconst expr
Ġm oth
ĠS PE
An n
e igen
ĠB aker
ens en
che l
Occ urs
20 6
s ized
ĠStud ent
Ġillustr ates
ol en
S PI
] }$
us in
Index es
Ġfore ground
Ġdecor ated
Ġb es
Ġdanger ous
Ð ¡
uch i
g w
u ction
all ax
18 2
ĠPh ase
Ġfull Comment
ĠCar los
Album s
C AN
integ ral
g om
Ġimp er
spec s
Con clusions
Ġconsider ations
Ġ' \\
qu arter
ĠL arge
åĽ ŀ
co ords
Gr ant
reng th
Î ¬
^* _{
dr ive
aren cy
ĠMatthe w
| ,
ir l
f loating
ĠDr ive
ĠB ed
cess ion
ot ent
con taining
ĠRunn able
unknown Fields
ENT IAL
hard ware
}\, ,
temp ts
Ġdol or
}' $
Ġp ray
In verse
dir ty
aaaa aaaa
on ian
Ġcelebr ated
Ġcricket ers
Â »
Inter ceptor
al go
Le ague
DO C
Ġg host
}) }{
lo dy
de generate
ĠSt ars
Ġsub stitution
Ġ/ ^
IV ATE
h istor
ĠD etermin
Filter Database
P ager
} ')
). $
Ġdetermin ant
ĠOr thodox
Ġsk etch
Ġreg iment
;-> <
(" ",
fit ting
Ġcoast al
-- \
Element Type
A ck
Ġpo em
ĠGu y
insert Before
J ar
Ġpain ters
al most
port al
., ][]{
pack aging
Ġnumber Of
base line
Ġpre gn
ra ge
Code d
Ġre vol
ac a
PY THON
ä½¿ çĶ¨
Ġt ex
Ġ\| _{
ĠR G
we ets
Ġprov incial
mag n
Ġrenormal ization
ĠM ak
V ED
int rodu
S Q
Ġh ls
ta ken
init With
Ġjust ify
Ġal phabet
ĠK os
Ġdepart ure
comp at
ĠPref ecture
Ġ========= ==
ĠCalcul ate
Ġcred ited
T oo
ĠN UM
Ġconn ector
google ads
scal ed
f ive
Ġsub groups
ĠG rad
AL TER
sequ ential
ĠF etch
Ġdef inite
net ty
Sing leton
Ġsurv ival
R B
ĠV ic
aw k
currentTime Millis
ĠG UI
col lapsed
ĠB un
Ġcomplet eness
ĠA PP
b enchmark
ĠC arn
Ġp overty
Ø§ ÛĮ
len ium
Ġleg s
ĠG ary
ĠCl one
AV A
ĠPART ICULAR
Ġprint ing
ĠMer ge
AL LOC
_{ |
Dep loy
CharacterOffset End
Ġcy lind
CharacterOffset Begin
if ting
Ġas ks
lot te
Newton soft
Th omas
Ġb ird
ĠW IN
ĠIMP LIED
q p
Ġde coded
bu ff
Ġcros ses
(' %
Ġchild hood
W heel
get Resource
file path
Ġsouth west
lo d
Ã¼ n
ãĢĤ </
Ġas king
dd y
Command Line
ĠLOG GER
urrican e
sur vey
H ooks
Ġin jected
ĠComp are
ĠP lat
DO UBLE
Register ed
Ġco gn
Ġelimin ate
[] []
os cal
Al arm
ĠBrook lyn
um i
ĠE p
m orph
t el
default Value
Ġins urance
$/ .
Ġremark able
f lix
Ġp up
Ġrel ating
Ġemploy ment
Ġfem in
ĠTH REE
Pr inter
Ġanisot ropy
18 64
PRE V
lic ate
Ġposs ibilities
Ġf lip
m ates
Ġtempor arily
ĠCON TRACT
Qual ifier
ĠM eg
Ġp references
ab ar
U id
m art
T B
w c
Ġpo les
Sol r
ĠFI FA
ĠW olf
ĠMunicip ality
FILE S
Ġw ake
lection s
Rout es
= $(
ĠS IGN
ĠTra ce
ley ball
Ġvis cosity
Http Client
Ġqual itative
Ġsurv ive
de serialize
lasg ow
L ER
est ab
........ ........
Table Model
ĠE lectric
Ġexec utable
b roadcast
}) +
Ġthe ater
the ir
ĠN ature
Instance Id
bas ename
f k
Con vention
iter ranean
symbol s
ĠVert ex
Ġw er
Work ing
ĠFi refox
ues day
OP TS
ĠPro xy
bind ings
B ooks
log out
PH ONY
Ġdist inction
Ġ× ľ
ĠSpl it
: ',
Ġm appings
ion es
ot ions
Aut ow
Ġcaref ully
Ġwalk ing
in str
Ġcook ies
ĠB ool
Ġoff line
Ġobvious ly
N eeded
DB LP
Ġle ak
LAB EL
ĠDo ctrine
bu ck
tex cmd
) )$,
ĠR OW
ij ing
rect angle
ĠJ ar
Ġanom alous
Ph ysics
sign ific
semb ler
Ġhor ror
Ġmon o
Ġmeaning ful
L y
ass umption
qual ified
ot ton
18 84
Ġprote ins
ST OP
re leased
Jo urnal
åŃ ĺ
develop ers
Ġconf ront
0 22
op enc
="@ {
EXCE PTION
Ġmass less
Ð°Ð ²
r if
V k
× ĳ
aggreg ate
20 7
list item
igh ters
ok emon
BUT TON
h ive
ĠAn im
ĠBuffer ed
Ġexperiment ally
Ġa ws
ĠUn iversal
Ter ms
mem name
Ġl as
ĠB irmingham
Con current
Ġkil ome
Ġtra cing
M EN
Ġrep lica
Pro tected
is an
16 2
Ġpro spect
oo f
urren ces
ĠT EXT
clu sters
ĠC lick
ĠC MB
the o
ĠRe ader
Ġinflu ential
Ġvict im
Ġse eds
ĠNot Implemented
ĠO blast
SPE C
Ġemer ged
ĠCorre spon
Ġmem orial
Ġadvant ages
on ing
Ġde fer
Ġflow ers
ĠMad rid
Ġg aps
Ġvir us
ĠNorm an
Ġisol ate
ĠTo urnament
Char acters
Ġmiss ions
py test
Ġinvol vement
act ing
child node
ts a
ĠI an
Ġtrack er
A wait
c ue
get Last
H uman
Ġm b
É Ļ
op les
Ġcorpor ate
ch ip
Ġdro ps
ĠA bra
S leep
p w
R W
FI X
ãģ Ħ
get Parameter
Ġrad ical
Ġimplicit ly
key down
not ice
Ġpreser ving
Ġmut ation
Ġt ub
Ġtr iggers
Play ing
Ġen umerate
ĠA y
Ġi prot
ite mp
Ġch ip
ĠSD SS
set Enabled
S a
ros copy
19 4
box es
div id
ic z
666666 67
strict Equal
Condition s
Q A
Ġde puty
ve led
lic ial
Check point
Ġutil ize
ur ated
ĠD b
ä» ¥
Ġret val
pro be
F ly
it ure
ĠB asketball
com bo
__ );
Ġw s
60 6
Form ats
ak en
Property Name
Sub scriber
ĠF ly
ĠSh a
ON SE
Ġwide spread
On ClickListener
. ][]{
Ġack nowledge
Reg Exp
ĠPlan ck
Ġcon served
ĠI van
åŃ Ĺ
17 7
ĠD river
Ġdise ases
Ġcollect or
m und
ĠH unter
Ġde eper
L ittle
An not
Framework Bundle
{ #
im uth
Ġrare ly
F riend
out e
è ¾
av i
AL IGN
Log s
pack ed
Ġcount ies
b right
ĠUP nP
s af
new Builder
V s
iv y
Ġdebut ed
ĠA CTION
18 81
tic les
. ]
al gebras
Ġrefer ring
çĲ Ĩ
& )
K i
Ã± a
ro oms
Ġmethod ology
TYPE S
ĠAss istant
Ġt on
unc er
table Name
ufact urer
Ġjournal ists
Co ver
c ro
Ġn it
ĠC amera
co uld
ĠR M
m cite
ins ky
Fe bruary
H istogram
H op
ĠL ipschitz
equ ilibrium
4 32
Ġcall able
Proc Address
Ġreput ation
ĠKar l
IN F
ĠAthlet ic
CONTRO L
ĠB order
elf are
">Â «
40 5
exclude s
Mouse Event
B ank
re trie
us ually
DEFIN ED
Ã Ĺ
Ġconfirm ations
PASS WORD
Ġl ingu
mar ine
Access ibility
Ġinfe ction
W C
Ġc rop
8 90
Rec v
ĠM aj
ĠN BA
ĠWay ne
ad der
ĠEv ans
Ġco herence
36 5
pattern s
ĠT u
get Content
Ġspect roscopic
rema ining
j j
Qual ity
Aud it
ub les
D MA
Ġout going
ust er
] '
Ġauthor ized
ĠConf eder
D s
Ġel abor
Tra cing
Ġte lescope
< >
t ies
Ġ\ %
ĠLo op
C nt
mathb in
ĠChar lie
h ind
Ġ' +
ĠF T
ult an
Ch an
top Nav
Ġcon form
ĠF alls
ĠDel ta
Ġd d
CHAN NEL
on load
Tra ining
'' $
Ġqual ifying
ĠL ex
Ag ain
Ġequal To
Ġspl its
ar an
co ordinates
Pub lisher
Ġmed ieval
dig it
ĠCirc uit
ĠZ ero
gress ive
Ġco variant
Res erved
ĠMult iple
18 75
ĠS UB
Dig ital
Ġaccompany ing
Ġstr uck
Î ¸
SE PARATOR
Ġcr yst
ick en
Ġcontact s
Drop down
ĠL ength
col sep
make box
Ġ" &
Ġ\\ \
Ġevolution ary
del ivery
Ġscre ens
Ġevery where
Ġd uplic
ĠPro to
Ġm ime
Col s
en os
Ġsub class
r st
Ġstay ed
ĠP aint
Me V
L aw
ĠP ictures
y outube
PRE C
d raft
k el
Ġport folio
ĠTra il
ĠO VER
)) ]
Ġfinal s
ro se
Ġn ations
Ġf oss
iv ode
ĠB lues
ĠClass ic
Ġtermin ated
! }
Ġp ause
Rot ate
P t
Ġ} ];
i ors
s ight
MEM ORY
is p
Ġattract ive
16 1
comp osition
Ġref id
Ġf p
ĠB og
card s
Ġ* );
is ch
han ded
per f
scale box
Min or
c rumbs
ĠSoc cer
Ġqu it
bottom Nav
Ġguitar ist
chrom ium
Res ume
ĠYork shire
ĠUs ers
W alk
uk a
Ġmot ions
mph ony
ĠPier re
f air
ĠUn known
Ã§ a
Real m
Autow ired
ĠG un
fin der
assign ed
T im
b v
mem or
STY LE
Ġchar s
Generated Code
sat z
NS Dictionary
function al
Ġrepeated ly
Ġrest oration
ĠT ower
ĠEl li
Ġinject ive
ier ra
Ġfail ing
ĠInst alled
st ad
C atch
ĠSerial izable
Ġdoub les
Ġcros sed
Ġl ig
Ġg c
D ROP
)} }\
Ġ' );
p ension
}, $
Î Ń
ag ain
ain ter
18 82
ber ger
lim in
Ġshort cut
ĠArg uments
ĠBy tes
Ġnew er
Ġapp ended
Ġappend ix
Ġnewsp apers
Ġro l
30 6
ĠV a
find ViewById
Ġ ë
iel der
ĠB undle
leg ation
Samp ler
il ty
sup set
ĠLO CK
Ġlink ing
ig rated
ä¿ ¡
en ne
ke V
Ġnav igate
Ġconnect ivity
get File
reg ression
Ġfa int
Ġbefore Each
RE L
; "><
ä¸ Ĭ
Ġp ow
ĠAss ign
ĠM ind
dic ation
\ @
h all
h ours
x iv
ick ing
ĠP ipeline
mem Separator
Document ation
UB E
Bit coin
/ &
Ġb la
ĠN P
small er
d B
Pre pare
l k
z eg
lat ex
; .
Ġassoci ations
Ġund o
Ġturbul ent
Ad vanced
Bl end
at ially
5 50
de scribed
control cap
Ġrom antic
Ġt p
Ġbr ig
ĠE u
@ {\
Ġuncer tain
Ġactiv ist
ĠD ays
Mock ito
Ġdoc utils
N F
ĠC ass
ĠSt atistics
Ġmod ulo
ĠFR AME
pl ate
ri el
ĠBroad way
ex periment
ÏĢ Î¿
Ġglu on
Ġcol leges
Ġaff airs
, +
a ire
ĠM otion
Ġtr uly
25 4
Order ed
Click ed
ĠPro tection
Ġsurv iving
st raction
github usercontent
ĠM M
number Of
ur bs
iss a
Runtime Exception
>< ![
; ",
Level s
nthe size
+ {\
cre ator
Ġad i
play ing
ĠM AC
ĠF ine
ĠSc ene
Ġtime scale
get Bytes
o S
ĠM T
it is
hentic ator
ĠB log
oper ators
Ġenumer able
ĠR ural
ach i
hand led
4 20
18 63
Ġcy linder
ĠT s
Ġfiction al
( /\
ĠS ED
ĠB esides
ĠPol itical
tr ation
Ġcomplet ing
ĠF al
on er
Ġl ying
Ġtrans mitted
17 3
Ġconfig urable
Ġamong st
ĠA str
ĠB ron
ĠG ram
Ġad missible
) ")
Ð°ÑĤ ÑĮ
= */
remo ved
ir us
Ġres ort
Ġdist ant
Or Default
hem atic
Condition al
Par sed
apl acian
M aker
Ġhe aring
Ġscreen ing
Ł ¥
ma iler
py mel
ĠQ R
Ġphot ometry
Ġdecl ined
Ġen abling
ĠAd S
K n
and al
"] :
ut ors
Not ifications
K ar
Ġtyp ed
mine craft
Ġconf usion
dev tools
Ġmeet ings
tr uth
dir s
. -
Ġsp oken
( (\
k ube
pe m
Ġinternal ly
sc ar
EN O
i ated
Cell s
>? [<
Ġform ulated
Data Grid
Ġc us
Re covery
Watch er
AL PH
Ġart istic
nok ia
PLA CE
a head
ĠDef ence
Ġip sum
ĠSyn opsis
ĠF ITNESS
emphas is
f link
ĠB illy
Ġt act
DI V
A cl
ps line
Ġweap on
Ġking dom
ĠMit chell
IFI ER
Ġblock chain
Ġv oters
ãģ §
Ġda emon
Ġneg lected
Spe aker
M G
Edit able
S aint
Se par
DEF INE
Ġpower ed
P eter
Ġ( ).
Ġ unt
ru ss
ĠComp lete
Change Listener
( ::
ĠJ osh
{- }
Ap ps
Ġc able
per ience
ĠRef s
Ġconst rain
win ning
ĠConst raint
Ġthere in
Ġlat itude
Ġfor k
ĠCa uchy
ĠNiger ia
ĠO Auth
d ap
ĠPort land
ĠW as
lf ind
Dist ributed
Ġoscill ation
Ġencour aged
j er
in z
18 62
Local ized
ĠH RESULT
Ġ# [
Person nel
il ers
Ġass ass
Ġmunicipal ities
Par sing
ĠCl ar
Vert ices
May be
) ])
ĠF ailed
from Now
ĠâĢ ¦
Ġimp ose
ĠCr icket
H ours
if le
od s
Ġtri angular
Ġaccording ly
Ġbusiness man
und ert
r ceil
× Ĺ
ĠJohn ny
lo ve
Ġhom ology
P FNGL
Ġgain s
data Type
ĠRe yn
m apped
Ġw ounded
Ġm v
u h
B ay
SO CKET
Ġincorpor ate
s izes
SUP PORTED
ĠA rc
ĠNaz i
Anim ator
Ġin struct
ert on
Ġsp oke
Ġdecre ased
Dr ive
g uest
s uc
)- (
Ġjoint ly
Ġfacilit ate
25 3
Ġvis its
ĠInput Stream
is Null
end um
Account s
initial izer
Ġcolo red
de ss
ĠB ible
ell ites
e ur
ĠT am
ĠL GBT
ve ction
ĠL ithuan
usal em
Ġscatter ed
è¯ ·
top ology
s udo
ĠMar c
g lu
be ing
Se veral
Ġbra ckets
ĠC BS
br aska
B rand
TRAN S
Qu ote
Ġconcent rated
é ¢
T IP
ĠL ists
()); </
Ġgroup ed
Ġexplo sion
ĠD ET
S parse
Arch itecture
Ġfeel ing
ĠSt ill
b eq
ipart ite
n as
Ġo u
Ġreview ed
Ġord inal
ov ich
I ce
Ġdemand s
ra cks
18 76
ĠArch itecture
ro d
" &
b h
ĠD yn
ĠIN DEX
Run nable
ĠPR IMARY
Ġuniqu eness
Ġsynt hes
ASC II
Ġh at
Track s
X Path
u ched
Ġ{ *}
ant t
Ġcol s
ĠCon struction
Ġsupp lies
( ...
M oney
stud ent
Ġinvert ible
ag ar
ĠH at
}{ %
Ġb le
Ġsub graph
ograph ical
Ġexception al
ver batim
Al ive
ĠCl aret
Ġadult s
B luetooth
)$ )
Ġ\ )
RE EN
tz mann
Ġw arr
Property Changed
Ġnom ination
Spec ifier
form ats
ĠPy Object
Decor ator
Ġv c
Ġt orsion
dis connect
Ġir regular
In str
ster dam
Ġdimension less
* -
Ġther apy
= ['
ĠF light
Ġ========= =
Ġf ishing
oth y
Ġd ress
Ġt idal
f ixtures
ph ra
ĠN L
T el
Function al
Ġsupp ression
Ġb link
ĠM ask
30 3
hel m
Ġm P
Ġm ature
ol ia
Ġr and
key Code
Ch apter
Ġtra v
cur y
ĠOpt im
Ġelect oral
pe ak
ĠH O
s ix
ĠSh op
SC I
Ġpres sed
Ġres cal
Ġdata Type
Ġpointer s
ĠF riend
Ġz ones
mark up
ĉ ĠĠĠĠĠĠĠĠĠĠĠĠĠĠĠ
ĠSe ven
r ant
Ġs ake
ĠA stro
Ġcon sequently
Ġmod ulation
Cour se
ĠCon n
DO MAIN
X R
_ "
Ġper ception
Ġpop ulate
cy an
18 83
Ġmin us
Ġprevent s
Ġutil ized
Ġelli pt
S ir
\ ).
Ġf iring
Ġdevelop ments
Ġexcit ations
Ġemphas ize
ath ers
M ale
Ġdefe ating
l w
Ġs lower
Ġcolo urs
tra vis
Wh y
P js
Ġgen es
ĠMean while
L ou
Ġray s
ĠF ight
ĠD id
3 80
Ġelectric ity
D WORD
Ġstat istic
/ ${
R ol
Ġtx t
ur ious
H ive
ĠA bs
ĠProf essional
ĠTro phy
ul atory
ĠA U
Ġb er
ĠFinn ish
Ġm ountains
| <
)$ ;
Ġmark ers
ĠTig ers
' ')
× ł
Text Appearance
ĠG lasgow
ty ped
={ '
SE ARCH
Ġsat uration
c andidate
Leg end
sp rintf
ĠThe ater
top ics
amilton ian
. ).
ĠF leet
M appings
s nap
ivode ship
S af
Ġdip lo
ĠDer by
Ġsp ont
ND ER
ĠJ azz
ĠD raft
ĠOr ange
ĉĉĉĉ Ġ
Ġdifferent ly
L B
NS Array
ł ģ
new Instance
PI C
ĠAss umption
Ġload s
c make
x path
Bl ur
m igration
ĠAt tributes
M ongo
process ors
åĩ º
Ġin version
ĠN icol
T ap
bor ne
Port al
ist ance
From String
ham mad
ĠU C
ĠSer ge
Ġinj uries
ĠFe atures
Ġtw ist
v x
comp ose
sym metry
ĠS now
ĠBe an
Sche duled
Ġd owntown
Ġso ap
Ġdes ire
}, {
Ġvic inity
SA MP
é Ŀ
ĠY ugoslav
ĠRetrie ve
lo ys
append ix
Layout Params
Ġcontract s
f ab
Ġqu art
al ong
Un do
^* ,
p airs
ĠF lat
AX B
ag h
ĠL anka
), \\
Ġda ughters
v ac
Ġra p
ĠM ack
Ġa pert
Ġ ride
er ation
E sc
de cre
con e
>: ][<
ĠAthlet ics
ĠY u
tr ust
}}{ (
Rec ipients
Reduce Action
% {
E s
Count s
relat iv
ĠIndi ans
ĠT ouch
Ġperfect ly
te or
an onymous
Ġexplo it
ĠDel hi
g am
f ancy
}/ {
M is
Ġbl k
18 3
Ġdissip ation
ru id
Ġcred its
We ather
it us
iv ia
ĠB omb
Ġsl ider
Ġg ift
]( /
In fl
l ceil
trans lations
itar ian
Ġfra ctions
Ġm igrations
check ered
CP TR
activ ated
b ill
ĠG Hz
ĠTo gether
http Request
ATION S
Ġcre ator
E u
ĠG em
ĠBen jamin
At t
P oll
18 4
Ġdialog ue
spl ash
Ġc t
Ġinflu ences
network s
18 78
Acade mic
A th
V iol
ĠG alaxy
dis pose
ast ro
ĠColl ins
Class Loader
lish ments
\% ,
Ġorig ins
ĠB row
)) ^
Ġwavelength s
, [
g f
=" "/>
Ro yal
Ġpoly gon
Ġnom inal
ĠF u
ad joint
ap on
scroll Top
ĠĠ ĉ
dist rict
T mp
od ic
ĠO MIT
Ġany way
determin ed
v codec
Ġle pton
ĠHawai i
ĠU SS
Ġsymbol ic
ĠY ii
End points
fil m
tag Name
ĠOver all
C u
Ġmod ifier
C ause
exist ence
pro g
ell s
ĠC le
co lour
ĠR acing
Ġdef ence
' }}
ĠRiemann ian
an z
ill ation
sub scriptions
Trans lator
ĠEqu als
Ġr ub
be it
H alf
Ġc aching
St encil
B ol
` ;
c xx
st orm
us k
accord ion
o les
gr p
ĠCamp aign
N i
ro bo
Ġstr ange
dot net
Ġin clusive
ĠP D
ĠPark er
ĠBE GIN
v ary
Ġc ipher
require ment
Ver bose
ĠB es
ĠG as
name of
Ġdis ag
ĠM R
Ġc umulative
du ction
mis sed
C fg
Ġde co
18 68
ĠOR DER
ĠPerm ission
18 67
ĠW restling
ws dl
dd d
Ġref ere
ĠC ircle
Ġover write
30 8
coup led
sim ulation
Ġbind ings
power ed
Ġ{ });
An onymous
Ġindu ce
P ixels
p ine
Ġid le
Se ed
sco pic
tact ic
j l
Ġ* >(
no op
Ġour selves
R ating
ĠVo ivodeship
ĠWar ren
Ġin formed
Ġsympt oms
ĠCommun ications
'=> '
te in
xy z
spe ech
T icks
ĠMan hattan
ĠVan couver
p ixels
he v
ĠD J
Ġreg imes
Ġel der
j ab
Ġcom ma
R ock
Ġh ierarchical
Ġr uling
ĠTh or
C ancellationToken
on aut
mon s
Ġsub mission
ĠCoun ter
Ġtab index
ĠR C
Ġat ten
Ġw el
30 7
($ (
? (:
ĠI de
ĠSc roll
ĠPer u
Ġpropag ator
pr inter
ĠState ment
ĠSte el
Ġt ape
ĠAnd y
Ġtra it
ie u
definition s
assert Same
order ing
Ġsw itched
V o
Upper Case
ĠThe ore
CODE GEN
ĠÐ½ Ðµ
F G
Ġdamp ing
vent ures
23 1
UST OM
PE D
Al umni
Ġwidth s
ĠJ a
S AT
W elcome
Ġl ac
ri se
ĠSp irit
Ġb ij
Ġcont raction
Ġst ere
.. "><
oc am
Ġpl astic
ĠPack et
ĠB orough
Spec ified
ĠCat hedral
itemp rop
Ä Ĺ
Ġscal a
zh ang
COMP ON
="../../../../ .."><
assert Is
Ġcle ared
e lectric
ad j
$ ]
FUN CPTR
Ġd ated
Ġmag azines
ĠAlex and
Sm ith
Spec ies
ĠGu inea
% =
ĠG URL
}} -\
ĠSo lo
n z
Ġinteg rable
ķ ãĤ
Ġre name
Ġ/ \
ĠRich mond
con verter
IS ING
Camp aign
T ASK
ate ch
Ð½ Ð°
Ġtime line
Ġserial ization
Ġassign ments
Ġconver ter
17 1
umb ent
"> ()</
ĠR ico
Ġcon sp
im ode
Ġund ers
ĠLabor atory
3 40
typeName Label
Ġ" ."
m vc
], [
ĠW u
ST ER
roll ment
23 7
ĠZ hang
ä½ į
do ctrine
SCHE MA
ĠT X
li ber
ĠIn dicates
s lides
** /
Ġp ian
Ġpat ron
accur acy
ĠS olar
ow l
M Y
ĠK now
work ers
Can onical
Sto ck
Ġabsol utely
/ ><
T ol
s chool
Ġion ization
recur sive
ig m
ĠClear ly
Ġcapt ures
Ġgener ations
] _{\
Ġ ----------
Ġreal ize
Url s
Product s
Ġcomplex es
Ġr gb
Seg ments
str ut
Protocol s
ac re
ĠC U
RE LEASE
s lo
ĠE ug
Generated Message
fol k
ĠCarib bean
C assandra
Ä ĵ
dis cussion
P ing
ĠRout er
Ġsee med
Ġcomment ed
Ġc u
de tach
unc ill
ĠDemoc rats
k afka
| }\
se mi
user id
Ġal cohol
Un ityEngine
c ies
v f
bal loon
Ġremark s
ĠDe veloper
ĠMe asure
CM ake
L atest
M agent
} ");
SY NC
Return Type
render ed
olog ies
O Caml
} ";
Ġco operation
IC ES
l ators
consist ency
w ant
Act ivation
t im
Ġb t
ĠG round
ĠCol lect
Ġinsert ion
Combo Box
Ġa fore
STR A
rist ol
="../.. ">
Ġv endor
Ġind igenous
Import s
ĠBelg ian
DIRECT ORY
Ġ================================================================= ========
ĠP ow
Ġrep lication
A O
ĠV as
Call er
break ing
ĠAng ular
Ġnot ations
hav ing
ĠIss ue
Ġex terior
Ġviol in
ans ions
Man ip
Ġthreat ened
Ġh ull
inherit ance
E pisode
it elist
ĠL iving
(' :
G U
FI RST
harmon ic
Ġrel ate
BIN ARY
start ing
ĠScient ific
Ġb ic
CT L
Ġ( +
Ġdiff use
Ġserial VersionUID
Ġp ion
Ġs cheduling
ĠName d
00000000 00000000
urren der
Ø§ Ø±
Ġpo ets
Ġpul led
he e
istr ative
B attle
M ixed
Ġ` .
Ġiter ative
Ġexha ust
Ġ& -
ĠMo zilla
uzz le
ĠÅ ¿
æĪ ·
Ġcontribut ors
Ġ iv
Qu eries
Ġkey words
Ġrec ipients
Ġw ings
Ġor chestra
j on
ĠN ear
Ġaut orest
xx xx
re ve
th ink
Ġportray ed
ĠR FC
Ġel it
Ġsp ots
sol ved
ha o
Ġautom ated
jd k
22 3
dis covery
Ġcontrovers y
A ba
Ġgovern ments
æ Ľ
ĠF itz
ĠName space
Ġrem n
ethe less
Ġbon ds
ĠH ubble
m ul
ĠC ultural
Ġdir ty
Ġreson ant
Ġup stream
M ad
Ġs ax
ĠCh anges
ina e
is olate
")) )
Ġaccord ance
ĠH ug
ĠPer iod
N u
ĠS ay
User Name
T icket
file Path
PI PE
PACK AGE
Ġguid ance
8 000
Ġmon arch
Ġstart Time
F raction
ent ine
ĠS outheast
Ġmon op
schema Location
Ġcont rolling
ĠC hern
Ġback wards
}\, .
Ġ itemprop
22 6
ĠD IS
4 28
ĠHo pe
ME T
ĠLI ABILITY
ĠDA MAGES
Ġaccess or
umb le
Ġemer ging
Per formed
ag les
ĠT IME
Ġfr iction
Ġout break
get Column
ival ence
Ġcontrovers ial
g md
Con d
Ste ps
O gre
Ġg alactic
get Request
Ca ption
Ġde bt
Ġsu icide
Bro ker
; //
Un ary
che f
mod ify
Ġmot ivation
y t
ĠBer keley
Ġstrateg ic
h ort
Ġb a
Ġb alls
Ġresol ver
âĢ ĺ
x z
Ġestim ating
c ot
big array
ĠC B
tr ically
S on
Sub scribe
Ġswim ming
ĠSH ALL
Ġm ismatch
EXT ENSION
N M
Short cut
Calcul ator
ĠS r
Ġmon ument
Ġsuggest ions
P iece
s lick
find utils
comb ination
U AGE
ic i
mut ed
ĠS afe
der ived
Ġcal ib
Ġ[ :
18 9
ĠRect angle
Ġne ck
ĠCl iff
dispatch er
H our
en viron
EN ER
Cre ating
L em
"/> .
åī į
ĠLe ad
Ġlearn s
Ġchem istry
get Object
> ().
K P
M IL
ĠĠĠĠĠĠĠĠĠĠĠĠĠĠĠĠĠĠĠĠĠĠĠĠĠĠĠĠĠĠĠĠ ĠĠĠĠĠĠĠĠĠĠĠĠĠĠĠĠĠĠĠĠ
Ġsub t
Cap ability
Ġchampionship s
Ġexpect s
LE X
Ġfind utils
Ġmod ulus
ĠFre edom
Ġcomp ounds
Ġra m
({ "
oo led
ov iÄĩ
ĠNev ada
ad vanced
ĠN ak
Image Path
Ġt iles
Ġp urs
ĠAl berta
y i
che my
Ġbe ach
()) {
Ġbl ind
ĠPhil osoph
Ġtermin ate
ek yll
ĠIn f
cre st
rob ust
Ġdist urb
ray s
aur us
Ġb ash
Ġen forcement
Ġint ense
struct ured
G W
file set
Ġfil med
: _
l vert
ĠA DC
Ġres ume
ĠPho enix
Field Name
æĸĩ ä»¶
an ta
ie v
Ġchunk s
END ING
l ite
Ġa qu
ĠPROVID ED
B SD
u pe
al ib
ag i
ĠS id
az a
Ġst ake
ĠMil an
Ġg ay
ĠH ub
g son
Ġconsum ers
sup ers
Ġmanufact urer
j ud
ĠUn fortunately
ĠCl inton
D ashboard
Comp ression
PI X
Ġtalk ing
Ġmand atory
ĠE le
ĠHttp Response
Ġlens ing
ob tained
ĠTool s
may be
p ci
ĠA st
Ġen demic
WR AP
iv ic
Ġget Type
Node Type
Ġgr ants
Ġde als
}^{ *
p reference
Ġde letion
ĠT ib
glob als
Cho oser
D ifference
Ġimport s
Ġfor wards
` );
Mark et
q view
Ġm ong
ãĥ «
ĠG B
Re verse
Ġbeg un
is pan
Cor ollary
ĠHig her
M V
18 71
A f
ĠM oney
ĠE mber
oth ic
Ġtro uble
Ġoutper forms
nt hesis
R AD
Ġsort ing
Scal ing
ass o
Ġreg ulations
ĠBar bara
F iction
ol ine
Ġfix ing
est s
ĠAl aska
}: \
Ġreson ances
ĠIndu stry
Ġthir ty
Ġsuccess ive
rows able
="../.. ">Â«
ĠA CT
leg acy
ump h
Ġenjoy ed
Glob als
ĠIN CLUDING
Tab Index
RAN GE
ĠS ame
fra ct
Stream ing
SE QU
t utorial
Ġget Value
separ ated
I de
N Unit
Ġaccept ance
ĠH orse
Pat ient
READ Y
op ic
ah ler
Deserial izer
Ġend block
Ġgeneral ize
ĠRoman ian
b ane
Ġgr ate
}) );
or um
Î ´
F ULL
Ġget attr
ĠC row
18 79
rog ate
r ice
FR AG
Ġtal ent
D ie
ĠL ud
Ġven ue
Ġele ven
Ġagric ulture
ĠL uther
math rel
block ing
io v
æľ ¬
compare To
p ressed
Ġt orn
test case
Log o
ĠP P
R TC
en es
ĠD L
ĠP or
18 74
res izable
la ke
Ġwood en
ĠCont ract
Append ix
Ġ ç
26 2
Ġcon tributes
18 72
Ġterrit ories
St and
dition al
Ġ` ${
Inter preter
ĠIm ages
ĠAp pro
Ġbro ker
Ġastr onom
A ML
z t
ĠFe ed
Ġsp anning
Ġconf ined
Ġactiv ate
J P
G ar
(' [
ĠBeng al
ĠAfghan istan
Ex perimental
b lo
ĠR angers
iz ar
oc racy
ah l
G i
Test er
ĠCOPY RIGHT
Ġen force
ĠAl pha
ST ACK
Ġpl acing
jo urnal
ST OR
Ġtw in
c ip
ASS IGN
Ð¾Ð» ÑĮ
ĠV egas
. \,
im m
ĠB R
ocam lfind
27 5
ĠUp dates
P ause
wait For
ĠP ick
ov an
Ġreg ret
Tax a
ĠC Tx
Group Id
Top ology
ser ted
R ename
ĠT C
Ġmon omial
pal ette
22 1
Ġb aby
Ġexp edition
Ġcri mes
E con
Ġexp ired
ĠRep ository
b k
ish ment
Http Kernel
contact s
Ġcont ours
ĠB ud
Ġw p
ud p
A sp
F LOW
et e
Ġan imate
Ġorgan ic
ĠAUT O
Ġinput Stream
Ġto lua
lic h
Ġh aven
ĠA ra
P ers
ĠRep resents
ĠTech nical
lit z
ograph er
Ġpul s
sub division
ĠM ans
Ġex ported
ĠK el
Ġferm ionic
Ġel igible
ĠCh at
Ġz oo
ĠSh ip
Ġhistor ians
To k
} --\
ĠR S
arn ess
ĠAtt orney
d av
Ð ŀ
Ġcomput ers
J ul
Ġemphas is
f bb
C MAKE
Ġt v
ĠR ick
Ġw elcome
Ġopp onent
is se
ĠD ifferent
Ðµ Ð´
ĠG auss
ĠSt and
ĠCONT ENT
Ġp g
us a
scr atch
if th
18 66
Ġcons ume
it ary
zer os
ups ilon
ĠDET AIL
ĠB right
. #
â ĪĴ
ĠTh er
ĠCh i
d os
k ie
Ġn aming
Ġdec ides
un iversal
se gments
ur as
Ġabsor bed
estim ated
Clean up
ĠTest ing
Ġde ck
t ang
Ġs vg
Ġunder go
Ġshort est
Ġcut ting
ĠU g
Ġpass ive
ĠF err
z ig
um bo
ĠM ongo
ĠM other
in strument
23 8
Ġsound track
p seudo
os is
Ġlo b
ar ms
sh oot
18 77
ĠPro test
L earning
An ce
åĬ ¨
ĠSer bia
ĠVictor ian
p ter
ol ated
est yle
32 5
Ġmetall ic
ĠL D
net beans
D ifferent
ĠA zerbai
che t
Ã© r
ĠArt ist
log ically
Ġt uples
pp le
pr im
"] );
Ġâ Ķ
ĠEgypt ian
A jax
Ġco ords
et ta
ĠP le
Ġann ually
Ġamb ient
C riterion
J B
et ur
Ġhyp ers
Ġtheore ms
ï ¸
Ġhon our
Ġor acle
Buffer Size
17 9
Ġ... ,
Rich ard
ĠI B
Ġj q
inter op
="# "><
ine e
Ġel s
Ġkinem atic
g ls
INTER FACE
Ġa jax
İ ·
mb f
cel ona
T our
Ġaddition ally
Ġretrie val
ĠObserv atory
B ill
Ġwe bs
**** *
p unct
ĠB orel
18 73
Ġfast est
Ð Ŀ
fer m
col group
_ '
d as
Ġcont rollers
V an
Ġins ights
Ġtensor flow
e lect
Ġn ic
ip v
og g
Ġformat ting
JSON Object
Ġconv icted
C MS
Ġtest Get
gle xt
track ing
RESP ONSE
inc inn
Ġrecommend ation
c ertificate
ro st
DEC LARE
Sc enario
Tool Tip
Ġpoly mer
h ack
à ¦
m gr
w itch
co ol
Ġm im
Ġport al
Ġconduct ivity
_+ $
IC ON
ĠF ather
ĠR an
H K
Ġob sc
m ile
er ci
rf c
spect ral
ax es
ĠN at
Ver ification
Stud ent
24 7
STRA INT
ir on
ĠHy per
ĠS cale
Ġv ibr
geq slant
sv c
2 16
ĠData Type
Ġp unct
Ġg ard
Ġam ateur
âĢĵ âĢĵ
ĠSaint s
Medal ists
nav igator
te enth
mo logy
"> :</
return Value
no align
18 40
Ġmin ority
Del ivery
Ġarchitect ural
ç ¨
Ġsp atially
Ġab sl
ub untu
Ġcomposition s
N B
ther mal
ĠCommission er
c orn
ĠL ate
n ut
me mp
sc enario
Ġout lined
PL ATFORM
Ġpropag ate
Ġb ridges
Ã© t
ĠEX ISTS
ĠG erm
}\ |\
ing o
ix on
Frame buffer
po le
ĠC OR
Icon s
ĠS ongs
ĠDrag on
S LO
e or
Ġin ventory
at trib
D am
Ġm ild
ĠJ ama
8 64
Ġ Ïĥ
ĠH indu
ĠS or
ime ter
Ġunder ground
ĠJ enn
rans late
è ´
get Status
bl k
vision ing
ĠMon th
Ġsus pect
Wait For
Ġst derr
dd ot
By Key
ĠAssert ion
In Progress
Ġstr uggle
k pc
ĠT un
M ur
Ġ($ (
undert ow
Ġinvestig ations
Ġd op
ĠT ed
}$ &
pr imitive
UT ION
re ck
Ġtyp ing
Ġin tern
ĠZ oo
ĠJer usalem
Ġsuffer ing
] -
| $.
el and
pri or
ĠOl iver
Ġorigin ated
ĠCo x
unc y
ĠNe umann
anc etype
id ency
Ġde form
her o
de tection
om i
SH IFT
ĠOper ator
Lif ecycle
N othing
ĠV lad
18 1
ĠB uch
, $$
] ',
Ġaccount ing
qu eries
start swith
st own
ĠS ep
ĠCall ing
ĠMed iterranean
form atted
Ġ*/ ,
ĠCo hen
Ġra c
ric ulum
44 4
E t
Ġup coming
Ġvisual ization
ht able
Ġconfirm ation
b ag
const rained
W ang
Ġk ids
ĠS ak
al ready
en velope
Offset s
m ill
Â ·
ĠT IM
Ġe ffic
Ġt issue
Ġre build
Ã¤ n
coll ision
Ġwe aring
Ð¾ Ñģ
W ifi
ich i
opens ource
W HERE
] ,\
Ġprior i
o ured
}), \
Ġafore mentioned
H i
Ġvalid ated
vent ions
ry ing
ĠF ill
Ġnot iced
qu iry
Ġ" ...
rit ic
k im
me ans
em is
Ġreg ener
Ġr x
Ġmed als
ET HER
P resentation
ĠN ur
Ġpredict ive
P g
S ho
la res
Ġtri ang
ĠFac ulty
Ġb read
ĠP au
Ġnon atomic
V B
Ġcounter parts
à¸ ²
Ġm os
ĠH udson
Con tainers
Ġachie ving
press ure
relativ istic
Ch inese
Ġobject ives
Ġphot ography
ĠðŁ ı
ur acy
ĠCh a
cc i
sp inner
name spaces
Ġfit ness
reach able
f id
Ġover lapping
Ġencour age
incinn ati
Ġst ride
no x
Group Layout
EM ENT
ĠB lood
ĠComp iler
mag netic
Ġset ter
Ġneur ons
ext ent
Ġor b
not ifications
Ġmorph isms
sc all
ĠK un
OR ITY
Ġsem igroup
Method Call
Ġt id
close st
Ġfiles ystem
Ġdiscrepan cy
Ġp k
Ġlo yal
x b
Ġc ameras
RE NDER
ĠMe chan
ĠGi ants
A H
c ia
Ġextension Registry
Ġcor pus
åĪ Ĩ
3 45
ĠT imer
an other
Ġpol ling
ĠBe ijing
Ġra ising
reg exp
; ;
ĠN u
Ġcirc uits
3 64
) ]{
Ġpredict s
sh int
iz a
ren d
ĠâĢ ¢
[...]
