{
  "version": "1.0",
  "truncation": null,
  "padding": null,
  "added_tokens": [
    {
      "id": 0,
      "content": "[UNK]",
      "single_word": false,
      "lstrip": false,
      "rstrip": false,
      "normalized": false,
      "special": true
    }
  ],
  "normalizer": null,
  "pre_tokenizer": {
    "type": "Sequence",
    "pretokenizers": [
      {
        "type": "Digits",
        "individual_digits": false
      },
      {
        "type": "ByteLevel",
        "add_prefix_space": false,
        "trim_offsets": true,
        "use_regex": true
      }
    ]
  },
  "post_processor": null,
  "decoder": null,
  "model": {
    "type": "BPE",
    "dropout": null,
    "unk_token": "[UNK]",
    "continuing_subword_prefix": null,
    "end_of_word_suffix": null,
    "fuse_unk": false,
    "byte_fallback": false,
    "vocab": {
      "[UNK]": 0,
      "!": 1,
      "\"": 2,
      "#": 3,
      "$": 4,
      "%": 5,
      "&": 6,
      "'": 7,
      "(": 8,
      ")": 9,
      "*": 10,
      "+": 11,
      ",": 12,
      "-": 13,
      ".": 14,
      "/": 15,
      "0": 16,
      "1": 17,
      "2": 18,
      "3": 19,
      "4": 20,
      "5": 21,
      "6": 22,
      "7": 23,
      "8": 24,
      "9": 25,
      ":": 26,
      ";": 27,
      "<": 28,
      "=": 29,
      ">": 30,
      "?": 31,
      "@": 32,
      "A": 33,
      "B": 34,
      "C": 35,
      "D": 36,
      "E": 37,
      "F": 38,
      "G": 39,
      "H": 40,
      "I": 41,
      "J": 42,
      "K": 43,
      "L": 44,
      "M": 45,
      "N": 46,
      "O": 47,
      "P": 48,
      "Q": 49,
      "R": 50,
      "S": 51,
      "T": 52,
      "U": 53,
      "V": 54,
      "W": 55,
      "X": 56,
      "Y": 57,
      "Z": 58,
      "[": 59,
      "\\": 60,
      "]": 61,
      "^": 62,
      "_": 63,
      "`": 64,
      "a": 65,
      "b": 66,
      "c": 67,
      "d": 68,
      "e": 69,
      "f": 70,
      "g": 71,
      "h": 72,
      "i": 73,
      "j": 74,
      "k": 75,
      "l": 76,
      "m": 77,
      "n": 78,
      "o": 79,
      "p": 80,
      "q": 81,
      "r": 82,
      "s": 83,
      "t": 84,
      "u": 85,
      "v": 86,
      "w": 87,
      "x": 88,
      "y": 89,
      "z": 90,
      "{": 91,
      "|": 92,
      "}": 93,
      "~": 94,
      "¡": 95,
      "¢": 96,
      "£": 97,
      "¤": 98,
      "¥": 99,
      "¦": 100,
      "§": 101,
      "¨": 102,
      "©": 103,
      "ª": 104,
      "«": 105,
      "¬": 106,
      "®": 107,
      "¯": 108,
      "°": 109,
      "±": 110,
      "²": 111,
      "³": 112,
      "´": 113,
      "µ": 114,
      "¶": 115,
      "·": 116,
      "¸": 117,
      "¹": 118,
      "º": 119,
      "»": 120,
      "¼": 121,
      "½": 122,
      "¾": 123,
      "¿": 124,
      "Â": 125,
      "Ã": 126,
      "Ä": 127,
      "Å": 128,
      "Æ": 129,
      "Ç": 130,
      "È": 131,
      "É": 132,
      "Ê": 133,
      "Ë": 134,
      "Ì": 135,
      "Í": 136,
      "Î": 137,
      "Ï": 138,
      "Ð": 139,
      "Ñ": 140,
      "Ò": 141,
      "Ó": 142,
      "Ô": 143,
      "Õ": 144,
      "Ö": 145,
      "×": 146,
      "Ø": 147,
      "Ù": 148,
      "Ú": 149,
      "Û": 150,
      "Ü": 151,
      "Ý": 152,
      "Þ": 153,
      "ß": 154,
      "à": 155,
      "á": 156,
      "â": 157,
      "ã": 158,
      "ä": 159,
      "å": 160,
      "æ": 161,
      "ç": 162,
      "è": 163,
      "é": 164,
      "ê": 165,
      "ë": 166,
      "ì": 167,
      "í": 168,
      "î": 169,
      "ï": 170,
      "ð": 171,
      "ñ": 172,
      "ó": 173,
      "ô": 174,
      "Ā": 175,
      "ā": 176,
      "Ă": 177,
      "ă": 178,
      "Ą": 179,
      "ą": 180,
      "Ć": 181,
      "ć": 182,
      "Ĉ": 183,
      "ĉ": 184,
      "Ċ": 185,
      "ċ": 186,
      "Č": 187,
      "č": 188,
      "Ď": 189,
      "ď": 190,
      "Đ": 191,
      "đ": 192,
      "Ē": 193,
      "ē": 194,
      "Ĕ": 195,
      "ĕ": 196,
      "Ė": 197,
      "ė": 198,
      "Ę": 199,
      "ę": 200,
      "Ě": 201,
      "ě": 202,
      "Ĝ": 203,
      "ĝ": 204,
      "Ğ": 205,
      "ğ": 206,
      "Ġ": 207,
      "ġ": 208,
      "Ģ": 209,
      "ģ": 210,
      "Ĥ": 211,
      "ĥ": 212,
      "Ħ": 213,
      "ħ": 214,
      "Ĩ": 215,
      "ĩ": 216,
      "Ī": 217,
      "ī": 218,
      "Ĭ": 219,
      "ĭ": 220,
      "Į": 221,
      "į": 222,
      "İ": 223,
      "ı": 224,
      "Ĳ": 225,
      "ĳ": 226,
      "Ĵ": 227,
      "ĵ": 228,
      "Ķ": 229,
      "ķ": 230,
      "ĸ": 231,
      "Ĺ": 232,
      "ĺ": 233,
      "Ļ": 234,
      "ļ": 235,
      "Ľ": 236,
      "ľ": 237,
      "Ŀ": 238,
      "ŀ": 239,
      "Ł": 240,
      "ł": 241,
      "Ń": 242,
      "ĠĠ": 243,
      "ĠĠĠĠ": 244,
      "in": 245,
      "Ġt": 246,
      "er": 247,
      "on": 248,
      "at": 249,
      "re": 250,
      "he": 251,
      "an": 252,
      "ĠĠĠ": 253,
      "en": 254,
      "ĠĠĠĠĠĠĠĠ": 255,
      "or": 256,
      "al": 257,
      "st": 258,
      "Ġthe": 259,
      "ar": 260,
      "ion": 261,
      "le": 262,
      "it": 263,
      "Ġc": 264,
      "se": 265,
      "Ġa": 266,
      "is": 267,
      "de": 268,
      "Ġf": 269,
      "Ġo": 270,
      "ro": 271,
      "ic": 272,
      "me": 273,
      "Ġp": 274,
      "ing": 275,
      "ct": 276,
      "Ġs": 277,
      "Ġw": 278,
      "Ġin": 279,
      "ĠĠĠĠĠĠĠ": 280,
      "ed": 281,
      "Ġb": 282,
      "es": 283,
      "as": 284,
      "ent": 285,
      "and": 286,
      "Ġof": 287,
      "ur": 288,
      "Ġ=": 289,
      "et": 290,
      "ĉĉ": 291,
      "</": 292,
      "Ġ\\": 293,
      "un": 294,
      "Ġ$": 295,
      "Ġn": 296,
      "Ġre": 297,
      "ut": 298,
      "ig": 299,
      "=\"": 300,
      "ce": 301,
      "ation": 302,
      "il": 303,
      "Ġ(": 304,
      "ra": 305,
      "Ġm": 306,
      "Ġto": 307,
      "Ġand": 308,
      "lo": 309,
      ");": 310,
      "mp": 311,
      "ol": 312,
      "el": 313,
      "Ġ{": 314,
      "ul": 315,
      "Ġd": 316,
      "Ġ<": 317,
      "id": 318,
      "Ġth": 319,
      "ex": 320,
      "--": 321,
      "ot": 322,
      "Ġh": 323,
      "iv": 324,
      "if": 325,
      "ag": 326,
      "ĠS": 327,
      "čĊ": 328,
      "ĠĠĠĠĠĠĠĠĠĠĠ": 329,
      "ĠT": 330,
      "ch": 331,
      "th": 332,
      "pe": 333,
      "//": 334,
      "ab": 335,
      "Ġv": 336,
      "ame": 337,
      "qu": 338,
      "Ġ*": 339,
      "ad": 340,
      "ĠC": 341,
      "ate": 342,
      "Ġis": 343,
      "tr": 344,
      "ĠA": 345,
      "co": 346,
      "ass": 347,
      "um": 348,
      "ter": 349,
      "Ġl": 350,
      "ss": 351,
      "Ġ}": 352,
      "ction": 353,
      "ck": 354,
      "Ġst": 355,
      "\">": 356,
      "us": 357,
      "Ġfor": 358,
      "Ġg": 359,
      "am": 360,
      "pt": 361,
      "ht": 362,
      "ist": 363,
      "Ġcon": 364,
      "Ġe": 365,
      "{\\": 366,
      "ub": 367,
      "In": 368,
      "im": 369,
      "Ġde": 370,
      "end": 371,
      "Ġ\"": 372,
      "lass": 373,
      "ver": 374,
      "ĠĠĠĠĠĠĠĠĠĠĠĠĠĠĠĠ": 375,
      "ly": 376,
      "ue": 377,
      "Ġco": 378,
      "ith": 379,
      "sp": 380,
      "ĠĠĠĠĠ": 381,
      "ri": 382,
      "age": 383,
      "Ġse": 384,
      "ĠM": 385,
      "ap": 386,
      "ext": 387,
      "()": 388,
      "ath": 389,
      "ir": 390,
      "Ġbe": 391,
      "Ġon": 392,
      "av": 393,
      "ew": 394,
      "em": 395,
      "ay": 396,
      "up": 397,
      "li": 398,
      "ĠP": 399,
      "est": 400,
      "**": 401,
      "ow": 402,
      "urn": 403,
      "ers": 404,
      "ort": 405,
      "ect": 406,
      "ta": 407,
      "ine": 408,
      "ĠB": 409,
      "20": 410,
      "od": 411,
      "_{": 412,
      "Ġ&": 413,
      "Ġclass": 414,
      "ype": 415,
      "ĠR": 416,
      "ref": 417,
      "om": 418,
      "all": 419,
      "con": 420,
      "==": 421,
      "ĠF": 422,
      "Ġthat": 423,
      "----": 424,
      "ĠD": 425,
      "turn": 426,
      "Ġpro": 427,
      "Ġwith": 428,
      "ode": 429,
      "iz": 430,
      "ure": 431,
      "our": 432,
      "ĠL": 433,
      "art": 434,
      "..": 435,
      "ĠĊ": 436,
      "ase": 437,
      "ment": 438,
      "ĠH": 439,
      "able": 440,
      "Ġ'": 441,
      "ĠN": 442,
      "ult": 443,
      "get": 444,
      "Ġ$\\": 445,
      "ity": 446,
      "Ġan": 447,
      "int": 448,
      "ight": 449,
      "Ġas": 450,
      "Ġif": 451,
      "lic": 452,
      "ph": 453,
      "to": 454,
      "ĠI": 455,
      "rom": 456,
      "ĠĠĠĠĠĠĠĠĠĠĠĠĠĠĠ": 457,
      "ĠThe": 458,
      "per": 459,
      "ile": 460,
      "Ġthis": 461,
      "Ġby": 462,
      "ĠG": 463,
      "eg": 464,
      "ĠE": 465,
      "ma": 466,
      "ans": 467,
      "ang": 468,
      "math": 469,
      "19": 470,
      "Ġwh": 471,
      "ption": 472,
      "ial": 473,
      "und": 474,
      "ĠW": 475,
      "ere": 476,
      "ata": 477,
      "Ġex": 478,
      "ces": 479,
      "Ġor": 480,
      "ime": 481,
      "ke": 482,
      "->": 483,
      "Ġ//": 484,
      "ite": 485,
      "00": 486,
      "ack": 487,
      "Ġ</": 488,
      "cal": 489,
      "orm": 490,
      "imp": 491,
      "Ġal": 492,
      "ore": 493,
      "ĉĉĉĉ": 494,
      "alue": 495,
      "Ġreturn": 496,
      "Ġit": 497,
      "use": 498,
      "../": 499,
      "os": 500,
      "ive": 501,
      "text": 502,
      "::": 503,
      "Ġat": 504,
      "str": 505,
      "}\\": 506,
      "ies": 507,
      "ff": 508,
      "Ġ-": 509,
      "pro": 510,
      "ac": 511,
      "Ġme": 512,
      "ource": 513,
      "ĠO": 514,
      "Ġr": 515,
      "res": 516,
      "ant": 517,
      "}$": 518,
      "Ġwas": 519,
      "ject": 520,
      "Ġfrom": 521,
      "Ġare": 522,
      "ib": 523,
      "^{": 524,
      "set": 525,
      "unction": 526,
      "op": 527,
      "Ġwe": 528,
      "Con": 529,
      "ary": 530,
      "sc": 531,
      "ft": 532,
      "ign": 533,
      "der": 534,
      "),": 535,
      "ace": 536,
      "ve": 537,
      "ber": 538,
      "lu": 539,
      "Re": 540,
      "Ġ+": 541,
      "Ġ[": 542,
      "ition": 543,
      "oc": 544,
      "out": 545,
      "are": 546,
      "ated": 547,
      "Ġ@": 548,
      "ip": 549,
      "ublic": 550,
      ").": 551,
      "ml": 552,
      "\",": 553,
      "ire": 554,
      "low": 555,
      "âĢ": 556,
      "div": 557,
      "(\"": 558,
      "Ġch": 559,
      "();": 560,
      "ill": 561,
      "ser": 562,
      "Ġtr": 563,
      "}}": 564,
      "ge": 565,
      "act": 566,
      "ast": 567,
      "></": 568,
      "ĠU": 569,
      "ĠIn": 570,
      "ĠJ": 571,
      "ide": 572,
      "Ġ/": 573,
      "ind": 574,
      "fig": 575,
      "span": 576,
      "ize": 577,
      "par": 578,
      "Ġnot": 579,
      "(\\": 580,
      "name": 581,
      "lf": 582,
      "te": 583,
      "Ġname": 584,
      "nt": 585,
      "Ġsh": 586,
      "fra": 587,
      "tring": 588,
      "',": 589,
      "Ġle": 590,
      "ull": 591,
      "row": 592,
      "ps": 593,
      "ug": 594,
      "dd": 595,
      "><": 596,
      "The": 597,
      "Ġnew": 598,
      "egin": 599,
      "oo": 600,
      "--------": 601,
      "ance": 602,
      "ice": 603,
      "Ex": 604,
      "ens": 605,
      "ty": 606,
      "ich": 607,
      "../../": 608,
      "Ġres": 609,
      "begin": 610,
      "Ġcomp": 611,
      "ard": 612,
      "form": 613,
      "ssage": 614,
      "ical": 615,
      "Ġhe": 616,
      "Ġy": 617,
      "Ġlo": 618,
      "abel": 619,
      "lay": 620,
      "Ġ|": 621,
      "io": 622,
      "ong": 623,
      "ener": 624,
      "ord": 625,
      "fer": 626,
      "put": 627,
      "Ġfunction": 628,
      "bject": 629,
      "Ġ.": 630,
      "import": 631,
      "iel": 632,
      "Ġ*/": 633,
      "****": 634,
      "},": 635,
      "ory": 636,
      "_{\\": 637,
      "ave": 638,
      "'s": 639,
      "ence": 640,
      "ert": 641,
      "du": 642,
      "ray": 643,
      "ork": 644,
      ")$": 645,
      "====": 646,
      "ations": 647,
      "com": 648,
      "ome": 649,
      "ĉĉĉ": 650,
      "Ġstr": 651,
      "html": 652,
      "St": 653,
      "amp": 654,
      "ĠĠĠĠĠĠĠĠĠĠĠĠĠĠĠĠĠĠĠ": 655,
      "ield": 656,
      "ĠV": 657,
      "Ġhref": 658,
      "vent": 659,
      "unt": 660,
      "Ġ:": 661,
      "ost": 662,
      "pp": 663,
      "ll": 664,
      "source": 665,
      "ak": 666,
      "ror": 667,
      "Name": 668,
      "equ": 669,
      "201": 670,
      "ĠĠĠĠĠĠĠĠĠ": 671,
      "Ġj": 672,
      "('": 673,
      "message": 674,
      "sh": 675,
      "ia": 676,
      "Ġpublic": 677,
      "arg": 678,
      "ĠK": 679,
      "port": 680,
      "}{": 681,
      "so": 682,
      "bo": 683,
      "right": 684,
      "ain": 685,
      "))": 686,
      "col": 687,
      "odel": 688,
      "this": 689,
      "Ġcan": 690,
      "Ġdef": 691,
      "oid": 692,
      "Pro": 693,
      "code": 694,
      "trans": 695,
      "lement": 696,
      "one": 697,
      "ator": 698,
      "ell": 699,
      "iew": 700,
      "cess": 701,
      "lation": 702,
      "def": 703,
      "Ġint": 704,
      "tain": 705,
      "scri": 706,
      "line": 707,
      "Ġun": 708,
      "ust": 709,
      "Ġset": 710,
      "ink": 711,
      "eq": 712,
      "Ġwhich": 713,
      "les": 714,
      "ress": 715,
      "Ġvar": 716,
      "frac": 717,
      "Type": 718,
      "10": 719,
      "ER": 720,
      "Ġtype": 721,
      "ĠTh": 722,
      "ach": 723,
      "Ġ_": 724,
      "label": 725,
      "td": 726,
      "Ġuse": 727,
      "Ġ=>": 728,
      "the": 729,
      "own": 730,
      "clu": 731,
      "Ġk": 732,
      "/>": 733,
      "Ġ#": 734,
      "inal": 735,
      "ild": 736,
      "String": 737,
      "che": 738,
      "Id": 739,
      "ud": 740,
      "cite": 741,
      "ded": 742,
      "Ġcom": 743,
      "yst": 744,
      "alse": 745,
      "dex": 746,
      "ON": 747,
      "og": 748,
      "tern": 749,
      "roup": 750,
      "Ġvalue": 751,
      "lect": 752,
      "ec": 753,
      "ther": 754,
      "ree": 755,
      "\"/>": 756,
      "pect": 757,
      "ian": 758,
      "IN": 759,
      "200": 760,
      "##": 761,
      "ess": 762,
      "log": 763,
      "rm": 764,
      "ix": 765,
      "irst": 766,
      "left": 767,
      "key": 768,
      "we": 769,
      "Co": 770,
      "return": 771,
      "uld": 772,
      "atic": 773,
      "Ġline": 774,
      "oint": 775,
      "translation": 776,
      "mo": 777,
      "Ġget": 778,
      "Ġhas": 779,
      "Ġus": 780,
      "ystem": 781,
      "Ġconst": 782,
      "fo": 783,
      "Ġhave": 784,
      "app": 785,
      "lock": 786,
      "mathb": 787,
      "quest": 788,
      "param": 789,
      "riv": 790,
      "loc": 791,
      "eng": 792,
      "umber": 793,
      "var": 794,
      "val": 795,
      "cre": 796,
      "ions": 797,
      "ual": 798,
      "vice": 799,
      "eta": 800,
      "âĢĵ": 801,
      "ound": 802,
      "type": 803,
      "hen": 804,
      "ef": 805,
      "Ġdata": 806,
      "$.": 807,
      "To": 808,
      "sum": 809,
      "ict": 810,
      "$,": 811,
      "Ġdo": 812,
      "Ġ!": 813,
      "Ġcont": 814,
      "ents": 815,
      "ates": 816,
      "Ġar": 817,
      "ax": 818,
      "sed": 819,
      "idth": 820,
      ",\\": 821,
      "})": 822,
      "pec": 823,
      "List": 824,
      "Ġself": 825,
      "RE": 826,
      "atch": 827,
      "yn": 828,
      "uct": 829,
      "ear": 830,
      "Ġi": 831,
      "}.": 832,
      "ery": 833,
      "mb": 834,
      "ark": 835,
      "equation": 836,
      "Ġall": 837,
      "add": 838,
      "ault": 839,
      "ute": 840,
      "Res": 841,
      "led": 842,
      "18": 843,
      "Ġ||": 844,
      "ms": 845,
      "mathcal": 846,
      "of": 847,
      "ne": 848,
      "her": 849,
      "min": 850,
      "Ġass": 851,
      "Ġ==": 852,
      "ache": 853,
      "Ġdis": 854,
      "ception": 855,
      "Ġid": 856,
      "ry": 857,
      "rit": 858,
      "ST": 859,
      "Ġsu": 860,
      "12": 861,
      "sub": 862,
      "old": 863,
      "ep": 864,
      "ics": 865,
      "ses": 866,
      "Ġsp": 867,
      "En": 868,
      "Ġnull": 869,
      "da": 870,
      "Ġpar": 871,
      "ĠSt": 872,
      "itle": 873,
      "over": 874,
      "ould": 875,
      "://": 876,
      "Ġel": 877,
      "ish": 878,
      "Ġro": 879,
      "Ġresult": 880,
      "Ġpart": 881,
      "Ġcol": 882,
      "\"><": 883,
      "class": 884,
      "Ġtime": 885,
      "Ġ`": 886,
      "Ġvoid": 887,
      "Ġalso": 888,
      "ange": 889,
      "}(": 890,
      "Ġac": 891,
      "let": 892,
      "__": 893,
      "bar": 894,
      "urre": 895,
      "AT": 896,
      "Ġout": 897,
      "ie": 898,
      "wo": 899,
      "Ġone": 900,
      "Ġqu": 901,
      "ĠCh": 902,
      "ov": 903,
      "Ġen": 904,
      "Ch": 905,
      "ont": 906,
      "emp": 907,
      "not": 908,
      "ings": 909,
      "gra": 910,
      "amb": 911,
      "clude": 912,
      "tp": 913,
      "Ġper": 914,
      "}^": 915,
      "ou": 916,
      "ĠĠĠĠĠĠĠĠĠĠĠĠĠ": 917,
      "ld": 918,
      "pha": 919,
      "~\\": 920,
      "}_": 921,
      "mer": 922,
      "Ġer": 923,
      "thod": 924,
      "ĠĠĠĠĠĠĠĠĠĠĠĠĠĠĠĠĠĠĠĠĠĠĠ": 925,
      "item": 926,
      "trib": 927,
      "Ġ>": 928,
      "ature": 929,
      "ail": 930,
      "ader": 931,
      "));": 932,
      "ob": 933,
      "string": 934,
      "Ġfalse": 935,
      "Th": 936,
      "Ġhis": 937,
      "Ġup": 938,
      "Ġwill": 939,
      "Ġser": 940,
      "Ġpre": 941,
      "ameter": 942,
      "\");": 943,
      "16": 944,
      "ool": 945,
      "ution": 946,
      "time": 947,
      "ton": 948,
      "alpha": 949,
      "self": 950,
      "pl": 951,
      "Ġab": 952,
      "OR": 953,
      "Ar": 954,
      "Ġcase": 955,
      "ugh": 956,
      "LE": 957,
      "comp": 958,
      "ific": 959,
      "----------------": 960,
      "Ġinter": 961,
      "cent": 962,
      "ument": 963,
      "space": 964,
      "Ġob": 965,
      "rivate": 966,
      "):": 967,
      "pr": 968,
      "ifi": 969,
      "ca": 970,
      "ey": 971,
      "ular": 972,
      "data": 973,
      "Ġx": 974,
      "spon": 975,
      "ength": 976,
      "Ġ)": 977,
      "********": 978,
      "urrent": 979,
      "ask": 980,
      "Ġtrue": 981,
      "Ġfirst": 982,
      "file": 983,
      "for": 984,
      "iss": 985,
      "ule": 986,
      "Ġend": 987,
      "ative": 988,
      "back": 989,
      "Ġval": 990,
      "Value": 991,
      "Data": 992,
      "ID": 993,
      "arch": 994,
      "Ġbut": 995,
      "Ġwere": 996,
      "ambda": 997,
      "js": 998,
      "Ġ--": 999,
      "ava": 1000,
      "ĠĠĠĠĠĠ": 1001,
      "////": 1002,
      "Ġover": 1003,
      "Ġap": 1004,
      "AR": 1005,
      "location": 1006,
      "ater": 1007,
      "ptions": 1008,
      "hed": 1009,
      "ues": 1010,
      "osition": 1011,
      "read": 1012,
      "Ġsub": 1013,
      "px": 1014,
      "value": 1015,
      "ined": 1016,
      "Ġne": 1017,
      "Ġadd": 1018,
      ")\\": 1019,
      "$\\": 1020,
      "la": 1021,
      "Ser": 1022,
      "ick": 1023,
      "ollow": 1024,
      "fter": 1025,
      "ĠThis": 1026,
      "Ġtwo": 1027,
      "cri": 1028,
      "Col": 1029,
      "ĠUn": 1030,
      "pre": 1031,
      "EN": 1032,
      "til": 1033,
      "Ġtra": 1034,
      "perty": 1035,
      "ĠY": 1036,
      "nb": 1037,
      "Set": 1038,
      "lient": 1039,
      "ĠĠĠĠĠĠĠĠĠĠĠĠĠĠĠĠĠĠĠĠĠĠĠĠĠĠĠĠĠĠĠĠ": 1040,
      "Ġmodel": 1041,
      "Ġelse": 1042,
      "ors": 1043,
      "work": 1044,
      "org": 1045,
      "Ġstring": 1046,
      "Ġtrans": 1047,
      "Ġso": 1048,
      "man": 1049,
      "ely": 1050,
      "script": 1051,
      "ho": 1052,
      "11": 1053,
      "ternal": 1054,
      "Ġ/**": 1055,
      "Ġsup": 1056,
      "enc": 1057,
      "ake": 1058,
      "\")": 1059,
      "ider": 1060,
      "ise": 1061,
      "arget": 1062,
      "new": 1063,
      "Ġinst": 1064,
      "cond": 1065,
      "SS": 1066,
      "AL": 1067,
      "Ġwhen": 1068,
      "ga": 1069,
      "mu": 1070,
      "========": 1071,
      "pi": 1072,
      "irect": 1073,
      "Ġform": 1074,
      "igh": 1075,
      "med": 1076,
      "amma": 1077,
      "Ġother": 1078,
      "_\\": 1079,
      "lection": 1080,
      "($": 1081,
      "ys": 1082,
      "=\\": 1083,
      "roid": 1084,
      "quire": 1085,
      "Exception": 1086,
      "nbsp": 1087,
      "];": 1088,
      "rror": 1089,
      "cl": 1090,
      "Ġ&&": 1091,
      "ĠCo": 1092,
      "Ġreg": 1093,
      "date": 1094,
      "mon": 1095,
      "ash": 1096,
      "ĠIt": 1097,
      "Ġonly": 1098,
      "Ġapp": 1099,
      "Ġpl": 1100,
      "Ġ///": 1101,
      "Ġfollow": 1102,
      "vel": 1103,
      "Comp": 1104,
      "resent": 1105,
      "Ġorg": 1106,
      "Ġra": 1107,
      "Ġtest": 1108,
      "15": 1109,
      "bu": 1110,
      "dot": 1111,
      "als": 1112,
      "')": 1113,
      "Ġ\\\\": 1114,
      "cont": 1115,
      "igma": 1116,
      "Ġstatic": 1117,
      "section": 1118,
      "Ġimp": 1119,
      "ng": 1120,
      "Ġexp": 1121,
      "Bu": 1122,
      "size": 1123,
      "mand": 1124,
      "Ġfile": 1125,
      "Par": 1126,
      "under": 1127,
      "its": 1128,
      "Ġits": 1129,
      "pend": 1130,
      "Ġbu": 1131,
      "ok": 1132,
      "Ġgener": 1133,
      "ann": 1134,
      "aw": 1135,
      "Ġad": 1136,
      "ved": 1137,
      "br": 1138,
      "Ġext": 1139,
      "mary": 1140,
      "ages": 1141,
      "umn": 1142,
      "}_{": 1143,
      "action": 1144,
      "yle": 1145,
      "}^{": 1146,
      "199": 1147,
      "Ġdif": 1148,
      "mathbb": 1149,
      "Object": 1150,
      "Ġfinal": 1151,
      "ample": 1152,
      "cc": 1153,
      "ĠString": 1154,
      "Test": 1155,
      "32": 1156,
      "ible": 1157,
      "test": 1158,
      "ĠWe": 1159,
      "play": 1160,
      "round": 1161,
      "ĠĠĠĠĊ": 1162,
      "ose": 1163,
      "Ġwhere": 1164,
      "width": 1165,
      "ding": 1166,
      "rc": 1167,
      "red": 1168,
      "DE": 1169,
      "Ġ%": 1170,
      "Ġwork": 1171,
      "Ġtheir": 1172,
      "ased": 1173,
      "ins": 1174,
      "']": 1175,
      "Ġdist": 1176,
      "An": 1177,
      "view": 1178,
      "25": 1179,
      "Ġused": 1180,
      "().": 1181,
      "uth": 1182,
      "It": 1183,
      "Ġ!=": 1184,
      "Un": 1185,
      "align": 1186,
      "Ġrel": 1187,
      "wh": 1188,
      "orre": 1189,
      "Ġany": 1190,
      "-\\": 1191,
      "ational": 1192,
      "Ġnumber": 1193,
      "ished": 1194,
      "Ġman": 1195,
      "Ġspec": 1196,
      "lang": 1197,
      "atus": 1198,
      ".</": 1199,
      "ating": 1200,
      "Se": 1201,
      "part": 1202,
      "Ġag": 1203,
      "Error": 1204,
      "Ġthen": 1205,
      "ler": 1206,
      "link": 1207,
      "array": 1208,
      "Ġthere": 1209,
      "gle": 1210,
      "());": 1211,
      "CT": 1212,
      "Ġbet": 1213,
      "We": 1214,
      "Ġmethod": 1215,
      "phi": 1216,
      "^{\\": 1217,
      "ility": 1218,
      "ock": 1219,
      "ream": 1220,
      "Ġmore": 1221,
      "Ġplay": 1222,
      "face": 1223,
      "ĠHe": 1224,
      "lambda": 1225,
      "Ġ{\\": 1226,
      "Get": 1227,
      "mod": 1228,
      "ced": 1229,
      "Tr": 1230,
      "ody": 1231,
      "nav": 1232,
      "Cont": 1233,
      "ized": 1234,
      "14": 1235,
      "oth": 1236,
      "bf": 1237,
      "ĠCon": 1238,
      "\"></": 1239,
      "be": 1240,
      "Ġprivate": 1241,
      "13": 1242,
      "ences": 1243,
      "public": 1244,
      "Ġchar": 1245,
      "yp": 1246,
      "struct": 1247,
      "ook": 1248,
      "top": 1249,
      "ĉĉĉĉĉ": 1250,
      "order": 1251,
      "\";": 1252,
      "View": 1253,
      "Ġfil": 1254,
      "Key": 1255,
      "box": 1256,
      "ger": 1257,
      "Ġno": 1258,
      "ince": 1259,
      "reate": 1260,
      "Ġsuch": 1261,
      "SE": 1262,
      "At": 1263,
      "quot": 1264,
      "._": 1265,
      "function": 1266,
      "try": 1267,
      "Ġbeen": 1268,
      "ning": 1269,
      "Ġcons": 1270,
      "dis": 1271,
      "['": 1272,
      "lean": 1273,
      "Ġsome": 1274,
      "vers": 1275,
      "arent": 1276,
      "heck": 1277,
      "Ġfield": 1278,
      "ner": 1279,
      "no": 1280,
      "ersion": 1281,
      "Ġinto": 1282,
      "ts": 1283,
      "ren": 1284,
      "File": 1285,
      "17": 1286,
      "index": 1287,
      "Ġobject": 1288,
      "Ġte": 1289,
      "ween": 1290,
      "Ġequ": 1291,
      "roll": 1292,
      "include": 1293,
      "lem": 1294,
      "list": 1295,
      "ĠPro": 1296,
      "De": 1297,
      "onent": 1298,
      "=\"+": 1299,
      "ices": 1300,
      "ME": 1301,
      "table": 1302,
      "Ġlist": 1303,
      "Ġact": 1304,
      "ĠSe": 1305,
      "IT": 1306,
      "Ġstate": 1307,
      "100": 1308,
      "son": 1309,
      "cript": 1310,
      "ffer": 1311,
      "mathbf": 1312,
      "url": 1313,
      "summary": 1314,
      "Ġgiv": 1315,
      "ient": 1316,
      "util": 1317,
      "!--": 1318,
      "ĠRe": 1319,
      "Ġshow": 1320,
      "del": 1321,
      "Event": 1322,
      "pen": 1323,
      "ĠQ": 1324,
      "');": 1325,
      "ract": 1326,
      "fore": 1327,
      "Time": 1328,
      "raph": 1329,
      "ization": 1330,
      "indow": 1331,
      "hat": 1332,
      "ities": 1333,
      "Ġunder": 1334,
      "ify": 1335,
      "ĠâĢĵ": 1336,
      "ited": 1337,
      "ĠAn": 1338,
      "inter": 1339,
      "=\"../../": 1340,
      "count": 1341,
      "ious": 1342,
      "By": 1343,
      "ilon": 1344,
      "Ġthan": 1345,
      "ern": 1346,
      "\\\\": 1347,
      "Ġkey": 1348,
      "rite": 1349,
      "Ġent": 1350,
      "sign": 1351,
      "Ġhad": 1352,
      "CO": 1353,
      "sigma": 1354,
      "Ġph": 1355,
      "Ġback": 1356,
      "mall": 1357,
      "Ġeach": 1358,
      "Ġyou": 1359,
      "cord": 1360,
      "Ġdiffer": 1361,
      "psilon": 1362,
      "load": 1363,
      "http": 1364,
      "(),": 1365,
      "Ġim": 1366,
      "ken": 1367,
      "const": 1368,
      "Ġerror": 1369,
      "lete": 1370,
      "ww": 1371,
      "Ġbetween": 1372,
      "unc": 1373,
      "uc": 1374,
      "beta": 1375,
      "group": 1376,
      "Ġusing": 1377,
      "Ġ(\\": 1378,
      "field": 1379,
      "Ġsystem": 1380,
      "ĠAr": 1381,
      "ous": 1382,
      "Ġ/>": 1383,
      "ector": 1384,
      "but": 1385,
      "Ġrep": 1386,
      "rol": 1387,
      "For": 1388,
      "ote": 1389,
      "Ġoper": 1390,
      "color": 1391,
      "figure": 1392,
      "raw": 1393,
      "AN": 1394,
      "Ġpr": 1395,
      "UL": 1396,
      "tps": 1397,
      "}{\\": 1398,
      "ocument": 1399,
      "Node": 1400,
      "],": 1401,
      "icon": 1402,
      "ager": 1403,
      "Ġu": 1404,
      "ackage": 1405,
      "ĠX": 1406,
      "md": 1407,
      "ik": 1408,
      "Ġpoint": 1409,
      "Ġcal": 1410,
      "late": 1411,
      "Ġtitle": 1412,
      "Ġoff": 1413,
      "py": 1414,
      "ists": 1415,
      "He": 1416,
      "path": 1417,
      "user": 1418,
      "Ġevent": 1419,
      "^{-": 1420,
      "reg": 1421,
      "ward": 1422,
      "Ġmod": 1423,
      "mit": 1424,
      "Class": 1425,
      "ground": 1426,
      "uration": 1427,
      "land": 1428,
      "by": 1429,
      "itial": 1430,
      "State": 1431,
      "22": 1432,
      "void": 1433,
      "Ġz": 1434,
      "rame": 1435,
      "Ġprov": 1436,
      "mber": 1437,
      "Ġcorre": 1438,
      "Ġarg": 1439,
      "Text": 1440,
      "ision": 1441,
      "ified": 1442,
      "ffect": 1443,
      "Ġthey": 1444,
      "Ġmay": 1445,
      "Ġafter": 1446,
      "Refer": 1447,
      "Ġwho": 1448,
      "64": 1449,
      "30": 1450,
      "tilde": 1451,
      "Ġour": 1452,
      "net": 1453,
      "ĠEx": 1454,
      "ott": 1455,
      "\":": 1456,
      "Ġfe": 1457,
      "ride": 1458,
      "air": 1459,
      "ension": 1460,
      "Sh": 1461,
      "};": 1462,
      "].": 1463,
      "way": 1464,
      "dt": 1465,
      "Info": 1466,
      "Ġsol": 1467,
      "``": 1468,
      "Ġ?": 1469,
      "ank": 1470,
      "Com": 1471,
      "RO": 1472,
      "oot": 1473,
      "':": 1474,
      "Man": 1475,
      "rap": 1476,
      "+\\": 1477,
      "Path": 1478,
      "lob": 1479,
      "Request": 1480,
      "ments": 1481,
      "Ġ-->": 1482,
      "gamma": 1483,
      "As": 1484,
      "*}": 1485,
      "mathrm": 1486,
      "Element": 1487,
      "ĠFor": 1488,
      "Item": 1489,
      "Met": 1490,
      "uring": 1491,
      "50": 1492,
      "Ġ);": 1493,
      "fin": 1494,
      "ven": 1495,
      "cale": 1496,
      "ĠĠĊ": 1497,
      "Ġsize": 1498,
      "/*": 1499,
      "]{": 1500,
      "Ġpol": 1501,
      "ily": 1502,
      "Ġnon": 1503,
      "Ġest": 1504,
      "node": 1505,
      "Int": 1506,
      "())": 1507,
      "tribute": 1508,
      "delta": 1509,
      "/**": 1510,
      "198": 1511,
      "^\\": 1512,
      "oolean": 1513,
      "ION": 1514,
      "Ġsign": 1515,
      "Ġgiven": 1516,
      "PE": 1517,
      "Ġstart": 1518,
      "Ġmin": 1519,
      "erm": 1520,
      "Field": 1521,
      "atri": 1522,
      "Ġparameter": 1523,
      "times": 1524,
      "Ġpo": 1525,
      "rho": 1526,
      "po": 1527,
      "ron": 1528,
      "length": 1529,
      "reak": 1530,
      "Ġcurrent": 1531,
      "âĢĻ": 1532,
      "Ġprodu": 1533,
      ")}": 1534,
      "TE": 1535,
      "ency": 1536,
      "vert": 1537,
      "map": 1538,
      "Ġassert": 1539,
      "####": 1540,
      "Ġthese": 1541,
      "Ġsc": 1542,
      "ĠĠĠĠĠĠĠĠĠĠĠĠĠĠĠĠĠĠĠĠĠĠĠĠĠĠĠ": 1543,
      "Ġpe": 1544,
      "ĠDe": 1545,
      "gy": 1546,
      "dition": 1547,
      "Ġgroup": 1548,
      "On": 1549,
      "Add": 1550,
      "ican": 1551,
      "ade": 1552,
      "ĠAl": 1553,
      "Ġcall": 1554,
      "Ġelement": 1555,
      "ason": 1556,
      "LA": 1557,
      "cept": 1558,
      "config": 1559,
      "model": 1560,
      "\"\"": 1561,
      "Index": 1562,
      "21": 1563,
      "word": 1564,
      "Ġher": 1565,
      "ines": 1566,
      "ĠZ": 1567,
      "ting": 1568,
      "Map": 1569,
      "sec": 1570,
      "Ġsame": 1571,
      "Ġyear": 1572,
      "Context": 1573,
      "Code": 1574,
      "Ġexpect": 1575,
      "Def": 1576,
      "ster": 1577,
      "Ġnode": 1578,
      "Ġthrow": 1579,
      "sy": 1580,
      "Ġed": 1581,
      "ected": 1582,
      "Ġprob": 1583,
      "24": 1584,
      "tainer": 1585,
      "Ġshould": 1586,
      "irc": 1587,
      "ox": 1588,
      "leq": 1589,
      "asses": 1590,
      "Ġorder": 1591,
      "essage": 1592,
      "33": 1593,
      "que": 1594,
      "Equ": 1595,
      "ential": 1596,
      "theta": 1597,
      "TR": 1598,
      "block": 1599,
      "ople": 1600,
      "ilder": 1601,
      "oogle": 1602,
      "big": 1603,
      "nown": 1604,
      "lose": 1605,
      "pert": 1606,
      "ĠNew": 1607,
      "stance": 1608,
      "Ġinv": 1609,
      "di": 1610,
      "Del": 1611,
      "';": 1612,
      "arrow": 1613,
      "Ġ(!": 1614,
      "gin": 1615,
      "tau": 1616,
      "ever": 1617,
      "true": 1618,
      "api": 1619,
      "rough": 1620,
      "Config": 1621,
      "Ġfollowing": 1622,
      "oci": 1623,
      "result": 1624,
      "Al": 1625,
      "ui": 1626,
      "$-": 1627,
      "cdot": 1628,
      "Ġrequire": 1629,
      "ense": 1630,
      "Lo": 1631,
      "Array": 1632,
      "ush": 1633,
      "title": 1634,
      "ĠIf": 1635,
      "ivers": 1636,
      "sponse": 1637,
      "next": 1638,
      "mbol": 1639,
      "PI": 1640,
      "Ġ});": 1641,
      "umer": 1642,
      "search": 1643,
      "input": 1644,
      "ume": 1645,
      "Ġ$(": 1646,
      "Qu": 1647,
      "rid": 1648,
      "Ġgo": 1649,
      "ars": 1650,
      "Form": 1651,
      "AC": 1652,
      "uto": 1653,
      "https": 1654,
      "Service": 1655,
      "Ġarray": 1656,
      "center": 1657,
      "formation": 1658,
      "Over": 1659,
      "pon": 1660,
      "uch": 1661,
      "graph": 1662,
      "Ġstruct": 1663,
      "orn": 1664,
      "}$,": 1665,
      "error": 1666,
      "lex": 1667,
      "ilter": 1668,
      "Ġstud": 1669,
      "ane": 1670,
      "Ġwould": 1671,
      "}$.": 1672,
      "atrix": 1673,
      "nu": 1674,
      "ally": 1675,
      "serv": 1676,
      "Ġvari": 1677,
      "Ġappro": 1678,
      "lear": 1679,
      "tab": 1680,
      "ten": 1681,
      "temp": 1682,
      "pm": 1683,
      "}(\\": 1684,
      "apache": 1685,
      "tn": 1686,
      "ically": 1687,
      "partial": 1688,
      "object": 1689,
      "Ġdefault": 1690,
      "////////": 1691,
      "Ġrequest": 1692,
      "Ġ/*": 1693,
      "Ġ},": 1694,
      "ared": 1695,
      "Ġdescri": 1696,
      "nection": 1697,
      "sk": 1698,
      "...": 1699,
      "With": 1700,
      "imit": 1701,
      "from": 1702,
      "Ġlong": 1703,
      "=\"../../../../": 1704,
      "Ġabout": 1705,
      "Ġdirect": 1706,
      "sq": 1707,
      "orld": 1708,
      "ister": 1709,
      "lag": 1710,
      "lication": 1711,
      "****************": 1712,
      "max": 1713,
      "Size": 1714,
      "eqref": 1715,
      "Ġwhile": 1716,
      "ams": 1717,
      "az": 1718,
      "IC": 1719,
      "valid": 1720,
      "Des": 1721,
      "Ġimport": 1722,
      "Ġhand": 1723,
      "ĠAs": 1724,
      "Ġlocal": 1725,
      "++": 1726,
      "Ġlink": 1727,
      "Not": 1728,
      "Message": 1729,
      "ĠSh": 1730,
      "Ġcent": 1731,
      "core": 1732,
      "Ġsing": 1733,
      "Ġrun": 1734,
      "ync": 1735,
      "Ġht": 1736,
      "197": 1737,
      "Ġsim": 1738,
      "lt": 1739,
      "Ġdifferent": 1740,
      "omega": 1741,
      "[]": 1742,
      "itor": 1743,
      "='": 1744,
      "Ġtext": 1745,
      "40": 1746,
      "perties": 1747,
      "ym": 1748,
      "enu": 1749,
      "Ġsecond": 1750,
      "default": 1751,
      "Result": 1752,
      "Ġpartic": 1753,
      "Ġfound": 1754,
      "rop": 1755,
      "UR": 1756,
      "create": 1757,
      "Ġmost": 1758,
      "velo": 1759,
      "loat": 1760,
      "af": 1761,
      "Ġvalues": 1762,
      ">&": 1763,
      "References": 1764,
      "ffic": 1765,
      "Ġtarget": 1766,
      "Ġsrc": 1767,
      "gt": 1768,
      "ower": 1769,
      "assert": 1770,
      "version": 1771,
      "depend": 1772,
      "Or": 1773,
      "angle": 1774,
      "eturn": 1775,
      "body": 1776,
      "Ġcontent": 1777,
      "ier": 1778,
      "000": 1779,
      "quad": 1780,
      "Delta": 1781,
      "hod": 1782,
      "Ġcode": 1783,
      "Ġboth": 1784,
      "abled": 1785,
      "Ġtemp": 1786,
      "very": 1787,
      "rt": 1788,
      "Ġjava": 1789,
      "info": 1790,
      "Ġuser": 1791,
      "Ġcl": 1792,
      "cur": 1793,
      "au": 1794,
      "ember": 1795,
      "Hand": 1796,
      "Ġresults": 1797,
      "move": 1798,
      "ccess": 1799,
      "FF": 1800,
      "Ph": 1801,
      "|\\": 1802,
      "ran": 1803,
      "Ġthrough": 1804,
      "miss": 1805,
      "ral": 1806,
      "ression": 1807,
      "LO": 1808,
      "ĠGet": 1809,
      "state": 1810,
      "base": 1811,
      "fty": 1812,
      "att": 1813,
      "point": 1814,
      "ormal": 1815,
      "23": 1816,
      "Of": 1817,
      "ants": 1818,
      "wn": 1819,
      "infty": 1820,
      "arge": 1821,
      "lit": 1822,
      "App": 1823,
      "ĠLe": 1824,
      "sw": 1825,
      "Le": 1826,
      "Ġwell": 1827,
      "android": 1828,
      "etwork": 1829,
      "Ã©": 1830,
      "Im": 1831,
      "css": 1832,
      "merican": 1833,
      "Ġfact": 1834,
      "cope": 1835,
      "lected": 1836,
      "ough": 1837,
      "content": 1838,
      "ĠâĢ": 1839,
      "ures": 1840,
      "aj": 1841,
      "java": 1842,
      "Ġshe": 1843,
      "uble": 1844,
      "gor": 1845,
      "Ġinput": 1846,
      "Model": 1847,
      "sup": 1848,
      "60": 1849,
      "Ġlog": 1850,
      "Up": 1851,
      "start": 1852,
      "ification": 1853,
      "UT": 1854,
      "owever": 1855,
      "Val": 1856,
      "ling": 1857,
      "Ġcontain": 1858,
      "eqn": 1859,
      "ports": 1860,
      "ove": 1861,
      "ĉĉĉĉĉĉ": 1862,
      "tt": 1863,
      "Ġ===": 1864,
      "pos": 1865,
      "Ġpath": 1866,
      "Ġmax": 1867,
      "bug": 1868,
      "ift": 1869,
      "AD": 1870,
      "Ġ__": 1871,
      "Ġread": 1872,
      "Ġ,": 1873,
      "style": 1874,
      "Ġconsider": 1875,
      "Ġ:=": 1876,
      "tra": 1877,
      "Ġhigh": 1878,
      "ball": 1879,
      "see": 1880,
      "Ġbase": 1881,
      "This": 1882,
      "ouse": 1883,
      "rag": 1884,
      "chool": 1885,
      "ively": 1886,
      "Ġli": 1887,
      "context": 1888,
      "ottom": 1889,
      "ML": 1890,
      "Ġprovide": 1891,
      "ulation": 1892,
      "Ġerr": 1893,
      "ustom": 1894,
      "ism": 1895,
      "Ġright": 1896,
      "option": 1897,
      "where": 1898,
      "\\,": 1899,
      "Manager": 1900,
      "ful": 1901,
      "ability": 1902,
      "ats": 1903,
      "ĠSystem": 1904,
      "Ġsur": 1905,
      "head": 1906,
      "Log": 1907,
      "other": 1908,
      "ru": 1909,
      "Ġ};": 1910,
      "tings": 1911,
      "Ġinclu": 1912,
      "inition": 1913,
      "event": 1914,
      "Color": 1915,
      "User": 1916,
      "oun": 1917,
      "--------------------------------": 1918,
      "package": 1919,
      "annel": 1920,
      "Ġthem": 1921,
      "mark": 1922,
      "ponse": 1923,
      "Ġconfig": 1924,
      "tribut": 1925,
      "ĠCol": 1926,
      "uthor": 1927,
      "ining": 1928,
      "ULL": 1929,
      "with": 1930,
      ";</": 1931,
      "down": 1932,
      "Ġblock": 1933,
      ";&": 1934,
      "lobal": 1935,
      "Ġcheck": 1936,
      "Ġmap": 1937,
      "iter": 1938,
      "Table": 1939,
      "ffset": 1940,
      "Ġmain": 1941,
      "'t": 1942,
      "ING": 1943,
      "call": 1944,
      "$$": 1945,
      "IG": 1946,
      "Ġlow": 1947,
      "bl": 1948,
      "Ġthree": 1949,
      "false": 1950,
      "define": 1951,
      "my": 1952,
      "=\"../": 1953,
      "web": 1954,
      "roller": 1955,
      "Ġobtain": 1956,
      "do": 1957,
      "Ġindex": 1958,
      "any": 1959,
      "Is": 1960,
      "xi": 1961,
      "ends": 1962,
      "Ġca": 1963,
      "ric": 1964,
      "atter": 1965,
      "Ġbefore": 1966,
      "now": 1967,
      "Ġlet": 1968,
      "vir": 1969,
      "Ġdistri": 1970,
      "MA": 1971,
      "Ġdoes": 1972,
      "Out": 1973,
      "check": 1974,
      "idd": 1975,
      "Ġsee": 1976,
      "Ġversion": 1977,
      "Ġcontext": 1978,
      "erson": 1979,
      "Ġstyle": 1980,
      "Ġmult": 1981,
      "Ġinstance": 1982,
      "tot": 1983,
      "ĠĠĠĠĠĠĠĠĠĠĠĠ": 1984,
      "iled": 1985,
      "ED": 1986,
      "ources": 1987,
      "Ġagain": 1988,
      "ithub": 1989,
      "Ġcre": 1990,
      "ross": 1991,
      "iginal": 1992,
      "Ġsmall": 1993,
      "}[": 1994,
      "ident": 1995,
      "=\"#": 1996,
      "Ġeffect": 1997,
      "}}\\": 1998,
      "using": 1999,
      "leg": 2000,
      "acter": 2001,
      "static": 2002,
      "orem": 2003,
      "lp": 2004,
      "Inter": 2005,
      "ctions": 2006,
      "ĠĠĠĠĠĠĠĠĠĠ": 2007,
      "ĠCom": 2008,
      "iver": 2009,
      "Ġfind": 2010,
      ")$.": 2011,
      "google": 2012,
      "Ġrepresent": 2013,
      "Property": 2014,
      "ET": 2015,
      "<!--": 2016,
      "namespace": 2017,
      "doc": 2018,
      "ari": 2019,
      "oh": 2020,
      "Client": 2021,
      "less": 2022,
      "lish": 2023,
      ")</": 2024,
      "Group": 2025,
      "27": 2026,
      "Ġleft": 2027,
      "DO": 2028,
      "From": 2029,
      "outh": 2030,
      "method": 2031,
      "Ġsupport": 2032,
      "Ġwrit": 2033,
      "velop": 2034,
      "ived": 2035,
      "ypes": 2036,
      "tected": 2037,
      "================": 2038,
      "Ġprocess": 2039,
      "ality": 2040,
      "mun": 2041,
      "TD": 2042,
      "tail": 2043,
      "ixed": 2044,
      "Ġloc": 2045,
      "Ġallow": 2046,
      "AB": 2047,
      "vious": 2048,
      "Query": 2049,
      "Ġcontin": 2050,
      "github": 2051,
      "MP": 2052,
      "Ġneed": 2053,
      "CH": 2054,
      "ots": 2055,
      "dic": 2056,
      "argin": 2057,
      "ah": 2058,
      "light": 2059,
      "orth": 2060,
      "Ġcreate": 2061,
      "Override": 2062,
      "arn": 2063,
      "Ġbreak": 2064,
      "Ġanal": 2065,
      "vol": 2066,
      "iversity": 2067,
      "System": 2068,
      "ename": 2069,
      "66": 2070,
      "Ġfin": 2071,
      "Response": 2072,
      "Ġrefer": 2073,
      "ĠSet": 2074,
      "psi": 2075,
      "Ġandroid": 2076,
      "ifier": 2077,
      "bit": 2078,
      "Ġrele": 2079,
      "Ġnow": 2080,
      "eger": 2081,
      "Ġdi": 2082,
      "Trans": 2083,
      "Ġitem": 2084,
      "db": 2085,
      "28": 2086,
      "Method": 2087,
      "Dis": 2088,
      "ape": 2089,
      "Ġinitial": 2090,
      "Ġbool": 2091,
      "Ġposition": 2092,
      "side": 2093,
      "ĠTr": 2094,
      "ĠOn": 2095,
      "Ġmust": 2096,
      "Ġpeople": 2097,
      "UN": 2098,
      "99": 2099,
      "ero": 2100,
      "ather": 2101,
      "Ġcondition": 2102,
      "Ġlast": 2103,
      "bs": 2104,
      "Ġyour": 2105,
      "ale": 2106,
      "Ġduring": 2107,
      "](": 2108,
      "amily": 2109,
      ">(": 2110,
      "epsilon": 2111,
      "cor": 2112,
      "pri": 2113,
      "wide": 2114,
      "asure": 2115,
      "mm": 2116,
      "uage": 2117,
      "Ġwidth": 2118,
      "caption": 2119,
      "ural": 2120,
      "DI": 2121,
      "anel": 2122,
      "refer": 2123,
      "come": 2124,
      "sim": 2125,
      "dir": 2126,
      "Ġbeing": 2127,
      "Ġstd": 2128,
      "Count": 2129,
      "mega": 2130,
      "\".": 2131,
      "Ġfeature": 2132,
      "}_{\\": 2133,
      "ĠčĊ": 2134,
      "Ġcolor": 2135,
      "Reg": 2136,
      "ĠĠĠĠĠĠĠĠĠĠĠĠĠĠĠĠĠĠĠĠĠĠĠĠĠĠĠĠĠĠĠ": 2137,
      "Call": 2138,
      "ait": 2139,
      "position": 2140,
      "non": 2141,
      "Arg": 2142,
      "ilar": 2143,
      "Ġ()": 2144,
      "ves": 2145,
      "Ġopt": 2146,
      "Builder": 2147,
      "Mod": 2148,
      "Ġ($": 2149,
      "ENT": 2150,
      "null": 2151,
      "tes": 2152,
      "45": 2153,
      "iction": 2154,
      "btn": 2155,
      "finished": 2156,
      "istory": 2157,
      "ender": 2158,
      "Ġpresent": 2159,
      "eqnarray": 2160,
      "CE": 2161,
      "current": 2162,
      "ivity": 2163,
      "Ġsource": 2164,
      "logy": 2165,
      "ury": 2166,
      "Ġnil": 2167,
      "Ġbuild": 2168,
      "Ġbackground": 2169,
      "ĠĠĠĠĠĠĠĠĠĠĠĠĠĠĠĠĠ": 2170,
      "itch": 2171,
      "Ġter": 2172,
      "ĠEn": 2173,
      "80": 2174,
      "Ġref": 2175,
      "Omega": 2176,
      "ene": 2177,
      "Ġbound": 2178,
      "mpty": 2179,
      "ife": 2180,
      "Ġspace": 2181,
      "cm": 2182,
      "ior": 2183,
      "ump": 2184,
      "Ġsince": 2185,
      "duct": 2186,
      "exp": 2187,
      "place": 2188,
      "Ġoptions": 2189,
      "Ġinclude": 2190,
      "OT": 2191,
      "sqrt": 2192,
      "image": 2193,
      "ĠFig": 2194,
      "tual": 2195,
      "Bar": 2196,
      "has": 2197,
      "^*": 2198,
      "Ġtop": 2199,
      "options": 2200,
      "Âł": 2201,
      "dl": 2202,
      "Ġmake": 2203,
      "button": 2204,
      "cer": 2205,
      "lished": 2206,
      "unfinished": 2207,
      "sing": 2208,
      "All": 2209,
      "scription": 2210,
      "Ġperform": 2211,
      "query": 2212,
      "lick": 2213,
      "height": 2214,
      "Ġmon": 2215,
      "Ġpop": 2216,
      "print": 2217,
      "actory": 2218,
      "External": 2219,
      ".,": 2220,
      "Ġopen": 2221,
      "Util": 2222,
      "Ġgame": 2223,
      "Ġident": 2224,
      "umb": 2225,
      "Ð°": 2226,
      "Ġdepend": 2227,
      "ĉĊ": 2228,
      "Ġcur": 2229,
      "imple": 2230,
      "])": 2231,
      "bm": 2232,
      "26": 2233,
      "frame": 2234,
      "Ġart": 2235,
      "energy": 2236,
      "client": 2237,
      "Stream": 2238,
      "cy": 2239,
      "Ġlevel": 2240,
      "www": 2241,
      "Ġgra": 2242,
      "Date": 2243,
      "uary": 2244,
      "Ġvis": 2245,
      "tal": 2246,
      "ays": 2247,
      "Ġdefined": 2248,
      "Gamma": 2249,
      "lat": 2250,
      "ration": 2251,
      ")$,": 2252,
      "Tra": 2253,
      "err": 2254,
      "ssion": 2255,
      "Ġbased": 2256,
      "((": 2257,
      "page": 2258,
      "php": 2259,
      "bed": 2260,
      "ches": 2261,
      "ds": 2262,
      "Ġmany": 2263,
      "args": 2264,
      "Ġnext": 2265,
      ".\"": 2266,
      "Ġborder": 2267,
      "subsection": 2268,
      "cause": 2269,
      "Ġcorrespon": 2270,
      "Ġinformation": 2271,
      "SC": 2272,
      "andom": 2273,
      "Ġview": 2274,
      "tric": 2275,
      "ci": 2276,
      "Ġlinks": 2277,
      "request": 2278,
      "case": 2279,
      "Ġmessage": 2280,
      "ĠComp": 2281,
      "ateg": 2282,
      "graphics": 2283,
      "55": 2284,
      "ĠÐ": 2285,
      "omain": 2286,
      "ĠAss": 2287,
      "ek": 2288,
      "jav": 2289,
      "ules": 2290,
      "Ġtable": 2291,
      "Ġ<<": 2292,
      "adding": 2293,
      "IL": 2294,
      "ĠNULL": 2295,
      "ĠList": 2296,
      "lin": 2297,
      "ring": 2298,
      "Ġ${\\": 2299,
      "Ġlarge": 2300,
      "ĠAmerican": 2301,
      "ĠSer": 2302,
      "Ġdat": 2303,
      "Status": 2304,
      "ets": 2305,
      "symbol": 2306,
      "ony": 2307,
      "TH": 2308,
      "undle": 2309,
      "Ref": 2310,
      "29": 2311,
      "){": 2312,
      "gorith": 2313,
      "Image": 2314,
      "Ġexample": 2315,
      "bold": 2316,
      "lib": 2317,
      "AME": 2318,
      "Ġcalled": 2319,
      "ĠĠĠĠĠĠĠĠĊ": 2320,
      "Ġrespect": 2321,
      "''": 2322,
      "ons": 2323,
      "ched": 2324,
      "Ġbecause": 2325,
      "itive": 2326,
      "Input": 2327,
      "ynam": 2328,
      "ĠRes": 2329,
      "textbf": 2330,
      "ators": 2331,
      "cast": 2332,
      "Block": 2333,
      "ware": 2334,
      "oper": 2335,
      "^{(": 2336,
      "ĠĠĠĠĠĠĠĠĠĠĠĠĊ": 2337,
      "Ġtry": 2338,
      "Ġoutput": 2339,
      "New": 2340,
      "Gener": 2341,
      "imal": 2342,
      "uments": 2343,
      "Ad": 2344,
      "0000": 2345,
      "stru": 2346,
      "header": 2347,
      "df": 2348,
      "element": 2349,
      "vare": 2350,
      "Be": 2351,
      "imum": 2352,
      "Ġyears": 2353,
      "End": 2354,
      "reat": 2355,
      "Ġresponse": 2356,
      "Ġlead": 2357,
      "Ġsuper": 2358,
      "}=": 2359,
      "cho": 2360,
      "overn": 2361,
      "signed": 2362,
      "Ġpass": 2363,
      "main": 2364,
      "jo": 2365,
      "IP": 2366,
      "ONT": 2367,
      "Ġboolean": 2368,
      "ĠIs": 2369,
      "ually": 2370,
      "Component": 2371,
      "andard": 2372,
      "~~": 2373,
      "ination": 2374,
      "ailable": 2375,
      "Ġ->": 2376,
      "Ġappe": 2377,
      "Ġsingle": 2378,
      "YPE": 2379,
      "Ġet": 2380,
      "Ġchild": 2381,
      "semb": 2382,
      "vari": 2383,
      "Lay": 2384,
      "aterial": 2385,
      "Instance": 2386,
      "Ġincre": 2387,
      "Ġcould": 2388,
      "Ġimage": 2389,
      "varepsilon": 2390,
      "Base": 2391,
      "Ġmade": 2392,
      "Frame": 2393,
      "reen": 2394,
      "Sub": 2395,
      "Ġdec": 2396,
      "Ġknown": 2397,
      "Parameter": 2398,
      "ee": 2399,
      "({": 2400,
      "imation": 2401,
      "Ġdisc": 2402,
      "bove": 2403,
      "imension": 2404,
      "Ġevery": 2405,
      "ĠRo": 2406,
      "Action": 2407,
      "olic": 2408,
      "itu": 2409,
      "si": 2410,
      "}^{\\": 2411,
      "Ġhim": 2412,
      "lot": 2413,
      "ship": 2414,
      "Ġposs": 2415,
      "Ġgeneral": 2416,
      "server": 2417,
      "Nav": 2418,
      "Ġbl": 2419,
      "SP": 2420,
      "35": 2421,
      "Ġproperty": 2422,
      "Ð¾": 2423,
      "gener": 2424,
      "append": 2425,
      "Imp": 2426,
      "ai": 2427,
      "Ġav": 2428,
      "func": 2429,
      "Ġrece": 2430,
      "mission": 2431,
      "Exp": 2432,
      "Ġnetwork": 2433,
      "Ġ\"\"\"": 2434,
      "Token": 2435,
      "Ġparameters": 2436,
      "ters": 2437,
      "mult": 2438,
      "ns": 2439,
      "Ġmass": 2440,
      "rangle": 2441,
      "hand": 2442,
      "member": 2443,
      "ĠUniversity": 2444,
      "Str": 2445,
      "39": 2446,
      "ĠPar": 2447,
      "tx": 2448,
      "ique": 2449,
      "Ġabove": 2450,
      "idget": 2451,
      "Ġlike": 2452,
      "UE": 2453,
      "Options": 2454,
      "navbar": 2455,
      "Ġmatch": 2456,
      "Ġfa": 2457,
      "nect": 2458,
      "ond": 2459,
      ")=": 2460,
      "defined": 2461,
      "ives": 2462,
      "inc": 2463,
      "Ġproject": 2464,
      "tack": 2465,
      "xy": 2466,
      "local": 2467,
      "target": 2468,
      "Buffer": 2469,
      "older": 2470,
      "ĠUnited": 2471,
      "includegraphics": 2472,
      "Line": 2473,
      "bra": 2474,
      "Ġdocument": 2475,
      "lugin": 2476,
      "init": 2477,
      "display": 2478,
      "75": 2479,
      "ensure": 2480,
      "ood": 2481,
      "Ġsum": 2482,
      "Ġmag": 2483,
      "01": 2484,
      "tag": 2485,
      "gram": 2486,
      "Ġexper": 2487,
      "[\"": 2488,
      "EX": 2489,
      "Ġdevelop": 2490,
      "Ed": 2491,
      "rs": 2492,
      "bution": 2493,
      "Ġtak": 2494,
      "bottom": 2495,
      "aper": 2496,
      "ĠAt": 2497,
      "ansp": 2498,
      "34": 2499,
      "Ġ\\,": 2500,
      "urther": 2501,
      "riter": 2502,
      "Ġexist": 2503,
      "ĠĠĠĠĠĠĠĠĠĠĠĠĠĠ": 2504,
      "parent": 2505,
      "ideo": 2506,
      "ness": 2507,
      "Ġ+=": 2508,
      "rodu": 2509,
      "rl": 2510,
      "abase": 2511,
      "ival": 2512,
      "fa": 2513,
      "Ġfour": 2514,
      "proto": 2515,
      "Ġrange": 2516,
      "Ġimplement": 2517,
      "amples": 2518,
      "Ġenergy": 2519,
      "NS": 2520,
      "ij": 2521,
      "cul": 2522,
      "adata": 2523,
      "Ðµ": 2524,
      "Source": 2525,
      "vec": 2526,
      "opt": 2527,
      "Ġjust": 2528,
      "AS": 2529,
      "ĉĉĉĉĉĉĉĉ": 2530,
      "foot": 2531,
      "active": 2532,
      "And": 2533,
      "rightarrow": 2534,
      "attern": 2535,
      "Ġvalid": 2536,
      "ina": 2537,
      "ables": 2538,
      "Ġlength": 2539,
      "IS": 2540,
      "xml": 2541,
      "Ġaction": 2542,
      "Handler": 2543,
      "chi": 2544,
      "lim": 2545,
      "Ġaddition": 2546,
      "ensity": 2547,
      "property": 2548,
      "Content": 2549,
      "Resource": 2550,
      "loy": 2551,
      "meta": 2552,
      "Ġcoun": 2553,
      "ole": 2554,
      "select": 2555,
      "Ġpos": 2556,
      "iod": 2557,
      "REF": 2558,
      "2017": 2559,
      "Null": 2560,
      "Ġq": 2561,
      ")(": 2562,
      "Sp": 2563,
      "Equal": 2564,
      "Ġreal": 2565,
      "Ġlater": 2566,
      "Ġmeasure": 2567,
      "arning": 2568,
      "Ġclo": 2569,
      "US": 2570,
      "child": 2571,
      "But": 2572,
      "Ġpres": 2573,
      "vider": 2574,
      "run": 2575,
      "Default": 2576,
      "usic": 2577,
      "ted": 2578,
      "Ġmodels": 2579,
      "Command": 2580,
      ".~\\": 2581,
      "build": 2582,
      "json": 2583,
      "anged": 2584,
      "Ġlabel": 2585,
      "Ġmed": 2586,
      "ptr": 2587,
      "Ġmov": 2588,
      "varphi": 2589,
      "ategory": 2590,
      "Attribute": 2591,
      "ired": 2592,
      "rows": 2593,
      "Ġden": 2594,
      "Act": 2595,
      "Ġocc": 2596,
      "[\\": 2597,
      "ATE": 2598,
      "ret": 2599,
      "Big": 2600,
      "Ġwithin": 2601,
      "Ġbro": 2602,
      "ialog": 2603,
      "sol": 2604,
      "fe": 2605,
      "Ġcomput": 2606,
      "imes": 2607,
      "write": 2608,
      "ession": 2609,
      "emph": 2610,
      "ĠEng": 2611,
      "ĠTo": 2612,
      "Ġincluding": 2613,
      "ĠOr": 2614,
      "90": 2615,
      "frak": 2616,
      "gn": 2617,
      "ootball": 2618,
      "onents": 2619,
      "2015": 2620,
      "Ġlang": 2621,
      "Ġear": 2622,
      "196": 2623,
      "Link": 2624,
      "EE": 2625,
      "dat": 2626,
      "Point": 2627,
      "ison": 2628,
      "Ġdue": 2629,
      "}).": 2630,
      "TO": 2631,
      "Ġhere": 2632,
      "Hel": 2633,
      "Start": 2634,
      "izer": 2635,
      "img": 2636,
      "flow": 2637,
      "ley": 2638,
      "module": 2639,
      "Task": 2640,
      "ysis": 2641,
      "ances": 2642,
      "Ġmark": 2643,
      "Sty": 2644,
      "geq": 2645,
      "Ġsat": 2646,
      "ĠMar": 2647,
      "png": 2648,
      "Ass": 2649,
      "Ġsimilar": 2650,
      "vices": 2651,
      "circ": 2652,
      "Ġassoci": 2653,
      "small": 2654,
      "vis": 2655,
      "Ġoriginal": 2656,
      "require": 2657,
      "ement": 2658,
      "cap": 2659,
      "aid": 2660,
      "Factory": 2661,
      "Ġseries": 2662,
      "first": 2663,
      "Ġmode": 2664,
      "efore": 2665,
      "Ġvery": 2666,
      "src": 2667,
      "viron": 2668,
      "No": 2669,
      "CK": 2670,
      "ium": 2671,
      "48": 2672,
      "FA": 2673,
      "sg": 2674,
      "ohn": 2675,
      "post": 2676,
      "verage": 2677,
      "Ġsw": 2678,
      "char": 2679,
      "Ġtotal": 2680,
      "36": 2681,
      "Ġsection": 2682,
      "sl": 2683,
      "status": 2684,
      "Ġtri": 2685,
      "ied": 2686,
      "yles": 2687,
      "ready": 2688,
      "orage": 2689,
      "Ġquant": 2690,
      "ĠPh": 2691,
      "Ġdisplay": 2692,
      "Version": 2693,
      "Ġrecord": 2694,
      "overline": 2695,
      ".}": 2696,
      "Ġprevious": 2697,
      "private": 2698,
      "GL": 2699,
      "${": 2700,
      "Ġeven": 2701,
      "arm": 2702,
      "Ġseason": 2703,
      "Ġplayers": 2704,
      "ocus": 2705,
      "Function": 2706,
      "Ġframe": 2707,
      "struction": 2708,
      "\"]": 2709,
      "Window": 2710,
      "proof": 2711,
      "Ġresource": 2712,
      "ascript": 2713,
      "Ġ``": 2714,
      "Ġcommand": 2715,
      "push": 2716,
      "bum": 2717,
      "lags": 2718,
      "iple": 2719,
      "Ġexpected": 2720,
      "Ġsuccess": 2721,
      "*/": 2722,
      "Ġshown": 2723,
      "ĠNone": 2724,
      "anges": 2725,
      "description": 2726,
      "filter": 2727,
      "If": 2728,
      "2016": 2729,
      "Ġspect": 2730,
      "icense": 2731,
      "hav": 2732,
      "Ġdeter": 2733,
      "dict": 2734,
      "LASS": 2735,
      "raint": 2736,
      "gorithm": 2737,
      "layout": 2738,
      "rary": 2739,
      "Ġwithout": 2740,
      "Ġconf": 2741,
      "pc": 2742,
      "Ġcharacter": 2743,
      "EL": 2744,
      "ĠObject": 2745,
      "Ġder": 2746,
      "44": 2747,
      "Ġvert": 2748,
      "Ġpost": 2749,
      "rowser": 2750,
      "draw": 2751,
      "tributes": 2752,
      "mathfrak": 2753,
      "});": 2754,
      "Ġport": 2755,
      "Ġmy": 2756,
      "37": 2757,
      "OL": 2758,
      "Oper": 2759,
      "Cell": 2760,
      "05": 2761,
      "inary": 2762,
      "open": 2763,
      "AP": 2764,
      "gress": 2765,
      "Ġ{@": 2766,
      "},\\": 2767,
      "Ġdown": 2768,
      "inst": 2769,
      "Ġsever": 2770,
      "arri": 2771,
      "ĠThere": 2772,
      "font": 2773,
      "icle": 2774,
      "ĠBu": 2775,
      "Lambda": 2776,
      "38": 2777,
      "Ġcontrol": 2778,
      "&\\": 2779,
      "hip": 2780,
      "Ġaut": 2781,
      "quence": 2782,
      "Ġparent": 2783,
      "Ġheight": 2784,
      "Ġside": 2785,
      "True": 2786,
      "boldsymbol": 2787,
      "Ġservice": 2788,
      "ĠHowever": 2789,
      "len": 2790,
      "Ġgu": 2791,
      "Ġestim": 2792,
      "Ġexec": 2793,
      "AG": 2794,
      "Number": 2795,
      "HT": 2796,
      "Button": 2797,
      "valu": 2798,
      "orph": 2799,
      "2014": 2800,
      "Ġaddress": 2801,
      "spec": 2802,
      "dependent": 2803,
      "ither": 2804,
      "eps": 2805,
      "Ġpage": 2806,
      "find": 2807,
      "ately": 2808,
      "last": 2809,
      "Ġhow": 2810,
      "Ġregion": 2811,
      "Pr": 2812,
      "opy": 2813,
      "Ġlimit": 2814,
      "Ġown": 2815,
      "project": 2816,
      "strong": 2817,
      "Ġcolumn": 2818,
      "host": 2819,
      "2018": 2820,
      "ĠSp": 2821,
      "Page": 2822,
      "195": 2823,
      "âĢĿ": 2824,
      ")^": 2825,
      "rel": 2826,
      "ĠTest": 2827,
      "Ġtask": 2828,
      "cket": 2829,
      "pack": 2830,
      "Ġrequired": 2831,
      "used": 2832,
      "OP": 2833,
      "Ð¸": 2834,
      "Ġhttp": 2835,
      "vision": 2836,
      "close": 2837,
      "Ġfollows": 2838,
      "resh": 2839,
      "Ġchange": 2840,
      "until": 2841,
      "iving": 2842,
      "sf": 2843,
      "ram": 2844,
      "sor": 2845,
      "Label": 2846,
      "ilt": 2847,
      "ibility": 2848,
      "Return": 2849,
      "iment": 2850,
      "ifact": 2851,
      "hline": 2852,
      "uss": 2853,
      "omen": 2854,
      "Ext": 2855,
      "heet": 2856,
      "Ġthrows": 2857,
      "Ġway": 2858,
      "ĠStates": 2859,
      "can": 2860,
      "Ġmargin": 2861,
      "Ġproblem": 2862,
      "ead": 2863,
      "Ġelect": 2864,
      "ES": 2865,
      "Ġhead": 2866,
      "ograph": 2867,
      "ĠCan": 2868,
      "31": 2869,
      "Ġstructure": 2870,
      "Ġplace": 2871,
      "Ġagainst": 2872,
      "Ġprotected": 2873,
      "Let": 2874,
      "Ġgraph": 2875,
      "FI": 2876,
      "Ġpoints": 2877,
      "Ġpower": 2878,
      "Check": 2879,
      "Ġ<!--": 2880,
      "chema": 2881,
      "FONT": 2882,
      "allet": 2883,
      "container": 2884,
      "Ġinteg": 2885,
      "javascript": 2886,
      "ths": 2887,
      "Ġjo": 2888,
      "ĠAd": 2889,
      "Ġclient": 2890,
      "Ġthose": 2891,
      "ird": 2892,
      "Ġcount": 2893,
      "}}$": 2894,
      "VER": 2895,
      "ls": 2896,
      "SON": 2897,
      "Create": 2898,
      "command": 2899,
      "lease": 2900,
      "endif": 2901,
      "Ġestab": 2902,
      "ital": 2903,
      "iler": 2904,
      "Filter": 2905,
      ".\\": 2906,
      "ĠShe": 2907,
      "une": 2908,
      "Ġlay": 2909,
      "gen": 2910,
      "}),": 2911,
      "Part": 2912,
      "service": 2913,
      "mbox": 2914,
      "Ġfilm": 2915,
      "Pre": 2916,
      "entry": 2917,
      "Const": 2918,
      "Ġparticular": 2919,
      "Ġextends": 2920,
      "Ġurl": 2921,
      "Ġfunctions": 2922,
      "Ġam": 2923,
      "Loc": 2924,
      "Style": 2925,
      "07": 2926,
      "menu": 2927,
      "params": 2928,
      "verse": 2929,
      "2019": 2930,
      "imary": 2931,
      "ĠReturn": 2932,
      "irtual": 2933,
      "Controller": 2934,
      "clo": 2935,
      "istic": 2936,
      "stream": 2937,
      "isf": 2938,
      "illi": 2939,
      "common": 2940,
      "Ġfre": 2941,
      "NO": 2942,
      "Ġuntil": 2943,
      "ĠBy": 2944,
      "PRO": 2945,
      "BU": 2946,
      "rict": 2947,
      "2013": 2948,
      "ttp": 2949,
      "Box": 2950,
      "bb": 2951,
      "Ġmat": 2952,
      "////////////////": 2953,
      "Sup": 2954,
      "Listener": 2955,
      "Ġcell": 2956,
      "Ġlarg": 2957,
      "ĠCoun": 2958,
      "aster": 2959,
      "hes": 2960,
      "obj": 2961,
      "langle": 2962,
      "2011": 2963,
      "Ġalong": 2964,
      "buf": 2965,
      "MS": 2966,
      "Ġteam": 2967,
      "Ġauto": 2968,
      "lug": 2969,
      "sets": 2970,
      "erman": 2971,
      "Ġdistribution": 2972,
      "std": 2973,
      "sert": 2974,
      "Spec": 2975,
      "ĠAdd": 2976,
      "citep": 2977,
      "go": 2978,
      "Ġwhat": 2979,
      "Equals": 2980,
      "Row": 2981,
      "ĠReg": 2982,
      "Bundle": 2983,
      "Ġredu": 2984,
      "cription": 2985,
      "Ġ((": 2986,
      "Ġterms": 2987,
      "2010": 2988,
      "OS": 2989,
      "Mode": 2990,
      "format": 2991,
      "Ġpossible": 2992,
      "notation": 2993,
      "Ġsk": 2994,
      "ze": 2995,
      "igation": 2996,
      "update": 2997,
      "Ġmatrix": 2998,
      "ĠMay": 2999,
      "luster": 3000,
      "urity": 3001,
      "totype": 3002,
      "ĠGL": 3003,
      "ÑĤ": 3004,
      "ensor": 3005,
      "Ġfull": 3006,
      "response": 3007,
      "vi": 3008,
      "earch": 3009,
      "ldots": 3010,
      "<?": 3011,
      "(&": 3012,
      "ĠFe": 3013,
      "Ġmethods": 3014,
      "ABLE": 3015,
      "2020": 3016,
      "uccess": 3017,
      "Ġ]": 3018,
      "Ġcommun": 3019,
      "lap": 3020,
      ":</": 3021,
      "came": 3022,
      "ague": 3023,
      "Column": 3024,
      "2012": 3025,
      "vironment": 3026,
      "ĠAll": 3027,
      "styles": 3028,
      "pose": 3029,
      "ae": 3030,
      "Ġavailable": 3031,
      "ported": 3032,
      "sole": 3033,
      "Ġshort": 3034,
      "urch": 3035,
      "ĠGe": 3036,
      "skip": 3037,
      "aint": 3038,
      "Ġaccess": 3039,
      "lied": 3040,
      "First": 3041,
      "\"),": 3042,
      "Ġterm": 3043,
      "oto": 3044,
      "parameter": 3045,
      "Format": 3046,
      "Cache": 3047,
      "uro": 3048,
      "ĠCar": 3049,
      "ajor": 3050,
      "Child": 3051,
      "uk": 3052,
      "icro": 3053,
      "ught": 3054,
      "enn": 3055,
      "Ġpub": 3056,
      "ving": 3057,
      "igger": 3058,
      "Ġcontinu": 3059,
      "wise": 3060,
      "ĠApp": 3061,
      "appa": 3062,
      "acy": 3063,
      "08": 3064,
      "ĠIN": 3065,
      "Ġproperties": 3066,
      "ging": 3067,
      "Ġseveral": 3068,
      "///": 3069,
      "INT": 3070,
      "dev": 3071,
      "mail": 3072,
      "unk": 3073,
      "mount": 3074,
      "ending": 3075,
      "Ġarea": 3076,
      "Ġnear": 3077,
      "column": 3078,
      "Tag": 3079,
      "Ġhig": 3080,
      "ĠTe": 3081,
      "expect": 3082,
      "Ġsy": 3083,
      "Phi": 3084,
      "sm": 3085,
      "ways": 3086,
      "mut": 3087,
      "Ġdiv": 3088,
      "wards": 3089,
      "\").": 3090,
      "lies": 3091,
      "book": 3092,
      "ql": 3093,
      "attr": 3094,
      "Ġpri": 3095,
      "ĠInd": 3096,
      "OD": 3097,
      "```": 3098,
      "Ġfont": 3099,
      "number": 3100,
      "47": 3101,
      "alk": 3102,
      "Ġvol": 3103,
      ")]": 3104,
      "Layout": 3105,
      "Ent": 3106,
      "Ġschool": 3107,
      "ymme": 3108,
      "refix": 3109,
      "Dep": 3110,
      "Ġalign": 3111,
      "day": 3112,
      "ĠWorld": 3113,
      "irection": 3114,
      "level": 3115,
      "Ġfamily": 3116,
      "tool": 3117,
      "show": 3118,
      "Ġconstruct": 3119,
      "otential": 3120,
      "apping": 3121,
      "sembly": 3122,
      "Ġret": 3123,
      "Last": 3124,
      "Dec": 3125,
      "je": 3126,
      "ges": 3127,
      "udio": 3128,
      "mt": 3129,
      "Url": 3130,
      "clus": 3131,
      "Ġinternal": 3132,
      "remove": 3133,
      "CC": 3134,
      "}/": 3135,
      "alt": 3136,
      "Read": 3137,
      "Ġlib": 3138,
      "Ġindic": 3139,
      "Ġprint": 3140,
      "Valid": 3141,
      "UI": 3142,
      "ii": 3143,
      "served": 3144,
      "ament": 3145,
      "Length": 3146,
      "ĠMan": 3147,
      "Ġhelp": 3148,
      "Ġbir": 3149,
      "Ġstill": 3150,
      "Ġcomplet": 3151,
      "URL": 3152,
      "alth": 3153,
      "02": 3154,
      "Ã¡": 3155,
      "ended": 3156,
      "gest": 3157,
      "Ġrole": 3158,
      "Ġshows": 3159,
      "ĠJan": 3160,
      "Ġop": 3161,
      "Fe": 3162,
      "change": 3163,
      "Char": 3164,
      "instance": 3165,
      "Cl": 3166,
      "scale": 3167,
      "textit": 3168,
      "kappa": 3169,
      "reference": 3170,
      "Ġupdate": 3171,
      "Ġaround": 3172,
      "otimes": 3173,
      "Ð½": 3174,
      "ĠĠĠĠĠĠĠĠĠĠĠĠĠĠĠĠĠĠĠĠĠĠĠĠĠĠĠĠĠĠĠĠĠĠĠ": 3175,
      "_.": 3176,
      "Ġelements": 3177,
      "fficient": 3178,
      "iff": 3179,
      "Ġbecome": 3180,
      "ords": 3181,
      "').": 3182,
      "ases": 3183,
      "ternational": 3184,
      "II": 3185,
      "########": 3186,
      "Ġve": 3187,
      "ety": 3188,
      "ERR": 3189,
      "board": 3190,
      "Ġalbum": 3191,
      "Ġwindow": 3192,
      "Ġfootball": 3193,
      "Ġmodule": 3194,
      "nab": 3195,
      "parse": 3196,
      "ĠAnd": 3197,
      "ĠJohn": 3198,
      "\\%": 3199,
      "Ġdid": 3200,
      "Ġmet": 3201,
      "ĠNational": 3202,
      "process": 3203,
      "Ġnormal": 3204,
      "ãģ": 3205,
      "else": 3206,
      "off": 3207,
      "ĠWh": 3208,
      "oke": 3209,
      "Ġvector": 3210,
      "Ġred": 3211,
      "Ob": 3212,
      "idden": 3213,
      "ica": 3214,
      "subset": 3215,
      "ensions": 3216,
      "Ġla": 3217,
      "ĠHREF": 3218,
      "ĠCLASS": 3219,
      "ĠCal": 3220,
      "Collection": 3221,
      "stract": 3222,
      "cs": 3223,
      "offset": 3224,
      "num": 3225,
      "Ġintrodu": 3226,
      "pol": 3227,
      "UM": 3228,
      "})$": 3229,
      "Ġscal": 3230,
      "mat": 3231,
      "Ġhold": 3232,
      "][": 3233,
      "untime": 3234,
      "ĠCl": 3235,
      "lip": 3236,
      "mes": 3237,
      "Do": 3238,
      "TYPE": 3239,
      "tails": 3240,
      "Temp": 3241,
      "Ġspecified": 3242,
      "ĠGener": 3243,
      "49": 3244,
      "cache": 3245,
      "2008": 3246,
      "Ġdouble": 3247,
      "Ġcomb": 3248,
      "Ġsatisf": 3249,
      "Ġtyp": 3250,
      "Ġclose": 3251,
      "ERT": 3252,
      "Server": 3253,
      "=\"../../../../../": 3254,
      "Ġstates": 3255,
      "Ġbas": 3256,
      "Ġcap": 3257,
      "Sc": 3258,
      "ĠInt": 3259,
      "aving": 3260,
      "oriz": 3261,
      "Ġes": 3262,
      "Output": 3263,
      "ĠBe": 3264,
      "Back": 3265,
      "Ġren": 3266,
      "uture": 3267,
      "Ġoption": 3268,
      "Ġcatch": 3269,
      "ially": 3270,
      "Ġ!==": 3271,
      "Ġhost": 3272,
      "ĠThen": 3273,
      "06": 3274,
      "Ġdensity": 3275,
      "Sigma": 3276,
      "nonumber": 3277,
      "Ġdep": 3278,
      "output": 3279,
      "nabla": 3280,
      "ensuremath": 3281,
      "ordin": 3282,
      "mbers": 3283,
      "Address": 3284,
      "Ġband": 3285,
      "Ġtech": 3286,
      "\\|": 3287,
      "Ġver": 3288,
      "Ġobserv": 3289,
      "gan": 3290,
      "Ġmak": 3291,
      "ĠWar": 3292,
      "Ġfields": 3293,
      "46": 3294,
      "Ġconnection": 3295,
      "ĠDef": 3296,
      "Ġtake": 3297,
      "apter": 3298,
      "Ġserver": 3299,
      "IZ": 3300,
      "Ġbecame": 3301,
      "Ġinf": 3302,
      "Ġwrite": 3303,
      "2009": 3304,
      "kit": 3305,
      "unit": 3306,
      "Ġstatus": 3307,
      "sche": 3308,
      "Width": 3309,
      "Ġnone": 3310,
      "Ġalready": 3311,
      "dius": 3312,
      "++)": 3313,
      "licit": 3314,
      "Ġemp": 3315,
      "Ġperiod": 3316,
      "final": 3317,
      "dist": 3318,
      "Select": 3319,
      "Ġpair": 3320,
      "Ġclear": 3321,
      "Ġmean": 3322,
      "hether": 3323,
      "09": 3324,
      "rand": 3325,
      "window": 3326,
      "ĠGu": 3327,
      "ored": 3328,
      "scope": 3329,
      "Ġanother": 3330,
      ">>": 3331,
      "tact": 3332,
      "Ġstudy": 3333,
      "ĉĠĠĠ": 3334,
      "ames": 3335,
      "aged": 3336,
      "els": 3337,
      "Ġconstant": 3338,
      "volution": 3339,
      "TP": 3340,
      "coding": 3341,
      "rist": 3342,
      "COL": 3343,
      "exec": 3344,
      "Ġcallback": 3345,
      "Offset": 3346,
      "utils": 3347,
      "LI": 3348,
      "engine": 3349,
      "Ġrandom": 3350,
      "Ġlinear": 3351,
      "2007": 3352,
      "Ġcorresponding": 3353,
      "Provider": 3354,
      "Ġinterface": 3355,
      "2006": 3356,
      "aced": 3357,
      "igin": 3358,
      "oice": 3359,
      "Ġapprox": 3360,
      "Ġcomponent": 3361,
      "wrap": 3362,
      "Ġwant": 3363,
      "ĠDo": 3364,
      "ÑĢ": 3365,
      "AM": 3366,
      "Ġfail": 3367,
      "ino": 3368,
      "gl": 3369,
      "Ġsearch": 3370,
      "Ġcalcul": 3371,
      "ĠCounty": 3372,
      "assword": 3373,
      "des": 3374,
      "Ġrema": 3375,
      "Ġfree": 3376,
      "Ġmuch": 3377,
      "04": 3378,
      "HE": 3379,
      "Update": 3380,
      "Ġbest": 3381,
      "Ġcr": 3382,
      "Ġstrong": 3383,
      "Web": 3384,
      "DB": 3385,
      "Per": 3386,
      "=\"-": 3387,
      "Ġeither": 3388,
      "Ġstandard": 3389,
      "Ġproduct": 3390,
      "Ġorgan": 3391,
      "ĠNo": 3392,
      "Ac": 3393,
      "amil": 3394,
      "Ġsolution": 3395,
      "ĠHT": 3396,
      "sd": 3397,
      "aly": 3398,
      "ĠArray": 3399,
      "raft": 3400,
      "Mem": 3401,
      "prop": 3402,
      "olicy": 3403,
      "cit": 3404,
      "Target": 3405,
      "Ġknow": 3406,
      "ĠSchool": 3407,
      "only": 3408,
      "Ġobtained": 3409,
      "artifact": 3410,
      "split": 3411,
      "2000": 3412,
      "rum": 3413,
      "ux": 3414,
      "CON": 3415,
      "Ġlaw": 3416,
      "alf": 3417,
      "Ġassociated": 3418,
      "ado": 3419,
      "Ġformat": 3420,
      "Ġquery": 3421,
      "ĠSo": 3422,
      "67": 3423,
      "Run": 3424,
      "********************************": 3425,
      "su": 3426,
      "Ġperson": 3427,
      "Ġbel": 3428,
      "Ġtrack": 3429,
      "|-": 3430,
      ".$": 3431,
      "ĠSup": 3432,
      "\\!": 3433,
      "Ġ[]": 3434,
      "Ġfore": 3435,
      "classes": 3436,
      "Rem": 3437,
      "88": 3438,
      "ĠâĢľ": 3439,
      "ober": 3440,
      "ops": 3441,
      "Ġcare": 3442,
      "ĠState": 3443,
      "omic": 3444,
      "rad": 3445,
      "actions": 3446,
      "stral": 3447,
      "template": 3448,
      "ĠJul": 3449,
      "Ġargs": 3450,
      "long": 3451,
      "overnment": 3452,
      "Ġcreated": 3453,
      "Ġke": 3454,
      "Ġlook": 3455,
      "ĠAPI": 3456,
      "rypt": 3457,
      "erature": 3458,
      "Ġ**": 3459,
      "ĠID": 3460,
      "empty": 3461,
      "Ġcomplex": 3462,
      "logical": 3463,
      "ĠBrit": 3464,
      "ention": 3465,
      "}}{": 3466,
      "ĠYork": 3467,
      "omin": 3468,
      "pes": 3469,
      "ĠNov": 3470,
      "Ġdesign": 3471,
      "oment": 3472,
      "Ġtag": 3473,
      "Ġsepar": 3474,
      "mem": 3475,
      "Ġcopy": 3476,
      "Ġdescribed": 3477,
      "Ġpotential": 3478,
      "ĠSc": 3479,
      "Ġnav": 3480,
      "ba": 3481,
      "ĠCent": 3482,
      "thing": 3483,
      "lan": 3484,
      "istor": 3485,
      "Ġaccount": 3486,
      "03": 3487,
      "ĠRep": 3488,
      "Ġevents": 3489,
      "aded": 3490,
      "cing": 3491,
      "Tree": 3492,
      "Ġdefine": 3493,
      "Ġcontains": 3494,
      "ada": 3495,
      "float": 3496,
      "prototype": 3497,
      "idual": 3498,
      "ĉĉĉĉĉĉĉ": 3499,
      "aml": 3500,
      "dots": 3501,
      "cell": 3502,
      "Ġlower": 3503,
      "%%": 3504,
      "Ġold": 3505,
      "Ġhome": 3506,
      "stro": 3507,
      "Ġge": 3508,
      "65": 3509,
      "prime": 3510,
      "()->": 3511,
      "NAME": 3512,
      "Ġscale": 3513,
      "See": 3514,
      "Types": 3515,
      "(_": 3516,
      "Unit": 3517,
      "known": 3518,
      "Ġbook": 3519,
      "Ġload": 3520,
      "acity": 3521,
      "Ġtheory": 3522,
      "ped": 3523,
      "ĠMin": 3524,
      "Ġoperator": 3525,
      "ĠMet": 3526,
      "ront": 3527,
      "42": 3528,
      "ĠFile": 3529,
      "posed": 3530,
      "ãĥ": 3531,
      "ites": 3532,
      "ĠType": 3533,
      "Ġinterest": 3534,
      "uint": 3535,
      "Ġmem": 3536,
      "inner": 3537,
      "ference": 3538,
      "Ġrate": 3539,
      "ged": 3540,
      "tree": 3541,
      "./": 3542,
      "ĠLet": 3543,
      "lying": 3544,
      "Entity": 3545,
      "Ġflu": 3546,
      "Case": 3547,
      "urb": 3548,
      "Ġsong": 3549,
      "bind": 3550,
      "ftware": 3551,
      "cd": 3552,
      "Max": 3553,
      "ians": 3554,
      "Ġspe": 3555,
      "Ġtimes": 3556,
      "utions": 3557,
      "Ġpaper": 3558,
      "Ġfloat": 3559,
      "Ġworld": 3560,
      "2021": 3561,
      "Ġfiles": 3562,
      "Sto": 3563,
      "document": 3564,
      "Ġrow": 3565,
      "ung": 3566,
      "Ġchannel": 3567,
      "ustral": 3568,
      "CODE": 3569,
      "ĠPr": 3570,
      "Ġfilter": 3571,
      "ĠAug": 3572,
      "'),": 3573,
      "Vis": 3574,
      "ĠWest": 3575,
      "ULT": 3576,
      "na": 3577,
      "Position": 3578,
      "}-": 3579,
      "ias": 3580,
      "PC": 3581,
      "Utils": 3582,
      "formed": 3583,
      "cat": 3584,
      "values": 3585,
      "ĠSouth": 3586,
      "Ġequation": 3587,
      "IO": 3588,
      "met": 3589,
      "]);": 3590,
      "Ġweight": 3591,
      "bool": 3592,
      "Ġdeath": 3593,
      "\\[": 3594,
      ";\\": 3595,
      "Ġbelow": 3596,
      "ĠEX": 3597,
      "ĠThey": 3598,
      "{-": 3599,
      "rem": 3600,
      "ĠClass": 3601,
      "Header": 3602,
      "Ġbody": 3603,
      "Ġrest": 3604,
      "ience": 3605,
      "root": 3606,
      "Ġcommon": 3607,
      "Ġwon": 3608,
      "Ġbo": 3609,
      "Ġlight": 3610,
      "Level": 3611,
      "Ġvia": 3612,
      "IM": 3613,
      "strap": 3614,
      "layer": 3615,
      "ptember": 3616,
      "ories": 3617,
      "Ġmove": 3618,
      "Ġresol": 3619,
      "Ġanalysis": 3620,
      "95": 3621,
      "task": 3622,
      "control": 3623,
      "Ġuint": 3624,
      "tocol": 3625,
      "Open": 3626,
      "ampion": 3627,
      "tains": 3628,
      "iness": 3629,
      "([": 3630,
      "%;": 3631,
      "Ġexists": 3632,
      "Fig": 3633,
      "ĠDes": 3634,
      "itt": 3635,
      "={": 3636,
      "Min": 3637,
      "widetilde": 3638,
      "ND": 3639,
      "Ġsimp": 3640,
      "Ġperformance": 3641,
      "ĠâĢĶ": 3642,
      "Entry": 3643,
      "buffer": 3644,
      "Ġselect": 3645,
      "returns": 3646,
      "ĠOct": 3647,
      "ales": 3648,
      "ansport": 3649,
      "ĠYou": 3650,
      "ĠJanuary": 3651,
      "Ġcirc": 3652,
      "centering": 3653,
      "Ġlines": 3654,
      "match": 3655,
      "Ġlen": 3656,
      "Access": 3657,
      "/\\": 3658,
      "Ġlife": 3659,
      "Ġglobal": 3660,
      "artifactId": 3661,
      "ĠĠĠĠĠĠĠĠĠĠĠĠĠĠĠĠĠĠĠĠĠ": 3662,
      "=\"../../../../../../": 3663,
      "Ġdefinition": 3664,
      "stack": 3665,
      "Ġsche": 3666,
      "Ġphase": 3667,
      "aut": 3668,
      "oman": 3669,
      "itory": 3670,
      "Ġprovided": 3671,
      "Ġdate": 3672,
      "Interface": 3673,
      "Ġrespectively": 3674,
      "Ġfurther": 3675,
      "stit": 3676,
      "cover": 3677,
      "Vert": 3678,
      "Ġmember": 3679,
      "cle": 3680,
      "mi": 3681,
      "should": 3682,
      "otion": 3683,
      "Ġobj": 3684,
      "Ġsaid": 3685,
      "Ġphys": 3686,
      "Ġmusic": 3687,
      "Container": 3688,
      "river": 3689,
      "ĠLicense": 3690,
      "agement": 3691,
      "istry": 3692,
      "operator": 3693,
      "boot": 3694,
      "Ð¾Ð": 3695,
      "ĠLo": 3696,
      "nd": 3697,
      "ĠThese": 3698,
      "Ġimportant": 3699,
      "Po": 3700,
      "Sec": 3701,
      "Ġindu": 3702,
      "Ġroot": 3703,
      "Ġpolit": 3704,
      "Control": 3705,
      "Ġcoup": 3706,
      "encies": 3707,
      "Ġunit": 3708,
      "API": 3709,
      "Ġdiag": 3710,
      "Ġdetermin": 3711,
      "2005": 3712,
      "rest": 3713,
      "medi": 3714,
      "Ġcenter": 3715,
      "Connection": 3716,
      "Ġearly": 3717,
      "ĠGerman": 3718,
      "Ġxml": 3719,
      "Ġfeatures": 3720,
      "van": 3721,
      "77": 3722,
      "alle": 3723,
      "bin": 3724,
      "Ġsignific": 3725,
      "Ġ&=": 3726,
      "iddle": 3727,
      "Ġiter": 3728,
      "Ġreleased": 3729,
      "gr": 3730,
      "drop": 3731,
      "aves": 3732,
      "Ġturn": 3733,
      "files": 3734,
      "Ñģ": 3735,
      "oll": 3736,
      "Ġdynam": 3737,
      "Ġmer": 3738,
      "Ġless": 3739,
      "stylesheet": 3740,
      "Exec": 3741,
      "Configuration": 3742,
      "}]": 3743,
      "(-": 3744,
      "Ġleast": 3745,
      "Http": 3746,
      "conf": 3747,
      "Ġconditions": 3748,
      "Module": 3749,
      "FO": 3750,
      "example": 3751,
      "Ġtypes": 3752,
      "token": 3753,
      "Height": 3754,
      "device": 3755,
      "por": 3756,
      "Ġzero": 3757,
      "ula": 3758,
      "Next": 3759,
      "Ġlanguage": 3760,
      "though": 3761,
      "Ġexpl": 3762,
      "ocial": 3763,
      "ently": 3764,
      "Ġoffic": 3765,
      "Ġdiff": 3766,
      "asing": 3767,
      "Callback": 3768,
      "era": 3769,
      "alax": 3770,
      "second": 3771,
      "groupId": 3772,
      "ĠEq": 3773,
      "eral": 3774,
      "thon": 3775,
      "ils": 3776,
      "hel": 3777,
      "mar": 3778,
      "AA": 3779,
      "Ġmembers": 3780,
      "Write": 3781,
      "Ġnumer": 3782,
      "ĠMarch": 3783,
      "VAL": 3784,
      "Ġsimple": 3785,
      "ires": 3786,
      "Ġgood": 3787,
      "zeta": 3788,
      "Top": 3789,
      "Ġbuffer": 3790,
      "STR": 3791,
      "etch": 3792,
      "Ġspecific": 3793,
      "Description": 3794,
      "background": 3795,
      "ln": 3796,
      "PO": 3797,
      "Ġcar": 3798,
      "pril": 3799,
      "models": 3800,
      "modal": 3801,
      "Ġformer": 3802,
      "uggest": 3803,
      "Ġreference": 3804,
      "ĠUS": 3805,
      "Ġinstall": 3806,
      "Ġproof": 3807,
      "Ġsystems": 3808,
      "UP": 3809,
      "Ġbehav": 3810,
      "Ġcases": 3811,
      "resource": 3812,
      "author": 3813,
      "lege": 3814,
      "ĠMe": 3815,
      "Ġ{}": 3816,
      "patch": 3817,
      "ressed": 3818,
      "ĠWhen": 3819,
      "Ġdel": 3820,
      "KE": 3821,
      "ĠSeptember": 3822,
      "tabular": 3823,
      "ĠAugust": 3824,
      "Ġsequence": 3825,
      "Ġapproach": 3826,
      "cos": 3827,
      "eded": 3828,
      "Schema": 3829,
      "AV": 3830,
      "Ġappear": 3831,
      "Ġapplication": 3832,
      "CD": 3833,
      "Ġneg": 3834,
      "{{": 3835,
      "Ġflow": 3836,
      "Ġvirtual": 3837,
      "irm": 3838,
      "ication": 3839,
      "ECT": 3840,
      "debug": 3841,
      "Ġdistribut": 3842,
      "which": 3843,
      "before": 3844,
      "ĠTra": 3845,
      "Ã³": 3846,
      "Json": 3847,
      "ĠNS": 3848,
      "ĠUp": 3849,
      "mode": 3850,
      "ãĤ": 3851,
      "Ġpadding": 3852,
      "\"))": 3853,
      "note": 3854,
      "Ġstream": 3855,
      "Ġimpro": 3856,
      "Location": 3857,
      "border": 3858,
      "Search": 3859,
      "creen": 3860,
      "Ġreturned": 3861,
      "images": 3862,
      "DIR": 3863,
      "ĠOF": 3864,
      "Empty": 3865,
      "Ġconsist": 3866,
      "ised": 3867,
      "Ġmajor": 3868,
      "ĠData": 3869,
      "Settings": 3870,
      "Ġcustom": 3871,
      "ATION": 3872,
      "\\{": 3873,
      "Ġalgorithm": 3874,
      "Ġrad": 3875,
      "Ab": 3876,
      "Ġ*)": 3877,
      "Ġcour": 3878,
      "wait": 3879,
      "Ġsample": 3880,
      "}+": 3881,
      "ĠQu": 3882,
      "Ġprogram": 3883,
      "ĉĉĊ": 3884,
      "ĠSw": 3885,
      "Params": 3886,
      "Process": 3887,
      "Ġwhether": 3888,
      "ctx": 3889,
      "fl": 3890,
      "Ġfew": 3891,
      "Ġinstead": 3892,
      "ĠOctober": 3893,
      "2004": 3894,
      "&&": 3895,
      "Ġhy": 3896,
      "orizont": 3897,
      "$(": 3898,
      "ĠReturns": 3899,
      "Ġcy": 3900,
      "Ġarch": 3901,
      "Ġcla": 3902,
      "env": 3903,
      "IZE": 3904,
      "edia": 3905,
      "soft": 3906,
      "Ġconsidered": 3907,
      "atist": 3908,
      "Ġdeg": 3909,
      "Ġleg": 3910,
      "Ġtransition": 3911,
      "Ġauthor": 3912,
      "ctor": 3913,
      "Ġspecial": 3914,
      "chan": 3915,
      "Record": 3916,
      "None": 3917,
      "Ġhigher": 3918,
      "urope": 3919,
      "Ġoperation": 3920,
      "izing": 3921,
      "atio": 3922,
      "ĠPol": 3923,
      "Range": 3924,
      ":(": 3925,
      "urs": 3926,
      "Ġobjects": 3927,
      "cember": 3928,
      "Ġinit": 3929,
      "Thread": 3930,
      "ĠPart": 3931,
      "Ġatt": 3932,
      "à¤": 3933,
      "lugins": 3934,
      "imer": 3935,
      "dom": 3936,
      "Ġdone": 3937,
      "\\]": 3938,
      "Hash": 3939,
      "Ġlocation": 3940,
      "ĠNot": 3941,
      "tion": 3942,
      "ones": 3943,
      "ĠEd": 3944,
      "Ġdon": 3945,
      "85": 3946,
      "Change": 3947,
      "Ġreason": 3948,
      "ks": 3949,
      "Ġremove": 3950,
      "ured": 3951,
      "ĠJune": 3952,
      "Ġnamed": 3953,
      "ĠAssert": 3954,
      "izes": 3955,
      "equiv": 3956,
      "ĠFr": 3957,
      "ĠRec": 3958,
      "70": 3959,
      "aset": 3960,
      "Ġplayed": 3961,
      "():": 3962,
      "Ge": 3963,
      "43": 3964,
      "IGN": 3965,
      "Ġday": 3966,
      ";->": 3967,
      "aces": 3968,
      "Ġoffset": 3969,
      "Script": 3970,
      "2022": 3971,
      "Ġ~": 3972,
      "dep": 3973,
      "nected": 3974,
      "Ġpopulation": 3975,
      "imate": 3976,
      "Ġ::": 3977,
      "ĠNorth": 3978,
      "Ġcache": 3979,
      "uman": 3980,
      "Ġfilename": 3981,
      "ĠName": 3982,
      "Ġhouse": 3983,
      "sequ": 3984,
      "ounded": 3985,
      "ĠAustral": 3986,
      "Menu": 3987,
      "ĠCreate": 3988,
      "ham": 3989,
      "based": 3990,
      "expected": 3991,
      "Ġmeans": 3992,
      "lor": 3993,
      "Ġgr": 3994,
      "ÃŃ": 3995,
      "Ġgenerated": 3996,
      "Ġcrit": 3997,
      "fs": 3998,
      "born": 3999,
      "Ġcity": 4000,
      "Ġev": 4001,
      "Ġ\"\\": 4002,
      "orizontal": 4003,
      "Ġincluded": 4004,
      "Ġreceived": 4005,
      "Ġeas": 4006,
      "fill": 4007,
      "Ġcross": 4008,
      ":\"": 4009,
      "Ġfrequ": 4010,
      ")=\\": 4011,
      "arr": 4012,
      "Ġtraining": 4013,
      "Ag": 4014,
      "Ġstar": 4015,
      "Ġtemperature": 4016,
      "96": 4017,
      "auto": 4018,
      "?:": 4019,
      "mid": 4020,
      "apt": 4021,
      "Que": 4022,
      "Ġaverage": 4023,
      "ĠAfter": 4024,
      "dividual": 4025,
      "entity": 4026,
      "Ġselected": 4027,
      "thm": 4028,
      "Local": 4029,
      "ĠApril": 4030,
      "Ġiss": 4031,
      "Ġparams": 4032,
      "Properties": 4033,
      "ĠJuly": 4034,
      "$)": 4035,
      "}=\\": 4036,
      "SH": 4037,
      "Ġremo": 4038,
      "Ġ>=": 4039,
      "Work": 4040,
      ">,": 4041,
      "Ġfixed": 4042,
      "ĠLog": 4043,
      "uid": 4044,
      "Ġoverride": 4045,
      "Ġchildren": 4046,
      "COLOR": 4047,
      "Ġcollection": 4048,
      "MM": 4049,
      "Ġinvol": 4050,
      "XX": 4051,
      "\"));": 4052,
      "atform": 4053,
      "hent": 4054,
      "abs": 4055,
      "Ġide": 4056,
      "Ġbus": 4057,
      "Ġcompar": 4058,
      "ĠCity": 4059,
      "Ġattribute": 4060,
      "97": 4061,
      "bor": 4062,
      "Ġtransform": 4063,
      "emma": 4064,
      "irectory": 4065,
      "Ġmiss": 4066,
      "ilit": 4067,
      "Load": 4068,
      "gether": 4069,
      ",-": 4070,
      "Ġsymme": 4071,
      ")}\\": 4072,
      "Ġsignificant": 4073,
      "copy": 4074,
      "Ġwritten": 4075,
      "ĠTheorem": 4076,
      "Ġconfiguration": 4077,
      "ros": 4078,
      "Inst": 4079,
      "Project": 4080,
      "Ġcor": 4081,
      "Ġstep": 4082,
      "ĠSte": 4083,
      "appro": 4084,
      "Ġreturns": 4085,
      "sv": 4086,
      "ev": 4087,
      "make": 4088,
      "bert": 4089,
      "Ġinvest": 4090,
      "41": 4091,
      "kind": 4092,
      "Ġentry": 4093,
      "gment": 4094,
      "Ġwin": 4095,
      "docs": 4096,
      "ĠDE": 4097,
      "adow": 4098,
      "Ġpositive": 4099,
      "ha": 4100,
      "iform": 4101,
      "ota": 4102,
      "Right": 4103,
      "aries": 4104,
      "One": 4105,
      "Ġrender": 4106,
      "break": 4107,
      "Serial": 4108,
      "QL": 4109,
      "Ġfinite": 4110,
      "acing": 4111,
      ")^{": 4112,
      "Ġsolid": 4113,
      "Current": 4114,
      "ĠVal": 4115,
      "ĠBo": 4116,
      "Ġsite": 4117,
      "Pe": 4118,
      "ana": 4119,
      "system": 4120,
      "ided": 4121,
      "internal": 4122,
      "Option": 4123,
      "Op": 4124,
      "ĠSection": 4125,
      "ĠNovember": 4126,
      "pdf": 4127,
      "lice": 4128,
      "Ġmultiple": 4129,
      "ology": 4130,
      "Document": 4131,
      "atal": 4132,
      "ĠUR": 4133,
      "Ġrelative": 4134,
      "Ġcannot": 4135,
      "ably": 4136,
      "Ġthus": 4137,
      "lemma": 4138,
      "Dir": 4139,
      "stamp": 4140,
      "Ġhistory": 4141,
      "Ġevalu": 4142,
      "Integer": 4143,
      "ggle": 4144,
      "Ġsent": 4145,
      "render": 4146,
      "rr": 4147,
      "Ġactive": 4148,
      "Ġbegin": 4149,
      "Psi": 4150,
      "98": 4151,
      "afe": 4152,
      "onal": 4153,
      "tach": 4154,
      "ients": 4155,
      "nap": 4156,
      "Ġbuilt": 4157,
      "utes": 4158,
      "ĉĠ": 4159,
      "vant": 4160,
      "}^\\": 4161,
      "Impl": 4162,
      "IR": 4163,
      "tic": 4164,
      "auth": 4165,
      "Ġ...": 4166,
      "ĠDecember": 4167,
      "delete": 4168,
      "hash": 4169,
      "Can": 4170,
      "Port": 4171,
      "msg": 4172,
      "widget": 4173,
      "interface": 4174,
      "urg": 4175,
      "Ġdomain": 4176,
      "enum": 4177,
      "most": 4178,
      "weight": 4179,
      "gebra": 4180,
      "Ġassume": 4181,
      "2001": 4182,
      "Ġvarious": 4183,
      "Ġrelations": 4184,
      "like": 4185,
      "ĠTrans": 4186,
      "indent": 4187,
      "Ġdescription": 4188,
      "Font": 4189,
      "sin": 4190,
      "Ġ;": 4191,
      "SO": 4192,
      ".~": 4193,
      "ĠDis": 4194,
      "tax": 4195,
      "ws": 4196,
      "Ġbox": 4197,
      "Ġadditional": 4198,
      "ĠBritish": 4199,
      "=\"/": 4200,
      "Session": 4201,
      "vector": 4202,
      "Ġadded": 4203,
      "ĠĠĠĠĠĠĠĠĠĠĠĠĠĠĠĠĠĠĠĠ": 4204,
      "Ġequal": 4205,
      "&#": 4206,
      "Dat": 4207,
      "Ġalways": 4208,
      "icker": 4209,
      "(:": 4210,
      "Ġcompet": 4211,
      "Ġfit": 4212,
      "CL": 4213,
      "Ġdistance": 4214,
      "jection": 4215,
      "CP": 4216,
      "ometry": 4217,
      "}_\\": 4218,
      "Ġselection": 4219,
      "transform": 4220,
      "FT": 4221,
      "Ġvariable": 4222,
      "Rout": 4223,
      "ĠCont": 4224,
      "fil": 4225,
      "ĠMo": 4226,
      "cdots": 4227,
      "Async": 4228,
      "Render": 4229,
      "NavBar": 4230,
      "ĠRem": 4231,
      "Ġopp": 4232,
      ",\"": 4233,
      "Ġobserved": 4234,
      "}|": 4235,
      "coder": 4236,
      "Ġanaly": 4237,
      "Ġcluster": 4238,
      "tect": 4239,
      "panel": 4240,
      "=\"_": 4241,
      "Copy": 4242,
      "hover": 4243,
      "Ġrot": 4244,
      "ni": 4245,
      "ĠLeague": 4246,
      "global": 4247,
      "netic": 4248,
      "Ġhash": 4249,
      "bruary": 4250,
      "Ġsets": 4251,
      "footer": 4252,
      "Pos": 4253,
      "Ġempty": 4254,
      "Ġsyn": 4255,
      "Wh": 4256,
      "scr": 4257,
      "Ġgroups": 4258,
      "Ġfactor": 4259,
      "chie": 4260,
      "Ġgalax": 4261,
      "MO": 4262,
      "variant": 4263,
      "Ġplayer": 4264,
      "ĠKing": 4265,
      "bound": 4266,
      "Parser": 4267,
      "Ġlocated": 4268,
      "widehat": 4269,
      "Ġ['": 4270,
      "imensional": 4271,
      "century": 4272,
      "Ġcorrect": 4273,
      "There": 4274,
      "Ġchanges": 4275,
      "atural": 4276,
      "Ġnum": 4277,
      "Ġthird": 4278,
      "After": 4279,
      "ĠAct": 4280,
      "ĠDist": 4281,
      "ĠMon": 4282,
      "DL": 4283,
      "Ġland": 4284,
      "ART": 4285,
      "Ġindependent": 4286,
      "2003": 4287,
      "ĠSince": 4288,
      "ĠException": 4289,
      "68": 4290,
      "ĠEurope": 4291,
      "iet": 4292,
      "rench": 4293,
      "ampionship": 4294,
      "rep": 4295,
      "fr": 4296,
      "Deta": 4297,
      "Ġdraw": 4298,
      "{}": 4299,
      "range": 4300,
      "ries": 4301,
      "unter": 4302,
      "illion": 4303,
      "aging": 4304,
      "Icon": 4305,
      "ĠPer": 4306,
      "================================": 4307,
      "foo": 4308,
      "Ġhttps": 4309,
      "Ġphot": 4310,
      "ilities": 4311,
      "cp": 4312,
      "Device": 4313,
      "ĠBl": 4314,
      "clear": 4315,
      "Tool": 4316,
      "Helper": 4317,
      "Left": 4318,
      "{(": 4319,
      "}\\,": 4320,
      "Core": 4321,
      "join": 4322,
      "UB": 4323,
      "Store": 4324,
      "Ġpay": 4325,
      "send": 4326,
      "Ġassign": 4327,
      "'],": 4328,
      "Ġblack": 4329,
      "Ġtemplate": 4330,
      "Ġjav": 4331,
      "Ġbirths": 4332,
      "structor": 4333,
      "255": 4334,
      "Ġundefined": 4335,
      "sel": 4336,
      "dated": 4337,
      "Ġrelated": 4338,
      "locity": 4339,
      "Net": 4340,
      "ĠNote": 4341,
      "Ġarguments": 4342,
      "Match": 4343,
      "Ġhandle": 4344,
      "Ġtree": 4345,
      "types": 4346,
      "ĠWith": 4347,
      "greg": 4348,
      "ĠCor": 4349,
      "oose": 4350,
      "card": 4351,
      "war": 4352,
      "Reference": 4353,
      "normal": 4354,
      "ernel": 4355,
      "hib": 4356,
      "stand": 4357,
      "})\\": 4358,
      "Ġequival": 4359,
      "disabled": 4360,
      "equal": 4361,
      "Vari": 4362,
      "Ġput": 4363,
      "ĠBar": 4364,
      "ising": 4365,
      "57": 4366,
      "Ġstation": 4367,
      "ĠII": 4368,
      "idence": 4369,
      "coded": 4370,
      "Ġsupp": 4371,
      "plugin": 4372,
      "ĠChar": 4373,
      "ERROR": 4374,
      "toString": 4375,
      "Ġrespon": 4376,
      "webkit": 4377,
      "###": 4378,
      "cup": 4379,
      "textwidth": 4380,
      "rule": 4381,
      "Ġdetails": 4382,
      "---": 4383,
      "ĠBG": 4384,
      "ĠCO": 4385,
      "pag": 4386,
      "icture": 4387,
      "edge": 4388,
      "material": 4389,
      "Ġsurface": 4390,
      "ours": 4391,
      "Ġestablished": 4392,
      "Ġpredict": 4393,
      "Ġregular": 4394,
      "Sign": 4395,
      "Rect": 4396,
      "session": 4397,
      "Ġquest": 4398,
      "\\\"": 4399,
      "cf": 4400,
      "Ġ(\"": 4401,
      "ĠOne": 4402,
      "Ġprof": 4403,
      "Ġamount": 4404,
      "'>": 4405,
      "click": 4406,
      "ĠIm": 4407,
      "umbers": 4408,
      "Ġworks": 4409,
      "Ġscope": 4410,
      "ĠNe": 4411,
      "omorph": 4412,
      "ancel": 4413,
      "Ġtown": 4414,
      "levision": 4415,
      "TI": 4416,
      "fony": 4417,
      "Ġage": 4418,
      "Ġplan": 4419,
      "Ġrecent": 4420,
      "Ġedge": 4421,
      "PECT": 4422,
      "blockList": 4423,
      "bootstrap": 4424,
      "Ġcer": 4425,
      "zz": 4426,
      "EQ": 4427,
      "Ġoften": 4428,
      "Ġtool": 4429,
      "pop": 4430,
      "qquad": 4431,
      "Ġtoken": 4432,
      "ORT": 4433,
      "star": 4434,
      "support": 4435,
      "Ġexception": 4436,
      "^+": 4437,
      "quare": 4438,
      "Ġconstraint": 4439,
      "vm": 4440,
      "annotation": 4441,
      "ACK": 4442,
      "Ġtw": 4443,
      "Ġstore": 4444,
      "Ġhowever": 4445,
      "rec": 4446,
      "Ġsuggest": 4447,
      "Mon": 4448,
      "Ġseen": 4449,
      "Ġprom": 4450,
      "pis": 4451,
      "Ġinfo": 4452,
      "scal": 4453,
      "Track": 4454,
      "Ġresearch": 4455,
      "Ġargument": 4456,
      "Eng": 4457,
      "component": 4458,
      "padding": 4459,
      "IV": 4460,
      "ä¸": 4461,
      "uri": 4462,
      "PR": 4463,
      "Ġgovernment": 4464,
      "reet": 4465,
      "ranch": 4466,
      "then": 4467,
      "aa": 4468,
      "equals": 4469,
      "xis": 4470,
      "Ġdoc": 4471,
      "ĠInter": 4472,
      "ĠAb": 4473,
      "rew": 4474,
      "Ġmaximum": 4475,
      "Parameters": 4476,
      "ategy": 4477,
      "ictionary": 4478,
      "Us": 4479,
      "cr": 4480,
      "{{\\": 4481,
      "Title": 4482,
      "Ptr": 4483,
      "ĠFebruary": 4484,
      "Ġfilms": 4485,
      "Ġmoment": 4486,
      "Ġdecl": 4487,
      "legate": 4488,
      "itude": 4489,
      "}^{(": 4490,
      "tries": 4491,
      "igen": 4492,
      "ALL": 4493,
      "iven": 4494,
      "xspace": 4495,
      "settings": 4496,
      "ĠFigure": 4497,
      "2002": 4498,
      "Ġcompany": 4499,
      "icons": 4500,
      "pg": 4501,
      "Ġindividual": 4502,
      "Ġexact": 4503,
      "DD": 4504,
      "Mult": 4505,
      "Ġpolic": 4506,
      "export": 4507,
      "Ġdevice": 4508,
      "Ġque": 4509,
      "Ġlarger": 4510,
      "Ver": 4511,
      "Ġenter": 4512,
      "Ġ\\{": 4513,
      "success": 4514,
      "Ġexpression": 4515,
      "hem": 4516,
      "mathsf": 4517,
      "endar": 4518,
      "ĠChrist": 4519,
      "Ġprobability": 4520,
      "Ġproposed": 4521,
      "ids": 4522,
      "more": 4523,
      "itect": 4524,
      "pped": 4525,
      "Use": 4526,
      "uter": 4527,
      "Vector": 4528,
      "han": 4529,
      "Operation": 4530,
      "TER": 4531,
      "Order": 4532,
      "Ġcost": 4533,
      "||": 4534,
      "aven": 4535,
      "address": 4536,
      "Draw": 4537,
      "lier": 4538,
      "media": 4539,
      "Ġcomplete": 4540,
      "Ġamong": 4541,
      "Metadata": 4542,
      "tex": 4543,
      "Host": 4544,
      "ĠSan": 4545,
      "}:": 4546,
      "&=": 4547,
      "Ġattack": 4548,
      "ille": 4549,
      "Ġ})": 4550,
      "rown": 4551,
      "Template": 4552,
      "icol": 4553,
      "Ġsetting": 4554,
      "58": 4555,
      "Ġpur": 4556,
      "that": 4557,
      "Ġgen": 4558,
      "cogn": 4559,
      "ka": 4560,
      "Ġexperiment": 4561,
      "thers": 4562,
      "Ġcareer": 4563,
      "ides": 4564,
      "ulations": 4565,
      "vas": 4566,
      "ĠEnglish": 4567,
      "ATA": 4568,
      "Ġlate": 4569,
      "ause": 4570,
      "Te": 4571,
      "ĠTO": 4572,
      "asic": 4573,
      "Ġnodes": 4574,
      "Down": 4575,
      "Ġemb": 4576,
      "rees": 4577,
      "ti": 4578,
      "Iter": 4579,
      "ĠĠĠĠĠĠĠĠĠĠĠĠĠĠĠĠĠĠĠĠĠĠĠĠĠĠĠĠĠĠĠĠĠĠĠĠĠĠĠ": 4580,
      "ulture": 4581,
      "Ġfl": 4582,
      "American": 4583,
      "HO": 4584,
      "grad": 4585,
      "Definition": 4586,
      "Ġsix": 4587,
      "custom": 4588,
      "Ġecho": 4589,
      "Ġquantum": 4590,
      "toggle": 4591,
      "Classes": 4592,
      "Values": 4593,
      "coq": 4594,
      "INE": 4595,
      "Ġpattern": 4596,
      "fact": 4597,
      "Expression": 4598,
      "({\\": 4599,
      "ĠMap": 4600,
      "_;": 4601,
      "uck": 4602,
      "ĠMc": 4603,
      "GET": 4604,
      "exports": 4605,
      "Ġcover": 4606,
      "ĠBGCOLOR": 4607,
      "andid": 4608,
      ")/": 4609,
      "Ġspin": 4610,
      "False": 4611,
      "Ġmight": 4612,
      "Ġcomponents": 4613,
      "handle": 4614,
      "Ġpublished": 4615,
      "Ġgames": 4616,
      "Ġfive": 4617,
      "Ġcoordin": 4618,
      "ĠJSON": 4619,
      "Rel": 4620,
      "Ġexcept": 4621,
      "History": 4622,
      "Ġheld": 4623,
      "Debug": 4624,
      "Ġwomen": 4625,
      "dependency": 4626,
      "Sk": 4627,
      "Ġsupported": 4628,
      "Ġnote": 4629,
      "Ã¼": 4630,
      "Ġvideo": 4631,
      "after": 4632,
      "Ġaccord": 4633,
      "Ġbetter": 4634,
      "500": 4635,
      "Ġaccept": 4636,
      "Ġvariables": 4637,
      "-->": 4638,
      "dim": 4639,
      "ymfony": 4640,
      "Ġinline": 4641,
      "abor": 4642,
      "store": 4643,
      "Ġachie": 4644,
      "citet": 4645,
      "coin": 4646,
      "step": 4647,
      "Ġ$(\\": 4648,
      "ĠArm": 4649,
      "Ġswitch": 4650,
      "req": 4651,
      "ario": 4652,
      "Ġbegan": 4653,
      "raction": 4654,
      "Application": 4655,
      "gu": 4656,
      "ĠJap": 4657,
      "ĠĠĠĠĠĠĊ": 4658,
      "Has": 4659,
      "itions": 4660,
      "Ġweek": 4661,
      "cade": 4662,
      "ĠSch": 4663,
      "Ġonce": 4664,
      "prec": 4665,
      "access": 4666,
      "Ġtogether": 4667,
      "resol": 4668,
      "ĠSec": 4669,
      "Ġliter": 4670,
      "urren": 4671,
      "Invalid": 4672,
      "Ġgl": 4673,
      "Ġparse": 4674,
      "ĠHigh": 4675,
      "Ġcapt": 4676,
      "ording": 4677,
      "replace": 4678,
      "ridge": 4679,
      ">();": 4680,
      "alled": 4681,
      "Ġnecess": 4682,
      "Ġdr": 4683,
      "ards": 4684,
      "Ġlim": 4685,
      "ATH": 4686,
      "Ġpack": 4687,
      "Build": 4688,
      "Ġbit": 4689,
      "Ġcontinue": 4690,
      "ĠOR": 4691,
      "Handle": 4692,
      "Xml": 4693,
      "Stack": 4694,
      "eter": 4695,
      "assed": 4696,
      "framework": 4697,
      "tection": 4698,
      "strict": 4699,
      "Non": 4700,
      "86": 4701,
      "mic": 4702,
      "ulated": 4703,
      "Ġnamespace": 4704,
      "87": 4705,
      "record": 4706,
      "ĠCheck": 4707,
      "Are": 4708,
      "Api": 4709,
      "plugins": 4710,
      "ĠBut": 4711,
      "pository": 4712,
      "ĠJo": 4713,
      "=\"../../../": 4714,
      "ĠTable": 4715,
      "Ġprior": 4716,
      "Ġtook": 4717,
      "56": 4718,
      "ipel": 4719,
      "etime": 4720,
      "iag": 4721,
      "Ġhaving": 4722,
      "Sw": 4723,
      "eds": 4724,
      "ube": 4725,
      "rief": 4726,
      "uses": 4727,
      "Pl": 4728,
      "Ġclosed": 4729,
      "ems": 4730,
      "linear": 4731,
      "Ġmedia": 4732,
      "ĠMore": 4733,
      "Ġgive": 4734,
      "Ġrepresentation": 4735,
      "ĠHis": 4736,
      "sort": 4737,
      "ersist": 4738,
      "Ġwater": 4739,
      "ao": 4740,
      "ĠTrue": 4741,
      "mitted": 4742,
      "Ð°Ð": 4743,
      "Ġdelete": 4744,
      "umerate": 4745,
      "Ġho": 4746,
      "Ġclub": 4747,
      "Ġunique": 4748,
      "Ã¤": 4749,
      "Ġsuccessful": 4750,
      "DF": 4751,
      "Long": 4752,
      "Ġdatabase": 4753,
      "gs": 4754,
      "ssages": 4755,
      "approx": 4756,
      "Ġenvironment": 4757,
      "ixt": 4758,
      "ike": 4759,
      "Ġloss": 4760,
      "IF": 4761,
      "connect": 4762,
      "Ġfailed": 4763,
      "Ġjob": 4764,
      "Ġimages": 4765,
      "CS": 4766,
      ")-": 4767,
      "Ġcontainer": 4768,
      "BO": 4769,
      "category": 4770,
      "}\\\\": 4771,
      "Dialog": 4772,
      "astic": 4773,
      "stroy": 4774,
      "Ġfac": 4775,
      "1000": 4776,
      "Ġconver": 4777,
      "__(": 4778,
      "ĠDep": 4779,
      "Ġunsigned": 4780,
      "ĠSee": 4781,
      "Decl": 4782,
      "ondon": 4783,
      "ragment": 4784,
      "ORD": 4785,
      "`.": 4786,
      "Ġspecies": 4787,
      "dr": 4788,
      "}'": 4789,
      "}\"": 4790,
      "attribute": 4791,
      "fields": 4792,
      "argument": 4793,
      "Ġpract": 4794,
      "arried": 4795,
      "oted": 4796,
      "Ġapplic": 4797,
      "focus": 4798,
      "ĠDate": 4799,
      "cial": 4800,
      "year": 4801,
      "PT": 4802,
      "admin": 4803,
      "SION": 4804,
      "ĠEXPECT": 4805,
      "connection": 4806,
      "ĉĉĉĊ": 4807,
      "exception": 4808,
      "Ġdirection": 4809,
      "]$": 4810,
      "ĠTime": 4811,
      "ĠStr": 4812,
      "ĠPo": 4813,
      "Ġ&\\": 4814,
      "WE": 4815,
      "Ġvill": 4816,
      "1999": 4817,
      "Ġerrors": 4818,
      "Ġbuilding": 4819,
      "SET": 4820,
      "Ġengine": 4821,
      "byte": 4822,
      "Ġmemory": 4823,
      "operatorname": 4824,
      "ĠST": 4825,
      "Descript": 4826,
      "Ġheader": 4827,
      "Ġtoo": 4828,
      "ble": 4829,
      "ico": 4830,
      "vey": 4831,
      "Ġbyte": 4832,
      "FAULT": 4833,
      "Ġcamp": 4834,
      "Note": 4835,
      "Head": 4836,
      "ĠCON": 4837,
      "yal": 4838,
      "Ġinvoke": 4839,
      "Tests": 4840,
      "Argument": 4841,
      "Kind": 4842,
      "cmd": 4843,
      "}}(": 4844,
      "ios": 4845,
      "Ġboundary": 4846,
      "chron": 4847,
      "Ġsend": 4848,
      "Parent": 4849,
      "just": 4850,
      "Ġjson": 4851,
      "Ġoptim": 4852,
      "Ġsession": 4853,
      "PS": 4854,
      "Ġnames": 4855,
      "----------------------------------------------------------------": 4856,
      "~~~~": 4857,
      "Ġind": 4858,
      "Ġdirectory": 4859,
      "(*": 4860,
      "help": 4861,
      "lapse": 4862,
      "Pi": 4863,
      "ĠSub": 4864,
      "anner": 4865,
      "icip": 4866,
      "Ġable": 4867,
      "ccording": 4868,
      "ORM": 4869,
      "hr": 4870,
      "ĠLemma": 4871,
      "iding": 4872,
      "ĠMod": 4873,
      "Ġstop": 4874,
      "Ġaccur": 4875,
      "Ġmaterial": 4876,
      "rain": 4877,
      "ĠPe": 4878,
      "Ġtaken": 4879,
      "tip": 4880,
      "ker": 4881,
      "Ġos": 4882,
      "Ġfig": 4883,
      "fn": 4884,
      "Ġbytes": 4885,
      "Names": 4886,
      "achine": 4887,
      "Assert": 4888,
      "Ġrank": 4889,
      "Ġtransaction": 4890,
      "corre": 4891,
      "Var": 4892,
      "Ġlearning": 4893,
      "Ġchain": 4894,
      "Enabled": 4895,
      "lide": 4896,
      "shift": 4897,
      "Ġil": 4898,
      "Reader": 4899,
      "Ġattemp": 4900,
      "Ġacross": 4901,
      "Root": 4902,
      "Ġwhose": 4903,
      "Ġcoll": 4904,
      "boolean": 4905,
      "Ġsubject": 4906,
      "osed": 4907,
      "ĠLa": 4908,
      "ĠSy": 4909,
      "BC": 4910,
      "ĠĠĠĠĠĠĠĠĠĠĠĠĠĠĠĠĠĠ": 4911,
      ">.": 4912,
      "application": 4913,
      "attle": 4914,
      "Args": 4915,
      "lines": 4916,
      "RA": 4917,
      "uple": 4918,
      ";<": 4919,
      "Aut": 4920,
      "Ste": 4921,
      "Ġyield": 4922,
      "Ġrelease": 4923,
      "Ġalt": 4924,
      "Ġactiv": 4925,
      "Sy": 4926,
      "full": 4927,
      "ĠÃ": 4928,
      "xx": 4929,
      "Ġvolume": 4930,
      "Boolean": 4931,
      "free": 4932,
      "ĠFirst": 4933,
      "Ġ\"/": 4934,
      "aff": 4935,
      "Ġpanel": 4936,
      "otes": 4937,
      "'))": 4938,
      "Ġfuture": 4939,
      "Param": 4940,
      "riend": 4941,
      "Ġautom": 4942,
      "Ġproduction": 4943,
      "Ġuses": 4944,
      "avy": 4945,
      "double": 4946,
      "CM": 4947,
      "ford": 4948,
      "Ġlik": 4949,
      "Ġrepl": 4950,
      "59": 4951,
      "amera": 4952,
      "cloud": 4953,
      "bers": 4954,
      "inding": 4955,
      "Click": 4956,
      "Ġdevelopment": 4957,
      "cpp": 4958,
      "dx": 4959,
      "Body": 4960,
      "ney": 4961,
      "Ġ('": 4962,
      "CA": 4963,
      "Ġupper": 4964,
      "Ġsettings": 4965,
      "Ġrule": 4966,
      "dest": 4967,
      "oung": 4968,
      "allow": 4969,
      "rate": 4970,
      "Bytes": 4971,
      "hood": 4972,
      "quires": 4973,
      "sql": 4974,
      "Ġelectron": 4975,
      "unch": 4976,
      "agger": 4977,
      "ociation": 4978,
      "edit": 4979,
      "ĠCollege": 4980,
      "Edit": 4981,
      "icrosoft": 4982,
      "itter": 4983,
      "END": 4984,
      "Graph": 4985,
      "chor": 4986,
      "virtual": 4987,
      "ench": 4988,
      "}+\\": 4989,
      "inline": 4990,
      "Mock": 4991,
      "LIC": 4992,
      "SD": 4993,
      "Ġpackage": 4994,
      "JECT": 4995,
      "ĠEast": 4996,
      "callback": 4997,
      "Ġhalf": 4998,
      "Writer": 4999,
      "Ġ++": 5000,
      "Results": 5001,
      "acters": 5002,
      "Ġrunning": 5003,
      "Ġregister": 5004,
      "register": 5005,
      "ĠWilli": 5006,
      "EM": 5007,
      "Ġsay": 5008,
      "ington": 5009,
      "mock": 5010,
      "atures": 5011,
      "Ġweak": 5012,
      "Ġdirectly": 5013,
      "89": 5014,
      "Me": 5015,
      "mine": 5016,
      "Byte": 5017,
      "Ġrelation": 5018,
      "istration": 5019,
      "Ġins": 5020,
      "ĠAir": 5021,
      "Ġ${": 5022,
      "super": 5023,
      "ĠThus": 5024,
      "Ġnational": 5025,
      "Ġapply": 5026,
      "Fields": 5027,
      "ittle": 5028,
      "ĠHTML": 5029,
      "pub": 5030,
      "Ġground": 5031,
      "Ġsymbol": 5032,
      "arp": 5033,
      "hspace": 5034,
      "Ġclasses": 5035,
      "Ġnov": 5036,
      "Ġthread": 5037,
      "Ġforce": 5038,
      "mooth": 5039,
      "AND": 5040,
      "Ġreview": 5041,
      "URE": 5042,
      "Ġaccording": 5043,
      "radius": 5044,
      "}}{\\": 5045,
      "aul": 5046,
      "Ġair": 5047,
      "hy": 5048,
      "SSERT": 5049,
      "Delete": 5050,
      "iol": 5051,
      "ĠWeb": 5052,
      "language": 5053,
      "email": 5054,
      "PH": 5055,
      "~$": 5056,
      "Ġround": 5057,
      "Ġlayer": 5058,
      "ĠError": 5059,
      "Policy": 5060,
      "ĠMy": 5061,
      "\")]": 5062,
      "tw": 5063,
      "Ġequations": 5064,
      "Package": 5065,
      "}-\\": 5066,
      "Ġgives": 5067,
      "Ġstars": 5068,
      "Ġpat": 5069,
      "utable": 5070,
      "ography": 5071,
      "Num": 5072,
      "margin": 5073,
      "âĢĶ": 5074,
      "nost": 5075,
      "ĠFrench": 5076,
      "rupt": 5077,
      "Ġproduced": 5078,
      "items": 5079,
      "keyword": 5080,
      "Ġdes": 5081,
      "\\'": 5082,
      "ipp": 5083,
      "ĠLondon": 5084,
      "51": 5085,
      "road": 5086,
      "Rule": 5087,
      "Ġcentury": 5088,
      "Ġdenote": 5089,
      "ĠArt": 5090,
      "ĠAg": 5091,
      "Ġcoe": 5092,
      "install": 5093,
      "uff": 5094,
      "Ġprec": 5095,
      "Ġfar": 5096,
      "urnal": 5097,
      "Ġgrow": 5098,
      "neq": 5099,
      ";/": 5100,
      "aches": 5101,
      "Ġtherefore": 5102,
      "reshold": 5103,
      "omial": 5104,
      "TEST": 5105,
      "Ġ'/": 5106,
      "ĠHer": 5107,
      "Ġwallet": 5108,
      "54": 5109,
      "rip": 5110,
      "Ġkeep": 5111,
      "Ġdimension": 5112,
      "ĠPark": 5113,
      "Ġmsg": 5114,
      "Ġreport": 5115,
      "Red": 5116,
      "Ġallowed": 5117,
      "short": 5118,
      "Ġdegree": 5119,
      "zer": 5120,
      "]\\": 5121,
      "comment": 5122,
      "ipeline": 5123,
      "Ġperformed": 5124,
      "password": 5125,
      "napsh": 5126,
      "ius": 5127,
      "ĠBase": 5128,
      "Ġstarted": 5129,
      "Post": 5130,
      "Ġir": 5131,
      "anish": 5132,
      "Ġhard": 5133,
      "Ġign": 5134,
      "insert": 5135,
      "ĠĠĠĊ": 5136,
      "Ġallows": 5137,
      "SL": 5138,
      "Display": 5139,
      "Ġserved": 5140,
      "ĠRed": 5141,
      "umption": 5142,
      "ĠHar": 5143,
      "Ø§": 5144,
      "region": 5145,
      "Ġprovides": 5146,
      "Ġagre": 5147,
      "Ġeduc": 5148,
      "ĠLO": 5149,
      "Ġmechan": 5150,
      "track": 5151,
      "Tab": 5152,
      "Ġextension": 5153,
      "clusion": 5154,
      "hs": 5155,
      "Ġdescribe": 5156,
      "Since": 5157,
      "bul": 5158,
      "\"\"\"": 5159,
      "ief": 5160,
      "ĠSk": 5161,
      "76": 5162,
      "Ġ<=": 5163,
      "Ġ-\\": 5164,
      "400": 5165,
      "Ġactual": 5166,
      "high": 5167,
      "dropdown": 5168,
      "Ġinteger": 5169,
      "oost": 5170,
      "ellow": 5171,
      "Ġeffects": 5172,
      "ĠIO": 5173,
      "Ġ{};": 5174,
      "impl": 5175,
      "enumerate": 5176,
      "ĠOpen": 5177,
      "Ġholds": 5178,
      "Ġanno": 5179,
      "duc": 5180,
      "modules": 5181,
      "Ġscript": 5182,
      "white": 5183,
      "`,": 5184,
      "Ġda": 5185,
      "ĠĠĠĠĠĠĠĠĠĠĠĠĠĠĠĠĠĠĠĠĠĠĠĠĠ": 5186,
      "Ap": 5187,
      "FR": 5188,
      "Changed": 5189,
      "Doc": 5190,
      "home": 5191,
      "rd": 5192,
      "Ġjavax": 5193,
      "Mark": 5194,
      "ĠQue": 5195,
      "Ġnever": 5196,
      "\">&": 5197,
      "rome": 5198,
      "ĠRequ": 5199,
      "Ġweb": 5200,
      "Ġapplied": 5201,
      "desc": 5202,
      "Ġitems": 5203,
      "ira": 5204,
      "EXT": 5205,
      "forms": 5206,
      "Ġneeded": 5207,
      "ailed": 5208,
      "$}": 5209,
      "ĠNOT": 5210,
      "numer": 5211,
      "utor": 5212,
      "holder": 5213,
      "ĠEvent": 5214,
      ")}{": 5215,
      "That": 5216,
      "oph": 5217,
      "ama": 5218,
      "car": 5219,
      "HTML": 5220,
      "Channel": 5221,
      "protobuf": 5222,
      "Descriptor": 5223,
      "inn": 5224,
      "Rep": 5225,
      "channel": 5226,
      "resses": 5227,
      "ĠAmer": 5228,
      "Storage": 5229,
      "=\"\"": 5230,
      "leted": 5231,
      "Ġexplicit": 5232,
      "lems": 5233,
      "Ġbutton": 5234,
      "initial": 5235,
      "Meta": 5236,
      "bal": 5237,
      "ategor": 5238,
      "noindent": 5239,
      "Ġneigh": 5240,
      "Ġsignal": 5241,
      "ĠFrom": 5242,
      "irit": 5243,
      "Ġconvert": 5244,
      "Obj": 5245,
      "ĠHouse": 5246,
      "ilitary": 5247,
      "real": 5248,
      "NN": 5249,
      "Ġfund": 5250,
      "Ġdest": 5251,
      "Ġhtml": 5252,
      "atively": 5253,
      "ĠMark": 5254,
      "ĠDav": 5255,
      "ĠMath": 5256,
      "Ġbehavior": 5257,
      "BA": 5258,
      "results": 5259,
      "1998": 5260,
      "Ġelection": 5261,
      "Ġrather": 5262,
      "Extension": 5263,
      "ocket": 5264,
      "ua": 5265,
      "ĠUser": 5266,
      "Ġmen": 5267,
      "GE": 5268,
      "Widget": 5269,
      "allel": 5270,
      "Ġcertain": 5271,
      "Ġbtn": 5272,
      "serial": 5273,
      "KEY": 5274,
      "ĠLib": 5275,
      "uncil": 5276,
      "82": 5277,
      "72": 5278,
      "Ġexplo": 5279,
      "ris": 5280,
      "none": 5281,
      "ĠImp": 5282,
      "Ġwide": 5283,
      "Ġemploy": 5284,
      "comm": 5285,
      "uby": 5286,
      "Ġenough": 5287,
      "solute": 5288,
      "ount": 5289,
      "dimensional": 5290,
      "ering": 5291,
      "Ġcentral": 5292,
      "|^": 5293,
      "itemize": 5294,
      "Ġhapp": 5295,
      "ĠValue": 5296,
      "ads": 5297,
      "Ġcontribut": 5298,
      "oom": 5299,
      "OK": 5300,
      "52": 5301,
      "Cre": 5302,
      "}}}": 5303,
      "=\"@": 5304,
      "Ġotherwise": 5305,
      "theorem": 5306,
      "assets": 5307,
      "Cal": 5308,
      "Ġimplies": 5309,
      "Ġbroad": 5310,
      "ips": 5311,
      "Ġconnect": 5312,
      "lymp": 5313,
      "Custom": 5314,
      "band": 5315,
      "ĠAL": 5316,
      "Ġborn": 5317,
      "Ġbar": 5318,
      "SA": 5319,
      "Ã¶": 5320,
      "Ġcurrently": 5321,
      "Ġsoftware": 5322,
      ")+": 5323,
      "ĠPy": 5324,
      "ĠassertEquals": 5325,
      "Ġdistrict": 5326,
      "Ġnet": 5327,
      "Ġeffective": 5328,
      "incip": 5329,
      "newcommand": 5330,
      "wner": 5331,
      "IX": 5332,
      "JSON": 5333,
      "uel": 5334,
      "ĠChampionship": 5335,
      "'$": 5336,
      "à¸": 5337,
      "Ġincludes": 5338,
      "TED": 5339,
      "Each": 5340,
      "Ġsco": 5341,
      "84": 5342,
      "ĠGroup": 5343,
      "Queue": 5344,
      "ĠPres": 5345,
      "domain": 5346,
      "sumer": 5347,
      "AGE": 5348,
      "herit": 5349,
      "product": 5350,
      "=\"\">": 5351,
      "300": 5352,
      "Ġsplit": 5353,
      "Ġapi": 5354,
      "Ġpress": 5355,
      "ĠPort": 5356,
      "(!": 5357,
      "Ġtelevision": 5358,
      "multicol": 5359,
      "Ġgas": 5360,
      "Account": 5361,
      "Ġmatter": 5362,
      ")}$": 5363,
      "Ġmultip": 5364,
      "cret": 5365,
      "=(": 5366,
      "Ġservices": 5367,
      "scroll": 5368,
      "utf": 5369,
      "ĠRuss": 5370,
      "ĠURL": 5371,
      "Ġcompared": 5372,
      "Show": 5373,
      "Bound": 5374,
      "ledge": 5375,
      "ĠDistrict": 5376,
      "ĠRE": 5377,
      "Ġraise": 5378,
      "Job": 5379,
      "Ġmagnetic": 5380,
      "Ġcountry": 5381,
      "Ġadmin": 5382,
      "Ġtransfer": 5383,
      "Sum": 5384,
      "Symfony": 5385,
      "Ġnatural": 5386,
      "Ġpassed": 5387,
      "}}_": 5388,
      "Ġnorth": 5389,
      "Ġvelocity": 5390,
      "Ġconstruction": 5391,
      "Ġparts": 5392,
      "ĠNor": 5393,
      "]]": 5394,
      "Ġexisting": 5395,
      "Msg": 5396,
      "keys": 5397,
      "*)": 5398,
      "ills": 5399,
      "jquery": 5400,
      "multicolumn": 5401,
      "Ġang": 5402,
      "icles": 5403,
      "atives": 5404,
      "Ġdb": 5405,
      "ynamic": 5406,
      "grid": 5407,
      "Ġpy": 5408,
      "tsd": 5409,
      "When": 5410,
      "unsigned": 5411,
      "adoop": 5412,
      "======": 5413,
      "Ġpolicy": 5414,
      "Ġsort": 5415,
      "Ġdifference": 5416,
      "Ġpresented": 5417,
      "aring": 5418,
      "CTION": 5419,
      "ĠSome": 5420,
      "Ġbg": 5421,
      "rapper": 5422,
      "remark": 5423,
      "Clo": 5424,
      "Ġsources": 5425,
      "Ġgenerate": 5426,
      "Lock": 5427,
      "Ġnumbers": 5428,
      "Active": 5429,
      "Ġstack": 5430,
      "Ġ$.": 5431,
      "ĠĠĠĠĠĠĠĠĠĠĠĠĠĠĠĠĠĠĠĠĠĠĠĠ": 5432,
      "ully": 5433,
      "Transaction": 5434,
      "Ġentire": 5435,
      "Ġreported": 5436,
      "romise": 5437,
      "Ne": 5438,
      "Ġsmaller": 5439,
      "anded": 5440,
      "addr": 5441,
      "\\,\\": 5442,
      "shape": 5443,
      "thread": 5444,
      "site": 5445,
      "spring": 5446,
      "coming": 5447,
      "ĠCre": 5448,
      "uted": 5449,
      "[:": 5450,
      "ixel": 5451,
      "Ġoperations": 5452,
      "ional": 5453,
      "Ident": 5454,
      "Ġ),": 5455,
      "definition": 5456,
      "Now": 5457,
      "Ġshape": 5458,
      "Ġstrict": 5459,
      "crete": 5460,
      "Bl": 5461,
      "Dist": 5462,
      "ĠCup": 5463,
      "Ġprove": 5464,
      "Ġmaking": 5465,
      "serve": 5466,
      "ĠMed": 5467,
      "Found": 5468,
      "stats": 5469,
      "FILE": 5470,
      "fly": 5471,
      "queue": 5472,
      "1990": 5473,
      "umin": 5474,
      "lus": 5475,
      "anger": 5476,
      "Then": 5477,
      "ĠForm": 5478,
      "Flags": 5479,
      "lyph": 5480,
      "den": 5481,
      "unn": 5482,
      "=-": 5483,
      "atistics": 5484,
      "Ġcontaining": 5485,
      "minus": 5486,
      "Ġorigin": 5487,
      "Ġexpress": 5488,
      "Ġdays": 5489,
      "SU": 5490,
      "produ": 5491,
      "sive": 5492,
      "Ġacc": 5493,
      "Ġword": 5494,
      "Ġwhite": 5495,
      "Ġestablish": 5496,
      "ansion": 5497,
      "cons": 5498,
      "pisode": 5499,
      "vspace": 5500,
      "aws": 5501,
      "Ġvers": 5502,
      "PRE": 5503,
      "78": 5504,
      "ĠSpec": 5505,
      "win": 5506,
      "ertific": 5507,
      "{$": 5508,
      "Ġleading": 5509,
      "iforn": 5510,
      "ĠRef": 5511,
      "ĠPhil": 5512,
      "53": 5513,
      "atory": 5514,
      "ĠSum": 5515,
      "faces": 5516,
      "Ġalgebra": 5517,
      "Ġled": 5518,
      "ĠInternational": 5519,
      "Ġratio": 5520,
      "Ġconv": 5521,
      "Ġamp": 5522,
      "94": 5523,
      "covery": 5524,
      "Float": 5525,
      "icket": 5526,
      "Initial": 5527,
      "ĠService": 5528,
      "term": 5529,
      "Ġintroduced": 5530,
      "components": 5531,
      "Ġprofile": 5532,
      "Require": 5533,
      "Ġdistributed": 5534,
      "Ġcommunity": 5535,
      "ById": 5536,
      "inf": 5537,
      "Ġhuman": 5538,
      "Ġmock": 5539,
      "@\"": 5540,
      "160": 5541,
      "PATH": 5542,
      "VERSION": 5543,
      "ĠOut": 5544,
      "Timeout": 5545,
      "OM": 5546,
      "ulate": 5547,
      "Ġbasis": 5548,
      "Ġannoun": 5549,
      "Ġwave": 5550,
      "Main": 5551,
      "ena": 5552,
      "arily": 5553,
      "LS": 5554,
      ".)": 5555,
      "ĠIS": 5556,
      "Ġitself": 5557,
      "Ġdesc": 5558,
      "Ġspectrum": 5559,
      "Ġhom": 5560,
      "Ġauth": 5561,
      "ĠGeneral": 5562,
      "important": 5563,
      "Ġconsole": 5564,
      "Ġson": 5565,
      "dapt": 5566,
      "resents": 5567,
      "Ġproces": 5568,
      "primary": 5569,
      "ifornia": 5570,
      ")),": 5571,
      "Ġsolutions": 5572,
      "mathscr": 5573,
      "Network": 5574,
      "Ġworking": 5575,
      "Ġhistor": 5576,
      "Ġinstanceof": 5577,
      "Ġconc": 5578,
      "'.": 5579,
      "Ġmot": 5580,
      "Ġmoved": 5581,
      "So": 5582,
      "Ġchanged": 5583,
      "ara": 5584,
      "oms": 5585,
      "Ġkind": 5586,
      "256": 5587,
      "points": 5588,
      "Ġwar": 5589,
      "Ġ%}": 5590,
      "91": 5591,
      "burg": 5592,
      "cel": 5593,
      "loor": 5594,
      "ĠDefault": 5595,
      "ĠBer": 5596,
      "Ġvertex": 5597,
      "Send": 5598,
      "lands": 5599,
      "El": 5600,
      "iles": 5601,
      "ĠFalse": 5602,
      "horizontal": 5603,
      "ITY": 5604,
      "ĠModel": 5605,
      "bot": 5606,
      "Ġmetric": 5607,
      "ested": 5608,
      "txt": 5609,
      "Ġsouth": 5610,
      "Ġconnected": 5611,
      "pret": 5612,
      "Ġprimary": 5613,
      "legal": 5614,
      "Ġscen": 5615,
      "inally": 5616,
      "93": 5617,
      "Ġbusiness": 5618,
      "illa": 5619,
      "ĠDiv": 5620,
      "ĠPri": 5621,
      "hentication": 5622,
      "ĠSci": 5623,
      "prod": 5624,
      "Ġlibrary": 5625,
      "texttt": 5626,
      ".*": 5627,
      "BR": 5628,
      "Ġdied": 5629,
      "Pop": 5630,
      "92": 5631,
      "save": 5632,
      "oss": 5633,
      "oney": 5634,
      "tribution": 5635,
      "Lib": 5636,
      "ims": 5637,
      "Ġevolution": 5638,
      "Ġinflu": 5639,
      "Ġcharacters": 5640,
      "\\}$": 5641,
      "Ġinterval": 5642,
      "Ġdataset": 5643,
      "Ġdeveloped": 5644,
      "lg": 5645,
      "laces": 5646,
      "Logger": 5647,
      "Ġestimate": 5648,
      "Sing": 5649,
      "Activity": 5650,
      "hadoop": 5651,
      "family": 5652,
      "Ġimplementation": 5653,
      "ociety": 5654,
      "iments": 5655,
      "GS": 5656,
      "selected": 5657,
      "Ind": 5658,
      "cb": 5659,
      "va": 5660,
      "ĠTherefore": 5661,
      "]:": 5662,
      ")))": 5663,
      "Ġthough": 5664,
      "berg": 5665,
      "orge": 5666,
      "usion": 5667,
      "1996": 5668,
      "Perm": 5669,
      "ĠMich": 5670,
      "Ġ\\;": 5671,
      "Ġfall": 5672,
      "(){": 5673,
      "Any": 5674,
      "properties": 5675,
      "ĠRiver": 5676,
      "Ð»": 5677,
      "uler": 5678,
      "icult": 5679,
      "Items": 5680,
      "mas": 5681,
      "PA": 5682,
      "Ġradio": 5683,
      "Ġaff": 5684,
      "osen": 5685,
      "Ġmulti": 5686,
      "Ġneut": 5687,
      "Ġcame": 5688,
      "Ġyet": 5689,
      "CR": 5690,
      "Ġsitu": 5691,
      "avor": 5692,
      "Ġequivalent": 5693,
      ":\\": 5694,
      "bsite": 5695,
      "################": 5696,
      "ifying": 5697,
      "XT": 5698,
      "Ġcandid": 5699,
      "Ġusers": 5700,
      "()).": 5701,
      "Ġarchitect": 5702,
      "People": 5703,
      "ĠHo": 5704,
      "Pool": 5705,
      "Ġserial": 5706,
      "-$": 5707,
      "schema": 5708,
      "LOG": 5709,
      "Ġstage": 5710,
      "Ġtakes": 5711,
      "press": 5712,
      "Ġsure": 5713,
      "account": 5714,
      "Cur": 5715,
      "1997": 5716,
      "Bit": 5717,
      "limit": 5718,
      "yntax": 5719,
      "ifest": 5720,
      "anguage": 5721,
      "Ġpointer": 5722,
      "INFO": 5723,
      "ĠIndian": 5724,
      "Ġscreen": 5725,
      "////////////////////////////////": 5726,
      "sect": 5727,
      "yes": 5728,
      "Pol": 5729,
      ")).": 5730,
      "reater": 5731,
      "ques": 5732,
      "writ": 5733,
      "ĠMethod": 5734,
      "ĠEl": 5735,
      "_->": 5736,
      "ango": 5737,
      "ĠUse": 5738,
      "Ġreplace": 5739,
      "controller": 5740,
      "Ġapproxim": 5741,
      "$/": 5742,
      "hi": 5743,
      "Ġgreat": 5744,
      "Ġtests": 5745,
      "Loader": 5746,
      "GB": 5747,
      "Ġextra": 5748,
      "alysis": 5749,
      "Ġrem": 5750,
      "ĠKey": 5751,
      "useum": 5752,
      "++;": 5753,
      "TABLE": 5754,
      "Ġ[];": 5755,
      "norm": 5756,
      "Ġhandler": 5757,
      "throws": 5758,
      "Ġmakes": 5759,
      "enter": 5760,
      "Panel": 5761,
      "atically": 5762,
      "ĠĠĠĠĠĠĠĠĠĠĠĠĠĠĠĠĠĠĠĠĠĠ": 5763,
      "Resol": 5764,
      "ĠPl": 5765,
      "Ġbottom": 5766,
      "Auth": 5767,
      "corded": 5768,
      "Ġ(*": 5769,
      "gence": 5770,
      "ya": 5771,
      "Ġsocial": 5772,
      "alloc": 5773,
      "Scope": 5774,
      "Ġvillage": 5775,
      "ADD": 5776,
      "()));": 5777,
      "UID": 5778,
      "ĠField": 5779,
      "stop": 5780,
      "Ġsem": 5781,
      "CHE": 5782,
      "itional": 5783,
      "ĠFran": 5784,
      "Ġproblems": 5785,
      "Grid": 5786,
      "cour": 5787,
      "Only": 5788,
      "Ġng": 5789,
      "Ġbr": 5790,
      "napshot": 5791,
      "Ġphysical": 5792,
      "Ġexplain": 5793,
      "Ġdecre": 5794,
      "aign": 5795,
      "ached": 5796,
      "}},": 5797,
      "Ġwest": 5798,
      "ĠSim": 5799,
      "Ġinside": 5800,
      "Ġincrease": 5801,
      "aker": 5802,
      "63": 5803,
      "master": 5804,
      "pay": 5805,
      "Ġbecomes": 5806,
      "TS": 5807,
      "ĠCalifornia": 5808,
      "Ñĥ": 5809,
      "$_": 5810,
      "ROM": 5811,
      "Ġminimum": 5812,
      "ĠEngland": 5813,
      "Enum": 5814,
      "Ġ\\|": 5815,
      "Desc": 5816,
      "<\\": 5817,
      "Ġquestion": 5818,
      "typeof": 5819,
      "_,": 5820,
      "Struct": 5821,
      "tmp": 5822,
      ".__": 5823,
      "ili": 5824,
      "bon": 5825,
      "sters": 5826,
      "force": 5827,
      "Ġwords": 5828,
      "Ġneeds": 5829,
      "external": 5830,
      "network": 5831,
      "osite": 5832,
      "events": 5833,
      "![": 5834,
      "lustr": 5835,
      "Ġparticip": 5836,
      "ĠGr": 5837,
      "Ljava": 5838,
      "Ġloop": 5839,
      "Media": 5840,
      "inv": 5841,
      "hest": 5842,
      "black": 5843,
      "Ġhar": 5844,
      "profile": 5845,
      "Ġfrequency": 5846,
      "underline": 5847,
      "Ġdemon": 5848,
      "Ġmillion": 5849,
      "Ġprogra": 5850,
      "Pack": 5851,
      "SIZE": 5852,
      "auge": 5853,
      "pare": 5854,
      "flags": 5855,
      "My": 5856,
      "ously": 5857,
      "LP": 5858,
      "Ġradius": 5859,
      "Adapter": 5860,
      "webpack": 5861,
      "Ġalmost": 5862,
      "sequence": 5863,
      "editor": 5864,
      "stitute": 5865,
      "Internal": 5866,
      "ARY": 5867,
      "nes": 5868,
      "Ġrights": 5869,
      "sur": 5870,
      "crypt": 5871,
      "Ġfocus": 5872,
      "Ġcut": 5873,
      "wild": 5874,
      "Ġqual": 5875,
      "ifies": 5876,
      "iny": 5877,
      "Ġsatisfy": 5878,
      "amilton": 5879,
      "mediate": 5880,
      "anese": 5881,
      "Ġembed": 5882,
      "security": 5883,
      "Ġgoal": 5884,
      "Ġwait": 5885,
      "aching": 5886,
      "Directory": 5887,
      "Ġaffect": 5888,
      "Editor": 5889,
      "Events": 5890,
      "Ġsens": 5891,
      "trigger": 5892,
      "nce": 5893,
      "Ġarbit": 5894,
      "ï¼": 5895,
      "Mar": 5896,
      "Ġpeak": 5897,
      "Init": 5898,
      "ini": 5899,
      "NG": 5900,
      "Ġcref": 5901,
      "}</": 5902,
      "trm": 5903,
      "each": 5904,
      "çļ": 5905,
      "Security": 5906,
      "screen": 5907,
      ")));": 5908,
      "Ġnecessary": 5909,
      "Protocol": 5910,
      "ders": 5911,
      "Ġkeys": 5912,
      "reme": 5913,
      "ĠWork": 5914,
      "Ġothers": 5915,
      "arts": 5916,
      "Ġnuc": 5917,
      "manager": 5918,
      "Fil": 5919,
      "Member": 5920,
      "Ġunits": 5921,
      "Ġcompute": 5922,
      "Ġavoid": 5923,
      "ĠOb": 5924,
      "Ġlock": 5925,
      "Ġbal": 5926,
      "Ġcore": 5927,
      "MENT": 5928,
      "MAX": 5929,
      "Ġelem": 5930,
      "Ġconduct": 5931,
      "WS": 5932,
      "Ġdim": 5933,
      "zero": 5934,
      "Ret": 5935,
      "Conf": 5936,
      "ĠCour": 5937,
      "çļĦ": 5938,
      "Ġrequires": 5939,
      "Ġtreat": 5940,
      "attice": 5941,
      "ĠOper": 5942,
      "Living": 5943,
      "textrm": 5944,
      "aved": 5945,
      "Ġattr": 5946,
      "hern": 5947,
      "pid": 5948,
      "ĠText": 5949,
      "Ġdoesn": 5950,
      "sure": 5951,
      "Ġregions": 5952,
      "62": 5953,
      "ements": 5954,
      "ership": 5955,
      "tabs": 5956,
      "git": 5957,
      "picker": 5958,
      "auss": 5959,
      "SCR": 5960,
      "ights": 5961,
      "Ġrecogn": 5962,
      "ooks": 5963,
      "Ġgalaxies": 5964,
      "Ġvo": 5965,
      "kw": 5966,
      "ands": 5967,
      "Ġ{'": 5968,
      "echo": 5969,
      "Ġaway": 5970,
      "Ġattributes": 5971,
      "enced": 5972,
      "Ġcompleted": 5973,
      "Ġentity": 5974,
      "ĠAm": 5975,
      "job": 5976,
      "missions": 5977,
      "ynomial": 5978,
      "Ġnegative": 5979,
      "ivil": 5980,
      "Help": 5981,
      "artment": 5982,
      "Proxy": 5983,
      "Ġexternal": 5984,
      "Ġframework": 5985,
      "bes": 5986,
      "ĠMag": 5987,
      "cu": 5988,
      "omy": 5989,
      "total": 5990,
      "cut": 5991,
      "assertEqual": 5992,
      "essional": 5993,
      "Ġicon": 5994,
      "1995": 5995,
      "onic": 5996,
      "ĠAp": 5997,
      "andra": 5998,
      "inct": 5999,
      "Ġeast": 6000,
      "nology": 6001,
      "Jo": 6002,
      "ensive": 6003,
      "hold": 6004,
      "Ġbinary": 6005,
      "Ġrec": 6006,
      "Ġeditor": 6007,
      "Ġmid": 6008,
      "Ġtransport": 6009,
      "Windows": 6010,
      "81": 6011,
      "ĠEnd": 6012,
      "ĠHel": 6013,
      "Rece": 6014,
      "handler": 6015,
      "3333": 6016,
      "ael": 6017,
      "Ġpopular": 6018,
      "obile": 6019,
      "Browser": 6020,
      "Ġflux": 6021,
      "Ġdisk": 6022,
      "adian": 6023,
      "83": 6024,
      "->_": 6025,
      "aur": 6026,
      "Ġcred": 6027,
      "bytes": 6028,
      "equence": 6029,
      "unded": 6030,
      "ste": 6031,
      "matrix": 6032,
      "ĠOption": 6033,
      "Ġ_{": 6034,
      "assertEquals": 6035,
      "ixture": 6036,
      "Ġdetermined": 6037,
      "Ġfem": 6038,
      "'])": 6039,
      "Ġlearn": 6040,
      "Ġsamples": 6041,
      "Theta": 6042,
      "Ġoffer": 6043,
      "Ġoperators": 6044,
      "Ġfront": 6045,
      "Ġissue": 6046,
      "}^{-": 6047,
      "NavBarCell": 6048,
      "west": 6049,
      "ĠÂ": 6050,
      "jar": 6051,
      "Ġextract": 6052,
      "logger": 6053,
      "rf": 6054,
      "pk": 6055,
      "zon": 6056,
      "79": 6057,
      "Ġcontra": 6058,
      "....": 6059,
      "browser": 6060,
      "SR": 6061,
      "king": 6062,
      "ĠAustralia": 6063,
      "%%%%": 6064,
      "switch": 6065,
      "Ġparticle": 6066,
      "Ġproper": 6067,
      "isation": 6068,
      "Generic": 6069,
      "iting": 6070,
      "Ġ=========": 6071,
      "hidden": 6072,
      "atible": 6073,
      "ĠRepublic": 6074,
      "ission": 6075,
      "Files": 6076,
      "effect": 6077,
      "Ġbgcolor": 6078,
      "Ġchoice": 6079,
      "_(": 6080,
      "blue": 6081,
      "getName": 6082,
      "Ġderived": 6083,
      "Ġio": 6084,
      "Ġstudies": 6085,
      "Auto": 6086,
      "ude": 6087,
      "Ġwriting": 6088,
      "Ġflag": 6089,
      "[$": 6090,
      "Ġsl": 6091,
      "73": 6092,
      "Selector": 6093,
      "Ġdig": 6094,
      "configuration": 6095,
      "Ġresulting": 6096,
      "Ġdir": 6097,
      "Ġalloc": 6098,
      "}}_{": 6099,
      "ĠBra": 6100,
      "vo": 6101,
      "izations": 6102,
      "otal": 6103,
      "isk": 6104,
      "theme": 6105,
      "1980": 6106,
      "Matrix": 6107,
      "PP": 6108,
      "Ġstory": 6109,
      "IE": 6110,
      "Ġcompact": 6111,
      "IB": 6112,
      "subseteq": 6113,
      "footnote": 6114,
      "taint": 6115,
      "Ġmissing": 6116,
      "Ġcritical": 6117,
      "area": 6118,
      "ority": 6119,
      "Ġaltern": 6120,
      "ĠCopy": 6121,
      "ĠParty": 6122,
      "Ġtaking": 6123,
      "NotNull": 6124,
      "ellar": 6125,
      "ida": 6126,
      "Ðº": 6127,
      "fit": 6128,
      "NE": 6129,
      "Ġsigned": 6130,
      "Ġfunc": 6131,
      "Ġmale": 6132,
      "=\"${": 6133,
      "Ġstudents": 6134,
      "Close": 6135,
      "ĠMal": 6136,
      "UTF": 6137,
      "Ġstre": 6138,
      "BUG": 6139,
      "parameters": 6140,
      "contin": 6141,
      "Iterator": 6142,
      "Ġunderstand": 6143,
      "Ġdemonstr": 6144,
      "angular": 6145,
      "Pattern": 6146,
      "Ġarr": 6147,
      "Ġplatform": 6148,
      "orary": 6149,
      "Ġabsolute": 6150,
      "Keys": 6151,
      "Ġremoved": 6152,
      "Plugin": 6153,
      "ĠTODO": 6154,
      "ja": 6155,
      "ĠAf": 6156,
      "ĠBr": 6157,
      "PAR": 6158,
      "Duration": 6159,
      "Ġtheorem": 6160,
      "TC": 6161,
      "ĠBel": 6162,
      "STAT": 6163,
      "Ġspeed": 6164,
      "Before": 6165,
      "Ġinfin": 6166,
      "Database": 6167,
      "Ġinner": 6168,
      "och": 6169,
      "','": 6170,
      "oral": 6171,
      "Ġscheme": 6172,
      "ville": 6173,
      "entials": 6174,
      "umed": 6175,
      "FC": 6176,
      "74": 6177,
      "ĠInitial": 6178,
      "Ġfn": 6179,
      "antic": 6180,
      "Ġcast": 6181,
      "Ġofficial": 6182,
      "Layer": 6183,
      "Ġderiv": 6184,
      "Ġ×": 6185,
      "ĠVAL": 6186,
      "_+": 6187,
      "Ġwaves": 6188,
      "Expr": 6189,
      "actor": 6190,
      "deed": 6191,
      "Inv": 6192,
      "direct": 6193,
      "Ġobservations": 6194,
      "ĠVer": 6195,
      "Ġcounter": 6196,
      "Ġencoding": 6197,
      "spe": 6198,
      "Ġhidden": 6199,
      "Ġinteraction": 6200,
      "ĠLandroid": 6201,
      "dp": 6202,
      "km": 6203,
      "ĠArg": 6204,
      "Ġemission": 6205,
      "Ġepisode": 6206,
      "sph": 6207,
      "Ġ$\\{": 6208,
      "ought": 6209,
      "Ġsold": 6210,
      "ele": 6211,
      "rift": 6212,
      "Scroll": 6213,
      "swarm": 6214,
      "ĠIP": 6215,
      "Ġstructures": 6216,
      "Det": 6217,
      "Ġuniform": 6218,
      "ping": 6219,
      "Ġinternational": 6220,
      "Ġstarting": 6221,
      "overnor": 6222,
      "Ġincreasing": 6223,
      "Vol": 6224,
      "Common": 6225,
      "Failed": 6226,
      "Ġwriter": 6227,
      "collection": 6228,
      "69": 6229,
      "Java": 6230,
      "fail": 6231,
      "Ġrules": 6232,
      "Ġpast": 6233,
      "ToString": 6234,
      "contains": 6235,
      "ĠĠĠĠĠĠĠĠĠĠĠĠĠĠĠĠĠĠĠĠĠĠĠĠĠĠĠĠĠĠĠĠĠĠĠĠĠĠĠĠĠĠĠ": 6236,
      "Ġimplements": 6237,
      "ĠAssembly": 6238,
      "wildfly": 6239,
      "Ġcurve": 6240,
      "Rest": 6241,
      "pher": 6242,
      "ewidth": 6243,
      "Ġ(-": 6244,
      "bad": 6245,
      "props": 6246,
      "ĠNode": 6247,
      "aps": 6248,
      "thern": 6249,
      "Symbol": 6250,
      "Ġfather": 6251,
      "Ġdifficult": 6252,
      "yr": 6253,
      "XML": 6254,
      "uting": 6255,
      "ĠReact": 6256,
      "limits": 6257,
      "Section": 6258,
      "exists": 6259,
      "Ġ($\\": 6260,
      "peat": 6261,
      "Ġcomment": 6262,
      "Ġwent": 6263,
      "Pointer": 6264,
      "61": 6265,
      "1994": 6266,
      "Ġviol": 6267,
      "dro": 6268,
      "za": 6269,
      "ĠCanada": 6270,
      "ĠInst": 6271,
      "Ġdebug": 6272,
      "deg": 6273,
      "Ã§": 6274,
      "CRE": 6275,
      "Details": 6276,
      "Mapping": 6277,
      "\",\"": 6278,
      "Ġrepresents": 6279,
      "tools": 6280,
      "Ġeigen": 6281,
      "Ġtradition": 6282,
      "ĠIndia": 6283,
      "wrapper": 6284,
      "Ġcategory": 6285,
      "ĠOther": 6286,
      "Ġdetermine": 6287,
      "getElement": 6288,
      "colLast": 6289,
      "ĠOlymp": 6290,
      "navList": 6291,
      "ĠFrance": 6292,
      "sess": 6293,
      "Ġuseful": 6294,
      "Ġinvestig": 6295,
      "lers": 6296,
      "ratic": 6297,
      "You": 6298,
      ";\"": 6299,
      "loader": 6300,
      "hom": 6301,
      "ĠGra": 6302,
      "Ġcontract": 6303,
      "dialog": 6304,
      "ĠNO": 6305,
      "Ġlive": 6306,
      "Ġlonger": 6307,
      "tical": 6308,
      "ĠConfig": 6309,
      "Ġcompare": 6310,
      "ket": 6311,
      "Ġeq": 6312,
      "Ġrelationship": 6313,
      "hide": 6314,
      "ĠAward": 6315,
      "ACE": 6316,
      "ĠAccording": 6317,
      "Ġtransp": 6318,
      "Ġusually": 6319,
      "Memory": 6320,
      "aration": 6321,
      "Ġgauge": 6322,
      "Ġalthough": 6323,
      "Ġvertical": 6324,
      "Ġaxis": 6325,
      ")\">": 6326,
      "PORT": 6327,
      "Ġtechn": 6328,
      "Ġsmooth": 6329,
      "ĠPal": 6330,
      "Ġproced": 6331,
      "ĉĉĉĉĉĉĉĉĉ": 6332,
      "Ġdeaths": 6333,
      "metadata": 6334,
      "ĠAc": 6335,
      "Attributes": 6336,
      "Ġgrav": 6337,
      "Feature": 6338,
      "Ġannounced": 6339,
      "Dest": 6340,
      "Success": 6341,
      "Ġnoise": 6342,
      "ĠAmerica": 6343,
      "MB": 6344,
      "shadow": 6345,
      "ashed": 6346,
      "Ġ\"\"": 6347,
      "Ġoutside": 6348,
      "found": 6349,
      "protocol": 6350,
      "Ġol": 6351,
      "complete": 6352,
      "Second": 6353,
      "dagger": 6354,
      "ifold": 6355,
      "ĠRoman": 6356,
      "apply": 6357,
      "Scale": 6358,
      "Engine": 6359,
      "colFirst": 6360,
      "trie": 6361,
      "Ġunknown": 6362,
      "ĠSto": 6363,
      "axis": 6364,
      "Ġareas": 6365,
      "ĠChurch": 6366,
      ")|": 6367,
      "Ġresources": 6368,
      "SCRIP": 6369,
      "Ġfix": 6370,
      "Ġ\"<": 6371,
      "elli": 6372,
      "Ġawait": 6373,
      "DS": 6374,
      "Ġbelong": 6375,
      "ifications": 6376,
      "Ġensure": 6377,
      "Ġdepends": 6378,
      "printf": 6379,
      "Fail": 6380,
      "Ġcompan": 6381,
      "Ġbuilder": 6382,
      "Ġgrid": 6383,
      "Ġsimply": 6384,
      "Ġmatches": 6385,
      "Transform": 6386,
      "iterator": 6387,
      "rated": 6388,
      "DA": 6389,
      "vc": 6390,
      "ĠEuropean": 6391,
      "bits": 6392,
      "Ġten": 6393,
      "dule": 6394,
      "circle": 6395,
      "ropy": 6396,
      "Ġbeh": 6397,
      "seud": 6398,
      "Ġhealth": 6399,
      "kens": 6400,
      "collapse": 6401,
      "Ġinvalid": 6402,
      "Ġcharge": 6403,
      "ancell": 6404,
      "ĠVersion": 6405,
      "ĠSm": 6406,
      "ĠWilliam": 6407,
      "ĠCall": 6408,
      "pass": 6409,
      "Ġ$|": 6410,
      "Ġasync": 6411,
      "Ġmeet": 6412,
      "Ġsetup": 6413,
      "Ġxmlns": 6414,
      "para": 6415,
      "Sync": 6416,
      "Ġclassical": 6417,
      "Ġdomin": 6418,
      "Double": 6419,
      "Repository": 6420,
      "Ġdiscus": 6421,
      "while": 6422,
      "Ġri": 6423,
      "ĠArmy": 6424,
      "ĠÎ": 6425,
      "Ġreplaced": 6426,
      "omas": 6427,
      "Ġreq": 6428,
      "provider": 6429,
      "Route": 6430,
      "anging": 6431,
      "atalog": 6432,
      "gba": 6433,
      "Ġlost": 6434,
      "alo": 6435,
      "71": 6436,
      ")\"": 6437,
      "aligned": 6438,
      "}%": 6439,
      "Parse": 6440,
      "rb": 6441,
      "inet": 6442,
      "Ġeff": 6443,
      "istr": 6444,
      "Ġbranch": 6445,
      "counter": 6446,
      "Ġcome": 6447,
      "loop": 6448,
      "notations": 6449,
      "ingu": 6450,
      "Ġdiscuss": 6451,
      "Ġsufficient": 6452,
      "Sim": 6453,
      "rot": 6454,
      "ĠĠĠĠĠĠĠĠĠĠĠĠĠĠĠĠĠĠĠĠĠĠĠĠĠĠĠĠĠ": 6455,
      "ectors": 6456,
      "Ġcomparison": 6457,
      "PL": 6458,
      "ano": 6459,
      "Ġcoq": 6460,
      "Rad": 6461,
      "Ġhence": 6462,
      "ĠHere": 6463,
      "ening": 6464,
      "Print": 6465,
      "ĠPre": 6466,
      "Ġbig": 6467,
      "filename": 6468,
      "ĠDem": 6469,
      "construct": 6470,
      "uit": 6471,
      "Ġupon": 6472,
      "Ġrestrict": 6473,
      "1992": 6474,
      "Eq": 6475,
      "Character": 6476,
      "ymp": 6477,
      "ĠStreet": 6478,
      "Ġvisible": 6479,
      "atial": 6480,
      "ĠBuild": 6481,
      "'\\": 6482,
      "ĠEar": 6483,
      "ĠView": 6484,
      "ago": 6485,
      "Ġadapt": 6486,
      "abilities": 6487,
      "Ġmanager": 6488,
      "Remove": 6489,
      "Ġstudied": 6490,
      "agraph": 6491,
      "Ġparticles": 6492,
      "SER": 6493,
      "ĠCouncil": 6494,
      "Profile": 6495,
      "ceed": 6496,
      "fixed": 6497,
      "Ġtensor": 6498,
      "ertificate": 6499,
      "Ġradi": 6500,
      "parser": 6501,
      "Ġ(_": 6502,
      "Ġdriv": 6503,
      "setminus": 6504,
      "Ġuncer": 6505,
      "protected": 6506,
      "ued": 6507,
      "Ġnative": 6508,
      "decl": 6509,
      "Depend": 6510,
      "åı": 6511,
      "green": 6512,
      "Ġmention": 6513,
      "1970": 6514,
      "Ġmaps": 6515,
      "Ġbelie": 6516,
      "Ġfire": 6517,
      "Ġshift": 6518,
      "LECT": 6519,
      "NULL": 6520,
      "Ġpartial": 6521,
      "prefix": 6522,
      ".'": 6523,
      "Ġkm": 6524,
      "Full": 6525,
      "eth": 6526,
      "iders": 6527,
      "1993": 6528,
      "Ġsymmetry": 6529,
      "dy": 6530,
      "Ġblocks": 6531,
      "Ġextended": 6532,
      "lis": 6533,
      "Background": 6534,
      "ĠAnt": 6535,
      "ĠUpdate": 6536,
      "ĠCode": 6537,
      "ura": 6538,
      "Ġbasic": 6539,
      "Ġtopo": 6540,
      "Ġprevent": 6541,
      "jpg": 6542,
      "Ġmarket": 6543,
      "gi": 6544,
      "ilation": 6545,
      "Ġhyper": 6546,
      "Ġflat": 6547,
      "Ġfinally": 6548,
      "Ġ=======": 6549,
      "Pay": 6550,
      "Ġprogress": 6551,
      "rine": 6552,
      "Ġcontinuous": 6553,
      "ĠTask": 6554,
      "rase": 6555,
      "dates": 6556,
      "IMP": 6557,
      "Ġ\",": 6558,
      "contrib": 6559,
      "Diag": 6560,
      "Ġ[[": 6561,
      "ĠGoogle": 6562,
      "ajax": 6563,
      "FIG": 6564,
      "Ġpreviously": 6565,
      "shall": 6566,
      "More": 6567,
      "PY": 6568,
      "Ġgoing": 6569,
      "ategories": 6570,
      "scribe": 6571,
      "Ġpolitical": 6572,
      "ĠSing": 6573,
      "128": 6574,
      "headers": 6575,
      "Members": 6576,
      "Year": 6577,
      "VM": 6578,
      "reset": 6579,
      "READ": 6580,
      "Sche": 6581,
      "ĠĠĠĠĠĠĠĠĠĠĠĠĠĠĠĠĠĠĠĠĠĠĠĠĠĠ": 6582,
      "eff": 6583,
      "CI": 6584,
      "respon": 6585,
      "Ġexamples": 6586,
      "Ġecon": 6587,
      "bullet": 6588,
      "rote": 6589,
      "ĠFunction": 6590,
      "ULE": 6591,
      "VALUE": 6592,
      "rey": 6593,
      "Av": 6594,
      "(__": 6595,
      "ĠPublic": 6596,
      "children": 6597,
      "allclasses": 6598,
      "itar": 6599,
      "oplus": 6600,
      "linewidth": 6601,
      "Ġlargest": 6602,
      "HER": 6603,
      "Ġlikely": 6604,
      "utive": 6605,
      "conn": 6606,
      "ONE": 6607,
      "ĠRead": 6608,
      "mitte": 6609,
      "celer": 6610,
      "Ġdeal": 6611,
      "Ġetc": 6612,
      "ria": 6613,
      "Ġsegment": 6614,
      "stable": 6615,
      "Ġopened": 6616,
      "Ġconstraints": 6617,
      "omorphism": 6618,
      "Ġgain": 6619,
      ";}": 6620,
      "vs": 6621,
      "Ġcourse": 6622,
      "Ġess": 6623,
      "tml": 6624,
      "Ġsizeof": 6625,
      "Ġfollowed": 6626,
      "ĠWhile": 6627,
      "ares": 6628,
      "123": 6629,
      "ĠIOException": 6630,
      "illing": 6631,
      "Ġclean": 6632,
      "las": 6633,
      "Ġchall": 6634,
      "pool": 6635,
      "^-": 6636,
      "trics": 6637,
      "Func": 6638,
      "oring": 6639,
      "typedef": 6640,
      "wedge": 6641,
      "SY": 6642,
      "Ġconcept": 6643,
      "Password": 6644,
      "outhern": 6645,
      "ĠMor": 6646,
      "execute": 6647,
      "rial": 6648,
      "Ġsequ": 6649,
      "Ġillustr": 6650,
      "CHECK": 6651,
      "picture": 6652,
      "Ġblue": 6653,
      "Ġpolynomial": 6654,
      "ĠAR": 6655,
      "SQL": 6656,
      "rian": 6657,
      "Space": 6658,
      "pic": 6659,
      "ĠHamilton": 6660,
      "Ġnovel": 6661,
      "reek": 6662,
      "Ġpassword": 6663,
      "\\}": 6664,
      "unicip": 6665,
      "Ġdeep": 6666,
      "Ġ?>": 6667,
      "Ġconstructor": 6668,
      "Opt": 6669,
      "nil": 6670,
      "required": 6671,
      "Ġenabled": 6672,
      "Ġsave": 6673,
      "stry": 6674,
      "ĠJames": 6675,
      "ko": 6676,
      "ffff": 6677,
      "ĠCenter": 6678,
      "MD": 6679,
      "ensus": 6680,
      "gg": 6681,
      "ye": 6682,
      "fficients": 6683,
      "^{-\\": 6684,
      "ĠRich": 6685,
      "generated": 6686,
      "eries": 6687,
      "Condition": 6688,
      "Ġwhole": 6689,
      "well": 6690,
      "Ġstatement": 6691,
      "Ġutil": 6692,
      "izable": 6693,
      "Ġmotion": 6694,
      "Ġformed": 6695,
      "Ġbounded": 6696,
      "Ġroute": 6697,
      "Socket": 6698,
      "xs": 6699,
      "Ġpert": 6700,
      "rie": 6701,
      "ani": 6702,
      "Ġplot": 6703,
      "Ġ$[": 6704,
      ">:": 6705,
      "flu": 6706,
      "tbody": 6707,
      "spect": 6708,
      "Ġtypeof": 6709,
      "WA": 6710,
      "attributes": 6711,
      "ĠId": 6712,
      "ĠIE": 6713,
      "wood": 6714,
      "svg": 6715,
      "------------": 6716,
      "*{": 6717,
      "Ġscatter": 6718,
      "ĠBlack": 6719,
      "Runtime": 6720,
      "Ġnorm": 6721,
      "Ġprop": 6722,
      "Ġscore": 6723,
      "Ġworked": 6724,
      "Ġrepresented": 6725,
      "ĠHand": 6726,
      "Ġwebsite": 6727,
      "AX": 6728,
      "video": 6729,
      "Ġvertices": 6730,
      "ĠAN": 6731,
      "'re": 6732,
      "Ġforms": 6733,
      "Ġtypename": 6734,
      "ĠUnion": 6735,
      "Ġappoint": 6736,
      "Ġsecur": 6737,
      "ĠĠĠĠĠĠĠĠĠĠĠĠĠĠĠĠĊ": 6738,
      "Constants": 6739,
      "Ġste": 6740,
      "riteria": 6741,
      "ĠBro": 6742,
      "ĠHol": 6743,
      "Ġshared": 6744,
      "FFFF": 6745,
      "Seg": 6746,
      "Ġarbitrary": 6747,
      "Ġoptional": 6748,
      "?>": 6749,
      "Props": 6750,
      "Selected": 6751,
      "Ġlittle": 6752,
      "ĠDavid": 6753,
      "~$\\": 6754,
      "Ġmeas": 6755,
      "Ġtab": 6756,
      "ĠDr": 6757,
      "Ġcontact": 6758,
      "Ġmut": 6759,
      "ĠMat": 6760,
      "Ġprotocol": 6761,
      "Fin": 6762,
      "mag": 6763,
      "maven": 6764,
      "login": 6765,
      "compiler": 6766,
      "FL": 6767,
      "ĠEmp": 6768,
      "=\"$": 6769,
      "Ġchoose": 6770,
      "alian": 6771,
      "imed": 6772,
      "NOT": 6773,
      "jd": 6774,
      "Ġfully": 6775,
      "activ": 6776,
      "Statement": 6777,
      "ĠLong": 6778,
      "Step": 6779,
      "Generator": 6780,
      "sto": 6781,
      "ĠSen": 6782,
      "Ġstorage": 6783,
      "Ġthink": 6784,
      "ĠZe": 6785,
      "_{-": 6786,
      "Play": 6787,
      "CESS": 6788,
      "_{(": 6789,
      "Ġui": 6790,
      "ĠFound": 6791,
      "ĠGeorge": 6792,
      "Ġlatter": 6793,
      "ĠMer": 6794,
      "Ġjoined": 6795,
      "bi": 6796,
      "\"><!--": 6797,
      "ĠĠĠĠĠĠĠĠĠĠĠĠĠĠĠĠĠĠĠĠĠĠĠĠĠĠĠĠĠĠĠĠĠĠĠĠĠĠĠĠĠĠĠĠĠĠĠĠĠĠĠĠĠĠĠĠĠĠĠĠĠĠĠĠ": 6798,
      "Ġminim": 6799,
      "SCRIPT": 6800,
      "Ġappend": 6801,
      "Ġlevels": 6802,
      "names": 6803,
      "Prefix": 6804,
      "Ġdebut": 6805,
      "Ġinc": 6806,
      "Ġpresence": 6807,
      "multi": 6808,
      "FLA": 6809,
      "Register": 6810,
      "ĠStud": 6811,
      "tags": 6812,
      "_{{\\": 6813,
      "Ġdark": 6814,
      "GR": 6815,
      "Ġidentity": 6816,
      "Product": 6817,
      "jango": 6818,
      "ĠGets": 6819,
      "Ġremaining": 6820,
      "Ġdiscussed": 6821,
      "incipal": 6822,
      "Ġnor": 6823,
      "('.": 6824,
      "ĠAND": 6825,
      "Global": 6826,
      "ki": 6827,
      "ĠBay": 6828,
      "Ġapproximation": 6829,
      "Ġdesigned": 6830,
      "<!": 6831,
      "ecause": 6832,
      "lates": 6833,
      "progress": 6834,
      "sequently": 6835,
      "ĠAssociation": 6836,
      "ĠĠĠĠĠĠĠĠĠĠĠĠĠĠĠĠĠĠĠĠĠĠĠĠĠĠĠĠ": 6837,
      "Ġann": 6838,
      "Ġfigure": 6839,
      "HR": 6840,
      "lood": 6841,
      "Abstract": 6842,
      "()</": 6843,
      "ĠProject": 6844,
      "Ġsound": 6845,
      "Sequence": 6846,
      "Ġchosen": 6847,
      "ĠProv": 6848,
      "Ġactually": 6849,
      "Ġpolitic": 6850,
      "role": 6851,
      "services": 6852,
      "Ġcause": 6853,
      "apos": 6854,
      "Ġformula": 6855,
      "Ġpred": 6856,
      "letion": 6857,
      "Ġparser": 6858,
      "ĠPaul": 6859,
      "'_": 6860,
      "neg": 6861,
      "'}": 6862,
      "Constraint": 6863,
      "iffer": 6864,
      "assign": 6865,
      "random": 6866,
      "phone": 6867,
      "Ġ\"-": 6868,
      "Ġparty": 6869,
      "=>": 6870,
      "Ġexpansion": 6871,
      "apped": 6872,
      "ocker": 6873,
      "ĠDivision": 6874,
      "Ġqueue": 6875,
      "builder": 6876,
      "Ġip": 6877,
      "aussian": 6878,
      "Ġcontribution": 6879,
      "Ġgot": 6880,
      "IST": 6881,
      "Ġsatisfies": 6882,
      ".\");": 6883,
      "elf": 6884,
      "cdn": 6885,
      "mask": 6886,
      "platform": 6887,
      "ĠHall": 6888,
      "olog": 6889,
      "ky": 6890,
      "Ġdrop": 6891,
      "1991": 6892,
      "Identifier": 6893,
      "_*": 6894,
      "JS": 6895,
      "omb": 6896,
      "Ġnumerical": 6897,
      "Ġcollect": 6898,
      "junit": 6899,
      "Ġremains": 6900,
      "orter": 6901,
      ">::": 6902,
      "ech": 6903,
      "ĠArch": 6904,
      "done": 6905,
      "numerus": 6906,
      "Ġ^": 6907,
      "numerusform": 6908,
      "Selection": 6909,
      "Ġpul": 6910,
      "illed": 6911,
      "TEXT": 6912,
      "Ġconsists": 6913,
      "Ġmessages": 6914,
      "Ġplane": 6915,
      "ivial": 6916,
      "FS": 6917,
      "cluster": 6918,
      "leton": 6919,
      "Nodes": 6920,
      "Ġimpact": 6921,
      "ruby": 6922,
      "socket": 6923,
      "Ġreduced": 6924,
      "{%": 6925,
      "subfigure": 6926,
      "Other": 6927,
      "Ġmask": 6928,
      "IND": 6929,
      "ollowing": 6930,
      "ĠMac": 6931,
      "Person": 6932,
      "Ġtasks": 6933,
      "Ġmilitary": 6934,
      "Variable": 6935,
      "Ġdetail": 6936,
      "precated": 6937,
      "ĠIl": 6938,
      "ĠDuring": 6939,
      "username": 6940,
      "Ġmagn": 6941,
      "rab": 6942,
      "ĠSO": 6943,
      "gorithms": 6944,
      "ĠOver": 6945,
      "Ġmatching": 6946,
      "Ġappropri": 6947,
      "structure": 6948,
      "Ġ}\\": 6949,
      "Ġnavigation": 6950,
      "\"`": 6951,
      "Ġcoupling": 6952,
      "prob": 6953,
      "ashington": 6954,
      "ĠAng": 6955,
      "Ġpercent": 6956,
      "Agent": 6957,
      "grade": 6958,
      "Ġgradu": 6959,
      "zy": 6960,
      "Ġrail": 6961,
      "libr": 6962,
      "ĠGo": 6963,
      "swer": 6964,
      "Ġface": 6965,
      "Import": 6966,
      "Ġexperiments": 6967,
      "Ġedges": 6968,
      "Prop": 6969,
      "Proto": 6970,
      "springframework": 6971,
      "ĠWil": 6972,
      "ĠThat": 6973,
      "ĠRoyal": 6974,
      "Ġvisit": 6975,
      "ĠChina": 6976,
      "ĠPresident": 6977,
      "ocaml": 6978,
      "eder": 6979,
      "Here": 6980,
      "Ġpairs": 6981,
      "Domain": 6982,
      "identifier": 6983,
      "Ġ[],": 6984,
      "Ġmeasured": 6985,
      "cred": 6986,
      "ackson": 6987,
      "Ġdynamics": 6988,
      "ĠAlso": 6989,
      "Ġsecurity": 6990,
      "Ġem": 6991,
      "Ġmiddle": 6992,
      "Ġrecorded": 6993,
      "isms": 6994,
      "Ġfinished": 6995,
      "Ġapplications": 6996,
      "Ġactions": 6997,
      "Ġsense": 6998,
      "Ġhel": 6999,
      "covered": 7000,
      "generate": 7001,
      "Ġagent": 7002,
      "views": 7003,
      "lower": 7004,
      "moz": 7005,
      "hell": 7006,
      "DC": 7007,
      "pecially": 7008,
      "Ġctx": 7009,
      "Area": 7010,
      "ander": 7011,
      "(--": 7012,
      "idx": 7013,
      "herited": 7014,
      "ĠFil": 7015,
      "Ġcorresponds": 7016,
      "Ġhyp": 7017,
      "ĠMem": 7018,
      "when": 7019,
      "Ġmarried": 7020,
      "Ġwrote": 7021,
      "tained": 7022,
      "Ġruns": 7023,
      "...</": 7024,
      "Ġlogger": 7025,
      "Ġspectral": 7026,
      "Ġadopt": 7027,
      "Attr": 7028,
      "Ġpartition": 7029,
      "since": 7030,
      "ĠjQuery": 7031,
      "PROJECT": 7032,
      "Ġdefe": 7033,
      "Ġorbit": 7034,
      "details": 7035,
      "bigg": 7036,
      "Ġforward": 7037,
      "Ġscalar": 7038,
      "EC": 7039,
      "prev": 7040,
      "BAR": 7041,
      "ortun": 7042,
      "anning": 7043,
      "Ġcorrespond": 7044,
      "Ġnullptr": 7045,
      "Ġupdated": 7046,
      "condition": 7047,
      "Expect": 7048,
      "Ġsm": 7049,
      "tests": 7050,
      "Ġlimited": 7051,
      "Trace": 7052,
      "Ġexhib": 7053,
      "Ġsimulations": 7054,
      "ARN": 7055,
      "href": 7056,
      "Ġtx": 7057,
      "Role": 7058,
      "Ġ|\\": 7059,
      "Ġcalc": 7060,
      "rong": 7061,
      "ðŁ": 7062,
      "bg": 7063,
      "ĠGermany": 7064,
      "ĠRequest": 7065,
      "Ġangle": 7066,
      "ĠInteger": 7067,
      "ulk": 7068,
      "ierarch": 7069,
      "Ñı": 7070,
      "STATE": 7071,
      "Ġappears": 7072,
      "fx": 7073,
      "urrency": 7074,
      "errors": 7075,
      "ĠMart": 7076,
      "\\!\\!": 7077,
      "Ġfraction": 7078,
      "ALSE": 7079,
      "aret": 7080,
      "Ġissues": 7081,
      "textsc": 7082,
      "Ġlattice": 7083,
      "Ġmetadata": 7084,
      "Ġmonth": 7085,
      "Simple": 7086,
      "Ġsteps": 7087,
      "RAN": 7088,
      "Ã³n": 7089,
      "ĠNAME": 7090,
      "aking": 7091,
      "ĠResource": 7092,
      "arks": 7093,
      "Ġdirected": 7094,
      "ĠDel": 7095,
      "inese": 7096,
      "iece": 7097,
      "uan": 7098,
      "ollary": 7099,
      "mittee": 7100,
      "){\\": 7101,
      "ĠRegister": 7102,
      "Ġstreng": 7103,
      "airs": 7104,
      "sample": 7105,
      "CTYPE": 7106,
      "resources": 7107,
      "ĠGreen": 7108,
      "pu": 7109,
      "ĠMessage": 7110,
      "Ġdestroy": 7111,
      "ĠVir": 7112,
      "notes": 7113,
      "Ġdetection": 7114,
      "Ġconsistent": 7115,
      "Ġemail": 7116,
      "ĠCommand": 7117,
      "Ġformation": 7118,
      "Ġcomputed": 7119,
      "Ġverify": 7120,
      "ĠHash": 7121,
      "BP": 7122,
      "Ġcalls": 7123,
      "Ġtrigger": 7124,
      "Ġbrowser": 7125,
      "Ġcalculated": 7126,
      "cape": 7127,
      "Ġrect": 7128,
      "large": 7129,
      "Ġ'<": 7130,
      "Ġamplit": 7131,
      "ĠHTTP": 7132,
      "Ġsil": 7133,
      "chain": 7134,
      "Ġprocesses": 7135,
      "Ġteams": 7136,
      "mac": 7137,
      "Ġtesting": 7138,
      "OUT": 7139,
      "Generated": 7140,
      "Ġidx": 7141,
      "ened": 7142,
      "MOD": 7143,
      "ĠVol": 7144,
      "shared": 7145,
      "Ġdelay": 7146,
      "hing": 7147,
      "enable": 7148,
      "Ġmomentum": 7149,
      "Ġresolution": 7150,
      "Ġ],": 7151,
      "sym": 7152,
      "isions": 7153,
      "called": 7154,
      "mouse": 7155,
      "Ġretrie": 7156,
      "lots": 7157,
      "Ġtowards": 7158,
      "olec": 7159,
      "checkbox": 7160,
      "Ġ{{": 7161,
      "Admin": 7162,
      "ĠASSERT": 7163,
      "ĠProposition": 7164,
      "Ġss": 7165,
      "Progress": 7166,
      "mob": 7167,
      "Mat": 7168,
      "Ġinvariant": 7169,
      "ĠJapan": 7170,
      "rica": 7171,
      "URI": 7172,
      "alls": 7173,
      "ocation": 7174,
      "wik": 7175,
      "Ġparam": 7176,
      "erve": 7177,
      "forward": 7178,
      "asket": 7179,
      "icks": 7180,
      "Collections": 7181,
      "ĠAustralian": 7182,
      "Compar": 7183,
      "Author": 7184,
      "Ġfeed": 7185,
      "Ġhit": 7186,
      "Ġuncertaint": 7187,
      "indexOf": 7188,
      "flag": 7189,
      "referred": 7190,
      "itable": 7191,
      "ĠMax": 7192,
      "120": 7193,
      "eli": 7194,
      "dec": 7195,
      "),\\": 7196,
      "frican": 7197,
      "onical": 7198,
      "ĠLou": 7199,
      "Framework": 7200,
      "Ġreve": 7201,
      "Ġgrant": 7202,
      "xhtml": 7203,
      "Summary": 7204,
      "diff": 7205,
      "ĠTech": 7206,
      "ĠJava": 7207,
      "Ġdepth": 7208,
      ";\">": 7209,
      "Ġleads": 7210,
      "leep": 7211,
      "Ġcolumns": 7212,
      "unique": 7213,
      "fd": 7214,
      "Ġdetect": 7215,
      "ĠOur": 7216,
      "Ġsett": 7217,
      ":#": 7218,
      "endor": 7219,
      "Ġgenerally": 7220,
      "Ġspaces": 7221,
      "scss": 7222,
      "Py": 7223,
      "Ġaccuracy": 7224,
      "Err": 7225,
      "Category": 7226,
      "ĠRun": 7227,
      "pan": 7228,
      "USE": 7229,
      "ĠTHE": 7230,
      "storage": 7231,
      "ĠPub": 7232,
      "detail": 7233,
      "Ġcontinued": 7234,
      "gments": 7235,
      "NA": 7236,
      "ifdef": 7237,
      "'));": 7238,
      "lated": 7239,
      "scriptor": 7240,
      "Ġrespons": 7241,
      "Ġsus": 7242,
      "Ġmis": 7243,
      ")}(": 7244,
      "ĠWindow": 7245,
      "Ġoptimal": 7246,
      "Ġfriend": 7247,
      "Region": 7248,
      "latform": 7249,
      "ctrine": 7250,
      "Ġinstalled": 7251,
      "ita": 7252,
      "OB": 7253,
      "ĠDon": 7254,
      "release": 7255,
      "Ġsignature": 7256,
      "ometric": 7257,
      "Ġtrain": 7258,
      "Visible": 7259,
      "ito": 7260,
      "Ġfamil": 7261,
      "Ġsamp": 7262,
      "article": 7263,
      "igration": 7264,
      "Ġforeach": 7265,
      "arter": 7266,
      "sey": 7267,
      "Ġheaders": 7268,
      "tended": 7269,
      "ĠExt": 7270,
      "phot": 7271,
      "Ġdepart": 7272,
      "Resources": 7273,
      "$^{-": 7274,
      "lam": 7275,
      "flat": 7276,
      "ĠDec": 7277,
      "Ġprefix": 7278,
      "Ġremain": 7279,
      "subsubsection": 7280,
      "mediately": 7281,
      "('/": 7282,
      "HTTP": 7283,
      "rices": 7284,
      "vention": 7285,
      "Ġabstract": 7286,
      "Ġestimated": 7287,
      "MC": 7288,
      "Vertex": 7289,
      "enabled": 7290,
      "ĠArrayList": 7291,
      "inger": 7292,
      "Ġcharset": 7293,
      "Ġdirector": 7294,
      "pa": 7295,
      "ĠCompany": 7296,
      "ĠLine": 7297,
      "single": 7298,
      "brief": 7299,
      "Registry": 7300,
      "Ġflags": 7301,
      "Ġeasily": 7302,
      "NT": 7303,
      "Ġmar": 7304,
      "Ġexperimental": 7305,
      "Ġnetworks": 7306,
      "irmed": 7307,
      ")->": 7308,
      "println": 7309,
      "ĠRail": 7310,
      "ĠDepartment": 7311,
      "tailed": 7312,
      "cases": 7313,
      ")\\,": 7314,
      "Ġclu": 7315,
      "Texture": 7316,
      "Art": 7317,
      "Ġfast": 7318,
      "Ġ[\"": 7319,
      "Uri": 7320,
      "ette": 7321,
      "ĠLOG": 7322,
      "Ġreading": 7323,
      "Ġactivity": 7324,
      "stant": 7325,
      "Ġregard": 7326,
      "async": 7327,
      "expr": 7328,
      "poly": 7329,
      "sys": 7330,
      "ĠJer": 7331,
      "Ġstrategy": 7332,
      "imin": 7333,
      "RR": 7334,
      "Ġmix": 7335,
      "har": 7336,
      "two": 7337,
      "ĠInstitute": 7338,
      "ughter": 7339,
      "clean": 7340,
      "Ġhon": 7341,
      "mann": 7342,
      "Ġtell": 7343,
      "ĠNow": 7344,
      "umni": 7345,
      "1989": 7346,
      "invalid": 7347,
      "TIME": 7348,
      "akes": 7349,
      "ĠLeg": 7350,
      "Ġprofessional": 7351,
      "ĠIndex": 7352,
      "Ġinvolved": 7353,
      "Ġunless": 7354,
      "Install": 7355,
      "zone": 7356,
      "Headers": 7357,
      "some": 7358,
      "LINE": 7359,
      "ĠRad": 7360,
      "Ġonline": 7361,
      "Ġdecay": 7362,
      ".âĢĿ": 7363,
      "ĠHence": 7364,
      "liance": 7365,
      "mc": 7366,
      "Ġrace": 7367,
      "Ġthroughout": 7368,
      "Ġsquare": 7369,
      "ifiers": 7370,
      "Player": 7371,
      "La": 7372,
      "ĠCommun": 7373,
      "iral": 7374,
      "fix": 7375,
      "Ġproxy": 7376,
      "}}(\\": 7377,
      "users": 7378,
      "Stats": 7379,
      "Comment": 7380,
      "itz": 7381,
      "groups": 7382,
      "extern": 7383,
      "Landroid": 7384,
      "ji": 7385,
      "ĠTV": 7386,
      "Ġ\\(": 7387,
      "atur": 7388,
      "Ġthreshold": 7389,
      "Ġrelevant": 7390,
      "ova": 7391,
      "Ġproduce": 7392,
      "ĠLaw": 7393,
      "Ġmonths": 7394,
      "DEFAULT": 7395,
      "ĠHttp": 7396,
      "ato": 7397,
      "ĠAcade": 7398,
      "Ġpolar": 7399,
      "âĢľ": 7400,
      "Ġcharg": 7401,
      "feature": 7402,
      "ĠSecond": 7403,
      "ãĢ": 7404,
      "Ġcoordinates": 7405,
      "cis": 7406,
      "Ġeducation": 7407,
      ",\\,": 7408,
      "ĠPost": 7409,
      "signature": 7410,
      "Ġsongs": 7411,
      "Ġyoung": 7412,
      "Interval": 7413,
      "Tx": 7414,
      "Ġoverall": 7415,
      "Ġdev": 7416,
      "Ġrgba": 7417,
      "Ġlisted": 7418,
      "ĠTemp": 7419,
      "Ġsummary": 7420,
      "ITE": 7421,
      "ĠUI": 7422,
      "Ġdecomp": 7423,
      ".~(\\": 7424,
      "assembly": 7425,
      "ĠNumber": 7426,
      "DOCTYPE": 7427,
      "equality": 7428,
      "Ġmodern": 7429,
      "Ġcoefficients": 7430,
      "Ġben": 7431,
      "iverse": 7432,
      "Ġmeasurements": 7433,
      "Ġknowledge": 7434,
      "PU": 7435,
      "fg": 7436,
      "Wrapper": 7437,
      "Ġquality": 7438,
      "ilib": 7439,
      "Ġchurch": 7440,
      "Ġmodified": 7441,
      "oser": 7442,
      "Ġcorrelation": 7443,
      "Ġlayout": 7444,
      "Ä±": 7445,
      ".<": 7446,
      "Ġgreater": 7447,
      "Ġrequests": 7448,
      "ĠBO": 7449,
      "DT": 7450,
      "Cap": 7451,
      "Ġstrings": 7452,
      "uation": 7453,
      "Ġkernel": 7454,
      "Ġsomething": 7455,
      "ĠOrder": 7456,
      "ĠFurther": 7457,
      "hesis": 7458,
      "Ġespecially": 7459,
      "acc": 7460,
      "Ġtheore": 7461,
      "Ġbad": 7462,
      "Ġ+\\": 7463,
      "1988": 7464,
      "corpor": 7465,
      "ACT": 7466,
      "Ġeng": 7467,
      "Ġoccur": 7468,
      "Ġtmp": 7469,
      "Ġmachine": 7470,
      "Ġexactly": 7471,
      "glyph": 7472,
      "strument": 7473,
      "unct": 7474,
      "ĠMusic": 7475,
      "EEEE": 7476,
      "Ġeasy": 7477,
      "=#": 7478,
      "plot": 7479,
      "uest": 7480,
      "Cred": 7481,
      "eners": 7482,
      "Gen": 7483,
      "iqu": 7484,
      "Ġintegral": 7485,
      "safe": 7486,
      "calendar": 7487,
      "aco": 7488,
      "ĠHen": 7489,
      "ĠScience": 7490,
      "allery": 7491,
      "ultural": 7492,
      "Cluster": 7493,
      "Ġstra": 7494,
      "ĠJust": 7495,
      "enses": 7496,
      "mpt": 7497,
      "Ġmanagement": 7498,
      "sider": 7499,
      "roduction": 7500,
      "Ġmeta": 7501,
      "shire": 7502,
      "proxy": 7503,
      "ĠPath": 7504,
      "Ġmenu": 7505,
      "Ġreader": 7506,
      "Ġassist": 7507,
      "throw": 7508,
      "Ġvalign": 7509,
      "BS": 7510,
      "Ġenable": 7511,
      "ĠSuper": 7512,
      "ribution": 7513,
      "Skip": 7514,
      "Ġpool": 7515,
      "ferred": 7516,
      "Ġfill": 7517,
      "Game": 7518,
      "ological": 7519,
      "Ġperturb": 7520,
      "Ġones": 7521,
      "Ġpropag": 7522,
      "checked": 7523,
      "POST": 7524,
      "('#": 7525,
      "Ġanim": 7526,
      "Ġpaint": 7527,
      "ancellation": 7528,
      "ĠPress": 7529,
      "Ġprocedure": 7530,
      "Ġ$$": 7531,
      "forall": 7532,
      "Services": 7533,
      "Ġsimulation": 7534,
      "aled": 7535,
      "uge": 7536,
      "pattern": 7537,
      "Ġreceive": 7538,
      "sime": 7539,
      "Ġassumption": 7540,
      "Ġ{\"": 7541,
      "ĠWashington": 7542,
      "Ġenum": 7543,
      "Public": 7544,
      "loyment": 7545,
      "pull": 7546,
      "Bind": 7547,
      "OST": 7548,
      "brid": 7549,
      "Ġexponent": 7550,
      "Ġentries": 7551,
      "ĠCourt": 7552,
      "ĠImage": 7553,
      "ĠSociety": 7554,
      "spirit": 7555,
      "Ġcontrast": 7556,
      "VID": 7557,
      "ners": 7558,
      "game": 7559,
      "1960": 7560,
      "uda": 7561,
      "simeq": 7562,
      "warning": 7563,
      "Ġmixed": 7564,
      "Ġund": 7565,
      "Ġcontroller": 7566,
      "ĠMary": 7567,
      "Ġvict": 7568,
      "ĠRoad": 7569,
      "Video": 7570,
      "Ġhighest": 7571,
      "Wallet": 7572,
      "']['": 7573,
      "lev": 7574,
      "Ġpressure": 7575,
      "Ġappeared": 7576,
      "Ġangular": 7577,
      "Ġforces": 7578,
      "Ġtranslate": 7579,
      "Off": 7580,
      "Ġneighbor": 7581,
      "Ġcard": 7582,
      "Ġcampaign": 7583,
      "functions": 7584,
      "åĪ": 7585,
      "(@": 7586,
      "Ġbeginning": 7587,
      "Methods": 7588,
      "213": 7589,
      "Ġpoly": 7590,
      ")_{": 7591,
      "Ġidea": 7592,
      "Gu": 7593,
      ";)": 7594,
      "ĠMex": 7595,
      "Using": 7596,
      "colon": 7597,
      "parator": 7598,
      "Pri": 7599,
      "Ġfailure": 7600,
      "nodes": 7601,
      "Ġmodes": 7602,
      "Ġarriv": 7603,
      "WN": 7604,
      "python": 7605,
      "Ġbroadcast": 7606,
      ",$": 7607,
      "ĠMiss": 7608,
      "Fragment": 7609,
      "Bean": 7610,
      "Total": 7611,
      "Ġmd": 7612,
      "Ġâ": 7613,
      "orse": 7614,
      "ufact": 7615,
      "extension": 7616,
      "aver": 7617,
      "Ġask": 7618,
      ")_": 7619,
      "()))": 7620,
      "ĠTR": 7621,
      ")^{\\": 7622,
      "BE": 7623,
      "Delegate": 7624,
      "Ġcmd": 7625,
      "sn": 7626,
      "ĠAlex": 7627,
      "Ġmicro": 7628,
      "WR": 7629,
      "Mouse": 7630,
      "ederal": 7631,
      "Ġraw": 7632,
      "asy": 7633,
      "ĠColor": 7634,
      "untry": 7635,
      "estival": 7636,
      "Ġtimeout": 7637,
      "words": 7638,
      "Single": 7639,
      "Ġmeaning": 7640,
      "tk": 7641,
      "Ġshare": 7642,
      "ĠEqu": 7643,
      "Rev": 7644,
      "Ġmapping": 7645,
      "Ġslight": 7646,
      "aser": 7647,
      "\\_": 7648,
      "transition": 7649,
      "peated": 7650,
      "Ġbounds": 7651,
      "gb": 7652,
      "organ": 7653,
      "TRUE": 7654,
      "ICE": 7655,
      "Ġreached": 7656,
      "Ġvisual": 7657,
      "ĠallClasses": 7658,
      "150": 7659,
      "Ġshall": 7660,
      "PER": 7661,
      "Ġrock": 7662,
      "DateTime": 7663,
      "ĠExec": 7664,
      "ĠCopyright": 7665,
      "ĠallClassesLink": 7666,
      "ĠIsland": 7667,
      "Ġdual": 7668,
      "Ġdu": 7669,
      "olar": 7670,
      "Compat": 7671,
      "ĠResearch": 7672,
      "anks": 7673,
      "diag": 7674,
      "Ġtro": 7675,
      "Ġcompanies": 7676,
      "Ġindicates": 7677,
      "ĠCanadian": 7678,
      "Ġearlier": 7679,
      "LL": 7680,
      "enge": 7681,
      "iling": 7682,
      "Namespace": 7683,
      "arant": 7684,
      "Ids": 7685,
      "RES": 7686,
      "hl": 7687,
      "ĠCEL": 7688,
      "Ġroad": 7689,
      "assandra": 7690,
      "SELECT": 7691,
      "Ġvan": 7692,
      "Ġstellar": 7693,
      "ĠKingdom": 7694,
      "Elements": 7695,
      "Ġtre": 7696,
      "Ġplugin": 7697,
      "ali": 7698,
      "ĠBest": 7699,
      "Ġclaim": 7700,
      "ĉĠĠĠĠĠ": 7701,
      "MT": 7702,
      "imitive": 7703,
      ">\\": 7704,
      "EEEEFF": 7705,
      "Ġquick": 7706,
      "timeout": 7707,
      "RPC": 7708,
      "seq": 7709,
      "helper": 7710,
      "FUN": 7711,
      "Ġ&=&": 7712,
      "Notification": 7713,
      "erial": 7714,
      "flex": 7715,
      "iner": 7716,
      "$).": 7717,
      "Ġplaying": 7718,
      "ĠFre": 7719,
      ")^{-": 7720,
      "METH": 7721,
      "stat": 7722,
      "Ġstri": 7723,
      "REQ": 7724,
      "Ġoffice": 7725,
      "sidebar": 7726,
      "vanced": 7727,
      "1987": 7728,
      "IVE": 7729,
      "Ġdistributions": 7730,
      "Ġseparate": 7731,
      "However": 7732,
      "Ġveh": 7733,
      "blank": 7734,
      "OF": 7735,
      "atomic": 7736,
      "Multi": 7737,
      "volume": 7738,
      "optional": 7739,
      "Î¿": 7740,
      "console": 7741,
      "Returns": 7742,
      "ĠGold": 7743,
      "DEBUG": 7744,
      "Ġeffort": 7745,
      "ĠThomas": 7746,
      "Ġappropriate": 7747,
      "}$-": 7748,
      "perp": 7749,
      "Google": 7750,
      "present": 7751,
      "upload": 7752,
      "Ġlat": 7753,
      "fficial": 7754,
      "Ġeight": 7755,
      "ĠUK": 7756,
      "ĠCollection": 7757,
      "liament": 7758,
      "abit": 7759,
      "Ġgeneration": 7760,
      "lour": 7761,
      "ĠTown": 7762,
      "ĠRecords": 7763,
      "ilevel": 7764,
      "EV": 7765,
      "CG": 7766,
      "ĠLcom": 7767,
      "odot": 7768,
      "Ġapproximately": 7769,
      "ĠPat": 7770,
      "Ġdecision": 7771,
      "ĠMa": 7772,
      "Ġcurves": 7773,
      "Ġreduce": 7774,
      "ĠTur": 7775,
      "Ġdise": 7776,
      "Ġ..": 7777,
      "Ġorient": 7778,
      "Volume": 7779,
      "Ġrows": 7780,
      "Ġhot": 7781,
      "Car": 7782,
      "Ġarticle": 7783,
      "ĠMoreover": 7784,
      "'];": 7785,
      "fol": 7786,
      "Flag": 7787,
      "Ġ).": 7788,
      "Figure": 7789,
      "Ġowner": 7790,
      "ises": 7791,
      "ogene": 7792,
      "amaz": 7793,
      "LOCK": 7794,
      "Ġcloud": 7795,
      "IDTH": 7796,
      "Ġfactors": 7797,
      "Ġstand": 7798,
      "ala": 7799,
      "Ġimmediately": 7800,
      "plan": 7801,
      "Dictionary": 7802,
      "$$\\": 7803,
      "Direct": 7804,
      "velopment": 7805,
      "Ġbin": 7806,
      "Ġgrad": 7807,
      "FORM": 7808,
      "anned": 7809,
      "depth": 7810,
      "DP": 7811,
      "ami": 7812,
      "Ġ$-": 7813,
      "Ġquad": 7814,
      "TA": 7815,
      "Ġnp": 7816,
      "nn": 7817,
      "Report": 7818,
      "Ġevidence": 7819,
      "asi": 7820,
      "ĠTex": 7821,
      "Ġ'\\": 7822,
      "ĠChe": 7823,
      "Shape": 7824,
      "related": 7825,
      "ĠResult": 7826,
      "ĠEach": 7827,
      "ĠSur": 7828,
      "Lin": 7829,
      "Ġ];": 7830,
      "ĠTer": 7831,
      "ĠGames": 7832,
      "ÑĮ": 7833,
      "Ġexit": 7834,
      "Email": 7835,
      "Ġconstructed": 7836,
      "veloper": 7837,
      "ĠBen": 7838,
      "wall": 7839,
      "loaded": 7840,
      "1986": 7841,
      "Ġsubset": 7842,
      "vement": 7843,
      "Ġseconds": 7844,
      "arc": 7845,
      "issues": 7846,
      "nob": 7847,
      "Ġnature": 7848,
      "USER": 7849,
      "Ġbio": 7850,
      "Ġdam": 7851,
      "Ġadv": 7852,
      "ĠInc": 7853,
      "Ġexecution": 7854,
      "Ġfactory": 7855,
      "Ġclassification": 7856,
      "testing": 7857,
      "fi": 7858,
      "ĠJapanese": 7859,
      "ĠClub": 7860,
      "Language": 7861,
      "exist": 7862,
      "Ġdenotes": 7863,
      "Ã£": 7864,
      "bus": 7865,
      "ictor": 7866,
      "database": 7867,
      "Ġassumed": 7868,
      "}}^": 7869,
      "ĠKe": 7870,
      "Ġwife": 7871,
      "thrift": 7872,
      "STRING": 7873,
      "ĠNAV": 7874,
      "NavBarFont": 7875,
      "Ġspan": 7876,
      "inem": 7877,
      "Ġwalk": 7878,
      "ä»": 7879,
      "ĠHow": 7880,
      "Mask": 7881,
      "}^*": 7882,
      "Ġanti": 7883,
      "Ñĭ": 7884,
      "{$\\": 7885,
      "High": 7886,
      "Ġgrowth": 7887,
      "Ġtrace": 7888,
      "\"].": 7889,
      "Ġplaces": 7890,
      "Gr": 7891,
      "ĠDay": 7892,
      "prov": 7893,
      "Ġexistence": 7894,
      "ĠDirect": 7895,
      "ĠStart": 7896,
      "Math": 7897,
      "Encoded": 7898,
      "Ġcomes": 7899,
      "animation": 7900,
      "Ð¼": 7901,
      "ĠAS": 7902,
      "Endpoint": 7903,
      "ignment": 7904,
      "Ġrecomm": 7905,
      "ĠYear": 7906,
      "Len": 7907,
      "Ġbehind": 7908,
      "Begin": 7909,
      "cluded": 7910,
      "Ġmaster": 7911,
      "Ġmolec": 7912,
      "Ġproducts": 7913,
      "Å¡": 7914,
      "react": 7915,
      "simple": 7916,
      "origin": 7917,
      "Ġstated": 7918,
      "DR": 7919,
      "Ġalbums": 7920,
      "VALID": 7921,
      "trace": 7922,
      "Ġpractice": 7923,
      "Animation": 7924,
      "okie": 7925,
      "Ġidentified": 7926,
      "wp": 7927,
      "Ġclick": 7928,
      "undefined": 7929,
      "stra": 7930,
      "^^": 7931,
      "»¿": 7932,
      "Ġfoc": 7933,
      "compile": 7934,
      "Ġrotation": 7935,
      "ynchron": 7936,
      "ĠRout": 7937,
      "urred": 7938,
      "Ġpick": 7939,
      "fc": 7940,
      "Mer": 7941,
      "Ġtsd": 7942,
      "ĠAction": 7943,
      "Ġdistinct": 7944,
      "ĠCentral": 7945,
      "ymptot": 7946,
      "æľ": 7947,
      "ï»¿": 7948,
      "np": 7949,
      "fect": 7950,
      "displaystyle": 7951,
      "ĠØ": 7952,
      "ĠBig": 7953,
      "Sort": 7954,
      "Ġhimself": 7955,
      "Ġlabels": 7956,
      "iring": 7957,
      "/\"": 7958,
      "Ign": 7959,
      "ĠAfrican": 7960,
      "fire": 7961,
      "ĠHistor": 7962,
      "plus": 7963,
      "fold": 7964,
      "Ġalgorithms": 7965,
      "Flow": 7966,
      "ĠFoundation": 7967,
      "ixels": 7968,
      "ĠAre": 7969,
      "Ġsb": 7970,
      "ĠWhite": 7971,
      "Ġtax": 7972,
      "roy": 7973,
      "GC": 7974,
      "ibly": 7975,
      "Ġ\"$": 7976,
      "Mess": 7977,
      "Ġreach": 7978,
      "Ġspectra": 7979,
      "Ġinequality": 7980,
      "Ð´": 7981,
      "ĠFROM": 7982,
      "Ġtransparent": 7983,
      "Ġslow": 7984,
      "pping": 7985,
      "Ġprecise": 7986,
      "tri": 7987,
      "ffers": 7988,
      "ĠTor": 7989,
      "uages": 7990,
      "Ġopts": 7991,
      "ĠEND": 7992,
      "Ġoccurs": 7993,
      "dc": 7994,
      "nother": 7995,
      "Ġreadonly": 7996,
      "ĠExp": 7997,
      "agent": 7998,
      "essor": 7999,
      "Ġapilevel": 8000,
      "Required": 8001,
      "igr": 8002,
      "Ġliving": 8003,
      "look": 8004,
      "Ġcho": 8005,
      "named": 8006,
      "1984": 8007,
      "Ġcursor": 8008,
      "Ġemer": 8009,
      "Ġagreement": 8010,
      "Ġsec": 8011,
      "asets": 8012,
      "ĠRobert": 8013,
      "ĠBoolean": 8014,
      "ĠCath": 8015,
      "Ġinteresting": 8016,
      "verter": 8017,
      "route": 8018,
      "Ġdimensions": 8019,
      "dash": 8020,
      "resolve": 8021,
      "ĠAfrica": 8022,
      "}&": 8023,
      "redu": 8024,
      "Ġfounded": 8025,
      "CF": 8026,
      "Hz": 8027,
      "Ġeventually": 8028,
      "watch": 8029,
      "Ġbuf": 8030,
      "ĠNetwork": 8031,
      "Our": 8032,
      "ĠCong": 8033,
      "Find": 8034,
      "icate": 8035,
      "geo": 8036,
      "Ġ([": 8037,
      "APP": 8038,
      "Ġliterature": 8039,
      "Ġboard": 8040,
      "Forms": 8041,
      "ĠOnly": 8042,
      "sa": 8043,
      "ĠElement": 8044,
      "Audio": 8045,
      "jected": 8046,
      "ĠJew": 8047,
      "ĠShow": 8048,
      "Ġoccup": 8049,
      "kwargs": 8050,
      "Ġscroll": 8051,
      "Sample": 8052,
      "Ġelected": 8053,
      "METHOD": 8054,
      "Ġremote": 8055,
      "Ã¨": 8056,
      "Ġbirth": 8057,
      "uplic": 8058,
      "ensed": 8059,
      "etween": 8060,
      ")},": 8061,
      "resp": 8062,
      ")[": 8063,
      "IGHT": 8064,
      "Ġrecords": 8065,
      "niques": 8066,
      "Ġdro": 8067,
      "1985": 8068,
      "Short": 8069,
      "anti": 8070,
      ".\",": 8071,
      "Ġplaced": 8072,
      "Sol": 8073,
      "zip": 8074,
      "ENSE": 8075,
      "special": 8076,
      "ĠFore": 8077,
      "wer": 8078,
      "ĠLat": 8079,
      "urnament": 8080,
      "Ġprops": 8081,
      "Ġgalaxy": 8082,
      "SM": 8083,
      "Ġut": 8084,
      "aland": 8085,
      "Ġautomatically": 8086,
      "nowled": 8087,
      "Ġattempt": 8088,
      "ĠDan": 8089,
      "Ġok": 8090,
      "Db": 8091,
      "world": 8092,
      "pmatrix": 8093,
      "ĠTw": 8094,
      "Ġexport": 8095,
      "Ġship": 8096,
      "ny": 8097,
      "ĠMuseum": 8098,
      "Ġinsert": 8099,
      "Ġsignificantly": 8100,
      "ĠassertThat": 8101,
      "PUT": 8102,
      "Ġschools": 8103,
      "Ġmother": 8104,
      "ĠSam": 8105,
      "Ġsurv": 8106,
      "player": 8107,
      "joint": 8108,
      "ĠNAVBAR": 8109,
      "Ġdict": 8110,
      "det": 8111,
      "Ear": 8112,
      "ĠPet": 8113,
      "Rec": 8114,
      "rish": 8115,
      "Some": 8116,
      "ĠTop": 8117,
      "loading": 8118,
      "report": 8119,
      "Ġul": 8120,
      "asketball": 8121,
      "bing": 8122,
      "apis": 8123,
      "^{+": 8124,
      "Ġignore": 8125,
      "ulator": 8126,
      "esh": 8127,
      "Ġstable": 8128,
      "Ġvocal": 8129,
      "Ġgave": 8130,
      "Limit": 8131,
      "Ġcells": 8132,
      "lations": 8133,
      "writer": 8134,
      "vised": 8135,
      "ĠRel": 8136,
      "Ġexecute": 8137,
      "Ġsingular": 8138,
      "Ġreset": 8139,
      "ndef": 8140,
      "Ġpaths": 8141,
      "SK": 8142,
      "ĠFour": 8143,
      "Ġaudio": 8144,
      "Ro": 8145,
      "Warning": 8146,
      "Support": 8147,
      "[(": 8148,
      "Ġincreased": 8149,
      "ĠVis": 8150,
      "ming": 8151,
      "overview": 8152,
      "amazon": 8153,
      "pear": 8154,
      "ÛĮ": 8155,
      "Users": 8156,
      "ĠInput": 8157,
      "Append": 8158,
      "Ġthought": 8159,
      "selves": 8160,
      "SI": 8161,
      "servation": 8162,
      "tar": 8163,
      "Make": 8164,
      "Children": 8165,
      "quote": 8166,
      "Ġincreases": 8167,
      "Ġchart": 8168,
      "Ġdependence": 8169,
      "spital": 8170,
      "alg": 8171,
      "Ġspecify": 8172,
      "Ġpush": 8173,
      "usr": 8174,
      "Pair": 8175,
      "Ġcontained": 8176,
      "iency": 8177,
      "trl": 8178,
      "Ġattention": 8179,
      "Ġrob": 8180,
      "Serializer": 8181,
      "Î±": 8182,
      "Ġtransformation": 8183,
      "Ġonto": 8184,
      "INTER": 8185,
      "ishing": 8186,
      "setup": 8187,
      "Ġformal": 8188,
      "(\"/": 8189,
      "Ġunion": 8190,
      "ĠSIZE": 8191,
      "ancy": 8192,
      "Ġintroduce": 8193,
      "isset": 8194,
      "ĠAcademy": 8195,
      "Ġmatrices": 8196,
      "ĠVector": 8197,
      "Ġpen": 8198,
      "getValue": 8199,
      "Clear": 8200,
      ")}{\\": 8201,
      "ĠChinese": 8202,
      "Ġmus": 8203,
      "abe": 8204,
      "Ġspatial": 8205,
      "Ġjud": 8206,
      "Ġ\\\"": 8207,
      "MODULE": 8208,
      "people": 8209,
      "Ġcandidate": 8210,
      "tc": 8211,
      "rich": 8212,
      "Ġessential": 8213,
      "Screen": 8214,
      "ĠPoint": 8215,
      "Ġlistener": 8216,
      "Ġvs": 8217,
      "ski": 8218,
      "DATA": 8219,
      "Ġroom": 8220,
      "Ġchem": 8221,
      "ĠSal": 8222,
      "ĠTok": 8223,
      "Ġcalculate": 8224,
      "Ġpositions": 8225,
      "nostics": 8226,
      "Ġjoint": 8227,
      "Ġdisabled": 8228,
      "Ġnavbar": 8229,
      "ĠRussian": 8230,
      "Ġdependencies": 8231,
      "Ġleague": 8232,
      "tached": 8233,
      "Ġschema": 8234,
      "Ġresid": 8235,
      "atar": 8236,
      "NR": 8237,
      "ĠScott": 8238,
      "ancial": 8239,
      "azine": 8240,
      "clone": 8241,
      "Ġlack": 8242,
      "Ġrates": 8243,
      "Ġcreating": 8244,
      "MR": 8245,
      "Pub": 8246,
      "ITION": 8247,
      "Ġcontributions": 8248,
      "Ġbur": 8249,
      "Arch": 8250,
      "Detail": 8251,
      "ston": 8252,
      "ummy": 8253,
      "Ġjournal": 8254,
      "radio": 8255,
      "Ġcop": 8256,
      "ysical": 8257,
      "****************************************************************": 8258,
      "NSString": 8259,
      "ĠItalian": 8260,
      "Ġreally": 8261,
      "metric": 8262,
      "Ġassigned": 8263,
      "Ġparallel": 8264,
      "ĠNet": 8265,
      "Ġsymmetric": 8266,
      "uous": 8267,
      "Ġring": 8268,
      "original": 8269,
      "=\\\"": 8270,
      "Ġprocessing": 8271,
      "Ġthings": 8272,
      "Ġappointed": 8273,
      "Ġinstances": 8274,
      "Pass": 8275,
      "ducation": 8276,
      "Ġmeasurement": 8277,
      "Ġrecently": 8278,
      "Conn": 8279,
      "supported": 8280,
      "emon": 8281,
      "ĠĠĠĠĠĠĠĠĠĠĠĠĠĠĠĠĠĠĠĠĠĠĠĠĠĠĠĠĠĠ": 8282,
      "Ġbenef": 8283,
      "Ġpure": 8284,
      "Ġcombination": 8285,
      "zure": 8286,
      "ateway": 8287,
      "Ġanimation": 8288,
      "Hub": 8289,
      "ifically": 8290,
      "ĠMichael": 8291,
      "Ġbra": 8292,
      "ribut": 8293,
      "ĠGaussian": 8294,
      "Spe": 8295,
      "arnings": 8296,
      "Ġstored": 8297,
      "duration": 8298,
      "ircraft": 8299,
      "Ġcaused": 8300,
      "ifndef": 8301,
      "Ġfib": 8302,
      "Ġoriginally": 8303,
      "ĠCarol": 8304,
      "vertical": 8305,
      "Ġgreen": 8306,
      "Ġloaded": 8307,
      "These": 8308,
      "Ġcompletely": 8309,
      "ĠCr": 8310,
      "})$.": 8311,
      "Ġjoin": 8312,
      "Ã£o": 8313,
      "Ġvectors": 8314,
      "Ġmedi": 8315,
      "Ġtravel": 8316,
      "objects": 8317,
      "Ġdiagram": 8318,
      "formance": 8319,
      "validate": 8320,
      "tik": 8321,
      "download": 8322,
      "Ġenv": 8323,
      "Ġvariety": 8324,
      "alert": 8325,
      "REG": 8326,
      "uming": 8327,
      "\\|_{": 8328,
      "Ġtor": 8329,
      "ĠVirgin": 8330,
      "graphy": 8331,
      "Ġreflect": 8332,
      "zh": 8333,
      "Ġdriver": 8334,
      "Ġ@\"": 8335,
      ",'": 8336,
      "correct": 8337,
      "Ġ=\\": 8338,
      "ĠMake": 8339,
      "Ġtrade": 8340,
      "ima": 8341,
      "ĠDu": 8342,
      "ĠClo": 8343,
      "iversal": 8344,
      "Ġversions": 8345,
      "INS": 8346,
      "çĶ": 8347,
      "Save": 8348,
      "=\"../../../../../../../": 8349,
      "ĠRob": 8350,
      "ĠHistory": 8351,
      "destroy": 8352,
      "ArgumentException": 8353,
      "reland": 8354,
      "sb": 8355,
      "runtime": 8356,
      "/{": 8357,
      "owner": 8358,
      "Ġduration": 8359,
      "ĠOff": 8360,
      "iller": 8361,
      "Ġapproaches": 8362,
      "Ġtypically": 8363,
      "BB": 8364,
      "ĠĠĠĠĠĠĠĠĠĠĊ": 8365,
      "Further": 8366,
      "COMP": 8367,
      "#{": 8368,
      "Ġcli": 8369,
      "Enter": 8370,
      "ĠAlthough": 8371,
      "inherit": 8372,
      "Ġinteractions": 8373,
      "ĠCommon": 8374,
      "Allow": 8375,
      "ĉčĊ": 8376,
      "Ġmorph": 8377,
      "kt": 8378,
      "ĠWestern": 8379,
      "dig": 8380,
      "Ġever": 8381,
      "isters": 8382,
      "warded": 8383,
      "EventListener": 8384,
      "ĠFI": 8385,
      ")\\\\": 8386,
      "Ġbind": 8387,
      "Ð²": 8388,
      "Ġ}}": 8389,
      "mma": 8390,
      "selector": 8391,
      "bd": 8392,
      "rank": 8393,
      "ĠKore": 8394,
      "visible": 8395,
      "Thus": 8396,
      "ading": 8397,
      "Med": 8398,
      "ANG": 8399,
      "Ġmentioned": 8400,
      "tachment": 8401,
      "sync": 8402,
      "MODE": 8403,
      "1983": 8404,
      "heast": 8405,
      "ĠMont": 8406,
      "Notes": 8407,
      "World": 8408,
      "rium": 8409,
      "Ġproto": 8410,
      "rece": 8411,
      "Ġcircle": 8412,
      "lipse": 8413,
      "ĠDemoc": 8414,
      "DOM": 8415,
      "IOException": 8416,
      "Consumer": 8417,
      "ĠALIGN": 8418,
      "ĠDat": 8419,
      "rect": 8420,
      ":[": 8421,
      "Ġ'';": 8422,
      "ĠSQL": 8423,
      "isEmpty": 8424,
      "\"],": 8425,
      "tics": 8426,
      "ĠOptional": 8427,
      "Sql": 8428,
      "Move": 8429,
      "yy": 8430,
      "stone": 8431,
      "Ġseven": 8432,
      "ĠValid": 8433,
      "Ġskip": 8434,
      "LOC": 8435,
      "Ġfoot": 8436,
      "ĠChristian": 8437,
      "Miss": 8438,
      "æĸ": 8439,
      "slice": 8440,
      "Ġ>>": 8441,
      "Unknown": 8442,
      "Ġdocumentation": 8443,
      "periment": 8444,
      "ĠCharles": 8445,
      "exit": 8446,
      "6666": 8447,
      "Ġopacity": 8448,
      "ĠDEFAULT": 8449,
      "Ġlicense": 8450,
      "Ġbehavi": 8451,
      "Ġmac": 8452,
      "Ġjs": 8453,
      "Fn": 8454,
      "methods": 8455,
      "Ġcombined": 8456,
      "-(": 8457,
      "ĠMult": 8458,
      "irror": 8459,
      "Ġtrip": 8460,
      "Ġimprove": 8461,
      "Ġoptical": 8462,
      "Release": 8463,
      "Ġstraight": 8464,
      "policy": 8465,
      "()),": 8466,
      "nthe": 8467,
      "ĠLouis": 8468,
      "ĠCamp": 8469,
      "Ġindicate": 8470,
      "men": 8471,
      "apes": 8472,
      "ĠUN": 8473,
      "los": 8474,
      "InputStream": 8475,
      "ees": 8476,
      "tf": 8477,
      "AF": 8478,
      "kes": 8479,
      "ORTED": 8480,
      "Ġflex": 8481,
      "Ġcreation": 8482,
      "Ġtouch": 8483,
      "Ġguitar": 8484,
      "library": 8485,
      "nos": 8486,
      "Ġdetailed": 8487,
      "Ġpurpose": 8488,
      "1982": 8489,
      "getElementById": 8490,
      "/_": 8491,
      "Ġgeometry": 8492,
      "Ġalumni": 8493,
      "{\"": 8494,
      "mn": 8495,
      "wa": 8496,
      "Ġefficient": 8497,
      "factory": 8498,
      "Ġcoordinate": 8499,
      "ĠFrancis": 8500,
      "mapsto": 8501,
      "navigation": 8502,
      "ĉĠĠĠĠĠĠĠ": 8503,
      "Ġconfigure": 8504,
      "oon": 8505,
      "Ġanalog": 8506,
      "Ġyields": 8507,
      "ĠTwo": 8508,
      "ELD": 8509,
      "ĠPan": 8510,
      "amental": 8511,
      "ĠForce": 8512,
      "Constructor": 8513,
      "ĠIR": 8514,
      "Ġhours": 8515,
      "ĠLocal": 8516,
      "room": 8517,
      "Ġgap": 8518,
      "typen": 8519,
      "Ġimplemented": 8520,
      "}}^{": 8521,
      "variance": 8522,
      "created": 8523,
      "Ġnight": 8524,
      "bc": 8525,
      "Ġtit": 8526,
      "ĠSun": 8527,
      "Ġauthors": 8528,
      "_);": 8529,
      "Border": 8530,
      "Ġconnections": 8531,
      "resize": 8532,
      "Ġvalidate": 8533,
      "Example": 8534,
      "TV": 8535,
      "Ġpresident": 8536,
      "commons": 8537,
      "Transport": 8538,
      "ĠLie": 8539,
      "Ġdaughter": 8540,
      "Ġbooks": 8541,
      "Ġfootballers": 8542,
      "Ġmechanism": 8543,
      "Ġabsor": 8544,
      "NV": 8545,
      ")$-": 8546,
      "constructor": 8547,
      "Ġsituation": 8548,
      "Ġsql": 8549,
      "power": 8550,
      "cla": 8551,
      "osity": 8552,
      "ĠSummer": 8553,
      "ĠFin": 8554,
      "extra": 8555,
      "Ġtechniques": 8556,
      "oting": 8557,
      "Ġexperience": 8558,
      "ĠGreat": 8559,
      "constant": 8560,
      "fetch": 8561,
      "convert": 8562,
      "Ġtour": 8563,
      "Ġhighly": 8564,
      "ĠHamiltonian": 8565,
      "$;": 8566,
      "riends": 8567,
      "Ġclusters": 8568,
      "Driver": 8569,
      "Ġextend": 8570,
      "commit": 8571,
      "cccc": 8572,
      "messages": 8573,
      "lint": 8574,
      "ĠANY": 8575,
      "%\"": 8576,
      "Äģ": 8577,
      "ĠMad": 8578,
      "ĠZealand": 8579,
      "Ġcountries": 8580,
      "Ġnoted": 8581,
      "mal": 8582,
      "Ġbuildings": 8583,
      "%,": 8584,
      "vlet": 8585,
      "Ġcycle": 8586,
      "Ġheavy": 8587,
      "opts": 8588,
      "ĠSaint": 8589,
      "ĠDi": 8590,
      "TestCase": 8591,
      "Ġsynchron": 8592,
      "Ġconcern": 8593,
      "Ġnotice": 8594,
      "Ġgradient": 8595,
      "Ġnews": 8596,
      "Ġfourth": 8597,
      "ĠTexas": 8598,
      "cli": 8599,
      "mutable": 8600,
      "Scal": 8601,
      "trim": 8602,
      "goto": 8603,
      "conv": 8604,
      "Ġsecret": 8605,
      "Ġ\"\";": 8606,
      "accept": 8607,
      "YY": 8608,
      "å®": 8609,
      "Ġspent": 8610,
      "typename": 8611,
      "ipe": 8612,
      "Ġabs": 8613,
      "tor": 8614,
      "submit": 8615,
      "Ġstations": 8616,
      "Liter": 8617,
      "Ġcomputer": 8618,
      "Edge": 8619,
      "ĠDocument": 8620,
      "urations": 8621,
      "ĠPRO": 8622,
      "MIN": 8623,
      "ĠSource": 8624,
      "once": 8625,
      "Execution": 8626,
      "Ġconclude": 8627,
      "ĠÐ¿": 8628,
      "Ġcapacity": 8629,
      "gers": 8630,
      "sem": 8631,
      "Ġpersonal": 8632,
      "Ġobserve": 8633,
      "ĠTom": 8634,
      "Ġtheme": 8635,
      "about": 8636,
      "Ġunderlying": 8637,
      "____": 8638,
      "Cast": 8639,
      "hbar": 8640,
      "Environment": 8641,
      "EST": 8642,
      "Ġarchitecture": 8643,
      "ĠSmith": 8644,
      "mazon": 8645,
      "rev": 8646,
      "Ġvary": 8647,
      "driver": 8648,
      "Ġvalidation": 8649,
      "Enumer": 8650,
      "Ġsports": 8651,
      "activity": 8652,
      "structions": 8653,
      "lementation": 8654,
      "Native": 8655,
      "Ġstat": 8656,
      "Ġtherm": 8657,
      "ĠUsing": 8658,
      "Validator": 8659,
      "changed": 8660,
      "Ġelectric": 8661,
      "edom": 8662,
      "cluding": 8663,
      "series": 8664,
      "ĠGame": 8665,
      "Setting": 8666,
      "Ġestimates": 8667,
      "Ġexam": 8668,
      ":`": 8669,
      "basic": 8670,
      "$~": 8671,
      "Lower": 8672,
      ">\"": 8673,
      "Ġrepresenting": 8674,
      "Ġminutes": 8675,
      "TT": 8676,
      "ÐµÐ½": 8677,
      "Validation": 8678,
      "ĠBlock": 8679,
      "Ġquite": 8680,
      "Ġinstit": 8681,
      "Ġsuccessfully": 8682,
      "NUM": 8683,
      "Spl": 8684,
      "Ġbi": 8685,
      "Ġfrag": 8686,
      "']);": 8687,
      "ĠCH": 8688,
      "ĠJose": 8689,
      "ĠLin": 8690,
      "Ġnothing": 8691,
      "Ġprobably": 8692,
      "house": 8693,
      "Ġdetected": 8694,
      "GEN": 8695,
      "ĠNav": 8696,
      "Ġconcent": 8697,
      "gradle": 8698,
      "seudo": 8699,
      "ussion": 8700,
      "ĠAut": 8701,
      "Ġdynamic": 8702,
      "deprecated": 8703,
      "ĠIts": 8704,
      "cha": 8705,
      "åĲ": 8706,
      "spaces": 8707,
      "Ġlayers": 8708,
      "Ø±": 8709,
      "proposition": 8710,
      "ĠlP": 8711,
      "enchmark": 8712,
      "ORDER": 8713,
      "Normal": 8714,
      "extend": 8715,
      "orient": 8716,
      "SSL": 8717,
      "mming": 8718,
      "ĠFootball": 8719,
      "Go": 8720,
      "Ġidentify": 8721,
      "Ġbundle": 8722,
      "Ġgets": 8723,
      "\\{\\": 8724,
      "Static": 8725,
      "bp": 8726,
      "boost": 8727,
      "ilibrium": 8728,
      "ĠParameter": 8729,
      "ĠMain": 8730,
      "integ": 8731,
      "highlight": 8732,
      "paper": 8733,
      "ĠIllegal": 8734,
      "avel": 8735,
      "Ġconstants": 8736,
      "ĠClient": 8737,
      "]}": 8738,
      "merge": 8739,
      "Ġwhy": 8740,
      "ĠDen": 8741,
      "spacing": 8742,
      "Div": 8743,
      "QU": 8744,
      "abil": 8745,
      "bour": 8746,
      "Ġnotation": 8747,
      "ĠMus": 8748,
      "mk": 8749,
      "Ġ''": 8750,
      "Ġfragment": 8751,
      "Ġsoon": 8752,
      "acle": 8753,
      "Compiler": 8754,
      "Cloud": 8755,
      "Ġgold": 8756,
      "erved": 8757,
      "Ġmanifold": 8758,
      "1979": 8759,
      "MI": 8760,
      "Ġadding": 8761,
      "Ġcoach": 8762,
      "ĠMinister": 8763,
      "Rate": 8764,
      "Ġfun": 8765,
      ":@\"": 8766,
      "icity": 8767,
      "ï¼Į": 8768,
      "icode": 8769,
      "Ġbatch": 8770,
      "'(": 8771,
      "Ġsemi": 8772,
      "Ġresolve": 8773,
      "Ġleave": 8774,
      "Theorem": 8775,
      "Amount": 8776,
      "istan": 8777,
      "ĠLife": 8778,
      "Ġtreatment": 8779,
      "person": 8780,
      "Objects": 8781,
      "Ġmunicip": 8782,
      "Ġusage": 8783,
      "heel": 8784,
      "mercial": 8785,
      "rics": 8786,
      "}({\\": 8787,
      "Ġplant": 8788,
      "Ġsaw": 8789,
      "ATTR": 8790,
      "ĠOlympics": 8791,
      "Ġ\"\",": 8792,
      "clusive": 8793,
      "renewcommand": 8794,
      "Connect": 8795,
      "inx": 8796,
      "ryption": 8797,
      "Ġdie": 8798,
      "iro": 8799,
      "esian": 8800,
      "180": 8801,
      "×ķ": 8802,
      "Ġaggreg": 8803,
      "Ġfemale": 8804,
      "ola": 8805,
      "Ġparticularly": 8806,
      "ĠPage": 8807,
      "Dem": 8808,
      "Ġrelatively": 8809,
      "logo": 8810,
      "Ġaspect": 8811,
      "ĠPlay": 8812,
      "Ġregime": 8813,
      "nostic": 8814,
      "jac": 8815,
      "ĠCast": 8816,
      "Ġchannels": 8817,
      "cher": 8818,
      "/\">": 8819,
      "Ġorganization": 8820,
      "dk": 8821,
      "nc": 8822,
      "Raw": 8823,
      "ĠðŁ": 8824,
      "Ġsections": 8825,
      "wt": 8826,
      "WORD": 8827,
      "ora": 8828,
      "Ġstatistics": 8829,
      "Ġdiscussion": 8830,
      "Plan": 8831,
      "disable": 8832,
      "Cursor": 8833,
      "general": 8834,
      "Ġdesired": 8835,
      "hbox": 8836,
      "Ġkilled": 8837,
      "lie": 8838,
      "Points": 8839,
      "ĠâĢĺ": 8840,
      "Ġelif": 8841,
      "Ġax": 8842,
      "Ġanswer": 8843,
      "1950": 8844,
      "isl": 8845,
      "quant": 8846,
      "memory": 8847,
      "Ġintegr": 8848,
      "Ġosc": 8849,
      "yl": 8850,
      "mass": 8851,
      "Ġ'./": 8852,
      "/.": 8853,
      "kin": 8854,
      "olf": 8855,
      "esome": 8856,
      "Theme": 8857,
      "Ġbrief": 8858,
      "Ġgeneric": 8859,
      "Ġsuc": 8860,
      "nel": 8861,
      "ountain": 8862,
      "Drop": 8863,
      "Ġexchange": 8864,
      "Ġtraditional": 8865,
      "Ġmagnitude": 8866,
      "Ġfamilies": 8867,
      "variable": 8868,
      "Ġ_,": 8869,
      "tikz": 8870,
      "Ġsen": 8871,
      "pb": 8872,
      "=[": 8873,
      "Ġslightly": 8874,
      "Ġcapital": 8875,
      "ĠBit": 8876,
      "lications": 8877,
      "Constant": 8878,
      "Folder": 8879,
      "ĠSoftware": 8880,
      "Annotation": 8881,
      "ternet": 8882,
      "(.": 8883,
      "1981": 8884,
      "ĠMass": 8885,
      "ANT": 8886,
      "Ġcontents": 8887,
      "such": 8888,
      "Ġtoday": 8889,
      "Ġconn": 8890,
      "ĠUnder": 8891,
      "pair": 8892,
      ">)": 8893,
      "Drawing": 8894,
      "SV": 8895,
      "ĠProperty": 8896,
      "compare": 8897,
      "Ġsometimes": 8898,
      "HERE": 8899,
      "Ġcalculation": 8900,
      "Ġhighlight": 8901,
      "HP": 8902,
      "600": 8903,
      "Ġtermin": 8904,
      "ĠPeter": 8905,
      "sig": 8906,
      "seconds": 8907,
      "Ġrelig": 8908,
      "Ġsex": 8909,
      "Own": 8910,
      "batch": 8911,
      "ĠGrand": 8912,
      "zil": 8913,
      "Ġequip": 8914,
      "forEach": 8915,
      "Ġscene": 8916,
      "Ġsizes": 8917,
      "ĠSets": 8918,
      "Prov": 8919,
      "Ġconvergence": 8920,
      "Ġoptimization": 8921,
      "ĠEngine": 8922,
      "ĠFlor": 8923,
      "Ġminimal": 8924,
      "ĠParis": 8925,
      "Ġ\">": 8926,
      "gradient": 8927,
      "scala": 8928,
      "Ġmasses": 8929,
      "atistical": 8930,
      "icago": 8931,
      "Ġprev": 8932,
      "zen": 8933,
      "fficiency": 8934,
      "venue": 8935,
      "utch": 8936,
      "Ġextreme": 8937,
      "Operator": 8938,
      "analy": 8939,
      "FE": 8940,
      "Ġprediction": 8941,
      "toBe": 8942,
      "Ġexpand": 8943,
      "ĠTH": 8944,
      "loss": 8945,
      "anc": 8946,
      "Ġasymptot": 8947,
      "Ġinfluence": 8948,
      "Cor": 8949,
      "oration": 8950,
      "asc": 8951,
      "Ġ\"%": 8952,
      "Processor": 8953,
      "Ġscient": 8954,
      "viation": 8955,
      "Binding": 8956,
      "Sur": 8957,
      "GER": 8958,
      "Basic": 8959,
      "ĠMil": 8960,
      "110": 8961,
      "Ġguarant": 8962,
      "Alloc": 8963,
      "ups": 8964,
      "directory": 8965,
      "Ġant": 8966,
      "ĠSpanish": 8967,
      "ssl": 8968,
      "Ġrisk": 8969,
      "Ġscaling": 8970,
      "Ġion": 8971,
      "transaction": 8972,
      "operation": 8973,
      "Ġprim": 8974,
      "Tile": 8975,
      "blog": 8976,
      "ILD": 8977,
      "Caml": 8978,
      "Navigation": 8979,
      "Ġ[\\": 8980,
      "mobile": 8981,
      "ĉĉĉĉĉĉĉĉĉĉ": 8982,
      "ÏĦ": 8983,
      "Segment": 8984,
      "ĠAust": 8985,
      "Dependency": 8986,
      "cert": 8987,
      "atre": 8988,
      "integer": 8989,
      "istics": 8990,
      "termin": 8991,
      "Ġbey": 8992,
      "ĠGal": 8993,
      "Ġpages": 8994,
      "sat": 8995,
      "Ġlumin": 8996,
      "Should": 8997,
      "Ġcomposition": 8998,
      "Ġteach": 8999,
      "Ġpull": 9000,
      "icensed": 9001,
      "kins": 9002,
      "Ġinfinite": 9003,
      "native": 9004,
      "Ġ'.": 9005,
      "meter": 9006,
      "Ġtools": 9007,
      "recated": 9008,
      "ANCE": 9009,
      "Ġreson": 9010,
      "Ġentered": 9011,
      "Remote": 9012,
      "ĠDet": 9013,
      "Tw": 9014,
      "Ġmodal": 9015,
      "eness": 9016,
      "apers": 9017,
      "ĠFrank": 9018,
      "contact": 9019,
      "ĠOriginal": 9020,
      "osh": 9021,
      "Overview": 9022,
      "Ġtags": 9023,
      "sell": 9024,
      "Ġche": 9025,
      "rama": 9026,
      "Ġactor": 9027,
      "Drag": 9028,
      "wd": 9029,
      "ĠAny": 9030,
      "Wait": 9031,
      "Env": 9032,
      "fast": 9033,
      "Ġdet": 9034,
      "Ġexplicitly": 9035,
      "Login": 9036,
      "Ġstaff": 9037,
      "Ġcancel": 9038,
      "Word": 9039,
      "Card": 9040,
      "phrase": 9041,
      "ĠCatholic": 9042,
      "Program": 9043,
      "ĠDescription": 9044,
      "Home": 9045,
      "Ġaud": 9046,
      "catch": 9047,
      "ĠBack": 9048,
      "Ġbeyond": 9049,
      "jQuery": 9050,
      "Äĩ": 9051,
      "Ġtypical": 9052,
      "Ġwind": 9053,
      "Ġedit": 9054,
      "Ġgraphs": 9055,
      "Ġsn": 9056,
      "Ġresp": 9057,
      "ald": 9058,
      "Ġinputs": 9059,
      "125": 9060,
      "Ġdifferential": 9061,
      "ĠRemove": 9062,
      "GN": 9063,
      "Private": 9064,
      "dark": 9065,
      "Ð°Ð½": 9066,
      "ceeded": 9067,
      "Ġpolice": 9068,
      "áĥ": 9069,
      "Ġstrength": 9070,
      "ishes": 9071,
      "osing": 9072,
      "tensor": 9073,
      "bat": 9074,
      "photon": 9075,
      "Ġmoving": 9076,
      "ĠHig": 9077,
      "gp": 9078,
      "Ġweights": 9079,
      "Span": 9080,
      "ĠRichard": 9081,
      "Usage": 9082,
      "anch": 9083,
      "Ġcommit": 9084,
      "Light": 9085,
      "ĠPR": 9086,
      "glyphicon": 9087,
      "Ġsuff": 9088,
      "Html": 9089,
      "Two": 9090,
      "Ġscience": 9091,
      "Ġmovement": 9092,
      "Ġsays": 9093,
      "Ġvac": 9094,
      "Ġ'%": 9095,
      "Ġ'',": 9096,
      "ĠCoq": 9097,
      "Day": 9098,
      "Ġmerge": 9099,
      "arguments": 9100,
      "utdown": 9101,
      "Ġcos": 9102,
      "ierarchy": 9103,
      "Ġdevices": 9104,
      "Ġfood": 9105,
      "Throw": 9106,
      "[-": 9107,
      "<<": 9108,
      "ĠLake": 9109,
      "Ġstrongly": 9110,
      "Ġaccomp": 9111,
      "Ġproved": 9112,
      "Ġbank": 9113,
      "Ġhypot": 9114,
      "getId": 9115,
      "1978": 9116,
      "Ġinj": 9117,
      "Timer": 9118,
      "Ġamplitude": 9119,
      ")}_{": 9120,
      "Ġindustry": 9121,
      "ository": 9122,
      "iers": 9123,
      "Ġplays": 9124,
      "urt": 9125,
      "DATE": 9126,
      "Ġcomputation": 9127,
      "Bus": 9128,
      "General": 9129,
      "ĠIreland": 9130,
      "ĠAndroid": 9131,
      "ockey": 9132,
      "Ġremained": 9133,
      "Ġscattering": 9134,
      "Cla": 9135,
      "ĠMost": 9136,
      ";|": 9137,
      "ENV": 9138,
      "Rows": 9139,
      ")}}": 9140,
      "spin": 9141,
      "CHAR": 9142,
      "CLASS": 9143,
      "åħ": 9144,
      "CALL": 9145,
      "ĠLos": 9146,
      "Ġfmt": 9147,
      ")+\\": 9148,
      "Ġcolspan": 9149,
      "ĠVictor": 9150,
      "sky": 9151,
      "Ġphen": 9152,
      "Ġexpressed": 9153,
      "Ġmedal": 9154,
      "lets": 9155,
      "ĠĠĠĠĠĠĠĠĠĠĠĠĠĠĠĠĠĠĠĠĠĠĠĠĠĠĠĠĠĠĠĠĠ": 9156,
      "Ġamb": 9157,
      "Ġexplan": 9158,
      "paragraph": 9159,
      "Ġability": 9160,
      "250": 9161,
      "Ġshowing": 9162,
      "Ġpriv": 9163,
      "ĠSeries": 9164,
      "requ": 9165,
      "1976": 9166,
      "month": 9167,
      "ĠMicrosoft": 9168,
      "Ġlove": 9169,
      "Ġleader": 9170,
      "subject": 9171,
      "cks": 9172,
      "audio": 9173,
      "Ġprovider": 9174,
      "ĠProcess": 9175,
      "Ġnucle": 9176,
      "Ġcompatible": 9177,
      "Introduction": 9178,
      "Ġartists": 9179,
      "states": 9180,
      "Ġbeam": 9181,
      "Ġobservation": 9182,
      "NC": 9183,
      "}{(": 9184,
      "Fl": 9185,
      "PHP": 9186,
      "ĠJson": 9187,
      "ĠBill": 9188,
      "Ġdisp": 9189,
      "arian": 9190,
      "Ġselector": 9191,
      "igan": 9192,
      "Ġsaf": 9193,
      "ĠXML": 9194,
      "Ġoscill": 9195,
      "Ġbits": 9196,
      "Center": 9197,
      "ycle": 9198,
      "ĠWrite": 9199,
      "Ġcalculations": 9200,
      "Ġreferences": 9201,
      "bose": 9202,
      "ipage": 9203,
      "Ġdepending": 9204,
      "touch": 9205,
      "TRY": 9206,
      "000000": 9207,
      "available": 9208,
      "ĠRock": 9209,
      "NotFound": 9210,
      "Ġsch": 9211,
      "blob": 9212,
      "Ġcivil": 9213,
      "ien": 9214,
      "Ġig": 9215,
      "resentation": 9216,
      "1972": 9217,
      "aria": 9218,
      "Ġstudent": 9219,
      "CONT": 9220,
      "Batch": 9221,
      "Renderer": 9222,
      "rams": 9223,
      "Ali": 9224,
      "à¥": 9225,
      "Ġcalling": 9226,
      "ĠStatus": 9227,
      "uuid": 9228,
      "Ġharmon": 9229,
      "wx": 9230,
      "elem": 9231,
      "Ġshowed": 9232,
      "fmt": 9233,
      "Ġreduction": 9234,
      "ĠIll": 9235,
      "Ġshell": 9236,
      "atics": 9237,
      "Ġchalleng": 9238,
      "}}$,": 9239,
      "ĠLand": 9240,
      "Ġfunctional": 9241,
      "Real": 9242,
      "Messages": 9243,
      "moment": 9244,
      "Ġpurch": 9245,
      "ĠHill": 9246,
      "Information": 9247,
      "Ġmoney": 9248,
      "ati": 9249,
      "scriptsize": 9250,
      "ĠGod": 9251,
      "ĠGeorg": 9252,
      "$),": 9253,
      "Îµ": 9254,
      "what": 9255,
      "Ġadvant": 9256,
      "While": 9257,
      "Ġsupports": 9258,
      "Syntax": 9259,
      "Prev": 9260,
      "ĠBus": 9261,
      "Ġcourt": 9262,
      "Ġinitially": 9263,
      "ĠMel": 9264,
      "Ġseems": 9265,
      "lig": 9266,
      "Bottom": 9267,
      "Nullable": 9268,
      "Ġcapture": 9269,
      "decor": 9270,
      "Book": 9271,
      "Tags": 9272,
      "Term": 9273,
      "~~~~~~~~": 9274,
      "Loop": 9275,
      "Ġadjust": 9276,
      "ighter": 9277,
      "scape": 9278,
      "Addr": 9279,
      "\"/": 9280,
      "Ġ$_": 9281,
      "|_{": 9282,
      "itivity": 9283,
      "mf": 9284,
      "}}$.": 9285,
      "ogeneous": 9286,
      "ORY": 9287,
      "lector": 9288,
      "×ķ×": 9289,
      "Ġidentifier": 9290,
      "licity": 9291,
      "1974": 9292,
      "ĠAppend": 9293,
      "Ġprojects": 9294,
      "fff": 9295,
      "Ġprojection": 9296,
      "assertTrue": 9297,
      "Ġsys": 9298,
      "algorithm": 9299,
      "Ġtranslation": 9300,
      ".\"\"\"": 9301,
      "ĠProf": 9302,
      "abc": 9303,
      "Ġgoes": 9304,
      "viewport": 9305,
      "ĠNews": 9306,
      "}{|": 9307,
      "UMM": 9308,
      "Ġscenario": 9309,
      "ĠStep": 9310,
      "have": 9311,
      "Ġdifferences": 9312,
      "feed": 9313,
      "Ġlisting": 9314,
      "Ġcompetition": 9315,
      "}$)": 9316,
      "Look": 9317,
      "Ġsurvey": 9318,
      "validation": 9319,
      "FFER": 9320,
      "timestamp": 9321,
      "ARG": 9322,
      "ĠWindows": 9323,
      "bean": 9324,
      "Ġlimits": 9325,
      "Chain": 9326,
      "Ġaapt": 9327,
      "1977": 9328,
      "ishop": 9329,
      "compute": 9330,
      "Complete": 9331,
      "ĠSpr": 9332,
      "Ġdialog": 9333,
      "Bits": 9334,
      "Ġball": 9335,
      "ĠCG": 9336,
      "Ġtechnology": 9337,
      "ĠMock": 9338,
      "ibli": 9339,
      "Mapper": 9340,
      "Ġalternative": 9341,
      "NODE": 9342,
      "facebook": 9343,
      "})$,": 9344,
      "Ġevaluate": 9345,
      "Ġfight": 9346,
      "(\"#": 9347,
      "references": 9348,
      "mean": 9349,
      "Ġinterpret": 9350,
      "Strategy": 9351,
      "aming": 9352,
      "aka": 9353,
      "Ġult": 9354,
      "unched": 9355,
      "ersistent": 9356,
      "Ġaddresses": 9357,
      "Gui": 9358,
      "ĠMP": 9359,
      "iming": 9360,
      "UD": 9361,
      "Place": 9362,
      "ĠPenn": 9363,
      ")-\\": 9364,
      "NET": 9365,
      "!!": 9366,
      "Ġopening": 9367,
      "cassandra": 9368,
      "Ġprograms": 9369,
      "1975": 9370,
      "Ġbrother": 9371,
      "Errors": 9372,
      "Ġfeatured": 9373,
      "Ġmodules": 9374,
      "VE": 9375,
      "cong": 9376,
      "\"},": 9377,
      "posal": 9378,
      "ĠFinally": 9379,
      "ĠHome": 9380,
      "ĠÅ": 9381,
      "minipage": 9382,
      "Ġhydro": 9383,
      "ĠBook": 9384,
      "vin": 9385,
      "ying": 9386,
      "Ġ\".": 9387,
      "Ġmainly": 9388,
      "alog": 9389,
      "Ġcarried": 9390,
      "LOW": 9391,
      "Ġindices": 9392,
      "hol": 9393,
      "Ġartist": 9394,
      "encode": 9395,
      "ĠSE": 9396,
      "Ġaircraft": 9397,
      "ĠĠĠĠĠĠĠĠĠĠĠĠĠĠĠĠĠĠĠĠĠĠĠĠĠĠĠĠĠĠĠĠĠĠĠĠĠĠĠĠĠĠĠĠĠĠĠ": 9398,
      "chart": 9399,
      "Ġmeasures": 9400,
      "&=&": 9401,
      "Ġordered": 9402,
      "Ġmarked": 9403,
      "sion": 9404,
      "Focus": 9405,
      "contents": 9406,
      "Ġremark": 9407,
      "duled": 9408,
      "license": 9409,
      "ĠWIDTH": 9410,
      "ASSERT": 9411,
      "Ġproport": 9412,
      "eto": 9413,
      "altColor": 9414,
      "ĠVirginia": 9415,
      "odes": 9416,
      "repository": 9417,
      "IAL": 9418,
      "Stop": 9419,
      "ea": 9420,
      "shal": 9421,
      "Ġthick": 9422,
      "ĠAnge": 9423,
      "Ġreserved": 9424,
      "ĠLu": 9425,
      ",âĢĿ": 9426,
      "Binary": 9427,
      "ĠCap": 9428,
      "Ġscales": 9429,
      "Ġintegration": 9430,
      "Ġspread": 9431,
      "Ġmostly": 9432,
      "itation": 9433,
      "ĠExample": 9434,
      "Ġevaluation": 9435,
      "Ġmodify": 9436,
      "ĠMedia": 9437,
      "Ġculture": 9438,
      "Ġdecided": 9439,
      "stitution": 9440,
      "stein": 9441,
      "oviet": 9442,
      "Early": 9443,
      ";|&": 9444,
      "sr": 9445,
      "ĠCommission": 9446,
      "Ġdesp": 9447,
      "ĠSol": 9448,
      "ĠLink": 9449,
      "Bo": 9450,
      "Ġinduced": 9451,
      "Ġord": 9452,
      "nobr": 9453,
      "Ġinverse": 9454,
      "Mac": 9455,
      "Äį": 9456,
      "remarks": 9457,
      "Ġsoft": 9458,
      "hard": 9459,
      "001": 9460,
      "Effect": 9461,
      "ĠOp": 9462,
      "chen": 9463,
      "CB": 9464,
      "Ġouter": 9465,
      "topic": 9466,
      "Ġruntime": 9467,
      "ä½": 9468,
      "Ġsites": 9469,
      "Ġodd": 9470,
      "ĠSpace": 9471,
      "Encoding": 9472,
      "Ġcritic": 9473,
      "Free": 9474,
      "Ġlot": 9475,
      "ĠResponse": 9476,
      "craft": 9477,
      "Ġdivision": 9478,
      "Ġfluct": 9479,
      "Ġdem": 9480,
      "cheduler": 9481,
      "elastic": 9482,
      "Platform": 9483,
      "AST": 9484,
      "libs": 9485,
      "Ġachieved": 9486,
      "Ġlif": 9487,
      "Ġtheoretical": 9488,
      "Ġappearance": 9489,
      "HEAD": 9490,
      "Resolver": 9491,
      "Ġconfirm": 9492,
      "Groups": 9493,
      "Fore": 9494,
      "tions": 9495,
      "Î¹": 9496,
      "gif": 9497,
      "Frames": 9498,
      "Ġoccurred": 9499,
      "Ġtimestamp": 9500,
      "ArrayList": 9501,
      "taining": 9502,
      "DEF": 9503,
      "Ġtd": 9504,
      "ĠEnt": 9505,
      "Microsoft": 9506,
      "MAP": 9507,
      "Ġinitialize": 9508,
      "))$": 9509,
      "Pojo": 9510,
      "Ġtrained": 9511,
      "Ġ$|\\": 9512,
      "1968": 9513,
      "Cmd": 9514,
      "gz": 9515,
      "Ġacquire": 9516,
      "HS": 9517,
      "ĠStar": 9518,
      "Ġwatch": 9519,
      "Ġthermal": 9520,
      "Timestamp": 9521,
      "101": 9522,
      "Ġexpanded": 9523,
      "Sch": 9524,
      ":}": 9525,
      "Ġminor": 9526,
      "ĠDO": 9527,
      "iger": 9528,
      "Contact": 9529,
      "Literal": 9530,
      "cref": 9531,
      "inity": 9532,
      "Extensions": 9533,
      "ĠclassName": 9534,
      "_-": 9535,
[...]
