#version: 0.2
Ġ t
i n
h e
Ġ a
o n
Ġ Ġ
r e
a t
Ġt he
e r
e n
Ġ s
o r
a l
i t
Ġ o
i s
a n
Ġ c
e s
i on
a r
Ġ w
Ġ f
e d
Ġ \
Ġo f
Ġ p
n d
Ġ in
Ġ b
l e
i c
in g
ĠĠ ĠĠ
Ġ $
r o
Ġ d
Ġa nd
a s
Ġ m
c t
Ġt o
e l
e t
i g
en t
o u
r a
i l
Ġt h
o m
at ion
s t
{ \
i m
Ġ re
Ġ e
Ġ h
a m
o l
o t
Ġ n
Ġ is
Ġ (
Ġ T
Ġ l
Ġ S
i d
c e
v e
u t
Ġf or
s e
Ġ A
c h
Ġ C
_ {
Ġ g
u r
o w
u l
q u
l y
v er
a b
Ġ on
e g
it h
Ġ$ \
u m
at h
u s
Ġth at
Ġs t
Ġ M
Ġb e
Ġ I
ĠĠ Ġ
Ġc on
a d
o d
e m
en d
ĠĠĠĠ ĠĠĠĠ
Ġa s
i f
u n
m ath
Ġw ith
2 0
â Ģ
i r
t a
Ġ B
t er
Ġ P
ct ion
Ġ Ċ
g e
č Ċ
r i
a y
Ġw e
Ġ &
ig h
Ġa l
p h
} \
Ġp ro
t h
Ġa n
u re
} $
ĠT he
is t
Ġ F
^ {
Ġ H
Ġb y
Ġ v
o s
an d
p p
Ġ R
he r
e x
it y
m a
Ġ L
Ġ D
igh t
i v
at e
Ġe x
p e
Ġ W
er s
Ġa re
a c
re s
re f
p t
Ġw h
Ġc om
it e
ro m
Ġd e
Ġ =
c al
Ġa t
o re
Ġ N
es t
in e
u b
ar t
1 9
} }
( \
Ġ G
Ġ it
Ġ E
i al
eg in
i es
Ġw as
p er
p l
b egin
Ġf rom
Ġs e
es s
ra c
an t
il l
i ve
Ġ or
o c
_ {\
f t
) $
p s
u d
n t
e w
T he
m ent
a g
Ġ r
ex t
i z
al l
e re
} {
Ġ u
or t
o p
ic h
ic al
Ġth is
a k
Ġ he
in t
l d
f rac
e q
ul t
Ġs h
Ġ y
o g
as s
el l
Ġ O
at ed
Ġ J
, \
r an
ou r
or m
e ct
} )
a ve
it ion
Ġs u
e qu
b er
c l
c ite
Ġc h
Ġcom p
Ġ -
d e
ig n
r m
f f
Ġ le
en s
t ext
Ġn ot
ro u
u e
r ight
Ġre s
ation s
0 0
Ġc an
ab el
ar d
ĠĠĠĠ ĠĠĠ
d u
ar y
Ġc l
a re
20 1
} ,
math b
t he
am e
Ġ k
Ġ U
$ ,
Ġwh ich
l abel
ĉ ĉ
Ġ K
$ .
Ġ us
Ġh ave
âĢ Ļ
Ġin t
i an
ĠI n
u st
' s
ab le
a ce
et a
as t
c on
equ ation
Ġp l
on g
Ġw he
math cal
l ow
c c
} .
o st
as e
im e
a ge
i p
a p
a ct
le ft
i a
or k
en er
t her
i re
} (
i b
a v
f ig
s o
) ,
id e
Ġ "
Ġ im
Ġ un
ac k
Ġ âĢ
r u
a in
e ar
or d
ion s
an g
} ^
en ce
a ch
~ \
f orm
Ġa pp
Ġm od
g h
ou s
} _
Ġh as
Ġ V
) .
r ic
Ġ {
Ġa b
d a
f ere
c om
Ġ <
ph a
am b
Ġs p
in d
al pha
1 0
p ro
ĠS t
o ver
ĠT h
Ġal l
) \
ou t
Ġ +
Ġo b
ou ld
l ine
I n
el y
Ġa d
er m
ro w
20 0
- -
r y
ou nd
s um
Ġon e
Ġal so
c es
ol d
w o
Ġp art
$ \
el ta
s p
o k
amb da
ri b
pe ct
Ġcon t
) ;
= "
Ġm e
an ce
ta in
ent s
Ġ qu
Ġd is
ĠĠĠĠĠĠĠĠ ĠĠĠĠĠĠĠĠ
ow n
ic e
er v
or s
Ġ j
at es
re e
im es
am ma
i k
p le
i e
cl ud
. .
o v
_ \
or y
m u
i le
w e
o se
ir st
Ġp er
Ġh is
un ction
ar k
Ġ if
om e
ic s
Ġ\ \
ul ar
Ġs y
m b
= \
al ly
} ^{
d ot
h o
} _{
ig ma
res s
Ġa r
mathb b
ra y
Ġ |
Ġt wo
Ġw ill
Ġe v
ut ion
s ub
o f
ar i
eg a
o int
is h
- \
a u
ran s
c ent
Ġo ut
ĠC h
ver s
Ġwe re
Ġp re
Ġb ut
at a
e p
^ {\
t o
ph i
h at
Ġn e
i el
Ġthe ir
Ġfor m
Ġs et
ol low
f in
pt ion
o b
Ġ {\
1 8
< /
Ġmod el
j ect
l ambda
ra ph
Ġ en
Ġit s
Ġd if
o ve
p on
l l
ur n
Ġ }
ter n
/ /
v el
p ort
Ġf irst
ou nt
on e
iel d
Ġo ther
c he
n e
b f
c k
Ġm ore
nd er
c re
ĠW e
um ber
y s
Ġf unction
l ic
r it
Ġv al
Ġf ollow
p i
Ġt ime
Ġ Y
Ġo ver
Ġy ou
a pp
Ġcon s
Ġres ult
Ġb et
Ġd o
1 2
ra m
d ition
w id
at ure
il on
Ġo ur
Ġd es
ps ilon
t e
se ction
le ct
Ġwhe re
st em
Ġsu ch
Ġs ub
iz e
i x
mathb f
Ġs im
p art
at ive
Ġ ro
Ġcl ass
s igma
Ġs o
Ġm an
od e
ĠI t
c ed
^{ -
m er
Ġre l
Ġe qu
s et
Ġon ly
Ġ( \
s c
Ġw ork
res ent
Ġc or
il de
ver y
Ġa g
p os
Ġ [
l es
Ġd ist
Ġ *
b eta
al ign
Ġg ener
v i
ĠĠĠĠ Ġ
ar g
Ġcon st
Ġn ew
o x
ĠĠĠĠĠĠĠĠ ĠĠĠ
u p
et h
i ed
Ġbe en
le m
} {\
Ġthe re
Ġre g
k s
ation al
Ġthe y
if ic
Ġin ter
a x
ot h
Ġth an
pe c
Ġc o
u al
Ġa cc
ĠTh is
rou nd
as ed
Ġt ra
f ter
s s
Ġp h
n g
fere n
g amma
Ġthe n
Ġt e
b ar
d er
we en
Ġm at
Ġp os
Ġsh ow
is s
ar am
ing s
+ \
Ġl o
math rm
Ġc ol
Ġan y
ak e
ar ray
âĢ Ŀ
il ity
Ġwhe n
W e
Ġint o
* }
ic t
Ġu p
Ġt rans
re d
ĠU n
i ent
in ce
ĠH e
ĠS e
d elta
Ġbet ween
at or
Ġwh o
at ing
r ho
^ \
19 9
ol og
) }
the ta
R e
Ġs ome
\ \
an s
Ġ ra
] {
Ġe ach
Ġh ad
a w
ru ct
Ġg iv
ta u
fig ure
on s
c ess
is e
le q
Ġpl ay
it ies
Ġs c
Ġsy stem
t t
$ -
1 5
he re
y pe
p ut
l o
oc k
s h
Ġd ata
il d
p r
ĠâĢ ĵ
Ġthe se
c dot
Ġe ff
}$ ,
he d
}$ .
Ġf in
Ġu nder
1 6
fere nt
it s
ment s
Ġpro b
wid th
u es
Ġs ol
Ġcom m
r al
Ġg o
a il
Ġp oint
ib le
rou gh
} (\
n u
Ġ x
at er
Ġ her
b ig
1 1
an n
r t
it em
âĢ ĵ
Ġn o
Ġin clud
ik e
id ent
ou gh
m all
Ġy ear
p end
Ġu se
r ing
r on
ot e
Ġk n
ay s
Ġc ase
Ġp ol
Ġus ed
i o
Ġst ud
S t
t imes
Ġab out
" >
Ġpro v
w ard
eq ref
Ġof f
part ial
Ġ i
ĠR e
Ġp e
Ġf e
eq n
c y
Ġl ine
ar row
Ġapp ro
Ġw ould
y n
Ġdif ferent
Ġin v
om ega
t ilde
T h
Ġn umber
ft y
le t
ic k
in fty
Ġex t
iz ed
ul l
Ġa ct
2 2
ĠF or
us s
aram et
Ġn on
Ġ est
1 3
Ġpro du
ab l
m in
iz ation
Ġv ari
c ol
m m
t urn
al s
p m
eth od
ow er
l i
con d
it ed
| \
o ol
Ġm ay
op le
ub lic
l and
rou p
2 1
D elta
Ġ| |
ur ing
n ing
Ġus ing
qu ad
s y
an ge
el f
ction s
e ver
ist s
Ġin d
1 7
o ot
u g
f or
is m
Ġf ield
Ġpart ic
Ġas s
Ġc ur
ere d
1 4
v ar
am ple
ĠD e
Ġs ign
ver t
ĠâĢ ľ
s im
Ġm ost
id er
g et
Ġs ame
ar ch
g y
in s
a ir
\ ,
v al
Ġre p
Ġa fter
ical ly
ĠP ro
Ġ X
Ġ Q
il y
Ġgiv en
Ġw ell
ct or
c a
e y
* *
Ġt erm
x i
Ġ '
en g
Ġd et
ar ge
u nd
er t
Ġde fin
o y
i vers
Ġb l
Ġf l
per t
Ġthe m
Ġsu pp
sp ace
ĠC om
ore m
s erv
p ar
se c
Ġs he
Ġre c
Ġs pec
} }\
Ġo per
h i
it t
Ġ Z
ĠA l
in es
iv ely
Ġf act
} [
Ġfollow ing
Ġin st
eqn array
as es
)$ .
au se
in k
ran g
E x
2 5
Ġb oth
Ġs ur
n er
Ġbe c
Ġ .
Ġst ate
Ġd ire
ot s
ow ever
Ġa m
Ġ ent
Ġth rough
ir c
ou n
ĠN ew
Ġg et
ri v
cent er
ad e
Ġ$ (
Ġ z
ra ct
Ġh igh
Ġde f
mer ic
. ,
Ġex p
Ġor der
Ġf il
$ $
w here
oc i
t on
ar s
Ġob tain
e psilon
ut e
as ure
Ġresult s
Ġp aramet
Ġeff ect
he n
our ce
O m
in ed
Ġe m
Ġdis c
o ok
ic es
or ld
Ġm in
3 0
19 8
u ch
ent ial
am p
s q
n ot
re n
ri x
Ġb ound
Ġper form
ĠA s
ps i
Ġan al
Ġm ethod
ion al
} _{\
Om ega
on t
Ġs mall
Ġse e
d ing
ab ility
) )
form ation
^ *
Ġ end
Ġ ed
Ġs a
Ġb ack
Ġth ree
at t
is ion
Ġs ing
Ġre qu
ĠF ig
Ġm ass
res pon
ang le
as h
Ġdes c
feren ces
ener gy
y p
Ġre turn
G amma
re at
in clud
)$ ,
or n
Ġb u
Ġpe ople
Ġval ue
-- --
Ġc ent
2 3
w ork
e e
as on
= =
al ity
ul ation
at ic
Ġde c
Ġe le
Ġse cond
er r
sq rt
Ġa c
ruct ure
Ġst r
Ġf ound
re l
f ul
ro ss
er n
in ing
Ġwh ile
Ġp r
Ġ$ {\
Ġc all
5 0
text bf
sub section
Ġne ed
on d
Ġle ad
an y
rib ution
Ġ :
Ġob serv
ĠĠ Ċ
Ġme asure
ar ly
right arrow
f ore
} =
mb ol
v are
am es
Ġag ain
Ġl ike
l ed
Ġt r
}^ {\
Ġat t
is hed
vare psilon
^{ (
raph ics
Ġres pect
Ġcon dition
ch ool
de f
re nt
f ra
w n
Ġe very
b m
m an
Ġ čĊ
e c
Ġ\ ,
o h
ut h
F or
Ġpro cess
Ġex pl
en cy
ag es
l og
et s
Ġsp ace
i er
ric t
Ġn ow
) =
Ġs er
ur al
Ġm em
Ġ /
rang le
i qu
ith m
2 4
ca ption
Ġprob lem
et ric
vel op
ĠA meric
c m
Ġp resent
a h
ĠĠĠĠĠĠĠĠ ĠĠĠĠĠĠĠ
" ,
olog y
Ġb el
he s
Ġas sum
ff ic
Ġ energy
Ġrep resent
b old
Ġex per
Ġd i
Ġin cre
Ġcor respon
Ġlo cal
00 0
t en
19 7
Th is
im ens
Ġm ult
Ġs erv
um n
Ġc ould
eg raphics
includ egraphics
Ġman y
n on
m e
ĠL e
in al
p en
Ġs cal
Ġf ind
t ab
ivers ity
- >
y le
Ġo pt
( )
ant s
et work
Ġl ong
ra d
f er
Ġs ince
Ġl arge
ĉĉ ĉĉ
Ġch ar
Ġl im
Ġcomp le
ĠA n
Ġ `
em ent
are d
if e
P ro
ĠS h
ire d
Ġbe ing
ut ions
an k
var phi
v ed
. ~\
Ġcons ider
' '
Ġj ust
v ent
o le
en e
Ġyear s
g or
Ġcont in
b all
Ġpos s
ĠI nd
ch i
Ġm on
if ied
Ġd en
el s
Ġgener al
Ġc re
feren ce
vi ew
Ġ very
ak ing
ol ution
ĠC on
if t
Ġy our
at her
ch n
um er
Ġp ublic
Ġh im
or th
ge q
Ġsa id
w ay
em ph
Ġr ight
Ġd uring
Ġdo es
ot t
b y
u c
Ġest im
. }
Ġbec ause
Ġwh at
it ive
ri pt
Ġra d
Ġc al
Ġ ve
n ess
Ġst art
C on
a z
ce pt
Ġev en
Ġar t
Ġm ain
a j
Re ferences
Ġ ,
Ġsh ould
over line
gor ithm
Ġfe ature
Ġf am
Ġg roup
ag n
f l
s k
& \
Ġe lect
an e
} ,\
pro of
tern al
I t
ro du
ĠC l
iss ion
Ġh ow
ur ther
m od
ot her
ra w
o id
) ^
pos ition
4 0
Ġst ructure
Ġdesc rib
Ġsupp ort
r id
i or
o od
vi ous
Ġre al
ro p
Ġt est
ens ity
Ġint eg
Ġs pect
at eg
B ig
m ed
v en
c o
}) .
Ġab ove
al e
re ad
ens ure
Ġval ues
sy mbol
b l
orm al
b e
Ġm ed
c er
ers on
ve c
A s
ou th
il ar
.. .
eng th
Ġm ade
fra k
b ers
Ġp a
s on
h line
Ġ ident
Ġb ased
[ \
Ġs at
Ġc ount
Ġqu ant
Ġde velop
Ġt em
Ġad d
r um
Ġt ype
Ġre le
Ġto p
l ess
19 6
bold symbol
v es
ur y
Ġn ame
Ġbe fore
Ġfil m
k e
if y
r ation
am pl
os s
i j
g ram
g er
} }$
l angle
Ġcon tain
Ġw ay
ĠC ol
Ġde pend
Ġh and
S T
m ber
Ġsh own
E R
ref ore
Ġte am
L ambda
ou se
x im
l im
Ġpro pert
u ally
g g
er o
Ġth ose
c ul
ter s
n ame
h ip
Ġp res
c or
w h
act er
Ġfollow s
app a
de pend
Ġ //
1 00
Ġv i
Ġf our
i ence
Ġal low
Ġg u
Ġm y
Ġmodel s
math frak
Ġcomp ut
L et
Ġb as
g an
Ġin formation
Ġst and
Ġr un
ĠI f
P hi
Ġc a
it ial
t ing
s u
C h
Ġor ig
ĠS c
over n
iv ed
iv al
Ġd ue
ld ots
mb ox
Ġkn ow
Ġn etwork
Ġle t
Ġdire ct
Ġle vel
2 7
se e
ĠO n
Ġim port
: :
Ġm ake
k appa
at ch
iv es
Ġprov id
Ġw rit
Ġ @
Ġdefin ed
ĠA d
Ġkn own
n abl
Ġp op
Ġst at
ĠUn iversity
Ġad dition
. \
or ph
yn am
b ra
Ġre du
p re
ĠE x
it al
Ġre st
ere st
Ġ el
Ġl ast
Ġre m
at ors
2 6
ar n
Ġg l
Ġs um
Ġex ample
ect ed
f ace
im al
Ġpartic ular
w ith
2 8
Ġ< /
Ġbe com
Ġob ject
Ġex pect
cite p
Ġp ower
y m
Ġa v
ys is
' ,
nabl a
Ã ©
C om
Ġl ow
is f
g es
ĠAmeric an
Ġ >
Ġ et
Ġinclud ing
Ġ err
Ġre ad
ro l
Ġsing le
om en
Ġse ction
201 8
ĠH owever
Ġterm s
Ġdist ribution
Ġcur rent
et ry
n o
Ġo pen
Ġsim ilar
20 20
Ġc ar
in a
Ġdet erm
non umber
.. /
b ack
at ely
Ġl oc
ot imes
ĠA r
text it
Ġm uch
ific ation
Ġdes ign
t r
ot ential
d s
Ġhe l
Ġhe re
m ult
e ps
} )$
et ic
s f
e ction
in c
Ġc he
d is
ac es
Ġdisc uss
c ur
Ġd er
I N
o per
al th
b s
ord ing
re m
20 19
Ġstud y
pl it
c irc
201 7
sub set
A T
ĠI s
Ġle ft
pl ic
Ġg ra
b ox
re qu
Ġwith in
d ay
Ġcomm un
as k
Ġshow s
Ġpre d
Ġbe h
\ %
u le
Ġd om
Ġto t
ar m
201 6
h t
ĠĠĠĠĠĠĠĠ Ġ
t able
Ġpro f
ĠP h
Ġre ma
S igma
4 5
: //
Ġh ig
pl ay
Ġv is
Ġa round
Ġte chn
com m
eta il
le y
us ic
Ġpoint s
}) ,
en se
\ |
ist ic
ure s
i od
rac k
ak es
Ġl ist
em ber
ĠP l
a ction
Ġd own
D e
Ġal gorithm
A R
ĉĉ ĉ
od y
Ġs ize
Ġl arg
er y
n ew
cc ess
Ġre port
Ġch o
col or
le ction
is ed
2 9
im ent
}} {
Ġm agn
ess age
ĠA nd
T o
Ġd id
\ [
in ation
Ġst ill
b le
Ġsat isf
ix ed
at ter
Ġt ri
Ġal ong
is on
3 3
Ġcontin u
Ġp at
} ;
ensure math
Ġo cc
ĠUn ited
ord s
in ks
o ber
Ġd ensity
r and
Ġm ax
Ġparamet ers
6 0
ĠS he
ĠThe n
ist ory
Ġin du
Ġagain st
\ !
Ġin s
Ġt ake
oh n
re g
Ġchar acter
Ġobtain ed
et y
Ġm ust
ver al
m l
ĠE ng
dot s
Ġint erest
p or
ĠT o
Ġin itial
201 5
iv ity
Ġp ar
) :
um ent
Ġn ear
âĢ ľ
wid et
Ġint rodu
i um
Ġser ies
ĠR es
e k
st r
d iv
Ġb est
Ġass oci
g round
/ \
Ġ )
le ar
Ġcall ed
Ġme an
Ġstr ong
depend ent
Ġposs ible
A S
O N
ĠM ar
Ġsol ution
e ad
Ġh old
Ġcomp on
og raph
Ġp otential
Ġo wn
Ġsu per
widet ilde
pos ed
Ġappro xim
Ġequ ation
F ig
Ġm ark
Ġmat rix
Ġst ates
Ġw orld
ur b
. "
c it
Ġre ce
Ġpre vious
or ies
. âĢĿ
Ġexp ress
os ed
Ġim p
Ġl ater
Ġfunction s
Ġgo od
t il
ver se
i i
Ġfl u
Ġ` `
Ġse qu
201 4
Ġd eg
un e
Ġex ist
iv id
Ġtot al
3 2
Ġ vers
Ġpro gram
sp an
Ġp ass
ĠS p
Ġthe ory
in ess
w ide
Ġd em
ub l
ĠĠĠĠĠĠĠĠĠĠĠĠĠĠĠĠ ĠĠĠĠĠĠĠĠĠĠĠĠĠĠĠĠ
ĠL et
20 21
Ġbu ild
Ġwith out
i ents
Ġpa per
en n
3 5
Ġres pon
Ġfin al
ial ly
th s
Ġs elf
Ġlim it
u ro
Ġst re
i ous
Ġ q
Ġfam ily
Ġhel p
s er
che d
im um
Ġcom b
b it
A l
O n
ol l
p d
Ġc ou
{ -
Ġpred ict
ĠCom m
od es
c ap
Ġapp ear
20 22
Ġg ame
center ing
Ġlo ok
Ġse veral
oot ball
Ġb ro
ĠT e
a ps
per ature
P s
v an
pr ime
Ġc rit
} -
al k
Ġconst ant
Ġre f
e b
ĠA t
at rix
Ġanal ysis
Ġg raph
Ġ #
ĠĠĠĠ ĠĠ
Ġt yp
( );
Ġcomple x
Ġpos ition
Ġcorrespon ding
ĠâĢ Ķ
ĠB l
201 3
ir d
Ġa ver
tab ular
ab les
' t
9 0
Ġs l
ĠA ll
cl us
Ġm ov
w w
Ġprodu ct
iqu e
Ġ vert
Ġplay ers
av ing
Ġ- -
Ġcon f
Ġsign ific
ud e
ent ion
Ġcal cul
~ ~
t rans
Ġimport ant
( "
Ġrespect ively
Ġappro ach
ĠW h
ĠE q
ward s
Ġreg ion
Ġinv est
8 0
iv ing
Ġs chool
Ġm om
Ġn ext
19 5
se qu
ri es
Ġph ase
Ġse ason
aj or
201 0
I D
Ġph ot
Ġp ost
an u
d d
m p
\ ]
ĠC ar
Ġr ate
Ġm et
ĠB e
f e
ĠM ay
t s
an c
Ġ( $
Ġpro ject
l er
Ġl inks
and om
) =\
201 2
th is
\ {
Ġparamet er
Ġest abl
) (
; \
an ces
Â ł
} +
B y
che s
C l
Ġev ent
Ġe as
7 5
0 5
our ces
z eta
it her
ĠThe y
u se
Ġperform ance
Ġ& =
Ġl aw
t ime
Ġd etail
en ces
Ġstand ard
Ġper iod
pp er
a i
ĠC ount
Ġd imens
Ġ _
Ġr ange
a im
ampl es
end ed
olog ical
I I
Ġc ap
ĠC an
R E
uth or
ru ction
ĠB y
ma x
201 1
ĠThe orem
Ġph ys
ir on
Ġm ap
> </
---- ----
Ġl ife
Ġpl ace
Ġp air
Ġim pro
con st
R es
ĠS u
Ġind ic
th m
Ġb and
Ġs pe
Ġor gan
ĠN ational
Ġa ff
ex p
us iness
) }\
} =\
Ġf urther
em ma
arg et
Ġre se
ic le
Ġb re
pl oy
0 1
Ġt imes
Ġch ang
ĠSt ates
ĠG e
Ġare a
$ )
st yle
er ing
al ax
Ġan n
I f
con t
r ist
Ġsystem s
} ]
Ġf ull
s cal
or g
d raw
it er
overn ment
Ġar g
ĠJ ohn
Ġch ild
Ġhe ad
ĠC ent
ail able
ang u
rib ut
{ (
Ġpro of
ip le
Ġsy mm
om orph
Ġa ut
ĠF ran
Ġline ar
4 8
. ~
r is
w ays
Ġh y
Ġan other
Ġc are
Ġm ot
Ġtem perature
ob al
k et
) ^{
Ġl ight
Ġsignific ant
Ġf ree
Ġt urn
Ġ ide
Ġth ough
Ġapp lic
Ġvi ew
am ent
Ġdescrib ed
Ġhig her
ore d
o pt
are nt
in ter
Ġl ess
Ġd el
s elf
A n
> <
Ġl ower
ĠW orld
l ing
du ct
sc ript
f ield
tern ational
ian s
ĠY ou
Ġp ur
Ġd at
st and
3 6
Ġch ange
Ġtr ue
b um
Ġf ram
S S
ord er
Ġf ew
Ġp erson
9 9
u ation
o ff
ĠO r
Ġa ction
s l
Ġp ath
Ġh al
Ġg row
Ġc our
o ard
Ġfin ite
Ġr andom
id d
{ {\
oc us
Ġve ctor
3 1
Ġpro t
Ġv ol
Ġs m
Ġd ynam
a ult
as ing
Ġcondition s
Ġb ook
Ġcons id
is ter
** **
ag ue
as ter
in o
ĠSe ction
em pt
cdot s
Ġk e
cl ass
}_ \
lect ed
ffic ient
A N
Ġcont rol
c os
Ġun til
3 4
it le
ĠA ust
l ation
Ġcomp let
Ġc ases
Ġle ast
ro ll
Ġsh ort
i us
ul y
Ġim age
A L
200 9
} |
wh ich
Ġtra ining
os p
Ex ternal
wide hat
Ġsu ccess
a pe
ĠThe se
i am
Ġs ay
Ġ* /
}^ \
th ough
ar ning
in ary
Ġcons ist
ge bra
^ +
}\ ,
../ ../
Ġw ant
h tt
a e
t op
Ġc ross
3 8
Ġs om
}) \
Ġfeature s
" .
Ġpos itive
ĠThe re
Ġl ay
Ġre d
ill ion
Ġmethod s
Ġs ide
Ġobserv ed
anu ary
Ġre cent
end s
Ġb ir
ĠY ork
Ġdif f
ch ie
Ġl ength
== ==
al se
Ġcor re
Ġn eg
Ġab s
Ġo pp
7 0
Ġs it
il t
Ġan g
200 8
q quad
lem ma
) ]
ĠP ol
Ġd ay
& =
Ġinclud e
et er
Ġst ar
id es
ĠB ut
Ġf requ
Ġav ailable
f oot
Ġg e
Ġth us
text width
i ver
re en
Ġmom ent
Ġc ell
r ite
at s
um an
Ġs k
u nder
Ġs ource
Ġwe ight
Ġconst ra
Ġaver age
Ġn ormal
Ġinv ol
U n
Ġerr or
in ally
Ġcol l
Ġbel ow
ĠS chool
Ġpropert ies
un g
oc ial
rou ps
Ġfact or
Ġbet ter
, âĢĿ
Ġconsid ered
ce ption
ly ing
}} (
on al
Ġz ero
Ġse par
A C
H e
st it
O R
Ġc y
Ġs em
Ġprov ide
v iron
Ġf low
o pe
S E
Ġl ines
n ow
Ġdef ine
Ġassoci ated
Ġrec ord
b ased
en c
ab ly
Ps i
Ġl oss
Ġcl ust
Ġcon n
s ing
ht ml
ĠW ar
Ġw on
4 4
Ġin put
Ġm usic
ad d
app ro
ĠFig ure
s ource
Ġh ome
}^{ (
z e
a f
Ġe arly
Ġw in
Ġbeh av
Ġf ootball
ri ption
3 7
ĠM an
us h
Ġoff ic
ĠS outh
Ġ\ {
Ġg alax
ent ly
Ġin dependent
Ġpol it
n ce
am ed
ĠA pp
Ġm ajor
s mall
ĠR ep
Ġk ey
ta ck
9 5
ĠC o
ĠCount y
ĠO ct
Ġcou pl
ĠA ug
s ide
200 7
h old
t ype
ĠU S
ĠĠĠĠĠĠĠĠĠĠĠĠĠĠĠĠ ĠĠĠ
L E
Ġc irc
Ġqu est
Ġen g
Ġrel ations
b r
al t
Ġprob ability
is ing
ot es
r ary
Ġal bum
ut ure
r r
Ġpro posed
s in
Ġquant um
ul ations
ĠG u
Ġc ost
Ġh om
Ġw id
200 6
Ġle g
Ġex ists
c ode
ĠJ anuary
, -
ch an
Ġse en
Ġl og
Ġp riv
Ġcomp ar
p oint
g l
ac ed
Ġme ans
ord in
6 4
es c
}\ \
Ġl a
at ural
Ġde ath
Ġs ong
b b
Ġmult i
w are
Ġequ ival
ĠM in
he ad
ivid ual
m ost
ra p
Ġev al
ĠS y
( {\
Ġ$ (\
pt ember
e v
om an
Ġbec ame
Ġr at
m s
id ence
Ġe ither
n ode
ĠS ince
oper ator
Ġd on
er tain
rib utions
3 9
ĠN o
ur s
Ġg reat
Ġanal y
ind ent
c up
u k
ĠB rit
Ġorig inal
Ġn umer
A M
fl u
Ġsp in
Ġc over
ĠM arch
ul a
Ġsim ple
ĠC al
I C
ig en
Ġsur face
ĠE uro
Ġn ode
Ġf ixed
Ġacc ount
math sf
ra g
Ġg ive
0 4
Ġa chie
equ iv
uss ian
Ġexper iment
ple ment
Ġvari ous
ĠL emma
ĠM ore
Ġf ocus
Ġo ld
ĠG erm
ri ed
Ġ& \
ib ility
pr il
N ame
Ġman ag
Ġscal e
ide o
Ġpl an
sk ip
Ġv ia
v ing
Ġsu gg
Ġsugg est
w it
w ise
âĢ Ķ
Ġis s
( '
cit et
Ġdefin ition
Ġbl ack
T ype
ak en
Ġb i
it or
Ġspec ial
s ize
Ġan t
E N
ran sp
de fin
angu age
Ġassum e
Ġam ong
ul es
Ġh ref
Ġp o
com p
Ġsequ ence
ic y
h space
ne y
m essage
ian ce
ove mber
a ut
ur ation
Ġoper ator
ra ction
ial s
ĠSt ate
our n
Ġv ar
pd f
read y
Ġim pl
ĠP r
Ġmem bers
m at
Ġl and
Ġcomm on
Ġs che
ce mber
le v
ist or
0 6
Ġex act
ĠM e
Ġexpect ed
Ġen c
Ġcomp any
Ġe p
t d
ari ant
ĠC or
Ġform er
] $
ĠM ed
g o
Ġh owever
con om
} :
Ġp ubl
Ġre pl
| ^
if f
Ġtrans ition
Ġ es
Ġl ik
Ġh ard
A r
Ġcor rel
Ġp ri
ĠA rt
Ġle arning
el oc
Ġvers ion
I nt
ad a
w ed
pro p
Ġdi ag
m id
c le
ĠP ar
scal e
I d
Ġp ract
Ġele ment
im port
le ge
Ġal ways
Ġpro m
ĠAug ust
d imens
Ġf und
Ġb usiness
Ġlarg er
al es
ĠC ity
l ish
Ġof ten
) -
4 9
Ġequ ations
ĠS o
Ġth ink
200 5
il it
ĠSe ptember
le ment
ĠOct ober
Ġac ross
Ġbound ary
S h
Ġrequ ire
ĠJ une
our s
ĠR eg
0 8
Ġconst ruct
Ġcomp et
ann el
um e
ĠâĢ ĺ
st er
ograph y
' $
Ġdist ance
l or
ĠW ith
} +\
Ġm ove
0 2
}} {\
Ġrese arch
Ġt arget
u ck
Ġt re
Ġele ments
pp ed
o ch
ic ol
20 00
' )
Ġt ext
x space
Ġind ividual
viron ment
6 5
ĠP art
4 7
get her
Ġto gether
Ġm ight
Ġs ample
ab or
ĠJ uly
0 7
ĠO ne
Ġrel ated
Ġto o
Ġdat as
em s
Ġv eloc
Ġth ird
ir t
Ġden ote
Ġro le
Ġacc ess
Ġe mb
Ġde v
il es
ĠAust ral
Ġw omen
b or
f unction
b ut
ĠA pril
itt le
ĠEuro pe
Ġreg ular
on ic
e f
Ġ- \
ort s
re am
no indent
ĠTh us
ĠN orth
il i
operator name
Ġm ar
Ġpro p
h am
ĠA f
il ities
Ġst ep
n eq
} -\
Ġbecom e
200 4
D E
op y
Ġgiv es
on y
val ue
Ġev ents
st ar
iz ing
g ed
ĠN ovember
ener al
Ġg overnment
au gh
on es
Ġfield s
ot ed
Ġinvest ig
Ġin f
ĠA ss
ur ch
g en
Ġcl ose
ĠDe cember
Ġpop ulation
5 5
Ġf ive
Ġal ready
I T
Ġl abel
âĢ ¦
Ġeffect s
ĠA fter
an a
Ġc ity
ĠH am
amp ions
0 3
Ġb egin
Ġpr im
Ġapp l
) }{
d om
Ġcl aim
ĠS ch
ult s
] ,
ĠF eb
ĠW ill
St ring
n a
re turn
Ġre t
Ġst ars
Ġ ill
Ġs ens
Ġpropert y
4 6
med i
umer ate
L ist
Ġche ck
Ġab le
iv en
Ġun it
Ġf ore
il le
\ ,\
Ġg roups
Ġg round
Ġsol utions
itt ing
o oth
| -
Ġd ou
ress ion
ĉ Ċ
S e
Ġconstra int
m ore
Ġm etric
ic ro
ac he
ens ion
A P
n ote
Ġh aving
le x
Ġf ac
Ġt aken
Ġar ch
ra ft
the orem
Ġde p
Ġre fer
Ġmat ch
ĠW hen
Ġback ground
Ġplay ed
cal l
re st
ru ary
Ġed ge
Ġw ater
Ġdom ain
ron t
m ark
Ġeffect ive
en umerate
ĠM c
0 9
Ġem ploy
) }$
ra in
us ed
item ize
p aram
dimens ional
Ġwrit ten
( -
Ġthe refore
d own
ma p
ast ic
Ġwork s
oc ation
c ing
ver g
Ġa uthor
ĠE n
ĠE d
Ġf ar
v space
Ġrele ased
] \
Ġf uture
Ġat tack
Ġw ind
V al
$ }
Ġimpl ies
ĠCh rist
ac y
d ag
i ps
c ell
Ġh istory
Ġco e
Ġre view
h ib
th at
Ġne cess
ho od
s w
I S
Ġaddition al
/ >
C O
o cal
Ġrequ ired
Ġserv ice
Ġim plement
Ġp ut
ac hes
I nd
Ġf ig
Ġacc ording
_ _
Ġen ough
og n
ĠI I
itt ed
rac y
o pl
Ġp an
Ġme chan
Ġeff ic
Ġcomp ared
Ġg r
if orm
ĠH ar
Ġh app
Ġpre c
Ġw ave
sc r
Ġre ason
l ike
Ġc ertain
Ġdeg ree
end ing
al y
appro x
Ġs ix
r ated
Ġbel ie
oc ument
Ġg ames
ĠB ar
Ġhe alth
ĠC O
Ġinclud ed
C ol
S ee
Ġ= >
y l
ust om
Ġs qu
Ġp ress
a int
Ġset s
ight s
Ġc ut
Ġa ge
~ $
Ġcontain s
f ill
ct ors
Ġopt im
Ġg as
omorph ism
um p
Ġal gebra
at ively
Ġmat er
g n
Ġst ring
ap an
Ġwe ak
m ar
Ġf ail
Ġ _{
}} _
Ġnot e
u ff
Ġspect rum
Ġhold s
Ġmagn etic
ict ion
Ġhal f
Ġim ages
e ff
mult icol
Ġgo ing
Ġb eg
Ġne ut
c ast
row n
cre t
Ġt w
4 2
Ġgl obal
) {
Ġg en
p ol
Ġ !
ear ch
g s
multicol umn
Ġn ull
m y
ĠFeb ruary
r im
a ctions
Ġj o
Ġprovid ed
a ul
et t
Ġprodu ction
d ata
Ġcon c
Ġdif ference
Ġto ok
Ġn atural
Ġspec ific
Ġmult iple
ott om
i res
Ġwh ose
Ġpresent ed
l in
9 8
Ġstr ateg
ite ct
}} }
& &
" />
Ġunder stand
Ġcl os
ĠĠĠĠĠĠĠĠ ĠĠĠĠĠ
Ġcan not
Ġpro ve
a ff
Ġtrans form
200 3
Ġne ver
c her
k n
\ }$
C D
Ġb ase
Ġc ateg
P l
ĠK ing
ish ing
al le
Ġcon text
Ġcompon ent
av es
Ġev olution
ĠS er
^ -
o ad
Ġdevelop ment
Ġrel ation
Ġcommun ity
Ġb o
Ġm aking
Ġy ield
Ġp ort
Ġwe ek
Ġchild ren
re ed
re w
S ince
t ic
Ġel se
b orn
ul ated
ĠQ u
Ġwhe ther
Ġco ordin
Ġind ex
Ġveloc ity
i ber
Ġc le
Ġa ir
Ġh uman
m on
Ġb ig
Ġ\ |
Ġn um
f o
Ġout put
Ġor d
W ith
N N
Ġequ al
Ġc ode
6 6
Ġro t
ĠW est
Ġgener ated
ist ics
Ġcon fig
im ents
ĠL a
4 3
Ġimpro ve
ĠBrit ish
8 5
Ġr ather
Ġloc ated
se mb
f rom
Ġrepresent ation
pp ing
av y
m ary
ce ed
ed er
Ġst ation
ew ork
Ġbl ock
il ton
n ers
ar ies
Ġt itle
ĠThe refore
P i
r ast
Ġcent ral
Ġbas is
Ġcompon ents
b ur
Ġd ays
Ġs ite
Ġe ar
Ġpriv ate
M od
Ġmem ber
Ġst yle
Ġcount ry
Ġmat ter
Ġt reat
Ġestim ate
Ġrece ived
Ġexpl ain
ĠD ist
it ude
) +
Ġcomple te
Ġh ouse
Ġs ocial
y ing
Ġs ent
ad em
Ġthe orem
math scr
s plit
* {
Ġc lear
P h
v is
E C
# #
E S
Ġ& &
Ġdire ction
}^{ -
com e
Ġal most
Ġed uc
ta ct
ĠM on
au ge
ĠLe ague
ard s
Ġne igh
Ġcom e
ĠN e
ĠAf ric
iz es
ure d
9 7
The re
Ġreport ed
The ta
ĠE l
ĠD ep
ĠA g
Ġhe ld
Ġle arn
Ġincre ase
Ġcare er
Ġprof ess
Ġm en
ĠT able
Ġestabl ished
ren ch
E D
es e
Ġvari ables
clus ion
trans lation
oun c
g roup
ĠC he
ic ult
] .
r s
B C
ta ge
200 2
h a
ens or
4 1
Ġp erm
Ġrest rict
ru le
line ar
f act
Ġh ost
ourn al
Ġact iv
st ate
Ġup d
Ġ\ ;
led ge
ĠP er
ĠA b
Ġe igen
Ġal ign
m ing
9 6
ĠS an
ĠH is
A t
Ġf alse
is k
Ġc amp
ĠS im
Ġw ar
Ġh or
ĠP e
{ }
Ġa way
Ġsign al
ransp ort
ot a
du c
Ġadd ress
Ġrat io
ĠG l
Ġcl osed
Ġm illion
st e
Ġmax imum
Ġmark et
Ã ¡
Ġd one
oun ter
P S
n ormal
Ġst ory
b ound
ĠF rom
The n
Ġchang es
Ġus er
Ġcont ent
ell ing
Ġyou ng
) {\
Ġd iv
er a
L e
Ġflu x
ict ure
Ġcol or
Ġto wn
A d
Ġbuild ing
A A
Ġpubl ished
ĠEng lish
Ġval id
Ġinst ead
Ġ: =
ĠP ark
Ġphys ical
Ġann oun
Ġso ft
Ġun ique
] [
Ġw ords
and id
Ġde cre
) ,\
Ġt ry
um b
Ġbu ilt
Ġconst ruction
Ġsmall er
Ġcontinu ous
d t
Ġinst ance
Ġu pper
Ġperform ed
Ġke ep
dis play
ĠP res
ĠTh at
it ing
k ey
yn om
Ġpri or
at ives
re t
ort un
Ġprovid es
ond on
Ġlead ing
W h
Ġbeg an
Ġeval u
f ord
Ġv ideo
text rm
ĠH igh
ro id
Ġ= =
Ġn amed
Ġelect ron
Ġ$ |
Ġdem on
C C
< \
Ġfilm s
foot note
id ed
t ra
Ġstud ies
av a
Ġen vironment
Ġs ays
Ġm akes
text tt
200 1
ĠM ark
n orm
ac c
ĠCom p
under line
ut es
ĠF irst
big g
Ġappl ied
Ġs ources
Ġm iss
Ġbro ad
Ġdet ect
N ew
ĠĠĠĠ Ċ
F rom
O b
Ġbecom es
l a
} /
l n
Ġ$\ {
c an
Ġa rm
ĠG a
comm and
Ġt aking
o ps
ĠD av
min us
Ġbre ak
ou d
Ġt rack
ĠJ apan
ic it
im ate
Ġent ire
Ġp ast
subset eq
Ġf ri
O S
Ġc ult
Ġw rite
ove red
Ġp ay
Ġn ational
Ġge om
Ġ( $\
in ated
8 8
Ġr ank
Ġf it
Ġsc en
_ +
Ġindu st
ta int
Ġdirect ly
r ig
Ġdimens ion
Ġpr inc
o on
om s
Ġch all
ĠH er
6 7
Ġproblem s
ut il
att ice
Ġspec ies
Ġcrit ical
ounc il
p ly
ĠA rm
S u
g ress
lev ision
A meric
ĠN ote
Ġl ittle
l ight
^{ -\
Ġl iter
d ist
Ġbehav ior
Ġwork ing
ĠA m
Ġ id
ul ly
ie f
Ġimp act
pro d
Ġcho ice
Ġbir ths
i et
b and
p ers
Ġse arch
cent ury
in os
Ġon ce
lo ad
Ġcomp os
, "
Ġn uc
( $
Ġintrodu ced
Ġcol umn
Ġre ally
Ġam ount
\ '
Ġprodu ced
ĠT ra
Ġstud ents
l ong
kn own
Ġ ver
at ory
ot ic
ĠCh ar
Ġocc ur
k ing
Ġex ec
) |
Ġrespon se
u x
Ġquest ion
ill s
L L
Ġcl ub
ar ily
t ical
Ġrel ative
ĠH ouse
Ġv oid
Ġincre asing
Ġin flu
os en
ric es
Ġdiff icult
ve y
N ote
Ġequival ent
Ġme et
s pec
ir l
Ġfrequ ency
}} _{
Ġ round
$ _
Ġpartic ip
m it
V ert
A nd
ol ic
Ġn ov
Ġdetail s
Ġm er
ne ction
ĠM od
I M
Ġ %
ans ion
is c
Ġreg ions
en ing
Ġun cer
i ation
th ing
rib ute
Ġwid th
Ġother s
Ġb ody
Ġdeterm ined
Ġgalax ies
Ġh tt
20 23
ow s
} '
Ġder iv
Ġ â
ĠI nt
Ġplay er
Ġb ar
idd le
Ġobserv ations
A ll
Ġad van
ĠB ro
sh ift
alle l
S c
{ $
Ġpe ak
st ring
Ġno ise
Ġad j
dag ger
Ġinter action
Ġsymm etry
ribut ed
Ġobject s
k en
ari o
Ġ$ -
Ġinteg ral
set minus
S et
one y
ic les
opl us
b ook
7 7
Ġnum bers
Ġcent er
if old
A B
Ġcre ated
ell ar
ĠL ondon
\ }
Ġem ission
Ġallow s
Ġin equ
Ġg auge
ĠCol lege
Ġt akes
S p
D ata
ran ch
g ra
_{ (
E T
}} ,
Ġdiag ram
ww w
Ġdevelop ed
Ġv ill
Ġpro ced
6 8
t urb
Ġsm ooth
Ġl anguage
Ġcour se
" )
Ġsub ject
Ġoper ators
ĠV al
htt ps
Ġcorre ct
Ġexpress ion
d o
verg ence
I R
s el
Ġv an
rid ge
Ġe conom
es tern
b u
Ġcre ate
am a
ĠM y
o res
Ġserv ices
Ġc ame
ĠA ng
Ġpol ynom
us ion
ĠĠĠ Ċ
Ġro b
b re
ĠO ur
Ġcur ve
Ġca pt
ens ive
Americ an
Ġset ting
dition al
cc ording
Ġsu fficient
el ine
i ew
A pp
Ġ$ [
ber t
A D
ber g
Ġsh ift
le vel
it es
Ġg rad
Ġcon duct
min ist
Ġdemon str
ill ed
Ġst atic
U S
à ¤
g ing
Ġgra v
Ġf un
o e
B e
ar a
Ġstart ed
line width
C ont
ĠIn ternational
Ġcomp an
ilit ary
ch ange
eth ing
bs ite
199 9
t est
Ġc andid
Ġhe nce
Ġpartic les
Ġtyp es
u racy
j ection
wed ge
oci ety
per p
e le
b ul
Ġk ind
Ġset t
ĠWill iam
v olution
Ġtrans fer
Ġt ask
is es
Ġconn ected
)\ ,
P R
y ear
un ic
Ġm ention
Ġ ess
M S
Ġcomp act
ĠSt ud
ri er
ĠA ct
o ph
Ġlik ely
Ġpat tern
mod el
f ile
e al
l ist
ĠCh ampions
Ġs ense
Ġun iform
Ġarch itect
Ġ Â
Ġbound ed
Ġrec ogn
id s
Ġin fin
Ġapproxim ation
Ġemb ed
ĠC ont
ĠM ich
Ġch annel
Ġdiscuss ed
sub figure
s up
Ġa x
Ġdatas et
Ġreg ard
ab s
Ġit er
end er
199 8
Ġclass ical
om b
d i
u ra
Ġpartic le
d en
r ate
Ġper turb
enc ies
ĠH ere
_ *
qu e
G e
,\ ,
Ġadd ed
Ġexpl icit
Ġthe rm
e ed
att le
Ġt able
W hen
in n
if orn
Ġvi ol
Ġmoment um
ĠInd ia
Ġs w
ĠD i
5 00
Ġinclud es
ĠA ir
k y
f lo
Ġeng ine
Ġ row
"> <
Ġp ack
ĠĠĠĠĠĠĠĠĠĠĠĠĠĠĠĠ ĠĠĠĠĠĠĠ
Ġag re
ĠT r
Ġg ot
. )
rop y
Ġl ate
5 8
da pt
p ath
h an
Ġill ust
Ġl ed
d et
5 7
lim its
Ġc r
ag ed
\! \!
Ġd est
Ġvert ex
Ġdynam ics
p x
p ng
ĠM or
Ġneg ative
oci ation
at form
Ġapp ly
li er
Ġon line
ĠG o
Ġcoupl ing
Ġ| \
Ġmed ia
f it
Ġcon clud
ĠF rench
p c
en ed
pre t
Ġexper ience
Ġresult ing
Ġf all
erv ice
Ġm ix
F T
as hed
iforn ia
Ġvari able
Ġ }\
col on
Ġm aps
us ing
ĠD o
Ġstud ied
oc ks
O ne
Ġatt empt
ri ate
Ġl ink
pt ions
ire ct
Ġexper iments
Ġuncer taint
um ents
Ġpol icy
O T
b ody
Ġb ene
pec ially
Ġ( -
Ġrespon s
_{ -
Ġsh all
P e
Ġs amples
am s
Ġcent ury
cur ity
_{ {\
ĠHam ilton
cre te
Ġd ri
Ġrequ est
riv ial
Ġc ustom
oll ary
Ġlay er
5 6
Ġnumer ical
Ġsim ulations
un c
u ed
Ġst age
le g
ing ton
x y
Ġgo al
Ġs ound
Ġch arge
Ġ\ (
ĠA c
Ġits elf
Ġp ref
ag ing
Ġmod e
-------- --------
S P
Q u
Ġde ep
ar ing
Ġpart s
Ġfram ework
Ġspe ed
Ġsim ply
Ġserv ed
ĠDist rict
a res
Ġpop ular
ition s
as c
Ġcont ribution
ĠAmeric a
7 8
ĠPro position
Ġwho le
Ġmot ion
d ro
E q
Ġam plit
Ġmeasure d
Ġc os
Ġstre ng
Ġ ir
**** ****
Ġb orn
Ġu nd
) }(
Ġder ived
Ġare as
Ġar bit
Ġb ox
Ġw ent
' \
E E
Ġsub set
Ġex pon
ign ed
ell ow
h y
Ġspect ral
ĠO b
ran ge
Ġto ol
re et
Ġsche me
align ed
Ġp arent
n ov
Ġfor ce
av or
Ġus es
pl ace
Ġh yp
ĠR ed
re c
Ġch ain
hi ps
Ġlead s
og le
A fter
ma in
}} (\
and s
Ġres id
B l
Ġopt imal
Ġneed ed
r un
Ġac cept
Ġt ree
Ġde al
Ġs eg
ac hed
Ġpres ence
Ġrad ius
Ġmechan ism
ĠGerm an
M C
Ġform ula
St ate
Ġsp at
Ġcompar ison
Ġdist rict
stit ute
H ere
ĠInd ian
land s
) /
} %
Ġwh y
Ġnecess ary
her n
sh ip
ou l
Ġth ings
Ġclust er
Ġl ot
Ġch arg
Ġre ve
Ġl attice
I s
Ġrad io
Ġl at
Ġpol ar
or ge
he l
ĠWh ile
Ġsom ething
z z
Ġsuccess ful
Ġre ach
Ġal tern
' _
r atic
Ġredu ced
at al
ric e
Ġl ive
Ġsu ff
Ġapplic ation
ĠNew s
Ġf lo
ffic ients
i os
defin ition
Ġexp ansion
Ġrele v
N ot
ĠN ot
Ġy et
Ġd ark
Ġrem ov
Ġrema ins
ĠCal ifornia
L O
ĠD es
ĠPres ident
Ġcorrespon d
) _{
.~ (\
Ġfe el
Ġsatisf ies
Ġ&= &
Ġdec ay
ous ly
p ite
ĠRe c
// //
ĠĠĠĠĠĠĠĠ ĠĠ
Ġcom es
O ur
ĠS m
il arly
Ã ³
d eg
Ġ+ \
ĠC ons
Ġstructure s
Ġas k
ĠRep ublic
l ength
end ix
N ow
Ġob ser
$ ^{-
Ġh istor
ĠRe f
ĠCent er
is ation
Ġn odes
9 3
Ġj ob
y mm
}$ -
Ġqu ality
9 4
port s
Ġp ers
Ġf raction
ĠH ence
A G
Ġg ain
ĠC up
P T
Ġmin imum
ste in
ĠAustral ia
Ġknow ledge
art ment
sim eq
f ect
Ġsupport ed
Ġgrow th
h and
Ġinterest ing
S I
a el
ic o
Ġlevel s
in ct
Ġconsist ent
= (
{ $\
it z
Ġch osen
Ġes pecially
Ġl ove
N et
Ġcommun ic
Ġdou ble
Val ue
c ial
199 7
] ;
Ġcont ract
at ur
S O
iz ations
Ġacc uracy
ĠEng land
htt p
Ġpan el
bl ack
Ġcorrespon ds
Ġneed s
k a
Ġnetwork s
Ġvol ume
Ġmin im
Ġform ation
che ck
Ġg re
ĠSy stem
el i
C T
Ġf ront
Ġse lected
ind ex
er ve
Ġf ile
Ġcho ose
b t
Ġd ig
p an
Ġf ace
Ġa dapt
: \
Ġto wards
Ġal though
ec ause
Ġim medi
8 7
ym pt
iv il
Ġb all
^{ +
Ġad v
199 6
Ġd ocument
) ^{\
ĠH ol
Ġfig ure
ĠD em
ir m
Ġide a
Ġpl ane
W hat
Ġcalcul ated
Ġclass es
sub subsection
Ġa ud
f low
Ġsim pl
Ġh ol
as ons
Ġs on
Ġannoun ced
le ase
Ġprocess es
ub e
Ġact ually
Ġu pon
Ġmeasure ments
Ġm ag
Ġsc atter
t y
ify ing
v ille
Ġpolit ical
) ^{-
ac ity
for all
ly mp
ad es
Ġl atter
F F
Ġs cre
Ġexperiment al
Ġus ually
r d
urther more
Ġact ive
Ġn orth
Ġ ensure
Ġeas ily
od ing
ĠBl ack
Ġm id
st o
Ġout side
Ġmon ths
Ġcon cept
Ġcorrel ation
Ġte levision
ing u
ay er
T e
ag er
Ġwe bsite
k er
199 0
u el
Ġcon sequ
Ġfact ors
Ġwh ite
use um
y a
ĠB el
H owever
Ġus ers
Ã Ń
ĠE ast
vers ion
Ġscal ar
v ol
s ol
in i
9 2
Ġmater ial
Ġeas y
n b
= -
ĠC our
s m
Ġaut om
Ġf em
Ġhy per
" );
Ġst ra
Ġconstraint s
Ġestabl ish
$ ).
Ġd ied
Ġn orm
Ġrele ase
ĠSt e
ĠEurope an
S U
Ġloc ation
Ġex hib
S C
S im
st ack
Fig ure
el er
Ġin c
ut ive
Ġad opt
Ġassum ption
M A
ĠA nt
Ġvert ices
ess ion
Ġlong er
8 6
Ġla un
Ġcoe fficients
Ġo p
Ġs low
rr or
Ġnew s
us es
Ġper cent
Ġro ad
Ġext ended
em ents
Ġin ternational
text sc
and er
Ġdescrib e
iqu es
ĠĠĠĠĠĠĠĠ ĠĠĠĠ
Ġiss ue
ĠP o
ĠB er
Ġcomp ute
Ġre ference
P C
a ign
ĠMore over
Ġst ri
res hold
i ers
Ġm ach
Ġe mer
ar p
it te
ĠL aw
~ $\
l ocation
Ġdeterm ine
E n
he st
Ġep is
ĠP at
Ġlarg est
res ents
Ġed ges
con s
ĠRes earch
ann ing
Ġcol lection
ĠCh ina
Ġw ord
ip al
ĠCan ada
| |
Ġinequ ality
a it
app ing
ĠC ouncil
is ions
5 1
Ġiss ues
ac ing
Ġdet ection
M ore
Ġd raw
Ġnov el
r ant
Ġsh ape
il ib
Ġins ide
$ (
Ġsim ulation
Ġover all
ic a
U T
G et
5 2
ib rary
Ġlim ited
Ġinter pret
rodu ction
Ġfor ward
Ġto day
ĠD iv
in y
r c
Ġav oid
7 6
Ġf ully
c ases
Ġde cl
Ġproced ure
= {
Ġf ather
an ks
Ġex amples
as ks
uth ors
ir al
Ġpress ure
Ġs old
Ġad m
Ġuse ful
ok e
Ġa im
Ġn ight
Ġd ual
Cl ass
Ġproduct s
ĠD r
Ġapplic ations
Ġorig in
B ut
an i
Ġspect ra
5 4
Ġdist ributions
Ġpro per
Ġe ver
ĠR iver
i ences
ĠP aul
Ġqu al
wo od
Ġcompan ies
Ġl ost
ĠG roup
bul let
ist ry
Ġdepend ence
i ency
Ġallow ed
z ero
Ġrequ ires
Ġsignificant ly
Ġcon tact
ĠN ow
e es
b a
00 00
Ġcur ves
Ġn ature
ĠB ay
Ġmov ed
Ġr ates
T est
}^ *
ĠS en
5 3
ur l
or ing
ul s
og ene
Ġ ~
r at
Ġt ransport
ri ef
Ġdesign ed
Ġ/ **
ĠM al
ri an
o o
Ġrecent ly
==== ====
Ġess ential
err or
ĠG eneral
ĠT V
Ġcont rast
ch o
ĠSu pp
Ġqu ite
Ġs outh
Ġs us
Ġt ensor
Ġang le
Ġon es
at us
Ġsl ight
Ġrelev ant
9 1
Ġ Ð
Ġm icro
$ $\
od ot
Ġ ri
i en
Ġatt ention
lo cal
Ġqu as
Ġinv ariant
ma il
Ġestim ated
H E
Ex ception
oc ol
Ġinvol ved
ar c
199 5
n s
ĠTh om
Ġden otes
Ġp ie
l ink
Ġev idence
Ġr ule
D F
ve x
Ġbel ong
u ations
m es
Ġdepend s
Ġb it
Ġincre ases
cl es
g u
Ã ¼
ĠDep artment
) }{\
ra b
Ġd riv
U R
Ġsol id
Ġexact ly
Ġthrough out
Ġc ore
Ġrun ning
Ġd ed
ĠM a
Ġdis play
ro te
s pect
Ġim m
t ri
Ġa ward
w ar
Ġres olution
a per
T S
ĠDav id
ĠW hat
Ġun its
in v
ĠSt reet
}} ^
oun tain
ĠPart y
Ġrep resents
Ġstart ing
M L
Ġst e
ĠR oy
Ġr isk
Ġf ood
rem ark
Ġpro te
ern el
sel ves
Ġwork ed
ĠP al
hes is
Ġstrateg y
in ant
Ġart icle
he ight
\ "
w ell
Ġdec ision
ĠSc ience
)\ \
Ġident ity
Ġar ray
Ġpart y
Ġoper ations
Ġsc ore
id a
Ġconn ect
Ġtra vel
F il
Ġthough t
ĠH all
Ġbeh ind
et imes
Ġ= \
Ġcons ists
Ġappear s
Ġst eps
} )$.
Ġac qu
ĠH ow
Ġ Ã
ĠG reen
anc ial
pm atrix
Ġprof ile
Ġprim ary
ĠJ ames
Ġmod es
Ġsy mbol
ilib ri
Y ou
M an
Ġsp aces
Ob ject
Ġarg ument
) _
Ġor b
in put
n el
h om
Ġdesc ription
Ġan sw
Ġst ellar
it able
Ġbl ue
Ġvill age
st ant
Ġfollow ed
Ġfram e
Ġprevious ly
ant ic
b oard
I G
C H
b o
ĠA ward
pert y
Ġtreat ment
ĠU K
in f
ĠR ober
Ġqu ark
$ ~
Ġpl atform
8 9
Ġcell s
p ose
ol ar
O ver
Ġalgorithm s
re es
Ġp age
T r
V ID
ĠL ist
I m
ĉĉĉĉ ĉ
b on
Ġsub sequ
p aramet
Ġindust ry
f ree
Ġintrodu ce
)$ -
ĠP ort
IN G
Ġh ot
Ġd r
Ġse lect
N o
Ġexist ence
I ON
Th us
ĠE m
T R
ĠW ork
Ġd ra
Ġform s
7 2
Ġoper ation
Ġb ul
Ġgener ally
S y
Ġagre ement
ot o
ĠF e
Ġm ole
ad ian
val ues
Ġhor iz
c ase
Ġeduc ation
Ġh on
ĠS ub
ag o
Ġcurrent ly
ĠT rans
Ġdis k
Ġt ell
Ġcomput ed
Ġsymm etric
Ġpres ident
Ġappro aches
8 4
col umn
mult i
The orem
ĠB ra
map sto
os ing
Ġneigh bor
ent al
Ġmem ory
Ġcateg ory
pro du
Ġsqu are
ic on
Ġcont roll
ĠS um
g raph
ĠB u
ort hern
Ġsing ular
el es
Ġspat ial
d x
Ġexp and
irt ual
al g
Ġchall eng
new command
199 4
m atrix
d ed
5 9
ĠIn stitute
Ġpract ice
Ġf ast
ĠS ur
Ġinter actions
Ġs ampl
Ġthe ore
ther n
Ġprop ag
Ġform ed
Ġprodu ce
m c
Ġm is
d im
ĠFran ce
Ġconc ern
Ġcos m
` `
Ġt en
ĠIn ter
" ;
Ġcons erv
com position
k i
Ġmon th
Ġrepresent ed
Ġm ale
Ġgra du
ĠCh urch
Ġst able
Ġele ction
Ġear lier
st on
ĠSt ring
ric k
Ġcon sum
ĠR ich
Ġincre ased
ĠF l
Pe ople
6 3
Ġperson al
Ġachie ve
E qu
ĠHe alth
Ġfe ed
ab ilities
ac her
F irst
Ġs il
\| _{
h box
S o
S M
Ġqu ick
il ies
ash ington
und le
F orm
Ġass ert
n es
ar th
Ġas ympt
eder al
Ġcon nection
O M
Ġerr ors
b i
Ġc ry
Ġteam s
Ġyield s
Ġtechn ology
h bar
w rit
Ġarbit rary
ĠGa ussian
B u
se ud
Ġliter ature
Ġgalax y
Ġass ist
Ġestim ates
omorph ic
De f
is hes
Ġappro p
Ġt rac
p ublic
Ġve h
Ġsit uation
Ġs ure
Ġd ate
ress ed
Ġacc om
Ġsh are
Ġext ract
n eg
Ġpair s
L iving
pro b
ĠAss ociation
Ġex cept
F L
itte e
Ġqu ad
Ġk m
ro t
ollow ing
M e
Ġpat ients
Ġw all
Ġopp ortun
Ġche m
) );
b in
ĠD an
_ -
O r
Ġcont ributions
N R
ou thern
Ġident ified
re p
y e
Ġext ension
V iew
Ġ rac
if ier
Ġcon cent
' (
display style
el t
\ {\
Ġc ounter
}) ;
un t
Ġse lection
ĠM at
Ġabs or
r ons
Ġmat rices
Ġcontin ue
Ġcol lect
Ġt ax
Ġb ring
Ġext ra
E M
m ass
6 2
Ġclass ification
Ġstat ement
ilibri um
Ġmain tain
pro position
ĠF il
it ar
Ġbas ic
Ġw ide
{ {
$ ;
Ġhigh ly
Ġhe ight
Ġstra ight
198 0
ĠHamilton ian
Ġr ules
b our
Ġconfig uration
8 3
ĠO ff
Ġdire ctor
p id
Ġ$ $
Ġse em
Ġdeath s
Ġl um
Ġse ems
Ġro ck
ĠM art
Ġm ilitary
ill ing
ro s
Ġad minist
ĠQ ue
Ġm oney
ri e
now led
S ub
Ġmeasure ment
Ġf ix
en ch
t em
Ġw rote
ic ity
Ġa uthors
Ġth reshold
m ission
199 2
ag s
Ġpolynom ial
p ace
8 2
ma gn
] (
Ġcal c
Ġex am
Ġrelations hip
Ġv ict
Ġb r
Ġvari ety
n y
Ġeffic ient
Ġopt ical
Su pp
act ers
osp ital
ĠS ome
Ġassum ed
199 3
ind er
Ġscatter ing
al d
}} ^{
e ared
Ġmass es
ĠS pec
over y
Ġmod ern
Ġmean ing
\ _
ĠO lymp
nb sp
Ġl ack
com ple
Ġreturn ed
ĠS ing
ak er
3 00
n et
ĠSu per
Ġ( )
The se
N S
Ġanal og
Ġf ire
Ġm arg
ar ant
am ily
Ġmention ed
7 4
Ġk in
ĠW il
i h
T ime
et ime
sc ill
Ġpl ot
wit ch
&= &
on a
Ã ¶
Ġh ours
ĠCl ass
Ġtrans formation
ĠB o
Ġtra in
Ġredu ce
Ġdiscuss ion
Ġb oard
Ġcomp are
ament al
ist ical
ĠF ound
Ġhig hest
Ġobser ve
Ġtechn iques
K ey
if ically
Ð °
7 3
j s
w in
ines e
ob ject
Ġaff ect
Ġrema ining
F A
Ġt alk
Ġcamp aign
Ġcomplet ely
Ġw or
H z
am ely
d esc
ĠGe orge
p ack
ĠB ook
Ġconst it
Ġexist ing
ar ter
ĠI m
Ġelect ric
Ġse curity
6 1
H istory
Ġm other
g in
L S
ro y
Ġb ur
Ġshow ed
' }
ĠCour t
ĠR uss
m ann
T able
ap ter
Ġw alk
ĠD ay
ĠC ap
~~ ~~
P E
Ġant i
Ġplay ing
Ġoff ice
ud es
Ġcomput ation
N A
Ġv ac
6 9
Ġapproxim ately
Ġm orph
ĠTe chn
Ġb inary
C S
ĠR oman
Ġv s
Ġde but
ad o
C o
z a
ĠO ther
Ġbe y
Ġin ner
7 9
Ġde part
Ġreve al
Ġcon vergence
E rror
ex ample
Ġc am
ree k
se ct
ĠR em
ĠJ ack
Ġright s
k m
Ġprofess ional
. $
M M
ĠJ ust
ĠGerm any
Ġwrit ing
tr ue
Ġman ifold
Ġsur v
Ġbey ond
}( {\
Ġ! =
ĠV ol
Ġ ...
Ġlead ers
ib ly
Ġrun s
Ġform al
ĠG ra
y r
Ġcontinu ed
Ġdist inct
it i
( ).
ĠD is
Ġin ternal
cor por
ag raph
n av
Ġact ivity
s ur
vent ion
Ġ ult
Ġb al
ĠL eg
Ġdirect ed
ell i
Ġo scill
Ġtrans l
Ġcomb ination
c r
Ġmeasure s
( (
ip age
) +\
} &
ul ate
not her
Ġfor ces
ĠB est
ĠAr ch
Ġvis it
Ġvis ual
Ġve ctors
ad ing
ĠUn ion
ter m
min ipage
8 1
Ġhim self
Ġl iving
ĠW ashington
ĠL ou
Ġs ex
Ġ// /
Ġres on
Ġcoordin ates
Ġin j
ĠPh il
Ġre pe
Ġp ure
reed om
ĠIn st
the n
Ġcount ries
ĠAfric a
ri z
L P
ĠS w
Ġd ro
ĠO f
Ġapp oint
Ġmanag ement
Ġd am
ĠO ut
}{ |
idd en
}$ )
Ġsatisf y
Ġr ing
al ian
Ġreg ime
Ġp hen
C E
} }$,
sum mary
B S
pr int
Ġhe avy
con g
ĠR ad
N e
7 1
ir ing
Ġrel atively
Ġcomplet ed
P r
ĠV ir
Ġdid n
ĠArm y
Ġinter val
Ġgre ater
an o
| _{
em ic
u it
m ma
ĠP ress
Ġcom ing
} }$.
Ġdis e
Ġor g
iz er
Ġpol y
bl ue
Ġp ick
Ð ¾
v a
Ġst aff
Ġparticular ly
ĠR oad
ĠM usic
Ġstreng th
pl es
Ġe ight
Ġper fect
ob ile
et her
in st
Ġc red
Ġhyp ot
ĠD uring
F C
Ġre const
} )$,
) -\
H ow
Ġjo ined
$ ),
Ġto ld
Ġabs ol
Ġg ave
Ġra ce
Ġamplit ude
act ive
Ġinteg er
f il
Ġgener ate
. _
ĠY ear
Ġmagn itude
Ġlook ing
for ce
Ġred shift
Ġcour t
Ġc ast
) }_{
Ġfl at
ar r
ran e
I P
Ġrecord ed
g ener
P ol
Ġor ient
se y
Ġconstruct ed
ĠT ex
c ular
Ġfri end
() );
al a
Ġ ?
t ik
Ġdifferent ial
p icture
od er
ma ge
Ġth row
C P
ail y
Ġun ivers
Ġj oint
k in
Ġacc ur
ott ed
Ġcle arly
Ġm ind
Ġcontain ing
ĠE qu
Ġth ing
pon ent
Ġslight ly
Ġf ight
Ġgener ation
Ġsa f
Ġsoft ware
Ġident ify
Ġopt ions
Ġt er
B A
Ġw ays
Ġstrong ly
m i
Ġcalcul ations
ch ar
Ġj ud
Ġh it
st ra
Ġb ranch
sy stem
ĠH ig
Ġflu ct
M P
Ġb ottom
) )$
Ġchar acters
199 1
ĠSer ies
ĠS am
p at
op ic
Ġ ]
p age
Ġex cit
Ġst ated
ĠWh ite
ĠDe f
) },
sk i
Ġre comm
ĠA lex
ĠM ag
re me
Ġobserv ation
ĠM ary
ĠG old
Ġpolit ic
ĠS ociety
Ġindu ced
Ġth ick
Int roduction
R eg
om ic
augh ter
O f
Ġ$ |\
l ig
Ġnuc le
ve ctor
Ġdoes n
F e
Ġpredict ion
Ġm essage
ĠComp any
semb ly
Ġn ames
Ġoffic ial
a ur
ĠAl so
Ġv ary
Ġh arm
Ġt ro
I V
or age
}{ (
Ġconclud e
if ferent
Ġt im
ĠK e
ĠAc adem
Ġpar allel
E nd
en ge
Ġet c
A b
Ġdo ing
Ġother wise
: }
Ġhy dro
w ord
Ġpol ice
ĠDem oc
Ġhe art
Ġclust ers
bl ock
id ing
D A
Ġredu ction
Ġde vi
Ġ ener
Ġopp os
f s
Ġs aw
ĠM et
. </
ĠN or
less sim
ĠM o
ĠG od
Ġopen ed
Ġm us
c el
Ġb ad
Ġro om
Ġfam ilies
air s
G C
Ġrem ark
Ġh ole
ogene ous
us er
c is
ag ement
l am
tik z
Ġlist ed
h ing
C ons
ĠRober t
Ġrepl aced
Ġdetail ed
est ival
Ġso on
z er
Ġnot ation
Ġv o
ĠCO VID
bur g
b ed
Ġ\ &
res ult
Ġdif ferences
pro cess
Ġbegin ning
ĠL ie
.. ..
ĠM ac
ab il
M R
Ġcalc ulation
m as
Ġseg ment
Ġoptim ization
Ġtheore tical
Ġprov ed
ram e
Ġtherm al
Ġn om
Ġg overn
ĠM er
u ge
Ġtyp ical
Ġcomb ined
ri al
t ot
Ġoff er
ĠM ex
i ra
Ġquest ions
d y
l t
Ġnot ed
Ġd u
re al
,\ ,\
Ġbook s
Ġapprop riate
Ġt or
' re
Ġbehav i
ĠAl though
is her
Ġthem selves
pl ate
"> </
197 0
- $
[ (
Ġin sp
$ _{
Ġsem i
ĠAustral ian
" :
Ġnear ly
Ġneut r
ĠF in
ok en
Ġ\ !
Ġb rief
The refore
N ext
ta g
ĠS al
Ġapp eared
D P
O ut
U N
Ġmar ried
Ġc ause
Ġide al
G B
it a
r ong
C L
Ġra il
ĠC ong
Ġbro ther
we ight
ĠS un
ĠDiv ision
Ġsong s
rough t
Ġdep th
Ġbe am
Ġgrad ient
big l
Ġmin imal
Ġhtt ps
Ġse ven
ens us
Ġinflu ence
Ġto ur
Ġsy n
Ġbelie ve
Ġ$ {
h al
O P
Ġstre am
Ġp rice
Ġexpress ed
Ġ er
Ġscal es
er ia
T T
Ġax is
Ġdef e
ot ing
Ġsc ient
Ġco ol
c d
duc ation
ĠRoy al
ĠG al
g ies
Ġp en
^* $
ĠIs land
it ch
ĠB ur
k l
ĠCl ub
Ġfin ally
Ġpart ition
,\ \
Ġpro port
Ġmass ive
ĠMich ael
R equ
Ġang ular
Ġsign ed
Ġex ternal
ĠF inally
Ġg ap
Ġm es
Ġimmedi ately
i able
B ar
Ġab ility
Ġt asks
\ ;
ann els
cur rent
Ġschool s
Ġcirc le
Ġ ;
Ġc ard
ĠR ussian
lo od
Ġuncertaint y
Ġinst all
Ġlo op
on ical
Ġas pect
ough t
su pp
O D
h u
Ġtyp ically
ma z
Ġcom ment
Ġw ife
it ivity
i ant
Ġre ached
est s
Ġco ach
ĠP ublic
Ġst ay
Ġdef ault
Ġtra ditional
s he
it ely
ĠA ccording
cc cc
Ġag ent
+ +
Ġmiss ing
p ir
Ġlay ers
Ġrepl ace
Ġm ut
Ġj ournal
big r
m en
Ġpro gress
ĠD on
Ġtem por
F ile
Ġpl aces
h as
Ġd ivid
Ġstat us
r ich
pt y
an ish
he mat
Ġindic ates
Ġst rict
Ġbir th
Ġcomm and
Ġrot ation
Ġread ing
Ġinst it
ĠD el
ĠU nder
ĠM ad
Ġ util
Ð µ
Ġon to
ĠM iss
Ġarchitect ure
Ġmod ule
aw a
in u
F inally
ĠSe cond
Ġcoll abor
Wh ile
g color
Ġgraph s
ĠL and
Ġfin ancial
Ġt un
d frac
Ġin de
Ġsc ience
Ġan im
re y
ĠCh inese
Mod el
Ġfunction al
Ġtra ined
Ġmov ing
Ġc ov
re ct
ĠT ur
ĠH en
ĠE ach
Ġass ess
Ġg irl
r as
un k
ri a
ĠT om
Ġtra de
Ġp ark
Ġh ous
c s
ĠTex as
Ġc ele
Ġlum inos
ap ers
Ġg reen
rel ated
Ġk ernel
4 00
om etric
Ġg rid
Ġch urch
AT E
il s
Ġro ot
( ))
en a
Ġdimens ions
Ġgo es
Ġpur pose
i verse
wh ile
f aces
Ġca used
Ġchang ed
ĠS et
Ġmach ine
Ġf air
Ġor th
al ysis
Ġb rand
ĠM us
ĠCent ral
qu are
c ref
con n
ĠJ er
Ġprob ably
ole an
198 9
Ġext rem
A dd
Ġc ru
ĠR ob
I L
Ġscal ing
ĠF urthermore
ol f
ot ion
T E
Ġconsider ing
ĠG ames
Ġexpon ential
Ġra pid
Ġachie ved
Ġb order
Ġeffic iency
Ġfund amental
Ġfil ter
ar l
Ġphen omen
C A
Ġm or
Ġsp orts
' );
Ġrema in
Ġag o
ann ed
ar se
ĠT own
P er
ĠG reat
in ations
om a
ĠU sing
ill er
Ġunderstand ing
T ext
Ġdist ributed
T rans
$ :
at ically
di ag
Ġmin utes
st ream
Ġcomplex ity
pt o
Ġindic ate
Ġcandid ate
Ġse ctions
Ġcoe fficient
av el
an cy
Ġpart ial
ĠAfric an
ĠD ire
Ġcy cle
Ġ[ \
Ġle mma
[ ]
Ġbound s
Ġdev ice
ĠSc ott
ĠD ata
, $
E d
Ġde composition
m ethod
Ġm iddle
1 000
ĠPro v
Ġa mb
G L
c f
Ġcon vex
Ġres ol
b ottom
f irst
' ]
ĠThom as
Ġ ion
Ġp ix
com ing
mod ule
Ġdis crete
Ġent ropy
con fig
pt on
Ġconf ir
f ess
s uch
Ġtra ject
S pec
Ġacc eler
ed y
e ks
flo or
ĠP et
ing er
U sing
Ġgr ant
Ġget ting
ar iance
) }}
Ġpl aced
Ġgu arant
Ġse ctor
Ġpl ant
Ġsit es
Ġden oted
ind ing
Ġa ctions
Ġlim its
Ġsp read
$ {\
In ter
Ġim ag
Ġevent ually
Ġupd ate
Ġb gcolor
' :
et urn
Ġmed ical
j oy
a o
Ġref lect
Ġob vious
=" ../../
n um
b el
t wo
Ġinfin ite
Ġcon ver
Ġo ption
Ġinst rum
g ent
Ġfour th
Ġres ources
Ġphys ics
Ġposition s
Ġcap acity
ĠP ost
ĠAn n
ĠL ag
Ġw oman
u i
ĠT wo
S ch
ĠS M
Ġscen ario
D M
Ġ );
] $.
w est
] }
s ch
Ġcar ried
P I
ĠCar ol
Ġs plit
Ġw atch
Ġplay s
Ġgrav it
( ),
Ġs n
S he
il der
198 8
en ess
ĠC ur
Ġrob ust
Ġocc urs
Ġeval uation
F R
Ġw orth
ĠO ver
ĠS l
ĠL u
Ġask ed
Ġcontain ed
Ġsatisf ying
su per
Ġs en
clus ions
Ð ¸
math op
p o
Ġst op
ribut es
ab ase
r ide
, {\
Ġ/ >
Ġsol ve
Ġgeom etry
Ġcalcul ate
=" +
Ġprogram s
Ġle ave
Ġf erm
Ġg old
ĠChampions hip
Ġ\ ]
ĠG rand
n ext
res ults
le te
}\ ,\
Ġsur round
Ġb right
ĠCan adian
c ript
Ġf avor
Ġstud ent
! --
Ġdatas ets
p a
Ġex pert
qu ot
ĠG et
C or
v ature
ĠA re
Ġact ual
Ġsepar ate
az ine
for ward
Ġsum mar
Ġgiv ing
ĠB rown
ĠPro gram
Ġepis ode
ĠM useum
v ised
ict or
Ġcon j
ĠD en
In fo
Ġex change
In st
and a
Ġass ign
;\ ;\
u an
Ġtest ing
ĠFound ation
umn i
om y
ĠT or
Ġsy nt
m d
Ġpres erv
ĠL at
c ount
Ġp seud
\ }$.
ro ad
Ġequ ilibrium
ck nowled
ĠS T
ĠĠĠĠĠĠĠĠ ĠĠĠĠĠĠ
}} )
: =
li ament
ĠSm ith
Ġaltern ative
et te
A ss
ell ed
Ġpa int
ch ang
Ġex c
Ġd ust
Ġstat istical
Ġtechn ique
ĠO pen
Ġcar ry
in ner
olog ies
Ġprovid ing
u fact
Ġwind ow
198 7
ĠW estern
P art
Ġcap ital
P ath
Ġs pl
S er
Ġpr int
F ield
E ng
Ġus ual
pos es
Ġor bit
ol a
ĠS ervice
R ep
ĠT est
Ġh um
\ )
r ish
ĠMin ister
Ġdem and
Ġpre vent
ys et
Ġdepend ing
Ġsom etimes
}[ \
Ġhe at
S L
at re
Ġpur ch
P P
Ġr ise
Ġmulti plic
Ġrel ig
cal led
Ġ$ .
Ġcult ure
Ġactiv ities
g a
Ġab und
Ġf ine
Ġbene f
ynam ic
ĠM ont
ĠComm un
O C
Ġth reat
e ch
ist an
r or
k o
Ġshow ing
[ '
) )\
ĠT ime
Ġdimens ional
velop ment
I F
ill a
A tt
ĠChrist ian
E vent
Ġrad iation
Ġun known
wit ter
ru pt
form s
al gorithm
ĠL i
Ġget s
et al
ĠJ ew
if ies
g rad
| }
y es
ven ue
Ġimplement ation
bra ce
Ġc opy
ĠP re
Ġleg al
r ical
Ġvari ation
i ota
v est
Ġmin or
Ġun ion
Ġb rought
Ġwhere as
ĠZ eal
Ġsur vey
ru g
ĠKing dom
ĠF ore
Ġb os
.. .,
fin ition
ĠSt ar
}} _{\
Ġb ank
Ġp ow
Ġsub t
g reg
ĠAs sum
ĠM ass
in ate
Ġis omorphism
c ore
Ġd aughter
ĠJ an
Ġman ufact
i as
Ġlo ad
ro ph
Ġdet ected
le ctions
d es
mer cial
196 0
th let
Ġpro jection
] $,
empt yset
here nt
Ġmove ment
Ġweight s
Ġpro ceed
Ġcomput er
P re
) }_
Ġcommunic ation
st art
15 0
ĠIt s
ĠK ore
ĠJapan ese
ĠAcadem y
ic ago
form ed
Ġdeg rees
rum p
ĠM ost
S ection
ĠC E
ĠVir gin
al gebra
Ġne ural
ĠZeal and
Ġinter view
yp es
res h
ult ure
Ġdig ital
ĠC ath
ĠB en
}) }
ĠFran cis
j o
on ly
Ġpredict ed
Ġrepresent ations
ĠJ ose
ect or
och astic
Ġch annels
Ġmajor ity
ĠF lor
Ġre call
form al
ĠI R
l ap
ĠB re
int eg
b ase
S R
st ract
h ost
M ar
N ode
w a
che n
Ġst ability
av en
][ ]{
Ġfem ale
D R
Ġestim ation
bre ak
re land
Ġf reedom
Ġpo or
Ġim plic
b as
st ep
Ġle ague
Ġin corpor
Ġoff ers
Ġk illed
Ġprinc iple
Ġcoordin ate
s at
Sy stem
long rightarrow
Ġdist ingu
t frac
Ġp ain
Ind ex
Ġh ope
or ter
ĠM r
so ft
Ġsufficient ly
C R
}) =
}_{ -
ens ities
Ġde ad
as er
Ġ ^{
198 6
g r
ĠH istory
d ate
Ġ ign
ut ed
pect ed
Ġc ivil
Ġin verse
v oid
un ct
ĠIn c
Ġdec ided
Ġb in
v in
Ġo dd
or ation
t es
ang er
Ġevalu ate
script size
Ġnot hing
ĠLou is
ir it
ve e
z y
Ġ rough
ut ing
ĠS ta
Ġstat istics
$ };
ĠL y
pos s
Ġquick ly
Ġinteg ration
j oint
ran k
ed s
im age
Ġinde ed
}} .
ĠJ ournal
Ġmain ly
ĠM ax
ph ant
Ġtre nd
tern et
Ġcon vert
Ġm ixed
defin ed
Ġmax im
I A
Ġcharacter istic
Ġw est
C an
ĠR el
$ &
et ween
ĠMod el
Ġc op
Ġe ast
Ġ ut
ĠĠĠĠĠĠĠĠĠĠĠĠĠĠĠĠ ĠĠĠĠĠĠĠĠĠĠĠ
Ġv ocal
ĠM em
Ġindividual s
ĠB ill
-- -
Ġmost ly
S D
Ġp ull
ĠS ol
ĠC D
ĠApp endix
198 4
l aw
C M
ĠN etwork
l ang
x x
ap i
Ġn amely
Ġinterest ed
Ġc it
} ~
st able
ĠU k
ĠH ill
Ġt it
Ġwe eks
Ġsur pr
Ã ¤
ĠIt alian
}} }\
ul ed
p g
ĠComm ission
ĠW omen
ĠM el
Com p
n n
erm an
abl ed
Com m
Ġc m
Ġnuc lear
Ġeconom ic
ific ations
Ġr ang
Ġener gies
at o
Ġf arm
Ġl ic
Ġwant ed
ĠC amp
}) ^
Ġelect ed
Ġorgan ization
Ġunder lying
dis c
ĠRe view
f ont
is ely
Ġir re
Ġst ress
ĠD u
ĠSe c
a ver
ach ing
Ġfound ed
C he
Ġhtt p
Ġmod ul
str ong
Ġplan et
Ġconsequ ence
ĠR ock
Ġproject s
Ġco inc
Ġpart ners
1 20
}} ^{\
ĠF orm
Ġpre p
ĠB i
M ap
Ġlead er
Ġl ies
ĠChar les
Ġfind ing
Ġqu e
ĠM il
act ic
Ġ },
Ġsh ared
ĠH istor
ĠG overnment
Ġcompet ition
Ġfri ends
Ġconst ants
Ġ ^
st ructure
Ġdise ase
br as
ĠI N
Ġvert ical
Ġorig inally
ont al
Ġmot iv
g t
c at
Ġmeet ing
Ġsol ar
ĠC re
bm atrix
198 5
circ le
P U
ĠB ig
ĠL os
p ost
Ġelect ro
Ġsampl ing
Ġ{ $
m osp
H S
D B
ĠP eter
Ġen joy
Ġapp lying
Ġmod ified
Ġar riv
s ign
v ari
ĠI II
medi ate
Ġart ists
ĠT imes
Ġf oot
ad y
Ġsh ot
Ġe arn
par agraph
g est
Col or
em por
Ġde b
not es
Ġmater ials
ĠSe e
Ġluminos ity
| }{
Ġpredict ions
Ġg un
Ġdis pers
ĠRuss ia
O L
ell ig
ic ated
Ġl ives
Con text
Ġphot on
Ġadvan tage
Ġassum ptions
ir us
v art
Ġbi as
Ġprot ect
/ *
Ġch art
er c
Ġcl oud
T hat
h aps
k es
ge bras
Ġdiag onal
Ġent ry
Ġg rand
Ġchem ical
val id
G N
ou rier
Ġe q
ĠIs ra
Ġbul k
Ġfin ished
ĠG r
ig an
ĠB oard
g ar
Ġmax imal
Ġexplain ed
Ġimpro ved
u um
con dition
Ġst ruct
ĠE v
t itle
T V
Ġst ru
a ud
ĠN ov
ĠE arth
Con fig
ĉĉ Ċ
Ġ\ (\
ell a
Ġres ource
Ġcompos ition
^{ *
Ġcon ven
Ġev ol
ĠL ife
Ġremov ed
ĠH el
column width
f old
Ġlocal ly
Ġderiv ative
ĠFran k
fin ed
Ġasympt otic
it ative
/ (
Ġmov ie
Ġimport ance
Ġpass ed
n ames
z il
Ġinter face
i pp
ĠPar is
ult ane
Ġansw er
is l
as tern
( {
il bert
Ġsaf ety
ic ks
Ġan c
h ol
Ġse c
P A
ĠRec ords
h ouse
ĠS aint
magn etic
b an
M ed
Ġprot ocol
Ġart ist
ĠP an
Ġin fl
il er
j e
Ġexplicit ly
Ġ( {\
atal og
Ġtry ing
ĠSum mer
Ġcur vature
Ġrespons ible
avel ength
Ġis ol
ĠInd eed
i em
a a
cher s
irc raft
t rivial
t an
Ġsuggest s
Ġsc ene
Ġrad ial
/ **
Ġte acher
a us
Ġrel ax
R el
Ġbuild ings
multi row
de c
rop ic
Ġp icture
Ġf a
y an
Ġt rivial
C ode
a fter
ur ations
ve re
Ġs ch
B ox
G R
Ġembed ding
Ġwrit er
ad er
Pro of
Ġturn ed
Ġcl in
Ġext end
ĠRich ard
Ġv irtual
Ġevery thing
Ġ$ ,
ĠR o
Ġalbum s
Ġinvestig ate
Ġm apping
S A
" "
Ġpie ce
id el
Ġcou ple
ĠB oth
ib r
Ġrece ive
ĠE ducation
ve ct
Ġsy m
pt ic
ĠL ake
] {\
L emma
Ġrefer red
Ġsh ip
ĠPl ay
ar ma
ĠO per
Ġbe aut
Ġthan k
ust er
Ġen h
l ay
Ġse cret
erv ices
A ccording
}} =
Ġ }{
b rid
Ġdynam ical
Ġaccur ate
Ġnon linear
Ð ½
' ;
Ġthe ories
Ġdynam ic
Ġst ories
Ġneighbor hood
sl ant
C all
Ġdev ices
os c
198 3
Ġmet al
augh t
Ġcommun ities
ĠSp ace
ig ation
ĠO ffic
l s
p ass
ĠPh ys
Ġad ding
[ -
Ġcol lege
Res ults
cont ent
op en
b al
Ġappoint ed
Ġst ore
Ġ- ->
Ġder ive
U E
Ġdes ired
go ing
Ġ( !
M ethod
Requ est
ri ve
L a
Ġscre en
m iss
Ġdes pite
he tic
Ġt al
\ }\
Ġc at
ĠJ ac
Ġsum mer
Ġobject ive
Ġmed ium
ren ce
Ġopen ing
^{ (\
d r
un ch
og en
Ġcy cl
ĠCh icago
om etry
def ine
E lement
ĠThe ir
he ta
ĠY our
Re f
il ed
Ġo w
Ġqu arter
Ġatt ract
t x
Ġtop ological
st atic
Ġprec isely
f i
ĠR ail
ĠCong ress
Ġsu itable
lo op
und red
ĠA ut
Ġpl ans
H ence
Ġarg uments
ĠF ootball
Ġgrav ity
et ries
Ġj et
ĠComm ittee
ĠI reland
Ġcan onical
ful ly
in du
Ġgu itar
Ġsay ing
ph as
Ġcle an
set s
ĠĠĠĠĠĠĠĠĠĠĠĠĠĠĠĠ Ġ
Ġgeneral ized
ĠAt l
ĠPl an
ner gy
Ġ/ *
Ġprocess ing
ĠV er
Ġinter section
ith ub
sy ch
ature s
O ther
ric ket
}$ }
dition ally
ĠI ll
Ġgo als
Ġinitial ly
Ġcom pl
Ġel im
Ñ Ĥ
ound s
L A
Ġany thing
ĠH y
Ġsp ent
Ġa st
Ġtool s
Ġst ations
Ġnot ice
ĠP ri
Ġcom plic
X i
ĠDire ctor
198 2
or ial
Ġcomput ational
j i
Ġto urn
Ġwe b
Ġsh ock
R ight
Ġabsol ute
Ġwork ers
ĠGe V
Ġmat ches
eli hood
h ab
ĠHig gs
L T
b ib
Ġm ission
Ġquant ities
\ }$,
Ġtest s
Ġm ur
ĠAng eles
Ġappear ance
Ġdel ay
Ġcomput ing
ĠS uch
ro om
' m
ro sc
par ison
o ption
ur t
script style
} |\
ĠK n
Ex t
) --
back ground
L og
= .
tain ed
Ġser ve
D esc
ib ration
Ġparent s
t iny
ent y
it ors
ic ine
u a
Ġprop ose
Ġquas i
Ġsome one
Ġal one
c ar
Ġint ensity
ash ion
Ġsatisf ied
Ġsequ ences
Ar ray
ĠB ank
Ġsuggest ed
R em
pon se
Cons ider
Ġac adem
def ault
Ġcorre ctions
Ġspec ified
F l
Ġch ampions
it ation
E nt
ĠV ictor
Ġdri ve
Ġdep ict
ĠSp anish
Ġqu ery
ĠL in
ĠO h
ĠS und
Ġvar iance
Ġmorph ism
Ġcrit ic
ĠFlor ida
= #
T H
ĠOff ice
pl ot
ers ion
Ġcent re
sk y
m itted
: =\
\% $
Ġapp arent
Ġfluct uations
sub sec
ĠB r
Ġadopt ed
ut ch
Ġent er
il ation
Ġm aster
Re c
Ġpath s
ĠS il
ĠT rump
Ġcele br
B ack
H and
A ut
Ġband s
l ines
d el
ĠB usiness
figure s
Ġord ers
A V
Ġdis s
onal d
T ra
ur ity
od ed
\ |\
ĠGo ogle
Ġgrow ing
Ġcont rad
ĠYou ng
S ec
Ġbehavi our
Ġdi am
bu ild
ĠEng ine
Ġre asons
ĠC am
j a
Ġact s
S ervice
ay lor
ud get
Ġtemperature s
ĠJ o
ĠT op
Ġrec ords
ĠS ocial
Ġrequire ments
) })
Ġmatch ing
Ġres ist
Ġd ashed
Ġcandid ates
az z
ul er
ang ular
Ġs al
Ġdescrib es
M B
Ġhypot hesis
m et
Ġreport s
Ġex ception
d l
os h
Ġpattern s
or a
D o
Ġcharg ed
Ġenc ou
Ġposs ibility
med skip
h igh
C N
ĠArt s
S ize
ĠA N
& =\
in fo
se cond
pl an
Ġ( "
os is
Ġcon d
Ġd rop
sl ash
as ion
k ins
197 9
riv ate
Ġbl ocks
vart heta
un it
equ ations
Ġexpl ore
il ing
Ä ģ
Ġcost s
Ġit ems
g ithub
D is
Ġord ered
Ġmix ing
Ġat mosp
Ġit em
//// ////
ĠPro ject
d at
ĠL ong
Ġrema ined
pert ies
G iven
Ġeff orts
T D
de v
ĠB ecause
rang ian
Ġadj ust
Ġtechn ical
e an
Ġflu id
Ġt end
Ġsh oot
ymm etric
Ġs ort
ĠOlymp ics
Ġh ar
Ġal umni
c ut
ĠW ind
cl aim
pro t
Ġfootball ers
Ġt ail
S F
Ġfore st
Ġ ,\
Ġturn s
as y
ass ert
ĠB ob
Ġrem ove
ĠVirgin ia
Ġapproxim ate
Ġw aves
per iment
ĠFil m
pl ane
Ġlat est
ĠSt ep
R R
ĠMex ico
. ;
Ġform at
******** ********
ĠP enn
Ġser ious
ograph ic
w an
d iff
Ġlabel s
stand ing
Ġvo ice
clus ive
M y
ob s
ĠCath olic
Ġst ochastic
198 1
and emic
Ġm ess
C ount
Ġtre es
ĠW al
Ġn ation
Ġspe ak
op es
stit ution
~ (\
g ers
Ã ¨
Ġsp ac
st ain
math it
ĠB as
h ang
Ġra re
Ġwin ning
Ġconfir med
ial og
ĠFor ce
Ġallow ing
ĠE nd
Ġfail ed
Ġre produ
Ġneutr ino
Ġc overed
ock ey
ron ic
Ġin iti
ĠC ast
Ñ Ģ
ĠIt aly
bold math
r ins
s che
ject ive
P ost
ol k
Ġb undle
ok es
Ġeff ort
is ot
Ġar rang
Ġtr ig
Ġn av
ĠT er
ĠB a
Ġgravit ational
^* (
cal e
he m
ĠS k
Supp ose
Ġsim ultane
ou pl
Ġpr ime
Ġopportun ity
ĠPe ople
L ine
ĠGe org
Ġcapt ure
19 50
n umber
Ġd x
Ġloc ations
Ġcateg ories
Ġimplement ed
E L
Ġto uch
ple t
Ġres erv
Ġdetect or
Ġsim plic
tt y
P L
Ġn arrow
Ġag ents
Ġext ends
eff ect
f alse
EN T
tikz picture
ĠM ur
b p
con f
b ot
M em
Ġtr ust
G u
ĠMart in
Ġis ot
Ġ eth
pect ive
= '
Ġperturb ation
^* \
ateg ory
@ {
Ġv acc
at iv
Ġvac uum
ver b
Ġn et
ĠHen ry
Ġ\ ,\
ĠL ee
Ġs witch
g eneral
ist ent
Ġph ases
Ġassum ing
cre ate
Ġmagn et
ĠF re
A m
Ġinter act
ĠF estival
> \
E X
Ġ$\ {\
ĠE ven
Ġmanag er
fere d
Ġevery one
Ġeigen values
u gh
Ġro ute
Ġle aves
row s
ild ren
Ġl ens
Ġequival ence
ĠR am
Ġcorre ction
Ġem phas
ou ble
+ (
let s
igh ter
ĠL ove
Ġ ice
Ġout er
ĠS wed
Ġreg ist
yn c
ear s
ian a
) ^\
og onal
sy mm
More over
con text
text color
Ġconduct ed
Ġlearn ed
AS S
( [
Ġf irm
st ruct
Ġfeature d
id en
ĠDe c
Ġro ll
Ex p
S ource
Ġsign als
C ur
er ior
ad ium
ĠDe velopment
Ġcry st
Ġcl imate
the re
A p
Ġann ual
Ġman ner
ĠG ood
not ag
( -\
Ġse a
angu ages
Ġto ward
v s
ĠE lect
Ġl if
Ġpower ful
Ġbu y
Ġpro pos
phant om
' ve
Ġstart s
Ġregard ing
ĠT our
Ġgener ic
h ar
The y
Ġlaun ched
Ġw a
Ġcom mercial
Ġtr uth
ĠJ ul
ed ge
Ġl ab
Ġw ood
uff er
] )
Ġocc up
ian o
ĠH ot
ĠG iven
D es
ier arch
Ġacc ret
}{ *
du ction
Ġinvol ving
Ġl ift
Ġsub stant
H T
ens ions
Ġide as
ri age
Ġn il
co pe
Ġhouse hold
Ġchall enge
Ġl ie
Ġpol ic
D S
197 6
Ġanaly z
ic an
Ġident ical
Ġaff ected
o z
rel ation
J ohn
Ġcan cer
t w
Ġsom ew
ĠCarol ina
## ##
depend ence
Ġhal o
alt y
i pped
ĠTe am
ish op
A ct
ĠT re
197 8
ĠA cc
Ġcon vent
Ġprec ision
Ġreveal ed
Ġprof iles
Ġcomp at
point s
Ġprot ected
Ġm unic
Ġa ircraft
iss on
al i
Ġs izes
Ġoppos ite
Ġtrans mission
Ġed itor
Ġbroad cast
Ġ });
con tain
ener ate
down arrow
Ġsc ored
Ġwid ely
ud d
ĠG R
Ġco ok
}\ |
ĠPro fess
Ġf rag
Ġs ched
Ġevalu ated
semb le
! \
. \\
Ġv ote
Ġtri al
Ġem pty
om in
Ġlow est
sh ire
ĠUS A
Ġquant ity
Ġal t
m n
Ġsu stain
Ġt urb
Ġass igned
1 10
Ġ Î
ench mark
Ġbas ket
ĠL ine
Ġsett ings
m om
ar ian
wh ite
Ġnumer ous
197 2
Ġpref er
ĠE conom
e lect
ra ine
Ġdepend ent
anc ing
ĠTechn ology
Ġexpl o
ĠSe cret
ĠE mp
Ġb lood
A rt
uss ion
F I
Ġtra ffic
neg ative
ĠA wards
197 7
com es
Ġf ederal
Ġpl us
Ġrese ar
! ]
par allel
ak a
d b
rib e
ĠP ac
Ġcoupl ed
Ġjo in
Ġaward ed
Ġveh icle
ad s
Ġcol lected
Ġreturn s
Ġexpress ions
ari os
Ġis n
Ġindic ated
Ġdest roy
Ġn one
stack rel
Ġbecom ing
Ġequ ality
Ġold er
foot notes
Ġattack s
ĠT im
Ġr ational
fin al
os es
ĠCh ief
Ġpl as
am ing
we et
paramet er
Ġmed al
Ġh undred
Ġb us
fin ite
ap ache
l anguage
Ġr ig
)} (\
ĠF ace
ch ain
es ian
197 4
d f
Ġabsor ption
ell er
' _{
Ġcomp osed
Ġle aving
od ay
at i
ĠOr der
Ġe mail
Ġact ing
footnotes ize
Ġinteg rated
Ġproport ional
hen s
ĠW ood
v ision
Ġsu pers
iven ess
ĠO ld
ep end
Ġcom ments
Ġr an
Ġmat hemat
Ġpolar ization
ar ithm
Ġend ed
Ã³ n
Ġdecre ase
Ġdemonstr ate
ĠH or
includ e
Ġdivid ed
ĉĉĉĉ ĉĉ
are n
ch ron
Ġcre ating
ĠD et
$. }
rid ay
ult ural
Ġfeed back
Ġ= ==
Ġtra ce
ii i
Ġst o
ĠSc ot
Ġh idden
Ġin nov
I mage
Ġdisc overed
Ġshe ll
ĠC y
Ġdiv ision
ĠG en
Ġf ans
H C
Ġinter mediate
ĠS pe
P M
Ġp le
ul se
Ġden se
Ġb illion
ĠT ype
Ġs ides
E l
Ġb attle
cor ollary
Ġcon v
Ġth ous
Ch ar
B M
Ġuncertaint ies
Ġan om
Ġs ociety
Ġtrans lation
Ġlet ter
Ġchang ing
Ġmark ed
us band
197 5
Ġact or
ĠS U
sequ ently
Ġph il
Ġemploy ed
L i
D uring
l arge
u on
el a
ĠH ome
Al though
mod els
ce an
="../../ ../../
ax is
Ġw avelength
D C
Ġperiod ic
Ġconfig urations
$- $
cont inu
Ġra ised
Ġhand s
pe ople
Ġh ospital
Ġch ief
ĠSt and
Ġhelp ed
ct ic
ac ent
Ġsk y
U LL
w rite
Ġd oc
Ġnot ion
Ġsub group
Ġa part
Ġcharacter istics
- (
al so
Ġmole cular
Ġfor ced
G roup
ic ular
Ge V
Ġf elt
ard en
\! \
all ery
se arch
ĠA tt
It em
flo at
ig ration
im a
M essage
ol es
ĠS pr
pack age
Ġag ree
ut y
cy cl
ĠF ield
j ava
y les
qu ant
Ġwh om
Ġconf lic
Ġcl ient
T op
ĠC a
Ġke pt
pro pto
C re
od ies
G l
Ġw rong
Ġex clud
ĠP ak
Ġcontinu um
Ñ ģ
Ġconf idence
ĠEx p
R I
Ġsing er
197 3
Ġstud io
in er
Ġsepar ation
ĠJose ph
Ġredu ces
Ġre action
Ġat oms
Ġfocus ed
duc ible
ili pp
M on
li ography
Ġag greg
ĠBra zil
ĠT ri
ĠH on
Ġnecess arily
Ġf if
Ġrecomm end
| $
Ġis land
m em
Ġd ensities
S ome
Ġextrem ely
lo pe
ere nce
ad ow
ĠG ame
Ġdriv ing
e vent
&= &\
cl ine
ma ke
Ġat ta
Ġed ition
Ġs rc
Ġcomm ut
pre c
Ġtourn ament
Ġuniform ly
Ġprinc ipal
Ġded u
ĠW ay
Ġme as
ĠF ourier
ject ure
w er
Ġar rest
ĠSupp ose
we b
ost on
Ġp andemic
Ġcon clusion
Ġposs ibly
ra ge
Ġunivers al
Ġdire ctions
ĠP M
Ġinvestig ation
Ġ _{\
R un
ĠD M
Ġsecond ary
f ort
atur ally
Ġnormal ized
$\ ,
Ġp uls
ĠA rab
t rack
Ġf av
up arrow
en ced
Ġcam era
form ance
ĠA v
ov iet
i y
ĠVal ley
ĠJ im
II I
Ġsen ior
As sum
ject ed
Ġch ance
{ (\
empor ary
Ġwrit ers
app ed
Ġp p
Ġrad i
Ġoper ating
Ġgen us
}$ \
Ġessential ly
Ġco ast
ob serv
back slash
Ġof fered
ĠM en
Ġenh ance
w ave
ĠCent re
ĠMed ia
k ern
O W
ne ver
Ġorgan izations
Ġj ava
Ġorb ital
are er
z en
if ul
act ory
r ating
Ġmetric s
| ^{
Ġlaw s
Ġc old
Ġfore ign
reg ular
Ġrepresent ing
Ġequ ip
c rit
ap es
Ġperform ing
196 8
Ġneut ral
? âĢĿ
B B
Ġpart ies
Ġmom ents
spec ial
ĠM any
Ġhistor ical
Ġpr ison
og ram
Ġconj ug
25 0
Ġa p
Ġmus ical
Ġcon volution
A E
T C
Ġm ill
Ġinst ant
ĠIn formation
l ock
lic ation
$ ^
Ġaut o
i ro
Ġlaun ch
ĠCons ider
ĠL ibrary
} /\
ri end
am m
u cl
h l
Ġelect rons
Ġst ack
Ġre ct
P o
th ick
Ġbasket ball
ĠSh ow
ĠM ajor
12 8
Ġis su
Ġdi agn
her ical
Ġl iqu
Ġin fer
ĠG re
Ġcover age
Ġpl anning
) (\
p ower
Ġb ra
Ġsupp ose
Ġimprove ment
Ġl ov
Ġvari ations
Ġbre aking
Ġtre ated
Ġinterpret ation
Ġdis app
Ġc atch
ing ly
Ġo il
ĠR a
h ard
Res ult
Ġl abor
ĠV is
Ġent ries
Ġinc ident
in stein
Ġcontin ues
Ġchalleng es
h fill
ĠC ross
at ers
A F
Ġn ine
Ġdisc rim
c i
ne ctions
Ġvers us
id ae
ĠJ un
Ġclaim ed
C al
ta il
Ġar c
inv ariant
}^{ +
ĠU s
D isc
in em
ymm etry
low er
*} [
Ġst orage
E arly
is ters
L C
Ġspec ifically
Ġrepe ated
Ġsubsequ ent
v als
u er
ar ity
ĠJ ud
Ġind ices
) }.
=" #
rins ic
H om
es h
n ull
Ġelectron ic
ativ istic
Ġsens itivity
ĠA R
m ode
s en
im its
erm i
Ġbas eline
d ash
Ġcustom ers
sy l
ist ed
Ġvis ible
Ġsens itive
r ative
Ġp ages
Ġtrac ks
Ġj ump
s quare
Ġstrateg ies
Ġdom inant
Ġcall s
Ġfig ures
Ġdevi ation
the less
ĠAs ia
& &\
Ġorgan ized
l ik
Ġmult ip
G M
Ġabs ence
ĠB ol
Ġrec over
Ġform ulation
ult y
Ġin come
com put
en ame
Ġconsist ing
f unc
Ġs end
Ġhand le
Ġcit iz
P D
Ġgeom etric
sh ort
Ġcommon ly
Ġser ver
Ġfind s
ĠG overn
Ġn or
st ood
ĠD isc
ER T
Ġ{ };
Ġf itting
Ġb ond
ĠJ ones
m ond
van ia
ĠCon ference
erson al
Ġstraight forward
aut o
Ġins ert
G a
Ġdiff usion
l oc
Ġd og
ĠS ar
ĠS ervices
Ġc ert
Ġsol ving
ĠĠĠĠĠĠĠĠĠĠĠĠĠĠĠĠĠĠĠĠĠĠĠĠĠĠĠĠĠĠĠĠ ĠĠĠĠĠĠĠĠĠĠĠĠĠĠĠĠĠĠĠĠĠĠĠĠĠĠĠĠĠĠĠĠ
ĠS D
Ġs le
Ġmed ian
Ġmarg in
Ġf re
Ġex cell
Ġaspect s
Ġfil es
Ġ elli
Ġd aily
G o
ĠAl gorithm
AM E
u ps
ĠC R
Ġ_ _
Ġeffect ively
ĠSund ay
Ġmet all
Ġem pir
d oc
S um
---------------- ----------------
ion e
ĠC L
Ġaccret ion
Ġanaly tic
Ġal le
Ġnear by
Ġoffic er
Ġs ales
ĠI D
Ġfrequ encies
ĠN orthern
Ġw ild
us al
Ġlook s
D ist
ĠA M
Ġdecre ases
ĠMark et
Ġex cess
Ġiter ation
Ġread er
Ġgener ating
ĠCol umb
Ġm obile
Ġread y
W ork
Ġdispers ion
196 9
Ġhom ogeneous
Ġrecogn ition
M in
ĠH a
Ġfail ure
Ġquad ratic
Ġpro min
Ġhigh light
ĠU N
ub ble
poss ible
Res ponse
C ar
ab y
m f
g ency
st one
Ġh ierarch
197 1
ov a
c ss
g ather
Ġpolic ies
ĠU p
p y
ĠB ern
el se
Ġclaim s
Ġp ush
ĠP ower
Ġcre ation
' ll
urb an
ĠM ethod
text sf
Ġ\ [
d ifferent
ĠJohn son
Ġpolitic ian
u v
Ġp il
ans as
_{ +
ĠT aylor
ru it
ong s
{ |
Ġsystem atic
ĠL og
Ġsa fe
ic ip
if er
C ase
Ġse asons
os oph
Ġc ities
Ġm ac
Ġbro ken
Ġh usband
Ġfam ous
Eng lish
P O
Ġtrans verse
s ince
ĠP R
Ġbal ance
Ġde ploy
ĠE very
Ġexpl an
Ġscen arios
Ġmon itor
Ġset up
Ġex pos
in ity
Ġvers ions
left arrow
L R
od d
Ġdemonstr ated
ĠWe ek
U ser
ĠBl ue
it an
Ġin clusion
ĠE r
D i
6 00
Ġs outhern
op ed
Ġclos ely
Ġstru gg
Ġsp irit
Ġpract ical
Ġrepresent ative
M ax
Ð¾ Ð
Ġcharg es
Ġl ibrary
Ġp ool
ĠS N
t z
. /
Ġresid ual
Ġr ich
el ess
Ġa ware
pro duct
Ġ} ;
Ġinter ior
in et
ĠLag rangian
ĠĠĠĠĠĠĠĠ Ċ
Ġre n
ĠM u
Ġl ock
ynam ics
ĠA nother
ĠAs sembly
Ġre ferences
Ġexpect ation
st at
Ġsp ot
p red
> &
p res
Ġalgebra ic
ph ase
Ã §
atur day
Ġ ur
ellig ence
es ter
$ ^{
}. }
O per
i ate
Ġz one
T wo
n ol
form ing
im b
du le
$\ \
ig ital
rap y
Ġbene fit
ĠH uman
h ave
Ġtransition s
B H
er ies
O ff
s pe
ĠChampions hips
ĠIs lam
ĠS and
ĠS om
Ġrough ly
ĠT witter
ĠW ales
Ġded icated
Ġt ransp
Man ager
ĠS i
h or
ĠO F
Ġcomple ment
C ref
Ġsum mary
Ġt ang
var rho
ĠL iber
at on
rep resent
oth ing
Ġown ers
ot on
a uthor
s a
Ġk ing
se lect
ran ce
ĠM icro
Ġcar bon
ĠN avy
Ġf aster
Ġsupp ly
d ensity
t ure
Ġdepart ment
Pro perty
it ness
c lear
Ġart icles
Ġdiagram s
D D
Ġf lex
Ġn orthern
Ġcorrel ations
Ġprec ise
Ġend s
Ġderiv atives
Ġspe ech
im ages
Ġri ver
in ction
Ġcru cial
mult line
Ġtw ice
Ġre ality
; "
il a
ĠIsra el
Ġtop ology
Ġhoriz ontal
p ic
ĠMich igan
$ '
s i
Ġb udget
amp ion
Ġstrict ly
E W
}{ {\
Ġ- --
ĠR un
empt y
}) ^{
ĠMan agement
Ġm ountain
196 7
small skip
Ġhoriz on
Ġsim ilarly
ĠWe b
Ġhapp en
Ġ ~\
Ġcomm ission
=\ {
ĠRad io
Ġact ress
ĠWil son
t arget
el d
or al
Ġinvol ve
m al
cl ip
ĠB al
est ed
Ġbenef its
Ġl ived
Ġp apers
ĠB ow
ĠSp ain
sc ape
Ġcont ribute
ĠDe v
res p
ĠCommun ity
8 00
Ġprim arily
Ġform ul
ĠI ran
\| _
iem ann
N otes
me asure
ĠF ort
B R
bin om
ĠÂ £
Ġupd ated
Ġth in
ĠPar liament
desc ription
ide os
P oint
ĠL ore
Ġrestrict ed
M ult
Ġun iverse
Ġh uge
ĠC r
lo ok
ĠM ult
Ġl anguages
ro b
ĠT em
ic ed
ĠEn ter
ff ect
Ġpre m
" ]
ĠS ir
all s
y er
Ġintrodu ction
rast ructure
Ġdou b
rack et
text normal
Ġb ill
ĠV an
ĠL o
Ġtempor al
ĠB or
ic ation
ĠB C
Ġpow ers
ru ctions
ĠM ount
ay a
R ed
Ġdom inated
B i
ĉ ĠĠĠ
Ġpa id
Ġpur poses
ĠI rish
Ġs ession
Ġcon vers
r ates
ĠWilliam s
n i
Ġch air
f ull
Ġmodel ing
In put
Ġassoci ation
Ġinvestig ated
Ġestablish ments
are st
Ġtri ed
18 0
lic k
he nt
% )
Ġhapp ens
00 1
Ġpolynom ials
r l
ĠGl obal
Ġsur faces
Ġtest ed
Ġter rit
Ġf ib
ĠB ase
L ast
] ^
Ġsuccessful ly
D I
Ġcontroll ed
Ġview s
ĠB ang
w orld
ĠB ul
19 40
, ...,
Ġs un
av ed
ig er
M at
Ġex ceed
d ir
Ġad vers
Ġferm ion
ĠT HE
ph ys
Ġt ag
Ġpat ient
ĠSc iences
Ġcirc um
pd ate
Qu ery
Ġconcent ration
ĠF und
Ġatt ended
ĠF riday
Ġprodu cer
og ether
Ġver ify
cknowled g
Ġf ashion
Ġweight ed
ĠF ree
Ġfl ag
Ġcharacter ized
b ell
syl vania
Ġdat abase
Ġop in
Ġ$ ^{
ĠL ord
. $$
Ġc atalog
196 4
Ġprogram ming
Ġsat ell
ma g
l ie
Ġcor por
ortun ately
Ġpre par
Ġanal ys
cor respon
if act
or i
ĠS outhern
au g
ĠCor ollary
im ately
ĠCon n
Ġinst ances
ris is
j ust
t ed
P os
Ġt ight
Ġdefin es
Ġsub space
f ound
ĠSpec ial
maz on
Ġlarg ely
math tt
f rame
ĠO x
se p
ĠE ll
el ian
Ġst ead
Ġad vert
Ġrat ios
function s
Ġper haps
ĠCom put
Ġnew sp
im er
Ġsim ulated
ap se
ĠE nergy
ĠC ard
ond ay
o ir
ur ies
ug by
Ġn ative
ip ality
d em
Ġpass ing
Re ad
com b
Ġcon ference
ĠDemoc ratic
A nother
fin ished
196 5
Ġent ered
Ġorth ogonal
Ġown ed
E P
âĢĿ .
ĠB ir
part icle
Ġflow s
Ġdes cent
Ġinsp ired
Ġcover ing
Ġany one
Ġpart ner
Ġreason able
go ogle
ĠJ oe
an ced
H ead
Ġfund ing
ĠB ell
Ġs ave
g al
l ast
de p
b ro
19 30
======== ========
ort ed
P aramet
Ġ }}
ĠM ah
Ġrestrict ion
Ä ĩ
Ġst ock
Ġse at
Ġdevelop ing
Ġcult ural
ig u
Ġsc ores
he t
Ġvary ing
ĠFace book
B O
ĠN S
ĠW ater
Ġemploy ees
Ġun iversity
Ġc ir
Ġdra wn
Ġhe ard
Ġveh icles
}^ +
i pl
Ġe yes
ĠL ab
ĠV i
ad ding
s g
Ġcho ices
Ġrest aur
ta ke
Ġreconst ruction
ĠSt at
b ury
text up
Ġun less
w hen
F urther
ĠSim ilarly
19 45
ĠM ountain
ca pe
Ġsche mes
ce il
n m
ĠR ay
Ġch iral
ĠN av
) _{\
roll er
) [
Ġre normal
ĠPac ific
Ġcolumn s
id ers
Ġflo or
ĠAs ian
Ġphot o
ad el
ĠG reek
r ations
and roid
Ġmanag ed
ĠW ed
Ġc odes
Ġenvironment al
gra v
w ind
w ater
ĠK en
I ST
G ener
Ġrelig ious
e z
it udes
ex pected
Ġn aturally
Ġpan els
Ġb ool
ĠA T
arg ets
gy pt
P op
Ġclos er
sh ow
Pro position
sub equations
ĠCar l
es ides
Ġillust rated
Ġparticip ants
Ġwe ap
ĸ º
n am
Ġdist ances
ĠW in
Ġw arm
Ġsurround ing
196 6
ĠP oint
ĠC ho
ĠC ase
Ġf its
ot al
> >
Ġcor ner
Ġinvol ves
Ġadvan ced
ĠG i
Ġsepar ated
in it
Ġthan ks
Ġvict ory
ĠS a
Ġorient ation
enn is
Ġbelie ved
Ġexc ited
Ġvocal s
Ġhe av
p ot
Ġd rug
\ }.
Ġpre tty
Ġrandom ly
f a
Ġresid ents
ĠW all
pro v
ĠB oston
e lement
Ġdra ma
l ife
Ġunder stood
in ating
Ġgl ass
ĠMon te
et ts
\ /
eng er
Ġbe at
ĠL ear
S H
Ġwon der
er g
Ġext ent
' .
ĠB ack
er ion
B I
Ġextract ed
ĠEq s
Ġcosm ological
han ced
Ġpers pective
Ġdam age
Ġep och
Ġcapt ured
c oh
Ġm ask
sp in
Ġ\ {\
ins on
A c
big cup
Ġth r
Ġca uses
ĠP rem
Ġan not
ĠC H
ol i
Ġmor ning
l ib
og rap
ĠA st
Ġcount y
Ġreson ance
ĠFrancis co
ĠS oviet
\ [\
Ġpack age
Ġserv ing
at uring
ĠU V
p op
Ġeconom y
ĠEmp ire
ĠC le
Ġb ran
ĠĠĠĠĠĠĠĠĠĠĠĠĠĠĠĠ ĠĠĠĠĠĠĠĠĠĠĠĠĠĠĠ
names pace
N on
Ġanaly ze
! !
h ot
Ġequip ment
Ġc row
Ġca ref
G eneral
prob lem
) }$.
)-- (
am i
mid rule
Ġgener ator
ĠS ports
Ġacqu ired
ĠĠ čĊ
Ġprodu ces
Ġmag azine
Ġentire ly
10 1
Ġcrit eria
ad or
Big g
Ġpres ents
Ġdefinition s
ĠCor por
Ġtell s
let on
Ġh ab
Ġint ended
Ġow ner
ĠC amb
uck y
ul ating
=" ../
ĠProv ince
Cl ient
Ġstrong er
Ġoffic ials
;\ ;
Ġhy brid
ĠMed ical
Ġs lope
\, {\
y d
cl ose
ĠSen ate
ĠH ilbert
ĠJ eff
b ug
ĠN ight
os a
ell s
ĠC ivil
Ġqu ot
on to
Ġwas n
ĠP ubl
) ).
ru ck
M ay
) &
con duct
T A
ob j
ark s
ĠOh io
ĠM ot
Ġrespect ive
St art
c are
ĠPol ice
ĠOn ly
}[ !
ĠQ CD
ĠF ar
Ġ{ }
Ġsp here
it age
Ġsecond s
st ates
Ġatt end
Ġun iqu
ĠUk raine
on ia
Ġsimultane ously
Le ft
Ġrec ording
V D
Ġmot or
Ġf le
E m
ĠQue en
ass um
S ing
ro g
Ġal gebras
ĠN ext
A ust
Ġlik elihood
res pect
ino is
Ġirre ducible
Over ride
ann ot
mom ent
ĠHe ad
Ġf ra
Ġdisc over
j pg
est ic
W ill
iss ions
ã ģ
opt ions
Ġbrief ly
Ġse vere
ĠBu ild
ĠK h
Ġb rain
Ġtransform ations
ĠS up
St ream
rib ed
; &
}) =\
12 5
$ }}
Ġsk ills
Ġsc ript
G A
Ġd ie
19 20
im g
ĠH al
B L
Ġplas ma
s es
Ġfl ight
me an
Ġa head
Ġele ctions
ĠEqu ation
Ġadminist ration
Ġf ill
Ġcompar able
ĠPh ilipp
Ġreview s
Ġw ants
Ġbegin s
ag ram
an ta
Ġinvest ment
ĠPenn sylvania
ĠOr gan
C F
Ġsol ved
D ate
Ġsu c
Ġoff set
Ġimp ly
and ra
ab eth
Ġliqu id
rom e
Ġ\ |\
Ġneut ron
rim inal
ob e
Ġph one
ra ise
Ġb ridge
Ġv ision
Ġphot ons
B E
ent h
int s
Ap J
Ġbo ost
ĠF ollowing
Ġp sych
ĠHistor ic
ĠH aw
Ġw ish
Ġkin etic
Ġsomew hat
Ġvict im
EC T
Ġadj acent
ĠDes ign
Ġsimplic ity
Ġreg ional
ĠThe atre
B bb
Ġb att
ĠCol or
cite alt
all ow
{ .
ĠBrit ain
am in
Ġdomain s
ex ists
Ġamplit udes
Ġcol our
Ġme ant
; </
Ġstand s
Ġprote ction
ph one
Ġdriv en
ĠN a
R L
ic ate
bur gh
Ġreg ression
S te
Ġd raft
Ġoffic ers
Ġat omic
Ġfac ilities
ĠA ff
Ġdel iver
Ġaccept ed
M E
Ġcon sec
ath an
ent ed
or ig
u zz
Ġident ification
Ġd ip
ĠAnd rew
am ber
} >
16 0
ĠM iddle
ĠL ight
our ney
Ġconserv ation
Ġlog arithm
Ġc av
M F
ĠR eturn
Ġscient ific
Ġen semble
Ġdec ades
ak i
ĠO l
Ġp ip
Ġtraject ory
v o
H el
Ġb ary
ĠScot land
ĠReg ister
Ġc ars
ĠC ro
Ġclin ical
Ġdif fer
}{ }
ĠJ on
Ġsm art
) }$,
Ġoper ated
ĠC NN
B ase
S m
ray s
Ġdiscuss ions
out e
Ġv ort
Ġconvent ional
Ġfe et
Ġpro position
Ġstation ary
ĠN on
leq slant
) >
ĠGeorg ia
Ġext reme
Ġpix el
Ġb urn
Ġear th
^* _
Ġe ye
Ġb enchmark
ĠD ou
ĠP op
Ġissu ed
ut ation
M T
ĠPol icy
w t
ĠA GN
Ġmov es
Ġsubsequ ently
Ġsuc ceed
Ġsc ope
qu ery
ĠAg ain
ian g
^+ $
ĠInd ust
Ġan isot
ĠDan iel
B o
ach us
Ġs ister
Ġacadem ic
b rane
ĠS aturday
d ashed
Ġcover s
il ly
ĠR E
Ġbu ff
ad i
ĠR h
Ġarm y
\ },
ĠA h
ĠL em
Ġmechanism s
Ġindu ction
Ġ\ }
ĠM id
def n
Ġ- >
ĠP y
C areer
Ġleaders hip
à ¥
G S
Ġst abil
t ree
âĢ ĺ
urs day
Å į
p arent
cl ient
Ġsymbol s
Ġw el
A ction
et he
}\ ;
ST ATE
ers et
196 2
ĠRep resent
g reen
Ġ{ $\
ĠG ener
ch or
. (\
\ }_{
const ra
ĠCo ast
Ġnot es
cul es
comple te
l en
Ġsex ual
b etween
Ġre ward
Ġsimilar ity
Ġyou th
ĠH ospital
Ġpriv acy
Ġbound aries
Ġengine ering
Ġcoupl ings
om er
Ġh our
m t
ĠC as
row ser
ĠK ent
ple x
> (
ĠJack son
Ġcol on
H ome
ĠSt an
ĠJac ob
m o
ap ed
ĠSe a
ĠStud ies
ram ework
cur s
ĠF amily
au x
ĠE st
M D
Ġaud ience
al ities
h av
Ġcon nections
Ġv on
N ational
Ġexpand ed
Ġinfl ation
R A
Ġcre w
Ġc ub
ph p
st s
ĠI V
Ġd rum
ĠM L
ĠEx t
nol imits
Ġwin ner
_{ -\
eg er
ph ia
Ġdri ver
ĉ Ġ
Se cond
Ġadv ance
F unction
Ġcirc uit
M ark
E ach
cor rect
ĠJer sey
Ġcomplic ated
Ġext ensive
un te
Ġopportun ities
achus etts
}} ,\
Ġc ricket
Ġprote in
ad ed
Ġorb its
Ġabund ance
conn ected
Ġfa ith
Ġb oy
ĠB attle
ul f
Ġco oper
U nder
ĠF ederal
B ook
ps on
ucl ide
Ġstre et
Ġâ ĸº
196 3
in dependent
Big l
te en
Ġc ere
Ġrail way
c ard
ta ges
appro xim
ĠS C
Ġin ference
Ġeigen value
Ġc ensus
ĠM ike
Ġrequire ment
u ated
P ar
per iod
ĠF C
Ġact ors
Ġfind ings
in als
ĠC all
Ġpe ace
Ġconver ges
Ġst d
ĠM ain
ĠA sh
Ġconven ient
Ġbusiness es
Ġdef ect
Ġro les
script scriptstyle
Ġsupport ing
ĠJ r
Ġcon formal
Ġl aser
Ġp lease
im ation
Ġd t
IN E
ur ance
P H
Ġf ellow
Ġexec utive
ow ski
$ {
Ġâ Ĺ
Ġpost erior
Ġf resh
ĠJew ish
Ġbelong s
Ġt ick
Ġharm onic
Ġfun ctor
Ġhol es
ict ures
ĠF our
id al
ĠTh ree
Ġdiv is
Ġro ots
Ġd ram
th an
ĠCol l
Ġchalleng ing
Ġexec ution
ĠM as
Ġsub section
gra de
ĠD E
Ġp it
ura ble
Ġ< <
id ents
includ ing
e ven
F urthermore
c ross
Ġdo or
Ġpotential ly
ĠCE O
Ġcompat ible
ĠInst ead
< !--
s d
Ġserv es
ĠJ es
ere n
ĠF ermi
ĠP C
Ġhel ps
ĠâĢ ¦
ĠW is
ĠRepublic an
sy m
oc ated
12 3
ord an
ĠCh ris
ĠN ever
Ġposs ess
Ġref ers
Ġsp ort
cl osed
Ġpart ially
Ġautom atically
ĠD own
Ġf an
Ġdef ense
' $.
b c
D T
Ph ys
Ġdefe ated
ĠK ong
Big r
uclide an
Ġreconst ruct
Ġread s
Ġsur ve
Bu ilder
Ġcompar ing
p resent
ain s
Ġinput s
un finished
} ~\
Ġport ion
Ġm iles
Res ource
Ġcondition al
Ġv ideos
Ġinter vals
Ġexcell ent
Ġconcern s
Ġpie ces
ĠD C
ock et
b lem
W ind
new line
ĠN ULL
Ġ era
Ġfif th
Ġ iron
Ġco al
H D
h r
etail s
Ġfe as
Ġang les
re ll
ĠL ast
ĠMc C
Ġturb ul
U til
o is
se m
ã ĥ
Ġg ate
ĠK im
Ġmar riage
ĠG ar
angle ment
Ġout come
ab ove
Ġoccur red
ip art
Ġcons ult
ort ion
ire ction
w ill
}{* }{
ink ing
X X
St atus
ac le
ĠAb out
25 6
Ġkeep ing
Ġhe ar
ĠâĹ ¼
ĠW ho
= -\
ĠJust ice
Ġdoc uments
Ġp et
d irect
Ġdecre asing
Ġfin ish
Ġw estern
ĠSe curity
Ġpl otted
Ã ¢
ĠAn y
ĠN Y
L ocal
Ġcomm it
V is
a is
Ġen able
ĠBro ad
ĠPak istan
S N
ĉĉĉĉ ĉĉĉĉ
Ġconc ert
| _{\
ĠIn f
but ton
Ġstruct ural
Ġm eta
M en
Ġfor t
c over
i ples
} <
Ġa w
Ġex erc
et ies
D on
u pi
L ong
ib ilities
Ġst ages
Ġpseud o
ĠEd ward
ro vers
D ec
Ġempir ical
ĠM onday
" ),
Ġc ouncil
C ell
ĠIll inois
now ledge
pl us
Ġsing les
Ġdefin ing
ĠE gypt
Ġdescrib ing
ĠA uthor
ĠD ar
Ġsp herical
Ġexhib it
ĠD ue
Ġlook ed
um es
| _
ĠN C
Ġsupport s
ver age
ri or
Ġunit ary
pro perty
196 1
Ġf ul
Ġkn ew
Ġtop ic
Ġgu ide
N av
Ġf iber
ues day
A cc
r ants
ou the
A g
Ġmod ules
Ġgeneral ization
Ġepis odes
U psilon
Ġisol ated
Ġimmedi ate
her ic
ĠL ocal
Ġh ist
ĠT w
ex ist
Ġre v
ad ata
ane ous
ra ble
it ter
ĠI d
ĠL im
ĠG irl
ĠGovern or
Ġsum m
ent ry
\| ^
Ġis omorphic
ĠDi rac
che ster
Ġjob s
ĠD utch
pro ject
Ġb atter
Ġgener ators
Ġcop ies
ĠF urther
Ġrelations hips
sc ope
) </
ut r
ĠP en
Ġnew ly
Ġdec ays
Ġspac etime
Ġpl ants
Ġanim als
H L
ĠMin istry
c p
st ic
Ġinter pol
op her
olog ist
Ġsent ence
Ġpl anned
S che
Ġin n
Ġperiod s
Ġcertain ly
Ġindependent ly
Ġestim ator
ĠR en
um ps
Ġcol ors
V er
ĠE astern
Al so
ĠRe ad
$ _{\
ĠOx ford
Ġf illed
val ued
out s
cre en
F ollowing
ub b
y o
Ġarriv ed
Ġpromin ent
p ool
Ġfrequ ently
ĠE p
Ġhapp ened
l at
ord ers
nt z
Ġresear chers
ĠB an
Ġtra dition
Ġge odes
ĠPo isson
ĠDe finition
Ġconstit u
nes day
Ġt argets
l ers
Ġcomp re
is en
ĠL ittle
tri angle
er ry
ar ters
Ġc art
Ġsign ature
ment ation
Fil ms
ger y
pert urb
com ponent
ĠP ass
Ġrapid ly
ir ror
Ġprob abilities
un a
ĠMus lim
Ġcond ens
Ġd anger
Ġalong side
] =
N umber
Ġcoll ision
D em
" ).
ĠC at
Ġpl ate
Be fore
V ER
ĠKore a
z o
F S
}} =\
h ire
ĠR iemann
Ġs quad
Ġa ug
Ġag reed
ĠN one
Ġp m
ĠIn vest
Ġcr ime
N O
f ind
' d
Ġsmall est
Ġp al
Bl ock
Ġpolitic ians
or gan
if est
W rit
Ġlabel ed
ĠOn ce
Ġb ass
ĠD un
Ġand roid
gl obal
ĠBro ok
& -
h ou
j k
Ġm useum
om et
ost er
Ġcom edy
Ġd uration
it ical
ĠMass achusetts
ĠM C
b its
ĠL ike
du al
L abel
ĠS E
force ment
ent ric
pl oad
u ing
k ers
Ġcred it
v dots
Ġdown load
R S
Ġ& $
ĠPr ime
K e
ĠPol and
Ġarm s
ĠS em
Ġrec ip
at ivity
Ġes cape
) |\
Ġfram es
Ġd war
D ep
Ġpl ots
Ġprofess or
Ġappl ies
ann a
Ġ( (
Ġb ed
oc cer
Ġembed ded
Ġfac ility
_{ [
ĠE U
Ġpop ulations
cer ning
p ed
ĠRe al
ĠLat in
w as
Ġra ise
iz abeth
ĠL abor
Ġinstit utions
Ġb low
ĠH ong
not in
Ġpropag ation
g roups
viron ments
ĠAd minist
Ġdec isions
Ġcool ing
Ġeas ier
Ġcitiz ens
Ġw ire
Ġvan ishes
ograp her
ĠB on
\, ,
W id
ĠUn ivers
Ġ à¤
Ġanc ient
ĠTh rough
Ġth read
Ġbeaut iful
Ġclust ering
l m
Ġl iber
ĠSecret ary
ĠPr ince
t i
ĠB oy
Ġbo olean
19 44
ĠS O
Ġp rices
Ġcross ing
Ġcirc ular
f ortunately
Ġsp ring
Ġwe ather
fra red
ĠH ard
195 6
Ġkin em
lig ible
ĠCons erv
Y ear
ĠProfess or
âĢĿ ,
. },
ĠW alk
195 9
Ġinteg ers
Un iversity
Ġcollabor ation
Ġcy l
Ġperson nel
ĠV o
int ro
Ã ±
ĠK ar
Ġhe ter
Ġspl itting
Ġele v
h s
Ġent ertain
Ġcontrol s
Ġdistingu ish
ul ator
Ġsh ips
ar ial
Ġearn ed
h ow
Re call
arg s
Ġro ut
Ġcounter part
)} _{\
r g
ien ced
ĠSt r
ĠChrist mas
Ġint rinsic
Ġnormal ization
B rit
out put
Ġcol le
ĠEx ec
P N
Ġperturb ations
b olic
ĠA I
Ġmod er
Ġf uel
ov ing
ĠRes ults
ĠDes pite
Ġperform ances
ik i
D av
ĠC A
Ġtransfer red
rosc opic
Ġv en
fe fe
ĠMark ov
Ġd ream
ail ed
get s
ater ial
Ġstandard s
' )$
p ur
Ġfe aturing
Ġbl og
Ġview ed
Ġrem ember
ĠOb ject
ĠAd d
Ġindic ating
ili ary
iz able
Ġsh aring
ĠRep ort
Ġrecogn ized
Con n
Ġstead y
Ġd ance
ĠM aster
Ġbig gest
co ordin
Ġrob ot
ĠH and
tri ang
act or
Ġcan cell
Mem bers
* \
G r
ĠS at
ĠH o
on ed
i ated
Ġf ish
M O
Ġindust rial
' $,
Ġstat ements
Ġpoint ed
Ġm el
ĠV en
requ ency
Ġaccount s
ĠE nt
head er
Ġconf irm
195 8
ĠW rit
or ney
det erm
Ġa wards
the ory
Ġpeak s
Bu ild
ou ds
Ġwor st
ol is
ĠG rant
hens ive
U p
Ġcon e
Ġcontrad iction
Ġc e
Ġtraject ories
th on
Ġiter ations
ul ing
ĠĠĠĠĠĠĠĠĠĠĠĠĠĠĠĠ ĠĠĠĠĠ
Ġsign s
l ayer
Ġpolit ics
Ġw itness
Ġf old
)= (
Ġhous ing
Ġaud io
ĠR og
Ġexpos ure
Ġexper iences
U s
Ġreal ized
ĠR od
form at
ĠEngine ering
Ġstudy ing
ĠApp le
'' ,
Ġmess ages
Ġat om
Ġwhe never
~ (
Ġinf rastructure
ĠL ive
Ġcoll isions
form er
}} )$
ĠL ic
Ġinj ury
Ġf ell
Ġneigh b
Ġcorrespond ence
) ),
ĠA ud
u ple
Ġperm an
j av
Ġre plic
it o
Ĥ ¬
T oken
ĠF ire
Ġanaly tical
Ġcoll apse
Ġhous es
195 7
v skip
Ġveloc ities
ĠI S
ĠV ill
ĠB rad
math ds
ĠAlex ander
k h
ĠV iet
Pro v
ĠK el
ĠA D
ĠColumb ia
Ġp aram
s ample
ĠL ater
W orld
Y PE
ific ial
un ing
Ġrepl acing
Ġw al
A cknowledg
ĠPort ug
19 48
: #
St ep
Ġcov ariance
adel phia
ĠF air
L ink
. }\
cy cle
upi ed
) |^
G E
A U
em an
r ust
l oss
Ġin vert
Ġapp eal
lear ning
Ġloss es
Ġdiss ip
bel ow
I O
ĠK ey
Ġar ise
C ON
Ar g
ĠIn ternet
Ġch a
ch y
ĠSt ation
ren ew
b d
Ġse ed
in ator
R eturn
ĠĠĠĠĠĠĠĠĠĠĠĠĠĠĠĠ ĠĠĠĠ
Ġanalyz ed
enn es
ĠW he
Ġaff ine
ĠTh ursday
spec ific
i pe
app end
Ġsh arp
Ġattempt s
Ġclub s
Ġfac ilit
Ġweak ly
al ing
Ġd oll
ĠH ung
d ings
Ġ$ <
Ġb ow
ĠM ach
ho le
C ent
here nce
Ġaver aged
Ġsec ure
ĠN et
Che ck
Ġdeterm in
ut en
' }\
Ġc as
field s
Ġdis cret
Ġwall s
ĠS us
Ġab stract
Ġh air
hed ral
rop ical
f ast
Ġcir cles
AT ION
Ġupd ates
Ġredu cing
Ġmanufact ure
G P
H O
t yp
Ġfund s
Ġrec overy
Ġw ait
p otential
on ym
ĠOb serv
Cur rent
Ġexpon ent
ap ore
d ney
ul ner
ĠCon f
Ġord inary
Ġhon or
ĠComm on
ĠJ ean
ĠT am
th rough
ors hip
it ory
T rack
eg o
ĠB and
Ġre vers
art s
Ġcl ients
Ġpublic ation
R C
display math
Å ¡
Ġconflic t
Ġk ick
Ġsee ing
as i
t ically
Ġc risis
B est
mod ules
oid al
N C
Pro p
ĠC are
T em
K E
M c
' =
Ġclass ic
Ġclass ified
u able
m atch
Ġret ired
oc y
ĠR om
| =
um ul
Ġp ulse
eles cope
ĠC P
st ud
195 2
Ġsubset s
ast e
Ġ urban
Ġte le
off s
Ġne ither
Ġconsec utive
we ak
cont rol
Ġthink ing
H am
195 5
t b
Ġk ids
ĠRe v
ĠH un
Ġen em
Ġa thlet
}) _{
Ġso le
Ġcrit erion
ĠM ic
âĢ ī
w ing
, ~
Ġg ene
ĠAmeric ans
ĠI L
ĠC art
Ġf itted
serv ice
19 42
Ġresult ed
Ġ }$
ĠM S
Ġm m
H M
19 39
V ar
man ifold
S ports
Ġn an
ĠO nt
ĠN GC
w orth
an th
Ġlink ed
Com ponent
n ic
Ġrece iving
ric s
ud den
ch annel
comple x
Ġhe ro
or row
Ġco herent
AR T
irt y
Ġexplan ation
ĠG ro
ident ial
writ er
ili ar
an aly
sub stack
Ġcap able
s n
se x
Right arrow
Ġag ric
)} =
P at
Ġreal istic
ĠN AS
sh ape
Ġk ill
ĠBe ach
ĠCar lo
ce ived
Ġprep ared
Ġthem e
Ġclos ure
& $
ĠN ame
Ġcount s
Ġb ars
osoph y
Ġapplic able
M ost
Ġtri ple
iction ary
Ġprodu cing
up date
Cont ent
ĠBer lin
F M
Ġcho osing
Ġs ell
dom ain
Ġb odies
con sin
Ġen hanced
Ġsepar ately
ĠA p
mathbb m
Un ited
Ġac id
Ġ rom
ĠC irc
Ġviol ence
ĠB H
ĠD aily
ã Ĥ
th ur
Ġconsider ation
ĠL ew
Ġp ed
Ġrang es
ĠGu ard
tem perature
Ġdis joint
so le
K S
is a
Ġline arly
Ġv ice
Ġacc ident
Ġanalog ous
Ġcall ing
Ġsh ut
ig a
St yle
ĠAd am
Ġg rew
ĠT y
Ġpract ices
ĠW ild
P age
m ic
Ġcomp ens
ĠAd ditionally
ĠCl ark
ĠReg ion
Ġtri ang
Sc ript
fil ter
Ġinter ference
R ad
Ġs and
d z
il ine
ly wood
Ġpre ced
Ġpix els
Ġthous ands
ens es
Ġneigh bour
g iven
ell o
requ est
Ġcont ribut
ĠAssum e
ĠSur vey
Ġstre t
alax y
S i
Ġtr unc
Ġinterpret ed
l ied
ĠA mazon
Ġcomm ittee
Ġcorrel ated
Ġtherm od
eder ation
Ġret rie
B ecause
ow a
Ġ$\ |
ĠS her
ĠR aj
r floor
Ġen vironments
Ġult imately
19 41
l floor
ĠM ap
Ġ} {\
re a
u z
ĠD igital
Ġg ender
Ġproper ly
G en
center line
Ġresist ance
Ġco hom
Ġsw im
t or
Inst ance
paramet ers
l ies
M ain
place ment
im pl
ak ed
Ġrow s
ĠK enn
cc c
l arg
Ġproject ive
Ġr ural
bound ed
Ġhydro gen
Ġ{ {\
respon se
Ġelement ary
he red
st atus
id i
ĠMe an
e h
] ^{
i ability
igh th
N ull
ĠE X
19 46
}_{ {\
Ġf aces
ord on
m eta
l b
ĠSan ta
us hed
Ġs ight
Ġmur der
Ġlet ters
Ġdro pped
reg on
lement ary
Ġtrack ing
Ġp od
Ġconsist ency
st ruction
Ġconcern ed
Ġhold ing
ĠSup reme
Ġim aging
Desc ription
periment al
Ġ\ :
ĠB ru
Ġd im
ĠMed icine
k ov
Ġs we
ĠPol ish
ĠA venue
th ree
ĠTr ust
V M
ag a
Ġte aching
w all
hy per
Ġ" ""
Ġformal ism
ĠT uesday
Ġun stable
ze ch
Ġhom ot
Ġdisplay ed
Ġf ont
Ġa ux
ĠB BC
R T
}) )
ĠA L
renew command
ser ies
f r
Ġtri angle
d riv
Ġdesc ript
T ag
Ġdiam eter
ĠS ign
Ġcy cles
p rivate
Assum e
c raft
Ġbase ball
m ember
p in
Ġchampions hip
Ã £
Ġover lap
Ġ Å
F O
ĠVictor ia
f riend
Ġexper ienced
chang ed
us cript
ĠĠĠĠĠĠĠĠĠĠĠĠĠĠĠĠ ĠĠ
le ments
De finition
ant i
dist ribution
Ġcosm ic
Ġem ot
Ġtem plate
H ar
ri p
ess el
Ġ ens
Ġsil ver
ĠAn th
Ġtri p
O ptions
ab et
over set
Ġde formation
ĠScott ish
} &\
Ġt ack
Ġpropos al
U V
el le
ĠEn vironment
19 43
Ġsignific ance
g i
ĠInd epend
}) -
Ġprob e
p ush
Ġfootball er
v y
Ġatt ribute
Ġoff ering
Ġrelax ation
sh ould
Ġmin ister
l u
Ġd il
iam ond
Ġdi verse
195 3
Ġmon ot
rand om
13 0
Ġcomplet ion
in itial
ĠK ir
P aram
Ġun able
fl at
w s
Ġsp an
Ġne ur
Ġrec urs
19 47
d if
ĠO s
Ġsit uations
Ġatmosp here
ĠTor onto
ĠWed nesday
aw n
Ġdisc overy
Ġm it
ĠT al
ĠBel g
Ġ$ [\
ĠSte ve
Ġappear ing
Ġguarant ee
}} }{
ĠN ether
ask a
Ġsegment ation
Ø §
Ġmarg inal
B D
Ġbos on
Ġher self
Ġad vent
e ach
~ {\
Ġv ot
E v
Ġorder ing
Ġintegral s
Ġspe aking
Ġmark ets
}}\ ,
Ġout comes
ep ing
ĠCh air
$ --
ug in
Ġh ockey
Ġm al
ĠBook s
= (\
Ġrel iable
Ġim possible
ĠIs lands
O pen
pon ents
ĠA P
p erson
Ġcont rovers
c oupl
ĠI P
Ġin dependence
ĠF ood
ur i
Ġhapp y
Ġl ists
ĠE uclidean
Ġcustom er
fact or
Ġconvert ed
Ġequ ipped
Ġmathemat ical
ren cy
Ġpres c
Ġmarket ing
Ġdis pl
el ines
k g
}_{ (
Ġdedu ce
Ġg iant
ĠB ad
Ġadapt ed
al o
ĠEl izabeth
ist ically
Ġprov en
Ġquot ient
ed ia
Ġrem ote
Tr ue
Wh y
Ġnon zero
195 4
i very
ch a
ps et
w atch
Ġsh ares
Ġimplic it
y al
Ġmole cules
Ġan imal
Ġj ourney
Ġpresent ation
E Q
ĠM arg
ĠL ow
Ġindu ces
S outh
ual ity
Ġinter sect
ĠCorpor ation
op ing
ĠS che
Sim ilarly
pol y
ĠStand ard
Ġl osing
Ġ ^{\
cl os
' }$
Back ground
H A
Comm and
Ġinst ability
g ray
ĠF R
Ġg one
h skip
an alysis
int on
ann er
c ounter
Ġvalid ation
Ġest ate
$ (\
Ġ$- $
Ġadm its
ĠU se
Ġsuff ices
Ġrec ur
Ġsp arse
osp it
Ġre ar
f amily
ĠOr ig
N AME
ic ial
ĠR os
Ġassist ant
und erset
Ġman ip
Ġcut s
Ġauthor ities
Ġre aches
Ġdef end
Ġopin ion
Ġstr ings
ĠC reek
Ġsub s
S ol
if iers
{ [
Ġv otes
Ġtro ops
}, {\
[ "
ĠPl aces
Ġappro ved
Ġp ot
or ough
om atic
Ġillust rate
Ġag ency
V AL
ĠA k
Ð º
Ġgirl s
Ġcon jecture
pr im
Ġcont emporary
ĠMe V
ri val
ĠBe fore
Ġinfin ity
Ġperform s
ref erence
sh all
Ġapp rec
ur g
Ġm ob
G s
H igh
Ġy ellow
). }
nav bar
}. \
B uffer
Ġre tain
su it
Ġconcept s
Ġexcit ation
c ategory
in ates
Ġeas tern
B P
tot al
Ġgl ob
^- $
Ġpercent age
ĠMin nes
Aust ral
im od
com ment
Ġnumer ically
Ġent ity
Ġn ice
ch ing
Ġconstra ined
Ġactiv ation
P ort
respect ively
writ ten
ch ild
Ġsem antic
Ġencou rag
Ġ$ $\
ĠC ode
h ist
m atic
ress ive
Ġb id
e val
b es
lim it
Ġnot able
ĠP age
Ġwe alth
ĠK al
at en
Ġwor se
riz ona
Ġw ing
Ġtit les
}= (
ĠC ost
ĠS P
Ġsupp osed
Ġref lection
C a
ch itz
Ġgu ess
umer ical
^ +\
ĠN ick
Ġend ing
H is
Â °
Ġexam ine
Ġsp ons
Ġb atch
ĠE instein
Ġprofess ion
10 5
ĠSt adium
ĠH art
se ason
n ight
Ġto ken
ĠS ky
Ġne arest
ĠL uc
cent ly
ĠLore ntz
Ġf ant
Å Ĥ
ĠP DF
Ġs ale
f ol
Ġf iction
V ol
ĠRail way
on i
Ġinstrum ent
ĠM A
Ġst im
Ġc od
ĠT oday
ĠF ox
ĠM ill
Ġpol l
ĠOnt ario
su ccess
Ð »
et ary
ut ely
Ġarg ued
ive red
or ient
ĠV iew
ry pt
AB LE
Ġtechn ologies
Ġhum ans
p air
Ġlat ent
Ġsubject s
195 1
St at
ĠMinnes ota
Ġprom pt
ant ry
Ġplatform s
Ġhard ware
ed u
oot st
Ġn arr
Ġent anglement
Ġout per
Ġgu ard
Ġgain ed
as et
Ġst ored
Ġcl ick
Ġs an
Ġm ent
ĠP A
Ġamount s
s is
Ġopp osed
Ġd iversity
ĠD am
Ġvari ant
ĠU r
Ġhistor ic
ĠM P
ĠR ome
EE E
l r
Ġd y
Brit ish
ĠAn alysis
aw are
Ġthrow s
ik a
Ġre ly
Ġfavor ite
ĠT ok
ak h
Ġphenomen on
Hand ler
Ġm ental
v c
) )$.
Ġy ards
er al
ic ian
s igned
ĠWis consin
Ġcal ibration
ĠWh y
sat isf
ou red
We b
Ġl es
Ġshe ar
Ġasympt ot
V ersion
lay out
Ġw inter
st ances
cent ral
Ã¡ n
p mb
super vised
+ $
ĠAre a
vi ation
ort he
it led
Ġnewsp aper
fin ement
}| ^
Ġexpl os
Ġsurpr ising
or ous
Ġreach ing
Ġdestroy ed
n etwork
Ġsold iers
ĠGu ide
W E
Ġhab it
m ad
N E
ĠPhil adelphia
Ġregard ed
ĠO R
Ġfight ing
Ġchain s
7 00
Ġcomb ining
ĠR ights
Ġst orm
Ġproject ed
19 49
Ġsatell ite
Equ al
o or
ĠT O
enn a
ĠAr gent
Ġa u
ootst rap
Ġsynt hetic
ĠSy dney
ĠNether lands
on om
r ase
ĠI mage
Ġscen es
ru ption
ate ver
Ġdeterm ines
ĠR ight
ĠOlymp ic
ĠH ou
@ {}
cons istent
Att ribute
Ġyoung er
Ġv irt
Ġ+ =
IN T
ĠNew ton
opy right
ol s
Ġful fill
ĠRem ark
ĠF ac
Ġre in
1 15
Ġcent ered
ĠDav is
Ġappear ances
}$ ).
ac cess
Ġpotential s
s ort
Ġrestrict ions
ĠC ov
oci ated
ĠP a
Ġra w
ĠB all
Ġsol o
ON T
ple ctic
tain ment
se par
ĠC ub
x ml
ĠKore an
equ ival
ĠF I
indu ced
Ġsyn chron
Ġcom fort
M I
ĠCount ry
11 1
Ġaff ili
}} +
Ġdec ade
Ġseg ments
Ġpro ton
\| _{\
Ġexp ensive
Ġch ose
\, .
s rc
no ise
Ġf ear
ĠFore st
Ġb inding
Ġoutput s
m etric
Ġbr ings
je ctions
Ġen ables
14 0
Ġdel ivery
}( -
ĠSt ory
ĠAm ong
are t
Ġintrodu cing
ST M
Ġform ally
D own
Ġw ins
Ġse ar
con c
de ep
Ġcomb inations
Ġsc oring
Ġprov es
ar ia
Ġtalk ing
Ġp y
ph y
Ġfact s
ri ers
est abl
Ġconsum ption
Ġk id
p he
ro ot
reg ion
Ġ ĉ
Ġgener ates
F actory
d ocument
ĠH om
Ġregist ered
Ġut ility
Ġm ere
Ġv ent
Ġenc oding
Ġst one
Ġhost ed
ho ok
Ġsubstant ial
Ġdis order
er on
m arg
Ġprov ince
C V
bt n
Ġconnect ing
Ġanom al
Ġsh o
ou stic
Ġgreat est
sim ple
Ġslow ly
Ġacceler ation
ĠPri ze
con v
ĠS ong
S l
ĠO regon
Ġa id
Ġatta ched
Ġm and
Ġpass es
b oth
Ġmay be
D at
G G
Ġarg ue
ĠM ember
Ġs ac
ĠL es
S ym
um a
C B
od ge
Ġreve als
ĠN FL
M usic
D O
ĠL ady
Ġknow s
sh arp
Ġprom oted
Ġobserv ables
Ġc ro
ser ver
Ġaccom pl
ĠH op
ĠAnt on
sing le
C ast
N T
ĠB rand
ĠN ations
= {\
Ġdepict ed
Ġhelp ing
An y
M et
ars er
Ġl y
ev in
ĠCont rol
ĠC S
ĠH ay
Ġsens or
' )\
ĠD NA
Ġgener ality
Ġvan ishing
Ã£ o
D r
ul pt
ĠK at
ĠW ell
U I
Ġexp at
ĠD om
Ġanalys es
Ġstand ing
Ġvis ited
ak s
Pl ay
Cre ate
vert ex
co in
Ġatt ributes
Ġinterest s
Ġhom omorphism
Ġc ab
Re v
B ased
in cre
bour ne
Ġpurch ase
ĠJ ordan
ast y
T ube
qu es
Ġinv ariance
ism s
is y
Ġaccess ible
am l
Ġproced ures
ĠSing apore
oid s
Ġmechan ical
ag en
ĠAir port
ab i
Ġr id
Ġcon clusions
Ġneg ligible
p et
r ine
Ġv ulner
ĠCor ps
un iform
ab olic
Ġaim s
ĠS on
Ġoffic ially
is er
left rightarrow
og g
Ġv irus
Ġdecl ared
ĠA li
Ġauthor ity
equ al
Ġph on
}} }$
Ġad vis
sub float
she ll
M a
it ud
ĠâĢ ¢
st d
Ġfore cast
Ġdo ctor
Ġsymm etries
ĠWind ows
Ġd ialog
Ġderiv ation
Ġincreasing ly
Ġsk in
comm on
\ -
ure au
est ion
ĠE th
ĠE vent
ĠD er
Ġcorrect ly
) !
ĠH D
y ard
Ġfound er
Ġin tern
K L
ĠPr inc
or ters
Ġprogram me
ĠSpr ing
Ġsee k
Ġhom es
is ition
ĠT ai
Ġmix ture
enc ing
Ġwin ners
iss ue
Ġre form
\' {
or b
Ġus age
}\ }$
% .
ĠSt ock
id ay
du ctor
Ġtrig ger
ĠSupp ort
1 12
Ġlist ing
ĠI T
B T
ĠG L
Ġcomm itted
V I
Ġab and
ĠD ark
B el
Ġtop ics
Def ault
% ,
Ġprom ote
pr ise
Ġch apter
inst ance
ĠR et
Ġoper ate
}\ !
ĠĠĠĠĠĠĠĠ ĠĠĠĠĊ
Ġcon crete
ĠG ib
d rop
Ġtr uly
ĠM ov
Ġp ump
vious ly
rag on
Ġlog ic
Ġcont est
Ġt ends
Ġrespon d
Ġb are
B as
Ġform ing
ire ment
deg ree
ĠF inal
Ġgrow s
Ġcon cerning
D en
Ġhyper bolic
M any
ĠStep hen
g ood
Ġp ole
F P
u pp
plic it
eng ers
ak ers
Ġdis cre
ĠP ers
stand ard
Ġb ath
ĠCamb ridge
Ġelli ptic
ru gs
ĠCh ildren
Ġ ram
ĠT urn
sim ilar
ĠH erm
Ġpos it
Ġcryst al
Ġrel ativistic
Ġdec ide
Ġt um
Ġb its
ot he
ĠO t
A nt
Ġch ampion
Ġinstall ed
ips chitz
ĠW ars
param s
Ġpure ly
Ġlic ense
ĠS ab
Ġun ity
v able
ĠC ook
ou ri
const ant
Ġrank ed
Ġexpert s
Ġaccom mod
qu arters
ĠR ic
Ġcamp us
Ġannoun ce
Ġdr ift
ly n
19 36
Ġin form
Ġar ises
ta x
d ynamic
se q
pl ain
Ġm ort
res ize
t ensor
Ġleg isl
Ġhot el
ag ues
ch arge
ĠB ased
c us
ĠA ction
Ġocc asion
od s
ĠA PI
Ġ\, ,
ck er
Ġwa iting
ĠH an
ĠM ath
Ġfac ulty
che stra
Ġdel ivered
Ġsampl ed
w eg
B s
ord ered
Ġadminist rative
sol id
ile y
v ia
k it
s v
ĠF lo
)\ ,\
ĠW el
19 18
Ġtrans action
en z
f n
ĠW inter
Se lect
Ġca using
big gl
Ġfeel ing
Ġsc ulpt
Ġg ift
at ics
iv ation
Ġst uff
Ġh all
Ġsched uled
Ġcon vention
Ġlo ops
Ġcent ers
25 5
Ġd otted
ĠSt art
Ġexplain s
}^{ (\
ĠF ull
Ġcontroll er
Ġvol unte
ra q
ĠB ridge
big skip
Ġadv oc
Com parison
is ons
C I
s ome
Ġs udden
Ġdesign s
Ġdifficult y
ĠComm unic
Ġheav ily
AN D
g on
Î ±
ĠE ric
Ġse es
end ar
c ov
du ate
be fore
Ġjud ge
Ġassign ment
Ġse ats
Ġext ensions
Ġtun nel
Out put
Ġt ens
vel ope
l ined
bigg r
Ġre new
St r
ĠRe call
Ġsche dule
ĠSpec ifically
Ġfeas ible
b ecause
ĠLear ning
iline ar
Ġacc um
Ġimprove ments
m ove
ĠC orn
ĠRe volution
Ġg ather
w ords
Ä į
Ġman age
rad ius
qu ark
ĠG er
Ġint elligence
j son
Ġplan ets
pt r
Ġcl ouds
Col umn
ĠDe ep
Ġpost ed
$ =
d est
ĠA z
Ġp atch
Ġtot ally
Ġfall s
roll ed
E very
Ġcould n
Ġman uscript
A ug
ĠN az
Ġmulti pl
' ).
Ġn a
Ġimag inary
els on
Ch rist
( |
Ġp un
Ex ample
as hi
ĠGold en
ĠColor ado
}} -
Ġreturn ing
Ġlimit ing
ĠQue ens
Ġarrest ed
Ġformul as
ĠJ os
Ġ\ #
Ġcohom ology
ĠM att
H er
b ad
ho ps
ĠW at
à ¸
Ġcompet ed
Ġb omb
Ġsch olar
Ġe c
ĠSta ff
end if
Ġst ores
B F
ound ed
Ġmin ute
ron ze
Ġinstit ution
Ġembed dings
ĠR oss
\!\! \!\!
ĠChe ck
ĠM D
U M
ear ing
Ġl ose
h n
do or
Ġcompre hensive
ask et
Ġgrant ed
Ġab elian
] _{
Ġbuff er
Ġa cknowled
Ġfil t
ĠL O
ĠOffic ial
Ġalign ment
S k
ĠS n
Ġbring ing
Ġneg ot
Ġb an
Ġc riminal
' (\
Ġf usion
Ġdeterm ination
Ġpil ot
u pper
ĠM iller
3 60
ĠM un
St ar
O pt
Ġmetall icity
q l
m ay
Ġocc upied
correspon ding
Ġel astic
sp aces
en ance
Ġres c
RE F
~~~~ ~~~~
ict ed
ut t
Ġhelp ful
L oad
ari ants
J ust
, .
fra g
ens ed
ĠMicro soft
19 37
P ublic
ari ate
19 38
G D
G ra
Ġfin itely
l ights
Ġar rive
Ġquark s
Ġin g
ĠConn ect
Ġsp end
ĠSo ft
driv en
Ġon going
Ġrespons es
ra it
b ec
In ternational
ig rants
Ġfam iliar
on line
ost ic
Ġalle ged
ĠEx ample
Ġmodul i
u j
ĠL td
C ap
Ġv ir
Ġdeg ener
St ud
Ġdom estic
Ġequ als
s ite
re du
Ã© e
A ccess
Ġre nder
Ġoscill ations
Ġmunic ipality
* /
ry st
Ġrese mb
Ġferm ions
ang a
, (
ĠS af
ĠS ri
res ol
prot ect
ĠAnd erson
le ading
ub er
Ġadv ice
comp act
ĠA rizona
Ġclass ifier
Ġart s
Ġpurch ased
Ġmonitor ing
ow nt
auto ref
Ġread ers
h d
Ġaux iliary
ot ype
Ġcan cel
moment um
per ial
Ġobserv able
ĠOn line
Ġprefer red
im p
Ġre verse
Ġlocal ization
Ġf ol
al f
Ġtang ent
ex ec
Ġt aught
Ġcollect ive
Ġinequ alities
Ġrac es
ĠT R
Ġemer gency
Ġin her
Ġcre ative
Ġsuper conduct
f ixed
Ġbran ches
const ruct
^{ [
et ter
O rig
dist ance
Ġ{ {
Ġadapt ation
ĠM oh
h arm
N P
S em
S ign
ĠAN D
pol ar
ĠD R
p ref
Ġd ry
ĠPr im
ett y
B r
ant e
Ġconsequ ences
rict ion
al og
col l
ĉĉĉ Ċ
Ġj ets
Ġfl avor
Ġsym pt
âĢ ¢
ys elf
W A
v ard
ĠV ideo
xy gen
Ġ\\ [
T O
Ġmultiplic ation
per iments
ĠT ro
Ġdem oc
) /\
Ġle af
F ix
Ġparticip ated
Ġdri vers
Ġdi vergence
ĠB udd
ĠSh ort
ĠY ang
ĠA thlet
ou ch
Ġvari ability
Val id
uten ant
st ellar
ĠSe ason
Ġconserv ative
Ġs now
ĠPrem ier
Ġpartners hip
Ġequ ally
Ġmov ies
Ġc aught
Ġassess ment
Ġsu it
Ġmusic ians
t ask
Ġexpl ored
Ġcompet itive
ĠP ur
ĠH ur
Ġhol omorphic
Ġsuff ered
Ġland scape
Ġtransform ed
ĠB lo
ĠE uler
O p
Ġrad ii
ĠTur key
Ä ±
Ġopp on
Ġd s
Ġf ault
ĠT erm
Ġsingular ity
Ġvol tage
ĠT a
ĠR ose
Con tain
int o
ĠCh annel
d ouble
ĠC ru
ĠMag azine
Ġrec overed
Ġsto pped
Ġefficient ly
ĠComm and
Ġtw enty
Fil ter
}$ $
Ġval uable
ĠI mm
S ongs
Ġterrit ory
er os
Ġlength s
f iles
Ġcon version
Ġturn ing
ĠC au
Ġjust ice
ĠM it
ific ate
ampl ing
Ġgradu ated
}$ ;
Ġm ount
fra ction
Ġrig id
19 35
P ersonal
Ġult ra
ĠNever theless
Bl ack
ĠCon sequently
ĠS ym
ĠGal actic
N L
g rid
Ġworld wide
Ġpo et
ĠA mb
ol itan
ĠAtl antic
Ġcl ock
ĠF uture
ĠExec utive
// /
Ġfraction al
}}\ \
Ġsub sc
Ġlocal ized
ic ians
ĠDis ney
e fficient
Ġhor se
\ }}
ennes see
Ġra in
& +
Ġw at
make box
Ġobserv ational
19 17
Ġeffect iveness
ĠSwed ish
Ġvar ies
g tr
Ġev ident
rel ax
Ġhundred s
ĠB at
ht bp
Ġann ih
+ }
Form at
Ġdefe at
* {-
J o
T M
Ġpen alty
Ġreg ister
f requency
19 00
ĠAl f
Ġad ult
ĠPh ot
ĠA ge
G O
Ġ ille
): =\
Ab out
Ġcomb ine
E st
Ġdec or
ĠM oon
ĉ čĊ
f our
he res
Ġt error
ĠSwed en
t ex
ĠD ra
opt imal
ĠO cean
Ġneighb ors
over s
Ġcont ributed
ĠChe m
ĠD onald
D et
Ġregular ization
m ers
l ab
Ġfav our
maz ing
S ON
ĠG ree
ĠDu ke
Ġm ic
Ġf ly
Ġg ar
ment ed
Ġre venue
old er
qu ality
char acter
Ġshoot ing
ĠF ord
Ġn ob
y stem
Ġh its
re ement
sh ips
ĠMar ia
ĠH as
Ġreplace ment
Q L
itud inal
ors ion
vent h
ess ions
per or
' ),
Ġ )$
Ġhe ating
l an
Ġindu ct
Ġins urance
ĠAl ice
ĠInd ones
ĠLew is
G AN
B U
cell color
Ġvan ish
Ġaff ord
Ġtrans mit
Ġb ought
outhe ast
asc ript
pro perties
rem ove
Ġyour self
ĠA bb
ĠP ut
res olution
Ġseem ed
ar o
ĠCo oper
Ġshift s
Ġs ket
crit ical
}} ^{(
d ra
r ats
ĠA S
ĠB rian
a ire
Ġh un
Ġpre mi
gress ive
e per
Ġcor on
Add ress
Ġgeodes ic
off set
P res
Ġphot os
Ġjo ining
t im
Ġweek end
ĠE P
Ġsett lement
^{ {\
M ac
ĠV ari
Ġpip eline
Ġar rival
ist ant
s or
ĠH u
Ġhas h
mer ce
Ġsh apes
Ġeven ing
ĠG h
ab ric
con nection
Ġdeterm ining
r in
k ish
S earch
Ġext raction
ĠB att
Ġeduc ational
v as
ĠPro cess
Ġresol ved
ĠG allery
p ie
Ġensure s
Ġfail s
B undle
et ing
Ġtro ub
Ġprinc iples
Ġch rom
ĠP S
Ġaut omorphism
Ġ ),
Ġout flow
Ġenc oder
Ġin ternet
Ã ¸
ma king
Ġoppos ition
Ġassist ance
Ġmes h
> $
Ġfew er
ss on
W here
D el
ĠK han
Ġins ight
ail ability
Ġmeas uring
lik ely
s qu
Ġde pos
Ġre nt
ĠS av
j et
Ġinteract ing
ĠUn iverse
Ġexpand ing
ĠD at
is ations
S w
Ġ{ @
ĠT ransport
Ġcav ity
ĠYou Tube
Ġv ast
and y
Ġan ten
em b
H R
olog ists
rain ian
Ġb on
ro ke
}] $
en um
Ġtor us
ĠI ma
e fined
Ġst rain
Ġparticip ate
Ġcheck ed
Ġtri als
Ġm il
w ang
at in
ĠBuild ing
ĠS R
top rule
st age
Ġlimit ations
symm etric
ĠN umber
Ġaddress ed
Ġacc ord
Ġperm utation
iam i
Ġin hab
av irus
ore l
b ian
ĠMod ern
ĠChar l
) }^
Fig ures
% ;
Ġgu est
ourn als
text style
col head
Ġlif etime
L ocation
c u
Ġcontinu ity
conn ect
Ġleg end
), (
) <
m aster
s un
st an
ĠNot ice
19 33
Ġparamet riz
W omen
itect ure
ivers ary
ĠCap tain
ion ed
Ġexerc ise
Ġp itch
Ġrema inder
p f
Ġcomp ris
ar on
rat io
}} +\
Ar ch
Ġw arn
Ġkind s
back s
Ġmechan ics
A v
19 14
Ġlist en
Ġrequ iring
Ġreport ing
Ind eed
ĠS F
ĠHar ry
bib liography
Ġmunic ipal
Ġin hib
B ra
Ġgovern or
Ġcomput ations
//////// ////////
aint enance
Ġmanifold s
Ġde vel
Ġgreat ly
T ree
l ades
Ġflux es
Ġhousehold s
par se
riv acy
c ost
Ġnucle i
Ġaut hent
arg ument
e en
Ġf er
ĠC ab
ind s
ĠT an
ab out
ĠCom b
Ġtw ist
ĠHou ston
ĠCh all
Ġvari ants
Ġshift ed
ut s
ĠB rig
Ġas sets
},\ \
i Äĩ
Ġaccom pan
W est
L ength
Ġhe lic
ĠSystem s
Ġt ruck
gh an
roph ys
igen ous
Ġnot ing
Ġthick ness
Ġdocument ary
O ct
Ġfl av
sequ ence
Ġweap ons
S pe
re v
ĠR oute
ĠL ook
}) (
cal cul
ubl ished
re pre
Will iam
Ġstri ke
r f
Ġsound s
E V
ĠTra ining
Ġ$ -\
ere r
19 19
Z Z
Ġtrend s
Ġbatter y
ĠF ellow
d on
Ġsqu ares
Ġf estival
n ik
Ġengine er
Ġp ose
ĠA ccess
ĠN ig
Ass ociation
Ġare n
Ġmer ger
ER R
Ġpar ad
Ġconclud ed
( $\
U pdate
ĠC ra
P an
ĠI owa
olog ically
Ġdraw ing
Dav id
ĠIndian a
ĠP ier
cl uster
) ~\
tt p
Ġlo an
ĠB iden
ri ver
Ġadvers arial
C y
g ame
so ap
Ġexpl oration
ple te
Ġmaintain ed
Ġscient ists
' ,\
10 2
}] \
Ġd amp
on omy
ĠT en
ĠP ay
Ġste el
ĠC zech
aw ay
Ġgu id
ĠAdminist ration
ĠK ansas
gtr sim
x rightarrow
it atively
Ġpaint ing
19 34
oun ced
ens ively
Ġc ash
Ġmod ification
ĠT ext
ĠJ oh
ĠL ank
Ġtit led
f ocus
Or der
Ġpre lim
Ġproof s
Ġdi pl
E ven
Ġc ache
Ġperman ent
Ġexec uted
ur ches
ĠSc ient
L M
Ġ\ }$
Ġsh orter
ĠJ am
Ġle ct
pos itive
os ph
Ġh a
Ġabsol utely
Ġachie ves
Ġimpro ving
ĠL iter
c ers
Ġsummar ized
iz ers
Ġm yself
Ġobtain ing
Ġing red
ĠC rit
ĠAff airs
] ]
Ġun us
V ideo
Ġcarry ing
Ġcomb at
19 10
Ġim posed
Ġconver ge
i ot
Ġfil ters
Ġse p
ĠS earch
repre ne
Ġre tail
U K
Ġband width
Ġbar rier
Ġsp ins
Ã º
Ġrestaur ant
On ly
] }\
Ġfound ation
d p
ĠW here
z i
Th m
Ġp ron
Ġthere by
osc ow
Ġrecomm ended
em et
Ġsurve ys
Equ als
Ġf aced
Ġwind ows
L o
Ġdetermin istic
Th rough
ent ity
Ġob st
at hered
R ow
3 50
Ñ ĥ
Ġpre v
Sum mary
Ġke V
att ered
ĠBro ther
L ay
P ack
fig s
ĠO p
ail s
Ġphenomen a
al actic
ĠMem orial
ateg y
$& $
ĠI raq
rel im
Ġp ra
dep th
as p
19 29
ĠC ON
mult ip
Ġfair ly
Ġp iano
ĠOffic er
Ġre cept
ater n
ĠD or
all as
ĠCl in
Ġdistrict s
V ari
b ow
wit zer
ĠAr ray
Ġviol ation
Ġrang ing
ad ers
um ann
! âĢĿ
ĠTh ird
Con clusion
S W
Ġjournal ist
ĠM ilitary
p ow
Post ed
cont in
ĠK a
W rite
Ġelectro magnetic
Ġr u
idel ines
Ġpres erve
ter ior
vers ely
oc a
Ġun like
Ġradi ative
AL L
Ġassoci ate
Ġpro spect
ok ing
ma xim
Ġer g
Ġcount ing
re nd
De v
Ġd ates
ib liography
ĠĠĠĠ ĠĠĊ
Ġcompos ite
contain er
[ {\
quant um
Ġsequ ential
] _
k ee
ĠEnter tainment
T ask
Ġs ought
S ur
ig m
Ġstri p
Ġb rown
q q
Ġv ic
Ġrespons ibility
tra ining
b urn
ĠB ishop
Ġam pl
ĠPe ak
Ġver ified
ĠP ack
hes es
ĠN OT
Ġrece iver
is lation
10 4
ĠB ox
ĠĠĠĠĠĠĠĠĠĠĠĠĠĠĠĠ ĠĠĠĠĠĠĠĠ
Ġart ificial
Ġthe atre
vel oc
att r
M ich
our se
H y
coordin ate
o a
Ġm art
Ġrank ing
Ġbright ness
U L
' -
ĠP rom
Ġnov els
rac ks
ĠAll en
d am
F rench
az e
Ġattempt ed
Ġcre ates
w estern
Ġhe aring
Ġgu y
ut her
Ġhomot opy
Ġa f
l ass
Ġconsider able
Ġto wer
L eg
}) }\
ĠR equ
O K
ĠHe art
f ly
p ress
ĠS ound
Ġdetect ors
do i
Ġt ables
A uthor
n atural
T F
Ġsupp ressed
con j
A ng
ĠT ennessee
Ġqu eries
Ġtown s
i ar
On ce
ab ama
Q ue
re q
19 28
the se
Ġin cl
Ġd a
_{ {
G erman
d ers
am ents
L ife
Ġthe rapy
Ġcycl ic
weg ian
Ġinf o
Ġput ting
class es
it ro
e eq
Ġo xygen
Ġmembers hip
B oth
f all
u y
witzer land
ĠLe on
ð Ł
ĠF red
cos ity
y ers
Ġh ur
e a
Ġdeb ate
Ġ url
ĠCast le
Ġas sembly
i pping
Ġmoment a
sh op
od a
h yp
ĠSim on
add le
ĠSt one
Ġminim ize
al ion
os l
D L
Ġinstrum ents
] ^{\
Ġre actions
war z
ĠT ake
ĠLic ense
Ġexpat riate
put ation
et o
u u
C s
ĠD ate
Ġ\| _{
ĠG un
ĠAr thur
Paramet er
Ġb ott
w ick
supp ort
A f
Le vel
}{ $
ĠTh ough
Ġteacher s
B N
M ode
Ġcap tain
Ġbelong ing
emet ery
Ġremov ing
resize box
oul omb
ĠSen ior
ĠO pt
Ġdual ity
ĠG W
d ue
Ġdou bt
D om
Ġv eter
Ġgood s
z ing
| {\
Ġm irror
i ac
ĠMary land
}$ ),
Ġneutr inos
Ġobvious ly
) "
Ġover view
Ġcub ic
Ġexhib its
Ġso il
ey ond
ik h
G raph
Ġr ings
Ġdip ole
big oplus
ant um
AG E
Ġpar ish
ploy ment
19 32
Ġregard less
ateg ories
Ġk illing
Ġag es
par a
Ġ* *
Ġ[ ]
k k
ir ation
Ġmanag ers
Ġi i
Ġinflu enced
Ġpar liament
ĠV I
ĠS NR
T P
tra ined
}_ +
Ġr ating
- {\
ĠS ant
ĠAg ency
Ġde let
i Ã³n
sin h
_{ (\
ĠB urn
ĠF ront
ĠT ony
ĠS ix
var pi
Ġw rest
Ġadd s
Not ice
Ġquant itative
es is
Ġt ab
Ġas ymmetry
Ġsp ending
ĠR yan
eq q
om ot
n ed
Ġhead s
b est
Ġh ospit
p aper
Ġident ifying
Ġisot ropic
Ġv oting
Ġfocus es
w ich
ĠTr ue
ST R
Pro ject
Ġser ial
Ġs in
ĠP itt
Ġro of
Ġc raft
il st
in ch
( &
Ġcl ar
trans form
r ator
Ġab use
continu ous
c n
Ġhierarch y
Ġint u
bottom rule
C rit
Ġprom ising
ĠAr k
im ated
t ics
m ix
art icle
ment ioned
ht b
Ġre fere
Ġprepar ation
00 5
ĠÂ »
w p
Ġint ent
at ar
Ġo x
Ġmat ters
c ule
stit uting
ro it
Ġsur gery
red it
Ġtra ding
ĠV in
Ġsuper ior
Ġref lected
Ġre volution
) ~
ĠM agn
Ġsurv ival
he im
ag an
Ġaccur ately
Ġb ins
Ġdeg enerate
om as
Ġhealth y
ul us
Ġcap abilities
ĠIn itial
Ġconjug ate
N G
Ġw ww
bs erve
F ONT
Ġne uro
is o
}. $
Ġmanufact uring
coh ol
ĠViet nam
h ig
ex act
ĠN O
Ġtra v
Ġfor th
Ġbro ke
Ġuniqu ely
H P
Ġman ifest
ĠDe ad
I B
Ġm as
ĠN atural
Ġcommunic ations
Ġincre d
Ġatt ributed
Ġrequest s
Ġcompos er
old s
1 18
ad ic
K K
Ġant icip
ĠD ream
k ind
mb f
Ġcrow d
ĠPro of
Ġbox es
cho ose
b one
ĠI ss
ĠWith out
Ġt ension
Su per
und les
Ġb anks
ĠU l
Ġlogarithm ic
Ġbig ger
Ġd ot
19 22
ov ed
Ch ang
om ial
Ġmotiv ated
Ī Ĵ
an es
Ġconsum er
lect ric
Ġincorpor ated
j u
Ġag encies
Pre vious
Ġrac ing
Ġs oul
col n
Ġext ending
Cont roller
sm ooth
eg as
ĠF unction
W S
){ $
Ġbreak s
Ġc ards
AC E
ch arg
cc entric
ĠFore ign
Ġdesign ated
1 16
19 31
E uro
ĠPhilipp ines
L in
Ġexponential ly
ĠBay esian
Ġfem ales
ic ide
ĠN orm
Ġsym plectic
un ity
ĠStud y
ĠC ulture
set length
Ġmut ual
ip her
Ġqu bit
l ad
ant ly
ra ce
Ġcoinc ides
C le
el ve
ĠS L
ĠE mer
Ġs ending
N orth
e V
)$ }
ĠB ab
inem a
Ġcorpor ate
ĠHar ris
OR T
it ics
th in
x ym
un es
Ġcommut ative
b ran
ĠPro blem
r ically
Ġal ter
But ton
Ġsh r
Ġsix th
Ġdeal ing
Ġpass ion
s ens
Ġm o
ä ¸
rop olitan
ĠReg iment
ĠG ab
ĠE dition
? "
l brace
Ġreprodu ce
Ġpreserv ed
13 5
Ġar ising
Ã© s
" |
Com b
o om
Ġsuggest ing
ĠCol lection
bibliography style
Ġb ases
Ġadapt ive
is ks
}\ )
Ġh am
Ġshort ly
ĠI mp
b racket
Ġvacc ine
ab atic
set t
ĠHot el
R ob
Ġd rugs
List ener
grav ity
lev ant
+ |
ast s
Ġh o
ĠF all
Ġ< !--
ĠJ ay
Ġrot ating
ĠK itt
P ass
)} ,\
Ġmach ines
M or
Ġgrow n
Ġinf ection
Ġ\, .
D irect
G reen
ĠEconom ic
ĠF ile
hy thm
ĠS quad
ĠMo ore
10 8
Ġpost s
ĠV ice
Ġsimpl ified
le in
cons ist
ĠS S
Ġwatch ing
ig ate
19 24
ĠĠĠĠĠĠĠĠĠĠĠĠĠĠĠĠĠĠĠĠĠĠĠĠĠĠĠĠĠĠĠĠ ĠĠĠ
ve ctors
ĠĠĠĠĠĠĠĠĠĠĠĠĠĠĠĠ ĠĠĠĠĠĠ
ĠE arly
Ġf ranch
Ġcont am
}^{ *
ĠPl ace
Ġorient ed
Ġto ler
Ġd ress
ĠP ed
men u
d irection
Ġexhib ition
L ie
). $$
jav ascript
fol io
b x
Ġcomp ression
ĠCol on
ĠReg ional
. '
ĠS quare
Ġext inction
ph oton
re tt
ĠDi ego
Ġs oci
Ġk il
F in
ge red
che ll
ĠA C
Ġst ick
10 3
}{ $\
Ġsh op
ĠA U
ov en
Ġmiss ed
ĠF ederation
ail ing
rap ol
u f
Ġrel ies
\\ \
ĠRec ord
< ?
Ġmod ular
T ok
Ġapproxim ations
ĠW atch
Ġf ruit
um in
p atch
ĠĠĠĠ ĠĊ
[ $
ĠD irect
Ġb is
2 20
ĠMan chester
ĠLeg isl
Ġimplic ations
hor iz
ĠMiss ouri
^* (\
ro d
Ġtransl ated
Ġpre gn
O h
Ġwould n
m ut
F ull
own ed
Ġpay ment
ĠI l
b eq
Ġwh atever
Ġc umul
pi x
Ġterm inal
Ġrelig ion
ĠLa ure
m ony
Ġperturb ative
ĠCh ang
Ġmicro sc
process ing
con vex
r n
f ront
'' .
tot ype
Ġr ugby
ĠJ ane
p q
i at
Ġj unction
Ġe cho
F ree
row th
ĠCur rent
xym atrix
g ov
D ue
ĠCap ital
9 00
ĠB ah
)$ $
ĠF A
ha ust
Ġpar ity
er as
tr im
ous es
19 27
N D
ĠM oscow
ĠHigh way
: (
ĠS ho
Ġtra ins
Ġmark s
ard o
est yle
r ison
Ġfact ory
T I
Wid th
Ġk ee
Ġde leg
Ġmin i
Ġsee king
ache lor
T ab
Ġs elling
ĠB run
Ġdefin itely
ĠM O
Ġren amed
diag ram
Ġex posed
]{ ./
se a
Ġent ering
ĠMex ican
m outh
y ou
Ġover come
C ho
f ix
Ġm ock
ĠNor way
ĠHol lywood
Ġmed icine
}} }{\
r b
Ġmodel ed
Ġac oustic
Ġair port
hal f
Ġgl uon
l iving
t n
Ġent ities
pro fit
n one
}} )\
le e
ol y
ah oma
Ġex it
f am
Ġtri es
d or
- $\
ta h
Ġreal ize
Ġimpro ves
)} =\
f g
Ġreg ul
ĠB h
ĠHol y
Ġcut off
ok ed
): =
n ear
Ġm outh
ĠMal ays
Ġgra de
ĠDe ath
_ .
p us
we alth
Ġhost s
Ġwe ar
}$ :
Ġad ults
ĠSim ilar
ĠB uck
t ypes
Ġre jected
J apan
Ġe V
~~ ~
hold er
Ġh ang
ĠB eng
ar ation
: </
Ġfocus ing
ĠC hen
iv a
Ġw ider
P G
gl s
pos ing
Ġel ig
ĠK am
ĠBang lades
al ph
ur is
Ġre nd
M o
abil istic
ĠOb ama
Ġsingular ities
19 21
ĠN E
Ġpers ons
Off set
ack nowled
ffic ial
Ġl it
}{ !
Ġ )\
Ġscal ed
Ġdevi ations
Ġflo at
10 6
res ource
ĠK o
ĠJew s
Ġconsist ently
Ġsch ol
Pl an
Ġround s
Ġbo at
/ .
Ġfac ing
Ġlov ed
the y
Ġguarant ees
Ġpublic ations
Ġobtain s
Ġobserv ing
n c
Ġt all
Ġregular ly
Ġpublic ly
with out
v v
ĠI C
Ġcircum stances
Ġsol it
+ {\
iv ated
Ġmin ing
ĠB S
Ġdis put
Ġsy nd
M N
ĠO ak
ĠMed al
ag on
ĠP ath
Ġproport ion
Ġr ising
Ġexclud ed
T arget
ĠS pect
bound ary
Ġacqu isition
Ġstream ing
ĠF er
c as
Ġcharacter ization
Ġ ..
ĠN N
Ġaffect s
verg ent
w en
Ġr uled
and o
Ġoptim ized
ĠW ol
}) ^{-
in th
27 0
Ġeng aged
Ġob j
onom ous
r k
Ġsle ep
Ġcontrad ict
F OR
Ġover l
ĠPat rick
ĠJun ior
Ġconvers ation
ĠK y
Ġbut ton
Ġvari ational
19 26
Ġvot ers
}$ ~
19 25
' }(
ĠB alt
ĠG ram
ut or
Ġdwar f
Ġspec ify
effect ive
ch t
ol o
Ġs urn
al ed
ĠB ry
Ġcontinuous ly
g ence
19 12
Ġas king
19 15
ĠK evin
ic ut
Ġrepe at
ĠS mall
Ġdist urb
ĠY es
Ġrenormal ization
Ġinst ruct
Ġmod ify
Ġdistingu ished
ĠT H
gl as
ĠD O
c b
Ġconsid ers
Ġperfect ly
ĠAnth ony
Ġrece ives
l attice
aw s
$ ^{\
M art
> ,
se g
Ġte en
ater al
ĠP lease
Ġc oun
oc he
ĠB arn
Ð ²
ĠF arm
Ġf at
ĠTok yo
ĠAl abama
Pro cess
ĠM rs
ĠJes us
Ġour selves
cos h
Ġphys ically
Ġinv ent
Ġbur ied
j an
l st
ownt own
pend icular
NR AS
Ġpo etry
ĠSe veral
Ġt rib
Ġapparent ly
ĠS witzerland
n as
ĠCh ild
Ch ild
, }
ĠZ e
Ġla id
st ery
ĠĠĠĠĠĠĠĠĠĠĠĠĠĠĠĠ ĠĠĠĠĠĠĠĠĠ
}; \
r arily
Z E
Ex ec
ĠS ep
ul um
q ed
rid ges
sec urity
Ġdanger ous
ĠTh ose
Ġtal ent
ĠAnd roid
U se
ĠG ard
Ġvalid ity
Ġall ocation
Des pite
med ia
Ġwas te
r ar
Ġin it
Ġabund ances
ĠMel bourne
s yn
Ġsus cept
ĠC ape
Ġke ys
ĠN ash
Ġsub graph
Ġw ra
b ool
ard ed
Ġpubl isher
] \\
Ġdest ination
T ypes
ĠL am
Ġvictim s
ĠS el
Ġsimpl est
10 7
marg in
f ire
19 23
Ġacc used
Ġpresident ial
$ }\
ter ms
ĠCh ap
ĠAl bert
= }
ÃŃ a
Ġ })
ĠG all
Ġbo ys
En c
Ġnorm ally
Ġadvert ising
R ober
U P
el and
Ġinvest ors
ĠH T
st op
Ġdispl ays
re nder
B a
ract ed
Ġport ray
ĠApp ro
DB LP
ĠĠĠĠĠĠĠ Ċ
O lymp
Ġleg islation
ĠKent ucky
ĠM iami
mod al
Ġmoder ate
Ġfe els
f un
^{ *}
ag u
Pro perties
cur ve
ĠC T
Ġintrodu ces
Ġrobust ness
ĠT reat
Ġbranch ing
| }{\
Ġj un
Ġapproxim ated
kl ahoma
inc ial
Ġgrad ients
ĠWh it
Ġchair man
Î ¿
Ġexpect ations
ĠH um
}. $$
ĠCL ASS
ĠD ur
enn y
ĠG reg
ĠM and
Ġinnov ation
Ġresol ve
Ġaver aging
Rec ord
Ġ ions
Ġcour ses
Ġphot ograph
Ġp ione
F inal
Ġphot ometric
5 12
Un it
int end
Ġenhance ment
Ġident ities
colon eqq
um ar
ĠR oll
Ġold est
Ġsett led
cor relation
Me an
Ġcateg or
Ġansw ers
ĠCan cer
ir ms
Ġreconstruct ed
Ġm ine
r brace
ar ry
ĠDo ctor
ĠGree ce
Ġde bt
ac on
Ġ! ==
Ġvisit ors
Ġwill ing
Ġsympt oms
in formation
Ġfor get
Ġgrad ed
Ġoff ices
ĠD a
Ġre act
m r
Ġinv ited
Ġequival ently
ic i
AC T
Ġcoinc ide
Ġsimpl er
H H
Ġvort ex
ta ken
AC K
Ġg host
Ġme ets
Ġast ron
Ġmat ched
Ġwalk ing
ter y
Ġag ed
Ġoper ational
Ġcomplet es
ĠL as
ĠTown ship
Ġso ph
pro file
in cess
ĠW ang
ĠEx pl
B ur
Ġex clusive
Ġaddress es
bu f
Ġnon trivial
veloc ity
M ember
19 16
Ġt on
Ġfil ed
^ *}
ĠS A
ĠN ich
M s
ĠH ad
Ġcompet e
ĠSil ver
Ġagre es
Ġevery where
Ġcaref ully
Ġb acter
Ġins ights
ah n
ĠPro te
Ġd uty
V A
Ġqual ified
ud a
Ġprov ider
ĠUn it
Ġremark able
Ġb ag
Ġprov ing
Ġadj oint
Ġregular ity
ĠB os
Ġpur su
Bi ography
Ġrot ational
Ġpro hib
ĠFig s
Ġdev oted
ing ham
Ġdecl ine
ig e
}= -
Ġenem y
M ass
Ġshe l
ĠC PU
ĠL ink
ĠInt erest
se en
iv ariate
el lect
ĠM ove
Ġdis ks
Ġp ray
Ġe gg
ĠPhys ics
Ġpro xim
arg o
F rame
ĠTe V
In itial
`` `
Ġk it
equ ate
Ġautom atic
Ġinj ured
Ġwrit es
Ġref used
Ġgr ate
Ġasymptot ically
M W
Ġdemonstr ates
Ï Ħ
orthe ast
ĠS in
ph an
Ġde com
Ġca usal
algorithm ic
Ġhon est
w he
ent er
or bit
ĠHow ard
u is
{ |\
Ġcompan ion
ro se
Ġo vers
ĠR ub
Ġpair ing
p ay
ĠIslam ic
Pl ot
hom ogeneous
k ar
Ġvis cosity
Ġconven ience
ubl in
let ter
Ġreal ization
flu x
ĠInst agram
ann y
Ġvol umes
C ache
Ġco res
ate ur
Ġchart s
Ġfrequ ent
et ition
n p
ett ings
n l
sur face
Ġprom otion
ĠA B
Ġprep are
ĠD omin
ĠH ans
{- }
ĠAf ghan
UR L
Ġcons c
Ġanom aly
Ġco aches
end a
ĠM unic
Ġemer ging
ĠP aper
ij k
ĠR at
Ġg ray
M arch
Ġre b
Can adian
N ames
ĠThe ory
ĠD esc
ĠK now
ĠD ir
Re al
Ġenc oded
Ġlaw yer
T or
Ġremov al
Ġno isy
hold ers
C K
acknowled g
is ode
ĠP ot
ill ery
ene z
Ġch ap
ĠDef ense
bl ing
Ġconvolution al
Ġa mazing
Ġepoch s
Ġstre ets
ĠE ag
ĠExp ress
ĠM ake
Ġread ily
ĠW y
h us
val uation
w al
Ġgre y
Ġsum s
comp are
Ġprim itive
Ġaccompan ied
Ġlong itudinal
Ġtrans it
Ġguid ance
ĠR on
ĠE ffect
CO L
vol ume
Ser ver
Ġfe e
Ġbrother s
Ġkn ock
\, $
Ġclos est
Ġse ctors
Ġs wit
Ġprelim inary
ot te
ĠJ ava
b os
ab ul
el astic
it is
ĠC M
van ced
Rel ated
@{ }}
Ġpl astic
class ical
ĠMat the
Ġvill ages
Ġsub str
)) =
Ġco ff
Ġcl ip
Ġvari ed
G F
\" {
D u
ĠL HC
Ġbi ological
Ġgun s
**************** ****************
cess ion
Ġexam ined
S uch
Ġattract ive
ĠG PU
R O
d ynamics
ce q
n ie
ut ies
att ices
ĠR est
Ġgu ys
Ġdise ases
ĠBase ball
Ġup coming
Ġb aby
geq slant
cons ider
Ġprior ity
}) :
\ @
Ġentertain ment
}) ^{\
Ġtransport ation
Ġro oms
tem plate
ro magnetic
lem an
Ġen abled
Ġtrans c
Ġob lig
ĠD al
Ġcrit ics
com parison
R ange
w ho
ĠRepresent atives
I EEE
ĠP ow
Ġde eper
ĠR ow
Ġp ictures
Config uration
import ant
Ġemploy ment
Ġneg lect
az a
M AT
st ation
ll i
Ġreflect s
Ġin jection
requ ire
Ġbre ath
rupt ed
ĠF L
ĉĉĉĉ ĉĉĉ
}} _\
Ġdis placement
ĠS W
v m
ĠR ab
}) }{
Ġsummar ize
Ġf lying
Ġb ug
diag onal
Ġassum es
c am
h ad
Ġst ood
ard ing
F ound
Ġun likely
ĠF ried
Ġamb igu
eren ces
Ġ\ )
F W
ob i
Ġm ales
}} ^\
ĠY outh
C am
ĠCon stitution
im eter
d c
equ ilibrium
st yles
Ġsp oke
Ġm aintenance
R ich
trans ition
Ġr ide
ĠF M
H I
s olution
Prov ider
ĠP as
ĠIn s
ograph ical
g ot
cor r
Ġv oted
der iv
Ġent itled
ĠVal ue
Ġmod elling
g ue
Ġbos ons
Ġin frared
ĠWe yl
Ġanc est
i ors
im ir
ish ment
Me V
Con clusions
A wards
over rightarrow
li est
pl ac
s end
Ġpack et
Ġinv ariants
asket ball
g as
ĠG alaxy
Ġmagn itudes
Ġparticip ation
Cont rol
et ch
{ %
Ġcurrent s
Ġqual itative
b ach
ĠLin coln
Ġbelie f
GB T
Ġpick ed
ĠFre der
Ġass ault
Ġwhe el
b g
i u
0000 0000
ĠC oulomb
ĠDef ine
R a
ĠPro duct
Ġ ell
G Hz
ig ious
P aul
iss ible
ĠAn ne
ĠS port
ĠG ordon
Ġsens ors
ĠCh apter
Ġnom inated
J anuary
Ġent rance
Ġprot est
roph y
Ġgradu ate
ĠN ik
10 9
Ġen velope
24 0
sat z
ĠF a
S an
Pos ition
++ )
phys ical
tt ing
M al
ens is
ĠC ow
od ic
ibr aries
Ġweak er
ĠL ipschitz
au er
19 13
oun ce
Ġd ict
T ax
Ġw ed
__ __
ĠSe attle
Ġl ake
Ġbrand s
Ġappro val
Ġcook ies
Ġquant ization
Ġscre ening
S ources
Ġcont our
ĠC ustom
Ġcoll aps
g ate
igh bor
com ponents
ĠM ir
Ġterm in
Ġcharacter ize
Ġm ig
Ġconsider ations
Ġalign ed
ĠS oc
Ġmeas urable
Ġs ke
= [
under brace
v dash
ol ph
k t
im it
ĠSch olar
u its
Ġsit uated
opt im
Ġfall ing
idel ity
ĠB ureau
Ġstrateg ic
Ġst ake
="../../../../ ../
ĠM ars
rel ations
ĠI r
H on
Ġexcit ing
ĠTai wan
e ast
Sp ace
in ternal
as m
Ġem issions
C NN
Ġsynt hesis
ĠB uff
ĠPro du
ĠMc K
ang led
Ġcontinu ing
ĠM I
ĠR ound
Ġ ray
Ġcont rary
cre d
ma kers
Ġbir ds
Ġve get
ann on
ĠH ug
sh aped
Ġnucle us
ĠNAS A
Ġt et
Ġtarget ed
Ġconsum ers
Ġadd itive
ict ional
. âĢĻ
n an
ĠPh ill
over ty
Ġmove ments
l ag
ĠD ick
Ġthermod ynamic
k ens
Ġb old
Ġa ck
Ġhist ogram
ĠUk rainian
Ġg ates
Ġe ccentric
Ġind irect
Ent ity
Ġpro jections
iss ipp
Ġposs ibilities
Ch ange
Ġgradu ally
Ġcommit ment
Ġmeaning ful
ĠCh ange
}\, ,
Ġcere mony
clos ure
annot ation
ĠSing h
is ta
Ġroad s
Ġmass less
ri k
pan el
ath y
ro ck
ĠPro t
Ġign ore
) )$,
Ġinterpol ation
ed ition
or ne
Ġpass age
Ġocc as
Ġgen etic
ĠDemoc rats
ĠSar ah
Ġmer ged
Ġcorrect ed
Ġsus pect
Ġglob ally
Ġdis miss
Ġelse where
ĠN ative
ation ally
ich let
V s
atter ing
T im
Olymp ic
Ġattack ed
M NRAS
Ġf o
Ġinteg rating
_{ |
ul i
ĠTe ch
M icro
New s
Ġmultiplic ity
su fficient
$ /
ĠBl ock
Ġfor cing
ĠMar ine
ĠL ib
d v
Ġinfer red
ĠLab our
ed ing
c ert
Ġrecogn ize
Ġtem ple
17 0
ĠB R
Ġp adding
yn asty
s ig
Ġperm ission
Ġcol lections
ect ure
Ġcr ash
Ġex port
Ġexperiment ally
Ġcontain er
Ġgr ass
ĠN ag
Ġmethod ology
Ġturbul ence
: "
V P
Ġt ip
Ġst range
Lay out
c z
F E
ĠW olf
^* _{
ĠC os
ĠM i
ĠL yn
Fil m
Ġl en
al gebras
Ġsus pend
raise box
Ġg amma
}} }}
Aug ust
p ole
Ġphil osophy
bur st
Ġoccup ation
scale box
Ġly rics
Ġshe et
ĠBow l
er k
Ġes cap
Ġvari eties
ĠAd vent
Ġliter ary
ĠR u
Ġplan ar
ĠW ard
Ġredshift s
Ġcalcul ating
Ġfund ed
19 11
Ġaim ed
ĠKel ly
b ing
be ing
Ġmes on
ĠInd ex
Ġ ic
Ġso ap
be an
it ian
Ġhand ling
art ifact
ors es
Ġmedal ists
Ġf asc
Ġde als
Ġobser ver
). $
Ġhead quarters
Ġmer ch
ĠCre ate
) _\
Ġm igration
Ġlabor atory
Ġsucceed ed
in line
Ġeduc ated
ĠWalk er
Ġwind s
Ġsub mitted
M SE
Ġl ying
ut ter
Ġtouch down
qu ote
ĠBanglades h
Ġb ronze
const ruction
Ġconstit ution
ĠSt ill
* {\
Ġc up
Ġt ank
! "
clus ively
Ġdefin ite
ĠL P
st ore
F ont
bu ilt
su pset
] }$
\\ [
ail and
Ġd ies
elf are
Ġqu bits
Ġadvan tages
Ġ" \
12 7
od ox
Ġelect rical
Ġmere ly
Ġr isks
Ġdes ire
Ġp in
Ġoper ates
id ge
Ġw aters
ious ly
Ġsent ences
Ġmay or
ist ence
b n
ues e
wind ow
Ġimp ose
Ga ussian
ĠAtl anta
spe ed
ĠS ect
.... ....
Ġret irement
issipp i
ĠPro p
t oken
e ctions
ĠO N
vert ed
Ġillust rates
Ġoper a
Ġsh adow
Ġkee ps
Ġspe aker
ĠNig eria
ĠN ev
ĠG arden
om eter
ĠAg ric
Ġbeaut y
L em
11 3
Ġhyp ers
Ġt ropical
Ġsustain able
ĠVill age
ne cess
Ġpoint ing
jo in
Ġpreserv es
Ġcom ic
Ġemot ional
period ic
D s
ĠBar on
re ction
gener ated
Ñ ı
cl oud
Ġs itting
D ocument
Â ©
Ġrequest ed
Ġsurpr ise
ĠAust ria
ĠTem ple
Ġcar ries
Ġex haust
Ġkey board
' +
ĠH REF
ĠK u
AT A
ĠY uk
Ġan onym
ĠN ob
Ġtrans actions
ĠPro perty
Ġqu iet
ĠD allas
Ġcompet ing
Ġcomplet eness
ay an
Ġarbit rarily
I E
ain ed
12 2
c ache
ant ics
E p
? ?
id ity
Ġatmosp heric
ew ise
Ġf ro
Gl obal
() ->
Ġs ends
des ign
return s
e igen
ib l
tra ce
Ġguarant eed
Ġin formed
J une
Ġres erve
Ġdisc ipl
ow ed
et ics
Ġarg s
O O
Ġsp ont
Ġd ots
Ġro utes
ĠTra de
Ġ\\ \
Com put
ĠWal ter
Ġqu art
V E
Ġl ob
Ġsubstant ially
00 2
Ġexcit ations
ĠL ind
G al
ĠIndepend ent
19 01
i op
U rl
Ġe ase
Ġsl ot
N one
Ġrepresent atives
d dot
hav ior
ĠCol omb
Ent ry
T ags
Ġt ied
he et
ĠLe ft
Ġstar ring
Ġfactor ization
ĠDet roit
Ġweek ly
T YPE
Ġcent uries
= $
sh ot
Ġmill ions
Ġille gal
ĠB ou
Ġregist ration
d ict
Inter face
on der
ĠPer formance
ĠMot or
ĠL anguage
IC E
ĠS ource
ir i
ĠHer itage
ĠConnect icut
integ ral
E ffect
ĠD ave
li ers
| }\
Ġg ram
ĠOr th
comp at
anc ell
Ġadm itted
new s
Ġo cean
Ġdiff ers
A re
Ġconsist ed
Ġop ens
Ġarchitect ures
Ġin ert
Ġn m
r ceil
N um
Ġste ep
bound s
l ate
comm ut
Ġformer ly
m aterial
Ġsurv ive
Ġa z
Th ree
st ers
ma c
Ġk pc
f ollowing
19 08
nov ation
Ġdevelop ers
Ph oto
hook rightarrow
S al
ĠTur kish
ĠAust in
em pl
Ġa er
)$ )
ern els
De ath
Ġign ored
im ore
H ash
deg enerate
play er
am an
s ame
Pro t
ĠO klahoma
ĠE ss
Ġque ue
ĠReturn s
elect ron
ĠF ix
ĠWork s
Ġext ensively
Ġgeom et
f m
F i
Ġsimpl ify
A I
at im
l as
Ġri val
Ġ$\ |\
Mult i
Ġst ating
Ġd rag
Euro pe
s ys
Ġst em
ira ble
pan cy
f und
Ġt idal
Ġco arse
r Ã©
Ġf ract
Ġpro ud
Ġunus ual
Ġc ot
B ibliography
ĠP ear
Ġrel ief
( _
Ġflex ible
Ġper pendicular
Ġf ake
Ġack nowledge
bar a
Ġanisot ropy
Ġnot iced
Ġestablish ment
ĠAl tern
Ġ ).
ĠEd itor
Ġconsider ably
Ġf illing
f ramework
Austral ian
Ġs ons
ĠR ot
ĠG P
Ġsk ew
ĠI ron
Ġs occer
ĠD ak
Ġsc r
Ġ }(
Ġdif fe
Ġf ought
ro le
âĢĻ ,
s pl
Ġn od
Ġb io
Ġval ley
ma j
^* ,
Ġdifficult ies
Ġmag ic
ĠFor ces
ĠSw iss
is p
N etwork
erv ed
] );
G old
d m
Contain er
.\ ]
AP I
ĠPlan ck
el o
Ġrect angle
ĠPl ayer
ĠLank a
ap olis
ex pl
ĠS ite
Ġdirect ors
ĠCh ile
Ġgra in
Ġprof it
T otal
dev ice
Ġunivers ities
y y
Ġst adium
ie val
ĠSchool s
ĠQueens land
pp ers
Ġapp endix
spect rum
Ġcons ensus
ĠO k
. ]
$ ~\
Ġeng ines
Ġdecre ased
Ġarrang ed
Ġfound ing
Ġencou rage
ĠThom pson
Ġf inger
Ġevalu ating
Ġcaref ul
pro totype
Ġoff ensive
us ive
-- \
ĠAh med
am ps
ens ing
J ac
ator ial
HT ML
D an
ĠMan ager
L U
Ġsp iral
ĠCon dition
ĠG ene
F eb
ĠB orel
ĠF ri
Ġdef ensive
Ġdem ands
Ġground s
e ah
Mod ule
Ġpat ches
Ġinst ructions
Ġsole ly
Ġp ion
ĠF ive
ra ctions
. -
D ir
Ġint ention
re view
Ð ´
Ġrad ical
symm etry
US Y
ĠA le
Ġprocess ed
level and
pred ict
l ceil
ĠC it
ĠTe levision
uer to
Ġext rapol
Ġmusic ian
ol id
ĠE s
ke V
Ġav ailability
M r
Ġpar agraph
Ġevol ved
Ġfranch ise
O B
Ġsqu ared
. (
ĠPal est
Ġtal ks
ĠD VD
ĠMor gan
Ġexception al
ĠC F
Ġmod ulation
}}{ (
ĠR ick
ĠSt ew
Ġtempor ary
assum ption
ĠEX P
ER S
Ġbur st
Ġph arma
B ound
Ġinv al
Ġref uge
Ġs av
Ġc ited
ĠS H
Ġj azz
),\ \
ĠP os
lic ations
-> ]
ĠK er
ak ov
Ġb ol
Ġreg ulations
ĠD og
ĠE rror
Ġthere in
ĠPh oto
#### ####
s ession
harm onic
ĠFin ancial
Ġh aven
Ġbe ar
}) ,\
11 4
ov ak
Ġnarr ative
ĠAl ber
Ġdiv ide
ĠM ol
ĠYear s
ĠN ature
ĠAnton io
Ġmeet ings
ia h
IV E
S n
[ ]{
P al
Ġplan es
Ġform ulated
Ġcall back
Ġwork er
Ġre write
Ġt ube
Ġbary on
ĠA BC
J ames
19 05
Ġhealth care
ic he
Ġpopular ity
Ġinteg rate
ĠAd S
t re
ĠT ab
ars ity
ĠAuthor ity
Ġdeterm inant
ĠD ifferent
Ġdesign er
no align
Ġhor ror
% $
He ight
Ġb rowser
19 0
Ġt elling
h our
Con f
ĠP ap
Ġc oding
ex pect
au ra
ĠT ax
Ġy es
Ġconserv ed
ph ot
Ġde lete
Ġpass engers
Ġis lands
ï ¼
par ing
S Y
i ology
B orn
Ġswitch ing
pot ent
ĠT ag
B re
Ġmot ions
system s
ĠT rack
Sports people
Ġf urn
h ome
A pril
ĠY et
Ġdissip ation
pl er
C ore
ĠCle arly
}, $
u psilon
ĠC C
Ġdiam ond
Ġevolution ary
D raw
ĠP ract
Ġ> =
Ġcontribut ing
ĠG on
aramet ers
v irtual
Ġc ra
Ġoscill ation
or us
id o
p ing
Ġg arden
^ ^
z an
} '$
mon th
ĠL ang
Ġaware ness
Ġmem brane
st ance
)$ ;
Ġaband oned
m icro
Ġprotocol s
Ä ĥ
imens ion
ĠR ang
\% ,
ĠNor wegian
EN D
Ġnav igation
Ġt ennis
Ġch amber
Ġfra ctions
Ġenc ounter
Form er
Ġreason ing
J uly
Ġsim ulate
Ġaccord ance
Ġs aved
Î ¹
ho en
4 50
im m
Ġsynt hes
l on
ather ine
Ġte ach
c v
Ġal cohol
ab ad
Ġwe bs
Ġle pton
( (\
@ {\
ĠP ad
11 7
Ġhom ology
Ġc reat
W in
ĠC u
Ġdec oder
Ġde put
ĠR F
Ġpass enger
}$ &
ĠF ame
h h
Ġne ck
at ial
'' $
at z
Ġart ifact
VAL UE
ilton ian
Ġneighbor ing
Ġs essions
end ment
te chn
ĠMay or
chang es
op ter
Ġu int
Ġtun ing
iz z
Ġdialog ue
dot ted
ick er
Ġenjoy ed
r h
min ute
ĠInt eg
Ġcomb inator
M us
Å «
app y
Ġun f
pro ve
Ġpro sec
ynam ical
2 13
Ġ[ [
Ġcap ability
Ġutil ize
ia o
Ġcomm ander
Ġstr at
Ġcov ariant
ï ¿
Ġeng agement
J son
Ġb undles
}) +
Ġh at
IT Y
Ġg ran
Ġin herent
ok er
Ġt ub
ĠLouis iana
Ġinv asion
Ġt issue
ĠS tage
In v
Ġvis iting
ĠCro at
ĠJ ason
Ġthough ts
Ġstrugg le
ĠS hi
ĠAll iance
ĠS I
d ark
ĠAssum ption
nu cle
Ġelli pt
Ġth orough
ĠE mb
ĠH R
Ġcut ting
ĠLeg end
represent ation
ĠM ess
Ġa xi
Ġinv oke
Ġsupp ress
ĠP red
ĠK az
Ġtw isted
Ġdoll ars
Ġs ake
12 6
AS E
k ip
g ap
Ġan th
over ning
ik es
Y es
Ġto kens
osp here
ĠF le
Ġpull ed
Ġrep air
A lex
ĠC av
Ġprovid ers
mu nd
ĠC MB
Ġdevelop ments
Ġowners hip
ĠO d
Exp ression
ĠT ar
H ig
Ġo ct
Ġmotiv ation
Ġc ogn
ĠU ser
Ġdro ps
L ear
Ġf ired
f x
Ġdis ag
Ġhigh way
Ġ( +
ĠD ub
Ġad mit
j ar
miss ions
Ġw ine
Go ogle
Ġdrum s
Se ptember
L ike
ĠP rad
Ġbehavi ors
Ġreserv ed
Ġthous and
ĠM anu
ĠN i
tx t
Ġmaintain ing
Ġro se
ĠIndones ia
Ġprote ins
Ġinteg rable
Ġwel come
tern oon
Ġb at
Ġinj uries
Ġneg lected
ett i
ellect ual
Ġm apped
ag ger
oc ese
weight ed
ĠAl an
al ia
s burgh
erv ing
dec ay
19 07
Ġinstrum ental
ge on
ĠCau chy
ĠL anc
Ġtra il
Ġrel ating
S G
Ġanomal ous
* }\
Ã ¥
ĠP ra
ent ropy
Ġm ild
ĠStud ios
iv ities
Ġmod ifications
Ġgen es
Ġwe aring
Pop ulated
G ood
Ġimag ine
ĠIsra eli
Ġor ange
ĠPol y
2 10
; ->
R F
b order
Ġs alt
Ġte ch
Ġsp r
Ġro yal
Ġoccur ring
Ġmet ers
f erm
s r
Ġlay out
ĠN BA
}} -\
Ġpair wise
ĠCl oud
Ġprodu cers
I ter
h ash
ĠT el
Ġt orsion
ĠU pdate
M ag
$ ^\
ĠV ersion
ĠG raph
ĠSD SS
Ġjud g
^+ _
S a
Ġsing ing
U LT
scal ar
Ġremark s
Ġrecord ings
Ġpubl ishing
)} }\
ĠAl bum
ĠArgent ina
Ġcontract s
artifact Id
Ġdimension less
Ġwire less
Ġclos ing
L and
act ing
Ġcele b
she et
H ol
Ġfil ename
not ation
ĠH ills
rec ord
)) ^
ĠBul gar
the ir
Ġad i
d ays
). \
ĠD J
mid t
Ġindic ator
ve ction
{ }\
Ġover head
)) )
App lication
Ġant ib
ĠAd v
Ġin version
arc sec
rosc opy
Ġcont ents
ĠF ind
Ġhe ur
ĠL A
ĠAd ams
Ġadm issible
ĠE arl
L u
Ġar row
Ġin coming
ĠHar vard
ĠM ission
ĠLim ited
Ġco herence
Ġreserv oir
Ġleg s
ĠAl b
in burgh
Ġagric ultural
m ates
plement ation
cal ing
}\, .
ĠF inn
ĠSoft ware
K n
Ġcompet itions
Ġutil ized
Ġinvert ible
âĢĻ .
ĠC ore
Ġinnov ative
form ations
Ġann iversary
Cor ollary
the ore
Ġent reprene
Ġt elescope
ï¿ ½
ill o
Ġed ited
Ġs weet
flu id
Ġincorpor ate
Int eger
Ġgu ilt
Ġindu ce
Ġk ernels
Ġelim inate
Ġres idence
Ph one
Ġinst ruction
ĠB ush
plac ian
ĠM os
ĠB art
f its
Ġsat ur
at om
pro j
bran es
H as
Q CD
sup ers
Ġpol es
V ector
Ġg ro
Ġneur ons
OR D
Ġpropag ator
Ġf abric
Ġfacilit ate
ĠB ull
hand ed
Ġtim ing
Ġreg imes
. ][]{
ob tained
19 06
ex cept
Ġemploy ee
ĠRef s
l vert
Ġbelie ves
ĠRes ources
ĠBelg ium
Ġpri ze
Ġh ired
F IG
St and
ĠL iver
_{\ {
f itting
ĠT i
Ġdesc end
Ġdeg rad
)- (
Ġin jective
Ġreview ed
Ġaggreg ate
Ġgain s
ĠW i
work s
aud i
Ġemphas ize
G ame
S B
impl ies
fl ix
Ġr anks
Def ine
abl ing
ĠB esides
14 4
ĠMiss issippi
Ġorgan isation
ra ctor
Ġcar rier
Sh ow
ĠIndust ry
or o
Ġsupp ression
ct x
ĠB G
Ġapp s
Ġas ks
ĠTra vel
sum er
Rober t
lim ited
Ġpreserv ing
ĠF al
amb ig
Ġrele ases
D onald
Ġchild hood
Ġtw elve
F ran
Ġst yles
ĠB etween
ĠDen mark
ĠB it
ev olution
ĠN eg
Ġminim izing
ĠP ope
B en
\ `
inn ed
f p
Î ½
Ind ian
Em pty
ool s
Ġf olk
)\ ;
ic ious
Ġg aps
tag on
Ġrel ate
L ook
Ġsear ches
Disc ussion
Ġfle et
Ġre ject
Head er
ĠNC AA
Ġgovern ments
ĠDou glas
ĠPart ners
Ð ¼
Ġpl ug
Ġelim inated
Ġs i
ĠR ace
ĠL ower
ang o
ph ony
Ġtransl ate
Ġexplo it
ĠO tt
f ollow
Ġ& -
Ġmy th
ĠRiemann ian
Oct ober
ĠJ e
ĠTh ailand
k w
Ġinter vention
ma ker
em ail
Ġimp ressive
Ġinhab it
Ġe at
Th read
ĠS FR
Ġbal anced
Ġcoupl es
F ore
ey er
Ġconnect ivity
ĠS ud
Ġsuper vised
im ates
Equ ation
ĠV egas
add ress
Ġelectric ity
19 09
ĠU tah
r ise
ĠS yn
Run time
Ġman ual
Ge ography
B er
ĠB us
12 1
Ġpart ly
Ġgen u
hy dro
ol as
ĠPe ace
w ig
ĠS ac
Ġs ed
u int
Ġl ad
ĠH ockey
ĠAn na
util s
Ġphot ometry
ĠD ublin
Ġcomplex es
C lick
Ġcry pt
Ġmon op
ĠDe an
18 90
Ġhierarch ical
U RE
cos ystem
Ġg ang
b ia
Ġ[ -
ĠE M
E ducation
Ġw arning
Ġin aug
sp ring
Ġsurround ed
Ġsc attered
ĠOrgan ization
ik ip
app endix
Ġtext s
S en
Ġd elta
ĠCommon wealth
f ather
Mich ael
ĠF isher
}= -\
Ġaccept ance
Ġcompl aint
Ġdeploy ed
f ac
ĠUn fortunately
Ġarrang ement
Ġdivis or
y ll
Ġar rows
Re ference
re r
ĠRes erve
G T
pat tern
Ġfra ud
pt ure
uls ion
ĠWith in
establ ished
sc ore
Ġun expected
Ġsk ill
Ġex clusively
ambig uation
Ġadvent ure
Ġsupp lement
Ġh ook
F amily
Ġnot ably
f ish
ĠN P
Ġbu ck
Ġret ro
ĠBru ce
ĠMult i
Ġf aint
Ġknow ing
ĠMat hemat
r if
Ġ rib
qu et
Ġarm ed
ch ment
, $$
b is
se lected
Ġconduct ivity
group Id
Ġnot ations
ĠMc G
W ell
ĠF ern
Ġjun ior
Ġen forcement
Ġconstruct ing
Ġathlet es
Ġpredict s
ĠPet ers
12 4
H F
ĠSquad ron
Ġgu idelines
Ġland s
Ġiniti ative
A K
M ajor
Ob serv
Ġsto pping
| $.
ort on
ens en
Ġsing ers
Ġconsequ ently
Ġabs ent
ĠT ree
vers al
T ransport
W ho
C at
p b
Ġbe ach
l um
the o
Ã¼ r
aver age
Ġwh ilst
.\ ,\
equ als
S ever
Ġill um
|\ ,
F ind
Ġpreced ing
Con nection
Ġemer ged
., ][]{
Ġorgan ic
reed y
Ġconcent rated
g auge
o ys
ĠMic hel
Ġb ipart
Ġestabl ishing
ms g
ĠLaw rence
Ġres idential
Ġd ating
ĠI ce
De cember
ros so
Ġcyl ind
D iv
Ġd ial
est amp
Ġear liest
t ml
bre aking
Ġmet res
Ġr um
Ġmar ine
Ġoptim ize
Ġover ride
}: \
Wind ow
Ġch urches
ĠOther wise
Ġp sy
Ġestim ating
N a
Ġbin aries
Ġin correct
Ġcomp ilation
Ġf rust
Ġprom ise
d n
=" -
Ġn ations
Ġsp ots
Ġle pt
ĠArm en
ust ain
Ġhigh lights
c opy
Ġpart itions
che m
Ġl ots
Ġf irms
Ġel abor
e very
Ġas c
H a
ab e
ĠVol ume
Ġfin ance
}{ -
2 30
Ġhistor ian
V ill
19 04
ĠW as
Ġtriang les
_+ $
ĠDel hi
ĠUn like
F s
it ure
Ġn ick
Ġprofession als
Ġsuff er
ĠAb d
Ġion ization
condition s
L D
qu al
Ġcomp ound
ab a
R oy
ad joint
17 5
Ġcommission ed
Ġmole cule
Ġ( ,
ĠC ant
grad ed
l g
qu ir
ĠF OR
ĠD ie
H ost
Ġcyl inder
win ning
Ġfin ishing
Ġcoff ee
Ġgu ests
Util s
pl ates
rel ativistic
Ġlens ing
Ġpod cast
â Ĥ¬
Ġneighbour hood
ĠHon or
C G
W ang
ĠN ation
ĠBrazil ian
D ay
ĠR ank
b us
itt en
Ġstre ams
u ct
Ġturbul ent
m ill
m ot
p read
ogg le
Ġoutper forms
doc s
Ġmorphism s
Ã ´
Ġent ers
Ġcooper ation
ĠEm peror
Ġpain ter
in ian
cal ar
Ġlong est
Ġstructure d
Oper ation
Ġgeneral ize
ĠSam uel
ĠPri or
D er
ĠT rib
ic ing
fefe fe
C oll
r vert
P lease
Ġdist ant
av ia
^* $.
Ġb ubble
ĠC hern
ĠT ogether
Ġhead er
Ġint ense
M iss
ĠMor ris
ĠH ave
ĠChrist opher
Ġpaint ings
Ġrec ru
Ġout standing
math rel
Ġwal ks
form ula
ĠK ra
Ġamong st
ĠP ref
are a
nt il
Ġcompar isons
De cl
ps hire
Ġmanag ing
Ġpl enty
ĠN ic
Ġ( @
as hes
Ġa ired
Ġuncer tain
. :
ĠN eb
Ù Ħ
ass ociated
ĠTh anks
Ġsn aps
ĠKn ight
ut o
Ġgen re
Ġdiscre pancy
N ovember
ogene ity
Ġlocal ity
in ance
gra duate
ĠAss oci
utr ition
Ġ( .
Ġtransform s
] _{\
ĠW right
ĠĠĠĠĠĠĠĠĠĠĠĠĠĠĠĠ ĠĠĠĠĠĠĠĠĠĠ
ĠLem mon
Ġcomp rom
Ġinvestig ations
Ġbeh alf
ikip edia
Ġuniqu eness
Ġcross ed
ĠArt icle
}} %
ust ers
ĠK it
Ġtr im
s witch
)\ |_{
X Y
Ġhol iday
coupl ing
ithm etic
Ġal ive
5 000
ĠH ell
Ġport folio
ok a
ĠR y
Ġsearch ing
ĠCov id
' >
ar ound
Ġtra p
Ġmen u
Ġsecret ary
iss ance
Ġelig ible
ĠP un
ater ials
i est
ur ious
ĠG Hz
ĠM eg
m ate
ĠPhil ip
E G
Ġre putation
ĠC ass
Ġcont ributes
Ġcour ts
ĠHT ML
Ġstru ck
ant ed
ĠPortug al
Ġ( ;
ren a
f c
Ġill ness
Ġprob abilistic
Ġto x
ĠMean while
Paramet ers
Ġsub groups
ĠPat ri
ab c
end or
ĠPubl ishing
ĠI o
Ġd ose
bas ic
Ġpolar ized
Sing le
V S
Te levision
b ridge
ĠJ u
ĠStud ents
]{ $
ĠSpace watch
Ġ rays
Ġfriend ly
ĠElect ric
L ag
Ġbl ind
ĠP rice
ĠB ud
ĠU E
ĠK ings
Ġrecommend ations
ĠStud ent
ethe less
Ġ$ ^
hol m
prim ary
ur u
. }}
Ĩ Ĵ
Ġb rane
eth yl
App endix
Ġtrac es
ĠP rivacy
n umer
pro to
og a
Ġbas ically
Ġspect roscopic
ĠG il
itar ian
Ã ł
Ġ icon
Ġimpact s
h ai
Ġweap on
as a
Ġpref ix
sp i
sche me
Ġdog s
Ġre tained
' }{
ĠB ed
Ġver ification
s creen
Ġb eta
Ġiter ative
Ġbound ing
Ġsequ el
w d
Ġfem in
ĠH ope
writ ing
ou ver
ke ys
b ind
approxim ation
Ġ Ä
Ġlog ical
Ġt iny
d ale
fore mentioned
ĠH old
ĠS eg
ĠT ask
Ġconstra in
b ol
á »
ĠP i
Ġtransp arent
ĠD ance
ne ut
Ġatt orney
mark et
F lo
Ġmetall ic
Ġmid field
ĠP ic
Ġimpl ied
ĠR an
ER E
ĠChair man
Re view
Ġcont raction
s om
ĠRuss ell
ĠO ri
00 3
R ail
t rain
Ġwith draw
S am
ĠWe bsite
sq cup
Ġpredict ive
g un
ov es
re port
cl ick
Ġint ra
Ġhighlight ed
Ġn ur
Ġcelebr ated
ĠV ik
Ġannih ilation
ĠBill board
Ġreson ances
ĠK arl
gg ed
Ġcheck s
Ġt ie
C ross
Ġpur s
ĠS elf
ĠM other
E t
Ġfermion ic
N ov
h over
Ġconc aten
hoen ix
p n
ĠFig ures
Ġcont ours
}: =\
P erson
c ustom
cre asing
em ed
ole cular
ĠP uerto
m iddle
ĠT ig
Ġl ib
! }
Ġmob ility
Ġreson ant
and al
Ġres um
} --\
ĠT un
ĠGirl s
app lication
ĠSh ah
Ġpar abolic
L y
Ġwavelength s
ĠL iving
ĠM R
Sc ott
ĠAd vis
Ġp ushed
cc a
produ ction
ĠAcc ount
. ),
Ġspat ially
yn man
in ality
Ġpar se
rack ets
en v
exist ence
S yn
or ce
Ġfarm ers
Ġrestaur ants
ĠEd inburgh
Ġsl ice
ĠMem bers
Ġoccur rence
( :
ĠĠĠĠĠĠĠĠĠĠĠĠĠĠĠĠ ĠĠĠĠĠĠĠĠĠĠĠĠ
IM E
iv an
Ġland ing
f b
V C
Ġ( '
") );
= &
bas is
sing ular
part y
Ġvic inity
ĠT E
Ġvis its
J ack
ond o
, +
Ġas semb
Ġthem es
Ġstreng ths
inc ar
T L
}) }{\
ada pt
ic z
tz mann
ĠC N
f d
Ġevol ve
Ġal ert
Ġachie ving
h ill
à¤ ¾
igh ters
ĠN elson
Sh ort
Ġsign ing
Ġhead ed
Ġcritic ism
grad ient
ĠTer rit
Ġball s
Ġdram atic
ov ich
ĠSt ars
Ġpark ing
ne e
Ġmem or
N ormal
r ity
Ġre ign
B G
R ule
ĠPal ace
rg b
Ġfilter ing
ĠO pp
z ed
u ary
j amin
Ġo d
Ġb ird
Com mon
ĠHistor ical
ĠQue bec
Ġwebs ites
Ġhe li
ĠMalays ia
c op
ĠOper a
F lor
ins ert
R est
le ans
S un
non ym
n amed
ĠCon stant
. \,
ĠĠĠĠĠĠĠĠĠĠĠĠĠĠĠĠĠĠĠĠĠĠĠĠĠĠĠĠĠĠĠĠ ĠĠĠĠĠĠĠ
ĠPh D
ĠRob inson
Ġexp ans
uk i
at ta
ĠSaf ety
Ġins pe
ĠDan ish
C r
ber ry
Ġs ad
Ġm a
Ġjoint ly
T erm
oc hem
ĠNav al
F ootball
Ġt el
ĠW a
ĠCommunic ations
L arge
Ġselect ing
ĠP sych
SS M
Ġnucle on
b ir
Ġc asc
^* $,
Ġrece ption
ĠP O
Ġif f
ĠIma ges
;\;\ ;\;\
ul u
ps frag
ĠMethod s
g ression
build ing
ens on
end ers
ine q
Ġmodul o
ma ps
, ...
ah ler
Ġout break
}$ \\
ple ments
Ġrest ored
Ġdiagn osis
rel ative
sch ild
ĠTe le
Ġgrate ful
b oy
ĠChall enge
Ġa pert
Ġa forementioned
hand le
ro v
Ġto ugh
Ġher itage
ign ment
Ġh ate
ap or
Ġgra ins
Ġsuper nov
Al gorithm
S ep
isen berg
Ġanim ated
F G
M atch
ĠG ray
ĠO S
Ġcons ent
Ġw et
ĠFin ance
M er
Ġp overty
ĠBo ys
ĠCon tact
Ġc rack
ĠMar ie
H ttp
Ġcam eras
Ġgener ations
14 5
T itle
ro oms
ĠH ubble
Ġl i
Ġdefect s
ir ates
) )}
Ġfluct uation
Ġcheck ing
Ġsurn ame
as ympt
m ade
Ġpref erence
section s
Ġschol ars
ut able
ĠF un
ass ador
^ -\
Ġinfin itely
Ġdisapp oint
Ġdist inction
Ġtri angular
Ġreg ulation
Ġrecommend ation
T om
15 5
for ced
et ers
Ġeng age
on na
I X
$ _\
s ong
ĠC leveland
Pro b
Y our
Ġbre ast
Ġprior i
Ġsub stitute
Ġfe es
ĠÂ ©
c ir
P y
d ig
ĠEnvironment al
Ġun changed
Ġparam s
Wh ite
ol ished
Ġcomp ounds
ro c
ig roup
Ġanaly tically
perturb ative
ĠBatt alion
Ġg ay
ĠL ane
ĠJ uan
Ġtrans mitted
Ġob sc
int erest
e u
online cite
Ġim per
ĠRel ations
ĠStud io
g ly
ĠD rive
un ique
ther mal
Ġmagnet ization
m art
P ref
Ġhapp ening
L oc
ra h
un ning
ĠP rix
Ġdr ink
Pol icy
ĠBrook lyn
Ġsuff ering
T X
Ġdest ruction
AT H
styles heet
W W
R oman
o i
w hat
z one
con e
{- .
Ġbond s
inter face
E u
ĠDep uty
J an
A ud
19 02
ĠFin land
Ġf est
yn olds
Ġanisot ropic
a uth
ta king
ĠL ock
Ġc rown
Ġj uris
Ġeth nic
ĠM es
D iff
o il
Ġst ops
Ġunder go
Ġtravel ing
Ġep id
B al
ĠR L
Ġon set
19 2
ĠT aking
Ġsus p
ĠP L
Ġc us
ĠJ enn
19 03
Ġback ing
Ġaccept able
Ġjournal ists
de lete
im uth
Ġpl ain
Sim ilar
o ft
O H
triang leq
ĠArk ansas
b ootstrap
f ar
Ġw ides
Ġop acity
ick ing
P RE
b en
Ġaf ternoon
ĠN L
Ġpe er
ĠS olar
Ġoscill ator
Ġ$ %
Ġhard er
S om
Ġdamp ing
Ġhad ronic
ĠM ind
oth s
ĠOr chestra
O ption
Ġattract ed
b uffer
Hand le
Ġencourag ed
ĠU pon
st ration
Ġex terior
M atrix
az ines
l c
ĠCamp bell
Ġ( ),
CT ION
Ġconf usion
. }.
observ ed
Ġfib ers
W ar
Ġrare ly
anc el
Ġrac ial
Ġrout ine
Ġdeep ly
ĠD id
Ġleg it
Ġgra phe
ĠDir ichlet
Ġp or
Ġcomplement ary
z h
ĠP od
Ġan satz
ĠLe vel
ĠOver all
ĠMax well
Ġback ward
ĠW ord
Ġsh ots
Ġtack le
om inant
}} |
Ġdelay ed
ĠU pper
m illion
w alk
Ġconj unction
Ġinvolve ment
Ġ" "
Ġassert ion
cer taint
ĠA qu
Ġperson ality
^+ (
ĠPh ase
Ġprom ot
Ġval ued
W al
Ġfl ash
]{ @{}
t p
Ġg alactic
prop ag
ĠR ain
ee per
Ġforest s
Ġsupp lies
Ġ= &
Ġmaxim ize
S eg
ym p
iv als
}^ -
=" _
Ġt act
to ol
Param s
Ġt ur
claim ed
am er
ha o
um s
Ġv ital
ac les
f ers
Ġinter fer
)} ]
ĠOr leans
Ġblock chain
ĠLiber al
van ishing
AR S
st ory
z hang
dimens ion
}\ |\
Ġr hythm
Ġsc an
ĠK an
Ġkinem atic
W il
ĠB ond
de bug
Ġjud ges
Ġsumm ation
awa ii
Cl ub
Ac adem
ĠLabor atory
Ġo k
ĠCent ury
Ġillust ration
Ġabsor bed
Ġ: :
Col lection
Ġm ile
w hel
Ġout lined
T ER
Ġmonth ly
ĠPortug uese
ffic iency
22 5
Ġcor ollary
Ġindust ries
Ġexpon ents
Ġpropos als
Ġaddition ally
Ad S
ac cept
enez uel
ĠH it
Med ia
Val ues
other wise
Ġserious ly
Ġbackground s
ĠRepublic ans
check mark
Ġrel ay
18 80
Ġp ric
ĠInf antry
as ant
em bed
Ġfant asy
est imate
Ġsure ly
Ġdam aged
M AP
Ġcy ber
Ġh ill
Ġspirit ual
Ġcompl iance
Men u
lap se
Ġcoron avirus
Ġc f
ĠCar ter
Ġan chor
Ġobject ives
Ġr ub
Ġt ill
ush ing
Ġb racket
ess els
)}\ \
Ġas set
In s
Ġput s
ĠC ricket
ĠL GBT
Ġev il
ĠW oman
ĠB aker
t own
Ġpo em
Ġhad ron
ĠCont in
Ġinterview s
ĠK ur
ut er
Ġcounterpart s
Ġas ymmetric
uc lear
ĠCl aim
anc ouver
Ġadi abatic
ij ing
Ġredu nd
Ġdifferent iable
Ġin fe
() :
Ġinflu ences
li ver
ri el
Ġto m
Ġfor b
Im pl
ĠM obile
Ġpay ing
Ġhypot heses
Ġtroub le
P a
ĠAfghan istan
Ġc able
CO DE
itz er
Ġle tting
Ġf ishing
k u
fe ature
Ġcapt ures
\% .
P arent
,\,\ ,\,\
ĠRog er
an chor
Ġcancell ation
^* )
A O
S ession
N orm
ĠSt ore
Ġquant ify
Ġparticip ating
ĠPrad esh
Ġle ver
}\ {
al go
15 00
ĠC ox
ĠU lt
Ġbroad er
Ġsoph istic
Ġax es
as g
Ġstat istically
Ġmodul us
Ġlist ening
Ġlearn s
Ġmicrosc opic
eng ine
ourn ament
ret ch
ĠStew art
Ġexpl oring
Ġr uling
in ces
ĠPol itical
Ġdifferent ly
em e
ĠMatthe w
}{ .
Ġexplos ion
ĠM atch
Ġse venth
Rem ark
Ġadjust ed
rot ate
An n
Ġs hed
ential s
' _{\
th a
ob a
Ä «
G W
R P
' ))
config uration
Ġm im
ĠCl inton
Phys Rev
ed a
Ġflow ers
S il
Tem plate
00 4
Ġdec oding
Ġhe x
Ġcross es
ĠG ran
with in
em en
Ġstri king
Ġexpert ise
vari able
er red
ĠMov ie
Ġcol ored
TT P
ĠCh amber
m g
Com ment
dis ambiguation
ĠSch r
ĠBalt imore
="../../../../ ../../
Ġdo i
Ġchem istry
Ġanalyz ing
$ ]
var sigma
comm unic
ĠMar shall
7 50
Ġden ied
I J
Ġgr ants
Ġsign atures
Ġw ake
St ore
do es
}\ |_{
ĠMar vel
sh a
Ġpres um
Ġcolle agues
Ġens uring
v ity
ryst al
ĠAtt orney
m kern
bor ough
ĠDo es
Ġcelebr ate
ific ant
Ġanalog ue
Ġprint ed
ĠNe umann
Ġbos onic
ĠM om
Ġaccount ing
t ry
IN D
) }^{
ĠMach ine
own er
Ġca ps
Ġinsp iration
L at
Ġtrans ient
M ilitary
ĠGra ham
Ġvol at
ĠAut o
ĠAss ert
Ġvalid ate
ĠProte ction
ĠF O
Ġz eros
âĢ ĭ
Ġfix ing
Ġph osph
Ġsho pping
ole v
ĠM aj
Ġpro xy
orient ed
Ġdegener acy
Ġconclud es
ĠP il
ĠAn aly
ĠEconom ics
iss ues
Ġem itted
ĠChar lie
] ,\
Ġp c
Ġdepend encies
Ġrepeated ly
Ġx ml
Ġspeak ers
var iance
depend ency
F alse
ĠF ather
list ed
ĠPitt sburgh
corpor ated
3 20
Ġdist ortion
Ġe cosystem
Ġout line
Ġcast le
or se
ĠF ant
Ġcr imes
Ġnegot i
in aries
Ġrem n
Ġhal os
Or gan
ang el
}} }(
ĠJon athan
Ġanim ation
ĠC her
Ġme at
Ġtick et
Ġu ps
pl ots
Ġany where
ĠÂ ·
Ġrun time
equival ent
| ,
In f
Ġcon sole
row e
Ġwonder ful
Ġcumul ative
Ġax ial
Ġm ilit
ĠD ocument
Ġgraphe ne
' ^
S tack
ĠĠĠĠĠĠĠĠĠĠĠĠĠĠĠĠ ĠĠĠĠĠĠĠĠĠĠĠĠĠ
u ons
e or
Ġv essel
=\ ,
Ġsat uration
Spec ial
S ta
ĠP D
K M
ĠSt re
clud e
Ġvulner able
Ġtra ct
Id ent
Ġra ising
Ġwides pread
ĠComput er
Ġsuspend ed
ã Ģ
ĠE mm
le ased
ĠG round
ĠBan ach
k ernel
Ġs addle
S ettings
{ #
Ġapprop ri
t ures
m ont
ph on
ĠC emetery
t bl
em ale
Ġent hus
Ġc ul
ord inary
ph abet
ĠF r
ĠAnd y
ON E
Ġb ot
v ideo
Sever al
Ġtheorem s
ĠLe aders
ĠK r
ĠS ED
Ġsupp orters
ĠT ak
Ġs s
ĠE le
book s
ter min
Ġ* )
A ir
}}{ {\
l p
Ph il
Ġleg acy
Ġ{ (
el ic
u pload
}} ;
â ĪĴ
Ġel der
om on
Ġtra pped
exp ansion
anc ies
omorphism s
resol ved
Ev ents
T ake
t ies
om es
H u
ĠN ear
le ep
ivers al
av ailable
k pc
Ġinstall ation
est one
\ ;\
ĠG ary
sp ired
Ġg overning
ĠN ar
ĠBe at
we ek
Ġreported ly
3 000
Ġconcent rations
Ser ial
ĠEx change
Ġdepart ure
ĠLiver pool
al ong
ĠM E
ĠS ay
om ing
Ġpar a
augh ters
en berg
Ġb ull
ĠS ob
Ġat tain
riv ially
ĠAnn ual
Ġspec ification
Ġl ux
S chool
PR O
Ġpurs ue
ĠU RL
w rap
ra pper
Ġhypers ur
Ġcon fined
tabular newline
ĠG ill
aramet er
\ ).
ming ham
Ġrelev ance
Ġamb ient
con vergence
t u
ĠR io
ext ension
Ġdirect ory
Ġh az
Ġt aste
)$ :
qu er
orig inal
ĠKenn edy
Ġrel iability
ĠF act
Ġsing let
s ized
ct rine
verb atim
Ġin clusive
Ġexec ute
Ġminim ization
Ġmer ge
ĠC ert
Se lected
asc ular
sc ar
Ġgovern ed
Ġt one
ĠR ud
Ġappoint ment
Ġ\ ,\,
ta kes
Ġsurv ived
================ ================
pm od
fin als
oc ate
H o
Not able
Ġconstant ly
ĠAss istant
ache l
Ã «
Ġsp acing
H istor
Ġpuls es
w ere
Ġl os
ĠAr n
res on
T aking
} ''
Ġdi ver
Ġview ers
F low
Ġcl imb
Ġburn ing
r v
Ġdocument ation
Ġdisc ount
à ¦
Ġs ick
12 9
Ġres ign
dis k
SE TT
ĠB et
Char acter
13 6
R et
Ġl attices
] +
d k
)} +
Ġl iv
w art
Ġdepend ency
Ġsuperconduct ing
Â ®
ac o
) ]{
Ġun clear
ĠH end
13 2
Ġacqu ire
Ġingred ients
E lect
ym n
ĠH ero
are r
Pro fess
ĠTra il
Ġpre val
Ġsp anning
{ -\
dis abled
web kit
rib le
ric ane
ĠDak ota
H en
ĠMur ray
n est
rane an
ount ered
opl es
ed it
Ġb oot
M ath
Ġal leg
Ġ' '
N Y
ĠHun ter
ele ments
ĠR and
Ġdeploy ment
ar us
ĠT otal
Ag ain
16 5
D oc
ĠPort land
Ġhe m
ĠJud ge
ĠC I
Ġg athered
bal ance
ur c
Ġart istic
Ġthe sis
ĠK on
Ġstay ed
Te V
ĠSt ra
ev ents
Ġhy perp
et on
sett ings
Ġdescript ions
ĠT ob
Ġres ident
Ġd owntown
ord ination
s it
Ġf oss
Ġrom antic
Ġinval id
ĠMet ro
Ġmus cle
Ġph rase
ĠN ord
ck s
ĠA y
ĠZ hang
ĠH E
un ov
Ġsports people
h ref
v p
Ġre vol
cm id
Ġcap ac
sh own
Ñ ĭ
O U
re place
18 98
L aw
ch ildren
Ġsub script
re ma
id ad
Ġmor al
if i
ĠEx ception
Ġmac ro
le w
Ġdo ors
Ġsub div
at omic
scal ing
Ġnorm s
rosso ver
Ġcampaign s
ĠCon vention
ĠEv ans
R G
Ġestim ators
13 4
il ateral
Ġlight s
Ġpay ments
sa fe
Ġl ung
Ġquad ru
ĠMont real
Ġautom ated
ine a
ie ve
comp ass
Ġstreng then
g it
big cap
ĠY u
c od
Ġse eds
ĠL arge
Ġsepar able
Ġtext ure
ĠA F
ĠIm perial
ĠM W
ace ae
Ġund efined
ern ame
ber ger
ĠSp irit
ĠG ulf
e lection
ĠMit chell
Ġpoly mer
Ġminor ity
ĠOper ation
Î µ
iss a
. ).
Ġthe ater
Ġar ithmetic
ĠCh ron
Ġin line
ĠK il
Ġrem ind
Ġtw in
t f
Ġsu pre
Ġresc ue
Ġpred ominant
Ġanalog y
ĠB log
P Y
Call back
ith uan
IG N
ĠB og
ĠInt elligence
Ġrefer ring
ĠB E
ink owski
Ġdiscrim ination
Ġp our
part icular
Ġsur jective
m ir
ou ter
th us
cmid rule
ĠR GB
ĠMa ine
}$ };
ĠMarg aret
ĠCl imate
\ >
Ġ( [
B ir
ĠSt ev
Ġfre ely
Ġharm on
Ġd uties
Ġb one
Ġinhabit ants
ĠE V
Ġspect roscopy
bi ased
Int eg
Ġiniti ated
P ower
L ee
Ġland mark
SETT ING
ĠN A
Ġd eta
ĠEXP ECT
App ro
O ld
Ġcl im
Ġide als
h uman
Ġconnect s
Ġprov ision
ĠBe ck
set up
Ġdriv es
j j
inter action
Arg ument
c ient
Ġnon negative
b rand
Ġser vers
Ġv oc
á ĥ
ĠWork ing
\ ),
ĠB ag
cre ation
Ġparamet ric
z ier
ĠSm art
Ġ Ø
Ge orge
Ġcomm ands
Ġsol ver
Ġcon g
Ġarch ae
ud son
W I
Ġsket ch
sp here
Ġl ag
ĠB orn
Hel per
ric ks
ĠG M
se mi
t ar
ĠR ap
pl ug
ĠPl us
Th omas
ĠC rown
a pt
Fe ature
=\ !
pie ce
ĠN ep
Ġm i
Ġkil omet
R ussian
ĠL en
an im
ĠBrig ade
Q U
Over view
ĠSen ator
h m
Feb ruary
ĠAng el
ll ll
Ġast rophys
E nergy
re ach
Ġsubstr ate
ĠFac ulty
p rom
Ġflex ibility
clud ing
Ġbe ams
prob ability
}} /
Ġviol ent
ĠGa uss
A rm
Ġdom inate
COL OR
v ac
Acknowledg ements
ERR OR
Ġhospit als
Ġsem antics
ick en
T s
al most
ign er
Ġport rait
Ġsupers ymmetry
ĠN am
As ync
ĠTam il
h op
Ġimplement ing
' })
ĠM N
ĠD ise
,\ ;
ĠLe ban
ÃŃ n
cal ling
Ġdom inates
ĠScient ific
hel p
L AS
ĠT u
ĠS now
Ġannounce ment
pro gram
C hen
Ġcell ular
Ġactiv ist
Ġapart ment
)^{ -\
ĠB ible
Ġspeed s
Ġb ij
ig s
ĠN ad
Ġsp oken
Ġres ort
ĠG as
ĠCr ime
Ġlab elled
og raphics
i w
Ġaltern ate
ĠRo om
ĠKen ya
( .
L ight
ĠO range
Ġdeput y
Ġwed ding
Ġtimes cale
pr ison
Ġt ort
ĠN at
Ġf ed
Ġan nu
Ġpresc ription
C ustom
| <
18 99
ĠHung ary
}^{ [
er ver
Ġrespon ded
Ġprot otype
l ia
Ġsudden ly
ist ance
* )
V V
ĠAd vanced
" ))
es ome
ĠO bl
Ġv in
F our
ĠP ast
Ġcompens ation
ĠS ex
ĠB lood
Ġmiss ions
Bl ue
R N
ĠWel sh
M ot
or ry
all ing
Ġoption al
al p
ĠM ack
In valid
ĠNe ed
I ll
pd ated
ĠL LC
d in
pon ential
ĠBo olean
ĠMar c
Ġp ars
1 19
ĠBrown ian
Ġequ iv
necess ary
w ould
iv o
Ġincre ment
w ait
ĠB illy
Ġdiff use
che t
Ġtum or
ĠMa ur
Ġactress es
ract ing
Ġpoor ly
Ġpra ised
ĠB ranch
erv es
Ġexam ination
Ġequ ity
Ġ$( {\
Ġby tes
Ġs oc
ak u
T oday
0 10
Ġenc ountered
Ġinter pre
ĠE dd
Ġsuccess or
ĠP H
ĠLe v
st ars
ĠMove ment
Ġslow er
ical s
Ġwid ths
Ġp ace
ĠPl ant
B ody
hu a
if iable
ling ton
em a
u ction
P rior
ĠBrother s
Ġb if
math ord
Ġsp okes
Ġoccasion ally
ĠRoman ia
ĠCom ics
t witter
ĠR andom
Ġmountain s
Ġcomput ers
Ġir regular
R oot
Ġout door
Ġlic ensed
Ġdes k
ST AT
)\, ,
ow ards
ri ors
CD M
ra pe
Ġst ere
Ġhand led
Ġun con
le tt
ĠSt orm
f are
ĠNet flix
ĠF ly
ard i
Ġsynd rome
}=\ {
s z
ĠJ ess
ĠThe ater
per m
tem p
n ia
Ġt u
ad j
re z
Ġob ey
Ġlo ading
Ġl ip
Ġv essels
ĠVi enna
Ġphot ography
Ġd ynasty
our t
ill ation
ĠK os
Ġyield ing
P rim
S V
ĠGu y
Ġfl ights
ield s
pr inc
acc ount
ap ing
N ever
ĠT rophy
ĠN ap
ĠFreder ick
ĠOrth odox
Ġsupers ymmetric
rest rict
Ġlat ency
Ġphot ographer
ĠTh ings
is an
Ġwor ry
ĠO DI
Ġacknowled ges
ex amples
Ġinter active
Ġâ Ĥ¬
oth y
Ġm ail
ure r
Ġpron ounced
vi o
Ġle ak
Ġorgan isations
Ġcal ib
ur an
ram es
int rodu
] :
Ġliber al
ĠG ate
)= -
Ġcombinator ial
Ġst er
hat tan
\, $\
G ET
13 3
her s
Ġo mitted
d g
Ġcol ours
B ro
}{ (\
Ġcomp iled
ĠLegisl ative
Ġven ues
ĠF ine
Class es
Nav Bar
Ġcor ners
Ġcosm ology
Ġload ed
ĠCar ib
Ġloc omot
in verse
ins ula
Ġcontrovers ial
ĠD B
ab ol
ĠW u
ĠPro f
} &=&
om at
18 97
( |\
ĠUr ban
w right
It alian
tikz cd
Ġcoast al
Ġh opes
Ġsu icide
ĠCon struction
Ġcomp ress
18 70
Ġ }_{
ĠY ank
Ġs ail
] =\
)} +\
W he
v ary
ĠP rivate
Ġlaw yers
Ġsub mit
J y
Ġstat istic
Ġt rick
Ġaff airs
ĠPark er
ĠHam pshire
ĠL STM
18 95
Ġcom ed
Ch annel
){ $\
Ġqu oted
ĠD ays
Ġrun ner
ĠP erson
Ġh ide
&& &&
Ġshall ow
Ï ĥ
Ġm asks
IF AR
Ġm uon
Ġsimplic ial
us k
Ġan xi
Ġbus y
ĠMad rid
R ay
) }}{
f ive
ĠProfess ional
Ġact ively
ĠS audi
10 24
ĠSh ould
N or
Ġtax es
ann es
Ġconsc ious
om ed
-- >
Ġlimit ation
Ġo s
ĠR av
ĠStan ley
ub s
ĠIn v
ut ations
Ġpaint ed
Wind ows
Ġanten na
pro ved
ester day
to String
Ġg aming
method s
ke ep
Ġb oss
ĠHung arian
ĠC ensus
Ġl ingu
ĠM ix
uch i
comb ination
ĠD L
ĠSte el
l Vert
ĠJim my
ĠF ight
Ġpri est
ĠPr incess
ĠHig her
Ġmonot onic
Ġint ellectual
R ect
en able
ry ption
Ġs lic
13 7
Ch apter
Work s
ĠSt ories
ĠSt okes
Ġre written
Ġagric ulture
Cle arly
Ġtrunc ated
Ġcontroll ing
ha us
ĠF ed
Ġre ven
ĠC arn
Ġcolon ial
pl ugin
ack s
com pos
Ġby te
ce ive
Ġvirt ually
Ġn ut
Ġmultiplic ative
Ġh ip
P tr
ma k
ĠSch warz
per formance
ĠBroad way
ĠP ant
L ater
Ġche ap
Ġfit ness
ar ab
Ġprot ests
Ġaut onomous
FI LE
Ġwat ched
Ġdecl ined
f ony
sc ription
ĠM ust
Ġproxim ity
arm s
ĠÃ ī
ĠAlf red
inst all
Ġperm itted
Ġpriv ile
}^{ -\
fo o
n od
T ri
ĠBuff alo
ĠM Ps
Ġinflu ential
Ġswim ming
Ġthreat s
Ġj av
18 00
ad van
ill iant
Re ception
ĠRes ource
}} [
d etail
Ġinspe ction
Ġnot ions
ĠCh ampion
Ġregul atory
ĠC ou
ag ent
Ġperm it
Ġc ous
Ġpeak ed
Ġg olf
en ius
Ġcontinu ation
d etails
a qu
Ġ& =\
eg e
ĠZ one
p seud
ov o
Ġt ies
ĠB ron
F unc
F ar
Ġl augh
ĠFrank lin
Ġover whel
exp and
}{* }{\
)}\ ,
contain s
hen ce
ĠH ind
ced ure
\ #
Ġen code
s b
Ġz ones
Ġcomplet ing
l iter
Ġen abling
ik o
Ġp uzz
Ġmathemat ics
n orth
ae v
| ^{\
Ġfore ground
on ormal
Ġincl ination
e enth
Ġmy ster
O fficial
spect ral
ĠMer c
Ġmem ories
uck er
Ġut ter
ĠBar bara
Ġres igned
Ġsub stitution
s outh
ĠI an
ĠA ld
- }
Ġproceed s
Ġin cent
ĠF low
ĠD A
fin ing
ĠSt ream
tr ig
Ġemphas is
ĠT ol
ĠC opyright
bor ne
}^{ {\
AR E
ol en
Ġmin us
Ġeigen states
Ġdef ence
ĠLa placian
clip se
ĠN iger
Ġrest oration
R o
Ġtens ors
Europe an
pos itory
ĠM ak
ĠM all
Ġmorph ology
s ided
Ġg all
label ed
Ġphon on
ass er
equ ence
ĠF ab
Ġsophistic ated
constra ined
Ġdep ression
ĠV ancouver
Ġt y
small matrix
ĠFe ature
ĠPl anning
Ġrat ings
Ġener get
ĠMe asure
Ġâ ĨĴ
ĠDen ote
Ġp ic
te ch
Ġbas elines
Af ric
c ology
P ut
Ġrep orter
trans fer
Con dition
De ep
ĠC atal
zer ba
ĠP ick
per ience
ĠCh a
ill ance
Ġrandom ized
ag ar
Ġexclud e
N OT
ĠMountain s
Ġmur d
ĠF alse
Japan ese
ĠB io
p any
Ġ\ ;\;
Ġaz imuth
ĠC el
Pl ace
Ġfeel ings
Ġ esc
ĠLie utenant
Ġas ide
18 96
Ġdown stream
Ġcomfort able
Ġloc us
ĠAnt i
Ġbeg un
Ġim plements
m any
Ġb orrow
Ġcirc uits
ĠT s
ĠComm ander
ĠU g
Ġw ings
ĠC ultural
ift y
{ +
Ġsil ent
}) \\
ail ure
Ġp up
Ġg a
ĠAust rian
ĠSing le
ro at
ĠP hoenix
Ï ģ
^{- (
op a
Ġfunction ality
che l
plet ion
Ġh orses
Ġad equate
ĠC ell
}: =
Ġun signed
ĠAg reement
m ock
Ġh itting
L ock
Ġper ception
^* $-
Ġacceler ated
ke ley
L ow
Ġpro l
constra int
Ġmonot one
ĠRe ynolds
ley ball
alth ough
Ġhar vest
Ġpro gen
14 3
Ġcharg ing
ĠA rena
ĠR ural
_{ *
l ov
Ġj u
ĠObserv atory
P rom
Ġcopy right
Ġbu ying
St ation
AN T
ĠF reedom
ĠQu antum
o es
ath on
zerba ij
Ġdiv isions
ĠP ersonal
ĠShe l
)}{ (
t m
Ġp unct
pix el
)+ (
Ġdig it
M ad
Pro blem
ĠB L
ĠPy thon
ĠCommun ist
Ġ$ +
Ġre finement
ĠRes Net
y u
iter ranean
_* $
Ed itor
C ity
Ġe lem
commut ative
h um
Ġhe ll
Ġview ing
Ġsens ing
Ġcomb ines
Ġcontext s
ast ro
Ġimm un
multip ut
> .
ore r
on ing
}}( {\
ĠT ower
Ġem otion
)= -\
Through out
Ġch ronic
He alth
Ġactiv ists
Ġnom inal
Test s
ĠE ve
app er
Ġcommunic ate
Ġcontam ination
Ġcl othing
Ġ> >
Ġtunnel ing
ĠH orn
Ġre fined
chi at
ĠE sp
ces ter
J S
ĠH indu
li u
Ġcomputation ally
ĠBe ijing
ĠG C
ĠMet ropolitan
ĠL ess
z hou
Ġprom oting
Ġtick ets
Ġshort est
S ervices
ex port
Res earch
Ġmount ed
usal em
d B
ĠV erm
Comb ining
ellig ent
Ġthreat ened
Ġsupp lied
ĠAl aska
ĠWar ren
yp ical
Ġsimultane ous
is cal
ĠM uch
K im
Am ong
Ġreason ably
Ġpen et
Ġsub spaces
ĠMod els
Ġfast est
ĠH awaii
), $
foot er
ĠR G
Ġ$( -
Ext ension
Ġto w
Ġsqu ee
ĠClass ic
Ġemploy ing
Ġend point
l ive
)\, .
Ġt une
Ġexist ed
ĠJ oy
ham mad
ĠAst ron
Ġspecial ized
A x
o pp
d iamond
u ate
ĠF alls
ĠV ent
un i
ĠMon th
m el
Ġdo ctors
os hi
ĠE li
Ġconstit ute
/ $
ĠR S
o S
Ġrad ar
ĠPh arma
AR Y
ĠH aving
Re cently
c ous
se lection
ĠFor um
}= {\
ĠB O
Ġinter cept
f lex
An alysis
Ġant is
un ion
Ġc ube
Ġqual itatively
ĠY am
Ġcount ies
Ġm ouse
Ġun ified
Ex pat
K ing
it ime
P DF
id uc
}} ]
ET H
de cess
on ian
Dev ice
f eld
Ġto u
Ã ª
Ġinf ected
m v
im ath
plic ation
Ġclaim ing
Ġinn ings
Ġin complete
ĠMe chan
ĠGi ants
Ġshe af
\% )
Ġhead ing
we ets
Ġfilt ration
Ġab road
Ġaffect ing
disc uss
Ġven ue
p al
Ġtri plet
Ġdes ert
an ov
olog raph
Ġsol ves
Ġdisapp ear
c M
be am
Ġcatalog ue
ĠC e
az y
c ence
Ġearth qu
B ay
o ons
magn et
asg ow
E rr
d ie
}$. }
ĠF ast
W R
Ġdes irable
ib n
n othing
Ġsuccess ive
Writ er
Ġd ub
graph s
ĠR ing
Ġpl acing
ĠCl iff
ĠP oll
Ġcondens ate
}) ]
ern al
amp a
ĠV ar
ag ers
-\ !
EX T
;" |
ĠT ed
ĠSpe ed
Ġspl its
rowe ak
Ġb es
ric ulum
Ġpo ems
u ous
ins ky
ĠD est
Ġkn ot
Ġcert ificate
Ġw elfare
Ġ( {
c ot
Ġconstitu ency
B usiness
Ġ\ %
t is
sp ot
Ġguilt y
Z hang
h size
ps y
Ġmil k
p ull
Ġconf ident
em or
maj or
dat aset
ph al
Ġri vers
d ied
le igh
pect ives
cycl ic
umb ent
ĠSte in
it ol
ĠV enezuel
Ġnames pace
Ġphotograph s
Ġdec oupl
Ġimportant ly
Ġconf ront
Ġc er
Ġman ually
Ġste am
vent ions
ĠJ azz
ĠCh art
Ġover se
comp ose
R NA
ĠMag ic
part ition
Ġliter ally
Ġinvestig ating
m ask
Ġvis ibility
Ġd rew
Ġn ortheast
ref n
Ġf li
Ġhabit at
Ã¨ re
Expat riate
ivid ually
Ġl ibraries
ĠF am
Ġj oy
ĠBir mingham
by te
Ġassoci ations
Build ings
ĠE C
Ġsh ar
ĠK ol
ĠSy ria
be it
Ġsl opes
ĠOrig inal
b undle
ĠC ele
Ġcompos itions
Ġb rackets
ĠI F
Ġau ction
con clusion
B ul
is i
Ġbl ank
r aska
Te chn
P arser
} "
Ġcancell ed
u ating
lim sup
Ġapert ure
Ġtreat ments
13 1
13 8
pre ceq
Ġle verage
Ġoppon ent
ĠWay ne
U D
ĠF W
Ġreg ret
M eta
ĠS ide
20 5
Ġmanufacture r
Ġfl ags
00 7
Ġt ape
ĠL E
Ġsusp ension
Å ¾
cor related
Sec urity
ĠSt ructure
over view
C ategory
Ġposs ession
$\ {
Ġplanet ary
P F
Ġb rick
' },
col lapse
uls ive
New ton
k el
0 15
},\ ,
Ġdis aster
Ġthrough put
Ġimm une
n il
t abl
Ġa ster
ĠT alk
ĠBen jamin
ĠN an
L ou
Ġg ent
ĠC arm
Ġult imate
Ġstret ch
Sche ma
Ġv ib
Re lease
Dist ribution
P et
f iction
ck e
Ġcolle ges
ad min
ĠĠĠĠĠĠĠĠĠĠĠĠĠĠĠĠ ĠĠĠĠĠĠĠĠĠĠĠĠĠĠ
Ġb om
16 8
Ġpuls ar
ĠC ole
me as
ĠIs ing
v r
Ġlik es
Ġsatell ites
Ġcompris es
F ace
p adding
ire ctor
horiz ontal
g age
Ġbenef icial
ĠR ugby
og s
ĠConserv ative
)$ \
Sm ith
ĠS USY
ĠD ragon
Ġg est
} <\
H ard
% %
' ],
Ġh op
ĠLe ader
ĠMuslim s
MA X
Ġg allery
ass y
hig her
Ġfaith ful
Ġcha otic
ĠN BC
av g
row ing
ĠG ot
FA ULT
C amp
ĠJohn ny
ph ones
Ġaggreg ation
Ġpl aus
Ġrel ates
Ġsem ic
Ġperturb ed
Ġf ert
ĠA the
00 6
ove re
Ġaccommod ate
c pp
d w
}) +\
item s
ĠRob in
l ene
can onical
g re
ĠAl ban
Ġstrong est
ĠBl ues
Ġminim a
ĠBern ard
n ob
ĠG arc
Ġexceed s
E ast
S K
U C
18 93
Ġcas ual
Ġg od
Ġsp anned
ĠSe ven
_+ (
ĠColl ins
ĠIn stit
Ġappro ached
set counter
Ġdiscuss ing
ed ed
B V
DE s
Re ader
it ual
ĠIs a
Ġplace ment
## #
Act ive
Ġisol ation
ibr ations
. [
Ġrelax ed
t un
Ġn ons
ĠL INE
th read
ĠW inn
Ø ±
ex ternal
ĠApp lication
P ool
cho ice
Ġcur ved
b h
qu est
ĠE u
Ġincred ible
ĠCommission er
ĠRe cently
n or
Ġst iff
Ġ+ +
Ġlight ing
ĠBar cel
ĠT oy
Ġfrag ment
D ouble
H aving
) &=&
C u
}\ ]
bour g
Ġdevel oper
P red
Ġclass ify
oc c
Ġengine ers
Ġpl ates
ĠHop f
& #
ĠD ol
Bo olean
as is
ĠE W
Ġcred its
u h
Ġdec ides
Ġpref erences
}) _
Ġcollect ing
ĠComm ons
T ur
if le
ĠE lementary
Ġperson ally
Ġre wards
ĠC redit
SI ON
ĠLi u
Ġe ating
ĠP ictures
pon s
Ġ ×
Ġd ated
) <\
Ġj ack
C ard
? :
ĠArch ives
ĠP el
Ġbipart ite
Ġbi ased
qu bit
ĠInt el
ĠS z
ĠAl ong
ĠOper ations
V ec
el ing
ass o
Method s
Ġaccording ly
Ġmes ons
N umerical
Ġprogress ive
M ach
Ġpresent ing
| $,
ĠS K
I refn
Ġp ul
ĠBe aut
}_{ +
Ġaccom pany
ĠArch itecture
ĠImp act
chang ing
SE T
Ġm ice
pe ak
vi ol
Ġu pload
sub ject
O PT
Ġarchitect ural
uss ia
Ġrob ots
ron es
Ġim prison
block List
Ġpow ered
um my
Ġin ject
op al
Ġrest ore
og ue
ĠSal v
ian ces
Ġchar ity
ĠCarl os
analy tic
Ġtun ed
ex ception
ĠW ing
ĠTechn ical
Ġdis abled
Ġemer ge
Ġcryst all
os opher
ĠAnd re
â Ħ
)\ )
ĠPo incar
oun ters
Ġattempt ing
ul ates
min imum
Pro duction
co e
ore n
Ã© n
Ġpremi ered
}) /
ĠPrim ary
Ġb orders
ĠE T
18 60
ĠSaint s
st retch
Ġatt raction
Ġd ictionary
ol ute
Ġpart on
Ġpo ison
O F
ĠA x
Ġcom ics
-------------------------------- --------------------------------
t c
Ġdemoc racy
="../../ ../
Ġfilt ered
Ġen compass
Ġquad r
Ġcor pus
ann ah
Ġm g
Ġper ceived
Ġmain stream
Ġconduct ing
in corporated
or ro
ĠBar ry
P V
duc ational
ĠYuk awa
Ġimp lying
inter pret
ĠPol itics
f box
Ġ< =
ir ts
Ġbut ter
ĠB asketball
Pol itical
Ġw ounded
ĠLiter ature
Per formance
Ġden omin
pol ynom
\ &
Ġpredict ing
P ay
ĠInd ians
Ñ Į
Ġunder ground
Ġannu ally
ĉ ĠĠ
ĠT ournament
Ġexhib ited
b atch
Ġpe cul
St orage
w au
Ġun e
W atch
0 25
Ñģ ÑĤ
Ġth irty
ĠNe uro
object s
ĠIm port
ou x
eps fig
Ġmer ging
ist ing
mod es
Ġsubt le
ĠW rest
ĠI O
Ġprison ers
ĠN icol
Ġvolunte ers
ĠR ico
ract ive
ĠW H
con serv
wh ose
Ġ ...,
| +
flu ence
cast ing
With out
We ek
gener ation
ich i
em ission
ion ization
Ġst roke
Ex amples
Ġprocess or
Ġre vised
Ġt weet
Ġcard inality
Ġin sect
ĠCarib bean
Pr int
B ob
ub a
Ġdiscret ization
Ġcoun sel
Ġad s
ĠN R
14 7
in j
Ġmore over
bre ve
Ġmanufacture rs
c C
Ġg ear
Ġ ðŁ
ĠL ud
ag ain
ĠÃ ł
il ia
dis crete
k j
ĠD ouble
Ġdetect ing
ĠJ en
KE Y
Ġsub stit
Ġcontrovers y
st ock
Ġcor ruption
ĠCom plex
an cer
\ :
S pect
M Hz
Ġaug mented
pt ist
ĠL ux
18 92
ĠS ad
st ad
G H
ish ments
Ġh urt
att ention
og y
ĠS oul
Ġsuper position
D ifferent
B it
ĠW I
Ġdwar fs
Ġd aughters
Ġcon form
ot hes
Ġdr inking
g am
Ġoppon ents
ĠMan hattan
ag onal
Ġal phabet
min im
)} -
Des ign
sur ance
S ocial
Ġb read
mem ory
Ġspont aneous
Ġ âĢĻ
ĠDef ence
M el
ĠCharl otte
Ġf riction
Ġanonym ous
am ic
ĠD elta
Ġsurv iv
Ġnom ination
ent i
ep he
Met adata
ĠEth iop
Ġimm igration
ĠB enn
Ġwood en
ĠFI FA
ge ometric
el ike
ĠMin or
ĠNev ada
Ġd inner
alax ies
h ift
Ġactiv ated
ĠPier re
Ġatt ending
ac re
Ġv it
Ġpass word
Å Ł
Ġrail road
ĠSe lect
ĠRober ts
Ġf idelity
ous ing
c in
Ġbirth day
mathb in
Ġen umer
col sep
Ġtransl ations
2 15
R ank
}^* $
18 94
ĠQ ual
ĠNetwork s
Ġsuggest ions
Ġsched uling
eng u
cel and
Ġb ishop
s ave
Ġpass ive
ĠCra ig
est on
{ }{
ain ing
ript or
uk a
ĠM B
om i
ce ut
ĠTurn er
T i
ĠN HL
ĠC ut
Ġb ilinear
ogen ic
ĠCost a
ock er
ed ef
th al
Ġt ips
Ġup grade
Y M
r ised
Ġcomput es
ĠB rew
Ġirre levant
D IR
rac le
Pro duct
ĠO il
ĠKir k
ĠK illing
t v
Ġc ow
Ġnorth west
ĠN LO
tr uth
r us
ĠHar rison
Ġcompos ers
Ġg ard
ĠU AV
ĠK l
ĠMajor ana
Con stra
_* (
Ġcritic ized
Ġkit chen
Ġfun ny
Ġpark s
Con st
ĠUnivers al
ĠC er
\, (
Ġform ulate
Ġpo inter
ĠCont ent
othe rapy
) *
ĠY e
Ġfrag ments
Ġformul ae
abet es
red shift
Ġcogn itive
ab stract
28 0
Ġinc idence
Ġm oon
ens ely
ll a
ress ions
Ġpre decess
rape ut
ĠR acing
s al
Ġsurpr ised
Micro soft
Ex perimental
Al g
Ġeigen vectors
ir k
ĠJer usalem
ĠMay be
ĠRail road
; }
es y
Supp ort
math ring
Ġsp heres
pan ic
ï »
Ġmod est
Ġorig ins
b ay
Ù ħ
p u
ĠS ug
ĠA pr
Ġluminos ities
hem atic
Ġad option
ĠE SP
Ġm eth
ĠJ oint
Ġcoal ition
P eter
Ġpack ets
G rad
Ġt orn
or ia
Ġcomm ute
ĠLand au
Ġsaf ely
r ational
22 4
ĠC BS
rad io
Ġe rect
b inary
Ġw ick
st eps
ĠAthlet ic
th ird
in ous
ĠLa place
ĠEx amples
ĠJ a
ĠBl u
Ġnewsp apers
m atter
{( -
Rad io
ĠG O
D G
t uning
Ġsmooth ing
Ġany more
Ġde emed
ĠWrit ing
Ġtermin ology
thin space
18 89
e conom
Ġafter wards
ĠBarcel ona
ĠL ad
Ġi Phone
ĠPro duction
ul ous
lo yd
Ġg ross
Ġj umps
ĠB Y
P ER
uit ively
18 5
ĠRe ading
h aw
ĠF el
ĠCo al
Ġarrang ements
Ġch ip
ĠEd ge
b v
ĠS V
Ġfl are
U B
us ers
ster dam
Ġarriv es
N i
Ġaccompl ished
18 85
ĠIndust rial
orig in
ĠS ox
Ġsold ier
ĠHerm itian
abul ary
È Ļ
M ock
ar ct
wau kee
Al tern
Ġbij ection
ad just
ĠDen ver
ĠJos Ã©
ĠEv ents
ĠBe ing
Ġcol span
Ġval ence
Ġsomew here
ub ert
Th anks
cl ock
Ġall ocated
Ġd z
20 2
Ġident ifies
By tes
(\ {
ĠI van
Ġche st
d h
bo olean
continu ity
Ġsubs idi
Ġo mit
amp ed
ĠNaz i
ĠS r
erv ation
different ial
Ġbelie fs
ĠI de
Ġscal ars
Ġin ev
ic ates
Ġartifact s
=" /
ĠSte ven
ult an
26 0
Ġsub algebra
z es
der ived
m orph
Ġdel ays
Ġde ck
ug osl
Ġevol ving
'' )
Ġvent ure
ĠComp an
Ġking dom
ĠH em
inc inn
Ġt uple
rm k
sq l
Ġele g
ĠSh ang
x t
ĠL ost
NN s
it ious
ĠR O
Ġle x
Ġcoach ing
part icles
arch y
Ġwalk ed
'' (
Ġmy stery
Al bum
Ġout going
ĠRic ci
Ġc oc
ĠM pc
In ternal
Ġsuscept ibility
su cc
ĠM is
- )
Con sequently
rob ust
ĠArch ive
Ġorth onormal
ĠGra ce
Ġelev ation
Ġam id
ĠAlber ta
ĠCo hen
IT E
et ta
M ill
ĠN ak
in z
ĠRe lease
ĠO w
ĠLe o
Ġpack ages
wid get
ĠO wn
Ġscient ist
ĠOtt oman
U ST
Ġaver ages
18 88
Ġperm utations
Ġdel iber
ĠB achelor
Ġbon us
( *
Ġadvan ces
Ġob s
cast le
ip eline
ĠIn novation
ĠGl asgow
small er
ĠAlex and
R en
Ġqual ifying
ig o
18 91
pol icy
Ġ$< $
Ġadvert is
. *
ĠGre ater
he v
ĠF P
err ors
Ġhas n
Ġal pha
imod al
ĠM g
ĠE R
{$ {\
m ust
Rich ard
Ġ ~~
ĠP le
Ġcl arity
ik ing
Ġbar riers
Ġped est
min imal
Ġp ill
ĠP resent
It s
Ser ies
ĠTig ers
Ġg raphics
ĠIn n
st ats
Ġsp ark
intend o
rob enius
Ġoff ense
is ional
Ġrec ruit
pp e
Ġaddress ing
Ġwal let
am ine
ess ed
o j
ier ra
m itt
Ġgener a
Ġmed ieval
000 1
ubb ard
Ġsk i
Ġspin or
Ġmer gers
ĠPaul i
S at
b log
Ġval uation
Ġdesign ing
FF FF
Ġhost ing
ant on
nt hesis
pr ising
Acknowledg ments
Ġc rossover
ot ypes
Ġ( *
ight ed
t oggle
Ġcl ause
L ayer
Ob j
_* \
Ġdynam ically
G rid
Ġinter faces
16 7
ĠCamp aign
aren cy
mar ine
L ive
Ġun w
ĠMil an
Ġrecurs ive
Ġsk ip
Ġsurv iving
ĠSh a
}} ^{-
p es
less ly
ing ers
ĠJust in
U SE
ook ie
agn etic
riv ing
Ġsem igroup
rist ol
Ð½ Ð¸
ĠNorm an
onic a
Ġroll ing
-> ,
) &=
S pr
ah a
Ġcontact s
row ave
ine e
Ġth inks
Ġinfin ites
incinn ati
ĠC old
ĠR T
13 9
ĠC V
ĠO cc
ari us
ĠS occer
Ġspread ing
ra v
Ġan ime
Ã³ w
Ġhydro dynamic
compat ible
}) -\
Ġmed ic
X iv
Ġcon gress
ne ighbor
O bserve
Ġd ivers
ĠT elescope
Ġmag azines
Ġopin ions
Ġgenu ine
d iction
Ġvisual ization
p z
Å Ħ
w ild
de velop
}| $
Ã© t
Ġind ividually
Ġst rang
Con tact
D ou
24 5
_ ;
ĠL oss
ĠSer bia
ĠAssum ing
ĠM ans
ĠBG COLOR
roll ing
C art
Ġb unch
Ġresidual s
Ġutil izing
Med al
ĠC ad
Ġcal endar
Ġpush ing
Ġsm oot
Ġavoid ed
H K
ĠI SM
ĠV ic
Ġsp ir
$. \
Cl oud
Ġindic ation
S ample
Ġele ven
Ġdim in
K ind
r ators
Ġflo od
Sp in
Ġprov incial
ri en
Ġer u
Ġt ons
he ro
? }
Ġexpans ions
L ab
ent e
ĠMarket ing
sc attering
Ġapproach ing
K B
Ġvo ices
inter val
ĠAb u
reg ation
acknowledg ments
Ġconvers ations
ferm ion
ĠSus an
he art
ĠR ange
ĠGh ana
Ġless ons
ĠGon z
Ġsu ite
Ġcricket ers
Ġimplement ations
Ġincorpor ating
b ank
Ġco in
Rail way
on ce
ĠP E
qu asi
ĠW orth
Vill ages
utr ino
Ġh ull
hed ron
disc ussion
ĠM inkowski
dot sc
ars on
Ġcapt uring
ar an
W F
l ift
r Vert
ï» ¿
ĠB ert
u art
ĠPro test
t mp
t ogether
im s
ĠL ot
ĠJ SON
ĠB right
bal anced
ĠChe l
Ġtrig gered
Ġswit ched
Ġsome how
Ġed iting
Ġdram atically
Ġbu ilder
ĠPubl ished
Ġab ilities
Ġen orm
ĠQu est
Ġth rown
ĠR V
ab we
ĠM s
)\ |
LE CT
Ab stract
P erm
ĠJ ung
Ġs outheast
Dis play
Line ar
So ft
ĠF itz
structure s
fore ach
S ite
ĠS ax
ĠJ ama
Ġcompet itors
ĠBol tzmann
Ġc inema
Ġh ack
cm d
Ġsuper vision
Ġb ridges
desc ribed
ĠWhe ther
ĠH aus
ĠT es
ord ial
18 50
Ġple asure
ĠS id
Ġresid ue
amb ers
Ġatt itude
hib ition
Ġte a
Ġrig orous
it ic
ĠF u
ic ons
Ġass ass
Ġveter an
me ans
cal c
\ },\
b ishop
Ġparad igm
- .
Ġsystem atically
Ġent angled
ĠTh or
cre ts
00 8
}= (\
Ġsh ocks
ir s
ĠFri ends
ol ia
oc ur
Ġact ed
leg al
P AR
dor ff
n odes
ul in
Ġcompat ibility
ĠM ason
Ġj ournals
prec ision
Ã ½
cal es
Ġcred ited
st re
sc apes
Inst ead
Ġcryst als
iz on
tan h
}) _{\
Ġun ve
, -\
ac co
etric s
Ġinc idents
ĠS Ne
b inding
K O
De lete
Ġsh ore
ĠSpr ings
ĠMu hammad
ĠR idge
Ġed it
ex periments
Aut o
Ġm ism
ÑĢ Ð°
Ġvi able
ĠD oc
3 30
ĠA aron
ĠL ithuan
F re
ull ivan
Ġemer gence
ash a
ams ung
ĠF riend
ĠW or
Ġun s
cle an
c A
par ity
14 8
Ġp iv
ĠSe pt
Ġ }^{
}{ |\
Ġretrie val
d iam
Ġind igenous
sign al
Ñ ĩ
ĠR ule
look ing
Ġt ale
Ġp icks
ĠM ong
ĠM ort
nabl ed
Ġcomment ed
C arl
Ġconst ructions
ĠH ess
Ġparameter ized
Ġc ave
Ġab bre
Ġcur rency
Ġkinem atics
Ġoverl apping
Ġcons olid
De bug
cur ves
ĠDemoc rat
Ġprepar ing
equiv ariant
M il
Ġ& &\
20 8
W el
ĠG T
Ġvol can
ĠLeg al
ĠK ay
ie v
Ġpubl ish
ag h
Ġany way
requ ired
g om
ĠD rag
Ġsimilar ities
Ġinher ited
, '
list ing
Ġdepict s
}- {\
Ġextrem al
imb abwe
By te
$ |
Ġor acle
Ġphys ician
ĠJ up
G re
18 65
d ynamical
Ġint rig
Ġelect oral
Ġlik ed
Ġconduct ance
ĠJer ry
ĠP in
Ġun bounded
Ġatt en
ing ale
ĠColon el
$ [
Ġco pper
Ġiniti atives
Ġin set
ĠRes ponse
Ġsouth west
ĠC B
Ind ia
Ġorgan ised
S mall
stud y
Ġc ock
ĠEgypt ian
K w
ĠW rite
ff ff
Ġdebut ed
P ress
à ®
ĠCh i
G EN
ide al
b ast
14 6
M id
ĠMur phy
pres erving
ĠAthlet ics
Ā Ā
Ġcon current
sc ribe
d al
en ario
i q
ĠK err
> ();
ĠD raft
ĠWar ner
Ph ase
elect ric
Ġcan n
Sim ple
15 2
Pres ident
ĠD h
sol ved
C opyright
L ower
ĠL ions
Ġseem ingly
ĠL ik
Ġexplain ing
Ġar cs
Im port
ĠCit iz
c ro
ĠBer keley
leg ate
is ch
ĠFl ore
En ter
Pro gram
iduc ial
R andom
Ġjust ified
ĠDef ault
rt imes
$ ^{+
new page
Ġmaintain s
Ġmet adata
Ġsee ks
ĠNeb raska
ĠI SO
ĠPro file
ash ing
Ġaltern ating
ĠFe ynman
ĠT on
ort ex
\, ,\
ĠB eyond
Ġsec ured
um bers
Ġs aving
if mm
ast rop
Acc ount
Ġlater al
incre asing
Ġhand ed
ĠG rey
Ġhard ly
bi as
exp ression
Ġoccas ions
ĠBre ak
Ch ina
Ġf ictional
Ġre vis
cont rolled
Ġthreshold s
ifmm ode
ĠD etails
rot ron
iv ic
rr rr
ĠSh aw
Bas ic
Ġe ighth
ĠPar ish
app ly
ym ph
Ġinteg rity
k an
int roduction
16 6
Ġassess ed
Ġfin als
IM P
ĠVin cent
) ^*
Ġgold en
count ry
w u
Ġsp arsity
ĠMed iterranean
Ġsubsequ ence
Ġcon vin
Ġbatt les
N F
Se ason
gener ic
ĠL L
Ġindex ed
al ry
h idden
ĠRich mond
ĠGr ass
eqn o
Ġto y
Ġl ap
pow ered
Ġfro zen
ĠD iamond
Ġsh aded
ĠA zerbaij
ĠC FT
Ġro uting
it us
Ġcent res
s ug
Ġsu gar
Ġmac roscopic
ĠForm ula
Ġinvest ments
akes pe
ĠHe isenberg
h is
Ġbe er
E A
itro gen
Ġdu o
L java
co q
Ġtrunc ation
K P
ĠR oche
Ġgeom etries
irl ines
Ġbr illiant
hold s
I ma
P ublished
M ur
c ool
rad iation
as ia
t ip
ad v
Ġshould er
ĠGR B
C ov
om al
ĠGu inea
Ġflo ating
c F
Ġfrag mentation
Ġco ins
ĠL S
Ġun success
d dots
ĠL an
ĠD ig
N I
t ons
~ ,
g ie
Ġcomp ares
Pro file
t k
B on
ĠEag les
ch rotron
cal ed
Ġch at
Ġ( -\
Ġcult ures
y ang
ĠG AN
co herent
Ġtor que
H or
spi racy
A W
ĠL uther
ĠStr ateg
Ġod ds
h all
Ġev ac
Ġstar red
or ange
ĠE D
j ud
Ġres et
14 9
Ġbacter ia
ĠO liver
ĠJ ere
av an
v ir
Ù Ĩ
l ater
18 87
ĠPer u
Ġident ically
ĠFellow ship
ĠBeng al
Ġpract ition
ĠF iction
" )]
id ency
ix on
ĠObl ast
oped ia
ĠM oney
sk a
ue z
Eng ine
fill ed
m other
F rank
W alk
ut ton
Ġheur istic
ĠCl ay
ris k
Ġdiagn ostic
ĠB ass
ĠV as
Ġle mm
gra ined
Ġs ink
Ġcon figure
ĠCom pton
Ġdi et
Ass ert
ĠVis ual
Ġ\ }$.
âĦ ¢
at able
Ġ& +
ĠStat istics
Ġnav al
ĠRang ers
ç ļ
Ġro oted
aver aged
ant ine
Ġsymm et
t ens
ox y
14 2
consist ency
y i
g ical
Ġwar rant
J ew
Ġac ute
Ġfail ing
ĠV lad
te am
ĠInter view
Ġprem ium
ĠNich olas
Ġst ays
ur st
ex ports
P relim
Ġb ike
Ġr ice
14 1
ĠG ay
or ption
Ġn ic
ĠL ate
Ġde formations
ator ies
redu ced
g io
)/ (
ĠD od
ĠS ongs
Ġrecur rent
B ern
B ERT
\| _\
Ġconf used
me chan
}' \
ĠMor ning
Ġper cept
Ġmon ument
dif ference
ĠJ osh
F D
Ġun re
comp ress
C opy
oc co
3 75
ĠK ath
ĠV ery
ĠSe an
Den ote
Ġthe at
Ġb anned
ĠCru z
i ref
ĠK ate
Ġ\ '
ĠM ann
AT O
5 50
ir r
act ivity
ĠWh ich
Ġprot ons
ĠB ody
Ġcert ified
Ġcompris ing
R oute
Ġcha os
Ġ&= &\
ĠH IV
Ġelect roweak
app rop
ĠCat hedral
Ġtheore tically
T own
Ġgraph ic
c ussion
I con
L ove
n r
Ġt rivially
ĠK K
B ad
Ġeng aging
j ack
Ġlaw suit
$. \\
Sym fony
st ability
ĠH ost
ĠN ode
Ġmet ast
B rown
C ost
ĠMas ters
ĠBlo om
ĠL arry
iv ia
Ġarray s
be ck
Ġdon ated
Ġceleb ration
lik elihood
O s
s elling
re ck
reg ister
Ġaug mentation
AN G
/ {\
m itting
h ots
ĠThrough out
st ead
bra ham
Ġdraw s
Ġess ay
E s
Ġdist ribut
Ġtravel ed
M aster
ins ki
ĠB our
Ham iltonian
Ġend points
33 3
IG HT
Li u
Ġconfir ms
em ark
Ġt ags
Ġcount able
Ġbeh ave
+ }$
ĠB omb
Ġparticip ant
Ġimplicit ly
vect ive
\/ }
x s
18 86
ĠPr int
Ġf ate
Ġin ches
Th ough
Ġcond em
Ġgener ative
App lying
, âĢĻ
as ta
Ġinsert ed
Ġviol in
ĠArt ist
Ġdi verg
Ġlegisl ative
Ġell ips
t uple
Ġun fold
d V
Ġpecul iar
ĠChrist ians
Ġch ron
ĠArab ia
ĠM ig
ĠH udson
Ġgeomet rical
U ID
ĠB ird
ĠMar sh
Ġf iring
Ġelev ated
Ġro ster
pi res
Ġpers istent
Ġentreprene ur
Ġm sg
1 200
ed itor
ĠIn iti
f olk
ular ity
p rior
Ġpain ters
rom atic
iff s
it ational
Ġsent iment
Rep ort
v x
ĠGra de
Ġfl ip
US A
Ġfore ver
ĠP T
ĠCh and
Ġaud iences
Ġt anks
Ġa qu
plan es
ĠC W
Ġarriv ing
ol in
ĠE ug
Ph ot
Ġscholar ship
ĠCons ult
Ġm s
def i
ac ular
ĠAgain st
M u
Ġreflect ing
Ġfil med
ĠB un
integ er
Ġlift ed
8 50
ab ases
ĠFran ces
Ġ[ (
ĠD P
Ġreal izations
ina e
ĠH unt
Ġ[ '
Ġpredominant ly
Ġgu ided
Ġtre ating
Pack age
ĠS ustain
ĠC ot
2 16
Ġaltern atives
ĠÐ ¿
ĠD I
Ġy r
e als
J ob
th reshold
X T
i ating
Ġrecip ient
Ġmort ality
ĠL aura
Ġreprodu ced
od rom
Ġsh ield
Ġr iding
15 6
$ }.
ĠV el
gu ide
Ġinitial ization
Sp anish
Ġa est
Ġpo ets
Ġdepart ments
Ġm ath
as ive
ĠH I
Ġpresc ribed
Ġapprec iate
p ure
Ġdis orders
Ï Ĥ
k al
Ġb esides
Ġim posing
Ad ditionally
im en
Ġenter prise
ĠH i
Ġt ent
Ġins pect
Ġcomp ressed
mer c
23 5
T ool
Ġbe ating
}) (\
ĠK rist
Ġst uck
A bs
ĠA round
Ġbuild s
an che
ĠA ra
Ġcitiz en
akespe are
ip eg
Ġplay offs
Ġbo ats
Ð¾Ð ²
ĠM ut
b ie
ĠN ur
valid ation
ĠM eta
ry ing
ĠEd wards
ĠC G
ĠCirc uit
ĠGib bs
ĠT D
ĠI da
AM P
AR D
Ġbif urc
_ +\
spect ra
it ance
iz ard
E nabled
in ely
con tact
Ġwe aken
$ },
n at
In formation
ĠJeff erson
Ð ·
ĠM Hz
Ġdemand ing
ĠG B
ĠW es
oc o
Pol y
F un
Ġtoler ance
S NR
Ġsh aped
)) =\
{ }^
Ġm ad
ĠAd ditional
Ġdivid ing
st orage
tem por
Ġen force
om o
Ġdoub les
Ġanticip ated
Ġdecom posed
pass word
lass ical
Ġmin isters
Ġhun ting
OD O
part s
ĠIn surance
ho e
P b
Ġver b
) &\
Ad ditional
Ġequiv ariant
M ake
ĠNov a
h ind
})- (\
n umerical
pos al
T HE
c O
A pi
Ġavoid ing
F B
i ov
ĠSu ccess
Ġbare ly
Ġchar m
ĠB ot
Ġjo ins
Ġcalcul us
Ġmut ually
LO G
t ok
ĠWeek ly
ĠG y
pl atform
ĠT rain
ĠV irtual
ĠClin ical
ĠEx cell
ef ault
18 64
15 8
RE E
Ġsh ipping
Ġfun ctors
ĠCom ment
Ġcomm utes
Ġn ights
Ġorig inated
charg ed
ĠMont ana
ere nt
Ġenem ies
Ġpro s
Te ch
ĠN ormal
Sy mbol
ĠCom ments
be en
ap unov
ĠLINE AR
Ġad min
ĠE lection
ĠRe ference
Ġconv icted
Ġthread s
t l
Ġrele g
çļ Ħ
}\ }_{
ĠH ob
}_ *
Ġpro to
Ġsc iences
ĠYork shire
Ġpat ent
ĠG rad
et erm
ie u
ĠAr g
Cent ral
J ul
Ġt rem
Ġbreak down
15 1
Ġsu ited
Ġintu ition
T w
qu estion
Ed ge
ĠS B
Ġrect angular
ĠAgric ulture
ĠIran ian
Ġh olograph
Ġpsych ological
Ġc ust
b rew
ee a
ĠHer ald
}$ \,
ĠLu ke
Ġmut ation
Ġpremi ere
Ġh oping
am y
Ġtour ism
ĠTheorem s
ĠA G
Ġcon ject
Char les
M pc
Ġsl ave
determ ined
Ġst eal
Vert ex
id ered
S cope
15 4
sen al
ed ges
Ġca ption
Ġho pping
Ġterrit ories
Ġheli um
ĠM ail
Ar gs
h p
k r
id x
vari ables
Ġdiscuss es
Ġdocument ed
ĠGuard ian
g iving
18 61
Ġprom ised
ess ment
ĠQu arter
ou p
ĠStan ford
ĠBelg ian
Ġrot ations
tain ing
d S
l f
Ġyoung est
Ġr ated
ĠInd ies
Ġsustain ed
Ġal ien
ĠTer ry
Ġsuper gravity
[ [
Ġp orts
id ation
Ġ ^{-
Ġblock ed
c ub
pp ler
ĠW ag
ĠWork ers
Ġdevel ops
ĠFle et
A z
ma ch
Ġsus pic
Ġafford able
Ġsub manifold
Ġquas ars
Ġb rig
18 75
osp in
bra ket
Ġlabel ing
as ters
Ġguitar ist
Ġh orn
log y
ĠM T
h art
oc ratic
ĠTe acher
h on
Ġsound track
Ġbusiness man
ĠF light
sc ience
b ranch
ĠCl are
ĠPer ry
B esides
ĠS ent
ĠEp isode
Ġeconom ics
ĠHor se
Ġb ind
D ialog
ĠM end
writ ers
Stand ard
ĠB aby
Ġam ateur
cur ities
ĠArab ic
ĠSt rong
ĠS ak
ag i
Ġcount ed
Ġp ian
ĠA my
ĠB egin
Ġag gressive
Ġn g
Ġexp ense
Ġsepar ating
Ġfavour ite
ĠI celand
Ġcl er
or ious
ĠM ade
Ġqu ote
Ġj ew
ĠSe ctions
Ġfollow ers
ĠSoc orro
ĠF an
ĠColl abor
ĠVo ice
av ier
ott ing
Ġcon ductor
dom inated
iz a
ĠMad ison
ĠReview s
inv est
aster y
Ġ( âĢľ
15 7
Ġdet ections
del ay
Ġdistinct ive
Ġl as
ĠBer g
Ġvacc ines
Ġopt ically
Ġ& $\
St ructure
cccc cccc
en vironment
ĠP SF
ist ration
Ġindic ators
Ġdemon stration
z t
Jo in
Ġcon vol
ĠId ent
Ġemot ions
D a
ch art
ĠO ption
ĠB uch
Ġimm igrants
effect s
Ġc argo
um i
- {
Ġor chestra
ited efault
s sec
v or
ish a
Ġdef ending
Ġspons ored
ĠCon fig
mc itedefault
Ġhelic ity
Ġmet als
Ġqual ify
0 12
Ġp ink
99 9
)} )$
ĠAm sterdam
Ġadvers ary
Ġreg iment
th lete
ĠE ston
p ublished
ĠK lein
Ġposit ively
d ou
Ġ+ (
ĠF ro
Mart in
16 9
B egin
C RE
per ate
Ġegg s
G overnment
Ġtra ded
' =\
og on
el ly
ĠAv ailable
m k
Ġna ive
ĠH z
ĠConserv ation
ĠR ah
Ġbank ing
Ġlux ury
}}$ -
Ġf ighter
e ref
ĠE ver
)] \
spec ies
Ġconcept ual
Ġcous in
at tack
Ġconcent rate
Ġund erest
Ġparametriz ation
oper ation
ĠRog ers
Ġpet ition
L ead
ĠG host
Ġor al
âĢ¦ .
Ġtradition s
36 5
Ġrecept or
M ont
Ġre dd
;\;\ ;
b les
Ġind oor
TE ST
18 84
}[ (
Crit ical
Ġm anga
Q ual
Le ague
N AS
ĠFinn ish
inos ity
Ġpoll ution
Ġlog o
Ġportray ed
A u
Ġfib re
c ity
eg al
F uture
Plan ck
0 11
)\ }$
n ice
Ġd ash
ĠI M
ĠVictor ian
ident ity
4 000
de cl
Mem ory
100 00
Î ¼
Ġlast ed
S cale
Ġc of
aj a
ĠC over
oc ent
sh ore
Ġaccess ed
Ġlink ing
ela ide
Down load
ĠInt roduction
Ġdefe ating
ĠW ikipedia
Ġh ub
Ġlab our
Ġlo ose
bo ys
vio let
ta wa
Ġrefere e
Ġm arch
cc i
plug ins
}^{ *}
pen cer
Ġalt ered
âĢ ¯
ancell or
quir y
j p
Ġinfe ctions
ĠR M
Ġtra ditionally
Th ird
}\ }
Ġintu itive
Chang ed
Ġtarget ing
ĠA part
Ġorbit als
D epend
Ġem it
he ng
... ]
Su ccess
ado op
R ock
g ender
if th
Ġcl othes
lic t
Ġphenomen ological
Fl ags
J P
pr ises
ĠA ur
Ġmis take
ĠKe pler
he at
ill ary
ĠMy r
' }}
Ġimp urity
R ic
s ampling
Ġambigu ity
Ġsub stance
Ġsustain ability
20 3
produ ced
ĠColomb ia
he ll
ĠB ee
ĠKe ith
Ġj ury
ĠWat son
ch at
Ġdream s
å ı
ĠF BI
ox ide
col lection
I mm
ll l
S elf
b R
ĠM ick
[ -\
] ^-
ĠAll ah
Ġres il
15 3
ĠSer ge
ĠE state
ĠG ov
Ġsymbol ic
ĠI MF
P resent
Ġtransl ates
ĠN amely
ĠD S
Ġdisput e
ĠN y
ost ics
ĠD y
F ac
Ġattack er
ar u
de cor
Ġrep ly
Ġmon oton
ex ponential
Ġ' ''
bes gue
ĠC row
ĠAg ent
Ġcon finement
S end
to o
Ġplay off
ĠStr ategy
Ġm amm
Ġupd ating
am o
Book s
ĠL ac
ĠB A
mult iple
J ose
Ġback bone
Ġsp ite
ĠH M
out ube
pg f
Ġlov es
ĠMun ich
Ġj son
ĠCol lect
Ġbi ases
supp orted
Ġlock ed
Ġdifferent iation
umb ai
rac es
S aint
M g
20 4
ring ton
' |
Ġquarter back
Ġconflic ts
Ġde formed
Ch inese
Ġshift ing
Ġheter ogeneous
L ondon
B ol
E mail
T ex
Ġb ench
az ar
ĠF ra
ĠF ish
)} ;
Ġto urs
Ġr itual
Ġpe oples
[] {\
Ï Ģ
ress es
Ġd ressed
Ġboard s
b at
Ġv iral
n k
em in
hi er
- ,
at op
an ne
à¤ °
th r
ĠRet rie
Ġplaus ible
ĠC IFAR
ident ified
Cl ose
Ġsent enced
Ġbur sts
P ad
un s
Ġper ipher
Ġhon our
Ġcab inet
ĠR R
ac cur
Ã ¦
Ġrock s
Ġbel t
ĠSym phony
ĠPro b
` .
Ġmin istry
Ġtet ra
vert ical
osp heric
rog ate
for th
ld er
t ransport
ĠO bserve
+ (\
Te am
Ġevalu ations
G reat
h im
ĠV eter
b et
Ġfair ness
Ġmanip ulation
ler ight
ĠSt ef
ĠCre ative
ĠCub a
D est
Ġphil osopher
ĠW onder
ili ation
Ġb le
ant om
Ġun ions
16 3
l it
drop down
air y
ach t
ig ion
pl ant
ĠPhys ical
ĠLe vi
Ġeccentric ity
ĠR ivers
Pan el
em on
h orn
s amples
ĠO P
Ġfoot age
ho ff
Ġvort ices
ang les
. <
il o
Ġdesign ers
ĠSol utions
ah an
ĠP apers
de composition
inter acting
b end
ĠHol land
ĠBas ic
Ġl oud
Te X
f ine
}$ }\
Ġappropri ately
M ary
at ra
Ġin jected
18 83
Ġinf ect
T y
pl oys
press ure
ĠH amb
vis ible
Ġpa ired
it ations
Ġw orship
ic iency
ĠIs rar
L I
ĠMunic ipality
Ġbl ues
O k
ĠGener ation
Ġsh ops
add r
Ġannot ations
ound ing
ĠP rec
Ġpos es
Ġassist ed
bib item
p unct
ĠCam eron
Ġgather ing
ĠT M
s us
ish i
Left rightarrow
Ġg ly
Ġspeak s
Is ra
= |
Ġdisc s
L ittle
ĠLe besgue
ĠL isa
ser ial
alt ies
Ġle ar
Ġinteg rand
az i
friend ly
E lements
e ither
ĠR s
Ġsub mission
function al
}} },
ĠB ristol
Ġc rop
ĠG A
ĠC ob
17 6
18 82
18 81
Ġannot ation
ĠHe avy
Ġbur den
ĠCont emporary
Ġdimensional ity
m usic
Ġfavor able
ĠS ah
ab is
ĠTransport ation
Ġsatur ated
ĠK ids
J im
ĠBel ow
ĠH ash
ĠF err
Ġy esterday
The ir
ip se
ĠLu is
Ġsurve illance
Ġa mm
Ġclass ifiers
ĠP arent
Ġoff line
EC K
Ġag enda
in ar
ĠIll ust
3 25
ig ue
pro port
Ġpregn ancy
A li
ĠS ony
Over all
16 2
Ġhistor ians
ĠL ion
osp el
Ġinter change
) &=\
e ur
i ast
Ġpre t
Ġd ys
Ġorb ifold
tagon ist
18 62
bas eline
ĠLin ux
ĠS alt
v et
Ġaccount ed
Gener ic
16 4
/ (\
he ld
I mp
Ġre cycl
Ġsevere ly
Ġtempor arily
ĠDel aware
Ġnegoti ations
ĠPl atform
Ġsubt raction
{\ '
Ġexp edition
Ġwork shop
ĠV ector
ens itive
2 11
ĠB und
Ġwere n
Ġs its
ĠK umar
ĠO scar
sc ious
ĠSp ot
ch air
Ġnever theless
Ð ¹
ad ows
Ġte eth
Ġprov isions
Ch ildren
Ġpract ically
Ġm ood
Ġin sufficient
Ġn est
Ġinstant aneous
Ġ\ ;\
ĠR osen
ĠMil waukee
ID S
C ert
w i
m ixed
cy l
Ġfil ament
norm als
Ġpers u
ĠL loyd
add plot
Ġm os
Ġpre st
curs or
Ġhuman ity
poss ibly
s il
Ġcon ce
ta gs
qu is
T a
ĠY ugosl
Ġcomm emor
q a
Ġch ances
ĠPlay ers
- |
am ation
Ġfor got
Ã Ĺ
d iver
Ġsp ell
Ġfeed ing
Ġex otic
Time out
Ġtrans fers
be a
sm ash
Spec ifically
ĠC ome
Ġ< \
ĠAt tack
Field s
Ġpiece wise
ubb les
Ġen larg
Dom ain
out ing
Ġend emic
Re cent
ĠZ imbabwe
Ġpop ulated
supers cript
ĠC incinnati
Ġ }^{\
le ad
}] ,
Ġagre ements
hal o
g f
b eg
pre ced
Ġre q
Ġarch ive
ĠPhill ips
N M
Ġcar riers
Ġtend ency
Ġmultipl ied
Ġbi ology
Ġmem orial
ĠD eg
ĠMo z
y z
Ġsus pected
ĠT ib
; <
vent ional
18 63
Ġvers a
ĠS ales
ĠâĢ ł
im als
Ġexpect s
zy me
Ġdegrad ation
B ill
ĠA u
\ (
ĠSw ift
ĠCamp us
Ġrom ance
: [
D etails
Ġinitial ized
d yn
RE AD
Ġh int
Ġcylind rical
as ets
Ġresol utions
Ġj ail
re duction
27 5
paramet ric
od ium
Ġevol ves
18 78
sol utions
L F
Ġland ed
ounc ill
ol ine
ur d
Ġelim ination
E conom
\\ \\
You ng
Ġinduct ive
)] $
it on
Ġtri ps
ĠRoman ian
h in
Ġmod elled
Int erest
normal ized
clud ed
__ (
Ġwe igh
ĠK un
Ġs id
Al umni
ogen ous
ĠK id
+ {
Ġevery day
c ies
Ġmed als
Ġdu plic
Ã Ł
ys on
ĠSh ar
Ġdial ect
oth ic
d ense
ĠD raw
Mean while
Ġtalk ed
ĠWrest ling
Ġf ur
hab ilit
Ġb ills
fl ag
ĠPlan et
AS H
\ }^
In it
S ir
N GC
Que ue
c ott
ingu ish
c H
Ġdemonstr ating
Ġrem emb
Ġmark ers
Ġep ic
Ġcirc ulation
run ning
ĠBa ptist
ĠJ ob
ĠHel p
uzz y
Ġcat aly
ĠV eh
Ġansw ered
Trans action
V R
Ġfl att
prot ected
ĠT as
te enth
Ġtem plates
Q A
ĠS outheast
Ġstat ue
ĠM essage
23 4
% ),
Ġdo zen
Ġr ic
ex plicit
i ol
Ġt ribute
Ġass ists
by e
Ġsurprising ly
A BC
ĠApp lying
ĠP ere
semb les
Ġtown ship
ĠVerm ont
Ġdro pping
ex perimental
ĠTh under
âĢ¦ ]
gom ery
à¥ į
au nd
Pat tern
ĠGal ois
Ġoverse as
Con struct
Ġassert Equals
z el
| ^{-
Ġacknowled ged
ĠCh an
ĠD FT
ess a
ĠV ision
ĠCon c
` ,
ĠK ap
cont roller
Ġtre asure
J ECT
Ġapp end
Ġnom inations
K er
re pe
Ġdif fraction
d one
en o
os itory
O rd
b uck
18 76
S QL
Z ero
w avelength
Ġs isters
Ġb ay
ĠH at
est ock
Ġport ions
Ġrel ativity
Con v
ĠB ath
V ir
ĠU SS
Ġcam ps
ĠJ in
ok u
sh adow
t le
om ers
}\ !\
l ived
Ġprotect ing
Ġbene ath
Ġconvent ions
ell ers
ach i
p ine
Ġre called
Ġalleged ly
C AR
P rivate
ĠW R
H op
larg er
Ġcollabor ative
Ġastrophys ical
z ig
ID E
sche ma
ĠUg anda
F ollow
ĠSt ri
Ġjuris diction
Ġprevent ing
H uman
SI ZE
Ġth rew
Ġab ortion
Ġk a
}) )$
appro ach
ĠDat abase
ĠGl en
ĠD rug
Ġr ally
sim pl
ĠSh akespeare
ĠK ash
r ases
ĠB ene
sc roll
Ġf iducial
+ |\
L STM
ĠT ang
ĠG olf
En vironment
Ġlift ing
6 50
Ġt ribe
eg el
Ġexplan ations
ĠBut ler
ol ly
var nothing
he imer
Ġdeb ug
j ee
pro jection
Ġshow er
in finite
ĠCo ach
ĠR C
Ġp ounds
ĠHel en
ĠPref ecture
Ġsw ing
ĠNe il
av i
Ġadm ission
Rec ip
ĠIss ue
Ġco ordination
Ġprev ents
L B
Ġ$ >
ĠÂ ±
Ġimm ers
ĠDesc ription
Ġ }.
Ġm oth
Ġinfinites imal
Ġsmooth ly
Ġcomment ary
Ġspecial ist
b X
in fl
Ġremov es
Ġhon ors
ac a
Ġdenomin ator
ut ives
ĠTerrit ory
Ġenorm ous
Ġpregn ant
que ue
ĠS qu
ĠMil ky
phys ics
Ġn ested
ĠRepresent ative
ĠNep al
Ġsubsc ription
ĠSob olev
M ills
Ġl ighter
Ġsub stituting
s ix
Ġviol ations
T ilde
c ould
Ġadvoc ate
3 40
Ġre lying
20 6
ess ential
R ot
m eter
Ġfl ed
Pl ayer
Ġshell s
Ġfest ivals
ĠG az
Ġg amb
ĠArch itect
u id
Ġe ject
Ġb lo
Ġac res
Christ ian
Ġun supervised
18 68
med ium
Ġrecogn ised
! (
ĠC atherine
N V
ak ar
Ġstrugg ling
vis ual
ij i
app ings
ĠH im
ĠL ex
Ġpr imes
Ġcontradict s
d R
al ias
Ġfulfill ed
A rea
Ġt ilt
Ġel ite
Ġmunicipal ities
ĠConf eder
Ġdelet ed
ĠR aw
ĠW D
Ġcart oon
b ys
cy cles
ĠHar vey
fe atures
Reg ion
ĠRe cent
Ġdro ve
Ġbehav es
A uth
W C
_ ,
m otion
ĠR ather
ugh t
Ġcomp rised
Ġimp ression
Ġcol ony
ĠM IT
Ġvis cous
Ġcon vection
Ġh tml
ĠB ris
15 9
Ġachie vable
Ġassign ments
tabl en
M apping
ext ended
ĠMem ory
aur us
D id
am az
Ġexplo ited
he alth
Ġsy mp
ev ol
Ġfoss il
O UT
Ġfall en
j l
un certaint
to ols
ĠN athan
ĠCom parison
att ributes
ĠWinn ipeg
Ġun em
Ġviol ated
h istory
() {
vis or
ĠM ik
}( (
H ub
Ġow ing
Austral ia
Con stant
fra id
Ġpossess es
Ġsh or
V an
im ag
ĠA A
ĠB ear
Ġart work
ogen esis
Ġvirt ue
or ov
maxim um
to pe
ĠR H
Ġwork load
Academ ic
Ġs ax
LE D
ca ps
Ġ ],
normals ize
ĠA irlines
Rep ublic
comm it
Ġpre vention
ist ani
Ġattend ance
ask at
Ġchampions hips
Ġp ub
Ġ' /
tab colsep
z ens
ĠComp etition
2 12
Ġparliament ary
Ġdeliver ing
ĠJenn ifer
w y
) ^{(
Ġdev ast
Ġachieve ment
ĠK in
ĠProgram me
Ġhypersur face
r ific
", "
Ed it
L INE
ac ency
ex periment
Ġopt imum
fe ed
Ġfac ial
Ġpath way
Ġcasc ade
ĠG ets
' }(\
ĠP ont
? )
other mal
With in
! )
ut a
K h
ten ess
Ġman ages
p k
Ġprogram mes
is cher
Ġcon duction
ie ce
Ð ¿
is ible
ĠA ctor
22 2
ed i
Ġpropag ating
d iss
X ml
}) \,
C AL
ch apter
ĠR NA
19 3
Ġencourag ing
Ġfant astic
ĠCy cl
, ~\
p aren
Ġph ones
ĠB eth
Ġall oc
deriv ative
assert Equal
g m
Ġbar rel
0000 00
Ġe arning
p her
Ġten ure
ĠPhil osophy
Ġelabor ate
pref ix
j ournals
ampl itude
bo ost
ĠG amb
Ġforb idden
is im
or ic
Ġmult ivariate
ĠComp ared
ĠAud io
im an
Ġadopt ing
18 8
ĠM aterials
Ġform ats
Ġattack ing
Ġblock ing
ĠAd elaide
Ġcon vergent
ĠDe ut
e cho
Y ang
Ġdecor ated
ĠM F
om p
^- _
Ġexcept ions
Ġdismiss ed
qu art
od o
ovak ia
pt s
ĠSo on
ĠA viation
us hes
Ġproceed ings
Ġat tained
Comp iler
Ġpur ple
Ġcomplic ations
b ane
Â ±
Ġgradu ating
ĠOpt im
20 7
sh i
un signed
Ġsal ary
Ġaffili ated
Dan iel
m ount
17 4
ĠCom merce
ĠIn put
par box
==== ==
ĠO bs
Ġed itors
ĠCroat ia
ĠV a
lim inf
Ġenc ounters
F rance
Ġk nee
R am
ge ometry
Hel p
P ark
n om
in frared
21 4
' )$.
Ġra ises
att s
0 30
M ah
p ark
Ġs ulf
Ġinter stellar
21 7
Ġconjug ation
pir atory
ĠK as
ĠEmer gency
ta ur
Ġlegit imate
ĠDise ase
Ġplate au
Ġper pet
ĠTr inity
isher s
N ET
nt hetic
b rief
Ġintersect s
Ġsur f
@ \
ĠArn old
Ġb ump
F ramework
K A
Ġex clusion
ĠQ uality
m or
ĠY a
Ġcod imension
ne um
Ġlo ans
ĠSh ip
Can ada
enc ia
leg end
N s
. __
Ġfol ks
| |\
ber y
Ġfail ures
ĠHug hes
Ġrun ners
ĠPer iod
load ing
Eu Script
Ġcl ump
ĠN otes
Ġm ature
[ :
m ind
18 67
ĠInd igenous
ĠP ent
ro e
ingu ished
; /
ĠN intendo
Ġwrest ling
sh ows
Ġpro gression
Ġun c
] )$
Ġrender ing
un iversal
Conn ect
A X
ull er
Ġvir ial
U k
ose x
oding er
Ġde compose
, [
Ġrecurs ion
Ġstay ing
ĠU L
}{! }{
ĠRe ed
Ġw ishes
{ ,
ĠA w
c S
at io
Ġc ad
Ġneighborhood s
Ġal arm
}) }$
Ġhar ass
ĠForm er
rypt ed
ĠH az
Ġestabl ishes
B Y
Ġic onic
ann i
ĠSc i
Ġmark er
Ġvolunte er
ĠT itle
Ġcho oses
re ne
cl ed
á º
ĠL amb
mat rices
Ġre conc
Ġobst acle
am med
Ġtravel s
ĠV otes
M arg
p ub
land o
Ġpost pon
Ġscre ens
observ ations
en os
yp ically
Ġ{ '
Ġl unch
18 9
ĠAr c
Ġ\| _
station ary
N U
Ġvacc ination
W ater
Ġf atal
Ġprint ing
Ġtechn ological
Ġcur riculum
Orig inal
follow s
Ġmyster ious
18 7
M oths
ile vel
Ġpers pectives
B K
ĠA bs
att y
ĠEn c
ran o
Ġsolit on
Ġ\ [\
ĠMe eting
ĠCart esian
ĠZ ero
Ġball ot
Ġintersection s
m os
Ġlif estyle
constra ints
17 8
fl ush
Roy al
b ird
ĠBudd hist
imens ional
Ġcong ru
G rand
ĠL ay
Ġtrib es
j ab
Ġcivil ian
A verage
ĠL F
add ed
ĠEnter prise
ĠR ou
Ġobst acles
Ġconvin ced
| (
ĠLet ter
et e
ĠT it
Ġjudg ment
Ġ ip
ĠL is
Ġgrand father
R M
Ġbul ge
Ġpric ing
ess ages
ĠLeaders hip
Ġpol ym
$\ %
}( [
P ac
Ġtrust ed
Flo at
Y Y
S FR
g p
Ġex empl
oper ators
Ġcooper ative
ov al
Ġg i
ĠG ang
ĠLe ave
) })\
}+ {\
20 9
IM O
Ġweak ness
Ġour s
sub script
4 80
Ġd ans
Ġis ometry
ĠAl pha
Ġchrom os
Q C
E instein
Ġrend ered
a que
Ġall ies
Ġbroadcast ing
Ex pl
Ġwarm ing
Ġrecur rence
L iter
Com plete
Ġdep ths
ot er
Ġwild life
Ġd ex
ĠM idd
ĠJul ia
) }}{\
n z
p it
_ (
b k
Ġp ale
Ġcan on
VER SION
Ġinstance of
Ġintern ationally
key word
ĠW ells
Ġth ir
w ent
pp y
Ġmuseum s
Ġco at
Ġsche ma
Ġw ard
Tra ining
ĠB P
rotate box
Ġconcert s
ĠL iga
ĠSh op
Ġdecl are
= ~
ĠP or
ik ov
bell ion
Ġpro poses
ĠAct ive
array stretch
ex pr
Ġcalib rated
Ġres p
I AL
} ~~
Ġfarm ing
du ality
Ġbl ast
v d
Assum ing
ĠO H
18 3
in ery
18 79
up d
ĠShang hai
Ġ )^
E ll
rac ing
Ġ- (
measure d
c aster
Ġsem icon
Ġl ith
h c
Ġline up
in en
Ġst ocks
Ġsav ings
rest rial
~ .
Ġspecific ations
& +\
Ġcro ps
Ġr ises
00 9
id y
igu ous
} &=
ĠSim ple
Ġinsert ion
ĠI gn
Ġfunction als
ĠDra ma
Ġfriend ship
Ġmerch ant
Â »
Â ·
ill es
Ġart illery
w oman
Ġy ard
Ġun cle
ĠCan al
ĠSol id
ĠF at
Ġwarn ed
A h
[ $\
Ġarg ues
L imit
man ager
â Ĩ
enc oder
i ological
Ġprop ri
Cent er
ĠDist ribution
R ound
Î ·
Ġsc ra
Ġearthqu ake
Ġtransc ription
ĠStart ing
hel m
Ġdoll ar
the m
17 1
Ġshould n
ION S
f mf
th ose
ĠT odd
Ġrevers ed
Ġmurd ered
ĠWall ace
ai ro
Ġadminist ered
T our
al tern
Ġmanufact ured
ĠPer haps
text sl
ocol ate
ĠSer bian
AS P
Ġ um
Ġmon oidal
ĠCommunic ation
Ġanxi ety
Ġin consistent
st en
ĠSt atus
ĠChristian ity
Ġanalys ed
ĠT arget
Ġcon vey
ateg or
Ġsatisf action
Ġnum b
he x
re lease
}\ }$.
ĠJ ar
Ġprec ip
prov ided
Ġqu ench
Ġsum mit
Ġpat rol
An aly
Ġrot ate
Ġc attle
Ġn ose
Oper ator
c D
Ġst olen
ĠB oe
big wedge
Ġem ploys
ĠInterest ingly
Ġhand ler
ĠCirc le
att ribute
Ġalleg ations
res a
F und
ĠR alph
Ġbr ut
Set ting
Ġpreserv ation
P ATH
Ġlept ons
call back
Ġb en
inu ous
Select or
ĠTh an
ĠMunic ipal
ol ition
arr ison
Dem ographics
ac er
17 7
Ġ\ >
Direct ory
Ġint ensities
Ġtor ic
Afric an
p ion
Ġjust ify
observ ation
Ġazimuth al
Ex pr
< -
ĠL R
P ubl
Ġreveal ing
Vis ual
col lect
Ġl iver
found er
J ud
å ¤
m ans
Ġbl ur
Ġlet s
P ic
S equence
Ġextra ordinary
bos on
Ġint elligent
sp arse
h ide
18 4
Ġsett le
] -
Ġtra iler
Ġb ootstrap
Bra zil
ĠCon versely
Ġexpl ores
al is
ĠY ale
Q R
e i
L en
rag ue
ĠGl ass
al am
Ġfun eral
F iles
Ġdat abases
ĠFil ip
Ġs li
Ġfix es
g rim
18 40
st rict
Ġauthent ication
set ting
Ġwork flow
ĠAl t
Ġrenormal ized
ĠEm ily
ĠDec ision
in her
Ġpri ors
ĠLeban on
ĠR achel
Ġgain ing
Ġchalleng ed
ĠNash ville
Ġf iscal
Ġtra dem
Ġfl our
Ġburn ed
n ell
d an
Ġperm its
ĠBob by
ĠÃ Ĺ
Ġlemm as
B ottom
ĠFR OM
Ġatt ractions
asympt otic
B road
Ġn urs
Ġbenchmark s
P ers
h agen
m us
Ġdis advan
Ġcra zy
Ġsc ar
á ¹
18 71
19 4
ĠP ul
ĠVal ent
Ġk iss
Ġweight ing
Profess ional
E mb
Ġor che
ĠMathemat ics
Ġprim ordial
v t
unt ed
" /
Ġall iance
), $$
ĠV ict
Ġsm oke
a ft
Prot ocol
ir med
opt ical
roid s
ĠBer ry
Ġd rain
Ġle an
Ġhistor ically
Ġ ul
ĠGerm ans
os ition
J SON
c L
ĠNe ural
17 3
ĠD ictionary
ĠCom plete
ĠP f
ĠM az
Un fortunately
Ġn inth
ist le
Ġsubsidi ary
trig ger
Ġp ipe
ĠA braham
pe red
Ġin ad
}\, {\
S ame
Ġ[ ];
ott i
Tra ce
Ġd ancing
Ġreg ards
Ġanomal ies
pre vious
comple t
Ġdedu ced
Person nel
Ġpool ing
//////////////// ////////////////
F act
17 2
Ġprodu ctions
pre v
Ġsupernov a
| >
general ized
Hig gs
Ġ$ *
ia z
33 33
prot ocol
Ġfin ishes
Ġdecay ing
P aper
ĠMet al
ĠBor ough
ov ic
Ġsub system
}{! }{\
i ya
uck land
J ava
ĠM atrix
ĠEn cycl
] }(
b right
ĠU I
\!\! \!
Ġg y
'' \
j ournal
ĠM umbai
class ification
Ġb uses
ĠDisc overy
Ġsynchron ization
Ġauthor ized
ĠR A
ĠY ellow
ĠCap itol
as ury
Ġsp ike
AT ED
Ġresear cher
Ġco h
Ġden oting
Ġcommun e
ĠTre k
Ġen rich
add y
Ġmic rowave
UN D
ĠEm ma
A mazon
Pro xy
ĠAthe ns
Ġfood s
Ġheav ier
ro us
18 77
ĠOak land
diff usion
18 72
Ġframework s
C as
up ta
ĠO K
23 1
c av
^{ '
em p
ĠG yr
ĠSy l
Ġannot ated
Ġpsych ology
Ġend owed
st own
Ġdest ro
ĠM ul
ĠJacob i
exist ing
f u
ĠJup iter
ain ter
S ER
Ġsc anning
c ourse
ĠR ules
16 1
}\| _
ĠK ill
Ġse cular
H ung
Ġcross ings
æ ľ
con verted
Cl uster
Ġflow er
arc s
ĠOr d
Ġl ane
ĠM ario
om ical
ĠM ari
20 24
ĠTh ai
es pecially
Ġl ig
Ġan ch
Ġ" /
print s
} ')
Ġal umin
cre ated
ĠPan el
Ġn itrogen
30 1
ĠR isk
Ġstri kes
ĠHop kins
im o
St ruct
Ġerg odic
Ġse ver
0 13
3 45
] &
, +\
ĠH arm
Ġint ensive
Ġgovern ance
A ff
is ol
ĠE volution
ĠB ald
ĠCh andra
osoph ical
ĠIndepend ence
ĠCor on
he avy
ĠT ables
ĠVenezuel a
Ġper f
Ġu pset
Ġwe ird
ĠD IS
Q Q
Ġj e
H ot
Ġto ll
ogn ition
ex cit
10 16
che z
ĠH ab
AC S
K it
ĠPract ice
Ġpick ing
ell ows
ĠHer bert
Ġisomorphism s
Û Į
Ġsp ans
Ġnon local
N ative
text superscript
ĠB etter
be at
Fl ag
20 30
)} -\
Ġd ying
Ġeditor ial
Flor a
ĠS creen
e lected
Ġcre ator
Ġparametriz ed
Album s
us a
ext ra
Ġjav ax
! [
Ġad verse
ah l
Ġdiffe omorphism
ĠEm ploy
ĠR ams
Ġshe ets
et itive
Ġsil icon
gest ion
it ively
s ay
cer tain
Ġmon ol
)= {\
ĠD W
hent ication
Ġdead line
Me asure
Ġcook ing
Ġt ap
Sc ience
ocy cle
[ ->]
accur ate
c ategories
Ġellipt ical
) }^{\
ĠM ine
< <
^- (
ĠC ay
ĠF robenius
unt ary
Y S
ĠSchwarz schild
Ġinaug ural
Î »
ĠV R
Ġincred ibly
ĠP u
ĠK ind
Ġair line
Ġun biased
ĠFil ms
18 74
Ġexplo iting
ĠAn cient
g b
*}[ !
Iter ator
t ol
* ,
Ġed itions
com par
by tes
r ub
re ctions
mon ot
tempor al
ĠT X
Ġconstit utes
arab ic
F K
n h
Ġinst abilities
Com pan
Ġste pped
Ġper cussion
Ġg ig
un ar
Ġf uck
ed e
type of
S wed
Un like
ĠC ry
J on
b ons
Ġf ibration
Ġw orm
id ays
ĠArt ists
ĠRod rig
enn ial
Ġst up
Wid get
S ong
ĠG ilbert
It ems
Ġenerget ic
Ġde alt
ĠConsider ing
Ġsyn chrotron
ĠSt uart
ĠÎ ¼
}{ @{}
Ġment ions
vel t
ĠIn stitution
ĠH odge
ĉĉ čĊ
Ins ert
P ur
_ ->
Ġ$ {{\
c amp
fl ags
Ġdie lectric
p icker
Ġdiscrim in
ĠPar ad
c P
i encing
r put
Ġwealth y
ĠL ov
Ġanaly se
Ġple ased
ĠB ach
ĠF E
ĠS old
Ġl ady
ok o
Dat abase
ĠBulgar ia
Ġo c
ĠBat man
Ġlum inous
names e
ĠPen insula
p hen
P od
oc on
op ol
ĠCurrent ly
Ġal beit
Ġquant ized
Desc riptor
Ġthr iller
ĠT at
Ġnon empty
Ġanaly tics
n ut
Ù Ī
ĠV e
Ġquas ar
"> &
Fig s
Ġcry pto
Ġexc av
bro ok
Ġel ong
y alty
Ġ riv
band s
Ġt weets
\,\ ,
Ġingred ient
Ġs overe
ĠR ole
serv ices
ĠAzerbaij an
test ing
rab ility
yn chron
ĠS EC
Ġk iller
ve rest
sim ulation
defin ite
ĠNorth west
uff le
( @
}$ (
approp riate
Ġd B
cons idered
ĠS or
L anguage
M ale
con cept
y ellow
}) ^\
ĠHal f
ĠGro ve
y en
Ġscr atch
sh ock
Ġwra pped
ĠFant asy
ĠN om
Medal ists
s ources
Ġre pository
Ġexp enses
ĠJacob ian
ĠH ousing
Ġaccum ulated
18 66
11 11
Att ributes
ipl inary
Ġin homogeneous
g rowth
ĠM ills
ĠBenn ett
ĠU P
D etail
f an
sh ared
Ġgeodes ics
H ouse
Ġlinear ized
ĠS ierra
22 7
Ġjournal ism
) }_\
ĠW IT
ĠT ick
22 8
ĠN SF
$ +$
mod ified
ON G
Ġpen al
ĠInvest ment
s ent
30 4
ĠUS D
H erm
ĠB ose
Ġnation wide
ĠIo T
r ules
ĠS ultan
Ġm ines
}} )$.
ĠEx perience
esc opes
Ġproduct ivity
Ġkn ots
Ġtest im
al one
Ġoptim ality
Ġreserv es
Ġkid n
ew ard
ĠG rowth
). \]
preced ented
E r
ĠE ar
ĠTr uth
Ġl uck
sm ith
Ġnil potent
M ove
ĠKe ep
Ġmake up
et able
Ġsy nonym
Ġbank rupt
ĠTy ler
Con struction
Ġh oney
ĠM illion
Ġexam ining
ig ating
ari um
ĠOt tawa
J ones
p ire
ap os
]{ $\
Ġtrac ed
un ting
and ez
Ġfif teen
Ġmart ial
ps line
ĠHe brew
Ġaccept ing
m ons
en abled
ram id
)= (\
{\ ,
all ed
Ġn erv
Ġout liers
Ġaccum ulation
ĠF ollow
ov an
um m
M ex
Ġcon greg
chie ve
rac ies
ill on
ĠRequ est
ĠH ST
ĠW er
ĠBy z
Ġtrav elling
Never theless
rot ation
comput e
ĠBit coin
Ġqu iver
acc ording
ĠColumb us
Ġd b
Ch ris
res et
c x
ĠS pencer
ĠD ennis
/ {
ĠAn imal
Ġown s
a q
L Y
Ġfor wards
Ġpay load
Qu antum
}_{ [
ĠWood s
ĠHis panic
B etween
ĠSt yle
Ġpoint wise
0 50
om ials
Ġdef ender
Ġrele asing
Ġimplic ation
d it
v b
ar Xiv
ĠP av
cu ador
t oc
)( -
o ct
erm ost
Ġc rim
ĠÐ ²
Ġg au
= &\
Ġmult is
ĠĠĠĠĠĠĠĠĠĠĠĠĠĠĠĠĠĠĠĠĠĠĠĠĠĠĠĠĠĠĠĠ ĠĠĠĠĠĠĠĠĠĠĠ
j query
le arn
ĠGe or
B ell
Ġmot if
ĠClark e
sens itive
ĠH ugh
ĠM ob
ĠPart icip
ĠE valuation
ho o
ĠIsa ac
C over
ĠK L
Ġless er
ĠTechn ologies
+\ !
Ġproblem atic
Ġretrie ve
Ġbe ars
ĠE sc
ĠB ERT
Ġmon omial
S ect
Ġtransp arency
Ġpred icate
Ġviol ating
ĠOther s
Ġback ed
Ġelectron ics
uss els
Ã© l
Ġf ut
Ġbr ighter
Ġex ports
ut ers
ĠB ent
ĠChel sea
> :
Ġa uth
Ġw age
Ġpe ers
ĠInd ividual
Ġphys ic
ett es
ou lli
Ġsmooth ness
est im
ĠĠĠĠĠĠĠĠĠĠĠĠĠĠĠĠĠĠĠĠĠĠĠĠĠĠĠĠĠĠĠĠ Ġ
iz za
Ġrow span
l k
eg an
Ġthere after
Ġhum or
ĠD oll
}' _
Reg ular
Ġen sembles
Ġlie utenant
Ġf ocal
ĠS ize
coupl ed
Ġescap ed
es ters
Ġdom inance
'] )
Ġvoc abulary
Lear ning
neut ral
Ġre feren
p are
ir re
ps fig
_{ |\
40 4
ER N
ĠSpe aker
Ġgrad es
h istor
Ġtal ented
Ġresemb les
irect ed
Ġque en
n ai
Ġpress ures
con tr
g art
un ks
ĠH ubbard
Ġtub es
i ably
pl aced
Cont in
Ġquadr ature
conj ug
Ġre jection
el ong
Ġcom merc
Dep artment
cl usters
pl ess
Ġhe ights
ĠH av
Ġchap ters
D ark
Ġe uro
}+ (
Ġsett lements
Ġion ized
Ġalt itude
Ġfeas ibility
I o
ĠS itter
Ġep it
OR Y
magn itude
ĠN othing
Ġanten nas
ĠCh arg
m iral
ĠE c
el in
T x
Ġspace craft
Se lection
ĠEvery thing
Ġrein forcement
U pper
W H
ĉĉĉĉ ĉĉĉĉĉ
Ġgl obe
Ġannih il
A st
D IS
ĠW id
18 6
St op
Ġbe aring
ĠAdvis ory
D H
ĠGab riel
L ib
c X
Ġprior it
Ġsur pass
^* _{\
ĠTreat y
Ġreplic a
ĠB ak
Ġbas in
Ġprevent ed
\ })
Sh are
ĠIn side
ist ered
ĠCal cul
Ġexec utives
second ary
V O
the refore
OD U
ĠTh ank
Ġtour ist
ĠDe al
Ġlack ing
Ġhist ories
acc uracy
R ole
Ġlob by
er ial
ĠAcadem ic
ict ions
f air
en burg
Ġnecess ity
Ġhe ated
ETH OD
ĠIR S
b w
og an
Ġexpress ing
ĠB ound
de creasing
Ġc inem
j ob
ĠB ug
_+ ^
ĠIniti ative
Ġen rolled
Ġz oom
ĠP erm
ng th
)=\ {
ĠSl oven
ĠPhilipp ine
g ins
Ġeffic acy
rif ice
ĠN EW
ress ing
Ġf n
ord ering
ĠS askat
path s
Ġg reedy
gl ass
andid ate
' _\
h adoop
Ġgram mar
Ġb tn
ĠHer z
Ġpro c
S ar
ĠAbb ey
Ġrememb ered
sp ort
18 48
Ġflu ores
Res ources
wart z
ĠFlore nce
cell s
ĠCol umn
Act ivity
ĠH S
ĠN ancy
th row
po or
Ġstat s
olog ic
}| ^{
hard t
ĠAm endment
assert Equals
Ġf ingers
eler ation
product ive
}/ {\
triang leright
Ġdis ability
Ġs el
ĠN H
ĠESP N
Ġpack ing
Ġsquad ron
sp atial
Ġexclud ing
le af
pro gress
Ġorigin ating
G er
s chool
ĠB B
Ġi OS
ĠSh are
,- .
ĠP U
Trans form
Ġinstitution al
ut f
Ġsculpt ure
T urn
Ġsur ge
29 0
y on
Ġdefend ers
Tax a
m oving
=" "
face book
ĠT F
ĠC raw
Ġacceler ate
Ġpit cher
ĠSum mit
Ġincorpor ates
Ġstake holders
c ass
Ġw orn
Ġinter ventions
Log ger
d ip
Ad am
J ournal
er ie
Ġoverwhel ming
integ ration
g alaxies
ear ly
Ġcre am
Ġadjust ment
Ġshel ter
Ġsear ched
Ġtimes cales
ast ics
Ġv ig
cred ited
ĠFW HM
ĠG or
flu ct
vi ate
ĠA j
\ }}\
Aud io
ore tical
atin um
Ġp ent
ĠL C
Ġreal m
18 73
ĠP aram
Ġsem if
ĠPed ro
atter y
By Id
}) )\
Ġd ad
Ġhom eless
ĠW A
ĠZ ar
ĠSom etimes
ä º
re call
m ol
Ġconstitution al
ĠN W
ul ators
ĠSy rian
w at
sl ice
cross ing
ĠM aking
ĠSe bast
Ġinform ative
Ex periments
Ġcondition ed
cent ric
equival ence
ĠFa ith
ri o
ĠV II
Ġemer ges
ĠP sy
Ġwind ing
in us
F r
Ġretrie ved
bf series
ĠN u
Ġtourn aments
Ġdi vergent
17 9
ĠSocial ist
18 2
ĠVi ol
Mach ine
ro cal
ĠCho ice
an ia
Ġbary ons
Ġtele phone
ĠMerc ury
z yn
lum inosity
ut z
ĠCor p
ig ator
Rem ove
Ġpredecess or
en ched
ĠC riminal
On line
T aylor
ĠB ears
Ġcont ested
let te
Ġmultip lying
ĠG ust
Ġmultipl ier
Ġu pl
ĠR uth
ĠSp ider
polynom ial
ĠLuc as
Ġd oping
Ġh ung
Ġrefuge es
ĠBel arus
Ġsoci eties
emph is
ĠA verage
Ġr h
Ġbroad ening
ĠM aced
Hon ours
A mb
ĠMah ar
Ġcollaps ed
Ġcolor ing
Ġmit igate
normal font
ĠM SE
Ġca ution
ĠR ena
ĠCon cert
ibl ings
h ler
18 30
) &=&\
orth ogonal
an ch
es ar
Ġmin eral
Jew ish
id ual
match ing
s gn
ĠMar x
AN S
Ġlock down
ĠLe eds
ĠH yp
ix el
UT F
Ġh oped
ĠA ve
}^* \
ĠC SS
v phantom
ĠR ate
ĠTerm s
ĠLeon ard
Ġre nov
ĠS ame
Not Null
ĠEdd ie
ĠA ber
Ġinv olution
Ġdemoc ratic
ĠAdvent ure
Ġn utrition
us c
oper ative
ĠPeters burg
-> _
Point s
Ġhand ful
Ġsl ide
ĠPark s
26 5
Ġa viation
st ed
esc ence
det ection
ext end
Ġle agues
Ġund ers
Ġachieve ments
as pect
ĠA SS
Ġa pi
ath i
ĠAn a
dra wn
ĠDe cl
Ġholograph ic
16 00
odrom y
Ġinf antry
ĠGreg ory
A thlet
Ġcomp elling
Ġr iders
23 2
ĠK yle
ĠC lear
p ent
3 10
Ġro d
ert s
im edia
Ġneur on
ok i
Ġpost er
Ġrank ings
x u
ĠU TC
Ġ" -
3 80
Ġdis rupt
met adata
ens pace
anc ers
Res ol
Ġgard ens
Ġt ier
Sp an
uis ine
th rows
ĠN uclear
18 57
Ġcus p
Ġcon ferences
ĠCho ose
ĠK i
Ġess ence
ak is
Ġcondition ing
Ġlegend ary
][ '
ĠI E
Ġse vent
. ''
* [
ĠCl a
Ã± a
ĠA V
22 6
Eq s
iling ual
ĠD rum
Ġre combination
}. \]
** *
ymm etries
å ħ
or f
Ġre min
Ġaff air
H aw
Ġclar ify
iat ric
an ol
ĠS oci
}' (
res ources
Ġgraph ical
print f
ĠML B
Ġp ig
ĠP N
ĠW W
color MAT
Ġeigen vector
Ġslic es
M ix
ĠJ S
ĠS witch
Ġme al
Ġtrem end
Ä Ł
Ġ Ñģ
ĠDown load
ot ics
ĠJ ets
ert on
ĠMont gomery
Ġempir ically
ĠB rain
ĠFe atures
Ġworld s
Ġevery body
f urt
Ġmonoton ically
Ġpat ron
ĠChar acter
ĠComput ing
ĠHaus dorff
ĠPet e
Do es
ron ts
et own
ge x
ĠSt op
Ġf ru
ma pping
Ġw r
Ġmark ing
ig rant
ĠW E
Ġpresum ably
/ [
Ġc iting
ĠL M
n x
Ġform ations
ĠD NN
Ġprov inces
Ġprof ound
gl uon
At l
Ġdiv orce
Ġflav our
ĠG ol
ine es
Y au
ĠE N
Ġemploy ers
J D
ft en
ĠM atter
Ġdel ivers
bul k
Ġmar ry
à¥ ĩ
Ġ( ``
Ġpack ed
ĠLy apunov
vary ing
: {\
N eg
Ġa thlete
ĠAl ger
X ML
Ġoptim izing
ĠProdu ctions
Ġt ile
ĠG em
Ġearn ings
in ters
ĠL if
r p
Ġexper iencing
Ġsl ots
Ġport al
Ġgr asp
Ġw ore
ĠE S
ĠCom edy
f uture
Ġse am
isp here
ĠUE FA
Ver b
abel ian
K a
ub le
ane ously
_- $
od ers
Ġclean ing
Ġsort ed
Ġf ires
}, $$
Ġ$\ ,
Ġtox ic
ĠYank ees
ant is
Ġcon es
ĠE du
be zier
Ġd ump
ĠThe od
ĠMar cus
ĠK E
Col lections
O bs
am pton
spec ially
g old
ĠHar bor
Ġske leton
P air
ĠM M
ĠPal mer
Ġconstitu ent
Ġen roll
Ġmed i
tab s
rr bracket
os calar
& $\
ĠPro perties
ec ell
C red
n is
fig ref
Ġprob es
Ġsignal ing
Ġbul let
Qu ant
Ġf ighters
reg ions
econom ic
Ġtransport ed
allow ed
Ġsc roll
g ives
Ġang ry
Ġhaz ard
Ġcon vective
it eness
ra ges
Ġter rible
Ġg ri
ric hed
Ġd Ã©
\, {
ra k
}. )
IS A
Ġmand atory
ĠW AR
Ġmet abol
ian i
ĠCy ber
h fil
r ather
ĉĉ Ġ
leg iate
ĠNor folk
ra de
28 8
Ġneighbour ing
ĠE t
ĠHamilton ians
18 69
yl an
M sg
R ate
el ia
Ġmonop ole
ĠN ATO
con formal
22 3
play ing
Ġpropag ate
Ġeth ical
iz ability
op ens
elling ton
hand ler
assum ing
Ġemphas ized
- (\
ot i
Ġgu ards
cont ribution
Ġare na
Com plex
ĠSch midt
A H
Ġc ens
Ġd ining
av oid
enc il
Ġbi ography
att i
Ġax ion
ĠSud an
ĠVen ice
ac ional
ll bracket
S us
ĠBi ology
theore tic
ĠI BM
Start ing
rapeut ic
Ġ\ {(
^* )$
Ġpoly gon
^* =
AN CE
Ġeigen functions
ĠU C
0 75
ĠL abel
Ġtr ump
Ġredu ctions
ĠA uckland
Ġby pass
en es
Ġj Query
Ġder iving
S ave
Ġsuff ix
mak ecell
P en
ĠTes la
K D
em ption
ĠChem istry
ĠLag range
Ġsyn tax
v on
Ġcon verse
ing o
Ġshe aves
g le
ĠLine ar
Ġa fraid
ar is
ĠIda ho
respon s
PR L
ph oto
Ġpal ace
E valuation
Ġim perial
Ġwork force
Ġnumb ered
ĠSp in
Ġhyper plane
50 1
Ġdi abetes
Vari able
ĠS ang
ul o
ĠF oot
Ġfree ze
ĠCour se
s low
dis pers
Ġaut oc
ĠGra duate
per cent
22 1
Ġpow der
Ġlaunch ing
âĢĿ )
eg u
St okes
min o
log ical
UR I
ĠAssoci ate
ĠP icture
Ġ[ âĢ¦]
arch ive
Ġtransform ing
A gg
Ġh ind
itte es
ĠHy per
Ġst ems
23 8
ival ent
ren ormal
Ġdet erior
Ġbran es
ere rs
Ġ[ ...]
++ ;
b org
{ "
A gent
Ġre he
Bel ow
Ġ io
18 59
y x
ĠC CD
ĠLiber ty
Ġdoub let
T er
ĠE ight
Ġpur suit
a ired
ĠN V
I l
å ®
ĠD anny
ring e
Ġharmon ics
Ġf ung
ose velt
Ġd ir
Disc ography
ĠWild life
Ġdivid es
Ġadv ised
ĠC ool
Ġcontract ed
Ġo verest
ĠD aw
Ġtransmit ter
ĠV ers
ding ton
0 24
con volution
* (
}) |
pro per
ĠT S
ĠF ashion
26 4
ra ment
ĠS ale
AD D
ĠProt ocol
m is
Ġview point
ĠM n
ex plain
Ġp ist
Ġex changes
ot hesis
ib a
Ġwave function
Ġcontext ual
im i
ort ium
ops is
C ut
ar re
ĠSc ore
Ġun necessary
Ġbl ame
ĠFran co
ĠAss ociated
ĠL com
Po inter
Ġl ymph
ĠD ame
ĠCont ract
ĠB M
K T
ĠC lick
os y
Ġfilm ing
ĠFour th
a fe
ph rase
est e
it ars
Ġtail s
ĠBir th
st raction
40 1
ed o
ĠW ave
Ġanth rop
Ġsur gical
Ġfund ament
Ġre forms
str ut
Ġdiagn osed
oy le
ĠNiger ian
mer ge
icy cle
Ġround ed
Ġhospit ality
in de
And rew
ĠR oot
att ing
Ġquas ipart
OM E
ĠTom my
plet ed
S tage
Ġabund ant
roph ic
Ġvis ually
O l
ĠF oster
fin ity
0 14
() ).
T ABLE
Ġc ob
Ġto mb
ĠT ampa
tt i
Ġorient ations
}} &
qu ist
ĠSur v
ĠĠĠĠ čĊ
equ ality
}. \\
, {
Ġdem olished
oul os
ĠK or
Ġcomprom ise
Ġprom ises
y t
Col lege
ex tern
Ġdraft ed
Label s
Stat ement
ĠN J
Ġla pt
^{+ }
B and
Ġpos itivity
Ġbi om
colorMAT HA
em er
ĠV AL
for cing
Ġmis takes
Ġaccompany ing
ĠE ye
ĠChap el
ĠHy dro
se ment
Ġ} }\
Ġsnaps hot
} &=&\
Ġprob able
Ã ī
Ġmut ations
Ġrid ge
ceut ical
le ave
ren ces
Ġassemb led
})$ -
ell ation
pr us
sim ulations
iter ator
Ġbatter ies
' /
ag le
test s
ĠS of
st ri
former ly
g ary
Ġas h
ĠAltern atively
ĠSh adow
Ġw are
Ġthrow ing
R u
ĠC ould
Ġin cur
ĠB oh
ĠJo an
CO MP
S on
Ã¡ s
ĠV illa
Ġterm ination
C ulture
ell ite
ĠU ntil
c g
ĠCle an
Ġdiscipl ine
ĠV A
ĠF ramework
Ġchar ter
m and
Ġs ang
G od
ĠK aren
trans l
ĠV ert
Ġbroad ly
Ġpil ots
bro ken
Ï ħ
}] $.
ĠDo ppler
Ġhyperp arameters
Ġun seen
Ġbad ly
ĠPers ian
Ġcon spiracy
Ġde cent
18 1
Ġcor n
und efined
Ø§ ÙĦ
Ġdescend ants
li qu
C irc
ri ans
Ġsl ip
Ġpar as
Ġpath ways
D uration
23 3
Ġworks hops
ĠPar al
spec ified
ĠR ol
}[ {\
Ġp ending
g ive
Ġf ifty
ĠS amsung
fl align
restrict ed
Th ank
Ġf u
Ġh ills
> =
Ġtrans cript
Ġre un
pos it
Ġw ars
Ġinert ial
arth y
p relim
ĠHen ri
Ġche ss
run k
iv odes
Ġsuggest ion
Ġredund ant
Def unct
central ized
Ġtrav elled
prov ide
df n
ĠDe velop
C W
ĠCon v
Ġ\! \
N H
n ick
d j
ĠLear n
p ag
Ġbelong ed
Dat aset
Ġrenew ed
Ġprof its
t ang
Ġwork place
Ġimp ressed
Ġback up
Ġcommand ed
ur ally
Ġ& \\
ĠD j
Ġch ir
Ġdemand ed
ĠT ik
be havior
Jose ph
g alaxy
Ġem power
AM S
Ġs igma
Ġmat hematic
Ġren owned
r ud
que z
D W
ices ter
if ference
Ġexcess ive
ĠB in
Ġw is
Ġsw ord
H i
qu oted
Ġs our
Ima ges
y g
ï¼ Į
ĠS Ã£o
Un ivers
ĠR af
Ġmal icious
ĠP and
Ġpat ri
Ġun precedented
Dist rict
ĠHe at
ĠAb stract
Ġfurn iture
Ġdisapp eared
pro ps
f red
Ġ _\
Ġg onna
Ġlist ener
hu ang
dist ributed
Ġcrit ically
bor ig
Ġl oses
ĠS weet
Ġ% }
x z
Wh ich
Ġcert ification
Ġcos ine
per fect
andid ates
ĠAng lo
Ġ$ _
em ia
ĠHar per
ĠSub section
Ex port
mat ory
Ġaw ait
ĠHard y
Ġbe et
Ġ ^\
ident ifier
cor ner
sur vey
Ġunder graduate
Ġhot els
ĠCliff ord
ĠWe ather
Ġmind s
()) );
n ar
s ocial
Ġsimple x
Ġconscious ness
und a
Ġtra vers
IN S
d rew
Ġhad rons
L ang
ex change
ĠQu estion
ĠN as
ĠMin i
ĠPrinc eton
align at
ĠProduct s
ĠR ice
Ġcoinc idence
iff ith
Ġfun c
Ġsimpl ifies
ĠR AM
Ġgroup ed
ĠDav ies
Ġstre ak
ĠP it
ĠEx pert
ĠSer ver
T reat
Ġfil aments
min a
ans k
Ġover flow
Ñ ĸ
det ect
Ġto uring
ram s
polar ized
Ġr ms
Ġdetect able
re ak
Po isson
n amely
Ġ/ \
ĠS ig
ĠExcell ence
tr unc
g cd
ru gu
A sh
3 24
ĠBroad casting
am oto
ess ing
ne apolis
Ġfurther more
C ategories
Ġcal m
Scott ish
Ġlocomot ives
c ock
22 9
down load
Ù Ĭ
ĠBro s
ĠSw an
R D
ĠS ullivan
ĠM Ã©
empor al
agn ostic
B AR
Sh ape
ĠPaul o
Ġmo ist
nucle on
S ound
ĠR oth
i ary
Ġ il
as ymp
um ble
structure d
Ġpos ed
Ġret reat
Ġthr one
on ium
Ġenc ryption
Ġobser vers
ah u
Ġtem p
Ġpray er
0 16
ram er
ĠK nowledge
in vol
Ġsupp lementary
ĠBl ake
ĠGard ens
fil m
S ig
Ġsurviv ors
T W
ba um
n f
Ġconsum ed
ĠR i
ĠEag le
c art
ĠSecond ary
st ab
and ro
ax ter
ĠEqu ations
re b
ed ly
Ġh ype
Ġp ocket
ĠRay mond
Ġmod al
CO M
S port
a very
all a
Ġdiscrim inator
as aki
Ġsm oking
}) ).
E val
}& =\
mic ron
Ġch ips
G allery
[ ][
v id
ĠW ire
p ract
Ġmiss ile
Ġch lor
respon d
ĠB rid
Ġen closed
RE D
Ġprol ifer
Ġcomm od
ee k
CO VID
ĠEll is
aj i
Ġc tx
Ġw ond
ov iÄĩ
Ã Ĥ
ĠRe id
ur as
Ġcompan ions
Ġcere mon
L G
r ally
=" @
G ray
ĠP CA
iqu ark
ĠB D
ust ering
Ġsport ing
ĠImage Net
habilit ation
min ster
ĠAp ache
in as
app ear
Ġsc andal
W ood
Ġsl iding
Ġter rain
Ġfarm s
ĠN ine
contin ued
ĠEthiop ia
ĠMult iple
ĠLem mas
ul ent
Ġdis h
che wan
'' '
as sembly
Ġst y
ĠSing les
seg ment
L ip
ĠCong o
Ġlad der
rac ed
coordin ates
g ic
p rice
Ġhero es
19 1
iz ational
Ġsil ence
a uses
ĠPod cast
ĠTw enty
M ike
Ġmaxim izing
Ġpuls ars
spect or
ivodes hip
ow itz
fact ors
Pr inc
Ġeth n
L es
ĠTo o
t racks
ort ions
}^{ +\
vel oper
de comp
Ġload s
Ġhand les
Ġinvest or
Sch warz
ou ville
ĠJul ian
Ġpreval ence
Ġg ases
Ke ys
on so
Ġconfirm ation
Ġl on
ĠAccording ly
Ġpull ing
b age
}}$ )
Ð ±
Ġp arser
,\ ,\,
ĠPrinc ipal
T B
b rowser
ĠGu ild
Ġup stream
ĠArmen ian
{ }_
Ġselect s
Recip ients
ĠHar old
Ġelder ly
ĠÃ ģ
os ion
ĠX X
ad ditional
opl an
F N
Ġ\; ,
Load er
Ġcl an
ĠPublic ations
& -\
23 7
kins on
Ġmet er
Ġstack ed
Ġsol vable
Ġbott le
Ġinitial ize
^+ $,
Ġwitness ed
ĠL MC
Ġdis established
box times
widet ext
Ġextract ing
Ġt enth
Ġb ab
if fin
Ġsm ile
Ġperman ently
Ġtim ber
is che
vert ices
Ġdon or
$ |\
re ason
ĠStock holm
Ġdesign ation
Ġw ors
st ochastic
Ġathlet ic
v f
Ġtra its
ĠJere my
3 15
Ġlect ure
ĠL iv
pe z
Hen ry
I gn
ĠG and
ier i
head ers
ong ue
Ġrevers al
M ask
ass ets
bl ank
leg raph
ĠNewton ian
Ġ )}
Ġflu ids
ĠDi ocese
Ġfasc inating
0 33
ĠChem ical
at ile
il ayer
oc ene
ru p
year s
check ed
ĠL or
ĠCh ase
ĠDub ai
ĠCart an
ri ent
ĠMc L
ĠF ighter
Ġab normal
en ko
h b
Ġsuff ers
)) _{
ic ator
OW N
ĠIn ternal
Ġfl ares
Ġvol leyball
^+ _{
Ġm appings
ĠSc ar
Ġwave form
ĠChe ster
ic om
Ġdis ruption
ĠPr ison
bu ilder
ĠF IR
ere k
Ġadj acency
P ak
b ary
ĠEvent ually
ĠOr lando
em bourg
An imation
ĠRichard son
Ġwhe els
Ġro ok
ST AR
ĠArm ed
RE S
Ġgen ome
isim ple
Ġ" <
or on
st orm
Ġn inet
l if
t ran
Ġd w
W ashington
ĠF DA
Ġfle w
} ]{
pro c
NavBar Cell
Ġcab in
in berg
Ġp ap
ant le
Ġnerv ous
æ ĸ
mem bers
Ġhang ing
ĠW alt
Ġun lock
v ens
Ġre med
ob tain
get Name
Ġtom orrow
ta k
comp ared
} ',
ĠC atalog
Ġbl end
ĠEconom y
Ġpractition ers
( !
P unct
ĠAr ctic
Ġrac ism
}\ {\
ĠEx perimental
Sche dule
ĠC inema
Ġ= ========
Ġen zyme
D irector
Ġiter atively
v ae
ra ising
ĠP V
strong ly
ĠS hen
calcul ated
K ar
Ġsax oph
d uration
be k
cur rence
Ġlog ging
Ġshock ed
ĠInitial ly
Ġcomp ly
0 20
Ġag ing
Ġgi ants
fil ename
ĠM AC
ĠS ag
s ed
Ġc ig
ĠP rest
ĠX box
ĠVlad imir
sw ick
I Z
ĠCon struct
Ġaug ment
ĠPut in
ĠC ategory
{- }\
ĠW ick
Ġne b
ĠS aw
eps fx
Ġinc umbent
Ġinvent ory
epsfx size
con ver
55 5
c B
30 5
t ransp
se min
ĠHol mes
ĠT ODO
ĠG D
ĠP ink
Ġab oard
Ġsl aves
ĠVo ivodeship
Ġprogen itor
determ in
ĠG ross
ĠBrook s
L os
18 58
p ages
Ġdecl aration
Ġconvex ity
M ENT
lic an
Ġinvest ed
LE S
p v
ĠB ottom
ĠL akes
Ad apter
Ġaccept s
Ġxml ns
Ø§ Ø
Ġrepl ied
Ġextrapol ation
Ġpredict or
En um
Vol ume
ĠDur ham
m og
ĠT ell
ĠB anks
oy age
Î º
ĠB row
ĠApp lied
dist ributions
Part icip
H ave
ĠAut om
sh are
ĠT iger
Ġt ar
den oted
Th ose
Mod ern
ding er
L oss
OR M
Ġvot er
ĠLat ino
ĠRam an
\ (\
bo at
Ġremn ant
S AT
Ġper col
Ġopt ics
ĠTrans former
ĠM Ã¼
Ġcourt esy
6 25
Mus ical
Ġeject a
am as
w yn
Ġrock et
fill draw
C lim
u ce
Ġstrugg led
ĠS ic
Ġapp ar
P ier
à ½
Ġam ple
. ",
bor o
ĠMor se
mass ive
Ġstrugg les
4 20
B rand
Ġs ung
Ġgra ce
Ġrecip ients
Ġt iles
ĠD uck
30 3
G reek
ĠN g
Ġident ifier
D igital
Ġregular ized
Ch ief
ĠEx am
ian e
Ġs ne
Ġprocess ors
orth y
ÑĢ Ðµ
Ġmem oir
ĠP I
Al t
Ġid x
ĠS G
Ġres caling
Ġdef icit
ĠMus k
Ġfor ty
ĠĠĠĠĠĠĠĠĠĠĠĠĠĠĠĠ Ċ
ĠC IA
ĠL D
is ers
ĠRep orts
ĠT all
Ġstart up
Ġdeb ris
Ġ( _
ĠB ened
Ã¶ r
Com paring
G ordon
view s
d ens
m cite
non linear
ĠCon jecture
G i
\{ (
38 4
____ ____
ĠĠĠ čĊ
Ġde position
Ġgl uons
ĠÐ ½
Ġinvert ed
cl one
ĠKer ala
ab und
ĠM uk
ĠS OC
ogram s
^^ ^^
le en
W estern
c ats
us ually
Âł Âł
Ġerect ed
ĠI a
Ġloc ate
ĠC MS
Ġpost ing
ĠWar riors
Ġdis connected
correct ed
Ġre organ
Ġ Ã©
Ġb ell
Ġpro long
ĠU T
Ġatta ch
ĠRh ode
ĠComb ining
AL SE
T an
Ġl ucky
Ġflow ing
ac l
Ġnews letter
ced es
align ment
Sh ould
Ġunsuccess ful
Ġclass room
outhe astern
D Y
ĠCh ad
adapt ive
Sc ore
Ġap olog
Ġcust ody
Ġposition ed
Ġexhib itions
nd um
ĠMon itor
Ġmultip ly
ĠG ru
Ġl akes
ĠK rish
ĠĠĠĠĠĠĠĠĠĠĠĠĠĠĠĠĠĠĠĠĠĠĠĠĠĠĠĠĠĠĠĠ ĠĠ
! }\
Ġevent ual
Ġhe aling
Ġle ase
ĠF actory
ĠO m
col ored
curs ion
Ġ ub
ĠH off
18 56
ĠRo osevelt
Ġcomplaint s
EX P
rid or
ampl ed
ĠOb viously
b rown
ĠR ac
be cca
ast ed
Ġreg ulated
Ġem pire
overn or
N B
Ġsub category
Ġmon ster
Ġcook ie
ĠPop ulation
P arse
all ax
)) );
Ġ verse
ct uary
Ġca us
nd ef
Ġle ather
Ġremin is
ĠB ian
Ġfound ers
ĠT ry
Ġas ync
Ġs au
iel sen
Ġwant ing
ĠElect ron
integ rated
ĠEr nest
lene ck
J un
W at
ĠC areer
N atural
ĠH ass
ĠHit ler
Ġeth ics
Ġf ool
ĠBry an
aff ected
Ġflav ors
Ġminim izes
m um
ĠĠĠĠĠĠĠĠ ĠĠĊ
Ġarg uing
M IN
Ġpre y
Ġg al
ĠSat urn
am ous
ce iver
Ġgot ten
ĠSand ers
am ount
We ight
24 6
Ġgl ac
Ġdrum mer
Ġres piratory
ĠBa iley
R B
Ġsummar izes
Ġperform ers
] },
Ġb ubbles
ĠO wen
rop olis
her ically
\! -\!
Ġcle ared
ĠR us
av in
Ġappeal ing
}}\ ,\
Ġkeyboard s
U ntil
Ã ¯
osc ill
ĠCom mercial
ar ctic
' }^
E F
Ġdec iding
C ong
Ġunder taken
Ġign oring
ordin ate
Ġrear rang
| .
Ġr uler
Ġrel ocated
Ġemail s
Ġf ier
ras er
og o
Ġaer ial
N ULL
N EW
i encies
ro ute
ill ust
mb le
Ġpoly tope
Rep resent
upload s
ĠQ SO
; {\
ĠE cuador
: -
B st
U r
Ġn erve
M n
ĠDisc ussion
ĠBlo ch
label s
ĠA CC
Ġtri o
Ġlat itude
Ġra pe
Ġdepos its
Ġdies el
q w
com fort
du st
Ġterm ed
rop ies
Ġsubject ed
Ġch icken
ĠViet namese
}\ }$,
Ġre built
ĠEngine er
lig a
Ġmism atch
Ġtreat y
ĠP arameters
Ġ($ (
Ġce iling
Ġgr at
met all
ĠE OS
ĠLet ters
ĠPoint s
18 54
ĠM HD
Ġen act
ific ates
L im
Ġdo zens
ĠAmb assador
W ord
ĠM ale
cent ered
Ġout ward
Ġfle e
4 95
Ġrespons ibilities
J eff
Com pat
I ES
in ers
ur bs
ĠDe b
Sh arp
Ġemploy er
ĠMus ical
ä »
A J
ĠB ark
ob ic
ĠM iles
Ġp t
rit z
Ġv ibr
Consider ing
sign ature
Ġpun ishment
18 55
L uc
ĠA dapt
); \
ĠI sh
st roke
Ġce ased
ĠC rystal
Ġgra ve
ĠRh odes
N odes
ĉĉĉĉ Ċ
ĠS ets
}\ ;\
ll er
Ġcan vas
Ġhead ers
######## ########
B all
whe el
Ġe cl
Lou is
ĠPre vious
Ġdipl omatic
40 5
qu as
ĠL ak
is he
P B
ĠF ul
pz c
Ġdist ribute
ĠArch ae
) '
z on
In vest
Ġn em
ĠRe form
run ner
Ġdraw ings
Ġpione er
K W
v u
ĠNew castle
j b
Ġmag ical
Ġlast ing
ĠLin da
V en
we i
ne ider
Pro gress
: $
ĠL oc
ref lect
c ia
Ġtransform er
k im
Ġan ger
\!\! \
Ġoccas ional
ĠO C
Ġpropag ators
exec ute
F a
Ġbe ings
Play ers
Ġcl ique
Ġsc ans
pl ays
.~ (
pop ulation
Ġch ore
18 49
ism ic
Ġhous ed
Ġasymptot ics
rast ically
Ġcompact ness
ĠTas man
ĠC ash
ĠBris bane
23 6
ĠPow ell
ĠPro gress
lst listing
ĠP om
ĠCl ose
F ort
c ube
ist inguish
Ġse al
ĠCard inals
V o
Ġre lic
ip ot
Ġchap el
Ġtel escopes
ell ular
Ġout s
con clusions
}} }(\
de en
Ġsong writer
Ġampl ification
ĠMichel le
Ġimpact ed
ĠH ack
Ġc ref
24 7
F ocus
j ump
Ġst unning
Ġsp o
Ġche ese
Ġcare ers
Sub stituting
Ġcr ust
Ġdig its
Ġswit ches
Ġf ame
Ġrapid ity
end ors
Ġhold er
Ġprospect s
Ġbifurc ation
Ġtim est
F ive
ĠR B
Ġc emetery
Ġ\ }$,
j d
Ġtang ential
math pzc
Ġthermod ynamics
all i
ĠArt illery
pseud o
am ura
ĠHess ian
ĠG S
97 8
ull ah
ra z
ĠR NN
)\ }
28 5
Ġhon ored
prec ated
Ġk g
av ian
cccc c
inter actions
^+ }
Ġswe ep
Ġh ire
ĠH TTP
Ġdon ations
bm od
ĠClass ical
ĠCompan ies
U pon
us on
ĠS ou
Ġcou rage
gener ator
Ġmultip let
Ä Ļ
ĠSh in
Ġkilomet ers
ĠSher iff
F ast
Ġch unk
Ġres caled
}, ~\
Ġid em
ĠPo etry
horiz on
Ġp orn
Ġselect or
os er
ĠManu fact
Cal ifornia
R PC
Ġtour ists
R ivers
am matory
um ph
Ġst ones
cl s
' )}
Ġp raise
ĠG ren
ar in
it ored
Ġsp urious
iv ate
Ġdis hes
Ġdiverg ences
f ail
] \,
Ġ. \
ĠB es
Ġsystem ic
Ġpull back
ĠEll i
ĠStat ement
ĠO z
ĠVari ous
ru ce
Ġhad n
Ġcul min
esc u
Football ers
Ġdef ended
Ġtri ples
Ã¶ n
com ed
aut om
ig i
ĠP rague
Eq n
F oot
O G
Ġinterpret ations
ĠL ED
28 6
Ġpsy chiat
Ġrest art
ĠSu ff
Ġlegisl ature
t in
ĠH app
Ġgrid s
Ġcivil ians
Mark ov
Ġdec o
Ġde ce
w ear
ĉ ĠĠĠĠĠ
en za
Ġtag ged
G erm
inf all
Ġbal ancing
Ġmaxim ally
18 52
Ġlist ings
aps hot
Ġm ud
ĠCon text
ĠY an
Ġmer c
ĠArgent ine
Ġmonotonic ity
Ġgl ad
Ġintrig uing
h it
Ġ( ).
=\ {\
Ġwrit ings
on de
Ġis ospin
Ġp ile
Ġp unk
ĠP DE
Ġopp osing
Ġemb ark
Ġdissip ative
Ġram p
Ġen jo
direct ed
Ġconstruct or
& \\
d ialog
23 9
Ġant ifer
ĠTreat ment
ch in
zz o
Ġthe rap
Ġbehavior al
for ces
Ġconsult ant
Ġanaly st
ers hip
ĠCar r
Ġsmart phone
ĠS ure
Film ography
k le
ion ic
Ġb out
ĠP oss
Ġrel atives
Ġstand ings
Ġbeat en
Ġadvis or
m x
ac s
og l
ĠS ample
Ġneighb ours
P W
ĠK re
vers arial
and e
Ġref lex
ĠC oun
^+ ,
ĠM otion
Ġcondens ation
Ġtruck s
ĠSh im
Ġrec ipe
ov sky
ĠB od
Ġred es
ĠA borig
RE Q
ĠKn ights
e ys
Ġb ending
Ġnod al
Ġrecru ited
ig raph
Ġenc odes
Ġthorough ly
mu ch
ĠI g
os i
os ity
To String
Ġst yl
$ }{
Ġutil ization
ç Ķ
Ġterror ist
Ġsum ming
the ning
Ġautomorphism s
w ald
ope z
Ġbre eding
I sl
Ġt ribut
}} )$,
any on
Ġwitness es
p ad
_{ _{\
an ic
ĠC rist
}^* (
ph or
Ġ" [
Ġor n
Ġcorrel ator
W ave
ĠS ett
Ġab rupt
Ġrestrict ing
num bers
Ġrenew able
pend ing
ĠM aterial
\% $.
Ġdom inating
ĠR ush
&+ &
[ (\
7 20
Ġorigin ates
Ġph rases
Ġhalo es
ĠMov ies
ener gies
Ġpartition ing
Rep ository
Compan ies
^{( -
Ġh iding
Ġc ant
ĠWars aw
ra its
ĠW ellington
F ailed
aw i
SS L
ĠVen us
ĠHe ights
ĠHe aven
Ġmin er
Ġmet eor
ĠDi pl
! \!
Ġcomp iler
ĠRe ich
ĠTre nd
correspon d
Ġt il
Ġwhere in
Ġnob ody
Ġfor um
st rom
cont ract
art icles
ĠS QL
Ġl ang
ĠB order
ĠCar roll
ĠPalest ine
j in
ind ices
Ġsubt racted
ĠA way
str ings
Ex tra
I rish
Ġcon verg
Ġinstant on
Ġst om
}( -\
Ġeleg ant
Ġunivers ality
C os
w ire
Ġd S
ĠD G
Ad min
Ġcur ious
cont rib
Ġassign s
R od
ine z
K o
as ync
ĠDer by
Ġdepos it
Mod els
Ġth roat
Ġg erm
Ġqu int
B rowser
Q P
Ġdis charge
Ġplay wright
OR K
ari ates
)$ ).
ke eping
side bar
Ġre ass
Ġsw ap
$\ %$
29 5
R W
ch ap
ĠWag ner
ĠHamb urg
}( {
Ġsho es
Ġpursu ed
M ountain
ers en
ta iled
D ynamic
Ġb ud
Ġb ats
Ġvolat ility
Ġin tact
å Ī
st ill
ĠFran Ã§
Ġ$[ -
24 3
C U
Ġselect ive
ar bit
Ch arts
ĠUs ed
}} }_{
Ġveter ans
ĠP aint
ĠF ock
Ġlog istic
ĠNon etheless
S plit
he nd
Ġinter play
p se
ph ib
IC S
lb rack
ĠJam ie
proto buf
Ġs iblings
ĠF eed
contain ing
ect ive
ast ing
4 75
Ġal i
ĠR ash
ĠM ell
Ġoutper form
Ġaxi oms
Ġseason al
ĠTun is
Ġprest igious
en h
erc ise
ĠL oad
Ġmim ic
Ġlik ewise
d ar
Ġfav ored
spect ive
Ġcod ew
ry s
ĠMor occo
ĠO rt
AV E
Ġresign ation
K al
Ġlo yal
Ġlens es
ĠArch bishop
ax ial
re x
Ġwith drew
ĠDiv is
orne ys
ĠB j
ath a
E arth
ex c
ul atory
Ġnur sing
ĠM V
Ġsatisf actory
Ġf ears
col our
id an
ĠCal gary
ĠD ale
M i
3 70
M ic
Ġred ist
correspon ds
ĠÅ ł
Ġk ills
-------- ----
Ġrandom ness
6 40
ĠLink ed
'' }
represent ed
prov ider
Ġcreat ivity
Ġimag ery
D utch
Ġnetwork ing
c ible
Ġemb od
trans formation
B an
ĠC ec
Ġmorph ological
found ed
ĠCol in
Ġb orough
ing roup
Ġdis solved
S to
Ġgu ides
mon ton
ĠQ atar
Ġcricket er
Ġ. &
Ġcycl ing
ĠP G
ĠS ave
ĠH il
Ġlift s
st ick
ĠK om
Ġlack s
ĠA ub
ĠSe y
Ġr g
ĠLe ad
)] .
" `
h dots
Ġref lections
Ġaffili ate
ĠPop ular
Ġsac red
g c
Ġflo oding
ou rable
ĠC risis
ĠB PS
ĠBur g
Ġm irr
sp acing
Ġfer romagnetic
ĠManu el
Ġgeneral izes
9 80
Ġt err
St ill
ra j
ĠE lement
}{ {
ĠAr senal
ĠMan it
Ġqual ities
Ġc uisine
Ġinv ented
m its
Ġspec ifies
ĠEl se
Ġabsor bing
Gener ator
ĠDou g
ĠFried rich
Ġac ids
Ġavoid s
Ġorigin ate
m ov
ĠStev ens
ĠTib et
ĠP ok
ĠAppro xim
18 47
Ġnav igate
R h
Ġprompt ed
Ill ust
Ġre vision
les h
ĠS ul
W ed
c E
ĠMc Donald
Ġwis dom
@ {-
c bs
f ake
}} }_
Ġdub bed
Ġneut rons
G ar
en i
ip olar
pro ving
Ġqual ification
J oe
ĠM AP
ĠAng els
Ġalt ogether
Ġcorrect ness
ad ays
Ġi ii
ĠJama ica
H all
mod ern
Ġem igrants
osp ace
rell a
z ip
ĠE L
ĠEx tra
Ġaim ing
Ġnur se
text subscript
Ġto b
}$ =
}| _{
ĠTrans fer
ĠCab inet
Ġtact ics
le ases
ĠF S
cre ase
Ġneg atively
ĠFl ash
Ġt ric
ĠC ork
ac ies
Ġdisc arded
ĠRes ult
ĠF lying
pro ton
50 9
Ġinvest ing
Ġdoub ly
r q
ĠF ocus
Ġf ading
Ġmention ing
b road
Ġfound ations
Ġcost ly
un n
Ġkick ed
as ible
ĠReg ular
ĠRetrie ved
le ys
ĠField s
is se
ange red
scal ed
l ibrary
ĠAll ied
ts d
ĠLu cy
b ial
Ġb er
Ġd rastically
ch ant
Di rac
ĠI EEE
ĠW igner
Ġconc ave
Ġpartners hips
h k
de velopment
chem ical
Ġatten uation
ĠTh ink
Sim ulation
l inks
ĠM SSM
Ġph y
ĠBarn es
Ġre calling
Ġgener ically
Ġlaun ches
ĠInt eger
I r
ĠC ond
Ġdispl aced
ĠH C
W u
B or
Ġcomp ass
Ġcan al
Ġval ign
Ġ' <
'' _
ĠM emphis
DE F
inst ead
ĠCy prus
s ight
Ġg ods
Ġcol lo
Ġvulner ability
0 35
ĠG E
column s
plan ar
UT H
ĠF emale
18 51
ij a
Ġwor ried
Ġup ward
ĠBrand on
l ot
ĠPal m
cm p
zz i
Ġ ];
Ġ[ #
perturb ed
cur l
Ġpr ide
ĠH ank
EL D
] ^{-
Ġdis ordered
Sk ip
: \,
Ġg ym
Ġliter al
C hat
ĠK S
ĠTrans ition
Ġcrypt ocur
ĠSt orage
problem s
c ue
h owever
ĠThe rm
Pl us
M V
isc opal
open hagen
Ġsever ity
PO ST
ĠPsych ology
g rand
s ync
ĠMor rison
ĠN ott
K N
b il
ap est
link ed
ĠBrun swick
Ġoutflow s
tablen ot
Ġmach inery
F rag
ĠProgram s
Ġelim inating
ug u
ĠAh mad
ĠN I
lev ard
Ġcru ise
S ync
ĠW ant
Ġm ist
con ditional
Ġex pend
Ġtime out
q bezier
ĠRes taur
wit z
B ank
at um
in da
Ġoff sets
coe fficients
ond s
ĠSu z
mix ing
Ġgra ding
Ġorgan ize
Ge org
ĠTre asure
ĠBulgar ian
anti ago
at em
ĠMin neapolis
< $
th y
Ġsett lers
Ġminim izer
e lem
ad os
ĠL il
Ġup graded
Ġcompact ification
ĠG ent
Ġpr ince
ge b
Ġmaxim a
Ġliv estock
)\ }_{
Ġstra ins
Ġmidfield er
rib ing
ĠA gg
Ġoptim izer
Ġfoot print
Ġcl umps
Inter val
Ġoccup y
ĠByz antine
av our
Ġpay off
~~~~~~~~ ~~~~~~~~
ric ia
ĠComput e
Ġcol linear
Ġbreath ing
Ġgame play
ĠH ern
Ġj am
Ġton ight
ĠVol unte
ĠB av
ĠBay es
Ġbuy ers
Ġh ints
if def
na issance
Ġdr one
w iki
s uc
4 25
S ix
ĠW ake
Ġ| {\
work ing
Ġ" $
Ġinstit ute
ĠSaskat chewan
ĉ ĠĠĠĠĠĠĠ
ew ay
con sum
Ġbug s
ĠSalv ador
Ġgradu ation
Ġm akers
ĠCh uck
ĠSh annon
Ġannoun ces
ĠApp lications
ĠA ri
ĠP ain
s an
Ġem itting
Ġspect acular
24 8
ĠSet ting
ĠDes ert
ĠSum mary
scal es
Ġtrans itive
ut ors
M arc
er re
Ġsu cc
ĠAndrew s
Ġdiscover s
ult ra
Ġsac rifice
0 17
Ġp s
Ġnonlinear ity
j ets
Ġtop ologically
Ġdepos ited
ĠM BA
eval uation
ĠHur ricane
ĠK oh
ap a
Ġart ic
Ġunder went
ĠCondition s
ign e
Ġqu it
dat abase
Ġv ow
Art icle
ĠBund es
or um
ĠPear l
ĠT ate
oy a
Ġyield ed
Ġperipher al
cont ents
Ġcoordin ator
Ġutil izes
Ġtouchdown s
ĠPalest inian
Ġcor ps
Ġbis hops
\% }
pl aces
Ġtra ff
ĠMig uel
ĠB il
ĠFl ag
Ġstud ios
S und
v ation
Ġpro ps
ĠD as
Ġlingu istic
w r
ĠJess ica
C FT
ĠE k
2 18
_{ ,
ruct ive
Ġâ ĪĴ
k T
anu el
Q M
}] $,
Ġsl avery
Pref ix
Ġin elastic
Ġout lets
Ġphys icians
E th
â Ķ
d E
Ġauthent ic
ĠL ange
Ġsynthes ized
W itten
vi er
Prelim inaries
ĠH aven
Big gl
arp oon
Ġal ike
ne igh
Ġnotice able
Ġreal izes
St an
nav List
Ġan ne
St ats
% ).
3 12
ou in
ĠG H
et z
Ġvalid ated
H an
)| $
Ġprem ier
G h
ĠIndust ries
ĠPun jab
Ġenjo ys
Ġch ord
ĠX ML
Ġautom ation
satisf ies
algebra ic
ĠW end
Ġcancel ed
ĠProtest ant
intend ent
ĠCroat ian
engu in
ĠH F
oca ust
nod ata
ĠB ib
the me
Ġrevolution ary
Ġquadru pole
ĠT ool
head ing
Ġforecast ing
K u
Ġalgorithm ic
ĠGarc ia
Ġbreak fast
O UR
al an
ĠR AF
ff ield
Ġwave let
as se
Ġh iring
ĠF ol
ĠH ir
bl ocks
[...]
