{"[UNK]":0,"!":1,"\"":2,"#":3,"$":4,"%":5,"&":6,"'":7,"(":8,")":9,"*":10,"+":11,",":12,"-":13,".":14,"/":15,"0":16,"1":17,"2":18,"3":19,"4":20,"5":21,"6":22,"7":23,"8":24,"9":25,":":26,";":27,"<":28,"=":29,">":30,"?":31,"@":32,"A":33,"B":34,"C":35,"D":36,"E":37,"F":38,"G":39,"H":40,"I":41,"J":42,"K":43,"L":44,"M":45,"N":46,"O":47,"P":48,"Q":49,"R":50,"S":51,"T":52,"U":53,"V":54,"W":55,"X":56,"Y":57,"Z":58,"[":59,"\\":60,"]":61,"^":62,"_":63,"`":64,"a":65,"b":66,"c":67,"d":68,"e":69,"f":70,"g":71,"h":72,"i":73,"j":74,"k":75,"l":76,"m":77,"n":78,"o":79,"p":80,"q":81,"r":82,"s":83,"t":84,"u":85,"v":86,"w":87,"x":88,"y":89,"z":90,"{":91,"|":92,"}":93,"~":94,"¡":95,"¢":96,"£":97,"¤":98,"¥":99,"¦":100,"§":101,"¨":102,"©":103,"ª":104,"«":105,"¬":106,"®":107,"¯":108,"°":109,"±":110,"²":111,"³":112,"´":113,"µ":114,"¶":115,"·":116,"¸":117,"¹":118,"º":119,"»":120,"¼":121,"½":122,"¾":123,"¿":124,"Â":125,"Ã":126,"Ä":127,"Å":128,"Æ":129,"Ç":130,"È":131,"É":132,"Ê":133,"Ë":134,"Ì":135,"Í":136,"Î":137,"Ï":138,"Ð":139,"Ñ":140,"Ò":141,"Ó":142,"Ô":143,"Õ":144,"Ö":145,"×":146,"Ø":147,"Ù":148,"Ú":149,"Û":150,"Ü":151,"Ý":152,"Þ":153,"ß":154,"à":155,"á":156,"â":157,"ã":158,"ä":159,"å":160,"æ":161,"ç":162,"è":163,"é":164,"ê":165,"ë":166,"ì":167,"í":168,"î":169,"ï":170,"ð":171,"ñ":172,"ó":173,"ô":174,"Ā":175,"ā":176,"Ă":177,"ă":178,"Ą":179,"ą":180,"Ć":181,"ć":182,"Ĉ":183,"ĉ":184,"Ċ":185,"ċ":186,"Č":187,"č":188,"Ď":189,"ď":190,"Đ":191,"đ":192,"Ē":193,"ē":194,"Ĕ":195,"ĕ":196,"Ė":197,"ė":198,"Ę":199,"ę":200,"Ě":201,"ě":202,"Ĝ":203,"ĝ":204,"Ğ":205,"ğ":206,"Ġ":207,"ġ":208,"Ģ":209,"ģ":210,"Ĥ":211,"ĥ":212,"Ħ":213,"ħ":214,"Ĩ":215,"ĩ":216,"Ī":217,"ī":218,"Ĭ":219,"ĭ":220,"Į":221,"į":222,"İ":223,"ı":224,"Ĳ":225,"ĳ":226,"Ĵ":227,"ĵ":228,"Ķ":229,"ķ":230,"ĸ":231,"Ĺ":232,"ĺ":233,"Ļ":234,"ļ":235,"Ľ":236,"ľ":237,"Ŀ":238,"ŀ":239,"Ł":240,"ł":241,"Ń":242,"Ġt":243,"in":244,"he":245,"Ġa":246,"on":247,"ĠĠ":248,"re":249,"at":250,"Ġthe":251,"er":252,"en":253,"Ġs":254,"or":255,"al":256,"it":257,"Ġo":258,"is":259,"an":260,"Ġc":261,"es":262,"ion":263,"ar":264,"Ġw":265,"Ġf":266,"ed":267,"Ġ\\":268,"Ġof":269,"Ġp":270,"nd":271,"Ġin":272,"Ġb":273,"le":274,"ic":275,"ing":276,"ĠĠĠĠ":277,"Ġ$":278,"ro":279,"Ġd":280,"Ġand":281,"as":282,"Ġm":283,"ct":284,"Ġto":285,"el":286,"et":287,"ig":288,"ent":289,"ou":290,"ra":291,"il":292,"Ġth":293,"om":294,"ation":295,"st":296,"{\\":297,"im":298,"Ġre":299,"Ġe":300,"Ġh":301,"am":302,"ol":303,"ot":304,"Ġn":305,"Ġis":306,"Ġ(":307,"ĠT":308,"Ġl":309,"ĠS":310,"id":311,"ce":312,"ve":313,"ut":314,"Ġfor":315,"se":316,"ĠA":317,"ch":318,"ĠC":319,"_{":320,"Ġg":321,"ur":322,"ow":323,"ul":324,"qu":325,"ly":326,"ver":327,"ab":328,"Ġon":329,"eg":330,"ith":331,"Ġ$\\":332,"um":333,"ath":334,"us":335,"Ġthat":336,"Ġst":337,"ĠM":338,"Ġbe":339,"ĠI":340,"ĠĠĠ":341,"Ġcon":342,"ad":343,"od":344,"em":345,"end":346,"ĠĠĠĠĠĠĠĠ":347,"Ġas":348,"if":349,"un":350,"math":351,"Ġwith":352,"20":353,"âĢ":354,"ir":355,"ta":356,"ĠB":357,"ter":358,"ĠP":359,"ction":360,"ĠĊ":361,"ge":362,"čĊ":363,"ri":364,"ay":365,"Ġwe":366,"Ġ&":367,"igh":368,"Ġal":369,"ph":370,"}\\":371,"Ġpro":372,"th":373,"Ġan":374,"ure":375,"}$":376,"ĠThe":377,"ist":378,"ĠF":379,"^{":380,"ĠH":381,"Ġby":382,"Ġv":383,"os":384,"and":385,"pp":386,"ĠR":387,"her":388,"ex":389,"ity":390,"ma":391,"ĠL":392,"ĠD":393,"ight":394,"iv":395,"ate":396,"Ġex":397,"pe":398,"ĠW":399,"ers":400,"Ġare":401,"ac":402,"res":403,"ref":404,"pt":405,"Ġwh":406,"Ġcom":407,"ite":408,"rom":409,"Ġde":410,"Ġ=":411,"cal":412,"Ġat":413,"ore":414,"ĠN":415,"est":416,"ine":417,"ub":418,"art":419,"19":420,"}}":421,"(\\":422,"ĠG":423,"Ġit":424,"ĠE":425,"ial":426,"egin":427,"ies":428,"Ġwas":429,"per":430,"pl":431,"begin":432,"Ġfrom":433,"Ġse":434,"ess":435,"rac":436,"ant":437,"ill":438,"ive":439,"Ġor":440,"oc":441,"_{\\":442,"ft":443,")$":444,"ps":445,"ud":446,"nt":447,"ew":448,"The":449,"ment":450,"ag":451,"Ġr":452,"ext":453,"iz":454,"all":455,"ere":456,"}{":457,"Ġu":458,"ort":459,"op":460,"ich":461,"ical":462,"Ġthis":463,"ak":464,"Ġhe":465,"int":466,"ld":467,"frac":468,"eq":469,"ult":470,"Ġsh":471,"Ġy":472,"og":473,"ass":474,"ell":475,"ĠO":476,"ated":477,"ĠJ":478,",\\":479,"ran":480,"our":481,"orm":482,"ect":483,"})":484,"ave":485,"ition":486,"Ġsu":487,"equ":488,"ber":489,"cl":490,"cite":491,"Ġch":492,"Ġcomp":493,"Ġ-":494,"de":495,"ign":496,"rm":497,"ff":498,"Ġle":499,"ens":500,"text":501,"Ġnot":502,"rou":503,"ue":504,"right":505,"Ġres":506,"ations":507,"00":508,"Ġcan":509,"abel":510,"ard":511,"ĠĠĠĠĠĠĠ":512,"du":513,"ary":514,"Ġcl":515,"are":516,"201":517,"},":518,"mathb":519,"the":520,"ame":521,"Ġk":522,"ĠU":523,"$,":524,"Ġwhich":525,"label":526,"ĉĉ":527,"ĠK":528,"$.":529,"Ġus":530,"Ġhave":531,"âĢĻ":532,"Ġint":533,"ian":534,"ĠIn":535,"ust":536,"'s":537,"able":538,"ace":539,"eta":540,"ast":541,"con":542,"equation":543,"Ġpl":544,"ong":545,"Ġwhe":546,"mathcal":547,"low":548,"cc":549,"}.":550,"ost":551,"ase":552,"ime":553,"age":554,"ip":555,"ap":556,"act":557,"left":558,"ia":559,"ork":560,"ener":561,"ther":562,"ire":563,"}(":564,"ib":565,"av":566,"fig":567,"so":568,"),":569,"ide":570,"Ġ\"":571,"Ġim":572,"Ġun":573,"ack":574,"ĠâĢ":575,"ru":576,"ain":577,"ear":578,"ord":579,"ions":580,"ang":581,"}^":582,"ence":583,"ach":584,"~\\":585,"form":586,"Ġapp":587,"Ġmod":588,"gh":589,"ous":590,"}_":591,"Ġhas":592,"ĠV":593,").":594,"ric":595,"Ġ{":596,"Ġab":597,"da":598,"fere":599,"com":600,"Ġ<":601,"pha":602,"amb":603,"Ġsp":604,"ind":605,"alpha":606,"10":607,"pro":608,"ĠSt":609,"over":610,"ĠTh":611,"Ġall":612,")\\":613,"out":614,"Ġ+":615,"Ġob":616,"ould":617,"line":618,"In":619,"ely":620,"Ġad":621,"erm":622,"row":623,"200":624,"--":625,"ry":626,"ound":627,"sum":628,"Ġone":629,"Ġalso":630,"ces":631,"old":632,"wo":633,"Ġpart":634,"$\\":635,"elta":636,"sp":637,"ok":638,"ambda":639,"rib":640,"pect":641,"Ġcont":642,");":643,"=\"":644,"Ġme":645,"ance":646,"tain":647,"ents":648,"Ġqu":649,"Ġdis":650,"ĠĠĠĠĠĠĠĠĠĠĠĠĠĠĠĠ":651,"own":652,"ice":653,"erv":654,"ors":655,"Ġj":656,"ates":657,"ree":658,"imes":659,"amma":660,"ik":661,"ple":662,"ie":663,"clud":664,"..":665,"ov":666,"_\\":667,"ory":668,"mu":669,"ile":670,"we":671,"ose":672,"irst":673,"Ġper":674,"Ġhis":675,"unction":676,"ark":677,"Ġif":678,"ome":679,"ics":680,"Ġ\\\\":681,"ular":682,"Ġsy":683,"mb":684,"=\\":685,"ally":686,"}^{":687,"dot":688,"ho":689,"}_{":690,"igma":691,"ress":692,"Ġar":693,"mathbb":694,"ray":695,"Ġ|":696,"Ġtwo":697,"Ġwill":698,"Ġev":699,"ution":700,"sub":701,"of":702,"ari":703,"ega":704,"oint":705,"ish":706,"-\\":707,"au":708,"rans":709,"cent":710,"Ġout":711,"ĠCh":712,"vers":713,"Ġwere":714,"Ġpre":715,"Ġbut":716,"ata":717,"ep":718,"^{\\":719,"to":720,"phi":721,"hat":722,"Ġne":723,"iel":724,"Ġtheir":725,"Ġform":726,"Ġset":727,"ollow":728,"fin":729,"ption":730,"ob":731,"Ġ{\\":732,"18":733,"</":734,"Ġmodel":735,"ject":736,"lambda":737,"raph":738,"Ġen":739,"Ġits":740,"Ġdif":741,"ove":742,"pon":743,"ll":744,"urn":745,"Ġ}":746,"tern":747,"//":748,"vel":749,"port":750,"Ġfirst":751,"ount":752,"one":753,"ield":754,"Ġother":755,"che":756,"ne":757,"bf":758,"ck":759,"Ġmore":760,"nder":761,"cre":762,"ĠWe":763,"umber":764,"ys":765,"Ġfunction":766,"lic":767,"rit":768,"Ġval":769,"Ġfollow":770,"pi":771,"Ġtime":772,"ĠY":773,"Ġover":774,"Ġyou":775,"app":776,"Ġcons":777,"Ġresult":778,"Ġbet":779,"Ġdo":780,"12":781,"ram":782,"dition":783,"wid":784,"ature":785,"ilon":786,"Ġour":787,"Ġdes":788,"psilon":789,"te":790,"section":791,"lect":792,"Ġwhere":793,"stem":794,"Ġsuch":795,"Ġsub":796,"ize":797,"ix":798,"mathbf":799,"Ġsim":800,"part":801,"ative":802,"Ġro":803,"Ġclass":804,"sigma":805,"Ġso":806,"Ġman":807,"ode":808,"ĠIt":809,"ced":810,"^{-":811,"mer":812,"Ġrel":813,"Ġequ":814,"set":815,"Ġonly":816,"Ġ(\\":817,"sc":818,"Ġwork":819,"resent":820,"Ġcor":821,"ilde":822,"very":823,"Ġag":824,"pos":825,"Ġ[":826,"les":827,"Ġdist":828,"Ġ*":829,"beta":830,"align":831,"Ġgener":832,"vi":833,"ĠĠĠĠĠ":834,"arg":835,"Ġconst":836,"Ġnew":837,"ox":838,"ĠĠĠĠĠĠĠĠĠĠĠ":839,"up":840,"eth":841,"ied":842,"Ġbeen":843,"lem":844,"}{\\":845,"Ġthere":846,"Ġreg":847,"ks":848,"ational":849,"Ġthey":850,"ific":851,"Ġinter":852,"ax":853,"oth":854,"Ġthan":855,"pec":856,"Ġco":857,"ual":858,"Ġacc":859,"ĠThis":860,"round":861,"ased":862,"Ġtra":863,"fter":864,"ss":865,"Ġph":866,"ng":867,"feren":868,"gamma":869,"Ġthen":870,"Ġte":871,"bar":872,"der":873,"ween":874,"Ġmat":875,"Ġpos":876,"Ġshow":877,"iss":878,"aram":879,"ings":880,"+\\":881,"Ġlo":882,"mathrm":883,"Ġcol":884,"Ġany":885,"ake":886,"array":887,"âĢĿ":888,"ility":889,"Ġwhen":890,"We":891,"Ġinto":892,"*}":893,"ict":894,"Ġup":895,"Ġtrans":896,"red":897,"ĠUn":898,"ient":899,"ince":900,"ĠHe":901,"ĠSe":902,"delta":903,"Ġbetween":904,"ator":905,"Ġwho":906,"ating":907,"rho":908,"^\\":909,"199":910,"olog":911,")}":912,"theta":913,"Re":914,"Ġsome":915,"\\\\":916,"ans":917,"Ġra":918,"]{":919,"Ġeach":920,"Ġhad":921,"aw":922,"ruct":923,"Ġgiv":924,"tau":925,"figure":926,"ons":927,"cess":928,"ise":929,"leq":930,"Ġplay":931,"ities":932,"Ġsc":933,"Ġsystem":934,"tt":935,"$-":936,"15":937,"here":938,"ype":939,"put":940,"lo":941,"ock":942,"sh":943,"Ġdata":944,"ild":945,"pr":946,"ĠâĢĵ":947,"Ġthese":948,"cdot":949,"Ġeff":950,"}$,":951,"hed":952,"}$.":953,"Ġfin":954,"Ġunder":955,"16":956,"ferent":957,"its":958,"ments":959,"Ġprob":960,"width":961,"ues":962,"Ġsol":963,"Ġcomm":964,"ral":965,"Ġgo":966,"ail":967,"Ġpoint":968,"ible":969,"rough":970,"}(\\":971,"nu":972,"Ġx":973,"ater":974,"Ġher":975,"big":976,"11":977,"ann":978,"rt":979,"item":980,"âĢĵ":981,"Ġno":982,"Ġinclud":983,"ike":984,"ident":985,"ough":986,"mall":987,"Ġyear":988,"pend":989,"Ġuse":990,"ring":991,"ron":992,"ote":993,"Ġkn":994,"ays":995,"Ġcase":996,"Ġpol":997,"Ġused":998,"io":999,"Ġstud":1000,"St":1001,"times":1002,"Ġabout":1003,"\">":1004,"Ġprov":1005,"ward":1006,"eqref":1007,"Ġoff":1008,"partial":1009,"Ġi":1010,"ĠRe":1011,"Ġpe":1012,"Ġfe":1013,"eqn":1014,"cy":1015,"Ġline":1016,"arrow":1017,"Ġappro":1018,"Ġwould":1019,"yn":1020,"Ġdifferent":1021,"Ġinv":1022,"omega":1023,"tilde":1024,"Th":1025,"Ġnumber":1026,"fty":1027,"let":1028,"ick":1029,"infty":1030,"Ġext":1031,"ized":1032,"ull":1033,"Ġact":1034,"22":1035,"ĠFor":1036,"uss":1037,"aramet":1038,"Ġnon":1039,"Ġest":1040,"13":1041,"Ġprodu":1042,"abl":1043,"min":1044,"ization":1045,"Ġvari":1046,"col":1047,"mm":1048,"turn":1049,"als":1050,"pm":1051,"ethod":1052,"ower":1053,"li":1054,"cond":1055,"ited":1056,"|\\":1057,"ool":1058,"Ġmay":1059,"ople":1060,"ublic":1061,"land":1062,"roup":1063,"21":1064,"Delta":1065,"Ġ||":1066,"uring":1067,"ning":1068,"Ġusing":1069,"quad":1070,"sy":1071,"ange":1072,"elf":1073,"ctions":1074,"ever":1075,"ists":1076,"Ġind":1077,"17":1078,"oot":1079,"ug":1080,"for":1081,"ism":1082,"Ġfield":1083,"Ġpartic":1084,"Ġass":1085,"Ġcur":1086,"ered":1087,"14":1088,"var":1089,"ample":1090,"ĠDe":1091,"Ġsign":1092,"vert":1093,"ĠâĢľ":1094,"sim":1095,"Ġmost":1096,"ider":1097,"get":1098,"Ġsame":1099,"arch":1100,"gy":1101,"ins":1102,"air":1103,"\\,":1104,"val":1105,"Ġrep":1106,"Ġafter":1107,"ically":1108,"ĠPro":1109,"ĠX":1110,"ĠQ":1111,"ily":1112,"Ġgiven":1113,"Ġwell":1114,"ctor":1115,"ca":1116,"ey":1117,"**":1118,"Ġterm":1119,"xi":1120,"Ġ'":1121,"eng":1122,"Ġdet":1123,"arge":1124,"und":1125,"ert":1126,"Ġdefin":1127,"oy":1128,"ivers":1129,"Ġbl":1130,"Ġfl":1131,"pert":1132,"Ġthem":1133,"Ġsupp":1134,"space":1135,"ĠCom":1136,"orem":1137,"serv":1138,"par":1139,"sec":1140,"Ġshe":1141,"Ġrec":1142,"Ġspec":1143,"}}\\":1144,"Ġoper":1145,"hi":1146,"itt":1147,"ĠZ":1148,"ĠAl":1149,"ines":1150,"ively":1151,"Ġfact":1152,"}[":1153,"Ġfollowing":1154,"Ġinst":1155,"eqnarray":1156,"ases":1157,")$.":1158,"ause":1159,"ink":1160,"rang":1161,"Ex":1162,"25":1163,"Ġboth":1164,"Ġsur":1165,"ner":1166,"Ġbec":1167,"Ġ.":1168,"Ġstate":1169,"Ġdire":1170,"ots":1171,"owever":1172,"Ġam":1173,"Ġent":1174,"Ġthrough":1175,"irc":1176,"oun":1177,"ĠNew":1178,"Ġget":1179,"riv":1180,"center":1181,"ade":1182,"Ġ$(":1183,"Ġz":1184,"ract":1185,"Ġhigh":1186,"Ġdef":1187,"meric":1188,".,":1189,"Ġexp":1190,"Ġorder":1191,"Ġfil":1192,"$$":1193,"where":1194,"oci":1195,"ton":1196,"ars":1197,"Ġobtain":1198,"epsilon":1199,"ute":1200,"asure":1201,"Ġresults":1202,"Ġparamet":1203,"Ġeffect":1204,"hen":1205,"ource":1206,"Om":1207,"ined":1208,"Ġem":1209,"Ġdisc":1210,"ook":1211,"ices":1212,"orld":1213,"Ġmin":1214,"30":1215,"198":1216,"uch":1217,"ential":1218,"amp":1219,"sq":1220,"not":1221,"ren":1222,"rix":1223,"Ġbound":1224,"Ġperform":1225,"ĠAs":1226,"psi":1227,"Ġanal":1228,"Ġmethod":1229,"ional":1230,"}_{\\":1231,"Omega":1232,"ont":1233,"Ġsmall":1234,"Ġsee":1235,"ding":1236,"ability":1237,"))":1238,"formation":1239,"^*":1240,"Ġend":1241,"Ġed":1242,"Ġsa":1243,"Ġback":1244,"Ġthree":1245,"att":1246,"ision":1247,"Ġsing":1248,"Ġrequ":1249,"ĠFig":1250,"Ġmass":1251,"respon":1252,"angle":1253,"ash":1254,"Ġdesc":1255,"ferences":1256,"energy":1257,"yp":1258,"Ġreturn":1259,"Gamma":1260,"reat":1261,"includ":1262,")$,":1263,"orn":1264,"Ġbu":1265,"Ġpeople":1266,"Ġvalue":1267,"----":1268,"Ġcent":1269,"23":1270,"work":1271,"ee":1272,"ason":1273,"==":1274,"ality":1275,"ulation":1276,"atic":1277,"Ġdec":1278,"Ġele":1279,"Ġsecond":1280,"err":1281,"sqrt":1282,"Ġac":1283,"ructure":1284,"Ġstr":1285,"Ġfound":1286,"rel":1287,"ful":1288,"ross":1289,"ern":1290,"ining":1291,"Ġwhile":1292,"Ġpr":1293,"Ġ${\\":1294,"Ġcall":1295,"50":1296,"textbf":1297,"subsection":1298,"Ġneed":1299,"ond":1300,"Ġlead":1301,"any":1302,"ribution":1303,"Ġ:":1304,"Ġobserv":1305,"ĠĠĊ":1306,"Ġmeasure":1307,"arly":1308,"rightarrow":1309,"fore":1310,"}=":1311,"mbol":1312,"vare":1313,"ames":1314,"Ġagain":1315,"Ġlike":1316,"led":1317,"Ġtr":1318,"}^{\\":1319,"Ġatt":1320,"ished":1321,"varepsilon":1322,"^{(":1323,"raphics":1324,"Ġrespect":1325,"Ġcondition":1326,"chool":1327,"def":1328,"rent":1329,"fra":1330,"wn":1331,"Ġevery":1332,"bm":1333,"man":1334,"ĠčĊ":1335,"ec":1336,"Ġ\\,":1337,"oh":1338,"uth":1339,"For":1340,"Ġprocess":1341,"Ġexpl":1342,"ency":1343,"ages":1344,"log":1345,"ets":1346,"Ġspace":1347,"ier":1348,"rict":1349,"Ġnow":1350,")=":1351,"Ġser":1352,"ural":1353,"Ġmem":1354,"Ġ/":1355,"rangle":1356,"iqu":1357,"ithm":1358,"24":1359,"caption":1360,"Ġproblem":1361,"etric":1362,"velop":1363,"ĠAmeric":1364,"cm":1365,"Ġpresent":1366,"ah":1367,"ĠĠĠĠĠĠĠĠĠĠĠĠĠĠĠ":1368,"\",":1369,"ology":1370,"Ġbel":1371,"hes":1372,"Ġassum":1373,"ffic":1374,"Ġenergy":1375,"Ġrepresent":1376,"bold":1377,"Ġexper":1378,"Ġdi":1379,"Ġincre":1380,"Ġcorrespon":1381,"Ġlocal":1382,"000":1383,"ten":1384,"197":1385,"This":1386,"imens":1387,"Ġmult":1388,"Ġserv":1389,"umn":1390,"Ġcould":1391,"egraphics":1392,"includegraphics":1393,"Ġmany":1394,"non":1395,"me":1396,"ĠLe":1397,"inal":1398,"pen":1399,"Ġscal":1400,"Ġfind":1401,"tab":1402,"iversity":1403,"->":1404,"yle":1405,"Ġopt":1406,"()":1407,"ants":1408,"etwork":1409,"Ġlong":1410,"rad":1411,"fer":1412,"Ġsince":1413,"Ġlarge":1414,"ĉĉĉĉ":1415,"Ġchar":1416,"Ġlim":1417,"Ġcomple":1418,"ĠAn":1419,"Ġ`":1420,"ement":1421,"ared":1422,"ife":1423,"Pro":1424,"ĠSh":1425,"ired":1426,"Ġbeing":1427,"utions":1428,"ank":1429,"varphi":1430,"ved":1431,".~\\":1432,"Ġconsider":1433,"''":1434,"Ġjust":1435,"vent":1436,"ole":1437,"ene":1438,"Ġyears":1439,"gor":1440,"Ġcontin":1441,"ball":1442,"Ġposs":1443,"ĠInd":1444,"chi":1445,"Ġmon":1446,"ified":1447,"Ġden":1448,"els":1449,"Ġgeneral":1450,"Ġcre":1451,"ference":1452,"view":1453,"Ġvery":1454,"aking":1455,"olution":1456,"ĠCon":1457,"ift":1458,"Ġyour":1459,"ather":1460,"chn":1461,"umer":1462,"Ġpublic":1463,"Ġhim":1464,"orth":1465,"geq":1466,"Ġsaid":1467,"way":1468,"emph":1469,"Ġright":1470,"Ġduring":1471,"Ġdoes":1472,"ott":1473,"by":1474,"uc":1475,"Ġestim":1476,".}":1477,"Ġbecause":1478,"Ġwhat":1479,"itive":1480,"ript":1481,"Ġrad":1482,"Ġcal":1483,"Ġve":1484,"ness":1485,"Ġstart":1486,"Con":1487,"az":1488,"cept":1489,"Ġeven":1490,"Ġart":1491,"Ġmain":1492,"aj":1493,"References":1494,"Ġ,":1495,"Ġshould":1496,"overline":1497,"gorithm":1498,"Ġfeature":1499,"Ġfam":1500,"Ġgroup":1501,"agn":1502,"fl":1503,"sk":1504,"&\\":1505,"Ġelect":1506,"ane":1507,"},\\":1508,"proof":1509,"ternal":1510,"It":1511,"rodu":1512,"ĠCl":1513,"ission":1514,"Ġhow":1515,"urther":1516,"mod":1517,"other":1518,"raw":1519,"oid":1520,")^":1521,"position":1522,"40":1523,"Ġstructure":1524,"Ġdescrib":1525,"Ġsupport":1526,"rid":1527,"ior":1528,"ood":1529,"vious":1530,"Ġreal":1531,"rop":1532,"Ġtest":1533,"ensity":1534,"Ġinteg":1535,"Ġspect":1536,"ateg":1537,"Big":1538,"med":1539,"ven":1540,"co":1541,"}).":1542,"Ġabove":1543,"ale":1544,"read":1545,"ensure":1546,"Ġvalues":1547,"symbol":1548,"bl":1549,"ormal":1550,"be":1551,"Ġmed":1552,"cer":1553,"erson":1554,"vec":1555,"As":1556,"outh":1557,"ilar":1558,"...":1559,"ength":1560,"Ġmade":1561,"frak":1562,"bers":1563,"Ġpa":1564,"son":1565,"hline":1566,"Ġident":1567,"Ġbased":1568,"[\\":1569,"Ġsat":1570,"Ġcount":1571,"Ġquant":1572,"Ġdevelop":1573,"Ġtem":1574,"Ġadd":1575,"rum":1576,"Ġtype":1577,"Ġrele":1578,"Ġtop":1579,"less":1580,"196":1581,"boldsymbol":1582,"ves":1583,"ury":1584,"Ġname":1585,"Ġbefore":1586,"Ġfilm":1587,"ke":1588,"ify":1589,"ration":1590,"ampl":1591,"oss":1592,"ij":1593,"gram":1594,"ger":1595,"}}$":1596,"langle":1597,"Ġcontain":1598,"Ġway":1599,"ĠCol":1600,"Ġdepend":1601,"Ġhand":1602,"ST":1603,"mber":1604,"Ġshown":1605,"ER":1606,"refore":1607,"Ġteam":1608,"Lambda":1609,"ouse":1610,"xim":1611,"lim":1612,"Ġpropert":1613,"ually":1614,"gg":1615,"ero":1616,"Ġthose":1617,"cul":1618,"ters":1619,"name":1620,"hip":1621,"Ġpres":1622,"cor":1623,"wh":1624,"acter":1625,"Ġfollows":1626,"appa":1627,"depend":1628,"Ġ//":1629,"100":1630,"Ġvi":1631,"Ġfour":1632,"ience":1633,"Ġallow":1634,"Ġgu":1635,"Ġmy":1636,"Ġmodels":1637,"mathfrak":1638,"Ġcomput":1639,"Let":1640,"Ġbas":1641,"gan":1642,"Ġinformation":1643,"Ġstand":1644,"Ġrun":1645,"ĠIf":1646,"Phi":1647,"Ġca":1648,"itial":1649,"ting":1650,"su":1651,"Ch":1652,"Ġorig":1653,"ĠSc":1654,"overn":1655,"ived":1656,"ival":1657,"Ġdue":1658,"ldots":1659,"mbox":1660,"Ġknow":1661,"Ġnetwork":1662,"Ġlet":1663,"Ġdirect":1664,"Ġlevel":1665,"27":1666,"see":1667,"ĠOn":1668,"Ġimport":1669,"::":1670,"Ġmake":1671,"kappa":1672,"atch":1673,"ives":1674,"Ġprovid":1675,"Ġwrit":1676,"Ġ@":1677,"Ġdefined":1678,"ĠAd":1679,"Ġknown":1680,"nabl":1681,"Ġpop":1682,"Ġstat":1683,"ĠUniversity":1684,"Ġaddition":1685,".\\":1686,"orph":1687,"ynam":1688,"bra":1689,"Ġredu":1690,"pre":1691,"ĠEx":1692,"ital":1693,"Ġrest":1694,"erest":1695,"Ġel":1696,"Ġlast":1697,"Ġrem":1698,"ators":1699,"26":1700,"arn":1701,"Ġgl":1702,"Ġsum":1703,"Ġexample":1704,"ected":1705,"face":1706,"imal":1707,"Ġparticular":1708,"with":1709,"28":1710,"Ġ</":1711,"Ġbecom":1712,"Ġobject":1713,"Ġexpect":1714,"citep":1715,"Ġpower":1716,"ym":1717,"Ġav":1718,"ysis":1719,"',":1720,"nabla":1721,"Ã©":1722,"Com":1723,"Ġlow":1724,"isf":1725,"ges":1726,"ĠAmerican":1727,"Ġ>":1728,"Ġet":1729,"Ġincluding":1730,"Ġerr":1731,"Ġread":1732,"rol":1733,"Ġsingle":1734,"omen":1735,"Ġsection":1736,"2018":1737,"ĠHowever":1738,"Ġterms":1739,"Ġdistribution":1740,"Ġcurrent":1741,"etry":1742,"no":1743,"Ġopen":1744,"Ġsimilar":1745,"2020":1746,"Ġcar":1747,"ina":1748,"Ġdeterm":1749,"nonumber":1750,"../":1751,"back":1752,"ately":1753,"Ġloc":1754,"otimes":1755,"ĠAr":1756,"textit":1757,"Ġmuch":1758,"ification":1759,"Ġdesign":1760,"tr":1761,"otential":1762,"ds":1763,"Ġhel":1764,"Ġhere":1765,"mult":1766,"eps":1767,"})$":1768,"etic":1769,"sf":1770,"ection":1771,"inc":1772,"Ġche":1773,"dis":1774,"aces":1775,"Ġdiscuss":1776,"cur":1777,"Ġder":1778,"IN":1779,"oper":1780,"alth":1781,"bs":1782,"ording":1783,"rem":1784,"2019":1785,"Ġstudy":1786,"plit":1787,"circ":1788,"2017":1789,"subset":1790,"AT":1791,"ĠIs":1792,"Ġleft":1793,"plic":1794,"Ġgra":1795,"box":1796,"requ":1797,"Ġwithin":1798,"day":1799,"Ġcommun":1800,"ask":1801,"Ġshows":1802,"Ġpred":1803,"Ġbeh":1804,"\\%":1805,"ule":1806,"Ġdom":1807,"Ġtot":1808,"arm":1809,"2016":1810,"ht":1811,"ĠĠĠĠĠĠĠĠĠ":1812,"table":1813,"Ġprof":1814,"ĠPh":1815,"Ġrema":1816,"Sigma":1817,"45":1818,"://":1819,"Ġhig":1820,"play":1821,"Ġvis":1822,"Ġaround":1823,"Ġtechn":1824,"comm":1825,"etail":1826,"ley":1827,"usic":1828,"Ġpoints":1829,"}),":1830,"ense":1831,"\\|":1832,"istic":1833,"ures":1834,"iod":1835,"rack":1836,"akes":1837,"Ġlist":1838,"ember":1839,"ĠPl":1840,"action":1841,"Ġdown":1842,"De":1843,"Ġalgorithm":1844,"AR":1845,"ĉĉĉ":1846,"ody":1847,"Ġsize":1848,"Ġlarg":1849,"ery":1850,"new":1851,"ccess":1852,"Ġreport":1853,"Ġcho":1854,"color":1855,"lection":1856,"ised":1857,"29":1858,"iment":1859,"}}{":1860,"Ġmagn":1861,"essage":1862,"ĠAnd":1863,"To":1864,"Ġdid":1865,"\\[":1866,"ination":1867,"Ġstill":1868,"ble":1869,"Ġsatisf":1870,"ixed":1871,"atter":1872,"Ġtri":1873,"Ġalong":1874,"ison":1875,"33":1876,"Ġcontinu":1877,"Ġpat":1878,"};":1879,"ensuremath":1880,"Ġocc":1881,"ĠUnited":1882,"ords":1883,"inks":1884,"ober":1885,"Ġdensity":1886,"rand":1887,"Ġmax":1888,"Ġparameters":1889,"60":1890,"ĠShe":1891,"ĠThen":1892,"istory":1893,"Ġindu":1894,"Ġagainst":1895,"\\!":1896,"Ġins":1897,"Ġtake":1898,"ohn":1899,"reg":1900,"Ġcharacter":1901,"Ġobtained":1902,"ety":1903,"Ġmust":1904,"veral":1905,"ml":1906,"ĠEng":1907,"dots":1908,"Ġinterest":1909,"por":1910,"ĠTo":1911,"Ġinitial":1912,"2015":1913,"ivity":1914,"Ġpar":1915,"):":1916,"ument":1917,"Ġnear":1918,"âĢľ":1919,"widet":1920,"Ġintrodu":1921,"ium":1922,"Ġseries":1923,"ĠRes":1924,"ek":1925,"str":1926,"div":1927,"Ġbest":1928,"Ġassoci":1929,"ground":1930,"/\\":1931,"Ġ)":1932,"lear":1933,"Ġcalled":1934,"Ġmean":1935,"Ġstrong":1936,"dependent":1937,"Ġpossible":1938,"AS":1939,"ON":1940,"ĠMar":1941,"Ġsolution":1942,"ead":1943,"Ġhold":1944,"Ġcompon":1945,"ograph":1946,"Ġpotential":1947,"Ġown":1948,"Ġsuper":1949,"widetilde":1950,"posed":1951,"Ġapproxim":1952,"Ġequation":1953,"Fig":1954,"Ġmark":1955,"Ġmatrix":1956,"Ġstates":1957,"Ġworld":1958,"urb":1959,".\"":1960,"cit":1961,"Ġrece":1962,"Ġprevious":1963,"ories":1964,".âĢĿ":1965,"Ġexpress":1966,"osed":1967,"Ġimp":1968,"Ġlater":1969,"Ġfunctions":1970,"Ġgood":1971,"til":1972,"verse":1973,"ii":1974,"Ġflu":1975,"Ġ``":1976,"Ġsequ":1977,"2014":1978,"Ġdeg":1979,"une":1980,"Ġexist":1981,"ivid":1982,"Ġtotal":1983,"32":1984,"Ġvers":1985,"Ġprogram":1986,"span":1987,"Ġpass":1988,"ĠSp":1989,"Ġtheory":1990,"iness":1991,"wide":1992,"Ġdem":1993,"ubl":1994,"ĠĠĠĠĠĠĠĠĠĠĠĠĠĠĠĠĠĠĠĠĠĠĠĠĠĠĠĠĠĠĠĠ":1995,"ĠLet":1996,"2021":1997,"Ġbuild":1998,"Ġwithout":1999,"ients":2000,"Ġpaper":2001,"enn":2002,"35":2003,"Ġrespon":2004,"Ġfinal":2005,"ially":2006,"ths":2007,"Ġself":2008,"Ġlimit":2009,"uro":2010,"Ġstre":2011,"ious":2012,"Ġq":2013,"Ġfamily":2014,"Ġhelp":2015,"ser":2016,"ched":2017,"imum":2018,"Ġcomb":2019,"bit":2020,"Al":2021,"On":2022,"oll":2023,"pd":2024,"Ġcou":2025,"{-":2026,"Ġpredict":2027,"ĠComm":2028,"odes":2029,"cap":2030,"Ġappear":2031,"2022":2032,"Ġgame":2033,"centering":2034,"Ġlook":2035,"Ġseveral":2036,"ootball":2037,"Ġbro":2038,"ĠTe":2039,"aps":2040,"perature":2041,"Ps":2042,"van":2043,"prime":2044,"Ġcrit":2045,"}-":2046,"alk":2047,"Ġconstant":2048,"Ġref":2049,"eb":2050,"ĠAt":2051,"atrix":2052,"Ġanalysis":2053,"Ġgraph":2054,"Ġ#":2055,"ĠĠĠĠĠĠ":2056,"Ġtyp":2057,"();":2058,"Ġcomplex":2059,"Ġposition":2060,"Ġcorresponding":2061,"ĠâĢĶ":2062,"ĠBl":2063,"2013":2064,"ird":2065,"Ġaver":2066,"tabular":2067,"ables":2068,"'t":2069,"90":2070,"Ġsl":2071,"ĠAll":2072,"clus":2073,"Ġmov":2074,"ww":2075,"Ġproduct":2076,"ique":2077,"Ġvert":2078,"Ġplayers":2079,"aving":2080,"Ġ--":2081,"Ġconf":2082,"Ġsignific":2083,"ude":2084,"ention":2085,"Ġcalcul":2086,"~~":2087,"trans":2088,"Ġimportant":2089,"(\"":2090,"Ġrespectively":2091,"Ġapproach":2092,"ĠWh":2093,"ĠEq":2094,"wards":2095,"Ġregion":2096,"Ġinvest":2097,"80":2098,"iving":2099,"Ġschool":2100,"Ġmom":2101,"Ġnext":2102,"195":2103,"sequ":2104,"ries":2105,"Ġphase":2106,"Ġseason":2107,"ajor":2108,"2010":2109,"ID":2110,"Ġphot":2111,"Ġpost":2112,"anu":2113,"dd":2114,"mp":2115,"\\]":2116,"ĠCar":2117,"Ġrate":2118,"Ġmet":2119,"ĠBe":2120,"fe":2121,"ĠMay":2122,"ts":2123,"anc":2124,"Ġ($":2125,"Ġproject":2126,"ler":2127,"Ġlinks":2128,"andom":2129,")=\\":2130,"2012":2131,"this":2132,"\\{":2133,"Ġparameter":2134,"Ġestabl":2135,")(":2136,";\\":2137,"ances":2138,"Âł":2139,"}+":2140,"By":2141,"ches":2142,"Cl":2143,"Ġevent":2144,"Ġeas":2145,"75":2146,"05":2147,"ources":2148,"zeta":2149,"ither":2150,"ĠThey":2151,"use":2152,"Ġperformance":2153,"Ġ&=":2154,"Ġlaw":2155,"time":2156,"Ġdetail":2157,"ences":2158,"Ġstandard":2159,"Ġperiod":2160,"pper":2161,"ai":2162,"ĠCount":2163,"Ġdimens":2164,"Ġ_":2165,"Ġrange":2166,"aim":2167,"amples":2168,"ended":2169,"ological":2170,"II":2171,"Ġcap":2172,"ĠCan":2173,"RE":2174,"uthor":2175,"ruction":2176,"ĠBy":2177,"max":2178,"2011":2179,"ĠTheorem":2180,"Ġphys":2181,"iron":2182,"Ġmap":2183,"></":2184,"--------":2185,"Ġlife":2186,"Ġplace":2187,"Ġpair":2188,"Ġimpro":2189,"const":2190,"Res":2191,"ĠSu":2192,"Ġindic":2193,"thm":2194,"Ġband":2195,"Ġspe":2196,"Ġorgan":2197,"ĠNational":2198,"Ġaff":2199,"exp":2200,"usiness":2201,")}\\":2202,"}=\\":2203,"Ġfurther":2204,"emma":2205,"arget":2206,"Ġrese":2207,"icle":2208,"Ġbre":2209,"ploy":2210,"01":2211,"Ġtimes":2212,"Ġchang":2213,"ĠStates":2214,"ĠGe":2215,"Ġarea":2216,"$)":2217,"style":2218,"ering":2219,"alax":2220,"Ġann":2221,"If":2222,"cont":2223,"rist":2224,"Ġsystems":2225,"}]":2226,"Ġfull":2227,"scal":2228,"org":2229,"draw":2230,"iter":2231,"overnment":2232,"Ġarg":2233,"ĠJohn":2234,"Ġchild":2235,"Ġhead":2236,"ĠCent":2237,"ailable":2238,"angu":2239,"ribut":2240,"{(":2241,"Ġproof":2242,"iple":2243,"Ġsymm":2244,"omorph":2245,"Ġaut":2246,"ĠFran":2247,"Ġlinear":2248,"48":2249,".~":2250,"ris":2251,"ways":2252,"Ġhy":2253,"Ġanother":2254,"Ġcare":2255,"Ġmot":2256,"Ġtemperature":2257,"obal":2258,"ket":2259,")^{":2260,"Ġlight":2261,"Ġsignificant":2262,"Ġfree":2263,"Ġturn":2264,"Ġide":2265,"Ġthough":2266,"Ġapplic":2267,"Ġview":2268,"ament":2269,"Ġdescribed":2270,"Ġhigher":2271,"ored":2272,"opt":2273,"arent":2274,"inter":2275,"Ġless":2276,"Ġdel":2277,"self":2278,"An":2279,"><":2280,"Ġlower":2281,"ĠWorld":2282,"ling":2283,"duct":2284,"script":2285,"field":2286,"ternational":2287,"ians":2288,"ĠYou":2289,"Ġpur":2290,"Ġdat":2291,"stand":2292,"36":2293,"Ġchange":2294,"Ġtrue":2295,"bum":2296,"Ġfram":2297,"SS":2298,"order":2299,"Ġfew":2300,"Ġperson":2301,"99":2302,"uation":2303,"off":2304,"ĠOr":2305,"Ġaction":2306,"sl":2307,"Ġpath":2308,"Ġhal":2309,"Ġgrow":2310,"Ġcour":2311,"oard":2312,"Ġfinite":2313,"Ġrandom":2314,"idd":2315,"{{\\":2316,"ocus":2317,"Ġvector":2318,"31":2319,"Ġprot":2320,"Ġvol":2321,"Ġsm":2322,"Ġdynam":2323,"ault":2324,"asing":2325,"Ġconditions":2326,"Ġbook":2327,"Ġconsid":2328,"ister":2329,"****":2330,"ague":2331,"aster":2332,"ino":2333,"ĠSection":2334,"empt":2335,"cdots":2336,"Ġke":2337,"class":2338,"}_\\":2339,"lected":2340,"fficient":2341,"AN":2342,"Ġcontrol":2343,"cos":2344,"Ġuntil":2345,"34":2346,"itle":2347,"ĠAust":2348,"lation":2349,"Ġcomplet":2350,"Ġcases":2351,"Ġleast":2352,"roll":2353,"Ġshort":2354,"ius":2355,"uly":2356,"Ġimage":2357,"AL":2358,"2009":2359,"}|":2360,"which":2361,"Ġtraining":2362,"osp":2363,"External":2364,"widehat":2365,"Ġsuccess":2366,"ape":2367,"ĠThese":2368,"iam":2369,"Ġsay":2370,"Ġ*/":2371,"}^\\":2372,"though":2373,"arning":2374,"inary":2375,"Ġconsist":2376,"gebra":2377,"^+":2378,"}\\,":2379,"../../":2380,"Ġwant":2381,"htt":2382,"ae":2383,"top":2384,"Ġcross":2385,"38":2386,"Ġsom":2387,"})\\":2388,"Ġfeatures":2389,"\".":2390,"Ġpositive":2391,"ĠThere":2392,"Ġlay":2393,"Ġred":2394,"illion":2395,"Ġmethods":2396,"Ġside":2397,"Ġobserved":2398,"anuary":2399,"Ġrecent":2400,"ends":2401,"Ġbir":2402,"ĠYork":2403,"Ġdiff":2404,"chie":2405,"Ġlength":2406,"====":2407,"alse":2408,"Ġcorre":2409,"Ġneg":2410,"Ġabs":2411,"Ġopp":2412,"70":2413,"Ġsit":2414,"ilt":2415,"Ġang":2416,"2008":2417,"qquad":2418,"lemma":2419,")]":2420,"ĠPol":2421,"Ġday":2422,"&=":2423,"Ġinclude":2424,"eter":2425,"Ġstar":2426,"ides":2427,"ĠBut":2428,"Ġfrequ":2429,"Ġavailable":2430,"foot":2431,"Ġge":2432,"Ġthus":2433,"textwidth":2434,"iver":2435,"reen":2436,"Ġmoment":2437,"Ġcell":2438,"rite":2439,"ats":2440,"uman":2441,"Ġsk":2442,"under":2443,"Ġsource":2444,"Ġweight":2445,"Ġconstra":2446,"Ġaverage":2447,"Ġnormal":2448,"Ġinvol":2449,"Un":2450,"Ġerror":2451,"inally":2452,"Ġcoll":2453,"Ġbelow":2454,"ĠSchool":2455,"Ġproperties":2456,"ung":2457,"ocial":2458,"roups":2459,"Ġfactor":2460,"Ġbetter":2461,",âĢĿ":2462,"Ġconsidered":2463,"ception":2464,"lying":2465,"}}(":2466,"onal":2467,"Ġzero":2468,"Ġsepar":2469,"AC":2470,"He":2471,"stit":2472,"OR":2473,"Ġcy":2474,"Ġsem":2475,"Ġprovide":2476,"viron":2477,"Ġflow":2478,"ope":2479,"SE":2480,"Ġlines":2481,"now":2482,"Ġdefine":2483,"Ġassociated":2484,"Ġrecord":2485,"based":2486,"enc":2487,"ably":2488,"Psi":2489,"Ġloss":2490,"Ġclust":2491,"Ġconn":2492,"sing":2493,"html":2494,"ĠWar":2495,"Ġwon":2496,"44":2497,"Ġinput":2498,"Ġmusic":2499,"add":2500,"appro":2501,"ĠFigure":2502,"source":2503,"Ġhome":2504,"}^{(":2505,"ze":2506,"af":2507,"Ġearly":2508,"Ġwin":2509,"Ġbehav":2510,"Ġfootball":2511,"ription":2512,"37":2513,"ĠMan":2514,"ush":2515,"Ġoffic":2516,"ĠSouth":2517,"Ġ\\{":2518,"Ġgalax":2519,"ently":2520,"Ġindependent":2521,"Ġpolit":2522,"nce":2523,"amed":2524,"ĠApp":2525,"Ġmajor":2526,"small":2527,"ĠRep":2528,"Ġkey":2529,"tack":2530,"95":2531,"ĠCo":2532,"ĠCounty":2533,"ĠOct":2534,"Ġcoupl":2535,"ĠAug":2536,"side":2537,"2007":2538,"hold":2539,"type":2540,"ĠUS":2541,"ĠĠĠĠĠĠĠĠĠĠĠĠĠĠĠĠĠĠĠ":2542,"LE":2543,"Ġcirc":2544,"Ġquest":2545,"Ġeng":2546,"Ġrelations":2547,"br":2548,"alt":2549,"Ġprobability":2550,"ising":2551,"otes":2552,"rary":2553,"Ġalbum":2554,"uture":2555,"rr":2556,"Ġproposed":2557,"sin":2558,"Ġquantum":2559,"ulations":2560,"ĠGu":2561,"Ġcost":2562,"Ġhom":2563,"Ġwid":2564,"2006":2565,"Ġleg":2566,"Ġexists":2567,"code":2568,"ĠJanuary":2569,",-":2570,"chan":2571,"Ġseen":2572,"Ġlog":2573,"Ġpriv":2574,"Ġcompar":2575,"point":2576,"gl":2577,"aced":2578,"Ġmeans":2579,"ordin":2580,"64":2581,"esc":2582,"}\\\\":2583,"Ġla":2584,"atural":2585,"Ġdeath":2586,"Ġsong":2587,"bb":2588,"Ġmulti":2589,"ware":2590,"Ġequival":2591,"ĠMin":2592,"head":2593,"ividual":2594,"most":2595,"rap":2596,"Ġeval":2597,"ĠSy":2598,"({\\":2599,"Ġ$(\\":2600,"ptember":2601,"ev":2602,"oman":2603,"Ġbecame":2604,"Ġrat":2605,"ms":2606,"idence":2607,"Ġeither":2608,"node":2609,"ĠSince":2610,"operator":2611,"Ġdon":2612,"ertain":2613,"ributions":2614,"39":2615,"ĠNo":2616,"urs":2617,"Ġgreat":2618,"Ġanaly":2619,"indent":2620,"cup":2621,"uk":2622,"ĠBrit":2623,"Ġoriginal":2624,"Ġnumer":2625,"AM":2626,"flu":2627,"Ġspin":2628,"Ġcover":2629,"ĠMarch":2630,"ula":2631,"Ġsimple":2632,"ĠCal":2633,"IC":2634,"igen":2635,"Ġsurface":2636,"ĠEuro":2637,"Ġnode":2638,"Ġfixed":2639,"Ġaccount":2640,"mathsf":2641,"rag":2642,"Ġgive":2643,"04":2644,"Ġachie":2645,"equiv":2646,"ussian":2647,"Ġexperiment":2648,"plement":2649,"Ġvarious":2650,"ĠLemma":2651,"ĠMore":2652,"Ġfocus":2653,"Ġold":2654,"ĠGerm":2655,"ried":2656,"Ġ&\\":2657,"ibility":2658,"pril":2659,"Name":2660,"Ġmanag":2661,"Ġscale":2662,"ideo":2663,"Ġplan":2664,"skip":2665,"Ġvia":2666,"ving":2667,"Ġsugg":2668,"Ġsuggest":2669,"wit":2670,"wise":2671,"âĢĶ":2672,"Ġiss":2673,"('":2674,"citet":2675,"Ġdefinition":2676,"Ġblack":2677,"Type":2678,"aken":2679,"Ġbi":2680,"itor":2681,"Ġspecial":2682,"size":2683,"Ġant":2684,"EN":2685,"ransp":2686,"defin":2687,"anguage":2688,"Ġassume":2689,"Ġamong":2690,"ules":2691,"Ġhref":2692,"Ġpo":2693,"comp":2694,"Ġsequence":2695,"icy":2696,"hspace":2697,"ney":2698,"message":2699,"iance":2700,"ovember":2701,"aut":2702,"uration":2703,"Ġoperator":2704,"raction":2705,"ials":2706,"ĠState":2707,"ourn":2708,"Ġvar":2709,"pdf":2710,"ready":2711,"Ġimpl":2712,"ĠPr":2713,"Ġmembers":2714,"mat":2715,"Ġland":2716,"Ġcommon":2717,"Ġsche":2718,"cember":2719,"lev":2720,"istor":2721,"06":2722,"Ġexact":2723,"ĠMe":2724,"Ġexpected":2725,"Ġenc":2726,"Ġcompany":2727,"Ġep":2728,"td":2729,"ariant":2730,"ĠCor":2731,"Ġformer":2732,"]$":2733,"ĠMed":2734,"go":2735,"Ġhowever":2736,"conom":2737,"}:":2738,"Ġpubl":2739,"Ġrepl":2740,"|^":2741,"iff":2742,"Ġtransition":2743,"Ġes":2744,"Ġlik":2745,"Ġhard":2746,"Ar":2747,"Ġcorrel":2748,"Ġpri":2749,"ĠArt":2750,"Ġlearning":2751,"eloc":2752,"Ġversion":2753,"Int":2754,"ada":2755,"wed":2756,"prop":2757,"Ġdiag":2758,"mid":2759,"cle":2760,"ĠPar":2761,"scale":2762,"Id":2763,"Ġpract":2764,"Ġelement":2765,"import":2766,"lege":2767,"Ġalways":2768,"Ġprom":2769,"ĠAugust":2770,"dimens":2771,"Ġfund":2772,"Ġbusiness":2773,"Ġlarger":2774,"ales":2775,"ĠCity":2776,"lish":2777,"Ġoften":2778,")-":2779,"49":2780,"Ġequations":2781,"ĠSo":2782,"Ġthink":2783,"2005":2784,"ilit":2785,"ĠSeptember":2786,"lement":2787,"ĠOctober":2788,"Ġacross":2789,"Ġboundary":2790,"Sh":2791,"Ġrequire":2792,"ĠJune":2793,"ours":2794,"ĠReg":2795,"08":2796,"Ġconstruct":2797,"Ġcompet":2798,"annel":2799,"ume":2800,"ĠâĢĺ":2801,"ster":2802,"ography":2803,"'$":2804,"Ġdistance":2805,"lor":2806,"ĠWith":2807,"}+\\":2808,"Ġmove":2809,"02":2810,"}}{\\":2811,"Ġresearch":2812,"Ġtarget":2813,"uck":2814,"Ġtre":2815,"Ġelements":2816,"pped":2817,"och":2818,"icol":2819,"2000":2820,"')":2821,"Ġtext":2822,"xspace":2823,"Ġindividual":2824,"vironment":2825,"65":2826,"ĠPart":2827,"47":2828,"gether":2829,"Ġtogether":2830,"Ġmight":2831,"Ġsample":2832,"abor":2833,"ĠJuly":2834,"07":2835,"ĠOne":2836,"Ġrelated":2837,"Ġtoo":2838,"Ġdatas":2839,"ems":2840,"Ġveloc":2841,"Ġthird":2842,"irt":2843,"Ġdenote":2844,"Ġrole":2845,"Ġaccess":2846,"Ġemb":2847,"Ġdev":2848,"iles":2849,"ĠAustral":2850,"Ġwomen":2851,"bor":2852,"function":2853,"but":2854,"ĠApril":2855,"ittle":2856,"ĠEurope":2857,"Ġregular":2858,"onic":2859,"ef":2860,"Ġ-\\":2861,"orts":2862,"ream":2863,"noindent":2864,"ĠThus":2865,"ĠNorth":2866,"ili":2867,"operatorname":2868,"Ġmar":2869,"Ġprop":2870,"ham":2871,"ĠAf":2872,"ilities":2873,"Ġstep":2874,"neq":2875,"}-\\":2876,"Ġbecome":2877,"2004":2878,"DE":2879,"opy":2880,"Ġgives":2881,"ony":2882,"value":2883,"Ġevents":2884,"star":2885,"izing":2886,"ged":2887,"ĠNovember":2888,"eneral":2889,"Ġgovernment":2890,"augh":2891,"ones":2892,"Ġfields":2893,"oted":2894,"Ġinvestig":2895,"Ġinf":2896,"ĠAss":2897,"urch":2898,"gen":2899,"Ġclose":2900,"ĠDecember":2901,"Ġpopulation":2902,"55":2903,"Ġfive":2904,"Ġalready":2905,"IT":2906,"Ġlabel":2907,"âĢ¦":2908,"Ġeffects":2909,"ĠAfter":2910,"ana":2911,"Ġcity":2912,"ĠHam":2913,"ampions":2914,"03":2915,"Ġbegin":2916,"Ġprim":2917,"Ġappl":2918,")}{":2919,"dom":2920,"Ġclaim":2921,"ĠSch":2922,"ults":2923,"],":2924,"ĠFeb":2925,"ĠWill":2926,"String":2927,"na":2928,"return":2929,"Ġret":2930,"Ġstars":2931,"Ġill":2932,"Ġsens":2933,"Ġproperty":2934,"46":2935,"medi":2936,"umerate":2937,"List":2938,"Ġcheck":2939,"Ġable":2940,"iven":2941,"Ġunit":2942,"Ġfore":2943,"ille":2944,"\\,\\":2945,"Ġgroups":2946,"Ġground":2947,"Ġsolutions":2948,"itting":2949,"ooth":2950,"|-":2951,"Ġdou":2952,"ression":2953,"ĉĊ":2954,"Se":2955,"Ġconstraint":2956,"more":2957,"Ġmetric":2958,"icro":2959,"ache":2960,"ension":2961,"AP":2962,"note":2963,"Ġhaving":2964,"lex":2965,"Ġfac":2966,"Ġtaken":2967,"Ġarch":2968,"raft":2969,"theorem":2970,"Ġdep":2971,"Ġrefer":2972,"Ġmatch":2973,"ĠWhen":2974,"Ġbackground":2975,"Ġplayed":2976,"call":2977,"rest":2978,"ruary":2979,"Ġedge":2980,"Ġwater":2981,"Ġdomain":2982,"ront":2983,"mark":2984,"Ġeffective":2985,"enumerate":2986,"ĠMc":2987,"09":2988,"Ġemploy":2989,")}$":2990,"rain":2991,"used":2992,"itemize":2993,"param":2994,"dimensional":2995,"Ġwritten":2996,"(-":2997,"Ġtherefore":2998,"down":2999,"map":3000,"astic":3001,"Ġworks":3002,"ocation":3003,"cing":3004,"verg":3005,"Ġauthor":3006,"ĠEn":3007,"ĠEd":3008,"Ġfar":3009,"vspace":3010,"Ġreleased":3011,"]\\":3012,"Ġfuture":3013,"Ġattack":3014,"Ġwind":3015,"Val":3016,"$}":3017,"Ġimplies":3018,"ĠChrist":3019,"acy":3020,"dag":3021,"ips":3022,"cell":3023,"Ġhistory":3024,"Ġcoe":3025,"Ġreview":3026,"hib":3027,"that":3028,"Ġnecess":3029,"hood":3030,"sw":3031,"IS":3032,"Ġadditional":3033,"/>":3034,"CO":3035,"ocal":3036,"Ġrequired":3037,"Ġservice":3038,"Ġimplement":3039,"Ġput":3040,"aches":3041,"Ind":3042,"Ġfig":3043,"Ġaccording":3044,"__":3045,"Ġenough":3046,"ogn":3047,"ĠII":3048,"itted":3049,"racy":3050,"opl":3051,"Ġpan":3052,"Ġmechan":3053,"Ġeffic":3054,"Ġcompared":3055,"Ġgr":3056,"iform":3057,"ĠHar":3058,"Ġhapp":3059,"Ġprec":3060,"Ġwave":3061,"scr":3062,"Ġreason":3063,"like":3064,"Ġcertain":3065,"Ġdegree":3066,"ending":3067,"aly":3068,"approx":3069,"Ġsix":3070,"rated":3071,"Ġbelie":3072,"ocument":3073,"Ġgames":3074,"ĠBar":3075,"Ġhealth":3076,"ĠCO":3077,"Ġincluded":3078,"Col":3079,"See":3080,"Ġ=>":3081,"yl":3082,"ustom":3083,"Ġsqu":3084,"Ġpress":3085,"aint":3086,"Ġsets":3087,"ights":3088,"Ġcut":3089,"Ġage":3090,"~$":3091,"Ġcontains":3092,"fill":3093,"ctors":3094,"Ġoptim":3095,"Ġgas":3096,"omorphism":3097,"ump":3098,"Ġalgebra":3099,"atively":3100,"Ġmater":3101,"gn":3102,"Ġstring":3103,"apan":3104,"Ġweak":3105,"mar":3106,"Ġfail":3107,"Ġ_{":3108,"}}_":3109,"Ġnote":3110,"uff":3111,"Ġspectrum":3112,"Ġholds":3113,"Ġmagnetic":3114,"iction":3115,"Ġhalf":3116,"Ġimages":3117,"eff":3118,"multicol":3119,"Ġgoing":3120,"Ġbeg":3121,"Ġneut":3122,"cast":3123,"rown":3124,"cret":3125,"Ġtw":3126,"42":3127,"Ġglobal":3128,"){":3129,"Ġgen":3130,"pol":3131,"Ġ!":3132,"earch":3133,"gs":3134,"multicolumn":3135,"Ġnull":3136,"my":3137,"ĠFebruary":3138,"rim":3139,"actions":3140,"Ġjo":3141,"Ġprovided":3142,"aul":3143,"ett":3144,"Ġproduction":3145,"data":3146,"Ġconc":3147,"Ġdifference":3148,"Ġtook":3149,"Ġnatural":3150,"Ġspecific":3151,"Ġmultiple":3152,"ottom":3153,"ires":3154,"Ġwhose":3155,"Ġpresented":3156,"lin":3157,"98":3158,"Ġstrateg":3159,"itect":3160,"}}}":3161,"&&":3162,"\"/>":3163,"Ġunderstand":3164,"Ġclos":3165,"ĠĠĠĠĠĠĠĠĠĠĠĠĠ":3166,"Ġcannot":3167,"Ġprove":3168,"aff":3169,"Ġtransform":3170,"2003":3171,"Ġnever":3172,"cher":3173,"kn":3174,"\\}$":3175,"CD":3176,"Ġbase":3177,"Ġcateg":3178,"Pl":3179,"ĠKing":3180,"ishing":3181,"alle":3182,"Ġcontext":3183,"Ġcomponent":3184,"aves":3185,"Ġevolution":3186,"ĠSer":3187,"^-":3188,"oad":3189,"Ġdevelopment":3190,"Ġrelation":3191,"Ġcommunity":3192,"Ġbo":3193,"Ġmaking":3194,"Ġyield":3195,"Ġport":3196,"Ġweek":3197,"Ġchildren":3198,"reed":3199,"rew":3200,"Since":3201,"tic":3202,"Ġelse":3203,"born":3204,"ulated":3205,"ĠQu":3206,"Ġwhether":3207,"Ġcoordin":3208,"Ġindex":3209,"Ġvelocity":3210,"iber":3211,"Ġcle":3212,"Ġair":3213,"Ġhuman":3214,"mon":3215,"Ġbig":3216,"Ġ\\|":3217,"Ġnum":3218,"fo":3219,"Ġoutput":3220,"Ġord":3221,"With":3222,"NN":3223,"Ġequal":3224,"Ġcode":3225,"66":3226,"Ġrot":3227,"ĠWest":3228,"Ġgenerated":3229,"istics":3230,"Ġconfig":3231,"iments":3232,"ĠLa":3233,"43":3234,"Ġimprove":3235,"ĠBritish":3236,"85":3237,"Ġrather":3238,"Ġlocated":3239,"semb":3240,"from":3241,"Ġrepresentation":3242,"pping":3243,"avy":3244,"mary":3245,"ceed":3246,"eder":3247,"Ġstation":3248,"ework":3249,"Ġblock":3250,"ilton":3251,"ners":3252,"aries":3253,"Ġtitle":3254,"ĠTherefore":3255,"Pi":3256,"rast":3257,"Ġcentral":3258,"Ġbasis":3259,"Ġcomponents":3260,"bur":3261,"Ġdays":3262,"Ġsite":3263,"Ġear":3264,"Ġprivate":3265,"Mod":3266,"Ġmember":3267,"Ġstyle":3268,"Ġcountry":3269,"Ġmatter":3270,"Ġtreat":3271,"Ġestimate":3272,"Ġreceived":3273,"Ġexplain":3274,"ĠDist":3275,"itude":3276,")+":3277,"Ġcomplete":3278,"Ġhouse":3279,"Ġsocial":3280,"ying":3281,"Ġsent":3282,"adem":3283,"Ġtheorem":3284,"mathscr":3285,"split":3286,"*{":3287,"Ġclear":3288,"Ph":3289,"vis":3290,"EC":3291,"##":3292,"ES":3293,"Ġ&&":3294,"Ġdirection":3295,"}^{-":3296,"come":3297,"Ġalmost":3298,"Ġeduc":3299,"tact":3300,"ĠMon":3301,"auge":3302,"ĠLeague":3303,"ards":3304,"Ġneigh":3305,"Ġcome":3306,"ĠNe":3307,"ĠAfric":3308,"izes":3309,"ured":3310,"97":3311,"There":3312,"Ġreported":3313,"Theta":3314,"ĠEl":3315,"ĠDep":3316,"ĠAg":3317,"Ġheld":3318,"Ġlearn":3319,"Ġincrease":3320,"Ġcareer":3321,"Ġprofess":3322,"Ġmen":3323,"ĠTable":3324,"Ġestablished":3325,"rench":3326,"ED":3327,"ese":3328,"Ġvariables":3329,"clusion":3330,"translation":3331,"ounc":3332,"group":3333,"ĠChe":3334,"icult":3335,"].":3336,"rs":3337,"BC":3338,"tage":3339,"2002":3340,"ha":3341,"ensor":3342,"41":3343,"Ġperm":3344,"Ġrestrict":3345,"rule":3346,"linear":3347,"fact":3348,"Ġhost":3349,"ournal":3350,"Ġactiv":3351,"state":3352,"Ġupd":3353,"Ġ\\;":3354,"ledge":3355,"ĠPer":3356,"ĠAb":3357,"Ġeigen":3358,"Ġalign":3359,"ming":3360,"96":3361,"ĠSan":3362,"ĠHis":3363,"At":3364,"Ġfalse":3365,"isk":3366,"Ġcamp":3367,"ĠSim":3368,"Ġwar":3369,"Ġhor":3370,"ĠPe":3371,"{}":3372,"Ġaway":3373,"Ġsignal":3374,"ransport":3375,"ota":3376,"duc":3377,"Ġaddress":3378,"Ġratio":3379,"ĠGl":3380,"Ġclosed":3381,"Ġmillion":3382,"ste":3383,"Ġmaximum":3384,"Ġmarket":3385,"Ã¡":3386,"Ġdone":3387,"ounter":3388,"PS":3389,"normal":3390,"Ġstory":3391,"bound":3392,"ĠFrom":3393,"Then":3394,"Ġchanges":3395,"Ġuser":3396,"Ġcontent":3397,"elling":3398,"Ġyoung":3399,"){\\":3400,"Ġdiv":3401,"era":3402,"Le":3403,"Ġflux":3404,"icture":3405,"Ġcolor":3406,"Ġtown":3407,"Ad":3408,"Ġbuilding":3409,"AA":3410,"Ġpublished":3411,"ĠEnglish":3412,"Ġvalid":3413,"Ġinstead":3414,"Ġ:=":3415,"ĠPark":3416,"Ġphysical":3417,"Ġannoun":3418,"Ġsoft":3419,"Ġunique":3420,"][":3421,"Ġwords":3422,"andid":3423,"Ġdecre":3424,"),\\":3425,"Ġtry":3426,"umb":3427,"Ġbuilt":3428,"Ġconstruction":3429,"Ġsmaller":3430,"Ġcontinuous":3431,"dt":3432,"Ġinstance":3433,"Ġupper":3434,"Ġperformed":3435,"Ġkeep":3436,"display":3437,"ĠPres":3438,"ĠThat":3439,"iting":3440,"key":3441,"ynom":3442,"Ġprior":3443,"atives":3444,"ret":3445,"ortun":3446,"Ġprovides":3447,"ondon":3448,"Ġleading":3449,"Wh":3450,"Ġbegan":3451,"Ġevalu":3452,"ford":3453,"Ġvideo":3454,"textrm":3455,"ĠHigh":3456,"roid":3457,"Ġ==":3458,"Ġnamed":3459,"Ġelectron":3460,"Ġ$|":3461,"Ġdemon":3462,"CC":3463,"<\\":3464,"Ġfilms":3465,"footnote":3466,"ided":3467,"tra":3468,"Ġstudies":3469,"ava":3470,"Ġenvironment":3471,"Ġsays":3472,"Ġmakes":3473,"texttt":3474,"2001":3475,"ĠMark":3476,"norm":3477,"acc":3478,"ĠComp":3479,"underline":3480,"utes":3481,"ĠFirst":3482,"bigg":3483,"Ġapplied":3484,"Ġsources":3485,"Ġmiss":3486,"Ġbroad":3487,"Ġdetect":3488,"New":3489,"ĠĠĠĠĊ":3490,"From":3491,"Ob":3492,"Ġbecomes":3493,"la":3494,"}/":3495,"ln":3496,"Ġ$\\{":3497,"can":3498,"Ġarm":3499,"ĠGa":3500,"command":3501,"Ġtaking":3502,"ops":3503,"ĠDav":3504,"minus":3505,"Ġbreak":3506,"oud":3507,"Ġtrack":3508,"ĠJapan":3509,"icit":3510,"imate":3511,"Ġentire":3512,"Ġpast":3513,"subseteq":3514,"Ġfri":3515,"OS":3516,"Ġcult":3517,"Ġwrite":3518,"overed":3519,"Ġpay":3520,"Ġnational":3521,"Ġgeom":3522,"Ġ($\\":3523,"inated":3524,"88":3525,"Ġrank":3526,"Ġfit":3527,"Ġscen":3528,"_+":3529,"Ġindust":3530,"taint":3531,"Ġdirectly":3532,"rig":3533,"Ġdimension":3534,"Ġprinc":3535,"oon":3536,"oms":3537,"Ġchall":3538,"ĠHer":3539,"67":3540,"Ġproblems":3541,"util":3542,"attice":3543,"Ġspecies":3544,"Ġcritical":3545,"ouncil":3546,"ply":3547,"ĠArm":3548,"Su":3549,"gress":3550,"levision":3551,"Americ":3552,"ĠNote":3553,"Ġlittle":3554,"light":3555,"^{-\\":3556,"Ġliter":3557,"dist":3558,"Ġbehavior":3559,"Ġworking":3560,"ĠAm":3561,"Ġid":3562,"ully":3563,"ief":3564,"Ġimpact":3565,"prod":3566,"Ġchoice":3567,"Ġbirths":3568,"iet":3569,"band":3570,"pers":3571,"Ġsearch":3572,"century":3573,"inos":3574,"Ġonce":3575,"load":3576,"Ġcompos":3577,",\"":3578,"Ġnuc":3579,"($":3580,"Ġintroduced":3581,"Ġcolumn":3582,"Ġreally":3583,"Ġamount":3584,"\\'":3585,"Ġproduced":3586,"ĠTra":3587,"Ġstudents":3588,"long":3589,"known":3590,"Ġver":3591,"atory":3592,"otic":3593,"ĠChar":3594,"Ġoccur":3595,"king":3596,"Ġexec":3597,")|":3598,"Ġresponse":3599,"ux":3600,"Ġquestion":3601,"ills":3602,"LL":3603,"Ġclub":3604,"arily":3605,"tical":3606,"Ġrelative":3607,"ĠHouse":3608,"Ġvoid":3609,"Ġincreasing":3610,"Ġinflu":3611,"osen":3612,"rices":3613,"Ġdifficult":3614,"vey":3615,"Note":3616,"Ġequivalent":3617,"Ġmeet":3618,"spec":3619,"irl":3620,"Ġfrequency":3621,"}}_{":3622,"Ġround":3623,"$_":3624,"Ġparticip":3625,"mit":3626,"Vert":3627,"And":3628,"olic":3629,"Ġnov":3630,"Ġdetails":3631,"Ġmer":3632,"nection":3633,"ĠMod":3634,"IM":3635,"Ġ%":3636,"ansion":3637,"isc":3638,"Ġregions":3639,"ening":3640,"Ġuncer":3641,"iation":3642,"thing":3643,"ribute":3644,"Ġwidth":3645,"Ġothers":3646,"Ġbody":3647,"Ġdetermined":3648,"Ġgalaxies":3649,"Ġhtt":3650,"2023":3651,"ows":3652,"}'":3653,"Ġderiv":3654,"Ġâ":3655,"ĠInt":3656,"Ġplayer":3657,"Ġbar":3658,"iddle":3659,"Ġobservations":3660,"All":3661,"Ġadvan":3662,"ĠBro":3663,"shift":3664,"allel":3665,"Sc":3666,"{$":3667,"Ġpeak":3668,"string":3669,"Ġnoise":3670,"Ġadj":3671,"dagger":3672,"Ġinteraction":3673,"Ġsymmetry":3674,"ributed":3675,"Ġobjects":3676,"ken":3677,"ario":3678,"Ġ$-":3679,"Ġintegral":3680,"setminus":3681,"Set":3682,"oney":3683,"icles":3684,"oplus":3685,"book":3686,"77":3687,"Ġnumbers":3688,"Ġcenter":3689,"ifold":3690,"AB":3691,"Ġcreated":3692,"ellar":3693,"ĠLondon":3694,"\\}":3695,"Ġemission":3696,"Ġallows":3697,"Ġinequ":3698,"Ġgauge":3699,"ĠCollege":3700,"Ġtakes":3701,"Sp":3702,"Data":3703,"ranch":3704,"gra":3705,"_{(":3706,"ET":3707,"}},":3708,"Ġdiagram":3709,"www":3710,"Ġdeveloped":3711,"Ġvill":3712,"Ġproced":3713,"68":3714,"turb":3715,"Ġsmooth":3716,"Ġlanguage":3717,"Ġcourse":3718,"\")":3719,"Ġsubject":3720,"Ġoperators":3721,"ĠVal":3722,"https":3723,"Ġcorrect":3724,"Ġexpression":3725,"do":3726,"vergence":3727,"IR":3728,"sel":3729,"Ġvan":3730,"ridge":3731,"Ġeconom":3732,"estern":3733,"bu":3734,"Ġcreate":3735,"ama":3736,"ĠMy":3737,"ores":3738,"Ġservices":3739,"Ġcame":3740,"ĠAng":3741,"Ġpolynom":3742,"usion":3743,"ĠĠĠĊ":3744,"Ġrob":3745,"bre":3746,"ĠOur":3747,"Ġcurve":3748,"Ġcapt":3749,"ensive":3750,"American":3751,"Ġsetting":3752,"ditional":3753,"ccording":3754,"Ġsufficient":3755,"eline":3756,"iew":3757,"App":3758,"Ġ$[":3759,"bert":3760,"AD":3761,"berg":3762,"Ġshift":3763,"level":3764,"ites":3765,"Ġgrad":3766,"Ġconduct":3767,"minist":3768,"Ġdemonstr":3769,"illed":3770,"Ġstatic":3771,"US":3772,"à¤":3773,"ging":3774,"Ġgrav":3775,"Ġfun":3776,"oe":3777,"Be":3778,"ara":3779,"Ġstarted":3780,"linewidth":3781,"Cont":3782,"ĠInternational":3783,"Ġcompan":3784,"ilitary":3785,"change":3786,"ething":3787,"bsite":3788,"1999":3789,"test":3790,"Ġcandid":3791,"Ġhence":3792,"Ġparticles":3793,"Ġtypes":3794,"uracy":3795,"jection":3796,"wedge":3797,"ociety":3798,"perp":3799,"ele":3800,"bul":3801,"Ġkind":3802,"Ġsett":3803,"ĠWilliam":3804,"volution":3805,"Ġtransfer":3806,"Ġtask":3807,"ises":3808,"Ġconnected":3809,")\\,":3810,"PR":3811,"year":3812,"unic":3813,"Ġmention":3814,"Ġess":3815,"MS":3816,"Ġcompact":3817,"ĠStud":3818,"rier":3819,"ĠAct":3820,"oph":3821,"Ġlikely":3822,"Ġpattern":3823,"model":3824,"file":3825,"eal":3826,"list":3827,"ĠChampions":3828,"Ġsense":3829,"Ġuniform":3830,"Ġarchitect":3831,"ĠÂ":3832,"Ġbounded":3833,"Ġrecogn":3834,"ids":3835,"Ġinfin":3836,"Ġapproximation":3837,"Ġembed":3838,"ĠCont":3839,"ĠMich":3840,"Ġchannel":3841,"Ġdiscussed":3842,"subfigure":3843,"sup":3844,"Ġax":3845,"Ġdataset":3846,"Ġregard":3847,"abs":3848,"Ġiter":3849,"ender":3850,"1998":3851,"Ġclassical":3852,"omb":3853,"di":3854,"ura":3855,"Ġparticle":3856,"den":3857,"rate":3858,"Ġperturb":3859,"encies":3860,"ĠHere":3861,"_*":3862,"que":3863,"Ge":3864,",\\,":3865,"Ġadded":3866,"Ġexplicit":3867,"Ġtherm":3868,"eed":3869,"attle":3870,"Ġtable":3871,"When":3872,"inn":3873,"iforn":3874,"Ġviol":3875,"Ġmomentum":3876,"ĠIndia":3877,"Ġsw":3878,"ĠDi":3879,"500":3880,"Ġincludes":3881,"ĠAir":3882,"ky":3883,"flo":3884,"Ġengine":3885,"Ġrow":3886,"\"><":3887,"Ġpack":3888,"ĠĠĠĠĠĠĠĠĠĠĠĠĠĠĠĠĠĠĠĠĠĠĠ":3889,"Ġagre":3890,"ĠTr":3891,"Ġgot":3892,".)":3893,"ropy":3894,"Ġlate":3895,"58":3896,"dapt":3897,"path":3898,"han":3899,"Ġillust":3900,"Ġled":3901,"det":3902,"57":3903,"limits":3904,"Ġcr":3905,"aged":3906,"\\!\\!":3907,"Ġdest":3908,"Ġvertex":3909,"Ġdynamics":3910,"px":3911,"png":3912,"ĠMor":3913,"Ġnegative":3914,"ociation":3915,"atform":3916,"Ġapply":3917,"lier":3918,"Ġonline":3919,"ĠGo":3920,"Ġcoupling":3921,"Ġ|\\":3922,"Ġmedia":3923,"fit":3924,"Ġconclud":3925,"ĠFrench":3926,"pc":3927,"ened":3928,"pret":3929,"Ġexperience":3930,"Ġresulting":3931,"Ġfall":3932,"ervice":3933,"Ġmix":3934,"FT":3935,"ashed":3936,"ifornia":3937,"Ġvariable":3938,"Ġ}\\":3939,"colon":3940,"Ġmaps":3941,"using":3942,"ĠDo":3943,"Ġstudied":3944,"ocks":3945,"One":3946,"Ġattempt":3947,"riate":3948,"Ġlink":3949,"ptions":3950,"irect":3951,"Ġexperiments":3952,"Ġuncertaint":3953,"uments":3954,"Ġpolicy":3955,"OT":3956,"body":3957,"Ġbene":3958,"pecially":3959,"Ġ(-":3960,"Ġrespons":3961,"_{-":3962,"Ġshall":3963,"Pe":3964,"Ġsamples":3965,"ams":3966,"Ġcentury":3967,"curity":3968,"_{{\\":3969,"ĠHamilton":3970,"crete":3971,"Ġdri":3972,"Ġrequest":3973,"rivial":3974,"Ġcustom":3975,"ollary":3976,"Ġlayer":3977,"56":3978,"Ġnumerical":3979,"Ġsimulations":3980,"unc":3981,"ued":3982,"Ġstage":3983,"leg":3984,"ington":3985,"xy":3986,"Ġgoal":3987,"Ġsound":3988,"Ġcharge":3989,"Ġ\\(":3990,"ĠAc":3991,"Ġitself":3992,"Ġpref":3993,"aging":3994,"Ġmode":3995,"----------------":3996,"SP":3997,"Qu":3998,"Ġdeep":3999,"aring":4000,"Ġparts":4001,"Ġframework":4002,"Ġspeed":4003,"Ġsimply":4004,"Ġserved":4005,"ĠDistrict":4006,"ares":4007,"Ġpopular":4008,"itions":4009,"asc":4010,"Ġcontribution":4011,"ĠAmerica":4012,"78":4013,"ĠProposition":4014,"Ġwhole":4015,"Ġmotion":4016,"dro":4017,"Eq":4018,"Ġamplit":4019,"Ġmeasured":4020,"Ġcos":4021,"Ġstreng":4022,"Ġir":4023,"********":4024,"Ġborn":4025,"Ġund":4026,")}(":4027,"Ġderived":4028,"Ġareas":4029,"Ġarbit":4030,"Ġbox":4031,"Ġwent":4032,"'\\":4033,"EE":4034,"Ġsubset":4035,"Ġexpon":4036,"igned":4037,"ellow":4038,"hy":4039,"Ġspectral":4040,"ĠOb":4041,"range":4042,"Ġtool":4043,"reet":4044,"Ġscheme":4045,"aligned":4046,"Ġparent":4047,"nov":4048,"Ġforce":4049,"avor":4050,"Ġuses":4051,"place":4052,"Ġhyp":4053,"ĠRed":4054,"rec":4055,"Ġchain":4056,"hips":4057,"Ġleads":4058,"ogle":4059,"After":4060,"main":4061,"}}(\\":4062,"ands":4063,"Ġresid":4064,"Bl":4065,"Ġoptimal":4066,"Ġneeded":4067,"run":4068,"Ġaccept":4069,"Ġtree":4070,"Ġdeal":4071,"Ġseg":4072,"ached":4073,"Ġpresence":4074,"Ġradius":4075,"Ġmechanism":4076,"ĠGerman":4077,"MC":4078,"Ġformula":4079,"State":4080,"Ġspat":4081,"Ġcomparison":4082,"Ġdistrict":4083,"stitute":4084,"Here":4085,"ĠIndian":4086,"lands":4087,")/":4088,"}%":4089,"Ġwhy":4090,"Ġnecessary":4091,"hern":4092,"ship":4093,"oul":4094,"Ġthings":4095,"Ġcluster":4096,"Ġlot":4097,"Ġcharg":4098,"Ġreve":4099,"Ġlattice":4100,"Is":4101,"Ġradio":4102,"Ġlat":4103,"Ġpolar":4104,"orge":4105,"hel":4106,"ĠWhile":4107,"Ġsomething":4108,"zz":4109,"Ġsuccessful":4110,"Ġreach":4111,"Ġaltern":4112,"'_":4113,"ratic":4114,"Ġreduced":4115,"atal":4116,"rice":4117,"Ġlive":4118,"Ġsuff":4119,"Ġapplication":4120,"ĠNews":4121,"Ġflo":4122,"fficients":4123,"ios":4124,"definition":4125,"Ġexpansion":4126,"Ġrelev":4127,"Not":4128,"ĠNot":4129,"Ġyet":4130,"Ġdark":4131,"Ġremov":4132,"Ġremains":4133,"ĠCalifornia":4134,"LO":4135,"ĠDes":4136,"ĠPresident":4137,"Ġcorrespond":4138,")_{":4139,".~(\\":4140,"Ġfeel":4141,"Ġsatisfies":4142,"Ġ&=&":4143,"Ġdecay":4144,"ously":4145,"pite":4146,"ĠRec":4147,"////":4148,"ĠĠĠĠĠĠĠĠĠĠ":4149,"Ġcomes":4150,"Our":4151,"ĠSm":4152,"ilarly":4153,"Ã³":4154,"deg":4155,"Ġ+\\":4156,"ĠCons":4157,"Ġstructures":4158,"Ġask":4159,"ĠRepublic":4160,"length":4161,"endix":4162,"Now":4163,"Ġobser":4164,"$^{-":4165,"Ġhistor":4166,"ĠRef":4167,"ĠCenter":4168,"isation":4169,"Ġnodes":4170,"93":4171,"Ġjob":4172,"ymm":4173,"}$-":4174,"Ġquality":4175,"94":4176,"ports":4177,"Ġpers":4178,"Ġfraction":4179,"ĠHence":4180,"AG":4181,"Ġgain":4182,"ĠCup":4183,"PT":4184,"Ġminimum":4185,"stein":4186,"ĠAustralia":4187,"Ġknowledge":4188,"artment":4189,"simeq":4190,"fect":4191,"Ġsupported":4192,"Ġgrowth":4193,"hand":4194,"Ġinteresting":4195,"SI":4196,"ael":4197,"ico":4198,"Ġlevels":4199,"inct":4200,"Ġconsistent":4201,"=(":4202,"{$\\":4203,"itz":4204,"Ġchosen":4205,"Ġespecially":4206,"Ġlove":4207,"Net":4208,"Ġcommunic":4209,"Ġdouble":4210,"Value":4211,"cial":4212,"1997":4213,"];":4214,"Ġcontract":4215,"atur":4216,"SO":4217,"izations":4218,"Ġaccuracy":4219,"ĠEngland":4220,"http":4221,"Ġpanel":4222,"black":4223,"Ġcorresponds":4224,"Ġneeds":4225,"ka":4226,"Ġnetworks":4227,"Ġvolume":4228,"Ġminim":4229,"Ġformation":4230,"check":4231,"Ġgre":4232,"ĠSystem":4233,"eli":4234,"CT":4235,"Ġfront":4236,"Ġselected":4237,"index":4238,"erve":4239,"Ġfile":4240,"Ġchoose":4241,"bt":4242,"Ġdig":4243,"pan":4244,"Ġface":4245,"Ġadapt":4246,":\\":4247,"Ġtowards":4248,"Ġalthough":4249,"ecause":4250,"Ġimmedi":4251,"87":4252,"ympt":4253,"ivil":4254,"Ġball":4255,"^{+":4256,"Ġadv":4257,"1996":4258,"Ġdocument":4259,")^{\\":4260,"ĠHol":4261,"Ġfigure":4262,"ĠDem":4263,"irm":4264,"Ġidea":4265,"Ġplane":4266,"What":4267,"Ġcalculated":4268,"Ġclasses":4269,"subsubsection":4270,"Ġaud":4271,"flow":4272,"Ġsimpl":4273,"Ġhol":4274,"asons":4275,"Ġson":4276,"Ġannounced":4277,"lease":4278,"Ġprocesses":4279,"ube":4280,"Ġactually":4281,"Ġupon":4282,"Ġmeasurements":4283,"Ġmag":4284,"Ġscatter":4285,"ty":4286,"ifying":4287,"ville":4288,"Ġpolitical":4289,")^{-":4290,"acity":4291,"forall":4292,"lymp":4293,"ades":4294,"Ġlatter":4295,"FF":4296,"Ġscre":4297,"Ġexperimental":4298,"Ġusually":4299,"rd":4300,"urthermore":4301,"Ġactive":4302,"Ġnorth":4303,"Ġensure":4304,"Ġeasily":4305,"oding":4306,"ĠBlack":4307,"Ġmid":4308,"sto":4309,"Ġoutside":4310,"Ġmonths":4311,"Ġconcept":4312,"Ġcorrelation":4313,"Ġtelevision":4314,"ingu":4315,"ayer":4316,"Te":4317,"ager":4318,"Ġwebsite":4319,"ker":4320,"1990":4321,"uel":4322,"Ġconsequ":4323,"Ġfactors":4324,"Ġwhite":4325,"useum":4326,"ya":4327,"ĠBel":4328,"However":4329,"Ġusers":4330,"ÃŃ":4331,"ĠEast":4332,"version":4333,"Ġscalar":4334,"vol":4335,"sol":4336,"ini":4337,"92":4338,"Ġmaterial":4339,"Ġeasy":4340,"nb":4341,"=-":4342,"ĠCour":4343,"sm":4344,"Ġautom":4345,"Ġfem":4346,"Ġhyper":4347,"\");":4348,"Ġstra":4349,"Ġconstraints":4350,"Ġestablish":4351,"$).":4352,"Ġdied":4353,"Ġnorm":4354,"Ġrelease":4355,"ĠSte":4356,"ĠEuropean":4357,"SU":4358,"Ġlocation":4359,"Ġexhib":4360,"SC":4361,"Sim":4362,"stack":4363,"Figure":4364,"eler":4365,"Ġinc":4366,"utive":4367,"Ġadopt":4368,"Ġassumption":4369,"MA":4370,"ĠAnt":4371,"Ġvertices":4372,"ession":4373,"Ġlonger":4374,"86":4375,"Ġlaun":4376,"Ġcoefficients":4377,"Ġop":4378,"Ġslow":4379,"rror":4380,"Ġnews":4381,"uses":4382,"Ġpercent":4383,"Ġroad":4384,"Ġextended":4385,"ements":4386,"Ġinternational":4387,"textsc":4388,"ander":4389,"Ġdescribe":4390,"iques":4391,"ĠĠĠĠĠĠĠĠĠĠĠĠ":4392,"Ġissue":4393,"ĠPo":4394,"ĠBer":4395,"Ġcompute":4396,"Ġreference":4397,"PC":4398,"aign":4399,"ĠMoreover":4400,"Ġstri":4401,"reshold":4402,"iers":4403,"Ġmach":4404,"Ġemer":4405,"arp":4406,"itte":4407,"ĠLaw":4408,"~$\\":4409,"location":4410,"Ġdetermine":4411,"En":4412,"hest":4413,"Ġepis":4414,"ĠPat":4415,"Ġlargest":4416,"resents":4417,"Ġedges":4418,"cons":4419,"ĠResearch":4420,"anning":4421,"Ġcollection":4422,"ĠChina":4423,"Ġword":4424,"ipal":4425,"ĠCanada":4426,"||":4427,"Ġinequality":4428,"ait":4429,"apping":4430,"ĠCouncil":4431,"isions":4432,"51":4433,"Ġissues":4434,"acing":4435,"Ġdetection":4436,"More":4437,"Ġdraw":4438,"Ġnovel":4439,"rant":4440,"Ġshape":4441,"ilib":4442,"Ġinside":4443,"$(":4444,"Ġsimulation":4445,"Ġoverall":4446,"ica":4447,"UT":4448,"Get":4449,"52":4450,"ibrary":4451,"Ġlimited":4452,"Ġinterpret":4453,"roduction":4454,"Ġforward":4455,"Ġtoday":4456,"ĠDiv":4457,"iny":4458,"rc":4459,"Ġavoid":4460,"76":4461,"Ġfully":4462,"cases":4463,"Ġdecl":4464,"Ġprocedure":4465,"={":4466,"Ġfather":4467,"anks":4468,"Ġexamples":4469,"asks":4470,"uthors":4471,"iral":4472,"Ġpressure":4473,"Ġsold":4474,"Ġadm":4475,"Ġuseful":4476,"oke":4477,"Ġaim":4478,"Ġnight":4479,"Ġdual":4480,"Class":4481,"Ġproducts":4482,"ĠDr":4483,"Ġapplications":4484,"Ġorigin":4485,"But":4486,"ani":4487,"Ġspectra":4488,"54":4489,"Ġdistributions":4490,"Ġproper":4491,"Ġever":4492,"ĠRiver":4493,"iences":4494,"ĠPaul":4495,"Ġqual":4496,"wood":4497,"Ġcompanies":4498,"Ġlost":4499,"ĠGroup":4500,"bullet":4501,"istry":4502,"Ġdependence":4503,"iency":4504,"Ġallowed":4505,"zero":4506,"Ġrequires":4507,"Ġsignificantly":4508,"Ġcontact":4509,"ĠNow":4510,"ees":4511,"ba":4512,"0000":4513,"Ġcurves":4514,"Ġnature":4515,"ĠBay":4516,"Ġmoved":4517,"Ġrates":4518,"Test":4519,"}^*":4520,"ĠSen":4521,"53":4522,"url":4523,"oring":4524,"uls":4525,"ogene":4526,"Ġ~":4527,"rat":4528,"Ġtransport":4529,"rief":4530,"Ġdesigned":4531,"Ġ/**":4532,"ĠMal":4533,"rian":4534,"oo":4535,"Ġrecently":4536,"========":4537,"Ġessential":4538,"error":4539,"ĠGeneral":4540,"ĠTV":4541,"Ġcontrast":4542,"cho":4543,"ĠSupp":4544,"Ġquite":4545,"Ġsouth":4546,"Ġsus":4547,"Ġtensor":4548,"Ġangle":4549,"Ġones":4550,"atus":4551,"Ġslight":4552,"Ġrelevant":4553,"91":4554,"ĠÐ":4555,"Ġmicro":4556,"$$\\":4557,"odot":4558,"Ġri":4559,"ien":4560,"Ġattention":4561,"local":4562,"Ġquas":4563,"Ġinvariant":4564,"mail":4565,"Ġestimated":4566,"HE":4567,"Exception":4568,"ocol":4569,"Ġinvolved":4570,"arc":4571,"1995":4572,"ns":4573,"ĠThom":4574,"Ġdenotes":4575,"Ġpie":4576,"link":4577,"Ġevidence":4578,"Ġrule":4579,"DF":4580,"vex":4581,"Ġbelong":4582,"uations":4583,"mes":4584,"Ġdepends":4585,"Ġbit":4586,"Ġincreases":4587,"cles":4588,"gu":4589,"Ã¼":4590,"ĠDepartment":4591,")}{\\":4592,"rab":4593,"Ġdriv":4594,"UR":4595,"Ġsolid":4596,"Ġexactly":4597,"Ġthroughout":4598,"Ġcore":4599,"Ġrunning":4600,"Ġded":4601,"ĠMa":4602,"Ġdisplay":4603,"rote":4604,"spect":4605,"Ġimm":4606,"tri":4607,"Ġaward":4608,"war":4609,"Ġresolution":4610,"aper":4611,"TS":4612,"ĠDavid":4613,"ĠWhat":4614,"Ġunits":4615,"inv":4616,"ĠStreet":4617,"}}^":4618,"ountain":4619,"ĠParty":4620,"Ġrepresents":4621,"Ġstarting":4622,"ML":4623,"Ġste":4624,"ĠRoy":4625,"Ġrisk":4626,"Ġfood":4627,"remark":4628,"Ġprote":4629,"ernel":4630,"selves":4631,"Ġworked":4632,"ĠPal":4633,"hesis":4634,"Ġstrategy":4635,"inant":4636,"Ġarticle":4637,"height":4638,"\\\"":4639,"well":4640,"Ġdecision":4641,"ĠScience":4642,")\\\\":4643,"Ġidentity":4644,"Ġarray":4645,"Ġparty":4646,"Ġoperations":4647,"Ġscore":4648,"ida":4649,"Ġconnect":4650,"Ġtravel":4651,"Fil":4652,"Ġthought":4653,"ĠHall":4654,"Ġbehind":4655,"etimes":4656,"Ġ=\\":4657,"Ġconsists":4658,"Ġappears":4659,"Ġsteps":4660,"})$.":4661,"Ġacqu":4662,"ĠHow":4663,"ĠÃ":4664,"ĠGreen":4665,"ancial":4666,"pmatrix":4667,"Ġprofile":4668,"Ġprimary":4669,"ĠJames":4670,"Ġmodes":4671,"Ġsymbol":4672,"ilibri":4673,"You":4674,"Man":4675,"Ġspaces":4676,"Object":4677,"Ġargument":4678,")_":4679,"Ġorb":4680,"input":4681,"nel":4682,"hom":4683,"Ġdescription":4684,"Ġansw":4685,"Ġstellar":4686,"itable":4687,"Ġblue":4688,"Ġvillage":4689,"stant":4690,"Ġfollowed":4691,"Ġframe":4692,"Ġpreviously":4693,"antic":4694,"board":4695,"IG":4696,"CH":4697,"bo":4698,"ĠAward":4699,"perty":4700,"Ġtreatment":4701,"ĠUK":4702,"inf":4703,"ĠRober":4704,"Ġquark":4705,"$~":4706,"Ġplatform":4707,"89":4708,"Ġcells":4709,"pose":4710,"olar":4711,"Over":4712,"Ġalgorithms":4713,"rees":4714,"Ġpage":4715,"Tr":4716,"VID":4717,"ĠList":4718,"Im":4719,"ĉĉĉĉĉ":4720,"bon":4721,"Ġsubsequ":4722,"paramet":4723,"Ġindustry":4724,"free":4725,"Ġintroduce":4726,")$-":4727,"ĠPort":4728,"ING":4729,"Ġhot":4730,"Ġdr":4731,"Ġselect":4732,"No":4733,"Ġexistence":4734,"ION":4735,"Thus":4736,"ĠEm":4737,"TR":4738,"ĠWork":4739,"Ġdra":4740,"Ġforms":4741,"72":4742,"Ġoperation":4743,"Ġbul":4744,"Ġgenerally":4745,"Sy":4746,"Ġagreement":4747,"oto":4748,"ĠFe":4749,"Ġmole":4750,"adian":4751,"values":4752,"Ġhoriz":4753,"case":4754,"Ġeducation":4755,"Ġhon":4756,"ĠSub":4757,"ago":4758,"Ġcurrently":4759,"ĠTrans":4760,"Ġdisk":4761,"Ġtell":4762,"Ġcomputed":4763,"Ġsymmetric":4764,"Ġpresident":4765,"Ġapproaches":4766,"84":4767,"column":4768,"multi":4769,"Theorem":4770,"ĠBra":4771,"mapsto":4772,"osing":4773,"Ġneighbor":4774,"ental":4775,"Ġmemory":4776,"Ġcategory":4777,"produ":4778,"Ġsquare":4779,"icon":4780,"Ġcontroll":4781,"ĠSum":4782,"graph":4783,"ĠBu":4784,"orthern":4785,"Ġsingular":4786,"eles":4787,"Ġspatial":4788,"dx":4789,"Ġexpand":4790,"irtual":4791,"alg":4792,"Ġchalleng":4793,"newcommand":4794,"1994":4795,"matrix":4796,"ded":4797,"59":4798,"ĠInstitute":4799,"Ġpractice":4800,"Ġfast":4801,"ĠSur":4802,"Ġinteractions":4803,"Ġsampl":4804,"Ġtheore":4805,"thern":4806,"Ġpropag":4807,"Ġformed":4808,"Ġproduce":4809,"mc":4810,"Ġmis":4811,"dim":4812,"ĠFrance":4813,"Ġconcern":4814,"Ġcosm":4815,"``":4816,"Ġten":4817,"ĠInter":4818,"\";":4819,"Ġconserv":4820,"composition":4821,"ki":4822,"Ġmonth":4823,"Ġrepresented":4824,"Ġmale":4825,"Ġgradu":4826,"ĠChurch":4827,"Ġstable":4828,"Ġelection":4829,"Ġearlier":4830,"ston":4831,"ĠString":4832,"rick":4833,"Ġconsum":4834,"ĠRich":4835,"Ġincreased":4836,"ĠFl":4837,"People":4838,"63":4839,"Ġpersonal":4840,"Ġachieve":4841,"Equ":4842,"ĠHealth":4843,"Ġfeed":4844,"abilities":4845,"acher":4846,"First":4847,"Ġsil":4848,"\\|_{":4849,"hbox":4850,"So":4851,"SM":4852,"Ġquick":4853,"ilies":4854,"ashington":4855,"undle":4856,"Form":4857,"Ġassert":4858,"nes":4859,"arth":4860,"Ġasympt":4861,"ederal":4862,"Ġconnection":4863,"OM":4864,"Ġerrors":4865,"bi":4866,"Ġcry":4867,"Ġteams":4868,"Ġyields":4869,"Ġtechnology":4870,"hbar":4871,"writ":4872,"Ġarbitrary":4873,"ĠGaussian":4874,"Bu":4875,"seud":4876,"Ġliterature":4877,"Ġgalaxy":4878,"Ġassist":4879,"Ġestimates":4880,"omorphic":4881,"Def":4882,"ishes":4883,"Ġapprop":4884,"Ġtrac":4885,"public":4886,"Ġveh":4887,"Ġsituation":4888,"Ġsure":4889,"Ġdate":4890,"ressed":4891,"Ġaccom":4892,"Ġshare":4893,"Ġextract":4894,"neg":4895,"Ġpairs":4896,"Living":4897,"prob":4898,"ĠAssociation":4899,"Ġexcept":4900,"FL":4901,"ittee":4902,"Ġquad":4903,"Ġkm":4904,"rot":4905,"ollowing":4906,"Me":4907,"Ġpatients":4908,"Ġwall":4909,"Ġopportun":4910,"Ġchem":4911,"));":4912,"bin":4913,"ĠDan":4914,"_-":4915,"Or":4916,"Ġcontributions":4917,"NR":4918,"outhern":4919,"Ġidentified":4920,"rep":4921,"ye":4922,"Ġextension":4923,"View":4924,"Ġrac":4925,"ifier":4926,"Ġconcent":4927,"'(":4928,"displaystyle":4929,"elt":4930,"\\{\\":4931,"Ġcounter":4932,"});":4933,"unt":4934,"Ġselection":4935,"ĠMat":4936,"Ġabsor":4937,"rons":4938,"Ġmatrices":4939,"Ġcontinue":4940,"Ġcollect":4941,"Ġtax":4942,"Ġbring":4943,"Ġextra":4944,"EM":4945,"mass":4946,"62":4947,"Ġclassification":4948,"Ġstatement":4949,"ilibrium":4950,"Ġmaintain":4951,"proposition":4952,"ĠFil":4953,"itar":4954,"Ġbasic":4955,"Ġwide":4956,"{{":4957,"$;":4958,"Ġhighly":4959,"Ġheight":4960,"Ġstraight":4961,"1980":4962,"ĠHamiltonian":4963,"Ġrules":4964,"bour":4965,"Ġconfiguration":4966,"83":4967,"ĠOff":4968,"Ġdirector":4969,"pid":4970,"Ġ$$":4971,"Ġseem":4972,"Ġdeaths":4973,"Ġlum":4974,"Ġseems":4975,"Ġrock":4976,"ĠMart":4977,"Ġmilitary":4978,"illing":4979,"ros":4980,"Ġadminist":4981,"ĠQue":4982,"Ġmoney":4983,"rie":4984,"nowled":4985,"Sub":4986,"Ġmeasurement":4987,"Ġfix":4988,"ench":4989,"tem":4990,"Ġwrote":4991,"icity":4992,"Ġauthors":4993,"Ġthreshold":4994,"mission":4995,"1992":4996,"ags":4997,"Ġpolynomial":4998,"pace":4999,"82":5000,"magn":5001,"](":5002,"Ġcalc":5003,"Ġexam":5004,"Ġrelationship":5005,"Ġvict":5006,"Ġbr":5007,"Ġvariety":5008,"ny":5009,"Ġefficient":5010,"Ġoptical":5011,"Supp":5012,"acters":5013,"ospital":5014,"ĠSome":5015,"Ġassumed":5016,"1993":5017,"inder":5018,"Ġscattering":5019,"ald":5020,"}}^{":5021,"eared":5022,"Ġmasses":5023,"ĠSpec":5024,"overy":5025,"Ġmodern":5026,"Ġmeaning":5027,"\\_":5028,"ĠOlymp":5029,"nbsp":5030,"Ġlack":5031,"comple":5032,"Ġreturned":5033,"ĠSing":5034,"aker":5035,"300":5036,"net":5037,"ĠSuper":5038,"Ġ()":5039,"These":5040,"NS":5041,"Ġanalog":5042,"Ġfire":5043,"Ġmarg":5044,"arant":5045,"amily":5046,"Ġmentioned":5047,"74":5048,"Ġkin":5049,"ĠWil":5050,"ih":5051,"Time":5052,"etime":5053,"scill":5054,"Ġplot":5055,"witch":5056,"&=&":5057,"ona":5058,"Ã¶":5059,"Ġhours":5060,"ĠClass":5061,"Ġtransformation":5062,"ĠBo":5063,"Ġtrain":5064,"Ġreduce":5065,"Ġdiscussion":5066,"Ġboard":5067,"Ġcompare":5068,"amental":5069,"istical":5070,"ĠFound":5071,"Ġhighest":5072,"Ġobserve":5073,"Ġtechniques":5074,"Key":5075,"ifically":5076,"Ð°":5077,"73":5078,"js":5079,"win":5080,"inese":5081,"object":5082,"Ġaffect":5083,"Ġremaining":5084,"FA":5085,"Ġtalk":5086,"Ġcampaign":5087,"Ġcompletely":5088,"Ġwor":5089,"Hz":5090,"amely":5091,"desc":5092,"ĠGeorge":5093,"pack":5094,"ĠBook":5095,"Ġconstit":5096,"Ġexisting":5097,"arter":5098,"ĠIm":5099,"Ġelectric":5100,"Ġsecurity":5101,"61":5102,"History":5103,"Ġmother":5104,"gin":5105,"LS":5106,"roy":5107,"Ġbur":5108,"Ġshowed":5109,"'}":5110,"ĠCourt":5111,"ĠRuss":5112,"mann":5113,"Table":5114,"apter":5115,"Ġwalk":5116,"ĠDay":5117,"ĠCap":5118,"~~~~":5119,"PE":5120,"Ġanti":5121,"Ġplaying":5122,"Ġoffice":5123,"udes":5124,"Ġcomputation":5125,"NA":5126,"Ġvac":5127,"69":5128,"Ġapproximately":5129,"Ġmorph":5130,"ĠTechn":5131,"Ġbinary":5132,"CS":5133,"ĠRoman":5134,"Ġvs":5135,"Ġdebut":5136,"ado":5137,"Co":5138,"za":5139,"ĠOther":5140,"Ġbey":5141,"Ġinner":5142,"79":5143,"Ġdepart":5144,"Ġreveal":5145,"Ġconvergence":5146,"Error":5147,"example":5148,"Ġcam":5149,"reek":5150,"sect":5151,"ĠRem":5152,"ĠJack":5153,"Ġrights":5154,"km":5155,"Ġprofessional":5156,".$":5157,"MM":5158,"ĠJust":5159,"ĠGermany":5160,"Ġwriting":5161,"true":5162,"Ġmanifold":5163,"Ġsurv":5164,"Ġbeyond":5165,"}({\\":5166,"Ġ!=":5167,"ĠVol":5168,"Ġ...":5169,"Ġleaders":5170,"ibly":5171,"Ġruns":5172,"Ġformal":5173,"ĠGra":5174,"yr":5175,"Ġcontinued":5176,"Ġdistinct":5177,"iti":5178,"().":5179,"ĠDis":5180,"Ġinternal":5181,"corpor":5182,"agraph":5183,"nav":5184,"Ġactivity":5185,"sur":5186,"vention":5187,"Ġult":5188,"Ġbal":5189,"ĠLeg":5190,"Ġdirected":5191,"elli":5192,"Ġoscill":5193,"Ġtransl":5194,"Ġcombination":5195,"cr":5196,"Ġmeasures":5197,"((":5198,"ipage":5199,")+\\":5200,"}&":5201,"ulate":5202,"nother":5203,"Ġforces":5204,"ĠBest":5205,"ĠArch":5206,"Ġvisit":5207,"Ġvisual":5208,"Ġvectors":5209,"ading":5210,"ĠUnion":5211,"term":5212,"minipage":5213,"81":5214,"Ġhimself":5215,"Ġliving":5216,"ĠWashington":5217,"ĠLou":5218,"Ġsex":5219,"Ġ///":5220,"Ġreson":5221,"Ġcoordinates":5222,"Ġinj":5223,"ĠPhil":5224,"Ġrepe":5225,"Ġpure":5226,"reedom":5227,"ĠInst":5228,"then":5229,"Ġcountries":5230,"ĠAfrica":5231,"riz":5232,"LP":5233,"ĠSw":5234,"Ġdro":5235,"ĠOf":5236,"Ġappoint":5237,"Ġmanagement":5238,"Ġdam":5239,"ĠOut":5240,"}{|":5241,"idden":5242,"}$)":5243,"Ġsatisfy":5244,"Ġring":5245,"alian":5246,"Ġregime":5247,"Ġphen":5248,"CE":5249,"}}$,":5250,"summary":5251,"BS":5252,"print":5253,"Ġheavy":5254,"cong":5255,"ĠRad":5256,"Ne":5257,"71":5258,"iring":5259,"Ġrelatively":5260,"Ġcompleted":5261,"Pr":5262,"ĠVir":5263,"Ġdidn":5264,"ĠArmy":5265,"Ġinterval":5266,"Ġgreater":5267,"ano":5268,"|_{":5269,"emic":5270,"uit":5271,"mma":5272,"ĠPress":5273,"Ġcoming":5274,"}}$.":5275,"Ġdise":5276,"Ġorg":5277,"izer":5278,"Ġpoly":5279,"blue":5280,"Ġpick":5281,"Ð¾":5282,"va":5283,"Ġstaff":5284,"Ġparticularly":5285,"ĠRoad":5286,"ĠMusic":5287,"Ġstrength":5288,"ples":5289,"Ġeight":5290,"Ġperfect":5291,"obile":5292,"ether":5293,"inst":5294,"Ġcred":5295,"Ġhypot":5296,"ĠDuring":5297,"FC":5298,"Ġreconst":5299,"})$,":5300,")-\\":5301,"How":5302,"Ġjoined":5303,"$),":5304,"Ġtold":5305,"Ġabsol":5306,"Ġgave":5307,"Ġrace":5308,"Ġamplitude":5309,"active":5310,"Ġinteger":5311,"fil":5312,"Ġgenerate":5313,"._":5314,"ĠYear":5315,"Ġmagnitude":5316,"Ġlooking":5317,"force":5318,"Ġredshift":5319,"Ġcourt":5320,"Ġcast":5321,")}_{":5322,"Ġflat":5323,"arr":5324,"rane":5325,"IP":5326,"Ġrecorded":5327,"gener":5328,"Pol":5329,"Ġorient":5330,"sey":5331,"Ġconstructed":5332,"ĠTex":5333,"cular":5334,"Ġfriend":5335,"());":5336,"ala":5337,"Ġ?":5338,"tik":5339,"Ġdifferential":5340,"picture":5341,"oder":5342,"mage":5343,"Ġthrow":5344,"CP":5345,"aily":5346,"Ġunivers":5347,"Ġjoint":5348,"kin":5349,"Ġaccur":5350,"otted":5351,"Ġclearly":5352,"Ġmind":5353,"Ġcontaining":5354,"ĠEqu":5355,"Ġthing":5356,"ponent":5357,"Ġslightly":5358,"Ġfight":5359,"Ġgeneration":5360,"Ġsaf":5361,"Ġsoftware":5362,"Ġidentify":5363,"Ġoptions":5364,"Ġter":5365,"BA":5366,"Ġways":5367,"Ġstrongly":5368,"mi":5369,"Ġcalculations":5370,"char":5371,"Ġjud":5372,"Ġhit":5373,"stra":5374,"Ġbranch":5375,"system":5376,"ĠHig":5377,"Ġfluct":5378,"MP":5379,"Ġbottom":5380,"))$":5381,"Ġcharacters":5382,"1991":5383,"ĠSeries":5384,"ĠSam":5385,"pat":5386,"opic":5387,"Ġ]":5388,"page":5389,"Ġexcit":5390,"Ġstated":5391,"ĠWhite":5392,"ĠDef":5393,")},":5394,"ski":5395,"Ġrecomm":5396,"ĠAlex":5397,"ĠMag":5398,"reme":5399,"Ġobservation":5400,"ĠMary":5401,"ĠGold":5402,"Ġpolitic":5403,"ĠSociety":5404,"Ġinduced":5405,"Ġthick":5406,"Introduction":5407,"Reg":5408,"omic":5409,"aughter":5410,"Of":5411,"Ġ$|\\":5412,"lig":5413,"Ġnucle":5414,"vector":5415,"Ġdoesn":5416,"Fe":5417,"Ġprediction":5418,"Ġmessage":5419,"ĠCompany":5420,"sembly":5421,"Ġnames":5422,"Ġofficial":5423,"aur":5424,"ĠAlso":5425,"Ġvary":5426,"Ġharm":5427,"Ġtro":5428,"IV":5429,"orage":5430,"}{(":5431,"Ġconclude":5432,"ifferent":5433,"Ġtim":5434,"ĠKe":5435,"ĠAcadem":5436,"Ġparallel":5437,"End":5438,"enge":5439,"Ġetc":5440,"Ab":5441,"Ġdoing":5442,"Ġotherwise":5443,":}":5444,"Ġhydro":5445,"word":5446,"Ġpolice":5447,"ĠDemoc":5448,"Ġheart":5449,"Ġclusters":5450,"block":5451,"iding":5452,"DA":5453,"Ġreduction":5454,"Ġdevi":5455,"Ġener":5456,"Ġoppos":5457,"fs":5458,"Ġsaw":5459,"ĠMet":5460,".</":5461,"ĠNor":5462,"lesssim":5463,"ĠMo":5464,"ĠGod":5465,"Ġopened":5466,"Ġmus":5467,"cel":5468,"Ġbad":5469,"Ġroom":5470,"Ġfamilies":5471,"airs":5472,"GC":5473,"Ġremark":5474,"Ġhole":5475,"ogeneous":5476,"user":5477,"cis":5478,"agement":5479,"lam":5480,"tikz":5481,"Ġlisted":5482,"hing":5483,"Cons":5484,"ĠRobert":5485,"Ġreplaced":5486,"Ġdetailed":5487,"estival":5488,"Ġsoon":5489,"zer":5490,"Ġnotation":5491,"Ġvo":5492,"ĠCOVID":5493,"burg":5494,"bed":5495,"Ġ\\&":5496,"result":5497,"Ġdifferences":5498,"process":5499,"Ġbeginning":5500,"ĠLie":5501,"....":5502,"ĠMac":5503,"abil":5504,"MR":5505,"Ġcalculation":5506,"mas":5507,"Ġsegment":5508,"Ġoptimization":5509,"Ġtheoretical":5510,"Ġproved":5511,"rame":5512,"Ġthermal":5513,"Ġnom":5514,"Ġgovern":5515,"ĠMer":5516,"uge":5517,"Ġtypical":5518,"Ġcombined":5519,"rial":5520,"tot":5521,"Ġoffer":5522,"ĠMex":5523,"ira":5524,"Ġquestions":5525,"dy":5526,"lt":5527,"Ġnoted":5528,"Ġdu":5529,"real":5530,",\\,\\":5531,"Ġbooks":5532,"Ġappropriate":5533,"Ġtor":5534,"'re":5535,"Ġbehavi":5536,"ĠAlthough":5537,"isher":5538,"Ġthemselves":5539,"plate":5540,"\"></":5541,"1970":5542,"-$":5543,"[(":5544,"Ġinsp":5545,"$_{":5546,"Ġsemi":5547,"ĠAustralian":5548,"\":":5549,"Ġnearly":5550,"Ġneutr":5551,"ĠFin":5552,"oken":5553,"Ġ\\!":5554,"Ġbrief":5555,"Therefore":5556,"Next":5557,"tag":5558,"ĠSal":5559,"Ġappeared":5560,"DP":5561,"Out":5562,"UN":5563,"Ġmarried":5564,"Ġcause":5565,"Ġideal":5566,"GB":5567,"ita":5568,"rong":5569,"CL":5570,"Ġrail":5571,"ĠCong":5572,"Ġbrother":5573,"weight":5574,"ĠSun":5575,"ĠDivision":5576,"Ġsongs":5577,"rought":5578,"Ġdepth":5579,"Ġbeam":5580,"Ġgradient":5581,"bigl":5582,"Ġminimal":5583,"Ġhttps":5584,"Ġseven":5585,"ensus":5586,"Ġinfluence":5587,"Ġtour":5588,"Ġsyn":5589,"Ġbelieve":5590,"Ġ${":5591,"hal":5592,"OP":5593,"Ġstream":5594,"Ġprice":5595,"Ġexpressed":5596,"Ġer":5597,"Ġscales":5598,"eria":5599,"TT":5600,"Ġaxis":5601,"Ġdefe":5602,"oting":5603,"Ġscient":5604,"Ġcool":5605,"cd":5606,"ducation":5607,"ĠRoyal":5608,"ĠGal":5609,"gies":5610,"Ġpen":5611,"^*$":5612,"ĠIsland":5613,"itch":5614,"ĠBur":5615,"kl":5616,"ĠClub":5617,"Ġfinally":5618,"Ġpartition":5619,",\\\\":5620,"Ġproport":5621,"Ġmassive":5622,"ĠMichael":5623,"Requ":5624,"Ġangular":5625,"Ġsigned":5626,"Ġexternal":5627,"ĠFinally":5628,"Ġgap":5629,"Ġmes":5630,"Ġimmediately":5631,"iable":5632,"Bar":5633,"Ġability":5634,"Ġtasks":5635,"\\;":5636,"annels":5637,"current":5638,"Ġschools":5639,"Ġcircle":5640,"Ġ;":5641,"Ġcard":5642,"ĠRussian":5643,"lood":5644,"Ġuncertainty":5645,"Ġinstall":5646,"Ġloop":5647,"onical":5648,"Ġaspect":5649,"ought":5650,"supp":5651,"OD":5652,"hu":5653,"Ġtypically":5654,"maz":5655,"Ġcomment":5656,"Ġwife":5657,"itivity":5658,"iant":5659,"Ġreached":5660,"ests":5661,"Ġcoach":5662,"ĠPublic":5663,"Ġstay":5664,"Ġdefault":5665,"Ġtraditional":5666,"she":5667,"itely":5668,"ĠAccording":5669,"cccc":5670,"Ġagent":5671,"++":5672,"Ġmissing":5673,"pir":5674,"Ġlayers":5675,"Ġreplace":5676,"Ġmut":5677,"Ġjournal":5678,"bigr":5679,"men":5680,"Ġprogress":5681,"ĠDon":5682,"Ġtempor":5683,"File":5684,"Ġplaces":5685,"has":5686,"Ġdivid":5687,"Ġstatus":5688,"rich":5689,"pty":5690,"anish":5691,"hemat":5692,"Ġindicates":5693,"Ġstrict":5694,"Ġbirth":5695,"Ġcommand":5696,"Ġrotation":5697,"Ġreading":5698,"Ġinstit":5699,"ĠDel":5700,"ĠUnder":5701,"ĠMad":5702,"Ġutil":5703,"Ðµ":5704,"Ġonto":5705,"ĠMiss":5706,"Ġarchitecture":5707,"Ġmodule":5708,"awa":5709,"inu":5710,"Finally":5711,"ĠSecond":5712,"Ġcollabor":5713,"While":5714,"gcolor":5715,"Ġgraphs":5716,"ĠLand":5717,"Ġfinancial":5718,"Ġtun":5719,"dfrac":5720,"Ġinde":5721,"Ġscience":5722,"Ġanim":5723,"rey":5724,"ĠChinese":5725,"Model":5726,"Ġfunctional":5727,"Ġtrained":5728,"Ġmoving":5729,"Ġcov":5730,"rect":5731,"ĠTur":5732,"ĠHen":5733,"ĠEach":5734,"Ġassess":5735,"Ġgirl":5736,"ras":5737,"unk":5738,"ria":5739,"ĠTom":5740,"Ġtrade":5741,"Ġpark":5742,"Ġhous":5743,"cs":5744,"ĠTexas":5745,"Ġcele":5746,"Ġluminos":5747,"apers":5748,"Ġgreen":5749,"related":5750,"Ġkernel":5751,"400":5752,"ometric":5753,"Ġgrid":5754,"Ġchurch":5755,"ATE":5756,"ils":5757,"Ġroot":5758,"())":5759,"ena":5760,"Ġdimensions":5761,"Ġgoes":5762,"Ġpurpose":5763,"iverse":5764,"while":5765,"faces":5766,"Ġcaused":5767,"Ġchanged":5768,"ĠSet":5769,"Ġmachine":5770,"Ġfair":5771,"Ġorth":5772,"alysis":5773,"Ġbrand":5774,"ĠMus":5775,"ĠCentral":5776,"quare":5777,"cref":5778,"conn":5779,"ĠJer":5780,"Ġprobably":5781,"olean":5782,"1989":5783,"Ġextrem":5784,"Add":5785,"Ġcru":5786,"ĠRob":5787,"IL":5788,"Ġscaling":5789,"ĠFurthermore":5790,"olf":5791,"otion":5792,"TE":5793,"Ġconsidering":5794,"ĠGames":5795,"Ġexponential":5796,"Ġrapid":5797,"Ġachieved":5798,"Ġborder":5799,"Ġefficiency":5800,"Ġfundamental":5801,"Ġfilter":5802,"arl":5803,"Ġphenomen":5804,"CA":5805,"Ġmor":5806,"Ġsports":5807,"');":5808,"Ġremain":5809,"Ġago":5810,"anned":5811,"arse":5812,"ĠTown":5813,"Per":5814,"ĠGreat":5815,"inations":5816,"oma":5817,"ĠUsing":5818,"iller":5819,"Ġunderstanding":5820,"Text":5821,"Ġdistributed":5822,"Trans":5823,"$:":5824,"atically":5825,"diag":5826,"Ġminutes":5827,"stream":5828,"Ġcomplexity":5829,"pto":5830,"Ġindicate":5831,"Ġcandidate":5832,"Ġsections":5833,"Ġcoefficient":5834,"avel":5835,"ancy":5836,"Ġpartial":5837,"ĠAfrican":5838,"ĠDire":5839,"Ġcycle":5840,"Ġ[\\":5841,"Ġlemma":5842,"[]":5843,"Ġbounds":5844,"Ġdevice":5845,"ĠScott":5846,"ĠData":5847,",$":5848,"Ed":5849,"Ġdecomposition":5850,"method":5851,"Ġmiddle":5852,"1000":5853,"ĠProv":5854,"Ġamb":5855,"GL":5856,"cf":5857,"Ġconvex":5858,"Ġresol":5859,"bottom":5860,"first":5861,"']":5862,"ĠThomas":5863,"Ġion":5864,"Ġpix":5865,"coming":5866,"module":5867,"Ġdiscrete":5868,"Ġentropy":5869,"config":5870,"pton":5871,"Ġconfir":5872,"fess":5873,"such":5874,"Ġtraject":5875,"Spec":5876,"Ġacceler":5877,"edy":5878,"eks":5879,"floor":5880,"ĠPet":5881,"inger":5882,"Using":5883,"Ġgrant":5884,"Ġgetting":5885,"ariance":5886,")}}":5887,"Ġplaced":5888,"Ġguarant":5889,"Ġsector":5890,"Ġplant":5891,"Ġsites":5892,"Ġdenoted":5893,"inding":5894,"Ġactions":5895,"Ġlimits":5896,"Ġspread":5897,"${\\":5898,"Inter":5899,"Ġimag":5900,"Ġeventually":5901,"Ġupdate":5902,"Ġbgcolor":5903,"':":5904,"eturn":5905,"Ġmedical":5906,"joy":5907,"ao":5908,"Ġreflect":5909,"Ġobvious":5910,"=\"../../":5911,"num":5912,"bel":5913,"two":5914,"Ġinfinite":5915,"Ġconver":5916,"Ġoption":5917,"Ġinstrum":5918,"gent":5919,"Ġfourth":5920,"Ġresources":5921,"Ġphysics":5922,"Ġpositions":5923,"Ġcapacity":5924,"ĠPost":5925,"ĠAnn":5926,"ĠLag":5927,"Ġwoman":5928,"ui":5929,"ĠTwo":5930,"Sch":5931,"ĠSM":5932,"Ġscenario":5933,"DM":5934,"Ġ);":5935,"]$.":5936,"west":5937,"]}":5938,"sch":5939,"Ġcarried":5940,"PI":5941,"ĠCarol":5942,"Ġsplit":5943,"Ġwatch":5944,"Ġplays":5945,"Ġgravit":5946,"(),":5947,"Ġsn":5948,"She":5949,"ilder":5950,"1988":5951,"eness":5952,"ĠCur":5953,"Ġrobust":5954,"Ġoccurs":5955,"Ġevaluation":5956,"FR":5957,"Ġworth":5958,"ĠOver":5959,"ĠSl":5960,"ĠLu":5961,"Ġasked":5962,"Ġcontained":5963,"Ġsatisfying":5964,"super":5965,"Ġsen":5966,"clusions":5967,"Ð¸":5968,"mathop":5969,"po":5970,"Ġstop":5971,"ributes":5972,"abase":5973,"ride":5974,",{\\":5975,"Ġ/>":5976,"Ġsolve":5977,"Ġgeometry":5978,"Ġcalculate":5979,"=\"+":5980,"Ġprograms":5981,"Ġleave":5982,"Ġferm":5983,"Ġgold":5984,"ĠChampionship":5985,"Ġ\\]":5986,"ĠGrand":5987,"next":5988,"results":5989,"lete":5990,"}\\,\\":5991,"Ġsurround":5992,"Ġbright":5993,"ĠCanadian":5994,"cript":5995,"Ġfavor":5996,"Ġstudent":5997,"!--":5998,"Ġdatasets":5999,"pa":6000,"Ġexpert":6001,"quot":6002,"ĠGet":6003,"Cor":6004,"vature":6005,"ĠAre":6006,"Ġactual":6007,"Ġseparate":6008,"azine":6009,"forward":6010,"Ġsummar":6011,"Ġgiving":6012,"ĠBrown":6013,"ĠProgram":6014,"Ġepisode":6015,"ĠMuseum":6016,"vised":6017,"ictor":6018,"Ġconj":6019,"ĠDen":6020,"Info":6021,"Ġexchange":6022,"Inst":6023,"anda":6024,"Ġassign":6025,";\\;\\":6026,"uan":6027,"Ġtesting":6028,"ĠFoundation":6029,"umni":6030,"omy":6031,"ĠTor":6032,"Ġsynt":6033,"md":6034,"Ġpreserv":6035,"ĠLat":6036,"count":6037,"Ġpseud":6038,"\\}$.":6039,"road":6040,"Ġequilibrium":6041,"cknowled":6042,"ĠST":6043,"ĠĠĠĠĠĠĠĠĠĠĠĠĠĠ":6044,"}})":6045,":=":6046,"liament":6047,"ĠSmith":6048,"Ġalternative":6049,"ette":6050,"Ass":6051,"elled":6052,"Ġpaint":6053,"chang":6054,"Ġexc":6055,"Ġdust":6056,"Ġstatistical":6057,"Ġtechnique":6058,"ĠOpen":6059,"Ġcarry":6060,"inner":6061,"ologies":6062,"Ġproviding":6063,"ufact":6064,"Ġwindow":6065,"1987":6066,"ĠWestern":6067,"Part":6068,"Ġcapital":6069,"Path":6070,"Ġspl":6071,"Ser":6072,"Ġprint":6073,"Field":6074,"Eng":6075,"Ġusual":6076,"poses":6077,"Ġorbit":6078,"ola":6079,"ĠService":6080,"Rep":6081,"ĠTest":6082,"Ġhum":6083,"\\)":6084,"rish":6085,"ĠMinister":6086,"Ġdemand":6087,"Ġprevent":6088,"yset":6089,"Ġdepending":6090,"Ġsometimes":6091,"}[\\":6092,"Ġheat":6093,"SL":6094,"atre":6095,"Ġpurch":6096,"PP":6097,"Ġrise":6098,"Ġmultiplic":6099,"Ġrelig":6100,"called":6101,"Ġ$.":6102,"Ġculture":6103,"Ġactivities":6104,"ga":6105,"Ġabund":6106,"Ġfine":6107,"Ġbenef":6108,"ynamic":6109,"ĠMont":6110,"ĠCommun":6111,"OC":6112,"Ġthreat":6113,"ech":6114,"istan":6115,"ror":6116,"ko":6117,"Ġshowing":6118,"['":6119,"))\\":6120,"ĠTime":6121,"Ġdimensional":6122,"velopment":6123,"IF":6124,"illa":6125,"Att":6126,"ĠChristian":6127,"Event":6128,"Ġradiation":6129,"Ġunknown":6130,"witter":6131,"rupt":6132,"forms":6133,"algorithm":6134,"ĠLi":6135,"Ġgets":6136,"etal":6137,"ĠJew":6138,"ifies":6139,"grad":6140,"|}":6141,"yes":6142,"venue":6143,"Ġimplementation":6144,"brace":6145,"Ġcopy":6146,"ĠPre":6147,"Ġlegal":6148,"rical":6149,"Ġvariation":6150,"iota":6151,"vest":6152,"Ġminor":6153,"Ġunion":6154,"Ġbrought":6155,"Ġwhereas":6156,"ĠZeal":6157,"Ġsurvey":6158,"rug":6159,"ĠKingdom":6160,"ĠFore":6161,"Ġbos":6162,"...,":6163,"finition":6164,"ĠStar":6165,"}}_{\\":6166,"Ġbank":6167,"Ġpow":6168,"Ġsubt":6169,"greg":6170,"ĠAssum":6171,"ĠMass":6172,"inate":6173,"Ġisomorphism":6174,"core":6175,"Ġdaughter":6176,"ĠJan":6177,"Ġmanufact":6178,"ias":6179,"Ġload":6180,"roph":6181,"Ġdetected":6182,"lections":6183,"des":6184,"mercial":6185,"1960":6186,"thlet":6187,"Ġprojection":6188,"]$,":6189,"emptyset":6190,"herent":6191,"Ġmovement":6192,"Ġweights":6193,"Ġproceed":6194,"Ġcomputer":6195,"Pre":6196,")}_":6197,"Ġcommunication":6198,"start":6199,"150":6200,"ĠIts":6201,"ĠKore":6202,"ĠJapanese":6203,"ĠAcademy":6204,"icago":6205,"formed":6206,"Ġdegrees":6207,"rump":6208,"ĠMost":6209,"Section":6210,"ĠCE":6211,"ĠVirgin":6212,"algebra":6213,"Ġneural":6214,"ĠZealand":6215,"Ġinterview":6216,"ypes":6217,"resh":6218,"ulture":6219,"Ġdigital":6220,"ĠCath":6221,"ĠBen":6222,"})}":6223,"ĠFrancis":6224,"jo":6225,"only":6226,"Ġpredicted":6227,"Ġrepresentations":6228,"ĠJose":6229,"ector":6230,"ochastic":6231,"Ġchannels":6232,"Ġmajority":6233,"ĠFlor":6234,"Ġrecall":6235,"formal":6236,"ĠIR":6237,"lap":6238,"ĠBre":6239,"integ":6240,"base":6241,"SR":6242,"stract":6243,"host":6244,"Mar":6245,"Node":6246,"wa":6247,"chen":6248,"Ġstability":6249,"aven":6250,"][]{":6251,"Ġfemale":6252,"DR":6253,"Ġestimation":6254,"break":6255,"reland":6256,"Ġfreedom":6257,"Ġpoor":6258,"Ġimplic":6259,"bas":6260,"step":6261,"Ġleague":6262,"Ġincorpor":6263,"Ġoffers":6264,"Ġkilled":6265,"Ġprinciple":6266,"Ġcoordinate":6267,"sat":6268,"System":6269,"longrightarrow":6270,"Ġdistingu":6271,"tfrac":6272,"Ġpain":6273,"Index":6274,"Ġhope":6275,"orter":6276,"ĠMr":6277,"soft":6278,"Ġsufficiently":6279,"CR":6280,"})=":6281,"}_{-":6282,"ensities":6283,"Ġdead":6284,"aser":6285,"Ġ^{":6286,"1986":6287,"gr":6288,"ĠHistory":6289,"date":6290,"Ġign":6291,"uted":6292,"pected":6293,"Ġcivil":6294,"Ġinverse":6295,"void":6296,"unct":6297,"ĠInc":6298,"Ġdecided":6299,"Ġbin":6300,"vin":6301,"Ġodd":6302,"oration":6303,"tes":6304,"anger":6305,"Ġevaluate":6306,"scriptsize":6307,"Ġnothing":6308,"ĠLouis":6309,"irit":6310,"vee":6311,"zy":6312,"Ġrough":6313,"uting":6314,"ĠSta":6315,"Ġstatistics":6316,"$};":6317,"ĠLy":6318,"poss":6319,"Ġquickly":6320,"Ġintegration":6321,"joint":6322,"rank":6323,"eds":6324,"image":6325,"Ġindeed":6326,"}}.":6327,"ĠJournal":6328,"Ġmainly":6329,"ĠMax":6330,"phant":6331,"Ġtrend":6332,"ternet":6333,"Ġconvert":6334,"Ġmixed":6335,"defined":6336,"Ġmaxim":6337,"IA":6338,"Ġcharacteristic":6339,"Ġwest":6340,"Can":6341,"ĠRel":6342,"$&":6343,"etween":6344,"ĠModel":6345,"Ġcop":6346,"Ġeast":6347,"Ġut":6348,"ĠĠĠĠĠĠĠĠĠĠĠĠĠĠĠĠĠĠĠĠĠĠĠĠĠĠĠ":6349,"Ġvocal":6350,"ĠMem":6351,"Ġindividuals":6352,"ĠBill":6353,"---":6354,"Ġmostly":6355,"SD":6356,"Ġpull":6357,"ĠSol":6358,"ĠCD":6359,"ĠAppendix":6360,"1984":6361,"law":6362,"CM":6363,"ĠNetwork":6364,"lang":6365,"xx":6366,"api":6367,"Ġnamely":6368,"Ġinterested":6369,"Ġcit":6370,"}~":6371,"stable":6372,"ĠUk":6373,"ĠHill":6374,"Ġtit":6375,"Ġweeks":6376,"Ġsurpr":6377,"Ã¤":6378,"ĠItalian":6379,"}}}\\":6380,"uled":6381,"pg":6382,"ĠCommission":6383,"ĠWomen":6384,"ĠMel":6385,"Comp":6386,"nn":6387,"erman":6388,"abled":6389,"Comm":6390,"Ġcm":6391,"Ġnuclear":6392,"Ġeconomic":6393,"ifications":6394,"Ġrang":6395,"Ġenergies":6396,"ato":6397,"Ġfarm":6398,"Ġlic":6399,"Ġwanted":6400,"ĠCamp":6401,"})^":6402,"Ġelected":6403,"Ġorganization":6404,"Ġunderlying":6405,"disc":6406,"ĠReview":6407,"font":6408,"isely":6409,"Ġirre":6410,"Ġstress":6411,"ĠDu":6412,"ĠSec":6413,"aver":6414,"aching":6415,"Ġfounded":6416,"Che":6417,"Ġhttp":6418,"Ġmodul":6419,"strong":6420,"Ġplanet":6421,"Ġconsequence":6422,"ĠRock":6423,"Ġprojects":6424,"Ġcoinc":6425,"Ġpartners":6426,"120":6427,"}}^{\\":6428,"ĠForm":6429,"Ġprep":6430,"ĠBi":6431,"Map":6432,"Ġleader":6433,"Ġlies":6434,"ĠCharles":6435,"Ġfinding":6436,"Ġque":6437,"ĠMil":6438,"actic":6439,"Ġ},":6440,"Ġshared":6441,"ĠHistor":6442,"ĠGovernment":6443,"Ġcompetition":6444,"Ġfriends":6445,"Ġconstants":6446,"Ġ^":6447,"structure":6448,"Ġdisease":6449,"bras":6450,"ĠIN":6451,"Ġvertical":6452,"Ġoriginally":6453,"ontal":6454,"Ġmotiv":6455,"gt":6456,"cat":6457,"Ġmeeting":6458,"Ġsolar":6459,"ĠCre":6460,"bmatrix":6461,"1985":6462,"circle":6463,"PU":6464,"ĠBig":6465,"ĠLos":6466,"post":6467,"Ġelectro":6468,"Ġsampling":6469,"Ġ{$":6470,"mosp":6471,"HS":6472,"DB":6473,"ĠPeter":6474,"Ġenjoy":6475,"Ġapplying":6476,"Ġmodified":6477,"Ġarriv":6478,"sign":6479,"vari":6480,"ĠIII":6481,"mediate":6482,"Ġartists":6483,"ĠTimes":6484,"Ġfoot":6485,"ady":6486,"Ġshot":6487,"Ġearn":6488,"paragraph":6489,"gest":6490,"Color":6491,"empor":6492,"Ġdeb":6493,"notes":6494,"Ġmaterials":6495,"ĠSee":6496,"Ġluminosity":6497,"|}{":6498,"Ġpredictions":6499,"Ġgun":6500,"Ġdispers":6501,"ĠRussia":6502,"OL":6503,"ellig":6504,"icated":6505,"Ġlives":6506,"Context":6507,"Ġphoton":6508,"Ġadvantage":6509,"Ġassumptions":6510,"irus":6511,"vart":6512,"Ġbias":6513,"Ġprotect":6514,"/*":6515,"Ġchart":6516,"erc":6517,"Ġcloud":6518,"That":6519,"haps":6520,"kes":6521,"gebras":6522,"Ġdiagonal":6523,"Ġentry":6524,"Ġgrand":6525,"Ġchemical":6526,"valid":6527,"GN":6528,"ourier":6529,"Ġeq":6530,"ĠIsra":6531,"Ġbulk":6532,"Ġfinished":6533,"ĠGr":6534,"igan":6535,"ĠBoard":6536,"gar":6537,"Ġmaximal":6538,"Ġexplained":6539,"Ġimproved":6540,"uum":6541,"condition":6542,"Ġstruct":6543,"ĠEv":6544,"title":6545,"TV":6546,"Ġstru":6547,"aud":6548,"ĠNov":6549,"ĠEarth":6550,"Config":6551,"ĉĉĊ":6552,"Ġ\\(\\":6553,"ella":6554,"Ġresource":6555,"Ġcomposition":6556,"^{*":6557,"Ġconven":6558,"Ġevol":6559,"ĠLife":6560,"Ġremoved":6561,"ĠHel":6562,"columnwidth":6563,"fold":6564,"Ġlocally":6565,"Ġderivative":6566,"ĠFrank":6567,"fined":6568,"Ġasymptotic":6569,"itative":6570,"/(":6571,"Ġmovie":6572,"Ġimportance":6573,"Ġpassed":6574,"names":6575,"zil":6576,"Ġinterface":6577,"ipp":6578,"ĠParis":6579,"ultane":6580,"Ġanswer":6581,"isl":6582,"astern":6583,"({":6584,"ilbert":6585,"Ġsafety":6586,"icks":6587,"Ġanc":6588,"hol":6589,"Ġsec":6590,"PA":6591,"ĠRecords":6592,"house":6593,"ĠSaint":6594,"magnetic":6595,"ban":6596,"Med":6597,"Ġprotocol":6598,"Ġartist":6599,"ĠPan":6600,"Ġinfl":6601,"iler":6602,"je":6603,"Ġexplicitly":6604,"Ġ({\\":6605,"atalog":6606,"Ġtrying":6607,"ĠSummer":6608,"Ġcurvature":6609,"Ġresponsible":6610,"avelength":6611,"Ġisol":6612,"ĠIndeed":6613,"iem":6614,"aa":6615,"chers":6616,"ircraft":6617,"trivial":6618,"tan":6619,"Ġsuggests":6620,"Ġscene":6621,"Ġradial":6622,"/**":6623,"Ġteacher":6624,"aus":6625,"Ġrelax":6626,"Rel":6627,"Ġbuildings":6628,"multirow":6629,"dec":6630,"ropic":6631,"Ġpicture":6632,"Ġfa":6633,"yan":6634,"Ġtrivial":6635,"Code":6636,"after":6637,"urations":6638,"vere":6639,"Ġsch":6640,"Box":6641,"GR":6642,"Ġembedding":6643,"Ġwriter":6644,"ader":6645,"Proof":6646,"Ġturned":6647,"Ġclin":6648,"Ġextend":6649,"ĠRichard":6650,"Ġvirtual":6651,"Ġeverything":6652,"Ġ$,":6653,"ĠRo":6654,"Ġalbums":6655,"Ġinvestigate":6656,"Ġmapping":6657,"SA":6658,"\"\"":6659,"Ġpiece":6660,"idel":6661,"Ġcouple":6662,"ĠBoth":6663,"ibr":6664,"Ġreceive":6665,"ĠEducation":6666,"vect":6667,"Ġsym":6668,"ptic":6669,"ĠLake":6670,"]{\\":6671,"Lemma":6672,"Ġreferred":6673,"Ġship":6674,"ĠPlay":6675,"arma":6676,"ĠOper":6677,"Ġbeaut":6678,"Ġthank":6679,"uster":6680,"Ġenh":6681,"lay":6682,"Ġsecret":6683,"ervices":6684,"According":6685,"}}=":6686,"Ġ}{":6687,"brid":6688,"Ġdynamical":6689,"Ġaccurate":6690,"Ġnonlinear":6691,"Ð½":6692,"';":6693,"Ġtheories":6694,"Ġdynamic":6695,"Ġstories":6696,"Ġneighborhood":6697,"slant":6698,"Call":6699,"Ġdevices":6700,"osc":6701,"1983":6702,"Ġmetal":6703,"aught":6704,"Ġcommunities":6705,"ĠSpace":6706,"igation":6707,"ĠOffic":6708,"ls":6709,"pass":6710,"ĠPhys":6711,"Ġadding":6712,"[-":6713,"Ġcollege":6714,"Results":6715,"content":6716,"open":6717,"bal":6718,"Ġappointed":6719,"Ġstore":6720,"Ġ-->":6721,"Ġderive":6722,"UE":6723,"Ġdesired":6724,"going":6725,"Ġ(!":6726,"Method":6727,"Request":6728,"rive":6729,"La":6730,"Ġscreen":6731,"miss":6732,"Ġdespite":6733,"hetic":6734,"Ġtal":6735,"\\}\\":6736,"Ġcat":6737,"ĠJac":6738,"Ġsummer":6739,"Ġobjective":6740,"Ġmedium":6741,"rence":6742,"Ġopening":6743,"^{(\\":6744,"dr":6745,"unch":6746,"ogen":6747,"Ġcycl":6748,"ĠChicago":6749,"ometry":6750,"define":6751,"Element":6752,"ĠTheir":6753,"heta":6754,"ĠYour":6755,"Ref":6756,"iled":6757,"Ġow":6758,"Ġquarter":6759,"Ġattract":6760,"tx":6761,"Ġtopological":6762,"static":6763,"Ġprecisely":6764,"fi":6765,"ĠRail":6766,"ĠCongress":6767,"Ġsuitable":6768,"loop":6769,"undred":6770,"ĠAut":6771,"Ġplans":6772,"Hence":6773,"Ġarguments":6774,"ĠFootball":6775,"Ġgravity":6776,"etries":6777,"Ġjet":6778,"ĠCommittee":6779,"ĠIreland":6780,"Ġcanonical":6781,"fully":6782,"indu":6783,"Ġguitar":6784,"Ġsaying":6785,"phas":6786,"Ġclean":6787,"sets":6788,"ĠĠĠĠĠĠĠĠĠĠĠĠĠĠĠĠĠ":6789,"Ġgeneralized":6790,"ĠAtl":6791,"ĠPlan":6792,"nergy":6793,"Ġ/*":6794,"Ġprocessing":6795,"ĠVer":6796,"Ġintersection":6797,"ithub":6798,"sych":6799,"atures":6800,"Other":6801,"ricket":6802,"}$}":6803,"ditionally":6804,"ĠIll":6805,"Ġgoals":6806,"Ġinitially":6807,"Ġcompl":6808,"Ġelim":6809,"ÑĤ":6810,"ounds":6811,"LA":6812,"Ġanything":6813,"ĠHy":6814,"Ġspent":6815,"Ġast":6816,"Ġtools":6817,"Ġstations":6818,"Ġnotice":6819,"ĠPri":6820,"Ġcomplic":6821,"Xi":6822,"ĠDirector":6823,"1982":6824,"orial":6825,"Ġcomputational":6826,"ji":6827,"Ġtourn":6828,"Ġweb":6829,"Ġshock":6830,"Right":6831,"Ġabsolute":6832,"Ġworkers":6833,"ĠGeV":6834,"Ġmatches":6835,"elihood":6836,"hab":6837,"ĠHiggs":6838,"LT":6839,"bib":6840,"Ġmission":6841,"Ġquantities":6842,"\\}$,":6843,"Ġtests":6844,"Ġmur":6845,"ĠAngeles":6846,"Ġappearance":6847,"Ġdelay":6848,"Ġcomputing":6849,"ĠSuch":6850,"room":6851,"'m":6852,"rosc":6853,"parison":6854,"option":6855,"urt":6856,"scriptstyle":6857,"}|\\":6858,"ĠKn":6859,"Ext":6860,")--":6861,"background":6862,"Log":6863,"=.":6864,"tained":6865,"Ġserve":6866,"Desc":6867,"ibration":6868,"Ġparents":6869,"tiny":6870,"enty":6871,"itors":6872,"icine":6873,"ua":6874,"Ġpropose":6875,"Ġquasi":6876,"Ġsomeone":6877,"Ġalone":6878,"car":6879,"Ġintensity":6880,"ashion":6881,"Ġsatisfied":6882,"Ġsequences":6883,"Array":6884,"ĠBank":6885,"Ġsuggested":6886,"Rem":6887,"ponse":6888,"Consider":6889,"Ġacadem":6890,"default":6891,"Ġcorrections":6892,"Ġspecified":6893,"Fl":6894,"Ġchampions":6895,"itation":6896,"Ent":6897,"ĠVictor":6898,"Ġdrive":6899,"Ġdepict":6900,"ĠSpanish":6901,"Ġquery":6902,"ĠLin":6903,"ĠOh":6904,"ĠSund":6905,"Ġvariance":6906,"Ġmorphism":6907,"Ġcritic":6908,"ĠFlorida":6909,"=#":6910,"TH":6911,"ĠOffice":6912,"plot":6913,"ersion":6914,"Ġcentre":6915,"sky":6916,"mitted":6917,":=\\":6918,"\\%$":6919,"Ġapparent":6920,"Ġfluctuations":6921,"subsec":6922,"ĠBr":6923,"Ġadopted":6924,"utch":6925,"Ġenter":6926,"ilation":6927,"Ġmaster":6928,"Rec":6929,"Ġpaths":6930,"ĠSil":6931,"ĠTrump":6932,"Ġcelebr":6933,"Back":6934,"Hand":6935,"Aut":6936,"Ġbands":6937,"lines":6938,"del":6939,"ĠBusiness":6940,"figures":6941,"Ġorders":6942,"AV":6943,"Ġdiss":6944,"onald":6945,"Tra":6946,"urity":6947,"oded":6948,"\\|\\":6949,"ĠGoogle":6950,"Ġgrowing":6951,"Ġcontrad":6952,"ĠYoung":6953,"Sec":6954,"Ġbehaviour":6955,"Ġdiam":6956,"build":6957,"ĠEngine":6958,"Ġreasons":6959,"ĠCam":6960,"ja":6961,"Ġacts":6962,"Service":6963,"aylor":6964,"udget":6965,"Ġtemperatures":6966,"ĠJo":6967,"ĠTop":6968,"Ġrecords":6969,"ĠSocial":6970,"Ġrequirements":6971,")})":6972,"Ġmatching":6973,"Ġresist":6974,"Ġdashed":6975,"Ġcandidates":6976,"azz":6977,"uler":6978,"angular":6979,"Ġsal":6980,"Ġdescribes":6981,"MB":6982,"Ġhypothesis":6983,"met":6984,"Ġreports":6985,"Ġexception":6986,"dl":6987,"osh":6988,"Ġpatterns":6989,"ora":6990,"Do":6991,"Ġcharged":6992,"Ġencou":6993,"Ġpossibility":6994,"medskip":6995,"high":6996,"CN":6997,"ĠArts":6998,"Size":6999,"ĠAN":7000,"&=\\":7001,"info":7002,"second":7003,"plan":7004,"Ġ(\"":7005,"osis":7006,"Ġcond":7007,"Ġdrop":7008,"slash":7009,"asion":7010,"kins":7011,"1979":7012,"rivate":7013,"Ġblocks":7014,"vartheta":7015,"unit":7016,"equations":7017,"Ġexplore":7018,"iling":7019,"Äģ":7020,"Ġcosts":7021,"Ġitems":7022,"github":7023,"Dis":7024,"Ġordered":7025,"Ġmixing":7026,"Ġatmosp":7027,"Ġitem":7028,"////////":7029,"ĠProject":7030,"dat":7031,"ĠLong":7032,"Ġremained":7033,"perties":7034,"Given":7035,"Ġefforts":7036,"TD":7037,"dev":7038,"ĠBecause":7039,"rangian":7040,"Ġadjust":7041,"Ġtechnical":7042,"ean":7043,"Ġfluid":7044,"Ġtend":7045,"Ġshoot":7046,"ymmetric":7047,"Ġsort":7048,"ĠOlympics":7049,"Ġhar":7050,"Ġalumni":7051,"cut":7052,"ĠWind":7053,"claim":7054,"prot":7055,"Ġfootballers":7056,"Ġtail":7057,"SF":7058,"Ġforest":7059,"Ġ,\\":7060,"Ġturns":7061,"asy":7062,"assert":7063,"ĠBob":7064,"Ġremove":7065,"ĠVirginia":7066,"Ġapproximate":7067,"Ġwaves":7068,"periment":7069,"ĠFilm":7070,"plane":7071,"Ġlatest":7072,"ĠStep":7073,"RR":7074,"ĠMexico":7075,".;":7076,"Ġformat":7077,"****************":7078,"ĠPenn":7079,"Ġserious":7080,"ographic":7081,"wan":7082,"diff":7083,"Ġlabels":7084,"standing":7085,"Ġvoice":7086,"clusive":7087,"My":7088,"obs":7089,"ĠCatholic":7090,"Ġstochastic":7091,"1981":7092,"andemic":7093,"Ġmess":7094,"Count":7095,"Ġtrees":7096,"ĠWal":7097,"Ġnation":7098,"Ġspeak":7099,"opes":7100,"stitution":7101,"~(\\":7102,"gers":7103,"Ã¨":7104,"Ġspac":7105,"stain":7106,"mathit":7107,"ĠBas":7108,"hang":7109,"Ġrare":7110,"Ġwinning":7111,"Ġconfirmed":7112,"ialog":7113,"ĠForce":7114,"Ġallowing":7115,"ĠEnd":7116,"Ġfailed":7117,"Ġreprodu":7118,"Ġneutrino":7119,"Ġcovered":7120,"ockey":7121,"ronic":7122,"Ġiniti":7123,"ĠCast":7124,"ÑĢ":7125,"ĠItaly":7126,"boldmath":7127,"rins":7128,"sche":7129,"jective":7130,"Post":7131,"olk":7132,"Ġbundle":7133,"okes":7134,"Ġeffort":7135,"isot":7136,"Ġarrang":7137,"Ġtrig":7138,"Ġnav":7139,"ĠTer":7140,"ĠBa":7141,"Ġgravitational":7142,"^*(":7143,"cale":7144,"hem":7145,"ĠSk":7146,"Suppose":7147,"Ġsimultane":7148,"oupl":7149,"Ġprime":7150,"Ġopportunity":7151,"ĠPeople":7152,"Line":7153,"ĠGeorg":7154,"Ġcapture":7155,"1950":7156,"number":7157,"Ġdx":7158,"Ġlocations":7159,"Ġcategories":7160,"Ġimplemented":7161,"EL":7162,"Ġtouch":7163,"plet":7164,"Ġreserv":7165,"Ġdetector":7166,"Ġsimplic":7167,"tty":7168,"PL":7169,"Ġnarrow":7170,"Ġagents":7171,"Ġextends":7172,"effect":7173,"false":7174,"ENT":7175,"tikzpicture":7176,"ĠMur":7177,"bp":7178,"conf":7179,"bot":7180,"Mem":7181,"Ġtrust":7182,"Gu":7183,"ĠMartin":7184,"Ġisot":7185,"Ġeth":7186,"pective":7187,"='":7188,"Ġperturbation":7189,"^*\\":7190,"ategory":7191,"@{":7192,"Ġvacc":7193,"ativ":7194,"Ġvacuum":7195,"verb":7196,"Ġnet":7197,"ĠHenry":7198,"Ġ\\,\\":7199,"ĠLee":7200,"Ġswitch":7201,"general":7202,"istent":7203,"Ġphases":7204,"Ġassuming":7205,"create":7206,"Ġmagnet":7207,"ĠFre":7208,"Am":7209,"Ġinteract":7210,"ĠFestival":7211,">\\":7212,"EX":7213,"Ġ$\\{\\":7214,"ĠEven":7215,"Ġmanager":7216,"fered":7217,"Ġeveryone":7218,"Ġeigenvalues":7219,"ugh":7220,"Ġroute":7221,"Ġleaves":7222,"rows":7223,"ildren":7224,"Ġlens":7225,"Ġequivalence":7226,"ĠRam":7227,"Ġcorrection":7228,"Ġemphas":7229,"ouble":7230,"+(":7231,"lets":7232,"ighter":7233,"ĠLove":7234,"Ġice":7235,"Ġouter":7236,"ĠSwed":7237,"Ġregist":7238,"ync":7239,"ears":7240,"iana":7241,")^\\":7242,"ogonal":7243,"symm":7244,"Moreover":7245,"context":7246,"textcolor":7247,"Ġconducted":7248,"Ġlearned":7249,"ASS":7250,"([":7251,"Ġfirm":7252,"struct":7253,"Ġfeatured":7254,"iden":7255,"ĠDec":7256,"Ġroll":7257,"Exp":7258,"Source":7259,"Ġsignals":7260,"Cur":7261,"erior":7262,"adium":7263,"ĠDevelopment":7264,"Ġcryst":7265,"Ġclimate":7266,"there":7267,"Ap":7268,"Ġannual":7269,"Ġmanner":7270,"ĠGood":7271,"notag":7272,"(-\\":7273,"Ġsea":7274,"anguages":7275,"Ġtoward":7276,"vs":7277,"ĠElect":7278,"Ġlif":7279,"Ġpowerful":7280,"Ġbuy":7281,"Ġpropos":7282,"phantom":7283,"'ve":7284,"Ġstarts":7285,"Ġregarding":7286,"ĠTour":7287,"Ġgeneric":7288,"har":7289,"They":7290,"Ġlaunched":7291,"Ġwa":7292,"Ġcommercial":7293,"Ġtruth":7294,"ĠJul":7295,"edge":7296,"Ġlab":7297,"Ġwood":7298,"uffer":7299,"])":7300,"Ġoccup":7301,"iano":7302,"ĠHot":7303,"ĠGiven":7304,"Des":7305,"ierarch":7306,"Ġaccret":7307,"}{*":7308,"duction":7309,"Ġinvolving":7310,"Ġlift":7311,"Ġsubstant":7312,"HT":7313,"ensions":7314,"Ġideas":7315,"riage":7316,"Ġnil":7317,"cope":7318,"Ġhousehold":7319,"Ġchallenge":7320,"Ġlie":7321,"Ġpolic":7322,"DS":7323,"1976":7324,"Ġanalyz":7325,"ican":7326,"Ġidentical":7327,"Ġaffected":7328,"oz":7329,"relation":7330,"John":7331,"Ġcancer":7332,"tw":7333,"Ġsomew":7334,"ĠCarolina":7335,"####":7336,"dependence":7337,"Ġhalo":7338,"alty":7339,"ipped":7340,"ĠTeam":7341,"ishop":7342,"Act":7343,"ĠTre":7344,"1978":7345,"ĠAcc":7346,"Ġconvent":7347,"Ġprecision":7348,"Ġrevealed":7349,"Ġprofiles":7350,"Ġcompat":7351,"points":7352,"Ġprotected":7353,"Ġmunic":7354,"Ġaircraft":7355,"isson":7356,"ali":7357,"Ġsizes":7358,"Ġopposite":7359,"Ġtransmission":7360,"Ġeditor":7361,"Ġbroadcast":7362,"Ġ});":7363,"contain":7364,"enerate":7365,"downarrow":7366,"Ġscored":7367,"Ġwidely":7368,"udd":7369,"ĠGR":7370,"Ġcook":7371,"}\\|":7372,"ĠProfess":7373,"Ġfrag":7374,"Ġsched":7375,"Ġevaluated":7376,"semble":7377,"!\\":7378,".\\\\":7379,"Ġvote":7380,"Ġtrial":7381,"Ġempty":7382,"omin":7383,"Ġlowest":7384,"shire":7385,"ĠUSA":7386,"Ġquantity":7387,"Ġalt":7388,"mn":7389,"Ġsustain":7390,"Ġturb":7391,"Ġassigned":7392,"110":7393,"ĠÎ":7394,"enchmark":7395,"Ġbasket":7396,"ĠLine":7397,"Ġsettings":7398,"mom":7399,"arian":7400,"white":7401,"Ġnumerous":7402,"1972":7403,"Ġprefer":7404,"ĠEconom":7405,"elect":7406,"raine":7407,"Ġdependent":7408,"ancing":7409,"ĠTechnology":7410,"Ġexplo":7411,"ĠSecret":7412,"ĠEmp":7413,"Ġblood":7414,"Art":7415,"ussion":7416,"FI":7417,"Ġtraffic":7418,"negative":7419,"ĠAwards":7420,"1977":7421,"comes":7422,"Ġfederal":7423,"Ġplus":7424,"Ġresear":7425,"!]":7426,"parallel":7427,"aka":7428,"db":7429,"ribe":7430,"ĠPac":7431,"Ġcoupled":7432,"Ġjoin":7433,"Ġawarded":7434,"Ġvehicle":7435,"ads":7436,"Ġcollected":7437,"Ġreturns":7438,"Ġexpressions":7439,"arios":7440,"Ġisn":7441,"Ġindicated":7442,"Ġdestroy":7443,"Ġnone":7444,"stackrel":7445,"Ġbecoming":7446,"Ġequality":7447,"Ġolder":7448,"footnotes":7449,"Ġattacks":7450,"ĠTim":7451,"Ġrational":7452,"final":7453,"oses":7454,"ĠChief":7455,"Ġplas":7456,"aming":7457,"weet":7458,"parameter":7459,"Ġmedal":7460,"Ġhundred":7461,"Ġbus":7462,"finite":7463,"apache":7464,"language":7465,"Ġrig":7466,")}(\\":7467,"ĠFace":7468,"chain":7469,"esian":7470,"1974":7471,"df":7472,"Ġabsorption":7473,"eller":7474,"'_{":7475,"Ġcomposed":7476,"Ġleaving":7477,"oday":7478,"ati":7479,"ĠOrder":7480,"Ġemail":7481,"Ġacting":7482,"footnotesize":7483,"Ġintegrated":7484,"Ġproportional":7485,"hens":7486,"ĠWood":7487,"vision":7488,"Ġsupers":7489,"iveness":7490,"ĠOld":7491,"epend":7492,"Ġcomments":7493,"Ġran":7494,"Ġmathemat":7495,"Ġpolarization":7496,"arithm":7497,"Ġended":7498,"Ã³n":7499,"Ġdecrease":7500,"Ġdemonstrate":7501,"ĠHor":7502,"include":7503,"Ġdivided":7504,"ĉĉĉĉĉĉ":7505,"aren":7506,"chron":7507,"Ġcreating":7508,"ĠDet":7509,"$.}":7510,"riday":7511,"ultural":7512,"Ġfeedback":7513,"Ġ===":7514,"Ġtrace":7515,"iii":7516,"Ġsto":7517,"ĠScot":7518,"Ġhidden":7519,"Ġinnov":7520,"Image":7521,"Ġdiscovered":7522,"Ġshell":7523,"ĠCy":7524,"Ġdivision":7525,"ĠGen":7526,"Ġfans":7527,"HC":7528,"Ġintermediate":7529,"ĠSpe":7530,"PM":7531,"Ġple":7532,"ulse":7533,"Ġdense":7534,"Ġbillion":7535,"ĠType":7536,"Ġsides":7537,"El":7538,"Ġbattle":7539,"corollary":7540,"Ġconv":7541,"Ġthous":7542,"Char":7543,"BM":7544,"Ġuncertainties":7545,"Ġanom":7546,"Ġsociety":7547,"Ġtranslation":7548,"Ġletter":7549,"Ġchanging":7550,"Ġmarked":7551,"usband":7552,"1975":7553,"Ġactor":7554,"ĠSU":7555,"sequently":7556,"Ġphil":7557,"Ġemployed":7558,"Li":7559,"During":7560,"large":7561,"uon":7562,"ela":7563,"ĠHome":7564,"Although":7565,"models":7566,"cean":7567,"=\"../../../../":7568,"axis":7569,"Ġwavelength":7570,"DC":7571,"Ġperiodic":7572,"Ġconfigurations":7573,"$-$":7574,"continu":7575,"Ġraised":7576,"Ġhands":7577,"people":7578,"Ġhospital":7579,"Ġchief":7580,"ĠStand":7581,"Ġhelped":7582,"ctic":7583,"acent":7584,"Ġsky":7585,"ULL":7586,"write":7587,"Ġdoc":7588,"Ġnotion":7589,"Ġsubgroup":7590,"Ġapart":7591,"Ġcharacteristics":7592,"-(":7593,"also":7594,"Ġmolecular":7595,"Ġforced":7596,"Group":7597,"icular":7598,"GeV":7599,"Ġfelt":7600,"arden":7601,"\\!\\":7602,"allery":7603,"search":7604,"ĠAtt":7605,"Item":7606,"float":7607,"igration":7608,"ima":7609,"Message":7610,"oles":7611,"ĠSpr":7612,"package":7613,"Ġagree":7614,"uty":7615,"cycl":7616,"ĠField":7617,"java":7618,"yles":7619,"quant":7620,"Ġwhom":7621,"Ġconflic":7622,"Ġclient":7623,"Top":7624,"ĠCa":7625,"Ġkept":7626,"propto":7627,"Cre":7628,"odies":7629,"Gl":7630,"Ġwrong":7631,"Ġexclud":7632,"ĠPak":7633,"Ġcontinuum":7634,"Ñģ":7635,"Ġconfidence":7636,"ĠExp":7637,"RI":7638,"Ġsinger":7639,"1973":7640,"Ġstudio":7641,"iner":7642,"Ġseparation":7643,"ĠJoseph":7644,"Ġreduces":7645,"Ġreaction":7646,"Ġatoms":7647,"Ġfocused":7648,"ducible":7649,"ilipp":7650,"Mon":7651,"liography":7652,"Ġaggreg":7653,"ĠBrazil":7654,"ĠTri":7655,"ĠHon":7656,"Ġnecessarily":7657,"Ġfif":7658,"Ġrecommend":7659,"|$":7660,"Ġisland":7661,"mem":7662,"Ġdensities":7663,"Some":7664,"Ġextremely":7665,"lope":7666,"erence":7667,"adow":7668,"ĠGame":7669,"Ġdriving":7670,"event":7671,"&=&\\":7672,"cline":7673,"make":7674,"Ġatta":7675,"Ġedition":7676,"Ġsrc":7677,"Ġcommut":7678,"prec":7679,"Ġtournament":7680,"Ġuniformly":7681,"Ġprincipal":7682,"Ġdedu":7683,"ĠWay":7684,"Ġmeas":7685,"ĠFourier":7686,"jecture":7687,"wer":7688,"Ġarrest":7689,"ĠSuppose":7690,"web":7691,"oston":7692,"Ġpandemic":7693,"Ġconclusion":7694,"Ġpossibly":7695,"rage":7696,"Ġuniversal":7697,"Ġdirections":7698,"ĠPM":7699,"Ġinvestigation":7700,"Ġ_{\\":7701,"Run":7702,"ĠDM":7703,"Ġsecondary":7704,"fort":7705,"aturally":7706,"Ġnormalized":7707,"$\\,":7708,"Ġpuls":7709,"ĠArab":7710,"track":7711,"Ġfav":7712,"uparrow":7713,"enced":7714,"Ġcamera":7715,"formance":7716,"ĠAv":7717,"oviet":7718,"iy":7719,"ĠValley":7720,"ĠJim":7721,"III":7722,"Ġsenior":7723,"Assum":7724,"jected":7725,"Ġchance":7726,"{(\\":7727,"emporary":7728,"Ġwriters":7729,"apped":7730,"Ġpp":7731,"Ġradi":7732,"Ġoperating":7733,"Ġgenus":7734,"}$\\":7735,"Ġessentially":7736,"Ġcoast":7737,"observ":7738,"backslash":7739,"Ġoffered":7740,"ĠMen":7741,"Ġenhance":7742,"wave":7743,"ĠCentre":7744,"ĠMedia":7745,"kern":7746,"OW":7747,"never":7748,"Ġorganizations":7749,"Ġjava":7750,"Ġorbital":7751,"areer":7752,"zen":7753,"iful":7754,"actory":7755,"rating":7756,"Ġmetrics":7757,"|^{":7758,"Ġlaws":7759,"Ġcold":7760,"Ġforeign":7761,"regular":7762,"Ġrepresenting":7763,"Ġequip":7764,"crit":7765,"apes":7766,"Ġperforming":7767,"1968":7768,"Ġneutral":7769,"?âĢĿ":7770,"BB":7771,"Ġparties":7772,"Ġmoments":7773,"special":7774,"ĠMany":7775,"Ġhistorical":7776,"Ġprison":7777,"ogram":7778,"Ġconjug":7779,"250":7780,"Ġap":7781,"Ġmusical":7782,"Ġconvolution":7783,"AE":7784,"TC":7785,"Ġmill":7786,"Ġinstant":7787,"ĠInformation":7788,"lock":7789,"lication":7790,"$^":7791,"Ġauto":7792,"iro":7793,"Ġlaunch":7794,"ĠConsider":7795,"ĠLibrary":7796,"}/\\":7797,"riend":7798,"amm":7799,"ucl":7800,"hl":7801,"Ġelectrons":7802,"Ġstack":7803,"Ġrect":7804,"Po":7805,"thick":7806,"Ġbasketball":7807,"ĠShow":7808,"ĠMajor":7809,"128":7810,"Ġissu":7811,"Ġdiagn":7812,"herical":7813,"Ġliqu":7814,"Ġinfer":7815,"ĠGre":7816,"Ġcoverage":7817,"Ġplanning":7818,")(\\":7819,"power":7820,"Ġbra":7821,"Ġsuppose":7822,"Ġimprovement":7823,"Ġlov":7824,"Ġvariations":7825,"Ġbreaking":7826,"Ġtreated":7827,"Ġinterpretation":7828,"Ġdisapp":7829,"Ġcatch":7830,"ingly":7831,"Ġoil":7832,"ĠRa":7833,"hard":7834,"Result":7835,"Ġlabor":7836,"ĠVis":7837,"Ġentries":7838,"Ġincident":7839,"instein":7840,"Ġcontinues":7841,"Ġchallenges":7842,"hfill":7843,"ĠCross":7844,"aters":7845,"AF":7846,"Ġnine":7847,"Ġdiscrim":7848,"ci":7849,"nections":7850,"Ġversus":7851,"idae":7852,"ĠJun":7853,"Ġclaimed":7854,"Cal":7855,"tail":7856,"Ġarc":7857,"invariant":7858,"}^{+":7859,"ĠUs":7860,"Disc":7861,"inem":7862,"ymmetry":7863,"lower":7864,"*}[":7865,"Ġstorage":7866,"Early":7867,"isters":7868,"LC":7869,"Ġspecifically":7870,"Ġrepeated":7871,"Ġsubsequent":7872,"vals":7873,"uer":7874,"arity":7875,"ĠJud":7876,"Ġindices":7877,")}.":7878,"=\"#":7879,"rinsic":7880,"Hom":7881,"esh":7882,"null":7883,"Ġelectronic":7884,"ativistic":7885,"Ġsensitivity":7886,"ĠAR":7887,"mode":7888,"sen":7889,"imits":7890,"ermi":7891,"Ġbaseline":7892,"dash":7893,"Ġcustomers":7894,"syl":7895,"isted":7896,"Ġvisible":7897,"Ġsensitive":7898,"rative":7899,"Ġpages":7900,"Ġtracks":7901,"Ġjump":7902,"square":7903,"Ġstrategies":7904,"Ġdominant":7905,"Ġcalls":7906,"Ġfigures":7907,"Ġdeviation":7908,"theless":7909,"ĠAsia":7910,"&&\\":7911,"Ġorganized":7912,"lik":7913,"Ġmultip":7914,"GM":7915,"Ġabsence":7916,"ĠBol":7917,"Ġrecover":7918,"Ġformulation":7919,"ulty":7920,"Ġincome":7921,"comput":7922,"ename":7923,"Ġconsisting":7924,"func":7925,"Ġsend":7926,"Ġhandle":7927,"Ġcitiz":7928,"PD":7929,"Ġgeometric":7930,"short":7931,"Ġcommonly":7932,"Ġserver":7933,"Ġfinds":7934,"ĠGovern":7935,"Ġnor":7936,"stood":7937,"ĠDisc":7938,"ERT":7939,"Ġ{};":7940,"Ġfitting":7941,"Ġbond":7942,"ĠJones":7943,"mond":7944,"vania":7945,"ĠConference":7946,"ersonal":7947,"Ġstraightforward":7948,"auto":7949,"Ġinsert":7950,"Ga":7951,"Ġdiffusion":7952,"loc":7953,"Ġdog":7954,"ĠSar":7955,"ĠServices":7956,"Ġcert":7957,"Ġsolving":7958,"ĠĠĠĠĠĠĠĠĠĠĠĠĠĠĠĠĠĠĠĠĠĠĠĠĠĠĠĠĠĠĠĠĠĠĠĠĠĠĠĠĠĠĠĠĠĠĠĠĠĠĠĠĠĠĠĠĠĠĠĠĠĠĠĠ":7959,"ĠSD":7960,"Ġsle":7961,"Ġmedian":7962,"Ġmargin":7963,"Ġfre":7964,"Ġexcell":7965,"Ġaspects":7966,"Ġfiles":7967,"Ġelli":7968,"Ġdaily":7969,"Go":7970,"ĠAlgorithm":7971,"AME":7972,"ups":7973,"ĠCR":7974,"Ġ__":7975,"Ġeffectively":7976,"ĠSunday":7977,"Ġmetall":7978,"Ġempir":7979,"doc":7980,"Sum":7981,"--------------------------------":7982,"ione":7983,"ĠCL":7984,"Ġaccretion":7985,"Ġanalytic":7986,"Ġalle":7987,"Ġnearby":7988,"Ġofficer":7989,"Ġsales":7990,"ĠID":7991,"Ġfrequencies":7992,"ĠNorthern":7993,"Ġwild":7994,"usal":7995,"Ġlooks":7996,"Dist":7997,"ĠAM":7998,"Ġdecreases":7999,"ĠMarket":8000,"Ġexcess":8001,"Ġiteration":8002,"Ġreader":8003,"Ġgenerating":8004,"ĠColumb":8005,"Ġmobile":8006,"Ġready":8007,"Work":8008,"Ġdispersion":8009,"1969":8010,"Ġhomogeneous":8011,"Ġrecognition":8012,"Min":8013,"ĠHa":8014,"Ġfailure":8015,"Ġquadratic":8016,"Ġpromin":8017,"Ġhighlight":8018,"ĠUN":8019,"ubble":8020,"possible":8021,"Response":8022,"Car":8023,"aby":8024,"mf":8025,"gency":8026,"stone":8027,"Ġhierarch":8028,"1971":8029,"ova":8030,"css":8031,"gather":8032,"Ġpolicies":8033,"ĠUp":8034,"py":8035,"ĠBern":8036,"else":8037,"Ġclaims":8038,"Ġpush":8039,"ĠPower":8040,"Ġcreation":8041,"'ll":8042,"urban":8043,"ĠMethod":8044,"textsf":8045,"Ġ\\[":8046,"different":8047,"ĠJohnson":8048,"Ġpolitician":8049,"uv":8050,"Ġpil":8051,"ansas":8052,"_{+":8053,"ĠTaylor":8054,"ruit":8055,"ongs":8056,"{|":8057,"Ġsystematic":8058,"ĠLog":8059,"Ġsafe":8060,"icip":8061,"ifer":8062,"Case":8063,"Ġseasons":8064,"osoph":8065,"Ġcities":8066,"Ġmac":8067,"Ġbroken":8068,"Ġhusband":8069,"Ġfamous":8070,"English":8071,"PO":8072,"Ġtransverse":8073,"since":8074,"ĠPR":8075,"Ġbalance":8076,"Ġdeploy":8077,"ĠEvery":8078,"Ġexplan":8079,"Ġscenarios":8080,"Ġmonitor":8081,"Ġsetup":8082,"Ġexpos":8083,"inity":8084,"Ġversions":8085,"leftarrow":8086,"LR":8087,"odd":8088,"Ġdemonstrated":8089,"ĠWeek":8090,"User":8091,"ĠBlue":8092,"itan":8093,"Ġinclusion":8094,"ĠEr":8095,"Di":8096,"600":8097,"Ġsouthern":8098,"oped":8099,"Ġclosely":8100,"Ġstrugg":8101,"Ġspirit":8102,"Ġpractical":8103,"Ġrepresentative":8104,"Max":8105,"Ð¾Ð":8106,"Ġcharges":8107,"Ġlibrary":8108,"Ġpool":8109,"ĠSN":8110,"tz":8111,"./":8112,"Ġresidual":8113,"Ġrich":8114,"eless":8115,"Ġaware":8116,"product":8117,"Ġ};":8118,"Ġinterior":8119,"inet":8120,"ĠLagrangian":8121,"ĠĠĠĠĠĠĠĠĊ":8122,"Ġren":8123,"ĠMu":8124,"Ġlock":8125,"ynamics":8126,"ĠAnother":8127,"ĠAssembly":8128,"Ġreferences":8129,"Ġexpectation":8130,"stat":8131,"Ġspot":8132,"pred":8133,">&":8134,"pres":8135,"Ġalgebraic":8136,"phase":8137,"Ã§":8138,"aturday":8139,"Ġur":8140,"elligence":8141,"ester":8142,"$^{":8143,"}.}":8144,"Oper":8145,"iate":8146,"Ġzone":8147,"Two":8148,"nol":8149,"forming":8150,"imb":8151,"dule":8152,"$\\\\":8153,"igital":8154,"rapy":8155,"Ġbenefit":8156,"ĠHuman":8157,"have":8158,"Ġtransitions":8159,"BH":8160,"eries":8161,"Off":8162,"spe":8163,"ĠChampionships":8164,"ĠIslam":8165,"ĠSand":8166,"ĠSom":8167,"Ġroughly":8168,"ĠTwitter":8169,"ĠWales":8170,"Ġdedicated":8171,"Ġtransp":8172,"Manager":8173,"ĠSi":8174,"hor":8175,"ĠOF":8176,"Ġcomplement":8177,"Cref":8178,"Ġsummary":8179,"Ġtang":8180,"varrho":8181,"ĠLiber":8182,"aton":8183,"represent":8184,"othing":8185,"Ġowners":8186,"oton":8187,"author":8188,"sa":8189,"Ġking":8190,"select":8191,"rance":8192,"ĠMicro":8193,"Ġcarbon":8194,"ĠNavy":8195,"Ġfaster":8196,"Ġsupply":8197,"density":8198,"ture":8199,"Ġdepartment":8200,"Property":8201,"itness":8202,"clear":8203,"Ġarticles":8204,"Ġdiagrams":8205,"DD":8206,"Ġflex":8207,"Ġnorthern":8208,"Ġcorrelations":8209,"Ġprecise":8210,"Ġends":8211,"Ġderivatives":8212,"Ġspeech":8213,"images":8214,"Ġriver":8215,"inction":8216,"Ġcrucial":8217,"multline":8218,"Ġtwice":8219,"Ġreality":8220,";\"":8221,"ila":8222,"ĠIsrael":8223,"Ġtopology":8224,"Ġhorizontal":8225,"pic":8226,"ĠMichigan":8227,"$'":8228,"si":8229,"Ġbudget":8230,"ampion":8231,"Ġstrictly":8232,"EW":8233,"}{{\\":8234,"Ġ---":8235,"ĠRun":8236,"empty":8237,"})^{":8238,"ĠManagement":8239,"Ġmountain":8240,"1967":8241,"smallskip":8242,"Ġhorizon":8243,"Ġsimilarly":8244,"ĠWeb":8245,"Ġhappen":8246,"Ġ~\\":8247,"Ġcommission":8248,"=\\{":8249,"ĠRadio":8250,"Ġactress":8251,"ĠWilson":8252,"target":8253,"eld":8254,"oral":8255,"Ġinvolve":8256,"mal":8257,"clip":8258,"ĠBal":8259,"ested":8260,"Ġbenefits":8261,"Ġlived":8262,"Ġpapers":8263,"ĠBow":8264,"ĠSpain":8265,"scape":8266,"Ġcontribute":8267,"ĠDev":8268,"resp":8269,"ĠCommunity":8270,"800":8271,"Ġprimarily":8272,"Ġformul":8273,"ĠIran":8274,"\\|_":8275,"iemann":8276,"Notes":8277,"measure":8278,"ĠFort":8279,"BR":8280,"binom":8281,"ĠÂ£":8282,"Ġupdated":8283,"Ġthin":8284,"ĠParliament":8285,"description":8286,"ideos":8287,"Point":8288,"ĠLore":8289,"Ġrestricted":8290,"Mult":8291,"Ġuniverse":8292,"Ġhuge":8293,"ĠCr":8294,"look":8295,"ĠMult":8296,"Ġlanguages":8297,"rob":8298,"ĠTem":8299,"iced":8300,"ĠEnter":8301,"ffect":8302,"Ġprem":8303,"\"]":8304,"ĠSir":8305,"alls":8306,"yer":8307,"Ġintroduction":8308,"rastructure":8309,"Ġdoub":8310,"racket":8311,"textnormal":8312,"Ġbill":8313,"ĠVan":8314,"ĠLo":8315,"Ġtemporal":8316,"ĠBor":8317,"ication":8318,"ĠBC":8319,"Ġpowers":8320,"ructions":8321,"ĠMount":8322,"aya":8323,"Red":8324,"Ġdominated":8325,"Bi":8326,"ĉĠĠĠ":8327,"Ġpaid":8328,"Ġpurposes":8329,"ĠIrish":8330,"Ġsession":8331,"Ġconvers":8332,"rates":8333,"ĠWilliams":8334,"ni":8335,"Ġchair":8336,"full":8337,"Ġmodeling":8338,"Input":8339,"Ġassociation":8340,"Ġinvestigated":8341,"Ġestablishments":8342,"arest":8343,"Ġtried":8344,"180":8345,"lick":8346,"hent":8347,"%)":8348,"Ġhappens":8349,"001":8350,"Ġpolynomials":8351,"rl":8352,"ĠGlobal":8353,"Ġsurfaces":8354,"Ġtested":8355,"Ġterrit":8356,"Ġfib":8357,"ĠBase":8358,"Last":8359,"]^":8360,"Ġsuccessfully":8361,"DI":8362,"Ġcontrolled":8363,"Ġviews":8364,"ĠBang":8365,"world":8366,"ĠBul":8367,"1940":8368,",...,":8369,"Ġsun":8370,"aved":8371,"iger":8372,"Mat":8373,"Ġexceed":8374,"dir":8375,"Ġadvers":8376,"Ġfermion":8377,"ĠTHE":8378,"phys":8379,"Ġtag":8380,"Ġpatient":8381,"ĠSciences":8382,"Ġcircum":8383,"pdate":8384,"Query":8385,"Ġconcentration":8386,"ĠFund":8387,"Ġattended":8388,"ĠFriday":8389,"Ġproducer":8390,"ogether":8391,"Ġverify":8392,"cknowledg":8393,"Ġfashion":8394,"Ġweighted":8395,"ĠFree":8396,"Ġflag":8397,"Ġcharacterized":8398,"bell":8399,"sylvania":8400,"Ġdatabase":8401,"Ġopin":8402,"Ġ$^{":8403,"ĠLord":8404,".$$":8405,"Ġcatalog":8406,"1964":8407,"Ġprogramming":8408,"Ġsatell":8409,"mag":8410,"lie":8411,"Ġcorpor":8412,"ortunately":8413,"Ġprepar":8414,"Ġanalys":8415,"correspon":8416,"ifact":8417,"ori":8418,"ĠSouthern":8419,"aug":8420,"ĠCorollary":8421,"imately":8422,"ĠConn":8423,"Ġinstances":8424,"risis":8425,"just":8426,"ted":8427,"Pos":8428,"Ġtight":8429,"Ġdefines":8430,"Ġsubspace":8431,"found":8432,"ĠSpecial":8433,"mazon":8434,"Ġlargely":8435,"mathtt":8436,"frame":8437,"ĠOx":8438,"sep":8439,"ĠEll":8440,"elian":8441,"Ġstead":8442,"Ġadvert":8443,"Ġratios":8444,"functions":8445,"Ġperhaps":8446,"ĠComput":8447,"Ġnewsp":8448,"imer":8449,"Ġsimulated":8450,"apse":8451,"ĠEnergy":8452,"ĠCard":8453,"onday":8454,"oir":8455,"uries":8456,"ugby":8457,"Ġnative":8458,"ipality":8459,"dem":8460,"Ġpassing":8461,"Read":8462,"comb":8463,"Ġconference":8464,"ĠDemocratic":8465,"Another":8466,"finished":8467,"1965":8468,"Ġentered":8469,"Ġorthogonal":8470,"Ġowned":8471,"EP":8472,"âĢĿ.":8473,"ĠBir":8474,"particle":8475,"Ġflows":8476,"Ġdescent":8477,"Ġinspired":8478,"Ġcovering":8479,"Ġanyone":8480,"Ġpartner":8481,"Ġreasonable":8482,"google":8483,"ĠJoe":8484,"anced":8485,"Head":8486,"Ġfunding":8487,"ĠBell":8488,"Ġsave":8489,"gal":8490,"last":8491,"dep":8492,"bro":8493,"1930":8494,"================":8495,"orted":8496,"Paramet":8497,"Ġ}}":8498,"ĠMah":8499,"Ġrestriction":8500,"Äĩ":8501,"Ġstock":8502,"Ġseat":8503,"Ġdeveloping":8504,"Ġcultural":8505,"igu":8506,"Ġscores":8507,"het":8508,"Ġvarying":8509,"ĠFacebook":8510,"BO":8511,"ĠNS":8512,"ĠWater":8513,"Ġemployees":8514,"Ġuniversity":8515,"Ġcir":8516,"Ġdrawn":8517,"Ġheard":8518,"Ġvehicles":8519,"}^+":8520,"ipl":8521,"Ġeyes":8522,"ĠLab":8523,"ĠVi":8524,"adding":8525,"sg":8526,"Ġchoices":8527,"Ġrestaur":8528,"take":8529,"Ġreconstruction":8530,"ĠStat":8531,"bury":8532,"textup":8533,"Ġunless":8534,"when":8535,"Further":8536,"ĠSimilarly":8537,"1945":8538,"ĠMountain":8539,"cape":8540,"Ġschemes":8541,"ceil":8542,"nm":8543,"ĠRay":8544,"Ġchiral":8545,"ĠNav":8546,")_{\\":8547,"roller":8548,")[":8549,"Ġrenormal":8550,"ĠPacific":8551,"Ġcolumns":8552,"iders":8553,"Ġfloor":8554,"ĠAsian":8555,"Ġphoto":8556,"adel":8557,"ĠGreek":8558,"rations":8559,"android":8560,"Ġmanaged":8561,"ĠWed":8562,"Ġcodes":8563,"Ġenvironmental":8564,"grav":8565,"wind":8566,"water":8567,"ĠKen":8568,"IST":8569,"Gener":8570,"Ġreligious":8571,"ez":8572,"itudes":8573,"expected":8574,"Ġnaturally":8575,"Ġpanels":8576,"Ġbool":8577,"ĠAT":8578,"argets":8579,"gypt":8580,"Pop":8581,"Ġcloser":8582,"show":8583,"Proposition":8584,"subequations":8585,"ĠCarl":8586,"esides":8587,"Ġillustrated":8588,"Ġparticipants":8589,"Ġweap":8590,"ĸº":8591,"nam":8592,"Ġdistances":8593,"ĠWin":8594,"Ġwarm":8595,"Ġsurrounding":8596,"1966":8597,"ĠPoint":8598,"ĠCho":8599,"ĠCase":8600,"Ġfits":8601,"otal":8602,">>":8603,"Ġcorner":8604,"Ġinvolves":8605,"Ġadvanced":8606,"ĠGi":8607,"Ġseparated":8608,"init":8609,"Ġthanks":8610,"Ġvictory":8611,"ĠSa":8612,"Ġorientation":8613,"ennis":8614,"Ġbelieved":8615,"Ġexcited":8616,"Ġvocals":8617,"Ġheav":8618,"pot":8619,"Ġdrug":8620,"\\}.":8621,"Ġpretty":8622,"Ġrandomly":8623,"fa":8624,"Ġresidents":8625,"ĠWall":8626,"prov":8627,"ĠBoston":8628,"element":8629,"Ġdrama":8630,"life":8631,"Ġunderstood":8632,"inating":8633,"Ġglass":8634,"ĠMonte":8635,"etts":8636,"\\/":8637,"enger":8638,"Ġbeat":8639,"ĠLear":8640,"SH":8641,"Ġwonder":8642,"erg":8643,"Ġextent":8644,"'.":8645,"ĠBack":8646,"erion":8647,"BI":8648,"Ġextracted":8649,"ĠEqs":8650,"Ġcosmological":8651,"hanced":8652,"Ġperspective":8653,"Ġdamage":8654,"Ġepoch":8655,"Ġcaptured":8656,"coh":8657,"Ġmask":8658,"spin":8659,"Ġ\\{\\":8660,"inson":8661,"Ac":8662,"bigcup":8663,"Ġthr":8664,"Ġcauses":8665,"ĠPrem":8666,"Ġannot":8667,"ĠCH":8668,"oli":8669,"Ġmorning":8670,"lib":8671,"ograp":8672,"ĠAst":8673,"Ġcounty":8674,"Ġresonance":8675,"ĠFrancisco":8676,"ĠSoviet":8677,"\\[\\":8678,"Ġpackage":8679,"Ġserving":8680,"aturing":8681,"ĠUV":8682,"pop":8683,"Ġeconomy":8684,"ĠEmpire":8685,"ĠCle":8686,"Ġbran":8687,"ĠĠĠĠĠĠĠĠĠĠĠĠĠĠĠĠĠĠĠĠĠĠĠĠĠĠĠĠĠĠĠ":8688,"namespace":8689,"Non":8690,"Ġanalyze":8691,"!!":8692,"hot":8693,"Ġequipment":8694,"Ġcrow":8695,"Ġcaref":8696,"General":8697,"problem":8698,")}$.":8699,")--(":8700,"ami":8701,"midrule":8702,"Ġgenerator":8703,"ĠSports":8704,"Ġacquired":8705,"ĠĠčĊ":8706,"Ġproduces":8707,"Ġmagazine":8708,"Ġentirely":8709,"101":8710,"Ġcriteria":8711,"ador":8712,"Bigg":8713,"Ġpresents":8714,"Ġdefinitions":8715,"ĠCorpor":8716,"Ġtells":8717,"leton":8718,"Ġhab":8719,"Ġintended":8720,"Ġowner":8721,"ĠCamb":8722,"ucky":8723,"ulating":8724,"=\"../":8725,"ĠProvince":8726,"Client":8727,"Ġstronger":8728,"Ġofficials":8729,";\\;":8730,"Ġhybrid":8731,"ĠMedical":8732,"Ġslope":8733,"\\,{\\":8734,"yd":8735,"close":8736,"ĠSenate":8737,"ĠHilbert":8738,"ĠJeff":8739,"bug":8740,"ĠNight":8741,"osa":8742,"ells":8743,"ĠCivil":8744,"Ġquot":8745,"onto":8746,"Ġwasn":8747,"ĠPubl":8748,")).":8749,"ruck":8750,"May":8751,")&":8752,"conduct":8753,"TA":8754,"obj":8755,"arks":8756,"ĠOhio":8757,"ĠMot":8758,"Ġrespective":8759,"Start":8760,"care":8761,"ĠPolice":8762,"ĠOnly":8763,"}[!":8764,"ĠQCD":8765,"ĠFar":8766,"Ġ{}":8767,"Ġsphere":8768,"itage":8769,"Ġseconds":8770,"states":8771,"Ġattend":8772,"Ġuniqu":8773,"ĠUkraine":8774,"onia":8775,"Ġsimultaneously":8776,"Left":8777,"Ġrecording":8778,"VD":8779,"Ġmotor":8780,"Ġfle":8781,"Em":8782,"ĠQueen":8783,"assum":8784,"Sing":8785,"rog":8786,"Ġalgebras":8787,"ĠNext":8788,"Aust":8789,"Ġlikelihood":8790,"respect":8791,"inois":8792,"Ġirreducible":8793,"Override":8794,"annot":8795,"moment":8796,"ĠHead":8797,"Ġfra":8798,"Ġdiscover":8799,"jpg":8800,"estic":8801,"Will":8802,"issions":8803,"ãģ":8804,"options":8805,"Ġbriefly":8806,"Ġsevere":8807,"ĠBuild":8808,"ĠKh":8809,"Ġbrain":8810,"Ġtransformations":8811,"ĠSup":8812,"Stream":8813,"ribed":8814,";&":8815,"})=\\":8816,"125":8817,"$}}":8818,"Ġskills":8819,"Ġscript":8820,"GA":8821,"Ġdie":8822,"1920":8823,"img":8824,"ĠHal":8825,"BL":8826,"Ġplasma":8827,"ses":8828,"Ġflight":8829,"mean":8830,"Ġahead":8831,"Ġelections":8832,"ĠEquation":8833,"Ġadministration":8834,"Ġfill":8835,"Ġcomparable":8836,"ĠPhilipp":8837,"Ġreviews":8838,"Ġwants":8839,"Ġbegins":8840,"agram":8841,"anta":8842,"Ġinvestment":8843,"ĠPennsylvania":8844,"ĠOrgan":8845,"CF":8846,"Ġsolved":8847,"Date":8848,"Ġsuc":8849,"Ġoffset":8850,"Ġimply":8851,"andra":8852,"abeth":8853,"Ġliquid":8854,"rome":8855,"Ġ\\|\\":8856,"Ġneutron":8857,"riminal":8858,"obe":8859,"Ġphone":8860,"raise":8861,"Ġbridge":8862,"Ġvision":8863,"Ġphotons":8864,"BE":8865,"enth":8866,"ints":8867,"ApJ":8868,"Ġboost":8869,"ĠFollowing":8870,"Ġpsych":8871,"ĠHistoric":8872,"ĠHaw":8873,"Ġwish":8874,"Ġkinetic":8875,"Ġsomewhat":8876,"Ġvictim":8877,"ECT":8878,"Ġadjacent":8879,"ĠDesign":8880,"Ġsimplicity":8881,"Ġregional":8882,"ĠTheatre":8883,"Bbb":8884,"Ġbatt":8885,"ĠColor":8886,"citealt":8887,"allow":8888,"{.":8889,"ĠBritain":8890,"amin":8891,"Ġdomains":8892,"exists":8893,"Ġamplitudes":8894,"Ġcolour":8895,"Ġmeant":8896,";</":8897,"Ġstands":8898,"Ġprotection":8899,"phone":8900,"Ġdriven":8901,"ĠNa":8902,"RL":8903,"icate":8904,"burgh":8905,"Ġregression":8906,"Ste":8907,"Ġdraft":8908,"Ġofficers":8909,"Ġatomic":8910,"Ġfacilities":8911,"ĠAff":8912,"Ġdeliver":8913,"Ġaccepted":8914,"ME":8915,"Ġconsec":8916,"athan":8917,"ented":8918,"orig":8919,"uzz":8920,"Ġidentification":8921,"Ġdip":8922,"ĠAndrew":8923,"amber":8924,"}>":8925,"160":8926,"ĠMiddle":8927,"ĠLight":8928,"ourney":8929,"Ġconservation":8930,"Ġlogarithm":8931,"Ġcav":8932,"MF":8933,"ĠReturn":8934,"Ġscientific":8935,"Ġensemble":8936,"Ġdecades":8937,"aki":8938,"ĠOl":8939,"Ġpip":8940,"Ġtrajectory":8941,"vo":8942,"Hel":8943,"Ġbary":8944,"ĠScotland":8945,"ĠRegister":8946,"Ġcars":8947,"ĠCro":8948,"Ġclinical":8949,"Ġdiffer":8950,"}{}":8951,"ĠJon":8952,"Ġsmart":8953,")}$,":8954,"Ġoperated":8955,"ĠCNN":8956,"Base":8957,"Sm":8958,"rays":8959,"Ġdiscussions":8960,"oute":8961,"Ġvort":8962,"Ġconventional":8963,"Ġfeet":8964,"Ġproposition":8965,"Ġstationary":8966,"ĠNon":8967,"leqslant":8968,")>":8969,"ĠGeorgia":8970,"Ġextreme":8971,"Ġpixel":8972,"Ġburn":8973,"Ġearth":8974,"^*_":8975,"Ġeye":8976,"Ġbenchmark":8977,"ĠDou":8978,"ĠPop":8979,"Ġissued":8980,"utation":8981,"MT":8982,"ĠPolicy":8983,"wt":8984,"ĠAGN":8985,"Ġmoves":8986,"Ġsubsequently":8987,"Ġsucceed":8988,"Ġscope":8989,"query":8990,"ĠAgain":8991,"iang":8992,"^+$":8993,"ĠIndust":8994,"Ġanisot":8995,"ĠDaniel":8996,"Bo":8997,"achus":8998,"Ġsister":8999,"Ġacademic":9000,"brane":9001,"ĠSaturday":9002,"dashed":9003,"Ġcovers":9004,"illy":9005,"ĠRE":9006,"Ġbuff":9007,"adi":9008,"ĠRh":9009,"Ġarmy":9010,"\\},":9011,"ĠAh":9012,"ĠLem":9013,"Ġmechanisms":9014,"Ġinduction":9015,"Ġ\\}":9016,"ĠMid":9017,"defn":9018,"Ġ->":9019,"ĠPy":9020,"Career":9021,"Ġleadership":9022,"à¥":9023,"GS":9024,"Ġstabil":9025,"tree":9026,"âĢĺ":9027,"ursday":9028,"Åį":9029,"parent":9030,"client":9031,"Ġsymbols":9032,"Ġwel":9033,"Action":9034,"ethe":9035,"}\\;":9036,"STATE":9037,"erset":9038,"1962":9039,"ĠRepresent":9040,"green":9041,"Ġ{$\\":9042,"ĠGener":9043,"chor":9044,".(\\":9045,"\\}_{":9046,"constra":9047,"ĠCoast":9048,"Ġnotes":9049,"cules":9050,"complete":9051,"len":9052,"Ġsexual":9053,"between":9054,"Ġreward":9055,"Ġsimilarity":9056,"Ġyouth":9057,"ĠHospital":9058,"Ġprivacy":9059,"Ġboundaries":9060,"Ġengineering":9061,"Ġcouplings":9062,"omer":9063,"Ġhour":9064,"mt":9065,"ĠCas":9066,"rowser":9067,"ĠKent":9068,"plex":9069,">(":9070,"ĠJackson":9071,"Ġcolon":9072,"Home":9073,"ĠStan":9074,"ĠJacob":9075,"mo":9076,"aped":9077,"ĠSea":9078,"ĠStudies":9079,"ramework":9080,"curs":9081,"ĠFamily":9082,"aux":9083,"ĠEst":9084,"MD":9085,"Ġaudience":9086,"alities":9087,"hav":9088,"Ġconnections":9089,"Ġvon":9090,"National":9091,"Ġexpanded":9092,"Ġinflation":9093,"RA":9094,"Ġcrew":9095,"Ġcub":9096,"php":9097,"sts":9098,"ĠIV":9099,"Ġdrum":9100,"ĠML":9101,"ĠExt":9102,"nolimits":9103,"Ġwinner":9104,"_{-\\":9105,"eger":9106,"phia":9107,"Ġdriver":9108,"ĉĠ":9109,"Second":9110,"Ġadvance":9111,"Function":9112,"Ġcircuit":9113,"Mark":9114,"Each":9115,"correct":9116,"ĠJersey":9117,"Ġcomplicated":9118,"Ġextensive":9119,"unte":9120,"Ġopportunities":9121,"achusetts":9122,"}},\\":9123,"Ġcricket":9124,"Ġprotein":9125,"aded":9126,"Ġorbits":9127,"Ġabundance":9128,"connected":9129,"Ġfaith":9130,"Ġboy":9131,"ĠBattle":9132,"ulf":9133,"Ġcooper":9134,"Under":9135,"ĠFederal":9136,"Book":9137,"pson":9138,"uclide":9139,"Ġstreet":9140,"Ġâĸº":9141,"1963":9142,"independent":9143,"Bigl":9144,"teen":9145,"Ġcere":9146,"Ġrailway":9147,"card":9148,"tages":9149,"approxim":9150,"ĠSC":9151,"Ġinference":9152,"Ġeigenvalue":9153,"Ġcensus":9154,"ĠMike":9155,"Ġrequirement":9156,"uated":9157,"Par":9158,"period":9159,"ĠFC":9160,"Ġactors":9161,"Ġfindings":9162,"inals":9163,"ĠCall":9164,"Ġpeace":9165,"Ġconverges":9166,"Ġstd":9167,"ĠMain":9168,"ĠAsh":9169,"Ġconvenient":9170,"Ġbusinesses":9171,"Ġdefect":9172,"Ġroles":9173,"scriptscriptstyle":9174,"Ġsupporting":9175,"ĠJr":9176,"Ġconformal":9177,"Ġlaser":9178,"Ġplease":9179,"imation":9180,"Ġdt":9181,"INE":9182,"urance":9183,"PH":9184,"Ġfellow":9185,"Ġexecutive":9186,"owski":9187,"${":9188,"ĠâĹ":9189,"Ġposterior":9190,"Ġfresh":9191,"ĠJewish":9192,"Ġbelongs":9193,"Ġtick":9194,"Ġharmonic":9195,"Ġfunctor":9196,"Ġholes":9197,"ictures":9198,"ĠFour":9199,"idal":9200,"ĠThree":9201,"Ġdivis":9202,"Ġroots":9203,"Ġdram":9204,"than":9205,"ĠColl":9206,"Ġchallenging":9207,"Ġexecution":9208,"ĠMas":9209,"Ġsubsection":9210,"grade":9211,"ĠDE":9212,"Ġpit":9213,"urable":9214,"Ġ<<":9215,"idents":9216,"including":9217,"even":9218,"Furthermore":9219,"cross":9220,"Ġdoor":9221,"Ġpotentially":9222,"ĠCEO":9223,"Ġcompatible":9224,"ĠInstead":9225,"<!--":9226,"sd":9227,"Ġserves":9228,"ĠJes":9229,"eren":9230,"ĠFermi":9231,"ĠPC":9232,"Ġhelps":9233,"ĠâĢ¦":9234,"ĠWis":9235,"ĠRepublican":9236,"sym":9237,"ocated":9238,"123":9239,"ordan":9240,"ĠChris":9241,"ĠNever":9242,"Ġpossess":9243,"Ġrefers":9244,"Ġsport":9245,"closed":9246,"Ġpartially":9247,"Ġautomatically":9248,"ĠDown":9249,"Ġfan":9250,"Ġdefense":9251,"'$.":9252,"bc":9253,"DT":9254,"Phys":9255,"Ġdefeated":9256,"ĠKong":9257,"Bigr":9258,"uclidean":9259,"Ġreconstruct":9260,"Ġreads":9261,"Ġsurve":9262,"Builder":9263,"Ġcomparing":9264,"present":9265,"ains":9266,"Ġinputs":9267,"unfinished":9268,"}~\\":9269,"Ġportion":9270,"Ġmiles":9271,"Resource":9272,"Ġconditional":9273,"Ġvideos":9274,"Ġintervals":9275,"Ġexcellent":9276,"Ġconcerns":9277,"Ġpieces":9278,"ĠDC":9279,"ocket":9280,"blem":9281,"Wind":9282,"newline":9283,"ĠNULL":9284,"Ġera":9285,"Ġfifth":9286,"Ġiron":9287,"Ġcoal":9288,"HD":9289,"hr":9290,"etails":9291,"Ġfeas":9292,"Ġangles":9293,"rell":9294,"ĠLast":9295,"ĠMcC":9296,"Ġturbul":9297,"Util":9298,"ois":9299,"sem":9300,"ãĥ":9301,"Ġgate":9302,"ĠKim":9303,"Ġmarriage":9304,"ĠGar":9305,"anglement":9306,"Ġoutcome":9307,"above":9308,"Ġoccurred":9309,"ipart":9310,"Ġconsult":9311,"ortion":9312,"irection":9313,"will":9314,"}{*}{":9315,"inking":9316,"XX":9317,"Status":9318,"acle":9319,"ĠAbout":9320,"256":9321,"Ġkeeping":9322,"Ġhear":9323,"ĠâĹ¼":9324,"ĠWho":9325,"=-\\":9326,"ĠJustice":9327,"Ġdocuments":9328,"Ġpet":9329,"direct":9330,"Ġdecreasing":9331,"Ġfinish":9332,"Ġwestern":9333,"ĠSecurity":9334,"Ġplotted":9335,"Ã¢":9336,"ĠAny":9337,"ĠNY":9338,"Local":9339,"Ġcommit":9340,"Vis":9341,"ais":9342,"Ġenable":9343,"ĠBroad":9344,"ĠPakistan":9345,"SN":9346,"ĉĉĉĉĉĉĉĉ":9347,"Ġconcert":9348,"|_{\\":9349,"ĠInf":9350,"button":9351,"Ġstructural":9352,"Ġmeta":9353,"Men":9354,"Ġfort":9355,"cover":9356,"iples":9357,"}<":9358,"Ġaw":9359,"Ġexerc":9360,"eties":9361,"Don":9362,"upi":9363,"Long":9364,"ibilities":9365,"Ġstages":9366,"Ġpseudo":9367,"ĠEdward":9368,"rovers":9369,"Dec":9370,"Ġempirical":9371,"ĠMonday":9372,"\"),":9373,"Ġcouncil":9374,"Cell":9375,"ĠIllinois":9376,"nowledge":9377,"plus":9378,"Ġsingles":9379,"Ġdefining":9380,"ĠEgypt":9381,"Ġdescribing":9382,"ĠAuthor":9383,"ĠDar":9384,"Ġspherical":9385,"Ġexhibit":9386,"ĠDue":9387,"Ġlooked":9388,"umes":9389,"|_":9390,"ĠNC":9391,"Ġsupports":9392,"verage":9393,"rior":9394,"Ġunitary":9395,"property":9396,"1961":9397,"Ġful":9398,"Ġknew":9399,"Ġtopic":9400,"Ġguide":9401,"Nav":9402,"Ġfiber":9403,"uesday":9404,"Acc":9405,"rants":9406,"outhe":9407,"Ag":9408,"Ġmodules":9409,"Ġgeneralization":9410,"Ġepisodes":9411,"Upsilon":9412,"Ġisolated":9413,"Ġimmediate":9414,"heric":9415,"ĠLocal":9416,"Ġhist":9417,"ĠTw":9418,"exist":9419,"Ġrev":9420,"adata":9421,"aneous":9422,"rable":9423,"itter":9424,"ĠId":9425,"ĠLim":9426,"ĠGirl":9427,"ĠGovernor":9428,"Ġsumm":9429,"entry":9430,"\\|^":9431,"Ġisomorphic":9432,"ĠDirac":9433,"chester":9434,"Ġjobs":9435,"ĠDutch":9436,"project":9437,"Ġbatter":9438,"Ġgenerators":9439,"Ġcopies":9440,"ĠFurther":9441,"Ġrelationships":9442,"scope":9443,")</":9444,"utr":9445,"ĠPen":9446,"Ġnewly":9447,"Ġdecays":9448,"Ġspacetime":9449,"Ġplants":9450,"Ġanimals":9451,"HL":9452,"ĠMinistry":9453,"cp":9454,"stic":9455,"Ġinterpol":9456,"opher":9457,"ologist":9458,"Ġsentence":9459,"Ġplanned":9460,"Sche":9461,"Ġinn":9462,"Ġperiods":9463,"Ġcertainly":9464,"Ġindependently":9465,"Ġestimator":9466,"ĠRen":9467,"umps":9468,"Ġcolors":9469,"Ver":9470,"ĠEastern":9471,"Also":9472,"ĠRead":9473,"$_{\\":9474,"ĠOxford":9475,"Ġfilled":9476,"valued":9477,"outs":9478,"creen":9479,"Following":9480,"ubb":9481,"yo":9482,"Ġarrived":9483,"Ġprominent":9484,"pool":9485,"Ġfrequently":9486,"ĠEp":9487,"Ġhappened":9488,"lat":9489,"orders":9490,"ntz":9491,"Ġresearchers":9492,"ĠBan":9493,"Ġtradition":9494,"Ġgeodes":9495,"ĠPoisson":9496,"ĠDefinition":9497,"Ġconstitu":9498,"nesday":9499,"Ġtargets":9500,"lers":9501,"Ġcompre":9502,"isen":9503,"ĠLittle":9504,"triangle":9505,"erry":9506,"arters":9507,"Ġcart":9508,"Ġsignature":9509,"mentation":9510,"Films":9511,"gery":9512,"perturb":9513,"component":9514,"ĠPass":9515,"Ġrapidly":9516,"irror":9517,"Ġprobabilities":9518,"una":9519,"ĠMuslim":9520,"Ġcondens":9521,"Ġdanger":9522,"Ġalongside":9523,"]=":9524,"Number":9525,"Ġcollision":9526,"Dem":9527,"\").":9528,"ĠCat":9529,"Ġplate":9530,"Before":9531,"VER":9532,"ĠKorea":9533,"zo":9534,"FS":9535,"}}=\\":9536,"hire":9537,"ĠRiemann":9538,"Ġsquad":9539,"Ġaug":9540,"Ġagreed":9541,"ĠNone":9542,"Ġpm":9543,"ĠInvest":9544,"Ġcrime":9545,"NO":9546,"find":9547,"'d":9548,"Ġsmallest":9549,"Ġpal":9550,"Block":9551,"Ġpoliticians":9552,"organ":9553,"ifest":9554,"Writ":9555,"Ġlabeled":9556,"ĠOnce":9557,"Ġbass":9558,"ĠDun":9559,"Ġandroid":9560,"global":9561,"ĠBrook":9562,"&-":9563,"hou":9564,"jk":9565,"Ġmuseum":9566,"omet":9567,"oster":9568,"Ġcomedy":9569,"Ġduration":9570,"itical":9571,"ĠMassachusetts":9572,"ĠMC":9573,"bits":9574,"ĠLike":9575,"dual":9576,"Label":9577,"ĠSE":9578,"forcement":9579,"entric":9580,"pload":9581,"uing":9582,"kers":9583,"Ġcredit":9584,"vdots":9585,"Ġdownload":9586,"RS":9587,"Ġ&$":9588,"ĠPrime":9589,"Ke":9590,"ĠPoland":9591,"Ġarms":9592,"ĠSem":9593,"Ġrecip":9594,"ativity":9595,"Ġescape":9596,")|\\":9597,"Ġframes":9598,"Ġdwar":9599,"Dep":9600,"Ġplots":9601,"Ġprofessor":9602,"Ġapplies":9603,"anna":9604,"Ġ((":9605,"Ġbed":9606,"occer":9607,"Ġembedded":9608,"Ġfacility":9609,"_{[":9610,"ĠEU":9611,"Ġpopulations":9612,"cerning":9613,"ped":9614,"ĠReal":9615,"ĠLatin":9616,"was":9617,"Ġraise":9618,"izabeth":9619,"ĠLabor":9620,"Ġinstitutions":9621,"Ġblow":9622,"ĠHong":9623,"notin":9624,"Ġpropagation":9625,"groups":9626,"vironments":9627,"ĠAdminist":9628,"Ġdecisions":9629,"Ġcooling":9630,"Ġeasier":9631,"Ġcitizens":9632,"Ġwire":9633,"Ġvanishes":9634,"ographer":9635,"ĠBon":9636,"\\,,":9637,"Wid":9638,"ĠUnivers":9639,"Ġà¤":9640,"Ġancient":9641,"ĠThrough":9642,"Ġthread":9643,"Ġbeautiful":9644,"Ġclustering":9645,"lm":9646,"Ġliber":9647,"ĠSecretary":9648,"ĠPrince":9649,"ti":9650,"ĠBoy":9651,"Ġboolean":9652,"1944":9653,"ĠSO":9654,"Ġprices":9655,"Ġcrossing":9656,"Ġcircular":9657,"fortunately":9658,"Ġspring":9659,"Ġweather":9660,"frared":9661,"ĠHard":9662,"1956":9663,"Ġkinem":9664,"ligible":9665,"ĠConserv":9666,"Year":9667,"ĠProfessor":9668,"âĢĿ,":9669,".},":9670,"ĠWalk":9671,"1959":9672,"Ġintegers":9673,"University":9674,"Ġcollaboration":9675,"Ġcyl":9676,"Ġpersonnel":9677,"ĠVo":9678,"intro":9679,"Ã±":9680,"ĠKar":9681,"Ġheter":9682,"Ġsplitting":9683,"Ġelev":9684,"hs":9685,"Ġentertain":9686,"Ġcontrols":9687,"Ġdistinguish":9688,"ulator":9689,"Ġships":9690,"arial":9691,"Ġearned":9692,"how":9693,"Recall":9694,"args":9695,"Ġrout":9696,"Ġcounterpart":9697,")}_{\\":9698,"rg":9699,"ienced":9700,"ĠStr":9701,"ĠChristmas":9702,"Ġintrinsic":9703,"Ġnormalization":9704,"Brit":9705,"output":9706,"Ġcolle":9707,"ĠExec":9708,"PN":9709,"Ġperturbations":9710,"bolic":9711,"ĠAI":9712,"Ġmoder":9713,"Ġfuel":9714,"oving":9715,"ĠResults":9716,"ĠDespite":9717,"Ġperformances":9718,"iki":9719,"Dav":9720,"ĠCA":9721,"Ġtransferred":9722,"roscopic":9723,"Ġven":9724,"fefe":9725,"ĠMarkov":9726,"Ġdream":9727,"ailed":9728,"gets":9729,"aterial":9730,"Ġstandards":9731,"')$":9732,"pur":9733,"Ġfeaturing":9734,"Ġblog":9735,"Ġviewed":9736,"Ġremember":9737,"ĠObject":9738,"ĠAdd":9739,"Ġindicating":9740,"iliary":9741,"izable":9742,"Ġsharing":9743,"ĠReport":9744,"Ġrecognized":9745,"Conn":9746,"Ġsteady":9747,"Ġdance":9748,"ĠMaster":9749,"Ġbiggest":9750,"coordin":9751,"Ġrobot":9752,"ĠHand":9753,"triang":9754,"actor":9755,"Ġcancell":9756,"Members":9757,"*\\":9758,"Gr":9759,"ĠSat":9760,"ĠHo":9761,"oned":9762,"iated":9763,"Ġfish":9764,"MO":9765,"Ġindustrial":9766,"'$,":9767,"Ġstatements":9768,"Ġpointed":9769,"Ġmel":9770,"ĠVen":9771,"requency":9772,"Ġaccounts":9773,"ĠEnt":9774,"header":9775,"Ġconfirm":9776,"1958":9777,"ĠWrit":9778,"orney":9779,"determ":9780,"Ġawards":9781,"theory":9782,"Ġpeaks":9783,"Build":9784,"ouds":9785,"Ġworst":9786,"olis":9787,"ĠGrant":9788,"hensive":9789,"Up":9790,"Ġcone":9791,"Ġcontradiction":9792,"Ġce":9793,"Ġtrajectories":9794,"thon":9795,"Ġiterations":9796,"uling":9797,"ĠĠĠĠĠĠĠĠĠĠĠĠĠĠĠĠĠĠĠĠĠ":9798,"Ġsigns":9799,"layer":9800,"Ġpolitics":9801,"Ġwitness":9802,"Ġfold":9803,")=(":9804,"Ġhousing":9805,"Ġaudio":9806,"ĠRog":9807,"Ġexposure":9808,"Ġexperiences":9809,"Us":9810,"Ġrealized":9811,"ĠRod":9812,"format":9813,"ĠEngineering":9814,"Ġstudying":9815,"ĠApple":9816,"'',":9817,"Ġmessages":9818,"Ġatom":9819,"Ġwhenever":9820,"~(":9821,"Ġinfrastructure":9822,"ĠLive":9823,"Ġcollisions":9824,"former":9825,"}})$":9826,"ĠLic":9827,"Ġinjury":9828,"Ġfell":9829,"Ġneighb":9830,"Ġcorrespondence":9831,")),":9832,"ĠAud":9833,"uple":9834,"Ġperman":9835,"jav":9836,"Ġreplic":9837,"ito":9838,"Ĥ¬":9839,"Token":9840,"ĠFire":9841,"Ġanalytical":9842,"Ġcollapse":9843,"Ġhouses":9844,"1957":9845,"vskip":9846,"Ġvelocities":9847,"ĠIS":9848,"ĠVill":9849,"ĠBrad":9850,"mathds":9851,"ĠAlexander":9852,"kh":9853,"ĠViet":9854,"Prov":9855,"ĠKel":9856,"ĠAD":9857,"ĠColumbia":9858,"Ġparam":9859,"sample":9860,"ĠLater":9861,"World":9862,"YPE":9863,"ificial":9864,"uning":9865,"Ġreplacing":9866,"Ġwal":9867,"Acknowledg":9868,"ĠPortug":9869,"1948":9870,":#":9871,"Step":9872,"Ġcovariance":9873,"adelphia":9874,"ĠFair":9875,"Link":9876,".}\\":9877,"cycle":9878,"upied":9879,")|^":9880,"GE":9881,"AU":9882,"eman":9883,"rust":9884,"loss":9885,"Ġinvert":9886,"Ġappeal":9887,"learning":9888,"Ġlosses":9889,"Ġdissip":9890,"below":9891,"IO":9892,"ĠKey":9893,"Ġarise":9894,"CON":9895,"Arg":9896,"ĠInternet":9897,"Ġcha":9898,"chy":9899,"ĠStation":9900,"renew":9901,"bd":9902,"Ġseed":9903,"inator":9904,"Return":9905,"ĠĠĠĠĠĠĠĠĠĠĠĠĠĠĠĠĠĠĠĠ":9906,"Ġanalyzed":9907,"ennes":9908,"ĠWhe":9909,"Ġaffine":9910,"ĠThursday":9911,"specific":9912,"ipe":9913,"append":9914,"Ġsharp":9915,"Ġattempts":9916,"Ġclubs":9917,"Ġfacilit":9918,"Ġweakly":9919,"aling":9920,"Ġdoll":9921,"ĠHung":9922,"dings":9923,"Ġ$<":9924,"Ġbow":9925,"ĠMach":9926,"hole":9927,"Cent":9928,"herence":9929,"Ġaveraged":9930,"Ġsecure":9931,"ĠNet":9932,"Check":9933,"Ġdetermin":9934,"uten":9935,"'}\\":9936,"Ġcas":9937,"fields":9938,"Ġdiscret":9939,"Ġwalls":9940,"ĠSus":9941,"Ġabstract":9942,"Ġhair":9943,"hedral":9944,"ropical":9945,"fast":9946,"Ġcircles":9947,"ATION":9948,"Ġupdates":9949,"Ġreducing":9950,"Ġmanufacture":9951,"GP":9952,"HO":9953,"typ":9954,"Ġfunds":9955,"Ġrecovery":9956,"Ġwait":9957,"potential":9958,"onym":9959,"ĠObserv":9960,"Current":9961,"Ġexponent":9962,"apore":9963,"dney":9964,"ulner":9965,"ĠConf":9966,"Ġordinary":9967,"Ġhonor":9968,"ĠCommon":9969,"ĠJean":9970,"ĠTam":9971,"through":9972,"orship":9973,"itory":9974,"Track":9975,"ego":9976,"ĠBand":9977,"Ġrevers":9978,"arts":9979,"Ġclients":9980,"Ġpublication":9981,"RC":9982,"displaymath":9983,"Å¡":9984,"Ġconflict":9985,"Ġkick":9986,"Ġseeing":9987,"asi":9988,"tically":9989,"Ġcrisis":9990,"Best":9991,"modules":9992,"oidal":9993,"NC":9994,"Prop":9995,"ĠCare":9996,"Tem":9997,"KE":9998,"Mc":9999,"'=":10000,"Ġclassic":10001,"Ġclassified":10002,"uable":10003,"match":10004,"Ġretired":10005,"ocy":10006,"ĠRom":10007,"|=":10008,"umul":10009,"Ġpulse":10010,"elescope":10011,"ĠCP":10012,"stud":10013,"1952":10014,"Ġsubsets":10015,"aste":10016,"Ġurban":10017,"Ġtele":10018,"offs":10019,"Ġneither":10020,"Ġconsecutive":10021,"weak":10022,"control":10023,"Ġthinking":10024,"Ham":10025,"1955":10026,"tb":10027,"Ġkids":10028,"ĠRev":10029,"ĠHun":10030,"Ġenem":10031,"Ġathlet":10032,"})_{":10033,"Ġsole":10034,"Ġcriterion":10035,"ĠMic":10036,"âĢī":10037,"wing":10038,",~":10039,"Ġgene":10040,"ĠAmericans":10041,"ĠIL":10042,"ĠCart":10043,"Ġfitted":10044,"service":10045,"1942":10046,"Ġresulted":10047,"Ġ}$":10048,"ĠMS":10049,"Ġmm":10050,"HM":10051,"1939":10052,"Var":10053,"manifold":10054,"Sports":10055,"Ġnan":10056,"ĠOnt":10057,"ĠNGC":10058,"worth":10059,"anth":10060,"Ġlinked":10061,"Component":10062,"nic":10063,"Ġreceiving":10064,"rics":10065,"udden":10066,"channel":10067,"complex":10068,"Ġhero":10069,"orrow":10070,"Ġcoherent":10071,"ART":10072,"irty":10073,"Ġexplanation":10074,"ĠGro":10075,"idential":10076,"writer":10077,"iliar":10078,"analy":10079,"substack":10080,"Ġcapable":10081,"sn":10082,"sex":10083,"Rightarrow":10084,"Ġagric":10085,")}=":10086,"Pat":10087,"Ġrealistic":10088,"ĠNAS":10089,"shape":10090,"Ġkill":10091,"ĠBeach":10092,"ĠCarlo":10093,"ceived":10094,"Ġprepared":10095,"Ġtheme":10096,"Ġclosure":10097,"&$":10098,"ĠName":10099,"Ġcounts":10100,"Ġbars":10101,"osophy":10102,"Ġapplicable":10103,"Most":10104,"Ġtriple":10105,"ictionary":10106,"Ġproducing":10107,"update":10108,"Content":10109,"ĠBerlin":10110,"FM":10111,"Ġchoosing":10112,"Ġsell":10113,"domain":10114,"Ġbodies":10115,"consin":10116,"Ġenhanced":10117,"Ġseparately":10118,"ĠAp":10119,"mathbbm":10120,"United":10121,"Ġacid":10122,"Ġrom":10123,"ĠCirc":10124,"Ġviolence":10125,"ĠBH":10126,"ĠDaily":10127,"ãĤ":10128,"thur":10129,"Ġconsideration":10130,"ĠLew":10131,"Ġped":10132,"Ġranges":10133,"ĠGuard":10134,"temperature":10135,"Ġdisjoint":10136,"sole":10137,"KS":10138,"isa":10139,"Ġlinearly":10140,"Ġvice":10141,"Ġaccident":10142,"Ġanalogous":10143,"Ġcalling":10144,"Ġshut":10145,"iga":10146,"Style":10147,"ĠAdam":10148,"Ġgrew":10149,"ĠTy":10150,"Ġpractices":10151,"ĠWild":10152,"Page":10153,"mic":10154,"Ġcompens":10155,"ĠAdditionally":10156,"ĠClark":10157,"ĠRegion":10158,"Ġtriang":10159,"Script":10160,"filter":10161,"Ġinterference":10162,"Rad":10163,"Ġsand":10164,"dz":10165,"iline":10166,"lywood":10167,"Ġpreced":10168,"Ġpixels":10169,"Ġthousands":10170,"enses":10171,"Ġneighbour":10172,"given":10173,"ello":10174,"request":10175,"Ġcontribut":10176,"ĠAssume":10177,"ĠSurvey":10178,"Ġstret":10179,"alaxy":10180,"Si":10181,"Ġtrunc":10182,"Ġinterpreted":10183,"lied":10184,"ĠAmazon":10185,"Ġcommittee":10186,"Ġcorrelated":10187,"Ġthermod":10188,"ederation":10189,"Ġretrie":10190,"Because":10191,"owa":10192,"Ġ$\\|":10193,"ĠSher":10194,"ĠRaj":10195,"rfloor":10196,"Ġenvironments":10197,"Ġultimately":10198,"1941":10199,"lfloor":10200,"ĠMap":10201,"Ġ}{\\":10202,"rea":10203,"uz":10204,"ĠDigital":10205,"Ġgender":10206,"Ġproperly":10207,"Gen":10208,"centerline":10209,"Ġresistance":10210,"Ġcohom":10211,"Ġswim":10212,"tor":10213,"Instance":10214,"parameters":10215,"lies":10216,"Main":10217,"placement":10218,"impl":10219,"aked":10220,"Ġrows":10221,"ĠKenn":10222,"ccc":10223,"larg":10224,"Ġprojective":10225,"Ġrural":10226,"bounded":10227,"Ġhydrogen":10228,"Ġ{{\\":10229,"response":10230,"Ġelementary":10231,"hered":10232,"status":10233,"idi":10234,"ĠMean":10235,"eh":10236,"]^{":10237,"iability":10238,"ighth":10239,"Null":10240,"ĠEX":10241,"1946":10242,"}_{{\\":10243,"Ġfaces":10244,"ordon":10245,"meta":10246,"lb":10247,"ĠSanta":10248,"ushed":10249,"Ġsight":10250,"Ġmurder":10251,"Ġletters":10252,"Ġdropped":10253,"regon":10254,"lementary":10255,"Ġtracking":10256,"Ġpod":10257,"Ġconsistency":10258,"struction":10259,"Ġconcerned":10260,"Ġholding":10261,"ĠSupreme":10262,"Ġimaging":10263,"Description":10264,"perimental":10265,"Ġ\\:":10266,"ĠBru":10267,"Ġdim":10268,"ĠMedicine":10269,"kov":10270,"Ġswe":10271,"ĠPolish":10272,"ĠAvenue":10273,"three":10274,"ĠTrust":10275,"VM":10276,"aga":10277,"Ġteaching":10278,"wall":10279,"hyper":10280,"Ġ\"\"\"":10281,"Ġformalism":10282,"ĠTuesday":10283,"Ġunstable":10284,"zech":10285,"Ġhomot":10286,"Ġdisplayed":10287,"Ġfont":10288,"Ġaux":10289,"ĠBBC":10290,"RT":10291,"}))":10292,"ĠAL":10293,"renewcommand":10294,"series":10295,"fr":10296,"Ġtriangle":10297,"driv":10298,"Ġdescript":10299,"Tag":10300,"Ġdiameter":10301,"ĠSign":10302,"Ġcycles":10303,"private":10304,"Assume":10305,"craft":10306,"Ġbaseball":10307,"member":10308,"pin":10309,"Ġchampionship":10310,"Ã£":10311,"Ġoverlap":10312,"ĠÅ":10313,"FO":10314,"ĠVictoria":10315,"friend":10316,"Ġexperienced":10317,"changed":10318,"uscript":10319,"ĠĠĠĠĠĠĠĠĠĠĠĠĠĠĠĠĠĠ":10320,"lements":10321,"Definition":10322,"anti":10323,"distribution":10324,"Ġcosmic":10325,"Ġemot":10326,"Ġtemplate":10327,"Har":10328,"rip":10329,"essel":10330,"Ġens":10331,"Ġsilver":10332,"ĠAnth":10333,"Ġtrip":10334,"Options":10335,"abet":10336,"overset":10337,"Ġdeformation":10338,"ĠScottish":10339,"}&\\":10340,"Ġtack":10341,"Ġproposal":10342,"UV":10343,"elle":10344,"ĠEnvironment":10345,"1943":10346,"Ġsignificance":10347,"gi":10348,"ĠIndepend":10349,"})-":10350,"Ġprobe":10351,"push":10352,"Ġfootballer":10353,"vy":10354,"Ġattribute":10355,"Ġoffering":10356,"Ġrelaxation":10357,"should":10358,"Ġminister":10359,"lu":10360,"Ġdil":10361,"iamond":10362,"Ġdiverse":10363,"1953":10364,"Ġmonot":10365,"random":10366,"130":10367,"Ġcompletion":10368,"initial":10369,"ĠKir":10370,"Param":10371,"Ġunable":10372,"flat":10373,"ws":10374,"Ġspan":10375,"Ġneur":10376,"Ġrecurs":10377,"1947":10378,"dif":10379,"ĠOs":10380,"Ġsituations":10381,"Ġatmosphere":10382,"ĠToronto":10383,"ĠWednesday":10384,"awn":10385,"Ġdiscovery":10386,"Ġmit":10387,"ĠTal":10388,"ĠBelg":10389,"Ġ$[\\":10390,"ĠSteve":10391,"Ġappearing":10392,"Ġguarantee":10393,"}}}{":10394,"ĠNether":10395,"aska":10396,"Ġsegmentation":10397,"Ø§":10398,"Ġmarginal":10399,"BD":10400,"Ġboson":10401,"Ġherself":10402,"Ġadvent":10403,"each":10404,"~{\\":10405,"Ġvot":10406,"Ev":10407,"Ġordering":10408,"Ġintegrals":10409,"Ġspeaking":10410,"Ġmarkets":10411,"}}\\,":10412,"Ġoutcomes":10413,"eping":10414,"ĠChair":10415,"$--":10416,"ugin":10417,"Ġhockey":10418,"Ġmal":10419,"ĠBooks":10420,"=(\\":10421,"Ġreliable":10422,"Ġimpossible":10423,"ĠIslands":10424,"Open":10425,"ponents":10426,"ĠAP":10427,"person":10428,"Ġcontrovers":10429,"coupl":10430,"ĠIP":10431,"Ġindependence":10432,"ĠFood":10433,"uri":10434,"Ġhappy":10435,"Ġlists":10436,"ĠEuclidean":10437,"Ġcustomer":10438,"factor":10439,"Ġconverted":10440,"Ġequipped":10441,"Ġmathematical":10442,"rency":10443,"Ġpresc":10444,"Ġmarketing":10445,"Ġdispl":10446,"elines":10447,"kg":10448,"}_{(":10449,"Ġdeduce":10450,"Ġgiant":10451,"ĠBad":10452,"Ġadapted":10453,"alo":10454,"ĠElizabeth":10455,"istically":10456,"Ġproven":10457,"Ġquotient":10458,"edia":10459,"Ġremote":10460,"True":10461,"Why":10462,"Ġnonzero":10463,"1954":10464,"ivery":10465,"cha":10466,"pset":10467,"watch":10468,"Ġshares":10469,"Ġimplicit":10470,"yal":10471,"Ġmolecules":10472,"Ġanimal":10473,"Ġjourney":10474,"Ġpresentation":10475,"EQ":10476,"ĠMarg":10477,"ĠLow":10478,"Ġinduces":10479,"South":10480,"uality":10481,"Ġintersect":10482,"ĠCorporation":10483,"oping":10484,"ĠSche":10485,"Similarly":10486,"poly":10487,"ĠStandard":10488,"Ġlosing":10489,"Ġ^{\\":10490,"clos":10491,"'}$":10492,"Background":10493,"HA":10494,"Command":10495,"Ġinstability":10496,"gray":10497,"ĠFR":10498,"Ġgone":10499,"hskip":10500,"analysis":10501,"inton":10502,"anner":10503,"counter":10504,"Ġvalidation":10505,"Ġestate":10506,"$(\\":10507,"Ġ$-$":10508,"Ġadmits":10509,"ĠUse":10510,"Ġsuffices":10511,"Ġrecur":10512,"Ġsparse":10513,"ospit":10514,"Ġrear":10515,"family":10516,"ĠOrig":10517,"NAME":10518,"icial":10519,"ĠRos":10520,"Ġassistant":10521,"underset":10522,"Ġmanip":10523,"Ġcuts":10524,"Ġauthorities":10525,"Ġreaches":10526,"Ġdefend":10527,"Ġopinion":10528,"Ġstrings":10529,"ĠCreek":10530,"Ġsubs":10531,"Sol":10532,"ifiers":10533,"{[":10534,"Ġvotes":10535,"Ġtroops":10536,"},{\\":10537,"[\"":10538,"ĠPlaces":10539,"Ġapproved":10540,"Ġpot":10541,"orough":10542,"omatic":10543,"Ġillustrate":10544,"Ġagency":10545,"VAL":10546,"ĠAk":10547,"Ðº":10548,"Ġgirls":10549,"Ġconjecture":10550,"prim":10551,"Ġcontemporary":10552,"ĠMeV":10553,"rival":10554,"ĠBefore":10555,"Ġinfinity":10556,"Ġperforms":10557,"reference":10558,"shall":10559,"Ġapprec":10560,"urg":10561,"Ġmob":10562,"Gs":10563,"High":10564,"Ġyellow":10565,").}":10566,"navbar":10567,"}.\\":10568,"Buffer":10569,"Ġretain":10570,"suit":10571,"Ġconcepts":10572,"Ġexcitation":10573,"category":10574,"inates":10575,"Ġeastern":10576,"BP":10577,"total":10578,"Ġglob":10579,"^-$":10580,"Ġpercentage":10581,"ĠMinnes":10582,"Austral":10583,"imod":10584,"comment":10585,"Ġnumerically":10586,"Ġentity":10587,"Ġnice":10588,"ching":10589,"Ġconstrained":10590,"Ġactivation":10591,"Port":10592,"respectively":10593,"written":10594,"child":10595,"Ġsemantic":10596,"Ġencourag":10597,"Ġ$$\\":10598,"ĠCode":10599,"hist":10600,"matic":10601,"ressive":10602,"Ġbid":10603,"eval":10604,"bes":10605,"limit":10606,"Ġnotable":10607,"ĠPage":10608,"Ġwealth":10609,"ĠKal":10610,"aten":10611,"Ġworse":10612,"rizona":10613,"Ġwing":10614,"Ġtitles":10615,"}=(":10616,"ĠCost":10617,"ĠSP":10618,"Ġsupposed":10619,"Ġreflection":10620,"Ca":10621,"chitz":10622,"Ġguess":10623,"umerical":10624,"^+\\":10625,"ĠNick":10626,"Ġending":10627,"His":10628,"Â°":10629,"Ġexamine":10630,"Ġspons":10631,"Ġbatch":10632,"ĠEinstein":10633,"Ġprofession":10634,"105":10635,"ĠStadium":10636,"ĠHart":10637,"season":10638,"night":10639,"Ġtoken":10640,"ĠSky":10641,"Ġnearest":10642,"ĠLuc":10643,"cently":10644,"ĠLorentz":10645,"Ġfant":10646,"ÅĤ":10647,"ĠPDF":10648,"Ġsale":10649,"fol":10650,"Ġfiction":10651,"Vol":10652,"ĠRailway":10653,"oni":10654,"Ġinstrument":10655,"ĠMA":10656,"Ġstim":10657,"Ġcod":10658,"ĠToday":10659,"ĠFox":10660,"ĠMill":10661,"Ġpoll":10662,"ĠOntario":10663,"success":10664,"Ð»":10665,"etary":10666,"utely":10667,"Ġargued":10668,"ivered":10669,"orient":10670,"ĠView":10671,"rypt":10672,"ABLE":10673,"Ġtechnologies":10674,"Ġhumans":10675,"pair":10676,"Ġlatent":10677,"Ġsubjects":10678,"1951":10679,"Stat":10680,"ĠMinnesota":10681,"Ġprompt":10682,"antry":10683,"Ġplatforms":10684,"Ġhardware":10685,"edu":10686,"ootst":10687,"Ġnarr":10688,"Ġentanglement":10689,"Ġoutper":10690,"Ġguard":10691,"Ġgained":10692,"aset":10693,"Ġstored":10694,"Ġclick":10695,"Ġsan":10696,"Ġment":10697,"ĠPA":10698,"Ġamounts":10699,"sis":10700,"Ġopposed":10701,"Ġdiversity":10702,"ĠDam":10703,"Ġvariant":10704,"ĠUr":10705,"Ġhistoric":10706,"ĠMP":10707,"ĠRome":10708,"EEE":10709,"lr":10710,"Ġdy":10711,"British":10712,"ĠAnalysis":10713,"aware":10714,"Ġthrows":10715,"ika":10716,"Ġrely":10717,"Ġfavorite":10718,"ĠTok":10719,"akh":10720,"Ġphenomenon":10721,"Handler":10722,"Ġmental":10723,"vc":10724,"))$.":10725,"Ġyards":10726,"eral":10727,"ician":10728,"signed":10729,"ĠWisconsin":10730,"Ġcalibration":10731,"ĠWhy":10732,"satisf":10733,"oured":10734,"Web":10735,"Ġles":10736,"Ġshear":10737,"Ġasymptot":10738,"Version":10739,"layout":10740,"Ġwinter":10741,"stances":10742,"central":10743,"Ã¡n":10744,"pmb":10745,"supervised":10746,"+$":10747,"ĠArea":10748,"viation":10749,"orthe":10750,"itled":10751,"Ġnewspaper":10752,"finement":10753,"}|^":10754,"Ġexplos":10755,"Ġsurprising":10756,"orous":10757,"Ġreaching":10758,"Ġdestroyed":10759,"network":10760,"Ġsoldiers":10761,"ĠGuide":10762,"WE":10763,"Ġhabit":10764,"mad":10765,"NE":10766,"ĠPhiladelphia":10767,"Ġregarded":10768,"ĠOR":10769,"Ġfighting":10770,"Ġchains":10771,"700":10772,"Ġcombining":10773,"ĠRights":10774,"Ġstorm":10775,"Ġprojected":10776,"1949":10777,"Ġsatellite":10778,"Equal":10779,"oor":10780,"ĠTO":10781,"enna":10782,"ĠArgent":10783,"Ġau":10784,"ootstrap":10785,"Ġsynthetic":10786,"ĠSydney":10787,"ĠNetherlands":10788,"onom":10789,"rase":10790,"ĠImage":10791,"Ġscenes":10792,"ruption":10793,"atever":10794,"Ġdetermines":10795,"ĠRight":10796,"ĠOlympic":10797,"ĠHou":10798,"@{}":10799,"consistent":10800,"Attribute":10801,"Ġyounger":10802,"Ġvirt":10803,"Ġ+=":10804,"INT":10805,"ĠNewton":10806,"opyright":10807,"ols":10808,"Ġfulfill":10809,"ĠRemark":10810,"ĠFac":10811,"Ġrein":10812,"115":10813,"Ġcentered":10814,"ĠDavis":10815,"Ġappearances":10816,"}$).":10817,"access":10818,"Ġpotentials":10819,"sort":10820,"Ġrestrictions":10821,"ĠCov":10822,"ociated":10823,"ĠPa":10824,"Ġraw":10825,"ĠBall":10826,"Ġsolo":10827,"ONT":10828,"plectic":10829,"tainment":10830,"separ":10831,"ĠCub":10832,"xml":10833,"ĠKorean":10834,"equival":10835,"ĠFI":10836,"induced":10837,"Ġsynchron":10838,"Ġcomfort":10839,"MI":10840,"ĠCountry":10841,"111":10842,"Ġaffili":10843,"}}+":10844,"Ġdecade":10845,"Ġsegments":10846,"Ġproton":10847,"\\|_{\\":10848,"Ġexpensive":10849,"Ġchose":10850,"\\,.":10851,"src":10852,"noise":10853,"Ġfear":10854,"ĠForest":10855,"Ġbinding":10856,"Ġoutputs":10857,"metric":10858,"Ġbrings":10859,"jections":10860,"Ġenables":10861,"140":10862,"Ġdelivery":10863,"}(-":10864,"ĠStory":10865,"ĠAmong":10866,"aret":10867,"Ġintroducing":10868,"STM":10869,"Ġformally":10870,"Down":10871,"Ġwins":10872,"Ġsear":10873,"conc":10874,"deep":10875,"Ġcombinations":10876,"Ġscoring":10877,"Ġproves":10878,"aria":10879,"Ġtalking":10880,"Ġpy":10881,"phy":10882,"Ġfacts":10883,"riers":10884,"establ":10885,"Ġconsumption":10886,"Ġkid":10887,"phe":10888,"root":10889,"region":10890,"Ġĉ":10891,"Ġgenerates":10892,"Factory":10893,"document":10894,"ĠHom":10895,"Ġregistered":10896,"Ġutility":10897,"Ġmere":10898,"Ġvent":10899,"Ġencoding":10900,"Ġstone":10901,"Ġhosted":10902,"hook":10903,"Ġsubstantial":10904,"Ġdisorder":10905,"eron":10906,"marg":10907,"Ġprovince":10908,"CV":10909,"btn":10910,"Ġconnecting":10911,"Ġanomal":10912,"Ġsho":10913,"oustic":10914,"Ġgreatest":10915,"simple":10916,"Ġslowly":10917,"Ġacceleration":10918,"ĠPrize":10919,"conv":10920,"ĠSong":10921,"Sl":10922,"ĠOregon":10923,"Ġaid":10924,"Ġattached":10925,"Ġmand":10926,"Ġpasses":10927,"both":10928,"Ġmaybe":10929,"Dat":10930,"GG":10931,"Ġargue":10932,"ĠMember":10933,"Ġsac":10934,"ĠLes":10935,"Sym":10936,"uma":10937,"CB":10938,"odge":10939,"Ġreveals":10940,"ĠNFL":10941,"Music":10942,"DO":10943,"ĠLady":10944,"Ġknows":10945,"sharp":10946,"Ġpromoted":10947,"Ġobservables":10948,"Ġcro":10949,"server":10950,"Ġaccompl":10951,"ĠHop":10952,"ĠAnton":10953,"single":10954,"Cast":10955,"NT":10956,"ĠBrand":10957,"ĠNations":10958,"={\\":10959,"Ġdepicted":10960,"Ġhelping":10961,"Any":10962,"Met":10963,"arser":10964,"Ġly":10965,"evin":10966,"ĠControl":10967,"ĠCS":10968,"ĠHay":10969,"Ġsensor":10970,"')\\":10971,"ĠDNA":10972,"Ġgenerality":10973,"Ġvanishing":10974,"Ã£o":10975,"Dr":10976,"ulpt":10977,"ĠKat":10978,"ĠWell":10979,"UI":10980,"Ġexpat":10981,"ĠDom":10982,"Ġanalyses":10983,"Ġstanding":10984,"Ġvisited":10985,"aks":10986,"Play":10987,"Create":10988,"vertex":10989,"coin":10990,"Ġattributes":10991,"Ġinterests":10992,"Ġhomomorphism":10993,"Ġcab":10994,"Rev":10995,"Based":10996,"incre":10997,"bourne":10998,"Ġpurchase":10999,"ĠJordan":11000,"asty":11001,"Tube":11002,"ques":11003,"Ġinvariance":11004,"isms":11005,"isy":11006,"Ġaccessible":11007,"aml":11008,"Ġprocedures":11009,"ĠSingapore":11010,"oids":11011,"Ġmechanical":11012,"agen":11013,"ĠAirport":11014,"abi":11015,"Ġrid":11016,"Ġconclusions":11017,"Ġnegligible":11018,"pet":11019,"rine":11020,"Ġvulner":11021,"ĠCorps":11022,"uniform":11023,"abolic":11024,"Ġaims":11025,"ĠSon":11026,"Ġofficially":11027,"iser":11028,"leftrightarrow":11029,"ogg":11030,"Ġvirus":11031,"Ġdeclared":11032,"ĠAli":11033,"Ġauthority":11034,"equal":11035,"Ġphon":11036,"}}}$":11037,"Ġadvis":11038,"subfloat":11039,"shell":11040,"Ma":11041,"itud":11042,"ĠâĢ¢":11043,"std":11044,"Ġforecast":11045,"Ġdoctor":11046,"Ġsymmetries":11047,"ĠWindows":11048,"Ġdialog":11049,"Ġderivation":11050,"Ġincreasingly":11051,"Ġskin":11052,"common":11053,"\\-":11054,"ureau":11055,"estion":11056,"ĠEth":11057,"ĠEvent":11058,"ĠDer":11059,"Ġcorrectly":11060,")!":11061,"ĠHD":11062,"yard":11063,"Ġfounder":11064,"Ġintern":11065,"KL":11066,"ĠPrinc":11067,"orters":11068,"Ġprogramme":11069,"ĠSpring":11070,"Ġseek":11071,"Ġhomes":11072,"isition":11073,"ĠTai":11074,"Ġmixture":11075,"encing":11076,"Ġwinners":11077,"issue":11078,"Ġreform":11079,"\\'{":11080,"orb":11081,"Ġusage":11082,"}\\}$":11083,"%.":11084,"ĠStock":11085,"iday":11086,"ductor":11087,"Ġtrigger":11088,"ĠSupport":11089,"112":11090,"Ġlisting":11091,"ĠIT":11092,"BT":11093,"ĠGL":11094,"Ġcommitted":11095,"VI":11096,"Ġaband":11097,"ĠDark":11098,"Bel":11099,"Ġtopics":11100,"Default":11101,"%,":11102,"Ġpromote":11103,"prise":11104,"Ġchapter":11105,"instance":11106,"ĠRet":11107,"Ġoperate":11108,"}\\!":11109,"ĠĠĠĠĠĠĠĠĠĠĠĠĊ":11110,"Ġconcrete":11111,"ĠGib":11112,"drop":11113,"Ġtruly":11114,"ĠMov":11115,"Ġpump":11116,"viously":11117,"ragon":11118,"Ġlogic":11119,"Ġcontest":11120,"Ġtends":11121,"Ġrespond":11122,"Ġbare":11123,"Bas":11124,"Ġforming":11125,"irement":11126,"degree":11127,"ĠFinal":11128,"Ġgrows":11129,"Ġconcerning":11130,"Den":11131,"Ġhyperbolic":11132,"Many":11133,"ĠStephen":11134,"good":11135,"Ġpole":11136,"FP":11137,"upp":11138,"plicit":11139,"engers":11140,"akers":11141,"Ġdiscre":11142,"ĠPers":11143,"standard":11144,"Ġbath":11145,"ĠCambridge":11146,"Ġelliptic":11147,"rugs":11148,"ĠChildren":11149,"Ġram":11150,"ĠTurn":11151,"similar":11152,"ĠHerm":11153,"Ġposit":11154,"Ġcrystal":11155,"Ġrelativistic":11156,"Ġdecide":11157,"Ġtum":11158,"Ġbits":11159,"othe":11160,"ĠOt":11161,"Ant":11162,"Ġchampion":11163,"Ġinstalled":11164,"ipschitz":11165,"ĠWars":11166,"params":11167,"Ġpurely":11168,"Ġlicense":11169,"ĠSab":11170,"Ġunity":11171,"vable":11172,"ĠCook":11173,"ouri":11174,"constant":11175,"Ġranked":11176,"Ġexperts":11177,"Ġaccommod":11178,"quarters":11179,"ĠRic":11180,"Ġcampus":11181,"Ġannounce":11182,"Ġdrift":11183,"lyn":11184,"1936":11185,"Ġinform":11186,"Ġarises":11187,"tax":11188,"dynamic":11189,"seq":11190,"plain":11191,"Ġmort":11192,"resize":11193,"tensor":11194,"Ġlegisl":11195,"Ġhotel":11196,"agues":11197,"charge":11198,"ĠBased":11199,"cus":11200,"ĠAction":11201,"Ġoccasion":11202,"ods":11203,"ĠAPI":11204,"Ġ\\,,":11205,"cker":11206,"Ġwaiting":11207,"ĠHan":11208,"ĠMath":11209,"Ġfaculty":11210,"chestra":11211,"Ġdelivered":11212,"Ġsampled":11213,"weg":11214,"Bs":11215,"ordered":11216,"Ġadministrative":11217,"solid":11218,"iley":11219,"via":11220,"kit":11221,"sv":11222,"ĠFlo":11223,")\\,\\":11224,"ĠWel":11225,"1918":11226,"Ġtransaction":11227,"enz":11228,"fn":11229,"ĠWinter":11230,"Select":11231,"Ġcausing":11232,"biggl":11233,"Ġfeeling":11234,"Ġsculpt":11235,"Ġgift":11236,"atics":11237,"ivation":11238,"Ġstuff":11239,"Ġhall":11240,"Ġscheduled":11241,"Ġconvention":11242,"Ġloops":11243,"Ġcenters":11244,"255":11245,"Ġdotted":11246,"ĠStart":11247,"Ġexplains":11248,"}^{(\\":11249,"ĠFull":11250,"Ġcontroller":11251,"Ġvolunte":11252,"raq":11253,"ĠBridge":11254,"bigskip":11255,"Ġadvoc":11256,"Comparison":11257,"isons":11258,"CI":11259,"some":11260,"Ġsudden":11261,"Ġdesigns":11262,"Ġdifficulty":11263,"ĠCommunic":11264,"Ġheavily":11265,"AND":11266,"gon":11267,"Î±":11268,"ĠEric":11269,"Ġsees":11270,"endar":11271,"cov":11272,"duate":11273,"before":11274,"Ġjudge":11275,"Ġassignment":11276,"Ġseats":11277,"Ġextensions":11278,"Ġtunnel":11279,"Output":11280,"Ġtens":11281,"velope":11282,"lined":11283,"biggr":11284,"Ġrenew":11285,"Str":11286,"ĠRecall":11287,"Ġschedule":11288,"ĠSpecifically":11289,"Ġfeasible":11290,"because":11291,"ĠLearning":11292,"ilinear":11293,"Ġaccum":11294,"Ġimprovements":11295,"move":11296,"ĠCorn":11297,"ĠRevolution":11298,"Ġgather":11299,"words":11300,"Äį":11301,"Ġmanage":11302,"radius":11303,"quark":11304,"ĠGer":11305,"Ġintelligence":11306,"json":11307,"Ġplanets":11308,"ptr":11309,"Ġclouds":11310,"Column":11311,"ĠDeep":11312,"Ġposted":11313,"$=":11314,"dest":11315,"ĠAz":11316,"Ġpatch":11317,"Ġtotally":11318,"Ġfalls":11319,"rolled":11320,"Every":11321,"Ġcouldn":11322,"Ġmanuscript":11323,"Aug":11324,"ĠNaz":11325,"Ġmultipl":11326,"').":11327,"Ġna":11328,"Ġimaginary":11329,"elson":11330,"Christ":11331,"(|":11332,"Ġpun":11333,"Example":11334,"ashi":11335,"ĠGolden":11336,"ĠColorado":11337,"}}-":11338,"Ġreturning":11339,"Ġlimiting":11340,"ĠQueens":11341,"Ġarrested":11342,"Ġformulas":11343,"ĠJos":11344,"Ġ\\#":11345,"Ġcohomology":11346,"ĠMatt":11347,"Her":11348,"bad":11349,"hops":11350,"ĠWat":11351,"à¸":11352,"Ġcompeted":11353,"Ġbomb":11354,"Ġscholar":11355,"Ġec":11356,"ĠStaff":11357,"endif":11358,"Ġstores":11359,"BF":11360,"ounded":11361,"Ġminute":11362,"ronze":11363,"Ġinstitution":11364,"Ġembeddings":11365,"ĠRoss":11366,"\\!\\!\\!\\!":11367,"ĠCheck":11368,"ĠMD":11369,"UM":11370,"earing":11371,"Ġlose":11372,"hn":11373,"door":11374,"Ġcomprehensive":11375,"asket":11376,"Ġgranted":11377,"Ġabelian":11378,"]_{":11379,"Ġbuffer":11380,"Ġacknowled":11381,"Ġfilt":11382,"ĠLO":11383,"ĠOfficial":11384,"Ġalignment":11385,"Sk":11386,"ĠSn":11387,"Ġbringing":11388,"Ġnegot":11389,"Ġban":11390,"Ġcriminal":11391,"'(\\":11392,"Ġfusion":11393,"Ġdetermination":11394,"Ġpilot":11395,"upper":11396,"ĠMiller":11397,"360":11398,"ĠMun":11399,"Star":11400,"Opt":11401,"Ġmetallicity":11402,"ql":11403,"may":11404,"Ġoccupied":11405,"corresponding":11406,"Ġelastic":11407,"spaces":11408,"enance":11409,"Ġresc":11410,"REF":11411,"~~~~~~~~":11412,"icted":11413,"utt":11414,"Ġhelpful":11415,"Load":11416,"ariants":11417,"Just":11418,",.":11419,"frag":11420,"ensed":11421,"ĠMicrosoft":11422,"1937":11423,"Public":11424,"ariate":11425,"1938":11426,"GD":11427,"Gra":11428,"Ġfinitely":11429,"lights":11430,"Ġarrive":11431,"Ġquarks":11432,"Ġing":11433,"ĠConnect":11434,"Ġspend":11435,"ĠSoft":11436,"driven":11437,"Ġongoing":11438,"Ġresponses":11439,"rait":11440,"bec":11441,"International":11442,"igrants":11443,"Ġfamiliar":11444,"online":11445,"ostic":11446,"Ġalleged":11447,"ĠExample":11448,"Ġmoduli":11449,"uj":11450,"ĠLtd":11451,"Cap":11452,"Ġvir":11453,"Ġdegener":11454,"Stud":11455,"Ġdomestic":11456,"Ġequals":11457,"site":11458,"redu":11459,"Ã©e":11460,"Access":11461,"Ġrender":11462,"Ġoscillations":11463,"Ġmunicipality":11464,"*/":11465,"ryst":11466,"Ġresemb":11467,"Ġfermions":11468,"anga":11469,",(":11470,"ĠSaf":11471,"ĠSri":11472,"resol":11473,"protect":11474,"ĠAnderson":11475,"leading":11476,"uber":11477,"Ġadvice":11478,"compact":11479,"ĠArizona":11480,"Ġclassifier":11481,"Ġarts":11482,"Ġpurchased":11483,"Ġmonitoring":11484,"ownt":11485,"autoref":11486,"Ġreaders":11487,"hd":11488,"Ġauxiliary":11489,"otype":11490,"Ġcancel":11491,"momentum":11492,"perial":11493,"Ġobservable":11494,"ĠOnline":11495,"Ġpreferred":11496,"imp":11497,"Ġreverse":11498,"Ġlocalization":11499,"Ġfol":11500,"alf":11501,"Ġtangent":11502,"exec":11503,"Ġtaught":11504,"Ġcollective":11505,"Ġinequalities":11506,"Ġraces":11507,"ĠTR":11508,"Ġemergency":11509,"Ġinher":11510,"Ġcreative":11511,"Ġsuperconduct":11512,"fixed":11513,"Ġbranches":11514,"construct":11515,"^{[":11516,"etter":11517,"Orig":11518,"distance":11519,"Ġ{{":11520,"Ġadaptation":11521,"ĠMoh":11522,"harm":11523,"NP":11524,"Sem":11525,"Sign":11526,"ĠAND":11527,"polar":11528,"ĠDR":11529,"pref":11530,"Ġdry":11531,"ĠPrim":11532,"etty":11533,"Br":11534,"ante":11535,"Ġconsequences":11536,"riction":11537,"alog":11538,"coll":11539,"ĉĉĉĊ":11540,"Ġjets":11541,"Ġflavor":11542,"Ġsympt":11543,"âĢ¢":11544,"yself":11545,"WA":11546,"vard":11547,"ĠVideo":11548,"xygen":11549,"Ġ\\\\[":11550,"TO":11551,"Ġmultiplication":11552,"periments":11553,"ĠTro":11554,"Ġdemoc":11555,")/\\":11556,"Ġleaf":11557,"Fix":11558,"Ġparticipated":11559,"Ġdrivers":11560,"Ġdivergence":11561,"ĠBudd":11562,"ĠShort":11563,"ĠYang":11564,"ĠAthlet":11565,"ouch":11566,"Ġvariability":11567,"Valid":11568,"utenant":11569,"stellar":11570,"ĠSeason":11571,"Ġconservative":11572,"Ġsnow":11573,"ĠPremier":11574,"Ġpartnership":11575,"Ġequally":11576,"Ġmovies":11577,"Ġcaught":11578,"Ġassessment":11579,"Ġsuit":11580,"Ġmusicians":11581,"task":11582,"Ġexplored":11583,"Ġcompetitive":11584,"ĠPur":11585,"ĠHur":11586,"Ġholomorphic":11587,"Ġsuffered":11588,"Ġlandscape":11589,"Ġtransformed":11590,"ĠBlo":11591,"ĠEuler":11592,"Op":11593,"Ġradii":11594,"ĠTurkey":11595,"Ä±":11596,"Ġoppon":11597,"Ġds":11598,"Ġfault":11599,"ĠTerm":11600,"Ġsingularity":11601,"Ġvoltage":11602,"ĠTa":11603,"ĠRose":11604,"Contain":11605,"into":11606,"ĠChannel":11607,"double":11608,"ĠCru":11609,"ĠMagazine":11610,"Ġrecovered":11611,"Ġstopped":11612,"Ġefficiently":11613,"ĠCommand":11614,"Ġtwenty":11615,"Filter":11616,"}$$":11617,"Ġvaluable":11618,"ĠImm":11619,"Songs":11620,"Ġterritory":11621,"eros":11622,"Ġlengths":11623,"files":11624,"Ġconversion":11625,"Ġturning":11626,"ĠCau":11627,"Ġjustice":11628,"ĠMit":11629,"ificate":11630,"ampling":11631,"Ġgraduated":11632,"}$;":11633,"Ġmount":11634,"fraction":11635,"Ġrigid":11636,"1935":11637,"Personal":11638,"Ġultra":11639,"ĠNevertheless":11640,"Black":11641,"ĠConsequently":11642,"ĠSym":11643,"ĠGalactic":11644,"NL":11645,"grid":11646,"Ġworldwide":11647,"Ġpoet":11648,"ĠAmb":11649,"olitan":11650,"ĠAtlantic":11651,"Ġclock":11652,"ĠFuture":11653,"ĠExecutive":11654,"///":11655,"Ġfractional":11656,"}}\\\\":11657,"Ġsubsc":11658,"Ġlocalized":11659,"icians":11660,"ĠDisney":11661,"efficient":11662,"Ġhorse":11663,"\\}}":11664,"ennessee":11665,"Ġrain":11666,"&+":11667,"Ġwat":11668,"makebox":11669,"Ġobservational":11670,"1917":11671,"Ġeffectiveness":11672,"ĠSwedish":11673,"Ġvaries":11674,"gtr":11675,"Ġevident":11676,"relax":11677,"Ġhundreds":11678,"ĠBat":11679,"htbp":11680,"Ġannih":11681,"+}":11682,"Format":11683,"Ġdefeat":11684,"*{-":11685,"Jo":11686,"TM":11687,"Ġpenalty":11688,"Ġregister":11689,"frequency":11690,"1900":11691,"ĠAlf":11692,"Ġadult":11693,"ĠPhot":11694,"ĠAge":11695,"GO":11696,"Ġille":11697,"):=\\":11698,"About":11699,"Ġcombine":11700,"Est":11701,"Ġdecor":11702,"ĠMoon":11703,"ĉčĊ":11704,"four":11705,"heres":11706,"Ġterror":11707,"ĠSweden":11708,"tex":11709,"ĠDra":11710,"optimal":11711,"ĠOcean":11712,"Ġneighbors":11713,"overs":11714,"Ġcontributed":11715,"ĠChem":11716,"ĠDonald":11717,"Det":11718,"Ġregularization":11719,"mers":11720,"lab":11721,"Ġfavour":11722,"mazing":11723,"SON":11724,"ĠGree":11725,"ĠDuke":11726,"Ġmic":11727,"Ġfly":11728,"Ġgar":11729,"mented":11730,"Ġrevenue":11731,"older":11732,"quality":11733,"character":11734,"Ġshooting":11735,"ĠFord":11736,"Ġnob":11737,"ystem":11738,"Ġhits":11739,"reement":11740,"ships":11741,"ĠMaria":11742,"ĠHas":11743,"Ġreplacement":11744,"QL":11745,"itudinal":11746,"orsion":11747,"venth":11748,"essions":11749,"peror":11750,"'),":11751,"Ġ)$":11752,"Ġheating":11753,"lan":11754,"Ġinduct":11755,"Ġinsurance":11756,"ĠAlice":11757,"ĠIndones":11758,"ĠLewis":11759,"GAN":11760,"BU":11761,"cellcolor":11762,"Ġvanish":11763,"Ġafford":11764,"Ġtransmit":11765,"Ġbought":11766,"outheast":11767,"ascript":11768,"properties":11769,"remove":11770,"Ġyourself":11771,"ĠAbb":11772,"ĠPut":11773,"resolution":11774,"Ġseemed":11775,"aro":11776,"ĠCooper":11777,"Ġshifts":11778,"Ġsket":11779,"critical":11780,"}}^{(":11781,"dra":11782,"rats":11783,"ĠAS":11784,"ĠBrian":11785,"aire":11786,"Ġhun":11787,"Ġpremi":11788,"gressive":11789,"eper":11790,"Ġcoron":11791,"Address":11792,"Ġgeodesic":11793,"offset":11794,"Pres":11795,"Ġphotos":11796,"Ġjoining":11797,"tim":11798,"Ġweekend":11799,"ĠEP":11800,"Ġsettlement":11801,"^{{\\":11802,"Mac":11803,"ĠVari":11804,"Ġpipeline":11805,"Ġarrival":11806,"istant":11807,"sor":11808,"ĠHu":11809,"Ġhash":11810,"merce":11811,"Ġshapes":11812,"Ġevening":11813,"ĠGh":11814,"abric":11815,"connection":11816,"Ġdetermining":11817,"rin":11818,"kish":11819,"Search":11820,"Ġextraction":11821,"ĠBatt":11822,"Ġeducational":11823,"vas":11824,"ĠProcess":11825,"Ġresolved":11826,"ĠGallery":11827,"pie":11828,"Ġensures":11829,"Ġfails":11830,"Bundle":11831,"eting":11832,"Ġtroub":11833,"Ġprinciples":11834,"Ġchrom":11835,"ĠPS":11836,"Ġautomorphism":11837,"Ġ),":11838,"Ġoutflow":11839,"Ġencoder":11840,"Ġinternet":11841,"Ã¸":11842,"making":11843,"Ġopposition":11844,"Ġassistance":11845,"Ġmesh":11846,">$":11847,"Ġfewer":11848,"sson":11849,"Where":11850,"Del":11851,"ĠKhan":11852,"Ġinsight":11853,"ailability":11854,"Ġmeasuring":11855,"likely":11856,"squ":11857,"Ġdepos":11858,"Ġrent":11859,"ĠSav":11860,"jet":11861,"Ġinteracting":11862,"ĠUniverse":11863,"Ġexpanding":11864,"ĠDat":11865,"isations":11866,"Sw":11867,"Ġ{@":11868,"ĠTransport":11869,"Ġcavity":11870,"ĠYouTube":11871,"Ġvast":11872,"andy":11873,"Ġanten":11874,"emb":11875,"HR":11876,"ologists":11877,"rainian":11878,"Ġbon":11879,"roke":11880,"}]$":11881,"enum":11882,"Ġtorus":11883,"ĠIma":11884,"efined":11885,"Ġstrain":11886,"Ġparticipate":11887,"Ġchecked":11888,"Ġtrials":11889,"Ġmil":11890,"wang":11891,"atin":11892,"ĠBuilding":11893,"ĠSR":11894,"toprule":11895,"stage":11896,"Ġlimitations":11897,"symmetric":11898,"ĠNumber":11899,"Ġaddressed":11900,"Ġaccord":11901,"Ġpermutation":11902,"iami":11903,"Ġinhab":11904,"avirus":11905,"orel":11906,"bian":11907,"ĠModern":11908,"ĠCharl":11909,")}^":11910,"Figures":11911,"%;":11912,"Ġguest":11913,"ournals":11914,"textstyle":11915,"colhead":11916,"Ġlifetime":11917,"Location":11918,"cu":11919,"Ġcontinuity":11920,"connect":11921,"Ġlegend":11922,"),(":11923,")<":11924,"master":11925,"sun":11926,"stan":11927,"ĠNotice":11928,"1933":11929,"Ġparametriz":11930,"Women":11931,"itecture":11932,"iversary":11933,"ĠCaptain":11934,"ioned":11935,"Ġexercise":11936,"Ġpitch":11937,"Ġremainder":11938,"pf":11939,"Ġcompris":11940,"aron":11941,"ratio":11942,"}}+\\":11943,"Arch":11944,"Ġwarn":11945,"Ġkinds":11946,"backs":11947,"Ġmechanics":11948,"Av":11949,"1914":11950,"Ġlisten":11951,"Ġrequiring":11952,"Ġreporting":11953,"Indeed":11954,"ĠSF":11955,"ĠHarry":11956,"bibliography":11957,"Ġmunicipal":11958,"Ġinhib":11959,"Bra":11960,"Ġgovernor":11961,"Ġcomputations":11962,"////////////////":11963,"aintenance":11964,"Ġmanifolds":11965,"Ġdevel":11966,"Ġgreatly":11967,"Tree":11968,"lades":11969,"Ġfluxes":11970,"Ġhouseholds":11971,"parse":11972,"rivacy":11973,"cost":11974,"Ġnuclei":11975,"Ġauthent":11976,"argument":11977,"een":11978,"Ġfer":11979,"ĠCab":11980,"inds":11981,"ĠTan":11982,"about":11983,"ĠComb":11984,"Ġtwist":11985,"ĠHouston":11986,"ĠChall":11987,"Ġvariants":11988,"Ġshifted":11989,"uts":11990,"ĠBrig":11991,"Ġassets":11992,"},\\\\":11993,"iÄĩ":11994,"Ġaccompan":11995,"West":11996,"Length":11997,"Ġhelic":11998,"ĠSystems":11999,"Ġtruck":12000,"ghan":12001,"rophys":12002,"igenous":12003,"Ġnoting":12004,"Ġthickness":12005,"Ġdocumentary":12006,"Oct":12007,"Ġflav":12008,"sequence":12009,"Ġweapons":12010,"Spe":12011,"rev":12012,"ĠRoute":12013,"ĠLook":12014,"})(":12015,"calcul":12016,"ublished":12017,"repre":12018,"William":12019,"Ġstrike":12020,"rf":12021,"Ġsounds":12022,"EV":12023,"ĠTraining":12024,"Ġ$-\\":12025,"erer":12026,"1919":12027,"ZZ":12028,"Ġtrends":12029,"Ġbattery":12030,"ĠFellow":12031,"don":12032,"Ġsquares":12033,"Ġfestival":12034,"nik":12035,"Ġengineer":12036,"Ġpose":12037,"ĠAccess":12038,"ĠNig":12039,"Association":12040,"Ġaren":12041,"Ġmerger":12042,"ERR":12043,"Ġparad":12044,"Ġconcluded":12045,"($\\":12046,"Update":12047,"ĠCra":12048,"Pan":12049,"ĠIowa":12050,"ologically":12051,"Ġdrawing":12052,"David":12053,"ĠIndiana":12054,"ĠPier":12055,"cluster":12056,")~\\":12057,"ttp":12058,"Ġloan":12059,"ĠBiden":12060,"river":12061,"Ġadversarial":12062,"Cy":12063,"game":12064,"soap":12065,"Ġexploration":12066,"plete":12067,"Ġmaintained":12068,"Ġscientists":12069,"',\\":12070,"102":12071,"}]\\":12072,"Ġdamp":12073,"onomy":12074,"ĠTen":12075,"ĠPay":12076,"Ġsteel":12077,"ĠCzech":12078,"away":12079,"Ġguid":12080,"ĠAdministration":12081,"ĠKansas":12082,"gtrsim":12083,"xrightarrow":12084,"itatively":12085,"Ġpainting":12086,"1934":12087,"ounced":12088,"ensively":12089,"Ġcash":12090,"Ġmodification":12091,"ĠText":12092,"ĠJoh":12093,"ĠLank":12094,"Ġtitled":12095,"focus":12096,"Order":12097,"Ġprelim":12098,"Ġproofs":12099,"Ġdipl":12100,"Even":12101,"Ġcache":12102,"Ġpermanent":12103,"Ġexecuted":12104,"urches":12105,"ĠScient":12106,"LM":12107,"Ġ\\}$":12108,"Ġshorter":12109,"ĠJam":12110,"Ġlect":12111,"positive":12112,"osph":12113,"Ġha":12114,"Ġabsolutely":12115,"Ġachieves":12116,"Ġimproving":12117,"ĠLiter":12118,"cers":12119,"Ġsummarized":12120,"izers":12121,"Ġmyself":12122,"Ġobtaining":12123,"Ġingred":12124,"ĠCrit":12125,"ĠAffairs":12126,"]]":12127,"Ġunus":12128,"Video":12129,"Ġcarrying":12130,"Ġcombat":12131,"1910":12132,"Ġimposed":12133,"Ġconverge":12134,"iot":12135,"Ġfilters":12136,"Ġsep":12137,"ĠSearch":12138,"reprene":12139,"Ġretail":12140,"UK":12141,"Ġbandwidth":12142,"Ġbarrier":12143,"Ġspins":12144,"Ãº":12145,"Ġrestaurant":12146,"Only":12147,"]}\\":12148,"Ġfoundation":12149,"dp":12150,"ĠWhere":12151,"zi":12152,"Thm":12153,"Ġpron":12154,"Ġthereby":12155,"oscow":12156,"Ġrecommended":12157,"emet":12158,"Ġsurveys":12159,"Equals":12160,"Ġfaced":12161,"Ġwindows":12162,"Lo":12163,"Ġdeterministic":12164,"Through":12165,"entity":12166,"Ġobst":12167,"athered":12168,"Row":12169,"350":12170,"Ñĥ":12171,"Ġprev":12172,"Summary":12173,"ĠkeV":12174,"attered":12175,"ĠBrother":12176,"Lay":12177,"Pack":12178,"figs":12179,"ĠOp":12180,"ails":12181,"Ġphenomena":12182,"alactic":12183,"ĠMemorial":12184,"ategy":12185,"$&$":12186,"ĠIraq":12187,"relim":12188,"Ġpra":12189,"depth":12190,"asp":12191,"1929":12192,"ĠCON":12193,"multip":12194,"Ġfairly":12195,"Ġpiano":12196,"ĠOfficer":12197,"Ġrecept":12198,"atern":12199,"ĠDor":12200,"allas":12201,"ĠClin":12202,"Ġdistricts":12203,"Vari":12204,"bow":12205,"witzer":12206,"ĠArray":12207,"Ġviolation":12208,"Ġranging":12209,"aders":12210,"umann":12211,"!âĢĿ":12212,"ĠThird":12213,"Conclusion":12214,"SW":12215,"Ġjournalist":12216,"ĠMilitary":12217,"pow":12218,"Posted":12219,"contin":12220,"ĠKa":12221,"Write":12222,"Ġelectromagnetic":12223,"Ġru":12224,"idelines":12225,"Ġpreserve":12226,"terior":12227,"versely":12228,"oca":12229,"Ġunlike":12230,"Ġradiative":12231,"ALL":12232,"Ġassociate":12233,"Ġprospect":12234,"oking":12235,"maxim":12236,"Ġerg":12237,"Ġcounting":12238,"rend":12239,"Dev":12240,"Ġdates":12241,"ibliography":12242,"ĠĠĠĠĠĠĊ":12243,"Ġcomposite":12244,"container":12245,"[{\\":12246,"quantum":12247,"Ġsequential":12248,"]_":12249,"kee":12250,"ĠEntertainment":12251,"Task":12252,"Ġsought":12253,"Sur":12254,"igm":12255,"Ġstrip":12256,"Ġbrown":12257,"qq":12258,"Ġvic":12259,"Ġresponsibility":12260,"training":12261,"burn":12262,"ĠBishop":12263,"Ġampl":12264,"ĠPeak":12265,"Ġverified":12266,"ĠPack":12267,"heses":12268,"ĠNOT":12269,"Ġreceiver":12270,"islation":12271,"104":12272,"ĠBox":12273,"ĠĠĠĠĠĠĠĠĠĠĠĠĠĠĠĠĠĠĠĠĠĠĠĠ":12274,"Ġartificial":12275,"Ġtheatre":12276,"veloc":12277,"attr":12278,"Mich":12279,"ourse":12280,"Hy":12281,"coordinate":12282,"oa":12283,"Ġmart":12284,"Ġranking":12285,"Ġbrightness":12286,"UL":12287,"'-":12288,"ĠProm":12289,"Ġnovels":12290,"racks":12291,"ĠAllen":12292,"dam":12293,"French":12294,"aze":12295,"Ġattempted":12296,"Ġcreates":12297,"western":12298,"Ġhearing":12299,"Ġguy":12300,"uther":12301,"Ġhomotopy":12302,"Ġaf":12303,"lass":12304,"Ġconsiderable":12305,"Ġtower":12306,"Leg":12307,"})}\\":12308,"ĠRequ":12309,"OK":12310,"ĠHeart":12311,"fly":12312,"press":12313,"ĠSound":12314,"Ġdetectors":12315,"doi":12316,"Ġtables":12317,"Author":12318,"natural":12319,"TF":12320,"Ġsuppressed":12321,"conj":12322,"Ang":12323,"ĠTennessee":12324,"Ġqueries":12325,"Ġtowns":12326,"iar":12327,"Once":12328,"abama":12329,"Que":12330,"req":12331,"1928":12332,"these":12333,"Ġincl":12334,"Ġda":12335,"_{{":12336,"German":12337,"ders":12338,"aments":12339,"Life":12340,"Ġtherapy":12341,"Ġcyclic":12342,"wegian":12343,"Ġinfo":12344,"Ġputting":12345,"classes":12346,"itro":12347,"eeq":12348,"Ġoxygen":12349,"Ġmembership":12350,"Both":12351,"fall":12352,"uy":12353,"witzerland":12354,"ĠLeon":12355,"ðŁ":12356,"ĠFred":12357,"cosity":12358,"yers":12359,"Ġhur":12360,"ea":12361,"Ġdebate":12362,"Ġurl":12363,"ĠCastle":12364,"Ġassembly":12365,"ipping":12366,"Ġmomenta":12367,"shop":12368,"oda":12369,"hyp":12370,"ĠSimon":12371,"addle":12372,"ĠStone":12373,"Ġminimize":12374,"alion":12375,"osl":12376,"DL":12377,"Ġinstruments":12378,"]^{\\":12379,"Ġreactions":12380,"warz":12381,"ĠTake":12382,"ĠLicense":12383,"Ġexpatriate":12384,"putation":12385,"eto":12386,"uu":12387,"Cs":12388,"ĠDate":12389,"Ġ\\|_{":12390,"ĠGun":12391,"ĠArthur":12392,"Parameter":12393,"Ġbott":12394,"wick":12395,"support":12396,"Af":12397,"Level":12398,"}{$":12399,"ĠThough":12400,"Ġteachers":12401,"BN":12402,"Mode":12403,"Ġcaptain":12404,"Ġbelonging":12405,"emetery":12406,"Ġremoving":12407,"resizebox":12408,"oulomb":12409,"ĠSenior":12410,"ĠOpt":12411,"Ġduality":12412,"ĠGW":12413,"due":12414,"Ġdoubt":12415,"Dom":12416,"Ġveter":12417,"Ġgoods":12418,"zing":12419,"|{\\":12420,"Ġmirror":12421,"iac":12422,"ĠMaryland":12423,"}$),":12424,"Ġneutrinos":12425,"Ġobviously":12426,")\"":12427,"Ġoverview":12428,"Ġcubic":12429,"Ġexhibits":12430,"Ġsoil":12431,"eyond":12432,"ikh":12433,"Graph":12434,"Ġrings":12435,"Ġdipole":12436,"bigoplus":12437,"antum":12438,"AGE":12439,"Ġparish":12440,"ployment":12441,"1932":12442,"Ġregardless":12443,"ategories":12444,"Ġkilling":12445,"Ġages":12446,"para":12447,"Ġ**":12448,"Ġ[]":12449,"kk":12450,"iration":12451,"Ġmanagers":12452,"Ġii":12453,"Ġinfluenced":12454,"Ġparliament":12455,"ĠVI":12456,"ĠSNR":12457,"TP":12458,"trained":12459,"}_+":12460,"Ġrating":12461,"-{\\":12462,"ĠSant":12463,"ĠAgency":12464,"Ġdelet":12465,"iÃ³n":12466,"sinh":12467,"_{(\\":12468,"ĠBurn":12469,"ĠFront":12470,"ĠTony":12471,"ĠSix":12472,"varpi":12473,"Ġwrest":12474,"Ġadds":12475,"Notice":12476,"Ġquantitative":12477,"esis":12478,"Ġtab":12479,"Ġasymmetry":12480,"Ġspending":12481,"ĠRyan":12482,"eqq":12483,"omot":12484,"ned":12485,"Ġheads":12486,"best":12487,"Ġhospit":12488,"paper":12489,"Ġidentifying":12490,"Ġisotropic":12491,"Ġvoting":12492,"Ġfocuses":12493,"wich":12494,"ĠTrue":12495,"STR":12496,"Project":12497,"Ġserial":12498,"Ġsin":12499,"ĠPitt":12500,"Ġroof":12501,"Ġcraft":12502,"ilst":12503,"inch":12504,"(&":12505,"Ġclar":12506,"transform":12507,"rator":12508,"Ġabuse":12509,"continuous":12510,"cn":12511,"Ġhierarchy":12512,"Ġintu":12513,"bottomrule":12514,"Crit":12515,"Ġpromising":12516,"ĠArk":12517,"imated":12518,"tics":12519,"mix":12520,"article":12521,"mentioned":12522,"htb":12523,"Ġrefere":12524,"Ġpreparation":12525,"005":12526,"ĠÂ»":12527,"wp":12528,"Ġintent":12529,"atar":12530,"Ġox":12531,"Ġmatters":12532,"cule":12533,"stituting":12534,"roit":12535,"Ġsurgery":12536,"redit":12537,"Ġtrading":12538,"ĠVin":12539,"Ġsuperior":12540,"Ġreflected":12541,"Ġrevolution":12542,")~":12543,"ĠMagn":12544,"Ġsurvival":12545,"heim":12546,"agan":12547,"Ġaccurately":12548,"Ġbins":12549,"Ġdegenerate":12550,"omas":12551,"Ġhealthy":12552,"ulus":12553,"Ġcapabilities":12554,"ĠInitial":12555,"Ġconjugate":12556,"NG":12557,"Ġwww":12558,"bserve":12559,"FONT":12560,"Ġneuro":12561,"iso":12562,"}.$":12563,"Ġmanufacturing":12564,"cohol":12565,"ĠVietnam":12566,"hig":12567,"exact":12568,"ĠNO":12569,"Ġtrav":12570,"Ġforth":12571,"Ġbroke":12572,"Ġuniquely":12573,"HP":12574,"Ġmanifest":12575,"ĠDead":12576,"IB":12577,"Ġmas":12578,"ĠNatural":12579,"Ġcommunications":12580,"Ġincred":12581,"Ġattributed":12582,"Ġrequests":12583,"Ġcomposer":12584,"olds":12585,"118":12586,"adic":12587,"KK":12588,"Ġanticip":12589,"ĠDream":12590,"kind":12591,"mbf":12592,"Ġcrowd":12593,"ĠProof":12594,"Ġboxes":12595,"choose":12596,"bone":12597,"ĠIss":12598,"ĠWithout":12599,"Ġtension":12600,"Super":12601,"undles":12602,"Ġbanks":12603,"ĠUl":12604,"Ġlogarithmic":12605,"Ġbigger":12606,"Ġdot":12607,"1922":12608,"oved":12609,"Chang":12610,"omial":12611,"Ġmotivated":12612,"ĪĴ":12613,"anes":12614,"Ġconsumer":12615,"lectric":12616,"Ġincorporated":12617,"ju":12618,"Ġagencies":12619,"Previous":12620,"Ġracing":12621,"Ġsoul":12622,"coln":12623,"Ġextending":12624,"Controller":12625,"smooth":12626,"egas":12627,"ĠFunction":12628,"WS":12629,"){$":12630,"Ġbreaks":12631,"Ġcards":12632,"ACE":12633,"charg":12634,"ccentric":12635,"ĠForeign":12636,"Ġdesignated":12637,"116":12638,"1931":12639,"Euro":12640,"ĠPhilippines":12641,"Lin":12642,"Ġexponentially":12643,"ĠBayesian":12644,"Ġfemales":12645,"icide":12646,"ĠNorm":12647,"Ġsymplectic":12648,"unity":12649,"ĠStudy":12650,"ĠCulture":12651,"setlength":12652,"Ġmutual":12653,"ipher":12654,"Ġqubit":12655,"lad":12656,"antly":12657,"race":12658,"Ġcoincides":12659,"Cle":12660,"elve":12661,"ĠSL":12662,"ĠEmer":12663,"Ġsending":12664,"North":12665,"eV":12666,")$}":12667,"ĠBab":12668,"inema":12669,"Ġcorporate":12670,"ĠHarris":12671,"ORT":12672,"itics":12673,"thin":12674,"xym":12675,"unes":12676,"Ġcommutative":12677,"bran":12678,"ĠProblem":12679,"rically":12680,"Ġalter":12681,"Button":12682,"Ġshr":12683,"Ġsixth":12684,"Ġdealing":12685,"Ġpassion":12686,"sens":12687,"Ġmo":12688,"ä¸":12689,"ropolitan":12690,"ĠRegiment":12691,"ĠGab":12692,"ĠEdition":12693,"?\"":12694,"lbrace":12695,"Ġreproduce":12696,"Ġpreserved":12697,"135":12698,"Ġarising":12699,"Ã©s":12700,"\"|":12701,"Comb":12702,"oom":12703,"Ġsuggesting":12704,"ĠCollection":12705,"bibliographystyle":12706,"Ġbases":12707,"Ġadaptive":12708,"isks":12709,"}\\)":12710,"Ġham":12711,"Ġshortly":12712,"ĠImp":12713,"bracket":12714,"Ġvaccine":12715,"abatic":12716,"sett":12717,"ĠHotel":12718,"Rob":12719,"Ġdrugs":12720,"Listener":12721,"gravity":12722,"levant":12723,"+|":12724,"asts":12725,"Ġho":12726,"ĠFall":12727,"Ġ<!--":12728,"ĠJay":12729,"Ġrotating":12730,"ĠKitt":12731,"Pass":12732,")},\\":12733,"Ġmachines":12734,"Mor":12735,"Ġgrown":12736,"Ġinfection":12737,"Ġ\\,.":12738,"Direct":12739,"Green":12740,"ĠEconomic":12741,"ĠFile":12742,"hythm":12743,"ĠSquad":12744,"ĠMoore":12745,"108":12746,"Ġposts":12747,"ĠVice":12748,"Ġsimplified":12749,"lein":12750,"consist":12751,"ĠSS":12752,"Ġwatching":12753,"igate":12754,"1924":12755,"ĠĠĠĠĠĠĠĠĠĠĠĠĠĠĠĠĠĠĠĠĠĠĠĠĠĠĠĠĠĠĠĠĠĠĠ":12756,"vectors":12757,"ĠĠĠĠĠĠĠĠĠĠĠĠĠĠĠĠĠĠĠĠĠĠ":12758,"ĠEarly":12759,"Ġfranch":12760,"Ġcontam":12761,"}^{*":12762,"ĠPlace":12763,"Ġoriented":12764,"Ġtoler":12765,"Ġdress":12766,"ĠPed":12767,"menu":12768,"direction":12769,"Ġexhibition":12770,"Lie":12771,").$$":12772,"javascript":12773,"folio":12774,"bx":12775,"Ġcompression":12776,"ĠColon":12777,"ĠRegional":12778,".'":12779,"ĠSquare":12780,"Ġextinction":12781,"photon":12782,"rett":12783,"ĠDiego":12784,"Ġsoci":12785,"Ġkil":12786,"Fin":12787,"gered":12788,"chell":12789,"ĠAC":12790,"Ġstick":12791,"103":12792,"}{$\\":12793,"Ġshop":12794,"ĠAU":12795,"oven":12796,"Ġmissed":12797,"ĠFederation":12798,"ailing":12799,"rapol":12800,"uf":12801,"Ġrelies":12802,"\\\\\\":12803,"ĠRecord":12804,"<?":12805,"Ġmodular":12806,"Tok":12807,"Ġapproximations":12808,"ĠWatch":12809,"Ġfruit":12810,"umin":12811,"patch":12812,"ĠĠĠĠĠĊ":12813,"[$":12814,"ĠDirect":12815,"Ġbis":12816,"220":12817,"ĠManchester":12818,"ĠLegisl":12819,"Ġimplications":12820,"horiz":12821,"ĠMissouri":12822,"^*(\\":12823,"rod":12824,"Ġtranslated":12825,"Ġpregn":12826,"Oh":12827,"Ġwouldn":12828,"mut":12829,"Full":12830,"owned":12831,"Ġpayment":12832,"ĠIl":12833,"beq":12834,"Ġwhatever":12835,"Ġcumul":12836,"pix":12837,"Ġterminal":12838,"Ġreligion":12839,"ĠLaure":12840,"mony":12841,"Ġperturbative":12842,"ĠChang":12843,"Ġmicrosc":12844,"processing":12845,"convex":12846,"rn":12847,"front":12848,"''.":12849,"totype":12850,"Ġrugby":12851,"ĠJane":12852,"pq":12853,"iat":12854,"Ġjunction":12855,"Ġecho":12856,"Free":12857,"rowth":12858,"ĠCurrent":12859,"xymatrix":12860,"gov":12861,"Due":12862,"ĠCapital":12863,"900":12864,"ĠBah":12865,")$$":12866,"ĠFA":12867,"haust":12868,"Ġparity":12869,"eras":12870,"trim":12871,"ouses":12872,"1927":12873,"ND":12874,"ĠMoscow":12875,"ĠHighway":12876,":(":12877,"ĠSho":12878,"Ġtrains":12879,"Ġmarks":12880,"ardo":12881,"estyle":12882,"rison":12883,"Ġfactory":12884,"TI":12885,"Width":12886,"Ġkee":12887,"Ġdeleg":12888,"Ġmini":12889,"Ġseeking":12890,"achelor":12891,"Tab":12892,"Ġselling":12893,"ĠBrun":12894,"Ġdefinitely":12895,"ĠMO":12896,"Ġrenamed":12897,"diagram":12898,"Ġexposed":12899,"]{./":12900,"sea":12901,"Ġentering":12902,"ĠMexican":12903,"mouth":12904,"you":12905,"Ġovercome":12906,"Cho":12907,"fix":12908,"Ġmock":12909,"ĠNorway":12910,"ĠHollywood":12911,"Ġmedicine":12912,"}}}{\\":12913,"rb":12914,"Ġmodeled":12915,"Ġacoustic":12916,"Ġairport":12917,"half":12918,"Ġgluon":12919,"living":12920,"tn":12921,"Ġentities":12922,"profit":12923,"none":12924,"}})\\":12925,"lee":12926,"oly":12927,"ahoma":12928,"Ġexit":12929,"fam":12930,"Ġtries":12931,"dor":12932,"-$\\":12933,"tah":12934,"Ġrealize":12935,"Ġimproves":12936,")}=\\":12937,"fg":12938,"Ġregul":12939,"ĠBh":12940,"ĠHoly":12941,"Ġcutoff":12942,"oked":12943,"):=":12944,"near":12945,"Ġmouth":12946,"ĠMalays":12947,"Ġgrade":12948,"ĠDeath":12949,"_.":12950,"pus":12951,"wealth":12952,"Ġhosts":12953,"Ġwear":12954,"}$:":12955,"Ġadults":12956,"ĠSimilar":12957,"ĠBuck":12958,"types":12959,"Ġrejected":12960,"Japan":12961,"ĠeV":12962,"~~~":12963,"holder":12964,"Ġhang":12965,"ĠBeng":12966,"aration":12967,":</":12968,"Ġfocusing":12969,"ĠChen":12970,"iva":12971,"Ġwider":12972,"PG":12973,"gls":12974,"posing":12975,"Ġelig":12976,"ĠKam":12977,"ĠBanglades":12978,"alph":12979,"uris":12980,"Ġrend":12981,"Mo":12982,"abilistic":12983,"ĠObama":12984,"Ġsingularities":12985,"1921":12986,"ĠNE":12987,"Ġpersons":12988,"Offset":12989,"acknowled":12990,"fficial":12991,"Ġlit":12992,"}{!":12993,"Ġ)\\":12994,"Ġscaled":12995,"Ġdeviations":12996,"Ġfloat":12997,"106":12998,"resource":12999,"ĠKo":13000,"ĠJews":13001,"Ġconsistently":13002,"Ġschol":13003,"Plan":13004,"Ġrounds":13005,"Ġboat":13006,"/.":13007,"Ġfacing":13008,"Ġloved":13009,"they":13010,"Ġguarantees":13011,"Ġpublications":13012,"Ġobtains":13013,"Ġobserving":13014,"nc":13015,"Ġtall":13016,"Ġregularly":13017,"Ġpublicly":13018,"without":13019,"vv":13020,"ĠIC":13021,"Ġcircumstances":13022,"Ġsolit":13023,"+{\\":13024,"ivated":13025,"Ġmining":13026,"ĠBS":13027,"Ġdisput":13028,"Ġsynd":13029,"MN":13030,"ĠOak":13031,"ĠMedal":13032,"agon":13033,"ĠPath":13034,"Ġproportion":13035,"Ġrising":13036,"Ġexcluded":13037,"Target":13038,"ĠSpect":13039,"boundary":13040,"Ġacquisition":13041,"Ġstreaming":13042,"ĠFer":13043,"cas":13044,"Ġcharacterization":13045,"Ġ..":13046,"ĠNN":13047,"Ġaffects":13048,"vergent":13049,"wen":13050,"Ġruled":13051,"ando":13052,"Ġoptimized":13053,"ĠWol":13054,"})^{-":13055,"inth":13056,"270":13057,"Ġengaged":13058,"Ġobj":13059,"onomous":13060,"rk":13061,"Ġsleep":13062,"Ġcontradict":13063,"FOR":13064,"Ġoverl":13065,"ĠPatrick":13066,"ĠJunior":13067,"Ġconversation":13068,"ĠKy":13069,"Ġbutton":13070,"Ġvariational":13071,"1926":13072,"Ġvoters":13073,"}$~":13074,"1925":13075,"'}(":13076,"ĠBalt":13077,"ĠGram":13078,"utor":13079,"Ġdwarf":13080,"Ġspecify":13081,"effective":13082,"cht":13083,"olo":13084,"Ġsurn":13085,"aled":13086,"ĠBry":13087,"Ġcontinuously":13088,"gence":13089,"1912":13090,"Ġasking":13091,"1915":13092,"ĠKevin":13093,"icut":13094,"Ġrepeat":13095,"ĠSmall":13096,"Ġdisturb":13097,"ĠYes":13098,"Ġrenormalization":13099,"Ġinstruct":13100,"Ġmodify":13101,"Ġdistinguished":13102,"ĠTH":13103,"glas":13104,"ĠDO":13105,"cb":13106,"Ġconsiders":13107,"Ġperfectly":13108,"ĠAnthony":13109,"Ġreceives":13110,"lattice":13111,"aws":13112,"$^{\\":13113,"Mart":13114,">,":13115,"seg":13116,"Ġteen":13117,"ateral":13118,"ĠPlease":13119,"Ġcoun":13120,"oche":13121,"ĠBarn":13122,"Ð²":13123,"ĠFarm":13124,"Ġfat":13125,"ĠTokyo":13126,"ĠAlabama":13127,"Process":13128,"ĠMrs":13129,"ĠJesus":13130,"Ġourselves":13131,"cosh":13132,"Ġphysically":13133,"Ġinvent":13134,"Ġburied":13135,"jan":13136,"lst":13137,"owntown":13138,"pendicular":13139,"NRAS":13140,"Ġpoetry":13141,"ĠSeveral":13142,"Ġtrib":13143,"Ġapparently":13144,"ĠSwitzerland":13145,"nas":13146,"ĠChild":13147,"Child":13148,",}":13149,"ĠZe":13150,"Ġlaid":13151,"stery":13152,"ĠĠĠĠĠĠĠĠĠĠĠĠĠĠĠĠĠĠĠĠĠĠĠĠĠ":13153,"};\\":13154,"rarily":13155,"ZE":13156,"Exec":13157,"ĠSep":13158,"ulum":13159,"qed":13160,"ridges":13161,"security":13162,"Ġdangerous":13163,"ĠThose":13164,"Ġtalent":13165,"ĠAndroid":13166,"Use":13167,"ĠGard":13168,"Ġvalidity":13169,"Ġallocation":13170,"Despite":13171,"media":13172,"Ġwaste":13173,"rar":13174,"Ġinit":13175,"Ġabundances":13176,"ĠMelbourne":13177,"syn":13178,"Ġsuscept":13179,"ĠCape":13180,"Ġkeys":13181,"ĠNash":13182,"Ġsubgraph":13183,"Ġwra":13184,"bool":13185,"arded":13186,"Ġpublisher":13187,"]\\\\":13188,"Ġdestination":13189,"Types":13190,"ĠLam":13191,"Ġvictims":13192,"ĠSel":13193,"Ġsimplest":13194,"107":13195,"margin":13196,"fire":13197,"1923":13198,"Ġaccused":13199,"Ġpresidential":13200,"$}\\":13201,"terms":13202,"ĠChap":13203,"ĠAlbert":13204,"=}":13205,"ÃŃa":13206,"Ġ})":13207,"ĠGall":13208,"Ġboys":13209,"Enc":13210,"Ġnormally":13211,"Ġadvertising":13212,"Rober":13213,"UP":13214,"eland":13215,"Ġinvestors":13216,"ĠHT":13217,"stop":13218,"Ġdisplays":13219,"render":13220,"Ba":13221,"racted":13222,"Ġportray":13223,"ĠAppro":13224,"DBLP":13225,"ĠĠĠĠĠĠĠĊ":13226,"Olymp":13227,"Ġlegislation":13228,"ĠKentucky":13229,"ĠMiami":13230,"modal":13231,"Ġmoderate":13232,"Ġfeels":13233,"fun":13234,"^{*}":13235,"agu":13236,"Properties":13237,"curve":13238,"ĠCT":13239,"Ġintroduces":13240,"Ġrobustness":13241,"ĠTreat":13242,"Ġbranching":13243,"|}{\\":13244,"Ġjun":13245,"Ġapproximated":13246,"klahoma":13247,"incial":13248,"Ġgradients":13249,"ĠWhit":13250,"Ġchairman":13251,"Î¿":13252,"Ġexpectations":13253,"ĠHum":13254,"}.$$":13255,"ĠCLASS":13256,"ĠDur":13257,"enny":13258,"ĠGreg":13259,"ĠMand":13260,"Ġinnovation":13261,"Ġresolve":13262,"Ġaveraging":13263,"Record":13264,"Ġions":13265,"Ġcourses":13266,"Ġphotograph":13267,"Ġpione":13268,"Final":13269,"Ġphotometric":13270,"512":13271,"Unit":13272,"intend":13273,"Ġenhancement":13274,"Ġidentities":13275,"coloneqq":13276,"umar":13277,"ĠRoll":13278,"Ġoldest":13279,"Ġsettled":13280,"correlation":13281,"Mean":13282,"Ġcategor":13283,"Ġanswers":13284,"ĠCancer":13285,"irms":13286,"Ġreconstructed":13287,"Ġmine":13288,"rbrace":13289,"arry":13290,"ĠDoctor":13291,"ĠGreece":13292,"Ġdebt":13293,"acon":13294,"Ġ!==":13295,"Ġvisitors":13296,"Ġwilling":13297,"Ġsymptoms":13298,"information":13299,"Ġforget":13300,"Ġgraded":13301,"Ġoffices":13302,"ĠDa":13303,"Ġreact":13304,"mr":13305,"Ġinvited":13306,"Ġequivalently":13307,"ici":13308,"ACT":13309,"Ġcoincide":13310,"Ġsimpler":13311,"HH":13312,"Ġvortex":13313,"taken":13314,"ACK":13315,"Ġghost":13316,"Ġmeets":13317,"Ġastron":13318,"Ġmatched":13319,"Ġwalking":13320,"tery":13321,"Ġaged":13322,"Ġoperational":13323,"Ġcompletes":13324,"ĠLas":13325,"ĠTownship":13326,"Ġsoph":13327,"profile":13328,"incess":13329,"ĠWang":13330,"ĠExpl":13331,"Bur":13332,"Ġexclusive":13333,"Ġaddresses":13334,"buf":13335,"Ġnontrivial":13336,"velocity":13337,"Member":13338,"1916":13339,"Ġton":13340,"Ġfiled":13341,"^*}":13342,"ĠSA":13343,"ĠNich":13344,"Ms":13345,"ĠHad":13346,"Ġcompete":13347,"ĠSilver":13348,"Ġagrees":13349,"Ġeverywhere":13350,"Ġcarefully":13351,"Ġbacter":13352,"Ġinsights":13353,"ahn":13354,"ĠProte":13355,"Ġduty":13356,"VA":13357,"Ġqualified":13358,"uda":13359,"Ġprovider":13360,"ĠUnit":13361,"Ġremarkable":13362,"Ġbag":13363,"Ġproving":13364,"Ġadjoint":13365,"Ġregularity":13366,"ĠBos":13367,"Ġpursu":13368,"Biography":13369,"Ġrotational":13370,"Ġprohib":13371,"ĠFigs":13372,"Ġdevoted":13373,"ingham":13374,"Ġdecline":13375,"ige":13376,"}=-":13377,"Ġenemy":13378,"Mass":13379,"Ġshel":13380,"ĠCPU":13381,"ĠLink":13382,"ĠInterest":13383,"seen":13384,"ivariate":13385,"ellect":13386,"ĠMove":13387,"Ġdisks":13388,"Ġpray":13389,"Ġegg":13390,"ĠPhysics":13391,"Ġproxim":13392,"argo":13393,"Frame":13394,"ĠTeV":13395,"Initial":13396,"```":13397,"Ġkit":13398,"equate":13399,"Ġautomatic":13400,"Ġinjured":13401,"Ġwrites":13402,"Ġrefused":13403,"Ġgrate":13404,"Ġasymptotically":13405,"MW":13406,"Ġdemonstrates":13407,"ÏĦ":13408,"ortheast":13409,"ĠSin":13410,"phan":13411,"Ġdecom":13412,"Ġcausal":13413,"algorithmic":13414,"Ġhonest":13415,"whe":13416,"enter":13417,"orbit":13418,"ĠHoward":13419,"uis":13420,"{|\\":13421,"Ġcompanion":13422,"rose":13423,"Ġovers":13424,"ĠRub":13425,"Ġpairing":13426,"pay":13427,"ĠIslamic":13428,"Plot":13429,"homogeneous":13430,"kar":13431,"Ġviscosity":13432,"Ġconvenience":13433,"ublin":13434,"letter":13435,"Ġrealization":13436,"flux":13437,"ĠInstagram":13438,"anny":13439,"Ġvolumes":13440,"Cache":13441,"Ġcores":13442,"ateur":13443,"Ġcharts":13444,"Ġfrequent":13445,"etition":13446,"np":13447,"ettings":13448,"nl":13449,"surface":13450,"Ġpromotion":13451,"ĠAB":13452,"Ġprepare":13453,"ĠDomin":13454,"ĠHans":13455,"{-}":13456,"ĠAfghan":13457,"URL":13458,"Ġconsc":13459,"Ġanomaly":13460,"Ġcoaches":13461,"enda":13462,"ĠMunic":13463,"Ġemerging":13464,"ĠPaper":13465,"ijk":13466,"ĠRat":13467,"Ġgray":13468,"March":13469,"Ġreb":13470,"Canadian":13471,"Names":13472,"ĠTheory":13473,"ĠDesc":13474,"ĠKnow":13475,"ĠDir":13476,"Real":13477,"Ġencoded":13478,"Ġlawyer":13479,"Tor":13480,"Ġremoval":13481,"Ġnoisy":13482,"holders":13483,"CK":13484,"acknowledg":13485,"isode":13486,"ĠPot":13487,"illery":13488,"enez":13489,"Ġchap":13490,"ĠDefense":13491,"bling":13492,"Ġconvolutional":13493,"Ġamazing":13494,"Ġepochs":13495,"Ġstreets":13496,"ĠEag":13497,"ĠExpress":13498,"ĠMake":13499,"Ġreadily":13500,"ĠWy":13501,"hus":13502,"valuation":13503,"wal":13504,"Ġgrey":13505,"Ġsums":13506,"compare":13507,"Ġprimitive":13508,"Ġaccompanied":13509,"Ġlongitudinal":13510,"Ġtransit":13511,"Ġguidance":13512,"ĠRon":13513,"ĠEffect":13514,"COL":13515,"volume":13516,"Server":13517,"Ġfee":13518,"Ġbrothers":13519,"Ġknock":13520,"\\,$":13521,"Ġclosest":13522,"Ġsectors":13523,"Ġswit":13524,"Ġpreliminary":13525,"otte":13526,"ĠJava":13527,"bos":13528,"abul":13529,"elastic":13530,"itis":13531,"ĠCM":13532,"vanced":13533,"Related":13534,"@{}}":13535,"Ġplastic":13536,"classical":13537,"ĠMatthe":13538,"Ġvillages":13539,"Ġsubstr":13540,"))=":13541,"Ġcoff":13542,"Ġclip":13543,"Ġvaried":13544,"GF":13545,"\\\"{":13546,"Du":13547,"ĠLHC":13548,"Ġbiological":13549,"Ġguns":13550,"********************************":13551,"cession":13552,"Ġexamined":13553,"Such":13554,"Ġattractive":13555,"ĠGPU":13556,"RO":13557,"dynamics":13558,"ceq":13559,"nie":13560,"uties":13561,"attices":13562,"ĠRest":13563,"Ġguys":13564,"Ġdiseases":13565,"ĠBaseball":13566,"Ġupcoming":13567,"Ġbaby":13568,"geqslant":13569,"consider":13570,"Ġpriority":13571,"}):":13572,"\\@":13573,"Ġentertainment":13574,"})^{\\":13575,"Ġtransportation":13576,"Ġrooms":13577,"template":13578,"romagnetic":13579,"leman":13580,"Ġenabled":13581,"Ġtransc":13582,"Ġoblig":13583,"ĠDal":13584,"Ġcritics":13585,"comparison":13586,"Range":13587,"who":13588,"ĠRepresentatives":13589,"IEEE":13590,"ĠPow":13591,"Ġdeeper":13592,"ĠRow":13593,"Ġpictures":13594,"Configuration":13595,"important":13596,"Ġemployment":13597,"Ġneglect":13598,"aza":13599,"MAT":13600,"station":13601,"lli":13602,"Ġreflects":13603,"Ġinjection":13604,"require":13605,"Ġbreath":13606,"rupted":13607,"ĠFL":13608,"ĉĉĉĉĉĉĉ":13609,"}}_\\":13610,"Ġdisplacement":13611,"ĠSW":13612,"vm":13613,"ĠRab":13614,"})}{":13615,"Ġsummarize":13616,"Ġflying":13617,"Ġbug":13618,"diagonal":13619,"Ġassumes":13620,"cam":13621,"had":13622,"Ġstood":13623,"arding":13624,"Found":13625,"Ġunlikely":13626,"ĠFried":13627,"Ġambigu":13628,"erences":13629,"Ġ\\)":13630,"FW":13631,"obi":13632,"Ġmales":13633,"}}^\\":13634,"ĠYouth":13635,"Cam":13636,"ĠConstitution":13637,"imeter":13638,"dc":13639,"equilibrium":13640,"styles":13641,"Ġspoke":13642,"Ġmaintenance":13643,"Rich":13644,"transition":13645,"Ġride":13646,"ĠFM":13647,"HI":13648,"solution":13649,"Provider":13650,"ĠPas":13651,"ĠIns":13652,"ographical":13653,"got":13654,"corr":13655,"Ġvoted":13656,"deriv":13657,"Ġentitled":13658,"ĠValue":13659,"Ġmodelling":13660,"gue":13661,"Ġbosons":13662,"Ġinfrared":13663,"ĠWeyl":13664,"Ġancest":13665,"iors":13666,"imir":13667,"ishment":13668,"MeV":13669,"Conclusions":13670,"Awards":13671,"overrightarrow":13672,"liest":13673,"plac":13674,"send":13675,"Ġpacket":13676,"Ġinvariants":13677,"asketball":13678,"gas":13679,"ĠGalaxy":13680,"Ġmagnitudes":13681,"Ġparticipation":13682,"Control":13683,"etch":13684,"{%":13685,"Ġcurrents":13686,"Ġqualitative":13687,"bach":13688,"ĠLincoln":13689,"Ġbelief":13690,"GBT":13691,"Ġpicked":13692,"ĠFreder":13693,"Ġassault":13694,"Ġwheel":13695,"bg":13696,"iu":13697,"00000000":13698,"ĠCoulomb":13699,"ĠDefine":13700,"Ra":13701,"ĠProduct":13702,"Ġell":13703,"GHz":13704,"igious":13705,"Paul":13706,"issible":13707,"ĠAnne":13708,"ĠSport":13709,"ĠGordon":13710,"Ġsensors":13711,"ĠChapter":13712,"Ġnominated":13713,"January":13714,"Ġentrance":13715,"Ġprotest":13716,"rophy":13717,"Ġgraduate":13718,"ĠNik":13719,"109":13720,"Ġenvelope":13721,"240":13722,"satz":13723,"ĠFa":13724,"San":13725,"Position":13726,"++)":13727,"physical":13728,"tting":13729,"Mal":13730,"ensis":13731,"ĠCow":13732,"odic":13733,"ibraries":13734,"Ġweaker":13735,"ĠLipschitz":13736,"auer":13737,"1913":13738,"ounce":13739,"Ġdict":13740,"Tax":13741,"Ġwed":13742,"____":13743,"ĠSeattle":13744,"Ġlake":13745,"Ġbrands":13746,"Ġapproval":13747,"Ġcookies":13748,"Ġquantization":13749,"Ġscreening":13750,"Sources":13751,"Ġcontour":13752,"ĠCustom":13753,"Ġcollaps":13754,"gate":13755,"ighbor":13756,"components":13757,"ĠMir":13758,"Ġtermin":13759,"Ġcharacterize":13760,"Ġmig":13761,"Ġconsiderations":13762,"Ġaligned":13763,"ĠSoc":13764,"Ġmeasurable":13765,"Ġske":13766,"=[":13767,"underbrace":13768,"vdash":13769,"olph":13770,"kt":13771,"imit":13772,"ĠScholar":13773,"uits":13774,"Ġsituated":13775,"optim":13776,"Ġfalling":13777,"idelity":13778,"ĠBureau":13779,"Ġstrategic":13780,"Ġstake":13781,"=\"../../../../../":13782,"ĠMars":13783,"relations":13784,"ĠIr":13785,"Hon":13786,"Ġexciting":13787,"ĠTaiwan":13788,"east":13789,"Space":13790,"internal":13791,"asm":13792,"Ġemissions":13793,"CNN":13794,"Ġsynthesis":13795,"ĠBuff":13796,"ĠProdu":13797,"ĠMcK":13798,"angled":13799,"Ġcontinuing":13800,"ĠMI":13801,"ĠRound":13802,"Ġray":13803,"Ġcontrary":13804,"cred":13805,"makers":13806,"Ġbirds":13807,"Ġveget":13808,"annon":13809,"ĠHug":13810,"shaped":13811,"Ġnucleus":13812,"ĠNASA":13813,"Ġtet":13814,"Ġtargeted":13815,"Ġconsumers":13816,"Ġadditive":13817,"ictional":13818,".âĢĻ":13819,"nan":13820,"ĠPhill":13821,"overty":13822,"Ġmovements":13823,"lag":13824,"ĠDick":13825,"Ġthermodynamic":13826,"kens":13827,"Ġbold":13828,"Ġack":13829,"Ġhistogram":13830,"ĠUkrainian":13831,"Ġgates":13832,"Ġeccentric":13833,"Ġindirect":13834,"Entity":13835,"Ġprojections":13836,"issipp":13837,"Ġpossibilities":13838,"Change":13839,"Ġgradually":13840,"Ġcommitment":13841,"Ġmeaningful":13842,"ĠChange":13843,"}\\,,":13844,"Ġceremony":13845,"closure":13846,"annotation":13847,"ĠSingh":13848,"ista":13849,"Ġroads":13850,"Ġmassless":13851,"rik":13852,"panel":13853,"athy":13854,"rock":13855,"ĠProt":13856,"Ġignore":13857,"))$,":13858,"Ġinterpolation":13859,"edition":13860,"orne":13861,"Ġpassage":13862,"Ġoccas":13863,"Ġgenetic":13864,"ĠDemocrats":13865,"ĠSarah":13866,"Ġmerged":13867,"Ġcorrected":13868,"Ġsuspect":13869,"Ġglobally":13870,"Ġdismiss":13871,"Ġelsewhere":13872,"ĠNative":13873,"ationally":13874,"ichlet":13875,"Vs":13876,"attering":13877,"Tim":13878,"Olympic":13879,"Ġattacked":13880,"MNRAS":13881,"Ġfo":13882,"Ġintegrating":13883,"_{|":13884,"uli":13885,"ĠTech":13886,"Micro":13887,"News":13888,"Ġmultiplicity":13889,"sufficient":13890,"$/":13891,"ĠBlock":13892,"Ġforcing":13893,"ĠMarine":13894,"ĠLib":13895,"dv":13896,"Ġinferred":13897,"ĠLabour":13898,"eding":13899,"cert":13900,"Ġrecognize":13901,"Ġtemple":13902,"170":13903,"ĠBR":13904,"Ġpadding":13905,"ynasty":13906,"sig":13907,"Ġpermission":13908,"Ġcollections":13909,"ecture":13910,"Ġcrash":13911,"Ġexport":13912,"Ġexperimentally":13913,"Ġcontainer":13914,"Ġgrass":13915,"ĠNag":13916,"Ġmethodology":13917,"Ġturbulence":13918,":\"":13919,"VP":13920,"Ġtip":13921,"Ġstrange":13922,"Layout":13923,"cz":13924,"FE":13925,"ĠWolf":13926,"^*_{":13927,"ĠCos":13928,"ĠMi":13929,"ĠLyn":13930,"Film":13931,"Ġlen":13932,"algebras":13933,"Ġsuspend":13934,"raisebox":13935,"Ġgamma":13936,"}}}}":13937,"August":13938,"pole":13939,"Ġphilosophy":13940,"burst":13941,"Ġoccupation":13942,"scalebox":13943,"Ġlyrics":13944,"Ġsheet":13945,"ĠBowl":13946,"erk":13947,"Ġescap":13948,"Ġvarieties":13949,"ĠAdvent":13950,"Ġliterary":13951,"ĠRu":13952,"Ġplanar":13953,"ĠWard":13954,"Ġredshifts":13955,"Ġcalculating":13956,"Ġfunded":13957,"1911":13958,"Ġaimed":13959,"ĠKelly":13960,"bing":13961,"being":13962,"Ġmeson":13963,"ĠIndex":13964,"Ġic":13965,"Ġsoap":13966,"bean":13967,"itian":13968,"Ġhandling":13969,"artifact":13970,"orses":13971,"Ġmedalists":13972,"Ġfasc":13973,"Ġdeals":13974,"Ġobserver":13975,").$":13976,"Ġheadquarters":13977,"Ġmerch":13978,"ĠCreate":13979,")_\\":13980,"Ġmigration":13981,"Ġlaboratory":13982,"Ġsucceeded":13983,"inline":13984,"Ġeducated":13985,"ĠWalker":13986,"Ġwinds":13987,"Ġsubmitted":13988,"MSE":13989,"Ġlying":13990,"utter":13991,"Ġtouchdown":13992,"quote":13993,"ĠBangladesh":13994,"Ġbronze":13995,"construction":13996,"Ġconstitution":13997,"ĠStill":13998,"*{\\":13999,"Ġcup":14000,"Ġtank":14001,"!\"":14002,"clusively":14003,"Ġdefinite":14004,"ĠLP":14005,"store":14006,"Font":14007,"built":14008,"supset":14009,"]}$":14010,"\\\\[":14011,"ailand":14012,"Ġdies":14013,"elfare":14014,"Ġqubits":14015,"Ġadvantages":14016,"Ġ\"\\":14017,"127":14018,"odox":14019,"Ġelectrical":14020,"Ġmerely":14021,"Ġrisks":14022,"Ġdesire":14023,"Ġpin":14024,"Ġoperates":14025,"idge":14026,"Ġwaters":14027,"iously":14028,"Ġsentences":14029,"Ġmayor":14030,"istence":14031,"bn":14032,"uese":14033,"window":14034,"Ġimpose":14035,"Gaussian":14036,"ĠAtlanta":14037,"speed":14038,"ĠSect":14039,"........":14040,"Ġretirement":14041,"issippi":14042,"ĠProp":14043,"token":14044,"ections":14045,"ĠON":14046,"verted":14047,"Ġillustrates":14048,"Ġopera":14049,"Ġshadow":14050,"Ġkeeps":14051,"Ġspeaker":14052,"ĠNigeria":14053,"ĠNev":14054,"ĠGarden":14055,"ometer":14056,"ĠAgric":14057,"Ġbeauty":14058,"Lem":14059,"113":14060,"Ġhypers":14061,"Ġtropical":14062,"Ġsustainable":14063,"ĠVillage":14064,"necess":14065,"Ġpointing":14066,"join":14067,"Ġpreserves":14068,"Ġcomic":14069,"Ġemotional":14070,"periodic":14071,"Ds":14072,"ĠBaron":14073,"rection":14074,"generated":14075,"Ñı":14076,"cloud":14077,"Ġsitting":14078,"Document":14079,"Â©":14080,"Ġrequested":14081,"Ġsurprise":14082,"ĠAustria":14083,"ĠTemple":14084,"Ġcarries":14085,"Ġexhaust":14086,"Ġkeyboard":14087,"'+":14088,"ĠHREF":14089,"ĠKu":14090,"ATA":14091,"ĠYuk":14092,"Ġanonym":14093,"ĠNob":14094,"Ġtransactions":14095,"ĠProperty":14096,"Ġquiet":14097,"ĠDallas":14098,"Ġcompeting":14099,"Ġcompleteness":14100,"ayan":14101,"Ġarbitrarily":14102,"IE":14103,"ained":14104,"122":14105,"cache":14106,"antics":14107,"Ep":14108,"??":14109,"idity":14110,"Ġatmospheric":14111,"ewise":14112,"Ġfro":14113,"Global":14114,"()->":14115,"Ġsends":14116,"design":14117,"returns":14118,"eigen":14119,"ibl":14120,"trace":14121,"Ġguaranteed":14122,"Ġinformed":14123,"June":14124,"Ġreserve":14125,"Ġdiscipl":14126,"owed":14127,"etics":14128,"Ġargs":14129,"OO":14130,"Ġspont":14131,"Ġdots":14132,"Ġroutes":14133,"ĠTrade":14134,"Ġ\\\\\\":14135,"Comput":14136,"ĠWalter":14137,"Ġquart":14138,"VE":14139,"Ġlob":14140,"Ġsubstantially":14141,"002":14142,"Ġexcitations":14143,"ĠLind":14144,"Gal":14145,"ĠIndependent":14146,"1901":14147,"iop":14148,"Url":14149,"Ġease":14150,"Ġslot":14151,"None":14152,"Ġrepresentatives":14153,"ddot":14154,"havior":14155,"ĠColomb":14156,"Entry":14157,"Tags":14158,"Ġtied":14159,"heet":14160,"ĠLeft":14161,"Ġstarring":14162,"Ġfactorization":14163,"ĠDetroit":14164,"Ġweekly":14165,"TYPE":14166,"Ġcenturies":14167,"=$":14168,"shot":14169,"Ġmillions":14170,"Ġillegal":14171,"ĠBou":14172,"Ġregistration":14173,"dict":14174,"Interface":14175,"onder":14176,"ĠPerformance":14177,"ĠMotor":14178,"ĠLanguage":14179,"ICE":14180,"ĠSource":14181,"iri":14182,"ĠHeritage":14183,"ĠConnecticut":14184,"integral":14185,"Effect":14186,"ĠDave":14187,"liers":14188,"|}\\":14189,"Ġgram":14190,"ĠOrth":14191,"compat":14192,"ancell":14193,"Ġadmitted":14194,"news":14195,"Ġocean":14196,"Ġdiffers":14197,"Are":14198,"Ġconsisted":14199,"Ġopens":14200,"Ġarchitectures":14201,"Ġinert":14202,"Ġnm":14203,"rceil":14204,"Num":14205,"Ġsteep":14206,"bounds":14207,"late":14208,"commut":14209,"Ġformerly":14210,"material":14211,"Ġsurvive":14212,"Ġaz":14213,"Three":14214,"sters":14215,"mac":14216,"Ġkpc":14217,"following":14218,"1908":14219,"novation":14220,"Ġdevelopers":14221,"Photo":14222,"hookrightarrow":14223,"Sal":14224,"ĠTurkish":14225,"ĠAustin":14226,"empl":14227,"Ġaer":14228,")$)":14229,"ernels":14230,"Death":14231,"Ġignored":14232,"imore":14233,"Hash":14234,"degenerate":14235,"player":14236,"aman":14237,"same":14238,"Prot":14239,"ĠOklahoma":14240,"ĠEss":14241,"Ġqueue":14242,"ĠReturns":14243,"electron":14244,"ĠFix":14245,"ĠWorks":14246,"Ġextensively":14247,"Ġgeomet":14248,"fm":14249,"Fi":14250,"Ġsimplify":14251,"AI":14252,"atim":14253,"las":14254,"Ġrival":14255,"Ġ$\\|\\":14256,"Multi":14257,"Ġstating":14258,"Ġdrag":14259,"Europe":14260,"sys":14261,"Ġstem":14262,"irable":14263,"pancy":14264,"fund":14265,"Ġtidal":14266,"Ġcoarse":14267,"rÃ©":14268,"Ġfract":14269,"Ġproud":14270,"Ġunusual":14271,"Ġcot":14272,"Bibliography":14273,"ĠPear":14274,"Ġrelief":14275,"(_":14276,"Ġflexible":14277,"Ġperpendicular":14278,"Ġfake":14279,"Ġacknowledge":14280,"bara":14281,"Ġanisotropy":14282,"Ġnoticed":14283,"Ġestablishment":14284,"ĠAltern":14285,"Ġ).":14286,"ĠEditor":14287,"Ġconsiderably":14288,"Ġfilling":14289,"framework":14290,"Australian":14291,"Ġsons":14292,"ĠRot":14293,"ĠGP":14294,"Ġskew":14295,"ĠIron":14296,"Ġsoccer":14297,"ĠDak":14298,"Ġscr":14299,"Ġ}(":14300,"Ġdiffe":14301,"Ġfought":14302,"role":14303,"âĢĻ,":14304,"spl":14305,"Ġnod":14306,"Ġbio":14307,"Ġvalley":14308,"maj":14309,"^*,":14310,"Ġdifficulties":14311,"Ġmagic":14312,"ĠForces":14313,"ĠSwiss":14314,"isp":14315,"Network":14316,"erved":14317,"]);":14318,"Gold":14319,"dm":14320,"Container":14321,".\\]":14322,"API":14323,"ĠPlanck":14324,"elo":14325,"Ġrectangle":14326,"ĠPlayer":14327,"ĠLanka":14328,"apolis":14329,"expl":14330,"ĠSite":14331,"Ġdirectors":14332,"ĠChile":14333,"Ġgrain":14334,"Ġprofit":14335,"Total":14336,"device":14337,"Ġuniversities":14338,"yy":14339,"Ġstadium":14340,"ieval":14341,"ĠSchools":14342,"ĠQueensland":14343,"ppers":14344,"Ġappendix":14345,"spectrum":14346,"Ġconsensus":14347,"ĠOk":14348,".]":14349,"$~\\":14350,"Ġengines":14351,"Ġdecreased":14352,"Ġarranged":14353,"Ġfounding":14354,"Ġencourage":14355,"ĠThompson":14356,"Ġfinger":14357,"Ġevaluating":14358,"Ġcareful":14359,"prototype":14360,"Ġoffensive":14361,"usive":14362,"--\\":14363,"ĠAhmed":14364,"amps":14365,"ensing":14366,"Jac":14367,"atorial":14368,"HTML":14369,"Dan":14370,"ĠManager":14371,"LU":14372,"Ġspiral":14373,"ĠCondition":14374,"ĠGene":14375,"Feb":14376,"ĠBorel":14377,"ĠFri":14378,"Ġdefensive":14379,"Ġdemands":14380,"Ġgrounds":14381,"eah":14382,"Module":14383,"Ġpatches":14384,"Ġinstructions":14385,"Ġsolely":14386,"Ġpion":14387,"ĠFive":14388,"ractions":14389,".-":14390,"Dir":14391,"Ġintention":14392,"review":14393,"Ð´":14394,"Ġradical":14395,"symmetry":14396,"USY":14397,"ĠAle":14398,"Ġprocessed":14399,"leveland":14400,"predict":14401,"lceil":14402,"ĠCit":14403,"ĠTelevision":14404,"uerto":14405,"Ġextrapol":14406,"Ġmusician":14407,"olid":14408,"ĠEs":14409,"keV":14410,"Ġavailability":14411,"Mr":14412,"Ġparagraph":14413,"Ġevolved":14414,"Ġfranchise":14415,"OB":14416,"Ġsquared":14417,".(":14418,"ĠPalest":14419,"Ġtalks":14420,"ĠDVD":14421,"ĠMorgan":14422,"Ġexceptional":14423,"ĠCF":14424,"Ġmodulation":14425,"}}{(":14426,"ĠRick":14427,"ĠStew":14428,"Ġtemporary":14429,"assumption":14430,"ĠEXP":14431,"ERS":14432,"Ġburst":14433,"Ġpharma":14434,"Bound":14435,"Ġinval":14436,"Ġrefuge":14437,"Ġsav":14438,"Ġcited":14439,"ĠSH":14440,"Ġjazz":14441,"),\\\\":14442,"ĠPos":14443,"lications":14444,"->]":14445,"ĠKer":14446,"akov":14447,"Ġbol":14448,"Ġregulations":14449,"ĠDog":14450,"ĠError":14451,"Ġtherein":14452,"ĠPhoto":14453,"########":14454,"session":14455,"harmonic":14456,"ĠFinancial":14457,"Ġhaven":14458,"Ġbear":14459,"}),\\":14460,"114":14461,"ovak":14462,"Ġnarrative":14463,"ĠAlber":14464,"Ġdivide":14465,"ĠMol":14466,"ĠYears":14467,"ĠNature":14468,"ĠAntonio":14469,"Ġmeetings":14470,"iah":14471,"IVE":14472,"Sn":14473,"[]{":14474,"Pal":14475,"Ġplanes":14476,"Ġformulated":14477,"Ġcallback":14478,"Ġworker":14479,"Ġrewrite":14480,"Ġtube":14481,"Ġbaryon":14482,"ĠABC":14483,"James":14484,"1905":14485,"Ġhealthcare":14486,"iche":14487,"Ġpopularity":14488,"Ġintegrate":14489,"ĠAdS":14490,"tre":14491,"ĠTab":14492,"arsity":14493,"ĠAuthority":14494,
[...]
