#version: 0.2
Ġ t
Ġ a
i n
h e
Ġ Ġ
e r
o n
r e
Ġt he
a t
e n
o r
Ġ s
a n
Ġ w
Ġ o
i s
e s
i t
Ġ c
e d
a l
a r
n d
Ġ f
ĠĠ ĠĠ
in g
Ġ p
Ġ b
Ġo f
Ġ in
o u
i c
i on
Ġa nd
Ġt o
a s
Ġ m
l e
Ġ d
o m
Ġ h
en t
â Ģ
Ġt h
i l
s t
c t
r o
Ġ re
Ġ S
e l
e t
Ġ n
Ġ C
Ġ T
Ġ A
Ġ l
a m
i d
o l
Ġ e
Ġ I
u t
u r
o t
at ion
c e
i v
Ġ g
a d
i m
Ġ M
i g
Ġ is
l y
c h
a y
Ġf or
Ġ on
u s
Ġb e
o w
ĠĠ Ġ
er s
Ġ (
Ġ P
Ġ B
i r
Ġth at
ĠĠĠĠ ĠĠĠĠ
Ġs t
e m
it h
u l
t er
u n
âĢ Ļ
v er
r a
Ġ H
he r
Ġa s
2 0
Ġ D
s e
Ġ R
i f
Ġw ith
a g
is t
Ġw h
Ġ it
v e
Ġ F
es t
Ġ W
Ġa n
o d
t h
Ġw as
Ġ y
Ġa l
Ġc on
a c
Ġ L
at e
an d
o p
Ġ N
u m
ĠT he
il l
Ġ G
Ġ he
Ġ v
Ġp ro
Ġ E
a b
e w
o c
Ġa t
es s
r i
r om
it y
p e
re s
Ġc om
l d
or t
Ġ âĢ
Ġb y
h t
Ġd e
ou r
1 9
Ġ J
Ġ or
o s
o re
q u
m ent
k e
p p
i es
Ġa re
ar t
a in
Ġe x
Ġs e
Ġ O
Ġf rom
an t
Ġ r
iv e
u b
en d
u d
ĠĠĠĠ ĠĠĠ
Ġh a
n t
al l
p t
ct ion
u st
Ġ U
ar d
Ġn ot
Ġth is
i al
Ġc h
ig ht
o g
u re
Ġs h
am e
g e
e ar
b er
' s
T he
ou t
as s
. .
Ġ "
âĢ Ŀ
Ġ u
Ġ =
r ou
Ġha ve
Ġ le
in e
o st
el l
Ġw e
as t
Ġy ou
i a
u e
ĠS t
ic h
e ct
an s
ou ld
p l
Ġp l
p er
ag e
ar y
0 0
Ġw or
Ġ K
Ġh is
a k
f f
ĉ ĉ
Ġc l
at ed
Ġh as
Ġs u
20 1
a re
< /
Ġa b
) ;
ac k
ĠI n
on g
c l
om e
o k
ic al
i re
a p
i z
- -
Ġ j
i p
Ġ us
e x
= "
ic e
t her
ul t
r y
/ /
ĠâĢ ľ
Ġ k
id e
Ġw he
o v
or m
c c
a v
ou s
Ġal l
er e
en ce
Ġ {
i e
p ort
ion s
ĠC h
g h
or d
Ġg o
Ġ V
Ġa d
ab le
i an
in d
Ġwh ich
Ġcom p
Ġcon t
Ġc an
im e
Ġthe ir
Ġin t
Ġwh o
Ġb ut
c on
Ġ un
Ġre s
Ġw ill
ation s
Ġ <
ig n
Ġd o
Ġthe y
i b
s o
a ct
r u
Ġ im
f er
e p
Ġ en
ou nt
l ic
ĠĠĠĠĠĠĠĠ ĠĠĠ
Ġw ere
on e
ĠT h
m er
an ce
Ġ *
Ġa r
or y
Ġo ut
ur n
as e
al ly
Ġm e
a ce
i le
k s
Ġon e
d u
in t
ent s
is h
r it
o ok
Ġm ore
Ġy ear
er v
Ġt r
res s
Ġs a
Ġm an
Ġh ad
it ion
Ġu p
Ġn ew
an g
f orm
) ,
e c
Ġal so
o b
Ġ Y
il d
Ġp art
Ġab out
Ġa g
) .
a ch
a il
Ġp er
Ġ if
20 0
Ġbe en
Ġd is
Ġo ther
a ke
en s
c es
Ġit s
ow n
Ġ her
l l
ir st
ver y
o se
r ic
č Ċ
v el
Ġe v
Ġs o
el y
ou nd
or s
it e
ĠH e
re e
Ġp e
ter n
ĠI t
Ġ -
ĠU n
ay s
c om
I n
op le
Ġn e
Ġ }
n e
ing s
Ġl i
Ġt e
t e
at es
Ġs c
p h
ar k
Ġwor k
re at
he d
nd er
1 0
Ġp re
ation al
g et
ub lic
ex t
Ġw ould
us e
a w
Ġthe re
l i
f ter
j ect
" >
1 8
at h
Ġs p
cl ud
Ġ $
n g
w o
Ġo ver
Ġa pp
o ol
r ing
Ġ qu
ol l
ol d
Ġt ime
e f
s s
Ġf irst
Ġcom m
ĠâĢ ĵ
Ġre c
ro w
Ġpe ople
o y
c k
Ġk n
t y
Ġof f
am p
Ġre t
Ġbe c
Ġsa id
ad e
is s
on t
Ġwhe n
at er
Ġth an
Ġthe m
Ġan y
on s
u al
in k
i ew
ĠR e
ĠĠĠĠĠĠĠĠ ĠĠĠĠĠĠĠĠ
Ġs ome
er t
Ġ ro
ĠĠĠĠ Ġ
Ġint o
iv ers
Ġ '
Ġo ur
Ġa cc
w e
Ġp r
Ġs he
Ġcl ass
on d
ri b
i ous
at a
el f
m an
Ġu nder
od e
S t
ĠC om
u g
r am
pe c
* *
Ġm y
oc k
ig h
Ġin d
Ġg et
Ġwh at
Ġin clud
Ġ &
it ies
le ct
it ed
Ġd es
c ed
em ber
ol og
et h
Ġli ke
Ġa ct
Ġpl ay
Ġin ter
ic k
Ġt wo
id ent
ĠN ew
Ġa m
= =
f t
l es
pe ct
re d
l and
ic s
Ġj ust
-- --
mer ic
ĠA r
s p
Ġas s
o od
en er
Ġ |
o int
Ġyear s
w ard
Ġn o
a use
y st
n ing
rou nd
p s
Ġat t
Ġa fter
Ġb et
( )
em ent
ic t
Ġon ly
al s
if ic
rou gh
o ver
. âĢĿ
h ip
Ġre g
w n
or k
Ġcon s
ar ch
ul l
as ed
Ġy our
Ġp ol
Ġt ra
Ġpro v
Ġin v
i ed
i o
ur ing
Ġret urn
Ġh ow
Ġ [
Ġm ost
is e
ĠS e
pp ort
Ġre l
Ġh im
Ġf e
Ġ ra
1 2
m s
Ġe m
if e
re n
Ġp ublic
ar s
Ġst ud
Ġm ay
ou gh
i el
R e
ch ool
at ing
Ġs ub
Ġad d
in al
at ive
19 9
an c
ce pt
Ġde f
yst em
Ġwhe re
it t
Ġth rough
u nd
ĠP ro
il y
p r
ĠD e
2 1
ĠA meric
p ro
o ve
ĠTh is
t t
ot h
Ġb l
g an
y s
c re
Ġs erv
Ġb u
Ġ Ċ
\ \
ers on
an ge
âĢ ľ
ment s
a x
i x
ĠW e
Ġre m
Ġc ol
Ġs et
1 1
he n
u p
y pe
Ġsu ch
Ġb ack
Ġthe se
Ġ end
vel op
a h
t s
T h
âĢ ĵ
or n
Ġc ould
Ġa c
ul ar
ow er
1 5
il ity
Ġp res
ivers ity
Ġf il
os s
ire ct
ou n
Ġag ain
Ġc ount
u es
Ġkn ow
ĠA l
f ore
Ġ ent
ĠL e
ĠĠĠĠĠĠĠĠ ĠĠĠĠĠĠĠ
Ġo b
iel d
Ġd if
ĠA nd
d ay
ra ct
o h
Ġpro du
ut h
an y
Ġw ell
al ue
ut ion
Ġman y
i ent
as on
in s
Ġf l
Ġtr ans
Ġ .
am es
al th
ib le
1 6
as h
Ġp h
Ġne ed
Ġd id
ar g
oc i
c y
u res
, âĢĿ
at t
it s
1 7
u ch
iz e
in ce
f ul
Ġr ight
al e
a z
ist s
Ġthe n
our ce
an k
Ġse e
Ġbe ing
ot her
is ion
ĠW h
Ġin st
a ir
Ġ //
Ġc all
" ,
t on
Ġbec ause
ĠS h
we en
Ġwor ld
is m
: :
Ġs pec
m in
Ġl oc
3 0
. ,
i ence
en ces
ĠA n
Ġn ow
ic es
ction s
oll ow
is hed
v iew
rou p
Ġar t
iv es
n er
Ġn um
he s
s c
Ġc o
Ġe very
Ġm ade
Ġf am
d er
Ġ /
ak ing
Ġsh ow
v ent
Ġre qu
: //
Ġo wn
u c
' t
Ġde c
in es
p ar
l ed
ou se
- >
o ot
ut e
le t
Ġbet ween
p en
t r
Ġe ar
Ġm ake
con d
et er
v en
ĠS c
Ġev en
Ġ very
Ġe ff
Ġn ame
1 4
Ġth ose
w w
em b
in ess
Ġle ad
Ġs er
Ġsh ould
re t
r al
Ġl ong
ĠI nd
Ġde velop
Ġ @
00 0
E x
at ch
w ay
ĠC l
E R
at her
Ġw ay
g ram
Ġ ed
Ġst art
Ġw ant
Ġus e
Ġw rit
Ġ ke
Ġv ar
c ess
Ġbe fore
.. .
Ġs ur
Ġf un
2 2
olog y
p os
re nt
Ġm on
Ġf ound
ĠUn iversity
us s
1 3
t en
Ġhe l
Ġm od
Ġg r
Ġm ed
Ġa p
Ġg u
19 8
at ure
Ġc ent
form ation
Ġb el
c ent
s on
n ment
ĉĉ ĉĉ
Ġcon st
re ad
p le
Ġth ink
b le
Ġus ed
Ġst at
er n
Ġdif fer
Ġsu pport
Ġh igh
Ġm ov
.. ..
id er
it al
Ġ </
ĠA s
Ġf ollow
a j
ĠI s
Ġex per
Ġgo ver
Ġcomm un
Ġc re
Ġl ook
Ġc ur
t ing
Ġd uring
en g
Ġt er
Ġp erson
us iness
. "
an n
p ut
ou th
ri pt
ĠT r
e ver
im es
.. /
a ve
Ġs ign
Ġfor m
Ġch ar
2 5
Ġdo es
ag es
Ġm uch
et s
iv er
Ġs ystem
ĠCom m
el s
e k
iz ed
t he
Ġte am
ch n
Ġth ree
ĠF r
ĠF or
Ġch ild
ĠA d
i er
Ġl ast
Ġd ist
Ġex t
Ġl ife
e b
ĠC ol
ur y
iv ing
at or
Ġs m
ru ct
u ally
ra ph
Ġ Z
in a
Ġwh ile
v ed
e g
ill ion
Ġre ad
Ġm in
Ġc our
Ġg ener
ĠC on
Ġd ata
ĠB ut
Ġre port
ĠâĢ Ķ
ant s
I N
Ġst r
m l
ĠS he
Ġgo od
Ġhel p
Ġd on
ire d
Ġ el
I t
or th
ur al
O N
g ht
Ġb oth
ion al
Ġres ult
ĠP h
om en
al k
Ġl aw
Ġs ame
r or
Ġg reat
Ġs chool
us ic
a u
Ġdis c
oh n
Ġ Q
ist ory
Ġex p
ĠAmeric an
e e
Ġp oint
Ġc are
ĠâĢ ĺ
in ed
ro ss
o x
ĠUn ited
Ġinclud ing
et y
Ġin f
ĠB l
o id
ess age
ĠE x
Ġst ate
Ġf in
Ġ| |
iv ed
5 0
Ġagain st
19 7
_ _
Ġb ook
Ġcont in
s elf
C h
n ess
Ġd own
( "
ar m
t o
Ġres p
ical ly
l ine
u ro
( );
i k
Ġ est
Ġd irect
Ġc ar
are d
y n
o ad
Ġs om
âĢ Ķ
Ġnum ber
uth or
Ġst ill
re f
Ġcon f
od y
iss ion
Ġs ay
s h
Ġ +
r on
cc ess
ĠY ou
g y
Ġre le
ĠE ng
Ġpart ic
is ter
v ers
Ġs im
r ist
o ber
le y
er y
Ġpro gram
' ,
Ġt ake
l ish
y m
Ġis s
---- ----
Ġre p
Ġse cond
Ġ :
Ġre al
ĠS p
Ġhe re
Ġo per
Ġp op
en se
Ġim port
P ro
Ġapp ro
s et
a pp
ĠJ an
Ġa round
Ġf act
Ġf ind
Ġe ach
tern ational
Ġbu ild
oc ial
en n
Ġd ay
Ġin formation
âĢ ¦
ak es
le ction
b y
r ation
R E
Ġd r
ĠM ar
Ġrec ord
2 4
Ġm ark
Ġ #
A T
ĠP l
um an
b all
Ġdiffer ent
pl oy
r is
um ent
Ġr un
Ġle g
Ġl ist
W h
Ġp ass
Ġh and
ĠThe y
or g
Ġb usiness
Ġg l
Ġor gan
Ġa v
> </
ial ly
or ld
con om
19 6
ĠU S
Ġpl ace
un e
Ġgover nment
ĠJ ohn
en cy
Ġprov id
Ġgo ing
Ġap pe
Ġan n
v ing
ĠM ay
l ished
Ġt est
Ġo pen
ĠR es
e y
d iv
ĠC ent
Ġm ain
r ay
Ġs ince
ĠSt ates
ur ch
Ġc or
== ==
Ġp ar
Ġfil m
S T
o ard
Ġre ce
Ġfam ily
Ġc ase
Ġv is
Ġc a
Ġex pl
as es
Ġim p
Ġre ally
ur s
Ġb r
ĠO n
le ar
Ġpol it
p or
Ġper form
Ġ* /
if ied
iv en
ro l
Ġoff ic
A R
o f
Ġp os
Ġpro f
ĠO r
iz ation
Ġinter est
ĠH ow
Ġf our
ot t
ot e
2 3
m ed
at ic
ir d
Ġin s
\\ \\
Ġad v
b s
Ġin c
Ġde p
Ġl ine
g g
I D
Ġs l
Ġinv est
Ġb est
Ġpro cess
sp an
emb ers
ric t
Ġfun ction
Ġhe alth
re m
t il
ĠA ll
Ġh ome
20 20
ain s
Th is
Ġm ust
Ġin cre
are nt
Ġp ower
Ġg ame
e le
re am
W e
eth od
e v
is ed
ĠA ss
Ġhe ad
i or
Ġre se
in c
Ġcur rent
ri es
Ġv alue
ar n
20 19
Ġre f
as k
aj or
ht t
Ġs elf
ĠC an
20 21
Ġs ing
Ġs ays
Ġdes ign
end s
he m
Ġd em
ou ght
Ġte chn
i ans
4 0
ht ml
Ġp ost
our n
iv ate
Ġmon th
Ġcount ry
Ġp at
ĠP r
it ions
v es
ĠI f
Ġ er
u ary
Ġb ro
c o
Ã ©
Ġeff ect
ĠC ar
Ġre st
ain ed
Ġha pp
at ely
Ġan other
it le
> <
../ ../
Ġp oss
Ġcomp any
a im
ĠY ork
res ent
O R
Ġd el
ĠThe re
y p
Ġpro ject
o le
Ġst and
Ġg roup
con t
** **
Ġt ype
l ing
C om
l ess
2 6
w ays
og raph
if y
ĠĠĠĠĠĠĠĠ ĠĠĠĠĠĠĠĠĠĠĠ
al ity
ĠN ational
v ious
Ġall ow
Ġo ld
ĠE uro
Ġbel ie
Ġs ol
an e
re en
Ġc ap
Ġor ig
st and
ert ain
Ġm usic
iv id
201 8
Ġpro t
b e
ĠA t
ul ation
Ġse ver
or ies
ĠW orld
i um
ĠM an
l ation
( '
Ġl ater
ĠN ov
H e
th is
Ġto p
C on
2 7
ĠSt ate
a ult
N ame
ord ing
Ġm illion
amp le
fer ences
2 8
itt le
Ġor der
Ġf ew
g ed
Ġw omen
ir on
ne y
Ġchar act
in ing
Ġn ext
Ġse ason
201 6
Ġf ac
Ġcall ed
ĠĠĠĠĠĠĠĠ Ġ
Ġp rom
Ġman ag
Ġdes c
at s
ĠA m
um p
b r
Ġcons ider
op e
ĠB e
A L
1 00
Ġg row
ĠCh rist
qu e
a i
ĠP ol
201 7
Ġm et
Ġs pe
ic le
Ġwith out
fer ence
Ġw in
E N
Ġle vel
Ġne ver
Ġkn own
g er
Ġl ot
i am
f or
ent ly
Ġh ref
Ġchild ren
cept ion
tern al
Ġwith in
Ġsm all
ĠA f
A r
Ġen g
il it
Ġv al
Ġa uthor
eth ing
Ġloc al
Ġ i
Ġm ar
n ame
al se
Ġqu est
Ġa ff
us h
Ġh tt
201 5
Ġst ory
Ġc r
b ack
ĠS chool
, "
ĠW ar
Ġe qu
ĠC ount
er al
C ont
end ed
Ġpres ent
ĠEuro pe
ĉĉ ĉ
2 9
Ġd et
ĠS o
Ġl and
A N
Ġto o
Ġt ri
es c
as ter
ĠM ed
Ġth ings
Ġsu ccess
ĠO ct
ĠT e
le x
w ork
ĠM in
Ġe le
ĠA ust
Ġp ut
ĠJan uary
A s
c ur
t d
iv ely
Ġimport ant
Ġs ocial
ĠJ u
Ġser ies
ir c
at ter
ĠN o
O n
om an
Ġbe h
Ġm ajor
Ġch ange
Ġ Â
A n
Ġun til
Ġc ity
Ġp ub
Ġo pt
Ġm embers
Ġh istory
Ġb ig
ĠS outh
id d
c er
os p
g in
he re
th ing
Ġn on
Ġv iew
le ge
ic y
ward s
Ġcom e
ĠB r
Ġf r
ĠA ug
Ġf inal
ent ion
m y
ad d
Ġt urn
Ġev ent
v al
Ġex pect
T ype
ĠC o
im port
en e
) )
Ġch ang
Ġwe ek
Ġle ft
er man
Ġn ear
Ġus ing
Ġe lect
ail able
A S
201 4
art ment
Ġe conom
ab ility
l er
ob al
st it
Ġrese arch
us ed
par am
u ed
in ation
Ġcommun ity
s ource
Ġo cc
I d
Ġsom ething
ĠTh at
pr il
m ber
ĠB rit
rib ut
Ġde ath
Ġb re
ĠM arch
ĠP res
) :
Ġ ide
c ol
Ġf und
Ġfollow ing
Ġw ar
an ces
ro p
Ġed uc
St ring
Ġl ess
ĠG u
Ġtr ue
Ġh uman
u ff
Ġs k
Ġear ly
ab ly
Ġc he
Ġse em
ut ure
ĠE d
Ġpl an
Ġem ploy
ĠG e
Ġt ry
Ġare a
Ġg ot
y le
Ġpro per
Ġf ore
a f
ar ge
i od
R es
ĠSe pt
Ġp ay
ight s
ce mber
ac y
ĠP ar
C l
Ġb ased
er ing
um m
it or
v iron
B y
tr ans
ĠA ct
ĠF l
ret urn
al es
ro ll
E S
ard s
c ode
ĠC ity
m p
201 3
g o
Ġel se
Ġstud ents
ww w
Ġsever al
Ġm ight
ent ial
m essage
ĠC al
ke y
Ġact iv
ĠJ une
Ġc ult
on y
b l
ang u
I T
ate g
19 4
Ġal ways
s ide
on se
u le
ect ed
Ġc amp
Ġest ab
ar get
Ġacc ess
Ġl a
is ing
Ġf ield
ĠM c
du ct
Ġserv ice
Ġwork ing
im ate
al f
Ġv ers
201 2
Ġpro ble
Ġyou ng
u ck
d d
ĠN orth
ĠR ep
iv al
n ot
ĠA pril
Ġf ri
ac he
Ġ X
Ġbec ame
Ġind ust
Ġadd ition
b um
re g
a ff
ĠG r
Ġbet ter
ĠJu ly
Ġd ays
ĠS u
ore d
ist or
Ġl ittle
Ġal ong
Ġp ract
one y
Ġs ong
end ing
Ġs it
ĠA b
ĠW ill
Ġpr ivate
Ġas k
ur ther
i ol
Re ferences
st r
ĠH ar
id ence
Ġf oot
Ġ ident
c he
Ġf ull
Ġdevelop ment
Ġme et
ĠOct ober
19 5
ĠE n
ĠT o
Ġfe el
em pt
ivid ual
cl ass
Ġav ailable
ĠSept ember
our ces
ĠDe cember
Ġbec ome
Ġc ost
Ġg iven
port s
viron ment
Ġmark et
com m
am ent
Ġinclud e
ĠAug ust
Ġp ast
ra w
Ġcl aim
Ġ !
w are
Ġinv ol
ĠP art
6 0
201 0
it er
L E
" .
Ġprodu ct
Ġar g
ag ue
Ġsu pp
Ġw ater
re w
in ks
am ed
c il
T o
y l
Ġto ok
Ġcon d
Ġc ame
Ġm en
er ed
201 1
Ġme an
is on
Ġh ard
ain t
Ġsh ort
it ing
ĠNov ember
il le
Ġwor d
Ġam ong
ure d
ĠF eb
Ġf ar
Ġp o
Ġ --
ust om
our s
ad a
Ġof fer
ra p
e ad
ĠD ep
ourn al
Ġof ten
Ġfor mer
read y
Ġab le
3 2
c hed
Ġde b
Ġn ational
ĠAf ric
# #
Ġ= >
Ġac ross
L ist
A C
Ġw on
pl ay
a pe
Ġl im
ide o
r ight
U n
erv ice
ĠRe g
ĠCom p
Ġprof ess
it ive
ty pe
os ed
Ġm aking
ff ic
il t
s er
Ġke ep
Ġserv ices
Ġc rit
Ġd oc
ĠPres ident
Ġrep resent
n ew
Ġper iod
ĠCount y
Ġk ind
ĠA g
s el
Ġstud y
og n
Ġplay ers
Ġle t
Ġin it
Ġind ividual
Ġf oc
Ġf ive
ab or
3 3
a pt
on es
ra ft
Ġpartic ular
u ild
ow s
Ġha ving
Ġexper ience
ĠAust ral
ak en
ad em
ĠH is
ie f
Ġapp lic
A l
/ >
F or
oci ety
t ime
it her
I C
Ġc lear
Ġb as
Ġa ut
l u
ri ed
i pp
he ad
Ġt ax
Ġcomp et
ver t
Ġt imes
and s
h am
st er
ru ary
her n
Ġm ult
ct or
Ġex ample
Ġli k
a ut
op t
Ġspec ial
w it
ir l
Ġto day
ap s
Ġunder stand
Ġf uture
Ġle ast
Ġe as
i ke
ĠAr t
Ġro le
ers hip
Ġl arg
d ef
8 0
Ġl ove
ond on
Ġh ouse
Ġj o
c ing
Ġpolit ical
Ġn et
S h
Ġa way
ĠW ith
Ġal bum
Ġan al
Ġth ought
Ġke y
Ġb en
Ġf ree
.... ....
Ġ >
Ġcon c
Ġde v
m od
Ġl arge
ĠAmeric a
Ġal ready
Ġc over
id es
re et
ĠW est
ĠG erman
ater ial
get her
Ġj ob
Ġto gether
3 5
3 1
un g
i ents
Ġprov ide
Ġ _
Ġob ject
Ġcont rol
ĠR uss
i et
Ġan t
op h
ol ution
ep end
g r
Ġwh y
ĠB ar
ĠD av
ĠC our
Ġother s
Ġc ertain
eng th
min ist
Ġv oid
Ġdid n
un ity
Ġa ge
u k
Ġf ail
her s
ing ton
Ġh old
Ġ= =
Ġdesc rib
f ield
w h
Ġm ember
I S
Ġd ue
Ġcharact er
il ar
ific ation
Ġa ir
if t
m ost
ĠG l
Ġtr ad
ac es
Ġf re
th ough
Ġcour se
at ors
ĠHow ever
ot s
Ġt ell
" />
Ġann oun
oun cil
Ġto t
Ġp ort
Ġim pro
ĠM e
Ġt alk
ec ut
um b
ĠH ouse
Ġacc ount
E C
Ġcomp let
il es
op y
ĠH er
angu age
Ġs ix
A M
Ġw ent
ĠD r
a ul
g ress
A nd
Ġk ill
ir th
S e
ilit ary
a ction
200 9
oc ation
Ġhe ld
Ġme ans
Ġrel ations
Ġth ough
f ace
ra g
Ġn ull
Ġper cent
ĠW hen
Ġf alse
ĠFeb ruary
ĠC or
ear ch
Ġm ethod
c hes
g round
Ġt itle
ict ion
o ff
ĠC ont
f o
em ents
ĠK ing
Ġsing le
est s
Ġth ing
f ig
Ġp a
itt ed
S c
Ġe ver
Ġwhe ther
ur g
Ġh ig
Ġv ol
Ġt em
ĠE l
Ġmed ia
y ear
200 8
ĠL ondon
is c
ĠO ne
Ġg ive
d e
Ġp ri
ĠS ec
um n
Ġright s
c ast
Ġre view
s w
iv il
Ġsh all
an a
le ment
o ice
Ġr is
ĠIn ternational
Ġbuild ing
Ġse en
Ġwor ks
ib r
ru ction
Ġs ide
Ġ et
it te
E D
Ġe p
Ġth ird
ĠI m
Ġt reat
ĠP e
ĠC O
an ies
" )
Ġl ive
Ġstr ong
f l
ain ing
ed eral
Ġcour t
Ġstart ed
Ġcare er
et t
ĠP er
v ision
ap an
Ġrece ived
"> <
h old
ib ility
' re
Ġsign ific
am a
3 4
Ġar r
Ġposs ible
u ation
z e
un ction
ar i
en ed
n ow
olog ical
Ġre ason
T r
Ġbe gan
ra in
Ġa ction
il ities
Ġp ot
Ġpre vious
ĠBrit ish
Ġex ist
Ġm oney
Ġto ld
ĠA fter
B ut
ĠA pp
C ol
ĠWh at
Ġadd ress
Ġv iol
Ġoffic ial
Ġre du
ord er
Ġph ot
Ġs ent
if f
av a
pl es
Wh at
Ġd eter
trans lation
Ġb o
Ġf urther
Ġsa f
m a
anc ial
ill s
og le
Ġin ternational
ul es
ec ess
Ġplay ed
ĠL aw
Ġresp ons
Ġmonth s
Ġp ur
Ġd one
ĠI I
id s
op s
Ġde al
3 6
re st
Ġ \
Ġsu per
Ġst ruct
row n
Ġ `
ar ing
d ate
Ġdisc uss
Ġatt ack
Ġpos ition
ĠCour t
Ġorig inal
Ġex c
Ġcomm on
u f
Ġg ames
m e
ĠE m
Ġag re
Ġres pect
Ġon ce
ĠG over
ir t
al d
ĠCh ar
Ġ ve
i que
ir m
n a
Ġgener al
Ġ )
ĠB y
b ook
htt p
Ġg en
Ġnew s
7 0
I f
Ġcre ate
\\\\ \\\\
end er
Ġo pport
qu est
Ġrele ased
Ġen c
Ġquest ion
ĠB ro
Ġp arent
9 0
in o
Ġrequ ire
Ġto wn
-------- --------
ĠSt ud
ress ion
au gh
ĠQ u
Ġcount ries
st ring
Ġch all
Ġass oci
ĠNew s
ĠCol lege
Ġsub ject
Ġben ef
Ġpub lished
id ge
Ġvar i
f ord
el t
ĠA ir
Ġo pp
3 8
ĠM r
Ġd i
p re
ĠS er
ab el
b ject
lect ed
4 5
Ġen ough
C O
The re
200 7
Ġeduc ation
ad es
Ġs ite
Ġindust ry
Ġc reat
ag n
ĠG od
Ġdo ing
r an
ĠCent er
20 22
ro du
ĠP ark
Ġme as
ĠEng lish
Ġcom b
Ġbe gin
Ġpartic ip
ĠM ich
ĠHe alth
le g
cl us
Ġ es
om in
3 7
Ġt ext
ener al
ĠThe se
Ġiss ues
ĠS m
A P
if orn
ĠCh ina
Ġ z
Ġt yp
Ġb ody
Ġp ress
D ata
Ġperson al
o on
Ġt re
Ġcont ent
Ġm aterial
um e
Ġact ually
ĠA ng
ĠS ch
N ew
h ib
at ures
Ġen vironment
E T
// //
R O
al t
Ġp ers
a e
Ġfoot ball
am b
Ġcomp anies
Ġl inks
ail s
rou ps
itte e
Ġsignific ant
Ġt aken
Ġm akes
3 9
Ġr ad
I nd
ript ion
s y
Ġtot al
ĠDep artment
ĠD o
ĠM y
iforn ia
at ory
Ġt arget
ce ed
Ġrec ogn
Ġph ys
ĠAss oci
Ġpres ident
Ġh alf
ist ic
Ġl ight
ĠPh il
Ġse x
l in
200 6
Ġle arn
Ġs ure
ĠJ apan
ĠWill iam
c ial
Ġdoes n
ĠInd ia
ĠU K
d ata
Ġb irth
le ase
Ġeff ort
Ġh ost
Ġimp act
6 4
a el
ĠT ra
Ġvers ion
a ign
ĠG o
idd le
oc r
id ed
Ġm om
Ġacc ording
Ġev ents
ru g
Ġn ight
ren ch
Ġh on
htt ps
Ġd est
Ġwe bs
Y ou
ĠH igh
at ural
Ġ id
o e
es e
sel ves
I ON
Ġl ow
ac c
ch ie
ograph y
Ġa ud
ĠN ot
er gy
um ents
cur ity
Ġprovid ed
Ġpol icy
in ter
u el
Ġy et
Ġsim ilar
Ġc ustom
W ith
Ġbre ak
Ġre pl
ac ed
U S
es tern
ĠR ec
pec ially
Ġc ou
Ġsp ace
Ġmod el
Ġpop ulation
att le
==== ====
Ġgl obal
Ġ x
b ar
Ġh istor
ad u
) );
ro id
Ġs ound
as ing
ig ation
Ġrequ est
ent al
H ow
Ġhow ever
Ġpro b
Ġm ot
Ġc oll
Ġc ases
Ġt w
Ġvar ious
ĠĠĠĠĠĠĠĠĠĠĠĠĠĠĠĠ ĠĠĠĠĠĠĠ
Ġm iss
Ġd ou
Ġc ell
Ġfoc us
Ġst ring
Ġv ideo
ĠL a
V alue
" );
Ġf all
ĠS an
Ġte le
ess ion
um mer
Ġf ood
Ġm em
Ġo p
G et
Ġb ring
L L
E r
Ġiss ue
Ġhtt ps
Ġcent ury
as c
Ġj ud
Ġcre ated
l oad
ac hed
umm ary
ĠEng land
ĠM on
Ġpart y
rib ute
Ġdif f
ĠCal ifornia
use um
ĠD em
ĠS en
Ġf av
Ġsu gg
Ġam ount
I m
ĠD ist
Ġim m
Ġare as
Ġe ither
Ġresult s
or ge
le te
ĠRep ublic
Â ł
] ,
9 9
Ġcontin ue
ud e
Ġen s
ic ation
ag er
Ġreport ed
Ġpol ice
Ġm ilitary
Ġrequ ired
Ġst op
t ext
Ġl ate
A ll
i en
Ġf ather
ach ing
ĠIn stit
. )
H E
Ġ ,
he l
ver age
ic les
Ġal most
Ġbelie ve
amp ions
Ġpr im
Ġbu ilt
d o
Ġl ed
Ġb i
ash ington
Ġcom pl
Ġinclud ed
Ġprodu ction
i ences
] .
Ġsh are
ut ions
Ġwrit ten
Ġtechn ology
ys is
Ġwork ed
Ġb it
Ġup on
b or
Ġvis it
Ġent ire
ic a
ĠEurope an
ĠĠĠĠĠĠĠĠ ĠĠĠĠĠ
osp ital
ĠD irect
ic ult
Ġrelations hip
P h
**** ****
ĠM ark
Ġn amed
a it
Ġr ather
20 00
d om
Ġag o
in ary
0 1
Ġm or
Ġ/ **
ra el
Ġcont ract
oc al
v alue
Ġab ove
e ed
Ġcom es
Ġn ecess
Ġoff ice
Ġstat ic
Ġar ch
Ġen ergy
Ġac cept
ens ion
Ġpro pos
am s
Ġdoc ument
ip le
Ġconc ern
v ar
Ġwho le
un ch
Ġinf lu
ic ro
ĠC ouncil
Ġshow s
ĠDav id
ĠBl ack
s u
Ġs ize
ell ing
Ġrec ent
it es
se qu
ur b
ĠA c
Ġde cl
ĠE ast
i res
Ġc irc
Ġw ind
at ives
Ġdec ision
k y
A D
l ist
ag s
Ġb ase
ĠH ol
Ġproper ty
h ing
ĠJ ust
Ġpoint s
ut es
Ġm ove
o ke
led ge
Ġv ict
Ġreg ard
I s
con st
Ġst yle
P ar
v is
Ġm ind
Ġcl ose
e es
B C
ĠĠĠĠĠĠĠĠ ĠĠĠĠ
Ġbl ack
Ġperform ance
pt ion
Ġh om
Ġproble m
Ġb orn
Ġb and
] ;
Ġresp onse
Ex ception
Ġfam il
en ing
ĠN et
Ġl iving
Ġg roups
Ġes pecially
re c
ĠF in
Ġl og
Ġg round
j oy
Ġne g
an ks
Ġlik ely
Ġan im
Ġse ction
ĠO ff
Ġlook ing
Ġd iv
Ġf ight
200 5
ĠCan ada
Ġs w
Ġre fer
Ġt aking
du c
ition al
Ġr ange
ric k
Ġatt empt
ens ive
b ody
Ġpop ular
ĠS w
n ect
Ġv ot
ak er
Ġse curity
Ġdel iver
id th
Ġadd ed
ou d
y d
7 5
Ġrel ig
re l
Ġneed s
t est
Ġeng ine
Ġwebs ite
ar ies
ro te
Ġ ill
Ġd ied
ĠS ystem
Ġab s
Ġs on
U R
ĠTr ump
Ġs old
Ġf ace
Ġart icle
Ġro om
Ġint rodu
A t
Ġd ate
ĠCh urch
Ġfin ancial
en c
ĠD on
Ġa chie
Ġter ms
ar ter
Ġp ath
Ġn ov
em s
ĠĠĠĠĠĠĠĠĠĠĠĠĠĠĠĠ ĠĠĠĠĠĠĠĠĠĠĠĠĠĠĠĠ
Ġb oard
n ov
Ġin j
Ġev idence
n es
Ġleg al
com ing
Ġhim self
ĠM or
ĠA cc
at ur
ĠP at
ĠInd ian
Ġc red
P l
ra b
Ġcamp aign
Ġst ates
Ġserv ed
Ġappe ar
Ġde g
i ation
Ġhtt p
Ġeconom ic
Ġst ep
op er
Ġcl os
ĠSt ring
Ġbeh ind
ĠW ashington
Ġfr ont
ic ated
E n
h ood
Ġestab lished
Ġhe art
Ġf ile
Ġget ting
ple ment
ug ht
Ġad minist
Ġchang es
med i
ĠI nt
is es
Ġon line
ord s
f ile
B l
id ay
Ġm other
Ġide a
Ġ// /
Ġdirect or
IN G
ig ital
Ġannoun ced
Ġrele ase
av ing
ut il
u ge
p ite
Ġset t
at form
ĠP al
N ot
Ġm er
Ġf ig
Ġinst it
Ġfe ature
W hen
ĠF rench
Ġbro ad
or ks
b ased
Ġdiff icult
Ġfri ends
4 4
Ġb ar
p x
un t
ist ry
5 5
om b
Ġcl ub
Ġ %
ĠJ ames
ov ed
sy ch
com p
Ġreg ion
ĠTr ans
l or
Ġro ad
Ġa ward
ĠP aul
Ġtra vel
Ġter m
ĠD es
ĠLe ague
Ex ternal
li er
Ġ! =
Ġwant ed
o res
Ġl anguage
ĠG eneral
ay er
Ġits elf
ibr ary
ĠR et
ic o
s erv
Ġst re
c le
Ġche ck
Ġs ym
O bject
Ġm ass
ĠAustral ia
ĠD is
Ġl ives
Ġris k
n b
Ġst aff
Ġsuccess ful
d own
200 4
ĠSt reet
ĠC ons
ĠV al
us es
Ġfil ms
Ġl ost
n ers
Ġask ed
A meric
im s
Ġf ire
Ġmanag ement
O r
Ġen joy
Ġbook s
um ber
Ġass ist
Ġs ource
ĠIs rael
Ġwrit ing
Ġre v
Ġm atter
ul ly
Ġinvol ved
e ction
4 8
Ġmov ie
ĠE ar
i ber
M an
( $
' m
Ġth row
Ġcom ing
Ġfor ward
ĠT V
Ġp age
rou ght
ĠR ed
Ġloc ated
ĠIt al
ar c
at us
as ons
Ġw rote
ĠC ong
Ġ& &
Ġcon duct
t ies
ol ic
O T
m en
Ġconsider ed
w rit
ĠM ore
Ġthem selves
od es
Ġcurrent ly
Ġinclud es
ĠF irst
ag ement
Ġc ut
a ur
ĠJ ew
Ġh ours
o o
ip s
v ille
Ġex am
wo od
it iz
Ġpri or
ĠRes earch
Ġexpect ed
i j
ĠG roup
ic ip
r im
Ġplay er
ud d
Ġt our
i us
Ġpre d
Ġincre ase
m it
ĠD ay
an ch
Ġs ense
Ġtry ing
ĠR ober
ĠV ol
Ġf em
Ġany thing
Ġb ad
ĠComp any
V iew
Ġpro te
ecut ive
ĠC he
Ġword s
t ain
ĠInstit ute
g ing
ign ed
ar a
Ġsome one
Ġout side
Ġc al
Ġw atch
Ġsa w
Ġor g
U T
Ã ¡
Ġtra ck
Ġw oman
av y
l ight
is ions
f ort
Ġe y
land s
( ).
res p
am er
ĠIn ter
ĠP ress
id a
M od
Ġsystem s
ve y
à ¤
S et
Ġcan not
ĠIn c
ĠF rom
Er ror
Ġv ill
Ġa verage
D e
Ġtra ining
Ġe mer
Ġcap ital
Ġwh ite
Ġsc ient
Ġc ivil
ĠO f
6 5
() );
Com p
Ġc ele
s ize
oun ter
r c
Ġd am
l ocation
Ġmod ern
ĠR ich
ĠB er
D E
iz ing
Ġg irl
oy al
l og
Ġs us
19 0
Ġseem s
Ġhig her
h a
rib ution
ot o
Ġpot ential
ampions hip
ĠSt e
Ġdescrib ed
c ks
ĠA nt
m ission
ĠB ook
Ġqu ick
u x
Ġth reat
Q u
Ġst e
ĠAfric a
Ġdis e
ra z
S S
Ġprob ably
Ġr ate
id ents
ĠT er
n own
Ġevery thing
r ong
U N
Ġspec ific
Ġplay ing
' ve
m et
ĠGover nment
ĠTh om
T est
g l
ĠP ort
ack age
Cl ass
ag ed
epend ent
Ġnet work
ĠAr ch
p ose
Ġcult ure
5 00
Ġt en
t op
Ġmed ical
V ID
ĠAssoci ation
Ġnot hing
Ġlead ing
Ġl oss
air s
Ġbel ow
Ġschool s
C C
' )
and er
nb sp
Ġneed ed
Ġwho se
l am
Ġinter view
ne ction
ag o
augh ter
Ġthrough out
ĠP ublic
Ġorig in
200 3
ĠN e
Ġcomp ut
er ous
Ġqu ite
g es
ic on
I M
Ġp ie
on ent
ou l
F rom
Ġsugg est
pp ed
b it
im ately
ri e
Ġre d
Ġl ink
Ġ ess
ist an
Ġ Ð
Ġgrow th
l ink
in it
b t
orm al
Ġse par
. _
se e
o or
p ly
ress ed
iv ity
Ġproduct s
Ġrec ently
Ġn ation
ĠGe orge
et imes
Ġcont ext
Ġst ay
ĠComm ission
pp er
K ey
un k
Ġan sw
A dd
av es
ra ck
Ġmov ed
Ġs at
N o
Ġrel ated
ĠWh ite
Ġpat ients
e ch
Ġso on
Ġt akes
I G
p ace
ĠDist rict
p ath
ic ations
4 9
I nt
Ġep is
Ġacc om
ĠSc ience
Ġgover n
Ġca pt
Ġh it
us ing
Ġw ays
Ġl o
it ar
a res
f ess
6 6
Ġm ag
per ty
Ġcond itions
ur ation
an ced
Ġstud ent
Ġw ife
Ġim plement
et ers
ines e
il m
ad er
ul ations
Ġsc ience
Ġass ert
it ect
vent ion
y ing
un c
b orn
Ġbl ock
at al
Ġd rug
Ġcom ment
ind ex
Ġer r
Ġdevelop ed
p ublic
ĠS ome
Ġr ound
ĠT ex
ian ce
m on
200 2
Ġl iter
Ġac qu
Ġh ous
A fter
ol s
ĠWh ile
and id
Ġn atural
ĠG reat
st on
200 1
m itted
4 7
ĠJ e
. </
Ġc y
e ks
ĠM art
ĠJ ack
st ate
ĠE duc
Ġprovid es
um er
ri an
Ġw alk
n y
ĠB oard
ĠG reen
Ġst ru
Ġs ociety
Ġre ve
. [
Ġm atch
Ġestab lish
Ġint eg
c ome
ur l
Ġcont act
Ġevery one
T R
Ġg ave
itt ing
" ;
ar ily
O ver
Ġpr inc
Ġfor ce
Ġf ederal
ĠH all
Ġe lection
ĠF ound
ĠD an
Ġchall eng
st ance
' );
Ġm id
er c
Ġp ain
S o
Ġra ce
Ġus er
ĠM ary
ĠS im
e qu
Ġapp oint
or ing
ag ing
Ġprot ect
Ġb rought
em ic
uf act
Ġfri end
ac hes
ĠU p
Ġmeet ing
ab les
Ġm at
im um
Ġv ia
A d
Ġu nd
Ġpract ice
Ġdeter min
Ġst age
ir it
Ġsay ing
Ġqu ality
S ee
cre t
ĠI N
Ġlong er
ĠFr anc
Ġfe atures
Ġc ross
Ġde ep
ĠD ef
Ġmom ent
T ime
col or
at est
r ast
I L
Ġst ories
p oint
Ġpre t
g en
ĠFr ance
ĠY ear
C H
for ce
Ġsu ff
rem e
ĠMich ael
Ġproble ms
Ġinst ead
Ġst ation
ell ow
S E
âĢĿ .
Ġst ar
ail y
Ġprofess ional
Ġso ft
ch ange
Ġcontin ued
Ġis n
ĠA ward
Th at
[ '
all s
ix ed
Ġsur v
Ġb illion
Ġn ames
Ġh or
Ġd om
Ġem b
ĠM usic
Ġcont ribut
ar r
Ġst ri
Ġparent s
ĠH istory
ĠTe chn
ĠAn n
v est
sc ript
ĠG et
Ġopport unity
b and
com es
Ġappro ach
Ġcl imate
} ,
Ġd en
ĠJ ournal
ĠPart y
ap ter
ĠAng el
Ġc ause
Americ an
im ent
f ect
all ed
ĠM al
Ġt able
Ġspec ies
Ġh ot
Ġtreat ment
Ġve h
Ġt al
ist ics
Ġactiv ities
s ummary
tern et
m ark
ĠChrist ian
ĠP ost
Ġc ode
ar ning
os ition
Ġprogram s
se c
Ġocc ur
m ing
ĠQ ue
p art
ĠM od
b ers
ĠUn ion
F ile
Ġquest ions
al ed
f unction
ĠB el
ly ing
ĠComm ittee
ro om
O ne
Ġch o
I P
k i
Ġser ious
Ġh ope
ber g
Ġstat ement
ri al
ĠMin ister
out hern
re ct
y a
he t
Ġbe aut
p ri
ort hern
Ġch urch
iz ations
in clud
Ġim medi
ĠS ociety
Ġn ature
4 6
Ġj ournal
ĠB ill
Ġaddition al
( ),
" :
Ġcomp lex
Ġ ?
Ġtele vision
Ġprodu ced
h aps
Ġs qu
Ð °
ĠCong ress
ĠL ou
ĠS ervice
Ġorgan ization
ok en
Ġgo al
Ġcomp lete
ĠR iver
mer cial
Ġm ention
A pp
Ġbro ther
Ġm essage
Ġknow ledge
i ers
ĠTex as
Ġwe eks
Ġrun ning
ĠDem ocr
s ub
Ġlarg est
d is
ĠB en
A tt
ri ef
Ġpro gress
Ġt ou
Ġr out
Ġde ad
am ily
C T
ĠAfric an
ann el
Ġopt ions
Ġs en
0 5
n ed
o om
Ġfore ign
0 9
ĠD iv
Ġh op
F F
Ġc le
Ġcol or
Ġstat us
ul ated
Ġer ror
Ġse arch
Ġl ower
ĉĉĉĉ ĉ
ĠDirect or
b oard
p ed
Ġread ing
ĠCh inese
Ġn orth
ly mp
Ġapplic ation
Ġqu al
ĠM us
ed y
ond er
Ġpl atform
ur ity
Ġconst it
Ġfamil ies
Ġl ack
Ġb ank
Ġcharact ers
ro y
L e
Ġp urch
Ġnecess ary
Ġc ast
F orm
n av
ad o
ĠN ow
Ġproject s
ĠE v
pl ace
Ġre comm
Ġanal ysis
Ġf a
w here
Ġnov el
ad ian
ĠV ir
ĠGerman y
ig r
li ke
Ġcon v
Ġd raw
velop ment
er ve
Ġreg ular
7 8
ber t
Ġwas n
Ġres ources
Ġch arg
ot a
Ġprom ot
ĠCl ass
ab led
Ġant i
Ġ ...
A G
Ġstud ies
it ation
Ġob serv
E O
Ġdist rict
Ġtr ade
Ġteam s
Ġe ight
ill ed
Ġcol lection
9 5
Ġval ues
EN T
ven ue
Ġin sp
Ġl ic
Ġwork ers
Ġpl ans
ĠO ut
I V
199 0
Ġm is
ch an
Ġfav or
Ġbeh av
l im
p an
A b
Ġsim ply
ri a
a per
ĠL ist
Ġle ave
j s
est ival
Ð ¾
Ġdesign ed
0 8
w ith
Ġdeg ree
ult s
"> </
ĠPro gram
ĠA re
Ġcent er
St ate
Ġcons ist
Ġto wards
li ed
Ġallow ed
ĠCO VID
Ġb oy
he st
A B
Ġparticular ly
n et
P ost
Ġpr int
Ġc itiz
ĠRe view
Ġback ground
ĠS am
Ġro ck
Ġp ick
Ġcol lect
ĠS ing
ĠM et
0 6
Ġleg is
ĠAd d
Ġs il
ĠM ex
Ġdec ided
Ġear lier
ell ig
ĠM useum
Ġc andid
ĠO b
Ġdem on
m ar
E vent
ĠCar ol
L O
Ġsc reen
T ext
Ġv acc
l t
re y
199 9
Ġse ven
ak ers
ĠEduc ation
Ġal though
Ġs ort
E d
w in
ac ity
Ġpart s
Ġdef ault
ur t
Ġlevel s
Ġbegin ning
ĠSu per
Ġc opy
Ġs outh
o at
Ġmov ement
Ġmin utes
ĠRober t
O f
ĠLe g
4 2
Ġwor th
f rom
b on
er o
l a
Ġpa per
enc ies
=" ../../
Ġsit uation
' ]
Ġincre ased
Ġgr adu
Ġreturn ed
Ġim age
Ġstand ard
ow ers
ĠOff ice
Ġresp ond
ed om
ĠS y
ĠB usiness
r ide
Ġmult iple
Ġne igh
erv ices
0 7
Ġpass ed
m iss
Ġm us
ĠA lex
Ġab ility
n s
Ġcommun ities
ĠT om
Ġsp ent
A A
Ġnear ly
w ide
Ġh um
ĠM ag
ĠR oad
Ġm ax
er r
ĠS und
ĠSm ith
i i
ĠĠĠĠ ĠĠ
Ð µ
ĠF ore
D ef
Ġmean ing
âĢĿ ,
ĠO ur
ĠAc adem
ic ate
T E
__ __
Ġpre vent
Ġchang ed
Ġte ac
n o
Ġp ict
Ġf air
ĠG old
ir us
Ġman ufact
18 8
g roup
Ġs ens
ra ce
ain er
Ġgr ant
b ut
ult ure
Ġrem ember
S P
ĠM iss
ĠM ac
Ġlim ited
Ġcele br
Ġr ules
S he
Ġf elt
wit ter
` `
Ġassoci ated
Ġex cept
w ise
Ġw rong
Ġpl aces
I I
por ary
ast ic
Ġens ure
b re
ir ing
v ant
ub e
ĠP re
r ad
Ġwrit e
ĠS ub
B e
Ġkill ed
Ġgr and
Re quest
en ge
b ox
ĠFl or
E qu
Ġcor por
Ġindividual s
Ġcon cept
Ġsong s
Ġinvest ig
ob ile
ott om
Ġjo ined
Ġfollow ed
0 3
Ġany one
ĠFranc is
an ia
ĠT imes
Ġincre asing
Ġ );
Ġdis play
w ord
ĠC ath
k a
Ġgo es
us er
Ġsur pr
Ġlead ers
Ġinst ance
on a
Ġcol lege
ree k
ĠC up
Ġun ique
Ġsee k
ĠÂ £
M y
ru pt
Ġtr ust
ec k
f in
ĠSc ott
Ġatt ention
ap i
Ġhe ard
it em
U p
pec ial
u ing
ĠD el
i os
Ġpret ty
Ġlead er
7 7
ĠR el
m d
ĠPe ople
Ġeffort s
ĠB est
Ã ³
ef ore
! --
li ament
t able
ĠT HE
/ *
Ġpr ice
A cc
irt ual
i pl
Ġoper ations
ĠAr my
\\\\\\\\ \\\\\\\\
und red
ĠS al
Ġdisc over
0 2
5 8
0 4
ĠA N
Ġrece ive
Ġun ivers
Ġinc ome
cent ury
Ġth ous
........ ........
ĠU N
Ġcou ple
ĠSec ret
Ġle arning
Ġdise ase
ic ine
N ode
ad y
Ġrem ain
ĠL ife
Ġm ur
Ġmar ried
r ated
er ia
Ġact ive
Ġus ually
ate gy
5 6
Ġ eth
v oid
Ġt ru
ol f
F ield
m ore
ust ain
ĠO lymp
ild ren
ail ed
ĠRuss ia
S ystem
Ġconst ruction
Ġar ray
u i
Ġenc ou
Ġb all
ĠB ank
In fo
Ġp le
Ġac adem
Ġ ver
Ġpre m
Ġs ch
Ġtrans fer
d oc
Ġeffect s
Ġb order
k nown
z z
l is
Ġpre p
Ġh ospital
Ġpl ant
ĠCent ral
anc y
Ã Ń
id ing
Ġg e
ĠS ur
ĠW estern
P e
ĠP ri
it ness
4 3
Ġcost s
Ġp urs
Ġpol ic
ĠS ocial
i qu
ĠIs land
st e
il ed
F r
st ant
ĠK ore
ĠO ther
Cont ext
4 1
ĠThom as
ed ia
emb ly
ĠR ob
ĠB re
ro s
Ġsaf ety
ĠC ap
ĠR oman
k en
Ġinterest ing
ĠRuss ian
Ġd igital
ĠPro fess
pr int
Ġfor ces
Ġsom etimes
Ġl atest
Ġagre ement
P ath
Ġd er
Tr ans
ur ance
ĠVir gin
h an
h ouse
M A
ĠT est
Ġeas y
em pl
c her
Ġreport s
Ġext ra
Ġkn ew
ĠL and
Ġ â
Ġd ram
Ġcon vers
Ġdem and
Ġs ummer
urs day
Ġbas is
' ll
Ġcoll abor
Con fig
Ġturn ed
P r
S u
Ġexp and
Ġb ur
Ġopen ed
Ġex act
ed s
Ġd ire
Ġd aughter
Ġstru gg
ec ause
Ġex hib
l ength
A ss
et ic
In ter
5 9
Ġpur pose
? âĢĿ
v ement
az ine
M P
' :
199 8
ify ing
Ġp sych
Ġpos itive
Ġb ox
ĠR oyal
Ġcomplet ed
/ **
ĠD ec
Ġpe ace
Ġdirect ly
() )
O ut
os ing
Ġ/ >
ĠF ace
pro t
un ities
j ust
Ġtrans port
Ġcent ral
ent y
Ġeconom y
Ġsign ed
| -
Ġrem ains
is ation
Ġdet ails
oc ks
ic ago
el ine
O S
ĠB ay
w ell
Ġse c
ĠO F
ud get
Ġfre qu
ĠH am
5 7
ul a
Ġbe y
Ġass ess
it ude
Ġart ist
Ġappe ared
ole an
Ġr ule
Ġphys ical
Ġd ed
ĠFr ank
ĠW omen
ĠT ur
ĠK e
om a
Ġf irm
ad ing
198 0
g est
Ġbey ond
Ġfin ally
Ġstruct ure
Ġpa id
ĠU nder
ĠH ill
Ġsh ot
Ġv ote
ĠA tt
Ġgrow ing
vers e
ous ly
t itle
od ay
O D
ri age
ĠH en
Ġinit ial
Ġsh own
ish ing
ĠDe velopment
Ġb ill
Ġp en
Ġstre ng
at ab
Ġqu arter
F L
ĠA p
ound s
Ġprim ary
ĠW ork
Ġin nov
il s
r d
ĠI ran
or age
it ch
a ud
ĠFound ation
B uild
Ind ex
C E
S ervice
and emic
Ġins ide
Ġav oid
cont ent
18 9
i ate
Ġin form
yn am
res h
Ġcom mercial
ĠS l
ĠCl ub
Ġg un
ĠRe v
ris is
=" +
ĠI r
or ial
ĠFlor ida
Ġpart ies
con s
Ġbu y
Ġhe ar
ĠM ad
I R
Ġloc ation
S er
Ġor d
6 8
b urg
Ġoff ers
c el
ĠIn st
le ft
Ġm ach
ful ly
Ġtrad itional
Ġop in
ĠW il
ay out
Ġ/ *
Ġg as
ĠP eter
Ġbl ood
Ġf arm
ĠM o
Ġpo or
atur day
Ġp ark
R ec
Ġp an
Ġrelig ious
ĠH uman
ĠO ver
ro ad
Ġf ans
Ġm ale
Ġmajor ity
P re
ib ly
ĠJ ud
Ġpr ison
ĠN or
Ã ¼
Ġart ists
Ġest im
ĠY our
if ul
Ġse cret
ĠFr iday
Ġl ength
con fig
p m
ant ic
ĠRich ard
ed er
Ġb al
ĠAustral ian
ĠJ ose
Ġnum bers
Ġann ual
ĠL os
Ġs em
h and
ĠC amp
Ġ ult
ĠSund ay
Ġhand s
al a
Ġh ol
Ġpr iv
ateg ory
Ġs ports
ĠW ell
M S
Ġhelp ed
at re
Ġwrit er
m as
ĠCh ampionship
ĠSt ar
Ġm ission
Ġinvest ment
ĠUS A
Ġactiv ity
h i
F A
i ant
and a
//// ////
Ġsim ple
Ġcomm and
Ġhapp ened
Ġofficial s
qu ot
Ġele ment
Ġus es
ĠGo ogle
ann ed
ĠM er
Ġm ount
ĠAmeric ans
ĠSe e
ĠLou is
b uild
ant a
Ġ( !
Ġm iddle
ruct ure
Ġrecord s
Ġquick ly
ĠD uring
O P
Ġemploy ees
tr ue
Ġspe ak
en a
Ġget s
Ġrespons ible
Ġarch itect
ra ge
ter m
Ġtyp es
s m
al ing
ap ache
199 7
ĠM ount
Ġaut om
Ġprevious ly
Ġs ales
Ġent er
ĠE conom
Ġper fect
ĠZ e
Ġvill age
ĠM ost
Ġg iving
Ġsh oot
Ġad opt
Ġclaim s
Ġreg ister
Ġan c
Ġprovid ing
C ode
Ġind ependent
' ;
ĠâĢ ¦
ĠV ict
re land
ol it
z er
Ġim ag
yn c
## ##
Ġorgan izations
ĠB ig
ĠCan adian
ĠA P
Ġfem ale
Ġst ream
ĠS ervices
Ð ¸
Ġph il
Ġre ach
Ġal tern
Ġv oice
Re g
ĠSer ies
ĠI S
in n
E m
Ġ esc
Ġeffect ive
Ġlet ter
+ +
Ġcar ry
ĠT or
Ġgreat er
Ġsex ual
Ġh undred
ĠPl an
Ġadminist ration
Ġa ware
Ġpre c
i as
Ġus ers
Ġconf lic
ĠO pen
Ġappro pri
ĠTh ursday
ĠO ffic
Ġo il
ill er
hen s
ron ic
c ell
ul ate
iz es
199 6
Ġunderstand ing
Ġhigh ly
Ġdeb ut
H and
ĠS ol
Ġwh om
M L
ĠM ass
6 7
Ġcl in
Ġrecord ed
Ġcan cer
ĠU s
Ġepis ode
Ġstart ing
ĠAngel es
f r
Ġw a
Ġlaw s
Ġsc ene
t es
ig ration
S ub
anc ing
n el
it able
Ġcult ural
Ġcomp ared
Ġw ide
M ap
ĠAr ts
Ġviol ence
O L
" "
ĠT ime
Ġet c
ĠA rab
Ġg old
ĠR ad
u it
Ġ Ã
ĠW ed
ass ert
ĠM ont
Ġtri al
F l
ĠL at
ĠB i
ĠR ock
Ġcr im
Ġoffic er
ut y
Ġdemon str
Ġt im
Ġf ast
Ġar rest
Ġd ang
Ġin put
197 0
ĠAcc ording
ond ay
act ive
N A
ĠGr and
p ret
ĠS un
Ġsoft ware
ĠE r
Ġch ance
Ġbirth s
S ize
it led
Ġa w
Ġsp irit
n ership
Ġr ul
Ġrad io
us band
Ġpar am
3 00
ĠCh icago
Ġstr ateg
Ġ} );
z a
Ġr ank
Ġhig hest
Ġd ark
Ġs y
Ġd ro
E L
Ġoper ation
es ter
p onse
ul f
uff er
) (
ew ork
ob ject
s l
Ġcitiz ens
ĠV er
B A
Ġele ments
8 8
ig an
Ġser ve
Ġfail ed
Ġim pl
Ġinit i
at ively
a ctions
le vel
Ġsch ol
ĠIs lam
Ġconf ig
Ġdeath s
ord in
I A
ars h
W rit
an o
Ġcrit ical
ĠSt r
ĠFace book
Ġl ines
Ġal ign
Ġh uge
V al
ĠDiv ision
ĠAcadem y
Ġpresent ed
Ġval id
E lement
l ang
Ġdes pite
os oph
Ġdou ble
ĠMan agement
pos ed
Ġcomm it
ic ks
S p
Ġco ach
stand ing
Ġf ully
in i
a ught
ĠM att
on ents
Ġp andemic
Ġsp read
pect ed
Ġlead ership
Ġh ar
im b
Ġon es
Ġ-- >
Ġfund ing
olog ies
5 1
d en
m ine
Ġhapp y
Ġme chan
bl ock
5 4
Ġcon nection
Ġre pe
Ġimpro ve
ĠPro ject
ĠCath olic
Ġg ra
Ġpro p
ĠL ord
ĠP M
Ġal one
199 5
ĠT own
ĠPar is
Ġthink ing
C ount
Ġth us
Ġbusiness es
erv ed
Ġcrit ic
Ġf ear
ĠChar les
p ing
Ġtem per
Ġre ached
d ated
Ġapp ly
Ar ray
ĠO h
Ġind ex
Ġp p
Ġbenef its
Ġs n
Ġpropos ed
Ġg ives
C L
pect ive
Ġhapp en
et te
ĠGe org
ĠJapan ese
Ġcons um
A m
esc ription
Ġmin or
en ced
Ġcomplet ely
5 2
Ġca used
ĠI reland
ellig ence
Ġmov ing
Ġaff ect
Ġre asons
ĠĠĠĠĠĠĠĠĠĠĠĠĠĠĠĠ ĠĠĠĠĠĠĠĠĠĠĠ
Ġas pect
Ġ: =
uc lear
Ġse ctor
The y
Ġem ot
ĠH el
ĠEar th
Ġst ra
o ch
ĠB rown
Ġsen ior
! !
Ġra il
b ol
ĠG ood
Ġopen ing
Ġw ild
Ġevent ually
g n
Ġs al
st ream
ov ers
roll er
ĠCh ief
a id
M essage
Ġla un
Ġexist ing
ĠO per
Ġra ised
g ment
d t
Ġgener ally
le ctions
clus ion
et ry
erv ation
wit ch
Ġg reen
Ġthere fore
Ġmur der
Ġst ated
Ġbe g
Ġocc up
est ic
Ġth r
il ter
o very
[ ]
Ġdef e
Ġk ids
Ġperform ed
Ġst ore
cre ate
or ter
Ġc ert
ĠM em
ĠS aturday
Ġinflu ence
Ġ( )
Ġmor ning
Ġmeas ure
Ġpart ner
Ð ½
ĠG en
ĠVirgin ia
ĠM el
5 3
Ġnot ed
P er
Ġpolit ic
Ġsl ow
th let
ĠH ere
Ġp ack
O M
Ġsur round
ĠB ur
Ġw onder
ĠAt l
Ġm ap
ol k
L og
ĠH ome
ĠCarol ina
y r
Ġover all
Ġide as
Wh ile
} ;
Ġcond ition
Ġm ill
Ġl oad
6 9
Ġcor rect
Ġsh ip
Ġwe b
t ained
ĠC am
Ġc ard
g u
Ġend ed
ĠJ es
m ap
Ġimmedi ately
Ġw id
ĠJ er
go ogle
ĠE ven
Ġtalk ing
it ors
Ġun it
Ġa ctions
u ke
Ġpie ce
Ġansw er
il er
r un
Ġcon nect
Ġch ief
Ġwant s
Ġl ived
p arent
ap ers
c are
Ġtr uth
stit ution
Ġthe ory
p at
Ġsh ared
T S
ĠJew ish
Ġn ormal
Ġp m
ĠEng ine
Ġdiffer ence
Ġ} ,
Ġbr and
Ġnot e
Ġfam ous
Ġeff ic
resp ond
ĠKing dom
or ney
ĠT op
Ġed itor
R A
ar io
Ñ Ĥ
B ar
Ġun c
Ġp oll
ĠF ilm
199 4
as ion
ask et
Ġelect ric
g t
Ġcompet ition
ĠT re
Ġpolic ies
Ġse qu
Ġtou ch
n ames
Ġh usband
ur rent
ers ion
Ġc hem
pos es
Ġcomput er
T able
as tern
Ġfa ith
ĠMex ico
ĠMart in
li ent
ĠD ata
im al
Ġgo als
Ġper haps
i ar
Ġhistor ical
az on
o es
h ost
Par am
Ġp ull
Ġbuild ings
un icip
ĠM ur
Ġvari ety
in fo
b our
Ġb us
ĠThe n
b o
Ġdev ice
Ġad apt
ac ing
ues day
Ġl ab
ĠF ederal
Ġcl ient
Ġc ities
Ġprot ected
D on
Ġ ign
ĠJohn son
ĠSec urity
ĠS k
ult ural
se ction
x y
in ct
h ab
= '
P E
D A
âĢ ĺ
Ġmanag er
Ġcontin ues
ang ed
Ġreal ity
pt ions
Ġdef ined
Ġintrodu ced
Ġter ror
Ġdr ive
Ġopport unities
ĠSt ep
Ġsaf e
Ġcons ult
D r
ĠM ov
Ġl if
ic it
C all
Ġbl og
It em
Ġact ual
ens us
ram ework
az z
Ġlook s
or por
al and
Ġre ference
Ġcreat ing
Ġdep artment
ĠJust ice
w orks
Ġrest rict
atab ase
T H
Ġcle an
in put
E E
ĠF orm
k ins
Ġdef end
os h
Ġoffer ed
Ġst ock
Ġm aster
Ġc ru
Ġcap acity
Ġs ources
ĠM onday
Ġb attle
irc raft
ĠP ub
ĠA M
ĠR ights
Ġappe ars
ĠE nd
Ġan g
Pe ople
ra q
Ġex ecutive
Ġtri ed
p id
ĠC r
ĠPol icy
Ġpro ceed
Ġother wise
Ġfor ms
nes day
ĠJ o
ĠJ im
Ġsupport ed
Ġexp ress
Ġauthor ity
Ġch oice
Ġs ell
ĠF re
Ġiss ued
Ġw ear
re ate
ĠS ince
an i
B S
Ġfig ure
D is
ĠAs ia
ial og
C A
ĠMed ia
Ġsc en
Ġw el
Ġallow s
j ava
Com m
E nt
ĠComm un
Ġbenef it
ĠSecret ary
Ġref lect
Ġprote ction
******** ********
ĠF e
Ġinst r
ĠS up
and om
ĠIn formation
is f
ĠI ll
Ġcertain ly
st ances
Ġappro x
it a
Ġent ry
ĠWe b
ĠFor ce
Ġdec ades
Ġc ook
Ġc atch
Ġc risis
Ġcustom ers
Ġaud ience
U LL
n or
Ġenvironment al
Ġpro ced
Ã ¶
Ġlim it
def ault
Ġd oll
Ġag ree
Ġold er
9 7
199 2
Ġrequire ments
ens es
J ohn
st ra
ĠĠĠĠ Ċ
w est
ĠPro v
Ġconst ruct
Ġopt ion
so ft
Ġcr ime
Ġc ounter
in ition
Ġchar ge
ur ies
Ġun iversity
ĠPl ay
ĠT im
ĠL ong
P A
Ġlarg er
ĠR em
U L
Ġd ream
Ġbe coming
Ġchall enge
p age
Ġelect ed
Ġjust ice
r s
ĠW ind
Ġcl osed
b ase
ĠS il
le ep
ĠP et
s hip
Ġt ro
vers ion
Ġmethod s
an ish
ĠL ake
Ġsk ills
4 00
Ġjob s
P art
ĠJ ul
Ġwe ap
ĠSc ot
pt y
idd en
Ġnot ice
ĠComm unity
Ġres idents
g ar
---------------- ----------------
199 3
196 0
act ory
w idth
ĠSe cond
y an
Ġre b
======== ========
ĠF und
Ġoffic ers
ct ors
Ġp aint
Ġcred it
Ġform ed
ĠE very
Ġcon ference
Ġmod els
Ġev al
ing er
ĠGl obal
Ġcont ains
Ġchalleng es
Ġinterest ed
Ġem ail
ĠAl though
ist ance
Ġob vious
y t
er ror
C an
Ġp lease
ĠC are
ĠT wo
Ġdire ction
ĠP enn
def ine
ur a
Im age
il ing
Ġpl aced
Ġfound ed
st art
u a
em porary
row d
Ġr ates
Ġext rem
ĠW ood
Ġj ava
Ġli ber
Ġb rief
ĠLe e
row s
ip ment
ult y
Ġabs ol
Re ad
Ġ __
n ected
rib e
Ġfund s
ĠC D
Ġse lected
Ġa im
j o
ĠVict or
at ers
ĠProfess or
Ġbe comes
ĠS et
Ġcall s
n ode
ĠE U
ĠTechn ology
Ġd u
our ney
Ġpolit ics
Ġn il
ĠA ff
Ġcell s
ĠMed ical
Ġb udget
Ġres ource
l ig
ric s
ust er
Ġme ant
Ġfour th
Ġm iles
Ġf if
Ġin ternal
s k
g ency
Ġpat tern
Ġp et
Ġplan ning
Ġdirect ed
7 6
Ġread y
ed d
Ġla unch
Ġpower ful
ĠSt at
a o
ĠD en
ent ially
we et
Ġex erc
Ġfor ced
Ñ Ģ
Ġro ll
Ġp ric
Ġout put
Ġrese arc
Ġb ound
ra cy
Ġear th
Ġjo in
ĠAir port
ĠĠĠĠĠĠĠĠ ĠĠ
S ource
F irst
r id
ĠG ames
Ġshow ed
Ġl abor
Ġh arm
ĠM il
b ur
ĠM iddle
ĠSen ate
Ġregard ing
Ġfre edom
Ġag ency
Ġmaterial s
Ġlook ed
ĠM any
ab y
ĠS T
ĠOb ama
Ġey es
E X
lic k
Ġpress ure
Ġto ward
Ġ= ==
os is
Ġinst all
Ġtra in
ĠO ld
Ġpl ays
Ġprodu ce
ac ific
Ġbeaut iful
Ġatt end
Ġc op
ĠL ove
G e
9 8
Ġmeas ures
Ġexper t
C R
ĠA v
ĠB o
ĠBrit ain
Ġfin ished
S A
ĠCent re
Ġ ir
Ġappoint ed
n ext
gy pt
Ar g
Ġph one
P R
Ġro b
Ġstr ategy
ĠRe port
Ġcom ments
ĠS pe
Ġs ustain
Ġcomm ission
l o
Ġm arg
Ġexper ien
Ġm ental
Ġpres ence
st yle
Ġs end
ĠI raq
Ġun its
M ore
Ġm ess
Ġs rc
Ġfe et
includ e
Ġset ting
Ġbig gest
p ackage
ĠZe aland
Ġass um
ĠL ibrary
ing u
M et
Ġra re
Ġdevelop ing
raz il
Ġm ix
ol a
Ġstand ards
Ġsur face
b an
c ore
Ġlaun ched
ĠC ast
roll ed
Ġtrans l
M e
it z
av en
ill ing
Ġmy self
Ġke pt
ant ly
ate ver
ĠF estival
Ġbas ic
Ġgener ation
oc ol
Ġr ise
ar ant
Ġcirc um
Man ager
' d
if ier
in em
in y
ab ilities
Ġcrim inal
ard en
Ġl abel
in ner
Ġsc hem
Ġinstit utions
c ount
Ġspe ed
y er
Ġinterest s
ĠF amily
Ġsc ale
az ing
Ġdest roy
Ġpred ict
ĠI d
Ġd aily
AS S
Ġd og
ost on
Ġse a
ĠB et
res ult
ĠThe ir
om s
ĠH ot
Ġsol id
ĠHen ry
go ing
Ġm icro
oot ball
Ġexact ly
Ġn av
="../../ ../../
Ġmem ory
ri end
ĠAd minist
ĠD et
199 1
ell a
e ah
Ġcol umn
ian a
ĠSh ow
Ġredu ce
Ġmention ed
Ġmar riage
ĠM os
Ġview s
ĠC ivil
ĠL ab
st ruct
Ġsus p
br idge
ĠT uesday
6 1
ent ed
ĠItal y
ĠK n
Ġg one
Ġv s
Ġsh op
R et
l ies
urb an
Ġse lect
Ġopin ion
Ġrun s
Ġco ast
rast ructure
Ġfact ors
Post ed
6 3
Ġa head
ĠC EO
ĠCor por
Ġacadem ic
H istory
A ct
ir med
Ġgu itar
il i
Ġle ague
air man
Ġt ask
> &
ĠVal ley
gh an
us ion
Ġpur poses
Ġsub sequ
are n
ang ing
Ġappropri ate
ĠO l
ĠYou ng
Ġa f
Ġmay be
ribut ed
ĠItal ian
Ġnum erous
ĠT witter
Ġcomp ar
ĠWed nesday
f e
Ġthous ands
Ġre form
Ġrecomm end
c ase
Ġsit es
Ġpro s
ĠH istor
ĠSup reme
ĠPol it
ĠJose ph
uth ors
Ġst uff
we b
C o
Ġatt ract
Ġcal c
pos ition
Ġal le
Ġind ic
as y
Ġart icles
ĠChrist mas
Ġ} ;
Ġfe ed
ste in
Ġr at
ĠF ort
he w
Ġc orn
od ies
Ġyou th
t ra
Ġtrans form
ĠD i
Ġsa ve
Ġad vert
Col or
AT E
ash ion
ak istan
ot ype
Ġbehav ior
L ast
ĠD ou
ĠJ ones
Ġf ine
ist ers
h as
Ġhouse hold
Ġclear ly
ĠB oy
Ġorigin ally
ĠR os
f it
O ur
ĠOr gan
P S
Ġn ine
Ġagre ed
O C
pl it
ĠS pecial
Res ponse
in ated
un te
ĠH ospital
rie ved
Ġpart nership
Ġk m
M ar
el ess
ĠA ut
Ġauthor ities
Mod el
val id
Ġsepar ate
ĠB uild
asket ball
Ġw ood
Ġcould n
y les
p ress
et ing
Ġter rit
Ġc at
ĠIt s
Ġmost ly
7 9
Ġmus ical
ĠG all
Acc ording
Ġlearn ed
T D
Ġrem ained
ĠM at
Ġneigh bor
Ġb rain
Ġ ut
ĠA wards
Ġa ircraft
Ġb ool
Ġown er
Ġf ell
ĠIn s
U s
Ġinvest igation
Ġw est
Ġoper ating
ĠIn vest
ĠS om
f alse
Ġhe ight
ĠStud ies
m at
Ġveh icle
ĉĉĉĉ ĉĉ
l ife
or ation
Ġcomm itted
Ġim ages
ĠSp anish
ner gy
yl v
Ġfac ilities
198 9
Ġscient ific
ph p
Ġrele vant
Ġadv ant
Ġwin ning
ĠCol umb
ain e
Ġnew sp
l ook
6 2
p ost
Ġdist ribution
ce an
ĠW rit
cont ext
Ġspe ech
iz er
ĠL et
rap y
Ġdis s
l abel
Ġsupp ly
Ġte aching
H ome
ĠMc C
ĠP ower
ĠB ob
ĠIn ternet
ff ect
Ġcar ried
Ġgu id
ill a
Ġcon sequ
Ġk ing
Ġp ush
ĠP an
Ġam b
ĠâĢ ¢
ĠTe am
Ġfoc used
C he
att ers
S ome
al ign
Ġwe ight
Ġequ ipment
f s
m ethod
im age
Ġm ut
ab eth
Ġc amer
Ġlist ed
ĠB u
ĠCon ference
Ġadv oc
Qu ery
cur rent
Ġle aving
Ġit ems
Ġc ry
Ġhous ing
i at
b ed
Ġit em
ph as
Ġexc ell
ĠE lect
N ext
if ically
7 2
ĠPol ice
Ġsol ution
rel ated
ĠE gypt
E nd
c ript
Ġdo or
clus ive
Ġmiss ing
ens ions
Ġadminist r
p o
ĠFrancis co
ĠH aw
ĠWilliam s
ivers e
Ġe ast
art s
Ġsc ore
G roup
Ġapplic ations
Ġdam age
ĠL iber
Ġwind ow
Ġs av
ri x
Ġdep end
Ġsee ing
Pro perty
ĠS qu
U ser
ĠWh y
C lient
b i
Ġident ity
Ġdec isions
oc racy
Ġrequ ires
E ng
E M
app ing
Ġinter pret
ĠWe ek
Ġcor respond
Ġmanag ed
ĠEn ter
Ġdef ense
ĠM en
Ġra ise
Ġconflic t
; &
st ract
ĠJ oe
ig en
O W
Ġn one
ĠS and
Ġs un
ĠJe ff
ans as
ĠW ater
ef ul
ĠPar liament
it age
ĠWh o
ĠDe v
ĠT our
Ġw itness
Ñ ģ
Ġapprox imately
Ġe c
ĠAl so
Ġstra ight
Ġs pect
ĠW all
Ġact or
Ġh our
Ġproper ties
ot ed
ĠM a
N S
Ġpat ient
ĠA uthor
Ġfeature d
Ġfield s
Ġrest aur
ĠĠ Ċ
Ġn or
ri er
Ġarg ument
Ġp il
Ġident ified
g al
Ġn ode
ers ey
Ġaward ed
ĠM ot
Over ride
Ġt ick
Ġpract ices
Ġbelie ved
che ck
o z
wh ile
Ġeas ily
Ch ar
Ġill ust
y th
ploy ment
ect or
ĠK h
l ock
Ġsp ot
F I
u nder
and roid
Ġreve aled
Ġhe ro
Ġtest ing
Ġdoc uments
F C
Ġform at
sec ut
urn s
ER S
ĠW ay
Ġcover ed
r ate
Ġl ock
ĠB ecause
G B
al le
Ġd omin
Ġconcern s
Ġfail ure
U E
Ġdetermin ed
Ġequ al
i ples
as ks
ian o
du le
Ġbel ong
ĠÂ »
i h
% )
198 8
U M
um s
init ely
Ġreg ional
g reg
ĠGeorg ia
Ġst reet
ĠHe ad
ĠI D
H T
am ing
Ġp un
lish ing
ay lor
icro soft
ut ch
âĢ ħ
Ġed ition
ind ing
EC T
Ġexper iences
Ġimport ance
Ġrepl ace
ĠN orthern
or row
d ev
ĠS ar
p ower
ĠRe ad
Ġn uclear
Res ult
Ġw arm
ok es
ourn ament
Ġpict ure
=" #
l aw
ĠF ree
ĠB oston
ĠE p
7 3
âĢ ¢
cl aim
ol ved
Ġcomm ittee
ĠE mp
Ġf an
Ġis land
Ġl ay
st atic
Ð¾ Ð
ĠN Y
ic an
Ar t
G L
Ġfollow s
Ġup date
Ġfore st
Ġinstit ution
Ġn arr
7 1
Ġmov ies
q l
N ow
ON T
m ember
om y
ĠB razil
Ġnot es
Ġfeel ing
AT ION
Ġj oint
ĠG ra
f unc
or al
Ġfl ow
Ġhe aring
ĠAnd rew
Ġm ist
ateg ories
in et
ind er
Ġc rowd
R un
B ack
M ethod
ĠV is
ot al
d r
Ġdeter mine
d b
D ate
Ġhe avy
ad or
St ream
rou d
Ġar m
Ġp ages
wh ich
c an
ĠS outhern
Ġint ended
Ġapp arent
R ef
Ġcon clud
ĠB as
Ġent ered
Ġc ool
ĠAb out
Ġun less
Ġdiscuss ion
H S
. âĢĻ
ans ion
Ġen force
Ġcent re
Ġtechn ical
Ġv ision
ell ed
uck y
T V
ĠSt and
Ġreturn s
ish op
ĠO k
Ġset s
8 5
Ġcount y
h ire
Ġanim als
ar ian
Ġf ra
Ġcon cent
lic ation
Ġbroad cast
ĠJ on
Ġt rou
Ġseem ed
Ã ¤
Ġl it
g ent
Ġcomp os
ĠCh ris
m es
Ġrespons ibility
Build er
ĠG al
Ġsat isf
7 4
D es
b a
ĠG ame
ĠQue en
ĠIr ish
iz abeth
ĠK en
Ġw ait
Ġapp lied
P D
Ġen h
Ġacc ur
Ġc ars
Ġsur vey
ĠL ike
em y
t a
Ġneg ot
ĠSp ace
hed ul
Ġtre nd
Ġdi agn
d a
Ġhom es
> (
Ġs ession
ĠB ow
Ġs ale
Ġconduct ed
ĠP op
ribut es
Ġd raft
Ġsom ew
Ġt end
ĠH on
and on
c ss
R ep
m ond
Ġj ourney
ĠSe ction
Ġd ra
ock et
osoph y
ĠRepublic an
ĠJes us
ĠP akistan
Ġstud io
ru it
Ġprofess ion
ĠK ar
l ib
ĠChar l
Ġex ecut
Ġto ols
Ġc ore
c all
D o
Ġg rew
empl ate
ĠNet work
id en
Ġgu y
=" ../
Ġded icated
Ġs port
ip al
ĠR E
ĠDemocr atic
00 00
n ic
op en
ĠL ic
g a
ĠO x
ĠRec ords
ing ly
ag on
O ff
Ġwould n
l ong
Ġrefer red
se arch
Ġent ertain
ĠMich igan
Ġanc ient
ad el
Ġknow s
Ġmult i
Ġtell s
Ġun s
Ġattack s
ri p
re al
ren ce
Wh y
M ay
re qu
ĠC ode
Ġbe at
ic ed
Ġfl oor
Ġt ree
Ġf uel
ent h
Ġgirl s
ad ium
ind ow
Ġserv ing
ĠM ike
am in
P ol
u ous
198 7
Ġn ative
ĠR ail
og rap
ĠE ll
19 50
pp ing
Ġh y
Ġwe alth
Ġr ich
G o
Ġhelp ing
c a
ov iet
198 6
g ers
Ġst d
Ġfac ility
Ġare n
ograph ic
Ġbl ue
Ġd ivid
Ġc ouncil
Ġcho ose
row ser
ĠM ax
Ġb an
Ġstreng th
ĠL u
Ġprot est
Ġsh ares
ĠEx ecutive
ĠW al
Ġsit u
Ġsl ight
8 9
Ġprofess or
ĠEn vironment
w an
ĠJ r
ig ger
Ġdiscover ed
Ġappro ved
mod el
ink ing
Ġm agn
am m
Ġexp ression
Ġdou bt
ĠInd ust
ĠG L
m ax
ĠOr der
or a
Ġ( $
Ġschol ars
oc ument
Ġf resh
; </
Ġspec ified
ly wood
du ction
Ġshow ing
] [
In put
Ġclass es
ath an
Ġs an
Ġclaim ed
Ġd im
Ġrem oved
ĠU k
i pe
Ġdep art
Ġadv ance
T op
Ġle tt
ĠG reek
O per
Ġg ender
ĠB ack
Ġtrad ition
n am
C S
at i
T Y
et ime
ĠĠĠĠĠĠĠĠĠĠĠĠ Ċ
Ġf le
ris on
cl ient
Ġey e
Ġres ident
ĠJack son
Ġown ed
Ġdom estic
Ġl oved
Ġvict ory
sc ape
Ġcre ation
m m
ĠCol or
e vent
Ġfind ing
Ġr an
as ure
ĠI ss
ĠP acific
Ġcall ing
] )
Ġfavor ite
cl es
U til
ĠIn f
ĠL og
Ġex change
ĠE nergy
Ġapp rec
Ġpers ons
anc er
ang es
Ġjud ge
ĠSc iences
Ġg raph
ĠKore a
Ġdis p
Ġconc ert
rom e
Ġv irtual
Ġra pid
Ġcont ain
w ar
St atus
oth ing
oun sel
ig er
Ġdec ade
ad ata
Ġ( "
Ġaff ected
Ġm useum
Ġmarket ing
Ġdiv ision
ar ks
198 4
Ġw ww
erson al
el er
Ġw ish
Ġyour self
Ġsupport ing
ol ve
m ath
T O
ĠH or
ĠL im
Ġadv ice
D S
Ġsing er
Ġachie ve
ĠScot land
ĠF ield
Ġfor t
Ġtru ly
ot ic
Ġsc ript
cent er
B I
Ġinf rastructure
Ġwrit ers
Ġsub s
Ġhold s
fer red
anc he
ĠW ild
at ically
ec ution
Ġdist ance
ĠT oday
ĠM u
ĠDan iel
ĠSt an
Ġcommun ication
T C
Ġwh atever
ith ub
Ġrout e
Ġalle ged
Ġsol utions
ĠSw ed
ag ram
ĠC L
Ġqu ant
ylv ania
Ġrelig ion
Ġcandid ate
Ġest ate
Ġlegis lation
er m
Ġresearc hers
The se
pl oad
ĠS ir
Ġsub stant
Ġer a
Ġteac her
L iving
is er
Ġident ify
Ġoffer ing
Ġ row
Ġinj ury
ĠMed icine
ĠC ross
Ġm obile
ĠT ele
Ġdeb ate
Ġear ned
Ġs ister
Ġst ars
Ġ ice
iss ions
Ġc ash
ro vers
k er
Ġl ov
Ġneg ative
ĠL ast
ĠOh io
Ġins urance
198 5
opt ions
ck now
ĠV an
in ent
Ġf ant
ĠAn y
Ġcom fort
Ġpre par
ĠS ports
Ġsp end
ĠSp ain
bur gh
Ġinc red
Ġlist en
ĠBl ue
ĠN ULL
h at
Ġtest s
Ġand roid
ed u
N et
Ġem phas
Ġatt ended
T P
ur er
Ġlegis l
ĠC ard
Ġestim ated
hip s
il ly
Ġextrem ely
ord ers
fort un
Ġtri p
H el
ĠTr ust
Ġdr iver
s en
Ġmach ine
Ġpart ners
Ġw all
Ġhon or
) </
Ġstat ements
Ġcol on
Ġmark ets
Ġele ctions
Ġgr ad
r ant
O ther
Â °
Ġconcern ed
ffic ient
ĠG ar
Ġdr iving
Ġcorpor ate
Ġaltern ative
id ers
Ġm atters
ĠAN D
Ġcre w
ins on
Ġaccept ed
Ġs umm
he nt
p ass
ĠAs ian
Ġw idth
C D
Ġsmall er
ĠJ un
Ġr iver
Ġrepresent ed
Ġal t
Ġfl u
Ġpass ion
Ġab use
Ġdev ices
Ġess ential
ĠA ri
ĠAss embly
bre ak
Ġvol ume
int on
W eb
ĠPr ime
yd ro
ollow ing
Ġclin ical
Ġco oper
Ġ Î
Ġrecogn ized
Ġexperien ced
ell er
Ġag encies
b ury
T ag
re quest
ĠW ales
ĠF ire
umn i
} }
e en
Ġrepl aced
Ġvis ual
Ġcircum stances
he dule
G u
Ġappear ance
v a
St art
ob e
Ġh ab
Ġsh ape
Ġsupp osed
ĠCh ildren
T ER
D uring
at o
Ġmag azine
Ġar my
v ard
Ġindust rial
ĠII I
Ġl ibrary
15 0
ar p
ĠRet rieved
G ener
Ġliter ature
ĠJ ersey
ĠDes ign
Ġexpl ained
Ġ ille
ĠC y
Ġstep s
âĢĻ ,
ĠF ootball
f irst
Ġfig ures
Ġam azing
end ment
Ġannoun ce
Ġconf irmed
Equ al
Ġmain tain
ĠK enn
Ġtra ffic
yp es
oss ible
Ġarr ived
erv ative
Ġro les
ĠAm azon
ap h
Ġse lection
Ġ- >
Ġre new
C ell
Ġhapp ens
str ong
Ġk id
ic ial
Ġ< <
B ase
g ithub
ĠP o
ĠD own
ĠS aint
ar row
fin ished
z en
Ġreg ul
ĠF red
Ġfight ing
Ġher self
ir ty
ĠThe atre
Ġfun ctions
Ġb ed
qu ery
Ġgreat est
Ġfil es
Ġcon nected
Ġcreat ive
E W
ĠCon stitution
ĠBro ok
Ġd ynam
Ġman ner
s ylvania
Ġint elligence
8 6
ph one
ĠPr ince
Ġcl ients
y e
I O
ĠB ase
am ples
Ġc er
ĠN ations
Ġst ations
Ġpos itions
' '
Ġgu ys
Ġm unicip
ad ow
ĠN ight
ã ĥ
ino is
Ġsh ift
Ġrem aining
ĠJ ac
on ym
opy right
ĠN avy
< !--
Ġj ur
Ġt it
Ġphot o
names pace
Ġrem ove
Ġsm art
d f
ĠPal est
Ġco al
Ġappe al
art ers
Ġpurch ase
ur d
ost er
Ġveh icles
l en
ĠLat in
Ġsh ut
ĠSe a
ĠC A
ĠS ummer
Ġm and
ĠCo ast
ig inal
Ġs ac
i ency
arg s
Att ribute
Ġto ol
Ġalbum s
ĠB oth
ĠAn al
ĠI P
Ġlarg ely
Ġre ject
eg in
Ġag ric
l s
Ġchang ing
re es
Ġper man
ound ed
re hens
Ġre venue
Ġobject s
udd en
Ġa uthors
Ab out
Ġact ing
198 3
Ġoccur red
Ġf it
ist ration
W ill
ĠF ar
d raw
am il
k es
Ġadvant age
ĠAf ghan
Ġinc orpor
Ġa cknow
Ġ ur
Ġpric es
k in
P oint
ĠApp le
Ġm ent
Ġdo ctor
ipp ed
Ġprocess es
ĠV iew
E ar
Ġfil ed
Ġcar bon
Ġun ion
Ġrelationship s
pre ne
Ġhold ing
Ġvol unte
Ġthrow s
Ġde cre
iqu es
Ġemploy ment
ĠS af
I F
Ġprodu cer
ens ity
ĠF ood
t x
ph y
el ly
amp ion
Ġdesc ription
Ġreg ulations
ĠM aster
Ġtrans ition
9 6
Ġsu c
Ġfl ight
h ow
Ġdeb t
cre en
re prene
Ġpers pective
i ary
ang er
ul s
os en
T oken
ar ray
Ġch annel
od d
ĠD ie
ĠC oll
ĠR am
Ġbal ance
Ġprep ared
ap ed
Ġwatch ing
S ty
l ast
ĠT aylor
Ġpl ants
L ink
Ġd ie
R C
Ġwill ing
S U
Ġwe ather
ĠR h
v in
Ġcomb ined
Ġa wards
n ull
enn is
In stance
197 9
m ail
Ġ urban
Ġus eful
Ġad just
Ġf ellow
Ġs outhern
ĠM id
ĠW alk
O ptions
el lect
Ġcharg es
ĠEl izabeth
Ġmon itor
Ġre nt
do i
ide os
Ġvict ims
Ġd ig
Ġag ent
Ġaff ord
Ġon to
al i
Ġredu ced
on ic
Ġb ottom
Ġmin ister
ĠK ong
] (
Ġdef initely
ĠMin istry
ug in
\\\\\\\\\\\\\\\\ \\\\\\\\\\\\\\\\
ific ations
C ar
ĠĠĠĠĠĠĠĠĠĠĠĠĠĠĠĠ Ġ
he ast
198 2
ĠF our
epend ence
ĠH a
fl ow
ĠA ud
Ġthan k
Pro v
oc key
ĠE ach
res ents
g ener
m ir
Ġhous es
r ich
Ġext ended
ĠRad io
Ġsp ending
ole c
ict ed
aw a
Ġspec ifically
ĠT al
Ġst orage
ak ed
Ġear n
How ever
AM E
Ġteac hers
Ġser ver
ĠM P
ap ore
Ġl atter
Ġrev olution
ĠComm on
Ġb omb
Ġsuc ceed
igr ants
ĠBro ad
ag raph
ĠGu ard
Ġbeg ins
on av
Ġmot or
Ġcover age
Ġstart s
ut ely
us hed
if er
Ġengine ering
ex pected
ĠS oviet
ird s
ent ry
as er
Ġa id
Ġfund ament
i ro
B O
is ms
R el
Ġpl anned
E l
S C
âĢĻ .
Ġf ix
eb ug
Ġp roud
Ġn ice
ad ed
N ull
Ġext ent
O pen
Ġsc ored
ĠR ay
Ġter min
d ir
t arget
f oot
I ST
ĠAdminist ration
Ġeduc ational
Ġacc ident
Ġemer gency
A ction
j a
Ġrecord ing
Ġcon vert
ĠD ar
Ġv eter
ĠC ub
Ġallow ing
ĠJew s
N av
Ġin n
Ġret ail
d ep
Ġadv anced
ĠOx ford
Ġprom ote
Ġregister ed
Ġhand le
Ġn orm
Ġcommit ment
Ġmax imum
( (
Ġsc ope
ĠPenn sylvania
Ġanim al
ion e
p ack
Ġscient ists
Ġra c
Ġse asons
Ġserv es
ĠE astern
ĠS ong
Ġrel atively
ĠL ittle
Ġhistor ic
Ġsc hedul
ĠAd v
Ġse at
ĠL ew
H O
Ġp owers
ĠG irl
Ġgrant ed
in er
ĠN one
ont o
ĠP ers
Ġthan ks
Ġsp ons
Ġpay ment
Ġlead s
Ġdrug s
og en
ĠR o
Ġun f
Ġ ;
Ġentire ly
Ġact ors
Ġaspect s
if orm
w ater
Ġar ts
M r
Ġass ets
Ġh yp
Ġcamp us
er ry
c ar
Ġprocess ing
act er
ĠM ah
Ġha ven
ĠPh ys
Ġn ob
R em
Ġinsp ired
r ig
8 7
Ġa st
ĠE th
te en
Ġbo olean
G l
Ġthem e
ĠR un
ã ģ
Ġpost ed
Ġbring ing
adu ate
Ġfe at
ĠOlymp ics
Ġassist ance
Ġweek end
198 1
Ġex ception
ĠV iet
ĠO p
add ing
ig in
angu ages
9 3
adel ph
Ġm ode
ĠA D
ĠD ub
! âĢĿ
L A
ĠO bject
Ġdram a
eng er
ic ide
ĠB ern
m osp
Ġf ashion
ĠM ic
M in
F O
ĠDon ald
et ts
Cont ent
ĠT em
ĠĠĠĠĠĠĠĠĠĠĠĠĠĠĠĠ ĠĠĠĠĠĠĠĠĠĠĠĠĠĠĠ
comm on
ER T
Ġtemper ature
ab s
Ġhel ps
ĠK im
ord an
ly n
AR T
Ġemploy ee
Ġmass ive
est ed
. '
th at
t hen
Ġg ain
ĠK ent
ĠIll inois
Ġch apter
Ġcl oud
Ġmin imum
8 4
Ġtechn ologies
Ġob tained
a uthor
? "
Ġn orthern
ra c
eg er
el ines
os es
ol es
Ġbr ings
Ġadd ing
Ġp od
Ġinc ident
8 2
ĠCorpor ation
ĠR og
Ġprim arily
ĠW he
Ġsp ring
ch o
Ġ" ""
ĠEmp ire
Ġb ond
Ġexpl ain
iven ess
od ing
Ġv irus
ĠM ember
Ġap art
Ġb ra
Ġb urn
Ġd ance
ĠCon f
Ġv ul
P C
pr ise
Ġcont rovers
Ġconstit ution
Ġto w
g or
adelph ia
Ġexerc ise
f riend
Ġtre ated
ap pe
us al
id get
igh ter
Ġv an
i ated
Ġa thlet
Ġca uses
Ġweap ons
Ġgu ide
N e
Ġb ul
Ġdet ail
ĠSte ve
ir a
ĠSp ring
Ġv oc
ĠColumb ia
ru ption
Ġinstr ument
ĠT w
Bl ock
ĠP sych
Ġacc ord
ĠC irc
Ġclass ic
ĠS us
Ġs yn
ĠE qu
over ty
ak a
Ġgu ess
olog ist
r um
Ġs leep
ars er
ĠIn it
Ġfact or
Ġsqu are
Ġ rom
ĠEd ward
Ġt aught
Ġwid ely
ĠR om
ĠRe al
Ġexp ressed
Ġexper ts
ast ers
b b
ĠWil son
ĠS her
el a
Ġpub lis
Ġstruct ures
Ġc old
am ber
ĠL ear
Ġhigh light
ĠW in
S ec
L C
Ġsignificant ly
Ġra in
{ \
Ġb asketball
Ġimplement ation
Ġseek ing
ach us
r ical
Hand ler
ĠE X
Ġdiffer ences
ĠEngine ering
8 3
V is
f ree
T e
act s
Ġworld wide
9 4
onav irus
Ġdis cl
6 00
j av
J an
ra ine
per ties
Ġcomb ination
new s
sh ire
Ġel im
Ġc ategory
ph a
Ġrec over
ĠF ox
Ġpl ot
N umber
ĠP rem
Ġact s
Ġdoll ars
k o
Ġhundred s
Ġcons c
Ġb att
ĠC all
Ġadopt ed
Ġst ress
ik i
ĠSt ory
ĠB ra
Ġpie ces
se y
Ġrece iving
Ġult imately
Ġsold iers
Ġmarg in
Ġ util
Ġd rop
ĠW is
ĠD C
Ġext ends
Ġhot el
Ġdang erous
ear s
ire ment
ĠBook s
A ccess
Ġpublic ation
Ġdist inct
ro g
9 1
out e
Ġv ent
197 5
Ġrep resents
Ġcharg ed
ĠB ul
ag ues
u ps
ĠBe ach
Ġcustom er
Ġr ural
Ġstud ied
ist ant
het ic
Ġgu arant
Ġj ump
Ġconvers ation
197 6
B uffer
but ton
Ġcont emporary
Ġlic ense
J ust
Ġgood s
H ere
ĠC ro
is d
p ers
il a
r l
ev in
ivers ary
Ġ icon
hold ers
" ).
D irect
Ġun known
th rop
197 2
c oh
Ã ¨
Ġn omin
Ġsuggest ed
ak s
Ġad vent
ce ived
er a
en ame
ĠP age
ĠOn ly
Ġstand ing
197 8
c al
if ies
im ents
Ġw estern
Ġmet al
Ġcandid ates
writ e
Ġeval u
ĠCar l
Ġn om
Ġneighbor hood
Ġf iction
ĠEx per
ser ver
he ight
Ġexcell ent
s rc
ĠFore ign
j son
ĠH ong
9 2
ĠOffic er
is hes
ens ation
Ġdeliver y
ĠF air
Ġv en
Ġrel ative
ĠA ccess
Ex p
Ġdef inition
m al
8 1
S ince
Ġwin ner
Ġsol ar
Ġp al
Ġaccom pl
un finished
Ġreport ing
Ġact ress
Ġin tern
o ir
achus etts
Ġm ort
Ġbu ff
ĠSu pport
Ġt ag
" ),
se lect
Ġref uge
Ġarg uments
Ġvacc ine
Ġad ults
Tr ue
Ġarrest ed
196 8
ĠAff airs
Ġsound s
ĠGover nor
ĠE nt
Ġprogram me
red it
op her
ch ild
Ġopp osition
ĠU se
Ġfe els
Ex t
ĠPhil ipp
L ine
Ġend s
ĠC at
Ġtro ops
Ġt ournament
st atus
un s
D esc
Ġfac ulty
Ġexam ples
Ġchem ical
Ġtyp ically
Ġdown load
h ar
Ġfact s
Ġ+ =
end ar
Ġcont rast
Ġrespect ively
are t
Ġgovern ments
Ġwa iting
hem at
Ġpan el
Ġw arn
Ġexist ence
ĠM ajor
on ly
Ġsp oke
ĠH y
Ġaut o
s es
j e
ast e
Ġinit ially
Ġown ers
Ġal leg
Ġaccount s
Ġcamer a
opt ion
Ġl ose
ĠP ass
A p
Ġre nder
Ġacqu ired
ick ing
Ġsec ure
h op
197 4
ĠT ri
og y
Ġdel ay
Ġeven ing
Ġmain ly
av al
ĠSch ol
Ġp air
M on
p et
Ġmill ions
n ight
P age
ple te
ĠA ge
196 9
Ġin ternet
Ġso le
Ġb odies
Ġs ides
ind s
Ġcour ts
mer ce
app end
Ġp hen
Ġent itled
ĠP en
Ġresult ing
F actory
ĠR od
Ġwe ak
Ġrem ov
D av
ĠL ive
ĠS ym
Ġph ase
ĠAg ain
ĠT O
ĠHol lywood
Ġenforce ment
Che ck
ĠC ur
Ġparticip ants
igen ous
R I
ch ar
ĠL abor
v ements
Ġwin ter
D ec
Ġprov ision
Ġch ain
V ersion
Ġread ers
pro fit
Ġfamil iar
RE F
ir ms
P RO
ĠB ush
19 40
ĠB BC
st one
25 0
Ġco ordin
Ġcer em
P ort
head er
Ġgl ass
Ġte en
Ġobserv ed
197 3
Ġplan et
ĠR en
or ough
ĠR on
a fter
Ġgu ard
Ġd uty
Ġask ing
ĠDav is
Ġle aves
Ġalong side
er g
Ġyoung er
ef t
Ä ģ
Ġf asc
Ġs oul
c hen
Ġdeliver ed
197 7
p ool
ow nt
ĠC a
ĠB ell
F e
Ġtw ice
Ġdescrib e
Ġch ampionship
D et
so le
ĠA ction
Ġmot ion
Ġca ught
Ġha ir
Ġreview s
Ġgradu ate
Ġs udden
Ġreg ions
( {
ad s
Ġloc ations
Ġon going
d l
Ġcom edy
ress ive
A V
e per
Ġv ac
C P
8 00
ĠP oint
M en
t rack
Ġspe aking
M ed
H is
Ġs witch
P ub
Ġtre es
Ġg ather
ĠL ight
Ġhon est
Ġnewsp aper
ain ts
Ġsub sc
Sty le
Ġdecl ared
T ags
Ġo vers
ĠC H
it als
ĠSing apore
y ers
Ġis ol
Ġfin ish
Ġassoci ation
nes ota
? ?
Ġfl ood
ĠB attle
Ġkeep ing
Ġris ks
Ġshoot ing
Ġex pos
Ġm ixed
se x
ĠStep hen
OR T
end if
Ġput ting
Ġprov isions
Ġinter face
Ġind eed
ĠL uc
ific ate
fortun ately
ren cy
in ity
k ing
ipp ing
ĠT H
ĠTh ree
and y
19 30
Ġfor th
Def ault
in st
ĠReg ister
ellect ual
Ġ{ @
197 1
C al
ot he
Ġp ool
ĠR ome
Ġg ar
t aining
Ġsh aring
ĠMus lim
miss ions
Ġf ish
ĠS on
K E
ĠB ang
AN D
Res ource
b ro
Ġincreasing ly
Ġfind s
le ments
Ġro ot
ĉ Ċ
Ġn ations
ĠM ethod
ĠW ars
S im
p ng
Ġrecogn ition
ou ston
Ġman age
ĠI T
ĠTh rough
su pport
Ġport ion
S m
ol is
z ona
1 20
Ġu pper
Ġprinc iples
ĠC ov
ess ions
L S
ann a
ĠĠĠĠĠĠĠĠ Ċ
ut s
ĠW here
Ġad ult
ĠC orn
man n
et her
Ġint ent
p erson
Ġpl us
Ã³ n
ES S
Ġrec ip
Ġres olution
Ġp ra
Ġtw enty
Ġcons umer
ic ian
Ġd iverse
W ell
Ġfl ag
Ġst orm
Ġcorn er
ĠB al
Ġb g
Ġun able
pt r
ĠArt icle
ĠD isc
ĠRep resent
Ġs oci
Ġtra cks
ĠPhil adelphia
AB LE
ob s
ov a
em an
ĠMass achusetts
Ġrepe ated
l ines
ĠAg ency
Ġsur g
D P
ĠRev olution
Ġw at
Ġhum ans
M ark
ĠG ener
Ġsugg ests
Ġturn s
Ġcol lected
we ight
Ġl ies
Ġbehav i
Ġr andom
ĠU r
Ġsurround ing
Ġbr idge
Ġvul ner
Ġtell ing
un ting
Ġhe av
Ġem issions
Ġposs ibly
Ġhe at
Ġbelie ves
ir ation
x ml
C urrent
ĠG ree
ĠC apt
y o
ĠIm m
pro perty
p ush
Ġorder ed
Comp onent
' .
end a
is her
Ġstop ped
s ervice
ĠM ain
ĠV ice
ĠO R
Ġcol le
196 7
Ġsym pt
Ġfr ame
Ġdiscuss ed
ĠH and
Ġslight ly
Ġwor se
Ġacc used
en ant
im a
ĠCam bridge
pr ivate
Ġocc asion
Ġcollabor ation
l ers
Ġv ast
Ġch osen
ul pt
Ġel ig
s g
Ġb reat
b ell
u able
ĠN on
rehens ive
ĠR ight
A F
ĠV ill
erv es
ĠAn other
s pec
P at
Ġenjoy ed
form at
ĠN az
ĠL o
im g
L et
Ġat mosp
Ġexp ansion
ps on
Ġ iron
B U
Ġperson nel
out s
Ġcomp onent
ĠE st
Ġstrugg le
ĠL i
Ġphot ograph
Ġc as
th ur
Ġt on
Ġar ms
Ġdec ide
ĠTor onto
Ġachie ved
Ġexpl ore
Ġdi pl
M O
Ġphot os
Ġatt orney
AL L
re ement
g le
ĠLe ad
ele te
C reate
Ġfound er
Ġfil ter
Ġed ge
ĠA R
ĠEconom ic
Ġtal ks
Ġappro val
ĠH om
ĠB iden
Ġrem ark
Ġschem e
Ġc e
Ġarchitect ure
Ġprof ile
L oad
ĠL ine
Ġpolitic ians
1 000
ĠIslam ic
T A
ĠCont rol
Ġt un
w orth
d es
ã Ĥ
enn es
ĠM ir
al ty
Ġp it
ĠM arg
Ġem pty
Ġfor g
194 5
ĠD E
ĠN C
im er
Ġsh ock
ĠF ord
ry pt
ĠM A
I B
ĠColor ado
qu ir
Ġb ought
Ġr ough
Ġepis odes
Ġsuccessful ly
Ġimpro ved
ĠAs h
Ġv irt
ĠÂ §
Ġmat ches
ĠHar ry
ap es
g ov
ĠT ype
ĠG i
om ic
ĠT ax
B ook
C ons
Ġpass ing
E very
Ġsu fficient
Ġsuff ered
Ġs ought
Ġb anks
Ġeas ier
Ġassess ment
ask a
ĠCount ry
Ġret ired
oc ated
Ġstand s
eder ation
Ġm el
Ġass ault
ot hes
hem a
d ates
atal og
ĠH u
itar ian
ĠFin ancial
Ġparticip ate
Ġob tain
Ġtal ent
ĠLic ense
Ġorgan ized
ĠF urther
Ġf illed
Ġsym bol
ow a
Ġ( (
b al
ĠJe an
Ġinvest ors
K e
ĠUn ivers
Ġfif th
pro ject
Ġdisc rim
Ġkill ing
ĠH ard
Ġarr ang
Ġstrateg ic
ĠN ic
Ġdet ailed
} )
//////// ////////
19 20
Ġadv is
ĠSe ason
ĠM icrosoft
ĠL td
Add ress
is l
ele ment
ĠAlex ander
Ġext ensive
r ine
ocr atic
Form at
ot es
Ġfav our
sc ale
ual ity
Ġwor st
Ġord ers
Ġup dated
pro cess
ĠY es
ĠĠĠĠĠĠĠĠĠĠĠĠ ĠĠ
ĠAl bert
Ġhealth y
Ġrel ation
Ġlett ers
A ut
Ġl osing
D ep
und le
Ġend ing
Ġpre gn
( &
Ġwel come
ĠE ric
w ing
um es
ĠAre a
writ er
ĠS anta
Ġsk in
p op
Ġreason able
Ġc art
ĠGu ide
per ial
Ġclos ely
ib ilities
iv acy
in ating
T wo
Ġhapp ening
p y
bt n
ort ion
ĠCh ild
ĠVictor ia
f ound
Ġev olution
Ġanal y
Ġposs ibility
* /
ĠA venue
it ory
f a
Ġeng aged
ĠTh ose
> >
Ġb atter
ĠS at
Ġen able
ĠA li
ĠTh us
Ġexc ited
ĠTur key
Ġtop ic
N ov
m ont
Ġob lig
um a
l ocal
A re
An y
is a
Ġterrit ory
U I
Ġcont aining
old er
____ ____
Ġstre ets
r as
Ġent ity
ĠPro te
Ġschedul ed
Ġmor al
le ts
ĠE s
if est
Ġsever e
Ġthought s
j ection
ĠD igital
Ġvict im
p ol
ĠS a
Ġfeat uring
oc us
N ational
ĠC re
Ġille gal
Ġbg color
il ton
V ER
in ations
ĠB a
S ON
Ġdis miss
ĠOn ce
à ¥
Ġfac ing
Ġv ideos
ĠLew is
Ġs elling
g ate
Ð »
re nder
Ġab andon
Ġex ists
Ġopt im
ol n
Ġmod ule
Equ als
Ġvisit ors
ap se
ten ance
app ed
Ġemot ional
ĠSt ock
Ġmed icine
ĠPh oto
Ġapplic able
Ġperform ances
% .
h r
Ġimp ossible
F unction
app oint
Ġexhib ition
[ "
Ġd atabase
P M
Ġro t
Ġinnov ation
Ch rist
Ġb aby
ar ry
Ġelect ronic
ĠN FL
Ġinvol ving
om et
ĠSt aff
Ġunder t
Ġg all
Ġnet works
Ġdes ire
196 4
Ġvis ited
p es
Ġnew ly
Ġf ixed
Ġl anguages
ĠP u
Ġsign s
ĠMin nesota
f ind
IN E
ile y
Ġfrequ ently
Ġl ie
Ġjur isd
A c
T ube
f ont
gr ade
ĠD aily
ĠM ill
Ġpro ve
Ġbro ken
Ã §
Ġboy s
ĠB udd
ĠL ocal
Comm and
Ġdep th
Ġd iversity
ĠCap ital
ĠN S
ĠOlymp ic
Ġte ach
e z
ĠN OT
Ġscen es
Ġch art
ens ed
ĠChe ck
Ġdro pped
ĠB efore
ĠPri ze
s pe
Ġtit les
ĠC ost
M ax
yd ney
ĠO nt
m t
F in
196 5
b ottom
Out put
Ġabsol utely
~ ~
Ġassist ant
Ġnear by
Ġh all
or gan
Ġform al
ĠK now
ĠF ac
Al though
Ġsh ips
ĉ ĠĠĠ
O h
ĠBro ther
T ra
f all
Ġunder st
Ġlink ed
ĠH ay
Ġc ro
Ġmark ed
im ental
Ġp ackage
Ġc ab
Ġre put
Ġex ceed
ĠAfghan istan
ĠDes pite
ure au
P L
S H
ĠM iller
T ask
Ph oto
Ġre li
d et
Ġal umni
Ġbeh alf
l anguage
Ġp overty
ĠDemocr ats
ĠB ru
Ġm ir
W orld
S pec
Ġre action
il ty
in ate
o oth
ĠD utch
ĠC le
ne ctions
ĠPort ug
w a
ĠBer lin
Ġsupport s
B ox
I Z
Ġcomp onents
Ġbase ball
Ġcontribut ions
a ug
Ġgener ated
ĠMark et
ĠIsrael i
Ġpro hib
ĉĉĉĉ ĉĉĉĉ
ache lor
ĠF ile
Ġg ift
pt on
cre te
od ed
Ġperman ent
p ub
Ġequ ival
Ġp ed
ar ation
Ġe at
ĠB on
Ġdist ributed
ĠBr ad
% ,
Ġrec overy
âĢ ī
ĠR ef
Ġs we
Ġbr anch
th ony
il ms
ĠSt ation
m aking
} );
ĠDis ney
P res
k m
ĠHol y
Ġtrans action
ĠPer form
coh ol
Ġattempt s
Ġsustain able
ĠV en
Ġexpl ains
Ġstri ke
Ġsol o
rib ed
Ġmeet ings
ro ke
Ġext ension
sh ow
ĠAd am
N O
ag an
ĠH T
aw n
ĠInst ead
Ġadministr ative
Ġhealth care
Ġconf idence
Ġresult ed
Ġmed al
Ġclos er
os a
ra ged
Ġdestroy ed
Ġcons ists
Ġ ]
Ġmot iv
ig ious
cons in
Ġs ample
Ġf lex
Ġex ternal
is ition
n umber
Ġdet ect
Ġy ards
Ġconst ant
Ġk ick
ĠO tt
ĠPh ot
ĠAri zona
Ġfundament al
gor ith
Ġaccord ance
i y
Ġm il
mod ule
Ġsubs id
u an
Ġent reprene
Ġcont ained
ĠW at
Ġvot es
Ġres c
ĠN ick
ĠCh ange
Ġs ad
Ġf ramework
Ġdisc ipl
H L
ĠScott ish
p c
iction ary
met a
Ġeffect ively
M at
Ġwonder ful
Ġfind ings
ĠC ulture
Ġpercent age
Ġ âĢĻ
Ġinf o
ĠL ady
F ONT
Ġleg end
Ġprinc ipal
Ġc ounsel
am l
includ ing
Ġf ont
ĠPr inc
ay ers
Ġtechn iques
Ġdem ocracy
al y
P O
Ġst rict
Ġsett lement
Ġpropos al
ist ed
ak h
Ġg od
ĠMod ern
Ġunc ertain
ĠM arsh
ĠR est
Ġo dd
Ġd ialog
. ;
F ilter
Ġs plit
ĠU t
li k
Ġrel ief
Ġmanufact uring
ĠH ouston
Ġperform ing
Ġth read
fr ont
ing ham
ĠT y
Ġfe e
Ĥ ¬
Ġconsequ ences
E v
b el
ĠB ad
Ġsecond s
ĠFore st
Ġal ter
ay a
Ġfac ed
Ġres istance
Ġv ice
Ġfac ilit
A ust
Ġr ing
W ork
ĠD ate
L ength
f ol
c ers
ĠB and
Ġwas te
ig ure
Ġfound ation
on ia
Ġpresident ial
Ġc raft
Ġv o
Pre vious
Ġli qu
ent er
ĠL ook
$ {
196 6
An other
int s
ĠDef ense
h av
Dav id
her lands
ell o
n al
Ġf estival
ER R
Ġeffic ient
Ġro y
Ġrepresent ation
ĠS ign
reg on
ĠCl inton
Ġdocument ary
et ch
ic ians
O K
G r
ĠGold en
ĠA k
ĠT ro
ĠL y
Ġwrit es
St r
Ġconf irm
Ġqu e
Ġoff set
ious ly
i able
Ġele v
nav bar
ĠSy ria
Ġmin ute
Ġle ct
a is
Ġvot ers
Ġexc iting
Ġsc hedule
c alled
ĠMem orial
b les
M any
Ġpriv acy
Ġ( âĢľ
Ġcap able
_ .
Ġlaw yer
Ġr h
Ġt rib
cer ning
d escription
Ġcons ent
ĠP lease
Ġgrow n
Ð º
Ġphil osophy
: "
Ġreg ime
iam i
Ġmount ain
Ġexpand ed
ĠMag azine
Ġt ack
Ġto m
V D
Ġb ow
resp onse
Ġtax es
ou ri
Ġs now
Ġrepresent ative
ĠR yan
Ġ url
Ġvot ing
r ance
og ether
Ġmom ents
Ġass ign
Ġexpl an
ac le
UR L
C ON
c s
Ġv ess
ok ing
inc oln
up date
ĠD am
Ġaccom mod
Ġconsider ing
ar ia
â Ĩ
ur ches
Ġpar agraph
Ġf ill
or ne
Ġfe es
ĠOn line
Ġfr anch
Ġreturn ing
Ġcontin uing
Ġs itting
t ag
âĢ¦ âĢ¦
ĠKore an
b ass
M M
M ost
Ġp ure
Ġdeg rees
oc cer
Ġsu it
A uthor
af e
re ll
Cont roller
Ġopp os
ff ee
................ ................
it o
Ġprov ince
Ġst one
Ġvers ions
Ġ à¤
ess ed
ĠP ay
Ġimmedi ate
x i
Ġrem ote
ĠS ab
ĠB rian
ĠA h
ĠAr m
w orld
ex p
Ġf rag
Ġsus pect
tt p
S l
ĠJ ordan
el d
aint iff
D F
an es
ar on
Ġlo an
ĠT urn
ab et
m akers
ann y
Ġcomb at
) {
Ġex port
Ġprov ider
Ġparticip ation
1 10
Ġcr imes
M ode
Ġre pro
" ]
m ic
Ġunivers ities
Ġcont rolled
un a
ut ies
ĠB ol
Ġcy cle
Ġz ero
aud i
Ġbro ke
ĠB all
Ġrul ing
Ġcour ses
Ġoper ate
ĠN ig
Ġc overs
n amed
Ġoper ated
Ġsecond ary
// /
Ġpil ot
R S
Ġconf ident
os ure
Ġconsist ent
Ġsy nt
Ġsent ence
P P
Se lect
ĠM ap
Ġ ri
Ġmed ium
ĠC hem
Ġadvert ising
st ar
ir k
Ġst ores
ĠIs lands
Ġoffic ially
ĠJ enn
Up date
ĠD uke
L ab
Ġw al
Ġag ents
In st
Ġsett ings
Ġcl ick
ric ts
Ġdirect ors
ĠGall ery
196 3
Ġnarr ative
n ce
Ġoff ices
Ġch air
Ġc inem
pe ople
Ġphen omen
ĠUk raine
Ġm ob
ĠCl in
Ġdivid ed
ĠC ru
ol id
ĠSen ior
anche ster
Ġjo ining
Ġland scape
Ġour selves
az a
ĠC ase
he et
ĠBuild ing
ĠK ey
ĠE vent
Ġdom ain
Ġexper iment
Ġg ained
Ġpict ures
ĠLab our
Ġesc ape
cont ainer
C ase
Ġclub s
qu arters
r ane
Ġst ood
b oy
Ġwalk ing
Ġsympt oms
ĠAtl antic
ĠDe ad
ĠÂ ·
Ġne ither
p resent
Ġopp osed
k ind
Ġsign al
ang le
ĠI mp
ĠL es
ĠK at
ĠK ansas
Ġprom inent
hold er
p a
Ġill ness
Ġmess ages
Ġfor get
Ġpres c
Ġ ::
ĠPalest in
Ġst ret
L a
Ġdipl om
Ġparam eters
In it
l ights
Ġdra wn
b ra
Ġass igned
Ġh ydro
ĠB at
ĠO N
Ġaware ness
M E
ĠPol and
ĠP ot
ester day
Ġsurpr ise
ĠViet nam
ĠA S
Ġentertain ment
Ġmy th
Ġpain ting
ĠW atch
Ġref used
M ich
ut ed
Ġdescrib es
Ġconsum ers
elt a
st ep
ĠS av
ĠY et
ĠDe ath
Ġ vert
L ocation
S te
Ġredu ction
ĠH as
Ġsub mitted
c ert
Ġencou rage
Ġsubsequ ent
S earch
ĠOnt ario
Ã ±
ĠT ony
back ground
Ġread er
Ġimag ine
Ġcont ribution
Ġrestaur ant
ĠE mer
Ġcomp rehensive
ol ly
ĠW orks
ĠS em
as hed
ut her
rib le
Ġbelie f
Ġf ly
c ard
iv als
Ġhab it
O ct
i est
ĠS ite
el le
ec ute
P op
prot otype
j i
Ġf ulf
Ġb ass
Ġeth nic
Ġdis appe
Ġ ~
param s
ool s
Ġgu est
Ġm ine
cl ose
Ġn urs
ĠMatt hew
Ġt ough
ĠM S
Ġstrateg ies
Ġw ave
Ġinv ited
Ġp apers
Ġg ay
ĠR a
ĠCom put
act or
Ġnecess arily
ial s
or i
ĠAnt on
ĠB C
ownt own
List ener
Ġgradu ated
ou ch
ĠS ydney
ou ble
ĠR oss
ĠT reat
ĠT ok
Ġiniti ative
ob by
O b
ĠB ible
Ġpurch ased
ĠP C
ĠS ant
ĠD NA
Ġlot s
Ġapparent ly
ug by
Col umn
tain ment
P ublic
Ġz one
Ġintrodu ction
ann els
st d
Ġthe rapy
ĠG reg
Ġair port
Ġy es
Ġspirit ual
Ġproced ures
Ġsubject s
ĠM ult
Ġn arrow
Ġrepresent ing
ef ined
ĠP ict
Ġpolitic ian
ĠMar c
D own
rem ove
Ġencou rag
Â ©
aw s
Ch ild
W here
ob j
Un iversity
ac her
Ġl y
Ġst ake
Ġrestrict ions
Th read
a ver
ĠTrans port
ĠWind ows
ĠYou Tube
Ġeng age
ades h
en cing
D B
ac cess
al o
Ġw ins
Ġfra ud
Ġf at
D ev
Ġpro of
ĠTr ade
asc ript
Ġbo ost
bl og
isc al
Ġacknow led
ĠWis consin
ĠP rom
R ow
Writ e
Ġenc ounter
an while
Ġnegot i
Ġcontribut ed
osp itals
Ġjud gment
196 2
ĠNet herlands
se ason
Ġcomp ris
Ġpract ical
ee ee
W E
ist ent
ĠN AS
Ġch ampion
ĠD un
r ary
A Y
ĠN ame
Ġ urg
if act
ĠAnd erson
L ong
Ġbeaut y
Ġdist ingu
Ġform ation
tern oon
men u
Ġemploy ed
Ġev il
v y
Ġdefe ated
v as
ĠK evin
CO L
Ġsc ulpt
f ilter
Ġint ellectual
ri ends
b ec
Ġsuff ering
ĠN ext
y ard
ĠC ON
Ġd ry
ri ate
Ġpre ced
< ?
ĠCo oper
Ġcommun ications
ĠR ose
g ian
h us
ĠA L
se cond
Ġcor onavirus
ĠF uture
Ġde leg
Ġprom pt
Ġad mitted
Ġcl ar
Ġdise ases
Ġprofession als
ri ers
att r
IN T
. /
dis play
Ġse vent
Ġm olec
a a
er en
ĠCon nect
ĠAP I
ĠF all
AC K
f inal
s ite
is ations
Ġsomew hat
Ġy ield
h igh
Ġoppos ite
Ġinform ed
Ser ver
v ol
ra it
Ġguid ance
ĠHot el
ĠH op
ul ating
ĠL iter
ennes see
Ġann iversary
Val id
ĠC reat
G A
M T
r ase
c ow
ĠM oh
em eter
ĠJan e
out put
Ġexp ensive
ĠM ilitary
Ġinnov ative
10 1
Ġqu iet
d esc
Ġmiss ed
RE S
is k
if ts
X X
B efore
R L
g s
ast y
ĠCL ASS
L ocal
Ġgu ilty
Ġjournal ist
U nder
Ø §
Ġgovern or
Ġtop ics
Ġprote in
But ton
Ġsp aces
Ġbig ger
G O
t ure
Ġserious ly
G eneral
ĠEx t
Ġcapt ured
Ġhor se
IT Y
ĠH ung
St ud
Ġprom ise
ĠSystem s
n on
Ġpot entially
am i
st yles
Ġcon cerning
rag on
Ġext reme
Ġcont est
ĠPat rick
Ġincre ases
Ġre in
ĠMr s
N ames
ot ten
ĠBr idge
Ġcall back
ĠT ai
Ġturn ing
ang el
Ġant icip
Y es
li x
ĠH REF
ĠCol lection
ĠAg reement
ĠD er
St at
Ġprinc iple
ĠF inal
Ġaud io
b in
Pro t
ĠGr ant
Ġfl at
w atch
ag a
ia h
Ġp ip
ograp her
im ation
U B
ĠV ideo
Ġ* *
ĠMan ager
ĠLe on
ĠS uch
L abel
Q ue
ĠM D
ĠSh ort
Ġcont ribute
Ġinv ent
ĠT en
iz z
im ary
ĠD u
ĠS ix
New s
Ġbrother s
ab ama
Ġrecomm ended
Ġregular ly
N on
u zz
Ġs and
ĠSt art
ï ¿
Ġhol iday
ann ot
A ug
Ġinst alled
i ot
Ġpl ane
Param eter
Ġinteg r
olog ists
bour ne
Ġtyp ical
Ġobvious ly
ĠA st
Ġpar liament
Ġv ir
wh ite
ĠPe ace
ĠG ro
Ġcon ven
ĠF a
f ire
Ġ ×
GB T
ĠO regon
er ies
Ġgener ate
Ġpost s
ing le
ĠD om
Ġinj ured
ĠAcc ount
ow ed
Ġpay ing
ra v
Ġper mission
Ġmusic ians
Ġrecogn ize
Ġo k
#### ####
our se
ĠL in
Ġpl enty
ĠTur k
Ġunderst ood
ent ity
Ġproced ure
ĠH o
Ġpro port
' ).
L ayout
ĠEx pl
Ġs ick
Ret urn
Ġmy st
J o
196 1
Ġr id
T arget
Ġvot ed
Ġchild hood
Ġbr ight
ript or
ĠG h
Ġfin ance
C ache
m o
Ġtransport ation
Ġtransfer red
ĠM ach
l ah
Ġcomp ensation
Ġsil ver
on na
et a
ach ment
ĠDo ctor
he red
l ayout
Ġimm igration
id ae
Ġn ut
Ġh its
or ry
D em
ĠD ark
Ġen emy
ĠD ream
S ign
Ġrel ating
c hers
d ec
x x
Ġcommon ly
Ġqu ery
in stance
Ġexpos ure
Ġd ates
ĠA I
ĠF ull
Ġqual ified
r ont
Ġar med
ĠM s
D escription
Wh o
Ġhost ed
ĠAuthor ity
ĠC ook
ĠCor ps
ĠÂ ©
ur ers
ĠGree ce
u int
Ġr ising
Ġprof it
Ġsequ ence
Ġm al
olit an
Ġne uro
ast s
ï¿ ½
Ġthous and
Ġide al
M C
ĠC ustom
ition ally
Ġra cial
ĠN umber
Ear ly
Un ited
Ġeas tern
m ad
s i
Ġla id
iam ond
ĠL ow
ĠL incoln
ĠHar vard
Eng lish
Ġprov ed
Ġcompet itive
Ġ( '
ens or
ĠR oll
Ġinj uries
Ġreal ize
Ġcele b
Ġpol y
ĠP ract
all as
Ġse es
Ġh ate
Ġpr ime
\ "
ĠI owa
ĠR oy
ĠAr gent
ĠAtt orney
Ġcent uries
Ġal ive
che stra
Ġ ing
app y
Ġw ond
ĠL ind
ud es
ĠC ab
| |
Ġvoc als
S outh
ĠH ind
Ġcon clusion
Ġstat istics
Ġkind s
Ġsw im
ĠF le
Ġbe ar
ĠE c
Ġarg ued
ð Ł
an z
ĠS E
Ġ< !--
ĠO s
ro it
Ġc ensus
y ou
Ġoper ator
UL T
ĠB ureau
Ġex clud
Ã ¢
ĠCl imate
ĠSt adium
Ġvis ible
ĠAd vis
Ġad j
Ġ[ ]
Ġcompl iance
Ġdis appoint
Ġprogram ming
d est
ĠHe art
Ġpay ments
Ġexpl o
Ġcapt ure
Ġdef ine
Ġfl oat
Ġus ual
Ġret irement
ĠIndian a
ĠC as
ĠM O
ĠSqu are
H er
ĠN ob
Prov ider
ĠDie go
p g
Ġcarry ing
Ġrail way
d irect
ik a
d i
U rl
! "
ĠC rit
ĠM iami
ru ctions
Ġf ol
ord on
Ġelig ible
Ġequival ent
Ġdeal ing
Ġsqu ad
Ġg ene
Ġlist ening
Ġplatform s
Ġpre fer
n ie
av or
Ġcop ies
7 00
re tt
es h
ish ment
ĠMary land
ĠP itt
Ġlim its
B rit
ul ous
ĠHistor ic
AP I
ĠP ut
ĠHar ris
_ {
Ġde ploy
v i
Ġcompar ison
Ġm outh
Ġport ray
ĠC amer
Ġproper ly
Ġmain tenance
Ġcon vent
ĠC N
Ġca using
Ġse ats
Ġsurpr ising
Ġw alls
Ġfact ory
Ġestablish ment
ĠFr ont
v an
el and
Ġground s
c raft
Ġag gress
Ġcerem ony
TY PE
Ġex cess
Ġr ide
Ġind icated
ĠAll en
Ġcomp osed
D O
U P
Ġacc eler
br id
ĠSc ient
W indow
Ġhas n
Ġrequ ests
Ġdr ivers
C are
Ġad min
o en
Ġden ied
Ġh idden
Ġun us
Ġgr ade
il ation
ĠA T
AG E
Ġout standing
Ġv ital
Ġhop es
ĠPl ace
par se
ĠProte ction
ĠN ote
Ġprovid ers
ĠC urrent
ou red
aw ay
`` `
Ġpoint ed
Ġamount s
ĠSt one
Ġval uable
ĠSim on
ĠSar ah
ĠTr ue
ĠW as
Ġdecl ine
do or
con f
sh ould
B est
ĠAp pe
Ġprodu cing
ĠC reek
Ġtem pl
Ġshe l
el se
ur i
oy d
ro c
ĠThere fore
Ġstrong ly
Ġup coming
Ġtrou ble
leg es
Ġsc r
Ġsp okes
ĠRel ations
ĠJud ge
Ġocc urs
Ġelectric ity
Ġem p
St ar
Ġk it
Ġsubsequ ently
Ġpriv ile
Ġdr iven
Ġtalk ed
G en
ib l
Ġreal ized
Ġconclud ed
ĠG re
ĠS ky
ĠS P
Ġse ctions
h ol
ĠCh airman
Ġdefe at
Ġaf ternoon
Ġind icate
i ac
Ġhead s
ĠM embers
m em
ĠReg ional
ĠF ather
Ġrank ed
Ġfac es
194 8
Ġprior ity
n um
ĠI V
Ġleg it
Fr ame
Ġaut hent
em ed
ĠAm ong
ĠChampionship s
ĠH un
m ain
Ġconsider ation
old s
() ->
Ġreput ation
iss ue
Ġimplement ed
ĠInd ones
Ġv ary
Ġdeep ly
ĠK elly
Ġcr ash
ic ious
Ġcooper ation
D I
Ġcy cl
ĠO cean
Ġk il
B o
Ġtest ed
Ġaccess ible
Ġreg ulation
in als
Ġprep are
Ġtra ined
ĠM anchester
Ġhor ror
v o
ĠAn thony
] ]
Ġch ose
Ñ ĥ
Ġcolle agues
ĠRes ources
ok ed
off set
ĠEnter tainment
a ire
à ¸
ĠSo ft
Ġsubstant ial
Ġac id
Ġpros pect
Ġsur ve
at as
Ġint ention
Ġpub lishing
ĠEd itor
ĠW inter
Ġso il
ĠEnvironment al
Ġbuff er
elf are
Ġlaw su
Ġra ces
Ä ĩ
; ->
Ġa x
Ġsim pl
ĠT ennessee
ĠD or
Ġpet ition
g raph
T oday
ack s
ic ity
E ven
âĢ ĭ
( _
D C
ĠStud y
Ġheav ily
ict ions
ĠHow ard
ĠMo ore
ĠPro t
fl oat
Ġreg istration
raz y
ĠM ake
Ġag ed
fol io
Sc ript
u ction
195 9
++ )
194 4
Ġr u
O p
y es
oc a
c at
Pro cess
Ġwear ing
Ġsurg ery
ĠAb b
f ix
ĠA z
p df
ĠRepublic ans
Ġequ ity
Ġdo ctors
ĠF OR
= #
alle l
Ġparam eter
Ġtem porary
ĠE N
r ations
Ġde pos
ĠN orm
ĠBl og
jav ascript
in cess
ik ip
Ġconstruct ed
Ġl en
ĠMod el
Ġdisc overy
ra ction
Ġnov els
ĉ Ġ
Ġd ict
int end
Ġex posed
Se cond
ell s
ĠL ater
Ġchalleng ing
Ġunivers e
ie ce
D R
Ġwar ning
ĠMal ays
Ġad m
Ġtr igger
ĠJ ay
Ġpattern s
Ġabsol ute
C lick
ĠS ep
Ġroom s
ĠH art
ĠB ry
C or
Ġliber al
rick et
Ġimp ressive
h u
el son
d rop
19 39
Ġbo at
over nment
Ġconsc ious
t le
Ġte ch
Ġmov es
cont rol
195 8
Ġfootball ers
med ia
Ġadd s
R ed
ĠL A
Ġs um
Ent ry
Ġconf ront
ific ial
, âĢĻ
en z
ĠMount ain
Ġrequest ed
Ġc ategories
c ut
Ġenh ance
b ool
Ġph arm
ĠS n
per or
ĠR aj
Ġatmosp here
B r
Ġeng agement
Ġcon nections
k it
f iles
ĠS audi
Ġin hab
eng ers
w p
i ology
ourn als
Ġviol ent
Ġs ummary
Ġatt ribute
wh o
Ġpre v
Ġind ependence
igh th
Ġtra v
let ter
Ġincred ible
Ġexpl os
Ġown ership
ĠAr thur
J u
in th
ĠN ever
sc ope
Ġal cohol
and al
1 30
ĠMiss ouri
Ġar bit
Ġknow ing
ĠRet urns
b u
un it
Ġwith draw
Ġs ight
Ġmain tained
ol as
T ypes
Ġm ilit
ĠCast le
Ġu int
A f
Ġpublic ly
U K
Ġd ress
Ġtot ally
á ĥ
ĠComm and
Ġcharacter istics
D T
ĠB alt
ep ing
Ġtrad ing
AT A
nov ation
195 6
f ast
ĠPr ivacy
Call back
se ct
ĠM it
ĠOrgan ization
Ġmembers hip
ĠĠĠĠĠĠĠĠĠĠĠĠĠĠĠĠ ĠĠĠĠĠĠĠĠĠĠĠĠĠĠĠĠĠĠĠ
ĠL ie
ĠCapt ain
Ġa ims
Ġexpl icit
Ġc ards
Ġindust ries
IC E
h o
ikip edia
Ġvis iting
us cript
Ġ! ==
Ġcent ers
Ġsitu ations
Ġerr ors
Off set
Ġmer ely
ĠPhilipp ines
ĠC reate
IG N
ĠFin ance
ak i
Ġthe atre
g i
Ġleg acy
ĠL yn
Ġd uties
Ġ$ (
in f
Ġch airman
Ġfranch ise
Ġdep ending
Ġpick ed
Ġt ight
M embers
ĠAl abama
ĠB ox
Ġsing les
ĠProv ince
Ġexpert ise
es ome
ri or
Ġf ab
Ġro of
ĠM oon
195 7
ĠG ard
B N
rop ical
Ġb ands
Ġcover ing
and ra
ĠS pec
il st
ors hip
Ġl augh
ather ine
E uro
ĠTe ch
Ġliter ary
let ed
OR D
st an
Ġdesign ated
empt y
Ġsat ell
emeter y
Ġold est
lah oma
onym ous
id ency
Ġcollect ive
b uffer
Ġw eren
Ġcon sp
V AL
Ġjurisd iction
Ġm ail
su ccess
ĠReg ion
ĠN a
Ġcom ic
Ġwor ry
ĠH an
ĠQue ens
ĠAr k
St ep
ov en
Ġtown s
Ġb es
ĠSwed en
Ġattempt ed
Ġbut ton
ĠSe attle
S L
is ode
ĠStud ents
Ġin ner
Ġout comes
Ġout come
Ġw ine
f ather
t emplate
Ġabs ence
ĠH IV
et ary
ĠPh D
d s
ĠN ation
gr aduate
Ġpo etry
194 2
be an
Ġg iant
B R
re ction
G E
Ġaccur ate
ĠCh all
ĠC ancer
S O
Ġinf ection
return s
iz ont
Le vel
it ure
Ġvulner able
=" _
ĠN ative
Ġf irms
ĠSu pp
Ġt itled
ĠE ver
doc ument
Ġs in
ĠHer itage
ĠEX P
Ġpresent ation
ĠSt ill
Ġmanag ing
ĠNig eria
ĠF un
co in
Ġw aters
ĠYear s
M ult
ĠF C
Ġv ocal
cy cl
Ġevery body
Ġw ire
ipp i
Ġwat ched
ĠEar ly
Ġst im
ĠMos cow
ĠCl ark
aw are
Ġp iano
ĠF ederation
Ġinterview s
N one
Ġmov ements
Ġf aster
Ġparticip ated
Ġmod er
Y ear
ut ral
Ġpurs u
ĠO ak
Ġj un
g ame
ĠB ab
Ġse gment
Ġstru ck
Ġcelebr ate
ĠCont in
Ġappro aches
ĠKenn edy
W est
Ent ity
Ġl ayer
194 1
Ġaff airs
Ġcopy right
l ims
Ġt ail
Ġdynam ic
Ġher itage
H igh
Ġcre ates
Util s
V ol
Ġt act
Ġch a
ene z
S R
Ġg ap
Ġcons ervative
m aster
Ġarg s
Ġbas ically
Ġocc as
ĠPhil ip
ĠY outh
ĠD O
ĠPh ill
ĠH ave
n i
ĠC ond
R uss
ĠB arn
Bl ack
194 6
ne ver
che ll
ĠAtl anta
Ġtarget s
ĠTh anks
ĠL ink
Ġwork er
Ġt um
ĠCh annel
ĠAg ric
Ġbl ocks
em p
Å į
Ġsav ed
ĠJ ason
ĠN ich
Ġlik ed
l ow
W idth
' ),
el ve
Ġent hus
o a
ĠT able
es is
eg as
Cont ainer
S w
Ġâ Ĩ
Ġj oy
Ġfair ly
: </
edd ing
wit zer
s ign
Ġcook ies
M em
we alth
ĠPrem ier
ind ed
Ġb rowser
Ġcrit eria
Ġmunicip al
Will iam
Ġpublic ations
Ġgen re
N orth
ĠD id
Ġres erved
t ask
it is
Ġt ort
ant ry
S ym
st ore
ĠW olf
Ġatt ached
Ġvari able
ĠCh apter
ĠCon vention
ad i
d on
ĠS ound
off s
Ġsu icide
ap olis
l an
o is
194 7
ill iant
Ġpop ulations
d am
re ference
ĠTem ple
Ġre aching
h ard
pro v
H ar
Ġj ury
195 5
H as
ĠN eed
arch y
Ġtrans lation
Ġpres ents
ĠCon st
mon th
Ġref ers
Ġsem i
Ġsing ing
V er
Ġcan cell
az e
ĠSchool s
D ocument
Ġcru cial
at in
Ġste el
ett ings
Cont rol
Ġre ven
& #
Ġhousehold s
ag en
Ġany where
Ġinteg rated
Ġess entially
ĠJ am
Ġf ought
Ġgen etic
Ġpromot ed
Ġf lying
ĠPolit ical
Ġt or
Ġrequire ment
arg o
Ġt all
Ġwin ners
ĠC rim
ĠD ave
Ġorgan isation
Ġcritic ism
ĠInst agram
ĠPolit ics
ĠMor gan
ĠT rib
pen se
w hel
Ġdraw ing
ous es
195 4
. -
Ġsupport ers
a us
Ġannounce ment
Ġsett led
Ġappear ances
Ġsub mit
be ing
um in
he rent
Ġcontract s
AC T
ĠAnn ual
P T
c or
M c
Ġsurpr ised
u z
Ġover ride
Ġfarm ers
ĠP ope
S D
Ġpull ed
ĠH ur
Ġass ume
Ġinst ruct
Ġperson ally
usal em
ĠChrist ians
Ġdist ricts
in ction
ĠRober ts
ĠH al
Ġregul atory
end ers
Ġrad ical
Ġimpro ving
ibr aries
N ote
Ġh ur
ST R
gl as
ĠArch itect
P ass
m aker
Ġhe ll
Ġm it
witzer land
E ach
M usic
Ġo cean
V I
ĠInd ex
R ange
ĠP A
ĠSaf ety
Ġtri als
He ader
Ġst ages
ze ch
ol ver
Ġfun ny
Ġconstit u
R ight
16 0
Mich ael
ĠCom ments
t ree
ver e
Ġcrit ics
Inter face
Ġder ived
win ning
Ġreject ed
Ġexpect ations
iss ippi
In ternational
Ġinvol vement
at ar
ro ot
ĠG il
The n
Ġun iform
ord inary
Ġnot able
ĠTh ird
ĠF I
d isc
ĠS ri
ĠL ib
ĠM ath
U RE
Ġencou raged
st op
Ġthreat s
Ġrapid ly
ĠN ev
Ġr ub
Ġsub section
ed ge
Pro ject
Ġen abled
Ġra w
Ġemploy er
Ġeffic iency
âĢĿ )
ot te
rop olitan
Ġarg ue
Ġdefend ant
ex port
Ġinvest ments
A nt
ĠL GBT
ĠP R
P aul
Ġmanag ers
Al so
ĠF arm
u pload
Ġf ram
ore t
d em
ĉĉĉĉ ĉĉĉ
Ġdo i
Ġf ired
Ġacqu isition
Ġappoint ment
Ġmonitor ing
cont in
op les
Ġser ial
Ġcontrol s
Config uration
ĠHam ilton
ch ant
Ġsac r
M D
**************** ****************
Ġfr ust
Ġpro secut
con nect
A g
195 3
% %
Ġstr ange
Ġgr ass
Ġsk y
Ġtax p
Ġcont ainer
ĠPro duct
er k
Ġtra il
yth on
Ġex clusive
ĠM ess
Ġcl imb
b egin
Ġimpro vement
enn a
ĠRec ord
Ġorgan isations
Ġa er
Ġaim ed
Ġclass ical
] );
out heast
L ook
Ph one
194 9
Ġcompet e
ul um
ĠP ier
ĠJ osh
Ġro se
ot ion
ĠIm ages
c d
Ġrespons es
Ġup dates
Ġroad s
U D
Ġconsum ption
d el
Ġdest ination
Ġobject ive
ĠTh ough
Ġext end
Ġdr ink
Ġe cho
anc ell
igr ant
Ġpod cast
Ġgener ations
th a
Ġap i
Ġin her
Ġg arden
Ġfocus es
Ġbehavi our
l ie
Ġb are
ĠTra vel
m ates
Ġloss es
Î ±
ĠAn ne
Ġs ending
Ġt ab
F R
comm and
ĠM un
ed ing
Ġh ospitals
ĠDe an
Ġde als
Ġt y
ĠB an
Q L
fr ame
ra pper
ĠN atural
ĠMay or
ear ing
w ich
Ġansw ers
Ġag es
Ġliter ally
ĠY eah
T im
Ġfl o
Ġrepresent atives
Ġth inks
ag u
Ġpen alty
b ound
ĠQu est
st ers
Ġg ang
Ġra cing
Oper ation
Ġrecommend ations
Ġconfig uration
ĠT ext
J e
ĠEx p
ple x
Ġclos ing
col umn
un ning
Im pl
Ġinvol ves
im ages
Ġbre aking
Ġdiscrim ination
Ġmag ic
Ġf olk
claim ed
Ġredu cing
od er
m atch
Ġy esterday
Ġint ers
M arch
Ġl ists
b led
hemat ics
F urther
Ar ch
ĠAust in
ĠU ser
h att
emb le
ĠS ex
sm all
ĠF ollowing
Ġob j
n ote
ĠMar ine
195 2
Ġdiv or
P lease
Ġbus y
Ġex ecution
Ġregard less
Ġdec or
ir acy
Ġdem ands
Ġestablish ments
t ml
Ġmin ing
Ġfew er
hed ral
Ġsp in
F eb
T rack
roll ing
Aust ral
ĠO bs
ĠBe at
Ġpo et
ang ers
AN T
194 3
Ġinst ruction
T ree
j an
ĠR ick
ĠH it
Ġliqu id
E ST
Ġfall s
Ġj azz
el i
Ġ{ }
Ġh ockey
ic ing
Ġst ick
Ġconst antly
al id
Ġdialog ue
ĠI l
G erman
ĠH ig
Ġr ig
V ideo
ĠMex ican
const ruct
s d
ĠSp irit
ch ildren
Ġemer ging
Des pite
P H
Ġbur ied
Ġproceed ings
Ġins ert
Ġsurv ive
Ġexplan ation
ĠE ss
r ange
ĠMar ia
ut enant
ĠDo es
Ġl in
Ġord inary
Ġfeel ings
Ġsy nd
ĠF A
Ġw ing
ĠCent ury
ĠMay be
ĠD ick
19 18
M ENT
Ġp itch
Ġp ione
Not es
Ġfund ed
lik ely
ro ph
Ġal gorith
Ġs ons
ĠCh air
S pe
" ))
equ al
Ġagric ultural
Ġapp lies
P osition
d ers
cept ions
ĠStud ent
t ed
sh ot
qu es
Ġaddress ed
Ġresident ial
T itle
h or
19 00
Ġdis aster
Ġco ffee
Ġwhe el
b efore
ĠR ow
Ġas ks
Ġdis ag
ĠV in
Ġm ask
du ced
Ġdest ruction
b ing
Ġb on
Ġmar ks
Ġres idence
He ad
ĠR ub
ist ing
ĠM other
Ġm ac
ĠD allas
Ġhuman ity
b oot
Â ®
l av
U se
f lix
ĠD ise
Ġent ering
ĠLeg isl
Ġiniti atives
ĠB ishop
R ober
ĠAll iance
Ġstudy ing
Ġf urn
195 1
gl obal
ĠBow l
ĠDet roit
ĠHaw ai
od ox
Ġmod ified
ä ¸
ĠL anguage
or ia
an ing
( [
J une
N AME
Ġfall ing
ĠN O
Ġcomp osition
ĠAr ray
ĠAm endment
ij ing
Ġland s
F OR
ig ate
Rec ord
Ġelse where
ĠWh it
Ġdang er
ist ical
Ġexp enses
w estern
Ġag enda
res ource
b urn
ail ability
Ġor ient
ĠK han
Ġmem ories
Ġperiod s
ĠG ab
ĠT R
im ore
Em pty
ĠMc G
J ames
ĠJ oh
ĠSil ver
Ġh at
ĠF ive
om etry
ĠSt ew
ĠL as
ĠN ature
Ġv on
ĠV i
Ġgun s
Ġext ract
Ġre ferences
ian g
ĠT ag
izont al
Ġch urches
ĠCov id
Ġab road
Ġrul ed
Ġs pl
ĠPro cess
Ġgu ests
ĠS C
Ġfound ing
Ġpromot ion
Ġbe ach
Ġinflu enced
ĠRes p
Ġoff ensive
ap el
Jan uary
ĠP RO
em en
ĠBr ig
Ġfem in
Ġcho ices
ĠFre edom
Ġestim ates
Ġme ets
Ġst ored
Ð° Ð
ĠEd ition
am pl
Ġsp r
ab il
Se pt
ĠSur vey
Ġjournal ists
Ġsudden ly
EN D
ĠSen ator
Ġdef in
Ġpurs ue
Ġengine er
ĠT ake
ĠArch ives
Ġaccom pan
Å ¡
ĠS ac
. ),
ct rine
h ome
Ġad equ
Ġanc est
ĠPol ish
Ġs weet
Don ald
Ġra ising
Ġdel ight
ĠOk lahoma
Ġlaw yers
requ ire
12 5
Ġsoci et
ter y
Ġas ide
ent le
Ġst ead
b ad
Ġtempl ate
Ġd ies
Un it
C K
ĠJer usalem
ĠG arden
yt ics
on ed
ie val
y cl
Ġsecret ary
ĠKent ucky
ĠAss istant
Ġinterpret ation
d ict
ay ing
ĠTok yo
ĠWalk er
Ġpl ate
B undle
os ystem
ĠTra ining
Ġse ed
Ph il
ĠO sc
Go ogle
Ġf iscal
Pres ident
Ġtrans mission
ĠRail way
Or der
ĠV alue
ĠIndust ry
Ġprot ests
Ġl ift
Ġperson ality
e ctions
; "
un es
Ġagre ements
n ormal
Ġrat io
Ġcomfort able
ĠCol on
Ġindic ates
w ick
ĠH ug
ĠSm all
) "
le m
Ġcol our
On ly
Ġguid elines
ank a
âĢ¦ .
Ġfl ags
Ġve get
He ight
ĠAl an
if fer
W A
B ig
Ġpass es
Y our
Ġautom atically
Ġinstr uments
e h
ĠAnal ysis
ĠRet urn
ĠS port
Ġe gg
Ġc os
ag h
as p
ĠStand ard
in ch
ĠH old
Ch ange
quir y
Ġdemonstr ated
Ġsk ill
Ġsu p
Ġcons ervation
Ġcomplet ion
im m
ĠS earch
Ġdep ends
Ġex empt
Ġob l
ĠBru ce
Ġr ating
Ġcelebr ated
od ge
Ġunus ual
ĠP ersonal
ĠA thlet
level and
Ġlik es
ĠAl b
Ġt ied
rit ion
ĠM ission
{ {
A pril
Ġch annels
Ġth ick
Ġbr ands
Ġcompl aint
G ET
Ġshort ly
En c
P o
Ġweek ly
c ache
Ġprem ier
Ġap artment
Ġjud ges
ĠB ah
ĠD rug
ari able
Ġchar ity
================ ================
Ġs amples
Par ams
ĠP ed
Ġpark ing
b order
Ġweap on
ct ic
Con nection
Lab els
ĠD ur
ĠMc K
f aces
ĠD og
Ġathlet es
R ich
th rough
Ġput s
Ġrestaur ants
Ã¡ n
ater al
s ession
li est
ĠE ffect
Ġover whel
Ġslow ly
eral d
Ġdiscuss ions
w en
ĠK a
H ost
ic ut
F T
Ġsc ores
Ġequ ally
im ony
Ġdo ors
Ġc ited
ch ron
ob uf
ĠD omin
Ġinter vention
or ous
ĠLim ited
Ju ly
Ġkn ock
D an
Ġreve als
es y
Ġh urt
G R
Ġhead ed
ial ize
Ġre ward
Ġthe ater
bar a
ms g
ĠMiss issippi
ir ates
Ġf ruit
ĠG ordon
25 5
ĠC ape
Ġimpact s
Ġpe ak
ĠAd vent
Ġhy per
Ġun em
ĠMus lims
Ġy ellow
ĠJac ob
i ography
Ġtru ck
Ġsc oring
Ġd iet
Ġdis pl
Ġrespond ed
ĠB uff
s he
Ġgen u
ĠL LC
Ġpl aintiff
% ;
Ġwalk ed
Ġassoci ate
ĠP ath
ct x
ĠAss ert
ĠS witzerland
Ġroy al
Ġfrequ ency
ell i
ĠChrist opher
Ġsp an
Ġ Å
Ġw aves
L ike
AC E
ĠH ans
Ġschol ar
Ġtrend s
Ġper mit
Ġpromot ing
j ud
Ġp ushed
Ġwar rant
ĠLeg al
ĠE ag
arm a
ĠF BI
ĠPro p
Ġpri ze
ĠEx change
Ġst able
Ġass embly
ra id
ap ing
ag ger
Ġrec ru
the less
ĠR oom
Ġ q
Ġtem ple
Ġre ar
w all
Ġnomin ated
Su pport
ch a
Ñ ı
e ffect
ĠC redit
IV E
Ġcut ting
p read
On ce
art ifact
Ġreve al
ĠS ud
iat ric
Ġl es
se a
Ġdr inking
ĠLa ure
Ġdevelop ments
Ġimm igrants
ĠG ib
Ġbr illiant
Ġcor ruption
i op
ĠRuss ell
Ġsix th
Ġmechan ism
D om
r at
19 36
t ab
ĠR ab
Ġart istic
atur ally
J son
AT H
="../../../../ ../
w indow
it ol
w ords
ĠUt ah
un ct
ograph ical
Ġly rics
H ttp
ram a
ĠOffic ial
Ġd ating
in burgh
ĠSe ver
N C
ron ze
room s
Ġsub stance
look ing
or ph
Ġphotograph s
Se ction
ac on
ell ows
ĠLaw rence
b ian
_ ;
f red
B E
ĠC E
Ġfol ks
Ġattack ed
ĠF ind
Ġhead quarters
res hold
ĠW right
Ġvers us
i ors
Ġcitiz en
est yle
pr ison
Ġl ux
ĠE P
Ġcap abilities
pl us
Ġcompos er
eg a
ateg or
Ġh ired
ĠK al
Re qu
Ġcon crete
ĠFor ces
ĠP ur
ĠM ars
ic ons
Ġinn oc
ĠEx ception
Ġs oph
Ã £
Ġarr ival
em ail
Ġbelie fs
Ġab stract
art icle
Ġf ault
s end
set t
Mod ule
Ġbu ying
ow ing
Ġhop ing
Ġtrans actions
Ġthem es
ĠCommun ications
Euro pe
Ġb ott
ef ully
Ġm ock
Ġr ival
it ative
Ġdetermin ation
Ġoper ational
in ar
ides pread
Ġprop ag
ard o
ĠEconom ics
ĠCr ime
Ġminor ity
gr ad
ĠTh ings
ĠL iving
Ġb irds
ĠC ra
amp s
ĠMov ie
im p
Ġd owntown
Ġde put
18 0
ĠTai wan
ĠF er
Ġkeep s
enez uel
M I
ou ver
Ġfeed back
f ly
ant e
ĠD VD
Ġmem or
ol ph
R ad
Ġ$ \
1 12
f n
Ġregard ed
ĠC op
Ġassum ed
lement ary
ĠP a
AR Y
Ġli ability
Ġb id
IZ E
ĠAd ams
Ġnot iced
De cember
Ġpursu ant
Ġposs ession
Ġal ert
ĠMic hel
m ode
Ġt ries
l oc
ĠP ast
Hand le
m ut
Ġpass engers
ĠH oll
Ġd ensity
Ġview ed
Ġman uscript
\\\\\\\\\\\\\\\\\\\\\\\\\\\\\\\\ \\\\\\\\\\\\\\\\\\\\\\\\\\\\\\\\
Ġprodu cers
Ġsign ature
ĠPri or
ĠB or
Ġactiv ists
ill ance
Ġunder lying
Ġinv oke
u ct
Ġconvert ed
F ound
Ġmonth ly
Aug ust
Ġit er
st rap
epend ency
Ġinsp iration
Ġapprec iate
Ġpe er
om er
Ġaddress es
Ġins ight
ab out
Ass oci
Ġeval uation
le ans
Ġabandon ed
ĠB h
ĠFor um
um ph
ut ical
c p
olit ical
Ġro ots
Ġus age
Ġfant asy
Ġsurv ived
Ġsurv ival
g ments
Ġw ars
bs ite
ref ix
ol y
Ġstay ed
S k
Ġdesign s
Ġtarget ed
Ġop ens
sp ace
ĠNor way
ost ic
ĠV egas
Ġper mitted
Ġcol lections
Ġ* )
P an
Ġlist ing
oun ced
ĠW y
Ġpaint ings
le tt
g age
Ġtechn ique
ĠUn it
=" -
ĠMel bourne
ĠG ram
ĠThom pson
ĠVill age
d ie
Ġfriend ly
Ġdep ression
In s
b at
ĠH amp
> ,
A v
Ġdem ocratic
Ġde lete
ache l
ERR OR
i ere
ĠPr ivate
ĠL O
19 14
Ġconstitution al
Ġl ake
re le
ĠF ame
ĠL am
L ife
Exp ression
ol ving
Ġto x
Ġw ider
Ġlab our
Ġcorpor ation
F S
Ġconcent ration
Ġrespect ive
Ġshop ping
ot ing
M ain
19 38
T HE
Ġj ournals
ĠLear ning
Ġinter action
Ġrep orter
Ġrough ly
Brit ish
Ġcert ificate
d ebug
Ġcut s
Ġfore ver
ic he
C ap
Ġprov en
ĠM and
A ng
ous ing
Ġs essions
Ġcontin u
Ġtick et
ist a
Ġtrans formation
secut ive
ĠW ord
Ġfocus ing
ĠC opyright
ĠS H
Ġco aches
ĠPr ice
Ġpri est
Ġless ons
at hered
D ist
ĠTurk ish
ĠDep uty
Ġstrong er
ĠK ings
ĠG ulf
ĠCol omb
D el
Ġpar ish
D ay
z ed
r t
an al
ol i
k g
Ġman ip
Ġsupp lies
Ġt asks
ĠCommission er
Ġrefuge es
L P
Oct ober
Ġdram atic
Ġsol ve
ĠN BA
util s
Ġr um
Pro perties
Ġre act
Ġinter ior
t im
ĠMon th
ib li
cl oud
ĠM as
Ġto ler
Re ference
ert o
F ree
Ī Ĵ
ĠL iver
Ġcorrespond ing
Ġass et
ĠInt elligence
b en
Ġsomew here
ĠB O
Ġben ch
Ġj ail
E P
ĠJon athan
W S
ĠSh ould
Ġent ities
ĠT ask
Ã© e
Ġde emed
P arent
Ġsym b
ro t
w ill
, '
Ġt ank
as ant
inc ial
am ous
Ġpat ent
Ġsurv iv
f amily
Ġmeas ured
ĠAnd re
Ġnorm ally
Ġdog s
ĠCar ter
ĠĠĠĠĠĠĠĠĠĠĠĠĠĠĠĠ ĠĠĠĠĠ
ĠIm age
ĠUp date
ĠB os
om as
ult ane
As ync
COL OR
? :
ĠS in
19 37
Ġw rest
u pp
Ġd a
s creen
ĠO m
Ġent rance
verse as
uss ion
D oc
comm un
Ġbatter y
Ġsh ots
Ġcred its
Ġtick ets
th odox
Con st
Ġdel iber
Ġel der
Ġto ken
Ġ> >
s im
Ġsp oken
ers e
ĠZ h
ĠAnd roid
Ä ±
Ġunivers al
L eg
Ġsign ing
p res
Ġaff ili
="../../ ../
D isc
ĠBe ijing
ĠEx press
H ash
Ġstreng then
Ġshould n
W omen
ey ond
g ium
class es
ĠD ak
Ġvo ices
ig e
Ġb ath
Ġrele ases
ĠO pt
rom ise
Ġab ortion
ĠT it
Ġmain stream
ĠHistor ical
II I
S ession
ter ed
Ġb oss
ĠV iol
c lear
ĠR ace
ĠG er
Ġremark able
Ġre con
rou s
P os
ace utical
h our
l ined
Ġse ctors
Ġas p
Met adata
ĠBrook lyn
19 17
ĠDou glas
Ġast ron
ed it
ĠWal ter
Ġoff ense
Ġper pet
ĠPat ri
ĠHigh way
Ġp ace
field s
Ġcompl icated
al ia
Ġgreat ly
Ġf est
Ġg ate
M edia
Ġemer ged
S en
. :
ra ham
Ġgr ants
Ġabs or
") );
Col lection
Ġinteg ration
Ġw idespread
I ES
ĠB uck
ĠPalestin ian
ors es
Ġun likely
Res ults
ĠWith out
iv a
f are
ĠTh ank
en ess
Ġdisp ute
Ġanal yst
aught ers
ĠP erson
oun ce
er ick
Ġtow er
au x
ĠOr leans
Ġoccup ied
) ]
Ġc ust
anc ouver
D ebug
ge on
Ġmay or
Ġcare fully
ĠC ert
Ġatt itude
Ġthreat ened
Ġl oyal
Ġpl astic
ĠV AL
P tr
artifact Id
9 00
ĠRes erve
Ġc ogn
ik h
Ġany way
ail and
B ecause
im ens
Ġdemonstr ate
ke ys
et ition
view s
Ġhand ling
Ġ> =
dev ice
Ġconsider able
D D
i ative
c m
ĠR oc
ĠBudd h
oth y
Ġout break
ister ed
Ġwebs ites
we ek
c over
h ash
Ġag greg
Ġdef ensive
ĠW oman
ĠRog er
Ġequ ality
F alse
ER E
Ġb le
ĠP ack
if ting
19 33
st at
Ġcon ver
doc s
ĠB G
ĠG row
Ġwhere as
ar o
Ġr ational
Ġb ag
ĠLouis iana
Ġauthor ized
s ky
ĠC zech
cc a
u v
Ġopin ions
H R
z y
Ġconcept s
osp el
ĠCommon wealth
Ġbirth day
ĠG a
Ġaccompan ied
Ġex clus
ĠS O
ĠP ear
ĠH ills
Ġex it
ĠC ow
CO DE
ott ed
ĠSam uel
Ġreplace ment
Ġple ased
ro le
ur se
Ġperfect ly
ĠAnton io
Ġcond em
ĠG ary
Ġed ited
c f
G ood
Ġsignific ance
ĠN ash
Ġshe ll
Ġres ort
Ġagric ulture
Ġd inner
ĠN av
Ġmusic ian
="../../../../ ../../
ĠE le
Ġg ross
c ap
Ġen orm
Ġpass age
Ġcontrovers ial
Ġmed ian
B re
Gl obal
: (
Ġin line
j amin
Ġf ishing
ĠSoft ware
d ist
oen ix
IN S
w as
Ġnegoti ations
ĠR ound
ĠH ell
fo o
ation ally
xi ety
ĠCh amber
hand le
anc hes
ou st
S ports
ĠN elson
ĠCom ment
cl ick
ĠS ource
ust ed
AS E
ĠK ath
l ad
ĠG un
ĠC R
Ã º
t oken
pro duct
Ġveter an
Ġexecut ed
Ġre ly
ĠPal ace
Pub lished
ĠT s
Ġmy ster
ĠT el
ch or
Ġconst ra
Ġbi ological
ĠC ou
F ont
c oll
Ġob st
Ġrac ism
Ġprint ed
Ġpar ams
Ġin cent
ĠMarsh all
ĠComm ons
Ġinvestig ate
om ing
Ġadvent ure
Ġcapt ain
Ġcon secutive
ĠâĨ Ĵ
Ġke ys
ĠB ull
Ġsub stit
ĠArab ia
own ed
Ġlegisl ative
ĠMalays ia
ĠB att
Ġfore cast
g ly
ĠPitt s
Ġs ust
Ġst ack
ĠM essage
ĠInd ependent
ac ent
Ġdev ast
Ġe ating
Ġsuff er
A E
Ġc ul
ĠStew art
F ollowing
Ġdevelop ers
Ġun con
ĠRob inson
Ġdes per
Ġvis its
C ent
Ġwor ship
Ġoblig ations
Nov ember
ĠConnect icut
Ġemploy ers
ĠEXP ECT
le e
ĠS umm
group Id
ĠPro f
ig s
Ġexam ination
ĠCub a
Ġviol ation
Ġdes ert
ĠV ersion
-- -
Ġalleg ations
m i
b ul
Ġaud iences
ĠC leveland
irl ines
Ġextra ordinary
Ġconv icted
ĠK y
s is
r ors
and o
ID S
ĠEd inburgh
f ull
Ġsome body
os c
Ġport folio
Ġwind ows
he im
ĠT a
Ġres olve
19 34
Ġâ Ĥ¬
Ġp adding
ĠI ron
ty pes
Ġprepar ation
Ġem power
Ġatt ending
Pr int
ĠF riends
ĠPro perty
ĠBl ock
Int eger
ĠF il
Ġcur rency
ĠSwed ish
Ġpass enger
st al
Ġme at
Ġsome how
Ġdis order
jo in
e enth
10 5
in ternal
Ġamong st
F ull
Param eters
Ġbeg un
Ġlawsu it
ro ck
ĠO wn
form ed
it udes
Ġv it
ag ers
ĠP aper
Ġw elfare
Ġinter act
Ġspeak s
Ġd ated
ĠAn na
or iginal
Sept ember
L eft
l ay
Ġj e
Ġterror ist
d at
ig a
B el
Ġcl ock
Ġfil ename
ĠC ole
12 8
ĠDub lin
Ġt urb
Ġb orrow
ĠSt ev
Ġin aug
ir s
ne g
Writ er
j pg
nt il
ĠK az
V E
ĠY an
Ġmen u
Ġorgan ic
Ġcan n
Ã© s
n est
Ġmach ines
Ġant ib
Care er
Ġc rack
/ .
Ġ` `
Ġk ne
n ell
an im
He alth
Ġm o
I E
Ġdef ence
Ġbre ast
Ġact ively
D raw
Fe ature
d ale
ĠMarg aret
r ator
ĠIran ian
Ġpar allel
RO M
19 19
B en
Ġmunicip ality
inter face
Ġstar ring
Ġmyst ery
Ġt ies
ĠS EC
ate ful
Ġt rem
Ġimpro vements
Ġw ake
ĠTre as
ĠIndones ia
Ġcon sole
Ġjun ior
C opyright
pro file
og a
ick er
Ġgr id
ĠPl aces
Ġdis abled
Ġemphas is
Ġim prison
Ġw edding
St ore
Ġhead er
Ġth orough
pl an
ĠE T
Ġstret ch
Ġf oss
Ġcry pt
ĠB ond
D i
Ġadapt ation
Ã£ o
B M
Ġcan cel
ph ony
Ġpopular ity
E Q
Ġoper ates
Ed itor
is an
Ġincred ibly
ĠCamp bell
Nav Bar
ĠAssoci ate
Ġexper imental
part y
C ast
Ġdist urb
ĠPub lishing
Ġreli able
at on
Ġpre ferred
val ues
Ġfant astic
Ġdecl ined
ĠDel hi
Ġcon gress
ar ity
Ġth rown
ĠSchol ars
Ġg olf
w s
Ġreported ly
he ro
Ġh am
Ġdesign er
u y
Ġbr ut
S ettings
d elete
Ġc razy
Ġdist ribut
ĠAnd y
Ðµ Ð
Ġnames pace
og ue
ĠD ocument
Ġstrugg ling
Ġrep air
Ġcal endar
Ġbl ind
Ġrare ly
el come
Ġatt ributes
Ġposs ess
c i
Ġinst ructions
Men u
Ġaccount ing
Ġsee ks
Ġund efined
Ġcampaign s
ĠA C
ĠW orth
pen ame
ĠBase ball
Ġsu itable
Ġvacc ines
10 2
Ġtemper atures
S ch
Ġenter prise
19 29
Ġspe aker
ffic ial
Ġun expected
Ġimpl ications
Ġcult ures
Ġth irty
Ġelect ron
ĠRepresent atives
ab is
Ġdis ability
r m
iss a
Ġ" \
ict ional
iz on
ĠB eck
Ġint ense
Ġh ook
19 35
iss ance
Ġdisplay ed
Ġaf raid
Ġhar ass
ke e
Ġl ights
ang o
Ser ial
Ġinvol ve
Ap i
3 60
ĠU lt
ĠAb d
Ġsuper ior
ĠNet flix
Ġest imate
Ġtouch down
enn y
ĠL uther
ush ing
ric ulum
ĠCh ile
Ġt one
ĠNAS A
Ġre ign
Ġhost s
Ġch ronic
= >
ĠN ort
u ana
b ind
Ġparticip ating
ĠBl oom
ĠFrank lin
Rober t
Ġdes cent
Ġevery where
Ġt iny
abet es
Ġvari ant
ĠR ule
Ġpart ial
A lex
Ġfl ash
Ġx ml
ĠD al
Ġpsych ological
ĠN eg
se curity
ĠU RL
. $
Ġeduc ated
em ies
st ory
iv ation
Ġ( +
ĠA BC
Ġmain taining
Ġceleb ration
w idget
Ġlow est
ax y
E duc
ĠV enezuel
Ġh ip
hatt an
ĠL ane
ĠP od
Ġincorpor ated
in ces
ĠBalt imore
ĠMur ray
Ġd ad
an ne
Ġtw elve
s v
Ġ ðŁ
Ġlov es
ĠB Y
Ġens uring
Ġec osystem
Ġh ide
F igure
up id
Sh ow
Ġess ay
ĠD a
ĠCl oud
ib bean
D L
g ow
Ġcomp are
av ed
back s
ul us
Ġm aps
am an
Ġresc ue
ug s
S an
f und
Ġmount ains
oc ate
Ġlog ic
Ġs s
ĠB it
Ġguarant ee
ra pe
Ġclaim ing
Ġann ually
Ġd uration
Ġpropos als
ĠFin ally
ĠC rown
ĠA le
Ġign ore
ĠN ik
o il
Ġt ale
as hes
ĠB E
ĠWh ich
Ġtra ins
re place
b es
Ġpro sec
Ġst ability
Ġpublis her
w ait
build ing
ĠH ub
Ġsim ultane
Ġc ache
Ġres erve
Ġlimit ations
ĠGra ham
Ġvill ages
Ġdocument ation
N Y
r ish
ĠAl bum
Ġmind s
r in
on om
ĠJ ess
ĠO il
d y
Ġeng aging
Ġim posed
Ġin hib
ann on
prot obuf
erv ing
ĠMot or
âĢ¦ ]
3 50
et he
Ġprison ers
Ġpl ain
Ġhead ing
ĠMar vel
âĢ ĥ
Ġhas h
ĠPer haps
Ġno ise
Î ¿
ĠCharl ie
rodu ction
ĠUs ing
F P
Ġche ap
Ġb rown
Ġrec all
ĠAust ria
Ġvolunte ers
TE ST
ĠLe ban
Ġhigh lights
on i
og gle
Ġfem ales
Ġsatell ite
Ġstream ing
EX T
19 10
Ġm ile
ĠP y
ĠMov ement
20 23
F ind
Ġrom antic
s ystem
Ġinhab it
Ġg athered
Ġscholars hip
od a
Ġt aste
ĠPerform ance
ĠM ind
ac co
Ġpre vention
ĠCirc uit
ĠWar ren
Ġprom ised
Ġconvers ion
r ating
Ġproport ion
Ġult imate
vious ly
Ġam endment
Ġsm ooth
less ly
a uth
Ġdream s
ĠPro du
ch i
Ġcolon ial
Ġpar se
Ġc atalog
Ġdis put
Ġconvent ional
ĠM ort
ĠBrother s
Ġtem por
on z
Ġrece ives
ĠWhe ther
Ġactiv ist
ut t
Ġinv asion
ĠTele vision
v irtual
Ġmist ake
ĠDr ive
ĠH im
h uman
Ġj av
rec ord
U ST
r ative
14 0
ĠW W
I X
Ġgovern ance
ĠMore over
Ġvent ure
Dev ice
Ġfunction al
m outh
Ġfle et
Ġ' '
ĠHon or
ĠBl ood
ĠP S
ix el
Ġexper iments
P G
Ġterror ism
ĠR oute
k h
ĠUr ban
ĠCor p
V ector
ĠBroad way
Ġgl ob
am y
to String
Pro fess
Ġun w
cycl op
} .
Ġsurround ed
m ay
ues e
Ġter rible
AR D
ol ves
ĠB aker
ĠArgent ina
T om
Hel per
ĠInvest ment
ĠMed al
Ġsitu ated
add ress
ĠAdd itionally
Ġsepar ated
ĠJun ior
T emplate
Ġinstitution al
M B
ĠNC AA
Ġsens itive
g ence
g reen
n an
Ġrout es
Å Ĥ
p aren
ĠBr un
ĠMark eting
Arg s
ce ive
Ġformer ly
al so
t witter
Ġt ur
F ilm
se ud
our t
ĠC ore
Ġph rase
ĠGirl s
Re ader
10 4
r ub
end or
iv ia
Ġm ater
M art
ĠBet ween
ĠWe bsite
ĠR u
z one
em it
Ġhad n
Ġinflu ential
ĠB art
ĠC ele
Ġ( @
Ġb ird
Ġprepar ing
Ġany more
Ġst adium
Ġsp ark
ĠF ant
ĠC art
styles heet
Ġacc um
Ġtour ism
Ġapp s
Ġmet ers
t ry
J apan
ĠA pr
s ort
ĠV eter
s uch
Ġh ill
Ġs ke
c r
ĠC C
ose x
book s
s or
Ġlif etime
Ġsucceed ed
Ġdes k
Ġrel ax
Ġf ake
rupt ed
ĠPlan ning
F ilms
or ious
Ġachie vement
ĠJ ava
Ġw is
ĠK it
Ġprogress ive
Ġcirc uit
Ġun like
Ġcont ents
Ġg rab
by te
P al
Ġh ack
Ġopt ional
Form er
D ir
ĠSte ven
S om
eter min
A ud
Ġlo ans
ist ence
Ch ina
est ab
um ps
ĠMor ris
ĠSt ories
su per
Ġwh ilst
Ġeng ines
Ġr anks
Ġnot ion
ock er
ĠVol ume
By tes
N G
ĠThe ater
at ible
Ġg ro
ĠD ance
Ġsp ir
Ġthe ories
Ġst yles
ĠG ill
Ġdiagn osis
P ORT
Ġhelp ful
Ġview ers
ĠWork ing
ĠFac ulty
x it
P arser
sp ring
: #
Ġmin istry
AT O
Ġcon j
Ġs occer
ĠHe b
ug ins
ĠC ultural
Ġcol leges
Ġtest imony
Ġarrang ements
Ġl iv
() :
Ġm art
Ġin clusion
ac les
ĠTh ailand
W atch
Ġhard er
viron ments
s ur
om ot
Ġrec re
l adesh
Ġal ien
ĠD ra
Ġinv alid
Ġtr ick
Con f
Ġin ev
ĠV ancouver
Ġexpand ing
ĠChristian ity
Ġn eck
ĠStan ley
Ġdoll ar
Ġpre st
Ġbank ing
Ġtransl ated
Ġres ign
Ġam ended
ĠâĢ Ŀ
os ph
Ġb orders
Ġemot ion
Ġm m
Ġnewsp apers
b as
ĠB urn
C ore
Ġfasc inating
Ġdepart ments
C ustom
19 32
Ġam end
Ġass ass
m other
ra pped
19 16
Ġman ifest
as m
Su per
R est
Ġinstall ation
Ġafford able
Ġpres um
ĠHT ML
Ġev ident
ĠPort land
ĠMit chell
Ġwarm ing
G reat
Ġc able
Ġcol ors
ac re
d ays
ĠO S
ol o
point s
Ġcas ual
Ġprotect ing
i Äĩ
Ġde eper
m ake
Ġen act
p ur
Ġmar ine
ĠWay ne
Ġrec ruit
Ġexist ed
S y
ĠB eng
ĠRe ading
ĠP as
Ġbur den
Ġear liest
ĠC S
ĠF ight
Ġpo em
co very
ĠOsc ar
equ als
Ġpr on
ĠLiver pool
Ġlic ensed
In valid
Ġremov al
Ġmechan isms
ĠOper ations
ol en
out ube
Ġestablish ing
ĠL anc
Ġcomp ly
Ġintrodu ce
c ient
Ġh ole
ad min
> .
Ġt ennis
Ġb old
Ġfrequ ent
ĠLand roid
S ur
S end
m ult
ĠGu y
} \
m ate
yn asty
Ġinst ances
v m
( *
Ġreview ed
Ġg onna
ern ame
ĠIs a
10 3
Ġmem orial
Â »
ĠJim my
ĠPl ayer
L oc
ĠPl ant
ĠD ays
ĠL ang
ĠS ustain
ĠBoy s
ĠFurther more
Ġb oot
Ġper m
r ons
c ustom
i pt
Ġp y
ĠBel gium
ĠL anka
H A
al g
Ġcom ed
ĠSing h
Ġple asure
Ġoper a
e conom
ential s
h y
Ġsusp ended
Ġtrad itions
ĠKn ight
it ime
Ġcy ber
App lication
19 15
IT E
ĠF L
Ġicon ic
Ġc rown
hes is
u er
Ġvari ables
âĨ ĳ
Ġa ver
ĠComput er
Ġphot ography
ĠCrim inal
ĠM ust
ĠP il
sh ort
ann ah
ĠDirect ors
l on
iz able
K ind
19 28
Ġex ha
Ġre verse
ĠS el
ric ane
b ow
in ced
ĠShe l
ĠRes ource
Ġfl owers
ri k
11 5
Back ground
trans form
are st
ĠL ess
Pol icy
ĠProfess ional
Ġcirc le
ĠC hen
ĠN aval
M iss
Ġall ies
Ġdirect ory
ol t
Ġdis ch
ĠStud ios
ON E
Ġobl igation
ch ain
I AL
ĠPitts burgh
Ġd rew
Ġtext s
Ġso vere
cur ities
P RE
Arg ument
ĠF al
Ġch arts
Ġb ills
ĠB apt
ĠPu erto
Ġvert ical
O pt
Ġdec ent
Ġign ored
Ä į
ig ma
19 22
ĠH ad
ĠCons ult
ĠT alk
om ed
ip her
ĠT ower
ĠT ob
Ġbound aries
ĠP ap
re q
Ġis lands
Ġav ailability
E p
Ġcorpor ations
Ġfail s
ĠInd igenous
ĠElect ric
Ñ ĭ
EC K
ed ly
hav ior
Ġam id
ĠM aine
ul ator
as gow
ĠMan hattan
t wo
in line
Ġintegr ity
ĠH end
t own
pect ives
J ack
ĠRe qu
ud son
Sc hema
ĠAgain st
Ġarr ive
ĠR ain
Ġpub lish
Sec urity
1 18
ail ing
Ġh ang
ĠNaz i
Ġneigh b
ĠW ard
Re port
Ġentreprene urs
Ġfab ric
ens on
Ġdep ict
Ġb read
Ġhistor ian
ĠP eters
Ġcl othing
Ġo w
Ġvol unt
Ġident ification
ĠM L
ĠCar ibbean
Ġst uck
Ġgl ad
min ute
Ġjud icial
Ġne utral
Ġep id
ĠCap itol
ra ctions
ĉĉ Ċ
ĠL uke
z ing
Th rough
ĠS elf
ik ing
Ġover t
ĠArk ansas
ber ry
ĠM icro
ĠS now
-------------------------------- --------------------------------
ĠInd eed
ĠSw iss
ens ing
Ġking dom
' ],
Ġw et
ĠDe b
est amp
Ġpres erve
B ody
j ar
ynam ic
ĠT OD
ĠLe ader
ĠCommun ist
( :
ah a
Ġgot ten
Ġrepeated ly
id ays
ĠK u
ill ery
12 3
ĠLead ership
st ack
ĠS pr
Ġconvers ations
Ġart ificial
Ġkit chen
B as
Ġanal ys
Ġm ales
Ġpe oples
. ).
ĠHamp shire
r ates
Ġarch ae
Ġexam ine
ĠTra il
Ġexpl oration
Ġt ub
Ġcomm ander
ĠPl us
ĠPark er
app er
ĠBar bara
ĠB us
els h
M att
ĠSy rian
ĠO d
ĠJust in
ins ert
Ġevery day
Ġfavour ite
Ġanim ation
p ay
ick en
Ġhard ware
Ġconv inced
Ġth in
irm ingham
Ġb io
e lect
Ġcoll apse
Ġnav igation
m ade
Ġpush ing
ĠSt ore
ĠColl ins
Ġdifficult y
ĠReview s
Ï Ħ
ĠO A
Ġel ite
ows ki
M ac
ke ley
Ġcontin uous
Ġm igration
Ġdev oted
Ġby te
ĠT un
Ġeth ical
S pace
Ġo verseas
ate ur
apt ers
Ġwe ird
Ġo x
Ġrequ iring
Ġover come
Ġven ue
ĠCo al
10 6
c opy
> :
Ġan xiety
Ġphys ics
op ter
ĠCom merce
Ġqu ote
pl ugin
ire ction
Ġs id
U C
ĠC itiz
ĠT oy
B et
ĠUn fortunately
Ġuns igned
Ġm ad
akes pe
alt ies
Ġr anging
leg al
Ġf ert
Ġad mit
Ġscient ist
Ġenorm ous
ĠM aj
ĠK am
Ġtravel ing
ĠIns urance
medi ate
ĠC ass
ĠL em
Ġl obby
ĠN ep
ĠPr incess
19 31
c ies
we gian
Ġg ard
or ient
qu er
Ġcomput ers
h ill
rane an
Ġm oon
Ġj u
Ġind igenous
Ġdo zen
uc ks
Ġsl a
s a
ĠTra ck
ur ities
` ,
ex ample
el ing
Ġexclus ively
est one
Ġg re
ĠDen mark
ĠKen ya
R ect
Ġent ries
ed a
Ġwarn ed
Ġcommission ed
Ġvirt ually
RE AD
Ġmeaning ful
Ġnob ody
t ool
F amily
Ġadvoc ate
Ġmanufact urers
itte es
pe ction
Ġche cks
mod al
Ġadopt ion
ĠStr ateg
Ġprot ocol
ut ers
Ġbroad er
ĠF em
ĠI an
ĠGover n
Ġmin im
ĠT an
Ġst ating
Ġearn ings
N OT
Ġeconom ics
IG HT
Ġcinem a
Ġdecre ase
25 6
> ();
Ġtal ented
Ġby tes
Ġspect rum
ĠO K
Ġra pe
hab ilit
iv an
19 21
ow ell
Ġsal ary
ĠStud io
Ġs ed
ĠW H
19 25
Ġsla very
Ġd ying
Ġref lected
Ġpoll ution
I LL
ĠEv ans
ren a
k t
Ġn aturally
Ġoccup ation
Ġbe ings
Ġexp ed
Ġcompet ing
Ġaccom p
Ġpar ad
Ġsustain ability
Ġgover ning
Ġn ick
mark et
ble m
ĠC old
Ġimm une
ut ter
Ġdam aged
ĠBe ing
v ity
Ġb one
Ġen emies
pect or
Ġcons olid
bre aking
ĠT itle
» ¿
al ion
ã Ģ
N E
en berg
Ġt ons
Ġrep ly
Ġw age
ĠM unicip
ĠReg iment
qu is
Ġdepend ent
Ġphys ician
ĠIn novation
Ġcommun icate
Ġclass ified
Ġins ights
ĠAnt i
app lication
Ġd aughters
19 12
ĠPortug al
Ġfail ing
F E
paren cy
Ġl ib
M al
Th anks
ĠEar l
ar th
( \
Desc riptor
ĠJ en
ï »¿
Ġc ow
ĠF ellows
ĠLe vel
or er
Ġre ct
Ġl oud
19 27
By te
Ġt ill
Ġp ul
ged y
ant ed
ĠJ os
ĠB achelor
Ġsh arp
Ġt ie
ig ion
M s
ĠAb u
Ġlin ear
Feb ruary
ĠT am
ĠF isher
Ġreflect s
I ter
Ġb ars
Ġrenew able
ĠSus an
eng ine
ic ient
Ġhom eless
ĠDak ota
F rench
Ã ¸
sp ot
akespe are
Ġg al
ĠThe ory
anc el
le ton
ĠD est
ĠL eft
st age
Ġbl ame
ĠAr men
Ġh ub
ĠH ope
on omy
Ġb unch
Ġcont rary
Ġend ors
arg in
ellig ent
ok er
Ġst em
Ġneigh bour
Ġdifficult ies
Ġgl obe
O k
ĠJohn ny
ĠSqu ad
ĠOr chestra
ĠA qu
Ġrespons ibilities
Ġhigh way
n ap
if ice
` .
xy gen
Ġpr ayer
Ġhard ly
z es
ĠN eb
d ouble
ĠSt ars
Ġtom orrow
Ġanim ated
Ġy eah
Ġearth qu
i Ã³n
ĠBr and
ĠMar ie
Ġco aching
ĠN BC
Ġre vers
ĠM aur
ĠPh oenix
out ing
Ġnob le
s ome
Ġgen us
f i
per t
Ġinc idents
ĠI O
ĠMe eting
Ġfootball er
$ (
W ar
or us
Ġinter actions
the re
R oot
Ġb ull
Ġscreen ing
mod els
ĠR and
ĠĠĠĠĠĠĠĠĠĠĠĠĠĠĠĠ ĠĠĠĠ
sc ription
s elling
Ġcont roller
Ġd il
Ġinc hes
Ġfall en
M er
LO G
ĠD ue
bor ough
B L
Th ree
Ġelect rical
T er
Ġmil k
Ġbe er
R ender
Ġdeput y
Ġte a
ij uana
ĠAl ice
ĠJ azz
Ġas c
Ġsole ly
en v
Ass ert
red ited
Ġland ing
ĠApp ro
ik es
play er
Ġisol ated
ĠR ules
V P
Ge orge
ĠEgypt ian
ĠCh ron
Ġ[ '
Ġtele phone
Ġe ase
Ġexpl oring
ĠLiber al
ĠN ap
IN D
Ġread s
Ġfl ights
ĠR io
Ġbrief ly
it ual
ĠV o
uc le
19 23
ĠP oll
ĠEv ents
ĠT ar
ĠM oney
oc ese
dep th
boot strap
Ġopp onents
ĠDise ase
Ñ Į
ĠM aterial
ĠI L
ĠB illy
ĠC hel
Ġass emb
N T
m id
v ation
Ġc ous
ond a
edd ed
Ġcoal ition
ĠBG COLOR
ail ure
Ġvolunte er
Ġgen es
hel p
id al
Ġmin i
ĠCont ent
ĠInt eg
C opy
Ġp ounds
R ob
C rit
Ġ[ [
ĠC ensus
Ġwor ried
ĠPro gress
igin ally
Ġcou rage
Ġvol umes
o op
ĠOper a
ĠBen jamin
Ġmanufact urer
h ot
ĠJ oy
ĠH aving
P ersonal
ĠPub lished
p iece
ĠS ide
Ġsl ave
T ele
Ġ ),
eli hood
Ġveter ans
writ ing
Ġan ger
G P
Ġse curities
19 24
ud a
L aw
u id
Ġcl othes
Ġf inger
ĠG P
enn ial
Ġlabor atory
M ember
ĠB ou
ĠInd ians
s ql
ĠSt re
e ven
ĠRe lease
em or
ĠD J
Ġac res
is ons
St orage
Ġcount ies
Ġcl uster
Ġpregn ant
Ġobject ives
F ore
Ã¼ r
urs or
B ased
Ġalleged ly
Ġprodu ces
ĠN iger
ĠO cc
ĠPh arm
ĠSe lect
Ġlux ury
Ġsc iences
Ġsevent h
ĠDe ep
Ġl ad
Ġjournal ism
ĠY O
Ġdis orders
z ens
Ġsurve illance
Ġscen ario
rain ian
ĠN E
asc ular
re port
ĠMar x
R ule
ĠEm peror
ass ion
ĠC IA
Ġb inding
Ġconsist ently
O ption
ac o
Ġd ial
ĠC os
Ġaddress ing
ĠL E
Ġstruct ural
f ers
Ġrefer ring
Ġadapt ed
11 1
Ġequ ipped
Ġpers u
ĠTer ms
Ġsociet ies
ac ular
t n
im pl
ĠE C
vent ions
ĠSim ilar
' >
ĠC inem
ĠF el
## #
ĠCons ervative
Th ank
Class es
ĠDe cl
Val ues
St ack
ION S
Ġbreak s
Ġcontrovers y
ĠSh op
bo olean
Ġok ay
ĠTer rit
Ġdam ages
ra h
ĠR ap
G S
Ġarrang ement
et ics
Ġphenomen on
pr ises
ĠSh an
it ations
Ġconscious ness
M us
b id
Ġhy brid
and ed
Ġret ain
ÃŃ a
ĠOper ation
b est
Re view
ĠPr int
G raph
Ġr ally
Ġ ..
t ains
ĠDen ver
ĠK ate
ab ad
ĠCamp aign
ĠEr ror
Ġcompet ed
G ame
Ġlo op
Ġdeliver ing
ĠLiter ature
R T
ĠSever al
Ġl unch
ĠAl aska
ol ar
Ġen vironments
En abled
c apt
b ling
ĠIndust rial
Ġconflic ts
Ġcare ful
form er
ound ing
ĠBe aut
Ðµ Ð½
st ock
Ġor al
Ġdomin ant
Ġl ucky
ĠF ellow
Ġattempt ing
Ġpar ks
ĠF u
Ġsent enced
10 7
Ġpart ly
G reen
ĠN HS
Ġsc an
ot ton
ĠClin ical
m ock
Ġshe et
re ach
ĠM om
Ġarr anged
Ġcoast al
ab ling
Ġlegit imate
in os
Af ric
B it
Ġpaint ed
Ġaccompl ish
ron es
Ġimp ression
Ġrecip ient
Ġad s
Ġsynd rome
O ld
P ress
Ġt ribute
ĠN ear
ĠB ed
he alth
ĠC T
ĠBang ladesh
Ġsil ent
ĠM yst
on ies
Ġcon vey
yl um
ip h
Ġobserv ations
Î ¹
Ġsan ctions
ib an
Ġtra iler
l ate
ĠE li
il ateral
Ġintern ationally
ĠB ased
he ld
id ges
Ġb in
Ġrh yth
h over
ĠOr ange
Ġkey board
op es
Ġsupp lement
w hen
Ġemot ions
Ġco inc
Ð ²
Ġper ceived
ĠU g
orne ys
Ġs isters
ĠBar ry
ĠM uch
ĠPsych ology
ï ¼
Id ent
et on
ch anged
og an
rape ut
^ {
C ity
e q
ĠIm perial
Ġform ula
ĠP H
Ġconsp iracy
V A
b uf
ĠC P
Ġt issue
sc ribe
Ġcert ified
Ġpip eline
ĠM illion
Ġn ort
ĠCro at
Ġrad iation
Ġpract ition
b ig
Ġmet aph
Ġl ayout
e or
ĠGuard ian
en um
ĠM agn
Ġd ual
Ġspe akers
Î ½
Ġpublis hers
Ġpregn ancy
Ġha z
Ġvess els
ĠGl asgow
19 26
pro p
Ġadvert is
rec ated
D id
X T
Y eah
Ġfacilit ate
ĠF O
ĠHun ter
Ġm arch
Ġlif estyle
ĠI C
on ing
Ġex pense
P eter
v ised
ling ton
chn ology
ĠUnivers al
Ġn it
ic ism
spec ific
Ġ} )
ĠAr n
Ġsh ops
Ġrestrict ed
Ġprof ound
h l
ĠUp on
ĠSchol ar
Ġboard s
it ivity
Ġact ed
Ġab und
ul u
Ġcont rad
ĠCharl otte
10 8
ov es
Ġbre ach
Ġtrans parent
ĠGr iff
Ġbu ck
b n
ĠEm ploy
face book
ĠAr g
ET H
19 11
=" /
Ġl uck
ve ctor
Ġp ill
iv ic
wh at
Ġoper ators
Ġprem ium
ĠQueens land
Ġfin ishing
gr id
Ġo s
Ġg aming
Ġmat rix
Ġengine ers
Ġthe oret
ĠCreat ive
ĠT ogether
Ġarg ues
Ġh unt
f il
Net work
Ġaccept ance
Ġp up
iz ers
Ġcivil ian
Ġt weet
ĠTurn er
ĠSom etimes
Ch anged
An n
ĠF ried
ign ment
Ġcalc ulated
Ġcon vention
Ġpre val
Ed it
Ġexp end
Ġcl ause
az ines
ĠG ray
Ġfl ows
Rich ard
Ġn am
Ġh un
upload s
L ear
ĠHawai i
J ob
Ġfun eral
Ġdo se
ĠCont act
Ġrest ored
ĠM ason
Ġunem ployment
ĠB enn
ĠMur phy
S pan
Ġm eth
ĠSte el
Acc ount
ĠS ales
Ġprof its
ev ents
Ġpros per
H on
ĠC BS
ĠR ic
W R
ind ows
Ġs aving
osoph ical
ĠT ig
ath on
D elete
he astern
Ġc up
Ġst ere
ĠP resent
list ed
u is
Sh ort
param eter
ĠV ent
Ġload ed
iter ranean
C ategory
z o
iffer ent
a uc
ah n
ĠApp lication
ĠC emetery
om es
g ood
Ġ+ +
Ġ[ âĢ¦]
ĠMe anwhile
ĠE R
ĠQue bec
s ki
ĠE ST
T ab
Ġleg s
s ym
he ll
ĠL oc
Wh ite
Ġdismiss ed
Field s
Ġbreat h
ĠE state
Ġbr anches
T otal
Ġb ike
Ġl ung
Ġspecial ist
ĠL arry
web kit
ĠCN N
Ġstri king
Cont act
Ġs alt
10 9
n ity
Ch ildren
AR S
19 13
Ġmar ry
aps ed
ĠDemocr at
ĠU l
Ġprogram mes
} {
Americ a
De cl
ĠLa ura
Ġout door
Ġ( *
Ġinf ections
Ġrecord ings
ĠB io
Ġtrans c
Ġgrad ually
ug g
ĠJenn ifer
ĠC lear
ĠC ell
Ġcust ody
ĠCl ar
Ġdesc end
ĠF ern
ĠJu an
ĠG race
Ġre ception
Ġre un
Run time
Ġenthus i
ick ets
Ġmiss ions
Com mon
Ġfil ing
W he
z h
Ġlegend ary
d ing
ĠMont real
Ġang ry
Ġconsist ing
he art
Ġapp lying
ĠBar on
ym n
ĠIn n
Ġdist inction
Ġwhe never
p atch
ple ments
r ise
Ġch ances
ill o
Ġwork force
ane ous
pan ic
n atural
Ġthere by
ov ing
lis her
Ġp ension
ĠNe uro
; /
S am
Ġgr ateful
writ ten
Ġmet res
ĠS i
v ia
ĠF alls
Ġbl ow
IT H
Ġvess el
ĠPract ice
Ġcross ing
ĠEp isode
app ro
ĠPhil osophy
Em ail
I con
Ġcamp s
arg ed
ort ed
Ġsav ings
Ġ čĊ
Ġep ic
f ramework
Ġgather ing
Ġre named
ĠI ce
Ġemb od
ess ment
Ġaggress ive
w he
Ġw ounded
Ġuncertain ty
ix on
Ġassert Equals
ĠG as
an throp
rist ol
Ġnom ination
Ġoccasion ally
ĠSm art
IM E
bor ne
ĠC ome
d eg
end um
b ia
L in
ĠLe ave
B oth
Ġcare ers
ĠT ree
ĠN i
KE Y
Ġcount s
Act ive
n ia
Ġtrack ing
Ġdet ection
Ġexp at
be at
RE E
C apt
t w
Ġfoot age
Ġcontribut ing
m illion
ĠCra ig
Ġsign als
Ġbank rupt
ĠNev ada
Ġdetermin ing
in ely
ĠN ag
Sc ope
cret ion
ado op
Ġbatt les
Ġeth ics
ĠS D
ĠTown ship
Sc ott
Ġang le
Ġreform s
ĠCamer on
import ant
ĠCont ract
Ġdisc ount
Ġback ing
Ġsold ier
ĠS oul
Ġtrem end
Ev ents
ĠP ent
Ġn odes
ĠPortug uese
Ob j
u art
B orn
Ġinhabit ants
Ġinvestig ations
Eng ine
at ial
ĠB irmingham
Ġad mission
ue z
ĠSt ra
act eria
as i
Ġut ility
Ġaccur acy
Ġpsych ology
gg ed
ĠSud an
rit e
Ġdro ve
Ġg ram
Ġdescrib ing
ĠPar am
Ġclass ification
Ġseem ingly
Ġconv iction
al m
B P
Ġdem ol
ur u
Ġun pre
Ġwild life
Ġab ol
ĠK ir
clus ions
Ġst upid
d ependency
Ġin equ
is ely
ĠIn v
iff s
sh ore
Ġg host
_ (
ĠN at
er ver
ins ula
ĠDe velop
Ġing red
Ġrepe at
Ġrest ore
iss ues
Ġb anned
ĠV ar
Ġdivor ce
oc c
ĠRe form
Ġfoss il
ĠSe an
Ġprom ises
ĠT ru
path y
her ic
ĠBl ues
ĠAm y
dis abled
for ward
P ay
Ġi Phone
Ġm ere
Ġdis abilities
r ass
am ents
Ġunder ground
du ce
Ġattract ive
ĠHar rison
S M
ĠPro test
V ert
ĠM es
Ġex ports
Ġb ab
Ġcom ics
ĠW ang
Ġm ood
for ced
Def inition
ĠPer ry
Ġtr adem
Ġ Ø
Ġdevelop er
Ġadequ ate
Ġcompl aints
Ġattract ed
Dis play
ĠRes ponse
Ġpun ishment
Ġh orses
ev a
Ġgall ery
Ġeffect iveness
Ġtreat ments
Ġevalu ate
Ġdepart ure
pr imary
ĠOr thodox
Ġf old
ĠStr ategy
Ġexhib it
p adding
Ġsupp lied
ĠClass ic
ĠSec urities
Ġb at
ĠO ri
oc hem
L ock
Ġwant ing
ann es
Ġencourag ing
Ġs orry
ĠG ets
Ġp ending
ĠJer ry
Ġcast le
Ġremember ed
Ġrob ust
ĠTechn ical
Ġwealth y
f ish
Ġre cept
Ġforest s
ĠChall enge
Ġreven ues
! )
ĠJ SON
? )
Ġoverwhel ming
foot er
Ġtechn ological
sett ings
al ph
th read
Ġb ronze
Ġbar riers
ash ing
ĠMad ison
ĠDef ault
Ġf ate
Ġj ew
Ġsu gar
ĠStan ford
N um
ac cept
w oman
ĠBill board
Ġfin ancing
Ġr ugby
Ġd ust
ex ports
b ot
ard ing
ĠConst ruction
pl ed
AS H
ĠC her
G C
ĠSh akespeare
the y
ĠG iven
ĠF ab
Ġcur riculum
g it
AT ED
ĠP ant
ĠMet ro
Ġtack le
ĠĠĠĠĠĠĠĠĠĠĠĠĠĠĠĠ ĠĠ
it i
Ġcons ensus
ens ively
} "
M ock
Ġcar ries
g ender
ĠMor ning
Ġident ifying
Ġsec ured
Ġpass word
Ġind irect
ĠL l
Ġwork place
pan el
ĠN ATO
Ġt ables
ic ular
ĠG ov
Ġm ath
Ġappe aring
re ated
Ġtravel ed
Ġfollow ers
ancell or
Ġloc ally
ĠDef ence
Ġprote ins
ĠA y
Ġmed ieval
Ġcou ples
Ġj son
W idget
Ġdiscl osure
L ondon
ĠG ate
ĠK rist
let ion
FA ULT
Ġdes ired
ĠAgric ulture
ĠJ oint
h ind
Ġn a
ĠL ost
Ġar c
M ag
" |
Ġaccomp any
Tr ump
18 90
ĠMach ine
B usiness
ut ory
Ġclass room
Ġcamer as
ĠP ra
Ġp in
Ġbare ly
ĠHeb rew
P ER
Ġmon ument
ĠG ay
Ġpassion ate
Ġentreprene ur
Ġcl im
Ġp ump
Ġoccas ions
o ons
ĠF ine
Ġton ight
ed itor
-- >
Ġt ip
ĠE lection
ĠS ad
ĠF if
Ġsh ipping
Ġdr ums
Ġsuggest ing
ĠB es
Ġunder graduate
ĠInter est
p in
uk i
O wn
at itude
ĠOr iginal
re ck
ĠĠĠĠĠĠĠĠĠĠĠĠĠĠĠĠ ĠĠĠĠĠĠĠĠĠĠĠĠĠĠĠĠĠĠĠĠĠĠĠ
ars on
Ġr ivers
ĠBer keley
Ġf ro
US A
F i
ĠCh ampions
ey er
Ġse cre
Ġch amber
T ax
om m
ĠH ousing
Ġbi as
F ollow
12 7
as ia
ĠP el
Ġbuild er
ĠBul gar
Ġf uck
Ġal arm
Ġcomp an
Ġinf lation
ĠMad rid
Ġacknowled ged
P ackage
Ġve ctor
ĠP att
over ed
Ġs le
Ġg ains
ĠP un
im edia
ĠM obile
Ġstay ing
Is rael
Ġnon profit
ster dam
Ġper ception
L java
Ġsimultane ously
Ġin sect
Ġsm oke
ic iary
Ġsumm it
Ġdomin ated
ĠS A
V ar
Ġl ying
op ath
ĠA ld
ab a
ĠA er
ier ra
com ment
ov ic
ĠSh ah
Ġanticip ated
Ġlong est
MA X
G M
ĠSe ven
om atic
ĠB ron
Ġviol ations
ĠArch ived
ĠWar ner
Ġin quiry
Ġg ig
ine e
h ops
Ġrecover ed
ĠSh are
Ġmut ual
Ġacqu ire
ĠPre vention
ri en
atter ed
Ġa ired
Ġreport ers
ou ter
M W
Ġaff il
Ġmechan ical
ine a
ĠMin or
Ġfriends hip
Ġqu oted
ĠH orn
Ġhum or
th an
Ġattend ance
Ñģ ÑĤ
Ġnot ably
ĠA aron
Ġinst ant
Ġven ues
ect s
Ġconsult ation
Ġsust ained
Ġvacc ination
Ġout er
Ġhyp othes
ĠFa ith
Ġg race
ĠH em
Ġim perial
ĠH unt
ĠGu id
Ġsh adow
b us
Ġcolumn s
ĠImp act
. *
ĠIS BN
Ġwal let
Ġf atal
Ġd ivers
ĠHel p
b f
in ery
Ġh ung
Ġbond s
Ġc m
ĠArt ist
ĠR at
ĠBrazil ian
. ]
Ġg entle
l n
S chool
Ġindic ating
ipl inary
ir ts
Met a
greg ation
i eth
Ġf ur
ish ops
Ġsa il
Ġaccompl ished
Bo olean
Ġen ables
Ġstrugg les
cel and
Ġstr ings
Ġim per
all ing
Ġspons ored
ĠW or
Ġhand ler
Ġdifferent ly
× Ļ
ĠP arent
ĠR y
om on
Ch annel
ed ed
Ġmand ate
ĠPict ures
Ġd ub
const ruction
Ġorig ins
Ġemb ra
ĠTransport ation
Ġhand ed
Ã© t
Ġpresc ribed
Ġexam ined
S ET
Ġphys ically
ĠK irk
Ġt ropical
Ġinvest ing
An al
Ġimm un
ĠCon c
Ġev olved
ĠG erm
Ġsp ots
je ctions
11 4
Ġv ibr
Ġappro ached
ĠAdvis ory
ĠCat hedral
Ġin herent
ĠJ ob
Ġcar rier
Ġinflu ences
Ġth reshold
Ġpat ri
cy cle
Ġeditor ial
Ġtaxp ayer
ass ets
Ġcomp elling
all ow
uck er
Ġdistingu ished
Ġj ack
Ġa est
ĠKe ith
Ġl ibraries
p red
ĠP red
aut o
ĠN am
Ġnation wide
Ġup set
ced ented
ab e
ĠStat istics
Con nect
Ġter r
Ġswim ming
ĠC ry
Ġgraph ic
ĠM ans
ĠV I
Ġun ions
amp a
Ġqual ify
ist le
Ġadj acent
Ġdiscipl ine
Ġchem istry
Ġburn ing
Ġbl ank
Ġd rag
Ġsubsc ription
ing ers
Ġup gr
ĠJeff erson
g overnment
ĠCon cert
Ġwis dom
Ġg ear
FI LE
Ġnurs ing
M ill
oca ust
ĠEth iop
Ġw ages
c os
Ġaffect s
Ġhop ed
Ġrac ist
Ġdo zens
Ġman ual
ur red
Ġpr ide
Ġchalleng ed
Ġansw ered
ĠL ad
Ġres il
ĠT otal
X ml
Ġdecl aration
ĠC amb
r aska
ĠW onder
M aster
Ġdis pos
De ath
ĠS U
og s
ĠTh or
Ġlab els
ĠWrit ing
Ġre nown
Ġl ady
Ab stract
ĠD ragon
cl ip
Ġfor um
Ġrev ised
10 16
re ens
Ġsusp ension
reg ister
ĠQu arter
ĠSt orm
Ġhuman itarian
Ġconnect ing
Ġo xygen
ĠAb raham
Ġobserv ation
w alk
ĠH udson
Ġdiv isions
Ġpeace ful
ĠW elsh
Ġh unting
ent o
Ġst ops
ĠWith in
ĠK ids
ah o
U ES
ĠN othing
Ġpart ially
ĠGreat er
hem e
c md
ĠCom ics
Ġcons iders
ĠW es
Ġrest oration
T T
y g
ĠF itz
com plete
ex pl
Ġaw esome
Ġpro c
ĠBre ak
En ter
O ST
Ġexcept ional
v ideo
Ġterrit ories
ĠC er
Ġsus pected
ĠB ody
ern el
Ġtransl ate
} /
Det ails
A ir
Ġdis rupt
g un
Ġh ire
ĠV A
Ġcorrect ly
Ġfrag ment
t ons
Ġcourt esy
~~ ~~
Que ue
Th ose
iv ities
HT ML
Ġenh anced
Ġinvest ed
Ġrid ic
row ing
Ġvari ation
r idge
oth s
ĠAl tern
D ialog
Ġsc andal
ĠM all
Ù Ħ
Ġto ll
Ġforg otten
ĠComm ander
ĠMed iterranean
ĠA SS
ĠP i
f ocus
ĠBern ard
Ġglob ally
Ġflu id
if le
Ġresearc her
" `
ĠPart nership
Ġ< =
Ġinstrument al
rag ment
Ġpro xy
ash i
Ġpredict ed
comp onent
Ġlog o
__ (
Ġrank ing
et e
ĠM ack
Ġaffect ing
P ower
iv ated
ind a
Ġport rait
Ġfund ra
Ġlit igation
ĠBapt ist
am ation
ĠAssoci ated
r ust
Ġrout ine
ĠM asters
ĠPart ners
Ġhon our
Ġany body
ĠLe v
Ġc ricket
ĠB irth
Ġown s
ĠI M
Ġsearch ing
Ġphil os
h s
Ġm os
inc inn
Ġpan els
Ġe uro
ĠTr ad
Ġhe lic
ĠMu ham
ĠL isa
Ġdesc ript
or ic
Can adian
Ġprivile ge
Ġr itual
Ġun ve
Ġimportant ly
ov ak
ĠG ot
ĠW a
Ġwitness es
uns igned
S ocial
cast le
ĠM ong
J ul
ĠF unction
ĠSol ar
am med
ĠN HL
og ram
ĠHit ler
is p
que ue
ĠR ud
ĠBre xit
Ġshould er
Ġachie vements
ĠC ould
od ec
ĠAl fred
ic ating
ri ors
ĠUS D
] :
s pecial
ord ination
o i
ĠInit iative
Ġ" /
ĠVin cent
Ġab ilities
othe rapy
ĠRob in
Ġconduct ing
ĠRe le
ev al
B ro
Ġn erv
ant on
Ġrecogn ised
mar ks
Ġgenu ine
le ading
ĠSu ccess
Ġsil ence
Ġdeploy ed
Ġleg ally
ĠNe il
ig o
ch t
it ems
ĠPro duction
Ġp ic
cyclop edia
P ool
Ġd ign
clud e
Fr ank
A U
S pecial
Ġinnoc ent
Ġtra g
up le
if iers
Ġex ecute
Ġimplement ing
S ervices
Ġw ishes
ĠSt age
ĠC atherine
Ġear ning
ĠT ib
190 8
Ġprem iere
Ġthe rap
Ġpo ems
al ian
Ġhe nce
ĠFred erick
lic t
ĠS ay
Ġacknow ledge
Ġs hed
ex ception
Ġle ase
ĠT ed
ĠP DF
h al
f old
ĠF alse
atas et
Ġb its
Ġm ouse
Ġstri kes
n ecess
Ġelect oral
Ġform ing
Ġt ours
est on
io x
ĠHung ary
ro se
Ġtour ist
are a
ĠNorm an
ĠFin n
incinn ati
ĠTer ry
av an
Ġst roke
Th omas
B ill
ie ve
eeee eeee
Ġre actions
am el
ĠOl iver
L IC
Ġre vel
b ie
o ft
C oll
Ind ia
ul ates
Ġres erves
add r
Ġexperien cing
ĠKar l
ĠÐ ¿
Ġbound ary
ĠMag ic
Ġm sg
ĠFin land
Ġrom ance
W al
ĠG round
ĠMed ic
onom ous
ys ical
call back
Ġu pload
Mem ory
as a
ĠMet ropolitan
Ġhero es
Ġsatisf ied
â Ħ
Ġr iding
Ġp uzz
f ill
ĠNich olas
ĠMov ies
spe ed
hemat ical
! [
om o
; <
F ace
Ġset up
oid s
ĠSp ot
Ġ' /
Ġob sc
ele gate
ene ath
Ġpost er
Ġcomment ary
eg u
Ġgrand father
ĠSt op
P rior
Ġhighlight ed
ĠEm ily
Ġcharacter ized
Ġrevolution ary
ĠZ one
ef e
re v
Ġdynam ics
M ake
Ġdon ations
ĠS ony
ii i
Ġtransform ed
Ġam bit
ĠAl t
it ter
reg ion
Ġadv ised
M icrosoft
Ġres olved
Ġatt ributed
Â ·
Ġpro l
ĠF iction
u ition
Ġh itting
ĠK l
Ñ ĩ
Ġhand led
ĠRes ults
ĠB omb
w al
Ġmolec ular
M R
ĠI de
M atch
u ated
Ġvacc inated
Cont in
O bs
L Y
ell ers
p i
ie v
ps y
ĠDe al
assert Equal
Ġrece iver
Ġinv ention
ĠR O
Ġpath s
11 3
ff icking
Ġtra uma
Ġpred ecess
Ġautom atic
w er
St and
ol ine
Ġrail road
Ġtra gedy
Ġche st
found er
Ġprec isely
Ġf ib
ĠR ank
Ġint r
E lect
Ġval ley
P rim
Ġsurviv ors
Ġprest igious
ĠL ock
Ġident ical
hib ition
ĠIn ternal
Ġph ones
Pl ay
Ġdiagn osed
Ġachie ving
' ))
Ġrel ate
Ġaccept able
) ).
ĠS S
ĠS yn
ĠM ade
um ar
s plit
Pr ivate
Ġtra ce
ĠNor wegian
V ERS
Ġex tr
ĠAll ah
Ġs its
ĠScient ific
amil ies
In f
sk ip
Me anwhile
ĠNash ville
ĠLie utenant
L im
ĠEx cell
ibl ical
Ġnot ing
ibli ography
ĠN EW
ĠF ed
Ġcomplet ing
oust ic
Ġhe aven
ĠCons ervation
ac hers
z ym
Ġless on
Ġdiscuss ing
Ġs urn
qu ality
ĠWeek ly
ĠEmer gency
Ġinf ected
Ġmist akes
ar us
Ġwith d
ser ve
habilit ation
Ġg ri
Ġmin imal
Ġsm ile
Ġcou p
ĠR ico
ĠC arm
ĠL P
b et
ĠGr aduate
con nection
P od
Sh are
Ġint rig
Ġlight ing
Ġdelay ed
Ġland ed
ĠP ul
ĠEvery thing
ĠArch ive
M ary
bass ador
Ġthe at
com fort
Ġpain ter
E ast
* )
× ķ
ĠCru z
Ġrob ot
Ġret ained
Ġb om
Ġch at
C I
9 78
Ġbel oved
n one
Ġcomment ed
ĠC ounsel
_ ,
ĠStat ement
h adoop
Ġut ter
Ġnam ely
T ool
h n
A K
t oggle
re present
F N
ĠR achel
Ġc ock
Ġsure ly
Ġexecut ives
ri el
im ated
Ġdr ives
def ined
//////////////// ////////////////
Ġdire ctions
m aterial
Ġsh ame
per form
Ġcre f
id el
Ġstake holders
Ġbi ology
Ġemp ire
ĠRich mond
E st
ur able
Ġcon ce
In formation
Ġconsist ed
Ġm ild
u ity
ĠH D
Ġmus cle
Le ave
Ġhon ored
W orks
Ġmoder ate
ĠA rena
ĠH ost
ĠWat son
ĠVi enna
ir i
D atabase
Ġrepl ied
Ġc ir
Ġres erv
Ġst olen
z i
Ġsur render
Ġmurder ed
7 50
Ġl on
op ed
ĠV oice
m und
n ational
ĠB rew
ber y
ĠSt ream
Î µ
Ġdon ated
ĠUk rainian
un al
Ġcogn itive
ĠReg ulation
Ġimp ressed
ĠCon fig
L ive
Ġdef ending
pos itory
=" ">
ĠIm pro
Ġv ig
f ight
4 50
Ġdo ctrine
Hel p
pass word
d in
Ġc ov
e lection
190 5
Ġlay ers
f ive
ĠR ot
ro gen
Ġdet ected
Ġcompet itions
Ġg est
Ġh ist
Ġten ure
Ġpred omin
ĠF riend
ect ive
ĠCl ay
( -
T ests
annot ation
Ġmyster ious
Ġt ips
ĠH ockey
th lete
Com ment
intend o
ĠTr uth
in v
Re v
Ġthe r
tx t
In v
Ġdocument ed
Ġad verse
Ġcomput ing
W in
Ġprom ising
Ġcounter part
az y
ĠL en
ĠB ec
B D
ĠN urs
h is
19 01
Ġquant um
ay an
f iction
Ġcomplex ity
Ġaccess ed
Ġcivil ians
H istor
ĠD oc
Ġpartnership s
Ġfl ed
ĠD elta
Ġquarter back
ick ed
ĠEnter prise
ĠTal iban
ĠL it
im mer
pl ant
Ġunpre cedented
Ã ´
own er
l ive
ĠE V
C ur
com ed
ĠU pper
Ġsl aves
à¤ ¾
ie g
Ġh tml
ĠCommun ication
ĠAut o
Pro duct
ĠSumm it
C ategories
S ong
Tag ged
ch annel
ĠTreat y
Su pp
Ġde ce
Ġback ed
qu al
h aw
Ġste pped
C ond
Ġprocess ed
ĠS oph
Time out
ĠSpe ed
Ġapplic ant
T ex
Ġsh ore
Ġst unning
ĠF ig
ĠR isk
ĠCon stant
Ġchar ter
Ġform ally
H ave
Ġke en
ĠArchitect ure
B Y
} $
r ays
Ġdead line
os itory
Ġt ar
ang a
Ġbl ess
ĠD im
Ġm amm
ĠB eth
Ġpra ised
Ġbelong ing
G old
Ġres on
.... ..
et o
ĠIss ue
Ġhost ing
Ġse ar
ĠVenezuel a
Ġiniti ated
Ġprov incial
Ġsoph istic
ĠL ot
In ternal
11 7
18 80
Ġelder ly
w rap
ĠR s
ĠTreas ury
Ġtreat y
ust ers
Ġch apters
Ġorient ation
Q U
Ġkill er
ut able
Ġth rew
Fl ags
17 0
em on
um my
Ind ian
ĠPr imary
â ĪĴ
ai ro
ĠW ikipedia
Ġdi abetes
ter ior
Ġstat ute
e ast
m ill
am ma
Ġn g
ĠSh aw
Ġcann abis
Ġf u
L ou
Ġrenown ed
ty ped
am ine
ĠHig her
e an
Ġdis cretion
Ġass ists
erv atives
us ive
Ġre aches
Ġsing ers
Ġaw ait
Ġadvoc acy
J SON
Ġtri ps
ab ul
l it
ang ular
ĠHind u
ĠObs erv
ull ivan
Ġt ension
count ry
c ott
ĠCons ider
Ġfl our
ĠBi ology
Cl ose
M ad
ĠK ay
ĠCost a
Ġn an
ĠCons umer
Ġpo ison
Ġconsult ant
PD F
Ġev ac
Ġcritic ized
ĠPalest ine
inc ome
s ocial
Ġen v
-> _
J im
ph ones
Ġmet ab
Ġall iance
c irc
qu ence
Ġcitizens hip
ĠComp anies
Ġch ampions
Ġsm oking
CT ION
ĠLeban on
ĠRog ers
ĠRe quest
Ġm igr
ĠS oc
Ġv el
c pp
Ġhistor ically
Ġc odes
Ġapp end
or rect
Ex pl
ar ms
ĠL ux
ĠF DA
ĠG O
Rel ated
Ġambit ious
ĠFl ight
Ġqual ifying
Ġhabit at
S ources
Ġcomm emor
Ġind epend
Ġcollect ing
Art icle
Ġdead ly
Ch ris
Cl oud
Ġlock ed
FOR M
l ia
ĠWork ers
au kee
OR K
ĠGh ana
Ġalgorith m
Ġf ame
Ġin clusive
acc ount
M sg
ol utions
Ġn ic
Ġwe igh
st ud
ĠSpr ings
Ġwal ks
Ġcheck ed
s chool
Ġel abor
Ġsc ream
Ġem bar
Ext ension
Ġflex ible
i aries
av el
Ġint im
Ġfarm ing
Ġstat istical
S W
Ġconf used
Ġjav ax
Ġstat ue
Ġinvestig ating
Ġrem arks
ĠAdv anced
Ġmin isters
s ave
2 20
Ġinter active
B ER
ort s
âĦ ¢
Ġadvoc ates
Ġmort ality
Ġprosec ution
á »
Ġconsequ ence
b ishop
Ġtim ing
Ġreason ably
Ġsort s
Ġ" <
ĠAlex and
Ġsuccess or
bl ack
Ġball ot
Ġle af
Ġarchitect ural
Ġrat ings
te ch
Ġconf usion
F M
Ġexplicit ly
ĠMount ains
ĠV ery
F inal
Ġsepar ation
L D
Ġopp onent
F iled
ĠW i
inst all
Ġtour ists
Ġres id
Res earch
ĠBuff alo
ĠW AR
duct ive
ĠN ancy
Ġharass ment
t ers
Ġas h
ĠLiber ty
ĠR ing
r ank
ew ise
Ġshel ter
Ġhot els
ĠS r
n ik
ĠM i
Ġsac red
ĠB ath
Ġdiplom atic
ub ble
Ġdec ides
Ġpres erved
ĠBr anch
ĠSc ript
ĠB orn
F iles
Ġwood en
Ġt orn
Ġa uction
11 6
m n
Ġdes erve
Ġround s
Ġcross ed
ĠAdd ress
Mat rix
st ration
oc ity
Ġres emb
ett a
Ġch ron
Ġmiss ile
Educ ation
Ġb ases
Ġed iting
c ategory
ĠAl ong
Ġnum er
ĠSt atus
cl osed
ĠC row
ĠWell s
man ager
ent in
ĠCom pl
ens is
ett ers
UN D
Ġver ify
Ġmatch ing
Ġh ier
ĠR acing
190 6
Ġrespect ed
Or gan
l as
Ġmag azines
Ġl iver
Ġs izes
Ġprem ises
ĠC atal
Ġden y
OR Y
ĠHel en
Ġvar ied
ĠCh a
au er
Ġhar vest
Ġterm inal
ĠCont emporary
Ġste am
P AR
Ġcur ious
ĠAm sterdam
ĠL ower
S ingle
Trans port
ĠB udget
f eed
o j
ĠR ather
ĠSh a
ĠH E
Ġgra ve
Se lected
Par se
p air
G od
ĠS alt
ĠIraq i
ĠLabor atory
00 1
Ġinterview ed
ĠR uth
pen cer
ĠDou ble
Ġl ens
ul ative
AD D
Ġheart s
ĠM iles
Up dated
Ġsh aped
F our
Ġshare holders
ĠColomb ia
st able
j d
Associ ation
Europe an
Ã ł
Ġbon us
M ajor
Ġref lection
Ġcal m
ĠConf eder
ĠA G
Ġd ancing
ĠN ode
Ġgold en
ĠLet ter
Ġmar ijuana
ĠS id
Ġassoci ations
ist ically
ĠB ristol
ĠEd wards
comp ass
Ġcreat ivity
ĠAv ailable
ĠPe ak
ard ed
ĠBar cel
cer pt
as ures
Ġprint ing
Ġsequ el
ĠB eyond
K ing
Ġint ensity
Fin ally
AN CE
U ID
econom ic
ĠL ag
ĠDel aware
Att ributes
Ġyoung est
Ġconstit ute
13 5
ĠG arc
Ġexpl ores
ĠM erc
ge x
re lation
190 7
ĠFe ature
ĠSpe aker
he imer
Ġprior ities
190 3
umb ers
Ġinstance of
Ġam pl
ym ph
ĠK le
Ġim plements
Ġtremend ous
Pl ace
w ild
Ġfear s
ĠB aby
Jo in
pl ane
ari ant
ĠPut in
in her
olog ically
^ ^
Ġcert ification
att ribute
ĠG host
Ġint elligent
S al
Ph ot
Ġap olog
e a
ĠSand ers
M el
Ġcap s
fl ags
Ġg ifts
190 9
ĠM C
Ġout s
Y PE
Ġbelong s
Ġphot ographer
s ong
OC K
E U
ĠProgram me
Ġo ught
Ġpartic les
Ġmeasure ment
Ġf ighter
ĠE ld
ic iency
P ack
ĠN ord
En vironment
") ]
Ġrec ycl
ĠKe ep
Ġodd s
Ġend e
C ard
Ġspecial ized
Ġlegisl ature
Ġexcell ence
ew ay
Ġclos est
ĠCol lect
Ġview ing
w iki
17 6
w aukee
Ġcap ability
Ġnews letter
nt ax
} </
s ince
ĠP ick
Ġfood s
Ġelim inate
Ġm g
ĠG olf
Ġimag ination
L android
sen al
ĠĠĠĠĠĠĠĠĠĠĠĠĠĠĠĠ ĠĠĠĠĠĠĠĠĠ
se lected
ĠW ould
ĠDe g
RE D
Ġur ged
Ġdispl ays
as ive
Ġsh it
ĠAn cient
ĠF ilms
in stein
ĠF ollow
ĠCarl os
ĠK id
18 00
ĠG ene
Ġworks hop
f olk
Ġpropag anda
Ġfif ty
Direct ory
Ġmir ror
Ġmuseum s
Ġburn ed
at ile
AN S
Ġnerv ous
Ġdim ension
Ġtrans parency
Ġpe ers
!! !!
Ġrun ner
Ġun t
Ġthere of
ĠRe ports
ĠSh ar
ĠN athan
qu arter
Dan iel
Ġprevent ing
ĠW alt
Ġsaf ely
H en
Ġposs ibilities
m ove
Ġrec alled
e u
ad vant
b one
Ġsuper vis
ĠF igure
190 4
Ġax is
h alf
ĠForm er
ĠFl ore
Ġdisappe ar
b ach
ĠH ait
Ġtrans it
force ment
ĠPri x
s om
ĠSong s
em a
)) )
pp ers
ĠCo ach
in formation
Act ivity
ĠC lick
Ġf er
ĠM ail
block List
Fl oat
Ġillust rated
ĠD iamond
ĠStand ards
Ġdemand ing
ĠB ud
Ð¸ Ð
li ers
orks hire
==== ==
Ġamb ass
m argin
Ġf ictional
Ġn ights
Ġdim ensions
Ġfl ower
ĠCo hen
ĠB ird
cl osure
ĠUg anda
ern ess
gh ai
ĠĠĠĠĠĠĠĠĠĠĠĠĠĠĠĠ ĠĠĠĠĠĠ
m atic
_ ->
ram es
land o
ĠHoll and
Ġdecre ased
ĠL ith
con duct
Austral ian
ĠTer ror
ĠF ast
ĠP ad
Trans action
op ic
ĠGr an
Ġinvestig ated
Ġd ish
ĠD ig
Ġtox ic
Ġbo ats
2 30
un ctions
ĠAcadem ic
Ġn urse
Down load
ĠS outheast
imens ional
ook ie
Ġclos ure
ĠVictor ian
ĠCorpor ate
D IR
Ġtarget ing
ĠS ale
ĠK on
ĠInter view
ĠEconom y
us ers
Ġrep ublic
L ayer
Ġmer ch
um ble
Su ccess
) /
ĠJ ama
Ġinters ection
N P
ĠS ug
Ġunc lear
Ġwel comed
Ġque ue
Ġcent res
Ġweak ness
D ouble
ĠF ish
y ll
ĠC u
J ew
c b
friend ly
Ġhand ful
ĠK el
a ired
Ġro ster
Ġfast est
ĠInd ependence
ĠHar vey
Ġsur ge
Ġref use
Ġdraw s
Ġd ys
Pro gram
Ġcro ps
ĠRon ald
Ġaccommod ation
Ġsub div
iz ational
Ġcompet itors
ĠPhill ips
Ġp or
ĠTy ler
Ġcon ferences
yl an
Ġen rolled
ĠAppe als
C ert
Ġb rick
D iv
Ġh al
ĠP L
ab we
ĠM E
Ġ( _
build er
Ġto b
Ġan throp
Ġstri p
f our
ĠC urt
Ġrel atives
ĠBet ter
Ġjo ins
Ġman ages
ĠT odd
az i
Ġres igned
Reg ister
ĠComp etition
Ġsurv iving
Ġc ra
Ġstrugg led
St ation
ĠDan ish
ĠL ore
Ġele m
ĠNeb raska
Ġsett le
ĠS aints
Ġpro x
Ġisol ation
ĠP ic
Ġpr ay
Ġover view
Ġsacr ifice
ĠB oe
Ġvis a
ac er
Ġen abling
Ġwind s
ĠUn iverse
Ġd iamond
Ġm ature
Ġf ires
ĠK an
de velop
Ġmand atory
ĠNot es
Ġed itors
ĠI celand
J ud
ĠQ ual
Ġb acteria
Ġad mir
Ð¾Ð ²
Ġfest ivals
ĠK aren
Ġcomm od
Ġinf ring
Ġc ig
ut o
J on
Ġrece ipt
ĠTre k
ĠD j
Ġte eth
ĠRe ed
Ġbox es
Ġk iss
Ġmarg inal
Ġpolit ically
Ġpre lim
Th ough
D est
ĠBarcel ona
ĠG rey
b its
ON G
pl ugins
ĠV lad
Ġse gments
ĠE ve
Stat ement
Ð° Ð½
Ġe ager
Ġhe aling
Re al
ĠHill ary
et ed
ĠT amil
Ġde ployment
Ġt ape
@ "
Ġaff air
ĠBr ight
ĠOther s
L ove
Ġadv ances
Ġw ings
imb abwe
id ad
Ġs wit
Ï ģ
Char les
im ir
Ġbe ating
Ġr amp
oc ols
ĠBroad cast
ĠS W
ĠH az
Ġneighb ors
ch anges
ĠArab ic
ĠL ion
Ġtheoret ical
Ġt ired
Ġroll ing
Sh ould
Ġcho osing
ol ia
ĠW u
ĠS oci
ĠT ry
b ek
ĠM ental
Ġrepl acing
Ġe ighth
sh ape
arch ive
A li
ĠY ale
S ummary
Ġgraph ics
ĠP le
ov o
ĠMuham mad
Ġsw ing
pl atform
Ġafter wards
ategor ized
Ġth ro
Ġsk i
b ai
Ġnav al
W indows
18 70
Ġlock down
ĠG onz
Ġun ity
ĠGet ty
ĠPhys ics
ĠAt hens
Ġexpl aining
Ġal ike
agon ist
ĠSym phony
Ġ" "
P erson
ĠA B
ĠF err
ĠPict ure
ar re
Ġcontin ent
sc ience
Ġstar red
Not Null
id o
ethe less
be cca
ĠEm ma
Ġlast ed
Ø ±
######## ########
Ġmoment um
Ġinf lam
ĠT on
12 1
Ġmother s
Ġworks hops
= {
he ster
L en
ĠD esc
ĠInf antry
Ġf oster
d ig
ĠA ra
Ġfor ty
Ġwitness ed
ĠF ro
Ġsh oes
Ġproceed s
Ġch rom
AN G
v ance
Ġassist ed
om i
ug os
rie ve
ĠCamp us
Ġmet adata
m ount
em i
ĠVis it
i ov
ĠEvery one
s qu
Ġro cks
Ġfulf ill
Ġmax im
ut er
Ġlog ical
Ġign or
Ġconven ient
ol an
Ġ ).
Ġtw in
Ġn inet
Ġs ampl
s burg
An not
Ġcomp iled
t ail
CO MP
on ce
Ġun cle
ĠQ uality
Â Ń
amb ers
ĠDub ai
ĠC incinnati
ĠSal v
ul ent
Ġn ose
Ġpers pectives
ĠG DP
ĠPar ks
Ġcred ited
lic ations
Ġconcert s
ess ages
Ġover l
190 2
Ġorgan ised
Ġenjoy ing
ĠO t
ĠBat man
ç ļ
Russ ian
W H
ĠPol y
Ġcous in
Ġfight ers
th row
T ur
ĠE lementary
S ever
Ġguitar ist
t otal
Ġassign ment
Ġr ic
ĠSol utions
Ġhol y
ĠH ob
ĠDown load
ash a
h ave
P I
Ġinf ect
Ġm asks
Ġsn ap
ss on
ĠCom edy
amb da
ĠHar per
ĠRepresent ative
ĠIN TO
Ġemb race
( !
Ġen roll
ĠR av
ĠFle et
ĠF M
ĠCh an
Ġra ises
ĠD rama
omet ric
ĠJ a
ĠA w
() ));
ĠD ennis
Ġmer ged
Ġatt itudes
Ġf t
Ġguarant eed
Ġproject ed
Ġ% }
Pro file
atic an
Ġworld s
Ġstat utory
dr iven
iter ator
us c
ĠCom mercial
ob a
F IG
j u
ĠIm port
ĠAlbert a
Ġspokes man
Ã ¥
Ġav iation
ĠBl u
Ġb eneath
Ġmat hematics
Ġegg s
ĠR ivers
US E
Ġpre jud
ĠN ar
ĠB ald
ĠSer bia
ot ypes
ĠA round
Ġdeal t
k ed
Ġa qu
ĠLl oyd
Ġmagn etic
Ġf itness
ĠN PR
ĠMe chan
ĠHug hes
w art
Pl an
VERS ION
ĠE ug
Ġde ck
Ad apter
ĠB ak
b ank
Ġelect ro
D oes
Ġcollabor ative
ip eline
g om
Ġhold er
ĠTh an
am ination
L ead
Ġup grade
l iving
Ġmet a
ĠInstit ution
Ġremov ing
Ġabs ent
Ġim pe
Ġwrit ings
Ġcor rupt
m ask
prot ected
Ġcancell ed
Ġsubstant ially
Ġad vers
Ġsub mission
24 0
Ġh anging
J ose
Ġt ut
Ġrecommend ation
Ġin fer
ĠRoman ia
is en
Ġportray ed
ra ble
St op
Ġjust ify
Ġmed ic
Ġper f
Christ ian
b rief
ĠJ obs
app ly
ĠBen ef
Ġexha ust
ĠHol ocaust
v et
ĠT arget
ĠD raft
Ġatt orneys
ah u
ĠC risis
ĠB asketball
Ġart work
Ġwond ering
ĠS ure
Ġc oc
ĠExper ience
Ġtrib es
form s
Ġdecl are
Ġcl ip
net work
ĠBrook s
ars et
ĠT u
ĠSing le
G rid
ot an
ch ing
Ġinequ ality
It ems
ĠUn like
Ġsp ell
Ġpurs uing
ĠAm bassador
Ġexcept ions
ĠO pp
Aut o
Ġtob acco
ĠTh ink
Ġhon ors
ĠJer emy
Ġlov ely
le en
ick et
Ġpower ed
r Ã©
ĠE S
Ġvers e
ott a
ĠColumb us
ĠT ol
th rows
V M
Ġhistor ians
ams ung
Pro p
ĠPl atform
u ate
w ig
ĠMor oc
ĠCh ampion
Ġf isher
m ans
)) );
Ġcook ing
Ġembar rass
Ġcomp assion
vel t
N ET
Ġm igrants
Ġsc reens
Ġhydro gen
ĠSo on
Ġinflam m
Ġhom osex
if iable
sc ious
C reat
() ).
________ ________
Ġprelim inary
Ġlett ing
Ġpresent ing
ĠY orkshire
Pro xy
Ġed it
ĠGi ants
Ġre ass
ĠAN Y
ĠM end
ĠSer ge
Direct or
amb ig
ĠLuc as
Ġdet ention
ĠArt icles
Sc ale
hand ler
à ®
or o
Ġund ers
BU G
u ilt
12 4
ĠVer mont
Ġinvest or
Ġrefer endum
Ġthrow ing
Ġspec ify
Ġearthqu ake
çļ Ħ
it us
Ġgradu ating
Ġac ute
ced es
ĠE SP
Ġarch ive
Ġpol ar
Pl ugin
Ġnation ally
Ġsub t
print f
ars ed
Ġte aches
ĠPar ish
Ġconsult ing
J ECT
ĠF ROM
[ :
Ġf ool
ĠV el
H ey
Ġdu o
k w
Ġm apping
v als
Ġrespond ents
om eters
B ur
Ġ[ ];
Ġpra ise
ĠN ut
Ġt une
IN FO
Ġstead y
ĠB og
Ġtort ure
ĠNew ton
l ab
Ġmotiv ated
ĠWe ather
res ources
it ement
T ake
ĠĠĠĠĠĠĠĠĠĠĠĠĠĠĠĠĠĠĠĠĠĠĠĠĠĠĠĠĠĠĠĠ ĠĠĠĠĠĠĠĠĠĠĠĠĠĠĠĠĠĠĠĠĠĠĠĠĠĠĠĠĠĠĠĠ
ĠTest ament
te enth
mod ules
Ġsubsid iary
Ġaccept ing
Ġf ier
Ġdim in
Ġtrag ic
m ons
re view
Wh ich
B iography
ĠLear n
() {
Ġt ap
Ġhol es
Ġgrad uation
ĠMil an
ĠC ir
Ġtact ics
ĠProgram s
ĠMont ana
ĠG M
ĠGu inea
Ġcapital ism
H z
Ġcelebr ating
Ġunf air
min ster
met adata
ement ia
) -
app rop
W ashington
Ġh iring
ari os
M or
Ġencounter ed
ĠV ision
ĠGrow th
zer bai
air y
Ġvolunt ary
Ġse eds
Pan el
ĠM aking
Ġjo ke
Ġun necess
'] )
ĠMo z
Ġdist ant
et own
ĠE D
ĠDem ocracy
ĠT ab
ĠM ut
ĠBar ack
Ġgrow s
g iving
Ġt ribe
Ġer u
ĠFant asy
re ason
ĠEag les
S ing
Ġprohib ited
ent ieth
ĠIss ues
IP T
Ġfor cing
rad ius
Ġh arsh
ĠBut ler
e ach
Ġh yd
Ġmod est
Ġprevent ed
oc io
Ġexpat riate
r ift
Ġwithdraw al
ĠB R
st ats
ĠOak land
t elling
ĠS ierra
h all
ĠS pect
Ġret reat
Ġprotest ers
Ġbad ly
ĠRe yn
ĠI R
=" "
ĠMichel le
Ġhapp iness
ĠTer m
Ġr het
Ġgu ided
ĠA ve
Ġcreat or
Ġb ail
iz ard
âĢ¦ âĢĿ
S ep
Ġd ump
Ï ĥ
ost ics
ograp hers
ĠN J
Ġcomp ound
ĠRail road
hol m
S il
ast ed
B B
Ġcr ude
assert Equals
Ġflex ibility
ĠPro ceed
Ġb inary
Ġlov ing
Ã «
Ġbenef icial
Ġf ut
ĠH ash
ĠK ill
ish a
1 19
H C
Ġsc ar
ĠCl aim
Ġwire less
ĠTechn ologies
Ġcomb ine
Ġsymb ols
Ġbul let
ĠFr ances
ik o
ect ure
Ġc rop
uss els
ĠPer iod
ĠL ate
Ġspect acular
ĠE sc
sequ ently
ĠR ole
Ġt ens
Ġneg lig
ĠMP s
ĠA irlines
ĠResp ons
Ġcharacter istic
Ġfilm ed
Ġem ails
n ut
ĠF oot
Ġdisappe ared
INS ERT
12 2
ĠAv iation
Ġprec ise
Ġenc oding
Ġenjoy s
Ġfell ows
Ġdis par
Ġinc orrect
typed ef
Ġpost ing
Ġproduct ivity
Ġnot ification
Ġscr ut
ro v
f ony
Ġc attle
ĠG A
ĠSp ider
ĠH R
ah l
Ġr ice
Ġgreen house
ĠTr inity
al in
writ ers
ĠG OP
ĠProduct s
Am ong
Ġtun nel
ĠL an
Ġappe als
sc hema
cont ract
ph is
18 60
Ġm ice
F lor
Ġpl acing
mal ink
Ġc atal
det ails
t or
Ġthe sis
fe ature
Ġpharm aceutical
And rew
ant i
Ġhop efully
) ">
Ġanalys es
u h
ĠS or
Ġde pr
ĠCurrent ly
14 4
ĠD aw
od ia
CH ECK
â Ĥ¬
AC H
Ġp seud
ĠArt ists
S IZE
Ġsh orter
Sm ith
ĠGl ass
A I
Ġp orn
ĠId ent
te am
ĠTo o
ĠPart icip
ne apolis
Ġbul k
de cl
r ants
", "
O lymp
ĠÐ ¸
ĠĠĠĠĠĠ Ċ
al pha
av ailable
Ke ys
Des ign
Ġcab inet
Log ger
N AS
unt ed
RE SS
uff icient
Ġrender ed
Ġpoint ing
ĠScholars hip
P ers
Ġj et
Ġpurs uit
Select or
par a
ĠTib et
Ġphys icians
lim ited
Ġparliament ary
ĉĉĉĉ ĉĉĉĉĉ
ĠRel igion
V ariable
Ġkne e
ĠB order
ach t
Ġlist ener
M AN
ĠGerm ans
ĠAr ctic
Ġmeasure ments
Ġt el
ĠD ictionary
Ġadmin istered
place ment
Ġan chor
ĠM IT
Ġfif teen
Ġinter ventions
By Id
c rs
Ġopen ly
on ial
Ġarr iving
type of
Ġn ep
Ġcur ve
y outube
Ġreal istic
% ),
Ġhol idays
co q
ĠSquad ron
ĠWood s
Ġrem ind
Ġst ocks
Ġout lets
Ġme al
Ġschem es
Ġsound track
Ġprob ability
Ġtrans cript
Ġaud it
Profess or
Ġbl ues
âĢĿ :
ĠChem ical
++ ;
Ġreg ards
Ġindepend ently
by tes
Ġdiscuss es
pr us
Ġco ins
iz a
Ġg aining
ore st
Ġinteg ral
Ġinsp ire
Ġelim inated
ĠCub an
Ġsupp ose
ĠNob el
Ġd iam
ĠUp dated
ĠR ou
Ġapplic ants
ĠR ural
Ġgard ens
ĠR alph
ĠPal m
t imes
ĠK os
M ike
Ġ Ä
ĠZ ion
Ġpro pri
Ġadvant ages
Ġcont rolling
Reg ion
Ġar ise
Ġelement ary
Ġexclud ed
ĠCh apel
r h
Ġcomp ilation
pro gress
Ġconfident ial
Å «
ex pr
Ġsk illed
Ġsec ular
Ġval ued
ator ies
H uman
Ġbi ography
Ġacc us
Ġhe s
ose velt
ĠHis panic
Ġm aj
Ġas ylum
dom ain
ĠFour th
Ġc ave
ĠT ournament
Ġfun c
S un
Ġtreat ing
Ġworth y
ĠPlan et
Bl ue
Ġagre es
Ġint ens
Ġimpl ied
ĠE PA
X ML
Ġpre fix
st orm
Ġdistinct ive
Ġmod ify
ĠHop kins
le an
ke ep
ĠVAL UES
. <
Ġbar rier
S Y
t mp
ĠM ak
Ġst amp
Ġimpact ed
Ġrad ar
ocol ate
ris k
Ġblock ed
Ġtradition ally
Ġide ology
Ġmid field
umb ai
ĠA LL
Ġdon ation
Ġl ingu
Ġamend ments
ĠW ing
S ar
Ġc argo
ra wn
sc roll
D en
Ð ´
A uth
ĠTOD O
Ġdiv ine
ĠÃ ī
N EW
ĠH us
Ġ' ./
bro ok
Ġlast ing
Ġproduct ive
mar ine
Ġlic ence
Get ty
ĠS old
ĠIsa ac
ess a
og g
Ġpen alties
Load er
ĠT ak
ĠL ives
Ġsculpt ure
ĠBob by
Ġwh is
ĠV irtual
w ind
Ġgrand mother
ĠY e
gom ery
Ġmem oir
Vol ume
Ġpack ed
ke eper
ĠV e
ĠT rain
in ion
ĠI gn
ĠR idge
ĠB ass
ĠN intendo
Re lease
Ġob taining
Const ants
Ġsa ke
20 2
Ġeconom ies
ĠCom par
Ġ io
ir ical
Ġmix ture
ic ates
Ġsur f
ĠCom b
( __
ĠS pencer
ĠImm igration
Ġlo ose
ĠGl obe
c hem
Ġrel uct
U G
ĠG aza
n umer
Ġl ip
ĠW E
Ġ eter
ell ar
unc an
LE D
ur ring
Je ff
=" @
Ġb ug
ĠV ik
NavBar Cell
f its
Ġpo inter
Ġliber ty
ĠHar bor
Ġapp ell
" =>
t ar
ĠC ob
Ġqu it
ĠPresident ial
ĠK ash
ĠS urg
ĠUn c
ena issance
ou bt
Ġsimilar ly
à ¦
add y
ĠJ ur
ĠĠĠĠĠĠĠĠĠĠĠĠĠĠĠĠ ĠĠĠĠĠĠĠĠ
Ġdelight ed
ub a
Ġdisput es
ĠP rison
OW N
Ġfre ely
Ġsequ ences
struct or
Ġvari ations
ĠSt uart
ĠBenn ett
Ġgod s
Ġcomm ittees
Ġmer ger
Ġpack ages
Ġadvis ory
Ġess ence
C amp
ĠB ear
Ġn ucle
Ġdef ines
g ra
Ġt ears
Ġpres ervation
Ġob serve
s ch
ĠP ain
Ġemb edded
ĠK ra
t ip
Ġl ap
Ġmain tains
Po inter
Ä ĥ
Ġcon clusions
Ġsophistic ated
ĠD anny
ĠA id
ĠAd mir
ĠIO Exception
ad ows
amer a
ĠWild life
ĠCoal ition
ĠG T
Ġfle e
ĠHol mes
Ġd b
Ġmanufact ured
ch air
Ġ{ "
ĠEn cyclopedia
Ù Ĩ
Ġele g
Im port
C lear
ĠEth ics
Ġtrad ed
Ġb arg
H ouse
Ġen compass
Ġext ending
f ar
Ġdemand ed
Ġd ir
ĠB ert
Ġadjust ed
Ġty pename
ĠColon el
ĠL ud
Ġaffili ated
an mar
ĠC ut
Ġdevast ating
ĠStrateg ic
Ġplay offs
ar an
eng u
Ġdeb ug
Ġm ic
ĠInvest ig
Ġgener ic
Ġhe ter
ĠK ind
Ġl aser
-------- ----
Ġvir al
{ }
Ġcheck ing
ĠSte in
c amp
ĠY ah
H aving
Ġfra ction
ĠG az
N or
R oman
Ġqual ities
Ġb ishop
ĠW ag
ĠTig ers
Ġbut ter
ĠPro s
d one
FF FF
Ġdig it
) ),
L INE
Con stra
Ġm akers
AL SE
Ġconclud e
Ġt we
Ġadvis or
Ġfar ms
Ġc tx
S eg
ed uc
Ġthreat ening
L and
l ibrary
Ġcha os
P acific
Ġbrut al
rapeut ic
Ġdram atically
Ġaff irm
h istory
Ġsub tle
L ight
Ġre q
c ano
all oc
ot ation
Ġun ited
Ġt ent
Ġapprec iation
Ġoccur ring
R ock
CR IPT
Ġbe ars
Ġlaunch ing
Ġassess ed
Ġr ated
Ġsumm ar
Ġ{ };
ĠSur v
ou p
Ġtr illion
ĠD oll
Ġgradu ates
R oute
ow der
ĠGal axy
B T
ĠJ ar
ale y
Ġrefuge e
ke es
Ġmag ical
rit ies
resp ons
189 8
Ġrenew ed
We ek
Ġremain der
ĠD ipl
ion ed
Ġport s
l ayer
Ġb achelor
"> &
ĠAb stract
Ġdest ro
Ġterror ists
Ġins pection
ĠN an
Ġdefend ants
drop down
Ġle ts
vert ed
T ABLE
ĠK yle
ĠLeon ard
Ġassum ptions
ĠPier re
ĠD od
Ġun fortunately
ĠPhys ical
m ag
Ġp atch
Ġpost p
Ġ rib
Gener ic
Ġreal m
oc ide
ĠVis ual
Ġclin ic
il ia
ĠRod rig
Ġentertain ing
ĠLegisl ative
Ġpos it
Rem ove
ĠN uclear
Ġcreat ures
cont ains
ul in
ĠBrig ade
Ġcomp ounds
Ġair line
Ġdisag ree
ĠSac ram
ĠF oster
ĠPer u
oc y
Ġs ew
ĠGener ation
ĠF an
Ġcorrespond ence
F ort
Ġrent al
ĠJess ica
ĠC over
FL AG
ĠChel sea
id ation
Ġrel ates
ĠPot ter
ibl ings
Ġcount less
ĠR ugby
ĠChem istry
bl ue
F ig
Ġch ains
con nected
Ġfin anc
ĠH erald
Ġall ocated
Ġdr unk
ĠBatt alion
C N
18 99
Ġdis advant
F unc
Ġt ang
ĠR angers
ĠWrit er
ĠH ab
ĠShan ghai
ĠMc Donald
n ob
Ġco in
Ġaltern ate
IS S
ĠH alf
12 6
pro perties
bs ol
Ġaccommod ate
th al
Ġy ard
Ġaggreg ate
å ı
Can ada
uck et
Ġimp ose
ĠL ex
Ġtim ely
Col lections
ĠOtt awa
F ar
l ass
ĠD raw
n il
h idden
Com par
Ġbar rel
Ġtrust ed
ok a
ro e
Ġcru el
Ġsystem atic
ĠLeg end
ru le
Ġmemor able
F ailed
Ġ\ "
Ġr anges
Ġs ocio
C F
ĠK il
ĠPod cast
ĠS hip
Ġexplos ion
Ġinsp iring
Ġc oun
det ail
iv o
UT F
Ġexpl ored
ops is
Ġstream s
ĠVen ice
UT H
um ed
ploy ed
ry ption
Ġen zym
Ġw are
ĠAn imal
Ġdisappoint ed
Ġst om
ull ah
Ġste ep
20 30
ĠTag ged
ĠIn side
F ire
e i
olit ics
ur st
ent ine
Ġarg uing
orpor ated
ph an
ĠT ell
ĠH at
Ġob s
Ġd ynasty
ĠR ice
c ill
Ġpri ests
Ġa uth
ile vel
ure auc
Ġf ru
is ive
ric ia
ĠY u
Ġrele asing
ord ered
ĠZ imbabwe
ST AT
ĠC ad
Ġh o
k ov
Ġchemical s
ograph ics
M apping
Ġst rain
N ative
er als
Ġrem inded
ĠPr adesh
u ce
it ate
if def
ĠPet e
Ġneighborhood s
Ġsh r
ast ing
Ġsatisf action
ur rection
est ing
Ġph osph
Ġcharg ing
Ġtempor arily
ĠLind a
Ġassum ption
Ġele ven
Ġlisten ers
S ync
ru p
m b
TE XT
ĠCh o
d p
Ġli able
ĠM ul
Ġcelebr ity
Ġsecre ts
erg us
ĠI F
Ġsh ield
T asks
Ac adem
re ts
ac ial
ĠY ang
ĠHealth care
ĠFellows hip
Ġcompar able
P resent
c in
ĠCan al
ĠCele br
L ittle
support ed
Ġd ressed
Ġexpect ing
ĠBro s
R ole
ult an
Ġphil osophical
ĠVeter ans
Ġl os
St ruct
ĠJul ian
amb ling
Ġcon form
Ġas ync
ĠU ntil
Ġb ind
Ġkid n
Ä «
Ġperm its
Ġw ore
Ġint imate
Us ing
Ġmort gage
Ġpat ron
S ql
p her
as is
ĠCustom er
D ER
au ge
Gener ator
ĠNep al
ĠM alt
ere k
Iter ator
x is
Ġdef icit
ĠSt ri
Ġinter ven
les h
ĠAss essment
ĠWall ace
A wards
ix els
cil iation
ĠAthlet ic
. âĢĶ
ĠC ities
ĠSher iff
Ġinher ited
Ġf ract
Ġind ication
Gener ated
Ġconv ince
ï¿½ ï¿½
m ers
pr ising
Ġd ining
Ġthr iller
Ġnurs es
ul atory
Ġquestion ed
th ree
B al
ĠGu ild
ut f
Ġf iring
ĠR ange
V ict
ĠApp lied
Ġvis itor
ĠGl en
Ġra p
Pro gress
P ad
Ġf et
17 5
Ġattack ing
Ġmob ility
ie ge
Ġconj unction
ax is
ĠAr med
Ġline up
m os
Ġplay off
ĠNever theless
Ġinher it
ech o
ĠGreg ory
Ġc ens
pub lished
Ġtour ing
J ava
th s
ĠF at
& &
Ġw ise
Ser ies
Ġt ear
Ġatt ractions
ĠG ates
Ġde port
12 9
Ġspread ing
Ġc rick
ĠC ox
Ġt anks
ĠT X
aster y
Ġinteg er
ag ar
Ġauthent ic
T ON
Init ial
Ġw ard
ĠC lient
s ized
ĠF R
int age
Ġadd iction
O B
. __
re ation
Ġmob il
18 50
Ġdemonstr ates
Ġgirl friend
R ay
ĠB rain
Ġqu otes
ĠBuddh ist
Ġw it
ĠLe o
J S
test ing
m aml
To String
Ġatt raction
Ġh orn
Qu est
Ġann oy
ĠK o
oy le
ĠNorth west
ig nt
el ia
pro to
Ġpres idency
ĠFr an
ol ics
Sim ple
th ology
ĠCitiz ens
ĠBer g
14 5
ĠCirc le
the ning
ipp er
Ġare na
ĠO pport
Ġg ly
St ill
ĠCour se
ac ies
Ġtri umph
iz za
ĠSe b
? âĢĻ
Ġphil anthrop
Ġpl ed
Ġgener ating
Pol ice
ĠN A
intend ent
ĠEd ge
j ob
ir atory
Ġparticip ant
Ġquant ity
%% %%
ĠRe ference
Ġesc al
c ity
r us
key word
u ced
ĠPar ad
res ults
Ġequ ation
Sc roll
Ġstart up
ĠOr lando
ĠEd die
Ġflo ating
Ġl at
Ġnomin ations
ĠV atican
Ġdesign ers
in ite
ĠG raph
Ġlaw makers
ĠEm ployment
c est
ĠBeng al
Ġbr idges
Ġpal ace
Ġintrodu cing
ĠAust rian
Pat tern
re nd
bl ank
Ġc oh
E lements
ĠCh i
ook s
yt ic
commun ications
Ġin ject
itt ers
h arm
W alk
2 10
Ù ħ
H D
W ater
Ġin cons
ĠMan ufact
t i
âĢ¦âĢ¦ âĢ¦âĢ¦
Ġbankrupt cy
ĠS TE
Ġp ian
Ġp airs
boy s
Ġplace ment
ĠRo osevelt
Ġvot er
ex ternal
Ġaccount ability
Ġprov inces
Ġf el
am o
ĠM ann
Ġ ul
A gent
id x
r and
Ġa thlete
ĠB row
G overnment
ĠF act
Ġrec k
ĠRes erved
M ass
Ġoff ence
ĠM ob
Ġv ic
Ġcontact s
Ġimm igrant
cont roller
M o
ĠHor se
h ide
reg ular
al ar
ĠMil waukee
t c
Ġdesper ate
Ġim aging
orient ed
ĠP owell
C ong
Ġart ic
op ing
Ġinter im
Ġtem p
Ġlect ure
ĠCh art
ĠReg ulations
ĠM ol
ĠAct or
role um
Ġbab ies
ĠG ospel
ĠY am
ĠP in
Ġopt ical
Ġz ones
r ame
Ġinn ings
\\\\\\\\\\\\\\\\\\\\\\\\\\\\\\\\\\\\\\\\\\\\\\\\\\\\\\\\\\\\\\\\ \\\\\\\\\\\\\\\\\\\\\\\\\\\\\\\\\\\\\\\\\\\\\\\\\\\\\\\\\\\\\\\\
Ġsize of
Ġelev ated
e ur
Ġexhib itions
Ġinv ented
Ġfle w
Ġmotiv ation
Ġrecip ients
ĠPr im
Ġconstra ints
l arge
sc he
ĠPers ian
Ġcontact ed
M ilitary
/ _
Ġh ug
Ġdel ivers
ĠG and
Ġesc aped
on ian
Ġexpect s
B ad
Ġb tn
ĠK itt
Ġsubstit ute
j query
ub er
A z
im en
ĠGard ens
b rowser
H ol
ĠCare er
Ġfound ations
ĠT ampa
LE CT
Ġh alt
ĠAdd itional
Ġb atch
Ġprodu ctions
Ã ª
bass y
Ġstat s
B ob
Ġtrav elling
ĠCh and
g ement
Ġst abil
ĠTreat ment
S ocket
en abled
Ġcre am
Ġre vis
Ġreb ell
ĠKaz akh
ĠBl air
ĠNov a
Ġtradem ark
ĠSustain able
Prot ocol
ĠHe aven
', '
ĠY emen
189 6
get Name
3 20
ĠH app
j ack
Ġingred ients
b ird
S ave
Ġtou ched
ĠP av
Ġprospect s
Ġtr ump
Ġundert aken
M ount
ĠArn old
int o
N ULL
Ġmount ed
vent h
ĉĉĉ Ċ
ian ces
ĠTro phy
ETH OD
ed e
Ġgener ous
ĠLink ed
EL D
Ġthr one
ent e
Ġclean ing
Ġan onymous
ĠO P
k ar
Ġt ends
Ġm emb
m un
ĠW HO
Ġsett lements
Ġreg ulated
Ġfilm ing
Ġbreak fast
serv ices
g ie
ĠK urd
Ġpil ots
ĠHT TP
Ġc ats
Ġtra fficking
Û Į
Ġor chestra
Ġland sc
Ġc iting
C AR
Ġar ising
ens en
Ġsl ot
Ġbe aring
ĠR aw
w right
ĠB anks
oper ation
el ong
Ġcru ise
ĠS ox
Ġder iv
ic us
Ġh ills
Ġtru cks
18 95
ĠPh ase
Ġsc roll
Ġimprison ment
ĠFl oyd
Ġsp ite
ĠMc L
Ġfor b
Ġcomm ands
oll o
ĠInd ividual
ĠCom plex
ĠSc hedule
m ac
ĠCong o
ator ial
ĠBas ic
ress ing
Ġwar fare
Ã Ĺ
ĠAr c
CL A
$ .
ĠM atch
Ġthe ft
Ġathlet ic
plement ation
ut ing
Ġpre ference
ĠBl ake
Ġp ays
Ġded ication
ĠMos es
p rom
ĠCol in
Ġpric ing
Ġor ange
m el
Ġg rain
ĠPlay ers
T race
is ure
Ġprompt ed
Ġshe ep
ĠT es
ĠMar io
Ġgr ades
Ġess ays
script ions
ĠX box
ĠM ills
Ġwor n
Ġdu pl
Ġ" ,
ring ton
ident ifier
Ġserv ers
ev es
ĠCle an
Ġc ub
Ġdark ness
ĠCh oice
ĠNY C
ĠMus ical
St ats
j unit
head ers
Pl ayer
est y
int eg
estab lished
Ġinv ite
ĠL ions
Ġj Query
ĠFI FA
S ER
T ok
ĠB our
y cle
go og
Ġcat ast
Ġshow c
Ġfaith ful
re lease
ĠBi ography
Ġw rapped
Ġanaly ze
Ġf ed
ph ant
Ġco at
at ra
Ġp icks
J ournal
ĠRe venue
ut ton
O UT
ĠS ave
Ġb icy
Ġnow here
ro d
Mult i
Ġp ocket
ĠLu is
Ġpractition ers
E ffect
Ġb ay
D uration
ident ial
Ġac claimed
Ġbur st
b ably
Ġfl aw
ĠV ic
Ġvary ing
ĠF E
Ġqu een
ĠV ari
Ġfurn iture
Ġan ime
Us ers
Ġdign ity
ĠJo an
l g
ĠA F
val uation
Ġfunction ing
ĠF ly
ĠU I
t ools
Ġin cl
Ġpoll s
Ġfl av
Ġext ensively
ĠAppe al
ĠHung arian
b eta
Ġsaf egu
Ġg reet
Ġl un
Ġbel t
pos ing
Ġreve aling
s ingle
ĠM I
iod iversity
Ġurg ent
ignt y
J oe
Ġexcess ive
Ġr ush
ac a
Ġnort heast
Rad io
Ġin comp
os ity
str ument
Ġtravel s
Ġsent ences
Ġalter ed
vis ible
Ġcomp ens
ĠY ellow
ĠMin neapolis
empt ion
Ġap ilevel
Ġdiv ide
anc ies
M IN
b oth
m itting
Ġsurn ame
Ġdis k
p ic
Ġsp y
d imensional
Ġre de
In vest
Ġst er
Ġf ond
um atic
ar ians
uk a
Ġf n
Ġam ateur
ĠM is
Ġret ire
ĠRem ember
Ġspons or
Ġcancell ation
ĠAg ent
Ġpick ing
qu et
Ġvac ation
s ys
Text ure
T ech
ĠR enaissance
ĠCh ase
clip se
Ġmagn itude
ĠE DT
Ġped est
ĠPop ulation
bu ilt
Ġt ong
ĠMunicip al
ĠMaterial s
er ie
ĠL is
Ġse ized
ĠC ricket
ĠCo ordin
Ġcivil ization
ĠCent ers
AR K
Ġcont ra
ĠA zerbai
ĠRe agan
Ġless er
Ġland mark
Res ources
Ġstrict ly
ĠCh ap
Rep ository
ĠE ight
Ġshift ed
Ġres et
ĠG oth
Sec ret
Ġtum or
f eld
ĠCinem a
Ġstop ping
Ġex empl
P refix
18 61
ĠS uff
og ical
end ors
j ournal
Ġsuggest ions
Ġbomb ing
Ġinterpret ed
Ġ ib
ĠD ame
Ġperform ers
ĠE sp
Ġpl ug
Ġb ones
Ġs ne
s witch
Ġmor ph
Ġun success
Ġsens or
ĠCD C
Ġcomp romise
Ġsatisf y
Ġw ound
IC K
IS H
Ġviol in
ĠHu gh
Ġpat rol
th ood
av ier
Ġrhyth m
Ġs ends
." );
man uel
S QL
pt ic
O fficial
Ġde leted
Ġmon ster
Ġrock et
sh aped
ÃŃ n
Ġpain ful
um ing
Ġarr ives
LO CK
Char acter
k ers
w ear
ĠHer o
Ġor che
ud ed
ĠB L
Ġins isted
Ġprotect ive
Ġenter prises
Ġg rey
Ġdr um
ys ics
189 7
Ġdef ining
ĠS M
ĠN GO
ĠW ant
p ot
E conom
ĠS F
Ġsan ct
Ġsever ely
ĠP os
v or
Ġcompris ed
Ġnecess ity
ĠG ender
ĠLGBT Q
us hes
Ġp ig
ĠMon te
Ġexc itement
ĠASS ERT
Ġc ris
Ġcle ared
ĠU P
pro gram
Ġent ers
ĠChar ter
ĠPrinc eton
Ch apter
Ġsacr ific
Ġanaly zed
, [
IN TER
D ou
f uture
Ġcomp atible
Ġde ar
ĠP ink
15 5
ĠH um
sp ired
Ġopp osing
Ġinev itable
Ġsport ing
es ian
ĠCar r
Ġne ur
ang ered
En um
Ġh orm
ĠS occer
ĠP apers
angel ical
Ġh iding
Ġexc use
Y et
Ġdraw ings
Ġdemon stration
Ġprec ip
op ard
Ġemb ark
z ant
Ġcul min
Ġdes erves
ĠCy prus
Ġre nov
Ġgu ards
Ġpen et
tr igger
Ġperman ently
Ġt ags
ĠO w
Ġsurprising ly
Ġne arest
p u
Ġemer ge
UR I
if ully
anc ers
Ġd at
am pton
ĠĠĠĠĠĠĠĠĠĠĠĠĠĠĠĠ ĠĠĠĠĠĠĠĠĠĠĠĠĠ
Cl uster
Ġapp ar
[ $
ĠTom my
il ogy
Ġhe m
C enter
ĠS ah
Head ers
ĠB ach
iet ies
Ġover look
ĠLat ino
d x
ol er
P LE
aw i
ĠSu z
ff ff
ĠS ullivan
Ġcommit ments
ec urity
p it
ol esc
ĠSc i
×ķ ×
g ary
Ġsupport ive
h um
ĠPro file
Ġtype of
ĠPop ular
Ġrot ation
f d
ĠCond itions
Writ ten
ĠSer ver
oot ing
Ġcop per
s un
ĠClar ke
R a
gener ated
Ġmat ched
Ġcongress ional
config uration
bor o
Ġch icken
ĠCab inet
On line
p aid
j ab
Ġloc omot
Ġtal ents
Austral ia
b age
Ġdou bles
Ġcomp act
ĠBry an
a que
Ġor bit
) ->
×Ļ ×
att ributes
ge o
ĠÂ «
Cal ifornia
ĠEm irates
P red
ĠB uch
Â «
ĠDou g
I gn
Ġtown ship
ade qu
ad ers
work ing
Ġbeat en
Ġle an
Ġp ole
Ġb ureauc
Ġcle ver
not es
à ¬
P Y
ĠOtt oman
Ġun anim
Ġce ase
em ia
ĠTh under
ĠViol ence
Ġwe aken
ĠNew castle
Ġtrib al
Ġexpress ions
H P
ad ians
ĠOver all
ĠMethod s
ĠLegisl ature
Trans form
ĠMont gomery
Ġsusp ic
Ġcrit ically
g roups
Ġthere after
Ġca ution
t ags
Ġdeb ates
ĠCom plete
Ġtrans mitted
Ġharm ful
ĠH av
Ġform ats
ĠS creen
ri ages
ĠD ylan
ric ks
Ġbal anced
OM E
ok o
ĠFlore nce
th ird
id i
est e
Ġh int
Ġ rows
Ġcol ony
disc iplinary
he nd
ht m
ĠLaw s
word press
Ġoccas ional
Ġfort un
Ġadministr ator
ĠE ye
Ġload ing
Ġpremier ed
aint ed
ĠC raw
13 2
ĠA IDS
Ġproceed ing
Tele vision
ach ine
ĠC ash
Ġ" ",
Ġfunction ality
Olymp ic
Ġfe ver
Ġinvestig ators
33 33
Ġs li
ĠKnow ledge
S us
T w
ogen ic
Ġsw ord
Ġcart oon
188 8
Ġver dict
N ever
nd ef
ĠC elt
Ġp ose
Ġac oustic
ĠAnt ar
arg ument
effect ive
Ġbusiness man
ĠPalestin ians
Å Ł
Ġb uses
Ġm es
æ ľ
Ġwhe at
ĠMat hematics
Ġs el
Ġcrim inals
Ġunnecess ary
ĠProceed ings
umb ent
Ġoffer ings
ĠU T
ĠA chie
Ã© n
cond ition
am as
Ġsepar ately
ĠS ax
ĠExcell ence
ex pect
Ġmed ication
M ur
P ATH
ri pp
ian e
IN K
Ġsuper vision
Ġbott le
Ġloc als
Ste ve
Aud io
13 8
ĠPear l
Ġconstruct or
ĠSim ple
Ġten ant
You ng
ĠSt rong
Q UE
Ġre ver
Ġt ales
or f
N ING
ĉ ĠĠĠĠĠ
; )
ar ound
Ġab oard
ugos lav
ĠBa iley
ĠZh ang
L ater
Ġflood ing
C r
Ï Ĥ
Ġhaz ard
uls ion
Ġperform s
be it
Ġst ones
m usic
Ch ief
Ġnut rition
Japan ese
Ġsub stances
i w
ert s
Ġtend ency
ĠTerrit ory
Ġall oc
m art
âĢĿ ).
L anguage
f ilm
C M
R ail
Ġnorth west
l at
ĠR T
ĠJo el
Ġroll ed
ĠR ams
init ial
ĠForm ula
13 1
T y
ĠLin ux
ĠHer bert
bo ost
ĠD I
ĠWrit e
Ġ" [
d ependent
Ġbuild s
ĠAud io
ĠR oth
u its
Ġcan on
ĠĠĠĠĠĠĠĠĠĠĠĠĠĠĠĠ ĠĠĠĠĠĠĠĠĠĠ
ĠSimilar ly
Ġcompris es
Ġinvent ory
ĠESP N
ĠJul ie
ias m
re z
g reat
ag ine
Ġgl ory
189 3
Ġpoor ly
op ts
ĠCh uck
âĢĿ ),
AT CH
as ma
ĠL akes
ov ich
Ġpl ural
Ġdefin itions
res et
Ġmeas uring
Te am
Ġcompl ain
ĠMet al
Ġapprec iated
Ġaltern atives
ĠM atter
Ã¶ r
m are
ĠB egin
Ġsex ually
ĠGen eva
ill es
art et
ex cept
Book s
Ġsurve ys
Ġres ume
ec hes
Ġinter val
ĠM umbai
Ġvari ants
M ask
ĠDis covery
Ġp ond
Ġd rought
ĠP om
duct ed
ic ator
ĠS ter
ĠI van
B er
c ock
ĠI E
13 6
ĠJ ake
ĠJam ie
ĠMarc us
Ġvirt ue
Ġsyn chron
ĠW end
ĠV eh
ĠLib ya
ĠMun ich
13 4
Ġcir cles
Ġ[ "
.. ...
Ġed itions
Ġdep icted
Se lection
A h
rid or
B IT
Ġn inth
Ġqu ad
ĠTour ism
ag g
ĠId aho
Ġrem ed
ĠLe eds
Ġexhib ited
Ġevalu ated
Ġ{ {
ven ile
ĠPen insula
p arser
ĠS weet
ĠT rip
Ġfin est
b ane
ĠSc ar
Ġport ions
Ġm ines
B egin
ĠJeff rey
D elegate
ĠC F
. (
Ġpull ing
M ont
Ġcompl ications
188 9
Ex pr
ĠJul ia
blog spot
ĠReyn olds
op al
Ġback up
if acts
Ġdece ased
S N
189 1
Ġacc idents
Ġkick ed
Ex ample
amp ire
S ir
ens itive
Ġconstitu ency
ĠPart ner
mic ron
189 2
oy s
Ġinter ference
E V
Ġbackground s
is ers
Ġhead ers
olec ular
ĠPrinc ipal
Ġtag ged
Ġprec ision
Ġdistingu ish
Ġcan vas
T erm
ĠL ords
TR UE
Ġdebut ed
ĠM ock
Ġlift ed
ĠP ret
Ġcontract or
C am
13 3
ĠD iana
ih ad
ĠC ant
Ġlong time
Ġbroadcast ing
P ut
fil ename
ĠMem ory
Ġf ingers
Ġ{ '
Ġorgan izing
Ġsu ite
ĠRep ly
ific ates
ĠD uncan
Ġc ere
Ġjump ed
Ġ å
ĠGil bert
Ġs ang
em por
ĠCy ber
ĠPan el
Ġdef ended
ĠAp ost
ĠW rest
ĠB urg
ĠHar old
Ġmake up
F act
18 65
S I
G iven
Ġn u
ĠF ergus
Ġg am
ĠMor rison
Ù Ī
S yn
ĠEn s
Ġfail ures
Ġag ing
U ri
F UN
Ġpl ugin
ĠMan aging
Ġdraft ed
is i
ĠB rief
oph ob
ĠÃ ł
Â §
ha us
Ġcontinu ously
Ġrespond ing
rub y
ĠEduc ational
ĠAbb ey
Ġshock ed
ĠK re
Ġmass es
ĠMem phis
B AR
Ġkil ometers
Jose ph
Ġmod es
ĠD atabase
Ġmon etary
ne ys
Ġb ol
H ub
Ġexped ition
ĠOcc up
Ġambass ador
ĠTh ought
o os
Ġexc av
ot on
ĠH appy
Ġxml ns
P olitical
S und
ĠB ent
Di agn
Ġche er
Ġo h
ĠInit ial
um i
Ge ography
Ġgovern ed
ĠPro ced
Ġ= ========
Ġhypothes is
Ġdiam eter
Ġpurch asing
May be
h im
Ġp iv
Ġb apt
ach i
ĠB ened
H or
Ġf are
ĠM BA
h art
Ġ ip
re a
Ġinaug ural
om al
Ġnav ig
ĠR ush
ĠM eg
Ġsuggest ion
ĠD R
Ġwrest ling
sc ss
List en
Ġcompos ers
f c
Ġinput s
ĠStev ens
Ġconfirm ation
anal ysis
Ġre vision
Ġlog ging
ĠBrad ley
Ġwhere ver
) [
ĠS ession
Ch inese
Ġfu els
att ing
Ġdist ribute
Ġhor r
Ġnot ify
Ġmanufact ure
ah an
ched ul
ĠT rial
br and
ft en
Ġmin eral
ley ball
Ġsh apes
TR Y
the me
v it
ĠR af
Ġdel ays
ress es
bers ecurity
Ġjust ified
Ġt ube
ond e
Ġdis g
ert on
Dep artment
ĠLu cy
Sever al
ĠMe et
Ġc um
st ad
ĠTe aching
W ed
Ġst ressed
!! !
Ġe ars
fin als
ĠA ber
ĠInt eger
ĠV as
ĠGl enn
Ġmid st
ĠR ah
act ic
in is
o qu
Ġplan es
ĠM ix
Ġdec iding
ĠMy anmar
check ed
ĠG R
ĠHe ights
âĨ Ĳ
ĠFil ip
F ix
S EC
ĠRay mond
ĠMot ion
Ġmart ial
ll a
ĠCh ad
. ",
ĠDecl aration
ĠHall ow
od s
ĠO wen
u um
Ġs inc
Ġorigin ated
Ġmolec ules
Ġannoun ces
ĠW ire
ĠE ston
() </
Ġs iblings
Ġaw a
C ross
Ġbo om
g irl
ĠSub ject
gener ation
t age
Ġp our
VAL UE
Ġdepos it
ĠK er
13 7
ĠQ atar
Ġread ily
O H
Ġtermin ation
Ġcom merce
... ]
ra its
Ġtri ple
B rowser
Ġfound ers
Ġ Ñģ
on al
hor izontal
gr and
capt ion
l ord
Ġt empt
Ad v
} _
Ġpure ly
es a
ur as
F ootball
W elcome
Ġappro aching
HT TP
ĠCroat ia
Ġcustom s
ĠBr ussels
ĠL etters
ext ension
ĠIn cre
Ġbuy ers
ĠArm strong
c aster
Ġread only
our g
Ġres ist
ĠThe od
Ġfeed ing
Ġm asc
Ġthorough ly
ir able
Com plete
Ġvalid ation
ĠB ir
ĠYO U
Ġqu arters
ĠAd vert
vol ume
Count ry
ĠH ack
B i
Ġd oses
Man agement
Ġdisch arge
omin ated
ĠB und
Ġaccur ately
s um
ĠMot ors
ĠLi u
ĠNot ice
oot s
Ġepid emic
Ġcomp lement
Ġappro ve
Ġbet ray
Ġord in
Ġv iable
ĠAdvent ure
189 4
Ġdro pping
15 00
p refix
Ġpun ish
Ġpl ates
Ident ifier
udd y
ract ed
des ign
N odes
Ġbes ides
Ġf its
Ġcontribut or
Ġafter math
ĠMethod ist
ĠA ven
Ðµ ÑĢ
VI EW
Ġteen ager
col m
13 9
ĠP ont
Ġhonest ly
ĠBr andon
ĠLyn n
Ġte ens
Ġsl ide
sh ine
Face book
Ġnetwork ing
Ġprec ious
pol icy
Ġdon ors
22 5
Ġlect ures
on er
cle an
ĠD escription
Ġdr inks
stitution al
Ġend less
Ġret ro
ĠS L
Ġreason ing
ĠCath olics
Ã¨ re
16 5
ĠCongress ional
ĠLO G
log ger
Ġcoordin ator
ib e
power ed
ĠB ever
Ġmix ing
D M
Ġanalyst s
Ġfar mer
ĠS ett
ĠEag le
ĠN ine
h istor
ĠC M
ĠAn a
Ġse al
B rien
Ġ" -
act ivity
ĠYan kees
aj a
L ibrary
ĠR us
Ġsh ar
sh ared
ĠNiger ian
ri o
Ġvis ibility
c atch
Ï Ģ
ĠE aster
ĠM az
ort ium
Ġsouth west
ĠS um
Ġaffil iate
ĠIS IS
ĠRe id
? >
Ġover d
ĠGro ve
c rit
ĠH ence
iz arre
ĠPatri ots
M OD
W rapper
Ġgen res
ĠEll en
ĠJ in
Ġpup ils
Ġc emetery
ĠDec ision
ĠD uc
Ġhab its
: `
out ed
Ġdiscl osed
ĠW aters
Ġout rage
ĠEn c
ĠWest minster
Ġlaun ches
v iol
Ġch ip
ĠJos Ã©
ĠM aced
I ll
Ġinf ant
ĠU AE
Ġsens itivity
Ġdesign ation
Ġunder way
ĠAb original
Ġc her
Ġimport ed
Ġspokes person
Ġmer chant
Ġsol ic
Ġaccompany ing
F ive
H ot
ar se
Ġlim itation
Ġfin als
Ġrecruit ment
l arg
all ery
uck land
Ġdisc ourse
/ "
Ġprot ocols
Ġnav igate
any on
Ġcar ing
Ġtim eline
Ġd iox
Ġsu ck
Ġsk ip
188 5
ĠInc ome
ĠU C
en able
ĠEthiop ia
Ġsh ifts
Dom ain
Ġbill ions
Ġteen age
b usiness
Ġb ip
ĠP O
ĠSt ef
ĠEm bassy
Ġlack ing
Ġcrowd s
r ights
Ġdevelop s
S at
ĠTre nd
ig ue
Ġcommission er
ĠH arm
Mart in
Ġenact ed
Ġconsider ations
Ġsleep ing
Ġme als
Date Time
Ġmod ules
M ov
ĠJ ung
lim it
s n
Ġshort age
à¤ °
ĠBeat les
Ġacadem ics
Ġover night
EN S
i u
ex per
oc used
Ġcab in
ica id
Ġinstit ute
Ġridic ulous
T or
Ġcast ing
es ar
ear chers
Ġall ocation
ĠPo etry
Ġc am
Ġsp are
Ġment ions
Ġpo ets
ĠEll is
ĠProdu ctions
ĠSh adow
ID E
Ġadvent ures
Ġd rain
ĠF actory
Ġarch ives
is ch
Ġbi om
Ġcook ie
ĠBoe ing
Pass word
Ġrest ra
ĠS ummary
Per haps
ast ics
Ġtaxp ayers
B ibliography
ĠInt roduction
Ġdeter ior
Ġstre ak
18 64
Ġind oor
Ġther mal
I ran
Ġcontract ors
Ġimpl ies
ĠGram my
t abs
ific ent
Ġimm unity
Ġfemin ist
in yl
Ġb rows
Er r
Ġinj ust
ĠF acts
ï ¬
ĠÐ ²
Ġpredecess or
r ina
ĠMedic are
ĠSu ite
ĠSocial ist
Ġlog ger
Ġconcent rations
Ġpre ferences
Ġfort une
V C
=" ${
Ġfirm ly
Ġs outheast
Ġ$ {
ĠC G
ie ces
col lect
Ġp ink
ambig uation
Å ¾
Ġsim ulation
ĠG ive
Ġlist ened
ĠEv idence
se en
ĠAct s
ĠW A
am azon
Ġsocial ist
F re
ĠC ertain
Ġint ensive
Ġassum ing
ĠM B
Ġmer c
prot ocol
Ġovers ight
Ġcompet ent
ar in
Ġp ipe
ĠCh ancellor
st orage
ins ky
ĠSw an
Ġt x
ĠBes ides
ĠPeters burg
l ated
ĠD h
art a
Ġt ensions
Ġinform al
ĠWrit ers
Ġcompris ing
ĠPal mer
it an
Ġmod ification
ur ally
Ġavoid ed
ĠDes ert
M ath
Ġsupposed ly
ĠAh med
Ġf o
The ir
Ġsuper hero
Ġb ully
Rep ublic
Ġsupp liers
ph abet
ĠCl ose
Ġscen arios
Vis ible
Ġtext ure
Ġ( ;
Ġprocess or
PRO C
Ġcount ed
Ġport al
c ost
Ġsp atial
Ex ecut
ĠAng lo
Ġout lined
opt ional
Ġfundra ising
/ ?
Ġincent ives
m inded
Ġstud ios
us a
ts d
Ġnom inee
( .
Ġden ial
Ġshow case
gu ard
Ġviol ated
ĠH erman
own ers
Ġtime out
Ġco ordination
ĠQu ant
36 5
Ġcou pled
Ġlic ensing
idd ing
ĠSim pson
Ġanal ytics
c ourse
Ġpione er
d og
ĠNo ah
ine es
ĠHur ricane
Ġske pt
N ick
Ġbelong ed
Cl ub
It alian
Ġbelie ving
th ink
lic enses
cl ock
ĠK r
ĠSol omon
V ir
Ġmer ge
N V
d ialog
u ador
Ð ¼
Ġc ure
ser ies
n ai
er ic
?? ??
Ġnew est
ĠGr ade
> ::
ela ide
col lection
p are
N I
Ġst ance
Ġgrand children
du cer
Ġi OS
e fficient
ĠSh ir
Ġencourag es
Ġhous ed
Ġvalid ity
osp ace
Ġvibr ant
ĠO z
Ġpast or
Ġprison er
ĠIn j
N amed
Ġliter acy
ĠBit coin
step s
(' .
Ġresil ience
{ "
ĠF ramework
t ures
Ġreven ge
ĠS R
Ġwhe els
ĠEm ail
ĠS QL
ĠV ers
v s
he tt
ĠAp ache
ĠBul let
Ex per
ett i
int ers
ES CO
Ġinv itation
ilt ers
ĠHol iday
ns ic
Ġb other
Un ivers
Ġver b
ĠML B
Ġaest hetic
Ġchampionship s
Ġsp ouse
ĠÐ ½
Ġaccount able
u ably
Ġg aps
put er
ĠAthlet ics
50 1
Pl ot
Ġch ore
Ġf ights
ĠMO RE
ĠAnn iversary
Whe ther
Ġpurs ued
web pack
ĠSacram ento
Names pace
ĠDeg ree
ac ious
16 8
Hen ry
V ill
at em
og ene
Ġgen ius
Ġdirect ing
Ġhold ers
ĠL ov
ĠM ull
met ic
Ġabs urd
R oyal
ĠGe off
ĠRel igious
ĠS ays
Ġd irty
Ġfr ank
ĠV acc
Ġminor ities
ĠC arn
Ġorgan izational
Ġprof iles
p icker
I ss
Ġaut onomous
te chn
Ġintent ions
Ġasp ir
t ok
ĠAmeric as
ĠZ ero
F ac
Ġprot otype
ract ice
Ġass ured
âĢ ¯
al ias
ĠM ig
Fr iday
am ic
ĠP ref
pos ium
188 1
mod ern
S creen
h ad
14 9
ĠInt o
Bet ween
ĠRest aur
Ġenthus iasm
Ġment or
ĠBe havior
Ġgra vity
k u
Ġmethod ology
Ġhor izontal
M ust
Ð ¿
H y
ĠA CT
Gr and
Ġbom bs
ĠB ris
Ġactress es
ĠN ad
14 7
ĠNor folk
Ġcelebr ates
Ġc ater
ĠCom ing
ĠS witch
Ġoff shore
ĠElect ronic
Ġf illing
Ġpredict ions
Ġbatter ies
Ġserv ant
Ġfr ight
Ġr g
Lear n
ch anging
enn ium
Ġsem ester
Ġconnect s
Ġdest inations
z heimer
ure ment
Ġovers ee
ĠCol lections
Ġexplo itation
ĠNurs ing
ĠP rest
ĠI RS
ĠH P
r ar
ĠCon n
Se quence
as se
cont rolled
Ġconsider ably
is co
c ross
con n
Ġloyal ty
Ġdiscl ose
Ġcar riers
Ġpartic le
eth yl
ĠN ames
Ġpack et
Ġretail ers
ĠJosh ua
ĠBel gian
14 1
Ġautom ated
Ġb ell
Look ing
Ġresign ation
ĠD ale
Ġrain fall
Ġed ges
AR CH
Ġcirc ulation
Ġmunicipal ities
Ġdr ummer
Ġdiagn ostic
ĠGab riel
Ġdecor ated
ĠW el
188 7
ak u
ark er
40 1
he y
Ġclar ity
M a
Ġbehavi ors
p ine
Ġre lied
Ġep it
Ġsmart phone
ĠFif th
j ah
ĠL ik
Ġb eds
ĠA ub
atin um
G ER
Ġp ale
Ġorgan ize
Ġeduc ate
ĠCorn ell
oun ces
Ġalt ogether
Ġprom in
c ussion
Ġt ender
Ġc ivic
Ġalgorith ms
Ġdeliber ately
ĠCon vers
Ġbit ter
Ġlic enses
Ġbe aches
Ġsovere ignty
ĠHallow een
ĠVol unte
20 5
Ġgovernment al
Ġmet rics
ĠN AME
Ġpreval ence
prov ider
ĠG or
id ity
ĠP orter
as ync
ĠMoroc co
Ã ¦
Ġmet ric
Ġmac ro
f rac
Ġmedal ists
Ġanal og
14 3
Ġfilm maker
i ens
Ġtra its
ĠGib son
s up
15 1
PO ST
Ġmiss iles
ĠRichard son
Ġserv ants
ĠB eg
re pe
Ġla pt
Ġstrong est
ĠDet ails
M ex
Ġconcept ual
ie u
Ġwhere in
Ġdiscipl ines
ĠFl ash
it ated
Ġcomp aring
ĠVlad imir
RE G
sh adow
ĠIndian apolis
ĠR ise
ĠTrib une
Ġimp air
Ġdetermin es
Ġsup rem
lin ear
ĠF ashion
ĠEv olution
um en
L ic
c reat
el in
Ġredu ces
R en
Ġn erve
ĠG ang
ĠCl iff
Ġst y
Ġrem inder
ĠRh ode
ĠL oad
ĠPhilipp ine
ĠReg istration
Ġthe ology
Ġpar a
Ġill um
ud s
r ators
Se ason
ash board
com b
W ait
it ary
Ġdis contin
ĠKenn eth
Ġste al
Ġchar itable
oubt edly
EN SE
Ġexerc ises
U LE
3 000
ĠH ttp
b ecause
w ent
umb led
ay ed
Ġadv ancing
e ous
Bas ic
Ġhelic opter
ment ioned
ful ness
Ġs our
Ġamb ig
S aturday
ew ater
om eter
Spe aking
f ixed
Ġcont ing
Ġvill ain
Ġhe ating
if i
ij i
oy age
ĠPublic ations
ir teen
Ġun comfort
ĠChar acter
c z
Ġc otton
Ġp upp
Jew ish
Ġto ile
ff ield
F uture
Ġsh irt
Ġre pository
ch ief
Ġharm ony
Ġpreced ing
Ġc ad
Ġre op
ĠSt yle
Ġcompan ion
ĠPan ama
Ġsolid arity
26 0
en za
L I
Ġro ok
Ġrelig ions
ĠSw ift
h ouses
Fl ag
Ġun lock
ĠA part
ass y
iver y
Ġtrav elled
Ġancest ors
Be ing
IT ION
ĠBr ady
Ġnep hew
os hi
art en
down load
sv g
cons ider
Ġc od
Ġhost ile
ĠToy ota
w ikipedia
lu ence
ĠS end
leg iate
z ero
Ġmed als
ĠĠĠĠĠĠĠĠĠĠĠĠĠĠĠĠĠĠĠĠĠĠĠĠĠĠĠĠĠĠĠĠ ĠĠĠĠĠĠĠĠĠĠĠ
Ġschem a
ĠAl pha
ĠLyn ch
Ġg rief
ĠIn clud
ĠW inn
ĠN as
UN T
Fr ance
Reg istry
ĠQuest ions
99 9
Ġwh olly
ĠF ra
ĠK umar
Ġreb ounds
Afric an
ĠF eder
ĠM ine
ĠCan adians
i ott
ot yp
ĠP ac
if ndef
Ġcloud s
Ġsubsc rib
cl amation
ĠV P
Ġsett lers
At l
run ning
en os
30 1
Ġdet ained
aval ry
m ile
ĠStep han
ul i
Ġcoordin ate
ass embly
Ġche aper
ĠArch bishop
approp riate
CO M
ĠProtest ant
Ġcomp rom
yt ical
ĠĠĠĠĠĠĠĠĠĠĠĠĠĠĠĠ ĠĠĠĠĠĠĠĠĠĠĠĠ
st own
; }
Ġt mp
Ġtrans gender
comp onents
Ġinfect ious
ĠC ool
Ġtoler ance
ĠI SS
ĠT as
in as
ĠNe igh
ĠAgric ultural
Ġin adequ
ynam ics
ingu ished
ĠBu y
ĠAct ive
Ġtra ct
Ġmat hematical
Ġpriv ately
Ġb ags
by e
With out
O F
ov an
Ġspir its
IC T
ĠR ut
ĠSom ething
ĠL amb
ĠJohn s
Ġliv est
% ).
parent s
names e
C red
ĠK urt
21 5
Ġsocial ly
ĠAg es
Ġopp ose
Ġcreat ure
ĠTh r
D ictionary
ĠMon itor
rag ue
Ġmechan ics
ĠR ES
ch at
ĠTim othy
Ġmon op
m oz
Ġ ],
ĠK un
ĠK as
pre v
ap or
Ġassess ments
it zer
' ));
Ġlim iting
Ġm aker
ur bs
Ġfe as
d ad
ĠU til
Ġdescript ions
ĠArch ae
lis hers
Ġa ug
Ġ= ======
Ġgr ay
n l
ĠD rag
Ġhead lines
Ġm a
IC S
ĠLook ing
rit is
ĠEnt reprene
m u
ĠEngine ers
ĠW als
Ġprop he
Ġal umin
Ġbreak through
umer able
ict ure
EE EE
O l
g ins
ces ter
ing o
Ġcred entials
Ġpros pective
ĠD awn
Ġprot agonist
ĠG ross
Ġmodel ing
Over view
ĠCl are
ific ant
Vert ex
Ġtr im
ĠCh ang
Ġtri o
ĠIndust ries
Ġincorpor ate
Ġce iling
ar cer
ĠRe uters
Ġtra pped
à¥ į
ex ecute
ĠF ul
27 0
18 63
i ating
ke eping
Ġlit eral
ĠCour ts
Ġsur faces
id y
ĠEv il
Ġconcent rated
ĠSh ield
cc i
gg ing
an th
ĠW ald
p al
ĠQuest ion
âĢ ²
Pop ulated
Ġcolle ague
U t
log o
An imation
col Last
ĠB A
Ġdesign ing
ĠW ITH
ĠK erry
m and
Ġl ymph
Ġb ust
M ah
Ġto y
Ġbro ker
get s
c ue
21 1
Ġthe aters
Ġur ge
Ġse am
Ġdiox ide
Ġf iber
P rom
B road
Ġreflect ing
Ġrhet oric
Ġtrigger ed
ĠW ake
it ably
ogn ition
Not able
art icles
Ġgr an
Ġal pha
Ġhom etown
ĠD ow
in ers
Ġsc rew
Ġsubject ed
æ ĸ
ĠFergus on
f lu
Ġdem ographic
p ad
14 6
ĠLeg acy
N orm
Ġn ons
Ġstom ach
Ġp arser
Ġsur pass
ĠY ugoslav
M ic
ĠSeb ast
ou x
ĠC anyon
ting ham
ĠT D
ĠMed icaid
pro port
Ġcount ing
arent ly
ĠH ass
ĠBulgar ia
EN CE
im ity
oc ur
Ġ' ',
Ġscr atch
ĠO g
ĠBy zant
ĠConstitution al
arth y
Ġsurg ical
p aper
Ġrec alls
Ġra b
Ġpurch ases
Ġpar ade
Ġec ological
ĠK ap
H ard
ĠDar win
Ġthe rapeutic
ĠL ac
Ġsexual ity
Ġrem inds
Ġcommun ist
dis ambiguation
Ġg ast
ĠPlay Station
ĠL or
ĠAssoci ates
Ġtw ist
ĠKash mir
F ederal
Ġn p
h appy
Ġb acter
Ġm i
EE E
Ġarbit rary
ry s
Ġgu ilt
ox y
ig m
Ġv i
Vis it
second ary
stit u
t body
Ġalign ment
Ġdiss em
3 30
ri ans
14 8
Ġunderstand s
ĠT ow
Ġreg ist
Ġperform er
if ference
ĠV ern
__ _
ĠMer cedes
Ġassert That
Ġmur ders
ĠS cre
19 2
ĠT iger
Un known
Ġfavor able
ĠDav ies
Not ification
Ġstory telling
Ġbl end
Ġpar as
ear ly
ĠProp het
Ġre he
Ġpers istent
n ative
N atural
ar as
Cent ral
err ors
ĠBarn es
ope z
un ique
ĠJ ourney
Ġconven ience
comm ons
188 6
Ġfinal e
r b
ĠV II
fl ag
ĠMult i
( @
28 0
Ġint end
Method s
Ġout reach
ĠS z
Ġval ign
col First
Ġprosper ity
ĠN I
Ġp ist
in valid
Ġcalc ulate
Ġcirc ular
ia o
ĠR aid
ĠRef uge
ourn aments
ĠChe ster
Ġassemb led
Ġk ings
ĠEqu ity
Ġbre eding
Ġfig ured
18 62
Ġtw entieth
Ġaw ful
h ole
Ġsong writer
ĠCy cl
A W
Ġfram es
N D
Ġem ission
Ġvalid ate
Ġf lesh
Ġspe eds
car bon
2 12
ĠHe at
ĠB MW
ĠRe becca
im als
I l
n n
ĠT E
ĠO bl
rypt ed
o fficial
Sports people
Ġer ected
un ion
f actory
Ġc md
st ead
Ġp unch
Ġident ifies
Ġimag ery
ĠT ang
Ġreli ability
Ġneighbor ing
ĠW ere
Ġpath way
g em
ĠCrit ical
Ġpromot es
m aven
ĠRoll ing
Ġdeleg ate
d c
ĠH off
quir ies
ĠN atal
Or iginal
Or igin
Ġunve iled
Ġcont empl
Ġmetaph or
J ac
Ġnorm s
r andom
................................ ................................
ĠGarc ia
Sh ape
atab ases
** *
ĠS amsung
log in
Ġrec ount
20 8
stit ute
Ġdro ps
ep s
ĠTh ai
ĠAng els
ovak ia
Ġl ang
iff e
Ġimp ress
ograph s
Ġfore ach
kins on
en ary
Ġobst acles
U ntil
ograp hed
ĠM ead
ĠRos en
Ġmetab ol
urch ase
is ible
Ġcor relation
ĠOr d
Ġhor rible
ĠS ets
az ed
ĠUn less
olog ic
Ġw rap
Ġg ut
Ġpract ically
g rav
d al
Ġmanuscript s
Ġkill s
Ġselect or
S aint
ĠIn put
ĠHor ror
ir ate
ĠK end
Ġun rest
Ġview er
Ġconstit utes
ring e
ask at
p ull
ĠT all
Ġimport s
188 2
ĠEvent ually
Ġre habilitation
ĠJes se
ĠL arge
Ġconv inc
5 000
n ick
Ġl akes
m ov
Ġbreak down
Ġelev ation
C RE
ĠAzerbai jan
he ets
Ġnot ified
Sm all
F eed
ĠI BM
Ġscholar ly
K ar
Ġpos ed
Is lam
Ġarbit ration
ay ette
ĠH BO
ĠCar roll
S F
Ġre nd
M ouse
Ġbet a
Ġboy friend
Ġpro pose
ĠAr r
Ġcoll apsed
dr iver
n c
k now
an ic
Ġpr ince
(' /
param eters
Ġscrut iny
ios ity
oc o
Ġint ra
Ġpre view
Ġsp here
Ġr ivals
Ġspons ors
ĠLes lie
W estern
ĠRem ove
Ġt uition
Ad min
Ġdescend ants
Ġprov es
ment ed
Ġadv iser
Att r
hent ication
ĠAr ist
ĠBe hind
c ourt
40 4
OR S
15 2
Ġfinanc ially
cess ion
Ġche ese
Ġem peror
Ġarg uably
ĠClin ic
c ially
ne um
ex ists
{ %
av in
Ġg ospel
ĠAng lic
Ġdies el
A ST
Ġb alls
Ġun e
Ġceleb rities
b g
cl ub
Ġprogress ion
Ġrecre ational
UT C
t z
Ġexempt ion
nap shot
ĠM orm
188 4
Ġsc ared
gr at
ce ans
Ġrecogn ise
ĠH annah
ĠEr nest
Ġbed room
... "
B ank
Ġp unk
print s
Ġcondem ned
Ġbur ial
Ġpress ing
Ġbroad ly
M arc
ĠSalv ador
Ġtra ils
Ġu i
Ġsent iment
ĠM ik
Ġir r
ordin ate
Ġf itted
ĠL if
L uc
20 3
Ġ[ ],
time out
ĠConfeder ate
Ġtrans fers
Ġinst antly
v c
ĠL L
ĠCont ext
Ġpredomin antly
h agen
Ġgo ogle
D eb
ew s
Ġc ord
ĠC it
Ġinnov ations
M il
">< !--
âĢ Ĭ
ĠK in
Ġtyp ed
Ġw reck
Ġeduc ators
Ġlik elihood
Are a
enz ie
ĠSpe ech
sh are
So ft
B rian
ĠCard inal
ĠP s
Sym bol
ä º
ĠB ag
Ġ ig
ĠAr senal
Ġcol span
ĠA uckland
il ion
Ġpro ps
ĠB in
cre ated
arn ings
read er
Ġbehavior al
Ġr ifle
Ġle agues
os i
Ġca f
Ġtre as
Sub ject
ote chnology
hold ing
ĠBel arus
nav List
att ed
Ġtransport ed
97 80
Q ual
ĠRevolution ary
Ġex clusion
rol ogy
ĠJud a
Ġkn ife
T IM
Ġexam ines
Us age
Ġcomm ence
Ġmark er
ĠWar riors
Ġunder go
Ġle verage
roph ic
ĠDur ham
Ġ? >
Res p
Ġjew el
R aw
Ġjoint ly
Th ird
ĠNap ole
inter est
requ ired
ĠThrough out
Ġdou b
ack ed
ĠMur der
C ost
Ġb ishops
t ax
ĠHait i
Ġcent ered
g oto
arm ing
Ġimag ined
21 3
S ix
Ġin ability
Ġl over
In c
Comp iler
squ are
or ro
Ġsa fer
Ġbr ig
ĠTe h
ĠMar riage
T I
or p
Ġn ost
VAL ID
L ower
Ġende av
ri um
end ant
ron ics
Ġen um
Ġrecogn izes
stan bul
Ġincent ive
ann ers
ĠTun is
ĠParliament ary
Ġdi agram
Ġexpress ing
ĠQ ur
ĠProt ocol
ĠW ool
Ġmar itime
Ġmult ipl
c ite
Ġcan al
Ġrepro ductive
Ġpil gr
Ã ī
ĠIl legal
ĠKazakh stan
J P
ĠC ategory
head ed
ag ent
m g
ĠH aven
qu in
W il
at um
Ġm asters
188 3
Ġprosecut or
ĠR out
Ġcomb ining
ĠSh i
ĠRom ans
im o
Ġimpl icit
urn ed
Ġsuspect s
Ġtheat rical
ivid ually
Ġpay load
ĠS leep
ĠAss istance
Ġpr ayers
Ġemer gence
ĠAbd ul
T own
ĠHe ath
ĠSus sex
A X
20 4
Ġ_ ,
Ġrev ival
Ġinteg rate
ĠCa uc
fortun ate
Ġinstruct or
Ġdepos its
Ġreview ing
ver ter
Ġens emble
ch art
index Of
ĠS aw
ock ets
Ġout line
15 7
re ne
Ġrecru iting
ĠS ons
Ġsovere ign
ĠC hes
Pro f
ĠJama ica
Ġhat red
Ġelectron ics
row se
atter y
Ġelabor ate
Ġatmosp heric
Ġris es
Ġun law
an ium
CO VID
J un
oph one
ĠDep ression
ĠTe acher
20 6
Ġex cerpt
Ġdis asters
ter ror
Ġmult ip
Span ish
ĠB un
Ġaut umn
Ġcomb ines
Ġsh ifting
Ġcor rection
by ter
ĠD ol
d ot
at ibility
Ġdel ta
Ġmeant ime
Ġkil omet
Ġhe d
18 5
Ġwh ites
ards hip
Ġnull ptr
Ġsc ary
Ġspec ulation
ĠSuper man
End point
Ġult ra
Ġbu zz
ĠRes olution
Ġpan ic
Ġrecru ited
Ġcy cles
ĠAlexand ria
ĠArray List
Ġf itting
18 40
aj ax
ĠMcC arthy
Ġfro zen
umb ling
ĠDev il
ĠI v
Ġclimb ing
en es
a eda
Ġadjust ment
ĠInter ior
Ġbuck et
ĠAndrew s
Ġcolon ies
at omic
Ġsubdiv ision
Ġdestro ying
w yn
S ite
ari at
F red
Sh ift
ĠAd ult
fund ed
ĠEn forcement
N R
ĠF olk
ĠFor bes
ĠCO L
D igital
Ġdon or
Î »
ĠL ed
ĠRuss ians
all classes
aff e
ruct ive
Ġple asant
á º
ĠThe rapy
Ġexhib its
ĠHend erson
ĠAl ger
Ġthr illed
Ġassass ination
ĠL oss
ĠOther wise
ĠKn ights
Russ ia
s ix
ĠF ri
ĠEN D
Ġdeleg ation
ric es
S elf
iat ry
Ġopt s
l oss
ĠIS O
B ay
Ġv endors
op a
n u
p ages
Ġadm its
ĠAl zheimer
Ġapp rent
Ġapp l
pro xy
OR M
ĠProject s
s ets
Ġp ap
Ġmer it
ber ger
L os
16 9
ĠPl aza
Ġev olving
Ġbe am
Ġactiv ism
k an
Ġconclud es
z el
ri ber
Ġconsum ed
Ġdispos al
Ġtong ue
6 50
ec a
ath y
ĠEx hibition
Ġfre el
< !
15 3
ant o
man agement
enn on
c od
or um
ĠTw enty
Ġsu its
Ġpract icing
pat tern
CD ATA
ĠL odge
le vard
Id entity
Ġuncomfort able
es ity
Ġd ictionary
ĠT her
ĠRe ally
I mp
Ġavoid ing
Ġcollect ively
Ġwood s
Ġc yl
ek ing
Sund ay
Ġstruct ured
ĠAd elaide
lyn n
Ġphenomen a
Ġprosecut ors
Ġle ather
Ge org
Ġwarn ings
() ))
Id s
ĠAdmir al
ĠD ad
Be an
k ward
w rapper
ĠB elf
ur ious
Ġexam ining
Ġpack aging
Ġswit ched
ich i
Ġmarket place
Ġinter mediate
Ġcl ergy
Add itional
Ġse aled
G T
Ġprote ctions
Ġge ographic
op hers
ĠCl aire
) }
Ġtrans mit
ĠHe avy
b atch
ĠS ent
Ġbreat hing
f x
ĠCarol ine
Ġquiet ly
ag ne
t emp
Ġout look
M ove
Ġfresh man
ĠO ption
om ore
h ma
Pl atform
ore m
Ġrele g
Ġk in
Ġsec uring
Ġ ion
Ġexpend iture
ĠA j
sw orth
Ġst ip
ud ge
ĠFor ward
add le
ring ing
Ġarchitect s
Ġpresum ably
Ġmark ing
Ġillust rations
Ġlength y
ĠF est
ĠSc hed
ob i
al ous
Ġresp iratory
ĠChron icle
Ġbes ide
ĠEffect s
Ġdef ender
Ġfact ories
Ġins pect
Ġcycl ing
Ġlad ies
UR CE
ĠUs ers
Ġrun ners
O s
ri ent
ĠSy nd
Ġl od
Ġcon qu
Ġunf old
ĠHer z
ĠUs ed
F und
Ġille g
Ġwh istle
Part icip
Al bum
se par
Sc ience
Ġgu ides
Ġre lying
Ġsp otted
ĠBroadcast ing
Ġreg ulate
ĠC yr
ĠAngel a
App end
ĠÃ Ĺ
Ġstreng thening
k n
Ġg orge
op p
ĠSh in
ograph ies
Ġorg ans
Ġper ipher
ĠBre nd
Ġs ung
Ġind ie
F IN
ĠP am
emb ourg
ĠT anz
ĠB S
Ġat he
Av ailable
ĠM oss
ĠN y
s afe
Ġident ifier
ĠResp ond
ĠCurt is
Ġbl essed
Ġcry st
Ġcompos itions
D im
g eneral
at ics
ĠCert ificate
p ython
Ġwond ered
Ġpract iced
Ġdam n
C ulture
Ġqu arant
18 71
i per
ag ination
Ġimm ense
Ġtow ers
K en
D IS
Ġhun ger
ĠC ategories
it ars
al one
ĠFinn ish
ĠH ours
ĠâĢ ĭ
Ġj okes
Ġid x
Ġfilm makers
P air
Ġplant ed
S uch
i ya
AV E
att a
Ġtest ified
ĠFl ag
ĠInd ies
Ġun iqu
14 2
Ġ( [
Ġsynt hesis
u ations
Ġl oses
Ġdefend ers
i ago
Lou is
ĠM ets
ĠS ultan
à¥ ĩ
ĠG MT
coll apse
DE FAULT
Ġsupp orter
ĠEngine er
ĠD M
Ġins ufficient
Ġme g
(' #
Ġatt ach
Ġrel ie
Ġref uses
Ġfortun ate
UR N
Ġan x
Ġart illery
ĠAp ollo
l ater
15 6
Ġpop ulated
ĠC SS
are tt
Ġsp o
ĠPhot ography
emit ism
F ocus
Ġphilos opher
Ġseason al
Ġsystem ic
ĠS ak
ĠC ord
Ġcl erk
Ð ·
ĠB urns
Un fortunately
ĠRe act
Ret urns
ĠAsh ley
Ġt ire
K A
Ġcon grat
Ġchar ities
ĠE t
ĠP ere
) $
L ee
av ia
pl ain
k el
, ...
Ġ> >>
R NA
iv ism
AM ES
ĠLou ise
ĠBened ict
ĠP ray
ĠBloom berg
e pt
UM M
ĠU m
Ġvict ories
cd n
Step hen
ĠBor is
ĠG D
us ername
Stud ents
Col lege
rad io
5 50
Ġd ock
AR B
Ġmet ropolitan
f lex
at isf
ĠLead ers
print ln
Ġappar atus
Ġb er
ĠW er
ĠV illa
ann i
ĠRec ent
Ġflo ors
ĠBur ton
ĠC av
Ġpro be
ile e
Ġo ct
ĠN H
ĠHe ather
Ġref usal
Ġpress ed
ĠNaz is
Ġcommand ed
g mail
ĉ ĠĠĠĠ
st ed
ĠCal c
em per
15 4
Ġprem ise
Ġs ync
ĠSuper ior
ĠTH IS
ĠPhot os
Ġb out
Cons umer
ĠFem ale
ç Ķ
ĠC rist
Ġrank ings
Ġch lor
15 8
ĠT ags
ours es
ĠOffic ers
ĠO ptions
Ġpart ition
ä »
Ġto ss
âĢ ³
ĠT N
Ġdr one
iov ascular
W ood
V R
select or
ĠD B
let te
c ass
Ġbow l
ol and
11 11
Ġdemol ished
S erv
ĠD erek
Ġle ver
Ġquestion ing
"" "
å ®
Ġbeaut ifully
18 76
on line
ĠL INE
ĠHe in
Ġr ings
Ġgar ner
Ġst ir
Ġch apel
ĠP ython
gly ph
Ġtouchdown s
Ø ¯
âĢ Ĥ
Ġbath room
ard i
pro of
d im
ac cur
ĠM eyer
Ġtra p
Ġappe aling
sw ick
Ġblock ing
Ġph ases
T M
Ġc and
EEEE FF
ĠL il
ĠN ak
U r
ĠA ur
Ðµ ÑĤ
om p
Ġt att
Ġaut ism
Ġannoun cing
rict ion
Ġdefe ating
E ric
Ġatt ain
AR C
Ġsuccess ion
ĠSex ual
P ing
Ġbl ast
ĠEx ample
Ġactiv ation
Ġappoint ments
ĠT ool
Ġcontrad ict
ĠG ren
Ġmis conduct
ĠEc uador
ro ve
Ġl ane
ag in
IS E
ĠD iet
ĠÎ ¼
pher d
ĠB od
Ġsol ving
ĠG ust
aud io
mem ory
ĠA CC
ĠW ait
ĠV ector
ĠD iversity
'] ['
Ġal igned
Ġauthor ization
ĠEnt ry
Ġman ga
Ġaccording ly
y our
D elta
ĠEst ab
Ġs her
18 67
stand ard
ĠAl most
b c
T ile
Ġmach inery
V O
Ġcomm enced
andid ate
b ial
Ġvar ies
de ep
alth ough
G reg
h orn
ĠA way
ĠN ixon
ĠAut om
s ol
ĠAll ied
L it
ĠV a
RE CT
Ġcon ceived
pro duction
A sh
å ħ
m embers
Ġch unk
Ġcont ested
Ġm ph
Ġref und
Ġdang ers
ĠNS W
at able
ĠG em
Ġr ushed
Ġpress ures
ĠL ar
Ġcontin ually
P UT
l ining
Ġharm on
ener ation
r oute
Ġtechn ically
ĠMal colm
Ġsa x
Ġsw ift
P s
od ium
Ġwilling ness
W ord
Ġmon arch
ĠHe y
Ġcr ashed
Ġpron ounced
et itive
Ġenroll ment
Ġarchae ological
F ramework
Ġsen iors
ĠNot re
Ġelig ibility
ĠTh read
Ġninet eenth
15 9
ĠEm my
and ez
Tex as
Ġb izarre
ĠChrist ine
ĠDer by
ĠHold ings
Ġdispl aced
Ġreserv oir
Cl imate
Ġinst inct
Ġlog istics
Ġcon gregation
Ġsymb olic
ĠF ocus
Ġche ss
Ġinter rupt
Ġcool ing
Ġf usion
Ġc ement
pat hetic
Ġex terior
ĠST AT
Ġ( ,
Ġcontribut es
Ġbu f
ĠSouth west
Ġce ased
ĠNov el
DE BUG
or se
Ġl overs
Ġexpect ation
Ġcasual ties
j et
Ġre per
proport ion
ĠCar bon
Con stant
Ġsing ular
spring framework
ia z
Sk ip
Ġcreat ors
e very
Ġbre w
Ã ¯
d ied
ex tern
ĠPat ricia
Ġair ports
Ġens ures
Ġcol ours
Ġsens ors
Ġconnect ivity
Ð¾Ð »
Ġtim ber
Ġunder min
Ġshock ing
Ġsampl ing
H a
K im
t k
Ġcomed ian
Ġs q
ĠHen ri
Ġpit cher
Ġnegot iate
E ll
b oat
ans on
Ġpersonal ities
ĠIt em
ox ic
Ġsupp lier
uis ine
ĠL ak
Ġtax ation
Ġemphas ized
Ġst ays
ĠU E
ĠSaf e
ĠBeaut y
ĠS it
spe aking
Ġprox imity
ĠT yp
en stein
Ġn aked
Pro duction
C G
Ġst ab
Ġcontext s
W arning
Ġide ological
Ġspecial ists
ount ers
ĠWag ner
ĠPet erson
Ġdig est
c ology
ĠN AV
play ing
Ġd ense
Ġpresc ription
Ġph r
Ġst ub
Ġoccur rence
Stand ard
ĠB orough
ĠViet namese
Ġsp ends
ĠFun eral
H i
em er
ĠR ica
Ġeffic acy
ĠC ec
Ġmain land
ĠPent agon
Ġsc ales
Ġsufficient ly
Ġal ly
ĠIll ust
ĠInf rastructure
i ator
ĠCl a
Ġteach ings
an imation
ub ern
Ġposition ed
Ġrestrict ion
ty pename
Ġvel ocity
ĠH amb
Ġor n
Ġmon uments
Ġtom b
M arsh
icult ural
Ġsan ction
C ould
g ems
Ġcl ay
ĠSand y
rele ased
year s
Ġbra ve
ĠMin isters
ĠCE LL
Ġment ally
16 6
ĠC ounter
Ġch arset
ik er
Ġimprison ed
Ġinter cept
Ġund oubtedly
Ġproblem atic
Ġlif elong
T alk
ag le
IL ITY
ĠPro perties
16 7
Ġper missions
C redit
Ġp erv
ĠF IG
is se
ers et
Î ·
met ry
met ric
Ġrepresent ations
F ailure
IL D
F W
s ocket
che ster
Ġge ometry
Ġp sy
Ġm eter
Ġann ex
Ġw ished
Ġexp ose
ĠPakistan i
ĠK or
Ġnew er
Ġcoll ision
S ample
or igin
p ent
ĠF eed
ĠMoh ammed
Ġk g
ĠMark ets
Ġcancel ed
ĠP iano
out heastern
Ġsub str
Ġinj ection
iber al
Am azon
Ġpat ents
ĠWes ley
ĠU nd
Ġspot light
Ġinc arcer
ĠMar tha
b ay
ran ch
Ġp ec
al ym
comp iler
Ġdetect ive
Que en
Ġadministr ators
Ġcor p
Ġs ink
ĠCh anges
Argument Exception
amb ia
Ġprior it
ĠS ER
ad ays
Ġsmall est
Ġdemonstr ations
Ġplan ets
Ġdis hes
l ane
am on
Ġforth coming
ĠChurch ill
ĠF ix
ĠB ears
Ġqual ification
Ġu pt
hem atic
RE T
Ġmagn ificent
Ġt ournaments
un ks
ĠL uck
ĠCamb odia
ĠUnc ategorized
us ions
Ġabund ance
Ġrecept or
Ġint ro
ĠF amilies
ĠD rew
Ad am
whe el
ĠL inks
Ġtre asure
Ġpro long
ĠTe achers
[ [
res olve
Ġaut onomy
18 75
Ġveget ables
el ic
18 78
Ð° ÑĤ
18 68
M ir
Ġad olesc
ĠWy oming
ĠW ords
ok u
Ġind ividually
Ġr iders
Ġenc ounters
J er
V irtual
ig hed
LO C
Ġpred iction
ru ce
ph oto
f ef
per m
) ?
n odes
N ormal
Ġ á
Ġnever theless
ĠCons erv
ĠColl abor
pl ot
inds ay
ons ored
ĠAh mad
Ġrel ies
ĠAdvent ures
' ];
and um
f re
As ia
Ġshe er
F oot
Ġh i
ain es
ro ots
Ġre construction
ĠPh one
isc her
Ġdisturb ing
Ã¡ s
ĠPr ide
Ã© r
L ow
Ġv inyl
ĠAdminist rative
Ġen velop
Ġret ros
Ġ Ø§
i ological
ĠLog an
Ġart ifacts
Ġindic ators
at oes
ĠCh arg
Ġ( ),
Ġwas h
Ġlink ing
Ġpresent ations
ĠPun jab
Sar ah
ĠP owers
Ġmod ifications
Pr inc
Ġthe or
T our
C ONT
NavBar Font
ar ag
Ġenjoy able
ĠEug ene
Ġref using
with standing
inter pret
ĠWorks hop
18 30
ĠAct ress
Ġru ins
Ġsc attered
ĠB agh
us k
ĠHuman ities
Ġfru its
Inter val
Ġteen agers
pro ps
ari us
Ġcry stal
ĠP it
Ġintrodu ces
Ġ ];
Ġacadem y
V ICE
h ref
ct r
Ġsm ell
Ġident ities
ĠCal gary
ĠL t
Ġdil ig
Ġun fortunate
Ġback s
Ġaccept s
ĠFe atures
Ġgener ator
Ġcho ir
Ġf mt
Ġtable t
ĠH unting
ĠPl ans
Ġsk etch
ĠC el
ĠDi agn
Ġb ore
Ġdisc ou
ĠAst ron
Ġbas eline
ĠCry stal
ow itz
Ġknock ed
L ib
Ġb oring
Ġoptim istic
Ġred es
yst er
ĠShe ffield
Ġro oted
ĠCol umn
Ġacqu is
Fl ow
ĠCard inals
Ġint act
ĠEs sex
Ġv ivid
G EN
ili ary
Ġch orus
Ġamb ition
or ate
Ar thur
ĠSt alin
Ġrul er
UB LIC
ab i
Ġjump ing
ĠRodrig uez
20 25
Ġapart ments
Ġge ographical
ĠF resh
ĠGre ens
Ġd well
AC C
Ġcell ular
ĠId entity
K evin
T unes
Mod ern
um at
ĠRh odes
mid t
ĠB ee
ind uced
ĠGo ing
Dr iver
Ġter rain
AM P
21 7
sh ift
ĠSurg ery
Ġinc urred
Rem ote
Ġex changes
ĠTe en
ĠA x
process or
Ġsil ly
Ġwa ited
D er
The me
fore st
Ġorgan isms
Ġdou bled
Ġ' <
ĠBris bane
ĠW ine
roll ers
ĠP ars
ID TH
ĠH od
18 79
N ic
H ello
ĠP and
ĠGrand e
pat ient
Ġstrength s
ĠShe ll
Ġd iver
Ġwh oles
Ġ" '
Ġso ap
ĠEx tra
ĠS N
ĠSh ore
Ã± a
ĠOut standing
ĠAndre a
Ġre build
Ġshe ets
ex ual
qu o
do ors
Ä Ł
s f
ĠC ort
R on
ch in
Ġab ort
Ā Ā
ic z
Ġdr illing
LA Y
) \
w x
f urt
B atch
S em
Ġreal ised
Ġvar ieties
Ġiss u
Ġsom etime
rypt o
en o
cl uster
Ġvit amin
Ñ Ĩ
c ultural
ĠS ue
in ars
es pecially
Ġin duced
Ġfert il
d ating
j ango
Ġwid ow
ĠM t
e lected
ĠUN ESCO
Ġch ocolate
L ess
Ġins ult
ĠAdv ance
f ounded
ĠAm anda
ĠÂ °
L es
om ics
Ġbe ef
ĠH onda
ĠLiter ary
Ġaccus ations
Ġra pper
Ġprofess ors
Ġendors ed
it ures
Ġaw kward
se cret
Ġreal ise
Ġhop eful
M obile
T x
ĠS erv
ĠX ML
Ġfavor ites
ĠCh in
ĠSer bian
B uff
D EC
Ġrad ius
ĠMon roe
ard less
ĠMan uel
Ġterrit orial
ĠT ong
D ue
o an
Ġlandsc apes
Ġeconom ically
Ġnovel ist
Ġlabel ed
Ġg ambling
ĠPro c
us p
ĠW on
20 7
ĠProm ise
Ġcounterpart s
Ġprejud ice
ĠI g
Ac cept
16 2
Ġevent ual
ik imedia
ĠC ork
B rown
Ġhe al
ish i
ĠApp lications
Ġdist ress
cont rib
r ice
" ],
Z one
âĢ ĳ
ĠS ara
Wal let
Ġneg lect
... )
ĠRen ew
T ri
Ġb ats
od o
C ALL
ĠS askat
Fore ign
Ġaccess ibility
ĠAnal ytics
Ġrele vance
v ens
ov sky
ĠE M
ĠArmen ian
Requ ired
F ragment
k ens
Ġfe ared
Matt hew
B ul
Ġhere in
ĠDist inguished
p ark
com merce
18 77
fef efe
ĠB il
Ġeter nal
Ġundert ake
Ġcost ume
Ġre jection
Ġsell s
Ġcondem n
ĠMyst ery
rim ination
Ġlegit im
al is
10 80
ĠH ear
C B
ĠCr us
rele vant
Ġap ost
in ian
inc orporated
iling ual
W AR
an ner
Ġkid ney
ĠRel ated
itt est
Ġbre ed
Ġab used
yl on
Ġmater nal
occ up
Ġcorn ers
Ġsynt hes
Comm unity
Ch icago
16 1
ĠQu ick
h aul
ĠU TC
oun ge
Ġrob ots
ĠInt el
Ġpreced ed
ĠS ize
CT YPE
Ġexplos ive
ath olic
f ail
ĠP or
ST ATE
Ġrg ba
K n
sub ject
ĠP rec
Ġmemb rane
Anal ysis
LO W
ĠS hen
Ġn aming
ĠSh ares
D U
Ï ħ
Ġgenu inely
inher it
he ss
ĠM ale
Ġpaint ers
Ġrevers ed
Ġsever ity
W ild
ĠNe ither
ĠSing er
Pro ps
top ic
Ġalt itude
ĠL opez
Ġteam mates
Ġspe eches
ĠJournal ism
Ġl ith
rem arks
Ġint ends
t ests
Ġmotor cycle
Ġs ql
z ip
ĠNet works
Ġtouch ing
Ġadmin ister
Ġactiv ated
ĠTrans fer
ĠP f
ĠT i
get Element
esc ope
Ġimm ers
ĠBel le
ce iver
ĠFound er
ĠJen kins
ĠWrest ling
ĠL I
ĠCal if
open hagen
ĠPaul o
Ġacceler ate
Â ½
ass oci
ĠLaure n
ĠK iss
21 6
Ġgar age
Ġd irt
Ġret ention
Ġstraight forward
ĠD w
FF ER
Ġreb els
ĠS V
ĠâĢ ł
pr iv
Ġcap ac
B ind
Ġev olve
at omy
ĠR anch
Ġhead line
ath a
Ġbuy er
Ġhear ings
h m
ĠK i
Ġcompl ained
Ġs ocket
ĠS ic
ic able
qu ote
ong o
Ġsl ip
Ġcap ita
Ġsen ator
r v
Ġs ab
Ġind ict
Ġbl amed
Ġsu cc
ĠGovern ance
Ġf ence
f ox
Th ursday
Ġevolution ary
and ro
Ġatt r
s em
ĠâĢ º
Ġdis able
Ġcred ibility
eral a
Ġin ch
ĠBald win
ĠBer ry
c as
Ġscript s
Ġfrust ration
Ġsub urb
Ġde er
ble ms
Ġgen ome
m obile
dest roy
Ġsuper b
Ġrook ie
Ġb ubble
Ġtrou bles
m ouse
ex isting
abul ary
ĠV it
ant om
Sc ient
ĠI X
atter ing
N a
ĠS ister
Sym fony
ĠCast ro
Ġpop ul
Ġdiss ent
agn etic
ĠS isters
ex it
Ġpublic ity
Ġemb ry
y en
T yp
Ġst ew
ĠEll iott
ĠPed ro
ick y
ĠFranc o
Ġrel ocated
tr l
p ared
Ġ$ .
Inst all
Ag ain
t v
ĠWars aw
18 66
y y
C md
Ġreg ret
ĠBo olean
ip es
the m
op ting
Ġsound ed
T witter
Ġcor ps
Ġshould ers
Fr anc
ĠPl aintiff
Ġspecial ty
ge bra
(" /
ry ing
ĠClass es
Comm un
Ġmid night
Ġse as
Ġrebell ion
V an
ĠRec overy
Ġsubsc ribe
ĠGu atem
Ġexclud e
Ġle ak
ĠPre vious
im an
Ġaer ial
Ġse iz
Ġcoordin ated
t alk
Ġdeb ris
Ġre imb
B razil
ext ra
ctor al
equ iv
ĠRoman ian
ĠD A
ĠBet ty
ĠInvest igation
App le
ĠR ac
ĠC I
ill on
Ġpath ways
Ġdom ains
ĠEx amples
Ġsa iling
Name Link
Ġneighbour hood
Ġen rich
Ġst yl
18 69
Ġbas ement
Ġacquis itions
man y
ett es
Ġconsolid ated
ĠSt orage
ĠAd rian
ĠTas man
ĠTeh ran
ĠN R
Ġsu ited
ĠDay ton
ot ive
Ġinc umbent
ins ki
pred ict
ĠMc N
Test Case
ĠR oh
Î ¼
Ġmis under
Ġin con
Ġat omic
Ġyour s
act ers
Ġdes ires
ĠAll an
16 4
Ġimpe achment
ĠRich ards
Ġtermin ated
Ġad ul
Ġtem ples
er ion
ĠBry ant
Ġp owder
ĠR iley
ob b
I ts
ĠJ as
Ġpl asma
ĠH O
Ġinc idence
Ġinter rog
ĠOr iginally
ĠB rent
18 72
Ġcelebr ations
Ġa ston
Ġsoul s
ĠLeg ion
ater nity
ĠField s
ater nal
Ġn est
os ion
et z
B order
sl ice
D b
Ġt ier
Ġpay able
W I
FI ELD
Ġcounsel ing
ĠRoberts on
N U
N eed
ĠPat ients
Work ing
Ġnick name
Ġple a
sm ith
Ġemotion ally
Ġbroad band
ĠJuda ism
ĠH ood
ap est
ĠZ ach
ĠR id
Ġgen ocide
Ġcost ly
oper ative
Ġfather s
omed ical
ĠH S
ĠH ern
Ġal beit
ond o
Ġconsist ency
d an
Ġr ushing
18 73
Ġf ines
ast ically
Er rors
Ġmist aken
ys on
s yn
up iter
object s
Ġadv ise
Lim it
ĠN u
Ġchar ming
SS L
IG H
ĠBrun swick
Å Ħ
Thread ing
C y
Ġrender ing
Ġw r
H tml
ĠP T
Ġra ck
ĠUS C
Ġd ive
ĠC airo
ĠĠĠĠĠĠĠĠĠĠĠĠĠĠĠĠ Ċ
ĠOk ay
ĠAtt ack
Ġ" $
Ġf als
Ġbox ing
D rop
F older
v on
iv ier
rug u
ĠPub lishers
Ġf ost
ĠCraw ford
ĠSl oven
ĠJ ak
ab lo
n is
or get
oy a
Ġvir uses
Ġeduc ator
in j
Ġrub ber
Ð¾Ð ´
Ġcur sor
Ġprof itable
Le ague
ĠIns pector
Ġfre ight
umber land
_ );
aur us
Ġnarr atives
Ġmet als
ve c
ĠComm unities
ĠBeaut iful
b inding
Ġreb uilt
app a
> "
Ġm atur
ĠS ans
Ġinf amous
Ġse ct
Ġsol ved
ĠH our
ĠBern ie
qu isition
16 3
Ġâ ĪĴ
Ex ecution
w arning
ĠTh reat
ĠCon duct
ĠSh ows
OL D
Ġcollabor ated
DO CTYPE
Ġne o
ĠHom eland
worth y
Ġhier archy
Ġprint s
Ġmyth ology
s an
ĠL az
Ġopt imal
Ġm arsh
ĠF ear
Ġindic ator
ĠEld er
Constra int
Ġri ot
ĠGaz ette
Ġun to
ol ith
h ou
ĠT roy
Ġhand les
method s
ĠBos nia
Ġsk ull
Ġvol cano
ĠClass ical
Fe atures
Ġa pt
R ound
ON D
Ch anges
Ġmor ality
Ġfrust rated
Ġrem ot
numer us
ĠAnglic an
T imes
Ġutil ized
ECT ION
Ġrec ession
Ġmis leading
former ly
numerus form
ĠIn tern
ran o
T urn
ĠM idd
Ù Ĭ
ĠP E
ĠNot tingham
Ġsoon er
ĠJo in
Ġ um
ĠDi ocese
Ġo ath
ĠGriff in
F ood
gle w
C at
om ical
avor ite
ĠIn fo
âĢĶ âĢĶ
L atest
nt on
ĠB alk
ul iar
run time
Ġsu ed
30 4
Con nell
MO DE
ĠTh ing
Ġsp ray
Ġgame play
Ġaffili ates
33 3
roc ery
S ame
ĠK w
Ġc ope
ĠTes la
Ġw ounds
Ġunsuccess ful
byter ian
Ġw and
Ġre organ
ĠN W
Ġaff ection
sw er
ren cies
n ings
å ¤
Ġg ates
ĠEd mund
Ġan ch
ĠBou levard
imp se
Ġefficient ly
Ġrespect s
âĢĵ âĢĵ
if a
18 48
Ġd w
ĠGen esis
ĠStart ing
gl ass
! ,
S ound
Ġw itch
Ġutter ly
Ġdub bed
he ng
Ġes p
FN GL
Ġpres idents
neg ie
Ġres idency
Ġposit ively
po inter
nob r
que z
Ġdeleg ates
Ġatt achment
Ġcapital ist
ĠC atalog
ĠBuddh ism
d atabase
he res
Ġconf using
H op
Ġind ef
ĠOpt ional
ic ode
." ""
Sp ring
h urst
ĠV R
ut a
. \
ĠI stanbul
Ġd ent
Ġd ot
Ġ( #
Ġout let
ĠR C
ĠWell ington
ĠJoh annes
ĠCont ribut
Sim ilar
ĠLaw yers
K it
Ġinf inite
Ġundert aking
in vest
Ġal ias
sh op
Me et
ck er
i oc
Ġsal aries
ĠKat ie
S che
h d
ou rable
ĠF Y
Ġjust ification
assert True
ĠG erald
Ġsculpt ures
osp here
valid ate
å Ī
Car l
c ro
head s
ar ium
ĠCom ic
Ġreg istry
enc ia
S K
21 4
Ġmass acre
Ġf older
ap is
Ġwel coming
Ok ay
f ires
ight y
Ġsh ake
ĠLouis ville
Ġend angered
Ġb orough
D ave
ĠEl se
ĠExper t
ĠR andom
Ġinv isible
ĠC B
Ġcar ved
Ġflags hip
" /
ĠJan et
Ġreg iment
construct or
ch arge
ĠRes ort
S B
9 11
sw arm
nest y
ĠT ales
ir ie
Ġsynt hetic
ĠRel ief
Prim ary
ĠW ade
itt en
Ġinadequ ate
Ġqual ifications
d iff
Add r
Crit ical
Ġlack s
th irds
Ġv ine
ist ries
Con nor
ĠHer oes
Ġconvinc ing
ĠW ins
cl er
ĠLuther an
D ig
ĠBre tt
Ġin coming
Ġu gly
Ġext ensions
IO Exception
Ġcountry side
Je an
Ġto ys
Ġh ilar
Ġprov ing
ĠDiv ine
ĠR an
Ġh ind
ĠHay es
ar u
ĠWAR R
lo op
Ġinjust ice
app le
T uesday
Ġp s
ĠG ir
ĠFr aser
... </
Ġper cussion
Ġhum ble
mont on
P y
Part y
oc aml
ĠTe a
Ġtou red
ĠT rent
ĠGu est
() ),
s heet
Ġdemonstr ating
Ġsup reme
Ġpers ecution
Ġhighlight ing
Ġb ush
Ġsus cept
Ġlivest ock
u ania
HE AD
ĠBur ke
Ġembra ced
ĠJ ets
ĠSecond ary
ĠKn ox
J es
ĠOper ating
Ġopp ression
l inks
ĠB end
ĠU z
M id
ĠDe leg
l ag
ĠD y
Ġp av
ĠE ra
im eter
Ġsimilar ities
j Query
deg ree
Ġindirect ly
red itation
ĠSol id
miss ible
ĠDra ke
F il
Ġb iodiversity
ĠStock holm
Song s
Ġtrans plant
Ġmet eor
Ġa rose
E th
any a
ĠR ising
Ġcalc ulation
x s
ent ric
ian i
Ġpre y
Ġinsect s
RE L
ĠO UT
Ġdecl ining
he e
ĠMon ica
L u
re ctions
is Empty
Ġshall ow
Ġhor izon
Ġg odd
Ġob jection
Ġnit rogen
act ual
d istance
ĠMalt a
Ġdis ruption
ĠSt ruct
ices ter
ĠRes cue
ru ed
ĠNic ole
Ġintrig uing
Ġor th
18 74
22 4
Ġcollect or
Ġrevel ation
AS K
Ġten ants
et ically
pl ess
Ġcontin uation
Inter view
Ġmo ist
Ġstr anger
Ġpian ist
ĠP rague
get Value
R h
20 9
ĠDist ribution
Ġp el
ĠD ew
L R
Ġclin ics
Ġconsc ience
Ġtra ject
Ġcouncil s
17 2
Ġswe pt
Ġd ancer
Ġsuspic ion
ĠPer th
S chedul
Ġsports people
ĠCharl eston
Ġre n
ov al
Sh arp
Ġge ography
ĠP engu
18 7
ĠOr igin
ĠSant iago
Ġbut tons
na issance
un ately
Ġappe aled
Ġblood y
H appy
und efined
Ġrep airs
Ġref ere
S afe
% "
Ġrem edy
ifer ation
Ġan onym
B ottom
Ġg auge
ĠO C
Str ategy
Ġkilomet res
ĠRep orter
ĠJ et
Ġman if
Build ing
17 3
Ġvulner ability
ĠCase y
sim ple
ĠAs k
Ġthr ive
Ġrum ors
Ġfrag ments
ĠC arson
ĠRed s
19 3
ect ing
ĠGreat est
ĠFre eman
ĠAb use
Ġcert ificates
ĠUnivers ities
g ard
Ġend point
ĠD ifferent
song writer
M onday
ant le
ĠAnn ie
23 5
Ġin ception
ET A
Ġcorrespond ent
x html
ĠT rou
Ġcoordin ates
ĠF lying
ĠÐ ´
ĠK oh
f w
et es
Ġle ar
Y Y
ĠB ren
H u
ĠC and
ĠM add
Ġacc ent
ott age
Process or
Ġcomp iler
Ġra id
ĠGard ner
ĠThanks giving
ĠS K
ĠS ach
are z
arg uments
CL ASS
F un
aut s
ĠAltern ative
s ample
M aterial
17 7
Ġsh y
Americ ans
Run ner
18 59
J ason
iv ist
ĠNew man
ĠBullet in
Ġ ^
ile m
Ġillust ration
ORD ER
ĠZ en
ĠWind sor
ĠGand hi
ĠScot ia
in qu
ov iÄĩ
ĠDom estic
ĠW iki
D ATA
Ġb iblical
Ch art
ot ics
Ġsuccess es
Ġmil estone
ĠRe ich
ĠLem mon
Ġm ud
Det ail
ĠSh ane
Rem ember
ly mouth
Pr ince
ic ides
Ġsub urban
re search
ĠIn fin
author ized
Ġc ents
ĠT ickets
Ġover flow
il on
f b
ert ation
math cal
Ġaver aged
so ever
Ġrenew al
c orn
W ay
ĠG entle
H ung
c ounter
p ersonal
Ġcrit ique
Ġop io
Ġinf antry
Ġs ulf
Ġphys ic
um per
Ġo d
av i
Ã© d
ed o
ĠS ector
German y
in ical
Ġdisc overs
ENT S
Ġdepart ed
Ġig et
ĠL java
Ġa ster
18 2
ĠPro blem
Ġdepict s
Ġb ounds
20 24
Cond ition
ĠH il
aret te
Ġrecre ation
ĠMig uel
ĠW ave
10 24
Sen ior
d ark
ASS ERT
Ġsear ches
ed ar
Ġin complete
ĠP D
Ġgu itars
Ġmind set
Ġfil ters
Ġpercent ile
Ġlawsu its
r ans
vent ional
O x
m itt
ĠC ult
ĠAr ms
Input Stream
v oc
Ġport raits
ĠMan it
C ome
Ġwithd rawn
ĠP ok
he id
ĠE lections
Ġsp ont
******************************** ********************************
Ġthro at
ĠBelf ast
ĠÐ º
Ġthread s
Ġg ym
ĠI MP
ext end
RA Y
Ġaccident ally
ĠMcC ain
Ġinsert ed
arett es
g on
le ys
Ġd orm
ĠCom pos
We ight
Ġorder ing
Ġdon ate
or ian
ag ain
Ġc ake
k ill
m apping
v ine
ĠH ERE
en burg
Som etimes
Ġch airs
Ġsc rap
Ġl uc
Ed ge
Ġbe ats
Ġw ra
ĠE z
ĠQu inn
he rence
ĠL iv
[ <
ĠJ S
ĠMar itime
Con structor
amp ed
son ian
Ġcontribut ors
Ġex ile
ĠTra vis
Ġloc ality
Ġredu ctions
Ġtravel ers
Ġd airy
Ġmedic ines
re ed
ĠK ur
Rec ent
Ġris en
ol ate
Ġref res
head ing
Run ning
17 4
Ġloc ate
C reated
wild fly
Ġmed ications
Comp any
Ġlay ing
ĠW ol
f ere
ĠMar co
gg reg
ĠL atest
Ġaccount ed
por a
Or iginally
ĠLux embourg
ĠR w
Ġt ast
cl one
aid en
Ġtra ces
F n
Â ´
ĠEx cept
ĠAl ways
Ã Ł
Ġregul ators
ne ath
s q
Ġillust rate
Ġpe aked
Ġste pping
Miss ing
R andom
Ġemp irical
Ġproceed ed
Ġfl avor
Ġin appropriate
Ġhomosex ual
ĠV III
ĠCorn wall
P et
ount ain
$ ,
al am
ĠP ine
Ġfac ial
Valid ation
U A
Ġflu ct
Ġshare holder
Ġin k
Ġin mates
ĠE RA
Ġaim ing
Ġembod iment
over nor
ĠIs le
ib les
17 8
Ġh oney
ĠE yes
: [
Ġc ort
Ġen light
und ers
En v
Ġdam aging
ĠF ut
ĠX i
Ġd read
Ġtrust ee
Ins ert
ĠByzant ine
Ġsur geon
Ġrun time
Ġlearn s
Every thing
omb ie
rac use
Ġsub missions
Th us
ĠS ig
Ġsl aughter
ĠBe ast
ĠRock y
L ord
Ġn od
isc opal
Ġhospital ity
ĠChief s
ĠH ook
ĠV ander
Off ice
ĠEv an
ĠWals h
ĠCooper ation
Ġg ymn
Ġca res
ĠDomin ican
Ġguarant ees
Ġgener ates
ĠCon nection
Ġpoll ing
Ġst aged
Ġp ause
Ġsub marine
W as
Ġver ification
mun ition
Ġt enth
ĠT ennis
30 3
Ġsubscrib ers
M ut
ĠH ip
ine z
J ordan
ĠK E
Ġle isure
Ġshut down
ĠC AN
19 1
Ġacc redited
ĠTele graph
18 3
Ġbudget s
Ġstead ily
ĠRab bi
Ġg i
ele m
Ġdem o
trans ition
ĠArmen ia
a ft
Annot ation
Ġa irlines
ĠM TV
ĠR A
ĠMerc ury
ĠBas in
ĠKle in
ĠRoc hester
T en
Ġiss uing
Set ting
Z ero
> )
Ġir regular
Ġscholars hips
Ġthreat en
eeeeeeee eeeeeeee
Ġpharm ac
v d
uss ian
Ġflow ing
ĠGreen e
Ġinev itably
Ġ æ
ï¬ ģ
m ys
Ġt yr
ĠTrans it
Ġcrypt ocur
ĠMan ila
com pl
ener y
Ġ umb
18 55
ĠUS S
Comp at
Ġdivor ced
ĠSh aron
ain ers
Ġmon astery
Ġcomm itting
Ġautom ation
Draw ing
ĠSe oul
Ġgrand son
ĠH AL
Ġel dest
Ġblog s
ser ial
hel per
f air
Ġstorm s
× Ķ
add ed
ĠC V
27 5
ep h
Ġsen ators
Ġcomp ute
ĠAct ivity
Ã³ w
Ġcollabor ate
ĠC li
ĠD IS
Ġnost alg
Ġcry ing
ch urch
Ġco q
ĠIndones ian
18 57
Per form
F K
mer ge
Ġtrou bled
ĠMin i
Ġdes irable
ĠRe ason
Inst ead
Ñ ĸ
ĠT ours
ĠF ont
ĠTrib unal
Ġneglig ence
Ġd atabases
ad h
Ġquant ities
Ġrefer enced
Ġins urg
Ep isode
Ġden ying
Re pl
Ġpass ive
ĠM ove
Ġb rack
p kg
Ġrepro duction
Ġg rocery
Ġfore most
PD ATE
= \"
W C
M iddle
ĠMat rix
ĠA V
gr ass
Ġcontract ed
Ġevalu ating
Ġdefin itive
ĠG y
ex ec
int ell
Ġeleg ant
hand ed
Ġchar m
ĠCon cept
G RO
Ġaccomplish ments
Ġret iring
22 2
ĠDev on
ĠA A
Ġch ol
Ġsh ower
Current ly
Ġnot ices
ĠTh ous
Re ception
Ap pe
B irth
Ġex agger
Ġconf ined
el o
Ġfundament ally
Ġn urt
Ġdevelopment al
ĠH uff
can ic
ĠLanc aster
Ġplaintiff s
Ġon set
ãĢ Ĥ
hab i
ud er
Ġgl impse
Ġfuck ing
ĠĠĠĠĠĠĠĠĠĠĠĠĠĠĠĠ ĠĠĠĠĠĠĠĠĠĠĠĠĠĠ
f u
for cing
Ġd in
Ġignor ance
run ner
ĠD in
Res olver
IN ST
ĠS eth
ĠBuild er
ĠW elcome
AT OR
Ġconfig ured
h it
with out
Ġautom otive
res a
EN TRY
Ġrecycl ing
b eck
og o
che wan
R ate
Ġac ids
Ġend emic
unk nown
1 200
IC A
ol ation
ĠJac ques
Ġ" ";
b irth
in ist
b ath
pat cher
18 4
Ġdisappoint ing
Ġfore front
ĠContin ue
C ounter
Ġblock chain
ĠGet ting
bre v
ĠL on
ĠE L
ener gy
Wed nesday
ĠN g
ĠAccount ing
ĠS Y
eng es
ĠTanz ania
Ġutil ize
f ake
Ġpl ag
ĠEd gar
ĠC raft
Ġch rome
ĠOut put
Ġmut ations
ĠAbb ott
ĠNews letter
Oper ator
E s
K O
++ ++
Ġdeal er
De velop
ĠM T
ĠS IZE
aj i
Stud ent
Ġint ake
Ġpass port
ĠWeb b
ĠChrist ie
ĠG am
ĠSoc orro
Ġtr ilogy
ĠHom es
Ã Ĥ
Col umb
AP P
Ġblack s
3 40
Ġb ump
Ġconduct or
Ġcl an
c n
av ian
p od
SE LECT
are l
ĠT win
Ġab normal
ph al
ai res
Ġarrest s
Ġm all
Ġcon ception
ĠCO MP
ag ogue
Ġi Tunes
ch ard
Ġne ut
ĠRaid ers
st en
TH ER
Ġsatell ites
_ {\
ul se
Pre v
ĠIN TER
Ġobserv ers
em ale
IS A
Web site
p enter
Ġswitch ing
ĠRele ases
Ġlaugh ing
Ġpuzz le
Ġdec ree
ĠR andy
Ġir re
Ġcontain ers
er os
Ġch ase
pl aces
Ġhonor ary
M ot
ĠÂ ±
un ts
ak y
Ġcontinu ity
In cre
Ġth umb
ed i
ĠK rish
= (
th ouse
Ġnot orious
ild a
S ide
ĠUnder standing
Ne ill
Ġ' \
Ġrest art
intell ij
ĠW R
ath am
ĠRe y
ĠSil icon
quarter ed
ĠAb ram
Event Listener
ĠSpace watch
ĠIn g
ĠPub lisher
ĠMil ton
17 9
ĠC ros
Ġth y
ot ional
ĠT aking
at z
ĠWin ston
ĠWW II
ĠD owntown
G F
ĠC openhagen
ĠU CLA
ĠL ocation
Ġprinc ip
D ES
ul p
ĠSp art
Ġha ul
Ġman kind
Ġdis proportion
Ġcompar ative
ĠBas il
Ġdesk top
or ity
ĠTest ing
Ġprev ents
Ġrem embers
het ics
Ġun ified
anc a
IM IT
å Ĳ
Ġa ux
ĠDr iver
Afric a
ap os
ĠCan on
orget own
ĠH ann
c am
ĠAchie vement
L IST
ĠP ool
estab lish
L at
ĠL ED
un n
ĠI EEE
Col lect
Ġl ion
ass ign
Ġcapt ures
A ge
Ñ ħ
Ġprob able
Ġob server
ĠStr ange
io let
D OM
ĠA sc
rest rial
Ġunlaw ful
ĠSpring field
reat ment
less ness
th y
Ġro d
ent on
ur ations
ĠCol leges
Ġsid ew
5 12
link ed
f ood
Ġcons ervatives
ĠJack ie
] ).
w ife
at ility
ĠMax well
# {
Ġreal ities
Ġout right
ĠAlb any
ĠN amed
Ġjurisd ictions
Ġpl ots
Ġover time
N othing
PAR AM
ä ½
Ġr am
18 54
Ġp ixels
ĠRet ail
ĠCont est
Ġliber ation
f ocused
g one
ĠSt ay
ĠTra ffic
Ear lier
ĠCoordin ator
Ġa fore
ĠMult iple
iv ating
f ac
Ġz oom
Ġcertain ty
Ġvol tage
Ġunder went
Ġrest ruct
Art icles
Ġprompt ly
18 1
22 6
Ġhist ories
ĠU FC
on so
ĠCal endar
hel m
B rad
l ived
ĠZ oo
ĠDirect ory
U pload
i em
O cc
ĠBudd ha
ĠS ame
ĠBar rett
o que
Pl us
ãĥ ¼
ĠK erala
Arg uments
grad ation
m arsh
Ġwithd rew
H arry
ament al
Ke ep
St age
D ead
uch i
Ġsl ower
Ġcooper ative
dep recated
3 80
Ġconf irms
cl air
Ġequ als
Ġban ner
Ġcomp uls
Ġtou g
" },
Ġrequest ing
Ġneuro log
R yan
Ġcred ible
Ġdoctor al
Ġcolor ful
Ġir rit
ĠT ut
qu ire
Ġg em
ans om
ob iography
Contin ue
Ġpres erving
Ġle ap
Ġunder mine
oper ator
Ġs ys
Academ ic
Ġd umb
ĠX X
or able
ĠO ften
ĠV iv
Î º
ĠK atherine
Ġacqu iring
ĠAn throp
ĠNort heast
ĠPart ies
Ð¾ ÑĢ
Ġd ental
ĠM aps
Ġtax i
Ġmark ers
Ġs iege
Ġdiss olved
ĠMy ers
Ġcalc ulations
gg le
Ġdeliber ate
mer cially
au f
Ġsl ice
Ġdial ect
ĠK ol
Ġrecogn izing
Ġen forced
Bl og
ĠR ate
ĠSt ructure
pl ing
sc opy
ij a
Ġexceed ed
ĠSc heme
Ġfellows hip
Ġd ragon
Ġ& #
Ġche f
Ġintention ally
ov i
Ġcl icking
] <
ĠRes istance
vis or
ĠG B
Pr ice
Ġb ilateral
Ġsatisf ying
w ave
Ġl ending
Al tern
Te chn
ĠLinked In
ĠNew port
W ORD
Ġc ategor
ĠO H
El izabeth
ĠMan ual
Ġfre ed
ĠVict ory
ĠCelt ic
ĠL ect
ĠLINE AR
Ġadjust ments
qual ified
ĠOrgan isation
ĠMorm on
ĺ ħ
'] );
el man
Ġby pass
arm ed
ĠRe ve
ĠD olph
Ġl ined
D ar
Ġl ig
ï¼ Į
Ġassoci ates
Ġcon current
ens ely
Ġwhat soever
Ġconf ess
Ġple aded
m iddle
accept able
ĠL ub
ĠX I
erc ise
Ġrem inis
Ġcre ep
Ù ĩ
styles heets
ell ite
ĠNort on
Ġs aves
Ġimp art
Ġair plane
Ø ª
ĠF o
ĠSt a
w at
sl ide
22 3
ĠL av
R ules
Ġpri zes
; ">
ĠPat ent
il tr
Ġrul ers
amil iar
ĠT ests
Ġmer cy
Ġgall eries
ĠR AF
Ġdict ators
LE W
T ouch
Am ount
Ġlie utenant
Ġsoph omore
Ġstart ups
ĠA RE
Ġm ate
ĠM ick
/ )
J O
ĠK ick
18 58
ĠEqu ality
re ements
um ption
Ġassum es
en ic
ĠT IM
ĠL af
B us
por ter
RO W
Ġilleg ally
v ariable
Ġassess ing
ATION S
rib ing
Cont ains
]] ></
ĠHug o
ĠAdminist rator
Ġto oth
ĠM Ã¼
ym e
With in
Ġ' ''
ĠMar ion
Ġpos es
Ġth under
im ming
Ġdest ructive
s pl
ĠB B
l iter
check box
ĠR S
set up
Ġboard ing
N UM
n st
ĠConc ord
Ġc uisine
ire ments
Ġdepend encies
Ġgorge ous
Ġsusp icious
ĠPol ic
ĠHand book
an ol
ĠAnn ounces
Ġsix ty
Ġspec ification
ĠPost ed
Ġm ansion
Ġstate wide
Ġmus cles
ĠS ally
Ġd ataset
Build ings
ĠH i
Ġware house
en i
Ġred irect
Ġsub urbs
NS String
Ġleg ends
Ġw ives
Every one
er ial
ar ance
ĠBro ck
ĠVal id
Ġfoot print
ĠE valuation
d uration
Ġcat hedral
dis able
ĠEurope ans
Ġl ately
Ġst raw
b ins
G ate
u j
Ġp ier
Ġcapt uring
ĠJoy ce
8 50
in cre
Ġib n
fig ure
oc ene
Ġinstall ations
ĠN um
er i
ĠSug ar
Ġmod al
Ġb urg
Ġjud ged
const ra
Ġrein force
y on
ĠExp ression
SH A
ĠCor onavirus
AN N
Ġspark ed
3 10
ĠTri ple
v acc
Ġin ducted
Ġor phan
Ġwhere by
Ass embly
ĠE asy
Ġemb assy
ĠMay a
ĠO le
Ġmean while
Ġload s
ra f
ĠT ucker
Ġab uses
AT TR
ĠProdu cer
re hend
Ġg ases
Ex tra
$ $
Ġl ighter
Cont ract
Ġth irteen
ĠC ann
Ġeconom ist
iot ics
b ard
ĠH ydro
ab stract
B ound
Ġposs essed
ĠM ang
Object s
Ġtweet ed
Ġhung ry
'' '
Ġpro jection
Ġpromot ional
Ġham mer
Ġper t
Ġsc al
ing e
ĠBenef its
U AL
Ġpreval ent
ĠClaim s
Th row
× ¨
ĠAnd ers
ĠGuid elines
Ġfour teen
Over all
Ġpoly mer
ĠImm un
ag i
Ġvac uum
rib es
Ġaccess ing
Ġsuper natural
ĠSebast ian
st roke
art ments
Ġgrant ing
l ar
ĠGr id
K now
St an
24 5
ĠAc cept
icon duct
c ats
ĠP ione
board s
Ġpropos es
Ġassert ion
ĠC ars
ĠA sp
du cing
re b
Ġlack ed
po i
ĠA ch
30 2
Ġdiscover ies
Ġelim ination
ĠChar ity
ĠMid west
Ġb od
Ġcon ced
ĠBank ing
( /
Ġhe ated
ochem istry
Ġm igrant
Ġdomin ate
ĠT OP
Ġemploy s
Ġred ist
Ġpione ering
Ġbless ing
t ake
ĠUS B
ĠCor b
Ġre wards
ĠWe ap
Ġbott les
Ġauthent ication
Ġtr ash
Ġpit ched
Ġhur ricane
b inary
comp ile
Ġincons istent
ĠHar b
Ġp neum
ĠT ale
Ġdis reg
Ġdet ain
Ġgr asp
Ġm ol
Ġproc urement
m ith
ĠDise ases
Ġcross es
f g
f mt
R oy
circ le
ĠKenn y
âĢĿ ?
ĠG ut
ĠP irates
ĠMod i
Ġcrew s
Ġto pped
Sw ed
om ination
ĠM ell
r g
ors che
Ġcamp uses
ĠSupp ly
at ivity
ĠLe af
Ġmarg ins
A ff
Ġcom eb
ĠPer fect
it ored
ill ary
Ġremot ely
exp ression
Ġpreced ent
ĠColon ial
ĠB ot
ĠGu itar
Ġinstruct ed
Ġpec uliar
Ġdomin ance
ipe g
ĠEx ped
Ġreb el
su pp
ĠBu ilt
ĠON E
M arg
ĠD ana
s ync
Ġf etch
Profess ional
? '
J osh
im i
Ġmin erals
ĠSc and
ĠLa unch
/ ">
ĠB le
Ġgas oline
Ġnegoti ating
w d
Ġd ancers
18 6
iss et
Ġr ides
Ġcrowd ed
ĠBut ter
ĠRestaur ant
oll ah
d aughter
st airs
ĠW I
ĠG roups
Ġvig il
Ġcl one
Ġdist ances
Render er
th ro
Ġal iens
Ġnon etheless
Ġswe eping
ĠS of
Be en
ĠD ust
U k
Ġback drop
J enn
J ones
Ġm im
ĠBel ow
Ġpropos ition
Ġlist ings
Ġfl ip
Ġc ant
ĠCar negie
Ġspace craft
Ġliv elihood
N BC
Ġide als
Ġwond ers
ĠS B
ĠE lement
ĠCh ambers
EN G
ĠCount ries
Ġstr ive
Ġbenef ic
k le
ĠL ay
Ġqu o
Ġt ide
over ing
Cons ider
17 1
Ġb ite
Ġinvestig ative
Fr ont
ĠT ouch
Ex pat
ac iÃ³n
od us
Ġstory line
ol in
Ġe q
ĠWalk ing
ĠSom erset
Ġbicy cle
Ġr ats
Ġper ceptions
ot le
cont act
ĠSal em
Ġdisappoint ment
Ġam en
I rish
Ġf art
Ġveget ation
Ġmanip ulation
bas ic
w ire
ĠGree ks
S a
Ġover r
Ġillust rates
ĠContin ental
U lt
St atic
m aps
s in
ĠJava Script
ass o
Ġpartner ed
ĠP oor
IC AL
ĠUE FA
Ġincre ment
Ġang el
Ġabsor bed
om it
al an
Ġ" .
sub mit
ĠAtl as
b ral
Ġhard est
ING S
ĠSher man
ĠSh annon
ĉ ĠĠĠĠĠĠĠ
Ġst arter
ter bury
ĠWh atever
ĠJud icial
Ġj unction
Ġminim ize
ĠMe asure
Ġrec urring
Ġwell being
Ġbas in
ba um
ul ators
ne ider
t ouch
Ġassist ing
Ġdesper ately
sym bol
Error f
R PC
ĠS tern
amm ad
O G
Through out
ĠL ibraries
f alls
ĠLiber ation
C irc
Ġ( -
To o
Ġor b
ĠAL IGN
he a
Ġpr isons
Ġ@ "
50 9
Ġign oring
0000 00
Ġadd itions
Ex port
Ġsix teen
ĠParad ise
Ġad opting
16 00
Ġwat ches
ĠChe v
l ore
ĠB elt
eb ook
ĠSustain ability
W W
il ight
ĠD ialog
Ġnegot iated
Ġclar ify
ĠG ift
Ġsem if
) ",
Ġprim itive
ĠM ining
U nd
Ġp enn
Ġtro phy
Ġend uring
n ar
à¤ ¿
p b
Ġo mitted
Ġcris es
ien cies
Ġno on
Ġdiscover ing
ĠGriff ith
ĠHigh land
, -
ĠW id
ĠOp inion
ĠMaur ice
ĠD rop
Ġch ips
Ġmet ro
Ġecosystem s
st ates
ĠStephan ie
am ount
ĠC od
ib ling
fl at
ĠA ires
Ġv ault
Ġfix ture
Ġres iding
A IDS
ĠElect oral
Ġas ym
Ġathlet ics
Ġb is
can vas
im il
Ġcons ume
Ġneed ing
Ġreluct ant
Ġret rieve
Ġquarant ine
ĠM olecular
ig ator
Ġan ten
Ġsh ipped
Ġcatch ing
ĠIn nov
Ġconvent ions
Ġafore mentioned
_ [
Ġim posing
Ġtou ches
x imately
ĠF ighter
ĠD ynasty
ĠNapole on
37 5
Print ed
kw args
ĠL indsay
Ġfire arms
ĠKit chen
Ġl ag
ĠG C
Ġour s
) |
C art
P a
ord able
DE X
Int eg
Ping back
Ġcerem onies
Ġins ane
os ures
ĠH undred
Ġde af
Style ID
Ġcatal yst
elect ric
ind ust
Ġg rip
Ġcompos ite
Prot otype
Ġpropri etary
Ġvers es
h on
lin ux
Ġrig orous
Ġmon sters
ĠQu ery
Ġselect ing
In side
Ġrel ent
Ġles bian
C ES
Ġa u
Ġun aware
law s
Ġrecon ciliation
B oard
Ġv intage
Ġlog in
ex ecut
Ġyield s
ry n
Ġpost ers
Ġsh aping
Ġautom obile
ĠC opy
Ġton nes
c op
ĠR NA
Ġcar b
S ort
ter min
ĠI o
un i
Ġbo asts
C ele
let cher
Ġprob ation
high light
ĠM old
Ġrese ar
reg n
Ġpur ple
ĠE y
Ġclass ics
en eg
Ġ{ \
oll ar
Ġdys function
Ġfel ony
18 12
Ġquarter ly
ĠMunicip ality
is o
ĠCl ara
66 66
ĠFA Q
ĠMel issa
ancell ation
ĠD S
Mon th
Vir gin
Â £
ĠKu wait
Ġtack les
Ġh iking
ard on
T AG
m us
ĠPar alym
ĠCa esar
al amy
Ġh ated
Ġrout inely
ad itional
ĠBagh dad
T ony
ĠL ines
Ġsc i
3 25
ĠPres byterian
ric ing
m ime
Ġpl edge
Ġall Classes
ĠRe ality
G roups
ĠO ra
Ġam munition
ĠUnder ground
>: ]<
ĠT yr
st ri
ĠPat rol
Ġi Pad
ram id
Ġtable ts
g io
ap a
sign ature
Ġmamm als
Ġ' ';
ĠNew sp
side bar
Not Found
ĠDod gers
' }
p olitical
ĠJ ill
Ġne ural
ĠStand ing
gorith m
ĠM use
Ġne at
ĠL ok
ĠUn ity
18 51
Ġpostp oned
ĠPharm aceutical
ĠExt ension
G al
t race
26 4
Ġcas ino
ĠW itness
if s
S on
ĠMar ines
ĠLith uania
con vert
Ġcy bersecurity
Ġupgr aded
O ffic
our cing
Ġmar riages
Ġdis gu
f illed
3 70
ib ration
ĠSat an
Ġv endor
ĠCele b
ĠB CE
ĠR ig
l ings
ĠallClasses Link
Ġprivile ges
Ġdecl aring
ĠBal let
Ġvocal ist
ĠRom ney
min ent
Ġt issues
Ġpro se
m essages
ĠRub y
ĠMar ian
ĠCitiz en
B ounds
ĠEl vis
ĠVen us
Ġconfront ed
Ġut ilities
ĠR d
Ġround ed
ĠC rew
Ġtermin ate
Ġp ad
Ġin accur
Rep resent
ĠH M
ĠG E
A H
aur a
ĠHamb urg
Sign ature
Ġtherap ies
ru ck
Ġrel ay
ĠBar b
ĠW WE
od ic
Ġequ itable
Rec ip
ĠAct ivities
ĠSp ons
Ġr all
lic ted
Ġlect urer
ĠChap man
in us
ĠEs pecially
Ġre novation
ĠD oyle
, \
k ok
ĠK ane
: @"
ug hed
Ġform ations
ĠEx pect
Ġexplo it
Ġsher iff
Ġspec ially
ĠNob le
ĠUlt imate
Ġs b
ant is
load ed
Ġdepict ing
Ġup ris
oles cent
Ġprivile ged
QUE ST
Un ion
Ġd ementia
Ġdef ic
Ġsociet al
Ġc ops
;" |
ĠParent s
ars ing
M aking
la us
Ġurg ing
en vironment
ĠB ash
Ġassert ed
Ġsubsid ies
ĠAccess ed
ĠWhit ney
Ġintent ional
Ġde ferred
pr ice
Ġbe et
ID ENT
Ġdoub ts
Ġcontin ental
ĠB av
orth y
Ġoverlook ed
i otic
Ġinflamm ation
t ri
Ġb ot
and i
30 5
ĠOut side
ĠSc ore
Ġste aling
} (
ĠS UMM
ĠG ru
ĠTrend s
Ġal phabet
Ġre iter
epend encies
m ajor
ocr at
Ġenthusi astic
? !
ĠFr anz
RE N
i our
Ġcur iosity
Ġcar n
Ġassign ments
H aw
Ġquant itative
Ġprotect s
Ġn arc
Ġn uts
Ġtransl ations
STR ING
ĠC ay
ĠW ays
F IL
m ix
if ax
ph rase
Ġmit igate
Ġvac ant
ĠM ega
ĠReg ular
K G
ug ged
Ġste ering
ad ia
Ġcl usters
Ġfier ce
ĠDE FAULT
âĢĻ :
Ġextra ction
Ġadvance ment
ĠM AN
ĠK ab
P ier
a uses
at uring
Sh ader
ĠVal entine
ĠDream s
trans action
ĠP lymouth
Ġfin ances
UT E
par agraph
na ire
ĠS Ã£o
Ġinfring ement
Expat riate
ĠA ircraft
Ġchrom os
ĠNAV BAR
Ġv ague
Ġhom eland
fight ers
ĠDor othy
ĠManufact uring
Ġto kens
Ġthreat ens
Sub scribe
ĠF ah
d eb
an an
Ġ} }
ĠMet eor
in ational
ow ment
Ġfl ies
Ġcop ied
Ġl anes
ĠT ill
ver b
Ġsa iled
ĠAl leg
Vis ual
: \
n p
ĠRes ult
vert ical
m ass
ow l
F all
ĠSt rip
Ġcl oth
Ġfair y
ident ified
Ġexp ans
ĠMar athon
Ġent r
ĠD habi
if les
ĠRe in
Ġgl uc
ĠFort une
ĠCO MM
ĠTor res
Ġm d
Ġamb ul
ĠArg ument
Ġsign atures
Dep th
Ġpal m
ĠAdvis or
23 8
Ġpat ience
ph i
12 34
rel ations
it les
Ġind ices
ĠNorth western
ĠPark inson
Sche dule
ĠSn ap
Ġincorpor ating
ĠAdv oc
el m
ĠRos a
Ġstim ulus
Ġlapt op
Ġtrad es
ĠP osition
ĠG ore
Ġfe ud
ĠMe ghan
Ġenc ryption
CO MM
road s
C ivil
CE PT
Ġu pl
Ġclass rooms
ĠSc ene
Ġviol ate
ĠM R
ĠHard y
Ġbully ing
Cont ents
Ġappropri ately
m ud
Ġdismiss al
Ġre construct
u ating
im on
Ġcl ips
Ġcoh ort
R edu
ĠCard iff
ĠG PS
Ġprohib ition
rit z
Sh ared
Ġsad ly
in ja
Ġthought ful
ĠW IT
ĠCal vin
l ower
ĠNut rition
F ast
Ġver ified
ĠWeek end
Ġresc ued
Obs erver
Ġo l
Ġres ides
Ġdec isive
Ġnational ism
cent ral
at io
Ġsell er
er d
Ġarm ies
ĠBright on
r atic
Ġmed itation
ĠP ages
ĠKing ston
Ch ain
ien ne
ĠJohn ston
f etch
ĠC ul
Ġabund ant
Ġsear ched
Ġinc ap
ĠAm b
ĠJ ude
Ġsuccess ive
Ġintern ship
Ġl ips
quest ion
ĠB ast
Ġcon n
ort on
g ang
empl ates
Ġpriv at
4 80
Ġexceed ing
Ġp ile
Ġint ric
ĠSen ators
Ġrecover ing
Ġgrab bed
Ġgram mar
Ļ Ĥ
Ġbl own
Ġv est
ĠPerform ing
et ric
Nav igation
Diagn ostics
Ġglass es
ĠA verage
Bre ak
Ġentire ty
Ġcomeb ack
p ractice
22 7
Ġf erry
ew orks
over view
Ġexpend itures
af i
Ġinter fer
Ġob esity
18 56
Ġorche str
ĠFran Ã§
" (
ĠLore n
Ġen umer
Ġcard iac
b org
ĠS ul
Ġver bal
zh ou
Ġphr ases
Ġlo os
ĠFood s
24 7
Ġla ughed
Ġsurround ings
Ġvo iced
Ġqu eries
Ġshoot er
ĠFin als
Ġcost umes
ĠD iss
ĠR as
R oad
Al ong
Ġgift ed
A st
ĠL ights
an ie
rict ed
for Each
ĠEven ing
ĠRec omm
ĠOpen ing
acer b
Ġspec imens
ĠÃ ģ
Ġsocial ism
Ġpun ct
Ġat om
Ġeth n
ĠMar l
ĠMus k
it ud
el astic
Ġ" %
AT T
ĠLa ur
Ed ward
- (
Ġnational s
Ġhyp oc
ĠE k
Ġsecret ly
De velopment
W O
Ġunder going
Ġh alls
Ġen erg
P akistan
Med ical
Ġres umed
ĠRe ader
ure n
R ows
Ġle v
Ġcol ored
ele ments
Ġju venile
Ġelect r
ĠCustom s
================================ ================================
per ed
ĠAl f
ĠRom ance
ĠLe one
M uch
ig ins
d elta
ĠCon sequently
sl o
Ġintim id
Ġli abilities
Ġrecomm ends
ĠSom alia
ĠAl umni
ĠZ immer
St ory
lis hes
Null able
DA Y
Ġunder neath
vis ions
rim inal
Ġuncon scious
e as
stitu ency
ĠMon ument
ĠN ormal
play ed
N orthern
EC D
M IT
Ġcom mercially
US ER
sequ ence
Ġenh ancing
op ping
sh a
ut z
23 4
ogen esis
Ġdisput ed
ĠH ond
Ġpled ged
Point s
Ġacceler ated
otan ical
ĠGoth ic
sh irt
ĠD as
ĠMic he
22 8
con sole
ĠS ites
A rab
ĠF iles
Ġclear ing
ĠWill ie
Ġcare d
war f
iment ary
i ast
Ġn s
ĠAny one
G N
R oll
b m
b ons
â ĸ
ĠW itch
ĠL un
ĠCow boys
ĠNeg ro
any ahu
comm ittee
Ġaccum ulated
ric ting
ĠW elfare
ĠBrad ford
Ġcor ridor
ĠMon ster
Ġsens es
db c
Ġ ze
ĠI con
ĠPrinc iples
ĠSaskat chewan
ĠMc Cl
ĠMe gan
ing en
Ġdis m
2 21
M apper
ĠF T
urb o
m its
Ġrel iance
ĠBi ological
D ear
ĠB ug
ib a
ĠComp ensation
w ald
L o
Ġforb idden
ĠAd apt
e ffic
Pro to
Ġdeb ts
Ġdiplom acy
ers hire
Ġmos que
rell a
È Ļ
B es
St ock
ĠManit oba
om orph
is che
ĠOb viously
Ġaggress ion
ĠQuarter ly
ĠH ers
Ġv oyage
t p
Ġd iving
ĠB AS
Ġ ub
Ġe go
ok ovic
ĠCole man
K S
ec d
ĠCre ates
ĠSil va
Ġprecip itation
Ġse ating
ats u
Ġequ ations
ĠAven gers
Ġreimb urs
sc ribed
ĠEd monton
ig i
d n
Ġen listed
ins ic
Ġtele communications
Ġcatalog ue
Ġoccup y
ĠS ed
ib us
ĠÎ ±
hard t
ĠS ou
Log in
m ot
Up on
Ġanal ytical
/ {
ĠSur rey
Ġdr ift
Ġoff ences
do ctoral
Ġdistribut ions
anc o
Flor ida
ER Y
member NameLink
S n
ĠFund ing
ĠT ah
ĠB oss
Ġfl ank
V IS
ĠAt omic
government al
all owed
ĠLe icester
Ġgl ac
urd ue
ac ional
~~~~ ~~~~
Ġmer its
Ġexplan ations
se in
Ġpr incess
ĠPl ate
ĠĠĠ Ċ
ĠE gg
ĠTrust ees
Ġmerch and
ĠP ackage
ĠR um
lic ense
Ġun int
Ġj s
ars ity
Ġgener a
Ġdiv ert
Ð¸ Ñı
Ġdisp ers
* ,
Ġnarr ator
Ġm old
ger ald
ĠUn known
umm ing
Ġref resh
ĠM ing
Ġhapp ily
Ġtrust ees
c ious
ĠC lement
ay e
Ġsur plus
z on
ĠI CC
ĠGuatem ala
Ġmess aging
Ġamb itions
LE TE
ĠAra bs
ĠDis ability
Ġsort ed
ĠEss ay
ĠObserv atory
_ )
Ġman eu
ash ire
Ġintern ally
Ġrespond s
B eyond
H ER
getElement ById
ĠC ly
igr ated
oc on
itor ium
Ġadd ict
Ġthr iving
Ġj am
de en
Ġ' .
ĠFrank furt
Ġp ound
000 1
Ġelim inating
Ġp arsed
ĠPrest on
c ip
row th
Ġthr ust
Ġd os
Ġan arch
ĠProv idence
work er
Ġlength s
Ġrec ipe
load ing
Ġdisp atch
ĠK ant
D u
Ġra ge
Ġdifferent ial
pt a
ĠDe lete
load er
ĠCrit ics
="../../../../../../ ../
ĠThe me
Ġped iatric
ĠPe oples
Ġgodd ess
ina e
ĠK och
ĠF irm
: '
Ġh ike
f act
Ġdel icious
ad ors
Ġfrust rating
il o
ĠM ist
ochem ical
G irl
Ġstri pped
pro duced
S port
ee le
Ġvol leyball
Ġexpress ly
Ġcro re
bra him
Ġem pathy
ĠSc he
bor hood
ĠStaff ord
our neys
ĠD ob
to Be
ar is
ING TON
ad al
ang erous
B oston
st ick
ĠS par
Ġresearch ing
Ġmat hematic
Ġhar bor
Ġcont empt
Ġass urance
Ġar ises
4 20
St ub
ĠM N
Ġselect ive
< <
Ġd Ã©
Ġtr ig
Ġobsc ure
Ġhar ness
Ġstra ins
th reat
AM A
Ġtransform ing
res pect
Ġnumber ed
N eg
Ġqu ot
Ġinv ites
ĠThom son
Ġcon greg
Ġdef ects
Ġanti qu
V s
ph ase
ĠArgent ine
Ġh urd
clud ed
ĠDavid son
oc om
Ġfulf illed
In ner
Ġbrief ing
il ib
Rail way
og h
à ¹
ĠArt illery
w y
Ġt ended
Ġh ood
Ġun bel
Al pha
ĠMatt ers
ĠSac red
Ġun limited
row ning
Ġec ology
i ates
Ġp ine
ĠRE AD
ĠB oot
Ġcompar isons
id an
ĠL iz
Qu ant
Ġenzym e
ĠMan ning
comp are
om ers
af ety
sc ore
Ġgr atitude
ĠSuff olk
Start ing
B inary
ĠSpec ies
Ġtum ors
Ġlegisl ators
ĠNob ody
D rag
ĠN L
ber to
Ġdist ancing
Ġc yn
Own er
ĠP eg
ne e
ĠReg ist
som ething
Ġhe ct
Ġconstit uted
Ġportray al
- $
back ed
Let ter
se at
ĠN ice
Ġbench mark
oc ative
amb a
ĠFal con
ĠK ang
Ġinf ants
Ġpsych iatric
Ġrot ate
p end
Ġcoun cill
ĠTor ah
Ġang les
ĠReport ing
ĠG ri
Ġconcent rate
W at
ĠConfig uration
ist on
Ġtoile t
Ġex otic
ĠDirect ive
Pat rick
ĠDuc hess
ĠD iane
ĠBegin ning
V ari
pos al
Ġalumin um
55 5
ĠGr ass
Ġeru pt
ĠFilip ino
× ľ
ĠRec reation
Ġs ights
ĠW ife
Ġadequ ately
Ġneighbour ing
pl er
all a
Ġspr int
Ġspecific ations
Ġrem ake
ĠGD PR
C ursor
ĠTe ams
99 99
ĠCorn er
Ġl as
ĠW ong
18 49
Ġfl aws
Ġer ad
Ġinterpret ations
uss ia
Ġcraft s
Ġsqu ee
Ġpro jections
erman ent
ĠBu enos
w arn
ĠWrit ten
ĠAr lington
ĠHam as
Ġbra ins
P romise
d id
pl aced
Ġrep ay
Ġsal vation
aus ible
Ġb undle
ĠAre as
Ġconstitu ents
Ġinfer ior
Ġhilar ious
ĠT uc
ĠCare y
ĠConf lict
k al
AR G
r ules
Ġattend ees
nt hesis
ĠL abel
urt le
ĠFac ility
Ġsurviv or
a ic
ĠAl ban
ĠZ el
ĠK arn
ĠPre viously
yp se
: -
let es
Ġpun ished
Ġthe ological
29 0
å Ń
Ġ \\
urg ical
Ġlik ewise
Ġethnic ity
h ig
over n
Ġn iche
ro b
ĠAfric ans
icular ly
ĠN est
es p
Ġin ning
ty p
AA AA
ĠÐ ¾
Ġsign aling
Ġprol ific
ĠSoph ie
F D
Ind ust
t f
th ritis
Ġex acerb
s id
ĠCh rome
K at
se lection
ĠFern ando
Ġexerc ised
am inated
au nder
Ġl azy
Ġcon ve
Ġgal axy
Ġmerch ants
Ġstr ang
Com pos
Al t
Ġbal let
Alex ander
Ġfreel ance
C Y
Ġst air
ĠJ O
V ery
Ġenc oded
Group Name
ĠS essions
Ġsh ine
Ġrem ix
Ant i
Ġs ins
pro fits
Ġrem n
Ġhe ir
und a
ĠG ast
Ġphilos ophers
Ġtax able
Ġexceed s
t re
th rift
ĠTra iler
Ġhed ge
ĠH ull
ĠA uthors
A xis
ĠO dd
Ã¶ n
ĠW inner
Ġread ings
Ġat oms
Ġbr ush
g rowing
ra k
ĠHar bour
Ġe man
Ġus eless
Ġdepend ency
Ġcorrespond s
ĠU tt
Ġsurvey ed
requ ency
Med al
Ġun just
ĠB ey
Th ings
Ġprofession ally
r iger
Ġcomb inations
Ne il
fl oor
Serial ization
N ob
l ists
r f
Ġunem ployed
M u
rag ma
ĠJenn y
ĠF ew
23 7
C s
Seg ment
Ġf ancy
ĠJackson ville
ĠProced ure
P ast
ĠE ither
A ri
Ġswe at
Ġuniqu ely
Ġsupp ress
ĠTrans form
Enc oding
ĠK ub
gener ate
ĠVeh icle
ir al
Ġ[ ...]
Ġun le
23 6
Ġtrain er
FLAG S
á ¹
ad vert
ĠSc ots
ĠMart inez
Jon athan
ĠDe ut
Ġtun es
Ġnut rit
Enc oded
Ġsn ake
G s
ĠL ily
Ġhe y
Ġsquad ron
ĠCh urches
Ġconv ictions
Ġremov es
ĠProgress ive
He art
Ġprem ature
yn es
Ġf oul
Ġind ul
Ġemphas ize
int eger
Ġuncertain ties
ĠM ao
Ġen vision
Ġturn over
H I
Ġstat ues
ĠTr in
Ġnational ist
Sep ar
P ark
Ġanaly zing
Valid ator
ĠTon ight
ocr ats
b old
ol or
Ġinter rupted
ĠPref ecture
Ġ ----------------------------------------------------------------
Ġdev il
Ġport able
Ġsym pathy
isp here
omin ations
M ail
= %
ĠR EC
ĠL ands
erc ul
ĠG it
O O
23 1
ĠLaw yer
ĠFight ing
ĠM igration
ĠV ert
ĠCo ffee
ss l
sm art
Ġwild erness
quis ite
Ġinf iltr
S witch
Ġdesc riptor
uff le
ĠO mar
ops y
ĠShort ly
ophob ia
ra cks
Ġgr at
ĠS ang
P olitics
ĠRec ently
Ġcirc a
sc ient
Ġsw orn
mut able
mat rix
Ġmut ation
Ġcoc aine
e us
ed ience
ĠAn imation
ĠBO OST
in x
18 52
ĠDisc ussion
ĠMaj esty
h h
ab l
ĠFerr ari
ĠO ber
hel le
Ġs or
ĠHam mer
ĠMA X
is al
Ġtask ed
Ġnons ense
G MT
g as
ĠEd en
Ġmean ings
Ġgest ure
> ()
I reland
R os
st rom
ĠF CC
Ġimpro per
uss ions
23 2
S qu
ĠV ul
Ġimm ort
le igh
23 3
ĠSl av
ut en
Ġopt ed
ĠMir ror
ĠM am
ph ot
Ġextract ed
Ġreal izing
Ġcompet itor
ĉĉĉĉ ĉĉĉĉĉĉ
ĠPatt erson
Ġgrand parents
ĠBow ie
ĠSt rait
Ġstand ings
Ġmagn et
Ġt ensor
C ancel
ĠM VP
sec ure
Ġble eding
our ge
ram er
Ġel if
ĠBu zz
× ª
B ern
M rs
ĠN SA
Ġrob bery
Ġnegot iation
ĠSch midt
l oo
ĠM W
ul ously
Ġv ag
R od
ĠBar r
26 5
la very
ĠL com
direct or
ĠOpport unity
cont ents
V AR
Ġo ak
Ġcomp elled
ĠCl ause
Ġhere by
I AN
Tra vel
ĠAct ually
Ġdivid end
T F
ĠN iel
ot er
Ġ{ },
V EL
ĠH umph
25 4
l ance
Ġtact ical
Ġout doors
Ñģ Ðº
ĠBed ford
ould er
ĠPier ce
Ġrelax ed
Ġfram ed
H older
">< ![
c red
ĠN ass
Ġwh it
Ġde gradation
Ġad missions
nav igation
Ex pected
sub scribe
Per mission
ĠM ode
Ġback wards
Ġfreedom s
R om
ĠC red
Re ason
ĠHind i
Ver ify
.* ;
ĠF lynn
ĠGe orgetown
Ġmidfield er
Ġexp ired
re po
Ġinter fere
az ar
ad os
[...]
