{
  "version": "1.0",
  "truncation": null,
  "padding": null,
  "added_tokens": [
    {
      "id": 0,
      "content": "[UNK]",
      "single_word": false,
      "lstrip": false,
      "rstrip": false,
      "normalized": false,
      "special": true
    }
  ],
  "normalizer": null,
  "pre_tokenizer": {
    "type": "Sequence",
    "pretokenizers": [
      {
        "type": "Digits",
        "individual_digits": false
      },
      {
        "type": "ByteLevel",
        "add_prefix_space": false,
        "trim_offsets": true,
        "use_regex": true
      }
    ]
  },
  "post_processor": null,
  "decoder": null,
  "model": {
    "type": "BPE",
    "dropout": null,
    "unk_token": "[UNK]",
    "continuing_subword_prefix": null,
    "end_of_word_suffix": null,
    "fuse_unk": false,
    "byte_fallback": false,
    "vocab": {
      "[UNK]": 0,
      "!": 1,
      "\"": 2,
      "#": 3,
      "$": 4,
      "%": 5,
      "&": 6,
      "'": 7,
      "(": 8,
      ")": 9,
      "*": 10,
      "+": 11,
      ",": 12,
      "-": 13,
      ".": 14,
      "/": 15,
      "0": 16,
      "1": 17,
      "2": 18,
      "3": 19,
      "4": 20,
      "5": 21,
      "6": 22,
      "7": 23,
      "8": 24,
      "9": 25,
      ":": 26,
      ";": 27,
      "<": 28,
      "=": 29,
      ">": 30,
      "?": 31,
      "@": 32,
      "A": 33,
      "B": 34,
      "C": 35,
      "D": 36,
      "E": 37,
      "F": 38,
      "G": 39,
      "H": 40,
      "I": 41,
      "J": 42,
      "K": 43,
      "L": 44,
      "M": 45,
      "N": 46,
      "O": 47,
      "P": 48,
      "Q": 49,
      "R": 50,
      "S": 51,
      "T": 52,
      "U": 53,
      "V": 54,
      "W": 55,
      "X": 56,
      "Y": 57,
      "Z": 58,
      "[": 59,
      "\\": 60,
      "]": 61,
      "^": 62,
      "_": 63,
      "`": 64,
      "a": 65,
      "b": 66,
      "c": 67,
      "d": 68,
      "e": 69,
      "f": 70,
      "g": 71,
      "h": 72,
      "i": 73,
      "j": 74,
      "k": 75,
      "l": 76,
      "m": 77,
      "n": 78,
      "o": 79,
      "p": 80,
      "q": 81,
      "r": 82,
      "s": 83,
      "t": 84,
      "u": 85,
      "v": 86,
      "w": 87,
      "x": 88,
      "y": 89,
      "z": 90,
      "{": 91,
      "|": 92,
      "}": 93,
      "~": 94,
      "¡": 95,
      "¢": 96,
      "£": 97,
      "¤": 98,
      "¥": 99,
      "¦": 100,
      "§": 101,
      "¨": 102,
      "©": 103,
      "ª": 104,
      "«": 105,
      "¬": 106,
      "®": 107,
      "¯": 108,
      "°": 109,
      "±": 110,
      "²": 111,
      "³": 112,
      "´": 113,
      "µ": 114,
      "¶": 115,
      "·": 116,
      "¸": 117,
      "¹": 118,
      "º": 119,
      "»": 120,
      "¼": 121,
      "½": 122,
      "¾": 123,
      "¿": 124,
      "Â": 125,
      "Ã": 126,
      "Ä": 127,
      "Å": 128,
      "Æ": 129,
      "Ç": 130,
      "È": 131,
      "É": 132,
      "Ê": 133,
      "Ë": 134,
      "Ì": 135,
      "Í": 136,
      "Î": 137,
      "Ï": 138,
      "Ð": 139,
      "Ñ": 140,
      "Ò": 141,
      "Ó": 142,
      "Ô": 143,
      "Õ": 144,
      "Ö": 145,
      "×": 146,
      "Ø": 147,
      "Ù": 148,
      "Ú": 149,
      "Û": 150,
      "Ü": 151,
      "Ý": 152,
      "Þ": 153,
      "ß": 154,
      "à": 155,
      "á": 156,
      "â": 157,
      "ã": 158,
      "ä": 159,
      "å": 160,
      "æ": 161,
      "ç": 162,
      "è": 163,
      "é": 164,
      "ê": 165,
      "ë": 166,
      "ì": 167,
      "í": 168,
      "î": 169,
      "ï": 170,
      "ð": 171,
      "ó": 172,
      "ô": 173,
      "Ā": 174,
      "ā": 175,
      "Ă": 176,
      "ă": 177,
      "Ą": 178,
      "ą": 179,
      "Ć": 180,
      "ć": 181,
      "Ĉ": 182,
      "ĉ": 183,
      "Ċ": 184,
      "ċ": 185,
      "Č": 186,
      "č": 187,
      "Ď": 188,
      "ď": 189,
      "Đ": 190,
      "đ": 191,
      "Ē": 192,
      "ē": 193,
      "Ĕ": 194,
      "ĕ": 195,
      "Ė": 196,
      "ė": 197,
      "Ę": 198,
      "ę": 199,
      "Ě": 200,
      "ě": 201,
      "Ĝ": 202,
      "ĝ": 203,
      "Ğ": 204,
      "ğ": 205,
      "Ġ": 206,
      "ġ": 207,
      "Ģ": 208,
      "ģ": 209,
      "Ĥ": 210,
      "ĥ": 211,
      "Ħ": 212,
      "ħ": 213,
      "Ĩ": 214,
      "ĩ": 215,
      "Ī": 216,
      "ī": 217,
      "Ĭ": 218,
      "ĭ": 219,
      "Į": 220,
      "į": 221,
      "İ": 222,
      "ı": 223,
      "Ĳ": 224,
      "ĳ": 225,
      "Ĵ": 226,
      "ĵ": 227,
      "Ķ": 228,
      "ķ": 229,
      "ĸ": 230,
      "Ĺ": 231,
      "ĺ": 232,
      "Ļ": 233,
      "ļ": 234,
      "Ľ": 235,
      "ľ": 236,
      "Ŀ": 237,
      "ŀ": 238,
      "Ł": 239,
      "ł": 240,
      "Ń": 241,
      "Ġt": 242,
      "Ġa": 243,
      "in": 244,
      "he": 245,
      "ĠĠ": 246,
      "er": 247,
      "on": 248,
      "re": 249,
      "Ġthe": 250,
      "at": 251,
      "en": 252,
      "or": 253,
      "Ġs": 254,
      "an": 255,
      "Ġw": 256,
      "Ġo": 257,
      "is": 258,
      "es": 259,
      "it": 260,
      "Ġc": 261,
      "ed": 262,
      "al": 263,
      "ar": 264,
      "nd": 265,
      "Ġf": 266,
      "ĠĠĠĠ": 267,
      "ing": 268,
      "Ġp": 269,
      "Ġb": 270,
      "Ġof": 271,
      "Ġin": 272,
      "ou": 273,
      "ic": 274,
      "ion": 275,
      "Ġand": 276,
      "Ġto": 277,
      "as": 278,
      "Ġm": 279,
      "le": 280,
      "Ġd": 281,
      "om": 282,
      "Ġh": 283,
      "ent": 284,
      "âĢ": 285,
      "Ġth": 286,
      "il": 287,
      "st": 288,
      "ct": 289,
      "ro": 290,
      "Ġre": 291,
      "ĠS": 292,
      "el": 293,
      "et": 294,
      "Ġn": 295,
      "ĠC": 296,
      "ĠT": 297,
      "ĠA": 298,
      "Ġl": 299,
      "am": 300,
      "id": 301,
      "ol": 302,
      "Ġe": 303,
      "ĠI": 304,
      "ut": 305,
      "ur": 306,
      "ot": 307,
      "ation": 308,
      "ce": 309,
      "iv": 310,
      "Ġg": 311,
      "ad": 312,
      "im": 313,
      "ĠM": 314,
      "ig": 315,
      "Ġis": 316,
      "ly": 317,
      "ch": 318,
      "ay": 319,
      "Ġfor": 320,
      "Ġon": 321,
      "us": 322,
      "Ġbe": 323,
      "ow": 324,
      "ĠĠĠ": 325,
      "ers": 326,
      "Ġ(": 327,
      "ĠP": 328,
      "ĠB": 329,
      "ir": 330,
      "Ġthat": 331,
      "ĠĠĠĠĠĠĠĠ": 332,
      "Ġst": 333,
      "em": 334,
      "ith": 335,
      "ul": 336,
      "ter": 337,
      "un": 338,
      "âĢĻ": 339,
      "ver": 340,
      "ra": 341,
      "ĠH": 342,
      "her": 343,
      "Ġas": 344,
      "20": 345,
      "ĠD": 346,
      "se": 347,
      "ĠR": 348,
      "if": 349,
      "Ġwith": 350,
      "ag": 351,
      "ist": 352,
      "Ġwh": 353,
      "Ġit": 354,
      "ve": 355,
      "ĠF": 356,
      "est": 357,
      "ĠW": 358,
      "Ġan": 359,
      "od": 360,
      "th": 361,
      "Ġwas": 362,
      "Ġy": 363,
      "Ġal": 364,
      "Ġcon": 365,
      "ac": 366,
      "ĠL": 367,
      "ate": 368,
      "and": 369,
      "op": 370,
      "ĠN": 371,
      "um": 372,
      "ĠThe": 373,
      "ill": 374,
      "ĠG": 375,
      "Ġhe": 376,
      "Ġv": 377,
      "Ġpro": 378,
      "ĠE": 379,
      "ab": 380,
      "ew": 381,
      "oc": 382,
      "Ġat": 383,
      "ess": 384,
      "ri": 385,
      "rom": 386,
      "ity": 387,
      "pe": 388,
      "res": 389,
      "Ġcom": 390,
      "ld": 391,
      "ort": 392,
      "ĠâĢ": 393,
      "Ġby": 394,
      "ht": 395,
      "Ġde": 396,
      "our": 397,
      "19": 398,
      "ĠJ": 399,
      "Ġor": 400,
      "os": 401,
      "ore": 402,
      "qu": 403,
      "ment": 404,
      "ke": 405,
      "pp": 406,
      "ies": 407,
      "Ġare": 408,
      "art": 409,
      "ain": 410,
      "Ġex": 411,
      "Ġse": 412,
      "ĠO": 413,
      "Ġfrom": 414,
      "ant": 415,
      "Ġr": 416,
      "ive": 417,
      "ub": 418,
      "end": 419,
      "ud": 420,
      "ĠĠĠĠĠĠĠ": 421,
      "Ġha": 422,
      "nt": 423,
      "all": 424,
      "pt": 425,
      "ction": 426,
      "ust": 427,
      "ĠU": 428,
      "ard": 429,
      "Ġnot": 430,
      "Ġthis": 431,
      "ial": 432,
      "Ġch": 433,
      "ight": 434,
      "og": 435,
      "ure": 436,
      "Ġsh": 437,
      "ame": 438,
      "ge": 439,
      "ear": 440,
      "ber": 441,
      "'s": 442,
      "The": 443,
      "out": 444,
      "ass": 445,
      "..": 446,
      "Ġ\"": 447,
      "âĢĿ": 448,
      "Ġu": 449,
      "Ġ=": 450,
      "rou": 451,
      "Ġhave": 452,
      "Ġle": 453,
      "ine": 454,
      "ost": 455,
      "ell": 456,
      "Ġwe": 457,
      "ast": 458,
      "Ġyou": 459,
      "ia": 460,
      "ue": 461,
      "ĠSt": 462,
      "ich": 463,
      "ect": 464,
      "ans": 465,
      "ould": 466,
      "pl": 467,
      "Ġpl": 468,
      "per": 469,
      "age": 470,
      "ary": 471,
      "00": 472,
      "Ġwor": 473,
      "ĠK": 474,
      "Ġhis": 475,
      "ak": 476,
      "ff": 477,
      "ĉĉ": 478,
      "Ġcl": 479,
      "ated": 480,
      "Ġhas": 481,
      "Ġsu": 482,
      "201": 483,
      "are": 484,
      "</": 485,
      "Ġab": 486,
      ");": 487,
      "ack": 488,
      "ĠIn": 489,
      "ong": 490,
      "cl": 491,
      "ome": 492,
      "ok": 493,
      "ical": 494,
      "ire": 495,
      "ap": 496,
      "iz": 497,
      "--": 498,
      "Ġj": 499,
      "ip": 500,
      "Ġus": 501,
      "ex": 502,
      "=\"": 503,
      "ice": 504,
      "ther": 505,
      "ult": 506,
      "ry": 507,
      "//": 508,
      "ĠâĢľ": 509,
      "Ġk": 510,
      "ide": 511,
      "Ġwhe": 512,
      "ov": 513,
      "orm": 514,
      "cc": 515,
      "av": 516,
      "ous": 517,
      "Ġall": 518,
      "ere": 519,
      "ence": 520,
      "Ġ{": 521,
      "ie": 522,
      "port": 523,
      "ions": 524,
      "ĠCh": 525,
      "gh": 526,
      "ord": 527,
      "Ġgo": 528,
      "ĠV": 529,
      "Ġad": 530,
      "able": 531,
      "ian": 532,
      "ind": 533,
      "Ġwhich": 534,
      "Ġcomp": 535,
      "Ġcont": 536,
      "Ġcan": 537,
      "ime": 538,
      "Ġtheir": 539,
      "Ġint": 540,
      "Ġwho": 541,
      "Ġbut": 542,
      "con": 543,
      "Ġun": 544,
      "Ġres": 545,
      "Ġwill": 546,
      "ations": 547,
      "Ġ<": 548,
      "ign": 549,
      "Ġdo": 550,
      "Ġthey": 551,
      "ib": 552,
      "so": 553,
      "act": 554,
      "ru": 555,
      "Ġim": 556,
      "fer": 557,
      "ep": 558,
      "Ġen": 559,
      "ount": 560,
      "lic": 561,
      "ĠĠĠĠĠĠĠĠĠĠĠ": 562,
      "Ġwere": 563,
      "one": 564,
      "ĠTh": 565,
      "mer": 566,
      "ance": 567,
      "Ġ*": 568,
      "Ġar": 569,
      "ory": 570,
      "Ġout": 571,
      "urn": 572,
      "ase": 573,
      "ally": 574,
      "Ġme": 575,
      "ace": 576,
      "ile": 577,
      "ks": 578,
      "Ġone": 579,
      "du": 580,
      "int": 581,
      "ents": 582,
      "ish": 583,
      "rit": 584,
      "ook": 585,
      "Ġmore": 586,
      "Ġyear": 587,
      "erv": 588,
      "Ġtr": 589,
      "ress": 590,
      "Ġsa": 591,
      "Ġman": 592,
      "Ġhad": 593,
      "ition": 594,
      "Ġup": 595,
      "Ġnew": 596,
      "ang": 597,
      "form": 598,
      "),": 599,
      "ec": 600,
      "Ġalso": 601,
      "ob": 602,
      "ĠY": 603,
      "ild": 604,
      "Ġpart": 605,
      "Ġabout": 606,
      "Ġag": 607,
      ").": 608,
      "ach": 609,
      "ail": 610,
      "Ġper": 611,
      "Ġif": 612,
      "200": 613,
      "Ġbeen": 614,
      "Ġdis": 615,
      "Ġother": 616,
      "ake": 617,
      "ens": 618,
      "ces": 619,
      "Ġits": 620,
      "own": 621,
      "Ġher": 622,
      "ll": 623,
      "irst": 624,
      "very": 625,
      "ose": 626,
      "ric": 627,
      "čĊ": 628,
      "vel": 629,
      "Ġev": 630,
      "Ġso": 631,
      "ely": 632,
      "ound": 633,
      "ors": 634,
      "ite": 635,
      "ĠHe": 636,
      "ree": 637,
      "Ġpe": 638,
      "tern": 639,
      "ĠIt": 640,
      "Ġ-": 641,
      "ĠUn": 642,
      "ays": 643,
      "com": 644,
      "In": 645,
      "ople": 646,
      "Ġne": 647,
      "Ġ}": 648,
      "ne": 649,
      "ings": 650,
      "Ġli": 651,
      "Ġte": 652,
      "te": 653,
      "ates": 654,
      "Ġsc": 655,
      "ph": 656,
      "ark": 657,
      "Ġwork": 658,
      "reat": 659,
      "hed": 660,
      "nder": 661,
      "10": 662,
      "Ġpre": 663,
      "ational": 664,
      "get": 665,
      "ublic": 666,
      "ext": 667,
      "Ġwould": 668,
      "use": 669,
      "aw": 670,
      "Ġthere": 671,
      "li": 672,
      "fter": 673,
      "ject": 674,
      "\">": 675,
      "18": 676,
      "ath": 677,
      "Ġsp": 678,
      "clud": 679,
      "Ġ$": 680,
      "ng": 681,
      "wo": 682,
      "Ġover": 683,
      "Ġapp": 684,
      "ool": 685,
      "ring": 686,
      "Ġqu": 687,
      "oll": 688,
      "old": 689,
      "Ġtime": 690,
      "ef": 691,
      "ss": 692,
      "Ġfirst": 693,
      "Ġcomm": 694,
      "ĠâĢĵ": 695,
      "Ġrec": 696,
      "row": 697,
      "Ġpeople": 698,
      "oy": 699,
      "ck": 700,
      "Ġkn": 701,
      "ty": 702,
      "Ġoff": 703,
      "amp": 704,
      "Ġret": 705,
      "Ġbec": 706,
      "Ġsaid": 707,
      "ade": 708,
      "iss": 709,
      "ont": 710,
      "Ġwhen": 711,
      "ater": 712,
      "Ġthan": 713,
      "Ġthem": 714,
      "Ġany": 715,
      "ons": 716,
      "ual": 717,
      "ink": 718,
      "iew": 719,
      "ĠRe": 720,
      "ĠĠĠĠĠĠĠĠĠĠĠĠĠĠĠĠ": 721,
      "Ġsome": 722,
      "ert": 723,
      "Ġro": 724,
      "ĠĠĠĠĠ": 725,
      "Ġinto": 726,
      "ivers": 727,
      "Ġ'": 728,
      "Ġour": 729,
      "Ġacc": 730,
      "we": 731,
      "Ġpr": 732,
      "Ġshe": 733,
      "Ġclass": 734,
      "ond": 735,
      "rib": 736,
      "ious": 737,
      "ata": 738,
      "elf": 739,
      "man": 740,
      "Ġunder": 741,
      "ode": 742,
      "St": 743,
      "ĠCom": 744,
      "ug": 745,
      "ram": 746,
      "pec": 747,
      "**": 748,
      "Ġmy": 749,
      "ock": 750,
      "igh": 751,
      "Ġind": 752,
      "Ġget": 753,
      "Ġwhat": 754,
      "Ġinclud": 755,
      "Ġ&": 756,
      "ities": 757,
      "lect": 758,
      "ited": 759,
      "Ġdes": 760,
      "ced": 761,
      "ember": 762,
      "olog": 763,
      "eth": 764,
      "Ġlike": 765,
      "Ġact": 766,
      "Ġplay": 767,
      "Ġinter": 768,
      "ick": 769,
      "Ġtwo": 770,
      "ident": 771,
      "ĠNew": 772,
      "Ġam": 773,
      "==": 774,
      "ft": 775,
      "les": 776,
      "pect": 777,
      "red": 778,
      "land": 779,
      "ics": 780,
      "Ġjust": 781,
      "----": 782,
      "meric": 783,
      "ĠAr": 784,
      "sp": 785,
      "Ġass": 786,
      "ood": 787,
      "ener": 788,
      "Ġ|": 789,
      "oint": 790,
      "Ġyears": 791,
      "ward": 792,
      "Ġno": 793,
      "ause": 794,
      "yst": 795,
      "ning": 796,
      "round": 797,
      "ps": 798,
      "Ġatt": 799,
      "Ġafter": 800,
      "Ġbet": 801,
      "()": 802,
      "ement": 803,
      "ict": 804,
      "Ġonly": 805,
      "als": 806,
      "ific": 807,
      "rough": 808,
      "over": 809,
      ".âĢĿ": 810,
      "hip": 811,
      "Ġreg": 812,
      "wn": 813,
      "ork": 814,
      "Ġcons": 815,
      "arch": 816,
      "ull": 817,
      "ased": 818,
      "Ġyour": 819,
      "Ġpol": 820,
      "Ġtra": 821,
      "Ġprov": 822,
      "Ġinv": 823,
      "ied": 824,
      "io": 825,
      "uring": 826,
      "Ġreturn": 827,
      "Ġhow": 828,
      "Ġ[": 829,
      "Ġmost": 830,
      "ise": 831,
      "ĠSe": 832,
      "pport": 833,
      "Ġrel": 834,
      "Ġhim": 835,
      "Ġfe": 836,
      "Ġra": 837,
      "12": 838,
      "ms": 839,
      "Ġem": 840,
      "ife": 841,
      "ren": 842,
      "Ġpublic": 843,
      "ars": 844,
      "Ġstud": 845,
      "Ġmay": 846,
      "ough": 847,
      "iel": 848,
      "Re": 849,
      "chool": 850,
      "ating": 851,
      "Ġsub": 852,
      "Ġadd": 853,
      "inal": 854,
      "ative": 855,
      "199": 856,
      "anc": 857,
      "cept": 858,
      "Ġdef": 859,
      "ystem": 860,
      "Ġwhere": 861,
      "itt": 862,
      "Ġthrough": 863,
      "und": 864,
      "ĠPro": 865,
      "ily": 866,
      "pr": 867,
      "ĠDe": 868,
      "21": 869,
      "ĠAmeric": 870,
      "pro": 871,
      "ove": 872,
      "ĠThis": 873,
      "tt": 874,
      "oth": 875,
      "Ġbl": 876,
      "gan": 877,
      "ys": 878,
      "cre": 879,
      "Ġserv": 880,
      "Ġbu": 881,
      "ĠĊ": 882,
      "\\\\": 883,
      "erson": 884,
      "ange": 885,
      "âĢľ": 886,
      "ments": 887,
      "ax": 888,
      "ix": 889,
      "ĠWe": 890,
      "Ġrem": 891,
      "Ġcol": 892,
      "Ġset": 893,
      "11": 894,
      "hen": 895,
      "up": 896,
      "ype": 897,
      "Ġsuch": 898,
      "Ġback": 899,
      "Ġthese": 900,
      "Ġend": 901,
      "velop": 902,
      "ah": 903,
      "ts": 904,
      "Th": 905,
      "âĢĵ": 906,
      "orn": 907,
      "Ġcould": 908,
      "Ġac": 909,
      "ular": 910,
      "ower": 911,
      "15": 912,
      "ility": 913,
      "Ġpres": 914,
      "iversity": 915,
      "Ġfil": 916,
      "oss": 917,
      "irect": 918,
      "oun": 919,
      "Ġagain": 920,
      "Ġcount": 921,
      "ues": 922,
      "Ġknow": 923,
      "ĠAl": 924,
      "fore": 925,
      "Ġent": 926,
      "ĠLe": 927,
      "ĠĠĠĠĠĠĠĠĠĠĠĠĠĠĠ": 928,
      "Ġob": 929,
      "ield": 930,
      "Ġdif": 931,
      "ĠAnd": 932,
      "day": 933,
      "ract": 934,
      "oh": 935,
      "Ġprodu": 936,
      "uth": 937,
      "any": 938,
      "Ġwell": 939,
      "alue": 940,
      "ution": 941,
      "Ġmany": 942,
      "ient": 943,
      "ason": 944,
      "ins": 945,
      "Ġfl": 946,
      "Ġtrans": 947,
      "Ġ.": 948,
      "ames": 949,
      "alth": 950,
      "ible": 951,
      "16": 952,
      "ash": 953,
      "Ġph": 954,
      "Ġneed": 955,
      "Ġdid": 956,
      "arg": 957,
      "oci": 958,
      "cy": 959,
      "ures": 960,
      ",âĢĿ": 961,
      "att": 962,
      "its": 963,
      "17": 964,
      "uch": 965,
      "ize": 966,
      "ince": 967,
      "ful": 968,
      "Ġright": 969,
      "ale": 970,
      "az": 971,
      "ists": 972,
      "Ġthen": 973,
      "ource": 974,
      "ank": 975,
      "Ġsee": 976,
      "Ġbeing": 977,
      "other": 978,
      "ision": 979,
      "ĠWh": 980,
      "Ġinst": 981,
      "air": 982,
      "Ġ//": 983,
      "Ġcall": 984,
      "\",": 985,
      "ton": 986,
      "Ġbecause": 987,
      "ĠSh": 988,
      "ween": 989,
      "Ġworld": 990,
      "ism": 991,
      "::": 992,
      "Ġspec": 993,
      "min": 994,
      "Ġloc": 995,
      "30": 996,
      ".,": 997,
      "ience": 998,
      "ences": 999,
      "ĠAn": 1000,
      "Ġnow": 1001,
      "ices": 1002,
      "ctions": 1003,
      "ollow": 1004,
      "ished": 1005,
      "view": 1006,
      "roup": 1007,
      "Ġart": 1008,
      "ives": 1009,
      "ner": 1010,
      "Ġnum": 1011,
      "hes": 1012,
      "sc": 1013,
      "Ġco": 1014,
      "Ġevery": 1015,
      "Ġmade": 1016,
      "Ġfam": 1017,
      "der": 1018,
      "Ġ/": 1019,
      "aking": 1020,
      "Ġshow": 1021,
      "vent": 1022,
      "Ġrequ": 1023,
      "://": 1024,
      "Ġown": 1025,
      "uc": 1026,
      "'t": 1027,
      "Ġdec": 1028,
      "ines": 1029,
      "par": 1030,
      "led": 1031,
      "ouse": 1032,
      "->": 1033,
      "oot": 1034,
      "ute": 1035,
      "let": 1036,
      "Ġbetween": 1037,
      "pen": 1038,
      "tr": 1039,
      "Ġear": 1040,
      "Ġmake": 1041,
      "cond": 1042,
      "eter": 1043,
      "ven": 1044,
      "ĠSc": 1045,
      "Ġeven": 1046,
      "Ġvery": 1047,
      "Ġeff": 1048,
      "Ġname": 1049,
      "14": 1050,
      "Ġthose": 1051,
      "ww": 1052,
      "emb": 1053,
      "iness": 1054,
      "Ġlead": 1055,
      "Ġser": 1056,
      "Ġshould": 1057,
      "ret": 1058,
      "ral": 1059,
      "Ġlong": 1060,
      "ĠInd": 1061,
      "Ġdevelop": 1062,
      "Ġ@": 1063,
      "000": 1064,
      "Ex": 1065,
      "atch": 1066,
      "way": 1067,
      "ĠCl": 1068,
      "ER": 1069,
      "ather": 1070,
      "Ġway": 1071,
      "gram": 1072,
      "Ġed": 1073,
      "Ġstart": 1074,
      "Ġwant": 1075,
      "Ġuse": 1076,
      "Ġwrit": 1077,
      "Ġke": 1078,
      "Ġvar": 1079,
      "cess": 1080,
      "Ġbefore": 1081,
      "...": 1082,
      "Ġsur": 1083,
      "Ġfun": 1084,
      "22": 1085,
      "ology": 1086,
      "pos": 1087,
      "rent": 1088,
      "Ġmon": 1089,
      "Ġfound": 1090,
      "ĠUniversity": 1091,
      "uss": 1092,
      "13": 1093,
      "ten": 1094,
      "Ġhel": 1095,
      "Ġmod": 1096,
      "Ġgr": 1097,
      "Ġmed": 1098,
      "Ġap": 1099,
      "Ġgu": 1100,
      "198": 1101,
      "ature": 1102,
      "Ġcent": 1103,
      "formation": 1104,
      "Ġbel": 1105,
      "cent": 1106,
      "son": 1107,
      "nment": 1108,
      "ĉĉĉĉ": 1109,
      "Ġconst": 1110,
      "read": 1111,
      "ple": 1112,
      "Ġthink": 1113,
      "ble": 1114,
      "Ġused": 1115,
      "Ġstat": 1116,
      "ern": 1117,
      "Ġdiffer": 1118,
      "Ġsupport": 1119,
      "Ġhigh": 1120,
      "Ġmov": 1121,
      "....": 1122,
      "ider": 1123,
      "ital": 1124,
      "Ġ</": 1125,
      "ĠAs": 1126,
      "Ġfollow": 1127,
      "aj": 1128,
      "ĠIs": 1129,
      "Ġexper": 1130,
      "Ġgover": 1131,
      "Ġcommun": 1132,
      "Ġcre": 1133,
      "Ġlook": 1134,
      "Ġcur": 1135,
      "ting": 1136,
      "Ġduring": 1137,
      "eng": 1138,
      "Ġter": 1139,
      "Ġperson": 1140,
      "usiness": 1141,
      ".\"": 1142,
      "ann": 1143,
      "put": 1144,
      "outh": 1145,
      "ript": 1146,
      "ĠTr": 1147,
      "ever": 1148,
      "imes": 1149,
      "../": 1150,
      "ave": 1151,
      "Ġsign": 1152,
      "Ġform": 1153,
      "Ġchar": 1154,
      "25": 1155,
      "Ġdoes": 1156,
      "ages": 1157,
      "Ġmuch": 1158,
      "ets": 1159,
      "iver": 1160,
      "Ġsystem": 1161,
      "ĠComm": 1162,
      "els": 1163,
      "ek": 1164,
      "ized": 1165,
      "the": 1166,
      "Ġteam": 1167,
      "chn": 1168,
      "Ġthree": 1169,
      "ĠFr": 1170,
      "ĠFor": 1171,
      "Ġchild": 1172,
      "ĠAd": 1173,
      "ier": 1174,
      "Ġlast": 1175,
      "Ġdist": 1176,
      "Ġext": 1177,
      "Ġlife": 1178,
      "eb": 1179,
      "ĠCol": 1180,
      "ury": 1181,
      "iving": 1182,
      "ator": 1183,
      "Ġsm": 1184,
      "ruct": 1185,
      "ually": 1186,
      "raph": 1187,
      "ĠZ": 1188,
      "ina": 1189,
      "Ġwhile": 1190,
      "ved": 1191,
      "eg": 1192,
      "illion": 1193,
      "Ġread": 1194,
      "Ġmin": 1195,
      "Ġcour": 1196,
      "Ġgener": 1197,
      "ĠCon": 1198,
      "Ġdata": 1199,
      "ĠBut": 1200,
      "Ġreport": 1201,
      "ĠâĢĶ": 1202,
      "ants": 1203,
      "IN": 1204,
      "Ġstr": 1205,
      "ml": 1206,
      "ĠShe": 1207,
      "Ġgood": 1208,
      "Ġhelp": 1209,
      "Ġdon": 1210,
      "ired": 1211,
      "Ġel": 1212,
      "It": 1213,
      "orth": 1214,
      "ural": 1215,
      "ON": 1216,
      "ght": 1217,
      "Ġboth": 1218,
      "ional": 1219,
      "Ġresult": 1220,
      "ĠPh": 1221,
      "omen": 1222,
      "alk": 1223,
      "Ġlaw": 1224,
      "Ġsame": 1225,
      "ror": 1226,
      "Ġgreat": 1227,
      "Ġschool": 1228,
      "usic": 1229,
      "au": 1230,
      "Ġdisc": 1231,
      "ohn": 1232,
      "ĠQ": 1233,
      "istory": 1234,
      "Ġexp": 1235,
      "ĠAmerican": 1236,
      "ee": 1237,
      "Ġpoint": 1238,
      "Ġcare": 1239,
      "ĠâĢĺ": 1240,
      "ined": 1241,
      "ross": 1242,
      "ox": 1243,
      "ĠUnited": 1244,
      "Ġincluding": 1245,
      "ety": 1246,
      "Ġinf": 1247,
      "ĠBl": 1248,
      "oid": 1249,
      "essage": 1250,
      "ĠEx": 1251,
      "Ġstate": 1252,
      "Ġfin": 1253,
      "Ġ||": 1254,
      "ived": 1255,
      "50": 1256,
      "Ġagainst": 1257,
      "197": 1258,
      "__": 1259,
      "Ġbook": 1260,
      "Ġcontin": 1261,
      "self": 1262,
      "Ch": 1263,
      "ness": 1264,
      "Ġdown": 1265,
      "(\"": 1266,
      "arm": 1267,
      "to": 1268,
      "Ġresp": 1269,
      "ically": 1270,
      "line": 1271,
      "uro": 1272,
      "();": 1273,
      "ik": 1274,
      "Ġest": 1275,
      "Ġdirect": 1276,
      "Ġcar": 1277,
      "ared": 1278,
      "yn": 1279,
      "oad": 1280,
      "Ġsom": 1281,
      "âĢĶ": 1282,
      "Ġnumber": 1283,
      "uthor": 1284,
      "Ġstill": 1285,
      "ref": 1286,
      "Ġconf": 1287,
      "ody": 1288,
      "ission": 1289,
      "Ġsay": 1290,
      "sh": 1291,
      "Ġ+": 1292,
      "ron": 1293,
      "ccess": 1294,
      "ĠYou": 1295,
      "gy": 1296,
      "Ġrele": 1297,
      "ĠEng": 1298,
      "Ġpartic": 1299,
      "ister": 1300,
      "vers": 1301,
      "Ġsim": 1302,
      "rist": 1303,
      "ober": 1304,
      "ley": 1305,
      "ery": 1306,
      "Ġprogram": 1307,
      "',": 1308,
      "Ġtake": 1309,
      "lish": 1310,
      "ym": 1311,
      "Ġiss": 1312,
      "--------": 1313,
      "Ġrep": 1314,
      "Ġsecond": 1315,
      "Ġ:": 1316,
      "Ġreal": 1317,
      "ĠSp": 1318,
      "Ġhere": 1319,
      "Ġoper": 1320,
      "Ġpop": 1321,
      "ense": 1322,
      "Ġimport": 1323,
      "Pro": 1324,
      "Ġappro": 1325,
      "set": 1326,
      "app": 1327,
      "ĠJan": 1328,
      "Ġaround": 1329,
      "Ġfact": 1330,
      "Ġfind": 1331,
      "Ġeach": 1332,
      "ternational": 1333,
      "Ġbuild": 1334,
      "ocial": 1335,
      "enn": 1336,
      "Ġday": 1337,
      "Ġinformation": 1338,
      "âĢ¦": 1339,
      "akes": 1340,
      "lection": 1341,
      "by": 1342,
      "ration": 1343,
      "RE": 1344,
      "Ġdr": 1345,
      "ĠMar": 1346,
      "Ġrecord": 1347,
      "24": 1348,
      "Ġmark": 1349,
      "Ġ#": 1350,
      "AT": 1351,
      "ĠPl": 1352,
      "uman": 1353,
      "ball": 1354,
      "Ġdifferent": 1355,
      "ploy": 1356,
      "ris": 1357,
      "ument": 1358,
      "Ġrun": 1359,
      "Ġleg": 1360,
      "Ġlist": 1361,
      "Wh": 1362,
      "Ġpass": 1363,
      "Ġhand": 1364,
      "ĠThey": 1365,
      "org": 1366,
      "Ġbusiness": 1367,
      "Ġgl": 1368,
      "Ġorgan": 1369,
      "Ġav": 1370,
      "></": 1371,
      "ially": 1372,
      "orld": 1373,
      "conom": 1374,
      "196": 1375,
      "ĠUS": 1376,
      "Ġplace": 1377,
      "une": 1378,
      "Ġgovernment": 1379,
      "ĠJohn": 1380,
      "ency": 1381,
      "Ġprovid": 1382,
      "Ġgoing": 1383,
      "Ġappe": 1384,
      "Ġann": 1385,
      "ving": 1386,
      "ĠMay": 1387,
      "lished": 1388,
      "Ġtest": 1389,
      "Ġopen": 1390,
      "ĠRes": 1391,
      "ey": 1392,
      "div": 1393,
      "ĠCent": 1394,
      "Ġmain": 1395,
      "ray": 1396,
      "Ġsince": 1397,
      "ĠStates": 1398,
      "urch": 1399,
      "Ġcor": 1400,
      "====": 1401,
      "Ġpar": 1402,
      "Ġfilm": 1403,
      "ST": 1404,
      "oard": 1405,
      "Ġrece": 1406,
      "Ġfamily": 1407,
      "Ġcase": 1408,
      "Ġvis": 1409,
      "Ġca": 1410,
      "Ġexpl": 1411,
      "ases": 1412,
      "Ġimp": 1413,
      "Ġreally": 1414,
      "urs": 1415,
      "Ġbr": 1416,
      "ĠOn": 1417,
      "lear": 1418,
      "Ġpolit": 1419,
      "por": 1420,
      "Ġperform": 1421,
      "Ġ*/": 1422,
      "ified": 1423,
      "iven": 1424,
      "rol": 1425,
      "Ġoffic": 1426,
      "AR": 1427,
      "of": 1428,
      "Ġpos": 1429,
      "Ġprof": 1430,
      "ĠOr": 1431,
      "ization": 1432,
      "Ġinterest": 1433,
      "ĠHow": 1434,
      "Ġfour": 1435,
      "ott": 1436,
      "ote": 1437,
      "23": 1438,
      "med": 1439,
      "atic": 1440,
      "ird": 1441,
      "Ġins": 1442,
      "\\\\\\\\": 1443,
      "Ġadv": 1444,
      "bs": 1445,
      "Ġinc": 1446,
      "Ġdep": 1447,
      "Ġline": 1448,
      "gg": 1449,
      "ID": 1450,
      "Ġsl": 1451,
      "Ġinvest": 1452,
      "Ġbest": 1453,
      "Ġprocess": 1454,
      "span": 1455,
      "embers": 1456,
      "rict": 1457,
      "Ġfunction": 1458,
      "Ġhealth": 1459,
      "rem": 1460,
      "til": 1461,
      "ĠAll": 1462,
      "Ġhome": 1463,
      "2020": 1464,
      "ains": 1465,
      "This": 1466,
      "Ġmust": 1467,
      "Ġincre": 1468,
      "arent": 1469,
      "Ġpower": 1470,
      "Ġgame": 1471,
      "ele": 1472,
      "ream": 1473,
      "We": 1474,
      "ethod": 1475,
      "ev": 1476,
      "ised": 1477,
      "ĠAss": 1478,
      "Ġhead": 1479,
      "ior": 1480,
      "Ġrese": 1481,
      "inc": 1482,
      "Ġcurrent": 1483,
      "ries": 1484,
      "Ġvalue": 1485,
      "arn": 1486,
      "2019": 1487,
      "Ġref": 1488,
      "ask": 1489,
      "ajor": 1490,
      "htt": 1491,
      "Ġself": 1492,
      "ĠCan": 1493,
      "2021": 1494,
      "Ġsing": 1495,
      "Ġsays": 1496,
      "Ġdesign": 1497,
      "ends": 1498,
      "hem": 1499,
      "Ġdem": 1500,
      "ought": 1501,
      "Ġtechn": 1502,
      "ians": 1503,
      "40": 1504,
      "html": 1505,
      "Ġpost": 1506,
      "ourn": 1507,
      "ivate": 1508,
      "Ġmonth": 1509,
      "Ġcountry": 1510,
      "Ġpat": 1511,
      "ĠPr": 1512,
      "itions": 1513,
      "ves": 1514,
      "ĠIf": 1515,
      "Ġer": 1516,
      "uary": 1517,
      "Ġbro": 1518,
      "co": 1519,
      "Ã©": 1520,
      "Ġeffect": 1521,
      "ĠCar": 1522,
      "Ġrest": 1523,
      "ained": 1524,
      "Ġhapp": 1525,
      "ately": 1526,
      "Ġanother": 1527,
      "itle": 1528,
      "><": 1529,
      "../../": 1530,
      "Ġposs": 1531,
      "Ġcompany": 1532,
      "aim": 1533,
      "ĠYork": 1534,
      "resent": 1535,
      "OR": 1536,
      "Ġdel": 1537,
      "ĠThere": 1538,
      "yp": 1539,
      "Ġproject": 1540,
      "ole": 1541,
      "Ġstand": 1542,
      "Ġgroup": 1543,
      "cont": 1544,
      "****": 1545,
      "Ġtype": 1546,
      "ling": 1547,
      "Com": 1548,
      "less": 1549,
      "26": 1550,
      "ways": 1551,
      "ograph": 1552,
      "ify": 1553,
      "ĠĠĠĠĠĠĠĠĠĠĠĠĠĠĠĠĠĠĠ": 1554,
      "ality": 1555,
      "ĠNational": 1556,
      "vious": 1557,
      "Ġallow": 1558,
      "Ġold": 1559,
      "ĠEuro": 1560,
      "Ġbelie": 1561,
      "Ġsol": 1562,
      "ane": 1563,
      "reen": 1564,
      "Ġcap": 1565,
      "Ġorig": 1566,
      "stand": 1567,
      "ertain": 1568,
      "Ġmusic": 1569,
      "ivid": 1570,
      "2018": 1571,
      "Ġprot": 1572,
      "be": 1573,
      "ĠAt": 1574,
      "ulation": 1575,
      "Ġsever": 1576,
      "ories": 1577,
      "ĠWorld": 1578,
      "ium": 1579,
      "ĠMan": 1580,
      "lation": 1581,
      "('": 1582,
      "Ġlater": 1583,
      "ĠNov": 1584,
      "He": 1585,
      "this": 1586,
      "Ġtop": 1587,
      "Con": 1588,
      "27": 1589,
      "ĠState": 1590,
      "ault": 1591,
      "Name": 1592,
      "ording": 1593,
      "Ġmillion": 1594,
      "ample": 1595,
      "ferences": 1596,
      "28": 1597,
      "ittle": 1598,
      "Ġorder": 1599,
      "Ġfew": 1600,
      "ged": 1601,
      "Ġwomen": 1602,
      "iron": 1603,
      "ney": 1604,
      "Ġcharact": 1605,
      "ining": 1606,
      "Ġnext": 1607,
      "Ġseason": 1608,
      "2016": 1609,
      "Ġfac": 1610,
      "Ġcalled": 1611,
      "ĠĠĠĠĠĠĠĠĠ": 1612,
      "Ġprom": 1613,
      "Ġmanag": 1614,
      "Ġdesc": 1615,
      "ats": 1616,
      "ĠAm": 1617,
      "ump": 1618,
      "br": 1619,
      "Ġconsider": 1620,
      "ope": 1621,
      "ĠBe": 1622,
      "AL": 1623,
      "100": 1624,
      "Ġgrow": 1625,
      "ĠChrist": 1626,
      "que": 1627,
      "ai": 1628,
      "ĠPol": 1629,
      "2017": 1630,
      "Ġmet": 1631,
      "Ġspe": 1632,
      "icle": 1633,
      "Ġwithout": 1634,
      "ference": 1635,
      "Ġwin": 1636,
      "EN": 1637,
      "Ġlevel": 1638,
      "Ġnever": 1639,
      "Ġknown": 1640,
      "ger": 1641,
      "Ġlot": 1642,
      "iam": 1643,
      "for": 1644,
      "ently": 1645,
      "Ġhref": 1646,
      "Ġchildren": 1647,
      "ception": 1648,
      "ternal": 1649,
      "Ġwithin": 1650,
      "Ġsmall": 1651,
      "ĠAf": 1652,
      "Ar": 1653,
      "Ġeng": 1654,
      "ilit": 1655,
      "Ġval": 1656,
      "Ġauthor": 1657,
      "ething": 1658,
      "Ġlocal": 1659,
      "Ġi": 1660,
      "Ġmar": 1661,
      "name": 1662,
      "alse": 1663,
      "Ġquest": 1664,
      "Ġaff": 1665,
      "ush": 1666,
      "Ġhtt": 1667,
      "2015": 1668,
      "Ġstory": 1669,
      "Ġcr": 1670,
      "back": 1671,
      "ĠSchool": 1672,
      ",\"": 1673,
      "ĠWar": 1674,
      "Ġequ": 1675,
      "ĠCount": 1676,
      "eral": 1677,
      "Cont": 1678,
      "ended": 1679,
      "Ġpresent": 1680,
      "ĠEurope": 1681,
      "ĉĉĉ": 1682,
      "29": 1683,
      "Ġdet": 1684,
      "ĠSo": 1685,
      "Ġland": 1686,
      "AN": 1687,
      "Ġtoo": 1688,
      "Ġtri": 1689,
      "esc": 1690,
      "aster": 1691,
      "ĠMed": 1692,
      "Ġthings": 1693,
      "Ġsuccess": 1694,
      "ĠOct": 1695,
      "ĠTe": 1696,
      "lex": 1697,
      "work": 1698,
      "ĠMin": 1699,
      "Ġele": 1700,
      "ĠAust": 1701,
      "Ġput": 1702,
      "ĠJanuary": 1703,
      "As": 1704,
      "cur": 1705,
      "td": 1706,
      "ively": 1707,
      "Ġimportant": 1708,
      "Ġsocial": 1709,
      "ĠJu": 1710,
      "Ġseries": 1711,
      "irc": 1712,
      "atter": 1713,
      "ĠNo": 1714,
      "On": 1715,
      "oman": 1716,
      "Ġbeh": 1717,
      "Ġmajor": 1718,
      "Ġchange": 1719,
      "ĠÂ": 1720,
      "An": 1721,
      "Ġuntil": 1722,
      "Ġcity": 1723,
      "Ġpub": 1724,
      "Ġopt": 1725,
      "Ġmembers": 1726,
      "Ġhistory": 1727,
      "Ġbig": 1728,
      "ĠSouth": 1729,
      "idd": 1730,
      "cer": 1731,
      "osp": 1732,
      "gin": 1733,
      "here": 1734,
      "thing": 1735,
      "Ġnon": 1736,
      "Ġview": 1737,
      "lege": 1738,
      "icy": 1739,
      "wards": 1740,
      "Ġcome": 1741,
      "ĠBr": 1742,
      "Ġfr": 1743,
      "ĠAug": 1744,
      "Ġfinal": 1745,
      "ention": 1746,
      "my": 1747,
      "add": 1748,
      "Ġturn": 1749,
      "Ġevent": 1750,
      "val": 1751,
      "Ġexpect": 1752,
      "Type": 1753,
      "ĠCo": 1754,
      "import": 1755,
      "ene": 1756,
      "))": 1757,
      "Ġchang": 1758,
      "Ġweek": 1759,
      "Ġleft": 1760,
      "erman": 1761,
      "Ġnear": 1762,
      "Ġusing": 1763,
      "Ġelect": 1764,
      "ailable": 1765,
      "AS": 1766,
      "2014": 1767,
      "artment": 1768,
      "Ġeconom": 1769,
      "ability": 1770,
      "ler": 1771,
      "obal": 1772,
      "stit": 1773,
      "Ġresearch": 1774,
      "used": 1775,
      "param": 1776,
      "ued": 1777,
      "ination": 1778,
      "Ġcommunity": 1779,
      "source": 1780,
      "Ġocc": 1781,
      "Id": 1782,
      "Ġsomething": 1783,
      "ĠThat": 1784,
      "pril": 1785,
      "mber": 1786,
      "ĠBrit": 1787,
      "ribut": 1788,
      "Ġdeath": 1789,
      "Ġbre": 1790,
      "ĠMarch": 1791,
      "ĠPres": 1792,
      "):": 1793,
      "Ġide": 1794,
      "col": 1795,
      "Ġfund": 1796,
      "Ġfollowing": 1797,
      "Ġwar": 1798,
      "ances": 1799,
      "rop": 1800,
      "Ġeduc": 1801,
      "String": 1802,
      "Ġless": 1803,
      "ĠGu": 1804,
      "Ġtrue": 1805,
      "Ġhuman": 1806,
      "uff": 1807,
      "Ġsk": 1808,
      "Ġearly": 1809,
      "ably": 1810,
      "Ġche": 1811,
      "Ġseem": 1812,
      "uture": 1813,
      "ĠEd": 1814,
      "Ġplan": 1815,
      "Ġemploy": 1816,
      "ĠGe": 1817,
      "Ġtry": 1818,
      "Ġarea": 1819,
      "Ġgot": 1820,
      "yle": 1821,
      "Ġproper": 1822,
      "Ġfore": 1823,
      "af": 1824,
      "arge": 1825,
      "iod": 1826,
      "Res": 1827,
      "ĠSept": 1828,
      "Ġpay": 1829,
      "ights": 1830,
      "cember": 1831,
      "acy": 1832,
      "ĠPar": 1833,
      "Cl": 1834,
      "Ġbased": 1835,
      "ering": 1836,
      "umm": 1837,
      "itor": 1838,
      "viron": 1839,
      "By": 1840,
      "trans": 1841,
      "ĠAct": 1842,
      "ĠFl": 1843,
      "return": 1844,
      "ales": 1845,
      "roll": 1846,
      "ES": 1847,
      "ards": 1848,
      "code": 1849,
      "ĠCity": 1850,
      "mp": 1851,
      "2013": 1852,
      "go": 1853,
      "Ġelse": 1854,
      "Ġstudents": 1855,
      "www": 1856,
      "Ġseveral": 1857,
      "Ġmight": 1858,
      "ential": 1859,
      "message": 1860,
      "ĠCal": 1861,
      "key": 1862,
      "Ġactiv": 1863,
      "ĠJune": 1864,
      "Ġcult": 1865,
      "ony": 1866,
      "bl": 1867,
      "angu": 1868,
      "IT": 1869,
      "ateg": 1870,
      "194": 1871,
      "Ġalways": 1872,
      "side": 1873,
      "onse": 1874,
      "ule": 1875,
      "ected": 1876,
      "Ġcamp": 1877,
      "Ġestab": 1878,
      "arget": 1879,
      "Ġaccess": 1880,
      "Ġla": 1881,
      "ising": 1882,
      "Ġfield": 1883,
      "ĠMc": 1884,
      "duct": 1885,
      "Ġservice": 1886,
      "Ġworking": 1887,
      "imate": 1888,
      "alf": 1889,
      "Ġvers": 1890,
      "2012": 1891,
      "Ġproble": 1892,
      "Ġyoung": 1893,
      "uck": 1894,
      "dd": 1895,
      "ĠNorth": 1896,
      "ĠRep": 1897,
      "ival": 1898,
      "not": 1899,
      "ĠApril": 1900,
      "Ġfri": 1901,
      "ache": 1902,
      "ĠX": 1903,
      "Ġbecame": 1904,
      "Ġindust": 1905,
      "Ġaddition": 1906,
      "bum": 1907,
      "reg": 1908,
      "aff": 1909,
      "ĠGr": 1910,
      "Ġbetter": 1911,
      "ĠJuly": 1912,
      "Ġdays": 1913,
      "ĠSu": 1914,
      "ored": 1915,
      "istor": 1916,
      "Ġlittle": 1917,
      "Ġalong": 1918,
      "Ġpract": 1919,
      "oney": 1920,
      "Ġsong": 1921,
      "ending": 1922,
      "Ġsit": 1923,
      "ĠAb": 1924,
      "ĠWill": 1925,
      "Ġprivate": 1926,
      "Ġask": 1927,
      "urther": 1928,
      "iol": 1929,
      "References": 1930,
      "str": 1931,
      "ĠHar": 1932,
      "idence": 1933,
      "Ġfoot": 1934,
      "Ġident": 1935,
      "che": 1936,
      "Ġfull": 1937,
      "Ġdevelopment": 1938,
      "Ġmeet": 1939,
      "ĠOctober": 1940,
      "195": 1941,
      "ĠEn": 1942,
      "ĠTo": 1943,
      "Ġfeel": 1944,
      "empt": 1945,
      "ividual": 1946,
      "class": 1947,
      "Ġavailable": 1948,
      "ĠSeptember": 1949,
      "ources": 1950,
      "ĠDecember": 1951,
      "Ġbecome": 1952,
      "Ġcost": 1953,
      "Ġgiven": 1954,
      "ports": 1955,
      "vironment": 1956,
      "Ġmarket": 1957,
      "comm": 1958,
      "ament": 1959,
      "Ġinclude": 1960,
      "ĠAugust": 1961,
      "Ġpast": 1962,
      "raw": 1963,
      "Ġclaim": 1964,
      "Ġ!": 1965,
      "ware": 1966,
      "Ġinvol": 1967,
      "ĠPart": 1968,
      "60": 1969,
      "2010": 1970,
      "iter": 1971,
      "LE": 1972,
      "\".": 1973,
      "Ġproduct": 1974,
      "Ġarg": 1975,
      "ague": 1976,
      "Ġsupp": 1977,
      "Ġwater": 1978,
      "rew": 1979,
      "inks": 1980,
      "amed": 1981,
      "cil": 1982,
      "To": 1983,
      "yl": 1984,
      "Ġtook": 1985,
      "Ġcond": 1986,
      "Ġcame": 1987,
      "Ġmen": 1988,
      "ered": 1989,
      "2011": 1990,
      "Ġmean": 1991,
      "ison": 1992,
      "Ġhard": 1993,
      "aint": 1994,
      "Ġshort": 1995,
      "iting": 1996,
      "ĠNovember": 1997,
      "ille": 1998,
      "Ġword": 1999,
      "Ġamong": 2000,
      "ured": 2001,
      "ĠFeb": 2002,
      "Ġfar": 2003,
      "Ġpo": 2004,
      "Ġ--": 2005,
      "ustom": 2006,
      "ours": 2007,
      "ada": 2008,
      "Ġoffer": 2009,
      "rap": 2010,
      "ead": 2011,
      "ĠDep": 2012,
      "ournal": 2013,
      "Ġoften": 2014,
      "Ġformer": 2015,
      "ready": 2016,
      "Ġable": 2017,
      "32": 2018,
      "ched": 2019,
      "Ġdeb": 2020,
      "Ġnational": 2021,
      "ĠAfric": 2022,
      "##": 2023,
      "Ġ=>": 2024,
      "Ġacross": 2025,
      "List": 2026,
      "AC": 2027,
      "Ġwon": 2028,
      "play": 2029,
      "ape": 2030,
      "Ġlim": 2031,
      "ideo": 2032,
      "right": 2033,
      "Un": 2034,
      "ervice": 2035,
      "ĠReg": 2036,
      "ĠComp": 2037,
      "Ġprofess": 2038,
      "itive": 2039,
      "type": 2040,
      "osed": 2041,
      "Ġmaking": 2042,
      "ffic": 2043,
      "ilt": 2044,
      "ser": 2045,
      "Ġkeep": 2046,
      "Ġservices": 2047,
      "Ġcrit": 2048,
      "Ġdoc": 2049,
      "ĠPresident": 2050,
      "Ġrepresent": 2051,
      "new": 2052,
      "Ġperiod": 2053,
      "ĠCounty": 2054,
      "Ġkind": 2055,
      "ĠAg": 2056,
      "sel": 2057,
      "Ġstudy": 2058,
      "ogn": 2059,
      "Ġplayers": 2060,
      "Ġlet": 2061,
      "Ġinit": 2062,
      "Ġindividual": 2063,
      "Ġfoc": 2064,
      "Ġfive": 2065,
      "abor": 2066,
      "33": 2067,
      "apt": 2068,
      "ones": 2069,
      "raft": 2070,
      "Ġparticular": 2071,
      "uild": 2072,
      "ows": 2073,
      "Ġhaving": 2074,
      "Ġexperience": 2075,
      "ĠAustral": 2076,
      "aken": 2077,
      "adem": 2078,
      "ĠHis": 2079,
      "ief": 2080,
      "Ġapplic": 2081,
      "Al": 2082,
      "/>": 2083,
      "For": 2084,
      "ociety": 2085,
      "time": 2086,
      "ither": 2087,
      "IC": 2088,
      "Ġclear": 2089,
      "Ġbas": 2090,
      "Ġaut": 2091,
      "lu": 2092,
      "ried": 2093,
      "ipp": 2094,
      "head": 2095,
      "Ġtax": 2096,
      "Ġcompet": 2097,
      "vert": 2098,
      "Ġtimes": 2099,
      "ands": 2100,
      "ham": 2101,
      "ster": 2102,
      "ruary": 2103,
      "hern": 2104,
      "Ġmult": 2105,
      "ctor": 2106,
      "Ġexample": 2107,
      "Ġlik": 2108,
      "aut": 2109,
      "opt": 2110,
      "Ġspecial": 2111,
      "wit": 2112,
      "irl": 2113,
      "Ġtoday": 2114,
      "aps": 2115,
      "Ġunderstand": 2116,
      "Ġfuture": 2117,
      "Ġleast": 2118,
      "Ġeas": 2119,
      "ike": 2120,
      "ĠArt": 2121,
      "Ġrole": 2122,
      "ership": 2123,
      "Ġlarg": 2124,
      "def": 2125,
      "80": 2126,
      "Ġlove": 2127,
      "ondon": 2128,
      "Ġhouse": 2129,
      "Ġjo": 2130,
      "cing": 2131,
      "Ġpolitical": 2132,
      "Ġnet": 2133,
      "Sh": 2134,
      "Ġaway": 2135,
      "ĠWith": 2136,
      "Ġalbum": 2137,
      "Ġanal": 2138,
      "Ġthought": 2139,
      "Ġkey": 2140,
      "Ġben": 2141,
      "Ġfree": 2142,
      "........": 2143,
      "Ġ>": 2144,
      "Ġconc": 2145,
      "Ġdev": 2146,
      "mod": 2147,
      "Ġlarge": 2148,
      "ĠAmerica": 2149,
      "Ġalready": 2150,
      "Ġcover": 2151,
      "ides": 2152,
      "reet": 2153,
      "ĠWest": 2154,
      "ĠGerman": 2155,
      "aterial": 2156,
      "gether": 2157,
      "Ġjob": 2158,
      "Ġtogether": 2159,
      "35": 2160,
      "31": 2161,
      "ung": 2162,
      "ients": 2163,
      "Ġprovide": 2164,
      "Ġ_": 2165,
      "Ġobject": 2166,
      "Ġcontrol": 2167,
      "ĠRuss": 2168,
      "iet": 2169,
      "Ġant": 2170,
      "oph": 2171,
      "olution": 2172,
      "epend": 2173,
      "gr": 2174,
      "Ġwhy": 2175,
      "ĠBar": 2176,
      "ĠDav": 2177,
      "ĠCour": 2178,
      "Ġothers": 2179,
      "Ġcertain": 2180,
      "ength": 2181,
      "minist": 2182,
      "Ġvoid": 2183,
      "Ġdidn": 2184,
      "unity": 2185,
      "Ġage": 2186,
      "uk": 2187,
      "Ġfail": 2188,
      "hers": 2189,
      "ington": 2190,
      "Ġhold": 2191,
      "Ġ==": 2192,
      "Ġdescrib": 2193,
      "field": 2194,
      "wh": 2195,
      "Ġmember": 2196,
      "IS": 2197,
      "Ġdue": 2198,
      "Ġcharacter": 2199,
      "ilar": 2200,
      "ification": 2201,
      "Ġair": 2202,
      "ift": 2203,
      "most": 2204,
      "ĠGl": 2205,
      "Ġtrad": 2206,
      "aces": 2207,
      "Ġfre": 2208,
      "though": 2209,
      "Ġcourse": 2210,
      "ators": 2211,
      "ĠHowever": 2212,
      "ots": 2213,
      "Ġtell": 2214,
      "\"/>": 2215,
      "Ġannoun": 2216,
      "ouncil": 2217,
      "Ġtot": 2218,
      "Ġport": 2219,
      "Ġimpro": 2220,
      "ĠMe": 2221,
      "Ġtalk": 2222,
      "ecut": 2223,
      "umb": 2224,
      "ĠHouse": 2225,
      "Ġaccount": 2226,
      "EC": 2227,
      "Ġcomplet": 2228,
      "iles": 2229,
      "opy": 2230,
      "ĠHer": 2231,
      "anguage": 2232,
      "Ġsix": 2233,
      "AM": 2234,
      "Ġwent": 2235,
      "ĠDr": 2236,
      "aul": 2237,
      "gress": 2238,
      "And": 2239,
      "Ġkill": 2240,
      "irth": 2241,
      "Se": 2242,
      "ilitary": 2243,
      "action": 2244,
      "2009": 2245,
      "ocation": 2246,
      "Ġheld": 2247,
      "Ġmeans": 2248,
      "Ġrelations": 2249,
      "Ġthough": 2250,
      "face": 2251,
      "rag": 2252,
      "Ġnull": 2253,
      "Ġpercent": 2254,
      "ĠWhen": 2255,
      "Ġfalse": 2256,
      "ĠFebruary": 2257,
      "ĠCor": 2258,
      "earch": 2259,
      "Ġmethod": 2260,
      "ches": 2261,
      "ground": 2262,
      "Ġtitle": 2263,
      "iction": 2264,
      "off": 2265,
      "ĠCont": 2266,
      "fo": 2267,
      "ements": 2268,
      "ĠKing": 2269,
      "Ġsingle": 2270,
      "ests": 2271,
      "Ġthing": 2272,
      "fig": 2273,
      "Ġpa": 2274,
      "itted": 2275,
      "Sc": 2276,
      "Ġever": 2277,
      "Ġwhether": 2278,
      "urg": 2279,
      "Ġhig": 2280,
      "Ġvol": 2281,
      "Ġtem": 2282,
      "ĠEl": 2283,
      "Ġmedia": 2284,
      "year": 2285,
      "2008": 2286,
      "ĠLondon": 2287,
      "isc": 2288,
      "ĠOne": 2289,
      "Ġgive": 2290,
      "de": 2291,
      "Ġpri": 2292,
      "ĠSec": 2293,
      "umn": 2294,
      "Ġrights": 2295,
      "cast": 2296,
      "Ġreview": 2297,
      "sw": 2298,
      "ivil": 2299,
      "Ġshall": 2300,
      "ana": 2301,
      "lement": 2302,
      "oice": 2303,
      "Ġris": 2304,
      "ĠInternational": 2305,
      "Ġbuilding": 2306,
      "Ġseen": 2307,
      "Ġworks": 2308,
      "ibr": 2309,
      "ruction": 2310,
      "Ġside": 2311,
      "Ġet": 2312,
      "itte": 2313,
      "ED": 2314,
      "Ġep": 2315,
      "Ġthird": 2316,
      "ĠIm": 2317,
      "Ġtreat": 2318,
      "ĠPe": 2319,
      "ĠCO": 2320,
      "anies": 2321,
      "\")": 2322,
      "Ġlive": 2323,
      "Ġstrong": 2324,
      "fl": 2325,
      "aining": 2326,
      "ederal": 2327,
      "Ġcourt": 2328,
      "Ġstarted": 2329,
      "Ġcareer": 2330,
      "ett": 2331,
      "ĠPer": 2332,
      "vision": 2333,
      "apan": 2334,
      "Ġreceived": 2335,
      "\"><": 2336,
      "hold": 2337,
      "ibility": 2338,
      "'re": 2339,
      "Ġsignific": 2340,
      "ama": 2341,
      "34": 2342,
      "Ġarr": 2343,
      "Ġpossible": 2344,
      "uation": 2345,
      "ze": 2346,
      "unction": 2347,
      "ari": 2348,
      "ened": 2349,
      "now": 2350,
      "ological": 2351,
      "Ġreason": 2352,
      "Tr": 2353,
      "Ġbegan": 2354,
      "rain": 2355,
      "Ġaction": 2356,
      "ilities": 2357,
      "Ġpot": 2358,
      "Ġprevious": 2359,
      "ĠBritish": 2360,
      "Ġexist": 2361,
      "Ġmoney": 2362,
      "Ġtold": 2363,
      "ĠAfter": 2364,
      "But": 2365,
      "ĠApp": 2366,
      "Col": 2367,
      "ĠWhat": 2368,
      "Ġaddress": 2369,
      "Ġviol": 2370,
      "Ġofficial": 2371,
      "Ġredu": 2372,
      "order": 2373,
      "Ġphot": 2374,
      "Ġsent": 2375,
      "iff": 2376,
      "ava": 2377,
      "ples": 2378,
      "What": 2379,
      "Ġdeter": 2380,
      "translation": 2381,
      "Ġbo": 2382,
      "Ġfurther": 2383,
      "Ġsaf": 2384,
      "ma": 2385,
      "ancial": 2386,
      "ills": 2387,
      "ogle": 2388,
      "Ġinternational": 2389,
      "ules": 2390,
      "ecess": 2391,
      "Ġplayed": 2392,
      "ĠLaw": 2393,
      "Ġrespons": 2394,
      "Ġmonths": 2395,
      "Ġpur": 2396,
      "Ġdone": 2397,
      "ĠII": 2398,
      "ids": 2399,
      "ops": 2400,
      "Ġdeal": 2401,
      "36": 2402,
      "rest": 2403,
      "Ġ\\": 2404,
      "Ġsuper": 2405,
      "Ġstruct": 2406,
      "rown": 2407,
      "Ġ`": 2408,
      "aring": 2409,
      "date": 2410,
      "Ġdiscuss": 2411,
      "Ġattack": 2412,
      "Ġposition": 2413,
      "ĠCourt": 2414,
      "Ġoriginal": 2415,
      "Ġexc": 2416,
      "Ġcommon": 2417,
      "uf": 2418,
      "Ġgames": 2419,
      "me": 2420,
      "ĠEm": 2421,
      "Ġagre": 2422,
      "Ġrespect": 2423,
      "Ġonce": 2424,
      "ĠGover": 2425,
      "irt": 2426,
      "ald": 2427,
      "ĠChar": 2428,
      "Ġve": 2429,
      "ique": 2430,
      "irm": 2431,
      "na": 2432,
      "Ġgeneral": 2433,
      "Ġ)": 2434,
      "ĠBy": 2435,
      "book": 2436,
      "http": 2437,
      "Ġgen": 2438,
      "Ġnews": 2439,
      "70": 2440,
      "If": 2441,
      "Ġcreate": 2442,
      "\\\\\\\\\\\\\\\\": 2443,
      "ender": 2444,
      "Ġopport": 2445,
      "quest": 2446,
      "Ġreleased": 2447,
      "Ġenc": 2448,
      "Ġquestion": 2449,
      "ĠBro": 2450,
      "Ġparent": 2451,
      "90": 2452,
      "ino": 2453,
      "Ġrequire": 2454,
      "Ġtown": 2455,
      "----------------": 2456,
      "ĠStud": 2457,
      "ression": 2458,
      "augh": 2459,
      "ĠQu": 2460,
      "Ġcountries": 2461,
      "string": 2462,
      "Ġchall": 2463,
      "Ġassoci": 2464,
      "ĠNews": 2465,
      "ĠCollege": 2466,
      "Ġsubject": 2467,
      "Ġbenef": 2468,
      "Ġpublished": 2469,
      "idge": 2470,
      "Ġvari": 2471,
      "ford": 2472,
      "elt": 2473,
      "ĠAir": 2474,
      "Ġopp": 2475,
      "38": 2476,
      "ĠMr": 2477,
      "Ġdi": 2478,
      "pre": 2479,
      "ĠSer": 2480,
      "abel": 2481,
      "bject": 2482,
      "lected": 2483,
      "45": 2484,
      "Ġenough": 2485,
      "CO": 2486,
      "There": 2487,
      "2007": 2488,
      "Ġeducation": 2489,
      "ades": 2490,
      "Ġsite": 2491,
      "Ġindustry": 2492,
      "Ġcreat": 2493,
      "agn": 2494,
      "ĠGod": 2495,
      "Ġdoing": 2496,
      "ran": 2497,
      "ĠCenter": 2498,
      "2022": 2499,
      "rodu": 2500,
      "ĠPark": 2501,
      "Ġmeas": 2502,
      "ĠEnglish": 2503,
      "Ġcomb": 2504,
      "Ġbegin": 2505,
      "Ġparticip": 2506,
      "ĠMich": 2507,
      "ĠHealth": 2508,
      "leg": 2509,
      "clus": 2510,
      "Ġes": 2511,
      "omin": 2512,
      "37": 2513,
      "Ġtext": 2514,
      "eneral": 2515,
      "ĠThese": 2516,
      "Ġissues": 2517,
      "ĠSm": 2518,
      "AP": 2519,
      "iforn": 2520,
      "ĠChina": 2521,
      "Ġz": 2522,
      "Ġtyp": 2523,
      "Ġbody": 2524,
      "Ġpress": 2525,
      "Data": 2526,
      "Ġpersonal": 2527,
      "oon": 2528,
      "Ġtre": 2529,
      "Ġcontent": 2530,
      "Ġmaterial": 2531,
      "ume": 2532,
      "Ġactually": 2533,
      "ĠAng": 2534,
      "ĠSch": 2535,
      "New": 2536,
      "hib": 2537,
      "atures": 2538,
      "Ġenvironment": 2539,
      "ET": 2540,
      "////": 2541,
      "RO": 2542,
      "alt": 2543,
      "Ġpers": 2544,
      "ae": 2545,
      "Ġfootball": 2546,
      "amb": 2547,
      "Ġcompanies": 2548,
      "Ġlinks": 2549,
      "ails": 2550,
      "roups": 2551,
      "ittee": 2552,
      "Ġsignificant": 2553,
      "Ġtaken": 2554,
      "Ġmakes": 2555,
      "39": 2556,
      "Ġrad": 2557,
      "Ind": 2558,
      "ription": 2559,
      "sy": 2560,
      "Ġtotal": 2561,
      "ĠDepartment": 2562,
      "ĠDo": 2563,
      "ĠMy": 2564,
      "ifornia": 2565,
      "atory": 2566,
      "Ġtarget": 2567,
      "ceed": 2568,
      "Ġrecogn": 2569,
      "Ġphys": 2570,
      "ĠAssoci": 2571,
      "Ġpresident": 2572,
      "Ġhalf": 2573,
      "istic": 2574,
      "Ġlight": 2575,
      "ĠPhil": 2576,
      "Ġsex": 2577,
      "lin": 2578,
      "2006": 2579,
      "Ġlearn": 2580,
      "Ġsure": 2581,
      "ĠJapan": 2582,
      "ĠWilliam": 2583,
      "cial": 2584,
      "Ġdoesn": 2585,
      "ĠIndia": 2586,
      "ĠUK": 2587,
      "data": 2588,
      "Ġbirth": 2589,
      "lease": 2590,
      "Ġeffort": 2591,
      "Ġhost": 2592,
      "Ġimpact": 2593,
      "64": 2594,
      "ael": 2595,
      "ĠTra": 2596,
      "Ġversion": 2597,
      "aign": 2598,
      "ĠGo": 2599,
      "iddle": 2600,
      "ocr": 2601,
      "ided": 2602,
      "Ġmom": 2603,
      "Ġaccording": 2604,
      "Ġevents": 2605,
      "rug": 2606,
      "Ġnight": 2607,
      "rench": 2608,
      "Ġhon": 2609,
      "https": 2610,
      "Ġdest": 2611,
      "Ġwebs": 2612,
      "You": 2613,
      "ĠHigh": 2614,
      "atural": 2615,
      "Ġid": 2616,
      "oe": 2617,
      "ese": 2618,
      "selves": 2619,
      "ION": 2620,
      "Ġlow": 2621,
      "acc": 2622,
      "chie": 2623,
      "ography": 2624,
      "Ġaud": 2625,
      "ĠNot": 2626,
      "ergy": 2627,
      "uments": 2628,
      "curity": 2629,
      "Ġprovided": 2630,
      "Ġpolicy": 2631,
      "inter": 2632,
      "uel": 2633,
      "Ġyet": 2634,
      "Ġsimilar": 2635,
      "Ġcustom": 2636,
      "With": 2637,
      "Ġbreak": 2638,
      "Ġrepl": 2639,
      "aced": 2640,
      "US": 2641,
      "estern": 2642,
      "ĠRec": 2643,
      "pecially": 2644,
      "Ġcou": 2645,
      "Ġspace": 2646,
      "Ġmodel": 2647,
      "Ġpopulation": 2648,
      "attle": 2649,
      "========": 2650,
      "Ġglobal": 2651,
      "Ġx": 2652,
      "bar": 2653,
      "Ġhistor": 2654,
      "adu": 2655,
      "));": 2656,
      "roid": 2657,
      "Ġsound": 2658,
      "asing": 2659,
      "igation": 2660,
      "Ġrequest": 2661,
      "ental": 2662,
      "How": 2663,
      "Ġhowever": 2664,
      "Ġprob": 2665,
      "Ġmot": 2666,
      "Ġcoll": 2667,
      "Ġcases": 2668,
      "Ġtw": 2669,
      "Ġvarious": 2670,
      "ĠĠĠĠĠĠĠĠĠĠĠĠĠĠĠĠĠĠĠĠĠĠĠ": 2671,
      "Ġmiss": 2672,
      "Ġdou": 2673,
      "Ġcell": 2674,
      "Ġfocus": 2675,
      "Ġstring": 2676,
      "Ġvideo": 2677,
      "ĠLa": 2678,
      "Value": 2679,
      "\");": 2680,
      "Ġfall": 2681,
      "ĠSan": 2682,
      "Ġtele": 2683,
      "ession": 2684,
      "ummer": 2685,
      "Ġfood": 2686,
      "Ġmem": 2687,
      "Ġop": 2688,
      "Get": 2689,
      "Ġbring": 2690,
      "LL": 2691,
      "Er": 2692,
      "Ġissue": 2693,
      "Ġhttps": 2694,
      "Ġcentury": 2695,
      "asc": 2696,
      "Ġjud": 2697,
      "Ġcreated": 2698,
      "load": 2699,
      "ached": 2700,
      "ummary": 2701,
      "ĠEngland": 2702,
      "ĠMon": 2703,
      "Ġparty": 2704,
      "ribute": 2705,
      "Ġdiff": 2706,
      "ĠCalifornia": 2707,
      "useum": 2708,
      "ĠDem": 2709,
      "ĠSen": 2710,
      "Ġfav": 2711,
      "Ġsugg": 2712,
      "Ġamount": 2713,
      "Im": 2714,
      "ĠDist": 2715,
      "Ġimm": 2716,
      "Ġareas": 2717,
      "Ġeither": 2718,
      "Ġresults": 2719,
      "orge": 2720,
      "lete": 2721,
      "ĠRepublic": 2722,
      "Âł": 2723,
      "],": 2724,
      "99": 2725,
      "Ġcontinue": 2726,
      "ude": 2727,
      "Ġens": 2728,
      "ication": 2729,
      "ager": 2730,
      "Ġreported": 2731,
      "Ġpolice": 2732,
      "Ġmilitary": 2733,
      "Ġrequired": 2734,
      "Ġstop": 2735,
      "text": 2736,
      "Ġlate": 2737,
      "All": 2738,
      "ien": 2739,
      "Ġfather": 2740,
      "aching": 2741,
      "ĠInstit": 2742,
      ".)": 2743,
      "HE": 2744,
      "Ġ,": 2745,
      "hel": 2746,
      "verage": 2747,
      "icles": 2748,
      "Ġalmost": 2749,
      "Ġbelieve": 2750,
      "ampions": 2751,
      "Ġprim": 2752,
      "Ġbuilt": 2753,
      "do": 2754,
      "Ġled": 2755,
      "Ġbi": 2756,
      "ashington": 2757,
      "Ġcompl": 2758,
      "Ġincluded": 2759,
      "Ġproduction": 2760,
      "iences": 2761,
      "].": 2762,
      "Ġshare": 2763,
      "utions": 2764,
      "Ġwritten": 2765,
      "Ġtechnology": 2766,
      "ysis": 2767,
      "Ġworked": 2768,
      "Ġbit": 2769,
      "Ġupon": 2770,
      "bor": 2771,
      "Ġvisit": 2772,
      "Ġentire": 2773,
      "ica": 2774,
      "ĠEuropean": 2775,
      "ĠĠĠĠĠĠĠĠĠĠĠĠĠ": 2776,
      "ospital": 2777,
      "ĠDirect": 2778,
      "icult": 2779,
      "Ġrelationship": 2780,
      "Ph": 2781,
      "********": 2782,
      "ĠMark": 2783,
      "Ġnamed": 2784,
      "ait": 2785,
      "Ġrather": 2786,
      "2000": 2787,
      "dom": 2788,
      "Ġago": 2789,
      "inary": 2790,
      "01": 2791,
      "Ġmor": 2792,
      "Ġ/**": 2793,
      "rael": 2794,
      "Ġcontract": 2795,
      "ocal": 2796,
      "value": 2797,
      "Ġabove": 2798,
      "eed": 2799,
      "Ġcomes": 2800,
      "Ġnecess": 2801,
      "Ġoffice": 2802,
      "Ġstatic": 2803,
      "Ġarch": 2804,
      "Ġenergy": 2805,
      "Ġaccept": 2806,
      "ension": 2807,
      "Ġpropos": 2808,
      "ams": 2809,
      "Ġdocument": 2810,
      "iple": 2811,
      "Ġconcern": 2812,
      "var": 2813,
      "Ġwhole": 2814,
      "unch": 2815,
      "Ġinflu": 2816,
      "icro": 2817,
      "ĠCouncil": 2818,
      "Ġshows": 2819,
      "ĠDavid": 2820,
      "ĠBlack": 2821,
      "su": 2822,
      "Ġsize": 2823,
      "elling": 2824,
      "Ġrecent": 2825,
      "ites": 2826,
      "sequ": 2827,
      "urb": 2828,
      "ĠAc": 2829,
      "Ġdecl": 2830,
      "ĠEast": 2831,
      "ires": 2832,
      "Ġcirc": 2833,
      "Ġwind": 2834,
      "atives": 2835,
      "Ġdecision": 2836,
      "ky": 2837,
      "AD": 2838,
      "list": 2839,
      "ags": 2840,
      "Ġbase": 2841,
      "ĠHol": 2842,
      "Ġproperty": 2843,
      "hing": 2844,
      "ĠJust": 2845,
      "Ġpoints": 2846,
      "utes": 2847,
      "Ġmove": 2848,
      "oke": 2849,
      "ledge": 2850,
      "Ġvict": 2851,
      "Ġregard": 2852,
      "Is": 2853,
      "const": 2854,
      "Ġstyle": 2855,
      "Par": 2856,
      "vis": 2857,
      "Ġmind": 2858,
      "Ġclose": 2859,
      "ees": 2860,
      "BC": 2861,
      "ĠĠĠĠĠĠĠĠĠĠĠĠ": 2862,
      "Ġblack": 2863,
      "Ġperformance": 2864,
      "ption": 2865,
      "Ġhom": 2866,
      "Ġproblem": 2867,
      "Ġborn": 2868,
      "Ġband": 2869,
      "];": 2870,
      "Ġresponse": 2871,
      "Exception": 2872,
      "Ġfamil": 2873,
      "ening": 2874,
      "ĠNet": 2875,
      "Ġliving": 2876,
      "Ġgroups": 2877,
      "Ġespecially": 2878,
      "rec": 2879,
      "ĠFin": 2880,
      "Ġlog": 2881,
      "Ġground": 2882,
      "joy": 2883,
      "Ġneg": 2884,
      "anks": 2885,
      "Ġlikely": 2886,
      "Ġanim": 2887,
      "Ġsection": 2888,
      "ĠOff": 2889,
      "Ġlooking": 2890,
      "Ġdiv": 2891,
      "Ġfight": 2892,
      "2005": 2893,
      "ĠCanada": 2894,
      "Ġsw": 2895,
      "Ġrefer": 2896,
      "Ġtaking": 2897,
      "duc": 2898,
      "itional": 2899,
      "Ġrange": 2900,
      "rick": 2901,
      "Ġattempt": 2902,
      "ensive": 2903,
      "body": 2904,
      "Ġpopular": 2905,
      "ĠSw": 2906,
      "nect": 2907,
      "Ġvot": 2908,
      "aker": 2909,
      "Ġsecurity": 2910,
      "Ġdeliver": 2911,
      "idth": 2912,
      "Ġadded": 2913,
      "oud": 2914,
      "yd": 2915,
      "75": 2916,
      "Ġrelig": 2917,
      "rel": 2918,
      "Ġneeds": 2919,
      "test": 2920,
      "Ġengine": 2921,
      "Ġwebsite": 2922,
      "aries": 2923,
      "rote": 2924,
      "Ġill": 2925,
      "Ġdied": 2926,
      "ĠSystem": 2927,
      "Ġabs": 2928,
      "Ġson": 2929,
      "UR": 2930,
      "ĠTrump": 2931,
      "Ġsold": 2932,
      "Ġface": 2933,
      "Ġarticle": 2934,
      "Ġroom": 2935,
      "Ġintrodu": 2936,
      "At": 2937,
      "Ġdate": 2938,
      "ĠChurch": 2939,
      "Ġfinancial": 2940,
      "enc": 2941,
      "ĠDon": 2942,
      "Ġachie": 2943,
      "Ġterms": 2944,
      "arter": 2945,
      "Ġpath": 2946,
      "Ġnov": 2947,
      "ems": 2948,
      "ĠĠĠĠĠĠĠĠĠĠĠĠĠĠĠĠĠĠĠĠĠĠĠĠĠĠĠĠĠĠĠĠ": 2949,
      "Ġboard": 2950,
      "nov": 2951,
      "Ġinj": 2952,
      "Ġevidence": 2953,
      "nes": 2954,
      "Ġlegal": 2955,
      "coming": 2956,
      "Ġhimself": 2957,
      "ĠMor": 2958,
      "ĠAcc": 2959,
      "atur": 2960,
      "ĠPat": 2961,
      "ĠIndian": 2962,
      "Ġcred": 2963,
      "Pl": 2964,
      "rab": 2965,
      "Ġcampaign": 2966,
      "Ġstates": 2967,
      "Ġserved": 2968,
      "Ġappear": 2969,
      "Ġdeg": 2970,
      "iation": 2971,
      "Ġhttp": 2972,
      "Ġeconomic": 2973,
      "Ġstep": 2974,
      "oper": 2975,
      "Ġclos": 2976,
      "ĠString": 2977,
      "Ġbehind": 2978,
      "ĠWashington": 2979,
      "Ġfront": 2980,
      "icated": 2981,
      "En": 2982,
      "hood": 2983,
      "Ġestablished": 2984,
      "Ġheart": 2985,
      "Ġfile": 2986,
      "Ġgetting": 2987,
      "plement": 2988,
      "ught": 2989,
      "Ġadminist": 2990,
      "Ġchanges": 2991,
      "medi": 2992,
      "ĠInt": 2993,
      "ises": 2994,
      "Ġonline": 2995,
      "ords": 2996,
      "file": 2997,
      "Bl": 2998,
      "iday": 2999,
      "Ġmother": 3000,
      "Ġidea": 3001,
      "Ġ///": 3002,
      "Ġdirector": 3003,
      "ING": 3004,
      "igital": 3005,
      "Ġannounced": 3006,
      "Ġrelease": 3007,
      "aving": 3008,
      "util": 3009,
      "uge": 3010,
      "pite": 3011,
      "Ġsett": 3012,
      "atform": 3013,
      "ĠPal": 3014,
      "Not": 3015,
      "Ġmer": 3016,
      "Ġfig": 3017,
      "Ġinstit": 3018,
      "Ġfeature": 3019,
      "When": 3020,
      "ĠFrench": 3021,
      "Ġbroad": 3022,
      "orks": 3023,
      "based": 3024,
      "Ġdifficult": 3025,
      "Ġfriends": 3026,
      "44": 3027,
      "Ġbar": 3028,
      "px": 3029,
      "unt": 3030,
      "istry": 3031,
      "55": 3032,
      "omb": 3033,
      "Ġclub": 3034,
      "Ġ%": 3035,
      "ĠJames": 3036,
      "oved": 3037,
      "sych": 3038,
      "comp": 3039,
      "Ġregion": 3040,
      "ĠTrans": 3041,
      "lor": 3042,
      "Ġroad": 3043,
      "Ġaward": 3044,
      "ĠPaul": 3045,
      "Ġtravel": 3046,
      "Ġterm": 3047,
      "ĠDes": 3048,
      "ĠLeague": 3049,
      "External": 3050,
      "lier": 3051,
      "Ġ!=": 3052,
      "Ġwanted": 3053,
      "ores": 3054,
      "Ġlanguage": 3055,
      "ĠGeneral": 3056,
      "ayer": 3057,
      "Ġitself": 3058,
      "ibrary": 3059,
      "ĠRet": 3060,
      "ico": 3061,
      "serv": 3062,
      "Ġstre": 3063,
      "cle": 3064,
      "Ġcheck": 3065,
      "Ġsym": 3066,
      "Object": 3067,
      "Ġmass": 3068,
      "ĠAustralia": 3069,
      "ĠDis": 3070,
      "Ġlives": 3071,
      "Ġrisk": 3072,
      "nb": 3073,
      "Ġstaff": 3074,
      "Ġsuccessful": 3075,
      "down": 3076,
      "2004": 3077,
      "ĠStreet": 3078,
      "ĠCons": 3079,
      "ĠVal": 3080,
      "uses": 3081,
      "Ġfilms": 3082,
      "Ġlost": 3083,
      "ners": 3084,
      "Ġasked": 3085,
      "Americ": 3086,
      "ims": 3087,
      "Ġfire": 3088,
      "Ġmanagement": 3089,
      "Or": 3090,
      "Ġenjoy": 3091,
      "Ġbooks": 3092,
      "umber": 3093,
      "Ġassist": 3094,
      "Ġsource": 3095,
      "ĠIsrael": 3096,
      "Ġwriting": 3097,
      "Ġrev": 3098,
      "Ġmatter": 3099,
      "ully": 3100,
      "Ġinvolved": 3101,
      "ection": 3102,
      "48": 3103,
      "Ġmovie": 3104,
      "ĠEar": 3105,
      "iber": 3106,
      "Man": 3107,
      "($": 3108,
      "'m": 3109,
      "Ġthrow": 3110,
      "Ġcoming": 3111,
      "Ġforward": 3112,
      "ĠTV": 3113,
      "Ġpage": 3114,
      "rought": 3115,
      "ĠRed": 3116,
      "Ġlocated": 3117,
      "ĠItal": 3118,
      "arc": 3119,
      "atus": 3120,
      "asons": 3121,
      "Ġwrote": 3122,
      "ĠCong": 3123,
      "Ġ&&": 3124,
      "Ġconduct": 3125,
      "ties": 3126,
      "olic": 3127,
      "OT": 3128,
      "men": 3129,
      "Ġconsidered": 3130,
      "writ": 3131,
      "ĠMore": 3132,
      "Ġthemselves": 3133,
      "odes": 3134,
      "Ġcurrently": 3135,
      "Ġincludes": 3136,
      "ĠFirst": 3137,
      "agement": 3138,
      "Ġcut": 3139,
      "aur": 3140,
      "ĠJew": 3141,
      "Ġhours": 3142,
      "oo": 3143,
      "ips": 3144,
      "ville": 3145,
      "Ġexam": 3146,
      "wood": 3147,
      "itiz": 3148,
      "Ġprior": 3149,
      "ĠResearch": 3150,
      "Ġexpected": 3151,
      "ij": 3152,
      "ĠGroup": 3153,
      "icip": 3154,
      "rim": 3155,
      "Ġplayer": 3156,
      "udd": 3157,
      "Ġtour": 3158,
      "ius": 3159,
      "Ġpred": 3160,
      "Ġincrease": 3161,
      "mit": 3162,
      "ĠDay": 3163,
      "anch": 3164,
      "Ġsense": 3165,
      "Ġtrying": 3166,
      "ĠRober": 3167,
      "ĠVol": 3168,
      "Ġfem": 3169,
      "Ġanything": 3170,
      "Ġbad": 3171,
      "ĠCompany": 3172,
      "View": 3173,
      "Ġprote": 3174,
      "ecutive": 3175,
      "ĠChe": 3176,
      "Ġwords": 3177,
      "tain": 3178,
      "ĠInstitute": 3179,
      "ging": 3180,
      "igned": 3181,
      "ara": 3182,
      "Ġsomeone": 3183,
      "Ġoutside": 3184,
      "Ġcal": 3185,
      "Ġwatch": 3186,
      "Ġsaw": 3187,
      "Ġorg": 3188,
      "UT": 3189,
      "Ã¡": 3190,
      "Ġtrack": 3191,
      "Ġwoman": 3192,
      "avy": 3193,
      "light": 3194,
      "isions": 3195,
      "fort": 3196,
      "Ġey": 3197,
      "lands": 3198,
      "().": 3199,
      "resp": 3200,
      "amer": 3201,
      "ĠInter": 3202,
      "ĠPress": 3203,
      "ida": 3204,
      "Mod": 3205,
      "Ġsystems": 3206,
      "vey": 3207,
      "à¤": 3208,
      "Set": 3209,
      "Ġcannot": 3210,
      "ĠInc": 3211,
      "ĠFrom": 3212,
      "Error": 3213,
      "Ġvill": 3214,
      "Ġaverage": 3215,
      "De": 3216,
      "Ġtraining": 3217,
      "Ġemer": 3218,
      "Ġcapital": 3219,
      "Ġwhite": 3220,
      "Ġscient": 3221,
      "Ġcivil": 3222,
      "ĠOf": 3223,
      "65": 3224,
      "());": 3225,
      "Comp": 3226,
      "Ġcele": 3227,
      "size": 3228,
      "ounter": 3229,
      "rc": 3230,
      "Ġdam": 3231,
      "location": 3232,
      "Ġmodern": 3233,
      "ĠRich": 3234,
      "ĠBer": 3235,
      "DE": 3236,
      "izing": 3237,
      "Ġgirl": 3238,
      "oyal": 3239,
      "log": 3240,
      "Ġsus": 3241,
      "190": 3242,
      "Ġseems": 3243,
      "Ġhigher": 3244,
      "ha": 3245,
      "ribution": 3246,
      "oto": 3247,
      "Ġpotential": 3248,
      "ampionship": 3249,
      "ĠSte": 3250,
      "Ġdescribed": 3251,
      "cks": 3252,
      "ĠAnt": 3253,
      "mission": 3254,
      "ĠBook": 3255,
      "Ġquick": 3256,
      "ux": 3257,
      "Ġthreat": 3258,
      "Qu": 3259,
      "Ġste": 3260,
      "ĠAfrica": 3261,
      "Ġdise": 3262,
      "raz": 3263,
      "SS": 3264,
      "Ġprobably": 3265,
      "Ġrate": 3266,
      "idents": 3267,
      "ĠTer": 3268,
      "nown": 3269,
      "Ġeverything": 3270,
      "rong": 3271,
      "UN": 3272,
      "Ġspecific": 3273,
      "Ġplaying": 3274,
      "'ve": 3275,
      "met": 3276,
      "ĠGovernment": 3277,
      "ĠThom": 3278,
      "Test": 3279,
      "gl": 3280,
      "ĠPort": 3281,
      "ackage": 3282,
      "Class": 3283,
      "aged": 3284,
      "ependent": 3285,
      "Ġnetwork": 3286,
      "ĠArch": 3287,
      "pose": 3288,
      "Ġculture": 3289,
      "500": 3290,
      "Ġten": 3291,
      "top": 3292,
      "Ġmedical": 3293,
      "VID": 3294,
      "ĠAssociation": 3295,
      "Ġnothing": 3296,
      "Ġleading": 3297,
      "Ġloss": 3298,
      "airs": 3299,
      "Ġbelow": 3300,
      "Ġschools": 3301,
      "CC": 3302,
      "')": 3303,
      "ander": 3304,
      "nbsp": 3305,
      "Ġneeded": 3306,
      "Ġwhose": 3307,
      "lam": 3308,
      "Ġinterview": 3309,
      "nection": 3310,
      "ago": 3311,
      "aughter": 3312,
      "Ġthroughout": 3313,
      "ĠPublic": 3314,
      "Ġorigin": 3315,
      "2003": 3316,
      "ĠNe": 3317,
      "Ġcomput": 3318,
      "erous": 3319,
      "Ġquite": 3320,
      "ges": 3321,
      "icon": 3322,
      "IM": 3323,
      "Ġpie": 3324,
      "onent": 3325,
      "oul": 3326,
      "From": 3327,
      "Ġsuggest": 3328,
      "pped": 3329,
      "bit": 3330,
      "imately": 3331,
      "rie": 3332,
      "Ġred": 3333,
      "Ġlink": 3334,
      "Ġess": 3335,
      "istan": 3336,
      "ĠÐ": 3337,
      "Ġgrowth": 3338,
      "link": 3339,
      "init": 3340,
      "bt": 3341,
      "ormal": 3342,
      "Ġsepar": 3343,
      "._": 3344,
      "see": 3345,
      "oor": 3346,
      "ply": 3347,
      "ressed": 3348,
      "ivity": 3349,
      "Ġproducts": 3350,
      "Ġrecently": 3351,
      "Ġnation": 3352,
      "ĠGeorge": 3353,
      "etimes": 3354,
      "Ġcontext": 3355,
      "Ġstay": 3356,
      "ĠCommission": 3357,
      "pper": 3358,
      "Key": 3359,
      "unk": 3360,
      "Ġansw": 3361,
      "Add": 3362,
      "aves": 3363,
      "rack": 3364,
      "Ġmoved": 3365,
      "Ġsat": 3366,
      "No": 3367,
      "Ġrelated": 3368,
      "ĠWhite": 3369,
      "Ġpatients": 3370,
      "ech": 3371,
      "Ġsoon": 3372,
      "Ġtakes": 3373,
      "IG": 3374,
      "pace": 3375,
      "ĠDistrict": 3376,
      "path": 3377,
      "ications": 3378,
      "49": 3379,
      "Int": 3380,
      "Ġepis": 3381,
      "Ġaccom": 3382,
      "ĠScience": 3383,
      "Ġgovern": 3384,
      "Ġcapt": 3385,
      "Ġhit": 3386,
      "using": 3387,
      "Ġways": 3388,
      "Ġlo": 3389,
      "itar": 3390,
      "ares": 3391,
      "fess": 3392,
      "66": 3393,
      "Ġmag": 3394,
      "perty": 3395,
      "Ġconditions": 3396,
      "uration": 3397,
      "anced": 3398,
      "Ġstudent": 3399,
      "Ġwife": 3400,
      "Ġimplement": 3401,
      "eters": 3402,
      "inese": 3403,
      "ilm": 3404,
      "ader": 3405,
      "ulations": 3406,
      "Ġscience": 3407,
      "Ġassert": 3408,
      "itect": 3409,
      "vention": 3410,
      "ying": 3411,
      "unc": 3412,
      "born": 3413,
      "Ġblock": 3414,
      "atal": 3415,
      "Ġdrug": 3416,
      "Ġcomment": 3417,
      "index": 3418,
      "Ġerr": 3419,
      "Ġdeveloped": 3420,
      "public": 3421,
      "ĠSome": 3422,
      "Ġround": 3423,
      "ĠTex": 3424,
      "iance": 3425,
      "mon": 3426,
      "2002": 3427,
      "Ġliter": 3428,
      "Ġacqu": 3429,
      "Ġhous": 3430,
      "After": 3431,
      "ols": 3432,
      "ĠWhile": 3433,
      "andid": 3434,
      "Ġnatural": 3435,
      "ĠGreat": 3436,
      "ston": 3437,
      "2001": 3438,
      "mitted": 3439,
      "47": 3440,
      "ĠJe": 3441,
      ".</": 3442,
      "Ġcy": 3443,
      "eks": 3444,
      "ĠMart": 3445,
      "ĠJack": 3446,
      "state": 3447,
      "ĠEduc": 3448,
      "Ġprovides": 3449,
      "umer": 3450,
      "rian": 3451,
      "Ġwalk": 3452,
      "ny": 3453,
      "ĠBoard": 3454,
      "ĠGreen": 3455,
      "Ġstru": 3456,
      "Ġsociety": 3457,
      "Ġreve": 3458,
      ".[": 3459,
      "Ġmatch": 3460,
      "Ġestablish": 3461,
      "Ġinteg": 3462,
      "come": 3463,
      "url": 3464,
      "Ġcontact": 3465,
      "Ġeveryone": 3466,
      "TR": 3467,
      "Ġgave": 3468,
      "itting": 3469,
      "\";": 3470,
      "arily": 3471,
      "Over": 3472,
      "Ġprinc": 3473,
      "Ġforce": 3474,
      "Ġfederal": 3475,
      "ĠHall": 3476,
      "Ġelection": 3477,
      "ĠFound": 3478,
      "ĠDan": 3479,
      "Ġchalleng": 3480,
      "stance": 3481,
      "');": 3482,
      "Ġmid": 3483,
      "erc": 3484,
      "Ġpain": 3485,
      "So": 3486,
      "Ġrace": 3487,
      "Ġuser": 3488,
      "ĠMary": 3489,
      "ĠSim": 3490,
      "equ": 3491,
      "Ġappoint": 3492,
      "oring": 3493,
      "aging": 3494,
      "Ġprotect": 3495,
      "Ġbrought": 3496,
      "emic": 3497,
      "ufact": 3498,
      "Ġfriend": 3499,
      "aches": 3500,
      "ĠUp": 3501,
      "Ġmeeting": 3502,
      "ables": 3503,
      "Ġmat": 3504,
      "imum": 3505,
      "Ġvia": 3506,
      "Ad": 3507,
      "Ġund": 3508,
      "Ġpractice": 3509,
      "Ġdetermin": 3510,
      "Ġstage": 3511,
      "irit": 3512,
      "Ġsaying": 3513,
      "Ġquality": 3514,
      "See": 3515,
      "cret": 3516,
      "ĠIN": 3517,
      "Ġlonger": 3518,
      "ĠFranc": 3519,
      "Ġfeatures": 3520,
      "Ġcross": 3521,
      "Ġdeep": 3522,
      "ĠDef": 3523,
      "Ġmoment": 3524,
      "Time": 3525,
      "color": 3526,
      "atest": 3527,
      "rast": 3528,
      "IL": 3529,
      "Ġstories": 3530,
      "point": 3531,
      "Ġpret": 3532,
      "gen": 3533,
      "ĠFrance": 3534,
      "ĠYear": 3535,
      "CH": 3536,
      "force": 3537,
      "Ġsuff": 3538,
      "reme": 3539,
      "ĠMichael": 3540,
      "Ġproblems": 3541,
      "Ġinstead": 3542,
      "Ġstation": 3543,
      "ellow": 3544,
      "SE": 3545,
      "âĢĿ.": 3546,
      "Ġstar": 3547,
      "aily": 3548,
      "Ġprofessional": 3549,
      "Ġsoft": 3550,
      "change": 3551,
      "Ġcontinued": 3552,
      "Ġisn": 3553,
      "ĠAward": 3554,
      "That": 3555,
      "['": 3556,
      "alls": 3557,
      "ixed": 3558,
      "Ġsurv": 3559,
      "Ġbillion": 3560,
      "Ġnames": 3561,
      "Ġhor": 3562,
      "Ġdom": 3563,
      "Ġemb": 3564,
      "ĠMusic": 3565,
      "Ġcontribut": 3566,
      "arr": 3567,
      "Ġstri": 3568,
      "Ġparents": 3569,
      "ĠHistory": 3570,
      "ĠTechn": 3571,
      "ĠAnn": 3572,
      "vest": 3573,
      "script": 3574,
      "ĠGet": 3575,
      "Ġopportunity": 3576,
      "band": 3577,
      "comes": 3578,
      "Ġapproach": 3579,
      "Ġclimate": 3580,
      "},": 3581,
      "Ġden": 3582,
      "ĠJournal": 3583,
      "ĠParty": 3584,
      "apter": 3585,
      "ĠAngel": 3586,
      "Ġcause": 3587,
      "American": 3588,
      "iment": 3589,
      "fect": 3590,
      "alled": 3591,
      "ĠMal": 3592,
      "Ġtable": 3593,
      "Ġspecies": 3594,
      "Ġhot": 3595,
      "Ġtreatment": 3596,
      "Ġveh": 3597,
      "Ġtal": 3598,
      "istics": 3599,
      "Ġactivities": 3600,
      "summary": 3601,
      "ternet": 3602,
      "mark": 3603,
      "ĠChristian": 3604,
      "ĠPost": 3605,
      "Ġcode": 3606,
      "arning": 3607,
      "osition": 3608,
      "Ġprograms": 3609,
      "sec": 3610,
      "Ġoccur": 3611,
      "ming": 3612,
      "ĠQue": 3613,
      "part": 3614,
      "ĠMod": 3615,
      "bers": 3616,
      "ĠUnion": 3617,
      "File": 3618,
      "Ġquestions": 3619,
      "aled": 3620,
      "function": 3621,
      "ĠBel": 3622,
      "lying": 3623,
      "ĠCommittee": 3624,
      "room": 3625,
      "One": 3626,
      "Ġcho": 3627,
      "IP": 3628,
      "ki": 3629,
      "Ġserious": 3630,
      "Ġhope": 3631,
      "berg": 3632,
      "Ġstatement": 3633,
      "rial": 3634,
      "ĠMinister": 3635,
      "outhern": 3636,
      "rect": 3637,
      "ya": 3638,
      "het": 3639,
      "Ġbeaut": 3640,
      "pri": 3641,
      "orthern": 3642,
      "Ġchurch": 3643,
      "izations": 3644,
      "includ": 3645,
      "Ġimmedi": 3646,
      "ĠSociety": 3647,
      "Ġnature": 3648,
      "46": 3649,
      "Ġjournal": 3650,
      "ĠBill": 3651,
      "Ġadditional": 3652,
      "(),": 3653,
      "\":": 3654,
      "Ġcomplex": 3655,
      "Ġ?": 3656,
      "Ġtelevision": 3657,
      "Ġproduced": 3658,
      "haps": 3659,
      "Ġsqu": 3660,
      "Ð°": 3661,
      "ĠCongress": 3662,
      "ĠLou": 3663,
      "ĠService": 3664,
      "Ġorganization": 3665,
      "oken": 3666,
      "Ġgoal": 3667,
      "Ġcomplete": 3668,
      "ĠRiver": 3669,
      "mercial": 3670,
      "Ġmention": 3671,
      "App": 3672,
      "Ġbrother": 3673,
      "Ġmessage": 3674,
      "Ġknowledge": 3675,
      "iers": 3676,
      "ĠTexas": 3677,
      "Ġweeks": 3678,
      "Ġrunning": 3679,
      "ĠDemocr": 3680,
      "sub": 3681,
      "Ġlargest": 3682,
      "dis": 3683,
      "ĠBen": 3684,
      "Att": 3685,
      "rief": 3686,
      "Ġprogress": 3687,
      "Ġtou": 3688,
      "Ġrout": 3689,
      "Ġdead": 3690,
      "amily": 3691,
      "CT": 3692,
      "ĠAfrican": 3693,
      "annel": 3694,
      "Ġoptions": 3695,
      "Ġsen": 3696,
      "05": 3697,
      "ned": 3698,
      "oom": 3699,
      "Ġforeign": 3700,
      "09": 3701,
      "ĠDiv": 3702,
      "Ġhop": 3703,
      "FF": 3704,
      "Ġcle": 3705,
      "Ġcolor": 3706,
      "Ġstatus": 3707,
      "ulated": 3708,
      "Ġerror": 3709,
      "Ġsearch": 3710,
      "Ġlower": 3711,
      "ĉĉĉĉĉ": 3712,
      "ĠDirector": 3713,
      "board": 3714,
      "ped": 3715,
      "Ġreading": 3716,
      "ĠChinese": 3717,
      "Ġnorth": 3718,
      "lymp": 3719,
      "Ġapplication": 3720,
      "Ġqual": 3721,
      "ĠMus": 3722,
      "edy": 3723,
      "onder": 3724,
      "Ġplatform": 3725,
      "urity": 3726,
      "Ġconstit": 3727,
      "Ġfamilies": 3728,
      "Ġlack": 3729,
      "Ġbank": 3730,
      "Ġcharacters": 3731,
      "roy": 3732,
      "Le": 3733,
      "Ġpurch": 3734,
      "Ġnecessary": 3735,
      "Ġcast": 3736,
      "Form": 3737,
      "nav": 3738,
      "ado": 3739,
      "ĠNow": 3740,
      "Ġprojects": 3741,
      "ĠEv": 3742,
      "place": 3743,
      "Ġrecomm": 3744,
      "Ġanalysis": 3745,
      "Ġfa": 3746,
      "where": 3747,
      "Ġnovel": 3748,
      "adian": 3749,
      "ĠVir": 3750,
      "ĠGermany": 3751,
      "igr": 3752,
      "like": 3753,
      "Ġconv": 3754,
      "Ġdraw": 3755,
      "velopment": 3756,
      "erve": 3757,
      "Ġregular": 3758,
      "78": 3759,
      "bert": 3760,
      "Ġwasn": 3761,
      "Ġresources": 3762,
      "Ġcharg": 3763,
      "ota": 3764,
      "Ġpromot": 3765,
      "ĠClass": 3766,
      "abled": 3767,
      "Ġanti": 3768,
      "Ġ...": 3769,
      "AG": 3770,
      "Ġstudies": 3771,
      "itation": 3772,
      "Ġobserv": 3773,
      "EO": 3774,
      "Ġdistrict": 3775,
      "Ġtrade": 3776,
      "Ġteams": 3777,
      "Ġeight": 3778,
      "illed": 3779,
      "Ġcollection": 3780,
      "95": 3781,
      "Ġvalues": 3782,
      "ENT": 3783,
      "venue": 3784,
      "Ġinsp": 3785,
      "Ġlic": 3786,
      "Ġworkers": 3787,
      "Ġplans": 3788,
      "ĠOut": 3789,
      "IV": 3790,
      "1990": 3791,
      "Ġmis": 3792,
      "chan": 3793,
      "Ġfavor": 3794,
      "Ġbehav": 3795,
      "lim": 3796,
      "pan": 3797,
      "Ab": 3798,
      "Ġsimply": 3799,
      "ria": 3800,
      "aper": 3801,
      "ĠList": 3802,
      "Ġleave": 3803,
      "js": 3804,
      "estival": 3805,
      "Ð¾": 3806,
      "Ġdesigned": 3807,
      "08": 3808,
      "with": 3809,
      "Ġdegree": 3810,
      "ults": 3811,
      "\"></": 3812,
      "ĠProgram": 3813,
      "ĠAre": 3814,
      "Ġcenter": 3815,
      "State": 3816,
      "Ġconsist": 3817,
      "Ġtowards": 3818,
      "lied": 3819,
      "Ġallowed": 3820,
      "ĠCOVID": 3821,
      "Ġboy": 3822,
      "hest": 3823,
      "AB": 3824,
      "Ġparticularly": 3825,
      "net": 3826,
      "Post": 3827,
      "Ġprint": 3828,
      "Ġcitiz": 3829,
      "ĠReview": 3830,
      "Ġbackground": 3831,
      "ĠSam": 3832,
      "Ġrock": 3833,
      "Ġpick": 3834,
      "Ġcollect": 3835,
      "ĠSing": 3836,
      "ĠMet": 3837,
      "06": 3838,
      "Ġlegis": 3839,
      "ĠAdd": 3840,
      "Ġsil": 3841,
      "ĠMex": 3842,
      "Ġdecided": 3843,
      "Ġearlier": 3844,
      "ellig": 3845,
      "ĠMuseum": 3846,
      "Ġcandid": 3847,
      "ĠOb": 3848,
      "Ġdemon": 3849,
      "mar": 3850,
      "Event": 3851,
      "ĠCarol": 3852,
      "LO": 3853,
      "Ġscreen": 3854,
      "Text": 3855,
      "Ġvacc": 3856,
      "lt": 3857,
      "rey": 3858,
      "1999": 3859,
      "Ġseven": 3860,
      "akers": 3861,
      "ĠEducation": 3862,
      "Ġalthough": 3863,
      "Ġsort": 3864,
      "Ed": 3865,
      "win": 3866,
      "acity": 3867,
      "Ġparts": 3868,
      "Ġdefault": 3869,
      "urt": 3870,
      "Ġlevels": 3871,
      "Ġbeginning": 3872,
      "ĠSuper": 3873,
      "Ġcopy": 3874,
      "Ġsouth": 3875,
      "oat": 3876,
      "Ġmovement": 3877,
      "Ġminutes": 3878,
      "ĠRobert": 3879,
      "Of": 3880,
      "ĠLeg": 3881,
      "42": 3882,
      "Ġworth": 3883,
      "from": 3884,
      "bon": 3885,
      "ero": 3886,
      "la": 3887,
      "Ġpaper": 3888,
      "encies": 3889,
      "=\"../../": 3890,
      "Ġsituation": 3891,
      "']": 3892,
      "Ġincreased": 3893,
      "Ġgradu": 3894,
      "Ġreturned": 3895,
      "Ġimage": 3896,
      "Ġstandard": 3897,
      "owers": 3898,
      "ĠOffice": 3899,
      "Ġrespond": 3900,
      "edom": 3901,
      "ĠSy": 3902,
      "ĠBusiness": 3903,
      "ride": 3904,
      "Ġmultiple": 3905,
      "Ġneigh": 3906,
      "ervices": 3907,
      "07": 3908,
      "Ġpassed": 3909,
      "miss": 3910,
      "Ġmus": 3911,
      "ĠAlex": 3912,
      "Ġability": 3913,
      "ns": 3914,
      "Ġcommunities": 3915,
      "ĠTom": 3916,
      "Ġspent": 3917,
      "AA": 3918,
      "Ġnearly": 3919,
      "wide": 3920,
      "Ġhum": 3921,
      "ĠMag": 3922,
      "ĠRoad": 3923,
      "Ġmax": 3924,
      "err": 3925,
      "ĠSund": 3926,
      "ĠSmith": 3927,
      "ii": 3928,
      "ĠĠĠĠĠĠ": 3929,
      "Ðµ": 3930,
      "ĠFore": 3931,
      "Def": 3932,
      "Ġmeaning": 3933,
      "âĢĿ,": 3934,
      "ĠOur": 3935,
      "ĠAcadem": 3936,
      "icate": 3937,
      "TE": 3938,
      "____": 3939,
      "Ġprevent": 3940,
      "Ġchanged": 3941,
      "Ġteac": 3942,
      "no": 3943,
      "Ġpict": 3944,
      "Ġfair": 3945,
      "ĠGold": 3946,
      "irus": 3947,
      "Ġmanufact": 3948,
      "188": 3949,
      "group": 3950,
      "Ġsens": 3951,
      "race": 3952,
      "ainer": 3953,
      "Ġgrant": 3954,
      "but": 3955,
      "ulture": 3956,
      "Ġremember": 3957,
      "SP": 3958,
      "ĠMiss": 3959,
      "ĠMac": 3960,
      "Ġlimited": 3961,
      "Ġcelebr": 3962,
      "Ġrules": 3963,
      "She": 3964,
      "Ġfelt": 3965,
      "witter": 3966,
      "``": 3967,
      "Ġassociated": 3968,
      "Ġexcept": 3969,
      "wise": 3970,
      "Ġwrong": 3971,
      "Ġplaces": 3972,
      "II": 3973,
      "porary": 3974,
      "astic": 3975,
      "Ġensure": 3976,
      "bre": 3977,
      "iring": 3978,
      "vant": 3979,
      "ube": 3980,
      "ĠPre": 3981,
      "rad": 3982,
      "Ġwrite": 3983,
      "ĠSub": 3984,
      "Be": 3985,
      "Ġkilled": 3986,
      "Ġgrand": 3987,
      "Request": 3988,
      "enge": 3989,
      "box": 3990,
      "ĠFlor": 3991,
      "Equ": 3992,
      "Ġcorpor": 3993,
      "Ġindividuals": 3994,
      "Ġconcept": 3995,
      "Ġsongs": 3996,
      "Ġinvestig": 3997,
      "obile": 3998,
      "ottom": 3999,
      "Ġjoined": 4000,
      "Ġfollowed": 4001,
      "03": 4002,
      "Ġanyone": 4003,
      "ĠFrancis": 4004,
      "ania": 4005,
      "ĠTimes": 4006,
      "Ġincreasing": 4007,
      "Ġ);": 4008,
      "Ġdisplay": 4009,
      "word": 4010,
      "ĠCath": 4011,
      "ka": 4012,
      "Ġgoes": 4013,
      "user": 4014,
      "Ġsurpr": 4015,
      "Ġleaders": 4016,
      "Ġinstance": 4017,
      "ona": 4018,
      "Ġcollege": 4019,
      "reek": 4020,
      "ĠCup": 4021,
      "Ġunique": 4022,
      "Ġseek": 4023,
      "ĠÂ£": 4024,
      "My": 4025,
      "rupt": 4026,
      "Ġtrust": 4027,
      "eck": 4028,
      "fin": 4029,
      "ĠScott": 4030,
      "Ġattention": 4031,
      "api": 4032,
      "Ġheard": 4033,
      "item": 4034,
      "Up": 4035,
      "pecial": 4036,
      "uing": 4037,
      "ĠDel": 4038,
      "ios": 4039,
      "Ġpretty": 4040,
      "Ġleader": 4041,
      "77": 4042,
      "ĠRel": 4043,
      "md": 4044,
      "ĠPeople": 4045,
      "Ġefforts": 4046,
      "ĠBest": 4047,
      "Ã³": 4048,
      "efore": 4049,
      "!--": 4050,
      "liament": 4051,
      "table": 4052,
      "ĠTHE": 4053,
      "/*": 4054,
      "Ġprice": 4055,
      "Acc": 4056,
      "irtual": 4057,
      "ipl": 4058,
      "Ġoperations": 4059,
      "ĠArmy": 4060,
      "\\\\\\\\\\\\\\\\\\\\\\\\\\\\\\\\": 4061,
      "undred": 4062,
      "ĠSal": 4063,
      "Ġdiscover": 4064,
      "02": 4065,
      "58": 4066,
      "04": 4067,
      "ĠAN": 4068,
      "Ġreceive": 4069,
      "Ġunivers": 4070,
      "Ġincome": 4071,
      "century": 4072,
      "Ġthous": 4073,
      "................": 4074,
      "ĠUN": 4075,
      "Ġcouple": 4076,
      "ĠSecret": 4077,
      "Ġlearning": 4078,
      "Ġdisease": 4079,
      "icine": 4080,
      "Node": 4081,
      "ady": 4082,
      "Ġremain": 4083,
      "ĠLife": 4084,
      "Ġmur": 4085,
      "Ġmarried": 4086,
      "rated": 4087,
      "eria": 4088,
      "Ġactive": 4089,
      "Ġusually": 4090,
      "ategy": 4091,
      "56": 4092,
      "Ġeth": 4093,
      "void": 4094,
      "Ġtru": 4095,
      "olf": 4096,
      "Field": 4097,
      "more": 4098,
      "ustain": 4099,
      "ĠOlymp": 4100,
      "ildren": 4101,
      "ailed": 4102,
      "ĠRussia": 4103,
      "System": 4104,
      "Ġconstruction": 4105,
      "Ġarray": 4106,
      "ui": 4107,
      "Ġencou": 4108,
      "Ġball": 4109,
      "ĠBank": 4110,
      "Info": 4111,
      "Ġple": 4112,
      "Ġacadem": 4113,
      "Ġver": 4114,
      "Ġprem": 4115,
      "Ġsch": 4116,
      "Ġtransfer": 4117,
      "doc": 4118,
      "Ġeffects": 4119,
      "Ġborder": 4120,
      "known": 4121,
      "zz": 4122,
      "lis": 4123,
      "Ġprep": 4124,
      "Ġhospital": 4125,
      "Ġplant": 4126,
      "ĠCentral": 4127,
      "ancy": 4128,
      "ÃŃ": 4129,
      "iding": 4130,
      "Ġge": 4131,
      "ĠSur": 4132,
      "ĠWestern": 4133,
      "Pe": 4134,
      "ĠPri": 4135,
      "itness": 4136,
      "43": 4137,
      "Ġcosts": 4138,
      "Ġpurs": 4139,
      "Ġpolic": 4140,
      "ĠSocial": 4141,
      "iqu": 4142,
      "ĠIsland": 4143,
      "ste": 4144,
      "iled": 4145,
      "Fr": 4146,
      "stant": 4147,
      "ĠKore": 4148,
      "ĠOther": 4149,
      "Context": 4150,
      "41": 4151,
      "ĠThomas": 4152,
      "edia": 4153,
      "embly": 4154,
      "ĠRob": 4155,
      "ĠBre": 4156,
      "ros": 4157,
      "Ġsafety": 4158,
      "ĠCap": 4159,
      "ĠRoman": 4160,
      "ken": 4161,
      "Ġinteresting": 4162,
      "ĠRussian": 4163,
      "Ġdigital": 4164,
      "ĠProfess": 4165,
      "print": 4166,
      "Ġforces": 4167,
      "Ġsometimes": 4168,
      "Ġlatest": 4169,
      "Ġagreement": 4170,
      "Path": 4171,
      "Ġder": 4172,
      "Trans": 4173,
      "urance": 4174,
      "ĠVirgin": 4175,
      "han": 4176,
      "house": 4177,
      "MA": 4178,
      "ĠTest": 4179,
      "Ġeasy": 4180,
      "empl": 4181,
      "cher": 4182,
      "Ġreports": 4183,
      "Ġextra": 4184,
      "Ġknew": 4185,
      "ĠLand": 4186,
      "Ġâ": 4187,
      "Ġdram": 4188,
      "Ġconvers": 4189,
      "Ġdemand": 4190,
      "Ġsummer": 4191,
      "ursday": 4192,
      "Ġbasis": 4193,
      "'ll": 4194,
      "Ġcollabor": 4195,
      "Config": 4196,
      "Ġturned": 4197,
      "Pr": 4198,
      "Su": 4199,
      "Ġexpand": 4200,
      "Ġbur": 4201,
      "Ġopened": 4202,
      "Ġexact": 4203,
      "eds": 4204,
      "Ġdire": 4205,
      "Ġdaughter": 4206,
      "Ġstrugg": 4207,
      "ecause": 4208,
      "Ġexhib": 4209,
      "length": 4210,
      "Ass": 4211,
      "etic": 4212,
      "Inter": 4213,
      "59": 4214,
      "Ġpurpose": 4215,
      "?âĢĿ": 4216,
      "vement": 4217,
      "azine": 4218,
      "MP": 4219,
      "':": 4220,
      "1998": 4221,
      "ifying": 4222,
      "Ġpsych": 4223,
      "Ġpositive": 4224,
      "Ġbox": 4225,
      "ĠRoyal": 4226,
      "Ġcompleted": 4227,
      "/**": 4228,
      "ĠDec": 4229,
      "Ġpeace": 4230,
      "Ġdirectly": 4231,
      "())": 4232,
      "Out": 4233,
      "osing": 4234,
      "Ġ/>": 4235,
      "ĠFace": 4236,
      "prot": 4237,
      "unities": 4238,
      "just": 4239,
      "Ġtransport": 4240,
      "Ġcentral": 4241,
      "enty": 4242,
      "Ġeconomy": 4243,
      "Ġsigned": 4244,
      "|-": 4245,
      "Ġremains": 4246,
      "isation": 4247,
      "Ġdetails": 4248,
      "ocks": 4249,
      "icago": 4250,
      "eline": 4251,
      "OS": 4252,
      "ĠBay": 4253,
      "well": 4254,
      "Ġsec": 4255,
      "ĠOF": 4256,
      "udget": 4257,
      "Ġfrequ": 4258,
      "ĠHam": 4259,
      "57": 4260,
      "ula": 4261,
      "Ġbey": 4262,
      "Ġassess": 4263,
      "itude": 4264,
      "Ġartist": 4265,
      "Ġappeared": 4266,
      "olean": 4267,
      "Ġrule": 4268,
      "Ġphysical": 4269,
      "Ġded": 4270,
      "ĠFrank": 4271,
      "ĠWomen": 4272,
      "ĠTur": 4273,
      "ĠKe": 4274,
      "oma": 4275,
      "Ġfirm": 4276,
      "ading": 4277,
      "1980": 4278,
      "gest": 4279,
      "Ġbeyond": 4280,
      "Ġfinally": 4281,
      "Ġstructure": 4282,
      "Ġpaid": 4283,
      "ĠUnder": 4284,
      "ĠHill": 4285,
      "Ġshot": 4286,
      "Ġvote": 4287,
      "ĠAtt": 4288,
      "Ġgrowing": 4289,
      "verse": 4290,
      "ously": 4291,
      "title": 4292,
      "oday": 4293,
      "OD": 4294,
      "riage": 4295,
      "ĠHen": 4296,
      "Ġinitial": 4297,
      "Ġshown": 4298,
      "ishing": 4299,
      "ĠDevelopment": 4300,
      "Ġbill": 4301,
      "Ġpen": 4302,
      "Ġstreng": 4303,
      "atab": 4304,
      "Ġquarter": 4305,
      "FL": 4306,
      "ĠAp": 4307,
      "ounds": 4308,
      "Ġprimary": 4309,
      "ĠWork": 4310,
      "Ġinnov": 4311,
      "ils": 4312,
      "rd": 4313,
      "ĠIran": 4314,
      "orage": 4315,
      "itch": 4316,
      "aud": 4317,
      "ĠFoundation": 4318,
      "Build": 4319,
      "Index": 4320,
      "CE": 4321,
      "Service": 4322,
      "andemic": 4323,
      "Ġinside": 4324,
      "Ġavoid": 4325,
      "content": 4326,
      "189": 4327,
      "iate": 4328,
      "Ġinform": 4329,
      "ynam": 4330,
      "resh": 4331,
      "Ġcommercial": 4332,
      "ĠSl": 4333,
      "ĠClub": 4334,
      "Ġgun": 4335,
      "ĠRev": 4336,
      "risis": 4337,
      "=\"+": 4338,
      "ĠIr": 4339,
      "orial": 4340,
      "ĠFlorida": 4341,
      "Ġparties": 4342,
      "cons": 4343,
      "Ġbuy": 4344,
      "Ġhear": 4345,
      "ĠMad": 4346,
      "IR": 4347,
      "Ġlocation": 4348,
      "Ser": 4349,
      "Ġord": 4350,
      "68": 4351,
      "burg": 4352,
      "Ġoffers": 4353,
      "cel": 4354,
      "ĠInst": 4355,
      "left": 4356,
      "Ġmach": 4357,
      "fully": 4358,
      "Ġtraditional": 4359,
      "Ġopin": 4360,
      "ĠWil": 4361,
      "ayout": 4362,
      "Ġ/*": 4363,
      "Ġgas": 4364,
      "ĠPeter": 4365,
      "Ġblood": 4366,
      "Ġfarm": 4367,
      "ĠMo": 4368,
      "Ġpoor": 4369,
      "aturday": 4370,
      "Ġpark": 4371,
      "Rec": 4372,
      "Ġpan": 4373,
      "Ġreligious": 4374,
      "ĠHuman": 4375,
      "ĠOver": 4376,
      "road": 4377,
      "Ġfans": 4378,
      "Ġmale": 4379,
      "Ġmajority": 4380,
      "Pre": 4381,
      "ibly": 4382,
      "ĠJud": 4383,
      "Ġprison": 4384,
      "ĠNor": 4385,
      "Ã¼": 4386,
      "Ġartists": 4387,
      "Ġestim": 4388,
      "ĠYour": 4389,
      "iful": 4390,
      "Ġsecret": 4391,
      "ĠFriday": 4392,
      "Ġlength": 4393,
      "config": 4394,
      "pm": 4395,
      "antic": 4396,
      "ĠRichard": 4397,
      "eder": 4398,
      "Ġbal": 4399,
      "ĠAustralian": 4400,
      "ĠJose": 4401,
      "Ġnumbers": 4402,
      "Ġannual": 4403,
      "ĠLos": 4404,
      "Ġsem": 4405,
      "hand": 4406,
      "ĠCamp": 4407,
      "Ġult": 4408,
      "ĠSunday": 4409,
      "Ġhands": 4410,
      "ala": 4411,
      "Ġhol": 4412,
      "Ġpriv": 4413,
      "ategory": 4414,
      "Ġsports": 4415,
      "ĠWell": 4416,
      "MS": 4417,
      "Ġhelped": 4418,
      "atre": 4419,
      "Ġwriter": 4420,
      "mas": 4421,
      "ĠChampionship": 4422,
      "ĠStar": 4423,
      "Ġmission": 4424,
      "Ġinvestment": 4425,
      "ĠUSA": 4426,
      "Ġactivity": 4427,
      "hi": 4428,
      "FA": 4429,
      "iant": 4430,
      "anda": 4431,
      "////////": 4432,
      "Ġsimple": 4433,
      "Ġcommand": 4434,
      "Ġhappened": 4435,
      "Ġofficials": 4436,
      "quot": 4437,
      "Ġelement": 4438,
      "Ġuses": 4439,
      "ĠGoogle": 4440,
      "anned": 4441,
      "ĠMer": 4442,
      "Ġmount": 4443,
      "ĠAmericans": 4444,
      "ĠSee": 4445,
      "ĠLouis": 4446,
      "build": 4447,
      "anta": 4448,
      "Ġ(!": 4449,
      "Ġmiddle": 4450,
      "ructure": 4451,
      "Ġrecords": 4452,
      "Ġquickly": 4453,
      "ĠDuring": 4454,
      "OP": 4455,
      "Ġemployees": 4456,
      "true": 4457,
      "Ġspeak": 4458,
      "ena": 4459,
      "Ġgets": 4460,
      "Ġresponsible": 4461,
      "Ġarchitect": 4462,
      "rage": 4463,
      "term": 4464,
      "Ġtypes": 4465,
      "sm": 4466,
      "aling": 4467,
      "apache": 4468,
      "1997": 4469,
      "ĠMount": 4470,
      "Ġautom": 4471,
      "Ġpreviously": 4472,
      "Ġsales": 4473,
      "Ġenter": 4474,
      "ĠEconom": 4475,
      "Ġperfect": 4476,
      "ĠZe": 4477,
      "Ġvillage": 4478,
      "ĠMost": 4479,
      "Ġgiving": 4480,
      "Ġshoot": 4481,
      "Ġadopt": 4482,
      "Ġclaims": 4483,
      "Ġregister": 4484,
      "Ġanc": 4485,
      "Ġproviding": 4486,
      "Code": 4487,
      "Ġindependent": 4488,
      "';": 4489,
      "ĠâĢ¦": 4490,
      "ĠVict": 4491,
      "reland": 4492,
      "olit": 4493,
      "zer": 4494,
      "Ġimag": 4495,
      "ync": 4496,
      "####": 4497,
      "Ġorganizations": 4498,
      "ĠBig": 4499,
      "ĠCanadian": 4500,
      "ĠAP": 4501,
      "Ġfemale": 4502,
      "Ġstream": 4503,
      "ĠServices": 4504,
      "Ð¸": 4505,
      "Ġphil": 4506,
      "Ġreach": 4507,
      "Ġaltern": 4508,
      "Ġvoice": 4509,
      "Reg": 4510,
      "ĠSeries": 4511,
      "ĠIS": 4512,
      "inn": 4513,
      "Em": 4514,
      "Ġesc": 4515,
      "Ġeffective": 4516,
      "Ġletter": 4517,
      "++": 4518,
      "Ġcarry": 4519,
      "ĠTor": 4520,
      "Ġgreater": 4521,
      "Ġsexual": 4522,
      "Ġhundred": 4523,
      "ĠPlan": 4524,
      "Ġadministration": 4525,
      "Ġaware": 4526,
      "Ġprec": 4527,
      "ias": 4528,
      "Ġusers": 4529,
      "Ġconflic": 4530,
      "ĠOpen": 4531,
      "Ġappropri": 4532,
      "ĠThursday": 4533,
      "ĠOffic": 4534,
      "Ġoil": 4535,
      "iller": 4536,
      "hens": 4537,
      "ronic": 4538,
      "cell": 4539,
      "ulate": 4540,
      "izes": 4541,
      "1996": 4542,
      "Ġunderstanding": 4543,
      "Ġhighly": 4544,
      "Ġdebut": 4545,
      "Hand": 4546,
      "ĠSol": 4547,
      "Ġwhom": 4548,
      "ML": 4549,
      "ĠMass": 4550,
      "67": 4551,
      "Ġclin": 4552,
      "Ġrecorded": 4553,
      "Ġcancer": 4554,
      "ĠUs": 4555,
      "Ġepisode": 4556,
      "Ġstarting": 4557,
      "ĠAngeles": 4558,
      "fr": 4559,
      "Ġwa": 4560,
      "Ġlaws": 4561,
      "Ġscene": 4562,
      "tes": 4563,
      "igration": 4564,
      "Sub": 4565,
      "ancing": 4566,
      "nel": 4567,
      "itable": 4568,
      "Ġcultural": 4569,
      "Ġcompared": 4570,
      "Ġwide": 4571,
      "Map": 4572,
      "ĠArts": 4573,
      "Ġviolence": 4574,
      "OL": 4575,
      "\"\"": 4576,
      "ĠTime": 4577,
      "Ġetc": 4578,
      "ĠArab": 4579,
      "Ġgold": 4580,
      "ĠRad": 4581,
      "uit": 4582,
      "ĠÃ": 4583,
      "ĠWed": 4584,
      "assert": 4585,
      "ĠMont": 4586,
      "Ġtrial": 4587,
      "Fl": 4588,
      "ĠLat": 4589,
      "ĠBi": 4590,
      "ĠRock": 4591,
      "Ġcrim": 4592,
      "Ġofficer": 4593,
      "uty": 4594,
      "Ġdemonstr": 4595,
      "Ġtim": 4596,
      "Ġfast": 4597,
      "Ġarrest": 4598,
      "Ġdang": 4599,
      "Ġinput": 4600,
      "1970": 4601,
      "ĠAccording": 4602,
      "onday": 4603,
      "active": 4604,
      "NA": 4605,
      "ĠGrand": 4606,
      "pret": 4607,
      "ĠSun": 4608,
      "Ġsoftware": 4609,
      "ĠEr": 4610,
      "Ġchance": 4611,
      "Ġbirths": 4612,
      "Size": 4613,
      "itled": 4614,
      "Ġaw": 4615,
      "Ġspirit": 4616,
      "nership": 4617,
      "Ġrul": 4618,
      "Ġradio": 4619,
      "usband": 4620,
      "Ġparam": 4621,
      "300": 4622,
      "ĠChicago": 4623,
      "Ġstrateg": 4624,
      "Ġ});": 4625,
      "za": 4626,
      "Ġrank": 4627,
      "Ġhighest": 4628,
      "Ġdark": 4629,
      "Ġsy": 4630,
      "Ġdro": 4631,
      "EL": 4632,
      "Ġoperation": 4633,
      "ester": 4634,
      "ponse": 4635,
      "ulf": 4636,
      "uffer": 4637,
      ")(": 4638,
      "ework": 4639,
      "object": 4640,
      "sl": 4641,
      "Ġcitizens": 4642,
      "ĠVer": 4643,
      "BA": 4644,
      "Ġelements": 4645,
      "88": 4646,
      "igan": 4647,
      "Ġserve": 4648,
      "Ġfailed": 4649,
      "Ġimpl": 4650,
      "Ġiniti": 4651,
      "atively": 4652,
      "actions": 4653,
      "level": 4654,
      "Ġschol": 4655,
      "ĠIslam": 4656,
      "Ġconfig": 4657,
      "Ġdeaths": 4658,
      "ordin": 4659,
      "IA": 4660,
      "arsh": 4661,
      "Writ": 4662,
      "ano": 4663,
      "Ġcritical": 4664,
      "ĠStr": 4665,
      "ĠFacebook": 4666,
      "Ġlines": 4667,
      "Ġalign": 4668,
      "Ġhuge": 4669,
      "Val": 4670,
      "ĠDivision": 4671,
      "ĠAcademy": 4672,
      "Ġpresented": 4673,
      "Ġvalid": 4674,
      "Element": 4675,
      "lang": 4676,
      "Ġdespite": 4677,
      "osoph": 4678,
      "Ġdouble": 4679,
      "ĠManagement": 4680,
      "posed": 4681,
      "Ġcommit": 4682,
      "icks": 4683,
      "Sp": 4684,
      "Ġcoach": 4685,
      "standing": 4686,
      "Ġfully": 4687,
      "ini": 4688,
      "aught": 4689,
      "ĠMatt": 4690,
      "onents": 4691,
      "Ġpandemic": 4692,
      "Ġspread": 4693,
      "pected": 4694,
      "Ġleadership": 4695,
      "Ġhar": 4696,
      "imb": 4697,
      "Ġones": 4698,
      "Ġ-->": 4699,
      "Ġfunding": 4700,
      "ologies": 4701,
      "51": 4702,
      "den": 4703,
      "mine": 4704,
      "Ġhappy": 4705,
      "Ġmechan": 4706,
      "block": 4707,
      "54": 4708,
      "Ġconnection": 4709,
      "Ġrepe": 4710,
      "Ġimprove": 4711,
      "ĠProject": 4712,
      "ĠCatholic": 4713,
      "Ġgra": 4714,
      "Ġprop": 4715,
      "ĠLord": 4716,
      "ĠPM": 4717,
      "Ġalone": 4718,
      "1995": 4719,
      "ĠTown": 4720,
      "ĠParis": 4721,
      "Ġthinking": 4722,
      "Count": 4723,
      "Ġthus": 4724,
      "Ġbusinesses": 4725,
      "erved": 4726,
      "Ġcritic": 4727,
      "Ġfear": 4728,
      "ĠCharles": 4729,
      "ping": 4730,
      "Ġtemper": 4731,
      "Ġreached": 4732,
      "dated": 4733,
      "Ġapply": 4734,
      "Array": 4735,
      "ĠOh": 4736,
      "Ġindex": 4737,
      "Ġpp": 4738,
      "Ġbenefits": 4739,
      "Ġsn": 4740,
      "Ġproposed": 4741,
      "Ġgives": 4742,
      "CL": 4743,
      "pective": 4744,
      "Ġhappen": 4745,
      "ette": 4746,
      "ĠGeorg": 4747,
      "ĠJapanese": 4748,
      "Ġconsum": 4749,
      "Am": 4750,
      "escription": 4751,
      "Ġminor": 4752,
      "enced": 4753,
      "Ġcompletely": 4754,
      "52": 4755,
      "Ġcaused": 4756,
      "ĠIreland": 4757,
      "elligence": 4758,
      "Ġmoving": 4759,
      "Ġaffect": 4760,
      "Ġreasons": 4761,
      "ĠĠĠĠĠĠĠĠĠĠĠĠĠĠĠĠĠĠĠĠĠĠĠĠĠĠĠ": 4762,
      "Ġaspect": 4763,
      "Ġ:=": 4764,
      "uclear": 4765,
      "Ġsector": 4766,
      "They": 4767,
      "Ġemot": 4768,
      "ĠHel": 4769,
      "ĠEarth": 4770,
      "Ġstra": 4771,
      "och": 4772,
      "ĠBrown": 4773,
      "Ġsenior": 4774,
      "!!": 4775,
      "Ġrail": 4776,
      "bol": 4777,
      "ĠGood": 4778,
      "Ġopening": 4779,
      "Ġwild": 4780,
      "Ġeventually": 4781,
      "gn": 4782,
      "Ġsal": 4783,
      "stream": 4784,
      "overs": 4785,
      "roller": 4786,
      "ĠChief": 4787,
      "aid": 4788,
      "Message": 4789,
      "Ġlaun": 4790,
      "Ġexisting": 4791,
      "ĠOper": 4792,
      "Ġraised": 4793,
      "gment": 4794,
      "dt": 4795,
      "Ġgenerally": 4796,
      "lections": 4797,
      "clusion": 4798,
      "etry": 4799,
      "ervation": 4800,
      "witch": 4801,
      "Ġgreen": 4802,
      "Ġtherefore": 4803,
      "Ġmurder": 4804,
      "Ġstated": 4805,
      "Ġbeg": 4806,
      "Ġoccup": 4807,
      "estic": 4808,
      "Ġthr": 4809,
      "ilter": 4810,
      "overy": 4811,
      "[]": 4812,
      "Ġdefe": 4813,
      "Ġkids": 4814,
      "Ġperformed": 4815,
      "Ġstore": 4816,
      "create": 4817,
      "orter": 4818,
      "Ġcert": 4819,
      "ĠMem": 4820,
      "ĠSaturday": 4821,
      "Ġinfluence": 4822,
      "Ġ()": 4823,
      "Ġmorning": 4824,
      "Ġmeasure": 4825,
      "Ġpartner": 4826,
      "Ð½": 4827,
      "ĠGen": 4828,
      "ĠVirginia": 4829,
      "ĠMel": 4830,
      "53": 4831,
      "Ġnoted": 4832,
      "Per": 4833,
      "Ġpolitic": 4834,
      "Ġslow": 4835,
      "thlet": 4836,
      "ĠHere": 4837,
      "Ġpack": 4838,
      "OM": 4839,
      "Ġsurround": 4840,
      "ĠBur": 4841,
      "Ġwonder": 4842,
      "ĠAtl": 4843,
      "Ġmap": 4844,
      "olk": 4845,
      "Log": 4846,
      "ĠHome": 4847,
      "ĠCarolina": 4848,
      "yr": 4849,
      "Ġoverall": 4850,
      "Ġideas": 4851,
      "While": 4852,
      "};": 4853,
      "Ġcondition": 4854,
      "Ġmill": 4855,
      "Ġload": 4856,
      "69": 4857,
      "Ġcorrect": 4858,
      "Ġship": 4859,
      "Ġweb": 4860,
      "tained": 4861,
      "ĠCam": 4862,
      "Ġcard": 4863,
      "gu": 4864,
      "Ġended": 4865,
      "ĠJes": 4866,
      "map": 4867,
      "Ġimmediately": 4868,
      "Ġwid": 4869,
      "ĠJer": 4870,
      "google": 4871,
      "ĠEven": 4872,
      "Ġtalking": 4873,
      "itors": 4874,
      "Ġunit": 4875,
      "Ġactions": 4876,
      "uke": 4877,
      "Ġpiece": 4878,
      "Ġanswer": 4879,
      "iler": 4880,
      "run": 4881,
      "Ġconnect": 4882,
      "Ġchief": 4883,
      "Ġwants": 4884,
      "Ġlived": 4885,
      "parent": 4886,
      "apers": 4887,
      "care": 4888,
      "Ġtruth": 4889,
      "stitution": 4890,
      "Ġtheory": 4891,
      "pat": 4892,
      "Ġshared": 4893,
      "TS": 4894,
      "ĠJewish": 4895,
      "Ġnormal": 4896,
      "Ġpm": 4897,
      "ĠEngine": 4898,
      "Ġdifference": 4899,
      "Ġ},": 4900,
      "Ġbrand": 4901,
      "Ġnote": 4902,
      "Ġfamous": 4903,
      "Ġeffic": 4904,
      "respond": 4905,
      "ĠKingdom": 4906,
      "orney": 4907,
      "ĠTop": 4908,
      "Ġeditor": 4909,
      "RA": 4910,
      "ario": 4911,
      "ÑĤ": 4912,
      "Bar": 4913,
      "Ġunc": 4914,
      "Ġpoll": 4915,
      "ĠFilm": 4916,
      "1994": 4917,
      "asion": 4918,
      "asket": 4919,
      "Ġelectric": 4920,
      "gt": 4921,
      "Ġcompetition": 4922,
      "ĠTre": 4923,
      "Ġpolicies": 4924,
      "Ġsequ": 4925,
      "Ġtouch": 4926,
      "names": 4927,
      "Ġhusband": 4928,
      "urrent": 4929,
      "ersion": 4930,
      "Ġchem": 4931,
      "poses": 4932,
      "Ġcomputer": 4933,
      "Table": 4934,
      "astern": 4935,
      "Ġfaith": 4936,
      "ĠMexico": 4937,
      "ĠMartin": 4938,
      "lient": 4939,
      "ĠData": 4940,
      "imal": 4941,
      "Ġgoals": 4942,
      "Ġperhaps": 4943,
      "iar": 4944,
      "Ġhistorical": 4945,
      "azon": 4946,
      "oes": 4947,
      "host": 4948,
      "Param": 4949,
      "Ġpull": 4950,
      "Ġbuildings": 4951,
      "unicip": 4952,
      "ĠMur": 4953,
      "Ġvariety": 4954,
      "info": 4955,
      "bour": 4956,
      "Ġbus": 4957,
      "ĠThen": 4958,
      "bo": 4959,
      "Ġdevice": 4960,
      "Ġadapt": 4961,
      "acing": 4962,
      "uesday": 4963,
      "Ġlab": 4964,
      "ĠFederal": 4965,
      "Ġclient": 4966,
      "Ġcities": 4967,
      "Ġprotected": 4968,
      "Don": 4969,
      "Ġign": 4970,
      "ĠJohnson": 4971,
      "ĠSecurity": 4972,
      "ĠSk": 4973,
      "ultural": 4974,
      "section": 4975,
      "xy": 4976,
      "inct": 4977,
      "hab": 4978,
      "='": 4979,
      "PE": 4980,
      "DA": 4981,
      "âĢĺ": 4982,
      "Ġmanager": 4983,
      "Ġcontinues": 4984,
      "anged": 4985,
      "Ġreality": 4986,
      "ptions": 4987,
      "Ġdefined": 4988,
      "Ġintroduced": 4989,
      "Ġterror": 4990,
      "Ġdrive": 4991,
      "Ġopportunities": 4992,
      "ĠStep": 4993,
      "Ġsafe": 4994,
      "Ġconsult": 4995,
      "Dr": 4996,
      "ĠMov": 4997,
      "Ġlif": 4998,
      "icit": 4999,
      "Call": 5000,
      "Ġblog": 5001,
      "Item": 5002,
      "Ġactual": 5003,
      "ensus": 5004,
      "ramework": 5005,
      "azz": 5006,
      "Ġlooks": 5007,
      "orpor": 5008,
      "aland": 5009,
      "Ġreference": 5010,
      "Ġcreating": 5011,
      "Ġdepartment": 5012,
      "ĠJustice": 5013,
      "works": 5014,
      "Ġrestrict": 5015,
      "atabase": 5016,
      "TH": 5017,
      "Ġclean": 5018,
      "input": 5019,
      "EE": 5020,
      "ĠForm": 5021,
      "kins": 5022,
      "Ġdefend": 5023,
      "osh": 5024,
      "Ġoffered": 5025,
      "Ġstock": 5026,
      "Ġmaster": 5027,
      "Ġcru": 5028,
      "Ġcapacity": 5029,
      "Ġsources": 5030,
      "ĠMonday": 5031,
      "Ġbattle": 5032,
      "ircraft": 5033,
      "ĠPub": 5034,
      "ĠAM": 5035,
      "ĠRights": 5036,
      "Ġappears": 5037,
      "ĠEnd": 5038,
      "Ġang": 5039,
      "People": 5040,
      "raq": 5041,
      "Ġexecutive": 5042,
      "Ġtried": 5043,
      "pid": 5044,
      "ĠCr": 5045,
      "ĠPolicy": 5046,
      "Ġproceed": 5047,
      "Ġotherwise": 5048,
      "Ġforms": 5049,
      "nesday": 5050,
      "ĠJo": 5051,
      "ĠJim": 5052,
      "Ġsupported": 5053,
      "Ġexpress": 5054,
      "Ġauthority": 5055,
      "Ġchoice": 5056,
      "Ġsell": 5057,
      "ĠFre": 5058,
      "Ġissued": 5059,
      "Ġwear": 5060,
      "reate": 5061,
      "ĠSince": 5062,
      "ani": 5063,
      "BS": 5064,
      "Ġfigure": 5065,
      "Dis": 5066,
      "ĠAsia": 5067,
      "ialog": 5068,
      "CA": 5069,
      "ĠMedia": 5070,
      "Ġscen": 5071,
      "Ġwel": 5072,
      "Ġallows": 5073,
      "java": 5074,
      "Comm": 5075,
      "Ent": 5076,
      "ĠCommun": 5077,
      "Ġbenefit": 5078,
      "ĠSecretary": 5079,
      "Ġreflect": 5080,
      "Ġprotection": 5081,
      "****************": 5082,
      "ĠFe": 5083,
      "Ġinstr": 5084,
      "ĠSup": 5085,
      "andom": 5086,
      "ĠInformation": 5087,
      "isf": 5088,
      "ĠIll": 5089,
      "Ġcertainly": 5090,
      "stances": 5091,
      "Ġapprox": 5092,
      "ita": 5093,
      "Ġentry": 5094,
      "ĠWeb": 5095,
      "ĠForce": 5096,
      "Ġdecades": 5097,
      "Ġcook": 5098,
      "Ġcatch": 5099,
      "Ġcrisis": 5100,
      "Ġcustomers": 5101,
      "Ġaudience": 5102,
      "ULL": 5103,
      "nor": 5104,
      "Ġenvironmental": 5105,
      "Ġproced": 5106,
      "Ã¶": 5107,
      "Ġlimit": 5108,
      "default": 5109,
      "Ġdoll": 5110,
      "Ġagree": 5111,
      "Ġolder": 5112,
      "97": 5113,
      "1992": 5114,
      "Ġrequirements": 5115,
      "enses": 5116,
      "John": 5117,
      "stra": 5118,
      "ĠĠĠĠĊ": 5119,
      "west": 5120,
      "ĠProv": 5121,
      "Ġconstruct": 5122,
      "Ġoption": 5123,
      "soft": 5124,
      "Ġcrime": 5125,
      "Ġcounter": 5126,
      "inition": 5127,
      "Ġcharge": 5128,
      "uries": 5129,
      "Ġuniversity": 5130,
      "ĠPlay": 5131,
      "ĠTim": 5132,
      "ĠLong": 5133,
      "PA": 5134,
      "Ġlarger": 5135,
      "ĠRem": 5136,
      "UL": 5137,
      "Ġdream": 5138,
      "Ġbecoming": 5139,
      "Ġchallenge": 5140,
      "page": 5141,
      "Ġelected": 5142,
      "Ġjustice": 5143,
      "rs": 5144,
      "ĠWind": 5145,
      "Ġclosed": 5146,
      "base": 5147,
      "ĠSil": 5148,
      "leep": 5149,
      "ĠPet": 5150,
      "ship": 5151,
      "Ġtro": 5152,
      "version": 5153,
      "Ġmethods": 5154,
      "anish": 5155,
      "ĠLake": 5156,
      "Ġskills": 5157,
      "400": 5158,
      "Ġjobs": 5159,
      "Part": 5160,
      "ĠJul": 5161,
      "Ġweap": 5162,
      "ĠScot": 5163,
      "pty": 5164,
      "idden": 5165,
      "Ġnotice": 5166,
      "ĠCommunity": 5167,
      "Ġresidents": 5168,
      "gar": 5169,
      "--------------------------------": 5170,
      "1993": 5171,
      "1960": 5172,
      "actory": 5173,
      "width": 5174,
      "ĠSecond": 5175,
      "yan": 5176,
      "Ġreb": 5177,
      "================": 5178,
      "ĠFund": 5179,
      "Ġofficers": 5180,
      "ctors": 5181,
      "Ġpaint": 5182,
      "Ġcredit": 5183,
      "Ġformed": 5184,
      "ĠEvery": 5185,
      "Ġconference": 5186,
      "Ġmodels": 5187,
      "Ġeval": 5188,
      "inger": 5189,
      "ĠGlobal": 5190,
      "Ġcontains": 5191,
      "Ġchallenges": 5192,
      "Ġinterested": 5193,
      "Ġemail": 5194,
      "ĠAlthough": 5195,
      "istance": 5196,
      "Ġobvious": 5197,
      "yt": 5198,
      "error": 5199,
      "Can": 5200,
      "Ġplease": 5201,
      "ĠCare": 5202,
      "ĠTwo": 5203,
      "Ġdirection": 5204,
      "ĠPenn": 5205,
      "define": 5206,
      "ura": 5207,
      "Image": 5208,
      "iling": 5209,
      "Ġplaced": 5210,
      "Ġfounded": 5211,
      "start": 5212,
      "ua": 5213,
      "emporary": 5214,
      "rowd": 5215,
      "Ġrates": 5216,
      "Ġextrem": 5217,
      "ĠWood": 5218,
      "Ġjava": 5219,
      "Ġliber": 5220,
      "Ġbrief": 5221,
      "ĠLee": 5222,
      "rows": 5223,
      "ipment": 5224,
      "ulty": 5225,
      "Ġabsol": 5226,
      "Read": 5227,
      "Ġ__": 5228,
      "nected": 5229,
      "ribe": 5230,
      "Ġfunds": 5231,
      "ĠCD": 5232,
      "Ġselected": 5233,
      "Ġaim": 5234,
      "jo": 5235,
      "ĠVictor": 5236,
      "aters": 5237,
      "ĠProfessor": 5238,
      "Ġbecomes": 5239,
      "ĠSet": 5240,
      "Ġcalls": 5241,
      "node": 5242,
      "ĠEU": 5243,
      "ĠTechnology": 5244,
      "Ġdu": 5245,
      "ourney": 5246,
      "Ġpolitics": 5247,
      "Ġnil": 5248,
      "ĠAff": 5249,
      "Ġcells": 5250,
      "ĠMedical": 5251,
      "Ġbudget": 5252,
      "Ġresource": 5253,
      "lig": 5254,
      "rics": 5255,
      "uster": 5256,
      "Ġmeant": 5257,
      "Ġfourth": 5258,
      "Ġmiles": 5259,
      "Ġfif": 5260,
      "Ġinternal": 5261,
      "sk": 5262,
      "gency": 5263,
      "Ġpattern": 5264,
      "Ġpet": 5265,
      "Ġplanning": 5266,
      "Ġdirected": 5267,
      "76": 5268,
      "Ġready": 5269,
      "edd": 5270,
      "Ġlaunch": 5271,
      "Ġpowerful": 5272,
      "ĠStat": 5273,
      "ao": 5274,
      "ĠDen": 5275,
      "entially": 5276,
      "weet": 5277,
      "Ġexerc": 5278,
      "Ġforced": 5279,
      "ÑĢ": 5280,
      "Ġroll": 5281,
      "Ġpric": 5282,
      "Ġoutput": 5283,
      "Ġresearc": 5284,
      "Ġbound": 5285,
      "racy": 5286,
      "Ġearth": 5287,
      "Ġjoin": 5288,
      "ĠAirport": 5289,
      "ĠĠĠĠĠĠĠĠĠĠ": 5290,
      "Source": 5291,
      "First": 5292,
      "rid": 5293,
      "ĠGames": 5294,
      "Ġshowed": 5295,
      "Ġlabor": 5296,
      "Ġharm": 5297,
      "ĠMil": 5298,
      "bur": 5299,
      "ĠMiddle": 5300,
      "ĠSenate": 5301,
      "Ġregarding": 5302,
      "Ġfreedom": 5303,
      "Ġagency": 5304,
      "Ġmaterials": 5305,
      "Ġlooked": 5306,
      "ĠMany": 5307,
      "aby": 5308,
      "ĠST": 5309,
      "ĠObama": 5310,
      "Ġeyes": 5311,
      "EX": 5312,
      "lick": 5313,
      "Ġpressure": 5314,
      "Ġtoward": 5315,
      "Ġ===": 5316,
      "osis": 5317,
      "Ġinstall": 5318,
      "Ġtrain": 5319,
      "ĠOld": 5320,
      "Ġplays": 5321,
      "Ġproduce": 5322,
      "acific": 5323,
      "Ġbeautiful": 5324,
      "Ġattend": 5325,
      "Ġcop": 5326,
      "ĠLove": 5327,
      "Ge": 5328,
      "98": 5329,
      "Ġmeasures": 5330,
      "Ġexpert": 5331,
      "CR": 5332,
      "ĠAv": 5333,
      "ĠBo": 5334,
      "ĠBritain": 5335,
      "Ġfinished": 5336,
      "SA": 5337,
      "ĠCentre": 5338,
      "Ġir": 5339,
      "Ġappointed": 5340,
      "next": 5341,
      "gypt": 5342,
      "Arg": 5343,
      "Ġphone": 5344,
      "PR": 5345,
      "Ġrob": 5346,
      "Ġstrategy": 5347,
      "ĠReport": 5348,
      "Ġcomments": 5349,
      "ĠSpe": 5350,
      "Ġsustain": 5351,
      "Ġcommission": 5352,
      "lo": 5353,
      "Ġmarg": 5354,
      "Ġexperien": 5355,
      "Ġmental": 5356,
      "Ġpresence": 5357,
      "style": 5358,
      "Ġsend": 5359,
      "ĠIraq": 5360,
      "Ġunits": 5361,
      "More": 5362,
      "Ġmess": 5363,
      "Ġsrc": 5364,
      "Ġfeet": 5365,
      "include": 5366,
      "Ġsetting": 5367,
      "Ġbiggest": 5368,
      "package": 5369,
      "ĠZealand": 5370,
      "Ġassum": 5371,
      "ĠLibrary": 5372,
      "ingu": 5373,
      "Met": 5374,
      "Ġrare": 5375,
      "Ġdeveloping": 5376,
      "razil": 5377,
      "Ġmix": 5378,
      "ola": 5379,
      "Ġstandards": 5380,
      "Ġsurface": 5381,
      "ban": 5382,
      "core": 5383,
      "Ġlaunched": 5384,
      "ĠCast": 5385,
      "rolled": 5386,
      "Ġtransl": 5387,
      "Me": 5388,
      "itz": 5389,
      "aven": 5390,
      "illing": 5391,
      "Ġmyself": 5392,
      "Ġkept": 5393,
      "antly": 5394,
      "atever": 5395,
      "ĠFestival": 5396,
      "Ġbasic": 5397,
      "Ġgeneration": 5398,
      "ocol": 5399,
      "Ġrise": 5400,
      "arant": 5401,
      "Ġcircum": 5402,
      "Manager": 5403,
      "'d": 5404,
      "ifier": 5405,
      "inem": 5406,
      "iny": 5407,
      "abilities": 5408,
      "Ġcriminal": 5409,
      "arden": 5410,
      "Ġlabel": 5411,
      "inner": 5412,
      "Ġschem": 5413,
      "Ġinstitutions": 5414,
      "count": 5415,
      "Ġspeed": 5416,
      "yer": 5417,
      "Ġinterests": 5418,
      "ĠFamily": 5419,
      "Ġscale": 5420,
      "azing": 5421,
      "Ġdestroy": 5422,
      "Ġpredict": 5423,
      "ĠId": 5424,
      "Ġdaily": 5425,
      "ASS": 5426,
      "Ġdog": 5427,
      "oston": 5428,
      "Ġsea": 5429,
      "ĠBet": 5430,
      "result": 5431,
      "ĠTheir": 5432,
      "oms": 5433,
      "ĠHot": 5434,
      "Ġsolid": 5435,
      "ĠHenry": 5436,
      "going": 5437,
      "Ġmicro": 5438,
      "ootball": 5439,
      "Ġexactly": 5440,
      "Ġnav": 5441,
      "=\"../../../../": 5442,
      "Ġmemory": 5443,
      "riend": 5444,
      "ĠAdminist": 5445,
      "ĠDet": 5446,
      "1991": 5447,
      "ella": 5448,
      "eah": 5449,
      "Ġcolumn": 5450,
      "iana": 5451,
      "ĠShow": 5452,
      "Ġreduce": 5453,
      "Ġmentioned": 5454,
      "Ġmarriage": 5455,
      "ĠMos": 5456,
      "Ġviews": 5457,
      "ĠCivil": 5458,
      "ĠLab": 5459,
      "struct": 5460,
      "Ġsusp": 5461,
      "bridge": 5462,
      "ĠTuesday": 5463,
      "61": 5464,
      "ented": 5465,
      "ĠItaly": 5466,
      "ĠKn": 5467,
      "Ġgone": 5468,
      "Ġvs": 5469,
      "Ġshop": 5470,
      "Ret": 5471,
      "lies": 5472,
      "urban": 5473,
      "Ġselect": 5474,
      "Ġopinion": 5475,
      "Ġruns": 5476,
      "Ġcoast": 5477,
      "rastructure": 5478,
      "Ġfactors": 5479,
      "Posted": 5480,
      "63": 5481,
      "Ġahead": 5482,
      "ĠCEO": 5483,
      "ĠCorpor": 5484,
      "Ġacademic": 5485,
      "History": 5486,
      "Act": 5487,
      "irmed": 5488,
      "Ġguitar": 5489,
      "ili": 5490,
      "Ġleague": 5491,
      "airman": 5492,
      "Ġtask": 5493,
      ">&": 5494,
      "ĠValley": 5495,
      "ghan": 5496,
      "usion": 5497,
      "Ġpurposes": 5498,
      "Ġsubsequ": 5499,
      "aren": 5500,
      "anging": 5501,
      "Ġappropriate": 5502,
      "ĠOl": 5503,
      "ĠYoung": 5504,
      "Ġaf": 5505,
      "Ġmaybe": 5506,
      "ributed": 5507,
      "ĠItalian": 5508,
      "Ġnumerous": 5509,
      "ĠTwitter": 5510,
      "Ġcompar": 5511,
      "ĠWednesday": 5512,
      "fe": 5513,
      "Ġthousands": 5514,
      "Ġreform": 5515,
      "Ġrecommend": 5516,
      "case": 5517,
      "Ġsites": 5518,
      "Ġpros": 5519,
      "ĠHistor": 5520,
      "ĠSupreme": 5521,
      "ĠPolit": 5522,
      "ĠJoseph": 5523,
      "uthors": 5524,
      "Ġstuff": 5525,
      "web": 5526,
      "Co": 5527,
      "Ġattract": 5528,
      "Ġcalc": 5529,
      "position": 5530,
      "Ġalle": 5531,
      "Ġindic": 5532,
      "asy": 5533,
      "Ġarticles": 5534,
      "ĠChristmas": 5535,
      "Ġ};": 5536,
      "Ġfeed": 5537,
      "stein": 5538,
      "Ġrat": 5539,
      "ĠFort": 5540,
      "hew": 5541,
      "Ġcorn": 5542,
      "odies": 5543,
      "Ġyouth": 5544,
      "tra": 5545,
      "Ġtransform": 5546,
      "ĠDi": 5547,
      "Ġsave": 5548,
      "Ġadvert": 5549,
      "Color": 5550,
      "ATE": 5551,
      "ashion": 5552,
      "akistan": 5553,
      "otype": 5554,
      "Ġbehavior": 5555,
      "Last": 5556,
      "ĠDou": 5557,
      "ĠJones": 5558,
      "Ġfine": 5559,
      "isters": 5560,
      "has": 5561,
      "Ġhousehold": 5562,
      "Ġclearly": 5563,
      "ĠBoy": 5564,
      "Ġoriginally": 5565,
      "ĠRos": 5566,
      "fit": 5567,
      "Our": 5568,
      "ĠOrgan": 5569,
      "PS": 5570,
      "Ġnine": 5571,
      "Ġagreed": 5572,
      "OC": 5573,
      "plit": 5574,
      "ĠSpecial": 5575,
      "Response": 5576,
      "inated": 5577,
      "unte": 5578,
      "ĠHospital": 5579,
      "rieved": 5580,
      "Ġpartnership": 5581,
      "Ġkm": 5582,
      "Mar": 5583,
      "eless": 5584,
      "ĠAut": 5585,
      "Ġauthorities": 5586,
      "Model": 5587,
      "valid": 5588,
      "Ġseparate": 5589,
      "ĠBuild": 5590,
      "asketball": 5591,
      "Ġwood": 5592,
      "Ġcouldn": 5593,
      "yles": 5594,
      "press": 5595,
      "eting": 5596,
      "Ġterrit": 5597,
      "Ġcat": 5598,
      "ĠIts": 5599,
      "Ġmostly": 5600,
      "79": 5601,
      "Ġmusical": 5602,
      "ĠGall": 5603,
      "According": 5604,
      "Ġlearned": 5605,
      "TD": 5606,
      "Ġremained": 5607,
      "ĠMat": 5608,
      "Ġneighbor": 5609,
      "Ġbrain": 5610,
      "Ġut": 5611,
      "ĠAwards": 5612,
      "Ġaircraft": 5613,
      "Ġbool": 5614,
      "Ġowner": 5615,
      "Ġfell": 5616,
      "ĠIns": 5617,
      "Us": 5618,
      "Ġinvestigation": 5619,
      "Ġwest": 5620,
      "Ġoperating": 5621,
      "ĠInvest": 5622,
      "ĠSom": 5623,
      "false": 5624,
      "Ġheight": 5625,
      "ĠStudies": 5626,
      "mat": 5627,
      "Ġvehicle": 5628,
      "ĉĉĉĉĉĉ": 5629,
      "life": 5630,
      "oration": 5631,
      "Ġcommitted": 5632,
      "Ġimages": 5633,
      "ĠSpanish": 5634,
      "nergy": 5635,
      "ylv": 5636,
      "Ġfacilities": 5637,
      "1989": 5638,
      "Ġscientific": 5639,
      "php": 5640,
      "Ġrelevant": 5641,
      "Ġadvant": 5642,
      "Ġwinning": 5643,
      "ĠColumb": 5644,
      "aine": 5645,
      "Ġnewsp": 5646,
      "look": 5647,
      "62": 5648,
      "post": 5649,
      "Ġdistribution": 5650,
      "cean": 5651,
      "ĠWrit": 5652,
      "context": 5653,
      "Ġspeech": 5654,
      "izer": 5655,
      "ĠLet": 5656,
      "rapy": 5657,
      "Ġdiss": 5658,
      "label": 5659,
      "Ġsupply": 5660,
      "Ġteaching": 5661,
      "Home": 5662,
      "ĠMcC": 5663,
      "ĠPower": 5664,
      "ĠBob": 5665,
      "ĠInternet": 5666,
      "ffect": 5667,
      "Ġcarried": 5668,
      "Ġguid": 5669,
      "illa": 5670,
      "Ġconsequ": 5671,
      "Ġking": 5672,
      "Ġpush": 5673,
      "ĠPan": 5674,
      "Ġamb": 5675,
      "ĠâĢ¢": 5676,
      "ĠTeam": 5677,
      "Ġfocused": 5678,
      "Che": 5679,
      "atters": 5680,
      "Some": 5681,
      "align": 5682,
      "Ġweight": 5683,
      "Ġequipment": 5684,
      "fs": 5685,
      "method": 5686,
      "image": 5687,
      "Ġmut": 5688,
      "abeth": 5689,
      "Ġcamer": 5690,
      "Ġlisted": 5691,
      "ĠBu": 5692,
      "ĠConference": 5693,
      "Ġadvoc": 5694,
      "Query": 5695,
      "current": 5696,
      "Ġleaving": 5697,
      "Ġitems": 5698,
      "Ġcry": 5699,
      "Ġhousing": 5700,
      "iat": 5701,
      "bed": 5702,
      "Ġitem": 5703,
      "phas": 5704,
      "Ġexcell": 5705,
      "ĠElect": 5706,
      "Next": 5707,
      "ifically": 5708,
      "72": 5709,
      "ĠPolice": 5710,
      "Ġsolution": 5711,
      "related": 5712,
      "ĠEgypt": 5713,
      "End": 5714,
      "cript": 5715,
      "Ġdoor": 5716,
      "clusive": 5717,
      "Ġmissing": 5718,
      "ensions": 5719,
      "Ġadministr": 5720,
      "po": 5721,
      "ĠFrancisco": 5722,
      "ĠHaw": 5723,
      "ĠWilliams": 5724,
      "iverse": 5725,
      "Ġeast": 5726,
      "arts": 5727,
      "Ġscore": 5728,
      "Group": 5729,
      "Ġapplications": 5730,
      "Ġdamage": 5731,
      "ĠLiber": 5732,
      "Ġwindow": 5733,
      "Ġsav": 5734,
      "rix": 5735,
      "Ġdepend": 5736,
      "Ġseeing": 5737,
      "Property": 5738,
      "ĠSqu": 5739,
      "User": 5740,
      "ĠWhy": 5741,
      "Client": 5742,
      "bi": 5743,
      "Ġidentity": 5744,
      "Ġdecisions": 5745,
      "ocracy": 5746,
      "Ġrequires": 5747,
      "Eng": 5748,
      "EM": 5749,
      "apping": 5750,
      "Ġinterpret": 5751,
      "ĠWeek": 5752,
      "Ġcorrespond": 5753,
      "Ġmanaged": 5754,
      "ĠEnter": 5755,
      "Ġdefense": 5756,
      "ĠMen": 5757,
      "Ġraise": 5758,
      "Ġconflict": 5759,
      ";&": 5760,
      "stract": 5761,
      "ĠJoe": 5762,
      "igen": 5763,
      "OW": 5764,
      "Ġnone": 5765,
      "ĠSand": 5766,
      "Ġsun": 5767,
      "ĠJeff": 5768,
      "ansas": 5769,
      "ĠWater": 5770,
      "eful": 5771,
      "ĠParliament": 5772,
      "itage": 5773,
      "ĠWho": 5774,
      "ĠDev": 5775,
      "ĠTour": 5776,
      "Ġwitness": 5777,
      "Ñģ": 5778,
      "Ġapproximately": 5779,
      "Ġec": 5780,
      "ĠAlso": 5781,
      "Ġstraight": 5782,
      "Ġspect": 5783,
      "ĠWall": 5784,
      "Ġactor": 5785,
      "Ġhour": 5786,
      "Ġproperties": 5787,
      "oted": 5788,
      "ĠMa": 5789,
      "NS": 5790,
      "Ġpatient": 5791,
      "ĠAuthor": 5792,
      "Ġfeatured": 5793,
      "Ġfields": 5794,
      "Ġrestaur": 5795,
      "ĠĠĊ": 5796,
      "Ġnor": 5797,
      "rier": 5798,
      "Ġargument": 5799,
      "Ġpil": 5800,
      "Ġidentified": 5801,
      "gal": 5802,
      "Ġnode": 5803,
      "ersey": 5804,
      "Ġawarded": 5805,
      "ĠMot": 5806,
      "Override": 5807,
      "Ġtick": 5808,
      "Ġpractices": 5809,
      "Ġbelieved": 5810,
      "check": 5811,
      "oz": 5812,
      "while": 5813,
      "Ġeasily": 5814,
      "Char": 5815,
      "Ġillust": 5816,
      "yth": 5817,
      "ployment": 5818,
      "ector": 5819,
      "ĠKh": 5820,
      "lock": 5821,
      "Ġspot": 5822,
      "FI": 5823,
      "under": 5824,
      "android": 5825,
      "Ġrevealed": 5826,
      "Ġhero": 5827,
      "Ġtesting": 5828,
      "Ġdocuments": 5829,
      "FC": 5830,
      "Ġformat": 5831,
      "secut": 5832,
      "urns": 5833,
      "ERS": 5834,
      "ĠWay": 5835,
      "Ġcovered": 5836,
      "rate": 5837,
      "Ġlock": 5838,
      "ĠBecause": 5839,
      "GB": 5840,
      "alle": 5841,
      "Ġdomin": 5842,
      "Ġconcerns": 5843,
      "Ġfailure": 5844,
      "UE": 5845,
      "Ġdetermined": 5846,
      "Ġequal": 5847,
      "iples": 5848,
      "asks": 5849,
      "iano": 5850,
      "dule": 5851,
      "Ġbelong": 5852,
      "ĠÂ»": 5853,
      "ih": 5854,
      "%)": 5855,
      "1988": 5856,
      "UM": 5857,
      "ums": 5858,
      "initely": 5859,
      "Ġregional": 5860,
      "greg": 5861,
      "ĠGeorgia": 5862,
      "Ġstreet": 5863,
      "ĠHead": 5864,
      "ĠID": 5865,
      "HT": 5866,
      "aming": 5867,
      "Ġpun": 5868,
      "lishing": 5869,
      "aylor": 5870,
      "icrosoft": 5871,
      "utch": 5872,
      "âĢħ": 5873,
      "Ġedition": 5874,
      "inding": 5875,
      "ECT": 5876,
      "Ġexperiences": 5877,
      "Ġimportance": 5878,
      "Ġreplace": 5879,
      "ĠNorthern": 5880,
      "orrow": 5881,
      "dev": 5882,
      "ĠSar": 5883,
      "power": 5884,
      "ĠRead": 5885,
      "Ġnuclear": 5886,
      "Result": 5887,
      "Ġwarm": 5888,
      "okes": 5889,
      "ournament": 5890,
      "Ġpicture": 5891,
      "=\"#": 5892,
      "law": 5893,
      "ĠFree": 5894,
      "ĠBoston": 5895,
      "ĠEp": 5896,
      "73": 5897,
      "âĢ¢": 5898,
      "claim": 5899,
      "olved": 5900,
      "Ġcommittee": 5901,
      "ĠEmp": 5902,
      "Ġfan": 5903,
      "Ġisland": 5904,
      "Ġlay": 5905,
      "static": 5906,
      "Ð¾Ð": 5907,
      "ĠNY": 5908,
      "ican": 5909,
      "Art": 5910,
      "GL": 5911,
      "Ġfollows": 5912,
      "Ġupdate": 5913,
      "Ġforest": 5914,
      "Ġinstitution": 5915,
      "Ġnarr": 5916,
      "71": 5917,
      "Ġmovies": 5918,
      "ql": 5919,
      "Now": 5920,
      "ONT": 5921,
      "member": 5922,
      "omy": 5923,
      "ĠBrazil": 5924,
      "Ġnotes": 5925,
      "Ġfeeling": 5926,
      "ATION": 5927,
      "Ġjoint": 5928,
      "ĠGra": 5929,
      "func": 5930,
      "oral": 5931,
      "Ġflow": 5932,
      "Ġhearing": 5933,
      "ĠAndrew": 5934,
      "Ġmist": 5935,
      "ategories": 5936,
      "inet": 5937,
      "inder": 5938,
      "Ġcrowd": 5939,
      "Run": 5940,
      "Back": 5941,
      "Method": 5942,
      "ĠVis": 5943,
      "otal": 5944,
      "dr": 5945,
      "Ġdetermine": 5946,
      "db": 5947,
      "Date": 5948,
      "Ġheavy": 5949,
      "ador": 5950,
      "Stream": 5951,
      "roud": 5952,
      "Ġarm": 5953,
      "Ġpages": 5954,
      "which": 5955,
      "can": 5956,
      "ĠSouthern": 5957,
      "Ġintended": 5958,
      "Ġapparent": 5959,
      "Ref": 5960,
      "Ġconclud": 5961,
      "ĠBas": 5962,
      "Ġentered": 5963,
      "Ġcool": 5964,
      "ĠAbout": 5965,
      "Ġunless": 5966,
      "Ġdiscussion": 5967,
      "HS": 5968,
      ".âĢĻ": 5969,
      "ansion": 5970,
      "Ġenforce": 5971,
      "Ġcentre": 5972,
      "Ġtechnical": 5973,
      "Ġvision": 5974,
      "elled": 5975,
      "ucky": 5976,
      "TV": 5977,
      "ĠStand": 5978,
      "Ġreturns": 5979,
      "ishop": 5980,
      "ĠOk": 5981,
      "Ġsets": 5982,
      "85": 5983,
      "Ġcounty": 5984,
      "hire": 5985,
      "Ġanimals": 5986,
      "arian": 5987,
      "Ġfra": 5988,
      "Ġconcent": 5989,
      "lication": 5990,
      "Ġbroadcast": 5991,
      "ĠJon": 5992,
      "Ġtrou": 5993,
      "Ġseemed": 5994,
      "Ã¤": 5995,
      "Ġlit": 5996,
      "gent": 5997,
      "Ġcompos": 5998,
      "ĠChris": 5999,
      "mes": 6000,
      "Ġresponsibility": 6001,
      "Builder": 6002,
      "ĠGal": 6003,
      "Ġsatisf": 6004,
      "74": 6005,
      "Des": 6006,
      "ba": 6007,
      "ĠGame": 6008,
      "ĠQueen": 6009,
      "ĠIrish": 6010,
      "izabeth": 6011,
      "ĠKen": 6012,
      "Ġwait": 6013,
      "Ġapplied": 6014,
      "PD": 6015,
      "Ġenh": 6016,
      "Ġaccur": 6017,
      "Ġcars": 6018,
      "Ġsurvey": 6019,
      "ĠLike": 6020,
      "emy": 6021,
      "ta": 6022,
      "Ġnegot": 6023,
      "ĠSpace": 6024,
      "hedul": 6025,
      "Ġtrend": 6026,
      "Ġdiagn": 6027,
      "da": 6028,
      "Ġhomes": 6029,
      ">(": 6030,
      "Ġsession": 6031,
      "ĠBow": 6032,
      "Ġsale": 6033,
      "Ġconducted": 6034,
      "ĠPop": 6035,
      "ributes": 6036,
      "Ġdraft": 6037,
      "Ġsomew": 6038,
      "Ġtend": 6039,
      "ĠHon": 6040,
      "andon": 6041,
      "css": 6042,
      "Rep": 6043,
      "mond": 6044,
      "Ġjourney": 6045,
      "ĠSection": 6046,
      "Ġdra": 6047,
      "ocket": 6048,
      "osophy": 6049,
      "ĠRepublican": 6050,
      "ĠJesus": 6051,
      "ĠPakistan": 6052,
      "Ġstudio": 6053,
      "ruit": 6054,
      "Ġprofession": 6055,
      "ĠKar": 6056,
      "lib": 6057,
      "ĠCharl": 6058,
      "Ġexecut": 6059,
      "Ġtools": 6060,
      "Ġcore": 6061,
      "call": 6062,
      "Do": 6063,
      "Ġgrew": 6064,
      "emplate": 6065,
      "ĠNetwork": 6066,
      "iden": 6067,
      "Ġguy": 6068,
      "=\"../": 6069,
      "Ġdedicated": 6070,
      "Ġsport": 6071,
      "ipal": 6072,
      "ĠRE": 6073,
      "ĠDemocratic": 6074,
      "0000": 6075,
      "nic": 6076,
      "open": 6077,
      "ĠLic": 6078,
      "ga": 6079,
      "ĠOx": 6080,
      "ĠRecords": 6081,
      "ingly": 6082,
      "agon": 6083,
      "Off": 6084,
      "Ġwouldn": 6085,
      "long": 6086,
      "Ġreferred": 6087,
      "search": 6088,
      "Ġentertain": 6089,
      "ĠMichigan": 6090,
      "Ġancient": 6091,
      "adel": 6092,
      "Ġknows": 6093,
      "Ġmulti": 6094,
      "Ġtells": 6095,
      "Ġuns": 6096,
      "Ġattacks": 6097,
      "rip": 6098,
      "real": 6099,
      "rence": 6100,
      "Why": 6101,
      "May": 6102,
      "requ": 6103,
      "ĠCode": 6104,
      "Ġbeat": 6105,
      "iced": 6106,
      "Ġfloor": 6107,
      "Ġtree": 6108,
      "Ġfuel": 6109,
      "enth": 6110,
      "Ġgirls": 6111,
      "adium": 6112,
      "indow": 6113,
      "Ġserving": 6114,
      "ĠMike": 6115,
      "amin": 6116,
      "Pol": 6117,
      "uous": 6118,
      "1987": 6119,
      "Ġnative": 6120,
      "ĠRail": 6121,
      "ograp": 6122,
      "ĠEll": 6123,
      "1950": 6124,
      "pping": 6125,
      "Ġhy": 6126,
      "Ġwealth": 6127,
      "Ġrich": 6128,
      "Go": 6129,
      "Ġhelping": 6130,
      "ca": 6131,
      "oviet": 6132,
      "1986": 6133,
      "gers": 6134,
      "Ġstd": 6135,
      "Ġfacility": 6136,
      "Ġaren": 6137,
      "ographic": 6138,
      "Ġblue": 6139,
      "Ġdivid": 6140,
      "Ġcouncil": 6141,
      "Ġchoose": 6142,
      "rowser": 6143,
      "ĠMax": 6144,
      "Ġban": 6145,
      "Ġstrength": 6146,
      "ĠLu": 6147,
      "Ġprotest": 6148,
      "Ġshares": 6149,
      "ĠExecutive": 6150,
      "ĠWal": 6151,
      "Ġsitu": 6152,
      "Ġslight": 6153,
      "89": 6154,
      "Ġprofessor": 6155,
      "ĠEnvironment": 6156,
      "wan": 6157,
      "ĠJr": 6158,
      "igger": 6159,
      "Ġdiscovered": 6160,
      "Ġapproved": 6161,
      "model": 6162,
      "inking": 6163,
      "Ġmagn": 6164,
      "amm": 6165,
      "Ġexpression": 6166,
      "Ġdoubt": 6167,
      "ĠIndust": 6168,
      "ĠGL": 6169,
      "max": 6170,
      "ĠOrder": 6171,
      "ora": 6172,
      "Ġ($": 6173,
      "Ġscholars": 6174,
      "ocument": 6175,
      "Ġfresh": 6176,
      ";</": 6177,
      "Ġspecified": 6178,
      "lywood": 6179,
      "duction": 6180,
      "Ġshowing": 6181,
      "][": 6182,
      "Input": 6183,
      "Ġclasses": 6184,
      "athan": 6185,
      "Ġsan": 6186,
      "Ġclaimed": 6187,
      "Ġdim": 6188,
      "Ġremoved": 6189,
      "ĠUk": 6190,
      "ipe": 6191,
      "Ġdepart": 6192,
      "Ġadvance": 6193,
      "Top": 6194,
      "Ġlett": 6195,
      "ĠGreek": 6196,
      "Oper": 6197,
      "Ġgender": 6198,
      "ĠBack": 6199,
      "Ġtradition": 6200,
      "nam": 6201,
      "CS": 6202,
      "ati": 6203,
      "TY": 6204,
      "etime": 6205,
      "ĠĠĠĠĠĠĠĠĠĠĠĠĊ": 6206,
      "Ġfle": 6207,
      "rison": 6208,
      "client": 6209,
      "Ġeye": 6210,
      "Ġresident": 6211,
      "ĠJackson": 6212,
      "Ġowned": 6213,
      "Ġdomestic": 6214,
      "Ġloved": 6215,
      "Ġvictory": 6216,
      "scape": 6217,
      "Ġcreation": 6218,
      "mm": 6219,
      "ĠColor": 6220,
      "event": 6221,
      "Ġfinding": 6222,
      "Ġran": 6223,
      "asure": 6224,
      "ĠIss": 6225,
      "ĠPacific": 6226,
      "Ġcalling": 6227,
      "])": 6228,
      "Ġfavorite": 6229,
      "cles": 6230,
      "Util": 6231,
      "ĠInf": 6232,
      "ĠLog": 6233,
      "Ġexchange": 6234,
      "ĠEnergy": 6235,
      "Ġapprec": 6236,
      "Ġpersons": 6237,
      "ancer": 6238,
      "anges": 6239,
      "Ġjudge": 6240,
      "ĠSciences": 6241,
      "Ġgraph": 6242,
      "ĠKorea": 6243,
      "Ġdisp": 6244,
      "Ġconcert": 6245,
      "rome": 6246,
      "Ġvirtual": 6247,
      "Ġrapid": 6248,
      "Ġcontain": 6249,
      "war": 6250,
      "Status": 6251,
      "othing": 6252,
      "ounsel": 6253,
      "iger": 6254,
      "Ġdecade": 6255,
      "adata": 6256,
      "Ġ(\"": 6257,
      "Ġaffected": 6258,
      "Ġmuseum": 6259,
      "Ġmarketing": 6260,
      "Ġdivision": 6261,
      "arks": 6262,
      "1984": 6263,
      "Ġwww": 6264,
      "ersonal": 6265,
      "eler": 6266,
      "Ġwish": 6267,
      "Ġyourself": 6268,
      "Ġsupporting": 6269,
      "olve": 6270,
      "math": 6271,
      "TO": 6272,
      "ĠHor": 6273,
      "ĠLim": 6274,
      "Ġadvice": 6275,
      "DS": 6276,
      "Ġsinger": 6277,
      "Ġachieve": 6278,
      "ĠScotland": 6279,
      "ĠField": 6280,
      "Ġfort": 6281,
      "Ġtruly": 6282,
      "otic": 6283,
      "Ġscript": 6284,
      "center": 6285,
      "BI": 6286,
      "Ġinfrastructure": 6287,
      "Ġwriters": 6288,
      "Ġsubs": 6289,
      "Ġholds": 6290,
      "ferred": 6291,
      "anche": 6292,
      "ĠWild": 6293,
      "atically": 6294,
      "ecution": 6295,
      "Ġdistance": 6296,
      "ĠToday": 6297,
      "ĠMu": 6298,
      "ĠDaniel": 6299,
      "ĠStan": 6300,
      "Ġcommunication": 6301,
      "TC": 6302,
      "Ġwhatever": 6303,
      "ithub": 6304,
      "Ġroute": 6305,
      "Ġalleged": 6306,
      "Ġsolutions": 6307,
      "ĠSwed": 6308,
      "agram": 6309,
      "ĠCL": 6310,
      "Ġquant": 6311,
      "ylvania": 6312,
      "Ġreligion": 6313,
      "Ġcandidate": 6314,
      "Ġestate": 6315,
      "Ġlegislation": 6316,
      "erm": 6317,
      "Ġresearchers": 6318,
      "These": 6319,
      "pload": 6320,
      "ĠSir": 6321,
      "Ġsubstant": 6322,
      "Ġera": 6323,
      "Ġteacher": 6324,
      "Living": 6325,
      "iser": 6326,
      "Ġidentify": 6327,
      "Ġoffering": 6328,
      "Ġrow": 6329,
      "Ġinjury": 6330,
      "ĠMedicine": 6331,
      "ĠCross": 6332,
      "Ġmobile": 6333,
      "ĠTele": 6334,
      "Ġdebate": 6335,
      "Ġearned": 6336,
      "Ġsister": 6337,
      "Ġstars": 6338,
      "Ġice": 6339,
      "issions": 6340,
      "Ġcash": 6341,
      "rovers": 6342,
      "ker": 6343,
      "Ġlov": 6344,
      "Ġnegative": 6345,
      "ĠLast": 6346,
      "ĠOhio": 6347,
      "Ġinsurance": 6348,
      "1985": 6349,
      "options": 6350,
      "cknow": 6351,
      "ĠVan": 6352,
      "inent": 6353,
      "Ġfant": 6354,
      "ĠAny": 6355,
      "Ġcomfort": 6356,
      "Ġprepar": 6357,
      "ĠSports": 6358,
      "Ġspend": 6359,
      "ĠSpain": 6360,
      "burgh": 6361,
      "Ġincred": 6362,
      "Ġlisten": 6363,
      "ĠBlue": 6364,
      "ĠNULL": 6365,
      "hat": 6366,
      "Ġtests": 6367,
      "Ġandroid": 6368,
      "edu": 6369,
      "Net": 6370,
      "Ġemphas": 6371,
      "Ġattended": 6372,
      "TP": 6373,
      "urer": 6374,
      "Ġlegisl": 6375,
      "ĠCard": 6376,
      "Ġestimated": 6377,
      "hips": 6378,
      "illy": 6379,
      "Ġextremely": 6380,
      "orders": 6381,
      "fortun": 6382,
      "Ġtrip": 6383,
      "Hel": 6384,
      "ĠTrust": 6385,
      "Ġdriver": 6386,
      "sen": 6387,
      "Ġmachine": 6388,
      "Ġpartners": 6389,
      "Ġwall": 6390,
      "Ġhonor": 6391,
      ")</": 6392,
      "Ġstatements": 6393,
      "Ġcolon": 6394,
      "Ġmarkets": 6395,
      "Ġelections": 6396,
      "Ġgrad": 6397,
      "rant": 6398,
      "Other": 6399,
      "Â°": 6400,
      "Ġconcerned": 6401,
      "fficient": 6402,
      "ĠGar": 6403,
      "Ġdriving": 6404,
      "Ġcorporate": 6405,
      "Ġalternative": 6406,
      "iders": 6407,
      "Ġmatters": 6408,
      "ĠAND": 6409,
      "Ġcrew": 6410,
      "inson": 6411,
      "Ġaccepted": 6412,
      "Ġsumm": 6413,
      "hent": 6414,
      "pass": 6415,
      "ĠAsian": 6416,
      "Ġwidth": 6417,
      "CD": 6418,
      "Ġsmaller": 6419,
      "ĠJun": 6420,
      "Ġriver": 6421,
      "Ġrepresented": 6422,
      "Ġalt": 6423,
      "Ġflu": 6424,
      "Ġpassion": 6425,
      "Ġabuse": 6426,
      "Ġdevices": 6427,
      "Ġessential": 6428,
      "ĠAri": 6429,
      "ĠAssembly": 6430,
      "break": 6431,
      "Ġvolume": 6432,
      "inton": 6433,
      "Web": 6434,
      "ĠPrime": 6435,
      "ydro": 6436,
      "ollowing": 6437,
      "Ġclinical": 6438,
      "Ġcooper": 6439,
      "ĠÎ": 6440,
      "Ġrecognized": 6441,
      "Ġexperienced": 6442,
      "eller": 6443,
      "Ġagencies": 6444,
      "bury": 6445,
      "Tag": 6446,
      "request": 6447,
      "ĠWales": 6448,
      "ĠFire": 6449,
      "umni": 6450,
      "}}": 6451,
      "een": 6452,
      "Ġreplaced": 6453,
      "Ġvisual": 6454,
      "Ġcircumstances": 6455,
      "hedule": 6456,
      "Gu": 6457,
      "Ġappearance": 6458,
      "va": 6459,
      "Start": 6460,
      "obe": 6461,
      "Ġhab": 6462,
      "Ġshape": 6463,
      "Ġsupposed": 6464,
      "ĠChildren": 6465,
      "TER": 6466,
      "During": 6467,
      "ato": 6468,
      "Ġmagazine": 6469,
      "Ġarmy": 6470,
      "vard": 6471,
      "Ġindustrial": 6472,
      "ĠIII": 6473,
      "Ġlibrary": 6474,
      "150": 6475,
      "arp": 6476,
      "ĠRetrieved": 6477,
      "Gener": 6478,
      "Ġliterature": 6479,
      "ĠJersey": 6480,
      "ĠDesign": 6481,
      "Ġexplained": 6482,
      "Ġille": 6483,
      "ĠCy": 6484,
      "Ġsteps": 6485,
      "âĢĻ,": 6486,
      "ĠFootball": 6487,
      "first": 6488,
      "Ġfigures": 6489,
      "Ġamazing": 6490,
      "endment": 6491,
      "Ġannounce": 6492,
      "Ġconfirmed": 6493,
      "Equal": 6494,
      "Ġmaintain": 6495,
      "ĠKenn": 6496,
      "Ġtraffic": 6497,
      "ypes": 6498,
      "ossible": 6499,
      "Ġarrived": 6500,
      "ervative": 6501,
      "Ġroles": 6502,
      "ĠAmazon": 6503,
      "aph": 6504,
      "Ġselection": 6505,
      "Ġ->": 6506,
      "Ġrenew": 6507,
      "Cell": 6508,
      "Ġhappens": 6509,
      "strong": 6510,
      "Ġkid": 6511,
      "icial": 6512,
      "Ġ<<": 6513,
      "Base": 6514,
      "github": 6515,
      "ĠPo": 6516,
      "ĠDown": 6517,
      "ĠSaint": 6518,
      "arrow": 6519,
      "finished": 6520,
      "zen": 6521,
      "Ġregul": 6522,
      "ĠFred": 6523,
      "Ġfighting": 6524,
      "Ġherself": 6525,
      "irty": 6526,
      "ĠTheatre": 6527,
      "Ġfunctions": 6528,
      "Ġbed": 6529,
      "query": 6530,
      "Ġgreatest": 6531,
      "Ġfiles": 6532,
      "Ġconnected": 6533,
      "Ġcreative": 6534,
      "EW": 6535,
      "ĠConstitution": 6536,
      "ĠBrook": 6537,
      "Ġdynam": 6538,
      "Ġmanner": 6539,
      "sylvania": 6540,
      "Ġintelligence": 6541,
      "86": 6542,
      "phone": 6543,
      "ĠPrince": 6544,
      "Ġclients": 6545,
      "ye": 6546,
      "IO": 6547,
      "ĠBase": 6548,
      "amples": 6549,
      "Ġcer": 6550,
      "ĠNations": 6551,
      "Ġstations": 6552,
      "Ġpositions": 6553,
      "''": 6554,
      "Ġguys": 6555,
      "Ġmunicip": 6556,
      "adow": 6557,
      "ĠNight": 6558,
      "ãĥ": 6559,
      "inois": 6560,
      "Ġshift": 6561,
      "Ġremaining": 6562,
      "ĠJac": 6563,
      "onym": 6564,
      "opyright": 6565,
      "ĠNavy": 6566,
      "<!--": 6567,
      "Ġjur": 6568,
      "Ġtit": 6569,
      "Ġphoto": 6570,
      "namespace": 6571,
      "Ġremove": 6572,
      "Ġsmart": 6573,
      "df": 6574,
      "ĠPalest": 6575,
      "Ġcoal": 6576,
      "Ġappeal": 6577,
      "arters": 6578,
      "Ġpurchase": 6579,
      "urd": 6580,
      "oster": 6581,
      "Ġvehicles": 6582,
      "len": 6583,
      "ĠLatin": 6584,
      "Ġshut": 6585,
      "ĠSea": 6586,
      "ĠCA": 6587,
      "ĠSummer": 6588,
      "Ġmand": 6589,
      "ĠCoast": 6590,
      "iginal": 6591,
      "Ġsac": 6592,
      "iency": 6593,
      "args": 6594,
      "Attribute": 6595,
      "Ġtool": 6596,
      "Ġalbums": 6597,
      "ĠBoth": 6598,
      "ĠAnal": 6599,
      "ĠIP": 6600,
      "Ġlargely": 6601,
      "Ġreject": 6602,
      "egin": 6603,
      "Ġagric": 6604,
      "ls": 6605,
      "Ġchanging": 6606,
      "rees": 6607,
      "Ġperman": 6608,
      "ounded": 6609,
      "rehens": 6610,
      "Ġrevenue": 6611,
      "Ġobjects": 6612,
      "udden": 6613,
      "Ġauthors": 6614,
      "About": 6615,
      "Ġacting": 6616,
      "1983": 6617,
      "Ġoccurred": 6618,
      "Ġfit": 6619,
      "istration": 6620,
      "Will": 6621,
      "ĠFar": 6622,
      "draw": 6623,
      "amil": 6624,
      "kes": 6625,
      "Ġadvantage": 6626,
      "ĠAfghan": 6627,
      "Ġincorpor": 6628,
      "Ġacknow": 6629,
      "Ġur": 6630,
      "Ġprices": 6631,
      "kin": 6632,
      "Point": 6633,
      "ĠApple": 6634,
      "Ġment": 6635,
      "Ġdoctor": 6636,
      "ipped": 6637,
      "Ġprocesses": 6638,
      "ĠView": 6639,
      "Ear": 6640,
      "Ġfiled": 6641,
      "Ġcarbon": 6642,
      "Ġunion": 6643,
      "Ġrelationships": 6644,
      "prene": 6645,
      "Ġholding": 6646,
      "Ġvolunte": 6647,
      "Ġthrows": 6648,
      "Ġdecre": 6649,
      "iques": 6650,
      "Ġemployment": 6651,
      "ĠSaf": 6652,
      "IF": 6653,
      "Ġproducer": 6654,
      "ensity": 6655,
      "ĠFood": 6656,
      "tx": 6657,
      "phy": 6658,
      "elly": 6659,
      "ampion": 6660,
      "Ġdescription": 6661,
      "Ġregulations": 6662,
      "ĠMaster": 6663,
      "Ġtransition": 6664,
      "96": 6665,
      "Ġsuc": 6666,
      "Ġflight": 6667,
      "how": 6668,
      "Ġdebt": 6669,
      "creen": 6670,
      "reprene": 6671,
      "Ġperspective": 6672,
      "iary": 6673,
      "anger": 6674,
      "uls": 6675,
      "osen": 6676,
      "Token": 6677,
      "array": 6678,
      "Ġchannel": 6679,
      "odd": 6680,
      "ĠDie": 6681,
      "ĠColl": 6682,
      "ĠRam": 6683,
      "Ġbalance": 6684,
      "Ġprepared": 6685,
      "aped": 6686,
      "Ġwatching": 6687,
      "Sty": 6688,
      "last": 6689,
      "ĠTaylor": 6690,
      "Ġplants": 6691,
      "Link": 6692,
      "Ġdie": 6693,
      "RC": 6694,
      "Ġwilling": 6695,
      "SU": 6696,
      "Ġweather": 6697,
      "ĠRh": 6698,
      "vin": 6699,
      "Ġcombined": 6700,
      "Ġawards": 6701,
      "null": 6702,
      "ennis": 6703,
      "Instance": 6704,
      "1979": 6705,
      "mail": 6706,
      "Ġurban": 6707,
      "Ġuseful": 6708,
      "Ġadjust": 6709,
      "Ġfellow": 6710,
      "Ġsouthern": 6711,
      "ĠMid": 6712,
      "ĠWalk": 6713,
      "Options": 6714,
      "ellect": 6715,
      "Ġcharges": 6716,
      "ĠElizabeth": 6717,
      "Ġmonitor": 6718,
      "Ġrent": 6719,
      "doi": 6720,
      "ideos": 6721,
      "Ġvictims": 6722,
      "Ġdig": 6723,
      "Ġagent": 6724,
      "Ġafford": 6725,
      "Ġonto": 6726,
      "ali": 6727,
      "Ġreduced": 6728,
      "onic": 6729,
      "Ġbottom": 6730,
      "Ġminister": 6731,
      "ĠKong": 6732,
      "](": 6733,
      "Ġdefinitely": 6734,
      "ĠMinistry": 6735,
      "ugin": 6736,
      "\\\\\\\\\\\\\\\\\\\\\\\\\\\\\\\\\\\\\\\\\\\\\\\\\\\\\\\\\\\\\\\\": 6737,
      "ifications": 6738,
      "Car": 6739,
      "ĠĠĠĠĠĠĠĠĠĠĠĠĠĠĠĠĠ": 6740,
      "heast": 6741,
      "1982": 6742,
      "ĠFour": 6743,
      "ependence": 6744,
      "ĠHa": 6745,
      "flow": 6746,
      "ĠAud": 6747,
      "Ġthank": 6748,
      "Prov": 6749,
      "ockey": 6750,
      "ĠEach": 6751,
      "resents": 6752,
      "gener": 6753,
      "mir": 6754,
      "Ġhouses": 6755,
      "rich": 6756,
      "Ġextended": 6757,
      "ĠRadio": 6758,
      "Ġspending": 6759,
      "olec": 6760,
      "icted": 6761,
      "awa": 6762,
      "Ġspecifically": 6763,
      "ĠTal": 6764,
      "Ġstorage": 6765,
      "aked": 6766,
      "Ġearn": 6767,
      "However": 6768,
      "AME": 6769,
      "Ġteachers": 6770,
      "Ġserver": 6771,
      "ĠMP": 6772,
      "apore": 6773,
      "Ġlatter": 6774,
      "Ġrevolution": 6775,
      "ĠCommon": 6776,
      "Ġbomb": 6777,
      "Ġsucceed": 6778,
      "igrants": 6779,
      "ĠBroad": 6780,
      "agraph": 6781,
      "ĠGuard": 6782,
      "Ġbegins": 6783,
      "onav": 6784,
      "Ġmotor": 6785,
      "Ġcoverage": 6786,
      "Ġstarts": 6787,
      "utely": 6788,
      "ushed": 6789,
      "ifer": 6790,
      "Ġengineering": 6791,
      "expected": 6792,
      "ĠSoviet": 6793,
      "irds": 6794,
      "entry": 6795,
      "aser": 6796,
      "Ġaid": 6797,
      "Ġfundament": 6798,
      "iro": 6799,
      "BO": 6800,
      "isms": 6801,
      "Rel": 6802,
      "Ġplanned": 6803,
      "El": 6804,
      "SC": 6805,
      "âĢĻ.": 6806,
      "Ġfix": 6807,
      "ebug": 6808,
      "Ġproud": 6809,
      "Ġnice": 6810,
      "aded": 6811,
      "Null": 6812,
      "Ġextent": 6813,
      "Open": 6814,
      "Ġscored": 6815,
      "ĠRay": 6816,
      "Ġtermin": 6817,
      "dir": 6818,
      "target": 6819,
      "foot": 6820,
      "IST": 6821,
      "ĠAdministration": 6822,
      "Ġeducational": 6823,
      "Ġaccident": 6824,
      "Ġemergency": 6825,
      "Action": 6826,
      "ja": 6827,
      "Ġrecording": 6828,
      "Ġconvert": 6829,
      "ĠDar": 6830,
      "Ġveter": 6831,
      "ĠCub": 6832,
      "Ġallowing": 6833,
      "ĠJews": 6834,
      "Nav": 6835,
      "Ġinn": 6836,
      "Ġretail": 6837,
      "dep": 6838,
      "Ġadvanced": 6839,
      "ĠOxford": 6840,
      "Ġpromote": 6841,
      "Ġregistered": 6842,
      "Ġhandle": 6843,
      "Ġnorm": 6844,
      "Ġcommitment": 6845,
      "Ġmaximum": 6846,
      "((": 6847,
      "Ġscope": 6848,
      "ĠPennsylvania": 6849,
      "Ġanimal": 6850,
      "ione": 6851,
      "pack": 6852,
      "Ġscientists": 6853,
      "Ġrac": 6854,
      "Ġseasons": 6855,
      "Ġserves": 6856,
      "ĠEastern": 6857,
      "ĠSong": 6858,
      "Ġrelatively": 6859,
      "ĠLittle": 6860,
      "Ġhistoric": 6861,
      "Ġschedul": 6862,
      "ĠAdv": 6863,
      "Ġseat": 6864,
      "ĠLew": 6865,
      "HO": 6866,
      "Ġpowers": 6867,
      "ĠGirl": 6868,
      "Ġgranted": 6869,
      "iner": 6870,
      "ĠNone": 6871,
      "onto": 6872,
      "ĠPers": 6873,
      "Ġthanks": 6874,
      "Ġspons": 6875,
      "Ġpayment": 6876,
      "Ġleads": 6877,
      "Ġdrugs": 6878,
      "ogen": 6879,
      "ĠRo": 6880,
      "Ġunf": 6881,
      "Ġ;": 6882,
      "Ġentirely": 6883,
      "Ġactors": 6884,
      "Ġaspects": 6885,
      "iform": 6886,
      "water": 6887,
      "Ġarts": 6888,
      "Mr": 6889,
      "Ġassets": 6890,
      "Ġhyp": 6891,
      "Ġcampus": 6892,
      "erry": 6893,
      "car": 6894,
      "Ġprocessing": 6895,
      "acter": 6896,
      "ĠMah": 6897,
      "Ġhaven": 6898,
      "ĠPhys": 6899,
      "Ġnob": 6900,
      "Rem": 6901,
      "Ġinspired": 6902,
      "rig": 6903,
      "87": 6904,
      "Ġast": 6905,
      "ĠEth": 6906,
      "teen": 6907,
      "Ġboolean": 6908,
      "Gl": 6909,
      "Ġtheme": 6910,
      "ĠRun": 6911,
      "ãģ": 6912,
      "Ġposted": 6913,
      "Ġbringing": 6914,
      "aduate": 6915,
      "Ġfeat": 6916,
      "ĠOlympics": 6917,
      "Ġassistance": 6918,
      "Ġweekend": 6919,
      "1981": 6920,
      "Ġexception": 6921,
      "ĠViet": 6922,
      "ĠOp": 6923,
      "adding": 6924,
      "igin": 6925,
      "anguages": 6926,
      "93": 6927,
      "adelph": 6928,
      "Ġmode": 6929,
      "ĠAD": 6930,
      "ĠDub": 6931,
      "!âĢĿ": 6932,
      "LA": 6933,
      "ĠObject": 6934,
      "Ġdrama": 6935,
      "enger": 6936,
      "icide": 6937,
      "ĠBern": 6938,
      "mosp": 6939,
      "Ġfashion": 6940,
      "ĠMic": 6941,
      "Min": 6942,
      "FO": 6943,
      "ĠDonald": 6944,
      "etts": 6945,
      "Content": 6946,
      "ĠTem": 6947,
      "ĠĠĠĠĠĠĠĠĠĠĠĠĠĠĠĠĠĠĠĠĠĠĠĠĠĠĠĠĠĠĠ": 6948,
      "common": 6949,
      "ERT": 6950,
      "Ġtemperature": 6951,
      "abs": 6952,
      "Ġhelps": 6953,
      "ĠKim": 6954,
      "ordan": 6955,
      "lyn": 6956,
      "ART": 6957,
      "Ġemployee": 6958,
      "Ġmassive": 6959,
      "ested": 6960,
      ".'": 6961,
      "that": 6962,
      "then": 6963,
      "Ġgain": 6964,
      "ĠKent": 6965,
      "ĠIllinois": 6966,
      "Ġchapter": 6967,
      "Ġcloud": 6968,
      "Ġminimum": 6969,
      "84": 6970,
      "Ġtechnologies": 6971,
      "Ġobtained": 6972,
      "author": 6973,
      "?\"": 6974,
      "Ġnorthern": 6975,
      "rac": 6976,
      "eger": 6977,
      "elines": 6978,
      "oses": 6979,
      "oles": 6980,
      "Ġbrings": 6981,
      "Ġadding": 6982,
      "Ġpod": 6983,
      "Ġincident": 6984,
      "82": 6985,
      "ĠCorporation": 6986,
      "ĠRog": 6987,
      "Ġprimarily": 6988,
      "ĠWhe": 6989,
      "Ġspring": 6990,
      "cho": 6991,
      "Ġ\"\"\"": 6992,
      "ĠEmpire": 6993,
      "Ġbond": 6994,
      "Ġexplain": 6995,
      "iveness": 6996,
      "oding": 6997,
      "Ġvirus": 6998,
      "ĠMember": 6999,
      "Ġapart": 7000,
      "Ġbra": 7001,
      "Ġburn": 7002,
      "Ġdance": 7003,
      "ĠConf": 7004,
      "Ġvul": 7005,
      "PC": 7006,
      "prise": 7007,
      "Ġcontrovers": 7008,
      "Ġconstitution": 7009,
      "Ġtow": 7010,
      "gor": 7011,
      "adelphia": 7012,
      "Ġexercise": 7013,
      "friend": 7014,
      "Ġtreated": 7015,
      "appe": 7016,
      "usal": 7017,
      "idget": 7018,
      "ighter": 7019,
      "Ġvan": 7020,
      "iated": 7021,
      "Ġathlet": 7022,
      "Ġcauses": 7023,
      "Ġweapons": 7024,
      "Ġguide": 7025,
      "Ne": 7026,
      "Ġbul": 7027,
      "Ġdetail": 7028,
      "ĠSteve": 7029,
      "ira": 7030,
      "ĠSpring": 7031,
      "Ġvoc": 7032,
      "ĠColumbia": 7033,
      "ruption": 7034,
      "Ġinstrument": 7035,
      "ĠTw": 7036,
      "Block": 7037,
      "ĠPsych": 7038,
      "Ġaccord": 7039,
      "ĠCirc": 7040,
      "Ġclassic": 7041,
      "ĠSus": 7042,
      "Ġsyn": 7043,
      "ĠEqu": 7044,
      "overty": 7045,
      "aka": 7046,
      "Ġguess": 7047,
      "ologist": 7048,
      "rum": 7049,
      "Ġsleep": 7050,
      "arser": 7051,
      "ĠInit": 7052,
      "Ġfactor": 7053,
      "Ġsquare": 7054,
      "Ġrom": 7055,
      "ĠEdward": 7056,
      "Ġtaught": 7057,
      "Ġwidely": 7058,
      "ĠRom": 7059,
      "ĠReal": 7060,
      "Ġexpressed": 7061,
      "Ġexperts": 7062,
      "asters": 7063,
      "bb": 7064,
      "ĠWilson": 7065,
      "ĠSher": 7066,
      "ela": 7067,
      "Ġpublis": 7068,
      "Ġstructures": 7069,
      "Ġcold": 7070,
      "amber": 7071,
      "ĠLear": 7072,
      "Ġhighlight": 7073,
      "ĠWin": 7074,
      "Sec": 7075,
      "LC": 7076,
      "Ġsignificantly": 7077,
      "Ġrain": 7078,
      "{\\": 7079,
      "Ġbasketball": 7080,
      "Ġimplementation": 7081,
      "Ġseeking": 7082,
      "achus": 7083,
      "rical": 7084,
      "Handler": 7085,
      "ĠEX": 7086,
      "Ġdifferences": 7087,
      "ĠEngineering": 7088,
      "83": 7089,
      "Vis": 7090,
      "free": 7091,
      "Te": 7092,
      "acts": 7093,
      "Ġworldwide": 7094,
      "94": 7095,
      "onavirus": 7096,
      "Ġdiscl": 7097,
      "600": 7098,
      "jav": 7099,
      "Jan": 7100,
      "raine": 7101,
      "perties": 7102,
      "Ġcombination": 7103,
      "news": 7104,
      "shire": 7105,
      "Ġelim": 7106,
      "Ġcategory": 7107,
      "pha": 7108,
      "Ġrecover": 7109,
      "ĠFox": 7110,
      "Ġplot": 7111,
      "Number": 7112,
      "ĠPrem": 7113,
      "Ġacts": 7114,
      "Ġdollars": 7115,
      "ko": 7116,
      "Ġhundreds": 7117,
      "Ġconsc": 7118,
      "Ġbatt": 7119,
      "ĠCall": 7120,
      "Ġadopted": 7121,
      "Ġstress": 7122,
      "iki": 7123,
      "ĠStory": 7124,
      "ĠBra": 7125,
      "Ġpieces": 7126,
      "sey": 7127,
      "Ġreceiving": 7128,
      "Ġultimately": 7129,
      "Ġsoldiers": 7130,
      "Ġmargin": 7131,
      "Ġutil": 7132,
      "Ġdrop": 7133,
      "ĠWis": 7134,
      "ĠDC": 7135,
      "Ġextends": 7136,
      "Ġhotel": 7137,
      "Ġdangerous": 7138,
      "ears": 7139,
      "irement": 7140,
      "ĠBooks": 7141,
      "Access": 7142,
      "Ġpublication": 7143,
      "Ġdistinct": 7144,
      "rog": 7145,
      "91": 7146,
      "oute": 7147,
      "Ġvent": 7148,
      "1975": 7149,
      "Ġrepresents": 7150,
      "Ġcharged": 7151,
      "ĠBul": 7152,
      "agues": 7153,
      "ups": 7154,
      "ĠBeach": 7155,
      "Ġcustomer": 7156,
      "Ġrural": 7157,
      "Ġstudied": 7158,
      "istant": 7159,
      "hetic": 7160,
      "Ġguarant": 7161,
      "Ġjump": 7162,
      "Ġconversation": 7163,
      "1976": 7164,
      "Buffer": 7165,
      "button": 7166,
      "Ġcontemporary": 7167,
      "Ġlicense": 7168,
      "Just": 7169,
      "Ġgoods": 7170,
      "Here": 7171,
      "ĠCro": 7172,
      "isd": 7173,
      "pers": 7174,
      "ila": 7175,
      "rl": 7176,
      "evin": 7177,
      "iversary": 7178,
      "Ġicon": 7179,
      "holders": 7180,
      "\").": 7181,
      "Direct": 7182,
      "Ġunknown": 7183,
      "throp": 7184,
      "1972": 7185,
      "coh": 7186,
      "Ã¨": 7187,
      "Ġnomin": 7188,
      "Ġsuggested": 7189,
      "aks": 7190,
      "Ġadvent": 7191,
      "ceived": 7192,
      "era": 7193,
      "ename": 7194,
      "ĠPage": 7195,
      "ĠOnly": 7196,
      "Ġstanding": 7197,
      "1978": 7198,
      "cal": 7199,
      "ifies": 7200,
      "iments": 7201,
      "Ġwestern": 7202,
      "Ġmetal": 7203,
      "Ġcandidates": 7204,
      "write": 7205,
      "Ġevalu": 7206,
      "ĠCarl": 7207,
      "Ġnom": 7208,
      "Ġneighborhood": 7209,
      "Ġfiction": 7210,
      "ĠExper": 7211,
      "server": 7212,
      "height": 7213,
      "Ġexcellent": 7214,
      "src": 7215,
      "ĠForeign": 7216,
      "json": 7217,
      "ĠHong": 7218,
      "92": 7219,
      "ĠOfficer": 7220,
      "ishes": 7221,
      "ensation": 7222,
      "Ġdelivery": 7223,
      "ĠFair": 7224,
      "Ġven": 7225,
      "Ġrelative": 7226,
      "ĠAccess": 7227,
      "Exp": 7228,
      "Ġdefinition": 7229,
      "mal": 7230,
      "81": 7231,
      "Since": 7232,
      "Ġwinner": 7233,
      "Ġsolar": 7234,
      "Ġpal": 7235,
      "Ġaccompl": 7236,
      "unfinished": 7237,
      "Ġreporting": 7238,
      "Ġactress": 7239,
      "Ġintern": 7240,
      "oir": 7241,
      "achusetts": 7242,
      "Ġmort": 7243,
      "Ġbuff": 7244,
      "ĠSupport": 7245,
      "Ġtag": 7246,
      "\"),": 7247,
      "select": 7248,
      "Ġrefuge": 7249,
      "Ġarguments": 7250,
      "Ġvaccine": 7251,
      "Ġadults": 7252,
      "True": 7253,
      "Ġarrested": 7254,
      "1968": 7255,
      "ĠAffairs": 7256,
      "Ġsounds": 7257,
      "ĠGovernor": 7258,
      "ĠEnt": 7259,
      "Ġprogramme": 7260,
      "redit": 7261,
      "opher": 7262,
      "child": 7263,
      "Ġopposition": 7264,
      "ĠUse": 7265,
      "Ġfeels": 7266,
      "Ext": 7267,
      "ĠPhilipp": 7268,
      "Line": 7269,
      "Ġends": 7270,
      "ĠCat": 7271,
      "Ġtroops": 7272,
      "Ġtournament": 7273,
      "status": 7274,
      "uns": 7275,
      "Desc": 7276,
      "Ġfaculty": 7277,
      "Ġexamples": 7278,
      "Ġchemical": 7279,
      "Ġtypically": 7280,
      "Ġdownload": 7281,
      "har": 7282,
      "Ġfacts": 7283,
      "Ġ+=": 7284,
      "endar": 7285,
      "Ġcontrast": 7286,
      "Ġrespectively": 7287,
      "aret": 7288,
      "Ġgovernments": 7289,
      "Ġwaiting": 7290,
      "hemat": 7291,
      "Ġpanel": 7292,
      "Ġwarn": 7293,
      "Ġexistence": 7294,
      "ĠMajor": 7295,
      "only": 7296,
      "Ġspoke": 7297,
      "ĠHy": 7298,
      "Ġauto": 7299,
      "ses": 7300,
      "je": 7301,
      "aste": 7302,
      "Ġinitially": 7303,
      "Ġowners": 7304,
      "Ġalleg": 7305,
      "Ġaccounts": 7306,
      "Ġcamera": 7307,
      "option": 7308,
      "Ġlose": 7309,
      "ĠPass": 7310,
      "Ap": 7311,
      "Ġrender": 7312,
      "Ġacquired": 7313,
      "icking": 7314,
      "Ġsecure": 7315,
      "hop": 7316,
      "1974": 7317,
      "ĠTri": 7318,
      "ogy": 7319,
      "Ġdelay": 7320,
      "Ġevening": 7321,
      "Ġmainly": 7322,
      "aval": 7323,
      "ĠSchol": 7324,
      "Ġpair": 7325,
      "Mon": 7326,
      "pet": 7327,
      "Ġmillions": 7328,
      "night": 7329,
      "Page": 7330,
      "plete": 7331,
      "ĠAge": 7332,
      "1969": 7333,
      "Ġinternet": 7334,
      "Ġsole": 7335,
      "Ġbodies": 7336,
      "Ġsides": 7337,
      "inds": 7338,
      "Ġcourts": 7339,
      "merce": 7340,
      "append": 7341,
      "Ġphen": 7342,
      "Ġentitled": 7343,
      "ĠPen": 7344,
      "Ġresulting": 7345,
      "Factory": 7346,
      "ĠRod": 7347,
      "Ġweak": 7348,
      "Ġremov": 7349,
      "Dav": 7350,
      "ĠLive": 7351,
      "ĠSym": 7352,
      "Ġphase": 7353,
      "ĠAgain": 7354,
      "ĠTO": 7355,
      "ĠHollywood": 7356,
      "Ġenforcement": 7357,
      "Check": 7358,
      "ĠCur": 7359,
      "Ġparticipants": 7360,
      "igenous": 7361,
      "RI": 7362,
      "char": 7363,
      "ĠLabor": 7364,
      "vements": 7365,
      "Ġwinter": 7366,
      "Dec": 7367,
      "Ġprovision": 7368,
      "Ġchain": 7369,
      "Version": 7370,
      "Ġreaders": 7371,
      "profit": 7372,
      "Ġfamiliar": 7373,
      "REF": 7374,
      "irms": 7375,
      "PRO": 7376,
      "ĠBush": 7377,
      "1940": 7378,
      "ĠBBC": 7379,
      "stone": 7380,
      "250": 7381,
      "Ġcoordin": 7382,
      "Ġcerem": 7383,
      "Port": 7384,
      "header": 7385,
      "Ġglass": 7386,
      "Ġteen": 7387,
      "Ġobserved": 7388,
      "1973": 7389,
      "Ġplanet": 7390,
      "ĠRen": 7391,
      "orough": 7392,
      "ĠRon": 7393,
      "after": 7394,
      "Ġguard": 7395,
      "Ġduty": 7396,
      "Ġasking": 7397,
      "ĠDavis": 7398,
      "Ġleaves": 7399,
      "Ġalongside": 7400,
      "erg": 7401,
      "Ġyounger": 7402,
      "eft": 7403,
      "Äģ": 7404,
      "Ġfasc": 7405,
      "Ġsoul": 7406,
      "chen": 7407,
      "Ġdelivered": 7408,
      "1977": 7409,
      "pool": 7410,
      "ownt": 7411,
      "ĠCa": 7412,
      "ĠBell": 7413,
      "Fe": 7414,
      "Ġtwice": 7415,
      "Ġdescribe": 7416,
      "Ġchampionship": 7417,
      "Det": 7418,
      "sole": 7419,
      "ĠAction": 7420,
      "Ġmotion": 7421,
      "Ġcaught": 7422,
      "Ġhair": 7423,
      "Ġreviews": 7424,
      "Ġgraduate": 7425,
      "Ġsudden": 7426,
      "Ġregions": 7427,
      "({": 7428,
      "ads": 7429,
      "Ġlocations": 7430,
      "Ġongoing": 7431,
      "dl": 7432,
      "Ġcomedy": 7433,
      "ressive": 7434,
      "AV": 7435,
      "eper": 7436,
      "Ġvac": 7437,
      "CP": 7438,
      "800": 7439,
      "ĠPoint": 7440,
      "Men": 7441,
      "track": 7442,
      "Ġspeaking": 7443,
      "Med": 7444,
      "His": 7445,
      "Ġswitch": 7446,
      "Pub": 7447,
      "Ġtrees": 7448,
      "Ġgather": 7449,
      "ĠLight": 7450,
      "Ġhonest": 7451,
      "Ġnewspaper": 7452,
      "aints": 7453,
      "Ġsubsc": 7454,
      "Style": 7455,
      "Ġdeclared": 7456,
      "Tags": 7457,
      "Ġovers": 7458,
      "ĠCH": 7459,
      "itals": 7460,
      "ĠSingapore": 7461,
      "yers": 7462,
      "Ġisol": 7463,
      "Ġfinish": 7464,
      "Ġassociation": 7465,
      "nesota": 7466,
      "??": 7467,
      "Ġflood": 7468,
      "ĠBattle": 7469,
      "Ġkeeping": 7470,
      "Ġrisks": 7471,
      "Ġshooting": 7472,
      "Ġexpos": 7473,
      "Ġmixed": 7474,
      "sex": 7475,
      "ĠStephen": 7476,
      "ORT": 7477,
      "endif": 7478,
      "Ġputting": 7479,
      "Ġprovisions": 7480,
      "Ġinterface": 7481,
      "Ġindeed": 7482,
      "ĠLuc": 7483,
      "ificate": 7484,
      "fortunately": 7485,
      "rency": 7486,
      "inity": 7487,
      "king": 7488,
      "ipping": 7489,
      "ĠTH": 7490,
      "ĠThree": 7491,
      "andy": 7492,
      "1930": 7493,
      "Ġforth": 7494,
      "Default": 7495,
      "inst": 7496,
      "ĠRegister": 7497,
      "ellectual": 7498,
      "Ġ{@": 7499,
      "1971": 7500,
      "Cal": 7501,
      "othe": 7502,
      "Ġpool": 7503,
      "ĠRome": 7504,
      "Ġgar": 7505,
      "taining": 7506,
      "Ġsharing": 7507,
      "ĠMuslim": 7508,
      "missions": 7509,
      "Ġfish": 7510,
      "ĠSon": 7511,
      "KE": 7512,
      "ĠBang": 7513,
      "AND": 7514,
      "Resource": 7515,
      "bro": 7516,
      "Ġincreasingly": 7517,
      "Ġfinds": 7518,
      "lements": 7519,
      "Ġroot": 7520,
      "ĉĊ": 7521,
      "Ġnations": 7522,
      "ĠMethod": 7523,
      "ĠWars": 7524,
      "Sim": 7525,
      "png": 7526,
      "Ġrecognition": 7527,
      "ouston": 7528,
      "Ġmanage": 7529,
      "ĠIT": 7530,
      "ĠThrough": 7531,
      "support": 7532,
      "Ġportion": 7533,
      "Sm": 7534,
      "olis": 7535,
      "zona": 7536,
      "120": 7537,
      "Ġupper": 7538,
      "Ġprinciples": 7539,
      "ĠCov": 7540,
      "essions": 7541,
      "LS": 7542,
      "anna": 7543,
      "ĠĠĠĠĠĠĠĠĊ": 7544,
      "uts": 7545,
      "ĠWhere": 7546,
      "Ġadult": 7547,
      "ĠCorn": 7548,
      "mann": 7549,
      "ether": 7550,
      "Ġintent": 7551,
      "person": 7552,
      "Ġplus": 7553,
      "Ã³n": 7554,
      "ESS": 7555,
      "Ġrecip": 7556,
      "Ġresolution": 7557,
      "Ġpra": 7558,
      "Ġtwenty": 7559,
      "Ġconsumer": 7560,
      "ician": 7561,
      "Ġdiverse": 7562,
      "Well": 7563,
      "Ġflag": 7564,
      "Ġstorm": 7565,
      "Ġcorner": 7566,
      "ĠBal": 7567,
      "Ġbg": 7568,
      "Ġunable": 7569,
      "ptr": 7570,
      "ĠArticle": 7571,
      "ĠDisc": 7572,
      "ĠRepresent": 7573,
      "Ġsoci": 7574,
      "Ġtracks": 7575,
      "ĠPhiladelphia": 7576,
      "ABLE": 7577,
      "obs": 7578,
      "ova": 7579,
      "eman": 7580,
      "ĠMassachusetts": 7581,
      "Ġrepeated": 7582,
      "lines": 7583,
      "ĠAgency": 7584,
      "Ġsurg": 7585,
      "DP": 7586,
      "ĠRevolution": 7587,
      "Ġwat": 7588,
      "Ġhumans": 7589,
      "Mark": 7590,
      "ĠGener": 7591,
      "Ġsuggests": 7592,
      "Ġturns": 7593,
      "Ġcollected": 7594,
      "weight": 7595,
      "Ġlies": 7596,
      "Ġbehavi": 7597,
      "Ġrandom": 7598,
      "ĠUr": 7599,
      "Ġsurrounding": 7600,
      "Ġbridge": 7601,
      "Ġvulner": 7602,
      "Ġtelling": 7603,
      "unting": 7604,
      "Ġheav": 7605,
      "Ġemissions": 7606,
      "Ġpossibly": 7607,
      "Ġheat": 7608,
      "Ġbelieves": 7609,
      "iration": 7610,
      "xml": 7611,
      "Current": 7612,
      "ĠGree": 7613,
      "ĠCapt": 7614,
      "yo": 7615,
      "ĠImm": 7616,
      "property": 7617,
      "push": 7618,
      "Ġordered": 7619,
      "Component": 7620,
      "'.": 7621,
      "enda": 7622,
      "isher": 7623,
      "Ġstopped": 7624,
      "service": 7625,
      "ĠMain": 7626,
      "ĠVice": 7627,
      "ĠOR": 7628,
      "Ġcolle": 7629,
      "1967": 7630,
      "Ġsympt": 7631,
      "Ġframe": 7632,
      "Ġdiscussed": 7633,
      "ĠHand": 7634,
      "Ġslightly": 7635,
      "Ġworse": 7636,
      "Ġaccused": 7637,
      "enant": 7638,
      "ima": 7639,
      "ĠCambridge": 7640,
      "private": 7641,
      "Ġoccasion": 7642,
      "Ġcollaboration": 7643,
      "lers": 7644,
      "Ġvast": 7645,
      "Ġchosen": 7646,
      "ulpt": 7647,
      "Ġelig": 7648,
      "sg": 7649,
      "Ġbreat": 7650,
      "bell": 7651,
      "uable": 7652,
      "ĠNon": 7653,
      "rehensive": 7654,
      "ĠRight": 7655,
      "AF": 7656,
      "ĠVill": 7657,
      "erves": 7658,
      "ĠAnother": 7659,
      "spec": 7660,
      "Pat": 7661,
      "Ġenjoyed": 7662,
      "format": 7663,
      "ĠNaz": 7664,
      "ĠLo": 7665,
      "img": 7666,
      "Let": 7667,
      "Ġatmosp": 7668,
      "Ġexpansion": 7669,
      "pson": 7670,
      "Ġiron": 7671,
      "BU": 7672,
      "Ġpersonnel": 7673,
      "outs": 7674,
      "Ġcomponent": 7675,
      "ĠEst": 7676,
      "Ġstruggle": 7677,
      "ĠLi": 7678,
      "Ġphotograph": 7679,
      "Ġcas": 7680,
      "thur": 7681,
      "Ġton": 7682,
      "Ġarms": 7683,
      "Ġdecide": 7684,
      "ĠToronto": 7685,
      "Ġachieved": 7686,
      "Ġexplore": 7687,
      "Ġdipl": 7688,
      "MO": 7689,
      "Ġphotos": 7690,
      "Ġattorney": 7691,
      "ALL": 7692,
      "reement": 7693,
      "gle": 7694,
      "ĠLead": 7695,
      "elete": 7696,
      "Create": 7697,
      "Ġfounder": 7698,
      "Ġfilter": 7699,
      "Ġedge": 7700,
      "ĠAR": 7701,
      "ĠEconomic": 7702,
      "Ġtalks": 7703,
      "Ġapproval": 7704,
      "ĠHom": 7705,
      "ĠBiden": 7706,
      "Ġremark": 7707,
      "Ġscheme": 7708,
      "Ġce": 7709,
      "Ġarchitecture": 7710,
      "Ġprofile": 7711,
      "Load": 7712,
      "ĠLine": 7713,
      "Ġpoliticians": 7714,
      "1000": 7715,
      "ĠIslamic": 7716,
      "TA": 7717,
      "ĠControl": 7718,
      "Ġtun": 7719,
      "worth": 7720,
      "des": 7721,
      "ãĤ": 7722,
      "ennes": 7723,
      "ĠMir": 7724,
      "alty": 7725,
      "Ġpit": 7726,
      "ĠMarg": 7727,
      "Ġempty": 7728,
      "Ġforg": 7729,
      "1945": 7730,
      "ĠDE": 7731,
      "ĠNC": 7732,
      "imer": 7733,
      "Ġshock": 7734,
      "ĠFord": 7735,
      "rypt": 7736,
      "ĠMA": 7737,
      "IB": 7738,
      "ĠColorado": 7739,
      "quir": 7740,
      "Ġbought": 7741,
      "Ġrough": 7742,
      "Ġepisodes": 7743,
      "Ġsuccessfully": 7744,
      "Ġimproved": 7745,
      "ĠAsh": 7746,
      "Ġvirt": 7747,
      "ĠÂ§": 7748,
      "Ġmatches": 7749,
      "ĠHarry": 7750,
      "apes": 7751,
      "gov": 7752,
      "ĠType": 7753,
      "ĠGi": 7754,
      "omic": 7755,
      "ĠTax": 7756,
      "Book": 7757,
      "Cons": 7758,
      "Ġpassing": 7759,
      "Every": 7760,
      "Ġsufficient": 7761,
      "Ġsuffered": 7762,
      "Ġsought": 7763,
      "Ġbanks": 7764,
      "Ġeasier": 7765,
      "Ġassessment": 7766,
      "aska": 7767,
      "ĠCountry": 7768,
      "Ġretired": 7769,
      "ocated": 7770,
      "Ġstands": 7771,
      "ederation": 7772,
      "Ġmel": 7773,
      "Ġassault": 7774,
      "othes": 7775,
      "hema": 7776,
      "dates": 7777,
      "atalog": 7778,
      "ĠHu": 7779,
      "itarian": 7780,
      "ĠFinancial": 7781,
      "Ġparticipate": 7782,
      "Ġobtain": 7783,
      "Ġtalent": 7784,
      "ĠLicense": 7785,
      "Ġorganized": 7786,
      "ĠFurther": 7787,
      "Ġfilled": 7788,
      "Ġsymbol": 7789,
      "owa": 7790,
      "Ġ((": 7791,
      "bal": 7792,
      "ĠJean": 7793,
      "Ġinvestors": 7794,
      "Ke": 7795,
      "ĠUnivers": 7796,
      "Ġfifth": 7797,
      "project": 7798,
      "Ġdiscrim": 7799,
      "Ġkilling": 7800,
      "ĠHard": 7801,
      "Ġarrang": 7802,
      "Ġstrategic": 7803,
      "ĠNic": 7804,
      "Ġdetailed": 7805,
      "})": 7806,
      "////////////////": 7807,
      "1920": 7808,
      "Ġadvis": 7809,
      "ĠSeason": 7810,
      "ĠMicrosoft": 7811,
      "ĠLtd": 7812,
      "Address": 7813,
      "isl": 7814,
      "element": 7815,
      "ĠAlexander": 7816,
      "Ġextensive": 7817,
      "rine": 7818,
      "ocratic": 7819,
      "Format": 7820,
      "otes": 7821,
      "Ġfavour": 7822,
      "scale": 7823,
      "uality": 7824,
      "Ġworst": 7825,
      "Ġorders": 7826,
      "Ġupdated": 7827,
      "process": 7828,
      "ĠYes": 7829,
      "ĠĠĠĠĠĠĠĠĠĠĠĠĠĠ": 7830,
      "ĠAlbert": 7831,
      "Ġhealthy": 7832,
      "Ġrelation": 7833,
      "Ġletters": 7834,
      "Aut": 7835,
      "Ġlosing": 7836,
      "Dep": 7837,
      "undle": 7838,
      "Ġending": 7839,
      "Ġpregn": 7840,
      "(&": 7841,
      "Ġwelcome": 7842,
      "ĠEric": 7843,
      "wing": 7844,
      "umes": 7845,
      "ĠArea": 7846,
      "writer": 7847,
      "ĠSanta": 7848,
      "Ġskin": 7849,
      "pop": 7850,
      "Ġreasonable": 7851,
      "Ġcart": 7852,
      "ĠGuide": 7853,
      "perial": 7854,
      "Ġclosely": 7855,
      "ibilities": 7856,
      "ivacy": 7857,
      "inating": 7858,
      "Two": 7859,
      "Ġhappening": 7860,
      "py": 7861,
      "btn": 7862,
      "ortion": 7863,
      "ĠChild": 7864,
      "ĠVictoria": 7865,
      "found": 7866,
      "Ġevolution": 7867,
      "Ġanaly": 7868,
      "Ġpossibility": 7869,
      "*/": 7870,
      "ĠAvenue": 7871,
      "itory": 7872,
      "fa": 7873,
      "Ġengaged": 7874,
      "ĠThose": 7875,
      ">>": 7876,
      "Ġbatter": 7877,
      "ĠSat": 7878,
      "Ġenable": 7879,
      "ĠAli": 7880,
      "ĠThus": 7881,
      "Ġexcited": 7882,
      "ĠTurkey": 7883,
      "Ġtopic": 7884,
      "Nov": 7885,
      "mont": 7886,
      "Ġoblig": 7887,
      "uma": 7888,
      "local": 7889,
      "Are": 7890,
      "Any": 7891,
      "isa": 7892,
      "Ġterritory": 7893,
      "UI": 7894,
      "Ġcontaining": 7895,
      "older": 7896,
      "________": 7897,
      "Ġstreets": 7898,
      "ras": 7899,
      "Ġentity": 7900,
      "ĠProte": 7901,
      "Ġscheduled": 7902,
      "Ġmoral": 7903,
      "lets": 7904,
      "ĠEs": 7905,
      "ifest": 7906,
      "Ġsevere": 7907,
      "Ġthoughts": 7908,
      "jection": 7909,
      "ĠDigital": 7910,
      "Ġvictim": 7911,
      "pol": 7912,
      "ĠSa": 7913,
      "Ġfeaturing": 7914,
      "ocus": 7915,
      "National": 7916,
      "ĠCre": 7917,
      "Ġillegal": 7918,
      "Ġbgcolor": 7919,
      "ilton": 7920,
      "VER": 7921,
      "inations": 7922,
      "ĠBa": 7923,
      "SON": 7924,
      "Ġdismiss": 7925,
      "ĠOnce": 7926,
      "à¥": 7927,
      "Ġfacing": 7928,
      "Ġvideos": 7929,
      "ĠLewis": 7930,
      "Ġselling": 7931,
      "gate": 7932,
      "Ð»": 7933,
      "render": 7934,
      "Ġabandon": 7935,
      "Ġexists": 7936,
      "Ġoptim": 7937,
      "oln": 7938,
      "Ġmodule": 7939,
      "Equals": 7940,
      "Ġvisitors": 7941,
      "apse": 7942,
      "tenance": 7943,
      "apped": 7944,
      "Ġemotional": 7945,
      "ĠStock": 7946,
      "Ġmedicine": 7947,
      "ĠPhoto": 7948,
      "Ġapplicable": 7949,
      "Ġperformances": 7950,
      "%.": 7951,
      "hr": 7952,
      "Ġimpossible": 7953,
      "Function": 7954,
      "appoint": 7955,
      "Ġexhibition": 7956,
      "[\"": 7957,
      "Ġdatabase": 7958,
      "PM": 7959,
      "Ġrot": 7960,
      "Ġinnovation": 7961,
      "Christ": 7962,
      "Ġbaby": 7963,
      "arry": 7964,
      "Ġelectronic": 7965,
      "ĠNFL": 7966,
      "Ġinvolving": 7967,
      "omet": 7968,
      "ĠStaff": 7969,
      "Ġundert": 7970,
      "Ġgall": 7971,
      "Ġnetworks": 7972,
      "Ġdesire": 7973,
      "1964": 7974,
      "Ġvisited": 7975,
      "pes": 7976,
      "Ġnewly": 7977,
      "Ġfixed": 7978,
      "Ġlanguages": 7979,
      "ĠPu": 7980,
      "Ġsigns": 7981,
      "ĠMinnesota": 7982,
      "find": 7983,
      "INE": 7984,
      "iley": 7985,
      "Ġfrequently": 7986,
      "Ġlie": 7987,
      "Ġjurisd": 7988,
      "Ac": 7989,
      "Tube": 7990,
      "font": 7991,
      "grade": 7992,
      "ĠDaily": 7993,
      "ĠMill": 7994,
      "Ġprove": 7995,
      "Ġbroken": 7996,
      "Ã§": 7997,
      "Ġboys": 7998,
      "ĠBudd": 7999,
      "ĠLocal": 8000,
      "Command": 8001,
      "Ġdepth": 8002,
      "Ġdiversity": 8003,
      "ĠCapital": 8004,
      "ĠNS": 8005,
      "ĠOlympic": 8006,
      "Ġteach": 8007,
      "ez": 8008,
      "ĠNOT": 8009,
      "Ġscenes": 8010,
      "Ġchart": 8011,
      "ensed": 8012,
      "ĠCheck": 8013,
      "Ġdropped": 8014,
      "ĠBefore": 8015,
      "ĠPrize": 8016,
      "spe": 8017,
      "Ġtitles": 8018,
      "ĠCost": 8019,
      "Max": 8020,
      "ydney": 8021,
      "ĠOnt": 8022,
      "mt": 8023,
      "Fin": 8024,
      "1965": 8025,
      "bottom": 8026,
      "Output": 8027,
      "Ġabsolutely": 8028,
      "~~": 8029,
      "Ġassistant": 8030,
      "Ġnearby": 8031,
      "Ġhall": 8032,
      "organ": 8033,
      "Ġformal": 8034,
      "ĠKnow": 8035,
      "ĠFac": 8036,
      "Although": 8037,
      "Ġships": 8038,
      "ĉĠĠĠ": 8039,
      "Oh": 8040,
      "ĠBrother": 8041,
      "Tra": 8042,
      "fall": 8043,
      "Ġunderst": 8044,
      "Ġlinked": 8045,
      "ĠHay": 8046,
      "Ġcro": 8047,
      "Ġmarked": 8048,
      "imental": 8049,
      "Ġpackage": 8050,
      "Ġcab": 8051,
      "Ġreput": 8052,
      "Ġexceed": 8053,
      "ĠAfghanistan": 8054,
      "ĠDespite": 8055,
      "ureau": 8056,
      "PL": 8057,
      "SH": 8058,
      "ĠMiller": 8059,
      "Task": 8060,
      "Photo": 8061,
      "Ġreli": 8062,
      "det": 8063,
      "Ġalumni": 8064,
      "Ġbehalf": 8065,
      "language": 8066,
      "Ġpoverty": 8067,
      "ĠDemocrats": 8068,
      "ĠBru": 8069,
      "Ġmir": 8070,
      "World": 8071,
      "Spec": 8072,
      "Ġreaction": 8073,
      "ilty": 8074,
      "inate": 8075,
      "ooth": 8076,
      "ĠDutch": 8077,
      "ĠCle": 8078,
      "nections": 8079,
      "ĠPortug": 8080,
      "wa": 8081,
      "ĠBerlin": 8082,
      "Ġsupports": 8083,
      "Box": 8084,
      "IZ": 8085,
      "Ġcomponents": 8086,
      "Ġbaseball": 8087,
      "Ġcontributions": 8088,
      "aug": 8089,
      "Ġgenerated": 8090,
      "ĠMarket": 8091,
      "ĠIsraeli": 8092,
      "Ġprohib": 8093,
      "ĉĉĉĉĉĉĉĉ": 8094,
      "achelor": 8095,
      "ĠFile": 8096,
      "Ġgift": 8097,
      "pton": 8098,
      "crete": 8099,
      "oded": 8100,
      "Ġpermanent": 8101,
      "pub": 8102,
      "Ġequival": 8103,
      "Ġped": 8104,
      "aration": 8105,
      "Ġeat": 8106,
      "ĠBon": 8107,
      "Ġdistributed": 8108,
      "ĠBrad": 8109,
      "%,": 8110,
      "Ġrecovery": 8111,
      "âĢī": 8112,
      "ĠRef": 8113,
      "Ġswe": 8114,
      "Ġbranch": 8115,
      "thony": 8116,
      "ilms": 8117,
      "ĠStation": 8118,
      "making": 8119,
      "});": 8120,
      "ĠDisney": 8121,
      "Pres": 8122,
      "km": 8123,
      "ĠHoly": 8124,
      "Ġtransaction": 8125,
      "ĠPerform": 8126,
      "cohol": 8127,
      "Ġattempts": 8128,
      "Ġsustainable": 8129,
      "ĠVen": 8130,
      "Ġexplains": 8131,
      "Ġstrike": 8132,
      "Ġsolo": 8133,
      "ribed": 8134,
      "Ġmeetings": 8135,
      "roke": 8136,
      "Ġextension": 8137,
      "show": 8138,
      "ĠAdam": 8139,
      "NO": 8140,
      "agan": 8141,
      "ĠHT": 8142,
      "awn": 8143,
      "ĠInstead": 8144,
      "Ġadministrative": 8145,
      "Ġhealthcare": 8146,
      "Ġconfidence": 8147,
      "Ġresulted": 8148,
      "Ġmedal": 8149,
      "Ġcloser": 8150,
      "osa": 8151,
      "raged": 8152,
      "Ġdestroyed": 8153,
      "Ġconsists": 8154,
      "Ġ]": 8155,
      "Ġmotiv": 8156,
      "igious": 8157,
      "consin": 8158,
      "Ġsample": 8159,
      "Ġflex": 8160,
      "Ġexternal": 8161,
      "isition": 8162,
      "number": 8163,
      "Ġdetect": 8164,
      "Ġyards": 8165,
      "Ġconstant": 8166,
      "Ġkick": 8167,
      "ĠOtt": 8168,
      "ĠPhot": 8169,
      "ĠArizona": 8170,
      "Ġfundamental": 8171,
      "gorith": 8172,
      "Ġaccordance": 8173,
      "iy": 8174,
      "Ġmil": 8175,
      "module": 8176,
      "Ġsubsid": 8177,
      "uan": 8178,
      "Ġentreprene": 8179,
      "Ġcontained": 8180,
      "ĠWat": 8181,
      "Ġvotes": 8182,
      "Ġresc": 8183,
      "ĠNick": 8184,
      "ĠChange": 8185,
      "Ġsad": 8186,
      "Ġframework": 8187,
      "Ġdiscipl": 8188,
      "HL": 8189,
      "ĠScottish": 8190,
      "pc": 8191,
      "ictionary": 8192,
      "meta": 8193,
      "Ġeffectively": 8194,
      "Mat": 8195,
      "Ġwonderful": 8196,
      "Ġfindings": 8197,
      "ĠCulture": 8198,
      "Ġpercentage": 8199,
      "ĠâĢĻ": 8200,
      "Ġinfo": 8201,
      "ĠLady": 8202,
      "FONT": 8203,
      "Ġlegend": 8204,
      "Ġprincipal": 8205,
      "Ġcounsel": 8206,
      "aml": 8207,
      "including": 8208,
      "Ġfont": 8209,
      "ĠPrinc": 8210,
      "ayers": 8211,
      "Ġtechniques": 8212,
      "Ġdemocracy": 8213,
      "aly": 8214,
      "PO": 8215,
      "Ġstrict": 8216,
      "Ġsettlement": 8217,
      "Ġproposal": 8218,
      "isted": 8219,
      "akh": 8220,
      "Ġgod": 8221,
      "ĠModern": 8222,
      "Ġuncertain": 8223,
      "ĠMarsh": 8224,
      "ĠRest": 8225,
      "Ġodd": 8226,
      "Ġdialog": 8227,
      ".;": 8228,
      "Filter": 8229,
      "Ġsplit": 8230,
      "ĠUt": 8231,
      "lik": 8232,
      "Ġrelief": 8233,
      "Ġmanufacturing": 8234,
      "ĠHouston": 8235,
      "Ġperforming": 8236,
      "Ġthread": 8237,
      "front": 8238,
      "ingham": 8239,
      "ĠTy": 8240,
      "Ġfee": 8241,
      "Ĥ¬": 8242,
      "Ġconsequences": 8243,
      "Ev": 8244,
      "bel": 8245,
      "ĠBad": 8246,
      "Ġseconds": 8247,
      "ĠForest": 8248,
      "Ġalter": 8249,
      "aya": 8250,
      "Ġfaced": 8251,
      "Ġresistance": 8252,
      "Ġvice": 8253,
      "Ġfacilit": 8254,
      "Aust": 8255,
      "Ġring": 8256,
      "Work": 8257,
      "ĠDate": 8258,
      "Length": 8259,
      "fol": 8260,
      "cers": 8261,
      "ĠBand": 8262,
      "Ġwaste": 8263,
      "igure": 8264,
      "Ġfoundation": 8265,
      "onia": 8266,
      "Ġpresidential": 8267,
      "Ġcraft": 8268,
      "Ġvo": 8269,
      "Previous": 8270,
      "Ġliqu": 8271,
      "enter": 8272,
      "ĠLook": 8273,
      "${": 8274,
      "1966": 8275,
      "Another": 8276,
      "ints": 8277,
      "ĠDefense": 8278,
      "hav": 8279,
      "David": 8280,
      "herlands": 8281,
      "ello": 8282,
      "nal": 8283,
      "Ġfestival": 8284,
      "ERR": 8285,
      "Ġefficient": 8286,
      "Ġroy": 8287,
      "Ġrepresentation": 8288,
      "ĠSign": 8289,
      "regon": 8290,
      "ĠClinton": 8291,
      "Ġdocumentary": 8292,
      "etch": 8293,
      "icians": 8294,
      "OK": 8295,
      "Gr": 8296,
      "ĠGolden": 8297,
      "ĠAk": 8298,
      "ĠTro": 8299,
      "ĠLy": 8300,
      "Ġwrites": 8301,
      "Str": 8302,
      "Ġconfirm": 8303,
      "Ġque": 8304,
      "Ġoffset": 8305,
      "iously": 8306,
      "iable": 8307,
      "Ġelev": 8308,
      "navbar": 8309,
      "ĠSyria": 8310,
      "Ġminute": 8311,
      "Ġlect": 8312,
      "ais": 8313,
      "Ġvoters": 8314,
      "Ġexciting": 8315,
      "Ġschedule": 8316,
      "called": 8317,
      "ĠMemorial": 8318,
      "bles": 8319,
      "Many": 8320,
      "Ġprivacy": 8321,
      "Ġ(âĢľ": 8322,
      "Ġcapable": 8323,
      "_.": 8324,
      "Ġlawyer": 8325,
      "Ġrh": 8326,
      "Ġtrib": 8327,
      "cerning": 8328,
      "description": 8329,
      "Ġconsent": 8330,
      "ĠPlease": 8331,
      "Ġgrown": 8332,
      "Ðº": 8333,
      "Ġphilosophy": 8334,
      ":\"": 8335,
      "Ġregime": 8336,
      "iami": 8337,
      "Ġmountain": 8338,
      "Ġexpanded": 8339,
      "ĠMagazine": 8340,
      "Ġtack": 8341,
      "Ġtom": 8342,
      "VD": 8343,
      "Ġbow": 8344,
      "response": 8345,
      "Ġtaxes": 8346,
      "ouri": 8347,
      "Ġsnow": 8348,
      "Ġrepresentative": 8349,
      "ĠRyan": 8350,
      "Ġurl": 8351,
      "Ġvoting": 8352,
      "rance": 8353,
      "ogether": 8354,
      "Ġmoments": 8355,
      "Ġassign": 8356,
      "Ġexplan": 8357,
      "acle": 8358,
      "URL": 8359,
      "CON": 8360,
      "cs": 8361,
      "Ġvess": 8362,
      "oking": 8363,
      "incoln": 8364,
      "update": 8365,
      "ĠDam": 8366,
      "Ġaccommod": 8367,
      "Ġconsidering": 8368,
      "aria": 8369,
      "âĨ": 8370,
      "urches": 8371,
      "Ġparagraph": 8372,
      "Ġfill": 8373,
      "orne": 8374,
      "Ġfees": 8375,
      "ĠOnline": 8376,
      "Ġfranch": 8377,
      "Ġreturning": 8378,
      "Ġcontinuing": 8379,
      "Ġsitting": 8380,
      "tag": 8381,
      "âĢ¦âĢ¦": 8382,
      "ĠKorean": 8383,
      "bass": 8384,
      "MM": 8385,
      "Most": 8386,
      "Ġpure": 8387,
      "Ġdegrees": 8388,
      "occer": 8389,
      "Ġsuit": 8390,
      "Author": 8391,
      "afe": 8392,
      "rell": 8393,
      "Controller": 8394,
      "Ġoppos": 8395,
      "ffee": 8396,
      "................................": 8397,
      "ito": 8398,
      "Ġprovince": 8399,
      "Ġstone": 8400,
      "Ġversions": 8401,
      "Ġà¤": 8402,
      "essed": 8403,
      "ĠPay": 8404,
      "Ġimmediate": 8405,
      "xi": 8406,
      "Ġremote": 8407,
      "ĠSab": 8408,
      "ĠBrian": 8409,
      "ĠAh": 8410,
      "ĠArm": 8411,
      "world": 8412,
      "exp": 8413,
      "Ġfrag": 8414,
      "Ġsuspect": 8415,
      "ttp": 8416,
      "Sl": 8417,
      "ĠJordan": 8418,
      "eld": 8419,
      "aintiff": 8420,
      "DF": 8421,
      "anes": 8422,
      "aron": 8423,
      "Ġloan": 8424,
      "ĠTurn": 8425,
      "abet": 8426,
      "makers": 8427,
      "anny": 8428,
      "Ġcombat": 8429,
      "){": 8430,
      "Ġexport": 8431,
      "Ġprovider": 8432,
      "Ġparticipation": 8433,
      "110": 8434,
      "Ġcrimes": 8435,
      "Mode": 8436,
      "Ġrepro": 8437,
      "\"]": 8438,
      "mic": 8439,
      "Ġuniversities": 8440,
      "Ġcontrolled": 8441,
      "una": 8442,
      "uties": 8443,
      "ĠBol": 8444,
      "Ġcycle": 8445,
      "Ġzero": 8446,
      "audi": 8447,
      "Ġbroke": 8448,
      "ĠBall": 8449,
      "Ġruling": 8450,
      "Ġcourses": 8451,
      "Ġoperate": 8452,
      "ĠNig": 8453,
      "Ġcovers": 8454,
      "named": 8455,
      "Ġoperated": 8456,
      "Ġsecondary": 8457,
      "///": 8458,
      "Ġpilot": 8459,
      "RS": 8460,
      "Ġconfident": 8461,
      "osure": 8462,
      "Ġconsistent": 8463,
      "Ġsynt": 8464,
      "Ġsentence": 8465,
      "PP": 8466,
      "Select": 8467,
      "ĠMap": 8468,
      "Ġri": 8469,
      "Ġmedium": 8470,
      "ĠChem": 8471,
      "Ġadvertising": 8472,
      "star": 8473,
      "irk": 8474,
      "Ġstores": 8475,
      "ĠIslands": 8476,
      "Ġofficially": 8477,
      "ĠJenn": 8478,
      "Update": 8479,
      "ĠDuke": 8480,
      "Lab": 8481,
      "Ġwal": 8482,
      "Ġagents": 8483,
      "Inst": 8484,
      "Ġsettings": 8485,
      "Ġclick": 8486,
      "ricts": 8487,
      "Ġdirectors": 8488,
      "ĠGallery": 8489,
      "1963": 8490,
      "Ġnarrative": 8491,
      "nce": 8492,
      "Ġoffices": 8493,
      "Ġchair": 8494,
      "Ġcinem": 8495,
      "people": 8496,
      "Ġphenomen": 8497,
      "ĠUkraine": 8498,
      "Ġmob": 8499,
      "ĠClin": 8500,
      "Ġdivided": 8501,
      "ĠCru": 8502,
      "olid": 8503,
      "ĠSenior": 8504,
      "anchester": 8505,
      "Ġjoining": 8506,
      "Ġlandscape": 8507,
      "Ġourselves": 8508,
      "aza": 8509,
      "ĠCase": 8510,
      "heet": 8511,
      "ĠBuilding": 8512,
      "ĠKey": 8513,
      "ĠEvent": 8514,
      "Ġdomain": 8515,
      "Ġexperiment": 8516,
      "Ġgained": 8517,
      "Ġpictures": 8518,
      "ĠLabour": 8519,
      "Ġescape": 8520,
      "container": 8521,
      "Case": 8522,
      "Ġclubs": 8523,
      "quarters": 8524,
      "rane": 8525,
      "Ġstood": 8526,
      "boy": 8527,
      "Ġwalking": 8528,
      "Ġsymptoms": 8529,
      "ĠAtlantic": 8530,
      "ĠDead": 8531,
      "ĠÂ·": 8532,
      "Ġneither": 8533,
      "present": 8534,
      "Ġopposed": 8535,
      "kind": 8536,
      "Ġsignal": 8537,
      "angle": 8538,
      "ĠImp": 8539,
      "ĠLes": 8540,
      "ĠKat": 8541,
      "ĠKansas": 8542,
      "Ġprominent": 8543,
      "holder": 8544,
      "pa": 8545,
      "Ġillness": 8546,
      "Ġmessages": 8547,
      "Ġforget": 8548,
      "Ġpresc": 8549,
      "Ġ::": 8550,
      "ĠPalestin": 8551,
      "Ġstret": 8552,
      "La": 8553,
      "Ġdiplom": 8554,
      "Ġparameters": 8555,
      "Init": 8556,
      "lights": 8557,
      "Ġdrawn": 8558,
      "bra": 8559,
      "Ġassigned": 8560,
      "Ġhydro": 8561,
      "ĠBat": 8562,
      "ĠON": 8563,
      "Ġawareness": 8564,
      "ME": 8565,
      "ĠPoland": 8566,
      "ĠPot": 8567,
      "esterday": 8568,
      "Ġsurprise": 8569,
      "ĠVietnam": 8570,
      "ĠAS": 8571,
      "Ġentertainment": 8572,
      "Ġmyth": 8573,
      "Ġpainting": 8574,
      "ĠWatch": 8575,
      "Ġrefused": 8576,
      "Mich": 8577,
      "uted": 8578,
      "Ġdescribes": 8579,
      "Ġconsumers": 8580,
      "elta": 8581,
      "step": 8582,
      "ĠSav": 8583,
      "ĠYet": 8584,
      "ĠDeath": 8585,
      "Ġvert": 8586,
      "Location": 8587,
      "Ste": 8588,
      "Ġreduction": 8589,
      "ĠHas": 8590,
      "Ġsubmitted": 8591,
      "cert": 8592,
      "Ġencourage": 8593,
      "Ġsubsequent": 8594,
      "Search": 8595,
      "ĠOntario": 8596,
      "Ã±": 8597,
      "ĠTony": 8598,
      "background": 8599,
      "Ġreader": 8600,
      "Ġimagine": 8601,
      "Ġcontribution": 8602,
      "Ġrestaurant": 8603,
      "ĠEmer": 8604,
      "Ġcomprehensive": 8605,
      "olly": 8606,
      "ĠWorks": 8607,
      "ĠSem": 8608,
      "ashed": 8609,
      "uther": 8610,
      "rible": 8611,
      "Ġbelief": 8612,
      "Ġfly": 8613,
      "card": 8614,
      "ivals": 8615,
      "Ġhabit": 8616,
      "Oct": 8617,
      "iest": 8618,
      "ĠSite": 8619,
      "elle": 8620,
      "ecute": 8621,
      "Pop": 8622,
      "prototype": 8623,
      "ji": 8624,
      "Ġfulf": 8625,
      "Ġbass": 8626,
      "Ġethnic": 8627,
      "Ġdisappe": 8628,
      "Ġ~": 8629,
      "params": 8630,
      "ools": 8631,
      "Ġguest": 8632,
      "Ġmine": 8633,
      "close": 8634,
      "Ġnurs": 8635,
      "ĠMatthew": 8636,
      "Ġtough": 8637,
      "ĠMS": 8638,
      "Ġstrategies": 8639,
      "Ġwave": 8640,
      "Ġinvited": 8641,
      "Ġpapers": 8642,
      "Ġgay": 8643,
      "ĠRa": 8644,
      "ĠComput": 8645,
      "actor": 8646,
      "Ġnecessarily": 8647,
      "ials": 8648,
      "ori": 8649,
      "ĠAnton": 8650,
      "ĠBC": 8651,
      "owntown": 8652,
      "Listener": 8653,
      "Ġgraduated": 8654,
      "ouch": 8655,
      "ĠSydney": 8656,
      "ouble": 8657,
      "ĠRoss": 8658,
      "ĠTreat": 8659,
      "ĠTok": 8660,
      "Ġinitiative": 8661,
      "obby": 8662,
      "Ob": 8663,
      "ĠBible": 8664,
      "Ġpurchased": 8665,
      "ĠPC": 8666,
      "ĠSant": 8667,
      "ĠDNA": 8668,
      "Ġlots": 8669,
      "Ġapparently": 8670,
      "ugby": 8671,
      "Column": 8672,
      "tainment": 8673,
      "Public": 8674,
      "Ġzone": 8675,
      "Ġintroduction": 8676,
      "annels": 8677,
      "std": 8678,
      "Ġtherapy": 8679,
      "ĠGreg": 8680,
      "Ġairport": 8681,
      "Ġyes": 8682,
      "Ġspiritual": 8683,
      "Ġprocedures": 8684,
      "Ġsubjects": 8685,
      "ĠMult": 8686,
      "Ġnarrow": 8687,
      "Ġrepresenting": 8688,
      "efined": 8689,
      "ĠPict": 8690,
      "Ġpolitician": 8691,
      "ĠMarc": 8692,
      "Down": 8693,
      "remove": 8694,
      "Ġencourag": 8695,
      "Â©": 8696,
      "aws": 8697,
      "Child": 8698,
      "Where": 8699,
      "obj": 8700,
      "University": 8701,
      "acher": 8702,
      "Ġly": 8703,
      "Ġstake": 8704,
      "Ġrestrictions": 8705,
      "Thread": 8706,
      "aver": 8707,
      "ĠTransport": 8708,
      "ĠWindows": 8709,
      "ĠYouTube": 8710,
      "Ġengage": 8711,
      "adesh": 8712,
      "encing": 8713,
      "DB": 8714,
      "access": 8715,
      "alo": 8716,
      "Ġwins": 8717,
      "Ġfraud": 8718,
      "Ġfat": 8719,
      "Dev": 8720,
      "Ġproof": 8721,
      "ĠTrade": 8722,
      "ascript": 8723,
      "Ġboost": 8724,
      "blog": 8725,
      "iscal": 8726,
      "Ġacknowled": 8727,
      "ĠWisconsin": 8728,
      "ĠProm": 8729,
      "Row": 8730,
      "Write": 8731,
      "Ġencounter": 8732,
      "anwhile": 8733,
      "Ġnegoti": 8734,
      "Ġcontributed": 8735,
      "ospitals": 8736,
      "Ġjudgment": 8737,
      "1962": 8738,
      "ĠNetherlands": 8739,
      "season": 8740,
      "Ġcompris": 8741,
      "Ġpractical": 8742,
      "eeee": 8743,
      "WE": 8744,
      "istent": 8745,
      "ĠNAS": 8746,
      "Ġchampion": 8747,
      "ĠDun": 8748,
      "rary": 8749,
      "AY": 8750,
      "ĠName": 8751,
      "Ġurg": 8752,
      "ifact": 8753,
      "ĠAnderson": 8754,
      "Long": 8755,
      "Ġbeauty": 8756,
      "Ġdistingu": 8757,
      "Ġformation": 8758,
      "ternoon": 8759,
      "menu": 8760,
      "Ġemployed": 8761,
      "Ġevil": 8762,
      "vy": 8763,
      "Ġdefeated": 8764,
      "vas": 8765,
      "ĠKevin": 8766,
      "COL": 8767,
      "Ġsculpt": 8768,
      "filter": 8769,
      "Ġintellectual": 8770,
      "riends": 8771,
      "bec": 8772,
      "Ġsuffering": 8773,
      "ĠNext": 8774,
      "yard": 8775,
      "ĠCON": 8776,
      "Ġdry": 8777,
      "riate": 8778,
      "Ġpreced": 8779,
      "<?": 8780,
      "ĠCooper": 8781,
      "Ġcommunications": 8782,
      "ĠRose": 8783,
      "gian": 8784,
      "hus": 8785,
      "ĠAL": 8786,
      "second": 8787,
      "Ġcoronavirus": 8788,
      "ĠFuture": 8789,
      "Ġdeleg": 8790,
      "Ġprompt": 8791,
      "Ġadmitted": 8792,
      "Ġclar": 8793,
      "Ġdiseases": 8794,
      "Ġprofessionals": 8795,
      "riers": 8796,
      "attr": 8797,
      "INT": 8798,
      "./": 8799,
      "display": 8800,
      "Ġsevent": 8801,
      "Ġmolec": 8802,
      "aa": 8803,
      "eren": 8804,
      "ĠConnect": 8805,
      "ĠAPI": 8806,
      "ĠFall": 8807,
      "ACK": 8808,
      "final": 8809,
      "site": 8810,
      "isations": 8811,
      "Ġsomewhat": 8812,
      "Ġyield": 8813,
      "high": 8814,
      "Ġopposite": 8815,
      "Ġinformed": 8816,
      "Server": 8817,
      "vol": 8818,
      "rait": 8819,
      "Ġguidance": 8820,
      "ĠHotel": 8821,
      "ĠHop": 8822,
      "ulating": 8823,
      "ĠLiter": 8824,
      "ennessee": 8825,
      "Ġanniversary": 8826,
      "Valid": 8827,
      "ĠCreat": 8828,
      "GA": 8829,
      "MT": 8830,
      "rase": 8831,
      "cow": 8832,
      "ĠMoh": 8833,
      "emeter": 8834,
      "ĠJane": 8835,
      "output": 8836,
      "Ġexpensive": 8837,
      "ĠMilitary": 8838,
      "Ġinnovative": 8839,
      "101": 8840,
      "Ġquiet": 8841,
      "desc": 8842,
      "Ġmissed": 8843,
      "RES": 8844,
      "isk": 8845,
      "ifts": 8846,
      "XX": 8847,
      "Before": 8848,
      "RL": 8849,
      "gs": 8850,
      "asty": 8851,
      "ĠCLASS": 8852,
      "Local": 8853,
      "Ġguilty": 8854,
      "Ġjournalist": 8855,
      "Under": 8856,
      "Ø§": 8857,
      "Ġgovernor": 8858,
      "Ġtopics": 8859,
      "Ġprotein": 8860,
      "Button": 8861,
      "Ġspaces": 8862,
      "Ġbigger": 8863,
      "GO": 8864,
      "ture": 8865,
      "Ġseriously": 8866,
      "General": 8867,
      "ĠExt": 8868,
      "Ġcaptured": 8869,
      "Ġhorse": 8870,
      "ITY": 8871,
      "ĠHung": 8872,
      "Stud": 8873,
      "Ġpromise": 8874,
      "ĠSystems": 8875,
      "non": 8876,
      "Ġpotentially": 8877,
      "ami": 8878,
      "styles": 8879,
      "Ġconcerning": 8880,
      "ragon": 8881,
      "Ġextreme": 8882,
      "Ġcontest": 8883,
      "ĠPatrick": 8884,
      "Ġincreases": 8885,
      "Ġrein": 8886,
      "ĠMrs": 8887,
      "Names": 8888,
      "otten": 8889,
      "ĠBridge": 8890,
      "Ġcallback": 8891,
      "ĠTai": 8892,
      "Ġturning": 8893,
      "angel": 8894,
      "Ġanticip": 8895,
      "Yes": 8896,
      "lix": 8897,
      "ĠHREF": 8898,
      "ĠCollection": 8899,
      "ĠAgreement": 8900,
      "ĠDer": 8901,
      "Stat": 8902,
      "Ġprinciple": 8903,
      "ĠFinal": 8904,
      "Ġaudio": 8905,
      "bin": 8906,
      "Prot": 8907,
      "ĠGrant": 8908,
      "Ġflat": 8909,
      "watch": 8910,
      "aga": 8911,
      "iah": 8912,
      "Ġpip": 8913,
      "ographer": 8914,
      "imation": 8915,
      "UB": 8916,
      "ĠVideo": 8917,
      "Ġ**": 8918,
      "ĠManager": 8919,
      "ĠLeon": 8920,
      "ĠSuch": 8921,
      "Label": 8922,
      "Que": 8923,
      "ĠMD": 8924,
      "ĠShort": 8925,
      "Ġcontribute": 8926,
      "Ġinvent": 8927,
      "ĠTen": 8928,
      "izz": 8929,
      "imary": 8930,
      "ĠDu": 8931,
      "ĠSix": 8932,
      "News": 8933,
      "Ġbrothers": 8934,
      "abama": 8935,
      "Ġrecommended": 8936,
      "Ġregularly": 8937,
      "Non": 8938,
      "uzz": 8939,
      "Ġsand": 8940,
      "ĠStart": 8941,
      "ï¿": 8942,
      "Ġholiday": 8943,
      "annot": 8944,
      "Aug": 8945,
      "Ġinstalled": 8946,
      "iot": 8947,
      "Ġplane": 8948,
      "Parameter": 8949,
      "Ġintegr": 8950,
      "ologists": 8951,
      "bourne": 8952,
      "Ġtypical": 8953,
      "Ġobviously": 8954,
      "ĠAst": 8955,
      "Ġparliament": 8956,
      "Ġvir": 8957,
      "white": 8958,
      "ĠPeace": 8959,
      "ĠGro": 8960,
      "Ġconven": 8961,
      "ĠFa": 8962,
      "fire": 8963,
      "Ġ×": 8964,
      "GBT": 8965,
      "ĠOregon": 8966,
      "eries": 8967,
      "Ġgenerate": 8968,
      "Ġposts": 8969,
      "ingle": 8970,
      "ĠDom": 8971,
      "Ġinjured": 8972,
      "ĠAccount": 8973,
      "owed": 8974,
      "Ġpaying": 8975,
      "rav": 8976,
      "Ġpermission": 8977,
      "Ġmusicians": 8978,
      "Ġrecognize": 8979,
      "Ġok": 8980,
      "########": 8981,
      "ourse": 8982,
      "ĠLin": 8983,
      "Ġplenty": 8984,
      "ĠTurk": 8985,
      "Ġunderstood": 8986,
      "entity": 8987,
      "Ġprocedure": 8988,
      "ĠHo": 8989,
      "Ġproport": 8990,
      "').": 8991,
      "Layout": 8992,
      "ĠExpl": 8993,
      "Ġsick": 8994,
      "Return": 8995,
      "Ġmyst": 8996,
      "Jo": 8997,
      "1961": 8998,
      "Ġrid": 8999,
      "Target": 9000,
      "Ġvoted": 9001,
      "Ġchildhood": 9002,
      "Ġbright": 9003,
      "riptor": 9004,
      "ĠGh": 9005,
      "Ġfinance": 9006,
      "Cache": 9007,
      "mo": 9008,
      "Ġtransportation": 9009,
      "Ġtransferred": 9010,
      "ĠMach": 9011,
      "lah": 9012,
      "Ġcompensation": 9013,
      "Ġsilver": 9014,
      "onna": 9015,
      "eta": 9016,
      "achment": 9017,
      "ĠDoctor": 9018,
      "hered": 9019,
      "layout": 9020,
      "Ġimmigration": 9021,
      "idae": 9022,
      "Ġnut": 9023,
      "Ġhits": 9024,
      "orry": 9025,
      "Dem": 9026,
      "ĠDark": 9027,
      "Ġenemy": 9028,
      "ĠDream": 9029,
      "Sign": 9030,
      "Ġrelating": 9031,
      "chers": 9032,
      "dec": 9033,
      "xx": 9034,
      "Ġcommonly": 9035,
      "Ġquery": 9036,
      "instance": 9037,
      "Ġexposure": 9038,
      "Ġdates": 9039,
      "ĠAI": 9040,
      "ĠFull": 9041,
      "Ġqualified": 9042,
      "ront": 9043,
      "Ġarmed": 9044,
      "ĠMs": 9045,
      "Description": 9046,
      "Who": 9047,
      "Ġhosted": 9048,
      "ĠAuthority": 9049,
      "ĠCook": 9050,
      "ĠCorps": 9051,
      "ĠÂ©": 9052,
      "urers": 9053,
      "ĠGreece": 9054,
      "uint": 9055,
      "Ġrising": 9056,
      "Ġprofit": 9057,
      "Ġsequence": 9058,
      "Ġmal": 9059,
      "olitan": 9060,
      "Ġneuro": 9061,
      "asts": 9062,
      "ï¿½": 9063,
      "Ġthousand": 9064,
      "Ġideal": 9065,
      "MC": 9066,
      "ĠCustom": 9067,
      "itionally": 9068,
      "Ġracial": 9069,
      "ĠNumber": 9070,
      "Early": 9071,
      "United": 9072,
      "Ġeastern": 9073,
      "mad": 9074,
      "si": 9075,
      "Ġlaid": 9076,
      "iamond": 9077,
      "ĠLow": 9078,
      "ĠLincoln": 9079,
      "ĠHarvard": 9080,
      "English": 9081,
      "Ġproved": 9082,
      "Ġcompetitive": 9083,
      "Ġ('": 9084,
      "ensor": 9085,
      "ĠRoll": 9086,
      "Ġinjuries": 9087,
      "Ġrealize": 9088,
      "Ġceleb": 9089,
      "Ġpoly": 9090,
      "ĠPract": 9091,
      "allas": 9092,
      "Ġsees": 9093,
      "Ġhate": 9094,
      "Ġprime": 9095,
      "\\\"": 9096,
      "ĠIowa": 9097,
      "ĠRoy": 9098,
      "ĠArgent": 9099,
      "ĠAttorney": 9100,
      "Ġcenturies": 9101,
      "Ġalive": 9102,
      "chestra": 9103,
      "Ġing": 9104,
      "appy": 9105,
      "Ġwond": 9106,
      "ĠLind": 9107,
      "udes": 9108,
      "ĠCab": 9109,
      "||": 9110,
      "Ġvocals": 9111,
      "South": 9112,
      "ĠHind": 9113,
      "Ġconclusion": 9114,
      "Ġstatistics": 9115,
      "Ġkinds": 9116,
      "Ġswim": 9117,
      "ĠFle": 9118,
      "Ġbear": 9119,
      "ĠEc": 9120,
      "Ġargued": 9121,
      "ðŁ": 9122,
      "anz": 9123,
      "ĠSE": 9124,
      "Ġ<!--": 9125,
      "ĠOs": 9126,
      "roit": 9127,
      "Ġcensus": 9128,
      "you": 9129,
      "Ġoperator": 9130,
      "ULT": 9131,
      "ĠBureau": 9132,
      "Ġexclud": 9133,
      "Ã¢": 9134,
      "ĠClimate": 9135,
      "ĠStadium": 9136,
      "Ġvisible": 9137,
      "ĠAdvis": 9138,
      "Ġadj": 9139,
      "Ġ[]": 9140,
      "Ġcompliance": 9141,
      "Ġdisappoint": 9142,
      "Ġprogramming": 9143,
      "dest": 9144,
      "ĠHeart": 9145,
      "Ġpayments": 9146,
      "Ġexplo": 9147,
      "Ġcapture": 9148,
      "Ġdefine": 9149,
      "Ġfloat": 9150,
      "Ġusual": 9151,
      "Ġretirement": 9152,
      "ĠIndiana": 9153,
      "ĠCas": 9154,
      "ĠMO": 9155,
      "ĠSquare": 9156,
      "Her": 9157,
      "ĠNob": 9158,
      "Provider": 9159,
      "ĠDiego": 9160,
      "pg": 9161,
      "Ġcarrying": 9162,
      "Ġrailway": 9163,
      "direct": 9164,
      "ika": 9165,
      "di": 9166,
      "Url": 9167,
      "!\"": 9168,
      "ĠCrit": 9169,
      "ĠMiami": 9170,
      "ructions": 9171,
      "Ġfol": 9172,
      "ordon": 9173,
      "Ġeligible": 9174,
      "Ġequivalent": 9175,
      "Ġdealing": 9176,
      "Ġsquad": 9177,
      "Ġgene": 9178,
      "Ġlistening": 9179,
      "Ġplatforms": 9180,
      "Ġprefer": 9181,
      "nie": 9182,
      "avor": 9183,
      "Ġcopies": 9184,
      "700": 9185,
      "rett": 9186,
      "esh": 9187,
      "ishment": 9188,
      "ĠMaryland": 9189,
      "ĠPitt": 9190,
      "Ġlimits": 9191,
      "Brit": 9192,
      "ulous": 9193,
      "ĠHistoric": 9194,
      "API": 9195,
      "ĠPut": 9196,
      "ĠHarris": 9197,
      "_{": 9198,
      "Ġdeploy": 9199,
      "vi": 9200,
      "Ġcomparison": 9201,
      "Ġmouth": 9202,
      "Ġportray": 9203,
      "ĠCamer": 9204,
      "Ġproperly": 9205,
      "Ġmaintenance": 9206,
      "Ġconvent": 9207,
      "ĠCN": 9208,
      "Ġcausing": 9209,
      "Ġseats": 9210,
      "Ġsurprising": 9211,
      "Ġwalls": 9212,
      "Ġfactory": 9213,
      "Ġestablishment": 9214,
      "ĠFront": 9215,
      "van": 9216,
      "eland": 9217,
      "Ġgrounds": 9218,
      "craft": 9219,
      "Ġaggress": 9220,
      "Ġceremony": 9221,
      "TYPE": 9222,
      "Ġexcess": 9223,
      "Ġride": 9224,
      "Ġindicated": 9225,
      "ĠAllen": 9226,
      "Ġcomposed": 9227,
      "DO": 9228,
      "UP": 9229,
      "Ġacceler": 9230,
      "brid": 9231,
      "ĠScient": 9232,
      "Window": 9233,
      "Ġhasn": 9234,
      "Ġrequests": 9235,
      "Ġdrivers": 9236,
      "Care": 9237,
      "Ġadmin": 9238,
      "oen": 9239,
      "Ġdenied": 9240,
      "Ġhidden": 9241,
      "Ġunus": 9242,
      "Ġgrade": 9243,
      "ilation": 9244,
      "ĠAT": 9245,
      "AGE": 9246,
      "Ġoutstanding": 9247,
      "Ġvital": 9248,
      "Ġhopes": 9249,
      "ĠPlace": 9250,
      "parse": 9251,
      "ĠProtection": 9252,
      "ĠNote": 9253,
      "Ġproviders": 9254,
      "ĠCurrent": 9255,
      "oured": 9256,
      "away": 9257,
      "```": 9258,
      "Ġpointed": 9259,
      "Ġamounts": 9260,
      "ĠStone": 9261,
      "Ġvaluable": 9262,
      "ĠSimon": 9263,
      "ĠSarah": 9264,
      "ĠTrue": 9265,
      "ĠWas": 9266,
      "Ġdecline": 9267,
      "door": 9268,
      "conf": 9269,
      "should": 9270,
      "Best": 9271,
      "ĠAppe": 9272,
      "Ġproducing": 9273,
      "ĠCreek": 9274,
      "Ġtempl": 9275,
      "Ġshel": 9276,
      "else": 9277,
      "uri": 9278,
      "oyd": 9279,
      "roc": 9280,
      "ĠTherefore": 9281,
      "Ġstrongly": 9282,
      "Ġupcoming": 9283,
      "Ġtrouble": 9284,
      "leges": 9285,
      "Ġscr": 9286,
      "Ġspokes": 9287,
      "ĠRelations": 9288,
      "ĠJudge": 9289,
      "Ġoccurs": 9290,
      "Ġelectricity": 9291,
      "Ġemp": 9292,
      "Star": 9293,
      "Ġkit": 9294,
      "Ġsubsequently": 9295,
      "Ġprivile": 9296,
      "Ġdriven": 9297,
      "Ġtalked": 9298,
      "Gen": 9299,
      "ibl": 9300,
      "Ġrealized": 9301,
      "Ġconcluded": 9302,
      "ĠGre": 9303,
      "ĠSky": 9304,
      "ĠSP": 9305,
      "Ġsections": 9306,
      "hol": 9307,
      "ĠChairman": 9308,
      "Ġdefeat": 9309,
      "Ġafternoon": 9310,
      "Ġindicate": 9311,
      "iac": 9312,
      "Ġheads": 9313,
      "ĠMembers": 9314,
      "mem": 9315,
      "ĠRegional": 9316,
      "ĠFather": 9317,
      "Ġranked": 9318,
      "Ġfaces": 9319,
      "1948": 9320,
      "Ġpriority": 9321,
      "num": 9322,
      "ĠIV": 9323,
      "Ġlegit": 9324,
      "Frame": 9325,
      "Ġauthent": 9326,
      "emed": 9327,
      "ĠAmong": 9328,
      "ĠChampionships": 9329,
      "ĠHun": 9330,
      "main": 9331,
      "Ġconsideration": 9332,
      "olds": 9333,
      "()->": 9334,
      "Ġreputation": 9335,
      "issue": 9336,
      "Ġimplemented": 9337,
      "ĠIndones": 9338,
      "Ġvary": 9339,
      "Ġdeeply": 9340,
      "ĠKelly": 9341,
      "Ġcrash": 9342,
      "icious": 9343,
      "Ġcooperation": 9344,
      "DI": 9345,
      "Ġcycl": 9346,
      "ĠOcean": 9347,
      "Ġkil": 9348,
      "Bo": 9349,
      "Ġtested": 9350,
      "Ġaccessible": 9351,
      "Ġregulation": 9352,
      "inals": 9353,
      "Ġprepare": 9354,
      "Ġtrained": 9355,
      "ĠManchester": 9356,
      "Ġhorror": 9357,
      "vo": 9358,
      "ĠAnthony": 9359,
      "]]": 9360,
      "Ġchose": 9361,
      "Ñĥ": 9362,
      "Ġcolleagues": 9363,
      "ĠResources": 9364,
      "oked": 9365,
      "offset": 9366,
      "ĠEntertainment": 9367,
      "aire": 9368,
      "à¸": 9369,
      "ĠSoft": 9370,
      "Ġsubstantial": 9371,
      "Ġacid": 9372,
      "Ġprospect": 9373,
      "Ġsurve": 9374,
      "atas": 9375,
      "Ġintention": 9376,
      "Ġpublishing": 9377,
      "ĠEditor": 9378,
      "ĠWinter": 9379,
      "Ġsoil": 9380,
      "ĠEnvironmental": 9381,
      "Ġbuffer": 9382,
      "elfare": 9383,
      "Ġlawsu": 9384,
      "Ġraces": 9385,
      "Äĩ": 9386,
      ";->": 9387,
      "Ġax": 9388,
      "Ġsimpl": 9389,
      "ĠTennessee": 9390,
      "ĠDor": 9391,
      "Ġpetition": 9392,
      "graph": 9393,
      "Today": 9394,
      "acks": 9395,
      "icity": 9396,
      "Even": 9397,
      "âĢĭ": 9398,
      "(_": 9399,
      "DC": 9400,
      "ĠStudy": 9401,
      "Ġheavily": 9402,
      "ictions": 9403,
      "ĠHoward": 9404,
      "ĠMoore": 9405,
      "ĠProt": 9406,
      "float": 9407,
      "Ġregistration": 9408,
      "razy": 9409,
[...]
