#version: 0.2
Ġ Ġ
t h
i n
ĠĠ ĠĠ
o n
e r
Ġ a
Ġ th
r e
t i
e n
Ġth e
a l
Ġ s
o r
t e
Ġ \
Ġ c
i s
l e
a r
ti on
Ġ o
Ġ $
a n
Ġ f
e s
Ġ w
m a
Ġ t
Ġ p
r o
Ġo f
ĠĠ Ġ
Ġ in
d e
in g
Ġ b
t a
ĠĠĠĠ ĠĠĠĠ
Ġa n
s e
r a
l a
i g
i c
m e
{ \
Ġan d
a t
i t
Ġt o
Ġ d
Ġ e
s t
en t
e l
Ġ re
Ġ n
e d
Ġ (
o u
Ġ is
e c
Ġ h
s i
_ {
o l
c e
m p
č Ċ
q u
c h
e t
Ġ m
Ġ =
Ġ$ \
T h
u n
l o
a tion
t r
ma th
Ġf or
u r
a s
l y
ĠĠĠĠ ĠĠĠ
v e
Ġ g
v er
t er
i l
en d
u l
o t
u m
i d
i f
Ġc on
Ġ &
i th
} \
s s
ĉ ĉ
g e
Ġ S
Ġth at
} $
i te
^ {
b e
c tion
Ġ v
Ġ on
te d
p h
h t
c al
Ġ Ċ
Th e
o m
a m
) ;
Ġ {
Ġb e
c t
Ġ A
u re
a d
Ġ de
Ġ C
u s
re f
o w
Ġw ith
g in
Ġ l
Ġp ro
x t
u t
Ġw h
- -
} }
Ġ I
( \
b le
p p
Ġw e
ig ht
r i
Ġ <
Ġa l
i r
a me
u b
be gin
i m
o d
in e
Ġ ma
er e
2 0
s p
t s
ra c
Ġc o
Ġ *
/ /
Ġb y
Ġa s
) $
ĠĠĠĠĠĠĠĠ ĠĠĠ
_ {\
a te
p er
Ġa re
f t
Ġ M
an d
it y
Ġ F
Ġe x
Ġ }
o de
= "
o re
c k
d i
e qu
} {
Ġth is
Ġ P
u e
ti c
d er
} ,
f rac
m b
Ġ The
ro m
c ite
t o
Ġ B
p e
r ight
} )
m ent
< /
e q
te xt
Ġ L
b el
d a
Ġ R
i z
a se
Ġ or
Ġ H
u p
Ġ i
Ġ T
e w
ec t
Ġa t
Ġ it
math b
la bel
Ġ D
, \
Ġ W
ĠĠĠĠĠĠĠĠ ĠĠĠĠĠĠĠĠ
si on
r an
re s
tion s
Ġ me
Ġs h
l i
f or
Ġ E
Ġ -
ĠĠĠĠ Ġ
Ġf rom
y s
ou n
Ġ N
es s
l u
is t
$ ,
in t
ig n
$ .
lo w
r m
I n
le ft
p ar
o p
Ġ "
f ig
p a
math cal
equ ation
Ġ G
Ġ if
0 0
Ġc h
f f
Ġco mp
Ġ +
* *
i v
ur n
th e
} .
o me
Ġc an
la ss
Ġs t
ic h
ou r
un ction
Ġs u
d s
Ġ un
( )
k e
g a
â Ģ
a ve
u se
Ġp ar
c on
} (
th er
al l
en ce
} ^
o s
ti ve
a p
~ \
y pe
ti al
} _
tr i
en er
Ġ Th
d u
l ic
" >
p ro
l d
ar y
er s
an t
or t
l ine
m u
c c
es t
Ġs e
t urn
ph a
Ġ le
i le
a ch
al pha
20 1
a re
ti m
Ġs ta
ti l
) \
el l
Ġwh ich
) ,
a ble
Ġo b
a ta
f er
p si
ĠI n
. .
) .
Ġh ave
Ġn ot
a ge
Ġ O
ro w
-- --
Ġ y
mp le
Ġf unction
Ġd is
Ġre s
Ġ '
se t
= =
b er
v i
an g
ode l
ul t
ar i
il l
g ra
a b
$ \
s er
st r
b u
m s
am ma
o c
_ \
Ġ lo
ta in
g et
al ue
mathb b
ic al
ra y
Ġa pp
Ġs p
Ġ r
f in
Ġp o
Ġc lass
1 0
= \
an ce
c lu
c o
Ġ\ \
s ub
Ġ us
} _{
en s
ĠĠĠĠĠĠĠĠ ĠĠĠĠĠĠĠ
d ot
v el
ig ma
} ^{
1 9
h o
on g
s o
Ġ k
o f
a y
p o
or k
tim es
- \
t y
o g
a ct
d ing
Ġn e
Ġ use
Ġw as
i re
Ġex p
Ġs et
^ {\
Ġ [
ph i
Ġ //
c ri
i es
la mb
Ġ U
lamb da
Ġal l
i el
Ġ qu
a ce
a c
Ġ te
ou t
s um
ti me
Ġre turn
e x
p i
a g
de d
a v
Ġ la
Ġh as
a ck
l on
Ġs tr
la tion
i on
a k
ĉĉ ĉĉ
ou s
w e
re e
um ber
Ġ {\
b f
i al
te s
p t
C on
e m
Ġm odel
in d
j ect
mathb f
Ġin ter
ent s
a ted
Ġa d
Ġ ra
Ġd ata
id th
en c
Ġon e
Ġp er
Ġa r
ou ld
w o
ul ar
Ġn o
b o
Ġ J
ow n
psi lon
ation s
at or
p ut
Ġ j
ta tion
se ction
- >
ys te
h at
i de
Ġ @
al ign
Ġ V
ar d
s igma
: :
or y
Ġp re
re n
s h
ol low
m in
p s
Ġ K
be ta
Ġe v
^{ -
a pp
tri bu
Ġ( \
Ġa ss
b ar
o ver
e ta
ol u
Ġd if
} {\
math rm
til de
ig h
Ġw ill
Ġn ew
Ġd o
t ing
ĠW e
Ġ |
iz e
Ġ /
Ġc om
+ \
Ġf ollow
* }
Ġt wo
l l
ir st
ite m
de l
a st
Ġe qu
er r
g amma
v ar
x i
y n
ul l
Ġal so
' s
20 0
ti es
a mple
un d
the ta
oun d
" ,
or re
1 2
u al
our ce
ic s
n e
o o
w h
Ġ x
] {
c re
se d
Ġi mp
i x
\ \
Ġs ub
Ġm o
^ \
c ent
ar ray
th od
w idth
i p
Ġ :
r ho
del ta
Ġcon t
ec tion
Ġg ener
le q
) )
ic e
g h
ar k
iel d
fig ure
Ġsu ch
n o
Ġt ran
' ,
u st
p tion
on e
Ġ ver
or m
Ġth ere
le s
le ment
c ol
W e
Ġ< /
ro up
$ -
} (\
ta u
or s
Ġo ut
Ġwh ere
Ġ time
la y
le d
al u
ub lic
Ġp a
at ure
c dot
Ġh e
si tion
an s
Ġo ur
( );
( "
Ġre p
R e
}$ .
b ig
yste m
de f
}$ ,
for m
c om
ame ter
Ġdif fer
Ġ en
clu de
) }
eq ref
âĢ Ļ
Ġ* /
u ct
Ġon ly
ĠTh is
ti t
Ġcon st
Ġb et
ti cal
Ġc ase
Ġo ver
ma tion
i mp
Ġth en
Ġc orre
Ġd es
gra ph
e ar
Ġg iv
Ġo ther
Ġe ach
Ġ .
Ġan y
is h
Ġ ro
ft y
n u
in fty
Ġp h
Ġf in
Ġv alue
Ġsh ow
n ame
P ro
Ġs o
Ġc ol
Ġa b
sp on
Ġb ut
c es
---- ----
Ġo p
p end
c ap
ome ga
** **
par tial
ta ble
Ġre g
Ġl ine
Ġt r
i a
g er
s c
Ġm ore
tr ing
Ġ u
c ed
E x
ĠĠĠĠĠĠĠĠ Ġ
ta b
ar row
Ġ _
ĉĉ ĉ
Ġn ame
| \
il ity
v ed
Ġin t
th is
Ġs ome
Ġsp ec
di v
Ġf irst
te x
Ġb o
ul ts
we en
o id
Ġa cc
is e
en g
d ic
al ly
di tion
Ġwh en
D el
it s
ar t
sp ace
or d
1 1
in k
Ġn umber
m o
Ġth an
in ce
Del ta
Ġ `
m l
eq n
E R
en sion
f ore
Ġbet ween
.. /
e mp
Ġs pa
ĠĠĠĠĠĠĠĠ ĠĠĠĠĠĠĠĠĠĠĠ
qu ad
Ġg et
Ġs a
de x
Ġv ari
( '
Ġ up
Ġn on
g es
s f
u d
si der
Ġde f
Ġus ing
N ame
u la
v es
Ġde fin
Ġe xt
tr ic
g le
Ġuse d
Ġit s
o k
Ġthe se
ra in
w ork
se c
ore m
)$ .
Ġ$ (
} }\
f ra
ess age
Ġme thod
Ġt ype
ti f
\ ,
u le
Ġp ublic
m all
h i
Ġ es
g y
Ġgiv en
Ġthe ir
Ġapp ro
o se
1 6
Ġc ur
s ta
olu tion
r t
} [
Ġ X
F or
Ġ err
ter n
o b
Ġh igh
== ==
in clude
an n
ol ds
s q
ase d
h e
iz ation
p m
Ġsta te
ul ti
$ $
Ġg ra
1 5
Ġ âĢ
er t
ĠF or
Ġ z
Ġtran s
Ġe ff
le c
re turn
eng th
e psilon
Ġw ork
c ess
en tial
Ġpar ameter
Ġs im
Ġre qu
ch i
t on
Ġor der
cent er
Ġres ult
Ġin to
me ga
Ġl i
er m
} _{\
Ġ id
T ype
alu es
O mega
o te
S T
I N
Ġ čĊ
ro und
sp an
v al
on d
Ġbe en
s u
iz ed
Ġc al
t t
par am
wh ere
Ġm an
Ġl ar
Ġob tain
Ġun der
1 8
ir c
tri x
Ġp res
ren t
ma in
D e
y mb
^ *
e ver
eqn array
t ype
Ġcon sider
per ator
> </
a u
O N
ymb ol
lo ck
1 3
)$ ,
G amma
z e
f o
ke y
Ġ Y
Ġre la
al se
Ġob ser
Ġfor m
i an
Ġp ri
Ġs ame
oun t
sp ec
ec k
ĠR e
Ġres ults
il d
lo g
Ġw ere
Ġdiffer ent
sq rt
Ġ !
el f
re ss
Ġpar tic
w ide
Ġch ar
ol d
Ġb ec
Ġm od
ĠF ig
Ġfollow ing
C h
Ġf act
Ġv ar
y m
ment s
ec ted
ra tion
as ure
g or
Ġ >
v are
tr y
l ang
Ġs c
2 5
1 4
co mp
vel y
le m
Ġthe y
vare psilon
i ed
f ter
T o
Ġma y
a x
sub section
S tring
m on
as es
text bf
Ġs ign
E n
if ic
Ġs ec
imp ort
cri pt
Ġy ou
al s
n ing
se l
ĠĠ Ċ
l an
ol og
ex p
si m
da ta
graph ics
Ġf ield
Ġ )
R es
Ġ #
ĠC h
> <
Ġ Q
Ġe l
ate s
ic i
R E
Ġs elf
ot s
}^ {\
Ġse e
e xt
Ġs er
Ġcomp le
v ice
Ġ$ {\
^{ (
um n
ĠI t
Ġan al
p ri
ma ge
} =
include graphics
Ġs ystem
i b
Ġrep res
ro u
cap tion
I d
Ġp ol
Ġ\ ,
) =
o x
r y
ch e
ma t
c m
b ack
Ġdis tribu
A T
Ġf e
Ġspa ce
on s
ener gy
re d
ran gle
ti vely
ver y
ar ch
Ġ end
n i
Ġpro per
a ction
re ad
b m
r r
d d
right arrow
o mp
Ġa c
for mation
im ension
Ġg o
c ode
Ġme asure
Ġd en
emp h
y le
cal e
a use
d is
Ġ low
Ġcorre spon
Ġd ire
a th
l it
an ge
Ġbo th
uct ure
um er
le ct
S ta
a ult
var phi
ect or
p re
Ġte st
. ,
g s
}, \
ge q
s k
Ġk n
Ġg roup
. ~\
} ;
ic k
Ġn ull
Ġpo int
Ġsu pp
e p
ow ever
../ ../
v ent
ti v
ĠĠĠĠĠĠĠĠĠĠĠĠĠĠĠĠ ĠĠĠĠĠĠĠĠĠĠĠĠĠĠĠĠ
n on
3 2
& \
pro of
over line
Ġ --
is ts
Ġm in
Ġpro du
as s
al ity
f ace
Ġv alues
gor ith
on t
at ing
Ġtr ue
) :
Ġw ell
Ġh is
ht ml
l ing
_ _
am b
ce ption
me d
v ec
le ction
at ch
c lass
. }
Ġ= =
ĠĠĠĠ ĠĠ
1 7
ra w
S t
ĠP ro
Ġw ould
Ġe lement
et work
si ze
en tation
si ble
Ġpro ble
Ġdes cri
s on
j ec
m ary
fra k
tr ans
A R
re qu
ver s
Ġs mall
n ew
mb er
: //
t en
p r
Ġstr ing
D ata
ens ure
S S
r it
t d
Ġma ss
rou gh
[ \
ĠA n
il ar
Ġes ti
L E
' '
orm al
Ġs ur
Ġb ack
v en
b ra
) ^
Ġst ar
Ġs te
Ġin te
i e
Ġ energy
er y
enc y
}) .
sel f
i tion
Ġass u
Ġde c
Ġpro cess
st ra
b olds
i ew
y p
ar get
f ile
bolds ymbol
B ig
Ġab out
1 00
ĠI f
Ġv oid
um ent
Ġcomp u
3 0
h a
h line
O R
s ource
Ġ Z
Ġh ref
math frak
i ve
A r
Ġmo st
Ġcon tain
am es
n er
Ġex ample
I D
i tial
O b
Ġ ran
Ġf ra
st er
v alue
} }$
Ġ& &
er o
i me
Ġs ing
amb da
L ist
' )
Ġm ulti
str ing
L ambda
Th is
Ġl im
Ġp os
Ġ= >
Ġb ound
Ġb u
ld ots
as h
Ġd ist
m an
m essage
la s
se e
19 9
A L
st ance
p d
Ġf alse
5 0
ad er
ou gh
a tive
lang le
k s
A n
Ġdefin ed
Ġ ,
Ġt er
Ġin v
Ġt ra
L et
l im
ens ity
Ġlo cal
Ġgener al
n ab
b in
te st
bo ve
m is
is ion
u c
// //
Ġsh ould
in ts
le ar
Ġc lo
ĠC on
m and
app a
nab la
Ġa bove
is m
Ġwh ile
2 2
**** ****
le t
m er
Ġs ize
a i
] ,
P hi
Ġfollow s
k appa
c ation
g o
f unction
ht t
res sion
b it
in es
oc i
Ġex per
Ġstr ucture
Ġlar ge
Ġdis c
E N
Ġel se
Ġde pend
ym me
bo x
cite p
m od
or ph
# #
p lay
. _
a ke
to p
ma te
de pend
Ġdo es
Ġe very
ma x
ab ility
ow er
Ġsh own
Ġth rough
er n
r ite
Ġerr or
) );
. \
ĠD e
P ar
Ġma t
ro ss
d es
b y
yn am
} )$
ad d
l er
ro l
gorith m
Ġ| |
2 4
Ġmodel s
Ġte mp
-------- --------
in u
c irc
B y
ac ter
c i
V alue
v ing
enc es
A s
po sition
o times
w ith
S et
\ |
Ġin clu
ire d
le ss
ro du
tex tit
u lation
v ate
iel ds
s te
Ġin cre
Ġle t
g r
in ter
f ul
Ġth ree
Ġa fter
S E
vi ew
qu e
ical ly
2 1
on ent
Ġc re
u th
" );
Ġid en
s ing
Ġsec ond
b r
n ot
ensure math
Ġs ol
Ġof f
Ġwh o
Ġma x
la ce
st yle
or der
Ġthe m
a ys
" /
i o
Ġs ince
Ġh and
Ġn ow
Ġb el
] ;
ff ici
ti sf
Ġcon s
Ġ/ **
\ %
en ted
Ġper form
ig in
S igma
Ġre al
Ġparameter s
vi ous
mb ox
Ġdistribu tion
Ġor g
Ġl ong
m m
âĢ Ŀ
e y
Ġproble m
Ġn etwork
c or
il ter
Ġra di
ĠĠĠĠĠĠĠĠ ĠĠĠĠĠ
Ġ q
m ark
Ġo perator
re am
Ġc ent
la t
m it
c ur
D E
}) ,
Ġreg ion
u ch
ur ther
non umber
Ġcal c
.. .
Ġne ed
Ġma g
}} {
ĠĠĠĠĠĠĠĠĠĠĠĠĠĠĠĠ ĠĠĠĠĠĠĠ
a in
ur ing
con t
C ol
i j
li ent
\ [
rr or
dot s
ĠA s
Ġpro b
e e
Ġe d
lo b
Ġs ection
ic t
6 4
Ġ` `
la te
S er
Ġpar t
Ġma trix
Ġto p
Ġ right
Ġp e
Ġh ad
and om
od y
ro p
ĠTh en
I T
Ġ ent
Ġappro ach
de fin
Ġfe ature
n ode
A t
en e
Ġgra ph
ys is
"/ >
Ġsa tisf
Ġfin al
Ġcon n
o st
( $
ix ed
/ \
Ġde ter
C T
U n
Ġsim ilar
Ġcur rent
4 0
Ġeff ec
Ġter ms
t al
o v
Ġin formation
od es
Ġs ample
2 3
are d
si ve
Ġf ound
A N
Ġbec ause
n ess
Ġ! =
ut o
Ġd er
Ġst ud
Ġal low
Ġa g
Ġt ri
Ġw or
ga in
ur al
g round
{ -
" )
n t
Ġver y
l ish
ĠS t
"> <
Ġb ased
er ature
Ġpartic ular
ent ly
Ġin itial
Ġma in
a pa
Ġimp ort
Ġ: =
Ġn ode
col or
Ġf ile
i er
Ġsu per
ĠA l
Ġs um
u di
v id
Ġd i
Ġfunction s
a mp
gra m
si tive
\ !
a il
wide tilde
Ġcon str
la ck
center ing
Ġ( $
Ġt rain
~ ~
Ġsta tic
Ġf ind
Ġre spec
ver t
Ġma p
Ġ %
is tic
Ġc all
Ġev en
le an
es e
Ġobtain ed
Ex ception
Ġt ak
Ġre du
Ġ key
Ġequ ation
Ġin put
if ied
fer ence
Ġc ould
re at
re ak
re g
Ġad d
Ġob ject
Ġs equ
Ġh y
==== ====
Ġd ensity
B u
00 0
ing s
ra te
Ġp r
Ġ// /
re p
Ġpro vi
) (
w w
ti ce
Ob ject
} -
w ar
en se
Ġpa per
Ġchar acter
Ġle ad
Ġcorrespon ding
Ġr un
Ġar g
if t
C omp
F ig
Ġle vel
Ġline ar
tit le
un c
ou p
Ġs olution
cc ess
Ġli ke
em ma
pri me
im um
ta tions
or g
c ted
Ġpa th
Ġshow s
ĠL et
w ard
Ġv al
ma trix
n g
ot ential
t us
Ġsing le
i ties
u ration
\ ]
Ġy ear
tab ular
ge bra
Ġpre dic
} +
as k
Ġfin ite
Ġexper im
trans lation
Ġde te
g roup
pp er
\ {
) =\
' );
z eta
E rror
ma p
Ġop tim
Ġm ust
Ġt yp
6 0
Ġconst ant
olog y
ver se
ĠTh ere
Ġcon dition
Ġvari able
ĠThe orem
A M
Ġs cal
G et
Ġpo ints
Ġman y
Ġa m
ite d
Ġad dition
Ġh ow
Ġin dic
Ġdire ct
sum mary
ann el
ff er
iv al
Ġst and
ic es
8 0
p x
ti ty
ĠE q
Ġa ction
mis sion
Ġd ue
d raw
i mple
ic ation
Ġappro xi
l ength
p ec
Ġa ct
Ġa v
s cript
Ġobser v
ro ll
or ted
ĠE x
] .
Ġh ere
} =\
ĠH e
ind ow
om orph
li es
th m
Ġle ar
Ġd imension
3 3
k ing
l us
u g
Ġf lu
Ġ left
Ġ& =
av a
) }\
in c
et s
) ^{
ation al
b ed
Ġex ist
u ction
Ġw ay
Ġpro of
Ġsta tes
un der
o ck
Ġre ad
{ (
T est
Ġrespec tively
Ġthe ory
in s
y ing
u i
ĠH owever
Ġpos sible
C O
() .
Ġp lay
A l
b ility
ta il
Ġl ist
Ġs yste
Ġbe ing
Ġspec tr
Con t
d ate
ĠU n
A C
Ġor igin
di tions
ĠS tring
la ble
in dex
o int
ual ly
4 5
Ġcont inu
H e
7 5
() );
L L
Ġv ector
Ġpri vate
depend ent
Ġh er
pro p
Ġo per
lo t
Ġpa ir
Ġp ower
el y
Ġa gain
F ile
con st
Ġun i
tiv ity
Ġm on
ĠT o
r c
Ġph ase
$ )
ĠW h
Ġe mp
E lement
Ġre f
Ġcalc ula
}_ \
ĠĠĠĠĠĠĠĠ ĠĠĠĠ
; \
Ġmulti p
} ]
ot t
M e
y c
Ġma ke
ce pt
Ġr andom
c er
}^ \
Ġran ge
Ġint rodu
} |
ant um
Ġh el
a w
an ts
ĠâĢ ľ
Ġcomple x
pa th
Ġanal ysis
Ġp otential
Ġal gorithm
Ġi mage
P E
as on
Ġs ource
wide hat
Ġla st
cdot s
Ġth ose
si de
tic s
ĠâĢ ĵ
lem ma
Ġlim it
V ert
sp ect
. ~
b ase
Ġt arget
I f
ver age
I t
ma ges
Ġla t
Sta te
201 9
C lass
Ġme an
vel op
Ġl ength
Ġev ent
l ink
lic ation
ĉĉĉĉ ĉ
Ġs ymme
ur l
o ther
text width
Ġp lan
per ty
2 7
Ġwh at
O n
Ġdef ine
tern al
lob al
ser t
Ġin dex
ĠS ection
i i
jec ts
Ġpro po
}) \
O p
o perator
Ġwith in
A S
Ġass oci
q quad
I C
Ġbe fore
Ġpres ent
{ {\
}} (
Ġder iv
S h
Ġc oun
K ey
9 0
i od
l in
te mp
Ġt erm
Ġpre vious
ti s
T E
Ġv is
/ **
Ġra te
E qu
or ts
Ġd ynam
Ġto tal
n b
lo ad
Ġmethod s
Ġstr ong
W ith
a si
Ġe t
T ime
u te
r on
Ġj ust
^ +
v ari
ĠFig ure
201 8
a pe
Ġkn ow
tribu te
Ġproper ties
Ġde g
se qu
Ġlo g
R equ
Ġ\ {
Ġcon ver
pa ce
A P
e ps
Ġ/ *
2 8
l ist
P si
E vent
3 5
Ġe lec
ch ed
Ġb oo
m odel
) ]
Ġre spon
l and
no te
Q u
Ġc lu
& =
Ġy our
math sf
ĠL emma
u les
Ġb oun
N ode
R O
til l
ith er
Ġstud y
0 5
Ġz ero
Ġc oup
Ġex ists
Ġdeter min
Ġch eck
201 7
Ġb as
Ġ$ (\
Ġ );
0 1
l ight
9 9
our ces
() ,
Ġcon fig
}\ ,
' t
s mall
Ġ ?
on al
th ing
Ġwith out
m un
Ġo cc
ord in
a us
i ly
r id
" ;
/ *
u de
Ġb ase
ar is
Ġne xt
tical ly
Ġm om
In t
Ġcon text
Ġar ray
, -
2 6
htt p
Ġn ormal
Ġprob ability
}^{ (
ĉ Ċ
Ġcon ditions
row s
ĠA r
pd f
Ġin stance
}\ \
w n
ct or
Ġ} ,
an ces
sub set
Ġcont rol
is ter
c up
ent al
ne tic
Ġla y
t ot
al ax
Ġlow er
c os
Ġs imp
ro id
Ġfor mu
ĠN ew
Ġc ar
wh ich
f e
Ġop en
Ġperform ance
b or
m id
lo cation
Ġin du
Ġver sion
Ġte ch
" :
[ '
. </
Ġ enc
I M
op le
p ublic
Ġb lock
Ġco de
Ġcal led
ĠN o
rac k
Ġre main
e v
se arch
} +\
pa ck
f ield
In dex
app ro
Ġ= ==
Ġ text
nb sp
Ġ& \
ch o
tr on
u pp
me di
Ġqu antum
Ġsyste ms
v ir
Ġm y
st ar
ure s
if y
ar g
ag er
ens or
L o
ĠR es
Ġm uch
201 6
an el
M an
p os
ĠS ta
Ġsequ ence
Ġv iew
Ġequ ival
i k
ĠB y
ur b
si f
Ġiden tif
0 8
ou ble
Ġfact or
ha vi
Ġ times
f rom
are nt
Ġkn own
e ffici
cite t
on ents
lec ted
ĠO n
Ġtemp erature
ign ed
Ġout put
Ġpo sitive
Ġsh e
o sition
Ġf our
fo ot
g g
Ġd uring
oc ument
an c
Ġal ong
Ġexp ected
ly ing
Ġs imple
Ġobser ved
Ġph ot
C om
Ġde velop
P ath
po int
] $
201 5
Ġfra me
} :
I S
Ġus er
Ġg e
sp lit
Ġassu me
L e
Ġsign ific
um b
im al
2 9
equ iv
w ise
end s
Ġc irc
h space
S e
w ay
s cale
Ġf ixed
Ġmat ch
Ġhigh er
la ted
us h
Ġdisc us
ai lable
d imension
' ]
cal l
T R
Ġi mple
operator name
def ine
x space
3 4
b ut
Ġstand ard
pp ing
| ^
a ti
Ġth us
Ġf requ
pa ge
V iew
+ +
Ġinter action
o ff
20 20
I I
19 8
Ġass ert
Ġal gebra
sta te
Ġt ake
) {
Ġs m
T ext
' :
' $
Ġelement s
om in
Ġassoci ated
S ystem
}} {\
In fo
cri ption
I ON
j s
Ġs till
A B
Ġg u
li p
ĠĠĠĠ Ċ
Ar ray
ind ent
li ed
ile d
Ġcom bin
n eq
Ġd own
lic it
al le
} -\
ol l
d en
Ġc ases
umer ate
Ġw idth
Ġch ange
E D
201 4
Ġf urther
Ġproper ty
the orem
olu tions
Ġre le
[ ]
Ġf am
ĠE n
in put
d t
or ding
se ts
Ġs cale
L O
Ġev alu
( {\
Ġpo sition
las sif
Ġprodu ct
l ue
` `
me mber
Ġ( !
Ġab s
Ġph ys
si an
Ġw rit
Ġden ote
foot note
E T
Ġimport ant
Ġ} );
Ġback ground
sc r
ĠS h
Ġcont ra
ott om
) -
Ġre mo
Ġp op
$ }
Ġg alax
Ġrequ ire
ag es
es sion
Ġst udi
C ode
as ing
R ec
N o
Ġi de
Ġcon tribu
Ġqu an
Ġch o
Ġl ines
Ġ/ >
//// ////
Ġbel ow
Ġ ke
W h
Ġcon f
Ġa round
Ġequ ations
en umerate
Ġch ang
A pp
7 0
Ġn il
Ġbound ary
Con text
Ġimp ro
Ġapp ear
m i
d o
s in
Ġc lear
Ġsp in
Ġpropo sed
Ġtrain ing
Ġa uth
it or
ĠL e
Ġ- \
Ġanal y
ĠS ince
Ġb reak
( -
Ġf ree
Ġc ross
Ġdist ance
Ġse ver
am s
Ġf ull
Ġle ast
ri de
Ġst art
Ġset ting
A D
u til
Ġcomple te
ap i
o h
ach e
at tern
F rom
item ize
Ġre spect
Ġf it
E S
Ġse par
Ġl ink
Ġdif f
co pe
da g
Ġval id
Con fig
4 8
] \
Ġsignific ant
v oid
U R
Ġe ar
Ġf ields
ĠA ss
t ra
201 3
() )
Ġf a
) }{
O f
an y
Ġsim ula
olog ical
Ġper iod
Ġsupp ort
tr ue
Ġbe havi
s w
Ġcons ist
Ġne ar
Ġb in
Ġe ither
om ial
Requ est
dis play
w ays
3 6
Ġeff ect
Ex p
Ġin f
Ġ label
Ġma de
Ġesti ma
val id
M ap
Ġex act
~ $
Ġb est
I te
Ġde tail
op y
u mp
h er
A dd
Ġwe ight
Ġf il
ti g
Ġn umer
Ġgo od
De f
O r
ĠĠĠĠĠĠĠĠĠĠĠĠĠĠĠĠ ĠĠĠĠĠĠĠĠĠĠĠ
ed ge
Ġfeature s
Ġsur face
Ġpro vid
Ġdescri bed
og le
at er
) }$
um ents
x y
C H
b b
ames pace
Ġdo main
Ġste p
' ;
v is
dimension al
da y
s m
it ch
v space
******** ********
g ener
math scr
line ar
201 2
Ġv el
lo at
Ġ} ;
Ġch annel
str uct
{ }
ĠTh us
3 8
Ġcomp onent
Ġ_ _
no indent
defin ed
Ġimp lies
ĠĠĠĠĠĠĠĠ ĠĠ
Ġdef ault
Ġl ight
Ġ\ |
Ġdire ction
M L
w are
U T
if e
ig en
D is
Ġacc u
O ver
il der
Ġdefin ition
B e
ti o
Ġde p
m ul
g ing
p on
Ġm ark
u ra
r ing
g ed
Ġden o
Ġun it
9 5
oc us
ter s
n et
as sert
Ġconsider ed
ol umn
c ing
r al
Ġset s
"> </
tic es
Ġlo ss
T r
read y
Ġa verage
us er
P i
err or
ol ic
S ize
he ad
p y
ar s
Ġb i
}} _
mb ed
Ġco effici
Ġf low
b ody
ch eck
Ġsa id
o in
\ ,\
Ġed ge
ste ad
0 4
Ġle ss
Ġpe ople
e V
00 00
ĠTh ese
u age
3 7
k en
st and
an e
Ġexp ression
" "
ĠO b
en ded
Ġclo se
) +
Ġmom ent
D es
tion al
âĢ ĵ
Ġl it
Ġlo ok
at ter
et urn
r ic
b ased
res h
Ġop tions
olu me
\ }$
oc ity
ran s
vir on
I G
6 5
Th ere
ou se
Ġlear ning
Ser vice
Ġb and
Ġme ans
201 1
Ġre fer
ust om
F F
m d
ĠA pp
te q
htt ps
Ġinter est
Ġgener ated
ic ro
m y
apa che
Ġav ailable
tt p
Ġv ia
re t
def ault
H and
b s
V er
Ġsever al
for med
Ġprovi de
Ġc ell
res ult
Ġyear s
Ġ _{
Ġinclu ding
Ġrequ ired
Ġw rite
M odel
Ġs ide
L A
201 0
ga tive
Ġlar ger
if orm
}} }
com mand
Ġt able
f unc
g en
0 2
Ġh al
Ġext ra
ser v
Ġcontain s
p ng
cre ate
mul tic
Ġc ri
Ġpro ve
Ġh o
lo y
il li
ĠM ore
e ther
w ord
Ġcol umn
th at
Ġrepres entation
ver sion
( (
Ġre lation
r is
Ġequ al
3 9
aris on
si te
ang le
Ġassu mp
I s
v an
p c
st o
mo st
tr m
ch an
T able
Ġgiv es
n al
able d
n av
n ow
appro x
Ġre ce
4 4
la in
Ġs pe
3 1
Ġwe ak
ch ar
Ġa chi
Ġit er
& &
Ġh om
se teq
Ġno te
tex trm
Ġmag netic
Ġs olutions
yn c
ut ure
5 5
c l
In ter
m ar
Ġco ordin
pp ed
Ġa ff
Ġcre ate
Ġocc ur
multic olumn
Ġn at
ta g
n ormal
Ġcol or
Ġcom mun
oo th
Ġ title
under line
ĠA t
me thod
con fig
0 6
ĠA d
Ġf la
F ield
s l
Ġin dependent
C C
lo c
Ġin st
Ġh olds
Ġc lassif
ma tic
Ġm is
N N
av ing
ti tion
^ -
I P
al e
t le
par t
} /
g ence
ec ess
Ġm ode
0 7
ate g
Ġspec ific
Ġm ar
Ġt urn
Ġconst rain
l n
Ġbet ter
ĠT able
k es
k et
ateg ory
p or
re ate
fin ite
Ġvariable s
Ġan other
Ġm en
Ġinte gra
Ġser ies
Ġc ap
b lock
Ġse en
ĠC omp
Ġesti mate
ĠC om
a h
Ġcont ent
re en
f ill
mer ic
ic on
Ġw ave
lo cal
min us
Ġspectr um
yn omial
sub seteq
Ġg ive
text tt
ob ject
Ġp ass
Ġthere fore
Ġ im
6 6
Ġre cent
C D
Ġrela ted
th ough
ref er
The ta
Ġcomp onents
ĠS o
Ġclu ster
d own
m entation
g l
Ġorigin al
Ġse arch
con n
Ġc er
Ġh im
200 9
Ġin clude
< \
ĠN ote
P I
Ite m
Ġf ew
h as
sion s
] [
ĠThere fore
Ġrela tions
S ince
m ulti
tot ype
O ut
n orm
a f
Th en
0 9
Ġd id
Ġrequ est
}^{ -
Ġachi e
Ġ$\ {
) ,\
M A
la tions
le te
Ġa uto
Ġrespon se
Ġi mages
ph er
k n
ir d
m ore
Ġc l
Ġd iv
Ġpro te
Ġme di
Ġal ready
t or
sk ip
res sed
jec tive
l ong
N ew
p ort
G roup
j or
Ġreg ular
Ġcoup ling
Ġ$ |
Ġtran sition
b ul
Ġne u
a it
} '
Ġal ways
O T
tation al
mod ule
tain er
rit er
}} _{
n s
M essage
div id
Ġs che
du ct
i or
Ġvel ocity
op lus
o ot
vers ity
0 3
y mp
Ġthe orem
Ġs ay
Ġsign al
pon se
] (
Ġcan not
Qu ery
U LL
I R
Ġpre c
Ġmax imum
! --
op tions
Ġhel p
Ġb lack
Ġqu es
ex ample
Ġdiffer ence
M od
he ight
Ġch ild
Ġinv ari
ĉ ĠĠĠ
200 8
we b
A ll
Ġdes ign
am il
pro d
}} ,
Ġinte gr
i ble
end er
th es
IN G
S ec
cur rent
Ġe igen
h and
ur ity
ĉĉĉĉ ĉĉ
O S
ĠP ar
Ġaddition al
or th
^{ -\
tic le
Ġre co
O D
et y
{ $
. $
Ġs yn
en ame
En d
om es
Ġmultip le
ĠG et
la im
=" ../../
Ġsh ort
Ġob jects
id es
Ġg reat
Ġf ilter
Ġg lobal
m es
li ke
set minus
or ies
a de
) |
ww w
6 7
Ġev olution
f low
e f
ore d
Ġc or
rac y
Ġ\ ;
ĠS et
Ġme tric
v ices
E E
ĠS ec
U S
ge ther
Ġ( $\
Ã ©
in o
---------------- ----------------
ĠU ni
Ġwh ether
Ġeffec ts
Ġeff ici
ĠM e
_ +
Ġge ome
Ġn ecess
roll er
ate ly
viron ment
Ġeffec tive
Re g
M P
omorph ism
Ġstar s
in ally
Ġb ro
Ġp ers
Ġcom mon
Ġhy per
Ġ ti
a z
Ġin s
dag ger
Ġco st
Ġs w
Ġinv ol
Ġcontinu ous
Ġcomp ared
m en
4 9
st art
ict ure
* {
Ġbas is
lish ed
iz ing
Ġev ents
cho ol
Ġbu il
Ġ$ [
= '
Ġs k
e lement
Ġp anel
ĠC ol
Ġdeg ree
Ġpol ynomial
s up
Ġin equ
si tions
Ġin ves
od ing
ir t
A d
Ġt ask
Ġrela tive
Pro perty
c ase
us ing
Ġme chan
Ġat ta
N ote
led ge
i res
) {\
Ġo wn
Ġra tio
Ġre ason
c an
Ġprovi ded
ĠĠĠ Ċ
A ss
ern el
N S
if f
$ _
ĠS ystem
ac es
Ġa mp
G L
Ġno ise
str uction
\ }
r un
ction s
line width
r ary
le g
iv en
iz es
Ġla w
Ġsp ect
Ġspec ial
alle l
Ġl ang
ce p
t urb
6 8
S ub
Ġre str
Man ager
Ġsu ccess
Ġflu x
Ġequival ent
war ds
Ġfrequ ency
ok en
g n
a cc
inc ip
w edge
lu gin
Ġu pper
Ġvari ous
4 7
or iz
\ '
ter ial
Ġa x
de ed
M S
it er
c ore
Ġfam ily
Ġlo c
Ġpres ented
col umn
i mage
Ġapp lied
Ġp lace
L og
re es
P o
di ent
Ġh owever
Ġn odes
in fo
C ell
ear ch
ta ge
Ġm ight
Ġagain st
Me thod
] )
Ġmod ule
ec u
Res ponse
Ġm essage
Ġare a
Ġ$ -
Ġoperator s
divid ual
C lient
di re
Ġexp ect
Ġe mbed
Ġp la
ĠR o
## ##
Ġboun ded
umb ers
ĠI s
gin e
oll ary
bu g
In put
g ht
C all
ut ing
Ġf ar
Ġp ur
om en
Ð ¾
Ġd ri
lim its
par ameter
Ġst yle
8 5
Ġbo ol
Ġd ia
19 7
An d
oo se
Ġ( -
( {
emp ty
r ule
Ġsta tis
) /
ish ed
e ff
ect ors
ab s
over n
200 7
Ġj ava
o ve
U N
Ġe mission
Ġconstr uct
Ġre ach
P S
_ *
Ġla ter
qu are
Ġwh ose
ou d
j ection
Ġcent er
con text
Ġgroup s
C o
ho od
Ġh ence
d oc
kn own
ist ory
Ġg au
A A
big g
Ġtyp es
Ġver tex
ti z
Ġdata set
f alse
bul let
le vel
Ġen ough
Ġobserv ations
V al
end ing
Ġuni que
F ra
EN T
l ar
Ġexp licit
Ġclo sed
Col or
F T
Ġd ouble
Ġpro file
ic tion
Ġin stead
ĠAn d
amil ton
Ġli k
Ġf ig
pro totype
A G
to col
ĠC ar
ĠA ll
sub figure
======== ========
g ment
c orre
Ġsymme try
ec h
Ġs to
a ir
Res ult
Ġde cre
)\ ,
O M
Ġdetail s
Ġlay er
oo k
Ġcur ve
Ġg as
Ġrepres ent
iv ed
f s
sta ck
ta tive
Ġtech ni
P h
lic ations
ou th
il ities
d b
Ġexp an
ĉĉĉĉ ĉĉĉĉ
Ġun cer
Ġth row
la p
Ġext ension
e k
Ġapproxi mation
Ġacc ording
sta tic
Ġnat ural
Q L
Ġbehavi or
Ġd one
ĠA meric
_{ -
Ġmat ter
Ġc yc
Ġsmall er
Ġsu ffici
_{ {\
g t
Ġadd ress
defin ition
F act
S p
v alues
Ġformu la
en ari
\ "
t ure
h ip
_{ (
u ss
}} (\
I L
' _
Ġ| \
C ount
C E
Ġp ack
= (
Ġcer tain
l or
Ġst rate
al th
Ġ il
align ed
Ġ }\
ĠS er
ch ange
Ġapp ly
ol der
l t
r u
b t
Ġun iform
L a
Ġne igh
9 8
St ream
Ð °
ĠĠĠĠĠĠĠĠĠĠĠĠĠĠĠĠ Ġ
Ġsm ooth
Ġre search
Ġexp lo
P re
col on
l en
S U
ĠP h
ĠPro position
Ġtak en
ĠWh en
Ġg row
Ġdis cre
S pec
Ġacc ount
Ġcho ice
P T
av es
Ġpo st
cont ent
ĠThe y
c lo
Ġinter val
Ġdirect ly
Ġw ant
Ġme m
Ġtran sp
N ot
Ġhe ight
und le
Ġwor ld
c ast
200 6
Ġoptim al
Ġto o
om ic
rop y
Ġes tab
E xt
D ec
H T
Ġpartic le
Ġ( )
AT E
it al
re l
F e
ĠB ut
Ġdynam ics
Ġd on
Ġgalax ies
da p
si d
' \
Ġin dividual
H E
c y
Ð µ
}$ -
ĠW ith
d ro
Ġsatisf ies
T oken
en ti
) }(
pack age
ran ch
Ġan g
aus sian
id ence
ll ar
Ġs ite
c ell
Op tions
ari es
al k
Ġbec omes
mo ve
Ġelec tron
,\ ,
Ġgau ge
Ġallow s
Ġ< <
Sta tus
Ġ\ (
or n
Ġto gether
Re f
Ġf un
e ded
il i
Ġf ocus
for ms
) ^{\
=" +
S C
Ġconn ected
Ġ ]
Ġp attern
Ġsimula tions
Ġcomp act
s a
per p
G ener
e vent
S P
Equ al
Ġdetermin ed
: \
Ġpartic les
Ġh ard
Ġ ~
Ġregion s
S ty
Ġf uture
go ogle
re mark
Ġhe ad
Ġn uc
Ġt ree
> (
Ġnumer ical
4 2
iz er
Ġconstr uction
Ġtr y
Ġre ference
Ġ ir
Ġm er
Ġboo lean
ma il
Ġma ps
ĠĠĠĠĠĠĠĠ ĠĠĠĠĠĠ
$ (
Ġradi us
Ġre d
um an
Ġimpro ve
ĠF e
Ġar bit
ĠR ec
Ġsample s
b a
9 7
au th
b lack
8 8
qu es
Ġspectr al
Ġchang es
Ġprovid es
Ġ-- >
ran ge
Ġphys ical
os en
) _{
Ġmo ve
s tit
Over ride
Ġsc atter
Ġf ail
is ed
S upp
en tif
i ence
Ġver tices
\! \!
our s
w rite
f act
Ġ Ð
ac tive
Ġde mon
ting s
ĠB e
Ġarg ument
for all
ĠD is
U til
= {
Ġa ble
ne xt
Ġcompu te
al y
or age
E X
ir rep
la sh
ĠS e
lic k
le y
T D
Ġad j
Ġp lot
Ġs ources
Ġst d
ĠN ULL
z ero
S ource
Par ameter
Ġe asi
Ġ+ \
ĉ Ġ
Ġamp lit
Ġpro ced
or ld
app end
U ser
es ts
Ġro le
d x
. "
Ġwrit ten
sub subsection
Ġcorre ct
N et
me ta
Ġconfig uration
ĠH ence
4 6
Ġpri or
9 6
D F
Ġacc ess
Ġp rac
mb ers
es ted
Ġexperim ents
Ġsche me
ĠT r
f it
S I
Ġre st
L T
Ġco ver
Ġproble ms
Ġpe ak
ith ub
T rans
ator s
Ġframe work
Ġw indow
F unction
fra me
= -
Ġman if
Ġra ther
Ġcri tical
Ġso ft
Ġg ame
Ġdiscus sed
Ġac ross
Ġbe gin
ĠO ne
B ar
Ġw ar
Ġs it
Ġs rc
Ġinequ ality
t arget
o per
B ase
* /
b i
so ft
E q
Ġmoment um
L ine
d im
Ġt ensor
pa g
an k
ma g
N ow
7 7
ch ild
o od
Ġo pp
ymp to
d ir
Ġg round
Ġcorrespon ds
Ġn umbers
ĠĠĠĠĠĠĠĠĠĠĠĠĠĠĠĠ ĠĠĠĠĠĠĠĠĠĠĠĠĠĠĠ
enc ies
Ġclass ical
re ed
c s
ig ger
Ġunder stand
n ull
ri er
ol s
Ġde comp
u sion
Ġaccu racy
Ġlat tice
Bu ilder
) ^{-
par a
su pp
Ġser vice
Ġd omin
Ġen ti
Ġof ten
Ġ row
irt ual
g ies
ĠC o
Ġam ong
ar ing
I mp
text sc
200 5
Ġper turb
Ġun til
Ġapp lication
Ġmeasure d
S O
but ton
Ġch ain
M C
me q
bo ok
; &
use d
In stance
Ġf ore
Ġresult ing
lect or
con d
B ut
ve x
4 3
Ġcoeffici ents
Ġconstrain ts
Ġcomp arison
c lient
Ġne gative
Ġincre asing
Ġmeasure ments
c ity
Ġassump tion
E d
id get
Ġpol ic
qu ery
T H
Ġderiv ed
co mple
Ġpro ject
ab ly
}^ *
gorith ms
Ġma terial
Ġincre ase
p matrix
O ne
ide o
âĢ ľ
g ithub
ĠH amilton
od er
in te
O O
Ġdis play
m ine
Ġinter nal
in a
o graph
n a
.~ (\
Ġclass es
Ġpr incip
Sty le
Ġsc enari
c ases
Ġdec ay
si meq
Ġcent ral
Ġneu tr
re m
$ ).
P C
b all
tric es
} %
20 00
and id
Ġth erm
u ary
ĠUni versity
Ġal most
Ġapproxi mate
ta ct
an ish
At tribute
Ġscal ar
~ $\
Ġdescri be
tribu tes
Ġh ttp
R un
I mage
u k
Ġs en
ĠH ere
Ġspa tial
v ant
Ġl ife
Ġ item
f irst
Ġrepres en
b its
ific ation
Ġcon ven
b ottom
Ġfra ction
Ġsim ulation
Ġoper ation
Ġ( (
Ġdemon stra
}} ^
Ġper formed
Ġdescri ption
ber t
ER T
p ol
Ġup date
Ġspec ified
Ġintrodu ced
U E
Ġ+ =
Ġqu ery
F irst
ial ly
F ilter
oh n
Ġil lu
)\ \
Ġerr ors
qu ot
} )$.
ul ly
Ġed ges
Ġcontribu tion
ty p
pro cess
Ġmag n
Ġcorrespon d
op en
k ip
Ġpar tial
Ġmin imum
Ġc our
) }{\
Ġstr uct
Ġt w
Ġwor ds
m t
F I
Ġag ree
Bu ffer
H ere
m ma
ding s
Ġplan e
in ess
c r
c at
par se
Ġcol lection
C K
Ġc apa
sequ ence
c ss
Ġdi ag
5 7
n umber
h om
d ist
l s
al og
Ġorg an
Ġcalcula ted
Ġre c
b ound
Ġma jor
Ġwork s
Ġ! ==
Con n
ic ense
r up
Ġlo op
Ġexp lain
Ġcorre lation
ĠR eturn
c tive
ĠMore over
Ġv olume
pr int
ĠP o
{ $\
s cri
. âĢĿ
is ms
d le
Y PE
8 7
per ties
olu te
m ic
mat ch
g th
ari ly
20 21
Ġmo tion
ous ly
ĠL ist
u ation
D ate
$ $\
Ġ= \
Ġdeno tes
O ff
lo or
Ġinvari ant
g ges
Ġth ink
Ġd ocument
as y
Ġinves tig
$ ^{-
su per
5 6
in f
Ġp ut
Ġthe ore
li b
ar p
Ġdistribu tions
P R
im ilar
Ġintegr al
Ġh app
Ġpro gram
}} ^{
Ġpol ar
Ġbec ome
ic ult
ĠRe g
Ġh aving
~~ ~~
} );
Ġen vironment
Ġcompu ted
ur y
)$ -
ĠO ur
Ġinter pre
is ted
Ġin finite
Ġpre ss
ĠO r
Ġmar gin
Ġsp lit
Ġques tion
urther more
Ġor bit
ĠY ou
Ġp l
ĠC oun
M M
ri es
um in
Hand ler
Ġ&= &
resh old
st ream
Ġo ld
f ree
al t
Ġsh ape
{ {
Ġsupp orted
> &
ĠI N
og ene
Ġnetwork s
el s
ĠS p
id den
B lock
p le
S D
( [
ĠP re
Ġlang uage
Ġhal f
Ġth ird
v o
Ġdete ction
ĠD ata
For mat
che ma
The orem
pd ate
Fig ure
Ġp age
Ġu til
omorph ic
" .
O ur
o sed
n amespace
^{ +
tri es
\| _{
Ġro ot
Ġlead s
Ġdepend s
ph ere
Ġconsist ent
ĠL i
Ġ url
C P
Ġse lected
p tr
Ġconn ection
Ġch osen
ash ed
c d
Ġd ual
ce ed
) _
map sto
L ay
ite ct
p ush
x x
is ing
ĠT est
Ġtak es
ti k
Ġatta ck
return s
Ġcur ves
ra di
str ong
mp ty
| _{
on ly
Ġinter face
end ix
le ase
il ib
Ġs ense
u ter
Ġar ch
un e
4 1
Ġcall back
tr an
Ġb order
f ilter
Ġin c
rodu ction
200 4
g ress
C ON
N umber
Ġan gle
Cont ent
Ġsub set
Ġch oose
ion s
Ġb ody
ma tions
Ġc ut
="../../ ../../
Ġd raw
gra ms
des cription
Ġma kes
ren gth
Ġredu ced
P r
Ġexperim ental
Ġma trices
Ġinte ger
er a
pro position
Ġproced ure
Ġspect ra
Ġnecess ary
Ġarg uments
able s
pro perty
ĠC or
ho st
Ġal gorithms
min i
ĠD ec
Ar g
Ġus es
Ġexample s
v ision
Ġtak ing
Ġext ends
Ġbo x
L S
Ġuse ful
Ġsymme tric
v ity
Res ource
Ġd ay
lic e
Ġk ernel
j ava
uc ted
8 6
Ġstudi es
Ġspa ces
Ġ$ $
stra ct
Ġsu gges
Ġre view
Ġt rac
' }
ĠG aussian
ĠF rom
li er
ĠB o
requ est
un it
m c
Ġstudi ed
Ġlead ing
Ġh ar
in it
Ġsimp ly
op tion
N ext
Ġtech n
om s
n um
Ġmen tion
M ore
re du
ĠRe f
T ag
Ġne eded
Ġdis k
D B
Ġs ymbol
Ġrequ ires
Ġlear n
cre en
s ol
Ġdeter mine
Ġtrans form
P er
Ġf ast
Ġdisc uss
Ġlo cation
Ġdepend ence
M eta
op t
Ġsol id
Ġpop ulation
la st
c ount
as ks
\ _
u ro
h y
it ude
Ġmem ory
clu sion
ĠC an
Ġ{ @
f ont
f il
$ ;
ĠM ar
Th us
Ġarbit rary
ĠS ch
Ġrepres ents
ĠQ u
new command
Ġexpan sion
Ġmod es
Ġo ption
ite ms
C ur
Ġst ream
5 8
ob j
Ġprocess es
fin ition
=" #
ad ding
Def ault
Ġc lient
and roid
or ds
Ġres olution
ĠS te
v ector
st ers
Ġpair s
end if
Ġ- >
N ull
Ġse lection
in y
Ġke ep
j son
an i
Ġcharacter istic
ĠOb ject
G ra
X X
ate gor
l ines
r s
F A
c el
on ic
Ġconver gence
Ñ Ĥ
Ġmin im
Ġchar ge
Ġear ly
od ot
E M
le x
Ġres ource
Ġas ympto
ilib ri
Ġst ra
B ox
Ġon ce
f oo
\ {\
Ġinterest ing
Ġran k
ĠG L
Ġste llar
Ġh ome
ta te
m ented
ck et
ser ver
Ġc ause
po st
Ġre con
Ġintrodu ce
i ver
Ġy ields
Ġenti re
//////// ////////
us ic
ĠL o
A cc
' (
R o
ĠN e
Ġc laim
M N
th en
Ġm id
_ -
mit ted
Ġtrans fer
oc ial
b reak
a ded
Ġ ensure
z z
Re ad
Ġa ut
de g
Ġcomp are
s g
ĠHamilton ian
Ġpos si
List ener
Ġcom mand
Ġfig ure
thes is
Ġillu stra
Ġspe ed
Ġat ten
Ġt or
pa rent
Ġwe b
Ġb ar
$ ~
Ð ¸
s es
A ction
Ġinclu ded
sh e
et er
ĠU S
Equ als
u me
Ġb it
H owever
es ti
Ġeasi ly
ĠF irst
Ġad ded
Ġexperim ent
ĠM on
olic y
C L
Wh en
Comp onent
Ġcompu tation
Ġn orm
Ġgener ate
Ġqu ad
a ma
} &
se mb
Tr ue
ref ix
Ġstructure s
Ġ ess
S c
_ .
ag ed
se m
Ġd oc
; </
Ver sion
Ġfor mat
po se
5 00
vid er
s igned
ĠM an
Ġbin ary
k er
ra g
display style
str ucture
al i
Ġ$ .
ds h
Fact ory
Ġpres ence
Ġ" ""
Ġauth or
tik z
s rc
Ġ$ {
Ġincre ases
Ch ild
Ġdia gram
Ġ[ ]
C ase
6 9
re spon
) +\
v olution
Ġr ule
dition al
Ġexact ly
Ġin ner
de p
200 3
Ġc ount
u be
} }$.
Ġh ost
) },
v a
Ġb us
de c
L ength
Ġs ent
he ader
Ġh oriz
Ġme ta
Ġne ver
Ġst rength
Ġquan ti
Ġestima tes
} )$,
Ġc ategory
fer ences
Ġprote cted
requ ire
Ġlo ad
} }$,
lay er
Fra me
Ġp ul
b and
el se
Ġt reat
H el
r and
Ġpar ts
Ġco py
Ġal tern
ĠC al
Ġh old
c f
5 9
ot o
s ur
Ġmeasure ment
b old
Ġstr ict
Ġth rows
i mages
Ġle mma
y l
Ġp arent
Ġprodu ction
ĠM ay
p icture
Ġv ectors
[ (
mini page
ĠC O
ĠO p
f loat
Ġsc ore
C reate
Ġste ps
Ġth ough
Ġcol l
5 4
Ġc andid
=" ../
5 2
8 9
Ġch all
C S
ĠS upp
el er
Ġco re
Ġ ;
ri ef
Ġcoordin ates
Ġw in
Ġapproach es
Ġcre ated
pro du
P P
IN T
Ġlat ter
Ġfor ce
medi ate
-- -
Ġac tive
a uto
Ġp i
yp es
Ġreturn s
p lan
Ġapp lications
) -\
Ch eck
Ġobser ve
Ġg ap
h bar
r ont
p res
il la
Ġax is
Ġrele vant
Ġit self
AM E
Ġrep orted
r l
ar ds
ĠE X
Ġp as
( &
Ġd ark
sta tus
ar gs
ĠC ent
Ġsta ble
ĠM a
N e
Ġfor mation
f la
row ser
ran t
Ġt ag
en ch
las tic
al gebra
on ential
ph p
in ue
Ġext ended
und am
Ch ar
Ġexist ence
Ġinteraction s
Ġiden tity
g est
ilibri um
f a
Ġam ount
re move
Col lection
vers al
it z
> >
t x
Ġemp loy
Ġb ranch
Ġimp act
}{ |
for mat
g u
Ġfact ors
Ġdiffer ential
ou ght
. /
ĠS ee
ec ause
Ġc ustom
Ġd r
ol ve
ĠAmeric an
ĠG ener
Ġus ers
Out put
Ġdiff icult
ĠĠĠĠĠĠĠĠ Ċ
i ti
ĠB u
Ġw ide
S tr
ve y
Ġsatisf y
Ġh uman
ri ed
Ġe asy
Ġde ep
W indow
h el
N O
Ġanal og
al g
Ġv o
Ġstrate gy
Ġo sc
res ults
ER R
) )$
Ġlink s
Ġma king
se lect
Ġv irtual
n os
E L
Ġre n
b l
se ud
ta x
Ġse lect
bu f
an te
Ġno tation
Ġ$ |\
b lue
$ ),
Ġs s
Ġm orph
p ts
en sive
co ver
}$ )
ra int
Ġw ord
Ġestima ted
con g
Ġpolic y
Ġ{ $
int y
6 3
Ġco me
) </
Ġtrans formation
Ġremain s
igh ted
Ġser ver
S M
Ġco sm
ĠS ub
vari ant
ĠN one
St art
I V
up date
5 1
Ġother wise
si ties
H z
Ġf ix
Ġp ub
}( {\
Ġboun ds
Ġconst raint
Ġbu ild
Ġclassif ication
Ġex ecu
b es
R ow
ra p
Ġf ive
oc ation
Ġin side
f loor
Ġv anish
Ġsignificant ly
Ġscatter ing
s ue
T O
Ġrep la
Ġg overn
Ġpar tition
I F
AB LE
ĠD o
p lace
M ax
[ "
ta inty
Ġgalax y
G u
Ġb lue
Ġp ix
O per
fin d
bu st
: }
Ġmo lec
S o
Ġbel ie
Ġcontain ing
s ystem
L ink
Ġlik ely
5 3
th on
Ġknow ledge
Ġgo ing
ĠG ra
Ġex cept
on es
}{ (
&= &
Ð ½
C R
in ct
Ġte am
Ġqu ark
Ġf ace
Ġand roid
T P
Ġme t
âĢ ¦
Ġpro pag
Ġsta tus
ogene ous
Ġon es
La bel
Ġf ully
f aces
pre c
out put
x ml
Ġneed s
Ġbel ong
++ )
i um
less sim
) }_{
h an
" ]
ĠD es
Ġn one
Ġg rid
. )
sh ow
Ġamplit ude
U p
Ġemp ty
Ġ ^
L P
pri vate
7 8
u ations
er ing
exp ected
ĠJ an
Val id
s cal
is es
tain s
Ġop tical
Ġwho le
Ġre cor
Ġra tes
s ign
Ġres on
Ġf ac
in ary
tif ic
Ġsh all
Ġassu med
t ree
Ġcons ists
i ous
R ight
Ġd ate
Ġexist ing
back s
Ġd est
ĠT ype
id ent
c ref
con f
on ical
g ers
Ġpredic tion
ber g
id s
Ġindu ced
ĠI I
a a
ĠI D
d l
" ),
o site
ĠUn ited
Ġl en
,\ \
) }}
Ġan ti
Ġs light
Ġgra dient
$ {
cc cc
Ġdistribu ted
Ġma ch
Ġsub group
big l
Ġarch itect
( _
Ġg en
6 2
in stance
200 1
Ġgraph s
Ġoptim ization
There fore
Int roduction
Ġdep th
Ġme mbers
: "
ĉ ĠĠĠĠĠĠĠ
h igh
Ġav oid
ymme tric
u gh
at tr
Ġpress ure
We b
Ġoff set
Ġmass es
g ments
op ic
T ra
ĠN ational
200 2
Ġb ul
ynam ic
h box
Ġa way
R em
d r
Ġcon clude
ĠTh at
el i
Ġdevelop ed
Ġc are
Ġp ay
Ġrep ort
Ġal ign
ac y
Ġess ential
Ġ ...
Ġang ular
Ġad van
Ġcontra st
b ly
P age
Ġth reshold
ta sk
ma tically
Ġor i
S ON
ĠS ci
C A
big r
Ġremo ve
iv ing
Ġabs olute
Ġs chool
ec ts
Ġw ater
if fer
ĠV er
av y
Ġa dap
Ġinf lu
a ther
undam ental
ma s
Ġcoun ter
- $
100 0
en ing
u ck
ing u
Ġs low
ma ss
P oint
Ġde vi
L i
tab ility
u es
Ġhy po
8 4
R L
ĠN ow
g an
on ds
al ysis
Ġt asks
Ġappro pri
Ġbe am
| |
Ġu int
bu ild
ĠâĢ Ķ
Ġbas ic
ĠA fter
oun ter
M ode
com mon
Ġcon vex
: =
W idth
Ġ{ };
Ġde ta
d y
Ġh ol
tif ication
m ode
lat form
I O
Ġc atch
in ner
re me
Ġlevel s
Ġimple mentation
Ġde vice
$ _{
ĠG o
Ġcontribu tions
param s
Ġstate ment
Ġre pe
Ġre dsh
Ġoper ations
P O
Ġcalcula tions
9 4
Ġy et
UR L
an a
dire ct
Ġb ottom
ĠJ ohn
k a
ĠS c
] $.
] }
" ).
Ġpres er
ck now
ĠP er
ĠS pec
Ġinclu des
R eturn
Off set
, $
q l
bt n
as tic
}} _{\
Ġobserv ation
Ġtri vi
is try
illi on
^* $
ĠM in
S u
lo ts
ĠM ark
Ġob j
Ġide a
ont al
ĠâĢ ĺ
per im
Ñ Ģ
Com mand
ra tic
S L
G C
\ }$.
Ġv ideo
semb ly
icro soft
Ġmin imal
ĉĉ Ċ
or al
Ġp ure
un k
Ġact ually
in al
is ation
Ġauth ors
9 2
Ġcirc le
d f
cript or
li de
Ġreg ime
ĠG u
U sing
ĠSta te
Ġgo al
9 3
Ġneigh bor
b ot
refer ence
Ġallow ed
du al
Ġmagn itude
p g
oun g
Ġqu ality
P ri
< !--
Ġw on
Ġ[ \
Ġdeno ted
Ġrun ning
a fter
sh ould
A V
LA SS
Ġcour se
Ġi ma
Ġflu ct
Ġbe h
ĠS he
Ġdete ct
Ġrestr ic
f i
ro un
M B
Ġcalc ulation
age ment
: (
Ġcon c
Ġpar allel
ti ves
Ġsta tion
ĠM o
Ġre l
P RO
sequ ently
Ġtechni ques
iz ations
t frac
Ġdiscre te
6 1
Ġprodu ced
F inally
S ection
ĠE ng
Ġre t
ĠC lass
ON T
B U
Ġstar ting
B C
Ġosc il
v alu
Ġdiscus sion
Ġk ind
F R
ĠR em
7 2
Ġdec ision
Ġ ener
Ġlit tle
Ġfor ms
ĠG e
row n
Ġform al
] );
$ :
T ask
D M
,\ ,\
ĠD i
Ġbu ffer
Ð¾ Ð
ĠIn ter
Ġmon th
Ġc aus
Â ł
Ġfe ed
u ly
T arget
D o
Ġs quare
con s
) )\
n d
Ġexp onential
Ġan n
Ġf lat
ed ia
im g
Ġsw itch
Ġan sw
oun ds
A uth
Ġent ropy
T emp
S R
ir al
Ġt rack
\ )
Ġcoeffici ent
um ing
Ġtra ject
RE F
P U
] $,
fin al
.. .,
Ġlay ers
Ġh istory
se ct
Ġro tation
off set
N av
ma ke
Re ferences
Ġ\ ]
Ġqu asi
su es
d om
ga ted
no tation
st d
action s
Ġdimension s
Ġbro ad
Ġtheore tical
f ect
Ġsatisf ying
Ġm ix
un g
Ġact ual
Ġchild ren
de t
Ġabs or
Ġsing ular
Ġsuccess ful
}} )
iv es
ro ot
Ġscal ing
Ġm es
Ġlong er
// /
di a
Ġcombin ation
ire ct
ĠF ran
ess ages
m ing
j o
Ġg ain
Ġa ge
de v
i ded
Ġindic ates
Ġuncer tainty
da ted
respon se
al es
}) }
c a
ar ante
Cont roller
ĠL icense
so le
C ache
S te
re la
Ġgeome try
Ġcoll ision
te ger
Ġdevelop ment
Col umn
ĠF inally
Ġle g
Ġex ternal
Ġnuc le
\ ;
tr iv
con tainer
k it
Ġsta ge
Th ese
Ġmechan ism
Ġtherm al
Ġdata sets
Ġhand le
Ġat temp
M atch
ul i
Ġide al
$ };
ĠDe f
ig gs
ul er
U pdate
ch ron
Ġf i
Ġj ob
ch astic
ĠT e
d frac
en ess
**************** ****************
Ġs us
oo lean
ome try
ĠE qu
Ġp ort
9 1
8 2
T YPE
Ġb al
Con tainer
j ected
Ġlit erature
Ġpro ved
p ass
}\ ,\
Inter face
Ġs ure
Ġvis ual
Ġent ry
A fter
Ġsa mp
W rite
tif y
ann er
Ġappear s
}[ \
Ġqu e
Ġwh ite
al low
for ward
u x
Ġclu sters
Ġweight s
B ack
Ġs ix
Ġus ually
s ample
Ñ ģ
Ġma pping
Ġin verse
st s
ĠM odel
Ġdecomp osition
j av
E Q
Ġqu ite
v ature
math op
Ġredu ce
Ġsh ift
ĠA cc
Ġb ig
c ome
Ġk ine
on y
Ġscal es
empty set
, "
Ġcalcula te
ent ry
Ġaccu rate
ĠU sing
ud es
Ġpro jection
it ing
bra ce
ad o
Ġr ing
M R
Ġ\ !
T ypes
g ent
ma ted
sh ip
M in
Ġstra ight
ĠReturn s
Ġren der
Ġ{ }
clo se
ome tric
Ġgrow th
ic ity
is k
Ġcomplex ity
c p
Ġcom mu
Ġre ally
V ER
G B
Ġsa ys
Ġv ol
udi o
Ġ ^{
ĠH T
But ton
S ee
7 6
Add ress
s or
Ġto wards
Ġun defined
Ġform er
N D
t wo
s cope
Ġprodu ce
ĠP a
R ange
Con st
Ġon line
ro y
Ġesti mation
Ġstrong ly
Ġfil m
, {\
Ġv ary
ĠWh ile
Ġun its
Ġar gs
temp late
ĠC ont
Ġpers on
ĠP ol
ad ing
tribu tion
ol ved
ĠS u
Ġlim ited
io ta
fin ished
, âĢĿ
t w
Ġis sue
D O
3 00
Ġass ign
ang ed
if ically
al gorithm
ategor ies
rac ted
}} .
os ity
Ġagree ment
Ġl and
Ġconf ir
Ġover all
sem ble
Ġc r
Ġredu ction
imilar ly
? :
Ġ ign
u int
Pro vider
Ġfunction al
long rightarrow
u tes
8 3
Ġr ules
pec ially
back ground
) --
V is
ĠAss ert
un ch
Ġde al
Ġremain ing
N R
}) =
Ġd ays
' ).
Ġrepres ented
A b
re al
U I
Ġm icro
' ),
Ġsetting s
ĠC l
in ation
Ġst ore
id er
Ġ\ (\
Ġdeta iled
p lugin
Ġatten tion
Ġscenari o
7 4
lo op
Ġidentif ied
Ġradi o
j oint
ist or
ne y
w indow
m n
uro pe
Ġf erm
A c
su ch
at ri
ĠA PI
ula ted
Ġfile s
po ints
Ġn ature
h am
F orm
Ġtemp late
Ġth ick
Ġcoordin ate
}} ^{\
il s
L emma
Ġachie ve
oun ded
Ġidentif y
for d
Ġboo k
n ap
com m
Ġpri mary
Ġf all
Ġis o
] {\
Ġwh y
p atch
ĠF urthermore
ste p
Ġcap ture
Ġn or
model s
b matrix
tr ics
ĠN S
il er
ĠAr ray
M D
Ġre si
c lear
}) ^
Ġf undamental
Ġmention ed
para graph
Ġloc ated
tif act
p id
ter m
Ġex hi
Ġdist inct
}_{ -
Ġgener ally
i table
Ġother s
en omen
Ġrepresen tations
ati ves
Ġ ve
ra pper
Ġma s
ĠSta tes
ak ing
Ġappropri ate
pro to
is s
D D
Ġconst ants
PE CT
ĠĠĠĠĠĠĠĠĠĠĠĠĠĠĠĠ ĠĠĠĠĠĠĠĠĠĠĠĠĠĠĠĠĠĠĠ
tiz ation
ad ow
v s
Ser ver
Ġgu arante
.. ..
she et
t rain
ĠE d
ve e
Ġc ry
ĠP ri
ial og
Ġal though
Ġp ast
im es
Ġconstr ucted
7 9
âĢ Ķ
ser vice
Ġcom es
He ader
Ġout side
Ġclear ly
Ġequ ilibrium
Ġv ac
lic ity
T op
si tivity
Mod ule
cont rol
ĠW orld
I ST
m ann
Ġc riter
Ġgener ation
ĠEx p
Ġsuffici ently
Ġsta ck
t iny
AP I
Ġrep lace
pro ject
s v
Ġmax imal
I m
Ġestab lish
ra ft
circ le
/ (
am ily
re q
7 3
C al
ĠĠĠĠĠĠĠĠĠĠĠĠĠĠĠĠ ĠĠĠĠĠ
c us
Ġreturn ed
er al
a res
Ġho le
s ure
}} }\
Ġcont inue
Ġmanif old
) }_
Ġrece ived
ch em
un i
Ġevalu ation
Ġsol ve
Ġmeasure s
ĠW ar
ĠApp endix
oun ts
s y
Ġconsider ing
D i
auth or
Ġrecent ly
8 1
a o
Ġsub ject
Ġslight ly
E C
T ree
Ġb os
Ġcon cent
Ġrela tively
for t
column width
Ġse mi
as ic
Ġcomplete ly
L ast
os ing
exp orts
K E
Ġembed ding
y ond
ĠF ile
Ġex ception
Ġpro por
B J
triv ial
Ġdiag onal
P L
Ġindic ate
Res ults
Ġs tri
men u
AR T
ct x
b ur
bu ffer
S H
U rl
Ġeffici ency
Ġe lect
^{ *
Ġrec ord
ĠA dd
Ġcon tact
br ary
Ġre ve
var theta
Ġplay ers
Lo cal
Pro of
ĠB ar
c ar
Ġsimp l
Ġro bust
un finished
ĠAl so
om an
Ġphys ics
ou rier
a j
Lay out
g ian
Ġj oin
k y
z ed
Ġpro tocol
p lot
Ġsit uation
He ight
ĠA ug
en n
k i
s table
Ġpol y
Ġver tical
| }{
< ?
Ġbuil t
Ġsuffici ent
Ġsamp ling
Ġre mark
ib ration
figure s
199 9
ĠT ra
bo ard
F ONT
][ ]{
Ġfor ward
O P
F la
t f
G R
Ġevalu ate
B o
Ġcontain ed
Ġ er
Ġet c
Ġcyc le
ĠS T
vis ed
Ġsoft ware
Config uration
Ġag ent
M E
ap s
Ġse ason
Ġtyp ical
ĠO ct
Ġgreat er
sl ant
Ġp seud
Un it
$ &
Ġdiffer ences
K ind
Ġc li
ste in
Ġo dd
Ġter min
m os
Ġ$ ,
Ġlar gest
i tions
Ġup on
Ġunder lying
S ch
> \
d iff
ant om
Ġhas h
ight s
mag netic
a vel
it ory
ci ble
\ }\
H ence
an ti
Ġsec tions
Ġtrain ed
is ely
Ġcommun ity
Ġes pecially
Ġs ocial
En try
} |\
% %
Ġcon j
b ib
Ġener gies
Ġe q
Ġat tribute
me ds
\ }$,
Ġmatch ing
Ġb ene
ĠY ork
wh ile
}$ }
Ġch em
di ag
Ġoff ic
a ut
D R
Ġwork ing
N E
Ġtest s
ble m
Ġne ural
Ġassump tions
Ġphot on
Ġg ot
| }
ist ent
meds kip
Ġexp ressed
: =\
Ġreg ister
Util s
Ġlim its
ann ing
Ġtrivi al
tain ed
Ġmod ified
Ġdes ired
Ġvari ation
ec ute
ax is
Ġd ig
op s
Ġ> =
v as
Ġph enomen
ĠE ach
ĠA u
Ġprevious ly
Ġapp lying
ĠL ie
Ġcur vature
Ġexplicit ly
dic tion
ĠM y
E mpty
Ġof fer
ura tions
ollow ing
bo ol
ur ch
Ġa pi
= .
Ġa im
in st
ula tions
Ġre call
Ġn ames
Ġmedi a
Ġset up
Ġasympto tic
Ġ} {
am era
Ġa ir
Ġbus iness
Ġderiv ative
+ (
}} =
or i
7 1
Exp ression
ĠH ar
Ġwe ek
Ġ* *
form al
b um
Ġis omorphism
sub sec
Ġtop ological
\ |\
Ġto ol
Ġstatis tical
p op
script size
Pro cess
up le
Ġsta bility
sk i
il le
Ġlocal ly
umin osity
Ġsee ms
Ġcan onical
& =\
Ġdepend ing
m ult
$ {\
Ġi on
ad a
Ġnon linear
Ġbe yond
Ġd x
ature s
Ġdete cted
Th read
ĠO F
Ġsome thing
Ġc m
Ġestab lished
Par ams
Ġf oot
Ġoccur s
Ġtra ce
Ġor th
Ġev idence
b al
Ġ items
Ġno vel
Ġcon sequence
Ġvari ety
Ġmach ine
Ġb undle
Ġelec tr
multi row
Ġext end
res ource
an o
ĠB ri
g lobal
Ġpredic tions
ĠS w
in i
Ġname ly
ĠĠĠĠĠĠĠĠĠĠĠĠĠĠĠĠ ĠĠĠĠ
re w
e ach
Ġ Â
Ġme mber
ar c
re c
P os
yc le
ĠEX PECT
Ġpol i
^* \
Ġon to
for mations
Ġchannel s
Ġqu o
b p
ph ys
Ġcompu tational
() ->
b ing
} ~
[ -
P tr
p is
sid ent
ĠS ep
Call back
Ġhigh ly
se cond
sh ape
Ġdi ver
Ġd ust
A ccess
ri ver
Ġpredic ted
G e
Ġj oint
Ġt un
H ash
en tity
wh ite
per s
Ġm usic
Th at
Ġradi al
ĉĉĉĉ ĉĉĉ
ĠE urope
Ex ternal
Ġc at
ap ter
@ {
ff ic
ĠL ag
scri pts
Ġbi as
R R
et ing
ĠĠĠĠĠĠĠĠĠĠĠĠ Ċ
Ġuncer tain
Ġpr int
medi ately
are n
S yn
P A
y ear
it ter
ĠC reate
Ġshow ed
tt ps
re sp
w ell
Ġvari ance
ĠA pr
Ġder ive
S cript
typ es
ĠT rans
parameter s
m al
f ull
Ġcon du
vi tational
ĠL a
me m
Ġlabel s
Ġ( {\
j oin
199 8
J son
b et
ti ent
n ers
if ts
Ġdynam ic
Ġpath s
Supp ose
en ed
Ġmean ing
M O
ag ing
avel ength
X i
}\ |
h ic
z on
Ġachie ved
gg est
Ġintegra tion
ĠIn deed
ĠCh eck
no tag
B S
Ġacc eler
anc y
pa ir
Ġext reme
Le ft
cal led
Ġf loat
du cation
Ġcombin ed
M on
Ġmas sive
rop ic
tikz picture
L ong
Ġto ken
backs lash
Ġc ity
AC K
ĠĠĠĠĠĠĠĠĠĠĠĠĠĠĠĠ ĠĠ
Ġf ill
Le vel
Ġbuil ding
Ġcell s
Ġh ttps
ĠP e
Ġel lip
par allel
M ulti
tit u
c ache
nav bar
4 00
entif ier
D ir
Ġar ri
ĠS chool
f lu
ga ther
Ġcomp any
Ġas k
V AL
clu sions
la bor
for ce
Ġaction s
ĠS ome
f n
og onal
Ġus ual
ub ble
) })
D S
Ġgeneral ized
Oper ation
Ġx ml
ter min
Ġex am
lay out
Ġdimension al
Ġdoes n
on om
D P
Ġredsh ift
Ġsum mar
Ġ ,\
equ al
E ach
Ġa ver
Ġs ched
ĠP r
e mber
u ff
Ġdynam ical
ĉ ĠĠĠĠĠ
vari ance
s d
M o
ĠN ame
ati ble
W ork
Ġhy dro
re et
G iven
`` `
z ing
Ġen gine
Ġtechni que
ĠS outh
Ġhe alth
to ken
eli hood
Con sider
Ġs pher
ec tions
\% $
Ġtransp ort
Ġob vious
Ġent er
Ġprincip le
ymme try
D A
C lo
Ġchall eng
Ġf ont
ch annel
" ))
st ro
el ine
no ther
Ġper fect
h ar
as cript
Ġtest ing
ren der
Ġequival ence
o ber
^{ (\
Ġm u
Z E
Ġ$\ {\
Ġwhere as
Ġf ri
Ġcomp uting
Ġear lier
ĠM c
Ġdeg rees
Ġd ashed
Ġprec isely
n n
el low
str al
te mber
re a
ĠIn tern
Ġtyp ically
O ption
N AME
c ro
() :
Ġf av
Ġsequ ences
Ġdata base
F O
Ġpi ec
Ġradi ation
sh ot
Ġp ick
d ocument
! \
Ġcurrent ly
lat or
De finition
comp onent
reed om
Ġsatisf ied
cont inu
tric t
Ġs cope
^* (
ject ure
one y
Ġexp ec
Ġsto chastic
et al
Ġpartic ip
Co mple
Ġin deed
) ^\
N on
Ġs ession
ast er
si vely
ĠC ity
Ġpropo se
ĠJan uary
en tic
ĠWe b
cor ollary
k in
) ).
et ch
> ,
Ġblock s
ĠM arch
rom ise
Ġproduct s
Ġg ames
Ġapproximate ly
;\ ;\
Ġe mer
Ġeffici ent
Ġis sues
iction ary
Ġprob ab
Ġelec tric
Ġ math
ph antom
Ġeigen values
Ġte ll
ĠCh ar
IN E
ĠH igh
ĠĠĠĠĠĠĠĠĠĠĠĠĠĠĠĠĠĠĠĠĠĠĠĠĠĠĠĠĠĠĠĠ ĠĠĠĠĠĠĠĠĠĠĠĠĠĠĠĠĠĠĠĠĠĠĠĠĠĠĠĠĠĠĠĠ
ator y
w ait
by te
ĠO ther
tiv ation
Ġab und
T T
anc el
Ġdis per
) [
Ġth ought
Ġmax im
mat or
Cont rol
Ġbul k
Ġst ory
Ġco inc
Ġar ticle
ST R
Ġgra vity
I ter
P osition
gener al
Ġ< !--
ĠH iggs
I B
ig ation
Ġc ache
N one
Ġth ings
ograph y
u it
do main
h al
Ġgener ic
Ġfin ally
Ġ* )
ula te
Ġ\ &
our nal
Ġb r
C F
E rr
part ment
ĠG al
ch or
Ġgovern ment
d ash
Ġsu ff
Ġim mediately
Parameter s
p ite
id ing
v ents
i ra
il bert
Ġv s
Ġy ield
her ent
Ġs qu
ĠI R
( -\
st ore
Ġent ries
ill s
math it
. \\
Ġsu ggest
Conn ection
Ġb all
ex ists
g reg
More over
leg ate
t ml
Ġj et
Pro perties
Ġde ath
re ated
ĠD E
Set tings
G N
ne gative
ound ation
CO L
ti sh
gr id
in ternal
Ġplay er
I l
de bug
N ames
V ari
Ġth read
Ġhigh est
ĠA b
Ġansw er
Ġac tivity
Ġindic es
ou ch
Ġcon cept
ĠT ime
( *
Ġpas sed
br id
E l
Ġpo sitions
b on
C or
Ġprac tice
Ġremo ved
Ġrelations hip
Ġun known
sel ves
Ġcomp e
th ere
| ^{
S A
AT ION
k m
Ġprocess ing
_ ;
Ġcommun ication
OR T
Ġfollow ed
Ġint ensity
Ġc amp
Re ference
Ġcontain er
Ġden se
op tim
Ġdist ingu
ĠC LASS
ther n
lar ge
Ġo uter
c z
Ġinter section
Ġw ait
en u
Ġcan cel
in itial
Ġ }}
struct or
Ġre produ
u um
S earch
ĠB ay
c ut
Ġfluct uations
erm an
Ġdes igned
ĠM ath
Ġquanti ties
1 20
e le
Ġse man
}{ *
Ġtreat ment
ĠA c
Ġspec ies
ĠS M
Ġname d
text up
down arrow
ĠRes earch
Ġn amespace
ĠH REF
St ore
D oc
ench mark
Ġarchitect ure
AN D
V ar
pro b
ĠR ed
Ġshow ing
Ġh idden
Ġhar mon
) ),
C M
P ack
Ġpar ams
ĠO R
ĠS U
ier arch
ran gian
Ġhypo thesis
Ġthe ories
redu cible
Ġbec ame
Ġob jective
Ġd rop
Ġsu itable
Ġdete ctor
Ġneigh b
R ender
)-- (
Ġrun s
Ġc la
h ash
or igin
Ġflu id
HT ML
Hand le
Ch ange
ĠG eV
a vi
Ġimple mented
ve mber
ult ane
r d
Ġextra ct
a e
is son
' _{
ch ain
ĠL og
L ocation
Ġperturb ation
tr ins
w in
Ġl uminosity
Ġinvestig ate
Ġare as
Ġto ok
Ġrela x
Ġma sk
u ge
if ier
! ]
#### ####
ir th
W idget
con dition
ĠN orth
K o
\! \
la tes
$. }
pro te
Ġnormal ized
ran k
H ost
ang ular
B A
ol ing
Or der
Ġser vices
Ġhe avy
Ġstar ted
ĠSupp ose
Cur rent
trans form
Ġs ong
Ġaltern ative
en um
Ġr isk
C opy
p l
" ));
k o
Ġf ront
ag ue
Ġpar se
D ocument
c opy
s ince
ĠE rror
Ġex change
ĠG iven
ĠJ une
m its
Ġde lay
bo o
Ġacc re
Ġelect ro
i ent
ĠJ uly
Ġw all
Ġa rm
ĠE l
D C
ST ATE
Ġinvol ved
Ġover ride
st ri
~ (\
S ymbol
Op en
P olicy
ĠN ot
if ies
$- $
h s
a ff
Ġd ot
Ġuniform ly
AL L
Ext ension
T C
jav ascript
sp in
ĠEn d
S um
Ġent ang
ĠEx ception
Ġcoun try
H C
Ġpur pose
Ġres ources
Ġlo t
en ta
ist ration
ar ding
Ġex clu
ĠF ourier
C ore
bel ian
ta mp
su mp
Ġass uming
t an
Ġver ify
ck s
atri x
wh en
Ġe f
c il
par ticle
Ġqu ick
- (
Ġ\ ,\
Gra ph
we ight
Ġn av
Des cription
stack rel
Ġexpression s
b ind
Ġp refer
Ġincre ased
le ge
M ar
P H
text color
Ġme trics
ĠApr il
Ġstatis tics
| $
Ġreco ver
Wh ile
g reen
12 8
Ġunderstand ing
Ġhe at
ĠOct ober
im its
}) +
ĠSep tember
serv ation
y r
__ (
Ġsh ock
Ġgra vitational
Ġ ::
Ġwrit ing
cre te
Ġcandid ate
Ã ¡
Ġla te
Ġre ader
ur i
Ġn et
Ġpar ame
ar ith
) }.
Ġf ine
lap se
D own
d ouble
Ġexp and
Ġconc ern
C l
a co
\| _
Ġre cur
Ġcorre ction
s us
C an
CO DE
Ġc ref
Ġv io
Ġrepla ced
15 0
function s
Ġpub lished
is ot
Pro p
p la
Ġcomp an
S ign
ĠCoun ty
de tail
Ġw aves
K e
h r
g re
rid ge
Ġs izes
B L
Ġex ci
ĠW ork
Ġra pid
Ġcolumn s
Ġb rief
Ġs top
Ġde li
) (\
Ġiter ation
v ect
tic les
P e
Ġsign als
Ġad op
Ġ _{\
ĠS un
rep lace
footnote size
Ġm ixed
po ch
Ġcharacter s
` ,
ol ar
inter face
Ġpolar ization
Ġconn ect
Ġre li
Ġpro f
S chema
Ġques tions
Ġde l
Ġpop ular
Ġcl oud
ĠAug ust
ĉ ĠĠĠĠĠĠĠĠĠĠĠ
ĠIn t
ĠA ir
Ġsec urity
ERR OR
Ġin depend
ist ance
un ct
Ġequ ality
m om
or ing
ul us
to ol
Ġcorre ctions
25 6
v ol
class es
ad s
Ġsh are
M app
Ġad ding
G S
be led
b il
Ġconfig urations
P a
Ġs end
En tity
Ġprec ision
Ġ\ [
com ment
ĠĠ čĊ
Y ou
ing le
Ġg reen
{ (\
Ġinflu ence
Ġexper ience
w s
cor por
ĠS D
ĠF unction
Ġbehavi our
Ġcomp osition
Q ue
ĠS uch
Ġrele ased
as ons
Ġal bum
} /\
Ġp ush
Ser ial
Ġuncertain ties
plan e
F ont
hand le
lon e
ĠR E
s quare
H S
Ġm illion
or tion
uc ial
Ġnuc lear
A p
Ġf reedom
ĠSci ence
IG N
tri e
Ġtr igger
sh ort
ii i
Ġthrough out
Ġsupp ose
Ġfor med
ms g
h ol
Ġevalu ated
199 7
ac tic
m f
Ġm i
ran e
pro duct
ĠE ar
Ġtrans mission
b c
ĠO ut
Imp l
ĠA f
mult line
web pack
By tes
Ġaff ect
Ġno tice
Ġcomp ar
M T
f ields
Ġre ct
Ġin str
var rho
Ex ample
le v
Ġperiod ic
C ar
h fill
Ġrele ase
comple te
ĠR un
S QL
Ġro ugh
sp ort
] ]
b order
in variant
c ategory
Ġchang ed
Ġw avelength
i em
Ġst ress
Ġparticular ly
web kit
Ġquad ratic
In valid
de vice
S ession
Ġw ays
T ran
*} [
stit ute
Ġfin ding
H ttp
be fore
de lete
B P
Ġfa iled
st an
ĠDec ember
B ody
type of
CT ION
Ġpattern s
: </
Ġde du
Ġat oms
25 5
Ġsh ared
199 6
Ġsepar ate
er ies
tr al
Ġs creen
in ted
Ġad v
Ġpack age
Ġhal o
se p
ĠNo vember
n el
ĠL O
ĠE xt
ĠAu stral
Ġro und
Ġc ame
Ġb right
Ġthan k
Ġp en
spec ial
Ġplan et
}. }
' re
Ġquan tity
p k
F L
ĠW hat
ph ase
Ġv i
ver ti
ĠEx ample
ra ys
&= &\
}$ \
boo lean
c line
ĠG roup
Ġget s
at s
Ġref lect
mod ules
Ġiden tical
um es
r ich
$ ^{
Ġis ot
enc ed
b ilities
ra ct
) }(\
Ġneutr ino
lu ster
Ġfa ir
n etwork
com ing
n ol
Ġan om
Ġve hic
the less
ĠCor ollary
ro me
Ġmo ving
Ġh ouse
Ġby te
cri min
y a
Ġmix ing
ou l
Ġn um
Ġmark et
xt ure
As ync
low er
erm i
ad ers
Ġpolynomial s
Ġexp ress
Ġenc oding
Ġpro ceed
G eV
F C
Ġ$ ^{
Ġcoup led
Ġin fo
Ġvis ible
ĠAl though
Ġgeome tric
Re ader
$ ^
` .
P ort
Ġby tes
12 3
ĠMe thod
Ġsol ar
Ġhom ogeneous
U LT
Ġorth ogonal
Ġtrans lation
Ġs lo
B R
V ector
Ġexplain ed
}^{ +
Ġdeg ener
================ ================
mar gin
w ave
Ġchem ical
Arg ument
=\ {
ort un
) >
Hel per
W E
Ġac qu
ĠG reen
r or
Ġph ases
. $$
vi de
Ġvac uum
Ġanaly tic
TE ST
ĠM ax
Ġin sp
Ġr ise
Ġc lean
Ġde lete
Ġt en
c lip
util s
In teger
c u
h u
si a
ta ch
Ġb ad
Ġcon volution
Ġstud ents
Ġtop ology
or ter
Ġgo es
Ġc ategories
Ġinst ances
Ġenc ode
ren ce
Ġsim ultane
Ġden sities
h older
up arrow
Ġab ility
=" _
H O
Ġgener ating
sc opic
Ġcapa city
Ġmis sing
Ġp adding
o ke
Ġdiff usion
to String
Ġno tion
{ |
g mentation
man if
Ġprofile s
d iffer
ĠCh ris
ap an
ĠP y
ib ility
ĠM od
F S
U s
d est
trins ic
Ġsur vey
ã ģ
Ġalgebra ic
B E
Ġe con
V alues
{ .
}) ^{
H om
M em
Ġir reducible
Ġfrequ encies
Ġre comm
& &\
en ge
Ġmid dle
Ġde vices
Ġadvan tage
Ġd ro
G E
as c
bin om
al let
ĠM ed
Ġres er
scripts cript
Ġapp e
Ð »
P RE
br uary
Ġ( "
AG E
ĠS O
scriptscript style
Ġredu ces
Ġdevi ation
" `
ot on
Ġrecon struction
Ġper mu
] ^
st al
ce il
Ġsub space
e lec
Ġplay ed
ic o
Ġelectr ons
$ '
chem es
, ...,
ir ing
Ġ+ +
R ed
Ġinter ested
Ġtrans verse
Ġra tional
X ml
ir ical
ĠCon sider
ĠB ra
$\ \
Ġdefin es
frame work
Ġs ector
Ġst orage
it le
ad y
s yn
ari ties
ĠP ark
Ġcontinu um
Ġcorre lations
ĠI S
ĠW est
F alse
tot al
c ard
F OR
Ġp atch
B undle
Time out
Ġformu lation
po le
sh ift
De vice
Ġse m
20 22
ĠC ON
Ġ ),
Ġfe el
Ġneighbor hood
Ġreve al
Ġt ren
prop to
ĠS an
P D
Ġimple ment
Ġdepend ent
Ġbeh ind
AT A
radi us
_{ +
po sed
Temp late
Ġin fer
al ities
w hat
r andom
con ver
ĠEng lish
Ġsugges ts
ic ons
}{ {\
su be
M ark
Ob j
t ensor
Ġfit ting
Ġw omen
rep res
Ġun signed
Ġl ies
\ },
call back
ĠH is
G o
00 1
Ġinter mediate
ĠK ing
equ als
Ġy oung
Ġen h
conn ection
W hat
Ġimpro ved
Ġpri me
Ġsol ving
Ġat tributes
O K
an ks
ext ension
left arrow
Ġno ted
Ġla ck
it ary
Ġp icture
Ġun ion
ur ally
v acy
ond on
Ġe ver
Ġdirection s
if ying
the tic
Ġp las
Ġhoriz ontal
reg ular
reg ion
Ġd ra
ult ure
Ġli ve
sing le
Ġstraight forward
Ġhe ader
Ġpropor tional
OR D
Ġ\ |\
ol i
S w
U l
dep th
b d
) _{\
Ġapp lic
Ġdescri bes
Ġdemonstra te
i ers
E s
Ġfeed back
n es
me asure
ĠM ich
r ist
tif ied
ĠV alue
Ġtran sitions
z y
N G
Ġk m
Ġ[ '
big cup
def n
\ }.
R ule
lim it
Ġmedi um
r ong
ti os
EX T
Ġocc up
tr ight
text normal
Ġ-- -
$\ ,
ster ior
Ġmath e
Ġno thing
Ar gs
Ġup dated
D eta
file s
s ome
in ed
Ġabsor ption
stra int
a tively
si mple
V M
Be fore
' ],
tribu ted
Ġ" /
ĠAl gorithm
ĠB ro
Ġg lu
Ġ< =
small skip
Ġnew s
ĠD M
ĠD av
s chema
spec tive
ĠLag rangian
Ġbegin ning
en v
Ġorbit al
1 10
Ġdecre ases
j pg
U M
in v
Ġtemperature s
sq l
ti le
Ġnear ly
G ET
Ġme as
Ġdefin itions
) }$.
Ġa mb
Ġgener ator
Sta ck
Ġdisper sion
n y
tiv istic
vel oper
Ġle d
Ġpix el
j i
Ġrestr iction
199 5
h ave
Ġ rows
( :
w t
Ġh ierarch
Ġnecess arily
stra p
T e
iem ann
Ġ( *
th ick
Ġpredic t
B oolean
Ġto day
Ġscenari os
Ġdis cover
math tt
bold math
' ))
Ġh ot
ĠTr ue
N A
Ġband s
ish ing
L R
text sf
ĠĠĠĠĠĠĠĠĠĠĠĠĠĠĠĠ ĠĠĠĠĠĠĠĠĠ
Ġderiv atives
Ġact s
Ġhel d
g b
ĠT HE
Ġre trie
Ġbase line
Ġse gment
En c
I A
Ã ³
ers on
Ġ( '
s ch
Re p
Ġ ~\
add ress
^+ $
Ġsite s
ip eline
ĠG R
ob s
Ġ[ ];
}[ !
me an
Ġke ys
ar tifact
Ġpossi bility
c tic
sump tion
ra ted
Pro position
Ġmolec ular
_ ->
Ġup d
set tings
Ġen semble
ik i
ing er
EN D
qu ations
z er
s ession
Ġin it
Ġw alk
Ġ" \
ar ge
Ġto wn
um entation
Ġsimula ted
Ġuni versal
Ġexpec tation
ĠM ap
Ġfor ces
Ġmod ules
n m
ot ing
Ġadj ac
Ġcause d
} >
ite s
Ġcon v
if ted
Ġimport ance
Ġ\ {\
f g
c le
app ly
Ġat t
g gle
Ġat mos
Ġdo ing
Ġat omic
ĠĠĠĠĠĠĠĠĠĠĠĠĠĠĠĠ ĠĠĠĠĠĠĠĠ
Ġd t
D irect
ĠĠĠĠĠĠĠĠĠĠĠĠĠĠĠĠ ĠĠĠĠĠĠ
ĠO ver
ĠE vent
ens ors
B B
T S
ĠV al
Ġinter act
olog ies
Ġorder s
Ġsen sitivity
16 0
W S
Ġmorph ism
b re
Pro ject
ĠH ilbert
leq slant
v m
De lete
res sive
in line
Ġstrict ly
$ }}
lang uage
y e
Ġlook ing
ĠU se
ĠOp en
Ġag ents
\ [\
Ġrefer ences
Ġsepar ation
reg ister
Ġs il
ĠT ech
k l
w rit
Ġvalid ation
Ġin corpor
Ġwe ighted
Ġcar ried
U RE
Ġcompu ter
Des criptor
| -
sube quations
Ġfla g
lo ss
Ġcom ing
stit u
k ern
Par ser
Ġinput s
R oot
ang es
P ass
S im
Ġc ard
new line
Ġte s
Ġb its
s end
Ġbelie ve
y es
Ġl isted
Ġcontra ct
re lated
ent er
ĠD ate
Ġs ort
C ap
Ġwor th
str y
Ġth ing
Ġto ols
vi ties
ry p
se lected
' .
ach ed
Ġw ind
Ġsp read
ut or
Ġs ound
la w
Meta data
v c
E O
}) =\
g ni
Ġac cep
Data base
Ap J
St orage
Que ue
Ġv alu
in clu
im in
M a
Ġassert Equals
ex ception
Ġprovid ing
Ġc odes
Ġlow est
}} ,\
Ġde mand
Ġb ur
}^ +
Ġvari ations
Ġpseud o
vi e
Ġreg ression
tright arrow
Ġmain ly
Ġw atch
Ġar c
ha pe
Ġgiv ing
De bug
ĠFe bruary
\ }_{
Ġco p
ens ing
ĠC R
ura ble
omorph isms
Ġh it
is sion
Ġmodel ing
Par am
M F
d ensity
Ġpro pos
form ance
Ġt ail
lic ated
Ġprob ably
v or
On ly
le f
la ting
Ġcom ment
nol imits
Ġf le
cite alt
Ġdecre ase
n one
En abled
Ġt ang
pro perties
r b
ynam ics
ke ys
M enu
P od
Ġtemp oral
W riter
P arent
ĠI mp
Ġ{ $\
s ymmetric
_ ,
w idget
c lick
Ġmet all
Ġli brary
T ab
in stein
Ġsur faces
App lication
Big g
h ang
In itial
Ġprec ise
Ġsta ted
Ġinstance of
ff ff
Ġmatch es
C I
Ġrepresent ing
& #
iz able
der s
-------------------------------- --------------------------------
ren ch
la m
h ed
Ġphot ons
Ġr ig
Ġj ump
Ġalgebra s
Ġessential ly
Ġh ours
ĠN OT
w ords
Ġexp lan
COL OR
Ġopp osite
Ġinter n
Ġal loc
ado op
Ġor d
supp ort
AC E
Ġac cept
Ġcomp lement
in du
Ġrandom ly
ĠF oundation
ag nos
t z
Ġdist ances
) }$,
Ġlik elihood
Ġfun ctor
ma tical
Ġsum mary
Ġturn s
co very
S cope
ĠEqu ation
F in
and s
tiv ated
pd own
Ġ} )
Ġfail ure
Ġb atch
Ġab stract
Ġstring s
_{ -\
ak er
18 0
at t
Rec ord
Ġlim i
cal c
Ġori entation
Ġhand ler
| _
Ġs chemes
b olic
By te
P attern
N etwork
Ġlo ve
ib rary
Ġn ight
ĠB ase
ang uage
ĠH ow
Ġaccre tion
ĠD r
ver b
% ;
mid rule
clu ster
Ġ\ }
Ġsyste matic
Ġpr ice
_{ [
Ġconver ges
}{ }
a ign
ou te
AN T
Ġsc i
Ġferm ion
Ġse em
R ect
go ing
am l
Ġann oun
fin ity
Ġo s
Ġpro gress
ra t
SE T
p anel
Ġeigen value
per iod
ure d
ma tics
| _{\
m I
Ã Ń
Ġis omorphic
Ġvis it
] =
i as
ĠR us
ĠĠĠĠĠĠĠĠĠĠĠĠĠĠĠĠĠĠĠĠĠĠĠĠĠĠĠĠĠĠĠĠ ĠĠĠĠĠĠĠ
M et
Ġreco gn
Ġs at
Ġe lem
Ġtraject ory
f ocus
Ġs ti
Ġexecu tion
Ġdia grams
v ille
I X
z a
Ġt urb
[ $
si bility
ĠCent er
ĠE ast
Ass ert
Ġte ach
Ġauto matically
SS ERT
ot al
Ġtra de
dis abled
Ġdid n
R A
po lation
li k
c b
uc lide
ex ist
ig ible
n ed
ĠN etwork
B M
sk y
ĠU RL
fin ed
oci ety
)) )
> .
Ġuni qu
Ġte le
Ġunit ary
ĠDe finition
Ġtype of
ĉ ĠĠĠĠ
Ġra tios
Ġcar ry
Ġb irth
Ġcosm ological
Ġun less
Ch annel
o le
S F
Ġsimilar ly
ick er
ĠB el
199 0
ta ted
Ġe pis
Ġbut ton
uclide an
Ġlist ener
is on
A uto
ĠAf ric
Y k
ĠS imilarly
Ġindic ated
ĠL ondon
es ter
mi tive
Ġinterpre tation
Lo ad
ĠR equ
re st
F ields
Ġdiffer enti
sequ ent
che me
Ġlo ck
C N
di an
w ner
n umer
Ġchar ged
Ġintegra ted
Ġle ave
cm d
tain ing
Ġad vers
medi a
Style ID
Ġb l
Ġm anner
199 4
ĠI O
Ġext racted
i us
ĠS m
Ġin ference
Ġsen sitive
Ġan i
ti gated
ĠEq s
ĠP ublic
Ph ys
ar se
Ġpo inter
Ġtra vel
O e
S ome
Y i
\, {\
vir t
cknow ledge
Ġmo ck
Ġtyp ename
Ġin line
T itle
ge x
gra mm
i ans
spec ts
Ġesti mator
H as
Ġm essages
Ġd uration
Ġvary ing
Syn tax
Ġc y
Ġg l
valu ed
nap shot
I E
M ain
Ð° Ð
="../../../../ ../
Ġsign ature
Ġe poch
cus sion
c ustom
ĠB G
j k
Ġs y
Rec all
J Q
Ġen able
for mu
) ">
or ity
su ccess
h d
ĠH ol
\| ^
s at
Ġf unc
co ordin
' $.
Ġreson ance
ĠAcc ording
Ġtrans formations
ta ting
Ġc a
ra me
int ro
doc s
s en
ĠĠĠĠ ĠĠĊ
and ard
bo ot
Ġt rees
Ġcomp atible
ou ra
corre spon
Ġb enchmark
d ical
Ġs phere
anc ial
ĠB ecause
ĠJ apan
oci ation
Ġreach ed
Ġcondition al
ĠIntern ational
Ġimp ly
B in
Ġright s
Ġsimp licity
Se lect
artifact Id
ĠP lan
con v
de termin
KE Y
comple x
lus h
ĠA R
Ġsh ell
ĠJ SON
Ġcon clusion
' >
ĠC ur
Ġorder ed
sp e
gra dient
}{* }{
D T
l r
ĠGener al
Ġdis crimin
^* _
Ġlog arith
M ock
u el
Ġdirect ory
import ant
cknow led
ann ed
y al
OD O
ĠPo isson
Ġrestric ted
Ġd a
) &
gra y
Ġra ise
ĠO f
end ar
Ġf ib
Ġcall s
S end
u a
Ġtra ditional
Ġlo st
ma sk
Ġen tity
IT Y
ĠSec ond
b ile
k ind
ĠBri tish
tri angle
Ġconj ug
Ġdomain s
Ġconf idence
not in
rup t
Ġw ent
d ashed
conn ect
Ġcont roller
dition ally
gener ate
U se
Se lector
i ke
c ape
Ġindu ction
Ġcon duct
requ ency
ã ĥ
conn ected
ĠSer vice
ĠI m
sur face
Ġexplo re
Ġanaly ze
Ġpix els
Ġfil ename
Ġass igned
Ġque ue
c ross
Ġadop ted
Ġspect ro
ic ted
s ys
ĠB er
T wo
h l
Ġ Ã
Ġp ull
we ak
ĠD em
Ġv or
//////////////// ////////////////
Ġcandid ates
Ġthem selves
L D
ĠN O
-> _
i ps
> ();
p ower
F E
Ġtr uth
Ġloc ations
i lation
Ġfoot ball
Ġstar ts
M y
C ustom
Ġhoriz on
ĠF in
ĠH ouse
F unc
am ent
Ġro om
f r
Ġass ess
ill ing
qu ark
Ġdomin ant
ser ved
ho ver
Ġgeneral ization
ho ok
i ub
u id
Ste p
v dots
ĠN or
Ġinvol ving
Ġprobab ilities
ti vities
ow ers
F ail
Ġcom ments
ĠF ermi
hy per
sub stack
C ref
ar ded
que ue
Ġdiv is
alle st
ti an
ang er
. __
at al
b as
Ġamplit udes
To ol
JQ Yi
im er
c QL
V tf
Ul I
MN mI
Gu Oe
Ko iub
Yk Koiub
cQL BJ
Vtf GuOe
YkKoiub VtfGuOe
JQYi UlI
ĠW il
An y
ĠBo th
M icrosoft
mo ck
dic t
Ġm ind
Ġf its
Ġtechn ology
re y
Ġapp arent
Ġc i
Ġlearn ed
D ialog
B O
ĠGo ogle
ĠI P
ri e
Ġsymbol s
Ġinclu sion
exp ort
h adoop
In it
ult ra
Ġco variance
ar ity
Ġge odes
Dis play
Ġmark ed
la b
qu o
}) (
Ġb ring
t n
N um
Ġinterval s
ti ents
i med
Ġ' /
Po inter
av ed
mod al
Ġj us
stan tial
Ġcoupling s
l b
ar m
const ant
Ġe cho
Ġc amera
de te
un signed
}} =\
} <
Ġrece ive
ar a
ĠNew s
ĠUn der
tig ht
FA ULT
sum er
Ġ ri
mom ent
Ġcat alog
v ation
Ġsugges ted
Sec urity
group Id
Ġmaterial s
Ġchang ing
P lugin
loy ment
Ġf ire
t un
}} )$
Ġreg ard
Ġad min
no tations
= -\
Ġtrans action
Ġimprove ment
ev ents
Ġinves tigated
Ġra w
Ġpar a
o om
Ġread ing
i ta
25 0
tr im
ĠN ode
IT E
ĠW illi
Ġsol ved
Ġpo sterior
S Y
ĠS N
Ġmonth s
ĠT wo
sh arp
G G
app lication
o pe
al so
land s
a el
Ġser ial
ur s
tri ang
S V
Ġstation ary
ĠS ur
Ġfast er
Ġturb ul
Ġinte gers
Ġin struction
199 3
P AR
P ol
T rack
oc used
av en
ĠH el
Ġfam il
p adding
Ġrefer red
Ġaff ine
F urthermore
ra ise
TE X
Ġneu tron
Ġdefin ing
' )$
e ven
Ġs parse
| =
p b
ĠN umber
AT H
Ġsp an
Ġsa f
ĠH er
12 5
Ġcon jecture
Ġpo or
TE D
F loat
Ġemp irical
Ġentang lement
ir it
rack et
pa re
& -
Ġth in
CH E
Ġch iral
Ġconsist ing
} ~\
Ġn arrow
Ġmom ents
Ġiter ations
sto od
Ġcho ices
Ġprincip al
V olume
tri but
Ġdire cted
ĠA ct
ro s
Ġbe gan
Ġpers onal
Ġstrate gies
ad es
b ounded
Ġsub section
Ġenh ance
A ut
II I
Ġan isot
Ġp lus
es tern
ed s
ir m
ĠR iemann
Ġp latform
ĠK ey
Right arrow
ĠU V
qu id
Sec ond
P art
Ġsimilar ity
yste ms
Ġli e
Ġar t
ĠRem ark
=" -
Ġsur pr
ad min
ĠB lack
B bb
ock et
ab a
Ġrequire ments
l floor
lection s
e g
Ġc ub
Ġh istor
Ġopp ortun
pro ps
h ere
* \
J S
ĠA m
;\ ;
M atrix
R ad
st op
O ther
se par
L ock
Ġto uch
Ġallow ing
' =
A ctive
t xt
Ġver sus
Ġpro ton
k ov
ĠA GN
Ġbelong s
_ (
ens es
w rap
a ccess
her it
E V
C lick
lo ok
ĠS a
Ġm sg
ol ver
Ġembed ded
A v
T IM
Ġfra mes
U L
Ġattemp t
ĠHT ML
des c
f amily
D raw
re size
h aps
Ġcontra diction
C G
Ġ$\ |
amp ion
Ġag greg
Ġre asons
te l
Ġgener ators
at tle
Ġass er
script style
at tribute
J SON
ĠM A
wo od
Ġm ut
Ġpanel s
A pi
Ġfamil ies
Ġprac tical
Ġ& $
G lobal
ĠO ff
Ġman agement
ti tions
Ġcomple ted
W ar
Ġweb site
Ġho pe
assert Equal
Ġde le
Ġsub sets
in sert
}\ ;
err y
r floor
R et
Ġcon formal
Ġdemonstra ted
av ity
Ġplot ted
d al
Nav Bar
Ġkine tic
Ġcharacteristic s
Ġemploy ed
Ġt end
\, ,
Ġtri p
Ġsyn chron
Fla gs
)= (
ĠDi rac
Ġex cite
In st
Ġsc ene
Ġconn ections
Ġcluster ing
Ġcr ucial
ful ly
in os
Ġpla ced
Ġcom b
Re v
Ed itor
Reg ister
an aly
imp l
) |\
il ing
199 2
ĠU K
A ni
h ard
p u
Ġa ug
Ġillustra ted
Ġpossi bly
Ġmost ly
appro xi
prec ated
f ol
Ġsk y
P ost
Ġcom mit
Ġdomin ated
T L
Ġrepe ated
op ed
}) _{
f lat
de comp
Ġla ser
~~~~ ~~~~
ĠC opy
Ġinst all
' }\
M sg
! !
Ġat om
over set
n p
ĠAss ume
Big l
i ma
Ġor bits
Ġversion s
Ġnat urally
Ġtri ang
t mp
math ds
S ION
ate ll
im it
ĠSt ar
sa fe
Ġn ational
Ġ( _
Ġcomp aring
ĠV AL
p ub
us ted
and ra
Ġneutr al
me tric
Ġpro jective
Ġdecre asing
Ġpropag ation
W A
g i
a iled
F IG
ĠAmeric a
L in
ĠEurope an
FI LE
ĠL ore
Ġre action
ĠQ CD
G en
R I
Ġpre vent
Ġmin utes
Ġtechn ical
Ġst ored
Not Null
Ġspher ical
' $,
D L
IM P
} &\
Ġre normal
ĠS k
}) )
Ġget ting
Ñ ĥ
De p
by tes
mathbb m
Ġin ser
c ounter
f ail
w p
i pped
Ġreason able
ing ton
Ġc red
Ġ ..
Ġseman tic
In ternal
Ġsplit ting
Ġevent ually
Ġdistingu ish
Ġsuper con
c en
Ġparame tr
ser ve
Ġper mission
Ass ume
Ġabs ence
Ġmod ern
At tributes
P M
Ġexhi bit
Ġellip tic
Ġweak ly
ä ¸
Ġtraject ories
Ġdis joint
la re
Ġ{ {
Ġslo pe
Run time
au gh
di ents
Ġsub stantial
le ep
Ġperform ing
p lus
Ġplas ma
lear ning
Ġcollision s
m ix
ET H
U psilon
ĠM or
} "
d ri
Ġperturb ations
g al
Ġo pa
, .
Ġsta bil
Ġang les
ĉĉĉ Ċ
Ġoffic ial
Ġpro position
ĠC H
ã Ĥ
ab ove
S G
lo od
bel ow
* )
t b
Ġen abled
un defined
Ġb ary
ra d
Ġj av
S pace
ap es
Ġme tal
Ġfi ber
ĠD en
Ġsome times
s ymbol
et te
Ġeffec tively
Ġs ides
lec tive
. }\
lan k
Ġqu ar
Big r
ĠIn itial
cc c
( !
B H
f d
Ġbreak ing
"" "
Ġnormal ization
Ġtra ffic
Ġse ven
Ġmes h
Ġrequ ests
d ynamic
Ġdec ays
ĠN ext
Ġsc ience
Ġe mail
Ġpri m
Ġprodu ces
}_{ {\
Ġsur roun
phys ical
ĠU ser
Ġp refix
Ġaff ected
Ġz one
Pro to
Ġre sid
de ep
$ _{\
are st
Ġcharacter ized
ĠH all
l m
Ġt reated
in dependent
oci ties
Ġdes c
Ġfinite ly
gra d
Ġhapp ens
entic ation
assert Equals
sw itch
Iter ator
ĉ čĊ
ĠS im
to ggle
ĠA N
and er
Ġcompar able
Ġpro p
bet ween
ĠR ad
if orn
Ġma ster
Ġsepar ated
Ġg ran
Ġin fra
Ġapp lies
E vents
ser ies
z one
e lastic
Ġj son
ĠSu per
ti te
w orld
Ġcol lected
Ġima gin
the ory
est ing
Ġa go
Ġsimultane ously
ĠT V
Ġso on
ore st
sc roll
ine ar
Ġme et
se q
Ġ$ [\
Al though
MA X
ĠA rm
Ġla beled
& $
S cale
ari al
Ite ms
Ġdedu ce
Ġspace time
st on
Ġinst ant
)} _{\
Ġcriter ia
ĠI mage
Ġt ab
Ġg ate
ĠA L
ĠS tr
fact or
Ġt ax
d p
spec ific
\| _{\
Ġin valid
Ġimp licit
form ing
Ġin trinsic
U V
U P
Ġexp lor
leg al
tra ct
Ġm oney
Ġpoli tical
. },
pro blem
Ġvanish es
Ġacc omp
Ġsub sequent
tiz ed
d z
hom ology
bo ost
nt z
= (\
ne g
Par se
Ġapplic able
tit ude
## #
Ġ} {\
Ġread s
iforn ia
Ġtop ic
Ġsm allest
cl oud
f ixed
H ow
ps ch
chi ve
il itary
Ġany thing
ĠJ o
l li
set up
Ġcol lect
\ /
ti p
er ial
ĠC ase
ir ror
Clo se
er c
Me mber
Ġsupp orts
Ch anged
ma ster
ĠReg ister
dis tribution
ens us
ver tex
U ni
sp aces
ĠBay es
Ġt al
tab ly
v in
Ġpul se
Ġharmon ic
Ġ{ {\
Ġw rong
tran sition
Ġ$ $\
Ġs ave
Ġmedi an
Ġmajor ity
ul lable
Ġcol labor
Ġindic ating
Ġcon tribute
S ingle
Ġquick ly
ĠF alse
Ġoutput s
ĠCol lege
ĠL aw
10 1
mu table
Ġ$ <
Ġcirc uit
a ults
Ġtransp arent
is o
ĠĠĠĠĠĠĠĠĠĠĠĠĠĠĠĠ ĠĠĠĠĠĠĠĠĠĠ
Name d
b ro
oid al
St ar
Ġsec onds
gl igible
un t
T ER
Ġn orth
++ ;
Ġfri end
style sheet
] ^{
psch itz
P lan
H D
a sible
Ġnon zero
me t
Ġro ute
ecu tion
Ġp lots
m ise
Ġelectron ic
an ced
Ġstrong er
ĠC NN
t ty
Ġadjac ent
Ġhigh light
F ull
n ames
ĠG ets
Ġunder stood
Ġp y
or ary
="../../../../ ../../
l ers
Ġinitial ly
ĠB OO
Ġ" "
ri a
e mbed
j et
ĠIn stitute
U ID
ĠC re
Ġcon e
R C
b rief
Ġd ir
od d
Ġpar ty
Ġhyper bolic
comp onents
Ġcriter ion
Pro tocol
ĠM ulti
Ġuni verse
ab br
tr igger
r f
Ġrespec tive
H igh
Ġinter ior
}_ +
Ġcare er
han ced
Ġcent ury
Ġidentif ication
SI ZE
Ġextension s
Ã ¤
Ġrough ly
G M
ĠT w
Ġbound aries
Ġign ore
j a
ren cy
Ġwhen ever
Class es
v olume
S ym
Ġtri angle
ĠM ag
Ġmo ved
Element s
c oun
ra tions
Ġne gle
li ography
Fe ature
s ort
}} }{
Ġinvol ves
id a
ch er
' ',
th read
Bu ild
Ġco verage
N amespace
) |^
ĠTech n
Un der
Ġcre ating
con tains
Ġco herent
at ural
ĠDav id
}) -
A x
A meric
Trans form
tra ce
k ens
ub y
ph y
il led
f ix
Ġlinear ly
t rack
Ġs cript
Ġsuccessful ly
Ġbene f
Ġe ducation
ĠCh ina
ĠM C
t ors
sub float
Po ol
Ġsuff ices
or ge
w ill
pos es
Ġn ative
Ġat tr
ch anged
ĠIn dia
ree k
Ġwide ly
ĠS QL
lear ly
Ġ ^{\
Ġflow s
Ġd u
ĠT ext
J ob
Ġinst al
Ġpro mo
ga cy
Ġscore s
tr um
add r
Ġacc es
ou ter
D IR
it on
char acter
H M
am ond
Ġanalog ous
Ġc ra
d omin
Con f
ĠE uclidean
G P
Ġma cro
g iven
Ġequ als
Tra ce
iter ator
Ġro ad
Ġsh arp
oriz ontal
in ction
p f
s ym
Ġd b
u v
Ġh tml
d if
an ted
ĠMark ov
Ġanaly tical
r ig
' }$
ĠF rench
W rapper
}= (
under set
cri be
hi ps
E P
ĠRe ad
te e
mple ctic
Ġpla ys
)} =
Ġad opt
Ġbal ance
ex perim
Ġtes ted
. (\
Ġpres ents
6 00
Ġ tim
Ġd ie
ine ment
pri mary
ig ration
Ġp aren
get s
gni tion
Ġfour th
Ġphot o
Ġf ood
Ġe ast
S equ
M OD
Ġar ti
Pro ps
ĠT R
L C
Ġp od
Ġdis si
Ġabund ance
Ġw ish
Ġfil ms
Ġa spects
ell ing
Ġreg arding
il t
ĠEar th
N odes
Ġresi dual
C luster
ĠL y
child ren
Comp arison
M u
Ġindu ces
H R
ĠS to
Char acter
Ġle pt
Ġact ing
Ġcontrol led
Ġrecor ded
Ġspec ify
$ --
in ity
og en
Ġrespon sible
) )$.
Ġcon clu
^{ [
arg ument
sv g
u pper
Ġg ave
ĠP al
Mem ory
Ġsecond ary
Ġconcent ration
un iform
ec tive
}. \
p attern
ĠDe partment
ne u
Ġal one
)) );
ĠM ac
Ġsus p
comp are
ub er
i lo
ĠC all
ĠH y
Ġquo tient
Ġchall enge
Ġ }$
ic a
Ġdiv ided
Ġattack s
proto buf
Ġcover ing
Ġinv oke
Ġindu stry
ĠOn ly
fla gs
ĠPh ys
Ke ys
tific ate
o ta
os es
aw a
c oup
corre ct
ST M
cep ts
Ġconver sion
rain s
ĠMon te
T ri
ĠS V
Ġextreme ly
B it
Ġpeak s
Ġdis order
ret ch
pro file
Ġindepend ently
Ġdis e
ĠBG COLOR
ĠCoun cil
Ġexp onent
~ (
f l
Ġm us
Ġf n
Ġc ast
ĠI II
He aders
Ġimple ments
Ġ ĉ
", "
virt ual
Ġrequire ment
Ġcontrol s
C V
F P
Ġmon itor
Ġre q
auto ref
; ->
ĠAn y
S N
T ests
ĠH o
M ath
() {
Ġcomp licated
Ġf em
Ġus age
hand ler
Ġde formation
Ġad mits
sol id
Ġover lap
Ġvel ocities
S he
CHE CK
s n
ven tion
Direct ory
str ucted
ĠA uth
ĠĠĠĠĠĠĠĠĠĠĠĠĠĠĠĠ ĠĠĠĠĠĠĠĠĠĠĠĠĠ
RO M
Rec e
Ġbos on
Ġex ceed
display math
A nother
Ġlat ent
a ver
Ġhom ot
use um
Ġper cent
S cal
gramm ing
u ages
}} }$
ĠT H
Ġcre ation
Ġlog ic
b x
e mail
). }
y er
Ġpartial ly
p otential
ĠL ap
Ġintegr als
st ration
M edia
Ġcol ors
ĠS um
P anel
ĠC our
Ġh on
Ġcirc ular
199 1
b ad
Ġtr ying
bor n
gra de
[ :
Sh ow
Ġdri ving
ay lor
Ġho les
Ġbin ding
ĠL ong
dire ction
Ġb rowser
Lay er
li e
u led
ĠP DF
Ġcorrect ly
) !
Ġadj ust
Ġmon ot
ĠDef ault
Ġcon d
F N
Ġboo st
Ġdiscus sions
D I
Ã ¼
Ġorder ing
Ġcal ibration
ĠPre sident
Ġfav or
ĠU pdate
/ >
ili ary
E CT
test ing
Ġread y
Ġconstrain ed
dro pdown
Sum mary
Ġcl ub
ch y
Ġbu ilder
pol y
lin ed
en able
ĠB H
P y
graph y
S imilarly
{ [
pher ic
Ġhapp en
pass word
Ġspec ifically
ĠS i
the me
iv il
ill is
Ġs on
Ġ tight
P Y
T A
Ġtrans mit
ĠT ODO
ĠE ven
Ġgener ality
s ig
P erm
ĠT ri
Ġdraw n
her ence
i et
Ġo l
Ġel imin
Ġp lugin
es ides
Ġevery thing
Ġle aves
Ġexcite d
Ġb re
rain ts
to ols
Ġapp end
19 80
Ġide as
S m
entif ic
$ /
Ġa ux
Ġsa w
Ġto t
ĠM icrosoft
Ġ ).
ari ant
ar r
}, {\
8 00
Ġcoup le
}\ }$
}_{ (
ĠV is
Ġcomp osed
meta data
ces sed
s b
os sible
ĠC ode
Gener ic
Ġres olve
ĠCar lo
ĠCan ada
ĠM ost
Lo ader
ĠCal ifornia
depend ency
com bin
Ġp ages
Ġro ots
no ise
' m
Ġmechan isms
re set
var pi
ĠD on
s ave
Ġis n
Ġi o
Ġpa tients
Ġto ld
Ġdescri bing
place ment
A E
' )\
ĠSt reet
ĠC P
State ment
A dap
Id entifier
ĠLe ague
Ġqu ali
ST AT
Ġ[ [
Ġd war
v skip
Ġpur poses
, ~
Acc ording
] :
z en
^- $
ĠI ts
ĠT ask
ĠC ap
Ġexci tation
P op
U LE
te in
in cre
> $
an alysis
ĠF urther
Ġ â
r ics
sp ring
Ġc lock
Ġnumer ically
th rows
}^{ (\
Ġch art
Ġcamp aign
ĠIn c
Ġgu ide
Ðµ Ð
Ġs outh
g ate
}| ^
Ġinc ident
Ex perim
ĠVer sion
C B
x rightarrow
pro tocol
( __
ile s
Ġg rant
A m
ta tes
ĠM al
inte gra
Ġr ich
AR Y
Ġid x
Ġpro be
ext end
n il
Ġindividual s
ma zon
Ġpla ces
D ire
ula tor
() ));
\, .
ĠF ield
viron ments
ane ous
Ġgener ates
c op
Ġde ad
u ed
EE E
G r
sc ore
f x
ĠS yn
A F
ĠB rown
Ġpotential s
Ġintrodu ction
sc ape
Ġclose ly
Ġmeta data
ut f
Ġclo sure
$ (\
W R
s amp
Do main
Ġpass ing
jec tions
if def
Ġtarget s
ĠH and
super vised
-- >
ON E
c tivity
ĠĠĠĠĠĠĠĠĠĠĠĠĠĠĠĠ ĠĠĠĠĠĠĠĠĠĠĠĠ
Ġbro ken
Ġcorre lated
s cription
Ġask ed
comp act
H istory
Ġpro grams
Ġend s
Ġw ire
Ġin finity
qu ote
ash ion
Ġran ges
à ¤
t c
[ ]{
ĠRec all
Ġcorrespond ence
ĠS en
ĠM er
sh ell
stand ard
Ġobserv ables
Ġe ight
) }^
Ġrecor ds
Ġprof ession
Ø §
Ġc tx
() ).
p tions
Event Listener
Ġca ref
print f
( |
uni que
s ymmetry
; <
se y
B ound
F ix
}( -
Ġj Query
Ġupd ates
ĠU p
Ġbrief ly
{ %
ad j
Ġcompan ies
Ġcost s
ĠLore ntz
Ġfilter s
Ġex c
ning s
@ "
ph one
ĠN GC
Ġext ent
Ġinter ference
Ġrepresen tative
Ġformal ism
w a
Pro xy
^ +\
ĠCom mun
ĠD ay
ot or
Ġcon sole
Ġar ise
Ġobserv able
ĠR ich
Ġsh ear
ĠT ran
Ġf ed
sh al
Ġd s
N C
equ ival
Ġ ill
A CT
Ġfin ancial
ten ess
Ġout per
Ġsepar ately
Sc roll
t ur
. *
Ġtor us
ft ware
Ġpaper s
Ġste ady
Ġtherm od
pa y
Ġdetermin es
To String
Ġoption al
Ġconsist ency
ou lo
f old
fig s
plugin s
Log ger
oo ks
re h
Ġen jo
Ġse gmentation
Ġa belian
M I
> ::
aw s
%% %%
Ġclo ser
spec tively
Ġman ager
Al so
R T
Ġsa fe
cont roller
Window s
view s
Ġmin or
sp a
Ġal t
deg ree
err ors
G rid
Ġ\ #
Ġexplan ation
, (
th an
Ġillustra te
Ġla test
Ġb ra
Ġcon vert
ĠG overn
col lection
Ġproper ly
P ER
Ñ ı
vari able
ever theless
Ġl iving
sec u
ĠA ND
ĠP ost
al loc
TR UE
ho le
}\ !
Ġdefin ite
ig u
Ġfla gs
Ġopa city
Ġro bot
Ġco oling
Ġwrit er
type def
Ġdri ve
ĠB oolean
Ġhe art
ly ph
Ġcyc les
detail s
IN S
ai ly
Ġsign ed
', '
org an
optim al
Ġdisplay ed
Ġref lection
Ġpo ss
om y
li ance
' ll
ma terial
Com mon
d rop
D ouble
Ġpri vacy
o mas
Ġdri ver
e per
Ġplay ing
Ġconven ient
}$ ).
Ġenc oder
u fact
Rem ove
ĠPro ject
E ff
R S
Ġconstruct or
N ULL
Ġv illa
ĠJ ames
ĠR iver
P s
ĠT op
Ġ$- $
n odes
Ġpen al
gener ated
) "
K S
= }
IC E
Ġcirc les
Ġpower ful
Ġv ic
Ġto ward
en a
Ġinterpre ted
Ġmod ify
Ġs atell
Ġed itor
Ġdri ven
ra tio
Ġexper i
Ġ[ ],
w as
Ġper forms
\ }}
S imple
Ġ( [
)\ ,\
les cope
Ġper spective
198 9
): =\
ĠW indow
th rough
The y
T F
id entifier
Ġconven tional
re spectively
Ġinter sect
' ve
Ġqu eries
it o
Ġmo ves
g on
ext ra
P G
Ġpro mis
Ġcho osing
Ġhad ron
us es
Ġcent re
th ree
Ġcover ed
Ġrelax ation
Ġsample d
Ġsur v
Ġun stable
ro te
ĉĉĉĉĉĉĉĉ ĉĉĉĉĉĉĉĉ
ud y
Ġreco gnition
ĠO ption
ĠĠĠĠĠĠĠĠĠĠĠĠĠĠĠĠĠĠĠĠĠĠĠĠĠĠĠĠĠĠĠĠ ĠĠĠĠĠĠĠĠĠĠĠ
Ġoff ers
Ġdi ameter
Ġm ul
Ġappear ance
Ġaver aged
Ġse x
co in
p refix
s lice
pi x
Ġcosm ic
c yc
ed it
Collection s
b en
make box
stand ing
Ġ ultra
}}\ ,
anc ing
onom y
Ġreal istic
h ome
S i
ĠK e
K L
ĠPro gram
D en
h ref
ĠA lex
Pr int
Ġchalleng ing
ĠJ aco
rou ght
Ġpermu tation
ex ec
Ġra re
ĠAustral ia
] _{
Ġf o
Ġd y
Ġpotential ly
@ {}
g p
Ġh um
Ġclassif ier
au x
I con
Ġembed dings
) /\
Ġcheck ed
Ġinf lation
ĠD O
Ġco ok
ĠO per
or bit
Ġconfir med
P refix
F low
ĠM id
par ts
M s
ific ations
Ġderiv ation
ĠW rite
man ager
ta s
ĠM at
Ġwork ed
ĠHe alth
}} +
act or
Ġne ur
Ġex cess
A li
lef trightarrow
ĠG erman
IN D
F i
Ġli quid
Ġview s
S W
ĠCon n
= {\
mis sible
Ġchar ges
Ġ rac
Ġalign ment
X ML
C s
ĠM eV
AL SE
Ġhy brid
di tive
config uration
Ġdes pite
Ġfin ds
ill er
s creen
Ġan ni
dist ance
mp t
Ġstruct ural
ul arities
Ġinvestig ation
ĠWh ite
Ġmag ne
Reg ion
Ed it
> :
Ġthan ks
Ġcop ies
Ġmathe matical
L en
UT F
Ġo k
Ġhim self
Ġintern ational
ĠIO Exception
Ġal pha
id x
Ġ\ }$
writ ten
vi a
uto ff
ĉ ĠĠ
Ġcommon ly
Ġcol d
Ġs par
stra te
Ġpro ves
ĠL and
index Of
ĠLo cal
Ġa udio
Ġguarante e
ock er
ĠC E
Ġp owers
el t
Ã ¶
ĠB ob
C re
S a
Ġf an
Ġjav ax
Ġformu las
at tributes
sim ilar
is y
}}\ \
F ailed
lar ation
Ġe lastic
Se lection
ra se
Ġdiag nos
Ġcoun tries
Ġfail s
Ġsome what
Ġpro jects
ĠRe public
At tr
comp u
ĠThe ir
N OT
ĠE instein
Ġcaus es
Ex pr
cep tions
Ġtren d
Ġremo te
big oplus
I LE
L INE
B OO
ĠEng land
. '
sec urity
Ġdiver gence
Ġne gligible
L oc
bu ilder
Ġfin ish
app ear
Ġgra du
B F
foo ter
File s
ic ations
= [
Ġfig ures
r ink
Ġexp orts
Ġs l
Ġp ipeline
in ds
ĠCon fig
}} +\
Ġtang ent
Ġelement ary
ew ise
}] $
Ġser ved
sa tisf
Ġcol our
st one
A U
Ġb orn
Ġorgan ized
Ġf ocused
Ġinv est
ential s
tiv eness
Ġvanish ing
der iv
b asic
ĠE uler
center line
Ġdest roy
Ġ ],
go od
Ġcombin ations
Ġm m
ĠP ort
sh adow
test s
Ġanaly zed
' (\
f ast
] _
u lo
ra b
ĠIn stead
f c
Ġinequ alities
Ġcon servation
ater ial
Ġg ene
De pend
ĠJ ava
ta ck
d one
Ġrece iver
Ġrecomm end
art in
Ġmargin al
") ]
Ġturn ed
* {-
Ġef fort
am i
Ġpro to
Ġfit ted
ch oose
C ho
p mb
Ġ\, ,
Ġdetermin istic
) <
l g
ator ial
Ġpul s
B ased
ĠD uring
Ġcomple tion
Ġins tability
Ġs ensor
Ġd ou
+ |
Ġtrans late
rain ing
Ġtri ple
p od
ag o
O perator
Ġiso lated
Ġpack et
ĠV iew
ĠS at
D iv
Des c
ot ent
Ġferm ions
an notation
ow ski
Ġinvari ance
__ __
Ġstate ments
}} -
und les
L U
it t
\!\! \!\!
re v
Ġcirc um
ĠOb serv
Ġfa ther
Ġhol omorphic
Ġdeli ver
Ġc avity
Ġout come
' ,\
y y
te ch
Ġe mit
roun ds
Pro duct
Ġres olved
; /
= $
cen tage
Ġrepla cing
om b
h idden
inu x
Ġmultip lication
ĠS E
F ound
on a
Ġgeodes ic
bib liography
ĠG od
Ġanom al
Ġco homology
oun ted
si mu
b g
ll ig
Ġsize of
Americ an
big skip
Ġmove ment
LO G
us iness
}$ ;
Ġmolec ules
ti ck
mate ly
Ġlimi tations
Ġ\\ [
at omic
re str
Ġappe ared
11 1
Pack age
Com ment
ren ts
ĠSpec ifically
c ial
T V
velop ment
q q
cons istent
Ġvehic le
ĠPro cess
on ym
198 7
k t
M AT
ĠA g
c ycle
Ġinvol ve
p icker
ir l
ĠC ons
Ġmanif olds
Ġsyn thetic
Ġser ve
in er
RE AD
tran sp
Pro file
ĠVal id
lo aded
Ġb ud
u zz
ut ter
fort un
ĠQ ue
}{ $
ĠB ig
col head
es h
re le
T imes
Ġsche ma
c v
get Name
Ġsymme tries
f requency
Ġmo bile
ĠZ e
VER SION
to gram
Ġ$ -\
k ernel
Ġcoun ts
S ample
ren ew
Str uct
ry pt
ou thern
ĠP ress
Ġcomp ression
ov a
Ġsent ence
S hape
ra m
o cc
Ġsta y
w d
ĠM r
E ST
ear ning
ĠIn teger
Ġim mediate
os itory
P ORT
O wn
Ġperiod s
Ġj ud
"> &
\ -
ĠP ath
Ġs ql
ĠCh urch
LE CT
ĠA nother
_{ (\
p in
Ġke pt
con j
Ġregular ization
Ġinstr ument
Ġstud ent
Ġmetall icity
Ġj ets
group s
t p
ĠJ ack
An alysis
Ġac tivities
exp ression
ĠM et
Ġtw ice
ar n
Ġcondu cted
]{ ./
ĠL ab
Ġg lob
Ab stract
Ġre set
ĠCopy right
Ġre sp
En um
res olution
Ġpro mise
') );
sta ts
po ol
Ġread only
ĠRes ults
D uration
Ġse gments
Ġacceler ation
Ġdot ted
d v
f ony
Ġsp ot
lic ate
ash ington
Ġ Î
Ġmod uli
the mes
sequ ences
ph oton
Ġannoun ced
ou ds
Sequ ence
0000 00
TEX T
Ġrela tivistic
W N
Ġ> >
pre v
rain ed
M ENT
_{ {
S ync
Ġp or
hel p
Ġcontinu ed
Ġe mb
S ER
=" /
con vex
Ġrep orts
Ġloop s
Ġchalleng es
Ġcross ing
Ġimagin ary
la bility
ĠC a
d ig
\' {
Ġpro xy
h ide
Ġbene fit
Ġen vironments
Di agnos
Ġt mp
Mapp ing
Ġre ward
) ~\
Ġsaf ety
Ġcombin ing
c laim
en abled
d k
Ġin iti
M at
ĠD iv
ĠP art
ed itor
ĠM L
Ġre verse
Ġdig ital
Ġcry stal
ht bp
ĠE val
Ġcol lapse
esti val
com mu
temp erature
Ġ icon
b atch
umer able
Ġu i
g tr
) ~
Ġgrow ing
Ġrun time
ĠF orm
Ġa p
Ġacc um
Ġpolic ies
P ers
Frame work
ETH OD
: [
198 8
tri b
Ġsec ret
w all
Ġsy mplectic
cell color
ĠS y
Vari able
Ġ )$
Ġproof s
text style
De legate
Ġcenter ed
rate gy
Ġanal ys
w er
Ġcor ner
Ġord inary
tr l
pk g
G a
S ur
Ġmo ther
Ġcons titu
al ing
h ow
t k
Ġb ubble
ĠB an
Ġt alk
ĠIn dex
Ġ> >>
process ing
}] \
ta ges
c li
Ġlocal ization
}) }\
M AP
H P
Ġro un
Ġconf lic
n c
gl s
exp ect
New ton
Ġb ars
Ġas ync
Ġmag net
Ġregular ity
re mo
ograph ic
Acc ount
Ġpiec e
b rowser
ĠDef ine
Ġutil ity
Ġf ul
ĠĠĠĠ ĠĊ
au chy
ĠH ash
Ġfle xi
ma ps
Ġro ll
S ocket
Ġpub lish
Ġfraction al
n l
cri bed
ang o
manif old
n def
ĠA P
um my
Ġw anted
T otal
Ġhom omorphism
LO CK
Ġex it
en tion
ĠC ho
Ġencode d
Ġensure s
Ġman ip
Ġoscil lations
{ "
vel ope
Ġtrac king
Ġvalid ate
gg ing
Ġdiscover ed
Ġview ed
ĠI l
Ñ ĭ
e val
Or igin
Ġsome one
Fig ures
Ġlet ter
Ġcyc lic
ĠF ace
f un
sta tes
Const ants
Ġemp ha
c pp
in valid
ĠD el
e ks
N T
Ð º
Ġlook s
ĠB al
Ġlay out
Ġar ises
Ġlocal ized
ĠM il
d c
N umer
}, \\
="../../ ../
Ġima ging
UR I
Gener ator
Ġcompu tations
Ġw rote
z h
ĠT O
Ġqu as
Gener al
Ġopen ed
com es
Ġpar am
Ġexp os
Ġpro jected
13 0
tra ction
ĠPar ameter
Ġcall ing
Ġsu ffer
y les
ĠB en
om ing
Ġpol ice
p ic
}$ $
me ter
Ġqu bit
Ġse lector
graph s
Ġref ers
Ġaux iliary
R oute
'] )
-------- ----
Ġj ournal
Trans action
ĠB lock
Ġo pt
Ġpre par
Ġboo ks
X Y
w est
Ġ' <
ati bility
Ġspe ech
pa per
pr ule
f p
Ġen hanced
train ing
}} ^{(
Ġra ce
ĠB i
Ġd ied
Ġac tivation
s un
fil ename
Ġorigin ally
ers hip
ta gs
ines e
I ES
exp and
ĠD ue
bo th
1 12
igh ter
Ġlaw s
N ormal
ach ing
L ower
Ġb ins
Ġradi i
M ac
Ġexam ine
ĠPa ul
ĠG erm
Ġth reat
U ri
rela x
renew command
10 5
sm ooth
! [
S ched
v v
B T
U SE
}{ $\
), (
continu ous
clo sed
ste llar
[ {\
Ġo wner
Ġpure ly
Ġlength s
big gl
Ġse p
ĠG old
Ġmod ification
En gine
pa che
Ġcommu tative
Ġadvers arial
if ting
set length
ti ties
Ġb low
to prule
(' .
for ma
correspon ding
po sitive
Ġpo inted
). $$
g it
Ġfact ory
Ġappear ing
Ġcon clusions
p q
Ġfe asible
Ġsingular ity
F ree
ĠF ed
fe ature
Ġoff ice
T ABLE
ĠC S
ĠA rt
Ġre ly
Ġme dical
vide o
Ġ_ .
pre dic
di alog
ign ment
Ġreal ized
origin al
Con ver
re pe
Ġcap ital
inter val
Ġen ables
y an
Ġhomot opy
14 0
pos itory
v ectors
Re al
Th m
O PT
Ġoper ating
Ġdi pole
ec ho
rela tive
en berg
Ġf usion
Ġ\| _{
Ġex ecute
z ure
] ^{\
ven ue
s est
moment um
if ndef
coordin ate
ĠBayes ian
Ġintrodu cing
D est
serv ative
Ġne arest
iti an
el ia
ĠC D
ra s
Ġmat ched
Ġvari ability
Ġne ither
Ġconver ge
F M
b ecause
Ġquark s
lu g
ĠFran ce
Ġes cape
un ic
Ġtrac ks
Ġf mt
B ecause
ab c
el d
differ ent
ex tern
ex ternal
Ġparticip ants
Ġdel ta
Ġpo ol
B s
ore l
5 12
' +
~ {\
Ġn omin
sp ital
s olution
Ġenc oura
Ġcontinu ity
ĠE ner
M er
Ġn g
ul ing
Ver tex
q ed
cri tical
Ġlang uages
Ġneighb our
ac ing
ex act
Ġdoc uments
Ġachie ves
}} }{\
Ġ_ ,
198 6
Ġd amp
qu antum
ol ving
Ġhard ware
H ER
Ġin j
ĠS C
In deed
Ġp late
): =
am er
Ġcont ents
Ġplan ets
ĠE mp
ĠB ack
19 70
si mp
bibliography style
ĠF ree
N L
Z Z
ump tion
ann ot
Ġdest ination
big gr
Ġla unch
Ġentire ly
tribu tions
st orage
B rowser
Ġconsider ation
tic ip
r ick
Ġex cell
Pro gress
sta t
Ġ" ,
$& $
Ġassign ment
Ġper haps
Adap ter
Ġrestr ict
Ġdual ity
pol ar
par tition
m r
cer ning
Ġen um
( .
e a
p an
ma y
Ġ{ '
Ġgen us
Ġf ight
eq q
elec tron
R est
li brary
N ative
ĠD ire
ch en
ĠP R
By Id
ĠF ix
Ġband width
Ġpro ven
ce q
P air
p es
Ġbo ard
Error f
xy matrix
Ġopen ing
ĠUn ion
> "
ĠNew ton
B I
am ing
] }\
ĠR ob
verti ble
IV E
* }\
Ġa spect
Ġcub ic
N P
inst all
Ġer g
Con clusion
erm itian
D IS
Ġstand s
Q U
Ġmer ge
ma tes
Ġeasi er
D ictionary
em an
ĠP O
Ac tivity
ĠCh rist
^{ {\
Ġb rought
& +
Ġobserv ational
se lector
Back ground
te sian
fortun ately
prote cted
pla ys
fra g
Ġfil led
Ġas sembly
Ġsequ ential
ĠS ource
) ->
Ġsta ges
Ġorgan ization
Ġs we
\\ \
Ġhead ers
ig ens
Ġc ele
ari a
Ġp in
Ġlimit ing
}$ ),
EN SE
oun ding
B ook
ur istic
o ted
dis c
v able
an chor
}} ^\
Ġdec ided
ĠSh ow
l st
ĠCon sequently
for ts
ame l
Ġsur ve
Ġse ed
Ġ" <
Ġcomple tes
Ġend point
ĠW al
gtr sim
Ġexp ort
la c
VAL UE
ĠB ur
A gent
B D
Ġ est
inte lli
er os
ta ke
ĠM essage
Ġeffici ently
typ ename
Ġphenomen on
requ ired
er ve
mer cial
Se lected
train ed
On ce
i ant
od al
Ġv an
element s
intelli j
Ex ec
re ci
H H
ta min
Ġrapid ly
F LA
py thon
F il
Ġchain s
ĠĠĠĠĠĠĠ Ċ
Deta ils
cur ve
ĠS I
per turb
+ }
ĠMich ael
O C
Ġd ialog
Ġsp ent
End point
Ġpass word
Ġpro gramming
Reg istry
Con dition
ht b
Ġleg al
ĠS pace
Ġt ends
- $\
Ġm ilitary
ĠM em
Ro le
G A
mb f
are a
oc o
mem ory
j unit
}) ^{\
Ġi i
ga p
h skip
^{ *}
Ġh or
Ġen ga
Ġfin ished
Ġun ity
g ba
re ct
prote ct
Ġcon figure
Ġal location
N V
Ġin d
B al
Ġre ci
Ġconjug ate
Ġvari ant
G s
ga z
Ġch ance
, }
IT ION
es sel
inclu ding
Ġto ur
Ġro ck
raise box
Sp an
Ġ% }
Ġtime out
Ġdep icted
Ġcancel lation
ĉĉĉĉ ĉĉĉĉĉ
ent ric
pro xy
effici ent
la ter
ĠIn dian
exp an
P res
our n
' }(
ĠT aylor
g ressive
Ġp ion
fer red
Ġnear by
^* (\
R AS
ol f
L imit
DB LP
la tive
Ġf aces
I EEE
J ava
S pa
ide l
A g
c ancel
ĠG r
12 7
Ġvol tage
en gine
Ġisot ropic
Ġpro ps
ist ing
ĠRe act
ant ly
Ġg old
ĠIn put
Tag s
ĠA SSERT
Su ccess
pa red
example s
ĠU N
od ies
esti mate
ĠB est
Ġfin dings
Ġm or
in ing
mon th
Ġreach es
N a
res olve
Ġf oo
Method s
log ger
] +
Ġex ec
D iff
ĠG reat
Ġnucle i
ach ine
Ġsta ff
ĠBOO ST
Ġinteract ing
ĠA mazon
Ġpop ulations
oulo mb
par tite
Ġl ives
Ġredu cing
fra ction
Ġrect angle
RE G
Ġsqu ares
ĠHT TP
Man y
ser ial
ind ic
M ed
Ġcaus al
Ġke V
}; \
Ġkeep ing
Ġsh ot
Ġmen u
ak es
Ġmo vie
se lection
Ġop ts
' -
ell er
Ġa wait
Ġsummar ized
ĠY our
Ġp ump
enc ode
ĉ ĠĠĠĠĠĠĠĠ
ĠSm ith
ĠAr ch
ist ence
Ġcapture d
par ser
HT TP
Ġdiv ision
Ġtable s
Ġstud ying
CO MP
SS L
indu ced
Inter val
Ġfri ends
ĠW ashington
lin ec
Ġdise ase
S k
D b
ag ent
Ġc e
ĠNo tice
Ġcomp osite
) },\
ĠD R
U B
with out
à ¸
Ġxml ns
ĠF il
z o
te en
ĠIn formation
MOD ULE
c lean
ĠCour t
Ġscal ed
Ġqu al
ĠP en
method s
F ind
ĠL at
u ma
IP T
au ght
Ġcomb ine
stri al
ĠS NR
ly mp
Ġs lice
Ġh und
Com bin
f b
hom ogeneous
Ġapproxi mations
P ATH
arg uments
it ud
Ġlogarith mic
$ =
Ġflux es
}} _\
' d
Ġover la
ĠPro of
198 5
Ġmain tain
Ġn a
ĠĠĠĠĠĠĠĠĠĠĠĠĠĠĠĠ ĠĠĠĠĠĠĠĠĠĠĠĠĠĠ
gg ed
Ġpl anning
Ñ Į
Ġsc roll
ĠAss ociation
con sider
c n
ĠV ol
Ġf ol
rec ord
V ID
ula ting
ĠGe orge
}} )\
S to
ch art
ĠDe ep
ĠRes ource
I gn
- {\
| {\
it ness
Ġw al
ĠGra ph
ĠTr ump
Ġa stro
oper ation
Ġspe ak
er g
ach es
L I
ar ticle
ĠMa jor
Ser vices
}. $$
ĠY ear
Ġver ified
cent ury
Ġtr unc
Ġ til
c is
ro om
ĠM S
mo z
ĠSt andard
ide os
)} =\
ĠOther wise
lo ader
ĠL HC
cos ity
Sh arp
j query
tis tics
Ġdegener ate
Text ure
ĠEner gy
Ġhydro gen
198 4
] \\
lassif ication
H y
ĠWilli am
ari an
ĠOn ce
Ġw oman
Ġanni hi
key word
Ġcon cepts
Ġte ams
ĠM edia
Ġc lick
######## ########
Ġp lease
J oin
boot strap
bottom rule
== =
BU G
ro t
bound ary
run time
No tice
Ġsay ing
l brace
Ġsh apes
Ġle ader
}$ :
U D
scale box
Ġsit uations
Ġout flow
R a
F n
ĠA gain
Ġbu f
Ġw est
Ġcond ens
Ġqu bits
C ancel
la g
e lem
Ġsh ifts
Ġmod ular
ta tor
}. $
ĠE very
S pe
Ġcoinc ides
Ġpar ser
M is
d ark
. ");
Sh ort
Res ources
Ġset t
Ġsm art
Ġhierarch y
ĠV ir
ĠLi pschitz
stit uting
th row
ack now
Ġexponential ly
au di
Date Time
ĠC he
ĠDis trict
Ġ )\
sin h
ĠGal actic
Ġco vers
time out
ĠA ward
Ġclassif ied
at o
$ }\
ĠM ake
ĠB a
Ġelectro magnetic
Ġf lo
Ġop in
ed u
Ġpar ity
ĠB r
Ġneighb ors
r gb
Ġvari ational
Ġan ten
p ation
Ġsu cc
ĠD an
AD D
Ġme eting
ĠM usic
min al
ĠW AR
ĠA ction
Ġepis ode
C RE
Ġdetect ors
Ġe lection
Ġreli able
F ollowing
Be gin
bur g
il istic
Ġexpan ded
Ġde dic
)$ }
Ġle aving
G D
ĠM ain
ĠX ML
ĠV ari
Imp ort
Ġ" -
Ġequ ipped
Ġasympto tically
Ġdepend encies
resize box
lat tice
Ġremo ving
}) }{
}) ^{-
Ġprovid er
Ġenc ounter
+ $
ĠC hi
cos h
ĠL ou
Ġimp ossible
Ġcre ates
Child ren
Ġreprodu ce
Th elia
ĠSte p
Ġp ortion
Ġatta ched
Ġc lip
thes es
ĠT ur
L ibrary
ĠS ociety
ob jects
ĠN N
ĠS al
p olicy
Ġcap t
Ġc utoff
Ġpri mitive
^ *}
per son
Ġobser ver
Ġguarante es
__ )
F ace
ĠCom mon
Ġrig id
IG HT
ĠP M
Ġ\, .
ket ch
cat en
Ġef forts
mid dle
á ĥ
ĠU s
Ġdirect or
men tion
Ġlo aded
Ġtri al
ri end
Ġ ];
pro gress
Ġtele vision
ma ch
G aussian
W ait
Ġph one
ĠPar ty
op ts
* {\
T M
ĠT emp
m ouse
p ed
V ideo
Ġsignific ance
Ġanalys es
IC ENSE
Ġdis covery
; }
ĠPro perty
Ġl icense
Ġenjo y
Ġman ufact
load s
ĠAn g
ĠA uto
form er
B inary
in to
en tations
. ",
Ġatta ch
Ġin sert
}} }}
Ġori ented
}) :
Ġpre tty
Ġmi xture
op f
radi o
OR TED
Ġl ists
ĠN on
Ġtype def
con structor
ĠP l
multi p
res ources
ĠAN Y
supp orted
Ġequival ently
Ġ[ "
s ame
Ġc ulture
( @
/** */
depend ence
Ġinv ok
av ailable
P UT
ad ap
Ġsing ularities
Ġf ashion
ĠC PU
W ORD
um ann
d n
g ely
secu tive
17 0
ĠC up
ĠI V
cep ti
Ġreveal ed
tain ers
)) =
/ .
check ed
ĠC A
Ġrecon structed
sh ared
comp arison
Ġobtain ing
colon eqq
"/ ></
Ġcut s
tiv ate
Ġconver ted
Ġf ake
Valid ation
iz ers
ĠR oman
ev alu
B asic
ab i
Ġfore ach
ĠI E
Ġre write
Ġoptim ized
g ue
Ġtag s
ula tive
w ho
ĠIs land
Ġadap tive
Auth or
ist ant
ĠRo ad
Ġnon trivial
ĠGerm any
ss ue
Ġpo le
B el
under brace
Ġminim ize
Ġwon der
Ġwor st
Ġextra ction
ad ian
DE F
ta tively
FF FF
U C
u an
C ategory
t rac
Ġto kens
Ġuniqu ely
_ );
) _\
ĠP oint
on ce
Ġmod er
ĠRequ est
F W
'' .
ĠC amp
P ay
k k
Ġconnect ing
ĠWil son
Ġsurroun ding
en es
Ġwe eks
c are
Ġgra dients
Ġhe avi
ĠCol or
Ġdetermin ing
h n
ĠT or
ç ļ
be q
Ġsimpl ified
ic en
ter ms
ct ors
s cheme
cor r
F urther
Ġth ous
Ed ge
Ġh uge
Ġani mation
lat ors
ĠCon st
10 2
Ġlar gely
aba tic
Ġde bug
Ġign ored
Ġapproxi mated
code d
ĠY oung
ne igh
Sta ts
Def ine
le ts
) )$,
Ġoccur red
Ġ' '
} </
Ġ' \
}= -
~~ ~
ĠH D
ĠD ir
Ġarg ue
Ġinter polation
vo ke
ro le
ĠÐ ¿
\" {
Ġd augh
s ti
da tab
Ġc um
ex ecute
ĠL u
Sh ared
ĠB ol
head ers
ĠJ ust
Ġgu ess
Ð ²
çļ Ħ
inte ger
Ġ ice
ER S
Ġexplo red
M c
ĠE lement
ĠAd ditionally
ĠP RO
00 5
m k
Ġa ware
war z
r v
acc ount
W ord
{ |\
qu ality
Ġsub stitu
Ġwork ers
Ġnav igation
corre lation
d river
Ġdes cent
Ġexcell ent
sh all
){ $
m cite
ĠF ollowing
ĠV ector
Ġdec oder
Ġradi ative
h ouse
Ġpur ch
ro tate
Ġtrans formed
Ġmom enta
ĠT er
Fail ure
Ġthick ness
Ġe mo
id entif
block List
Ġimp lied
par ame
b ian
s is
h h
Ġcomp ris
} --
b ounds
n or
b our
l c
Ġcomp reh
Ġdr ift
MN RAS
10 24
Ġle af
ĠN a
diag onal
re lation
Ġsk ip
Ġmode led
Ġp ref
op tional
Ġlink ed
gr al
ĠB ook
Ġcl ouds
Ġcar bon
p ress
ab olic
f ly
M ask
d ynamics
rac tive
li ers
Ġrobust ness
Ñģ ÑĤ
}$ \\
so cket
Ġg rand
RE Q
il ding
ĠS pa
Ġbright ness
T x
s qu
C at
P romise
v ance
co st
V ol
o y
ry ption
os er
iel ding
Ġopportun ity
r brace
p latform
con ditions
j Query
Ġro ut
Ġs ending
ĠJ ew
Ġpres entation
00 2
Ġal ter
own er
Ġ\\ \
Ġmultip lic
ĠG PU
ĠT ex
198 3
Ġt uple
Ġcon tribut
Ġfact s
ai lability
ti a
Ġ ulti
da pt
la d
Ġphenomen a
al go
f ar
F s
Ġsp ins
Ġhelp ful
Ġadap ted
Ġloss es
( $\
tr ical
Ġcour t
Ġre member
ĠH istory
ich let
ryp to
Ġgra ded
Ġdevi ations
Ġpo se
Ġvari es
U ES
me tic
as ync
ma pping
Ġsupp ressed
S uch
ĠWe yl
ou ts
Ġcoun ting
itud inal
Ġatmos phere
comp ute
Pass word
sta ge
Ġ\ "
ĠS ign
Ġam ounts
algorithm ic
Ġs un
Ġcommun ities
Ġcharacter ization
. <
fla g
Ġ ×
ĠB ased
pend ing
ĠCh inese
d m
ĠA D
Ġbroad cast
DE FAULT
Ġv ision
ĉ ĠĠĠĠĠĠĠĠĠĠĠĠĠĠĠ
ĠA M
E SS
Ani mation
}\, ,
ĠP ub
Ġtran si
Ġext ensive
r arily
v p
Ġ$\ |\
f ound
Ġmis sion
L anguage
a sion
ĠS ol
ĠE ducation
ĠP age
}\ )
alax y
Ġcertain ly
Ġdoc umentation
os h
E u
z ip
Ġecon omic
it udes
Ġmechan ical
******************************** ********************************
dri ven
j ob
pro j
f ire
Ġ\ %
Al gorithm
w ang
Ġreco very
Ġshe et
R M
ĠUS A
[ ],
ic ular
V E
no v
ĠPe ople
Ġsh adow
w rapper
Ġdis ks
{- }
s ched
} '$
})+ (\
ĠT imes
Ġm ale
Supp ort
geq slant
> ;
Ġch urch
= &
_{ |
L M
B ro
K K
op es
Ġexecu ted
h orizontal
NavBar Cell
ĠLe g
Ġcon sumption
ess or
ac le
ĠPro f
Ġdis abled
ĠFig s
3 60
char ge
Ġg r
}{ !
Ġbud get
check box
M ag
d or
Ġobtain s
ĠM us
Ġ' ';
Ġh eter
eff ect
C red
ĠG W
ad ic
Ðµ Ð½
ĠT eV
O UT
ĠAn alysis
ï ¼
/ {
Ġre lies
Ġgo als
ĠP A
N ullable
Ġe igens
Ġf if
Ġd rag
Ġdiscre p
ĠL ink
us ers
ĠS earch
Ġneutr inos
Ġparen ts
A u
e eq
load ing
ar ma
ĠH AL
ON G
Ġprim arily
Ġol der
ever al
B atch
Ġsurpr ising
P ublic
Ġvilla ge
@ {\
oci ated
ari o
Re pository
ran es
Ġconven tion
Ġla bor
ĠH ttp
ĠTh omas
Ax is
^ ^
lap sed
Ġin her
j ango
men tations
Ġ\ :
Ġinstal led
Ġh our
the o
Ġanom aly
H ome
ec e
ch a
B r
ĠG a
Ġhel ps
Ġinvari ants
^* ,
Ġg amma
Ġmeas uring
M ove
G AN
Vis ible
A re
ra pped
ĠN evertheless
f m
Ġad ditive
as te
ĠSo ftware
r ust
ĠP at
Ġfa ith
w atch
Ġbox es
Ġclaim s
P lay
Ġbenef its
$ ^{\
graph ic
Ġadj oint
ĠOr der
ob serv
Ġaccep ted
Ġb rain
Ġ} (
des ign
H ar
k g
hal f
k h
war gs
Ġprote ct
Ġal le
ore s
li ament
g ame
). $
Ġf er
Ġevery one
Ġform ally
St rategy
ĠC lo
vious ly
up s
th in
Ġmultip licity
Ġpar ton
ĠU I
ĠComp any
ĠM any
Ġconvolution al
ĠDem oc
ck ets
Ġsh aring
ĠB it
ĠAfric a
Ġjoin ed
Ġdivis or
tific ial
ĠTechn ology
ĠS am
Ġassoci ation
f ront
ĠH en
re act
Ġrespon ses
valid ate
Ġma pped
sc atter
or a
Test Case
ĠM u
th ese
C ast
P ub
j ar
pend icular
Ġacc ounts
Ġan no
),\ \
Ġfla vor
Ġdifficult y
Ġassert That
du ration
inter pre
il inear
ec tivity
Ġpair ing
b an
lic es
ĠB S
md c
Requ ired
te ction
In d
Ġn p
ang ing
In f
Ġfor ced
bin ary
| }{\
Ġlog ger
[ ->
ĠT om
Ġcomp ens
V ec
ĠCh ampion
Ġbranch ing
Ġc lin
om ite
ĠH ill
L java
ĠW ay
Ġcal ib
ĠM ex
t l
B IT
}) ,\
Ġrel ig
INT ER
Ġas ymmetry
mention ed
C NN
0000 0000
period ic
A rea
ent y
198 2
Ġw allet
AS H
Ġrelations hips
b ec
Ġnumer ous
all ery
@{ }}
T er
p ur
=" "
ĉĉ ĠĠĠ
)$ $
% ,
Ġ\ )
ĠCo mple
Ġar range
ĠW he
w ater
Ġt ension
Fla g
en o
R andom
ma k
ym er
Ġsu c
ĠB ern
In v
Ġv align
ĠP ower
oid s
}} -\
Ġp p
Ġ{ },
vari ate
tur bed
aris ons
* ,
Ġph on
tab s
Ġmeas urable
ch ro
H ub
Ġn ice
Ġtr ust
z es
Ġturbul ence
Con straint
Ġint ended
Ġm irror
Ġar ising
de cor
Ad min
ĠM i
SQL ite
algebra s
s lash
}}{ (
Ġn an
G O
P l
Ġbro ther
ĠS ets
Me V
ĠP ack
B Y
Ġbo ot
Ġm al
Ġcla imed
Ġhe ating
Ġtot ally
omite mpty
formu la
CH AR
}, $
ĠC auchy
mer ge
verse ly
ĠM ass
con sole
Ġass umes
ĠS H
ick s
Ġsummar ize
ig roup
de lay
S ame
] }$
Su per
Ġphot ometric
gra vity
Ġconven ience
Ġobser ving
ĠC ong
Ġse a
A rr
ĠA S
vi o
Ġb ank
s ync
ap ed
Ġad mit
Ġe V
te gra
Ġin jective
oo thing
D er
C er
acc u
Th rough
Ġquanti tative
ĠR ight
Ġg rows
lic ial
Ġpre ced
Ġaddress es
ĠAr g
Ġw ife
ĠEn gine
INS ERT
Ġprefer red
Ġdetermin ation
od ay
lin der
g as
Ġg al
ff ers
Ġcontinu es
ĠOff ice
it tle
ĠS imilar
' ];
Ġpro min
Ġ[ -
Ġ ray
Ġaccurate ly
Ġf irm
ĠJ S
as sembly
r ift
Ġdis trict
ĠG lobal
Ġwait ing
ult ural
Ġcon crete
lim inary
Ġimpro ves
Ġquan tization
Con structor
US Y
ĠF OR
Ġcapa ble
Ġcon secutive
ĠM ary
fore ach
Ġpreser ve
Ġa cknowled
ĠH ome
scal ar
t ouch
Ġno isy
Ġfac ili
Ġposs ess
ĠLO G
Ġprofession al
over view
ĠP et
( (\
Ġvo ice
sat z
Ġco arse
ab out
Ġschool s
Ġpiec es
e b
ĠL ife
A bs
Ġal igned
valid ation
C orre
I mple
e ties
Comple te
no va
ĠRo bert
ĠWindow s
ĠD im
mp s
N ET
Ġr id
ti er
Ġconfir m
B G
mat ors
Ġvi ol
assert True
Ġsupercon duct
ĠCont rol
flu id
Ġtor sion
ĠFace book
> ()
Ġre ality
Ġtun nel
al f
ĠAc ade
)} }\
Ġv ideos
F D
Ġremain der
M ay
Ġpar titions
ĠR ic
Ġexpos ure
Ã §
valu ation
D om
col lapse
11 5
Ġfactor ization
Ġvis cosity
2 10
the ore
C U
it ar
I ds
Ġarbit rarily
Ġpro ving
ĠCent ral
Ġp le
Ġrepe at
or ation
Ġper centage
Ġpropos al
ĠL ine
ĠRem ove
Ġsc an
ĠS P
v ince
\\ [
Group Name
.\ ]
ĠC oulomb
Ġre ver
cent ral
ce eded
Ġra ised
Ġsk ew
g overn
Ġco ol
Ġplan ar
C AL
Be an
re ce
up si
Ġpre sident
s ho
Ġm s
oun tain
r ceil
Ġreser ved
Con clusions
vis ible
user name
Ġwor se
Ġde veloper
Ġr gba
Ġcharacter ize
ĠD OM
Ġsimple st
table s
Ġsimp ler
Ġexhi bits
add le
con tact
ĠZ end
Ġb undles
ĠN E
Ġcompe tition
R ate
C a
ĠCh ild
apa city
SE LECT
rep ort
Ġde b
de generate
$ ~\
EL D
ĠS pe
MO DE
Ġch e
Ġag reed
Ġcoinc ide
con struct
tr ary
En v
ĠG rant
Ġar ticles
IN FO
icen sed
r k
upsi lon
Ġdif fe
Ġc md
w al
Ġdedic ated
V D
Ġw ild
)$ ;
ict or
Ġsubgroup s
Ġ" ",
display Name
ĠA lice
oun ting
ten tion
ut s
Ġnew ly
M ouse
^* _{
d dot
Ġch unk
Ġsh ifted
Ġcheck s
Ġvalid ity
Ġvehic les
ĠT own
Ġcli ents
b racket
Ġro tational
in herit
k ins
sy ch
au ss
+ {\
Ġtext ure
}$ ~
Ġtri ed
ĠB orel
ord an
Ġcont our
l ife
Ġsci entific
Ġi ons
Ġs lot
Ġin version
ĠRe view
p to
Ġregister ed
ĠC ath
serv ices
24 0
havi or
u er
Ġ{ "
Cap ture
Ġasser tion
dest roy
Argument Exception
Ġenti ties
RE E
Ġtermin al
F uture
Ġc row
remark s
ri an
fact ory
ĠM O
c la
Ġpro cessed
que e
Ġdevelop ing
ĠA pache
ĠF L
Ġst ories
Ġadvan ced
B l
Ġsupp ly
Ġs ys
hook rightarrow
Ġphot os
ĠAustral ian
ign er
F G
Ġmin i
\% ,
Ġg un
ba tim
J ohn
Ġsp irit
Ġad missible
Ġen v
Ġf light
list ener
ĠIs ra
=" ${
T i
Ġn m
Ġpl ans
Ġload ing
Y ear
ish er
Ġman aged
Ġa di
Ġsqu ared
ĠĠĠĠĠĠĠĠĠĠĠĠĠĠĠĠĠĠĠĠĠĠĠĠĠĠĠĠĠĠĠĠ Ġ
ĠA li
Render er
Ġepoch s
ĠS ing
con straint
Ġmechan ics
sing ular
Ġabund ances
Ġpreser ves
Ġk illed
Ġb rand
Ġspe aking
ĠS W
STR ING
Ġpair wise
D OM
vel ocity
ĠCom mand
Ġg over
" ],
is er
rup ted
Ġattemp ts
En ter
onal d
Ġin vertible
Ġf re
ĠA I
e igen
l ceil
ĠI ter
ĠJ ose
? âĢĿ
Ġexperiment ally
G al
Ġins titu
as sumption
ĠUni verse
Cor ollary
() ))
ma ting
Ġpre v
ĠF ROM
Ġnot ing
)) }
Ġarri ve
Ġform ing
Ġinsp ired
o la
er ed
vi ded
=" @
Ġdepend ency
27 0
Ġbranch es
ul ted
7 00
Ġsign s
}\ |_{
197 9
33 33
ĠC SS
P N
Ġhom ology
force ment
Ġa udi
Ñ ĩ
A cknowledge
Ġprodu cing
Ġglu on
Ġsong s
j e
Ġsimpl ify
ĠL ast
Ġidentif ying
Ġn ine
Ġbos ons
Ġboun ding
class ical
S ol
ĠM useum
Ġimprove ments
| }\
Ġhe ar
ma ts
$ ^\
M IN
R F
D uring
os ted
Ġsum s
Ġan chor
Ġtell s
o sitions
Ġb tn
Ġdis placement
d on
ĠCol lection
Re port
ĠR ock
Ġvor tex
ĠH a
Ġar r
Ġcomple teness
E ar
Ġh ous
OR Y
}-- \
AM P
ver tical
pro vider
la red
Ġeffec tiveness
Ġsatell ite
ss l
Ġv on
Ġr ings
Ġequ ally
v dash
par ticles
D river
Ġrequ ested
ĠArray List
fil led
Ġfi la
lic a
un ched
G Hz
hel per
se en
w iki
Ġwar ning
Ġdes criptor
Un known
! <
Ġenhance ment
AN G
Ġa w
Ġreal ization
ĠF R
ĠReg ion
gg reg
ĠS L
dis k
Ġg ather
we ighted
for Each
M ETHOD
Ġcorre cted
Ġcon vers
at om
}} %
Ġover view
Ġg iant
ti tive
T X
r ish
, +
ĠH aw
Ġg lass
Ġcur sor
# {
Ġsh orter
198 1
Ġe ye
scri be
ĠR et
Ġfore cast
Ġ" $
Ġs n
Ġpa int
ĠR ay
Ġperturb ative
Ġd im
p ull
sc opy
Ġcalcula ting
(' /
Ġdetermin ant
lin ation
O F
ĠG ood
' },
M ost
ĠSer ies
ĠRe p
C LASS
Ġreg arded
ĠC ustom
Ġpro x
Ġaver aging
}\, .
Ġwas n
T rac
Ġbar rier
Al low
ĠE V
ĠA v
Ġprior i
ĠChris tian
Id entity
Ġdissi pation
Ġfrequ ently
Ġsurve ys
fe ed
ĠS pr
Equ ation
TR Y
Arg uments
Ġcommand s
i en
col l
tun ing
t body
Ġp m
De ep
Ġresearch ers
sp i
D ATA
No tification
}: \
ration al
Ġfra gment
cont ents
ĠIN TO
W B
b est
lac ian
M ake
Ġany one
Ġpart ners
Ġde v
ĠD own
Ġro tating
ĠL anguage
Ġdep loy
Ġlife time
., ][]{
Ġjob s
Ġmo tivated
Ġadv ance
Ġinfer red
b us
ĠD u
ĠFor ce
ote l
BP ACK
w riter
Ġsec ure
ab y
10 4
Ġvio lation
rou te
000 1
Ġresi du
Lo op
Ġin coming
ob ile
ĠP lay
Ġsched ule
Ġamp l
}^{ *
Ġexclu ded
ĠRiemann ian
Ġrequ iring
ĠCom mit
Ġcom mercial
Named Cell
" },
ce an
ĠP eter
Const ant
13 5
ĠS F
au tif
Tran sport
G F
Cl oud
ous tic
Ġmer ger
Ġidentif ier
l p
f ake
Ð ¼
\ @
Ġst rain
A SS
iter al
Ġb ases
ĠRo yal
W atch
Ġweak er
Ġif f
Ġa xi
ph en
as sets
Ġapp endix
Ġcom m
h olds
^+ (
In formation
er ved
Ġp at
Ġcon tamin
Ġe ase
Ġ( .
res olved
Ġintegra ble
f ollow
gaz ine
L ook
play er
**** **
ĠAs sembly
Ġext rem
Ġslow ly
Ġlet ters
] _{\
Ġillustra tes
ĠM ad
ĠD irect
ke V
v t
B ounds
). \
re ason
equ ilibrium
Ġbirth s
Ġco res
ev olution
mon ic
la ins
lo gin
g ar
Ġexp ensive
ere f
Ġm ur
pa ren
ss on
s r
Ġpro jections
ĠP op
Ġregard less
Ġb id
ĠP an
Ã ¨
ffici ent
cons ist
Ġaut omorphism
Ġvari ants
) *
bas is
on ed
P ix
b undle
ĠMe an
Re lated
Ġc f
p ref
Ġacces sible
d g
ist an
ĠB et
Ġdwar f
st all
Ġconcern s
Ġw ants
Ġtriang les
Ġtw isted
Ob jects
Filter Database
Rem ark
ĠI L
dot ted
VAL ID
Ġbegin s
ĠGovern ment
Ġdecision s
Ġprior ity
Ġcon cerning
)) ^
SC R
exp r
Ġo be
lo v
Ġthe me
. ;
ual ity
|\ ,
i pher
: `
Ġreason ing
ro magnetic
ĠArm y
uc tive
Ġout comes
Ġcons tit
Ġdaugh ter
imp lies
Ġb lood
'' $
Ġtimes tamp
Lin q
Ġar row
sample s
Ġins ight
Ġrecover ed
Ġhand ling
dec ay
ent ropy
Ġper pendicular
f ollowing
Ġd ictionary
olog ically
f our
b os
Ġn s
Ġdemonstra tes
P ut
Ġp itch
Ġexplor ation
'] ['
Ġad ds
spec trum
Bo th
Ġal ias
Ġlong itudinal
Ġconcern ed
H o
Ġemp lo
D G
Ġe cc
cur sor
2 20
tic ular
Ġthermod ynamic
ĠMin ister
flu x
Ġcan cer
c lone
in ality
Ġs ends
R aw
Ġpar ties
ger y
W IN
ĠW IT
ĠM el
ip ment
ĠCl ub
Ġhistor ical
Sp lit
Ġthere by
Ġmay be
u u
Go ogle
Ġarchitect ures
Ġen velope
Ġexci tations
Ġkernel s
ĠS il
Ġd up
F older
Ġsus cepti
Ġb is
Ġed it
ĠRe fs
ĠP olicy
Ġiden tities
Ġclo sest
ĠSt art
Ġb ridge
ĠS R
] ))
po inter
}) }{\
j ust
Requ ire
F UN
Ġcon caten
repres entation
A O
)$ )
L Y
ch anges
Add r
Ġb la
Ġintrodu ces
ĠL in
Ġmass less
Ġs ight
Ġcur rents
Ġquar ter
Ġp an
PO ST
Ġsta tions
le ton
ĠC C
w ik
}$ &
Z ero
Ġa part
order ed
Pe ople
d ue
el come
ĠTw itter
ĠPy thon
19 2
An aly
Ġd aily
lik ely
ĠJ ul
Ġthere in
Ã³ n
le ading
am ber
name d
ie f
Ġreplace ment
spe ed
0 10
irc raft
| $.
B i
pro c
Th row
. ][]{
r ons
Ġext inction
ĠC learly
ĠTex as
Ġmod ulation
Ġs ch
no align
)\ |_{
gra ded
lec tric
Id x
re lease
en sively
ra tes
ĠS FR
Ġtun ing
sub ject
Ġe th
Ġz eros
Group s
idel ity
Ġhe uristic
G T
, $$
ĠAd S
M ix
l its
ĠAfric an
s ystems
h ad
Ġprote in
Diagnos tics
Ġb g
Ġimp osed
t uple
Ġpar ad
Ġext ending
f mt
Ġaim s
spec tral
cur rency
ta t
Ġso le
Ġpl ant
e el
ĠF ind
Ġcon sequences
}} ;
ex it
.... ....
ĠC MB
Ġintegra ting
Ġlog ical
ĠAss umption
h old
Ġsee k
b v
)- (
Ġmagn itudes
Ġco herence
19 60
AT ED
Ġ@ "
dis able
PAR AM
bin ding
i able
En vironment
Ġ tit
Ġd ots
ĠOut put
do or
Ġrenormal ization
% )
}\ |\
A W
L ight
M id
us r
Ġsupport ing
ĠJ er
Ġs ensors
Z one
rid ay
Ġ ul
em on
ĠSta tus
Ġco variant
ma sh
Ġmorph isms
Ġpropor tion
e th
Ġvis ibility
W orld
ad joint
ĠSc ot
Ġ= ====
ru it
Err ors
ĠBy te
co q
ever y
ĠRe al
ĠC L
Ġrestric tions
in formation
Con tains
ne tes
ak a
ic ago
p n
Ġcheck ing
Ġgeneral ize
su ed
14 4
uber netes
AS K
append ix
Ġguarante ed
ĠP S
Ch ain
Ġdec oup
iffer ent
b lob
ĠC lient
ro ke
Ġproced ures
Ġar rays
Ġdec ades
ĠCl oud
\, $
string s
A I
se ll
Ġk inds
ĠP lease
Ex ecution
ĠL earning
B ra
f all
multi ple
Ġ= &
L ib
Ġredsh ifts
RE D
os c
Ġindepend ence
d h
ĠL L
Ġb are
ij k
z i
M essages
}: =\
ro ve
ke ep
Ġuniqu eness
Ġlept on
.\ ,\
as p
Ġreve als
ĠJ ournal
Ġexpand ing
Ġiter ative
Ġl ift
ani mation
3 50
Ġb ond
B a
top ic
coup ling
Ġa dapt
ĠCre ates
_{\ {
Ġindic ator
x s
ĠB ill
o is
gener ic
Ġn ation
ĠAir port
Ġadd ressed
ĠG ame
Ġtw ist
dia gram
Return s
197 7
h ot
ne ar
cri pts
llig ence
Ġfew er
xx xx
ĠSer vices
ĠPlan ck
or ough
Ġm ouse
Ġs in
od ic
ĠVAL UES
WE BPACK
Me mbers
Ġaff ects
itz er
tabular newline
transp arent
Ġsimula te
D ue
Ġinitial ize
With out
ĠL ibrary
Wh ere
ĠD B
ĠM ock
ic ial
)} ]
(' #
lat forms
Ġdimension less
l vert
å ı
create Element
ra tive
man y
Ġpa tient
Ġinitial ization
ine q
Ġbu y
is sues
Ġ" %
Ġser ves
Ġdi versity
Ġli b
get Value
Ġra il
| ,
Ġenvironment al
str ict
unic ip
ĠFran k
Ġco s
ĠM P
A X
Ġfem ale
j j
Ġar rows
Ġoscil lation
datab ase
Bin ding
at ar
Ġre ject
; ">
Ġpo les
Ġestima ting
f lush
Ġs al
ha us
Ġfore ign
Ġf loor
ĠFran cis
N U
}= -\
ch es
Ġmodel ling
ĠSD SS
ĠF lor
Ġpromis ing
I AL
at re
is Empty
Ġf elt
sq cup
reate st
Ġt re
Ġj s
{ }\
side bar
Ġh ex
Ġadap tation
Ġmut ual
(" /
ĠL ee
Ġwin ning
ĠDiv ision
ĠCur rent
ak i
Ġobvious ly
ĠS imple
g rounds
Ġsum mer
ĠA T
reed y
p lots
om er
comp ile
Ġv irt
Ġres cal
Sta tic
Dis cussion
ĠOption al
Ġa z
per t
Ġev ident
c x
Ġv ote
Ġincre ment
de fer
) ]{
Ġb urn
{- .
ma jor
ĠSpec ial
I J
ta ur
Ġn ested
rele vant
r n
Gener ated
ĠR am
Ġformu lated
at tach
ĠRus sian
R ANT
B AR
Ġtrans forms
Ġbec oming
Wh ite
Ġcontinuous ly
ĠW estern
ph ot
Ġpass es
ura ted
ĠD eta
class Name
Ġ& -
la x
the y
i os
ĠDir ichlet
Ġver ification
Ġb ath
Line ar
p en
ma ven
L at
comp iler
Ġmod ulo
D ay
Ġfla v
erc ise
Ġminim izing
ĠThe ore
qu et
Ġnucle us
arc sec
Ġdec oding
Ġcri tic
Ġprobab ilistic
tific ations
Ġamb igu
ĠÂ £
Ġre actions
ac tivity
' }{
Ġquali tative
ah ler
. (
Ġno tations
ĠA C
id entity
Ġdamp ing
Ġc od
/ _
triang leq
ĠC ri
Ġs la
conver gence
Ġi p
ĠBan ach
A udio
check mark
Ġfilter ing
{ -\
Ġevalu ating
CD M
co v
Ġdef e
Hel p
Ġsub graph
sign ature
end or
van ced
lip se
? >
Ġinter fer
ĠN AME
ati o
197 8
ig m
Phys Rev
gu ide
Ġpermission s
Ġin er
Sign ature
Ġmonitor ing
Ġconsider s
samp ling
Ġin correct
Ġpre pared
com mit
Ġd raft
00 3
Ġin gre
ĠCom mission
ĠTh rough
Ġb log
Ġc ivil
Al loc
A SE
E G
Ġanisot ropy
ĠS ect
' })
tain ment
de cl
Ġoutper forms
E mail
ĠCh annel
ĠB ell
data set
ol o
ĠĠĠĠĠĠĠĠĠĠĠĠĠĠĠĠĠĠĠĠĠĠĠĠĠĠĠĠĠĠĠĠ ĠĠ
ĠDe velopment
or di
E ven
Ġin comp
Ġg ates
Ġpenal ty
Ġengine ering
Ġth er
ĠCent re
ith metic
em it
Ð° Ð½
! }
\ ).
Ġm ic
Label s
te m
other wise
Ġover head
Ġc ategor
A UT
ĉĉĉĉĉĉ Ċ
^* $.
k w
enc oding
li ties
war m
Ġo mitted
Ġdiff ers
Ġmes on
T or
d w
re land
Ġtop ics
can vas
ĠWAR RANT
ĠF ar
ĠK o
ĠP res
get Element
Ġcli mate
ĠD C
_+ $
AN CE
ĠĠĠĠĠĠĠĠĠĠĠĠĠĠĠĠ Ċ
ã Ģ
spring framework
t bl
Ġinter view
ass ign
Ġda mage
O m
Exp ected
Ġion ization
ĠM artin
incip al
H tml
f ac
Ġlook ed
has er
AT OR
^+ _
Ġnegle ct
tri p
Ġdifferenti able
Ġconstruct ing
column s
al ian
10 8
ĠB lue
B er
F ALSE
d at
Ġinfinite ly
to Be
Ġp c
Ġe yes
le e
D ig
i ro
w ing
amilton ian
}{ .
fit ting
Ġ rm
Ġcont roll
ict ures
Ġpoint ing
AR D
Ġpro totype
Ġread ily
Ġaccomp an
Ġb old
C lear
ĠL ay
ut down
Not Found
ig er
ĠS ha
Ġle ak
h pp
App endix
100 00
Pro b
Ġcor ollary
Ġmon omial
Ġinitial ized
Ġpar abolic
vi es
eff ective
Ġto ler
od ge
Res olver
ĠRe pres
Ġ' .
bo se
n ight
im uth
Ġa cknowledge
ri ers
S top
Ġpreser ving
ĠJapan ese
do es
Se gment
| <
Ġwar m
ĠO N
Ġ' ',
b n
Comp iler
ĠAn n
u tation
and a
si l
Ġref lected
( /
ĠAb stract
)}\ \
Ġdec ide
ĠC V
Own Property
Ġout line
t ration
b one
Ġreson ances
App end
Ġme mb
Ġs up
Ġsub sequently
Ġfam ous
Ġhierarch ical
Ġoptim ize
Ġl ens
10 7
label s
Enc oding
as hi
Ġ= ========
{ }{
ĠK ore
Ġcol lective
Ġth resh
_ )
Ġimp ose
O L
> )
ask et
sign al
oc ia
10 3
Ġhapp ened
Bo ol
B ottom
ĠM iss
if ur
Ġhand s
OR M
fe atures
I SE
ĠCar ol
Ġdown load
Ġno tes
CON FIG
pe ak
Sh ould
ĠN AS
Ġrece ives
e es
a verage
pre vious
Ġan notation
Ġc oding
Ġnon negative
ri al
h ab
ĠL ake
ĠVir gin
w orth
ĠR O
ĠG re
p us
ir s
Ġoffer ed
Pri vate
ol ves
Ġinter po
T ouch
Par tition
Ġmar ried
F ocus
. \,
Ġanomal ous
add Class
illis ec
ama zon
L ie
enc ing
ĠSupp ort
S pr
lement ary
f etch
war ded
Ġcontra dic
}} |
E very
ĠP ass
ĠAnd roid
Ġre in
ĠC e
Ġreview s
Ġdi verse
Ġspecific ation
ay es
ryp ted
read er
Ġsh ip
197 6
V AR
n atural
v b
Ġb odies
Us age
tr ically
ĠB usiness
ĠC ross
m x
Ġgover ning
ĠLou is
Ġmo tions
ate ver
AT TR
Ġreg imes
DE X
le in
Ġser ious
Ġt ensors
n as
ĠCon text
ĠQu ery
Ġre v
de cre
od a
T w
At tach
R ules
Ġso cket
< !
De v
ĠL android
W ang
Ch art
Mapp er
An notation
R el
A ct
d yn
lu x
Ġac tiv
Ġact or
tran sport
Pro gram
ver batim
f v
Ġk pc
Ġfra ctions
Ġdis patch
Met rics
su me
AM ES
n ecess
Ġprote ction
math ring
c lock
Ġcon served
P lease
Ġdis plays
^* $,
g oto
ur day
Ġ' "
r vert
um s
phys ics
lim in
riter ia
Ġ| =
Ġs old
Ġmagne tization
Ġlit er
war ning
se mi
DE BUG
Vis ual
b ranch
Ġro les
Input Stream
ĠM eta
Ġtheore ms
in n
Ġsub jects
Ġun like
)\ ;
op ing
} ],
Ġtrans actions
Ġbreak s
. """
Ġmod ifications
ar di
ex cept
ĠG Hz
Ġfam ili
aj ax
ĠR a
ynam ical
\ `
ĠDire ctor
udi es
S ql
r ules
Ġarri val
{ },
Ġt ack
Ġsto ck
Ġti dal
Ġoscil lator
{ #
^* )
lic ense
ĠRes ponse
Es ti
Ġ$( {\
Fra gment
P DF
Ġcent ers
V C
go og
Ġturbul ent
Ġac ade
ma c
Ġsh or
Serial izer
ga uge
Ext ra
T I
ap is
Ġt ro
autif ul
=" ">
RE SU
S elf
ĠSec urity
L arge
Ġin jection
Ġspatial ly
Ġpay load
Ġback ward
19 75
Ġbelong ing
Ġatmos pheric
ĠCan adian
Ġwh om
com mun
Ġo il
Ġax es
co ok
A cknowled
A SSERT
Ġesti mators
Ġcapa bilities
ign ore
W W
Ġch ose
Ġhe ard
Ġdro pped
}) +\
Ġremain ed
v y
ĠSt ream
ĠO lymp
S ave
Ġe mitted
Fe atures
V irtual
the ast
b lank
/* !
f lex
]{ $
pi p
ul se
rup tion
P OS
Ġ' %
B N
Ġ\ ,\,
Ġiter ator
Dep th
Ġwall s
) }}{
ID E
FI ELD
LO W
H AL
}^ -
ps frag
ĠI d
structure s
}$ };
ĠBu ild
nu cle
Ġphot ometry
Ġimp lications
Ġc b
H L
ĠK ar
Ġpreser ved
Ġconsider ations
Cont ents
$ ]
> '
govern or
Ġcustom ers
Ġcele bra
Ġfall s
ĠC la
ĠSp anish
Ġ" ";
alle y
ĠI den
Ġmethod ology
Ob server
Ġevery where
scal ing
pre ceq
}=\ {
is set
Ġag rees
F inal
Ġreson ant
Op tim
Ġnull ptr
cf g
pix el
cre d
urb an
ĠY ang
AR N
Ġ- =
S ort
Ġchar set
xy gen
ĠW ill
ĠDe lete
Ġmon o
section s
Ġg ray
Dec laration
C la
ĠD oc
ĠAn ge
Ġf ans
ic ode
Ġphys ically
10 6
ĠJ ones
War ning
Ġabsolute ly
Ġar tifact
Cur sor
Ġro b
$ _\
Ġgreat ly
ab stract
Ġs ociety
inte gral
big cap
Ġinfra red
H is
Ġf s
Ġclass ic
ter ior
Ġvari eties
NS String
itect ure
F atal
Ġsp iral
Ġpolar ized
im als
b log
da ys
ul ner
ĠJ e
\% .
IO Exception
S creen
Ġcon servative
: #
H u
ĠIntern et
B ind
}{ -
STAT US
omin ator
face book
Ġbary on
Ġkine matic
ĠP romise
Ġf ault
Ġq q
ĠOr igin
Ġpa id
. ]
ĠI o
Ġreach ing
Ġdiv ide
Ġdis able
ĠMid dle
di e
A lex
approxi mation
Ġsupp osed
Ġ$ ^
pp ings
m icro
ĠI mple
yn man
ĠR andom
Ġo mit
pres ent
ĠS ocial
Ph one
ome ter
B its
Ã £
Ġanisot ropic
cho ice
Ġauto matic
FLA G
Ġspa cing
Ġs aved
Set ting
T imer
ĠN et
D rag
un ing
11 8
lim sup
i y
Ġfair ly
ĠDes cription
Times tamp
Pol y
ĠW ell
IMP ORTED
Ġneur ons
ol or
Ġd ip
es tion
ti e
Ġde vo
Ġfermion ic
ĠWith out
' _{\
}} }(
Ġlat ency
Ġgra te
print ln
. }.
Ġs b
Ġanaly tically
* (
su cc
âĢĿ .
} ''
ard en
Ġshe af
Ġc ached
AV E
D on
EE EE
Ġarm s
Ġperfect ly
Ġdeal ing
bur st
ĠC T
O pt
ĠR L
ĠAcade my
Ġdesign s
ther mal
ĠG rand
2 30
Me an
Ġinc ome
ge ometry
Ġcompreh ensive
Ġwindow s
Ġcondu ctivity
ig an
Ġdeath s
Ġarg ued
C enter
() ),
Ġs ync
Ġwork er
Ġsupp ress
ĠPro blem
ĠP C
Ġwavelength s
ĠN av
Ġseman tics
ĠP aris
Ġt x
C ALL
re cur
Ġ ens
ĠBo ard
l ighted
high light
c mp
$\ %
Ġoper ate
A K
Ġover come
ur er
Ġfilter ed
prec ision
Re lease
small matrix
si zed
Ġsucc es
Ġkn ew
s ity
Ġla unched
bel l
onym ous
Ġpromin ent
I Z
L u
Ġc lone
app ed
Ġpatch es
yn chron
Ġswitch ing
ĠV o
ĠO S
ic ul
Ġexp lains
ĠSun day
Ġconflic t
Ġfun ding
trans fer
ced ure
C ard
Ġsuper vised
ĠB re
P ower
Ġsent ences
Ġcollabor ation
b is
Ġran ging
T yp
o e
Ġd og
Cal c
ĠD ig
Ġfore st
RESU LT
Ġcor por
asc ade
Ġarti sts
rela tivistic
Ġcomp arisons
Ġcon trary
ĠL os
Ġbelie ved
Ġsur jective
Ġimpro ving
H F
s tab
Ġsyn thesis
tz mann
ad i
min imum
air s
ira ble
Ġindu ce
Ġ$ _
ĠB Y
c A
)\, ,
Ġopin ion
Ġdr ug
'] );
G W
Ġre ar
Ġm d
Ġ< -
av g
g ot
ed ges
Ġno tic
Ġann ual
ke leton
Ġb illion
Dec l
Ġres istance
et o
Ġcommun ic
Ġs orted
ĠR ail
L em
V V
Ġhelp ed
ass andra
ourn als
< <
. }}
}\ {
Ġ{ (
)} +
tikz cd
int en
Ġcompan ion
Ġb ind
math rel
c atch
si tes
UR CE
Ġpossi bilities
1 19
ĠC M
Con vert
ĠChar les
T asks
ĠR GB
mathb in
Ġsa ke
Str ucture
Ġra d
Ġ ----------------------------------------------------------------
)^{ -\
dis patch
p lain
Ġminim ization
Valid ator
197 4
] ,\
dire cted
ĠF uture
cont ra
t v
}} [
ĠJ un
r int
ti lities
L ag
er gy
Li ke
D rop
la ton
ĠN P
Ġcontra ction
pag ation
Ġrece iving
Y ER
Ġsum mation
pm od
Ġear th
-\ !
sum ing
ob tained
Ġsimp licial
over rightarrow
In dic
con c
Ġspectro scopic
Po ints
ĠF ro
Ġ/* !<
ID TH
Ġs ketch
Ġun able
sub mit
Ġte lescope
11 4
cl s
or ous
Q CD
Ġch apter
» ¿
Ġdist ortion
h is
Ġexplo it
Ġgo ogle
linec ite
Ġan c
ĠRad io
Ġh ide
van ishing
' ^
Ġacqu ired
j an
Mon th
in verse
\ ),
rack ets
S ite
D ynamic
Ġinstruction s
Ġv ice
ĠĠĠĠĠĠĠĠĠĠĠĠĠĠĠĠĠĠĠĠĠĠĠĠĠĠĠĠĠĠĠĠ ĠĠĠĠ
br aries
Ġbin aries
G reen
)$ :
ĠNe umann
Ad S
Ġen ded
en ger
ĠA ust
Ġ ur
Man agement
S imilar
Ġa f
ĠH as
\% )
Ġ& =\
ci ent
197 3
Ġmor ning
prob ability
Ġconsist ently
Ġp lain
ï »¿
sp acing
tis m
12 4
ĠH uman
u its
ĠConfig uration
Ġpar sed
^{- (
ĠFigure s
Ġred und
Ex ists
Ġcont ours
b ling
Ġse es
? }
re view
til ity
Ð¾Ð ²
al most
ĠCont ent
Î ±
p ad
(' ./
Ġim m
Ġcomplex es
P layer
5 000
if iers
Ġsuggest ing
Ġis land
con cat
Ġpredic ts
bo lev
o S
Ġarti st
Ġan satz
Ġ" '
Ġtrunc ated
ĠM D
Ġf resh
ĠRec ords
Ġnegle cted
Ġ} .
Ġdiscrep ancy
Ġf older
De lay
direct ory
Ġbal anced
le ted
k ar
ĠMan agement
Ġtim ing
UN D
ð Ł
oin ted
w an
Ġmod ulus
d rag
Ġremo val
vari ables
Ġempha size
Process or
CT YPE
ĠKing dom
ĠApp lication
al a
Ġme ant
Ġpo si
ĠJohn son
et ary
C ounter
Ġdele ted
Ġte tra
C irc
Ġrep ository
ag ree
}^{ [
Ġm otor
z hang
Ġco ach
= >
es is
Ġd om
Ġint en
bal ance
to gether
Ġc us
Row s
ĠDen ote
Ġsepar able
Ob serv
D imension
path s
12 6
Ġin set
ĠH u
St andard
Ġar tificial
12 2
ĠC orre
ut ch
Ġsearch es
ogene ity
al ed
Ġvalu able
Ġas ymmetric
ĠB lo
go v
Ġin direct
im od
b ow
En g
ĠC as
ĠT ag
(" %
el le
Ġre ti
ĠI reland
ĠEx perim
Ġprotocol s
H I
exist ence
F amily
ĠSch r
}( (
qu asi
ĠP ut
K M
S kip
US ER
}}( {\
ĠSer ver
Ġlat tices
F ixed
Ġir on
D em
Ġrecor ding
ĠF rame
Ġknow s
j u
Ġcombin atorial
ĠC ore
Ġran king
s z
17 5
UN T
B V
ĠW ed
alk er
repe at
Ġopp osed
Ġw itness
Ġsupp ression
ij ection
ur t
Ġsol ver
ĠMethod s
Ġsat uration
A ST
Ġsub spaces
ĠH ubble
Ġutil ize
12 1
act ual
ĠM atch
Ġ`` `
r ical
pr ise
i math
Ġassert True
ĠÐ ²
t m
no vation
per formance
os a
Ġcomp atibility
Ġstri p
Ġa head
Ġtimes cale
act ing
Ġglob ally
Ġb ag
lim ited
Eu Script
m orph
ĠB ank
Ã£ o
ĠB C
Ġdo or
Ġmonot onic
^ -\
Ġtransi ent
Ġrecur sive
EN ABLE
ĠIt aly
Ġoper ated
Ġpr ices
M SE
N i
ĠF riday
al and
Ġcon ference
W in
Sym fony
our se
me l
">< !--
Ġintegra te
HE AD
) '
atter y
BOO L
ĠL ight
Ġtri m
D a
ĠBe fore
un cation
up load
ph rase
ĠRich ard
sh ips
ĠDes ign
), $
si bly
fer m
Ġob sta
Ġb io
ĠIl legal
pa ges
H older
ff f
Ġs ell
ĠĠĠĠĠĠĠĠĠĠĠĠĠĠĠĠĠĠĠĠĠĠĠĠĠĠĠĠĠĠĠĠ ĠĠĠĠĠĠĠĠĠĠĠĠĠĠĠ
Ġkn ot
Ġcustom er
Ġvic tim
Ġn u
Ġ" .
ĠH am
pa ted
on linecite
Ġcon sequently
y o
com b
9 00
z il
Ġmolec ule
u uid
197 2
Con tact
ris on
Ġbuil dings
cor ner
Ġtrac es
pres er
ĠM ur
enari o
qu bit
Ġpro g
Ġs napshot
ĠRe port
un ov
Ġun changed
Ġ ...,
Ġenter ed
Ġsupp lied
D r
ĠN ov
Per iod
inc ar
ĠTh ree
Ġj unction
Ġover flow
Ġsp ont
Ġcy linder
EEEE FF
) ",
Ġgraph ene
Ġsem igroup
) }^{
Ġpoli tic
ĠJ im
ĠIt alian
esting ly
Ġbos onic
or row
,\ ;
Ġpart ner
Res et
L IST
}) \\
Ġstructure d
Run ner
ĠP i
con e
Dis patch
ni e
R G
Ġa fore
ĠG ib
11 7
Ġsyn tax
Ġadvan tages
ĠA re
Ġinterpre t
Ġpul ses
Ġp ending
ĠEn ter
Ġsubstantial ly
am big
seud o
)} +\
Ġassoci ate
Ġbehavi ors
Ġtren ds
( |\
ĠI C
ĠD ouble
ĠGu ide
ĠLap lacian
Ġlog ging
Ġt err
be am
commu tative
B est
ĠFlor ida
ĠRe ference
Ġcred it
cre ated
Over view
Ġansw ers
ĠRes ult
Ġwe ather
Ġanalog ue
Ġmonot one
Ġvo la
Ġs ales
extension s
Ġcounter part
En umerable
Ġconn ectivity
ĠF ilter
Ġcaref ul
ran ts
ĠT IM
con struction
Ġtra p
Ġselect ing
DO CTYPE
Ġb attle
Ġfor cing
ĠCh icago
Ġpredic tive
Ġquan tify
f an
ĠC OM
ĠĠĠĠĠĠĠĠĠĠĠĠĠĠĠĠĠĠĠĠĠĠĠĠĠĠĠĠĠĠĠĠ ĠĠĠĠĠ
b ol
Ġgap s
ed er
ll ll
As sembly
Ġs ink
Ġl ensing
Ġvo cal
N orm
ĠTh read
Rem ote
Ab out
Scal ar
ĠAd min
Ph ase
produ ction
d V
Ġfluct uation
in finite
ĠF ra
Ġcomplement ary
Ġs ter
bib item
Acknowledge ments
[ [
ĠT ree
n r
Ġfamili ar
c rit
Ġcomp liance
T uple
Ġcol lege
du c
CO MM
ir ls
Ġst yles
ĠSec ret
fra mes
K ernel
ĠS S
Ġst uff
Ġpropag ator
Ġmeaning ful
ĠC os
ĠVer ify
Ġhum ans
Ġsee ing
Ġevolution ary
D s
Ġde m
Ġnorm ally
ĠG C
Ġremark able
Ġcra sh
CON T
Ġleg end
E mit
Ġapp reci
Ġpre liminary
ĠCh ern
Ġsp orts
Ġtransfer red
Ġen umer
Ġ Ñģ
Ġperform ances
Ġdis appear
on i
L ow
g z
}^{ -\
gener ator
Ġcapa bility
Ġint ui
or tation
ĠS ED
Combin ing
Y Y
Ġcomp iler
Ð ´
Ġcon sumer
au i
Ġv ir
Ġsuperconduct ing
Ġw idget
Ġro tate
Ġfac ilities
ta rea
11 6
let ter
Ġrecon struct
Met ric
IF AR
C oun
ĠLe ft
andid ate
Ġa u
ĠPar se
an ded
audi o
ĠE M
Ġman ually
Ġhis togram
ĠIm mutable
ĠC F
ĠL P
Ġc ities
set ting
Ġdef ense
ĠA ge
is ition
Ġp latforms
Ø ±
ĠF estival
B lob
om mod
FF ER
ĠTe am
ĠO ffic
Pre dic
n ative
ick et
n ic
ĠCommit tee
T Y
Ġexp onents
Ġconsider able
j ax
Ġfill ing
ĠExp ression
k pc
remo te
in de
Column s
text ure
)\, .
pol ynomial
x f
Ġd anger
Ġg irl
v ile
10 9
ĠDE FAULT
coun try
Ġinter faces
Ġ[ (
ob served
math ord
ĠD ar
Ġb igger
å Ī
Ġs ymp
ĠL ove
Ġoccur rence
ĠO ld
Tran sition
ĠC olumn
Ġsql ite
Ġy ellow
d ense
g lyph
ĠW ood
Ġ era
E Y
d st
F un
L iteral
or se
Ġcomputation ally
Ġadi abatic
Ġa ircraft
` )
Ġdef ect
Ġref inement
st ances
Ġcard inality
list ing
ĠA ccess
Ġf etch
Ver ify
Ġs and
ĠSh ort
Ġde legate
Ġdep loyment
ĠT im
const rained
re ds
ou red
H ol
Ġsto pping
der son
] =\
ri age
Ġaz imuth
Ġman age
Ġmanif est
s ent
App ro
tim er
Ġdiscre tization
ĠB R
Ġreturn ing
}}{ {\
li ve
ĠSci ences
Ġor thon
elastic search
n am
ĠP si
Ġa de
sh ire
Av ailable
rag ma
Ġmur der
_* \
on to
sh own
Ġtechn ologies
C md
a be
ĠPar liament
min imal
R GB
n ice
ĠA ut
con tainers
t ar
ĠCal c
d ra
st retch
A ggreg
W ill
Ġ\ '
ĠUn it
h p
x html
ac cept
b if
Ġar ithmetic
rm k
ĠS ky
ĉĉĉĉ Ċ
Ġmo tivation
ĠCor por
Ġdegener acy
Ġti le
dis crete
ide al
Ġreal ize
u ous
Ġat tributed
match es
up les
Ġannihi lation
Î ¿
ĠF lo
F it
Ġimple mentations
ĠDes pite
Ġpre pare
Ġg ender
> [
) <\
ĠR ow
Ġexper t
Ġteach er
or ange
L ICENSE
Ġel if
ear t
Ġour selves
div ision
Ġmultiplic ative
Ġ? >
ĠJose ph
bi ased
equival ent
der r
Ġra ys
Ġrela te
Ġprincip les
ĠN Y
Ġre written
ĠG ames
d ocker
war n
r x
O BJ
Ġthink ing
Ġplan es
Ġcl ar
Ġatt ractive
K G
Ġtrans mitted
Ġhypo theses
M aterial
B ad
stri p
ĠWhe ther
)+ (
Ġtri angular
m ers
Ġres ulted
ac ity
ĠCE LL
Ġafore mentioned
/ "
ĠParameter s
s tation
s phere
Ġreflect s
Ġsuper ior
temp orary
EV ENT
NavBar Font
Ġcaref ully
im ent
11 3
ĠF act
]{ @{}
Ġmu on
Ġdevo ted
Ġstore s
Ser ies
)}{ (
Ġincreasing ly
Ġdistingu ished
ĠW in
Ġparame tric
Ġsk ills
Sw itch
P lot
is enberg
Ġcomp ilation
ĠT ake
no thing
with in
Ġac oustic
the ir
Ġnucle on
RE SS
sim al
temp t
Ġexam ined
id en
ric tion
) &=
la ys
B lack
tr ine
}$. }
HER E
Ġconsider ably
A Y
Ġp ed
Ġrecomm ended
ĠV an
IM IT
ĠT ab
ĠH on
tern atively
c as
k wargs
Ġw ood
}{ (\
d B
ur ance
pop up
c P
ĠIsra el
| ^{\
Ġs leep
? "
ri table
ĠO P
Ġend points
sc ss
_* $
Ġneighbor ing
C learly
ĠL ord
K T
Ġthous ands
ĠR F
Ġstr ug
Ġvari ed
ĠC er
un ks
Ġprepar ation
ORD ER
ran ce
ĠF ore
ĠLi ke
ĠE ND
Ġex clude
ĠD NN
; "
li ps
V O
Ġ( `
Ġpreced ing
)} -
Ġp al
Ġman us
per ture
Ġpack ets
ĠP L
arge ted
ep ler
po sitions
h es
; )
Ġwidth s
00 4
Ġpar k
xt ures
Ġg rain
FI X
qu ar
ĠH ard
}: =
ĠL uc
ĠS us
ge o
Extension s
ĠCh ange
}}$ -
C SS
it an
ck er
AR G
mod es
Ġle s
ti ble
99 99
P haser
m essages
Ġc as
Ġthrough put
Ġsyn thes
t ol
ĠRus sia
ali as
fol io
LE TE
, '
bre ve
har monic
r times
ĠMod ule
ĠBu ffer
Ġmaxim ize
ĠFil m
c amel
IN ST
oot ball
Ġsm oothing
Ġsp anning
Ġgu itar
)= -\
ook ie
,\,\ ,\,\
=\ !
limin aries
+ |\
lo cale
In sert
Ġhand led
T erm
Ġg host
Ġph ilo
H a
p et
In ner
}} /
ĠSI ZE
determin ed
ad ded
Ġdes tr
Ġeigens tates
Ġcum ulative
Ġb ifur
Ġneighbour hood
it ors
Ġch ampion
Ġremark s
art an
Ġpublic ation
c C
v ac
Ġbu g
Ġbi partite
h ence
inter action
rat ch
bi as
S eq
ĠWh ere
me trics
Ġhol ding
par k
local host
Ġcan vas
oo per
Ġb ott
Ġlead ers
ĠPh il
M aster
leg end
col Last
ch unk
ys h
Ġexception al
Eff ect
Ġmach ines
mission s
ma gn
p al
be an
} <\
Ġdraw ing
ĠT i
qu an
Ġo xygen
ts d
ĠMA X
Us ers
res on
Ġpr on
c ategories
in son
**************************************************************** ********
Ġlit eral
Ġphilo so
Ġend ing
ĠSat urday
ĠCon vert
ĠWARRANT IES
ĠCong ress
=\ "
ord on
Ġmo tiv
Ob serve
m ond
ĠA rab
s tability
Ġhadron ic
c oc
S B
dec lare
Ġsta t
Ġvol umes
ĠL STM
\ },\
Ġthread s
Ġa ward
Type Def
Ġoccup ied
}^{ {\
Ġc ube
Ġt we
de veloper
{ +
w art
Ġsh oot
acknow led
Ġclass Name
l Vert
Pro du
G ame
al p
ĠZe aland
Ġcompu tes
ĠâĢ ¢
con clusion
Ġcar s
con vert
Ġtr ig
Ġsign atures
n an
Se par
Ġfil tration
at z
f riend
Ġequ iv
" ].
u ition
l int
r uby
re gex
ge ometric
ink owski
col First
Ġse mic
Ġe p
Ġ$( -
T ensor
ĠJ ordan
× ķ
A ff
jec tives
% "
Ign ore
R V
us band
Ġb rane
)= -
\| _\
Ġretrie ve
F oo
ĠAr ts
ĠApp ro
Ġ( {
13 4
Ġrecogn ized
P b
medi um
p as
ip edia
BA SE
V ICE
Ġindex ed
Ġcompe titive
IL ITY
Ġho spital
T aking
Ġ ~~
Ġecc entric
ĠA tt
Ġb ijection
Ġv ulner
RE T
Ġsuper nova
PH P
at ern
Ġst retch
Ġl if
res sible
dd en
De te
ques tion
ir ds
cont inue
Ġulti mately
ud ent
mu st
- }
ĠAnge les
Pre vious
ĠS Y
all classes
OM E
Ġs cre
Ġax ial
uk awa
Function s
oun der
r h
ib ling
ĠH istor
Ġbase lines
Ġheavi ly
Ġroun ds
/ $
Ġorthon ormal
$\ {
14 5
P W
Ġci tiz
(\ {
ĠM ont
ĠS ize
vi ation
3 20
ĠE con
gr icult
trans late
ĠEn vironment
}^* $
Dec imal
me as
Ġcol ored
Ġcomp ac
ici ans
gr u
Ġbr ings
× Ļ
v let
Ġauto ma
la beled
Ġsub sequence
la h
Ġinc lination
ĠC laim
ab ric
un known
on o
=\ ,
Ġf ro
}) -\
common s
equiv ariant
ĠBrown ian
Ġshor test
Lo cale
SS M
li u
: @"
ĠB esides
ma cro
vi an
Ġfix ing
es sed
ĠF ull
Ġs addle
B order
S ep
Ġcosm ology
ĠW ater
Ch en
Con sumer
Ġexpec tations
ĠV ictor
c ert
Ġsto pped
Ġv ast
L IN
tif ier
Ġins ights
Ġre jected
n of
Ġmoder ate
Perm ission
L F
Ġincorpor ate
Ġdis continu
( --
sh a
th le
197 1
Ġlabel led
M achine
Ġwire less
Ġde but
me mbers
lec tron
Const raints
ĠCom bin
sp arse
sup set
Ġfif th
Ġflexi ble
Ġlimi tation
Can vas
as ympto
Ġaudi ence
times tamp
enc oder
Ġpara graph
__ ,
ĠMa the
ĠL ow
task s
RA Y
et t
ab ling
ĠAm ong
Up load
x p
get Instance
Example s
can onical
di am
Ġsh allow
| $,
Ġb racket
Ġde part
)\ )
ĠI ll
ass ociated
() </
col sep
Ġsci enti
EN TRY
Ġy ielding
s child
Ġcaus ing
Ġcapt ures
ĠSe lect
Ġ// !
ĠT a
_* (
ĠA la
ap y
Ġbe at
SO URCE
n at
gin ation
lay ers
ĠCon f
Ġcopy right
Ġopportun ities
Ġcent r
Ġad verti
me chan
Ġbur st
ici ous
D ist
Ġutil ized
dor ff
Exp ort
Ġsta ts
Ġb lob
%%%% %%%%
Ġsh rink
row th
Exec utor
Ġun likely
ĠV ideo
13 2
Ġpro mpt
t own
al tern
ential ly
bra ket
lic enses
Ġext ensively
Ġco ast
Ġstrength s
ar ound
ĠMex ico
Ġill umin
Ġde eper
19 69
Model s
Ġtr uly
hi b
elec tric
Ġdiff use
Ġinvok ed
G ate
Ġfocus ing
ro ad
Ġspar sity
Ġclin ical
k top
Ġentang led
){ $\
U pper
Numer ical
ind ices
Ġelec ted
PRO P
con ds
ER N
, ...
ĠB ul
Sh ift
nav List
al d
19 50
Ġ\ ;\;
\ ;\
Ġf ounded
ĠG P
Supp orted
onom ous
Ġgal actic
Ġd st
rou ble
k u
en vironment
Me asure
Ġin ver
ĠR ights
G H
Ġa ges
ĠG ar
ord ance
cript ors
Ġanalog y
ĠS ym
Ġsol ves
link s
Ġcoun table
Ġpe er
ĠSur vey
ĠE ff
Ġk ill
Ġ lying
re lations
Experim ental
dif ference
Ġm igration
K n
Ġfor get
Ġbe ta
ĠW omen
az z
Ġf id
et c
} ",
Newton soft
Ġloc us
Ġper man
ing ly
Ġf oli
&& &&
Ġsc enes
Ġadj usted
r Vert
Ġg rey
col lect
G EN
g un
Ġp reference
}) ]
Ġgain s
Ġanten na
Ġex posed
y d
16 5
cal endar
ĠAd am
D u
sc an
di amond
Ġsp lits
ĠVirgin ia
Ġint ra
PRO C
new s
Ġillu stration
Ġhapp y
Draw ing
Ġconfigure d
}} ^{-
ĠM is
F B
AP P
cu da
p ot
D id
Ġiter ate
g lu
C u
Ġpr ison
= %
Ġe le
Ġw ider
de precated
Ġreg istration
CO M
Ġmicro scopic
Ġ' ''
Ġanaly zing
v r
T AG
set Attribute
go ti
ĠOr gan
Ġmark er
Ġ} ^{
v g
Ġman ual
ĠPhys ics
@ \
SCR IPT
ĠC y
pro gram
ĠP hi
Ġequ ipment
Ġle ague
tool bar
A gain
Ġst reet
sh ots
ath an
Ġg ar
ti st
Ġtemp lates
append Child
Ġbe autiful
ĠCath olic
" ];
re si
Ġhal os
ĠC ast
n orth
Ġacc ommod
T eV
ol is
Ġb ilinear
Ġsp ring
Ġspec ifies
j d
ac ific
Ġdomin ates
ĠĠĠĠĠĠĠĠĠĠĠĠĠĠĠĠĠĠĠĠĠĠĠĠĠĠĠĠĠĠĠĠ ĠĠĠĠĠĠ
Ġm ig
ĠM ari
Ġfac ility
Ġinfra structure
Ġev olve
ĠComp onent
Ġpredic ate
ĠRes Net
S napshot
arg ed
[] {\
yc lic
Ġdynam ically
inten ance
u ated
Ġocc asion
trans action
au g
} ')
19 68
p w
tis tical
Con sole
Ġnor ms
Ġread ers
to pe
ĠDe v
Ġaug mentation
Ġsever e
to s
ĠA ctive
Ġstatis tic
Ġh ook
ĠH opf
Ġre min
Ġfocus es
ä »
igh th
Conn ect
K w
Conver ter
Ġpack ages
Ġecon omy
ĠC are
ĠM I
Ġdro ps
ĠPro p
Pro c
... </
om o
Ġaggreg ate
Ġun bounded
Ġs ensing
ĠH ermitian
Ġassess ment
Ġcontribu tes
Q Q
oun ced
Ġser vers
ĠE rr
Ġ( +
expan sion
ĠM R
(' <
)+ (\
19 5
Ġorgan izations
dis cussion
}| $
Ġno tions
neigh bor
Ġmemb rane
D av
D istance
Comp are
ĠHand le
at ers
'' )
i tation
op acity
mat ter
te t
The me
def i
Ġstand ards
N s
ĠM en
su fficient
bu ilt
app ing
Ġeigen vectors
J y
w ild
in der
Ġg one
Ġfunction ality
base line
MP L
En ergy
hed ral
ĠSc ott
f av
h ou
f uture
NO DE
Option al
Ġb ol
Ġ' #
ĠÐ ½
Ġpermu tations
Ġan notations
ĠV alley
ĠSto kes
Ġstream s
ĠJ eff
Ġg rains
aw are
ĠF W
Ġbe ams
2 25
g ency
}) /
ĠF re
text backslash
Ġsu dden
m v
Ġ' _
ĠF ire
Ġcould n
p romise
Ġprocess or
Ġturn ing
ĠC u
Ġ' -
s ources
la ps
ow ed
mod ified
aus dorff
ĠLab or
)\ |
Ġinser ted
v ary
rop ical
Ġaggreg ation
Ġdec ade
}) _
S en
ĠD er
Ġmer ged
mid t
Ġs outhern
Ġjoint ly
il de
Ġsh ares
Set s
du ctor
Te X
lik elihood
filter s
Ġphot ograph
, -\
Ġste ep
Set up
Path s
Ġ$ +
Ġsure ly
Ġenc lo
k ubernetes
Ġdeli very
ir k
Ġconclu des
g el
const raints
fa iled
ĠB ow
th rift
ĠGe org
Con version
Ġdec or
Ġmi tig
) ^*
m q
}= {\
ĠE v
Ù Ħ
Ġsubstitu tion
B reak
Ġplace holder
Ġquad rup
n ail
Ġw rapper
ĠF our
combin ation
ĠIn du
Wh y
it ons
Ġim mer
un te
Ġcor ners
T y
Ġelimin ate
ĠG en
Ġcons ensus
22 4
Ġrele vance
Ġnor thern
+ (\
th reshold
ĠT our
}\ ]
g ic
ben ius
Ġh its
i vers
ĠIn valid
ĠA sia
19 0
Ġp sych
ran ged
S l
FOR M
Ġs ectors
ĠSV G
ĠLo ad
Ġf ear
}_{ +
ĠApp le
Ġav ailability
{( -
c F
Ġsing let
ici ties
ĠD ark
ĠD NA
ĠC at
ues day
ao tic
an notations
tex pr
Ġfor th
pack et
Ge ometry
A zure
ĠN C
Ġbg color
Ġw rap
m g
um ino
h yp
Ġper turbed
ĠS and
Re ason
3 000
Ġide als
Ġmark s
Ġb ed
Ġf ish
)}\ ,
Ġti p
Ġstatis tically
Ġquad ra
Per formance
ge ment
T W
var sigma
Ġrespon d
us tice
Dire ction
m ime
Spec ial
CD ATA
od o
Ġg reatest
os able
.* ;
In sp
J an
æ ľ
P lace
ra ting
ĠI ran
ĠAb out
agnos tic
ĠT aking
Ġdef aults
Z hang
Ġbig gest
Ġball s
perturb ative
G LE
Ð ¿
Ġs ister
amp lit
Ġlook up
Ġful fill
Ġade qu
Ġfed eral
Pack et
z ier
ĠCommun ity
s mash
ĠU sed
ĠâĢ ¦
: '
_{ *
Comple x
ĠW i
Ġcry pto
Comp ar
Ġthrow n
Ġlo se
pos sible
equation s
X iv
AA AA
ĠSe a
A ctions
Ġar cs
ex a
Ġfeature d
Ġmod al
Ġab use
4 50
Ġaut orest
ĠS ingle
vis ual
Ġown ed
Look up
Mod ified
Ġfib ers
mis s
BU FFER
S em
Output Stream
TR AN
Ġdec lared
su med
ĠK en
sk a
Ġcontinu ation
DE s
Ġspin or
or ption
Ġoccur ring
Den ote
ro d
Sec ret
q a
s lo
ĠR V
tan h
P V
Copy right
}} ]
Ġim g
En able
C r
Ï Ħ
ĠA B
================================ ================================
k j
\ #
to c
urs day
Ġd z
Ġwe ap
ĠWh y
L android
ĠHen ry
s lide
si ded
ĠAL IGN
se x
ish op
Ġgovern ed
Ġextrem al
Ġacknowled ges
s sec
e ast
}{ |\
Ġexper ts
Ġplanet ary
ĠĠĠĠĠĠĠĠĠĠĠĠĠĠĠĠĠĠĠĠĠĠĠĠĠĠĠĠĠĠĠĠ ĠĠĠĠĠĠĠĠ
Ġback grounds
Ġleg is
getElement ById
z oom
Ġe lev
Ġexperi ences
Ġb an
In tern
f older
Ġtrans it
Ġquali tatively
ĠL ittle
TIM E
Ġ\ }$.
Ġsp anned
Ġalloc ated
o tic
u si
Trans fer
Ġrout ine
re main
ic an
Ġre lay
P latform
Ġrep ul
O ld
... )
13 6
Ġ} _{
rit ing
Ġy oun
We ight
refer red
Å ¡
us ual
ĠP U
Ġsub t
be a
N I
ian o
Ġk ick
ĠB la
co herent
ĠSyn tax
4 000
_+ (
Ġexceed s
ĠW ord
ili pp
ĠW ho
ĠLap lace
ĠMed ical
le xi
- |
ĠD ocument
Ġphon on
ĠN i
S NR
Ġle x
'' (
ĠT re
HO UT
Ġmus ical
Ġser ving
Ġbu cket
Ġtri als
Ġuni vers
' |
ra tor
ap unov
c id
}\ !\
C ross
pt on
ĠC irc
icul ties
Un iform
( ['
Ġdef ects
is a
Ġdestroy ed
r p
Ġsh o
UE ST
ff ix
! (
Ġscatter ed
in fra
Ġsk in
ĠRun time
th y
EX PORT
Ġ mp
Acknowled gments
ĠM atrix
ĠM aterial
set counter
B TH
Ġj o
r put
Ġpro vision
Ġsuper symmetric
de mic
down load
b ases
pro t
bes gue
ri ve
igh test
0 15
ĠC G
}} },
p otent
Ġh ab
2 80
O FF
UR N
Ġ( -\
e u
an cer
ĠWe ek
âĢĿ ,
ĠY es
redu ced
ĠB on
acknowled gments
am ount
Ġwh atever
Ġland scape
Ġdescri ptions
est or
Ġen rich
Ġsole ly
Ġretrie val
ĠI T
AR RAY
ict ory
ĠTheore ms
ma ml
ab ul
Ġtr ick
Q ual
Ġmin ima
F ore
get Id
Ġhel per
Read y
O h
R ob
Ġwe alth
K it
Dis k
D ITION
Ġrender ing
ĠIn di
has OwnProperty
Ġsimultane ous
ĠPa uli
Ġis sued
im ity
}{* }{\
Ġsu ite
ch ester
Ġsub algebra
al ert
neu tral
RE CT
umb nail
Nav igation
' }}
Ġamb ient
Ġmore over
14 7
Ġre tain
ec ycle
Ġ" ${
ĠChi ef
T ok
ĠExample s
tr ino
E W
Ġ river
ĠP H
Ġmer ely
Ġclassif y
hal o
} &=&
U ST
}[ (
Ġmin us
Ðµ ÑĤ
ĠSw ed
m ixed
File Name
Ġdr ink
Ġc ris
Ġe dition
Ġout lined
Ġauth entication
p unct
ĠThe ory
y u
T a
ĠS end
13 7
Ġd ream
Ġmin ute
un ion
ĉĉ čĊ
Ġformu late
Ġtr uncation
YER WB
BTH YERWB
ur ies
ĠF amily
Run ning
Ġ} ),
Ġke eps
Ġh usband
c ous
Ġk ids
Ġinvest ment
ĠF un
Ġadmin ist
h istory
Ġb on
Ġan tic
fin ing
Ġexhi b
Pro blem
normal ized
Ġtrivi ally
ocia tive
Ġtrans lated
D ash
ĠC ra
par ty
as is
Ġre fined
j l
ĠS ymbol
ro bust
For ms
ĠWilli ams
Ġnomin al
M ass
ĠS af
es ome
V S
Ġspectro scopy
v x
Ġd ict
vis it
Con sequently
ĠIn ternal
¿ ½
Ġsum mand
Ġimplicit ly
ĠCar tesian
t u
19 67
Ġvis ited
Ch unk
Status Code
nap shots
le ave
ver ify
Ġun d
Tr igger
ĠS SL
ĠP la
at um
Ġn ano
CE SS
T ex
16 8
u ted
se cre
}= (\
ĠF all
Ġper mit
ĠH E
Ġpublic ly
ĠCh apter
Bu f
Ġnav ig
Ġun expected
Ġapp s
es cape
Ġsuc ceed
ĠD ep
preser ving
Ġresidu als
T ech
el lip
ĠS ar
N F
ly n
Ġe m
Ġcar ries
tw itter
Multi ple
ĠB E
ĠO k
at tention
Ġup load
ĠComp ute
)/ (
Ġ Ø
c it
log ging
ĠL I
L icense
tr uth
Th ree
Q A
ĠMajor ana
con trib
ĠU RI
D one
Ġdeveloper s
Ġ ^{-
cm id
ĠD et
Mis sing
15 5
Ġlet ting
Ġtrip let
ĠMon day
D ot
ab ilities
Ġf uel
ĠU l
ron ic
Sp in
V A
ĠAt lan
Lower Case
Ġ' ./
13 3
ĠD IS
align at
ud it
P ress
Ġm iles
ou g
Ġthresh olds
$ }.
Ġfe et
Ġfe at
ç Ķ
Ġin herit
)} )$
S un
sw ap
CRE ATE
' /
ec lipse
os cal
Ġbelie f
Ġwrite s
lation Token
Ġcirc uits
the ad
Ġ$ %
n f
parent Node
d dots
Ġmain tained
Ġdist urb
ĉ ĠĠĠĠĠĠĠĠĠ
pre pare
ĠC r
****** /
C ut
Ġo c
AC H
Lo gin
cmid rule
Ġprodu cer
on ts
Ġgo og
Ġv m
mat ched
Ġscreen ing
ĠE RR
Pri ority
inde q
P al
s ight
id ity
ĠV irtual
C oh
12 9
operator s
50 9
S core
ĠG rid
ĉĉ Ġ
ĠF O
ĠPol ice
ĠR ule
Ġ$< $
Ġscal ars
Al pha
Hash Map
] ),
ĠSt an
Ġ\ ;\
Ġgra v
ĠA ff
Ġdown stream
i pated
sql ite
I p
S ig
ĠK EY
Ġres taur
Inst all
Ġm illi
r g
Ġare n
13 8
hi bit
Ġaccept ance
Re lative
Ġtunnel ing
int roduction
S n
Ġhost s
Ġpay ment
ĠCon dition
\, (
cccc cccc
Ġs quee
Ġ+ (
Ġtal king
19 64
Ġout going
Ġor ange
Ġsearch ing
Ġmes ons
ĠL icensed
Ġaddition ally
Ġcontext s
ĠLe vel
Ġstand ing
Com mit
Ġf idelity
ĠC luster
ĠM IT
Ġa id
ĠA U
qu al
se gment
S K
necess ary
Ch apter
mcite default
ĠHe ad
. ',
App lying
Ġaccep table
$ },
Ġvalu ed
asket ball
nes day
Ġsub tle
I mages
nav igation
Ġslow er
! "
0 25
Ġc le
des cribe
ost on
Ġhydro dynamic
ĠV e
ĠSh ould
ma king
\ }^
high er
L ang
M al
Ġparameter ized
Cont ract
B en
ular ity
corre lated
an es
Ġmanus cript
Ġ uri
parame tric
ad cast
ĠOp tim
Ġconcent rated
Ġcounter parts
Valid ate
Ġin tr
ĠPri vate
Serial ization
Ġfra g
Ġc ultural
Ġk ing
IN IT
\ (
Ġmer ging
Ġde partment
int on
Ġp t
40 4
y ou
Ġdecomp osed
Fe ed
Ġt d
ãĢ Ĥ
s outh
ĠT yp
si e
ula tes
pa ces
)) =\
ï ¿½
Al g
if er
R X
Ġt ube
or b
Ġcomp ressed
ĠPo incar
uff le
Ġh ero
19 65
Depend ency
ĠG auss
B ERT
i pp
d up
Ġfla re
Ġsched uled
Ġflo ating
ste ps
ĠJ es
Ġtrigger ed
] ->
ui ded
star s
ĠInitial ize
iv ot
di um
Ġev olved
ĠCon ference
exist ing
ĠLand au
Ġli ber
] ).
$ [
ha o
Ġy es
Ð° ÑĤ
Ġexperi enced
ĠS ty
O wner
ĠĠĠĠ čĊ
Ġdes irable
Ġref resh
Ġgener ative
Key word
Ġl ived
differ ential
Ġreser vo
Ġd oll
Ġde formations
up dated
Ġn ar
Fact or
Ġ urban
sh op
Ġupd ating
ĠC ard
ĠPro du
ĠH ad
ĠDe bug
DE D
ĠN L
Ġfra ct
ĠN LO
Ġvic inity
p ure
refer ences
Work er
^* $-
Ðµ ÑĢ
ĠB ad
R PC
$. \\
Ġpa in
Ġpost s
In struction
Ġvisual ization
Ġme dic
l is
Ġsched uling
C ent
Ġm unicip
eck er
Ġh air
ro tation
Ch anges
de legate
is ations
Ġregion al
Ġstream ing
Ġput ting
M pc
n od
Ġsub mit
âĢ ĺ
Ġcar rier
BU IL
mo tion
}^{ *}
rotate box
\ :
Ġso ph
Ġes cap
ĠA rea
Ġor acle
tab len
d in
Rec ently
ĠAss uming
14 3
LA Y
F ake
i ously
ĠIn d
d ere
ĠS Ne
ĉĉĉĉ ĉĉĉĉĉĉ
LO AD
\, ,\
e o
hi o
Ġc ro
Ġs ender
our ney
b h
Ġboot strap
W H
Ġpl anned
ĠUn fortunately
ĠB ox
ta tors
W allet
t ow
\ &
illisec onds
ĠR oute
(" #
Auth entication
cept or
Ġm ild
scal a
later al
J ust
L ines
max imum
Sh ader
| (
$. \
spect ra
})- (\
ĠG ro
th us
sp it
| .
Ġex ercise
: -
Ġpol ymer
Ġsen ior
Ġindu strial
ĠJ on
in ject
Data set
J ECT
ĠM ike
b k
p ragma
Q R
ĠU til
Ġre current
ile vel
ĠH O
Ġalbum s
or ov
D U
z c
IP S
look up
Ġin ject
pro vid
Ġpuls ar
Ġreal izations
Ġon going
amp ling
Ġsurv ival
Ġexclu sive
ber ts
aw ay
Ġcarry ing
P F
us form
E t
rou ter
Re view
' ].
match ing
ĠD CHECK
ĠChampion ship
Ġle ver
pro jection
) &=\
il st
Ġcondens ate
Comp ilation
numer usform
da ble
Y es
Ġs me
exp licit
Ġhund reds
ĠSch warz
v k
FN GL
j ack
;\;\ ;\;\
// !
vent ory
Ġent ering
ĠBu ilder
Ġcollection s
Ġc s
ble ms
Ġsti ck
ut y
get Type
tic ity
Ġre semble
mu la
Con v
box times
)\ }$
conver ted
Ġhigh lighted
S an
ĠB and
me ans
ĠC HE
b idden
us sian
var kappa
14 2
AT URE
Ġgradu ally
Ġcon fined
Ġ< \
row e
A H
f w
dot sc
yl ind
defin ite
han ded
P t
ĠI sing
ĠS ystems
ĠE U
Array List
ĠAnd rew
Ġo x
Ġsuper symmetry
} &=
Ġdiff iculties
Ġinstr uments
now ledge
who se
ĠB asic
) &=&
Ġm im
b rane
Ġlogarith m
ref resh
Error Code
rid es
Ġro uting
Ġmark ets
ĠP HP
ĠAdd ress
[ $\
Ġtri es
ĠR G
Ar ch
ï¼ Į
Ġiden tically
| |\
Ġb rackets
numer ical
M W
Ġreg ret
) &\
R P
al o
T ick
Ġval ence
ĠLi ber
": "
}\ }_{
it ro
Match er
Ġrob ots
sh are
de m
de mo
Ġbi ased
Exp ect
c O
Ġimp lying
Ġch rome
R ank
get Attribute
Ġan imals
ĠF A
W ell
bu cket
ame d
pp ler
gener ation
ĠA wards
Ġ} ).
l ig
Ġa perture
? ?
v n
out ing
exp lo
enc il
U Int
Ġdifferent ly
Deta il
Ġdetect ing
ĠRic ci
Ġfre ely
T ry
H AND
T s
Ġconstruction s
le tion
K er
} ',
des criptor
ĠBol tzmann
h w
' =\
ub s
+\ !
P ipeline
spa tial
ĠN ormal
Ġbi ological
C UR
å ®
Ġmag ic
par ticular
ĠOb serve
B us
de code
c ub
ĠL com
ang les
Ġremo ves
Ġtim er
spec ified
N M
oriz on
Pri mary
Ġnotic ed
umino sities
Test ing
eter min
B ur
Ġcommu te
Ġgrate ful
T ake
Sec onds
ab in
Ġmon op
g ro
view port
ĠD ie
Ġspher es
Ġne ga
15 2
Ġincorpor ated
Ġcons texpr
Ġresid ents
ĠN ight
i u
ĠP ra
}) )$
Ġmembers hip
Ġpe ace
get Message
ong o
Ġh a
Ġoverla pping
ĠC amb
Graph ics
Ġgeome tries
Ġth orough
ĠModel s
is Array
ĠSpa in
ref lect
ĠBri tain
ta ken
Ġde mo
no tify
Ġsub strate
Ġ ðŁ
Ġ& $\
Ð ·
Ġsh aded
to grams
k r
Ġimplement ing
Ġro utes
abs olute
ĠG alaxy
oo st
Ġcl s
ĠCarol ina
st als
Ġex terior
T opic
consist ency
. -
P ush
Ġa str
le af
mt x
ĠM B
ĠIn v
ĠWIT HOUT
y si
ĠJack son
N ONE
g c
int rodu
sp ot
}) _{\
C annot
__ ["
to LowerCase
ok es
- )
ĠLog ger
min im
RE S
ĠS outhern
i pe
K P
Ġp unct
Ġmer gers
un a
å Ĳ
w ind
pher es
allow ed
ĠLat in
Ġepis odes
ĠN AV
C he
Ġelectr ical
Ġaug mented
ting ale
Ġin complete
tt en
experim ents
ĠĠĠĠĠĠĠĠ ĠĠĊ
Ġno table
Ġformula e
c assandra
ĠMax well
ĠB at
Cal endar
ĉ ĠĠĠĠĠĠĠĠĠĠĠĠ
Ġsp end
Ġelse where
ĠÐ ¸
ĠEn c
Ġf ellow
ĠImp ort
Ġachi ev
R D
c H
ĠAlex ander
}( [
work s
ble s
99 9
Ġre gex
ĠI F
Ġoffic er
ĠT arget
Ġcol on
}\ }
tract ing
bal anced
}) (\
end ant
Ġsc oped
ĠSp orts
ter rit
c L
est ure
R N
ĠP as
Ġimp er
rt l
fil ld
00 6
13 1
Ġacqu isition
var nothing
)] \
Ù Ĩ
id ay
ĠEn able
ĠE P
Ġlo cale
ĠSer ial
ĠSt udies
}' \
ĠNAS A
ĠT ABLE
Pers istent
V I
filld raw
decomp osition
Ġpredic ting
B et
ĠN ative
Ġcri me
ĠUn less
~ ,
Ġal ert
ĠT raining
Ġhand les
aver aged
ĠNor thern
Ġas sets
____ ____
ĠM inkowski
Ġaccording ly
el li
Ġencounter ed
sh aped
M ust
Ġachie ving
vis or
Ġstr ange
Ġplace ment
Ġt a
i per
Ġpla u
Ġfun ctors
C laim
CC ESS
q w
Ġpiec ewise
Ġpromo te
ir r
He alth
Cer tificate
ext ends
O k
Ġmulti variate
Mon itor
ĠSum mer
Ġch rom
ĠSo bolev
coordin ates
tool tip
Ġrelax ed
Le f
R atio
Ġex ceptions
Ġ[ {
Ali as
ĠCorpor ation
00 7
S ha
imp ro
)$ \
ĠPr ince
brid ge
O cc
Ġf riction
k ine
c lassif
] }(
i tage
con ditional
37 8
ent ang
ynchron ous
S ide
Conn ector
ĠBra zil
m kern
Ġaltern ating
Ġ' ,
Ġro tations
Ġadvers ary
FOR MAT
gle w
ev in
ĠM W
Ġax ion
ĠLa bel
H ook
Ġp our
ni k
ni pp
[ -\
Ġap ilevel
w ere
Ġco oper
2 60
f ib
Ġ& +
Ġcommun ications
manif olds
ĠL ater
run ning
Ġunder go
end point
off s
ul f
clu ding
ĠR el
re verse
Ġtemp orary
] &
ĠE W
re po
Ġdomin ate
_ +\
Ġemplo ying
ĠE D
Ġ& &\
sp irit
66 66
ĠS cal
Ġarri ved
Ġclo sing
Ġsucces sive
ĠC IFAR
Ġen for
Ġa ster
Ġma ppings
Ġcer tificate
Ġv en
Ġw ww
ĠI tem
)} ;
ĠF ootball
ĠLeg end
l ds
Ġcap tion
ĠF i
ves tig
ĠS USY
Ġcomp ile
con current
Ġexpan sions
20 2
LE MENT
ĠS everal
om ics
cap ture
ĠS ample
ĠC lear
C ity
Ä ±
Ġon set
ong s
th ird
Ġapp ointed
Ġfore ground
co herence
Ġ\ >
ĠN ash
ĠD a
ĠUn like
"> (
ĠL as
16 4
Ġg oto
Ġfacili tate
get Class
H ave
Ġgran ted
ĠM as
Ġoffer ing
Ġse mis
Ġcla use
] -
Ġlist ing
0 11
Ġgeome trical
Ġse at
M AC
c ube
es tab
ion ization
ĠStr ucture
sub script
Ġcor pus
pair s
c les
CH AN
ĠChrist mas
ĠĠĠĠĠĠĠĠĠĠĠĠĠĠĠĠ ĠĠĠĠĊ
-------- --
Cont inu
Ġrest ore
S cheme
Ġr is
Ġdwar fs
ĠF o
ĠF la
Ġch ief
Ġpos ted
Ġf inger
ĠF ort
co h
Bu cket
ver tices
p ing
/ ">
Ġbo y
Ġfa int
A ug
Ġidentif ies
ĠJo e
ĠH art
\ ":
Ġle verage
Re pe
n k
Ġclassif iers
Ġtra pped
S lice
Ġli braries
new page
Ġoper ational
c ue
Ġcommu tes
fra gment
IN DEX
ĠQu antum
writ ing
Ġparametr ization
Mark er
Ġcom mission
ĠM ove
x e
Ð¾Ð »
h or
y z
r q
Ġ/ \
C reated
ĠB ru
Li u
ĠR est
analy tic
Ġerg odic
ĠL ib
i pping
Ġent ers
Ġfla sh
f lo
g m
g if
umn i
y ellow
ĠPro duct
}\| _
\, $\
An gle
Ġreport ing
ak ed
I o
M LE
ĠN atural
ĠK im
Ġv essel
ĠFe ynman
h our
p red
u sive
Ġcon sum
ĉĉĉĉĉĉĉĉ ĉĉĉ
She et
g lob
w ould
ir y
in her
Ġcomp ares
H er
h size
Ġas set
ĠJ son
Ġdimension ality
ĠT F
Ġmo bility
f ine
Ġsynchron ized
ĠPro perties
ĠCol umb
E valuation
Ġcod imension
M EM
20 8
Ex it
ĠSt ore
Ġcontamin ation
b w
Ġuni versity
Ġgu id
ĠA DC
M i
Ġofficial s
Ġhund red
12 34
AT CH
R ic
19 66
ĠT ry
Ġconclu ded
rowe ak
ĠName ly
territ ory
Des pite
h c
ens en
ĠB ud
C tx
Ġo u
ag ers
Ġto urn
def aults
ific ant
ar o
Ġsc ored
ur ious
ĠE m
)] $
33 3
and o
ĠK IND
run ner
AR B
Ġdist ant
( ()
ann a
ĠG reek
b ers
date time
M Hz
~~~~~~~~ ~~~~~~~~
M or
B ACK
pher ical
Ġrelig ious
H amiltonian
ĠE sti
mu tex
star ts
Ġabs ent
Ġd ic
ch est
Sur face
We ak
Control s
ĠD al
Ġemer ging
ĠY ukawa
Ġprogram me
ext ended
Ġsub traction
Ġspe aker
u z
Ġe labor
Ġwrit ers
al ong
Ġtun ed
Ġinvestig ations
ĠP ak
dis tributed
De precated
ĠM pc
Ġis ometry
c S
t ory
St ub
Ġpass age
Ġorbit als
or ial
chro tron
ĠC FT
process or
Mer ge
Ġutil s
Pix el
use t
incre asing
G ER
Ġkine matics
Ġsee med
ee a
Ġpers istent
×ķ ×
N GC
cur ves
He ad
Ġdeliver ed
Be en
amer as
tis tic
attr s
Ġ& #
Ġadmin istration
Ġequiv ariant
com ments
des cribed
Ġyour self
Ġdep ic
ĠL S
SH A
uck y
ĠV i
^{ '
EN V
ans as
ian a
t ang
ĠEngine ering
00 8
Re act
] )$
Î ¹
Ġdec lare
Ġpoint wise
Ġlear ns
Ġgain ed
M r
Î µ
Ġrecogn ize
,- .
ĠH om
G ui
h m
Ġacade mic
vi ve
imple mentation
Ġch aotic
Ġint uition
forma tive
Ġmacro scopic
ĠLe besgue
ĠMin istry
u ce
Re place
$ ^{+
To ols
_ [
ĠRec ently
ĠTe le
ĠA sh
sl ider
pro vided
ult y
V T
ent ries
mark s
it ched
Ġattack er
ay a
Ġen em
ĠM N
re co
sub string
ĠHe isenberg
ST ART
Ġplan ts
No tes
ĠSec tions
Ġch air
Par ts
Eng lish
j q
r w
Ġcross es
adj ust
Through out
Ġsp ort
D MA
ĠFrancis co
var s
ĠRec ord
h ex
mon ot
Ġc ros
}, \,
Ġv acc
L iving
Lef trightarrow
Ġan onymous
Ġnone mpty
< -
Ġacceler ated
lim inf
Ġfunction als
Ġoccup ation
Ġconf usion
v d
Ġshock s
ĠD P
ĠG O
Ġg it
Ġ' $
13 9
Ġhead s
20 4
b ard
Ġinst anti
Ġfra gments
ĠArg ument
date picker
il ly
) }}{\
Ġsuscepti bility
Link ed
Pre v
Ġa warded
quo ted
Ġz oom
ĠF ALSE
ĠS A
IN VALID
Lo ading
ĠD L
s ass
U pd
Ġ utter
15 4
ar chive
[-> ]
o ved
ĠT EST
k ra
mark er
P ending
Ġdete ctions
T ile
| ^{-
Ġarrange ment
eff ects
ĠNo thing
ĠL ive
ĠJaco bian
In tegra
Ġver sa
oun ce
App ly
}) }$
ipher al
ĠP ers
Ġd ates
ĠTh ose
ces sion
ĠC ivil
ress ing
Dec oder
ĠW IDTH
ock ey
Ġqu ench
Û Į
Ġrandom ized
Plan ck
V R
sen sitive
__ .
}| ^{
it ten
G ood
ction al
mis sing
> =
Ġinstant aneous
ro gate
deriv ative
Ġinter ests
BL IC
ma zing
> {
Ġ" #
rr rr
Ġcomp iled
3 30
se conds
ĠF isher
Ġt argeted
Ġe pi
Ġcalc ulus
Ġf ibration
ĠValid ate
Ġemploy ees
ĠDan iel
] ^-
yl van
K B
as m
Ġcom mitted
< >();
Ġener ge
el ly
Ġf lip
_{ |\
si zing
sp ark
O W
Spec ifically
$ |
S ci
Ġinter rupt
Ġim mun
Ġapparent ly
L IB
Ġd il
ad or
& +\
Ġpro gen
Ġattr s
Object Meta
Ġprac tices
H am
S mall
Ġop ens
le ad
File Path
Ġconj unction
get String
cell s
atern ion
F etch
Ġdecre ased
ĠM ah
Ġindu ctive
block s
ĠH or
Ġ# {
em ission
ĠMem ory
de z
aw iki
Ġf ly
ĠR T
Ġmy self
16 9
ĠPh ot
Ġreli ability
ĠT uesday
y i
Ġfun ds
V e
Ġpar sing
Ġa ds
x z
ĠMe mber
Ġextra po
ĠW atch
medi awiki
Ġst roke
ĠF ac
ferm ion
Ġflexi bility
Ġbeh ave
ĠH z
ĠU AV
Ġrender ed
ori ented
ĠÂ »
Ġlead ership
Code c
Re lation
ph e
head ing
(" \
Ġun supervised
]{ $\
P B
S ing
c M
ĠL im
Ġden ominator
Format ter
Ġconj u
scatter ing
- {
ag ger
s gn
Ġabsor bed
Ġfe e
if i
Ġjoin ing
U K
esti mated
cp u
T ube
Ġre new
Ġpres cription
Ġmon oton
ĠT ensor
ro se
par ity
Ġpri ors
Ġinte lligence
ĠI gn
Ġb ow
Ġc aught
ĠTh ursday
L y
Ġf und
Ġfrequ ent
Ġpas sive
anc ies
Ġt rouble
ĠT one
Ġpo et
( []
//////////////////////////////// ////////////////////////////////
DE C
Ġinsp ection
29 4
Ġlabor atory
}} }_
Ġno tification
H W
Ġresid ue
pg f
. ")
redu ce
a os
rom an
po on
Ġsol di
d jango
Ġc u
m ount
Block ly
æ ĸ
is tically
Ex ecute
dere q
/ (\
tic a
Ġad vent
ĠPol i
Ġmorph ology
ĠR ender
ĠI rish
as ymp
a gain
over flow
ĠF C
ĠS ite
in vert
remove Class
Ġl uminosities
Ġuser name
Down load
Ġ&= &\
re ach
lock ed
Ġw rapped
mer ce
B ri
)= (\
hed ron
Ġastro physical
Co ordin
oc aml
ĠExt ension
Or gan
L and
big wedge
Ġconduct ance
ĠL R
Ġ\| _
/ {\
LO C
ĠCons titu
ĠL arge
Ġinflu enced
ĠProf essor
24 5
Ġgu y
ĠCon ver
' )$.
den sed
Ġfav our
pip eline
lic as
gra ined
ĠR R
avi er
{ })
Pe er
Ġl ic
Ġbas ically
Oper ations
w u
ĠCHE CK
Ġcook ies
) ^{(
iz z
ĠW ang
0000 000
pr ice
Ġc ylind
Ġsing er
Supp ress
Ġm and
q i
), $$
Ġint ent
b j
Sc ene
Ġnew spa
Ġb ill
ĠS em
ĠP acific
Ġ(! (
U int
C ri
ĠÐ ´
aa aa
j ournals
ĠS mall
exp onential
c ached
reg istry
Ġbi ases
ĠJew ish
Ġad vice
Ġacc ordance
state ment
Ġra in
Ġcoun ty
Pro totype
ĠData base
Ġwould n
book s
âĢ ¢
b ury
rep ository
ĠD FT
b end
ĠO x
2 13
ĠOper ation
be ing
Ġmut ually
OR K
/ ******/
}$ }\
Ġjump s
= &\
secre t
" }
l f
Ġadv oc
In to
ĠH ub
Ġcontribut ing
ĠH es
hy dro
Lo aded
Ġdou bt
Ġcontradic ts
Ġh ull
til lation
integra tion
Ġsuper position
Ġsus tain
ĠCo ast
ĠR h
Ġtheore tically
F ill
For ce
Ġ" >
Table s
ĠT urn
od ers
Ġauth entic
Ġt iny
å ħ
ĠTe lescope
WA RE
mo bile
ann on
Ġachiev able
ĠB lu
Character Offset
P ic
Q C
Ġho pping
ĠAt tribute
T ilde
Ġc c
di ver
to Equal
SS ION
Ġd ash
Col l
Ġ _\
Ġnormal ize
Ġwal ks
o tes
Ġcur ved
Ġ\ [\
, {
c ra
Ġvis cous
c D
ĠTh ird
Ġsoph istic
inclu des
Ġir relevant
I so
| +
clo sure
Ġcon gru
Ġhon est
d ynamical
Ġ( %
po si
ĠTR UE
ll l
Ġfaith ful
M ich
vi et
Ġti ck
Ġdiagnos tic
14 8
ĠB oston
ĠNS String
compu ted
Ġ{ %
Ġ} }\
Ġretrie ved
Ph oto
ch ap
o pp
b urn
ĠDeta ils
Ġlemma s
Pos ted
Ġde code
ĠF air
ap os
c G
ĠB l
}- {\
channel s
tif ies
Ġ Ã©
er en
ĠM aster
k ers
Ġsuff ix
20 5
IM E
Ġp ip
Ġf lush
{ };
li a
}\ }$.
ĠFe b
Ġreg istry
render er
Ġ* ,
ĠSt ra
ĠĠĠĠĠĠĠĠĠĠĠĠĠĠĠĠĠĠĠĠĠĠĠĠĠĠĠĠĠĠĠĠ ĠĠĠĠĠĠĠĠĠ
ti ous
ĠNAV BAR
Ret ry
Ġinher ited
lec ular
ta c
g f
Ġt um
ĠC oh
Ġme ets
Ġsyste matically
ĠP E
Ġr u
Ġk id
Ġt s
o ving
simu lation
Ġan cient
ĠF ixed
Ġ- (
ĠSa int
\ })
A J
L ab
S rc
add EventListener
e h
ĠOp tions
b ach
c lassification
Ġin jected
ĠN ull
Ġput s
ĠT al
RE AM
ĠA F
Ġprox imity
ĠB ound
18 5
tif ying
Ġdiffe omorphism
}, {
Ġheter ogeneous
ĠK illing
Ġb attery
od rom
ĠRet rie
char ts
ĠL ang
Ġop tically
, ~\
Ġdri vers
experim ental
cal es
ma trices
}_{ [
LO B
Ġproton s
ĠObserv able
ĠApp lying
itor ies
ic ing
Ġgen u
=" $
oding er
ĠAl low
ĠP SF
ĠH an
add plot
Ġwin ds
Ġsti ff
Par tial
ĠR ange
ph on
ĠP ay
r pc
link ed
bur gh
pay load
Ġm ess
- (\
". /
Ġs i
ĠA ri
Ġinclu sive
Ġsc oring
Ġir re
\ >
med y
Ġto wer
ylvan ia
ĠAuth or
D im
| >
te le
** *
ĠPh ase
Ġinfinite simal
slash ed
A verage
Ġh em
Ġex emp
ion e
T B
pa tive
Ġcell ular
K R
fail ure
pp ers
O ri
H ard
Ġra m
Ġfix es
Sa fe
Ġspec ifying
S PE
ĠA V
all enge
au er
Î ½
pi ent
Ġexp r
}^* \
Ġcatalog ue
ĠJ ustice
l k
ĠWed nesday
la test
Ġfall ing
Ġw a
H A
he at
Ġmain taining
. ');
ino is
Ġrela ting
CO UNT
log o
Ġpoly tope
Dis abled
second ary
ĠJaco bi
che matic
temp oral
grad ation
Ġdist inction
19 63
Ġhel icity
="../../../../../../ ../
diff usion
ĠDig ital
re dsh
Ġtrac ing
Ġimp urity
dist ingu
ĠU L
ch rome
ĠR og
Ġre mn
ĠAn aly
Ġfun ded
Ġinstitu tions
depend encies
14 6
enti ment
der ived
ĠClass es
Ġhar der
ĠC ro
Track er
w en
OR S
15 9
Ġp ec
Ġrecur sion
ĠK n
Ġlist en
y ang
ĠW ild
riter ion
Ġdecomp ose
In stead
ĠCon struct
ĠSpr ing
Dis tribution
In line
Ġob jectives
ĠY et
br and
0 12
Ġ$ >
Ġ" _
redu ction
ĠR en
Ġla s
Ġch amber
Ġmultip lied
-------------------------------- ----------------
f air
x ff
Ġre venue
ĠH I
ĠK err
^* _{\
Tra its
ĠP anel
ĠS up
Ġconver gent
AB ILITY
MM ARY
general ized
pro vide
ĠIn tel
mu x
s ay
ch anging
Ġpick ed
P ACE
)} -\
Sched uler
ĠFed eral
ĠG AN
ĠÐ º
ĠJ ob
effici ents
Am ount
Ġsex ual
Ġan tis
Class Name
Ġreason ably
Ġis omorphisms
Ch ris
ĠBro ok
' _\
ĠB AS
BY TE
â Ķ
= ~
ori entation
Ġfid ucial
Ġcancellation Token
Ġ/** <
] },
Ġemp has
initial ize
su it
0 30
C ost
ul um
eps fig
mach ine
Ġcitiz ens
re call
Ġfib re
Ġd B
23 5
}{! }{
w ich
Ġw estern
ec ke
ĠMus lim
ĠRe v
if ford
Ġfila ment
w i
place holder
P ane
Ġfair ness
P en
}' _
Ġfavor ite
n z
al though
O B
ex ecution
Ġconvers ation
Ġpoli tics
Mod ifier
ch et
Ref lection
ĠL ook
e ither
ah n
Ġspont aneous
Ġtrans lations
) })\
Ġrig orous
M g
19 62
Gamma c
Ġlabel ing
ĠWith in
Ġtermin ology
Ġun ified
Ġdefinite ly
Ġattemp ted
ta kes
}+ (
nice frac
W ave
ir ically
sd k
ĠF M
di ble
Ġenc ryption
ĠD ifferent
M icro
Ġact ors
, +\
hi er
reat er
' }(\
Ġcol le
id ers
Ġall Classes
Ġsub mitted
Ġconjug ation
Ser vlet
bul k
Ġs ounds
? (
ar Xiv
ad apter
Ġoffic ers
P erson
ĠOn line
m ut
Ġatt end
Com mun
Ġpropos als
Ġoptim ality
u racy
Ġhyper surface
Ñ Ĩ
ĠB L
Ġ ly
istic s
ĠI SM
Comple tion
b z
Ġparad igm
Ġor bif
lish er
Ġoff line
Ġrela tes
ĠĠĠĠĠĠĠĠĠĠĠĠĠĠĠĠĠĠĠĠĠĠĠĠĠĠĠĠĠĠĠĠ ĠĠĠĠĠĠĠĠĠĠĠĠĠĠĠĠĠĠĠ
Ġauthor ity
Ġmin ing
yn olds
Ġazimuth al
Ġsw ap
ĠLy apunov
Ġaver ages
ĠÃ ł
Ã ¢
v ct
oc abul
Ġdeploy ed
h dots
u f
Ġbul ge
w alk
}} )$.
omes tic
{$ {\
Ġmat ters
C lean
Rece ived
th al
oul li
ĠT YPE
divid ually
Ear ly
se g
ĠT y
h op
define Property
tab colsep
)= {\
ph an
type param
, [
Ġstudi o
mes h
Ġlong est
array stretch
ti d
n x
c od
ĠB as
Ġwal king
Dep loyment
ĠM Hz
Access or
15 7
ĠallClasses Link
col og
re cor
}\ ;\
123 45
Ġsw im
ĠThe atre
ĠFro benius
Fra mes
}) \,
Ġcont in
sto chastic
Mix in
Ñ ħ
> `
Ġs now
Ġcombin es
Ġpoly gon
Ġindex es
Ġ. =
Dest roy
}$ \,
ĠBe ach
{ ,
ĠL inear
Ġpropag ating
ĠK epler
th ew
Ġbifur cation
M ASK
Ġp ictures
stro ke
Ġb rown
ĠN avy
asi bility
Ġcont ro
j ump
se man
ĠSt udy
ĠAn derson
ĠJer sey
or ters
ĠPr int
s leep
break ing
ĠR S
ad ditional
Ġp s
En tries
Ġviol ence
c ision
ce ived
ĠPa per
Ġdeb ate
Mar gin
ar ab
M esh
asp ect
R ich
no ck
Ġmultip lier
J s
Ġ" )
Ġsequ el
ĠDi agnostic
M n
om m
Ass er
Ġcircum stances
B K
comp atible
Ġjud ge
B ul
Ġ' ')
IE W
st udy
B lue
}+ {\
ĠE r
ĠB ang
on line
pi pe
* [
14 9
ordi al
Ġbeh aves
ĠObserv atory
Ġch ip
Ġsugges tions
ĠVAL IGN
ĠH ausdorff
2 11
bu la
super script
Ġrepresen ta
uni versal
us age
ac r
Ġ lambda
S ys
2 32
ime ter
cover ed
EN C
IC ATION
0 22
u j
gr pc
Ġspeed s
Ġin homogeneous
Ġd ry
B LOCK
s warm
Ġlo gin
Sta ge
Ġsh ut
Ġsub stituting
og on
Block s
Ġcontroll ing
Ġc ascade
Ġma gazine
ĠV AR
Ġ ig
Ġmo vies
function al
Ġeccentric ity
Ù ħ
Ġdevelop ments
Ġc ss
ud ge
Re gex
IT LE
Ġun e
ari ate
Ġauto mated
R ay
Ġna ive
Ġinter net
Ġmis sed
Ã ±
ĠJ r
ser ving
^- _
lst listing
En code
Ġco vari
i h
Ġmis s
ĠP ur
Ġalong side
L ee
n h
Ġan imal
ĠDate Time
Ġ( #
ra mid
l inux
Ġind ent
ĠÂ ©
W il
se ed
Rad ius
um ented
Ġfeel ing
P adding
ĠC oll
Ġlo sing
ĠSte ve
}\, {\
^- (
Ġt ur
pe g
D TD
t cp
W ARN
c table
ga ble
Mod ules
lar ger
ĠU SE
ĠG it
' )}
Ġacc ounting
Ġco al
ĠD ictionary
Ġrep ly
Ġyou th
Ġcomp ound
ME SS
do i
Ġexplo sion
ch apter
inter acting
Ġcol span
ĠSen ate
}} &
x c
ĠS ession
ĠTh ough
ĠO hio
B W
15 00
ĠIllegal ArgumentException
PI O
Ġsynchron ization
Th reshold
Ġde formed
am an
C apa
ph oto
Ġs ale
Ġde als
Ġparametr ized
ĠI ra
Ġfit ness
ĠF low
ĠH R
: $
ĠC ache
Ġshe aves
aut y
Ġhelp ing
Ġas king
Ġsol iton
) }_\
pos sibly
38 4
ĠS K
Ġac id
Ġlistener s
ma de
ĠQue en
W rap
Ġher self
ĠC ount
Ġadd r
f its
C are
: %
Ġpurch ase
Ġquadra ture
pre vent
! âĢĿ
ro b
Ġwin ner
c ot
ĠK al
17 6
Ġcontribu ted
Ġpi lot
Ġquo ted
Z oom
Ġf lex
ĠF a
ĠW at
N UM
() [
Ġphenomen ological
Ġexplan ations
Ġnil potent
}{ @{}
ymme tries
Ġtor ic
mar shal
Reg istration
Ġrecommend ation
Ġsched uler
Uni que
Pop up
C ov
M AN
}) )\
Ġlo ose
Ġsto ps
L AB
Ġintersect s
Ġs lices
Ġdiv iding
Ac cept
un its
Ġc ere
mm ar
read only
Ġt ub
/ )
ag onal
input s
b ranes
H iggs
Ġcross over
15 6
ven ted
V o
Ġc ameras
ä º
ent ally
Ġa ria
Ġw ins
ĠOrigin al
ns ylvania
con figure
G RO
value Of
ĠS tation
O H
Ġt y
ĠA stro
theore tic
ĠT ro
Ġp lastic
normal size
Ġr hs
we ights
le igh
ber ger
vec tive
Ġal i
ach el
Ġsmooth ness
domin ated
N AMES
x u
Ġmon oidal
2 64
Ġpropag ate
n oc
con ven
Ġw elcome
ĠCon sole
Ġm ental
ret val
Ġbro ader
ĠFe ature
Ġev olves
jec ta
en table
Ġbusiness es
ber n
Data Type
ug u
Ġintui tive
L STM
ĠB attle
phi a
Ġreprodu ced
fin itions
Ġharmon y
Ġteach ing
ĠDemoc ratic
Ġd ance
dete ction
S ender
ĠM E
follow s
Ġf ruit
ä ½
Con s
In cre
arg v
Ġpri mes
Ġv ictory
L im
FA IL
Ġqu iet
Gener ate
equival ence
Ġs lide
in ery
Ġrepeated ly
Ġinten sities
k b
19 40
Cred entials
pro ton
ĠF I
Ġeigen functions
Ġhous ing
Ġre vision
gin es
ours es
Ġown ers
Ġexplor ing
Ġneur on
Sh adow
OBJ ECT
umin ous
Ġen abling
}' (
è ¯
ĠB P
Ad ditional
te ll
ĠMe asure
S can
Ġcrow d
ĠFor mat
REQ UEST
hel lo
;\;\ ;
Ġ\! \
Ġfeat uring
C W
h uman
Ġ ^\
}_ *
Ġrank ed
Ġweight ing
ac l
ĠSet ting
15 8
we ek
ĠB in
Ġcalib rated
FUN CTION
Up dated
m or
/ #
E mp
Ġknow ing
ĠDe vice
* >(
*}[ !
Ġoff sets
Bit map
Ġf at
ĠT otal
sub str
ĠD S
PR L
/ [
ĠS on
unc er
Ġelect roweak
ĠH odge
Ġre try
form ally
t in
ly wood
Ġprint f
P atch
N ER
Ġf ron
ta sy
ĠTh anks
Ġsub stitute
Ġtoler ance
Ass uming
Ġlept ons
N ON
Sub scription
t re
Ġb onds
Ġl l
Ġaff ili
Ġto String
! \!
id al
gre gated
B on
16 7
AR CH
AS P
{\ ,
Ġprote ins
Ġaltern ate
enn is
accu racy
abe th
ĠPer formance
amplit ude
~ .
Ġob sc
ĠR NN
Ġdemand s
Ġ{ *}
ĠGeorg ia
erial ize
cd n
Ġpec uli
mag ne
C ookie
C AP
oo king
). \]
Ġ$ {{\
ĠB ERT
Ġpart ly
ĠPol y
L V
Ġproceed s
vid ence
ĠB ooks
AB C
ĠMich igan
Ġsub system
tab ilities
Ġmodel led
ne ed
Origin al
Ġla g
Ġden oting
Ġanno tated
Ġar chive
Ġf estival
Meta Data
Ġc ensus
ĠT ests
po les
)=\ {
Ġcon current
Ġkn ots
open api
ag greg
lo s
Z end
s olutions
7 50
ĠA WS
ĠPh ilipp
Ġh aven
Ġsub scri
Ġpron ounced
q p
L ite
Ġsp ons
Ä ĩ
P ref
Y S
il arities
}. \\
Ġ$ *
Ð¾ ÑĢ
And roid
ĠEd itor
Ġestablish ing
alax ies
Ġis instance
ĠT oken
Ġcylind rical
b id
H K
{ ``
go al
Ġci pher
Rece ive
Ġmin ister
}& =\
// ----------------------------------------------------------------
ĠConst ant
ĠM achine
Imple mentation
}{ {
Ġinter active
ĠJava Script
Ġinj ury
Ġyoun ger
ĠB or
ĠF inal
Re pres
Ġg reedy
x a
Vis itor
Ġsophistic ated
Ġbl ur
ĠKore a
Ġens uring
] *
ĠGib bs
Ġconstit ute
c E
if est
Ġquas ars
Al ign
Ġarm y
Ġartifact s
Ġevalu ations
Ġscienti sts
ĠGal ois
o ma
ĠSub section
Ġsatell ites
Ġ$ }
ĠF ast
af ka
Ġcl arity
Hel lo
Ġconcent rations
ad v
We ek
Y our
Ġrecur sively
Qu antum
Ä ģ
New s
Ġemission s
ech an
23 4
g ger
Ġuint ptr
ĠH al
appro ach
Ġgeodes ics
b at
q r
Exp licit
Ġappropri ately
Ġhel ium
æ ķ
19 30
Ä į
ges tion
P an
h on
LE V
small er
Ġf ired
16 6
C ulture
C trl
cook ie
ĠA ni
M X
ic z
ĠSet up
Ġinv olution
ĠGener ate
---- ---
vi tation
ĠCon tainer
pp le
os phere
Ġf ell
ex change
ew is
he v
press ure
19 61
Ġrela tivity
S printf
ĠP osition
Ġoptim um
Ġacc ident
Ġra ting
D X
Ġdelay ed
\ }}\
be en
ĠL ock
ĠIn te
3 75
Ġres olutions
ru gs
Ġv ec
'' \
{- }\
ĠX ml
Ġpo oling
Ġdie lectric
Ġmul tic
R IGHT
Ġ) ^
Ġin nov
MS G
Ġs igma
Ġcent roid
Comp ute
ĠD ra
Ġv ibration
Ġth r
ile y
IM O
c amera
j m
() ]
Mar shal
out line
S lot
De fined
o ph
ap or
C apacity
ĠH un
Ġtemp or
Ġwatch ing
19 45
}] $.
S everal
Ġw inter
Ġin dividually
Pay load
ĠS ir
Ġt une
n able
Ġbuil ds
NG TH
ĠD ub
Ġcook ie
S FR
Ġprovid ers
Ġco q
14 1
Ġoper ates
E v
ĠF T
Ġaccompan ied
Ġdis app
22 2
ĠF ellow
J aco
ĠR u
File System
Ġtack le
vary ing
const ants
ĠOb ama
th ur
Ġvor tices
ĠEx ecu
Ġannoun ce
Ġd ump
ĠA sian
})$ -
Ġjus tified
30 4
Ġf rust
Ġde x
Gate way
xi ma
Comp onents
sub scribe
ĠS equ
L B
Ġwh eel
Ġsub scription
ĠIo T
Ï ĥ
ĠR od
Ġvalu ation
G i
11 11
> }
Z ip
ĠT E
Ġtra ding
> .</
Ġinstrument al
×Ļ ×
Ġreview ed
ach uset
19 20
ro tt
ren ces
An chor
eman tic
W F
Reg ular
V P
ĠC EO
utor ial
Ġadjac ency
He ap
li bs
ren e
tr unc
achuset ts
Ġ' [
ĠT OP
Ġcoup les
rom o
}) ^\
`, `
Ġmark eting
row ave
] ['
p v
Ġb unch
Ġh i
Cal led
ĠL java
E instein
to o
Ġs ed
ĠTran sition
ĠS ho
iv ariate
Ġlinear ized
Ġanomal ies
no tes
tag on
al one
Ġbring ing
Ġcut ting
Ġqu iver
Ġgu ard
Ġima gine
ĠF red
n umbers
Ġimpact s
indic ator
ĠCon jecture
d S
ysh ift
C amera
align ment
Ġimportant ly
Ġprefer ences
Ġra dical
th a
ĠD I
Ġfra gmentation
i ration
OPT ION
stream ing
w avelength
h ist
Ġse asons
ĠR ub
MA IN
3 45
ĠF ood
del im
Ġcry stals
ra ph
irrep bar
Ġne goti
Po isson
* }{
ĠW all
qu anti
. ''
M ount
ocabul ary
Ġsymbol ic
mp ed
Ġhar m
Q t
ĠS till
Ġc up
ĠC ooper
Ġr c
serv let
j am
ĠSU MMARY
ĠCON DITION
}[ {\
ĠMed ic
show s
ens tein
vio let
m icrosoft
Ġsimple x
Ġdedu ced
Ġun biased
button Element
Ġplau sible
H aving
Ġobe y
Ġsat urated
Ġhighlight s
c g
text subscript
}. \]
Ġqu ote
Ġho spit
Ġtimes cales
z el
Ġmar riage
B ag
Ġpers ons
az ure
V s
ĠR H
az y
Ġconf inement
Ġbenchmark s
K a
Ġtor que
per cent
ĠW H
ĠĠĠĠĠĠĠĠĠĠĠĠĠĠĠĠĠĠĠĠĠĠĠĠĠĠĠĠĠĠĠĠ ĠĠĠĠĠĠĠĠĠĠ
ĠComp ton
Ġte x
ĠVis ual
or ig
mu lation
Sign al
ĠD rag
ĠW D
Ġpoor ly
Ġw ra
Ġcon verse
Su ite
Bbb k
Ġf l
U AL
ĠDo es
: &
strate gy
W est
F LO
6 37
Ġhyper plane
ĠM g
M illis
}| _{
ft en
Ġsepar ating
hel pers
C over
s al
ma tr
w so
Ġc fg
Ġ( ``
um ar
Ġev olving
Ġ ĉĉ
op ens
Ġvol unte
Un til
dimension s
S PI
p seudo
du ality
N il
Ġin herent
clu sive
ex c
C hi
}, $$
man agement
PD ATE
E lem
or ms
ĠHash Map
og gle
^* )$
FT WARE
par box
ĠComp arison
Ġro oted
code c
Ġambigu ity
L ap
en te
Ġe duc
ĠN umer
Ġfound ation
. &
T LS
Ġ\\ &\
decre asing
ĠK ol
Ġperman ent
ak ov
coll ision
wild fly
ik es
ĠF E
Ma jor
be it
}. )
Ġt error
over ride
con str
cut s
ĠS ched
Ġsum m
Abs olute
P unct
Ġdra ma
Â °
N ational
3 25
Ġz ones
at op
Ġm il
Ġj ourney
Ġdecay ing
K im
F ast
sol r
ĠChild ren
Ġimp osing
Ġdig its
; |
nt ario
Ġatten ded
h b
ra ce
Ġpr uning
Ġro uter
f box
Ġsp ots
mm ode
at ta
R eq
ĠB BC
Ġ( ((
Ġgrow n
Experim ents
Ġgene tic
ĠV ar
over lay
Y ang
Ġ\ {(
Ġaut onomous
dest ination
er ation
Ġrepresenta tives
ĠP T
r ise
Ġgraph ical
Ġutil izing
Ġcomp eting
Ar rays
Th an
ĠD MA
lass ical
ds on
ry stal
ate st
Ġr uled
sur faces
is l
Ġun usual
ĠW ales
ĠTh row
20 3
ĠM icro
Ġend owed
ĠSt orage
) }^{\
- .
Ġc ru
}}\ ,\
ĠIll inois
en ant
15 1
Ġag ency
}) |
ĠS chema
esti mation
cal ling
ĠS olar
Ġsyn chrotron
Ġingre dients
n v
Ad ditionally
Ġcris is
Ġy r
Ġkey word
X R
RO OT
adap tive
ĠCONDITION S
Ġle gacy
PRO JECT
Ġinf ection
G K
g cd
') ->
Ġr ising
ĠI ma
c T
c trl
Ġwas te
Ġde t
ffff ff
ĠF und
Ġx hr
Â ©
D ia
Ġdif fraction
Ġinc idence
C li
Ġ\ }$,
Ġhous es
Ġmonoton ically
Ġacqu ire
les cop
ĠC ell
ĠK ent
Ġrespon sibility
Listener s
Ġide mp
ĠLemma s
ĠJ u
ĠHo spital
ĠK ong
W D
M ET
Ġguid ance
Ġde gradation
Ġsur vive
p ick
termin al
ĠC ancel
Ġslo pes
En umer
_+ ^
ĠE S
Ġab bre
ĠL E
TR ACT
q s
st derr
Ġmultip lying
ĠB reak
Ġinser tion
{ }^
Ġas c
Ġref ere
N d
Ġblock chain
Im mutable
+ }$
re ets
dete ct
ĠClo se
}\ {\
ĠO K
4 80
Fil ename
station ary
S ources
h it
ĠF ILE
M ills
su c
Ġshort ly
and y
roun ded
Ġweek end
se ver
19 59
Ġs an
O ct
P in
H i
Ġcros sed
c odes
ar poon
mon y
text sl
Ġt ropical
k T
Ġ )}
ĠFW HM
ĠS elf
Ġindic ation
schema s
ĠConn ection
M U
ec es
Ġab and
el led
if mmode
Ġar ranged
scal ed
Ġexecu tive
}} }(\
ian ts
ĠBAS IS
Ġre tail
ĠMil ky
ĠG T
Ġconn ects
Ġrecur rence
N at
D up
j p
ĠW ait
Ġcol ours
16 2
ox y
cyc les
Ġchar ts
ĠS TR
ĠPen nsylvania
Ġat tra
Ġcre w
Ġdis agree
re vision
g ences
}} }_{
ĠMan ager
ĠInter estingly
Ġtit les
Ġmu tation
tensor flow
eng ers
S al
ĠSym fony
pre tty
J o
ĠH ur
Ġview ing
dec oder
la ve
b la
ĠT oday
D H
ec on
Des cribe
Ġre lying
Ġle ct
Ġemer gence
L ive
Con figure
h fil
Ġcall er
W he
m ol
esti mates
T im
ĠNetwork s
ĠA str
Ġpol aris
car bon
Ġshow er
RO W
Ġa mazing
Ġthe sis
ĠW ik
Ġeigen vector
String s
uzz y
G IN
Ġmanip ulation
ival ent
% .
bar s
Ġir regular
ho ff
18 7
Ġb lo
ĠEast ern
j it
Ġextra polation
w ire
}}$ )
b R
lic t
u ing
fig ref
Ġhyper parameters
^^ ^^
15 3
Ġcompact ness
rint f
ta iled
EN CE
_- $
len eck
Uni versity
Ġh ist
ĠE C
reg ions
IS O
Ġ" );
ext ract
omp son
sec ure
Enc oder
ĠAmeric ans
Write Line
dis per
Ġre formu
Ġ} ^{\
S y
Ġcon temporary
Le g
ĠM obile
ĠS ET
s low
ĠL ar
ap ore
ĠScot land
Ġm ort
Ù Ī
ĠD ES
ir med
ĠT D
Ġblock ing
Ġper ception
Inst ances
ĠImage Net
Ġl in
ĠW igner
v f
Ġconfir ms
& -\
Ġsession s
B st
Ġh all
ĠCh em
Ġsee king
ĠM ach
be at
^+ ,
U CT
Ġd w
T raining
no tification
ĠĠĠĠĠĠĠĠĠĠĠĠĠĠĠĠĠĠĠĠĠĠĠĠĠĠĠĠĠĠĠĠ ĠĠĠĠĠĠĠĠĠĠĠĠ
! =
U sed
B ern
Ġbur sts
u y
wide text
Ġhealth y
2 75
ĠEd ge
up iter
Ġgener ations
SU CCESS
Ġint ense
Å Ĥ
ĠM SE
Ġdisc ip
Ġwill ing
Des ign
. [
SU B
enn y
& $\
D if
__ _
c ould
ĠO ri
Ġp ng
cs v
enn es
Ġful filled
19 6
Ġmove ments
sid ential
Ġlo ader
ec raft
du ctivity
Ġg irls
Ġown ership
Ġc ash
Ġsec re
LE NGTH
Ġlist ening
Ġanten nas
window s
Thread ing
Ġselect s
Ġdanger ous
F ar
lan e
es sible
PRE FIX
Ġpre domin
Ġexc iting
Ġla b
Ġbre ath
Ġacces sed
Ġcondition ed
Ġsub script
Ï ģ
tablen ote
Ġg lyph
ur ities
ĠCon versely
Ġlink ing
Ġnon local
M G
Ġcell padding
ĠDo ppler
sc ious
col ors
MESS AGE
o ided
Ġinvestig ating
end ers
Ġimp lication
D N
app s
om ent
{ .}
radi ation
ĠP lace
\! -\!
Ġma intenance
ĠP od
Ġs mo
ĠN V
ĠGR B
Rec ords
orth ogonal
Ġ å
Comple ted
b ank
Ġtourn ament
A f
Gu id
separ ator
e lect
String Builder
Ġgen es
B esides
id ge
>< !--
ĠEmp ire
8 000
ul s
Ġhom es
fol ding
Ġ" ./
Data Source
Ġb lu
Ġrect angular
Ġd ans
) ],
ob servation
E F
ĠM F
Ass ign
Ġalpha bet
Ġun clear
sim ir
Ġran ks
redsh ift
ĠD un
TH ER
expand after
+ "
Ġv oting
df n
Sta tistics
ĠLa ure
Ġwork flow
Fig s
, &
r in
00 9
band s
L HC
ĠF an
val s
Ġaut omorphisms
chem ical
j us
Ġeven ing
Ġco pi
Ġstrong est
S outh
Ġgra de
ĠPri me
en sitive
be havior
f req
s ocial
ĠCho ose
Ġr s
AR GET
S at
ĠA venue
Ġdec laration
SE C
asympto tic
ĠE vents
W T
ver sities
Ġfro zen
); \
ĠA ST
Ġre direct
Ġm useum
Dav id
Y au
U UID
Ġb lank
MB ER
ĠR M
At tempt
AS C
+ {
st yles
Ġg rew
we et
cat alog
S ect
ĠK L
17 8
s it
Ġ\ |^
lu sion
Ġexplo iting
' }^
ĠIn tegra
H s
s lot
Ġe lections
Ġemp irically
Ġo d
al ph
PT ION
du mp
Ġprim ordial
Sta tes
structure d
c aus
Ġappro ved
H idden
Ġiter atively
plan es
Ġchem istry
D ict
ĠG yr
Ġact ress
table block
Ġsuper gravity
Requ ests
Ġper mitted
Ġh otel
mak ec
in sp
ĠSt ory
Clo sed
cent ric
op tical
er ts
Ġo cean
U A
Ġde lays
db c
Ġh osted
qu ick
pro jects
it eness
ĠMy r
Ġsol vable
ĠL td
ĠNe ural
Ġcli que
Pri mitive
al lax
Al t
= |
RO C
Sim ulation
S ug
Rec ent
ch ip
ĠW HERE
Ġtrans lates
Exp and
55 5
Ġre act
ĠR om
Ġredund ant
Ġsur gery
Ġlo gs
Ġw ake
Ġfail ures
SER VER
Ġg a
MA SS
Ġe jecta
d R
glyph icon
Ġe g
app le
Ġintersection s
[ _
Ġen force
ĠF orest
17 7
Ġco in
Ġz ip
cur l
post s
observ ations
Ġn ic
ĠL D
Ar row
Ġparticip ate
pri ority
normal font
Ġexplo ited
'' _
Ġins tabilities
Imp licit
WR ITE
ĠC li
! }\
ey ond
ĠE N
Back end
ĠST ART
ĠMC MC
ĠMass achusetts
st mt
War nings
Ġ' @
Ġgu ys
Ġvi rial
Ġcar ds
ĠC ulture
ĠIN T
for th
ĠD A
D ie
ig a
LE D
ding er
Ġmonotonic ity
ĠF S
17 2
s ound
Ġs ought
ser tion
ĠF ried
19 58
ĠCO MP
e mb
si x
Dec ode
thin space
E mbed
p ow
Ġreservo ir
stra ction
' ):
-- ;
Ġ-- ></
Ã© s
Ġt uples
Ġcre ative
\{ (
> %
% "><
is i
=\ {\
ĠE gy
bf series
Ġw ing
) ?
C amp
p at
Ġfor mats
ine ma
ĠM ust
Ġpres cribed
o vian
Ġpre vents
Ġa imed
D et
in x
] </
ĠM HD
. ).
ĠO UT
min ute
Ġ' </
ĠWh it
en ium
}\ }$,
Ġcondu ction
Coun try
ĠG M
ĠAd ded
Ġd ummy
ĠC MS
Ġoptim izing
With in
'] ))
o z
iz ard
end a
Ġhol ographic
res ted
Ġadap ter
re ject
es sibility
Ġhand lers
ar on
cc i
Ġinstal lation
ym an
Ġtransmit ter
d an
ta king
ĠJ oh
ct l
ĠL inux
Ġde bu
ĠString Builder
Ġdec lar
al ways
Spe ed
Ġ" [
W P
Ġframework s
ĠL A
Sch warz
ĠV alues
Dest ination
measure d
pa int
Ġadv ances
Ð¾Ð ´
Ġs cripts
Ġp tr
comp uter
text g
Sta t
SP AN
ĠH ong
l ists
x b
} &=&\
)) _{
Ġvo tes
Typ ed
c ence
ĠW R
size of
Ġexclu sively
Filter s
Ġdem oc
ĠP erson
Ġoptim izer
Ver tical
? ,
c am
g am
View Controller
Ġlock ed
olog ist
ug by
} ]{
ish es
ri k
[ (\
Ġre m
ĠC red
ans wer
ĠA udio
equ ality
Ġins urance
Ġfight ing
A CTION
w r
ĠF ox
Ġend if
thes ize
GL enum
Ġti ssue
Ġcos ine
Ġn eck
text superscript
pri or
requ ires
ĠSh ared
Ġsim ilarities
cccc c
ĠW is
Ġauthor ities
18 9
iz abeth
ĠS itter
" ?>
Ġiner tial
k ed
time line
ĠC artan
Hy per
Ġadequ ate
et ti
ĠL es
18 4
Rad io
ĠPro file
ĠCon structor
Ġtran sitive
} ].
^* =
NE W
ad oc
Ġdiscrimin ator
17 4
Ġtext s
si zes
Ġtransform er
Ġmaxim ally
ĠC I
Ġt f
Ġm ile
ĠG ran
q n
Al ignment
] /
Ġin cur
Ġconvex ity
be h
ac ted
Con cept
19 57
CP U
Ġany way
Ġtra il
ĠHamilton ians
ull er
ĠL ik
eler ation
makec ell
N or
in voke
control s
LEV EL
P et
non linear
G it
Ġintegr and
ĠRec e
) ].
Ġwh ilst
Ġasympto tics
\ (\
ĠB ridge
ĠTable s
Ġestablish es
H OME
I FI
un lock
ĠPol ish
2 12
ff ee
Ġcommit tee
coup led
ĠSo viet
ĠK a
ĠTr ust
F IN
k p
ĠF r
As set
Ġpush ed
Ġpy thon
ĠMo on
ĠChar acter
C as
}/ {
ĠCoun try
Ġ Å
ang el
Ġincorpor ating
u rate
Sty les
la tex
Ġcol laps
acknow ledge
Ġma il
c X
Ġdec line
L ife
en ko
Ġl ifting
Th anks
ĠF P
() `
Ġexp ects
Ġcorrect ness
o ss
product s
ĠRe lease
En t
Ġquan tized
ch el
ĠTH IS
Ġinter stellar
Ġ ].
ĠT ok
hier arch
) &=&\
Ġs alt
polar ized
Id entif
H orizontal
id ents
ĠLag range
Ġemer ge
O s
order ing
Ġcry stall
I FT
W illi
re direct
Ġbl ind
}^{ +\
accu rate
Ø ¯
Ġper c
Ġstri king
ĠSO FTWARE
ĠSecret ary
ou ville
ĠP DE
> -
SU PP
ĠType Error
ĠM T
ĠG B
Ġ/// <
Ġav oided
li est
l ift
Ġgr pc
at us
ad van
ĠV olume
f u
}] $,
ĠM n
ĠM iller
AR K
lat ory
den oted
Ġsaf ely
d N
d am
Ġup grade
An n
Ġwave function
Predic ate
ĠE ric
Ġcontext ual
ĠEqu ations
c apa
Ġde ferred
ĠB inary
ĠS hi
po thesis
te am
Ġin spect
me try
Ġpos es
(" .
Ġp lu
lish ing
Ġregular ly
An notations
ĠB ody
G old
Ġdis connected
Ġint ention
el ve
SY S
à ¥
be ans
Ġeast ern
, *
b az
Fatal f
Ġback bone
Ġla ugh
Ġinter ven
Ġset Timeout
Ġpen et
Ġbe ar
Ġb ass
Ġcomp ounds
Ġsc ratch
<? >
a belian
Ġde precated
li ver
P icker
2 16
Ġd f
20 7
R en
Ġf m
es tri
ĠAt omic
Ġc lim
po i
k al
ou theast
ĠD G
IN CL
f lip
restr icted
Ġstri ke
Tag Name
Ġdis p
Table Row
s ender
el son
ui tively
}$ (
ĠEn tity
Ġland s
Ġour s
sur vey
Allow ed
Ġm ountain
clu sters
Ġex otic
Ġe c
ĠP layer
ĠTo ol
stitu tion
si vity
Ġsurpr ise
ĠR os
tit led
Ġpi pe
tific ates
Ġsett lement
Ġb aby
ĠA LL
Ġre volution
Comp at
Ġnumer ic
20 9
Ġrele ases
Ġch ir
S us
e vi
Ġencoura ge
}\ |^
ĠMo ore
ĠBel ow
Ġdialog ue
20 6
Ġgood s
M Q
an no
ur is
Ġsimpl ifies
Ġsp o
Ġass ist
ĠEd ward
Map s
}} )$,
par sed
19 3
Ġappe al
Ġh un
ĠL F
Ġlo ts
Ġval ley
ro g
17 1
ĠG A
---- -
q t
Ġderiv ing
Ġsmooth ly
Ġanaly se
ĠG i
ĠDav is
Ġcontract s
0 24
Ġvocal s
c ers
ĠB io
ore n
Rec ur
âĶ Ģ
hyper ref
ul p
manif est
Ag da
app y
Pr ice
Un ited
^+ $,
Ġc lon
ĠMark et
Ġany more
ĠTrans form
Ġdra s
bos on
d td
Ġp un
Ġ! !
yn e
ĠRe ynolds
St d
Ġdisc s
Ġdec imal
36 5
Ġf d
Ġpre mi
ĠNS F
ĠCamb ridge
te p
^+ }
z s
back end
ĠComple x
ag on
Ġj u
cross ing
wik ime
ag u
ress or
}{! }{\
inner HTML
Re vision
Ġcri minal
Ġsh ips
28 8
Ġconsum ers
ĠSchwarz schild
ĠCh en
è ¿
Ġb at
C os
Ġtw enty
ĠBu ilding
ĠT X
Ġplate au
Ġfila ments
ĠFrame work
ol y
oun tains
Ġcons ult
A tt
Ã© e
Ġreci pro
ĠConsider ing
Ġelimin ated
\!\! \!
Ġtriang ulation
ti ze
ĠH ot
ĠComp ared
there fore
Ġmask s
Ref resh
= #
lem an
17 3
lines kip
$ }{
ĠC ox
f ted
ĠNO TE
Ġto y
Ġextract ing
distingu ish
Ġdesign ing
ĠHes sian
;| &
S il
ĠV illa
Ġshoot ing
{ ,}
ĠD NS
Ġdiscuss ing
ver si
Ġun seen
jav ax
ĠS ER
Check ed
w f
Ġbenef icial
Separ ator
ĠO C
Q P
so ck
Ġdouble t
Spa tial
Ġ" ;
du ate
complex ity
Ġcompris es
}) ).
dir name
Ġhe aring
s napshot
Ġsta ys
Ġsymp t
uc lear
i int
Ġa gricult
ĠCh rome
Ġ till
ĠD utch
ant on
k el
ĠK ra
C ould
}} :
sw ing
L earning
F our
ĠM ode
e ah
Ġrecommend ations
ĠE T
f li
Ġres is
numer ic
( `
ps line
ĠIs lands
ĠGener ated
Ġout liers
Ġcred entials
D ll
V el
Ġv ib
Ġconven tions
Ġaxi oms
; ,
| )
ĠRepublic an
{\ '
Pres ent
pro pag
ĠIn cre
Ġ@ {
iel ded
is sions
is sue
Ġpredic tor
Ġsu ited
Ġsp ans
Ġclu mp
Ġrefer ring
AUT H
if rame
ĠN orm
mple te
ĠRequ ired
ĠW ars
Multi p
S ink
op lan
Ġass istance
Ġvi able
em er
Ġgrid s
ir ms
Ġlo ved
Ġb anks
ĠTrans former
E valu
Ġaffect ing
Py thon
ĠP ear
CL K
N ested
c B
Ġref ine
en h
Ġrescal ed
ĠOx ford
Ġ& \\
Ġpul led
K h
_- (
:: $
Ð¸ ÑĤ
Ġ& :=
Ġh older
Ġsub category
Ġiniti ated
Ġinter vention
gh an
Ġrandom ness
satisf ies
ĠP ic
non atomic
w ick
Ġle gs
ĠChris to
Ġobsta cle
ĠB O
m og
v phantom
$ |\
con volution
Ġsch olar
ant ine
ĠSta ck
Ġup coming
UN K
Oper and
st ery
Ġmis match
Ġnav bar
Ġquas ar
Ġgra sp
v w
re ll
Ġno tify
Ġcho oses
Ex change
'' }
amil ies
Ġ$[ -
aut orest
& \\
ma d
)\ }_{
ogen ous
$ +$
ĠS top
aren cy
7 68
Ġiso lation
R u
Ġharmon ics
ĠPol and
18 8
Ġac tivated
all ing
google apis
Ġg fx
,\ ,\,
class ic
Ġneu ro
lu stration
Ġcol linear
S ent
Ġensemble s
k le
19 56
Ġmultip ly
ĠMean while
Ġre combination
ĠAn ton
ĠInter face
Ġcapt uring
Ġcompu ters
ig e
ĠJe an
Ġjus tice
Ġb asketball
pe z
Ġcoun cil
ĠV en
So ft
o les
Ġg ro
Comp aring
HO ST
R W
o led
ĠD D
Ġgu est
Ġori entations
con clusions
Ġosc illa
ĠP D
parame tr
Ġrescal ing
str ument
Res olve
Ġaut oc
ĠCO L
Re lations
G re
Ġc au
Ġback end
infra red
S el
ĠE th
2 90
Ġgroup oid
oot strap
Ar n
Pa int
Ġhead ing
Ġavoid ing
ula tors
Ġcor ona
}( {
l x
Ġs or
Ġm ount
################ ################
0 14
}, ~\
ĠG ene
Ġcontact s
ĠTor onto
Ġwave let
Menu Item
[ ];
Ġpro fit
Ġion ized
Sub ject
ĠPak istan
> ${
lit z
N evertheless
experim ent
Ġalle ged
AD C
Ġdi amond
Ġro bo
B and
c annot
ĠSty le
arab ic
Ġminim izes
Dispatch er
Ġass ociative
Ġ| ^
man aged
lescop es
P lus
Ġ æ
}^* (
Ñ İ
Ġs el
ĠA zure
[ <
v ic
Ġsil ver
w b
C MD
id o
decor ation
ĠColumb ia
ure au
Na N
0 50
ĠAd ditional
bl ur
ĠD y
Ġsusp ension
on ia
elf are
ĠCh ap
E A
c apacity
act ory
Ġcus p
* -
Ex cel
Ġanaly sed
Ġil legal
rac le
ĠH ost
I ENT
en ched
ber ry
ĠA verage
version s
Ġm outh
Ġex tern
K D
Ġcal endar
oper ations
CR IPT
0 16
ill ary
fact ors
Ġrm s
)) ^{
å ¤
Ġhe ap
Ġcolor ing
v u
ear n
Ġflav our
d q
>( <
is ible
ĠAd vanced
incip le
Ġbubble s
ĠO THER
exp lain
Ġback up
ĠDis play
Ġdata bases
arg min
ĠB orn
ĠSan ta
Ġf iction
Ġaccep ts
F r
ou x
Ġla d
evalu ation
19 4
Ġcell spacing
Th rows
; (
Ġ[] *
ST REAM
con jecture
per f
Ġstrug g
Match es
ar x
Ġl ane
Ġmat roid
Ġtransp ortation
The ore
Ġ% \
Ġh int
R ew
Ġcommunic ate
ĠD or
)} }$
olic ies
Ġ. /
pro cedure
row se
ĠL ower
ach er
st reet
Ġiner tia
C y
la del
ĠB ose
exp ec
ĠPro tocol
Ġmark ers
Ġc ot
Ġse g
Ġtail s
in j
os cil
-> ]
Ġmilli ons
3 40
Ġal umni
ĠMay be
0 33
en z
et ero
R outer
Y M
pro cessed
odrom y
ok ed
ther s
sc ene
Ã º
Ġp ad
t g
Be havior
sp lice
ĠB rand
ING S
Event Args
k an
ow a
C lone
R UN
)$ ).
Ġrefer enced
}/ {\
Ġto ggle
Man aged
Ġprac tically
ond o
shall er
p tive
ĠAl ternatively
M IT
ĠN A
Ġsum ming
Ã ¥
ann i
T OO
w m
Ġs keleton
N u
vis ibility
. ";
L uc
Ġse eds
comp ar
Ø ª
ĠSw ift
F oundation
she af
Ġd ies
Ġad ult
P ad
q c
lic ates
ĠP AR
ĠS ong
algebra ic
ĠĠĠ čĊ
Ġla p
Ġunit al
restr iction
Ġin formed
Ġhistor ic
* >
triang ler
Ġany where
ID ENT
ha w
Pre liminaries
ĠSup reme
Ġadd EventListener
Ġgeneral izes
Ġtrain s
Ġdifferenti ation
ys ql
\/ }
Ġpion e
Ġfoli ation
^+ _{
Ġ ut
Ġmaxim izing
j ets
LIN K
ap id
mo ving
Ġin novation
Ġd omestic
sta gram
Ġwe ar
TO P
ĠPub lished
ire ctional
Ġcallback s
Alex a
pe er
Imp orts
Ġris ks
Ġpro v
Ġhis tograms
Ġjus tify
Ġt on
M ail
ci ties
Ġpull back
ĠCombin ing
xx x
trans formation
co lation
ĠĠĠĠ ĉ
set Text
Ġcon es
jec tivity
Ġ$\ #
clu des
cri ptions
PROP ERT
ogon ality
Ġcontinu ing
Cre ation
Ġacc ounted
)$ \\
pla ced
() ">
Ġenc rypted
ss ues
Ġpol l
Ġre wards
name ly
Ġtrip les
Ġas ynchronous
19 55
Ġ# #
ord ova
ĉ ĠĠĠĠĠĠĠĠĠĠĠĠĠĠĠĠĠĠĠ
hash Code
ris k
5 50
[] [
T HE
Ġpossess es
Ġph rase
Type Name
Ġs lots
ĠD raw
i ors
per m
IM AGE
ĠCO VID
the m
Ġpr inted
{ }_
ĠPro b
decomp osable
Th ird
Ġes tate
dis p
inter cal
Sto kes
button s
B ol
Ġw x
ĠYou Tube
ĠF er
av oid
Ġpuls ars
RE NT
ÑĢ Ð°Ð
ĠS quare
Ġfurther more
Ġinflu ences
0 13
tit udes
Sh are
ladel phia
Ġdivis ors
te or
ĠV iet
gni tive
work er
S olution
ĠCh air
Ġcontain ers
strong ly
ynam ically
$ ^+$
cc er
Ġmathe matics
th s
Ġrare ly
CON F
Ġpartition ing
di es
Ġdiv ides
un safe
ĠO ntario
Ġfac ing
\,\ ,
)| ^{
Ġ===== ==
W IT
be zier
Li pschitz
Fi xture
ĠGL int
de velop
Ġconju gacy
Res earch
e i
ĠSe lection
ĠS hape
Ġorbif old
T ax
ani mate
ĠG ab
U ses
Ġdepic ts
Ġm ounted
Ġin consistent
Ġrenormal ized
* .
V B
pa gination
Ġstack ed
measure ment
mix ing
ĠNewton ian
å Ĭ
ĠE ss
ss s
Ġconc ave
Ġdra matically
us ta
ĠSto ck
P K
ĠS oc
Ġs av
ou ri
Ġp uzz
ĠSta ge
Ġfla res
Am ong
H ex
Ġspa c
ĠData set
ĠUS B
A ctor
Ġtran sf
ether lands
ev y
Trans lation
Ext ended
Elements By
Un expected
ĠLay er
] }{\
SE D
LE N
R x
EX P
Check er
ag an
Ġenc odes
ĠN ick
Ex act
th anks
sw er
in ations
ĠT M
Ġpack ing
Ġgran ts
Ġe at
Ġpa ired
ĠT rack
Ġres ort
Ġis ometric
.~ (
Ġingre dient
as suming
Ġellip tical
orre lation
ĠOlymp ics
ĠOver all
17 9
ĠSt one
Ġminim izer
Ġsubt racted
Ġnonlinear ity
Ġ ÑĤ
om al
ĠH otel
Ġinf ected
G U
ti les
B an
Ġp orts
Ġassign ments
ĠBri an
llig ent
Å į
Ġf urn
ĠM AC
RO P
radi al
P FNGL
Ġpublic ations
co efficients
Ġ$\ ,
ĠT an
C hat
Ġdiver gent
Ġin elastic
Ġre pair
tex tarea
Ġpop ulated
C lock
F ollow
d anger
ĠM rs
U X
ĠS PI
00 000
For ward
ĠGra ss
rit ten
ĠA TL
ĠD est
STR UCT
ĠC U
Ġqual ified
us ually
Ġatten uation
Stack Trace
c N
Ġre tained
Ġp et
cur r
nipp et
y arn
Ġs ali
ĠA UT
ĠO perator
ĠPh oto
Ġste el
Ġsub manifold
Ġuse Capture
sched ule
ome tries
ST O
{\ "
32 1
Par ticip
wikime di
Ġn ur
^{+ }
Ġvio lated
Ġreflect ing
Ġat tained
}| }
lo be
Lo ss
Max imum
Ġdissi pative
1 200
H B
wikimedi aui
Ġconcept ual
b rains
os hi
ĠF oo
Ġdo ctor
net t
Ġg ri
ri ends
Emit ter
\% $.
ĠIn dic
J D
AC HE
g rowth
ĠRo ss
ĠRes ources
Ġconv ection
reat ment
analy tics
ĠAs ync
N orth
IT S
Ġt ac
ĠA k
Over all
Gra dient
x sd
Ġst ub
h f
Ġsk ill
0 75
draw able
Ġtr uck
ĠKe ep
19 44
Ġfe asibility
Sub stituting
Ġfar m
ĠL ICENSE
ellip tic
Ġa wards
b right
P as
s and
AC ING
ĠGovern or
ĠAg ency
NAMES PACE
n ested
Ġb esides
ia o
Ġh ur
end ants
ĠB all
C LE
Ġcorre lator
DE LETE
Ġteach ers
') ).
Ġdri ves
Ġti ed
Ġch aos
Ġtrig gers
D ro
g ives
ĠD oug
ĠG er
M V
Ġbroad ening
L G
st y
Ġ ))
) ',
ĠA dap
rac tical
ĠRes et
ĠSD K
oul der
64 0
ast ro
as sump
to on
node Type
Ġworld wide
ĠC ome
cer tain
Ġcollect ing
AMP LE
m rm
aff ine
th ose
nucle on
ĠA ws
Ġtravel ing
ilibri a
. :
Ġc rack
he ap
------------ -
lear n
NotFound Exception
Ġ! (
2 15
el la
ĠS ave
ĠP erm
Ġmetall ic
qu it
comp ass
command s
IEEE eqnarray
ĠS n
ĠEn try
Ġti les
Observ able
ĠF loat
Ġmon oid
zon a
allow break
ĠC i
Ġbu ffers
OT T
Ġexplain ing
M yr
Ġemer gency
ac tivate
I ts
f ish
acc ording
Cho ose
Ġpeculi ar
ĠT S
d id
Ġgenu ine
copy right
ti se
R B
ADD ING
An g
HAND LE
" ):
l label
Ġcon vective
Ġen gines
ĠG ET
sc ience
ĠĠĠĠĠĠĠĠĠĠĠĠĠĠĠĠĠĠĠĠĠĠĠĠĠĠĠĠĠĠĠĠ ĠĠĠĠĠĠĠĠĠĠĠĠĠ
Ġtop ologically
PA SS
E urope
Qu an
Ġs quad
ĠA BC
str ut
ĠZ hang
ug al
Ġrest ored
Ġk illing
Ġrun ner
B ridge
l v
os is
Ġig et
j b
ĠCoh en
to kens
string ify
Ĥ ¬
ĠT ai
val ent
Ð¾ ÑĤ
Ġsem icon
(" <
quad ratic
ĠEar ly
ĠIn sp
Ġen tail
ĠPri vacy
Bound ary
est yle
IN PUT
Ġat tract
)\ }
ĠS VM
inter op
o ol
al exa
Ġsingle ton
squ ares
Ġt ens
rop ol
ter y
BU TE
v ard
' )$,
Ġread out
: ]
Ġhome omorphism
en ix
ĠH ung
Ġsurroun ded
triangler ight
Ġb ic
ula tory
] <
hic le
Ġl ingu
ĠR PC
al ter
Mid dle
magn itude
at tack
Ġpolitic ian
Ġme l
ĠV M
] ^\
ra it
ĠColor ado
approxi mate
Ġchar m
\% }
Ġre dd
interpre t
ĠB rowser
dis cus
MPL ATE
}^+ $
quoted bl
0 40
Ġparse Int
control led
combin ed
ĠAdmin istration
ÐµÐ½ Ð¸
cre ens
Ġfo cal
ayes ian
ud ents
SQL ITE
ro v
Ġno tably
Ġrender er
H V
is omorphism
v on
Ġoutper form
] ];
up d
ĠD id
Ġ} ));
vers ary
Ġaltern atives
tr ons
Ġface t
con taining
Code Analysis
Ï Ģ
star ting
ag ues
qu is
Ġpro mp
Ġ* _
Ġgeneral ised
DIS ABLE
] }{
Ġrever sed
F ermi
f red
occ ur
Ġa uction
ĠC B
El se
& (
ĠP or
text quotedbl
Ġpo sitivity
Ġparticip ant
Ġrapid ity
ĠF ord
Has Been
ĠP CA
ĠB PS
Ġdecomp ositions
si ans
b ary
Ġw aven
ĠD onald
Ġapproach ing
I a
ĠY O
Ġexec uting
pre view
Ġc ited
sub scription
Ġ(! $
}} |\
Ġg rounds
hd fs
prevent Default
sta tistics
pop ulation
mu tation
Ã¡ n
Ġrein forcement
ĠA x
ab r
3 80
23 1
ak s
Ġellip so
Ġsil icon
Ġattemp ting
ĠSum mary
Ġ ride
++ ++
BU F
glu on
A pr
ĠM IN
log ical
BUIL D
amazon aws
Ġindic ators
simp l
ĠT rac
Ġat traction
ĠK lein
ĠLabor atory
P ur
Qu ota
Mu table
tw isted
è ¡
Ġd rugs
Ġregister s
Ġrestaur ant
ale ph
Ġst one
encode d
< $
Ġvirt ually
Ġapproxi mating
,\ ]
Ġsh op
as er
ĠIn stance
r us
Ġsuper vision
[] []{
Ġ ic
top ology
ĠTemp late
- ,
she ets
nes ota
f h
re ment
B ranch
W M
PE G
compu tation
ĠJew s
ON LY
site info
: {\
Ġsol o
i q
}} ),
Ġ= ================================================================
ĠD ynamic
vers arial
Attach ment
jet brains
ne ural
Ġvola tile
" ])
Ġtermin ation
max imal
Ġal ive
Ġd uty
eq no
Symbol s
18 2
Ġpresent ing
Ġvalid ated
âĢĻ ,
iz ability
Ġear ned
PRO TO
Over flow
ĠSpec ifies
0 32
]( #
rop ies
Ġs entiment
RET URN
Ġatt racted
16 1
resource GroupName
ĠR C
order s
Ġdiagnos is
I BUTE
19 39
ĠI MF
Ġk lass
out ube
Ġdate time
Back up
^{* }$
lin ic
alt Color
ĠBlo ch
inter section
Ġh ack
Ġp ow
)) (
Ġspecial ized
Ġla titude
Dete ctor
Ġfe els
19 48
ĠSet tings
Ġsuffer ed
ear s
Ġconcent rate
re store
conn ections
Ġopp osition
ĠIter ator
ĠC over
ĠCh ain
TEXT URE
bm od
g d
Ġimp ressive
19 54
lit eral
ordin ary
Ġre use
Ġco ins
co eff
ho ma
L ip
ĠI MP
ĠW E
root Scope
Res ize
g ol
ci tation
P ADDING
Q S
P aren
Ġsur rogate
pack ages
MP TY
Ġcur rency
dis tributions
Ġcon test
' }$.
Ġsuc ceeded
` :
Ġdesign ated
F requency
corre cted
Ñ Ī
Ġd ial
nod ata
R TC
ĠA rc
Ġsp urious
vi ate
Ġpri vile
ĠSim on
Ġor ig
Ġhad rons
ub i
param ref
ĠAn ti
ENT S
ĠHy per
Ġg y
ĠL IMIT
ĠSy d
}, ...,
Ġm ine
ob tain
Un ity
c tives
fra med
Ġdra matic
Par ticle
thon y
Ġdiagnos tics
Ġmanufact uring
ĠSing apore
F X
Ġthous and
end o
Ġres ol
Ġf li
qu a
): \
T ODO
W ords
ĠSte phen
Ġar rested
re li
Ġtell ing
}( -\
23 8
Ġ($ (
Log ging
typ ed
ul pt
23 7
ĠPU BLIC
Ġ' {
Con struct
ch ant
ess ment
p orts
Ġswitch es
G I
Ġb ought
ĠTH REE
Ġrad ar
ex clude
lu c
no on
ai ro
P ages
t ls
d ummy
Ġd S
a head
Ġed iting
incre ment
n P
Ġs oci
ard o
Ġcross ings
Ġposi tively
F ROM
N B
Ġme dal
ĠLe vi
. #
^{\ ,
Ġfac ed
Ġellip se
Ġfor bidden
ĠB ir
Ġ\ }.
Do es
Ġadjust ment
ĠOffic ial
H ide
EO UT
Ġfer romagnetic
ĠS B
ak h
}$ '
W ORK
Ġterr itory
Ġbott leneck
æķ °
16 3
18 6
Ġavoid s
ĠMN IST
Ġro oms
Ġbu mp
Mod al
ĠDe te
Ð¾Ð ±
ĠB log
C Y
Qu ad
Ġbary ons
zh ou
Ġdestr uction
Ġamong st
Ġcamp us
ĠDe ad
c py
simu lations
Initial ize
Ġpopular ity
Consider ing
ac ute
Ġret ro
Ġparticip ation
è ®
ĠCol lections
ĠO O
vari ety
Ġs elling
Ġgraph ics
Sh ell
Ġ\ }_{
de cess
ĠBer lin
ĠP I
in berg
Ġs ig
Ġmet als
)| $
Equal To
Ġperson nel
ĠCon tact
Ġdiscrimin ation
Ġma xima
Ġ} ^
19 00
Ġaccum ulated
Bel ow
ĠĠĠĠĠĠĠĠ ĠĊ
Ġ. \
Par ty
Ġdes ire
K ar
Ġfac ial
ĠBOO L
Ġe mu
ĠS ound
}) .}
l q
ĠB ORDER
}- (
V IEW
se ason
if ecycle
Ġdistribu te
gal actic
z k
)\ |^
ĠB run
AM L
30 1
M usic
appro pri
Ġ} (\
ĠV I
! </
' }{\
4 95
ĠW ard
(' ../
ĠApp ly
Ke ep
squ ared
Ġspread ing
Ġperiod icity
Long rightarrow
Ġsusp ect
struction s
$ )}
V K
] ^{-
ĠHar ry
ĠI r
ĠX Element
Ġswe ep
Eq n
Ġhouse holds
() }
Ġsupp lementary
La TeX
Ġsit ting
Vis ibility
ĠE R
Ġbus y
======== ====
Ġantis ymmetric
ĠR TC
Ġk ink
Diagnos tic
$- $\
ear ly
Ġprof essor
Ġpropos es
18 3
ĠCheck s
ĠH S
}\| _{\
Ġelectric ity
Star ting
ar bit
ĠD aily
Over lay
iffer ential
ĠĠ ĉ
Ġexclu ding
te o
cap es
=" {{
Def aults
Ġmic rowave
get Key
rows ers
fl align
ĠN FL
j ournal
aw n
Ġd jango
ĠL yn
Ġport folio
Ġsummar izes
g res
Ġmain tains
Ġestablish ments
_{ [\
Int ent
\!\! \
node Name
Ġrail way
ĠH H
Read Only
lb rack
Ġin formative
Ġob s
O DE
LE X
Ġfinish es
Ġex haus
min or
Ġfluct u
Ġhard ly
çĶ ¨
y aml
Ġev id
Ġsp ending
Ġan ne
tric ts
Ġd oping
z ech
Ġ$ ('#
)$. }
0 20
in stead
Ġ| {\
ĠÐ¿ ÑĢ
on der
Ġin sufficient
Ġpro vince
sho ck
Ġdisc lo
S hi
Ġre lic
TR A
ĠMod ern
Ġweap ons
'' '
Ġalgorithm ic
Ġdeep ly
Ġsome how
Ġaccomp lished
Ġme ters
im ination
ĠR ome
_* (\
calc ulated
Ġs napshots
ou sel
center ed
ev t
holder s
ĠMulti ple
M en
un def
Are Equal
Ge o
hol m
$. )
Ġthermod ynamics
Co ord
Ġmask ed
isot ropic
v endor
}} [\
f k
b io
Ġcomp ositions
}}{ {
spec tives
Ġhouse hold
Ġch ap
k ube
Ġsuper fluid
Ġadverti sing
Ġre jection
C ss
: \\
Ġprob es
pub lished
Ġ\; ,
Ġcommu tator
ĠMax imum
Ġer up
Ġto ugh
}$ =
ĠGold en
Ġtra iling
ĠDirect ory
os ph
Ġinver ted
Ġco medy
st ub
ĠR A
++ ]
Di rac
ĠA mb
Ġgroup ed
HasBeen Set
ĠB essel
ĠR ose
By Name
IC S
Ġadop ting
ĠThrough out
ĠH ou
Pa per
Ġhon or
3 10
ĠL ewis
war ding
.} ~\
ra ts
pri v
Z h
h ill
Ġsh ifting
Ġin evi
Ġshould n
26 5
)} |
Ġsc anning
IF Y
Ra ises
ĠR ate
22 8
Ġs aving
ĠOb viously
Ġcopi ed
ĠS lo
ĠP ot
OP EN
Ġ" +
ĠVictor ia
own ed
Ġnewspa per
Ġ ,\\
ext rac
Ġemo tional
F IL
b ag
Ġcorpor ate
D IF
N Log
he alth
serial ize
Ġobser vers
mod ular
Ġemo tion
sp l
ĠCl ifford
separ ated
b enchmark
Un lock
Ġsett led
âĢĻ .
] +\
Get ter
AG ES
child node
Ġcentr ality
)( -
D ifferent
clip se
Ġge o
d E
Ġunivers ality
Ġop tics
Ġper ipheral
Vari ant
g ive
ĠĠĠĠĠĠĠĠĠĠĠĠĠĠĠĠĠĠĠĠĠĠĠĠĠĠĠĠĠĠĠĠ ĠĠĠĠĠĠĠĠĠĠĠĠĠĠ
25 7
calc ulate
}}$ }
ĠSw itch
ĠSt and
CT RL
ru led
IN TE
En coded
ĠN az
Ġar ts
ĠPack age
Ġcompu table
cite alp
labor ation
ĠI mages
ĠE s
19 53
cover ing
tow ards
C FT
ĠC orn
rem um
Ġaccum ulation
ĠV L
Eq s
D an
Ġvis its
vo ice
gather ed
per turbed
Ġaddress ing
Ġout standing
Ġ" --
ĠMedic ine
amp ions
ĠR yan
ĠH ST
Con d
Ġwor ry
ĠTran sport
Ġsome where
Ġd Ã©
ol ding
am ard
8 50
ĠL ind
du st
Ġex clusion
ll bracket
Ġn odal
Ġ\| _{\
k im
Ġs ad
Ġdele tion
N Y
SP ACING
ĉĉĉĉĉĉĉĉĉĉĉĉĉĉĉĉ ĉĉĉĉĉĉĉĉĉĉĉĉĉĉĉĉ
OTT OM
La unch
Ġid s
pro per
cccc cc
in side
Ġb ot
19 52
determin istic
evalu ate
Ġ à¤
f link
k v
Å ¾
B rown
Ġchar ging
neu trino
frac tive
Ġdefe ated
Ġc p
ĉĉĉĉĉ Ċ
~ }
Ġse ats
ĠMa gazine
d type
22 7
ĠSyd ney
ĠB og
ST AR
Ġsoldi ers
BOO ST
R outing
b ys
id i
ni kov
ĠO DE
Ġl ifted
ĠRes erved
Ġrelig ion
sup seteq
Ġsta ting
Res p
Ġrepul sive
Ġas ks
Ġtal ks
he ating
ĠAd ds
ĠA z
per mission
con sin
Ġpos it
Ġtre ating
6 50
Ġo wing
ine quality
Ġpol ym
in als
ro ut
> )</
Ġf asc
sc i
mod ifier
Ġphiloso phy
Spr ite
mark ed
Scal ing
. ),
P ACK
Ġsh ed
S Z
Ġco operation
Qu estion
Ġsw itched
67 8
ĠBern oulli
tr u
Ġhas n
Ġpas sion
Ġblock ed
rep ly
Ġspecific ations
Ġup stream
Ġun w
Ġmar tingale
unit ary
Omega f
Ġro of
ĉĉ ĠĠĠĠĠĠĠ
Ġla id
Ġis lands
pro blems
Ter min
Ġdiscuss es
ke e
ĠO h
ang ers
ĠP attern
---- --
get Text
45 6
satisf ying
>> >
ĠD T
rr bracket
Ġtrack er
(" ./
tt t
RE C
ub a
Ġconcaten ation
Ġt ar
In te
Ġregular ized
ĠDe ath
2 17
Intern ational
ĠA belian
Ġlo an
^{( -
ĠExt ra
SD L
flu ct
Ġdete ctable
Ġdig it
Ġh ate
Ġm illiseconds
ĠCont inu
ĠMc C
Ġre calling
bu ilding
ĠBro ad
b ubble
ĠCh andra
Ġgener ically
plan ar
Ġde coherence
ĠO V
ĠEl izabeth
Analy zer
DO WN
Sm ith
ĠCa simir
E r
ĠB urn
ga ussian
correspon d
Ġfla tt
R H
ĠM DP
EO F
ĠD omin
ĠM ill
Ġassign s
Ġtra dition
Ð¾Ð ¼
Ġra ises
H int
h base
Ġdire ctive
Process ing
IT ER
uma bly
I ssue
me th
Ġview point
ref ox
F u
Ġdemon stration
In voke
imp licit
Un fortunately
> ';
g alaxy
Let t
Or d
Ġ" :
ee k
pro pagation
ĠRo y
( @"
Ġd imer
Ġsing les
Ġulti mate
ch at
Cla use
ex ecu
vers es
_{ _{
ĠT ony
get Time
Ġasser tions
Ġrac es
ĠW inter
ĠG reg
Ġro tated
Ġlog istic
ob server
Ġcomm uting
rm s
ĠTrans action
bour ne
Ġs lit
temp lates
Ġthought s
ĠC reek
sub scri
]] ></
Ġ um
per form
Ġc lic
col our
log ic
comp osition
ĠTo gether
corre ction
Ġhapp ening
Ġdo se
Ġrep lica
ĠI ce
rac ies
ĠATL AS
Ġun safe
40 1
Ġcoinc idence
ĠU pper
ov ich
Ġdemonstra ting
Ġcommu tation
Ġi ii
C MS
Ġb acter
d F
Ġapplic ability
interop Require
Ġt sd
ĠM ask
Ġag encies
PARAM ET
Ġsu i
Ġload s
4 75
or tions
Ġlater al
consider ed
Ġsc ans
Ġvirt ue
Ġun labeled
valid ator
Ġmonomial s
un til
Ġaccommod ate
Ġwor lds
Ġcompris ing
K O
m h
Ġdise ases
ti que
: \,
star ted
Ġemer ged
Ġnever theless
Ġdou bly
Ġattach ment
depend s
st ory
ast y
Ġstabil izer
Con versely
ck e
Ġign oring
ĠS av
ĠM ix
6 25
Ġreti red
C e
ĠF ock
Ġdisc arded
ĠN etherlands
ID s
sw ift
Ġf lying
ys on
}= [
mit t
G PU
og ni
Ġbase ball
ĠFunction s
0 17
W u
Ġw et
Ġass istant
ĠBe the
ĠGener ic
Ġvisit ors
Ġ{ })
Ġte lescopes
Ġemit ting
Ġsurprising ly
hol omorphic
Ġtang ential
tun ed
Ġin hab
Ġpla tes
ver bose
con tribution
Ġdivis ible
el m
Ġcovari ates
fe asible
Ġpl enty
Ġserial ized
itch en
Ġla zy
? )
ĠN u
Res olution
ding ton
30 5
sl f
J P
)\ !
Ġk ilo
INST ANCE
reg on
e z
ĠH erm
m ia
Im g
Ġbr ighter
Ġoutflow s
ic ide
Int Ptr
CON ST
ĠLe on
T oggle
Ġd yn
T urn
In clude
Author ization
ĠInitial izes
Ġmod ifying
comp ared
Ġcoun ted
Ġvo ters
l id
uk i
oco mplete
Ġpurch ased
Ġwar n
filter ed
Ġconstit utes
Ġn om
Operation Exception
gre y
sub fig
ĠSQL ITE
Ã ¸
def s
Un its
ĠL ocation
Rece iver
F K
ĠU TF
ai lo
f re
æ Ī
st udi
il lo
Ġv ox
Ġcompact ly
sample d
oscal ar
Ġconver ging
Ġautoma ton
Ġdiscontinu ity
ĠDo ctor
M ED
assert False
Ġminim ized
N AL
}}_{ {\
Ġpur ple
ST EM
ops is
dete cted
f aster
Ġas semble
ĠP ier
Ġsmooth ed
ĠLo op
pp y
get Property
unit Pattern
ĠL am
su ite
SV G
cep ted
Ġanti fer
Ġiso spin
ĠO cean
TableRow Color
Hand lers
comple tion
3 15
Ġgra ding
fin ish
or acle
)\ ]
FFFF FF
spec ies
loc ations
depend ing
gu ard
> ',
\ )-
Ġtro ops
ĠH eart
Al ert
$ ''
PI X
ĠRam an
ap ing
feed back
ĠPro vince
Ġcon ce
ĠSp ect
F ire
ĠFirst ly
F Sharp
Ġpro c
ĠM ount
ra ther
Ġoscil lators
ĠW el
ren a
Ġpla cing
Ġtend ency
C ached
Ġes c
REQ UI
WARN ING
Q E
b rown
ĠE ll
xi om
Ġcontra s
( %
ener gies
ab b
vers ing
ĠH ER
ĠDis able
p sp
as test
enti ties
b ord
ĠT es
bo ss
19 51
Ġcur l
c nt
Ġpar king
Ġwave form
Ġquadrup ole
ĠB ottom
ĠD ream
IC K
Ġh at
Ġampl ification
Ġsort ing
Ġproble matic
Ġequal To
ĠScot tish
F ac
M obile
Ġ' )
19 46
Ġcomb at
h int
Ġa side
Ġtyp ed
NO WN
syn chron
textg reek
por ter
ĠIra q
D K
network s
embed ding
s ense
Ġd type
Ġsemis imple
ch r
im m
Ġequival ences
h orizon
Ġ( <
Ġhalo es
V oid
pro files
ol sep
Ġold est
ta ctic
enti a
Rep ly
C oup
ĠI SO
ĠDis tribution
ĠE mpty
B ot
ran g
cal ib
d os
ĠP NG
Ġmod est
Ġdecoup ling
mog orov
C ert
ĠP latform
ag en
ÐµÐ ´
H ilbert
z n
ĠM ountain
Ġbutton s
E ast
ĠCal abi
met all
ĠL C
dro me
Ġair port
Ġther apy
ĠS GD
LO CAL
ILE D
Y u
Ġfriend ly
ĠH ay
Ġcorre lators
Q UE
Ġs tim
ĠValid ation
Ġalloc ate
Ġorigin ating
Ġreg ulation
ĠIs la
E LEMENT
ump tions
C rypto
Ġbreak down
aff ected
Par allel
}\, (
} "/>
de gr
ma ble
Ġsix th
ĠReg Exp
L aw
ĠI de
extrac olsep
Ġrecon c
ĠP ick
ens on
put y
ĠRec ent
Ġvis iting
_ -\
Ġco gnitive
Op ts
Ph ot
Ġso il
ĠÐ ¼
Ġp b
Ġsub class
ĠRe LU
30 3
EN S
inter actions
over y
> ');
ren ormal
allow s
ex e
Ġc ult
si o
ĠAll en
Fin ite
ĠSh er
sc l
to k
0 35
re action
ĠHel p
AD DR
ane ously
mas sive
] |
ĠD AM
}}, {\
Ġrestric ts
ot ype
Ġspeak ers
x r
Ġun correlated
ĠU T
Ġparameter ization
Ġpor tions
care t
ĠDo main
Ġ )$.
Proto s
65 5
19 1
ĠExp lor
onom ical
Ġenerge tic
C odes
P ull
Ar tifact
Ġaccess key
ĠEn sure
re cent
ĠC ME
19 42
Sub scri
un s
DI RECT
ĠTur k
ĠI a
ĠP it
ex am
ĠAtlan tic
ĠĠĠĠĠĠĠĠĠĠĠĠĠĠĠĠĠĠĠĠĠĠĠĠĠĠĠĠĠĠĠĠ ĠĠĠĠĠĠĠĠĠĠĠĠĠĠĠĠ
leg ation
0 60
v ich
æ ĺ
si le
clu ded
http Request
Produ cer
b A
ĠLorentz ian
W L
ch ing
ab lation
for table
å Ń
ession al
J e
ĠR aj
Trac ing
y x
ĠT ar
Ġbin omial
Ġecon om
Ġflu ids
nof rame
e ms
Ġc ourses
Le ave
ur m
In ject
Ġrestric ting
G ar
t one
ĠC lean
Ġsl iding
p zc
Ġv ital
J L
Ġa thle
Ġequ ilibria
ĠÂ ·
Et Al
Ġplugin s
Big gl
v et
Ġann ulus
)$ ]
Ġclar ify
ni o
c rypto
[-> ,
y ard
Rec on
Ġsimula tor
> /
pi ece
ta p
Ġche ap
ĠHistor ic
Ġk a
Ġclu mps
oci ate
ĠĠĠĠĠĠĠĠĠĠĠĠĠĠĠĠĠĠĠĠĠĠĠĠĠĠĠĠĠĠĠĠĠĠĠĠĠĠĠĠĠĠĠĠĠĠĠĠĠĠĠĠĠĠĠĠĠĠĠĠĠĠĠĠ ĠĠĠĠĠĠĠĠĠĠĠĠĠĠĠĠĠĠĠĠĠĠĠĠĠĠĠĠĠĠĠĠĠĠĠĠĠĠĠĠĠĠĠĠĠĠĠĠĠĠĠĠĠĠĠĠĠĠĠĠĠĠĠĠ
mi tives
z an
Ġhealth care
25 8
tor us
S ibling
m ier
Vari ables
Ġ} _
Link s
er or
Ġsche matic
fil er
Ġpropag ators
Ġformu lations
assert Raises
ĠCont ract
}~ (
ĠCELL PADDING
ĠC CD
ĠIn fo
Ġbo ys
F IR
t um
}$ ~\
Ġ" ")
Ġre versal
ĠF ields
ĠAr gent
Ġeducation al
19 43
Ġinter play
CON NE
he avy
IN R
Ġhem is
/ }
ÐµÐ ¼
ĠCELL SPACING
Ġf abric
ĠU int
ob jective
Ġenjoy ed
Ġdup licate
an other
Ġint rac
Ġag gregated
PC A
19 49
olog ists
DEF INE
Ġsympt oms
select font
Ġemplo ys
Ġinstant on
C i
Ġthe ta
20 48
ĠC ru
Ġ\ },
Ġdiver gences
ĠP P
o on
ĠM LP
Ġsearch ed
C lip
Ġb ending
({ },
AC CESS
Ġadminist rative
Ġe leg
is ta
syn tax
st ries
Ġglu ons
Ġburn ing
Ġemphas is
ĠB ou
Ġleak age
ĠG allery
Ġcategor ical
b ench
ĠV ery
ĠE valuation
ĠHe ader
Ġear liest
Ġorgan ic
Ġwonder ful
29 5
Ġ( );
Ġrefere e
Ġsign ing
ch arged
19 47
sv c
Ġth ir
ti um
19 41
comp ressed
Ġoffic ially
ene z
Get Type
(\ |
ĠHar ris
pr incipal
mon o
NN s
ĠFore ign
ĠBra d
Ġalgebra ically
k x
og n
Ġf old
ĠM ul
ĠP ART
co verage
Ġad vis
enc er
worth y
c R
Ġr ural
pos it
long mapsto
Au stral
listener s
sh i
\% $,
TIM EOUT
re spect
Ġvor ticity
l arg
Ġrep lication
Transform er
Ñ Ħ
ĠC MD
mon itor
ont inu
ĠPo inter
Ġstack s
Phys ics
d W
local ly
MLE lement
ĠP lugin
Ġpartners hip
= _
Ġv ent
ĠM M
Ġcommit ment
ĠPDF s
Ġvictim s
Ġf ading
m outh
U TE
Ġwar nings
2 14
rid ges
expan ded
le pton
ĠB F
Big gr
big vee
loy d
FLO AT
Ġde bt
Ġcontroll ers
repres ent
ĠLink ed
st en
ĠGL enum
ul ant
Ġheavi er
Ġcooper ative
U tilities
Ġre po
Ġsu it
{\ ,\
Ġman aging
T ele
IN LINE
ĠS eq
Ġloc ate
xxxx xxxx
ĠEx change
Ġassign ing
sh ake
process es
V L
inherit Doc
Ġmitig ate
Ġmonop ole
n pm
Ġch at
field set
Ġemer ges
re ma
Ġfree ze
PO INT
ĠExecu tive
optim ization
ĠSm art
le ast
std out
ĠStar ting
ĠMal ay
trac king
ĠN ature
Dec or
Ġc aching
Un able
Ġtal ent
........ ........
3 64
Ġquanti tatively
Ġsupp lement
Ġste m
Ġclub s
22 6
Ġcharacter izing
+ -
M artin
ĠF F
Ġenem y
ĠE lectron
Ġsta ke
andid ates
Ġtransf ers
Ġcor onal
level s
t rees
Ġ\\ &
Ġcal or
ffff ffff
od s
ĠJes us
{ =
Sub mit
Sched ule
c amp
d ar
ro bot
28 5
Ġh az
ĠN H
] \,
ĠS ame
Î ·
Ġy ards
Ġf iring
Ġte en
Ġp ic
Ġ) {
Ð½ Ð¾
ĠE nt
Ġopin ions
Ġto x
co hol
ĠM un
f ive
^{* }\
lo re
Ġiter ated
Ġpro tot
}} }^{
}_{ (\
scal es
ho o
Ġtra v
Ġvio lating
I r
lat in
ER Y
Dem o
Q M
ĠS cript
con cent
ĠPri ze
In jection
View s
f usion
Ġra ising
4 20
\ ^
bro ken
math pzc
Ġl uminous
ĠS ie
IC AL
Ġis set
P ark
en space
ors es
Ġt aught
Ġd imin
des h
is te
Ð° Ð»
Ġdi am
B re
, </
ĠM att
po or
Ġent rance
LOB AL
Ġtransp ose
y ers
Ad ded
Ġbounded ness
x d
Ġbar riers
c um
an alog
ĠU E
26 2
Ġ= -
Ġunit arity
pay ment
Ġdepart ure
end region
ĠE OS
Ġtermin ate
ĠSci entific
ĠMin nesota
âĶĢ âĶĢ
ĠL ady
conj ug
Ġo ps
_{ _
new theorem
Ġleg iti
pre diction
Ġback wards
ĠU pon
Ass ignment
Call backs
}} }$.
quar ters
ĠF IR
Ġdepth s
Ġfall back
22 1
de ll
ĠH aving
Ġphys ic
ĠTra de
tite m
Ġb ranes
x shift
ĠM ars
Ġquar tic
E val
Ġst orm
Ġst reets
Ġdes criptors
D ER
Ã ł
A RE
f eld
g alaxies
ç »
ĠA h
ĠN R
fa ults
Ġconstruct s
pur ple
0 45
gra v
ĠSp lit
we i
effici ency
N LS
Ġpay off
& {\
Un defined
ĠTra vel
Fin der
F ourier
gr p
J ack
Ġsti mu
normal ize
Pro pagation
ĠSe ason
ĠInt roduction
Phys ical
Ġ& (
ers tein
Ġab straction
Ġin form
ĠB B
Ġnormal ised
C AT
}$ }}
Ġimp l
Com ments
Ġmal icious
ge om
Ġl ifts
ĠK evin
l uminosity
ĠBit coin
Ġpro ud
Ġ\! \!
Ġnon commutative
oint ment
; {\
Custom er
Ġguide lines
ester day
ĠPhi ladelphia
O ps
Ġper colation
Ġbro ke
ĠMo vie
8 75
ĠN ations
ĠR aw
oc entric
Str ong
Ġsub division
Ġinser ting
Ġobsta cles
A ge
Ġstiff ness
ĠRE AD
Ġhist ories
g ui
co vers
mark et
est ors
ne e
ĠEq n
are to
^* ,\
Ġmon odromy
estab lished
/ '
g w
C op
d it
ĠC rypto
ĠDe pend
Ġspher ically
B AD
s an
Ġpre ci
b P
ach ie
Ġheight s
ĠS el
Ġintegr ity
LE FT
ĠB os
ĠERR OR
ĠE uro
ome d
ĠAP Is
F a
chi e
Ġhit ting
ĠH amp
Ġarg v
Ġ* */
Ġcan on
Un like
V IS
x l
18 1
30 7
Field Value
Ġcompac tification
Ġres cue
he im
OFF SET
f ts
lin ing
Ġ" ");
ĠQu estion
A mp
k d
Res tric
ĠK K
22 9
ĠComp uting
Ġtrac ed
Ġpolitic ians
Ġs sl
Ġs oc
get Data
Ġfootball ers
il ds
lat ure
end i
Dis able
tech n
}\ }\
Ġpro test
Ġsp oke
correspon ds
ranch ise
Volume Source
ĠCom ment
rom ov
Ġcompens ation
' )=
: @
Ġc v
T om
Ġun directed
"> &#
lec tively
ĠQ SO
{ ~
acknowledge ments
Ġ ì
or able
Ġord inal
ed a
Ġh r
Ġbo at
Ġintegra bility
Ġcard inal
url s
et ale
F lo
m illi
ig ator
Ġco ales
Ġmo on
val ence
per fect
ĠT en
Ġad ults
Ġconstant ly
FE ATURE
J J
le ans
Ġcoordin ation
mix in
ma to
Ġme V
al ink
base lineskip
M il
ci i
Ġpartition ed
Ġsepar ator
Cho ice
in ch
ĠBe gin
Ġsoft max
a bel
Prop Types
identif ied
Ġ===== ===
lo on
Ġne bula
ĠComp uter
H en
Ġb orrow
Ġprogen itor
c riteria
H uman
M arch
s pherical
Ġ* **
is Valid
Ġhor se
al gorithms
ij kl
Ġ< ?
Conver gence
medi an
ĠMe mbers
fin es
Ġv ocabulary
Ġreprodu ces
Ġvir us
N H
ol in
ĠE dition
ms kip
br is
Al tern
ĠM es
Ġmultip let
ĠVis it
Ġsequential ly
] ));
Ġra tings
Ġsto od
ĠAccording ly
hed ra
s ures
ĠP rem
Ġwork space
On line
ĠWork s
W ire
chest ra
ig s
st ock
pro x
23 3
ath y
ha i
p read
pro gressive
ĠQ String
M ul
Ġb irds
ur g
os si
ST D
Ġaccomp lish
Suppress Warnings
Ġa mple
TE MPLATE
60 25
char set
7 20
B ob
ĠS ti
Ġtra pping
Ġrecor dings
Ġdiscrimin ant
ĠS TD
w c
w allet
Ġaware ness
ĠCurrent ly
U INT
Ĩ Ĵ
Ch an
Ġcomple ting
Serial izable
ĠL oc
Ġch unks
in fer
ĠE oS
Ġj e
tor sion
STAT IC
Ġlo s
Ġco set
ĠRed is
o ves
Ġf f
Ġintern ally
Ġdisorder ed
W I
f lash
ol id
at an
ĠR AM
Ġaf for
L ER
Ġser iously
U i
an im
st rength
om on
h g
L ater
o si
ĠN iger
)\ |_
ĠK ir
Ġoscil latory
FLA GS
Cat alog
W O
ĠCo q
Ġme mo
Byte Array
ĠS ide
ĠE ver
av al
Ġappear ances
22 3
Re fs
}/ (
S ound
Ã ª
Ġp lug
ĠS ix
fla vor
Ġqu ies
Ġti cket
ĠG S
A rt
Ġgeome trically
B rand
a graph
Ġsp ir
Te am
Ġv eter
Ġbe auty
Ġe lu
ext ype
Ġcancel led
G UI
O pa
Ġpromo ted
Ġsla ve
ĠAri zona
)) -
ENT ER
Indic es
b ic
ĠE L
ĠMor se
su gges
Ġun used
Ġsp ike
other mal
Ġresource GroupName
w y
Ġset Up
ĠOb jects
as set
W ho
h owever
ĠW as
Ġquan tified
Ġshell s
Indic ator
de velopment
Ġfile d
Ġconc ert
L AT
th ink
ĠM AP
Tran sp
ĠJ en
ĠB ush
ans en
comp ilation
d og
ĠH AVE
Res pon
Ð½ Ñĭ
uck er
Ġre named
pr ising
\\ &\
Ġen umerable
Cur ve
Ġvulner able
and al
jack son
re search
Ġd c
Ġassoci ations
Util ity
Ġtw in
$-- $
ĠRay leigh
^ (
Ġat tain
dire ctive
Kn own
ĠP ed
Ġgather ed
Ġac yclic
N EL
Ġhash Code
~$ {\
ver sed
ĠA bs
ĠSch ur
un used
di o
-------- ---
Ori entation
ĠRe volution
Ġdi laton
40 5
S am
Ġredu ctions
Ġs eq
h phantom
ĠHub bard
Ġro ads
' )^
ĠIn it
Ġdiscre tized
F ran
ĠCon cept
3 90
ok er
Ed m
M us
P Q
Ġstrate gic
å ľ
ke ley
Ass ociation
ĠH i
size i
Ġkey board
Ġkey words
Ġdemand ing
sta tistical
UD ING
Ġs ibling
ĠT T
Ġ" {
30 2
Ġdesign er
ĠK er
b eck
lem m
Ġam enable
aspect ratio
Ġsup remum
Ġsimpl ification
ĠDu ke
E scape
i ang
qu eness
Ġun necessary
User name
ĠHol lywood
ĠG ate
Ġinter change
Ġ\; .
Perm issions
CONT RO
> {\
\ }\\
Ġani mated
GRO UP
Ġ+ +(
Ġaxi om
Ġre dis
ign ite
US B
0 27
Ġcap s
un es
TR ACE
ma ker
. âĢĻ
B ell
X S
ĠF ail
ĠLo ss
Is Null
Pr incipal
FUN C
24 7
(( (
ERR IDE
itro gen
Ġ{ !
ĠSil ver
h oc
Ġresemble s
au ge
ĠD ATA
24 8
interopRequire Default
ĠC ook
Ġdo cker
Ð¾Ð ³
C LO
im an
Numer ic
ElementsBy TagName
Ġk nock
integra ted
SE TT
Ġs oul
25 4
23 9
mic ron
Ġillumin ation
ĠS G
log arith
CO PY
ĠDes cribe
cyc lic
Ġneighb ours
Man ifest
ĠA DD
DE VICE
Ðµ Ð»
Ġmeta v
T Z
' }$,
pp i
er ated
Ġtransform ing
ruled tabular
Ġc ow
ĠCon v
chro matic
N OS
Ġg uided
Ġsit uated
Ġvis ually
$& $\
! )
Ġp df
Comp osite
loc ated
Ġexam ining
ĠL ess
Spec ific
}) }.
[] )
Hel pers
Ġ' ');
> ",
}{ }{
s ong
Ġ( ;
High light
gra ding
IG O
Debug ger
ĠExp ress
suc ceq
A ir
Ġman agers
Ġsemic lassical
ad get
ĠState ment
Ġreser ve
Ġinter cept
T ON
e poch
Ġelabor ate
ĠD ocker
^+ $.
Java Script
| /
æ Ĺ
Ġin distinguish
Ġdis s
sol ar
j n
j t
ata ble
Ġ. $$
ann y
Ġac tively
Ġdevelop s
B Z
Ġenter tainment
Q N
Ġpers istence
ĠAcc ount
Ġpoly g
Ġre connection
. %
ĠN IR
ĠP N
den ote
" </
ct xt
cur vature
Ro tation
Ġroun ded
mag net
W itten
| +|
b q
ser vers
oc a
J ames
Ġsp ite
file Name
Ġconduct ing
hib ition
l isted
Ġat tor
Ġr ub
Ġ/ ></
Ġins ensitive
f mf
Ġreal m
dim s
t ens
^{* }_{
Ġel imination
list en
arc ia
Ġto w
ĠImple ment
Ġ$ >$
Ġi v
ĠCal led
$\ ;
wh eel
Ġsynthes ized
S parse
C lassification
ro matic
Ġenga ge
pi on
Ġb es
oun ters
me tal
D AT
Ġre size
Ġ ../
Ġp ot
ct ree
ĠPat rick
c rc
ul li
Ġv tk
Ġpe ers
}_ -
Inv ocation
is si
ĠB us
Ġd ama
as sume
ĠBut ton
h dr
Ġequ i
quark s
ili ation
Ġde fer
}} }$,
wart z
ĠR ES
ĠH ell
my vec
Ġfem ales
pro jective
ĠDis ney
IS H
similar ity
ĠMar shal
Sim ons
ĠJ am
Red irect
studi ed
At trib
Doc trine
ĠF lag
ĠD WORD
Ġde coded
J O
Ġgroup ing
}) },
)] ^
N LO
M el
theore tical
us al
con tributed
Ġno va
ĠTur key
Ġpre condition
ber ta
j ac
ĠG EN
Ġev il
R U
i w
k ill
Ġl ighter
member Of
Mac ro
Bet ween
ur ers
defin itions
m w
ĠRe lations
Ġstart up
ĠHigh er
Ġexec utor
Ġin hibit
^{ ++
pan ic
Tok ens
Ġst oring
pi ents
A wait
Ġle ts
Ġpro jec
Ġmim ic
24 6
Ġiso late
ĠOrgan ization
]{ .
CO RE
lu stra
Ġ) ^{
g ri
Ġequ atorial
Sl ider
< >(
in tern
Ġinte l
ct an
Ġpri mal
Ġcondens ation
ĠWis consin
it ting
vari ants
ĠD ave
ĠQ t
DE S
ĠR an
Ġneutr ons
Ġprepar ing
R iemann
f undamental
ĠG TEST
tra its
0 80
Ġs ens
sp read
PR B
s ph
Ġ( @
ĠC N
Col lector
Ġmaxim ization
H N
× Ķ
Ġd atum
Ġclean up
Ġf ounder
ĠM art
Http Request
Ġpre d
="# "
di jit
r z
{\ |
The ir
Ġan ticip
wh el
Ġsub mission
occ up
R CC
A rm
Ġped estri
M as
Ġcy ber
C ube
ĠR ather
AV A
ĠGa ia
ur u
ĠCl ark
Ġglu ing
" \
m ms
Ġp ra
b age
Ġ= (
Ġdoc s
Ġrep orter
O G
ag le
Insp ector
Ġsc in
g mail
ĠG as
Ġpo set
ĠSo ft
23 6
char At
cr umb
ĠCNN s
Ġcub es
Ġ: \
Ġconstitu ent
| \\
circ uit
ĠPre dic
R ound
Ġj am
/ %
ĠG D
Ġspace times
, (\
ĠĠĠĠĠĠĠĠĠĠĠĠĠĠĠĠĠĠĠĠĠĠĠĠĠĠĠĠĠĠĠĠ ĠĠĠĠĠĠĠĠĠĠĠĠĠĠĠĠĠĠĠĠĠĠĠ
ĠMan chester
^{ **
in dividual
Ġad mitted
d ens
Ġp ray
ierarch y
ĠCast le
uniform ly
g ree
Ġref lections
Ġh etero
ĠD etermin
Ġcan ce
Ġpar allax
split ting
Ġr ush
hu ang
CV PR
Ġlocal ity
ge b
Render ing
Ġconflic ts
[ {
ĠF ive
Ġver ifies
Ġtwe ets
Ġto mo
Alloc ator
C oin
ĠK ansas
Ġen compass
z ar
aris ki
Ġev al
ĠDe faults
Ġw ine
sp er
ĠRemark s
d j
Ġ$\ {(
No tify
x hr
ĠD imension
^+ (\
Ġgra ss
Null Exception
so v
col n
Ġmetall icities
um mer
Ġoccur rences
ĠWik ipedia
Ġlad der
di table
C andidate
H il
Ġa ws
T ARGET
ĠP G
ĠSta dium
Ġarri ves
Ġstabil ization
Bal ancer
Ġwin ners
ĠEV ENT
cre ation
Ġen th
h en
D ual
Ġb omb
la unch
ĠA G
Ġchrom os
w x
for ge
top ological
ĠC am
S lide
a con
ĠT ypes
NU MBER
qu er
la v
ĠH ave
ĠK os
PROPERT Y
) )\\
ĠB oh
Ġneighborhood s
F lush
Ġ/ ><
Ġdirection al
single ton
ĠJ ay
33 6
ro it
ra ses
ĠC ape
con cept
ĠS MB
Ġcharacter izes
18 00
ta tivity
"> {
ĠO ak
Ġmus icians
F ro
ropol itan
G ordon
Ġwith draw
Requ ested
domain s
Ġremn ant
}} }^
Ġover lay
ĠAr chive
Ġvis itor
D ark
AC S
Conn ections
recor ds
OUT PUT
Ġexemp l
w estern
row color
ex emp
Ġtreat ments
Ġc rop
ĠP atch
te es
ange vin
Po sitive
Ġc ata
Json Property
Dire ctive
ĠP ad
Un ion
c ause
ion al
symbol s
Get String
Pre view
!! !!
=" '
ĠO s
ĠPro vid
UT C
Ø ³
K u
b rew
ĠDie go
Ġrepe ating
Ġenumer ation
ĠDe veloper
ĠNe ed
Attr s
es pecially
Ġcompe te
De finitions
Ġorigin ate
acc i
Ġobe ys
comp iled
ĠCl inton
measure ments
Spr ing
seman tic
Ġll vm
ĠE pis
19 36
Ġ"- //
Ġtra its
S b
Ġdomin ating
ĠIP v
ri ble
T ITLE
Dec omp
respon d
coc os
Ġd p
Syntax Kind
Ġtag ged
ip es
G rant
ĠW or
ab und
ĠK h
ĠMi ami
J M
c ibility
Pro jection
St udio
~$ (
@ {-
Ù Ĭ
rep rene
Ġrepla ces
ĠRE G
Fore ign
U PDATE
ke eper
Ġpol lu
Ã§ Ã£o
kra ine
Ġ\ `
et ooth
c ategor
t odo
f olds
{ }{\
Pre par
Ġexp ense
Imple mented
Ġ' ../
Ġcondition ing
Ġti e
A belian
Ġpush ing
Ġcongru ence
d ote
( ",
ĠSte in
far cs
L ess
W ISE
igu ing
ennes see
at on
ĠDem entia
Star ted
host name
ed y
ĠT ak
Ġal beit
ĠM echan
Ġdefe at
b ine
ĠO cc
Ġsatisf actory
V i
Ġ$ +$
sc enario
CT L
Ġcar riers
Fin ished
Ġover rid
86 6025
ĠMat thew
Ġcelebra ted
appropri ate
lo gy
ĠO regon
inter sect
Ġa st
lect ual
bb on
: .
ĠU INT
AL LOW
Ġdocument ary
F ront
V an
Ġb ran
ag g
ĠT ax
en tative
ac tivation
(" -
Text View
Spe aker
D LL
pal ette
ou sed
}[ ]
Ġnumer ator
me V
U NS
Ġb rowsers
ou in
ĠS in
{ +}
Ġpress ures
ĠG amma
B IN
ĠR ank
no br
H at
|| _
nu clear
ĠKore an
Ġt an
pos able
ĠRail way
Ġpay ing
ĠValue Error
Ġexhib ited
o val
N Unit
Con tainers
art z
iter ation
Ġtor oidal
HEAD ER
Ġsh a
orbit al
.. .\
de ad
ph asing
Experim ent
ĠU r
ĠJ ane
tim odal
fra ct
Ġl icensed
ĠWh ich
Ġsuff ers
}) (-
Rep lication
25 3
Ġparticip ating
Ġ) :
Ġdraw s
Ġp iano
g host
, "./
ĠZ ero
cy an
K EN
Ġ ĉĊ
Ð ¹
Ġf irms
19 35
Ġdir ty
ĠK u
^* )\
local s
le w
Ġm ales
au ra
Ġ`` \
j ee
ĠP V
up ta
Ī Ĵ
}\, ,\
Ġpay ments
Ġpublish ing
Ġpr icing
Ġenga ged
_{ *}
ĠEnter tainment
Ġpolaris ation
ĠSt udent
Non Null
T K
25 2
25 00
ĠAGN s
li ved
Ġlong itude
Ġvola tility
á »
Ġanalog ously
ĠSwed en
Ġgen re
ĠMem orial
il ty
ĠCON FIG
qu i
], [
c ourse
Ġnecess ity
is Function
ĠD rive
Ġsol vers
Ġw id
}' _{
Ġcon densed
ref lection
FR AME
0 18
Ġwork load
Ġcons ent
^* }\
ĠZ one
soft ware
6 000
cor o
Ġqu enched
ref s
M inu
h k
orth and
s orted
ig ate
ĠT LS
ãģ ®
Ġsudden ly
Ġme d
Ġed ited
}) ),
box es
ĠT CP
*} %
Id le
Ne gative
Ġconvers ations
">( </
ik a
ĠFe atures
B or
Ġso ck
T aylor
f onts
å ¼
=- =-
Ġdiver ges
ch iral
ĠBo y
rect angle
Ġexhib ition
w or
Ġpick ing
Ġorigin s
un ning
">< ![
3 12
So ftware
Ġsuper potential
Av g
Ġdoll ars
b Z
v q
Ġcomp oser
ID S
rb an
ĠS r
Ġ )$,
}$ ]
Ġshe ets
| =\
ĠN um
ac i
' </
Ġpa inter
For mula
pdf string
Ġk wargs
Ġalter ed
="@ +
re try
Resource Id
L ONG
in ely
FO RE
Ġcons isted
Qu ick
OD Y
R b
}) }(
ĠD og
Ġappro val
fun ctor
c ms
t une
ĠO H
or pdfstring
ĠQ ED
Ġlight ing
ap oration
Ġen orm
Ġen velop
tex orpdfstring
h ub
Ġrestric tive
Ġdele ting
Ġconjecture d
2 18
Ġmorph ological
pro g
ĠD ur
Ġinvest ors
ta h
Ġcon sumed
ĠC DF
Ġpublish er
Ġincomp ressible
W at
end ment
ĠY ES
ĠAr thur
0 90
math version
In ser
30 8
Pod s
ĠD am
man ual
sm art
Ġafter noon
\! =\!
ĠMathe matics
Ġco ded
spec ially
Ġthem es
| _\
Ġmu ons
Initial ized
Ġb ird
Ġinflation ary
ĠD iff
ĠSe ven
Ġpromis es
iv ely
m ig
in el
ĠR HS
Ġsyn ap
initial ized
ĠK S
At omic
Ġweb sites
Ġwin ding
Ġs acr
\, }
R AN
Ġw elfare
Ġcomp la
Ġqu aternion
3 70
read able
ĠID s
bar a
vari ation
ĠÐ ·
gu id
Y P
Ġco ffee
ĠM SSM
ĠTh ompson
ĠU P
Ġtop ologies
28 6
r ings
Ġsol itons
Ġb one
rol led
Ġsepar ates
ring e
Ġgra mmar
Ġattra ctor
is omorphic
Ġi OS
=\ ;
] ],
ĠG Cs
AUT O
ac s
ĠA SC
be y
roll ing
T ip
pe ople
Ġchampion ship
}| =
Ġprob able
lo p
place ments
it ored
C ategories
ĠRegion al
Ġw it
Ġformat ted
Ġres um
Ġmunicip ality
Ġpointer s
ĠC ay
} *{
un ed
GEN ER
ro ck
Ġst uck
Ġstack ing
Ġpredomin antly
c rop
Work space
Draw able
get Default
Ġre actor
ĠTra ce
ĠK ron
t bp
in z
Ġper ceived
Ġagree ments
Ġf astest
B ER
util ity
T ak
ĠCont roller
Ã¼ r
] )\
arc min
e asy
ĠC AN
h ler
MA KE
query Selector
Con ditional
ass erstein
ĠOlymp ic
g pp
ĠM enu
eta ble
Match ing
R m
)| _{
C OR
z ag
Ġimp ression
AR M
ĠCat alog
= {(
Ù ĩ
ro tating
Ġcur r
ign e
tr ust
dep loy
G ray
success ful
ĠĠĠĠĠĠĠĠĠĠĠ Ċ
arch itecture
Ġmin ority
call s
~ ~\
\! +\!
Ġvio lations
ĠF al
Ġengine er
ast ers
Ġmedic ine
p rom
H it
less ly
Ġrecipro cal
Ġresis tivity
app lied
ĠIndi ana
ĠC W
ĠW a
ro ots
Ġro yal
P TR
ump y
U r
ar atus
ax ial
Ġpop up
ĠTrans fer
ĠCap ital
G yr
on z
ĠR ound
Ġstand ardi
ĠSecond ly
ĠD VD
ph ic
24 4
Ġsub systems
sk in
Col ors
App ear
Ġvibration al
Ġdefault Value
R v
ch rom
Ġal titude
ĠIn f
ga uss
ĠV or
Ġdebu gging
Ġd v
ĠD rop
Sample s
Ġclassif ying
ian chi
tas tic
Command s
Q T
Ġ`` $
Ġdro pping
u art
F ed
non ym
32 7
circ led
: _
Î »
Ġt ank
ital ic
0 100
pro fit
Su ffix
, %
ĠCon struction
Ġch ord
Con struction
local ized
Ġd am
19 37
Ġstri de
M ULT
ĠH F
phon on
ic it
pro f
dis cre
impro ved
Ġtrac table
F ACE
\ }^{
ĠJ upiter
Cast le
AM S
( [\
Ġmagnet o
o th
ĠS ql
V a
é Ģ
Ġ\, {\
4 40
Ġun resolved
inter mediate
polar ization
? </
x FF
Ġabsor bing
Pay ment
col s
Ġin decomposable
de e
ĠC ost
ree ment
Ġ\ @
rep la
ense m
-- )
ĠM oh
weak ly
s ink
f ew
p oll
the ight
b rac
_{ ,
ĠGrass mann
T an
' $-
P lain
Ġtr usted
th umb
S trict
ch ars
DEF IN
d as
roll ers
Ġmaxim izes
Ġad option
Ġlight s
syn thesize
ĠK now
35 5
Ġd g
ĠN am
$\% $
B lo
Ġderiv ations
Ġ[ $
hy brid
] }}
Ġpre cession
Ġlegis lation
0 34
c K
er ves
ĠO sc
19 38
Pro f
Ġutil izes
tribut or
Ġincorpor ates
ĠHol y
ph ones
Ġbe ach
Ġinv ited
Ġproject or
Ġbeh alf
ĠR MS
Out Of
" +
g old
ĠA UC
pro posed
ENABLE D
ĠN ich
T N
32 4
Ġsh aped
R ou
continu ity
Ġsub tracting
Ġacc used
ĠR CC
With Error
Mu tex
Ġsp ell
>: ]<
B as
ĠRo berts
CK ET
AT L
D ump
S dk
de leted
Global ization
% );
ĠWeb site
I tal
Ex isting
Pa ul
-------- -
amb ers
Ġenc ounters
font size
Ġfi xture
UL AR
ĠSwed ish
× ª
ti de
Ġdecoup led
Cri tical
ra ge
Ġne g
' }),
D onald
Ġfra ud
Ġf b
ma pper
Ġb om
Ġenga gement
E m
or o
ĠRes p
Ġm k
ore sc
ĠE E
Ġoccasion ally
Ġrep utation
Ġelectro static
con duct
Ġre start
gra des
Ġoff ensive
Ġstrug gle
um ble
F o
Ġex oplan
ĠAct ually
/ ,
M K
44 38
\ })$
Â ®
Ġattack ed
C AN
GR ect
Ġh ub
ĠCar l
Instance Of
Ne u
Ġr b
Name Link
requ ests
inherit doc
="# ">
repres ented
Ġc ave
Ġ` $
Ġorigin ates
ĠW riting
ĠE ve
pec trum
tag Name
ĠLi u
reson ant
ĠE mber
ĠG ri
ĠST AT
Ġfavor able
Ġdis continuous
ĠFact ory
Ġ }\\
ether ian
Ġbelie ves
ĠTh er
where as
ĠHaw ai
ĠSu ccess
ĠTra its
Handle TypeDef
P at
âĢ¦ .
F V
ax ter
Ġmatch er
ED IT
Ġexam ination
ogen ic
respon sive
>() </
Q G
Sw ift
Ø§ ÙĦ
g lass
~ &
Ġx si
ĠV GG
s yste
ĠS core
Ġ* (
ĠV in
comp ression
Ġorth ogonality
tis ation
Ġbary onic
Ġfol k
Ġantic ipated
reco gn
| ^\
Bri tish
WIT H
un skip
Ġ- {\
inst ances
Ġnucle ons
Ġp g
Ġ( |
Ġcom oving
ĠSp in
Pro vid
Ġbelie fs
ĠPer iod
ĠGener ator
ĠSD L
la zy
Ġg lue
ĠG ordon
M vc
on na
Ġoper and
Ġpaint ing
Ġsepar ations
Ġfail ing
Ġfile Name
Sh ard
Comp ile
bin s
Ġafter wards
24 3
Ġtool tip
n om
Ġsec ular
Ar chive
supp orts
D Y
| |_{
}| _{\
4 60
clear page
LE S
W ould
Ġs q
Gener ation
s af
ad missible
ides pread
z illa
ĠB atch
Ex ist
Ġtw elve
{ {{\
I OS
Ġhom omorphisms
SD K
lem ented
TH READ
33 5
K F
ay an
Tool bar
max im
vis ited
Ġemploy ment
}} }.
typ ically
ov y
Ġwhere in
pos al
UM ENT
Per cent
monot onic
ĠComp aring
itzer land
}} )^
dis pose
Incre ment
Ġcol lapsed
Ġis l
Ġcompris ed
Ñ ī
}$ &$
Ġdis advan
)! }
M Z
ĠWIT H
log s
ĠK on
Ġfore sts
Ġsupercon ductivity
ĠLab our
Ġc able
ĠW alker
Ġaccompan ying
ĠM aria
H an
pro mpt
Ġtown s
ĠAl loc
No tation
ĉĉĉĉĉĉĉĉ ĉĉĉĉ
N EXT
ĠB SD
il ers
}\ \\
ĠD yn
Ġf ic
Ġme tab
Min imum
im odal
: **
Ġen titled
] >
Ġdomin ance
Ġsh el
ĠV ER
discus sed
al ready
{\ #
set Value
40 378
' "
dim en
Ar c
(" [
ĠF B
de lux
ĠA lan
Ġper mits
Ġdiff usive
ir ts
St mt
Int ro
ĠPrem ier
o a
Ġg ases
H aw
c if
}$ --
866025 40378
}_{ {
Ġpur sue
Ġrest oration
domin ant
ĠM ER
Il legal
rece ive
ser if
(' \
ick ing
Ġs lab
ex ceptions
decor ate
Ġpre defined
r hs
ht p
Ġreson ator
( <
ĠS imp
Ġk in
ick en
Ġmention ing
u tational
Doc s
9 80
id able
ast s
ĠSol id
Ob viously
. (*
D ao
read crumb
Ġconfir mation
G ro
big otimes
stats models
B io
ing ers
,\ {
Ġinnov ative
ĠB EC
irr ors
Ġidemp otent
Ġcr icket
US H
su ffix
Ġpower ed
Ġdep letion
ADD RESS
L ex
W s
repres entations
teen th
observ able
P ART
s lug
å Ľ
erm ine
ST ER
ere z
Ġsub tree
Ġreg ulations
Ġenclo sed
, ''
L am
Dif ference
+ ,
Ġanc estor
Ġjo ins
bu ffers
Ġnovel s
ph ore
ĠK ur
cal ibration
ert z
Ġsum med
ĠO t
Ġt one
ĠE volution
Ġwave guide
Ġoscilla ting
- |\
ĠN ev
( _.
Ch ars
ival ently
Ġeffici encies
Re fer
sen sitivity
diver gence
Ġincrement al
; -
I de
ic ed
ap t
ric ulum
ba ma
H or
T Q
Ġmem ories
ĠĠĠĠĠĠĠĠ čĊ
ĠM ol
Ġanswer ed
sh ifted
Ġtensor flow
Ġpre sidential
by e
om i
/ ************************************************************************
] (\
Ñ ĸ
Ġout ward
Ġborder s
wik ipedia
K ing
co ck
Ġmultip liers
ĠNo tes
ĠTr igger
Ġcompens ate
in variance
Ġprocess ors
ĠAn thony
IT EM
ĠNe u
Pers onal
ti sts
Ġf undam
Ġtor i
E uler
pa gated
Ġline width
asi o
ĠFin ancial
Ġbra id
c andidate
sk ew
30 9
lin eno
ĠCap tain
Ġdras tically
J apan
Ġsub graphs
red is
ĠInd ones
$ }\\
W al
u ph
27 7
sched uler
integra ble
Ġe cos
mp l
ich i
40 3
Ġwe igh
C Sharp
ĠW IMP
tri bs
Ġscal ability
Ġnar rative
P oli
ĠY an
ĠAc tivity
S AT
lu a
Ġdis tricts
Ġinv ocation
ĠHa ar
T oday
SR C
2 99
G LOBAL
delux etable
ĠArch itecture
data sets
Ġprob ed
pa use
Ġroll ing
Ġh ooks
Ġdis tillation
Ġtil t
w ant
ĠW u
Ġsc ar
OP ER
:=\ {
y k
ĠB erry
ĠHow ard
Ġarrange ments
col ored
Ġgeneral izations
Ġredu cible
ĠD F
ĠTran sp
80 80
custom er
imod ule
ĠStr ong
ĠQue ens
Conn ected
IS A
ss a
32 8
Ar ticle
Ġfin ance
hy thm
Ġbal ancing
remain ing
The ory
Ġimp ed
meas urable
ĠD ick
z u
ti mate
ĠJ ason
Inter op
P IN
gin o
ĠLi ver
m ir
Ġsusp ended
ATTR IBUTE
Ġout burst
Ġ' :
Ġdec ides
per ience
app lications
E volution
W i
Ġg ang
}\ \[
}} ).
Ġper spectives
ĠBet ween
m irror
19 18
friend ly
s ensor
sequ ential
Ï Ĥ
Ġob li
%%%%%%%% %%%%%%%%
Ġeigens tate
A mazon
ĠRuntime Exception
ĠGo String
Ġsynchron ous
40 8
_+ ,
S and
s x
ss h
Cre ator
( ',
^{ {
ĠD ist
uby te
it ure
ĠRo om
ran ging
ĠPr ice
ĠB UT
con version
ĠX XX
Input s
ĠEx ternal
w g
D ra
n ick
Clo sure
> ("
Ġspa ced
Ġconf used
Throw able
P LAY
Ġn ullable
Ġswe et
80 2
organ ization
j math
conf irmed
Ġw ed
ĠK y
ur us
MAT CH
I ma
Ġvisual ize
NE SS
Ġla ke
\| ^{
ĠSta tic
Ġfac ulty
meter y
Ġexper tise
widget s
View port
Event Handler
qu ire
Se g
ĠEn um
Ġsuccess or
I CT
li on
match er
Ġdoc umented
se k
19 19
top es
dist inct
c tively
ĠB U
28 7
Ġhol iday
Inter estingly
|}{ $
ter ed
bo y
hu a
ãĥ ¼
) ::
Ġcomp ress
BE GIN
\ }=
n w
ĠD ia
Ġun lock
Ġo ct
Ġwatch ed
me ters
Car lo
Ġprob ing
Ġdeli ber
in cess
mu ch
ĠMary land
Ġh ockey
ĠC ONT
ĠAr ticle
hi bi
ĠPer haps
Hash Code
CP P
FA ILED
Ġweek ly
Ġcontro versi
Ġd ressed
over lap
Inter pre
ĠEcon omic
C riteria
Ġun constrained
Ġref used
gener ating
Ġexpress ing
ĠAppro xi
ri pple
od i
Ġab lation
U uid
Con ditions
64 67
pers istence
Ġres olving
ĠE mer
}_{\ {
ĠMex ican
Read Write
produ ced
ĠR X
Ġ| |\
Ġseem ingly
ĠIsla mic
F em
ĠIn dependent
K A
G V
es Module
G auss
_{\ !
get Parent
lin ders
@ @
ul sion
Ġpre view
ĉĉĉ ĠĠĠ
Ġcollabor ative
S table
ĠIn sert
cont ract
under standing
Aggreg ate
ĠLIMIT ED
f ro
s till
Ġreli ably
inher ited
R oman
st ress
ĠP ho
Ð°Ð º
mes on
fli x
tes ted
sel enium
Nd Ex
xy z
R pc
i at
de b
: /
Ġtext ual
API ENTRY
An swer
ĠSta tistics
ĠDis cussion
ram ified
Mo tion
Red uce
Ġcontribut ors
H AS
R ing
Ï ħ
Ġsta gger
24 9
Ġview port
26 7
lo so
Dis pose
ĠPre vious
S trip
Content Type
{ [\
ail s
Ġh am
ĠHigh way
ĠH ecke
predic ate
se ctor
over s
ĠP ix
ĠB ranch
ĠH it
We yl
C ycle
t om
Ġim balance
Ġse aled
Vis it
n th
He ading
Ġdrop out
ĠS ri
Ġ" (
Ġx y
W ritable
ĠEx ecute
Ġspin ors
Ġ*/ ;
}] =
Target s
Ġbur ied
d ale
ĠM organ
ct ype
ĠN ik
Ġpers ist
ĠLim ited
con structed
gra dle
ĠI owa
co ord
Ġpod s
ĠK az
Ġass essed
ĠSt ars
P ret
J une
Ġmeet ings
an th
Ġreco vers
Ġmesh es
Repres entation
ĠHou ston
Ġag ed
enti le
Expression s
al led
28 4
Ġpack ed
_{ <
ä¸ Ń
Ġintersect ing
ĠL it
Ġover whel
Sch midt
ĠPri or
ĠR on
ran ges
Ġinterpre tations
Ġbre vity
Ġt all
ĠGener ation
an sion
Ġm g
ĠC zech
Ġun set
30 6
Ġpre gn
BIT S
re tt
ĠV K
Ġlinear ity
ĠIR S
Ġcompe tit
0 23
ga ge
ĠG arden
Ġredund ancy
ĠAff airs
CHAN NEL
ĠC AS
item sep
Ġdisc ard
Ġcor ruption
ĠM ilitary
ĠC SI
ĠOper a
Ġreci pe
PARAMET ER
Ġinte lligent
ĠS PE
Ġde uter
Ġapproach ed
l tr
{\ {
ĠAuth ors
Ġg allery
)) +
imp act
ÃŃ a
B usiness
Ġb ib
Ġen forcement
ĠM otor
Ġpeak ed
ch t
ĠF ont
ĠCan cer
m ong
ĠR ect
Ġsamp ler
Mich ael
disper sion
Ġb reed
all eng
IP v
l der
}} )}
ĠT C
DE V
ĠCO PY
PhysRev Lett
. {
d uring
ĠL LC
ĠG un
Ġsugges tion
tr uct
oto pe
S tab
get Logger
Ġaug ment
J et
rac tible
f ocused
Ġdef ici
ĠY u
Ġinf laton
&+ &
t up
X u
Ġp up
Ġref id
z x
D NS
Z e
ĠS kip
ĠComp are
doc umentation
fi xture
ĠG il
70 7
ĠAd ams
ĠBr ill
ul in
ĠC ategory
work ing
Ġgovern or
X Path
j boss
ĠS ab
}( |
../../ ../
iter ate
Ġport ray
ĠNor way
' }^{
ol ph
Key board
Ġ{ [
ĠU ri
VAR I
ator ies
Ġde position
' <
_{+ }
year s
ĠSen ior
L inux
Ġver b
pre ced
recur sive
od b
lst inline
J ones
y on
Ġw idespread
ĠS ymp
)\ |_{\
Ġw aters
ip olar
ĠN ation
over pic
Ġcompan ions
ĠG PS
rc l
posi ted
WIN DO
ĠQu ar
Th ough
ĠF u
ci pher
Ð ±
ĠS cale
h il
st rom
16 00
w l
ĠB ishop
ren d
Ġpre processing
L ittle
Ġh oney
ĠSt udio
w ig
Ġoptim isation
Ġrac ing
Ġmy ster
Ret rie
Loc ator
Ġvo ted
hl js
C ra
W alker
"/> .
c q
Ġsupernova e
Ġc ul
hyper bolic
Ġin hom
ĠT itle
Ġc d
Ġc asc
Ġco hom
Ġdesc ending
ĠV el
Ġtransp arency
may be
S orted
Ġsh utdown
Ġpromo tion
^{ }_{
Ġencoura ged
u med
ĠK han
ĠDemoc rats
mak ers
sol ved
f ade
ĠG ard
spon ding
Index Of
F lu
v est
27 9
Ñģ Ðº
Ġat titude
ĠCom ments
F lat
n ar
Ġnotice able
oxy gen
; "><
erm ark
ĠV a
ol er
ĠN at
b ab
ĠR and
Pro j
lin ical
Appro xi
p ulse
ĠC DM
Ġfirst ly
central ized
ĠCalc ulate
[...]
