{
  "version": "1.0",
  "truncation": null,
  "padding": null,
  "added_tokens": [
    {
      "id": 0,
      "content": "[UNK]",
      "single_word": false,
      "lstrip": false,
      "rstrip": false,
      "normalized": false,
      "special": true
    }
  ],
  "normalizer": null,
  "pre_tokenizer": {
    "type": "Sequence",
    "pretokenizers": [
      {
        "type": "Digits",
        "individual_digits": false
      },
      {
        "type": "ByteLevel",
        "add_prefix_space": false,
        "trim_offsets": true,
        "use_regex": true
      }
    ]
  },
  "post_processor": null,
  "decoder": null,
  "model": {
    "type": "BPE",
    "dropout": null,
    "unk_token": "[UNK]",
    "continuing_subword_prefix": null,
    "end_of_word_suffix": null,
    "fuse_unk": false,
    "byte_fallback": false,
    "vocab": {
      "[UNK]": 0,
      "!": 1,
      "\"": 2,
      "#": 3,
      "$": 4,
      "%": 5,
      "&": 6,
      "'": 7,
      "(": 8,
      ")": 9,
      "*": 10,
      "+": 11,
      ",": 12,
      "-": 13,
      ".": 14,
      "/": 15,
      "0": 16,
      "1": 17,
      "2": 18,
      "3": 19,
      "4": 20,
      "5": 21,
      "6": 22,
      "7": 23,
      "8": 24,
      "9": 25,
      ":": 26,
      ";": 27,
      "<": 28,
      "=": 29,
      ">": 30,
      "?": 31,
      "@": 32,
      "A": 33,
      "B": 34,
      "C": 35,
      "D": 36,
      "E": 37,
      "F": 38,
      "G": 39,
      "H": 40,
      "I": 41,
      "J": 42,
      "K": 43,
      "L": 44,
      "M": 45,
      "N": 46,
      "O": 47,
      "P": 48,
      "Q": 49,
      "R": 50,
      "S": 51,
      "T": 52,
      "U": 53,
      "V": 54,
      "W": 55,
      "X": 56,
      "Y": 57,
      "Z": 58,
      "[": 59,
      "\\": 60,
      "]": 61,
      "^": 62,
      "_": 63,
      "`": 64,
      "a": 65,
      "b": 66,
      "c": 67,
      "d": 68,
      "e": 69,
      "f": 70,
      "g": 71,
      "h": 72,
      "i": 73,
      "j": 74,
      "k": 75,
      "l": 76,
      "m": 77,
      "n": 78,
      "o": 79,
      "p": 80,
      "q": 81,
      "r": 82,
      "s": 83,
      "t": 84,
      "u": 85,
      "v": 86,
      "w": 87,
      "x": 88,
      "y": 89,
      "z": 90,
      "{": 91,
      "|": 92,
      "}": 93,
      "~": 94,
      "¡": 95,
      "¢": 96,
      "£": 97,
      "¤": 98,
      "¥": 99,
      "¦": 100,
      "§": 101,
      "¨": 102,
      "©": 103,
      "ª": 104,
      "«": 105,
      "¬": 106,
      "®": 107,
      "¯": 108,
      "°": 109,
      "±": 110,
      "²": 111,
      "³": 112,
      "´": 113,
      "µ": 114,
      "¶": 115,
      "·": 116,
      "¸": 117,
      "¹": 118,
      "º": 119,
      "»": 120,
      "¼": 121,
      "½": 122,
      "¾": 123,
      "¿": 124,
      "Â": 125,
      "Ã": 126,
      "Ä": 127,
      "Å": 128,
      "Æ": 129,
      "Ç": 130,
      "È": 131,
      "É": 132,
      "Ê": 133,
      "Ë": 134,
      "Ì": 135,
      "Í": 136,
      "Î": 137,
      "Ï": 138,
      "Ð": 139,
      "Ñ": 140,
      "Ò": 141,
      "Ó": 142,
      "Ô": 143,
      "Õ": 144,
      "Ö": 145,
      "×": 146,
      "Ø": 147,
      "Ù": 148,
      "Ú": 149,
      "Û": 150,
      "Ü": 151,
      "Ý": 152,
      "Þ": 153,
      "ß": 154,
      "à": 155,
      "á": 156,
      "â": 157,
      "ã": 158,
      "ä": 159,
      "å": 160,
      "æ": 161,
      "ç": 162,
      "è": 163,
      "é": 164,
      "ê": 165,
      "ë": 166,
      "ì": 167,
      "í": 168,
      "î": 169,
      "ï": 170,
      "ð": 171,
      "ó": 172,
      "ô": 173,
      "Ā": 174,
      "ā": 175,
      "Ă": 176,
      "ă": 177,
      "Ą": 178,
      "ą": 179,
      "Ć": 180,
      "ć": 181,
      "Ĉ": 182,
      "ĉ": 183,
      "Ċ": 184,
      "ċ": 185,
      "Č": 186,
      "č": 187,
      "Ď": 188,
      "ď": 189,
      "Đ": 190,
      "đ": 191,
      "Ē": 192,
      "ē": 193,
      "Ĕ": 194,
      "ĕ": 195,
      "Ė": 196,
      "ė": 197,
      "Ę": 198,
      "ę": 199,
      "Ě": 200,
      "ě": 201,
      "Ĝ": 202,
      "ĝ": 203,
      "Ğ": 204,
      "ğ": 205,
      "Ġ": 206,
      "ġ": 207,
      "Ģ": 208,
      "ģ": 209,
      "Ĥ": 210,
      "ĥ": 211,
      "Ħ": 212,
      "ħ": 213,
      "Ĩ": 214,
      "ĩ": 215,
      "Ī": 216,
      "ī": 217,
      "Ĭ": 218,
      "ĭ": 219,
      "Į": 220,
      "į": 221,
      "İ": 222,
      "ı": 223,
      "Ĳ": 224,
      "ĳ": 225,
      "Ĵ": 226,
      "ĵ": 227,
      "Ķ": 228,
      "ķ": 229,
      "ĸ": 230,
      "Ĺ": 231,
      "ĺ": 232,
      "Ļ": 233,
      "ļ": 234,
      "Ľ": 235,
      "ľ": 236,
      "Ŀ": 237,
      "ŀ": 238,
      "Ł": 239,
      "ł": 240,
      "Ń": 241,
      "ĠĠ": 242,
      "th": 243,
      "in": 244,
      "ĠĠĠĠ": 245,
      "on": 246,
      "er": 247,
      "Ġa": 248,
      "Ġth": 249,
      "re": 250,
      "ti": 251,
      "en": 252,
      "Ġthe": 253,
      "al": 254,
      "Ġs": 255,
      "or": 256,
      "te": 257,
      "Ġ\\": 258,
      "Ġc": 259,
      "is": 260,
      "le": 261,
      "ar": 262,
      "tion": 263,
      "Ġo": 264,
      "Ġ$": 265,
      "an": 266,
      "Ġf": 267,
      "es": 268,
      "Ġw": 269,
      "ma": 270,
      "Ġt": 271,
      "Ġp": 272,
      "ro": 273,
      "Ġof": 274,
      "ĠĠĠ": 275,
      "Ġin": 276,
      "de": 277,
      "ing": 278,
      "Ġb": 279,
      "ta": 280,
      "ĠĠĠĠĠĠĠĠ": 281,
      "Ġan": 282,
      "se": 283,
      "ra": 284,
      "la": 285,
      "ig": 286,
      "ic": 287,
      "me": 288,
      "{\\": 289,
      "Ġand": 290,
      "at": 291,
      "it": 292,
      "Ġto": 293,
      "Ġd": 294,
      "Ġe": 295,
      "st": 296,
      "ent": 297,
      "el": 298,
      "Ġre": 299,
      "Ġn": 300,
      "ed": 301,
      "Ġ(": 302,
      "ou": 303,
      "Ġis": 304,
      "ec": 305,
      "Ġh": 306,
      "si": 307,
      "_{": 308,
      "ol": 309,
      "ce": 310,
      "mp": 311,
      "čĊ": 312,
      "qu": 313,
      "ch": 314,
      "et": 315,
      "Ġm": 316,
      "Ġ=": 317,
      "Ġ$\\": 318,
      "Th": 319,
      "un": 320,
      "lo": 321,
      "ation": 322,
      "tr": 323,
      "math": 324,
      "Ġfor": 325,
      "ur": 326,
      "as": 327,
      "ly": 328,
      "ĠĠĠĠĠĠĠ": 329,
      "ve": 330,
      "Ġg": 331,
      "ver": 332,
      "ter": 333,
      "il": 334,
      "end": 335,
      "ul": 336,
      "ot": 337,
      "um": 338,
      "id": 339,
      "if": 340,
      "Ġcon": 341,
      "Ġ&": 342,
      "ith": 343,
      "}\\": 344,
      "ss": 345,
      "ĉĉ": 346,
      "ge": 347,
      "ĠS": 348,
      "Ġthat": 349,
      "}$": 350,
      "ite": 351,
      "^{": 352,
      "be": 353,
      "ction": 354,
      "Ġv": 355,
      "Ġon": 356,
      "ted": 357,
      "ph": 358,
      "ht": 359,
      "cal": 360,
      "ĠĊ": 361,
      "The": 362,
      "om": 363,
      "am": 364,
      ");": 365,
      "Ġ{": 366,
      "Ġbe": 367,
      "ct": 368,
      "ĠA": 369,
      "ure": 370,
      "ad": 371,
      "Ġde": 372,
      "ĠC": 373,
      "us": 374,
      "ref": 375,
      "ow": 376,
      "Ġwith": 377,
      "gin": 378,
      "Ġl": 379,
      "Ġpro": 380,
      "xt": 381,
      "ut": 382,
      "Ġwh": 383,
      "--": 384,
      "}}": 385,
      "ĠI": 386,
      "(\\": 387,
      "ble": 388,
      "pp": 389,
      "Ġwe": 390,
      "ight": 391,
      "ri": 392,
      "Ġ<": 393,
      "Ġal": 394,
      "ir": 395,
      "ame": 396,
      "ub": 397,
      "begin": 398,
      "im": 399,
      "od": 400,
      "ine": 401,
      "Ġma": 402,
      "ere": 403,
      "20": 404,
      "sp": 405,
      "ts": 406,
      "rac": 407,
      "Ġco": 408,
      "Ġ*": 409,
      "//": 410,
      "Ġby": 411,
      "Ġas": 412,
      ")$": 413,
      "ĠĠĠĠĠĠĠĠĠĠĠ": 414,
      "_{\\": 415,
      "ate": 416,
      "per": 417,
      "Ġare": 418,
      "ft": 419,
      "ĠM": 420,
      "and": 421,
      "ity": 422,
      "ĠF": 423,
      "Ġex": 424,
      "Ġ}": 425,
      "ode": 426,
      "=\"": 427,
      "ore": 428,
      "ck": 429,
      "di": 430,
      "equ": 431,
      "}{": 432,
      "Ġthis": 433,
      "ĠP": 434,
      "ue": 435,
      "tic": 436,
      "der": 437,
      "},": 438,
      "frac": 439,
      "mb": 440,
      "ĠThe": 441,
      "rom": 442,
      "cite": 443,
      "to": 444,
      "ĠB": 445,
      "pe": 446,
      "right": 447,
      "})": 448,
      "ment": 449,
      "</": 450,
      "eq": 451,
      "text": 452,
      "ĠL": 453,
      "bel": 454,
      "da": 455,
      "ĠR": 456,
      "iz": 457,
      "ase": 458,
      "Ġor": 459,
      "ĠH": 460,
      "up": 461,
      "Ġi": 462,
      "ĠT": 463,
      "ew": 464,
      "ect": 465,
      "Ġat": 466,
      "Ġit": 467,
      "mathb": 468,
      "label": 469,
      "ĠD": 470,
      ",\\": 471,
      "ĠW": 472,
      "ĠĠĠĠĠĠĠĠĠĠĠĠĠĠĠĠ": 473,
      "sion": 474,
      "ran": 475,
      "res": 476,
      "tions": 477,
      "Ġme": 478,
      "Ġsh": 479,
      "li": 480,
      "for": 481,
      "ĠE": 482,
      "Ġ-": 483,
      "ĠĠĠĠĠ": 484,
      "Ġfrom": 485,
      "ys": 486,
      "oun": 487,
      "ĠN": 488,
      "ess": 489,
      "lu": 490,
      "ist": 491,
      "$,": 492,
      "int": 493,
      "ign": 494,
      "$.": 495,
      "low": 496,
      "rm": 497,
      "In": 498,
      "left": 499,
      "par": 500,
      "op": 501,
      "Ġ\"": 502,
      "fig": 503,
      "pa": 504,
      "mathcal": 505,
      "equation": 506,
      "ĠG": 507,
      "Ġif": 508,
      "00": 509,
      "Ġch": 510,
      "ff": 511,
      "Ġcomp": 512,
      "Ġ+": 513,
      "**": 514,
      "iv": 515,
      "urn": 516,
      "the": 517,
      "}.": 518,
      "ome": 519,
      "Ġcan": 520,
      "lass": 521,
      "Ġst": 522,
      "ich": 523,
      "our": 524,
      "unction": 525,
      "Ġsu": 526,
      "ds": 527,
      "Ġun": 528,
      "()": 529,
      "ke": 530,
      "ga": 531,
      "âĢ": 532,
      "ave": 533,
      "use": 534,
      "Ġpar": 535,
      "con": 536,
      "}(": 537,
      "ther": 538,
      "all": 539,
      "ence": 540,
      "}^": 541,
      "os": 542,
      "tive": 543,
      "ap": 544,
      "~\\": 545,
      "ype": 546,
      "tial": 547,
      "}_": 548,
      "tri": 549,
      "ener": 550,
      "ĠTh": 551,
      "du": 552,
      "lic": 553,
      "\">": 554,
      "pro": 555,
      "ld": 556,
      "ary": 557,
      "ers": 558,
      "ant": 559,
      "ort": 560,
      "line": 561,
      "mu": 562,
      "cc": 563,
      "est": 564,
      "Ġse": 565,
      "turn": 566,
      "pha": 567,
      "Ġle": 568,
      "ile": 569,
      "ach": 570,
      "alpha": 571,
      "201": 572,
      "are": 573,
      "tim": 574,
      "Ġsta": 575,
      "til": 576,
      ")\\": 577,
      "ell": 578,
      "Ġwhich": 579,
      "),": 580,
      "able": 581,
      "Ġob": 582,
      "ata": 583,
      "fer": 584,
      "psi": 585,
      "ĠIn": 586,
      "..": 587,
      ").": 588,
      "Ġhave": 589,
      "Ġnot": 590,
      "age": 591,
      "ĠO": 592,
      "row": 593,
      "----": 594,
      "Ġy": 595,
      "mple": 596,
      "Ġfunction": 597,
      "Ġdis": 598,
      "Ġres": 599,
      "Ġ'": 600,
      "set": 601,
      "==": 602,
      "ber": 603,
      "vi": 604,
      "ang": 605,
      "odel": 606,
      "ult": 607,
      "ari": 608,
      "ill": 609,
      "gra": 610,
      "ab": 611,
      "$\\": 612,
      "ser": 613,
      "str": 614,
      "bu": 615,
      "ms": 616,
      "amma": 617,
      "oc": 618,
      "_\\": 619,
      "Ġlo": 620,
      "tain": 621,
      "get": 622,
      "alue": 623,
      "mathbb": 624,
      "ical": 625,
      "ray": 626,
      "Ġapp": 627,
      "Ġsp": 628,
      "Ġr": 629,
      "fin": 630,
      "Ġpo": 631,
      "Ġclass": 632,
      "10": 633,
      "=\\": 634,
      "ance": 635,
      "clu": 636,
      "co": 637,
      "Ġ\\\\": 638,
      "sub": 639,
      "Ġus": 640,
      "}_{": 641,
      "ens": 642,
      "ĠĠĠĠĠĠĠĠĠĠĠĠĠĠĠ": 643,
      "dot": 644,
      "vel": 645,
      "igma": 646,
      "}^{": 647,
      "19": 648,
      "ho": 649,
      "ong": 650,
      "so": 651,
      "Ġk": 652,
      "of": 653,
      "ay": 654,
      "po": 655,
      "ork": 656,
      "times": 657,
      "-\\": 658,
      "ty": 659,
      "og": 660,
      "act": 661,
      "ding": 662,
      "Ġne": 663,
      "Ġuse": 664,
      "Ġwas": 665,
      "ire": 666,
      "Ġexp": 667,
      "Ġset": 668,
      "^{\\": 669,
      "Ġ[": 670,
      "phi": 671,
      "Ġ//": 672,
      "cri": 673,
      "ies": 674,
      "lamb": 675,
      "ĠU": 676,
      "lambda": 677,
      "Ġall": 678,
      "iel": 679,
      "Ġqu": 680,
      "ace": 681,
      "ac": 682,
      "Ġte": 683,
      "out": 684,
      "sum": 685,
      "time": 686,
      "Ġreturn": 687,
      "ex": 688,
      "pi": 689,
      "ag": 690,
      "ded": 691,
      "av": 692,
      "Ġla": 693,
      "Ġhas": 694,
      "ack": 695,
      "lon": 696,
      "Ġstr": 697,
      "lation": 698,
      "ion": 699,
      "ak": 700,
      "ĉĉĉĉ": 701,
      "ous": 702,
      "we": 703,
      "ree": 704,
      "umber": 705,
      "Ġ{\\": 706,
      "bf": 707,
      "ial": 708,
      "tes": 709,
      "pt": 710,
      "Con": 711,
      "em": 712,
      "Ġmodel": 713,
      "ind": 714,
      "ject": 715,
      "mathbf": 716,
      "Ġinter": 717,
      "ents": 718,
      "ated": 719,
      "Ġad": 720,
      "Ġra": 721,
      "Ġdata": 722,
      "idth": 723,
      "enc": 724,
      "Ġone": 725,
      "Ġper": 726,
      "Ġar": 727,
      "ould": 728,
      "wo": 729,
      "ular": 730,
      "Ġno": 731,
      "bo": 732,
      "ĠJ": 733,
      "own": 734,
      "psilon": 735,
      "ations": 736,
      "ator": 737,
      "put": 738,
      "Ġj": 739,
      "tation": 740,
      "section": 741,
      "->": 742,
      "yste": 743,
      "hat": 744,
      "ide": 745,
      "Ġ@": 746,
      "align": 747,
      "ĠV": 748,
      "ard": 749,
      "sigma": 750,
      "::": 751,
      "ory": 752,
      "Ġpre": 753,
      "ren": 754,
      "sh": 755,
      "ollow": 756,
      "min": 757,
      "ps": 758,
      "ĠK": 759,
      "beta": 760,
      "Ġev": 761,
      "^{-": 762,
      "app": 763,
      "tribu": 764,
      "Ġ(\\": 765,
      "Ġass": 766,
      "bar": 767,
      "over": 768,
      "eta": 769,
      "olu": 770,
      "Ġdif": 771,
      "}{\\": 772,
      "mathrm": 773,
      "tilde": 774,
      "igh": 775,
      "Ġwill": 776,
      "Ġnew": 777,
      "Ġdo": 778,
      "ting": 779,
      "ĠWe": 780,
      "Ġ|": 781,
      "ize": 782,
      "Ġ/": 783,
      "Ġcom": 784,
      "+\\": 785,
      "Ġfollow": 786,
      "*}": 787,
      "Ġtwo": 788,
      "ll": 789,
      "irst": 790,
      "item": 791,
      "del": 792,
      "ast": 793,
      "Ġequ": 794,
      "err": 795,
      "gamma": 796,
      "var": 797,
      "xi": 798,
      "yn": 799,
      "ull": 800,
      "Ġalso": 801,
      "'s": 802,
      "200": 803,
      "ties": 804,
      "ample": 805,
      "und": 806,
      "theta": 807,
      "ound": 808,
      "\",": 809,
      "orre": 810,
      "12": 811,
      "ual": 812,
      "ource": 813,
      "ics": 814,
      "ne": 815,
      "oo": 816,
      "wh": 817,
      "Ġx": 818,
      "]{": 819,
      "cre": 820,
      "sed": 821,
      "Ġimp": 822,
      "ix": 823,
      "\\\\": 824,
      "Ġsub": 825,
      "Ġmo": 826,
      "^\\": 827,
      "cent": 828,
      "array": 829,
      "thod": 830,
      "width": 831,
      "ip": 832,
      "Ġ:": 833,
      "rho": 834,
      "delta": 835,
      "Ġcont": 836,
      "ection": 837,
      "Ġgener": 838,
      "leq": 839,
      "))": 840,
      "ice": 841,
      "gh": 842,
      "ark": 843,
      "ield": 844,
      "figure": 845,
      "Ġsuch": 846,
      "no": 847,
      "Ġtran": 848,
      "',": 849,
      "ust": 850,
      "ption": 851,
      "one": 852,
      "Ġver": 853,
      "orm": 854,
      "Ġthere": 855,
      "les": 856,
      "lement": 857,
      "col": 858,
      "We": 859,
      "Ġ</": 860,
      "roup": 861,
      "$-": 862,
      "}(\\": 863,
      "tau": 864,
      "ors": 865,
      "Ġout": 866,
      "Ġwhere": 867,
      "Ġtime": 868,
      "lay": 869,
      "led": 870,
      "alu": 871,
      "ublic": 872,
      "Ġpa": 873,
      "ature": 874,
      "cdot": 875,
      "Ġhe": 876,
      "sition": 877,
      "ans": 878,
      "Ġour": 879,
      "();": 880,
      "(\"": 881,
      "Ġrep": 882,
      "Re": 883,
      "}$.": 884,
      "big": 885,
      "ystem": 886,
      "def": 887,
      "}$,": 888,
      "form": 889,
      "com": 890,
      "ameter": 891,
      "Ġdiffer": 892,
      "Ġen": 893,
      "clude": 894,
      ")}": 895,
      "eqref": 896,
      "âĢĻ": 897,
      "Ġ*/": 898,
      "uct": 899,
      "Ġonly": 900,
      "ĠThis": 901,
      "tit": 902,
      "Ġconst": 903,
      "Ġbet": 904,
      "tical": 905,
      "Ġcase": 906,
      "Ġover": 907,
      "mation": 908,
      "imp": 909,
      "Ġthen": 910,
      "Ġcorre": 911,
      "Ġdes": 912,
      "graph": 913,
      "ear": 914,
      "Ġgiv": 915,
      "Ġother": 916,
      "Ġeach": 917,
      "Ġ.": 918,
      "Ġany": 919,
      "ish": 920,
      "Ġro": 921,
      "fty": 922,
      "nu": 923,
      "infty": 924,
      "Ġph": 925,
      "Ġfin": 926,
      "Ġvalue": 927,
      "Ġshow": 928,
      "name": 929,
      "Pro": 930,
      "Ġso": 931,
      "Ġcol": 932,
      "Ġab": 933,
      "spon": 934,
      "Ġbut": 935,
      "ces": 936,
      "--------": 937,
      "Ġop": 938,
      "pend": 939,
      "cap": 940,
      "omega": 941,
      "****": 942,
      "partial": 943,
      "table": 944,
      "Ġreg": 945,
      "Ġline": 946,
      "Ġtr": 947,
      "ia": 948,
      "ger": 949,
      "sc": 950,
      "Ġmore": 951,
      "tring": 952,
      "Ġu": 953,
      "ced": 954,
      "Ex": 955,
      "ĠĠĠĠĠĠĠĠĠ": 956,
      "tab": 957,
      "arrow": 958,
      "Ġ_": 959,
      "ĉĉĉ": 960,
      "Ġname": 961,
      "|\\": 962,
      "ility": 963,
      "ved": 964,
      "Ġint": 965,
      "this": 966,
      "Ġsome": 967,
      "Ġspec": 968,
      "div": 969,
      "Ġfirst": 970,
      "tex": 971,
      "Ġbo": 972,
      "ults": 973,
      "ween": 974,
      "oid": 975,
      "Ġacc": 976,
      "ise": 977,
      "eng": 978,
      "dic": 979,
      "ally": 980,
      "dition": 981,
      "Ġwhen": 982,
      "Del": 983,
      "its": 984,
      "art": 985,
      "space": 986,
      "ord": 987,
      "11": 988,
      "ink": 989,
      "Ġnumber": 990,
      "mo": 991,
      "Ġthan": 992,
      "ince": 993,
      "Delta": 994,
      "Ġ`": 995,
      "ml": 996,
      "eqn": 997,
      "ER": 998,
      "ension": 999,
      "fore": 1000,
      "Ġbetween": 1001,
      "../": 1002,
      "emp": 1003,
      "Ġspa": 1004,
      "ĠĠĠĠĠĠĠĠĠĠĠĠĠĠĠĠĠĠĠ": 1005,
      "quad": 1006,
      "Ġget": 1007,
      "Ġsa": 1008,
      "dex": 1009,
      "Ġvari": 1010,
      "('": 1011,
      "Ġup": 1012,
      "Ġnon": 1013,
      "ges": 1014,
      "sf": 1015,
      "ud": 1016,
      "sider": 1017,
      "Ġdef": 1018,
      "Ġusing": 1019,
      "Name": 1020,
      "ula": 1021,
      "ves": 1022,
      "Ġdefin": 1023,
      "Ġext": 1024,
      "tric": 1025,
      "gle": 1026,
      "Ġused": 1027,
      "Ġits": 1028,
      "ok": 1029,
      "Ġthese": 1030,
      "rain": 1031,
      "work": 1032,
      "sec": 1033,
      "orem": 1034,
      ")$.": 1035,
      "Ġ$(": 1036,
      "}}\\": 1037,
      "fra": 1038,
      "essage": 1039,
      "Ġmethod": 1040,
      "Ġtype": 1041,
      "tif": 1042,
      "\\,": 1043,
      "ule": 1044,
      "Ġpublic": 1045,
      "mall": 1046,
      "hi": 1047,
      "Ġes": 1048,
      "gy": 1049,
      "Ġgiven": 1050,
      "Ġtheir": 1051,
      "Ġappro": 1052,
      "ose": 1053,
      "16": 1054,
      "Ġcur": 1055,
      "sta": 1056,
      "olution": 1057,
      "rt": 1058,
      "}[": 1059,
      "ĠX": 1060,
      "For": 1061,
      "Ġerr": 1062,
      "tern": 1063,
      "ob": 1064,
      "Ġhigh": 1065,
      "====": 1066,
      "include": 1067,
      "ann": 1068,
      "olds": 1069,
      "sq": 1070,
      "ased": 1071,
      "he": 1072,
      "ization": 1073,
      "pm": 1074,
      "Ġstate": 1075,
      "ulti": 1076,
      "$$": 1077,
      "Ġgra": 1078,
      "15": 1079,
      "ĠâĢ": 1080,
      "ert": 1081,
      "ĠFor": 1082,
      "Ġz": 1083,
      "Ġtrans": 1084,
      "Ġeff": 1085,
      "lec": 1086,
      "return": 1087,
      "ength": 1088,
      "epsilon": 1089,
      "Ġwork": 1090,
      "cess": 1091,
      "ential": 1092,
      "Ġparameter": 1093,
      "Ġsim": 1094,
      "Ġrequ": 1095,
      "chi": 1096,
      "ton": 1097,
      "Ġorder": 1098,
      "center": 1099,
      "Ġresult": 1100,
      "Ġinto": 1101,
      "mega": 1102,
      "Ġli": 1103,
      "erm": 1104,
      "}_{\\": 1105,
      "Ġid": 1106,
      "Type": 1107,
      "alues": 1108,
      "Omega": 1109,
      "ote": 1110,
      "ST": 1111,
      "IN": 1112,
      "ĠčĊ": 1113,
      "round": 1114,
      "span": 1115,
      "val": 1116,
      "ond": 1117,
      "Ġbeen": 1118,
      "su": 1119,
      "ized": 1120,
      "Ġcal": 1121,
      "tt": 1122,
      "param": 1123,
      "where": 1124,
      "Ġman": 1125,
      "Ġlar": 1126,
      "Ġobtain": 1127,
      "Ġunder": 1128,
      "18": 1129,
      "irc": 1130,
      "trix": 1131,
      "Ġpres": 1132,
      "rent": 1133,
      "main": 1134,
      "De": 1135,
      "ymb": 1136,
      "^*": 1137,
      "ever": 1138,
      "eqnarray": 1139,
      "type": 1140,
      "Ġconsider": 1141,
      "perator": 1142,
      "></": 1143,
      "au": 1144,
      "ON": 1145,
      "ymbol": 1146,
      "lock": 1147,
      "13": 1148,
      ")$,": 1149,
      "Gamma": 1150,
      "ze": 1151,
      "fo": 1152,
      "key": 1153,
      "ĠY": 1154,
      "Ġrela": 1155,
      "alse": 1156,
      "Ġobser": 1157,
      "Ġform": 1158,
      "ian": 1159,
      "Ġpri": 1160,
      "Ġsame": 1161,
      "ount": 1162,
      "spec": 1163,
      "eck": 1164,
      "ĠRe": 1165,
      "Ġresults": 1166,
      "ild": 1167,
      "log": 1168,
      "Ġwere": 1169,
      "Ġdifferent": 1170,
      "sqrt": 1171,
      "Ġ!": 1172,
      "elf": 1173,
      "ress": 1174,
      "Ġpartic": 1175,
      "wide": 1176,
      "Ġchar": 1177,
      "old": 1178,
      "Ġbec": 1179,
      "Ġmod": 1180,
      "ĠFig": 1181,
      "Ġfollowing": 1182,
      "Ch": 1183,
      "Ġfact": 1184,
      "Ġvar": 1185,
      "ym": 1186,
      "ments": 1187,
      "ected": 1188,
      "ration": 1189,
      "asure": 1190,
      "gor": 1191,
      "Ġ>": 1192,
      "vare": 1193,
      "try": 1194,
      "lang": 1195,
      "Ġsc": 1196,
      "25": 1197,
      "14": 1198,
      "comp": 1199,
      "vely": 1200,
      "lem": 1201,
      "Ġthey": 1202,
      "varepsilon": 1203,
      "ied": 1204,
      "fter": 1205,
      "To": 1206,
      "Ġmay": 1207,
      "ax": 1208,
      "subsection": 1209,
      "String": 1210,
      "mon": 1211,
      "ases": 1212,
      "textbf": 1213,
      "Ġsign": 1214,
      "En": 1215,
      "ific": 1216,
      "Ġsec": 1217,
      "import": 1218,
      "cript": 1219,
      "Ġyou": 1220,
      "als": 1221,
      "ning": 1222,
      "sel": 1223,
      "ĠĠĊ": 1224,
      "lan": 1225,
      "olog": 1226,
      "exp": 1227,
      "sim": 1228,
      "data": 1229,
      "graphics": 1230,
      "Ġfield": 1231,
      "Ġ)": 1232,
      "Res": 1233,
      "Ġ#": 1234,
      "ĠCh": 1235,
      "><": 1236,
      "ĠQ": 1237,
      "Ġel": 1238,
      "ates": 1239,
      "ici": 1240,
      "RE": 1241,
      "Ġself": 1242,
      "ots": 1243,
      "}^{\\": 1244,
      "Ġsee": 1245,
      "ext": 1246,
      "Ġser": 1247,
      "Ġcomple": 1248,
      "vice": 1249,
      "Ġ${\\": 1250,
      "^{(": 1251,
      "umn": 1252,
      "ĠIt": 1253,
      "Ġanal": 1254,
      "pri": 1255,
      "mage": 1256,
      "}=": 1257,
      "includegraphics": 1258,
      "Ġsystem": 1259,
      "ib": 1260,
      "Ġrepres": 1261,
      "rou": 1262,
      "caption": 1263,
      "Id": 1264,
      "Ġpol": 1265,
      "Ġ\\,": 1266,
      ")=": 1267,
      "ox": 1268,
      "ry": 1269,
      "che": 1270,
      "mat": 1271,
      "cm": 1272,
      "back": 1273,
      "Ġdistribu": 1274,
      "AT": 1275,
      "Ġfe": 1276,
      "Ġspace": 1277,
      "ons": 1278,
      "energy": 1279,
      "red": 1280,
      "rangle": 1281,
      "tively": 1282,
      "very": 1283,
      "arch": 1284,
      "Ġend": 1285,
      "ni": 1286,
      "Ġproper": 1287,
      "action": 1288,
      "read": 1289,
      "bm": 1290,
      "rr": 1291,
      "dd": 1292,
      "rightarrow": 1293,
      "omp": 1294,
      "Ġac": 1295,
      "formation": 1296,
      "imension": 1297,
      "Ġgo": 1298,
      "code": 1299,
      "Ġmeasure": 1300,
      "Ġden": 1301,
      "emph": 1302,
      "yle": 1303,
      "cale": 1304,
      "ause": 1305,
      "dis": 1306,
      "Ġlow": 1307,
      "Ġcorrespon": 1308,
      "Ġdire": 1309,
      "ath": 1310,
      "lit": 1311,
      "ange": 1312,
      "Ġboth": 1313,
      "ucture": 1314,
      "umer": 1315,
      "lect": 1316,
      "Sta": 1317,
      "ault": 1318,
      "varphi": 1319,
      "ector": 1320,
      "pre": 1321,
      "Ġtest": 1322,
      ".,": 1323,
      "gs": 1324,
      "},\\": 1325,
      "geq": 1326,
      "sk": 1327,
      "Ġkn": 1328,
      "Ġgroup": 1329,
      ".~\\": 1330,
      "};": 1331,
      "ick": 1332,
      "Ġnull": 1333,
      "Ġpoint": 1334,
      "Ġsupp": 1335,
      "ep": 1336,
      "owever": 1337,
      "../../": 1338,
      "vent": 1339,
      "tiv": 1340,
      "ĠĠĠĠĠĠĠĠĠĠĠĠĠĠĠĠĠĠĠĠĠĠĠĠĠĠĠĠĠĠĠĠ": 1341,
      "non": 1342,
      "32": 1343,
      "&\\": 1344,
      "proof": 1345,
      "overline": 1346,
      "Ġ--": 1347,
      "ists": 1348,
      "Ġmin": 1349,
      "Ġprodu": 1350,
      "ass": 1351,
      "ality": 1352,
      "face": 1353,
      "Ġvalues": 1354,
      "gorith": 1355,
      "ont": 1356,
      "ating": 1357,
      "Ġtrue": 1358,
      "):": 1359,
      "Ġwell": 1360,
      "Ġhis": 1361,
      "html": 1362,
      "ling": 1363,
      "__": 1364,
      "amb": 1365,
      "ception": 1366,
      "med": 1367,
      "vec": 1368,
      "lection": 1369,
      "atch": 1370,
      "class": 1371,
      ".}": 1372,
      "Ġ==": 1373,
      "ĠĠĠĠĠĠ": 1374,
      "17": 1375,
      "raw": 1376,
      "St": 1377,
      "ĠPro": 1378,
      "Ġwould": 1379,
      "Ġelement": 1380,
      "etwork": 1381,
      "size": 1382,
      "entation": 1383,
      "sible": 1384,
      "Ġproble": 1385,
      "Ġdescri": 1386,
      "son": 1387,
      "jec": 1388,
      "mary": 1389,
      "frak": 1390,
      "trans": 1391,
      "AR": 1392,
      "requ": 1393,
      "vers": 1394,
      "Ġsmall": 1395,
      "new": 1396,
      "mber": 1397,
      "://": 1398,
      "ten": 1399,
      "pr": 1400,
      "Ġstring": 1401,
      "Data": 1402,
      "ensure": 1403,
      "SS": 1404,
      "rit": 1405,
      "td": 1406,
      "Ġmass": 1407,
      "rough": 1408,
      "[\\": 1409,
      "ĠAn": 1410,
      "ilar": 1411,
      "Ġesti": 1412,
      "LE": 1413,
      "''": 1414,
      "ormal": 1415,
      "Ġsur": 1416,
      "Ġback": 1417,
      "ven": 1418,
      "bra": 1419,
      ")^": 1420,
      "Ġstar": 1421,
      "Ġste": 1422,
      "Ġinte": 1423,
      "ie": 1424,
      "Ġenergy": 1425,
      "ery": 1426,
      "ency": 1427,
      "}).": 1428,
      "self": 1429,
      "ition": 1430,
      "Ġassu": 1431,
      "Ġdec": 1432,
      "Ġprocess": 1433,
      "stra": 1434,
      "bolds": 1435,
      "iew": 1436,
      "yp": 1437,
      "arget": 1438,
      "file": 1439,
      "boldsymbol": 1440,
      "Big": 1441,
      "Ġabout": 1442,
      "100": 1443,
      "ĠIf": 1444,
      "Ġvoid": 1445,
      "ument": 1446,
      "Ġcompu": 1447,
      "30": 1448,
      "ha": 1449,
      "hline": 1450,
      "OR": 1451,
      "source": 1452,
      "ĠZ": 1453,
      "Ġhref": 1454,
      "mathfrak": 1455,
      "ive": 1456,
      "Ar": 1457,
      "Ġmost": 1458,
      "Ġcontain": 1459,
      "ames": 1460,
      "ner": 1461,
      "Ġexample": 1462,
      "ID": 1463,
      "itial": 1464,
      "Ob": 1465,
      "Ġran": 1466,
      "Ġfra": 1467,
      "ster": 1468,
      "value": 1469,
      "}}$": 1470,
      "Ġ&&": 1471,
      "ero": 1472,
      "ime": 1473,
      "Ġsing": 1474,
      "ambda": 1475,
      "List": 1476,
      "')": 1477,
      "Ġmulti": 1478,
      "string": 1479,
      "Lambda": 1480,
      "This": 1481,
      "Ġlim": 1482,
      "Ġpos": 1483,
      "Ġ=>": 1484,
      "Ġbound": 1485,
      "Ġbu": 1486,
      "ldots": 1487,
      "ash": 1488,
      "Ġdist": 1489,
      "man": 1490,
      "message": 1491,
      "las": 1492,
      "see": 1493,
      "199": 1494,
      "AL": 1495,
      "stance": 1496,
      "pd": 1497,
      "Ġfalse": 1498,
      "50": 1499,
      "ader": 1500,
      "ough": 1501,
      "ative": 1502,
      "langle": 1503,
      "ks": 1504,
      "An": 1505,
      "Ġdefined": 1506,
      "Ġ,": 1507,
      "Ġter": 1508,
      "Ġinv": 1509,
      "Ġtra": 1510,
      "Let": 1511,
      "lim": 1512,
      "ensity": 1513,
      "Ġlocal": 1514,
      "Ġgeneral": 1515,
      "nab": 1516,
      "bin": 1517,
      "test": 1518,
      "bove": 1519,
      "mis": 1520,
      "ision": 1521,
      "uc": 1522,
      "////": 1523,
      "Ġshould": 1524,
      "ints": 1525,
      "lear": 1526,
      "Ġclo": 1527,
      "ĠCon": 1528,
      "mand": 1529,
      "appa": 1530,
      "nabla": 1531,
      "Ġabove": 1532,
      "ism": 1533,
      "Ġwhile": 1534,
      "22": 1535,
      "********": 1536,
      "let": 1537,
      "mer": 1538,
      "Ġsize": 1539,
      "ai": 1540,
      "],": 1541,
      "Phi": 1542,
      "Ġfollows": 1543,
      "kappa": 1544,
      "cation": 1545,
      "go": 1546,
      "function": 1547,
      "htt": 1548,
      "ression": 1549,
      "bit": 1550,
      "ines": 1551,
      "oci": 1552,
      "Ġexper": 1553,
      "Ġstructure": 1554,
      "Ġlarge": 1555,
      "Ġdisc": 1556,
      "EN": 1557,
      "Ġelse": 1558,
      "Ġdepend": 1559,
      "ymme": 1560,
      "box": 1561,
      "citep": 1562,
      "mod": 1563,
      "orph": 1564,
      "##": 1565,
      "play": 1566,
      "._": 1567,
      "ake": 1568,
      "top": 1569,
      "mate": 1570,
      "depend": 1571,
      "Ġdoes": 1572,
      "Ġevery": 1573,
      "max": 1574,
      "ability": 1575,
      "ower": 1576,
      "Ġshown": 1577,
      "Ġthrough": 1578,
      "ern": 1579,
      "rite": 1580,
      "Ġerror": 1581,
      "));": 1582,
      ".\\": 1583,
      "ĠDe": 1584,
      "Par": 1585,
      "Ġmat": 1586,
      "ross": 1587,
      "des": 1588,
      "by": 1589,
      "ynam": 1590,
      "})$": 1591,
      "add": 1592,
      "ler": 1593,
      "rol": 1594,
      "gorithm": 1595,
      "Ġ||": 1596,
      "24": 1597,
      "Ġmodels": 1598,
      "Ġtemp": 1599,
      "----------------": 1600,
      "inu": 1601,
      "circ": 1602,
      "By": 1603,
      "acter": 1604,
      "ci": 1605,
      "Value": 1606,
      "ving": 1607,
      "ences": 1608,
      "As": 1609,
      "position": 1610,
      "otimes": 1611,
      "with": 1612,
      "Set": 1613,
      "\\|": 1614,
      "Ġinclu": 1615,
      "ired": 1616,
      "less": 1617,
      "rodu": 1618,
      "textit": 1619,
      "ulation": 1620,
      "vate": 1621,
      "ields": 1622,
      "ste": 1623,
      "Ġincre": 1624,
      "Ġlet": 1625,
      "gr": 1626,
      "inter": 1627,
      "ful": 1628,
      "Ġthree": 1629,
      "Ġafter": 1630,
      "SE": 1631,
      "view": 1632,
      "que": 1633,
      "ically": 1634,
      "21": 1635,
      "onent": 1636,
      "Ġcre": 1637,
      "uth": 1638,
      "\");": 1639,
      "Ġiden": 1640,
      "sing": 1641,
      "Ġsecond": 1642,
      "br": 1643,
      "not": 1644,
      "ensuremath": 1645,
      "Ġsol": 1646,
      "Ġoff": 1647,
      "Ġwho": 1648,
      "Ġmax": 1649,
      "lace": 1650,
      "style": 1651,
      "order": 1652,
      "Ġthem": 1653,
      "ays": 1654,
      "\"/": 1655,
      "io": 1656,
      "Ġsince": 1657,
      "Ġhand": 1658,
      "Ġnow": 1659,
      "Ġbel": 1660,
      "];": 1661,
      "ffici": 1662,
      "tisf": 1663,
      "Ġcons": 1664,
      "Ġ/**": 1665,
      "\\%": 1666,
      "ented": 1667,
      "Ġperform": 1668,
      "igin": 1669,
      "Sigma": 1670,
      "Ġreal": 1671,
      "Ġparameters": 1672,
      "vious": 1673,
      "mbox": 1674,
      "Ġdistribution": 1675,
      "Ġorg": 1676,
      "Ġlong": 1677,
      "mm": 1678,
      "âĢĿ": 1679,
      "ey": 1680,
      "Ġproblem": 1681,
      "Ġnetwork": 1682,
      "cor": 1683,
      "ilter": 1684,
      "Ġradi": 1685,
      "ĠĠĠĠĠĠĠĠĠĠĠĠĠ": 1686,
      "Ġq": 1687,
      "mark": 1688,
      "Ġoperator": 1689,
      "ream": 1690,
      "Ġcent": 1691,
      "lat": 1692,
      "mit": 1693,
      "cur": 1694,
      "DE": 1695,
      "}),": 1696,
      "Ġregion": 1697,
      "uch": 1698,
      "urther": 1699,
      "nonumber": 1700,
      "Ġcalc": 1701,
      "...": 1702,
      "Ġneed": 1703,
      "Ġmag": 1704,
      "}}{": 1705,
      "ĠĠĠĠĠĠĠĠĠĠĠĠĠĠĠĠĠĠĠĠĠĠĠ": 1706,
      "ain": 1707,
      "uring": 1708,
      "cont": 1709,
      "Col": 1710,
      "ij": 1711,
      "lient": 1712,
      "\\[": 1713,
      "rror": 1714,
      "dots": 1715,
      "ĠAs": 1716,
      "Ġprob": 1717,
      "ee": 1718,
      "Ġed": 1719,
      "lob": 1720,
      "Ġsection": 1721,
      "ict": 1722,
      "64": 1723,
      "Ġ``": 1724,
      "late": 1725,
      "Ser": 1726,
      "Ġpart": 1727,
      "Ġmatrix": 1728,
      "Ġtop": 1729,
      "Ġright": 1730,
      "Ġpe": 1731,
      "Ġhad": 1732,
      "andom": 1733,
      "ody": 1734,
      "rop": 1735,
      "ĠThen": 1736,
      "IT": 1737,
      "Ġent": 1738,
      "Ġapproach": 1739,
      "defin": 1740,
      "Ġfeature": 1741,
      "node": 1742,
      "At": 1743,
      "ene": 1744,
      "Ġgraph": 1745,
      "ysis": 1746,
      "\"/>": 1747,
      "Ġsatisf": 1748,
      "Ġfinal": 1749,
      "Ġconn": 1750,
      "ost": 1751,
      "($": 1752,
      "ixed": 1753,
      "/\\": 1754,
      "Ġdeter": 1755,
      "CT": 1756,
      "Un": 1757,
      "Ġsimilar": 1758,
      "Ġcurrent": 1759,
      "40": 1760,
      "Ġeffec": 1761,
      "Ġterms": 1762,
      "tal": 1763,
      "ov": 1764,
      "Ġinformation": 1765,
      "odes": 1766,
      "Ġsample": 1767,
      "23": 1768,
      "ared": 1769,
      "sive": 1770,
      "Ġfound": 1771,
      "AN": 1772,
      "Ġbecause": 1773,
      "ness": 1774,
      "Ġ!=": 1775,
      "uto": 1776,
      "Ġder": 1777,
      "Ġstud": 1778,
      "Ġallow": 1779,
      "Ġag": 1780,
      "Ġtri": 1781,
      "Ġwor": 1782,
      "gain": 1783,
      "ural": 1784,
      "ground": 1785,
      "{-": 1786,
      "\")": 1787,
      "nt": 1788,
      "Ġvery": 1789,
      "lish": 1790,
      "ĠSt": 1791,
      "\"><": 1792,
      "Ġbased": 1793,
      "erature": 1794,
      "Ġparticular": 1795,
      "ently": 1796,
      "Ġinitial": 1797,
      "Ġmain": 1798,
      "apa": 1799,
      "Ġimport": 1800,
      "Ġ:=": 1801,
      "Ġnode": 1802,
      "color": 1803,
      "Ġfile": 1804,
      "ier": 1805,
      "Ġsuper": 1806,
      "ĠAl": 1807,
      "Ġsum": 1808,
      "udi": 1809,
      "vid": 1810,
      "Ġdi": 1811,
      "Ġfunctions": 1812,
      "amp": 1813,
      "gram": 1814,
      "sitive": 1815,
      "\\!": 1816,
      "ail": 1817,
      "widetilde": 1818,
      "Ġconstr": 1819,
      "lack": 1820,
      "centering": 1821,
      "Ġ($": 1822,
      "Ġtrain": 1823,
      "~~": 1824,
      "Ġstatic": 1825,
      "Ġfind": 1826,
      "Ġrespec": 1827,
      "vert": 1828,
      "Ġmap": 1829,
      "Ġ%": 1830,
      "istic": 1831,
      "Ġcall": 1832,
      "Ġeven": 1833,
      "lean": 1834,
      "ese": 1835,
      "Ġobtained": 1836,
      "Exception": 1837,
      "Ġtak": 1838,
      "Ġredu": 1839,
      "Ġkey": 1840,
      "Ġequation": 1841,
      "Ġinput": 1842,
      "ified": 1843,
      "ference": 1844,
      "Ġcould": 1845,
      "reat": 1846,
      "reak": 1847,
      "reg": 1848,
      "Ġadd": 1849,
      "Ġobject": 1850,
      "Ġsequ": 1851,
      "Ġhy": 1852,
      "========": 1853,
      "Ġdensity": 1854,
      "Bu": 1855,
      "000": 1856,
      "ings": 1857,
      "rate": 1858,
      "Ġpr": 1859,
      "Ġ///": 1860,
      "rep": 1861,
      "Ġprovi": 1862,
      ")(": 1863,
      "ww": 1864,
      "tice": 1865,
      "Object": 1866,
      "}-": 1867,
      "war": 1868,
      "ense": 1869,
      "Ġpaper": 1870,
      "Ġcharacter": 1871,
      "Ġlead": 1872,
      "Ġcorresponding": 1873,
      "Ġrun": 1874,
      "Ġarg": 1875,
      "ift": 1876,
      "Comp": 1877,
      "Fig": 1878,
      "Ġlevel": 1879,
      "Ġlinear": 1880,
      "title": 1881,
      "unc": 1882,
      "oup": 1883,
      "Ġsolution": 1884,
      "ccess": 1885,
      "Ġlike": 1886,
      "emma": 1887,
      "prime": 1888,
      "imum": 1889,
      "tations": 1890,
      "org": 1891,
      "cted": 1892,
      "Ġpath": 1893,
      "Ġshows": 1894,
      "ĠLet": 1895,
      "ward": 1896,
      "Ġval": 1897,
      "matrix": 1898,
      "ng": 1899,
      "otential": 1900,
      "tus": 1901,
      "Ġsingle": 1902,
      "ities": 1903,
      "uration": 1904,
      "\\]": 1905,
      "Ġyear": 1906,
      "tabular": 1907,
      "gebra": 1908,
      "Ġpredic": 1909,
      "}+": 1910,
      "ask": 1911,
      "Ġfinite": 1912,
      "Ġexperim": 1913,
      "translation": 1914,
      "Ġdete": 1915,
      "group": 1916,
      "pper": 1917,
      "\\{": 1918,
      ")=\\": 1919,
      "');": 1920,
      "zeta": 1921,
      "Error": 1922,
      "map": 1923,
      "Ġoptim": 1924,
      "Ġmust": 1925,
      "Ġtyp": 1926,
      "60": 1927,
      "Ġconstant": 1928,
      "ology": 1929,
      "verse": 1930,
      "ĠThere": 1931,
      "Ġcondition": 1932,
      "Ġvariable": 1933,
      "ĠTheorem": 1934,
      "AM": 1935,
      "Ġscal": 1936,
      "Get": 1937,
      "Ġpoints": 1938,
      "Ġmany": 1939,
      "Ġam": 1940,
      "ited": 1941,
      "Ġaddition": 1942,
      "Ġhow": 1943,
      "Ġindic": 1944,
      "Ġdirect": 1945,
      "summary": 1946,
      "annel": 1947,
      "ffer": 1948,
      "ival": 1949,
      "Ġstand": 1950,
      "ices": 1951,
      "80": 1952,
      "px": 1953,
      "tity": 1954,
      "ĠEq": 1955,
      "Ġaction": 1956,
      "mission": 1957,
      "Ġdue": 1958,
      "draw": 1959,
      "imple": 1960,
      "ication": 1961,
      "Ġapproxi": 1962,
      "length": 1963,
      "pec": 1964,
      "Ġact": 1965,
      "Ġav": 1966,
      "script": 1967,
      "Ġobserv": 1968,
      "roll": 1969,
      "orted": 1970,
      "ĠEx": 1971,
      "].": 1972,
      "Ġhere": 1973,
      "}=\\": 1974,
      "ĠHe": 1975,
      "indow": 1976,
      "omorph": 1977,
      "lies": 1978,
      "thm": 1979,
      "Ġlear": 1980,
      "Ġdimension": 1981,
      "33": 1982,
      "king": 1983,
      "lus": 1984,
      "ug": 1985,
      "Ġflu": 1986,
      "Ġleft": 1987,
      "Ġ&=": 1988,
      "ava": 1989,
      ")}\\": 1990,
      "inc": 1991,
      "ets": 1992,
      ")^{": 1993,
      "ational": 1994,
      "bed": 1995,
      "Ġexist": 1996,
      "uction": 1997,
      "Ġway": 1998,
      "Ġproof": 1999,
      "Ġstates": 2000,
      "under": 2001,
      "ock": 2002,
      "Ġread": 2003,
      "{(": 2004,
      "Test": 2005,
      "Ġrespectively": 2006,
      "Ġtheory": 2007,
      "ins": 2008,
      "ying": 2009,
      "ui": 2010,
      "ĠHowever": 2011,
      "Ġpossible": 2012,
      "CO": 2013,
      "().": 2014,
      "Ġplay": 2015,
      "Al": 2016,
      "bility": 2017,
      "tail": 2018,
      "Ġlist": 2019,
      "Ġsyste": 2020,
      "Ġbeing": 2021,
      "Ġspectr": 2022,
      "Cont": 2023,
      "date": 2024,
      "ĠUn": 2025,
      "AC": 2026,
      "Ġorigin": 2027,
      "ditions": 2028,
      "ĠString": 2029,
      "lable": 2030,
      "index": 2031,
      "oint": 2032,
      "ually": 2033,
      "45": 2034,
      "Ġcontinu": 2035,
      "He": 2036,
      "75": 2037,
      "());": 2038,
      "LL": 2039,
      "Ġvector": 2040,
      "Ġprivate": 2041,
      "dependent": 2042,
      "Ġher": 2043,
      "prop": 2044,
      "Ġoper": 2045,
      "lot": 2046,
      "Ġpair": 2047,
      "Ġpower": 2048,
      "ely": 2049,
      "Ġagain": 2050,
      "File": 2051,
      "const": 2052,
      "Ġuni": 2053,
      "tivity": 2054,
      "Ġmon": 2055,
      "ĠTo": 2056,
      "rc": 2057,
      "Ġphase": 2058,
      "$)": 2059,
      "ĠWh": 2060,
      "Ġemp": 2061,
      "Element": 2062,
      "Ġref": 2063,
      "Ġcalcula": 2064,
      "}_\\": 2065,
      "ĠĠĠĠĠĠĠĠĠĠĠĠ": 2066,
      ";\\": 2067,
      "Ġmultip": 2068,
      "}]": 2069,
      "ott": 2070,
      "Me": 2071,
      "yc": 2072,
      "Ġmake": 2073,
      "cept": 2074,
      "Ġrandom": 2075,
      "cer": 2076,
      "}^\\": 2077,
      "Ġrange": 2078,
      "Ġintrodu": 2079,
      "}|": 2080,
      "antum": 2081,
      "Ġhel": 2082,
      "aw": 2083,
      "ants": 2084,
      "ĠâĢľ": 2085,
      "Ġcomplex": 2086,
      "path": 2087,
      "Ġanalysis": 2088,
      "Ġpotential": 2089,
      "Ġalgorithm": 2090,
      "Ġimage": 2091,
      "PE": 2092,
      "ason": 2093,
      "Ġsource": 2094,
      "widehat": 2095,
      "Ġlast": 2096,
      "cdots": 2097,
      "Ġthose": 2098,
      "side": 2099,
      "tics": 2100,
      "ĠâĢĵ": 2101,
      "lemma": 2102,
      "Ġlimit": 2103,
      "Vert": 2104,
      "spect": 2105,
      ".~": 2106,
      "base": 2107,
      "Ġtarget": 2108,
      "If": 2109,
      "verage": 2110,
      "It": 2111,
      "mages": 2112,
      "Ġlat": 2113,
      "State": 2114,
      "2019": 2115,
      "Class": 2116,
      "Ġmean": 2117,
      "velop": 2118,
      "Ġlength": 2119,
      "Ġevent": 2120,
      "link": 2121,
      "lication": 2122,
      "ĉĉĉĉĉ": 2123,
      "Ġsymme": 2124,
      "url": 2125,
      "other": 2126,
      "textwidth": 2127,
      "Ġplan": 2128,
      "perty": 2129,
      "27": 2130,
      "Ġwhat": 2131,
      "On": 2132,
      "Ġdefine": 2133,
      "ternal": 2134,
      "lobal": 2135,
      "sert": 2136,
      "Ġindex": 2137,
      "ĠSection": 2138,
      "ii": 2139,
      "jects": 2140,
      "Ġpropo": 2141,
      "})\\": 2142,
      "Op": 2143,
      "operator": 2144,
      "Ġwithin": 2145,
      "AS": 2146,
      "Ġassoci": 2147,
      "qquad": 2148,
      "IC": 2149,
      "Ġbefore": 2150,
      "Ġpresent": 2151,
      "{{\\": 2152,
      "}}(": 2153,
      "Ġderiv": 2154,
      "Sh": 2155,
      "Ġcoun": 2156,
      "Key": 2157,
      "90": 2158,
      "iod": 2159,
      "lin": 2160,
      "temp": 2161,
      "Ġterm": 2162,
      "Ġprevious": 2163,
      "tis": 2164,
      "TE": 2165,
      "Ġvis": 2166,
      "/**": 2167,
      "Ġrate": 2168,
      "Equ": 2169,
      "orts": 2170,
      "Ġdynam": 2171,
      "Ġtotal": 2172,
      "nb": 2173,
      "load": 2174,
      "Ġmethods": 2175,
      "Ġstrong": 2176,
      "With": 2177,
      "asi": 2178,
      "Ġet": 2179,
      "Time": 2180,
      "ute": 2181,
      "ron": 2182,
      "Ġjust": 2183,
      "^+": 2184,
      "vari": 2185,
      "ĠFigure": 2186,
      "2018": 2187,
      "ape": 2188,
      "Ġknow": 2189,
      "tribute": 2190,
      "Ġproperties": 2191,
      "Ġdeg": 2192,
      "sequ": 2193,
      "Ġlog": 2194,
      "Requ": 2195,
      "Ġ\\{": 2196,
      "Ġconver": 2197,
      "pace": 2198,
      "AP": 2199,
      "eps": 2200,
      "Ġ/*": 2201,
      "28": 2202,
      "list": 2203,
      "Psi": 2204,
      "Event": 2205,
      "35": 2206,
      "Ġelec": 2207,
      "ched": 2208,
      "Ġboo": 2209,
      "model": 2210,
      ")]": 2211,
      "Ġrespon": 2212,
      "land": 2213,
      "note": 2214,
      "Qu": 2215,
      "Ġclu": 2216,
      "&=": 2217,
      "Ġyour": 2218,
      "mathsf": 2219,
      "ĠLemma": 2220,
      "ules": 2221,
      "Ġboun": 2222,
      "Node": 2223,
      "RO": 2224,
      "till": 2225,
      "ither": 2226,
      "Ġstudy": 2227,
      "05": 2228,
      "Ġzero": 2229,
      "Ġcoup": 2230,
      "Ġexists": 2231,
      "Ġdetermin": 2232,
      "Ġcheck": 2233,
      "2017": 2234,
      "Ġbas": 2235,
      "Ġ$(\\": 2236,
      "Ġ);": 2237,
      "01": 2238,
      "light": 2239,
      "99": 2240,
      "ources": 2241,
      "(),": 2242,
      "Ġconfig": 2243,
      "}\\,": 2244,
      "'t": 2245,
      "small": 2246,
      "Ġ?": 2247,
      "onal": 2248,
      "thing": 2249,
      "Ġwithout": 2250,
      "mun": 2251,
      "Ġocc": 2252,
      "ordin": 2253,
      "aus": 2254,
      "ily": 2255,
      "rid": 2256,
      "\";": 2257,
      "/*": 2258,
      "ude": 2259,
      "Ġbase": 2260,
      "aris": 2261,
      "Ġnext": 2262,
      "tically": 2263,
      "Ġmom": 2264,
      "Int": 2265,
      "Ġcontext": 2266,
      "Ġarray": 2267,
      ",-": 2268,
      "26": 2269,
      "http": 2270,
      "Ġnormal": 2271,
      "Ġprobability": 2272,
      "}^{(": 2273,
      "ĉĊ": 2274,
      "Ġconditions": 2275,
      "rows": 2276,
      "ĠAr": 2277,
      "pdf": 2278,
      "Ġinstance": 2279,
      "}\\\\": 2280,
      "wn": 2281,
      "ctor": 2282,
      "Ġ},": 2283,
      "ances": 2284,
      "subset": 2285,
      "Ġcontrol": 2286,
      "ister": 2287,
      "cup": 2288,
      "ental": 2289,
      "netic": 2290,
      "Ġlay": 2291,
      "tot": 2292,
      "alax": 2293,
      "Ġlower": 2294,
      "cos": 2295,
      "Ġsimp": 2296,
      "roid": 2297,
      "Ġformu": 2298,
      "ĠNew": 2299,
      "Ġcar": 2300,
      "which": 2301,
      "fe": 2302,
      "Ġopen": 2303,
      "Ġperformance": 2304,
      "bor": 2305,
      "mid": 2306,
      "location": 2307,
      "Ġindu": 2308,
      "Ġversion": 2309,
      "Ġtech": 2310,
      "\":": 2311,
      "['": 2312,
      ".</": 2313,
      "Ġenc": 2314,
      "IM": 2315,
      "ople": 2316,
      "public": 2317,
      "Ġblock": 2318,
      "Ġcode": 2319,
      "Ġcalled": 2320,
      "ĠNo": 2321,
      "rack": 2322,
      "Ġremain": 2323,
      "ev": 2324,
      "search": 2325,
      "}+\\": 2326,
      "pack": 2327,
      "field": 2328,
      "Index": 2329,
      "appro": 2330,
      "Ġ===": 2331,
      "Ġtext": 2332,
      "nbsp": 2333,
      "Ġ&\\": 2334,
      "cho": 2335,
      "tron": 2336,
      "upp": 2337,
      "medi": 2338,
      "Ġquantum": 2339,
      "Ġsystems": 2340,
      "vir": 2341,
      "Ġmy": 2342,
      "star": 2343,
      "ures": 2344,
      "ify": 2345,
      "arg": 2346,
      "ager": 2347,
      "ensor": 2348,
      "Lo": 2349,
      "ĠRes": 2350,
      "Ġmuch": 2351,
      "2016": 2352,
      "anel": 2353,
      "Man": 2354,
      "pos": 2355,
      "ĠSta": 2356,
      "Ġsequence": 2357,
      "Ġview": 2358,
      "Ġequival": 2359,
      "ik": 2360,
      "ĠBy": 2361,
      "urb": 2362,
      "sif": 2363,
      "Ġidentif": 2364,
      "08": 2365,
      "ouble": 2366,
      "Ġfactor": 2367,
      "havi": 2368,
      "Ġtimes": 2369,
      "from": 2370,
      "arent": 2371,
      "Ġknown": 2372,
      "effici": 2373,
      "citet": 2374,
      "onents": 2375,
      "lected": 2376,
      "ĠOn": 2377,
      "Ġtemperature": 2378,
      "igned": 2379,
      "Ġoutput": 2380,
      "Ġpositive": 2381,
      "Ġshe": 2382,
      "osition": 2383,
      "Ġfour": 2384,
      "foot": 2385,
      "gg": 2386,
      "Ġduring": 2387,
      "ocument": 2388,
      "anc": 2389,
      "Ġalong": 2390,
      "Ġexpected": 2391,
      "lying": 2392,
      "Ġsimple": 2393,
      "Ġobserved": 2394,
      "Ġphot": 2395,
      "Com": 2396,
      "Ġdevelop": 2397,
      "Path": 2398,
      "point": 2399,
      "]$": 2400,
      "2015": 2401,
      "Ġframe": 2402,
      "}:": 2403,
      "IS": 2404,
      "Ġuser": 2405,
      "Ġge": 2406,
      "split": 2407,
      "Ġassume": 2408,
      "Le": 2409,
      "Ġsignific": 2410,
      "umb": 2411,
      "imal": 2412,
      "29": 2413,
      "equiv": 2414,
      "wise": 2415,
      "ends": 2416,
      "Ġcirc": 2417,
      "hspace": 2418,
      "Se": 2419,
      "way": 2420,
      "scale": 2421,
      "Ġfixed": 2422,
      "Ġmatch": 2423,
      "Ġhigher": 2424,
      "lated": 2425,
      "ush": 2426,
      "Ġdiscus": 2427,
      "ailable": 2428,
      "dimension": 2429,
      "']": 2430,
      "call": 2431,
      "TR": 2432,
      "Ġimple": 2433,
      "operatorname": 2434,
      "define": 2435,
      "xspace": 2436,
      "34": 2437,
      "but": 2438,
      "Ġstandard": 2439,
      "pping": 2440,
      "|^": 2441,
      "ati": 2442,
      "Ġthus": 2443,
      "Ġfrequ": 2444,
      "page": 2445,
      "View": 2446,
      "++": 2447,
      "Ġinteraction": 2448,
      "off": 2449,
      "2020": 2450,
      "II": 2451,
      "198": 2452,
      "Ġassert": 2453,
      "Ġalgebra": 2454,
      "state": 2455,
      "Ġtake": 2456,
      "){": 2457,
      "Ġsm": 2458,
      "Text": 2459,
      "':": 2460,
      "'$": 2461,
      "Ġelements": 2462,
      "omin": 2463,
      "Ġassociated": 2464,
      "System": 2465,
      "}}{\\": 2466,
      "Info": 2467,
      "cription": 2468,
      "ION": 2469,
      "js": 2470,
      "Ġstill": 2471,
      "AB": 2472,
      "Ġgu": 2473,
      "lip": 2474,
      "ĠĠĠĠĊ": 2475,
      "Array": 2476,
      "indent": 2477,
      "lied": 2478,
      "iled": 2479,
      "Ġcombin": 2480,
      "neq": 2481,
      "Ġdown": 2482,
      "licit": 2483,
      "alle": 2484,
      "}-\\": 2485,
      "oll": 2486,
      "den": 2487,
      "Ġcases": 2488,
      "umerate": 2489,
      "Ġwidth": 2490,
      "Ġchange": 2491,
      "ED": 2492,
      "2014": 2493,
      "Ġfurther": 2494,
      "Ġproperty": 2495,
      "theorem": 2496,
      "olutions": 2497,
      "Ġrele": 2498,
      "[]": 2499,
      "Ġfam": 2500,
      "ĠEn": 2501,
      "input": 2502,
      "dt": 2503,
      "ording": 2504,
      "sets": 2505,
      "Ġscale": 2506,
      "LO": 2507,
      "Ġevalu": 2508,
      "({\\": 2509,
      "Ġposition": 2510,
      "lassif": 2511,
      "Ġproduct": 2512,
      "lue": 2513,
      "``": 2514,
      "member": 2515,
      "Ġ(!": 2516,
      "Ġabs": 2517,
      "Ġphys": 2518,
      "sian": 2519,
      "Ġwrit": 2520,
      "Ġdenote": 2521,
      "footnote": 2522,
      "ET": 2523,
      "Ġimportant": 2524,
      "Ġ});": 2525,
      "Ġbackground": 2526,
      "scr": 2527,
      "ĠSh": 2528,
      "Ġcontra": 2529,
      "ottom": 2530,
      ")-": 2531,
      "Ġremo": 2532,
      "Ġpop": 2533,
      "$}": 2534,
      "Ġgalax": 2535,
      "Ġrequire": 2536,
      "ages": 2537,
      "ession": 2538,
      "Ġstudi": 2539,
      "Code": 2540,
      "asing": 2541,
      "Rec": 2542,
      "No": 2543,
      "Ġide": 2544,
      "Ġcontribu": 2545,
      "Ġquan": 2546,
      "Ġcho": 2547,
      "Ġlines": 2548,
      "Ġ/>": 2549,
      "////////": 2550,
      "Ġbelow": 2551,
      "Ġke": 2552,
      "Wh": 2553,
      "Ġconf": 2554,
      "Ġaround": 2555,
      "Ġequations": 2556,
      "enumerate": 2557,
      "Ġchang": 2558,
      "App": 2559,
      "70": 2560,
      "Ġnil": 2561,
      "Ġboundary": 2562,
      "Context": 2563,
      "Ġimpro": 2564,
      "Ġappear": 2565,
      "mi": 2566,
      "do": 2567,
      "sin": 2568,
      "Ġclear": 2569,
      "Ġspin": 2570,
      "Ġproposed": 2571,
      "Ġtraining": 2572,
      "Ġauth": 2573,
      "itor": 2574,
      "ĠLe": 2575,
      "Ġ-\\": 2576,
      "Ġanaly": 2577,
      "ĠSince": 2578,
      "Ġbreak": 2579,
      "(-": 2580,
      "Ġfree": 2581,
      "Ġcross": 2582,
      "Ġdistance": 2583,
      "Ġsever": 2584,
      "ams": 2585,
      "Ġfull": 2586,
      "Ġleast": 2587,
      "ride": 2588,
      "Ġstart": 2589,
      "Ġsetting": 2590,
      "AD": 2591,
      "util": 2592,
      "Ġcomplete": 2593,
      "api": 2594,
      "oh": 2595,
      "ache": 2596,
      "attern": 2597,
      "From": 2598,
      "itemize": 2599,
      "Ġrespect": 2600,
      "Ġfit": 2601,
      "ES": 2602,
      "Ġsepar": 2603,
      "Ġlink": 2604,
      "Ġdiff": 2605,
      "cope": 2606,
      "dag": 2607,
      "Ġvalid": 2608,
      "Config": 2609,
      "48": 2610,
      "]\\": 2611,
      "Ġsignificant": 2612,
      "void": 2613,
      "UR": 2614,
      "Ġear": 2615,
      "Ġfields": 2616,
      "ĠAss": 2617,
      "tra": 2618,
      "2013": 2619,
      "())": 2620,
      "Ġfa": 2621,
      ")}{": 2622,
      "Of": 2623,
      "any": 2624,
      "Ġsimula": 2625,
      "ological": 2626,
      "Ġperiod": 2627,
      "Ġsupport": 2628,
      "true": 2629,
      "Ġbehavi": 2630,
      "sw": 2631,
      "Ġconsist": 2632,
      "Ġnear": 2633,
      "Ġbin": 2634,
      "Ġeither": 2635,
      "omial": 2636,
      "Request": 2637,
      "display": 2638,
      "ways": 2639,
      "36": 2640,
      "Ġeffect": 2641,
      "Exp": 2642,
      "Ġinf": 2643,
      "Ġlabel": 2644,
      "Ġmade": 2645,
      "Ġestima": 2646,
      "valid": 2647,
      "Map": 2648,
      "Ġexact": 2649,
      "~$": 2650,
      "Ġbest": 2651,
      "Ite": 2652,
      "Ġdetail": 2653,
      "opy": 2654,
      "ump": 2655,
      "her": 2656,
      "Add": 2657,
      "Ġweight": 2658,
      "Ġfil": 2659,
      "tig": 2660,
      "Ġnumer": 2661,
      "Ġgood": 2662,
      "Def": 2663,
      "Or": 2664,
      "ĠĠĠĠĠĠĠĠĠĠĠĠĠĠĠĠĠĠĠĠĠĠĠĠĠĠĠ": 2665,
      "edge": 2666,
      "Ġfeatures": 2667,
      "Ġsurface": 2668,
      "Ġprovid": 2669,
      "Ġdescribed": 2670,
      "ogle": 2671,
      "ater": 2672,
      ")}$": 2673,
      "uments": 2674,
      "xy": 2675,
      "CH": 2676,
      "bb": 2677,
      "amespace": 2678,
      "Ġdomain": 2679,
      "Ġstep": 2680,
      "';": 2681,
      "vis": 2682,
      "dimensional": 2683,
      "day": 2684,
      "sm": 2685,
      "itch": 2686,
      "vspace": 2687,
      "****************": 2688,
      "gener": 2689,
      "mathscr": 2690,
      "linear": 2691,
      "2012": 2692,
      "Ġvel": 2693,
      "loat": 2694,
      "Ġ};": 2695,
      "Ġchannel": 2696,
      "struct": 2697,
      "{}": 2698,
      "ĠThus": 2699,
      "38": 2700,
      "Ġcomponent": 2701,
      "Ġ__": 2702,
      "noindent": 2703,
      "defined": 2704,
      "Ġimplies": 2705,
      "ĠĠĠĠĠĠĠĠĠĠ": 2706,
      "Ġdefault": 2707,
      "Ġlight": 2708,
      "Ġ\\|": 2709,
      "Ġdirection": 2710,
      "ML": 2711,
      "ware": 2712,
      "UT": 2713,
      "ife": 2714,
      "igen": 2715,
      "Dis": 2716,
      "Ġaccu": 2717,
      "Over": 2718,
      "ilder": 2719,
      "Ġdefinition": 2720,
      "Be": 2721,
      "tio": 2722,
      "Ġdep": 2723,
      "mul": 2724,
      "ging": 2725,
      "pon": 2726,
      "Ġmark": 2727,
      "ura": 2728,
      "ring": 2729,
      "ged": 2730,
      "Ġdeno": 2731,
      "Ġunit": 2732,
      "95": 2733,
      "ocus": 2734,
      "ters": 2735,
      "net": 2736,
      "assert": 2737,
      "Ġconsidered": 2738,
      "olumn": 2739,
      "cing": 2740,
      "ral": 2741,
      "Ġsets": 2742,
      "\"></": 2743,
      "tices": 2744,
      "Ġloss": 2745,
      "Tr": 2746,
      "ready": 2747,
      "Ġaverage": 2748,
      "user": 2749,
      "Pi": 2750,
      "error": 2751,
      "olic": 2752,
      "Size": 2753,
      "head": 2754,
      "py": 2755,
      "ars": 2756,
      "Ġbi": 2757,
      "}}_": 2758,
      "mbed": 2759,
      "Ġcoeffici": 2760,
      "Ġflow": 2761,
      "body": 2762,
      "check": 2763,
      "Ġsaid": 2764,
      "oin": 2765,
      "\\,\\": 2766,
      "Ġedge": 2767,
      "stead": 2768,
      "04": 2769,
      "Ġless": 2770,
      "Ġpeople": 2771,
      "eV": 2772,
      "0000": 2773,
      "ĠThese": 2774,
      "uage": 2775,
      "37": 2776,
      "ken": 2777,
      "stand": 2778,
      "ane": 2779,
      "Ġexpression": 2780,
      "\"\"": 2781,
      "ĠOb": 2782,
      "ended": 2783,
      "Ġclose": 2784,
      ")+": 2785,
      "Ġmoment": 2786,
      "Des": 2787,
      "tional": 2788,
      "âĢĵ": 2789,
      "Ġlit": 2790,
      "Ġlook": 2791,
      "atter": 2792,
      "eturn": 2793,
      "ric": 2794,
      "based": 2795,
      "resh": 2796,
      "Ġoptions": 2797,
      "olume": 2798,
      "\\}$": 2799,
      "ocity": 2800,
      "rans": 2801,
      "viron": 2802,
      "IG": 2803,
      "65": 2804,
      "There": 2805,
      "ouse": 2806,
      "Ġlearning": 2807,
      "Service": 2808,
      "Ġband": 2809,
      "Ġmeans": 2810,
      "2011": 2811,
      "Ġrefer": 2812,
      "ustom": 2813,
      "FF": 2814,
      "md": 2815,
      "ĠApp": 2816,
      "teq": 2817,
      "https": 2818,
      "Ġinterest": 2819,
      "Ġgenerated": 2820,
      "icro": 2821,
      "my": 2822,
      "apache": 2823,
      "Ġavailable": 2824,
      "ttp": 2825,
      "Ġvia": 2826,
      "ret": 2827,
      "default": 2828,
      "Hand": 2829,
      "bs": 2830,
      "Ver": 2831,
      "Ġseveral": 2832,
      "formed": 2833,
      "Ġprovide": 2834,
      "Ġcell": 2835,
      "result": 2836,
      "Ġyears": 2837,
      "Ġ_{": 2838,
      "Ġincluding": 2839,
      "Ġrequired": 2840,
      "Ġwrite": 2841,
      "Model": 2842,
      "Ġside": 2843,
      "LA": 2844,
      "2010": 2845,
      "gative": 2846,
      "Ġlarger": 2847,
      "iform": 2848,
      "}}}": 2849,
      "command": 2850,
      "Ġtable": 2851,
      "func": 2852,
      "gen": 2853,
      "02": 2854,
      "Ġhal": 2855,
      "Ġextra": 2856,
      "serv": 2857,
      "Ġcontains": 2858,
      "png": 2859,
      "create": 2860,
      "multic": 2861,
      "Ġcri": 2862,
      "Ġprove": 2863,
      "Ġho": 2864,
      "loy": 2865,
      "illi": 2866,
      "ĠMore": 2867,
      "ether": 2868,
      "word": 2869,
      "Ġcolumn": 2870,
      "that": 2871,
      "Ġrepresentation": 2872,
      "version": 2873,
      "((": 2874,
      "Ġrelation": 2875,
      "ris": 2876,
      "Ġequal": 2877,
      "39": 2878,
      "arison": 2879,
      "site": 2880,
      "angle": 2881,
      "Ġassump": 2882,
      "Is": 2883,
      "van": 2884,
      "pc": 2885,
      "sto": 2886,
      "most": 2887,
      "trm": 2888,
      "chan": 2889,
      "Table": 2890,
      "Ġgives": 2891,
      "nal": 2892,
      "abled": 2893,
      "nav": 2894,
      "now": 2895,
      "approx": 2896,
      "Ġrece": 2897,
      "44": 2898,
      "lain": 2899,
      "Ġspe": 2900,
      "31": 2901,
      "Ġweak": 2902,
      "char": 2903,
      "Ġachi": 2904,
      "Ġiter": 2905,
      "&&": 2906,
      "Ġhom": 2907,
      "seteq": 2908,
      "Ġnote": 2909,
      "textrm": 2910,
      "Ġmagnetic": 2911,
      "Ġsolutions": 2912,
      "ync": 2913,
      "uture": 2914,
      "55": 2915,
      "cl": 2916,
      "Inter": 2917,
      "mar": 2918,
      "Ġcoordin": 2919,
      "pped": 2920,
      "Ġaff": 2921,
      "Ġcreate": 2922,
      "Ġoccur": 2923,
      "multicolumn": 2924,
      "Ġnat": 2925,
      "tag": 2926,
      "normal": 2927,
      "Ġcolor": 2928,
      "Ġcommun": 2929,
      "ooth": 2930,
      "Ġtitle": 2931,
      "underline": 2932,
      "ĠAt": 2933,
      "method": 2934,
      "config": 2935,
      "06": 2936,
      "ĠAd": 2937,
      "Ġfla": 2938,
      "Field": 2939,
      "sl": 2940,
      "Ġindependent": 2941,
      "CC": 2942,
      "loc": 2943,
      "Ġinst": 2944,
      "Ġholds": 2945,
      "Ġclassif": 2946,
      "matic": 2947,
      "Ġmis": 2948,
      "NN": 2949,
      "aving": 2950,
      "tition": 2951,
      "^-": 2952,
      "IP": 2953,
      "ale": 2954,
      "tle": 2955,
      "part": 2956,
      "}/": 2957,
      "gence": 2958,
      "ecess": 2959,
      "Ġmode": 2960,
      "07": 2961,
      "ateg": 2962,
      "Ġspecific": 2963,
      "Ġmar": 2964,
      "Ġturn": 2965,
      "Ġconstrain": 2966,
      "ln": 2967,
      "Ġbetter": 2968,
      "ĠTable": 2969,
      "kes": 2970,
      "ket": 2971,
      "ategory": 2972,
      "por": 2973,
      "reate": 2974,
      "finite": 2975,
      "Ġvariables": 2976,
      "Ġanother": 2977,
      "Ġmen": 2978,
      "Ġintegra": 2979,
      "Ġseries": 2980,
      "Ġcap": 2981,
      "block": 2982,
      "Ġseen": 2983,
      "ĠComp": 2984,
      "Ġestimate": 2985,
      "ĠCom": 2986,
      "ah": 2987,
      "Ġcontent": 2988,
      "reen": 2989,
      "fill": 2990,
      "meric": 2991,
      "icon": 2992,
      "Ġwave": 2993,
      "local": 2994,
      "minus": 2995,
      "Ġspectrum": 2996,
      "ynomial": 2997,
      "subseteq": 2998,
      "Ġgive": 2999,
      "texttt": 3000,
      "object": 3001,
      "Ġpass": 3002,
      "Ġtherefore": 3003,
      "Ġim": 3004,
      "66": 3005,
      "Ġrecent": 3006,
      "CD": 3007,
      "Ġrelated": 3008,
      "though": 3009,
      "refer": 3010,
      "Theta": 3011,
      "Ġcomponents": 3012,
      "ĠSo": 3013,
      "Ġcluster": 3014,
      "down": 3015,
      "mentation": 3016,
      "gl": 3017,
      "Ġoriginal": 3018,
      "Ġsearch": 3019,
      "conn": 3020,
      "Ġcer": 3021,
      "Ġhim": 3022,
      "2009": 3023,
      "Ġinclude": 3024,
      "<\\": 3025,
      "ĠNote": 3026,
      "PI": 3027,
      "Item": 3028,
      "Ġfew": 3029,
      "has": 3030,
      "sions": 3031,
      "][": 3032,
      "ĠTherefore": 3033,
      "Ġrelations": 3034,
      "Since": 3035,
      "multi": 3036,
      "totype": 3037,
      "Out": 3038,
      "norm": 3039,
      "af": 3040,
      "Then": 3041,
      "09": 3042,
      "Ġdid": 3043,
      "Ġrequest": 3044,
      "}^{-": 3045,
      "Ġachie": 3046,
      "Ġ$\\{": 3047,
      "),\\": 3048,
      "MA": 3049,
      "lations": 3050,
      "lete": 3051,
      "Ġauto": 3052,
      "Ġresponse": 3053,
      "Ġimages": 3054,
      "pher": 3055,
      "kn": 3056,
      "ird": 3057,
      "more": 3058,
      "Ġcl": 3059,
      "Ġdiv": 3060,
      "Ġprote": 3061,
      "Ġmedi": 3062,
      "Ġalready": 3063,
      "tor": 3064,
      "skip": 3065,
      "ressed": 3066,
      "jective": 3067,
      "long": 3068,
      "New": 3069,
      "port": 3070,
      "Group": 3071,
      "jor": 3072,
      "Ġregular": 3073,
      "Ġcoupling": 3074,
      "Ġ$|": 3075,
      "Ġtransition": 3076,
      "bul": 3077,
      "Ġneu": 3078,
      "ait": 3079,
      "}'": 3080,
      "Ġalways": 3081,
      "OT": 3082,
      "tational": 3083,
      "module": 3084,
      "tainer": 3085,
      "riter": 3086,
      "}}_{": 3087,
      "ns": 3088,
      "Message": 3089,
      "divid": 3090,
      "Ġsche": 3091,
      "duct": 3092,
      "ior": 3093,
      "Ġvelocity": 3094,
      "oplus": 3095,
      "oot": 3096,
      "versity": 3097,
      "03": 3098,
      "ymp": 3099,
      "Ġtheorem": 3100,
      "Ġsay": 3101,
      "Ġsignal": 3102,
      "ponse": 3103,
      "](": 3104,
      "Ġcannot": 3105,
      "Query": 3106,
      "ULL": 3107,
      "IR": 3108,
      "Ġprec": 3109,
      "Ġmaximum": 3110,
      "!--": 3111,
      "options": 3112,
      "Ġhelp": 3113,
      "Ġblack": 3114,
      "Ġques": 3115,
      "example": 3116,
      "Ġdifference": 3117,
      "Mod": 3118,
      "height": 3119,
      "Ġchild": 3120,
      "Ġinvari": 3121,
      "ĉĠĠĠ": 3122,
      "2008": 3123,
      "web": 3124,
      "All": 3125,
      "Ġdesign": 3126,
      "amil": 3127,
      "prod": 3128,
      "}},": 3129,
      "Ġintegr": 3130,
      "ible": 3131,
      "ender": 3132,
      "thes": 3133,
      "ING": 3134,
      "Sec": 3135,
      "current": 3136,
      "Ġeigen": 3137,
      "hand": 3138,
      "urity": 3139,
      "ĉĉĉĉĉĉ": 3140,
      "OS": 3141,
      "ĠPar": 3142,
      "Ġadditional": 3143,
      "orth": 3144,
      "^{-\\": 3145,
      "ticle": 3146,
      "Ġreco": 3147,
      "OD": 3148,
      "ety": 3149,
      "{$": 3150,
      ".$": 3151,
      "Ġsyn": 3152,
      "ename": 3153,
      "End": 3154,
      "omes": 3155,
      "Ġmultiple": 3156,
      "ĠGet": 3157,
      "laim": 3158,
      "=\"../../": 3159,
      "Ġshort": 3160,
      "Ġobjects": 3161,
      "ides": 3162,
      "Ġgreat": 3163,
      "Ġfilter": 3164,
      "Ġglobal": 3165,
      "mes": 3166,
      "like": 3167,
      "setminus": 3168,
      "ories": 3169,
      "ade": 3170,
      ")|": 3171,
      "www": 3172,
      "67": 3173,
      "Ġevolution": 3174,
      "flow": 3175,
      "ef": 3176,
      "ored": 3177,
      "Ġcor": 3178,
      "racy": 3179,
      "Ġ\\;": 3180,
      "ĠSet": 3181,
      "Ġmetric": 3182,
      "vices": 3183,
      "EE": 3184,
      "ĠSec": 3185,
      "US": 3186,
      "gether": 3187,
      "Ġ($\\": 3188,
      "Ã©": 3189,
      "ino": 3190,
      "--------------------------------": 3191,
      "ĠUni": 3192,
      "Ġwhether": 3193,
      "Ġeffects": 3194,
      "Ġeffici": 3195,
      "ĠMe": 3196,
      "_+": 3197,
      "Ġgeome": 3198,
      "Ġnecess": 3199,
      "roller": 3200,
      "ately": 3201,
      "vironment": 3202,
      "Ġeffective": 3203,
      "Reg": 3204,
      "MP": 3205,
      "omorphism": 3206,
      "Ġstars": 3207,
      "inally": 3208,
      "Ġbro": 3209,
      "Ġpers": 3210,
      "Ġcommon": 3211,
      "Ġhyper": 3212,
      "Ġti": 3213,
      "az": 3214,
      "Ġins": 3215,
      "dagger": 3216,
      "Ġcost": 3217,
      "Ġsw": 3218,
      "Ġinvol": 3219,
      "Ġcontinuous": 3220,
      "Ġcompared": 3221,
      "men": 3222,
      "49": 3223,
      "start": 3224,
      "icture": 3225,
      "*{": 3226,
      "Ġbasis": 3227,
      "lished": 3228,
      "izing": 3229,
      "Ġevents": 3230,
      "chool": 3231,
      "Ġbuil": 3232,
      "Ġ$[": 3233,
      "='": 3234,
      "Ġsk": 3235,
      "element": 3236,
      "Ġpanel": 3237,
      "ĠCol": 3238,
      "Ġdegree": 3239,
      "Ġpolynomial": 3240,
      "sup": 3241,
      "Ġinequ": 3242,
      "sitions": 3243,
      "Ġinves": 3244,
      "oding": 3245,
      "irt": 3246,
      "Ad": 3247,
      "Ġtask": 3248,
      "Ġrelative": 3249,
      "Property": 3250,
      "case": 3251,
      "using": 3252,
      "Ġmechan": 3253,
      "Ġatta": 3254,
      "Note": 3255,
      "ledge": 3256,
      "ires": 3257,
      "){\\": 3258,
      "Ġown": 3259,
      "Ġratio": 3260,
      "Ġreason": 3261,
      "can": 3262,
      "Ġprovided": 3263,
      "ĠĠĠĊ": 3264,
      "Ass": 3265,
      "ernel": 3266,
      "NS": 3267,
      "iff": 3268,
      "$_": 3269,
      "ĠSystem": 3270,
      "aces": 3271,
      "Ġamp": 3272,
      "GL": 3273,
      "Ġnoise": 3274,
      "struction": 3275,
      "\\}": 3276,
      "run": 3277,
      "ctions": 3278,
      "linewidth": 3279,
      "rary": 3280,
      "leg": 3281,
      "iven": 3282,
      "izes": 3283,
      "Ġlaw": 3284,
      "Ġspect": 3285,
      "Ġspecial": 3286,
      "allel": 3287,
      "Ġlang": 3288,
      "cep": 3289,
      "turb": 3290,
      "68": 3291,
      "Sub": 3292,
      "Ġrestr": 3293,
      "Manager": 3294,
      "Ġsuccess": 3295,
      "Ġflux": 3296,
      "Ġequivalent": 3297,
      "wards": 3298,
      "Ġfrequency": 3299,
      "oken": 3300,
      "gn": 3301,
      "acc": 3302,
      "incip": 3303,
      "wedge": 3304,
      "lugin": 3305,
      "Ġupper": 3306,
      "Ġvarious": 3307,
      "47": 3308,
      "oriz": 3309,
      "\\'": 3310,
      "terial": 3311,
      "Ġax": 3312,
      "deed": 3313,
      "MS": 3314,
      "iter": 3315,
      "core": 3316,
      "Ġfamily": 3317,
      "Ġloc": 3318,
      "Ġpresented": 3319,
      "column": 3320,
      "image": 3321,
      "Ġapplied": 3322,
      "Ġplace": 3323,
      "Log": 3324,
      "rees": 3325,
      "Po": 3326,
      "dient": 3327,
      "Ġhowever": 3328,
      "Ġnodes": 3329,
      "info": 3330,
      "Cell": 3331,
      "earch": 3332,
      "tage": 3333,
      "Ġmight": 3334,
      "Ġagainst": 3335,
      "Method": 3336,
      "])": 3337,
      "Ġmodule": 3338,
      "ecu": 3339,
      "Response": 3340,
      "Ġmessage": 3341,
      "Ġarea": 3342,
      "Ġ$-": 3343,
      "Ġoperators": 3344,
      "dividual": 3345,
      "Client": 3346,
      "dire": 3347,
      "Ġexpect": 3348,
      "Ġembed": 3349,
      "Ġpla": 3350,
      "ĠRo": 3351,
      "####": 3352,
      "Ġbounded": 3353,
      "umbers": 3354,
      "ĠIs": 3355,
      "gine": 3356,
      "ollary": 3357,
      "bug": 3358,
      "Input": 3359,
      "ght": 3360,
      "Call": 3361,
      "uting": 3362,
      "Ġfar": 3363,
      "Ġpur": 3364,
      "omen": 3365,
      "Ð¾": 3366,
      "Ġdri": 3367,
      "limits": 3368,
      "parameter": 3369,
      "Ġstyle": 3370,
      "85": 3371,
      "Ġbool": 3372,
      "Ġdia": 3373,
      "197": 3374,
      "And": 3375,
      "oose": 3376,
      "Ġ(-": 3377,
      "({": 3378,
      "empty": 3379,
      "rule": 3380,
      "Ġstatis": 3381,
      ")/": 3382,
      "ished": 3383,
      "eff": 3384,
      "ectors": 3385,
      "abs": 3386,
      "overn": 3387,
      "2007": 3388,
      "Ġjava": 3389,
      "ove": 3390,
      "UN": 3391,
      "Ġemission": 3392,
      "Ġconstruct": 3393,
      "Ġreach": 3394,
      "PS": 3395,
      "_*": 3396,
      "Ġlater": 3397,
      "quare": 3398,
      "Ġwhose": 3399,
      "oud": 3400,
      "jection": 3401,
      "Ġcenter": 3402,
      "context": 3403,
      "Ġgroups": 3404,
      "Co": 3405,
      "hood": 3406,
      "Ġhence": 3407,
      "doc": 3408,
      "known": 3409,
      "istory": 3410,
      "Ġgau": 3411,
      "AA": 3412,
      "bigg": 3413,
      "Ġtypes": 3414,
      "Ġvertex": 3415,
      "tiz": 3416,
      "Ġdataset": 3417,
      "false": 3418,
      "bullet": 3419,
      "level": 3420,
      "Ġenough": 3421,
      "Ġobservations": 3422,
      "Val": 3423,
      "ending": 3424,
      "Ġunique": 3425,
      "Fra": 3426,
      "ENT": 3427,
      "lar": 3428,
      "Ġexplicit": 3429,
      "Ġclosed": 3430,
      "Color": 3431,
      "FT": 3432,
      "Ġdouble": 3433,
      "Ġprofile": 3434,
      "iction": 3435,
      "Ġinstead": 3436,
      "ĠAnd": 3437,
      "amilton": 3438,
      "Ġlik": 3439,
      "Ġfig": 3440,
      "prototype": 3441,
      "AG": 3442,
      "tocol": 3443,
      "ĠCar": 3444,
      "ĠAll": 3445,
      "subfigure": 3446,
      "================": 3447,
      "gment": 3448,
      "corre": 3449,
      "Ġsymmetry": 3450,
      "ech": 3451,
      "Ġsto": 3452,
      "air": 3453,
      "Result": 3454,
      "Ġdecre": 3455,
      ")\\,": 3456,
      "OM": 3457,
      "Ġdetails": 3458,
      "Ġlayer": 3459,
      "ook": 3460,
      "Ġcurve": 3461,
      "Ġgas": 3462,
      "Ġrepresent": 3463,
      "ived": 3464,
      "fs": 3465,
      "stack": 3466,
      "tative": 3467,
      "Ġtechni": 3468,
      "Ph": 3469,
      "lications": 3470,
      "outh": 3471,
      "ilities": 3472,
      "db": 3473,
      "Ġexpan": 3474,
      "ĉĉĉĉĉĉĉĉ": 3475,
      "Ġuncer": 3476,
      "Ġthrow": 3477,
      "lap": 3478,
      "Ġextension": 3479,
      "ek": 3480,
      "Ġapproximation": 3481,
      "Ġaccording": 3482,
      "static": 3483,
      "Ġnatural": 3484,
      "QL": 3485,
      "Ġbehavior": 3486,
      "Ġdone": 3487,
      "ĠAmeric": 3488,
      "_{-": 3489,
      "Ġmatter": 3490,
      "Ġcyc": 3491,
      "Ġsmaller": 3492,
      "Ġsuffici": 3493,
      "_{{\\": 3494,
      "gt": 3495,
      "Ġaddress": 3496,
      "definition": 3497,
      "Fact": 3498,
      "Sp": 3499,
      "values": 3500,
      "Ġformula": 3501,
      "enari": 3502,
      "\\\"": 3503,
      "ture": 3504,
      "hip": 3505,
      "_{(": 3506,
      "uss": 3507,
      "}}(\\": 3508,
      "IL": 3509,
      "'_": 3510,
      "Ġ|\\": 3511,
      "Count": 3512,
      "CE": 3513,
      "Ġpack": 3514,
      "=(": 3515,
      "Ġcertain": 3516,
      "lor": 3517,
      "Ġstrate": 3518,
      "alth": 3519,
      "Ġil": 3520,
      "aligned": 3521,
      "Ġ}\\": 3522,
      "ĠSer": 3523,
      "change": 3524,
      "Ġapply": 3525,
      "older": 3526,
      "lt": 3527,
      "ru": 3528,
      "bt": 3529,
      "Ġuniform": 3530,
      "La": 3531,
      "Ġneigh": 3532,
      "98": 3533,
      "Stream": 3534,
      "Ð°": 3535,
      "ĠĠĠĠĠĠĠĠĠĠĠĠĠĠĠĠĠ": 3536,
      "Ġsmooth": 3537,
      "Ġresearch": 3538,
      "Ġexplo": 3539,
      "Pre": 3540,
      "colon": 3541,
      "len": 3542,
      "SU": 3543,
      "ĠPh": 3544,
      "ĠProposition": 3545,
      "Ġtaken": 3546,
      "ĠWhen": 3547,
      "Ġgrow": 3548,
      "Ġdiscre": 3549,
      "Spec": 3550,
      "Ġaccount": 3551,
      "Ġchoice": 3552,
      "PT": 3553,
      "aves": 3554,
      "Ġpost": 3555,
      "content": 3556,
      "ĠThey": 3557,
      "clo": 3558,
      "Ġinterval": 3559,
      "Ġdirectly": 3560,
      "Ġwant": 3561,
      "Ġmem": 3562,
      "Ġtransp": 3563,
      "Not": 3564,
      "Ġheight": 3565,
      "undle": 3566,
      "Ġworld": 3567,
      "cast": 3568,
      "2006": 3569,
      "Ġoptimal": 3570,
      "Ġtoo": 3571,
      "omic": 3572,
      "ropy": 3573,
      "Ġestab": 3574,
      "Ext": 3575,
      "Dec": 3576,
      "HT": 3577,
      "Ġparticle": 3578,
      "Ġ()": 3579,
      "ATE": 3580,
      "ital": 3581,
      "rel": 3582,
      "Fe": 3583,
      "ĠBut": 3584,
      "Ġdynamics": 3585,
      "Ġdon": 3586,
      "Ġgalaxies": 3587,
      "dap": 3588,
      "sid": 3589,
      "'\\": 3590,
      "Ġindividual": 3591,
      "HE": 3592,
      "cy": 3593,
      "Ðµ": 3594,
      "}$-": 3595,
      "ĠWith": 3596,
      "dro": 3597,
      "Ġsatisfies": 3598,
      "Token": 3599,
      "enti": 3600,
      ")}(": 3601,
      "package": 3602,
      "ranch": 3603,
      "Ġang": 3604,
      "aussian": 3605,
      "idence": 3606,
      "llar": 3607,
      "Ġsite": 3608,
      "cell": 3609,
      "Options": 3610,
      "aries": 3611,
      "alk": 3612,
      "Ġbecomes": 3613,
      "move": 3614,
      "Ġelectron": 3615,
      ",\\,": 3616,
      "Ġgauge": 3617,
      "Ġallows": 3618,
      "Ġ<<": 3619,
      "Status": 3620,
      "Ġ\\(": 3621,
      "orn": 3622,
      "Ġtogether": 3623,
      "Ref": 3624,
      "Ġfun": 3625,
      "eded": 3626,
      "ili": 3627,
      "Ġfocus": 3628,
      "forms": 3629,
      ")^{\\": 3630,
      "=\"+": 3631,
      "SC": 3632,
      "Ġconnected": 3633,
      "Ġ]": 3634,
      "Ġpattern": 3635,
      "Ġsimulations": 3636,
      "Ġcompact": 3637,
      "sa": 3638,
      "perp": 3639,
      "Gener": 3640,
      "event": 3641,
      "SP": 3642,
      "Equal": 3643,
      "Ġdetermined": 3644,
      ":\\": 3645,
      "Ġparticles": 3646,
      "Ġhard": 3647,
      "Ġ~": 3648,
      "Ġregions": 3649,
      "Sty": 3650,
      "Ġfuture": 3651,
      "google": 3652,
      "remark": 3653,
      "Ġhead": 3654,
      "Ġnuc": 3655,
      "Ġtree": 3656,
      ">(": 3657,
      "Ġnumerical": 3658,
      "42": 3659,
      "izer": 3660,
      "Ġconstruction": 3661,
      "Ġtry": 3662,
      "Ġreference": 3663,
      "Ġir": 3664,
      "Ġmer": 3665,
      "Ġboolean": 3666,
      "mail": 3667,
      "Ġmaps": 3668,
      "ĠĠĠĠĠĠĠĠĠĠĠĠĠĠ": 3669,
      "$(": 3670,
      "Ġradius": 3671,
      "Ġred": 3672,
      "uman": 3673,
      "Ġimprove": 3674,
      "ĠFe": 3675,
      "Ġarbit": 3676,
      "ĠRec": 3677,
      "Ġsamples": 3678,
      "ba": 3679,
      "97": 3680,
      "auth": 3681,
      "black": 3682,
      "88": 3683,
      "ques": 3684,
      "Ġspectral": 3685,
      "Ġchanges": 3686,
      "Ġprovides": 3687,
      "Ġ-->": 3688,
      "range": 3689,
      "Ġphysical": 3690,
      "osen": 3691,
      ")_{": 3692,
      "Ġmove": 3693,
      "stit": 3694,
      "Override": 3695,
      "Ġscatter": 3696,
      "Ġfail": 3697,
      "ised": 3698,
      "Supp": 3699,
      "entif": 3700,
      "ience": 3701,
      "Ġvertices": 3702,
      "\\!\\!": 3703,
      "ours": 3704,
      "write": 3705,
      "fact": 3706,
      "ĠÐ": 3707,
      "active": 3708,
      "Ġdemon": 3709,
      "tings": 3710,
      "ĠBe": 3711,
      "Ġargument": 3712,
      "forall": 3713,
      "ĠDis": 3714,
      "Util": 3715,
      "={": 3716,
      "Ġable": 3717,
      "next": 3718,
      "Ġcompute": 3719,
      "aly": 3720,
      "orage": 3721,
      "EX": 3722,
      "irrep": 3723,
      "lash": 3724,
      "ĠSe": 3725,
      "lick": 3726,
      "ley": 3727,
      "TD": 3728,
      "Ġadj": 3729,
      "Ġplot": 3730,
      "Ġsources": 3731,
      "Ġstd": 3732,
      "ĠNULL": 3733,
      "zero": 3734,
      "Source": 3735,
      "Parameter": 3736,
      "Ġeasi": 3737,
      "Ġ+\\": 3738,
      "ĉĠ": 3739,
      "Ġamplit": 3740,
      "Ġproced": 3741,
      "orld": 3742,
      "append": 3743,
      "User": 3744,
      "ests": 3745,
      "Ġrole": 3746,
      "dx": 3747,
      ".\"": 3748,
      "Ġwritten": 3749,
      "subsubsection": 3750,
      "Ġcorrect": 3751,
      "Net": 3752,
      "meta": 3753,
      "Ġconfiguration": 3754,
      "ĠHence": 3755,
      "46": 3756,
      "Ġprior": 3757,
      "96": 3758,
      "DF": 3759,
      "Ġaccess": 3760,
      "Ġprac": 3761,
      "mbers": 3762,
      "ested": 3763,
      "Ġexperiments": 3764,
      "Ġscheme": 3765,
      "ĠTr": 3766,
      "fit": 3767,
      "SI": 3768,
      "Ġrest": 3769,
      "LT": 3770,
      "Ġcover": 3771,
      "Ġproblems": 3772,
      "Ġpeak": 3773,
      "ithub": 3774,
      "Trans": 3775,
      "ators": 3776,
      "Ġframework": 3777,
      "Ġwindow": 3778,
      "Function": 3779,
      "frame": 3780,
      "=-": 3781,
      "Ġmanif": 3782,
      "Ġrather": 3783,
      "Ġcritical": 3784,
      "Ġsoft": 3785,
      "Ġgame": 3786,
      "Ġdiscussed": 3787,
      "Ġacross": 3788,
      "Ġbegin": 3789,
      "ĠOne": 3790,
      "Bar": 3791,
      "Ġwar": 3792,
      "Ġsit": 3793,
      "Ġsrc": 3794,
      "Ġinequality": 3795,
      "target": 3796,
      "oper": 3797,
      "Base": 3798,
      "*/": 3799,
      "bi": 3800,
      "soft": 3801,
      "Eq": 3802,
      "Ġmomentum": 3803,
      "Line": 3804,
      "dim": 3805,
      "Ġtensor": 3806,
      "pag": 3807,
      "ank": 3808,
      "mag": 3809,
      "Now": 3810,
      "77": 3811,
      "child": 3812,
      "ood": 3813,
      "Ġopp": 3814,
      "ympto": 3815,
      "dir": 3816,
      "Ġground": 3817,
      "Ġcorresponds": 3818,
      "Ġnumbers": 3819,
      "ĠĠĠĠĠĠĠĠĠĠĠĠĠĠĠĠĠĠĠĠĠĠĠĠĠĠĠĠĠĠĠ": 3820,
      "encies": 3821,
      "Ġclassical": 3822,
      "reed": 3823,
      "cs": 3824,
      "igger": 3825,
      "Ġunderstand": 3826,
      "null": 3827,
      "rier": 3828,
      "ols": 3829,
      "Ġdecomp": 3830,
      "usion": 3831,
      "Ġaccuracy": 3832,
      "Ġlattice": 3833,
      "Builder": 3834,
      ")^{-": 3835,
      "para": 3836,
      "supp": 3837,
      "Ġservice": 3838,
      "Ġdomin": 3839,
      "Ġenti": 3840,
      "Ġoften": 3841,
      "Ġrow": 3842,
      "irtual": 3843,
      "gies": 3844,
      "ĠCo": 3845,
      "Ġamong": 3846,
      "aring": 3847,
      "Imp": 3848,
      "textsc": 3849,
      "2005": 3850,
      "Ġperturb": 3851,
      "Ġuntil": 3852,
      "Ġapplication": 3853,
      "Ġmeasured": 3854,
      "SO": 3855,
      "button": 3856,
      "Ġchain": 3857,
      "MC": 3858,
      "meq": 3859,
      "book": 3860,
      ";&": 3861,
      "used": 3862,
      "Instance": 3863,
      "Ġfore": 3864,
      "Ġresulting": 3865,
      "lector": 3866,
      "cond": 3867,
      "But": 3868,
      "vex": 3869,
      "43": 3870,
      "Ġcoefficients": 3871,
      "Ġconstraints": 3872,
      "Ġcomparison": 3873,
      "client": 3874,
      "Ġnegative": 3875,
      "Ġincreasing": 3876,
      "Ġmeasurements": 3877,
      "city": 3878,
      "Ġassumption": 3879,
      "Ed": 3880,
      "idget": 3881,
      "Ġpolic": 3882,
      "query": 3883,
      "TH": 3884,
      "Ġderived": 3885,
      "comple": 3886,
      "Ġproject": 3887,
      "ably": 3888,
      "}^*": 3889,
      "gorithms": 3890,
      "Ġmaterial": 3891,
      "Ġincrease": 3892,
      "pmatrix": 3893,
      "One": 3894,
      "ideo": 3895,
      "âĢľ": 3896,
      "github": 3897,
      "ĠHamilton": 3898,
      "oder": 3899,
      "inte": 3900,
      "OO": 3901,
      "Ġdisplay": 3902,
      "mine": 3903,
      "Ġinternal": 3904,
      "ina": 3905,
      "ograph": 3906,
      "na": 3907,
      ".~(\\": 3908,
      "Ġclasses": 3909,
      "Ġprincip": 3910,
      "Style": 3911,
      "Ġscenari": 3912,
      "cases": 3913,
      "Ġdecay": 3914,
      "simeq": 3915,
      "Ġcentral": 3916,
      "Ġneutr": 3917,
      "rem": 3918,
      "$).": 3919,
      "PC": 3920,
      "ball": 3921,
      "trices": 3922,
      "}%": 3923,
      "2000": 3924,
      "andid": 3925,
      "Ġtherm": 3926,
      "uary": 3927,
      "ĠUniversity": 3928,
      "Ġalmost": 3929,
      "Ġapproximate": 3930,
      "tact": 3931,
      "anish": 3932,
      "Attribute": 3933,
      "Ġscalar": 3934,
      "~$\\": 3935,
      "Ġdescribe": 3936,
      "tributes": 3937,
      "Ġhttp": 3938,
      "Run": 3939,
      "Image": 3940,
      "uk": 3941,
      "Ġsen": 3942,
      "ĠHere": 3943,
      "Ġspatial": 3944,
      "vant": 3945,
      "Ġlife": 3946,
      "Ġitem": 3947,
      "first": 3948,
      "Ġrepresen": 3949,
      "bits": 3950,
      "ification": 3951,
      "Ġconven": 3952,
      "bottom": 3953,
      "Ġfraction": 3954,
      "Ġsimulation": 3955,
      "Ġoperation": 3956,
      "Ġ((": 3957,
      "Ġdemonstra": 3958,
      "}}^": 3959,
      "Ġperformed": 3960,
      "Ġdescription": 3961,
      "bert": 3962,
      "ERT": 3963,
      "pol": 3964,
      "Ġupdate": 3965,
      "Ġspecified": 3966,
      "Ġintroduced": 3967,
      "UE": 3968,
      "Ġ+=": 3969,
      "Ġquery": 3970,
      "First": 3971,
      "ially": 3972,
      "Filter": 3973,
      "ohn": 3974,
      "Ġillu": 3975,
      ")\\\\": 3976,
      "Ġerrors": 3977,
      "quot": 3978,
      "})$.": 3979,
      "ully": 3980,
      "Ġedges": 3981,
      "Ġcontribution": 3982,
      "typ": 3983,
      "process": 3984,
      "Ġmagn": 3985,
      "Ġcorrespond": 3986,
      "open": 3987,
      "kip": 3988,
      "Ġpartial": 3989,
      "Ġminimum": 3990,
      "Ġcour": 3991,
      ")}{\\": 3992,
      "Ġstruct": 3993,
      "Ġtw": 3994,
      "Ġwords": 3995,
      "mt": 3996,
      "FI": 3997,
      "Ġagree": 3998,
      "Buffer": 3999,
      "Here": 4000,
      "mma": 4001,
      "dings": 4002,
      "Ġplane": 4003,
      "iness": 4004,
      "cr": 4005,
      "cat": 4006,
      "parse": 4007,
      "Ġcollection": 4008,
      "CK": 4009,
      "Ġcapa": 4010,
      "sequence": 4011,
      "css": 4012,
      "Ġdiag": 4013,
      "57": 4014,
      "number": 4015,
      "hom": 4016,
      "dist": 4017,
      "ls": 4018,
      "alog": 4019,
      "Ġorgan": 4020,
      "Ġcalculated": 4021,
      "Ġrec": 4022,
      "bound": 4023,
      "Ġmajor": 4024,
      "Ġworks": 4025,
      "Ġ!==": 4026,
      "Conn": 4027,
      "icense": 4028,
      "rup": 4029,
      "Ġloop": 4030,
      "Ġexplain": 4031,
      "Ġcorrelation": 4032,
      "ĠReturn": 4033,
      "ctive": 4034,
      "ĠMoreover": 4035,
      "Ġvolume": 4036,
      "print": 4037,
      "ĠPo": 4038,
      "{$\\": 4039,
      "scri": 4040,
      ".âĢĿ": 4041,
      "isms": 4042,
      "dle": 4043,
      "YPE": 4044,
      "87": 4045,
      "perties": 4046,
      "olute": 4047,
      "mic": 4048,
      "match": 4049,
      "gth": 4050,
      "arily": 4051,
      "2021": 4052,
      "Ġmotion": 4053,
      "ously": 4054,
      "ĠList": 4055,
      "uation": 4056,
      "Date": 4057,
      "$$\\": 4058,
      "Ġ=\\": 4059,
      "Ġdenotes": 4060,
      "Off": 4061,
      "loor": 4062,
      "Ġinvariant": 4063,
      "gges": 4064,
      "Ġthink": 4065,
      "Ġdocument": 4066,
      "asy": 4067,
      "Ġinvestig": 4068,
      "$^{-": 4069,
      "super": 4070,
      "56": 4071,
      "inf": 4072,
      "Ġput": 4073,
      "Ġtheore": 4074,
      "lib": 4075,
      "arp": 4076,
      "Ġdistributions": 4077,
      "PR": 4078,
      "imilar": 4079,
      "Ġintegral": 4080,
      "Ġhapp": 4081,
      "Ġprogram": 4082,
      "}}^{": 4083,
      "Ġpolar": 4084,
      "Ġbecome": 4085,
      "icult": 4086,
      "ĠReg": 4087,
      "Ġhaving": 4088,
      "~~~~": 4089,
      "});": 4090,
      "Ġenvironment": 4091,
      "Ġcomputed": 4092,
      "ury": 4093,
      ")$-": 4094,
      "ĠOur": 4095,
      "Ġinterpre": 4096,
      "isted": 4097,
      "Ġinfinite": 4098,
      "Ġpress": 4099,
      "ĠOr": 4100,
      "Ġmargin": 4101,
      "Ġsplit": 4102,
      "Ġquestion": 4103,
      "urthermore": 4104,
      "Ġorbit": 4105,
      "ĠYou": 4106,
      "Ġpl": 4107,
      "ĠCoun": 4108,
      "MM": 4109,
      "ries": 4110,
      "umin": 4111,
      "Handler": 4112,
      "Ġ&=&": 4113,
      "reshold": 4114,
      "stream": 4115,
      "Ġold": 4116,
      "free": 4117,
      "alt": 4118,
      "Ġshape": 4119,
      "{{": 4120,
      "Ġsupported": 4121,
      ">&": 4122,
      "ĠIN": 4123,
      "ogene": 4124,
      "Ġnetworks": 4125,
      "els": 4126,
      "ĠSp": 4127,
      "idden": 4128,
      "Block": 4129,
      "ple": 4130,
      "SD": 4131,
      "([": 4132,
      "ĠPre": 4133,
      "Ġlanguage": 4134,
      "Ġhalf": 4135,
      "Ġthird": 4136,
      "vo": 4137,
      "Ġdetection": 4138,
      "ĠData": 4139,
      "Format": 4140,
      "chema": 4141,
      "Theorem": 4142,
      "pdate": 4143,
      "Figure": 4144,
      "Ġpage": 4145,
      "Ġutil": 4146,
      "omorphic": 4147,
      "\".": 4148,
      "Our": 4149,
      "osed": 4150,
      "namespace": 4151,
      "^{+": 4152,
      "tries": 4153,
      "\\|_{": 4154,
      "Ġroot": 4155,
      "Ġleads": 4156,
      "Ġdepends": 4157,
      "phere": 4158,
      "Ġconsistent": 4159,
      "ĠLi": 4160,
      "Ġurl": 4161,
      "CP": 4162,
      "Ġselected": 4163,
      "ptr": 4164,
      "Ġconnection": 4165,
      "Ġchosen": 4166,
      "ashed": 4167,
      "cd": 4168,
      "Ġdual": 4169,
      "ceed": 4170,
      ")_": 4171,
      "mapsto": 4172,
      "Lay": 4173,
      "itect": 4174,
      "push": 4175,
      "xx": 4176,
      "ising": 4177,
      "ĠTest": 4178,
      "Ġtakes": 4179,
      "tik": 4180,
      "Ġattack": 4181,
      "returns": 4182,
      "Ġcurves": 4183,
      "radi": 4184,
      "strong": 4185,
      "mpty": 4186,
      "|_{": 4187,
      "only": 4188,
      "Ġinterface": 4189,
      "endix": 4190,
      "lease": 4191,
      "ilib": 4192,
      "Ġsense": 4193,
      "uter": 4194,
      "Ġarch": 4195,
      "une": 4196,
      "41": 4197,
      "Ġcallback": 4198,
      "tran": 4199,
      "Ġborder": 4200,
      "filter": 4201,
      "Ġinc": 4202,
      "roduction": 4203,
      "2004": 4204,
      "gress": 4205,
      "CON": 4206,
      "Number": 4207,
      "Ġangle": 4208,
      "Content": 4209,
      "Ġsubset": 4210,
      "Ġchoose": 4211,
      "ions": 4212,
      "Ġbody": 4213,
      "mations": 4214,
      "Ġcut": 4215,
      "=\"../../../../": 4216,
      "Ġdraw": 4217,
      "grams": 4218,
      "description": 4219,
      "Ġmakes": 4220,
      "rength": 4221,
      "Ġreduced": 4222,
      "Pr": 4223,
      "Ġexperimental": 4224,
      "Ġmatrices": 4225,
      "Ġinteger": 4226,
      "era": 4227,
      "proposition": 4228,
      "Ġprocedure": 4229,
      "Ġspectra": 4230,
      "Ġnecessary": 4231,
      "Ġarguments": 4232,
      "ables": 4233,
      "property": 4234,
      "ĠCor": 4235,
      "host": 4236,
      "Ġalgorithms": 4237,
      "mini": 4238,
      "ĠDec": 4239,
      "Arg": 4240,
      "Ġuses": 4241,
      "Ġexamples": 4242,
      "vision": 4243,
      "Ġtaking": 4244,
      "Ġextends": 4245,
      "Ġbox": 4246,
      "LS": 4247,
      "Ġuseful": 4248,
      "Ġsymmetric": 4249,
      "vity": 4250,
      "Resource": 4251,
      "Ġday": 4252,
      "lice": 4253,
      "Ġkernel": 4254,
      "java": 4255,
      "ucted": 4256,
      "86": 4257,
      "Ġstudies": 4258,
      "Ġspaces": 4259,
      "Ġ$$": 4260,
      "stract": 4261,
      "Ġsugges": 4262,
      "Ġreview": 4263,
      "Ġtrac": 4264,
      "'}": 4265,
      "ĠGaussian": 4266,
      "ĠFrom": 4267,
      "lier": 4268,
      "ĠBo": 4269,
      "request": 4270,
      "unit": 4271,
      "mc": 4272,
      "Ġstudied": 4273,
      "Ġleading": 4274,
      "Ġhar": 4275,
      "init": 4276,
      "Ġsimply": 4277,
      "option": 4278,
      "Next": 4279,
      "Ġtechn": 4280,
      "oms": 4281,
      "num": 4282,
      "Ġmention": 4283,
      "More": 4284,
      "redu": 4285,
      "ĠRef": 4286,
      "Tag": 4287,
      "Ġneeded": 4288,
      "Ġdisk": 4289,
      "DB": 4290,
      "Ġsymbol": 4291,
      "Ġrequires": 4292,
      "Ġlearn": 4293,
      "creen": 4294,
      "sol": 4295,
      "Ġdetermine": 4296,
      "Ġtransform": 4297,
      "Per": 4298,
      "Ġfast": 4299,
      "Ġdiscuss": 4300,
      "Ġlocation": 4301,
      "Ġdependence": 4302,
      "Meta": 4303,
      "opt": 4304,
      "Ġsolid": 4305,
      "Ġpopulation": 4306,
      "last": 4307,
      "count": 4308,
      "asks": 4309,
      "\\_": 4310,
      "uro": 4311,
      "hy": 4312,
      "itude": 4313,
      "Ġmemory": 4314,
      "clusion": 4315,
      "ĠCan": 4316,
      "Ġ{@": 4317,
      "font": 4318,
      "fil": 4319,
      "$;": 4320,
      "ĠMar": 4321,
      "Thus": 4322,
      "Ġarbitrary": 4323,
      "ĠSch": 4324,
      "Ġrepresents": 4325,
      "ĠQu": 4326,
      "newcommand": 4327,
      "Ġexpansion": 4328,
      "Ġmodes": 4329,
      "Ġoption": 4330,
      "items": 4331,
      "Cur": 4332,
      "Ġstream": 4333,
      "58": 4334,
      "obj": 4335,
      "Ġprocesses": 4336,
      "finition": 4337,
      "=\"#": 4338,
      "adding": 4339,
      "Default": 4340,
      "Ġclient": 4341,
      "android": 4342,
      "ords": 4343,
      "Ġresolution": 4344,
      "ĠSte": 4345,
      "vector": 4346,
      "sters": 4347,
      "Ġpairs": 4348,
      "endif": 4349,
      "Ġ->": 4350,
      "Null": 4351,
      "Ġselection": 4352,
      "iny": 4353,
      "Ġkeep": 4354,
      "json": 4355,
      "ani": 4356,
      "Ġcharacteristic": 4357,
      "ĠObject": 4358,
      "Gra": 4359,
      "XX": 4360,
      "ategor": 4361,
      "lines": 4362,
      "rs": 4363,
      "FA": 4364,
      "cel": 4365,
      "onic": 4366,
      "Ġconvergence": 4367,
      "ÑĤ": 4368,
      "Ġminim": 4369,
      "Ġcharge": 4370,
      "Ġearly": 4371,
      "odot": 4372,
      "EM": 4373,
      "lex": 4374,
      "Ġresource": 4375,
      "Ġasympto": 4376,
      "ilibri": 4377,
      "Ġstra": 4378,
      "Box": 4379,
      "Ġonce": 4380,
      "foo": 4381,
      "\\{\\": 4382,
      "Ġinteresting": 4383,
      "Ġrank": 4384,
      "ĠGL": 4385,
      "Ġstellar": 4386,
      "Ġhome": 4387,
      "tate": 4388,
      "mented": 4389,
      "cket": 4390,
      "server": 4391,
      "Ġcause": 4392,
      "post": 4393,
      "Ġrecon": 4394,
      "Ġintroduce": 4395,
      "iver": 4396,
      "Ġyields": 4397,
      "Ġentire": 4398,
      "////////////////": 4399,
      "usic": 4400,
      "ĠLo": 4401,
      "Acc": 4402,
      "'(": 4403,
      "Ro": 4404,
      "ĠNe": 4405,
      "Ġclaim": 4406,
      "MN": 4407,
      "then": 4408,
      "Ġmid": 4409,
      "_-": 4410,
      "mitted": 4411,
      "Ġtransfer": 4412,
      "ocial": 4413,
      "break": 4414,
      "aded": 4415,
      "Ġensure": 4416,
      "zz": 4417,
      "Read": 4418,
      "Ġaut": 4419,
      "deg": 4420,
      "Ġcompare": 4421,
      "sg": 4422,
      "ĠHamiltonian": 4423,
      "Ġpossi": 4424,
      "Listener": 4425,
      "Ġcommand": 4426,
      "Ġfigure": 4427,
      "thesis": 4428,
      "Ġillustra": 4429,
      "Ġspeed": 4430,
      "Ġatten": 4431,
      "Ġtor": 4432,
      "parent": 4433,
      "Ġweb": 4434,
      "Ġbar": 4435,
      "$~": 4436,
      "Ð¸": 4437,
      "ses": 4438,
      "Action": 4439,
      "Ġincluded": 4440,
      "she": 4441,
      "eter": 4442,
      "ĠUS": 4443,
      "Equals": 4444,
      "ume": 4445,
      "Ġbit": 4446,
      "However": 4447,
      "esti": 4448,
      "Ġeasily": 4449,
      "ĠFirst": 4450,
      "Ġadded": 4451,
      "Ġexperiment": 4452,
      "ĠMon": 4453,
      "olicy": 4454,
      "CL": 4455,
      "When": 4456,
      "Component": 4457,
      "Ġcomputation": 4458,
      "Ġnorm": 4459,
      "Ġgenerate": 4460,
      "Ġquad": 4461,
      "ama": 4462,
      "}&": 4463,
      "semb": 4464,
      "True": 4465,
      "refix": 4466,
      "Ġstructures": 4467,
      "Ġess": 4468,
      "Sc": 4469,
      "_.": 4470,
      "aged": 4471,
      "sem": 4472,
      "Ġdoc": 4473,
      ";</": 4474,
      "Version": 4475,
      "Ġformat": 4476,
      "pose": 4477,
      "500": 4478,
      "vider": 4479,
      "signed": 4480,
      "ĠMan": 4481,
      "Ġbinary": 4482,
      "ker": 4483,
      "rag": 4484,
      "displaystyle": 4485,
      "structure": 4486,
      "ali": 4487,
      "Ġ$.": 4488,
      "dsh": 4489,
      "Factory": 4490,
      "Ġpresence": 4491,
      "Ġ\"\"\"": 4492,
      "Ġauthor": 4493,
      "tikz": 4494,
      "src": 4495,
      "Ġ${": 4496,
      "Ġincreases": 4497,
      "Child": 4498,
      "Ġdiagram": 4499,
      "Ġ[]": 4500,
      "Case": 4501,
      "69": 4502,
      "respon": 4503,
      ")+\\": 4504,
      "volution": 4505,
      "Ġrule": 4506,
      "ditional": 4507,
      "Ġexactly": 4508,
      "Ġinner": 4509,
      "dep": 4510,
      "2003": 4511,
      "Ġcount": 4512,
      "ube": 4513,
      "}}$.": 4514,
      "Ġhost": 4515,
      ")},": 4516,
      "va": 4517,
      "Ġbus": 4518,
      "dec": 4519,
      "Length": 4520,
      "Ġsent": 4521,
      "header": 4522,
      "Ġhoriz": 4523,
      "Ġmeta": 4524,
      "Ġnever": 4525,
      "Ġstrength": 4526,
      "Ġquanti": 4527,
      "Ġestimates": 4528,
      "})$,": 4529,
      "Ġcategory": 4530,
      "ferences": 4531,
      "Ġprotected": 4532,
      "require": 4533,
      "Ġload": 4534,
      "}}$,": 4535,
      "layer": 4536,
      "Frame": 4537,
      "Ġpul": 4538,
      "band": 4539,
      "else": 4540,
      "Ġtreat": 4541,
      "Hel": 4542,
      "rand": 4543,
      "Ġparts": 4544,
      "Ġcopy": 4545,
      "Ġaltern": 4546,
      "ĠCal": 4547,
      "Ġhold": 4548,
      "cf": 4549,
      "59": 4550,
      "oto": 4551,
      "sur": 4552,
      "Ġmeasurement": 4553,
      "bold": 4554,
      "Ġstrict": 4555,
      "Ġthrows": 4556,
      "images": 4557,
      "Ġlemma": 4558,
      "yl": 4559,
      "Ġparent": 4560,
      "Ġproduction": 4561,
      "ĠMay": 4562,
      "picture": 4563,
      "Ġvectors": 4564,
      "[(": 4565,
      "minipage": 4566,
      "ĠCO": 4567,
      "ĠOp": 4568,
      "float": 4569,
      "Ġscore": 4570,
      "Create": 4571,
      "Ġsteps": 4572,
      "Ġthough": 4573,
      "Ġcoll": 4574,
      "54": 4575,
      "Ġcandid": 4576,
      "=\"../": 4577,
      "52": 4578,
      "89": 4579,
      "Ġchall": 4580,
      "CS": 4581,
      "ĠSupp": 4582,
      "eler": 4583,
      "Ġcore": 4584,
      "Ġ;": 4585,
      "rief": 4586,
      "Ġcoordinates": 4587,
      "Ġwin": 4588,
      "Ġapproaches": 4589,
      "Ġcreated": 4590,
      "produ": 4591,
      "PP": 4592,
      "INT": 4593,
      "Ġlatter": 4594,
      "Ġforce": 4595,
      "mediate": 4596,
      "---": 4597,
      "Ġactive": 4598,
      "auto": 4599,
      "Ġpi": 4600,
      "ypes": 4601,
      "Ġreturns": 4602,
      "plan": 4603,
      "Ġapplications": 4604,
      ")-\\": 4605,
      "Check": 4606,
      "Ġobserve": 4607,
      "Ġgap": 4608,
      "hbar": 4609,
      "ront": 4610,
      "pres": 4611,
      "illa": 4612,
      "Ġaxis": 4613,
      "Ġrelevant": 4614,
      "Ġitself": 4615,
      "AME": 4616,
      "Ġreported": 4617,
      "rl": 4618,
      "ards": 4619,
      "ĠEX": 4620,
      "Ġpas": 4621,
      "(&": 4622,
      "Ġdark": 4623,
      "status": 4624,
      "args": 4625,
      "ĠCent": 4626,
      "Ġstable": 4627,
      "ĠMa": 4628,
      "Ne": 4629,
      "Ġformation": 4630,
      "fla": 4631,
      "rowser": 4632,
      "rant": 4633,
      "Ġtag": 4634,
      "ench": 4635,
      "lastic": 4636,
      "algebra": 4637,
      "onential": 4638,
      "php": 4639,
      "inue": 4640,
      "Ġextended": 4641,
      "undam": 4642,
      "Char": 4643,
      "Ġexistence": 4644,
      "Ġinteractions": 4645,
      "Ġidentity": 4646,
      "gest": 4647,
      "ilibrium": 4648,
      "fa": 4649,
      "Ġamount": 4650,
      "remove": 4651,
      "Collection": 4652,
      "versal": 4653,
      "itz": 4654,
      ">>": 4655,
      "tx": 4656,
      "Ġemploy": 4657,
      "Ġbranch": 4658,
      "Ġimpact": 4659,
      "}{|": 4660,
      "format": 4661,
      "gu": 4662,
      "Ġfactors": 4663,
      "Ġdifferential": 4664,
      "ought": 4665,
      "./": 4666,
      "ĠSee": 4667,
      "ecause": 4668,
      "Ġcustom": 4669,
      "Ġdr": 4670,
      "olve": 4671,
      "ĠAmerican": 4672,
      "ĠGener": 4673,
      "Ġusers": 4674,
      "Output": 4675,
      "Ġdifficult": 4676,
      "ĠĠĠĠĠĠĠĠĊ": 4677,
      "iti": 4678,
      "ĠBu": 4679,
      "Ġwide": 4680,
      "Str": 4681,
      "vey": 4682,
      "Ġsatisfy": 4683,
      "Ġhuman": 4684,
      "ried": 4685,
      "Ġeasy": 4686,
      "Ġdeep": 4687,
      "Window": 4688,
      "hel": 4689,
      "NO": 4690,
      "Ġanalog": 4691,
      "alg": 4692,
      "Ġvo": 4693,
      "Ġstrategy": 4694,
      "Ġosc": 4695,
      "results": 4696,
      "ERR": 4697,
      "))$": 4698,
      "Ġlinks": 4699,
      "Ġmaking": 4700,
      "select": 4701,
      "Ġvirtual": 4702,
      "nos": 4703,
      "EL": 4704,
      "Ġren": 4705,
      "bl": 4706,
      "seud": 4707,
      "tax": 4708,
      "Ġselect": 4709,
      "buf": 4710,
      "ante": 4711,
      "Ġnotation": 4712,
      "Ġ$|\\": 4713,
      "blue": 4714,
      "$),": 4715,
      "Ġss": 4716,
      "Ġmorph": 4717,
      "pts": 4718,
      "ensive": 4719,
      "cover": 4720,
      "}$)": 4721,
      "raint": 4722,
      "Ġword": 4723,
      "Ġestimated": 4724,
      "cong": 4725,
      "Ġpolicy": 4726,
      "Ġ{$": 4727,
      "inty": 4728,
      "63": 4729,
      "Ġcome": 4730,
      ")</": 4731,
      "Ġtransformation": 4732,
      "Ġremains": 4733,
      "ighted": 4734,
      "Ġserver": 4735,
      "SM": 4736,
      "Ġcosm": 4737,
      "ĠSub": 4738,
      "variant": 4739,
      "ĠNone": 4740,
      "Start": 4741,
      "IV": 4742,
      "update": 4743,
      "51": 4744,
      "Ġotherwise": 4745,
      "sities": 4746,
      "Hz": 4747,
      "Ġfix": 4748,
      "Ġpub": 4749,
      "}({\\": 4750,
      "Ġbounds": 4751,
      "Ġconstraint": 4752,
      "Ġbuild": 4753,
      "Ġclassification": 4754,
      "Ġexecu": 4755,
      "bes": 4756,
      "Row": 4757,
      "rap": 4758,
      "Ġfive": 4759,
      "ocation": 4760,
      "Ġinside": 4761,
      "floor": 4762,
      "Ġvanish": 4763,
      "Ġsignificantly": 4764,
      "Ġscattering": 4765,
      "sue": 4766,
      "TO": 4767,
      "Ġrepla": 4768,
      "Ġgovern": 4769,
      "Ġpartition": 4770,
      "IF": 4771,
      "ABLE": 4772,
      "ĠDo": 4773,
      "place": 4774,
      "Max": 4775,
      "[\"": 4776,
      "tainty": 4777,
      "Ġgalaxy": 4778,
      "Gu": 4779,
      "Ġblue": 4780,
      "Ġpix": 4781,
      "Oper": 4782,
      "find": 4783,
      "bust": 4784,
      ":}": 4785,
      "Ġmolec": 4786,
      "So": 4787,
      "Ġbelie": 4788,
      "Ġcontaining": 4789,
      "system": 4790,
      "Link": 4791,
      "Ġlikely": 4792,
      "53": 4793,
      "thon": 4794,
      "Ġknowledge": 4795,
      "Ġgoing": 4796,
      "ĠGra": 4797,
      "Ġexcept": 4798,
      "ones": 4799,
      "}{(": 4800,
      "&=&": 4801,
      "Ð½": 4802,
      "CR": 4803,
      "inct": 4804,
      "Ġteam": 4805,
      "Ġquark": 4806,
      "Ġface": 4807,
      "Ġandroid": 4808,
      "TP": 4809,
      "Ġmet": 4810,
      "âĢ¦": 4811,
      "Ġpropag": 4812,
      "Ġstatus": 4813,
      "ogeneous": 4814,
      "Ġones": 4815,
      "Label": 4816,
      "Ġfully": 4817,
      "faces": 4818,
      "prec": 4819,
      "output": 4820,
      "xml": 4821,
      "Ġneeds": 4822,
      "Ġbelong": 4823,
      "++)": 4824,
      "ium": 4825,
      "lesssim": 4826,
      ")}_{": 4827,
      "han": 4828,
      "\"]": 4829,
      "ĠDes": 4830,
      "Ġnone": 4831,
      "Ġgrid": 4832,
      ".)": 4833,
      "show": 4834,
      "Ġamplitude": 4835,
      "Up": 4836,
      "Ġempty": 4837,
      "Ġ^": 4838,
      "LP": 4839,
      "private": 4840,
      "78": 4841,
      "uations": 4842,
      "ering": 4843,
      "expected": 4844,
      "ĠJan": 4845,
      "Valid": 4846,
      "scal": 4847,
      "ises": 4848,
      "tains": 4849,
      "Ġoptical": 4850,
      "Ġwhole": 4851,
      "Ġrecor": 4852,
      "Ġrates": 4853,
      "sign": 4854,
      "Ġreson": 4855,
      "Ġfac": 4856,
      "inary": 4857,
      "tific": 4858,
      "Ġshall": 4859,
      "Ġassumed": 4860,
      "tree": 4861,
      "Ġconsists": 4862,
      "ious": 4863,
      "Right": 4864,
      "Ġdate": 4865,
      "Ġexisting": 4866,
      "backs": 4867,
      "Ġdest": 4868,
      "ĠType": 4869,
      "ident": 4870,
      "cref": 4871,
      "conf": 4872,
      "onical": 4873,
      "gers": 4874,
      "Ġprediction": 4875,
      "berg": 4876,
      "ids": 4877,
      "Ġinduced": 4878,
      "ĠII": 4879,
      "aa": 4880,
      "ĠID": 4881,
      "dl": 4882,
      "\"),": 4883,
      "osite": 4884,
      "ĠUnited": 4885,
      "Ġlen": 4886,
      ",\\\\": 4887,
      ")}}": 4888,
      "Ġanti": 4889,
      "Ġslight": 4890,
      "Ġgradient": 4891,
      "${": 4892,
      "cccc": 4893,
      "Ġdistributed": 4894,
      "Ġmach": 4895,
      "Ġsubgroup": 4896,
      "bigl": 4897,
      "Ġarchitect": 4898,
      "(_": 4899,
      "Ġgen": 4900,
      "62": 4901,
      "instance": 4902,
      "2001": 4903,
      "Ġgraphs": 4904,
      "Ġoptimization": 4905,
      "Therefore": 4906,
      "Introduction": 4907,
      "Ġdepth": 4908,
      "Ġmembers": 4909,
      ":\"": 4910,
      "ĉĠĠĠĠĠĠĠ": 4911,
      "high": 4912,
      "Ġavoid": 4913,
      "ymmetric": 4914,
      "ugh": 4915,
      "attr": 4916,
      "Ġpressure": 4917,
      "Web": 4918,
      "Ġoffset": 4919,
      "Ġmasses": 4920,
      "gments": 4921,
      "opic": 4922,
      "Tra": 4923,
      "ĠNational": 4924,
      "2002": 4925,
      "Ġbul": 4926,
      "ynamic": 4927,
      "hbox": 4928,
      "Ġaway": 4929,
      "Rem": 4930,
      "dr": 4931,
      "Ġconclude": 4932,
      "ĠThat": 4933,
      "eli": 4934,
      "Ġdeveloped": 4935,
      "Ġcare": 4936,
      "Ġpay": 4937,
      "Ġreport": 4938,
      "Ġalign": 4939,
      "acy": 4940,
      "Ġessential": 4941,
      "Ġ...": 4942,
      "Ġangular": 4943,
      "Ġadvan": 4944,
      "Ġcontrast": 4945,
      "bly": 4946,
      "Page": 4947,
      "Ġthreshold": 4948,
      "task": 4949,
      "matically": 4950,
      "Ġori": 4951,
      "SON": 4952,
      "ĠSci": 4953,
      "CA": 4954,
      "bigr": 4955,
      "Ġremove": 4956,
      "iving": 4957,
      "Ġabsolute": 4958,
      "Ġschool": 4959,
      "ects": 4960,
      "Ġwater": 4961,
      "iffer": 4962,
      "ĠVer": 4963,
      "avy": 4964,
      "Ġadap": 4965,
      "Ġinflu": 4966,
      "ather": 4967,
      "undamental": 4968,
      "mas": 4969,
      "Ġcounter": 4970,
      "-$": 4971,
      "1000": 4972,
      "ening": 4973,
      "uck": 4974,
      "ingu": 4975,
      "Ġslow": 4976,
      "mass": 4977,
      "Point": 4978,
      "Ġdevi": 4979,
      "Li": 4980,
      "tability": 4981,
      "ues": 4982,
      "Ġhypo": 4983,
      "84": 4984,
      "RL": 4985,
      "ĠNow": 4986,
      "gan": 4987,
      "onds": 4988,
      "alysis": 4989,
      "Ġtasks": 4990,
      "Ġappropri": 4991,
      "Ġbeam": 4992,
      "||": 4993,
      "Ġuint": 4994,
      "build": 4995,
      "ĠâĢĶ": 4996,
      "Ġbasic": 4997,
      "ĠAfter": 4998,
      "ounter": 4999,
      "Mode": 5000,
      "common": 5001,
      "Ġconvex": 5002,
      ":=": 5003,
      "Width": 5004,
      "Ġ{};": 5005,
      "Ġdeta": 5006,
      "dy": 5007,
      "Ġhol": 5008,
      "tification": 5009,
      "mode": 5010,
      "latform": 5011,
      "IO": 5012,
      "Ġcatch": 5013,
      "inner": 5014,
      "reme": 5015,
      "Ġlevels": 5016,
      "Ġimplementation": 5017,
      "Ġdevice": 5018,
      "$_{": 5019,
      "ĠGo": 5020,
      "Ġcontributions": 5021,
      "params": 5022,
      "Ġstatement": 5023,
      "Ġrepe": 5024,
      "Ġredsh": 5025,
      "Ġoperations": 5026,
      "PO": 5027,
      "Ġcalculations": 5028,
      "94": 5029,
      "Ġyet": 5030,
      "URL": 5031,
      "ana": 5032,
      "direct": 5033,
      "Ġbottom": 5034,
      "ĠJohn": 5035,
      "ka": 5036,
      "ĠSc": 5037,
      "]$.": 5038,
      "]}": 5039,
      "\").": 5040,
      "Ġpreser": 5041,
      "cknow": 5042,
      "ĠPer": 5043,
      "ĠSpec": 5044,
      "Ġincludes": 5045,
      "Return": 5046,
      "Offset": 5047,
      ",$": 5048,
      "ql": 5049,
      "btn": 5050,
      "astic": 5051,
      "}}_{\\": 5052,
      "Ġobservation": 5053,
      "Ġtrivi": 5054,
      "istry": 5055,
      "illion": 5056,
      "^*$": 5057,
      "ĠMin": 5058,
      "Su": 5059,
      "lots": 5060,
      "ĠMark": 5061,
      "Ġobj": 5062,
      "Ġidea": 5063,
      "ontal": 5064,
      "ĠâĢĺ": 5065,
      "perim": 5066,
      "ÑĢ": 5067,
      "Command": 5068,
      "ratic": 5069,
      "SL": 5070,
      "GC": 5071,
      "\\}$.": 5072,
      "Ġvideo": 5073,
      "sembly": 5074,
      "icrosoft": 5075,
      "Ġminimal": 5076,
      "ĉĉĊ": 5077,
      "oral": 5078,
      "Ġpure": 5079,
      "unk": 5080,
      "Ġactually": 5081,
      "inal": 5082,
      "isation": 5083,
      "Ġauthors": 5084,
      "92": 5085,
      "Ġcircle": 5086,
      "df": 5087,
      "criptor": 5088,
      "lide": 5089,
      "Ġregime": 5090,
      "ĠGu": 5091,
      "Using": 5092,
      "ĠState": 5093,
      "Ġgoal": 5094,
      "93": 5095,
      "Ġneighbor": 5096,
      "bot": 5097,
      "reference": 5098,
      "Ġallowed": 5099,
      "dual": 5100,
      "Ġmagnitude": 5101,
      "pg": 5102,
      "oung": 5103,
      "Ġquality": 5104,
      "Pri": 5105,
      "<!--": 5106,
      "Ġwon": 5107,
      "Ġ[\\": 5108,
      "Ġdenoted": 5109,
      "Ġrunning": 5110,
      "after": 5111,
      "should": 5112,
      "AV": 5113,
      "LASS": 5114,
      "Ġcourse": 5115,
      "Ġima": 5116,
      "Ġfluct": 5117,
      "Ġbeh": 5118,
      "ĠShe": 5119,
      "Ġdetect": 5120,
      "Ġrestric": 5121,
      "fi": 5122,
      "roun": 5123,
      "MB": 5124,
      "Ġcalculation": 5125,
      "agement": 5126,
      ":(": 5127,
      "Ġconc": 5128,
      "Ġparallel": 5129,
      "tives": 5130,
      "Ġstation": 5131,
      "ĠMo": 5132,
      "Ġrel": 5133,
      "PRO": 5134,
      "sequently": 5135,
      "Ġtechniques": 5136,
      "izations": 5137,
      "tfrac": 5138,
      "Ġdiscrete": 5139,
      "61": 5140,
      "Ġproduced": 5141,
      "Finally": 5142,
      "Section": 5143,
      "ĠEng": 5144,
      "Ġret": 5145,
      "ĠClass": 5146,
      "ONT": 5147,
      "BU": 5148,
      "Ġstarting": 5149,
      "BC": 5150,
      "Ġoscil": 5151,
      "valu": 5152,
      "Ġdiscussion": 5153,
      "Ġkind": 5154,
      "FR": 5155,
      "ĠRem": 5156,
      "72": 5157,
      "Ġdecision": 5158,
      "Ġener": 5159,
      "Ġlittle": 5160,
      "Ġforms": 5161,
      "ĠGe": 5162,
      "rown": 5163,
      "Ġformal": 5164,
      "]);": 5165,
      "$:": 5166,
      "Task": 5167,
      "DM": 5168,
      ",\\,\\": 5169,
      "ĠDi": 5170,
      "Ġbuffer": 5171,
      "Ð¾Ð": 5172,
      "ĠInter": 5173,
      "Ġmonth": 5174,
      "Ġcaus": 5175,
      "Âł": 5176,
      "Ġfeed": 5177,
      "uly": 5178,
      "Target": 5179,
      "Do": 5180,
      "Ġsquare": 5181,
      "cons": 5182,
      "))\\": 5183,
      "nd": 5184,
      "Ġexponential": 5185,
      "Ġann": 5186,
      "Ġflat": 5187,
      "edia": 5188,
      "img": 5189,
      "Ġswitch": 5190,
      "Ġansw": 5191,
      "ounds": 5192,
      "Auth": 5193,
      "Ġentropy": 5194,
      "Temp": 5195,
      "SR": 5196,
      "iral": 5197,
      "Ġtrack": 5198,
      "\\)": 5199,
      "Ġcoefficient": 5200,
      "uming": 5201,
      "Ġtraject": 5202,
      "REF": 5203,
      "PU": 5204,
      "]$,": 5205,
      "final": 5206,
      "...,": 5207,
      "Ġlayers": 5208,
      "Ġhistory": 5209,
      "sect": 5210,
      "Ġrotation": 5211,
      "offset": 5212,
      "Nav": 5213,
      "make": 5214,
      "References": 5215,
      "Ġ\\]": 5216,
      "Ġquasi": 5217,
      "sues": 5218,
      "dom": 5219,
      "gated": 5220,
      "notation": 5221,
      "std": 5222,
      "actions": 5223,
      "Ġdimensions": 5224,
      "Ġbroad": 5225,
      "Ġtheoretical": 5226,
      "fect": 5227,
      "Ġsatisfying": 5228,
      "Ġmix": 5229,
      "ung": 5230,
      "Ġactual": 5231,
      "Ġchildren": 5232,
      "det": 5233,
      "Ġabsor": 5234,
      "Ġsingular": 5235,
      "Ġsuccessful": 5236,
      "}})": 5237,
      "ives": 5238,
      "root": 5239,
      "Ġscaling": 5240,
      "Ġmes": 5241,
      "Ġlonger": 5242,
      "///": 5243,
      "dia": 5244,
      "Ġcombination": 5245,
      "irect": 5246,
      "ĠFran": 5247,
      "essages": 5248,
      "ming": 5249,
      "jo": 5250,
      "Ġgain": 5251,
      "Ġage": 5252,
      "dev": 5253,
      "ided": 5254,
      "Ġindicates": 5255,
      "Ġuncertainty": 5256,
      "dated": 5257,
      "response": 5258,
      "ales": 5259,
      "})}": 5260,
      "ca": 5261,
      "arante": 5262,
      "Controller": 5263,
      "ĠLicense": 5264,
      "sole": 5265,
      "Cache": 5266,
      "Ste": 5267,
      "rela": 5268,
      "Ġgeometry": 5269,
      "Ġcollision": 5270,
      "teger": 5271,
      "Ġdevelopment": 5272,
      "Column": 5273,
      "ĠFinally": 5274,
      "Ġleg": 5275,
      "Ġexternal": 5276,
      "Ġnucle": 5277,
      "\\;": 5278,
      "triv": 5279,
      "container": 5280,
      "kit": 5281,
      "Ġstage": 5282,
      "These": 5283,
      "Ġmechanism": 5284,
      "Ġthermal": 5285,
      "Ġdatasets": 5286,
      "Ġhandle": 5287,
      "Ġattemp": 5288,
      "Match": 5289,
      "uli": 5290,
      "Ġideal": 5291,
      "$};": 5292,
      "ĠDef": 5293,
      "iggs": 5294,
      "uler": 5295,
      "Update": 5296,
      "chron": 5297,
      "Ġfi": 5298,
      "Ġjob": 5299,
      "chastic": 5300,
      "ĠTe": 5301,
      "dfrac": 5302,
      "eness": 5303,
      "********************************": 5304,
      "Ġsus": 5305,
      "oolean": 5306,
      "ometry": 5307,
      "ĠEqu": 5308,
      "Ġport": 5309,
      "91": 5310,
      "82": 5311,
      "TYPE": 5312,
      "Ġbal": 5313,
      "Container": 5314,
      "jected": 5315,
      "Ġliterature": 5316,
      "Ġproved": 5317,
      "pass": 5318,
      "}\\,\\": 5319,
      "Interface": 5320,
      "Ġsure": 5321,
      "Ġvisual": 5322,
      "Ġentry": 5323,
      "After": 5324,
      "Ġsamp": 5325,
      "Write": 5326,
      "tify": 5327,
      "anner": 5328,
      "Ġappears": 5329,
      "}[\\": 5330,
      "Ġque": 5331,
      "Ġwhite": 5332,
      "allow": 5333,
      "forward": 5334,
      "ux": 5335,
      "Ġclusters": 5336,
      "Ġweights": 5337,
      "Back": 5338,
      "Ġsix": 5339,
      "Ġusually": 5340,
      "sample": 5341,
      "Ñģ": 5342,
      "Ġmapping": 5343,
      "Ġinverse": 5344,
      "sts": 5345,
      "ĠModel": 5346,
      "Ġdecomposition": 5347,
      "jav": 5348,
      "EQ": 5349,
      "Ġquite": 5350,
      "vature": 5351,
      "mathop": 5352,
      "Ġreduce": 5353,
      "Ġshift": 5354,
      "ĠAcc": 5355,
      "Ġbig": 5356,
      "come": 5357,
      "Ġkine": 5358,
      "ony": 5359,
      "Ġscales": 5360,
      "emptyset": 5361,
      ",\"": 5362,
      "Ġcalculate": 5363,
      "entry": 5364,
      "Ġaccurate": 5365,
      "ĠUsing": 5366,
      "udes": 5367,
      "Ġprojection": 5368,
      "iting": 5369,
      "brace": 5370,
      "ado": 5371,
      "Ġring": 5372,
      "MR": 5373,
      "Ġ\\!": 5374,
      "Types": 5375,
      "gent": 5376,
      "mated": 5377,
      "ship": 5378,
      "Min": 5379,
      "Ġstraight": 5380,
      "ĠReturns": 5381,
      "Ġrender": 5382,
      "Ġ{}": 5383,
      "close": 5384,
      "ometric": 5385,
      "Ġgrowth": 5386,
      "icity": 5387,
      "isk": 5388,
      "Ġcomplexity": 5389,
      "cp": 5390,
      "Ġcommu": 5391,
      "Ġreally": 5392,
      "VER": 5393,
      "GB": 5394,
      "Ġsays": 5395,
      "Ġvol": 5396,
      "udio": 5397,
      "Ġ^{": 5398,
      "ĠHT": 5399,
      "Button": 5400,
      "See": 5401,
      "76": 5402,
      "Address": 5403,
      "sor": 5404,
      "Ġtowards": 5405,
      "Ġundefined": 5406,
      "Ġformer": 5407,
      "ND": 5408,
      "two": 5409,
      "scope": 5410,
      "Ġproduce": 5411,
      "ĠPa": 5412,
      "Range": 5413,
      "Const": 5414,
      "Ġonline": 5415,
      "roy": 5416,
      "Ġestimation": 5417,
      "Ġstrongly": 5418,
      "Ġfilm": 5419,
      ",{\\": 5420,
      "Ġvary": 5421,
      "ĠWhile": 5422,
      "Ġunits": 5423,
      "Ġargs": 5424,
      "template": 5425,
      "ĠCont": 5426,
      "Ġperson": 5427,
      "ĠPol": 5428,
      "ading": 5429,
      "tribution": 5430,
      "olved": 5431,
      "ĠSu": 5432,
      "Ġlimited": 5433,
      "iota": 5434,
      "finished": 5435,
      ",âĢĿ": 5436,
      "tw": 5437,
      "Ġissue": 5438,
      "DO": 5439,
      "300": 5440,
      "Ġassign": 5441,
      "anged": 5442,
      "ifically": 5443,
      "algorithm": 5444,
      "ategories": 5445,
      "racted": 5446,
      "}}.": 5447,
      "osity": 5448,
      "Ġagreement": 5449,
      "Ġland": 5450,
      "Ġconfir": 5451,
      "Ġoverall": 5452,
      "semble": 5453,
      "Ġcr": 5454,
      "Ġreduction": 5455,
      "imilarly": 5456,
      "?:": 5457,
      "Ġign": 5458,
      "uint": 5459,
      "Provider": 5460,
      "Ġfunctional": 5461,
      "longrightarrow": 5462,
      "utes": 5463,
      "83": 5464,
      "Ġrules": 5465,
      "pecially": 5466,
      "background": 5467,
      ")--": 5468,
      "Vis": 5469,
      "ĠAssert": 5470,
      "unch": 5471,
      "Ġdeal": 5472,
      "Ġremaining": 5473,
      "NR": 5474,
      "})=": 5475,
      "Ġdays": 5476,
      "').": 5477,
      "Ġrepresented": 5478,
      "Ab": 5479,
      "real": 5480,
      "UI": 5481,
      "Ġmicro": 5482,
      "'),": 5483,
      "Ġsettings": 5484,
      "ĠCl": 5485,
      "ination": 5486,
      "Ġstore": 5487,
      "ider": 5488,
      "Ġ\\(\\": 5489,
      "Ġdetailed": 5490,
      "plugin": 5491,
      "Ġattention": 5492,
      "Ġscenario": 5493,
      "74": 5494,
      "loop": 5495,
      "Ġidentified": 5496,
      "Ġradio": 5497,
      "joint": 5498,
      "istor": 5499,
      "ney": 5500,
      "window": 5501,
      "mn": 5502,
      "urope": 5503,
      "Ġferm": 5504,
      "Ac": 5505,
      "such": 5506,
      "atri": 5507,
      "ĠAPI": 5508,
      "ulated": 5509,
      "Ġfiles": 5510,
      "points": 5511,
      "Ġnature": 5512,
      "ham": 5513,
      "Form": 5514,
      "Ġtemplate": 5515,
      "Ġthick": 5516,
      "Ġcoordinate": 5517,
      "}}^{\\": 5518,
      "ils": 5519,
      "Lemma": 5520,
      "Ġachieve": 5521,
      "ounded": 5522,
      "Ġidentify": 5523,
      "ford": 5524,
      "Ġbook": 5525,
      "nap": 5526,
      "comm": 5527,
      "Ġprimary": 5528,
      "Ġfall": 5529,
      "Ġiso": 5530,
      "]{\\": 5531,
      "Ġwhy": 5532,
      "patch": 5533,
      "ĠFurthermore": 5534,
      "step": 5535,
      "Ġcapture": 5536,
      "Ġnor": 5537,
      "models": 5538,
      "bmatrix": 5539,
      "trics": 5540,
      "ĠNS": 5541,
      "iler": 5542,
      "ĠArray": 5543,
      "MD": 5544,
      "Ġresi": 5545,
      "clear": 5546,
      "})^": 5547,
      "Ġfundamental": 5548,
      "Ġmentioned": 5549,
      "paragraph": 5550,
      "Ġlocated": 5551,
      "tifact": 5552,
      "pid": 5553,
      "term": 5554,
      "Ġexhi": 5555,
      "Ġdistinct": 5556,
      "}_{-": 5557,
      "Ġgenerally": 5558,
      "itable": 5559,
      "Ġothers": 5560,
      "enomen": 5561,
      "Ġrepresentations": 5562,
      "atives": 5563,
      "Ġve": 5564,
      "rapper": 5565,
      "Ġmas": 5566,
      "ĠStates": 5567,
      "aking": 5568,
      "Ġappropriate": 5569,
      "proto": 5570,
      "iss": 5571,
      "DD": 5572,
      "Ġconstants": 5573,
      "PECT": 5574,
      "ĠĠĠĠĠĠĠĠĠĠĠĠĠĠĠĠĠĠĠĠĠĠĠĠĠĠĠĠĠĠĠĠĠĠĠ": 5575,
      "tization": 5576,
      "adow": 5577,
      "vs": 5578,
      "Server": 5579,
      "Ġguarante": 5580,
      "....": 5581,
      "sheet": 5582,
      "train": 5583,
      "ĠEd": 5584,
      "vee": 5585,
      "Ġcry": 5586,
      "ĠPri": 5587,
      "ialog": 5588,
      "Ġalthough": 5589,
      "Ġpast": 5590,
      "imes": 5591,
      "Ġconstructed": 5592,
      "79": 5593,
      "âĢĶ": 5594,
      "service": 5595,
      "Ġcomes": 5596,
      "Header": 5597,
      "Ġoutside": 5598,
      "Ġclearly": 5599,
      "Ġequilibrium": 5600,
      "Ġvac": 5601,
      "licity": 5602,
      "Top": 5603,
      "sitivity": 5604,
      "Module": 5605,
      "control": 5606,
      "ĠWorld": 5607,
      "IST": 5608,
      "mann": 5609,
      "Ġcriter": 5610,
      "Ġgeneration": 5611,
      "ĠExp": 5612,
      "Ġsufficiently": 5613,
      "Ġstack": 5614,
      "tiny": 5615,
      "API": 5616,
      "Ġreplace": 5617,
      "project": 5618,
      "sv": 5619,
      "Ġmaximal": 5620,
      "Im": 5621,
      "Ġestablish": 5622,
      "raft": 5623,
      "circle": 5624,
      "/(": 5625,
      "amily": 5626,
      "req": 5627,
      "73": 5628,
      "Cal": 5629,
      "ĠĠĠĠĠĠĠĠĠĠĠĠĠĠĠĠĠĠĠĠĠ": 5630,
      "cus": 5631,
      "Ġreturned": 5632,
      "eral": 5633,
      "ares": 5634,
      "Ġhole": 5635,
      "sure": 5636,
      "}}}\\": 5637,
      "Ġcontinue": 5638,
      "Ġmanifold": 5639,
      ")}_": 5640,
      "Ġreceived": 5641,
      "chem": 5642,
      "uni": 5643,
      "Ġevaluation": 5644,
      "Ġsolve": 5645,
      "Ġmeasures": 5646,
      "ĠWar": 5647,
      "ĠAppendix": 5648,
      "ounts": 5649,
      "sy": 5650,
      "Ġconsidering": 5651,
      "Di": 5652,
      "author": 5653,
      "Ġrecently": 5654,
      "81": 5655,
      "ao": 5656,
      "Ġsubject": 5657,
      "Ġslightly": 5658,
      "EC": 5659,
      "Tree": 5660,
      "Ġbos": 5661,
      "Ġconcent": 5662,
      "Ġrelatively": 5663,
      "fort": 5664,
      "columnwidth": 5665,
      "Ġsemi": 5666,
      "asic": 5667,
      "Ġcompletely": 5668,
      "Last": 5669,
      "osing": 5670,
      "exports": 5671,
      "KE": 5672,
      "Ġembedding": 5673,
      "yond": 5674,
      "ĠFile": 5675,
      "Ġexception": 5676,
      "Ġpropor": 5677,
      "BJ": 5678,
      "trivial": 5679,
      "Ġdiagonal": 5680,
      "PL": 5681,
      "Ġindicate": 5682,
      "Results": 5683,
      "Ġstri": 5684,
      "menu": 5685,
      "ART": 5686,
      "ctx": 5687,
      "bur": 5688,
      "buffer": 5689,
      "SH": 5690,
      "Url": 5691,
      "Ġefficiency": 5692,
      "Ġelect": 5693,
      "^{*": 5694,
      "Ġrecord": 5695,
      "ĠAdd": 5696,
      "Ġcontact": 5697,
      "brary": 5698,
      "Ġreve": 5699,
      "vartheta": 5700,
      "Ġplayers": 5701,
      "Local": 5702,
      "Proof": 5703,
      "ĠBar": 5704,
      "car": 5705,
      "Ġsimpl": 5706,
      "Ġrobust": 5707,
      "unfinished": 5708,
      "ĠAlso": 5709,
      "oman": 5710,
      "Ġphysics": 5711,
      "ourier": 5712,
      "aj": 5713,
      "Layout": 5714,
      "gian": 5715,
      "Ġjoin": 5716,
      "ky": 5717,
      "zed": 5718,
      "Ġprotocol": 5719,
      "plot": 5720,
      "Ġsituation": 5721,
      "Height": 5722,
      "ĠAug": 5723,
      "enn": 5724,
      "ki": 5725,
      "stable": 5726,
      "Ġpoly": 5727,
      "Ġvertical": 5728,
      "|}{": 5729,
      "<?": 5730,
      "Ġbuilt": 5731,
      "Ġsufficient": 5732,
      "Ġsampling": 5733,
      "Ġremark": 5734,
      "ibration": 5735,
      "figures": 5736,
      "1999": 5737,
      "ĠTra": 5738,
      "board": 5739,
      "FONT": 5740,
      "][]{": 5741,
      "Ġforward": 5742,
      "OP": 5743,
      "Fla": 5744,
      "tf": 5745,
      "GR": 5746,
      "Ġevaluate": 5747,
      "Bo": 5748,
      "Ġcontained": 5749,
      "Ġer": 5750,
      "Ġetc": 5751,
      "Ġcycle": 5752,
      "ĠST": 5753,
      "vised": 5754,
      "Ġsoftware": 5755,
      "Configuration": 5756,
      "Ġagent": 5757,
      "ME": 5758,
      "aps": 5759,
      "Ġseason": 5760,
      "Ġtypical": 5761,
      "ĠOct": 5762,
      "Ġgreater": 5763,
      "slant": 5764,
      "Ġpseud": 5765,
      "Unit": 5766,
      "$&": 5767,
      "Ġdifferences": 5768,
      "Kind": 5769,
      "Ġcli": 5770,
      "stein": 5771,
      "Ġodd": 5772,
      "Ġtermin": 5773,
      "mos": 5774,
      "Ġ$,": 5775,
      "Ġlargest": 5776,
      "itions": 5777,
      "Ġupon": 5778,
      "Ġunderlying": 5779,
      "Sch": 5780,
      ">\\": 5781,
      "diff": 5782,
      "antom": 5783,
      "Ġhash": 5784,
      "ights": 5785,
      "magnetic": 5786,
      "avel": 5787,
      "itory": 5788,
      "cible": 5789,
      "\\}\\": 5790,
      "Hence": 5791,
      "anti": 5792,
      "Ġsections": 5793,
      "Ġtrained": 5794,
      "isely": 5795,
      "Ġcommunity": 5796,
      "Ġespecially": 5797,
      "Ġsocial": 5798,
      "Entry": 5799,
      "}|\\": 5800,
      "%%": 5801,
      "Ġconj": 5802,
      "bib": 5803,
      "Ġenergies": 5804,
      "Ġeq": 5805,
      "Ġattribute": 5806,
      "meds": 5807,
      "\\}$,": 5808,
      "Ġmatching": 5809,
      "Ġbene": 5810,
      "ĠYork": 5811,
      "while": 5812,
      "}$}": 5813,
      "Ġchem": 5814,
      "diag": 5815,
      "Ġoffic": 5816,
      "aut": 5817,
      "DR": 5818,
      "Ġworking": 5819,
      "NE": 5820,
      "Ġtests": 5821,
      "blem": 5822,
      "Ġneural": 5823,
      "Ġassumptions": 5824,
      "Ġphoton": 5825,
      "Ġgot": 5826,
      "|}": 5827,
      "istent": 5828,
      "medskip": 5829,
      "Ġexpressed": 5830,
      ":=\\": 5831,
      "Ġregister": 5832,
      "Utils": 5833,
      "Ġlimits": 5834,
      "anning": 5835,
      "Ġtrivial": 5836,
      "tained": 5837,
      "Ġmodified": 5838,
      "Ġdesired": 5839,
      "Ġvariation": 5840,
      "ecute": 5841,
      "axis": 5842,
      "Ġdig": 5843,
      "ops": 5844,
      "Ġ>=": 5845,
      "vas": 5846,
      "Ġphenomen": 5847,
      "ĠEach": 5848,
      "ĠAu": 5849,
      "Ġpreviously": 5850,
      "Ġapplying": 5851,
      "ĠLie": 5852,
      "Ġcurvature": 5853,
      "Ġexplicitly": 5854,
      "diction": 5855,
      "ĠMy": 5856,
      "Empty": 5857,
      "Ġoffer": 5858,
      "urations": 5859,
      "ollowing": 5860,
      "bool": 5861,
      "urch": 5862,
      "Ġapi": 5863,
      "=.": 5864,
      "Ġaim": 5865,
      "inst": 5866,
      "ulations": 5867,
      "Ġrecall": 5868,
      "Ġnames": 5869,
      "Ġmedia": 5870,
      "Ġsetup": 5871,
      "Ġasymptotic": 5872,
      "Ġ}{": 5873,
      "amera": 5874,
      "Ġair": 5875,
      "Ġbusiness": 5876,
      "Ġderivative": 5877,
      "+(": 5878,
      "}}=": 5879,
      "ori": 5880,
      "71": 5881,
      "Expression": 5882,
      "ĠHar": 5883,
      "Ġweek": 5884,
      "Ġ**": 5885,
      "formal": 5886,
      "bum": 5887,
      "Ġisomorphism": 5888,
      "subsec": 5889,
      "Ġtopological": 5890,
      "\\|\\": 5891,
      "Ġtool": 5892,
      "Ġstatistical": 5893,
      "pop": 5894,
      "scriptsize": 5895,
      "Process": 5896,
      "uple": 5897,
      "Ġstability": 5898,
      "ski": 5899,
      "ille": 5900,
      "Ġlocally": 5901,
      "uminosity": 5902,
      "Ġseems": 5903,
      "Ġcanonical": 5904,
      "&=\\": 5905,
      "Ġdepending": 5906,
      "mult": 5907,
      "${\\": 5908,
      "Ġion": 5909,
      "ada": 5910,
      "Ġnonlinear": 5911,
      "Ġbeyond": 5912,
      "Ġdx": 5913,
      "atures": 5914,
      "Ġdetected": 5915,
      "Thread": 5916,
      "ĠOF": 5917,
      "Ġsomething": 5918,
      "Ġcm": 5919,
      "Ġestablished": 5920,
      "Params": 5921,
      "Ġfoot": 5922,
      "Ġoccurs": 5923,
      "Ġtrace": 5924,
      "Ġorth": 5925,
      "Ġevidence": 5926,
      "bal": 5927,
      "Ġitems": 5928,
      "Ġnovel": 5929,
      "Ġconsequence": 5930,
      "Ġvariety": 5931,
      "Ġmachine": 5932,
      "Ġbundle": 5933,
      "Ġelectr": 5934,
      "multirow": 5935,
      "Ġextend": 5936,
      "resource": 5937,
      "ano": 5938,
      "ĠBri": 5939,
      "global": 5940,
      "Ġpredictions": 5941,
      "ĠSw": 5942,
      "ini": 5943,
      "Ġnamely": 5944,
      "ĠĠĠĠĠĠĠĠĠĠĠĠĠĠĠĠĠĠĠĠ": 5945,
      "rew": 5946,
      "each": 5947,
      "ĠÂ": 5948,
      "Ġmember": 5949,
      "arc": 5950,
      "rec": 5951,
      "Pos": 5952,
      "ycle": 5953,
      "ĠEXPECT": 5954,
      "Ġpoli": 5955,
      "^*\\": 5956,
      "Ġonto": 5957,
      "formations": 5958,
      "Ġchannels": 5959,
      "Ġquo": 5960,
      "bp": 5961,
      "phys": 5962,
      "Ġcomputational": 5963,
      "()->": 5964,
      "bing": 5965,
      "}~": 5966,
      "[-": 5967,
      "Ptr": 5968,
      "pis": 5969,
      "sident": 5970,
      "ĠSep": 5971,
      "Callback": 5972,
      "Ġhighly": 5973,
      "second": 5974,
      "shape": 5975,
      "Ġdiver": 5976,
      "Ġdust": 5977,
      "Access": 5978,
      "river": 5979,
      "Ġpredicted": 5980,
      "Ge": 5981,
      "Ġjoint": 5982,
      "Ġtun": 5983,
      "Hash": 5984,
      "entity": 5985,
      "white": 5986,
      "pers": 5987,
      "Ġmusic": 5988,
      "That": 5989,
      "Ġradial": 5990,
      "ĉĉĉĉĉĉĉ": 5991,
      "ĠEurope": 5992,
      "External": 5993,
      "Ġcat": 5994,
      "apter": 5995,
      "@{": 5996,
      "ffic": 5997,
      "ĠLag": 5998,
      "scripts": 5999,
      "Ġbias": 6000,
      "RR": 6001,
      "eting": 6002,
      "ĠĠĠĠĠĠĠĠĠĠĠĠĊ": 6003,
      "Ġuncertain": 6004,
      "Ġprint": 6005,
      "mediately": 6006,
      "aren": 6007,
      "Syn": 6008,
      "PA": 6009,
      "year": 6010,
      "itter": 6011,
      "ĠCreate": 6012,
      "Ġshowed": 6013,
      "ttps": 6014,
      "resp": 6015,
      "well": 6016,
      "Ġvariance": 6017,
      "ĠApr": 6018,
      "Ġderive": 6019,
      "Script": 6020,
      "types": 6021,
      "ĠTrans": 6022,
      "parameters": 6023,
      "mal": 6024,
      "full": 6025,
      "Ġcondu": 6026,
      "vitational": 6027,
      "ĠLa": 6028,
      "mem": 6029,
      "Ġlabels": 6030,
      "Ġ({\\": 6031,
      "join": 6032,
      "1998": 6033,
      "Json": 6034,
      "bet": 6035,
      "tient": 6036,
      "ners": 6037,
      "ifts": 6038,
      "Ġdynamic": 6039,
      "Ġpaths": 6040,
      "Suppose": 6041,
      "ened": 6042,
      "Ġmeaning": 6043,
      "MO": 6044,
      "aging": 6045,
      "avelength": 6046,
      "Xi": 6047,
      "}\\|": 6048,
      "hic": 6049,
      "zon": 6050,
      "Ġachieved": 6051,
      "ggest": 6052,
      "Ġintegration": 6053,
      "ĠIndeed": 6054,
      "ĠCheck": 6055,
      "notag": 6056,
      "BS": 6057,
      "Ġacceler": 6058,
      "ancy": 6059,
      "pair": 6060,
      "Ġextreme": 6061,
      "Left": 6062,
      "called": 6063,
      "Ġfloat": 6064,
      "ducation": 6065,
      "Ġcombined": 6066,
      "Mon": 6067,
      "Ġmassive": 6068,
      "ropic": 6069,
      "tikzpicture": 6070,
      "Long": 6071,
      "Ġtoken": 6072,
      "backslash": 6073,
      "Ġcity": 6074,
      "ACK": 6075,
      "ĠĠĠĠĠĠĠĠĠĠĠĠĠĠĠĠĠĠ": 6076,
      "Ġfill": 6077,
      "Level": 6078,
      "Ġbuilding": 6079,
      "Ġcells": 6080,
      "Ġhttps": 6081,
      "ĠPe": 6082,
      "Ġellip": 6083,
      "parallel": 6084,
      "Multi": 6085,
      "titu": 6086,
      "cache": 6087,
      "navbar": 6088,
      "400": 6089,
      "entifier": 6090,
      "Dir": 6091,
      "Ġarri": 6092,
      "ĠSchool": 6093,
      "flu": 6094,
      "gather": 6095,
      "Ġcompany": 6096,
      "Ġask": 6097,
      "VAL": 6098,
      "clusions": 6099,
      "labor": 6100,
      "force": 6101,
      "Ġactions": 6102,
      "ĠSome": 6103,
      "fn": 6104,
      "ogonal": 6105,
      "Ġusual": 6106,
      "ubble": 6107,
      ")})": 6108,
      "DS": 6109,
      "Ġgeneralized": 6110,
      "Operation": 6111,
      "Ġxml": 6112,
      "termin": 6113,
      "Ġexam": 6114,
      "layout": 6115,
      "Ġdimensional": 6116,
      "Ġdoesn": 6117,
      "onom": 6118,
      "DP": 6119,
      "Ġredshift": 6120,
      "Ġsummar": 6121,
      "Ġ,\\": 6122,
      "equal": 6123,
      "Each": 6124,
      "Ġaver": 6125,
      "Ġsched": 6126,
      "ĠPr": 6127,
      "ember": 6128,
      "uff": 6129,
      "Ġdynamical": 6130,
      "ĉĠĠĠĠĠ": 6131,
      "variance": 6132,
      "sd": 6133,
      "Mo": 6134,
      "ĠName": 6135,
      "atible": 6136,
      "Work": 6137,
      "Ġhydro": 6138,
      "reet": 6139,
      "Given": 6140,
      "```": 6141,
      "zing": 6142,
      "Ġengine": 6143,
      "Ġtechnique": 6144,
      "ĠSouth": 6145,
      "Ġhealth": 6146,
      "token": 6147,
      "elihood": 6148,
      "Consider": 6149,
      "Ġspher": 6150,
      "ections": 6151,
      "\\%$": 6152,
      "Ġtransport": 6153,
      "Ġobvious": 6154,
      "Ġenter": 6155,
      "Ġprinciple": 6156,
      "ymmetry": 6157,
      "DA": 6158,
      "Clo": 6159,
      "Ġchalleng": 6160,
      "Ġfont": 6161,
      "channel": 6162,
      "\"))": 6163,
      "stro": 6164,
      "eline": 6165,
      "nother": 6166,
      "Ġperfect": 6167,
      "har": 6168,
      "ascript": 6169,
      "Ġtesting": 6170,
      "render": 6171,
      "Ġequivalence": 6172,
      "ober": 6173,
      "^{(\\": 6174,
      "Ġmu": 6175,
      "ZE": 6176,
      "Ġ$\\{\\": 6177,
      "Ġwhereas": 6178,
      "Ġfri": 6179,
      "Ġcomputing": 6180,
      "Ġearlier": 6181,
      "ĠMc": 6182,
      "Ġdegrees": 6183,
      "Ġdashed": 6184,
      "Ġprecisely": 6185,
      "nn": 6186,
      "ellow": 6187,
      "stral": 6188,
      "tember": 6189,
      "rea": 6190,
      "ĠIntern": 6191,
      "Ġtypically": 6192,
      "Option": 6193,
      "NAME": 6194,
      "cro": 6195,
      "():": 6196,
      "Ġfav": 6197,
      "Ġsequences": 6198,
      "Ġdatabase": 6199,
      "FO": 6200,
      "Ġpiec": 6201,
      "Ġradiation": 6202,
      "shot": 6203,
      "Ġpick": 6204,
      "document": 6205,
      "!\\": 6206,
      "Ġcurrently": 6207,
      "lator": 6208,
      "Definition": 6209,
      "component": 6210,
      "reedom": 6211,
      "Ġsatisfied": 6212,
      "continu": 6213,
      "trict": 6214,
      "Ġscope": 6215,
      "^*(": 6216,
      "jecture": 6217,
      "oney": 6218,
      "Ġexpec": 6219,
      "Ġstochastic": 6220,
      "etal": 6221,
      "Ġparticip": 6222,
      "Comple": 6223,
      "Ġindeed": 6224,
      ")^\\": 6225,
      "Non": 6226,
      "Ġsession": 6227,
      "aster": 6228,
      "sively": 6229,
      "ĠCity": 6230,
      "Ġpropose": 6231,
      "ĠJanuary": 6232,
      "entic": 6233,
      "ĠWeb": 6234,
      "corollary": 6235,
      "kin": 6236,
      ")).": 6237,
      "etch": 6238,
      ">,": 6239,
      "Ġblocks": 6240,
      "ĠMarch": 6241,
      "romise": 6242,
      "Ġproducts": 6243,
      "Ġgames": 6244,
      "Ġapproximately": 6245,
      ";\\;\\": 6246,
      "Ġemer": 6247,
      "Ġefficient": 6248,
      "Ġissues": 6249,
      "ictionary": 6250,
      "Ġprobab": 6251,
      "Ġelectric": 6252,
      "Ġmath": 6253,
      "phantom": 6254,
      "Ġeigenvalues": 6255,
      "Ġtell": 6256,
      "ĠChar": 6257,
      "INE": 6258,
      "ĠHigh": 6259,
      "ĠĠĠĠĠĠĠĠĠĠĠĠĠĠĠĠĠĠĠĠĠĠĠĠĠĠĠĠĠĠĠĠĠĠĠĠĠĠĠĠĠĠĠĠĠĠĠĠĠĠĠĠĠĠĠĠĠĠĠĠĠĠĠĠ": 6260,
      "atory": 6261,
      "wait": 6262,
      "byte": 6263,
      "ĠOther": 6264,
      "tivation": 6265,
      "Ġabund": 6266,
      "TT": 6267,
      "ancel": 6268,
      "Ġdisper": 6269,
      ")[": 6270,
      "Ġthought": 6271,
      "Ġmaxim": 6272,
      "mator": 6273,
      "Control": 6274,
      "Ġbulk": 6275,
      "Ġstory": 6276,
      "Ġcoinc": 6277,
      "Ġarticle": 6278,
      "STR": 6279,
      "Ġgravity": 6280,
      "Iter": 6281,
      "Position": 6282,
      "general": 6283,
      "Ġ<!--": 6284,
      "ĠHiggs": 6285,
      "IB": 6286,
      "igation": 6287,
      "Ġcache": 6288,
      "None": 6289,
      "Ġthings": 6290,
      "ography": 6291,
      "uit": 6292,
      "domain": 6293,
      "hal": 6294,
      "Ġgeneric": 6295,
      "Ġfinally": 6296,
      "Ġ*)": 6297,
      "ulate": 6298,
      "Ġ\\&": 6299,
      "ournal": 6300,
      "Ġbr": 6301,
      "CF": 6302,
      "Err": 6303,
      "partment": 6304,
      "ĠGal": 6305,
      "chor": 6306,
      "Ġgovernment": 6307,
      "dash": 6308,
      "Ġsuff": 6309,
      "Ġimmediately": 6310,
      "Parameters": 6311,
      "pite": 6312,
      "iding": 6313,
      "vents": 6314,
      "ira": 6315,
      "ilbert": 6316,
      "Ġvs": 6317,
      "Ġyield": 6318,
      "herent": 6319,
      "Ġsqu": 6320,
      "ĠIR": 6321,
      "(-\\": 6322,
      "store": 6323,
      "Ġentries": 6324,
      "ills": 6325,
      "mathit": 6326,
      ".\\\\": 6327,
      "Ġsuggest": 6328,
      "Connection": 6329,
      "Ġball": 6330,
      "exists": 6331,
      "greg": 6332,
      "Moreover": 6333,
      "legate": 6334,
      "tml": 6335,
      "Ġjet": 6336,
      "Properties": 6337,
      "Ġdeath": 6338,
      "reated": 6339,
      "ĠDE": 6340,
      "Settings": 6341,
      "GN": 6342,
      "negative": 6343,
      "oundation": 6344,
      "COL": 6345,
      "tish": 6346,
      "grid": 6347,
      "internal": 6348,
      "Ġplayer": 6349,
      "Il": 6350,
      "debug": 6351,
      "Names": 6352,
      "Vari": 6353,
      "Ġthread": 6354,
      "Ġhighest": 6355,
      "ĠAb": 6356,
      "Ġanswer": 6357,
      "Ġactivity": 6358,
      "Ġindices": 6359,
      "ouch": 6360,
      "Ġconcept": 6361,
      "ĠTime": 6362,
      "(*": 6363,
      "Ġpassed": 6364,
      "brid": 6365,
      "El": 6366,
      "Ġpositions": 6367,
      "bon": 6368,
      "Cor": 6369,
      "Ġpractice": 6370,
      "Ġremoved": 6371,
      "Ġrelationship": 6372,
      "Ġunknown": 6373,
      "selves": 6374,
      "Ġcompe": 6375,
      "there": 6376,
      "|^{": 6377,
      "SA": 6378,
      "ATION": 6379,
      "km": 6380,
      "Ġprocessing": 6381,
      "_;": 6382,
      "Ġcommunication": 6383,
      "ORT": 6384,
      "Ġfollowed": 6385,
      "Ġintensity": 6386,
      "Ġcamp": 6387,
      "Reference": 6388,
      "Ġcontainer": 6389,
      "Ġdense": 6390,
      "optim": 6391,
      "Ġdistingu": 6392,
      "ĠCLASS": 6393,
      "thern": 6394,
      "large": 6395,
      "Ġouter": 6396,
      "cz": 6397,
      "Ġintersection": 6398,
      "Ġwait": 6399,
      "enu": 6400,
      "Ġcancel": 6401,
      "initial": 6402,
      "Ġ}}": 6403,
      "structor": 6404,
      "Ġreprodu": 6405,
      "uum": 6406,
      "Search": 6407,
      "ĠBay": 6408,
      "cut": 6409,
      "Ġfluctuations": 6410,
      "erman": 6411,
      "Ġdesigned": 6412,
      "ĠMath": 6413,
      "Ġquantities": 6414,
      "120": 6415,
      "ele": 6416,
      "Ġseman": 6417,
      "}{*": 6418,
      "Ġtreatment": 6419,
      "ĠAc": 6420,
      "Ġspecies": 6421,
      "ĠSM": 6422,
      "Ġnamed": 6423,
      "textup": 6424,
      "downarrow": 6425,
      "ĠResearch": 6426,
      "Ġnamespace": 6427,
      "ĠHREF": 6428,
      "Store": 6429,
      "Doc": 6430,
      "enchmark": 6431,
      "Ġarchitecture": 6432,
      "AND": 6433,
      "Var": 6434,
      "prob": 6435,
      "ĠRed": 6436,
      "Ġshowing": 6437,
      "Ġhidden": 6438,
      "Ġharmon": 6439,
      ")),": 6440,
      "CM": 6441,
      "Pack": 6442,
      "Ġparams": 6443,
      "ĠOR": 6444,
      "ĠSU": 6445,
      "ierarch": 6446,
      "rangian": 6447,
      "Ġhypothesis": 6448,
      "Ġtheories": 6449,
      "reducible": 6450,
      "Ġbecame": 6451,
      "Ġobjective": 6452,
      "Ġdrop": 6453,
      "Ġsuitable": 6454,
      "Ġdetector": 6455,
      "Ġneighb": 6456,
      "Render": 6457,
      ")--(": 6458,
      "Ġruns": 6459,
      "Ġcla": 6460,
      "hash": 6461,
      "origin": 6462,
      "Ġfluid": 6463,
      "HTML": 6464,
      "Handle": 6465,
      "Change": 6466,
      "ĠGeV": 6467,
      "avi": 6468,
      "Ġimplemented": 6469,
      "vember": 6470,
      "ultane": 6471,
      "rd": 6472,
      "Ġextract": 6473,
      "ae": 6474,
      "isson": 6475,
      "'_{": 6476,
      "chain": 6477,
      "ĠLog": 6478,
      "Location": 6479,
      "Ġperturbation": 6480,
      "trins": 6481,
      "win": 6482,
      "Ġluminosity": 6483,
      "Ġinvestigate": 6484,
      "Ġareas": 6485,
      "Ġtook": 6486,
      "Ġrelax": 6487,
      "Ġmask": 6488,
      "uge": 6489,
      "ifier": 6490,
      "!]": 6491,
      "########": 6492,
      "irth": 6493,
      "Widget": 6494,
      "condition": 6495,
      "ĠNorth": 6496,
      "Ko": 6497,
      "\\!\\": 6498,
      "lates": 6499,
      "$.}": 6500,
      "prote": 6501,
      "Ġnormalized": 6502,
      "rank": 6503,
      "Host": 6504,
      "angular": 6505,
      "BA": 6506,
      "oling": 6507,
      "Order": 6508,
      "Ġservices": 6509,
      "Ġheavy": 6510,
      "Ġstarted": 6511,
      "ĠSuppose": 6512,
      "Current": 6513,
      "transform": 6514,
      "Ġsong": 6515,
      "Ġalternative": 6516,
      "enum": 6517,
      "Ġrisk": 6518,
      "Copy": 6519,
      "pl": 6520,
      "\"));": 6521,
      "ko": 6522,
      "Ġfront": 6523,
      "ague": 6524,
      "Ġparse": 6525,
      "Document": 6526,
      "copy": 6527,
      "since": 6528,
      "ĠError": 6529,
      "Ġexchange": 6530,
      "ĠGiven": 6531,
      "ĠJune": 6532,
      "mits": 6533,
      "Ġdelay": 6534,
      "boo": 6535,
      "Ġaccre": 6536,
      "Ġelectro": 6537,
      "ient": 6538,
      "ĠJuly": 6539,
      "Ġwall": 6540,
      "Ġarm": 6541,
      "ĠEl": 6542,
      "DC": 6543,
      "STATE": 6544,
      "Ġinvolved": 6545,
      "Ġoverride": 6546,
      "stri": 6547,
      "~(\\": 6548,
      "Symbol": 6549,
      "Open": 6550,
      "Policy": 6551,
      "ĠNot": 6552,
      "ifies": 6553,
      "$-$": 6554,
      "hs": 6555,
      "aff": 6556,
      "Ġdot": 6557,
      "Ġuniformly": 6558,
      "ALL": 6559,
      "Extension": 6560,
      "TC": 6561,
      "javascript": 6562,
      "spin": 6563,
      "ĠEnd": 6564,
      "Sum": 6565,
      "Ġentang": 6566,
      "ĠException": 6567,
      "Ġcountry": 6568,
      "HC": 6569,
      "Ġpurpose": 6570,
      "Ġresources": 6571,
      "Ġlot": 6572,
      "enta": 6573,
      "istration": 6574,
      "arding": 6575,
      "Ġexclu": 6576,
      "ĠFourier": 6577,
      "Core": 6578,
      "belian": 6579,
      "tamp": 6580,
      "sump": 6581,
      "Ġassuming": 6582,
      "tan": 6583,
      "Ġverify": 6584,
      "cks": 6585,
      "atrix": 6586,
      "when": 6587,
      "Ġef": 6588,
      "cil": 6589,
      "particle": 6590,
      "Ġquick": 6591,
      "-(": 6592,
      "Ġ\\,\\": 6593,
      "Graph": 6594,
      "weight": 6595,
      "Ġnav": 6596,
      "Description": 6597,
      "stackrel": 6598,
      "Ġexpressions": 6599,
      "bind": 6600,
      "Ġprefer": 6601,
      "Ġincreased": 6602,
      "lege": 6603,
      "Mar": 6604,
      "PH": 6605,
      "textcolor": 6606,
      "Ġmetrics": 6607,
      "ĠApril": 6608,
      "Ġstatistics": 6609,
      "|$": 6610,
      "Ġrecover": 6611,
      "While": 6612,
      "green": 6613,
      "128": 6614,
      "Ġunderstanding": 6615,
      "Ġheat": 6616,
      "ĠOctober": 6617,
      "imits": 6618,
      "})+": 6619,
      "ĠSeptember": 6620,
      "servation": 6621,
      "yr": 6622,
      "__(": 6623,
      "Ġshock": 6624,
      "Ġgravitational": 6625,
      "Ġ::": 6626,
      "Ġwriting": 6627,
      "crete": 6628,
      "Ġcandidate": 6629,
      "Ã¡": 6630,
      "Ġlate": 6631,
      "Ġreader": 6632,
      "uri": 6633,
      "Ġnet": 6634,
      "Ġparame": 6635,
      "arith": 6636,
      ")}.": 6637,
      "Ġfine": 6638,
      "lapse": 6639,
      "Down": 6640,
      "double": 6641,
      "Ġexpand": 6642,
      "Ġconcern": 6643,
      "Cl": 6644,
      "aco": 6645,
      "\\|_": 6646,
      "Ġrecur": 6647,
      "Ġcorrection": 6648,
      "sus": 6649,
      "Can": 6650,
      "CODE": 6651,
      "Ġcref": 6652,
      "Ġvio": 6653,
      "Ġreplaced": 6654,
      "150": 6655,
      "functions": 6656,
      "Ġpublished": 6657,
      "isot": 6658,
      "Prop": 6659,
      "pla": 6660,
      "Ġcompan": 6661,
      "Sign": 6662,
      "ĠCounty": 6663,
      "detail": 6664,
      "Ġwaves": 6665,
      "Ke": 6666,
      "hr": 6667,
      "gre": 6668,
      "ridge": 6669,
      "Ġsizes": 6670,
      "BL": 6671,
      "Ġexci": 6672,
      "ĠWork": 6673,
      "Ġrapid": 6674,
      "Ġcolumns": 6675,
      "Ġbrief": 6676,
      "Ġstop": 6677,
      "Ġdeli": 6678,
      ")(\\": 6679,
      "Ġiteration": 6680,
      "vect": 6681,
      "ticles": 6682,
      "Pe": 6683,
      "Ġsignals": 6684,
      "Ġadop": 6685,
      "Ġ_{\\": 6686,
      "ĠSun": 6687,
      "replace": 6688,
      "footnotesize": 6689,
      "Ġmixed": 6690,
      "poch": 6691,
      "Ġcharacters": 6692,
      "`,": 6693,
      "olar": 6694,
      "interface": 6695,
      "Ġpolarization": 6696,
      "Ġconnect": 6697,
      "Ġreli": 6698,
      "Ġprof": 6699,
      "Schema": 6700,
      "Ġquestions": 6701,
      "Ġdel": 6702,
      "Ġpopular": 6703,
      "Ġcloud": 6704,
      "ĠAugust": 6705,
      "ĉĠĠĠĠĠĠĠĠĠĠĠ": 6706,
      "ĠInt": 6707,
      "ĠAir": 6708,
      "Ġsecurity": 6709,
      "ERROR": 6710,
      "Ġindepend": 6711,
      "istance": 6712,
      "unct": 6713,
      "Ġequality": 6714,
      "mom": 6715,
      "oring": 6716,
      "ulus": 6717,
      "tool": 6718,
      "Ġcorrections": 6719,
      "256": 6720,
      "vol": 6721,
      "classes": 6722,
      "ads": 6723,
      "Ġshare": 6724,
      "Mapp": 6725,
      "Ġadding": 6726,
      "GS": 6727,
      "beled": 6728,
      "bil": 6729,
      "Ġconfigurations": 6730,
      "Pa": 6731,
      "Ġsend": 6732,
      "Entity": 6733,
      "Ġprecision": 6734,
      "Ġ\\[": 6735,
      "comment": 6736,
      "ĠĠčĊ": 6737,
      "You": 6738,
      "ingle": 6739,
      "Ġgreen": 6740,
      "{(\\": 6741,
      "Ġinfluence": 6742,
      "Ġexperience": 6743,
      "ws": 6744,
      "corpor": 6745,
      "ĠSD": 6746,
      "ĠFunction": 6747,
      "Ġbehaviour": 6748,
      "Ġcomposition": 6749,
      "Que": 6750,
      "ĠSuch": 6751,
      "Ġreleased": 6752,
      "asons": 6753,
      "Ġalbum": 6754,
      "}/\\": 6755,
      "Ġpush": 6756,
      "Serial": 6757,
      "Ġuncertainties": 6758,
      "plane": 6759,
      "Font": 6760,
      "handle": 6761,
      "lone": 6762,
      "ĠRE": 6763,
      "square": 6764,
      "HS": 6765,
      "Ġmillion": 6766,
      "ortion": 6767,
      "ucial": 6768,
      "Ġnuclear": 6769,
      "Ap": 6770,
      "Ġfreedom": 6771,
      "ĠScience": 6772,
      "IGN": 6773,
      "trie": 6774,
      "Ġtrigger": 6775,
      "short": 6776,
      "iii": 6777,
      "Ġthroughout": 6778,
      "Ġsuppose": 6779,
      "Ġformed": 6780,
      "msg": 6781,
      "hol": 6782,
      "Ġevaluated": 6783,
      "1997": 6784,
      "actic": 6785,
      "mf": 6786,
      "Ġmi": 6787,
      "rane": 6788,
      "product": 6789,
      "ĠEar": 6790,
      "Ġtransmission": 6791,
      "bc": 6792,
      "ĠOut": 6793,
      "Impl": 6794,
      "ĠAf": 6795,
      "multline": 6796,
      "webpack": 6797,
      "Bytes": 6798,
      "Ġaffect": 6799,
      "Ġnotice": 6800,
      "Ġcompar": 6801,
      "MT": 6802,
      "fields": 6803,
      "Ġrect": 6804,
      "Ġinstr": 6805,
      "varrho": 6806,
      "Example": 6807,
      "lev": 6808,
      "Ġperiodic": 6809,
      "Car": 6810,
      "hfill": 6811,
      "Ġrelease": 6812,
      "complete": 6813,
      "ĠRun": 6814,
      "SQL": 6815,
      "Ġrough": 6816,
      "sport": 6817,
      "]]": 6818,
      "border": 6819,
      "invariant": 6820,
      "category": 6821,
      "Ġchanged": 6822,
      "Ġwavelength": 6823,
      "iem": 6824,
      "Ġstress": 6825,
      "Ġparticularly": 6826,
      "webkit": 6827,
      "Ġquadratic": 6828,
      "Invalid": 6829,
      "device": 6830,
      "Session": 6831,
      "Ġways": 6832,
      "Tran": 6833,
      "*}[": 6834,
      "stitute": 6835,
      "Ġfinding": 6836,
      "Http": 6837,
      "before": 6838,
      "delete": 6839,
      "BP": 6840,
      "Ġfailed": 6841,
      "stan": 6842,
      "ĠDecember": 6843,
      "Body": 6844,
      "typeof": 6845,
      "CTION": 6846,
      "Ġpatterns": 6847,
      ":</": 6848,
      "Ġdedu": 6849,
      "Ġatoms": 6850,
      "255": 6851,
      "Ġshared": 6852,
      "1996": 6853,
      "Ġseparate": 6854,
      "eries": 6855,
      "tral": 6856,
      "Ġscreen": 6857,
      "inted": 6858,
      "Ġadv": 6859,
      "Ġpackage": 6860,
      "Ġhalo": 6861,
      "sep": 6862,
      "ĠNovember": 6863,
      "nel": 6864,
      "ĠLO": 6865,
      "ĠExt": 6866,
      "ĠAustral": 6867,
      "Ġround": 6868,
      "Ġcame": 6869,
      "Ġbright": 6870,
      "Ġthank": 6871,
      "Ġpen": 6872,
      "special": 6873,
      "Ġplanet": 6874,
      "}.}": 6875,
      "'re": 6876,
      "Ġquantity": 6877,
      "pk": 6878,
      "FL": 6879,
      "ĠWhat": 6880,
      "phase": 6881,
      "Ġvi": 6882,
      "verti": 6883,
      "ĠExample": 6884,
      "rays": 6885,
      "&=&\\": 6886,
      "}$\\": 6887,
      "boolean": 6888,
      "cline": 6889,
      "ĠGroup": 6890,
      "Ġgets": 6891,
      "ats": 6892,
      "Ġreflect": 6893,
      "modules": 6894,
      "Ġidentical": 6895,
      "umes": 6896,
      "rich": 6897,
      "$^{": 6898,
      "Ġisot": 6899,
      "enced": 6900,
      "bilities": 6901,
      "ract": 6902,
      ")}(\\": 6903,
      "Ġneutrino": 6904,
      "luster": 6905,
      "Ġfair": 6906,
      "network": 6907,
      "coming": 6908,
      "nol": 6909,
      "Ġanom": 6910,
      "Ġvehic": 6911,
      "theless": 6912,
      "ĠCorollary": 6913,
      "rome": 6914,
      "Ġmoving": 6915,
      "Ġhouse": 6916,
      "Ġbyte": 6917,
      "crimin": 6918,
      "ya": 6919,
      "Ġmixing": 6920,
      "oul": 6921,
      "Ġnum": 6922,
      "Ġmarket": 6923,
      "xture": 6924,
      "Async": 6925,
      "lower": 6926,
      "ermi": 6927,
      "aders": 6928,
      "Ġpolynomials": 6929,
      "Ġexpress": 6930,
      "Ġencoding": 6931,
      "Ġproceed": 6932,
      "GeV": 6933,
      "FC": 6934,
      "Ġ$^{": 6935,
      "Ġcoupled": 6936,
      "Ġinfo": 6937,
      "Ġvisible": 6938,
      "ĠAlthough": 6939,
      "Ġgeometric": 6940,
      "Reader": 6941,
      "$^": 6942,
      "`.": 6943,
      "Port": 6944,
      "Ġbytes": 6945,
      "123": 6946,
      "ĠMethod": 6947,
      "Ġsolar": 6948,
      "Ġhomogeneous": 6949,
      "ULT": 6950,
      "Ġorthogonal": 6951,
      "Ġtranslation": 6952,
      "Ġslo": 6953,
      "BR": 6954,
      "Vector": 6955,
      "Ġexplained": 6956,
      "}^{+": 6957,
      "Ġdegener": 6958,
      "================================": 6959,
      "margin": 6960,
      "wave": 6961,
      "Ġchemical": 6962,
      "Argument": 6963,
      "=\\{": 6964,
      "ortun": 6965,
      ")>": 6966,
      "Helper": 6967,
      "WE": 6968,
      "Ġacqu": 6969,
      "ĠGreen": 6970,
      "ror": 6971,
      "Ġphases": 6972,
      ".$$": 6973,
      "vide": 6974,
      "Ġvacuum": 6975,
      "Ġanalytic": 6976,
      "TEST": 6977,
      "ĠMax": 6978,
      "Ġinsp": 6979,
      "Ġrise": 6980,
      "Ġclean": 6981,
      "Ġdelete": 6982,
      "Ġten": 6983,
      "clip": 6984,
      "utils": 6985,
      "Integer": 6986,
      "cu": 6987,
      "hu": 6988,
      "sia": 6989,
      "tach": 6990,
      "Ġbad": 6991,
      "Ġconvolution": 6992,
      "Ġstudents": 6993,
      "Ġtopology": 6994,
      "orter": 6995,
      "Ġgoes": 6996,
      "Ġcategories": 6997,
      "Ġinstances": 6998,
      "Ġencode": 6999,
      "rence": 7000,
      "Ġsimultane": 7001,
      "Ġdensities": 7002,
      "holder": 7003,
      "uparrow": 7004,
      "Ġability": 7005,
      "=\"_": 7006,
      "HO": 7007,
      "Ġgenerating": 7008,
      "scopic": 7009,
      "Ġcapacity": 7010,
      "Ġmissing": 7011,
      "Ġpadding": 7012,
      "oke": 7013,
      "Ġdiffusion": 7014,
      "toString": 7015,
      "Ġnotion": 7016,
      "{|": 7017,
      "gmentation": 7018,
      "manif": 7019,
      "Ġprofiles": 7020,
      "differ": 7021,
      "ĠChris": 7022,
      "apan": 7023,
      "ĠPy": 7024,
      "ibility": 7025,
      "ĠMod": 7026,
      "FS": 7027,
      "Us": 7028,
      "dest": 7029,
      "trinsic": 7030,
      "Ġsurvey": 7031,
      "ãģ": 7032,
      "Ġalgebraic": 7033,
      "BE": 7034,
      "Ġecon": 7035,
      "Values": 7036,
      "{.": 7037,
      "})^{": 7038,
      "Hom": 7039,
      "Mem": 7040,
      "Ġirreducible": 7041,
      "Ġfrequencies": 7042,
      "Ġrecomm": 7043,
      "&&\\": 7044,
      "enge": 7045,
      "Ġmiddle": 7046,
      "Ġdevices": 7047,
      "Ġadvantage": 7048,
      "Ġdro": 7049,
      "GE": 7050,
      "asc": 7051,
      "binom": 7052,
      "allet": 7053,
      "ĠMed": 7054,
      "Ġreser": 7055,
      "scriptscript": 7056,
      "Ġappe": 7057,
      "Ð»": 7058,
      "PRE": 7059,
      "bruary": 7060,
      "Ġ(\"": 7061,
      "AGE": 7062,
      "ĠSO": 7063,
      "scriptscriptstyle": 7064,
      "Ġreduces": 7065,
      "Ġdeviation": 7066,
      "\"`": 7067,
      "oton": 7068,
      "Ġreconstruction": 7069,
      "Ġpermu": 7070,
      "]^": 7071,
      "stal": 7072,
      "ceil": 7073,
      "Ġsubspace": 7074,
      "elec": 7075,
      "Ġplayed": 7076,
      "ico": 7077,
      "Ġelectrons": 7078,
      "$'": 7079,
      "chemes": 7080,
      ",...,": 7081,
      "iring": 7082,
      "Ġ++": 7083,
      "Red": 7084,
      "Ġinterested": 7085,
      "Ġtransverse": 7086,
      "Ġrational": 7087,
      "Xml": 7088,
      "irical": 7089,
      "ĠConsider": 7090,
      "ĠBra": 7091,
      "$\\\\": 7092,
      "Ġdefines": 7093,
      "framework": 7094,
      "Ġsector": 7095,
      "Ġstorage": 7096,
      "itle": 7097,
      "ady": 7098,
      "syn": 7099,
      "arities": 7100,
      "ĠPark": 7101,
      "Ġcontinuum": 7102,
      "Ġcorrelations": 7103,
      "ĠIS": 7104,
      "ĠWest": 7105,
      "False": 7106,
      "total": 7107,
      "card": 7108,
      "FOR": 7109,
      "Ġpatch": 7110,
      "Bundle": 7111,
      "Timeout": 7112,
      "Ġformulation": 7113,
      "pole": 7114,
      "shift": 7115,
      "Device": 7116,
      "Ġsem": 7117,
      "2022": 7118,
      "ĠCON": 7119,
      "Ġ),": 7120,
      "Ġfeel": 7121,
      "Ġneighborhood": 7122,
      "Ġreveal": 7123,
      "Ġtren": 7124,
      "propto": 7125,
      "ĠSan": 7126,
      "PD": 7127,
      "Ġimplement": 7128,
      "Ġdependent": 7129,
      "Ġbehind": 7130,
      "ATA": 7131,
      "radius": 7132,
      "_{+": 7133,
      "posed": 7134,
      "Template": 7135,
      "Ġinfer": 7136,
      "alities": 7137,
      "what": 7138,
      "random": 7139,
      "conver": 7140,
      "ĠEnglish": 7141,
      "Ġsuggests": 7142,
      "icons": 7143,
      "}{{\\": 7144,
      "sube": 7145,
      "Mark": 7146,
      "Obj": 7147,
      "tensor": 7148,
      "Ġfitting": 7149,
      "Ġwomen": 7150,
      "repres": 7151,
      "Ġunsigned": 7152,
      "Ġlies": 7153,
      "\\},": 7154,
      "callback": 7155,
      "ĠHis": 7156,
      "Go": 7157,
      "001": 7158,
      "Ġintermediate": 7159,
      "ĠKing": 7160,
      "equals": 7161,
      "Ġyoung": 7162,
      "Ġenh": 7163,
      "connection": 7164,
      "What": 7165,
      "Ġimproved": 7166,
      "Ġprime": 7167,
      "Ġsolving": 7168,
      "Ġattributes": 7169,
      "OK": 7170,
      "anks": 7171,
      "extension": 7172,
      "leftarrow": 7173,
      "Ġnoted": 7174,
      "Ġlack": 7175,
      "itary": 7176,
      "Ġpicture": 7177,
      "Ġunion": 7178,
      "urally": 7179,
      "vacy": 7180,
      "ondon": 7181,
      "Ġever": 7182,
      "Ġdirections": 7183,
      "ifying": 7184,
      "thetic": 7185,
      "Ġplas": 7186,
      "Ġhorizontal": 7187,
      "regular": 7188,
      "region": 7189,
      "Ġdra": 7190,
      "ulture": 7191,
      "Ġlive": 7192,
      "single": 7193,
      "Ġstraightforward": 7194,
      "Ġheader": 7195,
      "Ġproportional": 7196,
      "ORD": 7197,
      "Ġ\\|\\": 7198,
      "oli": 7199,
      "Sw": 7200,
      "Ul": 7201,
      "depth": 7202,
      "bd": 7203,
      ")_{\\": 7204,
      "Ġapplic": 7205,
      "Ġdescribes": 7206,
      "Ġdemonstrate": 7207,
      "iers": 7208,
      "Es": 7209,
      "Ġfeedback": 7210,
      "nes": 7211,
      "measure": 7212,
      "ĠMich": 7213,
      "rist": 7214,
      "tified": 7215,
      "ĠValue": 7216,
      "Ġtransitions": 7217,
      "zy": 7218,
      "NG": 7219,
      "Ġkm": 7220,
      "Ġ['": 7221,
      "bigcup": 7222,
      "defn": 7223,
      "\\}.": 7224,
      "Rule": 7225,
      "limit": 7226,
      "Ġmedium": 7227,
      "rong": 7228,
      "tios": 7229,
      "EXT": 7230,
      "Ġoccup": 7231,
      "tright": 7232,
      "textnormal": 7233,
      "Ġ---": 7234,
      "$\\,": 7235,
      "sterior": 7236,
      "Ġmathe": 7237,
      "Ġnothing": 7238,
      "Args": 7239,
      "Ġupdated": 7240,
      "Deta": 7241,
      "files": 7242,
      "some": 7243,
      "ined": 7244,
      "Ġabsorption": 7245,
      "straint": 7246,
      "atively": 7247,
      "simple": 7248,
      "VM": 7249,
      "Before": 7250,
      "'],": 7251,
      "tributed": 7252,
      "Ġ\"/": 7253,
      "ĠAlgorithm": 7254,
      "ĠBro": 7255,
      "Ġglu": 7256,
      "Ġ<=": 7257,
      "smallskip": 7258,
      "Ġnews": 7259,
      "ĠDM": 7260,
      "ĠDav": 7261,
      "schema": 7262,
      "spective": 7263,
      "ĠLagrangian": 7264,
      "Ġbeginning": 7265,
      "env": 7266,
      "Ġorbital": 7267,
      "110": 7268,
      "Ġdecreases": 7269,
      "jpg": 7270,
      "UM": 7271,
      "inv": 7272,
      "Ġtemperatures": 7273,
      "sql": 7274,
      "tile": 7275,
      "Ġnearly": 7276,
      "GET": 7277,
      "Ġmeas": 7278,
      "Ġdefinitions": 7279,
      ")}$.": 7280,
      "Ġamb": 7281,
      "Ġgenerator": 7282,
      "Stack": 7283,
      "Ġdispersion": 7284,
      "ny": 7285,
      "tivistic": 7286,
      "veloper": 7287,
      "Ġled": 7288,
      "Ġpixel": 7289,
      "ji": 7290,
      "Ġrestriction": 7291,
      "1995": 7292,
      "have": 7293,
      "Ġrows": 7294,
      "(:": 7295,
      "wt": 7296,
      "Ġhierarch": 7297,
      "Ġnecessarily": 7298,
      "strap": 7299,
      "Te": 7300,
      "iemann": 7301,
      "Ġ(*": 7302,
      "thick": 7303,
      "Ġpredict": 7304,
      "Boolean": 7305,
      "Ġtoday": 7306,
      "Ġscenarios": 7307,
      "Ġdiscover": 7308,
      "mathtt": 7309,
      "boldmath": 7310,
      "'))": 7311,
      "Ġhot": 7312,
      "ĠTrue": 7313,
      "NA": 7314,
      "Ġbands": 7315,
      "ishing": 7316,
      "LR": 7317,
      "textsf": 7318,
      "ĠĠĠĠĠĠĠĠĠĠĠĠĠĠĠĠĠĠĠĠĠĠĠĠĠ": 7319,
      "Ġderivatives": 7320,
      "Ġacts": 7321,
      "Ġheld": 7322,
      "gb": 7323,
      "ĠTHE": 7324,
      "Ġretrie": 7325,
      "Ġbaseline": 7326,
      "Ġsegment": 7327,
      "Enc": 7328,
      "IA": 7329,
      "Ã³": 7330,
      "erson": 7331,
      "Ġ('": 7332,
      "sch": 7333,
      "Rep": 7334,
      "Ġ~\\": 7335,
      "address": 7336,
      "^+$": 7337,
      "Ġsites": 7338,
      "ipeline": 7339,
      "ĠGR": 7340,
      "obs": 7341,
      "Ġ[];": 7342,
      "}[!": 7343,
      "mean": 7344,
      "Ġkeys": 7345,
      "artifact": 7346,
      "Ġpossibility": 7347,
      "ctic": 7348,
      "sumption": 7349,
      "rated": 7350,
      "Proposition": 7351,
      "Ġmolecular": 7352,
      "_->": 7353,
      "Ġupd": 7354,
      "settings": 7355,
      "Ġensemble": 7356,
      "iki": 7357,
      "inger": 7358,
      "END": 7359,
      "quations": 7360,
      "zer": 7361,
      "session": 7362,
      "Ġinit": 7363,
      "Ġwalk": 7364,
      "Ġ\"\\": 7365,
      "arge": 7366,
      "Ġtown": 7367,
      "umentation": 7368,
      "Ġsimulated": 7369,
      "Ġuniversal": 7370,
      "Ġexpectation": 7371,
      "ĠMap": 7372,
      "Ġforces": 7373,
      "Ġmodules": 7374,
      "nm": 7375,
      "oting": 7376,
      "Ġadjac": 7377,
      "Ġcaused": 7378,
      "}>": 7379,
      "ites": 7380,
      "Ġconv": 7381,
      "ifted": 7382,
      "Ġimportance": 7383,
      "Ġ\\{\\": 7384,
      "fg": 7385,
      "cle": 7386,
      "apply": 7387,
      "Ġatt": 7388,
      "ggle": 7389,
      "Ġatmos": 7390,
      "Ġdoing": 7391,
      "Ġatomic": 7392,
      "ĠĠĠĠĠĠĠĠĠĠĠĠĠĠĠĠĠĠĠĠĠĠĠĠ": 7393,
      "Ġdt": 7394,
      "Direct": 7395,
      "ĠĠĠĠĠĠĠĠĠĠĠĠĠĠĠĠĠĠĠĠĠĠ": 7396,
      "ĠOver": 7397,
      "ĠEvent": 7398,
      "ensors": 7399,
      "BB": 7400,
      "TS": 7401,
      "ĠVal": 7402,
      "Ġinteract": 7403,
      "ologies": 7404,
      "Ġorders": 7405,
      "Ġsensitivity": 7406,
      "160": 7407,
      "WS": 7408,
      "Ġmorphism": 7409,
      "bre": 7410,
      "Project": 7411,
      "ĠHilbert": 7412,
      "leqslant": 7413,
      "vm": 7414,
      "Delete": 7415,
      "ressive": 7416,
      "inline": 7417,
      "Ġstrictly": 7418,
      "$}}": 7419,
      "language": 7420,
      "ye": 7421,
      "Ġlooking": 7422,
      "ĠUse": 7423,
      "ĠOpen": 7424,
      "Ġagents": 7425,
      "\\[\\": 7426,
      "Ġreferences": 7427,
      "Ġseparation": 7428,
      "register": 7429,
      "Ġsil": 7430,
      "ĠTech": 7431,
      "kl": 7432,
      "writ": 7433,
      "Ġvalidation": 7434,
      "Ġincorpor": 7435,
      "Ġweighted": 7436,
      "Ġcarried": 7437,
      "URE": 7438,
      "Ġcomputer": 7439,
      "Descriptor": 7440,
      "|-": 7441,
      "subequations": 7442,
      "Ġflag": 7443,
      "loss": 7444,
      "Ġcoming": 7445,
      "stitu": 7446,
      "kern": 7447,
      "Parser": 7448,
      "Ġinputs": 7449,
      "Root": 7450,
      "anges": 7451,
      "Pass": 7452,
      "Sim": 7453,
      "Ġcard": 7454,
      "newline": 7455,
      "Ġtes": 7456,
      "Ġbits": 7457,
      "send": 7458,
      "Ġbelieve": 7459,
      "yes": 7460,
      "Ġlisted": 7461,
      "Ġcontract": 7462,
      "related": 7463,
      "enter": 7464,
      "ĠDate": 7465,
      "Ġsort": 7466,
      "Cap": 7467,
      "Ġworth": 7468,
      "stry": 7469,
      "Ġthing": 7470,
      "Ġtools": 7471,
      "vities": 7472,
      "ryp": 7473,
      "selected": 7474,
      "'.": 7475,
      "ached": 7476,
      "Ġwind": 7477,
      "Ġspread": 7478,
      "utor": 7479,
      "Ġsound": 7480,
      "law": 7481,
      "Metadata": 7482,
      "vc": 7483,
      "EO": 7484,
      "})=\\": 7485,
      "gni": 7486,
      "Ġaccep": 7487,
      "Database": 7488,
      "ApJ": 7489,
      "Storage": 7490,
      "Queue": 7491,
      "Ġvalu": 7492,
      "inclu": 7493,
      "imin": 7494,
      "Ma": 7495,
      "ĠassertEquals": 7496,
      "exception": 7497,
      "Ġproviding": 7498,
      "Ġcodes": 7499,
      "Ġlowest": 7500,
      "}},\\": 7501,
      "Ġdemand": 7502,
      "Ġbur": 7503,
      "}^+": 7504,
      "Ġvariations": 7505,
      "Ġpseudo": 7506,
      "vie": 7507,
      "Ġregression": 7508,
      "trightarrow": 7509,
      "Ġmainly": 7510,
      "Ġwatch": 7511,
      "Ġarc": 7512,
      "hape": 7513,
      "Ġgiving": 7514,
      "Debug": 7515,
      "ĠFebruary": 7516,
      "\\}_{": 7517,
      "Ġcop": 7518,
      "ensing": 7519,
      "ĠCR": 7520,
      "urable": 7521,
      "omorphisms": 7522,
      "Ġhit": 7523,
      "ission": 7524,
      "Ġmodeling": 7525,
      "Param": 7526,
      "MF": 7527,
      "density": 7528,
      "Ġpropos": 7529,
      "formance": 7530,
      "Ġtail": 7531,
      "licated": 7532,
      "Ġprobably": 7533,
      "vor": 7534,
      "Only": 7535,
      "lef": 7536,
      "lating": 7537,
      "Ġcomment": 7538,
      "nolimits": 7539,
      "Ġfle": 7540,
      "citealt": 7541,
      "Ġdecrease": 7542,
      "none": 7543,
      "Enabled": 7544,
      "Ġtang": 7545,
      "properties": 7546,
      "rb": 7547,
      "ynamics": 7548,
      "keys": 7549,
      "Menu": 7550,
      "Pod": 7551,
      "Ġtemporal": 7552,
      "Writer": 7553,
      "Parent": 7554,
      "ĠImp": 7555,
      "Ġ{$\\": 7556,
      "symmetric": 7557,
      "_,": 7558,
      "widget": 7559,
      "click": 7560,
      "Ġmetall": 7561,
      "Ġlibrary": 7562,
      "Tab": 7563,
      "instein": 7564,
      "Ġsurfaces": 7565,
      "Application": 7566,
      "Bigg": 7567,
      "hang": 7568,
      "Initial": 7569,
      "Ġprecise": 7570,
      "Ġstated": 7571,
      "Ġinstanceof": 7572,
      "ffff": 7573,
      "Ġmatches": 7574,
      "CI": 7575,
      "Ġrepresenting": 7576,
      "&#": 7577,
      "izable": 7578,
      "ders": 7579,
      "----------------------------------------------------------------": 7580,
      "rench": 7581,
      "lam": 7582,
      "hed": 7583,
      "Ġphotons": 7584,
      "Ġrig": 7585,
      "Ġjump": 7586,
      "Ġalgebras": 7587,
      "Ġessentially": 7588,
      "Ġhours": 7589,
      "ĠNOT": 7590,
      "words": 7591,
      "Ġexplan": 7592,
      "COLOR": 7593,
      "Ġopposite": 7594,
      "Ġintern": 7595,
      "Ġalloc": 7596,
      "adoop": 7597,
      "Ġord": 7598,
      "support": 7599,
      "ACE": 7600,
      "Ġaccept": 7601,
      "Ġcomplement": 7602,
      "indu": 7603,
      "Ġrandomly": 7604,
      "ĠFoundation": 7605,
      "agnos": 7606,
      "tz": 7607,
      "Ġdistances": 7608,
      ")}$,": 7609,
      "Ġlikelihood": 7610,
      "Ġfunctor": 7611,
      "matical": 7612,
      "Ġsummary": 7613,
      "Ġturns": 7614,
      "covery": 7615,
      "Scope": 7616,
      "ĠEquation": 7617,
      "Fin": 7618,
      "ands": 7619,
      "tivated": 7620,
      "pdown": 7621,
      "Ġ})": 7622,
      "Ġfailure": 7623,
      "Ġbatch": 7624,
      "Ġabstract": 7625,
      "Ġstrings": 7626,
      "_{-\\": 7627,
      "aker": 7628,
      "180": 7629,
      "att": 7630,
      "Record": 7631,
      "Ġlimi": 7632,
      "calc": 7633,
      "Ġorientation": 7634,
      "Ġhandler": 7635,
      "|_": 7636,
      "Ġschemes": 7637,
      "bolic": 7638,
      "Byte": 7639,
      "Pattern": 7640,
      "Network": 7641,
      "Ġlove": 7642,
      "ibrary": 7643,
      "Ġnight": 7644,
      "ĠBase": 7645,
      "anguage": 7646,
      "ĠHow": 7647,
      "Ġaccretion": 7648,
      "ĠDr": 7649,
      "verb": 7650,
      "%;": 7651,
      "midrule": 7652,
      "cluster": 7653,
      "Ġ\\}": 7654,
      "Ġsystematic": 7655,
      "Ġprice": 7656,
      "_{[": 7657,
      "Ġconverges": 7658,
      "}{}": 7659,
      "aign": 7660,
      "oute": 7661,
      "ANT": 7662,
      "Ġsci": 7663,
      "Ġfermion": 7664,
      "Ġseem": 7665,
      "Rect": 7666,
      "going": 7667,
      "aml": 7668,
      "Ġannoun": 7669,
      "finity": 7670,
      "Ġos": 7671,
      "Ġprogress": 7672,
      "rat": 7673,
      "SET": 7674,
      "panel": 7675,
      "Ġeigenvalue": 7676,
      "period": 7677,
      "ured": 7678,
      "matics": 7679,
      "|_{\\": 7680,
      "mI": 7681,
      "ÃŃ": 7682,
      "Ġisomorphic": 7683,
      "Ġvisit": 7684,
      "]=": 7685,
      "ias": 7686,
      "ĠRus": 7687,
      "ĠĠĠĠĠĠĠĠĠĠĠĠĠĠĠĠĠĠĠĠĠĠĠĠĠĠĠĠĠĠĠĠĠĠĠĠĠĠĠ": 7688,
      "Met": 7689,
      "Ġrecogn": 7690,
      "Ġsat": 7691,
      "Ġelem": 7692,
      "Ġtrajectory": 7693,
      "focus": 7694,
      "Ġsti": 7695,
      "Ġexecution": 7696,
      "Ġdiagrams": 7697,
      "ville": 7698,
      "IX": 7699,
      "za": 7700,
      "Ġturb": 7701,
      "[$": 7702,
      "sibility": 7703,
      "ĠCenter": 7704,
      "ĠEast": 7705,
      "Assert": 7706,
      "Ġteach": 7707,
      "Ġautomatically": 7708,
      "SSERT": 7709,
      "otal": 7710,
      "Ġtrade": 7711,
      "disabled": 7712,
      "Ġdidn": 7713,
      "RA": 7714,
      "polation": 7715,
      "lik": 7716,
      "cb": 7717,
      "uclide": 7718,
      "exist": 7719,
      "igible": 7720,
      "ned": 7721,
      "ĠNetwork": 7722,
      "BM": 7723,
      "sky": 7724,
      "ĠURL": 7725,
      "fined": 7726,
      "ociety": 7727,
      ")))": 7728,
      ">.": 7729,
      "Ġuniqu": 7730,
      "Ġtele": 7731,
      "Ġunitary": 7732,
      "ĠDefinition": 7733,
      "Ġtypeof": 7734,
      "ĉĠĠĠĠ": 7735,
      "Ġratios": 7736,
      "Ġcarry": 7737,
      "Ġbirth": 7738,
      "Ġcosmological": 7739,
      "Ġunless": 7740,
      "Channel": 7741,
      "ole": 7742,
      "SF": 7743,
      "Ġsimilarly": 7744,
      "icker": 7745,
      "ĠBel": 7746,
      "1990": 7747,
      "tated": 7748,
      "Ġepis": 7749,
      "Ġbutton": 7750,
      "uclidean": 7751,
      "Ġlistener": 7752,
      "ison": 7753,
      "Auto": 7754,
      "ĠAfric": 7755,
      "Yk": 7756,
      "ĠSimilarly": 7757,
      "Ġindicated": 7758,
      "ĠLondon": 7759,
      "ester": 7760,
      "mitive": 7761,
      "Ġinterpretation": 7762,
      "Load": 7763,
      "ĠRequ": 7764,
      "rest": 7765,
      "Fields": 7766,
      "Ġdifferenti": 7767,
      "sequent": 7768,
      "cheme": 7769,
      "Ġlock": 7770,
      "CN": 7771,
      "dian": 7772,
      "wner": 7773,
      "numer": 7774,
      "Ġcharged": 7775,
      "Ġintegrated": 7776,
      "Ġleave": 7777,
      "cmd": 7778,
      "taining": 7779,
      "Ġadvers": 7780,
      "media": 7781,
      "StyleID": 7782,
      "Ġbl": 7783,
      "Ġmanner": 7784,
      "1994": 7785,
      "ĠIO": 7786,
      "Ġextracted": 7787,
      "ius": 7788,
      "ĠSm": 7789,
      "Ġinference": 7790,
      "Ġsensitive": 7791,
      "Ġani": 7792,
      "tigated": 7793,
      "ĠEqs": 7794,
      "ĠPublic": 7795,
      "Phys": 7796,
      "arse": 7797,
      "Ġpointer": 7798,
      "Ġtravel": 7799,
      "Oe": 7800,
      "Some": 7801,
      "Yi": 7802,
      "\\,{\\": 7803,
      "virt": 7804,
      "cknowledge": 7805,
      "Ġmock": 7806,
      "Ġtypename": 7807,
      "Ġinline": 7808,
      "Title": 7809,
      "gex": 7810,
      "gramm": 7811,
      "ians": 7812,
      "spects": 7813,
      "Ġestimator": 7814,
      "Has": 7815,
      "Ġmessages": 7816,
      "Ġduration": 7817,
      "Ġvarying": 7818,
      "Syntax": 7819,
      "Ġcy": 7820,
      "Ġgl": 7821,
      "valued": 7822,
      "napshot": 7823,
      "IE": 7824,
      "Main": 7825,
      "Ð°Ð": 7826,
      "=\"../../../../../": 7827,
      "Ġsignature": 7828,
      "Ġepoch": 7829,
      "cussion": 7830,
      "custom": 7831,
      "ĠBG": 7832,
      "jk": 7833,
      "Ġsy": 7834,
      "Recall": 7835,
      "JQ": 7836,
      "Ġenable": 7837,
      "formu": 7838,
      ")\">": 7839,
      "ority": 7840,
      "success": 7841,
      "hd": 7842,
      "ĠHol": 7843,
      "\\|^": 7844,
      "sat": 7845,
      "Ġfunc": 7846,
      "coordin": 7847,
      "'$.": 7848,
      "Ġresonance": 7849,
      "ĠAccording": 7850,
      "Ġtransformations": 7851,
      "tating": 7852,
      "Ġca": 7853,
      "rame": 7854,
      "intro": 7855,
      "docs": 7856,
      "sen": 7857,
      "ĠĠĠĠĠĠĊ": 7858,
      "andard": 7859,
      "boot": 7860,
      "Ġtrees": 7861,
      "Ġcompatible": 7862,
      "oura": 7863,
      "correspon": 7864,
      "Ġbenchmark": 7865,
      "dical": 7866,
      "Ġsphere": 7867,
      "ancial": 7868,
      "ĠBecause": 7869,
      "ĠJapan": 7870,
      "ociation": 7871,
      "Ġreached": 7872,
      "Ġconditional": 7873,
      "ĠInternational": 7874,
      "Ġimply": 7875,
      "Bin": 7876,
      "Ġrights": 7877,
      "Ġsimplicity": 7878,
      "Select": 7879,
      "artifactId": 7880,
      "ĠPlan": 7881,
      "conv": 7882,
      "determin": 7883,
      "KEY": 7884,
      "complex": 7885,
      "lush": 7886,
      "ĠAR": 7887,
      "Ġshell": 7888,
      "ĠJSON": 7889,
      "Ġconclusion": 7890,
      "'>": 7891,
      "ĠCur": 7892,
      "Ġordered": 7893,
      "spe": 7894,
      "gradient": 7895,
      "}{*}{": 7896,
      "DT": 7897,
      "lr": 7898,
      "ĠGeneral": 7899,
      "Ġdiscrimin": 7900,
      "^*_": 7901,
      "Ġlogarith": 7902,
      "Mock": 7903,
      "uel": 7904,
      "Ġdirectory": 7905,
      "important": 7906,
      "cknowled": 7907,
      "anned": 7908,
      "yal": 7909,
      "ODO": 7910,
      "ĠPoisson": 7911,
      "Ġrestricted": 7912,
      "Ġda": 7913,
      ")&": 7914,
      "gray": 7915,
      "Ġraise": 7916,
      "ĠOf": 7917,
      "endar": 7918,
      "Ġfib": 7919,
      "Ġcalls": 7920,
      "Send": 7921,
      "ua": 7922,
      "Ġtraditional": 7923,
      "Ġlost": 7924,
      "mask": 7925,
      "Ġentity": 7926,
      "ITY": 7927,
      "ĠSecond": 7928,
      "bile": 7929,
      "kind": 7930,
      "ĠBritish": 7931,
      "triangle": 7932,
      "Ġconjug": 7933,
      "Ġdomains": 7934,
      "Ġconfidence": 7935,
      "notin": 7936,
      "rupt": 7937,
      "Ġwent": 7938,
      "dashed": 7939,
      "connect": 7940,
      "Ġcontroller": 7941,
      "ditionally": 7942,
      "generate": 7943,
      "Use": 7944,
      "Selector": 7945,
      "ike": 7946,
      "cape": 7947,
      "Ġinduction": 7948,
      "Ġconduct": 7949,
      "requency": 7950,
      "ãĥ": 7951,
      "connected": 7952,
      "ĠService": 7953,
      "ĠIm": 7954,
      "surface": 7955,
      "Ġexplore": 7956,
      "Ġanalyze": 7957,
      "Ġpixels": 7958,
      "Ġfilename": 7959,
      "Ġassigned": 7960,
      "Ġqueue": 7961,
      "cross": 7962,
      "Ġadopted": 7963,
      "Ġspectro": 7964,
      "icted": 7965,
      "sys": 7966,
      "ĠBer": 7967,
      "Two": 7968,
      "hl": 7969,
      "ĠÃ": 7970,
      "Ġpull": 7971,
      "weak": 7972,
      "ĠDem": 7973,
      "Ġvor": 7974,
      "////////////////////////////////": 7975,
      "Ġcandidates": 7976,
      "Ġthemselves": 7977,
      "LD": 7978,
      "ĠNO": 7979,
      "->_": 7980,
      "ips": 7981,
      ">();": 7982,
      "power": 7983,
      "FE": 7984,
      "Ġtruth": 7985,
      "Ġlocations": 7986,
      "ilation": 7987,
      "Ġfootball": 7988,
      "Ġstarts": 7989,
      "My": 7990,
      "Custom": 7991,
      "Ġhorizon": 7992,
      "ĠFin": 7993,
      "ĠHouse": 7994,
      "Func": 7995,
      "ament": 7996,
      "Ġroom": 7997,
      "fr": 7998,
      "Ġassess": 7999,
      "illing": 8000,
      "quark": 8001,
      "Ġdominant": 8002,
      "served": 8003,
      "hover": 8004,
      "Ġgeneralization": 8005,
      "hook": 8006,
      "iub": 8007,
      "uid": 8008,
      "Step": 8009,
      "vdots": 8010,
      "ĠNor": 8011,
      "Ġinvolving": 8012,
      "Ġprobabilities": 8013,
      "tivities": 8014,
      "owers": 8015,
      "Fail": 8016,
      "Ġcomments": 8017,
      "ĠFermi": 8018,
      "hyper": 8019,
      "substack": 8020,
      "Cref": 8021,
      "arded": 8022,
      "queue": 8023,
      "Ġdivis": 8024,
      "allest": 8025,
      "tian": 8026,
      "anger": 8027,
      ".__": 8028,
      "atal": 8029,
      "bas": 8030,
      "Ġamplitudes": 8031,
      "Tool": 8032,
      "JQYi": 8033,
      "imer": 8034,
      "cQL": 8035,
      "Vtf": 8036,
      "UlI": 8037,
      "MNmI": 8038,
      "GuOe": 8039,
      "Koiub": 8040,
      "YkKoiub": 8041,
      "cQLBJ": 8042,
      "VtfGuOe": 8043,
      "YkKoiubVtfGuOe": 8044,
      "JQYiUlI": 8045,
      "ĠWil": 8046,
      "Any": 8047,
      "ĠBoth": 8048,
      "Microsoft": 8049,
      "mock": 8050,
      "dict": 8051,
      "Ġmind": 8052,
      "Ġfits": 8053,
      "Ġtechnology": 8054,
      "rey": 8055,
      "Ġapparent": 8056,
      "Ġci": 8057,
      "Ġlearned": 8058,
      "Dialog": 8059,
      "BO": 8060,
      "ĠGoogle": 8061,
      "ĠIP": 8062,
      "rie": 8063,
      "Ġsymbols": 8064,
      "Ġinclusion": 8065,
      "export": 8066,
      "hadoop": 8067,
      "Init": 8068,
      "ultra": 8069,
      "Ġcovariance": 8070,
      "arity": 8071,
      "Ġgeodes": 8072,
      "Display": 8073,
      "Ġmarked": 8074,
      "lab": 8075,
      "quo": 8076,
      "})(": 8077,
      "Ġbring": 8078,
      "tn": 8079,
      "Num": 8080,
      "Ġintervals": 8081,
      "tients": 8082,
      "imed": 8083,
      "Ġ'/": 8084,
      "Pointer": 8085,
      "aved": 8086,
      "modal": 8087,
      "Ġjus": 8088,
      "stantial": 8089,
      "Ġcouplings": 8090,
      "lb": 8091,
      "arm": 8092,
      "constant": 8093,
      "Ġecho": 8094,
      "Ġcamera": 8095,
      "dete": 8096,
      "unsigned": 8097,
      "}}=\\": 8098,
      "}<": 8099,
      "Ġreceive": 8100,
      "ara": 8101,
      "ĠNews": 8102,
      "ĠUnder": 8103,
      "tight": 8104,
      "FAULT": 8105,
      "sumer": 8106,
      "Ġri": 8107,
      "moment": 8108,
      "Ġcatalog": 8109,
      "vation": 8110,
      "Ġsuggested": 8111,
      "Security": 8112,
      "groupId": 8113,
      "Ġmaterials": 8114,
      "Ġchanging": 8115,
      "Plugin": 8116,
      "loyment": 8117,
      "Ġfire": 8118,
      "tun": 8119,
      "}})$": 8120,
      "Ġregard": 8121,
      "Ġadmin": 8122,
      "notations": 8123,
      "=-\\": 8124,
      "Ġtransaction": 8125,
      "Ġimprovement": 8126,
      "events": 8127,
      "Ġinvestigated": 8128,
      "Ġraw": 8129,
      "Ġpara": 8130,
      "oom": 8131,
      "Ġreading": 8132,
      "ita": 8133,
      "250": 8134,
      "trim": 8135,
      "ĠNode": 8136,
      "ITE": 8137,
      "ĠWilli": 8138,
      "Ġsolved": 8139,
      "Ġposterior": 8140,
      "SY": 8141,
      "ĠSN": 8142,
      "Ġmonths": 8143,
      "ĠTwo": 8144,
      "sharp": 8145,
      "GG": 8146,
      "application": 8147,
      "ope": 8148,
      "also": 8149,
      "lands": 8150,
      "ael": 8151,
      "Ġserial": 8152,
      "urs": 8153,
      "triang": 8154,
      "SV": 8155,
      "Ġstationary": 8156,
      "ĠSur": 8157,
      "Ġfaster": 8158,
      "Ġturbul": 8159,
      "Ġintegers": 8160,
      "Ġinstruction": 8161,
      "1993": 8162,
      "PAR": 8163,
      "Pol": 8164,
      "Track": 8165,
      "ocused": 8166,
      "aven": 8167,
      "ĠHel": 8168,
      "Ġfamil": 8169,
      "padding": 8170,
      "Ġreferred": 8171,
      "Ġaffine": 8172,
      "Furthermore": 8173,
      "raise": 8174,
      "TEX": 8175,
      "Ġneutron": 8176,
      "Ġdefining": 8177,
      "')$": 8178,
      "even": 8179,
      "Ġsparse": 8180,
      "|=": 8181,
      "pb": 8182,
      "ĠNumber": 8183,
      "ATH": 8184,
      "Ġspan": 8185,
      "Ġsaf": 8186,
      "ĠHer": 8187,
      "125": 8188,
      "Ġconjecture": 8189,
      "Ġpoor": 8190,
      "TED": 8191,
      "Float": 8192,
      "Ġempirical": 8193,
      "Ġentanglement": 8194,
      "irit": 8195,
      "racket": 8196,
      "pare": 8197,
      "&-": 8198,
      "Ġthin": 8199,
      "CHE": 8200,
      "Ġchiral": 8201,
      "Ġconsisting": 8202,
      "}~\\": 8203,
      "Ġnarrow": 8204,
      "Ġmoments": 8205,
      "Ġiterations": 8206,
      "stood": 8207,
      "Ġchoices": 8208,
      "Ġprincipal": 8209,
      "Volume": 8210,
      "tribut": 8211,
      "Ġdirected": 8212,
      "ĠAct": 8213,
      "ros": 8214,
      "Ġbegan": 8215,
      "Ġpersonal": 8216,
      "Ġstrategies": 8217,
      "ades": 8218,
      "bounded": 8219,
      "Ġsubsection": 8220,
      "Ġenhance": 8221,
      "Aut": 8222,
      "III": 8223,
      "Ġanisot": 8224,
      "Ġplus": 8225,
      "estern": 8226,
      "eds": 8227,
      "irm": 8228,
      "ĠRiemann": 8229,
      "Ġplatform": 8230,
      "ĠKey": 8231,
      "Rightarrow": 8232,
      "ĠUV": 8233,
      "quid": 8234,
      "Second": 8235,
      "Part": 8236,
      "Ġsimilarity": 8237,
      "ystems": 8238,
      "Ġlie": 8239,
      "Ġart": 8240,
      "ĠRemark": 8241,
      "=\"-": 8242,
      "Ġsurpr": 8243,
      "admin": 8244,
      "ĠBlack": 8245,
      "Bbb": 8246,
      "ocket": 8247,
      "aba": 8248,
      "Ġrequirements": 8249,
      "lfloor": 8250,
      "lections": 8251,
      "eg": 8252,
      "Ġcub": 8253,
      "Ġhistor": 8254,
      "Ġopportun": 8255,
      "props": 8256,
      "here": 8257,
      "*\\": 8258,
      "JS": 8259,
      "ĠAm": 8260,
      ";\\;": 8261,
      "Matrix": 8262,
      "Rad": 8263,
      "stop": 8264,
      "Other": 8265,
      "separ": 8266,
      "Lock": 8267,
      "Ġtouch": 8268,
      "Ġallowing": 8269,
      "'=": 8270,
      "Active": 8271,
      "txt": 8272,
      "Ġversus": 8273,
      "Ġproton": 8274,
      "kov": 8275,
      "ĠAGN": 8276,
      "Ġbelongs": 8277,
      "_(": 8278,
      "enses": 8279,
      "wrap": 8280,
      "access": 8281,
      "herit": 8282,
      "EV": 8283,
      "Click": 8284,
      "look": 8285,
      "ĠSa": 8286,
      "Ġmsg": 8287,
      "olver": 8288,
      "Ġembedded": 8289,
      "Av": 8290,
      "TIM": 8291,
      "Ġframes": 8292,
      "UL": 8293,
      "Ġattempt": 8294,
      "ĠHTML": 8295,
      "desc": 8296,
      "family": 8297,
      "Draw": 8298,
      "resize": 8299,
      "haps": 8300,
      "Ġcontradiction": 8301,
      "CG": 8302,
      "Ġ$\\|": 8303,
      "ampion": 8304,
      "Ġaggreg": 8305,
      "Ġreasons": 8306,
      "tel": 8307,
      "Ġgenerators": 8308,
      "attle": 8309,
      "Ġasser": 8310,
      "scriptstyle": 8311,
      "attribute": 8312,
      "JSON": 8313,
      "ĠMA": 8314,
      "wood": 8315,
      "Ġmut": 8316,
      "Ġpanels": 8317,
      "Api": 8318,
      "Ġfamilies": 8319,
      "Ġpractical": 8320,
      "Ġ&$": 8321,
      "Global": 8322,
      "ĠOff": 8323,
      "Ġmanagement": 8324,
      "titions": 8325,
      "Ġcompleted": 8326,
      "War": 8327,
      "Ġwebsite": 8328,
      "Ġhope": 8329,
      "assertEqual": 8330,
      "Ġdele": 8331,
      "Ġsubsets": 8332,
      "insert": 8333,
      "}\\;": 8334,
      "erry": 8335,
      "rfloor": 8336,
      "Ret": 8337,
      "Ġconformal": 8338,
      "Ġdemonstrated": 8339,
      "avity": 8340,
      "Ġplotted": 8341,
      "dal": 8342,
      "NavBar": 8343,
      "Ġkinetic": 8344,
      "Ġcharacteristics": 8345,
      "Ġemployed": 8346,
      "Ġtend": 8347,
      "\\,,": 8348,
      "Ġtrip": 8349,
      "Ġsynchron": 8350,
      "Flags": 8351,
      ")=(": 8352,
      "ĠDirac": 8353,
      "Ġexcite": 8354,
      "Inst": 8355,
      "Ġscene": 8356,
      "Ġconnections": 8357,
      "Ġclustering": 8358,
      "Ġcrucial": 8359,
      "fully": 8360,
      "inos": 8361,
      "Ġplaced": 8362,
      "Ġcomb": 8363,
      "Rev": 8364,
      "Editor": 8365,
      "Register": 8366,
      "analy": 8367,
      "impl": 8368,
      ")|\\": 8369,
      "iling": 8370,
      "1992": 8371,
      "ĠUK": 8372,
      "Ani": 8373,
      "hard": 8374,
      "pu": 8375,
      "Ġaug": 8376,
      "Ġillustrated": 8377,
      "Ġpossibly": 8378,
      "Ġmostly": 8379,
      "approxi": 8380,
      "precated": 8381,
      "fol": 8382,
      "Ġsky": 8383,
      "Post": 8384,
      "Ġcommit": 8385,
      "Ġdominated": 8386,
      "TL": 8387,
      "Ġrepeated": 8388,
      "oped": 8389,
      "})_{": 8390,
      "flat": 8391,
      "decomp": 8392,
      "Ġlaser": 8393,
      "~~~~~~~~": 8394,
      "ĠCopy": 8395,
      "Ġinstall": 8396,
      "'}\\": 8397,
      "Msg": 8398,
      "!!": 8399,
      "Ġatom": 8400,
      "overset": 8401,
      "np": 8402,
      "ĠAssume": 8403,
      "Bigl": 8404,
      "ima": 8405,
      "Ġorbits": 8406,
      "Ġversions": 8407,
      "Ġnaturally": 8408,
      "Ġtriang": 8409,
      "tmp": 8410,
      "mathds": 8411,
      "SION": 8412,
      "atell": 8413,
      "imit": 8414,
      "ĠStar": 8415,
      "safe": 8416,
      "Ġnational": 8417,
      "Ġ(_": 8418,
      "Ġcomparing": 8419,
      "ĠVAL": 8420,
      "pub": 8421,
      "usted": 8422,
      "andra": 8423,
      "Ġneutral": 8424,
      "metric": 8425,
      "Ġprojective": 8426,
      "Ġdecreasing": 8427,
      "Ġpropagation": 8428,
      "WA": 8429,
      "gi": 8430,
      "ailed": 8431,
      "FIG": 8432,
      "ĠAmerica": 8433,
      "Lin": 8434,
      "ĠEuropean": 8435,
      "FILE": 8436,
      "ĠLore": 8437,
      "Ġreaction": 8438,
      "ĠQCD": 8439,
      "Gen": 8440,
      "RI": 8441,
      "Ġprevent": 8442,
      "Ġminutes": 8443,
      "Ġtechnical": 8444,
      "Ġstored": 8445,
      "NotNull": 8446,
      "Ġspherical": 8447,
      "'$,": 8448,
      "DL": 8449,
      "IMP": 8450,
      "}&\\": 8451,
      "Ġrenormal": 8452,
      "ĠSk": 8453,
      "}))": 8454,
      "Ġgetting": 8455,
      "Ñĥ": 8456,
      "Dep": 8457,
      "bytes": 8458,
      "mathbbm": 8459,
      "Ġinser": 8460,
      "counter": 8461,
      "fail": 8462,
      "wp": 8463,
      "ipped": 8464,
      "Ġreasonable": 8465,
      "ington": 8466,
      "Ġcred": 8467,
      "Ġ..": 8468,
      "Ġsemantic": 8469,
      "Internal": 8470,
      "Ġsplitting": 8471,
      "Ġeventually": 8472,
      "Ġdistinguish": 8473,
      "Ġsupercon": 8474,
      "cen": 8475,
      "Ġparametr": 8476,
      "serve": 8477,
      "Ġpermission": 8478,
      "Assume": 8479,
      "Ġabsence": 8480,
      "Ġmodern": 8481,
      "Attributes": 8482,
      "PM": 8483,
      "Ġexhibit": 8484,
      "Ġelliptic": 8485,
      "Ġweakly": 8486,
      "ä¸": 8487,
      "Ġtrajectories": 8488,
      "Ġdisjoint": 8489,
      "lare": 8490,
      "Ġ{{": 8491,
      "Ġslope": 8492,
      "Runtime": 8493,
      "augh": 8494,
      "dients": 8495,
      "Ġsubstantial": 8496,
      "leep": 8497,
      "Ġperforming": 8498,
      "plus": 8499,
      "Ġplasma": 8500,
      "learning": 8501,
      "Ġcollisions": 8502,
      "mix": 8503,
      "ETH": 8504,
      "Upsilon": 8505,
      "ĠMor": 8506,
      "}\"": 8507,
      "dri": 8508,
      "Ġperturbations": 8509,
      "gal": 8510,
      "Ġopa": 8511,
      ",.": 8512,
      "Ġstabil": 8513,
      "Ġangles": 8514,
      "ĉĉĉĊ": 8515,
      "Ġofficial": 8516,
      "Ġproposition": 8517,
      "ĠCH": 8518,
      "ãĤ": 8519,
      "above": 8520,
      "SG": 8521,
      "lood": 8522,
      "below": 8523,
      "*)": 8524,
      "tb": 8525,
      "Ġenabled": 8526,
      "undefined": 8527,
      "Ġbary": 8528,
      "rad": 8529,
      "Ġjav": 8530,
      "Space": 8531,
      "apes": 8532,
      "Ġmetal": 8533,
      "Ġfiber": 8534,
      "ĠDen": 8535,
      "Ġsometimes": 8536,
      "symbol": 8537,
      "ette": 8538,
      "Ġeffectively": 8539,
      "Ġsides": 8540,
      "lective": 8541,
      ".}\\": 8542,
      "lank": 8543,
      "Ġquar": 8544,
      "Bigr": 8545,
      "ĠInitial": 8546,
      "ccc": 8547,
      "(!": 8548,
      "BH": 8549,
      "fd": 8550,
      "Ġbreaking": 8551,
      "\"\"\"": 8552,
      "Ġnormalization": 8553,
      "Ġtraffic": 8554,
      "Ġseven": 8555,
      "Ġmesh": 8556,
      "Ġrequests": 8557,
      "dynamic": 8558,
      "Ġdecays": 8559,
      "ĠNext": 8560,
      "Ġscience": 8561,
      "Ġemail": 8562,
      "Ġprim": 8563,
      "Ġproduces": 8564,
      "}_{{\\": 8565,
      "Ġsurroun": 8566,
      "physical": 8567,
      "ĠUser": 8568,
      "Ġprefix": 8569,
      "Ġaffected": 8570,
      "Ġzone": 8571,
      "Proto": 8572,
      "Ġresid": 8573,
      "deep": 8574,
      "$_{\\": 8575,
      "arest": 8576,
      "Ġcharacterized": 8577,
      "ĠHall": 8578,
      "lm": 8579,
      "Ġtreated": 8580,
      "independent": 8581,
      "ocities": 8582,
      "Ġdesc": 8583,
      "Ġfinitely": 8584,
      "grad": 8585,
      "Ġhappens": 8586,
      "entication": 8587,
      "assertEquals": 8588,
      "switch": 8589,
      "Iterator": 8590,
      "ĉčĊ": 8591,
      "ĠSim": 8592,
      "toggle": 8593,
      "ĠAN": 8594,
      "ander": 8595,
      "Ġcomparable": 8596,
      "Ġprop": 8597,
      "between": 8598,
      "ĠRad": 8599,
      "iforn": 8600,
      "Ġmaster": 8601,
      "Ġseparated": 8602,
      "Ġgran": 8603,
      "Ġinfra": 8604,
      "Ġapplies": 8605,
      "Events": 8606,
      "series": 8607,
      "zone": 8608,
      "elastic": 8609,
      "Ġjson": 8610,
      "ĠSuper": 8611,
      "tite": 8612,
      "world": 8613,
      "Ġcollected": 8614,
      "Ġimagin": 8615,
      "theory": 8616,
      "esting": 8617,
      "Ġago": 8618,
      "Ġsimultaneously": 8619,
      "ĠTV": 8620,
      "Ġsoon": 8621,
      "orest": 8622,
      "scroll": 8623,
      "inear": 8624,
      "Ġmeet": 8625,
      "seq": 8626,
      "Ġ$[\\": 8627,
      "Although": 8628,
      "MAX": 8629,
      "ĠArm": 8630,
      "Ġlabeled": 8631,
      "&$": 8632,
      "Scale": 8633,
      "arial": 8634,
      "Items": 8635,
      "Ġdeduce": 8636,
      "Ġspacetime": 8637,
      "ston": 8638,
      "Ġinstant": 8639,
      ")}_{\\": 8640,
      "Ġcriteria": 8641,
      "ĠImage": 8642,
      "Ġtab": 8643,
      "Ġgate": 8644,
      "ĠAL": 8645,
      "ĠStr": 8646,
      "factor": 8647,
      "Ġtax": 8648,
      "dp": 8649,
      "specific": 8650,
      "\\|_{\\": 8651,
      "Ġinvalid": 8652,
      "Ġimplicit": 8653,
      "forming": 8654,
      "Ġintrinsic": 8655,
      "UV": 8656,
      "UP": 8657,
      "Ġexplor": 8658,
      "legal": 8659,
      "tract": 8660,
      "Ġmoney": 8661,
      "Ġpolitical": 8662,
      ".},": 8663,
      "problem": 8664,
      "Ġvanishes": 8665,
      "Ġaccomp": 8666,
      "Ġsubsequent": 8667,
      "tized": 8668,
      "dz": 8669,
      "homology": 8670,
      "boost": 8671,
      "ntz": 8672,
      "=(\\": 8673,
      "neg": 8674,
      "Parse": 8675,
      "Ġapplicable": 8676,
      "titude": 8677,
      "###": 8678,
      "Ġ}{\\": 8679,
      "Ġreads": 8680,
      "ifornia": 8681,
      "Ġtopic": 8682,
      "Ġsmallest": 8683,
      "cloud": 8684,
      "fixed": 8685,
      "How": 8686,
      "psch": 8687,
      "chive": 8688,
      "ilitary": 8689,
      "Ġanything": 8690,
      "ĠJo": 8691,
      "lli": 8692,
      "setup": 8693,
      "Ġcollect": 8694,
      "\\/": 8695,
      "tip": 8696,
      "erial": 8697,
      "ĠCase": 8698,
      "irror": 8699,
      "Close": 8700,
      "erc": 8701,
      "Member": 8702,
      "Ġsupports": 8703,
      "Changed": 8704,
      "master": 8705,
      "ĠRegister": 8706,
      "distribution": 8707,
      "ensus": 8708,
      "vertex": 8709,
      "Uni": 8710,
      "spaces": 8711,
      "ĠBayes": 8712,
      "Ġtal": 8713,
      "tably": 8714,
      "vin": 8715,
      "Ġpulse": 8716,
      "Ġharmonic": 8717,
      "Ġ{{\\": 8718,
      "Ġwrong": 8719,
      "transition": 8720,
      "Ġ$$\\": 8721,
      "Ġsave": 8722,
      "Ġmedian": 8723,
      "Ġmajority": 8724,
      "ullable": 8725,
      "Ġcollabor": 8726,
      "Ġindicating": 8727,
      "Ġcontribute": 8728,
      "Single": 8729,
      "Ġquickly": 8730,
      "ĠFalse": 8731,
      "Ġoutputs": 8732,
      "ĠCollege": 8733,
      "ĠLaw": 8734,
      "101": 8735,
      "mutable": 8736,
      "Ġ$<": 8737,
      "Ġcircuit": 8738,
      "aults": 8739,
      "Ġtransparent": 8740,
      "iso": 8741,
      "ĠĠĠĠĠĠĠĠĠĠĠĠĠĠĠĠĠĠĠĠĠĠĠĠĠĠ": 8742,
      "Named": 8743,
      "bro": 8744,
      "oidal": 8745,
      "Star": 8746,
      "Ġseconds": 8747,
      "gligible": 8748,
      "unt": 8749,
      "TER": 8750,
      "Ġnorth": 8751,
      "++;": 8752,
      "Ġfriend": 8753,
      "stylesheet": 8754,
      "]^{": 8755,
      "pschitz": 8756,
      "Plan": 8757,
      "HD": 8758,
      "asible": 8759,
      "Ġnonzero": 8760,
      "met": 8761,
      "Ġroute": 8762,
      "ecution": 8763,
      "Ġplots": 8764,
      "mise": 8765,
      "Ġelectronic": 8766,
      "anced": 8767,
      "Ġstronger": 8768,
      "ĠCNN": 8769,
      "tty": 8770,
      "Ġadjacent": 8771,
      "Ġhighlight": 8772,
      "Full": 8773,
      "names": 8774,
      "ĠGets": 8775,
      "Ġunderstood": 8776,
      "Ġpy": 8777,
      "orary": 8778,
      "=\"../../../../../../": 8779,
      "lers": 8780,
      "Ġinitially": 8781,
      "ĠBOO": 8782,
      "Ġ\"\"": 8783,
      "ria": 8784,
      "embed": 8785,
      "jet": 8786,
      "ĠInstitute": 8787,
      "UID": 8788,
      "ĠCre": 8789,
      "Ġcone": 8790,
      "RC": 8791,
      "brief": 8792,
      "Ġdir": 8793,
      "odd": 8794,
      "Ġparty": 8795,
      "Ġhyperbolic": 8796,
      "components": 8797,
      "Ġcriterion": 8798,
      "Protocol": 8799,
      "ĠMulti": 8800,
      "Ġuniverse": 8801,
      "abbr": 8802,
      "trigger": 8803,
      "rf": 8804,
      "Ġrespective": 8805,
      "High": 8806,
      "Ġinterior": 8807,
      "}_+": 8808,
      "Ġcareer": 8809,
      "hanced": 8810,
      "Ġcentury": 8811,
      "Ġidentification": 8812,
      "SIZE": 8813,
      "Ġextensions": 8814,
      "Ã¤": 8815,
      "Ġroughly": 8816,
      "GM": 8817,
      "ĠTw": 8818,
      "Ġboundaries": 8819,
      "Ġignore": 8820,
      "ja": 8821,
      "rency": 8822,
      "Ġwhenever": 8823,
      "Classes": 8824,
      "volume": 8825,
      "Sym": 8826,
      "Ġtriangle": 8827,
      "ĠMag": 8828,
      "Ġmoved": 8829,
      "Elements": 8830,
      "coun": 8831,
      "rations": 8832,
      "Ġnegle": 8833,
      "liography": 8834,
      "Feature": 8835,
      "sort": 8836,
      "}}}{": 8837,
      "Ġinvolves": 8838,
      "ida": 8839,
      "cher": 8840,
      "'',": 8841,
      "thread": 8842,
      "Build": 8843,
      "Ġcoverage": 8844,
      "Namespace": 8845,
      ")|^": 8846,
      "ĠTechn": 8847,
      "Under": 8848,
      "Ġcreating": 8849,
      "contains": 8850,
      "Ġcoherent": 8851,
      "atural": 8852,
      "ĠDavid": 8853,
      "})-": 8854,
      "Ax": 8855,
      "Americ": 8856,
      "Transform": 8857,
      "trace": 8858,
      "kens": 8859,
      "uby": 8860,
      "phy": 8861,
      "illed": 8862,
      "fix": 8863,
      "Ġlinearly": 8864,
      "track": 8865,
      "Ġscript": 8866,
      "Ġsuccessfully": 8867,
      "Ġbenef": 8868,
      "Ġeducation": 8869,
      "ĠChina": 8870,
      "ĠMC": 8871,
      "tors": 8872,
      "subfloat": 8873,
      "Pool": 8874,
      "Ġsuffices": 8875,
      "orge": 8876,
      "will": 8877,
      "poses": 8878,
      "Ġnative": 8879,
      "Ġattr": 8880,
      "changed": 8881,
      "ĠIndia": 8882,
      "reek": 8883,
      "Ġwidely": 8884,
      "ĠSQL": 8885,
      "learly": 8886,
      "Ġ^{\\": 8887,
      "Ġflows": 8888,
      "Ġdu": 8889,
      "ĠText": 8890,
      "Job": 8891,
      "Ġinstal": 8892,
      "Ġpromo": 8893,
      "gacy": 8894,
      "Ġscores": 8895,
      "trum": 8896,
      "addr": 8897,
      "Ġacces": 8898,
      "outer": 8899,
      "DIR": 8900,
      "iton": 8901,
      "character": 8902,
      "HM": 8903,
      "amond": 8904,
      "Ġanalogous": 8905,
      "Ġcra": 8906,
      "domin": 8907,
      "Conf": 8908,
      "ĠEuclidean": 8909,
      "GP": 8910,
      "Ġmacro": 8911,
      "given": 8912,
      "Ġequals": 8913,
      "Trace": 8914,
      "iterator": 8915,
      "Ġroad": 8916,
      "Ġsharp": 8917,
      "orizontal": 8918,
      "inction": 8919,
      "pf": 8920,
      "sym": 8921,
      "Ġdb": 8922,
      "uv": 8923,
      "Ġhtml": 8924,
      "dif": 8925,
      "anted": 8926,
      "ĠMarkov": 8927,
      "Ġanalytical": 8928,
      "rig": 8929,
      "'}$": 8930,
      "ĠFrench": 8931,
      "Wrapper": 8932,
      "}=(": 8933,
      "underset": 8934,
      "cribe": 8935,
      "hips": 8936,
      "EP": 8937,
      "ĠRead": 8938,
      "tee": 8939,
      "mplectic": 8940,
      "Ġplays": 8941,
      ")}=": 8942,
      "Ġadopt": 8943,
      "Ġbalance": 8944,
      "experim": 8945,
      "Ġtested": 8946,
      ".(\\": 8947,
      "Ġpresents": 8948,
      "600": 8949,
      "Ġtim": 8950,
      "Ġdie": 8951,
      "inement": 8952,
      "primary": 8953,
      "igration": 8954,
      "Ġparen": 8955,
      "gets": 8956,
      "gnition": 8957,
      "Ġfourth": 8958,
      "Ġphoto": 8959,
      "Ġfood": 8960,
      "Ġeast": 8961,
      "Sequ": 8962,
      "MOD": 8963,
      "Ġarti": 8964,
      "Props": 8965,
      "ĠTR": 8966,
      "LC": 8967,
      "Ġpod": 8968,
      "Ġdissi": 8969,
      "Ġabundance": 8970,
      "Ġwish": 8971,
      "Ġfilms": 8972,
      "Ġaspects": 8973,
      "elling": 8974,
      "Ġregarding": 8975,
      "ilt": 8976,
      "ĠEarth": 8977,
      "Nodes": 8978,
      "Ġresidual": 8979,
      "Cluster": 8980,
      "ĠLy": 8981,
      "children": 8982,
      "Comparison": 8983,
      "Mu": 8984,
      "Ġinduces": 8985,
      "HR": 8986,
      "ĠSto": 8987,
      "Character": 8988,
      "Ġlept": 8989,
      "Ġacting": 8990,
      "Ġcontrolled": 8991,
      "Ġrecorded": 8992,
      "Ġspecify": 8993,
      "$--": 8994,
      "inity": 8995,
      "ogen": 8996,
      "Ġresponsible": 8997,
      "))$.": 8998,
      "Ġconclu": 8999,
      "^{[": 9000,
      "argument": 9001,
      "svg": 9002,
      "upper": 9003,
      "Ġgave": 9004,
      "ĠPal": 9005,
      "Memory": 9006,
      "Ġsecondary": 9007,
      "Ġconcentration": 9008,
      "uniform": 9009,
      "ective": 9010,
      "}.\\": 9011,
      "pattern": 9012,
      "ĠDepartment": 9013,
      "neu": 9014,
      "Ġalone": 9015,
      ")));": 9016,
      "ĠMac": 9017,
      "Ġsusp": 9018,
      "compare": 9019,
      "uber": 9020,
      "ilo": 9021,
      "ĠCall": 9022,
      "ĠHy": 9023,
      "Ġquotient": 9024,
      "Ġchallenge": 9025,
      "Ġ}$": 9026,
      "ica": 9027,
      "Ġdivided": 9028,
      "Ġattacks": 9029,
      "protobuf": 9030,
      "Ġcovering": 9031,
      "Ġinvoke": 9032,
      "Ġindustry": 9033,
      "ĠOnly": 9034,
      "flags": 9035,
      "ĠPhys": 9036,
      "Keys": 9037,
      "tificate": 9038,
      "ota": 9039,
      "oses": 9040,
      "awa": 9041,
      "coup": 9042,
      "correct": 9043,
      "STM": 9044,
      "cepts": 9045,
      "Ġconversion": 9046,
      "rains": 9047,
      "ĠMonte": 9048,
      "Tri": 9049,
      "ĠSV": 9050,
      "Ġextremely": 9051,
      "Bit": 9052,
      "Ġpeaks": 9053,
      "Ġdisorder": 9054,
      "retch": 9055,
      "profile": 9056,
      "Ġindependently": 9057,
      "Ġdise": 9058,
      "ĠBGCOLOR": 9059,
      "ĠCouncil": 9060,
      "Ġexponent": 9061,
      "~(": 9062,
      "fl": 9063,
      "Ġmus": 9064,
      "Ġfn": 9065,
      "Ġcast": 9066,
      "ĠIII": 9067,
      "Headers": 9068,
      "Ġimplements": 9069,
      "Ġĉ": 9070,
      "\",\"": 9071,
      "virtual": 9072,
      "Ġrequirement": 9073,
      "Ġcontrols": 9074,
      "CV": 9075,
      "FP": 9076,
      "Ġmonitor": 9077,
      "Ġreq": 9078,
      "autoref": 9079,
      ";->": 9080,
      "ĠAny": 9081,
      "SN": 9082,
      "Tests": 9083,
      "ĠHo": 9084,
      "Math": 9085,
      "(){": 9086,
      "Ġcomplicated": 9087,
      "Ġfem": 9088,
      "Ġusage": 9089,
      "handler": 9090,
      "Ġdeformation": 9091,
      "Ġadmits": 9092,
      "solid": 9093,
      "Ġoverlap": 9094,
      "Ġvelocities": 9095,
      "She": 9096,
      "CHECK": 9097,
      "sn": 9098,
      "vention": 9099,
      "Directory": 9100,
      "structed": 9101,
      "ĠAuth": 9102,
      "ĠĠĠĠĠĠĠĠĠĠĠĠĠĠĠĠĠĠĠĠĠĠĠĠĠĠĠĠĠ": 9103,
      "ROM": 9104,
      "Rece": 9105,
      "Ġboson": 9106,
      "Ġexceed": 9107,
      "displaymath": 9108,
      "Another": 9109,
      "Ġlatent": 9110,
      "aver": 9111,
      "Ġhomot": 9112,
      "useum": 9113,
      "Ġpercent": 9114,
      "Scal": 9115,
      "gramming": 9116,
      "uages": 9117,
      "}}}$": 9118,
      "ĠTH": 9119,
      "Ġcreation": 9120,
      "Ġlogic": 9121,
      "bx": 9122,
      "email": 9123,
      ").}": 9124,
      "yer": 9125,
      "Ġpartially": 9126,
      "potential": 9127,
      "ĠLap": 9128,
      "Ġintegrals": 9129,
      "stration": 9130,
      "Media": 9131,
      "Ġcolors": 9132,
      "ĠSum": 9133,
      "Panel": 9134,
      "ĠCour": 9135,
      "Ġhon": 9136,
      "Ġcircular": 9137,
      "1991": 9138,
      "bad": 9139,
      "Ġtrying": 9140,
      "born": 9141,
      "grade": 9142,
      "[:": 9143,
      "Show": 9144,
      "Ġdriving": 9145,
      "aylor": 9146,
      "Ġholes": 9147,
      "Ġbinding": 9148,
      "ĠLong": 9149,
      "direction": 9150,
      "Ġbrowser": 9151,
      "Layer": 9152,
      "lie": 9153,
      "uled": 9154,
      "ĠPDF": 9155,
      "Ġcorrectly": 9156,
      ")!": 9157,
      "Ġadjust": 9158,
      "Ġmonot": 9159,
      "ĠDefault": 9160,
      "Ġcond": 9161,
      "FN": 9162,
      "Ġboost": 9163,
      "Ġdiscussions": 9164,
      "DI": 9165,
      "Ã¼": 9166,
      "Ġordering": 9167,
      "Ġcalibration": 9168,
      "ĠPresident": 9169,
      "Ġfavor": 9170,
      "ĠUpdate": 9171,
      "/>": 9172,
      "iliary": 9173,
      "ECT": 9174,
      "testing": 9175,
      "Ġready": 9176,
      "Ġconstrained": 9177,
      "dropdown": 9178,
      "Summary": 9179,
      "Ġclub": 9180,
      "chy": 9181,
      "Ġbuilder": 9182,
      "poly": 9183,
      "lined": 9184,
      "enable": 9185,
      "ĠBH": 9186,
      "Py": 9187,
      "graphy": 9188,
      "Similarly": 9189,
      "{[": 9190,
      "pheric": 9191,
      "Ġhappen": 9192,
      "password": 9193,
      "Ġspecifically": 9194,
      "ĠSi": 9195,
      "theme": 9196,
      "ivil": 9197,
      "illis": 9198,
      "Ġson": 9199,
      "Ġtight": 9200,
      "PY": 9201,
      "TA": 9202,
      "Ġtransmit": 9203,
      "ĠTODO": 9204,
      "ĠEven": 9205,
      "Ġgenerality": 9206,
      "sig": 9207,
      "Perm": 9208,
      "ĠTri": 9209,
      "Ġdrawn": 9210,
      "herence": 9211,
      "iet": 9212,
      "Ġol": 9213,
      "Ġelimin": 9214,
      "Ġplugin": 9215,
      "esides": 9216,
      "Ġeverything": 9217,
      "Ġleaves": 9218,
      "Ġexcited": 9219,
      "Ġbre": 9220,
      "raints": 9221,
      "tools": 9222,
      "Ġappend": 9223,
      "1980": 9224,
      "Ġideas": 9225,
      "Sm": 9226,
      "entific": 9227,
      "$/": 9228,
      "Ġaux": 9229,
      "Ġsaw": 9230,
      "Ġtot": 9231,
      "ĠMicrosoft": 9232,
      "Ġ).": 9233,
      "ariant": 9234,
      "arr": 9235,
      "},{\\": 9236,
      "800": 9237,
      "Ġcouple": 9238,
      "}\\}$": 9239,
      "}_{(": 9240,
      "ĠVis": 9241,
      "Ġcomposed": 9242,
      "metadata": 9243,
      "cessed": 9244,
      "sb": 9245,
      "ossible": 9246,
      "ĠCode": 9247,
      "Generic": 9248,
      "Ġresolve": 9249,
      "ĠCarlo": 9250,
      "ĠCanada": 9251,
      "ĠMost": 9252,
      "Loader": 9253,
      "ĠCalifornia": 9254,
      "dependency": 9255,
      "combin": 9256,
      "Ġpages": 9257,
      "Ġroots": 9258,
      "noise": 9259,
      "'m": 9260,
      "Ġmechanisms": 9261,
      "reset": 9262,
      "varpi": 9263,
      "ĠDon": 9264,
      "save": 9265,
      "Ġisn": 9266,
      "Ġio": 9267,
      "Ġpatients": 9268,
      "Ġtold": 9269,
      "Ġdescribing": 9270,
      "placement": 9271,
      "AE": 9272,
      "')\\": 9273,
      "ĠStreet": 9274,
      "ĠCP": 9275,
      "Statement": 9276,
      "Adap": 9277,
      "Identifier": 9278,
      "ĠLeague": 9279,
      "Ġquali": 9280,
      "STAT": 9281,
      "Ġ[[": 9282,
      "Ġdwar": 9283,
      "vskip": 9284,
      "Ġpurposes": 9285,
      ",~": 9286,
      "According": 9287,
      "]:": 9288,
      "zen": 9289,
      "^-$": 9290,
      "ĠIts": 9291,
      "ĠTask": 9292,
      "ĠCap": 9293,
      "Ġexcitation": 9294,
      "Pop": 9295,
      "ULE": 9296,
      "tein": 9297,
      "incre": 9298,
      ">$": 9299,
      "analysis": 9300,
      "ĠFurther": 9301,
      "Ġâ": 9302,
      "rics": 9303,
      "spring": 9304,
      "Ġclock": 9305,
      "Ġnumerically": 9306,
      "throws": 9307,
      "}^{(\\": 9308,
      "Ġchart": 9309,
      "Ġcampaign": 9310,
      "ĠInc": 9311,
      "Ġguide": 9312,
      "ÐµÐ": 9313,
      "Ġsouth": 9314,
      "gate": 9315,
      "}|^": 9316,
      "Ġincident": 9317,
      "Experim": 9318,
      "ĠVersion": 9319,
      "CB": 9320,
      "xrightarrow": 9321,
      "protocol": 9322,
      "(__": 9323,
      "iles": 9324,
      "Ġgrant": 9325,
      "Am": 9326,
      "tates": 9327,
      "ĠMal": 9328,
      "integra": 9329,
      "Ġrich": 9330,
      "ARY": 9331,
      "Ġidx": 9332,
      "Ġprobe": 9333,
      "extend": 9334,
      "nil": 9335,
      "Ġindividuals": 9336,
      "mazon": 9337,
      "Ġplaces": 9338,
      "Dire": 9339,
      "ulator": 9340,
      "()));": 9341,
      "\\,.": 9342,
      "ĠField": 9343,
      "vironments": 9344,
      "aneous": 9345,
      "Ġgenerates": 9346,
      "cop": 9347,
      "Ġdead": 9348,
      "ued": 9349,
      "EEE": 9350,
      "Gr": 9351,
      "score": 9352,
      "fx": 9353,
      "ĠSyn": 9354,
      "AF": 9355,
      "ĠBrown": 9356,
      "Ġpotentials": 9357,
      "Ġintroduction": 9358,
      "scape": 9359,
      "Ġclosely": 9360,
      "Ġmetadata": 9361,
      "utf": 9362,
      "Ġclosure": 9363,
      "$(\\": 9364,
      "WR": 9365,
      "samp": 9366,
      "Domain": 9367,
      "Ġpassing": 9368,
      "jections": 9369,
      "ifdef": 9370,
      "Ġtargets": 9371,
      "ĠHand": 9372,
      "supervised": 9373,
      "-->": 9374,
      "ONE": 9375,
      "ctivity": 9376,
      "ĠĠĠĠĠĠĠĠĠĠĠĠĠĠĠĠĠĠĠĠĠĠĠĠĠĠĠĠ": 9377,
      "Ġbroken": 9378,
      "Ġcorrelated": 9379,
      "scription": 9380,
      "Ġasked": 9381,
      "compact": 9382,
      "History": 9383,
      "Ġprograms": 9384,
      "Ġends": 9385,
      "Ġwire": 9386,
      "Ġinfinity": 9387,
      "quote": 9388,
      "ashion": 9389,
      "Ġranges": 9390,
      "à¤": 9391,
      "tc": 9392,
      "[]{": 9393,
      "ĠRecall": 9394,
      "Ġcorrespondence": 9395,
      "ĠSen": 9396,
      "ĠMer": 9397,
      "shell": 9398,
      "standard": 9399,
      "Ġobservables": 9400,
      "Ġeight": 9401,
      ")}^": 9402,
      "Ġrecords": 9403,
      "Ġprofession": 9404,
      "Ø§": 9405,
      "Ġctx": 9406,
      "()).": 9407,
      "ptions": 9408,
      "EventListener": 9409,
      "Ġcaref": 9410,
      "printf": 9411,
      "(|": 9412,
      "unique": 9413,
      "symmetry": 9414,
      ";<": 9415,
      "sey": 9416,
      "Bound": 9417,
      "Fix": 9418,
      "}(-": 9419,
      "ĠjQuery": 9420,
      "Ġupdates": 9421,
      "ĠUp": 9422,
      "Ġbriefly": 9423,
      "{%": 9424,
      "adj": 9425,
      "Ġcompanies": 9426,
      "Ġcosts": 9427,
      "ĠLorentz": 9428,
      "Ġfilters": 9429,
      "Ġexc": 9430,
      "nings": 9431,
      "@\"": 9432,
      "phone": 9433,
      "ĠNGC": 9434,
      "Ġextent": 9435,
      "Ġinterference": 9436,
      "Ġrepresentative": 9437,
      "Ġformalism": 9438,
      "wa": 9439,
      "Proxy": 9440,
      "^+\\": 9441,
      "ĠCommun": 9442,
      "ĠDay": 9443,
      "otor": 9444,
      "Ġconsole": 9445,
      "Ġarise": 9446,
      "Ġobservable": 9447,
      "ĠRich": 9448,
      "Ġshear": 9449,
      "ĠTran": 9450,
      "Ġfed": 9451,
      "shal": 9452,
      "Ġds": 9453,
      "NC": 9454,
      "equival": 9455,
      "Ġill": 9456,
      "ACT": 9457,
      "Ġfinancial": 9458,
      "teness": 9459,
      "Ġoutper": 9460,
[...]
