#version: 0.2
Ġ Ġ
ĠĠ ĠĠ
i n
t h
o n
e r
r e
Ġ a
t i
Ġ th
e n
ĠĠ Ġ
o r
ĠĠĠĠ ĠĠĠĠ
a l
t e
Ġ s
Ġth e
l e
Ġ c
i s
a r
ti on
a n
e s
Ġ o
Ġ f
Ġ \
r o
d e
Ġ t
Ġ p
in g
a s
a t
Ġ $
Ġ w
e t
Ġ b
Ġ in
i c
a c
Ġo f
a m
n d
ĠĠĠĠ ĠĠĠ
m a
s t
e d
e l
en t
i g
i t
u r
Ġ =
e c
Ġ n
Ġ re
Ġ m
a tion
Ġt o
Ġ d
o m
ĉ ĉ
Ġ (
Ġa nd
< /
Ġ h
o l
{ \
u l
a te
t r
Ġ e
= "
l o
) ;
č Ċ
i d
i l
u s
u n
- -
q u
Ġ is
c e
Ġ {
a b
Ġ <
i m
i f
u t
g e
u m
Ġ v
Ġ T
ĠĠĠĠĠĠĠĠ ĠĠĠ
a d
o t
s e
c h
_ {
/ /
v e
s i
Ġf or
Ġ S
Ġ *
Ġ g
h e
as s
r a
en d
Ġ l
h t
t er
Ġc on
v er
l y
Ġ }
r i
Ġ$ \
i th
Ġ C
am e
" >
s p
u b
Ġ &
Ġ A
t a
x t
ma th
o de
l ass
Ġ on
p e
ĠĠĠĠĠĠĠĠ ĠĠĠĠĠĠĠĠ
Ġ I
Ġth at
o w
e g
u p
Ġ de
re f
u e
p h
o d
a p
i te
ĠĠĠĠ Ġ
c al
Ġb e
in e
re s
c tion
( )
l i
i r
Ġ "
Ġa s
} \
Ġ Ċ
Ġp ro
* *
e w
^ {
t s
} $
o p
Ġw ith
ig ht
an d
Ġw h
es s
ur n
t y
Ġa n
u re
Ġa l
Ġ M
i v
a ge
a y
ab le
m ent
0 0
o ur
ec t
Ġ P
. .
Ġc lass
te d
Ġth is
Ġe x
Ġw e
p er
c t
= =
o re
Ġ F
om p
-- --
ti c
t urn
I n
er e
Ġ if
is t
Ġs t
it y
} }
Ġb y
r ac
ro m
( \
or t
Ġ R
Ġ '
p l
c on
e m
Ġ B
Ġ D
te xt
u nd
i z
Ġa re
eg in
g et
o c
Ġ L
er s
p ro
Ġ or
Ġ -
e qu
ĠĠĠĠĠĠĠĠ ĠĠĠĠĠĠĠ
ti m
b egin
in t
Ġ N
es t
ac k
i le
k e
at a
Ġ r
si on
f or
Ġ us
p ar
ĠT he
Ġ H
Ġ it
Ġ E
a v
as e
t o
) $
â Ģ
_ {\
2 0
y pe
a g
f f
et a
o s
Ġ W
Ġ +
al ue
f t
ac e
an s
un ction
Ġa t
Ġ //
Ġ G
s er
im p
Ġ ma
al l
} {
Ġ </
} ,
ig n
st r
l ic
Ġre turn
ab el
Ġf rom
f ig
ĉĉ ĉĉ
Ġc h
- >
f rac
b o
an g
i b
tr ing
te m
.. /
: :
) .
e q
) ,
y s
a re
l u
lo w
ul t
p s
Ġs h
c ite
our ce
p tion
Ġ [
C on
r ight
ar y
Ġt r
Ġ y
lo c
s et
in d
a ve
Ġ O
ate d
Ġp ar
b er
o g
Ġc an
le ft
ti ve
Ġ @
l abel
c ri
ec tion
ro w
Ġc omp
an t
en ce
th er
j ect
en er
il l
m l
or d
Ġn ot
p t
Ġs p
ic h
( "
math b
ub lic
c c
i re
( );
" ,
r m
Ġ /
ti al
ti l
Ġ i
le s
, \
Ġf unction
u g
d iv
ess age
T he
ation s
$ ,
d d
ĠT h
$ .
e x
ac h
sp an
ra y
el f
equ ation
Ġre s
> </
el l
o un
} )
ode l
s um
ac t
' ,
ul l
l ine
Ġn ew
an ce
p ut
h o
math cal
ĠI n
} .
el d
---- ----
Ġo b
20 1
> <
i al
Ġs e
ta in
Ġ le
Ġm e
Ġ un
f er
at or
d u
i es
Ġ U
i eld
S t
} (
f in
c om
Ġh ave
or k
ar d
** **
Ġ* /
../ ../
i de
Ġ j
Ġd is
on g
imp ort
Ġ lo
Ġa p
Ġ :
1 0
i on
r or
for m
Ġb o
p o
Ġs et
as t
Ġwh ich
} ^
ĉĉ ĉ
Ġ .
ic e
== ==
) )
} _
a th
n ame
ĠĠĠĠĠĠĠĠ ĠĠĠĠĠĠĠĠĠĠĠ
or y
ĠĠĠĠĠĠĠĠ Ġ
ph a
am p
~ \
Ġc o
tim e
ht ml
v el
Ġ k
tion s
E x
i p
Ġp o
il d
on e
Ġh ref
al pha
Ġv ar
o u
en s
le ment
Ġc om
( '
e xt
d a
P ro
Ġa r
v ar
ul d
Ġn ame
Ġd o
a k
l l
d ot
o us
n t
o id
ent s
s o
Ġ V
o ut
c lu
am b
th is
i ew
o f
Ġp ublic
s ource
E R
tr ib
ic al
iz e
en c
s ub
l ation
m essage
Ġal l
Ġ J
re e
) \
o k
N ame
Ġ |
u st
um ber
w e
ol d
Ġ _
Ġh as
u te
Ġ qu
Ġw as
ow n
on d
amb da
T h
u d
ite m
s s
te st
Ġv alue
T ype
$ \
y m
ys tem
Ġt ype
id th
de x
ti t
in k
Ġd ata
c ol
tr ans
par am
o ver
th od
v al
ro up
om e
O N
ar t
âĢ Ļ
c ode
Ġg et
am ma
o b
Ġex p
s h
f o
or m
p end
Ġin ter
Ġ #
I d
de f
u ch
Ġl ine
S tring
e f
c re
u al
eg a
Ġw ill
Ġcon st
m u
t d
I N
= \
_ \
al se
Ġ= >
b ar
at ch
de d
1 9
i x
Ġs tr
re turn
loc k
y n
th e
Ġin t
v ent
Ġ\ \
o te
m in
res s
i tion
/ >
# #
Ġp er
b le
tim es
ig ma
Ġon e
Ġ K
} ^{
} _{
en g
ir st
mathb b
l a
u tion
- \
1 2
Ġo ut
cri pt
p i
ra ph
in al
Ġh e
m s
Ġm odel
ty pe
^ {\
ate s
" />
ph i
Ġ `
ti es
Ġ {\
R E
Ġde f
r y
o st
w o
ar k
ar g
u ct
ul ar
Ġcon t
v ice
Ġs elf
Ġ x
Ġ !
an ge
' s
er y
oun t
R es
ke y
Ġn e
b f
c lass
S T
Ġ id
l ambda
trans lation
s ection
i a
le d
Ġp re
si tion
is h
ri v
Ġn o
C h
p ort
ig h
R e
Ġ up
o uld
ol low
Ġc ol
ad d
a in
: //
ti f
2 00
g r
p r
Ġ= =
Ġp l
h at
L ist
Ġ er
s c
ĠW e
al ign
_ _
ar ray
clu de
ec k
ce ption
Ġ el
il on
Ġd if
A T
u es
Ġn ull
Ġs ub
ps ilon
Ġ en
ur re
Ġc ase
c ent
Ġ ro
ter n
Ġ time
im e
mathb f
a ult
w h
Ġs o
Ġ >
w idth
ma tion
or re
ap p
am et
Ġs ta
Ġf ollow
ic s
ĠTh is
Ġ( \
s igma
ar ch
t p
Ġv al
W e
z e
Ġre qu
Ġb ut
Ġv oid
u le
Ġfor m
ĠĠĠĠĠĠĠĠĠĠĠĠĠĠĠĠ ĠĠĠĠĠĠĠĠĠĠĠĠĠĠĠĠ
id er
Ġt wo
Ġal so
Ġy ou
Ġo ver
u ild
b eta
"> <
de l
Ġg ener
^{ -
} {\
Ġsp ec
g er
an n
ang le
t ing
Ġe qu
m o
us e
c ess
T o
Ġth ere
Ġd es
eng th
\ \
til de
Ġan y
am es
Ġ )
av a
str ing
O R
pl ic
p re
Ġon ly
t on
lo g
E n
Ġa dd
w ork
c omp
1 1
ĠĠĠĠĠĠĠĠ ĠĠĠĠĠ
L E
Ġs up
n e
Ġo ur
ĠĠĠĠ ĠĠ
ad er
Ġo p
) :
Ġwh ere
Ġ --
+ \
Ġwh en
as k
d er
ug h
1 6
) );
Ġa bo
Ġm ore
Ġf alse
ti cal
loc ation
g amma
Ġcon s
Ġ âĢ
Ġo ther
amp le
is e
i o
Ġtr ue
**** ****
on t
c o
Ġs uch
math rm
* }
s elf
i e
A R
-------- --------
or s
" );
Ġa cc
urre nt
ro und
u ff
d ata
und er
th eta
O b
x i
f ile
A r
I D
ma ge
p res
r ho
b ack
Ġth en
p or
del ta
Ġ end
bo x
Ġre g
tit le
Ġb et
^ \
it s
ul ts
oc k
ac he
per ty
Ġdif fer
re ad
D e
riv ate
Ġs tring
Ġg iv
as h
) }
en sion
um ent
ĠĠĠĠĠĠĠĠĠĠĠĠĠĠĠĠ ĠĠĠĠĠĠĠ
V alue
at ure
Ġa d
il ity
Ġs ome
S S
fig ure
Ġus e
m p
v ed
ta u
S er
] {
E N
P ar
D ata
n ew
v en
Ġp h
in f
Ġsh ow
A L
Ġre sp
c es
Ġf irst
// //
v alue
Ġc orre
p p
i ed
o le
s on
Ġres ult
u th
Ġme thod
c ted
si ze
Ġ u
Ġn umber
Ġe ach
Ġf ield
at ing
ar get
dot s
a il
b ig
le ct
Ġv er
Ġel se
le q
d ate
$ -
r ic
st ance
C ol
a ti
Ġth an
c ap
Ġ/ **
u res
Ġtr ans
S et
Ġus ed
m e
on se
n b
Ġ test
}$ ,
1 5
}$ .
par tial
Ġs ol
Ġ& &
==== ====
li ent
Ġs er
s ec
p x
ser t
we en
r ror
um n
' )
d is
Ġus ing
} (\
te x
or g
in clude
n u
" )
ma in
2 5
al s
i an
Ġw ork
d ic
] ;
p m
Ġthe ir
in ce
con t
ul ti
r ame
e y
m on
v es
m all
Ġit s
Ex ception
eq ref
3 2
nb sp
Ġst ate
ec ted
n ing
( $
ar row
n o
a x
if ic
C omp
Ġ Y
pl ay
o und
m od
Ġm an
ro id
D el
sp ace
Ġ imp
Ġs ystem
at er
le ction
D E
c ed
Ġsta tic
t able
Ġpar amet
om ega
f ace
eq n
Ġ// /
b e
Ġ z
inf ty
ĠC h
Ġde fin
o se
m ary
f ore
iz ation
Ġin to
Ġ X
Ġf ile
re qu
Ġn on
1 3
b r
m and
Ġbet ween
Ġch ar
iz ed
v iew
i ve
F or
trib ute
Ġthe se
ĠĠĠĠ Ċ
g es
ac tion
Ġs im
] ,
S E
1 4
Ġm od
Ġor g
as ed
Ġ %
Ġbe en
r c
f ter
ra w
er t
Ġgiv en
Ġa c
ĠS tring
C T
en tial
Ġ! =
le te
Ġf inal
Ġa g
re am
() .
er m
A s
c l
| \
ri te
Ġvar i
at us
ĠS t
Ġthe y
on s
ect or
at ri
1 8
Ġh igh
p os
ar s
E rror
n ot
g y
Del ta
T r
Ġ$ (
ra in
Ob ject
b ol
Ġer ror
s f
Ġ under
r it
Ġma y
Ġo per
Ġc al
Ġ Q
od y
atri x
Ġc re
qu ad
f unction
() );
I T
Con t
Ġe ff
ire ct
1 00
s q
l ink
G et
s cript
ĠF or
Ġg o
r t
u c
B y
l d
Ġl i
le m
ĉĉĉĉ ĉ
t op
ment s
A t
e p
.. .
Ġe xt
\ ,
n g
Ġp res
ic k
ption s
ord er
Ġ te
Ġap pro
Ġb ack
a w
v i
M E
il ter
w w
a tive
ĠĠ Ċ
U n
Ġor der
Ġw ere
i er
. _
Ġp rivate
n er
ec ts
ĠP ro
Ġs c
d es
Ġb ec
ro ll
le t
in dex
st y
cent er
cal e
"> </
ay s
Ġf e
on ent
ym bol
g o
Ġs ame
$ $
p ublic
g raph
V iew
[ '
c dot
n av
C lass
" ;
in ter
y p
j s
for mation
A N
} ;
Ġpro v
F ile
T est
ir c
ol og
e ver
eqn array
Ġs ign
i tial
al ly
sum mary
. </
Ġp r
)$ .
} }\
' );
i ent
ore m
C O
ro l
ur l
} [
wh ere
p si
t ab
cri ption
R equ
Ġres ults
g roup
ĠI t
S e
are nt
ht tp
Ġsh ould
Ġ| |
ind ow
str uct
p ace
e psilon
Ġfollow ing
K ey
' ]
l ist
old s
um er
as es
ur ation
con st
Ġob tain
Ġm o
P o
() ,
Ġ es
Ġs ec
Ġdiffer ent
Ġe lement
ĠI f
enc y
âĢ Ŀ
ti v
t ps
et s
a ke
l ay
uff er
s im
Ġpar tic
m et
Ġar g
g or
Ġabo ut
Ġs ize
U L
re d
l er
et work
a ir
a use
ĠA s
! --
p ath
c m
Ġm in
Ġre l
ver s
=" ../../
St ate
3 0
lo ad
Ġcons ider
=" +
ire d
Ġob ser
P h
v ol
} _{\
Ġp ol
Ġf act
O m
ti ty
lo b
1 7
les s
Ġstr uct
Ġval ues
in s
ra p
ut o
is ts
ing s
Ġg roup
ab ility
w ide
Ġw ould
ack age
] .
b y
E vent
' :
v oid
sq rt
Ġ key
Om ega
Ġ/ >
g round
Ġse e
sp ond
m it
Ġcon tain
Ġa b
tr y
6 4
T ime
Ġre pres
ĠR e
^ *
oc ument
n ode
Ġap p
em ber
ex p
col or
Ġcon d
)$ ,
R O
Ġa m
le ar
G amma
5 0
en se
vel y
ĠC on
Ġh is
re ak
un c
Ġl ist
Ġ$ {\
/ *
op y
Ġpro cess
ag er
u til
orm al
Ġ );
Ġ čĊ
ver y
ar ge
le x
f ra
ic t
A n
ĠF ig
qu ot
Ġpro du
ma x
Ġk n
I ON
m is
Ġas s
ma p
Ġan al
re g
f ield
us er
T ext
In fo
b m
P E
` `
is ion
ish ed
Ġc all
" :
N ode
t en
Ġst ud
A C
ation al
Th is
cc ess
d t
Ġob ject
m odel
qu e
Ġc urrent
im ension
Ġdis trib
m an
Ġc lo
2 4
Ġpo int
Ġ ?
l ength
S h
ames pace
ty le
te s
Ġp os
E lement
n on
Ġsp ace
H e
ole an
Ġof f
ut ton
sub section
v are
cap tion
il y
Ġbo th
Ġ im
s ing
Ġ title
Ġ low
Ġ ra
T E
^{ (
text bf
/ **
M an
vare psilon
C om
as ure
w ard
} =
Ġdis c
de pend
Ġh and
Ġw ell
per ties
In dex
in es
P ath
P I
ac ter
ĠE x
L o
Ġy our
Requ est
2 2
## ##
A dd
() )
L A
Ġ\ ,
" "
if ied
}^ {\
ener gy
Ġdo es
r angle
Ġre c
I tem
ri de
og le
Ġh ow
Con text
Ġ tem
E qu
graph ics
an k
m ed
M ap
Ġbo und
se e
ĠU n
l ang
im it
am s
ro p
Ġlo cal
Ġf ind
Ġper form
s up
) =
si ble
3 3
Ġin te
F ield
T R
Ġth row
ĠĠĠĠĠĠĠĠĠĠĠĠĠĠĠĠ ĠĠĠĠĠĠĠĠĠĠĠ
w ord
Ġ ed
s ed
el y
w ith
m er
con fig
us h
Ġl ong
right arrow
Ġwh ile
Ġ import
Ġas sert
Ġj ava
Ġcorre spond
ow er
Ġas sum
Ġm ost
in ts
ht tps
Con fig
er o
m b
I C
Q u
b lock
s k
Ġma x
tern al
B o
Ġ Z
are d
Ġ ,
Ġs ur
at ter
if y
Ser vice
al ity
Ġne ed
Ġ: =
tr ue
Ġpro ble
Ġr ight
Ġ-- >
include graphics
Ġs mall
in put
sty le
Ġle t
Ġn ode
f rom
gor ith
ro ugh
Ġ( !
Ġ/ *
en tif
Ġr un
Ġa fter
. ,
Ġin put
er n
' ;
uild er
er ror
C ode
ap i
ic es
ag es
n ext
st er
A l
W ith
b l
plic ation
Ġcon n
m d
oc i
e ar
e ma
Ġs te
ot t
U R
O n
fer ence
il ar
de fin
Ġh t
Ġ} );
Ġt arget
Ġlo g
Ġar ray
v ec
Ġm ulti
' '
O ver
Ar ray
c ul
od es
Ġm ass
var phi
Ġde c
Ġ ent
le c
Ġn ow
o ugh
an e
u i
' t
ĠâĢ ľ
is m
m ark
ap ache
******** ********
Ġs ing
Ġre ad
ti vely
b in
Ġd i
op er
Ġt er
Ġp ath
ge q
fra k
. ~\
F orm
over line
Ġg r
es sion
a f
Ġdefin ed
Ġsec ond
Ġde pend
Ġ} ,
s te
em ph
ver sion
ĠD e
4 0
Ġp e
M e
B ig
//// ////
+ +
yn c
Ġto p
ic on
po sition
Ġd en
Ġe very
[ ]
b it
Ġus er
d o
Ġli ke
Ġdef ault
. }
st ate
Ġst art
D es
val id
V er
ro ss
ce pt
u tions
Ġ energy
e e
Ġthe m
b ody
Ġm et
00 0
} ).
= '
S p
an c
9 9
L O
ad i
S ize
Ġ text
l ag
2 1
pro of
vi ous
Ġme asure
ch i
& \
Ġc ode
pl ate
ĠA r
Ġex per
tr a
In t
cre ate
Ġs ection
o v
Ġch eck
Ġin formation
) ^
Ġf ound
[ \
t t
ann el
se arch
ix ed
Ġcon fig
Ġd ist
}, \
lo at
yn am
str u
="../../ ../../
Ġcont ent
g t
s l
ma te
is ter
Ġabo ve
Ġm ust
ass ert
Ġf in
lob al
ub le
sp ec
O r
tic s
math frak
O f
if t
ens ure
Ġb el
et urn
Ġh ad
Ġin dex
U T
H and
en u
Ġc ur
ĠA l
Ġs rc
Ġpar t
M essage
j ava
) (
F F
ta il
i ties
Ġgener al
Ġ( $
Ġer r
Ġth rough
ens ity
A D
mo ve
R ec
en ted
Ġe vent
and om
Ġal low
Ġrepres ent
2 3
Ġin itial
I G
l angle
Ġcon text
Ġma p
s w
in fo
l ing
able d
a pe
ĠA n
def ine
a u
h line
it er
U p
def ault
Ġin stance
res ult
c lo
j ects
M A
Ġc ent
ust om
Ġex ample
imp le
M L
Ġs ch
var i
Ġbec ause
Ġdes cri
Ġma ke
ur ing
Ġl arge
Ġparamet ers
Ġcont in
Ġtr an
enc es
it or
Ġb lock
m m
M odel
ver t
Ġ= ==
Ġin clu
able s
ym met
ott om
L e
> &
Ġwh o
v ir
Ġmodel s
Ġre al
u les
b olds
} }$
Ġco uld
6 0
Ġver sion
V al
L ambda
Ġs ince
ite d
l t
Ġin cre
o ff
Ġn etwork
es e
ob ject
bolds ymbol
Ġ q
Ġ_ _
b ase
ical ly
; &
cont ent
our ces
Ġa ction
ĠT r
or ph
L og
st a
Ġma in
e ff
L et
l dots
tain er
j o
th ing
IN G
Ġ left
Ġs ource
u f
Ġd irect
rac k
ro du
d f
ting s
b ug
Ġh ere
po int
ib le
mis sion
E D
Ġth ree
i tions
ator s
Ġm y
Ph i
ch eck
Ġfollow s
end s
Ġsh own
l im
ĉĉĉĉ ĉĉ
M P
m box
u ccess
Ġle vel
---------------- ----------------
n ess
gorith m
el p
A B
c irc
8 0
he ad
c ss
Ġprov ide
p onse
n ab
C H
ul ation
s ign
b ers
Ġparamet er
Ġ} ;
yp es
. \
ĠS ystem
N o
Ġv ery
and ard
Ġl ast
UL L
le cted
and roid
app a
roll er
id d
ĠĠĠĠĠĠĠĠ ĠĠ
ĠĠĠĠĠĠĠĠ ĠĠĠĠ
Ġe ven
t n
us ing
D is
an ts
Man ager
} ),
Ġreg ion
F rom
Col or
E T
T able
Ġes ti
re ate
Ġwh at
i k
f ul
d oc
k appa
si de
con text
o times
tiv ity
k en
Ġ` `
O ut
uth or
i j
an el
n amespace
ra g
d own
ow ever
Ġj ust
Ġb reak
19 9
Pro perty
om et
Ġrequ est
im um
nab la
o ther
I S
Ġin st
ys is
ec tive
ile d
v ents
Ġh er
cal l
p ackage
Ġma g
it ch
ar ning
~ ~
Ġproble m
u ted
I s
ac es
D ef
Ġcal cul
we b
or ld
re n
] (
) {
st art
ap er
Ġp ass
d raw
f alse
U ser
id es
Ġsup er
Ġchar acter
ec h
Ġd at
ĠT o
S ystem
Ġbe fore
=" ../
en e
Ġn il
Ġs um
l ight
op tion
T D
d ing
at s
; </
non umber
Ġw idth
n et
Ġde ter
te cted
at ures
ĠG et
======== ========
Ġb l
ati sf
ur ther
cite p
Ġi mage
ith ub
Ġt ak
as on
Ġcre ate
A S
en ame
h er
U N
me thod
} )$
ĠH e
Ġw ay
vel op
E S
2 7
Ġv is
Ġback ground
Ġ item
olog y
go ogle
ĉ Ċ
Ġm atch
4 5
a z
Ġm atrix
In ter
si tive
ref er
nd er
Ġre f
res sion
O T
Ġg raph
Ġb ased
Ġpro b
lo t
Ġn ext
Ġdistrib ution
ur al
ti ce
amp les
Ġbo ol
O p
pl ace
sta tic
ate g
Qu ery
Res ult
ma ges
si ve
tex tit
a id
Ġ enc
\ |
=" #
ww w
I f
ar i
ual ly
ĠW h
Ġv iew
Ġbe ing
i or
EN T
Ġsim ilar
Ġman y
g s
Ġm on
Ġter ms
Res ponse
a us
t ot
g ithub
t al
c ore
Ġd er
D O
Ġout put
0 1
s ol
v ing
C lient
a it
Ġl imit
b ed
r on
g ener
00 00
Ġfunction s
Ġsing le
\ %
G roup
Ġor ig
val u
stru ction
in c
7 5
Ġb ase
Ġcol or
ĠO b
ĠR es
Me thod
Ġr ange
Ġa ct
Over ride
) </
Ġin dic
S igma
depend ent
por ted
At tribute
fo ot
k n
Ġle ad
d b
Ġappro ach
us ion
Ð °
gr am
con n
R eg
Ġex ist
ver se
Ġrequ ire
w are
ition al
/ \
}} {
< !--
> (
ĠTh en
Ġpartic ular
Ġag ain
Ġkn ow
Ġand roid
Ġstruct ure
Ġo ptions
Ġ et
li b
s mall
Ġs atisf
po se
Ġpro perty
2 8
Ġexp ect
C all
M od
Ġpl ay
Ġt ra
arg in
Ġl ength
\ [
v ail
ĠS h
B uilder
Ġre du
as ter
an y
A p
Ġst d
6 6
i que
Ġre la
Ġtr y
p le
ensure math
Ġs he
lic k
n ull
ot ential
Ġt rain
I L
rit er
ĠN ew
Ġm em
lec tr
l at
t ual
Ġb as
v ices
c ount
ĠĠĠĠĠĠĠĠĠĠĠĠĠĠĠĠ Ġ
A d
x y
oc us
Ġf il
ic ient
A ll
Ġinte gr
ĠS et
T H
und le
C ount
ok en
Ġpres ent
Ġs equ
ĠĠĠĠĠĠĠĠĠĠĠĠĠĠĠĠ ĠĠĠĠĠĠĠĠĠĠĠĠĠĠĠ
C E
pro p
i mage
Ġth ose
Ġch o
3 5
w n
ic y
9 0
ĠTh ere
d ir
St ream
re sp
c urrent
Ġc ap
Ġdisc us
I R
( (
dis play
k s
rame work
f unc
wide tilde
b utton
le g
Ġs tyle
Ġsol ution
por ts
D ate
on ents
A c
I t
he ight
B ar
Ġs cal
Ġh y
it u
Ð ¾
til l
at tern
m un
Ġm essage
Ġpre dic
r am
] )
Ġequ ation
e vent
Ġpos sible
Ġ< <
Ġresp onse
c i
Ġpo sition
In put
Ġe mp
um ents
end er
Ġval id
qu ery
Ġpo ints
Ġadd ress
b ra
er tain
I m
op tions
h av
act ory
m y
defin ed
o ve
r un
Ġobtain ed
re at
op le
Ġd ensity
tif ic
2 6
pr ime
201 9
Ġexp ected
Ġop en
Ġcorrespond ing
A ME
\ !
Tr ans
u age
S ub
iv ed
Ġ ke
le ase
Ġb r
p age
ire ction
v is
Ġline ar
Ġwith out
ater ial
er r
U til
ec tively
{ -
E nd
ac y
ĠN ULL
I P
N ot
Ġt ask
St atus
Ġshow s
ur ity
um e
li es
Ġconst ant
A nd
N ew
0 5
ĠâĢ ĵ
fin ished
ĠO n
Ġf a
arg s
Ġa uto
Ġexper im
Ġt able
ON T
pr int
} -
re t
I mage
ith er
A ction
Ġd ue
sk ip
t oc
em p
( {
Ġass oci
F ig
In stance
Ġwith in
c or
d l
c lient
R ef
w ay
iv al
m ember
i i
Ġv ector
o pe
ib r
Ġd imension
i od
Ġop tim
v o
read y
S ch
U S
Ġbo olean
g g
3 4
center ing
201 8
p ng
Ġp ower
\ ]
ens or
} +
n s
Ġpre vious
B lock
Ġd own
vail able
Par amet
Ġch ange
ĠL et
Ġ Ð
Ġmethod s
z eta
Ġcont rol
lo cal
Ġto tal
ateg ory
W h
Ġst ar
E E
Ġpro perties
) ]
ap pend
un finished
Ġc oun
201 7
s ch
ord in
G ener
h as
ĠC omp
2 9
ph p
Ġch ang
e lement
h and
an ces
ific ation
Ġme an
om ent
ac tive
Ġl abel
\ {
Ġcal led
lo y
Ġ& =
y c
am ily
Ġthe ory
lu ster
Ġlo ok
ĠĠĠĠĠĠĠĠ ĠĠĠĠĊ
Ġcomp ut
ĠE q
Ġl ay
T oken
ĠH owever
Ġst ates
ver age
Ġf lu
ch ar
Ġs aid
p ol
vir on
ĠĠĠĠĠĠĠĠ ĠĠĠĠĠĠ
Ġr andom
N S
is tic
Ġden ote
Ġo cc
Ġobser v
Ġ" ""
ti s
Ġp air
mod ule
Ġm ed
; \
Ġ- >
add ing
ĠĠĠĠĠĠĠĠ Ċ
ĠC om
t arget
tab ular
Ġfin ite
Comp onent
L ine
f low
Ġp aper
Ġg u
T O
Y PE
Ġ( )
en tity
Ġl ink
Ġde velop
l it
ch n
Ġp otential
p c
w rite
Ġm uch
) =\
Ð µ
ĠB o
es ts
ol s
Ġb order
N ull
B e
he ader
n ote
[ "
i vers
5 5
old er
requ est
AT E
Ġstud y
S tr
Ġsup port
um p
Ġn ormal
im al
N av
pro perty
k ing
O S
res h
ar n
row s
ous e
el per
Ġb uild
k et
Ġ ge
tical ly
) }\
Ġpro of
RE F
Ġid entif
ord ing
} =\
Ġanal ysis
Ġappro xi
B ase
Ġph ase
E d
li p
rac e
on al
S ource
Ġcond ition
Ġint rodu
et er
pos ed
si te
Ġt ake
Ġdef ine
201 6
Ġm ark
om orph
Ġt ri
ĠThe orem
em ma
te ct
ant um
if e
c ase
b ottom
O ptions
ord s
S ec
B uffer
L ay
Ġap pe
S P
ti g
tr act
Ġt erm
Ġcomp lex
Ġresp ectively
D ec
x ml
Equ al
w ise
E X
Ġrequ ired
Ġs till
Ġr ate
Ġstr ong
ĠC ol
w ays
3 9
Ġc ell
Ġcol umn
O ff
ab ase
, -
A P
Ġcon f
Con n
g ing
7 0
ad ata
vol ution
) ^{
Ġz ero
se lect
Ġspec tr
em e
O L
ser ver
s cale
j son
{ (
oper ator
E L
ĠL ist
Hand ler
j av
4 8
Ġ+ =
l in
} ]
d ay
Ġelement s
ic i
an ch
G L
ĠB y
Ġoper ator
Ġht tp
a h
Ver sion
ar is
Ġl arg
Res ource
li ed
ic ense
Ġd ynam
b uild
Cont ent
re c
se qu
ur s
Ġst andard
Ġal gorithm
Ġfield s
Ġn um
Ġd uring
Ġs ymmet
Ġcontin u
id get
Ġd ocument
l ish
Ġf ull
th m
$ )
o ot
Ġc lear
A G
* /
Ġinter n
Ġdeter min
201 5
in ary
f irst
ĠS ection
com mand
Ġde tail
Ġimp lement
plic it
Ġgo od
adi us
Ġcomp lete
r ing
iz er
Ġdis play
in it
Ġco up
c dots
b tn
Ġa vailable
Ġpe ople
p arent
te ger
3 6
p tr
nav bar
lem ma
v ider
Com mand
} |
or age
S up
T ask
Ġc ar
ide o
H T
Ġch ild
$ {
P si
O P
ĠS er
e ars
e ps
Ġex ists
Ġp op
R un
pres sion
O D
ent al
ic tion
s rc
l s
ĠI N
}^ \
wide hat
im g
U E
Ġ ]
" ]
co pe
Ġw rite
Ġre ce
st atus
Ġte chn
s g
ge bra
Ġs w
C K
Ġcond itions
}\ ,
}_ \
en ded
Ġs cale
f e
des cription
Ġlow er
q quad
Ġdi ag
ĠN o
wh ich
P r
C o
m eta
ho uld
LA SS
Ġp age
Ġe as
F unction
Ġf ree
20 20
ĠS p
F actory
str ong
ic ro
. ~
I M
f ind
3 8
e k
ER T
l and
st ar
Ġassoci ated
O per
f ilter
ial og
ef ore
sp lit
n um
p rivate
0 8
he ther
al ax
^ +
p ack
col umn
el ine
Ġa round
ĠN one
ar m
du ct
} );
L ink
Ġs imple
od ing
C ell
lag s
Ġin clude
( -
Ġse arch
Ġres ource
ĠP ar
C C
tic le
Ġw rit
ch ild
pl ug
ma il
{ {\
N umber
Ġma de
Ġ ec
Ġin f
Ġan g
at t
ty p
re m
viron ment
Ð ¸
Ġhe ight
Ġperform ance
al le
ut ure
equ iv
du c
Ġre d
r id
& =
Ġob j
Ġf ilter
Ġd id
}) \
D o
Ġv ol
M S
ur b
Ġe ither
p ush
ser v
l ap
W indow
Ġe lectr
i um
Ġcomp onent
c an
Ġtem per
Ġex ec
Ġf our
F A
4 4
Ġ times
Ġbel ow
ly ing
ob j
Ġl ang
Ġj o
3 7
ĠA nd
ind ent
Def ault
( {\
c os
b uf
g en
Ġh elp
} /
Ġal ong
ac tions
Ġal ready
// /
ot o
201 4
0 2
Tr ue
Ġb est
0 7
p df
an ti
F ilter
u tr
or iz
Ġbe hav
Ġsequ ence
Ġ{ @
Ġdes ign
Ch eck
Ġsystem s
l n
ne tic
R ow
tot ype
Ġle ast
in ation
si an
c ast
Ġcon trib
d at
text width
Ġ\ {
Ġy ears
A pp
Sp ec
ug ht
0 4
row ser
Ġd on
F ONT
& &
Ġat tribute
ri or
lu g
ir tual
ap pro
bo ok
Ġex pl
P re
Ġc irc
T ag
Ġkn own
r l
c ell
] [
St art
op en
b b
math sf
par t
Ġc lient
Ġthrow s
emp ty
con d
sign ed
Ġf ixed
Ġ( (
S C
po st
Ġl ight
Ġimport ant
ĉĉĉĉ ĉĉĉĉ
a de
3 1
Ñ Ĥ
ho st
Ġsign ific
Ġm ode
ĠC o
F irst
ĠS ch
Ġs ide
Ġre main
o th
Ġorig inal
L abel
I I
Ġw ant
Ġl ines
p ts
toc ol
ma g
ĠR eturn
ĠM e
Ġhigh er
C reate
lay out
re l
Ã ©
st rac
end if
Ġh im
cre en
F I
Ġexp ression
m em
form at
V ER
Ġfact or
Ġdif f
ĠOb ject
ĠE n
P age
Ġi de
o od
Bo x
B utton
E xt
le v
Equ als
or th
Ġqu antum
Ġext ends
re en
sub set
P RO
Ġacc ess
Ġph ys
ĠS o
Ġs pe
Ġres ol
st ream
ĠA t
Ġm is
pro cess
le vel
as cript
Ġat t
Ġs ample
Ġim pro
d imension
ĠA dd
Ġc ases
Ġpo sitive
Ġm oment
Ġcon ver
} :
l ong
Ġ url
Ġpro tected
Ġch annel
. "
m t
S tyle
ore d
ste ad
ĠFig ure
Ġf urther
Ġup date
R eturn
( &
Ġp ers
D B
Ar g
n umber
Ġequ ival
}^{ (
Ġse par
L oc
Cont roller
as ing
0 6
he et
il li
se mb
f ill
c up
Ġe valu
at tr
ad ing
m id
st d
List ener
ti tion
Ġprob ability
S ON
id ual
Ġin du
param s
Ġcom mand
}} (
up date
Ġun it
l en
Ġf requ
idd en
t tp
B undle
kn own
Ġo wn
Ġser vice
ist ory
am il
AB LE
Ġan other
Ġ$ (\
Ġconn ection
ig ger
ch ange
Ġit er
Ġdat as
ta g
ĠT est
. $
ã ģ
201 3
}\ \
Ġste p
Ġobser ved
u k
8 8
con tainer
al th
//////// ////////
ĠA p
Ġmod ule
im ary
Ġse ver
ul a
s in
Ġassum e
cl usion
Ġme ans
Form at
c r
IN T
ĠL e
Con st
Ġmo ve
p y
Ġg lobal
g l
A M
m ul
ig en
0 9
Ġwe ight
Ġv ia
ap ter
ed ge
ĠL emma
ist ent
Ch ar
Ġcontain s
Ġth us
Ġm argin
F e
m enu
pl it
ir d
Re ad
clo se
Ex p
ol l
Ġn ote
m atch
Ġs k
il er
Ġpl ace
ĠA d
Out put
la im
Ġ< !--
Ġde g
Ġs uccess
Ġfe atures
Ġspec ified
Ġc ount
Ġc ross
Ð ½
Ġeff ect
Po int
ĠY ou
el se
par se
p th
Ġpo st
b a
g ress
0 3
Ġdo uble
de v
n ormal
resp onse
H E
ref ix
ent ry
M M
Ġd iv
Ġt yp
ri es
Ġs em
Ġg alax
Ġdo main
Ġinclu ding
Ġn umer
Ġcom bin
ann ot
v an
Ġw indow
ĠS e
Ġe ar
) -
in stance
| ^
val ues
vari ant
Ġgener ated
end ing
Ġre fer
Ġb ro
al e
Ġf it
Ġintern al
Ġper iod
id ent
UR L
Ġro ot
jav ascript
so le
m ulti
L ast
Ġne ar
9 5
f ont
Ġal ways
} +\
Val id
sty les
#### ####
l ast
C D
s d
st ack
Ġex act
r is
6 5
Ġpro ject
if f
ĠH REF
Ġ& \
com mon
{ }
un it
< ?
on y
operator name
Ġt urn
Ġd irection
av ing
Ġcom mun
pro to
Ġsignific ant
or ies
ĠĠĠĠĠĠĠĠĠĠĠĠĠĠĠĠ ĠĠĠĠĠĠĠĠĠĠĠĠĠĠĠĠĠĠĠ
Ġsp in
j ection
L ength
_ .
h space
q l
ser vice
olog ical
Ġdist ance
Ġcon tr
ra v
d i
strac t
refer ence
if orm
tif act
over n
6 7
en umer
Ch ild
Ġ- \
' $
Ġtrain ing
Ġo ption
Ġequ ations
itu de
b ased
ud io
al let
M ode
tic es
ĠP h
âĢ ľ
o h
}} {\
Col lection
r al
Ġset s
Ġspec ific
m ar
i ence
Ġp arent
Ġw hether
Col umn
" ).
: </
Th ere
ĠTh ese
Ġf ail
Ġanal y
We b
\ "
] $
sh ow
i res
M et
Ġ less
`` `
Ġy ear
B U
ĠS ince
es ted
ate ly
Ġf low
t x
Ġinter face
sc r
ĠC LASS
ĠN ote
th at
Ġbet ter
Ġinter est
re move
m ut
Off set
Ġdefin ition
Ġw orld
Add ress
ec ess
as tic
N O
cite t
Ġqu ery
U I
ock et
Ġf ew
Ġfe ature
201 2
Ġsur face
c s
} -\
on ly
Ġresp ect
d ag
k es
med i
Ġs ay
Ġequ al
Ġprovide d
ĠA ll
P C
r r
Ġin dependent
s cri
Ġis s
S c
x space
Ġpro posed
Ġ[ ]
n eq
ega tive
no indent
ĠD is
Ġqu es
in st
pro ject
off set
l ate
\ ,\
Ġsh ort
Ġbound ary
C ache
foot note
u it
oc ity
Ġf ont
Ġv el
ern el
om ic
al f
Ser ver
C ON
P ol
Ġc luster
om in
out put
omet ry
ti o
Ġcan not
CO L
Ġc opy
ul ations
. /
c d
= {
struct or
ĠA PI
Ġd one
a j
Ġc atch
Ġt ypes
Ġser ver
ang ed
Ñ Ģ
Ġco ordin
Ġlo ss
Ġed ge
" ),
I Z
Ġa verage
Ġdescri bed
Ġ ~
si b
f a
aris on
h ip
ex ample
Ġacc ount
P er
P i
Ġro t
Ġhe ad
> >
Ġtemper ature
Ġa ff
' ).
Ġe vents
$ (
Ġob jects
Ġr ad
Ġst atus
ix el
the orem
S U
Ġconsider ed
le an
Ġform at
T P
4 7
ach ed
Ġg ive
F rame
Ġclo se
Se lect
st and
Ġ! ==
ac ity
Lay out
Ġvari ables
enumer ate
pp ing
ĠC lass
i ti
Ġs uff
pro totype
A cc
r ule
Up date
r ange
T YPE
Ġre cent
ĠTh us
Ġcall back
) }{
s tit
Ġacc ur
Ġph ot
ict ure
U rl
8 5
d s
te ction
in ess
Ġt ag
k it
sc ope
++ )
o ol
201 1
Ġo ld
t ask
ft ware
. âĢĿ
it al
en ti
ex ec
p ass
**************** ****************
l ished
ress ed
ĠL o
Ġsever al
Ġrepresent ation
4 9
am l
requ ire
om ial
ech an
$ }
I O
item ize
Ġm ight
Ġro le
al k
rap per
Ġd ate
pre c
ER R
ar ing
Ġ row
dimension al
ab s
line ar
ĠI D
N ext
return s
or n
ĉ ĠĠĠ
Ġn one
N D
Ġtrans form
et y
c ur
) }$
c at
ab ly
Ġse en
Ġl at
ĠM ore
ĠE X
s m
C ase
ent ly
a i
] \
t le
Ġs yn
Ġc l
u x
Ġrel ated
Ġvari able
Ġrela tive
ĠL icense
Ġcent er
ch ie
C L
Ġl a
ĠT able
enc ies
Ġprodu ct
N AME
Ġcomp onents
ĠH T
file s
Ġle arning
Ġ _{
( [
Ð¾ Ð
cript or
Ġap plication
m ost
ĠD o
Ġmulti ple
ab il
N ote
7 7
Ġpr int
Pro vider
t ree
p to
Ġpro gram
Ġco eff
( _
b s
ã ĥ
Ġb and
Ġb i
="../../../../ ../
C P
li ke
ri ver
Ġs ug
om es
Ġtran sition
{ {
Ġrel ations
v space
ma ted
od er
w indow
ro ot
Ġconfig uration
f loat
y ing
l us
Ġto o
semb ly
Ġ loc
Ġimp lies
ĠT ype
Ġl aw
is s
Ġlarg er
Ġdetail s
Ġcom mon
Ġgiv es
V is
ig ation
Se arch
a ther
T arget
mul tic
Ġfile s
R em
ge ther
B ack
CO DE
M ax
Ġre ference
Ġadd itional
T ypes
u id
Ġarg s
Ġs ite
En tity
Ġre ason
U s
Ġmax imum
al t
ad o
Ġn odes
C lo
Ġ* *
) +
=" -
Ġspec ial
pos it
mer ic
ot st
Ġin stead
}} }
Ġf ore
under line
in o
model s
b ind
Ġbl ack
Ġth ink
am ed
W idth
Ġn at
Ġoff set
Ġ est
al y
() ->
Ġconst rain
Ġre lation
S O
ra int
O ne
Ġy ield
Ġn ecess
Le vel
}} _
Ġser ies
ol umn
S D
s hould
A V
o sition
appro x
I F
Ġst ream
e ded
av es
Ġpre c
Ġsol utions
op s
cont rol
Ġal gebra
Ġa chie
201 0
age ment
UL T
tem plate
Ġco st
ĠO r
Ġt rack
6 8
multic olumn
ĠF ile
} '
r ad
og raph
En try
bo und
Ġi mages
Ġse lect
ess ages
ĠI s
Ġ\ |
to ken
ute s
M in
our s
class es
ed ia
Ġf loat
ĠS ec
ĠWh en
Ġf r
Paramet er
ĠG L
ar tifact
so ft
Ġl en
Ġe mb
Ġagain st
Ġu int
ĉĉĉĉ ĉĉĉ
Ġwe ak
ĠC ar
Ġpro ve
fin ite
iz es
Ġb uffer
math scr
Ġc ustom
ĠB ut
ĠAr ray
Config uration
ag ed
A A
ĠS up
in ner
T em
E mp
si tions
bo ard
sp ort
e v
Ġext ension
oun ded
otst rap
Ġ ...
Ġb egin
Ġm en
fin al
con f
p atch
Ġh ard
] );
g ed
b uffer
bo ol
N N
Ñ ģ
d ocument
igh b
Ġe v
Ġthere fore
W rite
a ded
Ġset ting
ST R
ĠD ata
Ġg ame
Ġchang es
ves tig
Op en
Ġp ut
Util s
^ -
i mation
o o
Ġ ti
p ag
\ }$
Ġe igen
K E
a uth
Ġb ody
at tribute
ĠĠĠĠĠĠĠĠĠĠĠĠĠĠĠĠ ĠĠĠĠĠ
lay er
ĠO F
Ġc r
ivers ity
De fin
Ġwe b
inc ip
: "
Ġoper ation
Ġarg ument
Th en
Ġal ign
Con tainer
on ic
Ġf rame
t ure
Ġpl an
tific ation
4 2
Ġun ique
m ore
v ector
P O
Cont rol
X X
n os
Ġf ocus
T ree
) |
led ge
util s
Ġdes cription
u int
Ġmag netic
Ġreturn s
' ),
posit ory
Ġin vol
Ġm er
Un it
Ġa x
Ġv irtual
th ough
Ġadd ition
ĠW ith
Ġh olds
Ġa uth
) /
R L
A PI
S ince
He ader
au ge
id ence
Ġreg ular
c orre
af e
Ġap plic
am er
Ġare a
oriz ont
if ier
Ġsign al
r up
de bug
J son
th on
T op
ã Ĥ
th es
Ġw ave
= (
Ex ec
Ġ\ ;
oun ter
Ġp anel
Pro cess
Ġn av
exp ected
Ġsol id
I V
s ystem
Ġp attern
n a
inal ly
ĠU p
4 6
a uthor
Ġf amily
qu are
AT ION
Ġen ough
re es
tr an
Ġc or
tr m
Ġ{ }
S H
ĠR eg
b reak
Ġdiffer ence
Ġesti mate
8 7
8 9
Po sition
ĠR ec
="../../../../ ../../
ate gy
i mages
Ġb it
ward s
ĠReturn s
Inter face
ent er
artifact Id
Ġh app
Ġ location
N et
mo oth
ĠV er
M em
tex trm
ĉĉ Ċ
Ġh om
Ġp ur
sol ute
Ġcorre ct
ĠG ener
Ġeff ective
tain s
us iness
ĠO p
Ġh ost
Ġc ri
Call back
Ġspectr um
c ache
Ġt ree
f l
n orm
om en
" .
e V
V AL
a a
ma ke
vo ke
âĢ ¦
pro d
H ash
in a
lic e
ĠThe y
Th eta
de vice
Ġre move
ĠThere fore
ac ed
\ '
% %
}^{ -
H ttp
ĉ Ġ
s or
Ġl im
ĠF e
< \
te q
w ait
orizont al
f r
Q L
res ource
iz ing
Ġin div
Ġm echan
iv en
Conn ection
D F
eng ine
Ġre st
Ġse lected
IG N
Ġc our
et ch
R ange
S A
yc le
Ġeff ects
Ġre mo
Ġapp ly
Ġ ;
% ;
200 9
Ġc ertain
Ġder iv
ĠD es
Ġvel ocity
Ġd ay
a uto
8 6
um an
il t
eta il
5 7
y l
Ġm atter
Par ams
He ight
-- -
ĠĠĠ Ċ
D at
ct x
{ $
Ġmet ric
Loc ation
() :
group Id
Ġl ater
d ist
Ġse lection
ac ing
Ġd est
Ġvari ous
Ġup per
Emp ty
" ))
ar p
U M
Ġlang uage
N one
lug in
Ġf uture
ar ies
R ight
th en
n ap
Ġre str
COL OR
IZ E
un k
yn omial
Ġarg uments
D oc
Mod ule
j or
9 6
f s
, "
Ġl ife
Ġgroup s
pp ed
Ġlay er
Set tings
Ġg row
Ġex plicit
un ch
Ġe volution
ect ors
m ode
Ġ$ |
idd le
Ġli k
A ccess
P os
Ser ial
ibr ary
g ence
Ġp ay
Ġun c
styles heet
Ġre t
c p
min us
i qu
M atch
AC K
D D
9 7
}} ,
200 8
Ġcomp ared
Ġacc ording
ma tic
Ġx ml
}} _{
Ġbas is
ĠG o
Pro perties
H elper
tif y
Ġerror s
Ġ* )
~ $
ĠA meric
Ġf ar
id s
equ al
p g
f rame
ĠR em
le ted
s cal
* {
Ġf ig
en tic
Ġbehav ior
Ġin vestig
Ġent ry
Ġse em
Ġhow ever
> ,
Ġcre ated
P R
âĢ ĵ
Ġra tio
alle l
Ġa ble
i ver
Ġapp lied
is tr
= -
uc k
Ġto gether
Ġin v
c el
Ġinst all
T im
r ics
P S
ĠD ef
E CT
L I
Th read
Ġbo x
_ +
ĠC reate
F T
Ġ> =
Ġass ign
op t
Ex pression
Ġemp ty
ta ge
A b
Ġsw itch
d x
Ġhy per
^{ -\
O ption
re ed
b efore
} %
Ġexp an
Ġre search
R el
Lo cal
AR T
d rop
: \
Ġcol lection
dag ger
Ġne utr
at form
oc ial
se teq
Ġ$\ {
Ġde vice
Ġp ort
Ġwh ose
t urb
Ġdirect ly
z z
ĠP o
Ġg as
ac ts
c f
gr ad
ou th
Ġfil ename
$ _
ta x
d ated
Ġst ars
n ow
Ġpar ams
Ġhas h
is ed
ĠS ee
i ps
E Q
Ġp adding
D ir
is try
Ġs eg
bit r
Ġclo sed
Ġp ack
Sch ema
lim its
Ġthe orem
Ġsta tis
Ġke ep
N ow
f il
C opy
In teger
Ġequival ent
am pl
Ġindiv idual
sec ond
tion al
Ġallow s
Ġp ub
Ġd oc
Ġun til
h ash
v m
Ch ange
d r
Ġdatas et
Ġen vironment
ous ly
ip p
ad ow
de ed
Ġhand le
Ġfrequ ency
Ġen ti
: (
A uth
urre n
Ġlo ad
u ary
ic ation
S ession
) {\
Ġre nder
ĠD ec
Ġbo ok
ach ine
Ġac tive
Ġtak en
Ġoper ators
ĠN S
ĠL og
\ }
ĠI nd
Ġp rior
Des cription
ĠD E
mod al
entif ier
f ree
Ġ il
doc s
Ġht tps
irect ory
ĠQ u
Ġver tex
Ġch ain
Ġ ::
" ));
T I
Ġad ded
Ġf rac
Ġcol l
ĠĠĠĠĠĠĠĠĠĠĠĠĠĠĠĠ ĠĠĠĠ
Ġwrit ten
en ch
ial ly
Ġdeg ree
ĠC ont
Ġ$ {
Ġprov ides
og n
sup er
S cript
Ġover ride
Ġ" \
text tt
D ocument
Ġac ross
Ġg l
r s
ĠM ar
Ġemb ed
re q
d im
k ind
F ont
C R
omorph ism
ĠR o
ste p
Ġf l
sub seteq
Ġ( -
P T
Ġtem plate
Ġflu x
typ es
jo in
b as
& #
ĠM an
As ync
Ġb u
li er
op lus
Ġexp lo
w edge
Ġco ver
ho od
Ġ( $\
defin ition
Ġpres ented
ĠO ne
Ġdescri be
Ġe mission
Ġj ob
ro y
8 4
Ġinte ger
l an
re nder
re mark
Ġno ise
W ork
de lete
Ġun defined
Ġex ception
Ġsup ported
b ul
c er
in te
ĠB e
at al
C urrent
s v
Ġex cept
M O
=" _
Ġinter val
Nav Bar
Ext ension
Ġmem ory
a tial
and id
Ġ$ -
sh ot
c opy
le y
Ġunder stand
inter face
Ġd raw
_{ {\
Ġ ir
Ġde tect
OR T
at ric
Ġon ce
S L
H O
x x
200 7
================ ================
In st
Ġa uthor
Im pl
Ġra ther
trans form
Ġcho ice
Ġp rac
.. ..
it le
R ender
k er
m ine
, âĢĿ
it tle
b order
ot a
ĠT O
Ġorg an
Ġimpro ve
w s
M enu
à ¤
Ġm aterial
Ġsup p
_{ (
5 00
Re ference
Ġsmall er
i xt
S ign
z ed
ul ated
res ol
param eter
ĠB G
ms g
' ],
bl ack
comp onent
Ġg auge
Ġto ken
ĠEx ception
=" /
St ore
; ->
Ġnat ural
Ġam ount
Ġexpl ain
cre te
resh old
4 3
in ternal
AL L
5 6
? :
ate gor
PE CT
Ġde cre
Ġques tion
and s
Ġsc en
Ġne ver
Le ft
z ero
Par ser
Ġpol ynomial
back ground
c ard
Ġt w
com e
ĠP r
c y
ter s
c lear
s ession
Ġclass es
Ġsymmet ry
ar io
D IR
Ġphys ical
g lobal
ul ly
fo o
25 5
V ari
Ġconn ected
Ġnum bers
Ġpartic le
ur i
V ector
Ġne eded
ĠC O
Ġin fo
u ro
un e
Ġg round
set minus
new command
Ġqu e
P L
amil ton
_ *
ĠS T
~~ ~~
9 8
ĠUn iversity
line width
ĠR ef
Ġinter action
Ġgo ing
de tail
o ted
i ke
ut able
Ġf und
Ġk ind
Ġ tim
Ġ} \
( :
Th at
ĠĠĠĠĠĠ Ċ
F O
Ġa ut
' \
ĠâĢ ĺ
Ġform ula
Ġar ch
M D
Ġcomp ute
um b
a o
s ur
es h
bo otstrap
st o
Ġgr ad
Ġd r
Ġne ighb
res ults
Paramet ers
ang es
T ER
Ġ$ [
ĠA c
Ġcur ve
re a
ĠN ame
p anel
Ġma kes
Ġs ure
align ed
mit ted
web kit
h igh
Ġs ent
Ġcontin ue
100 0
Hand le
Ġbec omes
Ġgalax ies
Ġ[ '
Ġof ten
ri ef
Ġobserv ations
sh ift
a fter
ide d
Ġar bitr
I nd
Ġb ounded
p op
or ig
equ als
Ġst op
Ġs ession
Ġdetermin ed
Ġus es
I ter
us ic
Ġs cope
est amp
h ib
add ress
Ġs ources
ub e
to ol
ĠC al
E M
ma tions
ĠĠĠĠĠĠĠĠĠĠĠĠĠĠĠĠĠĠĠĠĠĠĠĠĠĠĠĠĠĠĠĠ ĠĠĠĠĠĠĠ
ce ed
Ġh aving
Ġc laim
Ġqu anti
to String
Ġr adius
Ġpar tial
ĠCh eck
ob ile
Ġam ong
Ġapproxi mation
C A
Ġh ence
), \
id ing
os en
C S
en v
C ore
Ġf ramework
rop y
imp ly
Ġp lot
Ġwork s
De vice
g u
S o
t w
Ġw ords
Ġde mon
Ġt ensor
oll ary
Ġsuff icient
ut or
Ġs amples
ch ron
Ġun iform
Ġproble ms
Ġh ome
gg le
w idget
P tr
ind ing
Or der
4 1
Ġag ree
Ġan n
s end
Ġg reat
Ġreg ister
Ġvol ume
Ġpro ced
Wh en
ĠO R
U P
plug in
I con
oh n
ig r
ho ver
_{ -
ĠS ub
ĠA pp
Ġre port
Ġst re
sup port
Tem plate
Ġunc ertain
,\ ,
Ð° Ð
Ġgener ate
aus sian
ph er
ct or
Ġs mooth
C al
)\ ,
8 2
OR M
c lick
sequ ence
' >
ef ul
foot er
amer a
ym f
Ġsub set
Ġl iter
T ests
m atrix
Ġcontinu ous
os s
or ts
ĠS te
ymf ony
ĠC an
ex ports
it ter
Ġma jor
Ġpar se
M on
by te
big g
we ight
ra ft
Ġsh ape
Ġat tr
Ġg rav
up le
Ġr ule
ĠBG COLOR
IN E
Ġs ymbol
ra de
Ġtak es
ĠAs sert
G ET
E q
` .
Ġappe ar
Ġcon ven
( *
se m
Ġbec ome
Ġmin imum
## #
Oper ation
Ġpartic les
Ġp ress
Ġ| \
Ġh old
Ġre view
Ġre ally
OR D
st ore
pre t
ex port
app ing
) }(
5 9
200 6
Ġ} )
Ġr ank
Ġcons istent
Ġcoup ling
Ġman if
Ġn egative
Ġs ays
ĠP ol
K ind
Ġsc atter
ERR OR
lev ant
N ames
ici ents
U se
Ġs en
ion s
Ġde lete
B O
med ia
Ġconstrain ts
Ġn uc
ap s
S te
act or
Ġby te
Ġs plit
ĠEX PECT
ĠâĢ Ķ
D own
Ġcon struction
Ġma ps
' _
ab or
P ass
is ted
field s
on es
ann er
f ull
ĠE ng
Ġest ab
sub figure
Rec ord
Ġmon th
Ġdemon str
Ġg re
ĠA cc
Ġincre ase
Ġb ar
AN D
leg ate
Ġregion s
are n
200 0
Ġ Â
ĠF r
Ġset tings
Ġspe ed
ĠH ere
Ġmoment um
Ġother wise
f n
F alse
W E
N on
Ġneed s
de c
Ġ+ \
Ġmed ia
ĠN e
mod ules
ĠM ath
D etail
Ġnumer ical
Ġdynam ics
Ġsatisf ies
M C
us ed
al low
dis abled
Ġpol icy
Ġal most
In valid
Ġus ers
Ġ\ (
Ġnecess ary
Pro ject
Ġrun ning
ĠM ay
c ustom
ĠIn ter
ag ing
v ision
c ategory
Ġinclu ded
icro soft
Ġy et
Ġpr incip
P ort
L ong
ll ar
Ġcri tical
ynam ic
lu str
re place
g ent
Defin ition
v as
Ġde p
T itle
Ġsch eme
V ert
Ġscal ar
Ġatt ack
L P
ä ¸
Ġdoes n
lo or
SE T
Ġf un
Ġstr ict
Ġt re
H ere
Ġec ho
Ġ ign
Ġact ual
ib ility
ĠPro position
block List
Ġcomp arison
c ing
Ġoptim al
Ġc ache
li de
ut er
Ġs end
5 1
Ġver tices
U RE
A pi
Ġdiscus sed
p ri
hand le
G raph
S k
7 6
Ġle g
de g
b ot
Ġdepend s
ex ception
Ġ+ +
ir m
g n
Ġn amespace
_ ;
ic ons
h y
um in
ĠC ON
ut ing
Ġth ird
ĠJ SON
c ar
Ġrequ ires
ve y
wh ite
Ġrec ord
Ġdis k
ick er
is es
Ġv i
N um
ash ed
Ġfor ce
ĠWe b
h ere
Ġ( '
St ack
Val ues
omet ric
is ing
depend ency
D raw
annot ation
Class es
con s
m ic
nap shot
Ġresult ing
Ġc os
H ost
ĠC oun
}} (\
Ġsim ulations
-- >
m aterial
ĠF rom
Ġh alf
en um
ip eline
Ġus eful
d est
Ġs m
__ (
do uble
f aces
7 2
ĠĠĠĠĠĠĠĠĠĠĠĠĠĠĠĠ ĠĠ
M ore
param et
Ap plication
Ġs imply
Ġp i
in itial
col on
set tings
Ġreturn ed
M ulti
> ();
p adding
iction ary
Ġpe ak
Ġc ut
ber t
ind er
f ramework
Ġb ig
Ġpro file
th ers
f it
ac cess
Ġun signed
Ġder ived
U B
Ġ&= &
Ġab solute
Ġcent ral
Ġhe ader
Ġad j
Ġc ore
Ġth read
ĠD ate
Ġexist ing
ĠTr ue
Ġin line
R ect
Ġemp loy
A ss
Ġle arn
Re ader
gr id
-------------------------------- --------------------------------
Ġo s
Ġincre asing
Ġc he
Ġcomp act
5 4
De bug
Ġdiscus sion
C ap
Ġcorrespond s
un g
ĠSt ate
FA ULT
Ġexperim ents
rag ment
Ġperform ed
pres ent
Ġdat abase
' }
ĠM on
Ġpl ane
Ġv an
Ġenti re
Res ults
ad min
Ġper turb
Ġn ames
clo ud
Met adata
7 9
for all
Ġdistrib uted
Ġcontain er
er ing
lap se
Ġs ense
Ġ{ };
Ġcom e
proto buf
Ġclass ical
. )
equ ality
ma tes
Ġte am
Ġh o
ĠP er
ĠJ an
Bo olean
5 8
plug ins
Ġ$ .
Ġdec ay
R A
Ġth ough
Ġrepres ents
Ġsug ges
5 2
gorith ms
G E
ĠG r
do main
) _{
Pol icy
Ġde tection
Ġdeter mine
20 21
Ġp ackage
Ġspectr al
Ġtak ing
ĠL O
AT A
}$ -
Ġmo tion
ĠH ence
h r
Ġv ideo
Ġc aus
De lete
sim eq
ur y
end ar
prec ated
al es
Ġcho ose
ĠR E
L S
reg ister
Ġexpan sion
} "
s uccess
Ġby tes
Ġchild ren
Ġlat tice
Ġmag n
atric es
T rack
Ġst ack
Ġd omin
oun ts
f ocus
om s
ar ily
ĠM in
v a
Ġcalcul ated
Ġmeasure d
Ġpro per
bo olean
sub subsection
S ION
Ġk ernel
Ġaccur acy
) ^{-
de p
i tive
po ints
b i
Ġl ate
M ock
Ġlo op
AT H
Ġb inary
Ġin it
Lo ad
an i
it ing
ch annel
Ġma king
) ^{\
ĠO ur
Ġprodu ction
AG E
By tes
Ġw ord
Ġso ftware
ym pto
bl ue
Ġcontain ing
conn ection
A fter
Ġex tr
per p
ĠE rror
ĠTr ans
Ġtrans action
P H
Ġsome thing
200 5
ĠTh at
Ġg ot
Ar gs
Ġcontrib ution
Ġed ges
com m
P A
Ġpar ts
By te
Dec l
\! \!
c ases
Ġin side
Ġde cl
ĠE d
En abled
K e
Par am
Ġde l
SS ERT
ĠN OT
c pp
H as
p ted
Ġsuccess ful
call back
G B
Ġwh ite
re al
Ġs itu
3 00
ite ct
P ackage
al ysis
i ag
Ġit self
M eta
ĠM odel
ĠC or
Ġear ly
ten tion
="../../ ../
ĠM ap
Ġre ach
ed u
Ġitem s
p icture
ĠU S
sib ility
Ġcon struct
Q ue
Ob j
B R
S ection
Ġdiff ic
ĠH amilton
Ġapproxi mate
6 9
Ġlead ing
7 8
Arg ument
iv ing
Ã ¡
S im
> .
G e
Ġl ittle
P P
ĠSp ec
Ġmem bers
Ġimplement ation
is ms
av or
En c
R oot
EN D
Ġh istory
Ġintrodu ced
âĢ Ķ
Ġallow ed
Ġcomp are
Ġf ix
Ġme as
w rap
Ġg overn
Ġpers on
ul ate
Ġsp atial
ĠV alue
c a
C re
ĠIn t
' ))
` ,
Ġj son
Ġ$ $
h om
p ub
.~ (\
p ec
st ers
to ggle
Ġde comp
ĠF irst
Ġact ually
ĠI m
Ġin variant
Ġarbitr ary
CT ION
Des criptor
Y ou
Ġcoeff icients
S R
^{ +
TE D
Ġang le
5 3
p a
co q
HT ML
E ach
medi ate
C lick
g est
com ment
Ġchar ge
ĠS tr
D L
Ġ' /
B ody
Ġcour se
}^ *
sh ort
ag raph
iv es
B ound
B uild
Ġin finite
ĠN ot
Ġs u
Ġin voke
Ġex amples
Ġassum ption
Ġsh all
w ar
Ġcorre lation
n umer
ĠP re
Ġn orm
Ġmen tion
Ġa way
ter m
Ġmeasure ments
sq l
Ġpol ar
R I
V ar
Ġb ottom
W riter
; <
8 3
Ġfa iled
con trib
") ]
ĠG u
Ġin s
in y
Ġdirect ory
ĠM y
Ġintegr al
S w
illi on
form s
r adius
{ $\
Ġinterest ing
Ġsim ulation
Ġcomp uted
Ġcorre ction
ĠĠĠĠĠĠĠĠĠĠĠĠĠĠĠĠĠĠĠĠĠĠĠĠĠĠĠĠĠĠĠĠ ĠĠĠĠĠĠĠĠĠĠĠĠĠĠĠĠĠĠĠĠĠĠĠĠĠĠĠĠĠĠĠĠ
k a
d om
ĠS im
Ġc ategory
Ġlink s
Ġtrans fer
P arent
Ġc are
ator y
25 6
ĠHT ML
Ġbr anch
Ġ= \
Ġnetwork s
$ ).
Ġch all
200 4
Ġorig in
KE Y
e ach
o om
G o
co in
a ut
D ialog
ĠV AL
Dis play
Ġa void
"" "
conn ect
ĉĉĉ Ċ
an te
Ġwh ole
le tion
Ġst ore
k y
ĠR equ
is sion
i ous
R ule
Ġassert Equals
$ $\
vir tual
Ġh uman
ĠM ark
Ch anged
ac ro
Ġlead s
ap plication
reg ion
Ġch osen
bul let
e h
Ġre pl
rodu ction
ap t
Ġde ep
ĠS c
Ġ< =
Ġin equality
Ġn et
}} ^
m ock
Ġ ess
ĠR un
) }{\
b its
Ġf ac
ĠA L
p ly
O ur
se ud
not ation
ve x
Ġ ^
S ta
Ġax is
Field s
ed it
Ġexact ly
l ines
c over
Ġin ner
$ ^{-
Ġbut ton
Ġr adi
"> &
abil ities
Ġproced ure
text sc
Ġdistrib utions
c ts
Ġeas y
ĠM od
Ġstud ies
Ed it
m argin
Fig ure
S M
Ġil lustr
Ġw ait
Ġam pl
7 4
te in
h s
Ġex tra
) _
el er
Ġthe ore
) ).
ema il
ie ve
Ġfig ure
T ab
Ġtest s
urther more
Ġt reat
Ġp ixel
Ġexperim ental
N e
r f
Ġpair s
Ġd ays
Ġprocess es
C ustom
b al
' re
an a
Char acter
J ECT
ĠA b
pm atrix
Ġwe ek
Ġsp aces
Ġex ternal
z ation
Ġal tern
m ing
Ġd ual
Ġid entity
Ġeas ily
O M
Ġstate ment
item s
ul er
en ing
Ġh ar
Ġor bit
[ :
Ġresol ution
b all
Ġs ys
ĠU ser
ti k
S um
F R
Ġwh y
Ġc andid
\ _
stru cted
oun g
b old
Ġinclu des
P RE
ĠMore over
M ark
ĠI O
sh ape
8 1
ard s
ad s
Ġredu ced
Ġb usiness
Ġdenote s
key word
Ġpop ulation
Ġlik ely
As sert
O K
ec ause
Ch annel
Ġre ported
og ene
un signed
pass word
ĠS he
Ġra ise
os ed
Ġw ater
aw s
ĠĠĠĠĠĠĠĠĠĠĠĠĠĠĠĠ ĠĠĠĠĠĠĠĠĠ
} )$.
Ġste ps
if fer
Ġoper ations
St orage
\| _{
ad a
N G
ĠP y
Ġre levant
ab e
Ġto ol
ke ys
pend ix
Ġm sg
ĠG e
ri ve
ĠU RL
Ġclo s
z ing
Ġdevelop ment
ado op
TE ST
r b
Ġr ules
Ġan sw
Ġc a
ti li
Ġmod es
Ġ( *
Ġcur ves
Ġ" /
g ers
inst all
Ġappro pri
ff ff
lem ented
en sive
Ġd b
ri ed
Ġcon c
ng th
M ember
Ġdepend ence
Ġ ensure
Ġe q
Ġexperim ent
es ti
Ġpres ence
In itial
ing le
Sec urity
re la
Ġjava x
Ġsymmet ric
Ġiss ue
ĠV al
S ymfony
J ob
z er
Ġmin im
display style
erm al
cm d
Ġp ul
Tr an
)$ -
pro perties
o ught
n one
To ol
7 3
ot s
Ġ( "
ampl ing
Ġth ings
Ġb al
ct u
H owever
Ġre m
ti p
Ġat tem
Ac tive
Ġal t
Ġapplic ations
y es
in line
ĠT ime
Ġcoordin ates
ĠU se
An y
Ġal gorithms
ro t
B C
P l
Ġspec tra
=" @
ri end
et ing
F ound
ou te
Th us
ac c
tr ain
T S
il ib
Ġ ),
Ġm atrices
Que ue
d ro
on om
Ġbas ic
Ġre pe
sum er
N E
ategor ies
h bar
6 3
circ le
Ġap i
add r
Ġf all
Ġf lat
_ -
Ġcoun ter
ĠB l
ĠJ ohn
ĠS ci
J o
Ġwork ing
m c
kn ow
per im
t xt
st ats
Trans action
Ġde pth
Ġtask s
Ġf ive
o ch
6 2
Ġd ark
as i
J SON
omorph ic
IT Y
ati ves
ass ets
ic ial
Ġw allet
h an
ixt ure
ĠC l
C an
M y
Ġf ully
Ġset up
on ical
4 00
ut f
X ml
Ġqu an
Ġht ml
rom ise
h ome
ĠN ow
Ð »
ure d
Ġintrodu ce
Ġrece ived
Ġstart ing
Ex ternal
Ġon es
] ]
Ġstud ied
Ġpro pag
el s
igh ted
)\ \
Ġg en
Ġm ember
" `
a iled
Ġbl ue
od ot
Ġpar tition
Time out
l imit
[ (
U ID
=" "
cont in
el i
Ġsub ject
B l
Ġsing ular
ra ys
istr ation
n etwork
AC E
ex ists
m ma
I X
en n
Ġe lem
Ġlong er
ĠJ o
Ġdiscus s
ad ers
Sh ow
Ġre place
On ly
Ġa ge
9 4
for ce
) ),
}} ^{
Ġor d
dic t
M sg
| _{
ĠĠĠĠĠĠĠĠĠĠĠĠĠĠĠĠ ĠĠĠĠĠĠĠĠ
Ġconst raint
que ue
wh ile
thes is
ch o
her it
Ġw ide
FI LE
du ce
Ġpr imary
; /
Ġde al
ac ted
pro position
row n
ul y
E l
Ġlevel s
( !
Ġyield s
b es
Ġm ock
web pack
Ġfe ed
, $
. *
ole c
S end
ond s
Ġdec ision
Ġknow ledge
9 2
F loat
Ġf ace
Item s
ĠGo ogle
} &
P ost
ilib ri
Ġqu ad
Ġstr ategy
is k
Ñ ĥ
ĠOp en
or ted
M B
paramet ers
200 1
ĠG aussian
sc roll
Ġext ended
ax is
ext ension
M atrix
=" ">
ĠC re
ers on
ĠS w
) --
######## ########
ati ble
di ag
Ġstruct ures
map sto
in sert
Ġd ig
A uto
b and
D I
)) )
entic ation
h older
h box
) },
Ġc ref
st ri
sch ema
Ġet c
$ ;
rom e
as sive
Ġelectr on
al o
Ġ% }
Ġinstance of
j ected
The orem
ist ing
ult ure
Ġc li
M ain
Ġpro jection
Ġide a
==== ==
or ing
Ġfor ward
st able
Ġex c
th read
set s
Ġas ympto
ĠP l
9 3
comp onents
j query
it ation
ib er
Ġcurrent ly
lo ts
trib ution
EX T
200 3
Ġtran sp
Ġjo in
\ {\
ĠF alse
Ġseg ment
Ġcomput ation
h adoop
' (
ĠO ut
yn tax
a e
import ant
Ġad van
ĠHamilton ian
Ġb tn
Ġs low
e vents
S Y
Ġgr id
Ġte ll
ub y
Ġqu ark
Ġste llar
By Id
Ġbound s
Ġtrans formation
N etwork
ĠS ome
W idget
sp ring
Ġn eg
Con d
m at
Ġmeasure ment
Ġf ill
ĠĠĠĠĠĠĠĠĠĠĠĠĠĠĠĠ ĠĠĠĠĠĠ
S ymbol
on ential
VER SION
$ ~
w ner
u ed
Ġqu ality
Ġp ast
c ut
ĠMe thod
ĠE vent
lo op
U sing
S I
Ġpass ed
s ave
S cope
p air
de t
M OD
Ġv ectors
16 0
}( {\
for ward
LO G
Ġre con
tr ack
E C
Ġincre ases
7 1
st op
ic ity
Ġof fer
Ġfor mation
Ġe m
Ġfact ors
sh ip
D A
y ear
F r
drop down
cont roller
&= &
ta iled
ts d
L ock
i ers
á ĥ
h am
par a
one y
Ġe p
Ġl atter
Ġo thers
Ġt or
al g
AD D
f ect
Ġcorre l
d iff
tr i
ĠA fter
Ġpro m
Ġsta ge
k w
Ġver tical
Ġcon sole
p ay
se lected
Ġan ti
Ġbel ong
Ġdiag ram
Ġw aves
TE X
Ġh idden
pr imary
Ġhe alth
tot al
ĠO ff
ok ie
v s
al led
pro file
B it
ĠUn ited
p ress
Ġin struction
W S
Ġth reshold
ge x
Ġqu ite
F lags
c b
Ġst ory
Ġinf lu
Ġang ular
jo int
f amily
Ġattribute s
f lags
ĠI S
im in
Ġhe av
for d
Ġ[ ];
Ġs l
Lo ader
Log ger
sp ect
Ġs ocial
() {
. __
Ġremain s
Ġsim pl
$ /
Ġclo ud
Res ol
T C
type of
urs or
p k
Ġinter actions
@ "
Ġesti mates
leg al
ber g
Ġdiffer ential
ly ph
ar r
ma tically
Ġstr a
Ġke ys
En g
G S
des c
Ġl ibrary
T ABLE
Ġcom es
Ġas k
ier arch
j ective
a ul
In ternal
B A
tik z
r u
sw itch
Ġs creen
//////////////// ////////////////
Ġbro ad
++ ;
P attern
vari ance
AR Y
Ġch arg
tr ies
is ation
MA X
ĠN ational
Ġb ul
Ġpo inter
Ġrec over
Ġre lease
ang uage
Ġma pping
) +\
ici ency
~ $\
ic ted
Ġenc oding
N R
L java
Ġexist ence
e le
', '
Dat abase
9 1
ĠE nd
ex ternal
M ENT
Ġobser ve
atal og
Ġver ify
ser ved
Ġanal og
_ ->
Ġpr im
a int
Ġbe h
Ġser vices
d p
B P
] :
in ct
Ġapproach es
Ġst able
6 1
Reg ister
ir it
ĠAmeric an
ang er
Ġout side
Ġsh ift
| |
si ties
Ġcomp any
P anel
j pg
a ults
ilibri um
Ġmatch ing
uc ket
Ġlo t
f lu
sum e
u str
CH E
Ġesti mated
d ates
ĠO ct
U LE
ĠN O
Ġconver gence
Ġess ential
ĠC opy
l g
Ġres ources
to ols
assert Equal
Ġimp act
Ġr ates
h elp
ĠA ss
In it
Ġ lock
Select or
en ef
ĠC ons
ĠF orm
() ).
Ġm orph
ĠI I
t wo
Ġpress ure
h orizontal
s ort
Ġen tity
gener ate
n ames
Ġvi ol
Ġgalax y
Ġcommun ity
} )$,
Ġgo al
() ));
Ġal loc
sing le
Ġc lean
Ġscatter ing
Ġ{ '
Ġsatisf y
Ġid x
im pl
anc el
Ġvan ish
Ã Ń
Ġsignificant ly
Ġappropri ate
Ġstre ngth
Ġf unc
Ex pr
} }$,
Ġm ix
l arge
a res
lang uage
Ġfinal ly
Ġfrac tion
b ut
r ong
)) );
Ġser ial
j ob
b ust
Ġfor ms
I MP
ist or
ot al
lu sters
} }$.
Acc ount
print f
Ġdevelop ed
ymmet ric
l or
Ac tivity
th rows
12 3
Ġnot ation
) -\
ak ing
ock er
I E
Ġwrit ing
Ġs light
Â ł
Ġrot ation
Ġon line
Ġassum ed
as er
ak er
Ġin c
Ġ engine
Ġchang ed
) )$
Ġcons ists
V ol
Po ol
ograph y
Ġge ometry
Ġa ir
du ction
ec ho
Ġp or
Ġs ix
Ġblock s
uro pe
Ġredu ce
ĠA ir
- $
config uration
C F
Ġreg ard
assert Equals
Ġter min
iqu es
S IZE
pec ially
am ely
P AR
ra tic
Ġconn ect
H z
Ġc op
12 8
Ġdimension s
' .
ĠE qu
B efore
Ġmass es
Ã ³
_ ,
RO M
r ate
D S
P ack
* )
ar ante
Ġcirc le
G rid
urn al
Gener ic
g reg
Ġf n
Ġhand ler
Ġb ad
m ber
> \
Ġcom ment
Ã ¤
Ġac cept
st s
R ed
al loc
ĠIn tern
Ġcharacter s
Ġe mail
Ġo sc
ĠK ey
Ġbu ilt
En um
Iter ator
Ġpl atform
Not Null
F IG
200 2
Des c
Ġl and
ight s
ĠI P
ang ular
D irectory
s creen
Ġindic ates
p ing
\ /
Ġeff icient
Ġpredic tion
Ø §
}\ ,\
Pro xy
uct ure
c ref
Ġp y
Window s
Th ese
Ġcalcul ate
Ġm olec
ser tion
Ġr ing
r andom
iz ations
m ass
ĠW orld
ip age
ĠN ode
Ġpres er
", "
Ġw in
rec ord
Ġp ure
ĠM o
ĠT HE
om an
Con f
Ġrec ogn
s ample
min ipage
cc cc
f ly
s ymbol
R et
M edia
al i
Ġn g
Ġus ually
ST AT
ĠT ext
Ġcalcul ation
}{ |
res et
} </
Ġampl itude
cond ition
a ff
Ġop tical
Ġun its
Ġcont act
Ġs quare
tic k
ĠW ork
) }_{
s ys
Rec e
s cription
NavBar Cell
f ail
Ġclass ification
f i
Ad apter
A m
h idden
M apping
Ġd ir
ĠO ption
[ $
Ġgrad ient
$ ),
Ġth ought
Ġi o
Ġc ry
ho ut
if ies
Ġf lag
Ġcoordin ate
Con s
ok s
ir al
am ental
ĠAl so
Ġoptim ization
ĠT ask
Ġarch itect
g reen
riter ia
) }}
il i
u de
Po inter
ĠCh ar
D C
ang o
Ġper cent
Ġ ^{
man ager
: }
mission s
}$ )
Ġdisc over
E rr
b el
Ġ[ \
Ġ$ |\
Ġsec urity
tab s
Ġvis ual
r ist
Fe ature
b on
Ed itor
arg ument
Ġmechan ism
[ -
log ger
Ġcap ture
id ers
Ġu til
Ġseem s
Int roduction
ri a
E vents
ç ļ
m aster
'] )
g it
hand ler
c us
ĠSer vice
Element s
b p
ĠTO DO
Ġremo ved
G C
wh en
Ġre ader
ch ain
Ġgre ater
spec ial
UT F
an ted
ĠJan uary
çļ Ħ
sec urity
=" ${
Ġvis ible
Ke ys
Ġso und
P ATH
Ġredu ction
}{ (
__ __
) ">
tr igger
Ġag ent
Ġtran sport
v c
Ġcontrib utions
ur ch
Ġde vi
ĠS U
Ġstar ted
p lot
Ġa wait
G R
Ġcalcul ations
Ġun known
am a
Ġappe ars
ogene ous
ĠA ug
scri pts
Ġvis it
Ġup on
p are
Ġm ask
L L
Ġg ain
Attribute s
d en
er tific
con tains
ed ule
Ġocc ur
Ġaction s
er ies
C I
ĠĠĠĠĠĠĠĠĠĠĠĠĠĠĠĠĠĠĠĠĠĠĠĠĠĠĠĠĠĠĠĠ ĠĠĠĠĠĠĠĠĠĠĠ
L IC
Ġcoun try
ĠF unction
Ġform al
Ġat tention
Ġro und
t mp
Ġlim ited
ĠVer sion
Ġ{ $
ist ance
Ġosc ill
Do uble
Ġ" "
ĠS O
h elper
ST ATE
anc y
ill s
w in
clu ster
P lugin
Ġp ush
k i
State ment
Ġres on
z on
Ġde tailed
Ġ( _
t or
ĠDef ault
app ly
Ġauth ors
Ġs ort
Ġg ap
Ġb in
Ġprodu ce
ing u
Ġ= ========
ĠA R
W hat
Ġtest ing
IP T
Ġm icro
Ġimplement s
Ġmod ified
ĠĠĠĠĠĠĠĠĠĠĠĠĠĠĠĠ ĠĠĠĠĠĠĠĠĠĠ
Ġplay er
ï ¼
M R
Ġ ul
ĠB ase
Ġst orage
cal led
Ġprodu ced
av ed
ĠG roup
Ġremain ing
big l
Ġre tr
Ġ ..
ann ing
N T
I B
tic les
Ð º
F ailed
Ġc ity
ter min
con g
Ġcon clude
th eme
Ġrecent ly
fra g
Ġin valid
Ġgrow th
ar c
Ġde li
Ġfe el
Ġpartic ip
There fore
pro duct
Ġm usic
S ER
De pend
Ġiss ues
Ġmin imal
met adata
ss im
Ġgraph s
ĠCon fig
P art
, {\
W arning
er ed
ec e
col lection
Ġa im
Ġindu ced
ĠU sing
Ġxml ns
b ur
M T
Ġcombin ation
X ML
part ment
Ġ icon
Clo se
Ġfil m
Ġflu ctu
H R
os ity
Ġscal ing
w ild
in i
Ġhapp en
Ġw atch
as c
ĠWh ile
Ġas ync
Ġp ati
Ġspec ify
Ġt race
big r
o x
Ġexper ience
To String
D uration
-> _
s u
Ġgener ation
! !
Ġd rop
Ġstra ight
ĠW hat
Ġn ature
Sc roll
Ġre q
Ġcontr ast
Ġobserv ation
F ail
Ġs ave
Ġs cript
Ġmagn itude
s ince
Ġtem por
Ġa li
Ġc lusters
Run time
as ic
Ġb uilder
P ORT
] }
G r
: =
am ent
le ased
Ġlay ers
Ġh el
Ġup dated
Ġde bug
ĠUp date
Ġar ticle
en ess
Ġcre d
Ġcoll ision
Ġc ause
ĠP res
Ġconst ants
ĠSt ates
re st
Ġes pecially
Ġcomplete ly
Ġpro tocol
Ġp ick
math op
om b
ĠO ther
Pro file
m i
b rowser
d y
sh adow
ne y
ĠM c
Ġent ries
Ġsch ool
{ %
ti ves
an o
Ġover all
ens es
Re pository
Ġw or
Lay er
Ġto wards
F inally
Ġm essages
us ive
gener ated
Ġidentif y
Ġf ast
Ġbehav i
n n
ĠF ield
Pro tocol
w rapper
S ync
eh ic
Se e
Ġ{ {
code d
) [
\ ;
ĠC lo
Ġagree ment
BU G
ph ys
Ġm ar
iter ator
D T
F S
Ġo dd
Ġbuild ing
J ava
un t
pro ps
l b
W A
Ġf oot
Ġsh ared
R R
B rowser
les ssim
get Name
by tes
tr l
$ _{
medi ately
ph ot
Ġtr igger
ĠO per
p icker
as et
Ġprodu cts
Ġhy po
Ġidentif ied
S QL
V M
Ġdiffic ult
Ġ ener
ĠC all
Ġbe am
Ġd riv
ĠA N
Ġab sor
t k
Ġt riv
Pro p
Trans form
M o
po ol
id x
IN S
Ġtechn iques
,\ \
Ġ" <
ble m
un ded
ro ug
\ )
ON E
d irect
C ar
clu des
el ves
Ġb enef
Mem ory
ud es
Ġpar allel
o ti
Ġsh are
roug hout
Ġgu arante
ed er
Ġfr ont
C l
Ġm ut
$ {\
ĠB ar
Ġrad io
F unc
com ing
33 33
c k
Ġsitu ation
$ :
Ġth ick
F ramework
Ġcoeff icient
Ġac tivity
LE CT
op ic
par agraph
W rapper
Ġm achine
Ġcolumn s
ĠRe ad
ur ations
if ically
! [
Ġreg ime
i h
Ġv ary
Ġresp on
Ġ[ [
ĠL android
tem p
equ ence
Ġun less
1 20
Ġle mma
G lobal
j ar
Ġqu al
T ra
Vari able
Ġsub group
par ser
Ste p
cri be
Ġs uit
Ġ Ã
g ies
Ġmis sing
_ (
Ġachie ve
Ġpol i
r d
Ġno thing
iter al
Ġlabel s
tiv ation
av el
Ġth ing
Ġgener ally
19 99
Detail s
N ULL
P op
J S
attribute s
I ST
oc ation
c line
ĠĠĠĠĠĠĠĠĠĠĠĠĠĠĠĠ ĠĠĠĠĠĠĠĠĠĠĠĠĠ
ĠP e
ĠF inally
Ġweight s
O B
at ur
Pr int
ac u
b u
h ide
Ġsc ore
Ġe lect
E V
Ġpath s
ĠT e
Ġfunction al
Ġcell s
Ġoption al
Ġexp onential
o ber
il ation
Ġre ve
Ġindic ate
Ġs s
Ġright s
il le
nav List
Ġr g
A uthor
P U
Ġgovern ment
Ġal though
enc ed
C luster
Ġscen ario
em es
el low
S uccess
ĠE urope
p refix
ĠG ets
= >
Ġl ive
Ġnuc le
Ġs us
F ull
M ar
s uch
al gorithm
T e
Ġir re
R AN
Ġdis crete
Const ants
File s
D iag
fil ename
Ġprevious ly
D est
S pace
word s
Ġdatas ets
b ing
Ġmention ed
ser vices
d ialog
^* $
ential s
A X
it z
Ġclear ly
ass ign
ĠV iew
Ġform er
Ġget s
d ash
ĠA pr
ĠC ode
t body
ĠIO Exception
Ġth ermal
ac count
s y
Ġsign ature
%% %%
CHE CK
f ixed
ivers al
S eg
tr iv
Ġtheore tical
Ġexp ress
Ġtype of
Ġunder lying
P erm
S ol
Ġstrong ly
ĠE ach
Ġrepres ented
ĠN umber
col lapse
Ġdynam ic
Ġ\ (\
( __
L a
pro vider
. &
Ġcon vex
Ġap pend
ar ation
Ġp refer
z one
Ġent ropy
de pth
Ġlo ve
Ġsize of
ĠH igh
Ġj Query
ð Ł
Ġt ab
Par se
Ġk ine
ta gs
Ġex hib
loy ment
ĠI d
ĠIn teger
S ocket
Ġloc ated
Ġpro gress
Rem ove
ĠY ork
n il
Ġse ason
pre v
b ad
li br
Ġb undle
Ġes tim
Ġa rm
Ġcall s
Ġden oted
and ra
Ġdid n
D M
de cl
Ġtra ject
Ġscal es
ĠR ed
b um
ver ti
m ask
ry pt
ĠT im
Ġnew s
Ġqu ick
Ġp seud
Ġen abled
Ġprocess ing
ĠB r
al gebra
Ġw on
Ġv s
$ };
UR I
Ġque ue
Ġenc ode
ĠIn itial
s ym
F E
Ġdes ired
Ġmark et
in ted
Reg istry
Ġc ycle
) "
Ġev idence
comp lete
b c
ĠA ND
Com mon
requ ired
P e
f d
Ġv align
f g
ĠS ep
Ġh ole
Ġuncertain ty
N odes
L INE
t frac
N A
Ġon to
v ideo
il it
ill a
el lo
Ġe ver
h i
Ġto day
detail s
Ġmean ing
error s
col Last
w ell
m n
Ġocc urs
Ġre comm
\ }$.
P res
Ñ ı
ou ch
Ġpro ved
Ġexplicit ly
h a
Ġcon structor
ĠS outh
Ġp refix
B r
ench mark
Ġst ation
Ab stract
Ġde lay
ĠH ar
Ġper fect
Ġex tract
f lat
en omen
C RE
r ase
her ited
}} )
iz able
Ġd ire
ve e
Ġpar am
fer red
}) }
ilar ly
pro tected
ph one
w ik
Ġ math
S ingle
un n
Ġevalu ation
j unit
pl us
S cale
Ġsection s
IN D
Ġc tx
}} _{\
vis ed
Ġpol y
Ġpro por
H ER
exec ute
Ġ" ,
Ġ= ======
Ġbe y
Ġcomplex ity
s afe
] $.
ĉĉĉĉ ĉĉĉĉĉ
TI ME
Ġcontain ed
Ġmet adata
clusion s
Ġstring s
Ġliter ature
Pro ps
ig gs
Ġbey ond
d frac
Ġl ib
Ġide al
aj ax
Ġevalu ate
At tr
Ġin verse
un ique
head ers
sw arm
P ay
RE AD
ill is
v ature
ma ven
ac tic
ch or
er ial
amp a
an tic
ĠL a
col First
si tivity
-------- ----
Ġlook ing
N OT
cent r
M ath
ed itor
Ġsatisf ying
m ann
å ı
en ge
IT E
oc aml
view s
test s
}[ \
type def
/ (
Ġen able
all classes
ag r
Ġext end
id entifier
Do main
wild fly
ĠA g
re w
P refix
Res ources
Ġslight ly
Ġsum mary
O UT
Ġ raw
Ġdiffer ences
tain ed
R oute
Ġim mediately
ĠC ity
Ġre mark
Id entifier
P ER
Ġcont roller
function s
Ġb rowser
br id
long rightarrow
tran sition
IV E
Ġ\ &
Ġsol ve
Collection s
CE SS
ĠM essage
IC E
Ġdo ing
ĠB O
sh all
our ier
le ep
Ġn amed
G u
s ome
Ġ\ !
ĠĠĠĠĠĠĠĠĠĠĠĠĠĠĠĠ Ċ
m en
Ġintegr ation
am in
Ġinst ances
po ch
Ġesti mation
Ġhar mon
ser ial
inte gr
Ġin tr
Ġab stract
Pro to
sv g
Ġde tected
s imple
Ġrela tively
Ġf erm
ar ticle
Ġfund amental
Ġhigh ly
Ġtyp ical
comp iler
Ġcon structed
Gener ator
p ed
form al
ĠN orth
Ġgener ic
gener al
? >
Ġnav igation
sp in
Ġlarg est
Ġsch ema
ĠH and
ĠL ie
en a
s ect
Ġconsider ing
Se lection
child ren
ient ation
D P
T race
Ġno tice
">< !--
s es
. '
Ġb os
ite s
Ġre ct
ro ad
r ams
S imple
}) =
out er
n ers
15 0
ĠF urthermore
pro tocol
fo und
Ġstud ents
Ġpass word
TEX T
Ġf amil
B S
pl atform
Ġlim its
d one
Ġprob ably
Ġdecomp osition
ĠW indow
B ut
ty les
Ġ[ ],
Ġdepend ing
ri er
Ġ ],
if def
ĠE l
Ġlog ger
}) ^
Ġdist inct
sp e
Ġ" -
op tim
av id
> :
H S
Ġear lier
sl ash
Ġr isk
Ġchall eng
Ġm iddle
U SE
Ġphys ics
Ġ rows
lo ader
per s
}} .
Ġrequ ests
ĠB uild
Ġmeas ures
Ġad min
ĠS k
b d
ollow ing
Ġc lick
C M
ĠRe act
m as
Ġrepresent ations
Ġ\ ]
Ġindic es
B E
F ORM
P y
Ġc ard
en able
empty set
pl an
ĠRes ource
u a
T T
FF FF
A gent
u ous
w rit
Eng ine
Ġchannel s
] $,
j ango
i ota
ĠH ow
C ategory
Ġques tions
Ġco q
() </
Ġi on
for mations
ill ing
C G
ens ed
Ġm illion
Ġrelations hip
up lic
ymmet ry
Ġestab lish
ĠF ound
à ¸
N amespace
Ġansw er
ĠĠĠĠĠĠĠĠĠĠĠĠĠĠĠĠ ĠĠĠĠĠĠĠĠĠĠĠĠ
Ġm eta
j d
A CT
Ġto ok
Ġ und
W N
Ġexp ressed
low er
AL SE
^{ *
Ġin sp
h ref
Ġ? >
ch anged
D R
O F
b rief
no ther
user name
igr ation
c ape
p attern
Ġequ ilibrium
Ġob vious
Ġro bust
b uilder
ĠI E
20 22
;\ ;\
Re port
t ml
Ġmo v
Ġdiag onal
ati vely
)) \
ĠS ol
ĠM arch
ian ts
ese arch
ĠH ash
R ole
st orage
g a
,\ ,\
ĠO ver
es ter
Ġrece ive
os ing
ampa ign
Ġeff iciency
Ġg ames
ok up
$ &
tr ace
Ġvari ety
- (
c tive
Pass word
(' .
bo ut
Ġmod ul
ĠR esearch
< !
Ġe mer
log in
ech n
Ġ[ "
F C
Ġimp lemented
m al
t iny
med skip
ĉ ĠĠĠĠĠ
Ġjo int
Pro of
r ift
Ġsp an
tem ber
ĠAp pendix
i verse
g i
urren cy
fe ature
riv acy
ĠI mage
| }{
serv ation
ertific ate
mo z
Com ment
ĠN AME
Ġf lags
Ġt rac
B AR
ĠR el
Ġexec ution
Ġ{ "
Ġ( {\
p u
Ġ} {
triv ial
ibr ation
A rea
Ġpur pose
Ġm ixed
le ge
Text ure
ĠJ ava
ĠIn dex
k o
Sum mary
Re v
ĠSch ool
Ġs ampling
qu ote
Ġconf ir
MOD ULE
qu es
Ġcan onical
Ġab s
AR N
g rade
res ources
Ġs izes
Ġpro xy
Ġ' <
cd n
}_{ -
Ġrepl aced
tic ip
Ġshow ing
Ġmanif old
Ġconc ern
et te
rel ated
u el
Ġgo es
Ġcom mit
sh ared
Ġinter pret
f ix
I mp
ĠH ttp
Ġb atch
Ġtreat ment
Se lected
Ġare as
T ile
f x
r uby
ĠC ent
R est
plic ity
index Of
Ġadd ing
reed om
Ġd x
Ġneighb or
Vis ible
Ġph enomen
umin osity
Ġcomp an
Ġshow ed
ĠA SSERT
Ġpar ser
Ġh ouse
F LA
Ġauto matically
ĠHT TP
Ġtr ad
port un
Ġw ays
Ġin str
k ens
Ġprac tice
Ġvari ation
Ġfail ure
as ons
pro v
s n
stit ute
Ġc m
W R
us form
k m
l ers
) ->
numer usform
Ġmax imal
Ġrun s
p ite
O ST
en abled
Ġqu asi
ĠA ction
L in
Ġro om
man if
Ġm assive
ĠDe fin
f lag
b x
if ts
P air
b g
ĠM ax
sc ss
Ġus ual
Ġcon cept
ist ence
Ġf lex
Ġcon j
HT TP
ĠNew s
M er
Ġ} }
h ave
j i
Ġsufficient ly
Ġhead ers
me an
Ġcombin ed
at omic
}} ^{\
w arning
in valid
Ġv o
. ");
ĠCopy right
U ri
] {\
Ġy oung
Ġtem p
Ġsem i
Ġdesign ed
}} }\
A x
Ġm enu
bm atrix
Ġed itor
Ġ ).
ĠM ed
Ġapp lying
Ġsum mar
b ility
0000 00
P layer
check box
Ġi mag
Ġid en
in v
S pe
Ġre pro
Or ig
Ġbeh ind
ĠT H
Ġfollow ed
) &
g ame
ant om
Ġw all
Ġu tili
ĠU I
Ġc ame
Ġmet rics
l legal
Ġstatis tical
ma zon
ĠAcc ording
Ġne ural
Ġd ro
se g
Ġh it
Ġgrav it
br as
th ere
Ġderiv ative
ic o
as ync
f ort
Ġd a
o res
Ġcom pe
t c
) }_
y e
Ġ rap
ro s
Ġn ative
Ġexpl an
199 8
Ġener gies
; }
f c
EE EE
w orld
L emma
ing er
Ġsug gest
Ġ ,\
r g
spring framework
G en
n p
x s
h ar
ĠI R
ĠJ une
Ġto uch
Ġtrain ed
Ġtriv ial
Ġw omen
am az
ĠW ar
, ...
n odes
Event Listener
Ġtrans late
th row
is ely
St ats
form ed
ã Ģ
Ã §
Ġacc eler
ri e
Ġpro f
Ġman agement
ĠĠ čĊ
Ġg reen
Ġexp and
Ġv ehic
z a
T otal
Ġpo sitions
(' /
print ln
Ġembed ding
OR TED
pro gress
He aders
C or
ĠP ublic
enc ode
set up
ff ic
=" $
ph ere
exp ect
Reg ion
Ġre call
Ġassum ptions
s ig
Ġin deed
B B
Ġd ot
mag netic
C lear
Date Time
tr im
ank s
Ad min
ĠCon n
Ver tex
H elp
y y
ir ing
Ġs ym
> ::
Ġvalid ation
fig ures
Ġattem pt
struct ure
m oment
' ));
Ġsatisf ied
et ween
Ġ â
ĠSci ence
ĠN etwork
Ġtime out
H igh
Ġany thing
h ol
Ġde vices
d c
Ġad v
TR UE
S ome
Ġtyp ically
Ġs qu
ĠJ uly
Ġ$ ,
ĠLO G
ag ent
ac le
Ġmod ify
erm an
LO CK
Ġso ft
Ġhigh est
Ġb right
Ġu i
Ġrad ial
Ġinput s
ex tern
tif ied
Ġpro p
form ance
f old
Ġpub lished
Ġla unch
yn chron
g an
Ġh ours
Ġfore ach
test ing
script size
rior ity
Ġget ting
Ġprec ision
Wh ile
F low
rid ge
Gener ated
re et
l as
Ġdeg rees
Ġchar set
Back ground
Ġbi as
Ġcharacter istic
Ġn or
as sembly
Ġn amely
Ġd uration
Ġn ight
Ġcon sequence
li ance
ph ase
Ġst ability
o site
ID TH
Ġpredic ted
RE S
ĠApr il
} ~
ro le
Ġ> >
Ġrem ote
Ġst and
F UN
H ence
b ib
Pro gress
Ġlocal ly
time out
ĠOct ober
s quare
ĠArray List
Ġv ers
Ġder ive
pro b
ge bras
Ġinvol ved
Ġnon linear
us ers
Inter val
c lean
Ġpos sib
+ (
Ġno vel
Ġm ind
Ġf ine
il ities
sp here
c il
Ġpo ol
ĠS D
DE FAULT
Ser vices
ĠRequ est
Ġasympto tic
Ġexpression s
i ef
ĠT ra
u tive
Ġnull ptr
pl ates
G iven
00 1
se par
is tics
ĠT R
S equence
ĠPro ject
} |\
... </
et al
Ġpredic tions
L anguage
() ))
Ġis n
(' #
Ġread only
z en
ĠG reen
op ed
Ex ample
)-- (
Ġcur vature
Ġsecond s
Ġphot on
@ {
on ym
IT ION
ĠD ir
Ġn p
CT YPE
olog ies
pro xy
}} =
c li
si a
bl ank
Ġen um
par allel
IN FO
EN SE
sem ble
Ġsepar ate
re pe
Ġor th
S cal
en ers
w p
U ES
z y
amaz on
x html
H ub
Id s
w t
Ġprincip le
Ġaltern ative
Ġheav y
G N
Ġo k
Ġpr ice
Ġt en
p ower
sign ature
IG HT
Ġw arning
ed s
Ġmatch es
Ġb all
Ġis omorphism
ĠP ost
Ġag o
tikz picture
Inst all
M ove
Ġs ong
Ġsh ock
Ġf ire
T A
ĠD em
Ġp ull
ĠC EL
Ġbel ieve
ĠAn y
acu um
Ġassert That
Ġ Î
RE Q
\ }\
Ġtop ological
Ġex change
VAL UE
la in
Ġtechn ique
p ull
m ult
ĠIn c
Ġ-- -
Ġm aster
Ġmod ules
{ "
c ounter
H ow
C red
Ġf air
column width
Ġgeneral ized
Ġbul k
t ensor
a ver
Ġwhere as
Ġachie ved
f lex
( @
STR ING
Ġcom ing
C ho
Ġco inc
w all
f ol
Ġ ];
Ñ Į
Ġp lugin
i et
| }
tr ine
Ð ¼
Ġsequ ences
Ġb uf
se q
vel oper
Ġmulti p
Ġstatis tics
Ġlay out
clu ded
g le
Ġw ind
sl ant
. <
us es
M I
un defined
Sec ond
f ric
er c
ĠG eV
s en
Ġhy dro
const ant
g lyph
ate way
ĠBo olean
Ġa udio
re size
var theta
" ],
ĠE xt
' m
ĠL ong
b atch
Ġm id
Ġpop ular
u ge
Ġst ored
/ _
Ġincre ased
Go ogle
Ġw alk
ĠIn st
Ġ" $
cl usive
}$ }
Ġab ility
ĠIn put
Ġman ager
or ation
ĠD r
B ind
Ġl ack
l ig
Ġa ver
Ġmo ving
DO CTYPE
Ġout er
EEEE FF
ur a
Ġs pher
\ }$,
Ġcom ments
PRO JECT
ad es
PO ST
ĠS QL
Ġcommun ication
ĠSep tember
ĠR ep
end or
V ideo
Ġto ols
ava il
ach ing
agr ang
Ġw riter
Im port
clu ding
py thon
18 0
ir ror
L android
Ġt mp
oriz on
m k
ap os
ĠIn deed
ther n
De legate
Ġc md
Ġrg ba
Ġex it
ĠAug ust
Method s
Ġestab lished
No tification
Cons ider
get Value
ĠA m
ti le
Ġcandid ate
st an
lip se
r ich
Pro duct
iss ues
ĠSt ud
lo od
Ġconnection s
F L
Ġradi ation
Re fer
Ġunderstand ing
; ">
F ind
vis ible
n egative
Ġdimension al
Ġcomput ing
up load
Ġdynam ical
ĠS an
Ġac qu
ĠC H
: =\
ĠVal id
Ġaff ect
ĠDec ember
Sup port
An imation
Requ ired
spec tive
Ġc yc
ĠM em
ĠV ector
; )
\% $
' ll
nos tic
Ġcon centr
ustr al
Ġcomput er
pl ane
s ocket
ar ith
Ġp icture
um my
get Element
Ġread ing
kw args
US ER
Ġext rem
Ġre leased
Ġre li
Ġde ath
option al
ap an
Ġvari ance
Ġco ol
ĉ čĊ
Perm ission
ĠGener al
ĠE ND
Ġsyn chron
eli hood
Ġop acity
T x
B L
ME TH
Ġad ap
vol ume
ĠP ath
y a
Ġab und
check ed
Ġh ol
][ ]{
avel ength
S F
par ticle
O ther
Ġiter ation
ot ing
Ġinst alled
Be an
ack son
L imit
Ġst och
Ð ´
Ġign ore
) })
Ġdi ver
L en
multi row
ĠN ove
st at
= .
ĠM ich
U D
ĠV is
ti vi
Ġ\ "
ĠRem ark
Ġcos m
1 10
Ġlist ener
SC R
Ġgener ator
Tag s
overn or
R o
En umer
ĠTr an
ĠW rite
Ġt al
ce pts
ĠNove mber
Ġsub sequ
l li
Return s
m its
ĠP ark
ond on
' ve
ul ator
Ġcomp atible
ub ble
Ġw rong
! \
Ġpattern s
Ġmax im
F in
'] ['
X i
å Ī
Ġdes c
Us ers
op ts
S ample
orig in
og onal
gr ams
At t
NavBar Font
SS L
Ġeigen values
sub sec
ĠCol lection
ob jects
Ġpers onal
Ġcom mut
Ġnormal ized
att le
mm utable
Ġb rief
. \\
Ġbegin ning
l f
Ġann oun
ĠOn ly
Ġaccur ate
Ġsuit able
F ragment
ĠĠĠĠĠĠĠĠĠĠĠĠĠĠĠĠ ĠĠĠĠĠĠĠĠĠĠĠĠĠĠ
Ġexec ute
j a
group s
Ġcomp ar
her ent
over view
anc ial
it o
amet er
equ ations
Ġcon vert
p b
Ñ ĭ
= $
Ġapproximate ly
ierarch y
Ap pend
Ġred shift
Ġt ax
Ġt x
E ff
Ġgrav ity
A ut
Ġcomput ational
Ġhe at
Ġp atch
Ġparticular ly
Ġobj ective
s lice
Ġth roughout
Ġsur vey
Ġexp ort
lat form
: [
i em
Ġb its
sup ported
Ġs ector
select or
Ġin d
comp are
Ġtyp ename
ir th
ĠT w
Ġd t
METH OD
Ġpro pose
Sk ip
Ġbehavi our
ĠG iven
Ġtransp arent
m ical
St op
Ġd ust
ĠO f
ipp ed
ro ke
ed uler
Ġbr ing
ang ing
lement ation
^{ (\
bo ost
ĠEx p
pol icy
R PC
Ġc amera
H o
g re
is on
P ub
ĠS ta
Ã ¼
End point
Ġre set
trib uted
il s
Sp an
INS ERT
Ġrap id
Ġquanti ties
Vol ume
AN G
Ġop portun
Ġvalid ate
rop ic
P lay
SE LECT
Ġspec ies
Ġis ol
ĠC enter
Ġdist ingu
Sup pose
the tic
rup t
ĉ ĠĠĠĠĠĠĠ
M ask
Ġd ashed
M ouse
ĠEx ec
Ġp ages
Ġle ave
Ġen v
no v
lo ss
lo aded
» ¿
g ather
W allet
co up
Ġelect ro
Cond ition
play er
Ġfind ing
con sole
ell ing
ï »¿
Ġprec isely
T wo
Ġcorrection s
Ġarchitect ure
" /
plic ations
Ġcontr ad
RE G
not ag
ĠÐ ¿
pe ar
Ġall Classes
or ded
down load
Ġapplic able
Ġw ar
s ync
Ġdis per
Ġcre ating
libr ary
t an
ĠallClasses Link
B egin
re port
Ġquan tity
r ank
an aly
ĠM ake
Ð ²
ĠB er
C B
S V
l ings
Ġh ot
Ġcap acity
A li
12 5
E mail
is ot
Ġweb site
Ġed uc
ish ing
VAL ID
resol ve
ĠI sl
Ġm d
tri angle
n def
ĠH iggs
Ġinter section
^* \
ĠR us
Con ver
agrang ian
ad y
ari os
side bar
Ġdepend encies
ro ute
( -\
******************************** ********************************
ign ment
ĠE ar
Ġo pt
Ġrefer ences
d iffer
Ġresol ve
Ġinter ested
Ġsys te
Ġj et
I gn
j ust
Ġdetect or
un ing
DE BUG
ĠN AV
L i
to uch
Ġstoch astic
ĠC R
Ġs il
t f
ĠAN Y
Ġpro ceed
Ġro ute
ĠEx ample
ri ends
s b
Ġth er
k in
" ].
Ġevery thing
ĠFound ation
\ |\
INT ER
T w
sk i
vari able
S K
Ġp en
Ġf riend
up s
2 13
Ġl uminosity
Ġfluctu ations
T F
Ġass ess
il bert
' ];
f ire
Serial izer
w ave
ĠS M
A re
Ġs af
ti sh
ult ane
CO MP
an imation
Ġmonth s
Ġtry ing
Ġequival ence
Ġh ope
k l
N ative
ĠM et
MO DE
Ġrepresent ing
pos es
Ġtechn ology
Ġinflu ence
run time
ĠS IZE
tit ude
ic ies
s a
j et
Ġd river
P UT
com mit
orig inal
g rav
are t
n es
corre ct
Ġrela x
al ed
Ġtrans lation
. ",
y r
ur able
ach ment
ĠD at
ĠS m
Ġsp ect
ap es
n eg
D ATA
ĠDE FAULT
W ORD
rain ts
ĠLo cal
Ġcom b
ĠSt art
Ġw orth
im its
cal endar
duc ible
d k
i os
ĠIntern ational
Ġthe ories
# {
B atch
ĠK e
= [
Ġf reedom
ĠPro cess
ĠB ay
Ġthan k
ĠAr g
Ġw ent
method s
br uary
Ġdefin es
Ġlate st
Ġpr ime
ute x
sh ell
g res
S N
ph antom
Pro gram
Ġsc ene
serv able
ĠAs sembly
in n
Ġpre vent
ap is
i pe
Ġp lease
Al low
as y
Ph ys
eff ect
Ġint ensity
N ormal
Ġinvestig ate
}\ |
Ġmin utes
/ .
el astic
Ġcon sum
urre d
r an
abe led
ĠM icrosoft
s ure
=\ "
Ġag greg
Ġ$\ {\
10 1
st ates
Ġassum ing
ä »
(" /
g oto
Ġb ind
$- $
) ^\
ens ors
math it
Ġcan cel
Ġequ ality
~ (\
on ce
Ġ' \
text color
Ġtop ic
tivi ties
is son
lect or
a el
ĠEng lish
oci ation
comp ile
if ndef
M is
d irection
ĠM ag
A udio
ĠIN TO
G P
Ġtra de
Ġ( [
ist og
Ġpre t
ac tivity
ĠD B
Ġconfig urations
Ġdis cre
ĠD O
Ġinter pre
D ictionary
Ġs ql
la w
il ing
oun try
ro om
si vely
cor ollary
d river
G ER
ĠW est
ĠP ub
ag ue
Ġ eng
es ome
Ġro ugh
valid ate
="../../../../../../ ../
N amed
Q U
reg ular
d uration
Ġperturb ation
DO M
St andard
z ure
se p
go ing
Ġ ðŁ
ĠB ri
Ġop ts
Ġt sd
E ST
Ġr ise
ex pression
i ans
ĠM ulti
Ðµ Ð½
Ġm oney
ĠB it
Ġr ational
us ted
Ġsc roll
ry ption
L R
Ġs b
ĠS ur
ĠCh ris
Sh ape
More over
conn ected
L ower
AN CE
Ġus age
Ġar t
ĠCon st
ass andra
Ġf ragment
D b
Ġplay ers
Ġprov ider
el t
ab out
h l
con structor
me asure
Ġread y
Ġdis abled
} >
Ġd ict
/ "
w d
ĠCoun ty
Ġb eg
ĠP RO
Ġd ie
Ġdocument ation
199 6
ĠNAV BAR
Exec ution
ĠReg ister
ist ency
Ġprov iding
Ġhigh light
dest roy
Ġfeed back
En ter
ĠS uch
ĠD on
ser ies
onom y
Ġevalu ated
ĠH ouse
Ġsite s
Ed ge
ĠPro perty
re ce
Ġcur sor
Ġrec ur
Un known
Child ren
Ġsh ell
Ġlo st
st andard
Con structor
Ġsign als
Ġstr ateg
25 0
requ ency
ĠT echn
Ġstar ts
Valid ation
ĠS um
re v
al og
phot on
$. }
: `
cor por
ser ve
Ġs om
Comp iler
R T
ĠS E
Ġcon figure
Ġcon tribute
d ig
et o
Ġelectr ic
T er
F lag
ĠK ing
per iod
Ġdefin itions
Ġcomp leted
in herit
æ ľ
Ġpro ps
Ġd ense
cl one
P ublic
^ ^
are a
Jo in
ĠAl though
! ]
th ick
ann ed
D iv
co res
G EN
ok ed
mer ge
ĠF ROM
scri be
re me
ĠVAL UES
IO Exception
Ġk m
Id entity
Ob jects
al actic
Ġ\ ,\
present ation
Input Stream
/ {
bas ic
stack rel
Ġv acuum
Ġsuccessful ly
li k
Ġflu id
N UM
Ġ ×
p aper
ud get
Ġexplain ed
ĠĠĠĠĠĠĠĠ ĠĠĊ
Ġf rag
ful ly
Ġnuc lear
por ter
text up
str y
Ġdepend ent
Ġdo ub
, '
f etch
Ġph oto
I LE
tiv ated
mem ory
Ġcaus ed
con ver
in variant
Oper ator
e ven
nos tics
H C
bold math
ĠOption al
ing ton
ĠAL IGN
Ġ _{\
M F
aren ts
ond er
Ġan imation
199 7
^* (
ok ing
si p
Ġgiv ing
Ġe vol
) }.
ĠC ap
Ġtra vel
c ross
6 00
Ġiden tical
ile vel
& -
Ġc y
S ql
Ġmed ium
m ouse
anch or
Ġde mand
In v
Ġgener ating
Ġacc re
G ame
ace book
Ġsup ports
own er
mon th
oci ety
æ ĸ
S yntax
Ð° Ð½
Ġthe ms
Ġo wner
Clo ud
Ġ' '
H ome
Ġcomp osition
ab c
Const ant
n ob
back slash
ver tex
| ^{
An notation
h fill
S ave
Mem bers
ins ic
scripts cript
Ġpro files
H istory
ar a
ĠS ource
s r
Str uct
Ġc ategories
it a
D river
scriptscript style
u zz
ĠP aul
Ġadvan tage
ven tion
% "
Ġfact ory
Ġthems elves
Ġh eld
Sh ort
ret ch
Ġversion s
m f
Ġhypo thesis
Ġdescri bes
Ġ@ "
Ġgravit ational
ver tical
av en
ĠA ustral
AR CH
is Empty
Test Case
S hould
riter ion
ĠD ocument
exp and
M IN
Ġh orizontal
Ġte s
Ġpolar ization
ĠP age
ĠSo ftware
Ġf ood
Ġpixel s
}{ *
comp lex
)} (\
ne utr
u ages
Ġst ress
ic ode
m essages
om ents
ĠPro gram
Ġtop ology
po site
ext end
W ait
h ard
te sian
ex it
Ġsup pose
D ATE
in teger
. $$
S ur
Valid ator
uc ial
tr ict
Ġbal ance
| $
spec ific
Pro v
F ocus
Draw ing
Ġle d
ĠA fric
BP ACK
z ip
ii i
) >
N C
Ġen h
oper ation
F l
Ġan not
M ake
P ers
re lease
Ġcont ents
h aps
Ġf mt
P M
ex pr
f actory
Ġme et
S creen
Ġnear ly
Argument Exception
Y Y
Ġbo ost
ĠCol or
Ġsol ar
Ġl icense
am el
Ġcre ation
Ġan om
the less
Ġrequire ments
Ġmix ing
ote s
Ġso on
_{ +
ĠAmeric a
Ġed it
cus sion
if ted
te gr
Ġ' ';
ĠT em
Ġturn s
Ġmer ge
am i
Ġap ilevel
ĠB ig
Ġform ed
Form s
Ġtre nd
Ġassign ed
NS String
St ar
ordin ate
z h
Ġ" ";
Ġa ud
ĠH er
Ġtag s
&= &\
Ġ_ ,
Ġs lo
Ġselect or
char acter
Ġno ted
ĠL i
at o
per son
Ġ_ .
Ġpar ty
Ġto wn
LO C
C ONT
ORD ER
Ġsup ers
or i
sp her
grad ient
dat abase
dis able
OR Y
Ġs n
Ġche mical
high light
Ġto ld
Ġ" ",
ons es
Ġj us
) (\
() ),
E s
nav igation
ĠU K
> "
_ );
de precated
w ill
know ledge
Ġord ers
ĠB lock
Ġrun time
getElement ById
e lectr
Ġexplan ation
Ġbec ame
Ġpack et
trans action
tain ing
as te
ce pted
A SSERT
ĠSup pose
En vironment
Ġsugges ts
Ġh alo
d ynamic
ĠAp ache
ĠS ets
ĠH is
, .
Ġrec ords
j Query
th rift
Ġb ur
Ġimpro ved
B al
< <
in er
EL D
sub mit
& &\
down arrow
En coded
S l
Con sumer
ĠSh ow
Ġmon itor
ĠT V
element s
; |
\! \
Ġs ex
Ġocc up
Ġent er
Ġ' ',
Ġcontrol s
d ensity
R ate
Ġg lu
sp acing
Ġneutr ino
Ġl isted
c atch
Ġis ot
ĠL ine
Ġpl us
C LASS
Ġquad ratic
for Each
sh arp
Ġz one
v g
Ġ' ./
N umer
Ġuniform ly
( .
Ġs afe
Ġsp read
ĠHe alth
ĠAnd roid
id a
Ax is
ĠA ct
fin ity
Ġar c
; "
r as
F older
Null able
\| _
C ard
' _{
Ġrestr iction
ĠU N
C ounter
Ġnav bar
g overnor
Ġel if
valid ation
Ġ ens
F N
face book
de ep
Nav igation
F n
il led
Ġun ion
Ġcheck ed
AN T
ĠBl ack
ĠL ondon
org an
Ġcomp lic
n y
ĠP H
I A
ĠCons ider
ĠB ack
P Y
b re
e a
Ġm es
cre ated
ra ise
Ġge ometric
ĠF ourier
ĠX ML
b t
{ (\
Ġinter mediate
OP T
Ġf avor
ĠA S
ĠC A
Ġd am
B asic
Ġc ast
pol y
ĠP R
cre ens
sur face
" },
Ġde v
ati o
sp irit
re ct
ĠE lement
Ġcall ing
ç Ķ
Ġidentif ier
typ ename
M s
Ġpos sibility
p ages
Ġag ents
'] );
Ġaddress es
scal a
$ ^
e lem
ub er
lic ense
ation Token
Ġep is
Ġ" %
Ġcon duct
rad io
Ġsc i
Ġde ad
con v
Ġph ases
ĠSt atus
D IS
Process or
Bo ok
Ġsim ultane
G eV
B inary
Ġcoup led
sc opic
C V
Ġad op
ce il
Ġd u
ĠFe bruary
avail able
Ġsur pr
Depend ency
& =\
Ġdest ination
l ated
Ġj s
ĠM er
ul ty
Comp at
DE F
Ġt ail
Ã ¶
b log
ap ers
Ġtran sitions
/ ">
Ġplan et
Render er
ĠH ol
comp ute
Cont ents
n i
ĠĠĠĠĠĠĠĠĠĠĠĠĠĠĠĠĠĠĠĠĠĠĠĠĠĠĠĠĠĠĠĠ ĠĠĠĠĠĠĠĠĠĠĠĠĠĠĠ
ĠC lient
~~~~ ~~~~
Ġdevi ation
WE BPACK
c lip
Ġperiod ic
Ġ\ [
? ?
Ġinv est
u uid
The me
Ġdirection s
] =
199 5
B inding
Ġcons tit
Ġindu stry
Ġchang ing
pre dic
ĠC our
Ġpl as
ĠWindow s
ĠW IDTH
Not Found
Ġen jo
Ġmark ed
d irectory
Ġim plicit
}$ \
Ġoff icial
load ing
cont ents
ON G
ow ers
if iers
velop ment
Ġpub lish
ins tein
$ '
Ġre asons
Ġup dates
C md
m ix
XX XX
Ġalgebra ic
Ġ$ ^{
ï¼ Į
$ ^{
' d
] +
Ġre served
M aterial
Ä ±
i ar
re act
te e
O wn
de termin
Ġcar ry
w atch
Ġc ub
Ġre ached
ĠDe lete
L C
Ġp od
Ġlow est
os er
P od
S G
am ing
SCR IPT
mun ity
Th row
t ar
h old
Ġac ts
Ġmod al
aw a
Ġre p
rela tive
Ġpati ents
ID E
k ernel
. """
ĠW AR
Ġpro to
> )
Ġuncertain ties
ex amples
Ġdisper sion
po inter
Ġden sities
} /\
"> (
prop to
p an
log o
Set ting
: @"
pk g
mult line
Ġm ul
Ġnecess arily
ĠCh rist
Ġper missions
s un
an ded
IMP ORTED
up arrow
N V
Ġun iversal
Ġimport ance
C enter
] ))
v ille
n ol
er ve
v in
l p
}. }
ĠV ari
ĠRem ove
ĠL ink
ĠJ apan
se lection
enti ties
a udio
Ġconj ug
ĠL com
v let
Ġqu eries
is set
Ġw ish
Ġcar ried
Ġadj ust
ĠPres ident
Ġanaly tic
Ġpredic t
B IT
ject ure
Ġc odes
ĠC he
Ġ Ø
Rem ote
W ord
Ġdemonstr ate
C ALL
sc ape
Re al
ĠB ecause
con struct
Ġw avelength
Ġfrequ encies
Ġ ">
d ark
Ġdiff usion
Map per
8 00
ĠD el
Ġexpect ation
Ġin corpor
Ġtemper atures
ti tions
Ġcontinu um
PH P
ho ok
ĠM ock
ĠI llegal
Ġfor ces
Ġredu ces
ren ch
ac ob
ĠOr ig
% ,
f ast
an alysis
Ġtr uth
bin om
ĠA mazon
å ®
Ġlo aded
W orld
å Ĳ
tig ht
Ġtrans mission
y al
Ġh istor
footnote size
arg uments
hav ior
ĉ ĠĠĠĠ
Tim er
Seg ment
le f
}) ^{
tect or
Ġinter pol
*} [
spec tr
ex tra
ti an
ĠĠĠĠĠĠĠĠĠĠĠĠĠĠĠĠĠĠĠĠĠĠĠĠĠĠĠĠĠĠĠĠ Ġ
we ak
Ġbas eline
Ġpseud o
ĠAir port
Ġform ulation
uf act
$\ ,
Ġal bum
up per
ĠT op
Add r
Ġno tion
L iteral
R aw
ail y
ti st
s yn
Û Į
Ġorth ogonal
cal cul
Ġview s
te l
f b
ĠS en
Ġ< -
ĠF ind
Ġask ed
pl ain
Ġ' .
F ree
bo se
M icrosoft
hy per
o ols
get Id
fe ed
] ^
wo od
Ġcom m
66 66
HE AD
Ġin sert
Ġhom ogeneous
Ġgu ide
Ġcon tract
Ġf etch
U ST
Ġl ies
ĠCom mand
Ġmath ema
he ets
Ġfail s
Ġhapp ens
}{ {\
ĠD avid
Ġstraight forward
ar ded
P rivate
ĠI tem
common s
Sta tic
gg reg
ĠC ustom
stit ution
Ġloc ations
st one
Ġdel ta
ĠL agrangian
Ġlog ic
ma ps
Ġcry st
Ġsome one
ĠY our
ti os
Ġscen arios
Ġsk ip
Ġpropor tional
ear ning
ĠW IT
Ġop posite
Ġa sp
ĠS ign
Ġderiv atives
text sf
Ġs ync
B order
li ps
Ġelectr ons
Ġtrans verse
D rop
ph as
Ġmod ern
Ġd ialog
ph rase
Ġpro jects
erm i
f act
.... ....
iem ann
glyph icon
ĠM edia
ma pping
Ġcommand s
ot or
I AL
C ur
Ġneighbor hood
P OS
Ġend point
ynam ics
ĠSe arch
s el
b lob
po le
$\ \
MA P
ĠRes ponse
Fail ure
Ġm acro
at ar
Ġe poch
st ud
CON FIG
lip tic
ĠDes cription
> ;
STAT US
u v
ut down
g h
to Be
ĠCor ollary
ĠN ext
{ |
if i
ĠD ay
Ġcorrect ly
in x
cri pts
Ġp ipeline
ens ing
Ġcon volution
N ET
Ġe mit
ak es
Ġsus p
anc er
g on
FF ER
L ight
ific ations
Ph one
Ġthe me
ĠU s
IN ST
U nder
Ġirre ducible
run ner
small skip
And roid
T Y
Comp lete
Ġc lock
p ad
H tml
Ġor ientation
Ġr ig
ry pted
{ .
Ġtrad itional
del ay
D iff
left arrow
Ñģ ÑĤ
Ar ch
int ro
Ġm obile
t b
un ct
ĠP ort
ĠWAR RAN
F P
ic ensed
ĠL aw
}^{ +
Ġpret ty
remark s
la use
(" #
Ġ' %
Ġm or
Ch ain
In formation
Ġt d
Ġm anner
ĠA uto
B bb
inter val
Us age
=\ {
lli j
in cre
Ġquick ly
ol ic
Ġindic ated
Ñ ĩ
Ġsom ew
Ġro bot
ati bility
Ã £
P ixel
Ġn ational
el ian
ĠN av
Resol ver
Ġt ang
ĠAr ch
ĠAl gorithm
H older
Ġfr ames
Ġst ated
Ġpo or
S napshot
ĠT er
Ġmaterial s
de cor
Ġrecon struction
place ment
Ġfamil ies
Str ategy
Ġat omic
Ġsol ving
Ġfit ting
f p
ĠCh ina
H om
inte llij
Ġ ri
Ġpoli tical
Ġhe art
sub ject
F act
Ġpay load
Ġb enchmark
DE V
Ġinitial ize
ĠIn formation
tiv istic
Con sole
Ġsome times
Ġsign ed
Ġacc omp
ra ded
ir ical
op es
stan tial
Ġplay ed
S W
a tic
AT TR
A g
assert True
T ouch
Ġcho ices
Enc oding
Ġo l
n m
Ver ify
ĠSec ond
A UT
Ġcharg ed
E P
ĠM or
G O
,... ,
Ġ les
) _{\
LI ST
Ġc ampaign
h ips
ra pped
Ġ" .
ir t
em bed
En v
Ġmain ly
lo ating
AT ED
ver b
Bo ol
dis patch
Tim estamp
Ġ ~\
Log in
Ġorder ed
ĠDefin ition
Ġres idual
Over view
ry pto
i lo
Ġapp arent
Ġb inding
Ġretr ie
Ġcorrel ations
f actor
tiv ate
LO W
Error s
ach es
ĠOut put
Ġabsor ption
M essages
Ġcon version
Ġat oms
i as
Ġf ight
ent ation
Ġ> >>
S u
column s
view port
å ħ
Ġband s
cf g
Ġh orizon
l ab
Ġtra ffic
lec tive
12 7
Ġf aster
ĠW il
Am ount
re ader
Sign ature
e ks
Ġessential ly
Ġsen sitive
corre spond
Ġsur v
\ },
Line ar
Comp arison
Ġent ang
ex perim
Ġequ als
g if
par ts
Ġdecre ase
ĠV ol
ĠSer ver
Ġd rag
D rag
Ġreg ression
a ud
Ġper mut
f ake
Ġpolynomial s
go od
Ġlook s
Ġoutput s
c le
Row s
al ert
Ġc atalog
Ġintegr ated
f mt
Ġclass Name
UN D
Ġindic ating
dist ance
grad le
ĠPh ys
Ġm esh
ĠM ain
mem bers
cre d
Ġsub space
Ġcandid ates
ac cept
Ġconf idence
Bound s
Ġex am
Ġlo ading
HER E
Ġ{ %
Ġdest roy
Big g
Group s
ĠAb stract
Ġwe ighted
head ing
ĠAp plication
s ass
Ġallow ing
n ative
Ġs aw
aj or
Ġres id
Ġmolec ular
tr ight
depend ence
lic enses
Ġstrict ly
ĠG od
ĠU nder
Y ear
ĠC G
ĠTr ump
Ġinter act
C ursor
ĠG raph
h ow
ĠT wo
T ick
Ġs ocket
Ġco verage
Ġt rees
Ġb us
en ed
Ġb ug
Ġs phere
Ġsepar ation
Ob server
n c
ol ar
g z
Ġt alk
R andom
A E
V E
Ġat mo
h d
du ced
Ġdecre ases
Ġst ats
Al loc
Ġextension s
Ġf oo
are st
Const raint
Ġ ĉ
log ging
ong o
Ġdeli ver
ac ent
: '
Ġextr acted
P lan
**** **
ov a
Ġtempor al
Ġsen sitivity
Pre v
Ġfin ish
\ }.
all ery
is o
Lo op
Ġdown load
ri al
re pository
G ui
string s
An aly
On ce
Ġvari ations
ĠO N
A ST
Ġpossib ly
dis tribution
Task s
ĠF ix
Ġmin or
Ġfilter s
ĠG R
Ġorbit al
.* ;
Ġcond itional
BU IL
uff ers
Ġw anted
ĠDe partment
Ġl iving
ile s
ĠS N
qu ark
Ġqu ar
A ng
ĠConfig uration
F ix
Ġdiag rams
and er
Ġprec ise
Ġpl aced
Ġsymbol s
ĠQu ery
Ġbreak ing
Extension s
Ġexplo re
uc lide
199 4
re po
sc ore
tw itter
S ame
per ature
Ġsugges ted
Ġun iqu
Ġrequ ested
Ġf em
C aml
ag o
it ness
ur ally
Ġlimit ations
b us
lib s
ĠC OL
t z
if orn
RE E
) }$.
Ġinterpret ation
ĠC ase
tright arrow
ff f
Error f
Ġmodel ing
Ġcompan ies
RE D
B ottom
Ġembed ded
F uture
repe at
Ġcan cell
\, {\
ĠBo th
ĠĠĠĠĠĠĠĠĠĠĠĠĠĠĠĠ ĠĠĠĠĊ
ĠH y
m iddle
k t
B Y
Ġen umer
rem ote
10 24
Ġrestr ic
ĠH o
Ġtre ated
Ġsur faces
pro gram
p id
ä ½
Ġcon sequ
ll ig
Ġrespon sible
un iform
Ġref lect
De precated
sh al
uclide an
plit udes
er ved
ĠE mp
ĠCre ates
$ }}
sp aces
Ġ{ },
ĉĉĉĉ Ċ
Ġsepar ated
Column s
ĠD irect
MM ARY
ĠJ son
Ġinte gers
Ġd s
ass um
ĠA uth
p d
Ġ ----------------------------------------------------------------
qu id
Ġproper ly
De p
Ġdomain s
ĠC P
_{ -\
pre vious
ĠL eg
Ð¾Ð ²
Ġlearn ed
Ġtrans formations
Ġlog ging
ar ity
al so
Ġrepe ated
ĠSt ar
link s
create Element
ĠW illi
i ma
ĠF OR
ate ll
Ġcover ed
Ġf o
ĠCo q
ĠS imple
pos al
Ġas sembly
Ġex cite
AT CH
S plit
U V
Ġtri p
em on
j k
Ġgr ant
Ã£ o
Ġ$ _
var rho
can vas
Ġaff ected
Copy right
S ort
ĠPh il
ĠSup er
ic a
ĠSt andard
ok ies
De pth
Ġd rive
/* !
ph y
R C
Ġferm ion
Conn ect
tim estamp
w arn
gu ide
ĠI mp
Ġsim ulated
rain s
Ġcol lect
or ter
ãĢ Ĥ
DE X
Î ±
Ġre pository
ĠG ame
Ġc riteria
Ġcoll abor
Ġprincip al
D ay
ar se
ĠEurope an
Ġvary ing
AR D
Ġf ol
az y
Ġcomp lement
on omic
Ġcon clusion
Ġpre v
Ġm arg
(" %
table block
Ġapp lies
Ġt end
Ġmorph ism
new line
bel ow
ree k
urren ce
Ġtr unc
ob s
;| &
Ġexper i
te am
ĠEq s
st on
m x
Ġt urb
Man y
Ġbo ard
S ite
Ġrandom ly
w br
EN V
ĉĉĉĉ ĉĉĉĉĉĉ
n of
ĠN or
ati s
Ex ists
Ġtrans actions
ss ue
um ul
Ġ\ {\
Ġm oments
r pc
Array List
Ġdiffer enti
Ġ{ $\
amp led
Ġch iral
Î ¿
Ġsec ret
ĠCont rol
Ġin ference
ipp ing
Ex port
Ġsub stantial
.& .&
us r
fr ont
Ġmet all
phys ical
Ġro ad
und ers
at ural
Ġdis e
anc ell
Ġaccre tion
Ġdisplay ed
Ġrestr icted
Ġcoup le
know led
Re lease
D irection
c assandra
Ġinst ant
Ġchall enge
Ġt ro
ĠH ilbert
Ġ| =
Ġregard ing
an es
Ġdefin ing
Ġal one
e b
ĠB ro
Ġre ports
ĠM r
ĠB el
ĠD M
fol io
Ġh elper
__ )
es tern
Ġv or
Ġ\ }
Ø ±
Ġar r
ele br
iforn ia
b etween
ĉĉ ĠĠĠ
od d
an ced
Ġtim estamp
ing ly
Arg uments
Ġplay ing
os h
Ġpur poses
Ġsc ience
Pro position
Ġra tios
Ġread s
Ġmov ie
0000 0000
w riter
Z one
th ree
Ġs napshot
Ġstud ent
om as
L ib
at z
def n
ĠCol lege
Ġh on
um ps
w er
ens us
ĠCoun cil
ĠPy thon
Ġcol ors
Ġdisc r
Ġad vers
Ġdist ances
Ġsecond ary
l m
Ġmo ved
in ity
ic ator
ho use
Ġpo ster
}^ +
ec tivity
ĠPo int
Ġdis able
ĠP art
istog ram
Ġ rac
}[ !
ĠCon text
Ġ ig
^+ $
Sh ared
ĠSt reet
AC H
( --
ĠInd ia
CO MM
sub equations
sup p
Fr ames
ĠL java
ĠP M
lear ning
k top
( ['
> '
Ġimprove ment
ia tive
Cont act
ĠA ng
Ġm us
Ġanaly ze
. (\
Doc trine
Ġeigen value
Ġfin ancial
Ġmost ly
Ġ\ |\
ĠC SS
ab ove
Ġover lap
Ġex ceed
Ġide as
re p
Ġg ir
alle st
st ood
os sible
in dependent
Res et
Ġcoup lings
Ġcomp letion
pt on
class Name
à ¥
R ot
Ġn arrow
im itive
ĠD OM
ĠE ast
A F
BU FFER
ĠF in
Ġse ven
ĠIn stitute
ĠJ ust
lec ts
ER S
Ġinvol ving
des ign
or ge
UN T
c n
( ()
Ġtechn ical
ĠE ven
Ġpro grams
ĠP al
Con tains
Ġch art
Ġth in
alt Color
L Y
Ġlog arith
r ink
ĠF acebook
ch es
c as
) }$,
ition ally
ĠRes ult
Ġbeg an
mid rule
F ore
Ġenh ance
E Y
P G
str uc
Ġbelong s
uplic ate
}{ }
t ur
ĠTh read
Lo cale
R UN
ĠEqu ation
We ight
ad oc
Ġiter ations
Sh ader
Ġcol lected
omorph isms
ch art
Be en
Ġf its
Ġreason able
stri p
ĠSU MMARY
u ation
Ġr ich
bo unded
ct ree
ĠVAL IGN
au x
The y
gener ator
Ġover flow
top ic
ilit ary
[ ]{
x sd
Ġcoun tries
cc c
Ġlet ter
> %
;\ ;
B M
99 99
}) =\
id ge
Ġdiv is
ĠM ost
t l
}) )
al ing
Ġg ave
IC ATION
A bout
und red
Ġal gebras
Ġtraject ory
A SE
P D
Ġdis patch
g iven
Dis patch
FI ELD
= %
Ġexp orts
sol r
Po ints
Gener al
r ules
Ġb re
\ }_{
leq slant
od ay
M aster
ad io
ĠP ass
m es
L icense
Ġimp lied
ĠC ore
anc ing
Ġsyste matic
Ġtarget s
Ġoff ers
v p
Ġcharacter istics
Ġstrateg ies
Ġcomp iler
get Instance
Ġj ud
st age
Option al
we et
Ġimp ly
ers hip
ĠCan ada
Ġim g
Ġs ending
ĠP lease
Ġcon v
ĠSim ilarly
fore ach
Ġh um
Ġrefer red
S m
Ġ' "
ĠBy te
Ġn a
p ixel
T erm
Ġp m
ĠĠĠĠ čĊ
trans late
P latform
e per
B ased
our se
b or
Ġstate ments
LIC ENSE
R S
Exp ected
app ed
bin ary
RA Y
Ge ometry
ĠĠĠĠĠĠĠĠĠĠĠĠĠĠĠĠĠĠĠĠĠĠĠĠĠĠĠĠĠĠĠĠ ĠĠ
ĠÐ ²
Ġcosm ological
xy gen
Ġem phas
C ancel
con vert
date time
ĠC lear
= -\
k g
' },
ĠL ife
Ġin clusion
Ġre action
big cup
ĠC a
Ġcost s
he el
AT OR
11 1
Exec utor
H D
j b
refer red
ĠI ter
Ġl ie
l int
) ",
Ġtes ted
am ond
um es
rag ma
Ġestim ator
par k
Ġrecomm end
Ġsim plicity
valu ation
cond itions
Ġperform ing
ĠD en
em as
Ġto t
= &
Ġsch emes
in os
Ġat om
CRE ATE
nol imits
Ġgener ators
f ac
Ġsubsequ ent
rack et
W IN
ym er
met ric
en te
ut ter
h ed
th rough
Ġa ria
W atch
TR Y
Run ner
SS ION
Ġf s
ĠD A
Ġadop ted
In struction
Ġan chor
bind ing
C ref
al d
Ġsimilar ly
Ġto kens
Sw itch
C s
\ [\
Ġpl aces
ĠQ ue
Ġfin ished
ĠST ART
valu ed
ĠQ CD
_ )
lic t
label s
ĠLo ad
> $
Decl aration
Ġdes criptor
Ġdire cted
d jango
================================ ================================
SO UR
Ġw ire
p ref
ĠF ree
ti zation
Ġplace holder
Ġfun ctor
199 0
tific ations
ĠC r
Ġlik elihood
T L
HO ME
ĠG lobal
cont act
Ġign ored
oun ted
ĠL in
em it
Ġvers us
Ġs it
ta ke
5 12
ge o
Ġphot ons
viron ments
ĠB uilder
199 3
ĠJ S
Ġw x
se y
w a
str ict
> ()
R a
Ġsta y
ĠR et
Ġs cores
Ġs ides
Ġinterval s
Auth entication
Ġan isot
An alysis
y er
s ess
ill er
ro uter
Ġa st
tem por
ĠS un
Ġis omorphic
ĠĠĠĠĠ Ċ
Ġturn ed
Ġsem antic
X Y
ĠCont ent
| _
En able
math tt
p otential
Ġca ref
as p
Ġre normal
Ġs aved
j ax
M ag
tool tip
Tran sport
ĠWh ite
writ ten
pro blem
enc oding
ĠM a
get Type
> `
ĠM ac
cite alt
Ġmon ot
Ġ tight
ĠE V
NO DE
sh are
Ġf riends
Ġneutr al
ĠS H
Ġsol ved
Ġsk y
Ġre member
>< !--
Ġcontrol led
Ġcon formal
Mon th
Ġm ys
fl ush
Ġpanel s
ay lor
c ert
Ġag reed
Ġgeneral ization
Ġph one
c ancel
h pp
Control s
Ġin iti
Ġf ake
m ms
è ¯
Conver ter
Ġsp ent
ues tion
ĠSt ream
Ġm ouse
Ġtext ure
m obile
Ġte ach
Ġpi ece
L ibrary
Ġpro ton
ĠA rm
Ġa ug
ĠCom mon
D om
un ately
sk y
d ashed
Ġdomin ant
F ixed
un lock
UE ST
T uple
Ġ uri
j ackson
Ġprof ession
ĠBri tish
ĠO S
sol id
Ġend s
mer c
Ġf older
Se par
Ġpass ing
pend ing
p ared
f older
han ced
b ro
Ġreson ance
Ġmet al
h u
Ġregister ed
el come
V AR
Ġhim self
ĠU RI
flu id
Met rics
Ġunit ary
F OR
Ġge odes
Ġbro ken
P romise
c laim
ĠClass es
nob r
Ġdig ital
Ð ¿
Rec all
}} ,\
ec es
R GB
iv il
ap l
og en
Ġprac tical
Ġto ward
Ġc lip
mo tion
Group Name
fe atures
Ġprom ise
Pack et
: #
C N
Ġ' _
Ġevent ually
Ġenc ounter
Ġencode d
Ġeff ectively
oti ent
edu led
II I
Ġam plitudes
Ġconver ges
De v
ash ion
ĉ ĠĠ
D irect
Ġabs ence
in ed
A SS
th an
LA Y
Ġch unk
B its
Ġun iverse
ĠS y
AV E
process ing
Ġevery one
Ġprior ity
ĠH all
onym ous
Mis sing
Q ual
Ġattack s
Ġocc urred
d z
Ġg lob
ro te
Par tition
dis k
du al
PRO P
z es
F il
Ġmajor ity
ri p
V irtual
Ġenjo y
Ġd y
de code
ell er
ĠM al
ixt ures
Ġad apt
Ġconven ient
u ction
eder al
Ġs al
tim eline
ĠR iemann
Ġrot ate
Ġrequire ment
Ġ( %
Ġpar sed
D imension
* \
Ġc b
rain ed
in ction
Ġindu ction
Ġsta ff
Ġb ary
Ġinvestig ated
Ġ Ñģ
M ay
Ġsimilar ity
H y
ss l
Ġre verse
} <
Ġj ump
S em
ri th
_{ [
Ġin j
M ed
ĠAs sum
Ġspect ro
Ñ ĸ
ide os
Ġdemonstr ated
rt l
Ġs y
v able
stand ing
7 00
rain ing
ĠR ich
the ory
ä º
tim er
ĠEar th
form ing
St ub
rup ted
" ];
Table Row
ĠU V
æ ķ
unn el
A nother
^* _
ĠClo ud
h ot
be an
e val
Ġassert True
ut ation
Output Stream
Ġ& #
cl s
Ġprodu ces
Ġ ill
de comp
ver ify
ĠC ond
| _{\
(' <
TR AN
Ġdefin ite
id entity
ĠRep ublic
Action s
M illis
Ġwhen ever
Ġresol ved
av our
Del ay
R ules
AR G
Ġn s
Ġcr ucial
train ing
Ġcomp aring
Ġsub section
Ġ- =
B u
ĠR ob
Ġa apt
der r
Ġin ser
In sert
on ts
Ġnat urally
Id x
ĠM C
w allet
TI ES
br anch
u er
B T
g ray
Ġs parse
Ġcop ies
ĠPo isson
% "><
Al though
ater n
Ġcons isting
Big l
amazon aws
Ġro ll
In ner
Ġnormal ization
Ġref lection
text normal
ven ess
appro xi
Ġcollision s
display Name
s z
Ġorgan ization
Ġkine tic
w as
oid al
F urthermore
Ġextrem ely
to ctree
Ġdec ays
i pher
W H
entif ic
ane ous
UB LIC
ĠAt tribute
ĠS V
Big r
ĠK EY
Ign ore
Ġanal ys
Ġc at
el ines
\, ,
me tic
ĠL ay
Ġse ed
Ġf iber
Ġdistingu ish
A ggreg
Ġgo ogle
Us es
ARN ING
Wh ite
è ¿
ĠĠĠĠĠĠĠĠĠĠĠĠĠĠĠĠĠĠĠĠĠĠĠĠĠĠĠĠĠĠĠĠ ĠĠĠĠĠ
aw esome
(" \
Re ason
Ġa ux
A MP
overn ment
on ed
Ġali as
ĠWARRAN TIES
go v
ĠHand le
Ġs lice
M at
ch e
Ġpl ays
get String
ge ms
d anger
Ġoff ic
Ġdomin ated
Ġstation ary
ang les
h n
}{* }{
ĠD i
Ġan c
Ġwork ed
Ġelectr onic
not in
bol ic
B H
sw ing
ho le
Ġt uple
Ġext ent
vel ope
Ġpol ice
Ġoff ice
Wh ere
i us
ĠAdd ress
In f
Ġdoc uments
ĠR O
act ual
U psilon
Ð ·
T AG
! (
ĠB u
Ġde m
ĠOrig inal
Ġch ance
Right arrow
Ġcluster ing
am ount
ĠF ermi
Ġt ables
Ġindividual s
m ac
P lease
con duct
v endor
Ġpropag ation
D em
U CT
ĠSer ial
get Message
un known
no tify
K S
' +
Ġdriv ing
lo cale
ĠSer vices
} ",
Ġassign ment
Ġcol span
Ġprob abilities
ĠA lex
c v
clo sed
en o
bo ot
Requ ire
ign ore
Ġg ene
Ġleg al
Ġe ase
ĠBo ok
Ġv ic
LE TE
Ï Ħ
Ġspher ical
Ġh or
ĠP ress
Ġintern ational
ines e
b undle
ven ue
Ġcommun ic
Ġp ain
ul as
. },
ĠS C
Co in
Po jo
Ġneutr on
Int ent
Z ero
RE CT
os es
refer ences
ĠP DF
Ġ-- ></
Ġasp ects
d al
Ap J
p in
Ġel imin
c ursor
br and
ĠPar se
000 1
lug ins
Ġpar a
Ex perim
Ġunder stood
Sup er
stats models
Ġd st
Ġinitial ly
Ġgener ates
< >();
D ig
' $.
ap ol
ĠCal ifornia
link ed
An not
Ġe ight
Ġmed ian
3 60
Ġsent ence
C ast
| =
Ġplas ma
å Ĭ
ma y
Ġidentif ication
ĠB uffer
Ġe lection
D TD
199 2
Ġes cape
Ġ' ''
v ect
-------- --
} ~\
lec tic
V O
Ġs on
ĠV irtual
Ġspace time
Ġper mission
C CESS
ĠO P
h istory
c g
ĠDir ac
ĠP lay
ĠOther wise
ĠPol icy
Pl ace
w x
Ser vlet
ab ric
################ ################
Ġang les
Ġan notation
File Name
! "
As set
styles heets
Ġh our
r ical
}\ ;
nt z
Lo ading
Ġslo pe
ĠL ore
Ġg over
& $
Ġc ached
Ġser ve
ĠA T
com bin
Ġs pl
Ġ' @
ta rea
b en
Ġs ensor
ĠĠĠĠĠĠĠĠĠĠĠĠĠĠĠĠĠĠĠĠĠĠĠĠĠĠĠĠĠĠĠĠ ĠĠĠĠ
FORM AT
Ġst abil
Ġact ing
Ġ` ``
Ġ ^{\
Ġtype def
Ġemploy ed
}} )$
C orre
Ġturb ul
IM IT
TER N
Res p
UR N
pro c
Ġrece iver
ĠB i
sd k
Ġig et
d rag
RES ULT
S elf
Ġcl one
Ġv m
Ġresp ective
Ac cept
bound s
O wner
order ed
ĠA rt
Ġpower ful
L IN
duc ts
D ynamic
Ġsc an
med ium
EV ENT
duc ation
Ġdecre asing
it Hub
Ġa f
( /
ron ic
ify ing
10 2
Ġillustr ated
inter action
' )$
' }\
Ġperturb ations
Ġplot ted
ĠN E
d ocker
Ġspec ifically
LE MENT
? âĢĿ
ĠA ccess
Ġsm allest
ra f
col l
Ġin herit
Ġemp irical
Ġt f
__ ["
* ,
Ġdecl are
Ġra re
Ġpro mis
get Class
Ġsaf ety
ec ti
Ġ ing
Tran sition
ali as
Ġexec uted
Ġopen ing
d st
ist ant
Ġm m
V ec
ĠC urrent
Ġc av
Ġvehic le
Ġlaw s
N a
}} =\
ĠJ ames
A I
at on
Ġsh arp
Ġ& $
Ġper spective
Ġcre ates
hom ology
å ¤
Ġman ip
her ence
ult ural
TO M
Diag nostics
IL ITY
Ġm s
tran sport
Ġg oto
__ ,
Ġcor ner
ĠU SA
ab it
op ping
Ġcol lapse
(' ./
Ġcomplic ated
wik i
Ġsimultane ously
ĠT ag
c u
}_{ {\
Ġeduc ation
Ġflow s
Ġd im
Ġmay be
Ġor bits
art in
ĠRe ference
Ġorder ing
lin ux
)= (
ĠB rown
Ġde legate
Man agement
Ġcol our
SP AN
f requency
Ġspe ak
ĠDo uble
Ġco variance
Ġen semble
Ġeff ort
Ġinvol ves
Ġh undred
Ġuser name
\| ^
Ġac tivities
T l
Ġdescri bing
P a
Ġmo ves
cons istent
Ġexcite d
ĠLog ger
Ġfind s
Î µ
ĠT YPE
Ġthan ks
Ġalign ment
Ġr anges
fr ames
Ġcompar able
n l
Ġeas ier
the ad
Ġsay ing
Ġin fer
ail s
es sible
Ġinter ior
Ġle aves
%%%% %%%%
Ġw idget
Ġw oman
Ġfe e
L eg
k ern
ĠL y
dat aset
Ġ} {\
ash ington
Refer ences
Ġwas n
vers al
ĠEng ine
ograph ic
Ġal pha
Ġcontrad iction
) |\
RE T
Ġpol icies
ĠL and
Ġcirc uit
Ġexpan ded
ol a
ĠB E
get s
text ure
ili ary
google apis
! <
Ġme eting
ĠM O
Ġliter al
s amples
Ġl aser
ce p
Ġfocus ed
vent ory
iz ers
ĠComp onent
Ġl abeled
oci ties
in cludes
Ġpro position
ĠCh ange
Ġw ild
14 0
ĠSec urity
Ġho les
ĠP romise
Ġke pt
d m
s heet
re h
ĠM S
Ġsplit ting
! </
G G
Ġ race
Down load
Ġintr insic
ul ating
ir ation
en tion
Ġinc ident
Ġp rivacy
ĠN on
Ġcheck s
Ġk w
D id
P ut
Ġ à¤
Ġbook s
Label s
ĠG re
ĠÐ ½
ar ial
con current
Ġcharacter ized
ĠI mmutable
~ (
Ð° ÑĤ
Ġpres ents
Ġhand ling
C amera
Ġi p
ĠMan agement
Ġgrow ing
Ġseg ments
> [
Ġmove ment
F ALSE
F etch
Ġfour th
v dots
extension s
Ġs tyles
et c
Cre ated
Ġfil led
Ġaff ine
pr ice
Ã³ n
re ason
Ġrough ly
Ġp ric
use um
mathbb m
frag ment
$ _{\
li ve
Ġ" '
ĠC ho
th umb
ĠS end
sub stack
Ġ$\ |
Ġrec orded
j e
Ġl ives
c x
l r
String Builder
1 12
Ġcon e
Ġlocal ized
Ġstrong er
L T
or a
Ġde leted
es ides
con cat
tr on
}. \
Ġc old
Fe atures
Ġcaus es
Dis k
code c
)} _{\
ĠAs sume
Ġvanish es
Ġ' #
B uf
}) (
I FI
Ġharmon ic
Ġwide ly
ĠO Caml
ÑĢ Ðµ
P ipeline
ĠM at
ĠA GN
Ex tra
Ġbound aries
A vailable
Ġcent ury
resol ution
ĠH as
P erson
Ġconfir med
Exec ute
` :
RE SS
sp ital
Ġopportun ity
K it
over set
Ġcell padding
. }\
Up load
ce eded
Ġconf irm
p ragma
h ang
spe ed
Character Offset
13 0
Ġro ut
amp ion
Ġl ists
. ',
çĶ ¨
O cc
Al so
Ġcoun ts
Ġinstr ument
a ug
merc ial
00 5
I ME
Ġdraw n
K ernel
Al gorithm
' $,
B D
O pt
Ġsp ot
00 2
Ġpack ages
Name Link
D en
Ġtri angle
Ġdes pite
ĠB usiness
Ġm u
Ġintrodu ction
F ixture
Ġjo urnal
uto ff
/** */
Ġdetermin es
HO UT
ol f
Dec imal
Code c
N P
re gex
Ġenc our
Ġal ert
Ġmechan isms
ĠIn stead
grav ity
Ġp arents
new s
le ases
Ġmatch ed
Ġfe as
Ġac cepted
Ġdiscussion s
ĠE very
br ane
ĠGu ide
Model s
Acc ording
Ġdiv ided
aw n
ĠMark ov
ĠMethod s
Ġgu ess
i ra
ĠC E
Ġobserv able
Ġany one
ĠP ack
Sup ported
ĠT ABLE
f aster
van ced
Ġwait ing
esti val
ĠOr der
Cap ture
mit ter
m acro
Ġb log
ĠInd ian
As sume
Ġoper ating
ĠRun time
ĠTw itter
ust ain
PRO C
le ts
Ġtraject ories
ĠIn valid
Ġc riterion
tis tics
Ġc ulture
, ~
() ">
F inal
Ġw ants
Ġsm art
Ġdep loy
ĠI ts
Ġenc oder
r v
= {\
ire ctive
Ġposter ior
Ġroot s
amet ers
f m
seg ment
Ġ# {
Ġbel ie
Ù Ĩ
Ġw rote
am ps
g ments
Ġiter ator
RE NT
ma ging
Ġdr ug
s ources
Ġinvestig ation
Ġcomp liance
tool bar
ĠRes p
od o
des criptor
U C
Ġd ictionary
Ġprint f
Ġ$ <
Ġcell spacing
par tition
Ġis instance
f av
land s
M achine
aa aa
Ġbenef it
state ment
Ġto ur
Ġexp onent
T yp
local host
Ġcirc um
ĠB en
Ġad opt
Sh arp
Set up
man agement
}) -
var s
annot ations
ul ing
G IN
Ġp owers
}, {\
s ame
Cal endar
T y
Ġpul se
be ans
M ust
ĠCol umn
Ġpur ch
Ġper haps
p ty
ate st
ip ment
ĠSe lect
Vis ual
Ġspe ech
Ġw rapper
Ġcover ing
LO AD
Ġc elebr
c ost
ĠF ALSE
Ġclo ser
at om
Ġpotential ly
pay load
ĠMich ael
ĠF il
on sive
BO OL
BA SE
ĠDef ine
der iv
C trl
ĠAn n
FLA G
p lier
Ġsubset s
Ġli quid
p lectic
pr ing
Ġp lots
Pre dic
G T
S en
Ġhard ware
Ġatt ached
ĠA uthor
nof rame
Un iform
Ġvari ant
Ġmis sion
match es
IN VALID
I p
Ġcent re
m ys
bo th
ĠDes ign
Ġpro jective
Ġf ib
Ġn orth
second ary
G A
ĠI II
ind u
p f
au tif
fa iled
Ġcharg es
t m
Ġannoun ced
External Task
æ Ī
View Controller
ĠF ilter
Ġp apers
Ch anges
Ġp ref
Ġnon zero
Ġre ward
ĠCh ild
col lect
ĠF ore
Graph ics
end point
P ower
rid ay
Ġcons ec
t uple
Ġ$ $\
Ġs ender
up dated
Ġ{ {\
Ġcub ic
ref resh
ter ms
Ġsur round
ĠRe port
Ġgover ning
ĠMon te
lig ible
ĠP op
com es
tem pt
Ġs uc
ĠC S
Hash Map
ĠH istory
Ġmed ical
U AL
v skip
des cribe
und les
) *
c mp
ĠS i
cp u
contin ue
arch ive
SS AGE
ĠSup port
equ ival
Ġclos ure
OL D
â Ķ
G M
ex cept
ĠT ree
ExternalTask Pojo
æ ĺ
ĠN ull
Ġdis joint
Ġwe eks
ĠS pace
Ġadd r
C UR
Ġobser ver
Ġ' -
Ġcap ital
') ->
Exp ect
ĠAustral ia
f un
S core
lf loor
Ġsp irit
Ġm at
>( <
Ġb udget
Ġtrans l
duc er
serv let
P REF
Î ¹
Enumer able
d omin
= (\
St ud
Ġhe ar
Ġchalleng es
Per iod
sc an
tr action
Ġconcentr ation
ADD ING
a ui
u ma
ĠL ast
Ġadj acent
Ġp as
New ton
A ct
EN ABLE
pro j
Ġclos ely
ãģ ®
Ġabund ance
Ġel liptic
Ġcli ents
Ġm irror
Ġout come
Ġ" ${
}_{ (
neutr al
Å ¿
ĠBO OST
In jection
ST ART
OR K
B I
Ġweak ly
AT URE
ad apter
it ations
Ġtrack ing
Ġst uff
d n
Ġbro ught
Ġjob s
N ON
ĠDate Time
__ .
y an
ĠA M
Re act
Fe ed
Ġb irth
Ġtw ice
ĠE uclidean
W rit
C annot
ĠThe ir
Ġlink ed
Ġcons istency
RO OT
h h
ag ger
ĠC D
Ġp ri
ĠM AX
Ġs old
f w
Ġlinear ly
roll ers
Ġsomew hat
Match er
Ġs atell
Ġpro be
Ġqu otient
> ${
Ġopen ed
or ange
Serial ization
P ush
Ġop in
Ġappear ance
Ser ies
\ -
h aus
toc ols
Ġp p
OT TOM
li e
Ġsh adow
mate ly
Ġg ate
Ġol der
Form atter
d ings
Ġcirc ular
Sup press
p et
Ġim mediate
B ER
'] .
rf loor
st ra
Ġco herent
}\ !
Ġanalog ous
pub lish
Ġdepend ency
Run ning
L SP
Ġhy brid
Ass ign
ĠU til
Ġd ram
ĠP ower
": "
im es
ĠW hether
=" {{
Ġconver ted
pre pare
sl ider
Ġconven tional
ĠH ome
Ġconstrain ed
Ġre plic
Ġ} $
java x
tract or
Ġb g
decl are
incip al
u ity
m r
w est
al a
' ',
Ġindependent ly
exec ution
pro jects
\| _{\
tex tarea
Ġde t
ĠT OP
ĠM L
app le
de fer
h alf
ĠG old
Ġde duce
SOUR CE
uff ix
B ad
ĠCour t
TableRow Color
Ġcomp osed
mu x
Orig in
Ġpartial ly
Con vert
T ex
for ts
Ġvo ice
Ġb old
D istance
ĠM A
) <
ĠSte p
Ġe f
Ġman ufact
pear ance
ĠĠĠĠĠĠĠĠĠĠĠĠĠĠĠĠĠĠĠĠĠĠĠĠĠĠĠĠĠĠĠĠ ĠĠĠĠĠĠ
\, .
task s
**************************************************************** ********
MS G
d if
re spond
Ġex cell
Ġle ader
P riority
In tegr
const raint
ĠCar lo
Ġresp onses
Ġcare er
Ġge omet
ĠA ws
, (
s lide
pro duction
Ġh ide
ĠOff ice
S PE
od ies
Ġlang uages
ĠB ORDER
filter s
] ^{
> {
ord ers
Ġanaly tical
Ġrepe at
AC ING
Ġdis ap
De tector
get Attribute
Bit map
Work er
g lob
Ġguarante e
ĠÂ ©
ec onds
en ario
max cdn
FA IL
Ġman aged
lap sed
Ġsepar ately
ĠM usic
Ġqual it
è ®
du cted
po i
G LE
Ġinf lation
Ġa ware
Ġ======= =
) |^
Ġpen al
Ġa spect
ĠJ ul
ra tio
Comp ar
Str ucture
p rom
Ġsegment ation
55 5
tem perature
Ġin finity
ind ices
w ater
comp act
co okie
ĠGener ated
Ġfa ther
pag ination
bu ilt
Ġpul s
Ġc yl
Ġdec ided
Ġh uge
EE E
( |
as is
ec lipse
list ener
Ġpeak s
ab y
ĠF urther
ĠD oc
Ġsc r
LA B
Ġinterpre ted
row se
ĠRes ults
Ġ' ,
CR IPT
ĠS hould
ĠPub lished
B est
C ertificate
}) _{
depend encies
Mod ified
Pol y
Ali as
Ġcon vers
p ipeline
ĠĠĠĠĠĠĠĠĠĠĠĠĠĠĠĠĠĠĠĠĠĠĠĠĠĠĠĠĠĠĠĠ ĠĠĠĠĠĠĠĠĠĠĠĠĠĠĠĠĠĠĠ
AP P
M esh
Ġmanif est
Ġlat ent
serv ative
os c
M utable
p ot
m ented
Ġdise ase
no tification
} &\
ĠT ex
Ġb ank
st ub
vail ability
S eq
add Class
Ġar ise
star ts
Ġf er
' }$
l am
t v
for ma
P ane
As sembly
s atisf
Menu Item
Ġp ending
ĠE instein
Ġen ables
ĠD own
Ġwork ers
ch anges
gener ic
op am
Ġutil ity
ĠOn ce
T X
ĠA P
Ġperform s
ed y
no ise
l ife
ent y
pro tect
Ġtr ust
Lo okup
draw able
ĠRe view
ĉĉ čĊ
D er
B ridge
ĠG ood
ĠTR UE
Ġn ice
pe g
199 1
Ġst ories
H AS
Ġinvol ve
p n
/ )
}= (
ĠB est
an sion
Ġs lot
Ġtrack s
Ġmo ther
ste ps
ĠCom mit
Ġlog in
Ġhel ps
ĠF rench
pl er
rith metic
ĠB Y
L at
Ġde formation
Ġen vironments
Ġexhib it
Ġvel ocities
F actor
Ġdiscr imin
with out
}_ +
pack et
ine ment
Ġrepresent ative
en vironment
Ġd war
Ġc line
> .</
}| ^
)} =
Ġformal ism
Ġc lin
H ave
ĠI F
ĠN et
ĠInitial ize
s ent
} "/>
Ġs in
Pre vious
in cluding
Ġde b
19 2
ĠC NN
Pr imary
U A
Met ric
B reak
om ing
super vised
Ġim m
Ġsyn tax
Has Been
ĠT ri
ab stract
Const raints
f all
ro g
Ġprocess ed
Ġext reme
10 5
ĠMe V
ĠE ner
cript ors
ĠPro f
Ġm i
}} }$
set Text
met rics
Lin q
ch em
Ġan i
Ġsuff ices
e th
shall er
] ->
Ġintegr als
] </
big skip
sch emas
" ?>
r x
Ġt s
to Equal
T V
oci ated
onal d
pack ages
Ġentire ly
Ġcyc les
sol ution
ock s
Ġthrow n
B ACK
Ġfig ures
p od
er os
="@ +
Ġf ul
tr ucture
ĠWIT HOUT
D ITION
ibr aries
le ton
Ġpe er
Ġpre par
fin ed
sp i
t bl
DE D
Ġsch edule
O k
ĠBay es
AR RAY
ĠPe ople
ad ded
Ġcour t
Ġd raft
S ide
EX PORT
fort unately
Ġacc um
T M
p al
R ob
S uch
40 4
ch itz
Ġwork er
in verse
sub Nav
ine ar
Ġmain tain
MA GE
ma k
Ġ$- $
var iants
process or
Ġcomp ression
ught er
faster xml
] _{
spec tively
attr s
ĠCh annel
Trans lation
Track er
ĠDem oc
100 00
="../ _
( `
ĠCar ol
P ress
er g
Ġfore ign
Ġ$ [\
Cont in
in herited
) )$.
Ġh ous
Ġther mod
Ġec onomic
ĠJ acob
Ġa v
: &
S ig
Ġrecogn ition
] ['
con figure
L ike
Ġs uffer
trib utions
Data Type
late st
d v
With out
ic ts
Des ign
Ġremo ves
Ġad mits
Test ing
pm b
center line
% )
i ant
cri bed
Ġ\ *
Ġc e
mis s
de mo
] ).
ĠUn it
ote l
deg ree
d td
== =
Ġm al
CO M
ãĥ ¼
Ġc ls
M ix
ou thern
Ġchalleng ing
Sec ret
ĠS u
Ġreal istic
W ill
Rel ated
Ġenti ties
ĠArg ument
Z Z
rot ate
Ġdriv en
item pty
Text View
Ch unk
Ġcal ibration
sim ilar
ĠIllegal ArgumentException
o on
ever theless
). }
Ġsh ot
Ġ" _
Eff ect
T ok
ĠS P
Ġparticip ants
____ ____
Ġth ous
om itempty
ĠS W
Ġs orted
math ds
ticip ant
ME M
Ġa w
Ġcho osing
Ġadd s
Ġpro tect
HasBeen Set
MP L
' )\
× ķ
Ġte ams
ĠM P
es cape
Ġbos on
D ict
Ġsyn thetic
Rel ative
Ġb low
path s
ques tion
lin ed
si ent
Ġg old
Ġindu ces
Ġcommon ly
Ġma pped
Ġresp ond
n r
REQ UEST
Ġbu y
Ġmod ification
l is
^- $
Ġtell s
Ġcorrespond ence
Ġw al
re lation
ĠK IND
b one
und ay
Ġn ested
Ġent ered
par ty
Ġste ady
rg b
N ECT
g in
IN IT
Sim ilarly
Com mit
ĠAd min
B F
ĠPar ameters
ĠD etail
Ġc p
ĠDe bug
ĠReg ion
ĠT om
ĠM il
ĠV ir
Ġobserv ables
Ġtri al
separ ator
u ing
d ating
Ġnumer ically
p ic
ĠTechn ology
sub string
Ġexc itation
{ [
Ġam b
ke ep
ĠNS String
Ġch apter
Ġin correct
}} }{
Ġan im
Ġs outh
Ġpart ners
rela x
ĠLore ntz
Ġentang lement
Ġ[ -
$ --
li ography
) !
par s
sch eme
Ġ til
is co
G RO
ĠAc tive
ĠTran sition
Ġcorrel ated
r int
Z oom
elastic search
Ġcool ing
H H
Ġsupp lied
Mod ifier
ĠW ashington
adi ents
ĠG en
ĠA nother
id entif
riv ile
Ġepis ode
w i
C irc
Ġ} ).
Ġgener ality
m utex
T ensor
ow ski
CO UNT
anc k
gres sive
ch unk
Ġdis sip
Open Tl
L M
Ġkeep ing
Ġcustom er
ĠB ra
ta tive
Ġex cess
Mon itor
h skip
prec ision
ĠCon vert
value Of
sign al
ge ometry
Ġp in
Ġcombin ations
G rad
L D
Ġint ended
Comp onents
ous el
az ure
ĠB ob
}} +
ĠT or
Ġpotential s
Ġcryst al
M ac
ĠW ed
Ġclass ifier
n pm
Path s
ĠS SL
Ġ} ),
t re
cons ider
lef trightarrow
; %
Ġl if
op acity
Ġretr ieve
re spectively
SU CCESS
Ġpl ate
Ġw arm
ĠPro v
d h
Ġcertain ly
ĠD iv
S yn
Ġmarg inal
op ens
ĠEn tity
ĠMod ule
int o
Ġpl anning
Ġ" ;
ex act
spher ic
ĠH el
ĠA D
ĠÂ £
Ġperiod s
c ycle
Ġin variance
th in
Ġdiscover ed
$ (\
Ġal location
re str
= }
Par ty
Ġbrief ly
Ġcon ducted
W rap
Ġac tivation
: %
m q
Ñ Ĩ
Ġse p
te en
Ġne ither
LP ADDING
Ġmathema tical
App Compat
erc ise
Ġcan vas
CH AR
Ġun stable
k ins
Ġprefer red
g c
Ġef forts
b ecause
Ġref ers
Ġcould n
SP ACE
Ġcontinu ed
on a
Ġhom ot
le e
Ġprogram ming
set ting
ĠRemark s
Ġm ilitary
Al pha
+ |
i ents
ĠF l
multi ple
ĠB H
ĠCEL LSP
ĠCELLSP ACING
Ġs ampled
ĠCEL LPADDING
> ../
ti er
Ġhyper bolic
ĠDe velopment
ĠIN T
let ter
Ġar riv
C SS
N ONE
ĠW ill
ĠHash Map
tran sp
atter y
c lock
U K
ĠEner gy
Ġrece iving
Ġillustr ate
' =
or bit
]( #
pi pe
x im
Ġf irm
Ġdetermin istic
Ġfinite ly
ent ries
cho ose
Ġcon jecture
h base
ĠUn ion
Ġw onder
manif est
ĠZ e
non atomic
Ġanaly zed
re newcommand
Ġcon servation
24 0
Ġord inary
Ġ< ?
. (
ĠT oken
F M
si tes
Class Name
C r
Ġs at
erial ize
He ad
cover y
sp h
R adius
Ġend if
Ġmulti plication
Ġin comp
Ġdef aults
Me asure
Spe ed
F ac
ur er
Ġtang ent
Rece ived
n ail
av is
Ġpl ans
+ "
D i
Ġno tification
Ġcheck ing
æķ °
ĠT aylor
Ġcon cat
ĠAn alysis
out ing
Scal ar
ĠE m
ĠEng land
per cent
is y
WA RE
ĠW HERE
Ġappe ared
ĠSer ies
Col l
M ail
ĠN GC
ch a
\ }}
Ġab elian
ti sts
IT LE
AR GET
vari ables
Tr igger
Î ½
ĠComp any
Ġpo inted
Ġ\, ,
L ines
Valid ate
Ġgr and
S rc
Ġv ill
| -
ul p
IE W
make box
Can vas
b est
pop up
an de
Ġorgan ized
ol o
ĠRec all
Ġparamet ri
Y our
ĠL ibrary
)\ ,\
unders et
autif ul
w ho
}}\ ,
ĠC orre
ess or
ĠRe al
llig ence
Ġinter ference
Oper and
erm any
Ġout line
cs v
Ġacc ounts
Ġcirc les
resol ved
Ġmodul i
p en
ĠCh inese
lectr ic
Ġi i
ME SSAGE
Ġcon sumer
it ud
ĠRo ad
Ġanom al
Ġform ulas
ĠR ight
Ġ" )
ĠR ender
Ġinitial ized
ĉĉĉĉĉĉ Ċ
ips chitz
Ġclaim s
Ġne arest
Å ¡
Ġtr im
Ġde dic
Ġra ised
To ols
13 5
c ategories
he x
display math
ump y
att ach
Ġisol ated
ĠL icensed
10 4
Ø ¯
S he
Conn ector
ate ver
B g
ĠJo urnal
14 4
arg v
Ġdirect or
Ġrelax ation
Ġreal ized
Ġexp os
V ID
ĠN a
vo ice
cent ric
Ġp aint
ant ly
gan ization
k k
resp onsive
Ġinst ability
}\ }$
Ġour s
ĠM us
Ġ å
Ġne ur
Ġ" );
ĠIs ra
Ġf aces
vis it
- ">
mod ifier
l c
Sch eme
e es
Ġin nov
Ġout per
Ġpresent ation
Un ique
S ym
Ġsec ure
ĠSm ith
ĉĉĉĉĉĉĉĉ ĉĉĉ
Ġal ter
Ġs un
ĠO ptions
Trans fer
type param
Ġpor tion
ĠS yn
ta ges
Set s
ĠN um
p q
D one
per turb
ĠT ur
Ġderiv ation
Ġstr ip
qu al
as ion
. ")
Ġauth entication
Ġlist ing
c ountry
ĠEx pression
Al ign
tic a
Ġtri ed
Ġens ures
Ġ* ,
Ġacceler ation
Ġle aving
Ġ )$
ĠĠĠĠĠĠĠĠĠĠĠĠĠĠĠĠĠĠĠĠĠĠĠĠĠĠĠĠĠĠĠĠ ĠĠĠĠĠĠĠĠ
Ġdot ted
Ġsymmet ries
s napshot
Ġattr s
A meric
sh a
ĠM atrix
ire cted
F D
ew ise
ampl er
Ġrepl acing
=- =-
Vis itor
Ġlo ops
ĠÐ º
ĠPr int
Ġconsider ation
O FF
B ecause
st atis
ĠU P
C ulture
r ig
un ed
R M
' })
Ġn an
Lower Case
db c
Ch art
po sitive
h ello
Ġre ly
Access or
ĠG erman
ĠC L
Ġar rays
it on
Ġstruct ural
mis sible
co ordinate
Ġe ye
eff icient
v ation
iti an
k ip
ĠDis play
c ached
Sec onds
Ġcos mic
) }^
optim al
g ot
Ġtim er
ĠT arget
Ġinstruction s
` )
S can
w hat
ĠAss ociation
OB JECT
ĠS ize
19 80
Block ly
and o
red irect
Read y
form er
Ġtri ple
Ġup load
os ted
ator ial
ext ype
S tage
Ġbenef its
ĠFor ce
Ġaver aged
Ġvol tage
() ]
A ff
atur day
Com bin
He alth
Ar rays
File Path
Ġcomb ine
* >(
Ġhappen ed
S i
de legate
Ġremo ving
ĠS al
Ġst ands
cri tical
SER VER
ĠE RR
re view
] _
Re place
sub scribe
ĠCh urch
' (\
Ġb ucket
u an
Ġpro ves
S afe
b ucket
19 89
? "
P ending
D ry
vel ocity
et ry
lement s
Ġlog ical
parent Node
T emp
Ġrel ig
Sc ene
Ġmag ne
En tries
Ġrestr ict
âĢĿ .
allow ed
Ġexam ine
D on
c urrency
ĠL abel
Ġ/ ><
ĠP ut
am ous
Ġqu as
an tics
es is
Pr ice
n amed
Tw ig
Ġf ashion
Ġin coming
Ġview ed
Ġcopy right
Dest roy
Ġf elt
Ġcapture d
STR UCT
ĠPH P
i ro
Ġe yes
Ġ tick
Ġ$ ('#
Ġ" #
Re pe
A K
dir name
append Child
ph en
or acle
×ķ ×
}$ ).
ĠF R
^ +\
in ject
ĠA tt
U UID
ĠV K
^{ [
ST M
Ġhe ard
run ning
I ES
Ù ħ
Ġdiv ision
ol ate
equal ities
Ġ\ #
tain ers
Ġl abor
Own Property
~ {\
) '
d riv
}( -
Ġelement ary
FUN CTION
les cope
ĠL anguage
aw t
{ },
row Color
Cal cul
Ġpercent age
Block s
ĠM atch
Ġf acts
Ġj av
}{ $
Ġrect angle
g ap
nos cript
auto ref
cer ning
iv idual
d ays
ĠE ducation
ne tes
ĠConn ection
Mark er
Q t
Ï ĥ
it t
ar ia
ke leton
Ġb ars
Pro c
Ġdiscover y
Ġv ision
ĠSpec ifically
T i
pol ar
uber netes
ĠP UBLIC
lo okup
ĠAg ain
B lob
initial ize
ĠEn ter
Ġvanish ing
In tern
ĠS pe
Ġval u
qu antum
lu x
back end
Mer ge
Ġpati ent
z ier
Ġh ierarchy
Ġimag inary
le ading
qu ality
B LOCK
ĠD uring
() [
ab i
ĠSpec ial
ut ors
B us
ĠM ember
Ġlook ed
Ġat ten
ch arge
-------------------------------- ----------------
Vis ibility
mb ed
Up per
ĠS am
ĠE uler
ge om
Ġpermut ation
Ð¾Ð »
J ohn
Ġprim itive
fav icon
ĠC C
Ġthread s
as m
Ġen hanced
Comp letion
sh op
Ġexcell ent
l st
Ġpop ulations
ĠG overnment
ĠMod al
road cast
F amily
Ġdec or
Ġth reat
M a
), (
27 0
Ġrelations hips
correspond ing
ĠS ession
}$ $
Ġinitial ization
Ġle af
ĠP A
Ġnew ly
... )
Separ ator
Ġcommun ities
Function s
}^{ (\
ĠUn less
conf ir
F G
WR ITE
ĠD CHECK
Comp are
' -
0 10
Ù Ħ
B G
ĠB ur
An chor
Sub scription
ĠÐ ´
Ġ[ {
over flow
ĠPro of
Ġw rap
Ġre ality
ordin ates
ion e
big gl
ĠString Builder
tili ties
ĠL apl
M IT
s ti
Ġpro jected
Ġsub mit
moment um
train ed
K n
f ollow
scri ber
ik i
Check ed
}} -
er a
Ġc row
sec ret
ĠY oung
Ġpre pare
Ġneg ligible
ĠC ong
Ġhand s
lev ision
T ry
Ex it
v n
Ġcav ity
Def ine
ĠAfric a
ĠB ound
@ {}
ĉĉ Ġ
Ð ¹
ĠM ajor
Ġcl ub
ĠEn vironment
ĠG rid
Java Script
ĠC PU
NG TH
T ri
ĠC ur
AR B
ĠF riday
Ġlength s
50 9
bound ary
æ Ĺ
ĠB OTTOM
Ġaux iliary
] ),
con tr
ĠD ig
W I
Ġpay ment
est ure
ug ges
Ġb lood
Ġdate time
B ro
ĠTim es
ĠR est
Ġdec oder
g p
Ġh ex
Ġv ideos
b ec
s id
ĠD iag
Ġam ounts
ĠTh omas
ĠC ache
Ġfind ings
Ġgeodes ic
Ġnote s
. ;
block s
Oper ations
Status Code
Ġquark s
J s
c op
Ġs leep
Ġpy thon
B ucket
Ġcenter ed
Ġco homology
M ost
V C
hash Code
Ġp at
Ġwor st
Ġst at
ĠL I
Ðµ ÑĤ
ĠR iver
Ġver ified
H ello
H AND
Ġsta ges
differ ent
Ġd aily
m ust
Ġar ises
Ġconfigure d
Ref resh
at able
k ov
ĠB AS
Ġ\\ [
2 20
Ġto String
Ġregular ization
fig s
Ġfit ted
âĶ Ģ
Ġover view
He ap
Ref lection
Ġ/* !<
) /\
en berg
v ity
Pe er
Ġimp ossible
11 5
cur ve
b race
Ġver ification
val s
ip ient
Ġb rain
Ġrela tivistic
ap ed
c amera
Ġcontin ues
Ġlook up
Ġcomp osite
s creens
Dat aset
Ġadvan ced
Ġ ulti
Ġf light
ĠApp le
Ġg it
="# "
sub float
Op tim
ĠPro perties
Ġrecomm ended
ancell ationToken
Al ert
De ep
c ity
Ġb ins
text style
at ype
Ġembed dings
and box
S n
IN DEX
R outer
Ġcustom ers
ell s
Ġn om
Ġm ach
Ġpure ly
or row
Ġmetall icity
set Attribute
Ġmag net
ĠĠĠĠĠĠĠĠĠĠĠĠĠĠĠĠĠĠĠĠĠĠĠĠĠĠĠĠĠĠĠĠ ĠĠĠĠĠĠĠĠĠ
ĠR andom
Tim es
Ġfrac tional
le ting
Top ic
tr ip
ĠB re
it ar
Ġpres ident
Ġsh aring
ma inder
Ġfil ms
Ġv ote
ub b
Ġfl avor
Ġcyc lic
Ġref resh
coup ling
Ġtransform ed
ĠL at
first row
Ġoriginal ly
E LEMENT
ĠF uture
t one
ĠE ff
Ġc amp
Lo aded
ual ity
s mooth
B s
big gr
): =\
Warning s
Ġar row
Ġlocal ization
form ula
Ġobtain ing
ĠFr ance
Ġb ra
custom er
Ġsitu ations
Ġv ec
w ind
z i
Up dated
}$ ;
p ur
Ġex amin
og gle
ĠJ er
Ġpre ced
\\ \
pre d
z oom
ĠNew ton
ĠA C
No tice
S tyles
dat ab
Sh adow
' ,\
Ġbroad cast
Pop up
5 000
ĠP et
ĠW ay
cho ice
com ments
Ġcon clusions
Con tract
pre view
! =
h en
Ġf ans
// ----------------------------------------------------------------
Ġsupp ly
Ġar ticles
Ġlo cale
Ġ// -->
ĠGe orge
Ġrecover y
ul k
oc o
Ġpro tection
ĠS af
Ġh al
ond ay
ti te
ĠT ry
}}\ \
ad v
Enc oder
m icro
li ers
mut able
Ġreve aled
App ly
Ġor i
Re vision
Ġcomplete s
Ġf loor
mo o
ket ch
Ġro uter
Ġfor ced
Ġ} .
Data Source
ĠVer ify
CD ATA
Ġreli able
ĠA re
N ER
do es
t ol
con j
set length
Ġel astic
an tity
ĉĉĉĉĉ Ċ
Pay ment
ĠIn ternal
si zing
ĠIntern et
Ġl l
Ġ tic
Ġsur ve
Defin ed
D ao
ti e
v ia
oc omp
pr ise
'] ))
ĠP ay
qu o
div ision
f uture
$& $
v ectors
Ġcombin ing
ĠOper ation
el le
asc ade
ĠFr anc
ĠM IT
" }
Ġas set
c aret
ĠBo ard
in formation
ierarch ical
Ï ģ
ĠSum mary
Ġpro ven
ĠS ociety
, </
CH AN
M AC
Ġmolec ules
C ity
Ġre ject
_ [
K G
Ter min
over ride
z ens
reg istry
LE V
H ar
ĠTe am
In line
Ġse a
ĠD ue
Ġd il
s qu
Ġ ur
b ench
A RE
ric k
let eness
è ¡
Ph ase
scal ar
Ġspec ification
Par tial
Ġincre ment
A zure
Ġconnect ing
F ill
St at
ĠH ill
Ġti le
ĠM any
to LowerCase
] *
Ġscal ed
Ġpi eces
F ake
Ġcan cer
Ġadv ance
Ġc ertificate
Ġsee k
Ġappe aring
Ġcar bon
et ype
ma jor
Ġap pre
stream ing
L arge
Ġd om
l arg
ĠT EST
ĠÐ ¸
Ġreplace ment
Ġintrodu cing
L ite
Ġin equalities
Ġcred it
/ #
11 4
Ġdam age
Ġ{ })
W in
Ġferm ions
Ġ ice
R atio
d ump
\ ":
Ġattem pts
ĠĠĠĠĠĠĠ Ċ
19 70
Ġsingular ity
Ġke V
ĠS ocial
Ġm igr
no va
ĠNo tice
Ġcon cepts
Ġredu cing
}} +\
Ġmod er
ĠB al
Ã ¨
sy ch
ĠL u
\' {
R IGHT
OR S
Ġser ved
ĠCon sole
ord an
Str ip
p aces
Ġexp r
Ġrapid ly
? (
Ġ' ')
Ġ. =
Ġk not
Ġhom omorphism
utor ial
ac i
** *
W W
Sw ift
over lay
ĠP si
ist an
; ,
ĠâĢ ¢
ĠP O
EN TRY
Ph oto
Ġsym plectic
(" .
Ġtor us
C ross
âĢĿ ,
Ġe th
Ġcap t
}{ $\
ĠU sed
M ov
==== =
é Ģ
Ġis o
ict ures
ĠY ear
Ġk new
B ag
Ġsch ools
Ġcli mate
Ġkw args
Ġf i
Ġp lain
duc tivity
Ġsu cc
L ang
alax y
Ġdi ameter
n able
ut s
Ġassoci ation
Cred entials
ç »
) ~\
}] $
ĠA ut
Ġj ets
BUIL D
S ound
In sp
force ment
AC CE
Comp lex
ex c
mod ified
Ġinter view
L ow
and a
ĠM ary
ĠCON FIG
ĠP ackage
10 3
section s
ĠâĢ ¦
ht bp
ĠPro p
N ested
r adi
trans fer
" ])
man y
Ġfa ith
Ġg un
Ġmor ning
ĠB asic
ess ment
ĠPar ty
Ġhelp ful
Ġ" ./
ati le
Ġn ation
P adding
ĠCal cul
ĠWil son
sl f
ĠC onse
v v
B i
Ġg ather
U Int
Ġb orn
Ġproof s
AUT H
ID ENT
ĠS ymbol
ĠI L
esti mate
de veloper
andid ate
ynchron ous
ch en
Ġ. /
Ġco vers
erm itian
ne ighb
Ġshe ar
Ġknow s
Ġchain s
const ants
Ġo c
Ġdiver gence
f our
Su ite
S lice
Ġtermin al
Ġcloud s
Ġr hs
e valu
Ġcomp reh
Ġmanif olds
ch er
ern ate
Ðµ ÑĢ
air s
Ù Ī
Spec ial
ig ator
sen sitive
helper s
Ġcond ens
Ġl ambda
def aults
O ld
> /
n ight
Ġgo als
10 6
) ~
inter pret
; -
f ar
FFFF FF
seud o
Ġdi vers
channel s
Ġspec ifies
Ġr m
ad j
ĠSch ema
Ġb il
Co okie
G re
Ġfeas ible
Ġ )\
19 87
ĠĠĠĠĠĠĠĠ čĊ
~~ ~
rit ory
q q
| {\
ĠG reat
bur g
Ġin herited
Ġred irect
Ġ( `
Fig ures
Ġsh oot
Re p
ap ps
Ġare n
Ġs we
/ $
Ġrepro duce
ĠS il
Ġhol omorphic
is er
h al
Ġcomp ile
Ġ/ .
Ġneighb ors
Ġv on
bib liography
* {-
ĠG al
u ency
C lean
ĠR PC
ĠDe ep
Ġro les
s ymmetric
Mod al
Y es
ĠS ET
ops is
[ [
ĠP C
te ch
Ġsub scription
ĠPar ameter
Style ID
M N
Ġradi i
Ġman age
enc ing
Ġdo or
min imum
Ġr ating
Ġcross ing
}] \
Ġr u
C ould
m g
AB ILITY
fil led
Stack Trace
Ġdep loyment
ĠG ermany
---- ---
ĠS cal
ĠConse qu
Al t
G F
Y S
Sur face
Ġ$ -\
' =>
itect ure
Dest ination
Ġi maging
( []
eng er
U int
Ġ æ
A W
ard ing
FLA GS
ĠDat abase
ĠD C
ig ate
ĠCON DITION
Ġdual ity
oun tain
Ġdevelop ing
å Ń
contin uous
indu ced
Ġc ss
âĢ ĺ
Ġre ply
ĠCom mission
Ġqu bit
Ġf resh
Ġset t
For ce
ĠC as
ĠH a
ĠRequ ired
ĠS to
I ENT
SU B
19 88
Ġstr ain
' ):
Ġlimit ing
S lot
ti ble
ĠI V
../../ ../
Ġfilter ed
s ender
render er
D r
Ġ\ :
f loor
Ġwor se
an ish
ĠF und
Ġpreser ve
second s
lu eto
Ġtot ally
dat as
****** /
F oo
R eq
y ou
ĠJ ob
Ġf usion
Ġinteract ing
Annot ations
ĠP lan
Ġpart ner
Ġnear by
Ġacc essible
Ġre v
;& #
ĠI r
Ġ( {
Ġefficient ly
f v
ĠS NR
Ñ ħ
lueto oth
ever y
Ġneighb our
Ġg lass
Ġ tit
ĠL L
mer ce
INST ANCE
imp lementation
Equal To
ĠAd ded
az el
Ġ"- //
list ing
ĠB ank
Ġsuper conduct
Ġbr and
Ġk illed
Ġst ock
ce an
se ed
="# ">
ab olic
Ġs ales
_{ (\
Ġquar ter
Ġdetermin ing
12 4
or tion
Ġa rithmetic
K L
ste llar
Ġre gex
O ri
In deed
Rece ive
Ġpo se
us age
Ġw itness
Ġreach es
Al ignment
ecti veness
TO OL
Ġul tr
x rightarrow
urs day
atern ion
Requ ests
control s
B el
con vex
FT WARE
Ġt ends
Back end
Ġser ious
Ġband width
Are Equal
P icker
Ġmark er
verti ble
List eners
men tion
C MD
Pay load
r and
MA SK
Key word
- $\
C tx
se en
ĠBAS IS
F IL
Re gex
amp ing
++ ++
Ġvehic les
Dis abled
m icrosoft
u ate
[ <
Ġ\ }$
Ġinv oked
ĠRo bert
E very
top rule
//////////////////////////////// ////////////////////////////////
Ġpro posal
ie ties
AME TER
Ġun ity
C li
F W
[ {\
sin h
Ġsign s
Ġpar ties
Ġcomput ations
I mages
mark er
Ġphenomen on
Ġf an
ĠJava Script
z o
+ $
Ġw ife
Dependency Injection
ĠR ic
Ho ok
Ġconven ience
Ġcom mercial
ĠS ing
C a
Ġc utoff
Ġre write
v r
ĠCONDITION S
S ent
F ire
ul ner
comp arison
Ġbegin s
ex tr
Ġr c
en ance
ac er
B er
ĠDe vice
ĠT ab
Ġcut s
Ġlarg ely
Ð¸ ÑĤ
Ġsh apes
Ġstudy ing
date picker
thes es
d w
ĠL ou
_{ {
in ing
Ġsurpr ising
lik ely
un stable
<? >
ip edia
umin ate
TE GER
mis sing
}. $
Ġco okie
o ved
Ġvis ibility
Ġuniqu ely
C ountry
r ides
Ġsequ ential
ĠS unday
un ks
ĠB ased
g tr
ĠRec ord
Gener ate
1 32
ht b
Ġd og
Ġwe ather
10 7
FR AME
add EventListener
Ġf if
å ľ
Ġs ustain
ĠA ward
ld s
LE D
ti d
& +
ĠSt ore
N L
ol or
re verse
Ġco ins
\\ [
ĠJ ew
Ġsurround ing
note s
go al
ĠDirect or
end region
Ġoptim ized
------------ -
ref lect
Ġpos sess
Ġadvers arial
Ġint ent
Me an
Dec oder
ĠP en
ĠA bout
ĠG P
Ġro ck
manif old
id ity
x ref
}) :
Ġcontinu ity
; ;
SY S
Any Ref
Ġ" [
moo thing
> ()</
Ġf re
Ġlist en
Ġinterpol ation
ĠCre ated
EN CE
Ġo il
ba tim
Ġsqu ares
C odes
^{ {\
Ġcred entials
Å ¾
N OS
Ġsynchron ized
ĠTex as
pro f
0000 000
LE NGTH
Ġarg ue
Ġ" +
th ese
? </
ĠA I
ĠCar tesian
Ġar range
Ġpl ant
Th m
Ġz oom
p is
g b
Ġcomp ris
$ =
ĠH E
}} }{\
Ġhand led
ict or
Ġdedic ated
Ġanalys es
Ġp aid
Ġcomp ens
gr pc
ĠCent ral
. ');
st derr
Ġpar agraph
10 9
sub scription
uch y
ac o
l ator
ĠE rr
FN GL
ĠWilli am
Ġ[ #
G ateway
at re
or ientation
Ġsignific ance
}) }\
+ }
Vari ant
Ġgr adients
big oplus
Ġregard less
Icon Error
Ġpass phrase
3 50
W ORK
ro unded
Ġ ../
ĠAc ade
urren ts
ed uling
sp ark
c yc
ĠT re
ĠLe ague
}} _\
Ġalign ed
ec ycle
GEN ER
Par ticipant
DB LP
Ġoscill ations
G uid
oun ce
aus s
Bl ack
st ation
F ROM
ĠIsl and
}} ^{(
Ġfem ale
Ġde code
Con clusion
ĠCom mun
ĠConsequ ently
}^{ *
Event Args
Ġcompe tition
G D
ok es
ced ure
Ġthink ing
ĠD u
). $$
cept or
Ġst retch
uff icient
Ġdecision s
ser tions
Ġsupport ing
Ġp an
Ġreturn ing
D ash
V IEW
V ote
ffff ff
Per cent
ism atch
n x
Ġviol ation
ĠB ol
Ġd ied
po sitions
Ġe le
Ġp le
version s
Ġshe et
V ICE
eq q
ĠO k
us p
tific ial
Ġpre pared
add le
N il
\ .
Br anch
ĠE C
stit uting
Ret ry
input s
ac ion
Ġplan ets
c py
cos h
" </
c trl
ac cur
Ġbright ness
PROP ERT
LEV EL
F i
ĠE v
oid s
mo v
Ġs ell
Ġwindow s
valid ator
Ġa head
decor ation
Ġs ig
Ġfunction ality
ĠR ow
Ġ(! (
L com
Ġann ih
Ġprofession al
enc il
Ġdi pole
Ġd f
Ġfac ilit
Ġbox es
M AN
F ollowing
ri vers
D ist
to kens
In ject
Ġs i
Ġp al
Ġp c
Ġcommut ative
IconError Encoded
ĠFr ank
ex isting
t cp
r k
PREF IX
Ġyour self
Ġmoment a
Ġsh ifts
OPT ION
R ank
G a
"> &#
99 9
Ġconcern s
Ġc la
Ġpredic ate
Back up
Ġb id
Ġjoin ed
ĠChris tian
\!\! \!\!
short cut
work er
ĠF ixed
e igen
ĠIn v
ĠV ideo
ĠC HE
ĠP ers
D a
Ġlet ters
if est
Ġspe aking
UP DATE
Ġp itch
sw ap
Ġreg istration
Ñ Ī
ĠO K
ad or
Ġachie ves
Ġh align
ĠM el
Ġc c
Ġb illion
ĠA WS
Ġpar ity
Ġext ensive
Ġassum es
vis ibility
Ġw est
Comp leted
D ot
$ }\
ĠR ights
DO CK
=" //
NotFound Exception
b an
Ġsum mer
123 45
Ġlogarith mic
SH A
electr on
m achine
access or
S B
ĠC ard
place holder
ad ic
ations hip
S heet
Ġconven tion
">( </
ĠLe vel
P ref
Ġb ond
leg end
Ġcap able
Ġextr action
ĠJ ose
M c
Ġdetermin ation
Ġelectro magnetic
ĠIm port
iffer ent
we ek
ĠF ull
ul se
ĠG alactic
f onts
itud inal
Ġin come
Ġobserv ational
ĠCl ub
Author ization
C at
Ġas sertion
12 2
G reen
us s
ri an
ĠCol l
um s
serv ations
O C
ĠWh y
ĠS ingle
Ġconver ge
MA IN
resize box
th emes
P N
ste in
ĠForm at
) `
11 6
Ġguarante es
Ġx si
od al
th reshold
co v
Orig inal
'' .
dest ination
Ġre lying
Ġk ids
ĠC V
bal ena
Ġcon crete
ho u
ĉ ĠĠĠĠĠĠĠĠĠĠĠ
Ġloss es
ĠD R
Ġap ps
Ġno tify
- {\
corre lation
Ġsup posed
ak a
PT ION
Ġthick ness
p riority
ul omb
ĠM E
ĠRich ard
; ]
DE C
Sta tistics
ĠD IS
ti tive
ari ant
Ġexception s
scale box
cap ture
ipp et
est or
est ing
Ġfl ush
Ġer g
Ġs ociety
ack now
Ġde gener
Write Line
Pro totype
Ġharmon y
}$ :
Ġp la
V o
ular ity
ĠA UT
m ount
Ġbe autiful
Q uestion
ch at
Thread ing
Ġp ump
Ġwh om
Ġc f
Ġpo le
ĠF ire
c are
ĠR a
3 000
ĠU SE
Reg istration
i q
3 20
N I
}, \\
Ġhapp y
member NameLink
Ġcoinc ides
Ġconcern ed
] ^{\
PA SS
S mall
Ġhydro gen
cent ral
[ _
Wh y
ĠR oman
c amel
Ġex cluded
Ġhistor ical
Ġsu ite
ĠG T
Ġdiffic ulty
Ġb are
iss ue
Ġcard inal
ĠS aturday
u j
Ġsupp ressed
is a
ĠAl low
col head
reate st
Ġdis ks
sc atter
script style
ĠDis trict
ch rome
ues day
ide l
Ġconjug ate
Ang le
F rag
Ġvari ability
Ġprim arily
Ġst ub
tra it
ĠD ictionary
T ables
ph oto
ĠB ad
ag greg
10 8
Ġsummar ized
× Ļ
str ument
Ġf old
ĠR am
Ġcount ing
T IM
Ġre try
Th an
h w
)$ $
Multi ple
ĠĠĠĠĠĠĠĠĠĠĠĠĠĠĠĠĠĠĠĠĠĠĠĠĠĠĠĠĠĠĠĠ ĠĠĠĠĠĠĠĠĠĠ
for ge
Ġph on
p ick
af ka
T ip
Ð¾ ÑĢ
Ġt ension
d on
ink s
Ġm ixture
By Name
Ġlo ader
Ġprov ision
}$ ),
ĠB ill
diag onal
size of
ĠT own
d ynamics
Ġflux es
Custom er
spec ified
Ġatmo sphere
ĠEn c
Exp and
BY TE
ĠMem ory
Ġn ine
p us
d ue
hav i
Ġnucle i
ĠCon f
Ġlist ening
Cal led
sch edule
DE P
Ġminim ize
IT H
ĠL ee
m ime
Ġprom pt
ĠN N
te le
az ine
Ġm ur
s ocial
Ġinter faces
LO AT
I mmutable
Ġun able
Ġsimpl ified
ĠBl ue
ĠS TR
Ġ ray
ass et
comp iled
M LE
Ġconsum ption
ĠM artin
Ġsub str
es sibility
ll uminate
Ġcon ference
am ber
Ġenvironment al
q ed
Ġclass ified
Ġdep icted
Ġopin ion
alk er
Ġcap abilities
ch an
^* (\
Ġcall er
Un able
ĠP eter
post s
sc ene
ess aging
get Property
com mut
Ġad verti
cos ity
ĠM ass
Ġcor por
Ġdec ide
Ġmonitor ing
ĠM ad
per mission
Ġpro totype
Found ation
col ors
PL ICATION
Ġ' $
bibliography style
ĠDe v
Ġact or
ĠG ET
Ġlife time
String s
Allow ed
Ġ/ ></
Ġinsp ired
Ġb ag
ĠTrans action
frac tion
Ġfund ing
oc ab
Ġg amma
Ġin jection
Ġpar sing
ĠF lor
s leep
Ġhand les
te ll
Ġidentif ying
ph ony
ĠStr ucture
ĠCom munity
bal ance
Ġc le
Ġin ject
get Key
Ġg iant
Ġman ually
var pi
ĠInst all
ap on
Ġexpos ure
if rame
Ð¾Ð ´
dic tion
Ġbound ing
ĠCarol ina
Ġ ut
numer ic
Ġreg istry
Ġme ant
Ġdetect ors
vis or
ĠS ymfony
ad ian
ĠQ t
"/ ></
P ages
User name
: @
Ġb urn
ever al
ĠQ String
ĠA rea
HO ST
Ġp urs
Ġ' </
ĠBo x
iz ard
ĠAcc ount
C ost
L ONG
th ird
Ġsee ing
P DF
ĠC are
O O
Ġexp ensive
Ġrest ore
9 00
Ġhomot opy
] >
Meta Data
Ġout comes
rint f
First Name
ig er
ĠM ov
Co ord
dim en
Ġr s
S IGN
ĠO UT
Ġb ij
it ors
ĠC F
cur r
Ġequ ipped
Ġpar titions
Ġdeli very
ĠM ove
Ġbr idge
For ward
ĠP rivate
v y
Ind icator
}. $$
Error Code
ĠH uman
sp l
Ġ' ../
ĠP L
ĠB an
$ ^{\
J ust
N EL
Ġbreak s
Ġexpl oration
Ġadap tive
ri val
Ġqu bits
bottom rule
vers ely
Ġout flow
sta ur
bad ge
Ġf loating
c ourse
Ġindic ator
work s
table s
Ġc url
gtr sim
m esh
ed ges
Ġobtain s
}} }}
> ');
Ġtem plates
ĠI T
Ex amples
Ġar rive
ĠL ight
LIN K
G s
---- -
Ġtr ick
E v
rup tion
Ġc as
N orm
ĠS R
:: $
raise box
C over
ud o
eff ective
Ñ İ
, }
]{ ./
Ġori ented
Sh are
: -
jav ase
Ġma il
Ġnumer ous
Ġas ymmetry
Ġex clude
ĠWh ere
st mt
Ġfoot ball
command s
TEXT URE
b v
K EN
ĠS ite
Re view
Ġk ill
(" -
ĠD ATA
H idden
Ġd anger
At trib
do or
Ġenc ryption
sh ifts
Par ts
Ġre po
Ä į
ĠSO FTWARE
im ent
Ġt a
19 86
Ġb ath
Ġoffer ed
Ġproced ures
ĠĠĠĠ ĉ
pro t
Ġjo urn
Ġfamil iar
C atalog
/ '
Ġsingular ities
Ġisot ropic
Ġs a
Ï Ģ
ĠM aster
ex clude
Ġm ic
n io
ĠExt ension
G aussian
TH ER
r p
Ġsub graph
Ġs ends
Des cribe
system s
SD K
$ ^\
s is
Con figure
C he
sh iv
Ġ} (
Ù ĩ
ic ine
Bo th
driv en
n an
sub str
ĠSet tings
Ġst ores
Ġb lob
Ġutil s
Ġind ent
Ġconf lict
Ġann ual
E ven
ĠD et
St d
Re ply
St mt
å ¯
b n
Ġkind s
Ġresearch ers
pro ve
ĉĉĉĉĉĉĉĉ ĉĉĉĉ
Ġimprove ments
Ġ\, .
Inst ances
iv ot
Ġe mo
spectr um
r w
P ACK
ĠL earning
ĠH ard
abil istic
ĠEd itor
Ġsatell ite
ĠG C
im inal
Ġvalid ity
it udes
ĠF A
NE W
ij k
Sub ject
Ġear th
Read Only
ĠB ell
Ġon click
Ġm igration
ĠA li
ĠD im
}= -
L earning
Last Name
Ġto ler
or ough
Ġsci entific
k h
ĠS yntax
ĠM is
D et
EN C
' }(
Ø ª
b os
Ġadap ted
Ġdevelop ers
ur t
ext ends
un its
over rightarrow
LO B
Ġhash Code
}} )\
Ġcomp atibility
Ġv irt
ĠCent re
tif acts
f riend
Ġre jected
11 11
Or d
Ġh eter
] }\
Ġa part
war z
ĠAdd itionally
Ġpass es
car bon
Ġrender ed
ĠP S
}) ^{-
> ';
ĠN ov
ĠA V
ĠA udio
up les
pe er
hom ogeneous
Ġar tist
Ġl ift
Ġappre ci
f ollowing
Ġre lies
Ġde generate
aris ons
ĠTransition al
RO W
Ġbl ank
l iteral
ĠT rack
ĠBayes ian
ĠI C
As sertion
Ġmeas uring
ac on
Ġ[ (
thread s
om er
or er
ĠM ex
lim ited
Pr imitive
ĠS em
In clude
G AN
ĠF ollowing
al tern
ur sive
j j
h el
LI B
cre ment
ĠĠĠĠĠĠĠĠĠĠĠĠĠĠ Ċ
Serial izable
ĠR ay
): =
Ġexplo red
lock ed
ĠC luster
)} =\
Ġad mit
Ġclass ic
re presentation
local s
=" ./
Ġalloc ated
th us
ab solute
Ġreve al
An im
U sed
ĠH D
Ġexponential ly
å Ľ
. ";
flu x
h our
Ġsh ip
p referred
Ġp a
}\ )
ab atic
ĠTh row
Ġac knowled
17 0
n oc
m v
nes day
ĠSw itch
Ġt unnel
__ _
Ġser vers
11 7
ĠTo ol
ÑĢ Ð°Ð
Ġdevi ations
H ide
Ġfrequ ently
Ġauth entic
Ġg one
ĠMin ister
g ls
window s
K K
ĠH am
(" <
Ġsp o
ĠS l
tif ier
i per
Ġac ade
Ġauto matic
op f
dd en
Ġsub jects
Ġ( );
Pres ent
al go
Ass ignment
id ential
Ex change
âĢ ¢
Ġasympto tically
Ġaut om
C ss
Over lay
Ġe ast
pre vent
par tite
omet er
ĠCh rome
tic ular
w b
Ġs ight
ĠF oot
H ex
c ue
the o
Ġho ok
mys ql
remove Class
Ġbar rier
Ġdivis or
Ġvic tim
Ar r
li ament
ĠĠĠĠĠĠĠĠĠĠĠĠĠĠĠĠĠĠĠĠĠĠĠĠĠĠĠĠĠĠĠĠ ĠĠĠĠĠĠĠĠĠĠĠĠĠĠĠĠĠĠĠĠĠĠĠ
Ġnon trivial
ym atrix
Ġprocess or
Ġplatform s
] \\
read cr
Ġdec ades
Tag Name
ĠMe an
ĠX ml
Ġtal king
Sch eduler
Ġslow ly
Ġ( #
ĠP an
ĠEn able
^{ *}
ĠH AL
ex tract
^^ ^^
{ }{
Ġm k
] -->
Pub lish
Ġapproxi mations
ĠSec ret
ph an
Ġobvious ly
ard en
ĠD raw
) },\
aw are
get Text
ĠRet rie
Ġle x
par ticles
Ġtrans mit
Log ging
ĠÂ »
e eq
)) =
}{ !
Ġd jango
com b
DI RECT
serial ize
colon eqq
ĠS F
ilo so
Ġ" --
Ġb igger
[] )
Ġrece ives
Ġstop ped
r n
de velop
ree ment
File System
bit coin
Ġconsec utive
tr uct
Ġle ak
Ġk ick
Ġac tiv
y aml
Ġpost s
ĠM aterial
Ġad apter
ĠSt orage
M obile
Ġfew er
ĠGener ate
He ading
ĠB S
Ġch urch
M r
Ġglu on
w ing
re store
ent a
Ġvar ies
Ġman ual
class ical
Draw able
Ġstandard s
ic ular
ast ore
R F
Ġguarante ed
y arn
lat tice
ĠGe org
Ġsong s
op ing
" =>
g ui
ĠResp ond
Ġaud ience
Ġconcat en
00 3
Ob servable
ct ors
ermal ink
vis ual
Dec ode
)$ }
Ġsk ills
Pro f
MA KE
ĠAfric an
Ġsimple st
Ġmechan ical
ak i
Ġback end
int ent
q a
ĠCHE CK
Ġtop ics
ic ago
Ġbel ief
Ġpre m
^ *}
Ġ= &
T oggle
field set
Ġin set
Sign al
re ply
te t
as tern
Ġr is
Dispatch er
ĠE con
jb oss
Ġin ferred
que e
le af
ĠM D
duc tive
S ys
ess el
ĠC ross
Rel ation
Th reshold
Ġco okies
Ġsp ins
19 85
the y
Ġrestric tions
et ary
> ";
ĠP osition
em s
a verage
A CTION
NR AS
US Y
33 3
Ġsh ifted
Filter s
md c
ĠK ore
ĠSim ilar
Ġso le
Ġfilter ing
Ã§ Ã£o
\" {
ĠR ock
Ġhold ing
Ġstr ug
ĠL ike
Ġclos est
] <
x ff
Ġvari ational
ne ar
ĠG W
ĠC y
Link ed
ĠB efore
std lib
ĠNO TE
W ell
Ġrender ing
Ġcr ash
n as
Ġg raded
Ġd ream
Ġmin i
ath an
or se
Ġclaim ed
Ġtempor ary
Ġs an
}) ^{\
iv ely
h p
de tect
Un mar
PAR AM
Ġrobust ness
ĠI gn
R oom
Ġsimpl ify
Ġas sets
I MAGE
CL U
Å Ĥ
R outing
Ġl ab
Ġpric es
b ow
Ġequ ally
c am
Ġperturb ative
h olds
Be havior
ĠO h
Ġg lyph
Ġpar ton
ĠN evertheless
Ġmin ute
Ġin cl
Ġphenomen a
NOS CRIPT
n ecess
irc raft
Ġreview s
ĠOb servable
ĠCommit tee
res sive
button s
tab End
Ġdro pped
ĠW al
Ġequival ently
Ġh abit
H L
ĠL E
enc oder
Ġanom aly
Q R
Ġy es
stit utions
+ {\
Pos ted
Ġle ar
Ġrad iative
k ed
ĠCon tainer
Ġsh orter
V T
et ter
lu c
Ġp t
MP TY
Ġwh atever
ĠM onday
Ġexp osed
Cre ation
Ġar ising
ma tics
struc ts
ĠFe ature
---- --
lin ec
Bl ue
ĠP AR
Json Property
h ill
ĠL ipschitz
> )</
Ġre mainder
Ġcon cerning
ĠF loat
PI O
Ġdiscre p
ex ist
Ġquanti zation
Ġoper and
Ġte le
tem plates
Ġdecl ared
=" <?
Ġm illis
Ġreg arded
Vari ables
Ġtim ing
ĠFig s
Ġcomp ound
ĠIn stance
æ ī
Ġepoch s
i y
Ap pearance
bas is
g ue
Ġre vision
in voke
Rece iver
ĠMan ager
umul ative
st roke
ĠSh ort
}; \
Is Null
exception s
Ġw rapped
ĠIsra el
Ġopportun ities
Ġprodu cing
* .
Un its
pay ment
Ġc s
qu anti
ir y
ĠValid ate
g ency
æĸ ĩ
ĠW ord
i ol
ĠRus sian
F ace
Ġsp end
Ġrequ iring
ro tt
Ġhelp ed
n el
R edu
Prov ince
11 3
Ġbec oming
ĠH en
12 1
ĠI ran
13 6
ĠM ET
ĠM useum
x ymatrix
Î ·
ĠLe ft
- }
ĠGr ant
Ġquanti tative
ĠWe yl
AC HE
ĠO ld
ĠS ave
ĠM iddle
um ann
ĠD I
($ _
period ic
Dep loyment
cor r
* (
Ġl t
\ `
Ġc fg
ar ound
w ang
ĠZ end
ere f
s ock
ĠM obile
Ġeff ectiveness
Ex cel
{ |\
Mod ules
Comp ute
alle y
V D
2 30
RET URN
ras tructure
) )$,
Ġw ww
Ġv ir
Ġins ight
Ġc ris
char ts
Ġda ughter
ĠW in
å ¼
TO DO
Ġbranch ing
Ġ" ")
scri ptions
ĠCon structor
Ġf amous
co eff
Ġad joint
Ġmechan ics
Elements By
port folio
Ġpropor tion
car ousel
pp ings
Ġev ident
Ġvar iants
( $\
[ ],
| }{\
algorithm ic
lo ok
> -
() `
ri age
ĠWe ek
Type Name
Ġaccur ately
MA G
ĠT ests
Con version
Ġneutr inos
ti a
Ġl ens
F s
Ġapproxi mated
war ded
stri al
main ing
H I
P lot
Ġg ender
er gy
}, $
mention ed
de m
Ġfe et
Ġ\| _{
G ood
ãģ Ļ
Ġb ubble
Ġdisplay s
an im
fra red
Ġsuff ix
Ġregular ity
Ġ\ )
ĠO THER
ĠTem plate
H orizontal
ish er
h c
Ġm otor
Ġaug ment
ĠComp ute
Ġbranch es
Ġansw ers
Ġc ivil
C AL
( @"
B N
ĠSt op
Ġsimpl er
mark s
Ġimpro ves
Te am
ĠF low
ĠValue Error
is Array
u its
Ġc er
Ġhe ating
Ġo mitted
Ġmode led
od ge
Ġro utes
per t
DOCK ED
ĠC ath
ĠĠĠĠĠĠĠĠĠĠĠĠĠĠĠĠĠĠĠĠĠĠĠĠĠĠĠĠĠĠĠĠ ĠĠĠĠĠĠĠĠĠĠĠĠ
ĠT IM
Ġlead ers
U X
ĠAr ab
Ġz eros
av g
Ġm ale
(" ,
ore st
dd ot
Ġp ip
Ġmod ifications
ĠIP v
p riv
Ġabsolute ly
D uring
Ġb ed
I EEE
ĠT eV
B in
ĠIm Gui
s atz
ĠRus sia
; =
}) }{
ĠL HC
Ġcri tic
M iddle
Ġ( <
T ARGET
P rom
ENT ER
Ġn m
Ġsk ew
Ġpro tein
d yn
lim inary
Ind ices
Ġco res
im ination
ring tone
Instance Of
l vert
roll ing
Ġ$ ("#
CON F
c odes
ig gers
Ġm ob
Y M
Ġannot ations
O W
Ġtr uly
job s
Ph aser
Ġatt ach
Suppress Warnings
ul us
P TED
u u
et t
S printf
ĠSc ot
l ighted
C ent
Ġdecl aration
Ġvor tex
1 19
ĠTh ursday
Ver tical
FE ATURE
Ġcharacter ization
re duce
Ġin variants
Initial ize
ĠInter face
AS A
Ġrecon structed
le ave
tex pr
Ġgen us
we ighted
P s
ig roup
)} }\
19 84
ĠW H
ap y
Ġaim s
Col lector
rot ation
lb race
Ġv en
Ġdivers ity
ot er
Ġinst anti
Ġpro min
d g
=" {
uff le
l if
Ġth r
Ġmass less
lement ary
ĠÃ ł
Ġ(! $
a que
Ġif f
ĠI o
pend icular
Ġf arm
Ġcaref ul
F ast
' }),
H int
U i
u z
ĠD er
ro c
Ġput s
I BU
We ek
w ire
ãĤ Ĵ
ĠS L
par sed
An i
CON NECT
Ġfl ash
fail ure
Ġcalcul ating
F urther
Ġde precated
Ġfund s
ĠW ho
Ġid entities
Ġdraw ing
G itHub
Ġbr ings
Ġc ars
Ġen ded
^* ,
at ers
sequ ently
Ġ\\ \
ĠCor por
Ġco variant
ĠF ar
Ġlo se
Ġ( .
ĠM ur
Ġ\ '
Ġconsequ ences
: /
qu et
Ġb odies
P al
Ġb ases
Ġlist eners
ĠB rit
L ive
E ar
CC CC
) ?
ma zing
ocomp lete
ow l
ĠB a
> ("
ĠD ocker
lic es
Ġg rows
ani el
Ġaff ects
re ach
ĠC WE
os a
16 9
Ġen velope
ib ling
Ġw arn
Ġr an
ĠJohn son
as ym
Ġread ers
Ġnorm ally
M argin
Ġmes on
ous tic
Pre view
P ermalink
Ġl ibraries
ĠJ im
k ar
Ġc iti
DE LETE
ĠA nt
}} ^\
tempor ary
ĠW ater
ĠClo se
T ITLE
ĠR GB
Fil ename
ĠW estern
Cl one
mon itor
Ġmulti plic
dep loy
Imp lementation
mem Item
ĠB as
n am
Ġphot ometric
_{ |
ĠL ab
p es
ĠNo thing
Check er
LE S
Ad ded
il lo
od a
La unch
x f
il ly
Ġd ash
Un til
c url
Ġex tern
Ġe V
âĶĢ âĶĢ
A IN
Ġc urrents
Ġreason ing
i en
Pro b
std out
s lot
ĠM ust
Ġrenormal ization
C AP
Predic ate
Ġm el
CA SE
un ion
ĠG a
Ġiter ate
Ã ¥
Ġform ally
Ġtechn ologies
SU PP
A ud
Ġmys elf
Ġsqu ared
In to
ĠB rowser
). $
ĠJapan ese
W ARNING
q r
ĠLin ux
Ġpair ing
Ġlong itudinal
Ġwrite s
G UI
m ne
Ġpoint ing
Ġcorre cted
Ġrot ational
ĠCOL SPAN
log ic
de generate
ĠM eta
Ġd ump
Ġcoinc ide
Ġar tists
ĠAn aly
Ġreport ing
ver batim
Es ti
dec ay
ĠN ative
ĠGr and
Ġlaunch ed
Event Handler
Ac knowledge
re ports
ĠC atalog
' ^
Ġa z
sur ance
% .
ab ling
ch arg
Ġz ip
ĠB utton
M NRAS
Ġstre et
Ġdemonstr ates
Ġreve als
Ġfair ly
r ons
P aint
Ġdi verse
ĠR ule
ILE D
Rem ark
Ġim pl
AT T
phys ics
Ġdis order
High light
Ġmod ular
Ġre staur
Py thon
NUM BER
Ġ- &
} '$
En code
å º
Ġn ic
ol i
Ġend ing
Ġback ward
ĠA pi
Initial ized
Ġp s
Ġcomp ilation
all enge
O RE
P in
df s
Ġoptim ize
has OwnProperty
ro magnetic
Ġexhib its
Ġec onomy
Ġgr anted
ĠTr igger
Ġtrigger ed
ret val
ĠRo yal
Ġs ed
E lem
ĠT ake
un a
Ġgir l
Ġsummar ize
si x
Ab solute
SD L
ri ers
under brace
ĠS ky
ĠW ell
integr ation
Ġl ic
Ġser ves
| ,
over y
Ġl as
ĠUn iverse
Me V
Ġ} ));
ik es
: **
16 8
ec raft
Ġno tic
prop ag
ĠA ge
Ġexpand ing
Ġing red
){ $
New s
Ġg a
Newton soft
Ġs ock
Ġext inction
Permission s
ĠE ns
{\ '
F oot
ĠL ake
Ġfor get
Ġbig gest
A bs
n ed
Ġ) {
Ġg ray
des cr
-- \
17 5
ARCH AR
AP PLICATION
Ġs cripts
book s
al gebras
Ġb attle
Ġvis cosity
Ġrot ating
p aren
PAR AMETER
D ue
P atch
Ġno isy
Ġkernel s
V I
Ġre start
max imum
Ġm iles
sp ot
mon ic
Ch at
}\, ,
S to
ĠJ ones
d ummy
ĠF ILE
Rec orded
OD Y
Ĺ ãģ
D im
ri tical
el ly
vers ed
Ġadd itive
Ð ³
2 10
Dis tribution
oc using
UN K
). \
Ġi ons
ĠCong ress
IF Y
vari ate
re y
Ġ um
av atar
Ġt body
olog ically
ĠC ount
Ġc ategor
Ġf ederal
ĠC M
s he
g mail
ĠF amily
ä¸ Ń
)$ )
ĠL ocation
Ġdeal ing
tr ation
[ ->
LE N
Ġengine ering
l apping
Ġdr ift
Cho ice
Ġper mit
Ġe mitted
qu ick
Ġleg end
(' ../
Ġto ggle
Ar n
Ġcol lege
Ġinser ted
Ġcaus al
im ited
(" [
ĠDo es
As sum
ĠK ar
o ph
Ġid s
T rac
Ġobser ving
Ġcol lective
Ġsk in
m cite
Ġm ount
block quote
å Į
ir l
Ġinvest ment
g ery
Ġexplain s
St ates
ĠW ait
id ay
Ġrout ine
Ġthous ands
is ition
In voke
rb race
list en
rack ets
4 50
Ġ// !
Ġll vm
com mun
ch apter
Ġsc oped
inner HTML
11 8
Ġcal ibr
c tives
so und
PO INT
sec ure
Ġbos ons
W M
Ð¾ ÑĤ
A v
Ġsim ulate
ce q
w orth
be am
f an
Ġfactor ization
Ġmer ger
Ġfavor ite
Ġ ÑĤ
Ġ$\ |\
ST RE
Ġs tim
) ',
Ġgu y
P B
================================================================ ========
Ġr ings
ich let
ĠJ ack
sub title
Ġprov ing
DO WN
Ġimp osed
Con clusions
N U
ĠL ove
S ources
Q UE
g uid
ig an
Ġg ra
and atory
ro zen
Debug ger
man aged
Ġle pton
dis c
ĠT yp
Rot ation
ore l
Ġreal ization
V R
Ġcollabor ation
geq slant
ĠCo ulomb
the ore
æĺ ¯
ver bose
ç ½
ĠW ood
Ġup grade
30 4
t ow
UM ENT
Ġassoci ate
ĠC irc
á »
2 25
Ġabund ances
ĠM enu
Dis cussion
plic ial
ĠA zure
c rypto
Ġprojection s
æ İ
ĠD NA
ĠY es
ä¸ Ģ
ati ent
ĠEx amples
12 6
IBU TE
h dr
Ġ* _
Ġclin ical
U TE
imit er
Ġfall s
ĠR oute
ĠG PU
< >(
E mitter
Ġp tr
ĠA lice
re mo
Ġdetermin ant
IF T
Ġextr apol
la unch
}} -\
Americ an
GRO UP
F B
. ]
IFI ER
19 83
me as
o y
S ender
Ġ' {
Ġaddress ed
um bs
Ġanisot ropy
ir s
ÐµÐ½ Ð¸
AA AA
Ġax es
Ġdwar f
ĠI MP
Ġform ing
in struction
Ġarg v
ĠL IC
}}{ (
Ġa ward
Ġun expected
Ġquad r
}} /
ĠF all
Ġinstall ation
ur istic
Ġarm s
DEV ICE
ag ers
Ġre tain
ĠL P
nav Bar
Ġequ ipment
check mark
Ġwall s
Sh ell
ar b
), \\
Ġintrodu ces
Ext ended
Ġp index
id en
Ġap pendix
r ceil
ut ch
cat alog
F IN
bar s
nu cle
ac tivate
Ġac knowledge
Ġre in
An sw
Ġmulti plicity
Ġp lugins
ul ted
get Current
Ġf uel
Ġmer ged
n od
Ġb lo
ĠCont in
on n
equ ilibrium
Ġs eq
Ġan ten
get Default
ro bot
pret ty
Ġtor sion
get Time
ING S
Ġcont our
st retch
ĠW atch
get C
Ñ Ħ
add on
0 100
00 4
ask et
assum ption
Ġ Ã©
Ġb eta
Ð¾Ð ¼
ĠK n
In s
D ER
e z
Ġse es
Ġdef ense
Ġv ulner
Ġdes cent
em pl
Ġaver aging
ĠChrist mas
ĠL ive
13 4
Ġrecur sive
Co ins
Ġtransform s
y ield
Ġtw ist
ĠFlor ida
* >
Ġin direct
lay ers
Ġdis p
Ġbe at
copy right
un te
class path
ĠPh ot
sc opy
\, $
ti ties
cal c
Ġarbitr arily
b eq
play back
i el
Ġrecover ed
ĠS ect
ACCE PTED
Operation Exception
ic ations
const raints
Ġred und
Ġ ))
2 24
Ġcry pto
char set
ti tem
tur bed
map per
ĠL ow
Ġwin ning
A O
ne ed
Ġinter sect
Ġsem antics
Âł Âł
ĠA ff
inter faces
Ġl in
Or g
Ġc ities
ge les
Ġpro te
ãĥ ³
pe ak
en sively
" +
Ġsurve ys
Ġimplement ations
LE FT
Ġam big
b ower
ĠSet up
Ġdram a
Ġcomp iled
M Search
Re plic
Ġsus cep
Ġw a
analy tics
ĠC ast
Input s
Ġdis placement
Ġs ink
ar ra
Ġal leg
Ġintegr ating
ĠT F
ĠT uesday
ĠR ange
vi ation
ĠWith out
}) +
ĠÐ ·
Ġrender er
s aved
de li
Ġsp orts
Ġt ensors
ĠL os
] ];
Ġar rows
Ġrec ording
Im g
Ġfore st
go og
FO RE
Ġillustr ates
qu ar
arge ted
ĠRes et
ours es
Ġext ending
Ġthere by
ĠDetail s
}$ &
w so
Ġcharacter ize
CL IENT
× ª
can onical
Ġperfect ly
Ġexperiment ally
Ġenc rypted
ter ior
ĠM iss
Ġnot ing
H ard
ĠBO OL
g auge
Key board
Linear Layout
Ġw ood
Ġpreser ves
ĠW all
Ġco herence
Ġwould n
eg o
eter min
Ġmag ic
ĠG rad
Ġc oding
Ġsp acing
u da
ct l
19 0
Ġplan ar
Ġ# #
add itional
Ġf ixture
Ġc orn
Sp rite
Ġt y
ĠSt ack
Ġsum s
ĠGener ic
Ġpack ets
Ġh a
Al tern
g m
se x
Fore ign
Ġturbul ence
ver ted
V el
ĠE U
string ify
R D
Ġf lo
h int
ev t
Ġro uting
Ġlog s
on o
Equ ation
Ġad missible
Ġmo tivated
with in
Ġstream s
20 8
( (\
Ġd ots
Ġexc itations
om mod
ĠR L
ok er
Ġevery where
/ ******/
> =
ĠE li
D AT
confir med
Ġ! (
Ġmeas urable
Ġsch eduled
s lds
Ġsh ares
ĠIn it
Ġinf rastructure
si o
be havior
] }$
y cl
ĠD NS
Ge o
h es
Ġback up
Cap acity
F un
ĠH H
Ġb undles
Th rows
ĠDocument ation
ĠV M
15 5
ORM AL
Ġup dating
cell color
pers istence
Ġassess ment
A ctor
Ġthermod ynamic
dis crete
re present
ici ous
Command s
Ġkey word
^* _{
ĠCon struct
ĠAl tern
Ġsupp ress
B tn
Man aged
J an
Ġours elves
Ġ" ");
be zier
s lug
ah ler
No tify
Ġnull able
i ously
Ġte levision
{- }
b rowse
IL L
@{ }}
it zer
A Y
l ists
H it
ĠR adio
C laim
ĠRiemann ian
n ic
ĠC T
ik ing
}: \
ĠE N
p ip
Ġpro tocols
ĠJ on
Å Ł
ĠF L
-------- ---
Ġocc asion
ĠTh ree
d ater
r h
imp lies
ĠEx perim
ur is
b w
Ġ" :
vious ly
IN PUT
, +
Ar row
| }\
Sub mit
S ink
Ġs ensors
ĠPro blem
exp ansion
Ġoper ate
ĠW omen
el ve
Fl ush
At tempt
du ces
b if
j ec
{ })
s ampling
Ġst roke
get Logger
$ ~\
ĠSD K
ĠSur vey
Ġremo val
per formance
C lip
F it
Ġp ed
/ %
Ġc lause
exp lo
ĠL uc
14 5
14 7
uck ets
bur st
Ġpos ted
le et
Ġun like
ĠRes ol
er ts
Ġevalu ating
PROPERT Y
it an
Ġcomp leteness
ĠCollection s
vir t
diag ram
scal ing
Pers istent
im m
)- (
z il
Te X
Ġcancell ationToken
Ġaggreg ate
Ġconvolution al
) _\
M ount
p romise
Ġim plications
STAT IC
Ġtw isted
XXXX XXXX
Ġs ter
navBar Cell
x l
out ube
Ġenhance ment
Ġ" </
') ).
Ġaccess key
)$ ;
p ure
con c
y o
ĠP layer
ĠB ern
dot ted
Ġend points
Ġsuc ceed
ani mate
Ġref lected
brid ge
}$ ~
fin ish
Ġcons iders
AC CESS
mag n
ĠVal ues
al one
Ġres istance
Ġti p
é ĩ
Ġtri angles
Ġch ose
}= -\
ent ropy
re vision
// !
Ġes cap
} `
)) ^
h ad
Ġdimension less
r ically
Link s
Ġbo otstrap
Ġp ot
PRO TO
Ġcollection s
Ġh aven
d type
Ġpenal ty
ĠJ un
Ġre actions
urb an
Get String
Y N
ĠHe ader
cover age
str ategy
il a
ĠAR M
Ġintegr able
Ġarchitect ures
Sch edule
Ġswitch ing
v b
ĠSet ting
Ġnormal ize
Ġhand lers
Ġacqu ired
Ġretrie ved
ĠÐ ±
l ations
and y
Ġho spital
Ġcap ability
ons or
reed y
Ã º
Ġemploy ees
Ġmagn itudes
00 000
! }
Ġweak er
Ġcompreh ensive
ul li
ĠOb ama
ell a
Q A
Ġ{ (
Pa ired
Ġcent ers
ser vers
i able
Ġa vailability
Z end
ĠM en
ST EM
other wise
ul i
20 2
load s
ĠPro duct
N ay
Tool bar
Ġlat ency
Sup plier
ĠAn geles
Ġspecify ing
ynam ical
small matrix
Ġfac ility
Per formance
)} ]
Ġdiff ers
Ä ĥ
ĠR ES
R ad
16 5
Dis able
Ġimpro ving
Con stit
S ep
Ġpublic ation
ĠP erson
od ic
Ġh us
OP EN
ĠClear ly
ĠH elp
us tice
Ġdec oding
amilton ian
ĠWed nesday
ĠVir gin
Ġe val
>: ]<
wall paper
Ġ` <
Ġlimit ation
"> Â
Comp osite
l ceil
call s
= </
T W
ĠM B
su ite
ĠLIC ENSE
F inder
ĠT E
set Value
ĠF re
-- ;
Ġin vertible
G H
} ],
m ixed
}} ;
Ġvis ited
XML Schema
ĠAr gs
AR K
Ġexperi ences
ĠCa uchy
Ġscr atch
L F
V P
s an
Ġgu ard
Ġt ack
ĠL ock
ĠS mall
A ws
ag ram
ĠY ang
ĠN Y
Ð¾Ð ±
Ġthere in
Un lock
Ġbo y
Ġover head
ĠP aris
requ ests
Ġtran sient
Ġb ill
av y
Ġrecogn ized
Ġselect ing
ph ab
ĠAs ync
sup ports
* {\
Ġacc ord
en ium
NO WN
n atural
sion s
ĠBit coin
incre ment
Ġvalu able
( <
Ġf ish
st ances
define Property
Ap pro
ac l
} ',
ac ian
E valu
D U
po inted
ĠAr ts
Sim ilar
2 60
Ġleg acy
as List
"> ,</
Ġpromis ing
Ã ł
Ġcontinu ously
no align
{ #
Ġd oll
æ į
19 82
] ));
Block Index
Ġdiv ide
! âĢĿ
m orph
Clo sed
si zed
get ElementsBy
Ġdif fe
Ġmut ual
it able
Ġgu id
met er
Ġpair wise
Ġ& -
Ġg host
Ð Ł
ĠĠĠĠĠĠĠĠĠĠĠĠĠĠĠĠĠĠĠĠĠĠĠĠĠĠĠĠĠĠĠĠ ĠĠĠĠĠĠĠĠĠĠĠĠĠ
Ġcons ult
\ @
Render ing
O h
sem i
P OL
Ġis t
Ġreal ize
Conf irm
Ġs lide
Ġres cal
Fr ont
Ġleg is
ul s
Man ifest
ĠLay out
[ ];
Ġsent ences
g able
ĠH ost
oper ations
e u
}$ \\
sup ers
lev ance
ĠCh apter
Red irect
illi ons
Ġserial ized
Ġindex ed
depend s
ass ociated
Ġpro g
pro ducts
12 34
as ide
pro por
Ġh ero
_{\ {
30 1
H W
' /
Id entif
Ġper pendicular
Ġdefinite ly
IT ER
ĠHe ad
hib ernate
Ġin dependence
}\, .
\% ,
b ank
ĠGL int
Ġor ient
Ġclo sing
st ro
Typ ed
o auth
ĠIsl am
Ġcancell ation
O s
V A
fl ash
Ġtrac es
pres ents
Ġfac ilities
feed back
append ix
^+ _
Ġseem ed
Ġs ketch
ĠCond ition
ĠS ER
V K
Ġh its
Ġin jective
Ġteach er
}\ |_{
CK ET
Ġqualit ative
Ġp ion
Y P
Q CD
Ġd type
ir able
ĠSystem s
W ords
ff ee
Ġsp ring
T LS
n P
Ġminim izing
Over flow
f ee
o z
ĠJ e
Ġis land
graph ic
Def aults
Ġphot os
Ġion ization
å į
Ġcallback s
Ġp id
le in
Get ter
Ġhost s
Th ree
ID s
r at
Ġv ice
Ġad vice
Par cel
un ic
sing ular
ra ils
Ġt uning
x c
ĠS tyle
Ġsubgroup s
log s
Ġ/** <
ab a
12 9
ĠAt omic
o e
}} %
ac ific
dis cussion
V oid
ob tained
ĠS ql
C riteria
spectr al
ä» ¶
Ġglob ally
View s
mod es
em an
Ori entation
ĠT i
ĠG ro
"> "
ĠM i
I o
al ways
ĠW rit
Max imum
P ad
Doc uments
D X
Ġr id
B ODY
g ro
Rec ords
Ġqu ote
HEAD ER
end ant
i ation
ob server
H ol
prevent Default
Or ganization
min imal
20 4
ext ended
Ġtrend s
Cor ollary
R adio
iz z
ĠE vents
az z
ĠK en
ĠLink ed
on i
Ġimp ose
ian a
S an
re land
ĠN ormal
Ġd w
Ġad i
Ġanomal ous
al p
x e
B as
Ġex clusive
A U
Ġbary on
im uth
V IS
t u
ĠB C
Ġoffer ing
F at
) ";
to gether
g row
Ġcon servative
ĠR T
Y ea
L and
NO TE
Add itional
ĠB R
Ġbutton s
ĠRe lease
amp ed
(" ")]
L ie
od b
Ġo mit
ti ff
Sl ider
azel cast
F LOAT
ĠA ust
Ġ nd
Ð°Ð »
ĠD ar
.\ ]
Ġpe ace
Ġsh or
es tim
ĠM OD
pg f
Ġsu dden
ĠIn tegr
Ġp b
14 3
ĠS eg
Throw able
Ġp un
ĠC amp
Ġ ].
ĠT y
ac ces
Ġhom ology
ĠS cript
ind ic
ĠJ ordan
Ġmach ines
ang el
w en
Ġhum ans
Ġadapt ation
\ ).
ĠAustral ian
div ider
Ġ( ((
Transform er
Ġl p
Ġstop ping
prov ided
w an
ian o
dec oder
te chn
ab b
Tok ens
he alth
integr al
ĠCh icago
Ġop posed
Sh ift
. [
ĠC red
rec v
F ACE
Ġf avour
ĠAcade my
g ate
s ymmetry
Ġf d
arc sec
)) {
ĠChar acter
EX P
3 75
ĠRuntime Exception
........ ........
Ġput ting
ĠT our
W ire
Constit uency
Ġfore cast
Fin ished
r vert
Ġcons ist
u h
"> '
Ġke eps
Ġbin aries
Ġexceed s
ç Ľ
n ested
Ġex ercise
Ġread ily
æ ł
ĠF estival
Ġc od
ĠE M
Ġphys ically
N d
Ġmodel ling
Non null
prob ability
equival ent
G ed
Ġadj usted
Ġgr ate
n or
å °
ĠDig ital
H A
Ġ Ø§
e volution
ut y
Ġb ott
Ġt iny
ER Y
inst ances
Ġtri es
Ġsuggest ing
pr im
Image View
d or
ĠV an
n f
ĠT ensor
aus ed
. ][]{
F use
]] ></
ser if
Pro blem
Ġenc lo
om m
Ġal le
ĠS ample
Ġk pc
semb les
Ġop am
o sitions
AS C
Ġconsider ations
Ġintegr ate
Ġbelie ved
Ġuniqu eness
Ġitem Members
Recorded Vote
Ġsw ap
ack s
Ġcom fort
g as
ey ond
assert False
pair s
G W
Ġfor th
Ġiss ued
Ġtrunc ated
Ġp ag
Ġnot ations
ĠRes ources
Ġconvers ation
id o
Auth entic
Ġpreser ved
V L
Re po
fold ing
im eter
Ġinter fer
., ][]{
15 2
Ġorgan izations
k r
get Data
b idden
Ġs pars
Ġh istogram
ĠV alley
Ġwork flow
Ġexper t
ĠC OP
-------- -
Ġform ulated
ĠAssum ption
Pro pag
Ġprov iders
'' $
ati vity
co ins
er en
Con struct
ĠB lo
Ġgreat ly
(' \
Ġpropag ator
ĠCon ference
he at
Byte Array
hook rightarrow
n v
ch ant
Ġf ault
Ġacc ommod
Ġa de
ĠDE BUG
um ented
or ous
'' '
Dec or
Project Path
Ġmeaning ful
ĠF ramework
Ġv ast
lim in
Ġflex ible
Ġ$ %
Ġ) :
Ġconn ectivity
Loc ator
Ġ*/ ;
encode d
CP U
ay er
pro jection
s yntax
Ġpossib ilities
Ġc d
be at
Ġarch ive
ĠD est
Ġcaref ully
Ġarg ued
Ġun changed
auth entication
Ġbg color
Ġf ant
Ġfore ground
Ġs ake
ĠS pring
Ġ\ %
Ã ½
ta kes
)\ |_{
=\ ,
Ġf inger
Ġwatch ing
Na N
T ake
Ġca ught
ĠVis ual
Ġmur der
q t
Ġparse Int
R ay
ĠA v
Ġg ates
Ġscen es
Ġis set
Ġreach ing
screens aver
Ġde ferred
ĠS at
ĠD ep
ke V
ĠRef s
Ġmon omial
ĠPl anck
I llegal
Ġphot ograph
Ġmark s
CONT ENT
Ġdestroy ed
Ġob st
ĠU INT
ĠM ike
aw ay
ĠMay be
Ø ³
SE CON
Ġbre ath
F atal
T or
Ġgeneral ize
Ġs tem
Imp lemented
on to
Ġpe ers
sib ly
ĠFil m
b ash
S amples
s il
Resol ve
print StackTrace
tis m
Ġin frared
C NN
tensor flow
Ġre written
Ġexpect ations
get Context
ict ory
ĠĠĠĠĠĠĠĠĠĠĠĠĠĠĠĠĠĠĠĠĠĠĠĠĠĠĠĠĠĠĠĠ ĠĠĠĠĠĠĠĠĠĠĠĠĠĠ
ĠCO M
con e
ĠC up
am ination
7 68
v t
re ts
* }\
ĠP attern
ma king
ay es
pos sible
Ġprodu cer
query Selector
in et
ĠIt al
F ee
Ġinit With
u is
Ġco ach
w art
}} </
M X
ĠD ark
Un expected
mal ink
Ġgr pc
Ġim per
ry st
Ġdebug ging
ĠS DL
Star ted
ĠF IX
Ġconsistent ly
Ġconstruct ing
Ġg reatest
log ical
Ġprob abilistic
M ass
l ad
We ak
Ap is
Ġsound s
Ġop ens
w alk
ĠSc ott
is Valid
ad ap
pos ing
Ar tifact
Ġvol umes
Ġco arse
ĠT urn
em y
pol l
Ġ$ ^
Log ical
ĠUS B
P AGE
, $$
Ġpolar ized
Ġred shifts
ĠF ast
sh own
ĠConst ant
I ssue
| <
iner gi
Ġturn ing
LOC AL
? }
16 4
Browser Detector
] _{\
open api
ä ¿
ĠA B
ad just
oper ators
ĠChar les
Ġannoun ce
L U
2 64
en z
Ġre ser
ĠSD SS
Ġmodul o
H er
lo v
TH E
w ick
r ating
ĠModel s
å ĩ
Ġcre ative
OP ER
ĠU TC
Process ing
h ist
Ġfeel ing
s ap
ĠN P
Ġincreasing ly
Inv ocation
Ġu uid
Ġinf ection
UM N
ĠS A
Ġsearch es
19 81
Ġpo les
Ġover come
Ġser ving
Cho ose
sp arse
() "
GL enum
× Ķ
Ġrig id
Ġanim als
ex plicit
TR A
Ap pendix
source forge
Ġocc urrence
Î »
star ted
Ġper man
Ġauthor ity
Ġ! !
Ä ģ
Ġre lay
}$ };
in sp
requ ires
.\ ,\
Ġcontr ary
13 7
Ġcl ar
inc ar
sm art
end a
Ġdiag nostic
ĠAd am
Ġstructure d
N egative
Tra its
V S
Ġa mazing
Ġde vo
ad joint
Ġag rees
j us
om o
idel ity
> ',
Ġh air
ĠV ar
ĠCont roller
Ġmorph isms
ĠRes erved
Rec ogn
^+ (
Ġca using
v k
Ġstand ing
Ġun safe
------------ --
ĠW allet
datab ind
19 79
ĠValid ation
b racket
Ġbelong ing
ĠS ports
ĠIter ator
ord on
O ps
Ġ$( {\
å® ļ
ĠC ONT
C ached
ti zed
Ġsearch ing
Ã ¢
inn ed
Ġsol ver
Ġh ierarchical
ĠG ar
read only
Ġa ws
="../ ..
ï ¿
Match es
Ġset Up
Ġe lev
Ġcon served
Ġer a
Ġde part
LA S
Ġfrac tions
Par ticle
Ġaut omorphism
b id
ind s
Ġcom mitted
Ġdefault Value
Ġofficial s
M acro
ĠL abor
ĠEV ENT
Ġdis trict
br anes
Ġent ertain
ĠPro file
h op
ĠPro tocol
\ :
Ð ±
|\ ,
Ġsci enti
ĠRE AD
Ġe arn
ĠE D
Ġbr ane
}: =\
ĠW i
the ir
Hand lers
Op ts
T ON
Ġp reference
Ġulti mately
æľ ī
Ġcomp arisons
auth ors
Ġd ates
E r
exp anded
Ġsucc es
Ġdef e
Spe aker
k u
sec ts
] /
() }
ĠF ort
Ġdec imal
ĠS eq
T ho
En tities
ob served
approxi mation
Ġh ers
ĠKing dom
HAND LE
ĠThe ore
do i
ĠMath ema
Ġa xi
math rel
]{ $
ater al
Ġprincip les
widget s
de cre
J O
Ġexperi enced
] ",
Ġsub mitted
R pc
B AD
Ged mo
W rong
Exp ress
de ps
Ġpurch ase
ĠArm y
ĠL IMIT
Ġprac tices
Ġel lips
UT C
"> #
B a
C lock
Type Def
gr ic
um per
ĠM I
Ġs atur
Vis it
ĠCont act
ĠE num
Ġiter ative
Ġr anging
rows ers
Ġmod ulation
ori ented
url s
c nt
g ra
Ġc ultural
L ife
ro les
Ġs now
TO KEN
Ġsch eduler
b orn
æ ³
ADD RESS
Ġnucle us
Ġprepar ation
tract ing
Ġf abric
IN LINE
")) );
lu a
Att achment
Ġdesign s
ĠR ect
Ġvill age
} --\
Ġend l
| $.
Ġdoc s
G Hz
Ġstart up
Bu ilt
P reference
Ver b
Ġp our
on ically
Ġy ellow
Ġcur r
Ġdoub t
ĠÐ ¼
fer m
Ġcr ime
Ag ain
eff ects
SE SSION
Content Type
b ell
ĠB inary
ĠS FR
Ä ħ
ĠDe pend
c art
ĠF I
Ġbehavi ors
writ ing
W D
Ġre form
Ġinter net
fit ting
Ġadmin istr
C LO
K M
om y
ĠJ eff
ĠOn line
) ](
ĠP ART
Ex ist
f h
" ):
lo ose
Ġar rival
cred entials
ĠAp pro
ĠLou is
Con v
g raded
or ial
in tr
normal ize
Ġcontext s
V ars
Ġmo tions
h ub
Helper s
à ¹
determin ed
Ġestim ating
Ġmis s
CharacterOffset End
CharacterOffset Begin
Ġoscill ation
p lots
Ġpol l
ĠĠĠĠĠĠĠĠ ĠĊ
ĠP ri
Http Request
Ġbusiness es
sp it
C ert
el a
ĠSci ences
Ġin er
ĠH aw
col s
Ġs ale
ĠFranc isco
Ġmark ets
Ġ( +
Ġar tificial
Ġa ges
Ġch ief
ov y
Ġlock ed
Ġfill ing
ad os
C lause
A verage
RO P
H AL
d id
Ġad res
h ift
Ġst ations
- .
="../../../../../../ ../../
Ġab use
ĠR M
Ġfrag ments
ĠLine ar
multi put
dif ference
pol ymer
Text Field
sign ific
K B
st ab
in finite
tr acted
f und
{ }\
ĠP latform
Ġdissip ation
20 3
Ġdeliver ed
Ġform ats
g lu
normal ized
rela tivistic
Ġin version
> #
ï¿ ½
Ġun likely
Ġsh rink
Ġon going
I J
v dash
T ube
Ġdifferenti able
LE AN
ul ates
ar ian
clo sure
ans wer
ĠCon ver
conf irm
ĠP erm
border ed
Ra ises
ĠH on
break ing
til ity
Ġdynam ically
Component Model
ĠÂ ·
Ġcal c
ĠCan adian
4 000
Ġk ing
ĠPhys ics
ĠN ight
cell s
"> .</
act ing
ĠRec e
ab ases
ĠS elf
y d
D roid
Com bo
ĠKe ep
Ġstream ing
dis tributed
W ITH
Ġ" (
Ġperform ances
rom ium
USE D
x b
^* $.
unt u
Ġoscill ator
Ġremark able
Ġsever e
Ġadvan tages
R ew
ĠH elper
Ġcompan ion
duc ing
ĠS S
Cre ator
Op code
Ġgu ys
ref ox
Ġmov ies
ptr c
ĠPl ace
ine q
Ġexamin ed
Ġneg lect
ĠIn fo
C op
ĠR ET
Ġj e
Ġan satz
ĠT a
Ġ... ,
ãĤ ¹
N ORMAL
ĠC MB
Ġor ange
E mbed
Res ize
Non Null
! ");
omin ator
Ġown ed
14 6
14 9
ĠST AT
Ġestim ators
13 8
Ġoutper forms
Ġp sych
ĠD rag
Get Type
^ (
r er
NAME SPACE
de leted
ĠL ord
ãģ Ĺãģ
Ġa ircraft
coup led
ma ker
ĠC ulture
Ġsubsequ ently
ĠStud ies
Ġref lects
ĠM achine
Ġsp ont
dash board
ud ge
ost on
pos itor
Ġc ube
ĠC laim
Ġs ty
Ġwarning s
mk dir
ris on
ab br
cap acity
Ġ< ![
SE ARCH
VAR I
Ġprior i
' ')
) ]{
weight s
L em
Ġre n
Ġdec ade
Ġb attery
Note s
Th rough
Ġd ummy
int enance
Ġrank ing
m ond
con struction
Ġpreser ving
ä¸ ª
Ġs ectors
00 6
Ġfluctu ation
Ġwire less
ĠV o
> ]
ĠAd S
ĠT otal
Ġp ad
Ĥ ¬
Ġc v
Ġv e
Ġmon op
Ġgu itar
Ġa id
ĠK im
Â °
Ġf ly
ver tices
ĠF ac
ãĥ Ī
us ual
D K
struct ures
-> {
FA ILED
}) }{\
Sp in
CON ST
ec tives
ĠTran sport
ĠN C
ak ed
ann a
N s
Ġrel ate
Ġro c
sw ift
P icture
un def
b io
Ġ\ ,\,
P lus
we ather
Ġcompe titive
Ġindex es
Ġmagne tization
get User
TH READ
ĠAdd s
Att ach
Ġk id
Doc s
w al
Ġplan es
ĠC ell
O G
Ġs q
c id
Ġsh ut
Ġbos onic
' }{
Ġt rap
Ġl azy
Resol ution
Circ le
Ġs ister
tr unc
pub lished
Ġfe ar
linked External
Ġpers ons
Alloc ator
j sp
f re
ĠA ud
pro toc
Ġt ar
ĠEns ure
ç ±
ĠK now
' </
L u
Ġsign atures
m bf
% );
D avid
h it
Id le
Ġmar ried
R ound
Ġsen ior
ĠGeorg ia
Ġstr ange
Ġsh allow
Conn ected
Ġspatial ly
ther mal
Ġreg imes
ur ies
ĠG ra
c out
Â ©
Ġdr ink
Ġph iloso
Ġexec utor
0 200
o op
Po sitive
necess ary
file Name
ĠR ad
Ġra il
os cal
size i
ĠIt aly
Ġsyn thesis
Ġphot ometry
ON LY
keyword s
} ')
Ġbal anced
t g
Ġneg lected
Ġsuper ior
Click Listener
Ġ* **
Util ity
j q
M igration
Ġcheck sum
ĠCall back
B ot
s amp
ĠD a
Ġmodul us
en ant
Ġturbul ent
U INT
Do es
linkedExternal ProjectPath
graph s
Ġpro c
Serial ize
ĠB ody
Ġmethod ology
2 11
Ġco in
Ġrefer enced
\ ),
TIME OUT
Ġutili ze
Ġb is
ĠPol i
Ġpo si
Attr s
P LAY
ĠType Error
ĠG ames
ĠDiv ision
ot ent
Ġqu iet
node Type
Ġfermion ic
hl js
SER VICE
FIL TER
Ġ+ (
ĠV ictor
P K
g ulp
cl us
p ow
Ġf ired
}{ .
+ -
pl aced
SE Q
Ġpers istent
) }^{
f ade
Ġpromin ent
ĠJose ph
sh ips
h ls
ĠP E
Ġhad ronic
Ġre ti
RE C
comp atible
Ġarg c
ll a
EX TERN
Ġp ng
it age
Reg ular
Ġnucle on
Ġ( @
hold ers
Ġtheore ms
^ -\
min i
M g
Ġm ismatch
ĠR en
has Next
nos is
D eg
L ER
)) :
_+ $
ä¸ į
Ġjav adoc
Ġsat uration
P b
in son
2 80
H a
k ubernetes
o ft
Ġto m
EQ UAL
Ġconsider able
ampion ship
}} ({\
tz mann
Ġd amping
ex change
Ġnon negative
experim ental
T s
back up
IC K
ĠA sia
Ġec centric
log ue
ĠF inal
Ġprom ote
F ollow
b is
Ġset Timeout
View ById
Ġreson ances
ĠP anel
Ac knowled
Ú ©
16 6
rece ive
"/ ><
ĠCE O
d og
Ġattr active
Ġcomp ressed
13 3
Ġplace ment
ĉĉĉ čĊ
Ġy oun
Ġl n
Ġkey board
ĠB la
Ã ±
Ġcor ollary
g ateway
Ġ' )
uk awa
Ġt um
00 7
Ġhe ap
Ġland scape
15 1
åı ĸ
b ian
Ġan ticip
loy ee
ĠOp tim
@ {\
y ml
rec ision
c ord
Ġch at
ÑĢ Ð¸
ĠB log
van ishing
document ation
Ġheav ily
' }}
Ġmi tig
4 80
host name
Ġti dal
ĠH AVE
){ $\
P references
L ex
Ġsex ual
ATTR IBUTE
rec ords
×Ļ ×
ĠThe ory
E valuation
e ther
contrib s
Ġclean up
g ol
Ġbro ther
M ajor
Ġexper ts
bi as
En ergy
Ġindu ce
Ġins ights
num bers
MLE lement
b readcr
ĠĠĠĠĠĠĠĠĠĠĠĠĠĠĠĠĠĠĠĠĠĠĠĠĠĠĠĠĠĠĠĠ ĠĠĠĠĠĠĠĠĠĠĠĠĠĠĠĠ
ĠI reland
ex istence
ĠT S
ĠR F
-\ !
Ġsup pression
ĠP lugin
sh ader
Kn own
he ap
ĠG Hz
param ref
Ġsubstantial ly
ok ia
oper ating
ĠF rame
Ġadmin istration
Ġ ì
Ġhad ron
Ġf av
Ġm ess
stud y
sp atial
C XX
Ġd ocker
ul o
ĠB orel
ĠWilli ams
40 1
$ ]
Ġsp ac
Ġful fill
A ug
:// $
ĠP at
mt x
n ik
F lat
or ry
19 60
Ġemphas ize
Ġresid ents
pl orer
ĠW ild
Ġir on
CONT RO
ENABLE D
re try
Ġ@ @
TO P
ĠPol ice
Pe ople
E val
Ġvar ieties
Ġdro ps
perturb ative
Ġexplo it
User Agent
ĠF ood
Ġev t
Ġinfinite ly
Ġde eper
ĠL ittle
por ters
Ġ rain
Ġ) );
ĠEn try
loc ations
)} +
13 9
': '
Ġcr iminal
ĠT ypes
Ġ] );
ir k
her its
Ġrun ner
ici ans
C AT
Ġb ird
organ ization
"> :
s at
x ffff
class Frame
N F
SE D
Dem o
un i
ĠC lean
Ġh ack
sim al
Grad ient
Ġpreced ing
L B
Ġencounter ed
}), \
Ġres ulted
ĠY ES
Q T
Ġc ro
current Time
Ï Ĥ
)+ (
Ġfoot er
ĠMex ico
ge m
Ġ$ ('.
Ġreson ant
D u
Ġdis tribute
UL AR
ãĤ ĭ
% ">
al and
Ġmark eting
ĠFe b
r te
Ġcal endar
E B
' "
Ġcontinu ation
S el
}{ -
Ġcop ied
h m
Ġ' [
Ġpar abolic
Ġregion al
F ixtures
ĠTH IS
Ġinter rupt
N M
Analy zer
Ġb ot
ĠCoun try
Ġsupers ymmetry
al most
per malink
read able
triangle q
Ġevolution ary
comp uted
sql ite
Ġdescri ptions
Ġt error
ĠL ag
Ke ep
Ġgre y
) }}{
Ġsur jective
Ġjud ge
V V
ign er
ĠMed ical
we ets
ç± »
A WS
ĠT itle
man ual
ĠERR OR
no thing
An n
ĠSp anish
ble ms
Ġexception al
) ");
Ġneur ons
Ġcap tion
Ġremain ed
AT IVE
Numer ic
P an
Ġsh op
Ġcoun ty
M al
ĠJ es
ĠAc tivity
end o
Null Exception
Phys Rev
à¤ ¾
T urn
ĠF LA
>> >
ĠC I
ĠP i
per m
Ġbuild ings
Intern ational
Ġnumer ic
GL uint
ST AMP
Ġhus band
ĠVis it
Ar c
Map s
Sc enario
su cc
Ġpr on
Ġent ering
Pro jection
Phys ical
( %
Ġan onymous
xx x
conver gence
ĠCal led
19 77
le ad
ĠS ar
Ġpredic ts
So ft
ex e
A mazon
} ")
ly n
IT S
lu gg
ĠDes cribe
Ġcyl inder
Ġsuper vised
filter ed
Col ors
o tic
Ġsum mation
Ass essment
Ġtimes cale
Ġde partment
Ġas c
ĠP FNGL
Ġqu ench
assert Raises
positor ies
æ ŀ
38 4
Ġmoder ate
{ -\
. }.
ĠAt lan
Ġshould n
Ad s
z c
ĠV k
Ġwidth s
DEF IN
tr al
Ġimplement ing
. }}
Button s
k b
ĠVari able
Ġsql ite
Ġco ast
}^{ -\
================ ========
Ġaccept able
D J
x r
un used
const rained
.&.& .&.&
Ġbij ection
IP S
Ð°Ð º
Ġjourn ey
d am
B usiness
U nd
? .
Ġun e
e ast
ĠG uid
M icro
t pl
Ġad vent
W ang
c ub
min ute
t om
Ġb ench
Ġlead ership
Ġg alactic
}} }(
bl ur
ĠApp ly
Ġ" \"
Mix in
~~~~~~~~ ~~~~~~~~
Answ er
}} |
ĠF our
^* $,
' _{\
H P
Ġbas ically
Ï ħ
io let
Ġsp iral
=" '
ĠSen ate
min or
spec s
gener ation
O VER
u ition
ct xt
Ġshe af
termin al
xim ity
ĠT raining
x z
> ",
ĠFig ures
ĠA ST
ĠJo e
N i
Ġ" {
Ġpl anned
match ing
R B
ĠS ym
inherit Doc
Ġspectro scopic
Ġd ry
ap k
y ellow
Ġr pc
Ġag ency
ĠM ode
Ġelse where
Ch apter
b az
Ġanaly tically
ĠDes pite
u y
Ġs oc
AS K
Ġspe aker
SE C
d ac
Ġre new
Com ments
zh ang
ic an
ĠStud y
c en
Comp any
Ġed ition
Ġd uplicate
Ġtrans mitted
Get Value
... ,
Ġl ived
ĠGL enum
Fat alf
IR ST
Ex plicit
go als
ĠSt ory
Ġmolec ule
Call able
ul ary
tr uth
Cred ential
ar ations
Conf ir
State Exception
resh olds
ĠStr uct
ogene ity
] ,\
Ġatt end
ro ut
Ġany where
f lip
2 32
ĠDiag nostic
IC AL
ĠS IL
h uman
' ><
> *
y z
Ġver bose
REQ UI
f ixture
Ġcon ductivity
Ġtransfer red
Pr incipal
ĠF ro
Ar ticle
'] [
Ġcorn ers
Ġâ Ĩ
COMM AND
Ġm as
Ġremark s
c ms
app y
ĠCom ment
ast ro
. \,
T CP
then Return
Rec ent
Ġvar ied
S ensor
Ġg fx
ĠS TD
Ð ¶
ĠCh ief
Ġdiscrep ancy
Ġsem igroup
Ġout going
phab et
Ñ ī
Ġw elcome
Ġth orough
R P
Ġun lock
Ġfix es
ps frag
con tainers
Ġmer ely
Ġanisot ropic
Ġweek end
Ġw ider
c oc
imp lex
ĠTrans form
Ġade qu
B and
se ver
statis tics
re dis
ear n
? )
Ä ĩ
qu ire
View er
A ge
E MPTY
W P
Number Of
Ġhous ing
S uffix
R X
ĠEngine ering
è ¦
Ġb racket
ĠCorpor ation
igh th
Min imum
Ġun set
Ġtri ang
Ġpr ison
Ġcons texpr
On Search
mis try
bas eline
ĠMET H
Ġin form
L ess
level s
Ġany way
Ġas king
omes tic
Ġfor cing
Ġg aps
Ġpredic tive
)) }
ĠTH REE
ur c
ta p
) ];
t ls
Ġpar k
Sh ard
urn ament
Ġhers elf
bul k
Ã µ
ĠĠĠĠĠĠĠĠĠĠĠĠĠĠĠĠ ĠĠĠĠĠĠĠĠĊ
Ġsub stitution
sq cup
Ġab bre
Ġmembers hip
Bal ance
Ġf printf
U IL
tikz cd
Ġc ards
Ġpatch es
luc ene
Ġas ymmetric
{ +
ro bust
out line
ĠDir ichlet
Ġnotic ed
)^{ -\
U IT
Ġd rivers
Ġpre liminary
Ġre ar
15 7
Ġhundred s
Ġatmo spheric
20 5
22 2
j as
R G
Ġpar ad
!! !!
Ġqual ified
differ ential
M Q
Ġac oustic
Serial ized
Ġimplicit ly
Compar ator
ĠCOP Y
}\ |\
Or Empty
L ists
P ART
\% .
ĉ ĠĠĠĠĠĠĠĠĠ
Ġinter ests
%%%%%%%% %%%%%%%%
D irective
Defin itions
Ġd uplic
cond itional
st ory
s us
p v
Ġsim plicial
Bal ancer
ar ticles
ink owski
urch ase
t odo
Ġl ying
ĠItal ian
Ġf ra
å Ĩ
b rains
onom ous
im od
Qu ick
Î ¼
Ġacade mic
> }
im et
ĠG ib
Ġfix ing
Des erial
Ġbuild s
el m
Ġnumer us
TR ACT
Callback s
ib ly
ĠH om
Ġexp onents
Ġ[] *
ĠEmp ty
Ġf ocusing
oc c
Stud ent
pa int
sh ake
amer as
Ġt on
math comp
inherit doc
Ġ ĉĉ
write ln
}} [
ĠM ont
ĠR S
x a
re ject
Ġpol ymer
ĠSV G
LOB AL
ĉĉĉ ĠĠĠ
Ġmo tivation
Ġgir ls
CLU DE
ADD R
im ize
work space
scal atest
Ġvar char
") ).
"> )</
ction s
Ġhelp ing
' )}
19 78
ost er
uc tive
Ġ rom
St amp
R ich
on line
Ġsepar able
U tilities
aw ait
aut y
}^ -
est ingly
F all
m echan
ĠCheck s
Ġd ip
ĠTh ose
ĠF i
Ġl iber
IS O
Ġpoli tics
Ġannih ilation
Ġcol on
Ġaggreg ation
ĠCom bin
Ġpi pe
getElementsBy TagName
ul um
ĠMark et
Ġsupers ymmetric
p w
rece iver
amb ig
Ġmaxim ize
n at
å ½
Ġfe at
æĹ ¶
tain ment
ag a
Ġtri angular
un es
ĠP a
ĠPar liament
f req
Ġman us
Ġdes tr
ĠF actory
ĠAPI s
Ġ' --
ĠD rop
)$ :
Ġrespon sibility
Ġkine matic
Ġviol ence
Ġconsider ably
ĠM M
pm od
S al
oci ate
Ġgovern ed
ra pping
Ġmillis econds
Ġint ui
13 1
Ġanalog ue
> @
l abeled
ur acy
ĠSch r
Ġapparent ly
ĠM id
Ġelimin ate
Ġc umulative
El se
ĠP aper
if ting
Ġoccup ied
auth entic
}=\ {
Ã ª
Ġint en
Ġab strac
| .
se man
ĠB reak
Ġwavelength s
evalu ate
ab ic
DE SCRIPT
ion ic
ost ream
Ġcombin atorial
Ġsession s
ul ties
ĠEd ge
Ġmus ical
th em
Ġfocus es
ĠC os
STRE AM
F X
AR M
w y
Ġconf lic
ym orph
it ro
Up dates
Th umb
ĠPub lish
Ġan imal
Rect angle
Byte String
thon ormal
ap ons
ĠU l
dimension s
åľ ¨
n orth
ĠL ang
ups ilon
ot ers
Ad S
Ġcyl ind
Ġciti zens
gu ard
- %
T a
in tern
Pro jects
Ġcapt ures
Ġdevo ted
int on
Ð¾Ð º
Ġcounter part
Ġadi abatic
ĠSh ared
Ġstrength s
}{ (\
initial ized
ĠS uccess
,\ ;
j l
Ex act
\% )
NE SS
}\ {
ĠI M
ash i
M id
EX CE
ME DI
Ġwe alth
Text Box
match er
id ents
Ġdeb ate
ĠW ARNING
Ġeven ing
sch ild
ĠF E
type Name
sh ire
th ew
Ġmed i
rac y
Work space
te or
ĠHash Set
oun ced
}}{ {\
Start ing
({ },
Ġcomp utes
Ġ ~~
Le ave
ĠJ ackson
yn man
c ence
j ump
is ations
per form
e arch
Ġpro fit
Ġdist ortion
ĠCO MM
sor ted
ĠChild ren
k ers
m ong
ĠA wards
C art
Ġle pt
Ġr v
Ġparamet ric
Ġb uffers
Ġcont ours
m os
st ars
end l
Ġconsequ ently
Ġarriv ed
over ed
Ġtool tip
mix ins
y our
Ġre dis
up iter
>{ @
Ġincorpor ate
é ¡
View Model
ma d
UD ING
ĠOff icial
match ed
Ġaz imuth
ĠP OST
Experim ental
P ull
Ġcontr action
har monic
ul f
F rac
CL UDING
S orted
sp y
ss ues
ĠSt an
Ġast ro
ĠSta tic
Ġmin us
Ġmu on
j p
W ave
Ġa u
ĠH ubble
f li
"> {
ĠN L
char At
Table Name
ĠSE LECT
Ignore Case
ĠR os
). </
Mo tion
ĠC li
BE GIN
H ierarchy
rece ived
W T
set counter
)} +\
ĠAm ong
Ġpublic ly
Pro ducer
co ord
CT RL
Pack ages
M ich
19 5
Ġc urrency
Ġsyn thes
oper ative
d irective
Ġincre d
ĠC ost
ĠP od
Ġfile Name
Ġj unction
Z ip
Ġat tributed
Ġcontain ers
Re presentation
ĠS and
un ix
Ġo xygen
Ġown ership
> {{
er ry
ĠBrown ian
Ð½ Ð¾
ro uting
)\ )
ric tion
FAIL URE
ĠM T
Ġidentif ies
l v
Ġre venue
ĠA DD
D N
predic ate
ĠVirgin ia
T ax
Ġp ictures
Ġas ks
ĠB esides
resource GroupName
D G
Ġf ellow
Ġcardinal ity
Ġformat ted
as ts
MD R
p ause
ĠJ O
= _
ĠY O
Ġmo tiv
Sol ution
M ul
il st
hand lers
ĠAr rays
Comp atible
Ġevol ve
ĠMus lim
ĠE S
Comp ile
. ')
: ]
19 3
el li
Depend encies
Ġm im
Ph ot
Ġsuperconduct ing
the ast
Combin ing
thin space
Ġr am
Ġcons ensus
Ðº Ð°
ci i
single ton
att achment
ĠC amb
de tection
jet brains
Ġsch eduling
ĠRem ote
Ġscreen ing
ĠUn fortunately
ov ing
tempor al
ĠD irectory
), $
SE rror
Ġmain tained
E OF
ĠB atch
Ġb an
Ġi OS
Ġrelig ious
Ġindu strial
Ġdire ctive
Pub Key
14 8
}= {\
sp lice
ĠQ uestion
Ġdifferent ly
æį ®
ĠF ake
Ġminim ization
o ma
ot ype
Ġte lescope
for ced
Trans actions
ĠDo main
CO PY
ĠL oc
^{- (
Acknowledge ments
c A
"> =</
N AL
ĠAmeric ans
M or
Ġs sl
int rodu
clo s
Symbol s
ĠRed is
Ġcomp ac
ĠP rivacy
Ġspl its
q s
po ut
ti r
Ġsole ly
ma de
ĠU UID
Ġf lip
I lluminate
Ġb if
get Parent
ĠCh ern
^* )
Ġor thonormal
rupted Exception
, &
. {
: $
M ULT
Ob serve
b ly
ti bility
Ġv ac
Ġwork space
S pring
c od
is enberg
ĠN A
15 8
CD M
"> @
Ġrecogn ize
CO RE
m ob
ong s
d B
pos als
ï¼ ļ
ĠS K
Ġcent r
Ġmatter s
Im plicit
ch astic
Ġh older
:: _
tabular newline
is i
Ġe at
Ġstatis tic
Key words
Ġgraph ics
cri ptions
Ġgraph ene
Ġ[ `
Ġg rain
ĠD ynamic
ĠPer formance
Ġcomplement ary
b k
L azy
Ġh ist
ĠThrow able
N EXT
ocab ulary
ass er
Ġass oc
/ ************************************************************************
T aking
Ġimag ine
Ġra ys
ĠT CP
ĠN ASA
Ġcommunic ations
ĠBan ach
ref s
)}\ \
Ġtic ket
ch ars
Char Field
tim ing
Ġaccess ed
to s
Ġper mitted
ĠProf essor
C rypto
ĠS ound
A MS
a os
e o
ĠH or
d up
Tr im
g allery
ĠE mail
mid i
Ġoper ated
Ð°Ð ´
p ane
SH OT
un ov
Ġfall back
ĠB UT
19 76
fore mentioned
}^{ {\
Ġlat tices
Ġquan tify
G esture
| ^{\
pro ved
Ġcol ored
o S
ach el
ĠRe v
De leted
i u
@ \
ch ro
igh test
ĠPo inter
ss ec
mod ern
eck er
67 8
ĠNe umann
ta ken
SR C
class ification
Ġg rade
E m
s uffix
Ġs moothing
ĠPh one
Ġ* =
lear n
thumb nail
B IND
des cribed
Ġbur st
cat Desc
G al
Ġdis contin
Ð½ Ñĭ
ams ung
Ġfif th
00 8
M W
L ab
Ġdistingu ished
T raining
f ish
ĠF ederal
âĢ ī
OUT PUT
cor ner
t uning
V s
Ġac cepts
b z
Connection s
ĠM IN
Str ict
g md
L if
Q Q
Ġtrans lated
re ngth
ven ted
H EL
Ġen rich
ĠConst ants
6666 66
art ing
D TO
pre ad
Ġsure ly
Q Name
ss h
\ ;\
Ġ* */
At omic
][ <
prov ide
Off ice
Ġb rowsers
H F
ĠU TF
Ġsub tle
u dd
ĠS ED
D MA
math ord
DE CL
big cap
c rit
per ture
Ġoffset s
align ment
ĠD ES
l on
ĠD ialog
ĠAl loc
Ġalloc ate
b h
æ Ķ
Ġin complete
er ving
C LA
Ġ" *
Ġcrow d
;\;\ ;\;\
$ _\
ro d
14 2
Ġdiff use
di amond
Ġd z
high er
ç½ ®
ren ce
Ġdist urb
c riteria
ĠCorre spond
h or
Act ual
v ary
Ġlo ts
Ġsub spaces
Ġoff line
real m
Ġhal os
k pc
Ġvis itor
Ġgr an
Ġrecon struct
ac cel
ĠG itHub
Ġdef ect
**************** ********
j dbc
Ġun iversity
Ġed iting
late x
LE ASE
X T
Ġdown stream
TR ACE
)}{ (
ro b
ĠJ ustice
S ci
ĠL iber
Ġin clusive
PT S
MPL ATE
ym ore
15 4
uck y
Ġhe aring
re leases
C ACHE
Ġfall ing
ĠD an
ĠNote s
a ac
w c
24 5
ĠA F
/ [
x iv
c raft
c annot
po si
tw ig
is te
Sup p
f air
Ġhas n
ĠZe aland
)= -
Ġwill ing
Requ ested
Red is
> ");
Ġas ynchronous
Ġax ial
prom pt
Ġmis sed
Ġwal king
ĠMem bers
Cur ve
cas ts
View port
---------------------------------------------------------------- ----------
Print f
Ġe g
') [
Ġneg oti
end ers
Ġamb ient
im s
Ġec onom
Ġ{ !
A spect
Ġc ash
con ven
P ag
ĠC lick
O ct
b la
18 5
ĠP ak
Ġs and
he v
ĠG alaxy
áĥ Ĳ
Ġcontribute s
Ġ ----------------
Ġso ph
Ġk o
Ġneighb oring
B etween
Ġ/ \
Ġsuper nova
P ic
Ch ars
am an
tic ky
ĠE s
&& &&
ĠExec ute
c ube
Ġn umpy
Ġcircum stances
Ġhon est
as ympto
Ġm ental
to k
Ġhead s
ao tic
neighb or
ĠTh anks
19 75
be ing
f k
Ġst ops
Ġloc us
Clear ly
Ġp orts
experim ent
Ġre levance
ĠF UN
Ġpul ses
Ro les
S lide
at tention
: ",
Ġexc iting
OFF SET
Ġlog ged
ĠN ames
6 55
Ġsign ing
PE G
PO SE
Ġmatch er
ĠT oday
s low
sm ash
14 1
B log
Ġf at
ĠC art
Ġflat ten
ly wood
moz illa
bre ve
\ ",
B en
Ġc ascade
ro utes
ĠCO MP
Spec ific
SN AP
Insp ector
Ġre tail
SS M
Ġse at
uzz y
g d
Y ES
2 12
W ho
Ġ{ :
To Array
te p
Ġsh utdown
Des criptors
pi ece
]{ @{}
si e
IM ARY
Ġ$ +
Ġh otel
So ftware
At Index
Ġpuls ar
Ġper ce
ĠSQL Exception
Ã© s
et ti
ĠReg Exp
Ġ<!-- [
ĠAL L
Ġcom mission
Gu ard
ACT IVE
class v
Clo sure
lo ut
Ġmonot onic
+ |\
Ġb ol
form atter
Ġf iction
ĠT al
In crement
_* $
ĠP ush
Sm art
im plicit
)= -\
ĠPo incar
abe th
Ġ} }</
E nt
19 74
Al ready
Ġgain s
Ġdegener acy
acknow led
ic ates
ĠB oston
Ġb rackets
Ġv ibr
ĠC MD
Ġhe ading
$\ %
Ġa forementioned
Ġfa de
ĠPh oto
contrib uted
( |\
Ġ} _{
Ġaccept ance
16 7
(( (
en sitive
Ġl ensing
iti ves
Ġadv oc
Ġo ps
de vices
Sh utdown
pol ynomial
aren cy
Ġt argeted
ĠĠĠĠĠĠĠĠĠĠĠĠĠĠĠĠĠĠĠĠĠĠĠĠĠĠĠĠĠĠĠĠ ĠĠĠĠĠĠĠĠĠĠĠĠĠĠĠĠĠ
W IDTH
inter pol
=\ !
ll ll
Heading Color
g ar
ĠDef aults
ĠUs age
ĠSk ip
:: ~
pres ented
AN Y
Ch rome
pe ople
}) \\
") ),
IDENT IFIER
mean ing
} &=&
A rm
Ġm ort
AL LOW
)\, ,
Ġch rom
Out Of
Ð½ Ð¸
atric k
3 30
ĠBra zil
T K
ĠAdd itional
] =\
qu bit
ĠD WORD
Install ation
... "
ĠSh ape
ĠP ur
ĠAnd rew
ĠSe a
R en
Ġon Click
Ġcol le
Ġemission s
Ġanalog y
wo uld
Ġc oc
ig m
P en
Ġmetall ic
ĠPaul i
Ġ ic
Ġmin ing
Ġste ep
ach er
ĠĠĠĠĠĠĠĠĠĠĠĠĠĠĠĠĠĠĠĠĠĠĠĠĠĠĠĠĠĠĠĠ ĠĠĠĠĠĠĠĠĠĠĠĠĠĠĠĠĠĠ
ĠĠĠĠĠĠĠĠĠĠĠĠĠĠĠĠĠĠĠĠĠĠĠĠĠĠĠĠĠĠĠĠ ĠĠĠĠĠĠĠĠĠĠĠĠĠĠĠĠĠĠĠĠĠĠĠĠĠĠĠ
ĠS PI
{- .
Ġprogram me
Ġcarry ing
ĠL td
k le
Ġin jected
Ġbring ing
is EqualTo
Ġoffic er
ĠDown load
Ġfeature d
if ference
Ġ& =\
Ġround s
Ġma ppings
ĠField s
ĠBe ach
EN SION
ĠCons tit
ĠMETH OD
vo ir
In herited
TH ON
ĠD S
ĠPol y
output s
Ġ* (
st ock
bo lev
Ġth umb
Ġs ac
sim ulation
Ġaccord ance
o ured
CA ST
Ġlabel led
Pl ane
HAS H
For Key
ĠDen ote
Ġacqu isition
Analy tics
ipher al
ah n
Ġlet ting
Aggreg ate
ob e
Ġdomin ates
Ġles son
m or
uri ous
æĪ Ĳ
Ġcar rier
ĠB egin
Ġoccur ring
\ },\
ĠWIT H
ĠI Enumerable
Qu ad
on ing
ĠC UR
D to
la zy
Ġh arm
Ġl hs
linec ite
Ġtrans it
ĠPl ant
P ick
cer tific
ĠCH AR
ĠS n
control led
d V
in ations
17 6
ĠB rad
Ġ` --
15 6
ĠOb jects
cg MDR
Ġelse if
sk in
Ġshor test
l Vert
out s
calcul ate
Occ urs
jo urn
pl ating
ĠE ric
bl ing
ĠDec l
** :
C ategories
Ġaccording ly
Ġdrop down
Ġ'/ '
Ġ"/ "
ĠB and
ag ain
Ġc rack
il de
for k
Ġb la
SP H
Ġutili zed
ĉĉĉ Ġ
B IN
Ġext ensively
80 80
SY STEM
Ġs cre
Ġwas te
Ġhealth y
si ded
da o
ig o
Comp ilation
Arch ive
Ġch rome
S ibling
unic ip
p ix
ĠThe me
ee ded
Ġtri als
P V
æ Ŀ
Numer ical
} <\
Ð» Ð¸
ir q
ex clusion
âĢ ĭ
Ġop p
r vm
Mod ify
Ġconstit u
ap sed
Ġscatter ed
Ġh int
\, (
F old
Ġch air
ĠS us
Ġlo ved
mm ode
ĠS outhern
UB LE
ĠBrit ain
ĠR og
o led
ĠE lectr
Ġsurv ival
c C
Ġsee king
Ġhypo theses
transp arent
Un defined
Ġanaly zing
D s
m atter
ĠR R
Hash Code
at trib
Qu ote
un set
ãģ «
Ġu id
function al
ĠA SC
Ġs outhern
si z
) ^*
WIN DO
Ġser v
Ġcar ries
Ġx hr
in str
OB J
ĠPar ser
Mar shal
comp letion
Ġslow er
Ġanc ient
up t
parse Int
f ine
}$. }
Ġsol ves
row e
"> {{
par ticular
AB C
AS H
ĠT aking
ow ed
am m
Ġdig its
ĠUtil s
k j
ĠM R
ĠHen ry
M gr
7 20
ĠThe atre
FO UND
e ah
] ],
ber ta
ential ly
Ġpermut ations
ER O
P IN
sph inx
if mmode
Ġcon current
sh utdown
ĠInt ent
ic ol
math ring
ĠCol umb
b urn
ĠG O
}) +\
ĠF S
re start
res on
ĠG reek
Ġyield ing
Ġphon on
tri ang
tr um
y le
gr u
R anges
" \
ĠL ib
im er
IN X
Ġillustr ation
coll ision
libr aries
Ġin hib
ĠSte ve
Ġnor thern
Ġ tex
ra q
Ġs ans
Ġo x
Ġc pu
Ġout lined
}} ^{-
Ġsing let
Propag ation
comp any
G LA
, [
comp uter
Proto s
IT EM
ĠH istor
rel ations
Ġpick ed
ĠI SO
ĠLapl acian
m ous
EN S
g co
tra its
Ġ( &
ĠH O
r hs
Ġregister s
Ġp kg
ĠG tk
Ġm p
Ġinte lligence
Ġsugges tions
Ġcris is
Ġd ies
re load
C OR
] "
ĠN V
ge ometric
assign ment
8 75
ĠP NG
U r
enti ment
Hy per
Ġeigen states
d ns
'' (
ĠD NN
Ġdes erial
Ġmicro scopic
Ġ$( -
ĠA ri
ros so
z illa
Ġ= =====
Ġ($ (
ac ency
)\ ;
Q C
ertific ates
Ġown ers
23 5
. -
Ġge o
combin ation
x p
Ġbe ams
Ġbas elines
x hr
Co ordinate
15 00
Ġneighbour hood
U uid
lim sup
bit map
ap ore
ĠL S
: *
ME TA
c ould
ag on
)}\ ,
n ice
Ġl um
ĠH ad
Ã© e
Ġs el
P F
Mov ie
_* \
Ġtoler ance
2 16
as ta
ĠC ategory
pro g
0 22
Ġle ver
60 1
IF ICATION
or ney
vi ol
ur ities
ĠSaf ari
ĠS ide
ev in
h ence
Ġmultip lier
' |
CON TEXT
Ġt ube
prop ri
Ġpoly gon
G rade
ĠEd it
im ir
int roduction
\ &
pro files
15 9
Ġacc ident
Ġh all
Lin ux
co ordinates
Display Name
Ġpre view
ordin ator
0 25
B uffers
Bound ing
LE T
sch eduler
Ġexec uting
Ġinsp ection
Ġbil inear
sp ro
ĠInitial izes
Ġmer ging
M ime
S IG
30 2
Ġan ymore
on linecite
19 6
Ġpl astic
node Name
C ut
23 4
IS H
Action Bar
C u
un safe
Ġstatis tically
Ġ river
Ġ[ &
Spec ify
R ing
at las
Ġsk ill
Par allel
Target s
Ġvisual ization
P lain
util ity
Ġa mp
DIS ABLE
limin aries
ĠB SD
collection s
re comm
B ur
mock ito
x ies
Ġ urban
Ġappro ved
G lob
el o
Ġjus tify
K er
å Ģ
LOC ATION
Ġon set
Ġw heel
work flow
}{ %
Ġscal ars
rec ogn
ĠA sh
per missions
)} -
ME T
erm ost
ä¸ º
ĠD MA
18 7
Ġte ch
Ġb unch
D ark
process ed
Thread s
mem item
Ġbe an
Ġinstr uments
Ġmultiplic ative
B K
Ġhigh lighted
adi um
DE s
Car tesian
Ġar tifact
L IMIT
to Array
On line
v d
Writ able
y outube
ac les
clu sters
pm d
19 8
Ġepis odes
Ġisol ate
Ġgr ab
INTER NAL
ic ate
Ġconf usion
Ġprefer ences
Ġre size
$\ {
Mar shaller
Ġte aching
F our
me ans
hard ware
Ġun bounded
list eners
ĠConn ect
O Auth
Ġfe els
Fin ish
Ġma intenance
lik elihood
it r
Ġcomputation ally
Ġp rivile
ĠN LO
inter pre
å ¾
Ġl ap
CHAN NEL
N an
sp rite
ho oks
Ġfail ures
un icode
set Property
sol utions
jav ac
Numer ics
ĠBo oks
AD ER
}) ]
c la
Ã ¸
b enchmark
electr ic
19 73
">< ![
mark down
Ġquad rup
Ġoper ational
ik a
s lo
Ġl icensed
ĠD onald
Ġle ct
bi ased
ĠEx pr
36 5
r Vert
âĢĻ ,
Ġgu est
ĠLay er
At om
get Path
}^* $
15 3
ĠL arge
CP P
Ġjoin ing
n om
s al
Dis pose
Ġt ur
ä ¼
V m
c ounts
Ġho oks
j vm
com munity
ĠFunction s
ANG U
Ġfacilit ate
Ġv acc
ĠIn tel
Ġcomplex es
ĠF air
am ents
uc ks
ĠRec ords
D ays
ĠV ER
ram ed
wik ipedia
Ġd ance
Ġthrough put
Ġw ake
fill draw
Ġp assive
Ġinter active
y u
Mon o
Ġh em
ĠID s
conver ted
Un supported
è §
P lugins
}{ {
i pl
ĠSe ason
D IV
d ense
Ġknow ing
( ',
] ):
Ġsaf ely
Ġgrate ful
Ġtit les
Ġ utter
Ġnom inal
_{ *
Ġw ins
ĠOb serv
ĠMet adata
3333 3333
ic er
Ġemer ging
publish er
S un
H i
k ra
Ġob ey
Ġs aving
ĠT X
/ </
r q
Tem por
g f
Track ing
Ġ` "
Ġref inement
col sep
comp ressed
Ġtra iling
MO VE
Ġpr inted
un iversal
LA ST
UNK NOWN
213 07
ital ic
Ġd yn
Ġover lay
tis tic
esti mated
forma tive
ay a
per f
Ġ\ ;\;
ĠSpec ifies
ĠP acific
Ch en
ser ts
Hash Set
)\, .
i pt
Po sitions
defin ite
}: =
scal ed
Ġde veloper
0 20
Ġc ere
Tool tip
Ġinj ury
Ġwal ks
Ġcondens ate
Tran sp
Ġbus y
S dk
Ġdis ag
) &=
Ġpl ants
assert That
be en
em ission
Ġsp anning
Th anks
Ġm it
ag g
As String
ĠN atural
Ġdanger ous
ĠK al
B ug
u in
lu es
45 6
x FF
w ich
Ġs addle
cre ation
mon y
Ġs lots
ten ant
Ġm ild
r ss
Dir ty
Th ird
con clusion
Version s
Ġdiffic ulties
measure ment
$ ^{+
Ġmem o
ĠN umer
Ġqu oted
exec utor
resol ver
PRE SS
Ġde als
B inder
Ġres cue
FUN C
Ġ' ');
Ġg ro
ĠM AC
Trans late
my Item
K HR
Ġ ^{-
Ġlo s
starts With
Ġes lint
able View
Ġfre ely
b anner
Ġ- (
qu oted
Ġexp ects
Ġblock ing
Ġpush ed
Ð» Ñı
' ></
Ġstr len
cent ury
Ġ till
Ġbackground s
AUT O
ĠRic ci
ĠF lo
get Node
Ġcosm ology
Ġretrie val
] -
er vation
12 00
e vol
fore ign
Ġpay ments
/* .
home page
aaaa aaaa
ĠM ah
Ġco al
ĠDemoc ratic
s ensor
Inter action
Ġ' *
ĠD id
ac ies
ãĢ ģ
Ġc up
set Name
Ġb io
Ġre ver
ĠU ri
back s
C ENTER
top ology
Col lect
see k
ĠM icro
D H
host s
ÑĨ Ð¸
Ġh omes
Ġyou th
Exception s
st ability
L G
qu asi
ile y
Ġf ell
Rec ently
}} },
Ġmem brane
r uit
Ġg enu
LO T
J MS
Eng lish
build ing
r ats
e lect
St roke
gle w
LI ED
GR AM
Ġd p
fl are
ĠI ll
Ad just
Ġaf ford
Ġla ugh
ĠG er
Buffer ed
Ġf la
ĠY et
Ġparameter ized
Ġa pt
ĠCath olic
17 2
T eV
List View
Qu ota
ĠBuild ing
Out er
ĠUn like
ĠA rc
Ġmap per
Ġdeploy ed
/ :
ĠSw ed
eq no
f ers
Ġtr ading
ĠState ment
ph on
Ġbi partite
) <\
$ "
j an
Ä Ļ
ĠS equence
DE SC
ac tivation
pos able
Ġmob ility
s uc
ĠF ont
comp ress
Ġabs ent
el rte
Un ion
ĠS Y
Ġcon form
Ġover lapping
g al
Enumer ator
re duced
or o
DA O
ĠIr ish
C Y
Ġcon cludes
Al location
Ġlo go
ĠU int
ben ius
ss on
Ġdat abases
H u
al ter
Ġ@ {
Ġaccomp an
F ar
clean up
V k
b usiness
li u
ĠA DC
Ġguid ance
in sertion
' ",
Ġtal ks
arg o
Ġvol unte
$ [
ĠâĨ Ĵ
if er
user Id
_+ (
add All
Ġrel ating
r ise
w ere
un ting
Ġali ve
ar on
Poly gon
r df
Ġjoint ly
Ġevol ved
Ġtrunc ation
Rem oved
istog rams
Ġexec utive
D ump
ĠSh im
Ġm ac
orre nt
WH M
s outh
ĠY ukawa
Coll ision
Ġde co
ĠM ER
te ad
M ut
cons istency
SNAP SHOT
Ġelectr ical
Match ers
re nd
dep loyment
ĠDe ad
re pr
Initial izer
ec ewise
Ġcheck point
Ġspin or
}/ {
d ll
n z
re cent
D ocker
E t
Ex tractor
status Code
) &=&
i math
hy dro
ra ises
Ġvol atile
Ġ" __
ĠAuth ors
s ugges
ĠN i
ĠO B
ĠSe lection
arra tive
bur gh
}) /
Ġattack er
ĠH ermitian
LAB EL
)} ;
LE X
Ġab ort
ĠLo ok
Ð¸ Ñģ
Ġar cs
e poch
Ġa str
hed ral
Ġ" ../
}) -\
agent o
| $,
Un icode
Ġview port
new page
vers ation
acc ounts
re duction
to o
User Id
enn y
l hs
Ġil legal
Ġjus tice
RE L
Ġun ivers
phi a
- |
dig est
ĠF unc
Ġmanus cript
Y LE
0 30
Ġintegr ity
Ġqualit atively
17 8
Ġnorm s
- "
. âĢĻ
analy tic
ĠÐ½ Ð°
Ġpack ed
Ġval ued
Call ing
2 33
iter ation
spec ies
C ycle
b ury
b at
Ġre leases
Foreign Key
ĠS on
Ġm ile
ĠH opf
Ġlo sing
ip es
Ġport folio
ĠC ivil
Res tr
Scal ing
r ates
Ġs ad
æ Ń
ĠSw ift
en kins
commut ative
os able
exp onential
sr v
port let
Ġcontrib uted
SH ORT
Ġin spect
Ġbeh ave
s ynchron
Ġ utf
Ġ Ñĥ
ĠF oo
ĉ ĠĊ
IN TEGER
ĠC e
Ġsub algebra
Ġdist inction
)/ (
Ġspeed test
ĠExec ution
Ġdes irable
Ġform ulate
Ġp d
n th
Ġhard er
Diag nostic
E G
ĠI con
Ġconj unction
lo on
Ġmar riage
h yp
Ġcut ting
Ġ ------------------------------------------------
(" _
M usic
Ġcre w
con sumer
4 32
ic ing
Ġab c
Ind ividual
o int
o ves
ĠS tage
Ġatt achment
Ġaltern ate
k v
Ġ\ ;\
ĠVol ume
ĠI mages
k ill
Ġre fined
- )
cccc cccc
Cred it
T echn
Ġ? ?
é Ĺ
Ġc lim
Ġdiscre tization
Inf os
ĠC lin
th al
ĠP rom
g ment
K i
RE SOURCE
han ded
Repe at
Ġf id
ues ts
ĠW idget
E scape
Ġsp anned
Ġacqu ire
Ġn ob
Ġgrad ually
track er
ĠNor thern
E mit
AR GS
Foot er
ĠAr ticle
c M
Ġen abling
Ġvo cal
ĠAp pend
J av
ew is
ĠRes Net
le w
Ġw inner
ĠT ro
itch en
sur vey
b j
Ġtrip let
ta gg
Ġnew sp
Ġar tifacts
Jo int
Ġprodu c
~ &
add er
z abeth
Ġtrac ing
18 8
D uplicate
Ġsp rintf
Ġtra pped
" <
Ġincorpor ated
/ ',
Named Cell
Ġclass ify
ĠðŁ ĳ
Ġani mated
L uc
de ad
Ġrecur sion
28 8
Ġin sertion
Ġpoli tic
n ick
Ġbe ar
Ġassert False
Ġsearch Box
Ġreg ret
Ġ" @
}^{ [
Ġsepar ator
found ation
al ong
CUR RENT
exp ects
I l
Enc ryption
S il
p seudo
è¡ ¨
ĠSch warz
++ ]
ĠQue en
S inergi
iv ari
l bl
er al
reg ions
Z hang
par ity
Ġconsum ers
ĠT ok
rac le
ĠL A
Level s
tan h
0 11
\ #
50 1
ester day
Vel ocity
Ġw inter
A lex
x si
Set ter
Ø ¨
ĠB L
Ġdist ant
arb age
Op acity
R ou
S OL
ĠUn supported
ĠTh rough
ĠC u
Ġflex ibility
May be
w l
Des pite
ĠKore a
ĠL em
Ġno tions
YY YY
ĠLand au
æİ ¥
Ġs ensing
Index Of
ĠComp uter
âĢĻ .
Ġhe uristic
ĠCatalog ue
! )
Ġtranslate X
rog ate
Ġcoun cil
=-=- =-=-
h size
ĠAssum ing
ĠF ox
Ġst orm
Ġs z
Ġact ors
J y
Ġg rains
19 72
Ġaugment ation
Event Type
\ (
Ġrobot s
Ġ[ ])
G LOBAL
A IL
B ERT
e ither
Object Type
Ġmain taining
tele phony
Ġacknowled ges
reg istration
Ġeigen vectors
Ġa perture
Ġd ans
numer ical
ĠD aniel
Ġfil tration
ĠComp are
B ra
c ous
Ġbi ological
Ġd ress
Ġor acle
ĠDis able
pis ode
own ed
U tf
Ġshock s
ĠFe atures
IC S
der ived
Ġfl av
ber ry
=" .
Ġspars ity
ĠRE G
experim ents
m igr
Ġs creens
ĠH art
Ġun used
ann e
Ġsub sequence
w rapped
ĠD aily
rm k
Ġtrack er
el if
class List
ĠTh ird
assert Same
Ġpul led
und o
ĠO x
pp le
Ġth resholds
so ap
off icial
, {
h b
Con tr
Ret rie
erm ine
Code Attribute
H am
Ġcirc uits
Ġ' \\
conn ector
ob ar
key frames
: {
ĠQu antum
ĠExp ected
H B
Ġl ag
ĠR aw
ĠD ub
ĠW IN
Ġup coming
ĠMin istry
Ġin surance
cm id
E u
ĠR ole
s ay
ann on
ĠGL uint
Con sequently
, -\
ke eper
ĠG l
Ġtell ing
Ġex terior
3 80
Ġsimultane ous
Ġcon fined
re plic
ĠT ech
Instance State
? (:
Ġper turbed
ĠF un
ĠR ail
ifi able
b uffers
ly mp
Ġ' ;
With in
Res earch
Ġsp ort
ng then
In c
PI X
Ġmonot one
Ġg ateway
Fl ash
Ġfrequ ent
Ġpro ud
est ors
ED IT
Ġthought s
Ġvic inity
}) _
urren ces
- {
ĠG B
å ·
ĠW ik
ĠIn sp
ĠMich igan
off s
photon ui
Al g
sub division
Ġrep ul
j u
z n
Ġirre levant
prov iders
" })
ĠRepublic an
Loc ations
"> [
Ġ' __
user Agent
orange hill
ĠG NU
ĠTr ust
orangehill dev
M AT
bo ve
Ġsurpr ise
Ġwor ry
Ġdem oc
ST AR
Ġ' :
Ġho spit
p unct
Ġs av
16 2
Filter Database
ar abic
20 6
Ġten ant
Ġinnov ation
un ter
ec ol
ch anging
di am
ĠSp ain
Ġhapp ening
qu er
ĠW R
40 3
Ġshort cut
App lying
q p
Ass ociation
Ġget ter
sh im
Ġpro gen
ĠF O
I CT
Ġdelay ed
20 9
C LE
S equ
get Int
normal size
L int
U ng
r idden
Ġde grad
iv o
reg ression
SET T
pro logue
18 2
ĠPr ime
rg ba
ĠC LI
ap or
Comp uter
Ġent ers
ĠP T
Ġtranslate Y
ĠLapl ace
C as
r ub
ter ritory
Ġtra il
Ġass ist
bootstrap cdn
ĠJ r
un ge
so ftware
Ġpas sion
ĠComp lex
ubb les
ĠS till
Work flow
Ġmut ation
}\ }
ĠMax imum
Ġblock chain
Ġcomm ute
Ġsomew here
P referred
(" {
Ġmul tic
us b
ili ation
Ġrg b
L ef
Ġs f
Ġthe ad
null able
ĠGu ard
Ġin stitutions
Pi pe
ĠB io
mark et
ord ion
is l
it ten
xffff ffff
ar o
Ġpop up
point ment
CK S
Ġmes ons
$ |
19 4
19 1
Ġformula e
i mag
Ġoffic ers
q c
ab bit
pres erve
Ġfa int
aci Ã³n
B LE
Ġse aled
J P
Ġsp ending
ĠJew ish
i ri
ANGU AGE
r times
17 7
ĠR G
who se
] &
RO WS
ĠNe ed
________ ________
tr ust
IF AR
rosso ver
F OS
Job s
S ing
Ġi ps
Inter op
ĠP UR
Contin ue
Ġt p
ĠM AP
ph r
andid ates
Ġp et
iti ze
K P
Ġbit map
, %
Ġ( -\
) ],
} ''
ĠT ax
S PI
ĠRe fer
Ġrecommend ation
ĠP arent
Ġmin ima
{\ "
è ¨
Ġlogarith m
Ġc ameras
Ġdisc lo
mid t
})- (\
ll vm
Icon Success
Ġserial izer
ĠC op
scatter ing
ĠS Ne
ĠTh ough
CCCC FF
Ġto ugh
Ġfib ers
Ġcomp ress
ST D
ia o
ĠF ail
ĠD P
[] {\
Ġgrow n
ro se
Ġtransform er
qu is
(\ {
ang ent
Ġwrit ers
Ġattem pted
Qu antity
Sec ure
at op
ial ect
eng ers
0 12
Ġinvestig ations
per ience
ĠF T
ĠPerm ission
ä ¹
Ġm g
Ġul tra
}\ ]
Ġserial ize
V B
Ġb aby
Ġcounter parts
< '
for um
root Scope
Ġyoun ger
Ġf riction
Ġsh ader
ĠK illing
è¦ ģ
j peg
op eng
cmid rule
F lu
Ġsur gery
b ine
g w
ĠG it
Ð¾Ð ³
bal anced
PO M
work ing
IDE O
def s
S ING
Ġ} ^{
Ġdirect ories
up pet
ĠH z
}) _{\
Vo ice
Ġvalid ator
Ġm ine
pot ent
Ġf urn
rop ical
ta king
De tection
h azelcast
)\ |
Inter pol
ol er
ĠD L
be havi
ic tions
ãĤ ¯
macro def
ĠR oot
PR INT
è¡ Į
Ġe lected
paramet ric
Sub scriber
ĠM inkowski
Value Type
ĠAUT H
¼ </
ti que
un checked
Ġde leg
des ktop
set State
o es
x d
err no
Q M
Ġg aug
ĠNo tification
Inter faces
ĠProp Types
Ġde mo
pro be
Ap plications
Ġed u
Ġens uring
Ġcon cluded
bra ket
mathb in
Ġa th
Ġun ified
Ġ{} ",
Ġstrug g
clus ively
enc rypted
PRO CESS
ĠðŁĳ ¼</
Ġget Name
Address es
p rior
Ġbo ot
Ġsynchron ization
W est
Ġaddition ally
h ive
ĠRE ST
Ġtransl ations
Ġt m
Ġencour age
Acknowled gments
Ġsh a
64 0
Acc essibility
Ġsubstr ate
T oday
ĠR h
Un iversity
get All
Ġ` $
ĠN ick
)) (
St ock
lo be
Ġch ip
ĠPh ase
Byte Buffer
æķ° æį®
c F
Ġre use
Ġun icode
Å ¼
Ġexpansion s
Ġc trl
ĠHo spital
A u
Ġc ab
\, $\
ä½ ¿
A pr
}$ }\
Ġ? ></
dim s
Ġ[ $
ĠEx ternal
pan ic
\ >
Ġn ega
Result Set
R oll
Ġparticip ate
Ġd Ã©
æ Į
rowe ak
/ @
Ġor bif
RE SP
order ing
ĠCo ast
F requency
material ize
i ac
, #
{ }^
c O
ask a
ĠAnd erson
connection s
ĠF C
Ġph rase
Ref s
Ġfight ing
y i
30 3
fo od
ĠAlex ander
ĠR ot
Ġph p
Gr ant
e i
ser ving
ho o
Ġauto mated
ide a
Ġper ception
Ġfun ctors
}= (\
Ġt uples
Ġm il
Ġcont ro
Ġauthor ities
Ġequal To
å ¸
Ġcon ce
Ġmore over
Ġpass age
ĠGL sizei
Ġme ets
Ġent r
}} ]
struct ured
Re plication
Ġimp orted
_* (
Ġass istance
ar able
th ony
show s
a is
c z
Ġdialog ue
; "><
g ms
20 7
Ap ache
oper and
Ġp aren
ĠMe asure
p ym
ĠS ync
}{ |\
G l
ul atory
ĠR EQ
f box
Ġf acing
y ll
Ġm utable
ĠT LS
ĠS everal
ĠĠĠĠĠĠĠĠĠĠĠĠĠĠĠĠĠĠĠĠĠĠĠĠĠĠĠĠĠĠĠĠĠĠĠĠĠĠĠĠĠĠĠĠĠĠĠĠĠĠĠĠĠĠĠĠĠĠĠĠĠĠĠĠ ĠĠĠĠĠĠĠĠĠĠĠĠĠĠĠĠĠĠĠĠĠĠĠĠĠĠĠĠĠĠĠĠĠĠĠĠĠĠĠĠĠĠĠĠĠĠĠĠĠĠĠĠĠĠĠĠĠĠĠĠĠĠĠĠ
{( -
Ġpro hib
Ġpla us
Ġle ts
Ġcont acts
}| $
it ons
press ure
Ġcor pus
o les
Ġt abs
ab ort
ĠT C
get Item
id le
r ational
ĠFile s
ĠB at
sh rink
QU ERY
Ġdetect ing
ĠYou Tube
rott le
Ġbif urc
Ġle verage
]{ $\
Ġadverti sing
ĠE T
UN IT
ĠSup p
Å Ļ
ĠP ot
oun tains
17 3
Ġconcentr ated
od ers
Ġentang led
Ġvar s
IT NESS
S outh
ĠP rem
COL UMN
Ġs igma
ren a
b right
ann y
WA IT
A wait
G it
Ġappropri ately
Nd Ex
IconSuccess Encoded
Ġint ention
ish op
enn is
S pl
ĠIn sert
ces sion
Ġclip board
/ ?
Integr ation
reat ment
de velopment
pop over
åĬ ł
ry p
Ġachie ving
Ġcap ac
}- {\
Ġpop ulated
Corre ct
Ġsub mission
k ine
table View
h is
ps line
I mm
ĠL ess
cc i
PI C
Sw ap
Ġreal m
DD IR
end ants
ĠH ave
Re porter
EM ENT
Ġincl ination
Sp y
ĠVAL UE
co herent
Ġmon o
D ummy
acknowled gments
Ġresource GroupName
| (
si zes
def i
mar shall
ĠDe veloper
(' _
b uff
Ġhighlight s
ig e
Ġa ster
Ġh ub
Ġn u
ĠCh air
ĠE P
K w
th ink
ĠIn te
Lo ok
om ics
Qu antum
Ġre act
Dis covery
gol ang
\, ,\
BU F
. %
I OS
Ġtriv ially
mu ted
general ized
Ġsit ting
target s
(' -
M utex
Ġspectro scopy
jo urnal
ĠS USY
Ġmk dir
ĠE asy
Ġaccomp any
Ġlabor atory
accur acy
G ap
Service Client
ĠSm art
tit led
symbol s
} ">
Ġp uzz
P NG
model Version
Ġ{ *}
)) =\
\| _\
K T
ĠOpen SSL
áĥ ĺ
Ġa uction
network s
Ġs tick
({ '
Match ing
ĠM ach
Ġdomin ate
g reek
Ġalong side
corre lated
Ġpropag ate
ĠL R
sh aped
0 75
M ON
7 50
et able
ap unov
Ġrec ipient
Ġscienti sts
Ġrandom ized
ĠSection s
deriv ative
er ase
raph ic
é Ļ
ĠI ssue
Ġsoph istic
ĠW ang
Ġresidual s
net ty
alloc ate
Ġemer gency
stri pe
Le af
Ġa met
n h
^* $-
d ma
Ġf ir
Ġden ominator
Ġrestaur ant
; ",
22 6
H is
Ġmorph ology
Ġglyph icon
BO X
: .
ĠCom ments
Ð°Ð½ Ð¸
× ľ
m ol
ig g
Ġload s
ĠBol tzmann
l iter
ref lection
Ġm illions
ĠE r
ak s
Ġdef ects
alo is
con cept
MA IL
Ġgen es
ĠI sing
var sigma
Ġannot ated
Ġgeomet ries
Ġv a
m alloc
id ually
Ġel abor
W ater
roup ed
B roadcast
SPH INX
Ġclass ifiers
fli x
Ġch amber
Ġcomp ares
Ġvers a
ĠFIX ME
semb ler
an z
Ġf ed
Ex isting
æĸ °
Ġabbre vi
dd ots
ĠR C
Ġ&& \
ph ore
s ink
Ġreason ably
+ (\
cont rollers
raw ler
ĠLIMIT ED
ĠCal endar
Ġcancel led
Ġc ra
17 1
Ġs lices
Ġdecre ased
P TR
ed i
ON ENT
US B
il inx
Ġf estival
ĠJer sey
g host
Ġle ague
small er
Http Servlet
col our
Ġmys ql
ĠBo otstrap
ogn itive
ĠG ene
Ġgl ad
Ġsingle ton
Ġch aotic
Ġfr uit
Ġ ride
Ġpl enty
ĠOr gan
Ġgain ed
W ay
\ ">
æ Ģ
ĠS ort
spec tra
Rest ore
up grade
unit test
Num bers
K R
ch r
="@ {
Channel s
Ext ent
Ġball s
Ġarrange ment
Ġtunnel ing
k el
US H
Ġcontrib uting
List en
Ġobj ectives
callback s
String Utils
17 4
Ġvis bl
rr rr
on ia
Ġtext s
Ġf ounded
ĠM pc
Ġs alt
ĠT D
Ġdecomp osed
PHP Excel
sc ious
Ġac id
Ġph y
alax ies
pattern s
Ġex haus
ĠI l
au er
ĠMax well
Ġauthor ization
ĠQue ue
h alo
Ġs park
Ġin stitution
ĠI raq
Ġunder go
is abs
Ġdevelop ments
Ġ iv
Ġsub traction
[ @
eg as
Bo ard
Den ote
start ing
Ġpi lot
box es
Http Response
or ne
ĠTheore ms
Î ¯
G old
ĠMod ern
Ġwhite space
Ġiden tically
Ġinflu enced
ĠV en
Ġinv ocation
ĠUs ers
con taining
Ġpres cription
Ġim mun
Ġc i
dis cus
rop ol
focus ed
Ġaug mented
19 7
E F
l ift
el ike
In stead
ĠLat in
g pu
M Y
key board
Config s
Ġ ../../
tif ies
18 6
66 6
Ġd omestic
ĠId entity
ĠE W
Ġdrug s
E A
v iz
19 50
23 7
Ġd c
Ġcalcul us
Ġb on
ne eds
/ ,
18 9
dor ff
Ġw arr
Ġna ive
ĠIllegal StateException
H amiltonian
R x
anc ies
ĠLeg end
+\ !
Ġ_ ("
$ }.
Ġv ictory
Ġst mt
====== =
Ġs quee
d os
~ ,
ĠWith in
ĠB ul
Con str
is ta
ĠM ouse
ĠR od
Tool Strip
SV G
Ġshoot ing
unit Pattern
cur ves
eder ation
19 68
GENER IC
und s
åĲ į
render ing
ãĢĤ </
v or
Data Set
ĠS B
ĠL ind
inf ra
alth ough
Redu ce
asket ball
ĠR om
ĠCalcul ate
Ġrel ates
W all
o in
Ġf atal
Ġ\ }$.
2 15
BUIL DDIR
dis p
Ter ms
Ġfound ation
,\,\ ,\,\
ĠDat aset
pal ette
N B
m atrices
Ġfriend ly
d ynamical
Ġm outh
gre y
ĠVer tex
pret tify
Ho oks
Ġmanip ulation
t in
ĠM iller
Return Value
Ġreview ed
ti se
ĠSt ation
b ag
pr imitive
Ġsl ave
Ġassert NotNull
Ġpredic ting
Ã «
H aving
Ġla titude
Ġex iting
amil ies
sub menu
R ic
[ -\
el led
ĠPar am
Ġcommit tee
Ġdisap pe
Ġrecommend ations
in side
ĠD am
enn es
Ġmin ister
ĠRo om
INTER FACE
ĠURL s
Ġno tifications
}_{ +
Ġwonder ful
Ð Ĵ
ĠA CTION
mm as
files ystem
t rees
ĠAd vanced
ĠSto kes
m irror
ĠE gy
sl ides
}{* }{\
Ġde but
Ġw ond
Ġaccount ing
Ġpro mo
ĠE mber
v f
Å Ľ
ç ī
Ñ į
mk ern
Ġh osted
Ġappe al
Ġextrem al
ĠC la
prec ation
Ġab and
Ġ[ _
ĠBr and
ens en
xx xx
ain ter
Ġstd out
es ium
null ptr
Ð¾ Ð½
Ġsum mand
ĠPro duction
ustr y
dir ty
(' ',
Ġpro ximity
Ġ< \
Ġstr ike
ĠT EXT
(" ");
Ġanten na
ĠH I
Ġh ate
Ġbi ased
N orth
eq z
pi res
Ġb one
ĠP as
Phys ics
Ġrecur sively
ĠL ength
ft p
De vices
Call s
List Item
18 4
ĠO ri
nd rome
ed ding
Ġimp lying
Ġon mouse
26 3
Ġexplan ations
Sp acing
Spec ification
Ġ| ____
Ġrepeated ly
Ġcorpor ate
ĠA x
Ch an
TIME STAMP
å Ŀ
Ġexplo sion
ĠV ill
er ation
Ġde coded
Ġnew Value
Ġpre vents
lo re
c H
Tra it
p at
ĠH R
ehic le
C urrency
lip tical
M G
ĠSol ar
Ġreli ability
Ġwind s
Sem antic
Ġcommunic ate
Ġris ks
Â ®
CODE GEN
; @
A ir
ĠL STM
Dep loy
Ung rouped
et r
sim pl
do xygen
ĠOper ator
CH ANT
Ġun a
Ġcol ours
Ġfun ded
CP TR
ĠC U
Ġb b
^{ '
ĠG auss
ĠZ one
Ġgene tic
__ );
qu antity
ĠD etermin
Ġsucces sive
Bound ary
IST ER
Ġmul til
ĠOb serve
Ġsem ic
Ġv eg
Ġdo ctor
Ġsub stitute
Ġsuscep tibility
Q String
Key Value
ĠOff set
Leg acy
ĠS a
ide al
ĠN ash
ĠD ifferent
X iv
Sc anner
ĠP rac
Ġcont amination
ĉĉĉĉĉĉĉĉ ĉĉĉĉĉ
Ġ è
ob servation
Ġsub class
Ġt uned
Ġcont rolling
Comp uted
s af
lo ys
3 25
ĠW ars
lis titem
omb re
ĠId entif
RA W
Ġrem n
ĠV AR
Ġfeat uring
ĠPUR POSE
w char
Ġview ing
f link
Ġdir ty
pres erving
be it
Ġener ge
syn opsis
Q P
Ù ģ
op pler
Ġ' ../../
ĠIo T
Dimension s
16 1
S a
ĠB B
built in
Ġperman ent
eps fig
R IDE
Ġgeomet rical
link col
aff ected
vis ited
Ġide als
um bo
Ġ} }\
Tree Node
Ġmacro scopic
ino sities
FUN CPTR
incre asing
Ġpor tions
CT L
_ +\
$. \\
Check point
Ġun usual
Ġag encies
W ar
y ers
Ġw arp
ht m
Ġ& +
Ġdeath s
ip ients
-- ">
Ġf asc
op enc
abs or
Ġto wer
Ġ" #{
Bl ank
Ġcommit ment
. :
æ ģ
Ġf ron
dec imal
\/ }
Ġret ro
M Hz
ĠF M
Acc ounts
t oday
H M
ĠHy per
ĠN orm
track ing
ĠIsl ands
T om
Gu ide
åħ ¥
diction ary
U G
Ġgo og
Ġhistor ic
exec utions
h f
ãģ ¯
ĠAdmin istration
s nap
Ġingred ients
subNav List
Ġp df
Ġtro uble
Ġredund ant
Ġc ult
17 9
rec ursive
R W
ĠM UST
$. \
Res erved
ampl itude
ĠPr ince
le xi
ĠS G
WI SE
co ol
EN UM
Ġnot able
Ġmark ers
ĠCurrent ly
ĠIN TEGER
T IP
Tem plates
27 5
ĠBo ol
p tive
ĠV ARCHAR
ĠP ick
ĠW at
}' \
th ur
(" ",
Ġrot ations
Ġmultip lied
)] \
Ġo d
ĠB all
dd y
ĠS PE
Ġstud io
INST ALL
li est
mag ic
ĠC at
Ġde fer
dot sc
lang uages
W arn
ĠL ater
G PU
T abs
Ġin tra
T rade
C ube
IG H
/ {\
Ġin formed
ĠAl ert
= ${
s andbox
Field Name
Ġenumer ate
Ġrad ical
ĠH ot
Ġre plication
ass o
Ġabsor bed
ĠM ask
)\ }$
c P
il inear
Ġad ult
w r
en ix
ul iar
Ġtag ged
app ings
Index ed
Feed back
ans as
c it
n k
full comment
Cap abilities
ĠT erm
Ġfit ness
A ware
Ġen force
Ġ& $\
or al
Ġfr ustr
Ġb rown
ĠA sian
}^{ *}
Ġ/// <
Ġvalid ated
ĠH otel
Ġtable Name
( _.
h ero
Ġp ic
L atest
t ens
st orm
ant on
SA MP
Ġhydro dynamic
Ġcla zz
N ear
urn e
aver aged
Ġf rozen
Ġsuper gravity
TE MPLATE
M i
Ġ$ ('
Ġe u
)& =\
U no
Ad vanced
Ġfor t
ĠMulti ple
typ ed
GLA PI
F H
ĠT rade
Ġg ar
Start Time
as cii
Gener ation
Ġaut oc
re pre
ĠRec ently
}\ !\
inst alled
ĠMon o
Ġj umps
Cond itional
Ġcomm utes
stream s
att ack
Ġresid ue
Â »
ĠCon figure
Ġund o
ĠB ug
ec ell
Ġ&= &\
Ġi put
19 69
ĠNot Implemented
F acebook
. ">
: !
PRE C
y ang
ĠM N
i am
Ġtr iggers
ag ues
ĠPack ages
× ¨
til lation
c ot
S ocial
Ġkine matics
K ER
Version UID
bes gue
; :
g un
ve al
Stream ing
Ġspher es
ĠR ate
Ġcomp la
Ġne uro
Ġnav igate
;-> <
ĠL LC
register ed
enc er
PR I
Single ton
,- .
ĠD imension
ond o
Reg Exp
Ġpro posals
De ad
AL IGN
ĠPy Object
Ġf b
tr ail
X R
ĠK ong
Ġemploy ing
ĠK er
ĠFore ign
Cover age
V ERT
Ġr ising
py test
In ventory
ĠF o
d rive
Des ktop
Ġenc rypt
As sets
Ġsc oring
EN O
Ġoccup ation
Ġac tivated
f ive
Ġo cean
Prov iders
Ġaud it
re search
IST S
Bind ings
res sible
Ġp ec
li a
ĠB BC
tic ket
Ġde formations
="# !"
ĠFe ed
Work ing
Ġhous es
pro per
>& #
ĠX XX
draw er
Ġid le
Ġgre w
Vertex Attrib
ĠE L
Ġt ub
Ġv it
ryst al
Ġre load
ĠH odge
Ġrelax ed
ĠST ATE
aus dorff
ĠComp arison
L y
larg er
6 50
ĠI de
19 71
IC ULAR
St udio
VER TEX
ĠT ele
w f
}[ (
ĠH ou
Ġreplic a
Ġv otes
l ater
23 1
ĠH tml
ĠRe vision
Ġp ray
ĠT uple
ĠK a
N eeded
)} )$
ĠS ocket
ĠM W
åı ¯
3 10
restr iction
Ġmer gers
M V
n ets
s ight
str ut
40 5
Ġcon temporary
j om
J B
W il
ĠN UM
ug o
h ort
put ation
repe ated
ĠExec utive
yc lic
ex plain
Ġhost name
Ġspeed s
Ġenumer able
Ġre volution
Sc oped
ĠSecret ary
m el
Ġworld wide
t ro
Ġsome how
ind icator
Ġtal ent
æ³ ķ
res ted
') ),
Second ary
25 4
ĠB ru
el son
lo s
Ġbehav es
Ġdemand s
`` .
Ġblock ed
serial izer
tern oon
Ġdes ire
co hol
Stream s
Ġimp acts
Ġexpl oring
m essaging
Ġgr am
send coins
Ġfl are
has Class
Ġmut ually
author ized
Ġalleg ed
) }}{\
sup set
Ġh et
ĠC ro
est ab
ĠSing apore
T B
Full Name
R DF
Is Valid
DO C
re tr
Ġe mul
Block ing
$ },
ĠM ail
ak ov
ĠS EC
ield s
ĠF etch
k im
Ġassign ments
Element Type
ĠEx change
Ġwe apons
ĠE th
Ġlink ing
ĠPass word
w ifi
an other
Ġproton s
M n
ĠW is
ĠNetwork s
ycl er
and as
row ave
Ġmulti ply
á º
author ization
Ġval ence
Ġshow er
Ġreal izations
M en
Ġz ones
ĠT IME
ĠIn f
re maining
ä½¿ çĶ¨
B ank
M u
os is
equiv ariant
> ".
em o
Ġacceler ated
Ġsurv ive
all ax
CHANT ABILITY
& $\
ĠF ellow
Ġcontinu ing
P UB
Î ³
ĠR ound
elf are
16 3
Ġlear ns
ĠMed icine
Middle ware
to pe
ee a
Ġconstruction s
ĠS oc
mon ot
{$ {\
ti ps
tem pts
22 1
;\;\ ;
Ġconduct ance
ĠHe isenberg
ent ang
inter section
ĠN amely
Ä Ł
ç ¤
Ġb link
xy z
[-> ]
PL ACE
Sim ulation
Ġgener ations
Ġimp ressive
ĠComp lete
ĠBy tes
] },
ass oc
Lock ed
ST OP
Decl ared
C ES
Ġs elling
Ġside bar
Expression s
mcite default
Ġinter ven
Ġv ent
ĠL es
ne ur
Tr ust
Ġd olor
Ġfor k
Ġh am
MAG ES
sc i
embed ded
um ar
decomp osition
Ġm ountain
Ġrec urrent
ill ary
Ġ========= =
Ġgener ative
Ġplanet ary
ĠB ridge
à¥ ĩ
Ġp riv
un wrap
Ġdis connected
pi o
Ġro oms
comp at
Ġindic ation
ani mated
Ġgood s
Ġcount able
mak ecell
' =\
Ġtensor flow
Ġstre ngthen
Ġb ow
ĠLog in
Ġemo tional
L oss
Property Name
al ph
aud i
Ġkey words
Ġlong est
av oid
Ġorbit als
Ġsp ell
test ng
e valuation
Ġhon or
ĠS ources
Ġpublish er
cap s
)( -
Ġvisit ors
UST OM
> ")
P ret
IB LE
}}$ -
ch ip
k an
ĠFUN CTION
]( /
Ġt c
ymmet ries
Li u
strict Equal
i ang
m h
Ġlabel ing
ĠM u
} ";
ĠB ERT
-- )
ĠH an
tab len
enti a
ĠMer ge
ON SE
Ðº Ð¸
Ġmark up
Ġre interpret
default Value
ĠAuth entication
Ġcell ular
Ġcross es
tif ying
Class Loader
Experim ent
N eg
Ġf m
comp leted
ĠF P
tic ks
pre ceq
C andidate
P aul
ĠG A
bo un
Ġtw enty
ĠBri an
'] :
Par sed
arting ale
k al
IAL IZ
Manager Service
Ġform atter
ĠE sti
ĠCh en
Build ing
Sol r
Register ed
Index es
Ġev il
30 8
W elcome
ĠB ang
Iter able
@ @
ĠG UI
im o
cal ling
Comp act
Object Property
å¯ ¹
ri ble
Cond itions
search Box
Ġinfinite simal
ASS IGN
Ġto y
Ġman aging
in el
w g
ĠGe o
Ġw estern
Ġre nd
xi ma
Ġsch olar
ĠS quare
Ġoptim izer
S s
Ġr t
ĠU AV
Ġbl ur
Ġre porter
friend ly
=' #
skip Nav
Ġs mo
ĠImmutable List
ion ization
ĠF isher
2 90
pos sibly
ap ing
Ġc t
Code d
Ġindiv idually
Ġspont aneous
ĠText ure
p arents
: _
S FR
c rop
Ġad ults
F IRST
Ġes c
Ġrank ed
chro tron
h ind
Ġsh aded
ro matic
c andidate
ens tein
d j
Ġcoup les
center ed
âĢ¦ .
L ag
pixel s
c ategor
lic h
tal k
Access Token
rol led
c oun
Ġaut orest
Ġaccompan ied
b ird
is Function
}) (\
Un install
Ġa side
ĠSt ock
S y
EX EC
Ġenjoy ed
P ressed
Ġbro ader
am ar
Ġf idelity
success ful
G RE
ĠĠĠ čĊ
ĠC over
Ġadvers ary
00 9
ymorph ic
W L
z u
Rec v
Ġh r
ĠMov ie
mis c
Ġsuper position
light s
ĠB us
ĠBel ow
st ery
ĠL D
ĠStud ent
Ġnumber Of
F ault
Ġbo ys
Dis tributed
S IL
ĠO Auth
Ġk illing
valid ators
Ġimportant ly
ĠQ R
remo ved
ĠA U
ĠG PIO
++ ){
| )
V ED
Ġan tis
= ~
ps z
Ġa warded
coeff icients
Ġs keleton
Col s
en h
Ðµ Ð¼
Ġre pair
Ġint uition
Ġir regular
P t
h on
journ als
Trac ing
Enc rypt
Qual ity
Ġsh ard
un til
MB OL
à ¦
ĠA gent
active mq
5 50
A nt
Ġn b
yn olds
Î º
pro ton
Token izer
Ġparticip ant
omp son
Ġbi ases
VARI ABLE
d ra
s ense
Ġ ub
Ar t
mux er
Ġv oting
æĸ ¹
e asy
Ġdec line
M irror
ĠPro gress
R ating
get Content
t utorial
Ġback wards
Ġguide lines
Ġcharg ing
jav adoc
P et
Ġb es
Pres entation
Ġfac et
Ġch unks
ĠHand ler
å ī
Log s
Ġcomb ines
Ġ" ]
ĠMajor ana
ĠK r
SECON DS
p index
åĪ °
Pub lished
ĠS plit
3 45
ĠK ind
)} -\
Ġaltern ating
(" ./
Ap ps
Start up
}\ }_{
Ġsub system
C AN
Ġti ssue
ĠCho ose
Ġm ounted
leg acy
$/ .
Ã¡ n
ĠMo on
Ġv oters
Ġtheore tically
}) )$
ĠSt udio
bib item
ĠD avis
ĠNav igation
? ,
ĠPak istan
Ġ\| _
K V
Ġframework s
ĠS ame
sch ed
domain s
Con cept
ig ible
Ġbl ind
Ġsyste matically
2 14
Ġstr ide
ĠR yan
pre dict
re ment
Ġun supervised
so lete
ber ger
ãĤ ¤
ser ted
ĠAg ency
Ġsophistic ated
< -
æģ ¯
N ational
Ġp ause
ĠPre dic
++++ ++++
0 15
W ER
A cl
restr icted
Ġparad igm
get State
Ġimp urity
ow a
Ġcontr acts
Ġweb sites
ĠMin or
ĠI SM
ĠPr ice
Ġsequ el
B UT
B ulk
text greek
Ġexec utable
f loating
Ġdig it
Ġ' +
fl avor
ä¸ Ĭ
)$ \
Ġti ed
"> $
Ġob sc
}| ^{
Ġdwar fs
Ġinstant aneous
Ġ ])
w ant
); \
flat ten
ok u
co ords
defin itions
Ġpay ing
Learning Standard
) &\
( /\
doc utils
b ula
in ria
th s
Th roughout
Ġemploy ee
de cess
N u
å ¹
sw agger
Ġtor que
Ġpi ecewise
à¥ į
Ġb anks
Ġpre d
H istogram
ĠA th
out ine
Ġdimension ality
FI X
In variant
19 67
Ġc aching
ĠR ank
ĠD b
Ġdes criptors
dis miss
tag Name
Ġout standing
g old
or ov
Ġintern ally
ĠSan ta
Ġvis its
rac es
E W
Ġdiv iding
Aggreg ation
Ġcomput ers
DEFIN ED
Ġis ometry
Con current
Ġle mmas
ĠMER CHANTABILITY
ab ar
)) ]
Ġrig orous
Ġcode c
Ġi Phone
H K
ar ator
llig ent
=" &
\ }^
Ġcon vol
UR ATION
Ġr and
sub script
Ġnow rap
ĠJacob ian
ure n
ĠTest ing
Ġtransport ation
)` |
ĠL ower
O LEAN
Ġattempt ing
ĠS afe
ĠP D
Ġ' &
ĠInt Ptr
L ee
Ġh at
ĠFe ynman
Ġaim ed
follow s
ĠTo ols
Ġdesign er
# .
l w
To o
d ie
o ul
Up grade
PRE V
P ur
ĠH RESULT
j on
con sum
). __
Ġ_ \
Bo ost
eler ik
}( (
trans formation
ĠHar ry
C y
ĠD rive
Ġfaith ful
get Resource
ĠF lag
dis tributions
Ġrela tivity
as se
ma pped
Ġ{ &
ĠWh ich
Ġt une
c make
ST ORE
Ġcons ent
22 9
KEY WORD
Ġ$< $
Ġop tically
vi k
exp ress
Ġfull Comment
Ġex clusively
Ġdecor ated
ll l
Ġ) ^
fe as
ĉĉ ĠĠ
Ġqu ota
Ġrest ored
MEM ORY
O H
ch romium
Ġcl arity
th y
Ġconfir mation
_ "
Ġmask s
Report ing
spe aker
Ġb onds
ad van
ub a
c enti
Ġwh ilst
Lef trightarrow
+ =
Ġse lects
nt ario
Ġderiv ing
0 33
est amps
ug gest
ĠO lymp
ĠA vailable
Ġn od
Aud it
gl Get
Ġtyp ed
ris k
(' %
Q F
ĠIMP LIED
b rew
in ery
or b
Ġtool bar
Ġparametri zation
ĠB on
26 2
Spec ified
ĠI mm
ee ee
Ġh ls
IN F
Ġtermin ate
ID S
ĠS aint
} &=
Ġgroup ed
ĠEli zabeth
[ ![
as tically
Ġsp rite
Pr im
typ ecol
Ġrefer ring
ĠM aps
Ġair port
Dat as
Diag ram
develop ers
Ġres um
ĠIn clude
Ġ( __
hav ing
> ?
S parse
Ġde letion
sc ience
Ġpart ly
Ġdeep ly
Ġteach ers
Ġtermin ology
Ġ/ ^
Ġsub stituting
}, \,
Ġaver ages
ĉ ĠĠĠĠĠĠĠĠĠĠĠĠĠĠĠ
Hand ling
A J
* [
SPE C
C U
ĠV iet
?? ??
Ġsusp ect
b box
ĠCh anges
Require ment
ĠO VER
contains Key
Ġelect roweak
Ġcontrad icts
F lex
W ild
ĠR edu
Ġchar s
Ġregular ly
Ġproceed s
Ġin ductive
Ġsol iton
ĠM PI
ym an
Ġsort ing
Pers istence
FORE ACH
Bit coin
g ene
ĠT ables
new Builder
0 24
pack ed
user content
}) \,
S at
ian ces
Mark up
18 3
No tifications
S ynchron
Get s
\ :\
Ġspo ke
ĠH ur
Ġside Weight
Function al
no tice
un ning
ĠĠĠĠĠĠĠĠĠĠĠĠĠĠĠĠĠĠĠĠĠĠĠĠĠĠĠĠĠĠĠĠ ĠĠĠĠĠĠĠĠĠĠĠĠĠĠĠĠĠĠĠĠ
Ġt ac
ĠOh io
ĠRO W
c ertain
se ason
magn itude
Ġsym pt
)] $
ä¸ ĭ
Ġre serve
}_{ [
Po isson
Ġextension Registry
Ġwe ar
WE B
Sub scribe
X S
Ġcol lap
ãģ §
ĠPhil ipp
30 7
ĠA CE
ĠM att
Ġphenomen ological
VO ID
ĠL F
Bo otstrap
property Name
ĠB attle
Ġrepro duced
i ot
Ġsp ots
Date Format
Top ology
Ġver b
Ġpro test
ENT IAL
Ġc ourses
ĠResource Manager
. ).
ĠC amera
l isted
ĠG allery
ĠFR AME
x u
r ust
| +
Ġn eck
Ġ' );
ĠPART ICULAR
P oll
ow nt
Th ing
Ġther apy
W F
Ġb s
AC L
ĠInput Stream
W as
ol y
ag en
combin ed
S izes
ĠA verage
Ġbefore Each
al ready
Ġp ow
ĠH al
par box
v ac
S cr
In strument
18 1
separ ated
Pointer Exception
s ho
Ġcon ject
Rec on
ĠL ar
key down
mail to
ĠFore st
ĠScot land
lin eno
Ġh ur
b our
rect angle
Ġconstit ute
Ġ*/ ,
Ġn pm
St ation
c L
ire ctives
B on
Ġoper ates
In side
ĠØ ¨
ac s
}( [
ST ER
Ġ(* .
ĠF ormal
stud ent
Rot ate
Ġb t
Ġte en
ĠLOG GER
ob servable
FILE S
ch ev
a head
Ind ent
Ġcont rollers
Ġl y
ĠA venue
)= {\
Ġcross ed
ĠC B
Publish er
Ġvis cous
insert Before
(' :
Ġbo ught
Ġen emy
($ (
[ $\
ĠCon tract
Ġmag azine
Ġlight s
prof iler
Ġresol ver
ĠDis ney
x it
Ġsp y
ç §
edit able
Ġfair ness
Ġt v
Ġerg odic
ĠM Hz
ivers ary
Ġaffect ing
ĠB ind
col group
ĠTh ank
cal es
er ves
rav ity
Ġloc ate
Ġrelig ion
text Color
yl van
H s
is olate
Ġf p
0 50
Ġ) }
Spec ifically
h ours
Ġre nt
^- (
K D
C nt
Ġt xt
Ġpropag ating
CHAN GE
ASC II
l ar
Ġ Å¿
ĠF ord
cli ents
Pixel s
end ors
Pro cedure
oding er
uk i
Decor ator
seman tic
ĠE FI
ãĥ ©
h ss
ĠL ik
ĠTra vel
er v
ST YLE
de e
ig a
ber ts
Ġf ibration
Generated Message
propor tion
q w
man age
Ġcatalog ue
Ġ= ========================================================================
Com mun
Ðµ Ð»
Ġh olog
Ġk a
Ġconn ects
ĠJO IN
Http Client
ĠOr ganization
M appings
S ugges
Ġg od
Ne ed
H V
AL LOC
Ġaut onomous
Ġjus tified
Ġ" ).
be a
Ġpointer s
` );
Ġser iously
}+ {\
w avelength
Ġh ull
SC A
Ch ris
Ġb ump
Ġde bt
Port al
i est
re name
iver sities
v x
dist ingu
Ġup stream
ĠPro b
appro ach
Ġover write
}}\ ,\
Ġis omorphisms
ys hift
Ġcomp eting
ick en
Ġcur ved
Ġestablish ing
//////// ////
Ġthem es
sequ ential
/ -
M EN
ĠSc ene
illa ume
Code Dom
H ot
ĠRe place
b ys
f red
Object Meta
ival ent
ĠP ic
emph asis
Ġm b
Ġint ense
Ġret val
may be
re ll
is c
ul ous
Ġco ffee
str cmp
umin ous
ob tain
mo ving
re ci
Ġinvest ors
Unmar shaller
mark ed
rup al
S everal
ä ¾
28 5
hed ron
Ġsuc ceeded
| ^{-
ĠS I
20 48
Ġso ught
DO UBLE
f name
l k
it ative
Ġnon empty
Ġconn ector
Ġconcentr ations
:: __
ĠR ose
ĠIn nov
ession al
Acc eler
SUPP ORTED
] )$
ĠC OR
http Request
Ġlum inosities
ul ators
irection al
ĠCom Visible
Ð°Ð ²
ĠAd v
UD IO
M ARK
IP v
unc ertain
Con vention
Ġte ar
Ġbe auty
è ¾
Ġo m
ex cludes
Ġpoor ly
{ };
or ient
trans lated
25 2
Wait For
ĠApp lying
Gre ater
ord ial
26 5
vision ing
res ume
Inter ceptor
U id
i ors
p lex
ĠA str
Und o
ec ond
big wedge
23 8
ĠRun nable
Ġcamp us
Ġtack le
I de
P ing
Ġcent roid
mut ation
Pr inter
ĠWork s
ivari ate
d ip
ĠPer iod
Ġwatch ed
Ġquanti zed
Fin ite
type NameLink
ut ational
Ġpar king
ĠZ ero
ro bo
Tw itter
Ġevol ving
M ills
ĠCo hen
ĠSte phen
Ġh opping
/ (\
T ilde
ĠD river
it ting
ĠW as
port al
Ġcon gru
PE D
im i
DEF INE
pers istent
vec tive
Ġthous and
D am
Ġazimuth al
S NR
ĠFin ancial
Ġtermin ation
rotate box
"] :
card s
}+ (
ĠSerial izable
P AT
ing roup
ĠS her
R V
Ġv endor
ĠG URL
Ġw el
ĠLo oks
bind ings
Ġ( ``
F ULL
P RL
S us
Ġfil ament
um ble
Ġide mp
3 40
M IL
Ð°ÑĤ ÑĮ
pre duce
Un ited
Ġdel ays
g ender
bf series
pack aging
of ill
ĠTe lescope
plan es
Ġf iring
ĠL ists
Ġinte l
cloud flare
in ja
Ġru led
=" __
) ^{(
ĠD T
}) }$
Ph p
uck er
El astic
Ġanc estor
ino is
Ġp x
Ġdecomp ose
Ġdiag nostics
Ġdetection s
sp read
Ġrank s
Big Integer
ctu ation
col One
Ġpec uliar
Wh ich
Ġeng ines
w ml
ap propri
Ġc ert
Ġc rop
Ġre dd
col lapsed
Prof iler
ç¤ º
) ")
Log o
Ġadequ ate
b mp
d ap
ĠTrans fer
om al
ĠS pr
Ex tract
Ġmulti variate
Ġconfig urable
ĠS UB
Ad v
le igh
4 75
NS Mutable
}$ \,
mon s
è® ¾
S phere
Ġcap s
ãĥ ĥ
Ġ\ `
tr as
DESCRIPT ION
Ġshe aves
B ri
ĠW D
reach able
ĠG AN
Track s
Ġdie lectric
Ġmanufact uring
| >
% =
Ġlong itude
ĠMar shall
( **
T ech
var kappa
Aut ow
Assum ing
TYPE S
ä» ¥
Ġd os
ĠL ewis
ĠH ER
Ġpop ulate
Ġmove ments
Ġfe es
Class ification
tab colsep
w u
ĠSup reme
od rom
ĠNew Page
ĠMOD ULE
C atch
Ġequ iv
E instein
m ill
ĠJes us
Ġformat ting
2 17
ĠDis tribution
Ġhouse hold
8 000
d an
Ġh over
us al
Ġrare ly
< >
tr ay
lim inf
ĠE ither
ĠCl inton
Ġarm y
C ritical
DA Y
& +\
ad vanced
get Last
paramet ri
} ");
esti mates
Syntax Kind
Un ary
N Y
P recision
form ats
align at
{ ,
up dates
ĠM ul
F o
Ġappro val
Ġcor rupt
o val
Ġr ub
ĠE astern
deli very
unn y
Ġtr usted
Sp atial
Ġdestr uction
áĥĲ áĥ
file path
Col our
Xml Element
Ġap par
RE LEASE
ordin ary
C os
Ġdo se
uc lear
web site
b ands
Lay ers
Ġstrateg ic
Ġintui tive
Ġy esterday
END ING
vary ing
ro oms
ri k
ĠR H
us ually
ĠM as
pl aces
Ġcall able
Ġsymbol ic
Ġadjust ment
ĠDe ath
ãĥ¼ ãĥ
Ġd B
IN CLUDE
^- _
Seg ments
>: <
4 20
ĠCh ain
Ġp g
ĠT each
sent ence
ra ps
ĠK evin
gr ant
| |\
Ġra ises
Ġti les
Ġevalu ations
rec ur
Ġcorrect ness
ar ts
Ġb le
Ġin ventory
ĠW ales
Ð½ Ð°
T ap
zer os
< $
Ġthe sis
H alf
ig s
f ab
\! -\!
b uck
Ġemb od
Ġy r
ĠColumb ia
del phia
C am
ç Ĳ
ĠE ss
at um
Ġte tra
bas ename
Ġfib re
ĠM arg
ĠObserv atory
Ġarr anged
Document ation
ĠP P
Ġdes ktop
Ġrepresent atives
)) ))
M ATCH
Log ic
Dig est
memItem Left
name of
* -
I ts
r st
ar ma
)( (
Ġshort ly
C MAKE
d ens
` ;
Ġ$ >
ĠP ipeline
Ġdis connect
Ġest ate
Or Builder
ĠSh are
Ġdiscus sing
0 13
Ġs tiff
ĠG ram
19 64
on load
ĠFro benius
S ect
Ġg allery
Ġad vis
FA CT
Ä Ľ
Ġe in
Ġex empl
Ġachie vable
Ġw s
Ġimp osing
Se ek
Ġro l
Order ed
ĠÐ½ Ðµ
H uman
memItem Right
Ġscal a
D umper
Ġthink s
Â ·
me th
datas ets
al bum
pop ulation
YN AM
id ad
\,\ ,
å ±
ĠC MS
ĠB undle
Ġunc lear
full screen
ĠSim on
Ġiniti ated
Ġpartners hip
), $$
Ġsta ke
H our
}' .
] ])
Ġso ul
24 7
view er
M pc
Ġst oring
Comp ression
ĠRe presents
cdn js
Ed ges
}\| _
Ġheter ogeneous
à¤ °
as ty
ĠI B
ĠLe besgue
Check Box
lo ver
ĠK err
key Code
number Of
Ġm useum
Command Line
S leep
ne e
acc ordion
Ġprote ins
ĠP SF
Ġgr ants
ĠCON TRACT
contrib ution
Ġif rame
ĠEd ition
Drop down
ĠInd icates
opens sl
manif olds
Ġdoll ars
Ġg c
pr incipal
ĠTer min
// -->
ĠEx press
Ġhor se
åŃ Ĺ
ob servations
ĠTer ms
ĠH ong
SE PAR
con formal
ĠV ec
no ulli
Ġsc ored
Ġisol ation
Ġcryst als
COM PI
Ġdiffe omorphism
}\, {\
Jo urnal
Ġconcept ual
Ġre versed
Ġcod imension
30 5
Ġapp ended
Ð°Ð ¹
+ .
Ġign oring
certific ate
= $(
Ġfunction als
Ġdata Type
Ġstre ets
Can onical
ĥ ½
f ixtures
Ġvor tices
dis connect
Bl end
lst listing
on na
scri bed
SA FE
[ ^
ĠF ITNESS
Ġfragment ation
Ġpool ing
M ongo
ĠPro xy
OnSearch Select
Ġcalibr ated
am d
A st
Ġ ----------
ĠAn ti
Ġparticip ation
re ats
6 25
ĠS creen
V IDEO
var nothing
Ġful filled
#### #
ĠB road
Ġun w
nod ata
ĠHol lywood
ĠAn imation
Initial ization
Ġeduc ational
Ġdram atic
g lass
] |
Con tainers
s ell
= ,
ad m
b ach
({ "
ĠSyntax Kind
ĠA k
red shift
f u
ĠTrans former
ang ers
ĠC ancer
ĠPRO VID
ĠI DE
ĠN an
ag le
Ġm ent
ĠT ony
ĠC FT
ĠG EN
Ġaccompany ing
Ð ¡
us et
>. <
Ġ% (
Default Value
get Bytes
24 8
ĠOx ford
Ġpoint wise
S CHE
Ġ" &
Ġse eds
ĠUp dates
Ġoptim ality
Ġdig est
Ġsnapshot s
¦ Ĥ
ĠJ oh
Ġtyp ing
Ġeng age
Ġpar alle
spe ech
ĠB inding
ĠW E
dd d
zon a
Ġn utr
ĠMy r
' )$.
si ans
Ġn arrative
OPTION S
Ġal arm
ĠD ET
Ġconjug ation
ĠO MIT
Ġaltern atives
A vg
DE S
olo ad
is Null
ĠB ush
Ġbenchmark s
L ittle
ĠS cale
ĠA u
Ġeigen functions
Ġdriv es
ring e
J ul
Ġgraph ical
chem ical
top ics
J acob
diff usion
g am
Ġd uty
Ġe motion
we i
d q
Ġb orrow
) ].
ĠQ ual
ic z
ĠM ix
des erialize
CH O
ylvan ia
Ġn ur
ĠMc C
Ġsl ider
] }(
Ġf li
åĽ ŀ
ma preduce
AT FORM
60 6
}\ }$.
Ġqu otes
Ġconver ter
es sian
Ġ\ >
ub les
g ain
p ager
}} )$.
Ġfile d
signific ant
glu on
ĠP atch
net t
TRAN S
tr u
inter acting
Autow ired
ĠInst agram
Ġaccess or
cyc les
ĠC ru
Ġaf ternoon
Ġw ine
Ġmin Occurs
ĠSo bolev
station ary
ĠRetrie ve
it eness
Ġget attr
Ġswe ep
Ġsepar ating
expand after
ĠGener ator
Ġserial ization
N at
Ġ} ];
}) ^\
Ġincomp atibility
Ġpron ounced
J ar
Res ume
ed a
og on
' _\
ĠF ailed
Ġsatur ated
in ch
ĠUn icode
Runtime Exception
v id
ĠA bb
Qual ified
Ġlept ons
Ġp lug
Ġknot s
Ġb omb
Ġst one
sc enario
Ġvictim s
Ġin consistent
ĠS ong
ĠA CT
du ality
Ġconfir ms
Ġ< >
Ã ¦
ST OR
Ġconfir mations
Ġinvestig ating
EXCE PTION
es a
fil ing
Ġspecial ized
get Field
check er
Ġvis iting
Ġ========= ==
Ġtab index
Ġc rossover
ĠPro tection
Ġelection s
â Ī
An c
ard o
Ġcol s
ĠK ol
Ġ$\ ,
Ġi e
Ġinter vention
ĠSub section
ĠArg uments
ĠDo ug
sym pad
Ġ\ [\
ut ures
ãģ Ħ
measure d
ĠOper a
if ford
mod ify
adap tive
Ġsub script
table Name
sg n
Ġgeodes ics
Cap ability
I SS
ĠD ream
22 3
Framework Bundle
Ġin herent
Ġpos es
Ġche ap
h k
ts a
ĠRe pository
Ġdisc ipl
Ġche mistry
trip le
19 65
22 8
Ġappro xim
Ġsw im
Mag ick
Type Error
idd ing
di ver
Ġhol iday
Ġm andatory
** /
ĠE R
test case
dis pose
Se ed
OP TS
b ab
ow s
fall back
D NS
Ġhel icity
Bel ow
Deserial izer
Ġneur on
l ane
Ġc x
Ġal phabet
github usercontent
Cell s
Ġ$ *
& )
Ġfun ny
find er
Ġcylind rical
K im
ma phore
; (
25 7
DF S
pe m
Ġadj acency
Ġuser Id
ĠAttribute s
Ġtrad ition
"/> .
ĠRe ader
ĠT race
abel ian
Ġips um
supers cript
lass ical
Ġback bone
ĠK B
By Key
ti ge
Ġin homogeneous
ĠF ried
J NI
ish es
ĠEmp ire
G ro
g ames
Ġsp ans
çĲ Ĩ
ĠT ick
ĠL C
Ġcom ma
Refer ent
dig it
v ard
es lint
**** *
- (\
ĠS park
ol ine
ĠG yr
Ġhyper surface
ri o
In verse
ĠTh er
Ġbeh alf
Ġhelper s
Ġde lic
Rou tes
Ġ++ (
Ġaware ness
ic it
ap pe
ĠK ent
Ġr ural
ĠL oss
3 15
f at
Ġsing er
Ġsol o
Ġprint ing
A H
z k
Ġp ressed
B re
g rained
currentTime Millis
p rivacy
ing ers
Ġn ano
fact ors
ĠÎ ¼
Ur ls
__( /*!
ĠMag azine
optim ization
LAB LE
H over
ib us
Ġplaus ible
CONTRO L
IV ATE
Ġanomal ies
Re ports
# /
hand les
b end
ir re
Type Info
Ġpat ent
Ġobser vers
Ver ification
ĠWh it
ĠC ounter
RO ID
Ġresol utions
Ã¼ r
Ġc ot
ĠJ ason
ĠNe ural
è ½
ph ones
sh ock
ĠEar ly
si le
ir ically
ĠCamb ridge
B V
8 64
jet ty
Prototype Of
Tick s
Lif ecycle
Ġd d
ĠD or
ĠG reg
ĠComp ton
D rive
aggreg ate
ĠDet ermine
Ġconven tions
Ġcollect ing
Ãµ es
D ifferent
ĠCap ital
Web Kit
pro fit
ud son
Ġsta ys
D ROP
DIRECT ORY
u ario
30 6
Ġlocal s
= */
in fer
main tainer
{- }\
Ġcontext ual
ĠS IGN
ĠRo y
Ġserial VersionUID
data Type
ĠPro vider
}' (
Ġvi able
Error Message
ĠD iff
Ġnon local
seg ments
Ġro of
Î ®
in ator
A sc
M agento
re call
ĠP ars
Ġparametri zed
Rec order
29 5
B esides
Ġutili zing
less ly
Ġweight ing
p reference
ĠHe art
Ġorbif old
Ġsatell ites
ĠP I
ĠN iger
Con struction
Ġnil potent
3333 33
3 12
â Ĩ
Ġs weet
PI PE
ĠPr imary
F K
al ib
assert Is
UT ION
ĠO cc
Ġ& (
Ver tices
ĠH u
ĠL iter
Ġa gric
tic ity
in ode
init With
3 64
ĠD om
v ue
ĠD og
ĠD FT
time zone
IS ING
Ġentertain ment
C la
Ġs vg
get Parameter
Rel ationship
Ġle gs
Ġ` .
Ġquadr ature
Sch eduled
Ġconf inement
Ġeccentric ity
/ ~
un s
Ġde formed
) }_\
Ġre tained
ownt own
88 88
= &\
ĠN amed
b ic
h ab
ĠAUT O
ĠLO CK
T ASK
ĠC er
ĠB P
mo lec
ÏĦ Î¿
Ġli kes
22 7
AS P
dev tools
g wt
Ġchar m
Ġsc anning
Ġbul ge
Ġas sertions
Ġac tivate
ĠRe present
0 14
com bo
Str ong
T ele
pe x
Ġdown loaded
ĠDA Q
ĠF a
Ġu k
Ġimp ression
Ġdi amond
) ])
s ector
cover ed
ial s
Tim eline
Load Balancer
Ġbind ings
ĠCart an
Ġed ited
Ġstrong est
ferm ion
G UID
Ġpublic ations
Read Write
Ġconflic ts
Ġs nap
Ġ" ."
BO OST
ĠCustom er
'' }
Ġinc idence
olog ist
i T
ĠC ould
siz able
[ {
Ġc ipher
23 9
cre ator
^{\ ,
ĠCl one
ĠArch ive
ch ed
Ġmodel led
Ġel liptical
root s
set Enabled
b ubble
Ġ$ {{\
Ġar ts
Non User
}{! }{\
ti um
Ġop code
40 9
Ġitem prop
End points
N Unit
gr ading
Ġo u
Ġm v
bitr ary
, ~\
Ł ¥
box times
Ġdi am
s lick
ag an
Int ro
cred it
w m
SY MBOL
Ġ( []
Ġt one
ĠĠĠĠĠĠĠĠĠĠĠĠĠĠĠĠĠĠĠĠĠĠĠĠĠĠĠĠĠĠĠĠ ĠĠĠĠĠĠĠĠĠĠĠĠĠĠĠĠĠĠĠĠĠ
E urope
Ġc ensus
d S
Ġs entiment
We ather
Ġmon oidal
Ġin volution
Proc Address
c yl
o pher
ĠE OS
P or
an onymous
T ester
Ġpres cribed
Experim ents
ĠW I
Ġcol lapsed
Ġmask ed
ĠKe pler
Ġdecay ing
Ġde ple
Ġste el
C e
ĠT M
ĠN amespace
de tected
Ġget Value
ĠPR IMARY
C Sharp
Ġcomp oser
Ġinstrument al
ĠC ra
Check s
}^* \
Ġinter sects
esti mation
names paces
Ġc am
bit Field
ĠC IFAR
ĠAl ways
Ġsugges tion
ĠLy apunov
om ed
ĠT en
Ġno va
Ad j
ic ting
ĠMo ore
ĠC ancellationToken
RE N
Ġdo i
Im mediate
Ġsil ver
sh ifted
B ol
ĠP ear
In str
df p
Trans lator
Ġhard ly
yy yy
Ġaccomp lish
Ġex clusion
ĠK L
Ġbenef icial
uch i
Un signed
' }(\
Bro ker
Ġ( ;
Ġun necessary
ĠAltern atively
Ġt aste
ap id
ĠP lus
IC ES
Ġde leting
ĠFr ont
Ġhouse holds
ĠF IG
top Nav
MEDI A
Ġget Type
J M
ĉĉ ĠĠĠĠ
Ġp sz
Ġinnov ative
D W
Ġg reedy
sp rintf
ĠB or
ĠQu ick
Edit able
ĠDemoc rats
ĠNE W
Ġescap ed
ĠD ol
Pl anck
) }^{\
u ated
32 7
ĠSum mer
S af
SO CKET
is Set
Ġsusp ension
ä½ ľ
Ġdegrad ation
P W
u um
re li
oc key
Ġin ev
"] );
or able
ĠR uby
25 3
process es
666666 67
Table Model
NS Array
= ['
Ġb ir
cre st
Ġpre domin
( ["
: \\
Ġb ib
Cap tion
W heel
th ose
User Name
con version
SH IFT
ĠAnaly tics
( ...
v tk
} ].
aa a
C ounts
Ġg tk
ĠG M
Ġsk ipped
ĠCOPY RIGHT
ĠTim er
bro ken
ĠLag range
Ġpublish ing
ĠS ir
Ð ŀ
Ġt ap
all ing
Return Type
Ġelimin ated
AL TER
ĠEd ward
v ens
ATE G
De leg
ec ke
comp ression
Ġden oting
Sp ot
Ġoptim um
C oun
Ġad m
Dec ision
Ġevol ves
v l
ĠS IG
8 50
tit udes
0000 0001
Ġtransl ates
altern ate
RESP ONSE
Ġv in
23 6
Ġcapt uring
Ġm ill
Co ordinates
ĠK o
Ø ´
et z
ĠR NN
C ancellationToken
ĠB T
there fore
C W
L aw
CF G
PASS WORD
è ĩ
en na
Ġfiles ystem
ĠLabor atory
ĠS av
ĠL imit
Ġreg ulations
Ġresource Culture
Ġfore ver
sel enium
k p
Ġb acter
Ġavoid ing
+- +-
Form ula
Ġtermin ated
mov ie
dis per
vo ided
ad verti
Ġde x
Add itionally
p ressed
Ġthe ta
Ġpol ling
COMP ONENT
ĠMean while
P ause
get File
ath ers
B id
enc ia
Ġrac es
es tr
Ġambig uity
ĠA W
Ġexplain ing
Ġreser voir
ĠJacob i
Ġex pose
Ġport al
Clean up
decre asing
\ })
up id
Ġprim es
ues tions
Ġatten ded
Debugger NonUser
ÑĤ Ð¸
TRAN SL
ĠImp lementation
Ġb esides
ĠUp per
bottom Nav
ĠPre vious
header link
Ġulti mate
k T
p rac
ĠE ll
Ġconstant ly
ĠRequ ire
}} }_
E U
Ġcon duction
assign ed
4 28
ĠF ive
STR A
ĠV ery
Ġâ Ķ
Ġw ing
Ġh urt
get Object
ĠPro to
Ġv eter
_+ ^
~ .
Ġar rested
Ġtick ets
ai ro
Ġassoc iative
Ġb ash
ĠG MT
ĠĠĠĠĠĠĠĠĠĠĠĠ čĊ
ĠBE GIN
ĠDoc trine
ì Ŀ
ĠDo ctor
S Q
Ġre wards
regex p
ĠColor ado
ĠGold en
YNAM IC
scroll Top
Ret ention
H ours
ĠIgn ore
S IM
Ġm ature
Ġlinear ized
Ġsmooth ness
ĠLa unch
IC Y
Ġda emon
struc tive
ĉ ĠĠĠĠĠĠ
Ġqu iver
Ste ps
cr imin
breadcr umb
ĠJo in
domin ated
Click ed
ĠCONT ENT
SY NC
jd k
ĠR ever
ograph ical
+ {
26 9
Ġ{ });
"] ["
radi ation
, +\
tr avis
bl k
j ack
Ġdis aster
tab ility
is tically
ge b
Ġv ital
ĠR TC
get Status
Ġres ume
= <
S aved
m art
cho ices
D ll
Ġs d
calcul ated
0 60
ak en
Ð° ÑĢ
Ġrect angular
ever ity
Ġtra it
ĠUp dated
M il
ĠUn known
control cap
ĠGib bs
cent rate
Form ats
o ad
Ġbelie ves
Ġm ales
Ġval uation
en ko
w itch
Ġstr iking
co okies
initial izer
Ġconsum ed
ĠFi refox
Place holder
ĠMil ky
osc ill
A k
s x
Ġa wards
EXT ENSION
Ġdiscr imination
new Instance
m us
re action
Ġp yl
ĠSH ALL
equival ence
F riend
No thing
ĠM F
Im ports
some thing
te es
Ġle an
ĠCon sumer
Mock ito
R N
Ġdiag nosis
ĠSchwarz schild
Ġre min
comp utation
= /
f am
Ġf lying
ad get
le tions
ek yll
Ġconver gent
allow s
ĠLI ABILITY
Ġnew er
inter est
sta ff
Ġdesign ing
PROTO COL
ĠE ver
Ġsudden ly
G I
] ^-
Ġcontrib utors
}) ).
eck o
Ġord inal
Ġbur sts
ti les
ke e
. ),
(' [
D ifference
ĠF F
Ġr ush
Ġap pointed
ns ylvania
acion es
Cre ating
W illi
NG C
loy d
field Name
Ġp up
po les
Ġintersection s
Min or
Ġviol ated
W hether
CI AL
ĠSaf ety
Ġlegis lation
End ian
Ġinten sities
0 16
B ob
s am
Ġst ood
ĠCh ap
li on
get Column
DB C
met al
Local ized
Place ment
, *
k d
el liptic
Section s
A ML
M vc
On ClickListener
Ġaccess ing
aud it
ĠDA MAGES
cord ova
ver si
ĠP air
33 5
ĠK on
as test
Ġpl ates
power ed
Mouse Event
iv ar
2 99
ĠBuffer ed
Ġde duced
mag ne
Ġhyper plane
}} }_{
ĠB ow
}. )
rf c
ĠArgument NullException
f its
Upper Case
P ATCH
)= (\
Ġfid ucial
IsNull OrEmpty
X na
Ġanaly se
åŃ ĺ
4 40
$ ('#
Ġra ising
ĠO H
A w
ĠRem ember
ĠCred it
ro ck
Ġhor ror
PACK AGE
Ġgenu ine
------------ ---
Ð Ŀ
Ġcompris es
I Enumerable
ash es
ric ket
Ġemer ge
Ġinf ected
ĠOper and
Ġbug s
ine ma
Ġmul tim
es c
dot net
Run nable
Ġa voided
Ġmodify ing
= |
lo ud
L imits
ĠC le
DO MAIN
el ix
Ac tivation
ĠSta tistics
2 18
An onymous
ĠUP nP
ĠHou ston
4 30
19 66
log out
ther lands
con sin
D st
Ġre play
ms kip
{ }_
ĠSeg ment
Ġcom mod
From String
Ġfree ze
Ġmet ers
ĠJ am
Ġg ift
raf ted
. #
G V
ĠU T
REG ISTER
44 3
Ġemail s
ĠStart ing
ĠHttp Response
o ke
op code
Ġco ords
Ġtest Get
ĠUnsupported OperationException
33 6
Ġinflu ences
squ ared
sur faces
ĠNav y
à ®
mark up
w heel
ÑĢ Ð¾Ð²
Ġl aid
Ġta ught
" '
Ġrec urrence
RAN GE
*}[ !
nucle on
Ġre name
Ġn ick
ĠF ed
ĠMon th
Ġfra ud
in j
min ecraft
sv c
Ġgram mar
ĠC am
thes ize
ĠC ab
acc ording
ĠPart ners
truct or
Ġkn ock
Ġpric ing
ĠT ouch
ĉĉĉĉ Ġ
Ġindic ators
dec ision
ĠEl se
Ġamong st
Ġemploy ment
WR AP
Ġadv ances
SE L
Ġhel ium
ĠInt roduction
Ord inal
Ġab sl
Ġread able
it ational
P aper
Ġreg ulation
Ġaff ili
")) )
Sign ed
ĠWeb site
Watch er
oc a
Z ERO
Ġtim eline
Ġmonot onically
ĠPROVID ED
' }^
g ences
ĠAT TR
Ġj q
ĠEx port
ĠSch olar
Ġswitch es
le ast
ĠW ol
det ach
Ġmultip lying
as io
Ã Ĺ
ĠIN CLUDING
\ }}\
ic ian
ĠM s
Ġ* )(
ĠW riter
inter op
Ġspecific ations
ic he
At A
roll ment
m igration
Ġy y
code haus
Ġ# [
ĠG alois
33 7
md l
3 70
Del i
Ġconf ident
Ġdrama tically
ĠJ av
Or Default
Ġbro ker
Ġbro ke
spher es
}} &
BUT TON
c aus
SH OW
ĠGR B
ĠRect angle
Ġ# ##
Ġend block
ĠSt one
Ġrec ipe
sub scriptions
array stretch
ĠRe views
icon duct
Ġcon sume
ir ty
AL PH
zz le
h ire
get X
Ġsur rounded
conj ug
M arch
V iol
>< ?
c R
x ic
em ale
Ð°Ð ¼
!! !
Ġim mer
member Of
Ð°Ð ·
Ġincorpor ating
s udo
ol as
ĠF lu
pro cedure
eta iled
RE SH
Ġs ens
ĠU rl
AV A
c xx
Ġcon test
Ġax ion
Ġsy ndrome
Ġ` ${
Ġrec i
}' _
ĠBig Decimal
ĠE nt
bas elines
Ġagree ments
Ġt cp
Group Id
Dev Express
ĠPers onal
Ġex cluding
Ġval ley
Ġsyn chrotron
Ġmigr ations
B luetooth
Ġx y
) })\
in ventory
ĠN ear
po on
E AR
ah a
Ġpush ing
unknown Fields
Ġlo an
>< ![
by e
b ac
Ġa jax
il ty
ĠA mb
Property Changed
^+ }
æĸĩ ä»¶
Replic a
ĠSTD METHOD
F LOW
d in
Ġtimes cales
Pre pare
Ġfor bidden
track s
kra ine
Ġaddress ing
0 27
schema Location
B an
ãģĻ ãĤĭ
Rec overy
et ric
ĠE mer
to Have
"=> "
Ġmonth ly
Ġc ited
ĠM otor
^* _{\
ĠSyn opsis
> ().
all as
B lo
Ġf aced
adv ance
P UBLIC
}/ {\
Ġinv ited
NS Dictionary
lect ual
Ġassign s
>? [<
ĠC N
24 2
a tility
ur ers
"> \
Ġspeak ers
^^^^ ^^^^
% {
3 90
get Request
ram id
Ġg uests
config s
n umpy
ĠGo String
ĠGr ass
g age
ur u
Ġqu aternion
Ġop position
Ġtra v
ĠMo tion
ĠN ON
Deli very
}) )\
min utes
Ġrec ruit
}| _{
Ġt ort
ĠCh ampionship
Ġsearch ed
ĠS can
ak n
Ġpr uning
lustr ation
assum ing
ĠTh ings
`` ,
LI BR
pr ints
ĠMon itor
38 6
32 1
.. ...
ĠIN DEX
avor ite
Ġpromis es
D iffer
arg c
Ġch aos
Ġfail ing
Ġvirt ually
ĠSTAT US
block ing
L STM
Bl ur
s ong
ĠE valuation
Ġdo ors
az ard
Ġge m
Ġdecl arations
equals IgnoreCase
ĠM g
Ġst uck
Ġj ar
ĠRe ynolds
ĠP ossible
Ġref ere
Ġ= ================================================================
ĠP in
Mark et
ho ma
ĠC RE
Ġr x
Ġwe apon
Ð¾Ð ¹
'' \
ĠB run
Or gan
incip le
Ġclos es
Ġobst acle
ĠM anch
Min utes
ĠÎ ±
qu eries
jo y
vo y
hand led
Spe ech
asym p
comp ose
ĠC Tx
in vol
g ive
OR ITY
ĠS td
Ġconver ts
unicip al
b roadcast
Comp ound
Call er
Ġmod ifier
m usic
m peg
ĠGe ometry
Un ity
tra de
Ġdoc umented
ĠExp ect
predic tion
Pod s
Ġpa ired
M aker
ĠUS ER
consider ed
Ġlocal Var
Ġcos ine
Br and
u art
é Ŀ
_{ |\
="# "><
ĠLo op
D onald
les c
Ġdisc arded
Ġstrug gle
ĠM ongo
tim ator
Z h
ma pred
Ġbo at
Tim ing
ĠSta ff
c B
mak ers
44 4
ĠInter estingly
Ð¾Ð» ÑĮ
80 2
ore n
G U
}) );
bo k
N or
Ġh ell
Ġpre val
ar ms
pro cal
Ġpredic tor
ĠFoot ball
ĠC hat
ĠV L
åĩ º
Re verse
Ġearn ed
P ID
m ongo
net beans
ak h
A ba
ĠT I
}{ @{}
Ġprac tically
T ail
h istogram
Ġimp orts
Ġtor ic
S am
¶ </
str and
[...]
